<pad>	0
</s>	0
<unk>	0
▁¦	-0
ܝܢ	-1
ܘܢ	-2
ܠܐ	-3
ܗܘ	-4
ܬܐ	-5
ܢܐ	-6
ܠܗ	-7
ܕܐ	-8
ܡܢ	-9
ܡܪ	-10
ܝܬ	-11
ܝܐ	-12
ܘܐ	-13
ܗܝ	-14
ܐܢ	-15
ܕܡ	-16
ܕܝܢ	-17
ܠܡ	-18
ܪܐ	-19
ܗܘܐ	-20
ܫܐ	-21
ܠܝ	-22
ܟܘܢ	-23
ܠܘ	-24
ܐܝ	-25
ܒܪ	-26
ܫܘ	-27
ܘܡ	-28
ܒܐ	-29
ܚܐ	-30
ܠܝܢ	-31
ܝܪ	-32
ܕܥ	-33
ܕܝ	-34
ܫܡ	-35
ܐܢܬ	-36
ܕܢ	-37
ܐܢܐ	-38
ܘܬܐ	-39
ܒܝ	-40
ܘܗܝ	-41
ܡܐ	-42
ܠܗܐ	-43
ܐܡܪ	-44
ܗܘܢ	-45
ܥܠ	-46
ܟܕ	-47
ܠܗܘܢ	-48
ܠܟ	-49
ܘܒ	-50
ܘܪ	-51
ܫܘܥ	-52
ܓܝܪ	-53
ܘܬ	-54
ܐܝܟ	-55
ܡܫ	-56
ܬܪ	-57
ܒܢ	-58
ܘܤ	-59
ܥܡ	-60
ܟܠ	-61
ܐܦ	-62
ܘܐܡܪ	-63
ܘܠܐ	-64
ܛܠ	-65
ܥܒ	-66
ܚܕ	-67
ܪܝ	-68
ܝܫܘܥ	-69
ܕܠܐ	-70
ܗܘܘ	-71
ܥܐ	-72
ܘܚ	-73
ܒܗ	-74
ܘܠ	-75
ܐܠܐ	-76
ܬܝ	-77
ܐܢܬܘܢ	-78
ܠܟܘܢ	-79
ܚܝ	-80
ܐܬ	-81
ܡܠ	-82
ܘܩ	-83
ܚܙ	-84
ܕܒ	-85
ܗܢܐ	-86
ܡܛܠ	-87
ܢܦ	-88
ܕܪ	-89
ܟܝ	-90
ܬܗ	-91
ܐܝܬ	-92
ܫܒ	-93
ܫܡܥ	-94
ܠܡܐ	-95
ܘܕ	-96
ܕܐܠܗܐ	-97
ܝܚܐ	-98
ܟܐ	-99
ܕܩ	-100
ܪܒ	-101
ܝܡ	-102
ܕܬ	-103
ܘܫ	-104
ܚܪ	-105
ܡܬ	-106
ܗܝܡܢ	-107
ܥܒܕ	-108
ܗܠܝܢ	-109
ܗܢ	-110
ܫܬ	-111
ܐܠܗܐ	-112
ܥܝܢ	-113
ܒܠ	-114
ܠܦ	-115
ܢܝ	-116
ܤܓ	-117
ܠܘܬ	-118
ܐܢܘܢ	-119
ܛܝ	-120
ܝܕܥ	-121
ܕܚ	-122
ܡܫܝܚܐ	-123
ܩܕܡ	-124
ܠܢ	-125
ܢܢ	-126
ܒܪܐ	-127
ܟܚ	-128
ܘܟܕ	-129
ܝܗ	-130
ܡܕܡ	-131
ܕܐܝܬ	-132
ܪܘ	-133
ܢܫܐ	-134
ܘܟ	-135
ܦܩ	-136
ܗܢܘܢ	-137
ܕܟ	-138
ܒܝܢ	-139
ܢܬ	-140
ܗܕܐ	-141
ܒܝܬ	-142
ܟܢܐ	-143
ܗܐ	-144
ܝܢܐ	-145
ܕܡܐ	-146
ܟܝܠ	-147
ܡܢܐ	-148
ܐܡ	-149
ܐܢܫ	-150
ܦܪ	-151
ܘܡܢ	-152
ܤܓܝܐ	-153
ܟܠܗ	-154
ܝܬܐ	-155
ܐܘ	-156
ܗܘܝܬ	-157
ܐܝܠܝܢ	-158
ܠܬ	-159
ܤܝ	-160
ܡܪܢ	-161
ܠܥ	-162
ܒܪܗ	-163
ܒܥ	-164
ܢܫ	-165
ܠܚ	-166
ܕܡܢ	-167
ܫܡܝܐ	-168
ܘܡܐ	-169
ܕܫ	-170
ܢܦܫ	-171
ܘܪܐ	-172
ܓܒܪܐ	-173
ܠܡܝ	-174
ܦܐ	-175
ܘܗ	-176
ܪܥܐ	-177
ܘܐܬ	-178
ܤܪ	-179
ܥܠܝ	-180
ܙܠ	-181
ܫܠܡ	-182
ܗܘܬ	-183
ܕܗ	-184
ܩܪ	-185
ܐܬܐ	-186
ܕܢܐ	-187
ܡܠܐ	-188
ܩܐ	-189
ܝܠܝܢ	-190
ܘܬܗ	-191
ܠܘܗܝ	-192
ܤܓܝܐܐ	-193
ܐܝܟܢܐ	-194
ܦܝ	-195
ܘܝ	-196
ܝܢܢ	-197
ܬܘܢ	-198
ܕܝܐ	-199
ܡܠܟ	-200
ܛܪ	-201
ܗܟܝܠ	-202
ܐܚܪ	-203
ܡܪܝܐ	-204
ܤܐ	-205
ܚܙܐ	-206
ܟܬ	-207
ܡܘܤ	-208
ܟܠܗܘܢ	-209
ܒܘ	-210
ܠܛ	-211
ܒܬܪ	-212
ܟܪ	-213
ܫܝ	-214
ܓܪ	-215
ܚܡ	-216
ܕܦ	-217
ܘܥ	-218
ܒܝܐ	-219
ܗܟܢܐ	-220
ܬܚ	-221
ܠܩ	-222
ܘܦ	-223
ܫܬܐ	-224
ܝܗܘܢ	-225
ܪܘܚܐ	-226
ܒܚ	-227
ܘܐܢ	-228
ܠܝܬ	-229
ܠܬܐ	-230
ܚܢܢ	-231
ܒܬ	-232
ܒܢܝܢ	-233
ܤܒܪ	-234
ܕܘܗܝ	-235
ܡܠܬܐ	-236
ܡܘܤܐ	-237
ܘܠܘ	-238
ܗܘܕܝܐ	-239
ܡܘ	-240
ܤܗ	-241
ܡܠܠ	-242
ܢܗܘܐ	-243
ܒܩ	-244
ܝܟ	-245
ܚܕܐ	-246
ܕܐܡܪ	-247
ܥܕܡܐ	-248
ܘܐܡܪܝܢ	-249
ܕܝܢܬܐ	-250
ܒܡ	-251
ܩܪܐ	-252
ܗܘܘܢ	-253
ܬܠܡܝ	-254
ܫܡܥܘܢ	-255
ܝܪܐ	-256
ܡܢܗ	-257
ܘܢܐ	-258
ܫܪ	-259
ܫܟܚ	-260
ܠܐܠܗܐ	-261
ܒܢܐ	-262
ܒܘܬܐ	-263
ܥܒܕܐ	-264
ܩܝܡ	-265
ܠܝܐ	-266
ܓܠܝ	-267
ܕܐܬ	-268
ܒܟ	-269
ܬܡܢ	-270
ܐܡܪܝܢ	-271
ܗܝܡܢܘܬܐ	-272
ܘܠܘܤ	-273
ܡܫܟܚ	-274
ܥܪ	-275
ܢܤ	-276
ܒܢܝ	-277
ܐܤ	-278
ܩܪܒ	-279
ܚܘ	-280
ܨܒܐ	-281
ܕܬܐ	-282
ܨܒܝܢ	-283
ܢܚ	-284
ܕܤ	-285
ܗܘܝܬܘܢ	-286
ܐܦܐ	-287
ܝܘܡ	-288
ܕܐܦ	-289
ܝܗܝ	-290
ܐܚܝ	-291
ܘܐܝܬ	-292
ܒܤ	-293
ܛܐ	-294
ܒܕ	-295
ܘܚܢܢ	-296
ܒܬܐ	-297
ܩܕܝ	-298
ܬܘܒ	-299
ܐܡܝܢ	-300
ܥܠܘܗܝ	-301
ܡܗ	-302
ܩܒܠ	-303
ܐܚ	-304
ܕܡܬ	-305
ܡܪܐ	-306
ܐܢܫܐ	-307
ܘܚܐ	-308
ܠܓ	-309
ܐܪ	-310
ܫܡܗ	-311
ܘܥܠ	-312
ܢܦܩ	-313
ܘܪܫܠܡ	-314
ܫܥ	-315
ܗܘܝ	-316
ܤܗܕ	-317
ܕܙ	-318
ܥܡܗ	-319
ܗܪ	-320
ܗܘܝܢ	-321
ܚܠܦ	-322
ܗܝܕܝܢ	-323
ܫܠܝ	-324
ܙܒܢ	-325
ܠܐܝܠܝܢ	-326
ܚܛ	-327
ܫܒܩ	-328
ܒܢܝܢܫܐ	-329
ܓܙ	-330
ܗܒ	-331
ܡܪܝ	-332
ܢܝܢ	-333
ܥܢܐ	-334
ܬܬ	-335
ܗܫܐ	-336
ܡܝܐ	-337
ܡܢܗܘܢ	-338
ܟܠܐ	-339
ܡܫܬ	-340
ܝܕܥܝܢ	-341
ܫܩ	-342
ܓܠܐ	-343
ܠܘܬܗ	-344
ܝܗܒ	-345
ܫܝܚܐ	-346
ܐܫܬ	-347
ܠܒܪ	-348
ܠܥܠܡ	-349
ܕܝܫܘܥ	-350
ܝܗܘܕܝܐ	-351
ܡܚ	-352
ܦܪܐ	-353
ܝܬܘܢ	-354
ܟܢ	-355
ܕܒܪ	-356
ܐܙ	-357
ܒܥܐ	-358
ܒܝܬܐ	-359
ܒܟܘܢ	-360
ܐܚܪܢܐ	-361
ܚܝܐ	-362
ܡܢܘ	-363
ܢܦܫܗ	-364
ܒܐܝ	-365
ܘܚܙ	-366
ܚܘܕ	-367
ܢܝܐ	-368
ܪܒܐ	-369
ܕܐܬܐ	-370
ܕܠ	-371
ܒܟܠ	-372
ܘܐܦ	-373
ܡܢܟܘܢ	-374
ܢܡܘܤܐ	-375
ܒܫ	-376
ܦܢܐ	-377
ܡܝܬܐ	-378
ܦܘܠܘܤ	-379
ܟܘ	-380
ܡܝ	-381
ܩܝ	-382
ܬܟ	-383
ܥܡܐ	-384
ܡܝܬ	-385
ܕܝܢܐ	-386
ܬܪܝܢ	-387
ܓܪܐ	-388
ܙܒܢܐ	-389
ܟܗܢܐ	-390
ܟܢܫܐ	-391
ܠܘܬܟܘܢ	-392
ܐܪܥܐ	-393
ܬܠܡܝܕܘܗܝ	-394
ܘܟܠ	-395
ܝܟܘܢ	-396
ܕܘ	-397
ܕܘܢ	-398
ܪܝܢ	-399
ܘܫܬܐ	-400
ܡܤ	-401
ܥܩ	-402
ܕܢܬ	-403
ܦܘܩ	-404
ܐܝܢܐ	-405
ܨܐ	-406
ܤܝܡ	-407
ܪܝܫܐ	-408
ܒܠܚܘܕ	-409
ܪܓ	-410
ܫܪܝ	-411
ܟܐܦܐ	-412
ܥܡܡܐ	-413
ܕܡܫܝܚܐ	-414
ܢܩ	-415
ܠܘܢ	-416
ܤܪܝ	-417
ܐܢܬܬܐ	-418
ܩܒ	-419
ܒܝܕ	-420
ܕܐܢ	-421
ܕܝܬ	-422
ܕܡܪܢ	-423
ܪܥ	-424
ܥܬܝ	-425
ܬܗܘܢ	-426
ܟܠܗܝܢ	-427
ܐܒ	-428
ܘܓ	-429
ܐܙܠ	-430
ܕܡܪ	-431
ܥܡܗܘܢ	-432
ܡܕܝܢܬܐ	-433
ܬܪܥ	-434
ܫܡܥܘ	-435
ܕܟܠ	-436
ܫܡܫ	-437
ܢܒܝܐ	-438
ܪܒܬܐ	-439
ܦܫ	-440
ܒܗܘܢ	-441
ܘܕܫܐ	-442
ܐܝܬܘܗܝ	-443
ܡܟ	-444
ܡܨ	-445
ܘܠܡ	-446
ܫܕܪ	-447
ܘܐܬܐ	-448
ܡܠܐܟܐ	-449
ܛܝܒܘܬܐ	-450
ܐܒܐ	-451
ܟܪܙ	-452
ܡܬܐ	-453
ܤܛ	-454
ܬܝܒ	-455
ܬܝܢ	-456
ܕܐܢܫܐ	-457
ܘܢܦܩ	-458
ܫܒܘܚ	-459
ܕܐܝܬܘܗܝ	-460
ܕܗܘ	-461
ܢܘܢ	-462
ܕܐܢܐ	-463
ܕܥܒܕ	-464
ܓܢ	-465
ܘܒܪ	-466
ܟܝܢ	-467
ܤܪܐ	-468
ܪܘܚ	-469
ܚܝܠܐ	-470
ܘܬܟܘܢ	-471
ܡܥ	-472
ܘܫܐ	-473
ܥܒܪ	-474
ܝܬܝܪܐ	-475
ܘܠܝ	-476
ܒܝܫܐ	-477
ܕܠܡܐ	-478
ܘܕܝ	-479
ܦܝܢ	-480
ܕܩܘܕܫܐ	-481
ܦܝܪ	-482
ܠܡܕܡ	-483
ܬܢ	-484
ܕܚܙ	-485
ܤܝܐ	-486
ܡܠܟܐ	-487
ܤܝܒܪ	-488
ܕܡܪܝܐ	-489
ܗܝܟܠܐ	-490
ܘܗܘ	-491
ܛܝܬܐ	-492
ܪܫ	-493
ܪܒܝ	-494
ܐܝܕܐ	-495
ܠܘܬܐ	-496
ܦܠ	-497
ܩܘ	-498
ܠܚܕ	-499
ܝܡܝܢ	-500
ܡܗܝܡܢ	-501
ܛܒܐ	-502
ܢܛܪ	-503
ܦܩܕ	-504
ܐܫܟܚ	-505
ܒܝܬܗ	-506
ܥܠܡܐ	-507
ܥܠܝܗܘܢ	-508
ܩܠܐ	-509
ܒܢܝܐ	-510
ܘܪܚܐ	-511
ܕܒܗ	-512
ܫܘܠܛ	-513
ܬܪܥܐ	-514
ܕܛ	-515
ܗܝܢ	-516
ܛܝܒ	-517
ܬܗܘܐ	-518
ܠܝܫܘܥ	-519
ܚܬ	-520
ܢܗ	-521
ܤܒ	-522
ܩܡ	-523
ܐܘܠ	-524
ܘܕܐ	-525
ܤܓܝ	-526
ܟܬܒܐ	-527
ܕܓ	-528
ܘܙ	-529
ܚܤ	-530
ܒܥܝܢ	-531
ܚܪܢܐ	-532
ܒܝܫܬܐ	-533
ܝܘܡܬܐ	-534
ܥܒܕܝܢ	-535
ܒܨ	-536
ܘܛ	-537
ܥܕ	-538
ܕܥܠ	-539
ܐܝܟܐ	-540
ܘܗܘܐ	-541
ܡܡܠܠ	-542
ܐܟ	-543
ܐܒܝ	-544
ܩܘܡ	-545
ܬܟܘܢ	-546
ܕܥܠܡܐ	-547
ܒܗܝܡܢܘܬܐ	-548
ܦܤ	-549
ܫܝܫܐ	-550
ܝܬܝܪܐܝܬ	-551
ܐܠܦ	-552
ܘܒܐ	-553
ܝܬܗ	-554
ܟܡܐ	-555
ܠܗܘ	-556
ܠܡܢ	-557
ܝܬܝܪ	-558
ܒܦ	-559
ܡܝܢ	-560
ܠܚܡܐ	-561
ܕܒܝ	-562
ܕܝܩ	-563
ܚܬܐ	-564
ܪܝܐ	-565
ܕܫܡܥ	-566
ܤܪܝܠ	-567
ܥܝ	-568
ܠܝܠ	-569
ܢܫܬ	-570
ܩܪܝ	-571
ܒܪܗܡ	-572
ܥܩܘܒ	-573
ܘܢܝܗܝ	-574
ܫܘܠܛܢܐ	-575
ܠܕ	-576
ܗܢܘ	-577
ܘܕܥ	-578
ܐܢܝܢ	-579
ܕܝܠܝ	-580
ܕܡܘܬܐ	-581
ܩܕܝܫܐ	-582
ܡܠܟܘܬܐ	-583
ܕܚܕ	-584
ܢܤܒ	-585
ܫܘܒ	-586
ܐܦܠܐ	-587
ܕܐܢܬ	-588
ܫܒܬܐ	-589
ܩܕܡܝܐ	-590
ܬܠܡܝܕܐ	-591
ܕܚܝ	-592
ܘܒܗ	-593
ܦܐܪܐ	-594
ܕܠܥܠܡ	-595
ܠܒ	-596
ܥܢ	-597
ܙܠܘ	-598
ܚܒܝ	-599
ܫܝܢ	-600
ܫܪܐ	-601
ܫܥܬܐ	-602
ܒܪܢܫܐ	-603
ܙܥ	-604
ܘܐܝ	-605
ܘܤܦ	-606
ܪܫܐ	-607
ܥܝܢܐ	-608
ܥܡܟܘܢ	-609
ܥܠܝܟܘܢ	-610
ܫܒܘܚܬܐ	-611
ܡܛ	-612
ܐܚܐ	-613
ܕܐܝ	-614
ܘܗܐ	-615
ܚܙܝ	-616
ܩܘܪ	-617
ܪܡܐ	-618
ܬܝܗܒ	-619
ܓܠܝܠܐ	-620
ܗܝܡܢܐ	-621
ܩܛ	-622
ܩܦ	-623
ܪܗ	-624
ܐܬܬ	-625
ܟܪܝ	-626
ܫܢܐ	-627
ܕܝܕܥ	-628
ܤܝܪܐ	-629
ܫܒܥܐ	-630
ܝܘܚܢܢ	-631
ܘܒܝ	-632
ܡܠܝ	-633
ܦܬܚ	-634
ܛܠܝܐ	-635
ܒܫܡܝܐ	-636
ܒܤܪ	-637
ܘܝܕ	-638
ܚܙܘ	-639
ܚܝܢ	-640
ܟܘܪ	-641
ܤܝܢ	-642
ܕܥܬܝ	-643
ܘܐܢܬ	-644
ܛܒܬܐ	-645
ܝܘܡܐ	-646
ܠܡܢܐ	-647
ܥܒܕܝ	-648
ܕܢܗܘܐ	-649
ܢܗܘܘܢ	-650
ܫܘܒܚܐ	-651
ܫܠܝܚܐ	-652
ܠܡܝܕܘܗܝ	-653
ܠܛܘܤ	-654
ܬܪܥܤܪ	-655
ܠܐܘܪܫܠܡ	-656
ܤܬ	-657
ܘܡܗ	-658
ܕܗܘܐ	-659
ܘܐܬܘ	-660
ܕܫܡܝܐ	-661
ܘܬܗܘܢ	-662
ܕܝܗܘܕܝܐ	-663
ܙܕܩ	-664
ܪܚܡ	-665
ܘܐܫܬ	-666
ܒܪܘܚܐ	-667
ܦܪܝܫܐ	-668
ܘܐܝܠܝܢ	-669
ܤܓܝܐܬܐ	-670
ܢܨ	-671
ܕܟܕ	-672
ܥܡܝ	-673
ܪܬܐ	-674
ܫܦܝܪ	-675
ܫܪܪܐ	-676
ܦܝܠܛܘܤ	-677
ܤܡ	-678
ܐܬܪ	-679
ܚܡܐ	-680
ܦܘܤ	-681
ܐܝܕܗ	-682
ܒܬܪܗ	-683
ܕܘܝܕ	-684
ܘܐܙܠ	-685
ܢܝܬܐ	-686
ܐܤܝܪܐ	-687
ܘܗܢܘܢ	-688
ܠܓܒܪܐ	-689
ܡܫܟܚܝܢ	-690
ܓܡ	-691
ܟܤ	-692
ܥܘ	-693
ܕܥܡ	-694
ܝܡܐ	-695
ܦܘܪ	-696
ܒܢܦܫ	-697
ܘܪܬܐ	-698
ܘܫܕܪ	-699
ܚܕܬܐ	-700
ܡܘܫܐ	-701
ܡܘܬܐ	-702
ܢܘܬܐ	-703
ܤܦܪܐ	-704
ܪܐܝܬ	-705
ܕܪܘܚܐ	-706
ܘܐܡܪܘ	-707
ܠܘܩܕܡ	-708
ܠܟܠܗܘܢ	-709
ܦܘܩܕܢܐ	-710
ܚܒ	-711
ܝܬܒ	-712
ܕܫܡܗ	-713
ܘܗܪܐ	-714
ܘܪܒܐ	-715
ܘܫܪܝ	-716
ܠܒܝܬ	-717
ܙܒܢܝܢ	-718
ܝܠ	-719
ܐܪܒ	-720
ܘܡܬ	-721
ܩܛܠ	-722
ܐܡܪܬ	-723
ܕܠܝܬ	-724
ܘܐܢܐ	-725
ܠܗܝܢ	-726
ܠܗܢܐ	-727
ܩܠܝܠ	-728
ܫܠܡܐ	-729
ܕܐܪܥܐ	-730
ܚܛܝܬܐ	-731
ܨܒܝܢܗ	-732
ܪܬ	-733
ܕܒܐ	-734
ܚܝܒ	-735
ܠܡܬ	-736
ܦܠܓ	-737
ܩܝܢ	-738
ܕܡܝܐ	-739
ܘܩܪܒ	-740
ܚܙܘܢ	-741
ܟܠܢܫ	-742
ܡܪܝܡ	-743
ܐܢܘܬܐ	-744
ܬܪܬܝܢ	-745
ܡܗܝܡܢܐ	-746
ܨܝ	-747
ܩܢ	-748
ܕܥܒ	-749
ܘܤܓ	-750
ܚܙܝܢ	-751
ܡܟܝܠ	-752
ܥܕܬܐ	-753
ܐܝܬܝܗ	-754
ܕܟܬܝܒ	-755
ܩܠ	-756
ܐܓܪ	-757
ܐܟܠ	-758
ܒܥܠ	-759
ܒܪܝ	-760
ܘܚܕ	-761
ܟܘܠ	-762
ܥܘܠ	-763
ܦܓܪ	-764
ܐܡܪܘ	-765
ܕܚܝܐ	-766
ܕܡܠܟ	-767
ܗܘܕܐ	-768
ܘܡܛܠ	-769
ܘܡܬܐ	-770
ܠܘܬܝ	-771
ܢܐܡܪ	-772
ܫܠܝܛ	-773
ܫܢܝܢ	-774
ܬܚܝܬ	-775
ܕܚܠܬܐ	-776
ܝܘܡܝܢ	-777
ܟܠܡܕܡ	-778
ܐܝܬܝܗܘܢ	-779
ܡܓ	-780
ܡܩ	-781
ܦܢ	-782
ܦܬ	-783
ܟܠܝ	-784
ܤܠܩ	-785
ܫܐܠ	-786
ܒܡܪܢ	-787
ܘܝܗܒ	-788
ܝܘܗܝ	-789
ܝܪܝܢ	-790
ܗܝܡܢܘ	-791
ܠܥܠܡܐ	-792
ܡܠܠܝܢ	-793
ܕܨ	-794
ܙܝ	-795
ܠܤ	-796
ܘܕܤ	-797
ܠܐܝ	-798
ܘܫܡܥ	-799
ܚܘܒܐ	-800
ܕܡܗܝܡܢ	-801
ܙܕ	-802
ܚܫ	-803
ܦܟ	-804
ܐܬܘ	-805
ܐܬܝ	-806
ܒܗܪ	-807
ܢܦܠ	-808
ܒܟܠܗ	-809
ܥܒܕܘ	-810
ܫܒܘܩ	-811
ܫܘܟܐ	-812
ܥܒܕܘܗܝ	-813
ܛܒ	-814
ܠܨ	-815
ܕܫܘ	-816
ܪܟܐ	-817
ܕܒܚܐ	-818
ܕܝܠܗ	-819
ܘܬܘܒ	-820
ܡܗܠܟ	-821
ܩܕܝܡ	-822
ܬܠܬܐ	-823
ܘܠܦܢܐ	-824
ܓܐ	-825
ܘܨ	-826
ܐܝܡ	-827
ܗܘܕ	-828
ܘܐܪ	-829
ܘܬܝ	-830
ܡܥܡ	-831
ܗܘܝܘ	-832
ܝܡܬܐ	-833
ܦܓܪܐ	-834
ܒܝܘܡܐ	-835
ܕܝܗܘܢ	-836
ܛܝܒܘܬܗ	-837
ܝܕܥܝܢܢ	-838
ܐܝܢ	-839
ܕܬܬ	-840
ܝܐܐ	-841
ܪܝܫ	-842
ܫܒܥ	-843
ܢܦܫܟ	-844
ܠܬܠܡܝܕܘܗܝ	-845
ܤܟ	-846
ܥܬ	-847
ܐܠܘ	-848
ܘܥܡ	-849
ܛܢܦ	-850
ܟܘܬ	-851
ܠܥܠ	-852
ܡܪܗ	-853
ܡܬܚ	-854
ܫܡܐ	-855
ܐܘܠܕ	-856
ܐܬܝܬ	-857
ܒܘܗܝ	-858
ܒܪܘܚ	-859
ܕܒܝܬ	-860
ܘܒܬܪ	-861
ܝܪܬܐ	-862
ܠܝܬܐ	-863
ܡܬܠܐ	-864
ܒܐܪܥܐ	-865
ܕܗܠܝܢ	-866
ܚܝܘܬܐ	-867
ܬܗܘܘܢ	-868
ܕܢܗܘܘܢ	-869
ܠܘܬܗܘܢ	-870
ܓܠ	-871
ܕܚܠ	-872
ܙܪܥ	-873
ܨܢܐ	-874
ܩܐܡ	-875
ܕܝܫܐ	-876
ܕܨܒܐ	-877
ܕܫܕܪ	-878
ܚܘܗܝ	-879
ܢܦܫܝ	-880
ܥܒܕܘܢ	-881
ܐܝܤܪܝܠ	-882
ܒܟܠܙܒܢ	-883
ܕܒܫܡܝܐ	-884
ܕܡܬܩܪܐ	-885
ܒܓ	-886
ܝܩ	-887
ܘܩܡ	-888
ܟܬܒ	-889
ܦܠܚ	-890
ܕܐܫܬ	-891
ܕܢܦܩ	-892
ܕܥܘܢ	-893
ܟܡܬܐ	-894
ܟܬܝܒ	-895
ܠܐܟܐ	-896
ܫܐܕܐ	-897
ܒܐܝܕܗ	-898
ܒܝܫܘܥ	-899
ܟܠܟܘܢ	-900
ܠܗܢܘܢ	-901
ܠܘܩܒܠ	-902
ܠܡܐܡܪ	-903
ܩܫܝܫܐ	-904
ܒܡܫܝܚܐ	-905
ܕܐܝܠܝܢ	-906
ܘܐܚܪܢܐ	-907
ܒܙ	-908
ܒܛ	-909
ܕܝܗ	-910
ܟܤܐ	-911
ܦܝܤ	-912
ܫܡܝ	-913
ܐܡܬܝ	-914
ܐܬܪܐ	-915
ܒܫܡܗ	-916
ܕܐܝܟ	-917
ܕܗܒܐ	-918
ܕܝܗܒ	-919
ܘܩܪܐ	-920
ܠܡܝܢ	-921
ܥܤܪܐ	-922
ܪܝܬܐ	-923
ܘܕܝܬܐ	-924
ܠܝܦܘܤ	-925
ܠܟܢܫܐ	-926
ܒܗܝܟܠܐ	-927
ܒܢܡܘܤܐ	-928
ܠܦܘܠܘܤ	-929
ܒܗܘ	-930
ܕܟܝ	-931
ܘܛܐ	-932
ܢܚܬ	-933
ܥܬܐ	-934
ܗܪܟܐ	-935
ܘܐܝܟ	-936
ܘܟܬܐ	-937
ܡܫܡܫ	-938
ܫܐܠܝܢ	-939
ܫܪܒܬܐ	-940
ܐܘܪܫܠܡ	-941
ܠܡܕܝܢܬܐ	-942
ܢܓ	-943
ܢܛ	-944
ܦܨ	-945
ܫܢ	-946
ܒܘܪ	-947
ܬܪܐ	-948
ܐܚܝܢ	-949
ܐܡܪܐ	-950
ܕܝܩܐ	-951
ܘܕܠܐ	-952
ܘܚܙܐ	-953
ܥܒܕܗ	-954
ܥܠܝܢ	-955
ܤܗܕܘܬܐ	-956
ܤܩ	-957
ܥܗ	-958
ܒܚܕ	-959
ܒܪܡ	-960
ܘܟܐ	-961
ܘܫܘ	-962
ܠܟܠ	-963
ܠܦܐ	-964
ܦܪܨ	-965
ܒܐܦܐ	-966
ܕܒܪܐ	-967
ܕܡܝܬ	-968
ܕܢܫܬ	-969
ܘܡܢܐ	-970
ܩܪܝܐ	-971
ܪܓܠܝ	-972
ܫܡܫܐ	-973
ܒܫܠܡܐ	-974
ܘܗܒܬܐ	-975
ܠܡܥܒܕ	-976
ܢܘܫܬܐ	-977
ܫܡܫܬܐ	-978
ܒܐܘܪܚܐ	-979
ܕܐܝܬܝܗ	-980
ܘܟܠܗܘܢ	-981
ܡܠܟܘܬܗ	-982
ܬܫܒܘܚܬܐ	-983
ܒܗܝ	-984
ܒܛܠ	-985
ܒܫܘ	-986
ܕܗܐ	-987
ܕܡܗ	-988
ܕܢܚ	-989
ܡܦܩ	-990
ܢܒܐ	-991
ܥܝܪ	-992
ܪܫܗ	-993
ܬܠܬ	-994
ܒܗܝܢ	-995
ܕܝܢܢ	-996
ܠܐܢܫ	-997
ܠܟܢܐ	-998
ܥܬܝܕ	-999
ܩܪܒܘ	-1000
ܫܐܠܘ	-1001
ܫܥܬܗ	-1002
ܐܚܘܗܝ	-1003
ܐܠܦܝܢ	-1004
ܕܥܬܝܕ	-1005
ܩܝܡܝܢ	-1006
ܕܝܠܟܘܢ	-1007
ܕܢܡܘܤܐ	-1008
ܘܗܝܕܝܢ	-1009
ܐܫ	-1010
ܝܓ	-1011
ܢܟ	-1012
ܐܠܗ	-1013
ܕܫܪ	-1014
ܡܠܦ	-1015
ܡܬܝ	-1016
ܥܘܪ	-1017
ܒܗܕܐ	-1018
ܕܝܠܢ	-1019
ܕܡܕܡ	-1020
ܘܐܙܠܘ	-1021
ܡܠܦܢܐ	-1022
ܦܝܢܬܐ	-1023
ܕܐܢܬܘܢ	-1024
ܕܝܩܘܬܐ	-1025
ܕܒܢܝܢܫܐ	-1026
ܙܐ	-1027
ܕܥܐ	-1028
ܘܕܚ	-1029
ܘܚܪ	-1030
ܟܢܫ	-1031
ܡܘܬ	-1032
ܢܬܠ	-1033
ܥܘܢ	-1034
ܒܝܡܐ	-1035
ܒܩܠܐ	-1036
ܕܐܢܫ	-1037
ܕܒܪܗ	-1038
ܕܓܠܐ	-1039
ܘܗܫܐ	-1040
ܠܚܝܐ	-1041
ܤܒܪܐ	-1042
ܤܛܢܐ	-1043
ܥܒܕܬ	-1044
ܒܡܠܬܐ	-1045
ܕܗܟܢܐ	-1046
ܕܗܢܘܢ	-1047
ܘܡܚܕܐ	-1048
ܠܡܘܬܐ	-1049
ܡܡܠܠܝܢ	-1050
ܪܓܠܘܗܝ	-1051
ܚܨ	-1052
ܦܗ	-1053
ܒܗܬ	-1054
ܘܢܬ	-1055
ܛܘܤ	-1056
ܛܢܐ	-1057
ܠܟܝ	-1058
ܡܐܬ	-1059
ܡܢܝ	-1060
ܡܬܪ	-1061
ܢܚܐ	-1062
ܫܒܚ	-1063
ܬܪܝ	-1064
ܒܪܝܢ	-1065
ܒܬܪܝ	-1066
ܕܩܕܡ	-1067
ܚܛܗܐ	-1068
ܟܢܫܘ	-1069
ܠܒܪܗ	-1070
ܦܝܪܐ	-1071
ܐܘܪܚܐ	-1072
ܕܢܒܝܐ	-1073
ܘܐܫܟܚ	-1074
ܠܝܘܡܐ	-1075
ܢܘܗܪܐ	-1076
ܤܒܪܝܢ	-1077
ܕܝܘܚܢܢ	-1078
ܨܦ	-1079
ܒܥܘ	-1080
ܘܚܝ	-1081
ܡܬܗ	-1082
ܐܝܬܝ	-1083
ܐܩܝܡ	-1084
ܒܤܪܐ	-1085
ܘܐܬܬ	-1086
ܘܠܝܬ	-1087
ܘܡܠܦ	-1088
ܘܪܝܐ	-1089
ܚܡܪܐ	-1090
ܟܠܘܢ	-1091
ܠܡܠܟ	-1092
ܡܩܒܠ	-1093
ܢܘܪܐ	-1094
ܪܘܚܗ	-1095
ܫܪܟܐ	-1096
ܐܒܘܗܝ	-1097
ܐܚܪܝܐ	-1098
ܓܠܝܘܢ	-1099
ܕܕܘܝܕ	-1100
ܕܢܐܙܠ	-1101
ܘܒܥܝܢ	-1102
ܘܠܝܘܡܐ	-1103
ܘܦܪܝܫܐ	-1104
ܩܕܡܘܗܝ	-1105
ܦܝܠܝܦܘܤ	-1106
ܬܘ	-1107
ܕܠܗ	-1108
ܘܢܗ	-1109
ܘܦܐ	-1110
ܘܦܪ	-1111
ܘܬܢ	-1112
ܡܫܟ	-1113
ܕܐܬܝ	-1114
ܕܪܚܡ	-1115
ܘܟܠܗ	-1116
ܘܡܕܡ	-1117
ܘܤܠܩ	-1118
ܘܦܩܕ	-1119
ܘܫܝܐ	-1120
ܚܪܬܐ	-1121
ܐܒܪܗܡ	-1122
ܐܬܘܬܐ	-1123
ܒܥܠܡܐ	-1124
ܕܗܝܡܢ	-1125
ܟܘܡܪܐ	-1126
ܡܤܝܒܪ	-1127
ܥܠܡܝܢ	-1128
ܩܒܘܪܐ	-1129
ܫܦܝܪܐ	-1130
ܗܝܡܢܘܢ	-1131
ܟܘܪܤܝܐ	-1132
ܢܦܫܗܘܢ	-1133
ܘܠܐܝܠܝܢ	-1134
ܘܢܓܠܝܘܢ	-1135
ܡܗܝܡܢܝܢ	-1136
ܐܦܝ	-1137
ܒܕܪ	-1138
ܕܡܠ	-1139
ܘܓܐ	-1140
ܘܝܗ	-1141
ܘܬܟ	-1142
ܠܡܤ	-1143
ܡܘܢ	-1144
ܡܝܘ	-1145
ܡܢܢ	-1146
ܡܬܬ	-1147
ܥܝܐ	-1148
ܥܡܕ	-1149
ܪܢܐ	-1150
ܐܬܝܢ	-1151
ܕܝܬܒ	-1152
ܘܐܚܕ	-1153
ܡܬܘܡ	-1154
ܕܢܐܬܐ	-1155
ܗܪܘܕܤ	-1156
ܘܚܙܝܬ	-1157
ܙܥܘܪܐ	-1158
ܡܫܟܚܐ	-1159
ܥܕܟܝܠ	-1160
ܓܙܘܪܬܐ	-1161
ܒܐܘܪܫܠܡ	-1162
ܘܗܘܝܬܘܢ	-1163
ܫܪܝܪܐܝܬ	-1164
ܡܙ	-1165
ܐܡܗ	-1166
ܓܙܐ	-1167
ܓܪܝ	-1168
ܕܪܒ	-1169
ܘܐܤ	-1170
ܛܝܐ	-1171
ܠܓܘ	-1172
ܡܢܟ	-1173
ܢܢܐ	-1174
ܐܙܕܗ	-1175
ܕܫܠܝ	-1176
ܛܘܒܝ	-1177
ܠܟܠܢ	-1178
ܡܠܬܗ	-1179
ܢܐܬܐ	-1180
ܥܠܝܗ	-1181
ܪܥܝܢ	-1182
ܒܥܠܕܒ	-1183
ܕܘܢܝܐ	-1184
ܕܥܡܡܐ	-1185
ܘܤܦܪܐ	-1186
ܕܩܝܡܝܢ	-1187
ܡܘܗܒܬܐ	-1188
ܢܦܫܟܘܢ	-1189
ܕܐܝܬܝܗܘܢ	-1190
ܚܩ	-1191
ܛܘ	-1192
ܝܕ	-1193
ܠܙ	-1194
ܐܚܕ	-1195
ܐܝܠ	-1196
ܐܦܩ	-1197
ܒܪܟ	-1198
ܕܟܪ	-1199
ܕܠܝ	-1200
ܠܗܝ	-1201
ܠܡܪ	-1202
ܢܝܚ	-1203
ܦܢܝ	-1204
ܩܬܐ	-1205
ܒܝܢܢ	-1206
ܕܝܘܐ	-1207
ܕܝܡܐ	-1208
ܕܡܫܬ	-1209
ܕܢܤܒ	-1210
ܚܙܝܬ	-1211
ܚܡܫܐ	-1212
ܛܝܪܐ	-1213
ܟܘܗܝ	-1214
ܟܝܡܐ	-1215
ܠܝܢܢ	-1216
ܠܡܪܢ	-1217
ܡܚܕܐ	-1218
ܡܪܘܢ	-1219
ܢܥܒܕ	-1220
ܩܪܨܐ	-1221
ܬܟܪܐ	-1222
ܐܚܪܬܐ	-1223
ܕܝܬܩܐ	-1224
ܝܗܘܕܐ	-1225
ܠܛܘܪܐ	-1226
ܠܟܠܢܫ	-1227
ܪܥܝܢܐ	-1228
ܫܡܥܝܢ	-1229
ܕܐܡܪܝܢ	-1230
ܕܫܕܪܢܝ	-1231
ܘܐܢܬܘܢ	-1232
ܠܒܢܝܢܫܐ	-1233
ܚܗ	-1234
ܐܦܢ	-1235
ܒܘܢ	-1236
ܘܢܝ	-1237
ܡܐܐ	-1238
ܫܘܐ	-1239
ܫܢܝ	-1240
ܐܙܠܘ	-1241
ܕܚܙܐ	-1242
ܘܒܠܐ	-1243
ܘܥܢܐ	-1244
ܙܕܕܩ	-1245
ܙܥܘܪ	-1246
ܚܛܝܐ	-1247
ܡܐܢܐ	-1248
ܡܠܠܘ	-1249
ܤܡܝܐ	-1250
ܥܠܝܟ	-1251
ܩܪܒܐ	-1252
ܫܘܬܐ	-1253
ܐܝܡܟܐ	-1254
ܐܬܚܙܝ	-1255
ܒܘܟܘܢ	-1256
ܒܠܠܝܐ	-1257
ܠܒܝܬܗ	-1258
ܦܘܩܕܢ	-1259
ܨܒܝܢܐ	-1260
ܥܝܢܝܗܘܢ	-1261
ܤܦ	-1262
ܐܤܛ	-1263
ܕܪܐ	-1264
ܘܡܪ	-1265
ܘܤܡ	-1266
ܘܪܗ	-1267
ܝܬܪ	-1268
ܠܒܐ	-1269
ܡܐܢ	-1270
ܡܚܒ	-1271
ܡܛܝ	-1272
ܥܡܢ	-1273
ܥܪܐ	-1274
ܦܩܚ	-1275
ܫܘܬ	-1276
ܐܒܘܢ	-1277
ܕܩܐܡ	-1278
ܕܩܒܠ	-1279
ܘܫܒܩ	-1280
ܟܬܒܬ	-1281
ܠܥܡܐ	-1282
ܡܤܒܪ	-1283
ܥܒܪܐ	-1284
ܥܠܬܐ	-1285
ܦܘܡܗ	-1286
ܪܚܡܐ	-1287
ܒܪܝܬܐ	-1288
ܕܡܡܠܠ	-1289
ܕܫܡܥܘ	-1290
ܕܫܪܪܐ	-1291
ܕܬܗܘܐ	-1292
ܘܐܝܢܐ	-1293
ܘܗܟܢܐ	-1294
ܘܢܦܩܘ	-1295
ܚܒܝܒܐ	-1296
ܚܒܝܒܝ	-1297
ܚܕܘܬܐ	-1298
ܠܝܘܗܝ	-1299
ܠܫܡܝܐ	-1300
ܢܗܘܝܢ	-1301
ܫܪܝܪܐ	-1302
ܘܤܓܝܐܐ	-1303
ܘܩܫܝܫܐ	-1304
ܠܐܚܘܗܝ	-1305
ܠܫܡܥܘܢ	-1306
ܡܘܠܟܢܐ	-1307
ܒܚܗ	-1308
ܒܝܫ	-1309
ܓܡܐ	-1310
ܕܟܐ	-1311
ܕܡܨ	-1312
ܗܒܬ	-1313
ܘܒܕ	-1314
ܙܢܝ	-1315
ܙܩܝ	-1316
ܡܬܛ	-1317
ܥܡܟ	-1318
ܦܫܝ	-1319
ܕܤܒܪ	-1320
ܕܥܕܐ	-1321
ܘܒܟܠ	-1322
ܘܠܬܐ	-1323
ܘܥܒܕ	-1324
ܙܪܥܐ	-1325
ܝܕܥܘ	-1326
ܟܬܘܒ	-1327
ܡܟܤܐ	-1328
ܢܩܘܡ	-1329
ܤܗܕܐ	-1330
ܫܥܝܢ	-1331
ܒܢܘܗܝ	-1332
ܕܚܙܝܢ	-1333
ܕܢܘܪܐ	-1334
ܘܐܡܪܐ	-1335
ܘܐܩܝܡ	-1336
ܘܢܗܘܐ	-1337
ܘܫܠܡܐ	-1338
ܘܫܡܥܬ	-1339
ܠܡܐܟܠ	-1340
ܦܪܨܘܦ	-1341
ܐܘܠܨܢܐ	-1342
ܐܙܕܗܪܘ	-1343
ܕܟܠܗܘܢ	-1344
ܢܛܪܘܢܐ	-1345
ܩܕܡܝܬܐ	-1346
ܫܒܘܚܬܗ	-1347
ܗܦ	-1348
ܟܫ	-1349
ܤܢ	-1350
ܪܛ	-1351
ܐܒܗ	-1352
ܒܩܢ	-1353
ܗܠܟ	-1354
ܘܡܨ	-1355
ܛܝܢ	-1356
ܠܟܐ	-1357
ܠܡܨ	-1358
ܡܦܤ	-1359
ܥܕܪ	-1360
ܥܠܐ	-1361
ܦܘܡ	-1362
ܦܬܐ	-1363
ܩܘܐ	-1364
ܩܢܐ	-1365
ܪܚܝ	-1366
ܫܩܠ	-1367
ܒܒܤܪ	-1368
ܒܗܢܐ	-1369
ܕܒܢܝ	-1370
ܕܗܢܐ	-1371
ܕܘܠܐ	-1372
ܕܚܢܢ	-1373
ܕܡܛܠ	-1374
ܕܥܡܐ	-1375
ܘܒܥܐ	-1376
ܘܢܦܠ	-1377
ܛܘܪܐ	-1378
ܝܘܤܦ	-1379
ܠܐܢܬ	-1380
ܠܘܬܢ	-1381
ܡܪܝܢ	-1382
ܢܦܩܘ	-1383
ܥܘܠܐ	-1384
ܥܠܘܢ	-1385
ܦܓܪܗ	-1386
ܦܘܬܐ	-1387
ܐܚܪܝܢ	-1388
ܐܢܫܝܢ	-1389
ܐܢܬܬܗ	-1390
ܐܫܟܚܘ	-1391
ܒܟܬܒܐ	-1392
ܕܓܒܪܐ	-1393
ܝܥܩܘܒ	-1394
ܠܐܪܥܐ	-1395
ܕܬܗܘܘܢ	-1396
ܘܐܝܟܢܐ	-1397
ܟܐܢܘܬܐ	-1398
ܟܢܘܫܬܐ	-1399
ܒܝܢܬܗܘܢ	-1400
ܙܒ	-1401
ܒܚܪ	-1402
ܕܐܚ	-1403
ܕܟܬ	-1404
ܘܟܪ	-1405
ܘܡܠ	-1406
ܘܢܦ	-1407
ܘܥܐ	-1408
ܟܠܢ	-1409
ܡܫܐ	-1410
ܤܡܐ	-1411
ܥܤܪ	-1412
ܦܪܫ	-1413
ܩܠܘ	-1414
ܩܥܐ	-1415
ܪܕܦ	-1416
ܬܫܬ	-1417
ܒܠܚܘ	-1418
ܕܒܝܫ	-1419
ܕܚܠܬ	-1420
ܕܝܠܟ	-1421
ܕܢܚܐ	-1422
ܘܢܢܝ	-1423
ܟܚܕܐ	-1424
ܠܗܫܐ	-1425
ܠܘܬܟ	-1426
ܠܝܡܐ	-1427
ܡܤܗܕ	-1428
ܢܦܫܢ	-1429
ܫܥܝܐ	-1430
ܒܐܝܕܝ	-1431
ܕܐܡܪܐ	-1432
ܕܕܗܒܐ	-1433
ܕܙܒܢܐ	-1434
ܕܚܠܝܢ	-1435
ܘܩܪܒܘ	-1436
ܠܡܝܕܐ	-1437
ܡܬܚܙܐ	-1438
ܤܗܕܝܢ	-1439
ܥܬܝܪܐ	-1440
ܦܬܓܡܐ	-1441
ܩܪܒܝܢ	-1442
ܕܐܒܪܗܡ	-1443
ܕܐܬܐܡܪ	-1444
ܕܩܕܝܫܐ	-1445
ܝܡܬܐܘܤ	-1446
ܠܐܚܪܢܐ	-1447
ܡܗܠܟܝܢ	-1448
ܬܝܒܘܬܐ	-1449
ܒܡܕܝܢܬܐ	-1450
ܕܗܝܡܢܘܬܐ	-1451
ܐܓ	-1452
ܓܝ	-1453
ܐܘܪ	-1454
ܐܠܝ	-1455
ܐܤܬ	-1456
ܒܠܘ	-1457
ܕܐܤ	-1458
ܕܐܪ	-1459
ܕܚܪ	-1460
ܘܢܤ	-1461
ܝܕܝ	-1462
ܝܘܢ	-1463
ܟܦܪ	-1464
¦	-1465
▁	-1466
ܐ	-1467
ܘ	-1468
ܢ	-1469
ܝ	-1470
ܠ	-1471
ܕ	-1472
ܡ	-1473
ܗ	-1474
ܬ	-1475
ܪ	-1476
ܒ	-1477
ܟ	-1478
ܫ	-1479
ܥ	-1480
ܚ	-1481
ܩ	-1482
ܦ	-1483
ܤ	-1484
ܓ	-1485
ܛ	-1486
ܙ	-1487
ܨ	-1488
v	-1489
𐋇	-1490
1	-1491
)	-1492
4	-1493
5	-1494
9	-1495
:	-1496
