<pad>	0
</s>	0
<unk>	0
,	-2.94022
.	-3.37757
▁	-3.62213
▁ir	-3.90764
s	-3.92765
i	-4.38911
▁kad	-4.60133
o	-4.67274
e	-5.02624
▁su	-5.03862
ti	-5.13588
ų	-5.17708
▁Europos	-5.20933
▁į	-5.21131
k	-5.23772
a	-5.30516
▁iš	-5.35522
ą	-5.39004
t	-5.42648
▁ne	-5.44613
▁dėl	-5.4672
▁yra	-5.49982
u	-5.51743
os	-5.52184
as	-5.5416
▁pa	-5.56205
▁-	-5.58165
is	-5.66019
ai	-5.69031
▁tai	-5.72566
m	-5.74625
us	-5.74945
ės	-5.76871
ė	-5.77404
r	-5.78679
▁pat	-5.80054
š	-5.82253
į	-5.86869
ę	-5.90613
ių	-5.91071
▁(	-5.9551
tų	-5.95553
)	-5.96125
g	-5.96399
ta	-5.97738
me	-5.98685
ra	-5.98983
d	-6.01983
▁už	-6.02236
p	-6.08104
▁kaip	-6.10119
n	-6.11667
▁taip	-6.12894
y	-6.1398
in	-6.1432
▁tik	-6.16448
▁būti	-6.19925
to	-6.20711
▁m	-6.20819
▁turi	-6.22462
imo	-6.22712
▁ES	-6.24657
te	-6.25172
al	-6.2549
ma	-6.25501
es	-6.25559
io	-6.27026
▁būtų	-6.28961
b	-6.29234
l	-6.30948
tas	-6.33387
▁per	-6.3353
si	-6.34313
▁savo	-6.36208
▁labai	-6.38888
▁buvo	-6.39215
au	-6.3933
▁apie	-6.39538
▁to	-6.39626
▁nes	-6.48256
en	-6.49683
v	-6.50199
▁dar	-6.51097
▁nuo	-6.5193
▁mūsų	-6.51988
mo	-6.52043
▁kai	-6.52519
▁o	-6.54925
▁Komisijos	-6.57209
▁at	-6.58324
yti	-6.58352
▁ar	-6.58387
iu	-6.59485
tu	-6.5994
nt	-6.60043
ik	-6.61512
▁pirmininke	-6.62391
ir	-6.62864
mi	-6.62907
ka	-6.64561
tą	-6.65181
▁k	-6.66145
▁gali	-6.67379
▁bet	-6.68651
▁S	-6.69301
mas	-6.69992
tos	-6.70739
ū	-6.70834
imas	-6.70975
▁bus	-6.72008
ar	-6.72326
oje	-6.73466
re	-6.73492
▁mes	-6.73584
ž	-6.74222
▁vis	-6.74508
ei	-6.75279
iai	-6.76103
ia	-6.76386
▁K	-6.7664
▁Tai	-6.76668
ri	-6.82114
▁reikia	-6.8329
▁re	-6.83322
imą	-6.83995
▁po	-6.84629
▁ap	-6.84705
ius	-6.84875
▁"	-6.85588
▁J	-6.85686
omis	-6.86164
▁prie	-6.8678
na	-6.87807
ng	-6.88026
▁jų	-6.88627
an	-6.89501
mų	-6.89849
tar	-6.90056
▁norėčiau	-6.90569
li	-6.90657
▁kurie	-6.9098
▁Sąjungos	-6.9166
▁T	-6.91679
mos	-6.91712
:	-6.92077
mą	-6.92494
▁pri	-6.938
▁A	-6.9396
▁Komisija	-6.95144
am	-6.96109
▁jau	-6.96129
z	-6.97188
▁turėtų	-6.99242
▁Parlamento	-7.00042
▁d	-7.01885
▁Todėl	-7.02506
vy	-7.02721
oms	-7.02862
ant	-7.02933
▁kuri	-7.03129
▁turime	-7.03496
sta	-7.03978
ijos	-7.04048
▁jos	-7.04426
tik	-7.05006
▁daug	-7.052
uo	-7.05632
▁kurios	-7.05841
▁prieš	-7.06007
im	-7.07022
ys	-7.07348
ja	-7.07391
la	-7.07638
ko	-7.07933
ro	-7.08063
▁darbo	-7.09458
yb	-7.10589
▁narių	-7.1083
j	-7.10844
▁G	-7.11099
▁šį	-7.11863
▁šiuo	-7.11878
ija	-7.11955
tin	-7.12022
▁valstybių	-7.12625
?	-7.13045
iau	-7.13831
▁B	-7.13849
ci	-7.1433
▁M	-7.15164
▁Tačiau	-7.15165
iz	-7.16098
▁pra	-7.16411
er	-7.16461
▁valstybės	-7.17847
▁ypač	-7.17986
ek	-7.18317
▁ž	-7.18788
▁teisės	-7.18986
▁metu	-7.19201
on	-7.21064
ki	-7.21084
di	-7.21155
▁užtikrinti	-7.2131
ais	-7.21541
inti	-7.21627
tai	-7.21664
▁tačiau	-7.21963
▁Pone	-7.22244
ne	-7.22357
▁b	-7.22677
▁pasi	-7.227
uoti	-7.23333
inių	-7.23738
▁daugiau	-7.24029
▁šios	-7.24308
▁maž	-7.24386
ui	-7.24815
va	-7.2508
"	-7.25524
do	-7.25822
ėje	-7.25926
▁mums	-7.26785
joje	-7.27419
▁E	-7.2843
▁bei	-7.29193
▁mano	-7.29424
pa	-7.29879
umo	-7.30613
ms	-7.30846
▁Vis	-7.31047
▁be	-7.31143
▁kuris	-7.32926
▁politikos	-7.32962
▁nėra	-7.32997
0	-7.33229
h	-7.33332
▁Be	-7.33332
sti	-7.337
f	-7.34076
le	-7.34123
▁aš	-7.34675
▁siekiant	-7.34721
ni	-7.34779
avimo	-7.35326
ur	-7.36182
ose	-7.37041
id	-7.37373
men	-7.37421
ga	-7.37902
▁nu	-7.38335
▁todėl	-7.38561
▁pateik	-7.39198
ėjo	-7.39261
▁tarp	-7.39773
▁tam	-7.40716
ėmis	-7.40925
▁Pa	-7.40999
il	-7.42022
mis	-7.42257
▁teisių	-7.4258
;	-7.42706
or	-7.43005
ty	-7.4333
▁ji	-7.43624
▁šio	-7.43707
▁pagal	-7.43775
ru	-7.43788
gi	-7.43842
el	-7.43907
ch	-7.44289
▁V	-7.44544
ing	-7.4467
▁Taip	-7.44856
usi	-7.45269
▁nepa	-7.45427
ojo	-7.45552
▁sk	-7.4557
▁didel	-7.45825
ųjų	-7.4586
▁svarbu	-7.45978
▁kas	-7.461
S	-7.463
-	-7.46624
▁teis	-7.46728
▁Gerb	-7.46915
▁t	-7.4705
ina	-7.47124
kl	-7.47251
▁p	-7.47408
▁tiek	-7.47478
ju	-7.47596
vo	-7.47825
▁pas	-7.47895
▁vert	-7.47903
▁P	-7.47937
▁šalių	-7.48098
▁srityje	-7.4819
vi	-7.48378
▁ko	-7.48511
▁pro	-7.48913
▁manau	-7.48938
▁iki	-7.4913
▁dabar	-7.49931
ams	-7.50049
dami	-7.50417
▁jie	-7.50604
vie	-7.50613
no	-7.50624
▁visų	-7.5073
iam	-7.50732
▁ši	-7.5082
min	-7.50886
inės	-7.50962
naud	-7.5118
dži	-7.51345
ėms	-7.51375
ymo	-7.51657
▁D	-7.51665
▁Ne	-7.51823
▁ga	-7.52132
▁ekonomikos	-7.52299
▁arba	-7.52304
▁vien	-7.52371
ėme	-7.52936
▁galima	-7.53463
▁proc	-7.53525
▁Parlamentas	-7.53579
▁atsak	-7.53904
mai	-7.54188
uose	-7.54592
ak	-7.54718
ba	-7.54843
▁jo	-7.55575
▁g	-7.55987
▁narės	-7.56045
dė	-7.5627
▁R	-7.56315
aus	-7.56491
lo	-7.56976
▁de	-7.57567
▁š	-7.58068
uk	-7.58435
▁žmogaus	-7.58777
▁kurių	-7.58851
▁svarbi	-7.5908
imų	-7.59208
▁metų	-7.59808
▁jis	-7.59821
oji	-7.59841
▁nei	-7.60008
▁šių	-7.60138
▁klausimas	-7.60551
imai	-7.60653
▁mok	-7.60914
jų	-7.61134
▁Tarybos	-7.61526
nor	-7.61966
sime	-7.62041
▁priemonių	-7.62139
▁bendradarbiavim	-7.6257
iais	-7.63566
▁kurį	-7.63608
▁ką	-7.63752
▁nar	-7.63789
▁jei	-7.64017
▁C	-7.64029
▁žmonių	-7.64167
je	-7.64184
▁Ši	-7.64335
▁man	-7.64402
c	-7.64512
tume	-7.6489
▁visiškai	-7.65591
veik	-7.65645
▁pasakyti	-7.65856
▁N	-7.65986
▁pranešimą	-7.66246
mus	-7.66425
▁atsi	-7.66429
iškai	-7.66486
▁Mes	-7.66619
▁Sąjunga	-7.66667
▁veiksmų	-7.66673
▁kon	-7.66754
tus	-7.66893
mu	-7.67087
jo	-7.67717
▁socialin	-7.67781
▁būtina	-7.68118
▁šią	-7.68289
▁lyg	-7.68504
▁Manau	-7.69595
aug	-7.69608
čių	-7.70162
ome	-7.7029
da	-7.70788
tor	-7.70966
ks	-7.71021
čiai	-7.71078
▁galėtų	-7.71279
▁laisv	-7.71405
▁in	-7.71618
1	-7.71714
iems	-7.721
▁tuo	-7.72142
▁reik	-7.7255
kel	-7.72677
ži	-7.72715
tra	-7.72747
iją	-7.72768
mon	-7.73087
▁susi	-7.73166
▁šis	-7.73255
▁toliau	-7.73845
▁energijos	-7.73864
ce	-7.73873
dama	-7.74003
umą	-7.74324
▁politin	-7.74352
ymą	-7.74382
▁raštu	-7.74599
▁šiandien	-7.74941
var	-7.75007
▁bendr	-7.75093
der	-7.75175
uoja	-7.76002
E	-7.7609
osios	-7.77103
▁apsaugos	-7.77218
P	-7.77765
inimo	-7.77835
▁rink	-7.78154
▁kuriuos	-7.78159
tis	-7.78245
▁e	-7.78339
▁nors	-7.78891
▁žemės	-7.78921
▁kartu	-7.79313
ėti	-7.7937
9	-7.79475
▁kelia	-7.7976
▁rinkos	-7.79851
▁ekonomin	-7.79872
▁st	-7.80211
sto	-7.80232
oja	-7.80266
iama	-7.80315
ymas	-7.80924
▁taik	-7.80941
inio	-7.81026
▁ra	-7.81261
▁pagrindin	-7.81299
▁bū	-7.81459
▁pirma	-7.8163
nčių	-7.81701
avo	-7.82236
iams	-7.82778
▁atveju	-7.82942
imu	-7.82978
▁klausimu	-7.83564
ėja	-7.84416
▁prekybos	-7.84535
▁Aš	-7.84717
▁laik	-7.85044
A	-7.85454
laik	-7.85517
▁didesn	-7.85863
▁Norėčiau	-7.85908
▁I	-7.86093
▁Taryba	-7.86144
yta	-7.8619
I	-7.86272
5	-7.86856
▁politika	-7.8709
esn	-7.87181
▁klausimą	-7.87301
▁patvirtin	-7.87328
iant	-7.87657
▁prisi	-7.877
▁tr	-7.88338
skai	-7.88747
▁gal	-7.89081
▁jog	-7.89157
▁pirm	-7.89621
un	-7.89853
ran	-7.90071
ve	-7.90071
imui	-7.90527
ul	-7.90589
▁pasiek	-7.90602
2	-7.90854
▁Europoje	-7.91037
▁Dėl	-7.91185
▁ponai	-7.91255
cija	-7.91547
kti	-7.91559
▁L	-7.91897
▁jūsų	-7.92163
for	-7.92356
ame	-7.92756
gal	-7.92767
čiau	-7.92867
dar	-7.92964
gr	-7.93307
▁ak	-7.9359
jus	-7.93723
at	-7.93888
▁nustat	-7.94012
▁na	-7.94318
ter	-7.94349
▁laiko	-7.94827
▁kartą	-7.95277
▁Ar	-7.95571
ry	-7.95605
▁skirti	-7.95652
▁kurią	-7.95731
▁Kaip	-7.96032
damas	-7.96149
▁vardu	-7.962
ad	-7.96255
▁kar	-7.96779
lin	-7.97348
▁kur	-7.97881
▁dėmesį	-7.97926
rin	-7.97989
▁Lisabonos	-7.98412
▁praš	-7.98537
avimas	-7.98621
▁valstyb	-7.98665
▁pvz	-7.98742
T	-7.98751
▁keli	-7.98794
▁užtikrin	-7.9898
▁negali	-7.99058
bu	-7.99253
▁klimato	-7.99698
iame	-8.00091
▁net	-8.00299
▁pasiekti	-8.00299
▁teisin	-8.00387
▁kita	-8.00452
▁svarbus	-8.00576
▁dėlto	-8.00654
▁mėn	-8.00846
▁Ponia	-8.00853
▁a	-8.01237
▁2	-8.01332
ali	-8.01564
▁biudžeto	-8.01565
▁ūkio	-8.01575
et	-8.01581
▁kitų	-8.01655
▁min	-8.01663
kos	-8.02043
▁padėkoti	-8.02157
ūs	-8.02261
ęs	-8.02323
ab	-8.02517
▁piliečių	-8.02665
du	-8.02945
▁viena	-8.03005
▁kiek	-8.03122
▁priimti	-8.03244
▁Šiuo	-8.03758
▁frakcijos	-8.03896
▁Pirmininke	-8.0404
/	-8.04468
▁vald	-8.04571
▁Re	-8.04947
▁galimybę	-8.05541
▁imtis	-8.05837
tį	-8.05898
ime	-8.05963
▁H	-8.0601
K	-8.06256
▁palaik	-8.06324
ink	-8.06449
▁tikrųjų	-8.06591
▁priemones	-8.06621
imus	-8.07062
ies	-8.07067
či	-8.07147
▁Ko	-8.0727
▁ponios	-8.07454
▁F	-8.07661
ip	-8.07685
▁labiau	-8.07723
▁sak	-8.07812
aud	-8.0814
▁tar	-8.08273
dav	-8.08643
▁te	-8.08693
kur	-8.08782
▁politiką	-8.08787
dalyv	-8.08823
ig	-8.08916
cijos	-8.09101
staty	-8.09116
ger	-8.09706
▁li	-8.09744
▁saugumo	-8.09978
jimo	-8.10388
▁įgyvendinti	-8.10483
▁privalo	-8.10522
darb	-8.11043
▁atžvilgiu	-8.11213
▁visi	-8.1132
de	-8.11648
rib	-8.11667
C	-8.12103
▁pranešime	-8.12145
▁finansų	-8.1243
vir	-8.12903
▁pateikti	-8.12995
▁jeigu	-8.1321
▁atitinka	-8.13226
umas	-8.13327
▁darbą	-8.13562
▁transporto	-8.13684
▁nesu	-8.13747
▁le	-8.13835
acijos	-8.13895
▁priemon	-8.13978
▁aiškiai	-8.14108
ting	-8.14258
▁1	-8.14297
▁sveikatos	-8.14346
nų	-8.14438
▁va	-8.14677
ybės	-8.14807
▁Š	-8.15024
▁Su	-8.15062
▁tvirt	-8.15293
V	-8.15552
▁Iš	-8.1566
▁požiūriu	-8.16865
tinka	-8.16921
▁gamin	-8.16927
▁vidaus	-8.17214
▁čia	-8.17245
▁padaryti	-8.17303
▁neturi	-8.17305
ves	-8.17566
▁susijusi	-8.17594
▁šioje	-8.17632
joms	-8.17714
lai	-8.17905
omi	-8.1797
▁krizės	-8.18091
▁nuomone	-8.18162
gu	-8.18301
3	-8.18335
▁naujo	-8.18516
4	-8.1888
▁visos	-8.19295
inga	-8.19357
DE	-8.1938
6	-8.19461
ytų	-8.19626
avimą	-8.19859
oli	-8.1995
čia	-8.20035
▁dabartin	-8.20126
▁šie	-8.20174
kalb	-8.20185
▁sukurti	-8.20614
▁padėti	-8.20814
▁priemonės	-8.20884
acija	-8.20937
▁galime	-8.21235
esni	-8.21256
jame	-8.21456
▁įsi	-8.21524
▁var	-8.21583
▁tikrai	-8.21834
▁Europa	-8.21928
▁sistemos	-8.22161
▁tokia	-8.22164
▁šiuos	-8.22559
▁par	-8.22873
▁siekiama	-8.22915
▁reiškia	-8.23303
▁vyriausyb	-8.23366
imti	-8.23545
nu	-8.23666
▁pak	-8.23688
B	-8.23773
▁vienas	-8.23793
ol	-8.23867
klaus	-8.24153
ov	-8.24192
cijų	-8.24195
▁maisto	-8.24219
iš	-8.24267
▁sistema	-8.2461
▁visiems	-8.24634
dėjo	-8.24764
▁nustatyti	-8.24778
▁stipr	-8.24841
▁ta	-8.2503
▁du	-8.25096
▁turėtume	-8.25188
▁jūs	-8.25199
▁visa	-8.25377
iniai	-8.25398
su	-8.25752
▁susitik	-8.25835
▁narys	-8.259
▁pasaulio	-8.26017
▁pirminink	-8.26019
yje	-8.26094
N	-8.26141
▁jums	-8.26247
▁teik	-8.26568
▁Sąjungoje	-8.26626
čiu	-8.26713
ven	-8.26739
▁padar	-8.27103
▁komiteto	-8.27733
▁pabrėžti	-8.27978
▁sudar	-8.28014
ėjimo	-8.28427
inius	-8.28575
▁šiame	-8.28721
7	-8.2875
▁O	-8.28809
nčios	-8.28843
din	-8.28996
▁ten	-8.2911
ima	-8.29255
▁žino	-8.29334
▁nariai	-8.29354
▁suteik	-8.29443
eig	-8.29462
▁kito	-8.29554
lu	-8.29636
nti	-8.29684
▁atstov	-8.29785
iausi	-8.29807
nos	-8.29837
ama	-8.30223
dy	-8.30301
oti	-8.30445
▁finansin	-8.30464
▁baig	-8.30906
▁kurio	-8.31031
man	-8.31038
per	-8.31062
20	-8.31094
▁praneš	-8.31246
dien	-8.31391
val	-8.31555
▁juos	-8.31866
▁kuriuo	-8.31957
▁institucijos	-8.31973
▁bendra	-8.32084
▁Dabar	-8.32268
ūk	-8.32483
▁klausimus	-8.32544
ner	-8.32615
nas	-8.32625
▁jį	-8.33109
liu	-8.33177
ybos	-8.33217
yst	-8.3328
▁partner	-8.33551
▁pasak	-8.3357
F	-8.33625
▁nurod	-8.33641
ios	-8.33724
R	-8.33829
▁naudo	-8.33873
laid	-8.34049
▁kriz	-8.34073
L	-8.34314
▁šalyse	-8.34425
8	-8.34702
ją	-8.34851
▁koleg	-8.34866
ties	-8.34944
ymu	-8.35218
inį	-8.35443
▁galimyb	-8.35457
▁sp	-8.3581
▁kurioje	-8.35821
gy	-8.35928
jos	-8.36032
eiti	-8.36105
▁padėtį	-8.36208
▁pranešėja	-8.36272
▁kuria	-8.3639
▁nacionalin	-8.36697
▁Taigi	-8.36878
▁atsižvelgiant	-8.36899
▁kurias	-8.36926
▁teises	-8.36989
▁šalies	-8.37077
▁priėm	-8.37143
▁valstybėse	-8.37202
ža	-8.37276
▁įskaitant	-8.37387
▁Mano	-8.37542
▁institucijų	-8.37621
▁Tarybai	-8.37674
▁euro	-8.37712
ciją	-8.37776
▁visuomenės	-8.37891
ėtų	-8.37989
▁im	-8.38099
O	-8.38398
▁žinoma	-8.38455
▁žmonės	-8.38503
▁šalis	-8.38554
▁Parlamente	-8.38561
▁tarptautini	-8.38684
▁plėtros	-8.3882
▁Turime	-8.39003
▁stat	-8.39044
▁aplinkos	-8.39054
▁vieš	-8.39114
▁Ž	-8.39122
▁spręsti	-8.39173
pie	-8.39234
dėti	-8.39432
gar	-8.39498
▁sau	-8.39708
▁mažiau	-8.39713
ančių	-8.39877
▁metus	-8.39913
avimu	-8.3993
inis	-8.40229
▁šalys	-8.40241
čio	-8.40289
den	-8.40402
▁san	-8.40511
▁valstybėms	-8.40733
▁jud	-8.40744
▁visuomen	-8.40914
▁pareng	-8.40949
išku	-8.41033
▁sistemą	-8.4104
ministr	-8.41132
▁vėl	-8.41314
plan	-8.41342
fi	-8.41429
▁EUR	-8.41437
▁diskusijos	-8.41461
ap	-8.41595
▁atlik	-8.41676
▁pasiūlymą	-8.41799
▁sunku	-8.41865
▁vietos	-8.41892
vers	-8.41919
nių	-8.41954
▁lygio	-8.4203
auti	-8.42102
sp	-8.42207
ag	-8.42266
▁jiems	-8.42315
ge	-8.4233
▁grup	-8.42565
▁ateityje	-8.42885
▁ant	-8.43
▁komp	-8.43079
forma	-8.43326
tautin	-8.4345
▁gr	-8.43571
▁lygmeniu	-8.43649
▁problema	-8.43685
nai	-8.43883
▁pasaulyje	-8.44063
vil	-8.44084
▁rū	-8.44208
ke	-8.4453
▁pranešimo	-8.44586
▁nebuvo	-8.44606
▁atskir	-8.4465
kin	-8.44708
lig	-8.44948
▁vadov	-8.4496
▁pirmiausia	-8.44968
bal	-8.45166
lauk	-8.45273
▁suteikti	-8.45509
▁priežiūros	-8.45509
zi	-8.4592
▁teisę	-8.4611
▁moterų	-8.46123
▁stebė	-8.4629
▁dalis	-8.4631
siu	-8.46371
pu	-8.46439
tvar	-8.46494
▁būtent	-8.46591
inę	-8.46595
ems	-8.46699
▁nori	-8.46708
jai	-8.4672
▁sava	-8.46771
gali	-8.46788
inant	-8.46839
▁metais	-8.46841
ntis	-8.46953
▁atsižvelg	-8.47072
▁skatinti	-8.47254
ku	-8.47292
▁ją	-8.47407
▁nare	-8.47463
tės	-8.47477
ver	-8.47675
▁Jei	-8.47699
rą	-8.47846
log	-8.47862
ment	-8.47941
▁įvairi	-8.48165
op	-8.48299
▁pabrėž	-8.48407
vad	-8.48516
D	-8.48568
šal	-8.48762
be	-8.48817
port	-8.48952
▁valdžios	-8.49009
▁Li	-8.4915
▁energetikos	-8.49205
▁kitos	-8.49248
▁vaidmenį	-8.49249
▁geresn	-8.49273
▁Bendrijos	-8.49283
▁tikslas	-8.49491
▁taisyklių	-8.4958
▁veiklos	-8.49624
▁pranešimas	-8.49751
▁bendrą	-8.49894
dal	-8.50154
▁sąlygas	-8.50353
▁At	-8.50359
▁dvi	-8.50561
▁kuriame	-8.50826
▁leis	-8.50838
▁treči	-8.50923
▁kuo	-8.51112
▁sav	-8.51163
▁3	-8.51173
kėl	-8.512
▁veik	-8.51389
lan	-8.51499
ly	-8.51579
ėjus	-8.5173
▁parod	-8.51743
▁naudoti	-8.51777
jimas	-8.518
▁svarst	-8.51918
▁vykd	-8.51942
▁susitarimo	-8.52085
▁4	-8.52143
inimas	-8.52227
▁noriu	-8.52336
▁esu	-8.52345
▁Ma	-8.52358
bank	-8.52379
▁nusi	-8.52431
▁nary	-8.52494
▁naujų	-8.52494
▁Šis	-8.52512
▁gerai	-8.52544
▁veiks	-8.52602
▁mat	-8.52756
ite	-8.52817
▁šia	-8.52837
M	-8.53042
▁f	-8.53058
▁pritariu	-8.5307
".	-8.53239
U	-8.53258
▁200	-8.53357
▁problemų	-8.53454
▁sumažinti	-8.53718
tojų	-8.54103
▁pus	-8.54159
az	-8.54181
G	-8.54226
▁pagalbos	-8.54305
▁20	-8.54555
▁taikyti	-8.54613
▁narėms	-8.54739
sk	-8.54882
▁teks	-8.54964
dėl	-8.55121
▁paslaugų	-8.55136
▁išteklių	-8.55229
▁susitar	-8.55248
ny	-8.55261
tri	-8.55273
ieji	-8.5545
▁vieną	-8.55485
▁narėse	-8.55592
▁piliečiams	-8.55602
▁pritar	-8.55632
go	-8.55662
▁šalims	-8.55859
amas	-8.55929
inimą	-8.5593
ąjį	-8.5599
▁val	-8.56061
▁mln	-8.56121
▁vyksta	-8.56171
▁Jungtin	-8.56173
▁pasiūl	-8.56176
▁paramos	-8.56334
lių	-8.56349
aiški	-8.56466
▁produktų	-8.5661
ingą	-8.56629
vien	-8.5671
bū	-8.56877
▁darbuotojų	-8.56894
▁kūr	-8.57104
▁vartotojų	-8.57178
land	-8.574
▁direktyvos	-8.57439
▁aiški	-8.57568
▁tyr	-8.57732
▁oro	-8.57916
▁finans	-8.58023
▁pasaulin	-8.58107
iško	-8.58445
▁tiesų	-8.585
▁paramą	-8.58593
tais	-8.58601
▁aukšt	-8.58707
▁griež	-8.588
▁norime	-8.58807
amb	-8.58951
▁vaik	-8.59017
lyg	-8.59076
pri	-8.59077
▁lėšų	-8.5919
ną	-8.59271
▁pažeid	-8.59529
▁geriau	-8.59762
▁2009	-8.59986
▁kuriais	-8.60127
▁įtraukti	-8.60169
bai	-8.60479
reikš	-8.60565
▁siek	-8.60698
pre	-8.60728
▁aktų	-8.60874
antis	-8.60962
▁Tik	-8.61246
▁įsipareigo	-8.61886
▁mokesčių	-8.61887
nio	-8.62009
jomis	-8.62402
▁srityse	-8.62443
od	-8.62536
▁turėti	-8.62597
00	-8.62605
▁daryti	-8.62768
▁atlikti	-8.62864
▁dr	-8.62886
▁kyla	-8.62913
▁Balsavau	-8.62936
▁klausimų	-8.62972
▁gauti	-8.62973
▁kal	-8.63077
▁poveikį	-8.63138
▁pradėti	-8.63164
tinių	-8.63222
▁dažnai	-8.63239
▁sprendimą	-8.6324
rb	-8.63255
jant	-8.63303
▁ge	-8.63339
nčius	-8.63424
▁elg	-8.63465
pajėg	-8.63519
▁esmės	-8.63522
ąją	-8.63584
▁pramonės	-8.63606
▁įtrauk	-8.6376
jama	-8.64026
▁duomenų	-8.64073
▁visus	-8.64162
iek	-8.64262
damos	-8.64436
▁kuriose	-8.64455
▁pramon	-8.6446
▁bendro	-8.64491
ntys	-8.64635
dur	-8.64684
▁plėt	-8.64726
ac	-8.64761
▁suteikia	-8.64762
▁gyventojų	-8.64933
▁pagrindinių	-8.65098
mės	-8.65209
▁Vien	-8.65308
ilg	-8.65376
už	-8.65754
▁teisinga	-8.65797
del	-8.65849
▁veikia	-8.66005
▁numat	-8.66123
▁reikalų	-8.66337
▁valdymo	-8.66357
▁žmonėms	-8.6636
mais	-8.66403
▁19	-8.66482
▁Antra	-8.66493
▁nauja	-8.66638
▁tyrimų	-8.66676
▁užsienio	-8.66725
▁turės	-8.66792
▁JAV	-8.67116
▁esame	-8.67156
imams	-8.67174
▁siūl	-8.67267
▁pl	-8.67336
▁gerb	-8.67345
▁integr	-8.67402
▁išsi	-8.67439
▁inter	-8.67569
▁programa	-8.6762
▁padėtis	-8.67825
▁10	-8.67853
▁vidutin	-8.67879
▁kl	-8.67911
mui	-8.67933
žia	-8.67942
rė	-8.67945
▁sprendimo	-8.67987
▁balsavau	-8.68011
▁informacijos	-8.68037
▁strategijos	-8.6809
▁tiesiog	-8.68104
▁visas	-8.68108
▁naudojam	-8.68192
kime	-8.68194
▁tokio	-8.68258
▁susitarimą	-8.68294
▁tvark	-8.68323
dą	-8.6846
▁siekti	-8.6853
▁se	-8.68619
▁gyven	-8.6877
▁reikėtų	-8.68842
▁Pra	-8.69047
▁tinkl	-8.69199
▁siekia	-8.69201
▁jūros	-8.69341
▁kodėl	-8.69488
▁La	-8.69489
▁kalbė	-8.69537
▁tinkamai	-8.69555
▁aišku	-8.6967
▁piliečiai	-8.69689
par	-8.69748
▁įmonių	-8.69802
▁fa	-8.69887
▁balsu	-8.69941
▁problemas	-8.69977
▁pranešimu	-8.7011
ėm	-8.7025
▁pareišk	-8.70368
▁skatin	-8.7042
▁meto	-8.70432
▁tikiuosi	-8.70662
▁naują	-8.70691
▁sėkm	-8.70719
▁tikslų	-8.70774
▁sutarties	-8.70952
iškų	-8.71038
uoju	-8.71039
zo	-8.71194
▁rodo	-8.71326
▁neat	-8.71357
ingo	-8.7142
ten	-8.7159
trūk	-8.71608
▁gyv	-8.71673
▁rinką	-8.71705
▁patirt	-8.7181
▁skiria	-8.71874
ic	-8.71943
▁demokratin	-8.72142
nčio	-8.7219
▁klausimais	-8.7259
▁svarbiausia	-8.72602
▁Parlamentui	-8.72864
ingas	-8.72947
up	-8.72964
žym	-8.73043
▁didžiul	-8.73169
▁privalome	-8.7331
▁vienod	-8.73382
▁atkreipti	-8.73592
▁teisė	-8.73648
gyvendin	-8.73734
▁kovo	-8.73749
▁šias	-8.73947
lio	-8.74155
▁regiono	-8.7422
▁veiksminga	-8.7431
▁skatina	-8.74354
▁socialinės	-8.74371
region	-8.74487
▁dirba	-8.74488
čius	-8.7451
uota	-8.74573
tinės	-8.74981
▁skirtu	-8.75035
▁paskelb	-8.751
ingų	-8.7527
▁ūkinink	-8.75322
▁Komisijai	-8.75386
▁Bal	-8.75402
▁toks	-8.7552
▁būsim	-8.75534
▁Kai	-8.75699
ėjų	-8.75829
▁sprendimas	-8.75928
▁Di	-8.7608
▁vietų	-8.76151
▁taikoma	-8.76289
jam	-8.7643
▁reikalauja	-8.76471
▁2008	-8.765
▁remia	-8.76916
▁papild	-8.77111
▁Galiausiai	-8.77366
▁reikalinga	-8.77369
▁priklauso	-8.77577
▁dėmesio	-8.77744
umu	-8.77837
yv	-8.77909
ėjimą	-8.78019
▁užsi	-8.78133
▁dirbti	-8.78204
nusikalt	-8.78271
▁šiam	-8.78526
kelia	-8.78545
▁Man	-8.78599
▁galėtume	-8.78681
▁nepri	-8.78793
▁ketina	-8.78838
▁svarbiausi	-8.78885
kite	-8.78898
▁jai	-8.79055
nčia	-8.79249
▁sudaro	-8.793
lų	-8.79358
▁šalyje	-8.7936
vok	-8.79413
▁visą	-8.79542
▁nebus	-8.79543
▁vaikų	-8.79543
▁darbotvark	-8.79597
dor	-8.79667
iška	-8.79719
▁siūlom	-8.79932
▁pinigų	-8.79982
▁kuriomis	-8.80049
fer	-8.80091
▁sektoriaus	-8.80221
▁pasinaudoti	-8.80281
▁pasirink	-8.80376
▁šiol	-8.80487
▁problemos	-8.8052
FR	-8.80596
▁leidžia	-8.80605
▁Mūsų	-8.80641
▁dalies	-8.80762
usios	-8.80835
iausia	-8.809
▁teigia	-8.8109
▁Pri	-8.81091
▁susiję	-8.81099
naudoja	-8.81183
vai	-8.81209
vin	-8.81636
▁atsisak	-8.81685
▁visada	-8.81923
▁dauguma	-8.81964
▁nepriklauso	-8.81986
",	-8.81995
nčią	-8.82082
▁eksp	-8.82196
daug	-8.82243
▁ilgalaik	-8.82272
▁atlieka	-8.82276
▁naujos	-8.82289
▁šalt	-8.82318
▁susijusių	-8.82502
▁sie	-8.82579
▁apsauga	-8.82639
▁tokių	-8.82691
▁ragina	-8.82723
▁jokio	-8.82752
▁nuolat	-8.82767
▁pabaig	-8.82833
▁būdu	-8.82998
▁regionin	-8.83015
viz	-8.83125
it	-8.83231
liai	-8.83277
▁geriausi	-8.83399
uojama	-8.83405
▁trump	-8.83499
▁programos	-8.83645
▁Per	-8.83671
▁Mums	-8.83685
▁itin	-8.83784
ino	-8.83824
ėjau	-8.83871
▁sen	-8.83884
▁abejo	-8.84021
▁sprendimus	-8.84059
reikšm	-8.84123
maž	-8.84282
ES	-8.84289
▁Labai	-8.84296
ėjimas	-8.84482
PL	-8.84548
▁pasireng	-8.84553
▁iniciatyva	-8.84657
▁greičiau	-8.84678
lie	-8.84879
▁susitarimas	-8.85033
muose	-8.85053
▁apibrėž	-8.85053
▁tokios	-8.85068
▁Daug	-8.8508
▁kol	-8.85159
▁galimybes	-8.85231
sumažin	-8.85328
▁veikti	-8.85412
▁direktyva	-8.85493
▁6	-8.85588
▁demokratijos	-8.85651
▁rezoliucijos	-8.85682
▁nelaim	-8.85743
▁kokia	-8.85787
sistem	-8.85851
▁frakcija	-8.85873
▁kiekviena	-8.8588
▁įmanoma	-8.85997
▁Po	-8.86002
▁sunki	-8.86016
IT	-8.86023
▁žingsnis	-8.86029
▁pastangas	-8.86061
▁8	-8.86134
▁saugos	-8.86253
ūro	-8.86287
▁susiduria	-8.86317
▁Šiandien	-8.86378
▁naudinga	-8.86572
tams	-8.86588
▁rinka	-8.86607
ines	-8.86666
▁tikslus	-8.86735
stan	-8.86843
išką	-8.86931
kan	-8.87195
▁apsi	-8.87244
angl	-8.8728
nčias	-8.87434
vus	-8.8748
▁anksčiau	-8.87527
▁Kon	-8.87552
▁kovos	-8.87568
▁strategija	-8.87624
▁pritaria	-8.87847
▁grėsm	-8.87996
▁keletą	-8.88075
▁laikytis	-8.88115
konkreči	-8.88163
konflikt	-8.88204
▁Tarp	-8.88271
▁tada	-8.88279
▁negalime	-8.88347
▁gyvena	-8.88353
nijos	-8.88498
▁y	-8.88583
▁EP	-8.88735
▁Vadov	-8.88755
▁jas	-8.88817
▁apsaugoti	-8.89017
▁band	-8.89112
▁teigiama	-8.89189
▁paprast	-8.89233
inama	-8.89245
▁Toki	-8.89257
▁kaitos	-8.89268
jimu	-8.8938
tojai	-8.89475
▁kovoti	-8.89485
▁krizę	-8.89715
▁veikla	-8.89734
▁finansinių	-8.89754
parlament	-8.89825
▁veiklą	-8.89868
▁Jeigu	-8.89945
▁5	-8.89945
▁trans	-8.90008
▁tvarkos	-8.90291
▁Nors	-8.90327
▁kitu	-8.90395
▁tokiu	-8.90629
▁remti	-8.90719
▁didžiausi	-8.90808
▁kadangi	-8.90863
▁fondo	-8.90991
▁Ir	-8.91059
▁finansavimo	-8.91277
▁dešimt	-8.91482
▁2010	-8.91525
▁žinome	-8.9169
▁ekonomika	-8.91692
▁padėties	-8.91705
▁klausimai	-8.91758
▁apribo	-8.91781
▁vyriausybės	-8.91791
deda	-8.9183
▁Kar	-8.91853
▁problemą	-8.91893
▁kelią	-8.91908
▁Dar	-8.92075
▁pripažin	-8.92201
▁išspręsti	-8.92238
▁sprendimų	-8.92297
▁link	-8.92436
kol	-8.92513
▁In	-8.92515
▁didin	-8.92635
▁pateikta	-8.92797
ybę	-8.92819
▁kontrolės	-8.92862
ėte	-8.9288
▁tinkama	-8.92892
▁naujas	-8.92895
▁įrod	-8.92913
iškas	-8.92914
lieka	-8.93154
▁Bendr	-8.93464
▁susitarimu	-8.93465
▁gera	-8.93588
▁apima	-8.93684
▁bendros	-8.93685
▁galimybės	-8.93783
▁rimta	-8.93796
▁derybų	-8.93824
▁mokslinių	-8.93936
▁galimybių	-8.93947
tę	-8.94015
▁paskutin	-8.9403
▁laikas	-8.94078
▁aktyvi	-8.9416
▁2007	-8.9417
▁gyvenimo	-8.9418
▁Rusijos	-8.94202
▁vertina	-8.94339
nelyg	-8.9457
rekomendaci	-8.94579
▁pagalbą	-8.94721
aciją	-8.94812
▁taisykles	-8.94858
uojant	-8.94956
▁klausimo	-8.94977
▁ties	-8.95072
▁kalbėti	-8.95159
▁nepasi	-8.95255
▁padidinti	-8.95386
▁susijęs	-8.95407
▁mus	-8.95522
ved	-8.95587
▁dujų	-8.95621
▁steng	-8.95625
▁pasiūlymas	-8.95784
▁priežasčių	-8.95828
▁strategiją	-8.95863
▁vykdyti	-8.95936
▁priimta	-8.95938
▁7	-8.96028
▁praėjus	-8.96056
▁vykdo	-8.96074
▁visai	-8.96257
▁blog	-8.96336
pro	-8.96388
▁nepakanka	-8.96423
▁bendruomen	-8.96423
iniu	-8.96445
▁panaikin	-8.96456
leisti	-8.96519
▁gamybos	-8.96704
▁įgyvendinimo	-8.96987
▁padės	-8.97012
▁Teis	-8.97341
rand	-8.97466
▁vertus	-8.97629
▁dalį	-8.9764
▁beveik	-8.97665
▁rinkoje	-8.97731
▁jauni	-8.97733
▁Afrikos	-8.97837
▁pone	-8.97977
▁Sąjungai	-8.98015
▁reng	-8.98115
prezident	-8.98158
▁rezoliuciją	-8.98158
▁galutin	-8.98309
prek	-8.98521
▁institucija	-8.98552
▁kokyb	-8.9868
▁parengti	-8.98993
▁pakeisti	-8.99101
▁vystymosi	-8.99273
▁Europą	-8.99344
▁neturėtų	-8.99424
▁sanglaudos	-8.99488
▁elektr	-8.99513
▁laikotarpiu	-8.99561
▁esmin	-8.99646
▁Žinoma	-8.99706
▁atsižvelgti	-9.00132
▁išsaugo	-9.00145
▁sektoriuje	-9.00361
▁teikti	-9.00408
krit	-9.00425
ypating	-9.00436
▁kalba	-9.00452
▁da	-9.00459
▁rasti	-9.00555
▁organ	-9.00607
▁Komisiją	-9.00727
asis	-9.00809
teisin	-9.0084
▁jokių	-9.00882
▁besivystanči	-9.0091
▁nebūtų	-9.00949
▁Kita	-9.00993
▁jam	-9.01072
ąsias	-9.01162
▁regione	-9.0119
▁Jis	-9.0149
▁apsaugą	-9.01647
▁erdv	-9.01981
▁didži	-9.02117
▁turėjo	-9.02247
▁informaciją	-9.02278
▁remiantis	-9.02494
▁sek	-9.02611
▁regionų	-9.02671
▁tikslai	-9.02739
▁000	-9.03256
▁dalyvauti	-9.03327
spaud	-9.03421
▁poveikio	-9.0344
▁speciali	-9.03476
▁Būtent	-9.03552
▁valstybes	-9.03603
▁vienintel	-9.03665
▁Tikiuosi	-9.0374
jau	-9.03885
▁pagerinti	-9.03894
▁išorės	-9.03976
▁auto	-9.03983
▁įvertin	-9.03988
▁vadinam	-9.04025
▁leisti	-9.04028
▁laisvės	-9.04297
▁Jūs	-9.04323
ję	-9.04414
▁paskatin	-9.04728
▁Prieš	-9.04921
▁rezultatų	-9.05186
▁skyr	-9.05304
tro	-9.05319
▁įmonės	-9.05423
▁med	-9.05448
▁dalykas	-9.05532
▁supaprastin	-9.05553
▁mokslin	-9.05564
mobil	-9.05611
▁augimo	-9.05668
vert	-9.05835
▁greitai	-9.05856
▁šalimis	-9.06033
▁pakankamai	-9.06181
▁įmonėms	-9.06305
▁informacija	-9.06343
▁įvairių	-9.06455
▁ekonominės	-9.06546
▁atrodo	-9.06615
▁kuriems	-9.06621
▁protokolą	-9.06692
▁neigia	-9.06826
pagrind	-9.0688
▁pasiūlymo	-9.06939
▁pasiūlymus	-9.06963
▁pirmininkauja	-9.06994
▁principu	-9.07121
▁sudaryti	-9.07156
uosius	-9.07217
▁tapti	-9.07478
▁mlrd	-9.07512
▁sąlygomis	-9.07553
▁Pirma	-9.07814
▁pasveikinti	-9.07905
▁diskusijų	-9.08102
▁infrastruktūr	-9.08221
milijon	-9.0826
▁diskusijas	-9.08433
▁turiu	-9.08496
▁kitą	-9.08542
▁kelių	-9.08778
▁procesą	-9.0878
dyti	-9.08786
▁tapo	-9.08787
▁tolesn	-9.08989
▁klaus	-9.08994
▁virš	-9.09035
▁meta	-9.09305
▁juo	-9.09322
▁nepaisant	-9.09455
žiau	-9.09571
▁galbūt	-9.09734
▁strategin	-9.09974
▁bent	-9.10147
▁Kitas	-9.10248
▁sąlygos	-9.10466
▁Europai	-9.10617
▁panaudot	-9.1073
▁niek	-9.10852
▁sritis	-9.11025
▁pritarti	-9.11043
▁tarptautinės	-9.11066
▁tiksli	-9.11537
▁nustatyta	-9.11593
▁technin	-9.11677
▁nuomonės	-9.11761
kart	-9.11774
▁įsitikin	-9.11936
▁Deja	-9.12049
▁supranta	-9.12169
▁išlaidų	-9.12175
▁numatyta	-9.1242
▁verslo	-9.12501
▁nuomonę	-9.12582
▁daugiausia	-9.12626
▁asmenų	-9.12664
mokė	-9.12688
▁technologi	-9.12694
▁džiaugiuosi	-9.12829
▁Kalbant	-9.12846
biudžet	-9.13072
▁nutrauk	-9.13077
▁nebe	-9.13106
▁Jie	-9.13326
▁balsavimo	-9.13493
ketin	-9.13516
▁pagrįsta	-9.13534
kon	-9.1359
▁derybos	-9.13621
▁padidin	-9.13648
▁kokybės	-9.13823
▁perspektyv	-9.13826
žr	-9.13862
▁užduot	-9.13875
umui	-9.14088
▁Nor	-9.14105
ženkl	-9.14277
▁pakeitimu	-9.14352
▁visuotin	-9.14367
▁gyn	-9.14398
▁planu	-9.14439
pl	-9.14569
▁veiksmai	-9.14614
▁politinių	-9.14661
▁švietimo	-9.14708
▁neturė	-9.1472
▁diskutuo	-9.14919
▁kurti	-9.15003
tojams	-9.15164
▁labiausiai	-9.15224
▁išsami	-9.15249
duoda	-9.1528
▁paskir	-9.15345
gen	-9.15352
▁rod	-9.15381
▁procedūra	-9.15512
▁Rusija	-9.15642
pus	-9.15796
▁rinkimų	-9.15801
ntiems	-9.15887
▁skaičius	-9.16025
▁poziciją	-9.16194
▁patvirtinti	-9.16226
▁esanči	-9.16277
▁kalbant	-9.16277
▁esant	-9.16324
▁išmetam	-9.16369
▁žem	-9.1637
▁dirb	-9.16372
▁aktus	-9.16379
▁sutartis	-9.16565
▁daugyb	-9.1658
▁Pagal	-9.16607
▁grindžiam	-9.16666
omuni	-9.16687
▁skirta	-9.16687
žvelg	-9.16706
Darbo	-9.16718
▁reali	-9.16883
▁kapital	-9.1701
sprend	-9.17041
▁parama	-9.1708
▁programą	-9.17106
▁komitetas	-9.17139
skyr	-9.17339
grįž	-9.17377
vanden	-9.17397
▁kaimo	-9.1747
▁atnaujin	-9.17499
▁antra	-9.17587
▁nieko	-9.17645
▁užimtumo	-9.17702
nauj	-9.17708
▁skirtas	-9.1786
▁svarbūs	-9.18007
▁svarbų	-9.18181
▁konsul	-9.18273
▁bausm	-9.18427
▁investicijų	-9.18487
ančios	-9.18649
▁Gali	-9.18775
▁balsuoti	-9.18802
▁neseniai	-9.18885
nčiai	-9.18912
Europos	-9.18934
EB	-9.19005
▁profesin	-9.19014
▁teig	-9.19038
▁kaita	-9.19201
▁vakar	-9.19254
▁šiais	-9.19289
▁tariant	-9.19368
kūr	-9.19435
▁kv	-9.19449
▁turė	-9.19472
▁laiką	-9.19689
▁neabejotinai	-9.19765
gebė	-9.1982
▁stiprinti	-9.19909
▁įgyvendina	-9.19944
▁vertinu	-9.20043
▁tikras	-9.20049
▁dviejų	-9.20077
▁pasiūlymu	-9.20133
▁galiausiai	-9.20211
uotų	-9.20274
▁galės	-9.20343
ada	-9.2041
▁proceso	-9.20531
▁sustabd	-9.20612
▁skiriama	-9.20684
▁reglamento	-9.20745
▁14	-9.20827
▁atvejais	-9.20835
▁įvertinti	-9.2087
▁gyvūn	-9.20888
▁Amerikos	-9.20969
▁mastu	-9.20983
▁paminėti	-9.21065
▁humanitarin	-9.21104
▁kitaip	-9.21222
▁pareigas	-9.21226
kultūr	-9.21267
▁pripažinti	-9.21321
▁Bet	-9.21426
▁vadovauja	-9.21472
▁reguliavimo	-9.2169
Ž	-9.2176
▁sukūr	-9.21849
▁pažangą	-9.21871
▁direktyvą	-9.22007
ysime	-9.22112
▁darbu	-9.22139
ėjimu	-9.22175
▁technologijų	-9.22197
▁sutartį	-9.2227
▁kreip	-9.22416
▁partijos	-9.22417
▁kalbama	-9.2249
PT	-9.22504
▁projektu	-9.22552
▁pasiūlymų	-9.22553
pil	-9.2267
▁pažeidžiam	-9.22673
▁kaimyn	-9.22735
▁persvarst	-9.23055
▁saugumą	-9.23101
▁padeda	-9.23196
▁veiksmus	-9.23339
▁sąlygų	-9.23477
Pirminink	-9.23522
▁JT	-9.23558
▁disk	-9.236
▁išvengti	-9.23641
keičia	-9.23662
▁turt	-9.2368
▁žali	-9.23681
▁pasisak	-9.23702
▁taikymo	-9.23703
▁Al	-9.23909
▁lengva	-9.23931
▁vyks	-9.23957
▁taisyklės	-9.24073
▁pagrindu	-9.24124
▁suteikta	-9.24135
migra	-9.24288
▁dalyvauja	-9.243
▁partnerystės	-9.24439
▁Nuo	-9.24464
▁Šios	-9.24528
▁12	-9.24564
▁būdas	-9.24819
▁struktūrin	-9.24905
▁Sąjungą	-9.25045
▁šiai	-9.25128
▁politinės	-9.25228
▁reglamentu	-9.25373
▁derybas	-9.25607
▁taigi	-9.26123
▁žmones	-9.26363
mams	-9.26396
▁tampa	-9.26481
▁Turi	-9.26509
▁kontrol	-9.26581
▁įvykd	-9.266
Europa	-9.26872
esnės	-9.26882
▁socialinių	-9.26939
krikščion	-9.2698
▁pamat	-9.26998
minėt	-9.27008
▁pozicija	-9.27028
▁įgyvendinant	-9.27148
▁priemonėmis	-9.27407
▁vartojimo	-9.2741
▁vartotojams	-9.27458
taut	-9.27479
▁negu	-9.27582
▁rytoj	-9.27624
▁automobilių	-9.27793
▁žvejybos	-9.27864
▁susijusios	-9.27908
▁daugelis	-9.28036
▁jūrų	-9.28082
▁būtinyb	-9.28134
ėjai	-9.28154
▁pačios	-9.28206
▁Jungtinės	-9.28207
▁išmok	-9.28292
▁naudojimo	-9.284
▁dėkoju	-9.28516
▁nariams	-9.2859
▁pirmininko	-9.28819
ber	-9.28985
ydami	-9.29095
▁atsakinga	-9.29201
▁norint	-9.29203
▁matyti	-9.29251
▁saugo	-9.29298
priklausomyb	-9.29308
▁dėmesys	-9.29489
▁sveiki	-9.29543
▁pavyzdžiui	-9.29545
▁sutart	-9.29566
▁požiūrį	-9.29636
▁organizacijos	-9.29636
▁netgi	-9.29777
▁pažangos	-9.29832
▁svarbą	-9.29881
tyje	-9.29883
▁kainų	-9.29893
▁suprasti	-9.2993
▁pilietin	-9.29979
▁vysty	-9.2998
▁prekyba	-9.30077
▁kolegos	-9.30121
▁Nepaisant	-9.30323
▁tikrą	-9.30373
▁laukia	-9.30394
▁ateities	-9.30423
▁suinteresuot	-9.3052
▁pagrindinis	-9.3058
vel	-9.30678
▁tikrų	-9.30709
▁Airijos	-9.30818
▁tokie	-9.3085
ding	-9.30892
silpn	-9.30918
▁prisijung	-9.30966
▁kova	-9.31169
ler	-9.31212
▁aukščiausiojo	-9.31215
▁15	-9.31239
▁Rytų	-9.31328
▁nacionalinių	-9.31508
▁Kinijos	-9.31567
▁Br	-9.31573
▁investuot	-9.31613
sakyti	-9.31721
▁pašalin	-9.31756
▁ekolog	-9.31763
▁panaikinti	-9.31766
▁grupės	-9.31794
lankst	-9.31902
▁požiūrio	-9.31913
tumėte	-9.31943
▁Viduržemio	-9.32063
▁reikalavimus	-9.32213
▁savaitę	-9.32214
▁30	-9.32217
▁kiekvieno	-9.32315
▁požiūris	-9.32315
▁tęsti	-9.32323
▁sutelk	-9.32366
▁didinti	-9.32396
▁svarsto	-9.32453
▁negalima	-9.32477
▁praeit	-9.32586
▁Kadangi	-9.32666
▁nenu	-9.32835
▁teisingumo	-9.32869
▁gerbia	-9.33041
▁minėjo	-9.33166
▁pobūdžio	-9.33172
▁paremti	-9.3332
▁įvairov	-9.33477
▁vaidmuo	-9.33629
▁susijusius	-9.33706
▁prasm	-9.33981
▁sektorių	-9.33986
▁kalbame	-9.33991
▁paslaugas	-9.34191
▁laiku	-9.34216
RO	-9.34254
▁žvej	-9.34433
▁ryž	-9.34512
▁įveikti	-9.34568
▁finansinės	-9.34764
▁peln	-9.34774
▁Šiaurės	-9.34911
▁procesas	-9.35019
▁pagrindas	-9.35028
pol	-9.35093
▁įsteig	-9.35221
▁nuolatin	-9.35257
▁karto	-9.35423
ydamas	-9.35558
iečių	-9.35613
▁dalykų	-9.35635
▁sprendžia	-9.35648
▁keturi	-9.35845
▁pagalba	-9.35864
▁darbas	-9.35912
▁gruodžio	-9.35948
▁tema	-9.35971
▁įtvirtin	-9.36052
▁atkreip	-9.36133
▁priežasties	-9.36156
▁patikrin	-9.36215
▁gauna	-9.36236
▁demokratų	-9.36273
▁Euro	-9.36419
▁tūkst	-9.36433
▁sienų	-9.36525
▁esama	-9.36596
▁žuvininkystės	-9.3668
▁padarinių	-9.36953
▁viską	-9.36975
▁mirties	-9.36996
▁išlaikyti	-9.37051
▁fondų	-9.37101
▁nusprend	-9.37125
▁teisėkūros	-9.37207
▁50	-9.37319
▁atvyk	-9.37325
▁iniciatyvos	-9.37377
program	-9.37512
▁atsakomybę	-9.37577
▁bendrosios	-9.37586
▁rezoliucija	-9.37683
▁solidarumo	-9.37683
▁sričių	-9.37683
▁išdėst	-9.37751
▁neap	-9.37835
▁sudėtinga	-9.37842
▁aspektu	-9.37948
sąžin	-9.37988
▁pastangų	-9.38055
▁kiti	-9.38303
▁interesus	-9.38323
balsavimas	-9.3843
džiu	-9.38545
▁Pritariu	-9.38589
▁priežastis	-9.38642
▁Ties	-9.38799
▁2020"	-9.38858
▁nepritar	-9.38883
▁Pirmiausia	-9.3892
▁padaryta	-9.38973
▁pristat	-9.39121
▁didelį	-9.39318
administracin	-9.3934
▁sustiprinti	-9.39388
▁kalbėjo	-9.39449
iški	-9.39583
pir	-9.39658
▁Pirmininko	-9.39747
▁išteklius	-9.39773
▁baudžiam	-9.39881
▁sektorius	-9.39881
▁Mar	-9.39904
▁kuriam	-9.39981
▁prieglobsčio	-9.3999
atsarg	-9.40052
▁27	-9.40202
▁Vakarų	-9.40425
krypt	-9.40491
▁sakant	-9.40554
▁patiria	-9.40561
▁palik	-9.40678
▁informuot	-9.40698
▁bendradarbiauti	-9.40755
turi	-9.40847
▁autor	-9.40876
▁balsavo	-9.40917
▁pavojus	-9.41137
▁žinia	-9.41144
lav	-9.41238
▁komitete	-9.41356
▁aplinkai	-9.41797
▁standartus	-9.41797
▁vėliau	-9.41867
▁konkurencijos	-9.41963
▁panaši	-9.4208
▁niekada	-9.42144
▁Turkijos	-9.42185
▁pakeitimų	-9.42519
▁tokį	-9.42828
▁pasiūlymai	-9.43022
▁mokymo	-9.43027
▁planą	-9.43111
▁gana	-9.43181
▁susirūpinimą	-9.43228
leidžia	-9.43262
J	-9.43284
▁biurokrat	-9.433
▁kultūros	-9.43316
▁tvari	-9.43328
▁biudžetą	-9.43373
▁metin	-9.43376
▁Tuo	-9.43393
▁Atsižvelgiant	-9.43413
▁teikiama	-9.43453
▁deja	-9.43487
▁palengvin	-9.43525
▁pradėt	-9.43859
▁santykių	-9.43863
▁sistemų	-9.43946
▁prisidėti	-9.44087
▁užbaig	-9.44148
▁pasiraš	-9.44257
▁pirk	-9.44276
▁standartų	-9.44372
▁dažn	-9.44487
▁palankiai	-9.44565
▁2006	-9.44724
▁palank	-9.44941
▁draug	-9.44998
▁Pietų	-9.44998
▁MV	-9.45
▁išlaidas	-9.45004
▁auga	-9.45124
▁mažesn	-9.45223
▁amžiaus	-9.45284
ininkų	-9.45323
▁santykius	-9.45341
▁zonos	-9.454
▁skaidrumo	-9.45455
galv	-9.45491
▁gim	-9.4552
▁siekdami	-9.45528
▁eina	-9.45569
▁siekdama	-9.45641
▁užtikrinant	-9.45709
Plojimai	-9.45742
▁Už	-9.45753
▁viening	-9.45771
▁daugeliu	-9.4586
▁priminti	-9.4598
aktyv	-9.4612
plat	-9.46134
▁teikiam	-9.46173
▁puiki	-9.46199
▁Barroso	-9.46319
▁tikslą	-9.46319
▁interesų	-9.46321
▁susitikime	-9.46383
▁tiesiogiai	-9.46417
▁susitarimų	-9.46447
damiesi	-9.46519
▁kilmės	-9.46551
č	-9.46645
▁plačia	-9.46792
▁aktai	-9.46809
▁ginč	-9.46863
▁vizų	-9.46869
▁institucijoms	-9.46899
▁galėsime	-9.47064
▁užtikrinta	-9.47171
▁atvejų	-9.47249
▁romų	-9.47513
▁tie	-9.47657
▁reikalavimų	-9.47658
▁įsipareigojimų	-9.47716
žiūri	-9.48007
NL	-9.48102
▁atsinaujinanči	-9.48186
▁įtraukta	-9.4825
▁Reikia	-9.48305
▁pripažįsta	-9.48337
▁Šiame	-9.48376
reguliuo	-9.48485
▁skubiai	-9.48525
▁bendradarbiau	-9.48834
▁paragin	-9.48847
▁Šengeno	-9.48955
▁anglies	-9.48957
▁daugelio	-9.48958
▁sal	-9.48971
▁srities	-9.49074
▁atsakomybės	-9.49193
▁parodyti	-9.49205
▁padėtų	-9.49262
▁globalizacijos	-9.49312
▁projektą	-9.49431
▁ankstesn	-9.49491
▁lyder	-9.49554
▁masto	-9.49579
▁efektyvi	-9.4961
▁2011	-9.4961
▁atliekų	-9.4979
▁šeši	-9.49796
▁ryt	-9.49907
▁vykdoma	-9.50017
▁puikiai	-9.50075
▁Nauj	-9.50098
▁pastaruosius	-9.5015
▁nerimą	-9.50185
▁taikomos	-9.5028
▁nenori	-9.50325
▁tobul	-9.50348
pač	-9.50508
▁sustiprin	-9.50518
▁koordinuo	-9.50752
▁lygiu	-9.50878
▁moterys	-9.50994
▁pavyzdys	-9.50994
▁analiz	-9.50994
▁integracijos	-9.51182
▁tikslu	-9.51183
▁karin	-9.51335
▁žmonėmis	-9.5142
▁Kalb	-9.516
▁rengiant	-9.51743
išspręs	-9.51953
▁Prancūzijos	-9.51968
▁11	-9.52088
▁kalt	-9.52271
▁pakeitimai	-9.52276
▁tinkamą	-9.52285
▁pavyko	-9.52463
▁įtakos	-9.52466
liberal	-9.52473
▁sprendžiant	-9.52507
▁apsvarstyti	-9.5252
▁termin	-9.5253
▁ekonomiką	-9.52582
▁procedūros	-9.52644
▁teisėms	-9.52695
liet	-9.52759
▁rezultatai	-9.5289
▁Pagrindin	-9.53014
▁projekto	-9.53014
atlygin	-9.53041
▁konkurencin	-9.53132
▁akivaizdu	-9.53161
▁tiems	-9.53197
▁sutinku	-9.53201
▁sukurta	-9.5322
▁apskritai	-9.53261
▁rizikos	-9.53261
nčioms	-9.53392
▁nelegal	-9.53397
▁nuosav	-9.53656
▁skirtų	-9.53824
▁pieno	-9.53951
▁dialogą	-9.54008
▁įsipareigojimus	-9.54009
▁rezultatus	-9.5407
▁dieną	-9.54112
▁nepriimtina	-9.54321
demokrat	-9.54338
▁pasiūlyti	-9.54445
▁nukreipt	-9.54509
▁agentūros	-9.54634
teisė	-9.54671
▁koks	-9.54855
▁įtaką	-9.54887
▁2020	-9.54889
▁didžiausia	-9.54893
▁sprendimai	-9.55014
▁Valstyb	-9.55201
▁pozicijos	-9.55265
▁įvykdyt	-9.55266
▁didėja	-9.55277
▁privači	-9.55358
▁ženg	-9.55467
▁tikslo	-9.55486
▁nacionaliniu	-9.55535
▁balsavimą	-9.55645
▁straipsnio	-9.55708
▁turėsime	-9.55742
trukd	-9.55813
▁Trečia	-9.559
▁principo	-9.56026
▁Parlamentą	-9.56154
▁darbuotojams	-9.56218
▁CO	-9.56312
ininkai	-9.56389
▁taps	-9.56428
▁įprast	-9.56476
▁Pasauli	-9.5654
numaty	-9.56566
▁pažanga	-9.56601
▁vandens	-9.56742
▁gyvenimą	-9.56796
▁suderinti	-9.56797
▁lank	-9.56953
▁susirūpin	-9.57199
dešimt	-9.57329
▁išnagrinė	-9.57373
▁Noriu	-9.57528
▁oficiali	-9.57534
▁lėšas	-9.57567
▁paprašyti	-9.57612
▁tyrimus	-9.57722
▁sėkmingai	-9.57763
ėjimų	-9.57865
▁aplinkybėmis	-9.57891
▁omenyje	-9.57892
▁tokią	-9.57965
▁įsitikinęs	-9.58082
▁moteris	-9.58216
▁Kinija	-9.58285
▁atstovauja	-9.58366
▁greit	-9.58608
pirmininkaujanti	-9.58716
▁Vokietijos	-9.58804
▁pareiškimai	-9.59191
▁prieštarauja	-9.59401
▁viešųjų	-9.59458
▁atidžiai	-9.59594
▁pareikšti	-9.596
EL	-9.59743
▁ateina	-9.60036
▁terorizmu	-9.60057
▁Ponios	-9.60059
▁iškelt	-9.60066
▁kažk	-9.60128
▁dvišal	-9.60189
funkci	-9.60398
▁derin	-9.60464
▁principai	-9.60522
H	-9.6054
▁pagrindą	-9.60543
▁gerokai	-9.60722
▁kandidat	-9.60722
▁penki	-9.60725
mokestin	-9.60796
aukščiausi	-9.60854
bėg	-9.6096
▁konkrečių	-9.6102
band	-9.61046
▁dvej	-9.61092
▁pranešėjo	-9.61171
▁prekių	-9.61205
▁reišk	-9.61357
▁veng	-9.61412
▁atvira	-9.61559
▁25	-9.61656
▁aptaria	-9.61664
▁principų	-9.61796
▁projektas	-9.61796
▁finansavimą	-9.61804
iniciatyv	-9.6188
redit	-9.61887
▁skaičių	-9.6194
▁nuostatos	-9.6207
▁kartais	-9.62114
▁manymu	-9.62177
▁ribų	-9.62202
▁lemia	-9.62335
▁žodžiu	-9.62339
▁augimą	-9.62426
▁priekį	-9.62432
▁priversti	-9.6253
▁įstatymų	-9.62544
▁Praneš	-9.62642
▁raginu	-9.62678
skiria	-9.62973
▁susidar	-9.63
▁pavojų	-9.63089
▁kalbos	-9.63158
▁skurdo	-9.63225
▁Pranešime	-9.63329
▁pritaik	-9.63457
▁nedelsiant	-9.63498
▁Taryboje	-9.63567
▁rengia	-9.63628
▁procedūrą	-9.6398
▁tikimės	-9.63997
▁skubi	-9.64004
▁plėtrą	-9.6404
▁paklausti	-9.64058
▁jėga	-9.64326
bendr	-9.6436
▁birželio	-9.64395
▁pradeda	-9.64496
▁kultūrin	-9.64541
▁kokių	-9.64759
▁straipsnis	-9.64812
▁taptų	-9.64885
▁nuostatų	-9.65026
▁lyčių	-9.65094
▁rūpi	-9.65106
▁nepaprastai	-9.65231
▁mėnesius	-9.65231
▁nuspręs	-9.6544
▁poreikius	-9.6565
▁13	-9.65708
▁daugelį	-9.65792
organizaci	-9.65796
▁stabilumo	-9.66001
▁Svarbu	-9.66213
▁jung	-9.66449
▁regis	-9.66525
▁kokiu	-9.66527
▁Dėkoju	-9.66566
▁šeimos	-9.66567
▁Turkija	-9.66637
▁puikų	-9.66708
▁vež	-9.66767
▁lėšos	-9.66779
▁biudžetas	-9.66797
▁pastat	-9.66797
▁interneto	-9.6685
izmu	-9.66877
▁rezultatas	-9.6692
▁Audito	-9.66921
▁šalį	-9.6695
▁ištekliai	-9.66992
▁tuomet	-9.67023
▁pavadin	-9.67027
▁imigracijos	-9.67134
▁džiaug	-9.67217
▁stabili	-9.67277
▁Graikijos	-9.67419
▁nagrinėja	-9.67419
▁ponia	-9.67479
▁aplinką	-9.6749
▁diskusija	-9.67537
▁pakartoti	-9.67565
▁pradžių	-9.67566
▁abejonių	-9.67617
▁malonu	-9.67634
▁abipus	-9.67705
▁reaguoti	-9.67705
▁tarpvalstybin	-9.67783
▁taup	-9.67823
▁augin	-9.6786
▁asmenin	-9.67862
▁principą	-9.67992
▁neįmanoma	-9.68208
▁sritį	-9.68352
▁gerą	-9.68488
▁projektų	-9.68496
▁naftos	-9.68569
▁laivų	-9.68858
▁pokyčių	-9.69002
▁principas	-9.69366
▁pakanka	-9.6938
▁žiniasklaidos	-9.69439
▁Tautų	-9.69446
▁pakeitimą	-9.69514
▁ilgai	-9.6964
▁įgyvendinimą	-9.69878
▁18	-9.69917
▁Vengrijos	-9.6995
▁grąžin	-9.70244
▁plataus	-9.70319
▁ateitį	-9.70539
▁naujus	-9.70553
▁sužino	-9.70919
▁regionuose	-9.71058
▁rezoliucijoje	-9.71129
▁pagerin	-9.71139
▁aspektų	-9.71203
▁kryptimi	-9.71574
▁plėtoti	-9.71892
▁šimt	-9.71917
▁medžiagų	-9.72321
▁kriterijus	-9.72396
▁laikomasi	-9.72408
▁Italijos	-9.72471
▁pareigūn	-9.72697
▁subsidi	-9.72772
▁keleivių	-9.72848
▁bendrovės	-9.7285
▁nepamirš	-9.72999
▁PPE	-9.72999
▁gerinti	-9.7301
▁paaiškinti	-9.7315
▁Būtina	-9.73225
▁potencial	-9.73301
▁sausio	-9.73323
▁parem	-9.73343
▁konstituci	-9.73605
▁mažumų	-9.73685
▁eurų	-9.73836
▁viskas	-9.73999
▁pasmerk	-9.74061
▁laimė	-9.74324
▁plenarin	-9.74444
▁pradžioje	-9.74521
▁mėnesių	-9.74523
▁pavaduotoja	-9.74597
▁vartotojai	-9.74597
sąlyg	-9.74646
▁naudojant	-9.7491
krat	-9.74953
taikyti	-9.75102
▁paprasčiausiai	-9.75135
▁reformos	-9.75136
▁civilin	-9.75291
▁Negalim	-9.75388
▁procese	-9.75534
▁nauji	-9.75598
▁teršalų	-9.75754
▁Vyriausyb	-9.75832
▁buvusi	-9.75852
▁tinkamo	-9.75881
▁demokratija	-9.76146
▁Pirmininkas	-9.76239
▁kovojant	-9.76273
▁terorist	-9.76377
▁dalimi	-9.7646
▁komitetu	-9.76533
▁laikotarpio	-9.76533
▁laikotarpį	-9.76533
▁konkrečiai	-9.76681
▁keisti	-9.76772
▁procesu	-9.76841
▁abejonės	-9.76848
▁prioritetu	-9.77082
▁produktai	-9.77082
▁skirtą	-9.77242
▁programų	-9.77261
▁Privalom	-9.77402
▁pajamų	-9.7741
▁dalykus	-9.77476
▁įvyko	-9.77484
▁gyventojai	-9.77516
▁svarba	-9.77793
▁reglamentą	-9.78031
▁tikėtis	-9.78068
socialist	-9.78209
▁darbuotojai	-9.78349
▁platesn	-9.78365
▁draudimo	-9.78668
▁aljans	-9.78748
▁duomenis	-9.78748
▁vyrų	-9.78908
▁sveikatai	-9.78988
▁kitiems	-9.79183
▁aspektas	-9.79229
▁Sutarties	-9.7939
▁pakeis	-9.79395
▁argument	-9.7947
▁asmens	-9.79553
▁gyventojams	-9.79582
▁skelb	-9.79639
▁glaud	-9.79714
▁aspektai	-9.79793
▁Diskusijos	-9.79954
▁reikalavimai	-9.79954
▁dienos	-9.80006
▁bendrovių	-9.802
▁organizuot	-9.80201
▁moterims	-9.80279
▁įgaliotin	-9.80279
▁Džiaugiuosi	-9.8036
▁įtikin	-9.80493
▁sektoriui	-9.80686
▁europin	-9.8081
▁girdė	-9.80841
▁papraš	-9.81283
▁Lenkijos	-9.81422
▁tarnybos	-9.81422
▁visapusiškai	-9.81586
▁saugumu	-9.81597
skund	-9.81749
▁trūksta	-9.81841
▁smurto	-9.81916
taisykl	-9.82067
▁vaidmens	-9.82081
▁pasitikėjimą	-9.82164
▁Pirm	-9.82166
▁sukuria	-9.82527
▁lapkričio	-9.82828
▁bankų	-9.82966
▁daugelyje	-9.82995
▁partija	-9.83009
▁Izraelio	-9.83162
▁solidarumą	-9.83246
HU	-9.83361
▁galiojanči	-9.83373
▁išreišk	-9.83754
▁ataskaita	-9.83917
▁organizacijų	-9.83918
leido	-9.8404
▁išlaidos	-9.84095
▁naudojimą	-9.8417
▁režimo	-9.84176
▁Siekiant	-9.84424
▁tikrov	-9.84443
▁stebi	-9.84684
▁elektronin	-9.84874
▁gamyba	-9.85103
▁nuosekli	-9.85104
▁gegužės	-9.85188
▁demokratiją	-9.8519
▁branduolini	-9.85274
▁produktus	-9.85359
▁valstybnar	-9.85376
▁paketo	-9.85457
▁agentūrų	-9.8553
▁migracijos	-9.85531
▁patenkinti	-9.85616
▁Ashton	-9.85701
atsak	-9.85816
▁minėta	-9.85948
▁aplinkosaugos	-9.8596
▁žemyn	-9.86157
▁Prancūzija	-9.86217
▁diplomat	-9.86217
▁poreikį	-9.86217
▁žodžio	-9.86303
pakeit	-9.86521
▁idėja	-9.86544
▁global	-9.86562
▁agentūra	-9.86649
praktin	-9.86851
▁vyko	-9.86864
▁biologin	-9.86909
▁iniciatyvą	-9.86924
▁fondas	-9.87344
▁rūšių	-9.87347
▁modern	-9.87431
▁spalio	-9.87609
▁prekybą	-9.87693
▁pirmenyb	-9.87994
vyriausyb	-9.88022
▁Respublikos	-9.88043
▁komercin	-9.88043
▁pakeitimas	-9.8831
▁nemažai	-9.88399
▁padaryt	-9.88551
▁artimiausi	-9.88571
▁neatsižvelg	-9.88571
▁organizacija	-9.88581
▁Teisingumo	-9.88836
▁Akivaizdu	-9.88925
▁vyn	-9.8894
▁savarankišk	-9.89013
▁vykusi	-9.89019
▁prieštara	-9.89071
▁2013	-9.89279
▁diena	-9.89289
▁trukm	-9.89297
▁rėm	-9.89321
▁liaudies	-9.89546
▁skirtingų	-9.8955
▁dokumentu	-9.89635
▁žodžiai	-9.89635
▁Baigdama	-9.89725
▁reformų	-9.89725
▁turizmo	-9.8973
egz	-9.89773
▁spekuli	-9.89903
krau	-9.90024
mokyk	-9.90127
▁vyriausi	-9.90262
išrinkt	-9.90377
▁standartai	-9.90441
▁geležinkelių	-9.90531
▁ryšių	-9.90531
▁iškil	-9.90597
▁pareiga	-9.90648
▁papildoma	-9.90653
▁mokslo	-9.90722
▁nuoširdžiai	-9.90801
▁piliečius	-9.90801
▁tarpusavio	-9.90801
▁duomenys	-9.90891
▁skurdu	-9.90982
▁brang	-9.91083
▁pabėgėlių	-9.91435
▁liberalizav	-9.91436
▁įgyvendinimas	-9.91437
▁dokumentų	-9.91526
▁kilo	-9.91595
▁branduolinės	-9.9189
▁institucin	-9.9189
▁nežino	-9.91899
▁nedidel	-9.91982
▁trijų	-9.91992
brėž	-9.92163
▁pasirašyt	-9.92177
▁planas	-9.92214
▁istorin	-9.9245
▁neteisėta	-9.92557
▁parlamentin	-9.92563
▁veiksmingesn	-9.92622
▁pasiūlyme	-9.92716
▁pasirod	-9.92773
▁Parlamentu	-9.9278
▁atmet	-9.92824
▁pastangos	-9.92898
▁Balsavimas	-9.92992
▁Buvo	-9.92994
▁Ukrainos	-9.93082
▁kiekvieną	-9.93083
▁paketą	-9.93091
▁padėtyje	-9.93175
▁skaidrumą	-9.9336
▁pažangi	-9.93447
▁sprendimu	-9.93511
▁pakeitimo	-9.93644
klaida	-9.93705
▁santykiai	-9.93731
▁poveikis	-9.93734
▁Ministr	-9.93824
▁netrukus	-9.93917
▁reikalauti	-9.93917
▁asmenims	-9.9401
▁papildomų	-9.94013
▁sąlyga	-9.94034
▁ženklin	-9.94075
▁NATO	-9.94103
▁pastabas	-9.94103
▁skirs	-9.94194
▁prioritetų	-9.94289
▁veiksmingiau	-9.9429
sėkm	-9.94376
▁labui	-9.94383
▁saugumas	-9.94384
▁pasitelk	-9.94477
▁ataskaitą	-9.9457
▁energetin	-9.9457
▁pinigai	-9.94664
▁ataskaitos	-9.94758
▁posėdyje	-9.94851
▁dialogo	-9.94946
▁policijos	-9.95229
▁norėtų	-9.95234
diskusijos	-9.95301
žiūrėti	-9.95307
▁kontroliuoti	-9.95513
▁svarbos	-9.95606
▁Ispanijos	-9.95701
▁įdieg	-9.95701
▁dalykai	-9.9589
▁kliūtis	-9.9589
▁konkurencingumą	-9.9589
▁Irano	-9.95898
▁Vert	-9.9591
▁dalyje	-9.96084
▁diskusiją	-9.96366
▁spaudimą	-9.96373
▁asmenys	-9.96557
▁mėnesį	-9.96657
▁kovą	-9.96665
▁pranaš	-9.96753
▁suveren	-9.96849
▁pažymėti	-9.97132
▁pratęs	-9.97155
▁Airijoje	-9.97421
▁Leiskite	-9.97421
▁Valstijos	-9.97421
▁pusiausvyrą	-9.97517
įvair	-9.97534
▁verčia	-9.97745
▁maistu	-9.97924
▁simboli	-9.98001
gyventi	-9.9807
▁prioritetas	-9.98098
▁skaidri	-9.98098
▁pensijų	-9.98195
▁susidūr	-9.98195
▁Valstijų	-9.98292
▁energiją	-9.98389
ininkystės	-9.98391
▁akivaizdžiai	-9.98393
▁2012	-9.98584
▁šaliai	-9.98604
▁vystymuisi	-9.98779
▁keletas	-9.9878
▁duomenimis	-9.98877
▁PPO	-9.98975
▁teritorijoje	-9.99073
▁dokumentai	-9.99367
▁prisitaikymo	-9.99662
▁Galbūt	-9.99761
▁reglamentas	-9.9986
▁stabilumą	-9.99959
▁apsaugo	-10.0005
▁deficit	-10.0006
▁sutartimi	-10.0008
▁dviem	-10.004
ficial	-10.0051
▁finansuojam	-10.0053
▁apibūdin	-10.0065
▁kokią	-10.0076
▁vaistų	-10.0076
tobulin	-10.0082
▁ryšius	-10.0105
▁inovacijų	-10.0125
▁social	-10.0145
▁kenčia	-10.0146
▁norėtume	-10.0155
▁Baltijos	-10.0155
▁Rumunijos	-10.0165
▁jėgos	-10.0165
▁diskriminacija	-10.0175
▁etnin	-10.0186
▁Biudžeto	-10.0206
▁mėgin	-10.0216
▁Graikija	-10.0256
▁aviacijos	-10.0256
▁konkurencija	-10.0266
▁taršos	-10.0278
▁nesąžining	-10.0279
▁nukentėjusi	-10.0297
▁pranešėją	-10.0297
universitet	-10.0307
▁fondu	-10.0307
▁įvykių	-10.0307
▁žinau	-10.0339
valstyb	-10.0346
▁frakcijų	-10.0348
▁Tarybą	-10.0358
▁įsipareigojimą	-10.0358
▁intensyv	-10.0369
▁viduje	-10.0389
▁likusi	-10.0392
▁konvencijos	-10.0399
▁kredito	-10.041
▁eismo	-10.0411
▁smarkiai	-10.042
▁pinigus	-10.043
▁sutarčių	-10.0431
▁posėdžio	-10.0441
▁technologijas	-10.0451
▁tinkamu	-10.0456
▁egzistuoja	-10.0461
▁rugsėjo	-10.0461
▁vertybes	-10.0472
▁vertybių	-10.0472
▁gerovės	-10.0492
▁institucijomis	-10.0492
▁politikoje	-10.0524
▁netinkama	-10.0547
▁gyvybiškai	-10.0565
▁griežtesn	-10.0588
▁demokratišk	-10.0589
▁išveng	-10.059
▁kompetencija	-10.0607
(	-10.0618
▁iššūkius	-10.0628
▁vaizd	-10.0641
garantuot	-10.0656
▁sąjungos	-10.066
▁pasikeit	-10.0682
▁procedūrų	-10.0692
▁Ekonomikos	-10.0724
▁katastrof	-10.0724
šiltnamio	-10.0734
▁veiksmingą	-10.0745
▁regionams	-10.0745
▁pavyzdį	-10.0756
▁penkeri	-10.0756
▁perduoti	-10.0767
▁ekstr	-10.0767
▁Balkanų	-10.0841
▁ėmėsi	-10.0841
▁įgyvendinta	-10.0851
leidimo	-10.0876
▁išsivysčiusi	-10.0895
▁Pasiūl	-10.0906
▁pokyčius	-10.0917
▁BVP	-10.0928
▁sąžininga	-10.0929
▁veiksmingo	-10.0939
▁situacija	-10.096
▁peržiūrėt	-10.0962
▁efektyvumo	-10.0971
▁priežiūrą	-10.0982
▁kaimynystės	-10.0982
▁Atsižvelgdama	-10.1004
▁tarptautine	-10.1007
▁smulki	-10.1015
▁atkurti	-10.1016
▁puiku	-10.1037
▁garantijų	-10.1048
▁persekioj	-10.1048
▁priimant	-10.1049
▁kokie	-10.1064
▁dokumentą	-10.107
▁nereikia	-10.1081
▁pakenk	-10.1084
▁kliūčių	-10.1092
▁prevencijos	-10.1092
▁tarnyba	-10.1092
▁Rūmų	-10.1092
▁eksporto	-10.1114
▁glaudžiai	-10.1114
▁kolektyvin	-10.118
▁bandom	-10.1185
▁investicijas	-10.1214
▁ALDE	-10.1214
direktor	-10.1225
▁interesai	-10.1249
mokslinius	-10.127
▁informacin	-10.127
▁atitikti	-10.127
▁priimam	-10.13
geležin	-10.1304
▁efektą	-10.1315
▁liepos	-10.1326
▁tikriausiai	-10.136
▁buvę	-10.136
▁Portugalijos	-10.1383
▁prioritetin	-10.1383
▁Ačiū	-10.1383
▁susipažin	-10.1394
▁Baltarusijos	-10.1406
▁strategijoje	-10.1417
▁didėjanči	-10.1438
▁pereinam	-10.1444
▁buvau	-10.1451
▁atidėt	-10.1464
▁ginklų	-10.1497
▁sugebėj	-10.1504
▁Žmogaus	-10.1509
▁patobulint	-10.1524
▁balandžio	-10.1532
▁asmeniškai	-10.1555
▁pridėtin	-10.1558
▁priežiūra	-10.1566
▁geografin	-10.1578
▁koordinavimo	-10.1578
▁dieg	-10.159
▁kompromisą	-10.1601
ratifikuo	-10.1648
▁išskirtin	-10.1648
▁ketvirt	-10.1648
▁sąrašą	-10.1659
▁kriterijai	-10.1671
▁straipsnį	-10.1671
▁suprantu	-10.1671
▁pokyčiai	-10.1706
▁įgaliojimus	-10.1706
▁neteisinga	-10.1706
▁paslaugos	-10.1718
▁Švedijos	-10.1718
▁Karalystės	-10.173
▁žmogišk	-10.173
▁svarbesn	-10.1741
▁teritorijos	-10.1741
▁balsų	-10.1741
▁įvykiai	-10.1765
▁trečiosiom	-10.1778
▁Kopenhagos	-10.1788
frakci	-10.1816
▁milžinišk	-10.1824
▁skaičiaus	-10.1848
▁Žemės	-10.1848
▁valiutos	-10.1872
▁Vidurio	-10.1884
▁Ukraina	-10.1907
▁kompetencijos	-10.1907
▁reitingų	-10.1919
žeidžia	-10.1948
▁pavyzdžiu	-10.1966
▁poreikis	-10.1967
▁Prezident	-10.1992
▁vietovėse	-10.1992
▁ataskaitoje	-10.204
▁atsiranda	-10.2041
▁diskriminacijos	-10.2064
▁Kosovo	-10.2089
▁nužud	-10.2101
▁gamybą	-10.2137
▁paslaugomis	-10.2137
▁žingsnį	-10.2137
▁diskusijoje	-10.2137
▁subsidiarumo	-10.2137
▁tikslams	-10.2138
▁konkurencingumo	-10.2138
▁aspektą	-10.215
abejoti	-10.2153
▁nusipeln	-10.2162
▁sporto	-10.2162
▁kontroliuoja	-10.2182
▁fondą	-10.2199
▁Ispanija	-10.2224
▁dioksido	-10.2224
▁tarptautinę	-10.2224
▁vairuo	-10.2254
▁esate	-10.2273
▁daugiašal	-10.2286
▁kortel	-10.2298
▁vystymąsi	-10.2323
▁dėkinga	-10.2323
milijard	-10.2335
▁Briuselyje	-10.2373
▁europiečių	-10.2373
▁neišveng	-10.2385
▁žuvų	-10.2385
▁Sutinku	-10.2386
▁efektyvumą	-10.2398
▁problemomis	-10.2411
▁vasario	-10.2411
▁išankstin	-10.2423
▁rimtų	-10.2436
▁reikalingos	-10.2448
▁atvejis	-10.2461
▁seksualin	-10.2461
▁laisvosio	-10.2487
▁konkurenciją	-10.2537
▁abiejų	-10.255
▁objektyv	-10.2588
▁skaitmenin	-10.264
▁tradicin	-10.264
▁tekstilės	-10.2653
draudžia	-10.2705
▁dydžio	-10.2743
▁akivaizd	-10.2747
▁paspartin	-10.2756
▁Rumunija	-10.2769
▁fondai	-10.2809
▁primygtinai	-10.2822
▁krovinių	-10.2835
▁praktika	-10.2838
▁žurnalist	-10.2848
▁užmokesčio	-10.2861
▁Raštišk	-10.2874
▁kompromisas	-10.2874
▁įvykius	-10.2888
▁komand	-10.2888
▁pasitikėjimo	-10.2901
▁Palestinos	-10.2914
▁pastaraisiais	-10.2914
▁asociacijos	-10.294
▁pacientų	-10.294
▁proporcing	-10.2954
▁Afrikoje	-10.2954
▁išplėsti	-10.2954
Š	-10.6105
