<pad>	0
</s>	0
<unk>	0
,	-2.94931
.	-3.39236
i	-3.8765
s	-3.9142
▁ir	-3.93802
▁	-3.96838
ų	-4.27637
o	-4.2859
▁kad	-4.5993
e	-4.71264
ą	-4.71775
a	-4.72578
as	-4.8455
u	-4.84982
os	-4.92496
ti	-5.01562
k	-5.17194
us	-5.18753
▁su	-5.20658
ai	-5.20892
▁Europos	-5.22368
▁į	-5.23816
m	-5.40112
▁dėl	-5.44696
▁iš	-5.46005
▁ne	-5.4601
v	-5.48123
▁yra	-5.50136
ė	-5.55342
d	-5.56533
▁-	-5.57204
n	-5.57658
t	-5.62145
p	-5.63348
▁tai	-5.72477
ės	-5.7376
y	-5.80027
me	-5.82589
▁pat	-5.86828
g	-5.89536
in	-5.90395
į	-5.94928
▁pa	-5.9817
)	-5.99572
▁(	-5.99899
ma	-6.00469
ę	-6.01467
▁m	-6.01692
z	-6.01839
is	-6.02359
ta	-6.0249
b	-6.03053
▁kaip	-6.07234
es	-6.08345
al	-6.09957
l	-6.11966
au	-6.12766
r	-6.13712
▁už	-6.14336
▁ši	-6.15672
▁taip	-6.16337
ž	-6.16759
nt	-6.19948
ių	-6.20649
li	-6.22772
▁ES	-6.27022
▁būtų	-6.27265
▁būti	-6.28789
▁turi	-6.28912
▁tik	-6.2983
ra	-6.31103
ais	-6.3131
te	-6.31871
en	-6.33054
to	-6.35407
▁to	-6.35442
ja	-6.35842
si	-6.36408
š	-6.37612
▁labai	-6.38232
▁savo	-6.39722
▁per	-6.41942
imo	-6.42563
tų	-6.42842
▁buvo	-6.43631
▁apie	-6.46319
▁dar	-6.46747
▁be	-6.4996
ir	-6.50347
▁mūsų	-6.52341
▁nes	-6.52954
▁k	-6.54678
▁Komisijos	-6.5653
imas	-6.59483
oje	-6.60406
▁kai	-6.62799
▁pirmininke	-6.62826
▁ar	-6.64196
▁p	-6.64417
▁K	-6.64805
omis	-6.65571
mi	-6.65595
▁bet	-6.65807
ar	-6.661
tas	-6.66657
▁vis	-6.67151
imą	-6.67289
▁t	-6.67307
ri	-6.68279
iai	-6.68344
▁d	-6.70254
ei	-6.71042
▁o	-6.71329
io	-6.71347
▁nuo	-6.71584
▁at	-6.7198
f	-6.72816
ik	-6.73076
▁S	-6.73421
j	-6.7402
▁gali	-6.74541
iu	-6.77291
▁turėt	-6.77684
▁bus	-6.78122
▁mes	-6.78241
yti	-6.78576
re	-6.80343
or	-6.80418
ek	-6.81227
oms	-6.81628
▁kurie	-6.81759
na	-6.82174
išk	-6.82675
▁jų	-6.83478
▁reikia	-6.8383
mas	-6.8396
▁Tai	-6.84405
tin	-6.85457
▁P	-6.88186
▁B	-6.8952
ant	-6.90352
▁Sąjungos	-6.90847
▁norėčiau	-6.91033
▁daug	-6.91621
▁"	-6.91631
▁kuri	-6.92347
ka	-6.92913
el	-6.93722
:	-6.93874
ams	-6.96286
er	-6.9643
▁prie	-6.96449
▁jau	-6.97068
▁Parlamento	-6.98193
▁J	-6.98414
▁Todėl	-6.99201
▁po	-6.99457
ni	-6.99759
mo	-7
ū	-7.00173
dži	-7.01042
▁Komisija	-7.02506
▁Ši	-7.0324
▁pra	-7.04148
▁turime	-7.04181
▁darbo	-7.04246
ia	-7.04289
am	-7.04344
ūr	-7.04574
ys	-7.06383
▁kurios	-7.07706
▁M	-7.07942
▁jos	-7.09238
▁narių	-7.09291
iau	-7.10327
tar	-7.10805
▁pasi	-7.10978
▁T	-7.1142
▁prieš	-7.11671
"	-7.1341
ame	-7.13742
inės	-7.13833
▁ž	-7.14466
▁teisės	-7.14736
▁valstybės	-7.14917
0	-7.14917
yb	-7.15076
▁valstybių	-7.15304
▁G	-7.15505
▁šį	-7.15909
▁re	-7.16518
uose	-7.17319
umo	-7.17452
ui	-7.17493
▁ko	-7.17579
ko	-7.17987
ijos	-7.19053
sta	-7.19066
▁metu	-7.20076
▁šiuo	-7.20355
?	-7.21086
▁Tačiau	-7.21086
tu	-7.21112
▁A	-7.21177
ur	-7.21824
▁mums	-7.22357
▁maž	-7.22725
on	-7.22864
▁Pone	-7.23126
ėje	-7.2342
▁ypač	-7.23641
mą	-7.24112
▁Pa	-7.24675
ak	-7.24744
▁daugiau	-7.24784
an	-7.25302
uot	-7.25533
▁nu	-7.26329
ty	-7.27137
ius	-7.27808
c	-7.28485
▁užtikrinti	-7.28685
pa	-7.28763
▁mano	-7.29525
tos	-7.30226
▁Vis	-7.30257
uoti	-7.30342
▁tačiau	-7.30894
inių	-7.30907
ėjo	-7.31309
ro	-7.3132
il	-7.31538
▁šios	-7.31951
P	-7.31971
tai	-7.32062
▁nėra	-7.32848
ci	-7.33766
▁ap	-7.3384
▁siekiant	-7.34642
▁š	-7.34809
ms	-7.35009
inti	-7.35416
ose	-7.35644
▁kuris	-7.35821
▁politikos	-7.36018
di	-7.36108
▁susijusi	-7.36313
▁Be	-7.36472
▁tikr	-7.36672
▁pri	-7.36995
▁todėl	-7.37791
▁R	-7.38136
do	-7.38198
▁nauj	-7.38867
h	-7.39006
ing	-7.3947
aus	-7.39642
▁de	-7.40064
la	-7.41691
▁svarbu	-7.42045
ųjų	-7.4217
tik	-7.42317
mos	-7.42475
et	-7.4342
▁šalių	-7.44255
▁aš	-7.44303
umą	-7.45198
▁Taip	-7.4555
jų	-7.45655
iškai	-7.45705
▁ji	-7.46928
▁teis	-7.47109
▁susi	-7.47295
dami	-7.47403
uoja	-7.476
ėme	-7.47889
▁teisių	-7.48046
▁sk	-7.48049
▁nepa	-7.48061
ba	-7.48237
▁proc	-7.48255
▁Gerb	-7.48476
aug	-7.48762
joje	-7.49282
▁pagal	-7.49608
▁manau	-7.50003
▁v	-7.502
lo	-7.50262
▁jo	-7.50531
ėja	-7.5056
ga	-7.50765
▁kit	-7.50775
;	-7.50825
▁tam	-7.5096
vo	-7.51125
sime	-7.51682
▁dabar	-7.5179
ch	-7.51832
ol	-7.52621
ne	-7.52667
gi	-7.52711
usi	-7.52807
mų	-7.53091
▁ga	-7.53193
ėmis	-7.537
▁iki	-7.53751
ina	-7.53776
▁jis	-7.5399
▁narės	-7.54262
ojo	-7.55215
▁ekonomikos	-7.55342
▁šio	-7.55711
dar	-7.56061
▁Ne	-7.56126
▁galima	-7.56502
at	-7.56514
▁visų	-7.56561
▁Parlamentas	-7.56771
gu	-7.57343
var	-7.57481
le	-7.57718
▁klausimas	-7.5788
tis	-7.58197
▁srityje	-7.58589
ėms	-7.58812
da	-7.58899
▁tiek	-7.59105
iam	-7.59264
▁bendradarbiavim	-7.59326
▁visiška	-7.59376
lai	-7.59494
▁L	-7.60291
▁tarp	-7.60828
▁kas	-7.61199
iems	-7.61466
▁Tarybos	-7.61569
▁šiandien	-7.61569
▁skirt	-7.6162
osios	-7.62112
▁kurį	-7.62191
▁žmogaus	-7.62336
▁metų	-7.62359
▁Mes	-7.62373
ly	-7.62652
▁reikal	-7.63495
▁E	-7.63609
▁gal	-7.63629
▁jie	-7.63695
jo	-7.63754
-	-7.63891
▁laisv	-7.63921
ij	-7.64113
tą	-7.64179
▁negali	-7.64491
▁D	-7.64618
▁politin	-7.64801
ama	-7.64976
▁vien	-7.64996
▁arba	-7.65192
▁pas	-7.65274
▁būtina	-7.65766
▁kurių	-7.65802
no	-7.66411
va	-7.66522
▁C	-7.6729
▁žmonių	-7.68212
S	-7.68219
▁man	-7.68265
▁Manau	-7.683
▁kar	-7.68449
▁pranešimą	-7.68691
▁lyg	-7.69207
▁I	-7.69301
▁ką	-7.69587
▁kur	-7.70277
ymo	-7.70379
veik	-7.70438
▁rinkos	-7.7044
▁V	-7.71039
▁l	-7.71681
▁Sąjunga	-7.71923
ter	-7.72062
▁priemonių	-7.72062
ig	-7.72201
E	-7.72433
▁kuriuos	-7.72472
kl	-7.72473
▁g	-7.726
inio	-7.73175
▁pasakyti	-7.73228
ist	-7.73681
▁atsi	-7.73883
▁jei	-7.74024
kt	-7.74038
▁raštu	-7.74465
cija	-7.75235
▁šis	-7.76193
▁N	-7.76411
ją	-7.76618
▁veiksmų	-7.76639
rin	-7.77626
em	-7.77667
▁rink	-7.78341
dama	-7.78364
▁plan	-7.78434
imu	-7.78746
▁prekybos	-7.7886
▁jog	-7.79683
▁toliau	-7.80241
galėtų	-7.80374
▁tuo	-7.80482
▁net	-7.80717
▁vertin	-7.80907
▁klausimu	-7.81465
▁bendr	-7.81685
oji	-7.81796
mis	-7.82525
▁klausimą	-7.83016
▁svarbi	-7.83584
▁proces	-7.8381
iausi	-7.83889
čių	-7.84046
▁atveju	-7.84405
ky	-7.84528
▁Norėčiau	-7.84881
▁pirma	-7.85051
▁energijos	-7.85359
yje	-7.85676
gal	-7.8568
kr	-7.86209
▁toki	-7.86585
T	-7.86593
je	-7.86805
▁žemės	-7.86885
▁pasiek	-7.86888
▁Poni	-7.87322
inink	-7.87806
avimo	-7.87863
▁pro	-7.87997
▁Lisabono	-7.89272
▁kartą	-7.89843
gr	-7.89951
1	-7.90367
ran	-7.90668
▁klimato	-7.91287
▁politika	-7.91287
ome	-7.91739
▁kartu	-7.91919
9	-7.92263
▁pagrind	-7.92379
kai	-7.92396
▁nors	-7.92815
▁kelia	-7.93068
▁apsaugos	-7.93212
ju	-7.93592
umas	-7.93764
▁pagrindini	-7.93802
▁patvirtin	-7.93812
avo	-7.93823
iant	-7.93917
L	-7.93921
damas	-7.93945
▁kuria	-7.94122
▁svarb	-7.94393
▁mėn	-7.94928
raš	-7.95281
▁kurią	-7.95333
str	-7.95453
2	-7.95568
▁frakcijos	-7.95599
5	-7.95604
▁padėkoti	-7.95975
▁vardu	-7.95994
čiau	-7.9628
mon	-7.96337
▁Šiuo	-7.96911
▁dėmesį	-7.97048
▁įgyvendin	-7.97172
▁Aš	-7.97412
▁jūsų	-7.97683
▁tvar	-7.97741
iame	-7.97799
A	-7.97868
▁dėlto	-7.98752
▁tinkam	-7.9921
esn	-7.99227
▁šia	-7.99367
imų	-7.99887
▁Kaip	-7.99975
▁Jei	-8.0018
▁Europoje	-8.00336
▁Pirmininke	-8.00339
▁padaryti	-8.00851
▁viena	-8.00861
▁veiksming	-8.00883
▁politiką	-8.01456
▁ponai	-8.01515
▁keli	-8.01971
▁ūkio	-8.02021
▁imtis	-8.02048
▁pranešime	-8.02051
▁laiko	-8.02559
▁sak	-8.02604
ut	-8.02646
ėjus	-8.02657
▁2	-8.02772
ad	-8.02805
▁valstyb	-8.03034
▁didel	-8.03118
tume	-8.03226
▁priimti	-8.03283
▁priemones	-8.03374
▁nei	-8.03908
▁koki	-8.04071
ūs	-8.0443
rod	-8.04671
▁pak	-8.0481
▁atžvilgiu	-8.04895
kalb	-8.05116
▁turėtum	-8.05178
▁laik	-8.0561
▁bū	-8.05734
▁piliečių	-8.05738
▁Dėl	-8.06069
imui	-8.06303
and	-8.06774
▁Ar	-8.06864
▁palaik	-8.07272
ime	-8.0758
▁biudžeto	-8.07814
vert	-8.07893
imai	-8.08032
trauk	-8.08614
▁ka	-8.0883
▁pateikti	-8.09032
ęs	-8.09401
▁darbą	-8.09683
▁nuomone	-8.09821
▁įgyvendinti	-8.09836
▁svarbus	-8.09992
bu	-8.10229
▁įvairi	-8.10287
mės	-8.10394
▁saug	-8.10434
▁Taryba	-8.10672
▁pirminink	-8.11066
ver	-8.11484
▁kitų	-8.11552
▁visiems	-8.11746
▁čia	-8.12099
▁Turi	-8.12563
▁labiau	-8.12583
bo	-8.12612
▁asmen	-8.12633
▁gr	-8.12842
▁atsižvelgia	-8.12886
▁Europa	-8.13166
▁vidaus	-8.13428
6	-8.14042
iniai	-8.14082
esni	-8.14114
▁mok	-8.14135
gy	-8.14357
▁pirm	-8.14532
▁jūs	-8.14579
▁nar	-8.14686
▁vieš	-8.14689
I	-8.15327
▁tikrai	-8.156
inimo	-8.15724
čia	-8.15756
▁aiškiai	-8.15796
▁vienas	-8.16403
▁neturi	-8.16789
inis	-8.17043
▁priemon	-8.17223
▁reikaling	-8.17258
▁ponios	-8.17297
N	-8.17345
▁visos	-8.1741
▁nesu	-8.17465
din	-8.1759
kos	-8.1784
mus	-8.17869
ln	-8.18291
nčios	-8.18569
▁aspekt	-8.18623
▁H	-8.18737
▁požiūriu	-8.19295
▁atskir	-8.19299
▁nor	-8.1934
▁saugumo	-8.1938
▁jeigu	-8.20054
▁tikrųjų	-8.2011
K	-8.20114
C	-8.20807
▁galimybę	-8.20863
▁du	-8.20871
čio	-8.20949
iams	-8.21108
▁pagrindin	-8.21325
U	-8.21331
▁galime	-8.21333
region	-8.21778
▁šiuos	-8.21841
▁stipr	-8.21961
▁institucijos	-8.22025
▁siekiama	-8.22202
▁val	-8.22207
V	-8.22208
▁pasiekti	-8.22291
▁ra	-8.22389
inį	-8.22937
nčia	-8.22973
▁klausimus	-8.22975
▁F	-8.23037
▁finansų	-8.23044
▁sukurti	-8.23089
▁šioje	-8.23199
▁nariai	-8.23593
▁praneš	-8.238
▁1	-8.24052
▁sistemos	-8.24123
▁kiek	-8.24137
DE	-8.24158
▁biudžet	-8.24169
▁dabartin	-8.24245
▁min	-8.24659
▁Š	-8.24765
kla	-8.24782
▁aplink	-8.24791
4	-8.25041
▁pabrėžti	-8.25245
tor	-8.25413
steb	-8.25423
▁vyriausyb	-8.25932
inę	-8.25984
▁bendra	-8.26206
▁nustatyti	-8.2621
▁koleg	-8.26248
▁maisto	-8.2627
▁par	-8.26311
▁praš	-8.26314
uk	-8.26843
audo	-8.26981
tį	-8.27181
▁transporto	-8.27291
▁O	-8.27389
▁priimt	-8.27627
avimas	-8.27628
▁ekonomin	-8.28121
▁padėti	-8.28168
▁Su	-8.28305
▁komiteto	-8.28456
▁socialini	-8.28499
amas	-8.2886
▁dideli	-8.28964
▁pateik	-8.28968
▁euro	-8.29145
▁Sąjungoje	-8.29197
▁moterų	-8.29197
▁EUR	-8.29197
▁sveikatos	-8.29197
▁jums	-8.29254
▁finansin	-8.2934
O	-8.29421
▁žinoma	-8.29533
▁Ji	-8.2958
▁visa	-8.29615
yr	-8.29685
▁visi	-8.29702
▁sav	-8.30035
ėtų	-8.30264
▁nuostat	-8.30743
▁reform	-8.30824
ap	-8.30906
▁kuriuo	-8.31003
▁reiškia	-8.31455
čiai	-8.31468
▁mokslini	-8.31538
▁tokia	-8.31604
7	-8.31781
man	-8.32042
▁geriau	-8.32194
/	-8.32216
▁energetikos	-8.32216
▁suteik	-8.32502
▁pasaulyje	-8.32985
▁įskaitant	-8.32985
▁sistema	-8.32985
jai	-8.33046
ciją	-8.33165
▁dr	-8.33224
▁krizės	-8.33302
▁Iš	-8.33306
ven	-8.3368
ac	-8.33739
▁plėtros	-8.3376
▁standart	-8.3376
▁šalies	-8.3376
▁pranešėja	-8.33823
▁šiam	-8.33835
▁var	-8.34226
▁At	-8.34449
der	-8.34452
▁įtrauk	-8.34535
▁valstybėms	-8.34612
▁Mano	-8.35
▁galimyb	-8.35071
▁vietos	-8.35329
▁nebuvo	-8.35329
▁priemonės	-8.35724
▁visuomen	-8.35792
▁šalys	-8.36017
▁efektyv	-8.36123
▁baig	-8.36125
▁taikom	-8.36137
ino	-8.36312
▁va	-8.36315
dėti	-8.36369
imus	-8.36767
▁narys	-8.36991
▁Ž	-8.37027
▁ilg	-8.37083
▁kriz	-8.37153
umu	-8.37243
du	-8.37268
iš	-8.37341
▁valstybėse	-8.37573
▁padar	-8.376
▁šalims	-8.37729
▁pasiūlymą	-8.37729
▁kiekvien	-8.37831
▁Tarybai	-8.38031
be	-8.38187
▁turės	-8.38544
▁jį	-8.38567
▁juos	-8.38627
▁nacionalin	-8.38787
▁didesn	-8.39011
imti	-8.39014
▁Parlamente	-8.39361
▁veik	-8.39387
▁aplinkos	-8.3941
B	-8.3976
tro	-8.39776
▁pači	-8.39839
▁susitik	-8.40151
▁griežt	-8.40188
▁šalyse	-8.40299
ge	-8.40578
R	-8.40751
▁Es	-8.40849
▁vadov	-8.4102
▁įsi	-8.41455
ku	-8.41463
▁Kita	-8.41621
▁metais	-8.41864
▁sp	-8.42092
▁produktų	-8.42174
acijos	-8.42662
▁kurio	-8.42693
▁žmonės	-8.42709
▁didžiausi	-8.42725
ntis	-8.42857
▁paslaugų	-8.43564
▁srityse	-8.43564
▁diskusijos	-8.43888
▁stat	-8.44013
užtikrin	-8.44071
ren	-8.44107
▁kurioje	-8.44234
▁padėtį	-8.44578
▁direktyvos	-8.44664
▁oro	-8.45044
▁problema	-8.45234
▁pasaulio	-8.45296
▁grup	-8.45844
ry	-8.45975
▁tarptautini	-8.46103
▁kuriai	-8.46187
kur	-8.46584
ąją	-8.46601
▁pus	-8.46606
▁bendrą	-8.46961
▁Dabar	-8.47058
▁vieną	-8.47317
▁lygio	-8.47562
kia	-8.47733
▁kuriam	-8.47893
▁veiklos	-8.47954
▁spręsti	-8.47967
dr	-8.47995
▁vėl	-8.48203
nčių	-8.48368
▁nori	-8.48507
D	-8.48714
▁įstatym	-8.48851
▁pagalbos	-8.48858
▁nare	-8.48907
▁noriu	-8.48911
▁pranešimas	-8.4903
▁kuriose	-8.49295
F	-8.49377
▁išteklių	-8.4976
▁pažeid	-8.49761
▁rimt	-8.49776
▁taisyklių	-8.49825
▁finans	-8.50076
▁visuomenės	-8.50141
val	-8.50341
▁tarptautin	-8.50419
▁būtin	-8.50535
dien	-8.50547
▁Balsav	-8.50639
▁lėšų	-8.50678
▁kelet	-8.50679
▁šalis	-8.5068
▁Bendrijos	-8.50726
siu	-8.50859
▁pranešimo	-8.50893
▁jiems	-8.50908
▁ją	-8.51074
▁skatinti	-8.51242
ieji	-8.51262
▁kitos	-8.5127
▁šie	-8.51283
▁teisę	-8.5137
8	-8.5151
▁2009	-8.51639
▁Taigi	-8.51937
ger	-8.52094
▁sudėting	-8.52538
inga	-8.52751
▁pastar	-8.52763
inius	-8.52945
cijos	-8.52956
▁valdy	-8.53047
▁tiesų	-8.53226
▁suteikti	-8.53363
▁aukšt	-8.53485
▁narėms	-8.53559
▁vykd	-8.53758
▁norime	-8.53851
▁mažiau	-8.54028
▁treči	-8.54358
▁200	-8.54396
▁gyventojų	-8.54434
▁jūros	-8.54434
▁tikslas	-8.54435
▁sumažinti	-8.54918
ntys	-8.55082
dėjo	-8.55268
jant	-8.55324
▁ateityje	-8.55396
▁institucijų	-8.55396
▁mokesčių	-8.55396
▁piliečiams	-8.55426
▁ta	-8.5588
▁sunku	-8.55957
pl	-8.56039
▁Tik	-8.56248
▁iniciatyv	-8.5633
▁sistemą	-8.56367
▁vaidmenį	-8.56367
3	-8.5639
▁metus	-8.5643
▁parod	-8.5644
▁kuo	-8.56493
▁teisin	-8.56649
▁narėse	-8.56927
▁atstov	-8.56987
▁teises	-8.57104
▁gamyb	-8.57348
▁pasiūlymu	-8.57348
▁Antra	-8.57349
▁tinkl	-8.57364
▁lygmeniu	-8.57402
M	-8.57428
▁gerai	-8.57434
▁pritariu	-8.57465
ang	-8.58181
▁skirti	-8.58335
▁priežiūros	-8.58337
▁tekst	-8.58339
bank	-8.58382
▁rodo	-8.58387
▁susitarimas	-8.58433
avimą	-8.5856
▁ju	-8.58722
ėjimo	-8.58782
▁mat	-8.58991
▁De	-8.58993
▁vartotojų	-8.59337
▁naudoti	-8.59337
▁būtent	-8.5934
▁aktų	-8.59351
▁geresn	-8.59364
▁bendro	-8.59374
amos	-8.59385
▁dvi	-8.59447
▁susitarimo	-8.59452
lio	-8.59647
yma	-8.59797
▁nary	-8.5983
gali	-8.59908
ybę	-8.6014
▁19	-8.60401
▁kita	-8.6081
▁ja	-8.60836
mui	-8.60935
▁produkt	-8.6099
itin	-8.61173
▁pasaulin	-8.61368
▁pirmiausia	-8.61403
▁papildom	-8.61424
▁10	-8.61485
G	-8.61527
▁rezoliucijos	-8.61772
ėte	-8.61951
▁privalo	-8.61995
▁daugeli	-8.62125
▁pateikt	-8.62219
čiu	-8.62358
konkreči	-8.62372
▁žmonėms	-8.62399
▁reikėtų	-8.62399
▁fakt	-8.62399
kime	-8.62429
▁nustat	-8.62474
▁nepri	-8.62667
▁tiesiog	-8.63193
▁3	-8.63304
▁visus	-8.63318
▁įtraukti	-8.63333
▁darbuotojų	-8.6344
▁kompromis	-8.6344
▁skub	-8.63453
▁kovos	-8.63459
dal	-8.63864
▁20	-8.64108
▁jaun	-8.64153
▁Man	-8.64203
▁esame	-8.64235
▁vyksta	-8.64387
▁padėtis	-8.64423
▁taikyti	-8.64528
nų	-8.64551
▁Kai	-8.64564
▁pasak	-8.6464
▁esu	-8.64701
antis	-8.64711
▁dalis	-8.64904
ybė	-8.64997
▁svarbiausia	-8.65012
▁bi	-8.65239
iška	-8.65289
▁problemų	-8.65557
▁plat	-8.65584
▁strategijos	-8.65585
▁paramos	-8.65588
▁tinkamai	-8.65593
▁kadangi	-8.65651
▁sek	-8.6582
uosius	-8.66143
▁puik	-8.66507
▁partner	-8.66565
inant	-8.66601
▁pareišk	-8.66603
▁kontrol	-8.66604
▁dažnai	-8.66632
▁poreiki	-8.66632
▁problemos	-8.66632
▁tikiuosi	-8.66632
▁paramą	-8.66636
▁klausimų	-8.66649
▁pritar	-8.66736
▁priėm	-8.66853
▁žino	-8.66932
kart	-8.67029
▁sprendimus	-8.672
inimas	-8.67325
jimo	-8.6738
▁antr	-8.67541
FR	-8.67682
▁sprendimo	-8.67719
▁organ	-8.67719
▁Galiausiai	-8.67719
▁tikslų	-8.67719
▁rinką	-8.67722
usios	-8.68434
▁aiški	-8.68733
▁poveikį	-8.68818
▁gauti	-8.68841
▁laiv	-8.68867
▁skatin	-8.68918
per	-8.68921
▁ten	-8.68948
".	-8.6925
ES	-8.69264
▁gyven	-8.69548
tinių	-8.6958
▁kuriomis	-8.69645
▁skiria	-8.69761
▁didžiul	-8.69936
▁sudaro	-8.69956
▁gero	-8.70175
▁kontrolės	-8.70273
▁galimybes	-8.70279
ši	-8.7028
▁dirbti	-8.70287
olog	-8.70291
dav	-8.70379
pri	-8.70581
▁siekia	-8.70839
spręs	-8.7103
▁kodėl	-8.71052
▁tyrimų	-8.71053
▁valdžios	-8.71054
▁reikalauja	-8.7106
▁dauguma	-8.71065
▁elg	-8.71123
tvirtin	-8.71147
▁valdymo	-8.71169
▁teik	-8.71284
ingai	-8.71289
▁sen	-8.71489
▁panaikin	-8.71511
▁piliečiai	-8.71688
▁sąlygas	-8.71828
▁privalome	-8.71862
▁įvyki	-8.72189
▁esmės	-8.72198
ąjį	-8.72208
▁galėtum	-8.72252
▁sveik	-8.72264
▁tap	-8.72553
▁nustatyt	-8.72585
▁klausimais	-8.72656
▁parlament	-8.72917
▁būsim	-8.73333
▁internet	-8.73344
▁siek	-8.73539
ved	-8.73588
▁pramonės	-8.73667
▁pabrėž	-8.73812
▁gera	-8.73874
▁ant	-8.73947
▁EP	-8.74131
▁pateikia	-8.7429
▁pramon	-8.74371
▁daryti	-8.74465
▁sprendimą	-8.74501
▁vidutin	-8.74508
▁naudojam	-8.74766
▁Lab	-8.74821
bal	-8.75058
▁sąlyg	-8.75162
▁naujas	-8.75272
ide	-8.75466
▁atitinkam	-8.75592
▁tvirt	-8.75618
▁dalyvav	-8.75677
▁ženkl	-8.75678
asis	-8.7568
▁vienod	-8.75727
▁problemas	-8.76048
sis	-8.76096
▁pirmininkauja	-8.76462
▁gerb	-8.76498
▁aptar	-8.76551
▁atlikti	-8.76619
▁skaidr	-8.7679
▁Teis	-8.76838
▁iššūki	-8.76868
▁bendradarbiau	-8.76868
▁dėmesio	-8.76868
▁pasiūlymas	-8.76868
▁pasinaudoti	-8.76869
▁ragina	-8.7687
20	-8.7694
avimu	-8.76967
ančių	-8.77108
▁krizę	-8.77234
▁aišku	-8.77561
spaud	-8.77673
nai	-8.78018
▁esam	-8.78025
▁įsipareigo	-8.78073
▁apsauga	-8.78073
jame	-8.7809
▁visą	-8.78118
▁ekonomini	-8.78495
▁darbu	-8.78504
▁kelią	-8.78782
▁buv	-8.79002
eiti	-8.79018
den	-8.79229
▁balsavau	-8.79292
▁centr	-8.79292
▁informacijos	-8.79292
▁įmonių	-8.79295
▁tem	-8.79336
damos	-8.79395
▁susitarimą	-8.79402
▁paskelb	-8.79411
▁nuolat	-8.79527
▁Į	-8.79638
▁sto	-8.7977
▁lig	-8.79844
▁parengti	-8.79976
▁Ir	-8.80011
▁svarbiausi	-8.80126
iniu	-8.80134
▁suteikia	-8.80251
kšt	-8.80285
▁Komisijai	-8.80474
▁trump	-8.80527
▁blog	-8.80527
▁Toki	-8.80584
▁visada	-8.80623
▁toks	-8.80663
▁vykdom	-8.80968
▁skirting	-8.81709
▁pradėti	-8.81771
▁šaltin	-8.81803
▁siekti	-8.81839
▁leidžia	-8.8196
lin	-8.82155
▁padėties	-8.82206
iausiai	-8.82579
▁Ma	-8.82587
▁tikslus	-8.82935
ems	-8.82999
▁sprendimas	-8.83043
▁greičiau	-8.83043
▁strategija	-8.83047
▁pagalbą	-8.83051
▁nebus	-8.83101
▁pakankamai	-8.83229
▁gyvenimo	-8.83231
▁gamin	-8.83371
▁finansinių	-8.83531
▁padidinti	-8.8355
▁išsi	-8.836
ines	-8.84006
▁derybų	-8.84325
▁smurt	-8.84325
▁vietų	-8.84325
▁šalyje	-8.84325
▁atsisak	-8.84332
bendruomen	-8.84338
▁tikslai	-8.84341
▁grėsm	-8.84348
▁remti	-8.8435
▁užsienio	-8.84441
▁vanden	-8.84795
▁teisinga	-8.84833
▁kol	-8.85177
▁pagrįst	-8.85233
▁naujų	-8.85313
▁6	-8.85594
▁susiduria	-8.85623
▁paprast	-8.85624
▁vystymosi	-8.85624
▁Mūsų	-8.85626
▁vaikų	-8.85627
▁dalį	-8.85635
kirst	-8.85876
▁pasiūlyt	-8.85887
▁pakeit	-8.85903
usių	-8.85998
▁skatina	-8.86033
▁atsižvelg	-8.86067
ner	-8.86407
vil	-8.86579
uoju	-8.86664
▁Vadov	-8.86939
▁pasiūlymų	-8.86939
▁sutarties	-8.86943
▁padės	-8.86964
▁2008	-8.86967
▁regiono	-8.86989
▁pranešimu	-8.87035
▁Pri	-8.87175
▁užsi	-8.87216
▁programa	-8.87258
▁Dar	-8.87521
▁sumažin	-8.87598
▁Per	-8.87671
lėt	-8.87821
▁sukurt	-8.88013
▁rekomendacij	-8.88272
▁fondo	-8.88273
▁sektoriaus	-8.88273
▁šalimis	-8.88273
▁žingsnis	-8.88273
▁metod	-8.88274
▁ketina	-8.88274
▁atvir	-8.8828
▁tvarkos	-8.88358
▁rezoliuciją	-8.88804
▁atlik	-8.88941
▁kaitos	-8.88994
▁teigiam	-8.89028
▁4	-8.89091
▁ekonomika	-8.89624
▁sektoriuje	-8.89624
▁išspręsti	-8.89627
▁išorės	-8.89636
▁vertus	-8.89649
▁pasiūlymo	-8.89658
esnis	-8.89686
▁patenkin	-8.89777
▁taikoma	-8.89791
▁laikas	-8.90127
▁struktūr	-8.90128
uojant	-8.9013
▁susijęs	-8.90154
▁pritaria	-8.90228
▁Parlamentui	-8.90367
▁kalbėti	-8.90504
▁nusi	-8.90679
▁nepriklausom	-8.9096
▁duomenų	-8.90994
▁veiklą	-8.90997
▁miest	-8.91009
▁rasti	-8.91026
▁apima	-8.9103
▁socialinė	-8.91069
▁veikti	-8.91236
▁nebūt	-8.91269
▁kalbė	-8.91441
▁san	-8.92039
▁An	-8.92087
▁priežasčių	-8.92383
▁panaš	-8.92393
▁galbūt	-8.92401
▁laikytis	-8.92449
▁būdu	-8.92479
nčio	-8.9249
▁dujų	-8.92511
omen	-8.92791
▁rinkoje	-8.92812
▁kalba	-8.93518
▁laisvės	-8.93585
▁teig	-8.9364
trūk	-8.9379
▁sprendimų	-8.93791
▁viso	-8.93797
▁gamintoj	-8.93797
▁Pirma	-8.93799
kryp	-8.93828
▁klaid	-8.93837
▁naują	-8.94012
ytų	-8.94351
▁klausimai	-8.94654
▁teising	-8.94697
▁diskusijas	-8.94862
▁branduolin	-8.9522
▁neturėtų	-8.9522
▁JAV	-8.9522
▁situacij	-8.9522
▁vadinam	-8.9522
▁Mums	-8.95224
▁įmonės	-8.95225
▁finansavimo	-8.95277
▁atkreip	-8.95285
▁klausimo	-8.95324
▁tapt	-8.95343
▁patikim	-8.95387
▁užduo	-8.95487
▁susitar	-8.95711
▁remiant	-8.96028
▁veikla	-8.96035
▁susiję	-8.96105
▁pritarti	-8.96124
▁atsaking	-8.96482
▁atsak	-8.96548
tyv	-8.96548
▁stabil	-8.9659
▁Bendr	-8.96594
▁abi	-8.9664
▁poveikio	-8.96669
▁nepaisant	-8.9667
▁jokių	-8.96675
▁programos	-8.96687
▁iniciatyva	-8.96724
▁tada	-8.96775
▁pakeisti	-8.96922
kite	-8.96938
▁dali	-8.96961
▁naudinga	-8.97101
IT	-8.97152
ano	-8.97282
▁ekonominės	-8.97326
▁siūl	-8.97336
▁susitarimu	-8.97511
dyti	-8.97567
▁mus	-8.97602
yra	-8.97661
tės	-8.97711
▁kyla	-8.9781
▁nauja	-8.979
▁suderint	-8.98007
▁Sąjungai	-8.98114
▁abejo	-8.98136
▁mechanizm	-8.98139
▁Vidur	-8.9814
▁turėjo	-8.9814
▁inter	-8.98147
▁jokio	-8.98162
▁kokybės	-8.98365
▁padėt	-8.98651
▁rinka	-8.98682
▁jame	-8.9886
▁5	-8.98923
▁direktyva	-8.99266
▁naudoja	-8.99293
daug	-8.99478
▁aišk	-8.99482
▁atkreipt	-8.99564
▁2010	-8.99632
▁Europą	-8.99632
▁strategiją	-8.99633
▁kovoti	-8.99635
▁tolesn	-8.99669
▁galutin	-8.99672
▁matyti	-8.99808
žr	-9.00359
esnės	-9.00633
▁nurodyt	-9.00658
kelia	-9.00793
leisti	-9.00801
▁did	-9.00953
▁numatyt	-9.00966
▁laiky	-9.0114
▁Tikiuosi	-9.01147
▁speciali	-9.01147
▁truk	-9.01148
▁pasiraš	-9.01394
▁balsavim	-9.01422
▁neiš	-9.01567
▁šiol	-9.0158
▁veikia	-9.01653
▁pripažin	-9.01968
▁Tur	-9.02182
▁vertinu	-9.02255
▁pateikta	-9.02579
▁jai	-9.02627
▁000	-9.02686
▁Tarptautin	-9.02686
▁rezultatų	-9.02686
▁apsaugą	-9.02686
▁Kalba	-9.0269
▁judėjim	-9.0269
▁Nors	-9.02694
▁nariams	-9.02761
▁8	-9.02763
▁link	-9.02814
▁saugos	-9.03041
udito	-9.03105
▁tarptautinės	-9.03245
▁frakcija	-9.03284
▁tokios	-9.0334
▁pareig	-9.03448
▁Bet	-9.03576
▁politinių	-9.03606
▁nebe	-9.03913
kultūr	-9.03959
▁teikti	-9.03964
▁anksčiau	-9.04248
▁pastangas	-9.04248
▁sustiprint	-9.04248
▁teritorij	-9.04248
▁atrodo	-9.04253
▁priima	-9.04291
angl	-9.04321
▁Reik	-9.04348
▁sunki	-9.04538
▁tą	-9.04727
▁teisėt	-9.05083
▁sąlygos	-9.05265
▁aktyv	-9.0546
▁pakeitimu	-9.05491
▁didesni	-9.05732
▁informacija	-9.05835
▁mlrd	-9.05835
▁pažangos	-9.05835
▁pinigų	-9.05835
▁naudos	-9.05836
▁protokolą	-9.05846
lieka	-9.05891
▁nuomonės	-9.06064
▁poziciją	-9.06092
▁kaita	-9.06419
▁atsižvelgti	-9.06661
▁kitą	-9.06784
▁atlikt	-9.07045
▁La	-9.07048
▁sutart	-9.07162
Ž	-9.07171
H	-9.07172
gen	-9.07357
▁jam	-9.07418
▁demokratijos	-9.07448
▁humanitarin	-9.07448
▁informaciją	-9.07448
▁prieglobsčio	-9.07448
▁derybos	-9.07449
▁erdv	-9.07449
▁kreip	-9.07449
▁žmones	-9.07449
▁taisykles	-9.07572
▁pagerinti	-9.07731
▁Jūs	-9.07732
▁apsaugoti	-9.07761
▁žinome	-9.07901
▁galimybių	-9.07925
▁atsakym	-9.08022
▁dalyvauti	-9.08061
čius	-9.08082
▁vykdyti	-9.08321
▁teigiama	-9.08367
▁įvertin	-9.08456
▁daugyb	-9.08535
▁pareng	-9.08563
und	-9.08691
▁konkurencing	-9.08719
▁laikotarpiu	-9.08756
ystės	-9.089
▁perspektyv	-9.09088
▁sanglaudos	-9.09088
▁profesin	-9.09088
▁Nepais	-9.09092
č	-9.0913
leidžia	-9.09231
▁juo	-9.09362
sinaudo	-9.09408
▁dirba	-9.09537
▁taut	-9.09734
▁valstybes	-9.09806
▁Viena	-9.09933
▁numat	-9.10079
rodyti	-9.10732
▁derybas	-9.10754
▁diskusijų	-9.10754
▁pavojing	-9.10754
▁pažangą	-9.10754
▁Šiandien	-9.10754
▁bendros	-9.10755
▁balsuoti	-9.10761
▁taikymo	-9.10763
▁regionų	-9.10819
▁nuomonę	-9.10932
▁dalies	-9.1104
▁įgyvendinimo	-9.1127
▁daugiausia	-9.1138
nčią	-9.11509
▁paaiškin	-9.11717
▁padidin	-9.11773
▁minėt	-9.11827
▁tokių	-9.12064
▁balsavimo	-9.12279
▁paminėt	-9.12449
▁vienintel	-9.12449
▁Žinom	-9.12469
▁plači	-9.12486
▁nurod	-9.12585
▁tenka	-9.12646
▁akivaizd	-9.12881
▁Europai	-9.13003
▁patvirtinti	-9.13012
▁kelių	-9.13271
▁7	-9.13305
ntiems	-9.13494
▁leisti	-9.14102
▁kaimo	-9.14171
▁prezident	-9.14173
▁gyvyb	-9.14174
▁pažeidžiam	-9.14174
▁reikalavimus	-9.14175
▁reikš	-9.14177
▁partnerystės	-9.14195
▁suderin	-9.14424
▁jus	-9.1446
▁asmenų	-9.14578
▁galimybės	-9.14909
▁kokia	-9.15516
Jungtin	-9.15613
Europos	-9.15806
▁tiksli	-9.15845
nelyg	-9.15861
▁didži	-9.15926
▁Komisiją	-9.15928
▁komitete	-9.15928
▁konferencij	-9.15928
▁konflikt	-9.15928
▁principu	-9.15928
▁nieko	-9.15928
▁išmetam	-9.15929
▁paklaus	-9.15934
▁mastu	-9.15958
▁veiksmingai	-9.15964
▁kalbėjo	-9.15999
▁priemonėmis	-9.16072
▁taigi	-9.16118
▁nacionalinių	-9.16425
▁laukia	-9.16442
▁direktyvą	-9.16468
kirt	-9.16581
▁aptarti	-9.16939
▁apsi	-9.1694
▁svarst	-9.16997
▁pasiūl	-9.17315
▁dalyvau	-9.17448
žvelg	-9.17669
▁besivystanči	-9.17714
▁dalykas	-9.17714
▁pavyzdžiu	-9.17714
▁požiūrį	-9.17714
▁reglamento	-9.17714
▁reguliavimo	-9.17714
▁užimtumo	-9.17714
▁kredit	-9.17714
▁atvyk	-9.17714
▁pasveikinti	-9.17714
▁partijos	-9.17714
▁tariant	-9.17721
▁kultūros	-9.1773
▁uost	-9.17796
▁50	-9.17814
▁visuotin	-9.17839
▁parama	-9.17863
ėjimas	-9.1787
▁pajėg	-9.17901
▁sutartį	-9.18008
▁laiką	-9.18672
▁pačios	-9.18806
pone	-9.18807
▁parengt	-9.19103
▁leidim	-9.19196
Darbo	-9.19347
▁norint	-9.19417
▁pozicija	-9.19507
▁pasisak	-9.19522
▁komitetas	-9.19532
▁nusikaltim	-9.19532
▁supranta	-9.19532
▁verslo	-9.19532
▁visapusišk	-9.19532
▁užbaig	-9.19532
▁įmonėms	-9.19533
▁neigiam	-9.19536
ūtent	-9.19536
▁vieta	-9.19538
▁taryb	-9.19547
▁Piet	-9.19566
▁Nori	-9.19596
▁galiausiai	-9.19606
ytoj	-9.19819
▁sutartis	-9.1986
amb	-9.19969
▁daugelio	-9.20166
▁atitinka	-9.20408
▁br	-9.20549
▁nam	-9.20627
▁atliekų	-9.21384
▁demokratų	-9.21384
▁investicijų	-9.21384
▁problemą	-9.21384
▁Pritariu	-9.21384
▁įmanoma	-9.21384
▁paskatin	-9.21384
▁nuosekl	-9.21385
▁Rusijos	-9.21386
▁vakar	-9.2139
▁garant	-9.21397
▁svarbūs	-9.21503
▁taisyklės	-9.21575
▁režim	-9.21618
▁kainų	-9.21713
▁Jungtini	-9.21716
▁JT	-9.21752
▁laikotarpi	-9.2176
▁leid	-9.21765
▁tampa	-9.21838
▁kova	-9.22181
▁pripažinti	-9.22255
▁vyks	-9.22999
▁įsitikin	-9.23241
▁investuot	-9.2327
▁atvejais	-9.2327
▁grindžiam	-9.2327
▁neabejotina	-9.2327
▁pilietin	-9.2327
▁prekyba	-9.2327
▁savaitę	-9.2327
▁technin	-9.2327
▁sritis	-9.23271
▁žvejybos	-9.23271
▁atstovauja	-9.23274
▁ženg	-9.23276
▁prisidėt	-9.23285
▁augimo	-9.23288
▁regione	-9.23318
nčius	-9.23383
▁Amerikos	-9.23467
▁geriausia	-9.23489
▁esant	-9.23507
Euro	-9.23641
EB	-9.23701
▁joms	-9.23723
▁suteikta	-9.23756
pirmininkaujanči	-9.2394
ąsias	-9.24001
▁paremti	-9.24069
▁gir	-9.24102
▁svarstym	-9.24213
▁gyvena	-9.24261
▁pareigas	-9.24261
bū	-9.24352
▁panaikinti	-9.24412
▁numatyta	-9.24442
▁diskrimin	-9.25193
▁2011	-9.25193
▁Afrikos	-9.25193
▁eksport	-9.25193
▁import	-9.25193
▁milijon	-9.25193
▁atnaujin	-9.25194
▁lankst	-9.25194
▁nepakanka	-9.25194
▁neteisėt	-9.25194
▁suinteresuot	-9.25194
▁supaprastin	-9.25194
▁žvej	-9.25194
▁sektorių	-9.25194
▁sustabdy	-9.25194
▁skaičius	-9.25194
▁ginkl	-9.25194
▁sąraš	-9.25195
▁veiksmai	-9.25195
▁bausm	-9.25201
▁programą	-9.25207
▁išsami	-9.25213
▁dviej	-9.25262
▁sudary	-9.25272
▁suvok	-9.25281
▁tęs	-9.25297
NL	-9.25299
ski	-9.2547
▁užkirst	-9.25515
▁sudaryti	-9.25707
▁priklauso	-9.25719
▁galėsi	-9.25749
▁gerbiam	-9.25807
▁tapo	-9.25927
▁12	-9.26155
▁ties	-9.26182
▁skyr	-9.26574
▁reali	-9.26647
▁strategin	-9.26717
▁negalima	-9.26888
▁kiekviena	-9.26905
▁palank	-9.27015
▁moksl	-9.27055
▁dalykų	-9.27154
▁infrastruktūr	-9.27154
▁institucija	-9.27154
▁organizacijos	-9.27154
▁sąžining	-9.27154
▁vaidmuo	-9.27154
▁mirties	-9.27154
▁veiksmus	-9.27156
▁padeda	-9.27156
▁Prieš	-9.27157
▁šeši	-9.27157
▁išsaugo	-9.27158
▁interesų	-9.27159
▁vadovauja	-9.27159
▁sugebė	-9.27161
▁Už	-9.27166
▁įveikti	-9.27172
▁kitaip	-9.27181
▁sukūr	-9.27183
RO	-9.27328
▁sąlygomis	-9.27373
elyje	-9.27573
▁artim	-9.27607
▁Gali	-9.27622
▁pagrįsta	-9.27748
▁išvengti	-9.27856
▁eina	-9.27868
▁lauk	-9.28585
▁priklausom	-9.2861
▁sėkm	-9.28652
▁aukščiausio	-9.28666
▁nenu	-9.28937
▁remia	-9.29127
▁dešimt	-9.2915
▁pavaduotoj	-9.29154
▁solidarumo	-9.29154
▁posėdži	-9.29154
▁plėtra	-9.29155
▁paskutin	-9.29155
▁aktus	-9.29155
▁Italijo	-9.29156
▁virš	-9.29157
▁kolegos	-9.29239
▁2020"	-9.29253
▁rinkimų	-9.29314
Europa	-9.29357
▁Daug	-9.29458
▁Mar	-9.29801
teikia	-9.29803
▁tvirtai	-9.30418
turi	-9.30485
▁minim	-9.3063
▁Valstyb	-9.31195
▁apibrėžt	-9.31195
▁demokratini	-9.31195
▁naudojimo	-9.31195
▁projektu	-9.31195
▁projektą	-9.31195
▁sprendimai	-9.31195
▁ypating	-9.31195
▁jūrų	-9.31195
▁zonos	-9.31196
žemio	-9.31197
▁nenori	-9.312
▁susirūpinimą	-9.31281
▁turt	-9.31283
▁sau	-9.31288
▁palankiai	-9.31387
▁Nuo	-9.31388
▁nustatyta	-9.31415
▁puikiai	-9.31462
▁grupės	-9.31979
▁rengia	-9.32226
▁nuolatin	-9.32889
▁kitais	-9.32983
▁teisini	-9.33239
▁Atsižvelgia	-9.33278
▁atvejų	-9.33278
▁baudžiam	-9.33278
▁gyvūn	-9.33278
▁pastangų	-9.33278
▁išlaidų	-9.33278
▁panaudot	-9.33279
▁požiūrio	-9.3328
▁keturi	-9.3328
acional	-9.33281
▁neseniai	-9.33283
▁Pirmininko	-9.33298
telk	-9.33342
▁14	-9.33359
▁siekdami	-9.33383
▁30	-9.33442
▁reng	-9.33554
▁kalbant	-9.33596
▁skiriama	-9.33634
▁kultūrin	-9.33647
▁patikr	-9.33687
▁žem	-9.33768
ausio	-9.33916
▁siekdama	-9.34165
▁Al	-9.34187
▁leis	-9.34519
▁privalom	-9.34714
▁Vengrijos	-9.35406
▁element	-9.35406
▁keleivi	-9.35406
▁priežastis	-9.35406
▁reikalavimų	-9.35406
▁santykių	-9.35406
▁kilmės	-9.35406
▁Turkijos	-9.35407
▁netinkam	-9.35407
▁požiūris	-9.35408
▁rytoj	-9.35415
▁siūlom	-9.35419
pač	-9.35473
▁esanči	-9.35544
▁skaidrumo	-9.35547
▁padarinių	-9.35587
▁atlieka	-9.35598
▁sakant	-9.358
▁automobilių	-9.35853
mokė	-9.35862
▁dalimi	-9.35869
▁tie	-9.3591
▁gerinti	-9.35943
▁krit	-9.35944
▁struktūrini	-9.36771
▁kokyb	-9.37032
▁teikiama	-9.37277
▁papild	-9.37459
▁Diskusij	-9.3758
▁Sąjungą	-9.3758
▁džiaugiuosi	-9.3758
▁geležinkeli	-9.3758
▁principai	-9.3758
▁projekto	-9.3758
▁vartojimo	-9.3758
▁interesus	-9.37582
▁penki	-9.37582
▁etap	-9.37586
▁tokį	-9.37611
▁Ties	-9.3763
▁darbas	-9.37637
▁kovoj	-9.37705
▁tikslu	-9.37776
▁stiprinti	-9.3779
▁kalbama	-9.37976
▁viening	-9.38332
▁persvarst	-9.3854
▁sal	-9.3862
▁siūloma	-9.38773
▁išmok	-9.39401
▁sėkming	-9.39579
▁Pirmiausia	-9.39802
▁Prancūzijos	-9.39802
▁dėmesys	-9.39802
▁fondų	-9.39802
▁institucijoms	-9.39802
▁išreikšt	-9.39802
▁prioritetu	-9.39802
▁reglamentu	-9.39802
▁sistemų	-9.39802
▁žuvininkystės	-9.39802
▁rūš	-9.39802
▁forma	-9.39804
▁sienų	-9.39804
▁skaičių	-9.39804
▁mokykl	-9.39804
▁Šiaurė	-9.39805
▁sureng	-9.39806
▁įsitikinęs	-9.39845
▁uždavin	-9.39874
▁27	-9.39901
▁užtikrinta	-9.39975
▁atsakomybės	-9.40092
▁praeit	-9.40445
labiausiai	-9.405
▁sėkmingai	-9.40589
▁padaryta	-9.40676
▁tęsti	-9.40706
▁įvertinti	-9.40735
▁rezoliucij	-9.40755
▁užtikrinant	-9.41077
▁klaus	-9.41449
▁vėliau	-9.4148
▁svarstom	-9.4186
▁lygmen	-9.41986
▁sudaryt	-9.42003
▁liberal	-9.42074
▁demokratija	-9.42075
▁išteklius	-9.42075
▁oficial	-9.42075
▁pavyko	-9.42075
▁pobūdžio	-9.42075
▁straipsnio	-9.42075
▁teisėkūros	-9.42075
▁įsipareigojimų	-9.42075
▁palygin	-9.42075
▁pašalin	-9.42076
▁tarpvalstybin	-9.42077
žiūri	-9.42083
▁Jungtinės	-9.42083
▁2007	-9.42134
▁11	-9.422
▁atsakyti	-9.42259
▁teisingumo	-9.42295
odžio	-9.4232
▁suprasti	-9.42366
▁greitai	-9.4252
▁ryt	-9.42624
▁nario	-9.42631
▁Gr	-9.4288
▁patirt	-9.43138
▁vyriausybės	-9.43144
▁kurioms	-9.43657
▁nuomon	-9.43803
ajam	-9.44175
▁balsu	-9.44207
▁bendrosio	-9.44275
▁indėl	-9.44401
▁integruot	-9.44401
▁kriterijus	-9.44401
▁principų	-9.44401
▁moteris	-9.44401
▁anglies	-9.44401
▁vietoj	-9.44402
▁paragin	-9.44402
▁sprendžiant	-9.44403
▁nerimą	-9.44425
▁prisiim	-9.44436
▁pristat	-9.44472
▁pieno	-9.44507
▁25	-9.4455
▁pradėt	-9.4469
▁Balt	-9.45187
▁atstovai	-9.45261
▁nacionaliniu	-9.45397
▁didelį	-9.45487
▁kaimyn	-9.46258
▁rezoliucija	-9.46276
ung	-9.46468
adangi	-9.46629
▁Barroso	-9.46781
▁Graikijos	-9.46781
▁atsinaujinanči	-9.46781
▁elektronin	-9.46781
▁moterys	-9.46781
▁reaguoti	-9.46781
▁švietimo	-9.46781
▁manymu	-9.46782
▁tarpusav	-9.46782
▁stebėti	-9.46782
▁iešk	-9.46782
▁Vakar	-9.46782
▁priverst	-9.46784
▁operacij	-9.46784
▁sutinka	-9.46793
▁tikslo	-9.4681
▁dieną	-9.46827
▁susitarimų	-9.46841
▁sveikata	-9.46844
▁patiria	-9.46916
▁kalbos	-9.46921
▁CO	-9.46935
▁Kart	-9.46961
▁nepritar	-9.46979
lyčių	-9.47073
▁užtikrina	-9.47077
aisiais	-9.47079
sienio	-9.47086
▁kalbame	-9.47303
program	-9.48595
▁tokiu	-9.49
▁2020	-9.49137
▁MVĮ	-9.4922
▁Pagrindin	-9.4922
▁darbuotojai	-9.4922
▁darbuotojams	-9.4922
▁dialogą	-9.4922
▁kandidat	-9.4922
▁konsul	-9.4922
▁modeli	-9.4922
▁santykius	-9.4922
▁žiniasklaid	-9.4922
▁Šengen	-9.49221
▁registr	-9.49221
▁vizų	-9.49221
▁dvišal	-9.49222
▁omenyje	-9.49222
▁pareigūn	-9.49223
▁romų	-9.49231
▁privat	-9.49253
▁sport	-9.49261
▁niekada	-9.49273
▁regionuose	-9.49279
▁pakeitimų	-9.49287
▁socialine	-9.49294
▁2006	-9.49297
▁Taut	-9.49459
▁pozicijos	-9.49629
protokol	-9.51705
krikščionių	-9.5172
▁Džiaugiuosi	-9.5172
▁Kopenhag	-9.5172
▁birželio	-9.5172
▁pavyzdys	-9.5172
▁principo	-9.5172
▁vartotojams	-9.5172
▁prisitaik	-9.51721
▁ryžting	-9.51721
▁sritį	-9.51721
▁rug	-9.51721
▁liep	-9.51724
▁privači	-9.51725
▁būdas	-9.51738
▁tris	-9.51778
▁viską	-9.51807
▁atsakomybę	-9.51963
▁saugumą	-9.51965
▁minėjo	-9.5197
▁žinote	-9.52157
▁pagalba	-9.52234
▁rengiant	-9.52697
▁Vien	-9.53079
▁didėja	-9.53141
▁nauding	-9.53521
▁atsakomyb	-9.53703
▁nieka	-9.54241
▁tūkstanči	-9.54284
▁ilgalaiki	-9.54285
▁kapital	-9.54285
▁konkurencijos	-9.54285
▁lengva	-9.54285
▁rezultatai	-9.54285
▁tyrimus	-9.54285
▁atsarg	-9.54285
▁įsteig	-9.54285
▁akivaizdžiai	-9.54285
▁socialinę	-9.54285
▁ribų	-9.54286
▁Buvo	-9.54292
▁gauna	-9.54299
▁vid	-9.54315
▁pabrėžiama	-9.54316
▁apribojim	-9.54317
▁koks	-9.54412
▁15	-9.54419
▁prieinam	-9.5443
▁Kit	-9.54515
▁Tuo	-9.54523
▁gyvenimą	-9.54587
vesti	-9.54613
▁pastat	-9.54734
▁įgyvendinant	-9.5479
▁susitikimo	-9.54806
▁nusprend	-9.54856
J	-9.55039
▁sociali	-9.5627
balsavimas	-9.56706
skelb	-9.56744
▁administracin	-9.56916
▁amžiaus	-9.56916
▁apskritai	-9.56916
▁biurokrat	-9.56916
▁delegacij	-9.56916
▁informuoti	-9.56916
▁integracijos	-9.56916
▁lėšas	-9.56916
▁patobulin	-9.56916
▁priežasties	-9.56916
▁sektorius	-9.56916
▁išlaidas	-9.56916
▁sričių	-9.56916
▁Airijos	-9.56917
▁rūm	-9.56917
▁pasiūlymai	-9.56918
▁Rusija	-9.56918
▁sutinku	-9.56918
▁bendrovių	-9.56919
▁priminti	-9.56919
▁partija	-9.56927
▁Didži	-9.56929
▁atitikt	-9.5693
▁Negalim	-9.56972
▁Nauj	-9.56982
▁13	-9.56991
▁Rytų	-9.57039
▁susitikime	-9.5704
▁mokymo	-9.57109
▁pakeitimą	-9.57178
▁netgi	-9.57299
▁teisėms	-9.57337
▁strateg	-9.57427
▁diskusija	-9.57582
deg	-9.57753
▁frakcij	-9.57777
▁derin	-9.58084
▁teikiam	-9.58124
▁finansinė	-9.58385
▁priešing	-9.58578
▁šimt	-9.59465
▁atliekam	-9.59586
▁gerin	-9.59587
Plojimai	-9.59619
▁aljans	-9.59619
▁gynyb	-9.59619
▁nukreipt	-9.59619
▁pavojus	-9.59619
▁savanorišk	-9.59619
▁technologijų	-9.59619
▁žmonėmis	-9.59619
▁religij	-9.59619
▁aplinkosaugos	-9.5962
▁dvej	-9.5962
▁autori	-9.59621
▁Kosov	-9.59624
▁priekį	-9.59642
▁imigracijos	-9.59647
▁pakeitimai	-9.59685
▁kasdien	-9.59775
▁40	-9.59786
PS	-9.59857
▁kokybę	-9.59931
▁priėmimo	-9.60039
▁papraš	-9.62285
Pirminink	-9.62338
▁2013	-9.62397
▁analiz	-9.62397
▁ankstesn	-9.62397
▁balsavo	-9.62397
▁ekonomiką	-9.62397
▁energetin	-9.62397
▁išlaikyti	-9.62397
▁konkret	-9.62397
▁kvalifikacij	-9.62397
▁lėšos	-9.62397
▁plėtoti	-9.62397
▁pripažįsta	-9.62397
▁projektas	-9.62397
▁raginu	-9.62397
▁rizikos	-9.62397
▁sektoriui	-9.62397
▁taršos	-9.62397
▁Baigdama	-9.62397
▁dažniau	-9.62397
▁ateities	-9.62397
▁įprast	-9.62398
▁malonu	-9.62398
▁peln	-9.62432
▁tikrov	-9.62461
▁abiej	-9.62465
▁konkrečių	-9.62469
▁paprašyti	-9.62513
▁mažinimo	-9.6272
▁gerą	-9.62971
▁atid	-9.62977
▁atsakinga	-9.63245
▁Biudžet	-9.65254
▁Taryboje	-9.65254
▁agentūros	-9.65254
▁darbotvarkės	-9.65254
▁konstruktyv	-9.65254
▁paslaugas	-9.65254
▁pranešėjui	-9.65254
▁procedūros	-9.65254
▁rezultatus	-9.65254
▁globali	-9.65254
▁globalizacijos	-9.65254
▁aplinkybėmis	-9.65254
▁PPE	-9.65254
▁dėking	-9.65254
▁atidžiai	-9.65254
▁žodžiu	-9.65256
▁reikšming	-9.65257
▁veiksni	-9.65266
▁lemia	-9.65267
▁Pranešime	-9.65291
▁tuomet	-9.65304
▁kažk	-9.65308
▁susitarimai	-9.65318
▁Vert	-9.65325
▁remdam	-9.65392
▁kovojant	-9.65427
▁stabilumo	-9.65431
▁europin	-9.65461
▁kitiems	-9.65672
▁metin	-9.66865
▁apimt	-9.67025
▁turinči	-9.67085
▁direktyv	-9.67198
▁greit	-9.67672
▁Praneš	-9.68157
▁Atsižvelgdam	-9.68195
▁dalykai	-9.68195
▁dialogo	-9.68195
▁srities	-9.68195
▁duomenis	-9.68195
▁nukentė	-9.68196
▁žodžiai	-9.68196
▁sienos	-9.68197
▁sulauk	-9.68198
▁bendrovės	-9.68199
▁abejonių	-9.68199
▁sutartimi	-9.68205
▁glaudžia	-9.68206
▁tobul	-9.68207
▁aktai	-9.68217
▁vertę	-9.68218
▁sukuria	-9.68246
▁finansavimą	-9.68254
osioms	-9.683
▁didinti	-9.68325
▁socialist	-9.68493
EL	-9.68834
▁sunk	-9.70053
ieno	-9.70133
▁apribo	-9.71187
▁dokumentu	-9.71225
▁Dėkoju	-9.71225
▁Turkija	-9.71225
▁Vokietijos	-9.71225
▁darbotvarkę	-9.71225
▁pasirengę	-9.71225
▁perkėlim	-9.71225
▁rezultatas	-9.71225
▁vietov	-9.71225
▁neturėtum	-9.71225
▁Kinija	-9.71226
▁tikslą	-9.71227
▁pavadin	-9.71227
▁abejonės	-9.71228
▁rėm	-9.71229
▁šalį	-9.71232
▁įtakos	-9.71233
▁padidėj	-9.71243
▁tikimės	-9.71246
▁įvykdymo	-9.71249
▁taikant	-9.71269
bėg	-9.7132
▁žodžio	-9.71337
▁masto	-9.71349
▁saugumas	-9.71411
▁susirūpin	-9.71413
▁Koki	-9.71418
▁sutelkt	-9.71461
▁perdavim	-9.7155
▁prisijung	-9.71813
iesiems	-9.7188
▁aukščiausi	-9.71974
▁parlamentin	-9.72356
▁pradėj	-9.72529
nčioms	-9.72562
▁įvykdyt	-9.72564
prieš	-9.72612
žiūrėti	-9.72953
▁band	-9.73112
▁pajėgum	-9.74021
▁pilieči	-9.74248
▁Britanij	-9.7435
▁Karalyst	-9.7435
▁Kodėl	-9.7435
▁Sutarties	-9.7435
▁panaudojim	-9.7435
▁paprasčiausia	-9.7435
▁pažanga	-9.7435
▁pensijų	-9.7435
▁plenarin	-9.7435
▁plėtrą	-9.7435
▁santykiai	-9.7435
▁liaudi	-9.74351
▁norėtume	-9.74351
▁grąžin	-9.74351
▁keičia	-9.74351
▁reiting	-9.74351
▁mėnesius	-9.74352
▁idėja	-9.74352
▁pradžioje	-9.74352
▁pradeda	-9.74352
▁vyko	-9.74353
▁vyrų	-9.74354
▁ketinim	-9.74355
▁mažumų	-9.74356
▁pajamų	-9.74357
▁jung	-9.74359
▁biologin	-9.7436
▁iškelt	-9.74363
▁sukelt	-9.74383
▁uždaryt	-9.74412
▁Žemė	-9.74442
-20	-9.7448
▁ginč	-9.74514
▁balsuoj	-9.74542
▁bandym	-9.74899
tumėte	-9.75195
▁muit	-9.75708
▁pirmoj	-9.75801
▁leist	-9.75807
▁taisykl	-9.76763
ėję	-9.76908
▁mažesn	-9.77381
▁Vyriausyb	-9.77576
▁Būtina	-9.77576
▁konvencijos	-9.77576
▁naudojimą	-9.77576
▁nedelsiant	-9.77576
▁nepamirš	-9.77576
▁organizacijų	-9.77576
▁pinigai	-9.77576
▁prekių	-9.77576
▁prekybą	-9.77576
▁rodikli	-9.77576
▁sukčiavim	-9.77576
▁sąjungos	-9.77576
▁Balkan	-9.77576
▁ataskaita	-9.77576
▁duomenys	-9.77576
▁įsipareigojimus	-9.77576
▁prisideda	-9.77576
▁skurdu	-9.77576
▁sandori	-9.77576
▁Trečia	-9.77577
▁ateitį	-9.77577
▁religin	-9.77578
▁reikės	-9.77582
▁reikalauti	-9.77589
▁vaikai	-9.77593
▁augimą	-9.776
▁tėv	-9.77633
▁pareiškimai	-9.77672
▁18	-9.77673
▁įtikin	-9.77874
▁eil	-9.78054
▁tiesiogin	-9.78353
▁regionu	-9.78379
▁transport	-9.7952
eisingumo	-9.79636
▁didina	-9.80041
▁prast	-9.80485
▁Parlamentą	-9.80909
▁dėkoju	-9.80909
▁prioritetin	-9.80909
savarankišk	-9.80909
▁komunikat	-9.80909
▁kryptimi	-9.80909
▁ombudsmen	-9.80909
▁spekuli	-9.80909
▁zonoje	-9.80909
▁gebėjim	-9.8091
▁pastabas	-9.8091
▁policijos	-9.8091
▁skurdo	-9.8091
▁ketvirt	-9.8091
▁išplėst	-9.80911
▁Juod	-9.80912
▁eurų	-9.80913
▁pažymėti	-9.80913
▁Kinijos	-9.80914
▁istorin	-9.80916
▁vaistų	-9.80918
▁paketo	-9.80925
▁civili	-9.80925
▁keitim	-9.8095
▁vyn	-9.80986
▁stebi	-9.82495
▁remiam	-9.82799
▁grįž	-9.828
▁nustatom	-9.82881
sprendžia	-9.83274
▁mokėjim	-9.83536
konomikos	-9.84341
▁2012	-9.84358
▁Siekiant	-9.84358
▁alternatyv	-9.84358
▁ambicing	-9.84358
▁argument	-9.84358
▁dokumentų	-9.84358
▁komitetu	-9.84358
▁konkurencija	-9.84358
▁medžiagų	-9.84358
▁naftos	-9.84358
▁nepaprastai	-9.84358
▁pasirengusi	-9.84358
▁principas	-9.84358
▁procedūrą	-9.84358
▁student	-9.84358
▁imigrant	-9.84358
▁Egipt	-9.84358
▁ateinanči	-9.84358
▁įsigalioj	-9.84358
▁plėtoj	-9.84358
▁nelegali	-9.84359
▁sraut	-9.84359
▁ribot	-9.84361
▁Pasauli	-9.84361
apkri	-9.84369
▁pateisin	-9.84373
▁žodin	-9.84377
▁pradžių	-9.84379
▁vasar	-9.84383
▁pažad	-9.84395
▁bankų	-9.84452
tvarkyti	-9.8447
▁apsaugo	-9.84573
▁tun	-9.85271
atsak	-9.86033
▁galioja	-9.86783
labai	-9.86819
▁dirbanči	-9.8695
▁Ispanijos	-9.87929
▁Prancūzija	-9.87929
▁Respublikos	-9.87929
▁demokratiją	-9.87929
▁geografi	-9.87929
▁gyventojams	-9.87929
▁kampanij	-9.87929
▁neįmanoma	-9.87929
▁pabaigos	-9.87929
▁priežiūrą	-9.87929
▁smulk	-9.87929
▁straipsnis	-9.87929
▁vartotojai	-9.87929
▁žingsnį	-9.87929
▁įvyko	-9.87929
▁koordinuo	-9.87929
▁viduje	-9.87929
▁įsipareigojimą	-9.8793
▁išgyven	-9.8793
▁socialinį	-9.8793
▁keisti	-9.87932
▁gerovės	-9.87934
▁dalyje	-9.87934
▁laikomasi	-9.87948
▁baz	-9.87982
▁dienos	-9.8801
partneryst	-9.8811
▁pirmininkavim	-9.88979
▁žym	-9.89109
▁diena	-9.89281
▁veikianči	-9.89782
▁nagrinė	-9.90399
kivaizdu	-9.90686
▁išnagrinė	-9.90753
mogaus	-9.91561
albūt	-9.91589
precedent	-9.91633
▁agentūra	-9.91633
▁agentūrų	-9.91633
▁geguž	-9.91633
▁institucin	-9.91633
▁intensyv	-9.91633
▁nusikalstam	-9.91633
▁pavyzdžių	-9.91633
▁poreikį	-9.91633
▁posėdyje	-9.91633
▁vaidmens	-9.91633
▁Direktyv	-9.91633
▁komercin	-9.91633
▁palengvin	-9.91633
▁prieštarauja	-9.91633
▁naujovių	-9.91633
▁objekt	-9.91633
▁gyventojai	-9.91633
▁pagamint	-9.91633
▁Svarbu	-9.91633
▁išnaudoj	-9.91633
▁sukėl	-9.91634
▁Ministr	-9.91635
▁išskirtin	-9.91635
▁šeimos	-9.91635
▁Privalom	-9.91635
▁sumažėj	-9.91636
▁programoje	-9.91637
▁trūksta	-9.91637
▁šaliai	-9.91637
▁valstybnar	-9.91638
▁paskol	-9.91639
▁raginim	-9.91639
▁dešimtmeči	-9.91643
▁nežino	-9.91648
▁žinia	-9.91653
▁mėg	-9.91705
▁kitoki	-9.91712
▁piet	-9.91721
▁akto	-9.91729
▁nelygyb	-9.91777
▁nagrinėjam	-9.91921
▁likusi	-9.91971
▁deram	-9.92144
▁veng	-9.9235
▁neteising	-9.931
▁galiojanči	-9.93149
▁Parlamentu	-9.93367
ėjimu	-9.93425
▁sprendimu	-9.93445
▁rūpi	-9.94291
▁pagerin	-9.94831
▁pakeis	-9.94901
▁pakankam	-9.94907
migracijos	-9.9544
▁Ashton	-9.95479
▁Izraelio	-9.95479
▁Tarybą	-9.95479
▁ataskaitą	-9.95479
▁aviacijos	-9.95479
▁fondas	-9.95479
▁kompetencija	-9.95479
▁lengviau	-9.95479
▁moderni	-9.95479
▁netrukus	-9.95479
▁pamiršti	-9.95479
▁pusiausvyrą	-9.95479
▁reglamentą	-9.95479
▁stengtis	-9.95479
▁Airijoje	-9.95479
▁Rūmai	-9.95479
▁labui	-9.95479
▁pokyčių	-9.95479
suprantu	-9.95479
▁nuosavybės	-9.95479
▁lyderi	-9.9548
mobili	-9.9548
▁prašymą	-9.9548
▁pridėtin	-9.9548
▁pasiūlyme	-9.95481
▁pavojų	-9.95482
▁nutraukti	-9.95482
▁garantijų	-9.95483
▁vaikus	-9.95483
▁mėnesį	-9.95484
▁patirtimi	-9.95484
▁maistu	-9.95488
▁pakartoti	-9.95489
▁neatsi	-9.95493
▁trys	-9.95497
▁zona	-9.95499
▁iškil	-9.95585
leiskite	-9.96699
▁gyvenanči	-9.97701
▁pažym	-9.99475
▁Afganistan	-9.99479
▁Rumunijos	-9.99479
▁Valstijų	-9.99479
▁ataskaitos	-9.99479
▁diskutuojam	-9.99479
▁draudimo	-9.99479
▁fondai	-9.99479
▁jėgos	-9.99479
▁kliūčių	-9.99479
▁kontekst	-9.99479
▁pabėgėlių	-9.99479
▁pacientų	-9.99479
▁ryšių	-9.99479
▁tarnyba	-9.99479
▁teršalų	-9.99479
▁asociacij	-9.99479
▁ministrų	-9.99479
▁pokyčius	-9.99479
▁įgaliotin	-9.99479
▁Švedijos	-9.99479
▁sparčiai	-9.99479
▁narkotik	-9.99479
▁pasirinkti	-9.99479
▁knyg	-9.99479
▁susisiekim	-9.99479
▁valiutos	-9.9948
▁paveld	-9.9948
▁pažangi	-9.9948
▁tyrimą	-9.9948
▁sieja	-9.9948
▁įtaką	-9.99481
▁minėjau	-9.99482
▁Leiski	-9.99483
▁paketą	-9.99486
▁skirtumus	-9.99487
▁turizmo	-9.99489
▁kenčia	-9.99489
▁Pirmininkas	-9.99501
▁įrang	-9.99542
▁būdai	-9.99641
▁ponia	-9.99647
▁trečiosiom	-9.9983
▁padaryt	-10.0154
▁kelianči	-10.0326
▁Lenkijos	-10.0365
▁Portugalijos	-10.0365
▁Reglament	-10.0365
▁diskutuoti	-10.0365
▁inovacijų	-10.0365
▁ištekliai	-10.0365
▁neturting	-10.0365
▁organizacija	-10.0365
▁pagarbos	-10.0365
▁prioritetai	-10.0365
▁specifin	-10.0365
▁sąskaita	-10.0365
▁terorizmu	-10.0365
▁užmokesčio	-10.0365
▁skaičiaus	-10.0365
▁pasmerk	-10.0365
▁tikslams	-10.0365
▁tyrimai	-10.0365
▁krovini	-10.0365
▁sujung	-10.0365
▁vizij	-10.0365
▁trijų	-10.0365
▁kūrimo	-10.0365
▁patirties	-10.0366
▁naikin	-10.0366
▁savaime	-10.0366
vengiama	-10.0367
▁Daugeli	-10.0368
▁žalos	-10.0368
▁gimt	-10.0369
▁linij	-10.0392
▁procent	-10.0398
▁sprendžiam	-10.0403
▁glaud	-10.0798
▁Ačiū	-10.0799
▁Bulgarijos	-10.0799
▁ankstyv	-10.0799
▁apibūdin	-10.0799
▁diskusiją	-10.0799
▁kompetencijo	-10.0799
▁kriterijų	-10.0799
▁moterims	-10.0799
▁nusipeln	-10.0799
▁pabaigoje	-10.0799
▁pasitikėjimą	-10.0799
▁problemomis	-10.0799
▁tebėra	-10.0799
▁teritorin	-10.0799
▁vairuotoj	-10.0799
▁šiltnami	-10.0799
▁kortel	-10.0799
▁pranašum	-10.0799
▁vykusi	-10.0799
▁jėga	-10.0799
▁nelaimių	-10.0799
▁įdieg	-10.0799
▁blok	-10.0799
▁ekologin	-10.0799
▁kūryb	-10.08
▁perkelt	-10.08
▁nemaža	-10.0801
▁pasekmė	-10.0801
▁žemyn	-10.0801
▁etnin	-10.0801
▁nariui	-10.0802
▁kaimynystė	-10.0897
▁bandom	-10.0902
aktyviai	-10.0905
▁pirmąj	-10.0964
▁paaiškinim	-10.0993
▁Baltarusijos	-10.1254
▁Briuselyje	-10.1254
▁Finans	-10.1254
▁Graikija	-10.1254
▁NATO	-10.1254
▁Rumunija	-10.1254
▁Serbijos	-10.1254
▁Vengrija	-10.1254
▁administravim	-10.1254
▁dokumentą	-10.1254
▁duomenimis	-10.1254
▁egzistuoja	-10.1254
▁fondu	-10.1254
▁funkcij	-10.1254
▁informavim	-10.1254
▁kliūtis	-10.1254
▁koordinavimo	-10.1254
▁opozicijo	-10.1254
▁projektų	-10.1254
▁sesijoje	-10.1254
▁skaitmenin	-10.1254
▁smarkiai	-10.1254
▁vertybes	-10.1254
▁šešėl	-10.1254
▁sužinoti	-10.1254
▁Gruzijo	-10.1254
▁Sutinku	-10.1254
▁vykti	-10.1254
▁vyriausi	-10.1254
▁išvadas	-10.1254
▁atsiranda	-10.1254
▁nauda	-10.1254
▁išsakyt	-10.1254
▁esate	-10.1254
▁norėjau	-10.1254
▁atkurti	-10.1254
▁sutarčių	-10.1254
▁saugumui	-10.1254
▁mėnesių	-10.1254
▁balan	-10.1255
▁išrinkt	-10.1255
▁pirmyn	-10.1255
▁komand	-10.1255
▁vaizd	-10.1255
▁vartoja	-10.1256
▁pamaty	-10.1256
▁valdžia	-10.1258
▁išlikt	-10.1259
▁Kong	-10.1259
▁Vida	-10.1265
▁ėmė	-10.1307
skyrimo	-10.1431
▁efekt	-10.173
▁Aplinkos	-10.173
▁Kiekvien	-10.173
▁Konstitucij	-10.173
▁Ukraina	-10.173
▁Valstijos	-10.173
▁deficit	-10.173
▁deklaracij	-10.173
▁dioksid	-10.173
▁dokumentas	-10.173
▁kolektyvin	-10.173
▁konkurenciją	-10.173
▁kriterijai	-10.173
▁pagarba	-10.173
▁pinigus	-10.173
▁prevencijos	-10.173
▁pridurti	-10.173
▁principą	-10.173
▁reikalavimai	-10.173
▁subsidiarum	-10.173
▁subsidij	-10.173
▁technologin	-10.173
▁verslinink	-10.173
▁įgaliojimus	-10.173
▁asignavim	-10.173
▁imtasi	-10.173
išskyrus	-10.173
▁kodeks	-10.173
▁nepalanki	-10.173
▁vaikams	-10.173
▁diskriminacija	-10.173
▁civilinės	-10.173
▁išvados	-10.173
▁nuostol	-10.173
▁ribos	-10.173
▁vyksianči	-10.173
▁nuveikti	-10.1731
▁sukelianči	-10.1733
▁baud	-10.1735
▁kritikuo	-10.1736
▁Gazo	-10.1737
▁norėdam	-10.174
protest	-10.1749
▁Balsavim	-10.1751
protinga	-10.1791
rūpinti	-10.1829
▁persvarstym	-10.201
diskusijos	-10.2038
▁vykdyt	-10.2134
▁operator	-10.223
▁Europol	-10.223
▁Portugalija	-10.223
▁ačiū	-10.223
▁dokumentai	-10.223
▁ignoruo	-10.223
▁paspartint	-10.223
▁potencialą	-10.223
▁prioritetų	-10.223
▁ryšio	-10.223
▁simboli	-10.223
▁uždrausti	-10.223
▁vystymąsi	-10.223
▁ūkininkams	-10.223
▁ūkininkų	-10.223
▁AKR	-10.223
▁subjekt	-10.223
▁vietą	-10.223
▁BVP	-10.223
▁Tunis	-10.223
▁fizin	-10.223
▁Ragin	-10.223
▁Rūmų	-10.223
▁nvien	-10.223
▁neatsižvelgia	-10.223
▁pirkim	-10.223
▁iškėl	-10.223
▁partijų	-10.223
▁makro	-10.2231
▁pasakyta	-10.2231
▁finansuojam	-10.2233
▁gavėj	-10.2238
▁verčia	-10.2242
nagrinėti	-10.2483
▁tikrinim	-10.2563
praneš	-10.2563
(	-10.2565
Komisijos	-10.2565
▁paremt	-10.2566
formuoja	-10.2653
▁supras	-10.2689
tabilumo	-10.2753
▁penkeri	-10.2756
demokratinės	-10.2756
energija	-10.2756
▁Kroatijos	-10.2756
▁Lenkija	-10.2756
▁Pakistano	-10.2756
▁Pavyzdžiu	-10.2756
▁Serbija	-10.2756
▁absurd	-10.2756
▁deryboms	-10.2756
▁diplomatin	-10.2756
▁fondą	-10.2756
▁investicijas	-10.2756
▁koncepcij	-10.2756
▁konstitucin	-10.2756
▁konvencija	-10.2756
▁laikotarpį	-10.2756
▁naudą	-10.2756
▁nepagrįst	-10.2756
▁pavyks	-10.2756
▁pavyzdį	-10.2756
▁potvyni	-10.2756
▁ratifikavim	-10.2756
▁seksualin	-10.2756
▁solidarumą	-10.2756
▁stengia	-10.2756
▁straipsnį	-10.2756
▁subalansuot	-10.2756
▁vertybių	-10.2756
▁visuomet	-10.2756
▁vystymuisi	-10.2756
▁žurnalist	-10.2756
▁Tūkstan	-10.2756
▁eksploat	-10.2756
▁laipsnišk	-10.2756
▁naštą	-10.2756
▁susipažint	-10.2756
▁išlaidos	-10.2756
▁skrydži	-10.2756
▁pasikeit	-10.2756
▁praktiškai	-10.2756
▁ūkis	-10.2756
▁trūkumu	-10.2757
▁gresia	-10.2757
▁balsų	-10.2757
▁nuosav	-10.2757
▁nesilaik	-10.2757
▁prireik	-10.2757
▁išmetim	-10.276
▁pardavim	-10.2766
▁kylanči	-10.288
▁vykstanči	-10.2888
▁prižiūrė	-10.2999
prievarta	-10.3026
ekonomin	-10.3119
▁pozicij	-10.3135
▁Japonijos	-10.3312
▁Nyderland	-10.3312
▁Socialist	-10.3312
▁Transport	-10.3312
▁apgailestauju	-10.3312
▁apibrėžim	-10.3312
▁dvidešimt	-10.3312
▁europiečių	-10.3312
▁intelektin	-10.3312
▁išgirsti	-10.3312
▁milžinišk	-10.3312
▁nesąžining	-10.3312
▁padėčiai	-10.3312
▁pageidauja	-10.3312
▁pareikalau	-10.3312
▁paslaugomis	-10.3312
▁prioritetas	-10.3312
▁projektai	-10.3312
▁rekomenduoj	-10.3312
▁riziką	-10.3312
▁septyni	-10.3312
▁stebėtoj	-10.3312
▁televizij	-10.3312
▁terorizmo	-10.3312
▁universitet	-10.3312
▁ministras	-10.3312
▁primygtin	-10.3312
▁radikal	-10.3312
▁ALDE	-10.3312
▁Kipro	-10.3312
▁asmuo	-10.3312
▁ekologišk	-10.3312
▁pastabą	-10.3312
▁verslu	-10.3312
▁pasirengim	-10.3312
▁žodį	-10.3312
▁mokesčio	-10.3312
▁rizika	-10.3312
▁interesams	-10.3312
▁prisimin	-10.3312
▁taupym	-10.3312
▁dvigub	-10.3312
▁vyresn	-10.3312
▁tarif	-10.3312
▁Kanad	-10.3312
▁kalėjim	-10.3314
tmeči	-10.3317
▁teikėj	-10.3324
▁likim	-10.3349
▁įvest	-10.3471
▁įvykd	-10.3636
▁pereit	-10.3691
▁išvengt	-10.3692
dirbti	-10.3708
▁paverst	-10.379
ginčyti	-10.3869
alankiai	-10.3887
asdešimt	-10.39
kompetenting	-10.39
▁Afrikoje	-10.39
▁Pilieči	-10.39
▁Raštišk	-10.39
▁Ukrainos	-10.39
▁anksto	-10.39
▁ataskaitoje	-10.39
▁dialoga	-10.39
▁išsiaiškinti	-10.39
▁klausimams	-10.39
▁milijard	-10.39
▁naudojimu	-10.39
▁neatitinka	-10.39
▁paslaugos	-10.39
▁referent	-10.39
▁straipsnyje	-10.39
▁sąjunga	-10.39
▁trūkumų	-10.39
▁vertybėmis	-10.39
▁įgaliojimai	-10.39
▁Libijos	-10.39
▁nelaiming	-10.39
▁skurdą	-10.39
▁įvyks	-10.39
▁žlug	-10.39
▁pasaulis	-10.39
▁našta	-10.39
skaičiav	-10.39
▁Austrij	-10.39
▁praktika	-10.39
▁skirtumai	-10.39
▁ūkiu	-10.39
▁motinyst	-10.3901
▁islam	-10.3901
▁Bosnij	-10.3901
▁laimė	-10.3903
tvirt	-10.399
sunki	-10.4342
vystymo	-10.4525
▁atgaivin	-10.4525
▁formul	-10.4525
▁Vokietijoje	-10.4525
▁atspindė	-10.4525
▁fiskalin	-10.4525
▁generalini	-10.4525
▁idėją	-10.4525
▁modelį	-10.4525
▁mokėtojų	-10.4525
▁nepavyko	-10.4525
▁nereiškia	-10.4525
▁pagarbą	-10.4525
▁pasekmių	-10.4525
▁pastangos	-10.4525
▁pesticidų	-10.4525
▁priklausanči	-10.4525
▁projektams	-10.4525
▁reglamentas	-10.4525
▁reguliuoti	-10.4525
▁sistemoje	-10.4525
▁ūkininkai	-10.4525
▁žaliavų	-10.4525
▁žmogišk	-10.4525
▁neatidėliotin	-10.4525
▁įstaigų	-10.4525
▁savaites	-10.4525
▁priklausy	-10.4525
▁apgalvot	-10.4525
▁Airija	-10.4525
▁Belgijo	-10.4525
▁atsitikim	-10.453
▁laimėjim	-10.4535
tenkina	-10.4546
▁didėjanči	-10.4842
▁užtikrinanči	-10.4958
valstyb	-10.5
Į	-10.5
kontrol	-10.5
▁automobili	-10.505
▁Bulgarija	-10.5192
▁Komitet	-10.5192
▁Moldovo	-10.5192
▁Strasbūre	-10.5192
▁Svarbiausia	-10.5192
▁Valstijomis	-10.5192
▁administracij	-10.5192
▁aprūpinim	-10.5192
▁atvejis	-10.5192
▁daugiašal	-10.5192
▁diskusijoje	-10.5192
▁dokumente	-10.5192
▁dokumento	-10.5192
▁energiją	-10.5192
▁išankstini	-10.5192
▁mokėtojai	-10.5192
▁nepavyks	-10.5192
▁persekiojim	-10.5192
▁politikoje	-10.5192
▁profesional	-10.5192
▁referendumo	-10.5192
▁susidomėjim	-10.5192
▁London	-10.5192
▁aštuoni	-10.5192
▁demografin	-10.5192
▁istorijos	-10.5192
▁praktikos	-10.5192
▁ruoš	-10.5192
▁atšauk	-10.5192
▁jūroje	-10.5192
▁sudedam	-10.5192
▁įrengini	-10.5192
▁žaidim	-10.5193
▁produkci	-10.5194
▁statistini	-10.5194
atsirado	-10.5202
sakysiu	-10.5237
grįžti	-10.5506
▁Amerik	-10.583
▁planavim	-10.5885
Š	-10.9222
