<pad>	0
</s>	0
<unk>	0
.	-2.94932
▁	-3.6467
ا	-4.03107
▁في	-4.05781
▁من	-4.1562
ه	-4.33094
ى	-4.35536
وا	-4.44157
ي	-4.44347
▁ال	-4.48457
ّ	-4.51636
▁و	-4.5576
ة	-4.6702
ك	-4.73894
▁الرب	-4.73948
ت	-4.74315
ن	-4.83324
ون	-4.8766
▁ان	-4.89228
▁الذي	-5.09402
▁لا	-5.12301
▁كل	-5.15224
هم	-5.17377
ها	-5.26968
م	-5.30594
الى	-5.30958
ين	-5.44125
▁عل	-5.50859
▁ي	-5.54907
▁ا	-5.55019
نا	-5.58209
▁ت	-5.6141
▁اسرائيل	-5.63504
▁قد	-5.64645
▁ع	-5.65613
لى	-5.6564
▁ب	-5.7074
▁ف	-5.73154
كم	-5.75276
▁الله	-5.77012
▁ولا	-5.79735
ر	-5.81861
▁لان	-5.8545
▁ل	-5.86463
▁لي	-5.88302
▁هذا	-5.89854
ب	-5.90891
▁الارض	-5.95967
▁.	-5.96047
▁وال	-5.96391
▁التي	-5.96941
▁يا	-5.98039
▁م	-5.99425
▁لم	-6.00572
▁له	-6.01771
▁هو	-6.04134
▁ما	-6.08914
▁فقال	-6.08915
ني	-6.11228
▁وي	-6.12232
ما	-6.12684
ان	-6.12942
▁ايضا	-6.15873
▁كان	-6.17568
▁عن	-6.20688
▁بيت	-6.23227
▁الملك	-6.23438
▁بن	-6.2395
▁وا	-6.24514
▁مع	-6.31051
▁جميع	-6.31432
ل	-6.32656
س	-6.32942
▁انا	-6.33161
▁وقال	-6.34668
▁ملك	-6.34804
▁لانه	-6.35263
▁لل	-6.35436
ع	-6.3683
ق	-6.37798
▁قال	-6.4023
ف	-6.43571
▁وكان	-6.44773
▁ثم	-6.46433
▁بني	-6.46678
د	-6.47651
▁وت	-6.4825
ح	-6.48313
▁بل	-6.48751
▁اليوم	-6.55329
▁هكذا	-6.57495
▁الم	-6.57523
▁عند	-6.59446
ض	-6.60092
▁داود	-6.60247
▁لهم	-6.60581
▁ن	-6.60778
▁او	-6.61387
▁الشعب	-6.61552
▁ومن	-6.61739
▁به	-6.62554
▁بال	-6.62728
▁وكل	-6.62756
▁كما	-6.63275
ص	-6.63423
▁يسوع	-6.64142
▁فا	-6.65383
▁هذه	-6.65886
▁قائلا	-6.67862
▁ك	-6.68022
▁ارض	-6.69727
▁حت	-6.71077
▁واحد	-6.72134
▁امام	-6.7259
اء	-6.72941
▁انت	-6.72978
ته	-6.73221
▁بعد	-6.73443
▁ذلك	-6.74032
خ	-6.7537
ات	-6.75791
▁رب	-6.76228
▁وفي	-6.77189
▁يهوذا	-6.77447
ز	-6.79701
▁واما	-6.80986
▁يكون	-6.81422
▁ولم	-6.81472
▁ابن	-6.81716
ش	-6.82201
▁موسى	-6.82205
▁اورشليم	-6.82345
▁هناك	-6.83664
غ	-6.83794
▁ولكن	-6.83968
وه	-6.83972
ج	-6.85968
ط	-6.87791
▁بنو	-6.88112
▁يقول	-6.89042
▁حسب	-6.89798
▁ليس	-6.9232
و	-6.94381
▁لكي	-6.95838
▁لكم	-6.96534
▁انه	-6.96965
▁هي	-6.97699
تم	-6.985
ار	-6.98501
▁لك	-6.98837
▁وان	-7.00322
▁مصر	-7.01157
ث	-7.01262
▁عليه	-7.04291
▁بين	-7.06185
▁وع	-7.07384
▁ايام	-7.09648
▁أ	-7.11328
▁اذا	-7.11627
▁المدينة	-7.15344
▁فت	-7.16159
ال	-7.16582
ية	-7.17174
تك	-7.17938
▁اذ	-7.1803
▁اله	-7.18253
▁اجل	-7.19315
أ	-7.21119
▁المسيح	-7.21513
ئ	-7.21945
▁احد	-7.21996
▁يوم	-7.2209
▁فان	-7.22373
▁للرب	-7.22543
▁الا	-7.22636
هوذا	-7.23146
▁رجل	-7.23971
ور	-7.24159
▁يد	-7.27477
▁مثل	-7.28964
▁مئة	-7.2964
▁فلا	-7.29942
▁اما	-7.3187
▁اني	-7.32811
▁السماء	-7.33562
▁وم	-7.34315
▁ولما	-7.35489
تي	-7.36557
▁وب	-7.36824
▁بها	-7.37675
يا	-7.40607
▁الامم	-7.41817
يم	-7.42295
▁الانسان	-7.42343
▁انتم	-7.44785
▁الآن	-7.44824
▁وهو	-7.45038
▁سنة	-7.4578
▁تكون	-7.46428
▁اليه	-7.48215
ول	-7.4942
▁معه	-7.49504
▁واذا	-7.49665
▁شاول	-7.49901
ير	-7.50618
▁الكاهن	-7.51058
▁تحت	-7.5147
▁البيت	-7.51837
▁حين	-7.52876
تهم	-7.5288
▁فلما	-7.54674
▁عشر	-7.5528
▁لت	-7.55806
▁لذلك	-7.57346
▁قائلين	-7.57865
▁كلام	-7.58049
▁لاجل	-7.58097
اب	-7.58321
▁جدا	-7.58799
▁انسان	-7.59043
▁هل	-7.6007
▁الهك	-7.60233
▁عمل	-7.60248
هما	-7.60599
▁يعقوب	-7.60707
▁الرجل	-7.60793
▁ابي	-7.61767
▁ايه	-7.61966
دي	-7.6197
▁السيد	-7.62772
▁جاء	-7.63135
▁نحو	-7.63452
ذ	-7.63998
▁هم	-7.64553
▁فلم	-7.65181
▁الي	-7.65182
▁هؤلاء	-7.65465
بر	-7.66446
▁امر	-7.66702
ود	-7.67139
▁لانهم	-7.67442
▁كنت	-7.67442
▁ذهب	-7.67488
▁شيء	-7.67601
▁ام	-7.68014
▁البحر	-7.68542
▁الشر	-7.68597
▁وسط	-7.68795
▁الابد	-7.69096
اف	-7.6929
▁قبل	-7.70695
▁صار	-7.71101
ام	-7.72003
مر	-7.72252
وها	-7.73187
▁غير	-7.73754
▁فيه	-7.73834
▁الف	-7.74599
▁كال	-7.74686
▁لها	-7.74746
▁الكهنة	-7.7502
▁الناس	-7.7535
▁فيها	-7.75614
▁لماذا	-7.76766
بي	-7.76989
▁بابل	-7.77229
▁رأ	-7.77564
▁ولد	-7.77959
▁ول	-7.7834
▁عليك	-7.78351
ري	-7.78592
▁الجنود	-7.79084
▁عليهم	-7.79282
▁فاجاب	-7.79458
▁امرأة	-7.80017
▁اي	-7.80442
▁لنا	-7.81065
وم	-7.81131
▁يت	-7.81502
▁نفسه	-7.82197
▁الايام	-7.82628
▁كثيرة	-7.83376
▁يكن	-7.8387
▁كانت	-7.83881
▁طريق	-7.83977
صر	-7.84049
▁جبل	-7.8413
▁ويكون	-7.84164
تها	-7.84528
يق	-7.84657
▁كانوا	-7.84845
وب	-7.85091
قر	-7.85717
▁والم	-7.85731
▁سليمان	-7.85921
▁وانا	-7.85978
▁وجميع	-7.86294
▁باب	-7.86762
جر	-7.8683
را	-7.87122
▁علي	-7.87472
▁قدام	-7.87827
▁رئيس	-7.8889
▁لكن	-7.89285
▁السموات	-7.89331
▁وجه	-7.89655
▁تلك	-7.89741
▁خ	-7.90665
▁صوت	-7.90738
▁نحن	-7.91192
رف	-7.91912
يين	-7.92092
يت	-7.9215
▁وقد	-7.92268
اع	-7.92275
عد	-7.92568
▁عيني	-7.93312
فر	-7.93468
▁ماذا	-7.94184
▁رجال	-7.94311
وس	-7.94389
اد	-7.94576
با	-7.9476
▁رؤساء	-7.94876
▁عشرة	-7.95059
▁واخذ	-7.95063
وق	-7.9566
قت	-7.95814
▁ابنه	-7.96177
▁الحق	-7.96593
▁عنه	-7.96965
▁حينئذ	-7.96977
▁يده	-7.97066
ئلا	-7.97257
جل	-7.98158
▁آخر	-7.98176
▁الروح	-7.98824
▁ارسل	-7.99211
▁تكلم	-7.99425
▁نفسي	-7.99541
▁لانك	-7.99651
▁عليها	-7.99661
▁فرعون	-7.99956
▁مدينة	-8.01961
▁سمع	-8.01982
▁اقول	-8.02256
▁مر	-8.02508
اح	-8.02563
▁اليك	-8.02925
▁اسمه	-8.02956
▁فوق	-8.03064
▁الكلام	-8.03198
▁البرية	-8.03433
يد	-8.03623
قي	-8.04075
▁روح	-8.04619
▁فعل	-8.0463
▁وراء	-8.05008
▁اليهود	-8.05432
▁هرون	-8.0565
▁مدن	-8.05664
▁وليس	-8.06108
▁السنة	-8.06249
▁مت	-8.06267
▁وعل	-8.06423
يل	-8.06451
▁راس	-8.06614
حر	-8.07367
▁هانذا	-8.07617
▁وانت	-8.07773
▁حيث	-8.07983
ظ	-8.08303
▁يوسف	-8.08377
رت	-8.08572
▁لن	-8.08739
رج	-8.09695
▁سي	-8.0996
▁ابراهيم	-8.10258
▁الفا	-8.10356
▁لما	-8.10456
▁المذبح	-8.10473
▁الطريق	-8.11212
▁عظيم	-8.11385
دم	-8.1212
▁واحدة	-8.1212
قل	-8.12261
▁الع	-8.12331
▁سبط	-8.13203
حا	-8.13277
▁اكثر	-8.13341
صب	-8.13982
▁والذي	-8.14814
▁اسم	-8.14906
مة	-8.15069
▁سيدي	-8.15578
▁وعمل	-8.15762
▁فكان	-8.1583
▁الشعوب	-8.16216
▁يدي	-8.16301
▁شعب	-8.16525
▁يشوع	-8.16816
بت	-8.16901
▁معك	-8.17691
▁بر	-8.17881
▁با	-8.18291
▁وك	-8.18504
▁شر	-8.18553
خر	-8.19054
عبد	-8.19095
▁الشهر	-8.19242
▁اذهب	-8.19327
▁وبنو	-8.20216
▁مكتوب	-8.20241
▁القدس	-8.2059
لا	-8.20626
▁بكل	-8.20758
▁الحقل	-8.21047
▁شيئا	-8.21297
▁والآن	-8.21407
▁خرج	-8.21427
▁صنع	-8.2143
▁سبعة	-8.2147
▁الهنا	-8.21569
▁ثلاثة	-8.21651
▁بيته	-8.21748
▁شعبي	-8.21988
وف	-8.22027
▁دم	-8.22352
قا	-8.22499
▁العالم	-8.22554
▁اخذ	-8.22945
▁هنا	-8.23103
▁جعل	-8.23268
▁كلمة	-8.23343
▁كيف	-8.23534
▁مجد	-8.24696
زل	-8.24852
عة	-8.25329
آ	-8.25463
▁وكلم	-8.25836
▁يأتي	-8.25848
▁اخرج	-8.26164
▁وجاء	-8.26195
▁معي	-8.26206
اق	-8.26309
▁الموت	-8.26593
▁ز	-8.26812
▁ماء	-8.26909
فت	-8.26968
سر	-8.27132
▁الس	-8.27567
▁ثلاث	-8.27613
وني	-8.27783
▁الاردن	-8.27875
▁جهة	-8.27887
▁متى	-8.27923
▁وكانت	-8.28155
▁انك	-8.28159
بع	-8.28541
▁وملك	-8.28701
▁وح	-8.28768
وهم	-8.28977
▁لكل	-8.29028
▁خارج	-8.29124
▁فن	-8.29201
▁سبع	-8.29211
▁واحدا	-8.29442
كل	-8.29478
▁فضة	-8.29616
▁وأ	-8.29751
▁سر	-8.30193
▁بلا	-8.30259
سا	-8.30576
▁حي	-8.30577
▁عبر	-8.30813
▁الفلسطينيين	-8.30831
▁الرجال	-8.30915
▁الاول	-8.30966
▁وبعد	-8.31036
وع	-8.31037
قب	-8.31137
ست	-8.31295
▁المرأة	-8.31333
▁تن	-8.31363
▁خيمة	-8.31536
▁الباب	-8.31983
▁الجميع	-8.32565
▁الهكم	-8.3263
تين	-8.32691
▁لبني	-8.32692
▁منهم	-8.32985
لت	-8.33037
▁قلب	-8.33041
▁النبي	-8.33124
▁اليكم	-8.33163
از	-8.33706
▁موآب	-8.33707
▁قلت	-8.33722
▁بي	-8.33803
جا	-8.34078
▁س	-8.34176
صل	-8.34439
وت	-8.34914
در	-8.34958
▁ج	-8.3496
▁الجبل	-8.35008
اص	-8.35042
▁است	-8.35382
قض	-8.3563
▁ابيه	-8.35663
▁فلي	-8.35793
▁كلم	-8.35892
▁ست	-8.36135
▁عليكم	-8.36726
▁منذ	-8.36766
نة	-8.3678
فا	-8.36923
▁يس	-8.37047
صا	-8.37073
▁افرايم	-8.37102
▁اين	-8.37185
▁الق	-8.37331
▁آدم	-8.374
▁وجعل	-8.37584
▁سيد	-8.37799
▁ذبيحة	-8.37806
قة	-8.38004
▁ملوك	-8.38014
▁سكان	-8.38068
▁يخرج	-8.38093
▁ابني	-8.38292
عل	-8.38466
▁مكان	-8.38477
▁قلبه	-8.38503
▁فانه	-8.39069
▁الج	-8.39097
▁بك	-8.39326
▁وقالوا	-8.39527
▁وضرب	-8.39659
▁منه	-8.39697
رض	-8.39801
دا	-8.40359
صي	-8.40463
▁صهيون	-8.41187
ذل	-8.41259
اس	-8.41329
وك	-8.41358
اني	-8.41814
▁لداود	-8.41837
▁يعمل	-8.41905
رد	-8.42449
▁وارسل	-8.42641
عط	-8.42893
▁وجد	-8.43204
▁يسمع	-8.43326
▁بنت	-8.43354
هد	-8.43371
▁يدك	-8.43557
وي	-8.43675
▁عبدك	-8.43983
▁قول	-8.44059
▁يقتل	-8.44089
▁لحم	-8.44174
▁وس	-8.44242
حم	-8.44393
▁ها	-8.44505
▁الاجتماع	-8.44516
▁وقت	-8.44609
▁دخل	-8.44874
هر	-8.45002
بة	-8.45032
▁البر	-8.4546
بل	-8.4549
▁يعرف	-8.4552
▁ش	-8.45571
رح	-8.45656
▁الشمس	-8.45885
اه	-8.45914
▁فاخذ	-8.45919
▁فارسل	-8.46063
قص	-8.465
حل	-8.46502
▁كذلك	-8.46603
▁المياه	-8.46683
▁بطرس	-8.4678
▁اع	-8.47068
رك	-8.47079
▁بعض	-8.47359
▁وذهب	-8.47396
رق	-8.47475
▁فخرج	-8.47502
▁بولس	-8.47518
▁اربع	-8.48701
▁رأيت	-8.48751
▁فمن	-8.49001
▁ولي	-8.49558
▁الشرير	-8.49602
▁رجلا	-8.499
▁يدخل	-8.50018
▁اشور	-8.50179
لي	-8.50341
▁عظيمة	-8.50658
▁خطية	-8.50971
وح	-8.51017
▁خمس	-8.51383
▁قوم	-8.516
▁مس	-8.51663
▁ولل	-8.51711
▁كثيرا	-8.51776
▁وش	-8.52202
▁الاخوة	-8.52234
▁قلبك	-8.52291
▁الناموس	-8.52292
جي	-8.52509
▁ط	-8.52545
▁فجاء	-8.52874
▁بهذا	-8.52967
موت	-8.53216
▁تر	-8.53231
وث	-8.53737
▁الهي	-8.53988
▁باسم	-8.54024
▁غضب	-8.54085
وص	-8.54489
▁ووضع	-8.54589
▁نعمة	-8.54758
عي	-8.54986
▁السيف	-8.55054
▁واذ	-8.55137
يئيل	-8.5514
▁النار	-8.55339
▁وقل	-8.55433
▁يعلم	-8.5546
كسر	-8.5567
▁أليس	-8.55811
▁بنيامين	-8.55824
▁بيد	-8.5605
عت	-8.5633
مت	-8.56417
▁ير	-8.56532
▁الاشرار	-8.56548
▁ونزل	-8.56588
به	-8.56648
▁علينا	-8.56799
▁الفضة	-8.56825
جد	-8.57092
▁يفعل	-8.57476
▁حق	-8.57672
▁عبيد	-8.57762
▁الواحد	-8.57891
يه	-8.5797
▁ابنا	-8.58029
▁جانب	-8.58071
ذا	-8.58079
▁وخرج	-8.5815
▁ليد	-8.58153
▁لانكم	-8.58385
طي	-8.58453
جن	-8.58645
▁سلام	-8.5874
▁الجبال	-8.58888
▁وف	-8.5902
حت	-8.59127
رام	-8.59238
▁فم	-8.59254
▁فقالت	-8.59256
▁خير	-8.59267
▁يموت	-8.59295
▁بنات	-8.5957
صد	-8.59686
رة	-8.5972
▁ارميا	-8.59873
خت	-8.60015
▁تابوت	-8.60054
▁الآب	-8.60063
لق	-8.60268
▁وجهه	-8.60345
سي	-8.60361
▁الشمال	-8.60395
▁لست	-8.60424
▁اس	-8.6058
▁الجسد	-8.60674
▁اثم	-8.60688
▁افعل	-8.60689
▁معا	-8.60842
▁سمعت	-8.60941
▁وما	-8.61245
▁يقدر	-8.61392
عا	-8.61766
▁تت	-8.62153
جم	-8.62179
▁ملاك	-8.62185
▁ارام	-8.62516
▁اهل	-8.62521
▁رؤوس	-8.62628
▁الثاني	-8.62629
▁وهي	-8.62673
▁مذبح	-8.62783
▁قلبي	-8.62786
▁الحرب	-8.62877
▁قدس	-8.62916
▁خبز	-8.62937
▁فقد	-8.62977
▁مات	-8.62999
له	-8.63045
▁معهم	-8.63181
▁يوآب	-8.63213
▁فهو	-8.63484
▁جلعاد	-8.63582
زم	-8.63643
قوا	-8.63684
▁سفر	-8.63713
▁بكر	-8.63801
▁آ	-8.63938
▁يتكلم	-8.63944
▁تقول	-8.64001
▁اخت	-8.64178
طف	-8.64228
سكن	-8.6435
▁الامر	-8.64693
تان	-8.64811
لة	-8.6494
▁ار	-8.65012
تكم	-8.65032
بون	-8.65423
▁يصنع	-8.65443
ايا	-8.65656
الآن	-8.65683
▁الهيكل	-8.66072
▁اكل	-8.66104
صف	-8.6611
▁نار	-8.66145
▁الجماعة	-8.66203
▁اصعد	-8.6625
رس	-8.66261
▁نفسك	-8.66526
▁اولاد	-8.66651
▁آلاف	-8.66875
▁يوجد	-8.66875
▁بسبب	-8.66876
▁وبيت	-8.67248
خل	-8.67294
ذر	-8.67474
مل	-8.67527
▁اولا	-8.67559
طر	-8.67733
▁الموضع	-8.67758
▁وتكون	-8.67997
▁راسه	-8.68326
سب	-8.68492
رون	-8.68591
▁واجعل	-8.68649
▁فقام	-8.68716
▁اعط	-8.68861
ؤ	-8.6898
▁وبين	-8.69069
▁صموئيل	-8.69086
سجد	-8.69215
▁خبزا	-8.69284
▁الوقت	-8.69438
في	-8.69461
▁أم	-8.69666
ذبح	-8.69894
▁سنين	-8.69904
وش	-8.70083
▁اسمع	-8.70237
▁بالسيف	-8.70279
▁النهر	-8.70291
▁ادوم	-8.70298
اث	-8.70306
يع	-8.70483
طا	-8.70675
▁عوض	-8.70793
تني	-8.71018
لح	-8.71132
▁الانبياء	-8.71148
▁المحل	-8.71454
▁آلهة	-8.71471
▁وخ	-8.71476
فق	-8.71572
▁كثير	-8.71659
▁الساكن	-8.72026
▁تخم	-8.72064
▁اللاويين	-8.72095
▁كن	-8.72097
ورة	-8.72143
عشيرة	-8.72156
▁السامرة	-8.72158
▁را	-8.72391
▁خذ	-8.72552
▁صعد	-8.72556
نزع	-8.72575
لم	-8.72924
▁المكان	-8.72928
▁الذهب	-8.72976
▁وادي	-8.73011
▁اليهم	-8.73424
▁تقدم	-8.73583
▁انهم	-8.73839
▁أمر	-8.73866
▁حر	-8.73877
▁بيوت	-8.7388
▁فيكون	-8.74138
▁ذراع	-8.74157
▁امه	-8.74174
▁يجد	-8.74308
▁داخل	-8.74358
▁معكم	-8.74644
شر	-8.74702
▁المدن	-8.74798
▁واقام	-8.74826
▁وضع	-8.74879
رب	-8.74955
مون	-8.74974
قطع	-8.74982
▁ضرب	-8.74987
▁عني	-8.75144
▁اب	-8.75465
لك	-8.75465
ضع	-8.75501
▁منس	-8.75551
▁بم	-8.75566
▁لد	-8.7559
▁ترك	-8.75744
تعب	-8.75842
▁قام	-8.75847
▁حزقيا	-8.75852
▁سيف	-8.75882
ظل	-8.75919
▁اخبر	-8.7603
قول	-8.76031
▁قم	-8.76195
▁الح	-8.76219
▁مياه	-8.7624
طلق	-8.76275
▁شعبه	-8.7634
▁يب	-8.76419
▁ملكوت	-8.76467
▁لو	-8.7658
▁وهذه	-8.76803
▁والع	-8.76816
▁الدم	-8.77296
▁العظيم	-8.7744
▁ويل	-8.77483
فل	-8.77511
▁الخطية	-8.77607
▁وصل	-8.7766
▁تلاميذه	-8.78031
عن	-8.78502
▁اجعل	-8.78582
▁الكل	-8.78654
▁اربعة	-8.78722
دين	-8.78825
▁بهم	-8.78925
▁والق	-8.79201
▁للم	-8.79254
ملك	-8.79298
▁يوحنا	-8.79337
▁اخرى	-8.79358
▁الحي	-8.79399
▁المساء	-8.79464
▁عينيك	-8.79504
▁الماء	-8.79518
▁اعطيت	-8.79544
▁قتل	-8.79632
▁واعط	-8.79776
▁وانتم	-8.79863
▁ودخل	-8.80168
▁الجنوب	-8.80288
▁فال	-8.80305
▁بالنار	-8.80334
▁كف	-8.80338
▁يع	-8.80373
ره	-8.80456
▁للملك	-8.80483
▁وحده	-8.80507
▁واسم	-8.80531
رث	-8.80643
▁آبائهم	-8.80644
▁ايل	-8.80694
▁خطايا	-8.80718
حب	-8.81047
▁كلها	-8.81218
▁عمون	-8.8126
▁الدهر	-8.81264
▁ساكن	-8.81284
▁فرح	-8.81284
▁الحياة	-8.81496
اش	-8.8151
▁اجاب	-8.81516
▁قل	-8.81769
▁صور	-8.81806
▁مد	-8.81894
▁اليها	-8.82037
▁لنفسه	-8.82238
▁مقدس	-8.82288
ذهب	-8.82492
أخذ	-8.82548
▁نفس	-8.82598
▁جعلت	-8.82708
▁قر	-8.82752
▁عبد	-8.82859
▁قريب	-8.82882
▁ومع	-8.83038
▁وخمس	-8.83078
▁وسبع	-8.83103
▁الايمان	-8.83201
▁الاثم	-8.83213
فرح	-8.83459
بن	-8.83461
هكذا	-8.83533
كف	-8.83704
▁الليل	-8.8374
▁اش	-8.83867
حز	-8.83875
هلك	-8.83943
▁اخي	-8.84039
▁لنفسك	-8.84193
ضل	-8.8427
▁عز	-8.84272
قتل	-8.84404
بني	-8.8459
حمل	-8.84598
▁احب	-8.84618
شف	-8.84658
▁يأكل	-8.84723
▁وصعد	-8.84753
▁الصد	-8.8483
ونها	-8.84912
▁وهم	-8.85049
▁فقط	-8.85074
▁ومات	-8.85085
▁عبيده	-8.85088
▁والا	-8.85117
▁الصباح	-8.85191
▁وعن	-8.8525
شب	-8.85282
▁بحسب	-8.8537
وط	-8.85404
▁أت	-8.85466
▁وام	-8.856
▁كثيرين	-8.85704
▁المن	-8.85764
▁فقالوا	-8.85836
دون	-8.86026
عمل	-8.86237
▁حول	-8.86382
وة	-8.86518
▁والرب	-8.86617
▁ذكر	-8.87016
▁يعطي	-8.87039
▁الش	-8.87076
▁اخ	-8.87192
رسل	-8.87228
▁انكم	-8.87232
▁الثالث	-8.87294
حث	-8.87523
▁مكانه	-8.87524
تكلم	-8.88038
▁انفسهم	-8.8826
▁وقتل	-8.88261
▁وهذا	-8.88274
باب	-8.88445
▁اعلم	-8.88598
بط	-8.88617
ئيل	-8.88726
تنا	-8.88792
▁امامك	-8.89036
دوا	-8.892
▁جسد	-8.89252
▁مقابل	-8.89336
▁السابع	-8.89389
غي	-8.89483
▁الاله	-8.89508
سم	-8.8955
موا	-8.89596
▁فعلت	-8.89611
رو	-8.89818
أتي	-8.89836
▁يطلب	-8.89888
▁بقر	-8.8997
▁قدم	-8.9008
دان	-8.90109
غني	-8.90392
عظ	-8.90529
وج	-8.90539
▁تصنع	-8.90617
▁انظر	-8.90622
▁ثمر	-8.90693
▁ووقف	-8.9071
▁اسحق	-8.90749
▁نسل	-8.90757
▁اسمعوا	-8.90776
▁يرجع	-8.90805
▁حياة	-8.90998
يس	-8.9109
▁شعبك	-8.91116
آنية	-8.91262
طلب	-8.91529
▁وبنات	-8.91542
▁عظيما	-8.92139
▁تعلم	-8.92214
▁عينيه	-8.92224
▁كرسي	-8.9226
▁فس	-8.92428
▁يست	-8.92444
▁سلطان	-8.92486
▁كنعان	-8.92492
▁الغنم	-8.92578
خبر	-8.92626
حلف	-8.92712
هن	-8.92884
▁بع	-8.92954
▁ذراعا	-8.92957
▁ابشالوم	-8.93003
بنى	-8.93478
طو	-8.93488
روا	-8.93604
▁السبت	-8.93645
▁عهد	-8.93659
▁ملكا	-8.93711
ليكن	-8.93782
▁شرا	-8.94104
▁بان	-8.94106
أكل	-8.94203
فهم	-8.94598
▁غنم	-8.94623
▁ودعا	-8.94667
▁اذرع	-8.94677
سمع	-8.94757
ثر	-8.94841
▁فذهب	-8.95035
▁مسكن	-8.9517
حارب	-8.95212
قسم	-8.95314
▁قالوا	-8.95418
ريح	-8.9542
▁ارجع	-8.95722
▁مبارك	-8.95782
▁الرابع	-8.95784
شرب	-8.95833
▁فأ	-8.95839
قط	-8.95969
▁نعم	-8.95991
▁نحاس	-8.96003
عون	-8.96033
▁وعند	-8.96066
▁عيسو	-8.96073
▁واقف	-8.96411
▁تكلمت	-8.96556
▁وصنع	-8.96584
▁قليل	-8.96722
▁النساء	-8.9694
دة	-8.97011
نظر	-8.97046
▁بالرب	-8.97108
▁وعشرين	-8.97143
هب	-8.97278
خرج	-8.97285
▁يربعام	-8.97354
نحن	-8.97448
▁جماعة	-8.97453
▁والب	-8.97477
كثر	-8.97519
▁نصيب	-8.97854
زوج	-8.97924
▁المحرقة	-8.98042
أت	-8.98052
▁المسكن	-8.98261
▁سبي	-8.98264
▁يوناثان	-8.98278
▁ويقول	-8.98322
ائل	-8.98331
▁اذكر	-8.98376
▁تخرج	-8.9843
▁خلاص	-8.98567
▁فقلت	-8.98586
▁يحب	-8.98593
▁منها	-8.98596
▁تعرف	-8.98644
وز	-8.98764
▁نور	-8.98918
▁صالح	-8.9906
وجه	-8.99079
▁تعب	-8.99132
قيم	-8.99212
عز	-8.99227
▁وهرون	-8.9923
▁كنتم	-8.99261
▁أل	-8.99307
▁الآخر	-8.99343
▁ايليا	-8.99368
سحق	-8.99449
▁فدخل	-8.99513
▁كر	-8.99624
▁منكم	-8.99693
▁الب	-9.00207
▁تف	-9.00278
▁بما	-9.00316
مو	-9.00418
لبس	-9.00429
▁لبيت	-9.00651
▁سم	-9.00702
▁اخوته	-9.00826
إ	-9.01179
▁سل	-9.01219
اتي	-9.01272
▁فاذا	-9.01331
▁تع	-9.01334
▁كثيرون	-9.01384
▁اسمك	-9.01448
▁محرقة	-9.01539
▁آمن	-9.01555
اط	-9.01573
▁العلي	-9.01644
فعل	-9.01818
▁نزل	-9.01866
▁تدخل	-9.01907
▁وعشرون	-9.01958
▁الر	-9.0199
دخل	-9.01991
▁تكن	-9.02098
▁الشرق	-9.02111
حيا	-9.02165
▁عر	-9.02199
خجل	-9.02446
دعو	-9.02583
ائي	-9.0272
▁شيوخ	-9.02723
▁وصار	-9.02773
نطق	-9.02988
حكم	-9.03159
▁ثياب	-9.03332
▁لجميع	-9.03366
▁ايديهم	-9.03483
▁المت	-9.03508
▁القلب	-9.03526
جيب	-9.03843
▁الاموات	-9.03931
▁الدار	-9.04001
▁وابن	-9.04137
▁واخبر	-9.04211
▁للذي	-9.04313
▁عشائرهم	-9.04405
▁حكم	-9.04408
▁وأت	-9.04476
ولا	-9.0449
صير	-9.04568
▁عدد	-9.0478
▁فدعا	-9.0486
ثمر	-9.04991
▁يش	-9.05118
▁اسباط	-9.05152
▁جيش	-9.05162
▁زمان	-9.05198
▁تح	-9.05359
▁امامه	-9.05614
▁ولدت	-9.05629
▁يأخذ	-9.05661
قد	-9.05664
بال	-9.05807
▁تأكل	-9.05851
▁قوة	-9.05953
يتها	-9.06143
▁دائما	-9.0638
▁جاءوا	-9.06385
بيت	-9.0642
▁آتي	-9.0643
حفظ	-9.06538
▁ثيابه	-9.0655
▁ضيق	-9.06601
دل	-9.06641
▁امور	-9.06688
▁اعطي	-9.06701
▁الكلمة	-9.07102
سير	-9.07285
ائه	-9.07358
وئيل	-9.07504
▁الامور	-9.07618
ارة	-9.07625
▁ينبغي	-9.0763
▁الغد	-9.07656
▁والارض	-9.0767
▁خشب	-9.07779
▁اذن	-9.07826
يوس	-9.07865
كيف	-9.07946
▁خل	-9.08051
▁جر	-9.08113
أتوا	-9.08144
حد	-9.08224
▁رد	-9.08343
▁امامي	-9.08433
▁تفعل	-9.08462
▁خمسة	-9.0847
بس	-9.08514
▁محل	-9.08635
▁صنعت	-9.08652
ائم	-9.08783
▁لموسى	-9.08905
▁موضع	-9.09013
▁بصوت	-9.09018
▁عنده	-9.09241
صو	-9.09301
▁ليست	-9.09421
ارا	-9.09846
هؤلاء	-9.10107
▁فل	-9.1016
▁اخآب	-9.10191
جت	-9.10196
عر	-9.10208
▁يعل	-9.10256
▁وط	-9.1032
▁حقل	-9.10338
▁حن	-9.10378
جمع	-9.10461
▁رجع	-9.10464
ذب	-9.10481
▁تم	-9.10544
ركب	-9.10742
يلة	-9.10869
▁كله	-9.10936
▁اعمال	-9.10961
عوا	-9.11042
▁نصف	-9.11044
▁والس	-9.11364
مه	-9.11364
▁قسم	-9.11433
▁امرأته	-9.11478
▁النهار	-9.11479
▁شا	-9.11479
ايضا	-9.11499
▁حكمة	-9.1152
▁ابو	-9.11536
كشف	-9.11555
بتهج	-9.11574
▁فصعد	-9.11704
قال	-9.11794
▁تأتي	-9.11946
رى	-9.12018
▁يقولون	-9.12032
ونني	-9.12047
▁المس	-9.12095
تعل	-9.12127
▁يهو	-9.12163
صرف	-9.12304
▁صاحبه	-9.12523
كثرة	-9.1253
▁تعمل	-9.12547
▁اعظم	-9.12795
▁فتكون	-9.12917
▁اياها	-9.13057
فتح	-9.1314
دع	-9.13201
▁يحفظ	-9.1323
▁المقدس	-9.13281
دت	-9.1394
شبع	-9.13976
▁قدامه	-9.14018
▁ورؤساء	-9.14126
▁آمين	-9.1414
▁جميعا	-9.14154
▁تقدمة	-9.14222
طل	-9.14324
▁الهاوية	-9.14328
رش	-9.14545
▁ادخل	-9.14625
قون	-9.14722
▁المر	-9.14903
▁آبائه	-9.14972
▁لهذا	-9.14987
تموه	-9.15022
راس	-9.15072
ظهر	-9.15162
مدخل	-9.15357
▁ههنا	-9.15495
▁سلاه	-9.1553
امير	-9.15713
▁ابنة	-9.15742
غسل	-9.15757
▁كنا	-9.15758
▁واخرج	-9.15768
بطل	-9.15787
▁وقو	-9.15809
▁يمين	-9.15872
عام	-9.15909
دفع	-9.15913
آب	-9.16013
▁ابيك	-9.16204
بسط	-9.16294
▁كرم	-9.16368
قرية	-9.16442
▁جاد	-9.16494
طلع	-9.16561
▁يرى	-9.16923
▁الملوك	-9.16927
▁لصوت	-9.16967
دد	-9.17371
▁اطلب	-9.17413
▁امة	-9.17461
▁عيون	-9.17519
▁د	-9.17547
▁برية	-9.17568
▁وقلت	-9.17576
▁بيده	-9.1763
▁ابواب	-9.17648
▁طوب	-9.17701
▁وجهك	-9.17757
▁وزن	-9.17841
▁عبيدك	-9.17966
▁الجمع	-9.17987
▁خيرا	-9.18112
▁معنا	-9.18175
▁بجانب	-9.18236
▁الجليل	-9.18237
▁العهد	-9.18309
▁وعبد	-9.18332
سخط	-9.18492
فض	-9.1859
▁بقية	-9.18612
ده	-9.18618
▁يديه	-9.18622
مالك	-9.1865
▁اسمي	-9.18693
حو	-9.18703
▁نجس	-9.18962
▁طلب	-9.19012
▁ليلا	-9.19056
مح	-9.19144
▁ورأ	-9.19288
▁اعين	-9.19458
نت	-9.19476
▁ابا	-9.19585
▁شريعة	-9.19645
▁جئت	-9.19652
▁وجهي	-9.19715
▁اقام	-9.19727
مسك	-9.19752
▁فضرب	-9.19756
▁واصعد	-9.19824
▁دار	-9.19836
▁وسمع	-9.20115
▁هلم	-9.20292
لو	-9.20355
ثق	-9.20565
ء	-9.20565
بقية	-9.20783
شهد	-9.21011
▁جن	-9.2107
▁يقبل	-9.21081
▁قو	-9.21093
▁جمع	-9.21132
▁فب	-9.21134
▁قلوبهم	-9.21245
▁يجعل	-9.2133
▁اثنا	-9.2134
▁فسمع	-9.215
▁اصنع	-9.215
▁دانيال	-9.21528
▁رع	-9.2162
غرس	-9.21743
بو	-9.21779
▁قطع	-9.21831
▁الخير	-9.21844
▁يسكن	-9.21846
▁اوص	-9.21968
جاز	-9.21974
▁مش	-9.22171
شتر	-9.22181
▁اكون	-9.22184
خي	-9.22242
صنع	-9.22411
▁الخارج	-9.22433
▁ارد	-9.2247
▁لاوي	-9.2248
▁تس	-9.22508
▁اللذ	-9.22536
▁فصار	-9.22541
▁السجن	-9.22574
▁مما	-9.2265
▁سكن	-9.22726
▁بس	-9.2274
▁رأوبين	-9.22783
شكر	-9.22804
▁دعا	-9.22988
▁ايدي	-9.23051
▁واخوته	-9.23063
▁معل	-9.2342
زا	-9.23552
بوا	-9.23611
▁بحر	-9.23648
▁بيتك	-9.23662
▁يوما	-9.23994
▁آباء	-9.24005
غيظ	-9.24052
▁حجر	-9.24097
▁فمه	-9.24191
▁ربنا	-9.24243
▁يبق	-9.24274
▁عمله	-9.2439
يش	-9.24488
▁تل	-9.24521
▁الأمر	-9.2454
سكر	-9.24546
▁واس	-9.24562
▁وست	-9.24573
ائيل	-9.24575
▁يف	-9.24731
▁بعضا	-9.24851
▁عهدا	-9.2495
▁يصعد	-9.2503
ملأ	-9.25045
▁الحكمة	-9.25048
▁سمعوا	-9.25126
▁سا	-9.25133
▁يقوم	-9.25292
شد	-9.25395
▁نوح	-9.25448
▁العظيمة	-9.25513
▁يسلم	-9.25529
▁للشعب	-9.25542
▁حمل	-9.25574
▁اجر	-9.25586
▁قلوبكم	-9.25586
▁ضد	-9.25631
▁اضطجع	-9.25711
▁عين	-9.25867
▁اول	-9.25893
حاكم	-9.25904
▁مل	-9.25905
▁ففعل	-9.25906
▁الصالح	-9.25918
▁فأخذ	-9.25988
▁مست	-9.2599
▁وجدت	-9.26056
قع	-9.26075
ائر	-9.26162
▁الرؤساء	-9.2624
▁بارك	-9.263
▁أف	-9.26459
صح	-9.2661
▁يسمعوا	-9.26702
▁ارت	-9.26794
▁ورجع	-9.26813
▁دان	-9.26839
▁حسن	-9.26896
▁شعوب	-9.27
▁المغنين	-9.27065
▁وتكلم	-9.27085
▁قائلة	-9.27127
▁وقف	-9.27188
بيع	-9.2719
▁المح	-9.27203
▁والح	-9.27209
قوم	-9.27238
شجرة	-9.27241
▁هيكل	-9.2729
▁بعل	-9.27349
▁طرق	-9.27467
▁بينهم	-9.27601
▁وقالت	-9.27719
طير	-9.27803
▁محب	-9.27851
▁ارسلني	-9.27852
قدس	-9.27853
▁لهما	-9.27872
▁تخف	-9.27892
▁واست	-9.27902
لون	-9.27922
▁سأل	-9.27953
▁عشرين	-9.27969
▁سقط	-9.2804
▁فمات	-9.2814
لام	-9.28168
▁حلف	-9.28433
▁للحرب	-9.28541
▁بئر	-9.28553
▁البقر	-9.28605
▁سار	-9.28606
▁اعرف	-9.28621
▁بكلام	-9.28721
عب	-9.28737
▁يكلم	-9.28772
شفي	-9.28801
▁اياه	-9.28805
▁بشر	-9.28846
▁حامل	-9.28976
▁نجسا	-9.29017
▁حبرون	-9.29083
حور	-9.29101
ناداب	-9.29314
عين	-9.29318
▁عملت	-9.29455
▁مرض	-9.29473
لع	-9.29556
فسد	-9.29563
جلس	-9.29698
شار	-9.29897
▁ظلم	-9.30019
رفع	-9.30031
▁الساعة	-9.30104
▁تخوم	-9.30107
▁نير	-9.30164
▁لسان	-9.30189
▁العمل	-9.30229
▁خوف	-9.3023
▁ليكون	-9.30276
دفن	-9.30282
▁الكلدانيين	-9.3037
دن	-9.3038
▁الفلسطينيون	-9.30487
▁يقف	-9.30582
▁وسار	-9.30646
قرض	-9.30745
نوح	-9.30754
▁فكلم	-9.30774
سقط	-9.30836
حمد	-9.30883
خو	-9.30892
▁ارسلت	-9.30915
لف	-9.3095
قف	-9.30954
سكت	-9.31022
▁حد	-9.31061
▁رم	-9.31143
قدر	-9.31367
▁يذهب	-9.31563
▁يثبت	-9.3169
▁بعيد	-9.31694
▁وتصنع	-9.31864
▁حرب	-9.31975
سأل	-9.32018
▁صل	-9.32032
▁وثلاث	-9.32074
حضر	-9.32126
▁مج	-9.32129
▁ارفع	-9.3215
▁ذبائح	-9.32378
▁يضع	-9.32445
▁باطل	-9.32454
▁وبال	-9.32459
▁ومت	-9.32569
▁كم	-9.32817
عم	-9.32855
▁ونظر	-9.33172
▁الاولى	-9.33198
▁الريح	-9.33258
ادة	-9.33285
▁جمهور	-9.33301
▁صانع	-9.33302
▁تاكل	-9.33325
▁القديسين	-9.33351
▁النفس	-9.33394
▁يخطئ	-9.33409
▁رحمته	-9.33457
▁ويجعل	-9.33463
▁انها	-9.33597
▁وحدث	-9.33657
▁لبنان	-9.33677
▁خرجت	-9.3369
▁مسح	-9.33733
▁وات	-9.33771
قلب	-9.33801
▁لأ	-9.33837
▁يخ	-9.33891
▁صرت	-9.33907
▁عرفت	-9.33918
▁الخبز	-9.33993
▁مطر	-9.3405
جع	-9.34101
▁وعد	-9.34131
▁سمعان	-9.34187
▁اتكلم	-9.34232
عبر	-9.3443
ودي	-9.34448
▁طريقه	-9.34604
▁غل	-9.34689
▁الز	-9.34694
▁تعلمون	-9.34755
▁اناس	-9.348
▁ميراث	-9.34829
ناثان	-9.349
▁بالحق	-9.3494
▁الخامس	-9.34941
▁فريض	-9.34943
▁طاهر	-9.34945
اربعين	-9.34953
▁ابيمالك	-9.34999
طين	-9.35004
تقدم	-9.35062
▁فاخبر	-9.3515
▁اخيه	-9.35155
▁الثلاثة	-9.35165
▁الآباء	-9.35198
▁تنظر	-9.35254
▁ونصف	-9.35319
▁خدمة	-9.35424
▁بعضهم	-9.35446
▁وبر	-9.35608
▁يهلك	-9.35629
تقي	-9.35862
دهن	-9.3625
▁تدع	-9.36474
▁وعبر	-9.36542
بث	-9.36543
▁فتح	-9.36576
▁غضبه	-9.36593
▁الاراضي	-9.36607
▁بجميع	-9.36607
▁وبارك	-9.36618
▁اريحا	-9.36621
▁ياكل	-9.36658
▁الفصح	-9.36659
▁شهر	-9.36685
ذكر	-9.36696
▁وز	-9.36705
▁تسمع	-9.36786
▁السفينة	-9.36836
▁ميت	-9.3689
بغض	-9.36904
▁وحي	-9.37134
▁النور	-9.3717
▁كاس	-9.37489
▁السلام	-9.37522
▁فما	-9.37656
▁يهوشافاط	-9.37744
رتعد	-9.37811
▁عصا	-9.38005
▁عندك	-9.3804
غضب	-9.3814
▁نبوخذن	-9.38302
▁مزمور	-9.38303
▁سريعا	-9.38304
▁فماذا	-9.38322
▁شكيم	-9.38341
اطفال	-9.3836
▁فنزل	-9.38392
فكر	-9.38449
فك	-9.38557
بشر	-9.38566
▁السبي	-9.3862
سد	-9.3865
▁دور	-9.38652
شعر	-9.38844
▁الجب	-9.38853
▁بكم	-9.3888
▁ابد	-9.38914
▁تأخذ	-9.38965
ائك	-9.38985
▁يخبر	-9.39013
▁حمو	-9.39093
▁اطلق	-9.39145
▁الملاك	-9.39176
▁عبدي	-9.39279
▁فرجع	-9.3941
▁ورفع	-9.39504
▁خارجا	-9.39694
▁عرف	-9.39717
▁سب	-9.40022
▁الشريعة	-9.40029
▁الضيق	-9.40034
▁ألعل	-9.40062
▁ينزل	-9.40074
▁البهائم	-9.40085
▁المصريين	-9.40141
▁نساء	-9.40164
▁الصبي	-9.40173
▁انظروا	-9.4025
خيل	-9.40317
▁الههم	-9.40379
▁يؤمن	-9.40416
▁ويس	-9.40519
▁ابصر	-9.4054
▁نج	-9.406
▁اجمع	-9.40628
▁وبني	-9.40629
▁عندكم	-9.40647
▁ذو	-9.40675
▁الجيش	-9.4069
▁دقيق	-9.40879
▁لعل	-9.40891
▁سرور	-9.40989
فة	-9.41046
▁وسجد	-9.41094
▁فمي	-9.41154
▁دفع	-9.4124
▁بنيه	-9.41372
صوم	-9.41464
▁وولد	-9.41465
▁ظل	-9.41491
▁سيده	-9.41538
▁قدوس	-9.41597
▁شعبا	-9.41745
▁يستطيع	-9.41781
▁دمشق	-9.41781
جيء	-9.41825
▁التلاميذ	-9.41856
▁جلد	-9.41888
▁ابوه	-9.41898
▁شبه	-9.41907
▁معرفة	-9.41977
▁قبر	-9.4203
▁حلم	-9.42046
▁ميخا	-9.42175
غش	-9.42201
سلك	-9.42287
▁وق	-9.42495
▁عابر	-9.42525
▁علمت	-9.42873
▁سلم	-9.42879
▁وقام	-9.42886
▁عامل	-9.42953
▁تست	-9.43124
▁اثنين	-9.43185
▁وبنيه	-9.43333
يء	-9.43343
▁عنك	-9.43376
عود	-9.43406
ذنب	-9.43514
▁افكار	-9.43568
▁باشان	-9.43569
خزي	-9.43574
▁بسلام	-9.4358
▁حولي	-9.43607
▁افضل	-9.43763
▁كلامي	-9.43828
▁رفع	-9.43834
▁زرع	-9.44034
▁يرفع	-9.44052
▁حجارة	-9.442
▁تذهب	-9.44258
▁تموت	-9.44568
ذلك	-9.44655
▁ستة	-9.44674
▁الخمر	-9.44888
▁يرد	-9.4503
▁حسنا	-9.45068
تاج	-9.45092
▁عد	-9.45194
▁طعاما	-9.45227
▁بينكم	-9.45323
بصر	-9.45373
▁لاسرائيل	-9.45385
▁مشور	-9.45445
▁ذاك	-9.45445
▁عشائر	-9.45497
▁المملكة	-9.4558
▁المعز	-9.45617
▁ايوب	-9.45618
▁الخيمة	-9.45642
▁اج	-9.4567
▁وادخل	-9.45753
▁وراءه	-9.4586
نقذ	-9.45869
▁اسأل	-9.45886
▁ثورا	-9.4596
▁وسكن	-9.45977
▁التراب	-9.45992
▁مرات	-9.46005
جاب	-9.46033
▁فرائض	-9.46066
▁نقي	-9.46071
▁ثور	-9.46109
▁شاقل	-9.46467
ؤمن	-9.46497
▁الابن	-9.46563
قدم	-9.46597
باد	-9.46658
▁اباه	-9.46778
يات	-9.46788
▁الكتاب	-9.46878
صعد	-9.46901
عجب	-9.46929
▁موت	-9.46994
▁بد	-9.47066
دوس	-9.47153
▁عنهم	-9.47156
▁نهارا	-9.47244
▁كبير	-9.47266
▁بالروح	-9.47352
▁الجيل	-9.47359
▁طرف	-9.47361
خبار	-9.47387
▁اللاويون	-9.47492
لامام	-9.47643
خلاص	-9.4767
حسب	-9.47785
▁اصل	-9.47815
▁صراخ	-9.47828
▁نارا	-9.4783
▁الظلمة	-9.47875
قرأ	-9.47886
▁يشرب	-9.47959
▁ابناء	-9.48003
▁مسر	-9.48147
حدر	-9.4822
خضع	-9.48314
▁قليلا	-9.48333
▁ناموس	-9.48357
▁سور	-9.4838
▁قا	-9.48391
جو	-9.48483
▁وجلس	-9.48513
▁الاخ	-9.48529
▁فاعط	-9.48657
▁وسطهم	-9.48807
▁اخطأ	-9.48853
▁تذكر	-9.48976
▁تقولون	-9.49033
يها	-9.49045
▁بيلاطس	-9.49123
▁فصاعدا	-9.49123
▁يوشيا	-9.49124
▁اليشع	-9.49127
▁انفسكم	-9.49131
▁خروج	-9.49256
▁المجمع	-9.49334
راء	-9.49405
▁تقدر	-9.49619
▁بار	-9.49628
فرز	-9.49719
حسن	-9.49724
▁ففي	-9.49979
تنبأ	-9.50013
▁السور	-9.50082
▁يسير	-9.50086
▁فتعلم	-9.50126
▁ألم	-9.50179
للوقت	-9.50324
▁ياهو	-9.5035
▁طول	-9.50407
▁نهر	-9.5049
▁سن	-9.50493
لقاء	-9.50599
▁ياتي	-9.50679
الفضة	-9.50809
▁عنها	-9.50852
▁ابنير	-9.50928
▁مردخاي	-9.51046
▁ابتدأ	-9.51046
هناك	-9.5105
▁فوجد	-9.51051
▁العدو	-9.51052
▁غدا	-9.51056
▁الرسل	-9.51076
▁زوجة	-9.5109
▁اراد	-9.51179
▁بنفس	-9.51206
▁طعام	-9.51245
▁فهي	-9.51317
▁ارتحلوا	-9.5134
▁مريم	-9.51363
▁فليس	-9.51409
▁وار	-9.51495
▁مملكة	-9.51558
▁وسب	-9.51559
ائهم	-9.51575
عال	-9.51644
▁تصير	-9.51675
▁قربان	-9.51676
▁يم	-9.5176
▁يقيم	-9.51771
قش	-9.51844
قام	-9.51862
سبح	-9.51944
▁فخر	-9.51997
▁شعر	-9.52182
▁وغ	-9.52189
▁السبعة	-9.52224
▁شاهد	-9.52253
كتان	-9.52428
▁وسطها	-9.52464
▁فكانت	-9.52477
▁حل	-9.52564
▁يطلبون	-9.52642
▁عدو	-9.52765
▁ايمان	-9.52771
جوع	-9.52822
▁سخط	-9.52829
طول	-9.52923
▁الليلة	-9.52938
▁بالايمان	-9.53007
▁المستقيم	-9.53008
▁الكبير	-9.53008
▁اليمنى	-9.53008
▁لانفسهم	-9.5301
▁بأس	-9.53013
▁طرقه	-9.53014
▁الزمان	-9.53017
▁رجاء	-9.53021
▁صدقيا	-9.53044
▁حديد	-9.53051
▁الاموريين	-9.53073
حجارة	-9.53091
▁الوادي	-9.53096
▁يترك	-9.53151
▁تعطي	-9.53181
▁ابر	-9.5323
▁شرك	-9.53372
▁ذات	-9.53405
▁تعط	-9.53408
▁يحل	-9.53462
مسح	-9.53473
▁فتقدم	-9.53503
▁واذهب	-9.53538
▁احفظ	-9.53709
يرة	-9.53743
▁واربع	-9.53823
امة	-9.53828
▁لمن	-9.54021
صبر	-9.54207
ترنم	-9.54372
اؤه	-9.54387
▁صف	-9.54434
▁علم	-9.54443
كث	-9.54471
▁شق	-9.54505
▁خمرا	-9.5451
▁الص	-9.54559
▁ويع	-9.54562
غرب	-9.5458
▁صنعة	-9.54581
كونوا	-9.54647
طيور	-9.54665
▁حواليها	-9.54871
خمسة	-9.54894
▁آسا	-9.54919
▁جالس	-9.54999
▁رحبعام	-9.55007
▁بزيت	-9.5501
متلئ	-9.55011
▁اقوال	-9.55019
▁نفوس	-9.55024
▁القائل	-9.55052
▁جز	-9.55077
▁رسلا	-9.55099
▁ابرام	-9.55109
▁لرجل	-9.55158
▁كذب	-9.55332
▁ويهوذا	-9.55352
▁عيد	-9.55386
▁وامر	-9.55427
نجس	-9.5553
هتاف	-9.55539
▁جب	-9.55559
▁الهه	-9.55596
▁مخل	-9.55634
▁المحبة	-9.55651
▁اخو	-9.55674
▁حقا	-9.55685
فحص	-9.55803
فرس	-9.55805
▁ذنب	-9.55917
▁وثلاثين	-9.55967
▁مح	-9.56228
تمرد	-9.56254
▁فمك	-9.5637
▁المجد	-9.5643
شون	-9.56436
شور	-9.56489
فصل	-9.56536
تقدس	-9.56558
هرب	-9.56576
متى	-9.56606
▁يفهم	-9.56677
▁وجمع	-9.56684
▁يكونون	-9.56726
▁ظهر	-9.56771
متلك	-9.56877
خير	-9.56929
▁محرقات	-9.57049
▁وآخر	-9.57049
▁رآه	-9.57054
▁بركة	-9.57092
▁السفر	-9.57185
▁اولئك	-9.57191
▁الشهادة	-9.57222
▁بلعام	-9.57286
▁اخذت	-9.57298
وزن	-9.5731
▁وتخ	-9.57349
ضايق	-9.57402
زر	-9.57424
مجد	-9.5748
▁دعي	-9.5748
▁فات	-9.5759
▁الكنيسة	-9.57634
▁فهم	-9.57679
نبت	-9.57686
فني	-9.57691
▁عم	-9.57728
▁بذهب	-9.57753
▁اقسم	-9.57881
▁يدعى	-9.57882
▁ألا	-9.57901
▁صاحب	-9.57911
▁ومعه	-9.57991
▁احكام	-9.57998
▁ولك	-9.58008
صرخ	-9.58008
▁خزي	-9.58062
▁يفن	-9.58214
فتخر	-9.58464
تغرب	-9.58529
غير	-9.58542
▁بط	-9.58568
▁سائر	-9.58718
▁ابنك	-9.58788
مشي	-9.58809
▁واعطي	-9.58873
▁التخم	-9.59132
▁مملوء	-9.59133
▁الثامن	-9.59141
▁تسع	-9.59183
▁ضربة	-9.592
▁الشيوخ	-9.59202
▁رجليه	-9.59255
▁تجعل	-9.59478
▁جند	-9.59525
▁وقطع	-9.59566
▁البار	-9.5961
▁التابوت	-9.59616
▁يقدم	-9.59631
▁انقذ	-9.59645
شأ	-9.59675
▁بكثرة	-9.59683
خدام	-9.59727
▁يسمعون	-9.59756
▁تحفظ	-9.59775
حكمة	-9.59794
▁الد	-9.59859
▁يصير	-9.59872
▁لله	-9.59954
تبرر	-9.60001
▁عظام	-9.60089
▁الغرب	-9.60122
ذي	-9.60213
▁وسطك	-9.60247
▁وعشر	-9.60301
ملاك	-9.60328
شير	-9.60352
▁ومجد	-9.60414
▁اد	-9.60432
▁وقود	-9.60448
زرع	-9.60453
▁المش	-9.60529
▁وارض	-9.60548
▁نسلك	-9.60627
كتب	-9.60691
يفة	-9.6071
▁ولو	-9.60828
▁شد	-9.60952
لباس	-9.60971
▁ارضهم	-9.60976
كن	-9.61044
▁نبي	-9.6105
فرق	-9.61237
▁لملك	-9.61241
▁وطلب	-9.61244
▁يهوياداع	-9.61259
▁الغلام	-9.61261
▁ارتفع	-9.61262
▁نهاية	-9.6127
▁الصغير	-9.61271
▁يحمل	-9.61288
▁لابان	-9.61345
سق	-9.61377
▁احت	-9.61437
▁وعاش	-9.61507
آثام	-9.61548
علمون	-9.61562
▁فد	-9.6159
عاقب	-9.61591
▁اياما	-9.61619
▁الثانية	-9.61656
تعظم	-9.61659
▁فسأل	-9.61696
▁عاد	-9.61722
عرض	-9.6173
▁الجالس	-9.61792
▁الينا	-9.61819
▁اعداء	-9.61948
اصم	-9.61951
▁وفر	-9.62181
▁ريح	-9.6221
▁كلامك	-9.6226
▁رائح	-9.62289
لوا	-9.62312
نحاس	-9.6234
لد	-9.62344
▁عندي	-9.62357
▁انسانا	-9.62407
جز	-9.62488
▁عار	-9.62504
▁باسمي	-9.62512
▁وانظر	-9.62677
اكر	-9.62947
▁جد	-9.62972
▁هرب	-9.63053
▁عنكم	-9.63137
هلاك	-9.6316
▁تحب	-9.63233
▁يسقط	-9.63282
▁حز	-9.63327
▁حج	-9.63388
▁ومسارحها	-9.63433
▁ومسرحها	-9.63433
▁دخول	-9.63433
▁اعدائك	-9.63441
▁اعدائي	-9.63444
▁نعلم	-9.63446
مثال	-9.63449
▁اخاه	-9.63474
▁اخوتي	-9.63516
▁الحجر	-9.63536
▁يجب	-9.63544
▁الشيطان	-9.63546
▁القفر	-9.63575
▁احدا	-9.63612
▁الغريب	-9.63618
▁شم	-9.63669
▁عينه	-9.63688
▁سوف	-9.63722
▁اليهودية	-9.63861
▁الآلهة	-9.63917
▁احسن	-9.63947
▁عبده	-9.64006
▁اختار	-9.64079
▁ثوب	-9.64106
▁عبيدا	-9.64147
▁اصحاب	-9.64191
▁مز	-9.64248
▁اخترت	-9.64288
تنجس	-9.64327
▁واع	-9.64394
▁وسي	-9.64423
مين	-9.64496
▁السلامة	-9.64679
▁عدا	-9.64722
▁يسر	-9.64734
خراب	-9.6485
لذبيحة	-9.64866
ئي	-9.64879
طالب	-9.64931
▁تسمعوا	-9.65016
فين	-9.65152
هو	-9.65168
▁الراس	-9.65264
حكام	-9.65488
▁ترى	-9.65576
▁ثانية	-9.65655
▁الكاتب	-9.65656
▁مركبات	-9.65656
▁سدوم	-9.65657
▁غنيمة	-9.65657
▁مشيئ	-9.65659
▁الضربة	-9.65664
▁اصنام	-9.65665
▁بالحري	-9.65666
▁ينظر	-9.6567
▁فأتى	-9.65683
ضحك	-9.65685
▁اسفل	-9.65702
▁خرابا	-9.65704
▁ضعف	-9.65714
▁نظر	-9.65749
▁وتجعل	-9.65813
زهر	-9.65854
▁ودفع	-9.65922
▁غر	-9.65967
▁جبعة	-9.65979
▁اريد	-9.6601
▁بماء	-9.66012
▁يضرب	-9.6602
▁حواليه	-9.66024
▁يريد	-9.66042
▁أتى	-9.66159
▁روحي	-9.66184
بين	-9.66211
▁الثور	-9.66298
▁احمد	-9.66307
▁جديدة	-9.66309
▁قدامك	-9.66321
▁بدم	-9.66354
▁كسر	-9.66391
لتكن	-9.66428
طعم	-9.66479
▁تتكلم	-9.66479
▁رجلي	-9.66542
▁ويد	-9.66735
دور	-9.6675
▁لاسم	-9.66757
▁ارضك	-9.66834
▁خيل	-9.66898
▁خبر	-9.67003
تسلط	-9.67103
▁وسقط	-9.67264
▁فلن	-9.67297
▁تعال	-9.67465
فتش	-9.67497
▁وابي	-9.67525
جاع	-9.67551
صلاة	-9.67721
▁در	-9.67758
▁عظم	-9.67765
اخذ	-9.6778
▁خزائن	-9.67928
▁قائم	-9.6794
كبرياء	-9.67943
▁الآتي	-9.67956
▁فهل	-9.67987
▁فاجتمع	-9.68021
▁جبال	-9.68074
▁اقترب	-9.6816
▁وخذ	-9.68178
جعل	-9.68235
▁ويو	-9.68293
▁كلهم	-9.68392
▁خربة	-9.68555
▁يبصر	-9.68563
▁ثلاثين	-9.68564
ساق	-9.68604
▁استير	-9.68797
▁حو	-9.68882
▁يعط	-9.68947
معرفة	-9.68983
▁واب	-9.68997
▁باطلا	-9.69222
▁صغير	-9.69301
▁الغضب	-9.69349
نتقم	-9.69355
▁يصل	-9.69405
▁حال	-9.69506
▁وزنة	-9.69522
▁نح	-9.69573
▁تطلب	-9.69706
▁كلمات	-9.69723
انه	-9.69771
▁وبقي	-9.69796
▁قيل	-9.69973
▁الباق	-9.70036
طاع	-9.70045
▁الاقداس	-9.70254
▁مساكن	-9.70254
▁كهنة	-9.70266
▁فرأ	-9.70285
▁القدوس	-9.70286
مئة	-9.70301
▁الاولاد	-9.70642
▁يخلص	-9.70652
▁ونج	-9.70933
▁تثبت	-9.70935
▁اشتر	-9.71012
▁الولد	-9.71025
▁تنبأ	-9.71069
▁خمر	-9.7113
▁القضاء	-9.71277
سلب	-9.71277
▁يعود	-9.71334
▁سو	-9.71471
▁وصرخ	-9.71477
▁وهرب	-9.71573
ريب	-9.71588
▁الخيل	-9.71651
▁حب	-9.71711
▁يعطيك	-9.71776
▁البشر	-9.71801
▁وتر	-9.71874
ساعد	-9.7194
ائع	-9.72289
لماذا	-9.72315
صنا	-9.72357
▁سك	-9.72367
حينئذ	-9.72388
مطر	-9.72396
▁وله	-9.72632
▁المرتفعات	-9.72634
ضطهد	-9.72637
▁يبارك	-9.72639
▁وقراها	-9.72643
▁هامان	-9.72653
▁اللحم	-9.72672
▁نذر	-9.72677
▁اشهر	-9.7269
متحن	-9.72693
رجعوا	-9.72748
▁ذبح	-9.72752
▁ابدية	-9.72758
▁رئيسا	-9.72822
▁القبر	-9.72841
▁بهذه	-9.72877
▁آية	-9.72908
▁دعوت	-9.7294
▁ياخذ	-9.73069
▁اكتب	-9.7313
▁يعد	-9.73137
▁فسقط	-9.73177
▁سلامة	-9.7319
▁كلاهما	-9.73202
▁الواحدة	-9.73223
فون	-9.73225
▁قف	-9.73242
▁يجلس	-9.73263
▁يسلك	-9.73264
▁اشير	-9.73267
عش	-9.73309
▁اشعياء	-9.73333
نجح	-9.73417
زيد	-9.73432
▁لهرون	-9.73457
▁بالع	-9.73473
رواق	-9.7349
▁صوته	-9.73504
▁والف	-9.73512
▁وحل	-9.73519
خشب	-9.73755
▁النحاس	-9.73802
▁بالاق	-9.73831
▁راسي	-9.74036
حمق	-9.74056
فطن	-9.74186
▁اجتمع	-9.74188
▁وتن	-9.74218
▁جسده	-9.7423
▁وسأل	-9.74238
رخ	-9.74241
قاتل	-9.74254
تراء	-9.74269
قليل	-9.74501
حيوان	-9.74528
▁يمسك	-9.74627
▁الفهم	-9.74628
▁كالب	-9.74653
▁فش	-9.74762
▁تعملوا	-9.74852
الكهنة	-9.74908
▁وفعل	-9.74947
▁فارس	-9.74958
▁بنين	-9.74968
▁قط	-9.74981
▁المعدود	-9.74989
▁نفتالي	-9.75073
▁المسكونة	-9.75074
▁اقداس	-9.75075
▁وكبش	-9.75075
▁خطيته	-9.75078
▁وبيوت	-9.75079
▁لنفسي	-9.75083
▁واحرق	-9.75085
تألم	-9.75097
▁ملعون	-9.75102
▁وصية	-9.75141
▁مضى	-9.75141
▁ارى	-9.75149
▁واورشليم	-9.75166
▁غلام	-9.75199
▁حيوان	-9.75218
▁تش	-9.7523
▁اخا	-9.75301
▁عملها	-9.75306
▁لش	-9.75342
▁وتقدم	-9.75384
▁وعز	-9.7542
▁هيرودس	-9.75448
▁فصرخ	-9.75459
▁راحيل	-9.75516
يمين	-9.75519
▁يحسن	-9.75615
▁اوصيك	-9.75685
▁وصاياك	-9.75714
وقد	-9.75745
▁فنظر	-9.75784
▁يعبر	-9.75835
لين	-9.75858
▁اسماء	-9.75931
▁لستم	-9.763
▁تجد	-9.76342
▁برج	-9.76346
شديد	-9.76454
ميت	-9.76469
▁معها	-9.76469
تحول	-9.76495
▁ومس	-9.76565
▁اط	-9.76603
▁خمسين	-9.76632
▁سبق	-9.76689
▁يدعو	-9.76697
▁العين	-9.76701
قضاء	-9.76823
▁كس	-9.76879
▁شفتي	-9.76964
▁الكرم	-9.76998
▁والص	-9.77003
كذلك	-9.77068
▁كتاب	-9.77173
قيس	-9.7725
▁وشعب	-9.77318
مهم	-9.77328
قبض	-9.77359
▁حم	-9.77409
▁البكر	-9.77446
▁شاقلا	-9.77501
▁الجلجال	-9.77573
▁اسماعيل	-9.77573
▁ويعقوب	-9.77573
▁بغتة	-9.77574
▁انبياء	-9.77581
▁انفسنا	-9.77585
▁خيام	-9.77587
▁وشم	-9.77591
▁خائف	-9.77598
زرا	-9.77609
▁وشب	-9.77616
▁وطرح	-9.77637
▁بالكذب	-9.77708
خبز	-9.77853
▁اعطاه	-9.7786
هتف	-9.7789
▁كوش	-9.78022
▁ثماني	-9.78055
▁ولكل	-9.7806
▁فمض	-9.78063
▁واسحق	-9.78098
▁ارضه	-9.78117
▁ويشرب	-9.78122
▁اعد	-9.78242
▁اذهبوا	-9.78351
▁وصوت	-9.78355
▁النعمة	-9.78365
عوج	-9.7844
▁ترجع	-9.78444
▁صباحا	-9.78614
▁يطلق	-9.78725
▁وخمسين	-9.78736
▁وثلاثون	-9.78797
▁يرسل	-9.78843
▁رفعت	-9.79037
ميل	-9.7907
▁دخلت	-9.79087
▁عدل	-9.7911
▁سال	-9.79126
▁غضبي	-9.79133
▁ملكه	-9.79156
▁الرئيس	-9.79326
▁اصاب	-9.79372
▁اجد	-9.79432
▁السحاب	-9.7957
كذب	-9.7967
▁سمعتم	-9.79736
▁شبا	-9.79786
ضرب	-9.7982
▁الاثني	-9.79826
▁يخل	-9.79932
▁بشيء	-9.80144
▁البعل	-9.80146
▁ورد	-9.80146
قضيب	-9.80151
▁مزمع	-9.80152
▁التقدمة	-9.80154
العبراني	-9.80171
بائس	-9.80182
لذلك	-9.80187
▁اسلم	-9.80199
▁عرض	-9.80205
▁جناح	-9.80215
تشدد	-9.80217
▁بكلمة	-9.80298
▁لشعب	-9.80313
شاي	-9.80396
▁الاشياء	-9.80408
▁امامهم	-9.8049
▁لج	-9.80527
▁اسرع	-9.80572
▁فهرب	-9.80581
▁المشرق	-9.80593
▁وذبح	-9.80739
▁الجاهل	-9.80748
▁وبنوه	-9.80773
ياس	-9.80806
▁وحمل	-9.80852
يهود	-9.80888
▁رحمة	-9.80908
▁لملوك	-9.81039
▁بق	-9.81177
▁فانا	-9.81226
▁يرت	-9.81329
جري	-9.81544
▁اصغ	-9.81643
▁الجوع	-9.81678
▁حدث	-9.81716
▁فوقف	-9.81718
نتظر	-9.81916
صيد	-9.81918
خفي	-9.82013
▁ذي	-9.82055
▁نصب	-9.82064
▁امين	-9.82103
▁وسمعت	-9.82167
▁يقر	-9.82191
ائد	-9.82251
رنم	-9.82279
سفك	-9.82457
▁سمعنا	-9.82558
شاء	-9.82641
▁بلاد	-9.82723
▁واللاويين	-9.82769
▁تسبيح	-9.82769
▁الجموع	-9.82771
▁لانفسكم	-9.82771
▁ذاهب	-9.82771
▁اثنتي	-9.82771
▁الابواب	-9.82772
▁القتال	-9.82778
▁وسكان	-9.82778
▁ملتوت	-9.82782
▁ووجد	-9.8279
ذهاب	-9.82807
▁رحمتك	-9.82839
▁آكل	-9.82877
▁الحر	-9.82906
▁مبغضي	-9.8292
▁الغرباء	-9.82923
▁امسك	-9.83002
▁فاخرج	-9.83097
حراسة	-9.83109
▁حارس	-9.83112
▁امامكم	-9.8316
▁مدينته	-9.83309
▁شهادة	-9.83327
▁ذنوب	-9.83396
▁يبغض	-9.83432
▁فيكم	-9.83481
▁وسل	-9.83573
▁امم	-9.83577
▁ورأيت	-9.83601
▁وعر	-9.83654
▁يحيا	-9.83687
▁كامل	-9.83702
▁محبة	-9.83779
جرب	-9.83893
▁وأمر	-9.8394
▁دعوا	-9.84004
▁يقطع	-9.84027
سى	-9.84058
▁اخوة	-9.84086
▁وكتب	-9.84156
▁كتب	-9.84244
▁امي	-9.84299
▁تعد	-9.84393
▁لابن	-9.84491
ترس	-9.84669
▁كتبت	-9.84748
▁فدع	-9.84785
نعم	-9.84811
▁حزن	-9.84843
▁وخمسون	-9.84857
▁دمه	-9.84865
▁وغش	-9.84898
صفح	-9.84986
▁قرون	-9.85016
▁وكال	-9.85029
▁يأكلون	-9.85041
▁فاست	-9.85259
▁زيت	-9.85263
▁جاءت	-9.85285
▁يطرد	-9.85373
▁جبابرة	-9.85472
▁وابتدأ	-9.85472
▁واسرائيل	-9.85472
▁بيسوع	-9.85472
▁الحكيم	-9.85474
▁القدير	-9.85474
▁قادش	-9.85475
نجاسة	-9.85479
▁فخذ	-9.85481
نفخ	-9.85486
رسالة	-9.85497
▁اترك	-9.85502
▁فرق	-9.85506
▁الجلد	-9.85514
▁كاهن	-9.85523
▁الرامة	-9.85535
▁الحكماء	-9.85545
▁شي	-9.85579
▁المسكين	-9.85609
▁طرح	-9.85618
رئيس	-9.85655
▁عهدي	-9.85742
زداد	-9.85762
▁جبعون	-9.85781
▁الملائكة	-9.85827
▁الكنعانيين	-9.85989
▁يحسب	-9.86075
قاد	-9.86118
▁وتحت	-9.86154
▁الابدية	-9.8624
▁وشرب	-9.8625
▁وتبع	-9.86297
طار	-9.863
▁بفرح	-9.86412
▁بت	-9.86422
▁كلامه	-9.86439
▁فاذ	-9.86489
ختار	-9.86518
▁صي	-9.86556
▁عبدا	-9.86563
خدع	-9.8657
▁الكذب	-9.8665
▁يفرح	-9.86663
▁اعمل	-9.86743
▁جمال	-9.86751
مته	-9.86849
راعي	-9.86911
▁دما	-9.86966
▁مجده	-9.86992
▁قالت	-9.8713
▁لوط	-9.87279
▁الظلم	-9.87316
▁والشر	-9.87354
▁عشب	-9.8747
▁ابوابك	-9.87524
وبة	-9.876
▁حوله	-9.87844
▁عيب	-9.88019
▁الثالثة	-9.88048
سيل	-9.88146
▁مقدسة	-9.88159
▁آذان	-9.88233
▁مذابح	-9.8825
▁حشبون	-9.8825
▁زبولون	-9.8825
▁الموجود	-9.8825
▁امصيا	-9.88255
▁صلب	-9.88257
▁ارسله	-9.88259
▁خادم	-9.88267
▁شمعون	-9.88268
▁مديان	-9.8827
▁ومضى	-9.8827
▁جدعون	-9.88272
▁حماة	-9.88272
اعمدة	-9.88302
▁خراف	-9.88304
▁نازل	-9.88327
▁تترك	-9.88348
زلزل	-9.88397
▁الوحش	-9.88411
دهش	-9.8844
▁خلق	-9.88478
▁مختار	-9.88515
▁يأتون	-9.88591
تواضع	-9.88661
وضع	-9.88663
▁تريد	-9.88771
▁ممالك	-9.88805
▁تصعد	-9.88822
▁بحد	-9.88839
فس	-9.8885
▁واكثر	-9.88858
▁سبب	-9.88871
▁ساعة	-9.88881
▁صادق	-9.8896
▁يسأل	-9.88974
▁ارز	-9.89039
▁طرد	-9.89093
▁يظهر	-9.89114
▁يغسل	-9.89115
▁يفتح	-9.89142
مثل	-9.89147
▁وحم	-9.89206
▁واعطاه	-9.89282
حون	-9.89296
▁تخافوا	-9.89354
▁تحمل	-9.89388
▁جث	-9.8944
▁برجل	-9.89488
وهما	-9.89496
عمق	-9.89505
راري	-9.89554
▁بماذا	-9.89586
▁اضع	-9.89589
▁وولدت	-9.89664
▁والي	-9.89898
▁ويش	-9.89925
▁جالسا	-9.89996
▁وسجدوا	-9.90206
▁اخوتهم	-9.9022
▁عالي	-9.90257
▁السبع	-9.90317
▁وقع	-9.90333
تقد	-9.90361
▁يلق	-9.90458
ازار	-9.90516
▁سبت	-9.90587
▁ومل	-9.90657
▁بدون	-9.90713
▁حمي	-9.9075
▁لاله	-9.90816
▁صرخ	-9.90862
▁منظر	-9.90866
ساب	-9.90893
▁وحارب	-9.90931
▁وخر	-9.90949
▁الكروب	-9.91042
▁غريب	-9.911
▁زكريا	-9.91107
▁لابراهيم	-9.91107
▁الاحياء	-9.91107
▁المصفاة	-9.91107
▁آحاز	-9.91107
▁لبعض	-9.91109
▁حاشا	-9.91112
▁الفقير	-9.91115
▁يزرعيل	-9.91129
▁وملوك	-9.91134
▁خروف	-9.91136
▁يمكن	-9.91138
▁للقائه	-9.91143
الخراف	-9.91203
▁يونان	-9.91213
▁والشعب	-9.91267
▁طوله	-9.91295
▁واكل	-9.91304
▁واضطجع	-9.91344
الة	-9.91358
▁يتبع	-9.91358
انفس	-9.91368
▁للانسان	-9.91382
▁فك	-9.91405
▁وذبائح	-9.91611
▁حص	-9.91646
▁حياته	-9.91654
▁علامة	-9.9167
▁بقي	-9.91745
عان	-9.91772
▁ويأخذ	-9.91792
فتكر	-9.9186
▁ويضع	-9.91896
▁الحصاد	-9.91908
نجوم	-9.91939
▁رجعت	-9.91972
▁وامسك	-9.91983
▁الاسد	-9.91991
▁حفر	-9.92062
▁صو	-9.92063
▁اخطأت	-9.92085
▁هما	-9.92128
▁نسي	-9.92128
▁انزل	-9.92222
▁وصاياه	-9.92243
▁اذني	-9.92244
طال	-9.92266
▁فحم	-9.92292
▁حلق	-9.92296
▁القاتل	-9.92387
ثوب	-9.92435
▁رمم	-9.92453
افة	-9.92461
▁يدع	-9.9254
ضطجع	-9.92675
▁ودفن	-9.92677
▁يعرفون	-9.92701
▁وحق	-9.92809
▁واخي	-9.92904
▁كاملا	-9.93051
▁مستقيم	-9.9311
▁الصخر	-9.93137
▁يبني	-9.93176
▁ارجل	-9.93249
▁بيتا	-9.93252
▁آخذ	-9.93329
▁الزيت	-9.93364
▁يغ	-9.93457
▁رؤوسهم	-9.93526
▁ترت	-9.93666
▁بطن	-9.93697
جرح	-9.93825
▁يتكلمون	-9.93915
▁وبه	-9.94018
دائرة	-9.94059
▁شمشون	-9.94059
▁والحق	-9.94067
▁الرداء	-9.94069
▁اوريا	-9.94081
▁تقل	-9.94101
زعج	-9.94104
امتعة	-9.94132
فقراء	-9.94135
▁رجس	-9.94172
مغارة	-9.94178
▁للرجل	-9.9418
▁ابديا	-9.94196
▁تز	-9.94224
جيش	-9.94238
▁مرتفعات	-9.94266
▁قوته	-9.94364
▁الرؤيا	-9.94401
▁احببت	-9.94435
▁وتقول	-9.94564
▁واوص	-9.94588
أمر	-9.94606
▁وزيت	-9.94611
▁رعب	-9.94657
▁ولت	-9.94684
▁عملا	-9.94696
▁والام	-9.94722
قطيع	-9.94724
▁كرسيه	-9.9473
عيد	-9.94753
▁ورب	-9.94765
▁واخت	-9.94765
▁ارجعوا	-9.94796
▁ونح	-9.94814
▁وسطكم	-9.94868
▁تعود	-9.94908
▁عيناك	-9.94922
▁وجوه	-9.94988
▁فكل	-9.95124
صمت	-9.95181
▁تهلك	-9.9521
▁وفرح	-9.95253
▁بري	-9.95301
▁تضع	-9.95344
▁شهود	-9.95418
▁حفظ	-9.95453
سور	-9.95458
▁الكتب	-9.95477
▁العشر	-9.95512
اثنان	-9.95547
▁غش	-9.95706
▁شك	-9.95708
▁نصيبا	-9.95834
لعنة	-9.95837
▁وحسب	-9.95837
ولي	-9.95871
▁تخاف	-9.95892
▁وقلب	-9.95927
▁فرائضي	-9.95945
▁واقفا	-9.95956
حائط	-9.96002
▁رق	-9.96021
ثقل	-9.96095
حطم	-9.9613
نتخب	-9.96173
▁اثني	-9.96318
▁وملأ	-9.9648
▁عشرون	-9.96543
▁زنا	-9.96651
▁واربعين	-9.96714
▁طلبت	-9.96783
▁لحما	-9.96802
▁ليعقوب	-9.97078
▁عماليق	-9.97078
▁وعجائب	-9.97078
▁اجتاز	-9.97079
▁اشجار	-9.97079
▁سعير	-9.97079
▁فولدت	-9.97081
▁اخزيا	-9.97092
▁فهذا	-9.97095
قيامة	-9.97111
▁سيحون	-9.97123
▁آيات	-9.97131
جدليا	-9.97131
▁اسوار	-9.97144
▁اعمالك	-9.97177
▁جميل	-9.97189
▁استيقظ	-9.97278
▁ميراثا	-9.97288
▁مخدع	-9.97359
▁اعدائهم	-9.97395
▁فاسمع	-9.97457
▁اوصيت	-9.97511
▁يوآش	-9.97547
وحوش	-9.97561
▁فدور	-9.97628
▁باسمك	-9.97658
▁بالله	-9.97669
▁آت	-9.97734
▁والذهب	-9.97874
▁واقطع	-9.97912
▁حكيم	-9.97984
طردهم	-9.98032
▁فعمل	-9.9808
قهات	-9.98152
▁يحكم	-9.98194
لسبط	-9.98195
طرب	-9.98271
▁واربعون	-9.98278
▁وسر	-9.98314
▁تقوم	-9.9833
فتحت	-9.98381
ربط	-9.98452
▁افرح	-9.98474
▁المعرفة	-9.98477
▁اكمل	-9.98582
راقب	-9.98745
▁مسيح	-9.98749
▁الحجارة	-9.98773
▁فج	-9.98812
▁قدسه	-9.98815
شقق	-9.98909
العشرين	-9.98918
▁صادوق	-9.98921
▁الفلسطيني	-9.98983
▁جوع	-9.99004
▁واسمع	-9.99006
فلت	-9.99009
ورش	-9.9901
▁وترك	-9.99065
▁ثلث	-9.9908
▁يقل	-9.99092
داء	-9.99106
▁فضلا	-9.99113
▁سارة	-9.99123
يقين	-9.99146
▁جو	-9.99171
▁يكف	-9.99244
▁وسم	-9.99361
▁ولاجل	-9.9937
▁عالم	-9.99494
▁نبو	-9.99503
▁شرير	-9.99535
▁فيقول	-9.99637
▁الاخير	-9.99641
▁وجب	-9.99723
▁السابعة	-9.9992
▁تد	-9.99927
▁فقل	-9.99936
▁رأت	-9.99978
▁عينا	-10.0008
▁اخوك	-10.0017
وكم	-10.0017
زعزع	-10.002
▁آبائنا	-10.002
▁الخطايا	-10.002
▁لفرعون	-10.002
▁عجائب	-10.002
▁الوسط	-10.0021
▁سيناء	-10.0021
▁للامم	-10.0022
▁الوعر	-10.0022
▁رديء	-10.0023
عوبيد	-10.0024
▁اتبع	-10.0024
▁ويعطي	-10.0027
وجع	-10.0027
▁الشحم	-10.0028
ذراع	-10.0028
لاحظ	-10.003
▁تشدد	-10.0033
▁واقم	-10.0039
▁جميعكم	-10.0041
▁العدل	-10.0041
▁آخرين	-10.0042
▁شرب	-10.0047
▁ولبني	-10.005
▁آبائكم	-10.0052
▁صخرة	-10.0055
▁ولست	-10.0057
▁فوضع	-10.0058
▁الفتاة	-10.006
▁وانقذ	-10.0062
▁الحال	-10.0063
لواتي	-10.0064
▁غز	-10.0068
تضرع	-10.007
▁وقر	-10.0073
▁يزيد	-10.0075
▁وبقر	-10.008
بلغ	-10.0081
▁ويخرج	-10.0086
▁فرفع	-10.009
جاوب	-10.0091
▁وكثير	-10.0094
▁اعينكم	-10.0096
رمل	-10.0096
▁يذكر	-10.0099
▁بنا	-10.0099
▁لتكون	-10.0099
▁قتلى	-10.0103
▁اباك	-10.0104
▁للموت	-10.0107
▁الحنطة	-10.0108
▁ورجل	-10.0112
▁الحائط	-10.0133
▁كلمت	-10.0137
الواح	-10.0142
▁تقتل	-10.0145
▁تجار	-10.0147
▁اقيم	-10.0148
قيل	-10.015
▁عيونهم	-10.0155
▁برص	-10.0156
شتا	-10.0164
تموني	-10.0168
▁وكسر	-10.0174
▁بيتي	-10.0192
لتمس	-10.0197
تراب	-10.0205
▁الخلاص	-10.0207
كلم	-10.0211
اهما	-10.0218
مقت	-10.0225
▁رحم	-10.0226
▁المطر	-10.0226
جة	-10.0228
▁ونس	-10.0239
سنة	-10.0241
▁نجسة	-10.0244
▁سبل	-10.0245
▁وراءهم	-10.0252
▁جديد	-10.0255
▁صعدت	-10.0278
▁ترون	-10.0284
▁جلس	-10.0284
▁ورق	-10.0288
▁واله	-10.0289
▁اتكل	-10.0304
قضى	-10.0305
▁ملأ	-10.0307
▁ناد	-10.0314
▁وامه	-10.0317
▁الكثير	-10.0323
▁وكن	-10.0324
▁تعرفون	-10.0332
ارتفاع	-10.0334
▁فتن	-10.0337
نبوخذراصر	-10.0343
▁احشويروش	-10.0343
▁واللاويون	-10.0343
▁يهوياقيم	-10.0343
▁ابليس	-10.0343
▁وبنيامين	-10.0343
▁خيمته	-10.0343
▁الحيوانات	-10.0343
▁فراش	-10.0344
وقف	-10.0344
▁الوراء	-10.0345
▁شو	-10.0345
▁اقصى	-10.0345
تبارك	-10.0346
▁شديدة	-10.0346
▁رسول	-10.0347
▁قورح	-10.0348
اغصان	-10.0348
▁شحم	-10.0356
وليمة	-10.0357
نذر	-10.0362
▁اخوتكم	-10.0386
السهل	-10.0397
▁واخو	-10.0399
اغفر	-10.0403
▁الوجوه	-10.0404
▁وجوههم	-10.0407
▁الظلام	-10.0411
▁البن	-10.0414
▁الأ	-10.0414
▁وابنا	-10.0415
مدينة	-10.0416
▁ينقذ	-10.0417
▁ويعمل	-10.0421
ستعبد	-10.0425
▁بنوه	-10.0432
▁اكليل	-10.0434
▁ليعمل	-10.0435
▁الكثيرة	-10.044
اماكن	-10.0451
▁يلبس	-10.0461
▁دع	-10.047
▁جسدي	-10.0475
▁السر	-10.0479
▁مراري	-10.0479
▁وعاد	-10.0491
▁ويرد	-10.0491
شاة	-10.0493
▁اجتمعوا	-10.0506
مجيء	-10.0506
▁حط	-10.0507
▁غنى	-10.0512
▁فانك	-10.0513
▁النجس	-10.0516
▁اهلك	-10.0521
▁وانظروا	-10.0526
جتمع	-10.0529
▁ولماذا	-10.0534
داس	-10.0536
▁وشر	-10.0538
خطف	-10.054
▁قربانه	-10.0568
▁جت	-10.0576
مزق	-10.0577
حرس	-10.0581
▁ساق	-10.059
نير	-10.0594
عشار	-10.0601
تكئ	-10.0606
لآخر	-10.0611
▁اعينهم	-10.0635
سكين	-10.0638
▁وعلم	-10.0641
▁تراب	-10.0651
▁وحش	-10.0675
▁الرعاة	-10.0676
▁المكتوب	-10.0676
▁ملآن	-10.0676
▁كباش	-10.0677
▁الانهار	-10.0677
▁العاشر	-10.0677
▁حضن	-10.0677
▁كاذب	-10.0677
▁قصور	-10.0677
▁الصبح	-10.0677
▁الجهال	-10.0678
▁بقوة	-10.0678
▁وصايا	-10.0679
▁بخورا	-10.068
▁فرغ	-10.0681
▁الكاس	-10.0683
▁العرش	-10.0684
تمجد	-10.0685
▁حلقيا	-10.0686
▁يناد	-10.0686
▁مكر	-10.0688
نسل	-10.0688
▁بش	-10.0689
▁الانجيل	-10.0694
▁وخمر	-10.0698
سوء	-10.0699
منون	-10.07
▁والآخر	-10.0701
▁امك	-10.0702
▁قتلا	-10.0702
▁ظلام	-10.0707
توكل	-10.0713
▁وحدي	-10.0725
لج	-10.0727
▁خدم	-10.073
▁فاعلم	-10.0733
ربض	-10.0737
جهل	-10.0738
ضمير	-10.0738
▁يدعون	-10.0742
▁يهرب	-10.075
▁واض	-10.0753
▁الباقين	-10.0753
▁ايديكم	-10.0754
▁ايامه	-10.076
▁تسقط	-10.0764
آل	-10.0764
▁الزيتون	-10.0765
الاخرى	-10.0769
بعد	-10.0777
يعزر	-10.0784
▁يجر	-10.0788
▁تحي	-10.0793
▁فضل	-10.0795
▁وناد	-10.0797
▁تلاميذ	-10.0807
طارد	-10.0809
▁يحملون	-10.0815
البركة	-10.0818
اؤك	-10.0836
▁شمعي	-10.0843
▁السحابة	-10.0845
باء	-10.0846
نعمة	-10.0859
▁تمام	-10.0866
▁أر	-10.0866
▁ولن	-10.0867
▁صوتا	-10.087
▁الاربع	-10.0871
سائر	-10.0873
▁اعماله	-10.0879
▁اخيك	-10.088
عجلة	-10.0885
▁خر	-10.0893
ولد	-10.0898
▁الاربعة	-10.0899
▁اجرة	-10.09
▁حفظت	-10.0904
▁ضربت	-10.0912
▁حكيما	-10.0919
مائدة	-10.0926
▁صحيحا	-10.093
▁ورجاله	-10.0933
▁لبنا	-10.0935
▁الحسن	-10.096
▁كي	-10.096
▁زب	-10.0964
ويل	-10.098
▁اغ	-10.0983
▁ويت	-10.0984
دموع	-10.0999
▁وضعت	-10.1003
▁الشق	-10.1004
تقوى	-10.1007
▁الحم	-10.1008
▁الفريسيون	-10.1021
يؤخذ	-10.1021
▁شيلوه	-10.1021
▁البئر	-10.1021
▁اقاصي	-10.1021
خاطئ	-10.1021
▁القلوب	-10.1021
▁الوصية	-10.1021
▁ويوحنا	-10.1022
▁توجد	-10.1022
▁عال	-10.1022
هوشع	-10.1023
▁اقبل	-10.1023
▁النازل	-10.1024
▁عش	-10.1024
▁الوف	-10.1025
▁ترنيم	-10.1025
▁باس	-10.1029
▁تعليم	-10.1031
▁رفض	-10.1034
افعال	-10.1034
▁عاي	-10.1038
▁ثمانية	-10.1042
▁وعرضه	-10.1045
▁قضاء	-10.1048
حننيا	-10.1049
▁فاقام	-10.1049
محبة	-10.1052
▁حمار	-10.1052
أتون	-10.1056
▁ويوقد	-10.1066
▁امس	-10.1068
لسنا	-10.1068
جود	-10.1072
خزى	-10.1086
▁حقول	-10.1092
▁تبق	-10.1093
▁سبا	-10.1096
▁بغضب	-10.11
وبخ	-10.1104
آخذ	-10.1106
▁نظرت	-10.1109
▁دب	-10.1114
▁قرع	-10.1114
▁مرار	-10.1121
▁رؤيا	-10.1125
▁حبل	-10.1132
▁يعملون	-10.1132
▁افتح	-10.114
▁قريبه	-10.114
▁يشبع	-10.1143
غار	-10.1143
▁تشرب	-10.1146
▁ابينا	-10.115
سافر	-10.1151
▁بيدك	-10.1154
▁محر	-10.116
▁قوي	-10.1164
▁وابنه	-10.1171
عيش	-10.1189
▁اثما	-10.1193
▁الشرط	-10.1194
قمر	-10.1195
▁فيلبس	-10.1196
▁اجلس	-10.1196
▁نفسها	-10.1201
▁ولحم	-10.1222
▁عمي	-10.1225
▁وتقدمته	-10.1241
ساء	-10.1244
▁القدم	-10.1252
تمسك	-10.1259
▁عليهما	-10.1262
▁تفعلون	-10.1264
▁رجلها	-10.1271
▁عمود	-10.1283
▁تأكلون	-10.1296
قطر	-10.13
▁تلد	-10.1306
▁فكم	-10.1311
▁صالحة	-10.1315
▁ورم	-10.1319
▁افواه	-10.1321
▁وامام	-10.1327
▁خرب	-10.1347
كرز	-10.1353
ستهزئ	-10.1363
▁واعطيت	-10.1378
▁والانبياء	-10.1378
▁ثابت	-10.1378
▁الاحباء	-10.1378
▁الجديد	-10.1379
▁اجيالكم	-10.1379
▁يختاره	-10.1379
▁واولاد	-10.1379
▁الكلمات	-10.1379
▁اضرب	-10.138
▁ثبت	-10.1381
▁واسلم	-10.1383
▁وغنم	-10.1385
▁حياتي	-10.1389
▁الصانع	-10.1389
▁القتلى	-10.139
▁يرحم	-10.1393
فار	-10.1407
▁آساف	-10.1408
▁فانطلق	-10.1408
▁رجاسات	-10.1409
▁وياخذ	-10.1415
منطقة	-10.1416
▁اسمها	-10.1418
▁المصريون	-10.142
نابا	-10.1424
▁فاعطاه	-10.1425
▁فرحا	-10.1427
▁سرير	-10.1428
▁الفرح	-10.143
▁شمس	-10.1433
هذه	-10.1434
مذبح	-10.1442
▁عملوا	-10.145
▁وحص	-10.1454
▁أتيت	-10.1455
▁تسلك	-10.1461
▁واعمل	-10.1468
▁يدين	-10.1469
▁يخدمون	-10.1473
سكوت	-10.1478
▁رأيتم	-10.148
▁مدنهم	-10.1481
▁مظل	-10.1484
▁وحين	-10.1487
▁يشهد	-10.1493
▁يجمع	-10.1496
▁دام	-10.1498
▁ثيابهم	-10.1508
الخمر	-10.1516
ذبيحة	-10.1519
عثرة	-10.1523
▁رجالا	-10.1524
▁وعرف	-10.1532
وحي	-10.154
ساقط	-10.1549
▁ينزع	-10.1549
ائب	-10.1552
غطاء	-10.1557
▁بيدي	-10.1567
▁ولكنه	-10.157
▁عزريا	-10.1571
▁يعو	-10.158
باط	-10.1582
▁اسكن	-10.1584
▁يتم	-10.1587
بيض	-10.1587
▁الام	-10.1611
▁سام	-10.1611
▁حية	-10.1625
▁ومدن	-10.1645
انسان	-10.1656
▁يخدم	-10.1659
▁خدمته	-10.1667
حاج	-10.1673
▁فكر	-10.1675
كنيسة	-10.1677
▁وارجع	-10.1689
بتلع	-10.1691
سخ	-10.1699
صوت	-10.1701
▁ونع	-10.1706
▁حوالي	-10.1713
▁فانهم	-10.1717
▁الفريسيين	-10.1749
▁البدء	-10.1749
▁للكهنة	-10.1749
▁الشغل	-10.1749
ميثاق	-10.1749
▁الخروف	-10.1749
▁يكرم	-10.1749
▁لسبب	-10.1749
▁قبور	-10.175
▁وفرسان	-10.175
عصفور	-10.175
▁الختان	-10.175
▁مضايقي	-10.1751
صادف	-10.1752
شعل	-10.1755
▁وقاس	-10.1757
▁يشبه	-10.1758
▁اللوح	-10.1758
▁بفم	-10.1758
صالح	-10.1761
▁يخاف	-10.1762
▁رأينا	-10.1763
شيش	-10.1766
▁قبله	-10.1767
▁يبيد	-10.177
▁الفلك	-10.1773
▁يهودي	-10.1777
لمحاربة	-10.1784
▁جيل	-10.1785
▁جبار	-10.1787
▁حكماء	-10.1788
تلف	-10.179
▁وحدك	-10.1793
اليتيم	-10.1804
ريس	-10.1804
▁بروح	-10.1804
▁فجعل	-10.1806
▁قاس	-10.1807
خضر	-10.1819
▁يمشي	-10.1826
حصاد	-10.1827
▁تحسب	-10.1831
▁سحاب	-10.1837
▁قلبهم	-10.1847
▁إ	-10.1855
▁عزر	-10.1862
لحق	-10.1863
▁مجدا	-10.1863
▁قرعة	-10.1863
▁وتيس	-10.1874
▁فأكل	-10.1875
▁تنس	-10.1878
عمود	-10.1879
كتابة	-10.1885
▁سبعون	-10.1885
▁شفت	-10.1891
▁المثل	-10.1892
▁ورا	-10.1897
اتكم	-10.1897
▁المنظر	-10.19
▁للوقت	-10.1901
▁جثث	-10.1903
▁سفن	-10.192
▁والله	-10.1922
▁فدفع	-10.193
▁طريقك	-10.193
▁عصي	-10.1932
▁بدل	-10.1933
تذكر	-10.1933
شو	-10.1933
▁شمعيا	-10.1947
▁تسمعون	-10.1947
▁بهما	-10.1949
▁افن	-10.1956
▁تبع	-10.1957
▁نس	-10.1966
▁انهار	-10.1979
▁حسنة	-10.1994
▁تعملون	-10.2002
ثام	-10.2003
روت	-10.2005
▁يرض	-10.2031
حنطة	-10.2033
ثور	-10.2041
▁القوم	-10.2044
▁حاج	-10.2048
▁طيب	-10.2052
مدح	-10.2058
▁حار	-10.2066
خلع	-10.2075
▁شهد	-10.2089
ضربات	-10.2096
▁الميت	-10.2103
▁تكمل	-10.2114
▁اياك	-10.2115
وخ	-10.2127
▁لسليمان	-10.2133
▁مخارج	-10.2133
▁صروية	-10.2133
▁هللويا	-10.2133
▁تذكار	-10.2133
مصاريع	-10.2133
▁تستطيع	-10.2133
▁يؤكل	-10.2133
▁النهاية	-10.2133
▁وقرمز	-10.2133
▁سلاحه	-10.2133
▁القرعة	-10.2134
▁شمالا	-10.2134
▁جيوش	-10.2134
▁رفقة	-10.2134
▁قائد	-10.2134
الثياب	-10.2134
▁مملكته	-10.2134
لثيران	-10.2135
تكفير	-10.2135
▁فارغ	-10.2136
اعضاء	-10.2136
▁بهيمة	-10.2137
▁تجاه	-10.2137
▁الارز	-10.2137
▁يغفر	-10.2139
▁يمد	-10.2139
▁والشيوخ	-10.214
▁سراج	-10.2141
▁الخرب	-10.2143
▁شبع	-10.2144
▁وماذا	-10.2144
▁جنوب	-10.2145
▁والبحر	-10.2145
▁العشب	-10.2146
▁ألست	-10.2147
▁البوق	-10.2149
▁اتخذ	-10.2155
▁الخدمة	-10.2157
باروخ	-10.2158
▁وخل	-10.2159
▁وسلام	-10.2163
▁خمسون	-10.2166
▁الغلمان	-10.2167
البعض	-10.2169
▁قمح	-10.217
▁يحد	-10.2171
▁المركبات	-10.2182
▁قبلا	-10.2187
ائف	-10.2188
▁يفعلون	-10.2188
▁البنين	-10.2196
▁افواههم	-10.2197
▁وتعمل	-10.2197
▁شجر	-10.221
▁اقامه	-10.2211
▁غلمان	-10.2219
▁ويأتي	-10.222
▁ليئة	-10.222
نادى	-10.2221
نكون	-10.2222
▁مقدسا	-10.2228
▁يذبح	-10.2231
▁حبيبي	-10.2241
▁للشر	-10.2245
▁طيور	-10.2247
▁بعدد	-10.2248
▁قوس	-10.2248
▁لعمل	-10.2248
▁أتوا	-10.225
▁حصن	-10.2251
▁تقف	-10.2256
رعى	-10.2257
▁باد	-10.2259
ثمانية	-10.2261
لمس	-10.2262
يهوشافاط	-10.2268
امرأة	-10.2271
▁اعبر	-10.2271
▁يجيب	-10.2273
▁سبيل	-10.2278
▁يحارب	-10.2278
▁فملك	-10.2282
▁محص	-10.2287
▁دخان	-10.2292
▁اشرب	-10.2296
▁وقب	-10.2296
▁تقطع	-10.2304
▁حارب	-10.2314
▁يبس	-10.2316
▁ياكلون	-10.2318
▁امض	-10.232
▁الحديد	-10.2325
▁العاز	-10.2328
▁فاعلي	-10.233
▁اقطع	-10.2332
رضى	-10.2335
▁اكلت	-10.2342
ؤدب	-10.2345
رعب	-10.235
▁لابس	-10.2355
عتمد	-10.2364
▁أب	-10.2365
▁يرث	-10.2365
▁وارد	-10.237
▁بعيدة	-10.2371
طيب	-10.2388
▁حضر	-10.239
رمي	-10.2407
لصق	-10.2413
▁نع	-10.2415
▁المقدسة	-10.242
▁يمينه	-10.2434
▁القديم	-10.2437
▁عدم	-10.2438
الكتبة	-10.2439
▁ذكرا	-10.2444
حداث	-10.2455
قيود	-10.2463
▁الداخلي	-10.2474
▁اثمهم	-10.2481
▁يسب	-10.2483
▁باخ	-10.2488
▁حراس	-10.2501
استقامة	-10.252
▁العط	-10.2525
▁أخر	-10.2527
▁والعشر	-10.2528
ذوب	-10.253
▁بعشا	-10.2532
الفرائض	-10.2533
▁مواليد	-10.2533
▁الدائمة	-10.2533
▁مفتوح	-10.2533
▁وثياب	-10.2533
▁وعسلا	-10.2533
▁نذور	-10.2533
▁شهوة	-10.2533
▁وداود	-10.2534
▁المركبة	-10.2534
▁الحادي	-10.2535
▁ترشيش	-10.2536
▁حافظ	-10.2536
▁آنيته	-10.2536
▁اكرم	-10.2536
▁البطن	-10.2537
▁ارنون	-10.2537
▁وشمعي	-10.2537
▁ثقيل	-10.2537
▁مخاف	-10.2537
▁اعمى	-10.2538
تأمل	-10.2539
▁يعثر	-10.2539
▁الشياطين	-10.2541
زاباد	-10.2543
▁الشوك	-10.2544
▁بالابواق	-10.2546
▁البيوت	-10.2547
▁موتا	-10.255
▁نباط	-10.2551
▁وليلا	-10.2552
▁المساكين	-10.2553
▁اخيرا	-10.2553
▁الامة	-10.2561
▁واوقف	-10.2565
▁لابي	-10.2574
▁شرقي	-10.2576
▁ابوك	-10.2577
▁اعداؤ	-10.2579
▁بمثل	-10.2582
▁فترك	-10.2587
▁وقدم	-10.2593
▁ادعو	-10.2596
▁ذوات	-10.2599
هيئ	-10.2602
▁ايمانكم	-10.2602
▁تمثال	-10.2606
كملت	-10.2607
▁الكروبيم	-10.2608
▁يتسلط	-10.2609
▁واجمع	-10.2609
▁صحيحة	-10.2609
▁ابعد	-10.261
▁يمس	-10.2611
▁تبصر	-10.262
▁القول	-10.2622
▁حجرا	-10.2628
▁القديمة	-10.2631
▁يعلمون	-10.2632
▁يخرجون	-10.2632
▁ورجال	-10.2638
▁هلاك	-10.2642
▁وبكل	-10.2642
▁مستديرا	-10.2642
دبير	-10.2644
▁فلت	-10.2645
▁قرن	-10.2648
▁نصيبه	-10.2649
▁مراحم	-10.2653
▁نهب	-10.2657
▁لقول	-10.2665
▁الصخرة	-10.2667
▁غريبة	-10.2669
▁دون	-10.2669
▁اعود	-10.2669
▁تقبل	-10.2676
رؤوس	-10.2681
▁يدخلون	-10.2683
▁واضع	-10.2685
▁ادع	-10.2687
صاحب	-10.269
▁الاب	-10.2694
غلب	-10.2698
▁لاجلنا	-10.2704
▁طرقك	-10.2709
▁واثنان	-10.272
▁يملك	-10.2721
▁نوم	-10.2726
▁تسكن	-10.273
▁الرحمة	-10.274
▁سني	-10.2741
ثلث	-10.277
▁ابيض	-10.2779
ابل	-10.2781
▁ثوبه	-10.2787
▁غم	-10.2788
▁كبر	-10.2797
▁يمينك	-10.2807
▁حصر	-10.2809
ندم	-10.2818
▁تعطون	-10.282
منظر	-10.2843
ثار	-10.2844
▁وذهبوا	-10.285
▁السادس	-10.2853
▁مقد	-10.2866
▁وسلم	-10.2873
يلون	-10.2874
▁تخل	-10.2876
▁الشجرة	-10.2883
لتمثال	-10.2887
▁واضرب	-10.2889
▁اخوتك	-10.2917
جاد	-10.2922
▁تعل	-10.2925
▁اعمالهم	-10.293
فضل	-10.2931
▁ويرجع	-10.2936
▁التاسعة	-10.295
▁اليابسة	-10.295
▁شلوم	-10.295
▁وشيوخ	-10.295
▁ينبوع	-10.295
▁وارجوان	-10.295
▁الكبش	-10.295
▁الوصايا	-10.295
▁مسبوك	-10.295
▁شافان	-10.295
▁قبائل	-10.295
▁والنساء	-10.295
اصعاد	-10.295
▁مستحق	-10.295
▁بالبوق	-10.295
▁يابيش	-10.2951
▁ارملة	-10.2951
▁تفيض	-10.2951
▁كهذا	-10.2951
▁لتلاميذه	-10.2951
▁وقائد	-10.2952
يرتفع	-10.2952
▁انجيل	-10.2953
▁ملء	-10.2953
▁السنين	-10.2954
▁احرق	-10.2955
غناء	-10.2955
▁فالذي	-10.2955
▁رنموا	-10.2955
▁يساكر	-10.2955
▁خلاصي	-10.2957
▁اسنان	-10.2958
شهوات	-10.296
▁صوتي	-10.2961
▁تضرع	-10.2968
▁صرف	-10.2971
فرخ	-10.2972
▁انزع	-10.2973
▁الجند	-10.2973
▁خصي	-10.2979
الجمال	-10.298
▁اقتن	-10.298
▁سقطت	-10.2983
▁لابيه	-10.2994
▁البرد	-10.2996
▁بهائم	-10.2999
رجل	-10.3001
▁وتحفظ	-10.3006
شهاداتك	-10.3009
▁بطنه	-10.3009
▁ثمرا	-10.3012
جالس	-10.3013
▁شريعتك	-10.3015
▁نذهب	-10.3017
▁لاجلكم	-10.3019
▁تزرع	-10.3028
▁وافعل	-10.3038
ملكوت	-10.3039
▁يتنجس	-10.304
▁غضبك	-10.3042
▁مساء	-10.3056
▁طالبي	-10.3062
برئ	-10.3072
▁الغطاء	-10.3077
▁هات	-10.3082
غدر	-10.3085
▁ملائكة	-10.3088
▁قوية	-10.3093
▁وصاياي	-10.3099
داخل	-10.3099
▁تخبر	-10.3104
▁وستين	-10.3105
▁عارف	-10.3107
اسمانجوني	-10.3111
عظمة	-10.3113
صموئيل	-10.3116
عبيدك	-10.3118
ظهرت	-10.312
ستحي	-10.312
▁ابغض	-10.3121
▁باعمال	-10.3122
▁فسكن	-10.3136
▁فضت	-10.3138
▁كلمني	-10.3141
مياه	-10.3141
سماء	-10.3141
▁العيد	-10.3143
▁اخرجت	-10.3151
▁الصلاة	-10.3155
▁تجرب	-10.316
▁تبن	-10.3164
▁يصعدون	-10.3175
▁النس	-10.3175
تغط	-10.3179
▁فمد	-10.3183
▁انتظر	-10.3188
هيج	-10.3196
▁غط	-10.3203
▁صباح	-10.3205
ابواق	-10.3218
▁اسمانجوني	-10.3219
▁اخطأوا	-10.3224
▁العجل	-10.3239
▁ادفع	-10.324
▁ومد	-10.3242
▁عظمت	-10.3247
▁تصل	-10.326
▁تحر	-10.3265
▁اسر	-10.3277
▁ومسح	-10.3278
▁وعم	-10.3282
ريد	-10.3311
قترب	-10.3323
▁سيدك	-10.3327
▁خاف	-10.3338
▁ثقل	-10.3345
▁وحوش	-10.3347
حانان	-10.3349
▁بارا	-10.3354
▁بيوتا	-10.3372
▁ترد	-10.3383
▁زربابل	-10.3385
▁ايزابل	-10.3385
▁لآبائك	-10.3385
▁الجمهور	-10.3385
▁السماوي	-10.3385
▁ملجأ	-10.3385
▁احترز	-10.3385
▁مسامع	-10.3385
▁دينونة	-10.3385
▁نظير	-10.3385
▁الحبيب	-10.3385
▁فالتفت	-10.3385
▁المؤمنين	-10.3385
غتسل	-10.3385
بتدئ	-10.3385
▁زانية	-10.3385
▁الكامل	-10.3385
▁ليوسف	-10.3385
▁صاعد	-10.3385
▁راحة	-10.3386
▁بنهدد	-10.3386
لاولاد	-10.3386
▁الرجاء	-10.3386
▁كبش	-10.3386
ابتداء	-10.3386
▁جلال	-10.3388
تشاور	-10.3389
▁نعرف	-10.3389
▁دهرية	-10.339
▁طويل	-10.339
▁احتمل	-10.339
ابتهاج	-10.3392
▁نفسا	-10.3392
▁السمك	-10.3392
▁راعي	-10.3394
▁صدق	-10.3396
▁هدد	-10.3399
▁حيرام	-10.3399
سجف	-10.3403
عوض	-10.3404
معروف	-10.3405
▁وكذا	-10.3406
▁مواشي	-10.3407
يوحانان	-10.3408
▁يفتاح	-10.341
زمجر	-10.3411
▁لشاول	-10.3411
▁فخا	-10.3413
▁فحدث	-10.3415
زوايا	-10.3415
آلات	-10.3421
▁مضطجع	-10.3424
▁الجبابرة	-10.3428
▁قصب	-10.3429
كوى	-10.3429
▁قطعت	-10.3435
▁زاد	-10.3436
نقمة	-10.3436
▁والجوع	-10.3443
▁اجلب	-10.3445
▁باسمه	-10.3447
▁يحص	-10.3454
▁ينتظر	-10.3455
▁بغير	-10.3456
▁فحسن	-10.3463
ناموس	-10.3463
▁وانزل	-10.3465
▁يزرع	-10.3469
▁اخطأنا	-10.3478
▁وطرد	-10.3484
▁الكرمل	-10.3489
▁الداخلية	-10.3491
▁يزن	-10.3492
▁وبنايا	-10.3495
▁ترفع	-10.3498
▁وقص	-10.3505
▁ويذبح	-10.3505
▁تمسك	-10.3508
قارب	-10.3517
▁شيخ	-10.3519
▁تشبع	-10.3519
▁واسكن	-10.3523
▁فقتل	-10.3537
▁حصون	-10.3542
▁جيدا	-10.3547
شتعل	-10.3559
صادوق	-10.3567
▁احكامك	-10.3573
▁اعطوا	-10.3574
مسوح	-10.3575
كام	-10.3578
▁اقتل	-10.3596
ماكير	-10.3596
شاهد	-10.3602
▁السل	-10.3615
▁لاحد	-10.3616
▁بعيدا	-10.3633
▁فعلتم	-10.3634
حجب	-10.3642
▁تطلبون	-10.3649
▁حلفت	-10.3671
جور	-10.368
▁لعن	-10.3682
▁عيناي	-10.3693
عيون	-10.3707
▁يدفع	-10.3709
▁عينك	-10.371
▁حبيب	-10.3715
▁محت	-10.3719
عامل	-10.3749
▁يديك	-10.3754
دفعهم	-10.3757
▁انطلق	-10.3767
بكت	-10.3782
قاط	-10.3782
▁ويط	-10.3793
▁جيشه	-10.3794
▁كلمتك	-10.3799
▁الكو	-10.3817
زينة	-10.3822
▁رفضت	-10.3829
▁ومخ	-10.3836
▁فانكم	-10.3836
▁والبر	-10.3838
▁الموآبي	-10.3839
▁فآمن	-10.3839
▁رفيعة	-10.3839
▁ضياعها	-10.3839
▁ثيران	-10.3839
▁وعبيده	-10.3839
▁خيانة	-10.3839
▁لآسا	-10.3839
▁ناحية	-10.3839
اجنحة	-10.3839
▁العبيد	-10.3839
▁ادونيا	-10.384
▁الدهور	-10.384
▁تقويمك	-10.384
▁السنط	-10.384
▁يزول	-10.384
تجاوز	-10.384
▁خمير	-10.3841
▁فطيرا	-10.3841
▁عيلام	-10.3841
السلطان	-10.3841
▁ولسان	-10.3841
▁مريض	-10.3841
▁محفل	-10.3843
▁تشته	-10.3844
▁صلاتي	-10.3844
▁معروفا	-10.3844
▁الخبر	-10.3845
عظائم	-10.3845
▁يشفق	-10.3847
▁المخادع	-10.3847
▁التفت	-10.3848
▁والبهائم	-10.3848
تذمر	-10.385
▁بالمسيح	-10.3852
▁الحلم	-10.3852
▁وروح	-10.3853
▁الفطير	-10.3853
▁اعطاني	-10.3855
▁قصد	-10.3857
▁ونساء	-10.3861
▁وبكى	-10.3861
▁اساس	-10.3861
▁كروم	-10.3862
▁قوتي	-10.3864
عزيز	-10.3866
▁ظلما	-10.3867
▁القوس	-10.3869
▁فخاف	-10.3871
لبناء	-10.3873
▁والتي	-10.3876
كثير	-10.3877
اشتد	-10.3882
جلوس	-10.3884
▁هدم	-10.3894
معسيا	-10.3896
▁العربة	-10.3897
▁وتأكل	-10.3909
رياح	-10.3912
▁الملح	-10.3915
▁نقول	-10.3916
▁الازل	-10.3921
▁وبيد	-10.3921
▁يمت	-10.3922
▁ليصنع	-10.393
▁جيدة	-10.393
▁كذا	-10.393
سبعة	-10.3931
▁ويدخل	-10.3933
▁سلكت	-10.3936
تابوت	-10.394
▁نموت	-10.3941
▁بقلب	-10.3942
▁بكاء	-10.3942
▁فجلس	-10.3946
▁يذبحون	-10.3948
▁المعط	-10.3953
قميص	-10.3956
▁يشاء	-10.3956
▁يتقدم	-10.397
▁الطيب	-10.3972
تذلل	-10.3981
عروس	-10.3993
▁ساع	-10.3998
شعب	-10.3998
▁يسقطون	-10.4007
▁حاف	-10.4027
▁تفرح	-10.403
درجات	-10.4031
شفى	-10.4035
افرايم	-10.4048
▁احمل	-10.4052
▁ومئة	-10.4054
حياة	-10.4063
▁حصل	-10.4063
▁اغني	-10.4064
▁بنار	-10.4071
▁وليد	-10.408
▁يقومون	-10.4087
▁يعطيكم	-10.4092
▁عظامي	-10.4098
الكلمة	-10.4115
▁باق	-10.4116
▁خلف	-10.4125
▁باع	-10.4132
▁فاكل	-10.4132
▁ليلة	-10.4132
▁يقو	-10.4138
يوآب	-10.4144
▁قس	-10.4145
الكلام	-10.4159
▁اموت	-10.4173
▁وقفت	-10.4175
▁التاج	-10.4179
حيرة	-10.4191
▁مسل	-10.4202
مقدار	-10.4204
▁قلوب	-10.4206
▁خلص	-10.4218
بخور	-10.4237
▁نبيا	-10.4244
▁مدينت	-10.4245
▁اقمت	-10.425
▁فرع	-10.4273
▁مرتفع	-10.428
▁تقو	-10.4285
لشمس	-10.4289
▁اشته	-10.4299
دعوى	-10.4299
▁واخبروا	-10.4309
دعني	-10.4312
▁المرتفعة	-10.4315
▁لاستقبال	-10.4315
▁للاويين	-10.4315
اقوياء	-10.4315
▁وامرأته	-10.4315
▁احياء	-10.4315
▁نابوت	-10.4316
▁مبروم	-10.4316
▁اطراف	-10.4316
▁يوثام	-10.4316
▁شيطان	-10.4316
▁شوشن	-10.4316
▁ضارب	-10.4316
▁ثامار	-10.4316
▁شواقل	-10.4316
▁تخدم	-10.4316
▁تعيير	-10.4316
▁بوعز	-10.4316
شتغل	-10.4316
اقسام	-10.4316
▁العلاء	-10.4317
▁القادر	-10.4317
▁يصدق	-10.4318
▁الفرات	-10.4318
▁ايادي	-10.4319
مقاوم	-10.432
▁وفضة	-10.432
▁الكرام	-10.4322
▁القائم	-10.4325
▁القوة	-10.4328
▁فلست	-10.4329
▁المديانيين	-10.433
▁آلهتهم	-10.4332
ؤخر	-10.4332
▁للمسيح	-10.4333
▁قدميه	-10.4333
ابكار	-10.4336
▁القوي	-10.4338
▁آباؤكم	-10.4339
▁الحكم	-10.4341
يمضي	-10.4341
خيط	-10.4341
معصية	-10.4343
▁غربا	-10.4343
▁وحيث	-10.4344
▁الخارجية	-10.4345
▁واعطاهم	-10.4348
▁الاعمال	-10.4349
▁واجتمع	-10.4351
▁وتعال	-10.436
▁قتلت	-10.4361
استجب	-10.4362
▁وابيد	-10.4367
▁ارجو	-10.4367
▁تحرق	-10.4369
▁يحدث	-10.4369
▁واكتب	-10.437
▁يتنبأون	-10.4372
▁يكرز	-10.4373
▁عنقه	-10.4379
▁يضطجع	-10.4385
▁ويشوع	-10.4389
▁لكلام	-10.4393
▁ويسقط	-10.4393
▁فعلم	-10.4399
▁كورة	-10.4404
▁بمجد	-10.4407
عجول	-10.4409
▁لذ	-10.4411
▁اعاقب	-10.4417
▁اصرخ	-10.4419
▁اهرب	-10.443
▁ظاهر	-10.4432
▁تنال	-10.4433
حدث	-10.4434
▁الدين	-10.4435
▁والكتبة	-10.4449
▁فطلب	-10.4467
▁المائدة	-10.447
▁الصوت	-10.4471
▁صرخت	-10.4474
▁مستقيمة	-10.4476
لجميع	-10.4477
▁جوف	-10.4483
▁وشد	-10.4495
مسيح	-10.4496
▁ومثل	-10.4501
▁بمن	-10.4525
▁وخبز	-10.4527
▁اظهر	-10.4532
▁عددهم	-10.4554
عاج	-10.4557
شاقل	-10.4571
▁جيد	-10.4575
شاول	-10.4576
▁احل	-10.4583
▁نف	-10.4586
▁وستون	-10.4589
▁وكنت	-10.459
▁هربوا	-10.4598
جزع	-10.4608
▁تدين	-10.4608
▁الفرس	-10.4611
▁اعطيك	-10.4613
اثنين	-10.462
سرج	-10.4621
بكرا	-10.4629
▁نصيبهم	-10.4632
عوز	-10.4646
▁اثمار	-10.4666
أرسل	-10.4688
▁الحو	-10.4692
▁الكثرة	-10.4732
ثقة	-10.4741
▁آبائك	-10.4764
صغر	-10.4766
▁اعدائه	-10.4767
▁ووجه	-10.4778
▁والبس	-10.479
▁حف	-10.479
▁ابنته	-10.4794
لغنم	-10.4807
▁كاهنا	-10.481
▁العبودية	-10.4815
▁تأديب	-10.4815
▁فابتدأ	-10.4815
▁مكدونية	-10.4815
▁والفريسيون	-10.4815
▁وقواعدها	-10.4815
▁الخطاة	-10.4815
لتسبيح	-10.4815
▁النفوس	-10.4815
▁بواسط	-10.4815
▁شوارع	-10.4815
▁مضجع	-10.4816
▁البحار	-10.4816
▁يقاوم	-10.4816
▁عذراء	-10.4816
▁والزيت	-10.4816
عناثوث	-10.4816
▁وآتي	-10.4816
▁اجناد	-10.4816
اجساد	-10.4816
▁استمع	-10.4817
▁ويحرق	-10.4817
▁بالعدل	-10.4818
زقاق	-10.4819
▁ورائي	-10.4819
▁بسيف	-10.4819
▁العريس	-10.482
▁مائدت	-10.482
▁يقضي	-10.482
▁للناس	-10.4821
▁وواحد	-10.4821
▁ارواح	-10.4821
▁نابال	-10.4822
▁شفاه	-10.4823
▁سهام	-10.4823
▁دنس	-10.4823
▁كرامة	-10.4824
رؤى	-10.4824
▁زنى	-10.4825
▁الوالي	-10.4826
▁زبدي	-10.4827
▁الآبدين	-10.4827
▁قادر	-10.4827
▁فخل	-10.4828
المئات	-10.4833
▁جسم	-10.4833
▁مطمئن	-10.4839
الخمسين	-10.484
▁غنمي	-10.484
▁وهدم	-10.4842
▁وميش	-10.4843
▁قصر	-10.4847
▁تبني	-10.4852
▁صحيح	-10.4854
اخلص	-10.4859
ختبأ	-10.4859
▁مبغض	-10.4867
▁وانطلق	-10.4871
▁ورائه	-10.4873
▁واعد	-10.4873
▁متسلط	-10.4875
▁يستطع	-10.4876
▁فافعل	-10.4876
▁المدعو	-10.4879
▁يولد	-10.4882
▁والمغن	-10.4883
▁تخت	-10.4885
▁وقدام	-10.4886
▁نفعل	-10.4886
▁المنارة	-10.4887
حتم	-10.4892
▁اخوه	-10.4895
الزنى	-10.4902
▁حولها	-10.4909
ابطال	-10.491
▁وتضع	-10.491
▁ضي	-10.4911
بتعد	-10.4913
▁الامين	-10.4914
▁عدن	-10.4918
اكون	-10.4918
▁وقبل	-10.492
جرشون	-10.4922
لدينونة	-10.4923
▁ويسمع	-10.4924
▁ربوات	-10.4926
▁البخور	-10.4932
فارق	-10.4933
▁دفعت	-10.4936
▁فجمع	-10.4948
▁والبيت	-10.4952
▁رايت	-10.4952
خصم	-10.4958
▁زيتون	-10.4964
▁تجمع	-10.4969
▁اسد	-10.4977
▁ردي	-10.4978
▁سف	-10.4982
وريم	-10.4989
ياكين	-10.499
▁افتر	-10.4992
▁ينظرون	-10.4997
▁واحب	-10.4997
الاخيرة	-10.4997
▁خف	-10.4998
▁يكثر	-10.5009
▁يقسم	-10.5013
▁الولا	-10.5014
▁فست	-10.5016
▁واصغ	-10.5024
▁يثر	-10.5027
▁صغيرة	-10.503
امس	-10.5032
▁ارتد	-10.5033
سقف	-10.5045
▁جف	-10.5048
▁يذهبون	-10.5072
▁الهلاك	-10.5072
▁لحي	-10.5078
▁يعطى	-10.5079
غنى	-10.5087
▁فيرجع	-10.509
حجز	-10.5104
▁يرون	-10.5118
▁كمن	-10.5128
▁الدرج	-10.5138
▁اشد	-10.5145
الليل	-10.515
▁قامت	-10.5172
غريبا	-10.5177
▁القدر	-10.5203
▁سامع	-10.5213
كنائس	-10.5232
▁أمرت	-10.5237
قوى	-10.5252
▁وبلا	-10.5253
▁مرسل	-10.5273
ثلاثين	-10.5279
▁الكنعاني	-10.5297
▁الارامي	-10.5297
▁تجر	-10.5298
▁وابو	-10.5304
▁فرد	-10.5327
▁لعبيده	-10.5342
▁الذكور	-10.5342
▁ورؤساؤ	-10.5342
▁الأسود	-10.5342
▁الحاضر	-10.5342
▁نينوى	-10.5342
▁بالقرعة	-10.5342
▁يعاريم	-10.5342
▁البأس	-10.5342
▁لمحرقة	-10.5342
▁آباؤه	-10.5342
▁الآيات	-10.5342
▁الحطب	-10.5342
ضجيج	-10.5342
▁السعاة	-10.5342
▁ثروة	-10.5342
▁مئتين	-10.5342
▁اثنتا	-10.5342
▁لرجال	-10.5342
▁اجنبي	-10.5342
▁قضاة	-10.5342
▁يهوآحاز	-10.5342
▁جاهل	-10.5342
▁سيسرا	-10.5342
▁ينابيع	-10.5342
▁العمودين	-10.5342
خطيتي	-10.5342
▁للبعل	-10.5342
▁جوابا	-10.5342
▁ثروت	-10.5343
▁الباطل	-10.5343
▁احاط	-10.5343
▁ركاب	-10.5343
▁مركبة	-10.5343
طوفان	-10.5344
▁يجازي	-10.5344
▁تظلم	-10.5344
▁يؤت	-10.5345
▁وعزريا	-10.5345
▁يظن	-10.5346
▁فارص	-10.5346
▁ومضوا	-10.5346
▁اسكب	-10.5347
▁الحجاب	-10.5347
▁تبيد	-10.5347
▁تقرب	-10.5348
بالحقيقة	-10.5348
▁وإل	-10.535
▁راكب	-10.5351
قرابين	-10.5352
▁وقولوا	-10.5353
عصوين	-10.5353
▁بلسان	-10.5355
اعماق	-10.5357
البكاء	-10.5361
▁صدر	-10.5362
▁والبقر	-10.5362
ياهو	-10.5365
▁واد	-10.5366
▁معاصي	-10.5366
▁اياهم	-10.5367
▁اضطر	-10.5369
▁فساد	-10.5369
▁امرأتي	-10.5371
غزاة	-10.5372
▁لتعمل	-10.5372
▁تخطئ	-10.5375
صغي	-10.5375
▁لليهود	-10.538
▁كثرت	-10.538
▁فاصعد	-10.5382
▁القصر	-10.5383
▁مجتمع	-10.5385
▁فتقول	-10.5389
ليعلم	-10.5392
شاب	-10.5393
مناع	-10.5393
▁يقترب	-10.5394
صعود	-10.5396
▁الشيخ	-10.5398
▁الممالك	-10.5398
جذب	-10.5399
▁يغلب	-10.54
ملابس	-10.5402
▁لسيدي	-10.5404
▁ويصعد	-10.5409
▁الجزائر	-10.541
▁وجعلت	-10.5412
بهجة	-10.5412
▁متمرد	-10.5412
تؤمنوا	-10.5415
▁زور	-10.542
▁فاذهب	-10.5421
بقي	-10.5422
يخلص	-10.5424
▁واصنع	-10.543
▁تاخذ	-10.5432
ائح	-10.5436
▁ليسوع	-10.5437
امراض	-10.5439
▁اخاف	-10.5439
▁تعبر	-10.544
▁تمتلك	-10.5444
▁مكروه	-10.5445
▁كرا	-10.5447
شرق	-10.5453
▁الغنى	-10.5455
▁وعدلا	-10.5458
▁الابطال	-10.5458
▁ويأكل	-10.5458
▁لوحي	-10.5458
▁يمجد	-10.5458
▁السادسة	-10.5466
▁ويقتل	-10.5473
▁موته	-10.5475
▁العامل	-10.5478
▁اسلك	-10.549
▁خافوا	-10.5492
▁وثور	-10.55
تعقل	-10.5506
▁والملك	-10.5518
جماعة	-10.5519
▁وذراع	-10.5525
▁فتكلم	-10.5528
الحمير	-10.553
▁واهلك	-10.553
▁وبأ	-10.5532
▁برد	-10.5551
▁وتعلم	-10.5563
▁احكم	-10.5565
▁تاتي	-10.5571
▁يضل	-10.5578
▁صاحبك	-10.5579
▁صن	-10.5584
▁يفتر	-10.5593
دقيق	-10.5626
ابشالوم	-10.5628
الحديد	-10.5631
بولس	-10.5637
الروح	-10.5664
لآكل	-10.5665
▁فاعل	-10.5673
▁والحو	-10.5692
خطر	-10.5705
▁أعطي	-10.5714
▁بناه	-10.5731
ابناء	-10.5737
▁ولول	-10.5767
▁اللاوي	-10.5775
▁فقطع	-10.5777
رائح	-10.5792
▁كنز	-10.5806
هيب	-10.5837
▁محبو	-10.586
طمئن	-10.5871
▁ابق	-10.5872
كتف	-10.5877
موضوع	-10.5895
▁جرى	-10.5897
▁وبجانبه	-10.5897
▁وثمانين	-10.5897
▁وزكريا	-10.5897
▁الحصينة	-10.5897
▁اليوبيل	-10.5897
▁شاطئ	-10.5897
▁للكاهن	-10.5897
▁استطيع	-10.5897
▁الشبكة	-10.5897
▁مخاصم	-10.5897
▁الناصري	-10.5897
▁جارية	-10.5897
▁فدفنوه	-10.5897
▁اقطاب	-10.5897
▁الزانية	-10.5897
▁للقتال	-10.5897
▁مختوم	-10.5897
▁لخيش	-10.5898
القرمز	-10.5898
الارجوان	-10.5898
▁والشحم	-10.5898
▁الطعام	-10.5898
▁كريمة	-10.5898
▁الايادي	-10.5898
▁يصرخون	-10.5898
▁خالق	-10.5898
غبياء	-10.5898
▁ونهارا	-10.5898
▁اثبت	-10.5898
▁بفضة	-10.5899
▁اشرار	-10.5899
ستأصل	-10.5899
▁قياس	-10.59
▁ومريم	-10.59
▁الخشبة	-10.59
▁لعبدك	-10.59
▁هدية	-10.59
▁رجوع	-10.59
▁يحرق	-10.5901
▁المسحة	-10.5901
تعزية	-10.5901
الاصنام	-10.5902
▁الطرف	-10.5902
▁ليعطي	-10.5902
▁تشفق	-10.5903
▁فأخبر	-10.5904
▁تسلم	-10.5905
▁الرائي	-10.5905
▁صيدون	-10.5905
▁سنتين	-10.5906
▁ودعت	-10.5906
▁للكل	-10.5907
▁أفلا	-10.591
▁فليسمع	-10.591
▁آمون	-10.5912
▁ستر	-10.5914
▁البتة	-10.5914
غمس	-10.5914
▁عتيد	-10.5914
▁الحمار	-10.5916
▁ارحمني	-10.5917
مرحض	-10.5919
دحرج	-10.5919
▁ليشوع	-10.592
▁للخدمة	-10.592
▁يكمل	-10.5921
طبخ	-10.5924
▁هارب	-10.5931
▁اموال	-10.5931
▁فاجعل	-10.5931
▁الواقفين	-10.5933
سند	-10.5936
▁جمل	-10.5937
▁بالحجارة	-10.5937
▁افتقد	-10.594
▁فتأكل	-10.5941
ليآب	-10.5944
▁قلوبنا	-10.5945
▁عديم	-10.5947
▁للخير	-10.5948
▁ويوناثان	-10.5948
▁عمري	-10.595
كيلا	-10.595
▁متاع	-10.5954
▁ونحو	-10.5956
رعدة	-10.5962
▁اخيش	-10.5968
▁اسيا	-10.5968
▁الزاوية	-10.597
▁جمر	-10.5974
▁امتلأت	-10.5977
▁وتصير	-10.5978
▁اعطاكم	-10.598
▁جهت	-10.5981
مواسم	-10.5981
▁وحول	-10.5983
▁بالشر	-10.5991
▁الظالم	-10.5995
اجير	-10.5998
عتبة	-10.5999
▁اهتف	-10.6001
▁المعدودين	-10.6004
▁اقم	-10.6007
▁واحفظ	-10.6009
▁اكلمك	-10.6009
▁يفتخر	-10.6013
▁مجمع	-10.6013
▁مشير	-10.6013
معمودي	-10.6018
▁واقيم	-10.6022
▁فصنع	-10.6026
▁ويهلك	-10.6033
▁المعل	-10.6044
▁خربت	-10.6045
▁وذبيحة	-10.606
▁تشهد	-10.6061
▁تظهر	-10.6061
▁ليذهب	-10.6064
▁النق	-10.6066
▁فتحي	-10.608
قديسي	-10.608
تسع	-10.608
▁شوك	-10.6082
الرؤساء	-10.6084
ملتو	-10.6091
ثكل	-10.6095
▁وشعبك	-10.6099
نصف	-10.6107
احكامي	-10.6108
شتهي	-10.6111
▁فناد	-10.6119
▁لرب	-10.6129
▁فامر	-10.6147
▁اكن	-10.6158
▁واجر	-10.616
وجوه	-10.6163
▁اللعنة	-10.6172
▁يسع	-10.6212
حسان	-10.6219
يامين	-10.6221
بماذا	-10.6222
▁جلي	-10.6223
عشائر	-10.6224
عطية	-10.6251
▁انتظرت	-10.6257
شهود	-10.6268
▁ويري	-10.6289
شبل	-10.6294
▁واخوتهم	-10.6305
▁تمس	-10.6325
راني	-10.6328
▁سكب	-10.6331
▁وسيف	-10.6335
لانسان	-10.6407
عاقر	-10.6433
▁ويحي	-10.6449
▁اخيتوفل	-10.6485
▁التلميذ	-10.6485
▁وفرائضه	-10.6485
اغتصاب	-10.6485
▁لحظة	-10.6485
▁تلميذ	-10.6486
▁الاجنبي	-10.6486
▁قعيلة	-10.6486
▁مئتان	-10.6486
ارغفة	-10.6486
▁افسس	-10.6486
▁واغلق	-10.6486
▁رسائل	-10.6486
▁خالص	-10.6486
زوبعة	-10.6486
عثليا	-10.6486
▁عاجلا	-10.6486
▁الجزية	-10.6486
▁وأعطي	-10.6486
▁الحصن	-10.6486
▁فعند	-10.6486
▁يورام	-10.6486
▁السفلى	-10.6487
العذراء	-10.6487
▁العموني	-10.6487
▁حوريب	-10.6487
▁ليأكلوا	-10.6487
▁فعاد	-10.6487
▁الخوف	-10.6488
الأمور	-10.6488
غرفات	-10.6489
عضائد	-10.6489
اسبوع	-10.649
▁اصوات	-10.649
▁اخيقام	-10.649
▁والاحكام	-10.6491
▁نثنيا	-10.6491
▁عقاب	-10.6491
▁اشدود	-10.6492
▁ويعل	-10.6492
▁قيصرية	-10.6494
▁صفوف	-10.6495
▁الكورة	-10.6495
▁الاصغر	-10.6496
تبدد	-10.6498
▁الاسماء	-10.6499
▁الصدرة	-10.6499
▁ينجي	-10.65
العسل	-10.65
▁حورون	-10.65
▁قايين	-10.65
▁ينجو	-10.65
▁شل	-10.6502
▁للخطية	-10.6502
▁بالناموس	-10.6504
وكيل	-10.651
▁ودار	-10.651
تمشى	-10.6511
▁فحبلت	-10.6518
▁جهتكم	-10.6521
قار	-10.6522
ساحة	-10.6523
▁والرجل	-10.6525
▁شرقا	-10.6527
▁فتصير	-10.6528
▁مرعى	-10.653
▁اموات	-10.6531
▁العمي	-10.6531
عالمين	-10.6532
▁الاراميين	-10.6537
▁ويضرب	-10.6541
تبرأ	-10.6543
▁منتظر	-10.6546
▁نصنع	-10.655
▁قيام	-10.6551
▁يرعى	-10.6554
جلود	-10.6555
▁الشروق	-10.6556
▁والنحاس	-10.6556
▁المخت	-10.6559
▁الدماء	-10.6568
▁وعينا	-10.6569
▁مؤمن	-10.6572
زمري	-10.6577
▁ويقوم	-10.658
داثا	-10.659
غلظ	-10.6591
▁ينال	-10.6594
▁تركت	-10.6594
▁لهيب	-10.6596
▁يوقد	-10.6598
▁ويحفظ	-10.66
▁حياتك	-10.6603
▁الكنائس	-10.6611
▁المنحوت	-10.6619
▁ويتكلم	-10.6621
القانة	-10.6623
ضبط	-10.6627
لسلام	-10.6632
▁لينظر	-10.6638
▁مقيم	-10.6644
اوصاهم	-10.6646
▁يغش	-10.6656
▁تضرب	-10.6661
فتقد	-10.6662
▁ليأخذ	-10.6665
خفض	-10.6666
اصابع	-10.6681
▁بقيت	-10.6682
▁أعطيت	-10.6685
▁طرقكم	-10.6689
طوبيا	-10.6689
▁تسير	-10.6707
▁اعطيكم	-10.6711
▁يقرب	-10.6711
رحب	-10.6711
اضطراب	-10.6722
ذبائح	-10.673
▁ارجلهم	-10.6749
فرش	-10.6749
▁تزن	-10.6769
▁بيدر	-10.6785
سحب	-10.681
▁الآك	-10.6823
حمامة	-10.6836
قابل	-10.684
غروب	-10.6842
عاهد	-10.6846
▁عادل	-10.6848
▁والمس	-10.6855
خطئ	-10.6857
خزوا	-10.6866
هيمان	-10.6871
سكبت	-10.694
▁وبكر	-10.6941
▁معلم	-10.6966
لآلهة	-10.6966
▁وغط	-10.6984
حبلت	-10.7005
رعود	-10.7006
▁امتلأ	-10.7021
شهادات	-10.7023
▁ابغضت	-10.7026
▁المظال	-10.7032
ورشليم	-10.7042
مناحة	-10.7045
▁والثلاث	-10.7049
ولئك	-10.7068
لاعمال	-10.7072
ظالم	-10.7081
سرور	-10.7091
▁اصعدت	-10.71
▁قيصر	-10.7103
▁واثم	-10.7104
تنهد	-10.7107
▁آباؤنا	-10.711
▁انطاكية	-10.711
▁للمرأة	-10.711
▁والاموريين	-10.711
▁وامتلأ	-10.711
▁يجتاز	-10.7111
بالأولى	-10.7111
▁الشعير	-10.7111
▁فرصة	-10.7111
▁موطئ	-10.7111
▁الاقوال	-10.7111
▁آبائي	-10.7111
▁السطح	-10.7111
▁الاوثان	-10.7111
▁القاضي	-10.7111
▁خزف	-10.7111
▁العظام	-10.7111
▁الجيوش	-10.7111
▁وسلطان	-10.7111
▁الغلف	-10.7111
▁الجيدة	-10.7111
▁الموعد	-10.7111
▁البيدر	-10.7111
▁وكروم	-10.7111
▁تؤمنون	-10.7112
▁والابد	-10.7112
▁يابسة	-10.7112
▁يمنع	-10.7112
▁اليسار	-10.7112
▁وركض	-10.7112
مخاوف	-10.7113
▁الغمر	-10.7113
▁لبنة	-10.7113
صنوج	-10.7113
▁وعمورة	-10.7114
▁لصاحبه	-10.7114
▁باثم	-10.7114
▁ترديدا	-10.7115
▁توكلت	-10.7115
▁اغلق	-10.7115
ترتفع	-10.7115
▁نعطي	-10.7116
▁ثدي	-10.7116
▁نسمة	-10.7117
غتصب	-10.7119
▁زوجها	-10.7119
ياقوت	-10.7119
▁سيكون	-10.712
▁كأن	-10.7121
▁ينقطع	-10.7122
▁فقير	-10.7122
▁سبحوا	-10.7122
زارع	-10.7122
▁اضعاف	-10.7122
▁يرفض	-10.7123
▁مضت	-10.7124
يدوثون	-10.7126
▁نغو	-10.7126
▁مخادع	-10.7129
▁العظماء	-10.713
▁واتخذ	-10.713
▁العصا	-10.7135
▁ولبن	-10.7138
▁حروب	-10.714
▁سواء	-10.7144
▁يضيء	-10.7145
▁ذاب	-10.7148
▁للجميع	-10.7149
▁وخاف	-10.715
▁المتسلط	-10.7152
عربات	-10.7153
▁بالخير	-10.7154
اقضي	-10.7159
اجيال	-10.716
▁أخبر	-10.7163
▁أمور	-10.7163
▁عزيا	-10.7169
اليبوسيين	-10.7172
▁راية	-10.7182
▁فاحفظ	-10.7182
▁اعتمد	-10.7184
▁الردي	-10.7188
▁اخف	-10.7193
▁يعيش	-10.7198
▁رتب	-10.7198
تسعين	-10.7199
▁فانزل	-10.7202
▁نجني	-10.7205
▁ودفنوه	-10.7205
▁واحضر	-10.7208
▁فكتب	-10.7215
يحيئيل	-10.722
▁فداء	-10.722
▁وتسكن	-10.7242
تصدق	-10.7244
▁ويقيم	-10.7247
يغلق	-10.725
▁افتخر	-10.725
نهض	-10.7291
تعثر	-10.7295
منضح	-10.7303
▁رجم	-10.7307
قوائم	-10.7322
غوي	-10.7329
ساحل	-10.7336
اجين	-10.7338
لجانب	-10.7354
خطية	-10.7383
توبوا	-10.7396
▁لديك	-10.741
▁يؤد	-10.7423
نطرح	-10.744
تعرف	-10.7443
عرفون	-10.7459
لنسلك	-10.7484
▁تخلص	-10.7508
دخان	-10.7509
▁يخف	-10.7511
يربعام	-10.7513
بطرس	-10.7521
داد	-10.7539
▁صوف	-10.7557
▁واكمل	-10.7559
ستعمل	-10.757
صيبا	-10.7572
عتق	-10.7581
▁مستدير	-10.7596
يرثون	-10.7611
▁مرثا	-10.7615
▁صخرت	-10.7627
▁المصري	-10.7662
كروبيم	-10.767
شتت	-10.7694
▁ومواشي	-10.7715
ستيقظ	-10.7734
ستقر	-10.7757
▁ونار	-10.7762
▁الاشجار	-10.7777
▁الخصيان	-10.7777
▁ممدودة	-10.7777
▁الخفاء	-10.7777
▁المعمدان	-10.7777
▁حاصور	-10.7777
▁لآبائهم	-10.7777
▁والمرأة	-10.7777
▁تطهير	-10.7777
العمالقة	-10.7777
▁والارملة	-10.7777
▁ومئتان	-10.7777
▁ملائكته	-10.7777
▁المصاعد	-10.7777
▁شياطين	-10.7777
▁الرديئة	-10.7777
▁صوغر	-10.7777
▁الجارية	-10.7777
▁سقوط	-10.7777
▁مجيئه	-10.7777
▁سبوتي	-10.7777
تعاظم	-10.7777
▁الارملة	-10.7777
▁مولود	-10.7777
▁واستراح	-10.7778
▁التعليم	-10.7778
مفيبوشث	-10.7778
▁وطريق	-10.7778
▁خضراء	-10.7778
▁الاعمى	-10.7778
▁عورتها	-10.7778
▁حقويه	-10.7778
ؤسس	-10.7778
▁بيضاء	-10.7778
▁سكائب	-10.7778
▁فغور	-10.7778
▁أسس	-10.7778
مقفرة	-10.7779
▁لتقدمة	-10.7779
▁السالك	-10.7779
▁ارحم	-10.7779
▁العتيق	-10.7779
اباطيل	-10.7779
▁مكرهة	-10.778
▁وتعطي	-10.7781
▁اتراس	-10.7781
▁يليق	-10.7781
▁الغيرة	-10.7781
▁بالسلام	-10.7781
▁ويطرح	-10.7782
▁يغطي	-10.7783
▁مجانا	-10.7783
▁كاتب	-10.7784
▁تبكي	-10.7784
حشبيا	-10.7784
▁عقرون	-10.7784
▁العشاء	-10.7785
▁ونفس	-10.7786
▁دينار	-10.7786
قداسة	-10.7787
▁الهابط	-10.7788
▁معزى	-10.779
جوانب	-10.7791
▁المحرقات	-10.7791
▁العسكر	-10.7792
▁قبال	-10.7794
▁ترتعب	-10.7796
▁صيدا	-10.7797
▁لحزقيا	-10.7797
▁وارتفاعه	-10.7798
▁والغريب	-10.7799
تجديف	-10.7799
▁بالاستقامة	-10.78
▁بعينه	-10.7801
نرجع	-10.7802
ليفاز	-10.7802
ستند	-10.7803
▁وخدم	-10.7803
كايام	-10.7804
ترجع	-10.7804
▁السرير	-10.7804
▁للحياة	-10.7804
▁كهذه	-10.7807
▁عسل	-10.7808
▁يهدي	-10.7808
▁يرجم	-10.7813
▁طهر	-10.7813
رمحه	-10.7818
▁الجبار	-10.7819
▁فانصرف	-10.7819
لشهر	-10.7819
▁حبال	-10.782
▁الصديقين	-10.782
▁ونصب	-10.7822
▁كرجل	-10.7823
▁فتحفظ	-10.7823
▁يشتك	-10.7827
▁الالف	-10.7828
طمع	-10.7829
▁نصعد	-10.7835
تعجبوا	-10.7837
▁ضم	-10.7837
رقيب	-10.7841
▁وبوص	-10.7841
▁يتنبأ	-10.7847
▁واوقد	-10.7849
خالف	-10.7851
▁وأتيا	-10.7852
▁اشرق	-10.7862
▁جوج	-10.7862
▁الفجر	-10.7863
▁يجتمع	-10.7865
▁المختار	-10.7867
غنوا	-10.7869
▁نسمع	-10.7875
▁نتكلم	-10.788
▁حوشا	-10.7893
▁التمس	-10.7895
▁خد	-10.7909
يليا	-10.7929
نزيل	-10.7965
أذن	-10.8
بقعة	-10.8025
▁لديه	-10.8028
▁الثلاث	-10.8057
▁والعاز	-10.8093
▁نعمل	-10.8111
▁وألق	-10.8117
▁سنح	-10.8147
تخس	-10.8162
▁ينف	-10.8163
لعازر	-10.8175
▁حلو	-10.8196
تجف	-10.8203
▁حمام	-10.821
الاربعة	-10.822
جثث	-10.8222
آلهة	-10.8229
هانذا	-10.823
الرحمة	-10.8231
لوحا	-10.8247
▁حام	-10.8327
▁ويهو	-10.8346
▁يراه	-10.8373
تضايق	-10.8375
عابر	-10.8383
لخدمة	-10.8418
▁الرحم	-10.8419
▁الشجر	-10.8425
تضرعات	-10.843
▁جبع	-10.8442
▁الواقف	-10.8452
خطايانا	-10.8482
اضطجاع	-10.8491
▁احشائي	-10.8491
▁الكسلان	-10.8491
▁تماثيل	-10.8491
▁تيموثاوس	-10.8491
▁كفرناحوم	-10.8491
▁الشوارع	-10.8491
ضفادع	-10.8491
▁للكبش	-10.8491
▁يهوآش	-10.8491
اخيمعص	-10.8491
▁قصيدة	-10.8491
▁يرتحلون	-10.8491
▁اللسان	-10.8491
▁الميعاد	-10.8491
تلذذ	-10.8492
▁حاضر	-10.8492
▁دائمة	-10.8492
▁رؤسائه	-10.8492
▁ومركبات	-10.8492
▁تؤكل	-10.8492
▁القهاتيين	-10.8492
▁الاحشاء	-10.8492
▁ويبارك	-10.8492
▁يربعل	-10.8492
▁اقتحم	-10.8492
▁لقيصر	-10.8492
▁الارواح	-10.8492
▁يحتاج	-10.8492
▁الابرار	-10.8492
▁الشفتين	-10.8492
▁بايمان	-10.8492
▁وكرامة	-10.8492
▁المتكبر	-10.8492
▁فركض	-10.8492
▁لانفسنا	-10.8492
▁الرسول	-10.8492
▁المحبوب	-10.8492
▁الجراد	-10.8492
▁الكوشي	-10.8493
▁يطرح	-10.8493
▁مسالك	-10.8493
▁الرديء	-10.8493
▁عطايا	-10.8493
▁تمنع	-10.8493
▁الالوف	-10.8493
ظهور	-10.8493
▁فاسرع	-10.8493
▁عماسا	-10.8493
▁فبكر	-10.8493
شلميا	-10.8493
▁الصغار	-10.8493
▁فتاكل	-10.8494
▁العتيد	-10.8494
▁الصيف	-10.8494
▁ووصل	-10.8495
▁يظلم	-10.8495
لرأوبينيين	-10.8495
▁الرجس	-10.8495
▁تمتد	-10.8496
رؤسا	-10.8496
شامخ	-10.8496
▁مقبل	-10.8496
▁تأس	-10.8496
زيادة	-10.8496
▁البعيد	-10.8497
▁قاريح	-10.8497
▁الحزن	-10.8499
▁وخروف	-10.8499
فتاح	-10.85
▁الصورة	-10.85
▁اعطانا	-10.8501
نسكب	-10.8501
▁مطروح	-10.8502
▁تارح	-10.8502
▁ساراي	-10.8502
موائد	-10.8503
▁يخرب	-10.8503
▁ادرك	-10.8506
طهارة	-10.8506
▁عنقك	-10.8507
اسهروا	-10.8509
▁فرأيت	-10.8509
▁بعصا	-10.851
▁ينفع	-10.851
▁غلتها	-10.8512
▁القيام	-10.8514
فراخ	-10.8514
▁كليهما	-10.8516
▁يضم	-10.8516
▁صباه	-10.8521
بلاد	-10.8522
▁المرضى	-10.8522
▁امتد	-10.8524
▁معلوم	-10.8529
▁البكرات	-10.8533
جنده	-10.8534
البوابين	-10.8539
ائق	-10.8541
▁التيمن	-10.8546
الفلس	-10.8547
▁يصلح	-10.8548
نتفع	-10.8549
▁المذنب	-10.8552
▁كتفه	-10.8561
▁بحق	-10.8563
خراج	-10.8569
تنكر	-10.8593
واحي	-10.8597
▁بالذي	-10.8598
بركات	-10.8616
عقيق	-10.8625
تجند	-10.8639
جاهر	-10.8642
عجلون	-10.8664
فرقته	-10.8667
▁نسائ	-10.868
جثو	-10.8682
▁وابيهو	-10.87
قناة	-10.8705
▁واعلم	-10.8723
الطاهرة	-10.8751
▁وقرب	-10.8753
حريق	-10.8775
▁ليخدمو	-10.8784
شرائع	-10.8873
▁ليحي	-10.8897
▁أأن	-10.8919
خيمة	-10.8928
تمكن	-10.8934
▁قوتك	-10.894
العرض	-10.8946
وكلاء	-10.8953
▁ليخدم	-10.8955
المدينة	-10.8958
نوء	-10.897
يشوع	-10.8971
▁ويعلم	-10.899
اصحاب	-10.8997
الجسد	-10.9008
لملوك	-10.9039
ابوابها	-10.9054
▁ناج	-10.9058
حبرون	-10.9059
لمعان	-10.9067
▁تشق	-10.9121
▁واعطوه	-10.9128
▁حاد	-10.9136
▁سنو	-10.9142
▁ارتحل	-10.9153
سفينة	-10.9179
▁العرب	-10.9185
تقبل	-10.9199
لغريب	-10.921
تخذ	-10.9213
▁وسكب	-10.9234
شافاط	-10.9252
▁الصديق	-10.9259
عاقل	-10.926
وآحاز	-10.926
▁التأديب	-10.9261
▁المجامع	-10.9261
▁اليزرعيلي	-10.9261
▁جاريتك	-10.9261
▁اجناسه	-10.9261
مصابيح	-10.9261
▁تواليد	-10.9261
▁رومية	-10.9261
▁الاسواق	-10.9261
▁جرشوم	-10.9261
نفائس	-10.9261
▁اسماؤهم	-10.9261
▁والوبإ	-10.9261
▁أسلام	-10.9261
▁ركبتيه	-10.9261
▁الاسباط	-10.9261
▁التلال	-10.9261
▁الكروم	-10.9261
▁للغلام	-10.9261
▁آموص	-10.9261
▁الرشوة	-10.9261
▁امتعته	-10.9261
مراؤون	-10.9261
مضاجع	-10.9261
▁وارتحل	-10.9261
▁امتنع	-10.9261
▁ابياثار	-10.9261
▁غبار	-10.9261
العجائب	-10.9261
ذئاب	-10.9261
▁العلامة	-10.9261
▁الحفرة	-10.9261
▁لاخآب	-10.9261
▁للعالم	-10.9261
▁امرأتك	-10.9261
▁الرماد	-10.9261
▁جالب	-10.9261
▁بالاثم	-10.9261
▁رمليا	-10.9262
▁تطهر	-10.9262
روماني	-10.9262
▁زارح	-10.9262
▁مصنوع	-10.9262
▁والتقدمة	-10.9262
▁الشفاء	-10.9262
▁سبحوه	-10.9262
▁القبور	-10.9262
▁ترصة	-10.9262
▁ضعيف	-10.9262
▁فطرح	-10.9262
▁كالماء	-10.9262
▁وامتد	-10.9262
▁غيور	-10.9262
▁يصيح	-10.9262
▁السفن	-10.9263
▁الاذن	-10.9263
▁حسد	-10.9263
الخادم	-10.9263
▁وبعض	-10.9264
▁تخرب	-10.9264
▁يسجدون	-10.9264
يصهار	-10.9264
امريا	-10.9264
▁يخاصم	-10.9264
اشقلون	-10.9265
الحماقة	-10.9266
بوشث	-10.9266
▁بشدة	-10.9266
▁مشلام	-10.9266
▁تتزعزع	-10.9266
▁ناحور	-10.9268
▁عوارض	-10.9268
▁اطرح	-10.9269
▁القادم	-10.927
▁لاخوته	-10.927
▁غصن	-10.927
▁التنين	-10.9272
▁الولاية	-10.9275
▁دسم	-10.9276
▁ناظر	-10.9278
▁اشفق	-10.9278
ضيء	-10.9278
برخيا	-10.9279
استماع	-10.928
▁عابد	-10.928
▁اخرب	-10.928
▁ينقض	-10.9281
▁تزول	-10.9281
▁طالع	-10.9282
يخزون	-10.9283
ضرر	-10.9284
▁باحد	-10.9285
▁كتفي	-10.9289
▁دهر	-10.929
▁صلاح	-10.9292
▁العرس	-10.9293
▁المستهزئ	-10.9293
الاتراس	-10.9296
▁ممن	-10.9298
لوحش	-10.9299
▁قير	-10.9302
العاصف	-10.9302
▁لتسمع	-10.9302
تعزى	-10.9304
▁امكث	-10.9305
▁فدية	-10.9306
مواعيد	-10.9307
فخاري	-10.9309
▁عجلا	-10.9314
▁العالي	-10.9315
▁وحفظت	-10.9316
▁ونسله	-10.9328
▁ظن	-10.9336
▁شهي	-10.9338
لهذا	-10.9355
جفنة	-10.9356
▁فاعطيك	-10.9363
▁أهو	-10.9364
مشرق	-10.9384
عبور	-10.9397
تفسير	-10.9403
▁فاران	-10.9405
▁احق	-10.9411
ائز	-10.9413
ارميا	-10.9428
▁ذري	-10.9438
▁واياه	-10.9451
▁وشدد	-10.9452
▁اتيت	-10.9476
لكلاب	-10.949
سنبل	-10.9496
لسكان	-10.9512
أصعد	-10.9521
نصيب	-10.9573
▁ملجإ	-10.9573
نبوة	-10.9579
باراق	-10.9608
تنور	-10.9662
▁اوصاك	-10.9674
لنفس	-10.969
ملائكة	-10.9709
عرفاء	-10.9722
صلبوه	-10.9728
▁أهذ	-10.9736
اعطاهم	-10.9757
دانيال	-10.983
صراخ	-10.9842
حيدوا	-10.9858
انضم	-10.9865
بصق	-10.988
يعزير	-10.9937
▁واليبوسي	-10.9944
اضاء	-10.9949
لعدم	-10.9962
زاوية	-10.9984
▁اعطاك	-10.9992
▁اللعن	-11.0013
▁واثنا	-11.0022
توما	-11.0024
▁واهل	-11.0041
لشيطان	-11.005
▁منحوتا	-11.0052
لانجيل	-11.0072
▁سقي	-11.0085
▁الاسرائيلي	-11.0094
▁الجلعادي	-11.0094
▁الرجاسات	-11.0094
▁العذارى	-11.0094
▁الغرلة	-11.0094
▁الياشيب	-11.0094
▁طمثها	-11.0094
▁فامتلأ	-11.0094
▁كاجناسها	-11.0094
▁وخزائن	-11.0094
▁الخصام	-11.0094
▁الرفيعة	-11.0094
▁رغيف	-11.0094
▁ومشلام	-11.0094
▁فارتحل	-11.0094
▁تيطس	-11.0094
▁الصحراء	-11.0094
▁الصليب	-11.0094
▁احتياج	-11.0094
▁اخيطوب	-11.0094
▁بقوتك	-11.0094
▁مستعدين	-11.0094
▁جاسان	-11.0094
▁وجانب	-11.0094
▁الاوتار	-11.0094
مؤامر	-11.0094
▁المجدلية	-11.0094
▁قاعدة	-11.0094
▁مجتاز	-11.0094
▁الحصار	-11.0094
▁جهنم	-11.0094
▁يحتقر	-11.0094
▁ووصايا	-11.0094
▁اللابس	-11.0094
▁شبكة	-11.0094
▁الكبد	-11.0094
الطبيعة	-11.0094
▁مركبته	-11.0094
▁شعير	-11.0094
▁الثلج	-11.0094
▁آلهتك	-11.0094
▁مغلق	-11.0094
▁هابيل	-11.0094
▁خطاة	-11.0094
خصومات	-11.0095
▁اقصاء	-11.0095
▁هدايا	-11.0095
▁مربعة	-11.0095
▁يحرسون	-11.0095
ليشمع	-11.0095
▁بليعال	-11.0095
▁صباي	-11.0095
▁الصاعد	-11.0095
الازمنة	-11.0095
▁المتجه	-11.0095
▁حاشي	-11.0095
▁آوى	-11.0095
ذئب	-11.0095
▁كواحد	-11.0095
▁ونساؤ	-11.0095
▁السارق	-11.0095
▁الياقيم	-11.0095
▁شغل	-11.0096
▁هنوم	-11.0096
▁يائير	-11.0096
▁وباسم	-11.0096
▁المخرب	-11.0096
▁الاكبر	-11.0096
▁يركض	-11.0096
▁واخرب	-11.0096
▁شدائد	-11.0096
▁جيران	-11.0097
▁بمكر	-11.0097
▁التوبة	-11.0097
▁شفاء	-11.0097
▁يلعن	-11.0098
▁ماشيا	-11.0098
▁والتفت	-11.0098
▁صديق	-11.0098
▁بيومه	-11.0099
▁قديسين	-11.0099
▁وكهنت	-11.0099
▁ويبيد	-11.0099
▁غرباء	-11.0099
▁بالماء	-11.0099
مخاض	-11.0099
▁السهام	-11.0099
▁جازر	-11.01
خرفان	-11.01
انبيائه	-11.0101
وداعة	-11.0101
▁ميخائيل	-11.0101
▁يبكون	-11.0101
▁صوبة	-11.0103
جزائر	-11.0103
▁يبنون	-11.0103
▁ويترك	-11.0104
▁فيحرق	-11.0104
▁نجاة	-11.0105
▁ديار	-11.0105
▁عمرام	-11.0105
اشراف	-11.0106
ابريز	-11.0107
▁شفط	-11.0107
▁ازال	-11.0108
يجوز	-11.0108
▁ووقع	-11.0108
▁والناس	-11.0109
▁ابارك	-11.0111
▁وصحن	-11.0111
▁اوقات	-11.0112
▁القمح	-11.0113
▁تغطي	-11.0113
▁لاخيه	-11.0113
أسر	-11.0114
▁البعليم	-11.0116
زوفا	-11.0116
لسارية	-11.0119
بداءة	-11.012
▁القرن	-11.012
▁والمدن	-11.012
▁رماد	-11.0121
▁باكثر	-11.0122
ودعاء	-11.0123
▁صناع	-11.0124
▁الديك	-11.0128
المصنوع	-11.013
اطعمة	-11.0141
▁رذل	-11.0142
تعبدون	-11.0144
يعمد	-11.0146
▁يحق	-11.0147
▁حذ	-11.0151
▁باطن	-11.0156
▁اليبوسي	-11.0163
▁غربت	-11.0184
▁صخر	-11.0197
بشارة	-11.0201
اقرع	-11.0213
اتكأ	-11.0231
زيغ	-11.0239
▁وصرت	-11.0258
سحابة	-11.0271
فتاة	-11.0311
▁فبنو	-11.033
القسي	-11.0338
خلصني	-11.0343
ألقي	-11.0444
يونانيين	-11.0515
خادع	-11.0537
فاسد	-11.0538
▁مقبول	-11.0553
▁الخمس	-11.059
رؤيا	-11.0622
ملجإي	-11.0644
مشقة	-11.0646
▁ليخز	-11.0659
اشعياء	-11.0733
واجب	-11.0733
مراحم	-11.0744
عصيان	-11.0748
تثبت	-11.0767
الرجال	-11.0778
▁السامع	-11.0812
▁تضر	-11.0813
▁تغل	-11.0866
النور	-11.0908
لاغاظ	-11.0913
مناظر	-11.0941
المسكر	-11.0947
▁الكلداني	-11.0959
لمساكين	-11.096
▁البواب	-11.0979
نوعة	-11.0989
▁نثن	-11.0993
اضطهاد	-11.1003
▁اعدائنا	-11.1003
▁الاسخريوطي	-11.1003
▁الخنازير	-11.1003
▁الرفائيين	-11.1003
▁الظهيرة	-11.1003
▁النثينيم	-11.1003
▁بألسنة	-11.1003
▁ثالثة	-11.1003
▁وتيموثاوس	-11.1003
▁الكائن	-11.1003
▁صقلغ	-11.1003
▁فلسطين	-11.1003
▁وسكائبه	-11.1003
▁ينطفئ	-11.1003
تؤخذ	-11.1003
▁بنجاسته	-11.1003
▁شعائر	-11.1003
▁ابيجايل	-11.1003
▁انتذاره	-11.1003
المذابح	-11.1003
▁باراباس	-11.1003
▁وابياثار	-11.1003
للدخول	-11.1003
▁تظنون	-11.1003
▁داجون	-11.1003
▁يحيط	-11.1003
▁كالعادة	-11.1003
▁ومبارك	-11.1003
▁وميراث	-11.1003
▁الصخور	-11.1003
▁كهنوت	-11.1003
صندوق	-11.1003
▁الغاية	-11.1003
▁محنايم	-11.1003
▁والجنوب	-11.1003
▁الاسنان	-11.1003
▁القبيح	-11.1003
▁ازمنة	-11.1003
▁الكرسي	-11.1003
▁ويستحم	-11.1003
▁شهادت	-11.1003
▁الملء	-11.1003
▁والساكن	-11.1003
خوذة	-11.1003
▁سابقا	-11.1003
▁بثشبع	-11.1003
▁المجوس	-11.1004
▁سؤل	-11.1004
▁لبنيامين	-11.1004
▁وعظام	-11.1004
▁الاعالي	-11.1004
▁حماتها	-11.1004
▁عسائيل	-11.1004
▁خاضع	-11.1004
الدخول	-11.1004
▁فريسة	-11.1004
▁يطهر	-11.1004
▁صباك	-11.1004
▁اصدق	-11.1004
▁استراح	-11.1004
▁جموع	-11.1004
▁فبارك	-11.1004
▁بريئا	-11.1004
▁مترسة	-11.1004
البهيمة	-11.1004
▁يحيي	-11.1004
▁اعناق	-11.1005
▁احتمال	-11.1005
▁حصينة	-11.1005
▁المنتهى	-11.1005
▁بامور	-11.1005
الكباش	-11.1005
▁اوفير	-11.1005
▁المتطه	-11.1005
استأجر	-11.1005
▁وتحرق	-11.1005
▁وموسى	-11.1005
▁الوبأ	-11.1005
▁بالامان	-11.1005
▁اجيالهم	-11.1005
▁جلبت	-11.1006
▁واطرح	-11.1006
▁استقبل	-11.1006
▁لابرام	-11.1006
▁الايمن	-11.1006
▁امناء	-11.1006
▁تدنس	-11.1007
مباحث	-11.1007
▁العراف	-11.1007
موازين	-11.1007
▁اعمدتها	-11.1007
▁اغصانها	-11.1007
▁عطلة	-11.1008
▁اسواق	-11.1008
▁اهوال	-11.1008
▁وباقي	-11.1009
▁زاغ	-11.1009
▁ذهن	-11.1009
الرسائل	-11.101
▁الرمان	-11.101
▁ابراج	-11.1011
▁اذيال	-11.1011
▁ينكر	-11.1011
▁اخوتنا	-11.1012
▁يطيع	-11.1012
▁حورام	-11.1012
▁لياكل	-11.1012
▁ويسلم	-11.1014
القضاة	-11.1014
▁اكبر	-11.1015
▁فبهت	-11.1016
▁حصيد	-11.1016
تعزيت	-11.1016
▁الحافظ	-11.1016
▁بامثال	-11.1019
مجامر	-11.1019
▁محتاج	-11.1019
ينوعم	-11.102
▁وارحم	-11.102
تهلل	-11.1027
الندى	-11.1034
▁القيني	-11.104
▁فصرت	-11.1042
جزيرة	-11.106
نتفخ	-11.1062
طحن	-11.1062
▁ونهب	-11.1063
▁تهدي	-11.1063
▁صلوات	-11.1064
سمينة	-11.1081
اخشاب	-11.1094
اعلان	-11.1106
نطح	-11.111
عذاب	-11.1117
تنكسر	-11.1123
▁لبان	-11.114
▁احص	-11.1152
اغاني	-11.117
▁واحص	-11.1171
ابتلعت	-11.1185
استير	-11.1188
▁يعزي	-11.1199
نفذ	-11.1214
رشد	-11.1226
ترنح	-11.1237
نتدب	-11.1243
جهاد	-11.1243
▁بخرو	-11.1248
▁قرأت	-11.1282
▁فطرد	-11.1291
▁التبن	-11.1303
الرئيس	-11.131
استار	-11.1335
اهانة	-11.1391
الصوف	-11.1455
الاحسان	-11.1479
يبرأ	-11.148
اصلح	-11.1551
▁بخطايا	-11.1555
يدعيا	-11.1626
اليوم	-11.1627
▁قضبان	-11.1633
لسبي	-11.1639
▁باكور	-11.1669
سامعين	-11.1699
حزقيا	-11.1704
عيسو	-11.1738
مملكة	-11.1783
اعداء	-11.184
▁لسيد	-11.1886
رجاساتهم	-11.1915
اشياء	-11.1923
▁اراك	-11.1931
للرب	-11.1937
▁وذو	-11.195
▁آباؤك	-11.1952
لتلاميذ	-11.1955
رأس	-11.1959
▁وعليه	-11.1994
▁مرفوض	-11.2003
الاكاذيب	-11.2003
▁افتخار	-11.2003
▁الصيدونيين	-11.2003
▁بلطشاصر	-11.2003
▁صلفحاد	-11.2003
▁ضوء	-11.2003
▁كرنيليوس	-11.2003
▁مختلفة	-11.2003
▁والألسنة	-11.2003
▁والخطاة	-11.2003
▁والمناضح	-11.2003
▁وتلاميذه	-11.2003
▁وسكيبها	-11.2003
▁الخليقة	-11.2003
▁المعصرة	-11.2003
▁عوبديا	-11.2003
▁مخماس	-11.2003
▁افراتة	-11.2003
▁واعمدته	-11.2003
افسنتين	-11.2003
▁أرأيت	-11.2003
▁اخنوخ	-11.2003
▁قيدار	-11.2003
▁والكرامة	-11.2003
▁رفقائه	-11.2003
▁ومقببه	-11.2003
▁الادومي	-11.2003
▁مجامع	-11.2003
▁وسليمان	-11.2003
▁الجرشونيين	-11.2003
▁العوسج	-11.2003
▁يخاطب	-11.2003
لتطهير	-11.2003
▁ارتحش	-11.2003
▁الميراث	-11.2003
▁بفرعون	-11.2003
▁بثمن	-11.2003
▁ومستقيم	-11.2003
▁بقوته	-11.2003
خزانة	-11.2003
▁تخاصم	-11.2003
▁وجبروته	-11.2003
يلتصق	-11.2003
▁وآيات	-11.2003
▁واعترف	-11.2003
▁والفقير	-11.2003
▁البلدان	-11.2003
▁مملو	-11.2003
▁الاشبال	-11.2003
الصدوقيين	-11.2003
▁بالصدق	-11.2003
▁بقلوب	-11.2003
▁حماقة	-11.2003
▁تطفأ	-11.2003
▁المحراب	-11.2003
▁اللجج	-11.2003
▁تلتفت	-11.2003
▁يحيون	-11.2004
▁رصين	-11.2004
▁الخيام	-11.2004
▁يعترف	-11.2004
▁بشفتي	-11.2004
▁السوسن	-11.2004
▁العتاة	-11.2004
متسربل	-11.2004
▁الفتيان	-11.2004
▁اعترف	-11.2004
▁نجاسته	-11.2004
▁حيطان	-11.2004
▁الفراش	-11.2004
بمركبات	-11.2004
▁ميلاد	-11.2004
الكواكب	-11.2004
مغفرة	-11.2004
▁السواري	-11.2004
▁تابور	-11.2004
▁برنيع	-11.2004
▁مملكتي	-11.2004
▁غنيمته	-11.2004
▁بخوف	-11.2005
▁وجمال	-11.2005
▁بحجر	-11.2005
قباحة	-11.2005
▁متجرد	-11.2005
▁دبيب	-11.2005
▁مئات	-11.2005
▁سواري	-11.2005
▁فاقبل	-11.2005
ترصيع	-11.2005
ضغط	-11.2005
▁يدفنون	-11.2005
▁موثق	-11.2005
▁يحمدك	-11.2006
▁وحاصر	-11.2006
سلاطين	-11.2006
الاغنياء	-11.2007
▁قاضي	-11.2007
لانتقام	-11.2007
▁فاجبت	-11.2007
▁احسانا	-11.2007
▁كهنته	-11.2007
▁لتعلم	-11.2007
خبأت	-11.2008
▁رحيم	-11.2008
▁ليكهن	-11.2008
▁موضوعة	-11.2008
▁احزن	-11.2008
▁الحقيقي	-11.2008
تدشين	-11.2008
▁تيمان	-11.2008
▁فقبل	-11.2009
▁وتاكل	-11.2009
آذانهم	-11.201
ليبارك	-11.201
▁يمشون	-11.201
زحزح	-11.201
المتكئين	-11.2011
▁يدنس	-11.2011
▁افود	-11.2011
▁التقط	-11.2012
▁فكاك	-11.2013
▁اتفق	-11.2013
اقراط	-11.2013
▁علانية	-11.2013
▁الماشي	-11.2014
▁رجز	-11.2014
▁السدى	-11.2015
▁انصاب	-11.2017
▁يسمى	-11.2019
▁تفسيره	-11.2019
ستوجب	-11.2021
▁الضال	-11.2027
▁تهدم	-11.2029
▁والكنعاني	-11.2033
بلوطة	-11.2034
▁اقدام	-11.2034
▁وظلم	-11.2035
▁نهايت	-11.2039
تمضي	-11.2047
مناطق	-11.2056
▁رجائ	-11.2057
ترديد	-11.206
▁ومنظره	-11.2061
بددهم	-11.2064
صفنيا	-11.2069
يزد	-11.2115
للدار	-11.2121
شيخ	-11.2142
المسطار	-11.2147
تحقق	-11.2147
شعيا	-11.2149
ستهزأ	-11.2189
وظيف	-11.2205
صادق	-11.2212
مرثاة	-11.2267
تبرع	-11.2275
▁ليعرف	-11.2282
▁مخط	-11.2301
▁فقح	-11.2322
المنسحق	-11.2347
يبكي	-11.2365
حنوك	-11.2386
قضبانها	-11.2388
باكورات	-11.2389
لجند	-11.2397
▁المغن	-11.2561
نشئ	-11.2597
تقلد	-11.2651
الاسد	-11.2663
▁قائل	-11.2786
ظاهر	-11.2841
ذنوب	-11.2844
الجاهل	-11.2844
النار	-11.3049
ميخا	-11.3073
خطأ	-11.3076
▁اعمد	-11.3093
▁المضروب	-11.3114
-	-11.4364
ً	-11.5793
)	-12.1959
I	-12.1959
:	-12.5293
1	-13.0293
2	-13.0293
[	-13.0293
]	-13.0293
h	-13.0293
o	-13.0293
(	-14.0291
ـ	-14.0292
6	-14.0293
5	-14.0293
n	-14.0293
y	-14.0293
ٍ	-14.0293
J	-14.0293
*	-14.0293
T	-14.0293
i	-14.0293
m	-14.0293
t	-14.0293
