<pad>	0
</s>	0
<unk>	0
,	-2.57903
.	-3.58532
▁	-4.0599
:	-4.30197
;	-4.34202
▁“	-4.38916
▁na	-4.79713
▁u	-4.89604
a	-4.90297
.”	-5.00489
▁e	-5.00741
▁ukuba	-5.08982
-	-5.09035
ni	-5.18883
▁i	-5.25104
▁ukuthi	-5.27182
▁ba	-5.27625
▁ngokuba	-5.30549
e	-5.32429
▁o	-5.36982
yo	-5.42228
▁Kepha	-5.42881
▁ku	-5.43895
▁wathi	-5.44001
▁wa	-5.45896
▁kepha	-5.47233
ke	-5.5528
▁kuye	-5.59879
?	-5.67041
▁Ngokuba	-5.69628
▁ng	-5.73281
▁U	-5.76824
▁a	-5.78089
▁uku	-5.82742
▁si	-5.87702
▁kubo	-5.91739
▁ngi	-5.91944
▁be	-5.92978
▁uJesu	-5.94319
▁aba	-5.95641
▁ni	-5.97422
▁uNkulunkulu	-5.97788
nga	-5.97844
▁uma	-5.98214
▁n	-6.02075
▁bonke	-6.09062
▁khona	-6.09425
o	-6.10215
▁kini	-6.12789
wa	-6.148
▁‘	-6.15004
▁kodwa	-6.16359
▁no	-6.16528
▁konke	-6.23625
?”	-6.24801
▁ukuze	-6.25729
▁oku	-6.27162
na	-6.30894
▁kwa	-6.35109
▁lokho	-6.35676
la	-6.35925
▁noma	-6.36014
le	-6.36047
ba	-6.4105
enxa	-6.4166
▁bathi	-6.42496
▁kaNkulunkulu	-6.43997
zi	-6.44856
lo	-6.47097
▁ya	-6.47718
▁nga	-6.4778
we	-6.52796
▁ngoku	-6.53894
▁lapho	-6.5409
i	-6.54339
li	-6.55615
▁noku	-6.56219
▁kanye	-6.57628
si	-6.59567
▁kube	-6.59584
▁Ngakho	-6.59764
▁lokhu	-6.59811
▁yakhe	-6.60407
▁yena	-6.62172
▁ka	-6.62459
▁ne	-6.63028
ku	-6.63422
Jesu	-6.64257
▁umuntu	-6.6531
U	-6.67675
se	-6.682
m	-6.71449
▁futhi	-6.71466
▁zi	-6.71699
▁nina	-6.71957
.’	-6.7267
▁sa	-6.74585
▁Kwathi	-6.74928
ze	-6.767
weni	-6.76797
▁izwi	-6.7685
▁kwaba	-6.77453
▁mina	-6.78365
▁phakathi	-6.78956
▁bakhe	-6.80316
▁esi	-6.80936
▁phambi	-6.81303
▁li	-6.81552
▁naye	-6.83267
▁kwakhe	-6.83992
ne	-6.84046
u	-6.84192
be	-6.84487
▁kakhulu	-6.86404
vela	-6.87459
▁y	-6.8747
za	-6.88674
▁kwenu	-6.88815
▁phezu	-6.89658
▁iNkosi	-6.8969
ka	-6.89976
▁ezi	-6.91346
thi	-6.92231
kho	-6.92435
▁ngithi	-6.93062
▁zonke	-6.95147
▁yini	-6.96301
▁Ba	-6.97779
▁Khona	-6.9832
▁kwabo	-7.01957
▁I	-7.02537
khuluma	-7.0289
▁eli	-7.03254
sa	-7.0359
n	-7.03679
▁kimi	-7.05682
▁muntu	-7.05802
▁A	-7.06402
hlala	-7.07307
fika	-7.08408
▁yi	-7.08509
▁kuNkulunkulu	-7.08624
sho	-7.11074
▁nalowo	-7.11138
ile	-7.11446
▁ese	-7.12089
yi	-7.12175
▁Kristu	-7.13374
▁Uma	-7.13583
▁nani	-7.13641
khona	-7.14712
▁naba	-7.16048
▁babe	-7.16281
▁phansi	-7.16629
▁njengalokh	-7.16717
ela	-7.17254
▁nami	-7.17721
▁ngo	-7.18282
▁wena	-7.18464
▁nxa	-7.18577
ya	-7.18937
zwa	-7.19458
▁abe	-7.19749
▁waye	-7.20326
▁l	-7.20369
thanda	-7.20613
▁uya	-7.21212
▁omunye	-7.21657
▁N	-7.21864
▁kwe	-7.22055
▁ngakho	-7.22318
eni	-7.22727
▁nabo	-7.22824
funa	-7.22924
▁s	-7.23269
▁lo	-7.24406
▁kuze	-7.25073
▁kuwe	-7.2548
▁lakhe	-7.2548
▁ezulwini	-7.26226
▁abanye	-7.2638
mva	-7.26519
▁Wa	-7.28137
▁abafundi	-7.28244
▁waba	-7.28645
▁nge	-7.29012
▁za	-7.29131
▁Wathi	-7.2974
▁uyaku	-7.30275
▁lowo	-7.30331
▁abantu	-7.3043
▁yami	-7.30748
▁owa	-7.31004
▁isi	-7.31701
▁kuphela	-7.3228
ngena	-7.3374
▁njalo	-7.33793
hamba	-7.34174
▁ngaye	-7.34904
▁em	-7.37305
lowo	-7.38363
Nkosi	-7.38915
▁zakhe	-7.39189
ngi	-7.39953
▁iNdodana	-7.41225
phi	-7.41932
▁masinyane	-7.41961
▁omkhulu	-7.41991
▁yethu	-7.42928
mi	-7.42938
▁kwami	-7.43079
N	-7.43388
▁ngokuthi	-7.44108
▁uKristu	-7.44881
▁yilowo	-7.44937
▁lutho	-7.45819
▁manje	-7.45826
▁njengokuba	-7.46002
▁kuyo	-7.491
kwazi	-7.49107
▁nguye	-7.49485
bona	-7.49634
▁eJerusalema	-7.49885
hlezi	-7.50036
phuma	-7.50052
▁w	-7.50927
▁Kodwa	-7.5098
wu	-7.51834
lwa	-7.51983
lu	-7.52226
▁se	-7.52265
▁enga	-7.52944
▁oNgcwele	-7.53036
▁la	-7.53594
▁Ku	-7.53854
▁thina	-7.54039
▁uMoya	-7.54126
▁bazalwane	-7.54242
khonza	-7.54769
▁yakho	-7.54923
,”	-7.55038
▁aka	-7.55172
▁ethi	-7.5528
▁E	-7.55521
fanele	-7.55891
kholwa	-7.56552
▁yomuntu	-7.5731
▁ezweni	-7.57374
▁Jesu	-7.5739
▁kanjani	-7.58431
▁aku	-7.5863
▁wakhe	-7.58895
hla	-7.5892
▁angi	-7.5941
▁lu	-7.59431
▁uPawulu	-7.59529
▁Ngalokho	-7.59675
▁wami	-7.60459
▁labo	-7.60588
▁likaNkulunkulu	-7.60701
▁ababe	-7.6089
▁asi	-7.61087
beka	-7.61112
nge	-7.61797
▁yonke	-7.61861
I	-7.61952
▁Wayesethi	-7.62006
so	-7.62279
dla	-7.63212
▁waphendula	-7.63216
▁sakhe	-7.64184
nye	-7.643
▁izwe	-7.64457
▁um	-7.64494
▁ama	-7.66121
▁kwakho	-7.66353
▁kanjalo	-7.66648
▁igama	-7.66761
▁yathi	-7.66878
▁ngiya	-7.6707
▁z	-7.67364
thiwa	-7.67716
Israyeli	-7.67769
shumayela	-7.67824
▁endlini	-7.67834
▁kulo	-7.67901
▁abaningi	-7.6799
▁ngaphandle	-7.6825
,’	-7.68414
▁izi	-7.6885
melwe	-7.68965
▁eNkosini	-7.69055
bu	-7.69663
▁kukhona	-7.69877
▁ko	-7.69897
▁yenu	-7.70268
▁kwaku	-7.70481
mbe	-7.70755
leyo	-7.71515
▁nambili	-7.7152
▁wethu	-7.71713
▁munye	-7.71803
▁zabo	-7.71985
M	-7.72715
▁wam	-7.72751
▁lonke	-7.72839
▁umthetho	-7.72968
▁okukhulu	-7.73901
▁kwabafileyo	-7.75443
fa	-7.7591
▁okuhle	-7.76417
hle	-7.76506
▁ninga	-7.76538
kha	-7.76741
▁zenu	-7.76756
▁ivangeli	-7.76803
▁eni	-7.76866
mashumi	-7.76937
▁ayi	-7.77257
bi	-7.77808
▁Ngi	-7.77924
Abrahama	-7.781
▁nokuthi	-7.78425
the	-7.78882
▁nang	-7.79378
kwenza	-7.7945
▁abaJuda	-7.79564
▁kukaNkulunkulu	-7.79619
ma	-7.80825
▁emhlabeni	-7.80859
▁O	-7.8116
▁waya	-7.82405
▁amandla	-7.82503
▁lami	-7.82679
▁sebe	-7.83085
leli	-7.83579
▁baya	-7.83897
▁k	-7.83907
▁Bas	-7.84369
▁ngalo	-7.84682
▁ani	-7.84718
▁abakhulu	-7.84921
▁nokuba	-7.85021
▁lapha	-7.85314
▁ngezwi	-7.85328
▁bam	-7.86113
▁ngiyaku	-7.86432
▁ngu	-7.86474
▁ethempelini	-7.86653
▁uPetru	-7.86659
A	-7.87467
bo	-7.87952
▁imisebenzi	-7.88121
▁uqobo	-7.88183
▁isikhathi	-7.88238
▁umbuso	-7.8843
thuma	-7.88489
▁bethi	-7.88792
▁ngani	-7.88904
ye	-7.89615
▁wayese	-7.89924
▁bayaku	-7.89952
▁nase	-7.90968
▁—	-7.91162
▁isixuku	-7.91313
▁kuKristu	-7.91849
▁Wayese	-7.9213
tha	-7.92297
lelo	-7.93575
yala	-7.94137
Kepha	-7.94139
!	-7.94305
▁anga	-7.94866
▁nathi	-7.94969
▁yabo	-7.95391
wo	-7.954
▁ye	-7.95676
fundisa	-7.95686
Uma	-7.95917
▁umusa	-7.96336
biza	-7.96493
Nkulunkulu	-7.97027
▁siya	-7.97162
pha	-7.97431
fakaza	-7.97591
▁wonke	-7.97599
▁ukuphila	-7.97805
njalo	-7.97928
▁bheka	-7.9822
▁nibe	-7.98335
thela	-7.99286
▁nonke	-7.99392
muntu	-7.99767
▁ukudla	-7.99768
gcina	-8.00168
▁laba	-8.00182
thu	-8.00201
▁sonke	-8.00974
▁wazi	-8.01049
qala	-8.01138
▁”	-8.013
▁wakho	-8.01449
▁kuqala	-8.01741
▁uzaku	-8.01762
lezo	-8.01832
▁kukho	-8.02168
▁ngosuku	-8.02711
▁indoda	-8.02743
▁kahle	-8.02821
▁kwethu	-8.02858
▁nguNkulunkulu	-8.02877
▁uBaba	-8.02954
▁izinsuku	-8.03061
▁kuwo	-8.03295
▁bona	-8.03906
▁Nga	-8.04265
▁elikhulu	-8.04284
▁indodana	-8.04589
▁kungabi	-8.05063
ki	-8.05182
▁enye	-8.05416
cela	-8.05844
▁zinto	-8.06105
▁kubantu	-8.0624
▁le	-8.06438
▁Bathi	-8.06461
▁Ese	-8.06474
ngo	-8.06544
▁b	-8.06646
▁sikhathi	-8.06715
▁ukukholwa	-8.06766
Ngi	-8.06795
▁bami	-8.06891
nika	-8.0737
▁yoku	-8.07397
▁onke	-8.07542
s	-8.07763
mazi	-8.0795
!”	-8.08016
▁Kuthe	-8.08193
▁ingelosi	-8.08373
▁njeng	-8.08653
thatha	-8.08932
nikela	-8.09061
Si	-8.09479
▁engi	-8.09896
ngathi	-8.10139
amazwi	-8.10288
vuma	-8.10402
lwe	-8.11169
▁olu	-8.11184
O	-8.12496
▁lakho	-8.12812
mandla	-8.12849
▁uthi	-8.13281
▁maka	-8.1334
khipha	-8.13619
▁eziningi	-8.13733
▁namandla	-8.13752
khulu	-8.13795
ngene	-8.14174
▁phakade	-8.14263
▁baba	-8.14321
▁Bheka	-8.14588
ng	-8.14809
▁Na	-8.14867
▁kinina	-8.15238
▁esikhulu	-8.15317
ando	-8.15455
Ku	-8.15478
▁amabili	-8.15631
▁sobukhosi	-8.15636
▁emzini	-8.1564
labo	-8.15644
▁koku	-8.16116
▁kungathi	-8.16407
▁base	-8.16677
lesi	-8.16751
▁Yi	-8.1751
▁eku	-8.17618
▁eziyishumi	-8.17632
dlula	-8.17645
▁amehlo	-8.17709
▁othile	-8.1788
▁nawe	-8.17934
▁ngalokho	-8.18101
fana	-8.18104
▁kuthi	-8.18132
▁ukufa	-8.18184
▁njengo	-8.18847
minyaka	-8.19052
phendula	-8.19759
andleni	-8.1979
Kwase	-8.20251
▁awu	-8.20817
▁m	-8.2085
▁soku	-8.20855
▁inkosi	-8.20921
▁K	-8.20971
▁ze	-8.20985
zwe	-8.21156
▁aye	-8.21493
▁mhla	-8.21663
▁okuphakade	-8.21823
▁sesi	-8.2188
▁abantwana	-8.21937
▁owaye	-8.22013
▁ngokukholwa	-8.22065
fumana	-8.22415
zwile	-8.228
Ni	-8.22947
▁imi	-8.23061
▁abo	-8.23102
ngu	-8.23902
▁iqiniso	-8.23931
▁egam	-8.24021
▁naku	-8.24057
▁indlu	-8.24219
▁umoya	-8.2422
▁kithi	-8.24395
▁es	-8.24537
▁loku	-8.24656
▁wo	-8.24874
▁onga	-8.25491
▁eziyisikhombisa	-8.26056
▁kwalokho	-8.26107
▁ngaphambili	-8.26116
▁ababili	-8.26157
khanda	-8.26676
Ndodana	-8.27362
E	-8.27395
▁kw	-8.27801
▁sibe	-8.28152
▁Nkosi	-8.2816
▁kun	-8.28201
▁niyaku	-8.28289
▁weNkosi	-8.28325
zinsuku	-8.28481
▁kulotshiwe	-8.28589
▁owesifazane	-8.28618
yakuba	-8.2898
▁lona	-8.29069
▁sami	-8.29356
kwa	-8.29424
thokoza	-8.29646
▁nezi	-8.29741
▁wabo	-8.29813
yaku	-8.3014
▁yebo	-8.306
▁ngoMoya	-8.30678
▁ngaba	-8.30683
khuleka	-8.31548
▁wangena	-8.3168
▁unga	-8.32024
me	-8.32161
Bheka	-8.32894
▁esiphambanweni	-8.32901
▁izono	-8.32953
▁leNkosi	-8.32963
▁umzimba	-8.32971
▁lezo	-8.33006
Lo	-8.33105
▁enda	-8.332
mu	-8.33372
▁yayo	-8.33426
▁uJohane	-8.33478
anga	-8.33985
zo	-8.34089
busweni	-8.34563
▁bakho	-8.34722
▁amadoda	-8.35129
▁funa	-8.35294
▁izingubo	-8.35358
▁Kanjalo	-8.35413
▁Ngase	-8.35416
bonakala	-8.3544
▁abanga	-8.35837
▁niya	-8.35865
bheka	-8.35931
sebenza	-8.36135
ele	-8.36373
hlanganyel	-8.3638
umpristi	-8.36927
▁nje	-8.36954
kwe	-8.36959
busisiwe	-8.37232
ko	-8.37656
Wena	-8.37702
▁wezulu	-8.37708
▁ibandla	-8.37797
▁beza	-8.37875
zwi	-8.38231
▁akhe	-8.38246
▁nazi	-8.38999
▁nithi	-8.39055
muka	-8.3917
S	-8.3936
qonda	-8.39795
zinkulungwane	-8.40163
▁izandla	-8.40233
▁umzalwane	-8.40322
▁sikaNkulunkulu	-8.40385
▁akakho	-8.40396
bafundi	-8.40489
lele	-8.40689
bulala	-8.40752
▁Kwa	-8.40803
iwe	-8.40951
▁ezinga	-8.41164
▁Sebe	-8.41347
yazi	-8.41393
sha	-8.41471
▁nginga	-8.41547
letha	-8.41871
▁esa	-8.41992
sondela	-8.42294
shiya	-8.42704
▁banga	-8.42704
▁omuhle	-8.4283
▁kalokhu	-8.42891
?’	-8.42942
▁akukho	-8.43059
K	-8.43363
▁kuzo	-8.43556
Ba	-8.43723
siye	-8.43751
mo	-8.43875
suka	-8.43932
▁zami	-8.44006
thumela	-8.4409
▁No	-8.44241
gcwele	-8.44285
ngelosi	-8.44363
▁ize	-8.44804
▁eya	-8.44811
▁zoku	-8.44846
▁uYise	-8.45393
▁yona	-8.45395
lela	-8.45467
▁Futhi	-8.45612
yiNdodana	-8.45846
phe	-8.46118
▁nangoku	-8.46282
▁ngayo	-8.46354
▁babo	-8.46826
▁abayi	-8.46971
▁so	-8.4779
▁ukulunga	-8.48192
▁lokuthi	-8.48215
▁inkazimulo	-8.48381
▁zakho	-8.48426
ngekho	-8.48617
kazi	-8.48631
▁kubafundi	-8.48662
de	-8.48688
onke	-8.48946
sokunene	-8.49033
▁ngubani	-8.49068
Ngiqinisile	-8.49111
k	-8.49229
▁wabona	-8.49435
memeza	-8.49545
▁okwa	-8.4976
abapristi	-8.49762
▁wahlala	-8.49866
fikile	-8.49868
kusukela	-8.49907
▁lithi	-8.5016
▁benga	-8.503
▁en	-8.50706
gama	-8.50855
▁nokho	-8.50862
▁izithelo	-8.50875
▁kaKristu	-8.50893
▁izixuku	-8.51016
vuka	-8.5119
▁okubi	-8.51254
buye	-8.51699
kuzwa	-8.51736
ileyo	-8.51856
▁kuso	-8.51887
▁wazal	-8.52009
lokhu	-8.52127
nyeni	-8.52241
isa	-8.52271
khala	-8.52326
Yi	-8.52424
nikwa	-8.52431
▁kunge	-8.52537
▁wayi	-8.52699
ngcwele	-8.52854
▁eng	-8.53179
shilo	-8.53632
▁emkhunjini	-8.5373
▁ehlane	-8.53732
namandla	-8.53743
▁namalunga	-8.53823
phezu	-8.53916
▁enkulu	-8.53919
▁inceku	-8.53942
▁amane	-8.53949
▁isizwe	-8.53955
▁kwathi	-8.54342
▁lwe	-8.54786
mba	-8.54881
thole	-8.54941
▁ngiku	-8.55173
▁zethu	-8.55417
Johane	-8.55456
▁bazi	-8.55492
▁kuya	-8.55599
zaku	-8.55829
Mfundisi	-8.55872
▁seku	-8.56004
swa	-8.56135
▁ube	-8.5629
oze	-8.56629
▁ekudleni	-8.56672
▁emi	-8.56683
▁weza	-8.56761
▁wayesethi	-8.56862
▁nokuthula	-8.56928
▁abangcwele	-8.56946
▁azi	-8.57332
phansi	-8.57507
f	-8.576
lani	-8.57623
Mina	-8.57874
▁Ng	-8.57879
▁kunga	-8.58135
▁ngize	-8.58234
▁uyi	-8.58538
▁zwi	-8.58641
da	-8.58716
▁nabafundi	-8.58889
tho	-8.58902
▁obu	-8.59141
▁ngawo	-8.59156
▁bodwa	-8.5971
▁ezintathu	-8.59714
▁abaprofethi	-8.59752
▁umfowabo	-8.59808
▁wamuka	-8.60241
▁int	-8.60463
ayo	-8.60469
▁nango	-8.60707
phonsa	-8.60756
▁uyise	-8.60874
▁am	-8.61071
bonga	-8.6118
lotshiwe	-8.61217
▁yayi	-8.6132
▁yibo	-8.61374
buza	-8.61437
▁we	-8.61461
ngazi	-8.61835
emisebenzi	-8.61921
▁ena	-8.61968
▁izinto	-8.62073
▁yo	-8.62751
▁isono	-8.62827
▁elwandle	-8.62827
▁kwabantu	-8.62835
ngcebo	-8.62857
hlupheka	-8.62865
▁isandla	-8.62925
▁kuyi	-8.62925
Maye	-8.63022
▁njengoku	-8.63027
▁uthando	-8.63074
▁ngamandla	-8.63095
▁umprofethi	-8.6311
▁Kwakukhona	-8.63136
nda	-8.63189
▁ngaso	-8.63299
ningi	-8.63346
▁ezine	-8.63423
▁waqala	-8.63592
▁amanga	-8.63636
vu	-8.63744
▁usuku	-8.63862
gubani	-8.64214
ndlu	-8.64316
▁wasi	-8.64387
Simoni	-8.64449
▁nakho	-8.64646
phatha	-8.64741
▁wakhuluma	-8.64962
▁leyo	-8.65014
Mariya	-8.65129
▁Bhekani	-8.65362
▁zinsuku	-8.65398
▁unina	-8.65761
▁zwe	-8.65819
su	-8.65925
▁enhliziyweni	-8.66053
▁Yena	-8.66053
▁umyalo	-8.6607
▁sithi	-8.66123
nike	-8.66138
▁eGalile	-8.66145
▁izulu	-8.66195
▁kambe	-8.66403
▁lawo	-8.66521
▁umuzi	-8.666
▁ngami	-8.66605
landela	-8.66638
lula	-8.66658
▁suku	-8.66772
▁pho	-8.66793
leso	-8.66944
▁othi	-8.67
▁bhekani	-8.67172
musa	-8.67219
mbuso	-8.67318
kufike	-8.67344
▁makub	-8.67362
▁ez	-8.67601
▁ifa	-8.67911
▁ukukhuluma	-8.67987
sebenzi	-8.68048
▁Ngiqinisile	-8.68295
phila	-8.68651
egama	-8.69039
▁akusi	-8.69055
z	-8.69231
▁athi	-8.69271
yisa	-8.69331
▁ethuneni	-8.69386
Eliya	-8.69395
▁lwakhe	-8.69406
▁okungukuthi	-8.69422
▁UPetru	-8.69427
▁ezimbili	-8.69445
▁izingelosi	-8.69445
▁abazalwane	-8.69506
▁ngakwe	-8.69514
▁abayishumi	-8.69584
▁isinkwa	-8.69585
▁indlela	-8.69606
▁noJohane	-8.6963
▁noNkulunkulu	-8.69827
▁naphakade	-8.69874
aqondan	-8.69953
leni	-8.70056
▁kaba	-8.70132
▁yimi	-8.70192
l	-8.70275
▁kuba	-8.70383
zelwe	-8.70437
▁ngokw	-8.71376
dle	-8.71396
qa	-8.71596
▁bu	-8.71697
owenza	-8.71746
▁in	-8.71785
hlale	-8.718
phethe	-8.71863
busi	-8.72032
▁siyi	-8.72091
bhapathiza	-8.72109
▁Aba	-8.7226
bantwana	-8.72331
zinhliziyo	-8.72654
▁ekukholweni	-8.72834
▁kanti	-8.72838
▁kwabezizwe	-8.72839
Madoda	-8.7284
▁esihlalweni	-8.72871
▁emihle	-8.72884
▁ngesandla	-8.72886
▁amademoni	-8.72971
▁inyama	-8.73168
▁ngemisebenzi	-8.73212
▁umsebenzi	-8.73289
nqoba	-8.73303
▁yayisi	-8.73388
▁wabuye	-8.73395
▁utho	-8.73682
▁ngibona	-8.74013
▁layo	-8.74504
sh	-8.74549
▁Bon	-8.74755
▁ukwenza	-8.74758
phika	-8.75024
vula	-8.75047
▁ebona	-8.75114
▁sasi	-8.75337
Bhekani	-8.75442
▁ma	-8.75516
▁iyaku	-8.75751
baningi	-8.75988
thele	-8.76158
vunyelw	-8.76323
▁ukuya	-8.76323
▁lingu	-8.76362
▁izinyawo	-8.76417
yise	-8.76444
▁ubuso	-8.76448
▁ngezandla	-8.76478
▁entabeni	-8.76506
▁emhlabathini	-8.76567
▁engena	-8.76576
▁inhliziyo	-8.76619
▁kaDavide	-8.76663
▁sakho	-8.76711
sezulwini	-8.76753
▁umntwana	-8.76757
▁njengaba	-8.7682
▁uMose	-8.77024
▁nababhali	-8.77118
▁kuhle	-8.77215
▁Ngiya	-8.77249
funda	-8.7734
mnika	-8.7771
▁M	-8.77778
kwenze	-8.779
baFarisi	-8.78301
lapho	-8.78359
▁lwa	-8.78537
bonile	-8.7892
file	-8.78957
▁nesi	-8.78986
mvu	-8.78997
▁ebe	-8.79374
▁baze	-8.79436
phela	-8.79533
▁kuJesu	-8.8009
▁etilongweni	-8.80109
misa	-8.8015
▁abampofu	-8.80234
▁yeNkosi	-8.80242
▁igazi	-8.80267
▁wenu	-8.80406
▁wona	-8.80445
▁uSathane	-8.80515
▁mazwi	-8.80543
chitha	-8.80575
limi	-8.80662
▁Lokho	-8.80663
elani	-8.80776
busa	-8.80792
▁udumo	-8.80824
Ng	-8.80899
phinda	-8.81063
▁Yebo	-8.8133
bani	-8.81348
▁wenza	-8.81566
kude	-8.8167
w	-8.81831
nazi	-8.82321
shaya	-8.82327
▁eza	-8.82772
▁Ni	-8.82909
ngabe	-8.82951
ge	-8.83065
phenduka	-8.83068
▁siyazi	-8.83074
abatha	-8.83279
▁lesi	-8.83574
▁ab	-8.83858
lile	-8.83901
ngabi	-8.83939
altare	-8.83955
veza	-8.83955
▁ayisikhombisa	-8.83955
funga	-8.83972
▁ezinhliziyweni	-8.83996
▁enhle	-8.84017
▁indawo	-8.84108
▁ngesikhathi	-8.84117
▁impela	-8.84144
di	-8.8418
▁ngazo	-8.84209
▁ukukhanya	-8.84231
▁Amen	-8.84281
▁kuBaba	-8.84353
▁seni	-8.8436
▁bamangala	-8.84563
kubona	-8.84678
lalela	-8.85012
▁kuyaku	-8.85059
gu	-8.85207
▁kwayo	-8.85241
▁bayi	-8.85319
keni	-8.85373
xa	-8.85461
zange	-8.85577
▁masi	-8.8572
loba	-8.86
khumbula	-8.86091
Ngakho	-8.86201
dumo	-8.86285
▁ubu	-8.86316
dabul	-8.86329
ubufakazi	-8.86413
lizwa	-8.86544
khu	-8.8707
kwaze	-8.87124
wela	-8.87219
▁ali	-8.87316
ndi	-8.8734
▁ami	-8.87356
qinisa	-8.87399
▁esinagogeni	-8.87957
▁izinkwa	-8.87972
▁ngesabatha	-8.87983
▁abafileyo	-8.88135
▁imali	-8.8818
▁itshe	-8.88211
▁uHerode	-8.8825
kaNkulunkulu	-8.88255
▁uphawu	-8.88285
▁izizwe	-8.88336
hora	-8.88356
▁bakaNkulunkulu	-8.88465
thola	-8.88518
▁nababe	-8.88537
laba	-8.88768
▁kwase	-8.888
sile	-8.88817
ndodakazi	-8.89002
kh	-8.89087
ngegama	-8.89124
fun	-8.89136
buthakathaka	-8.89198
▁kuvela	-8.89655
▁waphuma	-8.8967
yini	-8.89794
vusa	-8.90143
▁kule	-8.90586
mphendula	-8.90735
ani	-8.90817
▁njenga	-8.91122
mangala	-8.91217
mukela	-8.913
khanya	-8.91329
▁siyaku	-8.91504
kuKristu	-8.91533
▁kwafik	-8.91832
khetha	-8.92006
nsindiso	-8.92099
▁enyameni	-8.92122
▁iwayini	-8.92123
mesaba	-8.92138
▁amathathu	-8.92151
▁ndawonye	-8.92164
▁noKristu	-8.92169
▁nomhlaba	-8.92177
▁ngomthetho	-8.92179
▁lukaNkulunkulu	-8.92182
▁ingubo	-8.92204
▁isitsha	-8.92261
▁abathile	-8.92417
khulume	-8.92426
induna	-8.92467
lungile	-8.92482
▁nakanye	-8.92581
▁sizukulwane	-8.92634
▁ukuthula	-8.92729
zakuba	-8.92756
▁uPilatu	-8.92796
▁libe	-8.92985
▁wafa	-8.93015
▁yikho	-8.93065
▁ngathi	-8.93176
enyukela	-8.9322
;’	-8.93258
phuza	-8.93374
▁Si	-8.93454
khiphe	-8.93509
mbona	-8.93562
zile	-8.93562
Baba	-8.93706
▁iya	-8.9382
▁Pho	-8.93822
▁Waba	-8.93983
phakathi	-8.94401
▁nange	-8.9449
▁lase	-8.94841
kakhulu	-8.95065
▁kwavela	-8.9529
ngeni	-8.95416
hlobo	-8.956
kade	-8.95806
nde	-8.96052
ri	-8.96187
nxusa	-8.96279
buthana	-8.96335
▁ezint	-8.96361
▁on	-8.96406
▁Khonza	-8.9647
▁yedwa	-8.96488
▁bethu	-8.96516
▁komunye	-8.96516
▁ngokwenyama	-8.96518
▁benu	-8.96526
Isaya	-8.96561
▁ngomkhumbi	-8.96561
▁izinceku	-8.96571
▁incwadi	-8.96625
▁kaningi	-8.96665
▁namuhla	-8.96719
▁Petru	-8.96777
melana	-8.96786
▁abaFarisi	-8.96859
▁abezizwe	-8.96918
▁zathi	-8.97004
▁singa	-8.97071
▁ziyaku	-8.9733
mfanekiso	-8.97341
▁Ya	-8.97352
▁enu	-8.97481
▁nabaFarisi	-8.97489
▁wathatha	-8.97513
▁nakuba	-8.97589
▁linye	-8.9768
▁Lokhu	-8.97919
q	-8.98156
▁ngisho	-8.98204
muzi	-8.98369
Mose	-8.98401
▁njenge	-8.98738
▁nas	-8.98879
ngaphandle	-8.98921
▁zaba	-8.98952
▁leso	-8.9905
▁ithi	-8.99121
▁Mina	-8.99172
Pho	-8.992
▁ngizaku	-8.99324
ga	-8.99416
kubo	-8.99459
lana	-8.99728
▁eba	-9.00002
hl	-9.00203
▁nama	-9.00353
▁ngokwe	-9.00357
▁ngabe	-9.0056
ezinyawo	-9.00612
▁kwalo	-9.00691
ph	-9.00722
sukuma	-9.00883
▁emasinagogeni	-9.01015
▁kwasekuqaleni	-9.01015
▁eziyisihlanu	-9.01016
▁endleleni	-9.01019
▁ngemihla	-9.01025
▁maye	-9.01075
▁emoyeni	-9.01097
▁umvuzo	-9.01147
▁emthethweni	-9.01193
▁ophilayo	-9.01205
▁amanzi	-9.01227
▁ngabo	-9.01326
sela	-9.01374
▁ukum	-9.01515
bapristi	-9.01675
▁nenkazimulo	-9.01695
ny	-9.01756
▁yiNkosi	-9.01762
mbethe	-9.02004
▁ngibe	-9.02015
▁Qha	-9.02094
▁ngase	-9.02189
Angi	-9.02642
ombuso	-9.02716
c	-9.0277
go	-9.03015
nitshela	-9.03062
▁nguku	-9.03271
▁Angi	-9.03374
ti	-9.03419
moya	-9.03577
▁ngiyi	-9.03745
Ngokuba	-9.04001
Pilatu	-9.04563
njeng	-9.04706
mbi	-9.04771
themba	-9.04928
▁sabo	-9.04932
profetha	-9.04957
hlambalaza	-9.05012
vi	-9.05242
zalwa	-9.05333
ngwa	-9.05347
▁benza	-9.05357
▁sayo	-9.05545
▁ningaba	-9.05561
boshiwe	-9.05651
kuvuka	-9.05656
▁komhlaba	-9.05672
Efesu	-9.05777
Isaka	-9.05778
▁ngezilimi	-9.05782
▁Sa	-9.05804
▁nalokho	-9.05898
susa	-9.05901
lungele	-9.05941
hlakaniphileyo	-9.05942
▁Waphendula	-9.05943
▁isibindi	-9.05949
▁niye	-9.06008
bheke	-9.06054
lahla	-9.06138
▁ngomusa	-9.06144
▁umbhalo	-9.06146
phulukisa	-9.0618
▁kithina	-9.06197
phelele	-9.06211
r	-9.06311
▁ndawo	-9.06376
qinisile	-9.06416
▁ngoJesu	-9.0666
▁ngamazwi	-9.06738
B	-9.06808
fakazi	-9.07
necala	-9.07075
▁bebona	-9.07111
yinkosi	-9.07156
bufakazi	-9.07185
ho	-9.07266
▁Nina	-9.07316
mehl	-9.07411
mncenga	-9.07635
nakho	-9.08071
▁ukubona	-9.08141
▁inga	-9.08148
swe	-9.0824
tsha	-9.08457
Li	-9.08563
ezimvu	-9.08573
▁lezi	-9.08624
’	-9.08674
giqinisile	-9.08751
▁bengi	-9.08881
▁woku	-9.09071
▁ngangi	-9.09216
zenza	-9.09424
Filiphu	-9.09446
nkazimulo	-9.0976
du	-9.09842
kwamukela	-9.09849
zonda	-9.09907
babhali	-9.10016
lelwa	-9.10181
sixuku	-9.10232
kusho	-9.10525
▁nim	-9.10706
▁UPawulu	-9.10777
▁umkhumbi	-9.10777
▁likaKristu	-9.10779
▁waseNazaretha	-9.1078
▁ayisihlanu	-9.10787
▁umlomo	-9.10792
▁izithombe	-9.108
▁kungesikho	-9.10831
Asiya	-9.10833
▁yalokho	-9.10838
▁yekhulu	-9.10863
landisa	-9.10878
▁mawu	-9.10889
▁imihla	-9.10899
▁izibonakaliso	-9.10957
▁isibonakaliso	-9.11017
lahlekelwa	-9.11018
▁kwezwe	-9.11021
ngenisa	-9.11035
fisa	-9.11051
ndaba	-9.11076
▁isithelo	-9.11096
▁uyakuba	-9.11131
▁olungileyo	-9.1114
▁kweNkosi	-9.11194
▁besaba	-9.1125
qondi	-9.11263
lisa	-9.11309
banga	-9.11334
▁ngabantu	-9.11339
▁osezulwini	-9.11425
suku	-9.11477
▁Noma	-9.11684
▁wakhuleka	-9.11738
▁ikhanda	-9.12021
ra	-9.12039
▁ethile	-9.12139
Akakho	-9.12301
nto	-9.12334
▁alu	-9.12381
awu	-9.12399
sivumelwano	-9.12584
▁wawu	-9.12951
▁ngawe	-9.12965
vuna	-9.13108
leka	-9.13214
▁bakholwa	-9.13291
ngabantwana	-9.13352
nza	-9.1351
fi	-9.13614
g	-9.13717
nyama	-9.13889
▁ngesi	-9.14229
▁sengi	-9.14299
memezel	-9.14374
▁bafika	-9.14413
▁uba	-9.14697
▁umhlaba	-9.14737
lazi	-9.14758
▁kung	-9.14765
▁ngini	-9.14781
▁kungeng	-9.14783
▁uye	-9.14865
kuthula	-9.14939
hlu	-9.1495
butha	-9.15066
thathe	-9.15342
▁Le	-9.15487
phuze	-9.15734
▁oyaku	-9.15738
tu	-9.15989
P	-9.16009
phambene	-9.16011
sondele	-9.16013
kithi	-9.1603
Antiyokiya	-9.16041
sishiyagalolunye	-9.16041
▁emzimbeni	-9.16041
▁ezinhle	-9.16041
▁Ngokukholwa	-9.16058
▁noJakobe	-9.16097
▁ngalutho	-9.16098
▁Abanye	-9.16116
▁Kwaku	-9.16141
▁ngegazi	-9.16158
▁ezinda	-9.16217
khombisa	-9.16226
▁nabaprofethi	-9.16272
▁ukuhlakanipha	-9.1631
▁Omunye	-9.16321
▁wase	-9.16325
▁kubaJuda	-9.16334
▁bamanga	-9.16352
zibonga	-9.16381
▁umkakhe	-9.16395
▁nabanye	-9.16397
▁yamandla	-9.16486
▁nothando	-9.16534
▁Lowo	-9.1661
▁ithemba	-9.16618
▁ema	-9.16666
phind	-9.16697
▁okuningi	-9.16709
▁nokuphila	-9.16752
;”	-9.16929
▁kugcwalisek	-9.16948
qonde	-9.16998
hlushwa	-9.1705
▁bamemeza	-9.17058
▁kabi	-9.17084
buya	-9.17317
sizi	-9.17412
▁liyaku	-9.17527
▁naseku	-9.17544
▁ukuza	-9.17746
▁kaJesu	-9.17769
enziwe	-9.17853
▁muzi	-9.18215
▁aze	-9.18852
seduze	-9.18885
▁nize	-9.18887
iya	-9.18936
p	-9.19466
Yebo	-9.19776
Lokhu	-9.198
▁ange	-9.19961
ngaba	-9.20076
bamba	-9.20098
▁ibe	-9.20347
linda	-9.20438
bekwa	-9.205
lelwe	-9.20513
▁bem	-9.20634
H	-9.20743
bela	-9.2075
▁isilo	-9.20818
zanga	-9.20876
▁kwawo	-9.21073
nduna	-9.21107
kwahlulela	-9.2114
wafika	-9.21216
gcwala	-9.21263
bayishumi	-9.21284
qo	-9.21322
▁ekhona	-9.21343
nikele	-9.21541
▁kwesihla	-9.21546
hi	-9.21568
sishiyagalombili	-9.21596
▁ngasezinyaweni	-9.21596
▁yenkulungwane	-9.21596
▁ulaka	-9.21609
▁ozayo	-9.21617
▁komthetho	-9.21641
shisekel	-9.21672
▁Be	-9.21676
▁amaningi	-9.21683
▁olukhulu	-9.21687
▁esefikile	-9.21767
▁lwakho	-9.21775
kusindisa	-9.21777
▁W	-9.21841
▁esizweni	-9.21859
▁uDavide	-9.21915
▁kwazo	-9.2199
▁icala	-9.22047
▁unguKristu	-9.22114
gcine	-9.22328
▁nokukholwa	-9.22479
▁wamemeza	-9.22494
▁umfanekiso	-9.22567
▁nanga	-9.2289
▁niyazi	-9.22939
▁uMariya	-9.22952
▁usi	-9.22971
phathi	-9.22997
▁engcwele	-9.23002
▁abathi	-9.23084
▁bazaku	-9.23299
fundiso	-9.23345
mpi	-9.23575
▁phambili	-9.23614
▁ngale	-9.23617
ses	-9.2376
elwa	-9.23777
mthetho	-9.23778
bonakaliswa	-9.23911
▁kungaba	-9.24092
▁nonina	-9.24116
▁ningabi	-9.2416
phakade	-9.24287
▁abu	-9.24344
▁baye	-9.24375
▁wahamba	-9.24457
siza	-9.24471
makhulu	-9.2457
fileyo	-9.24662
nani	-9.24687
khe	-9.24716
baba	-9.24854
▁nane	-9.24891
▁ungu	-9.24908
d	-9.24922
▁kuthe	-9.25068
zala	-9.25154
▁obe	-9.25194
sibo	-9.25258
oko	-9.25705
wini	-9.25724
mdumisa	-9.25924
Hambani	-9.25939
INkosi	-9.25956
phakamisa	-9.26038
▁yizi	-9.26122
▁yawo	-9.26127
njani	-9.26253
makhosi	-9.26339
wamukela	-9.26409
▁Isi	-9.26542
iswa	-9.26622
sikhathi	-9.26713
thuka	-9.26731
▁nawo	-9.26769
thempeli	-9.26775
amukele	-9.26846
▁ethanda	-9.26856
hluleli	-9.26927
▁sika	-9.26982
thelisi	-9.2704
▁eyi	-9.27067
▁ebu	-9.27351
▁abase	-9.27373
▁Yayisi	-9.27379
▁ebumnyameni	-9.27478
▁kaJakobe	-9.27478
semhlabeni	-9.27479
▁umlilo	-9.2748
miphefumulo	-9.27482
bulawa	-9.27484
▁zabantu	-9.27497
▁ngesibindi	-9.27506
gijimela	-9.27522
▁lenu	-9.2753
bhubha	-9.27536
▁waze	-9.27562
▁kangakanani	-9.27566
dingi	-9.27573
▁nabantu	-9.27576
ngenzi	-9.27619
▁isithembiso	-9.27623
▁Njalo	-9.2765
▁zikaNkulunkulu	-9.27663
nalo	-9.27684
▁ngamatshe	-9.27686
▁elisha	-9.27694
▁kade	-9.27703
▁beni	-9.27762
▁nabesifazane	-9.27768
▁ngenhliziyo	-9.2777
shumayele	-9.27878
pheleleyo	-9.27879
dala	-9.27993
gcwalisa	-9.28049
▁ukuhlupheka	-9.28054
kwamukeliswa	-9.28081
enza	-9.28151
dabuka	-9.28157
kukhuluma	-9.28212
▁abakholwayo	-9.28222
▁yaso	-9.28249
lweni	-9.28319
▁mkhulu	-9.28332
▁maba	-9.2839
boni	-9.28506
▁owazi	-9.28524
▁zinga	-9.2858
▁nabantwana	-9.28883
▁bebe	-9.29256
nquma	-9.2941
sukela	-9.29704
▁izin	-9.29787
▁ngikhona	-9.29807
fike	-9.29974
shelwa	-9.30166
bazi	-9.30324
thwa	-9.30332
enze	-9.30352
yeka	-9.30494
buka	-9.30521
▁abaku	-9.30895
▁uM	-9.31143
▁nayo	-9.31178
yakuthi	-9.31411
nzalo	-9.31608
zingela	-9.31686
nje	-9.31714
▁yaba	-9.31825
thuba	-9.31862
benza	-9.31914
Khona	-9.31938
▁ngaku	-9.3213
kile	-9.32261
thobela	-9.32408
▁akho	-9.3243
vule	-9.32654
khonze	-9.32855
ezindlebe	-9.33154
bhapathizwa	-9.33188
akushoyo	-9.33232
kini	-9.33425
ngalaleli	-9.33442
bethelwe	-9.33586
phambi	-9.33597
bonwa	-9.33611
siliva	-9.33698
▁makezwe	-9.33729
▁ongithumileyo	-9.33731
mkhiwane	-9.33731
▁kolwandle	-9.33747
▁kwezono	-9.33763
▁ngezikhathi	-9.33764
▁ngokwesaba	-9.33782
▁eminingi	-9.33791
▁uJakobe	-9.33796
▁wema	-9.33817
▁likaJesu	-9.33841
▁niyi	-9.33883
▁lokuqala	-9.33915
bikela	-9.33969
▁abaphostoli	-9.34105
▁aya	-9.34128
▁ebusuku	-9.3413
▁umphefumulo	-9.34155
muke	-9.34161
okwakhulunywa	-9.34167
bika	-9.34203
▁imizi	-9.34208
ngayiku	-9.34219
▁ababi	-9.34238
▁kulokho	-9.34266
khula	-9.34281
▁sokuba	-9.34285
▁kubapristi	-9.34311
▁ahlale	-9.34346
yenza	-9.34415
▁umbusi	-9.34432
Ngizaku	-9.3446
▁ncwadi	-9.34499
thathu	-9.34522
olaka	-9.34635
▁un	-9.34641
▁elinye	-9.34657
▁zo	-9.34687
▁ngent	-9.34784
▁onamandla	-9.34803
▁niba	-9.34914
▁ukhuluma	-9.34929
▁Ninga	-9.35018
▁nom	-9.35109
▁Kanti	-9.35124
▁ngaphezu	-9.35212
▁besa	-9.3528
▁ngin	-9.35378
ninika	-9.35386
▁kumuntu	-9.35418
▁kunjalo	-9.35445
▁unamandla	-9.35445
hlela	-9.35475
bubele	-9.3558
▁ebusweni	-9.35614
▁omoya	-9.35619
lungileyo	-9.35735
▁behamba	-9.3576
▁izith	-9.35823
elwe	-9.35998
tshela	-9.36018
▁nasezi	-9.36165
▁ngiba	-9.36184
▁mfanekiso	-9.36336
▁kufanele	-9.36344
lungisiswa	-9.36539
ngithanda	-9.36549
sindiswa	-9.36553
ahlulela	-9.3658
thile	-9.36606
esi	-9.36613
mangalela	-9.36791
▁Baba	-9.3682
ezinto	-9.36929
egolide	-9.36959
▁kunokub	-9.37089
izwa	-9.37188
phonse	-9.37241
lukhuni	-9.37244
Aba	-9.37301
▁zayo	-9.37429
phumele	-9.37584
vuswa	-9.3808
▁ungo	-9.38166
kuzwile	-9.38168
▁ekwazi	-9.38192
▁yisi	-9.38309
thandekayo	-9.3853
phiwe	-9.38761
phume	-9.38787
cala	-9.38876
okwesithathu	-9.39147
▁nini	-9.39239
▁oyi	-9.39277
▁lw	-9.39553
khuthazela	-9.39579
ngubani	-9.40028
▁esasi	-9.40041
▁besi	-9.40075
khethiweyo	-9.40116
Woza	-9.40172
yingcosana	-9.40281
zinyanga	-9.40311
ezingelosi	-9.40359
shaywa	-9.40395
talenta	-9.40395
▁eJudiya	-9.40395
thukuthela	-9.40396
▁ngokwami	-9.40396
▁Uku	-9.40397
vame	-9.40398
▁kwenzeka	-9.40399
▁abazali	-9.404
▁kunalokho	-9.40404
▁Owesifazane	-9.4041
Rabi	-9.40411
ziphendulela	-9.40427
▁isidumbu	-9.40431
▁bukaNkulunkulu	-9.4044
▁emlilweni	-9.40467
wazi	-9.40497
▁wokuthi	-9.40526
▁uyeza	-9.40531
▁icebo	-9.40532
▁yabaJuda	-9.40534
Ngumuphi	-9.40552
▁wath	-9.40558
▁amabandla	-9.40634
▁ngangomuso	-9.40666
▁isipho	-9.40739
▁ngomoya	-9.40757
▁wabanika	-9.40805
▁ngaphambi	-9.40832
▁bambuza	-9.40862
▁ubusuku	-9.40876
▁ngaselwandle	-9.40893
▁isikhashana	-9.40901
▁sona	-9.40919
wehlela	-9.40961
▁ithempeli	-9.40979
▁uJuda	-9.41005
▁ngokunjalo	-9.41011
▁nodumo	-9.4107
Nina	-9.41079
▁ukwahlulela	-9.41329
▁into	-9.41353
▁bo	-9.41354
thethelela	-9.41533
Y	-9.41725
▁ngabona	-9.41763
▁sathi	-9.41832
omusa	-9.41936
▁nomoya	-9.41965
▁uSimoni	-9.42053
▁sinye	-9.4207
▁nceku	-9.42218
Ngiyaku	-9.42224
▁lokuba	-9.42334
Asi	-9.42423
▁sizwe	-9.42435
▁babuye	-9.42488
▁lali	-9.4267
Ngiya	-9.42717
naka	-9.42866
hambi	-9.42914
ngezwa	-9.43004
Sathane	-9.43066
▁ukungena	-9.43073
thumele	-9.43188
▁INkosi	-9.4325
sazi	-9.43252
▁wayo	-9.43255
▁bese	-9.43635
uku	-9.43734
▁ase	-9.43829
▁baphuma	-9.43936
▁uyazi	-9.43966
▁nenze	-9.4405
manzi	-9.44111
khulula	-9.44165
ezinye	-9.44334
nceku	-9.44421
kungenjalo	-9.44464
ncenga	-9.44508
▁ayaku	-9.44874
▁wali	-9.44878
ngathandi	-9.44907
yiphi	-9.44955
hambe	-9.45143
langa	-9.4525
▁iza	-9.45326
sikhashana	-9.45338
▁abani	-9.45392
yimi	-9.45654
▁yam	-9.45759
▁okunga	-9.45861
ehora	-9.45895
dalwa	-9.45907
▁kayi	-9.4604
khwelwe	-9.46042
ngakholwa	-9.46205
madodana	-9.46205
▁now	-9.46275
▁bakwa	-9.46393
kuphi	-9.46491
mvusa	-9.46831
▁bezi	-9.46855
bhe	-9.46914
ndle	-9.46983
seGalile	-9.47008
mafutha	-9.47021
sinda	-9.47067
▁ngokoku	-9.47203
zibonakalis	-9.47345
▁ziya	-9.47369
▁benze	-9.47397
betha	-9.47401
gunya	-9.47406
ntokozo	-9.47459
muzwa	-9.47479
buthene	-9.475
▁kunguku	-9.47517
▁hamba	-9.47524
ngamesabi	-9.47538
▁uMbhapathizi	-9.47538
mvubelo	-9.47538
▁eKesariya	-9.47538
▁emabandleni	-9.47542
▁anis	-9.47545
nzima	-9.47545
indlalifa	-9.47551
▁lwesithathu	-9.47563
▁ngemifanekiso	-9.47567
▁eMakedoniya	-9.47568
qamba	-9.47579
▁izipho	-9.47582
sezweni	-9.47613
▁ukungalungi	-9.47616
▁eKapernawume	-9.47617
zamazama	-9.47629
▁izimvu	-9.47631
sabelo	-9.4768
▁lethu	-9.47684
▁ngamanzi	-9.4771
▁zazo	-9.47749
▁ekukhanyeni	-9.47749
▁okwe	-9.47751
▁uhlangothi	-9.47798
▁babone	-9.47833
▁B	-9.4785
▁ekhaya	-9.48011
ise	-9.48035
▁nez	-9.48073
▁abagulayo	-9.48164
wele	-9.48169
▁nguMoya	-9.48194
nini	-9.48197
▁neNdodana	-9.48235
▁esinye	-9.4824
ngesiso	-9.48309
Ani	-9.48452
bopha	-9.48508
▁seli	-9.48565
mbiza	-9.48587
soka	-9.48601
faka	-9.48618
ce	-9.48651
qin	-9.48722
thwele	-9.48722
mbeka	-9.48743
▁nenza	-9.48781
nya	-9.48837
▁abakholwa	-9.48859
nishumaye	-9.48893
kwenziwa	-9.48896
hlangana	-9.49045
kela	-9.49052
▁use	-9.49088
zizwe	-9.49433
zindla	-9.49499
▁aso	-9.49572
pho	-9.49581
lungiselwe	-9.49611
philisa	-9.49699
▁nginge	-9.4973
sendlini	-9.49821
thabathe	-9.50016
dumisa	-9.50108
▁Nani	-9.50167
gula	-9.50215
▁uze	-9.50358
▁abakhile	-9.50601
▁ung	-9.50684
▁iso	-9.50738
▁badla	-9.50849
elene	-9.50899
▁akayiku	-9.50908
▁esinga	-9.51042
mina	-9.51306
ndlela	-9.51352
▁Seku	-9.51385
▁ngama	-9.51385
munye	-9.51626
dwa	-9.51769
chith	-9.51882
Aku	-9.51909
amagama	-9.51972
▁zibe	-9.52108
naye	-9.52148
mise	-9.52333
mp	-9.52336
▁yiyo	-9.52391
mntwana	-9.52479
yakufika	-9.52554
▁ukuzwa	-9.52571
▁livela	-9.52612
▁sokunene	-9.52619
thuli	-9.52897
lala	-9.53222
sila	-9.53313
nesibindi	-9.53334
Qha	-9.53403
▁lika	-9.5345
lahlwa	-9.53718
landa	-9.53848
▁awa	-9.53938
nethemba	-9.5399
fumane	-9.54007
lungis	-9.54025
nkemba	-9.5404
tshe	-9.54045
ngane	-9.54156
mpofu	-9.5457
Hamba	-9.54672
lahle	-9.548
jengokuba	-9.54842
ezwi	-9.54849
▁umi	-9.54856
▁ney	-9.54875
kanye	-9.54887
jabula	-9.5491
▁kwezi	-9.54914
phiwa	-9.55042
J	-9.55177
▁kangaka	-9.55224
Andreya	-9.5523
▁emuva	-9.5523
▁othandweni	-9.5523
▁bebodwa	-9.5523
▁iphasika	-9.5523
▁ekuphileni	-9.5523
▁okwenzekileyo	-9.55232
▁sikaKristu	-9.55234
khohlisa	-9.55238
▁ezimbi	-9.55258
kwenzile	-9.55295
G	-9.55309
▁kuyakub	-9.55312
yinhloko	-9.55321
▁ngomlomo	-9.55328
▁Yayisithi	-9.55362
▁kukaJesu	-9.55372
▁eGibithe	-9.55374
▁sebezwile	-9.55385
▁kanje	-9.55401
shunyayelwa	-9.55404
▁kungenzeka	-9.55413
▁iz	-9.55429
▁ngomlilo	-9.55438
▁umqhele	-9.55453
▁kokukholwa	-9.5548
▁eside	-9.55488
mthanda	-9.55495
beni	-9.55545
▁nab	-9.55574
▁kaSimoni	-9.55577
mfundi	-9.55612
▁ngempela	-9.55615
▁noBaba	-9.55636
imbewu	-9.55644
▁ngothando	-9.55653
mamukela	-9.55672
egazini	-9.55678
▁nendlu	-9.55684
▁amakhosi	-9.55688
▁ngingo	-9.55702
guqa	-9.55703
▁baphenduke	-9.55704
▁ngokuthokoza	-9.55739
▁inkemba	-9.55779
qh	-9.55787
tsheli	-9.55788
▁nemini	-9.55793
▁uJosefa	-9.55826
▁ngenza	-9.55837
▁ilanga	-9.55851
▁ekhuluma	-9.55854
linga	-9.55872
bizela	-9.56043
thokozisa	-9.56081
ngenamthetho	-9.56147
phumela	-9.56159
▁ungubani	-9.56184
▁nakubo	-9.56186
mehlo	-9.56231
nami	-9.56238
aba	-9.56247
▁Siya	-9.56359
ukuba	-9.5638
▁wenze	-9.56387
nawo	-9.5647
baJuda	-9.56504
ene	-9.56509
▁ongcwele	-9.56599
▁Aku	-9.56602
othando	-9.56603
▁Babe	-9.56679
▁awo	-9.56741
mprofethi	-9.56769
fakazela	-9.56798
▁unge	-9.569
Uya	-9.57015
▁esihle	-9.57128
silinganis	-9.57137
ngokuba	-9.57209
kaMoya	-9.5727
seJerusalema	-9.57305
emikhawul	-9.57389
▁kuka	-9.57494
▁imiyal	-9.57496
ngaphakathi	-9.57569
”	-9.57633
nayo	-9.57689
▁njani	-9.57721
manga	-9.57736
▁enani	-9.57744
khwe	-9.5779
▁nemi	-9.57966
gcoba	-9.58005
wokuqala	-9.58048
tshele	-9.58216
kuye	-9.58388
▁okuyi	-9.58712
▁ow	-9.58778
nhliziyo	-9.58869
ngasho	-9.5903
mphathi	-9.59079
▁ebi	-9.59113
misela	-9.5927
dlulile	-9.59447
sekhona	-9.59449
hlwanyela	-9.59589
▁ngiye	-9.59653
yibamba	-9.5971
empela	-9.59822
▁babona	-9.5987
kuqala	-9.59962
▁saba	-9.60011
ompristi	-9.60034
Th	-9.60089
▁bahamba	-9.6013
sala	-9.60184
nkosi	-9.60188
▁nasema	-9.60297
▁othanda	-9.6035
qinisileyo	-9.60363
mnike	-9.60375
bezwa	-9.60412
zisa	-9.60474
yinto	-9.60475
mhlophe	-9.60483
nguKristu	-9.60531
▁wawa	-9.60558
bonayo	-9.60576
seleyo	-9.60647
Ngo	-9.60665
▁ephuma	-9.60736
sinkwa	-9.60795
▁kwale	-9.61005
saba	-9.61123
bekezela	-9.61193
▁sakwa	-9.61374
kayo	-9.6151
lunga	-9.61579
bemi	-9.61582
▁ozaku	-9.61588
▁linga	-9.61589
▁uzakuba	-9.61681
Kanti	-9.61724
▁ehamba	-9.61773
▁owathi	-9.61817
khubeka	-9.6193
Awu	-9.6197
ncane	-9.62206
▁Ma	-9.62382
Sawulu	-9.62519
mademoni	-9.62565
seJudiya	-9.62566
Naku	-9.62681
fumananga	-9.62738
R	-9.62818
zikhonzi	-9.62862
bayala	-9.62873
eNdodana	-9.62891
thandwa	-9.62985
mfihlakalo	-9.63031
zuza	-9.63115
swela	-9.63171
muthi	-9.63194
fanis	-9.63287
▁siba	-9.63296
bha	-9.63388
▁nin	-9.63405
qeda	-9.63459
sithelo	-9.63501
▁iyi	-9.63528
bhubhisa	-9.63543
▁asiyiku	-9.63545
▁baku	-9.63561
thethelelwe	-9.63564
nduneni	-9.63564
▁imibhalo	-9.63564
▁Bazalwane	-9.63564
ganwa	-9.63564
izuze	-9.63566
Moya	-9.63567
lotshwe	-9.63569
▁eyishumi	-9.63571
▁Ngokunjalo	-9.63577
▁Za	-9.63577
Hlala	-9.63579
▁ayisithupha	-9.6358
▁ngokwesibili	-9.63583
▁ngoKristu	-9.63599
▁zezulu	-9.63607
langazelela	-9.63614
▁umyeni	-9.63615
▁nguBaba	-9.63646
▁ezinkulu	-9.6365
▁noBarnaba	-9.63669
▁izisebenzi	-9.63687
hlanjululwa	-9.63692
▁senu	-9.63694
▁uthanda	-9.63695
▁lwami	-9.63712
▁naseNkosini	-9.63714
▁abangcolileyo	-9.63717
▁ingqondo	-9.63721
▁oPetru	-9.63724
▁abesifazane	-9.63724
▁kuKesari	-9.63736
▁kathathu	-9.63739
cabanga	-9.6374
▁nabafowabo	-9.63755
▁Yathi	-9.6376
▁ngiyethemba	-9.63761
▁sikaJesu	-9.63766
▁negazi	-9.63768
thinta	-9.63778
▁eDamaseku	-9.63779
▁noMoya	-9.63784
▁esixukwini	-9.63813
▁ongcolileyo	-9.6384
▁ngeqiniso	-9.63869
▁uyihlo	-9.6387
▁lombuso	-9.63919
▁njalonjalo	-9.63922
▁umhawu	-9.6394
▁bamlandela	-9.63941
▁umnikelo	-9.63977
embathisa	-9.63988
▁Abant	-9.64006
▁nomunye	-9.64058
▁imfihlakalo	-9.64111
▁uhlaka	-9.64116
hlamba	-9.64135
▁Manje	-9.64148
▁ukhona	-9.6418
▁Waye	-9.6428
▁uMsindisi	-9.64281
▁omhlaba	-9.64312
▁uhambe	-9.64373
▁nabazalwane	-9.64392
▁ngubufakazi	-9.64413
▁ukulahlwa	-9.64416
ngumzimba	-9.64433
kaKesari	-9.64453
▁ngukuphila	-9.64503
nezingelosi	-9.64536
▁uzi	-9.64612
fund	-9.64645
▁lini	-9.64673
▁ihora	-9.64682
▁nomuntu	-9.64694
baphostoli	-9.6477
qondileyo	-9.64775
miselwe	-9.64957
▁Se	-9.64999
Le	-9.65069
womoya	-9.6541
▁embona	-9.65501
▁ngiyazi	-9.65664
▁ngaphakathi	-9.6589
▁cala	-9.65939
▁lukhuni	-9.66
misile	-9.6601
▁neye	-9.66058
▁ukuzi	-9.6608
▁Maku	-9.66133
▁Wayeseba	-9.66225
nguye	-9.66328
▁ngum	-9.66371
▁ukwazi	-9.66442
phonsw	-9.66606
bonanga	-9.66632
bele	-9.66643
nabo	-9.66717
geza	-9.66848
▁ekuvu	-9.66877
▁angis	-9.67014
bhali	-9.67111
dlule	-9.67177
veli	-9.67235
▁bemi	-9.67338
bazalwane	-9.67401
enhliziyo	-9.67458
kwambulwa	-9.67467
wezwa	-9.67476
▁basi	-9.67512
akube	-9.67529
▁Esa	-9.67751
kheth	-9.67885
▁sezi	-9.67947
ci	-9.67974
nqa	-9.67993
mfazi	-9.68005
mela	-9.68056
khulumile	-9.68091
Juda	-9.68248
▁ndlu	-9.68368
▁bezwa	-9.68714
▁sazi	-9.68859
▁ingena	-9.6888
▁ningabe	-9.68936
▁ofuna	-9.69034
j	-9.69059
Z	-9.69196
dela	-9.69308
zazi	-9.69368
mpristi	-9.69485
x	-9.69603
linganisa	-9.69765
iyu	-9.69893
yalo	-9.69991
thande	-9.70062
ane	-9.70143
▁aban	-9.70358
ngaboni	-9.70398
▁usu	-9.70472
yeni	-9.70563
phendul	-9.70632
▁osi	-9.70665
▁Ngalo	-9.7073
hlwanyelw	-9.70813
▁ongu	-9.71014
lungisela	-9.71195
lingwa	-9.7128
yibona	-9.71349
buth	-9.71352
thembekile	-9.71512
qinise	-9.71689
Wa	-9.71746
zenzisi	-9.7176
omunye	-9.71769
Msindisi	-9.71875
▁nasemi	-9.72191
khululekile	-9.72208
phawu	-9.72234
▁Uya	-9.72255
khul	-9.72343
▁engiku	-9.724
zindawo	-9.72463
Yini	-9.72538
ngukukhanya	-9.72569
sinagoge	-9.72621
sigqila	-9.72631
Agripha	-9.72655
Ananiya	-9.72655
Apholo	-9.72655
Zakariya	-9.72655
▁Pawulu	-9.72655
▁isihawu	-9.72655
▁isiphambano	-9.72655
▁ubufebe	-9.72655
▁ngokomthetho	-9.72655
▁ekufeni	-9.72655
shesha	-9.72655
vama	-9.72655
▁phandle	-9.72655
weli	-9.72656
▁bantu	-9.72656
sawoti	-9.72657
▁ukwahlukana	-9.72658
kukhubekisa	-9.72661
▁okweshumi	-9.72661
▁encwadini	-9.72666
hlatshelwe	-9.72667
▁emizini	-9.72668
▁babantu	-9.72674
▁sokwahlulela	-9.72692
▁lwenu	-9.72696
bekiwe	-9.72699
fundiswa	-9.72702
▁ukumbulala	-9.72704
▁kowesifazane	-9.72707
kubongwa	-9.72717
▁yabantu	-9.7272
▁nezoni	-9.72749
▁Esakhuluma	-9.72752
▁Magdalena	-9.72755
▁omusha	-9.72771
▁nabezizwe	-9.72784
▁ngokuthula	-9.72799
dliwa	-9.72816
mbuza	-9.72821
▁nolwandle	-9.72822
▁amalunga	-9.72825
▁engo	-9.72825
▁ngobuso	-9.72828
xosha	-9.72837
▁impahla	-9.72844
▁nobusuku	-9.72846
▁yamanzi	-9.7287
▁nenyama	-9.72885
▁inxenye	-9.72891
thando	-9.72905
▁kabili	-9.72907
▁Wasuka	-9.72916
hlanganis	-9.72954
▁ebandleni	-9.72959
▁iJerusalema	-9.72965
▁sihambe	-9.72989
▁uYihlo	-9.73009
re	-9.73034
nikelwa	-9.73069
▁boku	-9.73071
mbhalo	-9.73073
miso	-9.73121
▁umphostoli	-9.73121
thembekileyo	-9.73146
unywa	-9.73186
▁ngaleso	-9.73214
▁yimina	-9.73296
▁abenza	-9.73317
▁nidle	-9.73369
lalele	-9.73375
yizigqila	-9.73386
▁amabutho	-9.73386
▁amakhulu	-9.73434
▁yilokhu	-9.73526
▁kuPilatu	-9.7354
▁nguJesu	-9.73552
▁isihla	-9.73566
▁wakubo	-9.73607
akhu	-9.73632
thokoze	-9.73667
qondisa	-9.7368
Ungesabi	-9.73682
▁namunye	-9.73692
bongwe	-9.73716
ta	-9.73738
ntand	-9.73753
▁okunjalo	-9.7378
dukisa	-9.73789
▁Thina	-9.73832
▁azo	-9.73909
▁ekuphum	-9.73971
▁kwaso	-9.74001
▁Zi	-9.7401
▁abangena	-9.74063
fundise	-9.74113
▁yaya	-9.74115
abafelokazi	-9.7412
ezinkwa	-9.74224
thenga	-9.74235
omoya	-9.74254
suse	-9.74296
uma	-9.74313
▁ngokufa	-9.74356
feze	-9.74431
▁ithole	-9.74438
▁inamandla	-9.74458
▁Kuyaku	-9.74461
sango	-9.74513
mhlangabeza	-9.74541
enduduzo	-9.74568
ngofakazi	-9.74577
nziwe	-9.74691
▁nohlezi	-9.7471
▁lolo	-9.74718
▁kokuthi	-9.74966
▁kuyena	-9.7498
gangomuso	-9.75024
▁ukuyo	-9.75069
▁bafumana	-9.75092
▁wabonga	-9.751
hlali	-9.7514
mfundisi	-9.75164
mali	-9.75251
▁Ababe	-9.75296
▁nalo	-9.75373
▁ukulwa	-9.75417
▁wakha	-9.7559
▁abahamba	-9.75608
▁yikhona	-9.75716
▁nalokhu	-9.75728
▁bayakuba	-9.75765
▁yinina	-9.75785
▁zam	-9.75809
lungu	-9.75828
ndulela	-9.75888
enu	-9.75896
eza	-9.7599
bethele	-9.76017
▁waso	-9.76038
▁im	-9.7604
▁izaku	-9.76153
shu	-9.76191
guqu	-9.76252
thwe	-9.76253
Izi	-9.76256
mshaya	-9.76326
▁Besa	-9.76369
zela	-9.76461
busisa	-9.76465
▁ukufika	-9.7662
▁Sesi	-9.76649
▁sekuyi	-9.7686
embethe	-9.7697
▁bali	-9.77056
mbo	-9.77131
▁lama	-9.77243
londa	-9.77266
▁ano	-9.7735
esibili	-9.77689
qede	-9.7777
ngomunye	-9.77986
ngumuntu	-9.77992
▁noJesu	-9.7804
▁eyaku	-9.78112
zinhlupheko	-9.78167
▁size	-9.78243
akhiwe	-9.78246
▁Th	-9.78351
kholekile	-9.78437
bize	-9.78674
belwa	-9.787
▁washo	-9.78749
bingelela	-9.78775
▁umfundi	-9.79321
▁baningi	-9.79494
nilobela	-9.79496
zinwele	-9.7953
ngadli	-9.79597
mbala	-9.7987
isisa	-9.7988
▁ngiyakum	-9.79951
▁Ayese	-9.80278
amatshe	-9.80348
dli	-9.80428
▁uphons	-9.80434
▁ibi	-9.80539
Wo	-9.80545
▁embi	-9.80566
Wathi	-9.80974
mkhonza	-9.81001
▁bayo	-9.81052
▁mayi	-9.81238
nkulu	-9.81395
▁beyi	-9.8141
bulo	-9.81415
mnene	-9.81439
yeli	-9.81473
F	-9.81479
wenza	-9.81557
libo	-9.81567
naki	-9.81599
yeki	-9.81615
Josefa	-9.81687
shisa	-9.81814
nina	-9.81876
linye	-9.81898
mvelo	-9.81979
Sukuma	-9.82026
mpande	-9.82099
ngozini	-9.8211
zixuku	-9.82124
bhujiswa	-9.82143
yenze	-9.82178
▁owam	-9.82409
abafokazi	-9.82436
hawukela	-9.82451
mbonga	-9.82454
nele	-9.82489
▁neze	-9.82498
kuvele	-9.825
▁ezon	-9.82556
bukhali	-9.82568
shiwo	-9.82634
gqolozela	-9.82654
hlwith	-9.82654
▁ekulingweni	-9.82654
▁ekwahlulelweni	-9.82654
▁ensimini	-9.82654
▁inkonzo	-9.82654
▁phesheya	-9.82654
▁ubumnyama	-9.82654
▁noyedwa	-9.82655
▁edwaleni	-9.82655
▁izikhathi	-9.82655
▁emphakathini	-9.82655
notho	-9.82656
▁imvuthuluka	-9.82656
bubula	-9.82657
▁emkhosini	-9.82657
▁nakalokhu	-9.82658
▁ezizweni	-9.82663
▁mihla	-9.82665
▁izoni	-9.82669
▁emanzini	-9.8267
▁obala	-9.82679
lungisele	-9.82681
▁nobu	-9.82682
Adam	-9.82682
▁sekupheleni	-9.82685
▁Labo	-9.82686
Akhaya	-9.8269
▁ayishumi	-9.82695
▁muni	-9.82702
▁ngevangeli	-9.82711
▁ngemvelo	-9.82726
▁laseJudiya	-9.82727
▁kwelinye	-9.82734
▁wezwe	-9.82747
▁inkanyezi	-9.82756
zikhali	-9.82758
▁anothi	-9.82761
▁namanje	-9.82764
▁esihogweni	-9.82766
▁akubanga	-9.8277
▁nezinhlanzi	-9.82773
▁Esefikile	-9.82788
▁kwenyama	-9.82799
bonakalisiwe	-9.828
▁noThimothewu	-9.82807
zinhlupho	-9.8281
▁nikholwe	-9.82832
▁kuPetru	-9.82835
ongolo	-9.82837
▁intombazana	-9.8287
▁okhuluma	-9.82897
▁nokuphikisana	-9.82899
ngakanani	-9.82927
▁nizaku	-9.82969
▁kaMose	-9.82987
ezithelo	-9.82998
▁umhlambi	-9.83022
▁benhliziyo	-9.83023
▁umakhelwane	-9.8303
▁ungumprofethi	-9.83034
▁ezazi	-9.83042
▁nababusi	-9.83071
▁ukusoka	-9.83089
▁Maka	-9.83098
▁zawo	-9.83124
▁esisha	-9.83131
▁eninga	-9.83137
▁sokuthi	-9.83147
▁iWundlu	-9.8315
▁izitho	-9.83174
▁kubazalwane	-9.83174
▁kunabo	-9.83194
▁ukwahlulelwa	-9.83196
duka	-9.83206
▁ngokuningi	-9.83286
mabandla	-9.83287
▁wambuza	-9.83302
▁ngikhulume	-9.83317
▁anakho	-9.83347
fundile	-9.8335
dinga	-9.83358
▁kwabangcwele	-9.83378
▁Yon	-9.83455
▁ngeNkosi	-9.83469
▁abalungileyo	-9.83549
▁hambani	-9.836
thandi	-9.83655
▁ukuphenduka	-9.83684
▁phezulu	-9.83695
▁ngalokhu	-9.83708
▁onakho	-9.83726
phendukel	-9.83727
▁ethandekayo	-9.8376
omzimba	-9.8379
ahlulele	-9.83839
thule	-9.83896
funyanwa	-9.83927
▁amadodana	-9.8397
nikile	-9.83998
vumanga	-9.8415
▁Nkulunkulu	-9.84152
hluphek	-9.84165
lingi	-9.84201
▁liya	-9.8424
▁ukuphela	-9.84291
▁wasuka	-9.84445
▁busuku	-9.84447
yizinceku	-9.84499
▁obaba	-9.84533
wula	-9.84554
▁nkosi	-9.84658
siphuza	-9.84659
▁ose	-9.84694
▁okunye	-9.84705
ntaba	-9.84928
▁bamuka	-9.84944
▁Bona	-9.85071
▁Ubusisiwe	-9.85198
kuba	-9.85309
Herode	-9.85421
▁ethu	-9.85451
kudla	-9.85457
omsebenzi	-9.85466
bizile	-9.85475
▁yiz	-9.85539
kaSathane	-9.85608
isi	-9.85626
▁kuphila	-9.85637
▁ekuzwa	-9.85752
▁ake	-9.85878
▁uthini	-9.8594
mpela	-9.85957
ngaphezu	-9.8613
▁Um	-9.86173
sabatha	-9.86177
wamukele	-9.862
▁sihamba	-9.86238
▁om	-9.86268
▁Ngiyaku	-9.86354
amacala	-9.86493
baphendula	-9.86526
thengisa	-9.86584
kuphela	-9.86589
ndisa	-9.86685
delela	-9.86801
khaphela	-9.8688
wesibili	-9.86882
faneleyo	-9.86918
▁ziye	-9.86977
▁Ani	-9.87011
Ya	-9.87145
▁enjalo	-9.87205
▁wakholwa	-9.87239
▁efundisa	-9.87305
▁luya	-9.8738
okuba	-9.87381
Ngu	-9.8748
thwale	-9.87526
nipha	-9.87538
ezindlela	-9.87651
▁wayenga	-9.87755
▁seNkosi	-9.87769
zinkanyezi	-9.87835
mbamba	-9.87961
tsh	-9.88028
omphakathi	-9.88044
bonileyo	-9.88706
▁bangaba	-9.88876
cele	-9.88907
yiqiniso	-9.89134
zulu	-9.89177
▁and	-9.89184
esono	-9.89201
kubola	-9.89267
▁yawa	-9.89346
▁kude	-9.89632
kwevangeli	-9.89733
hlukene	-9.89928
▁iyakuba	-9.89951
buyisela	-9.90107
t	-9.90118
sika	-9.90186
busuku	-9.9022
bamukele	-9.90237
▁nanye	-9.90436
sahamba	-9.9044
eqiniso	-9.90451
nyaka	-9.90539
bulale	-9.90711
vumele	-9.90922
▁sin	-9.90957
▁kuse	-9.91062
ngukufa	-9.91063
▁naso	-9.91298
▁enge	-9.91307
sibonakaliso	-9.91313
▁wayeba	-9.91361
kimi	-9.91364
▁ngok	-9.91474
▁Lo	-9.91487
gcwalis	-9.91582
▁yazini	-9.91583
▁ongi	-9.91629
bekezelela	-9.9166
balekela	-9.91942
khiwa	-9.91947
Noma	-9.91965
▁nasem	-9.91997
ngiphe	-9.92005
Kwathi	-9.92026
shumi	-9.9206
▁Aka	-9.922
philayo	-9.92507
njengo	-9.92664
kwesaba	-9.92688
mphefumulo	-9.92759
thengisi	-9.92841
Wundlu	-9.92935
▁efika	-9.92977
lambile	-9.93007
thethelele	-9.93068
ntombi	-9.9323
phikisana	-9.93305
tabernakele	-9.93358
tholile	-9.93363
namathel	-9.93468
obufebe	-9.93472
gijima	-9.93526
okungalungi	-9.93597
nxa	-9.936
D	-9.93621
Levi	-9.93621
▁owasi	-9.93625
▁bawo	-9.93635
obumnyama	-9.93638
iswe	-9.93675
khaya	-9.93678
▁mani	-9.93704
2	-9.93753
zaneni	-9.93758
sizwe	-9.93764
Elisabethe	-9.93766
Kayafase	-9.93766
Khana	-9.93766
Khefase	-9.93766
Qaphelani	-9.93766
Sodoma	-9.93766
Xwayani	-9.93766
esiphambano	-9.93766
funyanwe	-9.93766
siprofetho	-9.93766
zigabisa	-9.93766
▁Yeminqumo	-9.93766
▁ekuqaleni	-9.93766
▁emnyango	-9.93766
▁zombili	-9.93766
▁insimu	-9.93766
▁nxazonke	-9.93766
▁zikaKristu	-9.93766
khathalela	-9.93766
sikhwama	-9.93766
dumaza	-9.93766
mikhumbi	-9.93767
nendlebe	-9.93767
balekele	-9.93768
▁kuYise	-9.93768
ezinyoni	-9.93769
▁izinyoni	-9.9377
▁izizindlo	-9.93775
Ngilandele	-9.93776
lungelo	-9.93776
▁qha	-9.93786
▁lwesabatha	-9.93788
mkhuza	-9.93789
▁ngokuhunyushwa	-9.9379
kukho	-9.93795
▁izincwadi	-9.93803
▁bambulale	-9.93805
▁kaZebedewu	-9.93808
▁kusho	-9.93811
▁yokulunga	-9.93812
▁yomthetho	-9.93817
nqunywa	-9.93825
▁yezono	-9.9383
suswa	-9.93831
▁yenyama	-9.93836
▁zamlandela	-9.93839
▁lomlilo	-9.9384
▁yenkazimulo	-9.93843
▁nezilimi	-9.93846
hlanya	-9.93852
▁wokuphila	-9.93855
▁ngesihle	-9.93859
▁abayisikhombisa	-9.93865
▁ngamadolo	-9.9387
▁ngenkemba	-9.93871
▁yodwa	-9.93872
engubo	-9.93887
▁uBaraba	-9.93891
▁lakubo	-9.93922
▁kaJosefa	-9.93927
▁okungaka	-9.93947
kugcineni	-9.93948
▁yokuphila	-9.93948
bomvu	-9.9395
cebile	-9.93954
nze	-9.9396
▁lokuphila	-9.93965
▁somusa	-9.93991
▁ngamademoni	-9.93999
▁ezithile	-9.94003
khandleka	-9.94005
▁Akukho	-9.94018
▁ngabanye	-9.94021
thunyiwe	-9.94047
Namuhla	-9.94058
ama	-9.94059
▁kwamanzi	-9.9406
▁Wabuye	-9.94086
▁ngokuhlakanipha	-9.941
phelelisiwe	-9.94102
▁Iskariyothe	-9.94108
lobela	-9.9412
▁isisekelo	-9.94126
▁esiswini	-9.94146
▁nokuhlakanipha	-9.94147
▁amazinyo	-9.94149
▁zona	-9.94165
▁ngokufaneleyo	-9.94175
hola	-9.94229
nxanel	-9.94242
muphi	-9.94245
▁lunye	-9.94277
▁nempela	-9.943
seGibithe	-9.94307
▁uyakusindiswa	-9.94345
▁isabatha	-9.94358
▁wabafundisa	-9.94363
Kalokhu	-9.94431
▁ukuzibonga	-9.94443
▁kwenye	-9.9451
iweyo	-9.94516
▁ukuthethelelwa	-9.9454
▁nomthetho	-9.94556
▁ingu	-9.94556
▁okungcwele	-9.94566
▁ukwesaba	-9.94593
Niya	-9.9461
▁wamvusa	-9.94613
▁othandekayo	-9.94621
uleni	-9.94631
thuna	-9.94642
▁akwa	-9.94752
▁angena	-9.94792
▁inzalo	-9.94795
ezindlebeni	-9.94843
▁sihlale	-9.9485
▁ndoda	-9.94938
▁kwabanye	-9.9494
▁nguwe	-9.9502
▁endala	-9.95034
waba	-9.95038
▁nokuthokoza	-9.95077
▁umfazi	-9.95082
▁omubi	-9.95237
▁okwaku	-9.95242
vutha	-9.95254
▁sitsha	-9.95264
▁kaso	-9.95266
▁Njengalokh	-9.95276
▁eyisi	-9.95285
▁maku	-9.95298
yindoda	-9.95403
wezizwe	-9.95468
▁kawu	-9.9547
▁Lapho	-9.95471
ngumJuda	-9.95484
▁namakhosi	-9.95499
▁Kukhona	-9.95552
cindezela	-9.95579
▁Nami	-9.95609
ngalokho	-9.95621
▁ngingu	-9.95645
▁owaba	-9.95669
▁abanjalo	-9.95701
▁ngokubona	-9.95712
gcwaliseka	-9.95783
luleka	-9.95805
nomoya	-9.95843
esikhathi	-9.95929
msebenzi	-9.95947
▁ebengi	-9.95974
▁angene	-9.96037
khuthalela	-9.96063
▁namazwi	-9.96205
▁ngazi	-9.96207
▁bafa	-9.96238
▁sinkwa	-9.96256
▁angazi	-9.96268
Zi	-9.96295
▁ak	-9.96412
▁yasi	-9.96571
▁ngiza	-9.96611
▁ubani	-9.96631
▁behlel	-9.96692
▁nikhuleke	-9.96695
▁bezwe	-9.96761
fundisi	-9.96776
▁nibona	-9.96869
▁bephuma	-9.97005
▁Niya	-9.97043
iyeza	-9.97179
amasango	-9.97285
▁esiyi	-9.97302
▁kubi	-9.97569
khuleke	-9.97583
▁ekhanda	-9.97606
dukis	-9.97667
▁engaka	-9.97724
▁ningena	-9.97757
alokhu	-9.97784
▁kimina	-9.97797
Kuse	-9.97829
▁okuqond	-9.97892
▁nithanda	-9.97931
lodwa	-9.98038
Nawe	-9.98122
▁us	-9.9813
ngalo	-9.98251
▁ukuma	-9.9831
▁ngisa	-9.98397
thuthumela	-9.98662
amukeliswa	-9.98678
hlaka	-9.9869
yikhona	-9.98735
phostoli	-9.98776
fowethu	-9.98877
amanye	-9.98895
tabeni	-9.98941
akhe	-9.98948
senze	-9.98962
▁inye	-9.99351
usuku	-9.99355
▁okuphila	-9.99414
nzini	-9.99479
ngenakho	-9.99506
yinceku	-9.99518
▁el	-9.99599
enzele	-9.99744
Ungubani	-9.99894
nikelwe	-9.99905
▁kunye	-9.99918
phuzi	-10.0004
▁nizi	-10.0016
nku	-10.0029
khulumisa	-10.0049
uka	-10.0073
khathazeka	-10.0092
ndawo	-10.0135
yale	-10.0139
▁kwesi	-10.0147
gazi	-10.0151
ndlini	-10.0161
kuphila	-10.0162
▁enze	-10.017
ini	-10.0182
sayiku	-10.0184
wammisa	-10.0198
neminyaka	-10.0205
kuhlwile	-10.0209
sithunzi	-10.0214
mlalela	-10.0218
madoda	-10.0231
hlukanis	-10.0233
▁ning	-10.0237
vumela	-10.0247
▁neni	-10.0272
▁Nguye	-10.0292
W	-10.03
▁eN	-10.03
Davide	-10.0304
▁kubona	-10.0318
zingubo	-10.0337
▁akus	-10.0354
omlilo	-10.0358
▁ben	-10.0364
asinyane	-10.0368
isiwe	-10.0378
▁beli	-10.0382
menyiwe	-10.0383
bandla	-10.0395
▁wangi	-10.0406
▁Bam	-10.0411
buyel	-10.0431
bapha	-10.0431
Lapho	-10.0437
amanyala	-10.044
yethemba	-10.0444
enziwa	-10.0445
buthe	-10.0449
▁nabase	-10.0452
enzo	-10.0453
namahloni	-10.0453
okulotshiweyo	-10.0455
▁benginga	-10.0456
samukela	-10.046
▁yiba	-10.0462
▁wehle	-10.0488
▁nendoda	-10.0489
lenze	-10.049
hlwa	-10.0494
phumula	-10.0498
dluli	-10.0502
Lokho	-10.0503
eleni	-10.0503
▁bema	-10.0504
Lab	-10.0506
▁ifu	-10.0539
vukile	-10.054
drako	-10.0544
mukisa	-10.0557
khohli	-10.0562
phelelise	-10.0569
ngifuna	-10.0569
sobala	-10.0572
sindiswe	-10.0574
esithupha	-10.0577
nkulunkulu	-10.0578
hlakaniphile	-10.0582
yiz	-10.0586
babili	-10.0589
esixuku	-10.0592
entand	-10.0593
oPawulu	-10.0599
esihawu	-10.0599
inyoka	-10.0606
wayo	-10.0606
eli	-10.0609
bheki	-10.0615
▁kuzaku	-10.0616
ziphambeko	-10.0619
valo	-10.0621
wile	-10.0622
dumbu	-10.0625
qaphele	-10.0626
1	-10.0627
zanyazanyiswa	-10.0627
Betlehema	-10.0627
Korneliyu	-10.0627
ngqongqotha	-10.0627
qhutshwa	-10.0627
qondweni	-10.0627
▁eqinisweni	-10.0627
▁eyinkulungwane	-10.0627
▁indwangu	-10.0627
▁ingcosana	-10.0627
▁kweJordani	-10.0627
▁lweviki	-10.0627
yisono	-10.0627
▁nganhliziyonye	-10.0627
▁ababiziweyo	-10.0627
▁engikwenzayo	-10.0627
▁nibone	-10.0627
minyango	-10.0627
▁uyaphinga	-10.0627
▁kukaKristu	-10.0627
mikhuleko	-10.0627
▁ubone	-10.0627
▁eziyisithupha	-10.0627
▁emthini	-10.0627
▁bobabili	-10.0628
▁emseni	-10.0628
iphu	-10.0628
▁akwenzayo	-10.0628
▁bomhlaba	-10.0629
▁wesinagoge	-10.0629
▁imvula	-10.063
dumise	-10.063
zithiba	-10.063
▁yebandla	-10.063
▁zokulunga	-10.063
▁ngukwesaba	-10.0631
▁kum	-10.0632
▁wenkazimulo	-10.0632
tamasa	-10.0632
▁udle	-10.0633
▁angithandi	-10.0633
▁lokwahlulelwa	-10.0633
▁mnyama	-10.0634
▁nel	-10.0635
▁noSila	-10.0636
▁ukuyobona	-10.0637
njwe	-10.0637
buyisane	-10.0637
bambelel	-10.0638
yisoni	-10.0638
▁siphile	-10.0638
▁nemihlatshelo	-10.0639
▁nezibonakaliso	-10.0639
hlanza	-10.0639
▁ngasendleleni	-10.0639
▁kokubi	-10.064
▁noYihlo	-10.0641
▁labaJuda	-10.0642
▁isifundiso	-10.0643
▁amanetha	-10.0643
▁nezikhulu	-10.0644
▁ngenkazimulo	-10.0645
▁izindlu	-10.0646
▁okuyize	-10.0646
linde	-10.0646
bhekile	-10.0646
▁izilimi	-10.0647
endlela	-10.0647
hleba	-10.0648
▁nezikhonzi	-10.0648
▁esithile	-10.065
▁namaGreki	-10.065
▁indlala	-10.0651
▁ngokulunga	-10.0651
kukuhle	-10.0652
vumelana	-10.0652
▁ngokujabula	-10.0652
▁iqhude	-10.0653
▁idemoni	-10.0653
▁nesihawu	-10.0654
▁noPawulu	-10.0654
▁nomlilo	-10.0654
▁ngabaphostoli	-10.0655
▁sawo	-10.0656
▁impumputhe	-10.0656
▁sengiya	-10.0656
▁ngamafutha	-10.0657
▁izinkanuko	-10.0658
▁kwendlu	-10.0659
▁yezwe	-10.066
▁ngokupheleleyo	-10.066
▁wamthatha	-10.0661
abangasoki	-10.0661
▁ngasese	-10.0662
▁ngakini	-10.0663
▁eyayi	-10.0665
bonwe	-10.0666
▁neqiniso	-10.0668
▁okunje	-10.0669
▁kusobala	-10.0672
▁okholwayo	-10.0674
▁uFestu	-10.0675
kukaMoya	-10.0676
mfumene	-10.0676
tshala	-10.0677
phumile	-10.0679
▁abakhethiweyo	-10.068
dum	-10.068
▁madoda	-10.0681
▁yilo	-10.0681
yekanga	-10.0684
▁Baphendula	-10.0687
▁abakhe	-10.0689
▁ezinkan	-10.069
lusa	-10.0691
esabeni	-10.0693
▁umJuda	-10.0693
▁isiya	-10.0696
▁uyindodana	-10.0696
▁impande	-10.0697
▁kunami	-10.0704
▁zaso	-10.0705
▁owokuqala	-10.0707
▁nginitshela	-10.0708
▁aphuze	-10.071
akala	-10.0711
▁ngaphesheya	-10.0717
▁Kwaba	-10.0717
▁yima	-10.0718
bhapathizwe	-10.0719
▁noSimoni	-10.0719
▁ungum	-10.0719
zincoma	-10.0724
▁ngezinyawo	-10.073
▁yaphendula	-10.0732
▁makungabi	-10.0735
hlaba	-10.0738
▁ahambe	-10.0738
omyalo	-10.0739
▁babhapathizwa	-10.0739
▁uthembekile	-10.074
lima	-10.0743
adle	-10.0745
mabutho	-10.0745
▁ngasemuva	-10.0748
▁umuthi	-10.075
vikel	-10.0753
mukise	-10.0757
▁nokuqonda	-10.076
kuleyo	-10.0764
▁umphathi	-10.0765
mhlabathi	-10.077
▁ngcono	-10.0772
▁bamncenga	-10.0777
▁wamangala	-10.0778
▁waphenduka	-10.0781
▁abakhuleka	-10.0785
▁bani	-10.079
thembisa	-10.0797
phuzisa	-10.0804
▁ukukhuleka	-10.0806
▁kuni	-10.0807
babamba	-10.0811
▁kweza	-10.0812
kulahlwa	-10.0815
▁ngithe	-10.0818
lila	-10.082
isile	-10.0824
lusizi	-10.0828
ngikusho	-10.083
mshiya	-10.0833
▁La	-10.0835
ngaze	-10.0837
diliz	-10.0842
ngawo	-10.0844
▁sibonakaliso	-10.0848
▁ngabapristi	-10.0849
▁kuyise	-10.085
bulukhuni	-10.0852
obuwula	-10.0853
▁ukwa	-10.0855
▁wakhala	-10.086
▁wakhuphuk	-10.0864
▁Yiba	-10.0873
▁wawo	-10.0877
duduza	-10.0889
hlambulula	-10.089
▁yase	-10.0916
▁koba	-10.0919
nokudla	-10.0922
▁nguKristu	-10.0927
sipho	-10.0927
kuzwayo	-10.0929
▁yize	-10.093
▁mhlophe	-10.093
▁kwathiwa	-10.093
▁kukhulu	-10.093
Ninga	-10.0931
▁ngiyakuba	-10.0937
zinhlanzi	-10.094
▁bakhuleka	-10.0941
▁kaMoya	-10.0942
sebenzela	-10.0951
zithanda	-10.0955
uqa	-10.0962
owesifazane	-10.0962
▁enamandla	-10.0973
minikelo	-10.0977
▁ok	-10.0979
▁abahlezi	-10.0989
siwe	-10.0991
▁imini	-10.0995
nanto	-10.1001
▁bengena	-10.1001
wenze	-10.1006
kuzo	-10.1024
mngcolis	-10.1043
vangeli	-10.1046
▁Awu	-10.1048
▁Ngo	-10.1064
esiko	-10.107
▁os	-10.108
nt	-10.1083
L	-10.1087
▁eziyi	-10.11
▁nifuna	-10.1106
▁njengokw	-10.111
gcin	-10.1112
xway	-10.1113
zakwenzani	-10.1114
ngufakazi	-10.1129
thwala	-10.1151
nq	-10.1161
▁okholwa	-10.1174
onile	-10.1175
▁ukuthanda	-10.1179
▁L	-10.12
eka	-10.1201
▁Naba	-10.121
khethile	-10.1221
fihl	-10.1228
silele	-10.1233
ngabaprofethi	-10.1237
▁kungengoku	-10.1242
ntwanyana	-10.1249
bungcwele	-10.1253
kileyo	-10.127
suke	-10.1275
▁khumbula	-10.1279
mkhulu	-10.1284
▁ukusi	-10.1296
bali	-10.1332
lindele	-10.134
▁beze	-10.1346
khulumayo	-10.1347
▁yema	-10.135
mamukele	-10.1357
▁akuvel	-10.1378
thethelelwa	-10.1379
mlind	-10.1383
ndoda	-10.1393
hluleka	-10.1404
▁akenz	-10.1416
elula	-10.1422
kukholwa	-10.1429
khaphele	-10.1443
ngomuso	-10.1443
▁eniyakuku	-10.1445
kuhlakanipha	-10.1452
▁ukusho	-10.1455
gq	-10.1473
engqondo	-10.1476
▁gama	-10.1502
nyawo	-10.1506
isikhonzi	-10.1508
sizo	-10.1509
▁ngemi	-10.1509
ncwadi	-10.1516
zisho	-10.1517
saya	-10.1524
ululela	-10.1532
ngipha	-10.1535
mhlobo	-10.1539
ethemba	-10.1541
▁eze	-10.156
uba	-10.16
feza	-10.1628
▁Inkosi	-10.1635
zishaya	-10.1639
▁eNkosi	-10.1663
siyakuba	-10.1664
ona	-10.1681
nithethelela	-10.1695
▁basho	-10.1701
ngokuvuka	-10.1703
olo	-10.1713
bezwe	-10.1717
yithanda	-10.1721
kuvuna	-10.1731
▁engum	-10.1738
vuleka	-10.174
shumayez	-10.1752
▁afe	-10.1786
▁siye	-10.179
▁nakulo	-10.1793
ethempeli	-10.1806
dadewabo	-10.1825
▁Y	-10.184
ngcolisa	-10.1845
mbele	-10.1846
hlwanyel	-10.1848
▁ohlwanyel	-10.1855
Vuka	-10.1856
bonisi	-10.186
nembeza	-10.1861
khalela	-10.1866
Nami	-10.1867
Thina	-10.1868
mazwi	-10.1872
Ngalokho	-10.1877
nkosikazi	-10.188
omubi	-10.1881
kubonileyo	-10.1894
hlul	-10.1902
mzalwane	-10.1905
nenkazimulo	-10.191
thengi	-10.1913
esivumelwano	-10.1914
thengise	-10.1916
ngesabi	-10.1919
▁kuyint	-10.1923
abesilisa	-10.1928
zizukulwane	-10.1934
zakuthi	-10.1938
zalo	-10.1945
Thimothewu	-10.1953
ekile	-10.1955
khuphukel	-10.1961
khulunywa	-10.1962
denariyu	-10.1963
muhla	-10.1965
nqume	-10.1968
sibindi	-10.1969
khululiwe	-10.1972
mFarisi	-10.1972
Marta	-10.1974
ngcolileyo	-10.1974
kwahlulelwa	-10.1978
Babiloni	-10.1978
qobo	-10.1995
yindodana	-10.2001
▁elihle	-10.2002
mfula	-10.2013
umahluleli	-10.2014
kholwe	-10.2025
abaSadusi	-10.2028
amaGreki	-10.2028
zibonakaliso	-10.2031
olwandle	-10.2032
mkhosi	-10.2036
thume	-10.2037
mihlatshelo	-10.2044
mnandi	-10.2047
kuzenzisa	-10.2048
ameva	-10.2048
ntanami	-10.2049
▁singaba	-10.2051
dakwa	-10.2051
ngozi	-10.2052
hube	-10.2053
chilo	-10.2054
gcini	-10.2055
ngilandele	-10.2055
vamile	-10.2055
Krethe	-10.2055
Simeyoni	-10.2055
Stefanu	-10.2055
dons	-10.2055
habhu	-10.2055
hudulel	-10.2055
humush	-10.2055
nesihe	-10.2055
ngumfokazi	-10.2055
qhwaga	-10.2055
umtetrarki	-10.2055
▁emikhulekweni	-10.2055
▁emshadweni	-10.2055
▁enkazimulweni	-10.2055
▁ezixukwini	-10.2055
▁iPhasika	-10.2055
▁kukusindisile	-10.2055
▁nakwabezizwe	-10.2055
▁umbono	-10.2055
▁umnyango	-10.2055
andulele	-10.2055
ngapheliyo	-10.2055
▁eliphezulu	-10.2055
▁ezinyaweni	-10.2055
▁isithombe	-10.2055
▁ebubini	-10.2055
▁ulwandle	-10.2055
▁isibili	-10.2055
▁ukungibulala	-10.2055
sihlephula	-10.2055
▁isivini	-10.2055
▁indlebe	-10.2055
▁lukaKristu	-10.2055
▁yisibonelo	-10.2055
bhapathizelwa	-10.2055
▁ekuseni	-10.2056
thandiweyo	-10.2056
ekusithekeni	-10.2056
▁sibone	-10.2056
▁abezwayo	-10.2056
▁omncane	-10.2056
▁utshani	-10.2057
phulukise	-10.2057
zindwangu	-10.2057
▁owahlulela	-10.2057
▁okokuqala	-10.2058
lamani	-10.2058
▁zobukhosi	-10.2058
▁eziyikhulu	-10.2059
▁yevangeli	-10.2059
▁levangeli	-10.2059
▁ngobuqili	-10.206
▁kwenzeni	-10.206
▁ngezinkanuko	-10.206
zibekelel	-10.206
▁sokulunga	-10.206
duduzwa	-10.206
vuswe	-10.2061
sizukulwane	-10.2061
▁eyenziw	-10.2061
▁luvalo	-10.2061
gedla	-10.2061
vukela	-10.2061
lineni	-10.2062
▁zesiliva	-10.2063
▁nezifebe	-10.2063
▁kubalimi	-10.2063
▁sabantu	-10.2063
▁emibili	-10.2063
ngaqondiyo	-10.2063
▁ngamathe	-10.2063
▁abazaku	-10.2064
▁zenyama	-10.2064
ngonyama	-10.2064
▁elimnandi	-10.2065
▁nezinduna	-10.2065
▁lesithupha	-10.2065
▁ngokwakhe	-10.2066
▁ngiyanincenga	-10.2067
▁nezimangaliso	-10.2068
▁ngesiHeberu	-10.2068
▁neJerusalema	-10.2068
▁laseGalile	-10.2068
▁abafowabo	-10.2068
▁ngedwa	-10.2069
▁zegolide	-10.2069
▁Kunjani	-10.207
▁yesono	-10.2071
▁komuzi	-10.2071
▁kokubili	-10.2072
▁ekuhambeni	-10.2072
▁ngim	-10.2073
▁abancinyane	-10.2074
▁umninindlu	-10.2074
▁abonakalis	-10.2075
magatsha	-10.2075
phepha	-10.2075
▁njengabanye	-10.2076
▁iziqa	-10.2077
▁nesifundiso	-10.2077
▁wokukholwa	-10.2078
▁isiyaluyalu	-10.2079
▁siyeza	-10.2079
Yima	-10.2079
nikhumbuza	-10.208
▁ndodana	-10.2081
▁kancane	-10.2081
tusa	-10.2081
abakhululekileyo	-10.2081
▁nabaSadusi	-10.2083
qambe	-10.2083
njwa	-10.2085
▁nemizi	-10.2086
Luk	-10.2087
▁ngamehlo	-10.2087
▁kalukhuni	-10.2089
▁ngolimi	-10.2089
▁ngobani	-10.2089
▁Unga	-10.2089
▁okwami	-10.209
▁lweNkosi	-10.209
ru	-10.209
▁olubi	-10.2091
▁wababuza	-10.2092
phathwa	-10.2093
hlalisa	-10.2093
▁izithembiso	-10.2094
▁noJuda	-10.2095
▁ukuphikisana	-10.2096
▁oBarnaba	-10.2098
▁owakhe	-10.2098
▁okudaliweyo	-10.2098
▁umfowenu	-10.2099
▁uLazaru	-10.2099
hlatshwa	-10.2099
▁yezwi	-10.2101
anda	-10.2101
▁nezizwe	-10.2102
▁ukumbamba	-10.2103
▁nokuhlambalaza	-10.2103
▁Ngabona	-10.2105
▁ing	-10.2106
omusi	-10.2107
▁uFe	-10.2108
kufa	-10.2109
▁onkulunkulu	-10.2113
yimpumputhe	-10.2115
▁Okholwa	-10.2115
▁nomzimba	-10.2116
fundisiwe	-10.2116
▁abathathu	-10.2117
▁abathandekayo	-10.2118
▁bezizwe	-10.2121
siqhingi	-10.2121
hlangan	-10.2122
▁nonembeza	-10.2122
▁umqondo	-10.2124
▁yabaFarisi	-10.2124
nazisa	-10.2129
▁ngento	-10.2134
▁umka	-10.2134
▁kubaphostoli	-10.2135
▁uThimothewu	-10.2136
▁unembeza	-10.2137
▁yiwo	-10.2141
nzalweni	-10.2143
qali	-10.2143
ebeni	-10.2144
owodwa	-10.2145
▁bazenzisi	-10.2145
cebileyo	-10.2147
▁uvukile	-10.2149
▁ukubekezela	-10.215
▁ompofu	-10.2152
▁noyise	-10.2152
luthando	-10.2154
▁izikhonzi	-10.2156
▁akasi	-10.2156
▁wakini	-10.2167
▁ong	-10.2171
khulumi	-10.2175
▁ngabaJuda	-10.2176
▁ningakholwa	-10.2178
▁bathandekayo	-10.218
mnqum	-10.2183
nenza	-10.2184
dlela	-10.2185
▁encane	-10.2185
▁nezwe	-10.2186
▁Wangena	-10.2186
ngumfundi	-10.2186
▁emhlophe	-10.2188
▁okhokho	-10.2188
▁kwabaningi	-10.2194
▁waf	-10.22
▁lube	-10.2203
▁kwemi	-10.2207
▁wasukuma	-10.2207
zibonge	-10.2212
▁kuMose	-10.2213
▁makab	-10.2214
▁bememeza	-10.2215
▁nisa	-10.222
Be	-10.222
yikho	-10.2222
▁indaba	-10.2224
▁ngibuye	-10.2226
guquka	-10.2227
▁nabaJuda	-10.2234
nakekela	-10.2236
▁ngingekho	-10.2239
▁wasezulwini	-10.2242
vun	-10.2243
▁kubaFarisi	-10.2247
▁ukhula	-10.2248
thukuthelel	-10.225
▁uqinisile	-10.2251
khulekela	-10.2253
▁nezinyawo	-10.2255
mlandela	-10.2261
mahluleli	-10.2265
lutho	-10.2272
kabi	-10.2275
▁kuSimoni	-10.2276
▁kaBaba	-10.2277
▁isikhonzi	-10.2277
▁amanyala	-10.2278
zono	-10.2281
▁wavuka	-10.2283
▁namahloni	-10.2284
▁ngeze	-10.2293
▁badle	-10.2293
▁lokufa	-10.2296
bakhonza	-10.2302
▁esaba	-10.2303
▁ayo	-10.2304
ngesilo	-10.2305
shiye	-10.231
▁zazi	-10.2313
▁kumi	-10.2314
▁Onga	-10.2322
▁wabafundi	-10.2323
kulalela	-10.2325
▁njengezi	-10.2326
sihla	-10.2326
mbopha	-10.234
iki	-10.2343
phanga	-10.2348
▁ukhulume	-10.2349
kunye	-10.2369
ule	-10.2377
cwa	-10.2382
▁angam	-10.2384
▁ngumuntu	-10.2393
▁namadoda	-10.2393
uza	-10.2398
▁akazi	-10.2405
khawul	-10.2414
qiniswa	-10.243
▁ngomunye	-10.2434
ukuthokoza	-10.2435
ngikhaphela	-10.2438
▁uhlale	-10.2441
sithanda	-10.2444
▁okungena	-10.2454
▁bathumela	-10.248
anazi	-10.248
kungcono	-10.2481
▁kunoku	-10.2482
▁singe	-10.2489
▁okukhona	-10.2493
▁elele	-10.2501
thinti	-10.2509
chithe	-10.2517
qhube	-10.2525
okuhlakanipha	-10.2526
mewu	-10.2536
ngamukela	-10.2544
▁ekhuleka	-10.2544
▁beNkosi	-10.2546
▁efa	-10.2551
kwakhe	-10.2564
▁ezwe	-10.2579
▁ngezi	-10.2584
ose	-10.2597
hlelo	-10.2603
izindlela	-10.2605
▁wadabu	-10.2611
ehlela	-10.2618
dabukiswa	-10.262
kukhonza	-10.2624
olunye	-10.2649
▁yalo	-10.265
▁yazi	-10.2659
ngow	-10.2667
wana	-10.2698
▁sise	-10.2701
njiwe	-10.2702
▁ngizakuku	-10.2713
▁okung	-10.2738
langabi	-10.2738
▁abangaba	-10.2751
▁yath	-10.2752
ezinhlupheko	-10.2761
bethelw	-10.2778
▁olwa	-10.2782
niki	-10.2786
▁Bayaku	-10.2794
▁enza	-10.2798
▁nayi	-10.2813
▁ukubiz	-10.2817
kubonakalis	-10.2821
▁angina	-10.2823
kwakha	-10.2833
busiswa	-10.2835
nguNkulunkulu	-10.2855
yisinkwa	-10.286
ngabaza	-10.2863
▁sithanda	-10.2864
abantu	-10.2865
yizwi	-10.2872
▁ekufi	-10.2881
▁ug	-10.2886
ababhali	-10.2899
enzela	-10.2914
sandla	-10.2928
lawo	-10.2928
Jerusalema	-10.2936
finyelel	-10.2956
lona	-10.2966
likhuluma	-10.2972
▁waku	-10.2977
zakufa	-10.2979
ngcono	-10.2979
velaphi	-10.2986
bekile	-10.2987
mangalelwa	-10.2989
yela	-10.2996
holi	-10.3004
yiziwula	-10.3014
▁ukuyi	-10.3016
ngangeni	-10.3016
wesizwe	-10.3023
mhawukela	-10.3027
▁abam	-10.304
ukukhala	-10.3043
omprofethi	-10.3045
yena	-10.3045
nguyise	-10.3061
lekela	-10.3067
▁angisi	-10.3069
hlola	-10.307
batshela	-10.307
valel	-10.3089
lik	-10.309
▁bamyis	-10.3092
ngavumi	-10.3094
▁nokwa	-10.3097
▁kubonakalisw	-10.3104
kuthwala	-10.3107
mzimba	-10.3122
▁olunga	-10.3129
▁nilinde	-10.3136
shongo	-10.3137
qhele	-10.3141
▁kus	-10.3164
obuqotho	-10.3169
landelayo	-10.3172
▁engiyaku	-10.3173
akwaJuda	-10.3196
▁buka	-10.3198
kuwo	-10.3201
bavusel	-10.3202
kinina	-10.3216
hlanganyele	-10.322
mile	-10.3236
kuswelekile	-10.3247
▁baphume	-10.3249
nazo	-10.3252
mmangalela	-10.3254
gugu	-10.3269
tshengisa	-10.3276
ezinkanyezi	-10.3276
▁Niyaku	-10.3279
sindise	-10.3301
▁neli	-10.3308
▁engizaku	-10.3324
kaBaba	-10.3326
▁kungena	-10.3335
mvini	-10.3339
▁sen	-10.3352
omkhumbi	-10.3357
ezidalwa	-10.3364
vumi	-10.3364
enkosi	-10.3376
▁ngobu	-10.339
▁akuyiku	-10.3398
Thu	-10.3399
▁kwenziw	-10.3402
ngatheli	-10.3422
▁amuke	-10.3431
▁ekha	-10.344
▁nime	-10.3444
▁linjenge	-10.3446
enzanga	-10.345
▁Bese	-10.3467
ahlulelwe	-10.3486
ingafanele	-10.3502
untu	-10.3507
▁yez	-10.3511
ezinceku	-10.3512
muhle	-10.3512
lane	-10.352
kaYise	-10.3527
▁lathi	-10.3527
tshwa	-10.3527
sendleleni	-10.3531
▁nezinto	-10.3533
▁ngino	-10.3535
Inkosi	-10.3541
Wayesethi	-10.3543
▁Bayi	-10.3543
Kodwa	-10.3545
cindezel	-10.356
Barnaba	-10.3565
Lowo	-10.3567
Isi	-10.3568
kuqonda	-10.357
obukhulu	-10.3574
iselwa	-10.358
▁ningam	-10.3582
besifazane	-10.3582
abeni	-10.3584
kwenzekile	-10.3588
dwala	-10.359
▁On	-10.3592
kafiki	-10.3598
amukeli	-10.3605
khuthalel	-10.3607
yiswa	-10.3609
▁kungu	-10.361
ombusi	-10.361
esabe	-10.3616
mhawu	-10.3619
thandile	-10.3621
▁njengase	-10.3622
▁kungokwa	-10.363
Ubusisiwe	-10.3634
elo	-10.3635
ukweni	-10.3636
iva	-10.3639
ngcwelisiwe	-10.3645
▁nabangena	-10.365
mthethweni	-10.3653
fumene	-10.3654
ceku	-10.3657
mqondo	-10.3663
zicathulo	-10.3664
sisekelo	-10.3668
▁Akusi	-10.3679
mJuda	-10.3685
thandeka	-10.3698
Tomase	-10.3699
▁ethembe	-10.3701
qedi	-10.3709
obuhlungu	-10.3709
▁ucez	-10.3715
tafula	-10.3716
kaPawulu	-10.3721
Akwila	-10.3722
Aleksandru	-10.3722
Hosiyana	-10.3722
Ikoniyu	-10.3722
Listra	-10.3722
Nathanayeli	-10.3722
aseningizimu	-10.3722
enkonzo	-10.3722
khafulel	-10.3722
khazimulayo	-10.3722
nqumile	-10.3722
phunyuka	-10.3722
semkhunjini	-10.3722
semzimbeni	-10.3722
senyameni	-10.3722
setilongweni	-10.3722
shiywa	-10.3722
veze	-10.3722
▁Elokugcina	-10.3722
▁akunakwenzeka	-10.3722
▁eTrowa	-10.3722
▁emeveni	-10.3722
▁emgodini	-10.3722
▁empumalanga	-10.3722
▁esivinini	-10.3722
▁esonweni	-10.3722
▁ezigcawini	-10.3722
▁imivimbo	-10.3722
▁kaJona	-10.3722
▁oJakobe	-10.3722
▁qaphelani	-10.3722
Khul	-10.3722
amajuba	-10.3722
gxum	-10.3722
seThesalonika	-10.3722
▁inkatho	-10.3722
▁nonyoko	-10.3722
▁sekufeni	-10.3722
▁engutsheni	-10.3722
▁esingenamvubelo	-10.3722
▁inkolo	-10.3722
▁nanhlanu	-10.3722
▁ogwini	-10.3722
ABA	-10.3722
Athene	-10.3722
esambatho	-10.3722
yisiboniso	-10.3722
▁efwini	-10.3722
▁niqinile	-10.3722
koyedwa	-10.3722
▁izifo	-10.3722
▁noYise	-10.3722
mlamuleli	-10.3722
▁echibini	-10.3722
▁ihlazo	-10.3722
nasono	-10.3722
▁bakaJohane	-10.3722
▁nomkakhe	-10.3722
▁azenzayo	-10.3722
▁ekamu	-10.3722
hlanjalazwa	-10.3722
▁inetha	-10.3723
▁lwalokho	-10.3723
ezimbuzi	-10.3723
▁bathula	-10.3723
zibophe	-10.3723
hlangulisa	-10.3723
kungcweliswa	-10.3723
nyakazisa	-10.3723
▁ubukhosi	-10.3723
ngaphenduki	-10.3723
ngabhubhi	-10.3723
hlolisis	-10.3723
Lungisa	-10.3724
phakanyiswa	-10.3724
ekusweleni	-10.3724
▁omdala	-10.3724
▁enkosini	-10.3724
diyu	-10.3724
Far	-10.3724
▁ngokungafanele	-10.3724
funisisa	-10.3724
▁zezibani	-10.3725
ngafuni	-10.3725
▁ezincekwini	-10.3725
esibusiso	-10.3725
▁kwenzeke	-10.3725
Suka	-10.3726
aseTire	-10.3726
▁zomhlaba	-10.3726
▁samanje	-10.3727
▁kukaJohane	-10.3727
libala	-10.3727
▁enqabeni	-10.3727
qambi	-10.3727
kwambulwe	-10.3727
bambile	-10.3728
▁ukuyokhuleka	-10.3728
▁akulutho	-10.3728
sindile	-10.3728
sta	-10.3728
sifebe	-10.3729
▁kobusuku	-10.373
▁Wayesebabiza	-10.373
kwabangakholwayo	-10.373
jok	-10.373
Lizwi	-10.373
▁thokozani	-10.373
▁ezintabeni	-10.3731
▁sekusile	-10.3731
ngakhali	-10.3731
▁ngomkhosi	-10.3732
▁yomhlaba	-10.3732
▁ngeziphambeko	-10.3732
ngangabazi	-10.3732
▁babaleka	-10.3733
▁imimoya	-10.3733
ngumbulali	-10.3733
▁enginakho	-10.3733
▁usulu	-10.3734
bonisisa	-10.3734
vunyiwe	-10.3735
▁kwezingelosi	-10.3735
▁sekufikile	-10.3735
wesilisa	-10.3736
▁kwezulu	-10.3736
qoma	-10.3737
▁nesitsha	-10.3737
Thokozani	-10.3738
▁uyakuphiwa	-10.3739
▁nithandane	-10.3739
omnikelo	-10.374
▁abekwenzile	-10.374
ngcwelisa	-10.3741
mhlanga	-10.3741
umuphi	-10.3741
▁emini	-10.3741
▁eJeriko	-10.3742
▁esikhundleni	-10.3742
Niko	-10.3742
▁lwabo	-10.3742
▁elimhlophe	-10.3743
▁yenkosi	-10.3743
▁ngemizi	-10.3743
yizoni	-10.3744
▁ningakhathazeki	-10.3744
mukile	-10.3744
▁kwenhliziyo	-10.3744
▁anenani	-10.3744
fihliweyo	-10.3744
▁nenyanga	-10.3745
▁ezimhlophe	-10.3745
▁isihlu	-10.3745
▁ngihawukele	-10.3746
▁ngenyama	-10.3746
▁izibani	-10.3746
ngaziwayo	-10.3746
▁zokugcina	-10.3746
▁zezwe	-10.3747
▁nabafileyo	-10.3748
▁ukukhululwa	-10.3748
aseKhilikhiya	-10.3749
▁ngezono	-10.3749
▁wabaphulukisa	-10.375
▁kwesikhathi	-10.375
▁nifund	-10.3751
▁ngabokugcina	-10.3751
▁lokugcina	-10.3752
▁ngisindise	-10.3752
▁yesixuku	-10.3752
ngasolekiyo	-10.3752
▁kaJuda	-10.3752
kuthobeka	-10.3752
▁womuntu	-10.3752
▁ngingum	-10.3753
▁wehla	-10.3754
▁UKristu	-10.3754
valelisa	-10.3754
esihlabathi	-10.3755
▁ngesa	-10.3756
okubonwayo	-10.3756
▁nowab	-10.3757
▁nendodana	-10.3757
▁isifile	-10.3757
pheleliswe	-10.3758
nikiwe	-10.3758
▁komusa	-10.376
chasisela	-10.376
▁igolide	-10.3761
▁ngiyathokoza	-10.3761
▁ngokungakholwa	-10.3761
boshwe	-10.3762
baphathe	-10.3762
▁nokubi	-10.3763
▁ngesithembiso	-10.3763
▁wabaprofethi	-10.3764
Yenza	-10.3764
▁sakithi	-10.3764
osuku	-10.3764
▁uyaphila	-10.3765
▁okuncane	-10.3765
▁bakhonona	-10.3767
▁isikhubekiso	-10.3769
▁umfana	-10.377
vumeli	-10.3771
▁ongalungile	-10.3771
▁yenzani	-10.3771
▁izimpumputhe	-10.3771
▁ngiyamazi	-10.3772
▁komuntu	-10.3774
▁obizw	-10.3774
▁nabangcwele	-10.3775
mema	-10.3775
▁ngokubekezela	-10.3776
▁okulungileyo	-10.3776
▁okuthile	-10.3777
bonge	-10.3779
▁nowesifazane	-10.3779
▁nokubekezela	-10.378
▁eyihlane	-10.3782
wanga	-10.3782
bongeka	-10.3783
betho	-10.3784
▁zeNkosi	-10.3784
▁umum	-10.3784
sekelwa	-10.3786
hlukana	-10.3787
▁nginguye	-10.3787
▁nokukhanya	-10.3787
▁kwabaJuda	-10.3788
▁njengathi	-10.3792
ngweni	-10.3795
▁ungithumile	-10.3797
▁basindiswe	-10.3798
▁wamlandela	-10.3798
▁nalapha	-10.3799
sekuboshweni	-10.3801
▁nenzalo	-10.3803
▁amahla	-10.3804
wama	-10.3805
buzana	-10.3806
▁ukukhuthazela	-10.3806
khumbuz	-10.3807
▁amafutha	-10.3807
khohlisi	-10.3807
lungisiwe	-10.3807
seBethaniya	-10.381
solwa	-10.381
▁okukaNkulunkulu	-10.3811
▁oPhezukonke	-10.3812
▁ngakwesokhohlo	-10.3813
ngukuphila	-10.3813
Angisiye	-10.3814
▁nihamb	-10.3815
▁samuka	-10.3815
ziboshwa	-10.3816
bumnene	-10.3817
lami	-10.3817
▁abone	-10.3818
▁uMarta	-10.3819
▁angayi	-10.3819
▁kuMoya	-10.382
eke	-10.3821
sayikuba	-10.3823
fikelwa	-10.3823
lomo	-10.3825
▁nginani	-10.3826
▁bambamba	-10.3827
▁ningez	-10.3828
ishaye	-10.3829
▁akusizi	-10.383
▁esibi	-10.3832
▁kunaye	-10.3832
Ara	-10.3834
▁nezinye	-10.3835
▁ek	-10.3835
▁Ngiyazi	-10.3838
qoq	-10.384
lulele	-10.3841
▁yis	-10.3841
▁ukuhlambalaza	-10.3841
▁bahambe	-10.3842
ngesibo	-10.3844
▁yakwa	-10.3845
ezelwa	-10.3846
▁amahhashi	-10.3848
bizele	-10.3849
Lawo	-10.385
deleli	-10.385
phendukanga	-10.3851
ngumoya	-10.3851
ibonelo	-10.3853
▁siyakuthi	-10.3854
▁Waphuma	-10.3854
▁bethuka	-10.3855
lahl	-10.3855
▁zinceku	-10.3859
▁isiphi	-10.3859
▁abahlobo	-10.3859
kulandela	-10.386
bhubhayo	-10.3864
wenziwa	-10.3866
ngumqambimanga	-10.3867
ofe	-10.3871
▁engiba	-10.3872
▁ngokwazi	-10.3873
▁enithi	-10.3881
lungisisi	-10.3883
▁kuFiliphu	-10.389
mifanekiso	-10.3891
weyo	-10.3893
▁uSawulu	-10.3894
mkhiphel	-10.3906
▁yisikhathi	-10.3906
Siriya	-10.3909
▁olahla	-10.3911
▁sing	-10.3913
Ake	-10.3915
▁muhle	-10.3922
▁ningaze	-10.3922
▁kwemisebenzi	-10.3925
▁naseJerusalema	-10.3929
▁awusi	-10.3935
▁nenhlam	-10.3935
▁obuthakathaka	-10.3944
▁nikhuleka	-10.3945
▁ngomuso	-10.3952
▁Bafika	-10.3959
zilungisele	-10.3966
lobu	-10.3969
Ha	-10.3992
▁ubeke	-10.3993
ababusi	-10.4007
ngabazalwane	-10.4014
▁msebenzi	-10.4017
▁uFiliphu	-10.4017
▁izinda	-10.4017
▁ngaphi	-10.4018
ezandla	-10.4027
▁kulokhu	-10.4028
sakhiw	-10.4029
ngithokozi	-10.4039
▁ntaba	-10.4039
▁wasondela	-10.4051
▁beya	-10.4055
▁iningi	-10.4055
▁engam	-10.4059
▁usizi	-10.4062
hlubuka	-10.4063
guqule	-10.4078
ezimpond	-10.4079
amelweni	-10.4081
▁kaSathane	-10.4081
▁engali	-10.409
▁makunga	-10.4095
beletha	-10.4095
▁ezimv	-10.4102
▁Masi	-10.4113
zimangaliso	-10.4113
ngcwelise	-10.4114
▁basha	-10.4114
sebenze	-10.4114
songa	-10.4118
zisindise	-10.4121
▁ngelika	-10.4123
hlole	-10.4128
akhi	-10.4136
▁Moya	-10.4137
▁sase	-10.4149
zakufika	-10.417
▁uzakuni	-10.4171
▁mntwana	-10.4173
▁kuza	-10.4179
pholi	-10.4181
▁ngena	-10.4181
alo	-10.4183
dede	-10.4185
yigugu	-10.419
▁nesibindi	-10.4198
▁funani	-10.4209
▁ziyiz	-10.4212
mthombo	-10.4217
▁eS	-10.422
▁landa	-10.4226
ziphakamis	-10.4232
ngenhla	-10.4232
▁okw	-10.4233
Es	-10.4234
ngengqondo	-10.4235
▁ona	-10.4256
▁nigcwalis	-10.4258
thusi	-10.4267
▁sihlezi	-10.4278
▁bangam	-10.4286
▁zalo	-10.4302
nyiswa	-10.4302
fuba	-10.4307
▁engiyi	-10.4315
mbisisa	-10.4323
▁Hambani	-10.4333
buyi	-10.4334
khethi	-10.4334
klebhul	-10.4335
omvini	-10.4338
▁okuya	-10.4341
ngibona	-10.4349
Ngingu	-10.4353
gi	-10.4357
▁ekubona	-10.4359
malusi	-10.436
▁nakini	-10.4364
isele	-10.4367
▁bayishay	-10.4393
empahla	-10.4402
▁angabi	-10.4404
miswe	-10.4406
▁embethe	-10.4416
▁ndaba	-10.442
kabani	-10.442
lethile	-10.4427
▁themba	-10.4442
▁wadla	-10.4446
Kristu	-10.4462
ezinyoka	-10.4466
▁ngiyani	-10.4471
▁Ama	-10.4473
▁nangu	-10.4476
nte	-10.4477
enzile	-10.4481
abezizwe	-10.4483
▁ubuye	-10.4486
ili	-10.4493
▁ang	-10.4498
isize	-10.4523
kwenzi	-10.4527
qhweba	-10.4528
noMose	-10.4529
obaba	-10.4536
mbonile	-10.4541
delelwa	-10.4543
▁nokufa	-10.4543
baprofethi	-10.4544
▁kulab	-10.4561
▁baphendula	-10.4562
lwane	-10.4575
kungena	-10.4579
nkanuko	-10.459
yibonile	-10.4601
ezinsuk	-10.4616
sithembiso	-10.4635
njengokuba	-10.4639
▁eseqed	-10.4639
kwela	-10.4642
▁nes	-10.4666
duduze	-10.4666
▁wehlelw	-10.4678
ulu	-10.4678
bokukholwa	-10.4686
buhle	-10.4692
shiyi	-10.4699
ngithumile	-10.4716
bekwe	-10.4741
kubonile	-10.4744
▁ungaba	-10.4748
▁niyakuba	-10.4753
▁ababa	-10.4765
▁esehla	-10.4765
hlambulule	-10.4771
loni	-10.4784
khumbule	-10.4785
londe	-10.4792
shiswa	-10.4794
yihlo	-10.4797
wesifazane	-10.4797
boshelw	-10.4802
▁izakukh	-10.4819
mbuz	-10.4826
bupristi	-10.4828
ngabantu	-10.4854
gange	-10.4866
zifakazela	-10.4868
uthe	-10.4877
uzile	-10.4878
ngakhulumi	-10.4888
ncinyane	-10.4897
kwemisebenzi	-10.4906
▁uli	-10.4917
yakusindiswa	-10.4921
yinquma	-10.4949
▁yesaba	-10.4952
lethwe	-10.4962
nsizwa	-10.4972
thumileyo	-10.4974
thukulul	-10.4976
▁nis	-10.4977
Nithi	-10.4978
▁kholwa	-10.4995
godl	-10.4997
dlile	-10.5004
onje	-10.5005
▁okuvel	-10.5022
▁waphons	-10.5025
▁nok	-10.5026
yezi	-10.5035
bikho	-10.5039
▁ume	-10.5046
unga	-10.5047
nyoka	-10.5047
▁akaso	-10.506
▁ngesin	-10.5063
▁anisi	-10.5065
shunyaye	-10.5076
lakhe	-10.5081
▁ezith	-10.5102
egazi	-10.5118
utha	-10.5122
endlu	-10.5126
▁ngokuhle	-10.5137
Yihlo	-10.5138
umbusi	-10.5138
benzi	-10.5142
ukusindiswa	-10.5144
esu	-10.515
esithembiso	-10.5168
gcinile	-10.5197
nhlanzi	-10.5198
ingani	-10.5204
▁anina	-10.5206
▁ulu	-10.5207
▁izinka	-10.5208
▁ifike	-10.5226
nj	-10.5243
kwethemb	-10.5254
yayazi	-10.5257
amileyo	-10.5261
mbela	-10.5262
kunika	-10.5289
ondo	-10.5299
bisa	-10.5301
▁wayen	-10.5304
▁luka	-10.5306
kolweni	-10.5306
awobaba	-10.5311
mehlisa	-10.5313
zakuya	-10.5316
amvu	-10.5343
zidalwa	-10.5344
▁uzakungi	-10.5349
hhashi	-10.5378
thokozis	-10.5379
▁ngizakuni	-10.5381
selwandle	-10.5382
yithatha	-10.5392
khathaz	-10.5399
▁ongum	-10.5418
hlangabeza	-10.5431
▁iziphi	-10.5433
qhubek	-10.5441
vulele	-10.546
dokodo	-10.5461
Abant	-10.5462
sok	-10.5466
zini	-10.5468
▁yayisith	-10.5474
omhlaba	-10.5482
▁angiyiku	-10.5485
phelela	-10.5487
▁ngez	-10.5492
eHayidese	-10.5523
▁abakhuluma	-10.5531
hosha	-10.5534
▁bang	-10.5539
Amen	-10.554
Kwakukhona	-10.5541
Futhi	-10.5541
yisikhathi	-10.5542
khulek	-10.5547
khubeki	-10.5547
phakamisel	-10.5548
lwi	-10.5551
abagulayo	-10.5557
dlanga	-10.5557
gaba	-10.5561
▁amvus	-10.5561
ngidumisa	-10.5572
Kesari	-10.5574
▁asinik	-10.5574
uphe	-10.5583
ngasemuva	-10.5585
hange	-10.5592
▁aphume	-10.5598
▁abeza	-10.5604
▁anisibo	-10.5606
▁Wayesem	-10.5608
nguMoya	-10.5619
phula	-10.5619
bafowenu	-10.563
zakukwenza	-10.563
hloniph	-10.5634
Festu	-10.5642
makhelwane	-10.5644
ningesabi	-10.5644
hlangothi	-10.5644
mfowabo	-10.5646
Nazaretha	-10.5646
Jopha	-10.5647
Jud	-10.5648
bandleni	-10.5651
siswini	-10.5651
nxenye	-10.5652
lapha	-10.5654
khombis	-10.5654
yihlane	-10.5655
hawukele	-10.566
gatsha	-10.5662
▁kaHerod	-10.5665
sikhubekiso	-10.5665
khonona	-10.5666
zithembiso	-10.5668
▁izinhl	-10.5671
▁uno	-10.5672
dumileyo	-10.5673
Galathiya	-10.5674
▁uq	-10.5674
Sin	-10.568
Betsayida	-10.5682
zingelwa	-10.5683
hlabelel	-10.5685
bulawe	-10.5685
▁lwesi	-10.5686
▁umkh	-10.5687
dabuki	-10.569
luya	-10.5692
nochoko	-10.5693
hlanzekileyo	-10.5696
▁yinhl	-10.5698
philileyo	-10.5698
▁elibi	-10.5704
qiniso	-10.5706
qhuzu	-10.5707
abokugcina	-10.5708
bukhulu	-10.5713
kwaziwa	-10.5717
mbongolo	-10.5718
mshado	-10.5719
phefumul	-10.572
▁esifu	-10.5721
enyusel	-10.5721
endulo	-10.5721
gingq	-10.5722
Aristarku	-10.5722
Gayu	-10.5722
Italiya	-10.5722
Kubantu	-10.5722
Phuma	-10.5722
Shesha	-10.5722
Thikhiku	-10.5722
dadewethu	-10.5722
dunyiswe	-10.5722
emihelo	-10.5722
gwaqweni	-10.5722
hlambuluka	-10.5722
khazimulisa	-10.5722
khukhumele	-10.5722
maSamariya	-10.5722
madiyakoni	-10.5722
mlobokazi	-10.5722
ncintisana	-10.5722
ncithakalo	-10.5722
nezinhloni	-10.5722
nqolobane	-10.5722
numzane	-10.5722
seKorinte	-10.5722
sensimini	-10.5722
sentshonalanga	-10.5722
yizinhlobonhlobo	-10.5722
▁ashiywe	-10.5722
▁ekubhujisweni	-10.5722
▁emaphandleni	-10.5722
▁emibhalweni	-10.5722
▁entanyeni	-10.5722
▁intukuthelo	-10.5722
▁izinyembezi	-10.5722
▁kuPawulu	-10.5722
▁kungakenzeki	-10.5722
▁kweliphezulu	-10.5722
▁lingakakhali	-10.5722
▁nezinduku	-10.5722
▁ngasesangweni	-10.5722
▁ngephupho	-10.5722
▁ngesifungo	-10.5722
▁nguPawulu	-10.5722
▁nkonzo	-10.5722
▁sakwaBenjamini	-10.5722
▁uMarku	-10.5722
▁uThithu	-10.5722
▁umbhapathizo	-10.5722
▁umninisivini	-10.5722
▁wazihlephula	-10.5722
▁yegumbi	-10.5722
▁yesinaphi	-10.5722
4	-10.5722
profethe	-10.5722
vivinya	-10.5722
yamukeliswa	-10.5722
▁waseSamariya	-10.5722
▁yongithumileyo	-10.5722
Alfewu	-10.5722
Bantwana	-10.5722
mthenwa	-10.5722
tilongo	-10.5722
▁ekukhulekeni	-10.5722
khulelweyo	-10.5722
linqaba	-10.5722
Somandla	-10.5722
▁amasimu	-10.5722
▁eyedwa	-10.5722
▁engikuthandayo	-10.5722
▁kasikhombisa	-10.5722
Susa	-10.5722
Aroni	-10.5722
▁onothileyo	-10.5722
▁enikubonayo	-10.5722
emibhalo	-10.5722
zinganekwane	-10.5722
ezinyosi	-10.5722
nqobe	-10.5722
▁kwalasha	-10.5722
dangali	-10.5722
ngafungi	-10.5722
▁akwenzileyo	-10.5722
ngokaKristu	-10.5722
amaphiko	-10.5722
kuyihlazo	-10.5722
▁inyanga	-10.5722
khishw	-10.5723
▁sisinye	-10.5723
Eno	-10.5723
Diyana	-10.5723
▁ongakholwayo	-10.5723
▁langakhona	-10.5723
mhlwanyeli	-10.5723
minyanis	-10.5723
▁elicolekileyo	-10.5723
▁okwenu	-10.5723
▁endodeni	-10.5723
▁okomoya	-10.5723
lahlekileyo	-10.5723
Jasoni	-10.5723
bathobele	-10.5723
abazidlayo	-10.5723
khondo	-10.5723
▁ubisi	-10.5723
▁yenzuzo	-10.5723
bendiswa	-10.5724
dunyiswa	-10.5724
▁kungukulunga	-10.5724
▁eyisikhombisa	-10.5724
▁osizini	-10.5724
ste	-10.5724
nqabela	-10.5725
▁ngoBelzebule	-10.5725
▁ongathi	-10.5725
▁ngukulunga	-10.5725
shiswe	-10.5725
▁ngabokuqala	-10.5725
amasiko	-10.5726
▁kunabantu	-10.5726
▁emizaneni	-10.5726
cish	-10.5726
Thabatha	-10.5726
Phi	-10.5726
▁kobuso	-10.5726
▁lindani	-10.5726
▁ngokwenu	-10.5727
khukhula	-10.5727
kutuswa	-10.5727
▁lwaseGalile	-10.5727
▁omiyo	-10.5727
sigqilakazi	-10.5727
hlile	-10.5728
Yizwani	-10.5728
▁ngasemnyango	-10.5728
▁lalelani	-10.5728
vunguz	-10.5728
▁womhlaba	-10.5728
▁buqinisile	-10.5728
▁yesizwe	-10.5729
nifundisa	-10.5729
▁nesibabule	-10.573
▁nezihambi	-10.573
▁enikuzwayo	-10.573
▁wawobaba	-10.573
qhoth	-10.5731
▁induduzo	-10.5731
▁kwesono	-10.5731
▁zibone	-10.5731
▁amazulu	-10.5731
▁basutha	-10.5731
ngenabala	-10.5731
kholiwe	-10.5732
qalekisa	-10.5732
ngakabikho	-10.5733
▁ukungcola	-10.5733
▁ngobumnene	-10.5733
▁yokuthula	-10.5733
wakhuza	-10.5734
▁abokusoka	-10.5734
▁wokuthula	-10.5734
▁Ndlela	-10.5734
▁njengesela	-10.5734
▁ngokuzenzisa	-10.5734
abelusi	-10.5734
duduzeka	-10.5734
▁ngombhapathizo	-10.5734
▁laseGibithe	-10.5734
Nginguye	-10.5735
ngakucela	-10.5735
▁yabezizwe	-10.5735
▁nguSathane	-10.5735
▁bemlinga	-10.5736
▁nangamandla	-10.5737
▁umhlatshelo	-10.5737
phelile	-10.5738
chitheka	-10.5739
isindisiwe	-10.5739
ezifweni	-10.5739
sikebhe	-10.574
▁nangothando	-10.574
▁yabaprofethi	-10.5741
▁noPetru	-10.5741
▁bukaJesu	-10.5742
▁ezintsha	-10.5742
bikele	-10.5743
ngumRoma	-10.5743
▁zabaphostoli	-10.5743
▁leqiniso	-10.5743
▁njengabo	-10.5743
▁kanembeza	-10.5744
▁nobukhosi	-10.5745
▁isikela	-10.5745
▁liyisi	-10.5745
▁lwawo	-10.5746
▁nobubi	-10.5746
▁ebuthakathakeni	-10.5747
▁esigcawini	-10.5747
▁emathuneni	-10.5747
▁wayenamadoda	-10.5747
▁esifaneleyo	-10.5748
▁Bambuza	-10.5748
▁kwelanga	-10.5748
▁ngokusobala	-10.5748
bakhuza	-10.5749
▁noTomase	-10.575
pheme	-10.5751
yalisisa	-10.5751
▁agcwalise	-10.5751
▁sokuphila	-10.5751
▁bubi	-10.5752
▁niyamazi	-10.5754
banzi	-10.5754
▁ukuphelela	-10.5755
▁komoya	-10.5755
ebutho	-10.5756
▁isiboshwa	-10.5756
▁nabafowethu	-10.5756
▁sethempeli	-10.5757
khululwa	-10.5757
▁amthandayo	-10.5757
mnqumo	-10.5758
▁sabaJuda	-10.5758
▁yinyama	-10.5759
▁sokugcina	-10.576
enkathi	-10.576
▁nobuso	-10.5761
▁lomuzi	-10.5762
▁bayibulala	-10.5762
tsheni	-10.5762
▁othembekayo	-10.5762
▁yezingelosi	-10.5762
sihlanu	-10.5763
▁abacebileyo	-10.5763
▁nezandla	-10.5764
▁Wayesephendula	-10.5765
esikhonzi	-10.5765
▁kanyekanye	-10.5765
▁wayesephendula	-10.5766
qinisela	-10.5766
▁izibopho	-10.5766
▁Beza	-10.5766
▁ngobuthakathaka	-10.5767
▁Naye	-10.5767
▁walamba	-10.5768
▁ngukusindiswa	-10.5769
▁ngukuthi	-10.577
yaliwe	-10.577
▁nibambelel	-10.5772
ngumprofethi	-10.5774
▁angilandele	-10.5776
ewayini	-10.5777
▁ezinde	-10.5777
▁amagatsha	-10.5778
▁kwengcebo	-10.5778
khazimulisiwe	-10.5778
▁kokuqala	-10.578
▁noSawulu	-10.5782
▁ngomyalo	-10.5783
▁anikholwa	-10.5783
▁entsha	-10.5783
benzela	-10.5784
▁abenyama	-10.5785
▁umfelokazi	-10.5787
▁unokuphila	-10.5787
semzini	-10.5787
▁egcekeni	-10.579
Mam	-10.579
kwaphuc	-10.5791
▁isifebe	-10.5792
zenzile	-10.5792
hlebi	-10.5794
▁ngesono	-10.5794
fezela	-10.5795
▁noSathane	-10.5795
▁abancane	-10.5795
▁isith	-10.5796
▁zokuzwa	-10.5797
vulekile	-10.5797
▁eJopha	-10.5797
▁eNazaretha	-10.5797
▁sethu	-10.5798
▁etsheni	-10.5798
▁lwase	-10.5799
▁emandleni	-10.5799
▁ngokuzalwa	-10.5799
▁nokunxusa	-10.5799
Nifuna	-10.5803
▁ngeminyaka	-10.5804
▁yokukholwa	-10.5804
hloli	-10.5805
▁ezingcwele	-10.5806
▁nginikhu	-10.5807
▁kuyize	-10.5808
▁yilokho	-10.5808
▁kaHerode	-10.5809
▁ziku	-10.5809
ithini	-10.5812
▁iyakub	-10.5812
▁nokubusa	-10.5813
qinisekile	-10.5813
zazimthetho	-10.5813
enyanga	-10.5814
▁nabafowenu	-10.5815
ngokwabantu	-10.5815
▁wabantu	-10.5818
▁nodwa	-10.5818
▁ukumuzwa	-10.5819
Kuvuny	-10.5821
yisiwula	-10.5821
▁nosizi	-10.5821
▁ngifike	-10.5822
▁okungcono	-10.5822
▁bengalaleli	-10.5823
▁njengami	-10.5824
▁ungang	-10.5824
ngesiphambeko	-10.5825
▁isibani	-10.5825
▁wababiza	-10.5826
▁eyodwa	-10.5828
▁Oku	-10.5828
▁bakholwe	-10.5828
▁malib	-10.5829
▁eyimpumputhe	-10.583
bonakele	-10.5831
▁omnene	-10.5832
▁abangayiku	-10.5833
▁ngokubonga	-10.5834
▁yigazi	-10.5834
▁ngomuntu	-10.5834
▁ngiyakwenza	-10.5834
▁asazi	-10.5836
▁woza	-10.5836
▁senga	-10.5836
▁wambamba	-10.5836
▁ngoNkulunkulu	-10.5837
▁asibeke	-10.5837
▁idili	-10.5838
▁zase	-10.5839
▁ukudabuka	-10.584
▁uyiNkosi	-10.584
▁kaJohane	-10.5841
bhubhise	-10.5841
▁wemi	-10.5842
▁udenariyu	-10.5843
ohlanga	-10.5844
▁inkulu	-10.5844
▁nomfazi	-10.5846
▁ongam	-10.5846
▁umkhosi	-10.5846
▁eningena	-10.5856
mthandayo	-10.5856
▁nokubulala	-10.5857
▁behlambalaza	-10.5858
▁ngokwenza	-10.5859
▁udrako	-10.5861
isana	-10.5861
Fa	-10.5863
▁ngabafundi	-10.5863
▁nomhawu	-10.5863
▁waseGalile	-10.5863
mangalis	-10.5864
▁wabaJuda	-10.5866
▁kumpristi	-10.5866
▁ngazwi	-10.5866
▁nibuthana	-10.5867
▁ukuprofetha	-10.587
zimpumputhe	-10.5871
ngele	-10.5874
▁ngeso	-10.5874
▁kwalokhu	-10.5875
▁kunina	-10.5875
▁yamuka	-10.5875
▁izazi	-10.5878
▁babaJuda	-10.5879
▁abalizwa	-10.5882
Ungayi	-10.5885
khulekele	-10.5885
okhokho	-10.5887
▁Yeka	-10.5891
▁bembona	-10.5894
▁azaku	-10.5896
banika	-10.5896
▁owaziyo	-10.59
▁ngidle	-10.5903
kujezis	-10.5904
▁Badla	-10.5905
▁yama	-10.5908
▁ongayiku	-10.591
nyane	-10.591
▁bafike	-10.5913
▁uqinise	-10.5916
▁imila	-10.592
▁eHayidese	-10.5924
▁siphila	-10.5926
mhlambi	-10.5931
zondayo	-10.5935
▁ofe	-10.5937
▁safa	-10.5938
lamba	-10.5938
amacebo	-10.594
alokho	-10.5942
zihlobo	-10.5943
thathile	-10.5946
▁okufa	-10.5946
phikis	-10.5948
▁nginamandla	-10.5949
▁bekhala	-10.5949
▁ngokwesithathu	-10.5949
zathu	-10.595
shanel	-10.595
▁ukubonga	-10.5951
ezilwane	-10.5953
▁endle	-10.5953
sizani	-10.5955
besilisa	-10.5961
▁nabaphostoli	-10.5964
▁kukhulume	-10.5964
▁kaYise	-10.597
▁osuk	-10.597
▁yokuba	-10.5971
phuc	-10.5972
▁nomusa	-10.5972
atha	-10.5978
▁belele	-10.598
▁ngumoya	-10.5982
▁nenye	-10.5985
mazanga	-10.5989
▁lam	-10.5997
▁ngokufanele	-10.6001
▁bekhuleka	-10.6007
lamukele	-10.6011
▁namanzi	-10.6011
okuphinga	-10.6011
▁waphika	-10.6013
▁ukusebenza	-10.6014
▁Vuka	-10.6015
ninokukholwa	-10.6017
Kung	-10.6017
ngaphansi	-10.6019
khosi	-10.6022
▁agcwele	-10.6022
▁nacala	-10.6024
▁zithi	-10.6026
obuso	-10.6027
▁akusho	-10.6028
▁okoku	-10.6045
ngenanto	-10.6046
▁omlilo	-10.6047
▁Esem	-10.6057
kathi	-10.606
▁akhuleka	-10.6063
eyakhe	-10.6063
▁wambona	-10.6064
▁okulotshiweyo	-10.6066
kaSolomoni	-10.6071
bafazi	-10.6073
wokugcina	-10.6074
Eli	-10.6079
▁ezulu	-10.6084
cabangi	-10.6091
▁odwa	-10.6092
▁beqala	-10.6092
▁ubutha	-10.6096
khulunyw	-10.611
nyathel	-10.6114
kwethu	-10.6119
▁isiba	-10.612
zwakale	-10.6123
▁Ngoku	-10.6129
kuvuza	-10.6139
melani	-10.614
odwa	-10.6149
nikhaphela	-10.6152
enkohliso	-10.6152
▁ulungile	-10.6156
yehla	-10.6157
▁othini	-10.6163
eqe	-10.6169
hlwanyelanga	-10.6172
enabel	-10.6177
▁kukhuleka	-10.6183
okungaye	-10.6188
yimukisa	-10.62
▁basuka	-10.6205
phambili	-10.6213
▁ufile	-10.6224
▁ezelwe	-10.6231
▁esiza	-10.6238
ezulu	-10.624
▁ungabi	-10.6252
behlel	-10.6252
celayo	-10.6254
▁lize	-10.6255
anu	-10.6256
▁abadla	-10.6265
▁abuye	-10.6265
khiphi	-10.6273
yakwenza	-10.6282
mmbela	-10.6292
kubonanga	-10.6296
pu	-10.6298
umkhuhlane	-10.6312
menyezelw	-10.6314
wokuphela	-10.6322
▁eningi	-10.6329
▁uyayi	-10.6331
zelanga	-10.6339
▁Wo	-10.6341
kwenzele	-10.6342
yitshe	-10.6348
▁ezaku	-10.6355
ngumthetho	-10.6357
mvumela	-10.636
▁uMfundisi	-10.6363
▁ongiph	-10.6364
yis	-10.6364
ufakazile	-10.6375
▁wafundisa	-10.6378
▁nimi	-10.6385
oyihlo	-10.6387
okuqala	-10.6391
▁ngimi	-10.6394
▁ufikile	-10.6401
▁nokwazi	-10.6411
▁uyakuthath	-10.6415
▁yenza	-10.6418
▁ningahlangan	-10.6423
awoyihlo	-10.6434
▁ungow	-10.6467
ungebi	-10.6482
esifundiso	-10.6487
▁umus	-10.6487
wahlukene	-10.6487
▁engiyakum	-10.6491
zinsizwa	-10.6491
ngikhulula	-10.6496
▁makani	-10.6496
ezincwadi	-10.6498
akhazimulisw	-10.652
ayinike	-10.6522
Ar	-10.6538
wakho	-10.6557
lingo	-10.6561
golide	-10.6562
kudlule	-10.6569
▁sena	-10.6573
▁imic	-10.6575
kupha	-10.6579
iphile	-10.6581
▁abathanda	-10.6582
yahlulela	-10.6599
nginika	-10.6616
boshwa	-10.6617
aneliswa	-10.6621
▁wazith	-10.6629
▁ngifika	-10.663
▁owenz	-10.6633
mboz	-10.6638
▁engazi	-10.6647
▁abasho	-10.6664
zith	-10.6671
leza	-10.6675
ikholekile	-10.668
namabutho	-10.6725
▁sekw	-10.6727
Khupro	-10.6729
▁Makunga	-10.6764
▁nawoku	-10.6772
khokhe	-10.6782
ngiyabona	-10.6793
▁ngezind	-10.681
▁abaz	-10.6813
▁ngelakh	-10.6814
▁nazo	-10.6829
wenu	-10.683
zithoba	-10.6834
ndwe	-10.6849
lotshwa	-10.6851
▁oyak	-10.6863
sebenzile	-10.6868
▁uyakw	-10.6882
hluphe	-10.6889
bonakalisile	-10.6892
▁njengesi	-10.6924
zinkanuko	-10.694
▁Yini	-10.6943
▁ngamadoda	-10.6949
ngitshele	-10.695
vusel	-10.695
emiya	-10.695
ngalungile	-10.6953
theth	-10.6968
sendle	-10.6976
phenduk	-10.6992
njengokulotshiwe	-10.6992
bantwanyana	-10.7011
ngakabi	-10.7072
▁nokw	-10.7079
mpahla	-10.7082
khathini	-10.7086
Petru	-10.7102
ume	-10.7104
▁abakhi	-10.7104
njengalokh	-10.7107
zintombi	-10.7112
qhubekel	-10.7119
kubantwana	-10.715
▁seza	-10.7154
▁angizang	-10.7154
mpumputhe	-10.7156
yizimpumputhe	-10.7164
▁engabo	-10.7171
▁abathun	-10.7172
▁wezi	-10.7173
yamlandela	-10.7186
endawo	-10.7191
linganise	-10.7207
okusiza	-10.7223
izelwa	-10.7225
▁nganelis	-10.7232
bazisa	-10.7233
nteng	-10.7234
bathengisa	-10.7246
yakuthethelelwa	-10.7276
zungez	-10.7287
nikhumbule	-10.7342
gqok	-10.7343
▁eniyaku	-10.7348
kufundis	-10.7353
phath	-10.7353
Solomoni	-10.7364
dele	-10.7386
oma	-10.7401
dili	-10.7404
▁akhuleke	-10.7429
ungisa	-10.743
▁bayizi	-10.7431
▁kubhubh	-10.7434
bakithi	-10.7438
liya	-10.7446
khand	-10.7448
Kuhle	-10.7462
ngenisi	-10.7464
ecilongo	-10.7465
bancenga	-10.7473
ogange	-10.7479
kuhlwanyel	-10.7488
▁wemba	-10.7495
thombo	-10.7497
▁ngife	-10.7507
zulwini	-10.7509
ntabeni	-10.7539
▁zitho	-10.7541
buyisel	-10.7563
▁niz	-10.7567
zakwazi	-10.7601
gcwalise	-10.7604
▁izimpi	-10.7607
thumile	-10.7623
▁elim	-10.7627
hlonipha	-10.7629
mfuma	-10.7629
▁engayi	-10.7642
ezintaba	-10.765
▁uyakwamuk	-10.768
ntombazana	-10.7688
nwele	-10.7704
encwadi	-10.7705
mbethel	-10.7737
▁Njeng	-10.7737
Ngiz	-10.7762
abangalungile	-10.7763
sishiye	-10.7767
▁kulaw	-10.7795
bafelokazi	-10.7797
kuqonde	-10.7798
cebo	-10.7814
nikhulekela	-10.7825
iyakuzond	-10.7835
nkambo	-10.7851
▁edabu	-10.7854
ndlala	-10.7857
suk	-10.7859
ahlulelwa	-10.7863
ezithombe	-10.7864
tshelwa	-10.7873
ginitshelile	-10.789
ombhalo	-10.789
yelwe	-10.7904
▁lakwa	-10.7908
▁nakwaba	-10.7912
okhululekileyo	-10.7915
zonde	-10.7918
yiNkosi	-10.7931
ahlukanisa	-10.7937
malunga	-10.7941
nandawo	-10.7944
phelelisw	-10.7949
abaphilayo	-10.7956
shumayel	-10.7962
▁bamuke	-10.7963
hlakele	-10.7972
unja	-10.7982
▁abayaku	-10.7982
demoni	-10.7997
kuzwileyo	-10.8
phumule	-10.8017
zincom	-10.8018
thwalo	-10.8022
sikaMoya	-10.8022
enyuka	-10.8025
▁ongesi	-10.8031
ngaphesheya	-10.8032
Manje	-10.8036
Kanjalo	-10.8042
umkakhe	-10.8044
siphe	-10.8049
▁nowasi	-10.8058
londoloz	-10.8062
▁beninga	-10.8064
Yeka	-10.8064
ketanga	-10.8072
abango	-10.8075
hayi	-10.8081
bamukisa	-10.8086
lahlekelw	-10.81
Kuthe	-10.8106
Lazaru	-10.8118
▁Ekus	-10.8119
oNgcwele	-10.8119
mfowenu	-10.8133
faki	-10.8135
mfelokazi	-10.8138
holwa	-10.8144
Damaseku	-10.8152
onakala	-10.8154
wesithathu	-10.8156
Kukhona	-10.8159
▁sife	-10.8159
omlomo	-10.8159
hambela	-10.8165
qhude	-10.8166
thembekayo	-10.8171
hlakazekile	-10.8172
ngasoleki	-10.8174
ofakazi	-10.8174
nceng	-10.8177
eduze	-10.818
endwangu	-10.8184
abonakali	-10.8188
▁wagu	-10.819
▁isitha	-10.8196
msindo	-10.8197
kungasoki	-10.8197
ombango	-10.8198
Sidoni	-10.8202
INKOSI	-10.8207
▁okusha	-10.8207
te	-10.8208
izahlulel	-10.8208
zifebe	-10.8208
ensimbi	-10.8209
abaphangi	-10.8212
ekupheleni	-10.8214
▁noBar	-10.8214
▁owona	-10.8217
lahliwe	-10.8217
5	-10.8219
zingulube	-10.8219
cathul	-10.822
nedemoni	-10.822
obukhosi	-10.8221
Melkisedeki	-10.8221
▁uDi	-10.8221
Pont	-10.8221
cwebezela	-10.8221
bhula	-10.8221
qalekisiwe	-10.8222
Vum	-10.8222
kaJose	-10.8222
cunul	-10.8222
6	-10.8222
Aleksandriya	-10.8222
Arimatheya	-10.8222
UJakobe	-10.8222
Ungaphingi	-10.8222
bhantshi	-10.8222
dazuluka	-10.8222
eDerbe	-10.8222
ebugqileni	-10.8222
emphongolweni	-10.8222
haqe	-10.8222
hemu	-10.8222
hloniphekayo	-10.8222
jabule	-10.8222
khukhumeza	-10.8222
laywa	-10.8222
mhlubula	-10.8222
mntanakhe	-10.8222
mpindiselo	-10.8222
mqamekel	-10.8222
ncelisa	-10.8222
ngakhononi	-10.8222
ngubumnyama	-10.8222
oSilvanu	-10.8222
obuntwana	-10.8222
phakanyiselw	-10.8222
phakemeyo	-10.8222
phephetha	-10.8222
sebumnyameni	-10.8222
sichotho	-10.8222
sikhundla	-10.8222
sitaladi	-10.8222
sivunguvung	-10.8222
umhume	-10.8222
zimungulu	-10.8222
▁Khumbula	-10.8222
▁amaqabunga	-10.8222
▁ebantwini	-10.8222
▁emafwini	-10.8222
▁emkhombeni	-10.8222
▁engakasoki	-10.8222
▁esebhapathiziwe	-10.8222
▁etafuleni	-10.8222
▁isihenqo	-10.8222
▁isiphithiphithi	-10.8222
▁nezinhlanzana	-10.8222
▁ngoqwembe	-10.8222
▁njengejuba	-10.8222
▁noqhabo	-10.8222
▁ongacimekiyo	-10.8222
▁oyisimungulu	-10.8222
▁uMduduzi	-10.8222
▁ukwamukelwa	-10.8222
▁uyindlalifa	-10.8222
▁uzamcolo	-10.8222
▁yaseSinayi	-10.8222
gudluk	-10.8222
jabulisa	-10.8222
phuphuthek	-10.8222
▁ebubende	-10.8222
▁ekuhluphekeni	-10.8222
▁inkululeko	-10.8222
▁lwanamuhla	-10.8222
▁okwaphezulu	-10.8222
▁omkhaphelayo	-10.8222
▁owamkhaphelayo	-10.8222
▁uNowa	-10.8222
▁yaseSiyoni	-10.8222
▁zokubukwa	-10.8222
bhekisisa	-10.8222
nyumba	-10.8222
setshenzw	-10.8222
tshengise	-10.8222
▁ezihlalweni	-10.8222
▁ungowaseGalile	-10.8222
khanyisela	-10.8222
mmukula	-10.8222
xutsh	-10.8222
▁Nginilobele	-10.8222
▁imibuso	-10.8222
▁izindlebe	-10.8222
amhlanje	-10.8222
▁ngoqalekisiweyo	-10.8222
Zanini	-10.8222
▁isidlo	-10.8222
embathani	-10.8222
hlanzwe	-10.8222
▁oyedwa	-10.8222
▁ukukhululeka	-10.8222
khonzile	-10.8222
ganwe	-10.8222
kuzakwenzeka	-10.8222
julileyo	-10.8222
philiswa	-10.8222
sithibez	-10.8222
▁ambone	-10.8222
okushinga	-10.8222
lidlulisel	-10.8222
ingelelan	-10.8222
owomileyo	-10.8222
Musa	-10.8222
thunyelwa	-10.8222
▁wesilo	-10.8222
ngizingele	-10.8222
▁eTire	-10.8222
▁nhliziyonye	-10.8222
▁abamlalelayo	-10.8222
▁ephilile	-10.8222
ahlukane	-10.8222
amathambo	-10.8222
▁obongekayo	-10.8222
▁ohlangothini	-10.8222
▁siyaniyala	-10.8222
▁ezingulubeni	-10.8222
ngoyedwa	-10.8222
Anase	-10.8222
▁kukhanye	-10.8222
▁nyamanye	-10.8222
amakhiwane	-10.8222
kuthunjelw	-10.8222
▁ngibone	-10.8222
igax	-10.8222
Mamona	-10.8222
▁ibutho	-10.8222
▁nisangibona	-10.8222
kuyakwenzeka	-10.8223
▁kuJakobe	-10.8223
▁kukaMelkisedeki	-10.8223
▁ogulayo	-10.8223
▁kaSe	-10.8223
▁engikushoyo	-10.8223
▁evangelini	-10.8223
▁iyodwa	-10.8223
▁zikaJesu	-10.8223
▁okwabantu	-10.8223
kazana	-10.8223
▁awuyiku	-10.8223
▁nginilobele	-10.8223
▁ozibongayo	-10.8223
qongelel	-10.8223
mkhuleko	-10.8223
mkhwelisa	-10.8223
gwema	-10.8223
▁emsebenzini	-10.8223
sosizini	-10.8223
phulukiswe	-10.8223
▁ngokungazi	-10.8223
Samu	-10.8223
▁kwezikhathi	-10.8223
▁owayenom	-10.8223
kulangazela	-10.8223
tende	-10.8223
▁okuyichilo	-10.8223
sangulukile	-10.8223
▁okomzimba	-10.8223
kuzwisis	-10.8223
▁kwefu	-10.8223
eSiyoni	-10.8223
▁ayiyiku	-10.8223
▁ngokomoya	-10.8224
vimbela	-10.8224
▁imiyalelo	-10.8224
biziwe	-10.8224
njengonyazi	-10.8224
▁wezingulube	-10.8224
bayalile	-10.8224
▁elizayo	-10.8224
misiweyo	-10.8224
saswele	-10.8224
▁nomphostoli	-10.8224
▁ngifake	-10.8224
▁ezizayo	-10.8224
sambatheka	-10.8224
sebusika	-10.8224
▁ngokuchachileyo	-10.8224
▁uvuke	-10.8225
yaluza	-10.8225
nxusela	-10.8225
▁aphul	-10.8225
hoboz	-10.8225
mangalisayo	-10.8225
▁ngobuningi	-10.8225
kwambulela	-10.8225
▁sikanina	-10.8225
awukhathal	-10.8225
▁babengenaku	-10.8225
▁ususondele	-10.8226
▁noMathewu	-10.8226
dukileyo	-10.8226
vusiwe	-10.8226
▁esangweni	-10.8226
Buy	-10.8226
▁uJo	-10.8226
▁kwabagulayo	-10.8226
▁bayakufakelwa	-10.8226
▁naseSidoni	-10.8226
Abiya	-10.8226
▁nakubaprofethi	-10.8226
▁kwabakholwayo	-10.8226
akhushul	-10.8226
▁bokukhanya	-10.8226
luhlaza	-10.8226
▁okuzayo	-10.8226
▁waseKhurene	-10.8226
hlephule	-10.8227
▁okushoyo	-10.8227
zwakele	-10.8227
khothama	-10.8227
▁owayefak	-10.8227
▁ngabalingis	-10.8227
▁nansi	-10.8227
▁kaNa	-10.8227
nqamuka	-10.8227
▁ngabadobi	-10.8228
▁ngombono	-10.8228
▁zelineni	-10.8228
akwalasha	-10.8228
sekhulile	-10.8228
▁lesithathu	-10.8229
▁kunaku	-10.8229
▁izilwane	-10.823
▁zabezizwe	-10.823
▁nangokulunga	-10.823
▁mnyaka	-10.823
▁nizakufumana	-10.823
▁emkhathini	-10.823
▁engenziwa	-10.823
▁lomfowenu	-10.823
▁sokumbuza	-10.8231
▁wokuphenduka	-10.8231
▁kungenjeng	-10.8231
▁wabezizwe	-10.8231
ukuqiniseka	-10.8231
unju	-10.8231
amukelisiwe	-10.8231
▁iMakedoniya	-10.8232
▁afune	-10.8232
▁yabangcwele	-10.8232
▁myalo	-10.8232
▁ngezindlu	-10.8232
▁niyakuphiwa	-10.8232
▁bakufumana	-10.8232
▁ukubuke	-10.8233
yiphathe	-10.8233
▁yimimoya	-10.8233
kwandisa	-10.8233
mhleka	-10.8233
khulelwa	-10.8234
dalelwa	-10.8234
funyaniswanga	-10.8234
▁angisayiku	-10.8234
▁ningadukiswa	-10.8235
▁ngokwethemba	-10.8235
▁umnyaka	-10.8235
▁eBethaniya	-10.8235
▁abokuqala	-10.8235
▁amasabatha	-10.8236
▁eziphambili	-10.8236
▁ngezibonakaliso	-10.8236
cima	-10.8236
Unedemoni	-10.8236
Mbethele	-10.8236
kwandisw	-10.8236
▁ngikuBaba	-10.8236
▁ezitsheni	-10.8237
▁kababaningi	-10.8237
esiphambeneyo	-10.8237
▁alishilo	-10.8238
hambisan	-10.8238
▁beniyaku	-10.8238
kumiselweyo	-10.8238
▁nezinyonga	-10.8238
▁ngodenariyu	-10.8238
▁esitsheni	-10.8238
▁ebezaku	-10.8238
ifazane	-10.8239
mbuq	-10.8239
zisekelo	-10.8239
▁kwebandla	-10.824
▁bayavuswa	-10.824
khubekisi	-10.8241
hlupha	-10.8241
atom	-10.8241
▁weqiniso	-10.8242
emindeni	-10.8242
▁esevukile	-10.8242
▁wodwa	-10.8242
▁nokuzingelwa	-10.8242
cimi	-10.8242
▁izihambi	-10.8242
bamdumisa	-10.8242
▁akubonayo	-10.8243
▁kwesibili	-10.8243
▁komzimba	-10.8243
▁nezimpumputhe	-10.8243
Abela	-10.8243
▁ngamalunga	-10.8244
▁ningikhumbul	-10.8245
Lung	-10.8245
emizana	-10.8246
esizotha	-10.8246
▁noLazaru	-10.8246
▁ngobungcwele	-10.8246
ogibe	-10.8247
mbiso	-10.8248
▁ngabafundisi	-10.8248
nikaqondi	-10.8248
▁njengabantwana	-10.8248
▁elibukhali	-10.8249
▁kosizi	-10.825
▁ngiyakunxusa	-10.825
▁nguMose	-10.825
▁bafe	-10.825
▁abangakholwanga	-10.825
▁kwezinto	-10.825
▁emibi	-10.8251
▁nabaphangi	-10.8251
nenani	-10.8251
▁ngowokuqala	-10.8252
▁engc	-10.8253
▁yalutho	-10.8254
▁mzuzu	-10.8255
▁ezindleleni	-10.8255
▁enqab	-10.8255
▁encekwini	-10.8255
▁ngokwethu	-10.8255
fakelwa	-10.8256
ayiqeda	-10.8256
UD	-10.8257
▁anikholwanga	-10.8258
▁uviniga	-10.8259
▁ubuthongo	-10.8259
▁uyangithanda	-10.8259
▁abanochoko	-10.8259
▁newayini	-10.826
khonzwa	-10.826
▁ngendwangu	-10.826
▁nobumnene	-10.8261
▁yomzimba	-10.8261
▁nesinye	-10.8262
▁eRoma	-10.8262
chichima	-10.8262
▁sihawukele	-10.8263
▁okungafanele	-10.8264
▁ukuzingelwa	-10.8265
▁yokukhuleka	-10.8265
▁kwethempeli	-10.8265
▁esingaka	-10.8266
▁nomzalwane	-10.8266
▁nodadewabo	-10.8266
▁lokuthula	-10.8267
▁wamphatha	-10.8267
▁inkohliso	-10.8268
▁bengesibo	-10.8268
kuqhubeka	-10.8269
▁eziyingcosana	-10.8269
khululwe	-10.8269
▁bebuzana	-10.827
nokuphila	-10.827
Ningesabi	-10.827
▁Kwakuyi	-10.8271
hlakazekileyo	-10.8272
nokwethemba	-10.8273
▁ngokwahlulela	-10.8274
▁nemithi	-10.8274
▁imana	-10.8274
▁baphulukiswa	-10.8274
▁icilongo	-10.8275
▁amabele	-10.8275
▁yababe	-10.8275
▁Wabayala	-10.8275
▁omncinyane	-10.8275
▁womusa	-10.8275
▁ngomfanekiso	-10.8276
▁uSa	-10.8277
▁umphe	-10.8278
▁sikholwe	-10.8278
▁kwehlela	-10.8278
okomunye	-10.8278
▁kwabalungileyo	-10.8278
▁negunya	-10.8279
lungisisa	-10.8279
▁Kulokhu	-10.8279
ngesizo	-10.8279
▁baphile	-10.828
▁nomphefumulo	-10.828
▁ungowaba	-10.8281
▁ngabezizwe	-10.8281
▁nesizwe	-10.8281
diya	-10.8281
abathengayo	-10.8282
▁kwabazalwane	-10.8282
▁nezinyanga	-10.8283
▁ikamela	-10.8285
kusihlwa	-10.8288
ayesemthatha	-10.8288
▁sengelosi	-10.8288
▁odumileyo	-10.829
▁nababulali	-10.829
▁angisiye	-10.8291
mazwe	-10.8291
▁kubaprofethi	-10.8291
▁nobufebe	-10.8293
▁ukuphumula	-10.8293
▁sasikhona	-10.8294
▁okumhlophe	-10.8294
▁balamukele	-10.8295
▁lazo	-10.8295
▁Abazal	-10.8296
▁nesono	-10.8296
hlabelele	-10.8297
vulwa	-10.8297
▁imind	-10.8297
ngabakaKristu	-10.8298
thukulula	-10.8298
▁nangoMoya	-10.8298
▁Eyesi	-10.8299
▁uyakusi	-10.8299
mncinyane	-10.83
▁yokufa	-10.8301
▁yiyona	-10.8301
nezinyawo	-10.8301
▁nezidalwa	-10.8302
sitsha	-10.8303
▁yazisa	-10.8303
babulale	-10.8303
▁insizwa	-10.8304
▁mas	-10.8305
▁babengazi	-10.8306
▁ngoJohane	-10.8306
phikwa	-10.8306
▁intela	-10.8307
abaseLawodikeya	-10.8307
▁yaphakade	-10.8307
impethu	-10.8307
▁lomemeza	-10.8308
phule	-10.8309
▁nithokoze	-10.8309
▁anamathel	-10.831
nengwa	-10.831
▁aphilayo	-10.831
embelwa	-10.8311
▁Wamuka	-10.8311
▁umthwalo	-10.8311
phindisela	-10.8312
▁sokukholwa	-10.8312
▁kwamakhosi	-10.8313
Kholwa	-10.8313
gqoka	-10.8314
▁yokudla	-10.8314
▁kwaphakade	-10.8316
phahla	-10.8316
▁izicathulo	-10.8316
▁wayelele	-10.8317
▁sakubona	-10.832
▁iziboshwa	-10.8321
▁elingcwele	-10.8321
etabernakele	-10.8321
nenhlanhla	-10.8321
▁afundise	-10.8322
▁amathe	-10.8322
▁siyakholwa	-10.8322
▁lokukholwa	-10.8323
▁ngezinyembezi	-10.8324
▁kwaseku	-10.8325
▁Kunjalo	-10.8325
thathaphi	-10.8326
▁ongayi	-10.8328
▁ukuswela	-10.833
▁amahle	-10.8331
▁nabakhuleka	-10.8331
yizingane	-10.8332
oboya	-10.8332
▁umkayo	-10.8333
▁ngekhulu	-10.8334
ngenangqondo	-10.8334
amaketanga	-10.8334
▁Wayesephuma	-10.8336
▁esakhuluma	-10.8336
Asina	-10.8338
ngamaf	-10.8338
ngokwemvelo	-10.8338
▁UJuda	-10.8339
▁wagijima	-10.8339
isimungulu	-10.8341
▁ngomzimba	-10.8342
▁ngas	-10.8342
▁ngiyikho	-10.8344
▁basuke	-10.8345
nangezimangaliso	-10.8345
nyiwe	-10.8346
▁Waqala	-10.8347
nyathela	-10.8347
biya	-10.8349
amaparele	-10.835
▁eziko	-10.835
▁umalusi	-10.8351
▁nabakhulu	-10.8352
▁nethempeli	-10.8352
▁anginitshel	-10.8354
eyokuqala	-10.8354
▁nomprofethi	-10.8356
▁uBarnaba	-10.8356
▁kaMariya	-10.8357
▁zobu	-10.8357
ngaphathi	-10.8358
▁nitshele	-10.8359
semini	-10.8359
▁lomuntu	-10.8364
▁kuyakum	-10.8364
▁okukuKristu	-10.8365
▁eBabiloni	-10.8365
ezoni	-10.8366
▁negolide	-10.8367
▁abaseduze	-10.8368
weqa	-10.8368
▁laso	-10.8369
▁alina	-10.837
▁nomuzi	-10.8372
▁niqonde	-10.8372
angifumani	-10.8376
bakhalayo	-10.8377
▁abangakholwa	-10.8377
▁afike	-10.8379
ngqondo	-10.838
▁umFarisi	-10.838
▁ukhululiwe	-10.8381
▁abethelwe	-10.8383
▁okusezulwini	-10.8383
zalwanga	-10.8384
okunene	-10.8386
okuzibonga	-10.8387
kulidl	-10.8388
▁ukugcwala	-10.8389
▁wamanga	-10.8393
Sukumani	-10.8393
▁yokuthi	-10.8393
▁ngabaningi	-10.8394
▁ngegolide	-10.8397
▁nolimi	-10.8403
▁ulusizi	-10.8404
▁abangaphandle	-10.8406
▁Wayi	-10.8408
senzo	-10.8409
▁elambile	-10.841
▁singabantwana	-10.841
landelana	-10.8413
▁njengakwab	-10.8413
mthwalo	-10.8413
▁bathandwa	-10.8414
kumthokozisa	-10.8415
▁ababese	-10.8416
felayo	-10.8417
▁yazo	-10.8421
▁ongamukela	-10.8421
▁bephuza	-10.8422
▁ababuthakathaka	-10.8424
▁ezigcwele	-10.8424
ukile	-10.8424
▁isekhona	-10.8425
▁Seni	-10.843
khuthazelayo	-10.843
▁ukimi	-10.8433
kukhulunywa	-10.8433
mthethelela	-10.8436
zikhethel	-10.8436
▁yabuye	-10.8438
▁sibuthakathaka	-10.8442
▁bekubona	-10.8442
yisiboshwa	-10.8443
Loba	-10.8444
nivusel	-10.8446
▁yinye	-10.8448
▁akhulume	-10.8454
kungenziwa	-10.8457
▁ufike	-10.8463
ngaselwandle	-10.8464
mabele	-10.8466
thempelini	-10.847
shayile	-10.8473
▁Bakhumbu	-10.8473
▁esebona	-10.8474
▁ukumbona	-10.8474
amahhashi	-10.8477
▁enguKristu	-10.8479
▁ungukukhanya	-10.8479
▁ukufunda	-10.8481
Wozani	-10.8484
▁ababemi	-10.8488
▁emunye	-10.8497
▁luthi	-10.8498
Uyabona	-10.8498
▁ngibeke	-10.85
▁Kukho	-10.8501
ngenalutho	-10.8502
ngubutha	-10.8502
▁bephonsa	-10.8502
mphikukristu	-10.8505
▁ungenis	-10.8513
kungokwami	-10.8515
profethayo	-10.8516
mukisi	-10.8518
▁esizwe	-10.8524
zibopho	-10.8526
▁Wafika	-10.8526
▁nezith	-10.8526
zinyonga	-10.8527
▁emac	-10.8528
▁iqonde	-10.8532
▁namademoni	-10.8534
▁naseJudiya	-10.8534
lindel	-10.8544
sekel	-10.8545
▁ngokubi	-10.8555
solayo	-10.8555
abangenacala	-10.8556
bathumela	-10.8563
amadokodo	-10.8566
▁Beni	-10.8569
▁umame	-10.8571
buqili	-10.8572
▁bemuka	-10.8572
daliweyo	-10.8574
hlanganisel	-10.8575
▁ibanga	-10.8582
ngishiya	-10.8594
ngesenzo	-10.86
▁zibona	-10.8605
ingafi	-10.8607
ngenkambo	-10.8607
awodadewabo	-10.8616
buthanel	-10.8619
kwenzelwe	-10.862
bingelel	-10.8624
▁ngokunye	-10.8624
duku	-10.8636
▁nginibekezelel	-10.8639
zikhulumel	-10.8642
▁bephendula	-10.8644
fikela	-10.865
hlalise	-10.865
▁lwayo	-10.8652
dabukile	-10.8657
bahlobo	-10.866
▁bakwenze	-10.8661
▁baduk	-10.8666
nomvuzo	-10.8669
▁usifak	-10.8671
kaDavide	-10.8672
ngahawukelwa	-10.8672
phelayo	-10.8681
owasi	-10.8687
Ungabulali	-10.8703
▁nasezin	-10.8704
▁ningaku	-10.8708
thelwa	-10.8713
▁uyakuma	-10.8716
njengama	-10.8722
▁ninamandla	-10.8724
▁ubaba	-10.8726
▁welul	-10.8728
miya	-10.8751
tol	-10.8763
▁obezaku	-10.8765
okukholwa	-10.8773
▁bamkhand	-10.8775
zigcwele	-10.8781
bulele	-10.8792
Ngiyakholwa	-10.8796
kakolweni	-10.8797
finyelela	-10.8805
ingakhathazeki	-10.8806
abakholwayo	-10.8807
wenzile	-10.8811
omile	-10.8811
kuth	-10.8823
yambona	-10.8826
▁wayengo	-10.8832
▁waqhu	-10.8834
afakaze	-10.8846
▁esekhona	-10.8859
▁sikhuphuk	-10.8875
hlotshis	-10.8876
kaYihlo	-10.8877
▁ningazi	-10.8886
muk	-10.8898
sit	-10.8905
▁ngezin	-10.8908
engakholwanga	-10.891
phulukiswa	-10.892
wakhe	-10.8921
sifinyelel	-10.8927
Asihamb	-10.8935
yakubhubha	-10.8958
zimpisi	-10.8962
cilongo	-10.8972
etshe	-10.8976
safunyanwa	-10.8978
▁ezithe	-10.898
▁asenz	-10.899
kuzalwa	-10.8997
yilokhu	-10.901
▁ngikwenze	-10.9021
avuswanga	-10.9028
yibandla	-10.904
kulinganiselw	-10.9042
ntsha	-10.9048
▁nezimp	-10.9054
ezinhluphek	-10.9072
▁aniyiku	-10.9084
nokwazi	-10.9093
▁enez	-10.9102
ekani	-10.9104
▁akanak	-10.9114
mqhele	-10.9128
▁omk	-10.9134
eneyo	-10.9137
ihlambulula	-10.9144
zilinganis	-10.9159
▁nomph	-10.9162
okuningi	-10.9182
salele	-10.919
ezela	-10.9199
wesono	-10.9206
ehlisa	-10.9228
zimisel	-10.9228
khele	-10.9238
▁enging	-10.9239
okuphila	-10.9249
Lase	-10.9253
omhlatshelo	-10.9268
bonise	-10.9271
benyama	-10.9277
alikho	-10.9288
zamukele	-10.9288
Wenze	-10.9291
▁ningibon	-10.9313
jonge	-10.9325
zigcinel	-10.933
▁boyis	-10.9334
elik	-10.9359
kwabantwana	-10.936
▁makw	-10.9363
▁woba	-10.9394
izakuphila	-10.9397
nobuthakathaka	-10.9454
▁njengokuswel	-10.948
ngaphambi	-10.9486
obupristi	-10.9498
ukudela	-10.95
ndise	-10.9509
kubekezela	-10.9514
sasele	-10.952
ngokukhathazeka	-10.9532
esandla	-10.9537
isango	-10.9541
wethemba	-10.962
▁Ningam	-10.9633
▁silungis	-10.9649
▁enikhuluma	-10.9653
thuki	-10.9677
ibonakalis	-10.9685
▁nasezind	-10.9686
khomba	-10.9693
On	-10.9709
obuNkulunkulu	-10.9709
zakubona	-10.9712
kuf	-10.9716
mlahla	-10.9717
sand	-10.9761
▁ufan	-10.9807
▁aph	-10.9807
amanje	-10.9816
zinceku	-10.9822
ziphatha	-10.9824
▁wokub	-10.9842
Baye	-10.9845
fumani	-10.985
umsebenzi	-10.9852
dodakazi	-10.9852
▁akunaku	-10.9855
cebisa	-10.987
abafowethu	-10.9953
halweni	-10.9968
aseKhupro	-10.9975
▁maningakho	-10.999
ngubo	-10.9996
zinikele	-11.0022
thokozi	-11.0035
zakusindiswa	-11.0035
ngibonile	-11.0045
phathisw	-11.0058
khuphuk	-11.0112
▁nokuq	-11.0115
amasela	-11.0124
sibusisa	-11.0137
mana	-11.0153
hlukanisi	-11.0175
isiphambeko	-11.0178
▁lwezw	-11.0183
mphika	-11.0215
ingelelwa	-11.0224
Ngizakwenz	-11.025
▁olung	-11.0252
khanyisa	-11.0256
ngasezulwini	-11.0279
▁njenges	-11.0299
naso	-11.0335
esinkwa	-11.0359
kugcwaliseka	-11.0361
▁oyakungi	-11.038
ngikhuleke	-11.0389
faza	-11.041
izwayo	-11.0423
▁kunjengoku	-11.0431
ikhulekeleni	-11.0454
angokuthuthumela	-11.0493
kwesikhashana	-11.0499
Am	-11.0516
▁baceb	-11.0523
▁bazuz	-11.0535
inzuzo	-11.0556
▁nezihl	-11.0562
▁wagul	-11.0577
kuphulukiswa	-11.0591
▁engas	-11.0596
ngasindiswa	-11.0599
▁singama	-11.06
▁mak	-11.0602
mangaliso	-11.061
▁nokwab	-11.0649
wesine	-11.0667
ngabaJuda	-11.0673
▁yosu	-11.0695
nokungena	-11.0707
iguqula	-11.0718
mkhwe	-11.0723
▁nezinja	-11.0735
nkan	-11.0746
mletha	-11.076
nkohliso	-11.077
Makungabi	-11.078
ezono	-11.0781
ambuliwe	-11.0791
azesul	-11.0807
phelekezela	-11.0823
▁owadal	-11.0832
▁kungokw	-11.0835
▁owavus	-11.0844
okusebenza	-11.0852
cindezelwa	-11.0852
anele	-11.0858
kuphume	-11.0863
ngikhonze	-11.0872
▁manib	-11.0897
likaMose	-11.0914
ezibani	-11.0923
vul	-11.0933
▁udo	-11.0933
ethembile	-11.0939
enezela	-11.0944
andi	-11.0959
baluleka	-11.0967
ngezwi	-11.0972
zandla	-11.0973
landele	-11.0974
lithukulule	-11.0975
wuphiweyo	-11.1022
siqashi	-11.103
kwamehlo	-11.1036
▁kwezw	-11.1071
baya	-11.1085
bukisa	-11.1116
yivula	-11.1116
kuvuswa	-11.1124
▁ind	-11.1141
▁izihlal	-11.1154
▁sasin	-11.1195
zifune	-11.121
aseSiriya	-11.1217
ePhamfiliya	-11.1234
▁enginilobel	-11.1244
▁kwaphu	-11.1246
▁ukukhuthal	-11.1246
izigqila	-11.1257
kunxuse	-11.1257
kweqa	-11.1262
nyonga	-11.1272
Gibithe	-11.1284
ngoMoya	-11.1297
Indoda	-11.1298
bhubh	-11.1345
sibekele	-11.1355
nomhawu	-11.1359
oPhezukonke	-11.1362
ngakwesokhohlo	-11.1362
nokuthokoza	-11.1369
lekile	-11.137
Nin	-11.1376
nokuthula	-11.138
noJesu	-11.1385
umnikelo	-11.1385
ahlukanise	-11.1386
▁uJe	-11.1387
ekuboshweni	-11.1388
enyukel	-11.1388
isiya	-11.139
Omunye	-11.139
kodwa	-11.1395
liphumile	-11.1399
▁nezint	-11.1409
Wasind	-11.143
bafowabo	-11.1435
T	-11.1443
bekezele	-11.1445
kimina	-11.146
babulali	-11.1461
Nani	-11.1462
gijim	-11.1464
gaxa	-11.1465
▁bekunge	-11.1467
▁ikamel	-11.1468
▁Wayeseth	-11.1469
onanga	-11.147
chasisel	-11.1471
▁sikhule	-11.1489
kuchichim	-11.1499
ngasenaku	-11.1501
moyeni	-11.1504
jabhiswa	-11.1511
siyaluyalu	-11.1512
fihliwe	-11.1516
▁izimp	-11.1518
oshwe	-11.1519
tshelwe	-11.152
amadolo	-11.152
bayisikhombisa	-11.1522
emfuy	-11.1524
wisa	-11.1527
yakulungis	-11.1534
phumi	-11.1536
busha	-11.1537
Zebedewu	-11.1541
sibabule	-11.1542
zidele	-11.1542
meme	-11.1543
bamukeli	-11.1546
Tir	-11.1546
empepho	-11.1546
kuhunyushwa	-11.1547
obile	-11.1549
▁ngomun	-11.155
suthis	-11.1551
musha	-11.1551
genca	-11.1552
aseKhurene	-11.1552
▁umhlan	-11.1552
kuqondile	-11.1552
eliswa	-11.1552
dodeni	-11.1553
ngazenzi	-11.1553
eSamariya	-11.1554
henduka	-11.1554
▁inkokh	-11.1554
vuthuluka	-11.1554
chibi	-11.1555
kuhuhek	-11.1555
▁wamonyuk	-11.1555
7	-11.1555
9	-11.1555
Aminadaba	-11.1555
Dedani	-11.1555
Demetriyu	-11.1555
Ephafr	-11.1555
Erastu	-11.1555
Esiromu	-11.1555
Golgotha	-11.1555
Justu	-11.1555
Sondela	-11.1555
Trofimu	-11.1555
UJESU	-11.1555
Zakewu	-11.1555
Zorobabeli	-11.1555
abashintsh	-11.1555
akwaNafetali	-11.1555
amachopho	-11.1555
aseFrigiya	-11.1555
aseGenesaretha	-11.1555
aseNineve	-11.1555
athenjiswa	-11.1555
bugqila	-11.1555
chaza	-11.1555
cunuk	-11.1555
dingekile	-11.1555
eBetfage	-11.1555
eParadisi	-11.1555
empuphu	-11.1555
enkonzweni	-11.1555
hlambulukile	-11.1555
hlambululile	-11.1555
hlangulisi	-11.1555
inundu	-11.1555
kaStefana	-11.1555
kaThithu	-11.1555
khuluphalisiweyo	-11.1555
klolodela	-11.1555
kuhanjelwa	-11.1555
likhazimulis	-11.1555
mProfethi	-11.1555
mifino	-11.1555
minqumo	-11.1555
mizuzu	-11.1555
mpungushe	-11.1555
mzuzwan	-11.1555
ngamnqabeli	-11.1555
ngaqondakaliyo	-11.1555
noPrisila	-11.1555
nqunyelw	-11.1555
obhoz	-11.1555
ophilisiweyo	-11.1555
qaphelisis	-11.1555
sijeziso	-11.1555
sitshekelwe	-11.1555
vilaphayo	-11.1555
vuthulule	-11.1555
xokozela	-11.1555
yadingeka	-11.1555
yihlukumeza	-11.1555
zibophile	-11.1555
zigabisi	-11.1555
zihlobis	-11.1555
zikhukhumezi	-11.1555
▁6:2	-11.1555
▁OPawulu	-11.1555
▁amagwebu	-11.1555
▁bezakuzila	-11.1555
▁eFilipi	-11.1555
▁eJordani	-11.1555
▁eKorinte	-11.1555
▁ePherge	-11.1555
▁eTarsu	-11.1555
▁ehu	-11.1555
▁ekukhazimuleni	-11.1555
▁embhedeni	-11.1555
▁enikuthandayo	-11.1555
▁esihlahleni	-11.1555
▁esingesincane	-11.1555
▁eyisimungulu	-11.1555
▁ezitaladini	-11.1555
▁iGalile	-11.1555
▁iSamariya	-11.1555
▁ikhihliz	-11.1555
▁impepho	-11.1555
▁isiGreki	-11.1555
▁ivaliwe	-11.1555
▁iyalidinga	-11.1555
▁kaJesayi	-11.1555
▁kaMathat	-11.1555
▁kaNowa	-11.1555
▁kufiphazwe	-11.1555
▁kuyakukhawuka	-11.1555
▁kwePhasika	-11.1555
▁lamaGerasa	-11.1555
▁legumbi	-11.1555
▁lenkezo	-11.1555
▁likhulekiwe	-11.1555
▁mbono	-11.1555
▁nabakhelwane	-11.1555
▁nasemaphandleni	-11.1555
▁nezinwabuzelayo	-11.1555
▁ngesiminya	-11.1555
▁nilingwe	-11.1555
▁ningabenqabeli	-11.1555
▁ningathetheleli	-11.1555
▁noHerm	-11.1555
▁noMarku	-11.1555
▁okungayikwaziwa	-11.1555
▁omabili	-11.1555
▁ongithintileyo	-11.1555
▁sikaJona	-11.1555
▁ubuhlungu	-11.1555
▁uchoko	-11.1555
▁ukubuyisana	-11.1555
▁uzuze	-11.1555
▁wayengumGreki	-11.1555
▁yesahlukaniso	-11.1555
inyinyekile	-11.1555
kudingeka	-11.1555
lihlatshiwe	-11.1555
oPris	-11.1555
omnyango	-11.1555
▁ebuthongweni	-11.1555
Salatiyeli	-11.1555
emfuleni	-11.1555
ingathembeki	-11.1555
ngakhulumekiyo	-11.1555
ngangihluphi	-11.1555
oThithu	-11.1555
okububende	-11.1555
▁akhohlwe	-11.1555
▁ekulungeni	-11.1555
▁iningizimu	-11.1555
▁isifungo	-11.1555
▁izikhwebu	-11.1555
▁kumphangi	-11.1555
▁lokumkhaphela	-11.1555
▁lwengilazi	-11.1555
▁ngezifo	-11.1555
▁omzingelayo	-11.1555
▁umshuki	-11.1555
Nikolawu	-11.1555
fiphazwa	-11.1555
khanuka	-11.1555
kunyakaziswa	-11.1555
munyu	-11.1555
▁ezahlukeneyo	-11.1555
▁kuhlanzek	-11.1555
▁kwesivini	-11.1555
mibono	-11.1555
▁isazimthetho	-11.1555
▁nabakaHerode	-11.1555
sasilalelwe	-11.1555
▁Akuyiku	-11.1555
▁Yekhanda	-11.1555
▁isikhamo	-11.1555
▁ukuphamban	-11.1555
emigodi	-11.1555
▁kokwami	-11.1555
obezakumkhaphela	-11.1555
oyinki	-11.1555
sibukweni	-11.1555
▁kaKayin	-11.1555
▁kukaJo	-11.1555
ambulela	-11.1555
▁ayiminyanisa	-11.1555
▁bebukela	-11.1555
▁elithulul	-11.1555
▁ezicwebezelayo	-11.1555
▁ligcwaliseke	-11.1555
▁ungaphingi	-11.1555
▁ziklabile	-11.1555
kubhidlik	-11.1555
kuganana	-11.1555
mifula	-11.1555
▁engiyenzayo	-11.1555
▁kunoJohane	-11.1555
▁zonakale	-11.1555
▁ekhulelwe	-11.1555
▁enalizwayo	-11.1555
▁xwayani	-11.1555
Manase	-11.1555
kuphakama	-11.1555
ngowenhlabathi	-11.1555
yithabath	-11.1555
▁izinja	-11.1555
▁kaMat	-11.1555
▁ziphenduke	-11.1555
gubuzel	-11.1555
ukungaboli	-11.1555
▁esokufa	-11.1555
▁lichitheke	-11.1555
▁siyanincenga	-11.1555
▁alahlwe	-11.1555
▁Yilethe	-11.1555
▁agcinwe	-11.1555
▁eFenik	-11.1555
▁ekukhulumeni	-11.1555
▁nabalindi	-11.1555
zithengele	-11.1555
▁ambhinqa	-11.1555
▁okomntwana	-11.1555
imfu	-11.1555
▁abathenw	-11.1555
▁elaliq	-11.1555
▁nokuhuheka	-11.1555
vuthiwe	-11.1555
kujula	-11.1555
▁ilahlwe	-11.1555
▁zayidla	-11.1555
▁abakuqondanga	-11.1555
▁awuseyi	-11.1555
▁nabangakholwayo	-11.1555
▁yiwayini	-11.1555
▁nabangalaleliyo	-11.1555
▁okokuthula	-11.1555
ingenasisihla	-11.1555
▁bambhinqa	-11.1555
▁ngikuzele	-11.1555
ihlakazeke	-11.1555
gwala	-11.1555
▁kangifanele	-11.1555
▁nakabili	-11.1555
asemasangweni	-11.1556
ezibhebhe	-11.1556
▁abalindi	-11.1556
cansi	-11.1556
asenyakatho	-11.1556
▁izimvaba	-11.1556
ntshumayelo	-11.1556
▁esingakholwayo	-11.1556
▁nanamuhla	-11.1556
▁ecwebezelayo	-11.1556
▁ukwahlukanisa	-11.1556
▁ngamahubo	-11.1556
lamula	-11.1556
zikhubekiso	-11.1556
dunyazw	-11.1556
lamukelanga	-11.1556
ongasokile	-11.1556
▁uyasizwa	-11.1556
enikucelayo	-11.1556
zambatho	-11.1556
angehli	-11.1556
▁enikwenzayo	-11.1556
▁uphenduke	-11.1556
▁abathengisayo	-11.1556
▁abasindiswayo	-11.1556
▁okomuntu	-11.1556
ishiwe	-11.1556
▁enikholwayo	-11.1556
khathazekile	-11.1556
bulewe	-11.1556
mbumbi	-11.1556
kusithekile	-11.1556
ingazibongi	-11.1556
▁obekuzaku	-11.1556
▁okomhlaba	-11.1556
nkokhiso	-11.1556
sekukholweni	-11.1556
▁kungokwenu	-11.1556
▁udaka	-11.1556
▁usikhulule	-11.1556
▁babonakalis	-11.1556
ngenzani	-11.1556
▁abamesabayo	-11.1556
▁ngezakhe	-11.1556
eBereya	-11.1556
▁ezifundisweni	-11.1556
▁wayengakafiki	-11.1556
▁seziphelile	-11.1556
▁engingaku	-11.1557
ekukhandlekeni	-11.1557
▁naseSamariya	-11.1557
ezinkomo	-11.1557
isiphepho	-11.1557
nidabukisa	-11.1557
▁abaseMakedoniya	-11.1557
▁Ziqaphele	-11.1557
zikhuza	-11.1557
hidliza	-11.1557
▁lwesikhombisa	-11.1557
▁ningethuki	-11.1557
▁ngokwakho	-11.1557
Ber	-11.1557
ingabesabi	-11.1558
▁eyisihlanu	-11.1558
iyakwembathani	-11.1558
hloma	-11.1558
esicebi	-11.1558
▁ukona	-11.1558
hlumelel	-11.1558
idukile	-11.1558
▁unokukholwa	-11.1558
▁iyele	-11.1558
▁elangeni	-11.1558
ngehlazo	-11.1558
▁ngubuthongo	-11.1558
Alf	-11.1558
▁engakholwayo	-11.1558
▁okukuwe	-11.1558
▁alimazanga	-11.1558
▁wathula	-11.1558
▁esishwabeneyo	-11.1558
▁nabakhile	-11.1558
▁owabaphilayo	-11.1558
▁oweqiniso	-11.1558
Zabu	-11.1558
▁ngamasabatha	-11.1558
phindisele	-11.1558
▁nginithandile	-11.1558
▁mamukeleni	-11.1558
okungokwakhe	-11.1559
▁uGa	-11.1559
▁neGomora	-11.1559
▁Kwanqamuka	-11.1559
▁angizuk	-11.1559
▁asenzayo	-11.1559
basendulo	-11.1559
▁akoni	-11.1559
▁ngokomusa	-11.1559
esikhumba	-11.1559
▁5:	-11.1559
▁ukuyohlwanyela	-11.1559
▁ningoni	-11.1559
▁sikaHerode	-11.1559
▁nasinye	-11.1559
▁amthumileyo	-11.1559
▁bokungalaleli	-11.1559
▁ngikugcinile	-11.1559
▁abayisihlanu	-11.156
▁Angisayiku	-11.156
aseKesariya	-11.156
tra	-11.156
omkhathi	-11.156
▁ngenzansi	-11.156
Eyokuqala	-11.156
ungoweNkosi	-11.156
mboziwe	-11.156
▁kungakafiki	-11.156
omlotha	-11.156
▁yomshado	-11.156
ngafisi	-11.156
eyibo	-11.156
▁Yazini	-11.156
▁inikwe	-11.1561
▁Ningadukiswa	-11.1561
▁nangesabatha	-11.1561
Nqu	-11.1561
▁lokuduma	-11.1561
▁ukhokho	-11.1561
▁kokuncinyane	-11.1561
riyu	-11.1561
▁encik	-11.1561
▁akholwayo	-11.1561
▁wokulunga	-11.1561
▁yabakhethiweyo	-11.1561
ingamuki	-11.1562
nyamalala	-11.1562
owawukhona	-11.1562
▁laliseduze	-11.1562
▁linizonda	-11.1562
nesangabe	-11.1562
khululeke	-11.1562
▁nentukuthelo	-11.1562
Eliyakimi	-11.1562
ithunyelw	-11.1562
▁nangamaparele	-11.1562
▁yizink	-11.1562
▁lembongolo	-11.1562
▁ubusika	-11.1562
▁ngokwalo	-11.1562
▁yokushiswa	-11.1562
▁zomthetho	-11.1562
▁ngenjabulo	-11.1562
eyopha	-11.1562
▁nozayo	-11.1563
▁Bethuka	-11.1563
▁okhubekis	-11.1563
qothuka	-11.1563
▁nakwabanye	-11.1563
▁njengokushiwo	-11.1563
luleke	-11.1563
umbel	-11.1563
▁eliseNkosini	-11.1563
njengezingelosi	-11.1563
▁wemvelo	-11.1564
liyu	-11.1564
▁kaMel	-11.1564
ngenzela	-11.1564
▁anibikele	-11.1564
Nayi	-11.1564
▁matshe	-11.1564
▁Uzakuza	-11.1564
▁sempepho	-11.1564
yibone	-11.1564
▁omningi	-11.1564
▁zomuzi	-11.1565
▁wenyuka	-11.1565
▁wabaphangi	-11.1565
▁yakwabo	-11.1565
▁nokungcola	-11.1565
Uyakuya	-11.1565
Nasoni	-11.1565
▁wesaba	-11.1565
▁ngokufushane	-11.1565
▁iliba	-11.1565
okwabanye	-11.1566
▁usefile	-11.1566
nothile	-11.1566
mgona	-11.1566
nambith	-11.1566
▁usufikile	-11.1567
isti	-11.1567
▁ngizakukunika	-11.1567
▁makacele	-11.1567
phumisa	-11.1567
▁bamvukela	-11.1567
▁amatafula	-11.1567
Yimina	-11.1567
▁ozwayo	-11.1567
▁lokulungisela	-11.1568
▁ngolahliwe	-11.1568
▁esebulele	-11.1568
hlanganisiwe	-11.1568
▁okungabonwayo	-11.1569
▁labaprofethi	-11.1569
▁leWundlu	-11.1569
hlunyelelwe	-11.1569
▁leshumi	-11.1569
▁imitshingo	-11.1569
▁zomkhumbi	-11.1569
eMilethu	-11.1569
▁yidemoni	-11.157
thukuthelis	-11.157
▁wawusu	-11.157
suswe	-11.157
▁umntanami	-11.157
lobele	-11.157
▁nomGreki	-11.157
▁zasendle	-11.157
▁asiyikudlula	-11.157
elishonile	-11.1571
▁kwecilongo	-11.1571
hlazisa	-11.1571
▁wenyama	-11.1571
▁lamanje	-11.1571
▁bamqhub	-11.1571
zithibe	-11.1571
kubandezeka	-11.1571
▁okwezwe	-11.1571
▁kwesitsha	-11.1572
▁sekusondele	-11.1572
▁yizingelosi	-11.1572
▁kumbusi	-11.1572
▁lokusindiswa	-11.1572
ntambo	-11.1572
▁awufaka	-11.1572
▁somthetho	-11.1572
phucile	-11.1572
▁wameva	-11.1573
▁nguJosefa	-11.1573
▁izakuvuka	-11.1573
▁yensimbi	-11.1573
▁kokudalwa	-11.1573
▁sesithathu	-11.1573
▁zesithembiso	-11.1574
▁nigxil	-11.1574
▁ezakhe	-11.1574
▁nokuduma	-11.1574
ork	-11.1574
▁eliphilileyo	-11.1574
ngibekezelele	-11.1574
susile	-11.1575
▁nezikhathi	-11.1575
▁Bengin	-11.1575
▁bokubi	-11.1575
▁zokuphulukisa	-11.1575
▁aniqinise	-11.1575
▁zabangcwele	-11.1576
▁engaphuzi	-11.1576
kwabakho	-11.1576
▁womthetho	-11.1576
▁nangeqiniso	-11.1576
▁sengibonile	-11.1576
okunci	-11.1576
▁asithandi	-11.1577
▁neSidoni	-11.1577
▁lwensindiso	-11.1577
▁ekulweni	-11.1577
▁okuqinileyo	-11.1577
guqulwa	-11.1578
▁wokungalungi	-11.1578
anti	-11.1579
▁esiphilileyo	-11.1579
▁sengizwile	-11.1579
▁solwandle	-11.1579
udondolo	-11.1579
▁ngendodana	-11.1579
zikholek	-11.1579
▁inhlam	-11.158
▁zomzimba	-11.158
▁ngiyakuncenga	-11.158
▁ayenakho	-11.158
▁sebebuthene	-11.158
ngamaRoma	-11.1581
▁enesi	-11.1582
▁asilahle	-11.1582
▁yokulahlwa	-11.1582
▁eyayimi	-11.1582
ngelethu	-11.1582
▁izingane	-11.1583
▁somlilo	-11.1583
▁nihawukelwe	-11.1583
▁liyigugu	-11.1583
▁nenxenye	-11.1583
▁ucezu	-11.1583
▁ningamadodana	-11.1583
amagqubu	-11.1583
▁esephumile	-11.1583
▁yobuhlungu	-11.1584
▁kweWundlu	-11.1584
▁umkakho	-11.1585
▁labadala	-11.1585
▁lenkazimulo	-11.1586
▁kumninindlu	-11.1586
▁sithandane	-11.1587
kusuthiswa	-11.1587
▁ababebuthene	-11.1587
▁bakhandw	-11.1587
▁kwegazi	-11.1588
▁samlandela	-11.1588
▁nobuqili	-11.1589
▁wamyeka	-11.1589
▁nezisebenzi	-11.1589
▁wethempeli	-11.159
ewundlu	-11.159
▁nokungasoki	-11.159
▁nomsindo	-11.159
▁uLis	-11.159
▁ngezindawo	-11.159
▁nowesithathu	-11.159
kunzi	-11.1591
qhuzula	-11.1591
▁nguFiliphu	-11.1592
▁yegazi	-11.1592
tusekayo	-11.1592
thetho	-11.1592
nambulala	-11.1593
sokhohlo	-11.1593
▁umthelisi	-11.1593
▁likaBaba	-11.1593
▁zezinhliziyo	-11.1594
▁ukumthuma	-11.1595
▁zokuphila	-11.1595
▁yisiphi	-11.1596
▁kalutho	-11.1596
▁zesivumelwano	-11.1597
▁Lali	-11.1598
▁nombango	-11.1598
▁ngentokozo	-11.1598
▁wababusisa	-11.1598
▁nokudakwa	-11.1598
▁wamphulukisa	-11.1598
▁babesaba	-11.1598
▁nokungcolileyo	-11.1598
▁esenabo	-11.1599
▁nazingelosi	-11.1599
▁yobumnyama	-11.1599
▁kwabesifazane	-11.16
▁wendlu	-11.16
▁nehlelw	-11.16
▁nomlomo	-11.16
▁okungalungile	-11.16
▁sesifikile	-11.1601
▁uzakuphila	-11.1601
sabakho	-11.1601
▁wayegula	-11.1602
▁nebandla	-11.1602
aseThiyathira	-11.1602
giyanincenga	-11.1602
▁ungishiy	-11.1603
▁ububi	-11.1603
▁ngabahlanganyel	-11.1604
amaHeberu	-11.1604
▁zabanye	-11.1604
ngasekho	-11.1605
awokhokho	-11.1605
▁senkazimulo	-11.1605
▁nokulila	-11.1606
▁nezing	-11.1607
▁neWundlu	-11.1607
lingise	-11.1608
▁umphakathi	-11.1608
nasekubekezeleni	-11.1609
▁zezinkulungwane	-11.1609
▁kaLevi	-11.1609
Abayi	-11.161
▁wokudla	-11.161
▁asebe	-11.161
elisiwe	-11.161
▁Wayesevuka	-11.1611
▁ngamaketanga	-11.1611
▁zenziwe	-11.1611
▁ngababili	-11.1612
▁Seli	-11.1613
▁nemvelo	-11.1613
lilethe	-11.1614
mkhulule	-11.1614
▁lwaso	-11.1615
lahleka	-11.1615
▁kathule	-11.1616
▁nakweli	-11.1617
▁silapha	-11.1617
▁kokuphila	-11.1618
nxiba	-11.1618
▁iNd	-11.1618
▁okwabo	-11.1619
▁sabaphostoli	-11.1619
▁elidala	-11.162
▁esafundisa	-11.1621
▁abulawe	-11.1623
bumba	-11.1623
▁neminikelo	-11.1623
qinileyo	-11.1625
delele	-11.1625
delelekile	-11.1626
▁yomunye	-11.1626
▁ibisi	-11.1626
kuyinzuzo	-11.1626
▁wezwi	-11.1628
▁kwesixuku	-11.163
▁kuqal	-11.1631
ngalandeli	-11.1631
▁asebenze	-11.1631
▁nokubhubhisa	-11.1631
aseMakedoniya	-11.1632
ngaluphi	-11.1632
▁zamangala	-11.1633
▁mababe	-11.1633
▁nokulunga	-11.1634
▁yabazalwane	-11.1635
oSila	-11.1636
▁nokujabula	-11.1638
amaRoma	-11.1639
▁engalizwa	-11.164
ngingakuthandiyo	-11.1641
phanyeka	-11.1642
celi	-11.1643
▁nokusoka	-11.1644
▁nganilobela	-11.1644
▁sakini	-11.1645
▁ziqinisile	-11.1647
▁nokusindiswa	-11.1649
▁engakuzwa	-11.1649
ngelutho	-11.165
bethemba	-11.165
lithukulula	-11.165
okwenyama	-11.1651
▁wababusi	-11.1651
avuke	-11.1652
nhlokomo	-11.1657
nguyebo	-11.1657
▁angeze	-11.1657
▁Wavuka	-11.1661
▁komhlabathi	-11.1664
khawuleze	-11.1664
kungaziwa	-11.1672
iqale	-11.1676
Ningahluleli	-11.1681
zul	-11.1681
▁yokuqala	-11.1683
▁usen	-11.1684
angcweliswa	-11.1684
mlandele	-11.1686
▁ngiseza	-11.1689
humula	-11.1691
ngumzalwane	-11.1692
▁niyakwenza	-11.1692
▁abahlek	-11.1693
ubuwula	-11.1698
nqatshelw	-11.1699
yizinto	-11.1699
▁esinges	-11.1713
ngilethe	-11.1715
wasithanda	-11.1718
▁ngihambe	-11.1718
abangcwelisiweyo	-11.1726
singakafiki	-11.1728
inzi	-11.1731
▁esitha	-11.1732
Jer	-11.1736
vunwa	-11.1737
fafaz	-11.1739
▁ukuphan	-11.1745
zibulala	-11.1745
▁nembath	-11.1746
ngukubhujiswa	-11.175
▁ifundw	-11.1751
▁zabuye	-11.1753
kukhokha	-11.1756
cwadini	-11.1763
kwesibani	-11.1765
▁zenze	-11.1769
abaleleyo	-11.1771
▁kungok	-11.1773
ngubuwula	-11.1773
▁owanibiz	-11.1783
niphendulan	-11.1784
bambisise	-11.1784
zisola	-11.1785
ukulungisiswa	-11.1788
onakele	-11.1798
okuhlengwa	-11.1799
▁esingaba	-11.1803
siyibulale	-11.1804
ezizindlo	-11.181
▁zibal	-11.1813
▁anifund	-11.1832
▁akhubek	-11.1836
asizakala	-11.1838
ivuke	-11.1841
inkezo	-11.1843
▁inesi	-11.187
ibopho	-11.1872
bavalel	-11.1875
angizonda	-11.1885
okokufa	-11.1887
▁nges	-11.1889
▁ezazin	-11.1889
▁bakhuphu	-11.1902
efe	-11.1904
zondelel	-11.1909
▁uyakuphil	-11.1911
zakwenyuk	-11.1913
okubekezela	-11.1921
emhlabathini	-11.1922
Ngathi	-11.1925
abasokile	-11.1927
enzelwe	-11.1939
zihlambulule	-11.1943
sesendleleni	-11.1949
ngithandile	-11.195
eyodwa	-11.195
izukulwane	-11.1953
yekile	-11.1954
ngikuMoya	-11.1958
sengozini	-11.1961
ifihlakele	-11.1964
funeka	-11.1965
ngokwesithathu	-11.1971
yizikhulu	-11.1972
▁zinezi	-11.1976
▁nomka	-11.1977
▁behlis	-11.1991
Ngitshele	-11.1992
lotshelwa	-11.2002
eyesibili	-11.2008
LO	-11.2013
endlala	-11.2016
▁nesiphi	-11.2032
▁senginitshel	-11.2041
fanekiso	-11.2043
▁uzakub	-11.2054
kayihlo	-11.2075
umphostoli	-11.2088
▁zidl	-11.2091
akufunayo	-11.2094
bamangalel	-11.2107
wabasokayo	-11.211
dilizile	-11.2112
abakushoyo	-11.2123
▁engiwuphiwe	-11.2127
kutshela	-11.213
eshi	-11.2135
▁ekon	-11.2144
Nizindl	-11.2145
zahlulela	-11.2146
▁akwenziw	-11.2162
nodumo	-11.2164
Ark	-11.2168
nc	-11.2171
wedwa	-11.2179
mlindele	-11.2198
ikhathaza	-11.2205
noSolomoni	-11.2208
dosi	-11.2217
▁abazuz	-11.2223
ngabuyel	-11.223
▁nikhale	-11.2246
▁ufakaze	-11.2249
▁Akuthe	-11.2274
sabo	-11.2283
▁usilahl	-11.2296
zithathel	-11.2302
thombeni	-11.2323
odlayo	-11.2329
▁abameny	-11.2334
ziphingi	-11.234
camel	-11.2349
▁ukuphenduk	-11.2355
ngokucindezelwa	-11.2372
ngembathis	-11.2383
bandulela	-11.239
ibongi	-11.2396
kwamukele	-11.2398
linjengel	-11.2406
yitholile	-11.2412
▁ngikulobel	-11.2421
njabulo	-11.2439
▁ogan	-11.2444
ngenamanzi	-11.2458
yizitha	-11.2461
sandulela	-11.2462
esikuzwileyo	-11.2463
ngabahlobo	-11.2466
yakudla	-11.2474
ngonyawo	-11.2479
kungasizi	-11.2487
ngathokozi	-11.2501
ukuthethelelwa	-11.2509
▁engizakuku	-11.2527
obubi	-11.2539
uyebo	-11.2549
Asazi	-11.2554
esilwane	-11.2563
▁ngokweq	-11.2571
nzuzo	-11.2581
Nenz	-11.2583
mbuyise	-11.2594
▁bengahla	-11.2608
thukulu	-11.2617
Nguyena	-11.262
▁nezink	-11.2628
yisitha	-11.263
▁bamukelisw	-11.2633
▁samukelisw	-11.2639
mbong	-11.2642
kaPetru	-11.2651
Ok	-11.2659
▁Math	-11.2665
▁bahlulelw	-11.268
▁owezw	-11.2703
▁yehlel	-11.271
yakukhubeka	-11.2718
shunyayelw	-11.2724
▁ozithob	-11.2726
Okhokh	-11.2727
▁Wenz	-11.274
esiHeberu	-11.2784
buqotho	-11.2876
mbonisi	-11.288
mzonda	-11.2895
▁ukuyiph	-11.2906
ejaspi	-11.2929
baphendule	-11.2966
vivinyw	-11.2978
iyakumiswa	-11.2996
zungezi	-11.302
ayekhona	-11.3024
kukhanyisa	-11.3046
▁nginibhapathiz	-11.3054
yigazi	-11.3062
phakamis	-11.3067
Ngiyamazi	-11.3103
nethuba	-11.3103
bafaka	-11.3117
zithobe	-11.3129
songel	-11.3133
zakuqala	-11.3133
kombusi	-11.3145
▁ngikukhulum	-11.3146
azeke	-11.3176
ethabe	-11.3183
gweme	-11.3234
▁ababemlandel	-11.3238
▁bal	-11.3239
▁ubambe	-11.3257
mbingelela	-11.3281
ngobu	-11.3284
hawukelwa	-11.3289
amabutho	-11.3294
▁owehl	-11.3295
thunzi	-11.3321
kufafaz	-11.336
hahayo	-11.3364
▁onezi	-11.3366
▁nginibon	-11.3373
ziyiziwula	-11.3378
silwi	-11.3379
ngekwenze	-11.3398
wahlukanisi	-11.3406
▁nokub	-11.3407
yisithunzi	-11.3418
▁wabuz	-11.3425
siboshwa	-11.3434
▁ngimangalelw	-11.3444
phelekezelw	-11.3447
Yipha	-11.3479
▁bakuzw	-11.3485
eliseduze	-11.352
yingini	-11.3525
zamatshe	-11.3535
nginilobela	-11.3585
▁emahl	-11.3622
alithenga	-11.3637
thathwe	-11.3641
▁emazw	-11.365
buphathi	-11.367
▁nezimv	-11.369
▁ngehlel	-11.3692
▁Sekudlul	-11.3718
▁lwand	-11.3775
Yazi	-11.3781
yikuthethelelwa	-11.3796
nothando	-11.3811
yakulungisiswa	-11.3818
yakubusiswa	-11.3837
kunisiza	-11.3848
▁epheth	-11.3864
akuyeka	-11.3866
yidli	-11.3887
saphila	-11.389
wabafileyo	-11.3903
guquk	-11.395
▁nesiphuz	-11.3957
▁asamuke	-11.4028
▁nizakuf	-11.4042
wabantu	-11.4045
▁bazibek	-11.4071
ngenazithelo	-11.4074
▁ukuphang	-11.4099
baqhweba	-11.4115
abayizimpumputhe	-11.4132
seNkosini	-11.4174
xaban	-11.4175
kuyiqiniso	-11.419
ingabahlanganyel	-11.4208
▁bamkhaphel	-11.4233
aphad	-11.4236
abalungileyo	-11.4236
zwil	-11.4258
zinsukw	-11.4276
gwemel	-11.4298
nesithembiso	-11.433
▁bangikhonz	-11.435
ngalotshwa	-11.4354
ifane	-11.436
ekezelani	-11.4449
▁esikhwe	-11.4459
alusi	-11.4461
▁ekubu	-11.4475
xwayis	-11.449
bacebe	-11.4553
Roma	-11.4584
kuvivinyw	-11.4588
▁ajabhis	-11.4614
▁engashiy	-11.4624
kuklebhu	-11.4633
atheng	-11.4699
sesifub	-11.4717
Kungab	-11.4733
iphakamise	-11.479
▁ngokwambul	-11.4803
ibonise	-11.4804
ngukuqala	-11.4862
zibon	-11.4897
▁kubalind	-11.4923
ngathinti	-11.4929
sebenzisan	-11.4935
kubafundi	-11.4947
eminikelo	-11.4962
iyakufumana	-11.4974
kumiswa	-11.5022
▁owamukel	-11.503
amiswa	-11.5056
vumelwano	-11.5085
ibilis	-11.5102
ninazala	-11.5128
nkanyezi	-11.5129
krist	-11.5151
ekileyo	-11.5208
ganiwe	-11.5215
ngembathi	-11.5222
hlotsh	-11.5225
ufezile	-11.5237
▁abapheth	-11.5246
kungukuthi	-11.5304
kuvuke	-11.5307
▁kunezin	-11.5332
zethusi	-11.5334
▁nasezint	-11.5367
efu	-11.5383
▁nenhl	-11.5386
kubuyiselw	-11.539
▁esebuy	-11.5416
▁ahlushw	-11.5421
mlinga	-11.5465
▁onginik	-11.5471
alingcwelis	-11.5502
▁ukwenzel	-11.5502
▁nihlo	-11.551
▁ukwambul	-11.5512
sesitha	-11.5516
zenzekile	-11.5538
ngabulali	-11.5539
Nikan	-11.5548
omvuzo	-11.5618
Niyakungi	-11.5639
▁esenziw	-11.5649
haqile	-11.5676
nqola	-11.5686
kulinganis	-11.5691
kumbelwa	-11.5725
aniphe	-11.5732
▁nimangale	-11.5738
qili	-11.574
cabang	-11.5748
▁ezinjan	-11.5753
kuthukuthele	-11.5775
kwahlukanis	-11.5784
mphuzisa	-11.5816
andla	-11.5821
▁wayehlez	-11.5823
▁ngokungaphez	-11.5843
ezinyembezi	-11.585
▁balenz	-11.5852
kujwayela	-11.5871
basola	-11.5922
tshelek	-11.5947
yakwehlis	-11.5949
▁nangok	-11.5951
▁bevum	-11.5961
iphilile	-11.597
unyiswa	-11.5971
▁wabakhiph	-11.5973
ezikhathi	-11.5995
emithi	-11.6032
uphumayo	-11.6041
umqambimanga	-11.6056
thobise	-11.6057
nikhumbul	-11.6058
wenezela	-11.6059
▁kwenzelw	-11.6061
amcindezela	-11.6067
wahlukanisel	-11.6099
izigidi	-11.6112
mbhubhis	-11.6141
zindlo	-11.6147
jezise	-11.6149
▁abathobe	-11.6168
▁yambul	-11.6189
▁akusayi	-11.6197
uKesari	-11.6202
ongwe	-11.6202
esithombe	-11.6211
hambo	-11.6211
▁bamfuman	-11.6218
wahlukana	-11.622
zakuyinqum	-11.6228
zilandulela	-11.6248
parele	-11.6259
▁kuyakwen	-11.6259
thonjeni	-11.6272
iqhingi	-11.6285
nilobel	-11.6289
azelwa	-11.6294
lenzayo	-11.6297
▁elingaka	-11.6314
phum	-11.6325
Ngino	-11.6328
▁okunguku	-11.633
oDavide	-11.6333
▁awunaku	-11.6346
mphindisel	-11.6355
egcekeni	-11.636
eGalile	-11.6361
njengami	-11.6361
yilokho	-11.6366
nomfazi	-11.6366
nokuqonda	-11.6368
Iskariyothe	-11.6369
esixukwini	-11.6372
gasemuva	-11.6372
ekukhanyeni	-11.6373
amazinyo	-11.6373
Njalo	-11.6374
▁singasindi	-11.6375
Maka	-11.6375
kubantu	-11.6377
kwahlukan	-11.6379
akungenisa	-11.638
umvuzo	-11.6382
nomthetho	-11.6387
▁nokwen	-11.6392
▁inhloko	-11.6394
abakaKristu	-11.6394
Gab	-11.6398
▁iphele	-11.6402
ejwayele	-11.6405
ezivumelwan	-11.6419
kwenyuka	-11.642
hlosa	-11.6424
Ngales	-11.643
mninindlu	-11.6431
xosh	-11.6433
hlanu	-11.6433
liqinile	-11.6434
alandeli	-11.6436
zibula	-11.6442
bengabakho	-11.6445
bajezis	-11.6445
ubonakalis	-11.6456
yivus	-11.6457
eKhilikhiya	-11.6458
amahloni	-11.6458
▁eSir	-11.6458
inxib	-11.646
nezihl	-11.646
▁ikhazimulis	-11.6461
wenzi	-11.6462
buthongo	-11.6467
ncekwini	-11.6469
ekubekezeleni	-11.6471
hlupho	-11.6471
viniga	-11.6471
yalisis	-11.6471
bumpof	-11.6472
▁ngith	-11.6474
agawu	-11.6477
embathis	-11.6479
ishiyele	-11.6481
aseLawodikeya	-11.6481
mathuneni	-11.6482
colisa	-11.6482
kuhambeni	-11.6484
zamazam	-11.6486
Kapernawume	-11.6486
lobile	-11.6489
▁kungenzek	-11.6491
Thokoza	-11.6496
sihlalweni	-11.6497
▁sinezi	-11.6505
ngcola	-11.6507
ngcolile	-11.6509
ngamangali	-11.6514
▁ngingenz	-11.6515
▁umun	-11.6518
ombhapathizo	-11.6519
dondo	-11.652
▁yezifun	-11.652
bokusoka	-11.652
▁sibonakal	-11.6521
gxil	-11.6525
hawukelwe	-11.6525
endodana	-11.6526
yaluyalu	-11.6527
funyaniswa	-11.6527
mGreki	-11.6527
phonsi	-11.6535
semnyango	-11.6538
▁kwezint	-11.6541
▁ukwesa	-11.6541
▁ikhwel	-11.6541
fushane	-11.6542
iphilisile	-11.6543
tombazana	-11.6544
Belzebule	-11.6547
nzansi	-11.6547
▁ongowase	-11.6549
asambathek	-11.655
▁esebeke	-11.6551
kwembatha	-11.6551
ijabhis	-11.6551
okungabhubhi	-11.6551
▁kaJa	-11.6552
▁ningethu	-11.6552
okuqalekis	-11.6553
usihlwa	-11.6553
ifundisweni	-11.6553
▁noJu	-11.6553
proselite	-11.6554
iduduzw	-11.6554
hubo	-11.6554
mbhinq	-11.6554
▁enemi	-11.6555
sishwabene	-11.6555
inokukholwa	-11.6555
genk	-11.6555
Tiberiy	-11.6555
▁naseKh	-11.6555
lixuba	-11.6555
▁ELIK	-11.6555
▁noPha	-11.6555
▁yikriso	-11.6555
Legiyona	-11.6555
Nikhathazekel	-11.6555
▁kaSala	-11.6555
▁usamkhathaz	-11.6555
'	-11.6555
0	-11.6555
5:3	-11.6555
8:1	-11.6555
Abiyudi	-11.6555
BUSI	-11.6555
Eleyazare	-11.6555
Eliyudi	-11.6555
Ephafrodithu	-11.6555
Gamaliyeli	-11.6555
Jabulani	-11.6555
Jupitheri	-11.6555
Kenikreya	-11.6555
Khanda	-11.6555
Khawuleza	-11.6555
Kleyophase	-11.6555
Likawoniya	-11.6555
NKULU	-11.6555
Onesiforu	-11.6555
Onesimu	-11.6555
Phaphama	-11.6555
Phubiliyu	-11.6555
Qinis	-11.6555
Rufu	-11.6555
abafulathela	-11.6555
amaphikankani	-11.6555
amgcobe	-11.6555
aseFiladelfiya	-11.6555
asePhergamu	-11.6555
aseSmirna	-11.6555
azindlisa	-11.6555
baseFilipi	-11.6555
bunjengelanga	-11.6555
buntwaneni	-11.6555
cakiweyo	-11.6555
chachis	-11.6555
droni	-11.6555
eDalma	-11.6555
eNdodaneni	-11.6555
emfanelo	-11.6555
emihumeni	-11.6555
ezibubende	-11.6555
fanekisa	-11.6555
fuzula	-11.6555
goxi	-11.6555
gwegwe	-11.6555
hiyakinte	-11.6555
hlonyane	-11.6555
iklolodel	-11.6555
ikukhazimulis	-11.6555
ingagudluz	-11.6555
ishaywe	-11.6555
khwifa	-11.6555
mbunganyel	-11.6555
mhlohloloza	-11.6555
namaqabunga	-11.6555
nangezihlabelelo	-11.6555
nanhloni	-11.6555
nconyw	-11.6555
ndwangwini	-11.6555
ngahloniphekiyo	-11.6555
ngenhlanzeko	-11.6555
ngesiGreki	-11.6555
ngolokulungisela	-11.6555
niphephisa	-11.6555
nqunyiwe	-11.6555
okunganqamukiyo	-11.6555
okungayikuhlaluk	-11.6555
omnewabo	-11.6555
onhliziyombili	-11.6555
phatru	-11.6555
qembu	-11.6555
sebuhlungwini	-11.6555
senhliziyweni	-11.6555
shikashikeka	-11.6555
simaragidu	-11.6555
uHagari	-11.6555
ukukhazimula	-11.6555
vivinyek	-11.6555
wuyithokozelanga	-11.6555
xhwangu	-11.6555
zidlova	-11.6555
zigidigidi	-11.6555
▁12:	-11.6555
▁13:	-11.6555
▁Bamqaphela	-11.6555
▁Filipi	-11.6555
▁Phaka	-11.6555
▁Sebawoti	-11.6555
▁Sezimukile	-11.6555
▁Theyofilu	-11.6555
▁Zibonele	-11.6555
▁abadanileyo	-11.6555
▁abanezifo	-11.6555
▁ahung	-11.6555
▁amaphuph	-11.6555
▁anangibamba	-11.6555
▁bahlakazeka	-11.6555
▁bangahlambalazi	-11.6555
▁bangamzwakalisi	-11.6555
▁eHarana	-11.6555
▁ePhafu	-11.6555
▁eThesalonika	-11.6555
▁ekujuleni	-11.6555
▁ekuthunjweni	-11.6555
▁elendlelweyo	-11.6555
▁ematilongweni	-11.6555
▁emixhakeni	-11.6555
▁enomkhuhlane	-11.6555
▁entshonalanga	-11.6555
▁esikhamweni	-11.6555
▁esundu	-11.6555
▁eyemiNqumo	-11.6555
▁ezingeziningi	-11.6555
▁iGetsemane	-11.6555
▁iJordani	-11.6555
▁ifohlwe	-11.6555
▁igcwale	-11.6555
▁indumiso	-11.6555
▁isifonyo	-11.6555
▁itestamente	-11.6555
▁izinkonzo	-11.6555
▁kalufifi	-11.6555
▁kuThithu	-11.6555
▁kugcwale	-11.6555
▁kumaGreki	-11.6555
▁kunoJo	-11.6555
▁kwesihenqo	-11.6555
▁laseJordani	-11.6555
▁libhejile	-11.6555
▁lobuzalwane	-11.6555
▁mabaganane	-11.6555
▁mahluko	-11.6555
▁nakokukhulu	-11.6555
▁nakumaGreki	-11.6555
▁nantathu	-11.6555
▁nasekushayweni	-11.6555
▁naseqinisweni	-11.6555
▁nasothandweni	-11.6555
▁nenkululeko	-11.6555
▁nezigqila	-11.6555
▁ngePhasika	-11.6555
▁ngendluzula	-11.6555
▁ngetomu	-11.6555
▁ngokukhazimula	-11.6555
▁ngokuzithandela	-11.6555
▁ngubuhlungu	-11.6555
▁nikhathazeke	-11.6555
▁noDema	-11.6555
▁noJowana	-11.6555
▁noSalome	-11.6555
▁nokaJakobe	-11.6555
▁okubekelwa	-11.6555
▁okufihlakeleyo	-11.6555
▁owethembisayo	-11.6555
▁oyisicebi	-11.6555
▁uBarsaba	-11.6555
▁uHezekiya	-11.6555
▁uJoramu	-11.6555
▁uJosafati	-11.6555
▁uJothamu	-11.6555
▁uMikayeli	-11.6555
▁uRobowamu	-11.6555
▁uSadoki	-11.6555
▁uSalimoni	-11.6555
▁uTertulu	-11.6555
▁ukwelakanyiswa	-11.6555
▁ukwenanana	-11.6555
▁umbhoshongo	-11.6555
▁uyakuphohlozwa	-11.6555
▁uyazondla	-11.6555
▁uzakuthotshiswa	-11.6555
▁wamhlukumeza	-11.6555
▁waseTarsu	-11.6555
▁wayisingatha	-11.6555
▁wePhasika	-11.6555
▁wenkululeko	-11.6555
▁yamaHubo	-11.6555
▁yelashwa	-11.6555
▁yelekelela	-11.6555
▁zesivini	-11.6555
▁inhlabathi	-11.6555
▁singabeqiniso	-11.6555
Anginandoda	-11.6555
Ewufrathe	-11.6555
Eziyisikhombisa	-11.6555
Kuvele	-11.6555
Profetha	-11.6555
abangabongiyo	-11.6555
angomhlomunye	-11.6555
aziqheny	-11.6555
azulazul	-11.6555
bambezelayo	-11.6555
cwilis	-11.6555
enalamukelayo	-11.6555
ingasindwa	-11.6555
kusekuseni	-11.6555
legiyona	-11.6555
ngasilandeli	-11.6555
sardiyu	-11.6555
yathanjiswa	-11.6555
▁Funa	-11.6555
▁Olubomvu	-11.6555
▁azizuzel	-11.6555
▁bajabh	-11.6555
▁bayilimaza	-11.6555
▁bengavuki	-11.6555
▁eSikemi	-11.6555
▁ekuphendukeni	-11.6555
▁esihlathini	-11.6555
▁jonga	-11.6555
▁kusemnyama	-11.6555
▁livuliwe	-11.6555
▁mbambeni	-11.6555
▁ngenduku	-11.6555
▁ngummemezeli	-11.6555
▁niqiniswe	-11.6555
▁njengokomthetho	-11.6555
▁noLukiyu	-11.6555
▁okwangehlela	-11.6555
▁sokubukela	-11.6555
▁uJesayi	-11.6555
▁wamsukumisa	-11.6555
▁zokomoya	-11.6555
Agabu	-11.6555
Azori	-11.6555
Ngiphuzise	-11.6555
khanuke	-11.6555
kuhlanzeka	-11.6555
mikhunjan	-11.6555
mncoma	-11.6555
okuthengelana	-11.6555
yakusihlangulisa	-11.6555
▁abaniholayo	-11.6555
▁angizizelanga	-11.6555
▁awuluboni	-11.6555
▁bazakuyibulala	-11.6555
▁engumkabo	-11.6555
▁ezingenamalusi	-11.6555
▁kabanampande	-11.6555
▁nasesihibeni	-11.6555
▁ngokuzuma	-11.6555
▁uMathani	-11.6555
▁uMesiya	-11.6555
▁zezifuba	-11.6555
ekuzingelweni	-11.6555
ekwesabeni	-11.6555
mmemile	-11.6555
nomPr	-11.6555
siqwash	-11.6555
▁luthungel	-11.6555
▁nenduku	-11.6555
ebufebeni	-11.6555
▁uJosiya	-11.6555
Antipa	-11.6555
abakhapheli	-11.6555
goqonga	-11.6555
hlakaniphe	-11.6555
ifudum	-11.6555
mklomel	-11.6555
ngaxegi	-11.6555
▁ekuhlakanipheni	-11.6555
▁ezilimaza	-11.6555
▁sebemmise	-11.6555
▁sesihambile	-11.6555
finyezwa	-11.6555
▁engagubuzele	-11.6555
▁isikhulile	-11.6555
▁ngokoMoya	-11.6555
▁ngomnyaka	-11.6555
AMA	-11.6555
Buyisela	-11.6555
mbophile	-11.6555
ncishwa	-11.6555
ngaganile	-11.6555
okubuyisana	-11.6555
phuthuma	-11.6555
thambisa	-11.6555
▁Zona	-11.6555
▁abonakale	-11.6555
▁engumfelokazi	-11.6555
▁ezingenamvubelo	-11.6555
▁ndwangu	-11.6555
▁nisilingise	-11.6555
▁ntathu	-11.6555
dalulwa	-11.6555
lwaseTiberiya	-11.6555
oTrif	-11.6555
▁Nakalokhu	-11.6555
▁enhlo	-11.6555
▁esifazaneni	-11.6555
▁lomyeni	-11.6555
▁selufikile	-11.6555
▁ukuphambuk	-11.6555
▁yesikhombisa	-11.6555
bunjiweyo	-11.6555
xube	-11.6555
▁Akayiku	-11.6555
▁iphoyisa	-11.6555
▁kongithumileyo	-11.6555
▁ningesindiswe	-11.6555
▁ukwehlis	-11.6555
▁ababufumananga	-11.6555
▁awayiku	-11.6555
bilahlekile	-11.6555
kapheleli	-11.6555
thakatha	-11.6555
▁engikwenzileyo	-11.6555
▁eningamaziyo	-11.6555
▁etshanini	-11.6555
▁neseWundlu	-11.6555
▁noFile	-11.6555
▁yezihambi	-11.6555
▁mabili	-11.6555
▁sebengenile	-11.6555
asekubandezekeni	-11.6555
ngeqisi	-11.6555
oKayini	-11.6555
phelelisa	-11.6555
▁asizu	-11.6555
ngiphiki	-11.6555
shuliwe	-11.6555
▁ngokwabaJuda	-11.6555
kuhlatshwe	-11.6555
▁anamukeliswa	-11.6555
▁neSalim	-11.6555
▁ngongithumileyo	-11.6555
sonakalisa	-11.6555
▁nenhlaka	-11.6555
Asafa	-11.6555
owesikhombisa	-11.6555
▁ekukhonzeni	-11.6555
▁emiphakathini	-11.6555
▁oyisim	-11.6555
Msuseni	-11.6555
aphambuka	-11.6555
▁ngodaka	-11.6555
▁sebelizwile	-11.6555
kukhunjul	-11.6555
▁babonakale	-11.6555
▁embhapathizweni	-11.6555
▁kwelaseGalile	-11.6555
▁yotshani	-11.6555
nilangazelele	-11.6555
khwic	-11.6555
▁kwekamu	-11.6555
▁ukungibamba	-11.6555
khokhelwayo	-11.6555
mphahlile	-11.6555
▁izelelesi	-11.6555
nyukumal	-11.6555
▁nakusasa	-11.6555
▁kwaphezulu	-11.6555
▁akambonanga	-11.6555
▁wayesebabiza	-11.6555
tholakala	-11.6555
▁Iyakuyi	-11.6555
▁bajeziswe	-11.6555
▁nowesaba	-11.6555
ngenakuv	-11.6555
nyakenye	-11.6555
▁nithobelane	-11.6555
enkolo	-11.6556
sidebesel	-11.6556
▁ongenacala	-11.6556
▁Wehla	-11.6556
awodadew	-11.6556
uJuliyu	-11.6556
▁okomthetho	-11.6556
luleki	-11.6556
▁ithongo	-11.6556
▁kuging	-11.6556
qhinga	-11.6556
▁ukusongela	-11.6556
▁ngasemfuleni	-11.6556
Adr	-11.6556
hlanzwa	-11.6556
ngamlahli	-11.6556
nyamalale	-11.6556
▁abakuthandayo	-11.6556
▁walulama	-11.6556
▁yanulek	-11.6556
▁Ngiyaniyala	-11.6556
▁okuvamileyo	-11.6556
▁kuFaro	-11.6556
Oziya	-11.6556
ngabuniyo	-11.6556
▁aphenduke	-11.6556
▁sebafa	-11.6556
▁ziziningi	-11.6556
▁asonanga	-11.6556
▁ohlakeni	-11.6556
▁ukulingana	-11.6556
neziphathimandla	-11.6556
▁elikuNkulunkulu	-11.6556
▁sono	-11.6556
ibuzisis	-11.6556
jivaz	-11.6556
▁ebesiz	-11.6556
▁ngezintambo	-11.6556
▁okudukisayo	-11.6556
kaKlawudiyu	-11.6556
▁kwabezwayo	-11.6556
gizakukukhokhela	-11.6556
▁bengakahla	-11.6556
▁ilibele	-11.6556
▁sezizakuphel	-11.6556
▁asisekho	-11.6556
▁yowoni	-11.6556
abakhulileyo	-11.6556
▁abelethe	-11.6556
ligingqiwe	-11.6556
▁bayibeke	-11.6556
ndizayo	-11.6556
▁engafanga	-11.6556
ekhakhasi	-11.6556
Kwenzelw	-11.6556
ngasabonakali	-11.6556
▁lwePhentekoste	-11.6556
▁ugcwaliseke	-11.6556
ngayikunamukela	-11.6556
ningalahli	-11.6556
yamukeleka	-11.6556
Amoni	-11.6556
wasisindisa	-11.6556
sihogo	-11.6556
▁ongabazayo	-11.6556
▁bekamela	-11.6556
▁esiphendukayo	-11.6556
▁ukungafi	-11.6556
jazi	-11.6556
sePontu	-11.6556
▁akuyalayo	-11.6556
▁evulekileyo	-11.6556
▁nezemithi	-11.6556
▁nsimu	-11.6556
baphathimuzi	-11.6556
▁abakwenzileyo	-11.6556
▁ukukubulala	-11.6556
omahlulelayo	-11.6556
unjini	-11.6556
▁esinama	-11.6556
kungayikwambulwa	-11.6556
▁abamuzwayo	-11.6556
▁ngezilingo	-11.6556
▁azalwe	-11.6556
▁ngokuphindiwe	-11.6557
▁ngezigaba	-11.6557
▁niyakudlani	-11.6557
welasempumalanga	-11.6557
aseTr	-11.6557
▁ehhashini	-11.6557
▁abangalaleliyo	-11.6557
▁ukhuze	-11.6557
▁bukaKristu	-11.6557
ngamac	-11.6557
▁noSos	-11.6557
▁namaproselite	-11.6557
▁ningahlulelwa	-11.6557
heshe	-11.6557
▁lemini	-11.6557
ahlolwe	-11.6557
mbekephi	-11.6557
▁balamukela	-11.6557
▁nabanesi	-11.6557
Nangu	-11.6557
abambulalayo	-11.6557
▁ngizakuthini	-11.6557
▁ongumfelokazi	-11.6557
▁Kangi	-11.6557
geziwe	-11.6557
sitheke	-11.6557
siqalekiso	-11.6557
Benginga	-11.6557
▁mlandeleni	-11.6557
mgomo	-11.6557
▁ubunile	-11.6557
eyesithathu	-11.6557
▁bebabiza	-11.6557
ngasenhla	-11.6557
bafo	-11.6557
wabasokileyo	-11.6557
▁ngingumvini	-11.6557
kuchithakala	-11.6557
▁nanko	-11.6557
Lalelani	-11.6558
▁ngokunyenya	-11.6558
▁wezingane	-11.6558
ngenasici	-11.6558
▁njengomkh	-11.6558
ngakasekelwa	-11.6558
▁wazama	-11.6558
phumisela	-11.6558
ngasifumani	-11.6558
▁kungekubantu	-11.6558
kuvimbe	-11.6558
osewafa	-11.6558
▁mubi	-11.6558
▁sibanqobe	-11.6558
▁onikhohlisa	-11.6558
Siyakuwu	-11.6558
▁misebenzi	-11.6558
feziwe	-11.6558
zifinyez	-11.6558
yikhuza	-11.6558
▁nakwabafileyo	-11.6558
▁endlebeni	-11.6558
▁alwenz	-11.6558
engimkhonzayo	-11.6558
▁abahluphekayo	-11.6558
lokuzalana	-11.6558
ngakufumani	-11.6558
▁baxokozel	-11.6558
▁obekuzakuphela	-11.6558
For	-11.6558
kaLoti	-11.6558
abaqambimanga	-11.6558
▁aqhe	-11.6558
Lidiya	-11.6558
▁ngingokaPawulu	-11.6558
abayimangalelayo	-11.6558
▁nowabezizwe	-11.6559
▁zomhlambi	-11.6559
8	-13.712
C	-13.7121
3	-13.7122
X	-13.7123
V	-13.7124
Q	-13.7125
—	-13.7126
‘	-13.7127
v	-13.7128
“	-13.7129
y	-13.713
b	-13.7131
h	-13.7132
