<pad>	0
</s>	0
<unk>	0
▁के	-3.65408
▁है	-3.83416
।	-3.97563
,	-4.00997
▁और	-4.04782
▁में	-4.06383
▁की	-4.21498
▁से	-4.4223
▁को	-4.51839
▁का	-4.60523
)	-4.69339
▁(	-4.76088
▁	-4.77359
ों	-4.89268
.	-4.93953
-	-5.00404
▁हैं	-5.0147
▁कि	-5.04817
▁पर	-5.05465
ी	-5.0783
▁एक	-5.16018
▁लिए	-5.17623
▁तो	-5.3146
▁नहीं	-5.3352
▁जो	-5.36988
▁भी	-5.44648
▁हो	-5.47109
न	-5.48603
क	-5.50137
▁ने	-5.57484
▁कर	-5.59868
▁किया	-5.61973
ा	-5.65156
▁यह	-5.66154
▁ही	-5.66801
ता	-5.71413
▁इस	-5.72026
▁न	-5.72907
▁या	-5.76892
र	-5.7737
ल	-5.79793
▁वह	-5.80604
▁करने	-5.83971
े	-5.89743
म	-5.9783
त	-6.02197
▁अपने	-6.02245
ना	-6.03095
▁था	-6.04167
ने	-6.05384
स	-6.0916
▁वे	-6.15856
▁तुम	-6.168
▁गया	-6.19278
ं	-6.2096
▁तथा	-6.22733
▁कुछ	-6.23764
à	-6.25942
▁किसी	-6.27293
▁हम	-6.28836
▁साथ	-6.32155
ित	-6.36781
▁रूप	-6.37416
▁कोई	-6.37678
▁अ	-6.40926
▁उनके	-6.41081
▁आ	-6.41225
व	-6.42202
▁थे	-6.42977
द	-6.44161
▁द्वारा	-6.44197
ो	-6.46352
ट	-6.47626
▁जा	-6.48576
▁करते	-6.48893
▁जब	-6.49113
▁लोग	-6.49322
▁लोगों	-6.5082
▁दिया	-6.51639
ब	-6.5207
▁भारत	-6.54746
ते	-6.55288
▁तक	-6.56255
प	-6.5696
▁फिर	-6.59925
▁ये	-6.62636
य	-6.63159
▁करें	-6.64721
▁जाता	-6.65696
▁कहा	-6.6605
/	-6.66608
▁उसके	-6.67435
्	-6.67804
▁क्या	-6.68132
कर	-6.68766
▁"	-6.69453
ियों	-6.69924
▁अल्लाह	-6.70708
▁उस	-6.71055
ज	-6.71097
▁करना	-6.71153
ह	-6.7265
▁ख़ुदा	-6.7283
▁अपनी	-6.73306
ला	-6.74289
रा	-6.75474
?	-6.75999
ि	-6.76013
▁रहे	-6.76056
श	-6.78318
▁हुए	-6.78965
▁आप	-6.79458
ग	-6.81489
▁मैं	-6.82073
▁उन्हें	-6.82081
▁करता	-6.83161
▁उन	-6.83727
▁होता	-6.85201
ः	-6.86471
ें	-6.8656
▁रहा	-6.87088
▁थी	-6.87688
ओं	-6.88014
▁सकता	-6.88178
▁दो	-6.88668
▁उसे	-6.89109
या	-6.89922
¤	-6.89958
ए	-6.91094
;	-6.92192
ण	-6.93735
▁बहुत	-6.94176
▁समय	-6.94807
▁स	-6.98006
्य	-6.98608
▁व	-6.99699
िक	-6.99798
▁कार्य	-7.00027
ड	-7.01784
ती	-7.02303
▁बात	-7.03376
▁बाद	-7.04275
▁तरह	-7.04801
री	-7.04863
▁अधिक	-7.04985
▁वाले	-7.05505
▁उन्होंने	-7.06526
▁हुआ	-7.06722
ई	-7.07747
▁पहले	-7.08183
का	-7.08774
%	-7.10929
▁पास	-7.11039
▁हमने	-7.11066
▁दी	-7.12298
▁होगा	-7.13023
ज़	-7.13979
▁उनकी	-7.14084
▁तुम्हारे	-7.14301
▁यदि	-7.14479
▁गई	-7.15187
▁गए	-7.15644
▁दिन	-7.15743
सी	-7.16106
▁ओर	-7.16855
ु	-7.17108
▁अन्य	-7.18854
▁प्र	-7.19072
▁सभी	-7.19165
ीय	-7.19997
▁काम	-7.20036
▁ऐसे	-7.20301
मा	-7.20329
ख	-7.204
▁प्रति	-7.20496
▁हमारे	-7.21036
▁इन	-7.21104
▁होने	-7.21223
▁राष्ट्रपति	-7.21307
▁दे	-7.21907
▁वि	-7.22116
▁म	-7.22273
‍	-7.23029
▁ब	-7.23093
ड़	-7.23661
▁सकते	-7.23914
▁प्रकार	-7.23943
▁प्राप्त	-7.23999
ू	-7.24764
च	-7.25254
▁चाहिए	-7.25533
▁कम	-7.26185
सा	-7.26603
नी	-7.26932
▁क	-7.27548
▁इसके	-7.27776
▁क्षेत्र	-7.28533
▁नाम	-7.28723
▁19	-7.28927
▁प	-7.29343
ै	-7.29837
▁s	-7.29948
▁सब	-7.30048
वा	-7.30188
▁उसकी	-7.30657
▁किए	-7.31342
▁ले	-7.31407
ली	-7.31583
▁होती	-7.31985
▁जाने	-7.34089
▁भारतीय	-7.35526
▁देश	-7.36266
▁ग	-7.36691
▁ऐसा	-7.37566
▁एवं	-7.376
▁सं	-7.38319
▁करो	-7.38668
▁कारण	-7.3946
▁विकास	-7.39503
▁सरकार	-7.39525
फ	-7.39587
▁अब	-7.39819
▁अगर	-7.39857
वि	-7.40066
के	-7.40432
▁हर	-7.40919
ले	-7.41271
▁पा	-7.42249
▁मुझे	-7.43104
▁रसूल	-7.43247
:	-7.43388
ंग	-7.4373
▁हुई	-7.43866
▁(_	-7.44034
▁राज्य	-7.45297
▁ज	-7.45718
▁1	-7.46616
एं	-7.48675
▁उसने	-7.50547
s	-7.50664
▁जिस	-7.50859
▁लेकिन	-7.51083
▁जाती	-7.51415
!	-7.51426
से	-7.51528
▁लिया	-7.51653
▁वर्ष	-7.51764
दा	-7.52534
▁दोनों	-7.52569
कार	-7.52577
▁नि	-7.52587
▁व्यक्ति	-7.5305
▁त	-7.53345
▁मे	-7.53577
▁तुम्हें	-7.53614
▁जीवन	-7.55685
थ	-7.56213
▁ऐसी	-7.56484
e	-7.56526
अ	-7.56902
▁रही	-7.57506
▁मु	-7.57833
▁होते	-7.5872
▁श	-7.58729
▁अपना	-7.59979
▁प्रदान	-7.60037
ऐ	-7.60128
▁बारे	-7.60394
▁इ	-7.60849
▁बीच	-7.61082
ाई	-7.6162
रे	-7.61721
को	-7.61737
▁à	-7.62446
▁वाला	-7.62556
▁बना	-7.63155
▁सी	-7.63483
▁जैसे	-7.64953
।"	-7.65924
▁ना	-7.66052
ंड	-7.66161
▁उसका	-7.66895
्स	-7.67207
प्र	-7.67577
मान	-7.67801
▁ईमान	-7.67819
▁सु	-7.67904
▁द	-7.68293
▁भाग	-7.68617
पी	-7.68876
स्	-7.69183
िया	-7.69341
▁ए	-7.69729
▁उ	-7.7016
ौ	-7.7049
▁बार	-7.71391
▁जाएगा	-7.71851
की	-7.72108
▁बा	-7.72454
▁रब	-7.72693
▁बे	-7.72702
टी	-7.73041
▁पूर्व	-7.73147
▁केवल	-7.73585
▁श्री	-7.73671
▁उनका	-7.73696
▁उपयोग	-7.74105
▁हमें	-7.74712
▁मेरे	-7.74721
िंग	-7.75061
फ़	-7.7567
बा	-7.76035
▁जिसमें	-7.76118
आ	-7.76558
▁ह	-7.7709
▁हूँ	-7.77245
जी	-7.77292
▁ल	-7.77615
यों	-7.78482
▁देने	-7.7865
▁आय	-7.79281
▁कह	-7.79394
नि	-7.79486
▁ताकि	-7.7972
'	-7.80128
▁पैदा	-7.8014
जा	-7.80306
▁ऐ	-7.8048
▁प्रयोग	-7.80835
ॉ	-7.81015
▁आज	-7.81058
▁वाली	-7.81223
भ	-7.81301
हा	-7.81545
▁सबसे	-7.81657
▁वही	-7.81963
▁बड़ा	-7.8229
▁उप	-7.82471
▁बस	-7.82859
▁जाए	-7.83058
क्ष	-7.83409
ओ	-7.83614
▁चीज़	-7.83944
▁हमारी	-7.84025
▁इसे	-7.84316
एँ	-7.84326
▁जाना	-7.8433
▁उसी	-7.84338
▁अधिनियम	-7.84839
▁तब	-7.8502
▁धारा	-7.85084
▁सा	-7.8528
m	-7.85527
▁जी	-7.85695
पर	-7.85763
▁जाते	-7.86187
▁देता	-7.86277
▁इसमें	-7.86636
▁राष्ट्रीय	-7.86784
इ	-7.87424
"	-7.87596
▁स्थान	-7.88108
त्	-7.88618
y	-7.88694
▁लगा	-7.89385
ष	-7.89907
▁जिसे	-7.90087
▁अथवा	-7.90222
i	-7.90318
a	-7.9141
▁'	-7.91596
▁संदेश	-7.91619
▁र	-7.91638
र्	-7.91987
o	-7.92266
▁बन	-7.92948
▁सूचना	-7.93342
▁उससे	-7.93442
▁परवरदिगार	-7.93604
▁क्योंकि	-7.93671
ध	-7.93685
▁उनसे	-7.93887
▁च	-7.94074
▁शिक्षा	-7.94328
ति	-7.94788
▁विशेष	-7.94821
▁कु	-7.95449
▁स्थिति	-7.95814
ठ	-7.95949
▁मान	-7.95966
▁ख	-7.96344
▁मा	-7.96351
▁सकती	-7.96512
गी	-7.96648
▁ला	-7.97327
स्त	-7.97604
▁जिन	-7.98438
▁उपलब्ध	-7.98441
घ	-7.9882
▁सि	-7.98836
▁करती	-7.98934
▁दूसरे	-7.9924
▁योजना	-7.99389
डी	-7.99605
▁इसलिए	-8.0026
▁सहायता	-8.01019
▁विचार	-8.01677
दार	-8.02341
▁फ़ाइल	-8.02512
▁बड़ी	-8.02566
▁2	-8.03064
▁पी	-8.03528
उ	-8.03673
गा	-8.03696
▁उनमें	-8.03855
▁हूं	-8.04136
▁विभिन्न	-8.04401
क़	-8.04539
़	-8.04576
▁कभी	-8.046
▁होगी	-8.0461
न्	-8.04809
...	-8.04984
▁मेरी	-8.0499
▁अधीन	-8.05087
▁शामिल	-8.05107
मे	-8.05239
▁कई	-8.05323
▁होना	-8.05365
स्ट	-8.05532
▁अनु	-8.05667
▁विश्व	-8.06048
t	-8.06294
▁बल्कि	-8.06649
बी	-8.06862
▁दौरान	-8.0707
▁लिये	-8.07354
▁रह	-8.07425
▁इससे	-8.07596
ँ	-8.07634
▁कहते	-8.07752
▁स्	-8.07977
▁करके	-8.08414
▁आगे	-8.08529
पा	-8.08619
▁तैयार	-8.0865
▁यहाँ	-8.08779
▁सेवा	-8.08924
▁अनुसार	-8.09619
▁संबंध	-8.09887
▁विषय	-8.09973
▁जहां	-8.10073
▁पता	-8.1042
▁अवसर	-8.10728
▁वा	-8.11052
▁होंगे	-8.11311
ंद	-8.1146
ये	-8.1159
▁सूची	-8.11928
▁तरफ	-8.12163
▁उनको	-8.12235
▁यही	-8.12373
▁अभि	-8.12559
वी	-8.128
u	-8.12941
ियां	-8.13
▁आधार	-8.13119
’	-8.13541
एस	-8.13865
▁सामने	-8.14076
िका	-8.14282
▁घर	-8.14422
p	-8.14499
▁डाल	-8.14522
और	-8.14532
▁करे	-8.14658
▁मै	-8.14746
▁जिसके	-8.14979
▁इसका	-8.15233
▁देख	-8.15356
d	-8.15362
▁पूरा	-8.15768
▁लगे	-8.16066
▁ता	-8.16112
▁अलग	-8.16351
▁लाभ	-8.16377
▁दर	-8.16459
लि	-8.16771
▁भर	-8.16881
▁देते	-8.16893
▁स्तर	-8.16921
▁करेगा	-8.16999
▁फ	-8.17214
▁उसमें	-8.17426
छ	-8.17755
▁संख्या	-8.17814
▁संबंधित	-8.17815
▁मुख्य	-8.17925
▁बाहर	-8.18005
▁याद	-8.18252
वर	-8.18611
▁निर्माण	-8.19286
ंट	-8.19302
▁चाहते	-8.19611
▁मार्ग	-8.20018
ख़	-8.20092
▁गो	-8.20096
▁प्रत्येक	-8.20437
कि	-8.20547
रो	-8.20578
गत	-8.20668
▁परि	-8.20794
▁किताब	-8.20811
▁आपको	-8.2119
▁आदि	-8.21881
▁छोड़	-8.21922
▁समझ	-8.22047
▁उत्तर	-8.2268
त्र	-8.22785
न्द	-8.23223
पूर्ण	-8.23459
टा	-8.2356
▁हाथ	-8.23596
▁हों	-8.23654
▁लो	-8.23785
▁नई	-8.23993
्या	-8.24052
▁अच्छा	-8.24055
▁आई	-8.24263
▁तीन	-8.24294
▁बनाने	-8.24311
S	-8.24319
तर	-8.24422
▁बड़े	-8.24559
दी	-8.24669
▁चल	-8.2476
▁अनेक	-8.24806
▁स्वयं	-8.24831
▁दूर	-8.24852
ीकरण	-8.24989
▁पूर्ण	-8.25022
▁प्रक्रिया	-8.25266
▁जारी	-8.25521
▁दा	-8.25541
▁भ	-8.25548
जन	-8.25619
▁पूरी	-8.25825
वे	-8.25981
▁भाषा	-8.26544
▁तुम्हारी	-8.26627
▁जान	-8.26656
▁ट	-8.26658
सं	-8.26847
▁उच्च	-8.27036
▁फ़	-8.27296
रण	-8.27311
▁गु	-8.27579
मी	-8.27691
▁आपके	-8.27699
▁ई	-8.27725
▁ज्ञान	-8.2778
▁छ	-8.27901
ाय	-8.28093
▁‘	-8.28388
▁धर्म	-8.28533
▁शक्ति	-8.28587
▁इसी	-8.28602
▁रंग	-8.28983
क्	-8.2899
▁रखा	-8.2909
▁खा	-8.29114
▁निश्चय	-8.29428
▁बि	-8.29485
▁ऊपर	-8.29619
▁मिल	-8.29648
ान	-8.29711
▁जल	-8.29778
▁पानी	-8.30167
▁बैंक	-8.30343
▁गये	-8.30394
▁माल	-8.30932
▁अर्थ	-8.31599
c	-8.31608
▁हेतु	-8.32268
▁3	-8.32378
▁खुदा	-8.32557
▁चाहता	-8.3263
द्र	-8.32828
▁दुनिया	-8.32864
▁सामान्य	-8.3318
▁गयी	-8.33906
▁भवन	-8.3398
त्त	-8.3401
▁बनाया	-8.34049
▁शुरू	-8.34094
▁महत्वपूर्ण	-8.34452
▁क़	-8.34803
िस	-8.34987
ऋ	-8.3509
र्क	-8.35197
▁तुम्हारा	-8.36432
▁“	-8.36574
▁&	-8.36615
▁करेंगे	-8.36654
▁अधिकार	-8.36843
▁ध्यान	-8.36992
▁राष्ट्र	-8.3704
▁बढ़	-8.37259
▁पत्र	-8.37453
ऊ	-8.37657
ण्ड	-8.3773
▁माध्यम	-8.37759
▁जिसने	-8.37939
▁यहां	-8.37953
ड़ा	-8.38001
▁प्रौद्योगिकी	-8.38155
▁जमा	-8.38196
▁ली	-8.382
खा	-8.3834
b	-8.38553
▁बेशक	-8.38561
▁बु	-8.38629
▁सके	-8.38834
कों	-8.38921
▁ओ	-8.38943
क्स	-8.38957
▁नीचे	-8.39005
▁ठीक	-8.39032
▁सम	-8.39497
▁प्रतिशत	-8.3957
पन	-8.39651
▁देना	-8.39705
▁बिना	-8.39719
▁बता	-8.39744
▁देखा	-8.40103
▁समाज	-8.40159
▁मो	-8.40241
▁मैंने	-8.40339
यां	-8.40476
▁प्रमुख	-8.40755
▁राज	-8.4078
▁अन	-8.41009
g	-8.41061
धार	-8.41294
▁परिवर्तन	-8.41535
¥	-8.41568
ंक	-8.41592
▁मूल	-8.41749
▁ज्यादा	-8.41932
▁नीति	-8.4194
्र	-8.41958
▁स्पष्ट	-8.42377
▁जिसका	-8.4263
▁मन	-8.42773
▁कै	-8.42777
▁लेकर	-8.42794
▁क्षेत्रों	-8.4284
▁पीछे	-8.42868
▁निकल	-8.42951
टे	-8.43003
ियाँ	-8.43015
▁किन्तु	-8.43046
▁ज़मीन	-8.43155
ल्	-8.43277
▁मूल्य	-8.43329
▁आग	-8.43535
▁मदद	-8.43539
▁मगर	-8.43571
वार	-8.43619
▁जबकि	-8.43664
▁पद	-8.43779
इस	-8.43928
रि	-8.43944
ंस	-8.4412
िल	-8.44268
▁विश्वास	-8.44346
▁व्यापार	-8.44728
▁धरती	-8.44907
कारी	-8.44932
▁ध	-8.45069
वाद	-8.45547
▁प्रभाव	-8.45752
ड़े	-8.45783
▁दिए	-8.45788
▁कंपनी	-8.46012
▁निकाल	-8.46157
▁खंड	-8.46291
ार	-8.46313
में	-8.46461
▁अतः	-8.46806
▁आर्थिक	-8.46914
▁कृषि	-8.47001
शा	-8.47077
▁सुधार	-8.47107
ड़ी	-8.47272
▁a	-8.47393
ृ	-8.47636
▁बी	-8.47728
रु	-8.47847
▁चि	-8.47912
▁रि	-8.48015
▁अज़ाब	-8.48101
्व	-8.48113
▁कुल	-8.48376
▁मानव	-8.48699
पुर	-8.48759
▁चार	-8.48809
▁आदेश	-8.48833
▁ऋण	-8.49039
▁अप	-8.49184
▁चाहे	-8.49277
▁होकर	-8.49318
▁इसकी	-8.49412
▁हि	-8.49552
▁रखते	-8.49821
▁विधि	-8.49875
सि	-8.50018
आई	-8.50033
▁4	-8.50084
▁इनकार	-8.50118
▁हा	-8.50179
▁अवधि	-8.50249
▁रु	-8.50355
▁अव	-8.50369
▁जानकारी	-8.5044
▁सू	-8.50466
▁जनता	-8.50618
▁वर्ग	-8.50815
▁विभाग	-8.50832
▁तुमसे	-8.51012
▁कार्यक्रम	-8.51026
▁आया	-8.5123
▁पक्ष	-8.51364
▁लगभग	-8.51386
सर	-8.51555
वादी	-8.51674
▁स्वीकार	-8.51791
▁जैसा	-8.5192
▁क्यों	-8.52065
▁अभी	-8.52088
▁सारे	-8.5216
▁खोज	-8.52305
▁फ़ोल्डर	-8.52371
▁अस	-8.52402
▁काफी	-8.52538
▁उद्देश्य	-8.52596
▁आने	-8.52843
▁तू	-8.52858
▁लागू	-8.52897
▁विज्ञान	-8.53132
▁य	-8.53173
म्ब	-8.53301
ज़ा	-8.53302
▁मामले	-8.53426
▁जगह	-8.53563
▁समूह	-8.5357
▁मेरा	-8.53605
▁सहयोग	-8.53631
▁वहां	-8.53841
▁जानता	-8.53886
नों	-8.53898
▁अच्छे	-8.5395
ंज	-8.53959
▁लोक	-8.54069
्यू	-8.5427
>	-8.54599
8	-8.55054
▁सिवा	-8.55209
▁अच्छी	-8.55648
▁उद्योग	-8.55868
गे	-8.56084
▁बराबर	-8.563
▁जन	-8.56354
▁सामाजिक	-8.56378
in	-8.56698
A	-8.56702
ंत	-8.56734
▁प्रणाली	-8.568
▁समान	-8.56806
▁जाएगी	-8.56875
ेट	-8.56915
▁स्थापित	-8.57039
▁आवश्यक	-8.57105
▁इं	-8.5713
▁मि	-8.57152
ूर	-8.5736
▁यू	-8.57549
C	-8.57636
▁रहने	-8.5773
▁आवश्यकता	-8.57982
▁प्रयास	-8.58042
यी	-8.5808
श्	-8.58103
▁रखने	-8.58163
ास	-8.5817
▁बदल	-8.5818
1	-8.58556
▁सीमा	-8.58626
▁खेल	-8.58753
▁वस्तु	-8.5881
¤3⁄4	-8.58874
▁प्रस्तुत	-8.59083
▁रू	-8.59087
हर	-8.59125
बे	-8.59387
स्थ	-8.59681
म्	-8.59693
▁कर्म	-8.59743
▁दें	-8.59839
▁कहीं	-8.59854
▁ढ	-8.59958
▁स्व	-8.60011
▁परियोजना	-8.60124
▁सुरक्षा	-8.60179
▁डर	-8.60309
▁रात	-8.60333
20	-8.60523
▁क्षमता	-8.607
▁जानते	-8.6071
▁न्यायालय	-8.60771
▁केंद्र	-8.60772
▁विवरण	-8.6083
▁उसको	-8.60875
▁क़ौम	-8.60879
▁परिणाम	-8.61074
▁चला	-8.61136
▁वक्त	-8.61205
▁मध्य	-8.61223
▁दिखा	-8.61469
फा	-8.61489
▁कोर्इ	-8.6173
▁साल	-8.61755
▁राशि	-8.6191
▁जिससे	-8.61915
▁दिल	-8.62001
▁सिर्फ	-8.62031
▁झ	-8.62272
▁चुका	-8.62298
▁सर	-8.62311
▁उठा	-8.62466
▁पु	-8.62578
मन	-8.62763
ाव	-8.62887
▁राम	-8.62983
▁#44;	-8.6314
▁अतिरिक्त	-8.63173
र्म	-8.63219
▁शब्द	-8.6329
▁संपर्क	-8.63307
▁महा	-8.63308
वाह	-8.63638
टर	-8.63687
र्ड	-8.63747
र्स	-8.63848
▁हाल	-8.63907
▁आए	-8.63928
▁लाए	-8.64044
▁रे	-8.64055
▁रहते	-8.64297
▁चुके	-8.64379
er	-8.64579
▁अंतर्गत	-8.64917
▁लेने	-8.6495
िन	-8.64968
▁मर	-8.64988
▁मिला	-8.65154
▁आकार	-8.65275
▁कहने	-8.65559
▁मार	-8.65571
2	-8.65614
कर्ता	-8.65629
ाइ	-8.65699
▁अनुसंधान	-8.6583
▁उत्पादन	-8.6594
▁सो	-8.65984
शी	-8.66206
▁बल	-8.66256
¥	-8.66329
▁नया	-8.66454
an	-8.66543
▁5	-8.66576
▁सभा	-8.66578
करण	-8.66624
▁पड़	-8.66649
▁नए	-8.66656
मु	-8.66686
▁आकाश	-8.66727
▁सही	-8.66795
▁:	-8.66968
▁देशों	-8.66979
▁एस	-8.67055
▁यातना	-8.67362
▁तुमने	-8.67469
ात्मक	-8.67472
▁गुण	-8.67587
▁पि	-8.67629
शि	-8.67637
आर	-8.67848
E	-8.67901
▁नही	-8.67922
n	-8.67937
ढ़	-8.68006
▁गा	-8.68061
लो	-8.68478
▁यात्रा	-8.68588
▁व्यवस्था	-8.68788
▁18	-8.68832
▁बेहतर	-8.68984
कु	-8.69029
▁सदस्य	-8.69287
▁बह	-8.69343
ीन	-8.69547
▁शि	-8.69552
▁निवेश	-8.69567
▁बनाए	-8.696
T	-8.69802
▁क्र	-8.69838
▁वालों	-8.69874
ही	-8.69905
4	-8.70063
रू	-8.70076
▁प्रदेश	-8.70123
▁स्थित	-8.70162
▁एन	-8.70272
▁सुन	-8.70275
▁सह	-8.7028
▁रोग	-8.70333
चा	-8.70345
पत्र	-8.70449
द्ध	-8.70666
▁किस	-8.70725
▁परन्तु	-8.70825
्म	-8.70833
▁उपधारा	-8.70914
▁S	-8.70915
▁जिन्हें	-8.70932
ष्	-8.70942
▁सत्य	-8.70965
▁दृष्टि	-8.70966
▁बाल	-8.71215
मो	-8.7177
▁''	-8.71774
▁राह	-8.71869
जो	-8.71998
▁वर्तमान	-8.72039
▁भू	-8.72045
▁मूसा	-8.72068
▁अधिकारी	-8.72158
हम	-8.72218
▁विशिष्ट	-8.72277
▁निर्णय	-8.7236
▁संस्था	-8.72405
▁मनुष्य	-8.72423
गो	-8.72431
▁%	-8.72468
I	-8.72511
00	-8.7273
▁युद्ध	-8.72793
▁इतिहास	-8.72882
र्ज	-8.73038
▁परिवार	-8.73179
▁संघ	-8.73217
▁कौन	-8.73389
▁रख	-8.73696
▁पहुँच	-8.74072
▁हुक्म	-8.74104
▁शरीर	-8.74311
▁रोक	-8.74357
▁सन्	-8.74383
▁कल	-8.74465
▁चित्र	-8.74563
हि	-8.74572
▁वर्षों	-8.74573
डा	-8.74646
▁दूसरी	-8.74702
देश	-8.74756
¤	-8.74909
▁पे	-8.75012
▁कला	-8.75055
¤°	-8.75063
▁थीं	-8.75078
▁छवि	-8.75088
▁रो	-8.75179
▁पहचान	-8.75215
▁_	-8.75279
▁लक्ष्य	-8.75285
▁तुमको	-8.75336
बर	-8.75371
िर	-8.75588
▁पेश	-8.7564
▁वहाँ	-8.75655
▁प्रेम	-8.7601
▁हमारा	-8.76276
▁वास्तव	-8.76291
▁स्वास्थ्य	-8.76404
▁रा	-8.76496
▁दिल्ली	-8.7652
D	-8.76586
सु	-8.76806
हार	-8.7686
▁kg	-8.77079
▁सोच	-8.77169
▁ड	-8.77181
▁बंद	-8.77185
▁प्रा	-8.77268
▁C	-8.77331
▁प्रधानमंत्री	-8.77612
एम	-8.7767
▁विश्वविद्यालय	-8.77847
▁अंत	-8.77975
▁पढ़	-8.78087
▁देगा	-8.78102
यो	-8.78168
जे	-8.78206
▁धन	-8.78225
▁तौर	-8.78372
▁लाख	-8.78381
▁10	-8.78443
▁देखते	-8.78499
▁वास्ते	-8.78562
ात	-8.78691
▁बच्चों	-8.78738
▁दक्षिण	-8.7886
▁जिनके	-8.78877
O	-8.78983
▁जि	-8.79047
▁डि	-8.79055
▁निर्धारित	-8.79157
यर	-8.79204
M	-8.79617
▁बै	-8.7962
▁आसमान	-8.7965
▁कैसे	-8.79661
त्व	-8.79766
नो	-8.79788
स्क	-8.79895
▁प्रश्न	-8.79936
जि	-8.80031
▁अनुभव	-8.80083
▁परंतु	-8.80116
▁अमेरिका	-8.80509
▁मंत्रालय	-8.80668
▁भूमि	-8.80732
▁घ	-8.81016
कृत	-8.81114
▁हमेशा	-8.81308
▁जन्म	-8.81313
▁ज़	-8.81339
▁विकसित	-8.81487
तु	-8.81573
▁जिन्होंने	-8.81608
फ्	-8.81637
▁पड़े	-8.81644
▁स्थानीय	-8.82027
च्छ	-8.82135
▁उत्	-8.82159
▁संस्थान	-8.82182
▁तहत	-8.82267
ग़	-8.82414
k	-8.82473
▁डी	-8.82505
▁उदाहरण	-8.82576
▁name	-8.82596
▁गिर	-8.82745
शील	-8.82929
शन	-8.83059
झ	-8.83123
▁बहु	-8.83182
दे	-8.8327
▁वापस	-8.83275
डे	-8.8346
▁मी	-8.83646
3	-8.83765
▁क्रिया	-8.83823
वीं	-8.83878
0	-8.83942
▁अंग	-8.84244
भा	-8.84381
▁बदला	-8.84434
धा	-8.84439
ची	-8.84466
▁निर्धारण	-8.84474
▁हे	-8.84478
▁लग	-8.84497
▁हक़	-8.84513
▁बढ़ा	-8.84533
▁मांग	-8.8469
▁विदेशी	-8.84832
▁मौजूद	-8.84929
▁भेजा	-8.84992
▁समाप्त	-8.85038
▁अंतिम	-8.85072
▁नियम	-8.85099
▁महान	-8.85223
तो	-8.85431
▁दिशा	-8.85715
▁दु	-8.85783
▁आर	-8.85837
▁टे	-8.85979
▁पै	-8.86039
▁जरूरत	-8.8608
▁प्रस्ताव	-8.86147
▁छोटे	-8.8623
▁समिति	-8.86255
r	-8.86258
▁निश्चित	-8.86294
▁प्रवेश	-8.86572
▁भूमिका	-8.86658
▁जाएँ	-8.86719
▁”	-8.86902
▁लगता	-8.8691
▁काल	-8.87164
▁पाठ	-8.87263
▁त्रुटि	-8.8744
▁जहाँ	-8.87501
f	-8.87659
”	-8.87698
गु	-8.87816
▁मंदिर	-8.8784
▁20	-8.87887
▁आम	-8.8789
¥	-8.88035
ेगा	-8.88041
▁अनुमति	-8.88082
▁इस्लाम	-8.88086
▁फल	-8.88134
▁सक्रिय	-8.88157
रूप	-8.88223
०	-8.88304
ुर	-8.88343
ar	-8.88496
▁संयुक्त	-8.88508
उस	-8.88584
▁निस्संदेह	-8.88615
▁नियंत्रण	-8.88658
काल	-8.88744
▁भाई	-8.88838
▁समस्या	-8.88944
▁किये	-8.89042
▁रहता	-8.89165
▁पाया	-8.89255
▁जिसकी	-8.89299
▁वो	-8.89321
▁विस्तार	-8.89372
▁प्रमाण	-8.89595
▁केन्द्र	-8.8968
▁विकल्प	-8.89745
▁भीतर	-8.89778
र्ट	-8.89802
▁आधारित	-8.89829
▁पहुँचा	-8.89982
ष्ट	-8.89994
▁जाएँगे	-8.90034
ेशन	-8.90104
▁बाजार	-8.90158
▁मित्र	-8.90196
ंच	-8.90332
▁निर्दिष्ट	-8.90617
राज	-8.90654
▁आरंभ	-8.90662
▁चौ	-8.9087
न्न	-8.90873
▁जाओ	-8.90925
▁जांच	-8.91063
▁वित्तीय	-8.91091
▁सहायक	-8.91102
R	-8.91158
▁माना	-8.91162
मि	-8.91271
▁हिस्सा	-8.91389
▁अधि	-8.91639
▁प्रथम	-8.91679
बल	-8.91716
▁डाक	-8.91775
▁पार	-8.91965
चर	-8.9197
नाज़िल	-8.91974
▁स्थापना	-8.91998
▁संबंधी	-8.92003
गर	-8.92142
ेंगे	-8.92187
re	-8.9245
▁कानून	-8.92578
▁एक्स	-8.92605
रों	-8.92613
v	-8.92793
▁बोल	-8.93014
चार	-8.93081
l	-8.93192
▁सिंह	-8.9323
▁वृद्धि	-8.93307
▁भेज	-8.93534
▁संविधान	-8.93651
ुल	-8.94141
▁अध्ययन	-8.94154
▁विंडो	-8.94178
▁डे	-8.94271
▁प्रगति	-8.94357
▁सका	-8.95142
▁मृत्यु	-8.95275
▁6	-8.95287
P	-8.95415
▁लेते	-8.95445
▁मह	-8.95465
▁कमी	-8.95561
▁प्रबंधन	-8.95629
ाँ	-8.9588
वत	-8.95927
िश	-8.95989
▁अलावा	-8.96083
▁निर्	-8.9614
▁पिछले	-8.96174
▁प्रकाश	-8.96339
▁पहली	-8.96358
व्य	-8.96381
▁थ	-8.96482
▁<	-8.96559
दर	-8.96603
रिया	-8.96698
▁लौट	-8.96744
▁वै	-8.96777
द्	-8.96835
ाइट	-8.96875
बद्ध	-8.96932
▁A	-8.9695
▁लें	-8.96981
▁सहित	-8.97074
▁खोल	-8.97124
▁अल	-8.97273
L	-8.97316
▁कृपया	-8.9739
▁उत्पन्न	-8.97393
▁पहुंच	-8.97423
▁रखता	-8.97454
▁d	-8.97604
वान	-8.97729
▁अंतर	-8.97806
▁समर्थन	-8.97859
भी	-8.97919
▁राजा	-8.98078
▁पूंजी	-8.98264
▁खाता	-8.98395
मत	-8.98403
▁अति	-8.98452
▁दृश्य	-8.98454
▁लिख	-8.98491
यन	-8.98546
▁साहित्य	-8.9857
▁खुद	-8.98682
▁सर्वर	-8.98697
▁पुनः	-8.98839
▁भुगतान	-8.98882
एल	-8.98934
▁मंत्री	-8.98963
क्त	-8.99168
▁मत	-8.99189
▁न्याय	-8.99194
▁ऑ	-8.99313
▁पुनर्	-8.9948
याँ	-8.99529
▁सुनिश्चित	-8.99601
चे	-8.99691
▁पृष्ठ	-8.99739
optional	-8.99745
▁झूठ	-8.99746
▁रहो	-8.9975
▁प्रशिक्षण	-8.99818
रत	-8.99879
▁सत्ता	-9.00175
▁सौ	-9.00239
▁भिन्न	-9.0035
▁दिनों	-9.0059
▁करोड़	-9.00767
▁प्रारंभ	-9.00768
▁फाइल	-9.00807
गें	-9.00928
▁ऊर्जा	-9.01078
ियन	-9.01148
ुक	-9.01156
▁निधि	-9.01228
▁वास्तविक	-9.01468
वास	-9.01527
क्र	-9.01551
▁@	-9.01675
▁स्रोत	-9.01789
▁मात्रा	-9.01826
▁समुदाय	-9.01887
▁भावना	-9.0193
▁योग्य	-9.01935
▁संगठन	-9.01948
▁आदमी	-9.01957
▁आधुनिक	-9.02084
▁बच्चे	-9.02158
बार	-9.02206
▁कार्यालय	-9.02215
▁रिपोर्ट	-9.02238
▁(1)	-9.02367
▁जोड़	-9.02383
ग्	-9.02385
ढ	-9.02499
▁जु	-9.02703
▁जीव	-9.02708
▁लिखा	-9.02814
▁पकड़	-9.0283
स्व	-9.02861
▁इस्तेमाल	-9.02876
?"	-9.02895
▁सुविधा	-9.03024
▁करा	-9.0304
१	-9.03102
ण्श्	-9.03124
छ्ष	-9.03188
तम	-9.03191
▁लड़	-9.03194
▁ग़	-9.0337
▁उनपर	-9.03404
▁वेबसाइट	-9.03524
▁ति	-9.03748
ंध	-9.04022
िता	-9.04033
▁चुनें	-9.04088
ल्ड	-9.04163
था	-9.04208
▁जैसी	-9.04225
▁रुप	-9.0425
▁शहर	-9.04378
लू	-9.04396
सू	-9.04503
▁ज़रूर	-9.04504
ूल	-9.0452
धि	-9.04574
▁मौ	-9.04601
▁खाते	-9.04737
एक	-9.04798
▁हटा	-9.04895
ाना	-9.05109
▁लेखा	-9.05132
▁निर्यात	-9.05214
▁सार्वजनिक	-9.05264
▁सम्	-9.05319
▁सरकारी	-9.05427
ोर	-9.05431
▁प्रकृति	-9.05502
▁स्कूल	-9.05596
िए	-9.05602
हे	-9.05803
ल्ल	-9.05843
▁मामलों	-9.05902
▁गांधी	-9.06038
▁लाल	-9.06071
षण	-9.06123
पो	-9.06157
▁पूरे	-9.06186
▁एम	-9.06206
▁पुरुष	-9.06241
▁रचना	-9.06273
▁शासन	-9.06293
वह	-9.06621
ार्थ	-9.06629
ेड	-9.06803
▁सक्षम	-9.06829
▁लि	-9.0687
▁अत्यन्त	-9.06906
तन	-9.07181
कल	-9.07298
▁निकट	-9.07329
▁इन्	-9.07332
▁मालूम	-9.07373
चल	-9.07384
▁राज्यों	-9.07459
▁कं	-9.07468
पाल	-9.07531
राम	-9.07589
ान्त	-9.07627
▁दल	-9.07648
▁आत्म	-9.07881
▁यक़ीनन	-9.07912
िट	-9.07975
▁टी	-9.07978
▁बाप	-9.08016
नाथ	-9.0802
▁चले	-9.08091
▁कोशिश	-9.08106
on	-9.08128
▁जे	-9.0824
▁क्	-9.08533
▁बातें	-9.08578
▁संसद	-9.08714
▁समझा	-9.08784
७	-9.08812
▁I	-9.09051
क्रम	-9.0915
▁व्य	-9.09155
ष्ठ	-9.09188
पु	-9.09224
▁दिखाएँ	-9.0925
निक	-9.09342
त्य	-9.09351
▁प्रकट	-9.09453
▁उद्यम	-9.09587
▁व्यापक	-9.09587
▁पूछ	-9.09686
or	-9.09842
▁शख्स	-9.09845
▁ग्रामीण	-9.09872
र्ग	-9.09873
▁बचा	-9.09909
▁वैज्ञानिक	-9.09972
तों	-9.10087
▁पश्चात	-9.10149
▁ऑफ	-9.10157
▁कांग्रेस	-9.10165
▁गति	-9.10228
▁जिनमें	-9.10258
▁7	-9.10261
ाम	-9.10273
▁सिर	-9.10366
्त	-9.10435
▁देखने	-9.10465
उन	-9.10474
▁सदस्यों	-9.10602
▁15	-9.10745
▁बैठक	-9.10866
▁संभव	-9.10878
▁आयात	-9.10879
र्ण	-9.10882
▁सामग्री	-9.1094
▁उचित	-9.10999
N	-9.11001
तः	-9.11037
यक	-9.1106
▁जवाब	-9.1116
धान	-9.11207
▁नदी	-9.1133
▁बंगाल	-9.11403
वन	-9.11428
क्या	-9.11577
▁̧	-9.11618
▁कहो	-9.11631
▁p	-9.11783
▁घटना	-9.11867
▁अध्यक्ष	-9.11992
▁बयान	-9.12008
▁सुना	-9.12068
▁संकेत	-9.12112
ियो	-9.12166
▁संरचना	-9.12204
▁गैर	-9.12294
▁समारोह	-9.12411
▁इतना	-9.12547
बि	-9.1259
▁गुनाह	-9.126
बु	-9.1265
्रा	-9.1281
प्त	-9.12848
▁केंद्रीय	-9.12864
टो	-9.1303
▁आवेदन	-9.13039
al	-9.13044
▁8	-9.13113
▁दिखाई	-9.13157
▁रक्षा	-9.13158
]	-9.13176
¤¿	-9.13204
पे	-9.13234
▁पुरस्कार	-9.13369
▁संदर्भ	-9.13369
▁महत्व	-9.13425
▁'%	-9.13427
▁बने	-9.13471
▁ख़	-9.1358
▁प्रदर्शन	-9.13584
नेवाले	-9.13657
गम	-9.138
ट्ट	-9.13893
▁मुँह	-9.13895
▁देती	-9.13987
▁डिस्क	-9.14044
▁महिला	-9.14097
▁दशा	-9.14364
ालय	-9.14391
८	-9.14636
▁बातों	-9.14736
://	-9.14787
मय	-9.14885
w	-9.14973
▁संगीत	-9.15127
▁स्प	-9.15152
▁बच	-9.15276
▁खरीद	-9.15289
Name	-9.15342
ब्	-9.1539
▁गलत	-9.15397
▁रहेंगे	-9.15466
▁इनमें	-9.15469
फिर	-9.15507
▁वजह	-9.15518
▁भविष्य	-9.15714
▁पालन	-9.15727
▁पुस्तक	-9.15837
▁मुद्रा	-9.15843
▁उत्पाद	-9.15888
▁सेना	-9.15958
▁चाहिये	-9.15971
दान	-9.16011
▁-	-9.16046
▁योगदान	-9.16061
▁औद्योगिक	-9.16082
▁रखो	-9.16164
न्त	-9.1624
▁अपराध	-9.16281
धर	-9.16308
▁साफ	-9.16316
▁फा	-9.16343
▁दिवस	-9.16378
दाय	-9.16404
ाह	-9.1645
–	-9.16484
▁मद	-9.16594
ख़ुदा	-9.16599
यू	-9.16731
▁बदले	-9.16927
▁ब्र	-9.16957
▁पड़ा	-9.1697
▁स्वतंत्रता	-9.16998
एन	-9.17048
▁शायद	-9.17051
श्व	-9.1716
▁translation	-9.17308
म्प	-9.17373
▁भा	-9.17392
श्र	-9.17456
¤	-9.1748
h	-9.17511
▁12	-9.17618
▁उठ	-9.17622
▁ग्र	-9.17653
▁बर	-9.17795
▁किंतु	-9.17944
▁निजी	-9.17968
▁फेर	-9.17971
▁१	-9.18021
र्न	-9.18276
▁not	-9.18376
▁बुरा	-9.18377
भाव	-9.18449
लेख	-9.18588
▁̈	-9.18608
▁एल	-9.18634
▁रखना	-9.18634
बू	-9.1874
भाग	-9.18751
र्द	-9.19168
▁आशा	-9.19216
ांत	-9.19363
▁एशिया	-9.19596
▁शा	-9.19768
▁बोर्ड	-9.19825
▁M	-9.19987
▁चयनित	-9.19989
▁रकम	-9.2017
▁पहाड़	-9.20196
▁निम्न	-9.2022
▁निर्देश	-9.20292
स्प	-9.20315
ूँ	-9.20323
नेवाला	-9.20455
▁पो	-9.20506
▁चा	-9.20681
चि	-9.20707
▁अवश्य	-9.20763
▁need	-9.20961
▁राय	-9.21022
िम	-9.21172
▁लागत	-9.2124
दि	-9.21458
▁व्यक्तियों	-9.21574
6	-9.22247
▁हैः	-9.22306
▁नाटक	-9.22323
en	-9.22341
▁वित्त	-9.22454
x	-9.22502
▁ठ	-9.22519
▁कविता	-9.22521
▁तर	-9.22561
पट	-9.22633
▁तु	-9.22634
▁रक्त	-9.2272
▁आयोजित	-9.22822
5	-9.22998
ॅ	-9.23158
▁सफल	-9.23248
▁शेयर	-9.23302
▁संग्रह	-9.23357
▁उपकरण	-9.23362
ट्र	-9.23376
▁लेखक	-9.23398
▁विधान	-9.23444
▁रखे	-9.23537
▁पांच	-9.23646
▁ढंग	-9.23665
▁वायु	-9.2373
▁प्रभावित	-9.23765
िय	-9.23794
9	-9.23842
▁मजबूत	-9.23952
९	-9.23992
▁मुक्त	-9.24195
जू	-9.24298
▁पर्याप्त	-9.24321
▁सर्व	-9.24332
▁फि	-9.2437
▁अवस्था	-9.24659
▁देंगे	-9.24659
ेश	-9.24709
हीन	-9.24761
आयतों	-9.24788
▁प्रकाशित	-9.24799
दु	-9.24841
▁डाला	-9.24964
▁http	-9.24969
ाने	-9.25025
▁व्यवहार	-9.25128
युक्त	-9.25147
ौर	-9.25216
▁बैठ	-9.25235
▁दूसरा	-9.2528
▁तंत्र	-9.25345
ब्र	-9.25353
हित	-9.25453
▁सफलता	-9.25467
पति	-9.25626
▁खर्च	-9.25682
इन	-9.2575
▁does	-9.25935
12	-9.25953
▁बर्	-9.25984
▁नेटवर्क	-9.2606
▁संस्कृति	-9.2611
ज्ज	-9.26134
▁बैठे	-9.26223
ज्	-9.26302
▁probabl	-9.26311
डि	-9.26332
▁निर्धारिती	-9.2665
▁राजनीतिक	-9.26651
▁हासिल	-9.26973
▁चुकी	-9.27108
▁कट	-9.2721
▁पर्यावरण	-9.27258
णा	-9.27278
▁भाव	-9.27302
▁मुखर्जी	-9.27321
▁सकें	-9.27409
▁लाने	-9.2741
▁आत्मा	-9.2742
▁प्राण	-9.27444
▁खो	-9.27446
▁पैग़म्बर	-9.27583
▁हवा	-9.27619
ियम	-9.27633
▁निम्नलिखित	-9.27928
▁सुरक्षित	-9.28039
▁चर्चा	-9.28117
▁असफल	-9.28164
मंत्र	-9.28272
ज़ी	-9.28318
11	-9.28372
▁केन्द्रीय	-9.28614
▁बो	-9.28669
▁युग	-9.2867
▁व्या	-9.28674
▁व्यक्त	-9.28874
▁संरक्षण	-9.28911
▁ख़बर	-9.28969
ून	-9.29006
जीव	-9.29067
ताओं	-9.29179
शास्त्र	-9.29192
योग	-9.29229
▁भारी	-9.29242
मुख	-9.2927
▁सेवाओं	-9.29303
ीकृत	-9.29312
▁गीत	-9.29469
▁प्रमाणपत्र	-9.29559
द्द	-9.29621
▁इच्छा	-9.29621
▁यद्यपि	-9.29664
▁सीधे	-9.29733
▁विशाल	-9.29958
वर्ती	-9.29992
▁लघु	-9.30022
ंगी	-9.30087
▁बनी	-9.30204
▁आपकी	-9.30273
▁तारीख	-9.30287
▁शांति	-9.30298
वल	-9.30317
पूर्वक	-9.30348
▁सम्मान	-9.30367
लैंड	-9.30383
▁ईश्वर	-9.30446
▁बाग़	-9.30498
▁बाज़	-9.30498
्वा	-9.30509
यह	-9.30551
६	-9.30717
▁अपेक्षा	-9.30717
▁डॉ	-9.30783
▁साधन	-9.30793
▁वर्णन	-9.30805
▁प्रधान	-9.30869
nic	-9.30904
▁कवि	-9.30932
▁कहना	-9.31114
▁कदम	-9.31152
▁बधाई	-9.31268
चन	-9.31311
▁दस	-9.31329
सल	-9.31372
▁सिद्धांत	-9.31377
▁तरीके	-9.31434
▁सम्मेलन	-9.31499
▁संसाधन	-9.31542
▁आयोग	-9.31646
▁प्रो	-9.31757
सन	-9.31825
▁शब्दों	-9.31829
▁आतंकवाद	-9.31882
▁चयन	-9.32045
▁२	-9.32228
▁विरुद्ध	-9.32229
▁उपस्थित	-9.32329
▁छोटी	-9.32664
पक	-9.3267
वाला	-9.32724
▁परिषद	-9.32766
▁गिरोह	-9.32798
▁रखें	-9.32803
▁गुणवत्ता	-9.32831
▁9	-9.32855
▁समा	-9.32923
▁अनिवार्य	-9.32931
▁कंप्यूटर	-9.33099
▁मिटा	-9.33107
मेंट	-9.33129
लों	-9.33196
▁शैतान	-9.332
▁भोजन	-9.33202
्यु	-9.33451
▁नव	-9.33503
▁नर	-9.33548
▁छोड़कर	-9.33552
▁सम्बन्ध	-9.33586
▁जिला	-9.33703
णी	-9.33704
५	-9.33726
▁प्राकृतिक	-9.3374
▁नमाज़	-9.3381
श्त	-9.33914
▁संपत्ति	-9.34154
▁पश्चिम	-9.34157
▁१९	-9.34181
▁कॉ	-9.3425
ाइल	-9.34405
▁माँग	-9.34428
स्ट्र	-9.3449
▁प्राचीन	-9.34521
▁सख्त	-9.34724
▁हु	-9.34729
धी	-9.34779
▁रखी	-9.34866
▁शक	-9.34906
▁बताया	-9.34924
▁अधिकांश	-9.34929
▁हित	-9.34938
्टर	-9.35129
ेस	-9.35187
▁जाति	-9.35345
यम	-9.35446
नीय	-9.35484
▁परीक्षा	-9.35651
▁उद्	-9.35693
▁तुलना	-9.35829
▁प्रभावी	-9.3596
तक	-9.36117
मंडल	-9.36155
▁हस्ताक्षर	-9.36171
▁अगले	-9.36204
▁नगर	-9.36305
गार	-9.36319
▁चे	-9.36384
▁सेट	-9.36437
▁धार्मिक	-9.36448
▁शिकायत	-9.36483
▁विल	-9.36545
):	-9.36563
यें	-9.3667
ख्	-9.36677
¤2	-9.36686
▁औ	-9.36763
▁आपस	-9.36779
▁आता	-9.36884
नाम	-9.3695
▁गर्इ	-9.37024
▁अभिलेख	-9.37041
▁बुला	-9.37058
▁सात	-9.37242
▁संशोधन	-9.37251
▁ब्याज	-9.37257
ंगा	-9.37278
it	-9.37319
▁वीडियो	-9.37321
प्ल	-9.37383
▁आते	-9.37409
मक	-9.37416
▁समाधान	-9.37473
▁विदेश	-9.37494
B	-9.3756
▁प्रोग्राम	-9.37571
▁जाये	-9.37596
▁(19	-9.37611
▁दस्तावेज	-9.37745
▁क्रम	-9.37787
भूत	-9.37797
▁जोड़ें	-9.37912
▁बुद्धि	-9.37928
▁P	-9.37982
▁शीघ्र	-9.38237
▁D	-9.38252
▁[	-9.38361
▁मानक	-9.38389
कू	-9.38395
▁बन्दों	-9.3844
▁मेल	-9.3845
▁खड़े	-9.38469
▁अधिकारियों	-9.38471
क्का	-9.38655
▁उपाय	-9.38674
ग्र	-9.38721
st	-9.3874
▁चुन	-9.38772
01	-9.38825
▁आंदोलन	-9.38911
▁हालत	-9.38916
▁चिकित्सा	-9.38919
▁बनाना	-9.38941
▁संभावना	-9.38947
7	-9.38982
▁अता	-9.39
▁छा	-9.39109
साथ	-9.39146
▁ठहरा	-9.39263
le	-9.39264
▁कुंजी	-9.39412
▁लगी	-9.3943
▁उन्हीं	-9.39483
▁वी	-9.39537
▁आपका	-9.39615
▁पंक्ति	-9.39662
चक	-9.39738
▁लेना	-9.39744
टि	-9.39832
▁अंक	-9.39886
▁जल्दी	-9.39939
क्ति	-9.39989
▁हजार	-9.40088
स्ता	-9.40093
10	-9.40176
३	-9.40219
▁मिलता	-9.4023
त्री	-9.40275
▁उल्लेख	-9.40378
▁कठिन	-9.40404
▁तुमपर	-9.40408
▁मिली	-9.40495
४	-9.4051
भि	-9.40572
▁शैली	-9.40583
देव	-9.40593
▁पुकार	-9.40627
▁पहुंचा	-9.40667
▁पाने	-9.40686
▁समझते	-9.40711
▁संस्थानों	-9.40723
▁हिदायत	-9.40744
▁चाल	-9.40834
▁प्रतीक	-9.40881
फर	-9.40907
एगा	-9.40935
ैर	-9.40937
जर	-9.40989
▁प्रणब	-9.41
▁तुममें	-9.41147
▁हिन्दी	-9.41231
▁आयु	-9.41253
▁बिल	-9.41289
ाधिकार	-9.41319
घात	-9.41335
क्षा	-9.41481
▁संसार	-9.41521
जनक	-9.41532
▁नियत	-9.41572
ांतर	-9.41715
दो	-9.41721
▁m	-9.41786
▁संकल्प	-9.42062
▁तेल	-9.42092
▁श्रेणीः	-9.42113
▁क्षमा	-9.42147
ठा	-9.42149
▁चु	-9.42279
▁जरूरी	-9.42401
▁मालिक	-9.42407
प्प	-9.42413
▁पद्धति	-9.42501
ाल	-9.42573
ंब	-9.42624
ेल	-9.42632
▁आती	-9.42646
सब	-9.42704
▁रहती	-9.4274
▁निर्मित	-9.42771
▁पुलिस	-9.42805
▁युवा	-9.42853
▁माँ	-9.42873
,000	-9.42902
▁पत्थर	-9.42945
▁मना	-9.4297
▁सीमित	-9.4306
र्थ	-9.43219
्ज	-9.4322
▁क़सम	-9.43297
ोन	-9.4331
▁झुठला	-9.43401
▁निर्भर	-9.43438
▁मानते	-9.43467
▁अनुप्रयोग	-9.43503
▁पश्चात्	-9.43531
▁F	-9.43576
▁निर	-9.4363
▁कीमत	-9.43662
▁ब्रिटिश	-9.4369
▁संस्कृत	-9.43784
२	-9.43874
▁साधारण	-9.43877
▁छोटा	-9.43914
▁मुख	-9.43932
▁रहना	-9.43955
▁विरोध	-9.44013
}	-9.44064
▁विवाह	-9.44121
▁करनी	-9.44146
▁जहन्नुम	-9.44151
▁न्यू	-9.44178
▁विफल	-9.44205
मू	-9.44224
सो	-9.44287
▁T	-9.44347
▁सरल	-9.44357
▁बिल्कुल	-9.44364
मेल	-9.44374
▁दिलों	-9.44433
खे	-9.44464
▁तर्क	-9.44474
▁इबराहीम	-9.44515
▁फसल	-9.44517
▁पिता	-9.44541
▁वार्षिक	-9.44666
▁करनेवालों	-9.44704
▁उतार	-9.44716
गल	-9.4475
त्मक	-9.44778
द्व	-9.44811
▁सारी	-9.44847
▁शाखा	-9.45075
न्ट	-9.45116
▁जाँच	-9.45197
ज्ञ	-9.4523
▁अर्थव्यवस्था	-9.45238
▁पथ	-9.45275
▁शताब्दी	-9.45309
प्रे	-9.45382
▁आदर्श	-9.454
अपने	-9.45438
▁निगम	-9.45582
▁कार	-9.45635
▁सिद्ध	-9.45778
▁अंदर	-9.45784
मर	-9.45924
▁ताल	-9.45984
ोस	-9.46128
▁बन्द	-9.46259
▁11	-9.46309
▁योग	-9.4632
▁कप	-9.46329
▁समुद्र	-9.46331
एफ	-9.46346
es	-9.46371
▁किसानों	-9.46418
▁घोषणा	-9.46455
▁सच्चे	-9.46494
च्च	-9.46496
▁शेष	-9.46554
▁कहेंगे	-9.46647
तुम	-9.46813
▁1.	-9.47001
▁तरफ़	-9.47024
▁महीने	-9.47037
आख़िरत	-9.47064
ल्स	-9.47099
▁शुल्क	-9.47127
▁प्रदर्शित	-9.47226
▁व्यक्तिगत	-9.47227
▁अत्यंत	-9.47303
▁खुलती	-9.47314
▁भूल	-9.47348
नु	-9.47394
दूसरे	-9.47424
▁नागरिक	-9.47448
ङ	-9.47497
कृ	-9.47507
▁वन	-9.47521
▁सदन	-9.47573
▁फैला	-9.47718
▁डा	-9.47778
▁संघर्ष	-9.47899
▁मौजूदा	-9.4797
▁व्यय	-9.48135
▁अप्रैल	-9.4816
▁16	-9.482
▁स्थल	-9.48267
▁मूर्ति	-9.48285
▁ईसा	-9.48302
र्व	-9.48344
▁आपने	-9.48371
▁सम्मिलित	-9.48394
▁प्रयोजनों	-9.48422
▁फी	-9.48436
▁मुस्लिम	-9.48464
▁विंडों	-9.48587
▁डेटा	-9.48637
▁अपील	-9.48654
शे	-9.4879
▁मं	-9.48895
▁चू	-9.4893
▁साम	-9.48971
▁अंग्रेजी	-9.48973
क्ल	-9.49045
▁मनो	-9.49111
▁स्थायी	-9.49199
▁चुनाव	-9.49252
▁खास	-9.49273
▁सामान	-9.49343
▁जाय	-9.49426
फ़ा	-9.49434
▁सदैव	-9.49457
▁तट	-9.49569
▁बढ़ाने	-9.49622
▁शिव	-9.49681
क़ा	-9.49724
द्य	-9.49813
▁(2)	-9.49911
र्च	-9.49928
▁चरण	-9.49979
▁विचारों	-9.50023
▁इंडिया	-9.5006
ॉन	-9.50086
▁पाक	-9.50124
Cit	-9.5019
मैं	-9.5025
क्षेप	-9.50266
▁नोट	-9.50272
▁पड़ता	-9.50293
्द	-9.50342
िड	-9.5042
▁हृदय	-9.50451
▁तथ्य	-9.50572
▁30	-9.5061
▁शक़	-9.50662
▁लगाया	-9.50841
▁अर्	-9.50895
▁R	-9.50909
▁25	-9.50955
▁मार्च	-9.51168
▁मिट्टी	-9.51174
▁कार्यों	-9.51206
ंगे	-9.5132
▁तेजी	-9.51363
▁हल	-9.51366
U	-9.51375
▁रहेगा	-9.51391
वाले	-9.51427
पत	-9.51431
▁भय	-9.51583
▁प्रत्यक्ष	-9.5164
अप	-9.51655
▁अनुच्छेद	-9.51673
▁पहला	-9.51768
F	-9.51777
▁जिसको	-9.51834
▁हालाँकि	-9.51942
▁उपबंध	-9.52
ाइड	-9.52014
▁भली	-9.52022
▁निशानियाँ	-9.52033
▁दृष्टिकोण	-9.52064
50	-9.52157
aà	-9.52245
बाहरी	-9.52466
▁दायित्व	-9.52593
▁सज़ा	-9.52685
▁गंभीर	-9.52838
▁बढ़ावा	-9.52933
वें	-9.52935
▁बीमा	-9.52938
▁देव	-9.53119
▁सत्र	-9.53144
▁गवाह	-9.53154
▁नौ	-9.53196
▁नये	-9.53203
क्षेत्र	-9.53222
ां	-9.53302
र्त	-9.53306
▁लोड	-9.53373
▁चलते	-9.53478
ल्ला	-9.53549
िज	-9.53723
18	-9.53813
टन	-9.53879
▁सच	-9.53951
▁उपयुक्त	-9.54086
बन्ध	-9.54163
▁चै	-9.54203
बंध	-9.54297
अल्लाह	-9.54305
चित्र	-9.54396
▁प्रशासन	-9.54514
▁दर्शन	-9.54522
▁स्वा	-9.54525
▁सांस्कृतिक	-9.54531
▁रुपये	-9.54557
पूर्व	-9.54682
▁नसीहत	-9.54698
▁अवि	-9.54899
▁हानि	-9.54899
▁वैश्विक	-9.5499
▁इनके	-9.55099
रस	-9.55133
▁रद्द	-9.55378
▁तकनीकी	-9.55477
हरगिज़	-9.55624
▁मिलने	-9.55666
▁श्रेणी	-9.55726
र्इ	-9.55801
ol	-9.55864
▁सलाह	-9.55866
▁वस्तुओं	-9.55891
▁रोजगार	-9.55918
▁देखें	-9.55942
▁गाय	-9.56059
▁पात्र	-9.56067
▁खाद्य	-9.56071
▁दोस्त	-9.56091
▁अंतरराष्ट्रीय	-9.56216
▁बद	-9.56311
स्त्र	-9.56313
▁देखो	-9.56416
▁B	-9.56431
▁पत्	-9.56509
▁टो	-9.56578
▁तार	-9.566
▁दशक	-9.56606
ग्रह	-9.56656
▁बनाकर	-9.56749
▁झगड़	-9.56772
▁महिलाओं	-9.56921
तल	-9.56971
▁14	-9.56987
▁दोष	-9.57061
▁व्यवसाय	-9.57065
▁दर्ज	-9.57082
▁शीर्ष	-9.57086
ज्ञा	-9.57094
▁बख्श	-9.57149
▁जिनका	-9.57261
फो	-9.57277
▁सिस्टम	-9.57288
ड्ड	-9.5729
▁क्षेत्रीय	-9.57298
्ल	-9.57334
डो	-9.57357
▁बीज	-9.57435
▁अग्र	-9.57456
▁उतर	-9.57471
▁विनिर्दिष्ट	-9.57532
डर	-9.57553
▁बनाई	-9.57655
▁यूरोप	-9.57671
▁गांव	-9.57684
▁प्रसिद्ध	-9.57704
▁घो	-9.57831
दू	-9.57835
▁बुरी	-9.57868
▁मिले	-9.58003
ाक	-9.58022
▁लेता	-9.58032
▁उत्तम	-9.58033
▁व्याख्या	-9.58054
जात	-9.58064
▁अनुवाद	-9.58164
▁मॉ	-9.58167
▁सुख	-9.58325
▁कठोर	-9.58351
▁दिये	-9.58354
▁नियुक्त	-9.58493
▁स्वरूप	-9.58561
▁विस्तृत	-9.58611
फल	-9.58617
▁विजय	-9.58629
▁अरब	-9.58659
▁अधिकतर	-9.58695
▁दिख	-9.58725
▁अधिकतम	-9.58729
▁दिखाया	-9.58749
▁मोह	-9.58769
▁0	-9.58833
▁शाह	-9.5886
▁क्ष	-9.58863
▁मेहरबान	-9.58871
▁अनुकूल	-9.58872
▁आस्ति	-9.58879
ब्ब	-9.58885
▁प्रयासों	-9.58886
▁स्वामी	-9.58892
▁the	-9.58923
▁पशु	-9.58983
▁बिजली	-9.59002
▁तत्व	-9.59025
▁स्था	-9.5905
▁समाचार	-9.59107
▁बेच	-9.59123
वृत्ति	-9.5928
न्ड	-9.59292
▁घरों	-9.59402
बो	-9.59422
''	-9.59446
फी	-9.59452
▁एच	-9.59535
▁गुना	-9.59554
▁संस्करण	-9.5958
▁मिशन	-9.59613
▁खोलें	-9.5963
▁छिपा	-9.59669
शु	-9.59692
हो	-9.5978
▁मार्गदर्शन	-9.59845
▁समक्ष	-9.59886
चित	-9.59931
▁आयोजन	-9.59931
▁मोड	-9.60018
▁इतनी	-9.60054
▁बावजूद	-9.60141
▁पार्टी	-9.60188
▁उन्	-9.60279
हन	-9.60308
▁पस	-9.60367
▁पंजाब	-9.60407
▁ग्राम	-9.60464
▁गुज़र	-9.60467
▁प्रयुक्त	-9.60468
ii	-9.60475
यु	-9.60531
▁टि	-9.60684
परि	-9.60699
▁पीठ	-9.60812
▁सूर्य	-9.60825
▁उद	-9.60892
▁मौसम	-9.60956
▁कहानी	-9.61108
▁कटौती	-9.61114
▁हालांकि	-9.61159
▁खुश	-9.61258
क्क	-9.61379
at	-9.61401
▁संचार	-9.61419
▁क़यामत	-9.61618
▁ग्राहक	-9.61694
क्ट	-9.61734
▁गुरु	-9.6188
▁निरंतर	-9.61918
▁पहल	-9.61985
स्टर	-9.62001
▁परस्पर	-9.62013
▁{	-9.6209
▁कथा	-9.62173
धे	-9.62231
▁सै	-9.62339
ed	-9.62355
निया	-9.62367
▁E	-9.6239
ic	-9.62432
▁आस	-9.62469
▁करनेवाला	-9.62651
▁पश्चिमी	-9.62854
▁स्पष्टीकरण	-9.62861
▁सबको	-9.62875
▁उपचार	-9.629
▁अनुमान	-9.62912
▁दीवार	-9.62917
▁विमान	-9.63011
▁सामना	-9.63037
▁गुप्त	-9.63091
वालों	-9.6315
अपनी	-9.63184
▁गुजरात	-9.63196
▁खाली	-9.63216
▁मशीन	-9.63233
कता	-9.63264
▁रोज़	-9.63295
▁पर्वत	-9.633
▁विद्युत	-9.63454
▁रोज़ी	-9.63512
वां	-9.6354
▁जाएं	-9.63551
ठी	-9.63555
▁आर्	-9.63592
is	-9.63602
टिक	-9.63623
▁बंध	-9.6363
▁पसंद	-9.63672
▁विशेषता	-9.6371
▁निभा	-9.63736
▁सूक्ष्म	-9.63773
▁निदेशक	-9.63776
▁विवाद	-9.63791
ुआ	-9.63841
▁लेख	-9.63848
▁आसान	-9.63875
▁ख़ा	-9.63884
▁टा	-9.63928
▁वायदा	-9.63942
▁G	-9.63954
▁दौर	-9.64023
प्	-9.64095
▁वृ	-9.64095
▁सरदार	-9.64104
्रे	-9.64146
▁काट	-9.64146
▁सरकश	-9.64158
ैन	-9.6416
▁गतिविधियों	-9.64169
▁गोल	-9.64183
िये	-9.64193
भारत	-9.64284
▁वातावरण	-9.64369
▁आइ	-9.6439
कारों	-9.64473
▁पूर्ववर्ष	-9.64487
ंदा	-9.64596
ोप	-9.64612
▁मू	-9.64622
▁सकेगा	-9.64625
▁ज़रुर	-9.64646
▁मिलकर	-9.64765
▁उम्मीद	-9.64944
्रि	-9.64996
पेक्ष	-9.6504
ांक	-9.65048
▁यंत्र	-9.65068
▁पाए	-9.6509
▁खड़ा	-9.65094
▁लिखने	-9.65132
ल्ट	-9.65267
▁हिन्दू	-9.65292
▁पुत्र	-9.65313
वै	-9.65433
▁दि	-9.65458
ियर	-9.6549
▁अभियान	-9.65505
▁मुसलमानों	-9.65713
▁पदार्थ	-9.6579
us	-9.65792
▁ग्रहण	-9.65816
लन	-9.65875
क्षण	-9.65911
▁तिथि	-9.6601
▁कब	-9.66103
▁वेतन	-9.66117
▁फैल	-9.66221
▁एफ	-9.66231
▁सां	-9.66288
▁स्वागत	-9.66349
▁नेता	-9.66391
▁क्लिक	-9.66413
▁माता	-9.66452
▁कर्मचारियों	-9.66458
▁नियमित	-9.66473
मल	-9.66591
▁चलता	-9.66602
▁50	-9.66664
▁करनेवाले	-9.66679
▁महसूस	-9.66787
▁मतलब	-9.66788
▁संपूर्ण	-9.66908
▁स्त्री	-9.66981
दारी	-9.66994
▁c	-9.67033
▁नियमों	-9.67037
th	-9.67096
hi	-9.67143
▁पैर	-9.67232
▁सुंदर	-9.67262
लंब	-9.67365
▁कार्ड	-9.67389
▁परीक्षण	-9.67405
▁दावा	-9.67432
▁बनाएँ	-9.67444
G	-9.67498
लु	-9.67499
▁भेजे	-9.67602
▁हाथों	-9.6763
▁प्राप्ति	-9.67659
▁17	-9.67781
▁पलट	-9.67815
▁त्रि	-9.67903
▁फूल	-9.67906
▁उदार	-9.67909
▁अवैध	-9.67924
भार	-9.67951
▁बोझ	-9.68081
▁वाद	-9.68089
ro	-9.68095
शक्ति	-9.68097
लर	-9.68147
▁कल्याण	-9.68161
▁तल	-9.68216
▁अफ्रीका	-9.68305
▁दर्शा	-9.68345
▁सड़क	-9.68372
रुप	-9.68457
▁श्र	-9.68465
▁फिल्म	-9.68545
▁घट	-9.68562
¤¤	-9.68599
▁झुठलाया	-9.68627
ग्रस्त	-9.68648
▁कार्रवाई	-9.68688
▁हिसाब	-9.68688
स्तर	-9.68855
▁तय	-9.68859
▁धु	-9.68927
तया	-9.68967
▁स्वच्छ	-9.69068
▁हद	-9.69074
▁वेब	-9.69085
▁हाँ	-9.69104
▁आवास	-9.69192
▁नामक	-9.69195
वेद	-9.69217
▁कारबार	-9.6924
ra	-9.69265
फे	-9.69279
▁अक्सर	-9.69315
▁इन्हें	-9.69362
▁काव्य	-9.6942
▁ख़र्च	-9.69472
▁मात्र	-9.69517
▁रहें	-9.69551
▁शुभकामनाएं	-9.69603
▁प्रावधान	-9.69652
▁पाकिस्तान	-9.69656
▁सप्ताह	-9.697
▁भरोसा	-9.69701
▁इबादत	-9.69749
पि	-9.69758
▁भला	-9.69777
▁एं	-9.69867
▁भौतिक	-9.69943
नेवाली	-9.6995
▁सहेजें	-9.6996
▁आयुक्त	-9.69982
▁खाने	-9.69998
ेज	-9.70002
▁तौबा	-9.7004
▁जीवित	-9.70065
▁सहेज	-9.70119
▁दंड	-9.70133
▁x	-9.70143
गण	-9.70219
▁–	-9.70227
म्म	-9.70308
▁दिला	-9.70317
▁देकर	-9.70336
पार	-9.70361
▁जोर	-9.70376
▁शुद्ध	-9.70397
▁प्रसन्नता	-9.7043
▁कल्पना	-9.70529
मार	-9.70533
▁जिनकी	-9.70547
▁पुन	-9.70585
▁समस्याओं	-9.70613
▁ऊ	-9.70625
दन	-9.70647
▁जनवरी	-9.70675
▁टन	-9.70705
▁अंतर्राष्ट्रीय	-9.70726
एँगे	-9.70761
▁अंश	-9.70828
▁शख़्श	-9.7087
▁क्षति	-9.70969
▁जून	-9.70974
कला	-9.71026
▁पेज	-9.71039
▁हिस्से	-9.71066
▁अद्यतन	-9.71263
▁खूब	-9.71264
िस्ट	-9.71452
र्ष	-9.71468
▁कितने	-9.71479
▁बढ़कर	-9.71598
▁उपभोक्ता	-9.71608
▁खेती	-9.71612
▁मिलती	-9.71739
वासी	-9.71837
▁खाना	-9.71862
▁गैस	-9.71952
मित	-9.72001
अलग	-9.72003
▁मानसिक	-9.72006
▁बजा	-9.72053
▁इजरायल	-9.72054
▁चलो	-9.72059
▁गणराज्य	-9.72107
▁माबूद	-9.72153
हु	-9.72193
08	-9.72254
ंप	-9.72258
▁पुराने	-9.72313
▁अंड	-9.72324
▁भलाई	-9.72341
▁वितरण	-9.72453
▁शून्य	-9.72501
▁मान्यता	-9.72506
▁तेज	-9.72529
▁पट	-9.72608
प्रभु	-9.72619
▁खुशी	-9.727
▁शुक्र	-9.72716
▁परियोजनाओं	-9.72768
▁पू	-9.72781
लिंग	-9.72787
▁परंपरा	-9.72824
▁शुरुआत	-9.72851
▁चो	-9.73013
▁बाहरी	-9.73052
▁दूध	-9.73086
▁नेतृत्व	-9.73151
▁जैव	-9.73197
▁तकनीक	-9.73246
▁जुड़े	-9.73279
▁लेन	-9.73353
▁जायेगा	-9.73418
▁लगाने	-9.73498
▁सद	-9.73551
रिक	-9.73569
▁एवोल्यूशन	-9.73705
▁बदलें	-9.73707
▁लु	-9.73748
▁सवाल	-9.73773
▁ख्याल	-9.73863
▁हिंदू	-9.73907
दुनिया	-9.73928
योजन	-9.74032
▁ग्	-9.74049
▁13	-9.74093
▁धीरे	-9.74124
▁ज़ुल्म	-9.7416
▁निर्देशिका	-9.7416
सार	-9.74192
▁स्थिर	-9.74262
भर	-9.74328
▁छु	-9.74465
▁रेल	-9.7449
▁कितनी	-9.74492
न्या	-9.7451
▁इत्यादि	-9.74515
भाँति	-9.74516
▁100	-9.74565
▁शत्रु	-9.74719
▁उसपर	-9.74725
विज्ञान	-9.74726
▁दीन	-9.74762
▁चर	-9.74811
▁ध्वनि	-9.74872
▁गर्म	-9.74873
विक	-9.74948
▁प्रतिभा	-9.7501
▁प्रयोजन	-9.75013
▁उपन्यास	-9.75076
▁मूल्यांकन	-9.75089
ैक	-9.75094
▁2.	-9.75113
▁अनुसरण	-9.75128
▁कार्यक्रमों	-9.75168
▁शु	-9.7523
▁प्रतिनिधि	-9.75266
बाद	-9.75285
▁काफ़िर	-9.75436
▁गर्भ	-9.75489
वाली	-9.75554
▁शीर्षक	-9.75575
ॉल	-9.75661
▁आज्ञा	-9.75724
▁ईमानदार	-9.75731
▁गंगा	-9.75739
▁खुले	-9.7577
▁उत्कृष्ट	-9.75794
▁कमांड	-9.758
▁जाएंगे	-9.75867
जिस	-9.75871
ur	-9.75885
▁बजे	-9.75944
▁प्रार्थना	-9.76001
ीर	-9.76026
ing	-9.76029
िष्ट	-9.76067
षित	-9.76212
▁कराने	-9.76238
▁फ्र	-9.76247
▁पर्यटन	-9.7626
तार	-9.76328
▁पत्नी	-9.76347
▁साइ	-9.76356
▁आनंद	-9.76369
▁पढ़ा	-9.76398
न्स	-9.76425
▁अप्र	-9.76448
पत्ति	-9.7649
▁स्क्रीन	-9.76518
▁चीज	-9.76567
▁गृह	-9.76603
▁ख़ास	-9.76625
▁अंतरण	-9.76646
▁नील	-9.76646
▁आये	-9.767
▁आपूर्ति	-9.76708
▁बातचीत	-9.76727
▁बढ	-9.76745
▁संस्थाओं	-9.76862
क़यामत	-9.76866
ोत्	-9.76901
▁छूट	-9.76929
▁द्वार	-9.76932
▁करार	-9.77017
▁मानो	-9.7704
▁मुझ	-9.77093
ाकार	-9.77159
▁फे	-9.77183
▁अस्तित्व	-9.77195
▁३	-9.77275
▁फरमा	-9.7732
▁घु	-9.77343
▁डरते	-9.77348
निर्	-9.77391
▁कर्मचारी	-9.77509
▁स्वतंत्र	-9.77568
▁बनाते	-9.77634
▁पट्टी	-9.77659
▁ऐतिहासिक	-9.77771
िनी	-9.77772
अर	-9.77851
▁मिटाएँ	-9.77885
२००	-9.77915
H	-9.77921
ेक्ट	-9.77922
et	-9.77966
▁वैध	-9.77983
▁तेरे	-9.77994
▁अत्यधिक	-9.78034
▁प्रेरित	-9.78034
▁बेटे	-9.7805
▁किस्म	-9.78066
▁विद्यार्थियों	-9.78139
▁जानी	-9.78164
▁खिलाफ	-9.78248
▁पंचांग	-9.78298
▁पेट	-9.78548
िटी	-9.78563
धर्म	-9.7857
▁अंग्रेज	-9.78595
थे	-9.78601
▁यु	-9.78615
▁कौशल	-9.78616
▁ट्रे	-9.78623
ेश्वर	-9.78684
ri	-9.78777
▁लक्षण	-9.78825
▁मामला	-9.7883
▁मुसलमान	-9.78926
▁L	-9.78994
▁इकाई	-9.79025
▁परामर्श	-9.7904
▁निशानी	-9.79156
▁बजाय	-9.79168
▁बुराई	-9.79251
▁प्रारूप	-9.79346
दूर	-9.79452
▁स्तंभ	-9.79627
▁मल	-9.79675
▁देखभाल	-9.79841
▁बिक्री	-9.79842
▁अदा	-9.79845
▁अल्प	-9.79857
02	-9.79874
▁लाइन	-9.79901
ुन	-9.79933
▁किसान	-9.79949
▁आयतें	-9.79953
▁लॉग	-9.80034
▁प्रोत्साहन	-9.80056
▁सौंप	-9.80089
▁फो	-9.80153
▁दुआ	-9.80282
▁कक्ष	-9.80346
09	-9.80408
▁सुबह	-9.80597
▁ज़ालिम	-9.806
▁नजर	-9.80742
▁भगवान	-9.80752
▁बदलाव	-9.80798
▁N	-9.80811
▁हराम	-9.80833
▁सृजन	-9.80866
▁जमीन	-9.80872
▁प्रतिक्रिया	-9.80877
▁गरीब	-9.80895
▁बुनियादी	-9.80944
ीम	-9.80956
जु	-9.81021
▁नज़र	-9.81043
▁लाया	-9.81089
▁प्रचार	-9.81104
▁लोकप्रिय	-9.81137
ंदी	-9.81145
▁मैदान	-9.81148
▁डरा	-9.81187
पात	-9.81201
▁उपयोक्ता	-9.81246
न्ध	-9.81255
▁ब्ल	-9.81256
▁सीख	-9.81298
V	-9.81324
▁वादा	-9.81363
प्ट	-9.81488
▁शुभ	-9.81544
▁अंतर्	-9.81616
▁विशेषज्ञ	-9.81635
खंड	-9.81664
▁ईमानदारों	-9.81716
▁...	-9.81767
▁ठिकाना	-9.81791
▁समस्त	-9.81848
▁प्राथमिकता	-9.81941
▁होनी	-9.81952
Comment	-9.81955
▁कृष्ण	-9.8201
▁वाद्य	-9.82013
▁नष्ट	-9.82065
भू	-9.82079
▁लोकतंत्र	-9.82137
ृत	-9.82154
▁दिनांक	-9.82159
▁मंच	-9.8216
प्रति	-9.82208
▁दौड़	-9.8229
▁भाषण	-9.82307
▁अं	-9.82309
▁रेखा	-9.82359
▁फ़ैसला	-9.82449
▁ग्रंथ	-9.8256
▁दू	-9.82607
▁ग़रज़	-9.82628
▁ख़ुश	-9.82673
हू	-9.82719
तुल	-9.8272
▁अध	-9.82812
▁जंगल	-9.82867
▁आग्रह	-9.82882
त्ता	-9.82908
30	-9.82941
▁आठ	-9.82958
खी	-9.83102
▁लगातार	-9.83105
▁चारों	-9.83106
टिंग	-9.8312
दादा	-9.83125
▁अक्षम	-9.8313
▁बिहार	-9.83191
▁आध्यात्मिक	-9.83223
माल	-9.83226
पाद	-9.83265
▁रास्ता	-9.8328
▁विविध	-9.83289
▁सीधा	-9.83299
▁अर्थात्	-9.83345
▁इतने	-9.83395
▁प्रकाशन	-9.83506
▁जड़	-9.83547
योजित	-9.83577
हालॉकि	-9.83617
▁बैंकों	-9.83637
▁पौ	-9.83657
▁विद्वान	-9.83668
रेट	-9.8375
▁न्यूनतम	-9.8378
▁पूजा	-9.83825
▁सेवाएं	-9.83887
▁संबंधों	-9.83927
▁सामर्थ्य	-9.83947
▁g	-9.84027
▁भटक	-9.84042
▁पवित्र	-9.84059
▁आख़िर	-9.8407
▁दुख	-9.84075
▁उड़ा	-9.84084
ग्न	-9.84141
▁रौशन	-9.84171
▁पढ़ने	-9.84181
▁मां	-9.84207
▁कहता	-9.84213
▁कू	-9.84296
▁मौत	-9.84367
iv	-9.84375
वर्त	-9.84376
▁ठहर	-9.84384
▁ड्र	-9.84396
ंगल	-9.8442
▁असमर्थ	-9.84459
▁थोड़ा	-9.84474
▁ज्ञापन	-9.84508
▁उम्र	-9.84564
▁शिकार	-9.84594
▁स्मृति	-9.8462
▁बनने	-9.84675
▁विनियम	-9.84676
ड़ों	-9.84683
el	-9.847
▁उभर	-9.84717
फ़र	-9.84748
▁यथा	-9.84769
▁स्त्रियों	-9.8479
▁पेड़	-9.84855
▁प्रायः	-9.84959
हत	-9.85008
ोत्तर	-9.85124
लेट	-9.85126
▁मज़ा	-9.85128
▁खि	-9.852
li	-9.8522
▁करीब	-9.85303
चाल	-9.85345
▁गुमराही	-9.85521
▁ख़ूब	-9.85638
▁शोध	-9.85666
▁in	-9.85669
▁आंतरिक	-9.85695
▁शरीक	-9.85766
▁औसत	-9.85867
as	-9.85891
▁निर्वाचन	-9.86036
▁तीव्र	-9.86093
दास	-9.86146
▁पुर	-9.86147
▁उठाए	-9.86213
▁तभी	-9.8623
▁घरेलू	-9.86265
षा	-9.86283
▁वीर	-9.86287
▁वृक्ष	-9.86329
▁थो	-9.86416
कृति	-9.8642
▁पड	-9.86425
▁पुस्तिका	-9.86494
हरा	-9.86559
पूर	-9.86613
▁गवाही	-9.86619
▁महत्त्वपूर्ण	-9.8662
सभा	-9.86693
▁प्रवाह	-9.86715
कन	-9.86736
▁संसाधनों	-9.86821
▁साम्राज्य	-9.86896
▁विषयों	-9.86911
▁नृत्य	-9.86954
▁तरीका	-9.86955
▁रास्ते	-9.86982
▁मीडिया	-9.8702
▁प्रबंध	-9.87024
सम	-9.87057
▁मुंबई	-9.87069
▁बू	-9.8707
▁त्याग	-9.87071
▁पारित	-9.87079
▁ज़ि	-9.871
▁नागरिकों	-9.87205
▁परहेज़गार	-9.87242
ढ़ा	-9.87247
▁प्रभार	-9.87304
कुल	-9.87344
▁मैने	-9.87385
िक्स	-9.87506
▁व्	-9.87511
▁घेर	-9.87575
भोग	-9.87583
मिन	-9.87649
▁सार	-9.87655
▁वर्	-9.87661
▁आओ	-9.87693
▁स्थानों	-9.87696
▁जोखिम	-9.87706
▁ख़ुद	-9.87738
▁रुपए	-9.87762
▁संचालन	-9.87763
▁कम्प	-9.87763
▁प्रतिभूति	-9.87812
▁दस्तावेज़	-9.87816
▁जल्द	-9.87819
▁भार	-9.87843
▁दूरी	-9.87844
हल	-9.87851
▁देखकर	-9.87888
▁दबा	-9.87952
राव	-9.88054
▁विधेयक	-9.88112
देन	-9.88177
न्ना	-9.88253
▁उद्घाटन	-9.88287
:%	-9.88342
▁अभिप्रेत	-9.88345
हाँ	-9.88353
हाल	-9.88419
▁भागीदारी	-9.88435
▁दयावान	-9.88474
▁रीति	-9.88478
▁ऑनलाइन	-9.8852
▁परिस्थितियों	-9.88604
▁छात्र	-9.88756
पै	-9.88839
▁एकत्र	-9.8884
▁विश्लेषण	-9.88872
▁टूट	-9.88999
कालीन	-9.89
ौल	-9.89004
▁सैनिक	-9.89006
▁अध्याय	-9.89008
▁दृढ़	-9.89048
▁देवी	-9.89051
▁w	-9.89066
▁तमाम	-9.8911
▁ची	-9.89164
▁सर्वोच्च	-9.89166
▁पूछा	-9.89211
▁असम	-9.89217
धन	-9.89229
▁24	-9.8925
▁फ्ल	-9.89256
टक	-9.89277
▁घटा	-9.89329
▁वचन	-9.89397
ट्स	-9.89406
▁सहकारी	-9.89415
▁बोले	-9.8942
▁भाषाओं	-9.89454
छा	-9.89513
▁तुझे	-9.8953
!"	-9.89576
▁बाबत	-9.89582
▁दूसरों	-9.89638
▁खींच	-9.89639
▁री	-9.89656
रोध	-9.89663
▁गठन	-9.89759
▁आरोप	-9.89781
▁सिवाय	-9.89919
▁लड़के	-9.89965
▁आसानी	-9.90092
▁राज्यपाल	-9.90129
▁अगस्त	-9.90173
▁असं	-9.90267
ce	-9.90366
▁प्रतीत	-9.90373
▁स्वतः	-9.90392
▁चक्र	-9.90421
▁विष	-9.90423
▁दयालुता	-9.9047
▁फोन	-9.90541
▁उन्नत	-9.90651
html	-9.90656
▁दवा	-9.90684
45	-9.90715
▁भु	-9.90761
▁मोमिन	-9.90877
यल	-9.90896
▁मीटर	-9.91054
▁न्यायाधीश	-9.91068
▁मुह	-9.91086
ch	-9.91111
बोध	-9.91116
▁संवाद	-9.9116
de	-9.91269
▁लड़ाई	-9.91427
▁घोषित	-9.91557
▁किनारे	-9.91565
▁फैसला	-9.9173
▁मई	-9.91744
शाला	-9.91914
▁कोड	-9.91919
▁डाटा	-9.91956
▁अन्त	-9.91991
ेंद्र	-9.92079
▁पोर्ट	-9.92091
▁पॉ	-9.92099
▁सर्वाधिक	-9.92144
la	-9.92145
▁संबोधित	-9.92154
▁निवास	-9.92162
▁लिंक	-9.92162
▁मजदूर	-9.92215
▁डाले	-9.92215
05	-9.92283
▁दीर्घ	-9.92334
▁सिखा	-9.92341
▁द्वीप	-9.92426
▁माह	-9.92436
▁चेतना	-9.9246
▁कॉल	-9.92508
90	-9.92532
▁प्राथमिक	-9.92534
▁पसन्द	-9.92557
▁कानूनी	-9.92565
▁पहन	-9.92594
▁औषध	-9.92643
▁अनुरोध	-9.92673
▁जितना	-9.92769
▁सूर	-9.92824
▁उठाने	-9.92851
▁चलने	-9.92914
▁ग़ालिब	-9.92946
▁जाओगे	-9.92973
▁लौटा	-9.92984
▁अज्ञात	-9.93007
▁करवा	-9.93037
07	-9.93107
ोगे	-9.93137
यदि	-9.93187
▁विन्यास	-9.93191
▁देखता	-9.93361
▁युक्ति	-9.93417
14	-9.93444
▁जय	-9.93458
▁पति	-9.9346
▁आनन्द	-9.93502
▁हिंदी	-9.93521
▁आवाज़	-9.93529
लाल	-9.93555
▁सदा	-9.93557
▁आश्चर्य	-9.93559
▁उधार	-9.93584
▁भागों	-9.93619
▁छह	-9.93625
ूं	-9.93676
▁हत्या	-9.93684
▁करेगी	-9.93719
▁अन्दर	-9.93762
▁आक्रमण	-9.93867
▁महामहिम	-9.93929
▁प्रसार	-9.93988
▁समृद्ध	-9.94005
▁जटिल	-9.94053
जब	-9.94067
▁प्रयत्न	-9.94114
क्रिया	-9.94206
▁जू	-9.94258
लोगों	-9.9426
▁प्रतीक्षा	-9.943
▁औलाद	-9.94301
▁संकट	-9.94314
ध्या	-9.94435
▁प्रिय	-9.94492
स्थान	-9.94501
▁अनुरूप	-9.94516
▁नेहरू	-9.94613
▁मुक़ाबले	-9.94672
ियत	-9.94706
▁परिणामस्वरूप	-9.94735
▁नैतिक	-9.94735
▁विपरीत	-9.94797
गन	-9.94848
il	-9.94891
▁लेंगे	-9.94926
▁कमजोर	-9.94928
▁आरम्भ	-9.9493
▁सिफारिश	-9.95046
▁क़ा	-9.95062
▁उत्पादों	-9.95082
▁बीमारी	-9.95083
ेंट	-9.95117
▁लिखी	-9.95118
▁खुला	-9.95133
▁अधिकारों	-9.95164
▁साबित	-9.95236
वाई	-9.9526
17	-9.9528
▁e	-9.95282
▁वेद	-9.95318
▁बीमार	-9.95328
आप	-9.95336
▁चीन	-9.95377
तंत्र	-9.95453
▁लोगो	-9.95459
▁सुझाव	-9.95481
▁प्रतिनिधित्व	-9.95504
▁उपबंधों	-9.95517
केट	-9.95568
▁होंगी	-9.95653
▁बन्दगी	-9.95669
▁दया	-9.957
▁विद्यमान	-9.95736
▁प्रेरणा	-9.95862
कल्प	-9.95904
▁समर्थ	-9.95923
▁समझौता	-9.95925
▁रस	-9.95947
▁यक़ीनी	-9.96023
mukh	-9.96051
▁कूटशब्द	-9.96052
▁ज़ाहिर	-9.96114
▁पृथ्वी	-9.96114
ूंगा	-9.96168
त्म	-9.9617
▁प्रशंसा	-9.96178
▁नूह	-9.96183
16	-9.96192
स्ती	-9.96245
▁चिंता	-9.96253
▁सचिव	-9.96293
▁जनसंख्या	-9.96303
▁जिनको	-9.96428
▁कितना	-9.96457
ॉँ	-9.96531
▁ज़िम्मे	-9.96556
▁उत्पादक	-9.96587
▁उपयोगी	-9.96722
▁तोड़	-9.96741
ंभ	-9.96749
घर	-9.968
जल	-9.96855
िकल	-9.96908
▁सर्वेक्षण	-9.96937
▁मिनट	-9.97015
▁नोड	-9.97089
prana	-9.97129
erje	-9.97129
वाल	-9.97135
▁उपक्रम	-9.97162
▁समाप्ति	-9.97347
▁सच्चा	-9.97354
▁कर्तव्य	-9.97448
▁घटक	-9.97478
कर्ताओं	-9.97494
prh	-9.97576
▁चाह	-9.97612
▁शिखर	-9.97642
▁जहाज	-9.97652
▁अर्थात	-9.97659
75	-9.97726
ूँगा	-9.97748
हरी	-9.97804
▁खुली	-9.9788
▁धैर्य	-9.97961
▁बादशाह	-9.98032
▁हार	-9.98065
▁वैसे	-9.98113
▁भंडार	-9.98122
▁राजनैतिक	-9.98218
▁सन्तान	-9.98227
▁बॉ	-9.9825
मिल	-9.98254
▁एंड	-9.98299
▁इन्कार	-9.98359
▁सहज	-9.98378
▁मुझसे	-9.98416
भव	-9.9856
▁देर	-9.98675
ैक्ट	-9.98723
▁एड	-9.98789
▁प्राधिकारी	-9.98801
▁पंजीकरण	-9.98815
▁उच्चतम	-9.98876
र्ध	-9.98921
▁वर्षा	-9.98937
पंथ	-9.98939
▁शासक	-9.98944
▁ट्रैक	-9.98975
▁चढ़	-9.99092
ेंस	-9.99166
▁वहीं	-9.99223
▁काफ़ी	-9.99248
ेन्द्र	-9.99255
56	-9.99303
▁निकाय	-9.99316
▁चमक	-9.99326
▁वर	-9.9937
▁21	-9.99381
▁कार्यान्वयन	-9.99385
▁औरतों	-9.99431
▁ब्रा	-9.99566
▁अर	-9.99642
कुफ़्र	-9.99654
▁टीम	-9.99657
कभी	-9.99688
▁शारीरिक	-9.99712
अज़ाब	-9.99782
ावली	-9.99821
▁कौ	-9.99874
▁b	-9.99947
▁डाउनलोड	-9.99974
▁अधिसूचना	-9.99981
▁n	-9.99991
vi	-10.0003
▁अदालत	-10.0011
▁साफ़	-10.0021
▁अल्	-10.0026
▁संगठनों	-10.0027
▁पाई	-10.0037
▁निहित	-10.0042
्री	-10.0046
▁मुद्दों	-10.005
▁सुभाष	-10.0057
▁नबी	-10.0068
शिया	-10.0069
▁लिखित	-10.007
¤1	-10.0072
▁न्यास	-10.0076
▁चुने	-10.0088
▁पहुँचे	-10.0088
श्य	-10.0089
▁पाते	-10.0096
▁कनेक्शन	-10.0096
▁पाठ्यक्रम	-10.0103
▁डाय	-10.0114
लोक	-10.0114
▁पेंशन	-10.0116
▁सशक्त	-10.0131
▁जाकर	-10.0135
यान	-10.0136
▁उठाया	-10.0137
▁उपर	-10.0138
▁अमेरिकी	-10.0143
▁शैक्षिक	-10.0143
▁श्रम	-10.0143
▁यूसुफ	-10.0145
वेश	-10.015
▁विवेक	-10.015
▁गण	-10.015
▁प्रबंधक	-10.015
▁सुविधाओं	-10.0157
▁चुनौती	-10.0163
▁U	-10.0163
डु	-10.0166
▁गतिविधि	-10.0167
▁जिनसे	-10.0172
▁उलट	-10.0175
▁अक्षर	-10.0186
समय	-10.0194
▁हॉ	-10.0195
▁ताकत	-10.0201
पक्ष	-10.0202
▁परिवहन	-10.0203
ृष्ट	-10.0203
19	-10.0208
▁माप	-10.0212
▁आंख	-10.0218
j	-10.0223
03	-10.0225
प्राप्त	-10.0225
लिया	-10.0226
▁of	-10.023
▁अन्	-10.0232
▁उद्योगों	-10.0232
▁वर्ण	-10.0238
▁हरि	-10.0239
▁बटन	-10.0244
▁तूने	-10.0247
▁चीज़ों	-10.0248
▁घंटे	-10.025
▁जिले	-10.0256
▁प्रोत्साहित	-10.0257
▁संगम	-10.0261
▁ज्ञात	-10.0266
▁गणना	-10.0267
▁छि	-10.0272
▁पड़ी	-10.0273
कर्म	-10.0276
▁श्रृंखला	-10.0277
▁नक़ल	-10.0278
▁उत्साह	-10.0284
कुछ	-10.0284
ॉट	-10.0285
▁31	-10.0288
▁दुर्	-10.0307
लाइन	-10.0323
▁दाखिल	-10.0324
नगर	-10.0325
60	-10.0327
▁h	-10.0332
▁कार्यवाही	-10.0338
▁समीक्षा	-10.0345
राज्य	-10.0349
▁उड़	-10.0356
▁अगला	-10.0364
▁निगरानी	-10.0365
▁फिरऔन	-10.0365
▁पाल	-10.0368
▁यूनिट	-10.0372
▁Name	-10.0373
▁केरल	-10.0378
▁मांस	-10.0379
थान	-10.038
▁अन्यथा	-10.0385
▁अकबर	-10.0386
▁पूज्य	-10.0386
▁रहमत	-10.0389
▁रेलवे	-10.039
▁धारण	-10.039
▁अभिव्यक्ति	-10.0401
▁सलाम	-10.0401
▁ज़िन्दगी	-10.0406
मानी	-10.0412
▁परिवर्तित	-10.0413
▁सूत्र	-10.0416
▁पूर्वी	-10.0421
पना	-10.0423
श्म	-10.0424
▁मुश्किल	-10.0426
▁समर्पित	-10.0426
बूझ	-10.0427
▁छात्रों	-10.0432
▁तलाश	-10.0434
▁क़ुरान	-10.044
▁खान	-10.0444
▁नयी	-10.0445
▁कहाँ	-10.045
▁सेटिंग	-10.0456
▁घाट	-10.0458
▁बदलने	-10.0459
▁मुलाकात	-10.0467
▁आवाज	-10.0472
▁स्कीम	-10.0476
▁मुक़र्रर	-10.0477
70	-10.0478
▁संयंत्र	-10.0479
▁महाराष्ट्र	-10.0482
दर्श	-10.0483
▁जीत	-10.049
▁घड़ी	-10.049
▁आँख	-10.0492
▁कलकत्ता	-10.0495
झा	-10.0497
▁सॉफ्टवेयर	-10.0502
▁इंटरनेट	-10.0502
▁संपादक	-10.0502
▁फेंक	-10.0511
▁मर्द	-10.0518
47	-10.0523
▁साझीदार	-10.0525
याद	-10.0529
▁झुक	-10.0538
▁राजस्थान	-10.0539
▁मस्तिष्क	-10.0542
▁मिलेगा	-10.0543
▁युक्त	-10.055
▁हमसे	-10.0553
ंडा	-10.0558
▁पुस्तकालय	-10.056
▁अनुपात	-10.0562
लिन	-10.0562
▁साहस	-10.0573
▁(3)	-10.0574
▁चालू	-10.0581
▁सभ्यता	-10.0585
▁जादू	-10.0588
▁समग्र	-10.059
ड्र	-10.059
▁लगते	-10.0592
▁अस्थि	-10.0593
ँग	-10.0597
बिल	-10.0603
खु	-10.0611
▁तस्वीर	-10.062
▁विरोधी	-10.0624
▁मिसाल	-10.0627
▁सरकारों	-10.0628
▁विभाजन	-10.0634
▁जेल	-10.0641
▁पृष्ठभूमि	-10.0649
▁आसपास	-10.0662
▁कागज	-10.0663
▁तथापि	-10.0664
▁बरस	-10.0675
▁लाते	-10.0676
मै	-10.0688
▁जरिए	-10.069
13	-10.069
रोह	-10.0698
▁फै	-10.0699
▁पह	-10.07
ट्रो	-10.0702
▁सचेत	-10.0705
▁फार्म	-10.0709
▁उक्त	-10.0713
▁गुफा	-10.0715
गामी	-10.0716
▁प्रारंभिक	-10.0716
▁नुकसान	-10.0718
▁वंश	-10.0724
▁छाप	-10.0724
▁भेजें	-10.0726
▁सतह	-10.0727
88	-10.0728
र्ति	-10.073
48	-10.0736
िज़	-10.0738
▁संदेह	-10.0739
▁आकर	-10.0739
ia	-10.0745
▁अचानक	-10.0746
देह	-10.0758
▁निष्क्रिय	-10.0768
्लो	-10.0772
▁श्रेष्ठ	-10.0775
15	-10.0776
▁नंबर	-10.0776
पू	-10.0783
हरे	-10.0785
op	-10.0789
▁फु	-10.0789
देख	-10.0794
ावधि	-10.0795
▁जलवायु	-10.0796
▁बहा	-10.08
▁80	-10.0801
▁द्वि	-10.0801
▁हवाई	-10.0806
▁कुफ्फ़ार	-10.0809
▁जुलाई	-10.081
▁महात्मा	-10.0818
▁कश्मीर	-10.0818
्ज़	-10.0819
▁कदापि	-10.0824
धिक	-10.0825
▁नाग	-10.0829
▁शहरी	-10.0837
▁खुल	-10.0839
▁लंबे	-10.0839
य्य	-10.0844
क़्	-10.0849
▁अंध	-10.0852
ऑ	-10.0854
▁महल	-10.0855
tr	-10.0864
▁मोबाइल	-10.0867
्यो	-10.0878
▁लानेवालो	-10.0879
▁दरमियान	-10.0882
▁द्वितीय	-10.0889
श्च	-10.0893
व्	-10.0894
▁दोहरा	-10.0898
▁पत्रिका	-10.0898
▁फर्	-10.09
▁इनका	-10.09
:-	-10.0901
▁देय	-10.0902
क़्त	-10.0907
▁H	-10.0911
▁रोकने	-10.0924
▁प्राधिकरण	-10.0925
▁लै	-10.0925
▁देखे	-10.0926
▁मकान	-10.0927
ाणु	-10.0927
04	-10.0927
▁फ़ॉन्ट	-10.0932
▁तंग	-10.0938
लिप	-10.0943
गाह	-10.0945
▁मॉडल	-10.0946
▁इसको	-10.0955
मूल	-10.0959
▁क्षमाशील	-10.0964
▁करोगे	-10.0964
▁शहरों	-10.0966
▁हस्त	-10.0974
▁दुखद	-10.0979
▁सजदा	-10.0981
▁संलग्न	-10.0986
एच	-10.099
▁अना	-10.0991
▁जन्नत	-10.0997
क़ियामत	-10.0997
▁”-	-10.1004
▁प्रतिष्ठा	-10.1005
ानु	-10.1009
ट्री	-10.1014
▁इकट्ठा	-10.1019
▁पारंपरिक	-10.1019
▁छिप	-10.1021
है	-10.1025
▁घाटे	-10.1026
▁Y	-10.1031
ँट	-10.1035
▁आराम	-10.1039
▁28	-10.1042
▁समर्थित	-10.1053
te	-10.1063
▁अनुदान	-10.1064
▁राजनीति	-10.1064
▁संत	-10.1064
▁प्यार	-10.1065
▁बग	-10.1071
▁आकर्षित	-10.1084
▁पुरानी	-10.1086
▁ज़्यादा	-10.1092
▁नेताओं	-10.1095
▁साझा	-10.1096
▁कोशिका	-10.1097
▁चोट	-10.11
▁अगल	-10.1103
▁नेपाल	-10.1103
▁नेअमत	-10.1106
▁योजनाओं	-10.1111
2019	-10.1114
ho	-10.1115
▁विशेषकर	-10.1121
▁जापान	-10.1125
▁चैनल	-10.1129
ख्या	-10.1132
▁सागर	-10.1134
000	-10.1135
▁कंपनियों	-10.1136
-2	-10.1136
▁O	-10.1138
पित	-10.1141
▁दान	-10.1145
▁चन्द्र	-10.1146
▁चलाने	-10.1147
▁अनक़रीब	-10.115
▁आमतौर	-10.115
जान	-10.1151
▁पुष्टि	-10.1152
▁अन्तर	-10.1152
▁अवज्ञा	-10.1154
un	-10.1155
▁आफ	-10.1159
▁जोड़ने	-10.116
▁छत	-10.1171
▁मोड़	-10.1173
▁नियंत्रित	-10.118
▁बिलकुल	-10.1181
▁प्रेस	-10.1181
▁कम्पनी	-10.1182
्थ	-10.1185
▁घटनाओं	-10.1186
▁नकद	-10.1187
▁वाक़िफ	-10.1191
▁मूल्यों	-10.1194
फू	-10.1195
▁बनाये	-10.1195
क़त	-10.1197
06	-10.1199
▁परमाणु	-10.1202
▁जानने	-10.1203
▁आना	-10.1206
ग्राम	-10.1208
ेयर	-10.1212
▁सारा	-10.1216
▁लकड़ी	-10.1217
शोध	-10.1219
साफ़	-10.1219
▁भंडारण	-10.122
▁सौर	-10.1222
▁विद्यालय	-10.1224
▁नस्ल	-10.1229
▁नाथ	-10.1231
▁लेखन	-10.1235
▁सुदृढ़	-10.1239
क्यू	-10.1242
iii	-10.1242
▁फ़रमा	-10.1248
▁अत्याचार	-10.1259
▁ईमेल	-10.1267
▁विश्वविद्यालयों	-10.1275
शाली	-10.1282
▁शाम	-10.1287
▁कराया	-10.1289
▁समावेश	-10.1293
▁फरवरी	-10.1299
▁मृत	-10.1304
▁संविदा	-10.1306
▁पट्ट	-10.131
▁तत्वदर्शी	-10.1314
am	-10.1314
lo	-10.1315
▁भि	-10.1315
▁जुड़	-10.132
▁नवान्वेषण	-10.1321
www	-10.1321
▁प्रशासनिक	-10.1322
नियम	-10.133
▁कृति	-10.1339
▁बौद्ध	-10.1341
▁अस्पताल	-10.1343
कै	-10.1352
▁इनकी	-10.1356
▁व्यावसायिक	-10.1366
▁2000	-10.1368
▁सब्र	-10.1368
▁कुमार	-10.1371
▁बिंदु	-10.1374
▁ज़िन्दा	-10.1374
▁22	-10.1376
र्जन	-10.1386
▁विनिमय	-10.1389
▁दिखाता	-10.1389
▁रूस	-10.1392
▁संसदीय	-10.1395
▁नहरें	-10.1396
▁उपस्थिति	-10.1406
▁चेतावनी	-10.1411
ञ	-10.142
्ति	-10.1425
ट्ठ	-10.143
▁शक्तियों	-10.1431
ाइन	-10.1434
दर्शी	-10.1438
▁रिक्त	-10.1438
▁निराश	-10.1446
▁विरासत	-10.1449
▁मार्	-10.1451
स्को	-10.1455
▁प्रजाति	-10.1456
▁इक	-10.1462
▁खराब	-10.1465
▁बढ़ती	-10.148
▁फोटो	-10.1489
▁थोड़े	-10.149
▁ढांचे	-10.151
▁बाह्य	-10.1518
अनु	-10.1524
▁अपेक्षित	-10.1525
स्थापित	-10.1526
▁संस्	-10.1535
▁ऋ	-10.1538
▁मंडल	-10.1548
▁खड़ी	-10.1552
वस्तु	-10.1558
▁प्रभुत्वशाली	-10.1564
▁बस्ती	-10.1565
▁आकृति	-10.1566
▁शुरु	-10.1567
▁चुना	-10.1569
▁40	-10.1572
▁भेंट	-10.1582
▁मुसीबत	-10.1587
▁कामना	-10.1588
▁चूंकि	-10.1594
▁विविधता	-10.1598
सूर	-10.1598
राष्ट्र	-10.1608
▁अक्ष	-10.1623
▁खिला	-10.1635
▁2014	-10.1644
▁मास	-10.1646
▁समझने	-10.1648
▁इल्म	-10.1649
▁परिसर	-10.1652
▁सकेंगे	-10.1653
▁खेत	-10.1667
▁हटकर	-10.1668
▁बारगाह	-10.1676
25	-10.1677
▁ईमानवालों	-10.168
ity	-10.168
▁खोलने	-10.1684
▁स्वर	-10.1688
वाना	-10.1691
▁भरे	-10.1696
▁लिखे	-10.1699
▁कड़ी	-10.1704
▁मध्यम	-10.1705
▁सांसारिक	-10.171
▁सबके	-10.1719
▁अन्ततः	-10.172
▁रहस्य	-10.172
न्दा	-10.1727
▁देखना	-10.1727
▁सुनने	-10.1728
▁अभाव	-10.1731
▁उत्तरी	-10.1732
▁मारे	-10.1732
▁उल्	-10.1732
वर्ष	-10.1735
▁बुद्ध	-10.1735
32	-10.1746
▁k	-10.1746
ग्रा	-10.1754
▁सवार	-10.1757
▁विधा	-10.176
▁नियुक्ति	-10.1761
▁पृथक	-10.1765
▁परिचय	-10.1765
▁गुमराह	-10.1765
▁५	-10.1766
▁2015	-10.1775
▁शिशु	-10.1776
▁मस्जिद	-10.1781
▁टैब	-10.1781
▁दबाव	-10.1788
▁दोबारा	-10.1789
▁ग्रे	-10.1793
▁संबद्ध	-10.1794
▁26	-10.1797
(	-10.1798
▁वाय	-10.18
▁23	-10.1802
▁समन्वय	-10.1808
▁चरित्र	-10.1812
▁राजधानी	-10.1812
▁मिलेगी	-10.1834
▁सिविल	-10.1836
▁चीनी	-10.1838
▁युवाओं	-10.1842
ल्ली	-10.1845
▁f	-10.1846
▁कलाकार	-10.1853
ab	-10.186
▁संग्रहालय	-10.1862
▁प्रान्त	-10.1863
▁रहेगी	-10.1866
▁सम्पूर्ण	-10.1868
▁विनष्ट	-10.1868
▁छुपा	-10.1873
▁क़िस्म	-10.1875
▁अनुग्रह	-10.1881
दिन	-10.1896
▁लंबी	-10.19
▁उपयोगकर्ता	-10.1903
▁सफेद	-10.1915
▁मिलते	-10.1931
▁धातु	-10.1939
▁इंच	-10.1939
▁तेरी	-10.1942
▁हिंसा	-10.1948
▁गांवों	-10.1951
धू	-10.1951
▁बोस	-10.1953
थि	-10.1955
▁एकमात्र	-10.1955
गृह	-10.1958
▁प्लगइन	-10.1963
▁चेहरे	-10.1964
होंने	-10.1974
शेष	-10.1978
▁४	-10.1982
▁तयशुदा	-10.1987
▁स्वस्थ	-10.1989
▁दाख़िल	-10.2003
▁मिलियन	-10.2003
विध	-10.2008
▁सम्बन्धी	-10.2009
▁दैनिक	-10.2011
▁कुरान	-10.2014
▁प्रविष्टि	-10.2022
info	-10.2035
▁अस्थायी	-10.2035
▁कैसा	-10.2036
वृत्त	-10.204
▁अवतरित	-10.2043
वंश	-10.2047
▁आखिर	-10.2051
▁आहार	-10.2057
▁थोड़ी	-10.2062
▁खण्ड	-10.2065
▁प्रविष्ट	-10.2088
फ्ट	-10.2091
▁लाओ	-10.2094
▁कूट	-10.2094
कार्य	-10.2096
लिस	-10.2105
▁समझौते	-10.2107
पोर्ट	-10.2108
▁चली	-10.2111
▁नेकी	-10.2117
▁वस्त्र	-10.2117
▁भेजने	-10.2117
▁अर्ध	-10.2119
▁t	-10.2124
▁बाकी	-10.2132
उप	-10.2135
▁शिक्षक	-10.2138
▁रोगी	-10.2148
पान	-10.2156
▁डरो	-10.2158
भ्य	-10.2161
▁बहन	-10.2167
रक्षित	-10.2173
▁मानवीय	-10.2175
मार्ग	-10.2176
जिन	-10.2179
▁प्रथा	-10.2183
न्ह	-10.2185
क्रि	-10.2195
नेवालों	-10.22
बान	-10.2204
ter	-10.2204
▁ऑडियो	-10.2205
▁3.	-10.221
▁तुरंत	-10.2213
▁इमारत	-10.2213
न्द्र	-10.2221
दृ	-10.2227
ायत	-10.2231
टिव	-10.2234
▁मधु	-10.2238
▁फ़ाइलें	-10.2242
▁लिमिटेड	-10.2246
▁दिखाने	-10.2248
▁सुविधाएं	-10.2248
ul	-10.226
▁चिह्न	-10.2263
▁भले	-10.2267
▁शर्तों	-10.2277
▁विभाजित	-10.2279
▁27	-10.2284
जैसे	-10.2285
▁अनुसूचित	-10.2287
▁सर्वोत्तम	-10.2287
▁सराहना	-10.2287
▁दिव्य	-10.229
▁बच्चा	-10.2296
ण्य	-10.2298
▁W	-10.2299
▁आउट	-10.2299
कुदरत	-10.2306
▁पालने	-10.2307
▁मुर्द	-10.2308
▁गिरफ्तार	-10.2312
▁निरीक्षण	-10.2312
▁उगा	-10.2318
▁डो	-10.2318
▁दोनो	-10.2319
▁हिकमत	-10.232
▁समुद्री	-10.2322
क़ायम	-10.2327
▁जिम्मेदारी	-10.2331
¤1⁄4	-10.2337
▁गहरा	-10.2338
भ्र	-10.2343
▁अनुमोदन	-10.2345
▁संपादित	-10.2362
▁ऑंख	-10.2362
▁संध्या	-10.237
▁द्रव	-10.2376
▁चेक	-10.239
ढ़ी	-10.2391
बेहिश्त	-10.2395
▁जै	-10.24
▁सितंबर	-10.2403
▁पाँच	-10.2403
▁0.	-10.241
▁स्टेशन	-10.2413
▁लाइसेंस	-10.242
▁नै	-10.2421
▁संवर्धन	-10.2425
▁क्रांति	-10.2426
▁बिगाड़	-10.2429
▁भग	-10.2434
▁स्वीकृति	-10.2442
▁कही	-10.2445
▁सतत	-10.245
▁हिमालय	-10.2454
▁परेशान	-10.2454
▁ठोस	-10.2456
रियल	-10.2457
▁समृद्धि	-10.246
▁सिंध	-10.2461
▁उपखंड	-10.2468
आईटी	-10.2474
▁हार्दिक	-10.2487
▁निकाला	-10.2488
▁संपादन	-10.2492
मूल्य	-10.2499
▁खत्म	-10.25
क्रो	-10.2502
शोथ	-10.251
▁क़ुरआन	-10.2521
वृत	-10.2523
tion	-10.2529
हाय	-10.2534
▁बुरे	-10.2537
\	-10.2537
▁प्रतिष्ठित	-10.2538
▁मोदी	-10.2538
ज्ञान	-10.2542
▁प्रदूषण	-10.2546
शाह	-10.2552
र्ब	-10.2556
मगर	-10.2561
▁आवश्यकताओं	-10.2564
▁रेडियो	-10.2566
▁हँस	-10.2567
▁मक्का	-10.2568
▁वर्गों	-10.257
▁बाग	-10.2579
▁अभिलाभ	-10.258
▁वृत्त	-10.2582
▁विहित	-10.2583
▁प्रचलित	-10.2589
▁कारक	-10.2589
▁नीतियों	-10.259
▁चौड़ाई	-10.2597
▁जुड़ा	-10.2597
▁खाओ	-10.2618
-19	-10.262
▁तारा	-10.2628
▁द्विपक्षीय	-10.2631
▁स्टे	-10.2646
▁सांस	-10.2655
▁राहत	-10.2656
▁स्वचालित	-10.2657
मोहम्मद	-10.2657
▁कहे	-10.2662
ांकन	-10.2669
▁गहन	-10.2673
▁सुनते	-10.2675
▁उन्होने	-10.268
ad	-10.2682
▁फ्रांस	-10.2683
▁क़दम	-10.2683
▁प्रत्या	-10.2689
▁अग्रणी	-10.2693
इंट	-10.27
▁बनाता	-10.27
▁कॉलेज	-10.2702
▁बाधा	-10.2703
ियाई	-10.2705
▁सावधान	-10.2706
▁फ़िल्म	-10.2708
▁परिभाषित	-10.271
क़ी	-10.2714
▁घड़	-10.2723
▁लगाए	-10.2724
▁उतना	-10.2726
▁l	-10.2732
रक्षण	-10.2733
▁निशान	-10.2737
शासित	-10.2737
92	-10.274
▁भावी	-10.2742
▁2016	-10.2748
च्छेद	-10.275
▁डिजाइन	-10.2751
▁स्वाभाविक	-10.276
▁मछली	-10.276
▁आदान	-10.2769
▁इंजीनियर	-10.2773
िस्तान	-10.2775
▁विपणन	-10.2777
▁कर्नाटक	-10.2786
▁निष्कर्ष	-10.2786
▁संक्रमण	-10.2786
▁जिहाद	-10.2786
▁कारोबार	-10.2786
▁पार्क	-10.2795
▁ढूंढ	-10.28
▁कपड़े	-10.28
▁जहन्नम	-10.2802
▁मुंह	-10.2813
▁सोचा	-10.2824
▁भरा	-10.2826
▁सुनता	-10.2828
▁बन्दे	-10.2844
▁विद्या	-10.2847
▁बहुतेरे	-10.2856
म्बर	-10.286
▁चिह्नित	-10.2865
▁to	-10.2873
▁भक्ति	-10.2873
▁संरक्षक	-10.2878
▁गुजर	-10.288
▁दिसंबर	-10.2891
▁फर्म	-10.2901
▁हट	-10.2903
▁मज़बूत	-10.2908
क्की	-10.292
क्शन	-10.2922
▁वकील	-10.2926
▁डिफ़ॉल्ट	-10.2935
स्थल	-10.2935
▁दर्द	-10.2938
सम्	-10.2942
▁चतुर	-10.2942
▁टिप्पणी	-10.2943
▁समझे	-10.2945
▁आजादी	-10.2951
▁हथियार	-10.2952
धु	-10.2953
▁साहित्यिक	-10.2953
▁जोड़ा	-10.2954
▁पैकेज	-10.297
▁छाया	-10.2972
▁ज़रा	-10.2972
▁ऊंचाई	-10.2975
▁धन्यवाद	-10.2996
▁मसल	-10.2997
मेरे	-10.3002
▁मुगल	-10.3009
▁ज़ालिमों	-10.3022
▁अमर	-10.3025
▁2013	-10.3026
▁उतारा	-10.3027
वासियों	-10.3037
▁जला	-10.3041
▁रोज	-10.305
▁सहमत	-10.305
▁कन्	-10.3052
-1	-10.3056
एंगे	-10.3057
आख़िर	-10.3058
▁समूहों	-10.3063
59	-10.3077
▁चंद्र	-10.3077
▁भ्रम	-10.3078
▁लेती	-10.3081
▁बोली	-10.3082
▁यूरोपीय	-10.3083
मोमिनीन	-10.3091
▁महीनों	-10.3094
▁ऊपरी	-10.3095
▁चाहा	-10.3095
▁सीधी	-10.3099
विश्वास	-10.3102
▁सामूहिक	-10.3103
▁साइट	-10.311
▁अली	-10.3112
▁जगत	-10.3112
▁एज	-10.312
▁याचिका	-10.313
जितनी	-10.3131
▁क़त्ल	-10.3139
▁प्ले	-10.314
प्रदान	-10.3141
▁रुचि	-10.3141
▁60	-10.3145
▁स्वर्ण	-10.3145
▁दुर्घटना	-10.3148
▁बजट	-10.3148
▁चाहेंगे	-10.316
▁निदेश	-10.3165
▁निष्	-10.3169
W	-10.3171
ुष	-10.3174
कंप	-10.3175
▁सत्यापन	-10.3184
▁तंत्रिका	-10.3189
▁भेजी	-10.319
▁त्वचा	-10.3193
▁तत्काल	-10.32
▁वरिष्ठ	-10.3202
▁अन्तर्गत	-10.3204
▁ड्राइव	-10.3211
▁गहरी	-10.3212
हमारे	-10.3226
▁मंदिरों	-10.3249
▁प्रवृत्ति	-10.3249
▁अग्रिम	-10.325
पिता	-10.3252
▁हिंदुस्तान	-10.3256
▁ईरान	-10.3261
ate	-10.3261
ऊँ	-10.3263
▁असर	-10.3265
uot	-10.3266
▁लूत	-10.3268
▁समानता	-10.3269
▁६	-10.3272
▁बाध्य	-10.3274
▁उद्यान	-10.3276
▁फ़रिश्ते	-10.3282
▁पैमाने	-10.3284
▁मानना	-10.329
▁अध्य	-10.3291
▁पीढ़ी	-10.3297
▁समझता	-10.3301
▁डॉलर	-10.3305
▁पासवर्ड	-10.3308
▁अरबी	-10.331
ाबाद	-10.3311
▁लिपि	-10.3314
▁सदी	-10.332
▁सीमाओं	-10.3324
ग्रहण	-10.3325
विमर्श	-10.3329
भूमि	-10.333
▁उल्लेखनीय	-10.3332
▁हितों	-10.3333
▁सिं	-10.3338
▁क्रिकेट	-10.3339
▁शिक्षण	-10.3342
▁आएगा	-10.3343
▁जानवरों	-10.3358
वादियों	-10.3358
म्बा	-10.336
▁देवता	-10.3363
▁सीडी	-10.3363
2014	-10.3376
22	-10.3379
▁क्षण	-10.3384
▁अनुज्ञात	-10.3384
▁शोक	-10.3386
शंस	-10.3389
▁पूर्ति	-10.339
▁डेस्कटॉप	-10.3403
▁जम्मू	-10.3403
▁नौकरी	-10.3403
▁पाठक	-10.3408
▁ग़ौर	-10.3416
क्योंकि	-10.3421
▁चन्द	-10.3426
▁इसराईल	-10.3431
▁विनिर्माण	-10.3436
▁घन	-10.3437
▁प्रतिबंध	-10.3438
▁प्रांत	-10.3439
▁नेशनल	-10.3441
ड़ियों	-10.3442
▁बांध	-10.3449
▁माइक्रो	-10.3449
यंत्र	-10.3455
▁आंध्र	-10.3458
▁पहलू	-10.3466
▁अंतरिक्ष	-10.3468
वर्ग	-10.3468
▁बौद्धिक	-10.3471
व्यवहार	-10.3476
▁भेद	-10.3477
▁प्रारम्भ	-10.3477
▁सदस्यता	-10.3483
▁बचत	-10.3488
▁रै	-10.3501
▁रसायन	-10.3505
चु	-10.3507
▁मिलाकर	-10.3509
▁लॉ	-10.351
▁रोम	-10.3513
▁>>	-10.3514
80	-10.3517
▁जानवर	-10.3518
▁तुम्हे	-10.3522
▁विरूद्ध	-10.3523
्यूट	-10.3531
▁बढा	-10.3532
जीवन	-10.3535
23	-10.3539
\\	-10.3543
नुमा	-10.3544
▁चीजों	-10.3547
▁असाधारण	-10.3551
ांश	-10.3555
▁यथास्थिति	-10.3561
▁तकलीफ़	-10.3564
▁कष्ट	-10.3567
▁पूर्वावलोकन	-10.357
▁अपनाया	-10.3571
▁चाहें	-10.3577
सिंह	-10.358
▁पोत	-10.3587
▁फ़िरऔन	-10.3589
▁फ़िल्टर	-10.3589
▁अहले	-10.3589
ेक्स	-10.3591
▁गिन	-10.3595
▁प्रतियोगिता	-10.3617
▁नवीन	-10.3623
▁अर्जित	-10.3627
▁दावे	-10.3627
▁तीसरे	-10.363
▁सम्भव	-10.3638
▁दर्दनाक	-10.3646
▁फट	-10.3648
▁ऊतक	-10.3658
▁यूँ	-10.3662
▁इंडियन	-10.3664
▁पौधों	-10.3674
▁मातृ	-10.3674
▁बैठा	-10.3676
आईसी	-10.368
▁डूब	-10.3685
▁कठिनाई	-10.3687
▁दुर्ग	-10.3689
▁गौरव	-10.3694
▁2006	-10.3695
र्ज़	-10.3702
▁हाइ	-10.3703
▁बचाव	-10.3704
▁ग्राफ	-10.3709
▁पंजीकृत	-10.3713
▁दुकान	-10.3713
००	-10.3717
▁बाबू	-10.3717
▁चाय	-10.3721
मुसलमानों	-10.3722
किसी	-10.3727
▁हमको	-10.3728
▁प्रेषित	-10.3731
▁संहिता	-10.3731
▁घूम	-10.3732
▁भागीदार	-10.3736
▁बाहम	-10.3737
▁राजस्व	-10.374
▁फिलीस्तीन	-10.374
▁अंतः	-10.3746
▁अक्तूबर	-10.375
बॉक्स	-10.3759
▁प्रसंग	-10.377
रेशन	-10.3781
▁ख्वाह	-10.3785
रानी	-10.3788
▁संदाय	-10.3791
▁ख़ौफ	-10.3795
क्के	-10.3796
शासन	-10.3797
▁दुश्मन	-10.3798
▁घाटी	-10.3799
36	-10.3804
▁दास	-10.3804
▁खतरा	-10.3808
ाशय	-10.3816
99	-10.3819
▁तत्वों	-10.382
▁मूलभूत	-10.3823
▁साझेदार	-10.3827
मोहन	-10.3833
▁संभाल	-10.3838
ent	-10.3841
34	-10.3859
▁त्रुटिः	-10.3864
▁गठित	-10.3865
▁कुशल	-10.3881
▁गरीबी	-10.3889
57	-10.389
अच्छा	-10.3897
▁पुस्तकों	-10.39
▁ध्वज	-10.3904
▁शक्तिशाली	-10.3907
▁बारह	-10.3913
▁अभिदाता	-10.3914
▁कहेगा	-10.3916
▁ज़ोर	-10.3921
detail	-10.3923
▁पुष्प	-10.393
▁शर्त	-10.3932
▁ईसाई	-10.3935
▁वाक्य	-10.3935
500	-10.3936
▁केंद्रित	-10.3938
▁फायदा	-10.3943
▁लिंग	-10.395
▁आलोचना	-10.3962
press	-10.3962
▁प्रत्य	-10.3966
▁वाहन	-10.3978
▁कथन	-10.3981
▁संक्षिप्त	-10.3982
▁बैंकिंग	-10.3988
Y	-10.3995
▁अधिकरण	-10.3995
▁दलील	-10.3997
▁व्यक्तित्व	-10.3999
▁सहमति	-10.3999
▁हलाक	-10.4015
▁उपकरणों	-10.4018
▁वाणिज्यिक	-10.4019
▁उल्लंघन	-10.4021
▁अमल	-10.4027
मैन	-10.4028
समझ	-10.403
▁भूख	-10.403
▁2017	-10.4033
▁सजा	-10.4043
▁काफिरों	-10.4043
▁छोड़ा	-10.4053
विधि	-10.4059
पूर्ति	-10.4059
▁ढांचा	-10.406
▁सुसंगत	-10.406
▁देगें	-10.4061
▁एयर	-10.4068
▁गुरू	-10.4069
▁</	-10.4075
33	-10.4079
दर्शन	-10.4083
मिट	-10.4086
ation	-10.4092
▁2007	-10.4093
ग्रन्थ	-10.4096
▁गाँव	-10.41
▁निष्पादन	-10.41
▁कोविन्द	-10.41
▁पहुंचे	-10.41
▁प्ला	-10.4103
▁शरण	-10.4105
▁जिम्मेदार	-10.4107
21	-10.4114
▁लगती	-10.4114
om	-10.4116
▁ब्रह्म	-10.4122
▁मुक्ति	-10.4123
त्रिक	-10.4131
▁योग्यता	-10.4133
ॉप	-10.4136
▁स्नातक	-10.4139
▁पाये	-10.4142
▁परिस्थिति	-10.4147
▁विद्रोह	-10.4169
▁सम्पर्क	-10.4169
▁पर्यटक	-10.4179
▁दुःख	-10.4199
▁परम्परा	-10.4199
▁प्रभाग	-10.4215
▁1961-201	-10.4219
▁चुनौतियों	-10.4219
हृ	-10.4228
▁डिजिटल	-10.4229
ect	-10.4229
▁कक्षा	-10.4231
स्थापन	-10.424
▁लाना	-10.4243
▁मादा	-10.4245
▁जायेगी	-10.4249
▁पड़ती	-10.4251
▁पोस्ट	-10.4254
ल्फ	-10.4258
▁औपचारिक	-10.4259
▁कॉन्फ़िगर	-10.4259
▁उपज	-10.4262
▁उपलब्धि	-10.4263
▁पैरवी	-10.4266
▁अनुपालन	-10.427
▁श्रमिक	-10.4273
▁पड़ेगा	-10.4274
▁सकाः	-10.4275
▁फ़रिश्तों	-10.4289
ष्टि	-10.4306
▁घुमा	-10.4309
डिया	-10.431
72	-10.4311
▁2005	-10.4313
ावस्था	-10.4319
▁संभावित	-10.432
▁बेटा	-10.432
▁अंतराल	-10.4324
▁अकेले	-10.433
प्स	-10.4332
▁चाहती	-10.4334
▁टुकड़े	-10.434
▁नवंबर	-10.434
55	-10.4351
ंति	-10.4352
▁वंचित	-10.436
▁धारणा	-10.4384
39	-10.4387
▁निवासी	-10.4389
▁स्वीकृत	-10.4401
▁जयंती	-10.4401
▁मार्क	-10.4407
▁अहमद	-10.4411
ao	-10.4413
▁बस्तियों	-10.4421
▁बनकर	-10.4426
▁क़ुबूल	-10.4431
▁निर्माता	-10.4433
▁पंख	-10.4437
▁स्वामित्व	-10.4442
मंद	-10.4442
▁चिकित्सक	-10.4452
▁रिकार्ड	-10.4452
▁बढ़ने	-10.4458
ियल	-10.4458
▁कृपा	-10.4463
ग्राफ	-10.4465
▁परसतिश	-10.4472
ाइज	-10.448
▁चीजें	-10.4483
▁साक्ष्य	-10.4493
▁यहूदी	-10.4493
▁जनजाति	-10.45
▁टाइम	-10.4514
▁पैसे	-10.452
▁पिछली	-10.4524
▁विद्यार्थी	-10.4524
टिन	-10.4526
ग़रज़	-10.4532
▁गढ़	-10.4532
▁ठंड	-10.4537
IN	-10.4539
▁अन्तर्	-10.4542
▁समुचित	-10.4544
▁आबादी	-10.4545
▁रोका	-10.4546
▁चढ़ा	-10.4548
▁दरबार	-10.4558
धीरे	-10.4568
▁तह	-10.4572
htm	-10.4574
▁पंच	-10.458
▁अनाज	-10.4583
▁35	-10.4587
▁‘‘	-10.4588
▁विष्णु	-10.4591
▁संचालित	-10.4607
▁कमज़ोर	-10.4607
▁ट्रा	-10.4608
ण्ट	-10.4609
फिल	-10.4613
▁रॉ	-10.4615
▁छू	-10.4616
presidentofindia	-10.4617
▁शिल्प	-10.4617
▁प्राधिकार	-10.4618
▁ब्राह्मण	-10.4627
▁गहराई	-10.4628
▁पूछो	-10.4637
release	-10.4638
▁लेगा	-10.4644
▁29	-10.4647
▁रिजर्व	-10.4648
▁निष्ठा	-10.465
ma	-10.4652
▁घुस	-10.4657
▁जनरल	-10.466
▁पदार्थों	-10.466
▁मुल्क	-10.4671
▁छुटकारा	-10.468
to	-10.4684
गढ़	-10.4698
▁स्वभाव	-10.4707
▁सरपरस्त	-10.4711
▁सफलतापूर्वक	-10.4725
▁मौलिक	-10.4732
▁सामान्यतः	-10.4742
ेन्स	-10.4742
▁ब्रिटेन	-10.4743
▁रवीन्द्रनाथ	-10.4743
▁आमंत्रित	-10.4753
▁अर्ज़	-10.4756
गुण	-10.4758
रोपण	-10.4759
▁जुड़ी	-10.4766
▁शिक्षकों	-10.4767
सूची	-10.4767
▁इलाज	-10.4771
▁जायें	-10.4777
▁शेख	-10.4777
▁कोलकाता	-10.4785
▁पंडित	-10.4785
▁झु	-10.4786
▁खून	-10.4787
▁मददगार	-10.4802
▁गणित	-10.4803
▁छोड	-10.4804
वालो	-10.4805
क़ुरान	-10.4806
पट्टी	-10.4809
▁गर्व	-10.4814
▁रहमान	-10.4818
▁पोषण	-10.4819
▁ज़बान	-10.4821
विचार	-10.4828
▁इनसे	-10.4837
▁स्मारक	-10.4849
▁स्मरण	-10.4849
▁(4)	-10.4853
तन्त्र	-10.4869
40	-10.4875
ेन्ट	-10.4879
▁आदम	-10.4885
▁संस्थापित	-10.4892
▁गोया	-10.4898
▁डराने	-10.49
89	-10.4901
65	-10.4903
▁V	-10.4919
▁अन्तिम	-10.4926
▁वारिस	-10.4935
ist	-10.4935
▁मशीनरी	-10.4945
▁उत्तरदायी	-10.4945
▁बीस	-10.4948
▁किलोमीटर	-10.4956
०००	-10.4957
▁जानकर	-10.4959
85	-10.4966
▁चावल	-10.4975
▁कमरे	-10.4975
▁पिला	-10.4976
▁वैसा	-10.4978
▁आरंभिक	-10.4979
▁दरिया	-10.4982
▁इलेक्ट्रॉनिक	-10.4988
▁कराना	-10.4989
▁विनाश	-10.499
▁प्रयोगशाला	-10.4996
▁बांट	-10.4999
▁आचरण	-10.4999
▁आदत	-10.4999
▁रानी	-10.5009
▁ज़कात	-10.501
▁प्रयोक्ता	-10.5021
संख्य	-10.5029
▁संशोधित	-10.5032
▁दिमाग	-10.5033
▁पौधे	-10.5033
▁निकलने	-10.5039
▁पहुंचने	-10.5039
भिन्न	-10.5039
▁रास्त	-10.5041
▁बिन्दु	-10.5053
▁वाक़िफ़	-10.5058
▁अंधे	-10.5068
▁जातियों	-10.5069
▁प्रकाशना	-10.5069
▁स्वप्न	-10.5075
▁अग्नि	-10.5087
▁अनुसूची	-10.5089
ाहट	-10.509
▁सकी	-10.5096
पोषण	-10.5105
▁उठे	-10.5107
▁क़रीब	-10.5108
राष्ट्रीय	-10.511
▁आमाल	-10.5119
▁टाल	-10.512
▁ईमानवाले	-10.5121
्हे	-10.5125
▁बचाने	-10.5129
46	-10.5129
▁आउटपुट	-10.513
▁मासिक	-10.5132
51	-10.5135
▁तापमान	-10.5141
▁इन्सान	-10.5141
निर्देश	-10.5146
▁शीत	-10.5159
▁झील	-10.5161
बन्द	-10.5169
▁हैदराबाद	-10.5174
▁for	-10.5176
▁दस्त	-10.5177
▁शंकर	-10.5186
▁प्रोजेक्ट	-10.5196
▁भर्ती	-10.5196
ाध्यक्ष	-10.5201
▁ब्राउज़	-10.5207
▁खुर	-10.5207
जुल	-10.5208
संघ	-10.5212
_	-10.5224
▁बहस	-10.5226
▁बल्लेबाज	-10.5229
▁वर्णित	-10.5246
निशानियों	-10.5247
▁रणनीति	-10.5251
▁दिलचस्प	-10.5251
96	-10.5255
64	-10.5259
ग्रे	-10.526
▁बुलाया	-10.5261
▁इसीलिए	-10.5273
▁लिखें	-10.5287
▁लड़की	-10.5294
▁गहरे	-10.5295
▁तमिलनाडु	-10.5295
49	-10.5301
ख़बरी	-10.5306
▁इनपुट	-10.5307
▁पंचायत	-10.5307
▁बढ़ते	-10.5308
▁१८	-10.5311
▁न्यायिक	-10.5311
▁फज़ल	-10.5318
▁जादूगर	-10.532
▁समाहित	-10.5332
ब्ल	-10.5334
▁दूरस्थ	-10.5336
▁सकेगी	-10.5337
▁महाराजा	-10.534
▁शराब	-10.5342
▁अत्याचारी	-10.5344
ाधीन	-10.5345
▁सोने	-10.5349
▁पोजीशन	-10.5351
▁सिंचाई	-10.5351
▁तुर्की	-10.5351
वर्तन	-10.5352
▁महाभारत	-10.5356
▁देगी	-10.536
▁खिल	-10.5361
म्भ	-10.5381
▁कम्प्यूटर	-10.5385
▁खनिज	-10.5385
▁परिवेश	-10.539
▁जायेंगे	-10.5396
▁प्रसन्न	-10.5396
▁अनुक्रम	-10.5399
▁उच्चतर	-10.54
▁#-#-#-#-#	-10.5408
▁ज़रिए	-10.5408
▁संतुष्ट	-10.5408
▁हाज़िर	-10.5419
पादन	-10.5424
कालिक	-10.5431
▁सम्मानित	-10.5433
मुक्त	-10.5441
आख़ेरत	-10.5441
▁सकारात्मक	-10.5441
▁एहद	-10.5444
▁रच	-10.5449
▁अभ्यास	-10.5453
▁शैक्षणिक	-10.5453
▁बहादुर	-10.5464
▁समितियों	-10.5465
▁परिभाषा	-10.5467
▁सॉ	-10.547
▁साझी	-10.5472
▁१५	-10.5479
▁अकेला	-10.5487
द्वीप	-10.5491
▁विभेद	-10.5502
74	-10.5509
▁साहब	-10.551
▁सैन्य	-10.5511
ात्मा	-10.5519
स्क्रिप्ट	-10.5521
स्थिति	-10.5526
▁संदेय	-10.5532
▁सम्बंध	-10.5535
▁डालें	-10.5536
▁कुफ्र	-10.5544
▁com	-10.5544
▁नवम्बर	-10.5545
52	-10.5557
ल्ले	-10.5558
▁चिन्ह	-10.5558
ha	-10.5562
▁अमरीकी	-10.5567
24	-10.5571
age	-10.5572
▁आदर	-10.5573
क़ुदरत	-10.5578
▁एहसान	-10.5578
▁तरीकों	-10.5578
▁सावधानी	-10.5581
38	-10.5597
▁माइ	-10.56
▁उत्पा	-10.5601
▁सहारा	-10.5602
▁वाणिज्य	-10.5603
▁व्यस्त	-10.5606
95	-10.5606
▁गेंद	-10.5607
तुम्हारे	-10.5608
▁शानदार	-10.5612
ion	-10.5613
▁स्तन	-10.5617
वर्धन	-10.5618
▁लंबाई	-10.5621
▁कनेक्ट	-10.5624
▁धो	-10.5627
▁रखकर	-10.5633
▁संवेदनशील	-10.5635
▁संतोष	-10.5635
▁विक्रय	-10.5636
▁हस्तक्षेप	-10.5648
con	-10.5649
▁कीजिए	-10.5654
▁दर्जे	-10.5656
▁मुद्दे	-10.567
▁भंग	-10.567
54	-10.568
▁प्रसाद	-10.5682
ind	-10.5686
▁हटाएँ	-10.5688
▁शोर	-10.5689
पन्न	-10.5702
▁आकलन	-10.5705
▁ढूंढें	-10.5713
▁प्रसंस्करण	-10.5716
▁अवधारणा	-10.5728
▁अटल	-10.5729
▁अभिगम	-10.573
स्टा	-10.573
▁पंज	-10.5741
▁घिर	-10.5742
▁तकलीफ	-10.5748
▁प्रतिफल	-10.5749
▁सम्पत्ति	-10.5754
रचना	-10.5755
▁जैन	-10.5766
मक्ख	-10.5768
▁संतुलन	-10.5775
▁उतनी	-10.5775
▁शैल	-10.5782
▁रिकॉर्ड	-10.5786
▁व्यवस्थित	-10.5786
▁प्रतिकूल	-10.5787
▁कॉपी	-10.5791
▁पुकारा	-10.5796
▁वनस्पति	-10.5798
▁दाहिने	-10.5798
▁औरतें	-10.58
▁बोलते	-10.5802
▁2012	-10.5803
पैग़म्बर	-10.5807
▁रचनात्मक	-10.5825
▁प्रक्रियाओं	-10.5833
▁संधि	-10.584
▁विनय	-10.5848
▁प्लेट	-10.5854
▁2001	-10.5855
▁उल्लिखित	-10.5857
वेल	-10.5861
▁महत्	-10.587
रक्षक	-10.5878
▁कोशिकाओं	-10.5885
▁प्रवृत्त	-10.5887
▁अंकित	-10.589
▁टॉ	-10.5892
▁प्रतिदिन	-10.5892
▁मिश्रण	-10.5892
▁सच्ची	-10.5893
▁ऑफ़	-10.59
▁उभार	-10.5902
▁दुर्भाग्य	-10.5904
▁पथभ्रष्ट	-10.5904
▁विश्वसनीय	-10.5916
▁स्वर्ग	-10.5916
▁ख़ैर	-10.592
71	-10.5928
▁चाँद	-10.5928
▁अहं	-10.593
▁श्वेत	-10.594
उसके	-10.5948
▁झुका	-10.5949
▁सम्राट	-10.5952
इश	-10.5964
▁परिचित	-10.5971
▁तेज़	-10.5979
▁फॉर्म	-10.598
▁१०	-10.5987
▁वरीयता	-10.5988
▁मिस्र	-10.5988
▁हलाल	-10.5999
▁एन्	-10.6009
वाँ	-10.6027
▁दर्शाता	-10.6034
▁पीड़ित	-10.6035
2015	-10.6037
97	-10.6042
76	-10.6051
▁बदकार	-10.6059
▁खतरे	-10.606
▁उग्र	-10.6065
▁मंजूरी	-10.6066
▁भाष्	-10.6068
ानुसार	-10.6068
▁अलबत्ता	-10.6071
▁ढेर	-10.6074
▁2008	-10.6076
ागार	-10.6079
▁कामयाब	-10.608
▁व्यष्टि	-10.6086
▁गांधीजी	-10.6092
▁आह्वान	-10.6108
तसबीह	-10.6108
▁यथार्थ	-10.6109
▁लंबा	-10.6109
▁रखती	-10.6118
सूचना	-10.6131
▁लानत	-10.6133
बेहश्त	-10.6145
▁सुन्दर	-10.6145
▁टिकट	-10.6147
वर्ड	-10.6148
▁औजार	-10.6168
▁बडी	-10.6171
नहीं	-10.6173
▁जुटा	-10.6174
▁क्रमशः	-10.618
▁तीर्थ	-10.6181
▁होटल	-10.6181
▁कर्ण	-10.6183
▁आरक्षित	-10.6193
ियॉ	-10.6195
▁कार्बन	-10.6196
▁सीखने	-10.6198
मुझे	-10.6205
▁प्रशांत	-10.6217
▁श्रीमती	-10.6217
▁चैतन्य	-10.6229
▁उत्सव	-10.6229
▁पढ	-10.6235
योग्य	-10.6242
▁जितने	-10.6243
▁क़ाबू	-10.6243
▁आदमियों	-10.6255
▁बरकत	-10.6256
पार्ट	-10.6263
▁डिग्री	-10.6266
▁प्रजनन	-10.6266
▁घनिष्ठ	-10.6267
▁संभवतः	-10.6271
चन्द्र	-10.6276
▁प्रस्	-10.6278
▁अमरीका	-10.6278
▁अनुमोदित	-10.629
▁मजबूर	-10.629
▁प्रासंगिक	-10.629
भोज	-10.6294
▁स्टेट	-10.6296
▁प्रभार्य	-10.6298
▁एजेंसी	-10.6303
▁हंस	-10.6305
▁अन्ध	-10.6312
▁व्यावहारिक	-10.6315
▁सूचित	-10.6321
उनकी	-10.6326
▁क्रेडिट	-10.6327
37	-10.6332
▁संपन्न	-10.6334
▁पुस्तकें	-10.6336
▁फायदे	-10.634
▁शांत	-10.6344
▁पुराण	-10.6352
▁जर्मनी	-10.6354
▁सिद्धान्त	-10.6368
▁मोटर	-10.6372
61	-10.6376
▁क़ादिर	-10.6377
▁टाइप	-10.6377
▁दक्षता	-10.6377
▁अतीत	-10.6379
▁लेबल	-10.6382
लिखित	-10.639
दृष्टि	-10.6397
ir	-10.6401
परीक्षा	-10.6404
▁कैसी	-10.6411
▁किन्हीं	-10.6414
▁मुताबिक	-10.6414
▁प्राधिकृत	-10.6414
▁सलाहकार	-10.6417
ख्वाह	-10.6423
▁पुकारते	-10.6426
▁भौगोलिक	-10.6427
▁कार्यकलाप	-10.6427
▁संगत	-10.6427
▁प्रबन्ध	-10.6437
▁निधन	-10.6439
▁संपदा	-10.6439
▁संलग्नक	-10.6446
▁जवाहरलाल	-10.6452
▁सम्बन्धित	-10.6453
▁चलाया	-10.6455
43	-10.6456
▁गद्य	-10.6461
▁तुझ	-10.6468
द्वार	-10.6468
▁वसूली	-10.647
▁राजकुमार	-10.6477
▁हिन्दुस्तान	-10.6477
▁राजभाषा	-10.6479
▁एकदम	-10.6486
▁श्रोत	-10.6488
▁रेशम	-10.6491
▁प्रोटोकॉल	-10.6502
▁चट्टान	-10.6502
▁115	-10.6503
▁कुशलता	-10.6507
▁बर्फ	-10.6509
▁प्रोफेसर	-10.6514
▁अर्पित	-10.6517
▁be	-10.6524
▁भगवान्	-10.653
▁लोकतांत्रिक	-10.654
▁बरसात	-10.6541
▁हज़ार	-10.6549
▁लिखते	-10.6552
▁आंशिक	-10.6552
▁विज्ञप्ति	-10.6552
▁उर्दू	-10.6552
भाषा	-10.6575
▁सचमुच	-10.6578
▁खबर	-10.659
▁टर्मिनल	-10.659
▁गंतव्य	-10.659
▁तत्त्व	-10.659
na	-10.6591
▁वर्मा	-10.6597
▁प्लस	-10.6611
▁ब्रह्मा	-10.6612
▁अक्टूबर	-10.6616
▁ज़बरदस्त	-10.6616
▁पारस्परिक	-10.6616
▁फलस्वरूप	-10.6616
▁संगणना	-10.6628
▁टैग	-10.664
NAME	-10.6641
▁हिमाचल	-10.6654
▁अखिल	-10.6654
▁सर्विस	-10.6677
▁फोल्डर	-10.6679
▁नदियों	-10.6682
▁दीजिए	-10.6693
▁पुराना	-10.6696
▁अर्जन	-10.6704
▁अधिकारिता	-10.6705
▁आशय	-10.6707
69	-10.6713
▁अस्वीकार	-10.6718
▁आंकड़ा	-10.6718
▁गर्दन	-10.6718
▁हकदार	-10.6719
▁शेर	-10.6721
▁क्रियाकलाप	-10.6731
▁इकाइयों	-10.6731
▁जागरूकता	-10.6733
▁आधारभूत	-10.6741
▁बाँध	-10.6745
▁दिखायें	-10.6751
▁उर्वरक	-10.6757
▁रामायण	-10.6757
▁ट्यूब	-10.677
▁मंगल	-10.6787
▁2002	-10.6791
▁निगाह	-10.6792
फरिश्ते	-10.6795
▁वैदिक	-10.6795
▁भांति	-10.681
▁देशवासियों	-10.6818
▁वृद्ध	-10.6819
▁बेटों	-10.6824
▁लड़का	-10.6826
94	-10.6833
▁दिसम्बर	-10.6834
उसकी	-10.6835
▁पनाह	-10.6835
▁ईंधन	-10.6847
▁पूर्ववर्ती	-10.6852
▁लहर	-10.6865
▁दर्शक	-10.6865
▁दूँगा	-10.6873
▁पसंदीदा	-10.6873
▁वैकल्पिक	-10.6886
▁संगठित	-10.6886
▁तस्	-10.689
▁मचा	-10.6893
बहुत	-10.6893
डब्ल्यू	-10.6899
▁कार्यरत	-10.6911
▁अधिसूचित	-10.6926
ly	-10.6926
▁नज़दीक	-10.6939
▁घास	-10.6941
▁तमिल	-10.6977
▁सकल	-10.6978
▁उन्होनें	-10.6983
ex	-10.6985
▁मंडप	-10.6992
▁गुलाम	-10.6993
▁महत्त्व	-10.7004
▁गारंटी	-10.7005
▁विजेता	-10.7007
आउट	-10.7012
औ	-10.7016
co	-10.7017
▁सत्यापित	-10.7018
▁अंततः	-10.7026
▁परिश्रम	-10.7044
▁समूद	-10.7045
66	-10.7045
▁आएगी	-10.7046
▁प्रतिबद्धता	-10.7058
▁प्रचालन	-10.7058
77	-10.706
▁चुकता	-10.7061
▁वन्य	-10.7071
▁प्रबल	-10.7079
▁देखोगे	-10.7085
▁पैसा	-10.709
▁तेरा	-10.7091
▁असामान्य	-10.7098
28	-10.7103
▁बडे	-10.712
परिवर्तन	-10.7121
2016	-10.7123
▁सोसाइटी	-10.7124
▁अवयव	-10.7125
▁रंज	-10.7127
▁ज़िक्र	-10.7128
▁भरपूर	-10.7131
▁2020	-10.7136
▁पहलुओं	-10.7138
▁साक्षी	-10.7138
▁अज्ञान	-10.7138
▁सम्पन्न	-10.7139
▁प्रौद्योगिक	-10.7148
sh	-10.7151
▁सन्देह	-10.7168
▁बीविय	-10.7169
▁तीसरा	-10.7175
उनके	-10.7178
▁पैनल	-10.7193
68	-10.7204
संबंध	-10.7204
▁प्रभावशाली	-10.7209
निष्ठ	-10.7215
▁भक्त	-10.7216
▁फरमाया	-10.7218
वर्धित	-10.7219
58	-10.7228
▁इरादा	-10.7232
73	-10.724
▁झोंक	-10.7243
▁200	-10.7245
▁अधिकृत	-10.7253
62	-10.7259
▁श्रद्धा	-10.7259
‘	-10.7267
▁आकांक्षा	-10.7273
▁दोज़ख़	-10.7273
वृद्धि	-10.7283
▁निपटान	-10.7286
▁फुट	-10.7289
II	-10.7291
▁गतिशील	-10.7294
▁यक़ीन	-10.7296
पेट	-10.7298
▁आस्तियों	-10.73
▁1999	-10.731
▁धनराशि	-10.7313
▁डॉक्टर	-10.7313
▁मतभेद	-10.7314
▁पचास	-10.7327
द्योग	-10.7328
▁कृतज्ञता	-10.7332
▁समापन	-10.7336
▁टेलीफोन	-10.7341
▁पाकीज़ा	-10.7341
▁सारांश	-10.7341
▁स्विच	-10.7342
▁ऊंचा	-10.7345
▁राज़ी	-10.7348
▁कचरा	-10.7355
र्पण	-10.7356
▁प्रवर्तन	-10.7364
▁मुहम्मद	-10.7368
▁भुला	-10.7368
▁नकारात्मक	-10.7368
▁शल्य	-10.7369
अधि	-10.7377
▁प्रतिदान	-10.7378
▁इलेक्ट्र	-10.7382
▁दार्शनिक	-10.7382
▁लंदन	-10.7382
▁फ्रेम	-10.7396
35	-10.7416
2013	-10.7424
▁भेड़	-10.7425
निर्माण	-10.7427
▁उन्हे	-10.7433
व्यापी	-10.7436
▁पुरूष	-10.7437
▁मेहनत	-10.7437
पुरुष	-10.7438
▁परोक्ष	-10.7439
▁टीका	-10.744
▁कालेज	-10.7452
▁ठहराया	-10.7462
▁गिनती	-10.7464
▁कार्यान्वित	-10.7464
स्राव	-10.7466
▁आयुर्वेद	-10.7478
▁अंशदान	-10.7481
▁शीर्षिका	-10.7488
▁विडियो	-10.7493
▁नौका	-10.7503
▁ज्योति	-10.7506
▁आंकड़े	-10.752
▁डीवीडी	-10.7534
▁विचारधारा	-10.7534
▁खिलाड़ी	-10.7538
▁चाहो	-10.7543
67	-10.7545
63	-10.7546
▁गवर्नर	-10.7548
▁भाइयों	-10.755
▁प्रतिलिपि	-10.7551
▁ट्रांस	-10.7563
▁ख्वाहिश	-10.7564
▁{0}	-10.7576
▁उत्तरदायित्व	-10.7576
78	-10.7577
▁ढूँढ	-10.758
ाचार्य	-10.7583
▁बाज़ार	-10.7588
▁संगणक	-10.759
ाइयों	-10.7591
va	-10.7598
▁प्रसारण	-10.7599
▁विज्ञापन	-10.7604
▁प्रतिरोध	-10.7608
▁पीछा	-10.7612
▁इराक	-10.7614
▁डाक्टर	-10.7623
▁ईंट	-10.7625
weather	-10.7632
चरित	-10.7643
29	-10.7657
▁नमूना	-10.766
▁सौभाग्य	-10.7674
▁पिछला	-10.7674
▁सूरज	-10.7676
▁देखेंगे	-10.7677
26	-10.7684
31	-10.7688
▁पादप	-10.7691
▁क्रोध	-10.7692
▁उड़ीसा	-10.7703
▁इष्ट	-10.7711
एमएस	-10.7714
ोदय	-10.7717
▁संक्रिया	-10.7717
▁संयोजन	-10.772
▁आकर्षण	-10.7731
▁इंग्लैंड	-10.7731
▁अनुपस्थित	-10.7733
▁जवान	-10.7733
▁बाक़ी	-10.7739
▁मरियम	-10.7739
▁प्रवासी	-10.7739
▁फॉर	-10.7741
क्यों	-10.7743
▁कृत्रिम	-10.7745
▁आस्था	-10.7747
▁दीवान	-10.7751
▁फूट	-10.7762
▁अभिभाषण	-10.7774
्टन	-10.7795
▁जिलों	-10.7797
▁लाएँगे	-10.78
81	-10.7801
▁लाइब्रेरी	-10.7802
▁तबाही	-10.7817
▁निकाह	-10.7818
वसाय	-10.7819
▁अतिथि	-10.7857
▁मनपसंद	-10.786
▁लटक	-10.7885
▁दुर्लभ	-10.7889
▁ऑफ़लाइन	-10.7889
▁देवताओं	-10.7894
▁लोकसभा	-10.7898
एफसी	-10.79
▁अकादमी	-10.7903
▁यातायात	-10.7903
▁मानदंड	-10.7903
▁हाउस	-10.791
▁अगरचे	-10.7912
▁जरूर	-10.7916
▁आवरण	-10.7918
▁भव्य	-10.792
युद्ध	-10.7924
▁संचित	-10.7929
▁महासागर	-10.7932
▁मुशरिक	-10.7932
▁संतान	-10.7941
▁अपेक्षाकृत	-10.7943
▁कैंसर	-10.7947
▁निचले	-10.7947
▁रजिस्टर	-10.7947
▁अवस्थित	-10.796
▁छुट्टी	-10.7961
▁पाओगे	-10.7961
▁निकास	-10.7963
▁एक्सचेंज	-10.7976
▁सौंदर्य	-10.7976
मण्डल	-10.7978
▁सच्चाई	-10.798
▁पीड़ा	-10.7984
▁एजेंसियों	-10.799
▁दीक्षांत	-10.8005
▁लम्बी	-10.8005
▁मतदान	-10.8012
ॉर्ड	-10.8013
▁इजाज़त	-10.8019
▁प्लगिन	-10.8019
▁इंदिरा	-10.8019
हमारी	-10.8023
निश्चय	-10.8052
▁बहुमत	-10.8058
▁आजीविका	-10.8063
▁तनाव	-10.8065
मीटर	-10.8069
खुदा	-10.8079
▁धोखे	-10.8079
▁समर्पण	-10.808
53	-10.8082
▁आत्मनिर्भर	-10.8093
▁हिस्सों	-10.8093
▁शान्ति	-10.8093
▁अनन्त	-10.8106
▁प्रणालियों	-10.8108
▁व्युत्पन्न	-10.8108
▁अमृत	-10.8108
▁दूँ	-10.8108
▁मुकदमा	-10.8122
▁मरम्मत	-10.8122
▁पेशेवर	-10.8122
▁परिचालन	-10.8122
84	-10.8124
▁पूर्णतः	-10.8137
▁निवारण	-10.8137
▁ढाल	-10.8147
▁नवाचार	-10.8152
▁सारणी	-10.8155
▁फौज	-10.8158
▁चाहूंगा	-10.8168
▁वार्ता	-10.8168
▁हुये	-10.818
▁वितरित	-10.8182
ट्रिक	-10.8188
▁इन्हीं	-10.8196
▁शुरूआत	-10.8197
▁परंपरागत	-10.8205
▁आभास	-10.8205
▁ऊँचाई	-10.8218
▁चमत्कार	-10.8226
ment	-10.8227
१९	-10.8237
▁उपदेश	-10.8243
▁प्रतिज्ञा	-10.8257
वस्था	-10.8269
▁अध्यापक	-10.8271
▁कुबूल	-10.8271
▁केडीई	-10.8275
▁राष्	-10.8279
▁तीसरी	-10.828
▁दांत	-10.8285
▁मद्रास	-10.8286
▁शर्तें	-10.8302
▁खातों	-10.8303
▁अनिवासी	-10.8316
▁तीस	-10.8317
▁अवसंरचना	-10.8331
▁2003	-10.8332
▁क्यो	-10.8333
▁ओपन	-10.8334
▁अनुदेश	-10.8342
▁रिश्ते	-10.8347
▁अनुचित	-10.8358
▁मुख्यतः	-10.8363
▁२०	-10.8386
▁अतएव	-10.8392
▁अखबार	-10.8407
▁औज़ार	-10.8422
▁सृष्टि	-10.8423
▁बगैर	-10.8424
▁तालाब	-10.8439
▁प्रदत्त	-10.8453
▁शिष्य	-10.8454
▁सृजित	-10.8468
▁मुकदमे	-10.8468
▁संजाल	-10.8469
▁पाइप	-10.8485
▁कवियों	-10.8489
▁सकने	-10.8491
▁मध्यस्थ	-10.8491
▁उपेक्षा	-10.8499
ऊँगा	-10.8504
▁इस्पात	-10.8514
▁वाणी	-10.8529
LAT	-10.853
▁लम्बे	-10.853
▁आज़ाद	-10.8547
▁गाड़ी	-10.8549
▁वैष्णव	-10.856
▁डोमेन	-10.856
▁अपवाद	-10.8562
▁सेंटर	-10.8564
▁समकालीन	-10.8566
▁निर्गम	-10.8569
27	-10.8571
▁संकलन	-10.8576
▁OF	-10.8577
▁स्टोर	-10.8581
▁माननीय	-10.8592
▁आँखें	-10.8599
▁विकलांग	-10.8607
▁उपाधि	-10.8607
▁जीवाणु	-10.8609
▁रखरखाव	-10.8622
▁टुकड	-10.8623
▁फूँक	-10.8624
▁खतरनाक	-10.8638
▁मुकाबले	-10.8638
▁परिपक्व	-10.8638
▁चौथा	-10.864
संदत्त	-10.864
▁कबीर	-10.8646
गिर्द	-10.8647
लौह	-10.8647
▁प्रशासक	-10.8654
चुपके	-10.8657
▁TRANS	-10.8669
▁प्रॉक्सी	-10.8669
▁बचपन	-10.8681
▁हैसियत	-10.8686
▁सितम्बर	-10.87
▁2004	-10.8705
ORS	-10.8716
▁प्रिंटर	-10.8716
▁प्रतिस्पर्धा	-10.8716
▁अम्ल	-10.8717
▁क्वा	-10.8726
▁शादी	-10.8731
▁पब्लिक	-10.8732
▁टैगोर	-10.8733
▁अवरोध	-10.8737
▁सामान्यतया	-10.8756
▁वस्तुतः	-10.8759
▁अंग्रेज़ी	-10.8763
▁स्ट्रिंग	-10.8763
NT	-10.877
▁बांग्लादेश	-10.878
▁प्रशिक्षित	-10.8795
▁त्वरित	-10.8795
▁इलाकों	-10.8795
▁प्रोटीन	-10.8795
▁घबरा	-10.8796
▁उलझ	-10.8796
▁व्यर्थ	-10.88
▁रखनेवालों	-10.8805
▁प्रातः	-10.882
▁कोयला	-10.8821
▁इताअत	-10.8826
▁मणिपुर	-10.8826
▁अनुशासन	-10.8832
▁मूत्र	-10.8838
▁अनंत	-10.8838
▁रूपरेखा	-10.8842
कहीं	-10.8854
▁बंबई	-10.8858
▁राजमार्ग	-10.8863
▁माउस	-10.8868
▁अफगानिस्तान	-10.8874
▁फौरन	-10.8874
▁संवेदना	-10.8874
▁नाट्य	-10.8875
▁इंटर	-10.888
▁पश्च	-10.8886
▁आकर्षक	-10.889
▁गूगल	-10.889
▁ऊंची	-10.8906
▁रिज़र्व	-10.8922
▁दिशानिर्देश	-10.8924
▁स्पर्श	-10.8938
▁कथित	-10.8939
▁कार्मिक	-10.8939
▁आजाद	-10.8943
▁अधिवेशन	-10.8954
▁रासायनिक	-10.897
▁करतूत	-10.897
▁उम्मत	-10.8987
▁अवकाश	-10.9003
▁अजीब	-10.9005
▁नाबार्ड	-10.9019
▁परिकल्पना	-10.9019
▁ऋषि	-10.9025
▁वसीयत	-10.9035
▁किशोर	-10.9035
▁हर्ष	-10.9036
▁खुल्लम	-10.9051
▁सर्वथा	-10.9057
किताब	-10.9069
▁कहानियों	-10.9071
▁ललित	-10.9072
▁चखो	-10.9082
▁एहकाम	-10.9084
▁मौजिज़े	-10.9084
तौरेत	-10.9084
▁सवाब	-10.9084
▁इबरत	-10.9084
▁सम्बद्ध	-10.9092
▁मेमोरी	-10.91
▁सरीह	-10.9112
▁मराठी	-10.9116
▁सफाई	-10.9133
▁निर्धन	-10.9136
▁उम्मीदवार	-10.9141
▁सभापति	-10.9145
▁निवेदन	-10.9149
▁धूप	-10.9149
अच्छे	-10.9162
▁रंगमंच	-10.9165
▁आमदनी	-10.9182
▁वरन्	-10.9191
▁सहानुभूति	-10.9198
▁इंजीनियरिंग	-10.9206
▁कतिपय	-10.9215
▁सर्वश्रेष्ठ	-10.9215
▁हुकूमत	-10.9215
▁निमित्त	-10.9215
▁खजूर	-10.9215
▁किनारा	-10.9225
▁ऊंचे	-10.9231
▁स्त्रियाँ	-10.9231
▁शपथ	-10.9231
▁निपटने	-10.9264
▁सर्वज्ञ	-10.9278
▁निपटा	-10.9281
लब्ध	-10.9296
▁क्लब	-10.9298
▁शास्त्रीय	-10.9314
▁पठन	-10.932
मुशरेकीन	-10.9331
▁स्वाधीनता	-10.9331
▁छोर	-10.9337
▁वक्तव्य	-10.9344
▁रजिस्ट्री	-10.9347
▁ऊँट	-10.9349
▁क्रांतिकारी	-10.9368
▁भत्ता	-10.9372
चंद्र	-10.9378
▁विस्फोट	-10.9381
▁अन्जाम	-10.9381
▁करुणा	-10.9381
▁माहौल	-10.9382
▁धोखा	-10.9384
▁गणतंत्र	-10.9399
▁दुष्	-10.9399
▁ज्यादती	-10.9414
समूह	-10.9431
▁टुकड़ा	-10.9431
▁बरबाद	-10.9435
▁गुनाहगार	-10.9437
▁अनुभूति	-10.9437
▁2010	-10.9438
▁सिफ़ारिश	-10.9465
अफ़सोस	-10.9465
▁स्टै	-10.9471
▁ग़लत	-10.9478
मन्त्र	-10.9482
▁पेट्रोलियम	-10.9482
▁फ्लैग	-10.9482
▁बैकअप	-10.9482
पश्चिम	-10.9499
▁वैयक्तिक	-10.9499
▁उन्नयन	-10.9499
▁असीम	-10.9514
▁ख़िलाफ	-10.9516
▁तत्कालीन	-10.952
▁संवैधानिक	-10.9533
▁मिश्रित	-10.9533
▁सशस्त्र	-10.9533
▁घायल	-10.9533
▁प्रदर्शक	-10.9533
▁ख़राब	-10.9552
▁घोड़े	-10.9558
▁नाहक़	-10.9567
रोजगार	-10.9567
▁अमीर	-10.9571
▁प्रदाता	-10.9573
लैण्ड	-10.9576
▁गाँधी	-10.9584
item	-10.9601
▁सार्थक	-10.9602
▁संकाय	-10.9603
▁लपेट	-10.9608
▁मज़े	-10.9619
▁सुझा	-10.962
▁विद्वत	-10.9632
color	-10.9636
gnome	-10.9636
▁सद्भाव	-10.9653
▁बंदरगाह	-10.9653
▁१२	-10.9683
▁इलाहाबाद	-10.9687
▁आवश्य	-10.9696
सामग्री	-10.9706
▁सचिवालय	-10.9707
▁समायोजन	-10.9708
▁कृषक	-10.9722
▁सार्वभौम	-10.9722
▁फिल्टर	-10.9722
▁पाँव	-10.9722
▁नुक़सान	-10.9739
▁धारित	-10.9745
▁अवतार	-10.9751
▁मुद्रित	-10.9757
▁लाभांश	-10.9762
#	-10.9774
ख्तियार	-10.9774
▁कतरा	-10.9777
▁(5)	-10.9779
नुसार	-10.9791
▁ऊँची	-10.9792
▁स्तम्भ	-10.9792
आर्थिक	-10.9794
▁महानिदेशक	-10.9809
▁श्रद्धांजलि	-10.9809
▁हस्तांतरण	-10.9809
▁उत्सुक	-10.9809
संस्कृत	-10.9813
▁अवशेष	-10.9813
▁दूरसंचार	-10.9826
▁नियंत्रक	-10.9827
▁शरारत	-10.9827
याक़ूब	-10.9827
▁यौन	-10.9829
▁विक्रेता	-10.9844
व्यवस्था	-10.9847
▁कारगर	-10.9853
▁चार्ट	-10.986
▁रियायत	-10.9862
स्वामी	-10.9883
▁2009	-10.9885
▁मंजूर	-10.9905
▁अहिंसा	-10.9915
▁आज़माइश	-10.9915
▁असंभव	-10.9916
▁ऑटो	-10.9923
▁टेक्न	-10.9933
▁आनुवंशिक	-10.995
▁भूटान	-10.995
वैज्ञानिक	-10.9954
▁नींव	-10.9968
▁झाड़	-10.9977
▁संचय	-10.9992
▁स्थूल	-11.0003
▁चिंतन	-11.0004
पहले	-11.0009
रसूल	-11.0032
▁श्रीलंका	-11.0039
▁कच्चे	-11.0039
▁वयस्क	-11.0039
▁मंजिल	-11.004
▁रत्न	-11.0048
▁भड़कती	-11.0057
▁कार्यपालिका	-11.0057
▁चक्कर	-11.0057
▁नतीजा	-11.0058
▁translate	-11.0075
▁आश्वासन	-11.0075
▁क्षैतिज	-11.0075
युक़्त	-11.0092
▁मनोरंजन	-11.0093
▁वर्षगांठ	-11.0093
▁छेद	-11.0095
▁अज्र	-11.0096
▁अमानत	-11.0096
▁झुठलाओगे	-11.0111
▁बरसाया	-11.0111
▁धमकी	-11.0111
▁एकजुट	-11.0111
▁क़ब्ल	-11.0115
▁डाटाबेस	-11.0129
▁पाबन्दी	-11.0129
&	-11.0134
▁स्टार्ट	-11.0136
▁आचार्य	-11.0147
▁ढील	-11.0163
▁सुलेमान	-11.0165
▁नमूने	-11.0166
▁चिपका	-11.0166
▁चेहरा	-11.0168
▁आँकड़ा	-11.0183
▁तदनुसार	-11.0183
▁दीर्घकालिक	-11.0184
▁गर्भाशय	-11.0203
▁अप्रत्याशित	-11.022
▁अशोक	-11.022
▁बतौर	-11.022
▁तुम्ही	-11.022
▁यकीन	-11.0239
▁उपनिवेश	-11.0275
▁उपर्युक्त	-11.0275
▁ठाकुर	-11.0275
▁नजदीक	-11.0275
▁सत्याग्रह	-11.0293
▁शोषण	-11.0293
▁सीआरए	-11.0293
▁स्कैन	-11.0298
▁टकरा	-11.0308
▁परिसंपत्ति	-11.0311
▁दरवाजे	-11.0311
▁महामारी	-11.0311
▁सिंहासन	-11.0312
▁घमंड	-11.0312
▁नाशुक्र	-11.033
▁वग़ैरह	-11.033
▁इच्छुक	-11.033
▁हल्का	-11.033
▁स्नेह	-11.0332
▁माध्य	-11.0337
▁सूचक	-11.034
▁युवक	-11.0349
▁पड़ोसी	-11.0367
▁निवेदित	-11.0367
▁एख्तेयार	-11.0385
▁वास्तुकला	-11.0385
▁आशंका	-11.0385
▁सुलझा	-11.0385
▁पटेल	-11.0389
▁तख्त	-11.0391
▁अद्वितीय	-11.0404
▁उत्सर्जन	-11.0404
▁उत्तराधिकारी	-11.0404
▁सुनवाई	-11.0409
▁ट्रै	-11.0417
▁टेनिस	-11.0422
▁प्रभुत्व	-11.0441
▁मिथ्या	-11.0441
▁रियासत	-11.0441
▁अपितु	-11.0441
यहूद	-11.0458
▁सुचरिता	-11.046
▁नवीनतम	-11.0462
▁मुहैया	-11.0478
▁सटीक	-11.048
▁जाहिर	-11.0481
▁हारून	-11.0481
निर्णय	-11.0487
▁आधिकारिक	-11.0497
▁मेन्यू	-11.0497
▁मॉड्यूल	-11.0516
▁ऋतु	-11.0521
िष्णु	-11.0525
▁नानक	-11.0532
▁आकस्मिक	-11.0535
llation	-11.0535
79	-11.0542
▁कामकाज	-11.0551
▁महफूज़	-11.0553
▁भेदभाव	-11.0556
▁विनिधान	-11.0572
▁सेवानिवृत्त	-11.0594
▁जरुरत	-11.061
▁प्रचुर	-11.061
▁मुफ्त	-11.0611
▁स्टॉक	-11.0629
▁निरन्तर	-11.0648
पीडीएफ	-11.0649
▁डिबग	-11.0651
▁राजदूत	-11.0668
▁प्रकोप	-11.0668
▁तरीक़े	-11.0686
▁परिदृश्य	-11.0686
▁टॉगल	-11.0688
▁प्रेषक	-11.0705
▁श्लोक	-11.0706
▁आवेदक	-11.0706
शुल्क	-11.0736
यात्रा	-11.0738
▁दाऊद	-11.0744
▁भ्रष्टाचार	-11.0763
▁साक्षात्कार	-11.0763
▁पूजते	-11.0763
▁कनाडा	-11.0763
मध्य	-11.0772
▁किराए	-11.0775
▁क्रमांक	-11.0776
▁साक्षरता	-11.0782
▁सामुदायिक	-11.0782
यन्त्र	-11.0786
▁URL	-11.0802
▁अप्रत्यक्ष	-11.0802
▁त्योहार	-11.0802
▁न्यायपालिका	-11.0802
▁खनन	-11.0812
साधक	-11.0816
▁तदबीर	-11.0821
▁बदौलत	-11.0821
▁आश्रम	-11.0821
▁उन्मूलन	-11.084
▁दोपहर	-11.084
▁व्यंजन	-11.0841
▁महाद्वीप	-11.0843
▁रोशनी	-11.086
▁सर्वप्रथम	-11.0879
▁बेटियाँ	-11.0879
▁लड़कियों	-11.088
▁जिंदगी	-11.0899
▁मधुमेह	-11.0899
▁इसलिये	-11.0899
▁लखनऊ	-11.0918
▁हरियाणा	-11.0918
फरिश्तों	-11.0938
▁आन्दोलन	-11.0938
▁सम्भावना	-11.0938
▁सूचकांक	-11.0938
▁क़्योंकि	-11.0957
▁बच्चन	-11.0958
▁फ़साद	-11.0958
▁समेकित	-11.0977
▁श्रेय	-11.0978
▁नींद	-11.0982
▁मग़फ	-11.0996
▁झिल्ली	-11.0997
▁पांव	-11.0998
▁स्वायत्त	-11.1016
▁प्रेषण	-11.1017
▁रसीद	-11.1018
▁नरेन्द्र	-11.1019
▁मतदाता	-11.1038
मणि	-11.1041
▁ट्रस्ट	-11.1056
▁आतंक	-11.1066
▁ग्यारह	-11.1076
▁पारदर्शिता	-11.1076
▁डेटाबेस	-11.1076
▁मेजबान	-11.1076
▁क्लिपबोर्ड	-11.1096
▁स्थानांतरित	-11.1096
▁मामूली	-11.1096
▁रुसवा	-11.1102
▁ख़रीद	-11.1113
▁स्टाफ	-11.1113
▁ऑपरेशन	-11.1116
▁गरिमा	-11.1116
▁मुख्यमंत्री	-11.1116
▁मत्स्य	-11.1116
▁वांछित	-11.1136
▁मूर्ख	-11.1136
▁शोभा	-11.1136
▁जर्मन	-11.1154
▁सांप्रदायिक	-11.1156
▁कब्जा	-11.1156
▁तलाक़	-11.1156
▁कमेटी	-11.1157
▁विवश	-11.1158
▁ऊँचा	-11.1169
▁ज़्यादती	-11.1176
बल्कि	-11.1191
▁मुद्रण	-11.1216
▁बिगड़	-11.1219
▁सजद	-11.1221
▁दशमलव	-11.1236
▁ध्रुव	-11.1236
▁स्त्रोत	-11.1236
▁वाज़े	-11.1236
▁स्वदेशी	-11.1238
लॉक	-11.1246
▁रेगिस्तान	-11.1256
▁फरमाबरदार	-11.1256
▁जमाअत	-11.1257
▁यात्रियों	-11.1257
▁स्टाक	-11.1257
▁अपशिष्ट	-11.1276
▁विटामिन	-11.1276
▁यहूदियों	-11.1276
चिह्न	-11.1293
title	-11.1297
▁ध्येय	-11.1297
▁अभिव्यक्त	-11.1311
▁अंदाज	-11.1322
▁मोहताज	-11.1324
▁हड्डी	-11.1337
▁अभिनय	-11.1338
▁अब्दुल	-11.1358
▁जनजातीय	-11.1358
▁स्वैच्छिक	-11.1358
▁खुल्ला	-11.1358
▁पुणे	-11.1358
▁अँधेर	-11.1378
▁संचिका	-11.1378
▁सजावट	-11.138
▁वसूल	-11.1393
▁नियोक्ता	-11.1399
▁हार्डवेयर	-11.1419
▁ब्यूरो	-11.1419
▁एजेंट	-11.142
▁पेटेंट	-11.1421
▁अकड़	-11.1424
पूज्य	-11.1437
▁घृणा	-11.144
▁आंकड़ों	-11.144
▁पैरामीटर	-11.144
▁यूनियन	-11.144
▁पीछल	-11.1441
▁विकिरण	-11.146
▁ज़लील	-11.1461
▁धीमी	-11.1461
▁काउंसिल	-11.1481
▁कैमरा	-11.1502
▁वर्तनी	-11.1503
▁स्नान	-11.1508
प्रकाश	-11.151
▁सिक्किम	-11.1543
▁कंपनियां	-11.1543
▁कठिनाइयों	-11.1565
▁कुशाद	-11.1571
▁गम्भीर	-11.1585
▁किलोग्राम	-11.1585
▁किनारों	-11.1587
▁झलक	-11.1588
▁प्रख्यात	-11.1606
▁स्टार	-11.1609
▁ऑस्ट्रेलिया	-11.1627
▁निर्वाचित	-11.1627
▁अवलोकन	-11.1627
▁विख्यात	-11.1627
▁अधिकाधिक	-11.1648
out	-11.1665
▁आहरण	-11.167
▁फसाद	-11.169
▁मसीह	-11.1697
▁बनावट	-11.1697
▁अन्वेषण	-11.1711
▁ऊँचे	-11.1711
▁राज़्य	-11.1711
▁निष्पक्ष	-11.1712
▁प्रसव	-11.1732
▁हिन्दुओं	-11.1732
▁विनम्र	-11.1732
▁प्रगाढ़	-11.1732
▁अपीलार्थी	-11.1732
▁वियतनाम	-11.1754
▁सोसायटी	-11.1754
▁but	-11.1754
सम्मत	-11.1766
▁इंतजार	-11.1775
▁बशर्ते	-11.1775
▁सालेह	-11.1784
▁पीड़क	-11.1787
भेद	-11.1789
▁निर्णायक	-11.1796
▁विशुद्ध	-11.1796
▁लक्ष्मी	-11.1818
▁स्मार्ट	-11.1818
▁खौलत	-11.1827
▁फैसले	-11.1861
▁पुर्तगाल	-11.1882
▁अनुस्मृति	-11.1882
▁दुग्ध	-11.1882
▁तृतीय	-11.1882
छोटे	-11.1883
▁गेंदबाज	-11.19
▁खिसकाएँ	-11.1904
▁वगैरह	-11.1904
▁किरायेदार	-11.1904
▁ओबामा	-11.1904
▁ब्लॉक	-11.1904
▁दरवाज़े	-11.1925
▁श्रेणियों	-11.1925
▁HTML	-11.1925
▁संतुलित	-11.1925
▁हिंदुओं	-11.1947
▁यांत्रिक	-11.1947
▁पत्नियों	-11.1947
▁अन्तर्राष्ट्रीय	-11.1947
शब्द	-11.1949
▁प्रतिवेदन	-11.1969
जहां	-11.1972
action	-11.199
कर्त्ता	-11.1995
▁संकीर्ण	-11.2012
▁मौखिक	-11.2012
▁लीजिए	-11.2034
▁पारिश्रमिक	-11.2056
▁प्रतिबिंब	-11.2056
mail	-11.2057
सख्त	-11.206
▁अद्भुत	-11.2078
▁पंद्रह	-11.2078
▁पारिस्थितिक	-11.2078
▁विलोपित	-11.2078
▁निविदा	-11.2078
▁अटकल	-11.2079
▁अभिनेता	-11.2092
▁प्रोफ़ाइल	-11.21
▁बिखर	-11.2118
▁बग़ैर	-11.2122
▁लाहौर	-11.2122
▁अर्जुन	-11.2122
रिवाज	-11.2123
▁पूरक	-11.2124
कुफ्फ़ार	-11.2125
पृष्ठ	-11.2125
▁निषेध	-11.2144
▁सांख्यिकी	-11.2144
▁कदाचित	-11.2144
▁पोषक	-11.2144
{	-11.2147
▁सहभागिता	-11.2166
▁महाकाव्य	-11.2166
▁दुशमन	-11.2166
खोलकर	-11.2166
▁आशुतोष	-11.2188
▁गेहूं	-11.2188
▁हिम्मत	-11.2188
▁शौक	-11.2206
▁दरगुज़र	-11.221
▁मौजिज़ा	-11.221
▁अनिश्चित	-11.221
▁आबंटित	-11.2233
▁निश्चिन्त	-11.2233
सुविधा	-11.2237
▁शुष्क	-11.2277
वुड	-11.2309
▁इज्ज़त	-11.2322
▁रविशंकर	-11.2322
▁रिमोट	-11.2322
▁पूछताछ	-11.2322
ोलॉजी	-11.2342
▁इल्ज़ाम	-11.2345
▁जगन्नाथ	-11.2345
▁निष्पादित	-11.2345
▁विश्राम	-11.2345
▁मुद्दा	-11.2345
▁क्रियान्वयन	-11.2367
▁आविष्कार	-11.239
▁ब्रैसेरो	-11.2413
▁स्लाइड	-11.2413
▁वापिस	-11.2413
▁विधवा	-11.2413
▁प्रदाह	-11.2413
▁कहलाता	-11.2414
Generic	-11.2435
▁भयानक	-11.2435
▁समीप	-11.2438
▁निस्बत	-11.2458
▁तिब्बत	-11.2458
▁फ़ज़ल	-11.2459
▁रोकथाम	-11.2481
निर्धारण	-11.2487
▁समकक्ष	-11.2504
▁कारीगर	-11.2505
▁आबंटन	-11.2527
▁अल्पसंख्यक	-11.2527
▁फारसी	-11.2527
raviratlami	-11.255
▁मुनाफ़िक	-11.255
▁संप्रदाय	-11.255
▁अस्वीकृत	-11.255
बोहतान	-11.255
▁लूट	-11.2566
▁आश्रय	-11.2573
▁अपलोड	-11.2596
▁बेख़बर	-11.2599
▁अब्बा	-11.2599
▁कारावास	-11.2603
▁मर्यादा	-11.2619
▁हल्के	-11.2619
▁मल्टी	-11.2643
▁चालीस	-11.2645
▁स्वेच्छा	-11.2665
▁तसदीक़	-11.2689
▁हुज़ूर	-11.2689
[	-11.3057
“	-11.6664
°	-11.9506
@	-12.2423
⁄	-12.9409
	-16.4062
̈	-17.9049
¿	-17.905
̧	-17.9051
	-17.9052
	-17.9053
<	-17.9054
	-17.9054
