<pad>	0
</s>	0
<unk>	0
▁के	-3.68972
▁है	-3.85203
।	-3.99245
,	-4.05878
▁में	-4.10092
▁और	-4.13689
▁की	-4.23956
▁	-4.24785
ी	-4.36911
▁से	-4.43558
े	-4.47226
▁को	-4.51947
ों	-4.61633
▁का	-4.64371
)	-4.74479
ा	-4.74628
▁(	-4.75432
.	-5.01993
-	-5.03617
▁कि	-5.06054
▁हैं	-5.06587
▁पर	-5.08861
▁एक	-5.15396
▁लिए	-5.21563
▁इस	-5.26337
न	-5.2642
ने	-5.30895
▁तो	-5.377
▁जो	-5.38893
▁नहीं	-5.41261
▁भी	-5.44008
क	-5.46071
▁हो	-5.5129
ित	-5.55374
ं	-5.62264
▁ने	-5.62495
▁न	-5.62702
▁किया	-5.63407
▁यह	-5.64861
▁कर	-5.65607
▁उस	-5.67779
ता	-5.73526
▁ही	-5.76744
▁या	-5.79586
▁वह	-5.80294
र	-5.82692
▁करने	-5.86911
▁हम	-5.97058
▁तुम	-6.03351
ल	-6.05198
म	-6.05895
▁अपने	-6.06621
▁था	-6.07229
ि	-6.07252
ना	-6.10973
स	-6.10977
▁वे	-6.20682
▁गया	-6.23098
▁तथा	-6.23554
à	-6.23581
िक	-6.25226
▁अ	-6.26819
त	-6.28431
▁कुछ	-6.30003
ो	-6.32631
▁किसी	-6.33732
▁साथ	-6.37419
▁जब	-6.38345
▁आ	-6.39566
▁रूप	-6.40694
के	-6.40923
से	-6.41876
▁उनक	-6.4256
▁कोई	-6.44636
▁द्वारा	-6.49081
ब	-6.50106
▁भारत	-6.5028
▁करते	-6.51647
▁लोग	-6.53064
▁लोगों	-6.53727
का	-6.5398
▁जा	-6.55505
▁थे	-6.55853
▁जाता	-6.56791
कर	-6.57744
▁तक	-6.5817
ट	-6.58371
य	-6.59056
▁उन	-6.59418
ियों	-6.59986
ओं	-6.61679
ई	-6.62335
▁फिर	-6.62636
▁करें	-6.64039
द	-6.65051
/	-6.65694
व	-6.66374
प	-6.66618
ह	-6.67543
श	-6.67907
▁दिया	-6.6799
्	-6.68479
ज	-6.6928
▁कहा	-6.69861
▁करना	-6.70146
▁क्या	-6.71251
▁इन	-6.7211
▁मैं	-6.72335
?	-6.73428
▁उसके	-6.75098
▁हुए	-6.75635
▁अपनी	-6.75978
्य	-6.76573
▁आप	-6.77284
ए	-6.77779
▁अल्लाह	-6.78201
▁क	-6.78563
▁ये	-6.78778
▁जिस	-6.80193
▁दो	-6.80593
ते	-6.8086
▁स	-6.82568
▁उन्हें	-6.82747
¤	-6.83299
▁"	-6.84281
▁रहे	-6.85366
ग	-6.85909
ु	-6.86065
▁सकता	-6.86638
ण	-6.86866
▁रहा	-6.87181
▁करता	-6.88667
▁कार्य	-6.90105
▁ख़ुदा	-6.90258
▁होता	-6.90724
▁अधिक	-6.9077
▁थी	-6.92045
▁समय	-6.92108
▁व	-6.9353
▁मेर	-6.96453
;	-6.96952
ः	-6.98869
ें	-7.00602
%	-7.01637
▁बहुत	-7.0184
में	-7.02402
▁बात	-7.04433
ड	-7.04841
▁उन्होंन	-7.06198
▁तरह	-7.06955
या	-7.07275
ीय	-7.07918
▁हुआ	-7.10385
ख	-7.10567
▁बाद	-7.10858
▁ब	-7.11531
ू	-7.12012
▁वाले	-7.12455
▁राष्ट्रपति	-7.13535
▁पास	-7.15044
ती	-7.15184
रा	-7.1522
▁प्राप्त	-7.1716
▁गए	-7.17289
▁अन्य	-7.17469
▁होने	-7.18072
▁हमारे	-7.19782
▁प्रति	-7.20968
की	-7.21058
▁सभी	-7.22358
▁यदि	-7.23741
▁काम	-7.24125
▁दिन	-7.25049
▁प्रकार	-7.25088
▁तुम्हारे	-7.25965
▁ओर	-7.25971
▁पहले	-7.26797
▁सकते	-7.2726
▁कम	-7.2727
▁होगा	-7.2785
सी	-7.27991
▁नाम	-7.28577
▁ले	-7.29095
ला	-7.29603
▁म	-7.29604
▁दे	-7.29749
▁ऐसे	-7.29975
▁कारण	-7.29996
ै	-7.30191
▁दी	-7.30196
फ	-7.30516
▁गई	-7.3074
च	-7.3098
▁क्षेत्र	-7.31016
कार	-7.31128
▁ह	-7.31308
▁हर	-7.31422
▁प्र	-7.31449
▁वर्ष	-7.3177
▁उनकी	-7.32431
▁चाहिए	-7.32936
ंग	-7.33336
ज़	-7.33404
_	-7.33453
▁सब	-7.34336
▁सरकार	-7.34648
▁होती	-7.35403
▁अगर	-7.35432
▁करो	-7.37734
▁सं	-7.38243
s	-7.38465
▁देश	-7.39458
▁किए	-7.3962
▁ऐसा	-7.40109
▁उ	-7.40561
्र	-7.41697
▁जाने	-7.4193
ाई	-7.42162
▁एव	-7.43289
▁रसूल	-7.43744
▁भारतीय	-7.45076
नी	-7.45327
▁उसक	-7.46118
▁भाग	-7.46776
▁दूसर	-7.47012
▁व्यक्ति	-7.4764
ड़	-7.47986
्स	-7.48276
2	-7.49721
▁वि	-7.50288
▁अब	-7.50949
▁विकास	-7.52195
:	-7.52779
▁तुम्हे	-7.52926
▁ग	-7.52956
▁जाती	-7.53606
▁राज्य	-7.53725
▁जिन	-7.54058
री	-7.54857
▁मुझे	-7.54861
िया	-7.5499
पर	-7.55186
▁हुई	-7.55819
▁बार	-7.55844
▁पूर्व	-7.559
▁दोनों	-7.55912
▁प्रदान	-7.55936
एं	-7.57112
को	-7.57423
▁जीवन	-7.5748
▁जैसे	-7.58592
▁à	-7.59373
▁उप	-7.5938
ध	-7.59896
▁s	-7.60164
‍	-7.60174
▁रही	-7.60902
कि	-7.61325
▁बीच	-7.61559
▁ऐ	-7.61697
▁होते	-7.62372
▁रब	-7.62478
▁उपयोग	-7.62889
▁बना	-7.63304
▁लेकिन	-7.63421
मान	-7.656
▁लिया	-7.66246
▁ज	-7.6721
▁कह	-7.68098
▁स्थान	-7.68234
▁त	-7.68542
▁अपना	-7.68868
▁प	-7.69173
▁बारे	-7.69475
ऐ	-7.70228
वा	-7.70534
▁पैदा	-7.70968
▁वाला	-7.71209
▁मे	-7.71598
▁फ	-7.71699
▁1	-7.71705
थ	-7.72114
▁सा	-7.72348
▁श्री	-7.7238
हमारी	-7.72455
फ़	-7.73269
▁देने	-7.73831
▁आग	-7.73836
0	-7.74068
▁अधिनियम	-7.74582
मा	-7.74954
।"	-7.75014
▁'	-7.75023
4	-7.75921
▁भ	-7.76021
!	-7.76041
▁ऐस	-7.76528
▁केवल	-7.76531
अ	-7.77023
▁ईमान	-7.77047
e	-7.77072
▁आज	-7.77073
गी	-7.77177
1	-7.78294
▁जाएगा	-7.79931
स्त	-7.80424
i	-7.80567
सा	-7.81781
▁बस	-7.8214
▁करती	-7.82156
▁बन	-7.82478
▁अनु	-7.83155
िंग	-7.83356
¥	-7.83854
▁सेवा	-7.83869
▁ल	-7.83882
▁अथवा	-7.83897
▁प्रयोग	-7.84676
▁हूँ	-7.84687
▁योजना	-7.85548
▁जिसमें	-7.85747
▁जाए	-7.86068
▁देख	-7.86127
▁जाना	-7.86131
ली	-7.86786
बा	-7.8696
▁क्योंकि	-7.87236
ये	-7.8725
▁सहायता	-7.87988
▁उपलब्ध	-7.87989
▁इसलिए	-7.88031
▁नि	-7.88684
▁लगा	-7.8901
जी	-7.89805
▁सबसे	-7.8998
▁आधार	-7.90202
▁उसी	-7.90401
▁ताक	-7.90731
'	-7.90739
▁समझ	-7.91405
्म	-7.91534
▁जाते	-7.91872
ंड	-7.92028
▁तब	-7.92092
़	-7.92163
▁सकती	-7.923
▁जिसे	-7.92355
▁मान	-7.92777
▁वही	-7.92942
▁ए	-7.9303
▁संदेश	-7.93216
▁जिसक	-7.93342
▁पता	-7.93793
▁हमें	-7.94022
▁श	-7.94382
▁देता	-7.94701
▁द	-7.9474
ष	-7.95313
▁राष्ट्रीय	-7.95492
▁उनसे	-7.95628
▁सम	-7.95763
▁वाली	-7.96051
दा	-7.96443
▁इ	-7.9682
▁विचार	-7.96887
भ	-7.9705
▁इसे	-7.97525
इ	-7.97772
िल	-7.98435
ति	-7.99122
▁मु	-7.99375
▁बड़ी	-7.99734
ॉ	-7.99781
पूर्ण	-8.00974
चित	-8.01275
▁होना	-8.01353
ौ	-8.01672
▁शिक्षा	-8.01739
▁संबंध	-8.01831
ां	-8.01929
ंत	-8.0248
दार	-8.02622
m	-8.02929
▁सार	-8.03063
▁सी	-8.03175
▁पा	-8.03393
▁मिल	-8.0356
▁सूची	-8.03613
▁सामने	-8.0372
▁विशेष	-8.03915
▁धारा	-8.04084
प्र	-8.04271
▁होंगे	-8.04517
▁यहाँ	-8.04681
एँ	-8.05358
यों	-8.05374
▁घर	-8.054
▁शक्ति	-8.05473
▁कहते	-8.05626
▁भर	-8.05675
▁चीज़	-8.06006
ठ	-8.06239
▁आय	-8.06336
>	-8.06474
▁परवरदिगार	-8.06474
ाल	-8.06517
ले	-8.06621
गत	-8.07508
स्	-8.07528
▁बल्कि	-8.07546
िस	-8.07942
तः	-8.08133
▁लगे	-8.08367
▁आदि	-8.08542
▁चल	-8.09579
▁ई	-8.09644
▁सूचना	-8.0967
▁याद	-8.09963
▁जी	-8.10119
▁शामिल	-8.10624
▁किताब	-8.10734
ार	-8.11137
▁दिखा	-8.11183
▁बाहर	-8.11465
▁लिये	-8.11692
▁सु	-8.11824
▁ख	-8.11835
▁राज	-8.12498
g	-8.12732
▁पूरी	-8.12773
▁अधिकार	-8.12844
▁2	-8.12892
▁करेगा	-8.12941
▁उनमें	-8.13177
▁अच्छा	-8.13212
...	-8.13372
▁स्थिति	-8.13654
▁तैयार	-8.13845
▁विभिन्न	-8.13849
▁कभी	-8.14161
▁करके	-8.14832
वि	-8.1498
तर	-8.15257
जा	-8.15298
8	-8.15885
9	-8.16027
▁हेतु	-8.1606
▁लाभ	-8.16088
▁मुख्य	-8.16091
▁बड़ा	-8.16102
▁च	-8.16461
▁3	-8.17084
▁हूं	-8.17179
▁पूरा	-8.17195
▁अभि	-8.172
▁रह	-8.17231
▁विषय	-8.17302
▁दिल	-8.17421
डी	-8.17687
वार	-8.17761
p	-8.17959
▁ला	-8.18169
▁निर्माण	-8.18423
ियाँ	-8.18533
त्र	-8.1912
▁दर	-8.19416
▁कु	-8.19468
▁भवन	-8.19477
▁अवसर	-8.19479
▁चाहते	-8.19498
▁होगी	-8.20092
▁जान	-8.20107
▁विश्व	-8.2014
C	-8.2034
▁पी	-8.20507
▁लो	-8.20516
▁उसमें	-8.20587
▁दौरान	-8.20635
3	-8.20681
"	-8.20694
▁चाहता	-8.20726
रण	-8.21055
नि	-8.21371
▁लोक	-8.21606
▁जहां	-8.21804
▁अर्थ	-8.21838
▁अव	-8.21955
आ	-8.22124
पी	-8.22286
क्ष	-8.22435
u	-8.22534
▁सभा	-8.22965
▁तुम्हार	-8.22995
▁करे	-8.23104
▁मन	-8.23137
▁जल	-8.23408
▁उच्च	-8.24189
▁उनको	-8.2429
▁निश्चय	-8.24296
▁हाथ	-8.24443
ओ	-8.24592
▁फ़ाइल	-8.25325
ृत	-8.25397
▁प्रक्रिया	-8.25435
▁मा	-8.25452
▁र	-8.25482
▁डाल	-8.25546
▁प्रत्ये	-8.25611
ास	-8.25701
टी	-8.26059
हर	-8.26089
िन	-8.26262
दी	-8.26509
▁मै	-8.26513
▁गयी	-8.26657
▁अधीन	-8.26659
▁अनेक	-8.26712
▁देखा	-8.26719
न्त	-8.27069
न्	-8.27411
▁सामान्य	-8.27431
▁मर	-8.2765
▁निकल	-8.2784
▁तरफ	-8.27886
ऊ	-8.27902
▁प्रतिशत	-8.27904
▁बड़े	-8.2796
▁स्पष्ट	-8.27969
▁छोड़	-8.2797
▁आम	-8.28161
t	-8.28226
5	-8.28362
▁बदल	-8.28761
▁सके	-8.28991
▁मदद	-8.2922
▁गये	-8.29255
▁रंग	-8.29291
▁सीमा	-8.2936
▁जमा	-8.2976
बी	-8.29807
वर	-8.30125
क़	-8.30126
▁महत्वपूर्ण	-8.30492
▁यही	-8.30572
▁नई	-8.31166
ान	-8.31188
▁क्षेत्रों	-8.3187
▁बनाया	-8.31947
▁आपको	-8.32247
▁बढ़ा	-8.32326
▁समूह	-8.33066
▁स्वीकार	-8.33068
▁कार्यक्रम	-8.331
▁स्तर	-8.33316
न्द	-8.33394
▁परिवर्तन	-8.33444
▁रखा	-8.3369
वी	-8.33938
▁अंतर	-8.34029
▁शुरू	-8.34399
▁संख्या	-8.34476
▁आदेश	-8.34487
▁अभी	-8.34712
स्थ	-8.3505
▁देना	-8.35172
▁ट	-8.35252
स्ट	-8.35548
ष्ट	-8.35699
ियां	-8.35889
▁दूर	-8.36015
▁जारी	-8.36088
उ	-8.36382
▁करेंगे	-8.36399
▁अलग	-8.36414
ख़	-8.36685
▁चार	-8.37007
और	-8.37075
▁माध्यम	-8.37135
▁प्रमुख	-8.37135
▁अनुसार	-8.37145
ँ	-8.37246
▁प्रौद्योगिकी	-8.37287
▁जनता	-8.37413
▁बे	-8.37495
▁संबंधित	-8.37679
ूर	-8.37907
▁विश्वास	-8.37929
छ	-8.38261
6	-8.38498
▁नीचे	-8.38601
▁‘	-8.38639
▁निकाल	-8.38691
▁खुदा	-8.38692
धरती	-8.3924
▁उत्तर	-8.39901
¤3⁄4	-8.39918
▁कृषि	-8.39918
▁ऊपर	-8.39918
▁सुरक्षा	-8.39931
▁मौजूद	-8.39949
ीकरण	-8.39971
▁पानी	-8.40016
▁अतः	-8.40183
▁5	-8.40457
a	-8.40663
▁सर	-8.40702
इस	-8.40753
▁दें	-8.40869
▁ढ	-8.4089
▁ना	-8.40967
न्तु	-8.4098
’	-8.413
▁नया	-8.4134
▁काफी	-8.41584
्व	-8.41759
7	-8.41771
▁आई	-8.42016
▁पूर्ण	-8.42058
▁समान	-8.42144
▁केन्द्र	-8.42226
म्ब	-8.42236
▁प्रस्तुत	-8.42827
▁आए	-8.42928
ात	-8.42943
▁ज्ञान	-8.43112
▁उठा	-8.43183
c	-8.43437
▁बढ़	-8.43452
▁पार	-8.43468
पुर	-8.43539
मी	-8.43579
▁बनाने	-8.43926
्ट	-8.44183
गा	-8.44194
▁विवरण	-8.44292
▁पद	-8.44372
जन	-8.44415
▁बैंक	-8.44709
l	-8.4495
▁पहल	-8.44996
▁घ	-8.45229
ग्र	-8.45467
मगर	-8.45487
o	-8.4552
in	-8.45543
झ	-8.45677
▁आवश्यकता	-8.45732
▁स्वयं	-8.45757
▁प्रयास	-8.45759
▁परि	-8.45867
▁ठीक	-8.45969
▁दुनिया	-8.46208
▁मार	-8.46331
भी	-8.46432
▁बा	-8.46505
▁भाषा	-8.46552
▁बह	-8.46789
दान	-8.46903
▁भेज	-8.46975
▁सामाजिक	-8.47274
रो	-8.47327
▁अन	-8.47343
▁तीन	-8.47356
त्	-8.47455
▁खा	-8.47593
▁मध्य	-8.47612
▁सिवा	-8.47728
पन	-8.4775
▁मामले	-8.48088
▁हों	-8.48141
▁आया	-8.48278
▁मूल	-8.48742
र्	-8.4886
T	-8.48909
▁पश्चिम	-8.48984
▁चला	-8.49316
▁कर्म	-8.49761
▁19	-8.50206
ेट	-8.50218
▁समस्या	-8.50375
▁निशान	-8.50376
▁ऋण	-8.50396
▁जिन्हें	-8.50446
▁जन	-8.50737
▁धर्म	-8.5085
▁लेकर	-8.5086
▁जैसा	-8.50913
▁लग	-8.51321
▁बी	-8.51509
▁क़	-8.51658
▁अंत	-8.51892
▁व्यापार	-8.51964
▁उद्योग	-8.51968
▁“	-8.51975
▁प्रेम	-8.51978
▁ध्या	-8.51997
▁फ़	-8.52395
▁आपक	-8.52687
▁माल	-8.52775
▁चाहे	-8.52825
टा	-8.52987
टर	-8.53269
क्स	-8.53318
▁ज्यादा	-8.53543
▁फ़ोल्डर	-8.53575
▁कानून	-8.53577
▁न्यायालय	-8.53582
▁विंडो	-8.5368
▁अच्छे	-8.53683
▁इतन	-8.53704
▁जानते	-8.53735
▁पीछे	-8.53805
मे	-8.53823
ाँ	-8.53987
▁खंड	-8.54025
▁रहते	-8.54042
▁बल	-8.54452
▁काल	-8.54493
▁इसी	-8.54779
▁होकर	-8.54867
A	-8.5519
▁तुम्हारी	-8.55331
▁प्रभाव	-8.55377
▁गुण	-8.55382
हा	-8.55393
▁अप	-8.55539
▁पहुँच	-8.55585
िश	-8.55624
िका	-8.55791
▁छ	-8.56013
▁वर्त	-8.56348
▁अत्य	-8.56831
▁ज़मीन	-8.56881
▁क्षमता	-8.56882
▁आकाश	-8.56882
n	-8.56911
▁विशिष्ट	-8.56918
▁शहर	-8.56933
▁बराबर	-8.56943
शन	-8.56947
▁राष्ट्र	-8.56972
▁लाए	-8.56973
▁वस्तु	-8.57001
रे	-8.57113
▁देते	-8.57284
▁आकार	-8.57639
00	-8.57915
▁किस	-8.57917
▁वा	-8.58496
▁पिछल	-8.58576
▁जानकारी	-8.58605
▁अवधि	-8.58644
ंस	-8.58961
▁खोज	-8.59332
पा	-8.59594
▁ली	-8.59623
▁गु	-8.59659
मत	-8.59827
ाव	-8.59838
ोर	-8.59951
▁लेने	-8.59962
हार	-8.60055
▁मानव	-8.60162
बल	-8.60175
▁मार्ग	-8.60274
▁लगभग	-8.603
▁हुक्म	-8.60306
▁&	-8.60541
ाना	-8.60556
ऋ	-8.60558
E	-8.60604
▁एस	-8.6063
▁अधिकारी	-8.60637
▁सो	-8.60798
गे	-8.60802
▁बता	-8.60849
▁नही	-8.60877
▁वहां	-8.60911
▁स्व	-8.6106
तम	-8.61313
▁नीति	-8.6134
कारी	-8.61824
	-8.62054
▁निम्न	-8.62055
▁आवश्यक	-8.62086
▁रखते	-8.6228
▁आर्थ	-8.62358
▁महा	-8.62366
▁ओ	-8.62784
▁रू	-8.62919
वान	-8.63213
▁ध	-8.63696
जो	-8.63833
▁संसद	-8.63841
▁सहयोग	-8.63847
▁सिर्फ	-8.63913
▁प्रदेश	-8.64033
d	-8.64135
O	-8.64221
क्	-8.64257
▁रो	-8.64422
▁ता	-8.64431
▁स्थाप	-8.64511
▁आने	-8.64554
▁उद्देश्य	-8.64625
▁शब्द	-8.64645
▁सह	-8.64768
▁मत	-8.65022
▁सही	-8.65227
ंट	-8.65465
▁परिणाम	-8.65658
▁युद्ध	-8.65658
▁कौन	-8.65659
र्इ	-8.65817
▁बिना	-8.65856
ीन	-8.65872
▁चुके	-8.65923
यर	-8.6635
▁वालों	-8.66415
▁पहुंच	-8.66421
ंक	-8.66469
▁विश्वविद्यालय	-8.66473
▁साल	-8.66527
ुल	-8.66838
▁पढ़	-8.66957
घ	-8.67176
▁बंगाल	-8.6751
▁वास्ते	-8.67511
▁जगह	-8.6755
▁प्रणाली	-8.67634
P	-8.67962
▁योग	-8.67974
ल्	-8.68098
▁यू	-8.68195
▁परन्तु	-8.68329
▁आयत	-8.68353
ड़े	-8.68439
▁मो	-8.68637
▁आर	-8.68663
▁विधि	-8.68851
▁रखने	-8.68947
▁बैठक	-8.69023
▁एन	-8.69026
▁कुल	-8.69122
वादी	-8.69198
▁अतिरिक्त	-8.69397
▁दक्षिण	-8.69397
▁बेशक	-8.69398
▁स्वतंत्रता	-8.695
▁हा	-8.69514
▁जाओ	-8.69576
▁सिंह	-8.69578
▁रोक	-8.699
▁4	-8.6998
▁खोल	-8.70134
▁:	-8.70197
यां	-8.70227
▁राह	-8.70403
▁पत्र	-8.70638
▁संस्थान	-8.70735
▁वर्ग	-8.70752
युक्त	-8.70883
▁गिर	-8.71017
▁a	-8.71267
▁लागू	-8.7132
S	-8.71392
▁क्यों	-8.71536
▁चुका	-8.7163
कों	-8.71726
▁य	-8.7199
र्क	-8.72685
▁केंद्र	-8.72822
सं	-8.73124
▁मनुष्य	-8.73281
▁लक्ष्य	-8.73281
▁अच्छी	-8.73283
वाह	-8.73304
▁विदेश	-8.73326
र्ड	-8.73328
▁साहित्य	-8.73382
हमेशा	-8.73462
▁निवेश	-8.73642
एस	-8.73693
I	-8.73806
▁दृष्टि	-8.73857
▁हाल	-8.73868
▁राम	-8.73874
▁सदस्य	-8.74065
▁कहने	-8.74218
हमारा	-8.74276
▁तू	-8.74402
ंद	-8.74463
r	-8.74497
▁10	-8.74914
▁जोड़	-8.74995
▁उसको	-8.75054
▁व्य	-8.7516
¤	-8.75281
▁बच्चे	-8.75281
▁रिपोर्ट	-8.75283
▁दिल्ली	-8.75286
▁बाजार	-8.7529
▁नियंत्रण	-8.75334
०	-8.75384
▁कंपनी	-8.75452
▁प्रबंधन	-8.7549
▁पाठ	-8.75509
▁अज़ाब	-8.7565
▁रहने	-8.7568
र्व	-8.75836
▁जानता	-8.75864
▁क्रिया	-8.75879
त्व	-8.75946
ाब	-8.76219
▁सोच	-8.76318
▁बि	-8.76365
▁महिला	-8.76536
▁एक्स	-8.76636
▁तौर	-8.76684
▁देशों	-8.77192
▁अनुसंधान	-8.77322
▁निस्संदेह	-8.77322
▁मंत्रालय	-8.77324
▁यातना	-8.77332
▁अनुभव	-8.77336
▁परिवार	-8.77363
▁खेल	-8.77368
▁दिए	-8.77376
▁निर्णय	-8.77402
▁देगा	-8.77452
▁लाख	-8.77477
▁रात	-8.77512
▁कहीं	-8.77598
भाव	-8.77817
▁भय	-8.78002
▁न्याय	-8.78205
▁सम्	-8.78283
बे	-8.78404
ढ़	-8.78477
▁अस	-8.78495
ियन	-8.78499
▁जिन्ह	-8.78524
▁बनाए	-8.78644
▁जिनक	-8.78934
▁करा	-8.78936
ात्मक	-8.78968
▁<	-8.7927
▁जरूरत	-8.7936
▁गांधी	-8.79364
▁फल	-8.79389
▁विकल्प	-8.79405
▁अंतर्गत	-8.79412
▁प्रारंभ	-8.79414
▁विभाग	-8.79445
▁जन्म	-8.79457
▁लौट	-8.79522
▁व्यवस्था	-8.79606
▁संघ	-8.79717
▁मूल्य	-8.79909
आई	-8.80057
त्त	-8.80276
ाया	-8.80352
▁दल	-8.80493
्द	-8.80529
▁8	-8.80558
▁भेजा	-8.80627
▁झ	-8.80682
▁पेश	-8.80708
▁डर	-8.81013
▁मिला	-8.81071
▁पहचान	-8.81532
¤°	-8.81539
सर	-8.81597
▁संयुक्त	-8.81602
▁वक्त	-8.81614
▁सत्य	-8.81819
▁रुप	-8.81829
▁वहाँ	-8.81955
▁स्	-8.82007
वे	-8.82423
▁आधारित	-8.82628
था	-8.82958
b	-8.8314
▁ड	-8.83162
▁P	-8.83178
▁चित्र	-8.83238
ल्ल	-8.83352
▁भू	-8.83543
नाथ	-8.83632
▁सि	-8.83645
▁संपर्क	-8.83706
▁निश्चित	-8.83707
▁प्रश्न	-8.83707
▁शरीर	-8.83707
▁जांच	-8.8371
▁परंतु	-8.83711
▁फाइल	-8.8373
▁जाएगी	-8.83821
▁देखते	-8.84004
▁C	-8.8401
▁उत्पादन	-8.84213
ण्ड	-8.8422
ड़ा	-8.84239
चे	-8.84394
▁धन	-8.85139
▁रख	-8.85383
दर	-8.85493
्ल	-8.85742
▁परियोजना	-8.85791
▁दा	-8.85899
▁name	-8.85929
▁प्रस्ताव	-8.85929
▁यक़ीन	-8.85929
▁सक्रिय	-8.85929
▁बेहतर	-8.85929
▁ग्रामीण	-8.85929
▁वापस	-8.85931
▁दिशा	-8.85934
▁मूसा	-8.86044
▁सुधार	-8.86063
▁यात्रा	-8.86115
▁स्थापना	-8.86209
▁राशि	-8.86211
न्य	-8.86213
▁समिति	-8.86213
हत	-8.86226
▁कला	-8.86227
▁अल	-8.86261
▁डाक	-8.86339
एम	-8.86344
▁रखता	-8.86353
ड़ी	-8.86408
▁चि	-8.86439
▁लेते	-8.86476
▁कितन	-8.86858
▁6	-8.86964
▁प्रकाश	-8.87319
धा	-8.87681
▁स्वास्थ्य	-8.88253
ंध	-8.88267
▁पुरुष	-8.8842
▁सहित	-8.88708
▁तेज	-8.88709
ही	-8.88746
स्क	-8.88841
धारा	-8.89088
तौर	-8.89089
▁कै	-8.8923
▁रोग	-8.89333
मन	-8.89471
▁S	-8.8991
▁पड़े	-8.8998
▁समाज	-8.8998
ुक	-8.90142
▁संस्था	-8.90144
▁इं	-8.9032
द्ध	-8.90458
▁कृपया	-8.90527
▁छोटे	-8.90527
▁प्रधानमंत्री	-8.90527
▁बच्चों	-8.90527
▁मंदिर	-8.9053
▁उत्पन्न	-8.90531
▁हिस्सा	-8.90669
▁पाया	-8.90785
▁k	-8.91129
ताओं	-8.91443
▁आस	-8.91462
er	-8.91579
पत्र	-8.91679
्न	-8.91811
▁बंद	-8.91862
्श	-8.9201
▁18	-8.92224
ेगा	-8.92312
▁सफल	-8.92376
▁पु	-8.9247
▁हित	-8.92482
र्ट	-8.9252
▁समाप्त	-8.9267
▁वृद्धि	-8.92819
▁मृत्यु	-8.92908
▁अलावा	-8.92909
▁जहाँ	-8.92919
▁वित्तीय	-8.92971
▁शुल्क	-8.92997
▁फेर	-8.93027
▁छवि	-8.9304
▁डॉ	-8.93086
?"	-8.93156
डा	-8.93185
धिक	-8.93217
▁स्थानीय	-8.9322
ोन	-8.93235
पूर्वक	-8.93359
ly	-8.93399
ाह	-8.93486
▁लगता	-8.93626
▁पुरान	-8.93807
▁पाक	-8.9441
वीं	-8.94584
▁आपस	-8.94695
▁7	-8.94769
▁बोल	-8.94824
▁महान	-8.94911
भूत	-8.94972
▁वास्तव	-8.95149
▁_	-8.95195
निर्दिष्ट	-8.9529
▁माना	-8.95303
▁अंग्रेज	-8.95348
▁संकेत	-8.95349
▁आरंभ	-8.95352
▁झूठ	-8.95352
▁आवेदन	-8.95378
▁जे	-8.95388
▁तहत	-8.95403
▁निर्यात	-8.95475
▁क़ौम	-8.9551
▁गति	-8.95555
▁आसमान	-8.95598
▁देखने	-8.95931
▁करोड़	-8.95952
वाद	-8.95978
▁प्रण	-8.96024
▁विज्ञान	-8.96146
ुर	-8.96249
▁कल	-8.96359
ion	-8.96374
क्या	-8.96604
▁उत्पाद	-8.96652
▁आत्म	-8.96846
बर	-8.97214
देश	-8.97225
▁गो	-8.9724
च्छ	-8.97307
▁ज़	-8.97494
कल	-8.97582
रत	-8.97642
▁त्रुटि	-8.97748
N	-8.97824
मु	-8.97834
▁पृष्ठ	-8.97845
optional	-8.97847
¤¿	-8.97847
▁प्रवेश	-8.97847
▁निकट	-8.9787
▁इतिहास	-8.97871
▁पुनः	-8.97871
▁भूमि	-8.9794
▁जाएँ	-8.97985
▁सीख	-8.98078
जे	-8.98087
▁सर्वर	-8.98087
▁अपेक्षा	-8.98106
ूल	-8.98115
▁भाई	-8.98127
▁जाएँगे	-8.98145
▁गलत	-8.98215
▁गैर	-8.98236
यन	-8.98415
िम	-8.98511
R	-8.98759
म्	-8.98867
दूसर	-8.98974
वर्त	-8.99301
▁नियम	-8.99354
▁पक्ष	-8.99394
ृ	-8.99444
▁बाल	-8.99678
▁पहुँचा	-8.99831
▁रहो	-8.99934
चल	-9.00341
राम	-9.00358
▁न्यू	-9.0041
Name	-9.00411
▁संविधान	-9.00411
▁मुँह	-9.00411
▁सम्मेलन	-9.00411
▁दिनांक	-9.00413
▁सहायक	-9.0042
▁प्रमाणपत्र	-9.00423
▁अवस्था	-9.00432
▁रुपये	-9.00459
▁लागत	-9.00487
▁बन्द	-9.00552
▁अग्र	-9.00738
▁अमेरिका	-9.00781
▁मांग	-9.00829
▁गा	-9.00949
▁रु	-9.00984
ज़ा	-9.01033
▁१	-9.01035
लाल	-9.01064
▁”	-9.0116
एक	-9.014
▁स्थित	-9.0153
हम	-9.01556
▁लिखा	-9.01564
”	-9.01591
▁अंग	-9.01617
▁जाति	-9.019
▁25	-9.02006
▁पुस्तक	-9.02007
▁दु	-9.02023
▁डी	-9.021
ष्	-9.02629
र्स	-9.0284
▁#44;	-9.03043
▁मुखर्जी	-9.03043
▁प्रगति	-9.03043
▁खुश	-9.03044
▁बोर्ड	-9.03051
▁विस्तार	-9.03068
▁प्रकट	-9.03071
▁वैज्ञानिक	-9.03102
▁निजी	-9.0317
▁बच	-9.03193
▁भूमिका	-9.03203
▁साफ	-9.03261
▁जिला	-9.03262
▁पै	-9.03275
▁चुनें	-9.03331
▁मात्रा	-9.03458
▁रचना	-9.03493
िय	-9.03524
लर	-9.03602
▁M	-9.03616
▁''	-9.03706
▁शासन	-9.03773
▁मि	-9.04088
▁भीतर	-9.04123
▁आयु	-9.04134
▁बु	-9.04149
गु	-9.04259
▁उपस्थित	-9.04404
▁लें	-9.04528
▁वो	-9.04648
क्त	-9.04802
▁9	-9.05246
गर	-9.05401
▁डि	-9.05503
▁कार	-9.05607
ity	-9.05697
▁@	-9.05745
▁हस्ताक्षर	-9.05745
¤	-9.05745
▁संगीत	-9.05746
▁इस्तेम	-9.0575
▁पुलिस	-9.05754
▁मालूम	-9.05755
▁अंतिम	-9.05768
▁(1)	-9.05772
▁उपकरण	-9.05789
▁प्रशिक्षण	-9.05791
▁संभावना	-9.05829
▁आशा	-9.05877
▁सामग्री	-9.05886
दे	-9.06058
व्य	-9.06086
▁पूछ	-9.06273
▁h	-9.06534
बार	-9.06538
▁सका	-9.06948
ख़ुदा	-9.07087
राष्ट्रीय	-9.07098
▁सदस्यों	-9.07135
▁बने	-9.07208
ेशन	-9.07297
▁d	-9.07586
▁मद	-9.07604
▁हे	-9.07612
ियम	-9.08036
▁हवा	-9.08179
र्ज	-9.08522
ॅ	-9.08523
८	-9.08523
▁ऊर्जा	-9.08523
▁जीव	-9.08523
▁स्कूल	-9.08528
▁पुनर्	-9.0857
▁दिखाएँ	-9.08609
स्थायी	-9.08613
▁%	-9.08615
▁व्यवहार	-9.08668
▁रे	-9.08782
ेल	-9.08785
▁रखना	-9.08808
▁व्यक्तियों	-9.08827
▁थीं	-9.08901
▁ऑ	-9.08984
▁कैसे	-9.09405
रिया	-9.0951
ूँ	-9.09559
उन	-9.09764
मि	-9.09931
▁संगठन	-9.10452
जह	-9.10506
नीय	-9.10516
हिर	-9.10837
▁कठिन	-9.10963
▁व्यक्त	-9.10988
टे	-9.10994
▁रा	-9.11082
▁भार	-9.111
▁अंक	-9.11179
▁घटना	-9.11335
▁चिकित्सा	-9.1138
▁भविष्य	-9.1138
▁भुगतान	-9.1138
▁समाधान	-9.1138
▁शायद	-9.1138
▁नागरिक	-9.1138
▁प्रथम	-9.11381
▁विजय	-9.11381
bab	-9.11383
▁असफल	-9.11393
▁सौ	-9.11399
▁12	-9.11612
▁समर्थन	-9.11633
▁शख	-9.11646
रि	-9.1182
▁बुरा	-9.11821
▁आयोज	-9.11999
▁दिनों	-9.12074
▁सू	-9.12168
रूप	-9.12183
▁पैर	-9.12197
▁लाल	-9.1274
▁हटा	-9.12745
▁गण	-9.1278
भाग	-9.12943
▁क्र	-9.13091
▁सम्बन्ध	-9.13142
▁स्रोत	-9.13272
▁राज्यों	-9.13364
▁सरकारी	-9.13375
▁20	-9.13392
▁अगल	-9.13415
चा	-9.13441
धर	-9.13654
▁पो	-9.13774
▁उदाहरण	-9.13933
▁सुविधा	-9.14128
▁शताब्द	-9.14321
▁अवश्य	-9.14322
▁आदमी	-9.14324
¥	-9.14328
▁आधुनिक	-9.14334
▁अनुमति	-9.14346
▁प्राकृत	-9.14346
पि	-9.1439
▁आसान	-9.14402
▁गवाह	-9.14406
▁जवाब	-9.14475
▁खरीद	-9.14527
▁पसंद	-9.14529
▁भावना	-9.1457
▁विचारों	-9.14595
▁चयनित	-9.14612
▁भिन्न	-9.14624
▁अधि	-9.14742
▁इनका	-9.14869
▁खाते	-9.14875
▁स्वा	-9.14938
▁रि	-9.15156
▁लड़	-9.15208
▁जैस	-9.15328
▁बैठ	-9.15402
तु	-9.15669
१	-9.15874
चर	-9.16048
▁वै	-9.16403
▁निर	-9.16791
▁खुद	-9.1695
▁सुना	-9.16964
लो	-9.16973
):	-9.17006
▁सुन	-9.1707
▁ज़रूर	-9.17229
▁गीत	-9.17258
▁मेल	-9.17277
मेल	-9.17294
▁प्रमाण	-9.17338
▁गुणवत्ता	-9.17352
▁वेबसाइट	-9.17352
▁समारोह	-9.17352
▁not	-9.17352
▁pro	-9.17358
▁शेयर	-9.17367
▁पदार्थ	-9.1737
▁गुरु	-9.17371
▁पूरे	-9.17378
▁विरोध	-9.17385
▁बर्	-9.1742
▁बयान	-9.1742
ेस	-9.17487
ेड	-9.17519
शील	-9.17781
▁उठ	-9.1791
▁गोल	-9.18033
▁प्रभावित	-9.1809
वास	-9.18404
न्न	-9.18483
tt	-9.18627
पास	-9.1871
उस	-9.18748
▁मुक्त	-9.1886
D	-9.1899
लिखित	-9.19085
▁I	-9.19206
चि	-9.19355
▁translat	-9.1941
▁सर्व	-9.19585
▁आपने	-9.19919
ूद	-9.19953
▁कमी	-9.20126
▁तेर	-9.20171
सन	-9.20269
f	-9.20455
▁need	-9.20477
▁नेटवर्क	-9.20477
▁पर्यावरण	-9.20477
▁मजबूत	-9.20477
▁युवा	-9.20478
▁सुनिश्च	-9.20478
▁doe	-9.20478
://	-9.20479
▁अध्ययन	-9.20481
▁ज़ालिम	-9.20485
▁विकस	-9.20489
▁प्रशासन	-9.20518
▁ऑफ	-9.2054
▁गुनाह	-9.20561
▁साझ	-9.20572
▁निर्धारण	-9.20596
▁चा	-9.20611
▁ट्र	-9.20676
ची	-9.20679
▁वास्तविक	-9.20732
▁मुद्द	-9.20776
▁चुकी	-9.20912
▁सद	-9.20926
▁चले	-9.20943
ेंगे	-9.21105
▁पैग़म्बर	-9.21107
or	-9.21125
राज	-9.21293
▁बातें	-9.21306
▁चलता	-9.21471
▁संबंधी	-9.21535
▁मिलता	-9.21538
न्ध	-9.21573
वरण	-9.21694
▁तुमको	-9.21754
▁रहता	-9.21848
पूर	-9.21853
▁D	-9.21958
w	-9.22013
▁बहु	-9.22087
एफ	-9.22098
L	-9.22181
अपने	-9.22272
▁R	-9.22285
▁ठ	-9.22296
▁समझा	-9.22477
▁निर्धारित	-9.22564
▁0	-9.22629
▁मह	-9.22639
▁जिसकी	-9.22715
▁लंब	-9.22746
▁बै	-9.22819
▁पड़	-9.22905
▁किये	-9.22995
▁बाज़	-9.23247
करण	-9.23306
म्प	-9.23356
▁स्ट	-9.2361
▁कांग्रेस	-9.23703
▁उल्लेख	-9.23704
▁शेष	-9.23704
▁युग	-9.23708
▁व्यापक	-9.23709
▁डिस्क	-9.23719
क्षेप	-9.23725
▁अधिकांश	-9.23727
▁अरब	-9.2375
▁रास्त	-9.23778
▁तत्व	-9.23784
▁संरक्षण	-9.2379
▁नंबर	-9.23917
▁तेल	-9.23948
▁रखो	-9.23967
▁दिवस	-9.24065
बद्ध	-9.24141
aà	-9.24159
▁मंत्री	-9.2424
▁प्रकाशित	-9.24277
▁हाँ	-9.24319
▁हक़	-9.2452
▁सफलता	-9.24532
▁कहो	-9.24633
re	-9.24698
▁नदी	-9.24714
▁मिलने	-9.24754
▁सरल	-9.248
इन	-9.24804
▁सात	-9.24844
िज	-9.24849
▁करनेवाला	-9.24923
पु	-9.25267
▁सिर	-9.25347
▁क्रम	-9.25352
त्ता	-9.25461
v	-9.25504
र्द	-9.25511
प्ल	-9.25774
भा	-9.25977
यें	-9.26553
▁लेख	-9.26771
▁पश्चात	-9.26911
▁उत्	-9.26924
▁बढ	-9.26991
U	-9.27036
▁सार्वजनिक	-9.27036
▁चाहिये	-9.27036
▁पहाड़	-9.27036
क़यामत	-9.27038
▁किंतु	-9.27041
▁अत्याचार	-9.27045
▁अध्यक्ष	-9.27046
▁करनेवाल	-9.27063
▁जाँच	-9.27075
▁सख्त	-9.27083
▁आतंकवाद	-9.27092
▁नियुक्त	-9.27103
ालय	-9.27147
▁शुक्र	-9.27159
▁क़सम	-9.27162
▁प्रतीक	-9.27202
▁चर्चा	-9.27232
▁जाय	-9.27256
लू	-9.27276
▁वित्त	-9.27307
▁बाप	-9.27327
▁पि	-9.27328
▁बुद्धि	-9.27357
ोल	-9.27438
▁तार	-9.27447
तन	-9.27498
▁ख़बर	-9.27523
▁सेट	-9.27525
▁ज़ा	-9.27599
▁देती	-9.27626
रक्षा	-9.27673
▁डे	-9.27689
वालों	-9.27694
▁लड़क	-9.27784
▁पे	-9.2787
गो	-9.27974
▁खाता	-9.28036
▁मिली	-9.28144
▁अगले	-9.28382
▁खास	-9.28656
▁बदले	-9.28698
ीकृत	-9.28989
लैंड	-9.28991
M	-9.29023
कृत	-9.29148
▁बदला	-9.29329
11	-9.29552
▁प्रभावी	-9.29727
▁बनी	-9.29745
्कार	-9.2979
गल	-9.29891
ar	-9.29916
आर	-9.29972
▁महत्व	-9.29978
▁दिख	-9.29991
▁11	-9.3
▁A	-9.30035
y	-9.30168
▁सन्	-9.30204
▁T	-9.30235
ियो	-9.30262
रम	-9.30327
दास	-9.30347
वर्ष	-9.30478
▁ईश्वर	-9.30484
▁वीडियो	-9.30484
▁संदर्भ	-9.30484
▁खाद्य	-9.30484
▁विरुद्ध	-9.30501
▁पकड़	-9.30506
▁संशोधन	-9.30507
▁समुदाय	-9.30514
▁स्थल	-9.30522
▁रक्त	-9.30535
▁संसार	-9.30537
▁बाग़	-9.30538
▁प्रकृति	-9.30549
▁निर्मित	-9.30558
▁विवाह	-9.30584
▁विस्त	-9.30707
▁निर्देश	-9.30753
▁लेखा	-9.30787
▁पं	-9.30966
गार	-9.30979
▁प्रो	-9.30979
▁अति	-9.31251
मय	-9.31326
▁लेखक	-9.31348
▁आख़िर	-9.31391
▁आयात	-9.31428
▁टे	-9.31665
▁मोट	-9.31722
ंगा	-9.31744
▁प्रा	-9.31812
nic	-9.31903
▁तुमपर	-9.31923
▁पालन	-9.3217
▁चाल	-9.32224
श्त	-9.32242
▁26	-9.32273
▁मना	-9.32448
▁शब्दों	-9.3245
▁दूसरा	-9.32526
le	-9.32544
वत	-9.32572
३	-9.32613
यु	-9.3265
▁घाट	-9.32712
▁डाला	-9.33063
▁बर	-9.33096
▁कविता	-9.33281
नो	-9.33605
देव	-9.33652
▁सम्मान	-9.33735
▁मल	-9.33869
तल	-9.33939
फा	-9.33972
पात	-9.3402
▁देखें	-9.34029
}	-9.34055
▁बावजूद	-9.34056
▁लघु	-9.34056
▁कोशिश	-9.34059
▁खर्च	-9.3407
▁अभिलेख	-9.3407
▁वायद	-9.34089
▁दशा	-9.34094
ग्रह	-9.34111
▁बुला	-9.34147
▁पीठ	-9.34158
▁कदम	-9.34179
कृति	-9.34263
▁नाज़	-9.34271
▁टी	-9.34276
▁हिन्दी	-9.34412
▁लाने	-9.3442
▁छोड़कर	-9.3447
▁बचा	-9.345
▁मालिक	-9.34509
▁वर्णन	-9.34528
▁मुद्रा	-9.34533
▁सत्ता	-9.34577
▁दृश्य	-9.346
▁जितन	-9.346
▁तरीके	-9.34696
▁ब्र	-9.34696
▁मार्गदर्श	-9.34738
▁संभव	-9.34819
काल	-9.34892
वासी	-9.34897
▁नगर	-9.35146
▁एल	-9.35332
▁काव्य	-9.35365
▁बन्दों	-9.35427
▁पथ	-9.35501
टो	-9.35558
▁रखे	-9.35561
▁आत्मा	-9.35579
▁हालत	-9.3608
२	-9.36286
६	-9.36294
▁विशेषता	-9.36332
▁मित्र	-9.36424
▁समुद्र	-9.36446
▁बैंकों	-9.36552
▁राजा	-9.36633
तुम	-9.36765
दाय	-9.37058
बु	-9.37691
तिहास	-9.37724
▁औद्योगिक	-9.37759
▁मुसलमान	-9.37759
▁वार्षिक	-9.37759
▁वैश्विक	-9.37759
▁शिकायत	-9.37759
▁पुरस्कार	-9.37759
▁छोटा	-9.37759
▁सक्षम	-9.3776
▁रकम	-9.37763
▁परीक्षा	-9.37764
मिट्टी	-9.37768
▁उतार	-9.37815
फल	-9.37823
▁माँ	-9.37855
▁प्रयुक्त	-9.37891
▁भली	-9.37967
▁वेतन	-9.37996
▁रहेंगे	-9.38009
लिम	-9.38279
▁गर्भ	-9.38393
दम	-9.38454
▁पाने	-9.38513
▁चाह	-9.38586
▁राय	-9.38586
ॉल	-9.38623
▁बिल	-9.38751
▁जु	-9.38773
यू	-9.38816
पो	-9.38851
ोप	-9.39093
ायी	-9.39178
▁ख़	-9.39498
क्रम	-9.39514
▁15	-9.39521
▁शा	-9.39687
लि	-9.39783
▁हद	-9.39828
▁देव	-9.39872
▁रखी	-9.3996
▁आते	-9.3998
▁खो	-9.39982
x	-9.40101
शा	-9.4055
्त	-9.40624
an	-9.40982
यम	-9.4109
हीन	-9.41164
ार्थ	-9.41257
ंगी	-9.41323
▁अता	-9.41343
▁निधि	-9.41426
ूत	-9.41511
ग़	-9.41551
▁संग्रह	-9.41553
ेंट	-9.41586
▁अनिवार्य	-9.41605
▁कंप्यूटर	-9.41605
▁विधेयक	-9.41605
▁हालाँकि	-9.41605
▁उपबंध	-9.41605
▁कलकत्ता	-9.41605
▁इन्हें	-9.41606
▁अंतर्राष्ट्रीय	-9.4161
▁उद्यम	-9.41613
▁नाटक	-9.41626
▁गैस	-9.41626
▁संपत्ति	-9.41627
▁झुठलाया	-9.41676
▁शांति	-9.41691
▁देंगे	-9.41713
▁आयोग	-9.41747
▁शीघ्र	-9.41751
▁छोटी	-9.41751
▁परिषद	-9.41752
▁केंद्रीय	-9.41781
▁कुंजी	-9.41787
▁ग्राहक	-9.41808
▁पर्याप्त	-9.41808
▁नियत	-9.41865
▁इच्छा	-9.41869
▁सुरक्षित	-9.41884
▁डेटा	-9.41892
वह	-9.42115
▁मानते	-9.4212
▁गुज़र	-9.42123
▁मिलकर	-9.42178
्ष्	-9.42189
▁पात्र	-9.4221
▁सदन	-9.42264
▁सेवाओं	-9.42283
र्थ	-9.42296
▁श्	-9.4231
▁तंत्र	-9.42419
▁बध	-9.42424
▁संकल्प	-9.42438
तो	-9.42616
▁मानक	-9.42627
▁B	-9.42677
▁30	-9.42846
▁कहना	-9.42904
्वा	-9.42921
चार	-9.43083
पित	-9.4314
▁छा	-9.43256
▁आती	-9.43265
▁तर	-9.43309
▁प्रदर्शन	-9.43427
ल्स	-9.43572
यो	-9.43617
िला	-9.43741
al	-9.43772
फिर	-9.43774
▁पहुंचा	-9.4393
–	-9.44123
F	-9.44135
▁उपाय	-9.44351
सिल	-9.44463
▁ग़	-9.44621
▁नसी	-9.44908
जीव	-9.44925
▁शीर्ष	-9.45012
▁चयन	-9.45259
▁इत	-9.45263
▁वायु	-9.45309
ून	-9.45385
हान	-9.45444
▁अनुस	-9.45555
▁वर्ण	-9.45587
▁अनुप्रयोग	-9.45605
▁इजरायल	-9.45605
▁पत्थर	-9.45605
▁आंदोलन	-9.45605
▁उपन्यास	-9.45605
▁अपराध	-9.45606
▁पूंजी	-9.45606
▁कल्याण	-9.45606
htm	-9.45606
▁सलाह	-9.45607
▁भोजन	-9.45608
▁सरकश	-9.45613
▁मार्च	-9.4562
▁जाएंगे	-9.45622
▁लोकप्रिय	-9.45628
▁विधान	-9.45628
▁समाचार	-9.4563
गिज़	-9.45635
्छ	-9.45649
शाली	-9.45658
▁उपचार	-9.4566
▁यथा	-9.45662
▁दर्ज	-9.45667
▁गाय	-9.4567
▁यद्यपि	-9.45697
▁उपयुक्त	-9.45713
▁महात्मा	-9.45758
▁शक	-9.45846
▁बनाएँ	-9.45854
▁14	-9.45859
▁२	-9.45986
ल्ड	-9.46035
▁दोष	-9.46109
▁196	-9.46125
▁मिले	-9.46144
▁भूल	-9.46177
▁हु	-9.46215
▁17	-9.46306
▁सेना	-9.46482
▁मामल	-9.46656
न्द्र	-9.46667
्री	-9.46719
▁थ	-9.46756
▁तौ	-9.47377
मेंट	-9.47659
▁स्प	-9.47925
शी	-9.47947
▁जाये	-9.47996
▁खुलत	-9.48032
क्षण	-9.48323
▁सकें	-9.48326
▁टन	-9.48527
▁मुझ	-9.48567
▁मोह	-9.48575
▁हल	-9.48763
▁पुकार	-9.48989
▁फैल	-9.49028
ेश	-9.49251
▁यूरोप	-9.49677
ड्ड	-9.49754
▁कठोर	-9.49772
▁ज़रुर	-9.49772
▁बौद्ध	-9.49772
▁गिरोह	-9.49773
▁विशाल	-9.49773
▁मौसम	-9.49773
▁पांच	-9.49773
▁प्रयोजन	-9.49773
क़ुरान	-9.49774
▁निर्भर	-9.49776
▁गहर	-9.49803
▁मंच	-9.49825
▁मैदान	-9.49847
▁रेखा	-9.49874
▁कार्यालय	-9.49901
ांत	-9.49954
▁जोड़ें	-9.49973
▁सां	-9.49975
▁बताया	-9.49987
हन	-9.49988
▁जहन्नुम	-9.49993
▁चुन	-9.50043
▁योग्य	-9.50114
▁{	-9.50117
▁बढ़कर	-9.50182
▁गुना	-9.50216
▁सबको	-9.50235
▁प्राधिकारी	-9.50472
▁खेती	-9.50477
बू	-9.50508
▁पत	-9.50527
▁साहस	-9.5056
▁क्षेत्रीय	-9.50565
¤2	-9.50583
▁वाता	-9.50599
▁संस्कृति	-9.51014
▁चुने	-9.51025
▁जून	-9.51051
वल	-9.5108
▁हानि	-9.51095
▁अन्त	-9.51245
▁हट	-9.51271
▁सच	-9.51369
सार	-9.5144
▁निर्धारिती	-9.51493
शास	-9.51552
ed	-9.51655
ियर	-9.51657
▁व्या	-9.51739
न्स	-9.51752
ाइल	-9.51923
ुस	-9.52036
▁संस्थानों	-9.52038
स्व	-9.52143
▁क्ष	-9.52273
▁कवि	-9.52552
५	-9.52648
अलग	-9.52679
▁16	-9.52696
रेख	-9.52814
ट्ट	-9.52893
▁E	-9.53046
नतम	-9.5309
न्ट	-9.53113
▁संसाधन	-9.53143
कल्पना	-9.53161
जात	-9.53436
साथ	-9.53497
50	-9.5355
उन्हीं	-9.53724
▁बैठे	-9.5373
▁गंभीर	-9.5412
▁विद्युत	-9.5412
▁रद्द	-9.5412
▁गुमराह	-9.5412
▁निगम	-9.54122
▁दशक	-9.54126
▁स्क्रीन	-9.54127
▁अर्थव्यवस्था	-9.54128
pres	-9.54129
▁लोकतंत्र	-9.54138
▁पंक्ति	-9.54139
▁संरचना	-9.54147
▁कहेंगे	-9.54188
▁पेड़	-9.542
याँ	-9.54237
▁चुनाव	-9.54277
▁हृदय	-9.54351
▁इस्लाम	-9.54354
बाइल	-9.54354
▁राजनीतिक	-9.54359
▁अज	-9.54381
▁जरूरी	-9.54384
र्ग	-9.54453
ारिक	-9.54492
▁संचार	-9.54492
▁अधिकारियों	-9.54694
▁सत्र	-9.54695
▁रखें	-9.54735
▁शीर्षक	-9.54745
▁कथा	-9.5486
ध्य	-9.55184
▁डा	-9.55363
यान	-9.55503
कला	-9.55619
माज़	-9.55791
▁३	-9.55911
▁रस	-9.55917
▁सीता	-9.56019
▁भाव	-9.56024
▁100	-9.56148
▁प्रदर्श	-9.56152
▁पड़ा	-9.56153
▁दुर्	-9.56322
▁1.	-9.5647
▁50	-9.56517
र्त	-9.56556
कर्ता	-9.56945
ेज	-9.56968
िए	-9.57034
यत	-9.57082
▁प्रोग्राम	-9.57083
▁पट	-9.5714
▁शर्त	-9.5714
▁आता	-9.57213
विज्ञान	-9.57261
मैं	-9.57264
ाम	-9.57388
▁भा	-9.57576
▁ईमानदार	-9.57847
योग	-9.5816
ब्ब	-9.58359
▁गठ	-9.58381
▁पाए	-9.584
▁सामन	-9.58406
▁यंत्र	-9.58426
ष्ठ	-9.58507
पाद	-9.58549
▁धार्मिक	-9.58665
▁हिदायत	-9.58665
▁ऑनलाइन	-9.58665
▁दृष्टिकोण	-9.58665
बिल्कुल	-9.58666
▁अध्याय	-9.58667
▁परस्पर	-9.58668
▁शोध	-9.58669
▁हजार	-9.58669
▁घोषणा	-9.5867
पक	-9.58678
▁गतिविधियों	-9.58684
▁बोझ	-9.58686
▁उत्तम	-9.58692
▁क्षमा	-9.58706
▁जायेगा	-9.5871
▁चढ़	-9.58731
▁सहमत	-9.58775
▁अनुच्छेद	-9.58784
तोष	-9.58793
▁प्रेर	-9.58825
▁सीम	-9.58846
▁तरफ़	-9.58869
▁स्था	-9.58885
▁हस्त	-9.5894
▁व्यय	-9.5899
▁दौर	-9.59053
▁किसानों	-9.59071
▁सुख	-9.59152
▁पिता	-9.59174
▁शैली	-9.59269
▁कदा	-9.5928
▁किनार	-9.59296
▁हैः	-9.59328
▁जीवित	-9.59345
▁दोस्त	-9.59346
▁आठ	-9.59441
जिस	-9.59576
▁तट	-9.59718
▁कर्मचारी	-9.59805
▁सूर	-9.59869
▁जल्दी	-9.59929
एगा	-9.59963
▁रोज़	-9.60103
▁बजाय	-9.60183
▁सुल	-9.60186
पट	-9.60195
ट्स	-9.60237
▁सबके	-9.60333
हरू	-9.60359
▁p	-9.60368
01	-9.60408
¤¤	-9.60413
▁बॉ	-9.60434
▁एफ	-9.60442
▁सै	-9.60473
▁चु	-9.60523
▁नियमों	-9.60525
ॉन	-9.60575
▁लगाता	-9.60585
कू	-9.60614
वें	-9.60672
▁मौ	-9.6081
▁बड	-9.60811
ाओ	-9.60849
h	-9.60896
ांतर	-9.60935
म्म	-9.60977
लोड	-9.61016
▁नव	-9.61139
ायिक	-9.61143
▁बद	-9.61149
ज्	-9.61194
ांति	-9.61277
▁बस्त	-9.61331
ाइड	-9.61409
तुल	-9.6161
▁मुख	-9.61679
▁क्ल	-9.61713
भोग	-9.61828
दुनिया	-9.61983
क्षेत्र	-9.6199
धर्म	-9.62061
▁जल्द	-9.62184
्ला	-9.62274
नर	-9.62303
ज़ी	-9.62366
गण	-9.62542
▁हाथों	-9.62626
यह	-9.63145
▁द्वार	-9.63165
ज्ञ	-9.63213
on	-9.63238
▁अपील	-9.63287
▁नियंत्र	-9.63299
▁झुठला	-9.63338
िब	-9.63373
▁परंपरा	-9.63393
वाला	-9.63403
▁विद्वान	-9.63427
▁हालांकि	-9.63427
▁बख्श	-9.63427
▁पंजाब	-9.63427
Com	-9.63428
▁खूब	-9.63428
▁तस्वीर	-9.63428
▁सीधे	-9.63431
▁अफ्रीका	-9.63431
▁आरम्भ	-9.63435
▁रीति	-9.63451
▁मिशन	-9.63468
▁साधन	-9.63471
▁स्वागत	-9.63481
▁उभर	-9.63486
▁आदर्श	-9.63497
▁विफल	-9.63502
▁नीतियों	-9.63523
▁तल	-9.6355
▁पस	-9.63666
जनक	-9.63678
▁शुभ	-9.63683
▁स्वच्छ	-9.6379
▁कोशिका	-9.63792
ख़र्च	-9.63823
▁वस्तुओं	-9.63829
▁औरतों	-9.6389
▁स्वामी	-9.63939
वृत्त	-9.63971
▁सच्चे	-9.64026
▁गृह	-9.64043
¤1	-9.64128
▁तकनीकी	-9.64171
▁ख़ा	-9.64171
▁खुला	-9.643
▁रहना	-9.644
ाणु	-9.64535
गें	-9.64551
रू	-9.64594
▁एशिया	-9.64638
▁रहें	-9.64674
▁चरण	-9.64764
▁बो	-9.64869
तक	-9.64892
▁जुड़	-9.64968
▁खान	-9.64988
▁13	-9.65249
बारा	-9.65454
सु	-9.65484
▁तु	-9.65775
▁मुह	-9.65948
▁एम	-9.65989
टन	-9.66065
नाम	-9.66098
कुल	-9.66145
प्रिय	-9.66182
पाल	-9.66209
वन	-9.66213
ुन	-9.6633
लक	-9.66364
▁लेना	-9.66398
▁कैस	-9.66594
▁जू	-9.66654
▁फि	-9.6672
ॉक्स	-9.66724
णी	-9.66778
हीम	-9.66861
▁तर्क	-9.66874
जल	-9.66893
V	-9.66924
बाहरी	-9.66959
▁फ़रिश्त	-9.6717
▁मुं	-9.67189
लाइन	-9.67257
▁चीज	-9.67275
▁मानो	-9.67715
क्रिया	-9.67822
ुम	-9.67915
▁पति	-9.67985
पान	-9.68025
▁कीमत	-9.68041
ंडा	-9.68247
▁ऊँच	-9.68363
▁इत्यादि	-9.68427
▁एवोल्यूशन	-9.68427
▁दायित्व	-9.68427
▁निष्क्रिय	-9.68427
▁फ़ैसला	-9.68427
▁भाषण	-9.68427
▁महत्त्व	-9.68427
▁महामहिम	-9.68427
▁संघर्ष	-9.68427
▁संस्करण	-9.68427
▁अनुमोद	-9.68427
▁खिलाफ	-9.68428
▁मुकदम	-9.68428
▁हत्या	-9.68428
▁जनवरी	-9.68429
▁उद्घाट	-9.68429
ment	-9.68437
▁सुबह	-9.68438
प्ताह	-9.68439
▁अनुकूल	-9.68449
▁चेहर	-9.68451
▁जमीन	-9.68457
▁(2)	-9.68495
▁प्रचार	-9.68519
▁घेर	-9.68521
▁वाद्य	-9.68548
▁नौकर	-9.68581
▁उद्	-9.68603
▁पश्चात्	-9.68636
▁पद्धति	-9.68658
▁अं	-9.68686
▁शिकार	-9.68687
▁उतर	-9.68731
नेवाले	-9.68733
▁प्रोत्साहन	-9.6874
▁प्राण	-9.68751
ाधिकार	-9.68756
▁शक़	-9.68776
▁पेट	-9.68811
▁उतन	-9.68865
▁फु	-9.68886
क्षित	-9.68922
रोध	-9.68943
▁वेब	-9.68943
▁चलते	-9.68983
▁मज़ा	-9.69006
▁ट्रैक	-9.69037
19	-9.69077
▁समझते	-9.69092
▁विह	-9.691
▁दीन	-9.6917
▁साधारण	-9.6919
ासिल	-9.6924
▁बनाते	-9.69365
▁क्रो	-9.69511
निक	-9.69593
st	-9.69678
▁शि	-9.69764
▁शास्त्र	-9.69834
▁पारित	-9.69953
▁कट	-9.69954
▁वन	-9.69978
ैन	-9.70062
▁पूछा	-9.70085
▁नौ	-9.70291
▁F	-9.70305
▁खुल	-9.70399
वाई	-9.70416
▁जय	-9.70447
▁वी	-9.70514
▁संत	-9.70697
▁जुड़े	-9.70745
हाल	-9.71084
▁करार	-9.7111
क्षक	-9.71368
en	-9.71426
वाले	-9.71683
▁स्टा	-9.71777
B	-9.71855
13	-9.71863
▁कॉ	-9.71915
▁192	-9.71955
▁लेता	-9.72166
४	-9.72206
ot	-9.72404
▁ज़ि	-9.72406
▁कर्मचार	-9.72412
मात्र	-9.72429
▁झगड़	-9.72665
ाते	-9.72701
▁परिवर्त	-9.72715
शासन	-9.72863
दिन	-9.72911
▁आयोजन	-9.72916
▁विन	-9.73181
▁वाद	-9.73232
▁अध	-9.73306
▁दुख	-9.73614
▁तारीख	-9.7365
सब	-9.73652
▁197	-9.73666
▁अद्यतन	-9.7369
▁कटौती	-9.7369
▁परामर्श	-9.7369
▁परिणामस्वरूप	-9.7369
▁बुनियाद	-9.7369
▁संलग्न	-9.7369
▁सांस्कृतिक	-9.7369
▁स्तंभ	-9.73691
▁कनेक्शन	-9.73691
▁निरंतर	-9.73691
▁संविदा	-9.73691
▁सुंदर	-9.73691
▁ख़ुश	-9.73692
▁प्रतीक्षा	-9.73694
▁सिद्धांत	-9.73697
▁गणराज्य	-9.73697
▁थोड़ा	-9.73698
▁स्त्री	-9.73704
▁डाउन	-9.73705
▁स्वरूप	-9.7373
▁हिंदू	-9.73737
▁इन्सा	-9.7374
▁पीढ़	-9.73765
▁फोन	-9.73801
▁करीब	-9.73808
▁विवाद	-9.73814
▁विनिर्दिष्ट	-9.73815
▁प्रचल	-9.73836
▁खाली	-9.7384
▁इबर	-9.73845
▁काफ़िर	-9.73892
▁ग्री	-9.73948
▁खोलें	-9.73962
▁सारा	-9.73966
▁प्रधान	-9.73976
▁भागीदारी	-9.74013
▁संपूर्ण	-9.74052
साद	-9.74069
▁साफ़	-9.74119
▁मनो	-9.74122
▁एच	-9.74126
▁विमान	-9.74142
▁जंगल	-9.74172
▁लॉग	-9.74188
▁धीरे	-9.74214
▁दया	-9.74247
कारों	-9.7426
▁माह	-9.74375
▁Z	-9.74617
▁उड़ा	-9.74779
▁बनाकर	-9.74892
▁मीटर	-9.74944
▁देर	-9.75138
दिर	-9.7522
▁बनाई	-9.75249
गाह	-9.75309
▁कॉल	-9.75616
मेरे	-9.75616
▁साब	-9.75692
▁बुर	-9.75693
▁बनाना	-9.75734
▁उड़	-9.75748
▁घटा	-9.75929
ुआ	-9.75933
रबार	-9.75958
▁तुर	-9.76049
▁धु	-9.76154
▁कागज	-9.76286
लिंग	-9.76359
▁(%	-9.7636
▁एकत्र	-9.76476
▁बाहरी	-9.76491
▁दस	-9.76516
▁सिल	-9.76663
▁उद	-9.76734
हो	-9.76748
नेट	-9.76826
▁स्वर	-9.76865
विध	-9.77096
ra	-9.77295
▁तय	-9.77359
दल	-9.77413
▁संरक्ष	-9.77588
▁ईसा	-9.77623
न्दर	-9.77627
▁मोमिन	-9.77677
मंडल	-9.77691
H	-9.77765
k	-9.77773
आख़िर	-9.77787
िटी	-9.77792
ग्राम	-9.77808
कुछ	-9.77813
अल्लाह	-9.77821
वैध	-9.77837
▁नील	-9.77892
▁लोगो	-9.77942
▁मुस्	-9.77959
गढ़	-9.78041
▁कक्ष	-9.78117
पालन	-9.7816
▁संपाद	-9.78179
दो	-9.78504
पत	-9.78597
ायक	-9.78884
▁ताल	-9.79048
पन्न	-9.79069
॰	-9.79246
▁चेतावन	-9.79246
▁दीर्घ	-9.79246
▁नेतृत्व	-9.79246
▁फ़िल्टर	-9.79246
▁फ़ॉन्ट	-9.79246
▁मुश्किल	-9.79246
▁हथियार	-9.79246
▁ग्रंथ	-9.79246
▁सर्वेक्षण	-9.79246
ग़ालिब	-9.79246
▁सिस्टम	-9.79246
▁टैब	-9.79246
▁इंडिया	-9.79247
▁मतलब	-9.79247
▁अगस्त	-9.79247
▁उम्र	-9.79248
▁नृत्य	-9.79248
▁आनन्द	-9.7925
▁तुलना	-9.79251
▁संगम	-9.79252
▁विश्लेषण	-9.79254
▁संक्षिप्त	-9.79255
▁सौंप	-9.79256
▁भगवान	-9.79257
▁पट्टी	-9.79259
▁सड़क	-9.79259
ांग	-9.79263
▁शख़्	-9.79281
▁निर्देशिका	-9.79281
▁अभियान	-9.79286
of	-9.79289
▁दोहरा	-9.79292
▁श्रेणीः	-9.79319
▁गंगा	-9.79344
▁प्रत्यक्ष	-9.79345
▁लेंगे	-9.79377
▁दर्द	-9.79392
▁अवतर	-9.79408
▁समक्ष	-9.79421
▁पार्ट	-9.79424
फ्त	-9.79518
▁घोष	-9.79538
▁निहित	-9.79548
▁किलो	-9.79568
▁जिनको	-9.7961
▁तरीका	-9.79696
▁जम	-9.79719
र्न	-9.79735
▁रहेगा	-9.79746
ाशय	-9.79752
▁दर्शन	-9.79819
▁लगाया	-9.79895
▁फी	-9.79913
▁कृष्ण	-9.8005
▁मात्र	-9.80061
▁पोर्ट	-9.80082
▁नियमित	-9.80143
▁लगते	-9.80364
पति	-9.8037
▁लिखी	-9.80423
थि	-9.80465
▁मं	-9.80472
▁खड़े	-9.80608
स्थिति	-9.80626
र्ज़	-9.8066
▁खुली	-9.80673
▁नर	-9.80674
▁माप	-9.80703
▁बुरी	-9.80756
▁चली	-9.80783
▁चर	-9.80928
▁मई	-9.80973
▁अधिसूच	-9.80992
▁फैला	-9.81075
ंबर	-9.81147
ज़ार	-9.81258
▁खाना	-9.81299
लय	-9.8135
लोक	-9.81399
▁पत्त	-9.81473
▁शाह	-9.81503
▁नामक	-9.81504
▁देवी	-9.81567
▁रेल	-9.81717
घर	-9.8189
ूम	-9.81944
ियल	-9.81978
▁मूल्यों	-9.82045
▁m	-9.82078
▁प्राप्ति	-9.82117
▁वीर	-9.82124
▁लिखित	-9.82322
▁जग	-9.82459
▁198	-9.8256
लत	-9.82577
▁पहला	-9.82716
▁अना	-9.82807
▁लोड	-9.8283
▁खुले	-9.82872
▁काट	-9.82946
▁जीत	-9.83143
सहकारी	-9.83231
मस	-9.83284
:-	-9.83361
▁बेट	-9.83459
स्त्रियों	-9.83477
G	-9.83646
अपनी	-9.83696
▁संस्कृत	-9.83785
16	-9.83854
▁O	-9.83858
▁अदा	-9.83909
▁समर्थ	-9.8391
▁वेद	-9.83979
▁वर्षा	-9.84071
▁गांव	-9.84094
,000	-9.84132
क्ति	-9.8422
▁खतर	-9.84301
▁लगी	-9.84382
मार	-9.84532
▁अन्तर्	-9.84544
ूँगा	-9.84766
▁स्वतंत्र	-9.84819
▁रन	-9.84842
▁ख़ास	-9.84934
▁कीट	-9.8499
▁तोड़	-9.85051
▁आवाज	-9.85091
भर	-9.8511
व्यवसाय	-9.85128
▁इकट्ठा	-9.85128
▁उपयोक्ता	-9.85128
▁औषध	-9.85128
▁औसत	-9.85128
▁पोजीशन	-9.85128
▁प्रसिद्ध	-9.85128
▁ब्याज	-9.85128
▁रौशन	-9.85128
विमर्श	-9.85128
▁कर्तव्य	-9.85128
▁सावधान	-9.85128
▁स्थिर	-9.85128
▁अप्रैल	-9.85128
▁ठिकाना	-9.85128
▁व्याख्या	-9.85128
▁देखभाल	-9.85129
▁मेहरबान	-9.85129
▁शिखर	-9.85129
▁बातचीत	-9.85129
▁जवाहर	-9.85129
▁प्राचीन	-9.85129
▁तिथि	-9.85129
▁लकड़ी	-9.85129
▁बिक्री	-9.8513
▁ढांच	-9.8513
▁मानसिक	-9.85131
▁पृष्ठभूमि	-9.85133
▁आंख	-9.85138
▁चिंता	-9.85138
▁प्रतिनिधित्व	-9.85141
▁मिनट	-9.85141
▁नज़र	-9.85143
ग़रज़	-9.85143
▁अंदर	-9.85151
▁शरीक	-9.85158
▁दिये	-9.85168
ana	-9.85182
▁इंटर	-9.85184
▁लक्षण	-9.8519
▁to	-9.85201
▁सत्याप	-9.85217
▁दीक्षा	-9.85244
प्रभु	-9.85259
दैव	-9.8527
▁पैमान	-9.85271
▁हिन्दू	-9.85284
▁संवाद	-9.85287
भव	-9.85326
▁क्लिक	-9.85383
▁सामान	-9.85447
▁समन्वय	-9.85447
ाइन	-9.85484
▁संस्थाओं	-9.85488
▁दीवार	-9.8551
▁विरू	-9.85516
▁योग्यता	-9.85605
संगत	-9.8563
▁भाषाओं	-9.85685
▁खड़ा	-9.8571
तीत	-9.85863
ाइट	-9.8589
▁फ्ल	-9.8594
▁शिक्षक	-9.85989
vi	-9.85991
काफिरों	-9.85993
▁प्राथमिकता	-9.86131
▁अन्	-9.86176
त्मक	-9.86378
▁तीसरे	-9.86442
▁ताकत	-9.8647
▁प्रतिभा	-9.865
▁मां	-9.86508
▁ईमानदारों	-9.8652
▁बदलें	-9.86545
▁आवास	-9.86607
अर	-9.86646
लम	-9.86652
▁सर्वाधिक	-9.86775
▁लि	-9.86908
▁२००	-9.86945
▁लाइन	-9.87008
▁स्ट्र	-9.87072
▁वरन	-9.87153
कालीन	-9.87264
▁वस	-9.87355
▁लु	-9.87369
▁उधार	-9.87461
▁बीज	-9.87498
धारण	-9.87563
▁हार	-9.87847
▁निर्	-9.87854
्रि	-9.88079
▁27	-9.88213
कर्ताओं	-9.88373
▁उपर	-9.88728
sh	-9.88955
इश	-9.89014
▁80	-9.89172
णा	-9.89361
्हे	-9.89423
हु	-9.89631
कारा	-9.89819
is	-9.89885
ऑ	-9.89923
मीटर	-9.90005
▁लिख	-9.9012
▁प्रबंध	-9.90413
चरण	-9.9051
▁ठो	-9.90526
खंड	-9.90538
▁छिप	-9.90654
▁एड	-9.90659
टिंग	-9.90775
▁रहत	-9.90833
नीति	-9.90839
pr	-9.90903
▁जाएं	-9.90945
▁होम	-9.90946
▁दि	-9.911
▁लौटा	-9.91143
▁दूरी	-9.91185
धारक	-9.9125
ाइयों	-9.91265
▁पैस	-9.91352
her	-9.91366
▁आध्यात्मिक	-9.91378
▁इलेक्ट्रॉनिक	-9.91378
▁औलाद	-9.91378
▁गिरफ्तार	-9.91378
▁जलवायु	-9.91378
▁धैर्य	-9.91378
▁फिलीस्तीन	-9.91378
▁मस्जिद	-9.91378
▁विद्यमान	-9.91378
▁शुभकामनाएं	-9.91378
▁पवित्र	-9.91378
▁सम्मिलित	-9.91378
▁ब्रिटि	-9.91378
▁सिविल	-9.91379
▁बिजली	-9.91379
▁बच्चा	-9.91379
▁मिसाल	-9.91379
▁जैव	-9.91379
▁शाखा	-9.9138
मुख	-9.9138
▁अक्सर	-9.91381
▁शून्य	-9.91385
▁दयालु	-9.91385
▁जिम्मेदार	-9.91388
▁गुप्त	-9.91397
▁गुजरात	-9.91398
▁लिंक	-9.91399
▁सुझा	-9.91399
je	-9.91399
▁फरमा	-9.91404
▁संक्रमण	-9.91405
▁यूनिट	-9.91407
▁सिद्ध	-9.9141
▁अनुरोध	-9.9143
▁संदेह	-9.91432
▁दिखायें	-9.9144
▁जहाज	-9.91451
▁मिलेगी	-9.91451
▁घंट	-9.91473
▁लड़ाई	-9.9151
▁प्रसार	-9.91512
▁भौतिक	-9.91527
ोबार	-9.91546
▁कम्प	-9.91572
▁सजदा	-9.91584
▁अक्षर	-9.91603
▁प्रवाह	-9.91608
▁नकद	-9.91653
▁संचालन	-9.91671
▁सुविधाओं	-9.9168
▁अकेल	-9.91688
▁विभाजन	-9.91706
▁पेज	-9.91708
▁ध्वनि	-9.91717
▁विश्वसनीय	-9.91717
▁अनुमान	-9.91774
▁बेच	-9.91777
▁उठाया	-9.91803
ास्त	-9.91829
▁भला	-9.91838
क्षा	-9.91858
▁हिस्से	-9.91886
▁आउट	-9.9191
▁पत्नी	-9.9191
राइट	-9.9199
▁अभाव	-9.91998
▁बहुतेर	-9.92019
▁लाया	-9.9203
▁जोर	-9.92052
मिंग	-9.9212
डि	-9.92233
▁रिक्त	-9.92344
▁किस्म	-9.92354
▁ग्रहण	-9.92395
▁बाग	-9.92403
▁खतरा	-9.92464
▁देखकर	-9.92515
▁दाव	-9.92572
▁वादा	-9.92665
▁केंद्रित	-9.92697
▁जि	-9.92701
▁बोले	-9.9274
▁मामला	-9.92788
▁40	-9.92795
िक्र	-9.92856
म्मा	-9.92901
▁कहानी	-9.93039
▁मंडल	-9.93077
▁चौ	-9.93411
▁निवास	-9.93413
▁त्रि	-9.93509
़त	-9.93513
▁५	-9.93535
▁यून	-9.93543
▁पड़ता	-9.93585
▁सवाल	-9.93619
ज्ञान	-9.93695
प्त	-9.93807
मक	-9.93873
रोपण	-9.93877
प्रद	-9.93986
▁28	-9.94076
ताब	-9.94139
ख्य	-9.9426
▁प्रकाशन	-9.94279
परिक	-9.94372
▁समा	-9.94504
▁वर्	-9.94551
▁ठहरा	-9.94871
▁आओ	-9.94959
▁प्रशंसा	-9.95312
▁जड़	-9.95358
▁आरोप	-9.95494
15	-9.95577
▁देवता	-9.95733
ूप	-9.9611
▁व्	-9.96562
us	-9.96568
(	-9.96611
बोध	-9.96612
यदि	-9.96617
तंत्र	-9.96643
ेक्ट	-9.96934
▁स्टे	-9.96953
▁199	-9.96985
▁हिस	-9.96986
▁मस	-9.97031
लु	-9.97037
▁बीमार	-9.97041
▁इतने	-9.97107
▁डाले	-9.97123
टक	-9.97147
▁मुद्र	-9.97195
▁ईमानवाल	-9.97292
▁194	-9.97315
▁विषयों	-9.97417
दारों	-9.97528
रेश	-9.97531
पथ	-9.97763
कर्म	-9.97783
▁कोड	-9.97785
▁समृद्ध	-9.97805
ियत	-9.97892
▁सच्चा	-9.97907
▁भंडार	-9.97937
▁पॉ	-9.97945
रेखा	-9.97968
▁मिटा	-9.97995
९	-9.98027
▁प्राधिक	-9.98041
िष्णु	-9.98044
क़ुरआन	-9.98045
▁उन्होने	-9.98045
▁कश्मीर	-9.98045
▁कार्रवाई	-9.98045
▁कौशल	-9.98045
▁परिभाषित	-9.98045
▁विरासत	-9.98045
▁शारीरिक	-9.98045
▁श्रद्धा	-9.98045
▁सर्वोच्च	-9.98045
▁सफेद	-9.98045
▁त्याग	-9.98045
▁पूर्ति	-9.98045
▁फायद	-9.98045
▁समझौते	-9.98045
▁दाहिन	-9.98045
▁उत्साह	-9.98046
▁निदेशक	-9.98046
▁समझौता	-9.98046
▁सचिव	-9.98046
▁पंचांग	-9.98048
▁जनसंख्या	-9.9805
▁पर्वत	-9.9805
▁कमांड	-9.98051
▁फैसल	-9.98052
▁गेंद	-9.98052
▁१९	-9.98053
▁2007	-9.98054
▁नवंबर	-9.98054
▁महसू	-9.98055
▁उद्यान	-9.98055
▁अल्प	-9.98059
▁मकान	-9.98059
▁2013	-9.9806
▁छुट्ट	-9.98061
▁रेलवे	-9.98065
▁प्रारूप	-9.98069
▁तत्काल	-9.98069
uk	-9.98076
▁पसन्द	-9.9808
▁डाटा	-9.9808
▁दूध	-9.98096
▁चेतन	-9.98099
▁बाहम	-9.98109
▁सिखा	-9.98111
▁परिपत्र	-9.98113
▁आवाज़	-9.98118
▁2000	-9.98118
▁अनुपात	-9.98124
▁पुत्र	-9.98129
▁उच्चतम	-9.98155
ीर्ण	-9.98183
▁29	-9.98237
त्यंत	-9.98248
▁मुंब	-9.98262
▁चैनल	-9.98268
▁31	-9.98312
▁नोट	-9.98328
▁24	-9.98332
-20	-9.98342
▁गहरा	-9.9836
▁मानवीय	-9.98407
▁बदलाव	-9.98419
▁पहलू	-9.98425
▁प्रभार	-9.9843
▁सूत्र	-9.98477
▁स्मृति	-9.98511
▁रोजगार	-9.98517
लेख	-9.98527
▁उदार	-9.98534
चूंकि	-9.98541
कभी	-9.98584
▁चिह्न	-9.98614
▁दंड	-9.98621
▁मिलती	-9.98624
▁द्रव	-9.98627
▁बोस	-9.9867
थोड़े	-9.98685
▁नजर	-9.98688
क्का	-9.98722
युक़्त	-9.98741
34	-9.98754
▁अनुवाद	-9.9885
बिलकुल	-9.98869
tion	-9.98975
30	-9.99069
▁रिज	-9.99319
▁चलो	-9.99321
▁माँग	-9.9933
▁मानवता	-9.99382
क्ल	-9.99412
hi	-9.99432
▁बीमारी	-9.99456
▁वंश	-9.99512
▁निवासी	-9.99515
▁संसाधनों	-9.99664
▁लानेवालो	-9.99683
जू	-9.99789
▁”-	-9.99861
▁ग्राम	-9.99873
ंडर	-9.99926
▁वैध	-9.99993
▁घट	-10.0002
▁बजा	-10.0002
सव	-10.0012
▁आयी	-10.0018
▁भावी	-10.0019
▁असम	-10.0024
फी	-10.0031
उसका	-10.0031
▁चू	-10.0039
2,	-10.0039
▁चलाने	-10.0042
▁बचत	-10.0046
डर	-10.0046
▁समुद्री	-10.0051
प्रति	-10.0057
▁–	-10.006
▁चुना	-10.0065
▁डो	-10.007
▁६	-10.0078
▁सामान्यत	-10.0081
▁पक्षों	-10.0084
th	-10.0086
रोसा	-10.0093
▁मैने	-10.0111
60	-10.0121
▁चीज़े	-10.0134
भू	-10.0147
ावस्था	-10.016
▁w	-10.0163
▁बोली	-10.0167
▁दू	-10.0174
▁...	-10.0175
▁मशीन	-10.0184
▁तस	-10.0192
▁कार्ड	-10.0211
▁सांस	-10.0248
स्तान	-10.0262
▁टॉ	-10.0267
रिट	-10.0272
▁आफ	-10.0283
ंदन	-10.0302
०००	-10.0302
ोगे	-10.031
पार	-10.0321
▁चारों	-10.0335
▁डराने	-10.0342
फ़्र	-10.0349
W	-10.0369
पैग़म्बर	-10.0373
संभव	-10.0378
ाचार	-10.0386
▁चीन	-10.0401
वर्ग	-10.0402
▁प्रत्य	-10.0402
▁देखो	-10.0403
''	-10.0406
सभा	-10.0427
▁अमेरिक	-10.0431
मिट	-10.0469
मारी	-10.047
हक़	-10.0471
▁रच	-10.0472
▁कृत	-10.0476
▁दृढ़	-10.0484
▁इक	-10.0491
▁चैन	-10.0499
▁बीमा	-10.0504
▁आकर्ष	-10.0508
▁गाँधी	-10.0519
▁बिगाड़	-10.0519
▁2012	-10.0519
▁2014	-10.0519
▁अस्तित्व	-10.0519
▁जम्मू	-10.0519
▁ट्यूब	-10.0519
▁पुस्तिका	-10.0519
▁फिरऔन	-10.0519
▁मीडिया	-10.0519
▁संयंत्र	-10.0519
▁इंडियन	-10.0519
▁बिंदु	-10.0519
▁विडियो	-10.0519
▁शत्रु	-10.0519
▁प्रार्थना	-10.0519
▁टैग	-10.0519
▁जटिल	-10.0519
▁समीक्षा	-10.0519
▁ऊतक	-10.0519
▁मौलिक	-10.0519
▁पर्यटन	-10.0519
▁आज़मा	-10.0519
▁आनंद	-10.0519
▁संभाव	-10.0519
शोथ	-10.0519
▁प्रभुत्वशाली	-10.0519
▁ज़िन्दगी	-10.0519
prh	-10.0519
▁साझीदार	-10.052
▁सर्वोत्	-10.052
▁‘‘	-10.052
▁राजस्थान	-10.052
▁पाकिस्तान	-10.052
▁पंजीकरण	-10.052
▁टूट	-10.052
▁क्रांति	-10.0521
▁परिस्थितियों	-10.0521
▁१५	-10.0521
▁पुस्तकालय	-10.0521
▁डिजिटल	-10.0521
▁क़दम	-10.0523
▁इकाई	-10.0525
▁सहेजें	-10.0526
▁कम्पनी	-10.0526
▁शोक	-10.0527
▁चमक	-10.0528
▁आजाद	-10.0528
▁पूज्य	-10.053
▁प्रतिक्रिया	-10.053
ईमान	-10.053
▁संध्य	-10.053
▁दस्तावेज	-10.0532
bm	-10.0532
▁चाहती	-10.0535
▁उम्मीद	-10.0536
▁भरे	-10.0537
▁विनय	-10.0539
▁छूट	-10.0541
▁प्रसन्नता	-10.0542
▁श्रेणी	-10.0544
▁मर्द	-10.0545
कथित	-10.0546
▁मेहर	-10.0548
▁भि	-10.0551
▁भौ	-10.0552
ांकन	-10.0552
▁भले	-10.0553
▁आग्रह	-10.0554
▁ज़्यादा	-10.0558
▁द्वीप	-10.0558
▁बाकी	-10.056
▁डरते	-10.0561
▁कुफ्फ़ार	-10.0569
▁प्रबंधक	-10.0572
▁सतत	-10.0573
लिय	-10.0578
ख़ूब	-10.058
▁दिखाया	-10.0585
▁मित्रता	-10.0586
दत्त	-10.0587
▁सरदार	-10.0592
▁चंद्र	-10.0593
▁पड़त	-10.0594
▁चुनौती	-10.0603
▁खिल	-10.0609
मैन	-10.0609
▁आये	-10.061
-19	-10.0614
▁अपनाया	-10.0614
▁शुद्ध	-10.0614
▁दान	-10.062
▁अर्ज	-10.0622
ोद	-10.0629
▁जिले	-10.063
▁फट	-10.0631
रहित	-10.0638
08	-10.0646
▁एंड	-10.0647
▁निकलने	-10.0651
्ति	-10.0658
▁चीजों	-10.067
▁चे	-10.0682
स्प	-10.0687
समय	-10.0689
▁पाई	-10.0689
▁22	-10.0692
▁H	-10.0714
ाह्य	-10.0718
▁परमाण	-10.0724
▁क्य	-10.0728
▁पू	-10.074
▁बनाये	-10.0755
▁मूर्ति	-10.0761
▁माता	-10.0778
▁मूल्यांक	-10.0783
▁संगठनों	-10.0788
▁दबा	-10.0795
▁दह	-10.0804
▁बाज	-10.0806
ol	-10.082
▁घन	-10.0822
हार्द	-10.0836
वेयर	-10.0846
▁हिक	-10.0852
्हों	-10.0868
ज्ज	-10.0886
▁दिखाने	-10.0889
िस्ट	-10.0889
स्टर	-10.0895
▁फर्	-10.0896
ेयर	-10.0922
▁वर्गों	-10.0923
▁कामना	-10.0927
▁उद्देश्यों	-10.0947
▁सरो	-10.1004
▁डरा	-10.1023
▁पाल	-10.1035
ti	-10.1044
▁सोचा	-10.1054
िस्तान	-10.1072
▁अभिव्यक्ति	-10.1087
▁पन	-10.1101
ीदा	-10.1111
्ध	-10.1111
पूर्व	-10.1113
▁चख	-10.1127
▁बज	-10.1129
भेद	-10.1138
र्च	-10.1141
अज़ाब	-10.1143
निवेश	-10.1143
▁विद्यार्थ	-10.1154
▁करनेवाले	-10.1159
▁मंत्र	-10.1162
दु	-10.1163
प्रदान	-10.1165
रक्षित	-10.1168
▁खेत	-10.1169
.5	-10.117
उसके	-10.1189
ैया	-10.1192
▁संस्थाप	-10.1195
▁कही	-10.1202
स्ट्र	-10.1206
es	-10.1219
▁शिक्ष	-10.1233
म्मत	-10.1247
स्य	-10.1247
▁राजनीति	-10.1249
नेवाला	-10.1256
▁पशु	-10.1274
▁ढूंढ	-10.1278
▁बढ़त	-10.128
▁दोनो	-10.128
ेंद्र	-10.128
▁प्रतिनिधि	-10.1283
▁निभा	-10.1284
\	-10.1287
अनक़रीब	-10.1288
▁अस्पताल	-10.1288
▁आश्चर्य	-10.1288
▁न्यायाधीश	-10.1288
▁प्रयत्न	-10.1288
▁प्रयोक्ता	-10.1288
▁मुक़ाबल	-10.1288
▁विपणन	-10.1288
▁विपरीत	-10.1288
▁श्रृंखला	-10.1288
▁सभ्यता	-10.1288
▁सिफारिश	-10.1288
info	-10.1288
जहन्नम	-10.1288
▁विन्यास	-10.1288
▁पुष्टि	-10.1288
▁माबूद	-10.1288
▁सराहना	-10.1288
▁कमज़ोर	-10.1288
▁परिवहन	-10.1288
▁चरित्र	-10.1288
▁इमारत	-10.1288
▁मेहनत	-10.1288
▁आमंत्र	-10.1288
▁परेशान	-10.1288
▁नेअमत	-10.1288
▁अभिगम	-10.1288
lease	-10.1288
ंतरिक	-10.1288
▁मान्यता	-10.1288
ndia	-10.1288
▁वकील	-10.1288
▁नक़ल	-10.1289
▁चोट	-10.1289
ट्ठ	-10.1289
▁थोड़ी	-10.1289
▁संचय	-10.1289
▁परीक्षण	-10.129
▁कब्ज	-10.129
▁महीने	-10.129
ww	-10.129
▁झाड़	-10.129
▁भाष्	-10.1291
75	-10.1291
ोत्तर	-10.1292
▁रेडियो	-10.1292
▁कॉपी	-10.1292
▁नवान्वेषण	-10.1293
▁घुस	-10.1293
ख्याल	-10.1293
▁तमिल	-10.1294
▁मददगार	-10.1294
▁उन्नत	-10.1294
▁झुक	-10.1295
▁बिहार	-10.1295
च्च	-10.1295
▁संबोध	-10.1296
▁मुर्द	-10.1298
महीनों	-10.1302
▁दुआ	-10.1302
▁सकेगा	-10.1303
▁फूल	-10.1304
▁बजट	-10.1304
▁प्रतिबद्ध	-10.1307
तमाम	-10.1308
▁अंश	-10.1308
लॉकि	-10.1309
▁घू	-10.1309
▁प्रांत	-10.1309
▁ऑफ़	-10.1311
▁प्रभाग	-10.1312
▁अपमान	-10.1312
▁सृजन	-10.1312
▁दाख	-10.1312
किस	-10.1313
ियामत	-10.1314
▁पलट	-10.1315
▁वृ	-10.1316
▁अंध	-10.132
▁साहब	-10.1323
▁चाय	-10.1325
▁सज़ा	-10.1325
▁प्रतिभूति	-10.1327
▁शेख	-10.1334
टू	-10.1336
डल	-10.1348
▁छह	-10.135
▁चिप	-10.1351
▁नेपाल	-10.1351
मिल	-10.1352
जलि	-10.1353
▁करोगे	-10.1359
▁मांस	-10.1376
▁आदान	-10.138
▁मध्यम	-10.141
हाउस	-10.1418
िग	-10.1424
▁गांवों	-10.1426
000	-10.1426
▁21	-10.1431
ख्त	-10.1442
▁भेद	-10.1443
▁भेजे	-10.1453
▁बेटे	-10.1456
▁बारह	-10.1458
▁कराया	-10.1464
▁दर्शा	-10.1475
▁ख़त	-10.148
१०	-10.1481
▁पढ़ा	-10.1486
▁G	-10.1487
कट	-10.1502
▁लाम	-10.151
▁पूज	-10.1512
▁घड़	-10.1512
गोलि	-10.1516
▁गढ़	-10.1522
र्द्ध	-10.1558
प्प	-10.1578
▁पुस्तकों	-10.1603
न्दगी	-10.1634
▁मास	-10.1637
वेद	-10.1638
▁सम्बन्धी	-10.1653
▁L	-10.166
▁वार्	-10.1675
उनकी	-10.1675
ेरत	-10.1686
कालिक	-10.1698
मल	-10.1705
▁कमर	-10.1713
वाय	-10.1721
33	-10.1722
06	-10.1728
▁समर्प	-10.1728
▁विश्वविद्यालयों	-10.1744
ंदा	-10.1748
रानी	-10.1759
▁रोगी	-10.1774
18	-10.1782
स्तर	-10.1783
फि	-10.1815
▁मुक्ति	-10.1826
रक्षण	-10.1827
▁लॉक	-10.1834
▁बचाने	-10.1869
▁नाथ	-10.1874
▁प्राप्तकर्ता	-10.1876
de	-10.1881
as	-10.1883
वॉ	-10.1885
▁(3	-10.1887
▁35	-10.1896
▁लेन	-10.1898
▁इस्	-10.1924
▁आकर	-10.1927
▁एल्	-10.1937
▁गईं	-10.1941
ाहित	-10.1949
▁मारे	-10.1956
ाबाद	-10.196
K	-10.197
▁नेता	-10.197
नैतिक	-10.197
Z	-10.1974
लोगों	-10.1978
▁प्राथमिक	-10.1979
ूस	-10.1986
विचार	-10.1988
▁आज्ञा	-10.1989
मार्ग	-10.1991
▁तकनीक	-10.1992
▁प्राधिकार	-10.1996
▁विविध	-10.2006
▁75	-10.2012
▁कहां	-10.2015
▁तथ्य	-10.2017
▁हैंः	-10.2032
▁फार्म	-10.2039
▁गौ	-10.205
वृत्ति	-10.2054
▁अपेक्ष	-10.2054
53	-10.2065
▁प्रोत्साह	-10.2068
स्त्र	-10.2088
लिन	-10.209
▁l	-10.2095
▁पौ	-10.2097
▁दम	-10.211
▁आंध्र	-10.2113
▁गतिविधि	-10.2118
▁व्यावस	-10.212
विड	-10.212
▁मधु	-10.212
▁जादू	-10.2121
▁उपभोक्ता	-10.2121
▁प्रतियोगिता	-10.2121
▁लाइसेंस	-10.2121
▁सुदृढ़	-10.2121
▁सूक्ष्म	-10.2121
▁अग्नि	-10.2121
▁अभिभाषण	-10.2121
▁आत्मनिर्भर	-10.2121
▁कम्प्यूटर	-10.2121
▁कार्बन	-10.2121
▁डेस्कटॉप	-10.2121
▁दरमियान	-10.2121
▁दुर्घटना	-10.2121
▁पृथ्वी	-10.2121
▁प्रासंगिक	-10.2121
▁ब्राह्मण	-10.2121
▁मजदूर	-10.2121
▁रंगमंच	-10.2121
▁स्नातक	-10.2121
▁अज्ञात	-10.2121
▁आपूर्ति	-10.2121
▁गंतव्य	-10.2121
▁तत्वदर्शी	-10.2121
▁पैरामीटर	-10.2121
▁आखिर	-10.2121
▁सितम्बर	-10.2121
▁ज़िन्दा	-10.2121
▁दुःख	-10.2121
▁जर्मनी	-10.2121
▁घरेलू	-10.2121
▁जुलाई	-10.2121
▁अखिल	-10.2121
▁जोखिम	-10.2121
▁साम्राज्य	-10.2122
detail	-10.2122
मूहि	-10.2122
▁कमजोर	-10.2122
▁फिल्म	-10.2122
▁कूट	-10.2122
▁आबादी	-10.2122
▁2017	-10.2122
▁आस्था	-10.2122
▁स्थग	-10.2122
▁नूह	-10.2122
▁असमर्थ	-10.2122
▁अदालत	-10.2122
▁प्रेरणा	-10.2123
निर्वाचन	-10.2123
▁डूब	-10.2123
▁अभ्यास	-10.2123
▁शैक्ष	-10.2123
▁विद्रोह	-10.2123
▁पाइप	-10.2123
▁स्विच	-10.2123
▁भड़क	-10.2124
▁खत्म	-10.2124
▁मिटाएँ	-10.2126
▁सलाम	-10.2126
कारात्मक	-10.2126
▁दस्तावेज़	-10.2126
dent	-10.2126
▁बादशाह	-10.2127
ow	-10.2127
▁स्टेशन	-10.2127
देन	-10.2127
भार	-10.2128
▁वरिष्	-10.2128
▁ज़ुल	-10.2128
▁खून	-10.2129
▁बचे	-10.2129
▁कंपनियों	-10.2129
▁संकट	-10.213
▁अर्थात्	-10.213
▁आक्रमण	-10.2131
▁परिसर	-10.2132
▁मक्का	-10.2133
▁पड़ेगा	-10.2134
▁मोदी	-10.2134
▁स्वीकृति	-10.2135
▁वृक्ष	-10.2135
▁कहलात	-10.2137
क्शन	-10.2138
▁स्पष्टीकरण	-10.2138
▁संबद्ध	-10.2139
▁लटक	-10.2139
▁भलाई	-10.214
▁बायो	-10.2142
▁शोर	-10.2142
▁44	-10.2142
▁मासिक	-10.2144
▁सूर्य	-10.2144
▁सूख	-10.2147
प्पल	-10.2147
▁रवी	-10.215
▁झोंक	-10.2152
!"	-10.2154
शिक्षण	-10.2157
बाद	-10.2158
▁करेगी	-10.2159
▁दुखद	-10.2161
▁हराम	-10.2163
▁घटनाओं	-10.2164
हिमा	-10.2171
▁बुराई	-10.2173
▁कर्ज	-10.2175
▁परियोजनाओं	-10.2176
▁साह	-10.2178
▁सेवाएं	-10.218
▁the	-10.2183
▁तथापि	-10.2183
▁सशक्त	-10.2185
▁बांस	-10.2189
▁ब्रा	-10.2195
▁छात्रों	-10.2199
▁कष्ट	-10.2202
▁आहार	-10.2206
▁पौधों	-10.2208
▁सागर	-10.2209
▁संपादक	-10.221
ौल	-10.2214
▁सौर	-10.2214
▁भक्ति	-10.2215
शस्त्र	-10.2219
▁सम्मानित	-10.2219
39	-10.222
इफ	-10.2222
▁जेल	-10.2226
▁धारण	-10.2229
किसी	-10.223
▁होगें	-10.223
▁छि	-10.2246
▁आइ	-10.2266
▁पारि	-10.2268
▁कार्यान्वय	-10.2268
▁ख्वाह	-10.2268
▁सदस्यता	-10.2269
▁अकब	-10.2269
▁कुमार	-10.2273
ियार	-10.2278
▁आना	-10.228
▁3.	-10.2281
ानु	-10.2284
ुरु	-10.2287
▁झगड़ा	-10.2289
▁बिता	-10.2315
गोया	-10.2321
▁बोध	-10.2322
▁प्रतिष्ठा	-10.2335
सभापति	-10.2347
▁४	-10.2365
▁मित्रों	-10.2366
▁उत्पादक	-10.2369
सीसी	-10.2375
लिप	-10.2387
▁प्रती	-10.2392
iv	-10.2398
iii	-10.2399
वती	-10.2401
▁छिपा	-10.2409
▁कर्ता	-10.2413
चुर	-10.2418
▁सहज	-10.2423
न्तर	-10.2426
▁शै	-10.243
भक्त	-10.2439
▁लेखन	-10.2452
▁अर्	-10.2462
पट्ट	-10.2466
▁जुड़ा	-10.2472
▁पड़ी	-10.2491
▁बां	-10.25
▁जानी	-10.2506
▁राज़	-10.251
शाला	-10.2516
न्ड	-10.2536
07	-10.2558
ल्क	-10.2563
ब्ल	-10.2571
▁टो	-10.2589
न्हीं	-10.261
▁उठाए	-10.2611
▁बाब	-10.2619
▁क़ब्	-10.2621
▁नीं	-10.2622
▁सुर	-10.2623
श्रमिक	-10.263
▁वास	-10.2639
राज्य	-10.264
विद	-10.2655
▁जानेवाल	-10.2666
▁आर्	-10.2674
▁प्रतिवाद	-10.2678
ग़ा	-10.2713
▁वं	-10.2726
▁जला	-10.2729
▁द्वि	-10.2739
नाक	-10.2745
▁मौक	-10.2755
▁सत्	-10.2793
▁डालें	-10.2815
▁दर्शात	-10.2824
सज्ज	-10.2865
▁ऋ	-10.2877
गर्भ	-10.2885
वस्तु	-10.2886
अच्छा	-10.2886
नगर	-10.2887
मुझे	-10.2887
पहले	-10.2887
विश्वास	-10.2887
नहीं	-10.2888
▁गुम	-10.2894
ग्रहण	-10.2904
▁देय	-10.2908
05	-10.2919
▁लिखे	-10.2933
▁ख़ुद	-10.2938
▁सच्च	-10.2948
मोह	-10.2948
▁c	-10.2954
▁इंच	-10.2955
चित्र	-10.2957
भारत	-10.2961
▁रुक	-10.2965
सिन	-10.2965
▁ग्रे	-10.2974
क्यू	-10.2975
क़्त	-10.2977
वाली	-10.2988
▁उत्कृष्ट	-10.2996
गैर	-10.3006
▁हिंद	-10.3012
शोधन	-10.3024
▁तकलीफ	-10.3026
▁सुभाष	-10.303
क़ुदरत	-10.303
▁उल्लंघन	-10.303
▁जागरूक	-10.303
▁टेलीफोन	-10.303
▁डिजाइन	-10.303
▁दिसंबर	-10.303
▁परहेज़गार	-10.303
▁सहानुभूति	-10.303
▁दैनिक	-10.303
▁राजधानी	-10.303
▁शुरुआत	-10.303
▁संतुष्ट	-10.303
▁हिमालय	-10.303
▁पूर्वावलोकन	-10.303
▁फोटो	-10.303
▁मछली	-10.303
▁स्मारक	-10.303
▁हिंसा	-10.303
▁इनपुट	-10.303
▁आदमियों	-10.3031
▁शिशु	-10.3031
▁धोख	-10.3031
▁प्रायः	-10.3031
▁हँसी	-10.3031
▁धातु	-10.3031
1956	-10.3031
▁ठहरे	-10.3031
▁जनरल	-10.3031
▁वितरण	-10.3031
▁उपाधि	-10.3031
▁साक्षी	-10.3031
▁न्यास	-10.3031
▁एहद	-10.3031
ग़ैर	-10.3031
▁कार्यवाही	-10.3031
▁विनाश	-10.3031
▁वचन	-10.3032
▁क्रिकेट	-10.3032
▁मृद	-10.3032
▁दीजिए	-10.3032
▁छुपा	-10.3032
▁पाँच	-10.3033
कोलकाता	-10.3033
▁चैत	-10.3033
▁संवर्धन	-10.3033
▁नस्ल	-10.3034
▁अन्तिम	-10.3034
▁सैन्य	-10.3034
▁फ़रमा	-10.3034
▁उलट	-10.3035
▁राधा	-10.3036
▁परिकल्पना	-10.3036
▁विशेषज्ञ	-10.3037
▁उत्तरदाय	-10.3037
▁अपवाद	-10.3038
▁मुगल	-10.3041
▁गौरव	-10.3041
▁राज्यपाल	-10.3041
▁खबर	-10.3044
▁स्वस्थ	-10.3044
▁विष	-10.3045
▁भंडारण	-10.3045
’’	-10.3046
निष्ठ	-10.3046
▁काफ़ी	-10.3047
▁सुविधाएं	-10.3048
▁निचल	-10.3049
▁बटन	-10.3049
▁अक्षम	-10.305
ing	-10.3051
तलाश	-10.3051
▁सामर्थ्य	-10.3052
▁बादल	-10.3053
▁अनाज	-10.3055
▁उदय	-10.3056
▁भर्त	-10.3058
धन	-10.3059
▁जापान	-10.3061
▁शिव	-10.3062
▁अमल	-10.3064
▁समृद्धि	-10.3064
▁मिश्रण	-10.3071
▁मोड	-10.3072
▁इकाइय	-10.3076
▁सुनकर	-10.3077
▁इल्	-10.3077
▁स्पर्श	-10.3081
अब	-10.3081
▁2005	-10.3082
़ौर	-10.3082
▁ईरान	-10.3087
▁निकायों	-10.3089
▁अध्य	-10.3091
▁</	-10.3092
ोत्	-10.3094
▁द्वितीय	-10.3096
▁ख़ौफ	-10.3097
नुमा	-10.3098
▁ज़रूरत	-10.3104
▁पड	-10.3104
▁चौथ	-10.3106
ण्ट	-10.3106
खराब	-10.3117
वाणी	-10.3124
जीवन	-10.3125
▁समाप्ति	-10.3126
▁पाते	-10.3157
▁पेय	-10.3158
▁सिक्क	-10.3161
500	-10.317
▁नर्स	-10.318
▁गठन	-10.3193
रिए	-10.3193
▁घड़ी	-10.3198
▁नेताओं	-10.3201
वली	-10.3207
▁आपात	-10.3211
▁दावे	-10.3215
▁पॉल	-10.3216
▁W	-10.3227
▁निकास	-10.3234
▁दाम	-10.3235
दाद	-10.3243
दृश्य	-10.3244
आप	-10.3246
▁युक्ति	-10.3248
▁पुन	-10.3277
ँस	-10.3278
▁पाना	-10.3288
मोमिनीन	-10.3297
▁पहन	-10.3301
▁कोष	-10.3302
जाल	-10.3312
▁तेरा	-10.3313
▁मश	-10.3321
माल	-10.3333
▁देन	-10.3351
▁गीतों	-10.3354
▁सदा	-10.3369
कूल	-10.337
बैक	-10.3372
▁पाता	-10.3372
ड़ियों	-10.3378
▁अन्तर	-10.3379
चित्रण	-10.3404
▁x	-10.3405
▁तात्	-10.3407
▁परिभाषा	-10.3416
वादियों	-10.3423
▁लगत	-10.3428
णव	-10.3443
पहर	-10.3455
▁भेजें	-10.3456
▁री	-10.3467
▁रोकत	-10.3467
िकेट	-10.3469
पृ	-10.3485
प्रेषित	-10.351
▁नाग	-10.3516
70	-10.352
▁अंतर्	-10.3529
▁उपज	-10.3531
▁श्रम	-10.3542
क़त	-10.3565
▁बंध	-10.3567
▁रोका	-10.3571
▁क्रे	-10.3574
▁विकृत	-10.3577
▁हमला	-10.3585
▁तंग	-10.3594
▁ताज़	-10.3596
▁नहर	-10.3599
▁रखनेवाल	-10.3599
un	-10.3622
भंग	-10.3629
▁बेस	-10.3643
▁असल	-10.3658
▁उन्	-10.3682
त्म	-10.3703
▁लिखने	-10.3717
▁शी	-10.3718
ुरा	-10.3737
▁मुड़	-10.3752
▁हिल	-10.3753
ंभ	-10.3754
जुल	-10.3758
▁नहरे	-10.376
लिए	-10.3763
याद	-10.377
घात	-10.378
टर्न	-10.3784
▁प्रतिष्ठ	-10.3795
▁पुल	-10.38
परस्त	-10.3802
▁काले	-10.3807
वैसा	-10.3811
▁करवा	-10.382
▁उपयोगकर्ता	-10.3835
▁अली	-10.3867
कृष्ण	-10.3879
रचना	-10.3881
कुमार	-10.3882
सूची	-10.3882
&	-10.3886
आईटी	-10.389
ठीक	-10.3892
▁गरीब	-10.3895
ख़बर	-10.3897
पोर्ट	-10.3898
साधारण	-10.3898
जिन	-10.3908
ीयत	-10.3912
▁छोड़ें	-10.3914
▁मंद	-10.3925
बीर	-10.394
▁ग्	-10.3941
▁शैल	-10.3948
हाँ	-10.3958
▁प्ले	-10.3962
र्पित	-10.3962
▁चट	-10.3963
22	-10.3967
▁कराए	-10.3973
▁दरवाज	-10.3976
▁विभाज	-10.3977
la	-10.3989
▁प्रसन्न	-10.3997
▁शं	-10.3997
▁पौध	-10.4008
▁वाणिज्य	-10.4009
बिल	-10.4011
ृष्टि	-10.4013
ाइज	-10.4015
▁प्रदूष	-10.4021
▁गुजर	-10.4028
▁छुट	-10.4028
यात	-10.4028
▁प्रभुत्व	-10.403
.09.201	-10.403
▁अपशिष्ट	-10.403
▁ऊंचे	-10.403
▁एक्सचेंज	-10.403
▁ऑडियो	-10.403
▁औपचारिक	-10.403
▁कर्नाटक	-10.403
▁ज़बरदस्त	-10.403
▁डिफ़ॉल्ट	-10.403
▁ड्राइव	-10.403
▁दुश्मन	-10.403
▁निष्कर्ष	-10.403
▁प्रसंस्करण	-10.403
▁प्लगइन	-10.403
▁फरमाबरदार	-10.403
▁फरिश्त	-10.403
▁मजबूर	-10.403
▁मस्तिष्क	-10.403
▁मुलाकात	-10.403
▁वैकल्पिक	-10.403
▁व्यवस्थित	-10.403
▁श्रेष्ठ	-10.403
...............	-10.403
▁आजीविका	-10.403
▁क़िस्म	-10.403
▁खिलाड़ी	-10.403
▁सम्पर्क	-10.403
▁शिष्य	-10.403
▁पेंशन	-10.403
▁पासवर्ड	-10.403
▁प्रतिबंध	-10.403
▁रणनीति	-10.4031
▁परिचय	-10.4031
आउटपुट	-10.4031
पार्श्व	-10.4031
▁डिग्री	-10.4031
▁पिछड़	-10.4031
क़ुबूल	-10.4031
▁प्रवर्तन	-10.4031
▁संभाल	-10.4031
▁प्रिंट	-10.4031
▁टिप्पणी	-10.4031
▁झुठलाओगे	-10.4031
पोषण	-10.4031
▁आकलन	-10.4031
▁घुमा	-10.4031
▁कुरान	-10.4031
उपर्युक्त	-10.4031
▁शैतान	-10.4031
▁सन्तान	-10.4031
▁नवम्बर	-10.4031
▁पादप	-10.4031
शिल्प	-10.4031
▁आशु	-10.4031
▁सीधी	-10.4031
▁कथन	-10.4031
▁अस्थि	-10.4032
▁2006	-10.4032
▁ज़रिए	-10.4032
▁2008	-10.4032
▁दर्शक	-10.4032
▁2015	-10.4032
▁निराश	-10.4033
▁संग्रहालय	-10.4033
▁कर्ण	-10.4033
ख़ैर	-10.4034
▁विद्वत	-10.4034
▁शासक	-10.4035
महाराजा	-10.4035
बूझ	-10.4035
▁ग्लो	-10.4036
▁फेंक	-10.4037
▁घिर	-10.4037
▁इलाक	-10.4037
▁आवश्	-10.4038
▁शादी	-10.4039
ch	-10.4041
▁प्रदूषण	-10.4041
▁(4)	-10.4041
▁जयंत	-10.4042
▁वर्गीकरण	-10.4043
▁घाव	-10.4045
▁फ्री	-10.4045
▁अनुरूप	-10.4046
▁सहेज	-10.4046
▁संपद	-10.4047
▁दायर	-10.4047
▁बाबू	-10.4047
▁हल्क	-10.4049
▁दरबार	-10.4049
▁जाओगे	-10.405
▁साइट	-10.405
▁चीजें	-10.4051
▁मिलेगा	-10.4052
▁अहल	-10.4052
▁नियोज	-10.4055
▁खाओ	-10.4056
▁अनुदान	-10.406
▁अमर	-10.4061
▁औरतें	-10.4062
▁अपीलार्थ	-10.4066
▁बांध	-10.4067
▁आगमन	-10.4067
कार्य	-10.4069
ुँ	-10.407
▁2009	-10.4071
▁छू	-10.4071
▁अन्दर	-10.4072
17	-10.4073
▁लॉ	-10.4077
▁मौत	-10.4083
▁पल	-10.4084
▁आएगा	-10.4087
▁क़ाब	-10.4094
▁करूँगा	-10.4095
▁नोड	-10.4096
▁त्वर	-10.4099
ग्राफ	-10.4099
▁तरल	-10.41
▁गुरू	-10.4102
▁लेगा	-10.4103
▁टीम	-10.4107
▁आकृति	-10.4107
▁शाम	-10.4108
1-201	-10.4109
▁दवा	-10.411
▁चक्र	-10.4111
▁शक्तिय	-10.4124
▁जानवरों	-10.4125
▁पड़ने	-10.4131
▁विनियमन	-10.4131
▁गर्मी	-10.4144
▁रवा	-10.4147
▁कनेक्ट	-10.4152
▁लाते	-10.4152
▁तथ्यों	-10.4159
गामी	-10.416
वीर	-10.4162
ावट	-10.4166
▁हुक	-10.4167
▁डाय	-10.4169
र्रा	-10.4172
▁अलब	-10.4172
▁कहाँ	-10.4175
▁घटक	-10.4178
▁विविधता	-10.4183
▁कठिनाइय	-10.4183
01.	-10.4187
▁अष्ट	-10.4187
ानिक	-10.4188
▁चुक	-10.4193
▁सुनने	-10.4194
▁सफ़	-10.4196
▁मज़	-10.4209
▁मसल	-10.421
▁बेटा	-10.421
▁विद्यार्थी	-10.421
▁समझाने	-10.4212
▁महल	-10.4213
▁नैतिक	-10.4216
▁आएँ	-10.4231
िणी	-10.4232
पद	-10.4232
प्रेषण	-10.4258
▁पुकारा	-10.4262
▁होगे	-10.4274
वश	-10.4304
डीपी	-10.4305
▁लंबा	-10.4316
वही	-10.4317
▁शु	-10.4327
गै	-10.433
पीएस	-10.4339
▁V	-10.4346
▁बनना	-10.4349
▁देकर	-10.437
▁नबी	-10.4376
▁लिंग	-10.4386
▁लान	-10.4388
su	-10.4401
▁स्रोतों	-10.4409
55	-10.4411
शः	-10.4427
बूल	-10.4437
शंकर	-10.4465
▁पोत	-10.4468
▁चौक	-10.4474
▁अप्र	-10.4477
चंड	-10.4478
▁y	-10.4489
▁गर्	-10.4504
▁घाटी	-10.4509
▁बरसा	-10.4527
▁प्रविष्टि	-10.453
न्याय	-10.4532
▁नाप	-10.4543
▁फ्रांस	-10.4555
▁निका	-10.4567
अनुसूचित	-10.4569
ामक	-10.4574
▁खात	-10.4577
▁रोज	-10.4597
▁निस्	-10.4612
लाज	-10.4615
▁पक्क	-10.4654
बंद	-10.4664
लिया	-10.4667
▁सजा	-10.4703
▁हां	-10.4711
ii	-10.4712
▁निध	-10.476
▁खन	-10.4773
थल	-10.4788
▁खड़	-10.48
▁पाप	-10.4804
बंदी	-10.4833
▁तरीक	-10.4868
▁कुर्	-10.4905
▁जगत	-10.4926
बात	-10.4931
पत्ति	-10.4937
पक्षी	-10.4946
▁सल्	-10.4952
▁क़त	-10.4984
ख्वाह	-10.4992
शुद्ध	-10.4995
गृह	-10.4995
गुज़र	-10.4996
द्वार	-10.4996
प्रकाश	-10.4998
जैसे	-10.4998
दोनों	-10.5
आर्थ	-10.5005
▁चुनौत	-10.5009
▁प्रकाशना	-10.5016
यूँ	-10.5024
▁गल	-10.5026
▁छात्र	-10.5047
पात्र	-10.5047
सत्य	-10.5047
गुन	-10.5048
वां	-10.505
राशि	-10.5053
▁जानवर	-10.5065
▁किसान	-10.5067
▁थो	-10.5088
▁संचाल	-10.5089
म्भ	-10.5095
तुम्हारे	-10.5107
▁आश्र	-10.5108
मुक्त	-10.5123
▁लगाए	-10.5124
▁प्रशिक्ष	-10.5131
j	-10.5137
▁छोड	-10.5138
तन्त्र	-10.5141
▁पश्च	-10.5141
घट	-10.5142
बेहिश्त	-10.5142
ब्रिटेन	-10.5142
िमंत्रण	-10.5142
▁2010	-10.5142
▁असामान्य	-10.5142
▁आह्वान	-10.5142
▁ग्रन्थ	-10.5142
▁परिचालन	-10.5142
▁प्रावधान	-10.5142
▁फरवरी	-10.5142
▁फलस्वरूप	-10.5142
▁मॉडल	-10.5142
▁व्युत्पन्न	-10.5142
▁संशोधित	-10.5142
▁संहिता	-10.5142
▁सचमुच	-10.5142
▁सीआरए	-10.5142
▁इबादत	-10.5142
▁तीव्र	-10.5142
▁पाठ्यक्रम	-10.5142
▁प्रौढ़	-10.5142
▁फ़िल्म	-10.5142
▁बिन्दु	-10.5142
▁शरारत	-10.5142
▁स्क्रिप्ट	-10.5142
▁2004	-10.5142
▁आश्वासन	-10.5142
▁साक्ष्य	-10.5142
▁निवारण	-10.5142
▁फौज	-10.5142
▁कपड़े	-10.5142
ांतरण	-10.5142
▁पैकेज	-10.5142
▁डाक्टर	-10.5142
▁संकलन	-10.5142
▁सेक्टर	-10.5142
▁इंसान	-10.5142
▁अब्दुल्ला	-10.5142
पीडीएफ	-10.5142
▁शरणार्थ	-10.5142
▁शुरूआत	-10.5142
▁प्रसंग	-10.5142
▁स्कीम	-10.5142
▁सटीक	-10.5142
▁दुकान	-10.5142
पब्लिक	-10.5142
▁कचरा	-10.5142
▁साफ्टवेयर	-10.5142
▁वृक्क	-10.5142
▁माहौल	-10.5142
▁फसल	-10.5142
▁वाक्य	-10.5143
▁नवाचार	-10.5143
▁आदत	-10.5143
▁परिश्रम	-10.5143
▁सउद	-10.5143
▁जादूगर	-10.5143
▁1957	-10.5143
▁निष्ठा	-10.5143
▁उत्सव	-10.5143
▁घोड़	-10.5144
▁झील	-10.5144
▁दिव्य	-10.5144
▁क्षमाशील	-10.5144
▁ढेर	-10.5144
▁वसूल	-10.5145
▁जानबूझ	-10.5145
▁अहं	-10.5145
▁वाक़िफ़	-10.5145
tel	-10.5145
▁चावल	-10.5145
▁चमड़	-10.5145
▁रिश्ते	-10.5145
▁प्रदाता	-10.5146
▁सम्पाद	-10.5146
▁जाननेवाला	-10.5146
▁विद्या	-10.5146
▁विनिर्माण	-10.5146
▁स्वदेशी	-10.5146
▁चौड़ाई	-10.5146
▁अधिकारिता	-10.5146
दादा	-10.5146
▁वैष्	-10.5146
▁होटल	-10.5147
▁मुल्क	-10.5147
▁रहस्य	-10.5147
▁प्रयोगशाला	-10.5147
▁चाहेंगे	-10.5147
▁इज्ज	-10.5148
▁नवीन	-10.5148
▁प्रजातिय	-10.5148
▁बाध्य	-10.5148
SL	-10.5148
▁अग्रिम	-10.5148
▁सितार	-10.5148
▁तंत्रिका	-10.5148
▁समकालीन	-10.5149
▁समेक	-10.5149
▁भग	-10.5149
▁बूढ़	-10.515
▁राजस्व	-10.515
▁तालाब	-10.515
▁उभार	-10.5151
▁अपरि	-10.5151
इजाज़त	-10.5151
▁दूँगा	-10.5151
▁हार्ड	-10.5153
▁पत्रिका	-10.5155
भोज	-10.5156
▁189	-10.5156
एससी	-10.5157
▁आइए	-10.5158
▁अमरीक	-10.5158
▁दूँ	-10.5159
रुद्ध	-10.516
▁देगें	-10.516
▁कच्च	-10.516
दर्श	-10.5161
विष्ट	-10.5161
2018	-10.5162
▁प्ला	-10.5162
▁उपेक्ष	-10.5162
▁कृत्य	-10.5162
▁क़ाय	-10.5162
▁पशुओं	-10.5163
▁ईंट	-10.5164
▁कालेज	-10.5166
▁यूरोपीय	-10.5168
▁पार्क	-10.5168
▁तबाह	-10.5171
▁कुशलता	-10.5172
ग्रस्त	-10.5177
▁अज्ञान	-10.5177
▁प्रथा	-10.518
▁क्लब	-10.5181
▁डै	-10.5183
▁मुक़र्र	-10.5187
▁भूख	-10.5188
▁राजाओं	-10.5189
▁वार्ता	-10.5192
▁मुकाबले	-10.5192
▁पिला	-10.5196
▁तीसर	-10.5205
▁सकेंगे	-10.5209
▁आँखों	-10.5215
वाज़े	-10.5221
▁स्तन	-10.5223
▁आंकड़ा	-10.5224
▁जिहा	-10.5231
▁ओल	-10.5236
▁प्यार	-10.5239
▁मोहम्मद	-10.5242
▁ज्ञापन	-10.5259
▁संपादन	-10.526
▁लिपि	-10.5267
शुद	-10.5267
▁नाक	-10.527
▁याची	-10.5274
▁अक्ष	-10.5276
▁मुहर	-10.5287
रोज	-10.5294
▁रहकर	-10.5295
▁गरीबी	-10.5295
▁गौर	-10.5296
▁प्रदर्शक	-10.5303
▁दादा	-10.5316
▁बनते	-10.5326
जाम	-10.5336
▁आईटी	-10.5338
इंड	-10.5339
▁कोविन्	-10.5344
▁K	-10.535
▁सुनता	-10.535
रिता	-10.535
▁चीनी	-10.5362
ay	-10.5365
माला	-10.5376
गाड़ी	-10.5378
▁स्टार	-10.5383
▁सेटिंग	-10.5386
▁नकल	-10.5399
चन्द्र	-10.541
23	-10.5438
▁समाजवाद	-10.5444
con	-10.5444
▁अभिव्यक्त	-10.5447
ॉँ	-10.5459
बाई	-10.5466
co	-10.5485
▁लाना	-10.5529
are	-10.5539
डिट	-10.5543
बाध	-10.5544
फिल	-10.5589
सन्	-10.559
सूचित	-10.561
▁गुट	-10.5637
ैद	-10.5666
ड्स	-10.5678
इंट	-10.569
▁रहनेवाल	-10.5691
डू	-10.5697
▁लैं	-10.5707
सोल	-10.5726
ूढ़	-10.5752
सूर	-10.5755
बन्द	-10.5781
▁कारक	-10.5801
वासियों	-10.5802
ेंच	-10.5805
▁गार	-10.5806
▁पडे	-10.5838
▁गर्म	-10.5873
्रिम	-10.5886
▁अभ	-10.5888
▁दलील	-10.5891
▁0.	-10.5899
▁तीस	-10.5948
▁लिखत	-10.5952
आईसी	-10.5972
दूत	-10.5994
▁42	-10.6019
▁पुरा	-10.6034
tr	-10.6035
वात	-10.604
मण्ड	-10.6052
▁दस्त	-10.6053
▁ताज	-10.6082
▁धर	-10.6097
तुम्हार	-10.6126
ुद्र	-10.6129
▁कार्यान्व	-10.6171
▁यूसुफ	-10.621
रूस	-10.6226
राष्ट्र	-10.6244
वंश	-10.6245
वर्ण	-10.6245
दिवस	-10.6246
वृद्धि	-10.6247
पश्चिम	-10.6247
हमारे	-10.6249
▁बतात	-10.6296
ूमत	-10.6296
▁आंकड़	-10.6301
▁इच्छ	-10.6322
▁बुद्ध	-10.6322
ँच	-10.6324
खान	-10.6341
▁विनियम	-10.6355
▁कुशल	-10.6358
▁जायें	-10.6367
▁कन्	-10.6371
▁ऊंचा	-10.6377
मुदाय	-10.6388
च्छेद	-10.6388
▁माइक्रो	-10.6392
NAME	-10.6392
अफसोस	-10.6392
▁अक्तूबर	-10.6392
▁अधिवक्ता	-10.6392
▁आबंटन	-10.6392
▁कूटशब्द	-10.6392
▁चाहूंगा	-10.6392
▁चिकित्सक	-10.6392
▁डेलिगेट	-10.6392
▁निःशुल्क	-10.6392
▁नुकसान	-10.6392
▁पृथक	-10.6392
▁प्रबन्धन	-10.6392
▁प्रोजेक्ट	-10.6392
▁मीम॰	-10.6392
▁रेगिस्तान	-10.6392
▁व्यावहारिक	-10.6392
▁सतर्कता	-10.6392
▁सिंचाई	-10.6392
▁सिफ़ारिश	-10.6392
▁सॉफ्टवेयर	-10.6392
▁हाज़िर	-10.6392
▁कृपा	-10.6392
▁क्रियाकलाप	-10.6392
▁खींच	-10.6392
▁विकलांग	-10.6392
▁संवेदनशील	-10.6392
मुसीबत	-10.6392
▁अनदेख	-10.6392
▁तत्त्व	-10.6392
▁चक्कर	-10.6392
▁विघटन	-10.6392
▁समायोज	-10.6392
▁सम्बंध	-10.6392
ेश्वर	-10.6392
▁मंजूर	-10.6392
▁मातृ	-10.6392
▁वरीयता	-10.6392
▁स्वचाल	-10.6392
▁अनुभूति	-10.6392
▁दौड़	-10.6392
▁निपटान	-10.6392
▁अवज्ञा	-10.6392
▁आचार्य	-10.6392
▁गाँव	-10.6392
डब्लू	-10.6392
▁तुर्की	-10.6392
▁फिलीप	-10.6392
▁क्रमांक	-10.6392
भ्रंश	-10.6392
▁कुदरत	-10.6392
▁समावेश	-10.6392
▁सुलेमान	-10.6392
एनआर	-10.6392
▁जन्नत	-10.6392
▁हिंदुस्तान	-10.6392
▁क़िबल	-10.6392
▁पंडित	-10.6392
▁दिमाग	-10.6392
▁म्यू	-10.6392
यन्त्र	-10.6392
▁विलोप	-10.6392
षेध	-10.6392
▁१९९	-10.6393
▁अनुज्ञा	-10.6393
▁रिकार्ड	-10.6393
▁प्रशांत	-10.6393
▁तौरेत	-10.6393
सन्देह	-10.6393
▁कमेटी	-10.6393
▁महाराष्ट्र	-10.6394
▁प्रतिलिपि	-10.6394
शैक्षणिक	-10.6394
▁परिस्थिति	-10.6394
▁चेन्न	-10.6394
▁यहूदी	-10.6394
िख्यात	-10.6394
▁सैनिक	-10.6394
▁वायुयान	-10.6394
▁सचेत	-10.6394
▁फोल्ड	-10.6395
▁इंजीनियरिंग	-10.6395
▁अनिवास	-10.6395
▁2011	-10.6396
▁1997	-10.6396
▁हिन्दु	-10.6396
▁इम्त	-10.6396
▁समापन	-10.6397
▁ग़लत	-10.6397
▁अनुसूची	-10.6397
▁शिष्ट	-10.6398
मंडप	-10.6399
▁गुफा	-10.6399
▁कीजिए	-10.64
▁टेबल	-10.64
▁विवेकान	-10.6401
▁बंब	-10.6401
▁निगाह	-10.6401
▁प्रान्त	-10.6403
▁अर्ध	-10.6403
▁क्षति	-10.6403
▁विनिम	-10.6403
▁सारणी	-10.6404
▁ज़ोर	-10.6404
▁अनधिक	-10.6405
▁छंद	-10.6406
▁शान्त	-10.6406
▁जॉन	-10.6406
▁माफ	-10.6407
▁बचपन	-10.6407
▁निगरा	-10.6407
▁नोक	-10.6407
शाह	-10.641
▁पीड़ा	-10.641
op	-10.641
▁खण्ड	-10.6411
▁आकर्षण	-10.6411
ानुसार	-10.6412
▁आघात	-10.6414
शास्त्र	-10.6418
▁गांधीजी	-10.6418
▁पंच	-10.6418
्रुत	-10.6418
▁शर्तें	-10.6421
▁कामगार	-10.6422
▁धीम	-10.6423
▁जायेंगे	-10.6423
▁ईसाई	-10.6426
▁रूचि	-10.6427
▁बीविय	-10.6427
▁रिज़	-10.643
▁रॉ	-10.6435
▁टुकड़ा	-10.6436
▁मादा	-10.6436
▁सीडी	-10.6436
असंख्य	-10.6437
गुज़ार	-10.6438
डिंग	-10.6439
▁कहावत	-10.644
▁छपा	-10.6443
im	-10.645
▁प्रेस	-10.6452
▁दृढ़ता	-10.6454
▁दंत	-10.6455
▁आमाल	-10.6461
स्फी	-10.6463
▁महान्	-10.6464
▁कैश	-10.6466
▁नमूने	-10.6466
▁मक़	-10.6466
▁पक्षियों	-10.6467
▁खोजें	-10.6469
▁कड़ी	-10.6471
▁अर्थात	-10.648
▁रखकर	-10.6481
▁चूक	-10.6482
▁पोस्ट	-10.6482
▁सुनाई	-10.6482
▁चेक	-10.6483
▁प्लेट	-10.6486
ec	-10.6487
लोहे	-10.6499
▁बढ़ाया	-10.65
▁फ़ाइलें	-10.65
▁टुकड़े	-10.6502
रुप	-10.6503
▁रूस	-10.6505
▁तीसरा	-10.6505
▁अधिकरण	-10.6519
▁देगी	-10.6522
कथा	-10.6525
▁ओप	-10.6528
▁धारणा	-10.6538
शीलता	-10.654
सल्ल	-10.6553
▁समर्थक	-10.6558
▁लोप	-10.6561
गमन	-10.6571
MA	-10.6573
86	-10.6585
▁वृद्ध	-10.6597
▁गन्द	-10.6599
ट्रांस	-10.6602
▁होंगी	-10.6605
▁टोक	-10.6607
दरख्त	-10.6609
वेदन	-10.6636
▁विद	-10.6639
▁कलाकार	-10.6639
▁साम्	-10.6641
उप	-10.6643
स्वार्थ	-10.6665
टेक्स	-10.6667
▁हाई	-10.6674
▁लाई	-10.6677
▁समझो	-10.6681
म्बर	-10.6686
▁चंद	-10.6689
▁तस्	-10.6699
▁जंग	-10.6764
▁अर्जन	-10.6767
ty	-10.6786
▁प्रेष	-10.6792
व्यास	-10.6794
▁देनेवाल	-10.6794
▁लिखें	-10.6805
▁प्रवास	-10.6839
ांश	-10.6841
▁लड	-10.6854
▁डायर	-10.6931
5,000	-10.6936
ॉस	-10.6956
▁रजिस्ट्रीक	-10.6993
है	-10.7017
▁वर्क	-10.7041
▁पूछें	-10.7067
▁लौ	-10.7069
▁एम्	-10.7092
▁वर्म	-10.7156
ons	-10.7175
ou	-10.7263
▁विश्	-10.727
सूचना	-10.728
ate	-10.7284
टिव	-10.7294
▁translate	-10.7334
lation	-10.7348
भिन्न	-10.7408
ियॉ	-10.7436
दर्शन	-10.7451
भक्ति	-10.7555
चाप	-10.7588
▁हिस्स	-10.7626
▁(199	-10.7631
▁पूर्ववर्	-10.764
▁जिल	-10.7663
ज्ञापन	-10.7669
निर्माण	-10.767
भाषा	-10.767
महल	-10.7673
व्यवस्था	-10.7673
‘	-10.7674
स्वामी	-10.7674
धीरे	-10.7674
लिख	-10.7674
समझ	-10.7676
सिंह	-10.7676
परिवर्तन	-10.7676
▁कंपन	-10.7677
पुरुष	-10.7678
▁दुर	-10.7689
▁माइ	-10.769
प्राप्त	-10.7696
दृष्टि	-10.7696
▁पीट	-10.7708
शिप	-10.7709
ज़रा	-10.771
योग्य	-10.7713
▁सुनत	-10.7717
ther	-10.7723
▁पीछ	-10.7737
▁चर्च	-10.7739
57	-10.7741
य्या	-10.775
▁फै	-10.7759
▁कहानिया	-10.7759
बीच	-10.7767
▁संगठ	-10.7768
ुष	-10.7769
्लो	-10.7769
क्की	-10.777
सूद	-10.7778
बड़ी	-10.779
कार्ड	-10.7792
▁स्वीकृत	-10.7805
▁फर्ज	-10.7809
लैण्ड	-10.7812
▁संयोज	-10.7815
▁इंजीनियर	-10.7816
▁स्क्र	-10.7819
ारंभ	-10.7819
नाफ़रमानी	-10.782
फ़िरऔन	-10.782
▁अकादेमी	-10.782
▁अवशोष	-10.782
▁आकांक्षा	-10.782
▁कुफ्फार	-10.782
▁चट्टान	-10.782
▁छत्तीसगढ़	-10.782
▁दिलचस्प	-10.782
▁प्रचालन	-10.782
▁प्रतिस्पर्ध	-10.782
▁प्रोटोकॉल	-10.782
▁फ्रेम	-10.782
▁भ्रष्टाचार	-10.782
▁रामायण	-10.782
▁लाइब्रेरी	-10.782
▁वनस्पति	-10.782
▁विस्फोट	-10.782
▁शृंखला	-10.782
▁शोषण	-10.782
▁सद्भावना	-10.782
▁सुपुर्दगी	-10.782
▁सौंदर्य	-10.782
▁हड़ताल	-10.782
▁2020	-10.782
▁ऊंची	-10.782
▁पथभ्रष्ट	-10.782
▁पुरूष	-10.782
▁प्रेमचंद	-10.782
▁ब्राउज़र	-10.782
▁मेजबान	-10.782
04.201	-10.782
▁आलोचना	-10.782
▁उत्तरदायित्व	-10.782
▁पारिस्थितिक	-10.782
▁पूँजी	-10.782
▁मद्रास	-10.782
▁राजपूत	-10.782
▁वगैरह	-10.782
र्पोरे	-10.782
▁ध्वज	-10.782
▁अतिथियों	-10.782
▁अस्वीकार	-10.782
▁अस्वीकृत	-10.782
▁विकिरण	-10.782
▁ड्रग	-10.782
▁संकुच	-10.782
wea	-10.782
एहकाम	-10.782
▁com	-10.782
▁कार्यकलाप	-10.782
▁सिद्धान्त	-10.782
▁अतिमानस	-10.782
▁खजूर	-10.782
▁नरेन्द्र	-10.782
▁वाष्प	-10.782
▁विनम्र	-10.782
▁संकीर्ण	-10.782
▁पुण्य	-10.782
▁क़रीब	-10.782
▁तिरु	-10.782
▁स्मरण	-10.782
▁आमदनी	-10.782
▁इनसाफ़	-10.782
▁कपड़ा	-10.782
▁ईंधन	-10.782
दिसम्बर	-10.782
गोविंद	-10.782
▁ऑंख	-10.782
▁बेहद	-10.782
▁पर्यटक	-10.782
▁गर्दन	-10.782
▁अवकाश	-10.782
▁नाभिक	-10.782
बेहश्त	-10.782
▁बाँध	-10.782
बांग्लादेश	-10.782
▁पीड़ित	-10.782
▁लशकर	-10.7821
▁गद्य	-10.7821
▁सेवानिवृत्त	-10.7821
▁याचिका	-10.7821
▁सघन	-10.7821
▁लम्बे	-10.7821
दर्शिता	-10.7821
ance	-10.7821
▁नदियाँ	-10.7821
पुष्प	-10.7821
▁तीर्थ	-10.7821
▁किशोर	-10.7821
▁वारिस	-10.7821
\\	-10.7821
▁मृतक	-10.7821
▁शराब	-10.7821
उर्दू	-10.7821
▁खनिज	-10.7822
▁कृतज्ञ	-10.7822
▁निर्धन	-10.7822
▁मतदाता	-10.7822
▁ज़बान	-10.7822
▁स्वर्ण	-10.7822
▁लाएँगे	-10.7822
▁कॉलेज	-10.7823
▁पाओगे	-10.7823
▁आस्तियों	-10.7823
▁2016	-10.7823
▁नवीनतम	-10.7823
▁सूअर	-10.7823
▁जिन्ना	-10.7823
▁रचनात्मक	-10.7823
▁2019	-10.7824
▁आईआईटी	-10.7824
▁बरस	-10.7824
▁मोर्च	-10.7824
▁रंज	-10.7824
▁कुबूल	-10.7824
▁सम्भव	-10.7824
▁धूप	-10.7825
▁निवेदन	-10.7825
▁२०	-10.7825
▁चौपा	-10.7825
क़द्र	-10.7825
▁मीरा	-10.7825
▁इलाज	-10.7826
▁एकाग्र	-10.7826
▁तरीक़	-10.7826
▁लोकसभा	-10.7826
▁सतह	-10.7826
▁मसीह	-10.7826
▁1999	-10.7827
▁तकलीफ़	-10.7827
▁दिलाने	-10.7827
▁तुझ	-10.7827
▁सुसंगत	-10.7828
▁पुतल	-10.7829
ाअत	-10.7829
▁कार्यपालिका	-10.7829
▁योनि	-10.783
▁हड्डिय	-10.783
▁विशेषाधिकार	-10.7831
दिश	-10.7831
▁परंपरागत	-10.7831
▁पद्धतियों	-10.7831
ार्थियों	-10.7831
माणिक	-10.7831
परम्परा	-10.7832
मन्त्र	-10.7832
AR	-10.7833
▁उथल	-10.7833
▁पुराण	-10.7833
▁उत्पी	-10.7834
▁वाहन	-10.7835
धारी	-10.7835
▁संदे	-10.7835
सफाई	-10.7835
▁जैन	-10.7836
▁प्रलेख	-10.7836
क़रार	-10.7837
▁ऊंचाई	-10.7837
आपरेशन	-10.7837
▁बाढ़	-10.7837
▁जायेगी	-10.7837
▁छोर	-10.7839
▁लूत	-10.784
शिका	-10.784
▁कुफ्	-10.784
▁रखेगा	-10.784
क्रमण	-10.784
▁बनायी	-10.7842
col	-10.7843
▁115	-10.7843
▁गहन	-10.7844
ाउंड	-10.7844
▁झेल	-10.7844
▁ब्लॉक	-10.7845
▁सीधा	-10.7845
▁पंजीक	-10.7845
▁काउं	-10.7845
▁निरूप	-10.7845
▁समितियों	-10.7846
▁48	-10.7846
▁निभाई	-10.7848
▁प्रवृत्ति	-10.785
▁वाणिज्यिक	-10.7851
▁कहेगा	-10.7852
▁उपदेश	-10.7853
▁चोर	-10.7855
▁पहलुओ	-10.7856
▁मेघ	-10.786
▁(10	-10.7863
▁अंतराल	-10.7863
िल्ली	-10.7865
▁बैंकिंग	-10.7865
▁रवि	-10.7867
▁लंबाई	-10.7871
▁विषम	-10.7873
▁मिटाना	-10.7874
▁लाओ	-10.7874
र्मन	-10.7874
रेब	-10.7875
▁संग्रहण	-10.7875
▁उत्कृष्टता	-10.7876
श्रीमती	-10.7877
▁लिखना	-10.7878
▁त्रुटिः	-10.788
वाँ	-10.7885
▁लेबल	-10.7888
▁लाएँ	-10.7889
▁नकारात्मक	-10.7891
▁पटल	-10.7905
▁परसत	-10.7906
▁टाल	-10.7907
▁केरल	-10.7908
▁वैसे	-10.791
▁छः	-10.7912
▁बक्स	-10.7912
▁हंस	-10.7915
▁उत्पा	-10.7918
▁दरिया	-10.7918
▁सब्ज	-10.7921
▁हलाक	-10.7923
▁दीवान	-10.7923
▁खर	-10.7924
ER	-10.7926
▁अंतः	-10.7927
▁हौ	-10.7934
▁पढ़ें	-10.7935
▁बदकार	-10.7946
ोचन	-10.7949
▁प्रीत	-10.7959
हृ	-10.796
ूंद	-10.7964
▁जुड	-10.7983
▁एंट	-10.8002
IS	-10.8002
नागरी	-10.8005
विच	-10.8006
रत्न	-10.8009
▁चीख	-10.8018
▁उल्ट	-10.8023
चंद्र	-10.8029
▁धक्क	-10.8031
▁बग	-10.8042
ेम्स	-10.8058
▁थोप	-10.8065
▁पालि	-10.8077
▁प्रोफ	-10.8078
पेक्ष	-10.8101
▁अन्तर्ग	-10.8102
सब्र	-10.8116
▁बगल	-10.8117
▁धान	-10.8151
▁चौड़	-10.8165
टाइप	-10.8191
▁गोर	-10.8192
▁सुच	-10.8226
िकुड	-10.8231
▁मोड़	-10.8248
▁झू	-10.8263
▁गिल	-10.8303
▁द्विप	-10.831
एसआई	-10.8336
़कात	-10.8376
शक्ति	-10.8378
▁शू	-10.8382
ab	-10.8386
दूर	-10.8413
37	-10.8449
सीनों	-10.8455
▁आँखे	-10.8457
▁प्रशंस	-10.8457
मिति	-10.8457
श्च	-10.8503
▁ठहराए	-10.8543
▁90	-10.8559
उजी	-10.8595
ोक्त	-10.8605
वाड़	-10.8618
▁कैद	-10.8656
▁छड़	-10.8659
▁बिट	-10.8675
▁आँख	-10.868
66	-10.8752
निष्	-10.8761
▁उन्ही	-10.8768
ica	-10.8789
▁निर्वा	-10.8804
▁वाहि	-10.8833
▁सदृश	-10.8834
▁45	-10.8835
ina	-10.8868
सहाय	-10.8882
▁बस्तिय	-10.8969
▁उल्	-10.8975
bo	-10.9134
el	-10.923
व्याप	-10.9233
▁ट्रै	-10.9316
ानंद	-10.9318
ाइव	-10.933
मोहम्मद	-10.9335
चिह्न	-10.9339
आउट	-10.9339
पत्नी	-10.9339
लॉग	-10.934
{	-10.9341
निर्देश	-10.9341
आसमान	-10.9342
विशेष	-10.9342
निश्चय	-10.9343
क्योंकि	-10.9343
कहीं	-10.9344
यात्रा	-10.9344
प्रदेश	-10.9352
मोट	-10.9353
आपको	-10.9353
▁ख्वा	-10.9357
संघ	-10.936
भारतीय	-10.9361
सागर	-10.9365
वित्त	-10.9366
प्रभाव	-10.9372
श्रम	-10.9373
प्राय	-10.9374
पाठ	-10.9379
भूमि	-10.9391
▁ज़्याद	-10.9391
▁निकाय	-10.9408
▁प्रभा	-10.9419
▁फॉर	-10.9432
▁सृज	-10.9433
वृति	-10.9435
जिस्ट्रे	-10.9437
▁चूर	-10.9444
राधिक	-10.9447
▁लम्बा	-10.9473
▁नवान्वेष	-10.9476
	-10.9483
पालिका	-10.9484
ent	-10.9486
अफ्रीक	-10.9486
error	-10.9487
▁मलेशिया	-10.9487
Generic	-10.9487
नुत्फे	-10.9487
संदिग्ध	-10.9487
▁अरक्तता	-10.9487
▁आक्रामक	-10.9487
▁ऊँट	-10.9487
▁एजेंसियों	-10.9487
▁एहसान	-10.9487
▁ओडिशा	-10.9487
▁कीटनाशक	-10.9487
▁क्लिपबोर्ड	-10.9487
▁घायल	-10.9487
▁जिंदगी	-10.9487
▁जुर्मान	-10.9487
▁डेल्टा	-10.9487
▁ड्राफ्ट	-10.9487
▁तमिलनाडु	-10.9487
▁दार्शनिक	-10.9487
▁ब्रैसेरो	-10.9487
▁भ्रमण	-10.9487
▁मलयालम	-10.9487
▁महोत्सव	-10.9487
▁मामूली	-10.9487
▁मुशरिक	-10.9487
▁मेट्रो	-10.9487
▁यौगिक	-10.9487
▁रिकॉर्ड	-10.9487
▁लॉन्च	-10.9487
▁वाजपेयी	-10.9487
▁वैयक्ति	-10.9487
▁सर्वप्रथम	-10.9487
▁सांख्यिकी	-10.9487
▁हाइड्रोज	-10.9487
afr	-10.9487
आँकड़ा	-10.9487
▁उत्कीर्ण	-10.9487
▁कॉन्फ़िगर	-10.9487
▁जरिये	-10.9487
▁धन्यवाद	-10.9487
▁ध्रुव	-10.9487
▁प्रारम्भ	-10.9487
▁बंदरगाह	-10.9487
▁शुष्क	-10.9487
▁हरियाणा	-10.9487
▁2003	-10.9487
▁छिद्र	-10.9487
▁जॉर्ज	-10.9487
▁टैक्स	-10.9487
▁निर्वहन	-10.9487
▁बहुमूल्	-10.9487
▁ब्रह्म	-10.9487
▁शौहर	-10.9487
▁स्लाइड	-10.9487
▁स्वप्न	-10.9487
▁शोभा	-10.9487
रिवाज	-10.9487
▁मालदीव	-10.9487
▁स्वेच्छा	-10.9487
▁उत्सुक	-10.9487
▁भूतपूर्व	-10.9487
▁संबन्ध	-10.9487
▁घुटन	-10.9487
▁वाशिंग	-10.9487
▁सुल्तान	-10.9487
▁for	-10.9487
▁खुशहाली	-10.9487
▁घुड़	-10.9487
▁उत्तराखंड	-10.9487
▁फैक्ट	-10.9487
▁लपेट	-10.9487
ज्यादत	-10.9487
रिसालत	-10.9487
▁मानदंड	-10.9487
▁मिथ्या	-10.9487
▁सम्राट	-10.9487
▁अलिफ़	-10.9487
▁क्रियान्व	-10.9487
▁स्कैन	-10.9487
▁पहेल	-10.9487
▁सहभागी	-10.9487
▁चश्म	-10.9487
▁अस्थिरता	-10.9487
▁गुलाम	-10.9487
ावधि	-10.9487
▁कौंस	-10.9487
▁डेयरी	-10.9487
RAN	-10.9487
▁अहमदाबाद	-10.9487
ome	-10.9487
▁फूट	-10.9487
क्सीजन	-10.9487
▁पचास	-10.9487
▁चाँद	-10.9487
▁ऊंट	-10.9487
▁कुशाद	-10.9487
▁ज्वर	-10.9487
▁जर्नल	-10.9487
▁मकबर	-10.9487
▁ज्ञात	-10.9487
▁आश्व	-10.9487
▁सुगम	-10.9487
▁यकीन	-10.9487
▁लकीर	-10.9487
▁ख़राब	-10.9487
अधिवेशन	-10.9487
▁चिन्ह	-10.9488
▁लाठी	-10.9488
▁अम्ल	-10.9488
च्छाद	-10.9488
▁खंज	-10.9488
▁it	-10.9488
▁स्याह	-10.9488
▁थैल	-10.9488
▁शर्म	-10.9488
▁चिड़िया	-10.9488
्सिडी	-10.9488
▁मेनू	-10.9488
▁किराये	-10.9488
▁अनुपस्थित	-10.9488
▁शल्य	-10.9488
▁विद्यालय	-10.9488
this	-10.9488
▁क़्यों	-10.9488
गूगल	-10.9488
▁अनुयाय	-10.9489
चानक	-10.9489
▁अर्जुन	-10.9489
▁ढूँढ	-10.9489
आईओए	-10.9489
▁दक्षता	-10.9489
▁करूंगा	-10.9489
बन्धु	-10.9489
▁विधायिका	-10.9489
▁बरबाद	-10.9489
▁स्वयंसेव	-10.9489
ड्यूटी	-10.9489
▁इन्ते	-10.9489
▁कारखान	-10.9489
▁ब्रेक	-10.9489
▁सिक्किम	-10.9489
▁फूँक	-10.949
छुप	-10.949
▁परीक्षक	-10.949
▁बहुमुख	-10.949
▁रसीद	-10.949
▁सांविध	-10.949
▁गिना	-10.949
▁वक्र	-10.949
▁बेपरवा	-10.949
▁राजभाषा	-10.9491
▁पट्टे	-10.9491
्वेष	-10.9491
प्रेत	-10.9491
▁प्लेयर	-10.9491
▁फारस	-10.9491
▁विधाय	-10.9491
▁व्याकरण	-10.9492
कस्म	-10.9492
▁रात्रि	-10.9492
▁इसीलिए	-10.9492
▁अंशदान	-10.9492
▁निपटन	-10.9492
▁इराक	-10.9492
▁कहानियों	-10.9492
age	-10.9492
▁गुनाहगार	-10.9493
▁ट्रेन	-10.9493
▁चमत्क	-10.9493
ियोज	-10.9493
▁प्रणालिय	-10.9493
▁नानक	-10.9493
▁क़ाबिल	-10.9494
▁ट्रेड	-10.9494
▁यज्ञ	-10.9494
▁सन्देश	-10.9494
▁कामयाब	-10.9494
▁दिखायी	-10.9495
▁रुचि	-10.9495
▁शुरु	-10.9495
हम्मद	-10.9495
▁हुर्इ	-10.9495
▁बागान	-10.9496
▁CD	-10.9496
▁शांत	-10.9497
▁नवीकरण	-10.9497
▁अवरोध	-10.9497
▁II	-10.9497
▁मॉँ	-10.9498
▁फोक	-10.9498
▁कुष्ठ	-10.9499
▁तख्त	-10.9499
▁छांट	-10.9499
▁उपयोगिता	-10.9499
▁स्वर्ग	-10.9499
▁चिड़ी	-10.95
▁ढोल	-10.9501
▁मेजर	-10.9501
▁बुलाओ	-10.9501
▁तारीख़	-10.9501
▁लम्बाई	-10.9501
▁सूजन	-10.9502
▁जरुरत	-10.9503
▁थॉ	-10.9503
▁अभ्य	-10.9504
▁हिम्म	-10.9504
▁रखेंगे	-10.9505
▁धमक	-10.9505
▁कुलपति	-10.9506
▁सर्विस	-10.9507
▁हिंदु	-10.9507
्भुत	-10.9508
▁हटाएँ	-10.9508
▁संपन्न	-10.9509
▁गोपन	-10.951
▁ऊँचाई	-10.951
▁ढूंढें	-10.951
▁वस्त्र	-10.951
▁टेली	-10.951
▁निर्गम	-10.951
▁संक्रिया	-10.9511
▁राजपत्र	-10.9512
▁ठहराया	-10.9512
▁भत्ता	-10.9513
ोद्	-10.9513
▁दबाव	-10.952
▁एण्ड	-10.952
▁ज्यादातर	-10.9522
▁सांसद	-10.9523
▁64	-10.9525
▁मिथ	-10.9526
▁भटक	-10.9531
▁पंख	-10.9533
▁पावर	-10.9538
हस्तांतरण	-10.9541
▁माँगो	-10.9542
▁ईस्ट	-10.9542
भद्र	-10.9546
पाध्याय	-10.9547
▁साइन	-10.9552
▁पुरी	-10.9557
▁वशीभ	-10.9567
▁नीच	-10.957
तिमाह	-10.9582
▁अय्य	-10.9584
टिक्स	-10.9591
-10	-10.9599
▁पतंग	-10.96
▁स्वामि	-10.96
हेज	-10.9606
▁be	-10.962
व्यक़्ति	-10.9635
कूब	-10.9643
ारिज	-10.9666
▁संधि	-10.9668
CS	-10.9675
आज्ञाकारी	-10.9693
बाएँ	-10.9717
▁तलाक	-10.9721
▁ग्रेट	-10.9728
ख़िल	-10.9757
स्थान	-10.9766
हाक़	-10.9787
गिर्द	-10.9852
▁पड़नेवाल	-10.9875
ाश्त	-10.9884
लंकार	-10.9887
▁उल्ल	-10.9913
▁इक्क	-10.9929
गुआ	-11.0012
▁निवृत्त	-11.0047
डिग	-11.0063
शर्ते	-11.0082
संहार	-11.0101
िधान	-11.0118
योजना	-11.0143
▁दुरु	-11.0205
टाउन	-11.0227
▁निर्म	-11.024
▁ऑपरे	-11.0252
द्घ	-11.0289
▁वाट	-11.0363
संवेद	-11.0381
▁रजिस्ट्र	-11.0427
▁अशक्त	-11.0452
षाण	-11.0462
ओगे	-11.0488
वियत	-11.0502
लौह	-11.0508
▁प्रविष्ट	-11.0523
▁पुर्ज	-11.0529
फाइ	-11.0592
▁छिपात	-11.0623
▁ऑपरेट	-11.0647
▁विक्र	-11.0682
िश्च	-11.0862
▁मूर्त	-11.0935
ोल्ड	-11.0946
साधक	-11.1009
▁रखत	-11.104
▁तुम्ह	-11.1209
▁कारग	-11.122
ाइप	-11.129
▁प्या	-11.1321
जिहा	-11.1336
▁जरूर	-11.1337
द्वितीय	-11.1337
चक्र	-11.1338
मूर्ति	-11.1338
कुफ्फ़ार	-11.1338
स्मृति	-11.1339
संस्कृत	-11.134
महिला	-11.1341
रोजगार	-11.1341
पसंद	-11.1342
सदस्य	-11.1342
प्रणाली	-11.1342
बैठक	-11.1342
क़ौम	-11.1342
अच्छे	-11.1343
पीछे	-11.1343
डेटा	-11.1344
सुरक्षित	-11.1346
तुम्हे	-11.1347
स्वच्छ	-11.1348
ख़ौफ	-11.1349
स्पष्ट	-11.1351
संचार	-11.1351
घाट	-11.1354
व्यक्ति	-11.1356
▁भागीदार	-11.1358
वर्धन	-11.136
सरकारी	-11.1362
़ूब	-11.1365
▁नमून	-11.1366
▁बोलत	-11.1393
आधारी	-11.1403
▁उपाध्य	-11.1414
▁आकड	-11.144
रहमत	-11.1467
▁जरुर	-11.1467
▁कोटि	-11.1475
▁मिश्र	-11.1476
▁माध्य	-11.1478
▁रघु	-11.148
▁जिम्मे	-11.1483
इतन	-11.1484
विवेक	-11.1485
कृष्ट	-11.1486
▁मूत्र	-11.1486
cap	-11.1487
▁एजेन्स	-11.1487
▁ग्यारह	-11.1487
.03.201	-11.1487
.07.201	-11.1487
HTML	-11.1487
LIN	-11.1487
ania	-11.1487
cket	-11.1487
tur	-11.1487
ज्योति	-11.1487
▁whats	-11.1487
▁अक्टूबर	-11.1487
▁अग्रेषित	-11.1487
▁अभियोजन	-11.1487
▁आस्ट्रेलिया	-11.1487
▁इंटरफेस	-11.1487
▁उपराष्ट्रपति	-11.1487
▁एजेंसी	-11.1487
▁एल्गोरिथ्म	-11.1487
▁औज़ार	-11.1487
▁कंपोजर	-11.1487
▁टाइम्स	-11.1487
▁ठाकुर	-11.1487
▁डिरेक्ट्री	-11.1487
▁डॉक्टर	-11.1487
▁धूम्र	-11.1487
▁नाशुक्र	-11.1487
▁निर्दोष	-11.1487
▁परिपक्व	-11.1487
▁पॉपअप	-11.1487
▁प्रतिबिम्ब	-11.1487
▁फ़ायदा	-11.1487
▁बल्लेबाज	-11.1487
▁मर्यादा	-11.1487
▁मुअय्य	-11.1487
▁मुख्यमंत्री	-11.1487
▁वातानुकूल	-11.1487
▁समझौतों	-11.1487
▁सर्वश्रेष्ठ	-11.1487
▁सूचकांक	-11.1487
▁हकीकत	-11.1487
.01.201	-11.1487
▁आशंका	-11.1487
▁उर्वरक	-11.1487
▁एमएसएम	-11.1487
▁क्षेञ	-11.1487
▁खुल्लम	-11.1487
▁जनजातीय	-11.1487
▁ज़िम्मेदार	-11.1487
▁तत्परता	-11.1487
▁तात्पर्य	-11.1487
▁निष्पादन	-11.1487
▁भूकंप	-11.1487
▁वाक़िफ	-11.1487
▁मणिपुर	-11.1487
▁वैचारिक	-11.1487
▁श्वेत	-11.1487
▁सिक्ख	-11.1487
▁सौभाग्य	-11.1487
▁स्नायु	-11.1487
▁स्वाधीन	-11.1487
ब्ल्यू	-11.1487
▁कबूतर	-11.1487
▁चार्ल्स	-11.1487
▁प्रगाढ़	-11.1487
▁प्रतिस्थाप	-11.1487
▁फ्लैग	-11.1487
▁मुताबिक	-11.1487
key	-11.1487
▁पूंछ	-11.1487
▁वर्गमूल	-11.1487
▁टैंक	-11.1487
▁दुविधा	-11.1487
▁नियमावली	-11.1487
▁मज़बूत	-11.1487
▁अभिलाभ	-11.1487
▁परिवेश	-11.1487
श्चिन्त	-11.1487
▁अनुबंध	-11.1487
▁वास्तुक	-11.1487
▁उन्माद	-11.1487
▁चेष्टा	-11.1487
▁कार्मिक	-11.1487
▁पाबन्दी	-11.1487
▁सत्याग्रह	-11.1487
फौरन	-11.1487
▁तापमान	-11.1487
▁निश्चल	-11.1487
▁फोलो	-11.1487
▁स्त्रियाँ	-11.1487
▁त्यौ	-11.1487
▁उत्तेज	-11.1487
▁दाँत	-11.1487
▁US	-11.1487
▁रावण	-11.1487
▁धारित	-11.1487
▁टर्मिनल	-11.1487
▁स्तूप	-11.1487
▁अभिदाता	-11.1487
▁अखबार	-11.1487
▁गवर्नर	-11.1487
▁अल्पसंख्यक	-11.1487
▁निर्देशांक	-11.1487
▁ऋषि	-11.1487
▁स्थूल	-11.1487
▁पिघल	-11.1487
▁अवयव	-11.1487
▁लुढ़क	-11.1487
▁इंतजा	-11.1487
▁झुलस	-11.1487
▁कनाडा	-11.1487
▁मज़दूर	-11.1487
उपनगरीय	-11.1487
▁वितरित	-11.1487
ग्राही	-11.1487
▁पोशीद	-11.1487
▁फायर	-11.1487
▁हकदार	-11.1487
युवक	-11.1488
ान्तरण	-11.1488
▁स्नेह	-11.1488
action	-11.1488
▁हिन्दुस्तान	-11.1488
▁श्रोता	-11.1488
परायण	-11.1488
▁कब्र	-11.1488
▁सतीश	-11.1488
▁अटकल	-11.1488
▁पाचन	-11.1488
▁अनुपम	-11.1488
▁भुला	-11.1488
▁अमृत	-11.1488
▁पर्वतमाला	-11.1488
▁जमाअत	-11.1488
▁पैनल	-11.1488
▁बिछा	-11.1488
▁लाहौ	-11.1488
▁पड़ोसी	-11.1488
▁बफर	-11.1488
▁चोंच	-11.1488
▁स्नान	-11.1488
▁तनाव	-11.1488
पारदर्शी	-11.1488
▁आभास	-11.1489
▁चिल्ला	-11.1489
▁अमानत	-11.1489
▁प्रताप	-11.1489
▁बुराइयों	-11.1489
▁डिबग	-11.1489
▁23.	-11.1489
▁मूर्तिकला	-11.1489
▁महासागर	-11.1489
▁प्रत्यर्थ	-11.1489
▁सहारा	-11.149
▁मीठ	-11.149
▁तिलक	-11.149
▁विमानक्षेत्र	-11.149
रोकथाम	-11.149
▁काउंटर	-11.149
मग्न	-11.149
▁दूंगा	-11.149
▁काबुल	-11.149
▁स्वरुप	-11.149
▁ख़ज़ान	-11.149
▁स्वतन्त्र	-11.1491
इरादा	-11.1491
▁ब्राउज	-11.1491
▁महाभारत	-11.1492
पेरिस	-11.1492
▁अर्थशास्त्र	-11.1492
▁लाभांश	-11.1492
▁संव्यवहार	-11.1492
▁इक़रार	-11.1492
▁करूं	-11.1492
▁गुस्स	-11.1492
▁2001	-11.1493
्टवेयर	-11.1493
▁पन्ना	-11.1493
▁सम्मुख	-11.1493
▁झुकाव	-11.1493
▁डिब्ब	-11.1493
▁अमीर	-11.1493
▁संगणन	-11.1494
ल्लाह	-11.1494
संख़्य	-11.1495
▁सारांश	-11.1495
▁1996	-11.1495
▁ID	-11.1495
▁कानपुर	-11.1495
▁विक्रेता	-11.1495
▁दायाँ	-11.1495
end	-11.1496
पाँव	-11.1496
▁तालिका	-11.1496
▁छिपाओ	-11.1497
▁टेढ़	-11.1497
ope	-11.1497
▁प्रतिनिधियों	-11.1497
▁1948	-11.1497
▁विरल	-11.1497
▁निर्माता	-11.1497
▁श्रीकृष्ण	-11.1497
▁इख्त	-11.1497
बम्बई	-11.1497
▁मनाही	-11.1498
▁घराने	-11.1499
IL	-11.1499
▁निंदा	-11.1499
▁बनावट	-11.1499
ard	-11.1499
▁शीर्षिका	-11.15
▁शपथ	-11.15
मिस्र	-11.15
▁कैमर	-11.1501
▁घोल	-11.1502
स्कोप	-11.1502
हर्षि	-11.1502
ीजिए	-11.1502
▁स्पेन	-11.1503
यहूदियों	-11.1503
▁मरतब	-11.1504
इयाँ	-11.1505
NT	-11.1507
ोद्धा	-11.1512
ार्जन	-11.1512
▁रिहा	-11.1512
▁सेंटर	-11.1512
▁चांद	-11.1515
फॉर्म	-11.1518
▁विनिय	-11.1519
▁अवतार	-11.1524
▁चिकन	-11.1524
महाद्वीप	-11.1531
▁बिल्ड	-11.1535
▁लायक	-11.1543
आधा	-11.1544
▁ढील	-11.157
आज्ञापालन	-11.1579
▁नारिय	-11.1585
ड्यू	-11.1585
▁जुलत	-11.1599
▁शेर	-11.1599
पचय	-11.16
▁अस्था	-11.1618
दोलन	-11.1626
भुज	-11.1636
MB	-11.1643
्रॉफ	-11.1654
ंथन	-11.1655
ूषित	-11.1662
▁महत	-11.1675
▁जोड़त	-11.1677
द्योग	-11.1682
रचित	-11.1687
विलास	-11.1732
सुथर	-11.1734
▁(20	-11.1739
▁आस्ति	-11.177
एक्ज	-11.1778
उदाहरणार्थ	-11.178
यूसुफ़	-11.1796
▁अधिनिर्ण	-11.18
जोखा	-11.1802
विजन	-11.1863
कॉम	-11.1878
द्रा	-11.201
द्दत	-11.2093
बंगल	-11.2119
बुर्द	-11.2138
ेरिक	-11.2145
प्रीम	-11.2145
▁स्वराज	-11.2181
ार्जि	-11.2249
▁पुनरु	-11.2253
मैट	-11.2281
वस्था	-11.255
मशीनरी	-11.257
पेशी	-11.2603
▁अनन्	-11.2661
कैले	-11.2854
▁अहस	-11.2892
▁आनेवाल	-11.2902
▁नीतिया	-11.2959
पीले	-11.3034
▁जाहि	-11.311
▁न्यायाधिक	-11.3184
होंन	-11.3201
राज़्य	-11.3289
▁पहनत	-11.3296
सिख	-11.3366
आबाद	-11.3397
▁टुकड़	-11.3771
द्वीप	-11.3783
ूंकि	-11.3816
अर्थात	-11.3834
व्यवहार	-11.3835
गठन	-11.3836
विनियमन	-11.3836
स्पर्श	-11.3837
▁हिन्द	-11.3838
सूत्र	-11.3839
ध्वनि	-11.3839
विश्वसनीय	-11.3839
देखो	-11.384
घोष	-11.384
प्रधान	-11.384
इस्लाम	-11.384
हृदय	-11.3841
संख्या	-11.3841
जहन्नुम	-11.3841
पद्धति	-11.3841
पर्याप्त	-11.3841
ग्राहक	-11.3841
हिन्दी	-11.3841
निर्धारित	-11.3842
निर्यात	-11.3842
सम्बन्ध	-11.3842
सामग्री	-11.3842
निहित	-11.3842
आधारित	-11.3843
साहित्य	-11.3843
ज़रूर	-11.3843
जैसा	-11.3843
जवाब	-11.3843
संबंध	-11.3843
अथवा	-11.3843
बल्कि	-11.3844
उन्हें	-11.3844
बहुत	-11.3844
मूसा	-11.3844
छोड़	-11.3844
रसूल	-11.3844
▁श्रेण	-11.3855
▁कुंज	-11.3858
2005	-11.3865
▁मुकाबल	-11.3865
हेगें	-11.3897
▁सजद	-11.3912
▁प्रस्तु	-11.3927
▁आतंक	-11.3941
▁समन्व	-11.3947
▁ब्लॉ	-11.3951
द्रोह	-11.3981
श्चात्	-11.3986
▁अब्दुल	-11.3986
▁अहमद	-11.3987
▁#-#-#-#-#	-11.3987
cts	-11.3987
▁मॉन्टे	-11.3987
▁अंटार्कटिक	-11.3987
▁अविलंब	-11.3987
▁साइरिलिक	-11.3987
.10.201	-11.3987
.12.201	-11.3987
05.201	-11.3987
NET	-11.3987
PRODUCT	-11.3987
clathrate	-11.3987
curr	-11.3987
helf	-11.3987
label	-11.3987
ormat	-11.3987
raviratlami	-11.3987
view	-11.3987
एंपेथी	-11.3987
च्युति	-11.3987
टैरिफ	-11.3987
मुशरेकीन	-11.3987
▁Office	-11.3987
▁URI	-11.3987
▁URL	-11.3987
▁अँधेर	-11.3987
▁अतएव	-11.3987
▁अन्वेषण	-11.3987
▁अमूर्त	-11.3987
▁अहिल्या	-11.3987
▁आरोग्य	-11.3987
▁आविष्कार	-11.3987
▁इलैक्ट्र	-11.3987
▁ऊष्म	-11.3987
▁एसोसिएशन	-11.3987
▁काश्मीर	-11.3987
▁किर्लोस्कर	-11.3987
▁कृषक	-11.3987
▁क्रोएशिया	-11.3987
▁खामोश	-11.3987
▁ग़ुलाम	-11.3987
▁गुनेहगार	-11.3987
▁ग्राफिक्स	-11.3987
▁चतुर्थ	-11.3987
▁डिजायन	-11.3987
▁डुबो	-11.3987
▁तत्पश्चात	-11.3987
▁तदनुसार	-11.3987
▁तुल्यकाल	-11.3987
▁परिप्रेक्ष्य	-11.3987
▁प्लगिन	-11.3987
▁फिल्टर	-11.3987
▁बरकतवाल	-11.3987
▁बहादुर	-11.3987
▁बुढ़ाप	-11.3987
▁मंज़िले	-11.3987
▁मंत्रिपरिषद	-11.3987
▁मख़लूक़ात	-11.3987
▁मस्ज़िद	-11.3987
▁महानिदेशक	-11.3987
▁महाविद्यालय	-11.3987
▁मुनाफ़िक़	-11.3987
▁मुनाफिक़	-11.3987
▁मेमोरी	-11.3987
▁मॉरिशस	-11.3987
▁मौजिज़	-11.3987
▁यूनिकोड	-11.3987
▁रक्तस्राव	-11.3987
▁रासायनिक	-11.3987
▁रिएक्टर	-11.3987
▁लश्कर	-11.3987
▁लिमिटेड	-11.3987
▁वामपंथी	-11.3987
▁वास्तुशिल्प	-11.3987
▁विज्ञप्ति	-11.3987
▁विवेचन	-11.3987
▁व्यतिक्रम	-11.3987
▁श्रावण	-11.3987
▁श्रीवास्तव	-11.3987
▁संपरीक्षा	-11.3987
▁समुच्चय	-11.3987
▁सम्प्रदाय	-11.3987
▁सहभागिता	-11.3987
▁हिमनद	-11.3987
फ़ैसले	-11.3987
▁आयुर्वेद	-11.3987
▁इब्रा	-11.3987
▁इष्टतम	-11.3987
▁कठपुतली	-11.3987
▁चिंघाड़	-11.3987
▁पंचायत	-11.3987
▁परिसंपत्तिय	-11.3987
▁प्रायद्वीप	-11.3987
▁मॉड्यूल	-11.3987
▁सरस्वती	-11.3987
▁स्मार्ट	-11.3987
▁स्वीडन	-11.3987
▁अन्यायपूर्ण	-11.3987
▁कप्तान	-11.3987
▁ख़िलाफ	-11.3987
▁ट्रैफिक	-11.3987
▁तश्तरी	-11.3987
▁निष्पक्ष	-11.3987
▁पैगंबर	-11.3987
▁फॉन्ट	-11.3987
▁ब्राज़ील	-11.3987
▁मराठा	-11.3987
▁महाकाव्य	-11.3987
▁यांत्रिक	-11.3987
▁वियतनाम	-11.3987
▁सांप्रदायिक	-11.3987
▁सोसाइट	-11.3987
▁एकाश्म	-11.3987
▁वफादार	-11.3987
▁श्रीलंका	-11.3987
▁स्वायत्त	-11.3987
count	-11.3987
▁उद्धृत	-11.3987
▁गरिमा	-11.3987
▁तैनात	-11.3987
▁विषाक्त	-11.3987
efi	-11.3987
▁उछाल	-11.3987
▁खुराक	-11.3987
▁वग़ैरह	-11.3987
▁उन्नयन	-11.3987
▁अलंकरण	-11.3987
▁उद्धार	-11.3987
▁रियासत	-11.3987
▁चौदह	-11.3987
▁चौधरी	-11.3987
▁निवेदित	-11.3987
▁परिसीमा	-11.3987
▁राक्षस	-11.3987
▁सामग्रिय	-11.3987
▁निगेह	-11.3987
▁जवाबदेह	-11.3987
▁त्रिपुरा	-11.3987
▁निरीक्षक	-11.3987
▁युसुफ	-11.3987
▁राजशाही	-11.3987
This	-11.3987
▁परिमाण	-11.3987
▁विलक्षण	-11.3987
▁अनुष्ठान	-11.3987
▁भण्डार	-11.3987
▁स्पैम	-11.3987
▁मीनार	-11.3987
▁अध्यापकों	-11.3987
▁एक्सेसेब	-11.3987
▁मलेरिया	-11.3987
▁वोल्ट	-11.3987
▁निर्दय	-11.3987
▁प्रस्तुतिकरण	-11.3987
▁मूठ	-11.3987
▁रसोई	-11.3987
▁पहुच	-11.3987
▁वयस्क	-11.3987
िब्रू	-11.3987
▁कड़ियाँ	-11.3987
▁पितामह	-11.3987
▁करुणा	-11.3987
▁शेख़ी	-11.3987
▁भ्रू	-11.3987
पचारिक	-11.3987
▁ड्रम	-11.3987
ख्याति	-11.3987
▁देशीराज्य	-11.3987
▁शिविर	-11.3987
पोलिट	-11.3987
▁सपाट	-11.3987
▁फ़ज़ल	-11.3987
भैरव	-11.3987
महोदय	-11.3987
▁टेक्न	-11.3987
▁सिनेमा	-11.3987
▁कट्टर	-11.3987
▁पुनरावृत्त	-11.3987
▁अभिभावक	-11.3987
▁जंतु	-11.3987
▁रियायत	-11.3987
ताक़तवर	-11.3987
रफ्तार	-11.3987
▁बांग्ल	-11.3987
▁उपहास	-11.3987
▁गड़बड़	-11.3987
▁सिंहासन	-11.3987
▁पेशेवर	-11.3987
▁चिन्ता	-11.3987
▁लोकायुक्त	-11.3987
▁विधवा	-11.3987
amp	-11.3987
▁रूपान्तर	-11.3987
▁विराट	-11.3987
▁ढाँच	-11.3987
▁क्षतिग्रस्त	-11.3987
▁बिगड़	-11.3987
▁ब्लू	-11.3987
▁उच्चारण	-11.3988
▁डंप	-11.3988
सोर्स	-11.3988
▁ग्रुप	-11.3988
▁चैक	-11.3988
▁मूत्राशय	-11.3988
बरुवा	-11.3988
▁कावेरी	-11.3988
▁तमाश	-11.3988
▁खैर	-11.3988
▁देखिये	-11.3988
▁बहुलवाद	-11.3988
▁पेट्रोलियम	-11.3988
▁ढलान	-11.3988
ुअल	-11.3988
▁मैत्री	-11.3988
▁दुहरा	-11.3988
प्रोसेसर	-11.3988
-04	-11.3988
▁जकड़	-11.3988
▁संकाय	-11.3988
▁कंठ	-11.3988
▁बौने	-11.3988
▁वबाल	-11.3988
ext	-11.3988
▁प्रोफाइल	-11.3988
▁KB	-11.3988
▁तबदील	-11.3988
▁मुआवज	-11.3988
▁लखन	-11.3989
एजेंट	-11.3989
अपडेट	-11.3989
इरादे	-11.3989
▁भ्रांत	-11.3989
सीएल	-11.3989
▁अभिनय	-11.3989
▁हिट	-11.3989
▁नलिका	-11.3989
▁आप्रवास	-11.3989
विलोकन	-11.3989
क्रिप्	-11.3989
hat	-11.3989
▁भेड़	-11.399
▁खौलत	-11.399
जिये	-11.399
श्रव्य	-11.399
▁इशार	-11.399
़ाफ़िल	-11.399
▁गुजार	-11.399
▁त्यो	-11.399
▁इनसान	-11.399
▁समूच	-11.399
▁झारख	-11.399
▁निर्जीव	-11.399
▁परदाज़	-11.3991
सिस्को	-11.3991
▁झांक	-11.3991
▁अज़ीम	-11.3992
▁देहात	-11.3992
▁कसरत	-11.3992
▁कतरा	-11.3992
▁म्यु	-11.3992
▁फरार	-11.3992
▁मास्टर्	-11.3992
▁हरकत	-11.3992
▁दशम	-11.3993
▁किराया	-11.3994
ठहरने	-11.3994
तंबू	-11.3994
▁रुसवा	-11.3995
▁न्यूजीलै	-11.3996
ेस्को	-11.3996
▁रेजि	-11.3997
टेशिय	-11.3998
▁बूट	-11.3998
▁शरद	-11.3998
मोहिनी	-11.4
सिंगार	-11.4001
आईईए	-11.4003
िफ्ट	-11.4003
▁छेड़	-11.4005
720	-11.4007
▁छापे	-11.4008
▁बंज	-11.4008
स्थापत्य	-11.4009
▁कैप्	-11.401
आइसो	-11.4016
ite	-11.4018
कल्या	-11.4022
▁मग़फ	-11.4024
श्यल	-11.4025
▁सीढ़िय	-11.4026
वलोकन	-11.4028
uri	-11.4033
ॉर्मेट	-11.4035
▁कश्तिय	-11.404
▁फोर्	-11.4052
▁नागालै	-11.4056
▁धाग	-11.406
▁ग्वाल	-11.4064
▁ट्राइ	-11.4065
▁अहात	-11.4074
ात्मा	-11.4075
सह्य	-11.4076
▁कन्नड	-11.4077
ख्वास्त	-11.4112
▁परिवर्ध	-11.4143
भाषाएँ	-11.4224
▁चखाए	-11.4226
अंधेर	-11.4292
्रैक	-11.4329
1946	-11.4363
वाकांक्ष	-11.4401
▁मरोड	-11.4413
°	-11.7309
ञ	-11.7318
̄	-13.2175
̈	-13.2176
+	-13.2177
̧	-13.2178
@	-13.2179
¿	-13.218
	-13.2181
	-13.2182
<	-13.2183
#	-13.2184
⁄	-13.2185
ढ	-13.2186
औ	-13.2187
“	-13.2187
