<pad>	0
</s>	0
<unk>	0
▁	-3.2363
,	-3.33927
i	-3.51931
s	-3.52053
.	-3.77732
k	-4.10398
o	-4.15389
a	-4.20167
u	-4.22275
ti	-4.32062
▁ir	-4.33346
e	-4.40128
ų	-4.42915
n	-4.54439
g	-4.62092
d	-4.62248
ą	-4.70026
os	-4.70385
t	-4.78437
m	-4.82486
v	-4.85044
in	-4.8607
p	-4.93364
as	-4.94788
b	-4.9557
▁kad	-4.972
ė	-5.0149
▁pa	-5.04185
j	-5.08121
ai	-5.08508
y	-5.12905
es	-5.18402
▁su	-5.19604
▁į	-5.27014
▁ne	-5.30713
l	-5.33129
ės	-5.33616
al	-5.33955
us	-5.37506
r	-5.39481
▁iš	-5.43887
ž	-5.45562
en	-5.45912
is	-5.49542
to	-5.49718
▁k	-5.51849
š	-5.53588
ra	-5.59347
te	-5.60954
▁Europos	-5.61327
ma	-5.65175
ta	-5.65579
me	-5.6619
li	-5.66867
į	-5.71024
ę	-5.73397
▁kuri	-5.74353
si	-5.75117
▁dėl	-5.76088
tin	-5.78282
z	-5.78721
au	-5.79959
ri	-5.80736
▁ši	-5.85179
tų	-5.86323
▁yra	-5.89114
imo	-5.89859
ar	-5.91121
ja	-5.923
▁tai	-5.92467
ių	-5.92689
▁vis	-5.95833
▁-	-5.96556
el	-5.97544
ū	-5.97922
▁t	-5.97944
▁p	-5.97946
tu	-6.00832
▁d	-6.00965
ek	-6.07232
an	-6.07334
ir	-6.09232
▁pat	-6.10076
f	-6.11184
er	-6.11228
ur	-6.12107
mo	-6.1351
ant	-6.15126
▁už	-6.15717
or	-6.16656
ei	-6.16702
jų	-6.16968
ik	-6.17769
nt	-6.1836
▁ko	-6.19305
ci	-6.20026
▁v	-6.20074
▁at	-6.20482
▁m	-6.21343
▁A	-6.21392
yb	-6.22463
mi	-6.24126
▁K	-6.24975
▁pri	-6.25763
ing	-6.28567
ijos	-6.29976
▁tik	-6.3001
yti	-6.30722
iu	-6.31654
iai	-6.33502
mas	-6.33873
▁re	-6.34413
išk	-6.35523
dži	-6.38401
)	-6.38568
oje	-6.38614
▁(	-6.38924
▁ž	-6.3937
▁M	-6.39551
re	-6.40049
tas	-6.41507
io	-6.41756
▁P	-6.42827
ka	-6.4338
na	-6.4418
ais	-6.46139
am	-6.46308
▁kaip	-6.46635
ūr	-6.48168
imas	-6.50193
imą	-6.50295
▁T	-6.5114
ia	-6.51503
▁ap	-6.51731
on	-6.55164
sta	-6.55918
▁taip	-6.56163
ty	-6.56227
▁po	-6.57118
▁g	-6.58086
▁S	-6.58131
▁dar	-6.58301
ni	-6.59373
▁per	-6.59382
▁būti	-6.59594
da	-6.60667
omis	-6.60678
▁J	-6.60901
▁pra	-6.61641
tar	-6.62035
▁turi	-6.62121
ame	-6.62458
mon	-6.63029
čia	-6.63785
la	-6.63789
ak	-6.65285
▁ES	-6.65865
▁kai	-6.65965
▁pas	-6.661
▁būtų	-6.66381
aug	-6.66703
▁to	-6.67059
▁B	-6.67893
inti	-6.6861
ime	-6.69431
▁nes	-6.71039
ba	-6.71836
et	-6.72645
gi	-6.72697
0	-6.72791
vo	-6.73025
▁nu	-6.7339
ys	-6.75046
ją	-6.76574
kl	-6.76764
▁labai	-6.7717
dar	-6.77636
▁nar	-6.78108
▁savo	-6.79021
▁vien	-6.792
▁nuo	-6.79494
▁kit	-6.81301
▁V	-6.81716
▁buvo	-6.82482
ro	-6.82697
lo	-6.83239
umo	-6.8348
ams	-6.84275
▁apie	-6.85357
ius	-6.85896
▁l	-6.86514
pa	-6.8818
ms	-6.8822
di	-6.8878
▁be	-6.89549
▁nor	-6.90038
▁gali	-6.90314
tai	-6.90355
▁š	-6.9041
lai	-6.90777
▁mūsų	-6.91336
tą	-6.91645
▁prie	-6.92247
ig	-6.92404
▁praneš	-6.92458
mų	-6.9295
uot	-6.9388
ran	-6.94935
▁Komisijos	-6.9548
inių	-6.95852
do	-6.96179
audo	-6.96214
iausi	-6.96415
va	-6.96679
le	-6.96717
čių	-6.96745
▁rink	-6.96834
▁R	-6.97128
▁bendr	-6.97213
mą	-6.97457
ama	-6.9859
▁pasi	-6.98718
▁D	-6.98811
▁teis	-7.00494
ko	-7.00818
▁sk	-7.01473
▁ar	-7.01662
▁pirmininke	-7.02033
ėms	-7.02146
▁daug	-7.02261
oms	-7.02812
▁jo	-7.02918
iam	-7.03542
var	-7.04374
iau	-7.05113
usi	-7.05271
▁bet	-7.05348
ėjo	-7.05478
veik	-7.0599
▁Tai	-7.06567
▁tikr	-7.06659
c	-7.06753
▁svarb	-7.06951
il	-7.07198
▁veik	-7.07321
imu	-7.08031
▁de	-7.08478
imų	-7.08484
no	-7.0868
▁nauj	-7.09068
▁laik	-7.09327
▁reikal	-7.09508
▁atsi	-7.0986
▁pro	-7.09985
imai	-7.10028
aus	-7.10072
uoti	-7.11098
inės	-7.11403
rin	-7.11895
▁G	-7.11966
rod	-7.13562
str	-7.13573
tos	-7.14946
20	-7.15072
▁ga	-7.15419
▁turėt	-7.16519
iems	-7.17241
▁bus	-7.17272
ėja	-7.17277
▁o	-7.1745
E	-7.17727
▁proc	-7.18345
ang	-7.18453
▁par	-7.18606
▁jau	-7.18695
▁mes	-7.18973
▁Ši	-7.19597
▁maž	-7.19679
▁I	-7.19791
"	-7.21499
▁ji	-7.2204
ui	-7.22093
▁kurie	-7.2235
P	-7.22515
▁reikia	-7.22828
▁1	-7.23196
dama	-7.23452
▁va	-7.23536
uoja	-7.25485
▁nepa	-7.25611
▁Komisija	-7.25824
▁L	-7.25864
▁darbo	-7.27471
cija	-7.27674
joje	-7.28091
▁valstybės	-7.28359
ome	-7.29179
▁pirm	-7.29362
▁Sąjungos	-7.29843
▁pateik	-7.29927
▁norėčiau	-7.3003
▁keli	-7.30127
yr	-7.30911
2	-7.31036
▁šiuo	-7.31403
▁pagal	-7.31469
▁kurios	-7.31707
1	-7.32654
▁jų	-7.32768
▁gal	-7.328
:	-7.3287
em	-7.33029
▁"	-7.33388
uose	-7.33919
▁bū	-7.34273
▁priemon	-7.34915
ymo	-7.36218
▁metu	-7.3629
avimo	-7.36451
▁gr	-7.36523
▁ju	-7.36821
▁toki	-7.37027
▁Parlamento	-7.37189
▁prieš	-7.37226
▁E	-7.37472
▁susitar	-7.37521
▁Todėl	-7.38197
ose	-7.38874
čio	-7.38886
iant	-7.39111
▁skirt	-7.39495
ren	-7.40142
der	-7.40246
▁N	-7.40402
▁Pa	-7.40403
▁galimyb	-7.40454
yje	-7.41125
ry	-7.42743
▁saug	-7.43009
▁mok	-7.43098
▁turime	-7.43385
ol	-7.44276
▁gyven	-7.45554
ly	-7.46269
jai	-7.46557
▁įgyvendin	-7.47982
C	-7.4843
ch	-7.48514
▁narių	-7.4883
▁svarbu	-7.48884
▁susi	-7.49106
ėmis	-7.49446
čiu	-7.49723
amos	-7.50898
▁dabar	-7.51161
▁daugiau	-7.51621
▁jos	-7.51769
▁pasiūl	-7.51883
dami	-7.52258
trauk	-7.52574
h	-7.527
ter	-7.54266
▁teisės	-7.54362
▁valstybių	-7.54493
▁finans	-7.55299
▁šį	-7.55411
ėje	-7.55496
tor	-7.55553
vert	-7.55888
iškai	-7.56968
čiau	-7.57002
and	-7.57161
raš	-7.57595
region	-7.57865
mės	-7.58112
ky	-7.58727
kos	-7.58757
9	-7.58829
▁lyg	-7.5892
?	-7.60082
O	-7.60082
▁Tačiau	-7.60084
S	-7.60149
▁pilieči	-7.60587
5	-7.60841
▁valstyb	-7.61047
▁mums	-7.6136
cijos	-7.621
▁sociali	-7.6212
▁Pone	-7.62126
umą	-7.62136
▁ypač	-7.62636
▁klaus	-7.62954
▁200	-7.63163
▁narės	-7.63561
▁jei	-7.64087
ojo	-7.64452
▁Be	-7.64533
F	-7.64992
inio	-7.658
▁Ne	-7.66158
▁užtikrinti	-7.67715
č	-7.68247
▁mano	-7.69463
oji	-7.69537
T	-7.69556
▁tačiau	-7.69899
▁klausimu	-7.70341
▁Vis	-7.70342
tį	-7.70425
ven	-7.70589
acijos	-7.71126
▁nėra	-7.71847
▁didel	-7.72004
▁min	-7.72066
▁siek	-7.72432
▁pasiek	-7.72988
mus	-7.73008
▁šios	-7.73514
▁siekiant	-7.73628
ver	-7.73887
▁suteik	-7.74172
▁tam	-7.74436
gali	-7.74684
▁politikos	-7.75014
▁susijusi	-7.75311
▁jūs	-7.75312
▁kriz	-7.76203
▁jie	-7.76771
▁todėl	-7.76787
▁pritar	-7.76855
ėme	-7.76959
3	-7.77086
▁aplink	-7.77087
inink	-7.77461
esni	-7.77849
▁laisv	-7.78602
▁aš	-7.79129
▁žino	-7.79224
imus	-7.79264
▁pagrind	-7.81194
▁politin	-7.81366
▁tarp	-7.81471
nčių	-7.83101
▁šalių	-7.83255
L	-7.83499
▁padėti	-7.8389
-	-7.84162
▁priimt	-7.84249
▁sek	-7.84288
D	-7.84591
▁biudžet	-7.85177
▁Taip	-7.85478
▁negali	-7.85739
▁Sąjunga	-7.85827
umu	-7.87323
▁Gerb	-7.87476
▁teisių	-7.87549
4	-7.88138
A	-7.88624
▁manau	-7.89142
;	-7.89821
▁sav	-7.90061
dien	-7.90096
7	-7.90503
8	-7.90503
osios	-7.90644
R	-7.90718
Ž	-7.90845
▁man	-7.90933
▁frakcij	-7.91189
▁teisin	-7.92211
▁sąlyg	-7.92227
▁ekonomin	-7.92227
▁tarptautin	-7.92227
▁Taryba	-7.92925
V	-7.93612
▁iki	-7.93649
▁atsak	-7.93661
▁vertin	-7.93824
▁san	-7.93908
▁ekonomikos	-7.94336
▁sutart	-7.94521
▁Parlamentas	-7.95767
▁galima	-7.96327
▁tinkam	-7.96507
▁skatin	-7.96507
6	-7.96854
spręs	-7.96854
▁vykd	-7.96859
▁klausimas	-7.97077
▁direktyv	-7.97219
▁srityje	-7.97585
▁nustatyt	-7.977
▁bendradarbiavim	-7.98322
▁tiek	-7.98394
▁mėn	-7.98741
▁inter	-7.98746
▁dali	-7.98814
▁pabrėž	-8.00188
▁tvar	-8.00242
▁Tarybos	-8.00565
▁šiandien	-8.00566
program	-8.00594
▁kurį	-8.00954
užtikrin	-8.01275
▁žmogaus	-8.01324
▁metų	-8.01487
▁būtina	-8.02302
▁rezoliucij	-8.0286
▁pakeit	-8.0403
▁arba	-8.04445
ung	-8.04765
▁visiška	-8.04838
▁patvirtin	-8.06257
▁žmonių	-8.07211
▁Manau	-8.07213
▁šalys	-8.07616
▁tuo	-8.08076
▁pranešimą	-8.08102
Euro	-8.08596
U	-8.08838
steb	-8.09986
I	-8.1122
▁plan	-8.11374
olog	-8.11572
▁priemonių	-8.11572
▁veiksming	-8.12178
▁visuomen	-8.12178
▁pasakyti	-8.1218
▁pirminink	-8.13134
kalb	-8.13157
▁privalo	-8.13463
▁raštu	-8.13478
ystės	-8.1348
▁veiksmų	-8.15644
▁dvi	-8.1575
lėt	-8.16073
▁koki	-8.16245
▁organ	-8.16518
H	-8.17408
▁prekybos	-8.17857
galėtų	-8.17989
▁sak	-8.18171
▁nacionalin	-8.18307
▁atlik	-8.18831
▁toliau	-8.19225
avimas	-8.19331
▁sukurt	-8.19699
▁Europa	-8.20136
▁produkt	-8.2059
▁asmen	-8.206
Š	-8.21182
▁klausimą	-8.22264
▁finansin	-8.23127
▁pagrindini	-8.23181
▁atveju	-8.23401
ėjus	-8.23665
▁Norėčiau	-8.23877
N	-8.2429
▁energijos	-8.24355
▁tap	-8.24717
▁žemės	-8.25812
▁Poni	-8.26427
▁kalba	-8.26974
▁teik	-8.27224
▁labiau	-8.27279
▁euro	-8.27782
▁did	-8.27794
dal	-8.27855
▁Lisabono	-8.28268
▁problema	-8.28768
▁kartą	-8.28773
▁taikom	-8.28982
▁atstov	-8.29777
▁pareng	-8.29806
▁susitik	-8.29832
▁politika	-8.30283
▁klimato	-8.30283
▁kalbė	-8.30619
avimą	-8.30727
▁valdy	-8.30803
▁apsaugos	-8.31822
K	-8.33132
▁stipr	-8.33387
▁ilg	-8.33559
▁įsipareigo	-8.3391
▁koleg	-8.3445
▁gera	-8.34831
▁padėkoti	-8.34971
▁vardu	-8.34974
▁Šiuo	-8.35832
▁dėmesį	-8.36044
▁didesn	-8.36194
▁Bendr	-8.36586
nčios	-8.37139
▁geriau	-8.37254
▁vyriausyb	-8.37674
▁kontrol	-8.37674
▁Kaip	-8.38817
▁Europoje	-8.39332
▁sumažin	-8.39334
▁Pirmininke	-8.39364
B	-8.39912
▁politiką	-8.40452
▁ponai	-8.40541
▁pozicij	-8.41018
▁ūkio	-8.41019
▁kiekvien	-8.42157
▁partner	-8.42157
avimu	-8.42779
▁atžvilgiu	-8.43891
▁iniciatyv	-8.43891
▁vadov	-8.44482
▁turėtum	-8.44754
▁Dėl	-8.45078
kultūr	-8.46251
▁pažeid	-8.46283
▁palaik	-8.4641
▁Turi	-8.46812
▁esam	-8.47104
▁nuomone	-8.48089
▁darbą	-8.48713
▁įvairi	-8.49287
▁grup	-8.49316
▁vidaus	-8.52407
▁pareig	-8.52429
/	-8.53044
▁vieš	-8.53686
▁nepri	-8.53743
▁vėl	-8.5383
▁aiškiai	-8.54331
Jungtin	-8.54356
▁atitinka	-8.55634
▁naudoja	-8.55634
▁svarst	-8.55635
▁neturi	-8.55682
▁krit	-8.55863
▁ponios	-8.56304
▁daugeli	-8.56485
▁kokyb	-8.56997
▁aspekt	-8.5762
▁požiūriu	-8.58291
▁atskir	-8.58292
▁balsu	-8.58373
▁sudary	-8.59277
▁remia	-8.60123
▁institucijos	-8.61021
▁siekiama	-8.61033
▁susiję	-8.62421
▁mokslini	-8.62425
▁sistemos	-8.63119
leidžia	-8.63141
▁panaikin	-8.63829
▁balsavim	-8.64543
▁sėkm	-8.64545
▁maisto	-8.65275
teikia	-8.65467
Į	-8.65987
▁padidin	-8.6599
▁skiria	-8.66051
▁atkreip	-8.66717
▁komiteto	-8.67452
▁teigiam	-8.67452
▁gerb	-8.67469
▁EUR	-8.68193
▁Sąjungoje	-8.68193
▁abejo	-8.68193
▁dalyvau	-8.68193
▁sveikatos	-8.68193
▁moterų	-8.68193
trūk	-8.68947
konkreči	-8.69691
▁reform	-8.69691
▁nuostat	-8.69866
▁reiškia	-8.70463
▁energetikos	-8.71212
▁skaidr	-8.71212
▁pasaulyje	-8.71981
▁įskaitant	-8.71981
▁sistema	-8.71981
▁Balsav	-8.71987
▁treči	-8.72107
▁nuolat	-8.72143
▁nustat	-8.72656
▁plėtros	-8.72756
▁standart	-8.72756
▁šalies	-8.72757
kirst	-8.73351
▁pagrįst	-8.73537
▁tiesiog	-8.74325
▁nebuvo	-8.74325
▁vietos	-8.74326
▁efektyv	-8.75118
▁tvirt	-8.75612
▁tikslu	-8.75942
▁atsakomyb	-8.76725
▁šalims	-8.76725
▁pasiūlymą	-8.76727
▁pradėt	-8.77559
▁Parlamente	-8.78358
Pirminink	-8.79136
▁griežt	-8.79184
▁parlament	-8.80017
▁struktūr	-8.80017
▁numatyt	-8.80019
skelb	-8.80134
▁sprendimu	-8.80858
▁pripažin	-8.80858
▁metais	-8.80868
▁didžiausi	-8.81706
▁diskusijos	-8.8256
▁srityse	-8.8256
▁paslaugų	-8.8256
▁laikotarpi	-8.84292
▁pasaulio	-8.84292
▁Dabar	-8.86054
▁įstatym	-8.87849
▁išteklių	-8.88757
▁taisyklių	-8.88757
▁rimt	-8.88887
▁lėšų	-8.89674
▁diskusija	-8.906
▁nauding	-8.906
▁sudėting	-8.91534
▁aukšt	-8.92479
▁tikslas	-8.93433
▁žvej	-8.93433
M	-8.94319
▁ateityje	-8.94392
▁institucijų	-8.94392
▁stabil	-8.94392
▁sistemą	-8.95363
▁vaidmenį	-8.95363
G	-8.95366
protokol	-8.95366
▁priklauso	-8.96343
▁lygmeniu	-8.96343
▁pasiūlymu	-8.96363
▁priežiūros	-8.97333
▁tekst	-8.97382
▁Parlamentu	-8.98333
▁vartotojų	-8.98333
▁palank	-8.98336
▁geresn	-8.98339
J	-9.9189
(	-10.6258
