<pad>	0
</s>	0
<unk>	0
▁	-2.91061
,	-3.33882
s	-3.50793
.	-3.7732
i	-4.06022
k	-4.1826
o	-4.20949
▁ir	-4.31789
a	-4.41167
e	-4.49841
t	-4.54736
u	-4.56099
ti	-4.61124
ų	-4.71676
ą	-4.7617
g	-4.79261
os	-4.8983
▁pa	-4.91197
m	-4.97823
in	-4.98338
▁kad	-4.98944
n	-4.99666
b	-5.00085
d	-5.05119
p	-5.06843
ė	-5.12118
r	-5.13837
me	-5.17468
▁į	-5.20988
▁su	-5.21189
š	-5.21836
ės	-5.22026
as	-5.23352
is	-5.2397
ra	-5.2476
l	-5.28505
ai	-5.30522
▁ne	-5.32663
j	-5.36555
es	-5.37936
▁iš	-5.40139
ma	-5.41893
to	-5.47469
en	-5.47928
us	-5.53322
ū	-5.53938
į	-5.54669
y	-5.57038
tų	-5.58349
▁Europos	-5.61023
al	-5.62756
ri	-5.64266
ta	-5.65233
ę	-5.7124
v	-5.72239
si	-5.7278
tin	-5.75072
an	-5.77048
▁dėl	-5.7917
ž	-5.80578
ek	-5.80992
uo	-5.81616
ių	-5.81994
te	-5.82731
li	-5.82758
ki	-5.8984
▁yra	-5.90149
▁k	-5.90975
im	-5.91366
au	-5.91592
▁tik	-5.93383
▁d	-5.93529
ro	-5.97242
ir	-5.98183
da	-5.98596
▁-	-5.9875
ur	-5.99506
ja	-6.01405
imo	-6.01992
▁kuri	-6.04494
yb	-6.04841
▁tai	-6.06362
ng	-6.06602
la	-6.0751
▁vis	-6.12839
tu	-6.13733
na	-6.13912
▁pat	-6.14555
ijos	-6.14825
ka	-6.15324
f	-6.17522
ar	-6.17894
▁at	-6.18225
tas	-6.18667
▁A	-6.1909
mas	-6.20231
iai	-6.20384
yti	-6.21663
▁re	-6.22068
▁už	-6.2247
ei	-6.23041
▁K	-6.23387
▁ši	-6.24037
mi	-6.24937
▁pri	-6.27494
mo	-6.29651
sta	-6.30123
▁p	-6.30197
ant	-6.32028
▁po	-6.32159
iu	-6.35029
▁(	-6.35697
)	-6.36263
z	-6.3628
▁būti	-6.3737
tą	-6.37917
▁ap	-6.39857
▁P	-6.39864
ia	-6.40272
io	-6.4146
▁ž	-6.421
ci	-6.424
▁T	-6.42808
re	-6.42824
di	-6.43166
▁pra	-6.43633
am	-6.43837
vy	-6.44084
er	-6.44357
oje	-6.44518
▁M	-6.44655
ko	-6.45134
men	-6.45147
imą	-6.45774
ik	-6.46953
le	-6.47162
tai	-6.47912
veik	-6.48365
tar	-6.48736
▁pasi	-6.48877
aug	-6.50211
▁kaip	-6.50684
▁to	-6.50725
▁ko	-6.50793
▁m	-6.51354
imas	-6.51463
▁nuo	-6.52275
dži	-6.52378
▁t	-6.53523
▁taip	-6.53772
▁turi	-6.5446
omis	-6.56757
▁S	-6.57175
ve	-6.58089
▁J	-6.58666
ju	-6.58978
čia	-6.5946
▁per	-6.59831
jų	-6.59968
var	-6.60002
dė	-6.60465
el	-6.60506
▁pas	-6.60616
mon	-6.61159
do	-6.61244
ty	-6.61594
▁kai	-6.62503
on	-6.62822
vie	-6.63356
vi	-6.64397
min	-6.64505
▁ES	-6.64619
▁teis	-6.64634
ius	-6.64753
pa	-6.65493
▁nes	-6.66756
inti	-6.68404
▁būtų	-6.69221
va	-6.70167
▁b	-6.70455
▁B	-6.70917
sti	-6.71994
0	-6.72042
ži	-6.72653
tos	-6.72711
nt	-6.73087
ni	-6.73498
▁dar	-6.75715
▁savo	-6.76803
▁nar	-6.78202
▁labai	-6.79028
▁buvo	-6.79355
▁apie	-6.79707
▁pro	-6.80188
no	-6.81983
mų	-6.82387
▁daug	-6.83341
or	-6.8432
▁nu	-6.85063
či	-6.85401
il	-6.858
c	-6.85876
mos	-6.85947
ms	-6.86523
ly	-6.86881
lo	-6.8808
▁sk	-6.88446
gi	-6.88637
▁gali	-6.88772
▁R	-6.89197
▁bendr	-6.89419
▁V	-6.90631
mą	-6.91092
inių	-6.91851
▁praneš	-6.92091
▁mūsų	-6.92127
usi	-6.93064
iz	-6.93194
ija	-6.93532
▁E	-6.93891
▁prie	-6.9456
▁Ši	-6.94968
imų	-6.95175
du	-6.95435
tik	-6.95484
ys	-6.95528
ing	-6.9569
▁va	-6.96737
▁Komisijos	-6.97349
▁Tai	-6.98648
šal	-6.98892
▁ga	-6.99181
inga	-6.992
E	-6.99219
lin	-6.99656
ėjo	-6.99933
▁rink	-7.00006
čių	-7.00143
▁ar	-7.01318
▁D	-7.01453
iam	-7.01832
▁kar	-7.0248
▁pirmininke	-7.02727
ėms	-7.02903
cija	-7.02914
ali	-7.03314
▁reik	-7.03863
uoti	-7.04303
ran	-7.05734
▁jo	-7.05898
ui	-7.06329
rin	-7.07041
umo	-7.07939
gr	-7.08161
sprend	-7.08467
▁g	-7.08474
oms	-7.08551
▁I	-7.08738
▁bet	-7.09309
▁proc	-7.09682
ger	-7.10604
kl	-7.11254
▁finans	-7.12533
lan	-7.12592
iau	-7.12609
▁bus	-7.12763
tus	-7.12924
iems	-7.13871
▁vien	-7.14245
avimo	-7.14249
"	-7.14389
▁st	-7.14894
ul	-7.15058
▁pasiūl	-7.15153
▁mes	-7.15611
joje	-7.16332
klaus	-7.17553
ams	-7.17648
nauj	-7.18702
ina	-7.19057
▁susi	-7.19123
▁G	-7.19352
▁gal	-7.19955
▁Komisija	-7.20018
inės	-7.20121
▁maž	-7.20343
ba	-7.20619
gu	-7.20792
ver	-7.21477
ties	-7.21677
iant	-7.21982
P	-7.2212
20	-7.22133
ne	-7.22395
▁nepa	-7.22609
kel	-7.22876
▁1	-7.23132
uose	-7.23136
▁kurie	-7.23201
dar	-7.23564
▁reikia	-7.2371
▁jau	-7.23822
ymo	-7.23887
▁o	-7.24136
vo	-7.24377
for	-7.24616
▁ji	-7.24714
id	-7.25073
ru	-7.25771
▁pateik	-7.2668
▁pirm	-7.27119
ėja	-7.27187
naud	-7.27999
▁šiuo	-7.28299
▁kurios	-7.29092
mai	-7.29517
▁N	-7.29518
▁"	-7.30069
▁L	-7.30461
▁norėčiau	-7.30708
▁pagal	-7.30757
▁vert	-7.30852
uoja	-7.31498
iama	-7.31666
▁Sąjungos	-7.31799
▁valstybės	-7.31815
▁kon	-7.32183
:	-7.32216
▁Pa	-7.32307
▁keli	-7.3239
▁darbo	-7.32907
sistem	-7.33426
▁metu	-7.33613
▁prieš	-7.33689
▁priemon	-7.33692
der	-7.34152
laik	-7.34343
skai	-7.34625
aus	-7.35024
▁galimyb	-7.35179
ks	-7.35774
▁mok	-7.36162
2	-7.36205
▁siek	-7.36674
▁tarp	-7.37004
1	-7.37294
ėti	-7.38384
▁jų	-7.39115
▁turėtų	-7.39352
▁susitar	-7.40001
▁Parlamento	-7.40181
▁svarbu	-7.40418
▁ak	-7.4052
▁disk	-7.41133
▁Todėl	-7.42645
▁be	-7.43292
ry	-7.43464
cijos	-7.43957
▁turime	-7.44445
ip	-7.44897
▁naudo	-7.44938
yje	-7.45397
jus	-7.4566
ėmis	-7.45775
C	-7.45815
▁te	-7.46941
▁jos	-7.47358
▁taik	-7.48013
iausia	-7.48117
▁bū	-7.48167
esn	-7.49106
h	-7.49276
ter	-7.49332
din	-7.49601
▁dabar	-7.49814
▁gyven	-7.50616
ch	-7.51114
▁narių	-7.51477
imus	-7.51716
▁laik	-7.51915
region	-7.5197
▁šį	-7.52007
darb	-7.52193
dami	-7.52308
▁valstybių	-7.52944
?	-7.53183
umą	-7.5326
eig	-7.53525
▁veiks	-7.53567
▁atsak	-7.53629
tor	-7.53637
tis	-7.54063
imai	-7.54565
zi	-7.54934
mus	-7.55235
▁lyg	-7.55264
▁Tačiau	-7.55304
T	-7.55839
jimo	-7.55895
ojo	-7.56025
▁jei	-7.56633
9	-7.57231
oji	-7.575
O	-7.57629
▁ypač	-7.58123
5	-7.58223
S	-7.59161
▁200	-7.59229
▁atsi	-7.59653
▁teisės	-7.59902
▁kuria	-7.60485
lie	-7.60599
iškai	-7.60648
▁valstyb	-7.6095
sime	-7.60999
iją	-7.61186
▁šia	-7.61312
▁suteik	-7.61669
▁užtikrinti	-7.61863
▁daugiau	-7.61978
▁tačiau	-7.62087
▁Pone	-7.62376
▁Be	-7.63473
ciją	-7.63594
▁socialin	-7.63598
F	-7.63698
inio	-7.63721
▁nustat	-7.63742
čiu	-7.63905
▁ta	-7.64173
▁jie	-7.65481
ėje	-7.65658
▁narės	-7.65862
▁vald	-7.66187
▁de	-7.6668
▁mums	-7.66927
▁šio	-7.66973
▁ge	-7.67362
▁šios	-7.6797
▁tam	-7.68153
▁tr	-7.68557
rą	-7.68802
3	-7.68839
▁mano	-7.68876
▁nori	-7.68958
gali	-7.69097
▁laiko	-7.7028
▁Ne	-7.70907
▁bei	-7.70946
▁pagrindin	-7.71178
tume	-7.71666
▁Vis	-7.72262
▁didel	-7.72467
bal	-7.72606
dėti	-7.72741
▁politikos	-7.73101
▁nėra	-7.73138
▁kriz	-7.7318
▁sp	-7.74266
ymą	-7.7459
▁siekiant	-7.74885
▁visa	-7.75242
▁aš	-7.75412
V	-7.7577
▁klausimu	-7.75933
▁politin	-7.76165
▁pritar	-7.76171
gyvendin	-7.76247
log	-7.76299
A	-7.76963
▁jūs	-7.78149
▁todėl	-7.7865
demokrat	-7.79323
▁Taryba	-7.79447
osios	-7.80119
▁žino	-7.8022
▁susijusi	-7.80543
ančių	-7.81219
▁kiek	-7.81222
▁laisv	-7.81969
ųjų	-7.82277
8	-7.82604
;	-7.82845
acijos	-7.82884
laid	-7.82965
▁Sąjunga	-7.82988
7	-7.83087
jant	-7.83154
L	-7.83285
▁teisių	-7.83499
vir	-7.83539
nčio	-7.83689
-	-7.83874
imui	-7.84075
D	-7.84405
▁prisi	-7.84486
yst	-7.8577
4	-7.85879
▁Taip	-7.86059
▁padėti	-7.86799
nor	-7.87024
▁Gerb	-7.87055
▁tiek	-7.87955
▁atsižvelg	-7.88067
▁negali	-7.88151
▁šalių	-7.88277
▁srityje	-7.88329
program	-7.88629
▁manau	-7.89204
aud	-7.89439
▁sav	-7.89445
▁iki	-7.90452
esni	-7.90522
yta	-7.90563
R	-7.91338
avo	-7.92119
▁ekonomikos	-7.92438
▁arba	-7.92546
Ž	-7.92629
▁teik	-7.93273
▁man	-7.93434
▁skatin	-7.9356
val	-7.93627
▁Parlamentas	-7.93717
▁vykd	-7.94168
I	-7.94489
▁plėt	-7.94691
▁galima	-7.94803
▁ekonomin	-7.95184
dalyv	-7.95668
ymu	-7.96055
cijų	-7.96493
▁sudar	-7.97376
pre	-7.98182
▁žmogaus	-7.98916
avimas	-7.99039
▁svarbi	-7.99227
ymas	-7.9969
▁mėn	-7.99758
▁viena	-7.99823
▁nepri	-8.00109
staty	-8.00235
▁metų	-8.00278
umu	-8.00329
▁klausimas	-8.00678
6	-8.00704
▁užtikrin	-8.00806
▁sau	-8.0128
▁Tarybos	-8.01665
▁bendradarbiavim	-8.02709
▁priemonių	-8.02757
▁patvirtin	-8.03125
▁kurį	-8.03552
▁kovo	-8.03649
▁žmonių	-8.04308
pakeit	-8.04907
kūr	-8.05824
▁pasakyti	-8.05851
▁sutart	-8.05883
▁visiškai	-8.05958
▁san	-8.06768
▁pranešimą	-8.06832
▁inter	-8.0684
▁veiksmų	-8.06966
▁privalo	-8.0789
▁šalys	-8.08127
avimą	-8.08332
▁pabrėž	-8.0845
U	-8.09528
▁Manau	-8.09681
▁visuomen	-8.10214
▁galėtų	-8.11404
kalb	-8.12347
▁įtrauk	-8.13622
H	-8.13714
▁kito	-8.13964
▁toliau	-8.13991
▁energijos	-8.14003
aiški	-8.14034
tautin	-8.14127
▁raštu	-8.14738
▁šiandien	-8.1508
išku	-8.1516
▁tyr	-8.15675
Š	-8.15932
▁kita	-8.16039
▁sak	-8.16503
▁padaryt	-8.17118
▁apsaugos	-8.17122
▁komp	-8.18358
▁labiau	-8.18505
▁žemės	-8.18979
▁nors	-8.192
▁kuriuos	-8.20885
▁kalba	-8.21316
▁vyriausyb	-8.22316
▁skirti	-8.22351
▁atlik	-8.22596
▁atveju	-8.23083
port	-8.23397
▁nacionalin	-8.23454
▁prekybos	-8.24673
▁didesn	-8.26003
▁Norėčiau	-8.26047
▁problema	-8.26584
▁politika	-8.27229
N	-8.27361
▁klausimą	-8.27431
B	-8.2764
▁pirminink	-8.27955
▁įsipareigo	-8.29525
pagrind	-8.30829
▁Europoje	-8.31176
▁Dėl	-8.31334
▁ponai	-8.31382
▁naujo	-8.3183
▁stipr	-8.32311
reikš	-8.33572
iška	-8.34617
pie	-8.34885
▁Kaip	-8.36099
▁vardu	-8.36346
▁pareng	-8.36647
iniciatyv	-8.36736
▁dėmesį	-8.38065
▁euro	-8.38348
sumažin	-8.38471
▁Lisabonos	-8.38551
▁kalbė	-8.38849
▁pvz	-8.38886
tojams	-8.39132
▁Bendr	-8.39772
▁partner	-8.39824
▁klimato	-8.39837
avimu	-8.40448
▁numat	-8.40698
ministr	-8.40729
▁Ponia	-8.40994
▁ūkio	-8.41716
▁biudžeto	-8.41757
▁padėkoti	-8.42296
▁koleg	-8.42374
▁piliečių	-8.42803
▁įvairi	-8.43082
skiria	-8.43161
K	-8.434
▁priimti	-8.43428
▁frakcijos	-8.44034
▁Pirmininke	-8.44219
/	-8.44606
▁atstov	-8.45508
▁imtis	-8.45954
▁svarbiausi	-8.46503
▁tikrųjų	-8.46717
▁vadov	-8.46892
deda	-8.47051
krit	-8.47355
▁ponios	-8.47599
▁kontrol	-8.47648
▁grup	-8.48348
▁geriau	-8.48351
▁gyv	-8.4865
▁politiką	-8.48925
▁tvark	-8.4942
▁pažeid	-8.50064
▁saugumo	-8.50119
▁vėl	-8.50273
▁įgyvendinti	-8.50633
migra	-8.50712
▁tinkama	-8.51272
▁atžvilgiu	-8.51352
▁vysty	-8.52081
▁tokio	-8.52095
▁klausimai	-8.52523
▁atitinka	-8.53364
▁transporto	-8.53822
▁aiškiai	-8.54033
▁sveikatos	-8.54485
▁svarst	-8.5511
▁teigia	-8.5542
▁mokslin	-8.55433
▁tvirt	-8.5553
▁Jungtin	-8.56656
▁požiūriu	-8.57003
▁vidaus	-8.57353
▁neturi	-8.57399
▁nuomone	-8.58334
▁aplinkos	-8.58472
▁susiję	-8.588
žvelg	-8.59472
▁sukurti	-8.6075
▁abejo	-8.60946
▁remia	-8.62468
▁tokia	-8.62683
č	-8.63074
▁reiškia	-8.63281
▁balsu	-8.63636
konkreči	-8.64356
▁maisto	-8.64356
▁turėtume	-8.65309
organizaci	-8.65533
▁pasaulio	-8.66156
▁tiesiog	-8.66539
▁Sąjungoje	-8.66765
▁komiteto	-8.67872
▁papild	-8.68246
biudžet	-8.6884
▁technologi	-8.69152
trūk	-8.69204
▁atkreip	-8.70866
▁integr	-8.7158
kultūr	-8.71744
▁institucijos	-8.72111
leidžia	-8.72206
▁Dabar	-8.72407
Pirminink	-8.73143
▁treči	-8.73871
M	-8.74167
▁padidin	-8.74925
▁pareišk	-8.7604
▁padėtį	-8.76346
▁pripažin	-8.7652
▁šalies	-8.77219
▁įskaitant	-8.77526
▁neturė	-8.77695
▁institucijų	-8.7776
▁griež	-8.78248
▁Parlamente	-8.787
▁tarptautini	-8.78811
▁Turime	-8.79036
▁spręsti	-8.79312
▁EUR	-8.81575
▁sunku	-8.82015
skyr	-8.82514
▁ateityje	-8.83024
▁panaikin	-8.83375
▁lygmeniu	-8.83788
▁pasaulyje	-8.84202
▁nebuvo	-8.84745
▁atskir	-8.85121
▁priežiūros	-8.85648
▁moterų	-8.86262
▁stebė	-8.86452
▁Parlamentu	-8.86644
G	-8.91456
J	-9.8053
(	-10.4343
