<pad>	0
</s>	0
<unk>	0
▁¦	-0
▁𐋇	-1
ti	-2
▁,	-3
ai	-4
in	-5
os	-6
ri	-7
pa	-8
au	-9
▁.	-10
si	-11
ir	-12
al	-13
ar	-14
an	-15
en	-16
as	-17
ei	-18
am	-19
im	-20
to	-21
su	-22
ro	-23
es	-24
ko	-25
tu	-26
ki	-27
ka	-28
ra	-29
st	-30
ku	-31
li	-32
vi	-33
mo	-34
ne	-35
ės	-36
či	-37
tai	-38
tin	-39
er	-40
at	-41
dė	-42
kad	-43
ij	-44
us	-45
pri	-46
mi	-47
tų	-48
yb	-49
ši	-50
me	-51
po	-52
tik	-53
ta	-54
ek	-55
kai	-56
iš	-57
pr	-58
uo	-59
gal	-60
eu	-61
je	-62
euro	-63
kuri	-64
ių	-65
eik	-66
dėl	-67
dar	-68
sa	-69
bū	-70
cij	-71
di	-72
re	-73
gi	-74
min	-75
europ	-76
vo	-77
ms	-78
no	-79
▁𐊣	-80
ant	-81
rin	-82
te	-83
ju	-84
europos	-85
ma	-86
ži	-87
jo	-88
par	-89
end	-90
ap	-91
kl	-92
tar	-93
ausi	-94
rė	-95
imo	-96
tei	-97
ab	-98
var	-99
jos	-100
ke	-101
pro	-102
aug	-103
už	-104
do	-105
val	-106
prie	-107
yra	-108
pat	-109
ais	-110
jų	-111
yv	-112
pir	-113
vy	-114
tas	-115
ly	-116
▁-	-117
yti	-118
de	-119
mon	-120
bu	-121
pasi	-122
ie	-123
komi	-124
ini	-125
są	-126
ja	-127
nu	-128
mu	-129
čiau	-130
turi	-131
mą	-132
aus	-133
susi	-134
dži	-135
ama	-136
mas	-137
man	-138
lai	-139
be	-140
nau	-141
bi	-142
ci	-143
teis	-144
sti	-145
sų	-146
is	-147
imą	-148
on	-149
ame	-150
taip	-151
men	-152
veik	-153
šal	-154
mis	-155
na	-156
rei	-157
tr	-158
lam	-159
tą	-160
pas	-161
svar	-162
styb	-163
valstyb	-164
inti	-165
ing	-166
kaip	-167
ng	-168
tos	-169
komisi	-170
av	-171
▁(	-172
imas	-173
pirmin	-174
bend	-175
cijos	-176
lamen	-177
jung	-178
du	-179
eš	-180
pirminin	-181
kos	-182
čių	-183
▁)	-184
tis	-185
ve	-186
pran	-187
per	-188
mų	-189
vien	-190
le	-191
lab	-192
ky	-193
gali	-194
ty	-195
kia	-196
lo	-197
ni	-198
ams	-199
klausi	-200
mes	-201
vai	-202
gr	-203
darb	-204
poli	-205
vis	-206
nuo	-207
parlamen	-208
or	-209
kur	-210
gyv	-211
ver	-212
galim	-213
kon	-214
pra	-215
praneš	-216
turė	-217
sąjung	-218
uos	-219
pi	-220
oje	-221
būtų	-222
ūsų	-223
kal	-224
▁¦2	-225
reik	-226
žin	-227
buvo	-228
va	-229
▁"	-230
ger	-231
mok	-232
būti	-233
labai	-234
nes	-235
nar	-236
kar	-237
ys	-238
ui	-239
tari	-240
savo	-241
ūr	-242
saug	-243
dal	-244
pl	-245
sk	-246
sie	-247
ijos	-248
daug	-249
bal	-250
bus	-251
pirmininke	-252
ami	-253
ge	-254
tus	-255
lin	-256
norė	-257
ėj	-258
amas	-259
anči	-260
mūsų	-261
eng	-262
spr	-263
apie	-264
kas	-265
todėl	-266
lyg	-267
eko	-268
že	-269
oj	-270
pag	-271
ką	-272
din	-273
ybos	-274
▁¦20	-275
atsi	-276
ste	-277
toj	-278
priemon	-279
padė	-280
tačiau	-281
eig	-282
tarp	-283
ekono	-284
komisijos	-285
nari	-286
vyk	-287
inan	-288
ties	-289
mos	-290
norėčiau	-291
bet	-292
tais	-293
ose	-294
vir	-295
tikrin	-296
dy	-297
kin	-298
da	-299
ėms	-300
ter	-301
skir	-302
jau	-303
kyti	-304
so	-305
amos	-306
mus	-307
kalb	-308
auk	-309
veiks	-310
reikal	-311
keli	-312
stat	-313
tini	-314
pasiū	-315
lie	-316
finan	-317
umo	-318
0¦	-319
usi	-320
ak	-321
aiš	-322
augi	-323
for	-324
cial	-325
ją	-326
paž	-327
turime	-328
pasiūly	-329
pak	-330
mano	-331
inių	-332
omis	-333
užtikrin	-334
vie	-335
▁¦1	-336
esn	-337
sav	-338
darbo	-339
dir	-340
der	-341
kri	-342
sku	-343
proc	-344
sprend	-345
tori	-346
turėtų	-347
reikia	-348
šiuo	-349
sri	-350
prieš	-351
iz	-352
lei	-353
žmon	-354
mė	-355
mės	-356
kurie	-357
ang	-358
naudo	-359
tiks	-360
sieki	-361
ji	-362
skai	-363
pagrin	-364
manau	-365
dien	-366
valstybės	-367
oms	-368
suo	-369
nai	-370
politik	-371
sąjungos	-372
dab	-373
ch	-374
gin	-375
dabar	-376
tikr	-377
aš	-378
ry	-379
tau	-380
maž	-381
cija	-382
ekt	-383
ank	-384
pagal	-385
ba	-386
duo	-387
žve	-388
visi	-389
sių	-390
bendr	-391
pe	-392
tume	-393
toki	-394
parlamento	-395
imų	-396
kom	-397
mai	-398
škai	-399
ble	-400
ent	-401
tam	-402
tuo	-403
vei	-404
daugi	-405
inės	-406
proble	-407
tina	-408
stitu	-409
gyven	-410
▁:	-411
ypa	-412
galimyb	-413
komisija	-414
str	-415
žino	-416
regi	-417
tyje	-418
gyvend	-419
pilie	-420
įsi	-421
disku	-422
lių	-423
ciją	-424
tink	-425
pateik	-426
įgyvend	-427
ime	-428
siste	-429
rez	-430
raš	-431
auj	-432
lgi	-433
priim	-434
sta	-435
lio	-436
ener	-437
ūros	-438
ga	-439
šį	-440
atsa	-441
pone	-442
galė	-443
jie	-444
bendra	-445
kų	-446
ud	-447
kurios	-448
teik	-449
susitari	-450
zi	-451
tinės	-452
pasau	-453
ekonomi	-454
mums	-455
pras	-456
tie	-457
social	-458
ūri	-459
narių	-460
institu	-461
ati	-462
sto	-463
stra	-464
ektyv	-465
apsaug	-466
por	-467
ypač	-468
gai	-469
uk	-470
lik	-471
teisės	-472
kiai	-473
valstybių	-474
cijų	-475
teg	-476
pab	-477
ėmis	-478
imus	-479
padar	-480
amą	-481
šios	-482
gu	-483
sek	-484
atsižve	-485
pareig	-486
diskusi	-487
avimo	-488
kio	-489
ėra	-490
dide	-491
tojų	-492
tek	-493
dami	-494
vertin	-495
sty	-496
▁¦200	-497
tį	-498
narės	-499
tiksl	-500
ėje	-501
▁?	-502
metu	-503
poni	-504
sutar	-505
šio	-506
el	-507
tinių	-508
daugiau	-509
nor	-510
svarbi	-511
osi	-512
laiko	-513
šių	-514
taryb	-515
liu	-516
mais	-517
šis	-518
dr	-519
tvar	-520
pakei	-521
ėjo	-522
pasa	-523
balsav	-524
gerb	-525
nustat	-526
did	-527
imu	-528
ausia	-529
jis	-530
čia	-531
darbi	-532
jusi	-533
užtikrinti	-534
ija	-535
nei	-536
dama	-537
nėra	-538
bendradarbi	-539
siekiant	-540
▁.,	-541
ėti	-542
klaus	-543
liau	-544
pasiek	-545
kriz	-546
ybės	-547
ausiai	-548
ori	-549
past	-550
kuris	-551
jai	-552
prek	-553
uosi	-554
lė	-555
rū	-556
inio	-557
mog	-558
gan	-559
atve	-560
fi	-561
nori	-562
lais	-563
prin	-564
politikos	-565
ima	-566
aplin	-567
svarbu	-568
virtin	-569
bei	-570
tarptau	-571
biud	-572
sime	-573
biudže	-574
imai	-575
ęs	-576
demok	-577
demokra	-578
gų	-579
galima	-580
jei	-581
mui	-582
visų	-583
ūs	-584
mat	-585
la	-586
se	-587
čiai	-588
trauk	-589
šian	-590
visuo	-591
inter	-592
lt	-593
šiandien	-594
ųjų	-595
amai	-596
žmog	-597
bai	-598
plė	-599
rink	-600
prisi	-601
naudoj	-602
joje	-603
infor	-604
rak	-605
ten	-606
mini	-607
auti	-608
poži	-609
komite	-610
iki	-611
kių	-612
šalių	-613
teisių	-614
katin	-615
gam	-616
pritari	-617
sąlyg	-618
nuos	-619
dų	-620
tur	-621
dyti	-622
įgyvendin	-623
arba	-624
cion	-625
kiek	-626
rijos	-627
frak	-628
ekonomikos	-629
lg	-630
ali	-631
imui	-632
ančių	-633
didži	-634
sektori	-635
dos	-636
uoti	-637
strateg	-638
uose	-639
jek	-640
ag	-641
amų	-642
jas	-643
ves	-644
taisy	-645
žmogaus	-646
visiškai	-647
das	-648
vyri	-649
▁;	-650
progr	-651
parlamentas	-652
prival	-653
pre	-654
vė	-655
sio	-656
siek	-657
tiek	-658
rėž	-659
finans	-660
tarybos	-661
umą	-662
sudar	-663
sis	-664
teri	-665
kel	-666
lau	-667
nepa	-668
suteik	-669
jus	-670
gijos	-671
būt	-672
klausimas	-673
praš	-674
ęsti	-675
spor	-676
kus	-677
šią	-678
srityje	-679
lis	-680
krei	-681
metų	-682
direktyv	-683
pirma	-684
den	-685
cional	-686
nors	-687
kurį	-688
vyriaus	-689
kurių	-690
informa	-691
šalys	-692
požiūri	-693
esni	-694
inga	-695
oliu	-696
plan	-697
pagrindin	-698
kre	-699
esu	-700
lan	-701
galime	-702
rezoliu	-703
žmonių	-704
tro	-705
žemės	-706
pakeiti	-707
kol	-708
privalo	-709
nacional	-710
susijusi	-711
veiksmin	-712
pranešimą	-713
ban	-714
priemonių	-715
ras	-716
teiki	-717
priklaus	-718
daly	-719
įvai	-720
sąjunga	-721
jį	-722
pti	-723
stų	-724
sun	-725
atei	-726
įmon	-727
skatin	-728
projek	-729
patvirtin	-730
tiki	-731
antis	-732
inius	-733
mokes	-734
reg	-735
dov	-736
princi	-737
visuomen	-738
ėk	-739
čio	-740
onos	-741
gos	-742
rodo	-743
damas	-744
nų	-745
dėmes	-746
kė	-747
ybę	-748
vidu	-749
5¦	-750
būtina	-751
inę	-752
fon	-753
rinkos	-754
acijos	-755
sukur	-756
tran	-757
veiksmų	-758
duk	-759
dirb	-760
tyri	-761
vienas	-762
dą	-763
organ	-764
raštu	-765
siems	-766
ps	-767
pavy	-768
dalyv	-769
produk	-770
il	-771
ski	-772
stės	-773
region	-774
oti	-775
sien	-776
pv	-777
inis	-778
ekonomin	-779
ven	-780
anti	-781
toliau	-782
atsižvelgi	-783
eigu	-784
dėti	-785
jeigu	-786
galėtų	-787
lygi	-788
engti	-789
uoj	-790
viena	-791
reglamen	-792
varto	-793
reiš	-794
konkur	-795
stan	-796
abe	-797
tijos	-798
energijos	-799
rem	-800
pasakyti	-801
žo	-802
log	-803
9¦	-804
jog	-805
prekybos	-806
pen	-807
svei	-808
laisv	-809
tui	-810
bos	-811
ukt	-812
pasl	-813
čius	-814
įtrauk	-815
net	-816
labi	-817
visa	-818
tre	-819
bendro	-820
gru	-821
kok	-822
baig	-823
mir	-824
geri	-825
klausimą	-826
asmen	-827
kartu	-828
vadov	-829
pvz	-830
dauge	-831
džio	-832
kurią	-833
ančios	-834
jūsų	-835
politi	-836
paslaug	-837
turėtume	-838
priklauso	-839
abejo	-840
darbuo	-841
pranešime	-842
sp	-843
grį	-844
šali	-845
lyje	-846
nusi	-847
nuomon	-848
biudžeto	-849
regio	-850
pos	-851
sab	-852
koti	-853
rezu	-854
lisab	-855
osios	-856
taiko	-857
▁¦201	-858
kuriuos	-859
pozi	-860
remi	-861
šalim	-862
iją	-863
klima	-864
atas	-865
organiz	-866
teising	-867
konkuren	-868
įsipareig	-869
ru	-870
ragin	-871
pati	-872
europo	-873
apsaugos	-874
steb	-875
vert	-876
moter	-877
sveika	-878
alo	-879
yje	-880
kartą	-881
lėš	-882
aukš	-883
kymo	-884
pais	-885
ponia	-886
tinio	-887
lisabonos	-888
pabrėž	-889
klimato	-890
tech	-891
didel	-892
8¦	-893
ln	-894
kie	-895
sporto	-896
moks	-897
avimą	-898
frakcijos	-899
gą	-900
vių	-901
stab	-902
imtis	-903
iniai	-904
išlai	-905
europa	-906
jė	-907
jūs	-908
ojo	-909
rie	-910
kole	-911
veikl	-912
spręsti	-913
ijoje	-914
staty	-915
dėmesį	-916
klausimu	-917
ran	-918
rių	-919
žvi	-920
atyv	-921
negali	-922
plėtr	-923
avimas	-924
žinoma	-925
žas	-926
io	-927
iu	-928
dėlto	-929
kontro	-930
ponios	-931
pu	-932
ūkio	-933
7¦	-934
ėtų	-935
pram	-936
pažei	-937
atsižvelgiant	-938
ėme	-939
pavyz	-940
ponai	-941
vid	-942
kovo	-943
atžvi	-944
deryb	-945
konkre	-946
inin	-947
atsto	-948
papras	-949
atžvilgi	-950
šie	-951
atveju	-952
taryba	-953
kuo	-954
umas	-955
šim	-956
vaid	-957
vardu	-958
šiame	-959
susitik	-960
europoje	-961
3¦	-962
atlik	-963
cijas	-964
pramon	-965
priežas	-966
vyriausyb	-967
vimo	-968
aplinkos	-969
dymo	-970
inves	-971
tiems	-972
piliečių	-973
eur	-974
nesu	-975
tvir	-976
inici	-977
priemones	-978
dvi	-979
pateikti	-980
gas	-981
atžvilgiu	-982
part	-983
vidaus	-984
padėkoti	-985
inį	-986
taigi	-987
tojams	-988
atsižvelg	-989
rūp	-990
ištek	-991
partne	-992
proces	-993
svarbus	-994
ed	-995
siū	-996
mažin	-997
2¦	-998
atli	-999
duomen	-1000
vysty	-1001
kinti	-1002
pil	-1003
skait	-1004
turin	-1005
nustaty	-1006
pirminink	-1007
įgyvendinti	-1008
gra	-1009
sus	-1010
finansų	-1011
imi	-1012
rib	-1013
tikos	-1014
balsavau	-1015
politiką	-1016
ūk	-1017
grei	-1018
kitų	-1019
kius	-1020
kult	-1021
darbą	-1022
šioje	-1023
ingas	-1024
energe	-1025
pažang	-1026
diskusijos	-1027
pusi	-1028
teigi	-1029
glo	-1030
vieš	-1031
politika	-1032
ef	-1033
tri	-1034
prieži	-1035
iniciatyv	-1036
ats	-1037
siu	-1038
proced	-1039
aiškiai	-1040
yn	-1041
pek	-1042
padaryti	-1043
žu	-1044
nus	-1045
tinę	-1046
tinis	-1047
go	-1048
tel	-1049
koje	-1050
džiai	-1051
pirmi	-1052
labiau	-1053
tok	-1054
šti	-1055
naujo	-1056
būtent	-1057
pritariu	-1058
6¦	-1059
grin	-1060
vaiz	-1061
būtin	-1062
pagrind	-1063
skiri	-1064
tarti	-1065
tikrųjų	-1066
įsipareigoj	-1067
pus	-1068
priimti	-1069
iai	-1070
pui	-1071
palai	-1072
saugumo	-1073
visiems	-1074
daž	-1075
pasiekti	-1076
angi	-1077
audo	-1078
doku	-1079
grup	-1080
sant	-1081
timi	-1082
aspek	-1083
taisykl	-1084
galimybę	-1085
auja	-1086
vers	-1087
dokumen	-1088
1¦	-1089
tę	-1090
šk	-1091
anks	-1092
jame	-1093
klai	-1094
met	-1095
tru	-1096
jums	-1097
lygmen	-1098
pastang	-1099
tojai	-1100
mėn	-1101
nen	-1102
iniu	-1103
reng	-1104
tikrai	-1105
tikiuosi	-1106
transporto	-1107
asi	-1108
kis	-1109
sėk	-1110
vieno	-1111
nepais	-1112
kei	-1113
pavo	-1114
tiesio	-1115
kir	-1116
tuoj	-1117
kil	-1118
tinį	-1119
derin	-1120
kijos	-1121
svarb	-1122
žių	-1123
institucijos	-1124
ėm	-1125
vės	-1126
maisto	-1127
00¦	-1128
fer	-1129
grie	-1130
galioj	-1131
veikti	-1132
siekiama	-1133
ber	-1134
orite	-1135
sistemos	-1136
nustatyti	-1137
kti	-1138
susij	-1139
pasaulio	-1140
ad	-1141
nis	-1142
vos	-1143
šiuos	-1144
priorite	-1145
galiausiai	-1146
tyvi	-1147
papil	-1148
sumaž	-1149
standar	-1150
sukurti	-1151
pabrėžti	-1152
sveikatos	-1153
ūrų	-1154
džia	-1155
sudė	-1156
atstov	-1157
finansav	-1158
pirmininkauj	-1159
4¦	-1160
it	-1161
rim	-1162
engi	-1163
kant	-1164
griež	-1165
numat	-1166
vieną	-1167
atkrei	-1168
reiškia	-1169
kan	-1170
strukt	-1171
klausimus	-1172
priemonės	-1173
tol	-1174
panai	-1175
atskir	-1176
gar	-1177
mone	-1178
ūrin	-1179
tinai	-1180
bendrą	-1181
didesn	-1182
pirmiausia	-1183
nesi	-1184
strai	-1185
santy	-1186
pakank	-1187
pači	-1188
reikalav	-1189
pasin	-1190
stipr	-1191
visos	-1192
krizės	-1193
moterų	-1194
api	-1195
ate	-1196
nie	-1197
aliz	-1198
požiūriu	-1199
dėj	-1200
maži	-1201
noriu	-1202
refor	-1203
čiams	-1204
spe	-1205
sąjungoje	-1206
įvy	-1207
juos	-1208
mosi	-1209
komiteto	-1210
pranešėj	-1211
lta	-1212
lės	-1213
kūri	-1214
vaidmen	-1215
ūra	-1216
ūrą	-1217
šalies	-1218
vyr	-1219
įvyk	-1220
antra	-1221
tokia	-1222
vietos	-1223
kadangi	-1224
af	-1225
pini	-1226
techno	-1227
atsakom	-1228
tarybai	-1229
tinkamai	-1230
pasaulyje	-1231
pasinaudo	-1232
ings	-1233
stai	-1234
didin	-1235
įskait	-1236
plėtros	-1237
pasiūlymą	-1238
įskaitant	-1239
sen	-1240
guli	-1241
kelia	-1242
parei	-1243
taikyti	-1244
valstybėse	-1245
daro	-1246
kele	-1247
skri	-1248
kitos	-1249
styti	-1250
įstaty	-1251
valstybėms	-1252
pan	-1253
tra	-1254
dėjo	-1255
klių	-1256
dešim	-1257
ėjimo	-1258
žings	-1259
bendrijos	-1260
atų	-1261
viz	-1262
nariai	-1263
bendradarbiavimo	-1264
bo	-1265
savai	-1266
atliek	-1267
padėtis	-1268
problema	-1269
20¦	-1270
nių	-1271
rio	-1272
van	-1273
paro	-1274
džios	-1275
srity	-1276
šalis	-1277
reguli	-1278
šalyse	-1279
energetikos	-1280
aki	-1281
oro	-1282
smu	-1283
leng	-1284
šalims	-1285
nepaisant	-1286
pie	-1287
skur	-1288
paten	-1289
padėti	-1290
žmonės	-1291
hu	-1292
kli	-1293
soli	-1294
inimo	-1295
jusių	-1296
straips	-1297
ateityje	-1298
nary	-1299
remti	-1300
išs	-1301
kios	-1302
iškai	-1303
kuriuo	-1304
nebuvo	-1305
kalbant	-1306
bar	-1307
muo	-1308
ines	-1309
rius	-1310
pastar	-1311
ataskai	-1312
parlamente	-1313
džių	-1314
kodėl	-1315
kurio	-1316
kurias	-1317
akivaiz	-1318
paslaugų	-1319
pranešimas	-1320
pagrindinių	-1321
toje	-1322
jiems	-1323
siūlo	-1324
teisė	-1325
ino	-1326
kau	-1327
nuost	-1328
pagrį	-1329
tuoti	-1330
geb	-1331
rezult	-1332
užsien	-1333
nuomone	-1334
dai	-1335
juo	-1336
tumo	-1337
šias	-1338
daryti	-1339
metais	-1340
privalome	-1341
direktyvos	-1342
ep	-1343
cing	-1344
veng	-1345
pareng	-1346
kuriame	-1347
pranešimo	-1348
rai	-1349
vėl	-1350
posė	-1351
ausias	-1352
sutarties	-1353
▁¦3	-1354
kro	-1355
lius	-1356
moky	-1357
nuro	-1358
ausių	-1359
daugu	-1360
kitas	-1361
norime	-1362
sudėtin	-1363
jam	-1364
kiu	-1365
rusi	-1366
esame	-1367
gerai	-1368
naujų	-1369
reikš	-1370
sunku	-1371
suoti	-1372
kurioje	-1373
agent	-1374
dalis	-1375
tinka	-1376
vadin	-1377
vakar	-1378
naudoti	-1379
pareišk	-1380
reikėtų	-1381
srityse	-1382
lygmeniu	-1383
fak	-1384
gau	-1385
yta	-1386
teisę	-1387
¦	-1388
▁	-1389
i	-1390
a	-1391
s	-1392
t	-1393
r	-1394
o	-1395
e	-1396
n	-1397
u	-1398
k	-1399
m	-1400
p	-1401
l	-1402
d	-1403
v	-1404
j	-1405
𐋇	-1406
g	-1407
,	-1408
b	-1409
ų	-1410
y	-1411
ė	-1412
š	-1413
.	-1414
ą	-1415
ž	-1416
į	-1417
ū	-1418
c	-1419
č	-1420
f	-1421
z	-1422
𐊣	-1423
𐊼	-1424
ę	-1425
0	-1426
-	-1427
2	-1428
(	-1429
)	-1430
h	-1431
1	-1432
"	-1433
:	-1434
5	-1435
9	-1436
?	-1437
3	-1438
7	-1439
4	-1440
8	-1441
;	-1442
6	-1443
/	-1444
w	-1445
!	-1446
x	-1447
q	-1448
é	-1449
%	-1450
á	-1451
'	-1452
ö	-1453
è	-1454
í	-1455
ó	-1456
ü	-1457
+	-1458
ş	-1459
ä	-1460
ă	-1461
&	-1462
[	-1463
]	-1464
ń	-1465
ß	-1466
ć	-1467
°	-1468
ø	-1469
ú	-1470
ţ	-1471
à	-1472
ê	-1473
ï	-1474
ķ	-1475
ł	-1476
ň	-1477
ő	-1478
·	-1479
ç	-1480
ñ	-1481
ý	-1482
ż	-1483
_	-1484
ò	-1485
ī	-1486
ľ	-1487
ř	-1488
ś	-1489
̨	-1490
έ	-1491
π	-1492
ρ	-1493
υ	-1494
”	-1495
•	-1496
