<pad>	0
</s>	0
<unk>	0
▁t	-0
in	-1
he	-2
▁a	-3
re	-4
on	-5
▁the	-6
at	-7
▁s	-8
en	-9
er	-10
▁c	-11
or	-12
▁o	-13
is	-14
ed	-15
▁w	-16
▁in	-17
es	-18
▁p	-19
an	-20
it	-21
▁of	-22
as	-23
al	-24
▁b	-25
▁f	-26
▁d	-27
ing	-28
▁h	-29
▁to	-30
ar	-31
nd	-32
ion	-33
ent	-34
ou	-35
ic	-36
▁m	-37
il	-38
ac	-39
om	-40
▁and	-41
ve	-42
▁be	-43
▁T	-44
▁th	-45
▁n	-46
le	-47
▁re	-48
id	-49
▁v	-50
ec	-51
▁C	-52
▁is	-53
▁M	-54
tr	-55
os	-56
▁l	-57
us	-58
ation	-59
ir	-60
▁A	-61
▁g	-62
▁e	-63
▁I	-64
▁S	-65
▁The	-66
ay	-67
ow	-68
▁st	-69
ot	-70
▁for	-71
ver	-72
ly	-73
ol	-74
ad	-75
▁on	-76
ur	-77
im	-78
ut	-79
oron	-80
ill	-81
ave	-82
▁are	-83
op	-84
ter	-85
acc	-86
accin	-87
orona	-88
ment	-89
▁vaccin	-90
ect	-91
ate	-92
et	-93
▁P	-94
▁that	-95
▁has	-96
um	-97
▁H	-98
▁pr	-99
▁al	-100
am	-101
oc	-102
▁have	-103
ati	-104
ce	-105
ith	-106
▁con	-107
th	-108
ig	-109
▁D	-110
▁an	-111
▁with	-112
▁B	-113
▁we	-114
ld	-115
un	-116
▁r	-117
od	-118
ak	-119
ch	-120
and	-121
st	-122
▁corona	-123
▁he	-124
rom	-125
▁1	-126
▁was	-127
est	-128
▁as	-129
ers	-130
ents	-131
▁will	-132
ul	-133
▁from	-134
▁W	-135
▁dis	-136
her	-137
iv	-138
fect	-139
▁2	-140
em	-141
ov	-142
▁wh	-143
ies	-144
ort	-145
▁y	-146
▁not	-147
▁pati	-148
▁R	-149
ain	-150
▁or	-151
▁go	-152
ore	-153
▁at	-154
▁sh	-155
ct	-156
if	-157
▁by	-158
se	-159
pp	-160
ab	-161
umb	-162
▁been	-163
ity	-164
ome	-165
ag	-166
▁it	-167
▁de	-168
▁sa	-169
▁patients	-170
oun	-171
▁ex	-172
res	-173
▁this	-174
irus	-175
▁vaccine	-176
▁ne	-177
▁su	-178
vern	-179
▁tr	-180
ial	-181
▁N	-182
vernment	-183
ive	-184
ess	-185
▁In	-186
el	-187
ople	-188
inis	-189
ase	-190
alth	-191
eople	-192
▁O	-193
▁com	-194
ia	-195
▁said	-196
▁inc	-197
▁U	-198
ant	-199
▁wor	-200
ould	-201
qu	-202
ions	-203
so	-204
▁res	-205
ren	-206
▁"	-207
art	-208
ud	-209
▁government	-210
▁(	-211
▁people	-212
pt	-213
ical	-214
▁Th	-215
ated	-216
har	-217
ther	-218
our	-219
▁also	-220
ict	-221
gen	-222
▁F	-223
act	-224
pit	-225
▁im	-226
▁state	-227
hi	-228
red	-229
▁infect	-230
own	-231
ovid	-232
19	-233
▁se	-234
▁numb	-235
port	-236
▁K	-237
ays	-238
iz	-239
▁us	-240
▁cl	-241
▁were	-242
pital	-243
▁ch	-244
▁G	-245
▁ad	-246
▁per	-247
▁virus	-248
▁He	-249
▁can	-250
▁af	-251
ary	-252
▁test	-253
ap	-254
trict	-255
ospital	-256
▁number	-257
▁u	-258
▁sp	-259
▁le	-260
end	-261
out	-262
igh	-263
▁ab	-264
cc	-265
-19	-266
ts	-267
▁Minis	-268
av	-269
▁coun	-270
▁20	-271
▁E	-272
ash	-273
▁Corona	-274
ock	-275
ge	-276
ous	-277
▁sy	-278
▁all	-279
▁Ind	-280
ast	-281
ear	-282
▁countr	-283
gh	-284
any	-285
ib	-286
▁should	-287
▁other	-288
▁work	-289
ard	-290
ime	-291
▁J	-292
▁health	-293
ans	-294
tra	-295
▁Minister	-296
ord	-297
ound	-298
ke	-299
ack	-300
▁there	-301
▁Ma	-302
ough	-303
▁had	-304
▁out	-305
xy	-306
are	-307
ue	-308
▁cent	-309
vel	-310
ose	-311
ail	-312
▁tak	-313
xygen	-314
▁cr	-315
ist	-316
reat	-317
▁hospital	-318
ID	-319
▁me	-320
og	-321
OV	-322
fic	-323
▁comp	-324
ost	-325
OVID	-326
ine	-327
▁app	-328
▁Mahar	-329
ure	-330
ator	-331
ashtra	-332
▁pl	-333
▁after	-334
▁Maharashtra	-335
▁oxygen	-336
▁who	-337
▁ag	-338
▁COVID	-339
▁pre	-340
▁India	-341
▁di	-342
▁V	-343
all	-344
00	-345
▁exp	-346
▁you	-347
▁cont	-348
▁incre	-349
▁Ch	-350
▁whe	-351
ond	-352
age	-353
ild	-354
orm	-355
uc	-356
▁Dr	-357
oV	-358
down	-359
▁hand	-360
▁L	-361
▁dec	-362
ockdown	-363
▁do	-364
ens	-365
ub	-366
able	-367
ance	-368
▁3	-369
ath	-370
▁It	-371
▁dise	-372
▁about	-373
ef	-374
ai	-375
▁more	-376
one	-377
ased	-378
ates	-379
ew	-380
ip	-381
▁This	-382
ile	-383
ases	-384
ong	-385
ide	-386
▁their	-387
▁Pr	-388
▁rec	-389
ations	-390
CoV	-391
▁lockdown	-392
▁than	-393
▁time	-394
arch	-395
nder	-396
▁But	-397
ever	-398
▁new	-399
uct	-400
ight	-401
pr	-402
▁so	-403
read	-404
▁no	-405
▁tw	-406
▁med	-407
▁ef	-408
RS	-409
▁5	-410
▁Wh	-411
ru	-412
▁infection	-413
▁under	-414
ep	-415
lic	-416
ob	-417
form	-418
ll	-419
▁some	-420
▁k	-421
iss	-422
ording	-423
amp	-424
▁disease	-425
▁being	-426
▁vaccination	-427
mpt	-428
▁days	-429
▁vaccines	-430
ice	-431
lud	-432
▁year	-433
ccording	-434
une	-435
▁report	-436
ich	-437
▁one	-438
▁Health	-439
▁country	-440
▁4	-441
▁gr	-442
▁As	-443
▁if	-444
▁these	-445
▁pos	-446
▁sec	-447
▁av	-448
ult	-449
rent	-450
ious	-451
▁There	-452
aus	-453
ition	-454
mptom	-455
▁resp	-456
▁stud	-457
med	-458
▁need	-459
irst	-460
osed	-461
20	-462
▁ev	-463
ool	-464
▁but	-465
ike	-466
ind	-467
▁On	-468
▁qu	-469
▁How	-470
ors	-471
very	-472
▁which	-473
ress	-474
▁includ	-475
▁Un	-476
▁un	-477
▁district	-478
ame	-479
iven	-480
▁ar	-481
ence	-482
ang	-483
▁reg	-484
▁'	-485
▁they	-486
▁first	-487
ass	-488
▁sit	-489
fe	-490
velop	-491
▁many	-492
▁supp	-493
uring	-494
▁treat	-495
ask	-496
aj	-497
ign	-498
ities	-499
▁child	-500
▁ser	-501
▁found	-502
▁spread	-503
ons	-504
▁may	-505
chool	-506
oll	-507
▁second	-508
ures	-509
▁effect	-510
▁symptom	-511
te	-512
ARS	-513
miss	-514
▁two	-515
▁again	-516
▁get	-517
ace	-518
▁last	-519
▁cases	-520
uation	-521
▁such	-522
▁day	-523
▁ris	-524
▁imp	-525
▁over	-526
▁start	-527
umbai	-528
▁up	-529
▁March	-530
▁St	-531
hief	-532
▁Mumbai	-533
▁symptoms	-534
▁SARS	-535
▁develop	-536
virus	-537
▁rel	-538
▁any	-539
ra	-540
oct	-541
▁2020	-542
▁According	-543
▁ac	-544
▁says	-545
▁Chin	-546
mission	-547
▁pers	-548
▁death	-549
olog	-550
▁due	-551
atory	-552
ok	-553
ade	-554
▁given	-555
esh	-556
han	-557
pril	-558
gan	-559
mer	-560
▁cond	-561
lo	-562
▁sc	-563
▁use	-564
▁contr	-565
▁en	-566
▁avail	-567
▁children	-568
ied	-569
▁am	-570
▁situation	-571
▁treatment	-572
ning	-573
▁mon	-574
▁adm	-575
▁dif	-576
▁prev	-577
▁7	-578
▁trans	-579
ek	-580
ach	-581
stem	-582
▁sur	-583
▁wave	-584
ublic	-585
▁like	-586
▁bec	-587
▁cur	-588
▁6	-589
ree	-590
hed	-591
▁only	-592
ted	-593
▁Chief	-594
ire	-595
▁ant	-596
▁However	-597
▁Covid	-598
day	-599
aw	-600
fore	-601
▁school	-602
▁act	-603
ell	-604
▁prod	-605
▁system	-606
ian	-607
▁offic	-608
rough	-609
▁doct	-610
▁your	-611
▁countries	-612
▁inform	-613
▁We	-614
itiz	-615
▁coronavirus	-616
▁ann	-617
▁available	-618
ced	-619
reak	-620
▁comm	-621
▁pres	-622
▁part	-623
▁infected	-624
ute	-625
▁April	-626
▁Cent	-627
▁If	-628
▁prot	-629
▁world	-630
ational	-631
emb	-632
▁gen	-633
▁What	-634
▁during	-635
ro	-636
▁j	-637
anu	-638
▁cons	-639
▁against	-640
▁8	-641
▁announ	-642
▁-	-643
▁risk	-644
000	-645
ited	-646
▁how	-647
▁inter	-648
▁provid	-649
ove	-650
ject	-651
ident	-652
▁10	-653
▁caus	-654
▁when	-655
hing	-656
icip	-657
▁int	-658
ating	-659
▁used	-660
▁every	-661
▁now	-662
ivir	-663
▁mask	-664
▁while	-665
lect	-666
▁col	-667
▁week	-668
ally	-669
▁bed	-670
▁Pune	-671
▁those	-672
per	-673
▁str	-674
inistr	-675
▁restrict	-676
▁vaccinated	-677
."	-678
▁pol	-679
▁home	-680
-2	-681
▁Af	-682
▁them	-683
▁import	-684
dd	-685
▁care	-686
▁take	-687
we	-688
les	-689
▁9	-690
ody	-691
ting	-692
▁ind	-693
acker	-694
▁taken	-695
ral	-696
▁medical	-697
▁hospitals	-698
ackeray	-699
,000	-700
▁Thackeray	-701
pe	-702
akh	-703
emic	-704
▁ph	-705
▁exper	-706
▁public	-707
▁reported	-708
▁his	-709
owed	-710
▁through	-711
uch	-712
break	-713
ible	-714
▁person	-715
ater	-716
anc	-717
rug	-718
▁add	-719
ility	-720
▁lar	-721
▁outbreak	-722
▁drug	-723
▁made	-724
▁bet	-725
▁rem	-726
▁restrictions	-727
ust	-728
stit	-729
ural	-730
owing	-731
▁China	-732
▁kn	-733
▁its	-734
hav	-735
li	-736
omm	-737
ific	-738
ata	-739
▁beds	-740
▁would	-741
ech	-742
ery	-743
▁disc	-744
ope	-745
▁iss	-746
▁lakh	-747
▁Al	-748
ative	-749
▁So	-750
ices	-751
▁workers	-752
▁red	-753
itive	-754
▁dr	-755
▁patient	-756
▁Sh	-757
▁dep	-758
▁contact	-759
▁current	-760
ish	-761
vers	-762
).	-763
cy	-764
▁even	-765
▁hum	-766
▁including	-767
ials	-768
▁areas	-769
▁covid	-770
▁meet	-771
▁trave	-772
▁Hospital	-773
▁announced	-774
▁Y	-775
▁An	-776
▁soc	-777
▁short	-778
oss	-779
▁Raj	-780
asing	-781
▁requ	-782
icipal	-783
unicipal	-784
als	-785
▁loc	-786
ark	-787
eng	-788
ected	-789
▁month	-790
▁important	-791
ake	-792
aking	-793
▁dem	-794
▁var	-795
▁started	-796
▁high	-797
ms	-798
hen	-799
▁Mod	-800
▁foll	-801
▁information	-802
▁exam	-803
▁most	-804
inistration	-805
ri	-806
ision	-807
▁well	-808
und	-809
▁prevent	-810
▁travel	-811
▁call	-812
▁come	-813
▁years	-814
itizens	-815
lu	-816
▁say	-817
▁same	-818
▁increased	-819
),	-820
ines	-821
▁what	-822
▁affect	-823
▁hig	-824
ential	-825
ying	-826
▁diffe	-827
▁testing	-828
uss	-829
amil	-830
ized	-831
▁che	-832
▁hel	-833
ember	-834
▁poss	-835
▁spec	-836
▁tests	-837
▁closed	-838
ared	-839
▁did	-840
▁our	-841
▁After	-842
▁states	-843
ne	-844
▁level	-845
▁help	-846
▁hour	-847
▁serv	-848
▁doctors	-849
way	-850
arly	-851
other	-852
ned	-853
rit	-854
ings	-855
▁fac	-856
▁respir	-857
▁large	-858
The	-859
ise	-860
ween	-861
uction	-862
▁hands	-863
▁Go	-864
cent	-865
rect	-866
▁then	-867
artment	-868
▁supply	-869
▁few	-870
▁increasing	-871
ank	-872
try	-873
▁body	-874
▁city	-875
▁mill	-876
▁rate	-877
▁positive	-878
▁effective	-879
BC	-880
eral	-881
▁ass	-882
▁crore	-883
▁increase	-884
ince	-885
ven	-886
▁demand	-887
ology	-888
▁between	-889
▁case	-890
▁where	-891
▁control	-892
▁administration	-893
ff	-894
erv	-895
▁ent	-896
▁priv	-897
▁Udd	-898
▁far	-899
▁proc	-900
▁Uddhav	-901
oth	-902
▁lead	-903
▁acc	-904
▁low	-905
▁deaths	-906
ety	-907
ior	-908
ules	-909
▁camp	-910
ucation	-911
▁Center	-912
▁students	-913
▁Del	-914
ganiz	-915
▁Modi	-916
▁2020,	-917
▁comple	-918
▁present	-919
oses	-920
ering	-921
▁quest	-922
app	-923
ird	-924
▁ed	-925
▁cle	-926
▁surve	-927
▁imm	-928
▁data	-929
▁died	-930
▁into	-931
ousand	-932
▁contin	-933
ics	-934
vere	-935
▁att	-936
por	-937
▁age	-938
▁Delhi	-939
pur	-940
▁For	-941
▁very	-942
iod	-943
ness	-944
oved	-945
arant	-946
ended	-947
gency	-948
▁could	-949
▁direct	-950
▁central	-951
▁respiratory	-952
ked	-953
▁ins	-954
▁ord	-955
▁appr	-956
▁does	-957
oup	-958
▁At	-959
tain	-960
▁three	-961
▁around	-962
▁Am	-963
gest	-964
▁before	-965
▁period	-966
▁citizens	-967
▁ke	-968
▁set	-969
▁BBC	-970
▁Com	-971
▁samp	-972
▁fe	-973
unity	-974
old	-975
▁19	-976
aign	-977
ists	-978
▁15	-979
▁crit	-980
▁dose	-981
▁decision	-982
▁op	-983
▁ro	-984
aces	-985
ient	-986
ivers	-987
▁dist	-988
anuary	-989
ik	-990
▁UK	-991
▁emer	-992
▁meas	-993
▁rece	-994
▁doses	-995
▁thousand	-996
ick	-997
ves	-998
▁man	-999
entil	-1000
▁million	-1001
▁decl	-1002
▁severe	-1003
▁campaign	-1004
ised	-1005
▁issu	-1006
▁Prime	-1007
▁meeting	-1008
▁conf	-1009
stitute	-1010
▁social	-1011
oid	-1012
▁ob	-1013
▁inv	-1014
▁These	-1015
▁coron	-1016
▁recomm	-1017
▁without	-1018
get	-1019
uce	-1020
ause	-1021
ered	-1022
▁clos	-1023
▁Or	-1024
▁pro	-1025
▁prop	-1026
▁hours	-1027
▁private	-1028
▁different	-1029
xt	-1030
▁te	-1031
idence	-1032
▁Nag	-1033
ha	-1034
ric	-1035
itted	-1036
mp	-1037
its	-1038
▁est	-1039
▁lab	-1040
▁pass	-1041
▁12	-1042
▁plan	-1043
▁tested	-1044
▁January	-1045
▁allowed	-1046
▁May	-1047
▁inf	-1048
▁famil	-1049
▁ventil	-1050
alk	-1051
▁Bi	-1052
iate	-1053
eb	-1054
apid	-1055
▁rese	-1056
▁United	-1057
▁working	-1058
▁possible	-1059
iew	-1060
▁Rs	-1061
▁sm	-1062
inical	-1063
▁rules	-1064
▁percent	-1065
ung	-1066
HO	-1067
ages	-1068
▁Of	-1069
▁vir	-1070
▁make	-1071
▁Vaccin	-1072
ug	-1073
▁50	-1074
ators	-1075
ution	-1076
▁washing	-1077
cer	-1078
opul	-1079
▁open	-1080
▁antib	-1081
▁Institute	-1082
ebru	-1083
▁group	-1084
ebruary	-1085
▁schools	-1086
ax	-1087
uced	-1088
▁Wor	-1089
ments	-1090
▁rapid	-1091
ys	-1092
lood	-1093
▁sub	-1094
▁Municipal	-1095
ix	-1096
eld	-1097
esp	-1098
ron	-1099
▁des	-1100
ality	-1101
▁long	-1102
▁prob	-1103
▁quarant	-1104
▁bo	-1105
▁sim	-1106
▁They	-1107
ically	-1108
▁local	-1109
▁24	-1110
▁study	-1111
ganization	-1112
▁Government	-1113
kar	-1114
oin	-1115
▁11	-1116
▁Bh	-1117
aren	-1118
ason	-1119
ired	-1120
▁main	-1121
▁States	-1122
▁center	-1123
▁February	-1124
rap	-1125
▁Ad	-1126
▁Some	-1127
▁back	-1128
▁ext	-1129
▁Many	-1130
andemic	-1131
mediate	-1132
▁14	-1133
▁gu	-1134
▁Med	-1135
▁area	-1136
▁popul	-1137
ination	-1138
▁discuss	-1139
▁whether	-1140
▁shortage	-1141
uk	-1142
ien	-1143
ially	-1144
▁called	-1145
▁company	-1146
arr	-1147
line	-1148
ross	-1149
arket	-1150
▁down	-1151
▁addition	-1152
▁developed	-1153
▁Spe	-1154
▁air	-1155
▁lim	-1156
▁less	-1157
▁vill	-1158
▁Speaking	-1159
▁affected	-1160
▁adv	-1161
▁pandemic	-1162
ood	-1163
tal	-1164
▁co	-1165
▁Union	-1166
▁human	-1167
▁using	-1168
illance	-1169
▁education	-1170
▁ty	-1171
onom	-1172
▁held	-1173
▁lear	-1174
▁masks	-1175
▁rural	-1176
▁regard	-1177
oh	-1178
ale	-1179
ces	-1180
▁hy	-1181
ults	-1182
orpor	-1183
ention	-1184
esivir	-1185
▁blood	-1186
▁protect	-1187
▁30	-1188
lement	-1189
▁because	-1190
ram	-1191
▁ep	-1192
ived	-1193
outh	-1194
▁rele	-1195
▁seen	-1196
itions	-1197
▁across	-1198
▁gl	-1199
ives	-1200
▁fact	-1201
▁still	-1202
▁measures	-1203
▁department	-1204
▁bat	-1205
▁don	-1206
▁since	-1207
▁total	-1208
▁months	-1209
oci	-1210
▁ill	-1211
▁occ	-1212
▁much	-1213
▁remed	-1214
▁transmission	-1215
me	-1216
urs	-1217
▁wom	-1218
odies	-1219
▁both	-1220
▁done	-1221
▁stop	-1222
▁Therefore	-1223
ink	-1224
loy	-1225
ange	-1226
ouse	-1227
▁Mar	-1228
▁result	-1229
▁process	-1230
ev	-1231
owd	-1232
▁Me	-1233
▁lo	-1234
-19.	-1235
▁four	-1236
▁heart	-1237
▁Rajesh	-1238
▁clinical	-1239
ah	-1240
ars	-1241
▁18	-1242
ined	-1243
ovac	-1244
▁among	-1245
▁today	-1246
▁conduct	-1247
▁include	-1248
▁Tr	-1249
▁prog	-1250
▁chang	-1251
▁provide	-1252
▁currently	-1253
CE	-1254
par	-1255
▁Ser	-1256
▁cre	-1257
▁Kovid	-1258
▁places	-1259
▁proble	-1260
ful	-1261
ops	-1262
▁Se	-1263
ants	-1264
▁end	-1265
▁mod	-1266
ified	-1267
▁find	-1268
▁going	-1269
▁sever	-1270
▁production	-1271
ins	-1272
ten	-1273
fact	-1274
imes	-1275
onse	-1276
▁Con	-1277
▁medic	-1278
▁contain	-1279
▁Ministry	-1280
▁sent	-1281
▁soap	-1282
urther	-1283
▁Nagpur	-1284
▁taking	-1285
orporation	-1286
▁emergency	-1287
▁Dep	-1288
▁WHO	-1289
▁him	-1290
truct	-1291
▁avoid	-1292
▁third	-1293
▁diffic	-1294
▁implement	-1295
cept	-1296
▁Rem	-1297
▁sus	-1298
▁epid	-1299
▁next	-1300
▁till	-1301
▁higher	-1302
▁market	-1303
▁surveillance	-1304
led	-1305
▁1.	-1306
▁det	-1307
▁train	-1308
▁inject	-1309
▁samples	-1310
▁question	-1311
▁difficult	-1312
wn	-1313
hes	-1314
leg	-1315
ret	-1316
▁cap	-1317
▁When	-1318
atives	-1319
▁known	-1320
iving	-1321
▁HCoV	-1322
ovacin	-1323
▁World	-1324
▁asked	-1325
▁issued	-1326
▁imposed	-1327
▁IC	-1328
ters	-1329
▁know	-1330
▁pract	-1331
▁population	-1332
▁met	-1333
▁Tope	-1334
▁cell	-1335
▁five	-1336
▁stat	-1337
▁place	-1338
▁doctor	-1339
essential	-1340
▁according	-1341
▁conditions	-1342
alf	-1343
▁All	-1344
▁cris	-1345
▁sign	-1346
anufact	-1347
▁research	-1348
▁response	-1349
uth	-1350
▁tem	-1351
▁isol	-1352
▁another	-1353
▁experts	-1354
▁complete	-1355
SC	-1356
ory	-1357
▁Ex	-1358
▁New	-1359
▁happ	-1360
▁State	-1361
▁become	-1362
▁remain	-1363
iversity	-1364
aly	-1365
ual	-1366
▁emp	-1367
▁min	-1368
▁stay	-1369
▁cause	-1370
▁fight	-1371
▁house	-1372
▁serious	-1373
▁support	-1374
▁Commission	-1375
aff	-1376
ane	-1377
▁Gu	-1378
ided	-1379
▁ret	-1380
▁fire	-1381
▁keep	-1382
▁told	-1383
though	-1384
▁crisis	-1385
▁Col	-1386
▁Prad	-1387
▁susp	-1388
▁fever	-1389
▁likely	-1390
▁further	-1391
▁approved	-1392
▁immediate	-1393
anj	-1394
▁bu	-1395
▁ec	-1396
care	-1397
tern	-1398
lying	-1399
▁post	-1400
▁crowd	-1401
▁Indian	-1402
▁services	-1403
ese	-1404
ork	-1405
▁bl	-1406
▁sl	-1407
▁good	-1408
▁vari	-1409
▁early	-1410
▁trials	-1411
▁br	-1412
cing	-1413
fort	-1414
here	-1415
▁200	-1416
▁Serum	-1417
▁regul	-1418
▁small	-1419
▁staff	-1420
▁family	-1421
▁ter	-1422
▁yet	-1423
▁guid	-1424
▁facil	-1425
▁ident	-1426
▁least	-1427
▁rapidly	-1428
▁manufact	-1429
▁Organization	-1430
▁form	-1431
▁lung	-1432
▁water	-1433
▁concer	-1434
▁confir	-1435
▁continue	-1436
▁coronary	-1437
▁infections	-1438
CR	-1439
aim	-1440
ues	-1441
ilar	-1442
wide	-1443
▁mut	-1444
ather	-1445
▁phase	-1446
▁police	-1447
▁Chinese	-1448
▁Corporation	-1449
wh	-1450
▁US	-1451
▁my	-1452
echn	-1453
▁And	-1454
ecess	-1455
uthor	-1456
▁anim	-1457
▁admitted	-1458
obal	-1459
▁sug	-1460
▁econom	-1461
▁strain	-1462
▁centers	-1463
▁University	-1464
▁Fr	-1465
fety	-1466
uhan	-1467
▁rep	-1468
▁face	-1469
go	-1470
▁Z	-1471
els	-1472
▁cy	-1473
▁run	-1474
ience	-1475
▁breat	-1476
▁proper	-1477
▁reduce	-1478
▁various	-1479
▁closures	-1480
▁condition	-1481
▁essential	-1482
sp	-1483
lis	-1484
▁Is	-1485
▁fl	-1486
oung	-1487
▁hot	-1488
▁Bhar	-1489
▁labor	-1490
▁prote	-1491
▁ve	-1492
hest	-1493
▁Dis	-1494
aving	-1495
▁sect	-1496
arents	-1497
▁media	-1498
▁.	-1499
ajor	-1500
▁arr	-1501
▁let	-1502
▁non	-1503
▁vis	-1504
▁Offic	-1505
▁weeks	-1506
▁People	-1507
▁distance	-1508
tt	-1509
aid	-1510
ured	-1511
view	-1512
▁Res	-1513
▁Sat	-1514
▁beg	-1515
▁flu	-1516
▁san	-1517
based	-1518
▁each	-1519
▁major	-1520
ibility	-1521
▁epidemic	-1522
ERS	-1523
sel	-1524
▁16	-1525
ndra	-1526
aring	-1527
ining	-1528
▁init	-1529
▁read	-1530
engers	-1531
▁monit	-1532
▁common	-1533
▁Pradesh	-1534
▁getting	-1535
▁transport	-1536
NA	-1537
aily	-1538
avati	-1539
ently	-1540
▁lack	-1541
lished	-1542
▁based	-1543
▁claim	-1544
▁polit	-1545
▁within	-1546
ma	-1547
agn	-1548
ote	-1549
abad	-1550
▁Cov	-1551
▁fin	-1552
▁six	-1553
iness	-1554
▁minis	-1555
▁women	-1556
arendra	-1557
▁coming	-1558
▁compan	-1559
air	-1560
ends	-1561
omes	-1562
▁Dec	-1563
acity	-1564
▁June	-1565
▁pain	-1566
▁class	-1567
▁caused	-1568
▁immune	-1569
▁similar	-1570
▁suggest	-1571
▁community	-1572
JP	-1573
ite	-1574
nal	-1575
not	-1576
▁Re	-1577
athi	-1578
▁obs	-1579
▁Wuhan	-1580
▁Medical	-1581
▁collect	-1582
▁Narendra	-1583
wal	-1584
▁sw	-1585
▁neg	-1586
▁ref	-1587
▁head	-1588
▁cough	-1589
▁touch	-1590
▁follow	-1591
▁decided	-1592
▁parents	-1593
oub	-1594
til	-1595
▁Sp	-1596
aled	-1597
ustr	-1598
▁ben	-1599
▁big	-1600
rence	-1601
ually	-1602
▁chall	-1603
▁retur	-1604
▁highest	-1605
▁several	-1606
▁village	-1607
▁capacity	-1608
▁required	-1609
acy	-1610
eet	-1611
ards	-1612
trib	-1613
▁Pre	-1614
▁Also	-1615
▁close	-1616
▁press	-1617
▁respons	-1618
hers	-1619
land	-1620
▁Paw	-1621
▁Sec	-1622
▁own	-1623
▁2019	-1624
▁Biot	-1625
ravati	-1626
▁influ	-1627
▁employ	-1628
▁effects	-1629
▁related	-1630
▁expected	-1631
▁companies	-1632
▁antibodies	-1633
atic	-1634
neum	-1635
▁BJP	-1636
▁bus	-1637
▁she	-1638
iting	-1639
▁cold	-1640
▁Remed	-1641
▁chest	-1642
▁daily	-1643
ability	-1644
▁others	-1645
▁project	-1646
▁Although	-1647
▁received	-1648
▁conducted	-1649
▁underlying	-1650
hy	-1651
ns	-1652
up	-1653
ption	-1654
▁able	-1655
▁order	-1656
▁stand	-1657
▁cannot	-1658
▁safety	-1659
▁diseases	-1660
▁evidence	-1661
▁confirmed	-1662
anwh	-1663
▁Eur	-1664
▁Pol	-1665
▁spe	-1666
▁here	-1667
▁estim	-1668
▁gener	-1669
▁tweet	-1670
▁young	-1671
anwhile	-1672
▁necess	-1673
▁distrib	-1674
▁results	-1675
▁development	-1676
21	-1677
▁RT	-1678
-19,	-1679
ivid	-1680
side	-1681
▁ICU	-1682
ature	-1683
hield	-1684
▁MERS	-1685
▁cour	-1686
▁half	-1687
elines	-1688
▁activ	-1689
▁cance	-1690
▁night	-1691
▁global	-1692
▁Marathi	-1693
▁growing	-1694
▁viruses	-1695
ife	-1696
wad	-1697
▁tal	-1698
▁Even	-1699
▁Pawar	-1700
▁South	-1701
▁lives	-1702
▁pneum	-1703
▁humans	-1704
▁reason	-1705
▁scient	-1706
▁Amravati	-1707
▁provided	-1708
▁relatives	-1709
▁quarantine	-1710
ford	-1711
oint	-1712
rest	-1713
▁her	-1714
▁give	-1715
▁Bharat	-1716
▁Europe	-1717
▁action	-1718
▁ventilators	-1719
na	-1720
ism	-1721
▁1,	-1722
ount	-1723
▁Gen	-1724
▁ful	-1725
▁pot	-1726
▁why	-1727
▁clean	-1728
ecially	-1729
▁cities	-1730
▁invest	-1731
▁instruct	-1732
▁districts	-1733
ry	-1734
iqu	-1735
ians	-1736
osis	-1737
▁100	-1738
▁She	-1739
▁You	-1740
going	-1741
▁look	-1742
▁show	-1743
▁want	-1744
ressed	-1745
▁Italy	-1746
▁store	-1747
▁active	-1748
▁online	-1749
▁Biotech	-1750
▁persons	-1751
▁national	-1752
▁Meanwhile	-1753
icy	-1754
man	-1755
tle	-1756
▁No	-1757
ohol	-1758
onia	-1759
▁Ass	-1760
▁see	-1761
▁war	-1762
▁way	-1763
▁came	-1764
▁chec	-1765
▁needs	-1766
▁shops	-1767
istered	-1768
▁though	-1769
especially	-1770
▁spreading	-1771
,"	-1772
ims	-1773
▁25	-1774
▁sen	-1775
▁orig	-1776
ending	-1777
idered	-1778
istics	-1779
▁While	-1780
▁acute	-1781
▁think	-1782
▁National	-1783
▁facilities	-1784
▁registered	-1785
DC	-1786
za	-1787
PCR	-1788
▁off	-1789
▁mort	-1790
▁stock	-1791
▁outside	-1792
▁everyone	-1793
▁especially	-1794
We	-1795
ana	-1796
izer	-1797
ront	-1798
▁cod	-1799
▁prom	-1800
▁took	-1801
▁taluk	-1802
▁times	-1803
▁strict	-1804
▁problems	-1805
▁municipal	-1806
▁immediately	-1807
oon	-1808
ped	-1809
▁To	-1810
ling	-1811
▁Why	-1812
acter	-1813
cohol	-1814
▁away	-1815
▁oper	-1816
▁reco	-1817
▁seem	-1818
▁sequ	-1819
overed	-1820
▁happen	-1821
▁influen	-1822
▁monitor	-1823
▁perform	-1824
▁potential	-1825
uty	-1826
▁17	-1827
▁ca	-1828
▁ur	-1829
▁Pat	-1830
ached	-1831
▁room	-1832
▁safe	-1833
▁clear	-1834
▁decre	-1835
▁needed	-1836
▁individ	-1837
▁program	-1838
▁service	-1839
▁December	-1840
▁officials	-1841
▁considered	-1842
ara	-1843
▁Do	-1844
lain	-1845
ular	-1846
▁cost	-1847
▁jour	-1848
ensive	-1849
▁prior	-1850
▁techn	-1851
▁author	-1852
▁sanitiz	-1853
▁following	-1854
ym	-1855
▁Ar	-1856
▁De	-1857
fizer	-1858
▁path	-1859
retary	-1860
▁diagn	-1861
▁reach	-1862
▁viral	-1863
ological	-1864
▁released	-1865
▁necessary	-1866
▁31	-1867
apur	-1868
etic	-1869
▁CoV	-1870
▁kill	-1871
▁During	-1872
▁Pfizer	-1873
▁illness	-1874
▁negative	-1875
ala	-1876
▁40	-1877
▁aw	-1878
arli	-1879
▁Kar	-1880
▁tre	-1881
acted	-1882
ights	-1883
alking	-1884
utions	-1885
▁Contr	-1886
▁School	-1887
▁review	-1888
▁influenza	-1889
.5	-1890
hod	-1891
lor	-1892
war	-1893
▁60	-1894
▁Now	-1895
▁Utt	-1896
▁equ	-1897
▁host	-1898
▁just	-1899
▁estab	-1900
▁applic	-1901
▁enough	-1902
▁letter	-1903
▁special	-1904
▁pneumonia	-1905
▁recommended	-1906
CG	-1907
cr	-1908
▁Ph	-1909
▁ra	-1910
▁sol	-1911
▁2021	-1912
▁Sing	-1913
▁card	-1914
▁appro	-1915
ptember	-1916
▁appear	-1917
▁having	-1918
▁mortality	-1919
cl	-1920
sw	-1921
▁0	-1922
▁z	-1923
hip	-1924
nes	-1925
▁pm	-1926
▁pub	-1927
▁disp	-1928
▁mild	-1929
▁writ	-1930
▁issue	-1931
▁leaders	-1932
▁informed	-1933
▁declining	-1934
▁guidelines	-1935
ateg	-1936
▁typ	-1937
▁appe	-1938
▁free	-1939
▁task	-1940
▁Uttar	-1941
▁means	-1942
▁change	-1943
▁origin	-1944
▁investig	-1945
▁learning	-1946
▁regarding	-1947
▁Remedesivir	-1948
ft	-1949
gr	-1950
iat	-1951
ily	-1952
▁13	-1953
▁Ab	-1954
iday	-1955
lder	-1956
term	-1957
uals	-1958
▁ACE	-1959
▁One	-1960
▁mat	-1961
▁pur	-1962
ndrom	-1963
ories	-1964
xford	-1965
▁Pres	-1966
▁check	-1967
▁force	-1968
▁until	-1969
▁levels	-1970
▁employe	-1971
▁questions	-1972
cle	-1973
reg	-1974
▁21	-1975
▁22	-1976
pite	-1977
▁fun	-1978
▁food	-1979
▁tank	-1980
infect	-1981
▁cells	-1982
▁drugs	-1983
▁elect	-1984
▁later	-1985
▁consid	-1986
▁method	-1987
▁taluka	-1988
▁covacin	-1989
▁general	-1990
ead	-1991
ved	-1992
▁23	-1993
lied	-1994
▁Sur	-1995
▁ban	-1996
▁del	-1997
ances	-1998
ccess	-1999
endra	-2000
▁carr	-2001
▁type	-2002
▁wash	-2003
▁front	-2004
▁invol	-2005
▁intern	-2006
▁implemented	-2007
kn	-2008
ada	-2009
elf	-2010
▁Aj	-2011
▁En	-2012
▁po	-2013
less	-2014
▁lot	-2015
▁pay	-2016
irect	-2017
▁sing	-2018
▁great	-2019
▁Oxford	-2020
▁temper	-2021
▁business	-2022
▁September	-2023
▁experience	-2024
▁passengers	-2025
set	-2026
▁28	-2027
▁45	-2028
enec	-2029
ising	-2030
▁Brit	-2031
▁Pati	-2032
▁fear	-2033
ndrome	-2034
ymptom	-2035
▁above	-2036
▁began	-2037
▁examp	-2038
ishield	-2039
▁observ	-2040
▁record	-2041
▁Central	-2042
▁District	-2043
▁critical	-2044
▁Vaccination	-2045
▁examination	-2046
'.	-2047
az	-2048
the	-2049
ashi	-2050
lege	-2051
▁Ram	-2052
▁cer	-2053
▁dev	-2054
▁par	-2055
ready	-2056
▁grow	-2057
ancial	-2058
▁might	-2059
ificant	-2060
osition	-2061
▁preval	-2062
▁already	-2063
▁demanded	-2064
▁healthcare	-2065
ty	-2066
arb	-2067
kin	-2068
ule	-2069
▁la	-2070
ogen	-2071
▁201	-2072
▁Can	-2073
▁mor	-2074
ately	-2075
ustry	-2076
▁full	-2077
▁prep	-2078
▁sick	-2079
▁step	-2080
action	-2081
▁2020.	-2082
▁shown	-2083
▁senior	-2084
▁alcohol	-2085
▁completely	-2086
mb	-2087
con	-2088
ela	-2089
few	-2090
▁Tw	-2091
ield	-2092
traZ	-2093
eneca	-2094
▁feel	-2095
▁mult	-2096
▁genome	-2097
▁reserv	-2098
▁single	-2099
▁isolation	-2100
▁political	-2101
▁published	-2102
▁worldwide	-2103
▁Department	-2104
▁significant	-2105
▁/	-2106
erm	-2107
nav	-2108
▁Di	-2109
itte	-2110
umar	-2111
▁RNA	-2112
▁fig	-2113
▁lit	-2114
asons	-2115
osure	-2116
▁More	-2117
▁deli	-2118
▁side	-2119
▁toll	-2120
▁Resear	-2121
▁critic	-2122
▁journal	-2123
▁reached	-2124
traZeneca	-2125
HE	-2126
In	-2127
rs	-2128
idd	-2129
ium	-2130
ump	-2131
▁Sc	-2132
uted	-2133
▁Fad	-2134
▁opp	-2135
▁put	-2136
navis	-2137
▁bats	-2138
▁fill	-2139
▁mand	-2140
▁news	-2141
▁soon	-2142
▁team	-2143
▁vict	-2144
▁often	-2145
▁rates	-2146
▁separ	-2147
▁office	-2148
▁survey	-2149
▁things	-2150
▁trying	-2151
▁example	-2152
▁numbers	-2153
▁reduced	-2154
▁success	-2155
▁Fadnavis	-2156
▁maintain	-2157
▁minister	-2158
▁planning	-2159
▁produced	-2160
▁underway	-2161
▁President	-2162
▁practices	-2163
arc	-2164
ocol	-2165
utes	-2166
work	-2167
▁anti	-2168
▁must	-2169
▁nurs	-2170
▁once	-2171
▁past	-2172
▁soci	-2173
▁alleg	-2174
▁Public	-2175
▁effort	-2176
▁partic	-2177
▁therap	-2178
▁reasons	-2179
▁Lockdown	-2180
▁Patients	-2181
".	-2182
edd	-2183
vir	-2184
▁70	-2185
gien	-2186
itis	-2187
▁Man	-2188
▁Son	-2189
▁dry	-2190
ening	-2191
▁Home	-2192
▁prim	-2193
ricult	-2194
▁begin	-2195
▁benef	-2196
▁build	-2197
▁right	-2198
▁offices	-2199
▁statement	-2200
▁laboratory	-2201
▁statistics	-2202
▁instructions	-2203
bo	-2204
ged	-2205
▁80	-2206
▁Ag	-2207
▁pe	-2208
▁wa	-2209
aper	-2210
like	-2211
lish	-2212
▁too	-2213
aster	-2214
ittee	-2215
▁High	-2216
▁chain	-2217
▁exams	-2218
▁organ	-2219
▁trial	-2220
▁curfew	-2221
▁changes	-2222
▁require	-2223
▁victims	-2224
▁industry	-2225
▁syndrome	-2226
▁discussed	-2227
▁developing	-2228
▁individuals	-2229
CGP	-2230
lam	-2231
lim	-2232
self	-2233
tric	-2234
year	-2235
▁Ajit	-2236
▁date	-2237
▁suff	-2238
▁view	-2239
arlier	-2240
agement	-2241
▁causes	-2242
ociation	-2243
▁immunity	-2244
▁previous	-2245
▁suspected	-2246
▁vaccinate	-2247
▁infectious	-2248
PE	-2249
hea	-2250
irc	-2251
lec	-2252
part	-2253
▁Par	-2254
acing	-2255
▁That	-2256
▁fore	-2257
▁inst	-2258
▁left	-2259
▁phys	-2260
▁rest	-2261
▁went	-2262
▁Chand	-2263
▁Other	-2264
▁equip	-2265
▁regis	-2266
▁waste	-2267
▁Direct	-2268
▁animal	-2269
▁commun	-2270
▁hygien	-2271
▁impact	-2272
▁limited	-2273
▁reports	-2274
▁variant	-2275
▁directly	-2276
▁exposure	-2277
▁employees	-2278
▁incidence	-2279
▁coronaviruses	-2280
gn	-2281
ox	-2282
pl	-2283
alg	-2284
ani	-2285
agar	-2286
ande	-2287
ffic	-2288
▁ens	-2289
andid	-2290
unday	-2291
▁Drug	-2292
▁Kumb	-2293
▁name	-2294
▁role	-2295
▁Deputy	-2296
▁entire	-2297
▁stopped	-2298
▁breathing	-2299
aik	-2300
hat	-2301
hic	-2302
▁Ra	-2303
▁Not	-2304
▁bas	-2305
▁tow	-2306
▁Cong	-2307
▁Cons	-2308
▁Mela	-2309
▁Russ	-2310
▁circ	-2311
▁doub	-2312
▁life	-2313
▁Kumbh	-2314
▁Thane	-2315
ference	-2316
▁Police	-2317
▁candid	-2318
▁sector	-2319
▁sequen	-2320
▁General	-2321
▁Vaccine	-2322
▁created	-2323
▁Secretary	-2324
▁financial	-2325
▁president	-2326
▁injections	-2327
▁governments	-2328
io	-2329
ern	-2330
ify	-2331
ize	-2332
▁90	-2333
▁Ed	-2334
aged	-2335
enge	-2336
harm	-2337
ideo	-2338
pted	-2339
▁RSC	-2340
ction	-2341
▁RCGP	-2342
▁answ	-2343
▁nose	-2344
▁surf	-2345
▁diarr	-2346
▁onset	-2347
ociated	-2348
▁Friday	-2349
▁produce	-2350
▁Congress	-2351
▁families	-2352
▁followed	-2353
▁expressed	-2354
▁permission	-2355
▁Commissioner	-2356
▁2.	-2357
▁26	-2358
used	-2359
▁cor	-2360
▁job	-2361
▁mic	-2362
anger	-2363
awala	-2364
▁Care	-2365
▁Dise	-2366
▁With	-2367
▁diab	-2368
▁miss	-2369
ession	-2370
▁Kumar	-2371
▁lower	-2372
▁occur	-2373
iveness	-2374
▁Sunday	-2375
▁leader	-2376
▁season	-2377
▁strateg	-2378
▁economic	-2379
▁equipment	-2380
▁effectiveness	-2381
br	-2382
yn	-2383
der	-2384
ets	-2385
iot	-2386
▁Hy	-2387
▁Sa	-2388
▁ce	-2389
ense	-2390
loro	-2391
omet	-2392
▁CDC	-2393
asion	-2394
uture	-2395
verse	-2396
▁Comm	-2397
▁Shiv	-2398
▁kits	-2399
▁reli	-2400
gether	-2401
ources	-2402
▁Afric	-2403
▁board	-2404
▁effic	-2405
▁parts	-2406
▁ensure	-2407
▁studies	-2408
▁announce	-2409
▁pressure	-2410
▁specific	-2411
▁together	-2412
ymptomatic	-2413
▁challenge	-2414
▁undergoing	-2415
▁authorities	-2416
of	-2417
fer	-2418
hib	-2419
orn	-2420
ched	-2421
clud	-2422
▁App	-2423
▁fre	-2424
inary	-2425
quine	-2426
thing	-2427
▁Kore	-2428
▁Most	-2429
▁Only	-2430
▁aver	-2431
▁impr	-2432
▁laun	-2433
▁move	-2434
urrent	-2435
▁Patil	-2436
▁relig	-2437
▁track	-2438
▁video	-2439
▁became	-2440
▁future	-2441
▁raised	-2442
▁genetic	-2443
loroquine	-2444
▁official	-2445
▁protocol	-2446
▁mandatory	-2447
▁temperature	-2448
mon	-2449
rop	-2450
▁(1	-2451
▁Vas	-2452
▁ago	-2453
ashik	-2454
enstr	-2455
▁Will	-2456
▁fail	-2457
▁memb	-2458
▁prof	-2459
▁real	-2460
▁mater	-2461
▁postp	-2462
▁pregn	-2463
▁Nashik	-2464
▁design	-2465
▁events	-2466
▁groups	-2467
▁Control	-2468
▁figures	-2469
▁protein	-2470
▁systems	-2471
▁wearing	-2472
formation	-2473
▁Research	-2474
▁agricult	-2475
▁controls	-2476
▁occasion	-2477
▁Education	-2478
▁Covishield	-2479
▁Association	-2480
▁international	-2481
%)	-2482
for	-2483
oke	-2484
orr	-2485
▁29	-2486
etes	-2487
▁PPE	-2488
anjay	-2489
ental	-2490
ormal	-2491
▁Sonu	-2492
▁bring	-2493
▁exact	-2494
▁novel	-2495
▁access	-2496
▁danger	-2497
▁matter	-2498
▁nurses	-2499
▁animals	-2500
▁hygiene	-2501
▁ordered	-2502
▁recovered	-2503
▁ventilator	-2504
▁containment	-2505
ij	-2506
ya	-2507
ner	-2508
▁2,	-2509
▁Cl	-2510
▁et	-2511
ises	-2512
ital	-2513
lind	-2514
oper	-2515
▁Due	-2516
▁Sol	-2517
▁got	-2518
▁mob	-2519
stant	-2520
urity	-2521
where	-2522
▁gone	-2523
elling	-2524
mitted	-2525
▁Since	-2526
▁ready	-2527
▁Oxygen	-2528
▁cylind	-2529
▁issues	-2530
▁Disease	-2531
▁antivir	-2532
▁declared	-2533
▁extended	-2534
▁medicine	-2535
▁attention	-2536
▁injection	-2537
▁quarantined	-2538
bs	-2539
ez	-2540
arm	-2541
ogn	-2542
ots	-2543
▁Ak	-2544
come	-2545
ened	-2546
▁Don	-2547
▁beh	-2548
usion	-2549
▁hist	-2550
▁mind	-2551
▁rise	-2552
▁slow	-2553
etwork	-2554
▁indic	-2555
▁limit	-2556
vention	-2557
▁produc	-2558
▁saying	-2559
▁Collect	-2560
▁factors	-2561
▁largest	-2562
▁problem	-2563
▁tweeted	-2564
▁director	-2565
▁particip	-2566
▁recommends	-2567
-1	-2568
MR	-2569
to	-2570
abin	-2571
amin	-2572
avir	-2573
ourt	-2574
ower	-2575
▁hit	-2576
▁tar	-2577
▁tur	-2578
▁CoVs	-2579
▁bill	-2580
▁conn	-2581
▁wear	-2582
▁Court	-2583
▁alone	-2584
▁leave	-2585
▁bacter	-2586
▁policy	-2587
▁prepar	-2588
urrently	-2589
▁claimed	-2590
▁primary	-2591
▁society	-2592
▁European	-2593
▁diabetes	-2594
▁included	-2595
▁identified	-2596
▁prevalence	-2597
▁sequencing	-2598
▁AstraZeneca	-2599
2,	-2600
ph	-2601
▁Av	-2602
▁By	-2603
▁Ke	-2604
ners	-2605
▁Dev	-2606
▁Mal	-2607
April	-2608
▁Doct	-2609
▁fund	-2610
▁late	-2611
▁self	-2612
▁teac	-2613
▁Vasai	-2614
▁added	-2615
▁types	-2616
▁vehic	-2617
istance	-2618
▁instit	-2619
▁proced	-2620
▁remedic	-2621
▁Director	-2622
▁appealed	-2623
▁experien	-2624
▁antiviral	-2625
▁asymptomatic	-2626
50	-2627
erc	-2628
iol	-2629
ple	-2630
ably	-2631
cies	-2632
▁Eng	-2633
▁Vir	-2634
▁def	-2635
▁enc	-2636
engal	-2637
▁gave	-2638
▁list	-2639
ection	-2640
▁along	-2641
▁chief	-2642
▁seems	-2643
areness	-2644
▁contag	-2645
▁killed	-2646
▁little	-2647
▁average	-2648
▁cancell	-2649
▁morning	-2650
▁researc	-2651
▁diarrhea	-2652
▁suggested	-2653
▁scientists	-2654
▁manufacture	-2655
▁vaccinations	-2656
DA	-2657
bul	-2658
ran	-2659
amed	-2660
arsh	-2661
iver	-2662
neez	-2663
ored	-2664
roat	-2665
▁Our	-2666
▁bur	-2667
▁dom	-2668
aries	-2669
leges	-2670
▁Pass	-2671
▁West	-2672
▁clar	-2673
▁comb	-2674
▁intr	-2675
▁skin	-2676
ancing	-2677
iatric	-2678
▁Every	-2679
▁Exper	-2680
▁HCoVs	-2681
▁enter	-2682
▁exist	-2683
▁hotel	-2684
▁sneez	-2685
ization	-2686
▁Bengal	-2687
▁menstr	-2688
▁changed	-2689
▁concern	-2690
▁continu	-2691
▁compared	-2692
▁mutation	-2693
▁observed	-2694
▁pathogen	-2695
▁standard	-2696
▁beginning	-2697
▁medicines	-2698
▁difficulty	-2699
▁application	-2700
▁distribution	-2701
LA	-2702
ca	-2703
adi	-2704
ari	-2705
raz	-2706
yes	-2707
▁wr	-2708
greg	-2709
ober	-2710
▁Add	-2711
▁Rah	-2712
▁fil	-2713
▁nat	-2714
▁upd	-2715
razil	-2716
▁Comp	-2717
▁Palg	-2718
▁hard	-2719
▁liqu	-2720
▁live	-2721
▁lost	-2722
▁surg	-2723
▁tour	-2724
▁About	-2725
▁Singh	-2726
▁allow	-2727
▁lungs	-2728
▁sched	-2729
gencies	-2730
▁Brazil	-2731
▁adults	-2732
▁advice	-2733
▁assess	-2734
▁except	-2735
▁stages	-2736
▁target	-2737
▁College	-2738
▁Officer	-2739
▁Palghar	-2740
▁treated	-2741
▁written	-2742
▁Collector	-2743
▁diagnosed	-2744
▁estimated	-2745
II	-2746
com	-2747
ica	-2748
uge	-2749
ush	-2750
crib	-2751
inal	-2752
most	-2753
uman	-2754
▁MLA	-2755
▁eas	-2756
▁law	-2757
ivity	-2758
oving	-2759
urday	-2760
▁From	-2761
▁inte	-2762
▁mean	-2763
▁sche	-2764
ashing	-2765
endent	-2766
▁Austr	-2767
▁steps	-2768
▁Office	-2769
▁amount	-2770
▁sample	-2771
▁Britain	-2772
▁however	-2773
▁product	-2774
▁talking	-2775
▁tracing	-2776
▁establish	-2777
▁associated	-2778
▁possibility	-2779
▁hospitalized	-2780
aur	-2781
jar	-2782
▁el	-2783
▁er	-2784
iple	-2785
oday	-2786
umbo	-2787
▁Des	-2788
▁PHE	-2789
▁sal	-2790
aging	-2791
arsha	-2792
▁Germ	-2793
▁play	-2794
▁prov	-2795
▁save	-2796
▁tend	-2797
▁mouth	-2798
▁seven	-2799
▁somet	-2800
▁takes	-2801
itation	-2802
▁France	-2803
▁Varsha	-2804
▁living	-2805
▁making	-2806
▁status	-2807
▁throat	-2808
▁Germany	-2809
▁advised	-2810
▁certain	-2811
▁efforts	-2812
▁flights	-2813
▁history	-2814
▁officer	-2815
▁organiz	-2816
▁antibody	-2817
▁challeng	-2818
▁prepared	-2819
▁recommend	-2820
▁religious	-2821
▁remedivir	-2822
adu	-2823
ban	-2824
▁27	-2825
▁Im	-2826
adhy	-2827
oshi	-2828
oval	-2829
▁Joh	-2830
▁car	-2831
▁men	-2832
ograp	-2833
stand	-2834
urang	-2835
viron	-2836
▁Emer	-2837
atform	-2838
ctober	-2839
undred	-2840
▁Joshi	-2841
▁Korea	-2842
▁RTPCR	-2843
▁cover	-2844
▁purch	-2845
▁veget	-2846
atories	-2847
▁arrest	-2848
▁behind	-2849
▁former	-2850
▁metric	-2851
▁mobile	-2852
▁economy	-2853
▁minutes	-2854
▁recover	-2855
▁univers	-2856
▁Saturday	-2857
▁findings	-2858
▁includes	-2859
▁launched	-2860
▁recently	-2861
▁supplied	-2862
▁mutations	-2863
▁successful	-2864
3,	-2865
ube	-2866
xim	-2867
▁Su	-2868
osts	-2869
▁Kol	-2870
▁fat	-2871
▁foc	-2872
▁rub	-2873
▁ten	-2874
▁ton	-2875
iddle	-2876
quate	-2877
▁Coun	-2878
▁Pand	-2879
▁huge	-2880
▁kept	-2881
abinet	-2882
rought	-2883
▁Rahul	-2884
▁break	-2885
▁paper	-2886
▁relax	-2887
▁stage	-2888
▁thing	-2889
ologist	-2890
▁Africa	-2891
▁detail	-2892
▁recept	-2893
▁recogn	-2894
▁stress	-2895
▁request	-2896
▁delivery	-2897
▁practice	-2898
▁touching	-2899
▁training	-2900
▁awareness	-2901
▁completed	-2902
▁disinfect	-2903
▁intensive	-2904
▁protective	-2905
▁remedicivir	-2906
It	-2907
ris	-2908
use	-2909
▁Co	-2910
▁II	-2911
▁Ro	-2912
▁Sw	-2913
▁UN	-2914
igen	-2915
mber	-2916
reme	-2917
road	-2918
than	-2919
▁Opp	-2920
▁ada	-2921
▁dig	-2922
▁led	-2923
▁opt	-2924
There	-2925
aceut	-2926
onday	-2927
▁beli	-2928
▁pict	-2929
▁tell	-2930
ursday	-2931
▁Gujar	-2932
▁ambul	-2933
▁black	-2934
▁field	-2935
itional	-2936
ovember	-2937
▁Russia	-2938
▁create	-2939
▁facing	-2940
▁showed	-2941
▁threat	-2942
▁markets	-2943
▁setting	-2944
aceutical	-2945
▁Thursday	-2946
▁colleges	-2947
▁location	-2948
▁personal	-2949
▁platform	-2950
▁proteins	-2951
▁criticized	-2952
▁researchers	-2953
harmaceutical	-2954
▁organization	-2955
.3	-2956
29	-2957
cil	-2958
nel	-2959
▁Be	-2960
▁PM	-2961
aced	-2962
drop	-2963
ucle	-2964
uled	-2965
▁Cal	-2966
▁Luc	-2967
▁Rel	-2968
ednes	-2969
izing	-2970
▁Gaik	-2971
▁Last	-2972
▁char	-2973
▁dead	-2974
▁scre	-2975
▁stor	-2976
▁webs	-2977
ardhan	-2978
ardian	-2979
▁Harsh	-2980
▁Johns	-2981
▁Nagar	-2982
▁Today	-2983
▁comes	-2984
▁doing	-2985
▁homes	-2986
▁scale	-2987
▁whole	-2988
▁Sanjay	-2989
▁Satara	-2990
▁bodies	-2991
▁determ	-2992
▁passed	-2993
▁stocks	-2994
ednesday	-2995
truction	-2996
▁Gaikwad	-2997
▁Gujarat	-2998
▁account	-2999
▁careful	-3000
▁environ	-3001
▁exactly	-3002
▁natural	-3003
▁species	-3004
lications	-3005
▁backdrop	-3006
▁complain	-3007
▁priority	-3008
▁projects	-3009
▁recovery	-3010
▁separate	-3011
▁virology	-3012
▁suffering	-3013
▁contagious	-3014
▁monitoring	-3015
▁responsibility	-3016
.7	-3017
.8	-3018
8,	-3019
aon	-3020
mes	-3021
▁Le	-3022
dden	-3023
gent	-3024
isms	-3025
osal	-3026
sequ	-3027
ways	-3028
▁Pun	-3029
▁dam	-3030
▁die	-3031
anded	-3032
olled	-3033
▁Serv	-3034
▁mess	-3035
▁near	-3036
▁stre	-3037
▁swab	-3038
ailway	-3039
idents	-3040
isions	-3041
▁Medic	-3042
▁Trump	-3043
▁frequ	-3044
▁preca	-3045
▁terms	-3046
▁gather	-3047
▁growth	-3048
▁sudden	-3049
▁hundred	-3050
▁picture	-3051
▁release	-3052
▁running	-3053
▁Guardian	-3054
▁returned	-3055
▁elections	-3056
▁protection	-3057
▁Coronavirus	-3058
▁Information	-3059
▁laboratories	-3060
▁manufacturing	-3061
RT	-3062
ti	-3063
cre	-3064
dom	-3065
emi	-3066
erg	-3067
rel	-3068
utr	-3069
alys	-3070
ides	-3071
▁Ash	-3072
▁gym	-3073
▁vac	-3074
iforn	-3075
known	-3076
organ	-3077
riate	-3078
▁Poon	-3079
▁acid	-3080
▁paid	-3081
aching	-3082
▁Child	-3083
▁Force	-3084
▁initi	-3085
▁visit	-3086
▁woman	-3087
▁Monday	-3088
▁almost	-3089
▁anyone	-3090
▁attack	-3091
▁nation	-3092
▁normal	-3093
▁option	-3094
▁scheme	-3095
▁Centers	-3096
▁Solapur	-3097
▁brought	-3098
▁crowded	-3099
▁tankers	-3100
▁Californ	-3101
▁consider	-3102
▁constant	-3103
▁presence	-3104
▁progress	-3105
▁register	-3106
▁Currently	-3107
▁ministers	-3108
▁Opposition	-3109
▁distancing	-3110
▁scientific	-3111
▁responsible	-3112
%.	-3113
,1	-3114
oj	-3115
cel	-3116
mit	-3117
ocy	-3118
pox	-3119
akes	-3120
hold	-3121
ival	-3122
king	-3123
lies	-3124
load	-3125
vant	-3126
vent	-3127
▁Fin	-3128
▁Two	-3129
▁old	-3130
COVID	-3131
erate	-3132
tific	-3133
▁Desh	-3134
▁ages	-3135
▁farm	-3136
▁inqu	-3137
▁send	-3138
▁shop	-3139
ective	-3140
ortion	-3141
▁court	-3142
▁exerc	-3143
▁plans	-3144
▁reduc	-3145
derabad	-3146
▁Aurang	-3147
▁Infect	-3148
▁approp	-3149
▁better	-3150
▁formul	-3151
▁longer	-3152
▁region	-3153
▁tempor	-3154
▁tonnes	-3155
▁digital	-3156
▁initial	-3157
▁network	-3158
▁involved	-3159
▁isolated	-3160
▁concerned	-3161
▁decreased	-3162
▁sanitizer	-3163
▁thousands	-3164
▁Aurangabad	-3165
▁difference	-3166
▁procedures	-3167
▁sanitizers	-3168
▁technology	-3169
▁announcement	-3170
▁transportation	-3171
95	-3172
MS	-3173
▁,	-3174
dro	-3175
eds	-3176
ier	-3177
inc	-3178
omb	-3179
uck	-3180
ukh	-3181
▁48	-3182
alse	-3183
ging	-3184
oney	-3185
tery	-3186
▁Bab	-3187
▁ang	-3188
harma	-3189
▁Adar	-3190
▁Iran	-3191
▁bank	-3192
▁elec	-3193
▁trad	-3194
▁weak	-3195
atures	-3196
▁chron	-3197
▁focus	-3198
▁minim	-3199
▁never	-3200
▁works	-3201
tration	-3202
▁Intern	-3203
▁accept	-3204
▁mother	-3205
▁notice	-3206
▁strong	-3207
ediatric	-3208
▁Experts	-3209
▁address	-3210
▁carried	-3211
▁closure	-3212
▁consult	-3213
▁storage	-3214
▁studied	-3215
▁Citizens	-3216
▁Devendra	-3217
▁November	-3218
▁detected	-3219
▁interest	-3220
▁officers	-3221
▁physical	-3222
▁severity	-3223
▁treating	-3224
▁Wednesday	-3225
▁Prevention	-3226
▁contracted	-3227
▁management	-3228
▁availability	-3229
▁universities	-3230
IN	-3231
ex	-3232
WHO	-3233
▁MP	-3234
▁fr	-3235
rish	-3236
umer	-3237
▁Are	-3238
▁Let	-3239
▁Reg	-3240
▁Vij	-3241
▁aff	-3242
▁enz	-3243
▁fri	-3244
▁vol	-3245
▁wid	-3246
ither	-3247
ouble	-3248
ought	-3249
▁Part	-3250
▁Ramd	-3251
▁Task	-3252
▁Tues	-3253
▁bord	-3254
▁fall	-3255
▁feet	-3256
▁loss	-3257
▁shut	-3258
ularly	-3259
▁Phase	-3260
▁cured	-3261
▁elder	-3262
▁enfor	-3263
▁micro	-3264
▁money	-3265
▁analys	-3266
▁answer	-3267
▁course	-3268
▁decide	-3269
▁detect	-3270
▁export	-3271
▁obtain	-3272
▁recent	-3273
fficient	-3274
▁Austral	-3275
▁Despite	-3276
▁Doctors	-3277
▁October	-3278
▁Tuesday	-3279
▁capital	-3280
▁foreign	-3281
▁industr	-3282
▁mention	-3283
▁planned	-3284
▁respond	-3285
▁usually	-3286
▁Vaccines	-3287
▁properly	-3288
▁security	-3289
▁teachers	-3290
▁Hyderabad	-3291
▁Poonawala	-3292
▁additional	-3293
▁appropriate	-3294
▁organizations	-3295
,4	-3296
.2	-3297
If	-3298
ie	-3299
sy	-3300
att	-3301
cri	-3302
nik	-3303
ott	-3304
▁..	-3305
▁Pl	-3306
lamm	-3307
spec	-3308
unte	-3309
wali	-3310
ward	-3311
▁Adm	-3312
▁Sen	-3313
▁mis	-3314
▁via	-3315
aches	-3316
iring	-3317
ondwe	-3318
poxia	-3319
▁bird	-3320
▁fast	-3321
▁phot	-3322
▁rout	-3323
andeep	-3324
ension	-3325
▁doesn	-3326
▁point	-3327
▁tract	-3328
actions	-3329
uration	-3330
▁Diwali	-3331
▁banned	-3332
▁breath	-3333
inations	-3334
▁Bhondwe	-3335
▁despite	-3336
▁explain	-3337
▁ongoing	-3338
▁postpon	-3339
▁subject	-3340
▁therapy	-3341
▁efficacy	-3342
▁multiple	-3343
▁provides	-3344
▁dangerous	-3345
▁outbreaks	-3346
▁performed	-3347
▁resources	-3348
▁Passengers	-3349
▁conference	-3350
▁departments	-3351
▁environment	-3352
RE	-3353
ps	-3354
ury	-3355
val	-3356
▁35	-3357
▁Gr	-3358
▁Pa	-3359
▁bi	-3360
lock	-3361
ones	-3362
oves	-3363
sych	-3364
▁500	-3365
▁Jay	-3366
▁bel	-3367
▁deg	-3368
▁etc	-3369
▁kit	-3370
▁val	-3371
erson	-3372
utnik	-3373
▁Amer	-3374
▁Hong	-3375
▁Kong	-3376
▁Test	-3377
▁coll	-3378
▁educ	-3379
▁expl	-3380
▁grad	-3381
▁hold	-3382
▁insp	-3383
▁peak	-3384
▁toil	-3385
▁unit	-3386
Corona	-3387
ancies	-3388
corona	-3389
▁Again	-3390
▁Vijay	-3391
▁cardi	-3392
▁entry	-3393
▁urban	-3394
related	-3395
▁mental	-3396
▁simple	-3397
liminary	-3398
ximately	-3399
▁Council	-3400
▁chronic	-3401
▁classes	-3402
▁members	-3403
▁missing	-3404
▁someone	-3405
gregation	-3406
▁activity	-3407
▁agencies	-3408
▁approval	-3409
▁canceled	-3410
▁cleaning	-3411
▁happened	-3412
▁recorded	-3413
▁relative	-3414
▁solution	-3415
▁starting	-3416
▁villages	-3417
▁contacted	-3418
▁assistance	-3419
▁critically	-3420
▁journalist	-3421
▁nationwide	-3422
▁prevention	-3423
▁distributed	-3424
▁agricultural	-3425
▁International	-3426
25	-3427
63	-3428
Ch	-3429
af	-3430
▁?	-3431
avi	-3432
bid	-3433
igr	-3434
ola	-3435
ugg	-3436
uly	-3437
apan	-3438
char	-3439
ecut	-3440
eros	-3441
free	-3442
ires	-3443
leag	-3444
▁buy	-3445
▁gas	-3446
▁try	-3447
angol	-3448
echan	-3449
estic	-3450
osing	-3451
ource	-3452
overs	-3453
rapur	-3454
▁East	-3455
▁News	-3456
▁drop	-3457
▁road	-3458
▁viol	-3459
▁wors	-3460
cluded	-3461
rishna	-3462
▁Jumbo	-3463
▁hydro	-3464
▁immun	-3465
▁light	-3466
▁older	-3467
▁phone	-3468
▁speed	-3469
▁introd	-3470
▁member	-3471
▁return	-3472
▁suppli	-3473
▁weekly	-3474
ritories	-3475
▁Earlier	-3476
▁Sputnik	-3477
▁failure	-3478
▁variants	-3479
▁Committee	-3480
▁Emergency	-3481
▁admission	-3482
▁decisions	-3483
▁providing	-3484
▁traveling	-3485
▁Chandrapur	-3486
▁candidates	-3487
▁allegations	-3488
▁considering	-3489
▁established	-3490
As	-3491
sh	-3492
yc	-3493
ali	-3494
arp	-3495
ift	-3496
mal	-3497
oir	-3498
ols	-3499
▁3.	-3500
▁4.	-3501
▁Kh	-3502
CoVs	-3503
SARS	-3504
abor	-3505
band	-3506
hmed	-3507
▁Air	-3508
▁Har	-3509
▁Vid	-3510
▁ade	-3511
▁cow	-3512
▁pul	-3513
ables	-3514
erala	-3515
itter	-3516
tered	-3517
ugust	-3518
▁Amit	-3519
▁Fund	-3520
▁Mund	-3521
▁Over	-3522
▁eyes	-3523
▁item	-3524
▁sore	-3525
▁ward	-3526
▁word	-3527
istent	-3528
resent	-3529
▁Karon	-3530
▁Malik	-3531
▁Surve	-3532
▁cross	-3533
▁deter	-3534
▁disru	-3535
▁eight	-3536
▁inhib	-3537
▁refer	-3538
espread	-3539
lection	-3540
▁Consid	-3541
▁Kerala	-3542
▁attend	-3543
▁extent	-3544
▁highly	-3545
▁orders	-3546
▁pangol	-3547
▁rising	-3548
▁Develop	-3549
▁England	-3550
▁elderly	-3551
▁exposed	-3552
▁ministr	-3553
▁overall	-3554
▁parties	-3555
▁unknown	-3556
▁bacteria	-3557
▁communic	-3558
▁directed	-3559
▁incident	-3560
▁meetings	-3561
▁pregnant	-3562
▁vehicles	-3563
▁clarified	-3564
▁committee	-3565
▁cylinders	-3566
▁mentioned	-3567
▁understand	-3568
▁widespread	-3569
▁examinations	-3570
▁intermediate	-3571
▁significantly	-3572
,8	-3573
▁:	-3574
amb	-3575
▁Bo	-3576
▁CT	-3577
▁EU	-3578
ency	-3579
ison	-3580
mukh	-3581
▁...	-3582
▁Naw	-3583
▁Sal	-3584
▁aut	-3585
▁cam	-3586
▁mid	-3587
apore	-3588
▁Baba	-3589
▁Then	-3590
▁lock	-3591
▁pack	-3592
▁poor	-3593
▁walk	-3594
▁wide	-3595
▁zone	-3596
acting	-3597
asthan	-3598
usband	-3599
▁2021,	-3600
▁Apart	-3601
▁Japan	-3602
▁behav	-3603
▁plant	-3604
▁psych	-3605
▁share	-3606
▁spike	-3607
ecutive	-3608
▁August	-3609
▁Author	-3610
▁eating	-3611
▁giving	-3612
▁rather	-3613
▁stores	-3614
▁Schools	-3615
▁Twitter	-3616
▁ability	-3617
▁closing	-3618
▁colleag	-3619
▁earlier	-3620
▁thought	-3621
▁visited	-3622
▁Children	-3623
▁Deshmukh	-3624
▁analysis	-3625
▁arrested	-3626
▁building	-3627
▁election	-3628
▁surfaces	-3629
▁Rajasthan	-3630
▁Singapore	-3631
▁constantly	-3632
▁controvers	-3633
▁discussion	-3634
▁programmes	-3635
▁strategies	-3636
▁discussions	-3637
▁segregation	-3638
▁ventilation	-3639
IV	-3640
bor	-3641
iry	-3642
jri	-3643
osp	-3644
yme	-3645
▁37	-3646
▁Te	-3647
atch	-3648
eddy	-3649
hens	-3650
orth	-3651
otic	-3652
resp	-3653
wise	-3654
▁Rec	-3655
▁San	-3656
▁Who	-3657
▁key	-3658
▁nas	-3659
▁pan	-3660
▁ver	-3661
anand	-3662
eding	-3663
ensin	-3664
essor	-3665
ester	-3666
oming	-3667
orrow	-3668
▁July	-3669
▁Priv	-3670
▁Sood	-3671
▁goes	-3672
▁groc	-3673
▁jobs	-3674
▁mass	-3675
▁outc	-3676
▁talk	-3677
jriwal	-3678
▁Ahmed	-3679
▁Covin	-3680
▁Lucas	-3681
▁Reddy	-3682
▁Where	-3683
▁event	-3684
▁hosts	-3685
▁price	-3686
▁space	-3687
itivity	-3688
▁altern	-3689
▁coding	-3690
▁crowds	-3691
▁damage	-3692
▁drying	-3693
▁encour	-3694
▁flight	-3695
▁object	-3696
▁replic	-3697
arantine	-3698
▁Krishna	-3699
▁antigen	-3700
▁benefit	-3701
▁cabinet	-3702
▁describ	-3703
▁greater	-3704
▁methods	-3705
▁website	-3706
▁Kejriwal	-3707
▁adequate	-3708
▁benefits	-3709
▁coughing	-3710
▁existing	-3711
▁facility	-3712
▁fighting	-3713
▁function	-3714
▁guidance	-3715
▁receptor	-3716
▁continues	-3717
▁gradually	-3718
▁personnel	-3719
▁colleagues	-3720
27	-3721
IR	-3722
MA	-3723
-2.	-3724
lev	-3725
omp	-3726
ros	-3727
tro	-3728
▁33	-3729
▁em	-3730
abil	-3731
rist	-3732
ubei	-3733
xych	-3734
▁Exp	-3735
▁FDA	-3736
▁Out	-3737
▁Sim	-3738
▁cyt	-3739
▁hol	-3740
▁hom	-3741
▁mil	-3742
▁tax	-3743
arbha	-3744
arily	-3745
nagar	-3746
▁Gand	-3747
▁Hind	-3748
▁ICMR	-3749
▁Spec	-3750
▁cere	-3751
▁curb	-3752
▁door	-3753
▁fing	-3754
▁grap	-3755
▁poly	-3756
▁pred	-3757
▁sold	-3758
▁tons	-3759
▁wedd	-3760
selves	-3761
▁Hubei	-3762
▁clots	-3763
▁items	-3764
▁makes	-3765
▁power	-3766
aurants	-3767
washing	-3768
▁faster	-3769
▁liquid	-3770
▁mechan	-3771
▁stored	-3772
▁worker	-3773
▁adverse	-3774
▁measure	-3775
▁options	-3776
▁privacy	-3777
▁strains	-3778
▁surface	-3779
▁Vidarbha	-3780
▁material	-3781
▁millions	-3782
▁ministry	-3783
▁Australia	-3784
▁collected	-3785
▁confusion	-3786
▁initially	-3787
▁postponed	-3788
▁represent	-3789
▁returning	-3790
▁throughout	-3791
▁treatments	-3792
▁Development	-3793
▁communities	-3794
▁remedesivir	-3795
xychloroquine	-3796
▁experiencing	-3797
▁manufactured	-3798
▁Administration	-3799
▁implementation	-3800
,5	-3801
24	-3802
60	-3803
65	-3804
be	-3805
oe	-3806
WIN	-3807
bed	-3808
dis	-3809
heb	-3810
mph	-3811
oli	-3812
yal	-3813
▁(3	-3814
▁CE	-3815
▁Us	-3816
▁Zh	-3817
▁ir	-3818
alls	-3819
appy	-3820
eful	-3821
know	-3822
lebr	-3823
ocyt	-3824
ring	-3825
said	-3826
▁Bef	-3827
▁Var	-3828
▁eng	-3829
▁inj	-3830
▁sat	-3831
▁sum	-3832
alian	-3833
eline	-3834
hapur	-3835
istan	-3836
ounds	-3837
ustom	-3838
▁Food	-3839
▁Paul	-3840
▁Such	-3841
▁Work	-3842
▁apps	-3843
▁migr	-3844
everal	-3845
oplets	-3846
▁Munde	-3847
▁basis	-3848
▁delay	-3849
▁final	-3850
▁hotsp	-3851
▁nucle	-3852
▁super	-3853
▁worse	-3854
▁youth	-3855
▁Before	-3856
▁Gandhi	-3857
▁Marath	-3858
▁celebr	-3859
▁circul	-3860
▁enzyme	-3861
▁slowly	-3862
iotensin	-3863
▁Italian	-3864
▁Johnson	-3865
▁decline	-3866
▁facilit	-3867
▁organic	-3868
▁session	-3869
▁sitting	-3870
▁student	-3871
echnology	-3872
▁changing	-3873
▁outcomes	-3874
▁sneezing	-3875
▁speaking	-3876
▁campaigns	-3877
▁candidate	-3878
▁household	-3879
▁pediatric	-3880
▁reservoir	-3881
▁percentage	-3882
▁vegetables	-3883
▁Considering	-3884
▁educational	-3885
▁investigation	-3886
▁manufacturers	-3887
▁participating	-3888
",	-3889
,0	-3890
.9	-3891
CP	-3892
IC	-3893
IS	-3894
ee	-3895
SCO	-3896
aps	-3897
ats	-3898
ipp	-3899
rob	-3900
▁41	-3901
▁65	-3902
▁Up	-3903
airs	-3904
ancy	-3905
asma	-3906
bing	-3907
book	-3908
empt	-3909
erms	-3910
hada	-3911
idge	-3912
ites	-3913
mpty	-3914
ping	-3915
rees	-3916
tail	-3917
▁Act	-3918
▁ide	-3919
▁raw	-3920
eries	-3921
mical	-3922
overy	-3923
ronch	-3924
▁Bhus	-3925
▁Hand	-3926
▁best	-3927
▁deal	-3928
▁line	-3929
▁mach	-3930
▁purp	-3931
▁rare	-3932
▁reve	-3933
▁spok	-3934
▁term	-3935
▁tiss	-3936
▁true	-3937
▁Coron	-3938
▁codes	-3939
▁creat	-3940
▁drive	-3941
▁party	-3942
▁tried	-3943
desivir	-3944
▁Karona	-3945
▁Ramdev	-3946
▁Strict	-3947
▁expert	-3948
▁shared	-3949
▁specim	-3950
▁stated	-3951
▁toilet	-3952
▁British	-3953
▁husband	-3954
▁keeping	-3955
▁receive	-3956
▁relaxed	-3957
▁showing	-3958
▁waiting	-3959
▁Kolhapur	-3960
▁domestic	-3961
▁learners	-3962
▁politics	-3963
▁reaction	-3964
▁administr	-3965
▁California	-3966
▁businesses	-3967
▁commission	-3968
▁importance	-3969
▁pathogenic	-3970
▁preventing	-3971
▁potentially	-3972
▁preliminary	-3973
▁institutions	-3974
▁menstruation	-3975
▁approximately	-3976
.1	-3977
.4	-3978
EE	-3979
amm	-3980
arg	-3981
lia	-3982
oph	-3983
pri	-3984
▁Aw	-3985
▁Ec	-3986
▁My	-3987
-229	-3988
ames	-3989
ikas	-3990
▁Ant	-3991
▁Bid	-3992
▁aim	-3993
▁cut	-3994
▁leg	-3995
▁mus	-3996
▁tom	-3997
,000.	-3998
March	-3999
embly	-4000
ocial	-4001
otees	-4002
ports	-4003
▁Both	-4004
▁Does	-4005
▁Foll	-4006
▁Sena	-4007
▁acqu	-4008
▁clus	-4009
▁poin	-4010
▁rain	-4011
▁seek	-4012
▁sens	-4013
▁sure	-4014
▁surv	-4015
▁zoon	-4016
ashank	-4017
esides	-4018
ivered	-4019
urance	-4020
▁aeros	-4021
▁named	-4022
▁polic	-4023
▁quant	-4024
fective	-4025
ivision	-4026
olution	-4027
ubation	-4028
▁abroad	-4029
▁deploy	-4030
▁handle	-4031
▁middle	-4032
▁opport	-4033
▁resort	-4034
▁tanker	-4035
▁trains	-4036
▁warned	-4037
▁widely	-4038
esterday	-4039
▁Against	-4040
▁Railway	-4041
▁billion	-4042
▁degrees	-4043
▁deliver	-4044
▁epidemi	-4045
▁learned	-4046
▁station	-4047
organisms	-4048
▁Shashank	-4049
▁decrease	-4050
▁designed	-4051
▁devotees	-4052
▁distress	-4053
▁droplets	-4054
▁moderate	-4055
▁settings	-4056
▁delivered	-4057
▁diagnosis	-4058
▁estimates	-4059
▁generally	-4060
▁materials	-4061
▁reduction	-4062
▁suspended	-4063
▁typically	-4064
▁activities	-4065
▁challenges	-4066
▁everything	-4067
▁initiative	-4068
▁profession	-4069
▁respective	-4070
▁themselves	-4071
▁regulations	-4072
▁territories	-4073
▁municipality	-4074
▁particularly	-4075
43	-4076
KU	-4077
SE	-4078
Th	-4079
aya	-4080
eve	-4081
ipe	-4082
ocu	-4083
pre	-4084
ugh	-4085
upe	-4086
wan	-4087
▁Ne	-4088
ESCO	-4089
anch	-4090
eria	-4091
eved	-4092
ique	-4093
irth	-4094
omen	-4095
over	-4096
vind	-4097
▁PCR	-4098
▁Pim	-4099
▁bar	-4100
▁mom	-4101
▁saw	-4102
▁won	-4103
adhya	-4104
covid	-4105
cular	-4106
oller	-4107
▁Bank	-4108
▁Jess	-4109
▁Resp	-4110
▁York	-4111
▁beta	-4112
▁bind	-4113
▁code	-4114
▁harm	-4115
▁poll	-4116
▁thus	-4117
▁tick	-4118
ctions	-4119
ederal	-4120
icians	-4121
▁Biden	-4122
▁Bihar	-4123
▁Nawab	-4124
▁Treat	-4125
▁Virar	-4126
▁below	-4127
▁birds	-4128
▁false	-4129
▁joint	-4130
▁shock	-4131
▁twice	-4132
▁units	-4133
▁usual	-4134
▁wrong	-4135
respond	-4136
▁Arvind	-4137
▁Econom	-4138
▁Madhya	-4139
▁Pimpri	-4140
▁UNESCO	-4141
▁claims	-4142
▁custom	-4143
▁either	-4144
▁ground	-4145
▁hotels	-4146
▁modern	-4147
▁remote	-4148
▁select	-4149
▁strugg	-4150
▁useful	-4151
district	-4152
ineering	-4153
▁Bhushan	-4154
▁Covacin	-4155
▁Jessica	-4156
▁Several	-4157
▁avoided	-4158
▁farmers	-4159
▁inquiry	-4160
▁leading	-4161
▁wedding	-4162
▁Everyone	-4163
▁attended	-4164
▁excluded	-4165
▁majority	-4166
▁products	-4167
▁supplies	-4168
▁continued	-4169
▁something	-4170
▁correspond	-4171
▁opposition	-4172
▁Accordingly	-4173
▁controversy	-4174
▁precautions	-4175
▁applications	-4176
▁establishments	-4177
-3	-4178
RD	-4179
de	-4180
▁i	-4181
100	-4182
Fig	-4183
Ind	-4184
ene	-4185
ert	-4186
eut	-4187
ina	-4188
int	-4189
ita	-4190
ole	-4191
put	-4192
▁Ac	-4193
▁Sy	-4194
alas	-4195
clus	-4196
gans	-4197
itya	-4198
leep	-4199
oted	-4200
raid	-4201
rane	-4202
time	-4203
umul	-4204
▁300	-4205
▁Sub	-4206
▁Use	-4207
▁aid	-4208
▁alp	-4209
▁bad	-4210
▁fif	-4211
▁lic	-4212
▁muc	-4213
▁pat	-4214
▁win	-4215
alled	-4216
anted	-4217
astic	-4218
board	-4219
chwad	-4220
enger	-4221
feren	-4222
uresh	-4223
▁Anil	-4224
▁Dhar	-4225
▁Gang	-4226
▁Sang	-4227
▁Stud	-4228
▁ever	-4229
▁fest	-4230
▁fine	-4231
▁kind	-4232
▁ones	-4233
▁ster	-4234
anging	-4235
ifying	-4236
remely	-4237
▁Chhat	-4238
▁Human	-4239
▁adapt	-4240
▁empty	-4241
akistan	-4242
ocktail	-4243
ression	-4244
▁50,000	-4245
▁Suresh	-4246
▁camels	-4247
▁nature	-4248
▁organs	-4249
▁plasma	-4250
▁starts	-4251
▁Kovacin	-4252
▁Sandeep	-4253
▁accused	-4254
▁becomes	-4255
▁causing	-4256
▁connect	-4257
▁dischar	-4258
▁forward	-4259
▁healthy	-4260
▁himself	-4261
▁inflamm	-4262
▁inhibit	-4263
▁instead	-4264
▁predict	-4265
▁sectors	-4266
▁spreads	-4267
▁trouble	-4268
ification	-4269
▁Election	-4270
▁although	-4271
▁deterior	-4272
▁obtained	-4273
▁position	-4274
▁schedule	-4275
▁sequence	-4276
▁ambulance	-4277
▁frontline	-4278
▁generated	-4279
▁preparing	-4280
▁presented	-4281
▁requiring	-4282
▁secretary	-4283
▁shortages	-4284
▁suppliers	-4285
▁vacancies	-4286
▁Additional	-4287
▁Management	-4288
▁instructed	-4289
▁maintained	-4290
▁transmitted	-4291
▁successfully	-4292
,3	-4293
CT	-4294
DP	-4295
SH	-4296
-20	-4297
ald	-4298
eme	-4299
ikh	-4300
irl	-4301
lig	-4302
ache	-4303
anti	-4304
aram	-4305
ares	-4306
athe	-4307
avan	-4308
erve	-4309
ocal	-4310
ooth	-4311
pass	-4312
▁400	-4313
▁Bec	-4314
▁Dem	-4315
▁His	-4316
▁Lok	-4317
▁Rep	-4318
▁abs	-4319
▁aud	-4320
▁deb	-4321
▁den	-4322
▁haz	-4323
▁tra	-4324
▁vit	-4325
agers	-4326
idwar	-4327
inash	-4328
ledge	-4329
onstr	-4330
▁Data	-4331
▁Fort	-4332
▁Lead	-4333
▁Raut	-4334
▁Shen	-4335
▁bicy	-4336
▁crem	-4337
▁cult	-4338
▁docu	-4339
▁else	-4340
▁heav	-4341
▁hope	-4342
▁sell	-4343
▁ship	-4344
▁uses	-4345
▁wait	-4346
▁worr	-4347
ovirus	-4348
rehens	-4349
▁2019,	-4350
▁Tamil	-4351
▁calls	-4352
▁germs	-4353
▁model	-4354
▁quick	-4355
ascular	-4356
certain	-4357
isation	-4358
▁Canada	-4359
▁Centre	-4360
▁afraid	-4361
▁battle	-4362
▁border	-4363
▁bronch	-4364
▁coward	-4365
▁double	-4366
▁father	-4367
▁impose	-4368
▁Another	-4369
▁Avinash	-4370
▁affects	-4371
▁message	-4372
▁quality	-4373
▁regions	-4374
▁regular	-4375
▁towards	-4376
trictions	-4377
▁Haridwar	-4378
▁Medicine	-4379
▁Punawala	-4380
▁Rajendra	-4381
▁anything	-4382
▁approach	-4383
▁avoiding	-4384
▁estimate	-4385
▁fatality	-4386
▁handling	-4387
▁hundreds	-4388
▁identity	-4389
▁overcome	-4390
▁policies	-4391
▁revealed	-4392
▁serology	-4393
▁studying	-4394
▁surgical	-4395
▁tomorrow	-4396
▁tracking	-4397
▁zoonotic	-4398
▁determine	-4399
▁producing	-4400
▁secondary	-4401
▁therapeut	-4402
▁collection	-4403
▁complaints	-4404
▁everywhere	-4405
▁facilitate	-4406
▁particular	-4407
▁relatively	-4408
▁alternative	-4409
▁chloroquine	-4410
▁journalists	-4411
▁investigated	-4412
,7	-4413
TI	-4414
Vir	-4415
aji	-4416
ami	-4417
elt	-4418
esc	-4419
hel	-4420
ibr	-4421
ids	-4422
ira	-4423
ney	-4424
ont	-4425
ows	-4426
▁AC	-4427
▁Gl	-4428
▁Zy	-4429
aves	-4430
iers	-4431
igad	-4432
mosp	-4433
▁1.5	-4434
▁Gad	-4435
▁Ger	-4436
▁Nep	-4437
▁Nit	-4438
▁Saw	-4439
▁bud	-4440
▁dra	-4441
▁lif	-4442
▁pet	-4443
▁son	-4444
▁top	-4445
▁und	-4446
Virar	-4447
amily	-4448
fered	-4449
ously	-4450
▁Bhag	-4451
▁City	-4452
▁Guid	-4453
▁Hary	-4454
▁acad	-4455
▁ceme	-4456
▁gets	-4457
▁girl	-4458
▁nine	-4459
▁turn	-4460
fortun	-4461
itness	-4462
ograph	-4463
▁2021.	-4464
▁Given	-4465
▁Spain	-4466
▁Zhang	-4467
▁accur	-4468
▁birth	-4469
▁extra	-4470
▁range	-4471
▁shows	-4472
▁speak	-4473
olation	-4474
stances	-4475
umerous	-4476
vardhan	-4477
▁German	-4478
▁Raigad	-4479
▁Scient	-4480
▁atmosp	-4481
▁compar	-4482
▁electr	-4483
▁formed	-4484
▁manner	-4485
▁rights	-4486
▁search	-4487
▁timely	-4488
ventions	-4489
▁Haryana	-4490
▁Special	-4491
▁applied	-4492
▁arrived	-4493
▁believe	-4494
▁ceremon	-4495
▁college	-4496
▁enforce	-4497
▁envelop	-4498
▁funeral	-4499
▁happens	-4500
▁improve	-4501
▁leaving	-4502
▁located	-4503
▁remains	-4504
▁removed	-4505
▁streets	-4506
▁updated	-4507
▁volunte	-4508
▁Pakistan	-4509
▁becoming	-4510
▁certific	-4511
▁concerns	-4512
▁cylinder	-4513
▁requires	-4514
▁tourists	-4515
▁Authority	-4516
▁affecting	-4517
▁cancelled	-4518
▁explained	-4519
▁factories	-4520
▁menstrual	-4521
▁passenger	-4522
▁remaining	-4523
▁reporting	-4524
▁solutions	-4525
▁Controller	-4526
▁atmosphere	-4527
▁discovered	-4528
▁gatherings	-4529
▁introduced	-4530
▁previously	-4531
▁recovering	-4532
▁agriculture	-4533
▁angiotensin	-4534
▁combination	-4535
▁Harshvardhan	-4536
▁Restrictions	-4537
▁construction	-4538
▁complications	-4539
▁pharmaceutical	-4540
.,	-4541
//	-4542
2-	-4543
90	-4544
CM	-4545
OC	-4546
ks	-4547
la	-4548
-2,	-4549
://	-4550
ACE	-4551
bal	-4552
ber	-4553
ema	-4554
gue	-4555
has	-4556
hyl	-4557
isl	-4558
oud	-4559
ras	-4560
rim	-4561
ton	-4562
▁34	-4563
▁5.	-4564
▁55	-4565
▁95	-4566
▁fo	-4567
▁ge	-4568
anka	-4569
edia	-4570
ergy	-4571
ibly	-4572
ixed	-4573
kill	-4574
ogle	-4575
onym	-4576
pper	-4577
risk	-4578
▁Aad	-4579
▁Ang	-4580
▁Hem	-4581
▁Kam	-4582
▁Lat	-4583
▁Mah	-4584
▁Nir	-4585
▁Sam	-4586
▁cov	-4587
▁fav	-4588
▁pil	-4589
▁suf	-4590
centr	-4591
ether	-4592
human	-4593
ients	-4594
istic	-4595
lines	-4596
oking	-4597
ondon	-4598
ounts	-4599
uated	-4600
▁Four	-4601
▁King	-4602
▁Prod	-4603
▁Shah	-4604
▁Shar	-4605
▁aged	-4606
▁aims	-4607
▁eval	-4608
▁rail	-4609
▁repe	-4610
▁trib	-4611
▁wife	-4612
atigue	-4613
mented	-4614
merase	-4615
monary	-4616
ycosis	-4617
▁Board	-4618
▁Local	-4619
▁Mayor	-4620
▁Those	-4621
▁Which	-4622
▁alarm	-4623
▁graph	-4624
▁image	-4625
▁learn	-4626
▁photo	-4627
▁recru	-4628
▁serve	-4629
▁sharp	-4630
▁storm	-4631
▁stren	-4632
▁trend	-4633
▁upper	-4634
▁whose	-4635
▁withd	-4636
havikas	-4637
▁London	-4638
▁budget	-4639
▁compon	-4640
▁conven	-4641
▁disord	-4642
▁filled	-4643
▁itself	-4644
▁minute	-4645
▁occurs	-4646
▁relief	-4647
▁tissue	-4648
▁Because	-4649
▁aerosol	-4650
▁alleged	-4651
▁arrange	-4652
▁biggest	-4653
▁brother	-4654
▁complex	-4655
▁federal	-4656
▁routine	-4657
▁seconds	-4658
▁staying	-4659
▁traffic	-4660
▁walking	-4661
▁younger	-4662
▁Services	-4663
▁allowing	-4664
▁commonly	-4665
▁concentr	-4666
▁conferen	-4667
▁contains	-4668
▁demonstr	-4669
▁exercise	-4670
▁postpone	-4671
▁proposal	-4672
▁reducing	-4673
▁Treatment	-4674
▁described	-4675
▁discovery	-4676
▁interview	-4677
▁knowledge	-4678
▁otherwise	-4679
▁pregnancy	-4680
▁prevalent	-4681
▁professor	-4682
▁screening	-4683
▁seriously	-4684
▁shortness	-4685
▁controlled	-4686
▁individual	-4687
▁industrial	-4688
▁positivity	-4689
▁circulating	-4690
▁hospitalization	-4691
2)	-4692
35	-4693
7,	-4694
OP	-4695
PI	-4696
ji	-4697
my	-4698
sc	-4699
EEA	-4700
RNA	-4701
emy	-4702
ief	-4703
ino	-4704
iri	-4705
tic	-4706
ude	-4707
xic	-4708
▁36	-4709
▁99	-4710
▁GP	-4711
aste	-4712
enty	-4713
prod	-4714
ptic	-4715
reed	-4716
room	-4717
tact	-4718
ttps	-4719
umps	-4720
ymph	-4721
yond	-4722
▁Any	-4723
▁Baj	-4724
▁Bio	-4725
▁Cha	-4726
▁Jav	-4727
▁Kap	-4728
▁NCP	-4729
▁Tel	-4730
▁ach	-4731
▁ple	-4732
▁rus	-4733
▁ste	-4734
ician	-4735
night	-4736
ulate	-4737
vales	-4738
venue	-4739
▁Face	-4740
▁Fore	-4741
▁Mult	-4742
▁Post	-4743
▁Prot	-4744
▁Well	-4745
▁Year	-4746
▁attr	-4747
▁clin	-4748
▁clot	-4749
▁didn	-4750
▁evac	-4751
▁extr	-4752
▁fort	-4753
▁idea	-4754
▁vary	-4755
▁vers	-4756
People	-4757
adekar	-4758
adhyay	-4759
entech	-4760
erving	-4761
vernor	-4762
▁5,000	-4763
▁Ashok	-4764
▁Canad	-4765
▁Covax	-4766
▁Shail	-4767
▁aware	-4768
▁banks	-4769
▁carry	-4770
▁coord	-4771
▁fully	-4772
▁goods	-4773
▁helps	-4774
▁indep	-4775
▁panic	-4776
▁satis	-4777
▁serum	-4778
▁signs	-4779
▁sites	-4780
▁sleep	-4781
▁soaps	-4782
▁spend	-4783
▁story	-4784
▁tools	-4785
species	-4786
▁Donald	-4787
▁Modern	-4788
▁Pandit	-4789
▁Pharma	-4790
▁Sawant	-4791
▁asking	-4792
▁chance	-4793
▁friend	-4794
▁labore	-4795
▁muscle	-4796
▁phases	-4797
▁remove	-4798
▁streng	-4799
aminated	-4800
▁America	-4801
▁Besides	-4802
▁Dharavi	-4803
▁Indians	-4804
▁Kingdom	-4805
▁Maratha	-4806
▁Service	-4807
▁answers	-4808
▁contrib	-4809
▁devices	-4810
▁discrim	-4811
▁filling	-4812
▁surgery	-4813
valescent	-4814
▁arriving	-4815
▁cocktail	-4816
▁creating	-4817
▁deployed	-4818
▁detailed	-4819
▁features	-4820
▁identify	-4821
▁occurred	-4822
▁original	-4823
▁probably	-4824
▁strategy	-4825
▁teaching	-4826
▁Mahavikas	-4827
▁buildings	-4828
▁depending	-4829
▁lockdowns	-4830
▁regulator	-4831
▁sometimes	-4832
▁yesterday	-4833
▁containing	-4834
▁polymerase	-4835
▁sufficient	-4836
▁vaccinating	-4837
▁convalescent	-4838
▁difficulties	-4839
.6	-4840
10	-4841
30	-4842
6,	-4843
84	-4844
An	-4845
On	-4846
co	-4847
vi	-4848
%),	-4849
CDC	-4850
aka	-4851
hir	-4852
ius	-4853
oga	-4854
oor	-4855
sec	-4856
udd	-4857
yan	-4858
▁42	-4859
▁44	-4860
▁IL	-4861
▁Ig	-4862
▁kg	-4863
▁ut	-4864
This	-4865
ahan	-4866
ambr	-4867
ches	-4868
gaon	-4869
hood	-4870
ivil	-4871
kins	-4872
ming	-4873
tion	-4874
▁120	-4875
▁150	-4876
▁19,	-4877
▁600	-4878
▁800	-4879
▁Agh	-4880
▁Did	-4881
▁Ext	-4882
▁Hop	-4883
▁Nov	-4884
▁Sun	-4885
▁Tai	-4886
▁War	-4887
▁bab	-4888
▁cal	-4889
▁cru	-4890
▁unn	-4891
India	-4892
aming	-4893
apers	-4894
arent	-4895
crete	-4896
gence	-4897
ibody	-4898
icrob	-4899
inite	-4900
irmed	-4901
omach	-4902
oting	-4903
otion	-4904
power	-4905
▁Bang	-4906
▁Half	-4907
▁Sach	-4908
▁fees	-4909
▁link	-4910
▁load	-4911
▁rule	-4912
▁site	-4913
▁whom	-4914
▁wind	-4915
ackers	-4916
active	-4917
bidity	-4918
iences	-4919
▁Awate	-4920
▁Cambr	-4921
▁Class	-4922
▁Group	-4923
▁Nepal	-4924
▁Under	-4925
▁Women	-4926
▁apply	-4927
▁begun	-4928
▁chair	-4929
▁filed	-4930
▁hyper	-4931
▁liver	-4932
▁noted	-4933
▁owner	-4934
▁risen	-4935
▁table	-4936
▁teams	-4937
erating	-4938
▁Agency	-4939
▁Aghadi	-4940
▁Family	-4941
▁Google	-4942
▁Leader	-4943
▁artery	-4944
▁begins	-4945
▁expect	-4946
▁limits	-4947
▁moment	-4948
▁nearly	-4949
▁placed	-4950
▁recomb	-4951
▁struct	-4952
▁summer	-4953
▁unlock	-4954
▁urgent	-4955
▁worked	-4956
atistics	-4957
cription	-4958
esperson	-4959
ifically	-4960
ologists	-4961
▁attempt	-4962
▁closely	-4963
▁constit	-4964
▁evening	-4965
▁experim	-4966
▁hypoxia	-4967
▁involve	-4968
▁license	-4969
▁lockout	-4970
▁subsequ	-4971
▁vehicle	-4972
▁worship	-4973
ovascular	-4974
▁Upadhyay	-4975
▁chemical	-4976
▁contrast	-4977
▁duration	-4978
▁electron	-4979
▁entering	-4980
▁frequent	-4981
▁referred	-4982
▁relevant	-4983
▁reliable	-4984
▁sampling	-4985
▁severely	-4986
▁unnecess	-4987
▁Chinchwad	-4988
▁demanding	-4989
▁extremely	-4990
▁increases	-4991
▁insurance	-4992
▁mechanism	-4993
▁monitored	-4994
▁operating	-4995
▁organized	-4996
▁protocols	-4997
▁providers	-4998
▁residents	-4999
▁scheduled	-5000
▁temporary	-5001
▁therefore	-5002
▁villagers	-5003
▁conducting	-5004
▁connection	-5005
▁frequently	-5006
▁preventive	-5007
▁recognized	-5008
▁corporation	-5009
▁interaction	-5010
▁restaurants	-5011
▁therapeutic	-5012
▁registration	-5013
▁recommendations	-5014
',	-5015
-4	-5016
-5	-5017
-7	-5018
62	-5019
AT	-5020
BA	-5021
NL	-5022
St	-5023
gu	-5024
kh	-5025
mi	-5026
abh	-5027
nat	-5028
ode	-5029
ply	-5030
ume	-5031
urb	-5032
▁38	-5033
▁59	-5034
▁98	-5035
▁Bl	-5036
▁mo	-5037
IIMS	-5038
alyz	-5039
conf	-5040
efic	-5041
ekar	-5042
illa	-5043
inde	-5044
ohan	-5045
oids	-5046
olar	-5047
orat	-5048
orts	-5049
pres	-5050
ynec	-5051
▁Big	-5052
▁Bor	-5053
▁Bro	-5054
▁Das	-5055
▁Nav	-5056
▁Rai	-5057
▁Sir	-5058
▁Sit	-5059
▁Yoj	-5060
▁ash	-5061
▁box	-5062
▁hur	-5063
▁ign	-5064
Covid	-5065
Table	-5066
amata	-5067
arity	-5068
lands	-5069
level	-5070
limin	-5071
okine	-5072
stead	-5073
▁2009	-5074
▁Here	-5075
▁Thus	-5076
▁Ward	-5077
▁Welf	-5078
▁alve	-5079
▁bath	-5080
▁burd	-5081
▁duty	-5082
▁exce	-5083
▁land	-5084
▁milk	-5085
▁prem	-5086
▁rush	-5087
▁shif	-5088
▁wake	-5089
arekar	-5090
asures	-5091
estern	-5092
hankar	-5093
harpur	-5094
istant	-5095
nataka	-5096
ulated	-5097
▁Akola	-5098
▁Among	-5099
▁Avoid	-5100
▁Chain	-5101
▁First	-5102
▁Found	-5103
▁Inter	-5104
▁Party	-5105
▁Princ	-5106
▁Shops	-5107
▁Store	-5108
▁Trans	-5109
▁agree	-5110
▁multi	-5111
▁spoke	-5112
▁tight	-5113
▁trade	-5114
essions	-5115
igation	-5116
liament	-5117
omiting	-5118
ulation	-5119
▁10,000	-5120
▁Christ	-5121
▁Demand	-5122
▁Global	-5123
▁Middle	-5124
▁Social	-5125
▁Thorat	-5126
▁Yojana	-5127
▁afford	-5128
▁agreed	-5129
▁always	-5130
▁backgr	-5131
▁beyond	-5132
▁circum	-5133
▁depend	-5134
▁elimin	-5135
▁factor	-5136
▁gloves	-5137
▁hazard	-5138
▁median	-5139
▁sought	-5140
▁source	-5141
▁tender	-5142
▁towels	-5143
atically	-5144
clinical	-5145
crackers	-5146
infected	-5147
▁Halfkin	-5148
▁Russian	-5149
▁Vardhan	-5150
▁Welfare	-5151
▁adapted	-5152
▁appears	-5153
▁benefic	-5154
▁capable	-5155
▁comfort	-5156
▁confirm	-5157
▁consequ	-5158
▁dropped	-5159
▁hotspot	-5160
▁pattern	-5161
▁prepare	-5162
▁reduces	-5163
▁selling	-5164
▁sources	-5165
itionally	-5166
▁Canadian	-5167
▁Facebook	-5168
▁academic	-5169
▁alveolar	-5170
▁cemetery	-5171
▁coroners	-5172
▁internet	-5173
▁laborers	-5174
▁membrane	-5175
▁movement	-5176
▁petition	-5177
▁produces	-5178
▁regional	-5179
▁repeated	-5180
▁reserved	-5181
▁resulted	-5182
▁reviewed	-5183
▁standing	-5184
▁transmit	-5185
▁unfortun	-5186
ailability	-5187
▁Cambridge	-5188
▁Following	-5189
▁Hospitals	-5190
▁Javadekar	-5191
▁Karnataka	-5192
▁customers	-5193
▁documents	-5194
▁pangolins	-5195
▁platforms	-5196
▁promising	-5197
▁regularly	-5198
AstraZeneca	-5199
▁Ahmednagar	-5200
▁Foundation	-5201
▁Pandharpur	-5202
▁components	-5203
▁coronation	-5204
▁discharged	-5205
▁medications	-5206
▁interspecies	-5207
▁interventions	-5208
▁microorganisms	-5209
32	-5210
40	-5211
Co	-5212
GI	-5213
My	-5214
No	-5215
RA	-5216
ST	-5217
by	-5218
ka	-5219
su	-5220
uj	-5221
Dec	-5222
arh	-5223
cop	-5224
eed	-5225
hra	-5226
oly	-5227
oul	-5228
rak	-5229
rew	-5230
str	-5231
uda	-5232
▁(5	-5233
▁4)	-5234
▁57	-5235
acet	-5236
ahar	-5237
avax	-5238
axim	-5239
geal	-5240
head	-5241
iced	-5242
ovir	-5243
purp	-5244
rael	-5245
resh	-5246
uest	-5247
zhen	-5248
▁Aff	-5249
▁Est	-5250
▁Goa	-5251
▁God	-5252
▁IMA	-5253
▁Imm	-5254
▁Kak	-5255
▁Kov	-5256
▁Per	-5257
▁Ted	-5258
▁Tur	-5259
▁Wik	-5260
▁ail	-5261
▁anx	-5262
▁fru	-5263
▁har	-5264
▁hav	-5265
▁mit	-5266
borne	-5267
ching	-5268
cript	-5269
ented	-5270
haryn	-5271
retar	-5272
riers	-5273
▁Cels	-5274
▁Form	-5275
▁Head	-5276
▁Jour	-5277
▁Mand	-5278
▁baby	-5279
▁bott	-5280
▁dire	-5281
▁feed	-5282
▁felt	-5283
▁hous	-5284
▁labs	-5285
▁libr	-5286
▁rely	-5287
▁scan	-5288
▁suit	-5289
▁town	-5290
▁upon	-5291
▁wipe	-5292
akhand	-5293
allies	-5294
fforts	-5295
ilarly	-5296
imedia	-5297
obally	-5298
olling	-5299
shield	-5300
▁AIIMS	-5301
▁North	-5302
▁Order	-5303
▁abdom	-5304
▁agent	-5305
▁cumul	-5306
▁cycle	-5307
▁drink	-5308
▁gynec	-5309
▁happy	-5310
▁lymph	-5311
▁maxim	-5312
▁meals	-5313
▁minds	-5314
▁stick	-5315
▁swing	-5316
▁users	-5317
▁words	-5318
▁wrote	-5319
opharyn	-5320
verting	-5321
▁Aditya	-5322
▁Chavan	-5323
▁Hemant	-5324
▁Second	-5325
▁Tedros	-5326
▁arrive	-5327
▁behavi	-5328
▁cruise	-5329
▁inside	-5330
▁parcel	-5331
▁plants	-5332
▁really	-5333
▁repurp	-5334
▁shield	-5335
▁winter	-5336
▁workpl	-5337
acterial	-5338
rastruct	-5339
tainment	-5340
▁Affairs	-5341
▁Celsius	-5342
▁Company	-5343
▁Contact	-5344
▁Darekar	-5345
▁Foreign	-5346
▁Hopkins	-5347
▁Journal	-5348
▁Washing	-5349
▁breathe	-5350
▁cluster	-5351
▁consist	-5352
▁crossed	-5353
▁dismiss	-5354
▁fatigue	-5355
▁feeling	-5356
▁friends	-5357
▁funding	-5358
▁install	-5359
▁looking	-5360
▁mutated	-5361
▁nothing	-5362
▁operate	-5363
▁purpose	-5364
▁reverse	-5365
▁suspect	-5366
▁traders	-5367
▁travell	-5368
▁warning	-5369
▁writing	-5370
confirmed	-5371
rehensive	-5372
▁Clinical	-5373
▁Disaster	-5374
▁Students	-5375
▁anywhere	-5376
▁concrete	-5377
▁contacts	-5378
▁covering	-5379
▁criteria	-5380
▁download	-5381
▁numerous	-5382
▁proposed	-5383
▁purchase	-5384
▁remained	-5385
▁targeted	-5386
quarantine	-5387
▁extensive	-5388
▁groceries	-5389
▁resulting	-5390
▁vegetable	-5391
opharyngeal	-5392
▁collecting	-5393
▁cumulative	-5394
▁generation	-5395
▁regulatory	-5396
▁Uttarakhand	-5397
▁respirators	-5398
▁contaminated	-5399
▁preparations	-5400
▁circumstances	-5401
▁comprehensive	-5402
▁pediatricians	-5403
▁cardiovascular	-5404
);	-5405
HS	-5406
NS	-5407
oy	-5408
ta	-5409
HKU	-5410
IRO	-5411
ilt	-5412
urg	-5413
▁(4	-5414
▁(7	-5415
▁85	-5416
▁86	-5417
▁Ja	-5418
▁km	-5419
adic	-5420
aheb	-5421
ania	-5422
arks	-5423
ayat	-5424
igil	-5425
itor	-5426
ivek	-5427
ving	-5428
▁10,	-5429
▁19.	-5430
▁24,	-5431
▁30.	-5432
▁Cad	-5433
▁Chh	-5434
▁Hot	-5435
▁Sud	-5436
▁boy	-5437
▁cin	-5438
▁emb	-5439
▁eru	-5440
▁fer	-5441
▁flo	-5442
▁inh	-5443
▁lat	-5444
▁ren	-5445
▁thr	-5446
adeep	-5447
ained	-5448
akash	-5449
arter	-5450
ength	-5451
iency	-5452
ishad	-5453
otide	-5454
uting	-5455
▁Arab	-5456
▁Asia	-5457
▁CIRO	-5458
▁Deep	-5459
▁Kadu	-5460
▁Less	-5461
▁Nadu	-5462
▁Nath	-5463
▁Phys	-5464
▁Soci	-5465
▁Supp	-5466
▁adop	-5467
▁book	-5468
▁cive	-5469
▁cure	-5470
▁fell	-5471
▁mRNA	-5472
▁meal	-5473
▁ment	-5474
▁mist	-5475
▁note	-5476
▁ways	-5477
advant	-5478
entral	-5479
iation	-5480
ocytes	-5481
▁Along	-5482
▁Polit	-5483
▁Pract	-5484
▁Surat	-5485
▁Three	-5486
▁Vivek	-5487
▁Young	-5488
▁aches	-5489
▁amino	-5490
▁arise	-5491
▁fewer	-5492
▁moved	-5493
▁nasal	-5494
▁newsp	-5495
▁spent	-5496
▁swabs	-5497
▁worth	-5498
cluding	-5499
clusive	-5500
gestion	-5501
itially	-5502
ologies	-5503
ousands	-5504
romised	-5505
ymptoms	-5506
▁Akhada	-5507
▁Around	-5508
▁Former	-5509
▁Fortis	-5510
▁Israel	-5511
▁Policy	-5512
▁Sharad	-5513
▁Shinde	-5514
▁Survey	-5515
▁burden	-5516
▁cooper	-5517
▁doubts	-5518
▁emphas	-5519
▁extend	-5520
▁injury	-5521
▁liquor	-5522
▁mainly	-5523
▁prefer	-5524
▁reject	-5525
▁signed	-5526
▁thinks	-5527
retariat	-5528
tificial	-5529
▁Efforts	-5530
▁Finally	-5531
▁Hypoxia	-5532
▁Pradeep	-5533
▁Prakash	-5534
▁Private	-5535
▁Science	-5536
▁Society	-5537
▁Talking	-5538
▁appoint	-5539
▁calling	-5540
▁counter	-5541
▁details	-5542
▁entered	-5543
▁holiday	-5544
▁migrant	-5545
▁rallies	-5546
▁reading	-5547
▁records	-5548
▁sharing	-5549
▁stomach	-5550
▁updates	-5551
▁variety	-5552
▁withdra	-5553
ivisional	-5554
ormycosis	-5555
▁Moreover	-5556
▁Parishad	-5557
▁actually	-5558
▁alarming	-5559
▁collabor	-5560
▁contract	-5561
▁cowardly	-5562
▁cultural	-5563
▁geograph	-5564
▁headache	-5565
▁homology	-5566
▁mainland	-5567
▁manpower	-5568
▁removing	-5569
▁shopping	-5570
▁suggests	-5571
▁vomiting	-5572
generating	-5573
▁Infection	-5574
▁addressed	-5575
▁agitation	-5576
▁covshield	-5577
▁dependent	-5578
▁disadvant	-5579
▁evolution	-5580
▁prioritiz	-5581
▁purchased	-5582
▁receiving	-5583
▁specimens	-5584
rastructure	-5585
▁Infectious	-5586
▁background	-5587
▁congestion	-5588
▁industries	-5589
▁medication	-5590
▁operations	-5591
▁precaution	-5592
▁proportion	-5593
▁volunteers	-5594
▁challenging	-5595
▁engineering	-5596
▁experienced	-5597
▁opportunity	-5598
▁performance	-5599
▁reservation	-5600
▁unfortunate	-5601
▁Surveillance	-5602
▁geographical	-5603
▁implications	-5604
▁specifically	-5605
▁spokesperson	-5606
▁temperatures	-5607
▁administrative	-5608
▁discrimination	-5609
%,	-5610
37	-5611
5,	-5612
69	-5613
87	-5614
94	-5615
Af	-5616
Tr	-5617
200	-5618
App	-5619
RDS	-5620
RTI	-5621
SHA	-5622
aca	-5623
chu	-5624
enm	-5625
eth	-5626
ika	-5627
imp	-5628
ips	-5629
jab	-5630
wat	-5631
zer	-5632
▁1)	-5633
▁7.	-5634
▁75	-5635
▁8,	-5636
▁96	-5637
▁Ef	-5638
▁MH	-5639
▁dw	-5640
▁fa	-5641
Even	-5642
Many	-5643
ades	-5644
ails	-5645
avat	-5646
cial	-5647
cles	-5648
fere	-5649
geon	-5650
iety	-5651
iger	-5652
kari	-5653
more	-5654
opin	-5655
opsy	-5656
thal	-5657
thma	-5658
trol	-5659
urse	-5660
▁11,	-5661
▁15.	-5662
▁250	-5663
▁Ank	-5664
▁Bal	-5665
▁Che	-5666
▁III	-5667
▁Mus	-5668
▁PTI	-5669
▁Vis	-5670
▁adj	-5671
▁dyn	-5672
▁esc	-5673
▁fec	-5674
▁kil	-5675
▁rev	-5676
▁rul	-5677
After	-5678
Happy	-5679
asure	-5680
itary	-5681
oster	-5682
round	-5683
scale	-5684
tiary	-5685
trans	-5686
▁1201	-5687
▁Beds	-5688
▁Beed	-5689
▁Datt	-5690
▁Denm	-5691
▁Just	-5692
▁Khan	-5693
▁Kish	-5694
▁MPSC	-5695
▁Naik	-5696
▁Pras	-5697
▁Tupe	-5698
▁dies	-5699
▁diss	-5700
▁elev	-5701
▁flow	-5702
▁game	-5703
▁herd	-5704
▁norm	-5705
▁repl	-5706
▁sale	-5707
▁seat	-5708
▁size	-5709
▁text	-5710
▁warm	-5711
ailand	-5712
anjali	-5713
ensity	-5714
hether	-5715
itment	-5716
ogenic	-5717
rakant	-5718
second	-5719
▁2,000	-5720
▁2019.	-5721
▁Aslam	-5722
▁Based	-5723
▁Kamal	-5724
▁Rules	-5725
▁Super	-5726
▁Times	-5727
▁Yavat	-5728
▁advis	-5729
▁alpha	-5730
▁built	-5731
▁fears	-5732
▁fixed	-5733
▁forms	-5734
▁girls	-5735
▁heard	-5736
▁lopin	-5737
▁needy	-5738
▁posts	-5739
▁risks	-5740
▁rooms	-5741
▁ruled	-5742
▁saved	-5743
▁sense	-5744
▁theat	-5745
▁vigil	-5746
imicrob	-5747
knowled	-5748
mercial	-5749
ossible	-5750
ressing	-5751
▁Americ	-5752
▁Doctor	-5753
▁Market	-5754
▁Punjab	-5755
▁Ramesh	-5756
▁Sheikh	-5757
▁Taiwan	-5758
▁caring	-5759
▁domain	-5760
▁easily	-5761
▁handed	-5762
▁looked	-5763
▁prompt	-5764
▁ruling	-5765
▁sealed	-5766
▁ticket	-5767
▁traced	-5768
▁turned	-5769
▁Alcohol	-5770
▁Denmark	-5771
▁Express	-5772
▁Maharaj	-5773
▁Network	-5774
▁Novavax	-5775
▁Privacy	-5776
▁adminis	-5777
▁checked	-5778
▁delayed	-5779
▁follows	-5780
▁maximum	-5781
▁mission	-5782
▁putting	-5783
▁quickly	-5784
▁railway	-5785
upational	-5786
▁Symptoms	-5787
▁Thailand	-5788
▁Yavatmal	-5789
▁ailments	-5790
▁assembly	-5791
▁believed	-5792
▁constitu	-5793
▁disposal	-5794
▁electric	-5795
▁employee	-5796
▁globally	-5797
▁limiting	-5798
▁pangolin	-5799
▁prescrib	-5800
▁protease	-5801
▁sections	-5802
▁Bioentech	-5803
▁Thousands	-5804
▁activists	-5805
▁bacterial	-5806
▁childcare	-5807
▁disorders	-5808
▁efficient	-5809
▁happening	-5810
▁inspected	-5811
▁lopinavir	-5812
▁marketing	-5813
▁morbidity	-5814
▁particles	-5815
▁pulmonary	-5816
▁responses	-5817
▁sensitive	-5818
▁submitted	-5819
information	-5820
▁Guidelines	-5821
▁Scientists	-5822
▁Statistics	-5823
▁Washington	-5824
▁bronchitis	-5825
▁consistent	-5826
▁disruption	-5827
▁incubation	-5828
▁questioned	-5829
▁limitations	-5830
▁maintaining	-5831
▁traditional	-5832
▁virological	-5833
▁Additionally	-5834
▁commissioner	-5835
▁correspondent	-5836
▁nasopharyngeal	-5837
11	-5838
13	-5839
22	-5840
3.	-5841
36	-5842
68	-5843
EM	-5844
ME	-5845
NT	-5846
ss	-5847
yp	-5848
anm	-5849
ape	-5850
aro	-5851
aug	-5852
ava	-5853
dus	-5854
eal	-5855
hoe	-5856
jee	-5857
▁3,	-5858
▁32	-5859
▁39	-5860
▁54	-5861
▁9,	-5862
▁97	-5863
▁Bu	-5864
▁CM	-5865
▁Eb	-5866
▁ID	-5867
▁Lo	-5868
▁Os	-5869
▁ap	-5870
▁ey	-5871
-19)	-5872
When	-5873
adar	-5874
chir	-5875
hoea	-5876
ilip	-5877
iliz	-5878
imal	-5879
irao	-5880
noon	-5881
roke	-5882
soon	-5883
teen	-5884
ught	-5885
vert	-5886
vest	-5887
▁15,	-5888
▁28,	-5889
▁31.	-5890
▁90%	-5891
▁Ach	-5892
▁Ban	-5893
▁Bet	-5894
▁Blu	-5895
▁CEO	-5896
▁Int	-5897
▁Red	-5898
▁See	-5899
▁ask	-5900
▁enh	-5901
▁lin	-5902
▁pal	-5903
▁tim	-5904
▁unw	-5905
Every	-5906
activ	-5907
arked	-5908
arwal	-5909
aying	-5910
chers	-5911
ences	-5912
enter	-5913
inese	-5914
inion	-5915
light	-5916
orbid	-5917
sense	-5918
tries	-5919
wards	-5920
▁Answ	-5921
▁Bhal	-5922
▁Cris	-5923
▁Fire	-5924
▁Gold	-5925
▁Gore	-5926
▁Lack	-5927
▁Mask	-5928
▁Nand	-5929
▁Read	-5930
▁Samp	-5931
▁club	-5932
▁dash	-5933
▁easy	-5934
▁join	-5935
▁meat	-5936
▁noon	-5937
▁nutr	-5938
▁pace	-5939
▁pill	-5940
▁pool	-5941
▁radi	-5942
▁runs	-5943
▁soil	-5944
▁thor	-5945
alyzed	-5946
onavir	-5947
preced	-5948
▁Apple	-5949
▁Asked	-5950
▁Death	-5951
▁Diagn	-5952
▁Ebola	-5953
▁Incre	-5954
▁Labor	-5955
▁Level	-5956
▁Nitin	-5957
▁Osman	-5958
▁Salun	-5959
▁Solid	-5960
▁Their	-5961
▁Zydus	-5962
▁accel	-5963
▁ahead	-5964
▁basic	-5965
▁block	-5966
▁broke	-5967
▁cards	-5968
▁count	-5969
▁dying	-5970
▁faces	-5971
▁fifth	-5972
▁fresh	-5973
▁grand	-5974
▁https	-5975
▁lying	-5976
▁names	-5977
▁plane	-5978
▁river	-5979
▁roads	-5980
▁stuck	-5981
Chinese	-5982
January	-5983
chiroli	-5984
inating	-5985
loyment	-5986
ressive	-5987
▁Brooke	-5988
▁Kishor	-5989
▁Nanded	-5990
▁Nether	-5991
▁Sachin	-5992
▁Sangli	-5993
▁Wardha	-5994
▁accomp	-5995
▁annual	-5996
▁appeal	-5997
▁arises	-5998
▁asthma	-5999
▁charge	-6000
▁figure	-6001
▁forget	-6002
▁helped	-6003
▁income	-6004
▁latest	-6005
▁linked	-6006
▁lowest	-6007
▁moving	-6008
▁opened	-6009
▁remind	-6010
▁reprod	-6011
▁retail	-6012
▁satisf	-6013
▁simply	-6014
▁wanted	-6015
hananjay	-6016
specific	-6017
ssential	-6018
▁Agarwal	-6019
▁Bajirao	-6020
▁Bhagwat	-6021
▁Cabinet	-6022
▁Testing	-6023
▁Western	-6024
▁airport	-6025
▁anticip	-6026
▁arrival	-6027
▁binding	-6028
▁borders	-6029
▁concept	-6030
▁donated	-6031
▁enhance	-6032
▁grocery	-6033
▁journey	-6034
▁lessons	-6035
▁meaning	-6036
▁observe	-6037
▁package	-6038
▁reflect	-6039
▁science	-6040
▁section	-6041
▁serving	-6042
▁thanked	-6043
▁trained	-6044
▁weekend	-6045
uarantine	-6046
▁Sciences	-6047
▁Shenzhen	-6048
▁accident	-6049
▁activist	-6050
▁antibiot	-6051
▁bringing	-6052
▁develops	-6053
▁disaster	-6054
▁enforced	-6055
▁entirely	-6056
▁envelope	-6057
▁generate	-6058
▁partners	-6059
▁province	-6060
▁rejected	-6061
▁resident	-6062
▁selected	-6063
▁spending	-6064
▁strictly	-6065
▁substant	-6066
▁thorough	-6067
▁transfer	-6068
▁weakened	-6069
▁Ministers	-6070
▁Osmanabad	-6071
▁Patanjali	-6072
▁afternoon	-6073
▁character	-6074
▁compounds	-6075
▁dashboard	-6076
▁detection	-6077
▁exception	-6078
▁fortnight	-6079
▁locations	-6080
▁pathogens	-6081
▁reactions	-6082
▁relations	-6083
▁transmiss	-6084
▁uncertain	-6085
▁violating	-6086
precedented	-6087
▁Gadchiroli	-6088
▁Parliament	-6089
▁Remdesivir	-6090
▁ambulances	-6091
▁decreasing	-6092
▁nationally	-6093
▁nucleotide	-6094
▁persistent	-6095
▁remdesivir	-6096
▁Chandrakant	-6097
▁Netherlands	-6098
▁Researchers	-6099
▁controlling	-6100
▁interacting	-6101
▁cancellation	-6102
▁conferencing	-6103
▁disinfectant	-6104
▁manufacturer	-6105
▁collaboration	-6106
▁professionals	-6107
▁recombination	-6108
▁Pharmaceutical	-6109
▁representatives	-6110
1,	-6111
44	-6112
80	-6113
88	-6114
?"	-6115
gg	-6116
iy	-6117
vt	-6118
yl	-6119
CGI	-6120
ICE	-6121
agg	-6122
aki	-6123
atn	-6124
dep	-6125
ext	-6126
ges	-6127
hin	-6128
ini	-6129
isg	-6130
iti	-6131
lad	-6132
oms	-6133
osh	-6134
rub	-6135
ses	-6136
sid	-6137
udi	-6138
▁72	-6139
▁92	-6140
▁94	-6141
▁TV	-6142
.8%)	-6143
acqu	-6144
ager	-6145
alle	-6146
amol	-6147
anks	-6148
atio	-6149
back	-6150
eded	-6151
gone	-6152
ipal	-6153
made	-6154
olic	-6155
omic	-6156
open	-6157
oral	-6158
oter	-6159
tisg	-6160
umab	-6161
umed	-6162
▁1.7	-6163
▁10.	-6164
▁144	-6165
▁20.	-6166
▁30,	-6167
▁Adv	-6168
▁Def	-6169
▁ILI	-6170
▁Jai	-6171
▁Jal	-6172
▁Kal	-6173
▁Kan	-6174
▁Muk	-6175
▁Nax	-6176
▁Ped	-6177
▁Pvt	-6178
▁Sup	-6179
▁Ter	-6180
▁bre	-6181
▁cop	-6182
▁div	-6183
▁eat	-6184
▁enr	-6185
▁exc	-6186
▁gre	-6187
▁kid	-6188
▁lay	-6189
▁log	-6190
▁nod	-6191
▁rib	-6192
▁rob	-6193
▁sad	-6194
▁suc	-6195
▁sun	-6196
▁syn	-6197
▁wel	-6198
alkar	-6199
anced	-6200
ancet	-6201
andey	-6202
enous	-6203
force	-6204
hanom	-6205
ilesh	-6206
imary	-6207
nekar	-6208
otein	-6209
ujbal	-6210
ulkar	-6211
under	-6212
usted	-6213
▁Bach	-6214
▁DCGI	-6215
▁Gupt	-6216
▁Keep	-6217
▁Like	-6218
▁Plan	-6219
▁Prof	-6220
▁army	-6221
▁depr	-6222
▁dest	-6223
▁diet	-6224
▁fish	-6225
▁fram	-6226
▁germ	-6227
▁inef	-6228
▁loan	-6229
▁port	-6230
▁rubs	-6231
▁shed	-6232
▁situ	-6233
▁slum	-6234
▁terr	-6235
▁ther	-6236
▁weap	-6237
▁wild	-6238
▁yoga	-6239
ellers	-6240
enovir	-6241
erally	-6242
hedkar	-6243
rences	-6244
▁1,000	-6245
▁3,000	-6246
▁Bhand	-6247
▁Fever	-6248
▁Immun	-6249
▁Kunte	-6250
▁Latur	-6251
▁Rajiv	-6252
▁Regis	-6253
▁Relig	-6254
▁Short	-6255
▁Using	-6256
▁Zilla	-6257
▁alert	-6258
▁apart	-6259
▁audit	-6260
▁autom	-6261
▁boost	-6262
▁buses	-6263
▁categ	-6264
▁chart	-6265
▁dryer	-6266
▁dynam	-6267
▁enemy	-6268
▁fatal	-6269
▁floor	-6270
▁inaug	-6271
▁loved	-6272
▁meant	-6273
▁rains	-6274
▁ranks	-6275
▁ratio	-6276
▁shift	-6277
▁skill	-6278
▁smell	-6279
▁swine	-6280
▁tired	-6281
▁towel	-6282
▁truck	-6283
▁union	-6284
▁valid	-6285
▁wants	-6286
estinal	-6287
ilities	-6288
ography	-6289
porting	-6290
taining	-6291
tension	-6292
tisgarh	-6293
uestion	-6294
▁Golden	-6295
▁Jayant	-6296
▁Lancet	-6297
▁Niranj	-6298
▁Pandey	-6299
▁Prasad	-6300
▁Safety	-6301
▁Severe	-6302
▁agents	-6303
▁anonym	-6304
▁antise	-6305
▁blamed	-6306
▁compet	-6307
▁conver	-6308
▁counts	-6309
▁crores	-6310
▁disple	-6311
▁eradic	-6312
▁finger	-6313
▁fluids	-6314
▁lifted	-6315
▁makeup	-6316
▁paying	-6317
▁prices	-6318
▁prohib	-6319
▁screen	-6320
▁slight	-6321
▁slowed	-6322
▁sneeze	-6323
▁speech	-6324
▁stabil	-6325
▁suffer	-6326
▁unless	-6327
▁unlike	-6328
▁varies	-6329
December	-6330
acetamol	-6331
acquired	-6332
adequate	-6333
ficiency	-6334
▁2019-20	-6335
▁Adhanom	-6336
▁Bachchu	-6337
▁Bhujbal	-6338
▁Finance	-6339
▁Further	-6340
▁Industr	-6341
▁Instead	-6342
▁Shivaji	-6343
▁Through	-6344
▁actions	-6345
▁anxiety	-6346
▁autopsy	-6347
▁collaps	-6348
▁depends	-6349
▁finding	-6350
▁heavily	-6351
▁helping	-6352
▁interru	-6353
▁killing	-6354
▁machine	-6355
▁managed	-6356
▁origins	-6357
▁pointed	-6358
▁quarter	-6359
▁revenue	-6360
▁talukas	-6361
▁tourism	-6362
▁witness	-6363
infection	-6364
▁Economic	-6365
▁Measures	-6366
▁accepted	-6367
▁airborne	-6368
▁carrying	-6369
▁ceremony	-6370
▁convened	-6371
▁cytokine	-6372
▁dwellers	-6373
▁improved	-6374
▁indicate	-6375
▁messages	-6376
▁offering	-6377
▁remember	-6378
▁suddenly	-6379
▁thinking	-6380
▁visiting	-6381
▁washroom	-6382
converting	-6383
imicrobial	-6384
preserving	-6385
▁Dhananjay	-6386
▁abdominal	-6387
▁agreement	-6388
▁carefully	-6389
▁collector	-6390
▁criticism	-6391
▁emergence	-6392
▁functions	-6393
▁gathering	-6394
▁indicated	-6395
▁libraries	-6396
▁predicted	-6397
▁requested	-6398
▁technique	-6399
▁undergone	-6400
▁artificial	-6401
▁beneficial	-6402
▁determined	-6403
▁employment	-6404
▁encouraged	-6405
▁interacted	-6406
▁originally	-6407
▁quantities	-6408
▁situations	-6409
▁struggling	-6410
▁Secretariat	-6411
▁differences	-6412
▁independent	-6413
▁operational	-6414
▁recognition	-6415
▁replication	-6416
▁serological	-6417
▁suggestions	-6418
▁unnecessary	-6419
▁Californians	-6420
▁Chhattisgarh	-6421
▁administered	-6422
▁constituency	-6423
▁consultation	-6424
▁demonstrated	-6425
▁firecrackers	-6426
▁hypertension	-6427
▁inflammatory	-6428
▁mucormycosis	-6429
▁preparedness	-6430
▁requirements	-6431
▁respectively	-6432
▁Coronaviruses	-6433
▁antibacterial	-6434
▁deteriorating	-6435
▁investigating	-6436
▁transcription	-6437
▁communications	-6438
-6	-6439
.0	-6440
14	-6441
26	-6442
AS	-6443
IT	-6444
TC	-6445
pm	-6446
wa	-6447
-2-	-6448
-21	-6449
500	-6450
For	-6451
You	-6452
era	-6453
ger	-6454
het	-6455
kan	-6456
oja	-6457
rep	-6458
sun	-6459
tak	-6460
ued	-6461
yas	-6462
▁2)	-6463
▁3)	-6464
▁43	-6465
▁53	-6466
▁61	-6467
▁64	-6468
▁66	-6469
▁7,	-6470
▁73	-6471
▁77	-6472
▁78	-6473
▁79	-6474
▁93	-6475
▁Dh	-6476
▁HR	-6477
▁RB	-6478
▁da	-6479
ARDS	-6480
MERS	-6481
Some	-6482
agan	-6483
atri	-6484
ball	-6485
bber	-6486
body	-6487
cast	-6488
emas	-6489
emed	-6490
etah	-6491
idav	-6492
olit	-6493
phan	-6494
quad	-6495
ream	-6496
rier	-6497
shaw	-6498
uing	-6499
uter	-6500
wada	-6501
▁0.5	-6502
▁1,0	-6503
▁14.	-6504
▁31,	-6505
▁50%	-6506
▁7,1	-6507
▁Bah	-6508
▁HIV	-6509
▁KEM	-6510
▁Kon	-6511
▁Lab	-6512
▁Mac	-6513
▁Pan	-6514
▁Run	-6515
▁Sah	-6516
▁Vad	-6517
▁anc	-6518
▁bio	-6519
▁ble	-6520
▁cry	-6521
▁dim	-6522
▁fem	-6523
▁hin	-6524
▁hon	-6525
▁hop	-6526
▁hyp	-6527
▁mal	-6528
▁rac	-6529
▁row	-6530
▁sex	-6531
▁ske	-6532
▁ves	-6533
-19).	-6534
aired	-6535
alaya	-6536
allel	-6537
andom	-6538
anish	-6539
anmay	-6540
arest	-6541
flamm	-6542
iated	-6543
idays	-6544
idden	-6545
imate	-6546
itude	-6547
izers	-6548
logen	-6549
ommod	-6550
umber	-6551
utral	-6552
▁Bird	-6553
▁CEPI	-6554
▁Crit	-6555
▁Fear	-6556
▁MHRA	-6557
▁Mung	-6558
▁Sidd	-6559
▁Wear	-6560
▁adds	-6561
▁capt	-6562
▁cred	-6563
▁foot	-6564
▁gard	-6565
▁goal	-6566
▁hung	-6567
▁insu	-6568
▁mamm	-6569
▁puts	-6570
▁taxi	-6571
▁touc	-6572
▁user	-6573
aduate	-6574
angana	-6575
atitis	-6576
edical	-6577
etooth	-6578
icated	-6579
igence	-6580
ission	-6581
liance	-6582
normal	-6583
▁Blood	-6584
▁Drugs	-6585
▁Lanka	-6586
▁Panch	-6587
▁Right	-6588
▁Saudi	-6589
▁Siram	-6590
▁Sunil	-6591
▁actor	-6592
▁bench	-6593
▁bound	-6594
▁broad	-6595
▁chlor	-6596
▁dates	-6597
▁diver	-6598
▁drawn	-6599
▁earli	-6600
▁faced	-6601
▁feels	-6602
▁freed	-6603
▁funds	-6604
▁gathe	-6605
▁jumbo	-6606
▁malls	-6607
▁molec	-6608
▁pilot	-6609
▁progn	-6610
▁round	-6611
▁route	-6612
▁sales	-6613
▁smoke	-6614
▁steel	-6615
▁succe	-6616
▁surpr	-6617
▁toxic	-6618
▁uncle	-6619
▁value	-6620
▁watch	-6621
▁white	-6622
▁worst	-6623
concept	-6624
ickshaw	-6625
ositive	-6626
through	-6627
▁Arabia	-6628
▁Bhalke	-6629
▁Hebber	-6630
▁Jaipur	-6631
▁Konkan	-6632
▁actual	-6633
▁adjust	-6634
▁agency	-6635
▁crying	-6636
▁delays	-6637
▁device	-6638
▁easier	-6639
▁enable	-6640
▁enters	-6641
▁female	-6642
▁fruits	-6643
▁harass	-6644
▁length	-6645
▁medium	-6646
▁neglig	-6647
▁photos	-6648
▁please	-6649
▁points	-6650
▁random	-6651
▁salary	-6652
▁scared	-6653
▁secret	-6654
▁smooth	-6655
▁sports	-6656
▁twenty	-6657
▁visits	-6658
▁window	-6659
utations	-6660
▁African	-6661
▁Coronil	-6662
▁Lucknow	-6663
▁Similar	-6664
▁Sitaram	-6665
▁Supreme	-6666
▁affidav	-6667
▁bicycle	-6668
▁cardiac	-6669
▁century	-6670
▁comment	-6671
▁compare	-6672
▁context	-6673
▁correct	-6674
▁dispute	-6675
▁emerged	-6676
▁factory	-6677
▁finally	-6678
▁formula	-6679
▁infects	-6680
▁jointly	-6681
▁largely	-6682
▁mammals	-6683
▁offered	-6684
▁protest	-6685
▁suscept	-6686
▁tribals	-6687
▁undergo	-6688
▁vitamin	-6689
intendent	-6690
isolation	-6691
secondary	-6692
▁Assembly	-6693
▁Governor	-6694
▁Munganti	-6695
▁Pednekar	-6696
▁accurate	-6697
▁acquired	-6698
▁appeared	-6699
▁behavior	-6700
▁bicycles	-6701
▁combined	-6702
▁earliest	-6703
▁elevated	-6704
▁entities	-6705
▁gathered	-6706
▁impacted	-6707
▁instance	-6708
▁involves	-6709
▁managing	-6710
▁ordinary	-6711
▁parallel	-6712
▁premises	-6713
▁promoted	-6714
▁sessions	-6715
▁shocking	-6716
▁specimen	-6717
▁stations	-6718
▁suitable	-6719
▁surround	-6720
▁theaters	-6721
▁vigilant	-6722
▁websites	-6723
▁yourself	-6724
associated	-6725
▁Bluetooth	-6726
▁Essential	-6727
▁Initially	-6728
▁Similarly	-6729
▁Telangana	-6730
▁anonymity	-6731
▁converted	-6732
▁executive	-6733
▁illnesses	-6734
▁incidents	-6735
▁influence	-6736
▁permitted	-6737
▁prevented	-6738
▁receptors	-6739
▁structure	-6740
▁Kovishield	-6741
▁assessment	-6742
▁commercial	-6743
▁coronaries	-6744
▁electronic	-6745
▁indicating	-6746
▁inhibitors	-6747
▁mitigation	-6748
▁restricted	-6749
▁specialist	-6750
▁university	-6751
availability	-6752
▁certificate	-6753
▁consecutive	-6754
▁displeasure	-6755
▁electricity	-6756
▁observation	-6757
▁paracetamol	-6758
▁preparation	-6759
▁questioning	-6760
▁restriction	-6761
▁symptomatic	-6762
▁transported	-6763
▁arrangements	-6764
▁consequences	-6765
▁insufficient	-6766
▁communication	-6767
▁disadvantaged	-6768
▁infrastructure	-6769
'?	-6770
2.	-6771
5.	-6772
67	-6773
93	-6774
Ad	-6775
EP	-6776
GC	-6777
Go	-6778
MC	-6779
RF	-6780
hs	-6781
lt	-6782
ww	-6783
-10	-6784
-95	-6785
43,	-6786
Bio	-6787
Cov	-6788
ERE	-6789
Gen	-6790
agh	-6791
ama	-6792
ees	-6793
emp	-6794
erb	-6795
exp	-6796
gov	-6797
isc	-6798
iya	-6799
key	-6800
mas	-6801
mat	-6802
mel	-6803
men	-6804
ony	-6805
oom	-6806
pid	-6807
rec	-6808
uls	-6809
upp	-6810
ups	-6811
www	-6812
yms	-6813
▁("	-6814
▁2-	-6815
▁46	-6816
▁47	-6817
▁52	-6818
▁68	-6819
▁69	-6820
▁AB	-6821
▁AN	-6822
▁Br	-6823
▁Ev	-6824
▁Hu	-6825
▁Li	-6826
▁Op	-6827
▁Pe	-6828
▁Sm	-6829
▁Vi	-6830
HERE	-6831
aint	-6832
apar	-6833
appr	-6834
aria	-6835
axis	-6836
ayan	-6837
dess	-6838
ects	-6839
erna	-6840
gisl	-6841
hani	-6842
ieve	-6843
ipes	-6844
isen	-6845
itus	-6846
lets	-6847
obia	-6848
oded	-6849
onal	-6850
otal	-6851
this	-6852
ulin	-6853
unic	-6854
uris	-6855
xime	-6856
▁(20	-6857
▁12,	-6858
▁2.4	-6859
▁20,	-6860
▁30%	-6861
▁70%	-6862
▁80%	-6863
▁Bus	-6864
▁Day	-6865
▁GPs	-6866
▁Gan	-6867
▁Has	-6868
▁Ins	-6869
▁Its	-6870
▁Jam	-6871
▁Kir	-6872
▁Met	-6873
▁Nik	-6874
▁Sar	-6875
▁Shr	-6876
▁Str	-6877
▁Tal	-6878
▁Try	-6879
▁bot	-6880
▁cho	-6881
▁eye	-6882
▁inn	-6883
▁mem	-6884
▁nor	-6885
▁oil	-6886
▁pra	-6887
▁pun	-6888
▁rum	-6889
ammed	-6890
andra	-6891
annel	-6892
asket	-6893
aveen	-6894
eased	-6895
ector	-6896
edary	-6897
eluda	-6898
eshav	-6899
eties	-6900
hebre	-6901
hsild	-6902
itzer	-6903
ivals	-6904
ocard	-6905
ocyte	-6906
ostic	-6907
tiwar	-6908
upees	-6909
water	-6910
▁Epid	-6911
▁Five	-6912
▁Karj	-6913
▁Mild	-6914
▁Mort	-6915
▁Oper	-6916
▁Phil	-6917
▁Prem	-6918
▁Rest	-6919
▁Said	-6920
▁Says	-6921
▁Sion	-6922
▁Step	-6923
▁Subh	-6924
▁Vyas	-6925
▁achi	-6926
▁cool	-6927
▁coup	-6928
▁drom	-6929
▁entr	-6930
▁fake	-6931
▁gain	-6932
▁gown	-6933
▁hall	-6934
▁horr	-6935
▁laid	-6936
▁lawy	-6937
▁mell	-6938
▁mice	-6939
▁neur	-6940
▁pork	-6941
▁pure	-6942
▁tsun	-6943
Mamata	-6944
Oxygen	-6945
algaon	-6946
antage	-6947
apping	-6948
coming	-6949
ecting	-6950
endors	-6951
eshwar	-6952
ferers	-6953
harmac	-6954
income	-6955
ladesh	-6956
ointed	-6957
pected	-6958
rapati	-6959
troint	-6960
▁7,162	-6961
▁Appro	-6962
▁Asian	-6963
▁Dilip	-6964
▁Happy	-6965
▁Shiva	-6966
▁Vadet	-6967
▁Virus	-6968
▁abide	-6969
▁artic	-6970
▁catch	-6971
▁civil	-6972
▁cloth	-6973
▁color	-6974
▁email	-6975
▁enhan	-6976
▁fecal	-6977
▁genet	-6978
▁heavy	-6979
▁incon	-6980
▁input	-6981
▁lakhs	-6982
▁looks	-6983
▁nurse	-6984
▁oblig	-6985
▁reass	-6986
▁repor	-6987
▁unemp	-6988
▁worry	-6989
arpanch	-6990
eration	-6991
initely	-6992
istical	-6993
ophobia	-6994
rubbing	-6995
ximeter	-6996
▁Action	-6997
▁Andhra	-6998
▁Common	-6999
▁Concer	-7000
▁Dattat	-7001
▁Ganesh	-7002
▁Genome	-7003
▁Ghebre	-7004
▁Instit	-7005
▁Keshav	-7006
▁Korean	-7007
▁Legisl	-7008
▁Person	-7009
▁Proper	-7010
▁Shaila	-7011
▁Sudhir	-7012
▁System	-7013
▁Tanmay	-7014
▁Visakh	-7015
▁arisen	-7016
▁breast	-7017
▁civets	-7018
▁corpor	-7019
▁denied	-7020
▁devast	-7021
▁energy	-7022
▁failed	-7023
▁forces	-7024
▁intend	-7025
▁joined	-7026
▁launch	-7027
▁lethal	-7028
▁meters	-7029
▁metres	-7030
▁models	-7031
▁orphan	-7032
▁papers	-7033
▁parent	-7034
▁quoted	-7035
▁rupees	-7036
▁seeing	-7037
▁series	-7038
▁tweets	-7039
▁update	-7040
changing	-7041
distance	-7042
itioners	-7043
ividuals	-7044
ocardial	-7045
▁2020-21	-7046
▁Kishori	-7047
▁Moderna	-7048
▁Praveen	-7049
▁Samples	-7050
▁Surgeon	-7051
▁Switzer	-7052
▁Various	-7053
▁Whether	-7054
▁adopted	-7055
▁altered	-7056
▁arrives	-7057
▁attacks	-7058
▁chances	-7059
▁cheetah	-7060
▁cleaned	-7061
▁clothes	-7062
▁diminis	-7063
▁doubled	-7064
▁edition	-7065
▁granted	-7066
▁hearing	-7067
▁imaging	-7068
▁isolate	-7069
▁letters	-7070
▁nearest	-7071
▁nursing	-7072
▁opinion	-7073
▁outcome	-7074
▁plastic	-7075
▁popular	-7076
▁promote	-7077
▁raising	-7078
▁readily	-7079
▁refused	-7080
▁rushing	-7081
▁seeking	-7082
▁sending	-7083
▁slammed	-7084
▁smoking	-7085
▁sparked	-7086
▁sterile	-7087
▁teacher	-7088
▁telling	-7089
▁thermal	-7090
▁tickets	-7091
▁tsunami	-7092
▁worried	-7093
Currently	-7094
asketball	-7095
elligence	-7096
logenetic	-7097
ritonavir	-7098
▁Agricult	-7099
▁American	-7100
▁Antibody	-7101
▁Security	-7102
▁Virology	-7103
▁abortion	-7104
▁accommod	-7105
▁barriers	-7106
▁checking	-7107
▁compound	-7108
▁cremated	-7109
▁deceased	-7110
▁examined	-7111
▁feedback	-7112
▁festival	-7113
▁holidays	-7114
▁hotspots	-7115
▁machines	-7116
▁mellitus	-7117
▁modified	-7118
▁opportun	-7119
▁programs	-7120
▁purposes	-7121
▁reflects	-7122
▁soldiers	-7123
▁struggle	-7124
▁suffered	-7125
▁swelling	-7126
▁tertiary	-7127
▁theories	-7128
▁withdraw	-7129
aharashtra	-7130
orbidities	-7131
▁Financial	-7132
▁Ghebreyes	-7133
▁Panchayat	-7134
▁Relatives	-7135
▁acknowled	-7136
▁advantage	-7137
▁attending	-7138
▁authority	-7139
▁behaviour	-7140
▁decentral	-7141
▁dromedary	-7142
▁exercises	-7143
▁improving	-7144
▁informing	-7145
▁institute	-7146
▁pollution	-7147
▁procedure	-7148
▁processes	-7149
▁publicity	-7150
▁reference	-7151
▁reporters	-7152
▁sufferers	-7153
▁travelers	-7154
coronavirus	-7155
▁Bangladesh	-7156
▁Industrial	-7157
▁Solidarity	-7158
▁adaptation	-7159
▁affordable	-7160
▁antiseptic	-7161
▁approached	-7162
▁approaches	-7163
▁cancelling	-7164
▁classified	-7165
▁comparison	-7166
▁impossible	-7167
▁inadequate	-7168
▁performing	-7169
▁prioritize	-7170
▁reportedly	-7171
▁separation	-7172
▁Chhatrapati	-7173
▁Furthermore	-7174
▁Individuals	-7175
▁Mungantiwar	-7176
▁Restaurants	-7177
▁Switzerland	-7178
▁anticipated	-7179
▁compromised	-7180
▁contracting	-7181
▁emergencies	-7182
▁enforcement	-7183
▁handwashing	-7184
▁institution	-7185
▁psychiatric	-7186
▁statistical	-7187
▁technicians	-7188
▁temporarily	-7189
trointestinal	-7190
▁experimental	-7191
▁formulations	-7192
▁nonessential	-7193
▁subsequently	-7194
▁antimicrobial	-7195
▁identification	-7196
▁misinformation	-7197
..	-7198
07	-7199
15	-7200
16	-7201
18	-7202
42	-7203
9,	-7204
AN	-7205
AR	-7206
IL	-7207
PD	-7208
TG	-7209
fl	-7210
hu	-7211
%).	-7212
.3%	-7213
653	-7214
OPD	-7215
Win	-7216
ags	-7217
aja	-7218
ble	-7219
bow	-7220
ero	-7221
gal	-7222
hus	-7223
iva	-7224
lar	-7225
ler	-7226
nce	-7227
och	-7228
ocl	-7229
pir	-7230
ula	-7231
unt	-7232
zen	-7233
▁(6	-7234
▁4,	-7235
▁6.	-7236
▁62	-7237
▁74	-7238
▁81	-7239
▁88	-7240
▁CO	-7241
▁Cr	-7242
▁Ge	-7243
▁Gh	-7244
▁MT	-7245
▁Sr	-7246
▁id	-7247
▁sn	-7248
adav	-7249
arao	-7250
arby	-7251
athy	-7252
atta	-7253
dict	-7254
etal	-7255
fuse	-7256
hane	-7257
hary	-7258
home	-7259
isha	-7260
isod	-7261
iums	-7262
kata	-7263
khar	-7264
rell	-7265
sApp	-7266
tegr	-7267
ties	-7268
utum	-7269
▁(1)	-7270
▁1).	-7271
▁14,	-7272
▁20%	-7273
▁22,	-7274
▁3.5	-7275
▁4.5	-7276
▁700	-7277
▁900	-7278
▁DNA	-7279
▁Emp	-7280
▁Fer	-7281
▁Flu	-7282
▁Gul	-7283
▁Gym	-7284
▁HKU	-7285
▁Ira	-7286
▁MIS	-7287
▁MNS	-7288
▁NBA	-7289
▁Nar	-7290
▁OPD	-7291
▁ORF	-7292
▁Ord	-7293
▁Pal	-7294
▁Pro	-7295
▁RBD	-7296
▁RTI	-7297
▁Raw	-7298
▁Sab	-7299
▁Spr	-7300
▁WIV	-7301
▁art	-7302
▁asp	-7303
▁dil	-7304
▁dys	-7305
▁ear	-7306
▁ele	-7307
▁era	-7308
▁gap	-7309
▁gly	-7310
▁hal	-7311
▁hug	-7312
▁lun	-7313
▁que	-7314
▁ult	-7315
Wuhan	-7316
acerb	-7317
ahane	-7318
ahanu	-7319
angal	-7320
anges	-7321
apped	-7322
athan	-7323
ayand	-7324
being	-7325
erals	-7326
esari	-7327
etite	-7328
feron	-7329
iding	-7330
ifest	-7331
igate	-7332
ipped	-7333
lined	-7334
merce	-7335
ogram	-7336
owned	-7337
party	-7338
stood	-7339
third	-7340
urbar	-7341
▁Ghat	-7342
▁Jais	-7343
▁Live	-7344
▁Mich	-7345
▁Nair	-7346
▁Navr	-7347
▁Once	-7348
▁Poll	-7349
▁Prov	-7350
▁Take	-7351
▁Wada	-7352
▁aler	-7353
▁ampl	-7354
▁argu	-7355
▁bans	-7356
▁beat	-7357
▁biot	-7358
▁boys	-7359
▁cycl	-7360
▁defe	-7361
▁dial	-7362
▁dram	-7363
▁ends	-7364
▁frag	-7365
▁fung	-7366
▁gyms	-7367
▁laws	-7368
▁mark	-7369
▁scam	-7370
▁shel	-7371
Figure	-7372
accine	-7373
ansing	-7374
avirin	-7375
double	-7376
inated	-7377
isting	-7378
omegal	-7379
omfort	-7380
piracy	-7381
▁4,000	-7382
▁Jalna	-7383
▁Later	-7384
▁Mohan	-7385
▁Parab	-7386
▁Press	-7387
▁Royal	-7388
▁Shing	-7389
▁Tests	-7390
▁Third	-7391
▁Until	-7392
▁Yadav	-7393
▁admit	-7394
▁award	-7395
▁brain	-7396
▁camps	-7397
▁elbow	-7398
▁favor	-7399
▁impot	-7400
▁legal	-7401
▁mayor	-7402
▁minus	-7403
▁mortu	-7404
▁mumps	-7405
▁newly	-7406
▁rainy	-7407
▁refus	-7408
▁seats	-7409
▁shall	-7410
▁sixth	-7411
▁stead	-7412
▁towns	-7413
▁trace	-7414
▁urged	-7415
▁wards	-7416
anation	-7417
hsildar	-7418
iolitis	-7419
iranand	-7420
oclonal	-7421
ordance	-7422
otherap	-7423
portant	-7424
▁80,000	-7425
▁Aadhar	-7426
▁Ashish	-7427
▁Dahanu	-7428
▁Kakani	-7429
▁Karjat	-7430
▁Lahane	-7431
▁Muslim	-7432
▁Pradip	-7433
▁Report	-7434
▁Runwal	-7435
▁Turkey	-7436
▁adding	-7437
▁advise	-7438
▁assist	-7439
▁bought	-7440
▁cancer	-7441
▁debate	-7442
▁destro	-7443
▁disapp	-7444
▁embass	-7445
▁emerge	-7446
▁encoun	-7447
▁explos	-7448
▁feared	-7449
▁legisl	-7450
▁module	-7451
▁mostly	-7452
▁nearby	-7453
▁petrol	-7454
▁pharma	-7455
▁rushed	-7456
▁saliva	-7457
▁shifts	-7458
▁trends	-7459
▁unable	-7460
▁unique	-7461
▁vessel	-7462
▁volume	-7463
▁wasted	-7464
edicated	-7465
ifenovir	-7466
ilizumab	-7467
izations	-7468
lessness	-7469
omedical	-7470
tilizers	-7471
▁Austria	-7472
▁Chhagan	-7473
▁Deepika	-7474
▁Jayanti	-7475
▁Kolkata	-7476
▁Looking	-7477
▁Narayan	-7478
▁Salunke	-7479
▁Subhash	-7480
▁Workers	-7481
▁Working	-7482
▁absence	-7483
▁achieve	-7484
▁blowing	-7485
▁caution	-7486
▁cinemas	-7487
▁clinics	-7488
▁exacerb	-7489
▁filters	-7490
▁genomes	-7491
▁guarant	-7492
▁injured	-7493
▁interim	-7494
▁massive	-7495
▁minimal	-7496
▁minimum	-7497
▁mistake	-7498
▁mothers	-7499
▁neutral	-7500
▁opening	-7501
▁opposed	-7502
▁partial	-7503
▁pathway	-7504
▁periods	-7505
▁pharmac	-7506
▁rubbing	-7507
▁strange	-7508
▁strengt	-7509
▁survive	-7510
▁textile	-7511
▁version	-7512
amination	-7513
ibilities	-7514
▁Bhandara	-7515
▁Manufact	-7516
▁Personal	-7517
▁Protocol	-7518
▁Republic	-7519
▁Response	-7520
▁Shingane	-7521
▁WhatsApp	-7522
▁abnormal	-7523
▁airlines	-7524
▁analyzed	-7525
▁attitude	-7526
▁confused	-7527
▁consists	-7528
▁declined	-7529
▁deprived	-7530
▁disposed	-7531
▁interval	-7532
▁manifest	-7533
▁mentally	-7534
▁military	-7535
▁promised	-7536
▁quantity	-7537
▁reaching	-7538
▁rickshaw	-7539
▁stranded	-7540
▁supplier	-7541
▁suppress	-7542
▁systemic	-7543
▁temporal	-7544
▁unlikely	-7545
▁visitors	-7546
▁worrying	-7547
iranandani	-7548
▁Important	-7549
▁Medicines	-7550
▁Mortality	-7551
▁Nandurbar	-7552
▁Pediatric	-7553
▁Physician	-7554
▁Principal	-7555
▁Professor	-7556
▁Religious	-7557
▁Transport	-7558
▁affidavit	-7559
▁childhood	-7560
▁collapsed	-7561
▁commented	-7562
▁connected	-7563
▁consulate	-7564
▁decreases	-7565
▁disrupted	-7566
▁epidemics	-7567
▁evacuated	-7568
▁evaluated	-7569
▁expensive	-7570
▁guideline	-7571
▁impacting	-7572
▁initiated	-7573
▁modelling	-7574
▁nutrition	-7575
▁operation	-7576
▁prognosis	-7577
▁protected	-7578
▁provision	-7579
▁reception	-7580
▁technical	-7581
▁tightened	-7582
Maharashtra	-7583
▁Divisional	-7584
▁Jaishankar	-7585
▁Technology	-7586
▁Vadettiwar	-7587
▁accordance	-7588
▁afterwards	-7589
▁allegation	-7590
▁announcing	-7591
▁celebrated	-7592
▁ceremonies	-7593
▁completing	-7594
▁continuing	-7595
▁contribute	-7596
▁discomfort	-7597
▁intubation	-7598
▁investment	-7599
▁leadership	-7600
▁misconcept	-7601
▁monoclonal	-7602
▁myocardial	-7603
▁presenting	-7604
▁properties	-7605
▁protecting	-7606
▁reassuring	-7607
▁regulators	-7608
▁repeatedly	-7609
▁sanitation	-7610
▁systematic	-7611
▁travellers	-7612
▁understood	-7613
▁virologist	-7614
omegalovirus	-7615
▁Legislative	-7616
▁accordingly	-7617
▁appointment	-7618
▁attractions	-7619
▁effectively	-7620
▁encouraging	-7621
▁genetically	-7622
▁registering	-7623
▁distributing	-7624
▁epidemiology	-7625
▁gynecologist	-7626
▁inflammation	-7627
▁postponement	-7628
▁professional	-7629
▁quarantining	-7630
▁representative	-7631
▁epidemiological	-7632
,9	-7633
17	-7634
45	-7635
70	-7636
Ar	-7637
Ex	-7638
FR	-7639
MD	-7640
RV	-7641
ky	-7642
▁x	-7643
:00	-7644
AMS	-7645
CED	-7646
Don	-7647
EMA	-7648
aty	-7649
got	-7650
hud	-7651
imb	-7652
irv	-7653
lom	-7654
nas	-7655
odi	-7656
osc	-7657
rRT	-7658
ray	-7659
tin	-7660
yed	-7661
yur	-7662
▁01	-7663
▁6-	-7664
▁71	-7665
▁?;	-7666
▁Cy	-7667
▁Kn	-7668
▁Ul	-7669
▁Ur	-7670
▁vo	-7671
acts	-7672
also	-7673
aman	-7674
andi	-7675
angi	-7676
angu	-7677
aped	-7678
apse	-7679
awas	-7680
azar	-7681
case	-7682
comp	-7683
cons	-7684
cuss	-7685
door	-7686
gred	-7687
hACE	-7688
haar	-7689
half	-7690
hana	-7691
haus	-7692
hern	-7693
iary	-7694
iffe	-7695
inel	-7696
inus	-7697
irty	-7698
isco	-7699
izes	-7700
keep	-7701
lers	-7702
mand	-7703
mans	-7704
mend	-7705
oken	-7706
olds	-7707
ores	-7708
pers	-7709
plom	-7710
prop	-7711
raya	-7712
rief	-7713
seud	-7714
uism	-7715
ulty	-7716
wadi	-7717
whel	-7718
with	-7719
▁(2)	-7720
▁(3)	-7721
▁60%	-7722
▁ABC	-7723
▁ABP	-7724
▁ANI	-7725
▁Akh	-7726
▁Bar	-7727
▁Beg	-7728
▁Bel	-7729
▁CRT	-7730
▁Dig	-7731
▁Dok	-7732
▁Fig	-7733
▁Gil	-7734
▁Haz	-7735
▁Him	-7736
▁Ila	-7737
▁Imp	-7738
▁Jit	-7739
▁Lod	-7740
▁Mad	-7741
▁Mon	-7742
▁NCE	-7743
▁Oak	-7744
▁PAN	-7745
▁Pur	-7746
▁Rav	-7747
▁Ren	-7748
▁Ret	-7749
▁Roh	-7750
▁Sak	-7751
▁Sas	-7752
▁Som	-7753
▁TCM	-7754
▁Vik	-7755
▁Wad	-7756
▁agg	-7757
▁bal	-7758
▁fir	-7759
▁gur	-7760
▁map	-7761
▁pen	-7762
▁pig	-7763
▁pus	-7764
▁sil	-7765
▁sis	-7766
▁swe	-7767
▁vul	-7768
▁web	-7769
▁xen	-7770
▁yes	-7771
2,653	-7772
Break	-7773
ISCED	-7774
Trace	-7775
acked	-7776
agiri	-7777
aling	-7778
alpur	-7779
anged	-7780
anied	-7781
arian	-7782
ashed	-7783
asive	-7784
eless	-7785
ellow	-7786
endit	-7787
endix	-7788
gment	-7789
hetre	-7790
iance	-7791
ishra	-7792
ontin	-7793
opara	-7794
phans	-7795
ptive	-7796
rench	-7797
satta	-7798
taken	-7799
uters	-7800
vious	-7801
▁"100	-7802
▁2012	-7803
▁2017	-7804
▁99.9	-7805
▁BAMS	-7806
▁Budd	-7807
▁Fest	-7808
▁Free	-7809
▁Gall	-7810
▁Gram	-7811
▁Groc	-7812
▁Have	-7813
▁Iraq	-7814
▁Jain	-7815
▁Kanj	-7816
▁LRTI	-7817
▁Long	-7818
▁Mira	-7819
▁OSHA	-7820
▁RaTG	-7821
▁Ratn	-7822
▁Road	-7823
▁Saif	-7824
▁Sain	-7825
▁Shir	-7826
▁Taty	-7827
▁Tend	-7828
▁Tour	-7829
▁Wash	-7830
▁Zeal	-7831
▁blue	-7832
▁calc	-7833
▁caps	-7834
▁cash	-7835
▁chol	-7836
▁chur	-7837
▁conc	-7838
▁cort	-7839
▁dele	-7840
▁derm	-7841
▁doll	-7842
▁draw	-7843
▁ease	-7844
▁elig	-7845
▁gear	-7846
▁harb	-7847
▁micr	-7848
▁page	-7849
▁pept	-7850
▁refr	-7851
▁scen	-7852
▁sera	-7853
▁stim	-7854
▁sust	-7855
▁symb	-7856
▁vect	-7857
▁wand	-7858
▁wond	-7859
acific	-7860
acivir	-7861
aparin	-7862
arding	-7863
arrhea	-7864
ensely	-7865
essive	-7866
herjee	-7867
hudurg	-7868
imates	-7869
imming	-7870
itives	-7871
market	-7872
ocated	-7873
ocking	-7874
orrect	-7875
osable	-7876
perial	-7877
ptical	-7878
risome	-7879
roscop	-7880
stream	-7881
teries	-7882
udhary	-7883
urally	-7884
▁Aditi	-7885
▁Anand	-7886
▁Boris	-7887
▁Civil	-7888
▁Crowd	-7889
▁Dadar	-7890
▁Early	-7891
▁Eight	-7892
▁Franc	-7893
▁Kiran	-7894
▁Nalas	-7895
▁Organ	-7896
▁Rapid	-7897
▁Squad	-7898
▁Train	-7899
▁Varun	-7900
▁WHERE	-7901
▁Walse	-7902
▁acted	-7903
▁allev	-7904
▁bills	-7905
▁brief	-7906
▁cared	-7907
▁chick	-7908
▁colds	-7909
▁costs	-7910
▁doors	-7911
▁enzym	-7912
▁exped	-7913
▁gives	-7914
▁glass	-7915
▁grant	-7916
▁haven	-7917
▁havoc	-7918
▁infar	-7919
▁infil	-7920
▁irrit	-7921
▁juris	-7922
▁langu	-7923
▁neigh	-7924
▁nodal	-7925
▁notes	-7926
▁optim	-7927
▁overl	-7928
▁palms	-7929
▁prove	-7930
▁pseud	-7931
▁pulse	-7932
▁renal	-7933
▁scene	-7934
▁solid	-7935
▁subun	-7936
▁sugar	-7937
▁truth	-7938
▁verge	-7939
▁virul	-7940
▁vitro	-7941
▁waves	-7942
▁zones	-7943
October	-7944
acorona	-7945
awasaki	-7946
clusion	-7947
ernails	-7948
ippines	-7949
keepers	-7950
manship	-7951
orthern	-7952
ruption	-7953
▁(5.8%)	-7954
▁20,000	-7955
▁40,000	-7956
▁Ankita	-7957
▁Answer	-7958
▁Called	-7959
▁Follow	-7960
▁French	-7961
▁Integr	-7962
▁Malays	-7963
▁Mhetre	-7964
▁Mishra	-7965
▁Patole	-7966
▁Raikar	-7967
▁Ravind	-7968
▁Senior	-7969
▁Shenoy	-7970
▁Spring	-7971
▁Unlock	-7972
▁assign	-7973
▁associ	-7974
▁boards	-7975
▁bottle	-7976
▁broken	-7977
▁buying	-7978
▁caught	-7979
▁chains	-7980
▁courts	-7981
▁credit	-7982
▁degree	-7983
▁diplom	-7984
▁driven	-7985
▁driver	-7986
▁fields	-7987
▁forgot	-7988
▁formal	-7989
▁fourth	-7990
▁govern	-7991
▁guards	-7992
▁hinted	-7993
▁inputs	-7994
▁intrav	-7995
▁losses	-7996
▁perman	-7997
▁player	-7998
▁portal	-7999
▁prison	-8000
▁proven	-8001
▁remark	-8002
▁robust	-8003
▁seemed	-8004
▁sputum	-8005
▁stands	-8006
▁stockp	-8007
▁stream	-8008
▁toward	-8009
▁vacant	-8010
▁vulner	-8011
clusions	-8012
enditure	-8013
graduate	-8014
ifferent	-8015
iotherap	-8016
ographic	-8017
onymized	-8018
▁100,000	-8019
▁122,653	-8020
▁Aadhaar	-8021
▁Bhayand	-8022
▁Dokania	-8023
▁English	-8024
▁Mission	-8025
▁Sassoon	-8026
▁Spanish	-8027
▁Wearing	-8028
▁Zealand	-8029
▁blocked	-8030
▁capture	-8031
▁channel	-8032
▁clarify	-8033
▁clearly	-8034
▁coaches	-8035
▁compens	-8036
▁defined	-8037
▁diffuse	-8038
▁drivers	-8039
▁dynamic	-8040
▁enacted	-8041
▁erupted	-8042
▁explore	-8043
▁exports	-8044
▁falling	-8045
▁fingers	-8046
▁genomic	-8047
▁handled	-8048
▁highway	-8049
▁honored	-8050
▁inactiv	-8051
▁infants	-8052
▁malaria	-8053
▁manager	-8054
▁neglect	-8055
▁noticed	-8056
▁objects	-8057
▁ranging	-8058
▁reaches	-8059
▁shocked	-8060
▁sneezes	-8061
▁tablets	-8062
▁targets	-8063
▁tremend	-8064
▁vendors	-8065
▁Amandeep	-8066
▁Appendix	-8067
▁Business	-8068
▁Compared	-8069
▁Devanand	-8070
▁Hinduism	-8071
▁Imperial	-8072
▁Loksatta	-8073
▁Sarpanch	-8074
▁Shailesh	-8075
▁Syndrome	-8076
▁Tatyarao	-8077
▁accounts	-8078
▁accuracy	-8079
▁appetite	-8080
▁assessed	-8081
▁breastfe	-8082
▁cellular	-8083
▁chairman	-8084
▁clusters	-8085
▁donation	-8086
▁eligible	-8087
▁emerging	-8088
▁enhanced	-8089
▁enrolled	-8090
▁governor	-8091
▁harmless	-8092
▁hygienic	-8093
▁imposing	-8094
▁inactive	-8095
▁indirect	-8096
▁meantime	-8097
▁mortuary	-8098
▁networks	-8099
▁oximeter	-8100
▁passport	-8101
▁possibly	-8102
▁procured	-8103
▁prompted	-8104
▁psychiat	-8105
▁seasonal	-8106
▁sentinel	-8107
▁spreader	-8108
▁steroids	-8109
▁watching	-8110
Government	-8111
flammatory	-8112
▁Ahmedabad	-8113
▁Chaudhary	-8114
▁Christmas	-8115
▁Countries	-8116
▁Executive	-8117
▁Francisco	-8118
▁Isolation	-8119
▁Mukherjee	-8120
▁Mutations	-8121
▁Niranjani	-8122
▁Pollution	-8123
▁Ratnagiri	-8124
▁Specialty	-8125
▁Tehsildar	-8126
▁Tendulkar	-8127
▁Wikimedia	-8128
▁accidents	-8129
▁alleviate	-8130
▁ascertain	-8131
▁cocktails	-8132
▁consulted	-8133
▁contagion	-8134
▁diarrhoea	-8135
▁elsewhere	-8136
▁identical	-8137
▁jurisdict	-8138
▁newspaper	-8139
▁practical	-8140
▁preschool	-8141
▁primarily	-8142
▁recognize	-8143
▁recording	-8144
▁responded	-8145
▁sanctions	-8146
▁strategic	-8147
▁targeting	-8148
▁therapies	-8149
▁workplace	-8150
▁worrisome	-8151
▁Coronation	-8152
▁Dattatraya	-8153
▁Healthcare	-8154
▁Nalasopara	-8155
▁Production	-8156
▁accelerate	-8157
▁aggressive	-8158
▁antibiotic	-8159
▁applicable	-8160
▁biological	-8161
▁compliance	-8162
▁convention	-8163
▁definitely	-8164
▁disability	-8165
▁eliminated	-8166
▁infarction	-8167
▁inhibition	-8168
▁institutes	-8169
▁interferon	-8170
▁mechanical	-8171
▁negligence	-8172
▁overcoming	-8173
▁saturation	-8174
▁separately	-8175
▁subsequent	-8176
▁suggesting	-8177
▁workplaces	-8178
▁xenophobia	-8179
acoronavirus	-8180
▁Engineering	-8181
▁Manufacture	-8182
▁Philippines	-8183
▁accompanied	-8184
▁association	-8185
▁criticizing	-8186
▁destination	-8187
▁explanation	-8188
▁fingernails	-8189
▁interrupted	-8190
▁investigate	-8191
▁methodology	-8192
▁necessities	-8193
▁quarantines	-8194
▁repurposing	-8195
▁seriousness	-8196
▁surrounding	-8197
▁vaccinators	-8198
▁Registration	-8199
▁certificates	-8200
▁chairmanship	-8201
▁continuously	-8202
▁disinfecting	-8203
▁hospitalised	-8204
▁immunization	-8205
▁occupational	-8206
▁recommending	-8207
▁relationship	-8208
▁transmitting	-8209
▁Biotechnology	-8210
▁announcements	-8211
▁automatically	-8212
▁methodologies	-8213
▁precautionary	-8214
▁pseudonymized	-8215
▁unprecedented	-8216
.)	-8217
28	-8218
4%	-8219
4.	-8220
66	-8221
9%	-8222
92	-8223
96	-8224
?'	-8225
CO	-8226
FN	-8227
MP	-8228
OS	-8229
PP	-8230
SO	-8231
Se	-8232
di	-8233
ey	-8234
ny	-8235
td	-8236
-12	-8237
-17	-8238
...	-8239
.7%	-8240
191	-8241
600	-8242
Bat	-8243
ICU	-8244
PHE	-8245
PSC	-8246
Vac	-8247
abs	-8248
aks	-8249
ams	-8250
anz	-8251
asi	-8252
eev	-8253
eti	-8254
ghe	-8255
ico	-8256
iec	-8257
ila	-8258
irs	-8259
kov	-8260
ley	-8261
oni	-8262
oti	-8263
rao	-8264
tan	-8265
uit	-8266
urm	-8267
urp	-8268
▁'6	-8269
▁(0	-8270
▁5)	-8271
▁56	-8272
▁8.	-8273
▁82	-8274
▁87	-8275
▁CB	-8276
▁CD	-8277
▁Fa	-8278
▁IV	-8279
▁Jy	-8280
▁WM	-8281
▁ak	-8282
▁um	-8283
,500	-8284
-2).	-8285
DCGI	-8286
Last	-8287
airy	-8288
ales	-8289
aret	-8290
avin	-8291
face	-8292
hesh	-8293
hour	-8294
ills	-8295
ipir	-8296
ishi	-8297
kars	-8298
life	-8299
nCoV	-8300
olvi	-8301
omin	-8302
otes	-8303
pack	-8304
pped	-8305
such	-8306
unex	-8307
usse	-8308
vard	-8309
what	-8310
wood	-8311
ypes	-8312
▁(15	-8313
▁(27	-8314
▁0.2	-8315
▁10%	-8316
▁11.	-8317
▁15-	-8318
▁16.	-8319
▁18,	-8320
▁197	-8321
▁6.5	-8322
▁95%	-8323
▁Abh	-8324
▁Ann	-8325
▁Aqu	-8326
▁Att	-8327
▁Bol	-8328
▁Car	-8329
▁Cle	-8330
▁Cre	-8331
▁ERV	-8332
▁Ekn	-8333
▁Fre	-8334
▁GST	-8335
▁Gas	-8336
▁Jan	-8337
▁Jaw	-8338
▁Kut	-8339
▁Ltd	-8340
▁Mat	-8341
▁Max	-8342
▁Mor	-8343
▁Mur	-8344
▁NHS	-8345
▁Nat	-8346
▁Non	-8347
▁Occ	-8348
▁Pad	-8349
▁Pen	-8350
▁Phy	-8351
▁SOP	-8352
▁SSC	-8353
▁Six	-8354
▁USA	-8355
▁Vac	-8356
▁Vin	-8357
▁Vit	-8358
▁bul	-8359
▁fam	-8360
▁fit	-8361
▁gel	-8362
▁ice	-8363
▁lag	-8364
▁mov	-8365
▁nec	-8366
▁rid	-8367
▁rit	-8368
▁rod	-8369
▁squ	-8370
▁wet	-8371
China	-8372
Remed	-8373
achal	-8374
after	-8375
amond	-8376
andal	-8377
arius	-8378
ashmi	-8379
bound	-8380
crowd	-8381
erary	-8382
erest	-8383
estor	-8384
eving	-8385
front	-8386
ggles	-8387
grade	-8388
habil	-8389
harif	-8390
harkh	-8391
ilead	-8392
iment	-8393
inces	-8394
mohan	-8395
ocomp	-8396
olved	-8397
oning	-8398
onsid	-8399
oring	-8400
otsav	-8401
oxide	-8402
pande	-8403
riors	-8404
ucing	-8405
uddin	-8406
▁Ajay	-8407
▁Blue	-8408
▁COPD	-8409
▁Camp	-8410
▁Chow	-8411
▁Code	-8412
▁Cold	-8413
▁Each	-8414
▁Giri	-8415
▁ICUs	-8416
▁Jack	-8417
▁Kale	-8418
▁Manj	-8419
▁Mans	-8420
▁Mill	-8421
▁Pers	-8422
▁Prat	-8423
▁Priy	-8424
▁Ryan	-8425
▁Sind	-8426
▁Sure	-8427
▁Sush	-8428
▁Team	-8429
▁Trad	-8430
▁Unit	-8431
▁Vice	-8432
▁benz	-8433
▁chem	-8434
▁crew	-8435
▁cruc	-8436
▁debt	-8437
▁deep	-8438
▁exem	-8439
▁firm	-8440
▁foam	-8441
▁gene	-8442
▁hamp	-8443
▁hear	-8444
▁hide	-8445
▁imag	-8446
▁incl	-8447
▁knew	-8448
▁lugg	-8449
▁none	-8450
▁pets	-8451
▁swit	-8452
▁tele	-8453
▁tens	-8454
▁tree	-8455
▁trip	-8456
▁urge	-8457
▁util	-8458
▁virt	-8459
Source	-8460
affect	-8461
airman	-8462
alites	-8463
aurant	-8464
bedkar	-8465
encing	-8466
ensing	-8467
erated	-8468
helial	-8469
imated	-8470
impanz	-8471
inning	-8472
iously	-8473
irvana	-8474
itizen	-8475
lights	-8476
mental	-8477
onesia	-8478
orters	-8479
phones	-8480
tering	-8481
thirds	-8482
uctive	-8483
ughter	-8484
urmarg	-8485
▁1,200	-8486
▁2012,	-8487
▁Assam	-8488
▁Balas	-8489
▁Cases	-8490
▁Chall	-8491
▁Could	-8492
▁Deore	-8493
▁Exerc	-8494
▁Ganga	-8495
▁Gupta	-8496
▁Heart	-8497
▁Islam	-8498
▁Joint	-8499
▁Karan	-8500
▁Khare	-8501
▁Lashi	-8502
▁Latin	-8503
▁Meghe	-8504
▁Narli	-8505
▁Prior	-8506
▁Rural	-8507
▁Seven	-8508
▁Table	-8509
▁Talas	-8510
▁Total	-8511
▁Trave	-8512
▁Trial	-8513
▁Water	-8514
▁affil	-8515
▁alive	-8516
▁angry	-8517
▁click	-8518
▁defin	-8519
▁falls	-8520
▁fifty	-8521
▁fined	-8522
▁grief	-8523
▁guide	-8524
▁hence	-8525
▁hopes	-8526
▁knows	-8527
▁lunch	-8528
▁minor	-8529
▁norms	-8530
▁offer	-8531
▁overn	-8532
▁plate	-8533
▁princ	-8534
▁pumps	-8535
▁reply	-8536
▁scope	-8537
▁seeds	-8538
▁spill	-8539
▁stagg	-8540
▁topic	-8541
▁upset	-8542
▁vital	-8543
▁write	-8544
alition	-8545
atorium	-8546
chandra	-8547
gentina	-8548
iratory	-8549
loading	-8550
ogether	-8551
ologous	-8552
ounting	-8553
protein	-8554
vaccine	-8555
▁25,000	-8556
▁60,000	-8557
▁Cooper	-8558
▁Create	-8559
▁Effect	-8560
▁Eknath	-8561
▁Energy	-8562
▁Gangak	-8563
▁Gilead	-8564
▁Hotels	-8565
▁Jharkh	-8566
▁Mamata	-8567
▁Multis	-8568
▁Others	-8569
▁Partic	-8570
▁Relief	-8571
▁Seeing	-8572
▁Somani	-8573
▁Taking	-8574
▁Though	-8575
▁Ventil	-8576
▁advert	-8577
▁aggreg	-8578
▁akhada	-8579
▁allows	-8580
▁belong	-8581
▁buried	-8582
▁calend	-8583
▁cancel	-8584
▁desire	-8585
▁exhaus	-8586
▁forest	-8587
▁fungus	-8588
▁grapes	-8589
▁houses	-8590
▁ingred	-8591
▁integr	-8592
▁intest	-8593
▁locked	-8594
▁modify	-8595
▁permit	-8596
▁phones	-8597
▁played	-8598
▁plenty	-8599
▁racist	-8600
▁refers	-8601
▁refuse	-8602
▁rumors	-8603
▁serves	-8604
▁skills	-8605
▁spaces	-8606
▁stable	-8607
▁strike	-8608
▁subsid	-8609
▁suspic	-8610
▁talked	-8611
▁temple	-8612
▁versus	-8613
▁voting	-8614
▁weapon	-8615
February	-8616
affected	-8617
cussions	-8618
ipiravir	-8619
missions	-8620
ocytosis	-8621
ometimes	-8622
reaching	-8623
▁Between	-8624
▁Consult	-8625
▁Diamond	-8626
▁Gadkari	-8627
▁Grocery	-8628
▁Harvard	-8629
▁Jalgaon	-8630
▁Notably	-8631
▁Offices	-8632
▁Product	-8633
▁Program	-8634
▁Revenue	-8635
▁Sahitya	-8636
▁Sanitiz	-8637
▁Shekhar	-8638
▁accumul	-8639
▁adviser	-8640
▁amounts	-8641
▁article	-8642
▁banning	-8643
▁booster	-8644
▁bottles	-8645
▁carrier	-8646
▁chaired	-8647
▁citizen	-8648
▁climate	-8649
▁coroner	-8650
▁courses	-8651
▁covered	-8652
▁cyclone	-8653
▁damaged	-8654
▁decades	-8655
▁demands	-8656
▁disrupt	-8657
▁divided	-8658
▁drastic	-8659
▁failing	-8660
▁feeding	-8661
▁festive	-8662
▁fitness	-8663
▁freedom	-8664
▁goggles	-8665
▁holders	-8666
▁holding	-8667
▁inaugur	-8668
▁intends	-8669
▁justice	-8670
▁luggage	-8671
▁nations	-8672
▁orphans	-8673
▁passive	-8674
▁prophyl	-8675
▁reality	-8676
▁replace	-8677
▁resumed	-8678
▁revised	-8679
▁schemes	-8680
▁slowing	-8681
▁toilets	-8682
▁varying	-8683
▁welcome	-8684
▁whereas	-8685
abilities	-8686
astically	-8687
dependent	-8688
effective	-8689
excluding	-8690
iotherapy	-8691
opulation	-8692
tructural	-8693
▁Achalpur	-8694
▁Ambedkar	-8695
▁Aquarius	-8696
▁Consumer	-8697
▁Diarrhea	-8698
▁Festival	-8699
▁Guidance	-8700
▁Himachal	-8701
▁Jitendra	-8702
▁Kawasaki	-8703
▁Malaysia	-8704
▁Manmohan	-8705
▁Millions	-8706
▁Priyanka	-8707
▁Ravindra	-8708
▁Recently	-8709
▁Talasari	-8710
▁actively	-8711
▁advanced	-8712
▁ancestor	-8713
▁billions	-8714
▁bleeding	-8715
▁brothers	-8716
▁capsules	-8717
▁cheetahs	-8718
▁cleaners	-8719
▁diabetic	-8720
▁division	-8721
▁drinking	-8722
▁funerals	-8723
▁humanity	-8724
▁independ	-8725
▁internal	-8726
▁measured	-8727
▁obstruct	-8728
▁orphaned	-8729
▁protects	-8730
▁railways	-8731
▁realized	-8732
▁releases	-8733
▁reserves	-8734
▁somewhat	-8735
▁sporting	-8736
▁steadily	-8737
▁stickers	-8738
▁strength	-8739
▁underest	-8740
▁virulent	-8741
▁warnings	-8742
▁whenever	-8743
ologically	-8744
onsibility	-8745
unexpected	-8746
▁Assistant	-8747
▁Balasaheb	-8748
▁Deshpande	-8749
▁Effective	-8750
▁Indonesia	-8751
▁Jharkhand	-8752
▁Mandatory	-8753
▁Naxalites	-8754
▁Political	-8755
▁Remedivir	-8756
▁appearing	-8757
▁appointed	-8758
▁committed	-8759
▁cooperate	-8760
▁dedicated	-8761
▁destroyed	-8762
▁discontin	-8763
▁eliminate	-8764
▁exclusive	-8765
▁explosion	-8766
▁extending	-8767
▁extension	-8768
▁forefront	-8769
▁forgotten	-8770
▁infecting	-8771
▁introduce	-8772
▁involving	-8773
▁migration	-8774
▁molecular	-8775
▁operators	-8776
▁overcrowd	-8777
▁overnight	-8778
▁pandemics	-8779
▁preferred	-8780
▁prescribe	-8781
▁provinces	-8782
▁readiness	-8783
▁realizing	-8784
▁recruited	-8785
▁religions	-8786
▁replicate	-8787
▁residence	-8788
▁ribavirin	-8789
▁scientist	-8790
▁skeptical	-8791
▁societies	-8792
▁specialty	-8793
▁supplying	-8794
▁supported	-8795
▁witnessed	-8796
containment	-8797
▁Kanjurmarg	-8798
▁Marathwada	-8799
▁Ramdesivir	-8800
▁Scientific	-8801
▁Sindhudurg	-8802
▁amplifying	-8803
▁attendance	-8804
▁authorized	-8805
▁biomedical	-8806
▁commitment	-8807
▁confidence	-8808
▁conspiracy	-8809
▁discussing	-8810
▁evaluation	-8811
▁experiment	-8812
▁expression	-8813
▁foreigners	-8814
▁installing	-8815
▁minimizing	-8816
▁newspapers	-8817
▁personally	-8818
▁prohibited	-8819
▁purchasing	-8820
▁regulation	-8821
▁relaxation	-8822
▁respirator	-8823
▁restaurant	-8824
▁similarity	-8825
▁staggering	-8826
▁strengthen	-8827
▁supporting	-8828
▁thoroughly	-8829
▁threatened	-8830
▁umifenovir	-8831
▁undertaken	-8832
habilitation	-8833
▁Ganeshotsav	-8834
▁Hiranandani	-8835
▁Preliminary	-8836
▁Remedacivir	-8837
▁Territories	-8838
▁comfortable	-8839
▁conclusions	-8840
▁conferences	-8841
▁connections	-8842
▁devastating	-8843
▁favipiravir	-8844
▁obstruction	-8845
▁overlapping	-8846
▁participate	-8847
▁partnership	-8848
▁percentages	-8849
▁populations	-8850
▁preclinical	-8851
▁recruitment	-8852
▁substantial	-8853
▁Gangakhedkar	-8854
▁Immunization	-8855
▁Intelligence	-8856
▁Particularly	-8857
▁Phylogenetic	-8858
▁associations	-8859
▁confirmation	-8860
▁consistently	-8861
▁coordination	-8862
▁implementing	-8863
▁intervention	-8864
▁preventative	-8865
▁technologies	-8866
▁unemployment	-8867
▁Approximately	-8868
▁Manufacturers	-8869
▁comorbidities	-8870
▁contamination	-8871
▁institutional	-8872
▁opportunities	-8873
▁participation	-8874
▁manifestations	-8875
▁cytomegalovirus	-8876
):	-8877
-,	-8878
33	-8879
57	-8880
58	-8881
8.	-8882
97	-8883
At	-8884
EU	-8885
FI	-8886
IG	-8887
LD	-8888
ND	-8889
NO	-8890
PS	-8891
RO	-8892
Sh	-8893
VA	-8894
YU	-8895
ae	-8896
gl	-8897
ho	-8898
hr	-8899
ht	-8900
ni	-8901
no	-8902
va	-8903
19-	-8904
300	-8905
484	-8906
9).	-8907
All	-8908
Ant	-8909
Arg	-8910
COV	-8911
Con	-8912
DNA	-8913
ISC	-8914
LIC	-8915
MED	-8916
One	-8917
PPE	-8918
abb	-8919
ads	-8920
ady	-8921
agi	-8922
ago	-8923
asm	-8924
azz	-8925
che	-8926
haz	-8927
hex	-8928
hri	-8929
imm	-8930
ivo	-8931
kay	-8932
law	-8933
lob	-8934
mir	-8935
nai	-8936
nao	-8937
nea	-8938
nob	-8939
orp	-8940
sus	-8941
tap	-8942
uel	-8943
uti	-8944
waj	-8945
▁02	-8946
▁49	-8947
▁5,	-8948
▁51	-8949
▁76	-8950
▁9.	-8951
▁Ba	-8952
▁CN	-8953
▁DC	-8954
▁IT	-8955
▁Ir	-8956
▁Ki	-8957
▁Mo	-8958
▁OC	-8959
▁Ob	-8960
▁Od	-8961
▁Om	-8962
▁Po	-8963
▁Sl	-8964
▁Uj	-8965
▁Ve	-8966
▁ho	-8967
▁ie	-8968
▁il	-8969
▁od	-8970
▁ow	-8971
ICEF	-8972
Stud	-8973
What	-8974
ague	-8975
anya	-8976
arge	-8977
ario	-8978
arya	-8979
asis	-8980
asks	-8981
atab	-8982
cell	-8983
comm	-8984
cost	-8985
crub	-8986
ella	-8987
emer	-8988
erch	-8989
ersc	-8990
esty	-8991
ette	-8992
fill	-8993
fold	-8994
gava	-8995
heel	-8996
icin	-8997
iled	-8998
itam	-8999
ivic	-9000
lead	-9001
memb	-9002
nath	-9003
ogue	-9004
oida	-9005
olid	-9006
onel	-9007
oolw	-9008
orne	-9009
ours	-9010
owns	-9011
path	-9012
pnea	-9013
prof	-9014
rase	-9015
reen	-9016
rene	-9017
roid	-9018
romb	-9019
rupt	-9020
ryan	-9021
trop	-9022
vals	-9023
vect	-9024
ware	-9025
week	-9026
whad	-9027
▁(4)	-9028
▁130	-9029
▁14-	-9030
▁199	-9031
▁21.	-9032
▁290	-9033
▁60-	-9034
▁82-	-9035
▁Bas	-9036
▁Bud	-9037
▁CMR	-9038
▁Dip	-9039
▁Eid	-9040
▁Ens	-9041
▁Fed	-9042
▁Gam	-9043
▁Get	-9044
▁Hel	-9045
▁IgG	-9046
▁Jag	-9047
▁Lif	-9048
▁Lim	-9049
▁Lit	-9050
▁Low	-9051
▁Maj	-9052
▁Mil	-9053
▁ORD	-9054
▁Pit	-9055
▁Pok	-9056
▁Rom	-9057
▁Saf	-9058
▁Sav	-9059
▁Sin	-9060
▁Sum	-9061
▁Sus	-9062
▁Tar	-9063
▁Wak	-9064
▁bil	-9065
▁bit	-9066
▁cat	-9067
▁din	-9068
▁dog	-9069
▁iOS	-9070
▁jet	-9071
▁jud	-9072
▁mag	-9073
▁mix	-9074
▁mot	-9075
▁rad	-9076
▁tri	-9077
NOMED	-9078
NTech	-9079
afood	-9080
alyan	-9081
anasi	-9082
anjal	-9083
apsid	-9084
arkar	-9085
atiya	-9086
ausea	-9087
borns	-9088
cious	-9089
clude	-9090
ender	-9091
enses	-9092
garet	-9093
gents	-9094
gered	-9095
gical	-9096
hatma	-9097
heral	-9098
hexid	-9099
https	-9100
icked	-9101
igens	-9102
iling	-9103
iques	-9104
isons	-9105
melon	-9106
oform	-9107
orter	-9108
orths	-9109
osupp	-9110
ovine	-9111
pared	-9112
phone	-9113
place	-9114
there	-9115
trosp	-9116
ulinj	-9117
uming	-9118
usive	-9119
verty	-9120
wered	-9121
▁1000	-9122
▁1700	-9123
▁2000	-9124
▁2010	-9125
▁2015	-9126
▁Anur	-9127
▁Appr	-9128
▁Area	-9129
▁Bhos	-9130
▁CBSE	-9131
▁Chen	-9132
▁Conf	-9133
▁Corn	-9134
▁Emph	-9135
▁Farm	-9136
▁Find	-9137
▁Garg	-9138
▁Give	-9139
▁Good	-9140
▁HERE	-9141
▁Hing	-9142
▁Hist	-9143
▁Hung	-9144
▁Insp	-9145
▁Jazz	-9146
▁Juda	-9147
▁Kuta	-9148
▁Liqu	-9149
▁Main	-9150
▁Make	-9151
▁Nana	-9152
▁Navi	-9153
▁Parb	-9154
▁Prob	-9155
▁Rail	-9156
▁Ranj	-9157
▁Room	-9158
▁Safe	-9159
▁Shop	-9160
▁Shri	-9161
▁Stay	-9162
▁Swed	-9163
▁Turk	-9164
▁Usha	-9165
▁Viol	-9166
▁Yoga	-9167
▁Your	-9168
▁Zind	-9169
▁acts	-9170
▁aden	-9171
▁bars	-9172
▁bear	-9173
▁bend	-9174
▁blow	-9175
▁burn	-9176
▁chat	-9177
▁core	-9178
▁cove	-9179
▁dark	-9180
▁epic	-9181
▁exud	-9182
▁file	-9183
▁film	-9184
▁fled	-9185
▁forb	-9186
▁fuel	-9187
▁guru	-9188
▁hurt	-9189
▁iron	-9190
▁itin	-9191
▁legs	-9192
▁love	-9193
▁neck	-9194
▁pads	-9195
▁parl	-9196
▁poul	-9197
▁pray	-9198
▁prol	-9199
▁purs	-9200
▁quot	-9201
▁reop	-9202
▁rhin	-9203
▁rich	-9204
▁slot	-9205
▁stem	-9206
▁stip	-9207
▁tool	-9208
▁trop	-9209
▁tube	-9210
▁vivo	-9211
▁zero	-9212
During	-9213
achers	-9214
angaon	-9215
arcity	-9216
ashant	-9217
astern	-9218
ceived	-9219
closed	-9220
econom	-9221
etings	-9222
genome	-9223
hiraja	-9224
hriyal	-9225
iaries	-9226
iction	-9227
ildren	-9228
inagar	-9229
ingent	-9230
iology	-9231
lywood	-9232
orknob	-9233
reased	-9234
stance	-9235
thanol	-9236
threat	-9237
uating	-9238
uctant	-9239
ypical	-9240
▁2019-	-9241
▁6,000	-9242
▁7,000	-9243
▁Acute	-9244
▁Advis	-9245
▁Antib	-9246
▁Award	-9247
▁Awhad	-9248
▁Bajaj	-9249
▁Baram	-9250
▁Begin	-9251
▁Bryan	-9252
▁Build	-9253
▁Color	-9254
▁Dolvi	-9255
▁Front	-9256
▁Great	-9257
▁Hindi	-9258
▁House	-9259
▁Jyoti	-9260
▁Large	-9261
▁Lodha	-9262
▁Maham	-9263
▁Noida	-9264
▁Often	-9265
▁Older	-9266
▁Sabha	-9267
▁Sangh	-9268
▁Satav	-9269
▁Sathe	-9270
▁Seema	-9271
▁Unnao	-9272
▁Viral	-9273
▁Woolw	-9274
▁abund	-9275
▁abuse	-9276
▁anger	-9277
▁arena	-9278
▁aside	-9279
▁avian	-9280
▁binds	-9281
▁borne	-9282
▁careg	-9283
▁cloud	-9284
▁coast	-9285
▁coded	-9286
▁deple	-9287
▁dirty	-9288
▁discl	-9289
▁displ	-9290
▁doubt	-9291
▁emoll	-9292
▁ended	-9293
▁exhib	-9294
▁fires	-9295
▁gross	-9296
▁grown	-9297
▁hasht	-9298
▁illeg	-9299
▁inexp	-9300
▁inhab	-9301
▁innov	-9302
▁kilos	-9303
▁kinds	-9304
▁lines	-9305
▁lists	-9306
▁loans	-9307
▁looms	-9308
▁moist	-9309
▁outer	-9310
▁perip	-9311
▁pools	-9312
▁proof	-9313
▁proud	-9314
▁raise	-9315
▁recip	-9316
▁rhACE	-9317
▁runny	-9318
▁shedd	-9319
▁ships	-9320
▁shout	-9321
▁slums	-9322
▁socio	-9323
▁solub	-9324
▁stain	-9325
▁telev	-9326
▁throw	-9327
▁trust	-9328
▁ultim	-9329
▁veter	-9330
▁wipes	-9331
▁yield	-9332
Covacin	-9333
Figures	-9334
agnosed	-9335
casting	-9336
ecurity	-9337
ficient	-9338
icoster	-9339
imental	-9340
itating	-9341
ocapsid	-9342
primary	-9343
regular	-9344
▁Access	-9345
▁Animal	-9346
▁Compar	-9347
▁Crisil	-9348
▁Ensure	-9349
▁Except	-9350
▁Expert	-9351
▁Feluda	-9352
▁Inform	-9353
▁Invest	-9354
▁Kakkar	-9355
▁Kalyan	-9356
▁Kapoor	-9357
▁Lesson	-9358
▁Letter	-9359
▁Member	-9360
▁Nilesh	-9361
▁Number	-9362
▁Odisha	-9363
▁Orders	-9364
▁Preeti	-9365
▁Pritam	-9366
▁Prohib	-9367
▁Rashmi	-9368
▁Satish	-9369
▁Shahid	-9370
▁Shelar	-9371
▁Should	-9372
▁Tulinj	-9373
▁UNICEF	-9374
▁Vikram	-9375
▁absent	-9376
▁apprec	-9377
▁attach	-9378
▁behalf	-9379
▁checks	-9380
▁choice	-9381
▁cinema	-9382
▁clinic	-9383
▁combat	-9384
▁couldn	-9385
▁deputy	-9386
▁dinner	-9387
▁dryers	-9388
▁endang	-9389
▁engine	-9390
▁farmer	-9391
▁fitted	-9392
▁forced	-9393
▁fought	-9394
▁frames	-9395
▁frustr	-9396
▁gastro	-9397
▁halved	-9398
▁histor	-9399
▁kharif	-9400
▁lawyer	-9401
▁lesser	-9402
▁listen	-9403
▁liters	-9404
▁manage	-9405
▁namely	-9406
▁nausea	-9407
▁owners	-9408
▁pillow	-9409
▁planes	-9410
▁posted	-9411
▁potent	-9412
▁proved	-9413
▁queues	-9414
▁rarely	-9415
▁revers	-9416
▁sevent	-9417
▁shares	-9418
▁sister	-9419
▁spokes	-9420
▁street	-9421
▁transl	-9422
▁treats	-9423
▁tribal	-9424
▁urging	-9425
▁venous	-9426
▁washed	-9427
▁wiring	-9428
▁writes	-9429
Antibody	-9430
adesivir	-9431
aneously	-9432
approved	-9433
hexidine	-9434
isations	-9435
lockdown	-9436
membrane	-9437
olitical	-9438
stranded	-9439
terminal	-9440
vectored	-9441
▁Acharya	-9442
▁Adverse	-9443
▁Android	-9444
▁Cornell	-9445
▁Covaxin	-9446
▁Economy	-9447
▁Explain	-9448
▁Farmers	-9449
▁Hingoli	-9450
▁Iranian	-9451
▁Judaism	-9452
▁Mahatma	-9453
▁Markets	-9454
▁Nations	-9455
▁Patient	-9456
▁Pranjal	-9457
▁Primary	-9458
▁Results	-9459
▁Section	-9460
▁Serious	-9461
▁Shankar	-9462
▁Traders	-9463
▁Univers	-9464
▁Visakha	-9465
▁WHEREAS	-9466
▁Without	-9467
▁Zindagi	-9468
▁advance	-9469
▁aspects	-9470
▁assured	-9471
▁balance	-9472
▁besides	-9473
▁burning	-9474
▁carries	-9475
▁circuit	-9476
▁clarity	-9477
▁cleanse	-9478
▁cleaves	-9479
▁complic	-9480
▁convers	-9481
▁coveted	-9482
▁curfews	-9483
▁cutting	-9484
▁denying	-9485
▁dyspnea	-9486
▁equally	-9487
▁escaped	-9488
▁ethanol	-9489
▁examine	-9490
▁farming	-9491
▁focused	-9492
▁gardens	-9493
▁handful	-9494
▁hardest	-9495
▁harmful	-9496
▁housing	-9497
▁inquire	-9498
▁inspect	-9499
▁lagging	-9500
▁measles	-9501
▁moments	-9502
▁nucleic	-9503
▁offline	-9504
▁placebo	-9505
▁playing	-9506
▁polling	-9507
▁portion	-9508
▁poultry	-9509
▁poverty	-9510
▁remediv	-9511
▁removes	-9512
▁retrosp	-9513
▁sanitis	-9514
▁sharply	-9515
▁shifted	-9516
▁surpass	-9517
▁tenders	-9518
▁tissues	-9519
▁touched	-9520
▁unclear	-9521
▁vessels	-9522
▁virtual	-9523
▁visible	-9524
▁windows	-9525
September	-9526
ightening	-9527
oneliness	-9528
stitution	-9529
unication	-9530
▁Bhargava	-9531
▁Chairman	-9532
▁Colleges	-9533
▁Critical	-9534
▁Emphasis	-9535
▁Evidence	-9536
▁Industry	-9537
▁Instruct	-9538
▁Margaret	-9539
▁Nagarale	-9540
▁Narlikar	-9541
▁Navratri	-9542
▁Prashant	-9543
▁Princess	-9544
▁Province	-9545
▁Railways	-9546
▁Surgical	-9547
▁Varanasi	-9548
▁achieved	-9549
▁airports	-9550
▁attached	-9551
▁carriers	-9552
▁category	-9553
▁chickens	-9554
▁chimpanz	-9555
▁coaching	-9556
▁confined	-9557
▁consumer	-9558
▁contrace	-9559
▁daughter	-9560
▁descript	-9561
▁diagnose	-9562
▁disorder	-9563
▁doorknob	-9564
▁emphasis	-9565
▁expenses	-9566
▁exported	-9567
▁exudates	-9568
▁fraction	-9569
▁homeless	-9570
▁imported	-9571
▁inconven	-9572
▁injected	-9573
▁intended	-9574
▁invasive	-9575
▁mandated	-9576
▁marketed	-9577
▁neighbor	-9578
▁newborns	-9579
▁normally	-9580
▁northern	-9581
▁operated	-9582
▁overwhel	-9583
▁parental	-9584
▁payments	-9585
▁producer	-9586
▁promptly	-9587
▁remotely	-9588
▁resource	-9589
▁scarcity	-9590
▁terrible	-9591
▁thoughts	-9592
▁unwanted	-9593
▁vacation	-9594
▁weekends	-9595
▁worksite	-9596
ocilizumab	-9597
pathogenic	-9598
▁Argentina	-9599
▁Awareness	-9600
▁Bharatiya	-9601
▁Bollywood	-9602
▁Brazilian	-9603
▁Different	-9604
▁Estimates	-9605
▁Generally	-9606
▁Mahaparin	-9607
▁Otherwise	-9608
▁Pandurang	-9609
▁Pokhriyal	-9610
▁Relations	-9611
▁Vacancies	-9612
▁advertise	-9613
▁allocated	-9614
▁announces	-9615
▁apartment	-9616
▁behaviors	-9617
▁canceling	-9618
▁chemicals	-9619
▁complaint	-9620
▁concluded	-9621
▁confident	-9622
▁contained	-9623
▁correctly	-9624
▁covidosis	-9625
▁cremation	-9626
▁encourage	-9627
▁enteritis	-9628
▁festivals	-9629
▁followers	-9630
▁guarantee	-9631
▁hoteliers	-9632
▁impotence	-9633
▁intensity	-9634
▁intervals	-9635
▁isolating	-9636
▁localised	-9637
▁microscop	-9638
▁objective	-9639
▁observing	-9640
▁occurring	-9641
▁organisms	-9642
▁pathology	-9643
▁permanent	-9644
▁physician	-9645
▁producers	-9646
▁programme	-9647
▁promotion	-9648
▁reluctant	-9649
▁resistant	-9650
▁satisfact	-9651
▁spillover	-9652
▁standards	-9653
▁stimulate	-9654
▁stringent	-9655
▁suspicion	-9656
▁universal	-9657
▁violation	-9658
inistrative	-9659
threatening	-9660
▁Australian	-9661
▁Biological	-9662
▁Buddhiraja	-9663
▁Institutes	-9664
▁Laboratory	-9665
▁Permission	-9666
▁Ramchandra	-9667
▁Woolworths	-9668
▁attendants	-9669
▁basketball	-9670
▁calculated	-9671
▁completion	-9672
▁convenient	-9673
▁deployment	-9674
▁dermatitis	-9675
▁detergents	-9676
▁directives	-9677
▁disposable	-9678
▁distribute	-9679
▁emollients	-9680
▁eventually	-9681
▁harassment	-9682
▁immunocomp	-9683
▁injectable	-9684
▁lymphocyte	-9685
▁objections	-9686
▁officially	-9687
▁peripheral	-9688
▁physically	-9689
▁postponing	-9690
▁processing	-9691
▁repurposed	-9692
▁researcher	-9693
▁resolution	-9694
▁statements	-9695
▁techniques	-9696
▁ultimately	-9697
▁unexpected	-9698
▁vulnerable	-9699
▁Directorate	-9700
▁Prohibition	-9701
▁Respiratory	-9702
▁bloodstream	-9703
▁comparisons	-9704
▁concessions	-9705
▁contributed	-9706
▁crematorium	-9707
▁drastically	-9708
▁experiences	-9709
▁gastroenter	-9710
▁inactivated	-9711
▁inaugurated	-9712
▁indications	-9713
▁inexpensive	-9714
▁ingredients	-9715
▁intravenous	-9716
▁obligations	-9717
▁overcrowded	-9718
▁oxygenation	-9719
▁pneumocytes	-9720
▁politicians	-9721
▁progression	-9722
▁progressive	-9723
▁remedicavir	-9724
▁shopkeepers	-9725
▁susceptible	-9726
▁transaction	-9727
▁uncertainty	-9728
▁Occupational	-9729
▁Universities	-9730
▁alternatives	-9731
▁concentrator	-9732
▁connectivity	-9733
▁conversation	-9734
▁coordinating	-9735
▁environments	-9736
▁evolutionary	-9737
▁nucleocapsid	-9738
▁participants	-9739
▁pediatrician	-9740
▁performances	-9741
▁presentation	-9742
▁psychiatrist	-9743
▁reproduction	-9744
▁sufficiently	-9745
▁transactions	-9746
▁Practitioners	-9747
▁breastfeeding	-9748
▁concentrators	-9749
▁corresponding	-9750
▁decentralized	-9751
▁jurisdictions	-9752
▁organisations	-9753
▁psychological	-9754
▁retrospective	-9755
▁transmembrane	-9756
▁unnecessarily	-9757
▁Superintendent	-9758
▁infectiousness	-9759
▁misconceptions	-9760
▁recommendation	-9761
▁Mahaparinirvana	-9762
";	-9763
0%	-9764
23	-9765
31	-9766
39	-9767
4,	-9768
6.	-9769
81	-9770
85	-9771
98	-9772
AL	-9773
CI	-9774
FP	-9775
He	-9776
PO	-9777
PR	-9778
Re	-9779
TO	-9780
UM	-9781
UR	-9782
Un	-9783
au	-9784
da	-9785
dr	-9786
mo	-9787
-25	-9788
.2%	-9789
.30	-9790
275	-9791
3).	-9792
67,	-9793
BAI	-9794
EUA	-9795
Kar	-9796
NHS	-9797
Now	-9798
Our	-9799
RSS	-9800
Yan	-9801
ado	-9802
ael	-9803
asy	-9804
bec	-9805
bur	-9806
cra	-9807
eel	-9808
ere	-9809
ffs	-9810
hal	-9811
ham	-9812
hur	-9813
iff	-9814
ikk	-9815
ils	-9816
isa	-9817
ken	-9818
kha	-9819
khe	-9820
lah	-9821
mic	-9822
mor	-9823
nam	-9824
neh	-9825
ora	-9826
orb	-9827
pec	-9828
rif	-9829
ruk	-9830
ruz	-9831
sen	-9832
six	-9833
sts	-9834
tty	-9835
ura	-9836
via	-9837
▁3%	-9838
▁67	-9839
▁8)	-9840
▁91	-9841
▁AR	-9842
▁Cz	-9843
▁GS	-9844
▁Ku	-9845
▁SL	-9846
▁ta	-9847
,400	-9848
-19-	-9849
.7%)	-9850
/100	-9851
Chin	-9852
ICMR	-9853
Mult	-9854
Pati	-9855
Pune	-9856
akar	-9857
aksh	-9858
akur	-9859
alya	-9860
ammu	-9861
anan	-9862
anda	-9863
anta	-9864
atal	-9865
aved	-9866
azon	-9867
chid	-9868
copr	-9869
date	-9870
emor	-9871
ewel	-9872
fast	-9873
fied	-9874
ghai	-9875
heme	-9876
high	-9877
ibag	-9878
iece	-9879
inda	-9880
inho	-9881
iors	-9882
ipin	-9883
irji	-9884
isol	-9885
jwal	-9886
kesh	-9887
last	-9888
lict	-9889
lord	-9890
name	-9891
nant	-9892
neys	-9893
oche	-9894
odia	-9895
offs	-9896
ogya	-9897
oinc	-9898
oles	-9899
omal	-9900
oors	-9901
ouch	-9902
ouis	-9903
ples	-9904
poly	-9905
preg	-9906
pses	-9907
rets	-9908
thes	-9909
uate	-9910
ugal	-9911
umta	-9912
urba	-9913
utin	-9914
utri	-9915
xico	-9916
▁(10	-9917
▁(25	-9918
▁102	-9919
▁110	-9920
▁113	-9921
▁114	-9922
▁115	-9923
▁16,	-9924
▁17)	-9925
▁17,	-9926
▁2-3	-9927
▁21,	-9928
▁22.	-9929
▁240	-9930
▁25%	-9931
▁25.	-9932
▁386	-9933
▁5),	-9934
▁750	-9935
▁835	-9936
▁96%	-9937
▁Anj	-9938
▁Aud	-9939
▁Aut	-9940
▁BCE	-9941
▁BGI	-9942
▁Ben	-9943
▁Bil	-9944
▁Cur	-9945
▁Cyt	-9946
▁Det	-9947
▁Dom	-9948
▁Dry	-9949
▁ENT	-9950
▁Few	-9951
▁GDP	-9952
▁Her	-9953
▁Hon	-9954
▁IFN	-9955
▁Inc	-9956
▁Inf	-9957
▁Ire	-9958
▁Jha	-9959
▁Joe	-9960
▁Ksh	-9961
▁Liu	-9962
▁MUM	-9963
▁Meh	-9964
▁Mel	-9965
▁Min	-9966
▁Mis	-9967
▁Mob	-9968
▁Nis	-9969
▁Obs	-9970
▁Piy	-9971
▁Rao	-9972
▁Rek	-9973
▁Rev	-9974
▁Sri	-9975
▁Suj	-9976
▁Tax	-9977
▁UTC	-9978
▁Yog	-9979
▁awa	-9980
▁der	-9981
▁dos	-9982
▁egg	-9983
▁err	-9984
▁eve	-9985
▁fan	-9986
▁fet	-9987
▁gar	-9988
▁god	-9989
▁hay	-9990
▁hep	-9991
▁hub	-9992
▁mol	-9993
▁nin	-9994
▁pap	-9995
▁ray	-9996
▁sod	-9997
▁tox	-9998
▁wis	-9999
▁wra	-10000
-19),	-10001
Coron	-10002
about	-10003
actic	-10004
agher	-10005
ailed	-10006
aints	-10007
akshi	-10008
alkon	-10009
ampur	-10010
andum	-10011
ankar	-10012
askat	-10013
attle	-10014
burgh	-10015
contr	-10016
craft	-10017
enetr	-10018
enues	-10019
ergic	-10020
erjee	-10021
erted	-10022
eswar	-10023
ework	-10024
harth	-10025
heast	-10026
house	-10027
iable	-10028
icken	-10029
icles	-10030
idase	-10031
ijing	-10032
ikhil	-10033
illac	-10034
inate	-10035
inery	-10036
ircle	-10037
iries	-10038
isher	-10039
japur	-10040
kumar	-10041
month	-10042
ochip	-10043
olism	-10044
olson	-10045
ombay	-10046
oprop	-10047
orthy	-10048
oscow	-10049
otton	-10050
print	-10051
rella	-10052
riage	-10053
seled	-10054
still	-10055
super	-10056
thony	-10057
trant	-10058
ubble	-10059
ueens	-10060
umped	-10061
urabh	-10062
ustan	-10063
viral	-10064
wheel	-10065
which	-10066
ystem	-10067
▁10),	-10068
▁100%	-10069
▁1200	-10070
▁1500	-10071
▁1968	-10072
▁2002	-10073
▁2018	-10074
▁Army	-10075
▁Baat	-10076
▁Baid	-10077
▁Bars	-10078
▁COEP	-10079
▁Camb	-10080
▁Chak	-10081
▁Clic	-10082
▁Cure	-10083
▁Dodi	-10084
▁Geor	-10085
▁HRCT	-10086
▁Jans	-10087
▁Kang	-10088
▁Kast	-10089
▁Kath	-10090
▁Kent	-10091
▁Khad	-10092
▁Khaw	-10093
▁MLAs	-10094
▁Mass	-10095
▁Megh	-10096
▁Nile	-10097
▁None	-10098
▁Note	-10099
▁Pare	-10100
▁Path	-10101
▁Raje	-10102
▁Raju	-10103
▁Rane	-10104
▁Roll	-10105
▁Sanj	-10106
▁Sans	-10107
▁Sant	-10108
▁Shal	-10109
▁Shan	-10110
▁Sign	-10111
▁Srin	-10112
▁Supe	-10113
▁Time	-10114
▁UPSC	-10115
▁Ulka	-10116
▁Vall	-10117
▁Vish	-10118
▁Wadi	-10119
▁Wedd	-10120
▁Yash	-10121
▁amid	-10122
▁aren	-10123
▁asks	-10124
▁bags	-10125
▁cert	-10126
▁conv	-10127
▁detr	-10128
▁duck	-10129
▁east	-10130
▁elic	-10131
▁evol	-10132
▁feat	-10133
▁gate	-10134
▁ghat	-10135
▁gluc	-10136
▁heed	-10137
▁idol	-10138
▁kiss	-10139
▁lips	-10140
▁lose	-10141
▁loud	-10142
▁maid	-10143
▁mall	-10144
▁manu	-10145
▁mini	-10146
▁mour	-10147
▁neon	-10148
▁nons	-10149
▁okay	-10150
▁ours	-10151
▁peer	-10152
▁pigs	-10153
▁plus	-10154
▁prin	-10155
▁qual	-10156
▁reag	-10157
▁rent	-10158
▁resc	-10159
▁rice	-10160
▁rins	-10161
▁sand	-10162
▁sets	-10163
▁song	-10164
▁spot	-10165
▁subs	-10166
▁symp	-10167
▁tack	-10168
▁tric	-10169
▁trig	-10170
▁unre	-10171
▁unus	-10172
▁wall	-10173
▁wast	-10174
▁worn	-10175
▁zinc	-10176
Indian	-10177
Mumbai	-10178
ajwadi	-10179
akshmi	-10180
akumar	-10181
alized	-10182
asaheb	-10183
astics	-10184
ateral	-10185
aurani	-10186
charge	-10187
filled	-10188
iality	-10189
illing	-10190
ipping	-10191
isodes	-10192
kesari	-10193
liness	-10194
ologic	-10195
onding	-10196
onucle	-10197
orized	-10198
orkers	-10199
orrhea	-10200
ostics	-10201
photer	-10202
porter	-10203
reader	-10204
taking	-10205
terial	-10206
thesis	-10207
ulates	-10208
ximity	-10209
▁1,100	-10210
▁1,500	-10211
▁2017.	-10212
▁2018,	-10213
▁2020)	-10214
▁Ankit	-10215
▁Claim	-10216
▁Coles	-10217
▁Czech	-10218
▁Daily	-10219
▁Daman	-10220
▁Enter	-10221
▁Event	-10222
▁Guang	-10223
▁Imran	-10224
▁Irani	-10225
▁James	-10226
▁Jammu	-10227
▁Kapil	-10228
▁Kumta	-10229
▁Louis	-10230
▁Major	-10231
▁Manoj	-10232
▁Media	-10233
▁Never	-10234
▁Niger	-10235
▁Night	-10236
▁Novel	-10237
▁Paper	-10238
▁Pawan	-10239
▁Phule	-10240
▁Pooja	-10241
▁Rawat	-10242
▁Regul	-10243
▁Rohit	-10244
▁Sagar	-10245
▁Sales	-10246
▁Small	-10247
▁Swami	-10248
▁Urban	-10249
▁Vihar	-10250
▁Vikas	-10251
▁Vinod	-10252
▁Voter	-10253
▁Wakle	-10254
▁Waste	-10255
▁Zykov	-10256
▁aimed	-10257
▁analy	-10258
▁backs	-10259
▁bread	-10260
▁cares	-10261
▁cited	-10262
▁civet	-10263
▁curve	-10264
▁datab	-10265
▁dozen	-10266
▁drops	-10267
▁facem	-10268
▁fruit	-10269
▁gases	-10270
▁green	-10271
▁homet	-10272
▁hurry	-10273
▁jewel	-10274
▁kills	-10275
▁marks	-10276
▁match	-10277
▁monks	-10278
▁mouse	-10279
▁mucom	-10280
▁notew	-10281
▁pilgr	-10282
▁plain	-10283
▁plays	-10284
▁polio	-10285
▁posed	-10286
▁rally	-10287
▁reput	-10288
▁resid	-10289
▁risky	-10290
▁royal	-10291
▁score	-10292
▁smart	-10293
▁spray	-10294
▁stamp	-10295
▁taste	-10296
▁telec	-10297
▁thick	-10298
▁valve	-10299
▁views	-10300
General	-10301
acteria	-10302
ameters	-10303
antigen	-10304
develop	-10305
entials	-10306
etected	-10307
igenous	-10308
irsagar	-10309
menting	-10310
ographs	-10311
raising	-10312
reading	-10313
stitial	-10314
theless	-10315
uctions	-10316
unately	-10317
unction	-10318
valence	-10319
▁Alibag	-10320
▁Amazon	-10321
▁Anyone	-10322
▁Bakshi	-10323
▁Balram	-10324
▁Bolson	-10325
▁Bombay	-10326
▁Budruk	-10327
▁Cadila	-10328
▁Compan	-10329
▁Curfew	-10330
▁Deepak	-10331
▁Diplom	-10332
▁Gilada	-10333
▁Huanan	-10334
▁Kanpur	-10335
▁MUMBAI	-10336
▁Menstr	-10337
▁Mexico	-10338
▁Moscow	-10339
▁Naxals	-10340
▁Nikhil	-10341
▁Observ	-10342
▁Parcel	-10343
▁Parner	-10344
▁Piyush	-10345
▁Provid	-10346
▁Retail	-10347
▁Savita	-10348
▁Scheme	-10349
▁Sharan	-10350
▁Sweden	-10351
▁Taloja	-10352
▁Thakur	-10353
▁Ujjwal	-10354
▁Within	-10355
▁acting	-10356
▁alerts	-10357
▁alpaca	-10358
▁assemb	-10359
▁assure	-10360
▁backed	-10361
▁beings	-10362
▁belief	-10363
▁bottom	-10364
▁bridge	-10365
▁citing	-10366
▁coughs	-10367
▁county	-10368
▁couple	-10369
▁deadly	-10370
▁declar	-10371
▁defeat	-10372
▁distin	-10373
▁donors	-10374
▁eleven	-10375
▁escape	-10376
▁garden	-10377
▁heated	-10378
▁hunger	-10379
▁ignore	-10380
▁immers	-10381
▁irresp	-10382
▁kidney	-10383
▁landed	-10384
▁locals	-10385
▁memory	-10386
▁microb	-10387
▁missed	-10388
▁movies	-10389
▁overse	-10390
▁penetr	-10391
▁poison	-10392
▁raises	-10393
▁ranges	-10394
▁refund	-10395
▁repair	-10396
▁resemb	-10397
▁rolled	-10398
▁sadhus	-10399
▁septic	-10400
▁simult	-10401
▁sodium	-10402
▁spoken	-10403
▁storms	-10404
▁stroke	-10405
▁submit	-10406
▁taught	-10407
▁thrown	-10408
▁timing	-10409
▁transp	-10410
▁triple	-10411
▁upload	-10412
▁vector	-10413
▁voices	-10414
▁weaker	-10415
Everyone	-10416
Lockdown	-10417
November	-10418
Patients	-10419
alkonium	-10420
cheduled	-10421
commerce	-10422
criptase	-10423
ertility	-10424
imbalkar	-10425
iversary	-10426
pregnant	-10427
wanathan	-10428
▁Airport	-10429
▁Anthony	-10430
▁Bahirji	-10431
▁Beijing	-10432
▁Bhosale	-10433
▁Chennai	-10434
▁Comfort	-10435
▁Concern	-10436
▁Epidemi	-10437
▁Goddess	-10438
▁Gulhane	-10439
▁Ireland	-10440
▁Janssen	-10441
▁Jawahar	-10442
▁Mansukh	-10443
▁Michael	-10444
▁Outside	-10445
▁Overall	-10446
▁Parents	-10447
▁Pension	-10448
▁Pradhan	-10449
▁Remedic	-10450
▁Reports	-10451
▁Reuters	-10452
▁Romania	-10453
▁Saurabh	-10454
▁Seafood	-10455
▁Seattle	-10456
▁Staying	-10457
▁Strateg	-10458
▁Surekha	-10459
▁Tracing	-10460
▁affixed	-10461
▁arrests	-10462
▁batches	-10463
▁broader	-10464
▁centres	-10465
▁charged	-10466
▁cheaper	-10467
▁cleaner	-10468
▁comprom	-10469
▁consent	-10470
▁corpses	-10471
▁couples	-10472
▁creates	-10473
▁crucial	-10474
▁culture	-10475
▁declare	-10476
▁densely	-10477
▁designs	-10478
▁desired	-10479
▁discour	-10480
▁distant	-10481
▁dollars	-10482
▁eastern	-10483
▁embassy	-10484
▁encoded	-10485
▁express	-10486
▁extreme	-10487
▁founded	-10488
▁freight	-10489
▁glycopr	-10490
▁goddess	-10491
▁greatly	-10492
▁hashtag	-10493
▁helpful	-10494
▁ignored	-10495
▁indoors	-10496
▁induced	-10497
▁inhaled	-10498
▁invited	-10499
▁isoprop	-10500
▁issuing	-10501
▁kidneys	-10502
▁lacking	-10503
▁landing	-10504
▁layoffs	-10505
▁locally	-10506
▁mislead	-10507
▁monsoon	-10508
▁monthly	-10509
▁neither	-10510
▁notices	-10511
▁paramed	-10512
▁planted	-10513
▁posters	-10514
▁praised	-10515
▁proceed	-10516
▁publish	-10517
▁remarks	-10518
▁respect	-10519
▁satisfy	-10520
▁seating	-10521
▁servers	-10522
▁shouldn	-10523
▁stories	-10524
▁subunit	-10525
▁suffers	-10526
▁surveys	-10527
▁sustain	-10528
▁temples	-10529
▁touches	-10530
▁virions	-10531
▁visibly	-10532
▁weapons	-10533
▁weather	-10534
According	-10535
Bioentech	-10536
Chinchwad	-10537
chidanand	-10538
including	-10539
olidation	-10540
ovachield	-10541
peciality	-10542
ueensland	-10543
▁Airlines	-10544
▁Akhilesh	-10545
▁Banerjee	-10546
▁Baramati	-10547
▁Cadillac	-10548
▁Cambodia	-10549
▁Campaign	-10550
▁Chandwad	-10551
▁Chaurani	-10552
▁Concerns	-10553
▁Diseases	-10554
▁Epidemic	-10555
▁Exercise	-10556
▁Headache	-10557
▁Jamnagar	-10558
▁Kasturba	-10559
▁Numerous	-10560
▁Parbhani	-10561
▁Planning	-10562
▁Politico	-10563
▁Premnath	-10564
▁Previous	-10565
▁Remember	-10566
▁Shanghai	-10567
▁acquaint	-10568
▁advising	-10569
▁aerosols	-10570
▁aircraft	-10571
▁antigens	-10572
▁applying	-10573
▁argument	-10574
▁attacked	-10575
▁baseless	-10576
▁bathroom	-10577
▁chloride	-10578
▁churches	-10579
▁circular	-10580
▁claiming	-10581
▁collapse	-10582
▁concerts	-10583
▁conducts	-10584
▁creation	-10585
▁crowding	-10586
▁customer	-10587
▁database	-10588
▁deciding	-10589
▁declares	-10590
▁diverged	-10591
▁doubling	-10592
▁educated	-10593
▁employed	-10594
▁enclosed	-10595
▁episodes	-10596
▁equipped	-10597
▁examples	-10598
▁featured	-10599
▁focusing	-10600
▁hampered	-10601
▁horrific	-10602
▁interact	-10603
▁landlord	-10604
▁lineages	-10605
▁matching	-10606
▁midnight	-10607
▁mitigate	-10608
▁neonatal	-10609
▁ordering	-10610
▁packages	-10611
▁patterns	-10612
▁prevents	-10613
▁punitive	-10614
▁refriger	-10615
▁refusing	-10616
▁reminded	-10617
▁scenario	-10618
▁shutting	-10619
▁sleeping	-10620
▁survived	-10621
▁swingers	-10622
▁symbolic	-10623
▁tendency	-10624
▁toxicity	-10625
▁traveled	-10626
▁verified	-10627
▁withdrew	-10628
▁worsened	-10629
ifications	-10630
photericin	-10631
regulation	-10632
sufficient	-10633
understand	-10634
▁Admission	-10635
▁Bhayandar	-10636
▁Bolsonaro	-10637
▁Christian	-10638
▁Coalition	-10639
▁Diagnosis	-10640
▁Extremely	-10641
▁Gallagher	-10642
▁Gupteswar	-10643
▁Hindustan	-10644
▁Increased	-10645
▁Inspector	-10646
▁Meghalaya	-10647
▁Officials	-10648
▁Regarding	-10649
▁Samajwadi	-10650
▁Shortness	-10651
▁Siddharth	-10652
▁Yesterday	-10653
▁accessory	-10654
▁approving	-10655
▁benefited	-10656
▁breakfast	-10657
▁cardboard	-10658
▁causative	-10659
▁celebrate	-10660
▁civilians	-10661
▁counseled	-10662
▁coworkers	-10663
▁cryogenic	-10664
▁declaring	-10665
▁developer	-10666
▁dismissal	-10667
▁distances	-10668
▁encounter	-10669
▁entrusted	-10670
▁enveloped	-10671
▁eradicate	-10672
▁excessive	-10673
▁forbidden	-10674
▁framework	-10675
▁hepatitis	-10676
▁hometowns	-10677
▁housework	-10678
▁inhabited	-10679
▁installed	-10680
▁interests	-10681
▁irregular	-10682
▁literally	-10683
▁meanwhile	-10684
▁microchip	-10685
▁multiplex	-10686
▁nationals	-10687
▁naturally	-10688
▁neglected	-10689
▁obtaining	-10690
▁partially	-10691
▁penalized	-10692
▁positives	-10693
▁proximity	-10694
▁purchases	-10695
▁reminders	-10696
▁replicase	-10697
▁reviewing	-10698
▁satisfied	-10699
▁schedules	-10700
▁selection	-10701
▁sequences	-10702
▁similarly	-10703
▁somewhere	-10704
▁stressful	-10705
▁substance	-10706
▁succeeded	-10707
▁surgeries	-10708
▁synthesis	-10709
▁Addressing	-10710
▁Commenting	-10711
▁Employment	-10712
▁Explaining	-10713
▁Hindkesari	-10714
▁Infections	-10715
▁Journalist	-10716
▁Kshirsagar	-10717
▁Responding	-10718
▁adenovirus	-10719
▁affiliated	-10720
▁ambulatory	-10721
▁cellphones	-10722
▁conclusion	-10723
▁consulting	-10724
▁deficiency	-10725
▁depression	-10726
▁describing	-10727
▁designated	-10728
▁diagnostic	-10729
▁documented	-10730
▁emphasized	-10731
▁exercising	-10732
▁formulated	-10733
▁homologous	-10734
▁immunosupp	-10735
▁indication	-10736
▁influenced	-10737
▁innovative	-10738
▁inspection	-10739
▁instituted	-10740
▁integrated	-10741
▁intestines	-10742
▁loneliness	-10743
▁meaningful	-10744
▁negatively	-10745
▁noteworthy	-10746
▁organizing	-10747
▁originated	-10748
▁parameters	-10749
▁pharmacies	-10750
▁prescribed	-10751
▁progressed	-10752
▁protesting	-10753
▁reasonable	-10754
▁recipients	-10755
▁registrant	-10756
▁remarkable	-10757
▁requesting	-10758
▁reservoirs	-10759
▁rhinovirus	-10760
▁structural	-10761
▁substances	-10762
▁witnessing	-10763
▁Agriculture	-10764
▁Diagnostics	-10765
▁Discussions	-10766
▁Governments	-10767
▁Maintaining	-10768
▁Tocilizumab	-10769
▁accommodate	-10770
▁anniversary	-10771
▁antibiotics	-10772
▁chimpanzees	-10773
▁cleanliness	-10774
▁complaining	-10775
▁contractors	-10776
▁cooperation	-10777
▁corticoster	-10778
▁diminishing	-10779
▁directorate	-10780
▁efficiently	-10781
▁endangering	-10782
▁enforceable	-10783
▁enhancement	-10784
▁exacerbated	-10785
▁expenditure	-10786
▁fertilizers	-10787
▁identifying	-10788
▁ineffective	-10789
▁mucomycosis	-10790
▁overwhelmed	-10791
▁polyprotein	-10792
▁reliability	-10793
▁remediation	-10794
▁supermarket	-10795
▁transporter	-10796
transcriptase	-10797
▁Agricultural	-10798
▁Asymptomatic	-10799
▁Availability	-10800
▁Construction	-10801
▁Instructions	-10802
▁Nevertheless	-10803
▁Pediatrician	-10804
▁benzalkonium	-10805
▁commissioned	-10806
▁competitions	-10807
▁deteriorated	-10808
▁developments	-10809
▁disabilities	-10810
▁dramatically	-10811
▁improvements	-10812
▁increasingly	-10813
▁interactions	-10814
▁interstitial	-10815
▁pathological	-10816
▁prescription	-10817
▁reproductive	-10818
pharmaceutical	-10819
▁Sachchidanand	-10820
▁beneficiaries	-10821
▁biotechnology	-10822
▁bronchiolitis	-10823
▁chlorhexidine	-10824
▁concentration	-10825
▁consideration	-10826
▁consolidation	-10827
▁contraceptive	-10828
▁controversial	-10829
▁gynecologists	-10830
▁nonstructural	-10831
▁transmissible	-10832
▁understanding	-10833
▁Administrative	-10834
▁investigations	-10835
▁simultaneously	-10836
▁superintendent	-10837
▁susceptibility	-10838
▁administrations	-10839
▁characteristics	-10840
▁gastroenteritis	-10841
▁hospitalisation	-10842
")	-10843
/7	-10844
1.	-10845
4)	-10846
53	-10847
61	-10848
64	-10849
73	-10850
75	-10851
76	-10852
8%	-10853
AE	-10854
BO	-10855
Cl	-10856
En	-10857
HC	-10858
LR	-10859
Me	-10860
Ox	-10861
PL	-10862
PT	-10863
Ph	-10864
Pr	-10865
Rp	-10866
Rs	-10867
SL	-10868
To	-10869
UB	-10870
Wh	-10871
YC	-10872
ck	-10873
eg	-10874
mm	-10875
qi	-10876
ux	-10877
yr	-10878
yx	-10879
zh	-10880
-2)	-10881
-64	-10882
.38	-10883
.4%	-10884
.5%	-10885
.51	-10886
/20	-10887
3,8	-10888
400	-10889
452	-10890
50,	-10891
8%)	-10892
ATA	-10893
ATE	-10894
Asp	-10895
DCL	-10896
Des	-10897
His	-10898
IDS	-10899
78	-10900
Al	-10901
IU	-10902
zo	-10903
19.	-10904
724	-10905
ILI	-10906
ITY	-10907
Ile	-10908
LDI	-10909
LID	-10910
Pro	-10911
RSC	-10912
Tyr	-10913
Val	-10914
adj	-10915
apn	-10916
asa	-10917
aut	-10918
aws	-10919
aza	-10920
azy	-10921
big	-10922
dRp	-10923
def	-10924
des	-10925
ecr	-10926
een	-10927
eli	-10928
eon	-10929
fri	-10930
gad	-10931
had	-10932
hew	-10933
hiw	-10934
how	-10935
iev	-10936
ipt	-10937
let	-10938
los	-10939
mis	-10940
naz	-10941
oes	-10942
oma	-10943
osa	-10944
pro	-10945
rem	-10946
rid	-10947
run	-10948
tah	-10949
tha	-10950
tru	-10951
tur	-10952
uka	-10953
unj	-10954
uri	-10955
usc	-10956
vol	-10957
ype	-10958
zha	-10959
▁(8	-10960
▁--	-10961
▁04	-10962
▁1-	-10963
▁5%	-10964
▁58	-10965
▁6%	-10966
▁6)	-10967
▁7-	-10968
▁AS	-10969
▁Du	-10970
▁Gi	-10971
▁IS	-10972
▁JD	-10973
▁JJ	-10974
▁MG	-10975
▁Mr	-10976
▁OF	-10977
▁Ok	-10978
▁SE	-10979
▁SO	-10980
▁Um	-10981
▁VC	-10982
▁az	-10983
▁ov	-10984
-19;	-10985
-19?	-10986
-300	-10987
.4%)	-10988
AdOx	-10989
ECDC	-10990
ERED	-10991
FEMA	-10992
LICK	-10993
LRTI	-10994
OSHA	-10995
Only	-10996
Over	-10997
RCGP	-10998
Stop	-10999
240	-11000
8,9	-11001
CMO	-11002
DAD	-11003
EEP	-11004
FDA	-11005
GIB	-11006
PIs	-11007
▁(2	-11008
SEIR	-11009
Such	-11010
Supp	-11011
Tube	-11012
Work	-11013
YUSH	-11014
acas	-11015
aceT	-11016
acks	-11017
adam	-11018
adan	-11019
ader	-11020
afin	-11021
aghm	-11022
agul	-11023
ahal	-11024
ains	-11025
ajan	-11026
akat	-11027
aked	-11028
aker	-11029
alam	-11030
alli	-11031
ambh	-11032
amen	-11033
amma	-11034
amod	-11035
ampa	-11036
andl	-11037
anji	-11038
arce	-11039
arms	-11040
arti	-11041
ateh	-11042
aths	-11043
atra	-11044
azas	-11045
beth	-11046
bone	-11047
bott	-11048
bral	-11049
crit	-11050
elan	-11051
elve	-11052
emia	-11053
emma	-11054
empl	-11055
enan	-11056
epid	-11057
esis	-11058
ests	-11059
four	-11060
gium	-11061
grad	-11062
grav	-11063
hara	-11064
iant	-11065
igan	-11066
ikar	-11067
ilak	-11068
iles	-11069
ilty	-11070
inar	-11071
inic	-11072
inse	-11073
inzo	-11074
ione	-11075
iste	-11076
itai	-11077
iwal	-11078
kant	-11079
khur	-11080
laim	-11081
leum	-11082
long	-11083
mala	-11084
mary	-11085
nula	-11086
oard	-11087
obyn	-11088
odge	-11089
oned	-11090
oomi	-11091
orib	-11092
phew	-11093
pita	-11094
post	-11095
priv	-11096
quar	-11097
rain	-11098
rays	-11099
GCI	-11100
rele	-11101
says	-11102
stan	-11103
trao	-11104
uant	-11105
ubai	-11106
unct	-11107
urve	-11108
vied	-11109
weis	-11110
went	-11111
ycin	-11112
ymme	-11113
ysis	-11114
yurl	-11115
zhou	-11116
▁(13	-11117
▁(16	-11118
▁(37	-11119
▁-44	-11120
▁1,3	-11121
▁1.4	-11122
▁1.8	-11123
▁10-	-11124
▁13,	-11125
▁13.	-11126
▁15%	-11127
▁160	-11128
▁180	-11129
▁184	-11130
▁2,6	-11131
▁2,7	-11132
▁2.5	-11133
▁23,	-11134
▁23.	-11135
▁24-	-11136
▁24.	-11137
▁25,	-11138
▁26,	-11139
▁260	-11140
▁27.	-11141
▁28.	-11142
▁30-	-11143
▁4).	-11144
▁4-5	-11145
▁40%	-11146
▁419	-11147
▁5,1	-11148
▁503	-11149
▁60,	-11150
▁8,0	-11151
▁832	-11152
▁AIG	-11153
▁APP	-11154
▁Aam	-11155
▁Abe	-11156
▁Ath	-11157
▁Bed	-11158
▁Bok	-11159
▁EUA	-11160
▁Fif	-11161
▁Hum	-11162
▁IPL	-11163
▁Ice	-11164
▁IgM	-11165
▁Ith	-11166
▁Jat	-11167
▁Jio	-11168
▁Kat	-11169
▁Lal	-11170
▁MIT	-11171
▁MSE	-11172
▁Mic	-11173
▁Moh	-11174
▁Mok	-11175
▁NBC	-11176
▁Neg	-11177
▁Nim	-11178
▁Nor	-11179
▁Ops	-11180
▁Pub	-11181
▁Pug	-11182
▁Pul	-11183
▁Rad	-11184
▁Ref	-11185
▁Rib	-11186
▁Roy	-11187
▁SMS	-11188
▁Sem	-11189
▁Sil	-11190
▁Ste	-11191
▁Tem	-11192
▁Tom	-11193
▁Tre	-11194
▁UAE	-11195
▁Val	-11196
▁Vax	-11197
▁Was	-11198
▁Web	-11199
▁Wen	-11200
▁Wet	-11201
▁Yet	-11202
▁cup	-11203
▁ess	-11204
▁fee	-11205
▁hab	-11206
▁hem	-11207
▁hij	-11208
▁lia	-11209
▁lik	-11210
▁lip	-11211
▁lob	-11212
▁nic	-11213
▁nsp	-11214
▁oed	-11215
▁orf	-11216
▁phy	-11217
▁pip	-11218
▁ran	-11219
▁sid	-11220
▁tap	-11221
▁tot	-11222
▁umb	-11223
▁unc	-11224
▁uns	-11225
▁vas	-11226
-19".	-11227
3,000	-11228
ARITY	-11229
Chief	-11230
MPRSS	-11231
Phase	-11232
SOLID	-11233
These	-11234
Treat	-11235
While	-11236
abled	-11237
accur	-11238
adays	-11239
ademy	-11240
adwaj	-11241
akesh	-11242
alore	-11243
altan	-11244
amine	-11245
anaar	-11246
aning	-11247
apatn	-11248
aphyl	-11249
apnil	-11250
arden	-11251
arers	-11252
ashes	-11253
askar	-11254
atten	-11255
aware	-11256
bazar	-11257
cerin	-11258
chron	-11259
comed	-11260
coron	-11261
ekend	-11262
empts	-11263
enced	-11264
engue	-11265
ensiv	-11266
ensus	-11267
eping	-11268
feter	-11269
field	-11270
first	-11271
found	-11272
glass	-11273
harat	-11274
hedge	-11275
hinol	-11276
icine	-11277
icing	-11278
ideos	-11279
idhar	-11280
idity	-11281
ienna	-11282
ilize	-11283
inant	-11284
inken	-11285
inute	-11286
isted	-11287
itate	-11288
ivast	-11289
ivest	-11290
ivors	-11291
lekar	-11292
loads	-11293
losan	-11294
mandu	-11295
manya	-11296
meric	-11297
oeasy	-11298
oglob	-11299
okers	-11300
olice	-11301
ollen	-11302
ondia	-11303
opath	-11304
ophen	-11305
ophus	-11306
ophys	-11307
ounty	-11308
parin	-11309
ranes	-11310
secre	-11311
spike	-11312
state	-11313
store	-11314
terns	-11315
uebec	-11316
umbia	-11317
umers	-11318
unged	-11319
urban	-11320
ustle	-11321
utosh	-11322
viraj	-11323
virid	-11324
ycott	-11325
▁(1.8	-11326
▁1.73	-11327
▁11).	-11328
▁1800	-11329
▁1918	-11330
▁1957	-11331
▁2013	-11332
▁2014	-11333
▁3000	-11334
▁5-17	-11335
▁8665	-11336
▁9-10	-11337
▁ALDI	-11338
▁Abhi	-11339
▁Adam	-11340
▁Amid	-11341
▁Bacc	-11342
▁Balk	-11343
▁Bhiw	-11344
▁Biop	-11345
▁Cape	-11346
▁Case	-11347
▁Coin	-11348
▁Cond	-11349
▁Conn	-11350
▁Cyan	-11351
▁DGCI	-11352
▁Dand	-11353
▁Disp	-11354
▁Dist	-11355
▁FEMA	-11356
▁Fact	-11357
▁Feel	-11358
▁GSDP	-11359
▁Ghaz	-11360
▁Hari	-11361
▁Help	-11362
▁Hous	-11363
▁IATA	-11364
▁Jair	-11365
▁Kash	-11366
▁Khop	-11367
▁Lake	-11368
▁Lash	-11369
▁Lear	-11370
▁MRNA	-11371
▁Mann	-11372
▁Mary	-11373
▁Matt	-11374
▁Migr	-11375
▁Mike	-11376
▁Moon	-11377
▁Numb	-11378
▁PEEP	-11379
▁Pank	-11380
▁Park	-11381
▁Pong	-11382
▁Port	-11383
▁Prom	-11384
▁Ravi	-11385
▁Samm	-11386
▁Sank	-11387
▁Sard	-11388
▁Sneh	-11389
▁Soap	-11390
▁Sore	-11391
▁Star	-11392
▁Thai	-11393
▁Trib	-11394
▁Tris	-11395
▁Utah	-11396
▁Very	-11397
▁Wank	-11398
▁Were	-11399
▁Zhan	-11400
▁Zone	-11401
▁Zoom	-11402
▁acre	-11403
▁band	-11404
▁base	-11405
▁bias	-11406
▁bury	-11407
▁cant	-11408
▁carb	-11409
▁cars	-11410
▁cats	-11411
▁coff	-11412
▁cope	-11413
▁crop	-11414
▁dock	-11415
▁dumb	-11416
▁dust	-11417
▁ears	-11418
▁eggs	-11419
▁engr	-11420
▁epit	-11421
▁fibr	-11422
▁flag	-11423
▁fuss	-11424
▁gram	-11425
▁grew	-11426
▁hier	-11427
▁holy	-11428
▁horm	-11429
▁hors	-11430
▁jump	-11431
▁kids	-11432
▁kitc	-11433
▁lift	-11434
▁lots	-11435
▁marg	-11436
▁mons	-11437
▁mood	-11438
▁napp	-11439
▁odor	-11440
▁opac	-11441
▁owns	-11442
▁phag	-11443
▁phen	-11444
▁pick	-11445
▁pose	-11446
▁pour	-11447
▁powd	-11448
▁pros	-11449
▁ramp	-11450
▁slog	-11451
▁sort	-11452
▁stag	-11453
▁star	-11454
▁tire	-11455
▁unav	-11456
▁vert	-11457
▁vote	-11458
20,000	-11459
Feluda	-11460
Public	-11461
School	-11462
ablish	-11463
acious	-11464
ailing	-11465
alaure	-11466
amboli	-11467
andard	-11468
angers	-11469
arized	-11470
arring	-11471
arshan	-11472
assion	-11473
ateful	-11474
ayment	-11475
boards	-11476
bronch	-11477
called	-11478
change	-11479
chewan	-11480
ectant	-11481
ectors	-11482
ecuted	-11483
embers	-11484
empted	-11485
erosol	-11486
esthes	-11487
friend	-11488
ileged	-11489
ilizes	-11490
illage	-11491
inions	-11492
ipedia	-11493
ishing	-11494
isodia	-11495
ithrom	-11496
ittees	-11497
ityabh	-11498
khurma	-11499
lahoma	-11500
length	-11501
making	-11502
mother	-11503
nected	-11504
number	-11505
ochlor	-11506
ocytic	-11507
ometer	-11508
opathy	-11509
opsies	-11510
ortium	-11511
ortive	-11512
otting	-11513
ounted	-11514
retion	-11515
saving	-11516
traint	-11517
trates	-11518
ulsive	-11519
ulsory	-11520
umably	-11521
uriste	-11522
urring	-11523
usable	-11524
ventil	-11525
volume	-11526
ximate	-11527
yurved	-11528
▁(78%)	-11529
▁18-64	-11530
▁2003,	-11531
▁2005,	-11532
▁8,000	-11533
▁Abhay	-11534
▁Actor	-11535
▁Banks	-11536
▁Bazar	-11537
▁Bhatt	-11538
▁Blend	-11539
▁Break	-11540
▁Broad	-11541
▁Brook	-11542
▁CLICK	-11543
▁Check	-11544
▁Chest	-11545
▁Chowk	-11546
▁Civic	-11547
▁Click	-11548
▁Cough	-11549
▁Dairy	-11550
▁Datta	-11551
▁Desai	-11552
▁Dharm	-11553
▁Dhere	-11554
▁Dubai	-11555
▁Fateh	-11556
▁Frequ	-11557
▁Gates	-11558
▁Going	-11559
▁Green	-11560
▁Ignaz	-11561
▁Jaime	-11562
▁Komal	-11563
▁Leave	-11564
▁Malls	-11565
▁Mande	-11566
▁Mehta	-11567
▁Memor	-11568
▁Mohol	-11569
▁Monte	-11570
▁Nakat	-11571
▁Naval	-11572
▁Nawal	-11573
▁Pitts	-11574
▁Pneum	-11575
▁Prith	-11576
▁Rekha	-11577
▁Rishi	-11578
▁Robyn	-11579
▁Saket	-11580
▁Scrub	-11581
▁Seoul	-11582
▁Sonal	-11583
▁Swabs	-11584
▁Taxis	-11585
▁Techn	-11586
▁Thale	-11587
▁Tilak	-11588
▁Types	-11589
▁Users	-11590
▁Vetal	-11591
▁Vipin	-11592
▁Waghm	-11593
▁White	-11594
▁allot	-11595
▁audio	-11596
▁backl	-11597
▁batch	-11598
▁beach	-11599
▁blame	-11600
▁blast	-11601
▁blown	-11602
▁brush	-11603
▁cabin	-11604
▁cargo	-11605
▁choir	-11606
▁coinc	-11607
▁compr	-11608
▁conce	-11609
▁crazy	-11610
▁defec	-11611
▁desks	-11612
▁draws	-11613
▁ducks	-11614
▁endot	-11615
▁etiqu	-11616
▁feces	-11617
▁fines	-11618
▁fired	-11619
▁fluid	-11620
▁games	-11621
▁gamma	-11622
▁grass	-11623
▁griev	-11624
▁grows	-11625
▁heter	-11626
▁hypot	-11627
▁ideal	-11628
▁imper	-11629
▁indef	-11630
▁index	-11631
▁lawns	-11632
▁layer	-11633
▁leads	-11634
▁limbs	-11635
▁links	-11636
▁liter	-11637
▁magic	-11638
▁meets	-11639
▁metab	-11640
▁meter	-11641
▁music	-11642
▁nails	-11643
▁newer	-11644
▁ninth	-11645
▁owing	-11646
▁pages	-11647
▁pains	-11648
▁peaks	-11649
▁pills	-11650
▁quite	-11651
▁quota	-11652
▁saves	-11653
▁seeks	-11654
▁serop	-11655
▁setup	-11656
▁sheet	-11657
▁soapy	-11658
▁solve	-11659
▁songs	-11660
▁stake	-11661
▁stops	-11662
▁stret	-11663
▁strip	-11664
▁swift	-11665
▁tanks	-11666
▁tasks	-11667
▁teach	-11668
▁tells	-11669
▁templ	-11670
▁tough	-11671
▁trips	-11672
▁vials	-11673
▁warns	-11674
▁wider	-11675
▁wound	-11676
Coronil	-11677
Despite	-11678
Whether	-11679
angered	-11680
apatnam	-11681
ception	-11682
density	-11683
elihood	-11684
esterol	-11685
feteria	-11686
founder	-11687
holders	-11688
inction	-11689
induced	-11690
ionship	-11691
jection	-11692
medical	-11693
melweis	-11694
nastics	-11695
odities	-11696
olesale	-11697
onsider	-11698
orrhoea	-11699
osafety	-11700
osocial	-11701
reprene	-11702
reshold	-11703
restler	-11704
tenance	-11705
tingham	-11706
tinyurl	-11707
troleum	-11708
undreds	-11709
versity	-11710
▁(2019-	-11711
▁12,000	-11712
▁30,000	-11713
▁33,000	-11714
▁8,000.	-11715
▁Across	-11716
▁Adarsh	-11717
▁Agathe	-11718
▁Andrew	-11719
▁Anjali	-11720
▁Announ	-11721
▁Anurag	-11722
▁Anyway	-11723
▁Bokaro	-11724
▁Chahal	-11725
▁Cities	-11726
▁County	-11727
▁Define	-11728
▁Drying	-11729
▁Estate	-11730
▁Events	-11731
▁Fisher	-11732
▁Garden	-11733
▁Gargwa	-11734
▁George	-11735
▁Giving	-11736
▁Gondia	-11737
▁Hazard	-11738
▁Humans	-11739
▁Ithaca	-11740
▁Jagtap	-11741
▁Janaar	-11742
▁Kangra	-11743
▁Kapale	-11744
▁Kather	-11745
▁Keenan	-11746
▁Kesari	-11747
▁Khadse	-11748
▁Kumari	-11749
▁Lifesc	-11750
▁Lokmat	-11751
▁MSEDCL	-11752
▁Macron	-11753
▁Mahesh	-11754
▁Mangal	-11755
▁Manish	-11756
▁Mechan	-11757
▁Methyl	-11758
▁Nimkar	-11759
▁Online	-11760
▁Places	-11761
▁Pramod	-11762
▁Pravin	-11763
▁Prepar	-11764
▁Proble	-11765
▁Puglia	-11766
▁Rajput	-11767
▁Ranjit	-11768
▁Record	-11769
▁Review	-11770
▁Rights	-11771
▁SNOMED	-11772
▁Safura	-11773
▁Saifai	-11774
▁Samiti	-11775
▁Saskat	-11776
▁Sector	-11777
▁Sharma	-11778
▁Shedge	-11779
▁Shetty	-11780
▁Shinzo	-11781
▁Shruti	-11782
▁Simply	-11783
▁Supply	-11784
▁Taluka	-11785
▁TraceT	-11786
▁Travel	-11787
▁Trials	-11788
▁Vaxart	-11789
▁aggrav	-11790
▁aiming	-11791
▁airway	-11792
▁apolog	-11793
▁ashram	-11794
▁assays	-11795
▁asymme	-11796
▁beaten	-11797
▁bleach	-11798
▁bovine	-11799
▁boxing	-11800
▁bubble	-11801
▁campus	-11802
▁capita	-11803
▁chills	-11804
▁commit	-11805
▁covers	-11806
▁crises	-11807
▁deemed	-11808
▁defend	-11809
▁dengue	-11810
▁dining	-11811
▁dissem	-11812
▁dosing	-11813
▁editor	-11814
▁estate	-11815
▁exorib	-11816
▁facial	-11817
▁famous	-11818
▁faulty	-11819
▁fellow	-11820
▁flying	-11821
▁guilty	-11822
▁harder	-11823
▁headed	-11824
▁height	-11825
▁hidden	-11826
▁hourly	-11827
▁hungry	-11828
▁incred	-11829
▁infant	-11830
▁instru	-11831
▁intens	-11832
▁larger	-11833
▁leaves	-11834
▁lesson	-11835
▁levied	-11836
▁listed	-11837
▁losing	-11838
▁mangal	-11839
▁manual	-11840
▁methyl	-11841
▁metrop	-11842
▁multip	-11843
▁naming	-11844
▁nephew	-11845
▁notify	-11846
▁oedema	-11847
▁packed	-11848
▁phrase	-11849
▁picked	-11850
▁plazas	-11851
▁poster	-11852
▁preced	-11853
▁prolif	-11854
▁pulmon	-11855
▁pushed	-11856
▁recipe	-11857
▁recont	-11858
▁reopen	-11859
▁resign	-11860
▁retard	-11861
▁rounds	-11862
▁rubbed	-11863
▁safely	-11864
▁saints	-11865
▁salons	-11866
▁scarce	-11867
▁serine	-11868
▁snacks	-11869
▁sounds	-11870
▁spores	-11871
▁square	-11872
▁stalls	-11873
▁statue	-11874
▁stayed	-11875
▁subgen	-11876
▁syring	-11877
▁termed	-11878
▁theory	-11879
▁thromb	-11880
▁tourna	-11881
▁toxins	-11882
▁tracks	-11883
▁transf	-11884
▁triage	-11885
▁trimes	-11886
▁trucks	-11887
▁twelve	-11888
▁valves	-11889
▁vandal	-11890
▁venues	-11891
▁waking	-11892
▁weaken	-11893
▁weight	-11894
▁wishes	-11895
▁yellow	-11896
▁youths	-11897
/100,000	-11898
BioNTech	-11899
Students	-11900
accurate	-11901
acetamin	-11902
adjusted	-11903
approval	-11904
atriated	-11905
chronous	-11906
critical	-11907
economic	-11908
encement	-11909
estation	-11910
existing	-11911
iologist	-11912
ivastava	-11913
lamation	-11914
lemented	-11915
measures	-11916
ognitive	-11917
olutions	-11918
ominator	-11919
positive	-11920
quarters	-11921
relevant	-11922
stricken	-11923
uterized	-11924
utrition	-11925
▁200,000	-11926
▁200-300	-11927
▁Academy	-11928
▁Answers	-11929
▁Belgium	-11930
▁Bioeasy	-11931
▁Blinken	-11932
▁Cadilla	-11933
▁Chandra	-11934
▁Current	-11935
▁Defense	-11936
▁Digital	-11937
▁Diploma	-11938
▁Eastern	-11939
▁Fatigue	-11940
▁Federal	-11941
▁Figures	-11942
▁Genetic	-11943
▁Getting	-11944
▁History	-11945
▁Housing	-11946
▁Husband	-11947
▁Israeli	-11948
▁Kashmir	-11949
▁Khawati	-11950
▁Macbeth	-11951
▁Manjiri	-11952
▁Mokhada	-11953
▁Nothing	-11954
▁Numbers	-11955
▁ORDERED	-11956
▁Pacific	-11957
▁Partial	-11958
▁Persons	-11959
▁Phaltan	-11960
▁Present	-11961
▁Prevent	-11962
▁Proning	-11963
▁Ramadan	-11964
▁Sangram	-11965
▁Sanjeev	-11966
▁Sisodia	-11967
▁Swapnil	-11968
▁Turkish	-11969
▁Vallabh	-11970
▁Whereas	-11971
▁YouTube	-11972
▁abdomen	-11973
▁advises	-11974
▁airline	-11975
▁alpacas	-11976
▁arising	-11977
▁artists	-11978
▁averted	-11979
▁barrier	-11980
▁bearers	-11981
▁biotech	-11982
▁boycott	-11983
▁cannula	-11984
▁clashes	-11985
▁confisc	-11986
▁congreg	-11987
▁content	-11988
▁coronal	-11989
▁coronil	-11990
▁council	-11991
▁counted	-11992
▁courage	-11993
▁daycare	-11994
▁dealers	-11995
▁defense	-11996
▁dilemma	-11997
▁diluted	-11998
▁display	-11999
▁disprop	-12000
▁drought	-12001
▁emotion	-12002
▁enteric	-12003
▁enzymes	-12004
▁exceeds	-12005
▁expense	-12006
▁extract	-12007
▁freezer	-12008
▁growers	-12009
▁harbour	-12010
▁hazards	-12011
▁heading	-12012
▁healing	-12013
▁heating	-12014
▁heparin	-12015
▁hormone	-12016
▁inbound	-12017
▁lawyers	-12018
▁library	-12019
▁mandate	-12020
▁matters	-12021
▁modules	-12022
▁monster	-12023
▁nappies	-12024
▁nowhere	-12025
▁onboard	-12026
▁oneself	-12027
▁onwards	-12028
▁optimal	-12029
▁ovaries	-12030
▁parcels	-12031
▁patents	-12032
▁plunged	-12033
▁premium	-12034
▁priming	-12035
▁princip	-12036
▁promise	-12037
▁radical	-12038
▁realize	-12039
▁relying	-12040
▁rodents	-12041
▁rubella	-12042
▁sellers	-12043
▁seniors	-12044
▁seventh	-12045
▁shipped	-12046
▁specify	-12047
▁stating	-12048
▁storing	-12049
▁surgeon	-12050
▁suspend	-12051
▁swollen	-12052
▁teaches	-12053
▁tending	-12054
▁tension	-12055
▁trapped	-12056
▁turning	-12057
▁unusual	-12058
▁violate	-12059
▁waiving	-12060
▁western	-12061
▁wrapped	-12062
▁yielded	-12063
Initially	-12064
Sometimes	-12065
Wednesday	-12066
alaureate	-12067
aminating	-12068
cleansing	-12069
conscious	-12070
gradation	-12071
lementary	-12072
morbidity	-12073
ochemical	-12074
onuclease	-12075
organized	-12076
orruption	-12077
paredness	-12078
resistant	-12079
scheduled	-12080
secreting	-12081
▁2020-21.	-12082
▁Ashutosh	-12083
▁Attempts	-12084
▁Bhiwandi	-12085
▁Building	-12086
▁Chemical	-12087
▁Cocktail	-12088
▁Colorado	-12089
▁Columbia	-12090
▁Consider	-12091
▁Crowding	-12092
▁Domestic	-12093
▁Emergent	-12094
▁Hundreds	-12095
▁Immunity	-12096
▁Increase	-12097
▁Intensiv	-12098
▁Justices	-12099
▁Lokmanya	-12100
▁Maryland	-12101
▁Medicago	-12102
▁Meetings	-12103
▁Michigan	-12104
▁Nigerian	-12105
▁Niranjan	-12106
▁Nowadays	-12107
▁Oklahoma	-12108
▁Organise	-12109
▁Positive	-12110
▁Priority	-12111
▁Replying	-12112
▁Salunkhe	-12113
▁Sammelan	-12114
▁Serology	-12115
▁Shrikant	-12116
▁Swimming	-12117
▁Teachers	-12118
▁Tertiary	-12119
▁Tourists	-12120
▁Training	-12121
▁Trisutri	-12122
▁Waghmare	-12123
▁adaptive	-12124
▁adoption	-12125
▁annually	-12126
▁apparent	-12127
▁arranged	-12128
▁arterial	-12129
▁arteries	-12130
▁assigned	-12131
▁attempts	-12132
▁atypical	-12133
▁azithrom	-12134
▁backbone	-12135
▁baseline	-12136
▁birthday	-12137
▁careless	-12138
▁cerebral	-12139
▁charging	-12140
▁clotting	-12141
▁concepts	-12142
▁conclude	-12143
▁contempl	-12144
▁deletion	-12145
▁diplomas	-12146
▁dramatic	-12147
▁dynamics	-12148
▁elements	-12149
▁emergent	-12150
▁engineer	-12151
▁entrance	-12152
▁eruption	-12153
▁exceeded	-12154
▁explains	-12155
▁exploded	-12156
▁extracts	-12157
▁favorite	-12158
▁forearms	-12159
▁formally	-12160
▁fourteen	-12161
▁generous	-12162
▁glycerin	-12163
▁grateful	-12164
▁helpless	-12165
▁hierarch	-12166
▁hijacked	-12167
▁horrible	-12168
▁humidity	-12169
▁ignoring	-12170
▁imagined	-12171
▁improper	-12172
▁improves	-12173
▁incoming	-12174
▁informal	-12175
▁inquired	-12176
▁isolates	-12177
▁lamented	-12178
▁language	-12179
▁marginal	-12180
▁notified	-12181
▁outlined	-12182
▁overview	-12183
▁parlance	-12184
▁particle	-12185
▁persists	-12186
▁powerful	-12187
▁preserve	-12188
▁probable	-12189
▁publicly	-12190
▁reactive	-12191
▁recalled	-12192
▁relieved	-12193
▁religion	-12194
▁remedial	-12195
▁remedies	-12196
▁repaired	-12197
▁replaced	-12198
▁reversed	-12199
▁salaries	-12200
▁secretly	-12201
▁sentence	-12202
▁shedding	-12203
▁slightly	-12204
▁smoothly	-12205
▁spinning	-12206
▁steering	-12207
▁stopping	-12208
▁strongly	-12209
▁subjects	-12210
▁sunlight	-12211
▁supposed	-12212
▁surveyed	-12213
▁swimming	-12214
▁timeline	-12215
▁tireless	-12216
▁traveler	-12217
▁umbrella	-12218
▁unlocked	-12219
▁unwashed	-12220
▁violated	-12221
▁weddings	-12222
▁welcomed	-12223
Multimedia	-12224
SOLIDARITY	-12225
accination	-12226
amenorrhea	-12227
andleshwar	-12228
containing	-12229
controlled	-12230
efficiency	-12231
government	-12232
hinolophus	-12233
ityabhoomi	-12234
opulmonary	-12235
ordinating	-12236
population	-12237
privileged	-12238
rehensible	-12239
technology	-12240
uscitation	-12241
▁2019-2020	-12242
▁Acknowled	-12243
▁Americans	-12244
▁Babasaheb	-12245
▁Bangalore	-12246
▁Bharadwaj	-12247
▁BlueTrace	-12248
▁Community	-12249
▁Companies	-12250
▁Cyanoform	-12251
▁Decreased	-12252
▁Depending	-12253
▁Economist	-12254
▁Establish	-12255
▁Frontline	-12256
▁Guangzhou	-12257
▁Hungarian	-12258
▁Kalamboli	-12259
▁Katherine	-12260
▁Kathmandu	-12261
▁Nimbalkar	-12262
▁Pneumonia	-12263
▁Practices	-12264
▁Programme	-12265
▁Rishikesh	-12266
▁SafeTrace	-12267
▁Snehalaya	-12268
▁Vikramgad	-12269
▁Wholesale	-12270
▁Wikipedia	-12271
▁Workplace	-12272
▁abundance	-12273
▁achieving	-12274
▁acquiring	-12275
▁activated	-12276
▁answering	-12277
▁assessing	-12278
▁assurance	-12279
▁attempted	-12280
▁attracted	-12281
▁basically	-12282
▁cafeteria	-12283
▁calendars	-12284
▁certified	-12285
▁chartered	-12286
▁classical	-12287
▁commotion	-12288
▁complexes	-12289
▁considers	-12290
▁coronated	-12291
▁defective	-12292
▁direction	-12293
▁disappear	-12294
▁embassies	-12295
▁epicenter	-12296
▁etiquette	-12297
▁examining	-12298
▁exhausted	-12299
▁formation	-12300
▁formulate	-12301
▁forwarded	-12302
▁generates	-12303
▁highlight	-12304
▁humectant	-12305
▁immersion	-12306
▁inclusion	-12307
▁incorrect	-12308
▁intention	-12309
▁interrupt	-12310
▁itinerary	-12311
▁languages	-12312
▁licensing	-12313
▁machinery	-12314
▁membranes	-12315
▁messaging	-12316
▁modifying	-12317
▁molecules	-12318
▁movements	-12319
▁opacities	-12320
▁paperwork	-12321
▁paralyzed	-12322
▁penetrate	-12323
▁peptidase	-12324
▁perceived	-12325
▁populated	-12326
▁practiced	-12327
▁referring	-12328
▁remedivis	-12329
▁reputable	-12330
▁retailers	-12331
▁rickshaws	-12332
▁sanitiser	-12333
▁sanitized	-12334
▁scrubbing	-12335
▁sentiment	-12336
▁separated	-12337
▁sequenced	-12338
▁spokesman	-12339
▁stabilize	-12340
▁staggered	-12341
▁stainless	-12342
▁stockpile	-12343
▁streaming	-12344
▁surprised	-12345
▁survivors	-12346
▁triclosan	-12347
▁underwent	-12348
▁wandering	-12349
▁washrooms	-12350
▁withdrawn	-12351
▁wondering	-12352
▁workforce	-12353
Remedesivir	-12354
▁Basketball	-12355
▁Businesses	-12356
▁Connecting	-12357
▁Everything	-12358
▁Highlights	-12359
▁Increasing	-12360
▁Investment	-12361
▁Janaarogya	-12362
▁Memorandum	-12363
▁Multimedia	-12364
▁Mumbaikars	-12365
▁Nottingham	-12366
▁Operations	-12367
▁Pittsburgh	-12368
▁Preference	-12369
▁Prithviraj	-12370
▁Regulation	-12371
▁Semmelweis	-12372
▁Shirkhurma	-12373
▁Specialist	-12374
▁Srivastava	-12375
▁Strategies	-12376
▁Wankhedkar	-12377
▁addressing	-12378
▁admissions	-12379
▁agreements	-12380
▁assemblies	-12381
▁asymmetric	-12382
▁boundaries	-12383
▁cemeteries	-12384
▁challenged	-12385
▁collectors	-12386
▁comparable	-12387
▁compassion	-12388
▁complement	-12389
▁connecting	-12390
▁consequent	-12391
▁consortium	-12392
▁constitute	-12393
▁continuous	-12394
▁corruption	-12395
▁criticisms	-12396
▁defecation	-12397
▁definition	-12398
▁detectable	-12399
▁discretion	-12400
▁dismissals	-12401
▁ecological	-12402
▁endangered	-12403
▁eradicated	-12404
▁evacuation	-12405
▁expressing	-12406
▁fatalities	-12407
▁generating	-12408
▁governance	-12409
▁grievances	-12410
▁households	-12411
▁imposition	-12412
▁inaccurate	-12413
▁indigenous	-12414
▁indirectly	-12415
▁insecurity	-12416
▁interested	-12417
▁journalism	-12418
▁likelihood	-12419
▁minimising	-12420
▁misleading	-12421
▁mucorrhoea	-12422
▁neurologic	-12423
▁objectives	-12424
▁paralleliz	-12425
▁paramedics	-12426
▁parliament	-12427
▁physicians	-12428
▁popularity	-12429
▁positively	-12430
▁preferably	-12431
▁preschools	-12432
▁priorities	-12433
▁randomised	-12434
▁randomized	-12435
▁reconsider	-12436
▁recruiting	-12437
▁regardless	-12438
▁resistance	-12439
▁secretions	-12440
▁separating	-12441
▁solubility	-12442
▁speculated	-12443
▁subsidiary	-12444
▁substitute	-12445
▁supportive	-12446
▁surprising	-12447
▁television	-12448
▁thickening	-12449
▁thrombosis	-12450
▁toxicities	-12451
▁transition	-12452
▁travelling	-12453
▁tremendous	-12454
▁undetected	-12455
▁Authorities	-12456
▁Chloroquine	-12457
▁Containment	-12458
▁Fertilizers	-12459
▁Ghebreyesus	-12460
▁Importantly	-12461
▁Journalists	-12462
▁Multisystem	-12463
▁Nationalist	-12464
▁Observatory	-12465
▁Operational	-12466
▁Remedicivir	-12467
▁Ventilators	-12468
▁approaching	-12469
▁approximate	-12470
▁businessman	-12471
▁campaigning	-12472
▁celebrities	-12473
▁cholesterol	-12474
▁commodities	-12475
▁demographic	-12476
▁denominator	-12477
▁descriptive	-12478
▁detrimental	-12479
▁differently	-12480
▁encountered	-12481
▁endothelial	-12482
▁exceptional	-12483
▁extensively	-12484
▁frustration	-12485
▁inefficient	-12486
▁infiltrates	-12487
▁initiatives	-12488
▁instruction	-12489
▁legislature	-12490
▁microscopic	-12491
▁neighboring	-12492
▁overloading	-12493
▁pathologist	-12494
▁personality	-12495
▁prophylaxis	-12496
▁repatriated	-12497
▁restricting	-12498
▁suppression	-12499
▁sustainable	-12500
▁transferred	-12501
▁transparent	-12502
acetaminophen	-12503
bronchiolitis	-12504
▁Firecrackers	-12505
▁Inflammatory	-12506
▁Laboratories	-12507
▁Lifesciences	-12508
▁Menstruation	-12509
▁Preparedness	-12510
▁Saskatchewan	-12511
▁Transmission	-12512
▁azithromycin	-12513
▁commencement	-12514
▁communicable	-12515
▁compensation	-12516
▁considerable	-12517
▁discouraging	-12518
▁expectations	-12519
▁glycoprotein	-12520
▁governmental	-12521
▁headquarters	-12522
▁inauguration	-12523
▁inconclusive	-12524
▁inconvenient	-12525
▁infiltration	-12526
▁participated	-12527
▁pathogenesis	-12528
▁periodically	-12529
▁proclamation	-12530
▁psychosocial	-12531
▁publications	-12532
▁satisfactory	-12533
▁stakeholders	-12534
▁standardized	-12535
▁supermarkets	-12536
▁therapeutics	-12537
▁transporting	-12538
▁tremendously	-12539
understandings	-12540
▁Baccalaureate	-12541
▁Chaityabhoomi	-12542
▁Communication	-12543
▁TraceTogether	-12544
▁Visakhapatnam	-12545
▁abnormalities	-12546
▁authorisation	-12547
▁cancellations	-12548
▁congregations	-12549
▁demonstrating	-12550
▁disadvantages	-12551
▁discontinuing	-12552
▁disproportion	-12553
▁establishment	-12554
▁functionality	-12555
▁independently	-12556
▁pathogenicity	-12557
▁physiotherapy	-12558
▁practitioners	-12559
▁proliferation	-12560
▁proportionate	-12561
▁Acknowledgment	-12562
▁Rehabilitation	-12563
▁Responsibility	-12564
▁accountability	-12565
▁acknowledgment	-12566
▁administrators	-12567
▁advertisements	-12568
▁characteristic	-12569
▁underestimated	-12570
▁Betacoronavirus	-12571
▁Commissionerate	-12572
▁Mahamandleshwar	-12573
▁cardiopulmonary	-12574
▁countermeasures	-12575
▁exoribonuclease	-12576
▁internationally	-12577
▁retrospectively	-12578
';	-12579
)?	-12580
-)	-12581
.'	-12582
01	-12583
1-	-12584
12	-12585
3%	-12586
3)	-12587
47	-12588
49	-12589
51	-12590
7%	-12591
9)	-12592
9.	-12593
9/	-12594
AD	-12595
Am	-12596
BI	-12597
Bi	-12598
CC	-12599
CD	-12600
CS	-12601
DT	-12602
Dr	-12603
ED	-12604
ES	-12605
ET	-12606
EW	-12607
FA	-12608
FO	-12609
GA	-12610
Gr	-12611
Hu	-12612
IM	-12613
Is	-12614
NB	-12615
Ne	-12616
PA	-12617
PM	-12618
SW	-12619
Sm	-12620
Te	-12621
UT	-12622
WA	-12623
aV	-12624
gt	-12625
hl	-12626
nc	-12627
rd	-12628
sm	-12629
tu	-12630
▁;	-12631
-14	-12632
-29	-12633
-50	-12634
.75	-12635
00,	-12636
1-7	-12637
2).	-12638
279	-12639
28,	-12640
280	-12641
3),	-12642
4),	-12643
40%	-12644
60%	-12645
63.	-12646
80,	-12647
99%	-12648
ALT	-12649
Add	-12650
Adm	-12651
BJP	-12652
Big	-12653
CEs	-12654
CFR	-12655
Can	-12656
Eur	-12657
Huo	-12658
MMC	-12659
Man	-12660
Mod	-12661
Sat	-12662
Sec	-12663
VST	-12664
aba	-12665
aky	-12666
alo	-12667
apt	-12668
auc	-12669
bar	-12670
col	-12671
cyt	-12672
dar	-12673
dem	-12674
dic	-12675
dra	-12676
ept	-12677
gle	-12678
hek	-12679
hru	-12680
iet	-12681
igo	-12682
ima	-12683
ioc	-12684
iro	-12685
kit	-12686
lan	-12687
lex	-12688
lke	-12689
lla	-12690
lyn	-12691
nov	-12692
olk	-12693
oop	-12694
opl	-12695
oqi	-12696
orc	-12697
osw	-12698
pat	-12699
AA	-12700
CTV	-12701
NRE	-12702
VIN	-12703
dev	-12704
lal	-12705
liv	-12706
pes	-12707
pex	-12708
rab	-12709
rey	-12710
rog	-12711
rol	-12712
tar	-12713
taw	-12714
tri	-12715
uba	-12716
ubh	-12717
ugu	-12718
vis	-12719
was	-12720
xar	-12721
zed	-12722
▁03	-12723
▁1%	-12724
▁1:	-12725
▁2:	-12726
▁4%	-12727
▁4-	-12728
▁4:	-12729
▁6,	-12730
▁7)	-12731
▁89	-12732
▁9-	-12733
▁Ay	-12734
▁CI	-12735
▁CS	-12736
▁EM	-12737
▁Er	-12738
▁IN	-12739
▁Id	-12740
▁Iq	-12741
▁NO	-12742
▁TH	-12743
▁VI	-12744
▁VK	-12745
▁Vr	-12746
▁ha	-12747
▁si	-12748
▁ul	-12749
,191	-12750
,388	-12751
,727	-12752
,833	-12753
,866	-12754
-30%	-12755
2000	-12756
7,93	-12757
Cant	-12758
Doct	-12759
ECMO	-12760
Find	-12761
Four	-12762
Give	-12763
HOTO	-12764
Hand	-12765
MISC	-12766
Modi	-12767
More	-12768
Most	-12769
NCEs	-12770
NDMA	-12771
Pres	-12772
Shiv	-12773
URCE	-12774
aVax	-12775
acht	-12776
acle	-12777
ador	-12778
agle	-12779
agon	-12780
aken	-12781
akia	-12782
ampt	-12783
amsu	-12784
anol	-12785
ardy	-12786
arts	-12787
arus	-12788
asir	-12789
atis	-12790
ault	-12791
avia	-12792
awad	-12793
away	-12794
ayak	-12795
ayal	-12796
bass	-12797
beat	-12798
both	-12799
HSC	-12800
IFR	-12801
▁".	-12802
ajit	-12803
burg	-12804
came	-12805
caus	-12806
cers	-12807
cher	-12808
cise	-12809
days	-12810
ears	-12811
edar	-12812
elae	-12813
emen	-12814
enka	-12815
eras	-12816
erry	-12817
esus	-12818
evit	-12819
gote	-12820
gupp	-12821
heat	-12822
hips	-12823
hyth	-12824
iber	-12825
icit	-12826
icks	-12827
idhi	-12828
iful	-12829
igma	-12830
ikku	-12831
ilob	-12832
imer	-12833
inae	-12834
indw	-12835
irdi	-12836
irit	-12837
isan	-12838
itra	-12839
ivar	-12840
ivas	-12841
ivre	-12842
keys	-12843
legm	-12844
llor	-12845
nals	-12846
obra	-12847
odal	-12848
odil	-12849
odus	-12850
oker	-12851
oler	-12852
oose	-12853
opat	-12854
oriz	-12855
osen	-12856
osit	-12857
osph	-12858
osti	-12859
ostr	-12860
page	-12861
peak	-12862
poin	-12863
ques	-12864
rais	-12865
rece	-12866
rett	-12867
rior	-12868
rise	-12869
roph	-12870
spot	-12871
susp	-12872
test	-12873
uchi	-12874
ucid	-12875
uded	-12876
ulpr	-12877
ulum	-12878
umes	-12879
unal	-12880
uous	-12881
urch	-12882
uros	-12883
wait	-12884
weet	-12885
wini	-12886
yard	-12887
zalo	-12888
▁(-)	-12889
▁(24	-12890
▁(47	-12891
▁(50	-12892
▁(95	-12893
▁1.1	-12894
▁1.2	-12895
▁10)	-12896
▁11-	-12897
▁12-	-12898
▁12.	-12899
.17	-12900
25,	-12901
ARI	-12902
CPR	-12903
HER	-12904
III	-12905
hot	-12906
▁05	-12907
▁07	-12908
▁09	-12909
▁CR	-12910
amji	-12911
arth	-12912
club	-12913
hlot	-12914
ohar	-12915
umin	-12916
▁1,5	-12917
▁126	-12918
▁138	-12919
▁14)	-12920
▁140	-12921
▁15)	-12922
▁162	-12923
▁173	-12924
▁18-	-12925
▁183	-12926
▁191	-12927
▁2.0	-12928
▁210	-12929
▁215	-12930
▁22-	-12931
▁220	-12932
▁221	-12933
▁235	-12934
▁24)	-12935
▁254	-12936
▁3,1	-12937
▁3,4	-12938
▁37%	-12939
▁370	-12940
▁375	-12941
▁40.	-12942
▁425	-12943
▁45,	-12944
▁48%	-12945
▁584	-12946
▁6.9	-12947
▁631	-12948
▁70-	-12949
▁743	-12950
▁76%	-12951
▁80-	-12952
▁92%	-12953
▁960	-12954
▁99%	-12955
▁AFP	-12956
▁Ame	-12957
▁Anx	-12958
▁Ask	-12959
▁Atl	-12960
▁BMC	-12961
▁BPO	-12962
▁Bay	-12963
▁Box	-12964
▁COV	-12965
▁CPM	-12966
▁Chi	-12967
▁Cin	-12968
▁Dan	-12969
▁Dav	-12970
▁Deb	-12971
▁Din	-12972
▁EIU	-12973
▁Gar	-12974
▁Git	-12975
▁Gon	-12976
▁Gop	-12977
▁Gov	-12978
▁Gur	-12979
▁Han	-12980
▁Hun	-12981
▁Ish	-12982
▁JDU	-12983
▁Jud	-12984
▁Kas	-12985
▁Ken	-12986
▁Kin	-12987
▁Kor	-12988
▁Lad	-12989
▁Lav	-12990
▁Law	-12991
▁Lee	-12992
▁Mom	-12993
▁NIV	-12994
▁Nig	-12995
▁Nip	-12996
▁PNB	-12997
▁Pot	-12998
▁RTE	-12999
ej	-13000
501	-13001
arn	-13002
ofi	-13003
uja	-13004
▁ru	-13005
.5%.	-13006
adya	-13007
ayer	-13008
bris	-13009
kani	-13010
▁0.3	-13011
▁62,	-13012
▁7.9	-13013
▁Ign	-13014
▁Rag	-13015
▁Ran	-13016
▁Sad	-13017
▁Sai	-13018
▁Sex	-13019
▁Sob	-13020
▁Sug	-13021
▁Tay	-13022
▁Tek	-13023
▁Ten	-13024
▁Tob	-13025
▁Tun	-13026
▁USD	-13027
▁Vai	-13028
▁Van	-13029
▁Ven	-13030
▁Wal	-13031
▁Yes	-13032
▁Zim	-13033
▁ans	-13034
▁bag	-13035
▁blu	-13036
▁fix	-13037
▁fur	-13038
▁lux	-13039
▁mar	-13040
▁net	-13041
▁onc	-13042
▁rab	-13043
▁reb	-13044
▁sea	-13045
▁shr	-13046
▁tex	-13047
▁tit	-13048
▁tub	-13049
▁unp	-13050
▁urg	-13051
▁voc	-13052
▁wai	-13053
-2021	-13054
3,822	-13055
6,191	-13056
Astra	-13057
Breat	-13058
Inter	-13059
Kovid	-13060
NREGA	-13061
Needs	-13062
PHOTO	-13063
Prime	-13064
SARSr	-13065
Today	-13066
Women	-13067
acent	-13068
acher	-13069
acles	-13070
acorp	-13071
actly	-13072
akage	-13073
aleya	-13074
alhad	-13075
aline	-13076
amana	-13077
ameel	-13078
amins	-13079
ancer	-13080
ander	-13081
andri	-13082
andya	-13083
anine	-13084
anley	-13085
antib	-13086
antly	-13087
apter	-13088
arcia	-13089
aresh	-13090
arial	-13091
aroor	-13092
atile	-13093
auses	-13094
cells	-13095
cestr	-13096
chand	-13097
ciliz	-13098
daily	-13099
Ag	-13100
-70	-13101
.8%	-13102
.82	-13103
27,	-13104
IMS	-13105
Not	-13106
See	-13107
Comp	-13108
iots	-13109
psis	-13110
▁198	-13111
▁3,0	-13112
▁4,1	-13113
▁654	-13114
▁8,5	-13115
Incre	-13116
class	-13117
dened	-13118
eared	-13119
efied	-13120
eight	-13121
emade	-13122
eneck	-13123
eplom	-13124
eryth	-13125
eshoe	-13126
ested	-13127
ethia	-13128
etnam	-13129
ewadi	-13130
genda	-13131
giene	-13132
gnant	-13133
happy	-13134
hodde	-13135
hurst	-13136
iates	-13137
icter	-13138
ietly	-13139
ifies	-13140
inder	-13141
inity	-13142
ished	-13143
issue	-13144
isure	-13145
iwada	-13146
kerch	-13147
lectr	-13148
liang	-13149
llent	-13150
loyed	-13151
micro	-13152
molec	-13153
nesty	-13154
obert	-13155
ocate	-13156
ogene	-13157
olesc	-13158
ollam	-13159
olute	-13160
omics	-13161
onate	-13162
onged	-13163
ongue	-13164
opard	-13165
opean	-13166
orage	-13167
oreal	-13168
osals	-13169
othbr	-13170
ourav	-13171
proof	-13172
quire	-13173
rance	-13174
ratic	-13175
reath	-13176
regon	-13177
rists	-13178
ritin	-13179
ritis	-13180
rogen	-13181
surve	-13182
tingu	-13183
touch	-13184
ucive	-13185
umors	-13186
unist	-13187
urine	-13188
urkar	-13189
utane	-13190
vedha	-13191
venge	-13192
waste	-13193
watch	-13194
ylene	-13195
▁(95%	-13196
▁1.26	-13197
▁10-1	-13198
▁14.5	-13199
.1%	-13200
.68	-13201
ECT	-13202
GDP	-13203
SOP	-13204
TCM	-13205
3,35	-13206
Anti	-13207
alks	-13208
born	-13209
mini	-13210
ukla	-13211
▁202	-13212
▁44-	-13213
▁9.0	-13214
▁Aur	-13215
▁sky	-13216
Skill	-13217
tawah	-13218
▁15%.	-13219
▁1600	-13220
▁1860	-13221
▁1890	-13222
▁1930	-13223
▁1990	-13224
▁1999	-13225
▁2.24	-13226
▁2003	-13227
▁2005	-13228
▁2016	-13229
▁2024	-13230
▁225.	-13231
▁28).	-13232
▁4000	-13233
▁5-10	-13234
▁50%.	-13235
▁6000	-13236
▁70%.	-13237
▁8:00	-13238
▁ARDS	-13239
▁Acne	-13240
▁Alig	-13241
▁Arch	-13242
▁Auto	-13243
▁Bagh	-13244
▁Ball	-13245
▁Bhat	-13246
▁Bill	-13247
▁Boat	-13248
▁Bord	-13249
▁Buld	-13250
▁CCTV	-13251
▁CNBC	-13252
▁Cell	-13253
▁Chan	-13254
▁Ches	-13255
▁Club	-13256
▁Cost	-13257
▁Dale	-13258
▁Dash	-13259
▁Dean	-13260
▁Diab	-13261
▁Duke	-13262
▁ECDC	-13263
▁Fair	-13264
▁Faro	-13265
▁Fioc	-13266
▁Gavi	-13267
▁Gosw	-13268
▁Grap	-13269
▁Gunj	-13270
▁Hanc	-13271
▁Harb	-13272
▁ICSE	-13273
▁Inox	-13274
▁Jian	-13275
▁John	-13276
▁Join	-13277
▁Kate	-13278
▁Koch	-13279
▁Labs	-13280
▁Life	-13281
▁Lisa	-13282
▁Lock	-13283
▁Lomb	-13284
▁MISC	-13285
▁Mark	-13286
▁Maur	-13287
▁Mini	-13288
▁Mour	-13289
▁Murl	-13290
▁Mush	-13291
▁Need	-13292
▁Next	-13293
▁Nity	-13294
▁Nort	-13295
▁Open	-13296
▁Orig	-13297
▁Pain	-13298
▁Play	-13299
404	-13300
,337	-13301
acau	-13302
host	-13303
husi	-13304
▁26%	-13305
▁3-4	-13306
▁45.	-13307
▁732	-13308
Trans	-13309
▁Char	-13310
▁Puri	-13311
▁RBDs	-13312
▁Radi	-13313
▁Rath	-13314
▁RdRp	-13315
▁Renu	-13316
▁Rite	-13317
▁Rome	-13318
▁Rust	-13319
▁Semi	-13320
▁Sens	-13321
▁Serb	-13322
▁Sher	-13323
▁Soon	-13324
▁Spok	-13325
▁Stat	-13326
▁Ster	-13327
▁Sund	-13328
▁Swar	-13329
▁Term	-13330
▁Tout	-13331
▁Trin	-13332
▁Tumb	-13333
▁Type	-13334
▁Walk	-13335
▁Zade	-13336
▁Zhou	-13337
▁abol	-13338
▁abus	-13339
▁arms	-13340
▁arth	-13341
▁astr	-13342
▁auto	-13343
▁batt	-13344
▁boat	-13345
▁born	-13346
▁boun	-13347
▁bulk	-13348
▁cave	-13349
▁cler	-13350
▁conj	-13351
▁cyan	-13352
▁dehy	-13353
▁dysf	-13354
▁exit	-13355
▁eyeb	-13356
▁faec	-13357
▁garb	-13358
▁gift	-13359
▁hadn	-13360
▁heal	-13361
▁heat	-13362
▁hind	-13363
▁hole	-13364
▁inad	-13365
▁lect	-13366
▁leth	-13367
▁lies	-13368
▁ling	-13369
▁marr	-13370
▁mism	-13371
▁nerv	-13372
▁obst	-13373
▁onto	-13374
▁oral	-13375
▁outr	-13376
▁pale	-13377
▁palm	-13378
▁park	-13379
▁pier	-13380
▁pron	-13381
▁roof	-13382
▁rope	-13383
▁rose	-13384
▁semi	-13385
▁shad	-13386
▁sink	-13387
▁sits	-13388
▁soft	-13389
▁spor	-13390
▁stad	-13391
▁sunk	-13392
▁tent	-13393
▁tips	-13394
▁ultr	-13395
▁undi	-13396
▁unse	-13397
▁vice	-13398
▁visa	-13399
▁wage	-13400
▁warn	-13401
▁warr	-13402
▁wise	-13403
▁wish	-13404
▁woke	-13405
▁wood	-13406
▁youn	-13407
28,724	-13408
Consid	-13409
Health	-13410
Invest	-13411
Karnal	-13412
Monday	-13413
Oxford	-13414
Report	-13415
Sunday	-13416
WeCant	-13417
abbage	-13418
accept	-13419
acetic	-13420
aghadi	-13421
ahabad	-13422
alysis	-13423
ampled	-13424
ampton	-13425
arched	-13426
artens	-13427
asonal	-13428
asteur	-13429
atched	-13430
atized	-13431
ayatri	-13432
caused	-13433
champa	-13434
christ	-13435
creted	-13436
drogen	-13437
enefic	-13438
estyle	-13439
family	-13440
ferase	-13441
fering	-13442
formed	-13443
hengen	-13444
hikari	-13445
ighing	-13446
iguing	-13447
ilobar	-13448
iments	-13449
immune	-13450
inance	-13451
incial	-13452
initai	-13453
inkled	-13454
inners	-13455
inucle	-13456
invest	-13457
iodine	-13458
irteen	-13459
itious	-13460
ivated	-13461
laints	-13462
leneck	-13463
loring	-13464
loying	-13465
merman	-13466
minute	-13467
obases	-13468
okines	-13469
olitan	-13470
omencl	-13471
onment	-13472
openia	-13473
oplasm	-13474
orcine	-13475
osomes	-13476
oteins	-13477
otypes	-13478
ourced	-13479
ovakia	-13480
owered	-13481
points	-13482
prepar	-13483
public	-13484
rected	-13485
renton	-13486
ritage	-13487
series	-13488
siders	-13489
social	-13490
storey	-13491
strain	-13492
ternal	-13493
timely	-13494
uminum	-13495
ushman	-13496
ussell	-13497
weight	-13498
within	-13499
▁1,279	-13500
▁1,400	-13501
▁10-12	-13502
▁1967,	-13503
▁2002.	-13504
▁2005.	-13505
▁2008,	-13506
▁2013.	-13507
▁2015,	-13508
▁8,866	-13509
▁98.38	-13510
▁Aadmi	-13511
▁Aarti	-13512
▁Akole	-13513
▁Alleg	-13514
▁Ambul	-13515
▁Ameya	-13516
▁Angel	-13517
▁Angul	-13518
▁Apply	-13519
▁Asara	-13520
▁Audit	-13521
▁Biosc	-13522
▁Buxar	-13523
▁Cause	-13524
▁Clean	-13525
▁Cobra	-13526
▁Conte	-13527
▁Dhule	-13528
▁Dosti	-13529
▁Empty	-13530
▁Famil	-13531
▁Forum	-13532
▁Gavin	-13533
▁Ghati	-13534
▁Gopal	-13535
▁Hands	-13536
▁Hasan	-13537
▁Heard	-13538
▁Hersc	-13539
▁Hivre	-13540
▁Hotel	-13541
▁Ident	-13542
▁Innov	-13543
▁Iqbal	-13544
▁Iraqi	-13545
▁Istan	-13546
▁Jesus	-13547
▁Karad	-13548
▁Limit	-13549
▁Lymph	-13550
▁Macau	-13551
▁Malvi	-13552
▁Manor	-13553
▁Mater	-13554
▁Mazha	-13555
▁Metro	-13556
▁Minor	-13557
▁Multi	-13558
▁Nehru	-13559
▁Nikam	-13560
▁Nucle	-13561
▁Palli	-13562
▁Parks	-13563
▁Plans	-13564
▁Plaza	-13565
▁Popat	-13566
▁Postp	-13567
▁Preca	-13568
▁Psych	-13569
▁Putin	-13570
▁Rajya	-13571
▁Raman	-13572
▁Sambh	-13573
▁Sarah	-13574
▁Sarda	-13575
▁Shend	-13576
▁Shivr	-13577
▁Shrir	-13578
▁Signs	-13579
▁Sinha	-13580
▁Sleep	-13581
▁Start	-13582
▁Sujit	-13583
▁Sumit	-13584
▁Tikku	-13585
▁Veter	-13586
▁Vrind	-13587
▁Wadia	-13588
▁Wagle	-13589
▁Works	-13590
▁Youth	-13591
▁Zhong	-13592
▁aband	-13593
▁acids	-13594
▁advoc	-13595
▁affix	-13596
▁aided	-13597
▁assay	-13598
▁boats	-13599
▁brunt	-13600
▁cable	-13601
▁cathe	-13602
▁clock	-13603
▁cries	-13604
▁crime	-13605
▁culpr	-13606
▁dairy	-13607
▁delta	-13608
▁dream	-13609
▁dried	-13610
▁enorm	-13611
▁equal	-13612
▁error	-13613
▁erupt	-13614
▁escal	-13615
▁euros	-13616
▁facts	-13617
▁faith	-13618
▁farms	-13619
▁fatty	-13620
▁flood	-13621
▁flour	-13622
▁forum	-13623
▁funda	-13624
▁gates	-13625
▁genes	-13626
▁ghats	-13627
▁greet	-13628
▁guard	-13629
▁halls	-13630
▁hards	-13631
▁heads	-13632
▁hints	-13633
▁honor	-13634
▁hoped	-13635
▁hurts	-13636
▁hypox	-13637
▁jerry	-13638
▁judge	-13639
▁lacks	-13640
▁lashi	-13641
▁loads	-13642
▁lobby	-13643
▁lodge	-13644
▁mRNAs	-13645
▁maybe	-13646
▁modes	-13647
▁niche	-13648
▁nodes	-13649
▁noise	-13650
▁opens	-13651
▁packs	-13652
▁panch	-13653
▁panel	-13654
▁param	-13655
▁peace	-13656
▁persp	-13657
▁plaus	-13658
▁polls	-13659
▁poses	-13660
▁prime	-13661
▁reced	-13662
▁reimb	-13663
▁resol	-13664
▁riots	-13665
▁safer	-13666
▁scans	-13667
▁sends	-13668
▁sinus	-13669
▁sound	-13670
▁spare	-13671
▁spark	-13672
▁sport	-13673
▁squad	-13674
▁steal	-13675
▁subtr	-13676
▁suits	-13677
▁talks	-13678
▁taxes	-13679
▁token	-13680
▁toler	-13681
▁trash	-13682
▁tribe	-13683
▁turns	-13684
▁unans	-13685
▁unity	-13686
▁usage	-13687
▁visas	-13688
▁wheat	-13689
▁wreak	-13690
▁wrist	-13691
▁yacht	-13692
240,191	-13693
Breathe	-13694
Doctors	-13695
Instead	-13696
Mission	-13697
Pacific	-13698
Several	-13699
achment	-13700
agonist	-13701
ainagar	-13702
cestral	-13703
clearly	-13704
comings	-13705
contact	-13706
emerged	-13707
factant	-13708
ferably	-13709
fficial	-13710
heshwar	-13711
igating	-13712
indwara	-13713
itarian	-13714
itoring	-13715
lements	-13716
lishing	-13717
ocation	-13718
olutely	-13719
ortions	-13720
osphate	-13721
parents	-13722
pleural	-13723
plified	-13724
receipt	-13725
sequent	-13726
thening	-13727
tically	-13728
tilizer	-13729
tracted	-13730
tructed	-13731
ulkarni	-13732
urposed	-13733
viridae	-13734
virinae	-13735
wheeler	-13736
yanagar	-13737
yurveda	-13738
▁18,000	-13739
▁20-30%	-13740
▁2020),	-13741
▁2020).	-13742
▁22,000	-13743
▁66,191	-13744
▁90,000	-13745
▁97,000	-13746
▁Abbott	-13747
▁Adding	-13748
▁Almost	-13749
▁Annual	-13750
▁Appeal	-13751
▁Assays	-13752
▁Balkum	-13753
▁Boxing	-13754
▁Chance	-13755
▁Choose	-13756
▁Crisis	-13757
▁Crowds	-13758
▁Danish	-13759
▁Decide	-13760
▁Eating	-13761
▁Etawah	-13762
▁Examin	-13763
▁Fauchi	-13764
▁Feline	-13765
▁Ferret	-13766
▁Garcia	-13767
▁Gehlot	-13768
▁Gurjar	-13769
▁Haveli	-13770
▁Having	-13771
▁Hazare	-13772
▁Impact	-13773
▁Indeed	-13774
▁Jairam	-13775
▁Jameel	-13776
▁Janata	-13777
▁Kanhan	-13778
▁Khanna	-13779
▁Khodde	-13780
▁Kollam	-13781
▁Kolwad	-13782
▁Kuwait	-13783
▁Liquid	-13784
▁Liquor	-13785
▁Little	-13786
▁Living	-13787
▁Mandvi	-13788
▁Mayank	-13789
▁Medium	-13790
▁Microb	-13791
▁Mobile	-13792
▁Mukesh	-13793
▁Naresh	-13794
▁Nathan	-13795
▁Nepali	-13796
▁Nikita	-13797
▁Nikole	-13798
▁Nishan	-13799
▁Nitesh	-13800
▁Orange	-13801
▁Oregon	-13802
▁Parekh	-13803
▁Paresh	-13804
▁Pathak	-13805
▁Petrol	-13806
▁Philip	-13807
▁Plasma	-13808
▁Poland	-13809
▁Pratap	-13810
▁Raghav	-13811
▁Rakesh	-13812
▁Recent	-13813
▁Recomb	-13814
▁Recomm	-13815
▁Region	-13816
▁Remove	-13817
▁Robert	-13818
▁SOURCE	-13819
▁Saloni	-13820
▁Samant	-13821
▁Sanghi	-13822
▁Sanman	-13823
▁Sanofi	-13824
▁Sarkar	-13825
▁Select	-13826
▁Sethia	-13827
▁Shashi	-13828
▁Shelke	-13829
▁Shirdi	-13830
▁Shivaj	-13831
▁Shukla	-13832
▁Sourav	-13833
▁Stress	-13834
▁Sushil	-13835
▁Telugu	-13836
▁Tissue	-13837
▁Trying	-13838
▁Unlike	-13839
▁Vitava	-13840
▁Voting	-13841
▁abated	-13842
▁aboard	-13843
▁actors	-13844
▁agenda	-13845
▁arenas	-13846
▁argued	-13847
▁artist	-13848
▁awards	-13849
▁bigger	-13850
▁bluish	-13851
▁boosts	-13852
▁borrow	-13853
▁builds	-13854
▁bursts	-13855
▁bypass	-13856
▁career	-13857
▁choose	-13858
▁chosen	-13859
▁church	-13860
▁cleave	-13861
▁clever	-13862
▁coales	-13863
▁copper	-13864
▁correl	-13865
▁cotton	-13866
▁darker	-13867
▁debris	-13868
▁decade	-13869
▁decent	-13870
▁differ	-13871
▁dispel	-13872
▁dollar	-13873
▁elucid	-13874
▁encode	-13875
▁engage	-13876
▁exceed	-13877
▁exists	-13878
▁exodus	-13879
▁expiry	-13880
▁fallen	-13881
▁famine	-13882
▁favour	-13883
▁fevers	-13884
▁filter	-13885
▁financ	-13886
▁fridge	-13887
▁gained	-13888
▁garlic	-13889
▁genera	-13890
▁harmed	-13891
▁healed	-13892
▁homage	-13893
▁implic	-13894
▁incomp	-13895
▁induce	-13896
▁inevit	-13897
▁insist	-13898
▁jumped	-13899
▁kisses	-13900
▁labour	-13901
▁lauded	-13902
▁livest	-13903
▁luxury	-13904
▁matric	-13905
▁mening	-13906
▁mutate	-13907
▁myself	-13908
▁openly	-13909
▁paving	-13910
▁peaked	-13911
▁phased	-13912
▁physic	-13913
▁plague	-13914
▁planet	-13915
▁plight	-13916
▁poorly	-13917
▁powder	-13918
▁profit	-13919
▁propag	-13920
▁pulses	-13921
▁punish	-13922
▁racism	-13923
▁ration	-13924
▁recons	-13925
▁relied	-13926
▁relies	-13927
▁render	-13928
▁reward	-13929
▁routes	-13930
▁saving	-13931
▁secure	-13932
▁sepsis	-13933
▁served	-13934
▁settle	-13935
▁sheets	-13936
▁slogan	-13937
▁speedy	-13938
▁spring	-13939
▁staged	-13940
▁strand	-13941
▁symbol	-13942
▁thanks	-13943
▁tongue	-13944
▁topics	-13945
▁unused	-13946
▁utmost	-13947
▁verbal	-13948
▁victim	-13949
▁videos	-13950
▁waited	-13951
▁waiver	-13952
▁wonder	-13953
▁worsen	-13954
Amravati	-13955
Children	-13956
Citizens	-13957
European	-13958
amsunder	-13959
asonable	-13960
atisfied	-13961
attening	-13962
bacteria	-13963
bassador	-13964
breaking	-13965
ceptible	-13966
children	-13967
coronary	-13968
counting	-13969
enoviral	-13970
ervation	-13971
ferences	-13972
friendly	-13973
guppikar	-13974
ificance	-13975
itiously	-13976
itoriums	-13977
kerchief	-13978
lections	-13979
olerance	-13980
operated	-13981
polyprop	-13982
renowned	-13983
ropriate	-13984
uestions	-13985
ulations	-13986
undering	-13987
ursement	-13988
▁Advisor	-13989
▁Aklekar	-13990
▁Aligarh	-13991
▁Amitesh	-13992
▁Amnesty	-13993
▁Ashwini	-13994
▁Bhagyal	-13995
▁Biology	-13996
▁Changes	-13997
▁Civicus	-13998
▁Crisper	-13999
▁CureVac	-14000
▁Demrais	-14001
▁Driving	-14002
▁Enterpr	-14003
▁Environ	-14004
▁Exactly	-14005
▁Farooqi	-14006
▁Feeling	-14007
▁Fiocruz	-14008
▁Freight	-14009
▁Gayatri	-14010
▁Gonzalo	-14011
▁Goswami	-14012
▁Govandi	-14013
▁Guleria	-14014
▁Hancock	-14015
▁Highway	-14016
▁Hotspot	-14017
▁Hygiene	-14018
▁Justice	-14019
▁Karonam	-14020
▁Knowing	-14021
▁Lashkar	-14022
▁Leaders	-14023
▁Limited	-14024
▁MGNREGA	-14025
▁Manchar	-14026
▁Mangaon	-14027
▁Manjari	-14028
▁Manohar	-14029
▁Melinda	-14030
▁Moments	-14031
▁Morning	-14032
▁Mundada	-14033
▁Mushrif	-14034
▁Nigeria	-14035
▁Nirmala	-14036
▁Nomencl	-14037
▁NovaVax	-14038
▁Opinion	-14039
▁Organic	-14040
▁Organiz	-14041
▁Pankaja	-14042
▁Parcels	-14043
▁Pasteur	-14044
▁Percent	-14045
▁Pralhad	-14046
▁Premier	-14047
▁Produce	-14048
▁Project	-14049
▁Riteish	-14050
▁Russell	-14051
▁Sainath	-14052
▁Salgaon	-14053
▁Santosh	-14054
▁Shortly	-14055
▁Someone	-14056
▁Sources	-14057
▁Stanley	-14058
▁Stephen	-14059
▁Stomach	-14060
▁Studies	-14061
▁Sundays	-14062
▁Sushant	-14063
▁Swaroop	-14064
▁Telgote	-14065
▁Tharoor	-14066
▁Trenton	-14067
▁Vietnam	-14068
▁Virafin	-14069
▁Weekend	-14070
▁academy	-14071
▁adolesc	-14072
▁amongst	-14073
▁ancient	-14074
▁anymore	-14075
▁appeals	-14076
▁applies	-14077
▁assumed	-14078
▁awarded	-14079
▁beaches	-14080
▁begging	-14081
▁cameras	-14082
▁canteen	-14083
▁charges	-14084
▁chemist	-14085
▁cholera	-14086
▁circles	-14087
▁coffers	-14088
▁coronet	-14089
▁counsel	-14090
▁curtail	-14091
▁debated	-14092
▁decides	-14093
▁deleted	-14094
▁deliber	-14095
▁density	-14096
▁deposit	-14097
▁dispose	-14098
▁diverse	-14099
▁dosages	-14100
▁driving	-14101
▁editing	-14102
▁elected	-14103
▁enabled	-14104
▁enthusi	-14105
▁erected	-14106
▁existed	-14107
▁expects	-14108
▁expires	-14109
▁explode	-14110
▁fastest	-14111
▁ferrets	-14112
▁fiction	-14113
▁fifteen	-14114
▁finance	-14115
▁focuses	-14116
▁forcing	-14117
▁forming	-14118
▁founder	-14119
▁garbage	-14120
▁handles	-14121
▁hanging	-14122
▁helpers	-14123
▁herself	-14124
▁illegal	-14125
▁imagine	-14126
▁impacts	-14127
▁jumping	-14128
▁kinderg	-14129
▁lasting	-14130
▁leakage	-14131
▁leather	-14132
▁leisure	-14133
▁leveled	-14134
▁linking	-14135
▁markers	-14136
▁married	-14137
▁massage	-14138
▁misused	-14139
▁outlets	-14140
▁paramil	-14141
▁partner	-14142
▁passage	-14143
▁passing	-14144
▁pillows	-14145
▁placing	-14146
▁politic	-14147
▁prayers	-14148
▁printed	-14149
▁propose	-14150
▁pushing	-14151
▁qualify	-14152
▁quietly	-14153
▁refuted	-14154
▁relieve	-14155
▁repairs	-14156
▁replied	-14157
▁rescued	-14158
▁reserve	-14159
▁resorts	-14160
▁revenge	-14161
▁rinsing	-14162
▁selfish	-14163
▁seropre	-14164
▁shelter	-14165
▁shields	-14166
▁silence	-14167
▁somehow	-14168
▁stipend	-14169
▁swiftly	-14170
▁syndrom	-14171
▁tenfold	-14172
▁thereby	-14173
▁tociliz	-14174
▁tonight	-14175
▁toothbr	-14176
▁tourist	-14177
▁tracked	-14178
▁treason	-14179
▁tropism	-14180
▁undersc	-14181
▁vectors	-14182
▁wastage	-14183
▁worries	-14184
Increased	-14185
atologist	-14186
developed	-14187
diagnosed	-14188
emergency	-14189
evolution	-14190
ifference	-14191
intensive	-14192
mediately	-14193
mentation	-14194
molecular	-14195
objection	-14196
ochlorite	-14197
ogenicity	-14198
oglobulin	-14199
operation	-14200
operative	-14201
ositivity	-14202
political	-14203
suspected	-14204
vertently	-14205
▁Admitted	-14206
▁Africans	-14207
▁Approach	-14208
▁Approved	-14209
▁Aviation	-14210
▁Ayushman	-14211
▁Brooklyn	-14212
▁Challeng	-14213
▁Coronary	-14214
▁Cytokine	-14215
▁Decision	-14216
▁Detailed	-14217
▁Diabetes	-14218
▁Families	-14219
▁Gamaleya	-14220
▁Gangaram	-14221
▁Genomics	-14222
▁Ghatanji	-14223
▁Gunjayal	-14224
▁Herschel	-14225
▁Internet	-14226
▁Istanbul	-14227
▁Koliwada	-14228
▁Kulkarni	-14229
▁Lombardy	-14230
▁Mandavia	-14231
▁Mourinho	-14232
▁Nilekani	-14233
▁Officers	-14234
▁Ordinary	-14235
▁Panavati	-14236
▁Pandemic	-14237
▁Passbook	-14238
▁Politics	-14239
▁Popatrao	-14240
▁Portugal	-14241
▁Practice	-14242
▁Pregnant	-14243
▁Problems	-14244
▁Products	-14245
▁Ramanand	-14246
▁Recovery	-14247
▁Rustamji	-14248
▁Sambhaji	-14249
▁Schengen	-14250
▁Secondly	-14251
▁Shocking	-14252
▁Shopping	-14253
▁Shortage	-14254
▁Srinivas	-14255
▁Standard	-14256
▁Steroids	-14257
▁Supplies	-14258
▁Terminus	-14259
▁Tomorrow	-14260
▁Unfortun	-14261
▁Vaijapur	-14262
▁Warriors	-14263
▁Weddings	-14264
▁Wenliang	-14265
▁affinity	-14266
▁allergic	-14267
▁alliance	-14268
▁aluminum	-14269
▁anesthes	-14270
▁answered	-14271
▁awaiting	-14272
▁boarding	-14273
▁bouncers	-14274
▁breaking	-14275
▁calendar	-14276
▁catheter	-14277
▁clicking	-14278
▁clothing	-14279
▁collects	-14280
▁compiled	-14281
▁complied	-14282
▁conflict	-14283
▁contrary	-14284
▁coverage	-14285
▁culprits	-14286
▁curation	-14287
▁delaying	-14288
▁depleted	-14289
▁dialysis	-14290
▁disputes	-14291
▁distinct	-14292
▁editions	-14293
▁elevator	-14294
▁excreted	-14295
▁exempted	-14296
▁expanded	-14297
▁expedite	-14298
▁ferritin	-14299
▁fibrosis	-14300
▁flocking	-14301
▁forecast	-14302
▁formerly	-14303
▁greatest	-14304
▁hardware	-14305
▁heritage	-14306
▁highways	-14307
▁hoarding	-14308
▁homemade	-14309
▁hydrogen	-14310
▁impotent	-14311
▁inserted	-14312
▁inspired	-14313
▁interrog	-14314
▁jewelery	-14315
▁journals	-14316
▁kitchens	-14317
▁lockouts	-14318
▁lowering	-14319
▁managers	-14320
▁minimise	-14321
▁minimize	-14322
▁mistakes	-14323
▁momentum	-14324
▁monitors	-14325
▁mourning	-14326
▁objected	-14327
▁organize	-14328
▁overcame	-14329
▁passbook	-14330
▁peroxide	-14331
▁pilgrims	-14332
▁pipeline	-14333
▁populous	-14334
▁praising	-14335
▁prohibit	-14336
▁promotes	-14337
▁provider	-14338
▁purified	-14339
▁quantify	-14340
▁rational	-14341
▁reagents	-14342
▁recharge	-14343
▁reliance	-14344
▁renowned	-14345
▁reopened	-14346
▁resolved	-14347
▁responds	-14348
▁retarded	-14349
▁saddened	-14350
▁scanners	-14351
▁screened	-14352
▁sequelae	-14353
▁shipping	-14354
▁shoppers	-14355
▁software	-14356
▁speakers	-14357
▁sporadic	-14358
▁stadiums	-14359
▁stressed	-14360
▁stricter	-14361
▁stronger	-14362
▁subsided	-14363
▁subunits	-14364
▁surprise	-14365
▁survival	-14366
▁survives	-14367
▁syringes	-14368
▁tackling	-14369
▁telecomm	-14370
▁template	-14371
▁thanking	-14372
▁theatres	-14373
▁trampled	-14374
▁trending	-14375
▁turmeric	-14376
▁ultimate	-14377
▁unaccept	-14378
▁untimely	-14379
▁urgently	-14380
▁variable	-14381
▁vertical	-14382
▁vitamins	-14383
▁volatile	-14384
▁warriors	-14385
▁weighing	-14386
▁wherever	-14387
▁wildlife	-14388
▁wrestler	-14389
▁youngest	-14390
Covishield	-14391
Divisional	-14392
Everything	-14393
IndiaNeeds	-14394
Statistics	-14395
acorporeal	-14396
compliance	-14397
ensitivity	-14398
expressing	-14399
flammation	-14400
identified	-14401
illingness	-14402
inucleated	-14403
ordination	-14404
throughput	-14405
▁22,28,724	-14406
▁Allahabad	-14407
▁Basically	-14408
▁Bhayander	-14409
▁Biopharma	-14410
▁Challawad	-14411
▁Chemicals	-14412
▁Communist	-14413
▁Confusion	-14414
▁Decentral	-14415
▁Emergence	-14416
▁Expressed	-14417
▁Extensive	-14418
▁Factories	-14419
▁Fairhurst	-14420
▁Gilchrist	-14421
▁Husbandry	-14422
▁Implement	-14423
▁Informing	-14424
▁Insurance	-14425
▁Jayakumar	-14426
▁Kharegaon	-14427
▁Murlidhar	-14428
▁Nageshwar	-14429
▁Naturiste	-14430
▁Nityanand	-14431
▁Northeast	-14432
▁Patilwadi	-14433
▁Presented	-14434
▁Protocols	-14435
▁Religions	-14436
▁Sanitizer	-14437
▁Situation	-14438
▁Sometimes	-14439
▁Taskforce	-14440
▁Technical	-14441
▁Vaccinate	-14442
▁Violators	-14443
▁Vrindavan	-14444
▁Zimmerman	-14445
▁abilities	-14446
▁accepting	-14447
▁analysing	-14448
▁ancestral	-14449
▁appealing	-14450
▁arthritis	-14451
▁attacking	-14452
▁automatic	-14453
▁bacterium	-14454
▁bilateral	-14455
▁caregiver	-14456
▁certainty	-14457
▁circulate	-14458
▁collapses	-14459
▁companion	-14460
▁comparing	-14461
▁component	-14462
▁comprises	-14463
▁conducive	-14464
▁corporate	-14465
▁cowardice	-14466
▁cytokines	-14467
▁depletion	-14468
▁designate	-14469
▁directing	-14470
▁discharge	-14471
▁dismissed	-14472
▁divisions	-14473
▁dominance	-14474
▁economics	-14475
▁economist	-14476
▁emotional	-14477
▁employing	-14478
▁everybody	-14479
▁exceeding	-14480
▁excellent	-14481
▁expertise	-14482
▁exploring	-14483
▁exporters	-14484
▁facemasks	-14485
▁finalized	-14486
▁fragments	-14487
▁frequency	-14488
▁fulfilled	-14489
▁gluconate	-14490
▁headaches	-14491
▁horseshoe	-14492
▁hypoxemia	-14493
▁illegally	-14494
▁importing	-14495
▁inclusive	-14496
▁indicates	-14497
▁inquiries	-14498
▁instances	-14499
▁intensely	-14500
▁interacts	-14501
▁interfere	-14502
▁kilobases	-14503
▁lethality	-14504
▁lifestyle	-14505
▁liquefied	-14506
▁localized	-14507
▁medically	-14508
▁medicinal	-14509
▁microbial	-14510
▁ourselves	-14511
▁petitions	-14512
▁phosphate	-14513
▁poisoning	-14514
▁polarized	-14515
▁posterior	-14516
▁principal	-14517
▁prisoners	-14518
▁processed	-14519
▁prompting	-14520
▁proposals	-14521
▁recession	-14522
▁recombine	-14523
▁regulates	-14524
▁relieving	-14525
▁reopening	-14526
▁replacing	-14527
▁restraint	-14528
▁ritonavir	-14529
▁schooling	-14530
▁sentenced	-14531
▁shipments	-14532
▁stability	-14533
▁statistic	-14534
▁strangers	-14535
▁subjected	-14536
▁sustained	-14537
▁switching	-14538
▁taskforce	-14539
▁threshold	-14540
▁tightness	-14541
▁timelines	-14542
▁trimester	-14543
▁uncovered	-14544
▁unlocking	-14545
▁varieties	-14546
▁vigilance	-14547
▁volunteer	-14548
▁worsening	-14549
Considering	-14550
Coronavirus	-14551
Vaccination	-14552
preclinical	-14553
preparation	-14554
tinguishing	-14555
transferase	-14556
ucormycosis	-14557
▁Adarshgaon	-14558
▁Announcing	-14559
▁Antibodies	-14560
▁Artificial	-14561
▁Chancellor	-14562
▁Chhindwara	-14563
▁Commercial	-14564
▁Conference	-14565
▁Consultant	-14566
▁Corruption	-14567
▁Eventually	-14568
▁Federation	-14569
▁Hivrebazar	-14570
▁Integrated	-14571
▁Interacted	-14572
▁Ministries	-14573
▁Minorities	-14574
▁Population	-14575
▁Preferably	-14576
▁Protection	-14577
▁Repurposed	-14578
▁Salgaonkar	-14579
▁Sanitizers	-14580
▁Shalinitai	-14581
▁Shrirampur	-14582
▁Subpleural	-14583
▁Subsequent	-14584
▁Suryanagar	-14585
▁Ventilator	-14586
▁absolutely	-14587
▁acceptable	-14588
▁activation	-14589
▁adenoviral	-14590
▁aggravated	-14591
▁antivirals	-14592
▁apartments	-14593
▁appearance	-14594
▁bottleneck	-14595
▁capability	-14596
▁caregivers	-14597
▁committees	-14598
▁complained	-14599
▁complexity	-14600
▁concerning	-14601
▁consulates	-14602
▁contacting	-14603
▁containers	-14604
▁continents	-14605
▁covachield	-14606
▁covishield	-14607
▁deliveries	-14608
▁dependency	-14609
▁diminished	-14610
▁directions	-14611
▁disclosure	-14612
▁divergence	-14613
▁efficiency	-14614
▁electrical	-14615
▁entreprene	-14616
▁epithelial	-14617
▁essentials	-14618
▁evacuating	-14619
▁evaluating	-14620
▁exceptions	-14621
▁extinction	-14622
▁extracting	-14623
▁extraction	-14624
▁guaranteed	-14625
▁historical	-14626
▁inevitable	-14627
▁laundering	-14628
▁literature	-14629
▁litigation	-14630
▁ministries	-14631
▁multilobar	-14632
▁obstructed	-14633
▁originates	-14634
▁principles	-14635
▁progresses	-14636
▁prosecuted	-14637
▁provisions	-14638
▁reductions	-14639
▁references	-14640
▁remarkably	-14641
▁responding	-14642
▁sanitizing	-14643
▁satisfying	-14644
▁sentiments	-14645
▁sonography	-14646
▁stabilized	-14647
▁standstill	-14648
▁subgenomic	-14649
▁submission	-14650
▁succeeding	-14651
▁suppressed	-14652
▁surfactant	-14653
▁suspension	-14654
▁tomography	-14655
▁tournament	-14656
▁unanswered	-14657
▁unemployed	-14658
▁unseasonal	-14659
▁variations	-14660
▁veterinary	-14661
▁vocational	-14662
inflammatory	-14663
▁Citizenship	-14664
▁Emergencies	-14665
▁Expenditure	-14666
▁Fortunately	-14667
▁Integrative	-14668
▁Karguppikar	-14669
▁Precautions	-14670
▁Remadesivir	-14671
▁Runwalnagar	-14672
▁Shivainagar	-14673
▁Siddheshwar	-14674
▁Southampton	-14675
▁Susceptible	-14676
▁Viswanathan	-14677
▁accelerated	-14678
▁adolescents	-14679
▁auditoriums	-14680
▁battlefield	-14681
▁businessmen	-14682
▁categorized	-14683
▁celebrating	-14684
▁celebration	-14685
▁centralized	-14686
▁circulation	-14687
▁communicate	-14688
▁consistency	-14689
[...]
