<pad>	0
</s>	0
<unk>	0
なた	-0
あなた	-1
って	-2
たし	-3
わたし	-4
その	-5
った	-6
であ	-7
ない	-8
して	-9
から	-10
こと	-11
われ	-12
である	-13
彼ら	-14
あなたが	-15
たち	-16
よう	-17
あなたがた	-18
また	-19
した	-20
られ	-21
、「	-22
」。	-23
なら	-24
わたしは	-25
エル	-26
これ	-27
いる	-28
あなたの	-29
それ	-30
ように	-31
さい	-32
言った	-33
ため	-34
この	-35
の子	-36
いた	-37
する	-38
され	-39
べて	-40
ので	-41
わたしの	-42
いて	-43
ならない	-44
ろう	-45
すべて	-46
なる	-47
イス	-48
ラエル	-49
イスラエル	-50
ある	-51
ために	-52
れば	-53
主は	-54
かし	-55
人々	-56
びと	-57
あなたは	-58
には	-59
彼らは	-60
であろう	-61
主の	-62
もの	-63
言われ	-64
ことを	-65
者は	-66
すべての	-67
▁そ	-68
なさい	-69
エス	-70
イスラエルの	-71
をも	-72
によ	-73
イエス	-74
彼は	-75
うち	-76
られた	-77
ければ	-78
なければ	-79
こう	-80
自分	-81
しかし	-82
られる	-83
ます	-84
かった	-85
これを	-86
くだ	-87
あなたがたの	-88
もろ	-89
しい	-90
なければならない	-91
ことが	-92
んで	-93
▁その	-94
あなたがたは	-95
われわれ	-96
なわ	-97
えて	-98
れる	-99
なかった	-100
んだ	-101
れた	-102
わが	-103
のために	-104
わたしを	-105
わたしが	-106
わたしたち	-107
れて	-108
によって	-109
すなわ	-110
すなわち	-111
どう	-112
させ	-113
人の	-114
をもって	-115
ンの	-116
からである	-117
わたしに	-118
こで	-119
きて	-120
ょう	-121
およ	-122
ください	-123
言葉	-124
を見	-125
える	-126
ユダ	-127
された	-128
とり	-129
のうち	-130
言われた	-131
および	-132
でき	-133
では	-134
につ	-135
▁また	-136
もし	-137
神の	-138
ころ	-139
なく	-140
のように	-141
っている	-142
前に	-143
に言った	-144
共に	-145
のか	-146
ダビ	-147
ダビデ	-148
それを	-149
彼らの	-150
はならない	-151
えた	-152
まで	-153
らせ	-154
とを	-155
▁わたしは	-156
とな	-157
きた	-158
彼らを	-159
ました	-160
であった	-161
とき	-162
主が	-163
のである	-164
とに	-165
自分の	-166
▁しかし	-167
▁そこで	-168
ささ	-169
祭司	-170
これは	-171
人を	-172
あなたを	-173
神は	-174
ひとり	-175
つか	-176
ことは	-177
▁それ	-178
しょう	-179
ゆえ	-180
人は	-181
たちは	-182
リヤ	-183
ところ	-184
主に	-185
アブ	-186
上に	-187
あなたに	-188
ことができ	-189
です	-190
があ	-191
べき	-192
として	-193
おの	-194
、『	-195
ささげ	-196
らの	-197
モー	-198
モーセ	-199
そう	-200
ませ	-201
される	-202
者の	-203
と共に	-204
にな	-205
物を	-206
だれ	-207
▁主は	-208
の中	-209
そして	-210
おり	-211
レム	-212
▁そして	-213
サレム	-214
事を	-215
エルサレム	-216
兄弟	-217
者を	-218
みな	-219
かって	-220
行って	-221
こに	-222
もろの	-223
シャ	-224
と言	-225
彼を	-226
彼らに	-227
のです	-228
もろもろの	-229
める	-230
はその	-231
受け	-232
エジ	-233
地に	-234
言われる	-235
出て	-236
プト	-237
エジプト	-238
人々は	-239
めた	-240
つの	-241
ならば	-242
めて	-243
のは	-244
とい	-245
の王	-246
かに	-247
人が	-248
彼女	-249
彼に	-250
イエスは	-251
者が	-252
取り	-253
命じ	-254
見よ	-255
預言	-256
▁彼らは	-257
キリ	-258
滅ぼ	-259
とその	-260
彼の	-261
ロン	-262
行った	-263
にある	-264
しも	-265
▁あなたは	-266
の家	-267
にも	-268
スト	-269
多く	-270
らは	-271
あなたがたに	-272
の子孫	-273
であって	-274
しく	-275
▁彼は	-276
けて	-277
▁「	-278
ごと	-279
しもべ	-280
キリスト	-281
ただ	-282
にあ	-283
わせ	-284
について	-285
こうして	-286
ている	-287
でしょう	-288
しみ	-289
所に	-290
たちの	-291
与え	-292
サウ	-293
王の	-294
地の	-295
ません	-296
ごとく	-297
りを	-298
主よ	-299
言葉を	-300
ける	-301
びとの	-302
それは	-303
行き	-304
るであろう	-305
▁この	-306
りの	-307
いに	-308
ルの	-309
ムの	-310
わざ	-311
食べ	-312
をあ	-313
いつ	-314
したが	-315
彼らが	-316
言う	-317
にお	-318
告げ	-319
とし	-320
とは	-321
あなたがたが	-322
ことごとく	-323
とおり	-324
ような	-325
の間	-326
これらの	-327
かの	-328
います	-329
人に	-330
民は	-331
立って	-332
王は	-333
いを	-334
さば	-335
罪を	-336
かな	-337
行く	-338
主を	-339
モン	-340
イスラエルの人々	-341
もとに	-342
来る	-343
シュ	-344
ヤコ	-345
者に	-346
ヤコブ	-347
よい	-348
われわれの	-349
かた	-350
彼が	-351
捨て	-352
祭壇	-353
けた	-354
のうちに	-355
名を	-356
を受け	-357
手に	-358
聞き	-359
われわれは	-360
すると	-361
民を	-362
より	-363
ではない	-364
らない	-365
手を	-366
たちを	-367
あなたがたを	-368
わたしたちは	-369
を得	-370
エリ	-371
るぎ	-372
でも	-373
立ち	-374
たちが	-375
となる	-376
多くの	-377
日に	-378
主なる	-379
のだ	-380
▁ア	-381
律法	-382
とする	-383
の上に	-384
あり	-385
いなる	-386
つかわ	-387
▁あなたの	-388
している	-389
っていた	-390
いだ	-391
かつ	-392
身を	-393
地を	-394
とが	-395
先祖	-396
心を	-397
しる	-398
ニヤ	-399
ルは	-400
立て	-401
むかって	-402
たちに	-403
あが	-404
つるぎ	-405
▁さ	-406
民の	-407
そこに	-408
いの	-409
と言った	-410
レビ	-411
一緒	-412
すれば	-413
その子	-414
いなさい	-415
聖なる	-416
まえ	-417
なが	-418
聞いて	-419
大いなる	-420
しき	-421
定め	-422
▁もし	-423
しま	-424
正しい	-425
をお	-426
を行	-427
つかさ	-428
▁あなたがたは	-429
かせ	-430
神に	-431
という	-432
となり	-433
ぶどう	-434
ふた	-435
パン	-436
部族	-437
んな	-438
ものは	-439
かわ	-440
のに	-441
がある	-442
建て	-443
対して	-444
に住	-445
▁こうして	-446
ラム	-447
ユダヤ	-448
なお	-449
呼ば	-450
ゆる	-451
ものを	-452
は言った	-453
時に	-454
知恵	-455
にはい	-456
どうして	-457
ども	-458
一緒に	-459
る者は	-460
リシ	-461
のを	-462
いは	-463
のですか	-464
わたしたちの	-465
ると	-466
引き	-467
預言者	-468
はい	-469
にしたが	-470
になった	-471
弟子	-472
のを見	-473
ソロ	-474
であり	-475
を守	-476
のない	-477
らに	-478
契約	-479
よりも	-480
軍の	-481
生き	-482
ダビデは	-483
喜び	-484
ためである	-485
町々	-486
神を	-487
▁さて	-488
る者	-489
幕屋	-490
▁それゆえ	-491
に従	-492
追い	-493
▁すなわち	-494
』。	-495
恵み	-496
るように	-497
とど	-498
打ち	-499
氏族	-500
ないで	-501
ユダの	-502
おのおの	-503
いで	-504
ビト	-505
栄光	-506
キュ	-507
キュビト	-508
の中に	-509
神が	-510
取って	-511
▁ヨ	-512
バビ	-513
なり	-514
からだ	-515
連れて	-516
ものである	-517
げて	-518
キヤ	-519
パロ	-520
セフ	-521
信じ	-522
恐れ	-523
ひとりの	-524
▁イエスは	-525
これに	-526
ペリシ	-527
ペリシテ	-528
なぜ	-529
燔祭	-530
荒野	-531
となった	-532
ることができ	-533
同じ	-534
祝福	-535
があり	-536
ンは	-537
一つ	-538
なった	-539
ること	-540
りに	-541
ゆえに	-542
いと	-543
レア	-544
他の	-545
シュア	-546
にしたがって	-547
らを	-548
ラハ	-549
信仰	-550
とした	-551
一つの	-552
ことはない	-553
との	-554
大き	-555
万軍の	-556
向かって	-557
エジプトの	-558
道を	-559
こう言われる	-560
てください	-561
に言われた	-562
アロン	-563
人の子	-564
よく	-565
を造	-566
心に	-567
おまえ	-568
ほかの	-569
スリヤ	-570
まず	-571
ライ	-572
ロンの	-573
帰って	-574
しえ	-575
もまた	-576
▁すると	-577
と言う	-578
罪を犯	-579
さばき	-580
ではないか	-581
エフ	-582
日の	-583
前で	-584
良い	-585
をささげ	-586
十二	-587
うちに	-588
そこ	-589
だけ	-590
入れ	-591
思い	-592
われた	-593
われる	-594
があった	-595
ましょう	-596
ケル	-597
宮の	-598
家に	-599
アブラハ	-600
られて	-601
とも	-602
尋ね	-603
ことを知	-604
をつ	-605
ソロモン	-606
供え	-607
ってはならない	-608
だから	-609
しなさい	-610
びとは	-611
と一緒に	-612
主なる神は	-613
▁その時	-614
主の前に	-615
の木	-616
子を	-617
悪しき	-618
の前に	-619
かり	-620
のが	-621
民に	-622
そこで	-623
出して	-624
んでいる	-625
のある	-626
上って	-627
かえ	-628
アル	-629
ながら	-630
むべき	-631
アビ	-632
二十	-633
かれた	-634
どうぞ	-635
あなたの神	-636
の上	-637
死んだ	-638
聞いた	-639
サム	-640
きょう	-641
滅び	-642
ところに	-643
マリヤ	-644
ところが	-645
そうすれば	-646
所で	-647
▁これは	-648
だれが	-649
どうか	-650
答えて	-651
たちよ	-652
なん	-653
嗣業	-654
を取り	-655
とおりである	-656
せよ	-657
がよい	-658
されて	-659
ムは	-660
しない	-661
ヨセフ	-662
モーセは	-663
ここに	-664
人々が	-665
出た	-666
るべき	-667
殺した	-668
イエスの	-669
とこ	-670
仰せ	-671
助け	-672
とこしえ	-673
者である	-674
ってお	-675
まだ	-676
▁わたしの	-677
町の	-678
オン	-679
のでは	-680
国の	-681
または	-682
下さ	-683
パウ	-684
常に	-685
パウロ	-686
与える	-687
はや	-688
投げ	-689
にいる	-690
愛する	-691
してはならない	-692
と思	-693
のよう	-694
ルダ	-695
必ず	-696
ろうか	-697
あわれ	-698
ベア	-699
次の	-700
犠牲	-701
持って	-702
の方	-703
撃ち	-704
者も	-705
いつく	-706
あら	-707
満ち	-708
▁見よ	-709
えられた	-710
ことがない	-711
ことに	-712
になって	-713
▁エ	-714
悪い	-715
とどま	-716
あかし	-717
あった	-718
そむ	-719
国々	-720
導き	-721
集ま	-722
おお	-723
に至	-724
の長	-725
を知	-726
攻め	-727
▁主よ	-728
してください	-729
の一	-730
アハ	-731
会衆	-732
▁わたしが	-733
りは	-734
アン	-735
呼び	-736
小羊	-737
水を	-738
ようか	-739
サウル	-740
モアブ	-741
生きて	-742
あるいは	-743
主は言われる	-744
あの	-745
らず	-746
死ぬ	-747
アシ	-748
安息	-749
を建て	-750
イエスを	-751
再び	-752
周囲	-753
救い	-754
ずから	-755
それに	-756
とって	-757
テロ	-758
彼女は	-759
すぐ	-760
▁わが	-761
のうちから	-762
のろ	-763
ベテ	-764
地は	-765
させた	-766
携えて	-767
近づ	-768
をする	-769
ダビデの	-770
をか	-771
なし	-772
戒め	-773
父の	-774
からです	-775
名は	-776
群れ	-777
いない	-778
させる	-779
与えた	-780
カル	-781
▁神は	-782
わなければならない	-783
カナ	-784
目に	-785
びとを	-786
もない	-787
いつくしみ	-788
のすべての	-789
タン	-790
感謝	-791
ヨルダ	-792
手から	-793
いや	-794
など	-795
れている	-796
群衆	-797
金の	-798
▁主の	-799
わせて	-800
ありません	-801
命じられた	-802
エルサレムに	-803
かれ	-804
つく	-805
をし	-806
神よ	-807
わった	-808
まさ	-809
ザル	-810
ミヤ	-811
来て	-812
油を	-813
』」。	-814
ニヤミ	-815
下って	-816
恐れる	-817
これらは	-818
エフライ	-819
らなければならない	-820
わず	-821
宿営	-822
らせた	-823
すで	-824
互に	-825
出し	-826
言い	-827
ユダの王	-828
神々	-829
かれる	-830
ついに	-831
を見て	-832
の子らは	-833
ベニヤミ	-834
主である	-835
▁ところが	-836
あげ	-837
異邦	-838
はず	-839
がその	-840
できない	-841
ヨシュア	-842
いま	-843
命を	-844
自身	-845
血を	-846
高き	-847
おきて	-848
ペテロ	-849
与えて	-850
ではなく	-851
にあって	-852
捕え	-853
聞く	-854
求める	-855
きなさい	-856
ないように	-857
マナ	-858
中に	-859
住む	-860
求め	-861
滅ぼす	-862
しろ	-863
の下	-864
者と	-865
を行う	-866
またその	-867
ることを	-868
王に	-869
聖所	-870
逃げ	-871
みが	-872
人々に	-873
あなたと	-874
語り	-875
答えた	-876
しめ	-877
レク	-878
ほめた	-879
おられる	-880
みを	-881
すでに	-882
とこしえに	-883
バビロンの	-884
おう	-885
時は	-886
言葉が	-887
▁それで	-888
イエスが	-889
エルサレムの	-890
わた	-891
目を	-892
していた	-893
ほめたた	-894
わたしはあなたの	-895
ほど	-896
長老	-897
になる	-898
みずから	-899
言いなさい	-900
じて	-901
切り	-902
せて	-903
まま	-904
天幕	-905
しるし	-906
られます	-907
このように	-908
ヨハ	-909
祭の	-910
どんな	-911
二つの	-912
りなさい	-913
イスラエルの人々は	-914
とめ	-915
サイ	-916
不義	-917
離れ	-918
レミヤ	-919
であろうか	-920
すみ	-921
モンの	-922
から出て	-923
されている	-924
カイ	-925
仕え	-926
真実	-927
雄羊	-928
を見た	-929
怒り	-930
たちと	-931
臨んだ	-932
▁それから	-933
を結	-934
永遠	-935
あなたがたの神	-936
三十	-937
を与え	-938
命じて	-939
レビびと	-940
ことができる	-941
バル	-942
貧しい	-943
るために	-944
アブラハム	-945
がない	-946
しよう	-947
にか	-948
物は	-949
による	-950
おこ	-951
もう	-952
やぎ	-953
一頭	-954
初め	-955
奴隷	-956
子供	-957
に従って	-958
らなかった	-959
キリストの	-960
のぼ	-961
テの	-962
デヤ	-963
入口	-964
国を	-965
家の	-966
ったので	-967
出す	-968
道に	-969
もはや	-970
マナセ	-971
と言って	-972
サムエル	-973
きを	-974
たく	-975
呼ばわ	-976
サウルは	-977
主にささげ	-978
焼き	-979
ゼル	-980
の幕屋	-981
こう仰せ	-982
ろば	-983
ヨナ	-984
心は	-985
約束	-986
われらの	-987
ッパ	-988
雄牛	-989
青銅	-990
出した	-991
いている	-992
イサ	-993
偶像	-994
これが	-995
ったが	-996
愚かな	-997
のほ	-998
むす	-999
めぐ	-1000
わし	-1001
ジヤ	-1002
強く	-1003
殺し	-1004
の中で	-1005
イサク	-1006
レアデ	-1007
仕える	-1008
大きな	-1009
があって	-1010
ッスリヤ	-1011
ユダヤ人	-1012
と言われた	-1013
にむかって	-1014
かが	-1015
エド	-1016
声を	-1017
御使	-1018
軍勢	-1019
顔を	-1020
勇士	-1021
喜ば	-1022
持ち	-1023
苦しみ	-1024
にはいって	-1025
を生	-1026
会見	-1027
悩み	-1028
落ち	-1029
主の宮	-1030
前から	-1031
かい	-1032
アヒ	-1033
五十	-1034
▁ただ	-1035
命じた	-1036
自分を	-1037
ギレアデ	-1038
モーセに言われた	-1039
アマ	-1040
セラ	-1041
者よ	-1042
と言い	-1043
パンを	-1044
汚れた	-1045
イスラエルの王	-1046
の門	-1047
ごとに	-1048
により	-1049
るまで	-1050
わない	-1051
滅ぼし	-1052
につかわ	-1053
われわれを	-1054
知っている	-1055
らい	-1056
シメ	-1057
国に	-1058
女は	-1059
離れて	-1060
わい	-1061
もなく	-1062
人々の	-1063
人々を	-1064
地から	-1065
わたしたちが	-1066
彼らに言った	-1067
えを	-1068
きに	-1069
さない	-1070
に住む	-1071
産んだ	-1072
▁それは	-1073
イスラエルを	-1074
くる	-1075
若い	-1076
それで	-1077
およびその	-1078
彼に言った	-1079
よろ	-1080
城壁	-1081
悪を	-1082
王が	-1083
その時	-1084
らかに	-1085
属する	-1086
つかわして	-1087
ヒゼ	-1088
割礼	-1089
家畜	-1090
心の	-1091
集め	-1092
はまた	-1093
生れた	-1094
ヒゼキヤ	-1095
▁ダビデは	-1096
のではない	-1097
衣服	-1098
あって	-1099
たちも	-1100
たとい	-1101
だれも	-1102
その人は	-1103
のような	-1104
サマリヤ	-1105
合わせて	-1106
▁あなたが	-1107
次のとおりである	-1108
ああ	-1109
えよ	-1110
すわ	-1111
事は	-1112
来た	-1113
見て	-1114
のかた	-1115
かす	-1116
しし	-1117
書き	-1118
してお	-1119
ヨハネ	-1120
ルの子	-1121
分の一	-1122
したので	-1123
のゆえに	-1124
って言った	-1125
会見の幕屋	-1126
ことはできない	-1127
行う	-1128
ようと	-1129
ヨアブ	-1130
知らせ	-1131
食べて	-1132
られない	-1133
エレミヤ	-1134
▁あなたがたの	-1135
イスラエルの神	-1136
と戦	-1137
リブ	-1138
出る	-1139
▁時に	-1140
にいた	-1141
▁その日	-1142
のを見て	-1143
われわれに	-1144
アッスリヤ	-1145
だからである	-1146
世の	-1147
知識	-1148
いった	-1149
へ行って	-1150
バビロン	-1151
に帰	-1152
人と	-1153
天の	-1154
女の	-1155
荒れ	-1156
見た	-1157
いのち	-1158
ことである	-1159
もと	-1160
カデ	-1161
叫び	-1162
んでいた	-1163
さま	-1164
の日	-1165
の時	-1166
ヘブ	-1167
四十	-1168
強い	-1169
所を	-1170
をあげて	-1171
エリシャ	-1172
ないでください	-1173
サロ	-1174
天に	-1175
死に	-1176
語る	-1177
身に	-1178
高ぶ	-1179
の前で	-1180
ほかに	-1181
非常に	-1182
のうちの	-1183
知らない	-1184
答えて言った	-1185
堅く	-1186
供え物	-1187
取った	-1188
言葉は	-1189
あがない	-1190
むな	-1191
上の	-1192
山に	-1193
望み	-1194
町を	-1195
すべき	-1196
大いに	-1197
それゆえ	-1198
ふたりの	-1199
こう仰せられる	-1200
▁第	-1201
ナイ	-1202
手の	-1203
行い	-1204
かない	-1205
その日	-1206
怒りを	-1207
ことのない	-1208
年の	-1209
ラッパ	-1210
聞き従	-1211
はずかし	-1212
わたしと	-1213
ことができない	-1214
されるであろう	-1215
かも	-1216
福音	-1217
耳を	-1218
▁祭司	-1219
びとが	-1220
新しい	-1221
▁すべて	-1222
のもとに	-1223
わたしたちを	-1224
さは	-1225
しば	-1226
たび	-1227
に乗	-1228
ベル	-1229
何を	-1230
分け	-1231
れない	-1232
エホ	-1233
平安	-1234
素祭	-1235
遠く	-1236
かつて	-1237
なって	-1238
シケル	-1239
かなければならない	-1240
まわ	-1241
めと	-1242
アサ	-1243
ラン	-1244
過ぎ	-1245
食い	-1246
あいだ	-1247
くださ	-1248
たので	-1249
わざを	-1250
をその	-1251
天から	-1252
立てて	-1253
において	-1254
ぶどう酒	-1255
憎むべき	-1256
いう	-1257
さん	-1258
と同じ	-1259
去って	-1260
悲しみ	-1261
えている	-1262
のかたわ	-1263
に向かって	-1264
いな	-1265
らん	-1266
宣べ	-1267
教会	-1268
しえた	-1269
オンの	-1270
を取って	-1271
▁モーセは	-1272
の子である	-1273
シマ	-1274
ラバ	-1275
事が	-1276
命令	-1277
国民	-1278
戦車	-1279
所有	-1280
なんの	-1281
えられる	-1282
アブサロ	-1283
うた	-1284
ひと	-1285
びる	-1286
れを	-1287
マル	-1288
全く	-1289
地で	-1290
散ら	-1291
飲み	-1292
になり	-1293
去った	-1294
対する	-1295
められる	-1296
あなたの子	-1297
ペリシテびとの	-1298
高く	-1299
それが	-1300
むすこ	-1301
となって	-1302
このような	-1303
人であった	-1304
おのおのその	-1305
わたしたちに	-1306
くじ	-1307
の娘	-1308
立つ	-1309
聞け	-1310
進み	-1311
の間に	-1312
手に渡	-1313
▁だから	-1314
イスラエルは	-1315
――	-1316
ほふ	-1317
までも	-1318
恐れて	-1319
かえって	-1320
れるであろう	-1321
となるであろう	-1322
せず	-1323
ねて	-1324
救う	-1325
町に	-1326
絶え	-1327
どこに	-1328
の子孫は	-1329
でしょうか	-1330
イスラエルの人々の	-1331
をた	-1332
パテ	-1333
国は	-1334
目は	-1335
の	-1336
、	-1337
た	-1338
に	-1339
は	-1340
な	-1341
を	-1342
し	-1343
。	-1344
て	-1345
い	-1346
と	-1347
る	-1348
あ	-1349
れ	-1350
ら	-1351
▁	-1352
が	-1353
わ	-1354
で	-1355
っ	-1356
か	-1357
そ	-1358
こ	-1359
う	-1360
も	-1361
ま	-1362
す	-1363
よ	-1364
さ	-1365
き	-1366
り	-1367
彼	-1368
ち	-1369
く	-1370
え	-1371
言	-1372
エ	-1373
め	-1374
人	-1375
ル	-1376
主	-1377
者	-1378
お	-1379
だ	-1380
つ	-1381
ろ	-1382
け	-1383
イ	-1384
ス	-1385
ア	-1386
せ	-1387
び	-1388
み	-1389
「	-1390
」	-1391
ラ	-1392
べ	-1393
ば	-1394
子	-1395
ン	-1396
神	-1397
ん	-1398
ヤ	-1399
行	-1400
シ	-1401
ム	-1402
リ	-1403
ど	-1404
々	-1405
ダ	-1406
王	-1407
見	-1408
地	-1409
む	-1410
げ	-1411
サ	-1412
レ	-1413
ロ	-1414
ビ	-1415
出	-1416
デ	-1417
ず	-1418
民	-1419
ブ	-1420
じ	-1421
テ	-1422
一	-1423
祭	-1424
分	-1425
や	-1426
日	-1427
上	-1428
時	-1429
ト	-1430
自	-1431
物	-1432
モ	-1433
知	-1434
家	-1435
所	-1436
手	-1437
ヨ	-1438
セ	-1439
前	-1440
事	-1441
ひ	-1442
マ	-1443
ハ	-1444
立	-1445
バ	-1446
十	-1447
国	-1448
パ	-1449
女	-1450
ナ	-1451
聞	-1452
キ	-1453
ご	-1454
ほ	-1455
心	-1456
ベ	-1457
大	-1458
中	-1459
取	-1460
ゆ	-1461
生	-1462
食	-1463
二	-1464
葉	-1465
ぎ	-1466
町	-1467
ょ	-1468
ユ	-1469
『	-1470
』	-1471
カ	-1472
悪	-1473
命	-1474
父	-1475
ぶ	-1476
死	-1477
名	-1478
弟	-1479
罪	-1480
与	-1481
ウ	-1482
下	-1483
共	-1484
ジ	-1485
聖	-1486
来	-1487
タ	-1488
へ	-1489
長	-1490
目	-1491
ふ	-1492
ク	-1493
間	-1494
ぼ	-1495
司	-1496
族	-1497
ざ	-1498
殺	-1499
身	-1500
ね	-1501
全	-1502
滅	-1503
天	-1504
プ	-1505
オ	-1506
ミ	-1507
ー	-1508
三	-1509
会	-1510
住	-1511
兄	-1512
コ	-1513
思	-1514
帰	-1515
フ	-1516
ペ	-1517
ネ	-1518
入	-1519
信	-1520
道	-1521
恐	-1522
ザ	-1523
従	-1524
ャ	-1525
語	-1526
受	-1527
宮	-1528
孫	-1529
メ	-1530
年	-1531
水	-1532
ュ	-1533
多	-1534
救	-1535
今	-1536
呼	-1537
ニ	-1538
羊	-1539
ゼ	-1540
先	-1541
喜	-1542
造	-1543
ケ	-1544
高	-1545
口	-1546
恵	-1547
去	-1548
万	-1549
山	-1550
七	-1551
四	-1552
得	-1553
ド	-1554
正	-1555
預	-1556
守	-1557
愛	-1558
答	-1559
頭	-1560
使	-1561
義	-1562
霊	-1563
力	-1564
戦	-1565
起	-1566
書	-1567
荒	-1568
ぐ	-1569
何	-1570
声	-1571
方	-1572
向	-1573
告	-1574
金	-1575
実	-1576
部	-1577
五	-1578
持	-1579
光	-1580
軍	-1581
火	-1582
ヒ	-1583
同	-1584
世	-1585
後	-1586
百	-1587
野	-1588
ッ	-1589
集	-1590
幕	-1591
・	-1592
木	-1593
ヘ	-1594
御	-1595
ホ	-1596
仰	-1597
仕	-1598
定	-1599
怒	-1600
教	-1601
着	-1602
求	-1603
供	-1604
娘	-1605
ソ	-1606
不	-1607
妻	-1608
足	-1609
法	-1610
栄	-1611
対	-1612
安	-1613
石	-1614
数	-1615
残	-1616
汚	-1617
ガ	-1618
づ	-1619
皆	-1620
約	-1621
追	-1622
牛	-1623
雄	-1624
門	-1625
引	-1626
打	-1627
敵	-1628
歩	-1629
祖	-1630
離	-1631
ギ	-1632
衆	-1633
海	-1634
福	-1635
血	-1636
渡	-1637
ぜ	-1638
小	-1639
壇	-1640
捨	-1641
連	-1642
他	-1643
近	-1644
ぬ	-1645
良	-1646
合	-1647
置	-1648
撃	-1649
産	-1650
ぞ	-1651
場	-1652
捕	-1653
満	-1654
屋	-1655
臨	-1656
千	-1657
律	-1658
苦	-1659
代	-1660
群	-1661
飲	-1662
第	-1663
犯	-1664
肉	-1665
男	-1666
緒	-1667
建	-1668
寄	-1669
誓	-1670
夜	-1671
強	-1672
香	-1673
望	-1674
次	-1675
銀	-1676
助	-1677
焼	-1678
倒	-1679
願	-1680
遠	-1681
顔	-1682
平	-1683
座	-1684
月	-1685
油	-1686
切	-1687
真	-1688
祈	-1689
ズ	-1690
若	-1691
酒	-1692
六	-1693
導	-1694
ノ	-1695
器	-1696
攻	-1697
祝	-1698
母	-1699
憎	-1700
契	-1701
囲	-1702
流	-1703
示	-1704
進	-1705
息	-1706
氏	-1707
偽	-1708
終	-1709
結	-1710
ピ	-1711
注	-1712
報	-1713
川	-1714
内	-1715
外	-1716
像	-1717
君	-1718
悩	-1719
老	-1720
獣	-1721
宿	-1722
燔	-1723
断	-1724
叫	-1725
耳	-1726
病	-1727
至	-1728
畑	-1729
過	-1730
重	-1731
ゲ	-1732
伏	-1733
常	-1734
清	-1735
治	-1736
携	-1737
気	-1738
選	-1739
歌	-1740
必	-1741
明	-1742
衣	-1743
伝	-1744
拝	-1745
種	-1746
異	-1747
ボ	-1748
服	-1749
放	-1750
尋	-1751
災	-1752
箱	-1753
青	-1754
当	-1755
業	-1756
落	-1757
営	-1758
戒	-1759
破	-1760
初	-1761
賜	-1762
送	-1763
絶	-1764
悲	-1765
及	-1766
投	-1767
牧	-1768
柱	-1769
通	-1770
開	-1771
嗣	-1772
現	-1773
礼	-1774
隠	-1775
負	-1776
感	-1777
用	-1778
歳	-1779
互	-1780
悟	-1781
愚	-1782
逃	-1783
楽	-1784
意	-1785
争	-1786
作	-1787
永	-1788
恥	-1789
返	-1790
理	-1791
―	-1792
働	-1793
別	-1794
風	-1795
土	-1796
勇	-1797
体	-1798
夫	-1799
車	-1800
牲	-1801
犠	-1802
ツ	-1803
解	-1804
再	-1805
右	-1806
徒	-1807
話	-1808
以	-1809
度	-1810
東	-1811
奪	-1812
待	-1813
馬	-1814
朝	-1815
罰	-1816
備	-1817
証	-1818
音	-1819
グ	-1820
堅	-1821
周	-1822
最	-1823
激	-1824
貧	-1825
富	-1826
士	-1827
加	-1828
壁	-1829
深	-1830
頼	-1831
麦	-1832
八	-1833
謝	-1834
害	-1835
泣	-1836
無	-1837
獲	-1838
諸	-1839
谷	-1840
勢	-1841
城	-1842
宣	-1843
新	-1844
動	-1845
工	-1846
束	-1847
邦	-1848
成	-1849
兵	-1850
庭	-1851
ポ	-1852
利	-1853
穴	-1854
乗	-1855
台	-1856
伸	-1857
砕	-1858
北	-1859
糸	-1860
雲	-1861
権	-1862
除	-1863
属	-1864
寝	-1865
布	-1866
淫	-1867
魂	-1868
境	-1869
暗	-1870
乳	-1871
親	-1872
少	-1873
広	-1874
戸	-1875
洗	-1876
非	-1877
側	-1878
嘆	-1879
畜	-1880
和	-1881
務	-1882
勝	-1883
吹	-1884
払	-1885
空	-1886
変	-1887
夕	-1888
殿	-1889
移	-1890
隷	-1891
岩	-1892
様	-1893
奴	-1894
銅	-1895
裂	-1896
僕	-1897
官	-1898
決	-1899
留	-1900
偶	-1901
割	-1902
皮	-1903
買	-1904
ヅ	-1905
墓	-1906
宝	-1907
散	-1908
有	-1909
誇	-1910
燃	-1911
葬	-1912
議	-1913
召	-1914
驚	-1915
売	-1916
計	-1917
設	-1918
半	-1919
学	-1920
訴	-1921
善	-1922
果	-1923
降	-1924
令	-1925
消	-1926
隣	-1927
張	-1928
憤	-1929
授	-1930
位	-1931
尊	-1932
隊	-1933
確	-1934
労	-1935
角	-1936
踏	-1937
ゴ	-1938
傾	-1939
役	-1940
眠	-1941
築	-1942
素	-1943
相	-1944
鳥	-1945
傷	-1946
枝	-1947
花	-1948
識	-1949
公	-1950
南	-1951
好	-1952
難	-1953
復	-1954
指	-1955
納	-1956
領	-1957
骨	-1958
村	-1959
迎	-1960
妹	-1961
首	-1962
問	-1963
舟	-1964
越	-1965
込	-1966
保	-1967
忘	-1968
ゅ	-1969
威	-1970
毛	-1971
弱	-1972
施	-1973
昼	-1974
友	-1975
失	-1976
陣	-1977
熱	-1978
草	-1979
逆	-1980
配	-1981
刈	-1982
招	-1983
覚	-1984
陰	-1985
急	-1986
舌	-1987
白	-1988
続	-1989
要	-1990
字	-1991
記	-1992
閉	-1993
雨	-1994
両	-1995
慰	-1996
