<pad>	0
</s>	0
<unk>	0
▁t	-0
▁a	-1
in	-2
he	-3
re	-4
▁c	-5
on	-6
▁s	-7
▁o	-8
▁the	-9
at	-10
er	-11
ou	-12
es	-13
▁w	-14
ed	-15
nd	-16
or	-17
▁p	-18
en	-19
▁f	-20
it	-21
al	-22
▁d	-23
is	-24
ing	-25
▁in	-26
▁to	-27
▁m	-28
▁b	-29
▁of	-30
an	-31
as	-32
▁and	-33
▁h	-34
ar	-35
ic	-36
ion	-37
om	-38
▁re	-39
ov	-40
▁y	-41
▁n	-42
id	-43
le	-44
▁you	-45
ct	-46
ent	-47
ve	-48
il	-49
us	-50
ir	-51
▁e	-52
▁th	-53
os	-54
▁be	-55
ot	-56
ac	-57
ly	-58
▁T	-59
ol	-60
▁g	-61
▁v	-62
▁ha	-63
▁for	-64
▁l	-65
▁de	-66
ay	-67
ation	-68
▁cov	-69
19	-70
▁on	-71
ur	-72
op	-73
▁or	-74
im	-75
▁con	-76
▁is	-77
ith	-78
tr	-79
▁your	-80
▁2	-81
ow	-82
▁with	-83
ect	-84
if	-85
ut	-86
▁we	-87
-19	-88
ch	-89
▁as	-90
▁covid	-91
▁The	-92
her	-93
ce	-94
▁st	-95
▁pr	-96
est	-97
ig	-98
th	-99
ill	-100
▁an	-101
▁are	-102
ers	-103
▁u	-104
▁cas	-105
ort	-106
▁I	-107
▁that	-108
▁r	-109
et	-110
▁1	-111
irus	-112
▁fr	-113
▁have	-114
▁wh	-115
se	-116
ment	-117
▁ch	-118
▁not	-119
ive	-120
▁cases	-121
▁tr	-122
mp	-123
▁al	-124
ies	-125
▁he	-126
ul	-127
ad	-128
▁A	-129
▁res	-130
▁from	-131
ther	-132
ta	-133
fect	-134
ld	-135
port	-136
▁(	-137
st	-138
um	-139
▁se	-140
ver	-141
▁sh	-142
▁were	-143
ome	-144
ess	-145
ate	-146
ter	-147
cov	-148
▁cou	-149
▁dis	-150
▁it	-151
ab	-152
od	-153
ath	-154
▁at	-155
ak	-156
am	-157
res	-158
pp	-159
ial	-160
▁ne	-161
ore	-162
and	-163
em	-164
ary	-165
oc	-166
▁su	-167
ople	-168
ity	-169
ine	-170
iv	-171
▁can	-172
▁20	-173
▁sy	-174
el	-175
▁test	-176
are	-177
ud	-178
eople	-179
▁cl	-180
alth	-181
▁ex	-182
▁will	-183
▁by	-184
ions	-185
▁virus	-186
▁wor	-187
▁was	-188
▁health	-189
▁people	-190
▁S	-191
un	-192
▁us	-193
▁death	-194
▁un	-195
qu	-196
▁sp	-197
▁com	-198
▁other	-199
ans	-200
ated	-201
▁C	-202
ical	-203
▁report	-204
ge	-205
ars	-206
ose	-207
mpt	-208
▁ad	-209
ain	-210
igh	-211
▁inc	-212
acc	-213
av	-214
vel	-215
eas	-216
▁out	-217
▁pre	-218
▁if	-219
ant	-220
ber	-221
▁infect	-222
og	-223
▁conta	-224
ub	-225
mptom	-226
▁has	-227
▁le	-228
▁coun	-229
▁who	-230
▁vacc	-231
ib	-232
▁j	-233
▁app	-234
▁k	-235
▁im	-236
ents	-237
ould	-238
▁been	-239
▁deaths	-240
▁fe	-241
ild	-242
oron	-243
▁reported	-244
▁O	-245
▁do	-246
▁may	-247
ied	-248
ost	-249
▁If	-250
▁symptom	-251
ous	-252
▁ab	-253
end	-254
ace	-255
▁W	-256
ia	-257
out	-258
art	-259
▁af	-260
hen	-261
oronav	-262
act	-263
our	-264
▁symptoms	-265
oronavirus	-266
ap	-267
one	-268
med	-269
ire	-270
▁4	-271
ide	-272
▁Y	-273
gh	-274
▁3	-275
▁countr	-276
ice	-277
arch	-278
ines	-279
all	-280
▁contact	-281
▁202	-282
lud	-283
ec	-284
ren	-285
ult	-286
▁sars	-287
ory	-288
ist	-289
ubl	-290
ified	-291
able	-292
▁Th	-293
▁diseas	-294
als	-295
▁D	-296
▁num	-297
rou	-298
low	-299
ure	-300
uary	-301
▁more	-302
ack	-303
▁coronavirus	-304
▁P	-305
read	-306
▁prot	-307
▁child	-308
own	-309
▁includ	-310
▁should	-311
ious	-312
▁pos	-313
▁2020	-314
▁this	-315
▁their	-316
▁br	-317
emic	-318
▁day	-319
ast	-320
▁pl	-321
▁resp	-322
▁march	-323
ight	-324
▁You	-325
▁hand	-326
▁work	-327
▁ac	-328
iz	-329
ue	-330
▁prev	-331
▁ser	-332
▁some	-333
so	-334
▁number	-335
▁M	-336
ool	-337
▁also	-338
▁disease	-339
▁5	-340
ern	-341
▁In	-342
ance	-343
ip	-344
reak	-345
ati	-346
▁sa	-347
▁rec	-348
atory	-349
▁H	-350
▁trans	-351
aus	-352
ations	-353
▁B	-354
ict	-355
ong	-356
▁On	-357
00	-358
▁vaccine	-359
ures	-360
▁F	-361
▁It	-362
chool	-363
▁had	-364
▁they	-365
iss	-366
break	-367
ard	-368
-2	-369
urther	-370
▁than	-371
▁outbreak	-372
ates	-373
▁tim	-374
ich	-375
▁med	-376
▁about	-377
▁countries	-378
▁te	-379
ep	-380
▁conf	-381
▁further	-382
▁spread	-383
ail	-384
▁comm	-385
isk	-386
orm	-387
▁ind	-388
erson	-389
pr	-390
reat	-391
▁all	-392
▁ev	-393
trict	-394
▁This	-395
▁need	-396
▁publ	-397
ll	-398
▁"	-399
red	-400
▁dr	-401
▁pati	-402
enc	-403
lo	-404
uc	-405
ake	-406
▁ph	-407
▁tot	-408
▁when	-409
▁which	-410
▁school	-411
▁person	-412
▁av	-413
▁ef	-414
ign	-415
▁ag	-416
▁one	-417
▁R	-418
▁face	-419
andemic	-420
▁confir	-421
▁cr	-422
ens	-423
▁	-424
e	-425
t	-426
a	-427
o	-428
i	-429
n	-430
s	-431
r	-432
h	-433
c	-434
d	-435
l	-436
u	-437
m	-438
p	-439
f	-440
y	-441
g	-442
v	-443
w	-444
b	-445
.	-446
,	-447
k	-448
-	-449
1	-450
2	-451
0	-452
9	-453
T	-454
I	-455
x	-456
3	-457
4	-458
A	-459
5	-460
)	-461
(	-462
z	-463
j	-464
6	-465
8	-466
7	-467
S	-468
q	-469
C	-470
'	-471
"	-472
O	-473
W	-474
:	-475
Y	-476
D	-477
P	-478
M	-479
H	-480
%	-481
B	-482
F	-483
R	-484
E	-485
/	-486
;	-487
L	-488
N	-489
–	-490
G	-491
U	-492
V	-493
?	-494
’	-495
í	-496
