<pad>	0
</s>	0
<unk>	0
▁	-1.34339
¦	-2.05421
▁¦	-2.76023
ም	-3.62857
ን	-3.72051
፥	-4.05764
ት	-4.27608
በ	-4.38244
።	-4.42787
ው	-4.48744
ለ	-4.51624
ል	-4.53454
ና	-4.55528
የ	-4.79959
፤	-4.81704
▁የ	-4.85496
▁በ	-4.89657
አ	-5.01037
ተ	-5.04962
ስ	-5.05904
መ	-5.11097
ያ	-5.17972
ር	-5.20015
ከ	-5.27013
ች	-5.288
▁።	-5.31231
ይ	-5.46391
ህ	-5.46835
ድ	-5.49908
ንም	-5.50355
ላ	-5.59269
▁አ	-5.59912
▁ከ	-5.66367
ረ	-5.66528
ቸ	-5.6947
ሰ	-5.72978
ብ	-5.73248
ገ	-5.75635
ዋ	-5.77184
ባ	-5.81523
ማ	-5.8482
ደ	-5.92501
▁ወደ	-5.9442
ሁ	-6.00086
ጠ	-6.03892
?	-6.0635
ወደ	-6.06462
ጥ	-6.06972
▁ሁሉ	-6.08743
ራ	-6.09811
ችሁ	-6.09938
ሁሉ	-6.1206
▁፤	-6.22175
▁እንደ	-6.26632
ግ	-6.29034
ቱ	-6.31982
ሳ	-6.34239
ፍ	-6.3687
እን	-6.39134
▁ይ	-6.40524
ሉ	-6.42767
ነው	-6.4601
እ	-6.47846
እንደ	-6.47943
▁ላይ	-6.52402
▁ዘንድ	-6.54215
ላይ	-6.61423
ዘንድ	-6.65555
▁እግዚአብሔር	-6.67748
▁እ	-6.67858
እግዚአብሔር	-6.69694
▁ግን	-6.73873
ግን	-6.8137
ቢ	-6.83557
ጣ	-6.86094
▁ጊዜ	-6.86339
ቃ	-6.86679
▁ነገር	-6.93256
▁ስለ	-6.93325
ኑ	-6.95582
ሰው	-6.98416
▁ጋር	-7.00372
ነገር	-7.03188
ኛ	-7.05597
ካ	-7.09855
ልጆች	-7.11953
ልና	-7.12114
▁ልጆች	-7.13968
▁ልጅ	-7.14102
ጋር	-7.15096
ስለ	-7.16855
ልጅ	-7.17208
ፋ	-7.19551
ም።	-7.23628
▁ቀን	-7.24253
ሲ	-7.25631
እኔ	-7.29306
▁ሰው	-7.29311
▁ሆይ፥	-7.32238
ዱ	-7.32874
አለ	-7.33329
▁እኔ	-7.37951
▁እንዲህ	-7.40548
ቤት	-7.41987
ፊት	-7.47525
▁ቤት	-7.50043
ቃል	-7.51876
ነበር	-7.53221
▁ፊት	-7.54046
መጣ	-7.54347
ገባ	-7.5481
እንዲ	-7.56106
ወጣ	-7.5761
▁አለው።	-7.61743
እንዲህ	-7.6207
ሱ	-7.63278
▁ሰዎች	-7.64034
ወር	-7.64968
አንድ	-7.65046
▁ነው።	-7.65287
ሰዎች	-7.65896
▁ደግሞ	-7.6623
ነበረ	-7.66313
▁ጌታ	-7.67526
ንጉሥ	-7.69228
▁ነበር።	-7.70392
▁ምድር	-7.70461
▁ድረስ	-7.71432
ሆነ	-7.71568
▁አለ።	-7.72181
ምድር	-7.73365
▁ቃል	-7.73815
▁አይ	-7.74495
▁አንተ	-7.74652
እርሱ	-7.74914
እርሱም	-7.76294
አንተ	-7.78219
▁እስከ	-7.79026
▁እርሱ	-7.80274
▁ንጉሥ	-7.80885
ብሎ	-7.81133
▁አንድ	-7.82127
ሆ	-7.85508
▁እነሆ፥	-7.86289
▁ይህ	-7.87116
ድረስ	-7.87178
ዬ	-7.87231
▁ውስጥ	-7.874
ደግሞ	-7.88198
ናቸው	-7.88577
▁በእግዚአብሔር	-7.89237
ሠራ	-7.8984
ሆይ	-7.90421
▁በኋላ	-7.96932
▁ብሎ	-7.9833
ውስጥ	-7.98488
▁እግዚአብሔርም	-7.99801
እስከ	-8.0013
ነበሩ	-8.0014
እግዚአብሔርም	-8.01125
አለው	-8.01527
አይ	-8.01833
▁ነው፤	-8.02234
ኢየሱስ	-8.02646
እነሆ	-8.02681
መካከል	-8.05915
ይህ	-8.06155
ሥራ	-8.07036
ሁለት	-8.0709
ደስ	-8.07651
እንዳይ	-8.08323
ይላል	-8.08529
▁ይህን	-8.08832
እጅ	-8.08875
አሕዛብ	-8.09161
▁አምላክ	-8.0957
ከፍ	-8.1
▁እናንተ	-8.1019
ያን	-8.10254
▁እጅ	-8.11097
ብዙ	-8.1124
▁ወይም	-8.11767
ማን	-8.11786
እናንተ	-8.13523
ሕዝብ	-8.14223
አምላክ	-8.14294
▁መካከል	-8.15013
▁ዓመት	-8.15278
በኋላ	-8.16961
ማል	-8.17664
▁እንጂ	-8.17885
በእግዚአብሔር	-8.18264
ሄ	-8.18592
▁እርሱም	-8.1955
▁መቶ	-8.20047
ተው	-8.20057
ባል	-8.21103
▁የእግዚአብሔር	-8.21258
ሰማ	-8.22306
▁ስለዚህ	-8.23755
ማለ	-8.2428
ከተማ	-8.26668
ዓመት	-8.26749
ይሆናል	-8.27037
▁አላቸው።	-8.27694
▁ሕዝብ	-8.29118
ኃጢአት	-8.29793
▁ነበረ።	-8.30703
ወይም	-8.32825
▁ሁለት	-8.33017
ጠፋ	-8.33468
▁በዚያ	-8.33889
እኛ	-8.34545
እነርሱ	-8.3456
እነርሱም	-8.34739
ፈራ	-8.35158
ና።	-8.35583
ነበሩት	-8.35718
▁ደስ	-8.35833
▁ነበር፤	-8.35943
ይህን	-8.36048
▁ለእግዚአብሔር	-8.38088
ሆኑ	-8.38331
ገና	-8.39356
ገቡ	-8.3937
ኢየሩሳሌም	-8.39779
ጠብ	-8.41024
▁እግዚአብሔርን	-8.41182
ሰብ	-8.41366
አሥራ	-8.42207
▁ስፍራ	-8.42322
ሰጠ	-8.4316
▁መሥዋዕት	-8.43849
▁ይላል።	-8.44889
ስለዚህ	-8.45059
እነዚህ	-8.45246
ኔ	-8.46057
▁እንዲሁ	-8.46129
ያለ	-8.46889
በር	-8.47945
ብር	-8.48368
▁ምን	-8.48734
መንፈስ	-8.4989
ወንድ	-8.50129
▁በዚያም	-8.50173
ስም	-8.50192
ተኛ	-8.50297
▁እኔም	-8.50999
የእግዚአብሔር	-8.51108
መልካም	-8.51306
ያው	-8.51591
▁ጊዜ፥	-8.51965
▁የእግዚአብሔርን	-8.52842
▁የእስራኤል	-8.53301
እኔም	-8.53994
▁ውኃ	-8.54268
▁እጅግ	-8.54553
ባሕር	-8.54929
በዚያ	-8.54967
እግዚአብሔርን	-8.55579
በላ	-8.55945
ስፍራ	-8.56249
በል	-8.56789
አላቸው	-8.57736
መሥዋዕት	-8.57866
▁ከእርሱ	-8.57868
ያዕቆብ	-8.57887
▁እነርሱም	-8.5824
ጆ	-8.58278
ሦስት	-8.5836
ዔ	-8.58512
▁ሺህ	-8.58709
ራሱ	-8.58915
▁አቤቱ	-8.59304
ክብር	-8.60605
ከዚያም	-8.61543
!	-8.61927
▁በምድር	-8.62202
ሆነው	-8.62624
ሄደ	-8.62782
▁ሁሉ፥	-8.63041
▁እርሱም።	-8.63128
ላለ	-8.63266
▁ጀምሮ	-8.63602
▁ያለ	-8.63761
▁መልካም	-8.6405
▁ብዙ	-8.64216
▁በዚህ	-8.64304
ፍርድ	-8.64359
▁ከፍ	-8.65016
መንገድ	-8.65169
ኢያሱ	-8.65438
▁ዘመን	-8.65656
▁መንገድ	-8.66012
ጅ	-8.66667
▁ነበረ፤	-8.66801
▁ነበሩ።	-8.67101
በዚህ	-8.67308
ሺህ	-8.67508
እንዲሁ	-8.68035
▁በእስራኤል	-8.68289
▁ከተማ	-8.6869
ክርስቶስ	-8.69749
ናችሁ	-8.70182
ካህናት	-8.7074
ለእግዚአብሔር	-8.70789
ዲ	-8.70962
▁ሥራ	-8.71153
በዚያም	-8.71224
▁ማን	-8.71903
የእስራኤልም	-8.7222
ከእርሱም	-8.72375
አገር	-8.72751
▁አገር	-8.7357
ጠላ	-8.73581
▁አለቆች	-8.73889
ዘመን	-8.74777
ንጉሡም	-8.74849
▁ነው፥	-8.7518
ሰላም	-8.76197
ልብ	-8.76316
▁ታላቅ	-8.7636
▁እነዚህ	-8.76666
▁ለዘላለም	-8.77013
ዳዊትም	-8.77029
ሴቶች	-8.77067
አንዱ	-8.77742
▁አለቃ	-8.78443
▁ወገን	-8.78778
ባለ	-8.78822
ጠራ	-8.79146
ማር	-8.79263
እጅግ	-8.7934
አለቆች	-8.79391
የእግዚአብሔርን	-8.79487
▁ሆነ	-8.79505
ፍራ	-8.80199
ይሁን	-8.80257
አቤቱ	-8.80371
▁ሌላ	-8.81182
አብርሃም	-8.81488
የእስራኤል	-8.81668
አደረገ	-8.81694
ቸውንም	-8.81773
ሰልፍ	-8.81836
▁እንዲህም	-8.82088
ዓለም	-8.8259
ች።	-8.83123
ቃሉ	-8.83424
▁ይላል	-8.83437
▁ዘንድ፥	-8.83581
አይሁድ	-8.83913
በሉ	-8.84155
ጌታዬ	-8.84368
በራ	-8.84681
ታላቅ	-8.85044
ባቢሎን	-8.85299
የእግዚአብሔርም	-8.85457
መቅደስ	-8.85608
ግብጽ	-8.85655
▁በእርሱ	-8.8566
ገር	-8.85795
ስማ	-8.85954
አብ	-8.86038
ከእርሱ	-8.86348
አምላካችን	-8.86459
▁እንግዲህ	-8.86787
ሰባት	-8.87262
ተናገረ	-8.87298
▁ይሆናል።	-8.87471
▁ንጉሡ	-8.87562
ባሪያህ	-8.8775
ጠጣ	-8.87803
▁ድምፅ	-8.88467
አምላክህ	-8.88535
ፌ	-8.88966
▁አሉት።	-8.89414
ሌዋውያን	-8.90079
ነቢያት	-8.90079
▁አሁን	-8.90343
ወገን	-8.90359
መከራ	-8.90652
አንቺ	-8.9066
ማንም	-8.90915
እርስዋ	-8.90974
አባቴ	-8.91101
▁ሰባት	-8.91122
በምድር	-8.9157
ዮርዳኖስ	-8.91615
▁እስኪ	-8.91778
አይደለም	-8.91826
ነውና	-8.9215
ግባ	-8.92197
በግ	-8.9227
▁ዳዊት	-8.92296
ሁለተኛው	-8.92912
ካህኑ	-8.93099
ክፋት	-8.93175
ዘይት	-8.93175
ድንጋይ	-8.93807
እንጀራ	-8.94104
ከተማይቱ	-8.94189
ያደርግ	-8.94235
▁እነሆም	-8.9458
ደም	-8.94717
ሁለቱ	-8.94968
ላሉ	-8.95225
አለቃ	-8.95444
በእስራኤል	-8.95815
ከንቱ	-8.95832
▁እንጀራ	-8.95957
እውነት	-8.96066
ተስፋ	-8.96198
▁ይልቅ	-8.96331
▁ከእኔ	-8.96404
▁ሕግ	-8.96836
አሳ	-8.97279
▁አጠገብ	-8.97487
ብላ	-8.97762
▁ሙሴን	-8.98006
አለሁ	-8.9834
▁ከተሞች	-8.9847
ሄዱ	-8.98587
▁ክንድ	-8.98699
ሰባ	-8.98775
ለዘላለም	-8.9931
▁ናቸው።	-8.99667
▁እንዴት	-8.99778
▁ሆኖ	-8.99806
▁ንጉሡም	-8.99916
▁ያለውን	-8.99954
ሰሎሞን	-8.99971
▁ክርስቶስ	-9.00155
▁አሳ	-9.00202
የለም	-9.00248
ሳኦል	-9.00252
ግራ	-9.00364
ላከ	-9.00502
እንዲያ	-9.00703
ጣሉ	-9.00716
አሁን	-9.00862
ይሁዳ	-9.00945
አሮን	-9.0156
ተራራ	-9.01567
ከእነርሱም	-9.02052
▁የሰው	-9.02324
እንዲህም	-9.03049
መቅደሱ	-9.03082
▁በኩል	-9.0313
▁አሁንም	-9.03245
እህል	-9.03268
አምላካችሁ	-9.03662
እምነት	-9.03662
እንጨት	-9.03662
▁ዕቃ	-9.03717
እስራኤል	-9.03846
ምርኮ	-9.04246
▁ብለው	-9.04701
ሕይወት	-9.04742
ያደርጉ	-9.04833
ለምን	-9.05267
እንግዲህ	-9.05506
በደል	-9.05588
▁በታች	-9.05925
▁መንፈስ	-9.06234
በታች	-9.06684
▁የተነሣ	-9.06775
▁ሦስት	-9.06899
ከተሞች	-9.07312
▁ሙሴም	-9.07619
▁እግዚአብሔር።	-9.07773
ወይን	-9.0805
▁አምስት	-9.08203
ነገሠ	-9.08326
አድርግ	-9.08451
ድምፅ	-9.08551
ጣል	-9.08683
▁ሕዝቡም	-9.08838
ብለው	-9.08925
▁እነርሱ	-9.08936
▁ከእግዚአብሔር	-9.0895
▁ብቻ	-9.09157
▁ከአንተ	-9.0921
ዮሴፍ	-9.09339
▁ሴቶች	-9.09468
▁ፍሬ	-9.09533
▁ኃጢአት	-9.09555
እርሻ	-9.09783
ክንድ	-9.0979
ተቀመጡ	-9.09969
አምስት	-9.10532
▁ነበር፥	-9.10562
ባሪያ	-9.10664
አሉ	-9.10745
▁ቍርባን	-9.10954
በምድረ	-9.11225
ነገሥታት	-9.11412
▁ማንም	-9.12067
በደ	-9.12148
አውራ	-9.12179
ታቸውን	-9.12292
▁አሉ።	-9.12576
▁ዳዊትም	-9.12578
እያንዳንዱ	-9.12677
▁ኢየሱስ	-9.12739
አሳልፎ	-9.12797
▁የሆነ	-9.12837
እስኪ	-9.13008
ሠራዊት	-9.1312
▁ከእናንተ	-9.1335
ይሆን	-9.13584
ሰጠው	-9.14093
ዓይን	-9.14306
ልባቸው	-9.14384
መለከት	-9.14731
በኢየሩሳሌም	-9.14956
በእርሱ	-9.15269
አጠገብ	-9.15345
ጥበብ	-9.15457
▁ኢየሱስም	-9.15465
ካህናቱ	-9.157
መለሰ	-9.15869
አደባባይ	-9.16037
▁ኪዳን	-9.16037
ያወጣ	-9.16208
ሰጣቸው	-9.1639
ቅዱስ	-9.16597
▁ተራራ	-9.16639
ጥፋት	-9.16717
▁እኛ	-9.17004
ኤርምያስ	-9.17363
ይልቅ	-9.1741
ሰማያት	-9.17433
ያጠፋ	-9.17616
ነበርና	-9.17796
ያዕቆብም	-9.17867
ቅዱሳን	-9.18032
▁ስም	-9.18352
ኃይል	-9.18398
▁ነገድ	-9.18599
ምስጋና	-9.18706
▁ይሆናል፤	-9.18775
ተቀመጠ	-9.18837
ርያ	-9.18899
አባቱ	-9.18932
ሺ	-9.18958
ርግ	-9.19177
ዋንም	-9.19933
እንዴት	-9.19936
ነቢዩ	-9.20069
ራስ	-9.20336
ወለደ	-9.20353
ኤፍሬም	-9.20389
መጥቶ	-9.20736
አፍ	-9.20999
ያለውን	-9.21087
▁ከእነርሱ	-9.21207
ምድረ	-9.21252
ዚ	-9.21282
ቍርባን	-9.21391
ኢዮአብ	-9.21449
ወረደ	-9.21449
ፍቅር	-9.21449
ጥላ	-9.21901
ነበረች	-9.21907
ሳሙኤል	-9.22147
አሁንም	-9.22241
▁ልብ	-9.22394
መዛሙርቱ	-9.22448
እሳት	-9.2245
ስብ	-9.23023
ድር	-9.23089
▁ናቸው፤	-9.23648
▁ሕዝቡን	-9.23794
ወሰደ	-9.23877
ተናገር	-9.24035
በኩል	-9.24211
ወንድሞቹ	-9.24239
ቅጥር	-9.2427
▁አሕዛብ	-9.24332
እነሆም	-9.24332
አራት	-9.24473
ከእኔ	-9.24495
ግድ	-9.24534
▁ደግሞም	-9.24715
ባለው	-9.2475
የሆነ	-9.24808
የሰው	-9.24862
ኢየሱስም	-9.24874
ተራሮች	-9.24988
የተነሣ	-9.25518
ነገድ	-9.25826
መንግሥት	-9.25956
▁እስራኤል	-9.26079
▁ያለው	-9.26114
▁ሆነ፤	-9.26528
▁ደቀ	-9.27172
▁ነፍሴ	-9.27664
▁የሠራዊት	-9.27745
ሰንበት	-9.27925
ሳሉ	-9.28049
ሰይፍ	-9.28325
▁ቍጣ	-9.28478
ጠል	-9.28528
ቢሆን	-9.28854
ባሉ	-9.28883
ደረሰ	-9.29102
ፈርዖን	-9.29157
ጨለማ	-9.29374
ዮሐንስ	-9.29405
ደቡብ	-9.29405
▁አራት	-9.29545
መልስ	-9.2958
▁ለእስራኤል	-9.29658
▁አሥራ	-9.29846
▁በዚያን	-9.29969
ሕዝቅያስ	-9.30161
አይደለምን	-9.30623
ሳለ	-9.3088
▁በኢየሩሳሌም	-9.3091
ተናገረው	-9.30977
እርስዋም	-9.30977
▁ወይስ	-9.31396
ገል	-9.31529
ትእዛዝ	-9.31565
ጥል	-9.31845
▁አንዱ	-9.31891
▁እውነት	-9.32359
▁ነገሥታት	-9.32608
ትሆን	-9.32653
▁ከእስራኤል	-9.33354
▁ነበርና	-9.33414
▁ልጆች፥	-9.33554
▁በይሁዳ	-9.33728
ራብ	-9.33809
እንስሳ	-9.34052
መለስ	-9.34061
▁ቅዱስ	-9.34147
መጀመሪያ	-9.34161
▁ክብር	-9.344
ከእግዚአብሔር	-9.34461
ጣለ	-9.34679
ልጆቹ	-9.34791
▁እንኳ	-9.34819
ድንኳን	-9.35079
መልሶ	-9.35199
እነዚያ	-9.35617
ከእናንተ	-9.35814
ብንያም	-9.35834
እስክ	-9.36043
ተናገሩ	-9.36421
ፈቃድ	-9.36421
ሆንሁ	-9.36755
ልብስ	-9.36994
ከአንተ	-9.36999
▁አፍ	-9.37023
▁መጣ።	-9.37244
ምድሪቱ	-9.37349
▁ወንድ	-9.37407
▁ዳርቻ	-9.37504
ጥቂት	-9.37548
ሠላሳ	-9.37727
ወንዶች	-9.37818
ይመጣል	-9.3798
መካ	-9.38336
መገናኛው	-9.38654
▁እሳት	-9.38788
መቱ	-9.3914
▁ከዚህ	-9.39419
ባላ	-9.39488
ስምዖን	-9.39705
ቍጥር	-9.39705
አደረጉ	-9.39746
▁በእውነት	-9.40047
ሰማርያ	-9.40523
ሌላው	-9.40527
መልክ	-9.40543
አደርጋለሁ	-9.40543
▁ነበሩ፤	-9.40551
ይህንም	-9.40793
በጎች	-9.41092
▁ነበረ፥	-9.41131
▁እርስዋም	-9.41175
አንዲት	-9.41389
ደግሞም	-9.41453
▁ልብስ	-9.41624
▁ይህች	-9.41762
ጠብቁ	-9.41809
ወገኖች	-9.4224
▁በእኔ	-9.4251
▁ሚስት	-9.42706
ያደረ	-9.42783
ብል	-9.42867
ሰማይ	-9.42882
አድርጉ	-9.431
ብረት	-9.43296
ሕዝብህ	-9.43734
▁አብ	-9.43807
ብዙዎች	-9.43967
አንበሳ	-9.43976
በረታ	-9.4399
▁ትእዛዝ	-9.44016
▁ዛፍ	-9.44257
መጽሐፍ	-9.44458
▁ምንድር	-9.44495
ማደሪያ	-9.44679
ጕድጓድ	-9.44841
የዚያ	-9.44893
ደመና	-9.44967
ይሰማ	-9.45168
ተራ	-9.45388
ምንድር	-9.45504
መስፈሪያ	-9.45708
ስድስት	-9.45801
▁ባለ	-9.45866
ሠራው	-9.45906
አሳብ	-9.45908
▁አንተም	-9.45912
▁ቤቶች	-9.4602
እግር	-9.4624
አሉት	-9.46489
ረብ	-9.46523
በአንድነት	-9.46614
ወንጌል	-9.46614
መብል	-9.46654
ቀረበ	-9.46783
▁ከዚያ	-9.46903
ምሕረት	-9.47088
ያለው	-9.47238
መሠዊያ	-9.47452
ሁላችሁ	-9.47505
ገንዘብ	-9.47512
▁ኢየሩሳሌም	-9.47532
አማልክት	-9.47618
▁አድርጎ	-9.47872
ተመለሰ	-9.48404
ቆመው	-9.48419
አቤሴሎም	-9.48419
▁በቀር	-9.48471
አምላኬ	-9.48582
▁የይሁዳ	-9.48622
▁በእሳት	-9.48895
▁ወርቅ	-9.48926
▁ድንኳን	-9.49034
የሠራዊት	-9.49073
ራሳቸው	-9.4926
▁በፊቱ	-9.49508
የዘላለም	-9.49609
▁በሕይወት	-9.49646
ከእነርሱ	-9.49807
▁ሰላም	-9.50054
አንተም	-9.50054
▁ምንም	-9.50132
ረሱ	-9.50215
ስምህ	-9.50764
▁ሕያው	-9.50876
በዚያን	-9.51063
ኃያላን	-9.51188
ልብሱን	-9.51206
አምሳ	-9.51327
▁ገና	-9.51342
ሚስት	-9.51617
ሳኦልም	-9.51758
ርስት	-9.51906
▁በእናንተ	-9.5206
አድርገው	-9.52129
ብርቱ	-9.52205
▁እንዳለ	-9.5226
▁አውራ	-9.5246
ወይስ	-9.5249
ኃጢአተኞች	-9.53078
መቃብር	-9.5308
▁ሲል	-9.53164
▁በውኑ	-9.53221
ገለዓድ	-9.53251
ሦስተኛው	-9.53296
▁አምላክህ	-9.53321
▁ደም	-9.53756
▁እርስ	-9.53814
▁ርስት	-9.53992
በኣል	-9.54036
አስታ	-9.54036
ኤልያስ	-9.54036
መልሰው	-9.54157
አሕዛብም	-9.54224
ተመለሱ	-9.54488
▁ለእኔ	-9.54514
▁ይህም	-9.54544
ብርሃን	-9.54716
▁ባሪያ	-9.54744
ነፍስ	-9.54896
ደኅንነት	-9.55004
ወደዚህ	-9.55009
ይሠራ	-9.55575
የሚቃጠለውን	-9.55612
በትር	-9.55926
ኢዮርብዓም	-9.55981
አራተኛው	-9.56159
ጴጥሮስ	-9.56374
▁የእስራኤልን	-9.56446
ሳለሁ	-9.56711
ካህን	-9.57134
▁ይሁን።	-9.57299
ከይሁዳ	-9.57525
▁የወይን	-9.57605
▁መንግሥት	-9.57627
ውጣ	-9.5767
በመካከላቸው	-9.57965
አልዓዛር	-9.57965
እያሉ	-9.58027
▁ተስፋ	-9.58327
ከዚህም	-9.58343
ለእስራኤል	-9.58412
ባይ	-9.58533
▁በአንተ	-9.58632
ገደለ	-9.5882
አባት	-9.5882
ዔሳው	-9.58977
ውሰድ	-9.5919
▁ስለዚህም	-9.5932
ሰለ	-9.59328
▁ለአንተ	-9.59448
አባትህ	-9.59841
መሬት	-9.59988
ርኵሰት	-9.59988
ሰደደ	-9.60022
ምሳሌ	-9.60116
በእርሱም	-9.60131
▁ስድስት	-9.60142
▁ባሪያዎች	-9.60302
▁በአንድ	-9.60394
▁ጆሮ	-9.60662
▁ሆነ፥	-9.60673
ሆነች	-9.6082
▁ራስ	-9.60875
በዙሪያው	-9.61016
ከእስራኤል	-9.61347
ሰባቱ	-9.61374
ሽማግሌዎች	-9.61634
ጣት	-9.61667
ደጅ	-9.61868
አህያ	-9.62024
ኃጢአተኛ	-9.62054
ዙፋን	-9.62054
በይሁዳ	-9.62254
እነዚህም	-9.62287
በእውነት	-9.62354
ራስህ	-9.62415
ወንድሞች	-9.62456
▁አለኝ።	-9.62752
ነፋስ	-9.6284
አንዱም	-9.62917
▁ጠጅ	-9.62948
ይህች	-9.62989
ሰባተኛው	-9.63018
ባሪያዎችህ	-9.63051
ነቢይ	-9.63103
ከነዓን	-9.63103
ፍልስጥኤማውያን	-9.63118
ስምንት	-9.63426
ጠጅ	-9.63892
አርባ	-9.63973
▁ለእርሱ	-9.64042
መንግሥቱ	-9.64163
ሠራዊቱ	-9.64163
አራቱ	-9.64235
ይሉ	-9.64255
ካሉ	-9.65004
አመጡ	-9.65014
መጋረጃ	-9.65234
በፍጹም	-9.65234
ጻድቃን	-9.65234
▁ርኩስ	-9.65594
▁ሁልጊዜ	-9.65614
ጳውሎስ	-9.65709
ይሆናሉ	-9.658
▁ጽድቅ	-9.65876
ከዚያ	-9.65915
▁መልሶ።	-9.6601
▁እንዲሆን	-9.6603
ካለው	-9.66117
▁በንጉሡ	-9.66153
▁ቢሆን	-9.662
ሥልጣን	-9.66317
በርሳቸው	-9.66317
ከተማይቱም	-9.66404
ግፍ	-9.66432
▁ይሆን	-9.66633
በእግዚአብሔርም	-9.6667
የባቢሎን	-9.67014
ወርድ	-9.67187
▁ሰይፍ	-9.672
▁አባት	-9.67269
ከዚህ	-9.67344
ጠላት	-9.67364
ታመን	-9.67412
አራዊት	-9.67412
አክዓብ	-9.67412
መንገዱ	-9.67444
በእጅህ	-9.67478
ልካ	-9.67533
አየሁ	-9.67546
ድል	-9.67547
▁በላይ	-9.67705
▁ብዛት	-9.6778
▁ዙሪያ	-9.6778
ያልፍ	-9.67861
ለት።	-9.67921
ባለች	-9.67952
ዮሴፍም	-9.67983
ሰሎሞንም	-9.67987
▁ወንድሞች	-9.68143
ራሱን	-9.68176
ባሪያዎች	-9.68234
እንዳለ	-9.68364
ይህም	-9.6846
ያመጣ	-9.68507
ሞገስ	-9.68519
ቸርነት	-9.68519
▁በሰይፍ	-9.68941
አልነበረም	-9.68959
የተቀደሰ	-9.6905
አድርጎ	-9.69055
ፍየል	-9.69186
ይኖራል	-9.6933
በቀር	-9.69574
በፊታቸው	-9.69639
ታደርግ	-9.69639
ድንኳኑ	-9.69639
ፍርሃት	-9.69639
በረከት	-9.6965
ስፍራው	-9.69781
▁ልጅ፥	-9.69931
▁ጉባኤ	-9.70015
▁በጎች	-9.70033
ያደረገ	-9.70102
▁መሠዊያ	-9.7038
በፊቱ	-9.70554
▁ነፍስ	-9.70607
▁አደረገ።	-9.70758
መጨረሻ	-9.70771
ምዕራብ	-9.70771
እግሩ	-9.70771
ጀመረ	-9.70771
ወደዚያ	-9.7078
ራሳችሁ	-9.70791
ራእይ	-9.70924
በእሳት	-9.7112
▁ሁለቱ	-9.71153
ቤቱን	-9.71797
ሰፈር	-9.71916
ቅርብ	-9.71916
ኤዶምያስ	-9.71916
▁በፊትህ	-9.71947
በሕይወት	-9.71949
▁እንዲሁም	-9.72179
▁አሥር	-9.72234
▁አምሳ	-9.72679
አመጣ	-9.72777
▁በግ	-9.72901
▁ትንቢት	-9.73054
ፈሪሳውያን	-9.73074
አዲስ	-9.73101
▁የለም።	-9.73125
ተገለጠ	-9.73256
አፌ	-9.73308
ተሰበሰቡ	-9.73329
ቤትህ	-9.7342
▁ወለደ፤	-9.73428
የአባቶቻቸው	-9.7349
ተራራው	-9.73679
መጠን	-9.73889
▁ከሰማይ	-9.73987
▁አማልክት	-9.74108
በሬዎች	-9.74246
ናቡከደነፆር	-9.74246
ሆናችሁ	-9.74403
በውኑ	-9.74436
እርስ	-9.74544
▁ጻድቅ	-9.7464
በእኔ	-9.74816
ሰውም	-9.75027
አገሩ	-9.75384
አባቶቻችሁ	-9.75432
▁ሰቅል	-9.75432
እናንተም	-9.75483
ላላችሁ	-9.755
ይወጣል	-9.75585
▁ብርሃን	-9.75786
▁ነውና	-9.75854
▁መጽሐፍ	-9.75955
እርሱን	-9.76057
አሥር	-9.76097
▁ባየ	-9.76154
እውቀት	-9.76268
▁ከምድር	-9.76338
ወለደች	-9.76367
ልብህ	-9.76392
▁ባለው	-9.76429
ዳንኤል	-9.76632
በምድርም	-9.76736
የነበረው	-9.7683
የይሁዳ	-9.76843
▁መልአክ	-9.7694
ይወድ	-9.76955
ጥራ	-9.77029
ካህኑም	-9.77104
ደግ	-9.77187
በእናንተ	-9.77489
▁ወዲህ	-9.77507
ወደደ	-9.7768
አውቃለሁ	-9.77846
ፈረሶች	-9.77846
እህሉ	-9.77869
ነገረ	-9.77916
▁ፋንታ	-9.78296
▁ሆነ።	-9.78587
▁ክፍል	-9.78664
ታደርጉ	-9.79
የወይን	-9.79056
ዘወትር	-9.79076
ያገለግሉ	-9.79076
መግቢያ	-9.79076
ትንቢት	-9.79107
ስለዚህም	-9.79394
▁አወጣ	-9.79498
▁ወራት	-9.79547
ጌታችን	-9.79848
ይስሐቅ	-9.79867
በስተ	-9.80121
ሥርዓት	-9.80232
▁ወጥቶ	-9.80271
ኮረብታ	-9.8029
▁አለ፤	-9.80305
የሚሆን	-9.80321
ገሊላ	-9.80321
ፈልግ	-9.80321
አሮንም	-9.81108
የእስራኤልን	-9.81308
▁ድንጋይ	-9.81325
ርሱ	-9.81567
ማስተዋል	-9.81581
ሦስቱ	-9.81581
በፍታ	-9.81581
▁ይሁን፤	-9.81733
▁ለእናንተ	-9.81891
በለው	-9.82439
ከእርስዋ	-9.82586
መድኃኒት	-9.82858
ሰነፍ	-9.82858
አባቶቻችን	-9.82858
ኢዮሣፍጥ	-9.82858
▁ይቅር	-9.82858
ማናቸውም	-9.82911
▁በውኃ	-9.83282
ቃልህ	-9.83313
▁ምልክት	-9.83346
▁ሽማግሌዎች	-9.83377
▁ለምን	-9.8345
▁ወዲያ	-9.83501
▁የምድር	-9.83565
ምልክት	-9.83659
ብላቴናው	-9.83706
ዘላለም	-9.83767
በሉት	-9.8381
▁ሄደ።	-9.83886
አባቱን	-9.8392
ምሕረቱ	-9.84151
ሰረገሎች	-9.84151
ተቀመጥ	-9.84151
ከለዳውያን	-9.84151
ፋሲካ	-9.84152
▁ሥርዓት	-9.84157
የሰማይ	-9.84475
ወንዶችና	-9.84519
▁ከእኛ	-9.84531
ይሆኑ	-9.84612
ወንድምህ	-9.84695
ጠርቶ	-9.84714
ልጆቹን	-9.84969
▁አስቀድሞ	-9.85139
▁ከእንግዲህ	-9.85187
ሲል	-9.85282
ማኅበሩ	-9.85461
የዚህ	-9.85484
አደርግ	-9.85549
▁ሆንሁ	-9.85604
ራራ	-9.85724
ምስክር	-9.85767
▁በሰማይ	-9.859
በአንተ	-9.85912
ልጆቹም	-9.86002
▁እስራኤልን	-9.86036
ሁለቱም	-9.86084
▁ነውና።	-9.86086
▁ፍርድ	-9.86094
ነፍሱ	-9.86311
አባቶቻቸው	-9.86313
▁በታላቅ	-9.8647
▁ካህኑም	-9.86472
▁እላችኋለሁ	-9.86602
ትውልድ	-9.86624
▁ባሕር	-9.86664
ያደርጋል	-9.86717
ወይኑ	-9.86789
በአንድ	-9.86795
▁ነገሠ።	-9.87016
እንዲሆን	-9.87152
በት።	-9.87161
ወዲህ	-9.87161
▁እናንተም	-9.87241
▁ኃይል	-9.87243
▁ግን።	-9.87389
▁አላት።	-9.87471
ሁልጊዜ	-9.87658
ሚስቱ	-9.87704
ከግብጽ	-9.88003
ያመጡ	-9.88134
ጣፋጭ	-9.88134
ይሰጣል	-9.88141
▁ጥበብ	-9.88157
ባሪያዬ	-9.88331
ትሆናለች	-9.88457
▁ነፋስ	-9.88472
▁በኢየሩሳሌምም	-9.88495
ጽድቅን	-9.88685
ሥራቸው	-9.88957
ወራት	-9.88978
▁እጁን	-9.89018
ከሆነ	-9.89169
▁ቢሆን፥	-9.89305
ግንብ	-9.89425
▁በግብፅ	-9.89478
አድርጌ	-9.89485
ልጆቻችሁ	-9.89498
መላእክት	-9.89498
ደጃፍ	-9.89498
ዳግመኛ	-9.89498
አሳልፌ	-9.89499
ማርያም	-9.89547
ስድሳ	-9.89588
▁እስራኤልም	-9.89689
ላለች	-9.90127
▁ሳለ	-9.90154
የተሠራ	-9.90174
ጣለች	-9.90306
ያዋን	-9.90312
▁እንደዚህ	-9.90357
ፈርዖንም	-9.90622
ይበላ	-9.90627
እንዲሁም	-9.90654
▁ምሳሌ	-9.90707
ሳለች	-9.90733
ጠራው	-9.90771
ሊባኖስ	-9.9088
አገልግሎት	-9.9088
አፈር	-9.9088
ኬብሮን	-9.9088
▁ስንኳ	-9.9088
አግኝ	-9.9088
▁በእጁ	-9.91123
በሰይፍ	-9.91287
▁ብለህ	-9.91672
ስተው	-9.91791
▁የነበረውን	-9.92084
▁አንዳች	-9.92103
▁የወርቅ	-9.92241
▁ዳዊትን	-9.92271
አምላኩ	-9.92282
እባክህ	-9.92282
እንዳዘዘው	-9.92282
ዙፋኑ	-9.92282
ዮአስ	-9.92282
አምላካቸው	-9.92289
▁በፊት	-9.92311
▁ተናገረው።	-9.9239
እንድን	-9.92645
ሆንህ	-9.92659
▁ምድረ	-9.92739
በፊትህ	-9.92766
መለሱ	-9.928
ለአንተ	-9.92814
ጠሉ	-9.92857
▁አርባ	-9.92883
ፍልስጥኤማውያንም	-9.92928
▁ጳውሎስ	-9.93076
እልል	-9.93239
መልአክ	-9.9334
▁ምክንያት	-9.93463
ተደረገ	-9.93673
ልባችሁ	-9.93695
ለሚቃጠል	-9.93704
ማኅበር	-9.93704
ሲኦል	-9.93704
ያይ	-9.93804
ነፍስህ	-9.9407
ሆድ	-9.94105
▁ሠላሳ	-9.94269
▁ያህል	-9.9453
ፋንታ	-9.94579
▁ምስክር	-9.9481
▁መጥተው	-9.95057
▁ብዬ	-9.95064
በሮች	-9.95146
ተነሥተው	-9.95146
አሞራውያን	-9.95146
ወስደው	-9.95146
አንዳች	-9.95331
ከሰማይ	-9.95486
▁ለንጉሡ	-9.95498
▁ይሁዳ	-9.95531
እጅህን	-9.95598
ሥራው	-9.95724
ተማረ	-9.95791
▁የንጉሡ	-9.95898
ለዚህ	-9.95981
ባልዋ	-9.96031
▁ጊዜም	-9.96454
ያድን	-9.96529
▁ተቀምጦ	-9.96573
እንዳደረገ	-9.96609
እውነተኛ	-9.96609
ምናልባት	-9.9661
ድንበር	-9.96679
ገደሉ	-9.96719
▁አንቺ	-9.96809
ናቸውና	-9.9699
እስራኤልም	-9.97046
ይኖር	-9.97118
ሁኑ	-9.97166
ወዲያ	-9.97232
▁አደረገ፤	-9.97268
ካህናቱም	-9.97368
እናት	-9.97483
ብለህ	-9.97576
ናትና	-9.9765
ያህል	-9.97791
ብዬ	-9.97893
▁እኔን	-9.98038
ሰጥቶ	-9.98065
ብሩን	-9.98089
ኃጢአቱ	-9.98095
የሚያደርግ	-9.98095
ፈረሰ	-9.98095
ሽማግሌ	-9.98095
ድሆች	-9.98112
አለች	-9.98362
▁ነውር	-9.98413
▁ሰማይ	-9.98426
▁ነበርና።	-9.98672
▁መጠን	-9.994
▁ከግብፅ	-9.99481
መልካሙን	-9.99602
መሐላ	-9.99602
ሰማያዊ	-9.99602
በምሥራቅ	-9.99602
እንስሶች	-9.99602
ወጥተው	-9.99602
▁ለሕዝቡ	-9.99602
ጠቢብ	-9.99621
የአገሩ	-9.99663
ሆኖአል	-9.99737
እያንዳንዱም	-9.99887
ላቸው።	-9.99894
ያለበት	-9.9996
▁የዳዊት	-9.9999
▁ራሱን	-10.0003
እያለ	-10.0011
ተናገርሁ	-10.0013
ተባት	-10.0019
▁በመንገድ	-10.0036
▁ጥቂት	-10.0054
ከምድር	-10.0083
ላባ	-10.0084
ከእስራኤልም	-10.0089
ንቃ	-10.0093
▁ወጣ።	-10.01
አንደኛው	-10.0113
እሰጣለሁ	-10.0113
ወንድሞቻቸው	-10.0113
የሚሆነውን	-10.0113
እላለሁ	-10.0114
አይሆንም	-10.0131
ስድብ	-10.0133
በእስራኤልም	-10.014
ዱር	-10.014
አደረ	-10.0191
ነገረው	-10.0196
ዓይንህ	-10.0214
▁የሆነውን	-10.0219
ይሁኑ	-10.0238
ሳን	-10.0257
አእምሮ	-10.0269
ርዝመቱ	-10.0269
ሴዴቅያስ	-10.0269
በሰሜን	-10.0269
ወጥመድ	-10.0269
ያደረገውን	-10.0274
▁እኛም	-10.0279
ወሰዱ	-10.0287
አምስተኛው	-10.0288
▁ለዳዊት	-10.0303
▁ሰዓት	-10.0374
አባቱም	-10.0416
እሄዳለሁ	-10.0427
እንግዳ	-10.0427
እንግዶች	-10.0427
የሚለው	-10.0427
የሚችል	-10.0427
ፈጠረ	-10.0427
አበኔር	-10.0427
ተራራማው	-10.0428
በመጀመሪያው	-10.0434
▁ትውልድ	-10.0448
▁በክርስቶስ	-10.0454
ይለዋል	-10.0458
▁በሰው	-10.0459
ማለት	-10.0468
▁በብዙ	-10.047
የከበረ	-10.0488
የተባለ	-10.049
ግብፅ	-10.0499
▁ብር	-10.05
መሠዊያው	-10.0505
አልሁ	-10.0514
ይመለስ	-10.055
▁ሕይወት	-10.0553
ታውቃላችሁ	-10.0556
▁ባድማ	-10.0559
▁አይደለም።	-10.0574
ተገኘ	-10.0587
ቀርበው	-10.0587
ትዕቢት	-10.0587
ክርስቲያን	-10.0587
ደማስቆ	-10.0587
ግብፃውያን	-10.0587
ጠቦቶች	-10.0587
▁ዮናታን	-10.0587
▁በመሠዊያው	-10.0595
አስቀድሞ	-10.0627
a	-10.0641
▁ፍርድን	-10.0645
ከእኛ	-10.067
ከእንግዲህ	-10.0694
እናቱ	-10.0702
በላቸው	-10.0705
ተመልሶ	-10.0718
▁መከራ	-10.0743
በየወገናቸው	-10.075
አጋንንት	-10.075
ወረዱ	-10.075
ዘመኑ	-10.075
የሚቃጠል	-10.075
ደብዳቤ	-10.075
ጠላቶቻቸው	-10.075
አመስግኑ	-10.075
▁አለው፤	-10.0754
መጠጥ	-10.0758
አባቶች	-10.077
እላችኋለሁ	-10.0773
▁ንጉሡን	-10.0781
መልከ	-10.0792
በሰማይ	-10.0794
ልጆቻቸው	-10.0827
አይተው	-10.0878
▁አምላኬ	-10.0886
አካዝ	-10.0915
መቅሠፍት	-10.0916
መታሰቢያ	-10.0916
በእርግጥ	-10.0916
ተጽፎአል	-10.0916
ዕረፍት	-10.0916
የአሦር	-10.0916
ወልድ	-10.0916
በላያቸው	-10.0916
ሰጣችሁ	-10.0918
ኖረው	-10.092
ትቢያ	-10.0941
ማድረግ	-10.0963
በታላቅ	-10.0974
▁በሰማ	-10.0982
ብላችሁ	-10.099
ያምኑ	-10.1014
▁ኃጢአትን	-10.1023
እድል	-10.1044
የሰጠ	-10.1045
▁ሳኦልም	-10.1053
ማኅፀን	-10.1084
ጸልይ	-10.1084
መርዶክዮስ	-10.1084
ተአምራት	-10.1084
ዓይኔ	-10.1084
ትምህርት	-10.1084
ካለ	-10.1094
ራሳቸውን	-10.1099
▁ናት፤	-10.1103
ዋይ	-10.1103
▁እነዚህን	-10.1108
ጠላቶችህ	-10.1115
▁ወጣ፥	-10.1129
በግብፅ	-10.113
ሁለተኛ	-10.1144
ፊተኛው	-10.1145
እጃቸው	-10.1147
እንደዚህ	-10.1149
ሐዋርያት	-10.1149
አምባ	-10.1162
▁ከንቱ	-10.1174
ጴጥሮስም	-10.1187
አቀረበ	-10.1223
በእጁ	-10.1226
በረዶ	-10.1256
አባታችን	-10.1256
▁ምክር	-10.1256
መልእክተኞች	-10.1256
ተቀበሉ	-10.1256
ይችላል	-10.1256
ይመጣሉ	-10.1259
ሶርያውያን	-10.1264
ርስቱ	-10.1275
▁አለችው።	-10.1277
ሳይሆን	-10.1301
ብላቴና	-10.1315
የወርቅ	-10.136
የምድር	-10.1368
ለእናንተ	-10.1391
ውያንም	-10.1392
በእርስዋም	-10.1402
▁ለሰው	-10.1408
▁አለች።	-10.1419
ኤልሳዕ	-10.143
ወንድሙን	-10.143
ይልቁን	-10.143
ይወድቃሉ	-10.1432
እነዚህን	-10.1434
ይጠፋል	-10.1439
ምክንያት	-10.146
ባድማ	-10.147
▁እርሱን	-10.1482
የእግዚአብሔርንም	-10.1492
ሳኦልን	-10.1526
ባቸው።	-10.1562
ሰማሁ	-10.1571
በእጃቸው	-10.1581
በእርስዋ	-10.1593
የእሳት	-10.1598
ማዕዘን	-10.1608
ተቀምጠው	-10.1608
አስቴር	-10.1608
ኢዮስያስ	-10.1608
እግሮች	-10.1608
ይናገራል	-10.1608
▁ዕለት	-10.1608
ጲላጦስ	-10.1608
አጠፋለሁ	-10.1608
መርከብ	-10.1608
ሰይጣን	-10.1608
ተከተለ	-10.1608
መምህር	-10.1609
ምድያም	-10.1612
መልሱ	-10.1616
ስንፍና	-10.162
መጥተው	-10.162
ድካም	-10.1631
ሰበረ	-10.1644
አላት	-10.1647
አስብ	-10.176
ገደሉት	-10.1778
▁ልጆች፤	-10.1783
ወርዱ	-10.1784
መስገጃዎች	-10.1789
መንግሥታት	-10.1789
መዝሙር	-10.1789
ተግሣጽ	-10.1789
ታመኑ	-10.1789
ታውቃለህ	-10.1789
ታደርጋለህ	-10.1789
አይደለሁም	-10.1789
የአሞን	-10.1789
ድንጋጤ	-10.1789
በርሳችሁ	-10.1789
ደጆች	-10.1789
▁ወንድም	-10.1793
ይናገሩ	-10.1797
አትፍራ	-10.1798
መጣሁ	-10.1798
▁አይደለም፤	-10.18
እልፍ	-10.1807
የነበረውን	-10.1823
የለውም	-10.183
▁ዓለም	-10.1845
ምሕረትህ	-10.1875
▁አልሁ።	-10.1885
▁አደረጉ።	-10.1917
ትሰማ	-10.1918
እጅግም	-10.1954
ተቈጠሩ	-10.1969
ተቀበለ	-10.1973
አቤሜሌክ	-10.1973
ከዋክብት	-10.1973
ኮረብቶች	-10.1973
ይሄዳል	-10.1973
ትተው	-10.1973
አይችልም	-10.1974
አባታቸው	-10.198
በጨለማ	-10.198
ያድር	-10.2023
▁ነውና፤	-10.2059
ከግብፅ	-10.2088
እርሻው	-10.2122
ይጠራ	-10.2126
የሆነውን	-10.2139
መኖሪያ	-10.216
መጻተኛ	-10.216
ቸነፈር	-10.216
ንፍታሌም	-10.216
ድንጋዮች	-10.216
ምድራቸው	-10.216
ጠማማ	-10.2165
ያላችሁ	-10.2173
ይገባል	-10.2182
▁በሆነ	-10.2188
ያውቃል	-10.22
ምናምን	-10.2215
▁ናት።	-10.222
▁ቃሌን	-10.2223
ከፋ	-10.2246
▁ወጣ፤	-10.2261
▁አይሁድ	-10.2261
ለካ	-10.2295
ባልንጀራ	-10.23
▁የለም፤	-10.2301
ይቀር	-10.2303
▁በምን	-10.231
ተለየ	-10.2318
ያገኙ	-10.2351
መሠረት	-10.2351
ምናሴም	-10.2351
ተፈጸመ	-10.2351
አትፍሩ	-10.2351
ኢሳይያስ	-10.2351
አንዲቱ	-10.2351
ሰምተው	-10.236
ምድሪቱም	-10.2404
ተከለ	-10.2418
ሁላቸው	-10.242
ይስሐቅም	-10.2422
ተሰጠ	-10.2442
በመንገድ	-10.2451
ትሆኑ	-10.2464
ስማቸው	-10.2473
ከአንቺ	-10.2492
ይበሉ	-10.2511
ባረከ	-10.2515
ይመልስ	-10.2529
መንገዳቸው	-10.2546
ሮብዓም	-10.2546
ተቈጣ	-10.2546
አትክልት	-10.2546
እሾህ	-10.2546
እኅት	-10.2546
ከአባቶቹ	-10.2546
ክርክር	-10.2546
ይናገራሉ	-10.2546
ጕልማሳ	-10.2546
ጠይቅ	-10.2546
ፈጽመው	-10.2546
ፍርዴ	-10.2546
ፍየሎች	-10.2546
አምስቱ	-10.2547
ገመድ	-10.2568
ብቻውን	-10.2574
ትሁን	-10.2586
▁በዚህም	-10.2589
ብሉ	-10.2594
▁ጠቦት	-10.2612
የይሁዳም	-10.2632
▁ጊዜ።	-10.27
ዓይኖች	-10.2702
ይሄዱ	-10.2708
ተመለስ	-10.2709
እናቱም	-10.2716
መዛሙርት	-10.2745
በሐሰት	-10.2745
ታላላቆች	-10.2745
አሴር	-10.2745
አደባባዩ	-10.2745
እለምንሃለሁ	-10.2745
እግሮቹ	-10.2745
ዘካርያስ	-10.2745
ፈረሰኞች	-10.2745
ፍላጻ	-10.2745
አይደሉም	-10.2745
ሰገዱ	-10.2747
አፍህ	-10.2776
በመሠዊያው	-10.2791
ደመናው	-10.2802
መሥዋዕትና	-10.2844
ገድል	-10.2846
ዕቃውን	-10.286
በክርስቶስ	-10.2868
ከበረ	-10.2873
▁መጡ።	-10.2879
ተባለ	-10.291
የአሮን	-10.2918
መልሳ	-10.2926
መዝገብ	-10.2947
ትእዛዙ	-10.2947
ኢዮራም	-10.2947
እያንዳንዳቸው	-10.2947
አፋቸው	-10.295
መፍራት	-10.2951
ድንገት	-10.2954
▁ናቸው፥	-10.2964
ወዲያውም	-10.2964
▁ሄዱ።	-10.2992
▁ይሆናሉ።	-10.3074
▁ነውና፥	-10.3103
ይላሉ	-10.3122
ሐሰተኛ	-10.3154
ተቀበል	-10.3154
ትሆናለህ	-10.3154
ነፍሳቸው	-10.3154
አንጻር	-10.3154
ከነዓናውያን	-10.3154
ዛብሎን	-10.3154
እፍረት	-10.3154
መንደሮችዋ	-10.3184
አሮንና	-10.319
አለቃው	-10.319
▁ለፊት	-10.3216
ርግብ	-10.3232
▁ተቀመጡ።	-10.3258
ይጠብቁ	-10.326
ይበል	-10.3288
ይገዛ	-10.3305
አለቆችና	-10.3322
አበባ	-10.3332
መሰምርያ	-10.3365
ምድሩን	-10.3366
ተመለከተ	-10.3366
ነገራቸው	-10.3366
አቀረቡ	-10.3366
አድርገህ	-10.3366
የሚመስል	-10.3366
ፈረስ	-10.3366
ተመልከት	-10.3367
እባብ	-10.3378
ሰጠሁ	-10.3381
ለዚያ	-10.339
ገለባ	-10.3397
ሚስቱን	-10.3434
ጠየቀ	-10.3437
ወርዱም	-10.3468
እጁንም	-10.3513
ይሰጡ	-10.3558
ያቀርቡ	-10.3581
ሄሮድስ	-10.3581
መጠጊያ	-10.3581
ሚስቶች	-10.3581
ቁርበት	-10.3581
ችግረኛ	-10.3581
ነገዶች	-10.3581
ኢትዮጵያ	-10.3581
እሴይ	-10.3581
ወይራ	-10.3581
ይቀመጡ	-10.3581
ግልሙትና	-10.3581
ጠቢባን	-10.3581
ይደረግ	-10.3581
ሰበሰበ	-10.3582
ቍጣዬ	-10.3601
ይበላል	-10.3613
አባቶችህ	-10.3616
ተቀደሰው	-10.3634
ጠራቸው	-10.3644
ግብር	-10.3718
ከአሕዛብ	-10.3729
መናፍስት	-10.3802
መንገሥ	-10.3802
በኵራት	-10.3802
ተጕዘው	-10.3802
አርጤክስስ	-10.3802
እስማኤል	-10.3802
የሚናገር	-10.3802
ይሻላል	-10.3802
ጨረቃ	-10.3802
አደረግሁ	-10.3802
ሁላችን	-10.3803
ይጠፋሉ	-10.3803
ይባላል	-10.3806
ውሰዱ	-10.381
ርስታቸው	-10.3815
መከር	-10.3857
ይቀመጥ	-10.3867
እውቀትን	-10.387
በደሉ	-10.3888
ለምኑ	-10.3892
ሰረገላ	-10.3914
ረከሰ	-10.3922
ደረሱ	-10.3942
ልጆቼ	-10.4028
ሰነፎች	-10.4028
ቤርሳቤህ	-10.4028
ተጠንቀቁ	-10.4028
እናውቃለን	-10.4028
እናገራለሁ	-10.4028
ዓመፀኞች	-10.4028
ያስነሣ	-10.4028
ይሳኮር	-10.4028
ጣዖት	-10.4028
ጽኑዓን	-10.4028
▁ሌሎችን	-10.4028
▁ሰፈሩ።	-10.4028
በስውር	-10.4032
መስማት	-10.4032
▁ኢየሱስን	-10.4061
ዓይኖችህ	-10.4076
▁ነፍሱን	-10.411
ሰጣት	-10.4118
ማየት	-10.4136
ልጆቻቸውን	-10.4149
ሌዋውያኑም	-10.4152
ፊትህን	-10.4166
ለማድረግ	-10.4193
በለስ	-10.4226
ያገባ	-10.4232
ይላቸዋል	-10.4254
መሰንቆ	-10.4258
ቀለበቶች	-10.4258
ትጠብቅ	-10.4258
አንቀላፋ	-10.4258
አድነኝ	-10.4258
እሆናለሁ	-10.4258
እረኞች	-10.4258
ዓመፀኛ	-10.4258
ገባዖን	-10.4258
ጌልገላ	-10.4258
ጠባቂ	-10.4258
ጥበበኞች	-10.4258
ተመልከቱ	-10.4258
ሌላቸው	-10.4259
እሳቱ	-10.4262
መናገር	-10.4262
በናያስ	-10.4262
እረኛ	-10.4263
▁ለእነርሱ	-10.4272
ጥዋት	-10.4292
አካል	-10.4308
መሆን	-10.4323
▁ተናገረ።	-10.4325
ኃጢአታቸው	-10.435
ያለች	-10.4351
ሳለህ	-10.4357
▁ይሁዳም	-10.4371
መራራ	-10.4376
ተከተሉት	-10.4384
ይሰሙ	-10.4388
የግብፅ	-10.4437
ከብት	-10.444
▁ነበረች።	-10.4449
ጠላቶች	-10.4452
ቀንዶች	-10.4495
ተንኰል	-10.4495
ትእዛዜ	-10.4495
እሰጥሃለሁ	-10.4495
ወዳጆች	-10.4495
▁ወይፈን	-10.4495
ባሪያዎቹን	-10.4495
አውድማ	-10.4495
ይወጣሉ	-10.4497
▁መጣ፥	-10.4504
ግርማ	-10.4513
ገደለው	-10.4523
ገባችሁ	-10.454
▁ሄደ፥	-10.4614
▁እግዚአብሔርንም	-10.4622
▁መዛሙርቱም	-10.4632
▁መክሊት	-10.4655
▁ፍጹም	-10.4655
ከብንያም	-10.4675
ቀንደ	-10.4704
መንፈሱ	-10.4736
መጋረጆች	-10.4736
ምኵራብ	-10.4736
ሰውዮው	-10.4736
ተቀበረ	-10.4736
ተነሥተህ	-10.4736
ነገሩን	-10.4736
ነገሮች	-10.4736
ነፍሰ	-10.4736
አባታችሁ	-10.4736
የሌለበት	-10.4736
የተለወሰ	-10.4736
ይነሣል	-10.4736
አጥንት	-10.4741
የተቈጠሩት	-10.4742
ትሄድ	-10.4742
አብረው	-10.4742
መጥቶአል	-10.4744
ይናገር	-10.4747
ይወድቃል	-10.4748
መጣች	-10.4757
ያላቸው	-10.4765
▁ተቀመጠ።	-10.4766
የተናገረውን	-10.4766
የሆኑት	-10.4769
በላዬ	-10.4778
ይበላችሁ	-10.4779
ሥራውን	-10.4788
▁ሄደ፤	-10.4788
ያድርግ	-10.4792
ብሎአልና	-10.4843
ውኃውም	-10.4855
▁ይላሉ።	-10.4857
ኃጢአታቸውን	-10.4887
በይሁዳም	-10.4914
የቀረውም	-10.4927
▁እርሱንም	-10.4951
ያውቃሉ	-10.4967
ባሉት	-10.4973
መልእክ	-10.4982
መቀመጫ	-10.4984
ራእዩ	-10.4984
ቃዴስ	-10.4984
በመካከላችሁ	-10.4984
ተሰወረ	-10.4984
ነደደ	-10.4984
አህዮች	-10.4984
አሜስያስ	-10.4984
አታድርጉ	-10.4984
አገሮች	-10.4984
ከደቀ	-10.4984
ከፀሐይ	-10.4984
ዓረባ	-10.4984
የሚሰማ	-10.4984
ይሄዳሉ	-10.4984
ደርሶአል	-10.4984
መልአኩ	-10.4984
አካዝያስ	-10.4985
እንዳይሆን	-10.4985
ልብሳቸው	-10.4988
ይሄድ	-10.499
ከብር	-10.4995
ሳላችሁ	-10.5023
▁ለእኛ	-10.5048
በፈርዖን	-10.5049
ከበር	-10.5068
ይገደል	-10.5104
ዋልና፥	-10.5115
እናቱን	-10.5117
በልብህ	-10.5152
ገደል	-10.5156
ቀንበር	-10.5163
ተሰማ	-10.517
ይጠጣ	-10.5184
መወርወሪያ	-10.5239
ታላቂቱ	-10.5239
ነበልባል	-10.5239
አልቻሉም	-10.5239
አቢሜሌክ	-10.5239
አንዳንዶች	-10.5239
ዓዛርያስ	-10.5239
የሚሄድ	-10.5239
የሚበላ	-10.5239
አስተዋይ	-10.5239
ይመለሳል	-10.5239
ስእለት	-10.5239
መከተል	-10.5239
መርገም	-10.524
እጥፍ	-10.5246
መሥራት	-10.5248
ተሰብስበው	-10.5257
ጥራቸው	-10.5257
ወርቅና	-10.5257
▁ወለደ።	-10.5268
ኃይልህ	-10.5269
ይበላሉ	-10.5275
ባልንጀራህ	-10.5296
ውረድ	-10.5298
▁የሆነው	-10.5317
ነበረበት	-10.5318
ተከተሉ	-10.5359
እግርህ	-10.5362
ሰረገላው	-10.5369
ወሰደው	-10.5381
▁አልነበረም።	-10.5397
▁ሠራ።	-10.54
አለችው	-10.5416
▁የክርስቶስ	-10.5426
ተባለው	-10.5427
▁በመልካም	-10.5437
ጠራሁ	-10.5456
ኋላቸው	-10.5466
ወሰዱት	-10.5469
▁ነበረና	-10.5473
አባትዋ	-10.5477
አሰበ	-10.548
መንገዴ	-10.55
መጐናጸፊያ	-10.55
ምስክሮች	-10.55
ሰልፈኞች	-10.55
ስድስተኛው	-10.55
ቅድስና	-10.55
ተቀደሱ	-10.55
አለቀሰ	-10.55
አርነት	-10.55
አይደለችም	-10.55
አድርጋችሁ	-10.55
ወንድሞቻችሁ	-10.55
ያደርጋሉ	-10.55
ግብዣ	-10.55
ፈቃዱ	-10.55
▁ፊቱን	-10.55
እመልሳለሁ	-10.55
መብራት	-10.55
ሲናገር	-10.55
ባለጠግነት	-10.5501
አንገት	-10.5505
ባልንጀራውን	-10.5507
ለመኑ	-10.5524
ጥርስ	-10.5533
ይሰጥ	-10.5546
አጥብ	-10.5547
የተቀደሰውን	-10.5548
የተወለደ	-10.5564
እናትህ	-10.5576
የእስራኤልንም	-10.5597
በኤፍሬም	-10.5642
መሠዊያውን	-10.5671
▁መጣ፤	-10.5747
እርም	-10.5755
ልመና	-10.5765
ሐናንያ	-10.5767
ሥርዓቱ	-10.5767
ቅዱሳኑ	-10.5767
ባሪያዎቹም	-10.5767
ኪዳኔን	-10.5767
ካሌብ	-10.5767
የሚበልጥ	-10.5767
የሚኖሩትን	-10.5767
ጠይቁ	-10.5767
አሉአቸው	-10.5767
ይውጣ	-10.5788
መረጠው	-10.5792
አድርጎአል	-10.5801
▁ይመጣል፥	-10.5825
▁ከእነዚህ	-10.5827
ሰማችሁ	-10.5833
ድስት	-10.5845
▁ለማን	-10.5846
▁በወርቅ	-10.5895
ከእኔም	-10.5912
ያልሆነ	-10.5917
ተሰጠው	-10.593
ማመን	-10.5934
በስብ	-10.5943
ተጠራ	-10.5949
ለእስራኤልም	-10.5967
▁አሉ፤	-10.5981
ሁለቱንም	-10.6008
በድን	-10.6025
▁ላከ።	-10.6032
አኖረው	-10.6035
አይሁዳዊ	-10.6043
መሣሪያ	-10.6043
ምስሎች	-10.6043
አንዳንዶቹ	-10.6043
አይገኝም	-10.6043
ከተሞቻቸው	-10.6043
የሚሉት	-10.6043
ፈልገው	-10.6043
ራሳችን	-10.6043
ይለኛል	-10.6043
ገብተው	-10.6044
እጆች	-10.6044
የምድርም	-10.6044
መግባት	-10.6047
ረጅም	-10.6049
አደራ	-10.6081
እንዲሆኑ	-10.609
ተናገራቸው	-10.6105
የፈርዖን	-10.6115
ግልጥ	-10.6134
▁ለልጅ	-10.6169
አመድ	-10.6173
ለበጠ	-10.6174
▁ተነሣ፥	-10.623
መረጠ	-10.6232
ሥራህ	-10.629
እስራኤልንም	-10.6299
መታቸው	-10.6326
መዝጊያ	-10.6326
በቤቱም	-10.6326
ብልሃት	-10.6326
ተገረዙ	-10.6326
ታቀርባላችሁ	-10.6326
ትእዛዛት	-10.6326
ትዕግሥት	-10.6326
ኃጢአታችሁ	-10.6326
አሳልፈው	-10.6326
አደርገዋለሁ	-10.6326
እጆቹ	-10.6326
ይወስዳል	-10.6326
ድምፃቸው	-10.6326
በደለኛ	-10.6326
አንበጣ	-10.6328
ቃላችሁ	-10.633
ድንግል	-10.6331
ትላለህ	-10.6331
መስለው	-10.635
ሠራተኛ	-10.6358
ከዘላለም	-10.6358
▁እነርሱን	-10.6365
ሰገደ	-10.6385
ምግብ	-10.6392
በእኔና	-10.6411
ከፍልስጥኤማውያን	-10.6449
▁ሰውም	-10.6471
▁ስምህን	-10.6483
▁አብርሃምም	-10.6516
ሰበሰቡ	-10.6553
የሶርያ	-10.6603
ወንድሞችህ	-10.6603
ሄዳችሁ	-10.6617
ቀርቦአል	-10.6617
ቍርባናቸው	-10.6617
ኃፍረተ	-10.6617
እንቅልፍ	-10.6617
ከሰሜን	-10.6617
ኪዳኑን	-10.6617
ወስደህ	-10.6617
የሚነካ	-10.6617
ያሳድዱ	-10.6617
ያስተምር	-10.6617
መልእክተኛ	-10.6619
ትበላላችሁ	-10.6621
አብያተ	-10.6622
▁ለኃጢአት	-10.6628
▁ታውቃላችሁ።	-10.6674
አላችሁ	-10.6676
▁በላቸው።	-10.6683
▁አደረጉ፤	-10.6691
ሳንቃ	-10.6692
ውኃውን	-10.6701
▁አደረገ፥	-10.6703
ያያል	-10.6791
አሳፍ	-10.681
ሐሰትን	-10.6917
ርዝመት	-10.6917
ሽንገላ	-10.6917
ቅርንጫፎች	-10.6917
ቅዱሱ	-10.6917
ብርታት	-10.6917
ኢይዝራኤል	-10.6917
እንዳሉ	-10.6917
የሌለው	-10.6917
የሚባል	-10.6917
ያመሰግኑ	-10.6917
ይኖራሉ	-10.6917
ይጨምር	-10.6917
ጣዖታት	-10.6917
ያመልኩ	-10.6917
ማገልገል	-10.6917
ፍጥረት	-10.6918
የተባረከ	-10.692
መሄድ	-10.692
እናገር	-10.6921
ስፍራቸው	-10.6923
ፋርስ	-10.6933
ልከው	-10.6934
ሰማንያ	-10.6936
መሆኑን	-10.6937
በሰባተኛውም	-10.6942
ወለደችለት	-10.6961
▁ሰጠው።	-10.6964
ማሰማርያ	-10.7022
▁ሄደው	-10.7048
▁ይላልና።	-10.7056
▁መሰምርያዋን፥	-10.7064
መሰምርያዋን	-10.7078
ምድሪቱንም	-10.7096
ከአንተም	-10.7102
ምላስ	-10.7217
▁መንገዱን	-10.7217
ያቀርብ	-10.722
መርከቦች	-10.7226
መንደሮቻቸው	-10.7226
መንግሥተ	-10.7226
ባለጠጋ	-10.7226
ተለይቶ	-10.7226
አዕማድ	-10.7226
ክርስቲያናት	-10.7226
ዘመናት	-10.7226
የሚመጣው	-10.7226
የማምለኪያ	-10.7226
ያዘዘውን	-10.7226
ድምፁን	-10.7226
ጎዶልያስ	-10.7226
ፍልስጥኤማዊ	-10.7226
▁ስሙንም	-10.7226
እርግማን	-10.7226
ብላቴናይቱ	-10.7226
አቃጠለ	-10.7227
ለመለመ	-10.7228
▁የለምና	-10.7229
ከጥንት	-10.7231
ፍረድ	-10.7241
አቢሳ	-10.7243
የፍልስጥኤማውያን	-10.7259
ብለዋል	-10.7269
በሁለተኛውም	-10.7278
ከአሥር	-10.7279
አሕዛብንም	-10.7326
▁አየሁ፥	-10.7356
አይሁን	-10.7404
▁ሰዎቹም	-10.7438
ባለበት	-10.7469
▁እጃቸውን	-10.7475
የሰሎሞን	-10.7526
▁በሉ።	-10.7532
ስምንተኛው	-10.7537
መንጎች	-10.7545
መዛግብት	-10.7545
ታንኳይቱ	-10.7545
ታያለህ	-10.7545
ነፍሳችሁ	-10.7545
ኬልቅያስ	-10.7545
የሌለባቸው	-10.7545
የሚሄዱ	-10.7545
ይቀበላል	-10.7545
በሌሊትም	-10.7545
በእጃችሁ	-10.7545
በየወገኖቻቸው	-10.7545
በግዞት	-10.7545
ኃጢአታችን	-10.7545
አለቀሱ	-10.7545
እናደርጋለን	-10.7545
ከንፈር	-10.7545
ውስጠኛው	-10.7545
ዕቃዎች	-10.7545
የሚጠብቅ	-10.7545
ያለቅሱ	-10.7545
ይቀመጣል	-10.7545
ግመሎች	-10.7545
ጭፍሮች	-10.7545
ሰጡአቸው	-10.7546
ፈራጆች	-10.7546
ይገባዋል	-10.7546
ያልፋል	-10.7546
ይላቸው	-10.7546
ካለችው	-10.7547
ስርየት	-10.7547
አድርጌአለሁ	-10.7549
ይደርስ	-10.7549
አዋጅ	-10.7549
ይመለሱ	-10.7553
ርብቃ	-10.7554
ለብሰው	-10.7565
ያማረ	-10.7572
በሦስተኛውም	-10.7575
ባደረገ	-10.7582
ማደሪያውን	-10.7583
ደከመ	-10.7591
አውጣ	-10.7598
▁ዓይነት	-10.7654
ቢሆኑ	-10.7662
በጌታችን	-10.7717
ደሴቶች	-10.7762
የአባቶች	-10.7781
አማት	-10.7812
ባደረ	-10.7851
መሎጊያዎቹ	-10.7875
በኢያሪኮ	-10.7875
አልሰሙም	-10.7875
አማሌቅ	-10.7875
አኖራለሁ	-10.7875
አዘጋጅ	-10.7875
አያውቅም	-10.7875
አፈሰሰ	-10.7875
እያንዳንዳችሁ	-10.7875
ከምሥራቅ	-10.7875
ይኸውም	-10.7875
መለከቱን	-10.7875
የላቸውም	-10.7875
አደረግህ	-10.7875
መቃብሩ	-10.7877
በደላቸው	-10.7877
ፍርዱ	-10.7878
ትናገር	-10.7887
ወጥቶአል	-10.7889
እይ	-10.7897
ያያሉ	-10.79
ሳፋን	-10.7907
ባሪያውን	-10.7922
አሥረኛው	-10.7936
የለበሰ	-10.7957
በነበረው	-10.7957
▁ይኖራል።	-10.7968
ሞላበት	-10.803
ያየው	-10.8129
▁ተናገራቸው።	-10.8139
መንደሮች	-10.8167
ተወለዱ	-10.8206
የቀረው	-10.8216
መክደኛ	-10.8216
መስገጃ	-10.8216
መታጠቂያ	-10.8216
መገረዝ	-10.8216
ቅድስተ	-10.8216
በነጋውም	-10.8216
ተናግሬአለሁ	-10.8216
አሚናዳብ	-10.8216
አብያታር	-10.8216
አይደላችሁም	-10.8216
ኤልያብ	-10.8216
ወዮላቸው	-10.8216
የሚሰጥ	-10.8216
የሚቀመጥ	-10.8216
ድንበሩም	-10.8216
ጥቂቶች	-10.8216
በርናባስ	-10.8216
ብድራት	-10.8216
ምድራችሁ	-10.8216
እንደዚሁ	-10.8217
ገደላቸው	-10.822
የተወደደ	-10.8222
ከፊትህ	-10.8233
በልባችሁ	-10.8257
ለመነው	-10.8268
ረከሱ	-10.8298
▁ያደርጋል።	-10.8414
▁ጠርቶ።	-10.8415
በረቱ	-10.8426
የፊተኛው	-10.8443
ሦስተኛ	-10.8456
ሆነዋል	-10.8464
ከመጀመሪያ	-10.8492
▁ስማ፤	-10.8503
ይለው	-10.8517
በማደሪያው	-10.8548
ተናግሮ	-10.8569
መሳፍንት	-10.8569
መድኃኒቴ	-10.8569
ሜሱላም	-10.8569
ሰገነት	-10.8569
ቁርበቱ	-10.8569
ተጠንቀቅ	-10.8569
አላውቅም	-10.8569
አውሬው	-10.8569
አደረጋቸው	-10.8569
አድርገሃል	-10.8569
ኢያቢስ	-10.8569
እስትንፋስ	-10.8569
ወገኔ	-10.8569
የሚያስፈራ	-10.8569
ያቀርባል	-10.8569
ያደርገው	-10.8569
ይቀመጣሉ	-10.8569
ዲያብሎስ	-10.8569
ተከትለው	-10.8569
ይገድሉ	-10.8569
መሰከረ	-10.8569
በላያችን	-10.8569
ያስተውሉ	-10.8569
አመጣለሁ	-10.857
ሰደዱ	-10.8572
ተደፋ	-10.8576
መምጣት	-10.8576
ይሰጠዋል	-10.8578
ለወንድሞቹም	-10.8585
አትበል	-10.8607
ገብስ	-10.8609
▁ያውቃሉ።	-10.8613
ልማድ	-10.8635
▁ይሁኑ።	-10.8641
የተነገረ	-10.8717
እሆን	-10.8765
ሐዋርያ	-10.8795
ብሎአል	-10.8825
ይብላ	-10.8867
የገለዓድ	-10.8867
ሆንን	-10.8881
▁አየሁ፤	-10.8882
▁ይሆናሉ፤	-10.8883
የተመረጡ	-10.8916
▁ተመለሱ።	-10.893
ይባርክ	-10.8935
ልጆቻችን	-10.8935
መሥዋዕቱ	-10.8935
መቄዶንያ	-10.8935
መጻሕፍት	-10.8935
ምርኮኞች	-10.8935
ሠራተኞች	-10.8935
በየዓመቱ	-10.8935
ተርሴስ	-10.8935
ተቀበላችሁ	-10.8935
ንግሥቲቱ	-10.8935
አመሰግንሃለሁ	-10.8935
እምነታችሁ	-10.8935
እንግዲያስ	-10.8935
የሚያህል	-10.8935
ጕድጓዱ	-10.8935
ፍልስጥኤም	-10.8935
ይመለሳሉ	-10.8935
አዲሱ	-10.8936
አንገቱ	-10.8936
መከራቸው	-10.8939
ጆሮአቸው	-10.8939
ላደርግ	-10.894
ልመናዬ	-10.894
መብላት	-10.8941
ከመስፈሪያው	-10.8942
ወደድሁ	-10.897
ውደድ	-10.9002
የተጠራ	-10.9008
ይስጥ	-10.9021
ትርፍ	-10.9084
የአምላክህን	-10.9092
ከአሥራ	-10.9286
ቀደመው	-10.9315
የሚጠሉ	-10.9315
ማኅተም	-10.9315
ሰረገሎቹ	-10.9315
ሳንቆች	-10.9315
ቀርሜሎስ	-10.9315
ቈነጃጅት	-10.9315
አማካሪ	-10.9315
አሳልፈህ	-10.9315
አንበሶች	-10.9315
አይደለህም	-10.9315
አድምጡ	-10.9315
አዶንያስ	-10.9315
አገልጋይ	-10.9315
እንኪያስ	-10.9315
እንደሚሆን	-10.9315
እንደሚገባ	-10.9315
ወይፈኖች	-10.9315
ወዳለበት	-10.9315
ይሞታሉ	-10.9315
▁ጀመር።	-10.9315
አብራምም	-10.9315
ይሁንላችሁ	-10.9316
እግራቸው	-10.9317
ልባችን	-10.9318
ሲሄዱ	-10.9365
ተድላ	-10.937
ይኑር	-10.9408
ለብሳ	-10.9453
▁ሰጣቸው።	-10.9496
▁አዘዛቸው።	-10.96
ይቈጠር	-10.971
መልክተኞች	-10.971
መንፈሳዊ	-10.971
መጥመቂያ	-10.971
ሰምቶአል	-10.971
በቅንነት	-10.971
በውስጡ	-10.971
በዙሪያዋ	-10.971
አስጨናቂ	-10.971
አንዳንድ	-10.971
አውጥቶ	-10.971
አገልጋዮች	-10.971
እሰጣቸዋለሁ	-10.971
ዕብራውያን	-10.971
የምትኖሩ	-10.971
ይበሉታል	-10.971
ይፈርድ	-10.971
ጠላቶቻችሁ	-10.971
ሰንሰለት	-10.971
ራፋይም	-10.971
ይመስል	-10.9713
ጠራችው	-10.9715
መበለት	-10.9716
ታችኛው	-10.9726
▁ሄዱ፤	-10.9727
ማለላቸው	-10.9727
በውስጥዋ	-10.9729
ይተዋል	-10.9731
በተቀደሰ	-10.975
ናባጥ	-10.9752
ሰማይንና	-10.9756
ማደሪያውም	-10.9762
▁የቀረውን	-10.9803
ይግባ	-10.9806
▁ያደርጋል፤	-10.9909
ራስዋን	-10.9949
▁ተቀመጠ፤	-10.9971
መቀመጥ	-11.0121
መናወጥ	-11.0121
መኳንንት	-11.0121
ማስተስረያ	-11.0121
ሰምቻለሁ	-11.0121
ሳያውቅ	-11.0121
በሌለበት	-11.0121
በረኞች	-11.0121
በግምባሩ	-11.0121
ብላቴኖች	-11.0121
ታደርጋላችሁ	-11.0121
ትዕቢተኞች	-11.0121
ችግረኞች	-11.0121
አንዳንዱ	-11.0121
አዛሄል	-11.0121
አደርግሃለሁ	-11.0121
እሰጣችኋለሁ	-11.0121
እጆቼ	-11.0121
ዓይኑን	-11.0121
የሚጠብቁ	-11.0121
የቀሩትም	-11.0121
ይሆንላችኋል	-11.0121
ይፈርዳል	-11.0121
ጣዖቶቻቸው	-11.0121
ይመስላል	-11.0121
ያቃጥለዋል	-11.0121
መረጥሁ	-11.0121
መግደል	-11.0121
ተበተኑ	-11.0121
ተዋቸው	-11.0121
ይገለጥ	-11.0121
ከግራር	-11.0127
አያለሁ	-11.0127
የከተማው	-11.0159
ትሰጥ	-11.0184
ለኃጢአትም	-11.0264
በሲና	-11.0266
ገለጠ	-11.0433
የንጉሡንም	-11.0474
▁ሰማሁ።	-11.0481
ላደረገ	-11.054
ሰውነትህ	-11.0549
በለዓምም	-11.0549
ትሆናላችሁ	-11.0549
ትኖራለች	-11.0549
አላወቁም	-11.0549
አልኋቸው	-11.0549
አርኖን	-11.0549
አታድርግ	-11.0549
አኖራቸው	-11.0549
አያውቁም	-11.0549
ኤፍራጥስ	-11.0549
እወዳለሁ	-11.0549
የሚናገሩ	-11.0549
የሚያምን	-11.0549
የሚያውቅ	-11.0549
የሚያደርገው	-11.0549
የሚገባውን	-11.0549
የበኵር	-11.0549
ያከብሩ	-11.0549
ይባረክ	-11.0549
ይወርዳል	-11.0549
ጕልማሶች	-11.0549
በዙሪያቸው	-11.0549
ጠባቂዎች	-11.0549
ትችላለህ	-11.0549
ተቃጠለ	-11.0549
ሁለተኛይቱ	-11.0549
አልወደደም	-11.055
እንድትሆን	-11.055
ይጠብቃል	-11.055
መስጠት	-11.055
ይበልጣል	-11.0553
ይጥፋ	-11.0559
ደማቸው	-11.0563
በአገርህ	-11.0563
የተጠላ	-11.0569
መጣበት	-11.0608
አትበሉ	-11.0619
የተመረጠ	-11.0687
▁በአልጋ	-11.0696
▁ነገሩት።	-11.0696
እስኪመጣ	-11.0705
ፍሬውን	-11.072
ጣላቸው	-11.0753
ይወስድ	-11.0994
ለብቻው	-11.0997
መላእክቱ	-11.0997
መንገዳችሁ	-11.0997
መጽናናት	-11.0997
ምሰሶች	-11.0997
በለዓምን	-11.0997
በሕይወቱ	-11.0997
ተማከሩ	-11.0997
ነፍሳት	-11.0997
አመሰግናለሁ	-11.0997
አማልክቶቻቸው	-11.0997
አስቀድመው	-11.0997
እጃችን	-11.0997
ከንፈሮች	-11.0997
የሚያውቁ	-11.0997
ደነገጠ	-11.0997
በአጠገቡ	-11.0997
ተናግሮአልና	-11.0997
እናድርግ	-11.0997
የማይገባ	-11.0997
ያገኛል	-11.0997
ብልጥግና	-11.0997
እስራት	-11.0998
ብቻዬን	-11.0999
ሄድሁ	-11.0999
ይድናል	-11.1
አወጣቸው	-11.1001
ደካማ	-11.1001
ይገባሉ	-11.1004
አላደረገም	-11.1006
ወርደው	-11.1007
የተደረገው	-11.1007
የኮረብታው	-11.1008
ላይኛው	-11.1023
ፈራጅ	-11.1024
▁መለሰለት።	-11.1026
ደርብ	-11.1034
ትእዛዝህን	-11.1045
አመኑ	-11.106
አስመጣ	-11.1069
መለሱለት	-11.109
የናሱ	-11.1094
የአምላካችንን	-11.1116
ለበሱ	-11.1118
ሠራበት	-11.1147
አምጣ	-11.1201
ፍሬዋን	-11.1221
የተሞላ	-11.1248
ለብቻቸው	-11.1466
መልካሚቱ	-11.1466
መዘምራኑ	-11.1466
መጻተኞች	-11.1466
ሰጠኋቸው	-11.1466
ቍርባኑ	-11.1466
ነበራቸው	-11.1466
ነቢያቱ	-11.1466
አልቅሱ	-11.1466
አመንዝራ	-11.1466
አስጸያፊ	-11.1466
አእላፋት	-11.1466
አኪጦፌል	-11.1466
እሰድዳለሁ	-11.1466
ከአሦር	-11.1466
ክንፎቻቸው	-11.1466
ወድደው	-11.1466
ዘይቱን	-11.1466
የወርቁን	-11.1466
ያስተምሩ	-11.1466
ያገኘው	-11.1466
ይሆንልሃል	-11.1466
መተላለፍ	-11.1466
አልቻለም	-11.1466
ገደሉአቸው	-11.1466
አትችሉም	-11.1466
አድርገዋል	-11.1466
ስጣቸው	-11.1466
ስድስቱ	-11.1466
መጥተህ	-11.1466
አይገባውም	-11.1466
ያመልጥ	-11.1466
የተቀመጡትን	-11.1467
በየትውልዳቸው	-11.1468
አድምጥ	-11.1469
ያስባል	-11.1474
ብላችኋል	-11.1475
አይጠፋም	-11.1477
በባሳን	-11.1478
በፋንታው	-11.1478
ተወለዱለት	-11.148
አይቀርም	-11.1481
ብሆን	-11.1487
እስያ	-11.1511
ባለቤቱ	-11.1516
የሠራውን	-11.1529
ቍጣውን	-11.1538
ከለከለ	-11.1551
መንገድህን	-11.1576
ጠበቃ	-11.1579
▁ንገራቸው።	-11.1653
ሌዋውያኑ	-11.1687
መለሰለት	-11.1939
ሕልቃና	-11.1958
መማፀኛ	-11.1958
መብረቅ	-11.1958
መድኃኒታችን	-11.1958
ረዳቸው	-11.1958
ቤትሳሚስ	-11.1958
ብርሃኑ	-11.1958
ተለወጠ	-11.1958
ተገረሙ	-11.1958
ትሄዳለህ	-11.1958
ኃያላኑ	-11.1958
ኃይለኛ	-11.1958
ንገረኝ	-11.1958
አላወቀም	-11.1958
አኪቃም	-11.1958
አዳራሾች	-11.1958
አገኘሁ	-11.1958
አገኙት	-11.1958
እሰጠዋለሁ	-11.1958
እንሄዳለን	-11.1958
ክፋታቸው	-11.1958
ወዳለችው	-11.1958
ዓይኖቻቸው	-11.1958
ዕንቅፋት	-11.1958
የሚፈርድ	-11.1958
የተሠሩትን	-11.1958
የተቀረጸውን	-11.1958
ያስተሰርይለታል	-11.1958
ያደርገዋል	-11.1958
ግልገሎች	-11.1958
ጠነከረ	-11.1958
ወንድማማች	-11.1958
መቱአቸው	-11.1958
በሉአቸው	-11.1958
ያጥባል	-11.1961
እንደዚያ	-11.1964
ማልደው	-11.1965
ሰጥቶአል	-11.1968
ያስተሰርይ	-11.1968
በዚች	-11.197
ካልሆነ	-11.197
ከእጅህ	-11.1971
የአባትህን	-11.2024
ሕግህን	-11.2028
መለሰላቸው	-11.2085
የመገናኛውን	-11.2093
አዘዛቸው	-11.2096
መልስለት	-11.2302
ሃይማኖት	-11.2475
መስኮቶች	-11.2475
መጠበቅ	-11.2475
ሰጥቼሃለሁ	-11.2475
ቂርያትይዓሪም	-11.2475
ቅርንጫፍ	-11.2475
በግምባራቸው	-11.2475
ትወስዳለህ	-11.2475
አስቀሎና	-11.2475
አናውቅም	-11.2475
አንጾኪያ	-11.2475
አጸናለሁ	-11.2475
እንዳደረግሁ	-11.2475
የተጻፈውን	-11.2475
ይነጋገር	-11.2475
ይወስዱ	-11.2475
ይወስዳሉ	-11.2475
ጃንደረቦች	-11.2475
ግብዞች	-11.2475
ጠሩአቸው	-11.2475
ሊገድሉ	-11.2475
ሰውነታቸው	-11.2475
በዓይኑ	-11.2475
ባረካቸው	-11.2475
አስቀድሜ	-11.2475
አግብቶ	-11.2475
ኢያቡሳውያን	-11.2475
የምሥራቅ	-11.2475
ግብጻውያን	-11.2475
ጠላቶቻችን	-11.2475
ጠበቅሁ	-11.2475
ያቃጥሉ	-11.2475
አገራቸው	-11.2475
አቃጠሉ	-11.2476
ያፍራሉ	-11.2476
ወንድማችሁ	-11.2477
ያስተውል	-11.2478
ፍረዱ	-11.2478
ጥላቸው	-11.2478
ሠራቸው	-11.2487
በስምንተኛውም	-11.2489
የተቀመጠው	-11.25
ተመረጡት	-11.2503
አይገባም	-11.2507
የምታደርጉ	-11.2508
ይሁዳንና	-11.2509
ከነበረው	-11.2533
ይመለከቱ	-11.2698
ጥለዋል	-11.2809
ጠግነት	-11.3017
k	-11.3021
ሐሰተኞች	-11.3021
መሥዋዕታችሁ	-11.3021
መንኰራኵር	-11.3021
መንጋውን	-11.3021
መዘምራን	-11.3021
ሞዓባውያን	-11.3021
ሰደዳቸው	-11.3021
ቀርቶአል	-11.3021
በኤርትራ	-11.3021
ብልጣሶር	-11.3021
ተሻገረ	-11.3021
ተንቀሳቃሾች	-11.3021
ታስተውሉ	-11.3021
ነግረው	-11.3021
ነፋሳት	-11.3021
አለቆቻቸው	-11.3021
አሣሄል	-11.3021
አስተማሪ	-11.3021
አቅራቢያ	-11.3021
አይቻለሁ	-11.3021
አጥንቶቼ	-11.3021
እዘምራለሁ	-11.3021
እፈልጋለሁ	-11.3021
የተሞሉ	-11.3021
የዘበኞቹም	-11.3021
ይነግሣል	-11.3021
ጃንደረባ	-11.3021
ገልጦአል	-11.3021
ጠፍቶአል	-11.3021
ማሳደድ	-11.3021
አሳባቸው	-11.3021
ተዋረደ	-11.3021
እንድትሆኑ	-11.3021
ድፍረት	-11.3021
አልችልም	-11.3021
ይወርሳሉ	-11.3021
አንካሳ	-11.3021
አይችሉም	-11.3021
ማኑሄ	-11.3021
ሲሄድ	-11.3021
ስላደረገው	-11.3022
ተመለከትሁ	-11.3022
ተግባር	-11.3025
ግደሉ	-11.3027
ያለችውን	-11.3028
አትብሉ	-11.3028
ትበላለች	-11.3028
አሰብሁ	-11.3028
ዲናር	-11.3028
የባሳን	-11.3029
አትሁኑ	-11.303
መውጣት	-11.303
በባልንጀራው	-11.3031
ስገዱ	-11.3031
ገላውን	-11.3032
የኢየሩሳሌምንም	-11.3045
አይኖርም	-11.3046
ዔድን	-11.3046
ሥርዓትህን	-11.3058
አያይም	-11.3073
ንገራቸው	-11.3371
ሆናለች	-11.3458
መካከለኛ	-11.3598
ሞላባቸው	-11.3598
ሠርተዋል	-11.3598
ራፋስቂስ	-11.3598
በመካከላችን	-11.3598
በሚመጣው	-11.3598
በደለኞች	-11.3598
ተቈጠረ	-11.3598
ተኣምራት	-11.3598
ትወርሱአት	-11.3598
አውቄአለሁ	-11.3598
አድርገኝ	-11.3598
አገልግሎታቸው	-11.3598
እልሃለሁ	-11.3598
እሰብራለሁ	-11.3598
እንናገራለን	-11.3598
እኖራለሁ	-11.3598
እጆቻቸው	-11.3598
ከሚቃጠለው	-11.3598
የሚያደርጉትን	-11.3598
የማንሣት	-11.3598
የተሸከሙ	-11.3598
ያቀርበዋል	-11.3598
ያገለግል	-11.3598
መልካቸው	-11.3598
አትግለጥ	-11.3598
ነበሩአቸው	-11.3598
በርሳችን	-11.3598
አልሰማችሁም	-11.3598
በደላችን	-11.3598
አቢግያ	-11.3598
አልተገኘም	-11.3598
ይገኛል	-11.3598
ያደረግህ	-11.3598
በላያችሁ	-11.3601
የተልባ	-11.3603
g	-11.421
w	-11.464
r	-11.556
ፕ	-11.7122
𐋇	-11.7702
d	-11.864
*	-12.1247
1	-12.1247
v	-12.2612
𐊼	-12.4194
"	-12.4194
l	-12.4194
𐊣	-12.4194
2	-12.6074
s	-12.6074
o	-13.1411
3	-13.1411
]	-13.1411
D	-13.2661
e	-13.5756
)	-13.5756
-	-13.5756
5	-13.5756
A	-14.0256
ፏ	-14.3394
ጧ	-14.3395
ጒ	-14.3396
ኼ	-14.3397
ኲ	-14.3398
ኟ	-14.3399
ኗ	-14.34
ቿ	-14.3401
ቷ	-14.3402
ሏ	-14.3403
4	-14.3404
0	-14.3405
ፂ	-14.3406
ዷ	-14.3407
ቊ	-14.3408
(	-14.3409
ፒ	-14.341
ፑ	-14.3411
[	-14.3412
t	-14.3413
ፓ	-14.3414
ፐ	-14.3415
ሷ	-14.3416
T	-14.3417
ኺ	-14.3418
ፔ	-14.3419
ቧ	-14.342
K	-14.3421
ጱ	-14.3422
ጰ	-14.3423
ኾ	-14.3424
ኄ	-14.3425
ፄ	-14.3426
ዡ	-14.3427
ሓ	-14.3428
ቾ	-14.3429
ሢ	-14.343
ዤ	-14.3431
ዦ	-14.3432
W	-14.3433
ጬ	-14.3434
ጺ	-14.3435
ጼ	-14.3436
ኚ	-14.3437
ኡ	-14.3438
ዢ	-14.3439
ጶ	-14.344
ዠ	-14.3441
ሼ	-14.3442
ሒ	-14.3443
ዒ	-14.3444
ዪ	-14.3445
ኆ	-14.3446
ሑ	-14.3447
ጲ	-14.3448
ጪ	-14.3449
ኻ	-14.345
ኜ	-14.3451
ፆ	-14.3452
ኽ	-14.3453
ጵ	-14.3454
ዥ	-14.3455
ሖ	-14.3456
ዣ	-14.3457
ጾ	-14.3458
ኹ	-14.3459
ሤ	-14.346
ፁ	-14.3461
ዑ	-14.3462
ዉ	-14.3463
ኀ	-14.3464
ዌ	-14.3465
ጴ	-14.3466
ጤ	-14.3467
ጩ	-14.3468
ኣ	-14.3469
ዐ	-14.347
ኰ	-14.3471
ጳ	-14.3472
ቋ	-14.3473
ኙ	-14.3474
ቺ	-14.3475
ኒ	-14.3476
ሂ	-14.3477
ፃ	-14.3478
ቲ	-14.3479
ቄ	-14.348
ሾ	-14.3481
ሹ	-14.3482
ጓ	-14.3483
ጄ	-14.3484
ጮ	-14.3485
ጹ	-14.3486
ፀ	-14.3487
ኬ	-14.3488
ዞ	-14.3489
ኘ	-14.349
ጐ	-14.3491
ሀ	-14.3492
ኦ	-14.3493
ጂ	-14.3494
ጫ	-14.3495
ኵ	-14.3496
ዖ	-14.3497
ኸ	-14.3498
ኅ	-14.3499
ኳ	-14.35
ጕ	-14.3501
ጦ	-14.3502
ፅ	-14.3503
ቂ	-14.3504
ፎ	-14.3505
ቼ	-14.3506
ጁ	-14.3507
ሦ	-14.3508
ቈ	-14.3509
ጃ	-14.351
ኮ	-14.3511
ዴ	-14.3512
ኞ	-14.3513
ጭ	-14.3514
ቦ	-14.3515
ኩ	-14.3516
ቍ	-14.3517
ጻ	-14.3518
ኪ	-14.3519
ጎ	-14.352
ዩ	-14.3521
ጨ	-14.3522
ሻ	-14.3523
ሡ	-14.3524
ሜ	-14.3525
ጢ	-14.3526
ሶ	-14.3527
ጸ	-14.3528
ሣ	-14.3529
ጀ	-14.353
ፉ	-14.3531
ቴ	-14.3532
ሸ	-14.3533
ሐ	-14.3534
ዶ	-14.3535
ሊ	-14.3536
ሃ	-14.3537
ቁ	-14.3538
ዙ	-14.3539
ሬ	-14.354
ጌ	-14.3541
ኋ	-14.3542
ቹ	-14.3543
ጽ	-14.3544
ኃ	-14.3545
ዮ	-14.3546
ጡ	-14.3547
ሽ	-14.3548
ቆ	-14.3549
ዊ	-14.355
ቻ	-14.3551
ዕ	-14.3552
ቡ	-14.3553
ዜ	-14.3554
ሪ	-14.3555
ሠ	-14.3556
ፊ	-14.3557
ኖ	-14.3558
ኢ	-14.3559
ሴ	-14.356
ጊ	-14.3561
ሮ	-14.3562
ሙ	-14.3563
ሎ	-14.3564
ሌ	-14.3565
ዎ	-14.3566
ኝ	-14.3567
ዛ	-14.3568
ጉ	-14.3569
ቤ	-14.357
ዓ	-14.3571
ዝ	-14.3572
ኤ	-14.3573
ሕ	-14.3574
ሞ	-14.3575
ቶ	-14.3576
ሥ	-14.3577
ጋ	-14.3578
ሩ	-14.3579
ፈ	-14.358
ሚ	-14.3581
ክ	-14.3582
ቅ	-14.3583
ሔ	-14.3584
ዳ	-14.3585
ዘ	-14.3586
ቀ	-14.3587
ታ	-14.3588
ወ	-14.3589
u	-14.359
@	-14.359
b	-14.359
m	-14.359
ነ	-14.359
