<pad>	0
</s>	0
<unk>	0
▁¦	-0
▁።	-1
▁፥	-2
▁፤	-3
እን	-4
ንም	-5
ቸው	-6
አብ	-7
እግ	-8
ሔር	-9
እግዚ	-10
እግዚአብ	-11
እግዚአብሔር	-12
ንድ	-13
ወደ	-14
ሁሉ	-15
ነበ	-16
ርሱ	-17
ችሁ	-18
እንደ	-19
ነው	-20
አለ	-21
የሚ	-22
እስ	-23
ነገ	-24
አን	-25
ላይ	-26
ዘንድ	-27
እነ	-28
ለሁ	-29
እርሱ	-30
እንዲ	-31
ስለ	-32
ኤል	-33
ግን	-34
አል	-35
ውን	-36
ድር	-37
▁?	-38
ትን	-39
እኔ	-40
ትም	-41
መን	-42
ዎች	-43
ሰው	-44
ጊዜ	-45
የተ	-46
ልጆ	-47
አም	-48
ዚህ	-49
አይ	-50
ነገር	-51
እስራ	-52
ውም	-53
እስራኤል	-54
ምን	-55
ንጉ	-56
ልጆች	-57
ጋር	-58
መል	-59
ልጅ	-60
ይህ	-61
እና	-62
ነበር	-63
ዚያ	-64
ሕዝ	-65
በት	-66
ምድር	-67
ርስ	-68
ከተ	-69
አንተ	-70
ደረ	-71
ሪያ	-72
አት	-73
ነበረ	-74
ያስ	-75
ችን	-76
እንዲህ	-77
ለም	-78
አምላ	-79
ፊት	-80
ላቸው	-81
ሰማ	-82
እንዳ	-83
ደር	-84
ለው	-85
ያን	-86
ኢየ	-87
ስም	-88
መጣ	-89
ሆነ	-90
ዋል	-91
ድረ	-92
ሆን	-93
ንተ	-94
ቤት	-95
ላችሁ	-96
እርሱም	-97
ለት	-98
ወይ	-99
ጌታ	-100
ቃል	-101
ንና	-102
እነርሱ	-103
እናንተ	-104
በአ	-105
ላል	-106
በመ	-107
እጅ	-108
ተኛ	-109
ናገ	-110
ቀን	-111
ደግ	-112
ድን	-113
መለ	-114
አስ	-115
ሥራ	-116
ነት	-117
ሠራ	-118
እግዚአብሔርም	-119
ቸውም	-120
ሆይ	-121
ለህ	-122
ደግሞ	-123
ቶች	-124
ስጥ	-125
ቱም	-126
ይሁ	-127
ስት	-128
አባ	-129
በዚያ	-130
ሰዎች	-131
እነሆ	-132
ወጣ	-133
ብር	-134
በእ	-135
ወር	-136
ህን	-137
ሆና	-138
ለች	-139
አንድ	-140
የም	-141
አለው	-142
ንጉሥ	-143
የእግዚአብሔር	-144
ብሎ	-145
ገባ	-146
ነበሩ	-147
ልና	-148
ንጉሡ	-149
አምላክ	-150
ድረስ	-151
ወንድ	-152
በሰ	-153
ህም	-154
ቸውን	-155
ዳዊ	-156
ተቀ	-157
ቱን	-158
ካከ	-159
ኃጢ	-160
ዓመ	-161
እስከ	-162
ፍራ	-163
አገ	-164
ውስጥ	-165
ዳን	-166
ግብ	-167
ያለ	-168
ያው	-169
ኋላ	-170
ይወ	-171
አድር	-172
ችኋ	-173
ይላል	-174
ሳሌ	-175
ናቸው	-176
ተው	-177
በል	-178
ደስ	-179
ርም	-180
ሕዝቡ	-181
ኢየሱ	-182
መንገ	-183
የእስራኤል	-184
ምም	-185
ነሣ	-186
ባት	-187
መጡ	-188
ሉት	-189
ባሪያ	-190
በእግዚአብሔር	-191
ድም	-192
በታ	-193
ከተማ	-194
ውያን	-195
በኋላ	-196
ሕዝብ	-197
ይሆና	-198
ቀር	-199
ልም	-200
ትና	-201
ፈር	-202
ስለዚህ	-203
መካከ	-204
አሳ	-205
አላ	-206
ብዙ	-207
በር	-208
ወገ	-209
የሚያ	-210
ምና	-211
ነፍ	-212
በተ	-213
ችም	-214
ሙሴ	-215
ይሁዳ	-216
ደረገ	-217
የአ	-218
ልን	-219
ልብ	-220
ካህ	-221
የማ	-222
እነርሱም	-223
መስ	-224
ስን	-225
ኢየሩ	-226
ውንም	-227
ኢየሩሳሌ	-228
መካከል	-229
ከፍ	-230
እነዚህ	-231
ወይም	-232
ዛብ	-233
መጥ	-234
ማን	-235
ይህን	-236
በላ	-237
ሕዛብ	-238
በረ	-239
ሁለት	-240
ሰጠ	-241
አው	-242
ዓመት	-243
በም	-244
ሁለ	-245
መልካ	-246
ቤቱ	-247
ኢዮ	-248
ክፉ	-249
ቹም	-250
ወን	-251
ቻቸው	-252
ራት	-253
ዓይ	-254
ጠፋ	-255
ለመ	-256
ዋዕ	-257
ስፍራ	-258
በደ	-259
እንዲሁ	-260
በው	-261
እንግ	-262
እኔም	-263
እርስ	-264
ሥዋዕ	-265
አታ	-266
ተናገ	-267
ረው	-268
አሁ	-269
ፍር	-270
መሥዋዕ	-271
ታላ	-272
አይደ	-273
ገለ	-274
ይል	-275
ንን	-276
አቸው	-277
ክርስ	-278
ቢያ	-279
ይሆናል	-280
ኞች	-281
ርያ	-282
ጠብ	-283
ማል	-284
ዋም	-285
መቶ	-286
እኛ	-287
ርባ	-288
ዘላ	-289
እግዚአብሔርን	-290
ናት	-291
ገና	-292
አላቸው	-293
ሞች	-294
ሆኑ	-295
ለማ	-296
በሚ	-297
ራራ	-298
ዲህ	-299
ባል	-300
ታል	-301
ወለ	-302
የመ	-303
እንጂ	-304
ዘላለም	-305
መንገድ	-306
ገብ	-307
አለቆ	-308
ዋለሁ	-309
ሮች	-310
ቀረ	-311
ለን	-312
ይሰ	-313
ያል	-314
መንፈ	-315
ግሥ	-316
ድቅ	-317
ሰማይ	-318
ያደር	-319
ታው	-320
ክርስቶ	-321
ሳት	-322
ኢየሱስ	-323
ኢየሩሳሌም	-324
መሰ	-325
ብን	-326
እጅግ	-327
ባቸው	-328
በዚህ	-329
በምድር	-330
ጠላ	-331
በዚያም	-332
ሥጋ	-333
ሩት	-334
መጠ	-335
የሰ	-336
ለእግዚአብሔር	-337
ተኛው	-338
አሕዛብ	-339
ለሚ	-340
ጠራ	-341
ባለ	-342
ሠራዊ	-343
ቅር	-344
ሕይወ	-345
ሆነው	-346
መሥዋዕት	-347
ነኝ	-348
ውኃ	-349
ጀራ	-350
ሌላ	-351
ምስ	-352
እው	-353
ቅዱ	-354
በማ	-355
ቸዋል	-356
የእግዚአብሔርን	-357
መልካም	-358
በእስራኤል	-359
ብም	-360
ስድ	-361
በግ	-362
ሥር	-363
እንደሚ	-364
ዋን	-365
ፍሬ	-366
ብት	-367
ታቸው	-368
ዴት	-369
ቀድ	-370
ኃጢአት	-371
ተነ	-372
አልና	-373
ለምን	-374
ዳዊት	-375
ሩም	-376
አቤቱ	-377
የምት	-378
ክርስቶስ	-379
በፊ	-380
ጀም	-381
ታችሁ	-382
ብላ	-383
ነውና	-384
ኑም	-385
ቶቻ	-386
እንግዲህ	-387
ሺህ	-388
በጎ	-389
አምላካ	-390
ከራ	-391
ኢያ	-392
ሃለሁ	-393
መረ	-394
ወሰ	-395
ገደ	-396
ፈል	-397
በራ	-398
በየ	-399
ከአ	-400
ዘመን	-401
ፈረ	-402
ከዚያ	-403
ክር	-404
ኃጢአ	-405
አገር	-406
ከእርሱ	-407
አለቃ	-408
ቅም	-409
ወጡ	-410
ሄደ	-411
ቃጠ	-412
ተሰ	-413
ዛሬ	-414
አንዱ	-415
በሉ	-416
እንዳይ	-417
ያም	-418
አጠ	-419
ክት	-420
ወጥ	-421
ንጉሡም	-422
መንግሥ	-423
ታት	-424
ወዳ	-425
ችኋለሁ	-426
ፈራ	-427
ባሕ	-428
በዳ	-429
ቱንም	-430
አለቆች	-431
እንዲህም	-432
ከሚ	-433
እንድ	-434
ድንጋ	-435
በስ	-436
ያዕ	-437
ወለደ	-438
አደረገ	-439
ቹን	-440
ያዕቆ	-441
መና	-442
ወስ	-443
ሦስት	-444
ዶች	-445
ይሁን	-446
እዛ	-447
አሉ	-448
ከን	-449
ሃል	-450
ላም	-451
ሠዊ	-452
ይፍ	-453
ኖች	-454
ራቸው	-455
መቅ	-456
ታላቅ	-457
መንፈስ	-458
ችሁም	-459
መር	-460
ለዘላለም	-461
ምር	-462
ሳይ	-463
ዳዊትም	-464
ሳኦ	-465
ወገን	-466
ሱን	-467
ሞት	-468
በቀ	-469
ሴቶች	-470
ፍል	-471
ክብር	-472
ሰጣ	-473
አዘ	-474
ምድ	-475
ሄዱ	-476
ችሁን	-477
ጀምሮ	-478
መው	-479
አደረ	-480
ኖር	-481
ህንም	-482
ሰጥ	-483
ትእዛ	-484
ኛው	-485
ሎች	-486
ሠራዊት	-487
ውያ	-488
እንጀራ	-489
ቀደ	-490
እስኪ	-491
ከብ	-492
ፈጽ	-493
ቍርባ	-494
ልኝ	-495
ኛል	-496
ድንኳ	-497
ዕቃ	-498
ድምፅ	-499
ሰባት	-500
ወንድሞ	-501
አሁን	-502
ቅን	-503
ከት	-504
ተመለ	-505
ታደር	-506
ታን	-507
ገዛ	-508
ዘው	-509
ማንም	-510
ልፍ	-511
ይቀ	-512
በዙ	-513
ግብፅ	-514
አደ	-515
ያሉ	-516
በእርሱ	-517
ቍጣ	-518
ወረ	-519
ወርቅ	-520
ነበርና	-521
ሴት	-522
ብቻ	-523
ኖሩ	-524
ክንድ	-525
ረት	-526
ቃሉ	-527
ሕይወት	-528
ሕግ	-529
ስሙ	-530
ዳር	-531
ከመ	-532
ወድ	-533
ተራራ	-534
ራስ	-535
ፈሩ	-536
ዓት	-537
ችኋል	-538
አይሁ	-539
የለም	-540
እር	-541
እነሆም	-542
ቹንም	-543
ኩል	-544
ዘር	-545
አሥራ	-546
ሆኖ	-547
ደም	-548
ይልቅ	-549
ልጁ	-550
አጠገብ	-551
ሳን	-552
ፋት	-553
ክን	-554
ይም	-555
ነገሥ	-556
ሄድ	-557
ብል	-558
ናል	-559
አንተም	-560
ብለው	-561
አሁንም	-562
ከማ	-563
ጥር	-564
ቸዋለሁ	-565
ራል	-566
እንዴት	-567
ከተሞች	-568
ያንዳን	-569
መታ	-570
ሀያ	-571
አምስት	-572
በዛ	-573
እየ	-574
ጥበ	-575
ተነሥ	-576
ከእኔ	-577
አያ	-578
አየ	-579
ሌሊ	-580
በታች	-581
አንቺ	-582
ሕዝቡም	-583
ችው	-584
ወይን	-585
ኢየሱስም	-586
በለ	-587
ሞተ	-588
ሩን	-589
አባት	-590
ከዚህ	-591
አሉት	-592
ረገ	-593
ባሕር	-594
ፋን	-595
ጽድቅ	-596
በኩል	-597
አደር	-598
ተመል	-599
ያለውን	-600
አይደለም	-601
ሰባ	-602
ቢሎ	-603
ባይ	-604
ነግ	-605
ገድ	-606
የተነሣ	-607
ናገር	-608
አሳል	-609
ሱም	-610
የቀ	-611
ደው	-612
ሎሞ	-613
ገቡ	-614
እያንዳን	-615
ኝም	-616
ባቢሎ	-617
የሆነ	-618
መዛ	-619
ስፋ	-620
ገረ	-621
ሳቸው	-622
በአንድ	-623
አክ	-624
ምንም	-625
ችንም	-626
የሰው	-627
ውያንም	-628
ደግሞም	-629
ሌዋ	-630
ተዋል	-631
ህል	-632
ሙር	-633
ስጥኤ	-634
የነበረ	-635
የነበሩ	-636
ከእስራኤል	-637
ቢሆን	-638
ፍርድ	-639
ንስ	-640
ከእናንተ	-641
ያዘ	-642
ሮን	-643
ሰም	-644
በዓ	-645
የእ	-646
ጥን	-647
ደቀ	-648
ነገድ	-649
ከእግዚአብሔር	-650
ንቀ	-651
ባሪያዎች	-652
በቅ	-653
ፈርዖ	-654
ከተማይ	-655
አራ	-656
ግባ	-657
ካህና	-658
ግብጽ	-659
ጣል	-660
ቍርባን	-661
ቤተ	-662
ከአንተ	-663
ጠር	-664
ሰብ	-665
ሉም	-666
ታም	-667
ተኞች	-668
ተዋ	-669
ማግ	-670
በፊት	-671
ይሆን	-672
ስማ	-673
ዘን	-674
ለእስራኤል	-675
ከዚያም	-676
ከሰ	-677
ውል	-678
አፍ	-679
በይሁዳ	-680
ተኛውም	-681
ከእርሱም	-682
ሄዳ	-683
በዘ	-684
ይጠ	-685
ስጥኤማ	-686
እርስዋም	-687
መድ	-688
ፎች	-689
ያለው	-690
ሦስ	-691
ይለ	-692
የእስራኤልም	-693
ሁት	-694
▁!	-695
አለሁ	-696
ሙሴም	-697
ርሃ	-698
ያት	-699
ዱም	-700
በፍ	-701
ተማ	-702
ሽማግ	-703
እም	-704
ገል	-705
ሠዊያ	-706
ርዳ	-707
ሴፍ	-708
ከለ	-709
ይመጣ	-710
ነገሥታት	-711
ዮሴፍ	-712
በዚያን	-713
የእግዚአብሔርም	-714
ነቢያ	-715
ትእዛዝ	-716
ቶቻቸው	-717
ገኘ	-718
ሶች	-719
ቀድሞ	-720
አብርሃ	-721
ልቅ	-722
ስላ	-723
አራት	-724
እውነት	-725
ሚስ	-726
ረብ	-727
ነፋ	-728
ጥቂ	-729
ነፍስ	-730
ቅዱስ	-731
በእው	-732
እንስ	-733
ዋለህ	-734
በሬ	-735
ያላ	-736
ድንጋይ	-737
በእኔ	-738
አድርገ	-739
ነህ	-740
ጠው	-741
ባለው	-742
ከእነርሱ	-743
ነቢ	-744
መዛሙር	-745
ሙሴን	-746
በትን	-747
ሽማግሌ	-748
ሰሎሞ	-749
ላከ	-750
የታ	-751
ጸና	-752
ነገሠ	-753
ቴን	-754
በኢየሩሳሌም	-755
በሩ	-756
ጀመ	-757
ጽሐ	-758
በትም	-759
አድርጎ	-760
አውራ	-761
ወይስ	-762
የሠራዊት	-763
ሁም	-764
ሜን	-765
ባር	-766
ታስ	-767
እላ	-768
ተቀም	-769
ቶአል	-770
እጁ	-771
የማይ	-772
አምላክህ	-773
ምሕ	-774
ርን	-775
ዛት	-776
ንድር	-777
ሽም	-778
ሰውም	-779
እንድት	-780
ልህ	-781
ሽን	-782
ፈው	-783
ተና	-784
በመካከ	-785
ኑን	-786
ከም	-787
ራለሁ	-788
ኪዳን	-789
ሂድ	-790
ውሎ	-791
ከንቱ	-792
እርስዋ	-793
ላለ	-794
ላት	-795
ይህም	-796
ደረግ	-797
ከፈ	-798
ዕጣ	-799
ባቢሎን	-800
ድንኳን	-801
ፍልስጥኤማ	-802
ሳል	-803
ብርሃ	-804
ዘረ	-805
ሳችሁ	-806
ልት	-807
ተጠ	-808
ዝም	-809
ደነ	-810
ጆች	-811
ተስፋ	-812
ጀመሪያ	-813
መልሶ	-814
ብላቴ	-815
ምንድር	-816
ቦት	-817
ችንን	-818
ላሳ	-819
ሠሩ	-820
በሰማ	-821
ነፍሴ	-822
ልብስ	-823
የአባ	-824
ያስም	-825
ላሉ	-826
ብዓ	-827
ሰሙ	-828
ከነ	-829
ጆሮ	-830
ዓይን	-831
ሞዓ	-832
ዋጋ	-833
ዘጋ	-834
ገር	-835
ዳቸው	-836
ጌታዬ	-837
ምል	-838
የለ	-839
መለሰ	-840
አደረጉ	-841
ሰድ	-842
ፈጸ	-843
በቀር	-844
ስድስት	-845
ይስ	-846
ሌሊት	-847
ትንም	-848
በእውነት	-849
ልባ	-850
ወዲ	-851
ጊዜም	-852
በዙሪያ	-853
ያዕቆብ	-854
እናንተም	-855
በድ	-856
ኖስ	-857
ሮስ	-858
ቅል	-859
ዊው	-860
ፈቃ	-861
ኃይል	-862
ገን	-863
ሰይፍ	-864
የይሁዳ	-865
አድ	-866
ራችሁ	-867
እንጨ	-868
ላቸውም	-869
ነጋ	-870
ባረ	-871
ናን	-872
አር	-873
ሕዝቤ	-874
ስለዚህም	-875
ንጹ	-876
ይታ	-877
ጥሩ	-878
ዋልና	-879
ደሪያ	-880
ጽሐፍ	-881
ያደርጋ	-882
ቀው	-883
ዳል	-884
መሠዊያ	-885
ርስት	-886
አለኝ	-887
አማል	-888
መንግሥት	-889
ወንድሞች	-890
ዩም	-891
ሆንሁ	-892
እሳት	-893
ዋንም	-894
ዓለም	-895
ካህናት	-896
አሮ	-897
ሰላም	-898
ዮርዳ	-899
ተናገረ	-900
አይሁድ	-901
ሌለ	-902
ማስ	-903
ሳለ	-904
ጠብቅ	-905
ለቆ	-906
ሞላ	-907
ሲል	-908
ቢት	-909
ብኝ	-910
ዎቹ	-911
ሠላሳ	-912
ባልን	-913
ከእነርሱም	-914
ታና	-915
ጠጅ	-916
በውኑ	-917
ሳሉ	-918
አሰ	-919
እያ	-920
ድጓ	-921
መለከ	-922
መከራ	-923
ሚስት	-924
ቀመጡ	-925
እንኳ	-926
ጠብቁ	-927
ቻቸውም	-928
ተራ	-929
ሕያው	-930
አምሳ	-931
ሊያ	-932
ኤፍሬ	-933
ሐሰ	-934
ድማ	-935
ጣሉ	-936
ለውን	-937
ተቀመጠ	-938
የሚያስ	-939
ራም	-940
ናችሁ	-941
ሁል	-942
ዛፍ	-943
ገኝ	-944
አልተ	-945
ጨለማ	-946
ሕዝቡን	-947
በእናንተ	-948
ሕፃ	-949
ረድ	-950
ቴም	-951
ጕል	-952
ሰጠው	-953
ይገባ	-954
የሆነው	-955
የእስራኤልን	-956
ዘይ	-957
አንበ	-958
ዳርቻ	-959
የምድር	-960
ግም	-961
ፀሐ	-962
ወንዶች	-963
ፈን	-964
የወይን	-965
ተም	-966
ዮን	-967
ጠጣ	-968
በላይ	-969
ቤቶች	-970
ታውቃ	-971
አገል	-972
ተኞ	-973
ራሉ	-974
በኵ	-975
የና	-976
ዶም	-977
ፈጥ	-978
እንዲያ	-979
መዝ	-980
ቁም	-981
ሁለቱ	-982
በአንተ	-983
የሚቃጠ	-984
በሕይወት	-985
ልጄ	-986
ይዞ	-987
ጥም	-988
ጨረ	-989
ሁሉም	-990
እንዲሁም	-991
ሽማግሌዎች	-992
ኢየሩሳሌምም	-993
ሙን	-994
ራብ	-995
ሻል	-996
ወቅ	-997
ጥቂት	-998
ላቅ	-999
ቈጠ	-1000
አካ	-1001
አመጣ	-1002
አንዲ	-1003
ዎቹም	-1004
ማት	-1005
ተን	-1006
ዘመ	-1007
ደን	-1008
ጉባ	-1009
ሳኦልም	-1010
መነ	-1011
ሰን	-1012
ጻፈ	-1013
ምርኮ	-1014
አንዳ	-1015
አምላኬ	-1016
ርኩ	-1017
ሸለቆ	-1018
በጎች	-1019
ትውል	-1020
እርሻ	-1021
መጽሐፍ	-1022
በእሳት	-1023
እንዳዘ	-1024
ኃይ	-1025
መለስ	-1026
ታችን	-1027
ኋቸው	-1028
ይሆናሉ	-1029
አምላካችን	-1030
ሙት	-1031
ደኅ	-1032
ጣት	-1033
ጽና	-1034
ምድሪ	-1035
ወዴት	-1036
ጋለሁ	-1037
ብላቴና	-1038
እንዲሆን	-1039
ማኅ	-1040
ሰደ	-1041
ቤል	-1042
ጡት	-1043
ትንና	-1044
ኸው	-1045
ከነዓ	-1046
ኮረብ	-1047
ይወድ	-1048
ጉባኤ	-1049
ጥበብ	-1050
እንዳት	-1051
ወንድም	-1052
ባሉ	-1053
አኖ	-1054
ቀመጥ	-1055
ጳውሎ	-1056
በምድረ	-1057
በሰይፍ	-1058
ተህ	-1059
ዕድ	-1060
ዮሐ	-1061
ካህኑም	-1062
ይህንም	-1063
ክህ	-1064
ዬን	-1065
አወጣ	-1066
ሸክ	-1067
ቶቹ	-1068
ዮና	-1069
ለአንተ	-1070
አባቶቻ	-1071
ሌዋውያን	-1072
ርኵ	-1073
ጴጥ	-1074
ፈለ	-1075
ምድረ	-1076
ተነሣ	-1077
ናገሩ	-1078
ካህኑ	-1079
ተቀመጡ	-1080
ለብ	-1081
ሴሎ	-1082
መልስ	-1083
አድርግ	-1084
ራሱ	-1085
ዝና	-1086
ይሸ	-1087
በፊቱ	-1088
ደስታ	-1089
እክ	-1090
ጋና	-1091
መጥቶ	-1092
ጻድቅ	-1093
አሳልፎ	-1094
አማልክት	-1095
ያዕቆብም	-1096
ማለ	-1097
ያሳ	-1098
ጽኑ	-1099
ብርሃን	-1100
ተናገረው	-1101
ጥላ	-1102
ሙኤል	-1103
ፋንታ	-1104
ከሰማይ	-1105
ዮች	-1106
ጠባ	-1107
ሰውን	-1108
አሥር	-1109
ከምድር	-1110
ሠር	-1111
ዓዛ	-1112
ይኖ	-1113
ሳለሁ	-1114
ኛልና	-1115
የተቀደ	-1116
ትር	-1117
ደሱ	-1118
ገኙ	-1119
ሃልና	-1120
ሰልፍ	-1121
ሳኦል	-1122
አርባ	-1123
ጕድጓ	-1124
ተናገር	-1125
ቸር	-1126
ትሆና	-1127
ኤርም	-1128
ፈሪያ	-1129
መልአክ	-1130
ታቸውን	-1131
እንዳል	-1132
መጋ	-1133
የል	-1134
የት	-1135
ግል	-1136
ጠቀ	-1137
ገንዘ	-1138
ሎት	-1139
መም	-1140
ቀረበ	-1141
ንጹሕ	-1142
ኃጢአታ	-1143
ነበረች	-1144
ምት	-1145
እባ	-1146
እውነ	-1147
ያደረገ	-1148
ፈርዖን	-1149
አልነበረ	-1150
በእግዚአብሔርም	-1151
አቤ	-1152
አዳ	-1153
ነውን	-1154
አደባ	-1155
እግር	-1156
ወዲህ	-1157
ይወጣ	-1158
ሠዊያው	-1159
ባልንጀራ	-1160
ህና	-1161
ሜዳ	-1162
ረኛ	-1163
አጥ	-1164
ይበ	-1165
ጣን	-1166
ሁሉን	-1167
ምሳሌ	-1168
ዘረጋ	-1169
ከሙ	-1170
ፈስ	-1171
ደርግ	-1172
ያደርጉ	-1173
ቡም	-1174
ካል	-1175
ዘም	-1176
ቅያስ	-1177
ቻችሁ	-1178
ወራት	-1179
ኢዮአብ	-1180
መቱ	-1181
ረዳ	-1182
ወል	-1183
ሥራቅ	-1184
የጌታ	-1185
ገለዓ	-1186
ሥርዓት	-1187
ሳሙኤል	-1188
ያደርግ	-1189
እስራኤልም	-1190
መግ	-1191
ማረ	-1192
ብራ	-1193
ወግ	-1194
መጠን	-1195
አጠፋ	-1196
ወሰደ	-1197
ይመጣል	-1198
እያንዳንዱ	-1199
በደል	-1200
በጌታ	-1201
ባችሁ	-1202
ከእኛ	-1203
ዙሪያ	-1204
ፈጽሞ	-1205
በፊትህ	-1206
ታቦት	-1207
ወንዝ	-1208
ቀቅ	-1209
ባየ	-1210
ኃኒ	-1211
ድል	-1212
ጊያ	-1213
ፍረ	-1214
ለሁና	-1215
ብለህ	-1216
በሰማይ	-1217
ለበ	-1218
መክ	-1219
ማር	-1220
ብዬ	-1221
ለእኔ	-1222
ምሕረ	-1223
ከአባ	-1224
ነበሩት	-1225
አስቀድሞ	-1226
ልዩ	-1227
ሞታ	-1228
ሸሸ	-1229
ከሩ	-1230
በእር	-1231
ወዲያ	-1232
መስፈሪያ	-1233
በአሕዛብ	-1234
መቃ	-1235
መኑ	-1236
ስና	-1237
ቀኝ	-1238
እይ	-1239
ኸኝ	-1240
ወዮ	-1241
ለህን	-1242
ኃያላ	-1243
ወስዶ	-1244
ያህል	-1245
ፀሐይ	-1246
ቸውንም	-1247
አይደለምን	-1248
እላችኋለሁ	-1249
ህር	-1250
ራሱን	-1251
ያወጣ	-1252
ባሪያህ	-1253
ውጣ	-1254
ውጭ	-1255
ጣዖ	-1256
ብዛት	-1257
አየሁ	-1258
ክፋት	-1259
ጽዮን	-1260
ትንቢት	-1261
በቤ	-1262
እል	-1263
ገሩ	-1264
ጌል	-1265
ናገረ	-1266
በግብፅ	-1267
ቶአልና	-1268
እንጨት	-1269
በእርሱም	-1270
አብርሃም	-1271
ሞን	-1272
ቆመ	-1273
ክብ	-1274
ገው	-1275
ጹም	-1276
አምስ	-1277
እሰጣ	-1278
ይስሐ	-1279
ተለ	-1280
አበ	-1281
ድና	-1282
ጻድ	-1283
አላት	-1284
የሠራ	-1285
ምስክር	-1286
ታቸውም	-1287
እንደዚህ	-1288
ስብ	-1289
ቆም	-1290
ጠኝ	-1291
በእጁ	-1292
ኤፍሬም	-1293
ዳዊትን	-1294
የከ	-1295
መለሱ	-1296
ሞዓብ	-1297
እኔን	-1298
ሁልጊዜ	-1299
መቅደስ	-1300
ለእናንተ	-1301
ነን	-1302
ዓይኖ	-1303
አቸውም	-1304
ዮርዳኖስ	-1305
ቆሙ	-1306
ቶቼ	-1307
ከቶ	-1308
ድሀ	-1309
ጸጋ	-1310
ምክን	-1311
ርኩስ	-1312
በታል	-1313
በእጅ	-1314
አለች	-1315
ወረደ	-1316
ቅዱሳን	-1317
ችኋልና	-1318
ከእ	-1319
ሰቅል	-1320
በመቅ	-1321
በሰው	-1322
በውኃ	-1323
ተከተ	-1324
ደኅን	-1325
ሰሎሞን	-1326
ቻቸውን	-1327
ሃት	-1328
ረክ	-1329
ርና	-1330
የኤ	-1331
ሩንም	-1332
እነዚያ	-1333
ሞራ	-1334
ጠፉ	-1335
ፍት	-1336
ችንና	-1337
ወደሚ	-1338
ወደቀ	-1339
ወጥቶ	-1340
ጥፋት	-1341
ነቢያት	-1342
እርሱን	-1343
ከር	-1344
ጠቢ	-1345
ለችው	-1346
ስምዖ	-1347
ኋችሁ	-1348
ሰጣቸው	-1349
በእርስ	-1350
እነዚህም	-1351
ሰና	-1352
በቃ	-1353
ችል	-1354
ኑት	-1355
ገዙ	-1356
ፍን	-1357
ልጆቹ	-1358
ሰረገ	-1359
ስምን	-1360
ነፋስ	-1361
ውንና	-1362
ያጠፋ	-1363
በታላቅ	-1364
ነበረው	-1365
ሰል	-1366
በኤ	-1367
ናቡ	-1368
ወቀ	-1369
ይቱ	-1370
ራሳ	-1371
ሴቲ	-1372
ብህ	-1373
ኢያሱ	-1374
ክፍል	-1375
የተቀ	-1376
ደረሰ	-1377
ፈቃድ	-1378
ለእርሱ	-1379
በንጉሡ	-1380
እንዳለ	-1381
ከግብፅ	-1382
ከተማይቱ	-1383
ሬት	-1384
ጠን	-1385
መንደ	-1386
መንጋ	-1387
መጋረ	-1388
ሥርዓ	-1389
ባድማ	-1390
እውቀ	-1391
ያስን	-1392
ተቀምጦ	-1393
የወርቅ	-1394
አደርጋለሁ	-1395
ፍልስጥኤማውያን	-1396
ቈረ	-1397
ፈት	-1398
በሰቡ	-1399
ነትም	-1400
ያቀር	-1401
ገለግ	-1402
ሁለተኛ	-1403
አድርጌ	-1404
ምክንያት	-1405
አደባባይ	-1406
አምላካችሁ	-1407
በኢየሩሳሌምም	-1408
ሞቱ	-1409
ረግ	-1410
አህ	-1411
ከፊ	-1412
ፍጥ	-1413
በአባ	-1414
ታለሁ	-1415
ከእንግዲህ	-1416
ቦች	-1417
ዝራ	-1418
ጦር	-1419
ቀረቡ	-1420
ዎችም	-1421
ይናገ	-1422
ይጠፋ	-1423
ፈልጉ	-1424
ምልክት	-1425
ተነሥቶ	-1426
አድርጉ	-1427
እንስሳ	-1428
የንጉሡ	-1429
የነበረውን	-1430
ለኝ	-1431
መካ	-1432
ሰጡ	-1433
ባዩ	-1434
ከበ	-1435
ገላ	-1436
ቍጥር	-1437
ተብሎ	-1438
ትውልድ	-1439
ካህናቱ	-1440
ዎቹንም	-1441
ቃጥ	-1442
በጥ	-1443
ትዕ	-1444
የው	-1445
ዱት	-1446
ለችና	-1447
የዚያ	-1448
መልእክ	-1449
ሰዎችም	-1450
ያደርጋል	-1451
ማም	-1452
ሰይ	-1453
ስጦ	-1454
ቁን	-1455
ቆሞ	-1456
ብረ	-1457
ቅጥር	-1458
ነቢዩ	-1459
አንደ	-1460
እኛም	-1461
የምታ	-1462
ይቅር	-1463
ደመና	-1464
መጥተው	-1465
ለቀ	-1466
መኛ	-1467
ከና	-1468
ጽዋ	-1469
መሰም	-1470
ተናግ	-1471
ቻለሁ	-1472
ነገረ	-1473
ማደሪያ	-1474
ናቸውም	-1475
ወለደች	-1476
ገናኛው	-1477
ነጻ	-1478
ገት	-1479
ሌሎች	-1480
መልክ	-1481
ርያም	-1482
ሽንም	-1483
ዳችሁ	-1484
ተመለሱ	-1485
መሰምርያ	-1486
እስራኤልን	-1487
ሌሎ	-1488
ቁት	-1489
የዘ	-1490
ቃለሁ	-1491
አመጡ	-1492
ጋችሁ	-1493
ታደርጋ	-1494
አንዲት	-1495
ከዚህም	-1496
እነዚህን	-1497
ሪሳ	-1498
ራን	-1499
ባላ	-1500
አግ	-1501
ሁላችሁ	-1502
ወገኖች	-1503
የሆነውን	-1504
ሁህ	-1505
ልክ	-1506
ልኮ	-1507
ክፋ	-1508
ጨን	-1509
መላለ	-1510
ስንኳ	-1511
ወደደ	-1512
ብንያም	-1513
አንበሳ	-1514
በክርስቶስ	-1515
በዝ	-1516
ኖረ	-1517
ጕር	-1518
ርኵሰ	-1519
ሰፈሩ	-1520
በብዙ	-1521
ጭፍራ	-1522
ላቸዋል	-1523
በየወገ	-1524
አንዱም	-1525
አንዳች	-1526
የሚኖሩ	-1527
ሞገ	-1528
አማ	-1529
አዋ	-1530
ያድ	-1531
ይነ	-1532
ዱን	-1533
አልሁ	-1534
አዘጋ	-1535
ዎችን	-1536
ይዘው	-1537
አገልግ	-1538
ሥል	-1539
ሪክ	-1540
ተቈ	-1541
ያዊ	-1542
ግር	-1543
ግድ	-1544
ማለሁ	-1545
በላያ	-1546
በሰባ	-1547
ዕድሜ	-1548
ገለጠ	-1549
ፈረሰ	-1550
ይኖራል	-1551
ጳውሎስ	-1552
በምድርም	-1553
ሂዱ	-1554
አቢ	-1555
እኅ	-1556
ከረ	-1557
ደቡ	-1558
ጠረ	-1559
አችሁ	-1560
ዘይት	-1561
ይህች	-1562
ሁለተኛው	-1563
መት	-1564
ሚዛ	-1565
ቃሌ	-1566
አዛ	-1567
ገኛ	-1568
ጨነ	-1569
ፈሰ	-1570
ኢዮር	-1571
የቀረ	-1572
ይሠራ	-1573
ቸዋለህ	-1574
ከይሁዳ	-1575
ወደዚህ	-1576
አልነበረም	-1577
ሙም	-1578
ሜሌ	-1579
ቀል	-1580
ብለ	-1581
ንገ	-1582
ጋሻ	-1583
ጮኹ	-1584
ለትም	-1585
ቆመው	-1586
ኑንም	-1587
አሳብ	-1588
ዓዛር	-1589
ፍቅር	-1590
ያሉትን	-1591
ኢዮርብዓ	-1592
ማዶ	-1593
ሶር	-1594
ሾች	-1595
ከው	-1596
ኪዳ	-1597
እጁን	-1598
ከደነ	-1599
አንዳን	-1600
ክርስቲ	-1601
በመጀመሪያ	-1602
ልቤ	-1603
ልታ	-1604
መሠ	-1605
ርዝ	-1606
በኣ	-1607
ጠግ	-1608
ፈታ	-1609
በእጃ	-1610
አጥን	-1611
እያሉ	-1612
ናውያን	-1613
በመንገድ	-1614
ማዕ	-1615
ቃን	-1616
ዔሳ	-1617
ፍና	-1618
እናት	-1619
እየተ	-1620
ከተሞ	-1621
ዎቹን	-1622
የሚል	-1623
ፈቀቅ	-1624
መድኃኒ	-1625
በተራራ	-1626
ጠላቶች	-1627
አድርገው	-1628
ሊቀ	-1629
ንጫ	-1630
አጋ	-1631
ውና	-1632
ብርቱ	-1633
ያውቅ	-1634
ፈርድ	-1635
ባቸውን	-1636
መዛሙርቱ	-1637
ኤርምያስ	-1638
መቼ	-1639
ቁር	-1640
አረ	-1641
የኢ	-1642
በመጣ	-1643
በምት	-1644
በገባ	-1645
ካህን	-1646
የሌለ	-1647
ደረጉ	-1648
ድረግ	-1649
ጠርቶ	-1650
አደረግ	-1651
በኢየሱስ	-1652
ከተማይቱም	-1653
ምራ	-1654
ሦር	-1655
ሰላ	-1656
አዲ	-1657
ይሻ	-1658
ደድ	-1659
ቃጠል	-1660
ችልም	-1661
ውሰድ	-1662
ዛቸው	-1663
የሆኑ	-1664
ያሉት	-1665
ገደሉ	-1666
አንተን	-1667
ኢያሱም	-1668
ታውቃላችሁ	-1669
የነበሩትን	-1670
እግዚአብሔርንም	-1671
ሁን	-1672
ህሉ	-1673
ዎን	-1674
ጩኸ	-1675
ፍታ	-1676
ሻለሁ	-1677
በሥጋ	-1678
በትር	-1679
ቴንም	-1680
አዘዘ	-1681
ይመስ	-1682
መለከት	-1683
ምድርም	-1684
ታደርጉ	-1685
አለችው	-1686
አቸዋል	-1687
ዮሴፍም	-1688
ጕድጓድ	-1689
በእነርሱ	-1690
ሸሽ	-1691
አዝ	-1692
የሌ	-1693
ያዩ	-1694
ይዘ	-1695
ጠል	-1696
ያውቁ	-1697
ይሄዳ	-1698
ላቸውን	-1699
በአሥራ	-1700
ዓይኖች	-1701
ገለዓድ	-1702
በመሠዊያው	-1703
መላ	-1704
ትላ	-1705
አኪ	-1706
ደዌ	-1707
ጠቦ	-1708
ጸል	-1709
ቀንም	-1710
በፊቴ	-1711
አገኘ	-1712
ይበላ	-1713
ዮሐንስ	-1714
ገንዘብ	-1715
ሠዋ	-1716
ቀላ	-1717
ቦታ	-1718
ኪሩ	-1719
ወሬ	-1720
ደብ	-1721
ጻሜ	-1722
ፈሳ	-1723
ፍሩ	-1724
ሁትን	-1725
ሆንም	-1726
ስለሚ	-1727
በሰን	-1728
በእኛ	-1729
አባቱ	-1730
እግሮ	-1731
ካለው	-1732
ድርግ	-1733
ምሕረት	-1734
ምድርን	-1735
ስምንት	-1736
ተመለሰ	-1737
ቡን	-1738
ዳሉ	-1739
ጮኸ	-1740
ሆነች	-1741
በቤት	-1742
ባትም	-1743
አባቴ	-1744
ዓመፀ	-1745
ይወስ	-1746
ገደለ	-1747
ኃያላን	-1748
ኃጢአትን	-1749
የዘላለም	-1750
በአንድነት	-1751
ንያ	-1752
የራ	-1753
ያዝ	-1754
ጠጡ	-1755
ጣፋ	-1756
ጽፎ	-1757
መሰግ	-1758
ምናሴ	-1759
የብር	-1760
ይላሉ	-1761
ጣቸው	-1762
ለንጉሡ	-1763
ምስጋና	-1764
ነገርን	-1765
ሰሎሞንም	-1766
ቀጥ	-1767
በገ	-1768
ዕን	-1769
ያዙ	-1770
ይን	-1771
ደክ	-1772
ጠይ	-1773
በምን	-1774
አቅር	-1775
አንሥ	-1776
በዚህም	-1777
አቤሴሎ	-1778
የሚገባ	-1779
ባን	-1780
ታጠ	-1781
ኖራ	-1782
ዊት	-1783
ሜሌክ	-1784
በምድ	-1785
ትበላ	-1786
ይሰማ	-1787
ጨረሻ	-1788
ፍጻሜ	-1789
ላችሁን	-1790
ወደዚያ	-1791
ሕዝቅያስ	-1792
የአሕዛብ	-1793
ሐዋ	-1794
ስጡ	-1795
ሶን	-1796
ቅድ	-1797
በና	-1798
ብስ	-1799
እጃ	-1800
ዮስ	-1801
ጋት	-1802
ጥል	-1803
መስገ	-1804
አሮን	-1805
ይሁኑ	-1806
በእስራኤልም	-1807
ሊባ	-1808
ሎሌ	-1809
ሙሉ	-1810
ቅና	-1811
ተር	-1812
ተባ	-1813
ነሡ	-1814
ውር	-1815
ምክር	-1816
ሰዓት	-1817
ቀርባ	-1818
በዓል	-1819
በደቡ	-1820
ኛውም	-1821
የሰማ	-1822
ግንብ	-1823
በባሕር	-1824
ብዙዎች	-1825
ማድ	-1826
ርሳ	-1827
ቀበ	-1828
እሳ	-1829
ደባ	-1830
ፊያ	-1831
ፍላ	-1832
መስግ	-1833
ታልና	-1834
ወርድ	-1835
ጀመረ	-1836
ሐዋርያ	-1837
በሕዝቡ	-1838
አንዱን	-1839
ከደነፆ	-1840
ጴጥሮስ	-1841
የእግዚአብሔርንም	-1842
ለየ	-1843
ሌታ	-1844
መራ	-1845
ቀም	-1846
ወቁ	-1847
ደጅ	-1848
ጥፋ	-1849
ሰውነ	-1850
በተቀ	-1851
ነቢይ	-1852
ነኝና	-1853
ነውር	-1854
ጕልማ	-1855
ፈጸመ	-1856
በከንቱ	-1857
አባቶች	-1858
እምነት	-1859
ቶቻቸውም	-1860
አሕዛብም	-1861
ናቡከደነፆ	-1862
ከቀ	-1863
ዓን	-1864
ግራ	-1865
ጮኽ	-1866
ልቅሶ	-1867
በሆነ	-1868
በረታ	-1869
በእም	-1870
እህል	-1871
ከለዳ	-1872
ይነግ	-1873
መስገጃ	-1874
ዳንኤል	-1875
መጻ	-1876
ሸን	-1877
በቁ	-1878
እጄ	-1879
የባ	-1880
ያይ	-1881
ዬም	-1882
ደጃ	-1883
መልኩ	-1884
ማቸው	-1885
ማችሁ	-1886
በስተ	-1887
ታንም	-1888
ቶቹም	-1889
ሁለቱም	-1890
ባቸውም	-1891
ኢየሱስን	-1892
የነበሩት	-1893
ፈርዖንም	-1894
ሕል	-1895
ማሉ	-1896
ተኝ	-1897
ነካ	-1898
ገሥ	-1899
መጣው	-1900
በቤቱ	-1901
በኵር	-1902
ብረት	-1903
ተላለ	-1904
ታላቁ	-1905
ቶችን	-1906
አለቀ	-1907
ወይፈ	-1908
ዕለት	-1909
ጠላት	-1910
ሆናችሁ	-1911
ተናገሩ	-1912
የሰማይ	-1913
በመንፈስ	-1914
ቻቸውንም	-1915
የተቀደሰ	-1916
ሁኑ	-1917
ሕያ	-1918
መሸ	-1919
ሲካ	-1920
ብታ	-1921
ተረ	-1922
ተሻ	-1923
አና	-1924
ወራ	-1925
የዓ	-1926
ጉም	-1927
ሃቸው	-1928
ለሰው	-1929
ሮችም	-1930
ቢኖር	-1931
ተውም	-1932
አብያ	-1933
አገባ	-1934
የተሰ	-1935
ፈጸም	-1936
ለዳዊት	-1937
ሥልጣን	-1938
በላቸው	-1939
ተኞችን	-1940
ታደርግ	-1941
የሚሆን	-1942
ይሁዳም	-1943
መባ	-1944
ሴኬ	-1945
ተደ	-1946
ኬብ	-1947
የጋ	-1948
ጠነ	-1949
ልጁን	-1950
ምስክ	-1951
ቀርቦ	-1952
በሩም	-1953
ዙፋን	-1954
የሰጠ	-1955
ዳለሁ	-1956
ላችኋል	-1957
ልጆቹም	-1958
መጋረጃ	-1959
ርኵሰት	-1960
ስምዖን	-1961
በሌሊት	-1962
በእጅህ	-1963
ሳሙኤልም	-1964
የሚሆነው	-1965
የሚቃጠለውን	-1966
ለቅ	-1967
ሪም	-1968
ስሜ	-1969
ቂያ	-1970
ቈር	-1971
ባም	-1972
ተዉ	-1973
ዘራ	-1974
ይሞ	-1975
ይረ	-1976
በልቡ	-1977
ኢዮሣ	-1978
ከሰው	-1979
ያልፍ	-1980
ፈሪሳ	-1981
ቸርነት	-1982
ናቸውና	-1983
ወዳለው	-1984
ኃጢአተኛ	-1985
ወንዶችና	-1986
ለሽ	-1987
ሴዴ	-1988
ቼን	-1989
እጆ	-1990
ኪያ	-1991
ዘወ	-1992
ጠሩ	-1993
ጠየ	-1994
ጣም	-1995
በሦስ	-1996
ነትን	-1997
እክት	-1998
የምን	-1999
ፋሲካ	-2000
ለሕዝቡ	-2001
ከግብጽ	-2002
ሁለተኛውም	-2003
አባቶቻቸው	-2004
ከእስራኤልም	-2005
ማማ	-2006
ስል	-2007
ሸሹ	-2008
ኤሊ	-2009
ዕረ	-2010
ዝን	-2011
የሐ	-2012
ግጥ	-2013
ቀበል	-2014
በራሱ	-2015
ተአም	-2016
እመል	-2017
የዚህ	-2018
ልብሱን	-2019
በመንገ	-2020
እጅግም	-2021
የዚያን	-2022
ደረገው	-2023
ሊላ	-2024
ቅሬ	-2025
ብና	-2026
ችና	-2027
ውጡ	-2028
ዳሩ	-2029
ዳግ	-2030
ሮስም	-2031
ተጽፎ	-2032
ኤልያ	-2033
ደርስ	-2034
ገለጥ	-2035
ሁለቱን	-2036
መቃብር	-2037
አደርግ	-2038
ወንድሙ	-2039
መጀመሪያ	-2040
ለራ	-2041
ቤቴ	-2042
ተወ	-2043
ነቱ	-2044
ዘዙ	-2045
ያሰ	-2046
ዳና	-2047
ለምና	-2048
ለፊት	-2049
ላችን	-2050
መቅሠ	-2051
መብል	-2052
በዓይ	-2053
እንቢ	-2054
ከሆነ	-2055
ያንም	-2056
ይወር	-2057
ግብፃ	-2058
ጣፋጭ	-2059
ቅርንጫ	-2060
ነፍሴን	-2061
አስቀድ	-2062
ወንጌል	-2063
ኃጢአተኞች	-2064
ላው	-2065
ቀስ	-2066
ቀና	-2067
ከወ	-2068
ካም	-2069
ደዱ	-2070
ዳቤ	-2071
ጠጋ	-2072
ረኞች	-2073
ሰደደ	-2074
ስድሳ	-2075
በግም	-2076
ብንያ	-2077
ታውቁ	-2078
ዓመፃ	-2079
ይበሉ	-2080
ፍየል	-2081
ልጆችም	-2082
መቅደሱ	-2083
ተዋልና	-2084
ተጠንቀ	-2085
አልሰማ	-2086
አሳልፌ	-2087
ያውያን	-2088
ጻድቃን	-2089
በዮርዳኖስ	-2090
ሶም	-2091
ቀለ	-2092
ቡት	-2093
ካር	-2094
ኮር	-2095
የፈ	-2096
ዱቄ	-2097
ፉን	-2098
መስል	-2099
ራእይ	-2100
ቃሉን	-2101
አልጋ	-2102
አያስ	-2103
አግኝ	-2104
ኢያሪ	-2105
ያመጣ	-2106
ያቃጥ	-2107
ሰማያት	-2108
አለሁና	-2109
አባትህ	-2110
አገልጋ	-2111
ከነዓን	-2112
የተሠራ	-2113
የተቈጠ	-2114
ይወጣል	-2115
ዳግመኛ	-2116
ፍርድን	-2117
ካህናቱም	-2118
የሚያደር	-2119
ለኛ	-2120
ሉና	-2121
ሚያ	-2122
ሞል	-2123
ዘዝ	-2124
ያየ	-2125
ገዳ	-2126
ጥቶ	-2127
ጸሎ	-2128
ተነሡ	-2129
ከተል	-2130
ወንዙ	-2131
የምድ	-2132
የበግ	-2133
ይመለ	-2134
ይነሣ	-2135
ይገድ	-2136
ደጃፍ	-2137
ገደል	-2138
ፈልግ	-2139
በሬዎች	-2140
በግብጽ	-2141
በፍጹም	-2142
አምላኩ	-2143
እባክህ	-2144
ውያንን	-2145
የተጻፈ	-2146
መንደሮች	-2147
መብ	-2148
ሲኦ	-2149
በወ	-2150
ተክ	-2151
ተግ	-2152
ይጨ	-2153
ዳም	-2154
ገዱ	-2155
ጉን	-2156
ጮኻ	-2157
ፀን	-2158
ሱንም	-2159
ቃቸው	-2160
ቃችሁ	-2161
አልቻ	-2162
ዕራብ	-2163
ድርጉ	-2164
ገብቶ	-2165
በመከራ	-2166
በአንቺ	-2167
አይገባ	-2168
ሕዝቡንም	-2169
በፊታቸው	-2170
እርሱንም	-2171
የነበረው	-2172
እንዳዘዘው	-2173
ናቡከደነፆር	-2174
መሐ	-2175
ሣር	-2176
ስስ	-2177
ቃወ	-2178
በሱ	-2179
ብሩ	-2180
ናዳ	-2181
እዩ	-2182
ዘሩ	-2183
የጌ	-2184
ጭን	-2185
ስላል	-2186
ስያስ	-2187
ስድስ	-2188
ስጦታ	-2189
አይቶ	-2190
ወሰዱ	-2191
የምና	-2192
የአገ	-2193
ያልተ	-2194
ይሆኑ	-2195
ጀመር	-2196
ጋቸው	-2197
መግቢያ	-2198
ሳቸውም	-2199
ንጉሡን	-2200
ያገለግ	-2201
ይህችን	-2202
ተሰበሰቡ	-2203
ፍልስጥኤማውያንም	-2204
ሆድ	-2205
ሽቱ	-2206
በጠ	-2207
ታሰ	-2208
ኤላ	-2209
ድሆ	-2210
ፉም	-2211
ሆንህ	-2212
ለዚህ	-2213
ሠራው	-2214
ሳለች	-2215
በደረ	-2216
ጠራው	-2217
ላችሁም	-2218
በጽድቅ	-2219
ተራሮች	-2220
አመስግ	-2221
አሮንም	-2222
ያውቃሉ	-2223
ይሁዳን	-2224
ይሰጣል	-2225
ድንበር	-2226
ወንድሞቹ	-2227
ሐፊ	-2228
ሽታ	-2229
ቍጥ	-2230
እኵ	-2231
ከል	-2232
ግደ	-2233
ጥኣ	-2234
ልሃል	-2235
ሐሰት	-2236
ምልክ	-2237
ባረከ	-2238
አለን	-2239
ኤልሳ	-2240
ወደድ	-2241
ዊውም	-2242
ዛሬም	-2243
ጣችሁ	-2244
ጸሐፊ	-2245
ኮረብታ	-2246
በርሳቸው	-2247
በእምነት	-2248
ትሆናለች	-2249
ደኅንነት	-2250
አገልግሎት	-2251
ወንድሞቹም	-2252
የሚያደርግ	-2253
እያንዳንዱም	-2254
ላቆ	-2255
ሔም	-2256
ሳም	-2257
ቋን	-2258
ታወ	-2259
ችግ	-2260
ይች	-2261
ዶን	-2262
ለውም	-2263
ልጁም	-2264
ምናል	-2265
ሰበስ	-2266
ቀርብ	-2267
በሙሴ	-2268
አዲስ	-2269
እያለ	-2270
ጠባቂ	-2271
ጠቦት	-2272
ስፍራው	-2273
በሕይወ	-2274
ታችሁን	-2275
ነገሥታ	-2276
እንድን	-2277
እንግዲ	-2278
የተመረ	-2279
ዮርዳኖ	-2280
አልዓዛር	-2281
ከእርስዋ	-2282
በመካከላቸው	-2283
ኘው	-2284
ለዋል	-2285
ሮንም	-2286
ስምህ	-2287
በረከ	-2288
ተከት	-2289
አታው	-2290
ወለዱ	-2291
ጠጕር	-2292
ፋቸው	-2293
ሌዋውያ	-2294
ተቀመጥ	-2295
የዳዊት	-2296
አይሆንም	-2297
መሰምርያዋን	-2298
ማው	-2299
ሰኝ	-2300
አሸ	-2301
ከዋ	-2302
ዮዳ	-2303
ፍየ	-2304
መክሊ	-2305
በለው	-2306
ተባት	-2307
ቱንና	-2308
ቶችም	-2309
ናትና	-2310
ከክፉ	-2311
በረከት	-2312
ታላላቆ	-2313
እላለሁ	-2314
ከሕዝቡ	-2315
ፍርሃት	-2316
ምናልባት	-2317
መዛሙርቱም	-2318
ለተ	-2319
በሐ	-2320
አሥ	-2321
ውሰ	-2322
ዕራ	-2323
ዞች	-2324
የነ	-2325
ዱር	-2326
ድስ	-2327
ግፍ	-2328
ሉትን	-2329
ቃሌን	-2330
በልብ	-2331
በሜዳ	-2332
በአራ	-2333
አሜን	-2334
እሄዳ	-2335
ከንፈ	-2336
ዘጋጀ	-2337
ይጠብ	-2338
ራቸውም	-2339
ኢያሪኮ	-2340
የሚችል	-2341
የታመነ	-2342
የአንድ	-2343
የከበረ	-2344
የተናገረ	-2345
በእርስዋም	-2346
መዓ	-2347
ማታ	-2348
ቂጣ	-2349
ባው	-2350
ታያ	-2351
ቸነ	-2352
ከታ	-2353
ከኤ	-2354
ይር	-2355
ደደ	-2356
ጻፍ	-2357
ጽድ	-2358
ሶርያ	-2359
ቅሬታ	-2360
በለዓ	-2361
በኞች	-2362
በኢዮ	-2363
ቤቱም	-2364
ተለይ	-2365
ንቀሳ	-2366
ኖሩት	-2367
ኞችም	-2368
አነሣ	-2369
እሆና	-2370
ይበል	-2371
ይቱም	-2372
ፈልጋ	-2373
መጨረሻ	-2374
ማኅበር	-2375
በሕዝብ	-2376
ቶቻችሁ	-2377
ነገረው	-2378
አስተዋ	-2379
አቸውን	-2380
እለምን	-2381
ጠላቶቼ	-2382
ፈረሶች	-2383
አውቃለሁ	-2384
እውነተኛ	-2385
ጴጥሮስም	-2386
አብርሃምም	-2387
ለእግዚአብሔርም	-2388
ለጥ	-2389
ሌም	-2390
ረጥ	-2391
ስእ	-2392
በከ	-2393
ናም	-2394
ኖኅ	-2395
ዋር	-2396
ይመ	-2397
ዴን	-2398
ለታል	-2399
ቅዱሳ	-2400
በሉት	-2401
ነገሩ	-2402
አትክ	-2403
አውሬ	-2404
እናው	-2405
ወስደ	-2406
ወፎች	-2407
ዎችና	-2408
ዝግባ	-2409
ያመጡ	-2410
ይመል	-2411
ሰላምታ	-2412
በዳዊት	-2413
ነበረና	-2414
ያስተም	-2415
ይለዋል	-2416
ተነሥተው	-2417
እሰጣለሁ	-2418
በመገናኛው	-2419
ባሪያዎችህ	-2420
ተናገራቸው	-2421
ያደረገውን	-2422
መሳ	-2423
ማይ	-2424
ምላ	-2425
ሬን	-2426
በቱ	-2427
ወፍ	-2428
ያር	-2429
ጨው	-2430
ሞትም	-2431
በሌላ	-2432
በቅን	-2433
ታናሽ	-2434
ችውን	-2435
አካዝ	-2436
አድም	-2437
ኢያቡ	-2438
እድል	-2439
ኸውን	-2440
ወጡት	-2441
ዓመፅ	-2442
ዘርግ	-2443
የምስ	-2444
የኢዮ	-2445
ፈንታ	-2446
ሰማርያ	-2447
ሰዎችን	-2448
ቀርበው	-2449
ብላችሁ	-2450
ናገረው	-2451
አራዊት	-2452
አስነሣ	-2453
እንግዳ	-2454
ወስደው	-2455
በእርስዋ	-2456
የኢየሱስ	-2457
የይሁዳም	-2458
ኢዮርብዓም	-2459
ለካ	-2460
ቃም	-2461
ነድ	-2462
ኖሮ	-2463
ኬጢ	-2464
ዓብ	-2465
የሮ	-2466
ዶክ	-2467
ጠቅ	-2468
ላለሁ	-2469
ሐናን	-2470
ምንና	-2471
ምንጭ	-2472
ሰማሁ	-2473
ሰፈር	-2474
በሰሙ	-2475
በቍጣ	-2476
አመሰ	-2477
አበዛ	-2478
እምሮ	-2479
ዔሳው	-2480
ዘወር	-2481
ያለቅ	-2482
ይቀመጣ	-2483
የባቢሎን	-2484
የተቀመጡ	-2485
ያዕቆብን	-2486
ክርስቲያን	-2487
ልቡ	-2488
መሎ	-2489
ትቀ	-2490
ቼም	-2491
ናጸ	-2492
ዓሣ	-2493
ጃን	-2494
ጎች	-2495
ጠሉ	-2496
ጫን	-2497
ለልጅ	-2498
ልጅም	-2499
ሰበሰ	-2500
ቋንቋ	-2501
ተጻፈ	-2502
ኛለህ	-2503
አንጻ	-2504
ከሁሉ	-2505
ወደቁ	-2506
ዘጠኝ	-2507
ደርሶ	-2508
ጠቢብ	-2509
ጽናና	-2510
ሁሉንም	-2511
ሊባኖስ	-2512
በጨለማ	-2513
ትምህር	-2514
ያደረግ	-2515
ይስሐቅ	-2516
ይችላል	-2517
ዮናታን	-2518
ዶምያስ	-2519
በእርግጥ	-2520
በዙሪያው	-2521
ኢዮአብም	-2522
መሥዋዕትና	-2523
ሐሤ	-2524
መቀ	-2525
ሸማ	-2526
ተዘ	-2527
ኋለ	-2528
ኔን	-2529
ኝን	-2530
እቀ	-2531
እኩ	-2532
ወጠ	-2533
ይፈ	-2534
ግቡ	-2535
ፋል	-2536
ሞገስ	-2537
ሥራው	-2538
ቅርብ	-2539
በሮች	-2540
በወጣ	-2541
ታለች	-2542
ኛውን	-2543
አስብ	-2544
አንገ	-2545
እናቱ	-2546
ከጌታ	-2547
ዐውሎ	-2548
ያለሁ	-2549
ያሳድ	-2550
ዱቄት	-2551
ጠየቀ	-2552
ጸልይ	-2553
ፈቀደ	-2554
ሳይሆን	-2555
ተገለጠ	-2556
እስክት	-2557
ደብዳቤ	-2558
ጠቦቶች	-2559
ታቸውንም	-2560
ኃጢአትም	-2561
አሕዛብን	-2562
እሄዳለሁ	-2563
እንዳዘዘ	-2564
ይወድቃሉ	-2565
በእነርሱም	-2566
የሚሆነውን	-2567
የኢየሩሳሌም	-2568
ላጦ	-2569
ረዱ	-2570
ተስ	-2571
ታይ	-2572
ኰራ	-2573
ዝር	-2574
ደሙ	-2575
ጨም	-2576
ለጌታ	-2577
ልጆቻ	-2578
ሙታን	-2579
በልጥ	-2580
በነጋ	-2581
አልፎ	-2582
አስቴ	-2583
አቃጠ	-2584
ዛፎች	-2585
ይፈር	-2586
ገሊላ	-2587
ግምጃ	-2588
ጩኸት	-2589
ጲላጦ	-2590
መምህር	-2591
መክሊት	-2592
በከተማ	-2593
ኤልያስ	-2594
ዘወትር	-2595
የሚወድ	-2596
የእሳት	-2597
ሴዴቅያስ	-2598
በመልካም	-2599
ባቢሎንም	-2600
ላክ	-2601
መህ	-2602
ምሰ	-2603
ሰር	-2604
ሱት	-2605
ሳዶ	-2606
ቸዋ	-2607
ነቀ	-2608
ከስ	-2609
ከፋ	-2610
ክሩ	-2611
ዕው	-2612
የሴ	-2613
ይቈ	-2614
ደመ	-2615
ዶቹ	-2616
ሕልም	-2617
መቅደ	-2618
ሙሴና	-2619
ሰብስ	-2620
ስለት	-2621
በቤቴ	-2622
ታመን	-2623
ታሪክ	-2624
ንስሐ	-2625
እሰጥ	-2626
ከፈተ	-2627
ተመልከ	-2628
ነፍሱን	-2629
አሮንን	-2630
አትፍራ	-2631
አንቀላ	-2632
አይተው	-2633
እጅህን	-2634
ከእኔም	-2635
ኬብሮን	-2636
ወጥተው	-2637
የለውም	-2638
ድንጋጤ	-2639
ጽድቅን	-2640
ማናቸውም	-2641
አለቆችና	-2642
አይደለሁ	-2643
አጠፋለሁ	-2644
ሄሮ	-2645
ለይ	-2646
መኖ	-2647
ምኞ	-2648
ሣጽ	-2649
ሬሳ	-2650
ስታ	-2651
ቀት	-2652
በኛ	-2653
ተሸ	-2654
ኋት	-2655
ኖን	-2656
አኑ	-2657
የፊ	-2658
ይባ	-2659
ጭፍ	-2660
ጽሕ	-2661
ለእኛ	-2662
ቀለበ	-2663
በቀል	-2664
በክፉ	-2665
ቤልም	-2666
ቤቱን	-2667
ትኖራ	-2668
ቶቹን	-2669
ከብዙ	-2670
ከፍል	-2671
ወስዳ	-2672
ድንቅ	-2673
ፍረት	-2674
በግምባ	-2675
አቀረበ	-2676
ከአንቺ	-2677
ይመጣሉ	-2678
ተቀምጠው	-2679
እንስሶች	-2680
ይስሐቅም	-2681
እንዳደረገ	-2682
በየወገናቸው	-2683
ከኢየሩሳሌም	-2684
ላኩ	-2685
መጫ	-2686
ሙሽ	-2687
ሜም	-2688
ራቅ	-2689
ሰች	-2690
ሴን	-2691
ተጣ	-2692
ታር	-2693
አቅ	-2694
አወ	-2695
አዩ	-2696
ዙፋ	-2697
ይጥ	-2698
ላሉት	-2699
ላይም	-2700
መሬት	-2701
መውጫ	-2702
ምስል	-2703
ራምም	-2704
ሰነፍ	-2705
ሰጠኝ	-2706
¦	-2707
▁	-2708
ን	-2709
ም	-2710
አ	-2711
በ	-2712
እ	-2713
ር	-2714
ው	-2715
ል	-2716
ት	-2717
ለ	-2718
ስ	-2719
የ	-2720
ይ	-2721
።	-2722
ነ	-2723
መ	-2724
ደ	-2725
፥	-2726
ብ	-2727
ና	-2728
ች	-2729
ድ	-2730
ተ	-2731
ያ	-2732
ከ	-2733
ሁ	-2734
ግ	-2735
ላ	-2736
ወ	-2737
ህ	-2738
ሰ	-2739
ገ	-2740
ራ	-2741
፤	-2742
ረ	-2743
ባ	-2744
ታ	-2745
ዚ	-2746
ሉ	-2747
ማ	-2748
ቸ	-2749
ቀ	-2750
ጠ	-2751
ዘ	-2752
ዳ	-2753
ፍ	-2754
ሆ	-2755
ሱ	-2756
ሔ	-2757
ሳ	-2758
ቅ	-2759
ክ	-2760
ጥ	-2761
ሚ	-2762
ዋ	-2763
ፈ	-2764
ቱ	-2765
ሩ	-2766
ጋ	-2767
ጣ	-2768
ሥ	-2769
ቶ	-2770
ሞ	-2771
ቃ	-2772
ሕ	-2773
ካ	-2774
ዲ	-2775
ኤ	-2776
ዝ	-2777
ዓ	-2778
ቤ	-2779
ጅ	-2780
ኛ	-2781
ጉ	-2782
ዛ	-2783
ኝ	-2784
ዎ	-2785
ሌ	-2786
ሎ	-2787
ኑ	-2788
ኔ	-2789
ጆ	-2790
ሙ	-2791
ሮ	-2792
ፋ	-2793
ዱ	-2794
ጊ	-2795
ቢ	-2796
ሴ	-2797
ኢ	-2798
ኖ	-2799
?	-2800
ፊ	-2801
ሠ	-2802
ሪ	-2803
ዜ	-2804
ቡ	-2805
ዕ	-2806
ቻ	-2807
ዊ	-2808
ቆ	-2809
ሽ	-2810
ጡ	-2811
ዮ	-2812
ኃ	-2813
ጽ	-2814
ቹ	-2815
ኋ	-2816
ጌ	-2817
ሬ	-2818
ዙ	-2819
ቁ	-2820
ሃ	-2821
ሊ	-2822
ዶ	-2823
ሐ	-2824
ሸ	-2825
ቴ	-2826
ሄ	-2827
ፉ	-2828
ጀ	-2829
ሣ	-2830
ጸ	-2831
ሶ	-2832
ሲ	-2833
ጢ	-2834
ሜ	-2835
ሡ	-2836
ሻ	-2837
ጨ	-2838
ዩ	-2839
ጎ	-2840
ኪ	-2841
ጻ	-2842
ቍ	-2843
ኩ	-2844
ቦ	-2845
ጭ	-2846
ኞ	-2847
ዬ	-2848
ዴ	-2849
ኮ	-2850
ጃ	-2851
ቈ	-2852
ሦ	-2853
ጁ	-2854
ቼ	-2855
ፎ	-2856
ቂ	-2857
ፅ	-2858
ጦ	-2859
ጕ	-2860
ኳ	-2861
ኅ	-2862
ኸ	-2863
ዖ	-2864
ኵ	-2865
ጫ	-2866
ሺ	-2867
ጂ	-2868
ኦ	-2869
ሀ	-2870
ጐ	-2871
ኘ	-2872
ዞ	-2873
ኬ	-2874
ፀ	-2875
ጹ	-2876
ጮ	-2877
ጄ	-2878
ጓ	-2879
ዔ	-2880
ፌ	-2881
ሹ	-2882
ሾ	-2883
ቄ	-2884
ቲ	-2885
ፃ	-2886
ሂ	-2887
ኒ	-2888
ቺ	-2889
ኙ	-2890
ቋ	-2891
ጳ	-2892
!	-2893
ኰ	-2894
ዐ	-2895
ኣ	-2896
ጩ	-2897
ጤ	-2898
ጴ	-2899
ዌ	-2900
ኀ	-2901
ዉ	-2902
ዑ	-2903
ፁ	-2904
ሤ	-2905
ኹ	-2906
ጾ	-2907
ዣ	-2908
ሖ	-2909
ዥ	-2910
ጵ	-2911
ኽ	-2912
ፆ	-2913
ኜ	-2914
ኻ	-2915
ጪ	-2916
ጲ	-2917
ሑ	-2918
ኆ	-2919
ዪ	-2920
ዒ	-2921
a	-2922
ሒ	-2923
ሼ	-2924
ዠ	-2925
ጶ	-2926
w	-2927
ዢ	-2928
ኡ	-2929
ኚ	-2930
ጼ	-2931
ጺ	-2932
𐋇	-2933
ጬ	-2934
k	-2935
ዦ	-2936
ዤ	-2937
ሢ	-2938
ቾ	-2939
ሓ	-2940
ዡ	-2941
ፄ	-2942
𐊣	-2943
𐊼	-2944
g	-2945
ኄ	-2946
r	-2947
d	-2948
ኾ	-2949
ጰ	-2950
ጱ	-2951
ቧ	-2952
ፔ	-2953
ፕ	-2954
t	-2955
ኺ	-2956
*	-2957
1	-2958
v	-2959
"	-2960
l	-2961
ሷ	-2962
ፐ	-2963
ፓ	-2964
2	-2965
s	-2966
3	-2967
[	-2968
]	-2969
o	-2970
ፑ	-2971
ፒ	-2972
(	-2973
)	-2974
-	-2975
5	-2976
e	-2977
ቊ	-2978
ዷ	-2979
ፂ	-2980
0	-2981
4	-2982
@	-2983
b	-2984
m	-2985
u	-2986
ሏ	-2987
ቷ	-2988
ቿ	-2989
ኗ	-2990
ኟ	-2991
ኲ	-2992
ኼ	-2993
ጒ	-2994
ጧ	-2995
ፏ	-2996
