<pad>	0
</s>	0
<unk>	0
▁	-3.06402
s	-3.27129
▁the	-3.54087
,	-3.78534
▁of	-4.03407
i	-4.08895
a	-4.13948
n	-4.14692
.	-4.27689
o	-4.3028
t	-4.40977
ed	-4.43854
d	-4.45058
▁and	-4.4618
e	-4.46425
▁a	-4.51332
▁in	-4.5514
▁(	-4.58531
l	-4.61977
▁to	-4.67135
u	-4.70632
-	-4.82925
c	-4.84516
p	-4.87947
▁was	-4.92535
)	-5.02869
y	-5.0332
m	-5.034
ing	-5.06404
r	-5.07453
ri	-5.13286
in	-5.24815
or	-5.32241
re	-5.33169
ra	-5.3383
er	-5.37189
'	-5.38365
ar	-5.38429
ku	-5.43309
▁is	-5.44006
al	-5.44944
shi	-5.47588
ro	-5.47746
mi	-5.49044
▁as	-5.50702
le	-5.56261
ka	-5.56398
ta	-5.5924
to	-5.62143
ki	-5.64831
▁A	-5.68342
ter	-5.70094
ma	-5.70895
an	-5.71442
f	-5.71986
▁re	-5.74147
w	-5.74471
se	-5.75486
▁for	-5.78894
ne	-5.81082
chi	-5.82533
ga	-5.83152
▁he	-5.83336
yo	-5.85038
▁that	-5.85099
▁f	-5.8579
g	-5.86463
ke	-5.88245
th	-5.88861
▁by	-5.89933
▁no	-5.90136
tsu	-5.90521
v	-5.91173
▁w	-5.9264
ly	-5.93526
st	-5.94808
ji	-5.95022
▁The	-5.96962
▁st	-5.98317
ll	-5.99937
en	-6.00349
ce	-6.0073
b	-6.01303
A	-6.01403
▁be	-6.01558
▁with	-6.0283
no	-6.04128
▁on	-6.04271
me	-6.04332
ation	-6.08435
mo	-6.11245
k	-6.11471
na	-6.13352
ko	-6.13829
te	-6.14456
ng	-6.1475
ve	-6.15381
sa	-6.15626
"	-6.15639
O	-6.16241
▁it	-6.18658
▁from	-6.19076
▁his	-6.20405
ur	-6.20719
▁O	-6.21013
0	-6.21481
▁In	-6.24437
es	-6.24494
ha	-6.25298
li	-6.27107
da	-6.27215
▁de	-6.27689
ion	-6.28772
),	-6.29168
).	-6.30364
on	-6.31939
ent	-6.32078
▁'	-6.32179
ir	-6.32927
ge	-6.33226
I	-6.33234
▁"	-6.33447
bu	-6.33652
▁c	-6.33859
do	-6.35236
▁I	-6.36077
wa	-6.37475
ic	-6.37487
▁were	-6.37514
▁se	-6.38271
▁at	-6.38328
tion	-6.4143
ch	-6.41554
▁b	-6.41667
h	-6.42295
ry	-6.42299
hi	-6.42569
▁who	-6.43184
jo	-6.43499
it	-6.44257
▁co	-6.44481
▁are	-6.45011
ld	-6.4582
▁which	-6.46424
go	-6.46768
ect	-6.46872
nd	-6.4944
ted	-6.49645
un	-6.50992
▁ca	-6.51096
ate	-6.51148
▁p	-6.51418
su	-6.51859
1	-6.52595
vi	-6.52621
▁S	-6.52697
▁To	-6.53763
sho	-6.54364
▁ma	-6.55367
▁Ka	-6.57552
ru	-6.57557
ment	-6.58771
▁He	-6.58796
▁mo	-6.60161
us	-6.60448
▁con	-6.62089
▁Ta	-6.6249
▁e	-6.62589
8	-6.63394
▁N	-6.63716
▁su	-6.64216
ba	-6.65034
D	-6.65212
▁an	-6.65677
ho	-6.66553
il	-6.67829
K	-6.68073
▁so	-6.68448
▁di	-6.68481
at	-6.68837
ya	-6.69438
▁K	-6.69592
6	-6.69663
3	-6.70829
7	-6.71025
the	-6.71152
ver	-6.7127
▁G	-6.71613
▁Mi	-6.71944
▁pro	-6.7375
▁ex	-6.74398
▁Ko	-6.74812
5	-6.75632
▁la	-6.76603
:	-6.76981
per	-6.77519
x	-6.77835
ated	-6.78368
▁E	-6.78495
▁or	-6.79337
▁period	-6.80685
fu	-6.80855
zu	-6.80902
9	-6.81653
pe	-6.81903
▁family	-6.82755
▁R	-6.83081
▁B	-6.84517
▁P	-6.85207
▁T	-6.85418
ist	-6.86123
age	-6.86542
S	-6.86559
ther	-6.87004
T	-6.88112
▁tr	-6.88342
4	-6.88525
de	-6.88869
▁F	-6.8913
▁clan	-6.90542
▁Sa	-6.90598
ish	-6.90709
ni	-6.91101
▁Emperor	-6.91611
2	-6.91937
gu	-6.92814
▁me	-6.94104
gi	-6.94242
▁It	-6.94601
bo	-6.95272
ally	-6.95359
ty	-6.95598
▁but	-6.95834
▁Kyoto	-6.96039
U	-6.96133
M	-6.96315
▁had	-6.96755
▁C	-6.97061
E	-6.97265
ive	-6.9799
za	-6.99843
ig	-7.00096
▁also	-7.01368
ies	-7.01573
▁not	-7.02124
mu	-7.02587
▁pa	-7.03117
▁U	-7.0343
▁Shi	-7.03514
▁this	-7.03892
ti	-7.04084
co	-7.04257
▁name	-7.04329
he	-7.04699
mon	-7.05008
R	-7.05028
pp	-7.06283
▁Ho	-7.06638
▁Temple	-7.08612
▁19	-7.09336
ight	-7.09642
▁Province	-7.09903
ide	-7.10119
▁Se	-7.10163
ant	-7.10917
▁en	-7.1196
shu	-7.12073
est	-7.12536
ting	-7.13336
G	-7.13756
▁Ma	-7.14563
▁L	-7.14973
▁W	-7.15159
▁2	-7.15277
▁called	-7.16166
ity	-7.16248
▁Japan	-7.16307
▁Sho	-7.16881
▁ha	-7.16947
dai	-7.17297
▁after	-7.17415
form	-7.18225
▁time	-7.1851
▁Hi	-7.18847
Y	-7.19181
yu	-7.19529
ial	-7.20066
▁became	-7.20239
▁City	-7.20342
▁M	-7.20764
▁Yoshi	-7.22085
ff	-7.22093
▁Ki	-7.22981
▁po	-7.23329
ju	-7.23424
▁Imperial	-7.23494
and	-7.23519
ance	-7.24437
▁Ha	-7.2524
▁No	-7.2553
KA	-7.25572
▁one	-7.25598
J	-7.25875
▁year	-7.27032
ten	-7.27436
fe	-7.27888
▁such	-7.29097
▁Co	-7.29111
▁dis	-7.29424
N	-7.3004
▁ho	-7.30566
;	-7.31051
▁go	-7.31163
▁Mo	-7.31198
▁18	-7.31243
▁Go	-7.32455
et	-7.32839
kyo	-7.32946
▁Shin	-7.33011
▁been	-7.3331
▁have	-7.33506
▁other	-7.34419
▁Su	-7.35463
ers	-7.37148
▁sp	-7.38023
um	-7.38111
▁His	-7.38673
▁Japanese	-7.39105
ture	-7.39323
cho	-7.39414
▁H	-7.39515
▁Ju	-7.39564
▁Prefecture	-7.39809
▁pre	-7.40071
▁d	-7.40254
▁when	-7.40994
▁Fu	-7.4129
▁used	-7.41537
ary	-7.4252
▁part	-7.43142
yama	-7.43177
be	-7.43514
so	-7.44058
bi	-7.45428
▁So	-7.4597
▁Re	-7.46582
▁Ku	-7.46763
▁On	-7.48016
ck	-7.48034
tic	-7.48255
▁un	-7.49695
▁there	-7.49894
H	-7.49953
▁Kan	-7.50326
ze	-7.52788
den	-7.53304
man	-7.54904
B	-7.55058
▁head	-7.55249
▁made	-7.55496
kan	-7.56994
low	-7.57206
ous	-7.57232
▁son	-7.59285
gen	-7.59647
▁some	-7.59722
ound	-7.59875
▁Edo	-7.60704
Z	-7.61227
▁government	-7.61468
able	-7.62303
cre	-7.62324
▁during	-7.63425
▁people	-7.64913
▁first	-7.65167
▁has	-7.66735
▁pla	-7.66944
way	-7.67198
▁said	-7.67453
▁under	-7.67715
SHI	-7.68482
▁comp	-7.68725
▁Ni	-7.68841
▁Dai	-7.69006
j	-7.69803
▁temple	-7.70842
though	-7.71914
▁War	-7.725
▁into	-7.72851
▁gra	-7.73194
▁Prince	-7.73262
▁out	-7.74596
MA	-7.76757
zo	-7.77614
▁cha	-7.77879
▁However	-7.77998
▁Mu	-7.78364
ence	-7.79218
▁Station	-7.79447
▁Taka	-7.79584
TA	-7.79768
king	-7.80296
▁Chi	-7.81012
▁Thi	-7.82255
▁Yo	-7.82742
gawa	-7.82847
▁im	-7.83962
▁up	-7.84095
▁her	-7.8413
que	-7.8448
▁because	-7.85091
DA	-7.8534
mb	-7.85721
out	-7.87344
▁San	-7.87542
▁act	-7.88512
gun	-7.89056
▁over	-7.89684
port	-7.90152
cul	-7.9059
C	-7.91011
▁Shrine	-7.91739
▁system	-7.91739
▁place	-7.91979
▁15	-7.92089
▁Ya	-7.92861
▁follow	-7.94057
▁origin	-7.94059
▁between	-7.95067
NO	-7.95341
▁many	-7.96193
▁school	-7.9643
▁old	-7.97083
▁main	-7.9725
▁order	-7.97494
WA	-7.9793
▁Bu	-7.97988
ical	-7.98493
▁position	-7.99567
▁Tsu	-7.99865
▁rank	-8.00285
▁Ten	-8.00523
▁high	-8.00634
present	-8.01498
▁post	-8.01592
▁After	-8.01725
▁same	-8.01808
▁line	-8.01831
▁two	-8.02083
▁only	-8.02674
▁even	-8.0292
▁about	-8.03174
KI	-8.03315
SU	-8.03742
▁him	-8.04165
▁where	-8.05026
▁16	-8.05799
▁Ji	-8.06035
▁official	-8.06529
▁work	-8.06939
▁FUJIWARA	-8.08058
ugh	-8.08453
▁Masa	-8.1118
ized	-8.13051
▁established	-8.14422
▁court	-8.1444
▁father	-8.1444
▁priest	-8.14837
AN	-8.15021
The	-8.15059
▁shrine	-8.15247
▁11	-8.15282
▁found	-8.15361
▁book	-8.1608
▁person	-8.16081
produc	-8.16105
▁army	-8.17343
▁Court	-8.17346
▁shogun	-8.17773
▁Yama	-8.17831
▁Jo	-8.19242
▁written	-8.19909
▁train	-8.19947
▁side	-8.20452
▁well	-8.2081
▁10	-8.2083
▁Castle	-8.21219
▁death	-8.21252
▁hand	-8.22252
ward	-8.2279
▁power	-8.23447
▁lord	-8.23451
▁new	-8.24074
▁region	-8.24354
▁Rank	-8.25259
▁than	-8.25437
▁Naga	-8.262
house	-8.26749
▁tea	-8.26853
▁rice	-8.26916
V	-8.27103
▁including	-8.2757
▁17	-8.28073
▁through	-8.28512
▁however	-8.28986
▁second	-8.28987
▁she	-8.29163
▁those	-8.29465
▁office	-8.29969
CHI	-8.30422
▁liv	-8.30499
▁three	-8.30907
▁while	-8.30911
▁De	-8.32062
▁Shu	-8.32885
Japanese	-8.33191
▁daughter	-8.33355
▁located	-8.33355
▁military	-8.33355
▁known	-8.33853
▁brother	-8.33856
read	-8.34409
▁served	-8.34856
provinc	-8.34883
▁Buddhist	-8.3536
▁bakufu	-8.3536
▁13	-8.35396
▁Kamakura	-8.35868
▁Yu	-8.36588
▁12	-8.3692
▁appointed	-8.37406
▁style	-8.3744
▁Domain	-8.37924
▁relat	-8.37963
fac	-8.37995
▁fact	-8.38281
▁due	-8.39023
▁since	-8.40035
▁before	-8.40557
▁young	-8.41092
▁back	-8.41117
▁around	-8.41156
east	-8.41475
▁would	-8.42169
▁member	-8.42172
▁Nara	-8.43352
▁Meiji	-8.44361
▁200	-8.44362
▁each	-8.44384
▁given	-8.44918
▁character	-8.45475
▁appear	-8.45476
▁Line	-8.45519
Juni	-8.45971
▁down	-8.4604
▁addition	-8.48316
]	-8.48894
▁various	-8.48894
▁took	-8.49076
/	-8.49476
▁title	-8.49479
▁refer	-8.49882
[	-8.5006
▁Osaka	-8.50071
z	-8.50341
▁Heian	-8.52475
▁early	-8.53655
▁four	-8.53686
jinja	-8.54253
▁MINAMOTO	-8.54253
▁emperor	-8.54866
▁Chu	-8.55506
▁statue	-8.56105
▁imperial	-8.5673
▁When	-8.56737
▁considered	-8.57359
▁become	-8.57362
▁wife	-8.57376
point	-8.57835
▁battle	-8.57992
▁both	-8.58825
▁number	-8.59269
Genji	-8.59971
▁himself	-8.60564
▁noble	-8.6058
▁local	-8.61218
▁general	-8.61223
▁Korea	-8.6154
P	-8.61872
▁domain	-8.61876
▁great	-8.61876
▁Chinese	-8.61878
▁14	-8.61914
▁return	-8.62539
▁Palace	-8.63204
▁left	-8.63208
▁could	-8.63218
▁Buddhism	-8.63875
▁School	-8.65232
▁include	-8.65916
▁Buddha	-8.65916
▁service	-8.66606
▁common	-8.66612
F	-8.66842
▁collect	-8.67305
▁group	-8.68
▁ceremony	-8.68704
▁TOKUGAWA	-8.69413
▁large	-8.69425
▁long	-8.69426
▁north	-8.69573
▁According	-8.70847
▁describe	-8.70847
AIRA	-8.70847
▁third	-8.70849
▁against	-8.71572
ified	-8.71598
▁January	-8.72301
▁construct	-8.72301
▁April	-8.72303
▁receiv	-8.73122
▁lead	-8.73799
▁March	-8.74533
strict	-8.74541
▁October	-8.75276
▁visit	-8.75281
▁own	-8.75297
▁Period	-8.76033
current	-8.76034
▁built	-8.76034
▁record	-8.76034
▁University	-8.76797
▁samurai	-8.76797
▁class	-8.76797
graph	-8.76801
▁above	-8.76813
▁example	-8.77566
▁generation	-8.77566
▁building	-8.7991
▁retainer	-8.7991
▁cultur	-8.80168
▁capital	-8.80703
Minister	-8.80707
Nihon	-8.8083
▁Hideyoshi	-8.81503
▁adopted	-8.81503
▁feud	-8.8151
▁ancient	-8.83123
▁birth	-8.83129
▁different	-8.84769
▁attack	-8.85606
▁command	-8.86443
▁century	-8.8729
L	-8.89606
W	-9.22655
Q	-9.4125
X	-9.77859
?	-9.88981
>	-10.015
(	-10.142
*	-10.3621
大	-10.6688
=	-10.7214
%	-10.7214
!	-10.8983
–	-10.8983
、	-11.0364
国	-11.1133
一	-11.1133
の	-11.1134
安	-11.1967
子	-11.1967
・	-11.2876
神	-11.2876
院	-11.2876
&	-11.3876
上	-11.3876
法	-11.4987
本	-11.4987
宗	-11.4987
王	-11.4987
へ	-11.6237
し	-11.6237
公	-11.6237
美	-11.6237
人	-11.7665
道	-11.7666
<	-11.7666
り	-11.7666
師	-11.7666
山	-11.7666
門	-11.7666
信	-11.7666
行	-11.7666
候	-11.9332
武	-11.9332
都	-11.9332
七	-11.9332
城	-11.9332
事	-11.9332
天	-11.9332
念	-11.9332
社	-11.9332
仏	-11.9332
氏	-11.9332
無	-11.9332
い	-11.9332
き	-12.1332
軍	-12.1332
政	-12.1332
≒	-12.1332
三	-12.1332
下	-12.1332
島	-12.1332
高	-12.1332
姫	-12.1332
藤	-12.1332
合	-12.1332
源	-12.1332
古	-12.1332
二	-12.1332
に	-12.1332
`	-12.3831
左	-12.3832
と	-12.3832
反	-12.3832
中	-12.3832
光	-12.3832
宮	-12.3832
é	-12.3832
之	-12.3832
呂	-12.3832
咒	-12.3832
屋	-12.3832
忌	-12.3832
尺	-12.3832
余	-12.3832
例	-12.3832
八	-12.3832
朝	-12.3832
万	-12.3832
名	-12.3832
小	-12.3832
慶	-12.3832
普	-12.3832
q	-12.3832
明	-12.3832
