<pad>	0
</s>	0
<unk>	0
▁a	-0
ch	-1
ea	-2
ai	-3
▁d	-4
th	-5
▁s	-6
in	-7
na	-8
▁c	-9
▁l	-10
▁t	-11
▁g	-12
bh	-13
▁f	-14
ir	-15
▁m	-16
▁ag	-17
ar	-18
il	-19
▁an	-20
is	-21
dh	-22
mh	-23
ío	-24
▁ch	-25
▁n	-26
us	-27
▁i	-28
ta	-29
▁agus	-30
▁ar	-31
an	-32
id	-33
▁le	-34
▁r	-35
air	-36
la	-37
▁bh	-38
ra	-39
gh	-40
▁co	-41
▁na	-42
on	-43
each	-44
▁b	-45
▁go	-46
eo	-47
éa	-48
ás	-49
nn	-50
▁do	-51
ao	-52
ach	-53
the	-54
iú	-55
áil	-56
▁th	-57
▁o	-58
▁p	-59
ain	-60
inn	-61
ine	-62
ear	-63
▁chu	-64
ei	-65
eas	-66
áin	-67
▁dh	-68
ia	-69
▁fh	-70
▁h	-71
aí	-72
te	-73
19	-74
ais	-75
co	-76
ean	-77
▁de	-78
▁bhf	-79
▁cov	-80
ig	-81
▁2	-82
▁T	-83
it	-84
cht	-85
▁é	-86
uair	-87
▁covid	-88
ír	-89
as	-90
-19	-91
▁nó	-92
tá	-93
io	-94
aithe	-95
▁v	-96
ile	-97
éad	-98
im	-99
▁ó	-100
▁’	-101
eadh	-102
▁in	-103
▁e	-104
igh	-105
aigh	-106
or	-107
eag	-108
abh	-109
ail	-110
anna	-111
▁seo	-112
adh	-113
íonn	-114
▁is	-115
▁C	-116
al	-117
▁du	-118
▁1	-119
▁D	-120
eann	-121
ithe	-122
▁gh	-123
▁mar	-124
▁mh	-125
aidh	-126
án	-127
▁fé	-128
▁gc	-129
ín	-130
aoine	-131
▁tú	-132
uil	-133
▁sh	-134
óg	-135
óir	-136
▁lá	-137
▁chun	-138
▁cho	-139
▁A	-140
íos	-141
▁eile	-142
áir	-143
▁I	-144
ad	-145
▁sa	-146
▁M	-147
áid	-148
ac	-149
▁bhfuil	-150
láin	-151
eacht	-152
ro	-153
tha	-154
▁(	-155
▁mb	-156
íodh	-157
▁ro	-158
▁or	-159
ian	-160
ic	-161
isc	-162
aith	-163
sc	-164
fh	-165
▁sé	-166
ur	-167
▁tá	-168
eal	-169
▁dt	-170
íoch	-171
▁cás	-172
ib	-173
ála	-174
eamh	-175
▁atá	-176
ith	-177
ol	-178
idir	-179
re	-180
▁níos	-181
▁mó	-182
ug	-183
cha	-184
▁aon	-185
▁tr	-186
▁vír	-187
▁N	-188
taí	-189
▁fao	-190
cov	-191
ús	-192
▁B	-193
▁má	-194
▁ná	-195
éana	-196
ial	-197
▁20	-198
▁ph	-199
éir	-200
▁sc	-201
arth	-202
ann	-203
▁comh	-204
rú	-205
▁Tá	-206
uir	-207
▁lea	-208
imh	-209
eith	-210
▁féidir	-211
▁á	-212
saí	-213
▁ion	-214
éim	-215
▁sláin	-216
ion	-217
ró	-218
mp	-219
dir	-220
eidh	-221
eanna	-222
ud	-223
aint	-224
▁io	-225
▁daoine	-226
uairisc	-227
tach	-228
éadf	-229
lú	-230
nach	-231
▁faoi	-232
saín	-233
▁leis	-234
▁duine	-235
acsaín	-236
▁sláinte	-237
▁Is	-238
▁sin	-239
éan	-240
▁u	-241
airt	-242
fhabh	-243
ars	-244
áis	-245
▁tás	-246
táil	-247
taithe	-248
▁vacsaín	-249
eagmh	-250
aibh	-251
▁víreas	-252
íon	-253
▁am	-254
tear	-255
▁bás	-256
iún	-257
le	-258
un	-259
▁tar	-260
úsáid	-261
ís	-262
▁S	-263
▁raibh	-264
raí	-265
os	-266
▁cú	-267
tar	-268
agh	-269
▁dhéana	-270
if	-271
▁as	-272
▁air	-273
▁ionfhabh	-274
▁chomh	-275
arthaí	-276
íomh	-277
ill	-278
▁dó	-279
▁F	-280
▁roinn	-281
▁4	-282
éar	-283
ua	-284
▁rá	-285
eoir	-286
▁ort	-287
teach	-288
▁sars	-289
▁ach	-290
eir	-291
▁3	-292
íocht	-293
sp	-294
ibh	-295
20	-296
▁st	-297
▁bheith	-298
éadfadh	-299
er	-300
▁dhéanamh	-301
▁úsáid	-302
áth	-303
▁idir	-304
▁agh	-305
▁aghaidh	-306
▁rud	-307
▁Má	-308
▁amh	-309
uairiscíodh	-310
idh	-311
íor	-312
▁iad	-313
▁An	-314
▁cl	-315
▁éis	-316
ip	-317
aid	-318
ras	-319
éal	-320
▁gach	-321
eola	-322
inne	-323
▁gur	-324
dú	-325
▁féin	-326
at	-327
▁im	-328
thair	-329
▁meas	-330
▁rial	-331
úir	-332
rta	-333
▁chóir	-334
thu	-335
▁nach	-336
ainn	-337
lach	-338
▁chur	-339
▁2020	-340
▁duit	-341
▁ann	-342
▁bhí	-343
▁ní	-344
ógra	-345
oir	-346
▁rio	-347
▁Ní	-348
▁nd	-349
aist	-350
aip	-351
reis	-352
▁comharthaí	-353
úil	-354
▁sia	-355
▁dhaoine	-356
▁L	-357
tas	-358
▁roinnt	-359
thar	-360
▁siad	-361
▁sco	-362
eabh	-363
▁ina	-364
▁den	-365
▁5	-366
nadh	-367
▁don	-368
▁fr	-369
eall	-370
▁san	-371
▁orthu	-372
íne	-373
▁ón	-374
óis	-375
iom	-376
▁ts	-377
▁G	-378
▁w	-379
ghl	-380
▁sr	-381
aile	-382
▁trí	-383
nacht	-384
▁fhéadfadh	-385
00	-386
aon	-387
eart	-388
▁líon	-389
▁thug	-390
▁sp	-391
▁ac	-392
radh	-393
da	-394
eachta	-395
acha	-396
ítear	-397
eagmháil	-398
▁gco	-399
int	-400
-2	-401
▁márta	-402
vir	-403
iúil	-404
lí	-405
▁ráig	-406
▁tástáil	-407
rom	-408
ásanna	-409
ag	-410
▁lena	-411
▁thar	-412
aim	-413
tála	-414
onraí	-415
eachtaí	-416
eidhm	-417
▁su	-418
▁to	-419
aine	-420
▁có	-421
▁po	-422
acht	-423
ru	-424
▁iar	-425
▁roimh	-426
▁ath	-427
▁dear	-428
vír	-429
en	-430
eic	-431
▁gn	-432
ist	-433
eacha	-434
▁amach	-435
naí	-436
▁gal	-437
▁cos	-438
▁lámh	-439
▁oib	-440
dach	-441
eá	-442
reisin	-443
▁freisin	-444
▁isteach	-445
aind	-446
▁scaip	-447
▁dóibh	-448
aindéim	-449
navir	-450
ianta	-451
▁neamh	-452
▁domh	-453
▁leat	-454
▁fáil	-455
nas	-456
▁amháin	-457
lán	-458
chtúir	-459
sh	-460
inic	-461
▁nuair	-462
▁bun	-463
ronavir	-464
▁mór	-465
rach	-466
▁lagh	-467
anacht	-468
aol	-469
ram	-470
uid	-471
abhairt	-472
se	-473
▁gheall	-474
▁tástála	-475
ronavirus	-476
▁ionfhabhtaithe	-477
tú	-478
▁chuig	-479
▁/	-480
▁mo	-481
eor	-482
▁br	-483
▁mí	-484
▁sonraí	-485
▁stá	-486
▁bhíonn	-487
fach	-488
mpla	-489
íochta	-490
▁coronavirus	-491
ois	-492
de	-493
▁gan	-494
▁áit	-495
áiste	-496
▁leor	-497
▁Tuairiscíodh	-498
▁tinn	-499
ráid	-500
▁tea	-501
nad	-502
▁linn	-503
aidir	-504
▁scoil	-505
ghlaigh	-506
st	-507
achta	-508
eabhra	-509
ura	-510
▁Mar	-511
▁chl	-512
▁nua	-513
▁hiom	-514
▁fanacht	-515
ór	-516
íortha	-517
ma	-518
ead	-519
▁Ch	-520
▁fháil	-521
eoirí	-522
▁lámha	-523
▁dá	-524
▁tír	-525
invír	-526
áirítear	-527
▁-	-528
▁cé	-529
▁Ag	-530
▁réir	-531
ll	-532
▁acu	-533
▁ard	-534
▁éig	-535
▁chuid	-536
▁ng	-537
úla	-538
iblí	-539
▁leith	-540
ún	-541
▁dho	-542
▁dul	-543
▁fud	-544
▁tug	-545
ialta	-546
aghaidh	-547
▁roimhe	-548
▁cásanna	-549
artha	-550
iúnta	-551
▁measc	-552
▁maidir	-553
eagmhála	-554
▁aontaithe	-555
▁2020,	-556
▁bhain	-557
pa	-558
▁feabhra	-559
▁scaipeadh	-560
ath	-561
éin	-562
-19.	-563
▁dtí	-564
▁teaghlaigh	-565
och	-566
sca	-567
▁sao	-568
aig	-569
▁fó	-570
eirbh	-571
▁chás	-572
▁uair	-573
▁aghaidhe	-574
anta	-575
▁aip	-576
▁Cuir	-577
▁haghaidh	-578
airle	-579
eirbhís	-580
ph	-581
▁6	-582
asc	-583
easta	-584
▁chéad	-585
ábh	-586
▁Déan	-587
ál	-588
▁bp	-589
iúla	-590
▁iom	-591
lúdach	-592
▁ba	-593
▁fo	-594
▁sna	-595
uithe	-596
▁R	-597
ait	-598
▁lean	-599
▁víris	-600
am	-601
aitheamh	-602
úis	-603
▁fógra	-604
eac	-605
▁tugadh	-606
ho	-607
▁bl	-608
aire	-609
dáil	-610
▁ean	-611
▁gla	-612
illiún	-613
▁riosp	-614
▁taist	-615
▁eanáir	-616
ios	-617
éil	-618
▁Ba	-619
spid	-620
scail	-621
▁chos	-622
▁rian	-623
eachas	-624
áirithe	-625
▁cuir	-626
▁bhaile	-627
▁éa	-628
ráide	-629
únadh	-630
▁leigh	-631
▁hiomláin	-632
chur	-633
eáil	-634
▁ghn	-635
▁ospid	-636
éis	-637
▁riospráide	-638
▁lu	-639
▁tsín	-640
▁tuairiscíodh	-641
éile	-642
oláth	-643
▁cinn	-644
▁poiblí	-645
▁thabhairt	-646
oc	-647
▁”	-648
▁déana	-649
óirí	-650
▁for	-651
▁mbeadh	-652
úr	-653
reag	-654
▁siú	-655
▁bhfeidhm	-656
▁7	-657
▁pr	-658
eala	-659
▁aois	-660
▁hcov	-661
iachta	-662
iar	-663
sco	-664
▁ain	-665
▁cur	-666
▁oibr	-667
▁maith	-668
▁chor	-669
ástáil	-670
▁faoin	-671
óisialta	-672
▁Co	-673
uais	-674
álacha	-675
tr	-676
liú	-677
▁cúram	-678
▁“	-679
▁Th	-680
▁agat	-681
ne	-682
▁9	-683
▁cu	-684
▁ei	-685
▁me	-686
faidh	-687
ard	-688
mhn	-689
▁déan	-690
▁choinne	-691
).	-692
ár	-693
aic	-694
▁10	-695
▁tu	-696
▁fad	-697
▁sha	-698
▁galar	-699
▁náis	-700
▁chuir	-701
ibre	-702
▁pháiste	-703
ló	-704
▁8	-705
tais	-706
▁leo	-707
▁bear	-708
▁tion	-709
▁feadh	-710
▁mhéad	-711
▁leighis	-712
▁bhaineann	-713
ae	-714
tí	-715
▁stáit	-716
fidh	-717
fhógra	-718
▁aibre	-719
▁leanaí	-720
▁éigean	-721
▁shampla	-722
000	-723
anda	-724
ca	-725
▁Bh	-726
▁gcásanna	-727
▁paindéim	-728
▁dhochtúir	-729
▁ionfhabhtú	-730
arr	-731
uigh	-732
▁tíortha	-733
han	-734
▁al	-735
,000	-736
ifig	-737
▁eis	-738
▁staid	-739
▁othair	-740
invíreas	-741
mpar	-742
orth	-743
▁oir	-744
stach	-745
▁ghal	-746
▁léir	-747
▁chaitheamh	-748
éid	-749
-19,	-750
bair	-751
▁clúdach	-752
▁scoileanna	-753
ladh	-754
▁éif	-755
uairt	-756
),	-757
▁14	-758
▁éir	-759
▁leibh	-760
▁srianta	-761
tóg	-762
▁Dí	-763
▁gá	-764
▁lé	-765
eimhn	-766
▁cóir	-767
▁teagmháil	-768
ob	-769
eog	-770
íní	-771
eath	-772
▁daon	-773
▁síne	-774
ábháil	-775
▁seirbhís	-776
▁Ná	-777
íobh	-778
mhair	-779
▁ionad	-780
eol	-781
▁lua	-782
▁fhor	-783
▁chéile	-784
▁4,	-785
▁Ar	-786
▁dí	-787
▁iomlán	-788
▁aibreán	-789
ón	-790
▁"	-791
ige	-792
pid	-793
char	-794
▁dhá	-795
▁fol	-796
▁seacht	-797
▁domhain	-798
▁rialtas	-799
gs	-800
ealt	-801
▁siúd	-802
íochaine	-803
iabh	-804
▁cor	-805
▁eag	-806
▁mhí	-807
racha	-808
orthaí	-809
áireamh	-810
▁dearbh	-811
▁toradh	-812
ub	-813
aoi	-814
róit	-815
▁who	-816
▁mbeidh	-817
aigheann	-818
▁Dífhógra	-819
▁Dífhógraíodh	-820
rón	-821
earr	-822
▁dearfach	-823
ers	-824
nann	-825
▁bhr	-826
▁fhóg	-827
íochtaí	-828
far	-829
▁cr	-830
romch	-831
▁beag	-832
asacht	-833
▁ospidéal	-834
▁sóisialta	-835
ims	-836
rao	-837
▁déanaí	-838
ní	-839
▁–	-840
iath	-841
uhan	-842
éigh	-843
▁las	-844
áinig	-845
aintín	-846
aíocht	-847
▁thástáil	-848
ss	-849
▁éags	-850
▁luath	-851
▁cuairt	-852
▁fhógair	-853
óm	-854
▁19	-855
▁dé	-856
eana	-857
iain	-858
▁aer	-859
▁tho	-860
▁mura	-861
▁frith	-862
▁fuair	-863
el	-864
▁ial	-865
▁minic	-866
gn	-867
all	-868
imp	-869
▁bu	-870
▁sio	-871
racht	-872
laíonn	-873
▁bunús	-874
▁thart	-875
amh	-876
ite	-877
éas	-878
▁dhear	-879
▁náisiúnta	-880
▁ho	-881
▁ré	-882
aisc	-883
▁tos	-884
▁ghla	-885
▁srian	-886
▁wuhan	-887
▁cosúil	-888
▁ghnáth	-889
▁ialtóg	-890
▁milliún	-891
▁chosaint	-892
uas	-893
eolas	-894
muigh	-895
▁bhás	-896
▁mbaol	-897
róitéin	-898
▁teagmhála	-899
▁ís	-900
aill	-901
ithr	-902
▁bia	-903
▁léinn	-904
iabhras	-905
▁bearta	-906
▁gníomh	-907
▁vacsaíní	-908
úirt	-909
▁aith	-910
raíonn	-911
▁leath	-912
▁éagsúla	-913
og	-914
oirm	-915
luais	-916
▁háirithe	-917
▁tionchar	-918
▁comhairle	-919
▁bhféadfadh	-920
onn	-921
▁24	-922
▁Bhí	-923
íonna	-924
pidéim	-925
▁choró	-926
▁sábháil	-927
▁lasmuigh	-928
▁O	-929
iúl	-930
paí	-931
▁11	-932
dála	-933
▁Níl	-934
▁mers	-935
▁theas	-936
eachais	-937
ág	-938
lan	-939
igiú	-940
▁lae	-941
lacha	-942
▁oibre	-943
▁cheart	-944
▁riosca	-945
▁thoradh	-946
sa	-947
um	-948
namh	-949
uine	-950
▁ans	-951
▁con	-952
▁cúr	-953
daigh	-954
scoil	-955
▁deir	-956
▁suas	-957
▁Beidh	-958
▁freag	-959
▁céanna	-960
ealtaine	-961
▁láthair	-962
▁riachta	-963
▁thuairisc	-964
▁fhaigheann	-965
▁fhé	-966
ainne	-967
▁láimh	-968
▁obair	-969
inneadh	-970
▁laghdú	-971
▁fhéidir	-972
▁ghalair	-973
ghn	-974
▁os	-975
eist	-976
ionn	-977
▁dír	-978
▁oid	-979
eanta	-980
nacha	-981
▁méad	-982
▁Chuir	-983
▁dúnadh	-984
▁leibhéal	-985
▁15	-986
▁De	-987
▁Go	-988
▁nós	-989
▁éad	-990
▁imdh	-991
scailte	-992
▁tinnis	-993
thú	-994
▁Cé	-995
isce	-996
▁géar	-997
▁gcuid	-998
▁teacht	-999
▁taistil	-1000
▁eipidéim	-1001
róinvíreas	-1002
▁bealtaine	-1003
▁choinneáil	-1004
ce	-1005
mó	-1006
rá	-1007
ich	-1008
▁lú	-1009
▁um	-1010
iana	-1011
▁eor	-1012
▁mac	-1013
▁laghad	-1014
▁príomh	-1015
▁casacht	-1016
▁cuireadh	-1017
▁fu	-1018
▁lár	-1019
▁dáil	-1020
ealach	-1021
tuithe	-1022
▁oifig	-1023
eolaíoch	-1024
▁torthaí	-1025
ara	-1026
▁masc	-1027
▁ceann	-1028
achtach	-1029
oireann	-1030
▁bliain	-1031
▁óstach	-1032
▁dearbhaithe	-1033
▁dr	-1034
▁átha	-1035
▁airde	-1036
▁bharr	-1037
▁tarchur	-1038
fa	-1039
▁j	-1040
▁ta	-1041
▁fós	-1042
bairt	-1043
gnóis	-1044
▁2019	-1045
▁cabh	-1046
▁tábh	-1047
▁garth	-1048
▁leanú	-1049
luaiseachtaí	-1050
▁P	-1051
ang	-1052
▁23	-1053
▁tac	-1054
▁deac	-1055
▁imní	-1056
mhithe	-1057
nachta	-1058
▁othar	-1059
▁dochtúir	-1060
▁éigeandála	-1061
cs	-1062
es	-1063
aoin	-1064
éamh	-1065
iaidh	-1066
▁Mura	-1067
▁sain	-1068
▁mheas	-1069
aistigh	-1070
op	-1071
aisn	-1072
aobh	-1073
▁más	-1074
álach	-1075
▁ceal	-1076
▁eolas	-1077
aisnéis	-1078
▁cheann	-1079
óireacht	-1080
sí	-1081
▁12	-1082
▁chó	-1083
▁nol	-1084
▁cosc	-1085
▁síos	-1086
▁teor	-1087
▁cliath	-1088
▁iompar	-1089
▁láithr	-1090
eitheamh	-1091
eastaíonn	-1092
▁rialtais	-1093
▁coraintín	-1094
náis	-1095
▁thr	-1096
▁tóg	-1097
áistí	-1098
▁iarr	-1099
▁líne	-1100
daithe	-1101
▁iodáil	-1102
▁soláth	-1103
▁taisteal	-1104
▁meitheamh	-1105
ene	-1106
faí	-1107
tra	-1108
ách	-1109
éit	-1110
▁13	-1111
▁oll	-1112
▁leag	-1113
eastal	-1114
▁clinic	-1115
▁fiabhras	-1116
oil	-1117
óil	-1118
▁ár	-1119
éimh	-1120
▁Cuireadh	-1121
dar	-1122
tiú	-1123
▁ae	-1124
aisp	-1125
iond	-1126
▁ais	-1127
▁chú	-1128
▁cru	-1129
▁fss	-1130
raith	-1131
ugtar	-1132
▁fliú	-1133
▁meán	-1134
▁2020.	-1135
▁Nuair	-1136
▁sampla	-1137
▁dáileog	-1138
▁gcoinne	-1139
▁ndaoine	-1140
náisiúnta	-1141
▁laistigh	-1142
▁dteagmháil	-1143
1,	-1144
ná	-1145
eis	-1146
ing	-1147
íol	-1148
▁22	-1149
▁ró	-1150
ears	-1151
uill	-1152
áirt	-1153
▁pob	-1154
agann	-1155
▁héir	-1156
▁cionn	-1157
▁rianú	-1158
itianta	-1159
▁fhéadf	-1160
fr	-1161
oig	-1162
▁cuid	-1163
▁drug	-1164
iagnóis	-1165
rachtaí	-1166
▁imdhío	-1167
airíonna	-1168
▁dhiaidh	-1169
▁tháinig	-1170
▁bunaithe	-1171
▁chomharthaí	-1172
▁idirnáisiúnta	-1173
eap	-1174
eil	-1175
ibr	-1176
óid	-1177
▁Sc	-1178
aigin	-1179
chtaí	-1180
▁fair	-1181
abhair	-1182
aighde	-1183
▁Léigh	-1184
▁chloig	-1185
▁cúraim	-1186
▁mhéadar	-1187
▁iarracht	-1188
▁ainmhithe	-1189
om	-1190
▁18	-1191
▁pl	-1192
aise	-1193
obal	-1194
▁gcó	-1195
tharl	-1196
▁baint	-1197
▁chosc	-1198
raothar	-1199
▁fhreag	-1200
▁áirithe	-1201
▁oibrithe	-1202
mpt	-1203
▁30	-1204
▁thu	-1205
▁thóg	-1206
▁daonna	-1207
▁dhuine	-1208
▁galair	-1209
▁sholáth	-1210
▁freastal	-1211
▁seirbhísí	-1212
laí	-1213
lín	-1214
▁16	-1215
áirg	-1216
éann	-1217
eatha	-1218
▁tapa	-1219
staint	-1220
▁ndéan	-1221
▁pears	-1222
▁díreach	-1223
▁deireadh	-1224
árta	-1225
▁200	-1226
▁fiú	-1227
▁mho	-1228
aithn	-1229
aíonn	-1230
▁céim	-1231
▁stát	-1232
▁tíre	-1233
raithe	-1234
▁réamh	-1235
▁bhaint	-1236
▁staidéar	-1237
raothartach	-1238
▁chomhairle	-1239
▁í	-1240
ioc	-1241
aoil	-1242
údar	-1243
▁Ach	-1244
ógais	-1245
▁cúis	-1246
▁fhág	-1247
éimhse	-1248
invíris	-1249
iúltach	-1250
▁sheach	-1251
ionfhabh	-1252
▁dhearbh	-1253
▁thagann	-1254
▁básmhair	-1255
▁próitéin	-1256
▁áiteanna	-1257
▁coitianta	-1258
▁imdhíonachta	-1259
.3	-1260
aif	-1261
omh	-1262
rúpa	-1263
tair	-1264
▁Tar	-1265
ghabh	-1266
ineál	-1267
reise	-1268
▁dara	-1269
▁rogh	-1270
achtar	-1271
innigh	-1272
▁eagra	-1273
▁rialú	-1274
▁glaoch	-1275
eachtach	-1276
▁bunúsacha	-1277
▁pearsanta	-1278
▁foláireamh	-1279
iv	-1280
úl	-1281
tae	-1282
▁2,	-1283
fear	-1284
lúth	-1285
únta	-1286
ailiú	-1287
aradh	-1288
oltar	-1289
▁fíne	-1290
▁méid	-1291
arthas	-1292
iscint	-1293
osaigh	-1294
▁caith	-1295
▁déine	-1296
▁fearr	-1297
▁gcomh	-1298
▁bheidh	-1299
▁cabhrú	-1300
aireacht	-1301
▁ialtóga	-1302
▁z	-1303
eán	-1304
fra	-1305
nna	-1306
▁26	-1307
iúmó	-1308
▁eit	-1309
▁rna	-1310
▁pian	-1311
ealamh	-1312
▁chinn	-1313
▁chúis	-1314
▁mbaile	-1315
ubstaint	-1316
▁mbásanna	-1317
rán	-1318
▁sí	-1319
bhar	-1320
▁Amh	-1321
▁Ina	-1322
▁cón	-1323
▁eas	-1324
▁sla	-1325
aonrú	-1326
iúint	-1327
untas	-1328
▁Faoi	-1329
▁gcás	-1330
▁teas	-1331
▁timp	-1332
láinte	-1333
ruithe	-1334
▁antas	-1335
▁seach	-1336
ialacha	-1337
iúmóine	-1338
▁amhras	-1339
▁mhárta	-1340
uilleadh	-1341
▁saotharl	-1342
▁hairíonna	-1343
dc	-1344
▁Ú	-1345
iúr	-1346
ost	-1347
▁25	-1348
▁nú	-1349
▁dea	-1350
▁dta	-1351
▁dtr	-1352
▁ainm	-1353
▁aire	-1354
▁fola	-1355
▁níor	-1356
▁uait	-1357
scailt	-1358
▁ansin	-1359
▁beidh	-1360
▁ceart	-1361
eantair	-1362
lúdaigh	-1363
▁cheana	-1364
▁daonra	-1365
▁feidhm	-1366
▁domhanda	-1367
▁víreasach	-1368
▁thuairiscigh	-1369
0%	-1370
sta	-1371
chúr	-1372
eang	-1373
rain	-1374
▁lig	-1375
▁éil	-1376
▁arís	-1377
▁bhrí	-1378
▁forl	-1379
▁sula	-1380
▁ndear	-1381
eiceáil	-1382
ianaise	-1383
íobháid	-1384
▁Amhail	-1385
▁leanbh	-1386
▁mbíonn	-1387
▁éadrom	-1388
romchúis	-1389
▁neamhsh	-1390
eagmhálaí	-1391
▁héireann	-1392
mhíochaine	-1393
▁míochaine	-1394
▁sraothartach	-1395
▁ghluaiseachtaí	-1396
bhr	-1397
▁1,	-1398
▁Ús	-1399
eich	-1400
rtha	-1401
▁uir	-1402
mptóm	-1403
▁Níor	-1404
▁aims	-1405
▁eorp	-1406
víreas	-1407
▁gcuir	-1408
▁measa	-1409
▁Úsáid	-1410
álaithe	-1411
▁deimhn	-1412
▁ionaid	-1413
▁pobail	-1414
▁cosanta	-1415
▁covanna	-1416
eolaíocht	-1417
▁chásanna	-1418
eolaíochta	-1419
▁bpaindéim	-1420
▁géarmhíochaine	-1421
▁ionfhabhtuithe	-1422
3,	-1423
ifr	-1424
nat	-1425
▁17	-1426
itiú	-1427
laig	-1428
mhór	-1429
ógas	-1430
▁202	-1431
▁ama	-1432
cháin	-1433
lanna	-1434
▁Lean	-1435
▁baol	-1436
▁mhór	-1437
eánach	-1438
▁conas	-1439
▁drugaí	-1440
▁sláint	-1441
▁treoir	-1442
▁nollaig	-1443
▁dhéanann	-1444
▁láithreach	-1445
▁tábhachtach	-1446
ns	-1447
to	-1448
che	-1449
pad	-1450
▁28	-1451
aois	-1452
aolú	-1453
eicn	-1454
rath	-1455
zene	-1456
éarm	-1457
▁eol	-1458
▁hio	-1459
chuir	-1460
eoidh	-1461
▁scag	-1462
▁súil	-1463
athair	-1464
zeneca	-1465
▁cófra	-1466
▁dhéan	-1467
eachtain	-1468
ubstaintí	-1469
▁ollscoil	-1470
▁ospidéil	-1471
▁rianaire	-1472
▁sheachaint	-1473
lo	-1474
▁k	-1475
ghal	-1476
nama	-1477
▁sín	-1478
▁Agus	-1479
▁bain	-1480
▁dtús	-1481
ghlaim	-1482
teacht	-1483
▁chéim	-1484
▁gcéad	-1485
▁laeth	-1486
▁rinne	-1487
ataigin	-1488
▁dtugtar	-1489
trazeneca	-1490
óireachta	-1491
▁timpeall	-1492
▁eagraíocht	-1493
▁choróinvíris	-1494
ga	-1495
róm	-1496
▁21	-1497
▁3,	-1498
▁pá	-1499
▁sm	-1500
imid	-1501
llmh	-1502
oibr	-1503
oigh	-1504
▁dío	-1505
▁phl	-1506
fraic	-1507
ibear	-1508
lacht	-1509
tráil	-1510
íochán	-1511
▁dheir	-1512
▁dhomh	-1513
iondróm	-1514
▁againn	-1515
▁breise	-1516
▁gceart	-1517
▁siopad	-1518
▁niúmóine	-1519
ior	-1520
éif	-1521
▁Dh	-1522
▁mu	-1523
cadh	-1524
fadh	-1525
itis	-1526
onad	-1527
áine	-1528
éacs	-1529
▁fás	-1530
▁phr	-1531
ardaí	-1532
eiric	-1533
iméad	-1534
▁aige	-1535
▁bhun	-1536
▁fion	-1537
▁fios	-1538
▁stop	-1539
▁Dúirt	-1540
▁córas	-1541
▁rudaí	-1542
inneach	-1543
▁láimhe	-1544
▁reatha	-1545
▁suntas	-1546
▁chibear	-1547
▁comhair	-1548
▁áireamh	-1549
▁faisnéis	-1550
▁tuairisc	-1551
▁fhorbairt	-1552
▁sábháilte	-1553
nú	-1554
irí	-1555
lat	-1556
únú	-1557
▁Ro	-1558
▁di	-1559
▁dhí	-1560
▁eac	-1561
▁ear	-1562
▁str	-1563
iosta	-1564
róidh	-1565
▁cúig	-1566
▁dian	-1567
▁fada	-1568
▁glan	-1569
▁nasc	-1570
▁údar	-1571
eannta	-1572
ghlach	-1573
▁athrú	-1574
▁bhéal	-1575
▁dlúth	-1576
▁dúnta	-1577
▁gnáth	-1578
▁méadú	-1579
mparáid	-1580
▁amhail	-1581
▁bliana	-1582
▁oiread	-1583
▁spreag	-1584
eachtais	-1585
▁cosaint	-1586
▁chinntiú	-1587
▁diagnóis	-1588
▁diúltach	-1589
▁riochtaí	-1590
▁tréimhse	-1591
▁dhomhanda	-1592
▁imeachtaí	-1593
▁oideachais	-1594
29	-1595
ter	-1596
▁aic	-1597
▁pol	-1598
airtí	-1599
arasc	-1600
eocht	-1601
shlat	-1602
éanna	-1603
▁nádú	-1604
▁saor	-1605
eithre	-1606
scoile	-1607
▁díobh	-1608
▁maisc	-1609
▁scamh	-1610
▁shrón	-1611
▁taobh	-1612
▁thugann	-1613
▁uachtar	-1614
▁paindéime	-1615
▁seirbhíse	-1616
▁tromchúis	-1617
▁seachtaine	-1618
▁theastaíonn	-1619
▁vacsaínithe	-1620
▁éifeachtach	-1621
▁chibearshlat	-1622
aib	-1623
idí	-1624
lis	-1625
eáin	-1626
ghla	-1627
álta	-1628
▁Tug	-1629
rúpaí	-1630
thóir	-1631
▁bith	-1632
▁chon	-1633
▁fhad	-1634
▁Caith	-1635
▁uisce	-1636
aithnid	-1637
▁aonair	-1638
▁leagan	-1639
▁eacnama	-1640
▁cóireáil	-1641
▁dtíortha	-1642
▁oscailte	-1643
▁trealamh	-1644
▁phaindéim	-1645
▁sholáthar	-1646
▁tástálacha	-1647
▁astrazeneca	-1648
▁coróinvíreas	-1649
br	-1650
me	-1651
ghd	-1652
▁50	-1653
▁In	-1654
▁il	-1655
▁tí	-1656
eadú	-1657
itic	-1658
róis	-1659
éach	-1660
▁Más	-1661
▁cum	-1662
▁gar	-1663
▁gnó	-1664
▁nár	-1665
▁tob	-1666
ailís	-1667
ochta	-1668
▁atho	-1669
▁cath	-1670
▁uimh	-1671
ialach	-1672
mhainn	-1673
naíonn	-1674
éanann	-1675
▁uirth	-1676
▁cruinn	-1677
▁eisigh	-1678
▁gardaí	-1679
▁idirmh	-1680
▁liosta	-1681
▁phobal	-1682
▁scamhóg	-1683
▁scaradh	-1684
▁seachas	-1685
▁Oscailte	-1686
▁hcovanna	-1687
▁staidéir	-1688
▁tabhairt	-1689
▁vacsaíniú	-1690
▁úsáideann	-1691
▁cliniciúla	-1692
cr	-1693
iz	-1694
▁'	-1695
ilt	-1696
▁at	-1697
▁so	-1698
chán	-1699
lann	-1700
úile	-1701
▁cro	-1702
▁ind	-1703
olann	-1704
▁ráta	-1705
▁samh	-1706
áraigh	-1707
▁bhfad	-1708
▁bíonn	-1709
▁dócha	-1710
▁taire	-1711
▁toisc	-1712
illeadh	-1713
lachtaí	-1714
riachta	-1715
▁curtha	-1716
▁fionraí	-1717
▁samplaí	-1718
▁fhéadfaí	-1719
▁thosaigh	-1720
▁fhoireann	-1721
▁rianaithe	-1722
ge	-1723
ein	-1724
▁29	-1725
rais	-1726
▁100	-1727
▁Cén	-1728
▁gin	-1729
chéim	-1730
línte	-1731
oladh	-1732
▁deara	-1733
▁gcaoi	-1734
▁monat	-1735
▁rátaí	-1736
▁speis	-1737
aíochta	-1738
▁dromch	-1739
▁gcónaí	-1740
▁suíomh	-1741
▁uirthi	-1742
▁anailís	-1743
▁chlinic	-1744
▁taighde	-1745
▁thógáil	-1746
▁tinneas	-1747
iallaíonn	-1748
▁teastáil	-1749
▁tógálach	-1750
▁seachtain	-1751
▁antasubstaintí	-1752
.5	-1753
ab	-1754
.30	-1755
eim	-1756
▁27	-1757
▁31	-1758
▁gr	-1759
▁nu	-1760
aite	-1761
alar	-1762
eans	-1763
▁inn	-1764
▁scr	-1765
dáile	-1766
eicis	-1767
oirch	-1768
éanóm	-1769
íocha	-1770
▁céad	-1771
▁difr	-1772
▁shoc	-1773
▁tosú	-1774
aifead	-1775
duithe	-1776
iteach	-1777
bhreith	-1778
eiriceá	-1779
▁domhan	-1780
▁ghalar	-1781
▁thaist	-1782
▁éirinn	-1783
aíochtaí	-1784
itheoirí	-1785
▁Déantar	-1786
▁bhfaigh	-1787
▁hiodáile	-1788
▁nádúrtha	-1789
▁theannta	-1790
▁leanúnach	-1791
▁coronaviruses	-1792
2,	-1793
eam	-1794
ism	-1795
▁rc	-1796
nais	-1797
óidh	-1798
úram	-1799
▁Gla	-1800
▁the	-1801
iorra	-1802
nithe	-1803
▁coró	-1804
▁foir	-1805
▁marg	-1806
▁muid	-1807
▁slán	-1808
▁srón	-1809
▁tríd	-1810
▁ísle	-1811
aitéis	-1812
▁Bíonn	-1813
▁anois	-1814
▁dúirt	-1815
▁eacht	-1816
▁fhios	-1817
▁stair	-1818
▁teach	-1819
▁éigin	-1820
ghníomh	-1821
iomptóm	-1822
▁coinne	-1823
▁iaráin	-1824
▁Tháinig	-1825
▁tosaigh	-1826
▁beagnach	-1827
▁leibhéil	-1828
▁tuiscint	-1829
▁fhreagairt	-1830
▁shóisialta	-1831
▁neamhriachta	-1832
▁choróinvíreas	-1833
▁gartheagmhálaí	-1834
arc	-1835
lár	-1836
ong	-1837
rio	-1838
▁Mh	-1839
▁no	-1840
reid	-1841
tran	-1842
▁Fan	-1843
▁bhu	-1844
▁brú	-1845
▁iúl	-1846
▁oil	-1847
▁pho	-1848
▁tag	-1849
covid	-1850
ealaí	-1851
rasaí	-1852
throm	-1853
▁Léir	-1854
▁coim	-1855
▁ithe	-1856
▁modh	-1857
▁thea	-1858
daíonn	-1859
oiléir	-1860
▁anseo	-1861
▁anála	-1862
▁ráige	-1863
▁íseal	-1864
covanna	-1865
earálta	-1866
tacháin	-1867
teachas	-1868
▁cinnte	-1869
▁gceist	-1870
▁leithr	-1871
▁oiriún	-1872
▁théann	-1873
▁bhailiú	-1874
▁ceithre	-1875
▁hiomlán	-1876
▁iarraidh	-1877
▁siondróm	-1878
▁tharchur	-1879
▁éifeacht	-1880
▁suntasach	-1881
▁speisialta	-1882
▁saotharlainne	-1883
▁básmhaireachta	-1884
18	-1885
7,	-1886
ed	-1887
eid	-1888
icl	-1889
ire	-1890
las	-1891
ord	-1892
tao	-1893
ána	-1894
▁ua	-1895
inse	-1896
ubei	-1897
éine	-1898
▁ant	-1899
▁níl	-1900
▁soc	-1901
▁tor	-1902
earta	-1903
feadh	-1904
tanas	-1905
▁Bain	-1906
▁Thug	-1907
▁chru	-1908
▁faid	-1909
▁inst	-1910
▁mbás	-1911
chtain	-1912
ástála	-1913
▁Fuair	-1914
▁fásta	-1915
chúraim	-1916
▁cúnamh	-1917
aitheann	-1918
aoiseach	-1919
iúrthóir	-1920
▁chineál	-1921
▁fíneáil	-1922
▁tuarasc	-1923
▁rinneadh	-1924
▁teorainn	-1925
▁anaithnid	-1926
▁caitheamh	-1927
▁dhearfach	-1928
▁deimhnithe	-1929
▁idirmheánach	-1930
▁monatóireacht	-1931
▁neamhshiomptóm	-1932
▁0	-1933
irt	-1934
áit	-1935
▁Cl	-1936
▁Sa	-1937
▁ea	-1938
▁jo	-1939
chtú	-1940
ille	-1941
insí	-1942
irim	-1943
iste	-1944
mhar	-1945
íche	-1946
▁beo	-1947
▁cdc	-1948
▁dlí	-1949
▁fho	-1950
▁rsc	-1951
▁shu	-1952
▁tús	-1953
▁zón	-1954
othar	-1955
uaire	-1956
▁gcon	-1957
▁iomp	-1958
▁móra	-1959
▁pang	-1960
▁páip	-1961
eartha	-1962
eathan	-1963
pháirt	-1964
▁anuas	-1965
▁cóire	-1966
▁dhaon	-1967
▁gnách	-1968
▁hubei	-1969
▁núicl	-1970
▁tobac	-1971
teachta	-1972
▁déanta	-1973
▁géanóm	-1974
▁nochta	-1975
▁slaghd	-1976
▁uimhir	-1977
▁zónóis	-1978
aispeáin	-1979
eimhnigh	-1980
▁básanna	-1981
▁eorpach	-1982
▁ghníomh	-1983
▁Coinnigh	-1984
▁shláinte	-1985
▁chuireann	-1986
▁dheireadh	-1987
▁hionfhabh	-1988
▁faireachas	-1989
▁riachtanach	-1990
%)	-1991
.2	-1992
1.	-1993
ap	-1994
gp	-1995
ast	-1996
hon	-1997
orn	-1998
íse	-1999
airí	-2000
▁Tóg	-2001
▁abh	-2002
▁chr	-2003
▁col	-2004
▁éin	-2005
abhar	-2006
aíodh	-2007
liana	-2008
raoin	-2009
▁Chun	-2010
▁cead	-2011
▁dtos	-2012
▁páir	-2013
▁riar	-2014
▁siar	-2015
▁trom	-2016
▁tríú	-2017
abhadh	-2018
riosca	-2019
▁Féadf	-2020
▁coinn	-2021
íocháin	-2022
▁afraic	-2023
▁chóiré	-2024
▁eoraip	-2025
▁gharth	-2026
▁leanas	-2027
▁ligean	-2028
▁mhaolú	-2029
▁rialta	-2030
▁réigiú	-2031
▁ríocht	-2032
▁scaoil	-2033
▁nóiméad	-2034
▁Rinneadh	-2035
▁clúdaigh	-2036
▁sháraigh	-2037
▁straitéis	-2038
▁tuilleadh	-2039
ismitheoirí	-2040
▁éigeantach	-2041
,8	-2042
."	-2043
.4	-2044
13	-2045
ie	-2046
iu	-2047
cho	-2048
fen	-2049
ins	-2050
ipe	-2051
óca	-2052
▁Dá	-2053
▁Le	-2054
▁hu	-2055
aimh	-2056
ealú	-2057
isic	-2058
izer	-2059
álaí	-2060
▁par	-2061
▁tru	-2062
ailte	-2063
aimid	-2064
llach	-2065
seáil	-2066
▁Comh	-2067
▁Meas	-2068
▁aice	-2069
▁chum	-2070
▁dáta	-2071
▁héif	-2072
▁sine	-2073
▁siúl	-2074
aiscum	-2075
uashon	-2076
▁baile	-2077
▁chorp	-2078
▁figiú	-2079
▁ghear	-2080
▁seich	-2081
▁teicn	-2082
▁theor	-2083
▁táirg	-2084
▁ullmh	-2085
tranais	-2086
▁cógais	-2087
▁tharla	-2088
▁aithint	-2089
▁cónaith	-2090
▁phoiblí	-2091
▁údaráis	-2092
eisteanna	-2093
▁vacsaíne	-2094
▁altranais	-2095
▁chóireáil	-2096
▁ndearnadh	-2097
▁rialuithe	-2098
▁athoscailt	-2099
▁chomhartha	-2100
▁tseachtain	-2101
▁dhearbhaigh	-2102
▁riachtanais	-2103
ba	-2104
ut	-2105
der	-2106
hio	-2107
▁dú	-2108
-229	-2109
asta	-2110
cair	-2111
chum	-2112
scrú	-2113
éirí	-2114
óirt	-2115
▁cal	-2116
▁joh	-2117
stáin	-2118
▁Nigh	-2119
▁bhro	-2120
▁clár	-2121
▁croí	-2122
▁féid	-2123
▁rcgp	-2124
▁réim	-2125
▁séas	-2126
▁téar	-2127
eoladh	-2128
onrach	-2129
▁aonrú	-2130
▁brath	-2131
▁facht	-2132
▁faide	-2133
▁ngach	-2134
▁tirim	-2135
▁áfach	-2136
eannach	-2137
uarthas	-2138
unaithe	-2139
▁critic	-2140
▁húsáid	-2141
▁sciath	-2142
anntanas	-2143
▁dhúnadh	-2144
▁fómhair	-2145
▁áitiúil	-2146
▁áitiúla	-2147
▁léiríonn	-2148
▁tarchuir	-2149
▁buinneach	-2150
▁oideachas	-2151
▁tacaíocht	-2152
▁forleathan	-2153
▁deacrachtaí	-2154
▁gartheagmháil	-2155
43	-2156
8,	-2157
eád	-2158
lag	-2159
niú	-2160
olg	-2161
tac	-2162
tán	-2163
éag	-2164
▁ur	-2165
▁ío	-2166
▁ós	-2167
inte	-2168
iúin	-2169
líne	-2170
▁míl	-2171
danna	-2172
fizer	-2173
níodh	-2174
obail	-2175
oifig	-2176
rainc	-2177
rnach	-2178
▁díot	-2179
▁fóin	-2180
▁teir	-2181
lachta	-2182
lúnach	-2183
naíodh	-2184
reacha	-2185
▁Conas	-2186
▁foirm	-2187
▁johns	-2188
▁seala	-2189
▁díghal	-2190
▁siopaí	-2191
▁tháirg	-2192
▁toirch	-2193
eachtadh	-2194
eirbhísí	-2195
iocfaidh	-2196
raoiníní	-2197
▁billiún	-2198
▁eisíodh	-2199
▁fhrainc	-2200
▁folláin	-2201
▁acmhainn	-2202
▁fianaise	-2203
▁figiúirí	-2204
▁filleadh	-2205
▁fuarthas	-2206
▁leanúint	-2207
▁mhilliún	-2208
▁teoranta	-2209
▁seicheamh	-2210
▁beartaithe	-2211
▁ginearálta	-2212
▁frithvíreas	-2213
ól	-2214
drá	-2215
ind	-2216
mra	-2217
ort	-2218
▁cá	-2219
▁ra	-2220
alta	-2221
lóid	-2222
tigh	-2223
▁bhl	-2224
▁cad	-2225
▁cén	-2226
▁lán	-2227
▁mic	-2228
▁shr	-2229
▁trá	-2230
▁breo	-2231
▁fear	-2232
▁gcor	-2233
▁glas	-2234
▁mhic	-2235
▁tiom	-2236
aispeá	-2237
óstach	-2238
▁agóid	-2239
▁bhfor	-2240
▁moill	-2241
▁oibrí	-2242
▁uathu	-2243
eananna	-2244
▁Tugann	-2245
▁chóras	-2246
▁contae	-2247
▁úsáide	-2248
▁abhaile	-2249
▁frithdh	-2250
▁hothair	-2251
▁níochán	-2252
▁shonraí	-2253
▁éileamh	-2254
▁dhearbhú	-2255
▁institiú	-2256
▁leanacht	-2257
▁leithlis	-2258
▁éineacht	-2259
▁aitheanta	-2260
▁freagairt	-2261
▁gallúnach	-2262
▁príobháid	-2263
▁ráigeanna	-2264
▁faireachais	-2265
▁treoirlínte	-2266
5,	-2267
63	-2268
ku	-2269
ít	-2270
nal	-2271
nar	-2272
riú	-2273
wab	-2274
árú	-2275
éig	-2276
óra	-2277
▁”.	-2278
aing	-2279
▁cam	-2280
▁spá	-2281
▁íos	-2282
▁óna	-2283
aisin	-2284
isiún	-2285
▁báis	-2286
▁luan	-2287
▁shao	-2288
▁treo	-2289
aibéit	-2290
▁aisce	-2291
▁cónaí	-2292
▁fisic	-2293
▁mheán	-2294
▁rogha	-2295
▁thair	-2296
éarmach	-2297
▁amuigh	-2298
▁chúram	-2299
▁foirne	-2300
▁giorra	-2301
▁huaire	-2302
▁mhéadú	-2303
▁shocrú	-2304
▁spóirt	-2305
▁thaobh	-2306
▁theach	-2307
▁bhféadf	-2308
▁chéanna	-2309
▁fheidhm	-2310
▁nuashon	-2311
▁náisiún	-2312
▁pháistí	-2313
▁soiléir	-2314
▁taifead	-2315
▁éiríonn	-2316
aibéiteas	-2317
▁bhealach	-2318
▁chathair	-2319
▁ghlanadh	-2320
▁leathadh	-2321
▁rochtain	-2322
▁scaipthe	-2323
▁sheoladh	-2324
aireachtaí	-2325
▁próitéiní	-2326
▁sealadach	-2327
▁uaireanta	-2328
▁Dheimhnigh	-2329
▁féideartha	-2330
▁sláintiúil	-2331
▁frithdhúnadh	-2332
.,	-2333
50	-2334
cm	-2335
et	-2336
ul	-2337
-2.	-2338
ata	-2339
bla	-2340
feá	-2341
icí	-2342
ils	-2343
órt	-2344
▁60	-2345
▁Do	-2346
▁Gh	-2347
▁Tr	-2348
▁ha	-2349
▁mú	-2350
▁se	-2351
annú	-2352
eirt	-2353
máin	-2354
tech	-2355
áise	-2356
▁201	-2357
▁fan	-2358
▁mná	-2359
▁mol	-2360
▁phe	-2361
aisle	-2362
asamh	-2363
raigh	-2364
ánach	-2365
íomhá	-2366
órais	-2367
▁Cabh	-2368
▁acla	-2369
▁bhia	-2370
▁fáth	-2371
▁hion	-2372
▁infh	-2373
▁póca	-2374
▁rith	-2375
▁séir	-2376
rasaíl	-2377
ualadh	-2378
▁eagla	-2379
▁fhliú	-2380
▁scoth	-2381
▁trump	-2382
▁pfizer	-2383
▁scoile	-2384
▁teocht	-2385
▁tionsc	-2386
aiscumar	-2387
eannacht	-2388
éarchéim	-2389
▁Léirigh	-2390
▁bhfuair	-2391
▁luaithe	-2392
▁léirigh	-2393
▁mbliana	-2394
▁rialach	-2395
▁bhainist	-2396
▁chlúdach	-2397
▁dhéantar	-2398
▁foghlaim	-2399
▁bhrollach	-2400
▁láimhseáil	-2401
▁stiúrthóir	-2402
▁éifeachtaí	-2403
▁básmhaireacht	-2404
.8	-2405
94	-2406
fí	-2407
go	-2408
ue	-2409
ise	-2410
mpl	-2411
▁Cu	-2412
▁re	-2413
▁sl	-2414
eách	-2415
ichí	-2416
nell	-2417
osta	-2418
éite	-2419
▁dro	-2420
▁lim	-2421
▁pro	-2422
aighd	-2423
aosta	-2424
iforn	-2425
ionad	-2426
lúine	-2427
áirtí	-2428
éithe	-2429
▁asat	-2430
▁dhír	-2431
▁dtar	-2432
▁ghin	-2433
▁hath	-2434
▁mall	-2435
▁rúis	-2436
bartha	-2437
hiodrá	-2438
naithe	-2439
úlacht	-2440
▁caill	-2441
▁foils	-2442
▁ghabh	-2443
▁ghlas	-2444
▁grúpa	-2445
▁meáin	-2446
▁seans	-2447
▁téigh	-2448
▁íomhá	-2449
ialanna	-2450
imsíonn	-2451
úlachta	-2452
▁Braith	-2453
▁eolais	-2454
▁gcaith	-2455
▁ngarth	-2456
▁óstáin	-2457
íollacha	-2458
▁bualadh	-2459
▁déanamh	-2460
▁glaoigh	-2461
▁thuaidh	-2462
ineálacha	-2463
▁californ	-2464
▁dromchla	-2465
▁labhairt	-2466
▁meiriceá	-2467
▁scornach	-2468
▁thíortha	-2469
eoireachta	-2470
▁thaisteal	-2471
▁trialacha	-2472
▁Ciallaíonn	-2473
▁athbhreith	-2474
▁bhfoireann	-2475
▁fíneálacha	-2476
▁laghdaithe	-2477
▁scothaosta	-2478
▁suíomhanna	-2479
▁víreasacha	-2480
coróinvíreas	-2481
▁sábháilteachta	-2482
▁siopadóireachta	-2483
".	-2484
..	-2485
60	-2486
65	-2487
9,	-2488
95	-2489
bo	-2490
cp	-2491
cu	-2492
fó	-2493
si	-2494
tu	-2495
ant	-2496
fho	-2497
lac	-2498
org	-2499
pro	-2500
rna	-2501
tic	-2502
tin	-2503
ual	-2504
ódh	-2505
▁(3	-2506
▁40	-2507
▁só	-2508
▁úr	-2509
chta	-2510
eafó	-2511
eict	-2512
eobh	-2513
gann	-2514
impl	-2515
laim	-2516
oils	-2517
onch	-2518
phen	-2519
sars	-2520
▁4,9	-2521
▁gcl	-2522
▁lee	-2523
▁pló	-2524
▁ste	-2525
▁uas	-2526
▁óga	-2527
asach	-2528
illiú	-2529
ospid	-2530
rótac	-2531
thach	-2532
▁ardú	-2533
▁arna	-2534
▁chol	-2535
▁dóch	-2536
▁fhón	-2537
▁géin	-2538
▁hiar	-2539
▁swab	-2540
chúram	-2541
eannas	-2542
eapáin	-2543
ghlama	-2544
scrúdú	-2545
▁easpa	-2546
▁eitil	-2547
▁ionas	-2548
▁leoch	-2549
▁mórán	-2550
▁neart	-2551
▁plean	-2552
▁tarlú	-2553
▁téacs	-2554
iontech	-2555
ránaigh	-2556
▁chumas	-2557
▁ghrúpa	-2558
▁mheabh	-2559
▁nollag	-2560
▁saoire	-2561
eobhaidh	-2562
eolaithe	-2563
inteoirí	-2564
▁Déanann	-2565
▁Glaoigh	-2566
▁Tabhair	-2567
▁freagra	-2568
▁johnson	-2569
▁phobail	-2570
oifigeach	-2571
▁Cuireann	-2572
▁aireacht	-2573
▁amhrasta	-2574
▁ceantair	-2575
▁imeachta	-2576
▁ndéantar	-2577
▁pataigin	-2578
▁shrianta	-2579
▁tseapáin	-2580
aispeánann	-2581
uairiscigh	-2582
▁taiscumar	-2583
▁taoiseach	-2584
▁cleachtais	-2585
▁cliniciúil	-2586
▁gcomparáid	-2587
▁zónóiseach	-2588
▁éigeandáil	-2589
▁diaibéiteas	-2590
▁dianchúraim	-2591
▁Thuairiscigh	-2592
▁sábháilteacht	-2593
▁tromchúiseacha	-2594
.7	-2595
4,	-2596
6,	-2597
ti	-2598
-2,	-2599
eat	-2600
eál	-2601
iní	-2602
▁Sp	-2603
▁ne	-2604
▁”,	-2605
-19)	-2606
adhb	-2607
eamó	-2608
east	-2609
iail	-2610
éanó	-2611
▁4,8	-2612
▁Ath	-2613
▁ail	-2614
▁alc	-2615
▁dar	-2616
▁fhr	-2617
▁fón	-2618
▁nas	-2619
naigh	-2620
tacha	-2621
▁ains	-2622
▁ball	-2623
▁chug	-2624
▁gabh	-2625
▁gair	-2626
▁mich	-2627
▁scrú	-2628
▁thír	-2629
aicéit	-2630
athúil	-2631
aítear	-2632
bhlóid	-2633
chtúra	-2634
ineach	-2635
▁2021,	-2636
▁Chomh	-2637
▁Seach	-2638
▁aonad	-2639
▁béite	-2640
▁cógas	-2641
▁dháil	-2642
▁dhíon	-2643
▁gcéim	-2644
▁india	-2645
▁moder	-2646
▁nocht	-2647
▁núíos	-2648
▁roghn	-2649
▁slabh	-2650
▁toirm	-2651
▁veict	-2652
▁éasca	-2653
róiseas	-2654
▁Deimhn	-2655
▁Moltar	-2656
▁bpobal	-2657
▁gcóras	-2658
▁láidir	-2659
▁martin	-2660
▁páistí	-2661
▁scagth	-2662
▁spáinn	-2663
ghabháil	-2664
▁bhliain	-2665
▁buailte	-2666
▁chruthú	-2667
▁chórais	-2668
▁deacair	-2669
▁dtagann	-2670
▁fhágann	-2671
▁fhéadfá	-2672
▁ndearna	-2673
▁phríomh	-2674
▁riarach	-2675
▁seachad	-2676
▁stephen	-2677
▁stopadh	-2678
▁éadroma	-2679
▁aimsíodh	-2680
▁coinnigh	-2681
▁cóireála	-2682
▁domhnach	-2683
▁leathair	-2684
▁leigheas	-2685
▁leochail	-2686
▁réigiúin	-2687
▁toirchis	-2688
▁Féadfaidh	-2689
▁análaithe	-2690
▁athruithe	-2691
▁dochtúirí	-2692
▁fachtóirí	-2693
▁gceantair	-2694
▁ghearmáin	-2695
▁plódaithe	-2696
▁teaghlach	-2697
▁éifeachta	-2698
▁iarrachtaí	-2699
▁leithlisiú	-2700
▁rialacháin	-2701
▁tharlaíonn	-2702
▁theaghlach	-2703
▁víreolaíoch	-2704
▁coinníollacha	-2705
▁ngluaiseachtaí	-2706
▁siopadóireacht	-2707
%.	-2708
.1	-2709
eip	-2710
oid	-2711
álú	-2712
íce	-2713
▁(2	-2714
▁37	-2715
▁Sh	-2716
▁ci	-2717
▁en	-2718
easc	-2719
eora	-2720
inbh	-2721
roid	-2722
íola	-2723
▁ana	-2724
▁bog	-2725
▁mhu	-2726
▁tur	-2727
eamól	-2728
inneo	-2729
leách	-2730
mhach	-2731
nelly	-2732
níomh	-2733
oirth	-2734
raing	-2735
scéal	-2736
áilte	-2737
▁Iarr	-2738
▁Lagh	-2739
▁airg	-2740
▁aist	-2741
▁atos	-2742
▁chón	-2743
▁coic	-2744
▁fíor	-2745
▁ghnó	-2746
▁mhol	-2747
▁rang	-2748
▁raon	-2749
▁tacú	-2750
ileáin	-2751
▁Faigh	-2752
▁análú	-2753
▁beart	-2754
▁beirt	-2755
▁bhonn	-2756
▁chead	-2757
▁naíon	-2758
eithimh	-2759
speicis	-2760
▁Molann	-2761
▁Tugtar	-2762
▁breith	-2763
▁earraí	-2764
▁fhoils	-2765
▁haoine	-2766
▁istigh	-2767
▁limist	-2768
▁réimsí	-2769
▁scrios	-2770
▁trácht	-2771
shláinte	-2772
▁chuairt	-2773
▁clainne	-2774
▁margadh	-2775
▁mholtar	-2776
▁micheál	-2777
▁moderna	-2778
aireachas	-2779
▁donnelly	-2780
▁forbairt	-2781
▁braoiníní	-2782
▁ganntanas	-2783
▁paraicéit	-2784
▁phróitéin	-2785
▁sciatháin	-2786
▁theorannú	-2787
▁uachtarán	-2788
▁cineálacha	-2789
▁cruinnithe	-2790
▁eacnamaíoch	-2791
▁riachtanacha	-2792
▁tuismitheoirí	-2793
▁paraicéiteamól	-2794
0,	-2795
48	-2796
66	-2797
ec	-2798
ik	-2799
nl	-2800
mar	-2801
tor	-2802
▁48	-2803
▁ad	-2804
▁fl	-2805
▁gl	-2806
▁ir	-2807
▁rt	-2808
▁ól	-2809
cúnú	-2810
iall	-2811
iamh	-2812
iúna	-2813
olog	-2814
ordú	-2815
osca	-2816
thas	-2817
treo	-2818
áinl	-2819
▁Cad	-2820
▁For	-2821
▁Ion	-2822
▁ace	-2823
▁asl	-2824
▁dtu	-2825
▁hom	-2826
▁ins	-2827
▁ndú	-2828
▁pcr	-2829
andam	-2830
chomh	-2831
earbh	-2832
facha	-2833
igiún	-2834
tharn	-2835
ínigh	-2836
▁Glan	-2837
▁bhrú	-2838
▁fadt	-2839
▁fadú	-2840
▁mbun	-2841
▁mhar	-2842
▁mrna	-2843
▁shin	-2844
▁tair	-2845
▁thit	-2846
▁tuir	-2847
▁éirí	-2848
raíodh	-2849
▁2019,	-2850
▁Ionad	-2851
▁Rinne	-2852
▁ailse	-2853
▁athmh	-2854
▁bheag	-2855
▁linbh	-2856
▁mbain	-2857
▁meabh	-2858
▁meách	-2859
▁ríomh	-2860
▁ábhar	-2861
amáiste	-2862
fheidhm	-2863
áineadh	-2864
▁Tabhar	-2865
▁bailiú	-2866
▁choinn	-2867
▁chógas	-2868
▁cocúnú	-2869
▁dtithe	-2870
▁ghéanó	-2871
▁grúpaí	-2872
▁moladh	-2873
▁paisin	-2874
▁pangol	-2875
▁randam	-2876
▁scoite	-2877
▁shúile	-2878
aibheath	-2879
▁bealach	-2880
▁coimeád	-2881
▁imeacht	-2882
▁iompair	-2883
▁nósanna	-2884
▁oiriúnú	-2885
▁ordaigh	-2886
▁réigiún	-2887
▁saoráid	-2888
▁satharn	-2889
▁sonrach	-2890
▁Seachain	-2891
▁bhrasaíl	-2892
▁dochtúra	-2893
▁fhorbair	-2894
▁ghlacadh	-2895
▁laethúla	-2896
▁leithris	-2897
▁macasamh	-2898
▁ndéanann	-2899
▁slaghdán	-2900
▁éabhlóid	-2901
ábhachtach	-2902
▁chinneadh	-2903
▁limistéar	-2904
▁méadaithe	-2905
▁nuashonrú	-2906
▁scriosadh	-2907
▁soláthair	-2908
airshláinte	-2909
▁freagartha	-2910
▁sheirbhísí	-2911
▁straitéisí	-2912
aibheathaigh	-2913
▁chliniciúil	-2914
▁gcoróinvíreas	-2915
▁ollscoileanna	-2916
▁teicneolaíocht	-2917
07	-2918
37	-2919
pp	-2920
sú	-2921
yl	-2922
yn	-2923
dla	-2924
fss	-2925
hku	-2926
iam	-2927
ros	-2928
róg	-2929
tad	-2930
usa	-2931
úin	-2932
úsh	-2933
▁38	-2934
▁Na	-2935
▁Rá	-2936
▁ab	-2937
▁bó	-2938
▁te	-2939
aird	-2940
alla	-2941
idhm	-2942
iomp	-2943
ivet	-2944
róif	-2945
rúil	-2946
scla	-2947
íniú	-2948
▁Sna	-2949
▁aig	-2950
▁clo	-2951
▁deo	-2952
▁ith	-2953
▁lit	-2954
▁ról	-2955
aiste	-2956
atáin	-2957
chadh	-2958
mheas	-2959
íteas	-2960
▁chlé	-2961
▁cian	-2962
▁cáis	-2963
▁gurb	-2964
▁iúil	-2965
▁leic	-2966
▁nigh	-2967
▁rann	-2968
▁teag	-2969
▁éard	-2970
▁óige	-2971
aidhme	-2972
arsáid	-2973
daíodh	-2974
eangal	-2975
iseadh	-2976
stacha	-2977
▁aidhm	-2978
▁chill	-2979
▁civet	-2980
▁coisc	-2981
▁cothú	-2982
▁fadhb	-2983
▁faigh	-2984
▁fheic	-2985
▁féach	-2986
▁gasta	-2987
▁mílte	-2988
▁sceid	-2989
▁sheol	-2990
▁thion	-2991
iocfadh	-2992
lastach	-2993
ochtúir	-2994
thaíonn	-2995
▁Maidir	-2996
▁braith	-2997
▁chugat	-2998
▁chuige	-2999
▁córais	-3000
▁éadach	-3001
aisteach	-3002
▁Fanacht	-3003
▁Meastar	-3004
▁astráil	-3005
▁déantar	-3006
▁eitiltí	-3007
▁fhágáil	-3008
▁glacadh	-3009
▁imdhíon	-3010
▁scagadh	-3011
aispeáint	-3012
eolaíocha	-3013
▁Fuarthas	-3014
▁biontech	-3015
▁bunúsach	-3016
▁dáileoga	-3017
▁fhreagra	-3018
▁iontráil	-3019
▁mbealach	-3020
▁oifigigh	-3021
▁shábháil	-3022
▁torracha	-3023
scoileanna	-3024
▁Déanfaidh	-3025
▁comparáid	-3026
▁céimeanna	-3027
▁deacracht	-3028
▁forbartha	-3029
▁rialaithe	-3030
eagmhálacha	-3031
▁bhfaighidh	-3032
▁chaitheann	-3033
▁gcaithfidh	-3034
▁mheánoirth	-3035
eagmhálaithe	-3036
▁dearbhaíodh	-3037
▁meastacháin	-3038
▁soláthairtí	-3039
▁thuairisciú	-3040
▁athbhreithniú	-3041
▁tromchúiseach	-3042
▁gníomhaíochtaí	-3043
▁ngartheagmháil	-3044
10	-3045
14	-3046
25	-3047
36	-3048
47	-3049
68	-3050
nó	-3051
íd	-3052
olo	-3053
oth	-3054
pla	-3055
scr	-3056
ula	-3057
who	-3058
▁70	-3059
▁Im	-3060
▁oc	-3061
agra	-3062
ailí	-3063
ainm	-3064
dars	-3065
eill	-3066
itim	-3067
onna	-3068
éard	-3069
▁car	-3070
▁cul	-3071
▁fág	-3072
▁ios	-3073
▁new	-3074
▁ábh	-3075
anann	-3076
arsúr	-3077
iarmh	-3078
iméir	-3079
laigh	-3080
roich	-3081
taigh	-3082
taofa	-3083
teist	-3084
tábla	-3085
tóirí	-3086
uaise	-3087
ábhar	-3088
▁Nach	-3089
▁alfa	-3090
▁béal	-3091
▁chúr	-3092
▁cloí	-3093
▁coth	-3094
▁dhún	-3095
▁dífh	-3096
▁earn	-3097
▁gcur	-3098
▁heag	-3099
▁muin	-3100
▁seas	-3101
▁soch	-3102
▁teil	-3103
▁tusa	-3104
▁uile	-3105
▁éire	-3106
ghleac	-3107
tachán	-3108
▁Roinn	-3109
▁atosú	-3110
▁bhfón	-3111
▁cille	-3112
▁druga	-3113
▁fhost	-3114
▁gearr	-3115
▁iomar	-3116
▁oiriú	-3117
▁siúil	-3118
▁spíce	-3119
▁thuas	-3120
churtha	-3121
eachtas	-3122
ghluais	-3123
rótacal	-3124
éalainn	-3125
▁Dúnadh	-3126
▁aslonn	-3127
▁breoit	-3128
▁bronch	-3129
▁cealla	-3130
▁chealú	-3131
▁cineál	-3132
▁comhdh	-3133
▁críoch	-3134
▁eiseam	-3135
▁imoibr	-3136
▁matáin	-3137
▁minice	-3138
▁ndeach	-3139
▁riocht	-3140
▁sraith	-3141
▁sreabh	-3142
▁séasúr	-3143
▁100,000	-3144
▁chógais	-3145
▁cothrom	-3146
▁dtosach	-3147
▁gcontae	-3148
▁leathnú	-3149
▁mhaithe	-3150
▁páipéar	-3151
▁páipéir	-3152
▁samhain	-3153
aireachta	-3154
▁aibreáin	-3155
▁cinneadh	-3156
▁cúramach	-3157
▁damáiste	-3158
▁díhiodrá	-3159
▁fhormhór	-3160
▁hiaráine	-3161
▁modhanna	-3162
▁níocháin	-3163
▁pangolin	-3164
▁scamhóga	-3165
teistiméir	-3166
áinliachta	-3167
▁Cleachtaí	-3168
▁acmhainní	-3169
▁cathracha	-3170
▁cónaidhme	-3171
▁fhoilsigh	-3172
▁leithreas	-3173
▁maireacht	-3174
▁ndochtúir	-3175
▁roinneann	-3176
▁spreagadh	-3177
ghleacaithe	-3178
▁Deimhníodh	-3179
▁ainsealach	-3180
▁braitheadh	-3181
▁california	-3182
▁criticiúla	-3183
▁meánscoile	-3184
▁ndeachaigh	-3185
▁phríobháid	-3186
▁scrúduithe	-3187
▁tháirgeadh	-3188
▁tuarascáil	-3189
▁Taispeánann	-3190
▁hionfhabhtú	-3191
▁maireachtáil	-3192
▁éifeachtúlacht	-3193
▁hionfhabhtuithe	-3194
%,	-3195
35	-3196
5%	-3197
cl	-3198
dr	-3199
fá	-3200
mo	-3201
uí	-3202
anc	-3203
cdc	-3204
eit	-3205
ina	-3206
irp	-3207
lam	-3208
nan	-3209
ony	-3210
ton	-3211
tús	-3212
íbh	-3213
íde	-3214
▁bí	-3215
▁lo	-3216
▁mé	-3217
aipe	-3218
cann	-3219
imhe	-3220
ions	-3221
ithn	-3222
iuch	-3223
nigh	-3224
onta	-3225
sála	-3226
ueto	-3227
ácha	-3228
éilí	-3229
óige	-3230
▁Cor	-3231
▁Cos	-3232
▁San	-3233
▁cúl	-3234
▁has	-3235
▁lag	-3236
▁ocs	-3237
▁orf	-3238
▁orm	-3239
▁pat	-3240
▁sul	-3241
▁thú	-3242
▁tán	-3243
▁uil	-3244
▁áis	-3245
▁íoc	-3246
balta	-3247
innte	-3248
loiní	-3249
lóidh	-3250
naimh	-3251
ogene	-3252
ology	-3253
roigh	-3254
uaigh	-3255
▁2021	-3256
▁Fliú	-3257
▁Níos	-3258
▁Sula	-3259
▁agam	-3260
▁aird	-3261
▁bail	-3262
▁bean	-3263
▁haon	-3264
▁háit	-3265
▁reil	-3266
▁réas	-3267
▁shuí	-3268
▁sórt	-3269
chumas	-3270
eantar	-3271
eiceas	-3272
fraice	-3273
rafach	-3274
taíonn	-3275
thacht	-3276
éigean	-3277
éitíde	-3278
íneach	-3279
▁Scaip	-3280
▁beaga	-3281
▁ceath	-3282
▁chabh	-3283
▁deich	-3284
▁dtreo	-3285
▁dúinn	-3286
▁eitle	-3287
▁fuinn	-3288
▁léana	-3289
▁maolú	-3290
▁marbh	-3291
▁mhéid	-3292
▁tithe	-3293
▁tráth	-3294
aintíní	-3295
ealtair	-3296
eilleag	-3297
inneoin	-3298
itheach	-3299
uetooth	-3300
▁Tugadh	-3301
▁antash	-3302
▁bhrath	-3303
▁breath	-3304
▁eitilt	-3305
▁fheabh	-3306
▁hoifig	-3307
▁polait	-3308
▁seomra	-3309
▁tagtha	-3310
achtarán	-3311
ostaithe	-3312
teachais	-3313
▁Casacht	-3314
▁airgead	-3315
▁braisle	-3316
▁ciarsúr	-3317
▁dhaonra	-3318
▁dtabhar	-3319
▁gcuirfí	-3320
▁iomarca	-3321
▁neamhch	-3322
▁príomha	-3323
▁speicis	-3324
aithníodh	-3325
darsnacht	-3326
eachtanna	-3327
phataigin	-3328
▁Bunaithe	-3329
▁ainneoin	-3330
▁hafraice	-3331
▁imscrúdú	-3332
▁iontaofa	-3333
▁oibríonn	-3334
▁reiligiú	-3335
▁seachain	-3336
▁speiceas	-3337
tarchurtha	-3338
▁ainmnithe	-3339
▁ardriosca	-3340
▁bhformhór	-3341
▁caithfidh	-3342
▁dhiagnóis	-3343
▁dromchlaí	-3344
▁faisnéise	-3345
▁fhaisnéis	-3346
▁fhianaise	-3347
▁laethanta	-3348
▁pleananna	-3349
▁Úsáideann	-3350
▁úsáidtear	-3351
▁Comharthaí	-3352
▁bhainistiú	-3353
▁múinteoirí	-3354
▁nochtaithe	-3355
▁roghnaíonn	-3356
▁scaoileadh	-3357
▁sheachtain	-3358
▁sláintiúla	-3359
▁taifeadadh	-3360
▁thógálacha	-3361
▁cuairteanna	-3362
▁dteastaíonn	-3363
▁idirghníomh	-3364
▁máinliachta	-3365
▁núicléitíde	-3366
▁saotharlann	-3367
▁sláinteachas	-3368
.0	-3369
16	-3370
17	-3371
27	-3372
57	-3373
6%	-3374
92	-3375
be	-3376
fe	-3377
ps	-3378
tt	-3379
ve	-3380
úb	-3381
-20	-3382
aca	-3383
ana	-3384
and	-3385
ent	-3386
ibé	-3387
lta	-3388
lío	-3389
man	-3390
nea	-3391
sin	-3392
thr	-3393
▁Br	-3394
▁ca	-3395
▁ct	-3396
▁cy	-3397
▁gu	-3398
▁ii	-3399
aidr	-3400
aoir	-3401
eata	-3402
eoga	-3403
eoil	-3404
fíor	-3405
iach	-3406
iche	-3407
lais	-3408
ligh	-3409
líon	-3410
ragh	-3411
raid	-3412
túil	-3413
áint	-3414
éara	-3415
▁4,7	-3416
▁Seo	-3417
▁adh	-3418
▁bis	-3419
▁cel	-3420
▁cin	-3421
▁céa	-3422
▁dhó	-3423
▁him	-3424
▁icu	-3425
▁int	-3426
▁iol	-3427
▁lon	-3428
▁mem	-3429
▁prá	-3430
▁sol	-3431
▁sub	-3432
▁une	-3433
ainní	-3434
chtúr	-3435
ithre	-3436
ríomh	-3437
seach	-3438
uaisc	-3439
óthar	-3440
▁Mhol	-3441
▁aipe	-3442
▁brus	-3443
▁char	-3444
▁cong	-3445
▁deis	-3446
▁dona	-3447
▁drom	-3448
▁díol	-3449
▁hong	-3450
▁leas	-3451
▁mian	-3452
▁ndún	-3453
▁ordú	-3454
▁phac	-3455
▁phyl	-3456
▁póil	-3457
▁tras	-3458
agairt	-3459
amaigh	-3460
eanach	-3461
eirthe	-3462
inneas	-3463
iomlán	-3464
▁Galar	-3465
▁Téigh	-3466
▁caint	-3467
▁ceana	-3468
▁cumas	-3469
▁cóiré	-3470
▁dhíth	-3471
▁dóigh	-3472
▁fhonn	-3473
▁féadf	-3474
▁haipe	-3475
▁lucht	-3476
▁mhair	-3477
▁miond	-3478
▁nithe	-3479
▁oíche	-3480
▁páirt	-3481
▁réidh	-3482
▁sular	-3483
▁titim	-3484
▁uasló	-3485
aoinigh	-3486
eabhrac	-3487
íneacha	-3488
▁Cuairt	-3489
▁Spreag	-3490
▁aeráil	-3491
▁comhch	-3492
▁céatad	-3493
▁dtéann	-3494
▁ionann	-3495
▁molann	-3496
▁orainn	-3497
▁phlean	-3498
▁smacht	-3499
▁thuras	-3500
▁unesco	-3501
▁éirigh	-3502
ogenetic	-3503
ospidéal	-3504
róitéine	-3505
sclaíodh	-3506
▁Scaradh	-3507
▁Tástáil	-3508
▁bainist	-3509
▁biseach	-3510
▁chonair	-3511
▁chuaigh	-3512
▁coicíse	-3513
▁coiscth	-3514
▁eabhrac	-3515
▁héirinn	-3516
▁leanann	-3517
▁marfach	-3518
▁measúnú	-3519
▁nasctha	-3520
▁oscailt	-3521
▁pangóil	-3522
▁tabhair	-3523
▁úrscéal	-3524
ardriosca	-3525
bhunaithe	-3526
eadúlacht	-3527
uaireanta	-3528
▁Baineadh	-3529
▁Cuirfidh	-3530
▁beartais	-3531
▁bialanna	-3532
▁comhairl	-3533
▁céadaoin	-3534
▁eorpacha	-3535
▁homology	-3536
▁laethúil	-3537
▁ndéanfaí	-3538
▁seiceáil	-3539
▁thorthaí	-3540
▁trialach	-3541
ghabhálach	-3542
iarmhairtí	-3543
▁Cabhróidh	-3544
▁aclaíocht	-3545
▁bluetooth	-3546
▁bunscoile	-3547
▁ceadaithe	-3548
▁chuirtear	-3549
▁coimeádta	-3550
▁fhoghlaim	-3551
▁gníomhach	-3552
▁mheiriceá	-3553
▁mheithimh	-3554
▁oifigiúla	-3555
▁oiriúnach	-3556
▁páirteach	-3557
▁riarachán	-3558
▁slaghdáin	-3559
cheisteanna	-3560
▁géiniteach	-3561
▁tacaíochta	-3562
thábhachtach	-3563
▁bhfaigheann	-3564
▁chleachtadh	-3565
▁comhaireamh	-3566
▁cuairteoirí	-3567
▁institiúidí	-3568
▁theaghlaigh	-3569
▁leochaileach	-3570
▁mheánoirthir	-3571
▁phylogenetic	-3572
▁saineolaithe	-3573
▁ghníomhaíocht	-3574
▁leitheadúlacht	-3575
▁teachtaireacht	-3576
▁fheidhmeannacht	-3577
▁príomhoifigeach	-3578
12	-3579
39	-3580
58	-3581
bú	-3582
▁y	-3583
500	-3584
ace	-3585
afa	-3586
ibe	-3587
maí	-3588
pcr	-3589
rar	-3590
rop	-3591
tok	-3592
ímh	-3593
óin	-3594
▁33	-3595
▁43	-3596
▁To	-3597
▁rí	-3598
earc	-3599
fort	-3600
iarr	-3601
ilip	-3602
inch	-3603
labh	-3604
mpor	-3605
ruth	-3606
sius	-3607
thír	-3608
tóga	-3609
áidí	-3610
éire	-3611
éise	-3612
▁80%	-3613
▁Gan	-3614
▁and	-3615
▁cla	-3616
▁fia	-3617
▁nao	-3618
▁rté	-3619
▁tcm	-3620
aidis	-3621
chlár	-3622
eolaí	-3623
iripe	-3624
sanna	-3625
taobh	-3626
▁9.30	-3627
▁Forb	-3628
▁cuar	-3629
▁dtír	-3630
▁dtóg	-3631
▁dúsh	-3632
▁físe	-3633
▁goir	-3634
▁holo	-3635
▁iobú	-3636
▁iona	-3637
▁laid	-3638
▁lorg	-3639
▁léar	-3640
▁mair	-3641
▁rach	-3642
▁sins	-3643
▁thac	-3644
▁tony	-3645
aiméar	-3646
aoiniú	-3647
chúrsa	-3648
faimid	-3649
imheas	-3650
iotóga	-3651
iseamh	-3652
rasóil	-3653
ránach	-3654
tokine	-3655
túrtha	-3656
éadann	-3657
▁Cháin	-3658
▁Roghn	-3659
▁camel	-3660
▁ceadú	-3661
▁chaoi	-3662
▁droch	-3663
▁feabh	-3664
▁gabhd	-3665
▁gcúis	-3666
▁inter	-3667
▁ionch	-3668
▁iontr	-3669
▁leaba	-3670
▁mhodh	-3671
▁nuabh	-3672
▁páirc	-3673
▁riamh	-3674
▁scála	-3675
▁súile	-3676
aisteal	-3677
aithigh	-3678
eineafó	-3679
iteacha	-3680
ithníní	-3681
ruchtúr	-3682
▁Daoine	-3683
▁Sonraí	-3684
▁bheadh	-3685
▁bhuail	-3686
▁boladh	-3687
▁chreid	-3688
▁comhsh	-3689
▁fhéile	-3690
▁ghearr	-3691
▁guaise	-3692
▁margaí	-3693
▁moltar	-3694
▁ngalar	-3695
▁nuacht	-3696
▁salach	-3697
▁teirip	-3698
▁thairg	-3699
▁ullmhú	-3700
▁ábalta	-3701
▁óstáil	-3702
aitheach	-3703
mpordach	-3704
próitéin	-3705
áirteach	-3706
▁Gabhadh	-3707
▁bhealaí	-3708
▁celsius	-3709
▁cúrsála	-3710
▁gcéanna	-3711
▁gnéithe	-3712
▁holohan	-3713
▁idirlín	-3714
▁innéacs	-3715
▁leabhar	-3716
▁láithre	-3717
▁measadh	-3718
▁meáchan	-3719
▁neamhsp	-3720
▁pháirtí	-3721
▁rabhadh	-3722
▁síneadh	-3723
▁theacht	-3724
▁uathúil	-3725
fhoghlama	-3726
uaisceart	-3727
▁ceathrar	-3728
▁cytokine	-3729
▁cáineadh	-3730
▁eisiúint	-3731
▁nochtadh	-3732
▁náisiúin	-3733
▁núíosach	-3734
▁ranganna	-3735
▁sceideal	-3736
▁siomptóm	-3737
aidisiúnta	-3738
aighdeoirí	-3739
aiméaráise	-3740
▁Caithfidh	-3741
▁Roghnaigh	-3742
▁bhféadfaí	-3743
▁cheannach	-3744
▁cumarsáid	-3745
▁céimnithe	-3746
▁dhiúltach	-3747
▁difríocht	-3748
▁faoiseamh	-3749
▁fhiabhras	-3750
▁héifeacht	-3751
▁measartha	-3752
▁oifigeach	-3753
▁oifigiúil	-3754
▁próitéine	-3755
▁saoránach	-3756
▁toirmeasc	-3757
▁tseirbhís	-3758
▁tuairiscí	-3759
ghabhálacha	-3760
▁ceisteanna	-3761
▁coraintíní	-3762
▁institiúid	-3763
▁laidineach	-3764
▁macasamhlú	-3765
▁paisinéirí	-3766
▁randamacha	-3767
▁thrialacha	-3768
▁tuairisciú	-3769
▁tuarascála	-3770
▁fhaireachas	-3771
▁nuabheirthe	-3772
ionfhabhtuithe	-3773
▁sainaithníodh	-3774
teistiméireachta	-3775
▁antaibheathaigh	-3776
▁saincheisteanna	-3777
▁éifeachtúlachta	-3778
30	-3779
45	-3780
53	-3781
69	-3782
74	-3783
91	-3784
av	-3785
ay	-3786
óp	-3787
100	-3788
aiw	-3789
amp	-3790
ane	-3791
ash	-3792
caí	-3793
irg	-3794
mha	-3795
oph	-3796
par	-3797
uro	-3798
óga	-3799
▁39	-3800
▁99	-3801
▁be	-3802
▁ib	-3803
▁km	-3804
▁ma	-3805
▁rb	-3806
▁us	-3807
aígh	-3808
eodh	-3809
intí	-3810
istí	-3811
lána	-3812
náth	-3813
róir	-3814
ínte	-3815
▁Bhu	-3816
▁bac	-3817
▁bru	-3818
▁clu	-3819
▁cód	-3820
▁ghá	-3821
▁héa	-3822
▁mbr	-3823
▁mon	-3824
▁org	-3825
▁rad	-3826
▁rat	-3827
▁río	-3828
▁spr	-3829
▁tam	-3830
▁tap	-3831
▁tra	-3832
aiwan	-3833
asana	-3834
brane	-3835
caigh	-3836
chair	-3837
dlata	-3838
ealla	-3839
eimic	-3840
eithe	-3841
eomra	-3842
icind	-3843
ictiú	-3844
iltír	-3845
iocht	-3846
iteas	-3847
laidh	-3848
láine	-3849
neach	-3850
olait	-3851
thain	-3852
éanta	-3853
▁Cuid	-3854
▁Oibr	-3855
▁Seas	-3856
▁atru	-3857
▁bhfo	-3858
▁bord	-3859
▁buid	-3860
▁cibé	-3861
▁cáil	-3862
▁eala	-3863
▁fhan	-3864
▁fuar	-3865
▁hard	-3866
▁hind	-3867
▁inar	-3868
▁long	-3869
▁mara	-3870
▁mhná	-3871
▁pail	-3872
▁post	-3873
▁réit	-3874
▁saol	-3875
▁stoc	-3876
▁sách	-3877
▁tasc	-3878
aigine	-3879
aiginí	-3880
bhaint	-3881
ghalrú	-3882
gneamh	-3883
náithe	-3884
uairim	-3885
▁Ansin	-3886
▁Duine	-3887
▁Fógra	-3888
▁alcól	-3889
▁atreo	-3890
▁baill	-3891
▁bhail	-3892
▁breis	-3893
▁ceang	-3894
▁choim	-3895
▁dheas	-3896
▁dhiúl	-3897
▁dhíol	-3898
▁gcóir	-3899
▁ghéin	-3900
▁gnéas	-3901
▁gréas	-3902
▁inniu	-3903
▁laghd	-3904
▁litir	-3905
▁mothú	-3906
▁ngall	-3907
▁poist	-3908
▁scéim	-3909
▁triúr	-3910
eantais	-3911
eálacha	-3912
eánacha	-3913
iantúil	-3914
illithe	-3915
isteach	-3916
ivíreas	-3917
oblacht	-3918
teritis	-3919
éileáil	-3920
▁aigéad	-3921
▁amharc	-3922
▁atáirg	-3923
▁bhunús	-3924
▁cearta	-3925
▁chaith	-3926
▁cheadú	-3927
▁choirp	-3928
▁chónaí	-3929
▁coiste	-3930
▁céadta	-3931
▁foinse	-3932
▁foinsí	-3933
▁huisce	-3934
▁iarrth	-3935
▁léiriú	-3936
▁líonra	-3937
▁mhaith	-3938
▁oibriú	-3939
▁pháirt	-3940
▁táirgí	-3941
▁tógála	-3942
aolaithe	-3943
éarmacha	-3944
▁Clúdach	-3945
▁Iarrfar	-3946
▁Labhair	-3947
▁aistriú	-3948
▁anacair	-3949
▁bhreise	-3950
▁codlata	-3951
▁dóchúil	-3952
▁easnamh	-3953
▁formhór	-3954
▁lárnach	-3955
▁mamaigh	-3956
▁mbraith	-3957
▁mholadh	-3958
▁miotóga	-3959
▁ngrúpaí	-3960
▁shroich	-3961
▁spleách	-3962
▁síneach	-3963
▁sócháin	-3964
▁teiripe	-3965
▁thugtar	-3966
▁tiomána	-3967
▁éilíonn	-3968
▁ísiltír	-3969
aighdeáin	-3970
ainmhithe	-3971
aitheoirí	-3972
eilleagar	-3973
ghluaiste	-3974
raitheach	-3975
théarmach	-3976
▁Baineann	-3977
▁Clúdaigh	-3978
▁Cuirfear	-3979
▁Thosaigh	-3980
▁aerasóil	-3981
▁airíonna	-3982
▁atruacha	-3983
▁cealtair	-3984
▁cheangal	-3985
▁cholainn	-3986
▁dhíreach	-3987
▁dtástáil	-3988
▁fheabhsú	-3989
▁fhostóir	-3990
▁freagraí	-3991
▁gcathair	-3992
▁iontrála	-3993
▁lárionad	-3994
▁membrane	-3995
▁mhoilliú	-3996
▁neamhghn	-3997
▁roghanna	-3998
▁soláthar	-3999
▁téarnamh	-4000
eineafóibe	-4001
luaiseacht	-4002
pháirteach	-4003
▁Tuilleadh	-4004
▁caithfear	-4005
▁cláraithe	-4006
▁coimisiún	-4007
▁comhartha	-4008
▁cultúrtha	-4009
▁dháileadh	-4010
▁dromlaigh	-4011
▁foilsíodh	-4012
▁mbaineann	-4013
▁sheiceáil	-4014
▁spreagann	-4015
láinteachas	-4016
▁Thaispeáin	-4017
▁athmholadh	-4018
▁bhfuarthas	-4019
▁dtrialacha	-4020
▁eachtracha	-4021
▁eolaíochta	-4022
▁gcoraintín	-4023
▁gcuirfeadh	-4024
▁gheobhaidh	-4025
▁hoifigiúil	-4026
▁phleananna	-4027
▁pháirtithe	-4028
▁smaoiseach	-4029
▁thuilleadh	-4030
▁éagsúlacht	-4031
▁úsáideoirí	-4032
▁chleachtais	-4033
▁coróinvíris	-4034
▁cothaithigh	-4035
▁cóireálacha	-4036
▁dhiagnóisiú	-4037
▁láithreacht	-4038
▁soghluaiste	-4039
▁taighdeoirí	-4040
▁thairiscint	-4041
▁díhiodráitiú	-4042
▁eacnamaíocha	-4043
▁gcodarsnacht	-4044
▁réamhchúraim	-4045
▁traidisiúnta	-4046
▁tuairiscithe	-4047
▁polaiméaráise	-4048
▁víreolaíochta	-4049
▁príobháideacha	-4050
▁thuairiscítear	-4051
▁ghartheagmhálaí	-4052
",	-4053
21	-4054
40	-4055
64	-4056
70	-4057
84	-4058
ck	-4059
íc	-4060
▁x	-4061
.4%	-4062
43,	-4063
cam	-4064
cas	-4065
com	-4066
cás	-4067
das	-4068
fan	-4069
gas	-4070
gen	-4071
ide	-4072
ona	-4073
osc	-4074
scú	-4075
uis	-4076
yng	-4077
íre	-4078
▁(5	-4079
▁80	-4080
▁85	-4081
▁Bí	-4082
▁Io	-4083
▁Pl	-4084
▁he	-4085
▁pa	-4086
▁rú	-4087
agus	-4088
ctha	-4089
ease	-4090
geap	-4091
ghdú	-4092
ipir	-4093
iúsc	-4094
land	-4095
lena	-4096
mraí	-4097
nass	-4098
ovir	-4099
rian	-4100
ráin	-4101
éasc	-4102
éith	-4103
▁1,0	-4104
▁120	-4105
▁20,	-4106
▁Lea	-4107
▁Tac	-4108
▁all	-4109
▁alp	-4110
▁cap	-4111
▁dig	-4112
▁dom	-4113
▁gov	-4114
▁ham	-4115
▁han	-4116
▁léi	-4117
▁muc	-4118
▁plé	-4119
▁rib	-4120
▁sam	-4121
▁ser	-4122
▁shl	-4123
▁shá	-4124
▁tal	-4125
airne	-4126
aithí	-4127
ampas	-4128
ardas	-4129
aryng	-4130
astro	-4131
eataí	-4132
eolch	-4133
eorpa	-4134
gaidh	-4135
lasma	-4136
próif	-4137
ruinn	-4138
róirí	-4139
tithe	-4140
uaite	-4141
ugann	-4142
▁Cinn	-4143
▁Ráig	-4144
▁cion	-4145
▁cuma	-4146
▁cóid	-4147
▁gaol	-4148
▁iniú	-4149
▁luas	-4150
▁luim	-4151
▁láid	-4152
▁mála	-4153
▁news	-4154
▁phlé	-4155
▁wash	-4156
dhealú	-4157
geapór	-4158
ialann	-4159
laghdú	-4160
éarmaí	-4161
éaróid	-4162
íochas	-4163
▁2021.	-4164
▁Cúram	-4165
▁Féach	-4166
▁achar	-4167
▁araib	-4168
▁bhrón	-4169
▁bhunú	-4170
▁choth	-4171
▁creid	-4172
▁cíche	-4173
▁cúige	-4174
▁fhill	-4175
▁fnass	-4176
▁fóill	-4177
▁gnóth	-4178
▁huimh	-4179
▁háise	-4180
▁iarra	-4181
▁iarth	-4182
▁nasal	-4183
▁próis	-4184
▁sampl	-4185
▁shain	-4186
▁séasú	-4187
▁thiar	-4188
▁thras	-4189
▁troma	-4190
▁trína	-4191
▁uaire	-4192
▁éascú	-4193
▁óstán	-4194
ithíoch	-4195
pháirtí	-4196
rasaíle	-4197
scríobh	-4198
thanach	-4199
▁Scaoil	-4200
▁Soláth	-4201
▁bogadh	-4202
▁branda	-4203
▁civets	-4204
▁dóichí	-4205
▁fliuch	-4206
▁heorpa	-4207
▁héasca	-4208
▁idanna	-4209
▁ionsaí	-4210
▁mhoill	-4211
▁roghnú	-4212
▁taiwan	-4213
▁throid	-4214
achtacha	-4215
aireanta	-4216
athracha	-4217
próifein	-4218
romchlaí	-4219
▁Déanfar	-4220
▁aeriomp	-4221
▁airíonn	-4222
▁aslonnú	-4223
▁bhfreag	-4224
▁cathair	-4225
▁chontae	-4226
▁dearbhú	-4227
▁dhaonna	-4228
▁dtugann	-4229
▁déanach	-4230
▁déanann	-4231
▁déantús	-4232
▁eisithe	-4233
▁eitleán	-4234
▁feabhas	-4235
▁ghloiní	-4236
▁glaonna	-4237
▁glasáil	-4238
▁hóstach	-4239
▁míleata	-4240
▁ndúnfaí	-4241
▁shádach	-4242
▁soicind	-4243
eografach	-4244
eolchoirm	-4245
ástálacha	-4246
éaróidigh	-4247
úsáideann	-4248
▁Taisteal	-4249
▁ardaithe	-4250
▁brasaíle	-4251
▁bruscair	-4252
▁difriúil	-4253
▁dtorthaí	-4254
▁feiceáil	-4255
▁feidhmiú	-4256
▁foireann	-4257
▁ghéanóim	-4258
▁imoibriú	-4259
▁leataobh	-4260
▁ndéanfar	-4261
▁oiliúint	-4262
▁orduithe	-4263
▁prognóis	-4264
▁prótacal	-4265
▁réasúnta	-4266
▁saoráidí	-4267
▁sochraid	-4268
▁sreabhán	-4269
▁teaglaim	-4270
▁éillithe	-4271
ostaíochta	-4272
theagmháil	-4273
▁aithníodh	-4274
▁antaiginí	-4275
▁cheantair	-4276
▁chlúdaigh	-4277
▁cleachtas	-4278
▁cáithníní	-4279
▁dearfacha	-4280
▁fadhbanna	-4281
▁fisiceach	-4282
▁singeapór	-4283
▁treochtaí	-4284
▁tábhairne	-4285
▁táirgeadh	-4286
▁téarnaimh	-4287
▁íoslaghdú	-4288
coronavirus	-4289
▁Braitheann	-4290
▁Gheobhaidh	-4291
▁Teastaíonn	-4292
▁aclaíochta	-4293
▁airgeadais	-4294
▁cleachtadh	-4295
▁dtiocfaidh	-4296
▁ghéarchéim	-4297
▁hathruithe	-4298
▁meastachán	-4299
▁ndochtúirí	-4300
▁práinneach	-4301
▁seachtainí	-4302
▁suntasacha	-4303
▁uachtarach	-4304
pháirtíochta	-4305
▁Tabharfaidh	-4306
▁aisghabháil	-4307
▁cónaitheoir	-4308
▁dlúthbhaint	-4309
▁fadtéarmach	-4310
▁leathnaithe	-4311
▁láithreacha	-4312
▁oibríochtaí	-4313
▁shaoránaigh	-4314
▁stéaróidigh	-4315
▁thaispeáint	-4316
phataigineach	-4317
▁cónaitheoirí	-4318
▁eagraíochtaí	-4319
▁héifeachtach	-4320
▁scagthástáil	-4321
▁séireolaíoch	-4322
▁éifeachtacha	-4323
▁éifeachtacht	-4324
▁eacnamaíochta	-4325
▁gartheagmhála	-4326
▁reiligiúnacha	-4327
▁sláinteachais	-4328
▁teorainneacha	-4329
▁feidhmeannacht	-4330
▁thaistealaithe	-4331
▁frithvíreasacha	-4332
);	-4333
.9	-4334
24	-4335
38	-4336
4)	-4337
75	-4338
99	-4339
cy	-4340
dó	-4341
lá	-4342
po	-4343
xf	-4344
íl	-4345
%),	-4346
300	-4347
ama	-4348
cep	-4349
cla	-4350
cor	-4351
cos	-4352
gaí	-4353
ice	-4354
iol	-4355
lei	-4356
mhí	-4357
nia	-4358
▁(1	-4359
▁34	-4360
▁45	-4361
▁Pr	-4362
▁St	-4363
▁ao	-4364
▁eo	-4365
▁fe	-4366
▁fú	-4367
▁ig	-4368
▁mc	-4369
▁mi	-4370
▁nh	-4371
▁sá	-4372
▁sú	-4373
▁tf	-4374
aige	-4375
aoll	-4376
arla	-4377
báin	-4378
chaí	-4379
dhío	-4380
eimh	-4381
ghin	-4382
ionc	-4383
lisí	-4384
mers	-4385
nald	-4386
nóir	-4387
ogle	-4388
rimh	-4389
roim	-4390
tion	-4391
traí	-4392
tábh	-4393
táit	-4394
untá	-4395
íosa	-4396
ófaí	-4397
óist	-4398
▁112	-4399
▁300	-4400
▁90%	-4401
▁Bia	-4402
▁Ith	-4403
▁Lig	-4404
▁Scr	-4405
▁app	-4406
▁cas	-4407
▁dhú	-4408
▁dár	-4409
▁fda	-4410
▁fen	-4411
▁hei	-4412
▁hua	-4413
▁imp	-4414
▁lom	-4415
▁lúb	-4416
▁mel	-4417
▁mis	-4418
▁nor	-4419
▁oxf	-4420
▁pas	-4421
▁rem	-4422
▁rún	-4423
▁sca	-4424
▁sos	-4425
▁tcp	-4426
▁ted	-4427
▁teo	-4428
▁tic	-4429
▁tim	-4430
▁téa	-4431
aimhn	-4432
altaí	-4433
chael	-4434
eamar	-4435
eicní	-4436
eifeá	-4437
eland	-4438
itíní	-4439
iáine	-4440
oirse	-4441
áille	-4442
ídíní	-4443
íreas	-4444
▁Aith	-4445
▁Cath	-4446
▁Cóir	-4447
▁Féin	-4448
▁aeir	-4449
▁arda	-4450
▁beta	-4451
▁cear	-4452
▁chao	-4453
▁chúl	-4454
▁cumh	-4455
▁diúl	-4456
▁dola	-4457
▁gear	-4458
▁inis	-4459
▁ions	-4460
▁moil	-4461
▁rabh	-4462
▁raid	-4463
▁ratg	-4464
▁sail	-4465
▁seic	-4466
▁seol	-4467
▁stór	-4468
▁todh	-4469
▁uill	-4470
achtaí	-4471
ailliú	-4472
aitear	-4473
aitist	-4474
ceptor	-4475
eafóin	-4476
eapann	-4477
easach	-4478
iciúil	-4479
ictiúr	-4480
ington	-4481
lannaí	-4482
omharc	-4483
onavir	-4484
▁Coinn	-4485
▁Mhéad	-4486
▁Roimh	-4487
▁Toisc	-4488
▁aimpl	-4489
▁anáil	-4490
▁bhear	-4491
▁bhfan	-4492
▁bholg	-4493
▁brais	-4494
▁buaic	-4495
▁béilí	-4496
▁caite	-4497
▁chair	-4498
▁delta	-4499
▁déard	-4500
▁garda	-4501
▁ghair	-4502
▁húdar	-4503
▁iomad	-4504
▁léith	-4505
▁lóist	-4506
▁patrú	-4507
▁phian	-4508
▁pobal	-4509
▁príos	-4510
▁saoil	-4511
▁scáil	-4512
▁solúb	-4513
▁strus	-4514
▁teoir	-4515
▁threo	-4516
▁throm	-4517
▁thuar	-4518
▁treal	-4519
▁uaidh	-4520
▁árann	-4521
▁éadaí	-4522
acsaíní	-4523
aispeán	-4524
braíonn	-4525
imhnigh	-4526
itheoir	-4527
teartha	-4528
ualainn	-4529
únaithe	-4530
▁Giorra	-4531
▁Tharla	-4532
▁alcóil	-4533
▁ardoid	-4534
▁bealaí	-4535
▁chuims	-4536
▁deacra	-4537
▁dhálaí	-4538
▁donald	-4539
▁duitse	-4540
▁gcionn	-4541
▁google	-4542
▁hindia	-4543
▁mbosca	-4544
▁mbrais	-4545
▁moltaí	-4546
▁míonna	-4547
▁nasoph	-4548
▁oideas	-4549
▁réimse	-4550
▁scaoll	-4551
▁sprioc	-4552
▁spéise	-4553
▁stádas	-4554
▁sóchán	-4555
▁tedros	-4556
▁táthar	-4557
▁ábhair	-4558
aryngeal	-4559
lastacha	-4560
▁Cathain	-4561
▁Chuaigh	-4562
▁Féadfar	-4563
▁bhearta	-4564
▁bpáiste	-4565
▁breoite	-4566
▁cathain	-4567
▁ceanada	-4568
▁chomhth	-4569
▁chritic	-4570
▁deiridh	-4571
▁earnáil	-4572
▁fhoinse	-4573
▁hamanna	-4574
▁ireland	-4575
▁itheann	-4576
▁labhair	-4577
▁léargas	-4578
▁maoiniú	-4579
▁mbeifeá	-4580
▁michael	-4581
▁naíonán	-4582
▁ndiaidh	-4583
▁ngníomh	-4584
▁oileáin	-4585
▁oilithr	-4586
▁oiliúna	-4587
▁póilíní	-4588
▁radagra	-4589
▁róthrom	-4590
▁scanadh	-4591
▁seomraí	-4592
▁sheomra	-4593
▁throigh	-4594
▁torrach	-4595
▁tuairim	-4596
earthacht	-4597
oirgneamh	-4598
shéalainn	-4599
▁Fiabhras	-4600
▁Ionfhabh	-4601
▁amhlaidh	-4602
▁bhféadfá	-4603
▁cathaoir	-4604
▁charnach	-4605
▁chomhair	-4606
▁chomhlío	-4607
▁cuireann	-4608
▁céatadán	-4609
▁cóimheas	-4610
▁deimhniú	-4611
▁dháileog	-4612
▁dhéanfar	-4613
▁déileáil	-4614
▁díolúine	-4615
▁foghlama	-4616
▁ghlacann	-4617
▁ghlasáil	-4618
▁gréasáin	-4619
▁hoileáin	-4620
▁húdaráis	-4621
▁iolracha	-4622
▁léirithe	-4623
▁naíonáin	-4624
▁pangóilí	-4625
▁receptor	-4626
▁spásanna	-4627
▁staitist	-4628
▁todhchaí	-4629
athlastach	-4630
ionfhabhtú	-4631
ruchtúrtha	-4632
stiúrthóir	-4633
▁Cuimsíonn	-4634
▁Fógraíodh	-4635
▁Príobháid	-4636
▁aimplithe	-4637
▁bliantúil	-4638
▁bpoblacht	-4639
▁cheadaigh	-4640
▁cleachtaí	-4641
▁coinneáil	-4642
▁comhsheas	-4643
▁dtiocfadh	-4644
▁déardaoin	-4645
▁eagraithe	-4646
▁eiseamail	-4647
▁ghiniúint	-4648
▁iniúchadh	-4649
▁maolaithe	-4650
▁mhéadaigh	-4651
▁ocsaigine	-4652
▁seachadta	-4653
▁séasúrach	-4654
▁tairseach	-4655
▁trealaimh	-4656
eastalaíonn	-4657
eolaíochtaí	-4658
tábhachtach	-4659
▁Cabhraíonn	-4660
▁Forbraíodh	-4661
▁Laghdaíonn	-4662
▁bronchitis	-4663
▁deireanach	-4664
▁dianchúram	-4665
▁gcomhairle	-4666
▁geografach	-4667
▁leanúnacha	-4668
▁mhéadaithe	-4669
▁minicíocht	-4670
▁seachadadh	-4671
▁thromchúis	-4672
▁tuachtarán	-4673
▁washington	-4674
▁breoiteacht	-4675
▁chiallaíonn	-4676
▁feidhmeanna	-4677
▁huimhreacha	-4678
▁muinteartha	-4679
▁seineafóibe	-4680
▁aeriompartha	-4681
▁athraitheach	-4682
▁neamhghnácha	-4683
▁pataigineach	-4684
▁soláthraithe	-4685
▁éabhlóideach	-4686
▁seachtainiúil	-4687
▁nasopharyngeal	-4688
▁ríthábhachtach	-4689
▁thuismitheoirí	-4690
▁léitheoireachta	-4691
08	-4692
32	-4693
4.	-4694
61	-4695
80	-4696
9.	-4697
90	-4698
fn	-4699
he	-4700
nd	-4701
ry	-4702
▁ú	-4703
600	-4704
ala	-4705
aom	-4706
bia	-4707
chl	-4708
clú	-4709
dhe	-4710
eod	-4711
fhr	-4712
fiú	-4713
gar	-4714
hen	-4715
hou	-4716
hse	-4717
iog	-4718
mid	-4719
nár	-4720
ora	-4721
ork	-4722
phe	-4723
raf	-4724
roí	-4725
rug	-4726
tal	-4727
tre	-4728
tóm	-4729
ust	-4730
vid	-4731
ymp	-4732
ysp	-4733
éam	-4734
úsa	-4735
▁(6	-4736
▁(7	-4737
▁35	-4738
▁42	-4739
▁44	-4740
▁47	-4741
▁5,	-4742
▁55	-4743
▁65	-4744
▁Or	-4745
▁cn	-4746
▁et	-4747
▁ex	-4748
▁ip	-4749
▁pe	-4750
▁ul	-4751
▁wm	-4752
▁óc	-4753
aice	-4754
ailt	-4755
alóg	-4756
chas	-4757
desi	-4758
fhad	-4759
gáir	-4760
ians	-4761
idge	-4762
inal	-4763
inge	-4764
ings	-4765
iobr	-4766
ionó	-4767
ipid	-4768
kins	-4769
lamh	-4770
mhín	-4771
nasa	-4772
neas	-4773
oirt	-4774
ostú	-4775
rael	-4776
ttps	-4777
táin	-4778
uimh	-4779
utum	-4780
áirc	-4781
éige	-4782
óidí	-4783
óras	-4784
▁-19	-4785
▁500	-4786
▁95%	-4787
▁Aon	-4788
▁Atá	-4789
▁Dar	-4790
▁Fág	-4791
▁Tos	-4792
▁bol	-4793
▁dod	-4794
▁fer	-4795
▁fhu	-4796
▁frá	-4797
▁féa	-4798
▁fír	-4799
▁gcú	-4800
▁gly	-4801
▁hku	-4802
▁ibu	-4803
▁iii	-4804
▁mad	-4805
▁med	-4806
▁nig	-4807
▁pre	-4808
▁rbd	-4809
▁sru	-4810
▁síc	-4811
▁súg	-4812
▁tub	-4813
▁var	-4814
▁wiv	-4815
▁áir	-4816
aidhl	-4817
aince	-4818
amáin	-4819
annaí	-4820
darás	-4821
dháil	-4822
draig	-4823
duine	-4824
eirde	-4825
ghafa	-4826
iangh	-4827
ianna	-4828
intir	-4829
iopaí	-4830
laghd	-4831
laisí	-4832
loine	-4833
oscló	-4834
proif	-4835
roinn	-4836
treon	-4837
ympho	-4838
▁4.30	-4839
▁Cúis	-4840
▁Méad	-4841
▁Sain	-4842
▁Scrú	-4843
▁acad	-4844
▁astu	-4845
▁blas	-4846
▁cill	-4847
▁coir	-4848
▁crua	-4849
▁códú	-4850
▁dhig	-4851
▁dtea	-4852
▁gcol	-4853
▁gcos	-4854
▁geal	-4855
▁impl	-4856
▁iris	-4857
▁lear	-4858
▁liom	-4859
▁láir	-4860
▁moon	-4861
▁neod	-4862
▁stró	-4863
▁thos	-4864
▁tonn	-4865
▁zhan	-4866
▁áise	-4867
arthai	-4868
bhuntá	-4869
chtana	-4870
chéime	-4871
dhíola	-4872
earach	-4873
eicníc	-4874
eithic	-4875
eorach	-4876
itinne	-4877
itithe	-4878
labhra	-4879
lainne	-4880
meacha	-4881
neacha	-4882
raingt	-4883
yspnea	-4884
éimeag	-4885
úsaeim	-4886
▁2019.	-4887
▁Bhuel	-4888
▁Faoin	-4889
▁aistr	-4890
▁altra	-4891
▁apple	-4892
▁bhaol	-4893
▁bíodh	-4894
▁charr	-4895
▁chlár	-4896
▁chosa	-4897
▁cláir	-4898
▁cúigí	-4899
▁cúpla	-4900
▁dalta	-4901
▁dhifr	-4902
▁fhadú	-4903
▁fúthu	-4904
▁gaill	-4905
▁gairm	-4906
▁gclár	-4907
▁géine	-4908
▁hipir	-4909
▁luach	-4910
▁luain	-4911
▁mharú	-4912
▁mórch	-4913
▁naisc	-4914
▁rúise	-4915
▁rúnaí	-4916
▁scoir	-4917
▁shárú	-4918
▁socrú	-4919
▁thinn	-4920
▁uilig	-4921
aiceann	-4922
ardasho	-4923
bhannaí	-4924
desivir	-4925
eastail	-4926
fanacht	-4927
iobraid	-4928
iomáint	-4929
irítear	-4930
laimint	-4931
laítear	-4932
lóthach	-4933
oscailt	-4934
▁Bóthar	-4935
▁Cógais	-4936
▁agóide	-4937
▁beagán	-4938
▁beatha	-4939
▁bheart	-4940
▁chiall	-4941
▁chúrsa	-4942
▁comhrá	-4943
▁fhacht	-4944
▁fhailí	-4945
▁fhilip	-4946
▁fhoirm	-4947
▁gcógas	-4948
▁ghabhd	-4949
▁luaigh	-4950
▁lympho	-4951
▁lúnasa	-4952
▁meiric	-4953
▁mheicn	-4954
▁mhiond	-4955
▁mhéara	-4956
▁oxford	-4957
▁pointe	-4958
▁samhal	-4959
▁stoirm	-4960
▁taidhl	-4961
▁tapúla	-4962
▁teilif	-4963
▁triail	-4964
▁tréimh	-4965
▁tugtha	-4966
▁turais	-4967
▁éiligh	-4968
aibhithe	-4969
aineacht	-4970
impléasc	-4971
ospidéil	-4972
shnáithe	-4973
íoltóirí	-4974
▁aerlíne	-4975
▁aerálaí	-4976
▁atreorú	-4977
▁bhunadh	-4978
▁braislí	-4979
▁buidéil	-4980
▁caillte	-4981
▁chaomhn	-4982
▁cluichí	-4983
▁costais	-4984
▁críocha	-4985
▁dhúnann	-4986
▁dtreoir	-4987
▁dírithe	-4988
▁faighte	-4989
▁fraince	-4990
▁frídíní	-4991
▁féadfar	-4992
▁fíochán	-4993
▁glanadh	-4994
▁hionaid	-4995
▁innealt	-4996
▁iosrael	-4997
▁leithne	-4998
▁neamhdh	-4999
▁neamhst	-5000
▁ollmhar	-5001
▁pádraig	-5002
▁rathúil	-5003
▁rialála	-5004
▁roinnte	-5005
▁ráiteas	-5006
▁réitigh	-5007
▁ríochta	-5008
▁sinsear	-5009
▁sluaite	-5010
▁tagairt	-5011
▁threoir	-5012
▁threorú	-5013
▁uillinn	-5014
▁óstacha	-5015
chuirtear	-5016
raghsanna	-5017
▁Léiríonn	-5018
▁Tógfaidh	-5019
▁aipeanna	-5020
▁aisghafa	-5021
▁bailíodh	-5022
▁cardasho	-5023
▁cheapann	-5024
▁cliseadh	-5025
▁coláiste	-5026
▁corónach	-5027
▁cuardach	-5028
▁cuirfidh	-5029
▁dtarchur	-5030
▁dáileadh	-5031
▁fachtóir	-5032
▁fíocháin	-5033
▁ghéanóma	-5034
▁príomhch	-5035
▁shoiléir	-5036
▁tagartha	-5037
▁thaifead	-5038
▁thaistil	-5039
▁tionscad	-5040
▁toirmisc	-5041
▁tánaiste	-5042
eanglaíonn	-5043
lapróitéin	-5044
▁Athraíonn	-5045
▁Mhéadaigh	-5046
▁Tabharfar	-5047
▁Tarlaíonn	-5048
▁athraíonn	-5049
▁atáirgthe	-5050
▁chónaíonn	-5051
▁dhíghalrú	-5052
▁dtarlóidh	-5053
▁eachtrach	-5054
▁fheiceáil	-5055
▁fhreastal	-5056
▁fisiciúil	-5057
▁foirmiúil	-5058
▁fostaithe	-5059
▁fógraíodh	-5060
▁gcoitinne	-5061
▁gcuirfear	-5062
▁ghearradh	-5063
▁háiteanna	-5064
▁leictreon	-5065
▁leithligh	-5066
▁láithreán	-5067
▁lámhainní	-5068
▁meabhrach	-5069
▁mórdhíola	-5070
▁núíosacha	-5071
▁phataigin	-5072
▁phróiseas	-5073
▁scaipfidh	-5074
▁scaiptear	-5075
▁slabhrúil	-5076
▁smaoinigh	-5077
▁staidrimh	-5078
▁thiocfadh	-5079
▁tosaíocht	-5080
▁treoracha	-5081
▁ullmhacht	-5082
▁íomháithe	-5083
pháirtíocht	-5084
▁athlastach	-5085
▁bhfaighfeá	-5086
▁caighdeáin	-5087
▁ceolchoirm	-5088
▁choraintín	-5089
▁chuimsíonn	-5090
▁criticiúil	-5091
▁gnólachtaí	-5092
▁mhíochaine	-5093
▁ngéarchéim	-5094
▁oilithrigh	-5095
▁remdesivir	-5096
▁saoránaigh	-5097
▁uimhreacha	-5098
▁ullmhachta	-5099
éidearthacht	-5100
▁aireachtáil	-5101
▁aitheantais	-5102
▁bhfaigheadh	-5103
▁bhraitheann	-5104
▁chriticiúil	-5105
▁difríochtaí	-5106
▁dtuaisceart	-5107
▁díobhálacha	-5108
▁ghnólachtaí	-5109
▁ghéiniteach	-5110
▁impleachtaí	-5111
▁mbraitheann	-5112
▁oiriúnaithe	-5113
▁Sláinteachas	-5114
▁coisctheacha	-5115
▁comhairleach	-5116
▁fadthéarmach	-5117
▁fadtéarmacha	-5118
▁gníomhaíocht	-5119
▁neamhspleách	-5120
▁scagthástála	-5121
▁ardoideachais	-5122
▁fhilipíneacha	-5123
▁smachtbhannaí	-5124
▁comhsheasmhach	-5125
▁rannpháirteach	-5126
▁antashubstaintí	-5127
▁cardashoithíoch	-5128
▁ghnáthuaireanta	-5129
▁idirghabhálacha	-5130
▁teicneolaíochta	-5131
15	-5132
44	-5133
67	-5134
79	-5135
bc	-5136
di	-5137
do	-5138
ey	-5139
ió	-5140
pd	-5141
pt	-5142
rh	-5143
rt	-5144
%).	-5145
adk	-5146
aiv	-5147
ans	-5148
ase	-5149
bas	-5150
ber	-5151
bhu	-5152
gov	-5153
icn	-5154
les	-5155
mic	-5156
oic	-5157
olw	-5158
rac	-5159
ret	-5160
rós	-5161
ted	-5162
use	-5163
vac	-5164
val	-5165
war	-5166
óim	-5167
óip	-5168
▁00	-5169
▁1.	-5170
▁41	-5171
▁6,	-5172
▁7,	-5173
▁86	-5174
▁90	-5175
▁Bu	-5176
▁Sm	-5177
▁lt	-5178
▁of	-5179
▁sy	-5180
▁té	-5181
▁vó	-5182
▁wo	-5183
.8%)	-5184
aera	-5185
aict	-5186
anra	-5187
bola	-5188
chor	-5189
ecal	-5190
ence	-5191
flam	-5192
idhr	-5193
ilte	-5194
imín	-5195
inim	-5196
itío	-5197
lean	-5198
lánú	-5199
ncov	-5200
rial	-5201
scaí	-5202
túir	-5203
éala	-5204
íoll	-5205
íoló	-5206
órsa	-5207
úlra	-5208
▁(1)	-5209
▁(3)	-5210
▁30%	-5211
▁999	-5212
▁Aer	-5213
▁Fiú	-5214
▁Sco	-5215
▁Sin	-5216
▁Tag	-5217
▁abc	-5218
▁bor	-5219
▁bpo	-5220
▁bro	-5221
▁cis	-5222
▁cuí	-5223
▁dic	-5224
▁dif	-5225
▁fío	-5226
▁gao	-5227
▁gcr	-5228
▁hid	-5229
▁hop	-5230
▁ifr	-5231
▁lan	-5232
▁lío	-5233
▁mas	-5234
▁mbu	-5235
▁mhú	-5236
▁mur	-5237
▁mín	-5238
▁nba	-5239
▁nhs	-5240
▁nid	-5241
▁pac	-5242
▁rol	-5243
▁scí	-5244
▁sea	-5245
▁son	-5246
▁vir	-5247
▁íog	-5248
-19),	-5249
adkar	-5250
airte	-5251
aonad	-5252
ascun	-5253
bhrón	-5254
bhéil	-5255
dchum	-5256
eilge	-5257
eline	-5258
eofar	-5259
insím	-5260
iomad	-5261
itéir	-5262
leath	-5263
mptom	-5264
orths	-5265
tacht	-5266
thear	-5267
áillí	-5268
ásach	-5269
▁2002	-5270
▁Acla	-5271
▁Inis	-5272
▁Ráta	-5273
▁Srón	-5274
▁aill	-5275
▁bhfr	-5276
▁bolg	-5277
▁caif	-5278
▁ceap	-5279
▁cirt	-5280
▁coro	-5281
▁dath	-5282
▁deas	-5283
▁dhos	-5284
▁earr	-5285
▁glac	-5286
▁grós	-5287
▁ilch	-5288
▁inch	-5289
▁lond	-5290
▁mhac	-5291
▁mhal	-5292
▁morn	-5293
▁móil	-5294
▁naoi	-5295
▁néar	-5296
▁oird	-5297
▁scan	-5298
▁seis	-5299
▁stru	-5300
▁sárú	-5301
▁taom	-5302
▁thús	-5303
abháil	-5304
aicint	-5305
aigéad	-5306
annach	-5307
antáin	-5308
astáin	-5309
bridge	-5310
chtáil	-5311
eatain	-5312
eithne	-5313
ianadh	-5314
irimid	-5315
laithe	-5316
mheasa	-5317
scaoil	-5318
stinal	-5319
tachta	-5320
tráile	-5321
ustaim	-5322
íreach	-5323
▁1,000	-5324
▁Anois	-5325
▁Bíodh	-5326
▁Ghlac	-5327
▁aimín	-5328
▁airmh	-5329
▁ambas	-5330
▁aoise	-5331
▁aosta	-5332
▁balls	-5333
▁breat	-5334
▁caird	-5335
▁chódú	-5336
▁conte	-5337
▁cuims	-5338
▁dhéag	-5339
▁dtaca	-5340
▁dtuig	-5341
▁eatra	-5342
▁eisia	-5343
▁fecal	-5344
▁fhuil	-5345
▁fiche	-5346
▁foley	-5347
▁gaire	-5348
▁gcoim	-5349
▁ghéar	-5350
▁imigh	-5351
▁iontu	-5352
▁longa	-5353
▁línte	-5354
▁mbéal	-5355
▁ndaon	-5356
▁norma	-5357
▁ocras	-5358
▁ríofa	-5359
▁serop	-5360
▁siopa	-5361
▁sráid	-5362
▁suímh	-5363
▁talún	-5364
▁tearc	-5365
▁thoil	-5366
▁tholg	-5367
▁thábh	-5368
▁tsamh	-5369
▁tuirc	-5370
▁turas	-5371
▁téann	-5372
▁urlár	-5373
▁woolw	-5374
▁zhang	-5375
▁íocht	-5376
aictéar	-5377
airíonn	-5378
aistriú	-5379
aithint	-5380
bhliana	-5381
chumais	-5382
iolitis	-5383
ionchar	-5384
liúchán	-5385
thachta	-5386
éileamh	-5387
▁Gníomh	-5388
▁aerála	-5389
▁agóidí	-5390
▁aonaid	-5391
▁ardáin	-5392
▁athróg	-5393
▁bheaga	-5394
▁braite	-5395
▁chothú	-5396
▁chúige	-5397
▁comhla	-5398
▁costas	-5399
▁cuidiú	-5400
▁cumann	-5401
▁dhlúth	-5402
▁dochar	-5403
▁einsím	-5404
▁ferret	-5405
▁fhearr	-5406
▁fiáine	-5407
▁gascun	-5408
▁gastro	-5409
▁gceann	-5410
▁ghairm	-5411
▁gloine	-5412
▁glúine	-5413
▁gobhar	-5414
▁imscrú	-5415
▁insint	-5416
▁iomarc	-5417
▁ioncam	-5418
▁ionchó	-5419
▁linnte	-5420
▁luatha	-5421
▁mbeart	-5422
▁mhaígh	-5423
▁máithr	-5424
▁neartú	-5425
▁ngrúpa	-5426
▁peataí	-5427
▁ráitis	-5428
▁samhna	-5429
▁theicn	-5430
▁thithe	-5431
▁thrian	-5432
▁téarma	-5433
arascáil	-5434
eachtúil	-5435
fhabhtán	-5436
inchille	-5437
leibhéil	-5438
oibríonn	-5439
osclófaí	-5440
ástáladh	-5441
úlachtaí	-5442
▁2019-20	-5443
▁Dhearbh	-5444
▁Féadann	-5445
▁Seachas	-5446
▁Tarchur	-5447
▁Tinneas	-5448
▁aontais	-5449
▁breithe	-5450
▁buartha	-5451
▁bunaidh	-5452
▁cabhair	-5453
▁carnach	-5454
▁ceannas	-5455
▁chealla	-5456
▁chríoch	-5457
▁chúnamh	-5458
▁chúraim	-5459
▁cillian	-5460
▁cuirfiú	-5461
▁cumhach	-5462
▁cúigear	-5463
▁duánach	-5464
▁dyspnea	-5465
▁dóthain	-5466
▁ealaíon	-5467
▁feithic	-5468
▁féatais	-5469
▁gclinic	-5470
▁ghrúpaí	-5471
▁glasála	-5472
▁hopkins	-5473
▁iliomad	-5474
▁iomlána	-5475
▁meastar	-5476
▁morning	-5477
▁nascadh	-5478
▁ndeimhn	-5479
▁neamhfh	-5480
▁reachta	-5481
▁riaradh	-5482
▁réamhth	-5483
▁shasana	-5484
▁teicníc	-5485
▁teorann	-5486
▁thionsc	-5487
▁thoirch	-5488
▁túdarás	-5489
▁uilíoch	-5490
▁éireann	-5491
▁íochtar	-5492
aitheacha	-5493
chuireann	-5494
fhaisnéis	-5495
tóireacht	-5496
óinvíreas	-5497
úsáidtear	-5498
▁Paindéim	-5499
▁ceannach	-5500
▁chabhair	-5501
▁chosanta	-5502
▁cruinniú	-5503
▁códaithe	-5504
▁dteannta	-5505
▁earraigh	-5506
▁eiseamal	-5507
▁eolaithe	-5508
▁gceantar	-5509
▁gclúdach	-5510
▁gcodanna	-5511
▁ghlanann	-5512
▁grósaera	-5513
▁infhaigh	-5514
▁lagaithe	-5515
▁leictreo	-5516
▁mhantáin	-5517
▁mheastar	-5518
▁mhórthír	-5519
▁míchumas	-5520
▁núicléas	-5521
▁oiriúint	-5522
▁oirthear	-5523
▁poblacht	-5524
▁rochtana	-5525
▁sampláil	-5526
▁scáileán	-5527
▁shonrach	-5528
▁slabhraí	-5529
▁súgartha	-5530
▁theiripe	-5531
▁téalainn	-5532
▁varadkar	-5533
▁ábhartha	-5534
▁áiseanna	-5535
▁éiginnte	-5536
abharfaidh	-5537
choraintín	-5538
iméadaithe	-5539
ustaiméirí	-5540
▁Aclaíocht	-5541
▁Aithníodh	-5542
▁Comhairle	-5543
▁Cuimhnigh	-5544
▁Imeachtaí	-5545
▁Leanfaidh	-5546
▁Osclaíodh	-5547
▁Teagmháil	-5548
▁Tástáladh	-5549
▁achomharc	-5550
▁ainmníodh	-5551
▁bhainimid	-5552
▁bhfanfadh	-5553
▁bpróiseas	-5554
▁breataine	-5555
▁cailleadh	-5556
▁cambridge	-5557
▁choláiste	-5558
▁dtosaíonn	-5559
▁dtréimhse	-5560
▁déanfaidh	-5561
▁foriomlán	-5562
▁féachaint	-5563
▁gcuireann	-5564
▁hastráile	-5565
▁heipidéim	-5566
▁imdhíonta	-5567
▁luimneach	-5568
▁mhíchumas	-5569
▁miondíola	-5570
▁míchumais	-5571
▁ndéanfadh	-5572
▁phacáiste	-5573
▁scaipeann	-5574
▁shiondróm	-5575
▁socruithe	-5576
▁theoranta	-5577
▁toircheas	-5578
▁tráchtála	-5579
▁Úsáidtear	-5580
▁úsáideach	-5581
▁úsáideadh	-5582
athlastacha	-5583
chtaineacht	-5584
ictiúrlanna	-5585
▁bhfianaise	-5586
▁bhforbairt	-5587
▁chabhróidh	-5588
▁comhpháirt	-5589
▁compordach	-5590
▁cógaslanna	-5591
▁deimhníodh	-5592
▁dheimhnigh	-5593
▁dhromchlaí	-5594
▁earnálacha	-5595
▁forleithne	-5596
▁gcaitheann	-5597
▁gcéimeanna	-5598
▁ghanntanas	-5599
▁gníomhacha	-5600
▁gobharnóir	-5601
▁hainmhithe	-5602
▁idirdhealú	-5603
▁leachtanna	-5604
▁leathnaigh	-5605
▁phacastáin	-5606
▁riaracháin	-5607
▁réigiúnach	-5608
▁taispeáint	-5609
▁theagmháil	-5610
▁thiocfaidh	-5611
▁thurasóirí	-5612
▁woolworths	-5613
▁Dhearbhaigh	-5614
▁aimínaigéad	-5615
▁amharclanna	-5616
▁cheadaítear	-5617
▁chothabháil	-5618
▁chógaiseoir	-5619
▁comhcheilge	-5620
▁comhlachtaí	-5621
▁dteaghlaigh	-5622
▁fóillíochta	-5623
▁ghinearálta	-5624
▁gnáthchúrsa	-5625
▁gníomhartha	-5626
▁mhuinchille	-5627
▁réamhscoile	-5628
▁staitisticí	-5629
▁tánaisteach	-5630
▁veicteorach	-5631
▁zónóiseacha	-5632
▁breathnaíodh	-5633
▁breoiteachta	-5634
▁californians	-5635
▁chógaslannaí	-5636
▁díghalraithe	-5637
▁iobúpróifein	-5638
▁leabharlanna	-5639
▁polapróitéin	-5640
▁soláthraíonn	-5641
▁tábhachtacha	-5642
▁bronchiolitis	-5643
▁chónaitheoirí	-5644
▁phaindéimeach	-5645
▁réamhchúraimí	-5646
▁sholáthraithe	-5647
▁antashubstaint	-5648
▁infhaighteacht	-5649
▁príobháideacht	-5650
▁shábháilteacht	-5651
▁Príobháideachas	-5652
23	-5653
8.	-5654
93	-5655
ah	-5656
au	-5657
ct	-5658
gu	-5659
gó	-5660
ha	-5661
ii	-5662
ix	-5663
lr	-5664
mi	-5665
mr	-5666
nc	-5667
sl	-5668
su	-5669
...	-5670
.3%	-5671
.5%	-5672
.7%	-5673
162	-5674
63,	-5675
653	-5676
aer	-5677
amb	-5678
apa	-5679
art	-5680
dim	-5681
dro	-5682
dán	-5683
enz	-5684
gan	-5685
gúl	-5686
ike	-5687
ino	-5688
iop	-5689
ipt	-5690
iti	-5691
ity	-5692
lex	-5693
lúd	-5694
mat	-5695
nac	-5696
obú	-5697
oll	-5698
ond	-5699
onu	-5700
orp	-5701
ren	-5702
san	-5703
tes	-5704
uag	-5705
ísh	-5706
ísp	-5707
úna	-5708
▁1%	-5709
▁32	-5710
▁49	-5711
▁51	-5712
▁52	-5713
▁57	-5714
▁68	-5715
▁77	-5716
▁79	-5717
▁97	-5718
▁Cú	-5719
▁Dé	-5720
▁Gl	-5721
▁bo	-5722
▁cd	-5723
▁un	-5724
▁ww	-5725
▁óg	-5726
▁’.	-5727
-19;	-5728
aims	-5729
airg	-5730
angl	-5731
anom	-5732
arda	-5733
chan	-5734
chos	-5735
cyte	-5736
dúil	-5737
eais	-5738
eilf	-5739
eoit	-5740
gadh	-5741
imhs	-5742
ince	-5743
mhal	-5744
niac	-5745
níor	-5746
ocal	-5747
oilg	-5748
orta	-5749
ptid	-5750
páil	-5751
páin	-5752
ramh	-5753
ruit	-5754
réir	-5755
róid	-5756
sona	-5757
tril	-5758
udaí	-5759
utin	-5760
áram	-5761
ófar	-5762
▁(2)	-5763
▁(20	-5764
▁(38	-5765
▁1).	-5766
▁1.4	-5767
▁400	-5768
▁50%	-5769
▁60%	-5770
▁96%	-5771
▁Nap	-5772
▁Soc	-5773
▁Trí	-5774
▁adv	-5775
▁amp	-5776
▁ang	-5777
▁bag	-5778
▁bat	-5779
▁bce	-5780
▁blú	-5781
▁bró	-5782
▁cea	-5783
▁clg	-5784
▁com	-5785
▁dis	-5786
▁díd	-5787
▁eil	-5788
▁ens	-5789
▁ful	-5790
▁gae	-5791
▁hac	-5792
▁ifn	-5793
▁log	-5794
▁mal	-5795
▁mún	-5796
▁ndí	-5797
▁ost	-5798
▁per	-5799
▁sná	-5800
▁suí	-5801
▁sás	-5802
▁ual	-5803
▁www	-5804
▁éan	-5805
▁éic	-5806
-19).	-5807
achtú	-5808
adadh	-5809
aipín	-5810
allaí	-5811
aoise	-5812
bheag	-5813
check	-5814
dacha	-5815
eanas	-5816
eimhr	-5817
eiste	-5818
eofaí	-5819
fimid	-5820
foirt	-5821
igear	-5822
ileán	-5823
implí	-5824
iompú	-5825
ionós	-5826
mhara	-5827
mhóra	-5828
neaic	-5829
nuair	-5830
ochaí	-5831
onadh	-5832
onucl	-5833
phost	-5834
raidh	-5835
reval	-5836
shaol	-5837
singe	-5838
tasaí	-5839
túirt	-5840
víris	-5841
álann	-5842
éasúr	-5843
únach	-5844
▁2012	-5845
▁2018	-5846
▁8.30	-5847
▁Aims	-5848
▁Cill	-5849
▁Deac	-5850
▁Feic	-5851
▁Glac	-5852
▁Iobú	-5853
▁Iomp	-5854
▁Mair	-5855
▁Nuro	-5856
▁Rian	-5857
▁Stop	-5858
▁aici	-5859
▁anal	-5860
▁ardt	-5861
▁asma	-5862
▁bard	-5863
▁bhío	-5864
▁bonn	-5865
▁buna	-5866
▁béim	-5867
▁carr	-5868
▁chód	-5869
▁corp	-5870
▁dhea	-5871
▁diam	-5872
▁doic	-5873
▁dtit	-5874
▁ecdc	-5875
▁face	-5876
▁fall	-5877
▁feir	-5878
▁fuil	-5879
▁féar	-5880
▁haer	-5881
▁iata	-5882
▁intl	-5883
▁mach	-5884
▁ocht	-5885
▁pait	-5886
▁phar	-5887
▁rath	-5888
▁réad	-5889
▁siom	-5890
▁sist	-5891
▁slua	-5892
▁spás	-5893
▁tadh	-5894
▁thrí	-5895
▁uath	-5896
▁uibh	-5897
▁uíbh	-5898
20,000	-5899
ainéal	-5900
anacha	-5901
chláir	-5902
eantas	-5903
earraí	-5904
eathrú	-5905
eáilte	-5906
fraigh	-5907
ghrúpa	-5908
imdhío	-5909
inimic	-5910
iteáil	-5911
iúradh	-5912
lódáil	-5913
lúchta	-5914
mhacht	-5915
náimhs	-5916
profen	-5917
saíonn	-5918
sonaro	-5919
stitiú	-5920
thairn	-5921
uimhir	-5922
utóige	-5923
áirimh	-5924
áiríre	-5925
áthair	-5926
éagach	-5927
éamach	-5928
éanamh	-5929
íostaí	-5930
íosúin	-5931
íríonn	-5932
úsáide	-5933
▁7,162	-5934
▁Abair	-5935
▁Aonad	-5936
▁Garth	-5937
▁Gnáth	-5938
▁Srian	-5939
▁abair	-5940
▁aerbh	-5941
▁aithn	-5942
▁aonar	-5943
▁athch	-5944
▁athsh	-5945
▁buail	-5946
▁ceist	-5947
▁ceoil	-5948
▁cheil	-5949
▁chian	-5950
▁clárú	-5951
▁clóis	-5952
▁coles	-5953
▁consa	-5954
▁cúlch	-5955
▁cúrsa	-5956
▁dhísp	-5957
▁dtimp	-5958
▁ebola	-5959
▁fhual	-5960
▁gcead	-5961
▁gcéin	-5962
▁glynn	-5963
▁gruag	-5964
▁guang	-5965
▁géire	-5966
▁hidir	-5967
▁hoibr	-5968
▁imirt	-5969
▁laige	-5970
▁léamh	-5971
▁líomh	-5972
▁malar	-5973
▁mhóra	-5974
▁mions	-5975
▁máirt	-5976
▁mícho	-5977
▁naofa	-5978
▁nádúr	-5979
▁orgán	-5980
▁phost	-5981
▁phóca	-5982
▁polar	-5983
▁píoló	-5984
▁ronan	-5985
▁shaol	-5986
▁shiúl	-5987
▁stróc	-5988
▁swabs	-5989
▁sínte	-5990
▁thapa	-5991
▁theag	-5992
▁their	-5993
▁thíos	-5994
▁tordú	-5995
▁trian	-5996
▁triom	-5997
▁ísliú	-5998
anglaid	-5999
eánaigh	-6000
faíocht	-6001
illeann	-6002
ipidéim	-6003
iúlacht	-6004
lacháin	-6005
lándáil	-6006
pholait	-6007
phríomh	-6008
reagadh	-6009
romchla	-6010
thaíodh	-6011
▁Bhíonn	-6012
▁Campas	-6013
▁Ionaid	-6014
▁Luaigh	-6015
▁Moladh	-6016
▁Táimid	-6017
▁achain	-6018
▁alpaca	-6019
▁amanna	-6020
▁antaig	-6021
▁aontas	-6022
▁bhalla	-6023
▁bhfeic	-6024
▁bhfíor	-6025
▁bhéilí	-6026
▁breast	-6027
▁caighd	-6028
▁ceimic	-6029
▁ceirde	-6030
▁chaill	-6031
▁chláir	-6032
▁chúpla	-6033
▁coicís	-6034
▁comhio	-6035
▁coróin	-6036
▁cupáin	-6037
▁dhroim	-6038
▁dteach	-6039
▁eachtr	-6040
▁faoina	-6041
▁fasach	-6042
▁feiste	-6043
▁feline	-6044
▁fhaigh	-6045
▁fhocal	-6046
▁fhrith	-6047
▁fhógra	-6048
▁folamh	-6049
▁frámaí	-6050
▁imithe	-6051
▁ionada	-6052
▁mhothú	-6053
▁misean	-6054
▁ngnáth	-6055
▁nigéir	-6056
▁oileán	-6057
▁orgáin	-6058
▁oscail	-6059
▁ostair	-6060
▁phears	-6061
▁pionós	-6062
▁plasma	-6063
▁prince	-6064
▁páiste	-6065
▁rouhan	-6066
▁shíniú	-6067
▁simplí	-6068
▁smaoin	-6069
▁snámha	-6070
▁sputum	-6071
▁sruthú	-6072
▁tamall	-6073
▁ticéad	-6074
▁tobann	-6075
▁troigh	-6076
▁tréith	-6077
▁tugann	-6078
▁tugtar	-6079
▁táirge	-6080
▁áitigh	-6081
▁éanúil	-6082
aidreamh	-6083
aighdeán	-6084
eáchtáil	-6085
iabhrach	-6086
iúscairt	-6087
lúdaíonn	-6088
mhínithe	-6089
oibrithe	-6090
oibríoch	-6091
onraithe	-6092
ordaithe	-6093
proifein	-6094
rótacail	-6095
theannas	-6096
tógálach	-6097
▁Cásanna	-6098
▁Nurofen	-6099
▁Sábháil	-6100
▁adhanom	-6101
▁ailléir	-6102
▁aosaigh	-6103
▁beartas	-6104
▁bhreith	-6105
▁cailliú	-6106
▁chairde	-6107
▁chosúil	-6108
▁chúinsí	-6109
▁claonta	-6110
▁cogaidh	-6111
▁conaire	-6112
▁critéir	-6113
▁dheimhn	-6114
▁diamond	-6115
▁dtosódh	-6116
▁dtriail	-6117
▁déimeag	-6118
▁dúshlán	-6119
▁eisiata	-6120
▁fhuacht	-6121
▁forlíon	-6122
▁fulaing	-6123
▁gabhadh	-6124
▁gcineál	-6125
▁gconair	-6126
▁gcorróg	-6127
▁giniúna	-6128
▁gnóthaí	-6129
▁heagrán	-6130
▁iarthar	-6131
▁indiach	-6132
▁leathan	-6133
▁láidriú	-6134
▁líonadh	-6135
▁líonraí	-6136
▁lóistín	-6137
▁meascán	-6138
▁mholann	-6139
▁mórthír	-6140
▁músaeim	-6141
▁nuachta	-6142
▁oibrigh	-6143
▁patrúin	-6144
▁pholait	-6145
▁pirimid	-6146
▁rachadh	-6147
▁scagtha	-6148
▁shuíomh	-6149
▁shéasúr	-6150
▁shínigh	-6151
▁slabhra	-6152
▁stóráil	-6153
▁suaimhn	-6154
▁symptom	-6155
▁tamaill	-6156
▁theocht	-6157
▁tuáillí	-6158
▁téarmaí	-6159
▁uirlisí	-6160
▁éagsúil	-6161
ainneacha	-6162
aiscumair	-6163
chtúracha	-6164
dchumainn	-6165
enteritis	-6166
fheidhmiú	-6167
ghiniúint	-6168
imeachtaí	-6169
inicíocht	-6170
oláireamh	-6171
revalence	-6172
ruinnithe	-6173
uairisciú	-6174
íobhálach	-6175
▁Cinntigh	-6176
▁Cuidíonn	-6177
▁Cuirtear	-6178
▁Cáineadh	-6179
▁Fanfaidh	-6180
▁Laistigh	-6181
▁Trealamh	-6182
▁aerlínte	-6183
▁aimsithe	-6184
▁aimsíonn	-6185
▁bacainní	-6186
▁baictéar	-6187
▁cabhrach	-6188
▁casachta	-6189
▁cathrach	-6190
▁chaomhnú	-6191
▁cheanada	-6192
▁cheithre	-6193
▁choimeád	-6194
▁chomhrac	-6195
▁chonradh	-6196
▁claonadh	-6197
▁coláistí	-6198
▁cónaithe	-6199
▁díghalrú	-6200
▁eachtraí	-6201
▁himeacht	-6202
▁idirlíon	-6203
▁indéanta	-6204
▁infheist	-6205
▁iomadúla	-6206
▁leantach	-6207
▁leithéid	-6208
▁mascanna	-6209
▁mbainist	-6210
▁mbraisle	-6211
▁meáchain	-6212
▁mheasúnú	-6213
▁mhuintir	-6214
▁mháthair	-6215
▁mórchuid	-6216
▁ocsaigin	-6217
▁ollmhóra	-6218
▁próiseas	-6219
▁rabhaidh	-6220
▁rachaidh	-6221
▁rialacha	-6222
▁réiteach	-6223
▁sathairn	-6224
▁shamplaí	-6225
▁shliocht	-6226
▁socróidh	-6227
▁soiléire	-6228
▁sraithth	-6229
▁srianadh	-6230
▁teoiricí	-6231
▁tiomáint	-6232
▁tionscal	-6233
▁treasach	-6234
aispeántar	-6235
bhuntáiste	-6236
eathnaíodh	-6237
iarrachtaí	-6238
idhreachta	-6239
intestinal	-6240
isceachtaí	-6241
neaiceanna	-6242
ruitíneach	-6243
scaoileadh	-6244
▁Caithfear	-6245
▁Géarchéim	-6246
▁Scaipeann	-6247
▁Scaiptear	-6248
▁Seirbhísí	-6249
▁Smaoinigh	-6250
▁Tagraíonn	-6251
▁Tiocfaidh	-6252
▁athraithe	-6253
▁ballstáit	-6254
▁bhailíonn	-6255
▁bhreatain	-6256
▁bolsonaro	-6257
▁chomhordú	-6258
▁chúramóir	-6259
▁digiteach	-6260
▁diúltacha	-6261
▁enteritis	-6262
▁feithiclí	-6263
▁fheiceann	-6264
▁fheictear	-6265
▁fhreagair	-6266
▁foláirimh	-6267
▁fuinneamh	-6268
▁féadfaidh	-6269
▁gabhdóirí	-6270
▁gaillimhe	-6271
▁gcorcaigh	-6272
▁gcuirtear	-6273
▁ghabhdóir	-6274
▁ghualainn	-6275
▁hospidéil	-6276
▁iarratais	-6277
▁iarrthóra	-6278
▁infheidhm	-6279
▁iomarcach	-6280
▁leithlise	-6281
▁meánscoil	-6282
▁paisinéir	-6283
▁pataiginí	-6284
▁phleanáil	-6285
▁príomhúil	-6286
▁radagrafa	-6287
▁shaotharl	-6288
▁substaint	-6289
▁taibhithe	-6290
▁tarlaíonn	-6291
▁thiomáint	-6292
▁thionchar	-6293
▁threalamh	-6294
▁tionscail	-6295
▁uaslódála	-6296
▁uibheacha	-6297
▁veicteoir	-6298
▁veicteora	-6299
▁úsáideoir	-6300
astrazeneca	-6301
▁Braitheadh	-6302
▁Braithfidh	-6303
▁ainmneacha	-6304
▁cailliúint	-6305
▁choimisiún	-6306
▁choinníonn	-6307
▁chraiceann	-6308
▁chógaslann	-6309
▁comhdhúile	-6310
▁cruthaíonn	-6311
▁cumarsáide	-6312
▁cumhachtaí	-6313
▁cúlpháirtí	-6314
▁dífhabhtán	-6315
▁fhachtóirí	-6316
▁fhaightear	-6317
▁fhostaithe	-6318
▁gcathracha	-6319
▁hanaithnid	-6320
▁iarrthóirí	-6321
▁laghdaíonn	-6322
▁leathanach	-6323
▁leigheasra	-6324
▁mheabhrach	-6325
▁mheicniúil	-6326
▁páirceanna	-6327
▁riachtanas	-6328
▁roghnaithe	-6329
▁shocraíonn	-6330
▁shoiléiriú	-6331
▁shábháilte	-6332
▁sistéamach	-6333
▁soláthróir	-6334
▁teileafóin	-6335
▁thairgeann	-6336
▁tharraingt	-6337
▁tráchtairí	-6338
▁tábhachtaí	-6339
ghníomhartha	-6340
▁Cuairteanna	-6341
▁airmheánach	-6342
▁breastcheck	-6343
▁chliniciúla	-6344
▁coisctheach	-6345
▁coróivíreas	-6346
▁cuideachtaí	-6347
▁dtuarascáil	-6348
▁díghalraigh	-6349
▁fhorbraíonn	-6350
▁gcomharthaí	-6351
▁glantacháin	-6352
▁mhúinteoirí	-6353
▁mífhaisnéis	-6354
▁sheachadadh	-6355
▁siomptómach	-6356
▁Coróinvíreas	-6357
▁Soláthraíonn	-6358
▁Sraothartach	-6359
▁athosclaíodh	-6360
▁bhfaireachas	-6361
▁chomhlíonadh	-6362
▁chuairteoirí	-6363
▁cuimsitheach	-6364
▁dhíspreagadh	-6365
▁diagnóiseach	-6366
▁foghlaimeoir	-6367
▁ghluaiseacht	-6368
▁idirghabháil	-6369
▁intleachtúil	-6370
▁mheasúnaithe	-6371
▁sainmhínithe	-6372
▁solúbthachta	-6373
▁ceardchumainn	-6374
▁cianfhoghlama	-6375
▁hipirtheannas	-6376
▁meastóireacht	-6377
▁mhíbhuntáiste	-6378
▁struchtúracha	-6379
▁theagmhálacha	-6380
▁cothromaíochta	-6381
▁doiciméadaithe	-6382
▁dífhostaíochta	-6383
▁fhéidearthacht	-6384
▁meánscoileanna	-6385
▁oiriúnaitheach	-6386
▁phríobháideach	-6387
▁seroprevalence	-6388
▁siarghabhálach	-6389
▁séireolaíochta	-6390
phríomhoifigeach	-6391
▁athbhreithnithe	-6392
▁ceolchoirmeacha	-6393
▁ghníomhaireacht	-6394
'.	-6395
,0	-6396
,3	-6397
-3	-6398
-4	-6399
-7	-6400
41	-6401
42	-6402
62	-6403
72	-6404
77	-6405
88	-6406
96	-6407
98	-6408
ak	-6409
ax	-6410
ci	-6411
dá	-6412
em	-6413
hi	-6414
ji	-6415
ks	-6416
ok	-6417
ou	-6418
ov	-6419
pe	-6420
ws	-6421
.2%	-6422
19-	-6423
19.	-6424
405	-6425
566	-6426
63.	-6427
700	-6428
9,3	-6429
arm	-6430
aím	-6431
bai	-6432
bhé	-6433
ced	-6434
cet	-6435
dhó	-6436
drp	-6437
efa	-6438
eif	-6439
ell	-6440
fer	-6441
for	-6442
hom	-6443
icu	-6444
ive	-6445
leá	-6446
lin	-6447
lua	-6448
mad	-6449
mer	-6450
mit	-6451
miú	-6452
msa	-6453
nap	-6454
ney	-6455
obh	-6456
oco	-6457
oim	-6458
per	-6459
ppe	-6460
rey	-6461
rrt	-6462
rti	-6463
sha	-6464
sia	-6465
tcp	-6466
uim	-6467
urg	-6468
usp	-6469
uth	-6470
vel	-6471
way	-6472
xia	-6473
yan	-6474
áip	-6475
édh	-6476
íbe	-6477
óic	-6478
▁".	-6479
▁(0	-6480
▁36	-6481
▁4)	-6482
▁4.	-6483
▁63	-6484
▁69	-6485
▁71	-6486
▁73	-6487
▁95	-6488
▁Cá	-6489
▁Dó	-6490
▁Ph	-6491
▁Tu	-6492
▁af	-6493
▁ep	-6494
▁fá	-6495
▁gi	-6496
▁hy	-6497
▁ie	-6498
▁iv	-6499
▁li	-6500
▁my	-6501
▁ru	-6502
▁vs	-6503
-2).	-6504
07.1	-6505
aegu	-6506
ailc	-6507
anss	-6508
ards	-6509
book	-6510
béil	-6511
chen	-6512
chon	-6513
ctor	-6514
earn	-6515
edia	-6516
eilg	-6517
eála	-6518
flaí	-6519
ghrá	-6520
iage	-6521
iang	-6522
ibil	-6523
ical	-6524
icís	-6525
inda	-6526
itus	-6527
itín	-6528
iúir	-6529
leag	-6530
leic	-6531
léid	-6532
lódh	-6533
mhch	-6534
nálú	-6535
núil	-6536
oird	-6537
olta	-6538
omit	-6539
onji	-6540
orib	-6541
rion	-6542
rith	-6543
ruga	-6544
réas	-6545
réit	-6546
scóp	-6547
sell	-6548
sáil	-6549
tain	-6550
tama	-6551
tero	-6552
ther	-6553
thlú	-6554
tinn	-6555
tura	-6556
tóir	-6557
uain	-6558
véis	-6559
ware	-6560
zhou	-6561
áire	-6562
áras	-6563
éada	-6564
éill	-6565
éime	-6566
ónna	-6567
úpaí	-6568
▁(27	-6569
▁(4)	-6570
▁14,	-6571
▁15%	-6572
▁196	-6573
▁2,3	-6574
▁2,4	-6575
▁229	-6576
▁250	-6577
▁290	-6578
▁3,1	-6579
▁3.8	-6580
▁4,3	-6581
▁40%	-6582
▁70%	-6583
▁Aip	-6584
▁Air	-6585
▁Ais	-6586
▁Ant	-6587
▁Bog	-6588
▁Brú	-6589
▁Dea	-6590
▁Fia	-6591
▁Ins	-6592
▁amú	-6593
▁atr	-6594
▁bon	-6595
▁bus	-6596
▁buí	-6597
▁bán	-6598
▁cai	-6599
▁ceo	-6600
▁cil	-6601
▁dan	-6602
▁dia	-6603
▁dow	-6604
▁dán	-6605
▁far	-6606
▁fóg	-6607
▁gor	-6608
▁hae	-6609
▁hen	-6610
▁hin	-6611
▁hor	-6612
▁hse	-6613
▁hun	-6614
▁ili	-6615
▁ing	-6616
▁isp	-6617
▁jae	-6618
▁lio	-6619
▁lop	-6620
▁luí	-6621
▁lón	-6622
▁mhó	-6623
▁nce	-6624
▁nsp	-6625
▁ola	-6626
▁ord	-6627
▁pub	-6628
▁rin	-6629
▁rit	-6630
▁sic	-6631
▁sil	-6632
▁sta	-6633
▁sár	-6634
▁tin	-6635
▁wik	-6636
▁éit	-6637
2,000	-6638
2,653	-6639
ailin	-6640
aillí	-6641
ailín	-6642
ainiú	-6643
ansom	-6644
aolta	-6645
aonar	-6646
aontú	-6647
apáil	-6648
bhuan	-6649
chana	-6650
dheon	-6651
dladh	-6652
drocs	-6653
dóidh	-6654
ealbh	-6655
eansú	-6656
eimid	-6657
eipit	-6658
feron	-6659
fhada	-6660
ghais	-6661
ghlao	-6662
gnamh	-6663
https	-6664
iarth	-6665
icítí	-6666
ileog	-6667
ional	-6668
iopló	-6669
laise	-6670
leach	-6671
lithe	-6672
luath	-6673
málta	-6674
neamh	-6675
nóidh	-6676
nóirí	-6677
ogadh	-6678
oimre	-6679
osúla	-6680
pacha	-6681
raoth	-6682
reasc	-6683
rofen	-6684
rácht	-6685
scáil	-6686
spóid	-6687
tease	-6688
teric	-6689
ticos	-6690
uisín	-6691
virus	-6692
éagró	-6693
éimsí	-6694
éinte	-6695
óirín	-6696
óisir	-6697
▁1930	-6698
▁2003	-6699
▁269,	-6700
▁4,90	-6701
▁Bhío	-6702
▁Cnap	-6703
▁Deir	-6704
▁Fill	-6705
▁Seol	-6706
▁admh	-6707
▁aldi	-6708
▁asta	-6709
▁bair	-6710
▁banc	-6711
▁bhfu	-6712
▁bhog	-6713
▁bric	-6714
▁chuí	-6715
▁cúlú	-6716
▁déth	-6717
▁easc	-6718
▁euro	-6719
▁fhul	-6720
▁fhío	-6721
▁foch	-6722
▁fóir	-6723
▁gael	-6724
▁gafa	-6725
▁glao	-6726
▁gáma	-6727
▁héad	-6728
▁iasc	-6729
▁ilmh	-6730
▁imir	-6731
▁inné	-6732
▁loch	-6733
▁lrti	-6734
▁luch	-6735
▁léim	-6736
▁mais	-6737
▁marc	-6738
▁mear	-6739
▁meit	-6740
▁mell	-6741
▁mhao	-6742
▁mill	-6743
▁mídh	-6744
▁nato	-6745
▁nóim	-6746
▁osha	-6747
▁paid	-6748
▁paul	-6749
▁peir	-6750
▁phol	-6751
▁rccp	-6752
▁reid	-6753
▁rúin	-6754
▁sean	-6755
▁seip	-6756
▁sera	-6757
▁shíc	-6758
▁shíl	-6759
▁sint	-6760
▁sual	-6761
▁suir	-6762
▁taif	-6763
▁teip	-6764
▁tocs	-6765
▁tsao	-6766
▁uaig	-6767
▁uefa	-6768
▁áite	-6769
▁íoca	-6770
acanna	-6771
aidrid	-6772
aithne	-6773
annamh	-6774
anssen	-6775
clúidí	-6776
dachas	-6777
dhúlra	-6778
eabhar	-6779
eacair	-6780
eallta	-6781
eimirí	-6782
eitril	-6783
enzhen	-6784
fhreag	-6785
iceáil	-6786
illeán	-6787
imintí	-6788
inavir	-6789
iompar	-6790
iseann	-6791
istéir	-6792
ivíris	-6793
leácha	-6794
lúdódh	-6795
mhairg	-6796
mptóim	-6797
ovirus	-6798
pheile	-6799
phlean	-6800
rianta	-6801
réasán	-6802
rúpáil	-6803
taíodh	-6804
thaire	-6805
thráth	-6806
ualach	-6807
useppe	-6808
éalach	-6809
éilliú	-6810
éising	-6811
íbhinn	-6812
▁2,000	-6813
▁2003,	-6814
▁2009.	-6815
▁2012,	-6816
▁2020)	-6817
▁4,000	-6818
▁5,000	-6819
▁Baile	-6820
▁Brais	-6821
▁Chead	-6822
▁Covid	-6823
▁Creid	-6824
▁Dóibh	-6825
▁Gearr	-6826
▁Ghlan	-6827
▁Mheas	-6828
▁Páirc	-6829
▁Sheol	-6830
▁Suigh	-6831
▁Téann	-6832
▁aiste	-6833
▁araon	-6834
▁athló	-6835
▁bháis	-6836
▁bpost	-6837
▁béile	-6838
▁caoin	-6839
▁catar	-6840
▁chois	-6841
▁chroí	-6842
▁chách	-6843
▁ciall	-6844
▁creat	-6845
▁cruth	-6846
▁cuimh	-6847
▁cásca	-6848
▁céadf	-6849
▁daegu	-6850
▁daing	-6851
▁deoch	-6852
▁dhúsh	-6853
▁dátaí	-6854
▁díriú	-6855
▁eagrú	-6856
▁feola	-6857
▁fhada	-6858
▁fhorl	-6859
▁fhéin	-6860
▁fhóin	-6861
▁franc	-6862
▁gcarr	-6863
▁gcill	-6864
▁gcinn	-6865
▁ghlan	-6866
▁gorta	-6867
▁greim	-6868
▁haith	-6869
▁isced	-6870
▁lasta	-6871
▁lucha	-6872
▁léigh	-6873
▁meais	-6874
▁meicn	-6875
▁mhala	-6876
▁mhíle	-6877
▁mhóil	-6878
▁monar	-6879
▁monoc	-6880
▁murta	-6881
▁naomh	-6882
▁ranna	-6883
▁róimh	-6884
▁rúnda	-6885
▁saill	-6886
▁saint	-6887
▁sanit	-6888
▁schen	-6889
▁seilf	-6890
▁seoil	-6891
▁serum	-6892
▁sheas	-6893
▁stoic	-6894
▁síoch	-6895
▁thomh	-6896
▁troid	-6897
▁uasdá	-6898
▁vomit	-6899
▁árach	-6900
▁éadan	-6901
▁ólann	-6902
aillimh	-6903
aisleán	-6904
asamhlú	-6905
cheonji	-6906
chosúil	-6907
chuntas	-6908
chógais	-6909
dhéanta	-6910
ealacha	-6911
ealladh	-6912
eathana	-6913
ghrúpaí	-6914
ileanna	-6915
ireacht	-6916
labhraí	-6917
oláthar	-6918
raítear	-6919
reascóp	-6920
seachas	-6921
tómacha	-6922
vacsaín	-6923
édhearc	-6924
úsáidfí	-6925
▁(2019-	-6926
▁(5.8%)	-6927
▁10,000	-6928
▁50,000	-6929
▁Cosain	-6930
▁Cosúil	-6931
▁Dearbh	-6932
▁Déanta	-6933
▁Fanann	-6934
▁Scrios	-6935
▁Siopaí	-6936
▁Teacht	-6937
▁Tógtar	-6938
▁achair	-6939
▁aimsiú	-6940
▁aithne	-6941
▁allais	-6942
▁aláram	-6943
▁bainne	-6944
▁bhaill	-6945
▁bheilg	-6946
▁bhfliú	-6947
▁bhuaic	-6948
▁blúirí	-6949
▁bréige	-6950
▁caillt	-6951
▁cairte	-6952
▁calraí	-6953
▁camáin	-6954
▁carrsh	-6955
▁ceanna	-6956
▁chainn	-6957
▁chairt	-6958
▁chlann	-6959
▁chloch	-6960
▁chonas	-6961
▁chruth	-6962
▁chófra	-6963
▁cianda	-6964
▁cionta	-6965
▁coinní	-6966
▁croith	-6967
▁cruthú	-6968
▁cóisir	-6969
▁cúigiú	-6970
▁cúrsaí	-6971
▁daltaí	-6972
▁deoise	-6973
▁dhíriú	-6974
▁diopló	-6975
▁dtaobh	-6976
▁dúradh	-6977
▁eagrán	-6978
▁exorib	-6979
▁fheist	-6980
▁fhisic	-6981
▁fhéach	-6982
▁forluí	-6983
▁fágtha	-6984
▁gairis	-6985
▁garman	-6986
▁gcoinn	-6987
▁gcóiré	-6988
▁gcúige	-6989
▁ghorta	-6990
▁gloiní	-6991
▁hassan	-6992
▁imíonn	-6993
▁intíre	-6994
▁ioslam	-6995
▁logáil	-6996
▁láidre	-6997
▁maipín	-6998
▁mballa	-6999
▁mearbh	-7000
▁measta	-7001
▁mhaisc	-7002
▁mhonar	-7003
▁ndlúth	-7004
▁ndálaí	-7005
▁ngleic	-7006
▁nochtú	-7007
▁oilimp	-7008
▁pailin	-7009
▁phróis	-7010
▁ransom	-7011
▁saille	-7012
▁sasana	-7013
▁scríbe	-7014
▁scrúdú	-7015
▁scíthe	-7016
▁seasta	-7017
▁siamsa	-7018
▁stailc	-7019
▁tagann	-7020
▁taithí	-7021
▁triage	-7022
▁tréada	-7023
▁trúpaí	-7024
▁tuirse	-7025
▁táimid	-7026
▁vótáil	-7027
▁áirith	-7028
▁éigipt	-7029
▁íomháú	-7030
▁ócáidí	-7031
▁údarás	-7032
ailteach	-7033
aitheoir	-7034
aivíreas	-7035
asachtaí	-7036
bhreithe	-7037
ealaíonn	-7038
eallacht	-7039
eastóidh	-7040
eirbhíse	-7041
gúltacht	-7042
iabhrais	-7043
ianghraf	-7044
ineachán	-7045
inneamar	-7046
laghdáin	-7047
llmhaigh	-7048
nachtain	-7049
nachtana	-7050
national	-7051
niúmóine	-7052
onavirus	-7053
ordaíonn	-7054
ruthaigh	-7055
tréimhse	-7056
áireofaí	-7057
éifeacht	-7058
éireoidh	-7059
▁122,653	-7060
▁200,000	-7061
▁Leabhar	-7062
▁Leanann	-7063
▁Measann	-7064
▁Scríobh	-7065
▁Shínigh	-7066
▁anatama	-7067
▁ardaigh	-7068
▁atáthar	-7069
▁bagairt	-7070
▁bainise	-7071
▁bhainne	-7072
▁bheagán	-7073
▁bhearna	-7074
▁bhfoirm	-7075
▁bhreath	-7076
▁bhreoit	-7077
▁blianta	-7078
▁bonneag	-7079
▁bpríomh	-7080
▁chamáin	-7081
▁cheansú	-7082
▁chearta	-7083
▁choicís	-7084
▁chomhdh	-7085
▁ciníoch	-7086
▁cnáimhs	-7087
▁conradh	-7088
▁contúir	-7089
▁dearadh	-7090
▁deartha	-7091
▁dhoirse	-7092
▁drochth	-7093
▁ealaíne	-7094
▁eatramh	-7095
▁eilvéis	-7096
▁eitilte	-7097
▁enteric	-7098
▁fhanann	-7099
▁fírinne	-7100
▁gcealla	-7101
▁ghaolta	-7102
▁ghardaí	-7103
▁gheimhr	-7104
▁homalóg	-7105
▁iarmhar	-7106
▁iolrach	-7107
▁ionchur	-7108
▁ionrach	-7109
▁janssen	-7110
▁leagann	-7111
▁leagtha	-7112
▁leordhó	-7113
▁londain	-7114
▁mbileog	-7115
▁mhapáil	-7116
▁mhargaí	-7117
▁mhodhnú	-7118
▁milleán	-7119
▁montain	-7120
▁ndoirse	-7121
▁neamhbh	-7122
▁núicléa	-7123
▁phaisin	-7124
▁phianta	-7125
▁rioscaí	-7126
▁rolladh	-7127
▁rouhani	-7128
▁sailéid	-7129
▁sceidil	-7130
▁scrínte	-7131
▁seachtú	-7132
▁seisear	-7133
▁seoladh	-7134
▁shraith	-7135
▁spáinne	-7136
▁suirbhé	-7137
▁teastas	-7138
▁teiripí	-7139
▁theirip	-7140
▁thrasnú	-7141
▁thógann	-7142
▁trádáil	-7143
▁virions	-7144
aitheanta	-7145
aiticiúil	-7146
fhoghlaim	-7147
iúscartha	-7148
mhairithe	-7149
oideachas	-7150
onuclease	-7151
raíochtaí	-7152
▁Bhíothas	-7153
▁Cóireáil	-7154
▁Cúisíodh	-7155
▁Ordaíodh	-7156
▁Scornach	-7157
▁Seiceáil	-7158
▁Sháraigh	-7159
▁Tacaíonn	-7160
▁adhartha	-7161
▁airdeall	-7162
▁aisiompú	-7163
▁anailíse	-7164
▁bhagairt	-7165
▁bhfanann	-7166
▁bholgach	-7167
▁bhásanna	-7168
▁chasacht	-7169
▁chothrom	-7170
▁corticos	-7171
▁cuirtear	-7172
▁córasach	-7173
▁cúiseach	-7174
▁difriúla	-7175
▁dtéarmaí	-7176
▁déthaobh	-7177
▁dífhostú	-7178
▁eolaíoch	-7179
▁eorpaigh	-7180
▁facebook	-7181
▁feithimh	-7182
▁fhorchur	-7183
▁fhulaing	-7184
▁folláine	-7185
▁fulaingt	-7186
▁gabhdóir	-7187
▁gclúdódh	-7188
▁ghineann	-7189
▁giuseppe	-7190
▁glóthach	-7191
▁hiodrocs	-7192
▁iarratas	-7193
▁ilmheáin	-7194
▁iomláine	-7195
▁ionanálú	-7196
▁leapacha	-7197
▁leithead	-7198
▁luaitear	-7199
▁lánfhada	-7200
▁maireann	-7201
▁mbrasaíl	-7202
▁mellitus	-7203
▁mhalairt	-7204
▁ndáiríre	-7205
▁neamhord	-7206
▁plaicint	-7207
▁princess	-7208
▁romhainn	-7209
▁samhaltú	-7210
▁saothair	-7211
▁scaoilte	-7212
▁schengen	-7213
▁shenzhen	-7214
▁shlabhra	-7215
▁shíleann	-7216
▁síochána	-7217
▁teastais	-7218
▁teilifís	-7219
▁teorannú	-7220
▁theagasc	-7221
▁thinneas	-7222
▁tosaithe	-7223
▁tosaíonn	-7224
▁trilliún	-7225
▁tráthúil	-7226
▁tréimhsí	-7227
▁tuairimí	-7228
▁tubaiste	-7229
▁turgnamh	-7230
▁turraing	-7231
▁tábhacht	-7232
▁tástálaí	-7233
▁uaigneas	-7234
▁vomiting	-7235
aispeánadh	-7236
anglaidéis	-7237
athscríobh	-7238
bhreithniú	-7239
eimiceacha	-7240
▁Cúramóirí	-7241
▁Roinneann	-7242
▁Roinntear	-7243
▁aimsítear	-7244
▁aithníonn	-7245
▁alpacanna	-7246
▁bainteach	-7247
▁bardasach	-7248
▁bhfreagra	-7249
▁bhréagach	-7250
▁caidreamh	-7251
▁ceadaíodh	-7252
▁ceallacha	-7253
▁ceanadach	-7254
▁ciníochas	-7255
▁cispheile	-7256
▁coronavir	-7257
▁creidtear	-7258
▁cumannach	-7259
▁cáilíocht	-7260
▁céatadáin	-7261
▁danmhairg	-7262
▁deiseanna	-7263
▁dhifriúla	-7264
▁dtuigeann	-7265
▁díghalrán	-7266
▁eipidéime	-7267
▁fairsinge	-7268
▁fhilleadh	-7269
▁fhostóirí	-7270
▁fisiciúla	-7271
▁foraithne	-7272
▁fóirdheon	-7273
▁gcoláistí	-7274
▁guangzhou	-7275
▁hoibrithe	-7276
▁iarrthóir	-7277
▁ibuprofen	-7278
▁ionsaithe	-7279
▁iriseoirí	-7280
▁lopinavir	-7281
▁mbialanna	-7282
▁mearbhall	-7283
▁mhaireann	-7284
▁mhairfidh	-7285
▁mídhleath	-7286
▁mífheidhm	-7287
▁neamhaird	-7288
▁phríosúin	-7289
▁prótacail	-7290
▁randamach	-7291
▁reáchtáil	-7292
▁ritonavir	-7293
▁seipteach	-7294
▁sheirbhís	-7295
▁soiléiriú	-7296
▁tabhairne	-7297
▁thacaíonn	-7298
▁tharlóidh	-7299
▁thionscal	-7300
▁thosaíonn	-7301
▁tiocfaidh	-7302
▁tionchair	-7303
▁urlabhraí	-7304
▁úsáideora	-7305
ghlaimeoirí	-7306
phleanáilte	-7307
vacsaínithe	-7308
▁Athoscailt	-7309
▁Déanfaimid	-7310
▁Foláireamh	-7311
▁Ionfhabhtú	-7312
▁Leanfaimid	-7313
▁aistrítear	-7314
▁ceachtanna	-7315
▁chaithfidh	-7316
▁chathracha	-7317
▁choinníoll	-7318
▁choitianta	-7319
▁chúiseanna	-7320
▁ciallaíonn	-7321
▁comhionann	-7322
▁cruthaíodh	-7323
▁dhiúltaigh	-7324
▁dhiúscairt	-7325
▁dtabharfar	-7326
▁díghalráin	-7327
▁díolacháin	-7328
▁fhorbartha	-7329
▁gcoimisiún	-7330
▁geilleagar	-7331
▁gníomhaire	-7332
▁grianghraf	-7333
▁géarchéime	-7334
▁interferon	-7335
▁lymphocyte	-7336
▁láithreáin	-7337
▁líneálacha	-7338
▁malartacha	-7339
▁mbunuimhir	-7340
▁mheánscoil	-7341
▁neamhchinn	-7342
▁ollmhargaí	-7343
▁paidreacha	-7344
▁phearsanra	-7345
▁phríomhúil	-7346
▁polaitiúil	-7347
▁polaitiúla	-7348
▁ransomware	-7349
▁riospróirí	-7350
▁scaoiltear	-7351
▁seilfeanna	-7352
▁sinsearach	-7353
▁smaoineamh	-7354
▁síntómacha	-7355
▁taistealaí	-7356
▁teiripeach	-7357
▁tionscnamh	-7358
▁tosaíochta	-7359
▁trascríobh	-7360
▁tsamhraidh	-7361
▁uachtaráin	-7362
▁íochtarach	-7363
imdhíonachta	-7364
mheastacháin	-7365
ochtaineacht	-7366
uashonruithe	-7367
▁Coronavirus	-7368
▁Deacrachtaí	-7369
▁Dearbhaíonn	-7370
▁achainíocha	-7371
▁ainsealacha	-7372
▁astaíochtaí	-7373
▁bhfreagairt	-7374
▁chliabhrach	-7375
▁chomharthai	-7376
▁chomhpháirt	-7377
▁chruthaíonn	-7378
▁comhchosúla	-7379
▁cónaitheach	-7380
▁dhigiteacha	-7381
▁dtreoirlíne	-7382
▁déantúsóirí	-7383
▁feidhmchlár	-7384
▁forleathana	-7385
▁fáilteachas	-7386
▁gcomhthráth	-7387
▁gheilleagar	-7388
▁gluaiseacht	-7389
▁hathbhliana	-7390
▁instealladh	-7391
▁leathnaíodh	-7392
▁mhacasamhlú	-7393
▁mhoilleanna	-7394
▁mhothúcháin	-7395
▁núicléasach	-7396
▁phaisinéirí	-7397
▁pharlaimint	-7398
▁polaiteoirí	-7399
▁réamhchúram	-7400
▁sainaithint	-7401
▁shincheonji	-7402
▁sláintíocht	-7403
▁tacaíochtaí	-7404
▁thaifeadadh	-7405
▁thuaisceart	-7406
▁tionscadail	-7407
▁éigeandálaí	-7408
chógaisíochta	-7409
ghníomhaíocht	-7410
▁Breathnaíodh	-7411
▁bainistíocht	-7412
▁bhanglaidéis	-7413
▁bhfoirgneamh	-7414
▁cathaoireach	-7415
▁chreidmheasa	-7416
▁chuairteanna	-7417
▁imscrúduithe	-7418
▁meiriceánach	-7419
▁montainéagró	-7420
▁neamhshiméad	-7421
▁reachtaíocht	-7422
▁saotharlanna	-7423
▁siamsaíochta	-7424
▁teagmhálacha	-7425
▁thábhachtach	-7426
phataigineacha	-7427
▁caighdeánacha	-7428
▁déimeagrafach	-7429
▁gníomhaíochta	-7430
▁idirmheánacha	-7431
▁infheidhmithe	-7432
▁international	-7433
▁máithreachais	-7434
▁nuashonruithe	-7435
▁shaotharlanna	-7436
▁sholáthraíonn	-7437
▁sláintitheoir	-7438
▁séireolaíocht	-7439
▁tuarascálacha	-7440
▁carrsheirbhíse	-7441
▁chianfhoghlama	-7442
▁comhairliúchán	-7443
▁drochthionchar	-7444
▁díhiodráitithe	-7445
▁fhreastalaíonn	-7446
▁gníomhaireacht	-7447
▁mbunscoileanna	-7448
▁mhiondíoltóirí	-7449
▁monatóireachta	-7450
▁thromchúiseach	-7451
▁Antaibheathaigh	-7452
▁betacoronavirus	-7453
▁bhfoghlaimeoirí	-7454
▁bhfreastalaíonn	-7455
▁exoribonuclease	-7456
▁príobháideachas	-7457
▁rannpháirtíocht	-7458
▁thromchúiseacha	-7459
):	-7460
.6	-7461
4%	-7462
54	-7463
73	-7464
8%	-7465
82	-7466
az	-7467
bi	-7468
gi	-7469
ih	-7470
ls	-7471
má	-7472
ot	-7473
pl	-7474
pr	-7475
tc	-7476
,88	-7477
-17	-7478
.1.	-7479
057	-7480
078	-7481
1,8	-7482
108	-7483
3,5	-7484
4,8	-7485
5%)	-7486
5,8	-7487
576	-7488
6,8	-7489
687	-7490
9,7	-7491
948	-7492
95%	-7493
alc	-7494
bán	-7495
cal	-7496
car	-7497
eav	-7498
gra	-7499
yt	-7500
7,6	-7501
cca	-7502
dis	-7503
fío	-7504
gha	-7505
gia	-7506
hin	-7507
iat	-7508
ics	-7509
igí	-7510
ild	-7511
inf	-7512
inp	-7513
iob	-7514
ita	-7515
ití	-7516
ivo	-7517
lic	-7518
lim	-7519
loí	-7520
med	-7521
mph	-7522
nob	-7523
nom	-7524
ock	-7525
ogh	-7526
ome	-7527
oom	-7528
ore	-7529
pen	-7530
res	-7531
sfe	-7532
sil	-7533
tag	-7534
tan	-7535
tip	-7536
uba	-7537
ugh	-7538
vic	-7539
whe	-7540
xas	-7541
áta	-7542
éib	-7543
ící	-7544
íoc	-7545
óta	-7546
▁2)	-7547
▁5.	-7548
▁94	-7549
▁As	-7550
▁Cv	-7551
▁Gn	-7552
▁em	-7553
▁eu	-7554
▁ga	-7555
▁ka	-7556
▁la	-7557
▁nm	-7558
▁on	-7559
▁rl	-7560
▁xi	-7561
,336	-7562
-19:	-7563
-2),	-7564
-200	-7565
.5%.	-7566
ailf	-7567
ains	-7568
alon	-7569
asti	-7570
bail	-7571
bard	-7572
bheo	-7573
birt	-7574
bott	-7575
bour	-7576
chuí	-7577
dhar	-7578
dhír	-7579
eamú	-7580
eofá	-7581
gins	-7582
hiod	-7583
iatr	-7584
idim	-7585
ilat	-7586
inel	-7587
inis	-7588
iníl	-7589
iosp	-7590
iote	-7591
isin	-7592
iter	-7593
iúnú	-7594
leve	-7595
llar	-7596
léad	-7597
ment	-7598
mtha	-7599
ly	-7600
191	-7601
534	-7602
aen	-7603
aio	-7604
▁72	-7605
▁8:	-7606
▁Lá	-7607
▁ob	-7608
▁pé	-7609
cach	-7610
csaí	-7611
dara	-7612
iliú	-7613
mier	-7614
nsin	-7615
nóna	-7616
ofen	-7617
orua	-7618
osis	-7619
otic	-7620
rabh	-7621
raim	-7622
ráta	-7623
róga	-7624
saen	-7625
scag	-7626
súil	-7627
tadh	-7628
tart	-7629
tein	-7630
tend	-7631
tius	-7632
ular	-7633
umas	-7634
veol	-7635
ywhe	-7636
íoca	-7637
íofa	-7638
▁(13	-7639
▁(18	-7640
▁0.1	-7641
▁0.2	-7642
▁1,2	-7643
▁1,3	-7644
▁1.1	-7645
▁1.7	-7646
▁18-	-7647
▁2,2	-7648
▁2.4	-7649
▁3,3	-7650
▁358	-7651
▁4.8	-7652
▁60,	-7653
▁8,8	-7654
▁Cru	-7655
▁Cás	-7656
▁Dhá	-7657
▁Lei	-7658
▁Lúb	-7659
▁Oid	-7660
▁alt	-7661
▁ass	-7662
▁ban	-7663
▁bhú	-7664
▁bpu	-7665
▁bup	-7666
▁can	-7667
▁cao	-7668
▁clú	-7669
▁cmr	-7670
▁cnn	-7671
▁cír	-7672
▁del	-7673
▁dna	-7674
▁dor	-7675
▁ema	-7676
▁fau	-7677
▁fle	-7678
▁gcu	-7679
▁gcá	-7680
▁ghr	-7681
▁grá	-7682
▁hel	-7683
▁hsa	-7684
▁igg	-7685
▁igm	-7686
▁jix	-7687
▁kor	-7688
▁lab	-7689
▁mul	-7690
▁mág	-7691
▁nov	-7692
▁osc	-7693
▁psp	-7694
▁res	-7695
▁rus	-7696
▁rás	-7697
▁sal	-7698
▁scá	-7699
2%	-7700
.00	-7701
bat	-7702
kov	-7703
nny	-7704
rox	-7705
▁3%	-7706
▁59	-7707
▁Fo	-7708
▁da	-7709
iomú	-7710
irse	-7711
mhat	-7712
ondú	-7713
rase	-7714
▁14%	-7715
▁cór	-7716
▁gru	-7717
▁ióg	-7718
▁sho	-7719
▁sor	-7720
▁srí	-7721
▁sró	-7722
▁sun	-7723
▁sól	-7724
▁súl	-7725
▁tat	-7726
▁tom	-7727
▁tro	-7728
▁vla	-7729
▁you	-7730
▁zim	-7731
▁úcr	-7732
adóir	-7733
aidhm	-7734
aille	-7735
ainte	-7736
aionn	-7737
arthu	-7738
aráid	-7739
aslag	-7740
athsh	-7741
bhirt	-7742
bride	-7743
chais	-7744
chine	-7745
clúid	-7746
demic	-7747
dhíon	-7748
dimir	-7749
ealth	-7750
earma	-7751
eartú	-7752
eisia	-7753
fhill	-7754
genóm	-7755
ghlac	-7756
gáire	-7757
ibliú	-7758
igine	-7759
ision	-7760
itico	-7761
itíop	-7762
iúirí	-7763
lacan	-7764
lainn	-7765
leata	-7766
leura	-7767
liuch	-7768
línsí	-7769
líonn	-7770
mharú	-7771
mhéid	-7772
navac	-7773
nomed	-7774
nsaid	-7775
níoch	-7776
oibrí	-7777
oirte	-7778
oloph	-7779
oncho	-7780
opine	-7781
reabh	-7782
roith	-7783
rosyn	-7784
rugaí	-7785
rutha	-7786
scadh	-7787
scála	-7788
siúil	-7789
threo	-7790
uaird	-7791
uichí	-7792
urais	-7793
írigh	-7794
íseal	-7795
ógadh	-7796
óiríd	-7797
úinse	-7798
▁(6.5	-7799
cia	-7800
ies	-7801
ocs	-7802
pho	-7803
▁78	-7804
▁we	-7805
-7.2	-7806
idae	-7807
inae	-7808
ocia	-7809
ocyt	-7810
rell	-7811
éama	-7812
▁2,8	-7813
▁5.7	-7814
▁bpl	-7815
▁mao	-7816
▁wen	-7817
achar	-7818
ailse	-7819
baird	-7820
chead	-7821
intín	-7822
istic	-7823
mpord	-7824
orgán	-7825
rúnaí	-7826
▁(95%	-7827
▁10%.	-7828
▁1890	-7829
▁1960	-7830
▁2010	-7831
▁221,	-7832
▁223,	-7833
▁231,	-7834
▁238,	-7835
▁240,	-7836
▁243,	-7837
▁247,	-7838
▁3.89	-7839
▁4,13	-7840
▁4,58	-7841
▁4,78	-7842
▁4.7%	-7843
▁6.30	-7844
▁Bail	-7845
▁Béal	-7846
▁Dhún	-7847
▁Dáil	-7848
▁Idir	-7849
▁Líon	-7850
▁Masc	-7851
▁Port	-7852
▁Sars	-7853
▁Scan	-7854
▁Teip	-7855
▁Tion	-7856
▁abhc	-7857
▁airí	-7858
▁amne	-7859
▁ards	-7860
▁beir	-7861
▁bhur	-7862
▁bpac	-7863
▁béil	-7864
▁cait	-7865
▁cast	-7866
▁cata	-7867
▁chac	-7868
▁chin	-7869
▁club	-7870
▁colm	-7871
▁copd	-7872
▁crao	-7873
▁cuim	-7874
▁cóip	-7875
▁data	-7876
▁dhlí	-7877
▁doch	-7878
▁déag	-7879
▁dúla	-7880
▁fabh	-7881
▁fast	-7882
▁fein	-7883
▁fema	-7884
▁fhás	-7885
▁fost	-7886
▁gcúl	-7887
▁giom	-7888
▁guth	-7889
▁hypo	-7890
▁ibug	-7891
▁impí	-7892
▁inte	-7893
▁inár	-7894
▁ióga	-7895
▁jinp	-7896
▁lead	-7897
▁leos	-7898
▁limf	-7899
hsa	-7900
níl	-7901
oma	-7902
aicl	-7903
shan	-7904
uard	-7905
áite	-7906
▁dru	-7907
▁fae	-7908
▁onn	-7909
aipit	-7910
amhsa	-7911
antas	-7912
eoige	-7913
thadh	-7914
ártaí	-7915
▁1860	-7916
▁1918	-7917
▁242,	-7918
▁251,	-7919
▁Luim	-7920
▁Thit	-7921
▁alla	-7922
▁barr	-7923
▁buan	-7924
▁cuas	-7925
▁dhro	-7926
▁dúis	-7927
▁fite	-7928
▁heas	-7929
▁lonn	-7930
▁mass	-7931
▁mban	-7932
▁mhún	-7933
▁mike	-7934
▁mosc	-7935
▁mísh	-7936
▁ngla	-7937
▁pims	-7938
▁port	-7939
▁pras	-7940
▁péid	-7941
▁rdrp	-7942
▁scam	-7943
▁seap	-7944
▁sent	-7945
▁shan	-7946
▁shás	-7947
▁shío	-7948
▁siúc	-7949
▁spra	-7950
▁stad	-7951
▁stao	-7952
▁suim	-7953
▁sóis	-7954
▁tais	-7955
▁taon	-7956
▁thag	-7957
▁thrá	-7958
▁tine	-7959
▁tith	-7960
▁togh	-7961
▁tren	-7962
▁vaic	-7963
▁veid	-7964
▁vivo	-7965
▁with	-7966
▁zhou	-7967
▁íosa	-7968
00,000	-7969
achais	-7970
achtán	-7971
aiméad	-7972
airdín	-7973
aitsil	-7974
alartú	-7975
angóil	-7976
bardia	-7977
batcov	-7978
beacha	-7979
bourne	-7980
dheisc	-7981
dúchas	-7982
eanais	-7983
eanáil	-7984
eaptar	-7985
eathar	-7986
eathnú	-7987
eáchan	-7988
feasta	-7989
fender	-7990
fhacht	-7991
fhórsa	-7992
fróidh	-7993
ghlant	-7994
iggins	-7995
inneog	-7996
ionaid	-7997
ionsaí	-7998
iríodh	-7999
iúlóid	-8000
lasadh	-8001
lánach	-8002
merman	-8003
mhíniú	-8004
mónach	-8005
oideas	-8006
ongóil	-8007
oradán	-8008
orknob	-8009
orpain	-8010
pfizer	-8011
phrion	-8012
reacht	-8013
reidte	-8014
réimsí	-8015
saithe	-8016
scaill	-8017
sraith	-8018
thosca	-8019
théacs	-8020
thóirí	-8021
uairte	-8022
uidéil	-8023
veolar	-8024
ywhere	-8025
áistiú	-8026
éadrom	-8027
éasadh	-8028
éilire	-8029
íneadh	-8030
íochtú	-8031
órtais	-8032
údarás	-8033
▁2008,	-8034
▁2018,	-8035
▁2019-	-8036
▁3,000	-8037
▁4,534	-8038
▁4,906	-8039
▁4,921	-8040
▁8,000	-8041
▁8,866	-8042
▁Athrú	-8043
▁Baint	-8044
▁Ceann	-8045
▁Freag	-8046
▁Lámha	-8047
▁Murab	-8048
▁Ospid	-8049
▁Rianú	-8050
▁Rudaí	-8051
▁Réamh	-8052
▁Salon	-8053
▁Stair	-8054
▁Tairg	-8055
▁aclaí	-8056
▁actip	-8057
▁advil	-8058
▁amino	-8059
▁aoine	-8060
▁ardán	-8061
▁beann	-8062
▁beath	-8063
▁bhall	-8064
▁bhean	-8065
▁bhfia	-8066
▁bhfág	-8067
▁bpian	-8068
▁bréag	-8069
▁buntá	-8070
▁bónas	-8071
▁casta	-8072
▁cealú	-8073
▁chait	-8074
▁chuma	-8075
▁cháin	-8076
▁cháis	-8077
▁chóid	-8078
▁coimh	-8079
▁coirp	-8080
▁cosán	-8081
▁cuáit	-8082
▁cárta	-8083
▁céard	-8084
▁cíoch	-8085
▁dhích	-8086
▁dhífh	-8087
▁diclo	-8088
▁docht	-8089
▁doirt	-8090
▁doras	-8091
▁droim	-8092
▁dubai	-8093
▁earra	-8094
▁faire	-8095
▁fhaca	-8096
▁fhadt	-8097
▁fhair	-8098
▁fhear	-8099
▁fiacl	-8100
▁foirc	-8101
▁fáisc	-8102
▁féint	-8103
▁fócas	-8104
▁gailf	-8105
▁gcaif	-8106
▁gcorp	-8107
▁ghlac	-8108
▁glais	-8109
▁gnímh	-8110
▁gráid	-8111
▁hearn	-8112
▁henry	-8113
▁himpl	-8114
▁huath	-8115
▁iarmh	-8116
▁inath	-8117
▁iorua	-8118
▁lanca	-8119
▁louis	-8120
▁lucia	-8121
▁madra	-8122
▁malls	-8123
▁mbanc	-8124
▁meath	-8125
▁mecca	-8126
▁mhara	-8127
▁mhuir	-8128
▁misin	-8129
▁míniú	-8130
▁míosa	-8131
▁naíol	-8132
▁ndeir	-8133
▁oidis	-8134
▁ollch	-8135
▁peile	-8136
▁phait	-8137
▁phort	-8138
▁prion	-8139
▁próif	-8140
▁putin	-8141
▁riana	-8142
▁runny	-8143
▁ríoga	-8144
▁saibh	-8145
▁scéal	-8146
▁seice	-8147
▁seoul	-8148
▁spáis	-8149
▁spéis	-8150
▁spící	-8151
▁spórt	-8152
▁taise	-8153
▁talmh	-8154
▁teamp	-8155
▁teasa	-8156
▁texas	-8157
▁theil	-8158
▁thimp	-8159
▁times	-8160
▁tinte	-8161
▁tosca	-8162
▁tábla	-8163
▁téach	-8164
▁téama	-8165
▁uasta	-8166
▁íosta	-8167
▁ócáid	-8168
▁údarú	-8169
aidrimh	-8170
aireofá	-8171
aistéar	-8172
annaigh	-8173
arsáide	-8174
bhearta	-8175
bhraite	-8176
chontae	-8177
cosaint	-8178
eacháin	-8179
eadhrán	-8180
ealaíon	-8181
eamhnas	-8182
eanacha	-8183
easacht	-8184
ghalrán	-8185
homalóg	-8186
ianghan	-8187
ibhneas	-8188
incheap	-8189
innithe	-8190
inteoir	-8191
ioncaim	-8192
iseanna	-8193
itseáil	-8194
itíopaí	-8195
laghdán	-8196
láinéid	-8197
lántach	-8198
líneach	-8199
mhachta	-8200
mheasta	-8201
nósanna	-8202
olophus	-8203
oltarol	-8204
ptidase	-8205
raghais	-8206
ruinniú	-8207
réitigh	-8208
rúcháin	-8209
salacht	-8210
sferase	-8211
shonraí	-8212
taíocht	-8213
teiripe	-8214
teroidí	-8215
éasanna	-8216
éireodh	-8217
íolúine	-8218
íschomh	-8219
únachta	-8220
▁2020).	-8221
▁80,000	-8222
▁97,000	-8223
▁Bearta	-8224
▁Bhuail	-8225
▁Boladh	-8226
▁Chaill	-8227
▁Coinní	-8228
▁Cúnamh	-8229
▁Glaoch	-8230
▁Liosta	-8231
▁Pobail	-8232
▁Roinnt	-8233
▁Sampla	-8234
▁Tagann	-8235
▁Teocht	-8236
▁Toradh	-8237
▁Tógann	-8238
▁abbott	-8239
▁aeráid	-8240
▁aigéin	-8241
▁ainmhí	-8242
▁aithin	-8243
▁aitíop	-8244
▁albáin	-8245
▁altraí	-8246
▁analóg	-8247
▁antart	-8248
▁aonáin	-8249
▁attend	-8250
▁bainis	-8251
▁beanna	-8252
▁beimid	-8253
▁bheirt	-8254
▁bhfear	-8255
▁bhosca	-8256
▁bhronn	-8257
▁bodhar	-8258
▁brufen	-8259
▁brupro	-8260
▁brúnna	-8261
▁buneil	-8262
▁buplex	-8263
▁báistí	-8264
▁bóthar	-8265
▁canadh	-8266
▁cheilt	-8267
▁cheist	-8268
▁chiúin	-8269
▁chluas	-8270
▁chíoch	-8271
▁cileav	-8272
▁cinntí	-8273
▁comhgh	-8274
▁cosúla	-8275
▁cruach	-8276
▁críche	-8277
▁cuntas	-8278
▁círéib	-8279
▁damhsa	-8280
▁diclac	-8281
▁difene	-8282
▁dlínsí	-8283
▁doirse	-8284
▁dollar	-8285
▁dosaen	-8286
▁dtábla	-8287
▁dídean	-8288
▁díhiod	-8289
▁díréir	-8290
▁faillí	-8291
▁farant	-8292
▁fhadhb	-8293
▁fhórsa	-8294
▁forbhr	-8295
▁fágáil	-8296
▁féilte	-8297
▁fíricí	-8298
▁gairid	-8299
▁gcíoch	-8300
▁gcúram	-8301
▁gharda	-8302
▁gluais	-8303
▁gréine	-8304
▁géinte	-8305
▁health	-8306
▁heipit	-8307
▁ibugel	-8308
▁imeall	-8309
▁iógart	-8310
▁jixian	-8311
▁lancet	-8312
▁laoise	-8313
▁league	-8314
▁lochta	-8315
▁loings	-8316
▁luasgh	-8317
▁luíonn	-8318
▁láirge	-8319
▁lúbtha	-8320
▁medina	-8321
▁melfen	-8322
▁mhíniú	-8323
▁méadar	-8324
▁múnlaí	-8325
▁oifige	-8326
▁pailme	-8327
▁panama	-8328
▁patrún	-8329
▁peirse	-8330
▁phláta	-8331
▁polarú	-8332
▁páirtí	-8333
▁póilió	-8334
▁raidió	-8335
▁riarth	-8336
▁romhat	-8337
▁ráflaí	-8338
▁ráithe	-8339
▁saighd	-8340
▁sheich	-8341
▁sicíní	-8342
▁sraoth	-8343
▁sreang	-8344
▁sróine	-8345
▁stiúir	-8346
▁séimhe	-8347
▁sínigh	-8348
▁taifid	-8349
▁talamh	-8350
▁teagmh	-8351
▁tharat	-8352
▁tharlú	-8353
▁thirim	-8354
▁thriúr	-8355
▁ticéid	-8356
▁tochas	-8357
▁tsráid	-8358
▁téacht	-8359
▁uainiú	-8360
▁uaslód	-8361
▁ullamh	-8362
▁ungáir	-8363
▁úcráin	-8364
aitheora	-8365
aoinithe	-8366
aontaigh	-8367
biontech	-8368
chomhair	-8369
dhírithe	-8370
eachailt	-8371
eachment	-8372
eallacha	-8373
earmanas	-8374
eisiúint	-8375
eoraithe	-8376
fíoracha	-8377
ghabhann	-8378
ghabhála	-8379
ghlanadh	-8380
inneoige	-8381
iotensin	-8382
isceacht	-8383
iúdachas	-8384
laíochta	-8385
llmhacht	-8386
ocytosis	-8387
oirmiúil	-8388
onchitis	-8389
ortaíonn	-8390
raíochta	-8391
thadhall	-8392
tharlann	-8393
thástála	-8394
▁Airíonn	-8395
▁Cleacht	-8396
▁Dhírigh	-8397
▁Leanadh	-8398
▁Ligeann	-8399
▁Measúnú	-8400
▁Seolfar	-8401
▁acadúil	-8402
▁aerfort	-8403
▁aimsigh	-8404
▁ainmniú	-8405
▁android	-8406
▁associa	-8407
▁athbheo	-8408
▁athchúr	-8409
▁athmhún	-8410
▁bagrach	-8411
▁bheatha	-8412
▁bhréige	-8413
▁bhíobla	-8414
▁bialann	-8415
▁bolgaim	-8416
▁bonaire	-8417
▁bpailin	-8418
▁broncho	-8419
▁bruscar	-8420
▁buidéal	-8421
▁capsúil	-8422
▁carnadh	-8423
▁ceaptar	-8424
▁choinní	-8425
▁chorcaí	-8426
▁chostas	-8427
▁chuidiú	-8428
▁cleacht	-8429
▁cluiche	-8430
▁clóirín	-8431
▁cornell	-8432
▁cruinne	-8433
▁cuairte	-8434
▁dearmad	-8435
▁deonach	-8436
▁dhearna	-8437
▁dhiúltú	-8438
▁dhosaen	-8439
▁dhírigh	-8440
▁dinimic	-8441
▁druidim	-8442
▁dtaithí	-8443
▁dtógann	-8444
▁dóchúla	-8445
▁easofen	-8446
▁eisiamh	-8447
▁fhoinsí	-8448
▁fhorais	-8449
▁fhánach	-8450
▁flector	-8451
▁foirmle	-8452
▁folctha	-8453
▁féadann	-8454
▁féidear	-8455
▁féinfhr	-8456
▁fíorúil	-8457
▁gabháil	-8458
▁gcamáin	-8459
▁gcomhar	-8460
▁geallta	-8461
▁ghlaonn	-8462
▁ghlúine	-8463
▁ghreamú	-8464
▁ghéanóm	-8465
▁glacann	-8466
▁glasraí	-8467
▁gníomhú	-8468
▁gruaige	-8469
▁hannamh	-8470
▁iallach	-8471
▁iarradh	-8472
▁iarrfar	-8473
▁ibuleve	-8474
▁ifranna	-8475
▁inbhuan	-8476
▁iomchuí	-8477
▁jinping	-8478
▁koreans	-8479
▁laitéis	-8480
▁lastais	-8481
▁leachta	-8482
▁leagtar	-8483
▁ligeann	-8484
▁ligfidh	-8485
▁liobáin	-8486
▁maidrid	-8487
▁mbreath	-8488
▁mcbride	-8489
▁medical	-8490
▁mrnanna	-8491
▁móilíní	-8492
▁múchadh	-8493
▁ndaonra	-8494
▁ndéanfá	-8495
▁nóiméid	-8496
▁oireann	-8497
▁pailine	-8498
▁painéal	-8499
▁premier	-8500
▁príosún	-8501
▁próisis	-8502
▁rbdanna	-8503
▁russell	-8504
▁scartha	-8505
▁seasamh	-8506
▁shochaí	-8507
▁siomtóm	-8508
▁sliocht	-8509
▁stopann	-8510
▁taontas	-8511
▁tapaidh	-8512
▁teagasc	-8513
▁teochta	-8514
▁thriomú	-8515
▁tháirgí	-8516
▁tiomáin	-8517
▁toitíní	-8518
▁tomagra	-8519
▁trenton	-8520
▁treocht	-8521
▁troithe	-8522
▁tréithe	-8523
▁tuaithe	-8524
▁tuaslag	-8525
▁ualaigh	-8526
▁uasdátú	-8527
▁urlacan	-8528
▁íogaire	-8529
▁ógánach	-8530
▁úsáidte	-8531
abhraíonn	-8532
achtaithe	-8533
aiméadair	-8534
aingeacha	-8535
aisteacht	-8536
coraintín	-8537
eabhraigh	-8538
eachtacht	-8539
eoireacht	-8540
fhachtóir	-8541
fhoireann	-8542
llmhaíonn	-8543
nóireacht	-8544
ostaíocht	-8545
próitéiní	-8546
scríbhinn	-8547
uachtarán	-8548
éasaíocht	-8549
▁Diagnóis	-8550
▁Dáileoga	-8551
▁Foireann	-8552
▁Ghlantar	-8553
▁Inseoidh	-8554
▁Maireann	-8555
▁Naprosyn	-8556
▁Niúmóine	-8557
▁Oibrithe	-8558
▁Oibríonn	-8559
▁Ospidéal	-8560
▁Pleanáil	-8561
▁Scanradh	-8562
▁Siondróm	-8563
▁Tiobraid	-8564
▁Tosaíonn	-8565
▁Tuairisc	-8566
▁achoimre	-8567
▁admhaigh	-8568
▁ailléirg	-8569
▁allmhair	-8570
▁anywhere	-8571
▁bailithe	-8572
▁baineadh	-8573
▁baineann	-8574
▁bheartas	-8575
▁bhfabhar	-8576
▁breathnú	-8577
▁briseadh	-8578
▁bruitíní	-8579
▁bunaíodh	-8580
▁bunscoil	-8581
▁cataflam	-8582
▁cheantar	-8583
▁cheathrú	-8584
▁chorróga	-8585
▁chugainn	-8586
▁chuimsiú	-8587
▁ciníocha	-8588
▁ciontach	-8589
▁comhordú	-8590
▁conspóid	-8591
▁creimirí	-8592
▁críostaí	-8593
▁cuirfear	-8594
▁daingean	-8595
▁dearcadh	-8596
▁deonacha	-8597
▁dheiridh	-8598
▁dhéantús	-8599
▁dhíoltar	-8600
▁doorknob	-8601
▁dtaighde	-8602
▁dánlanna	-8603
▁dúshláin	-8604
▁eaglaisí	-8605
▁eitleáin	-8606
▁fanfaidh	-8607
▁fenopine	-8608
▁fheistiú	-8609
▁forásach	-8610
▁fuinnimh	-8611
▁galracht	-8612
▁gaolmhar	-8613
▁gealladh	-8614
▁gearradh	-8615
▁ghabhann	-8616
▁ghabháil	-8617
▁ghairdín	-8618
▁ghnáthph	-8619
▁ghnéithe	-8620
▁ghrúpáil	-8621
▁giomnáis	-8622
▁glantach	-8623
▁hungáire	-8624
▁háitiúil	-8625
▁iarthair	-8626
▁iompaigh	-8627
▁ionsaigh	-8628
▁jianghan	-8629
▁leaistic	-8630
▁leanfadh	-8631
▁leanúnaí	-8632
▁lombaird	-8633
▁luimnigh	-8634
▁machnamh	-8635
▁maothóir	-8636
▁maraíonn	-8637
▁marfacha	-8638
▁mbialann	-8639
▁mbéising	-8640
▁mhaoiniú	-8641
▁mhongóil	-8642
▁miondíol	-8643
▁máguaird	-8644
▁méadaigh	-8645
▁míneoidh	-8646
▁nascacht	-8647
▁ndaonraí	-8648
▁ndéanamh	-8649
▁ndíríonn	-8650
▁neamhéif	-8651
▁ngréasán	-8652
▁nideoige	-8653
▁nuachtán	-8654
▁ordaithe	-8655
▁phlúchta	-8656
▁phoibliú	-8657
▁pholainn	-8658
▁phorpain	-8659
▁phutóige	-8660
▁politico	-8661
▁péidiatr	-8662
▁riníteas	-8663
▁réadlann	-8664
▁sainordú	-8665
▁samplála	-8666
▁scanrúil	-8667
▁sciathán	-8668
▁seapáine	-8669
▁sentinel	-8670
▁sheasamh	-8671
▁slándáil	-8672
▁speisial	-8673
▁sraothar	-8674
▁staidiam	-8675
▁staonadh	-8676
▁suimiúil	-8677
▁suntasaí	-8678
▁suíochán	-8679
▁swabanna	-8680
▁sáraithe	-8681
▁sáruithe	-8682
▁tarraing	-8683
▁teicnící	-8684
▁teochtaí	-8685
▁thiteann	-8686
▁thrádáil	-8687
▁thástála	-8688
▁treorach	-8689
▁tógfaidh	-8690
▁vaicsaín	-8691
▁vladimir	-8692
▁áirítear	-8693
anaivíreas	-8694
choitianta	-8695
eatharlach	-8696
eilleagair	-8697
hiodráitiú	-8698
iaibéiteas	-8699
mhaireacht	-8700
scáileanna	-8701
théarmacha	-8702
éifeachtaí	-8703
▁Aimseoidh	-8704
▁Braoiníní	-8705
▁Cheadaigh	-8706
▁Comhábhar	-8707
▁Dromchlaí	-8708
▁Díghalrán	-8709
▁Fiafraigh	-8710
▁Méadaíonn	-8711
▁Scaipeadh	-8712
▁Scrúdaigh	-8713
▁Spreagann	-8714
▁airgintín	-8715
▁allamuigh	-8716
▁aminotran	-8717
▁antaigíní	-8718
▁aonúsáide	-8719
▁athlasadh	-8720
▁athmholta	-8721
▁bheagnach	-8722
▁bhriseadh	-8723
▁cabhróidh	-8724
▁cairdiach	-8725
▁caoineadh	-8726
▁casachtaí	-8727
▁ceannaigh	-8728
▁choinnigh	-8729
▁chríochnú	-8730
▁chumhacht	-8731
▁chónaithe	-8732
▁ciallmhar	-8733
▁cleamhnas	-8734
▁coronavac	-8735
▁corovirus	-8736
▁cothaithe	-8737
▁creideamh	-8738
▁cuimsíonn	-8739
▁cumhdaigh	-8740
▁cytokines	-8741
▁cúlchistí	-8742
▁dhifriúil	-8743
▁dhosmálta	-8744
▁dhromchla	-8745
▁dhúshláin	-8746
▁domhnaigh	-8747
▁dtógfaidh	-8748
▁déanaimid	-8749
▁dóchasach	-8750
▁faigheann	-8751
▁fheicfidh	-8752
▁fhilleann	-8753
▁fhéachann	-8754
▁fiadhúlra	-8755
▁foilsithe	-8756
▁foréigean	-8757
▁freagrach	-8758
▁fuinneoga	-8759
▁féinmharú	-8760
▁gaireacht	-8761
▁gairmiúil	-8762
▁gaolmhara	-8763
▁gaothaire	-8764
▁gceadófaí	-8765
▁gconclúid	-8766
▁gcontúirt	-8767
▁gcuirfidh	-8768
▁gcóireáil	-8769
▁ghlóthach	-8770
▁gnóthacha	-8771
▁gruagairí	-8772
▁géarchéim	-8773
▁hacmhainn	-8774
▁heaglaise	-8775
▁hidéalach	-8776
▁idirbhirt	-8777
▁indíreach	-8778
▁iompróirí	-8779
▁laghdaigh	-8780
▁laghdóidh	-8781
▁limficítí	-8782
▁litreacha	-8783
▁lombardia	-8784
▁lonnaithe	-8785
▁léirítear	-8786
▁mbunscoil	-8787
▁melbourne	-8788
▁núicléach	-8789
▁oibreoirí	-8790
▁oirdheisc	-8791
▁osclaíonn	-8792
▁phláinéid	-8793
▁phrótacal	-8794
▁próiseála	-8795
▁píolótach	-8796
▁roghnaigh	-8797
▁ríomhaire	-8798
▁saorghlao	-8799
▁scaipfear	-8800
▁shlándáil	-8801
▁shocraigh	-8802
▁shuiteáil	-8803
▁shuíochán	-8804
▁shásaíonn	-8805
▁siomptóim	-8806
▁socraíodh	-8807
▁struchtúr	-8808
▁sualainne	-8809
▁suíocháin	-8810
▁tagraíonn	-8811
▁taifeadta	-8812
▁teilifíse	-8813
▁thimpiste	-8814
▁thoirchis	-8815
▁thréigean	-8816
▁thuiscint	-8817
▁thábhacht	-8818
▁triomaigh	-8819
▁trédhearc	-8820
▁tsualainn	-8821
▁tuirseach	-8822
▁tástáladh	-8823
▁téachtadh	-8824
▁tógálacha	-8825
▁uaslódáil	-8826
▁zimmerman	-8827
▁Úsáidfidh	-8828
chomharthaí	-8829
eanglaítear	-8830
fheidhmithe	-8831
igeartaithe	-8832
mheastachán	-8833
natóireacht	-8834
ondúireacht	-8835
orthúlachta	-8836
thuairisciú	-8837
▁Chruthaigh	-8838
▁actiprofen	-8839
▁aerbhealaí	-8840
▁aitheantas	-8841
▁ambasadóir	-8842
▁anaithnide	-8843
▁antartaice	-8844
▁aoisghrúpa	-8845
▁atáirgeadh	-8846
▁bhfilleann	-8847
▁bonneagair	-8848
▁bricfeasta	-8849
▁ceannasach	-8850
▁ceimiceach	-8851
▁chlúdaíonn	-8852
▁chomhbhrón	-8853
▁chomhdhúil	-8854
▁chomparáid	-8855
▁claontacht	-8856
▁colaistéar	-8857
▁comharthai	-8858
▁comhiomlán	-8859
▁comhshaoil	-8860
▁comparáidí	-8861
▁coróivíris	-8862
▁dhigiteach	-8863
▁dhochtúirí	-8864
▁dhéanaimid	-8865
▁diagnóisiú	-8866
▁digiteacha	-8867
▁dtabharfaí	-8868
▁dteastóidh	-8869
▁feidhmíonn	-8870
▁fhiabhrais	-8871
▁fhéadfaidh	-8872
▁freagracht	-8873
▁fuinneoige	-8874
▁gcaitheamh	-8875
▁gcoibhneas	-8876
▁gcomhábhar	-8877
▁gcógaslann	-8878
▁heipidéime	-8879
▁hiondúchas	-8880
▁húsáideoir	-8881
▁imdhíonadh	-8882
▁ionadaíoch	-8883
▁laghduithe	-8884
▁leaganacha	-8885
▁leithscéal	-8886
▁mbealtaine	-8887
▁meicníocht	-8888
▁mhalaeisia	-8889
▁mhiondíola	-8890
▁moilleanna	-8891
▁murtallach	-8892
▁ndéanfaidh	-8893
▁neodraithe	-8894
▁oibríochta	-8895
▁parlaimint	-8896
▁praghsanna	-8897
▁riarthóirí	-8898
▁ríomhphost	-8899
▁sceidealta	-8900
▁scéimeanna	-8901
▁socrúcháin	-8902
▁spleáchais	-8903
▁sriantacha	-8904
▁tairiscint	-8905
▁tascfhórsa	-8906
▁teastaíonn	-8907
▁thairgtear	-8908
▁thoircheas	-8909
▁tháirgeann	-8910
▁tionscadal	-8911
▁tochasacha	-8912
▁treoirlíne	-8913
▁tromchúisí	-8914
▁tslaghdáin	-8915
eorainneacha	-8916
▁Aisghabhann	-8917
▁Cuairteoirí	-8918
▁Taispeánadh	-8919
▁anailísithe	-8920
▁angiotensin	-8921
▁aslonnaithe	-8922
▁baictéarach	-8923
▁bainisteoir	-8924
▁bpraghsanna	-8925
▁caiteachais	-8926
▁ceannacháin	-8927
▁chabhraíonn	-8928
▁chairtchlár	-8929
▁choimpléasc	-8930
▁chuairteoir	-8931
▁comhlántach	-8932
▁comhpháirtí	-8933
▁comhráiteas	-8934
▁cosúlachtaí	-8935
▁criticeoirí	-8936
▁dheimhnithe	-8937
▁dheireanach	-8938
▁dhiúltaíonn	-8939
▁fhoirgneamh	-8940
▁fhorleathan	-8941
▁fostaíochta	-8942
▁gcleachtadh	-8943
▁gcleachtais	-8944
▁gcuideachta	-8945
▁hathoscailt	-8946
▁heipitíteas	-8947
▁héifeachtaí	-8948
▁idirchontae	-8949
▁imdhíonacht	-8950
▁impeachment	-8951
▁laghdaítear	-8952
▁leabharlann	-8953
▁marbhlainne	-8954
▁measúnaithe	-8955
▁mhaolaítear	-8956
▁mhicreascóp	-8957
▁mhinicíocht	-8958
▁neamhbhailí	-8959
▁oidhreachta	-8960
▁phlaisteach	-8961
▁príomhchúis	-8962
▁réigiúnacha	-8963
▁saighdiúirí	-8964
▁seasmhachta	-8965
▁seiceálacha	-8966
▁sneaiceanna	-8967
▁streachailt	-8968
▁tabharfaidh	-8969
▁tréimhsiúil	-8970
▁tubaisteach	-8971
▁éiceolaíoch	-8972
athbhreithniú	-8973
▁Iobúpróifein	-8974
▁Leabharlanna	-8975
▁Pictiúrlanna	-8976
▁athsholáthar	-8977
▁bhailiúcháin	-8978
▁bhainisteoir	-8979
▁bhfoisceacht	-8980
▁buneilimintí	-8981
▁chomhaireamh	-8982
▁chomhlíonann	-8983
▁choróivíreas	-8984
▁chustaiméirí	-8985
▁chónaitheora	-8986
▁comhdhálacha	-8987
▁cónaitheacha	-8988
▁dtabharfaidh	-8989
▁dtreoirlínte	-8990
▁feidhmchláir	-8991
▁feidhmeannas	-8992
▁fhadtéarmach	-8993
▁fionnachtana	-8994
▁forbhreathnú	-8995
▁gceanglaíonn	-8996
▁gcóireálacha	-8997
▁ghlantacháin	-8998
▁heisceachtaí	-8999
▁himpleachtaí	-9000
▁hiodrocsaicl	-9001
▁inbhuanaithe	-9002
▁indiúscartha	-9003
▁iobúproifein	-9004
▁ionchódaithe	-9005
▁leictreonach	-9006
▁mífhaisnéise	-9007
▁paindéimeach	-9008
▁pictiúrlanna	-9009
▁réamhshonraí	-9010
▁samhaltaithe	-9011
▁sholáthairtí	-9012
▁shíceolaíoch	-9013
▁talmhaíochta	-9014
▁thabharfaidh	-9015
▁thaispeánann	-9016
▁thaispeántar	-9017
▁tocsaineacht	-9018
▁tsaotharlann	-9019
astroenteritis	-9020
eicneolaíochta	-9021
fheidhmeannach	-9022
ionfhabhtaithe	-9023
▁Gartheagmháil	-9024
▁Sábháilteacht	-9025
▁bainistíochta	-9026
▁bhainistíocht	-9027
▁ceangailteach	-9028
▁chuimsitheach	-9029
▁cianfhoghlaim	-9030
▁coronaviridae	-9031
▁déantúsaíocht	-9032
▁dífhostaíocht	-9033
▁eachtrannaigh	-9034
▁fallaingeacha	-9035
▁fhorfheidhmiú	-9036
▁gluaiseachtaí	-9037
▁huathoibríoch	-9038
▁héifeachtacht	-9039
▁infheistíocht	-9040
▁leictreonacha	-9041
▁mbainistíocht	-9042
▁meiriceánaigh	-9043
▁mheánoirthear	-9044
▁miondíoltóirí	-9045
▁mionsonraithe	-9046
▁míchompordach	-9047
▁mídhleathacha	-9048
▁neamhspleácha	-9049
▁néareolaíocha	-9050
▁pataigineacht	-9051
▁plaicintíteas	-9052
▁réamhthorthaí	-9053
▁substaintiúil	-9054
▁thuairiscíonn	-9055
teistiméireacht	-9056
▁chothromaíocht	-9057
▁fhoghlaimeoirí	-9058
▁fhreastalaithe	-9059
▁fiaclóireachta	-9060
▁forfheidhmithe	-9061
▁féinfhreastail	-9062
▁gearrthéarmach	-9063
▁ghartheagmháil	-9064
▁ionfhabhtaíonn	-9065
▁leordhóthanach	-9066
▁léarscáileanna	-9067
▁mbochtaineacht	-9068
▁ollchruinnithe	-9069
▁spriocdhírithe	-9070
▁thaistealaíonn	-9071
▁tharscaoileadh	-9072
▁comhpháirteanna	-9073
▁corticosteroidí	-9074
▁farantóireachta	-9075
▁ghníomhaíochtaí	-9076
▁modheolaíochtaí	-9077
▁neamhfhoirmiúil	-9078
▁phríobháideacht	-9079
▁theicneolaíocht	-9080
,83	-9081
-10	-9082
-18	-9083
.15	-9084
160	-9085
174	-9086
189	-9087
358	-9088
37.	-9089
378	-9090
388	-9091
397	-9092
402	-9093
422	-9094
43.	-9095
509	-9096
6,5	-9097
608	-9098
647	-9099
3.5	-9100
651	-9101
7,5	-9102
727	-9103
743	-9104
750	-9105
796	-9106
9,8	-9107
90,	-9108
92%	-9109
940	-9110
945	-9111
aba	-9112
azz	-9113
ecm	-9114
edd	-9115
gev	-9116
hex	-9117
ied	-9118
iii	-9119
nik	-9120
uck	-9121
wsb	-9122
▁.2	-9123
-100	-9124
-92%	-9125
.7%)	-9126
07.2	-9127
7,93	-9128
8,25	-9129
9,43	-9130
atag	-9131
atam	-9132
avax	-9133
beth	-9134
bóin	-9135
copd	-9136
corv	-9137
dong	-9138
dwar	-9139
dóiv	-9140
dóra	-9141
ecdc	-9142
ecmo	-9143
face	-9144
fews	-9145
ient	-9146
ispr	-9147
ital	-9148
izio	-9149
kata	-9150
lofe	-9151
moin	-9152
nacó	-9153
neam	-9154
olas	-9155
opec	-9156
osha	-9157
reys	-9158
rhal	-9159
swab	-9160
tact	-9161
tanc	-9162
tuna	-9163
tóip	-9164
ualw	-9165
unge	-9166
ways	-9167
íbhn	-9168
ítis	-9169
órtó	-9170
▁(78	-9171
▁0.3	-9172
▁01,	-9173
▁2.0	-9174
▁2.2	-9175
▁3.5	-9176
▁313	-9177
▁364	-9178
▁370	-9179
▁381	-9180
▁402	-9181
▁425	-9182
▁437	-9183
▁448	-9184
▁457	-9185
▁50-	-9186
▁525	-9187
▁539	-9188
▁545	-9189
▁7,8	-9190
▁9.5	-9191
▁Dul	-9192
▁bow	-9193
▁fly	-9194
▁glu	-9195
▁hól	-9196
▁ild	-9197
▁mcc	-9198
▁nhl	-9199
3,8	-9200
904	-9201
iorx	-9202
spot	-9203
toic	-9204
▁179	-9205
▁215	-9206
▁3,4	-9207
▁3,5	-9208
▁3,6	-9209
▁3,9	-9210
▁kol	-9211
▁nlr	-9212
▁now	-9213
▁pap	-9214
▁sex	-9215
▁syn	-9216
▁vik	-9217
▁vít	-9218
▁wcu	-9219
.1.1.	-9220
1,600	-9221
2,500	-9222
5,743	-9223
8,796	-9224
adway	-9225
ainmn	-9226
alcól	-9227
aoirs	-9228
asome	-9229
aímid	-9230
bailt	-9231
being	-9232
chobh	-9233
clóir	-9234
copro	-9235
csamb	-9236
csaíd	-9237
einis	-9238
eskov	-9239
flamm	-9240
gthas	-9241
iomsú	-9242
iongó	-9243
iopad	-9244
itive	-9245
iucha	-9246
leigh	-9247
liang	-9248
llmhú	-9249
lonal	-9250
miúda	-9251
monar	-9252
namaí	-9253
neodh	-9254
nróid	-9255
ockdo	-9256
ocúnú	-9257
oitín	-9258
onchó	-9259
ontag	-9260
osóim	-9261
penia	-9262
putin	-9263
raidí	-9264
reyes	-9265
ropan	-9266
roxen	-9267
rudaí	-9268
sceid	-9269
suite	-9270
thony	-9271
tspot	-9272
umbia	-9273
unged	-9274
utnik	-9275
vices	-9276
wsbur	-9277
áinli	-9278
íteap	-9279
óimid	-9280
ólann	-9281
ópaic	-9282
▁(0.3	-9283
▁(3.0	-9284
▁(50%	-9285
▁0.1%	-9286
▁1.61	-9287
▁1950	-9288
▁2,94	-9289
▁211,	-9290
▁226,	-9291
▁232,	-9292
▁235,	-9293
▁246,	-9294
▁250,	-9295
▁267,	-9296
▁4,63	-9297
▁5.30	-9298
▁8665	-9299
-65	-9300
.0%	-9301
.6%	-9302
466	-9303
8.3	-9304
izo	-9305
▁zh	-9306
ivac	-9307
ives	-9308
▁1-3	-9309
▁1.3	-9310
▁2,0	-9311
▁2,5	-9312
▁2,6	-9313
▁2,9	-9314
▁265	-9315
▁4.5	-9316
▁siv	-9317
▁utc	-9318
▁zún	-9319
gnost	-9320
irnat	-9321
iving	-9322
▁200-	-9323
▁2007	-9324
▁Cibé	-9325
▁Clis	-9326
▁Cloí	-9327
▁Cuar	-9328
▁Cuim	-9329
▁Fual	-9330
▁Liat	-9331
▁Ordú	-9332
▁Treo	-9333
▁aden	-9334
▁afra	-9335
▁anab	-9336
▁auck	-9337
▁cala	-9338
▁dtrí	-9339
▁díls	-9340
▁east	-9341
▁gove	-9342
▁gúna	-9343
▁heit	-9344
▁hele	-9345
▁hidr	-9346
▁horg	-9347
▁hsel	-9348
▁intu	-9349
▁iord	-9350
▁ivea	-9351
▁maio	-9352
▁mcen	-9353
▁muic	-9354
▁nlrp	-9355
▁patr	-9356
▁prot	-9357
▁ryan	-9358
▁slóg	-9359
▁tatú	-9360
▁tiny	-9361
▁trae	-9362
▁west	-9363
▁york	-9364
abacha	-9365
altraí	-9366
ambóid	-9367
anáine	-9368
armáil	-9369
ations	-9370
cméana	-9371
comhal	-9372
eagaiv	-9373
eather	-9374
ecróis	-9375
eimhin	-9376
eirbia	-9377
format	-9378
garach	-9379
ghrádú	-9380
ghráin	-9381
iclofe	-9382
imedia	-9383
iogáil	-9384
ioncró	-9385
ipedia	-9386
irnaty	-9387
itéire	-9388
iúchan	-9389
láithr	-9390
mhchla	-9391
mpláil	-9392
nochta	-9393
ockdow	-9394
ocsain	-9395
oibriú	-9396
oisnia	-9397
onitis	-9398
ontana	-9399
303	-9400
51,	-9401
ges	-9402
ales	-9403
corp	-9404
ingr	-9405
óide	-9406
▁124	-9407
▁13,	-9408
▁59.	-9409
▁Pas	-9410
▁cfr	-9411
▁jak	-9412
▁lav	-9413
angol	-9414
gesia	-9415
rófaí	-9416
thoco	-9417
uingr	-9418
▁1957	-9419
▁241,	-9420
▁aeró	-9421
▁ceil	-9422
▁jair	-9423
▁rómh	-9424
▁vóta	-9425
eapadh	-9426
eisigh	-9427
oviria	-9428
pianna	-9429
raonta	-9430
ruthlú	-9431
róidís	-9432
róimid	-9433
tatius	-9434
teocht	-9435
teoidh	-9436
terres	-9437
uillte	-9438
uspóir	-9439
wsbury	-9440
ábalta	-9441
áipéis	-9442
áitigh	-9443
áitíní	-9444
éimhsí	-9445
éitear	-9446
ónairí	-9447
órramh	-9448
▁(0.31	-9449
▁(7.4%	-9450
▁1,099	-9451
▁1,191	-9452
▁1,261	-9453
▁1,700	-9454
▁10.30	-9455
▁18-64	-9456
▁1967,	-9457
▁2,608	-9458
▁2015,	-9459
▁3,120	-9460
▁3,150	-9461
▁3,948	-9462
▁30-65	-9463
▁4,319	-9464
▁4,422	-9465
▁4,566	-9466
▁4,718	-9467
▁4,785	-9468
▁4,929	-9469
▁4,937	-9470
▁6,174	-9471
▁6,500	-9472
▁Ceadú	-9473
▁Clárú	-9474
▁Cógas	-9475
▁Córas	-9476
▁Druga	-9477
▁Dúnta	-9478
▁Foils	-9479
▁Frith	-9480
▁Ghabh	-9481
▁Ionas	-9482
▁Leibh	-9483
▁Spórt	-9484
▁Súile	-9485
▁Tráth	-9486
▁aerób	-9487
▁ainmn	-9488
▁antón	-9489
▁aruba	-9490
▁aslon	-9491
▁aspar	-9492
▁athlá	-9493
▁bainc	-9494
▁beáir	-9495
▁biorx	-9496
▁boilg	-9497
▁boris	-9498
▁bosca	-9499
1.8	-9500
204	-9501
452	-9502
bás	-9503
ces	-9504
ibp	-9505
kla	-9506
url	-9507
aild	-9508
covz	-9509
fiúr	-9510
iadh	-9511
ialú	-9512
ithí	-9513
lúis	-9514
rtas	-9515
ráma	-9516
scre	-9517
éidl	-9518
▁(10	-9519
▁2,1	-9520
▁431	-9521
▁crú	-9522
▁fis	-9523
▁our	-9524
1,000	-9525
covzx	-9526
dlúis	-9527
easag	-9528
iúnas	-9529
klaho	-9530
uisce	-9531
urine	-9532
íodrá	-9533
▁254,	-9534
▁Rogh	-9535
▁afga	-9536
▁maur	-9537
▁muir	-9538
▁móim	-9539
▁rich	-9540
▁seal	-9541
▁sial	-9542
elscre	-9543
mórtas	-9544
éineas	-9545
▁Riana	-9546
▁aréir	-9547
▁bróin	-9548
▁brúsc	-9549
▁caifé	-9550
▁ceans	-9551
▁child	-9552
▁china	-9553
▁chucu	-9554
▁ciúin	-9555
▁cnuas	-9556
▁coise	-9557
▁covax	-9558
▁croin	-9559
▁cácaí	-9560
▁cúlra	-9561
▁delhi	-9562
▁dheis	-9563
▁droma	-9564
▁débhr	-9565
▁dúlra	-9566
▁eatán	-9567
▁fauci	-9568
▁fearg	-9569
▁feoil	-9570
▁flybe	-9571
▁focal	-9572
▁fráma	-9573
▁fuail	-9574
▁fuáil	-9575
▁gates	-9576
▁gcait	-9577
▁gcroí	-9578
▁gcódú	-9579
▁gearm	-9580
▁ghuth	-9581
▁gluco	-9582
▁gortú	-9583
▁hainm	-9584
▁helen	-9585
▁infhé	-9586
▁irish	-9587
▁laois	-9588
▁lenár	-9589
▁lunar	-9590
▁macao	-9591
▁marga	-9592
▁matam	-9593
▁mhuin	-9594
▁molta	-9595
▁méara	-9596
▁ndích	-9597
▁nowru	-9598
▁obsta	-9599
1%	-9600
gy	-9601
adó	-9602
cil	-9603
jad	-9604
nóg	-9605
seá	-9606
áic	-9607
▁(8	-9608
▁Bl	-9609
▁Nó	-9610
▁dl	-9611
avin	-9612
cóir	-9613
eirs	-9614
ilín	-9615
itro	-9616
jady	-9617
nasc	-9618
ríos	-9619
▁/),	-9620
▁371	-9621
▁mbl	-9622
▁rac	-9623
▁shé	-9624
▁uta	-9625
ugadh	-9626
íosaí	-9627
▁.2).	-9628
▁14.5	-9629
▁2017	-9630
▁Cead	-9631
▁Thán	-9632
▁chom	-9633
▁dain	-9634
▁díos	-9635
▁mbia	-9636
▁mhír	-9637
▁túin	-9638
▁utah	-9639
adóine	-9640
erjady	-9641
intéis	-9642
straim	-9643
teoirí	-9644
▁12013	-9645
▁Neamh	-9646
▁dearg	-9647
▁díosp	-9648
▁epizo	-9649
▁gavin	-9650
▁heirs	-9651
▁mbail	-9652
▁nglac	-9653
▁orbán	-9654
▁ordla	-9655
▁pasta	-9656
▁patró	-9657
▁perit	-9658
▁pháip	-9659
▁péire	-9660
▁pórtó	-9661
▁racún	-9662
▁riabh	-9663
▁ribín	-9664
▁scíth	-9665
▁scóip	-9666
▁shedd	-9667
▁sháil	-9668
▁siona	-9669
▁socha	-9670
▁solas	-9671
▁spike	-9672
▁spora	-9673
▁sruth	-9674
▁stamp	-9675
▁séala	-9676
▁sólás	-9677
▁theip	-9678
▁thóin	-9679
▁tobág	-9680
▁toilt	-9681
▁triob	-9682
▁tsrón	-9683
▁tuism	-9684
▁tátal	-9685
▁ultra	-9686
▁urram	-9687
▁vitim	-9688
▁vitro	-9689
▁víosa	-9690
▁údara	-9691
acomhal	-9692
aguisín	-9693
aibléid	-9694
ailímid	-9695
aingéil	-9696
airdíní	-9697
airgead	-9698
aistéig	-9699
ati	-9700
let	-9701
tco	-9702
tle	-9703
▁Mu	-9704
andú	-9705
láid	-9706
▁1.8	-9707
▁4,5	-9708
▁420	-9709
▁der	-9710
▁eat	-9711
▁end	-9712
▁ghl	-9713
▁ghu	-9714
▁jac	-9715
▁mor	-9716
▁uaf	-9717
ation	-9718
igiúr	-9719
ithel	-9720
nanna	-9721
ranna	-9722
▁244,	-9723
▁alan	-9724
▁darb	-9725
▁dual	-9726
▁dubh	-9727
▁gheo	-9728
▁holl	-9729
▁iach	-9730
▁inmh	-9731
▁jack	-9732
▁ladh	-9733
▁marú	-9734
▁muta	-9735
▁righ	-9736
▁wall	-9737
aistín	-9738
dwaras	-9739
eattle	-9740
ilíonn	-9741
inchea	-9742
▁Chill	-9743
▁balla	-9744
▁bhabh	-9745
▁chuim	-9746
▁dtogh	-9747
▁ionsa	-9748
▁lipid	-9749
▁marth	-9750
▁peann	-9751
alraigh	-9752
arraing	-9753
athaoir	-9754
bhóthar	-9755
chomhbh	-9756
cmhainn	-9757
deacair	-9758
dháilte	-9759
eachtar	-9760
eacláid	-9761
eacnama	-9762
eangail	-9763
eoiricí	-9764
eoirsia	-9765
fhoinse	-9766
fhréamh	-9767
ghlacad	-9768
henshan	-9769
ictiúir	-9770
ifreann	-9771
igeartú	-9772
inneoga	-9773
isinéir	-9774
istéise	-9775
klahoma	-9776
liceach	-9777
líonadh	-9778
líonann	-9779
mhchlaí	-9780
mhínigh	-9781
nantúil	-9782
nastáin	-9783
neyland	-9784
opropan	-9785
phointe	-9786
reyesus	-9787
rocsaíd	-9788
roinnte	-9789
seálann	-9790
shrutha	-9791
síneach	-9792
tancing	-9793
tráilte	-9794
uspóirí	-9795
ánachta	-9796
íneacht	-9797
íonóide	-9798
óirithe	-9799
,5	-9800
179	-9801
9%.	-9802
bal	-9803
igi	-9804
mhv	-9805
oro	-9806
uit	-9807
áiv	-9808
▁2-	-9809
coid	-9810
cáid	-9811
igan	-9812
itíf	-9813
méad	-9814
ucht	-9815
ástá	-9816
▁20%	-9817
▁bra	-9818
▁crs	-9819
▁kin	-9820
▁scu	-9821
▁sim	-9822
achan	-9823
láimh	-9824
méadú	-9825
ocfar	-9826
oirne	-9827
▁acht	-9828
▁amaz	-9829
▁cean	-9830
▁digh	-9831
▁dipe	-9832
▁insc	-9833
▁ríce	-9834
▁sibh	-9835
▁trád	-9836
aighne	-9837
arradh	-9838
iteann	-9839
uachan	-9840
uilinn	-9841
íosúil	-9842
▁4,600	-9843
▁4,836	-9844
▁bháin	-9845
▁forim	-9846
▁luigi	-9847
▁pheic	-9848
▁rotha	-9849
▁théar	-9850
nuachan	-9851
éalaigh	-9852
▁(50%),	-9853
▁18,000	-9854
▁21,600	-9855
▁Aeráil	-9856
▁Amharc	-9857
▁Cnapán	-9858
▁Cocúnú	-9859
▁Cuimil	-9860
▁Fágann	-9861
▁Imdhío	-9862
▁Ionchó	-9863
▁Laghdó	-9864
▁Mhaígh	-9865
▁Nochta	-9866
▁Páistí	-9867
▁Riocht	-9868
▁Tógadh	-9869
▁abairt	-9870
▁aetóip	-9871
▁aicmiú	-9872
▁aimsir	-9873
▁amazon	-9874
▁bainte	-9875
▁beathú	-9876
▁bhfuar	-9877
▁bhoilg	-9878
▁biongó	-9879
▁bithsh	-9880
▁bplána	-9881
▁bputóg	-9882
▁bpáirt	-9883
▁bpáras	-9884
▁brúite	-9885
▁bunáit	-9886
▁cabhán	-9887
▁cailín	-9888
▁cainte	-9889
▁canine	-9890
▁capita	-9891
▁chairr	-9892
▁chills	-9893
▁chrann	-9894
▁chuala	-9895
▁chéard	-9896
▁chíche	-9897
▁cnónna	-9898
▁cogadh	-9899
3),	-9900
arv	-9901
cst	-9902
dcr	-9903
don	-9904
mbh	-9905
tee	-9906
tíd	-9907
▁6%	-9908
▁Sá	-9909
▁fp	-9910
▁hd	-9911
,096	-9912
adhn	-9913
bhír	-9914
gais	-9915
irte	-9916
said	-9917
tate	-9918
thro	-9919
átha	-9920
▁109	-9921
▁20.	-9922
▁Bhf	-9923
▁bre	-9924
▁cac	-9925
▁fip	-9926
▁lia	-9927
▁tei	-9928
aistr	-9929
hexid	-9930
óchán	-9931
▁Tuil	-9932
▁gmbh	-9933
▁hain	-9934
▁hais	-9935
▁lagú	-9936
▁scór	-9937
▁smig	-9938
adhnra	-9939
▁8,096	-9940
▁fiach	-9941
▁nsaid	-9942
▁tacar	-9943
▁tsaim	-9944
eannadh	-9945
islithe	-9946
lónacha	-9947
saíocht	-9948
▁Bhfuil	-9949
▁bhaisc	-9950
▁coimeá	-9951
▁coimhl	-9952
▁collaí	-9953
▁comáin	-9954
▁craobh	-9955
▁crispr	-9956
▁cumais	-9957
▁cártaí	-9958
▁cócair	-9959
▁cúinsí	-9960
▁cúirte	-9961
▁daingn	-9962
▁deichn	-9963
▁dhéine	-9964
▁dhíchr	-9965
▁diúltú	-9966
▁dorcha	-9967
▁díbirt	-9968
▁dídine	-9969
▁faecas	-9970
▁faisin	-9971
▁fanann	-9972
▁fhráma	-9973
▁figiúr	-9974
▁foirfe	-9975
▁foirgn	-9976
▁foriom	-9977
▁fuaite	-9978
▁futuna	-9979
▁fágadh	-9980
▁fánach	-9981
▁fógraí	-9982
▁gaolta	-9983
▁gcatag	-9984
▁gcláir	-9985
▁gcrios	-9986
▁gcruth	-9987
▁gcuimh	-9988
▁gnóthú	-9989
▁greann	-9990
▁himill	-9991
▁huanan	-9992
▁híseal	-9993
▁iaráic	-9994
▁ildisc	-9995
▁imirce	-9996
▁insamh	-9997
▁inscne	-9998
▁ionadú	-9999
,4	-10000
-5	-10001
.)	-10002
56	-10003
fs	-10004
za	-10005
ini	-10006
sis	-10007
uad	-10008
une	-10009
▁2%	-10010
▁Dú	-10011
▁ah	-10012
▁fa	-10013
▁gy	-10014
ance	-10015
arán	-10016
lasm	-10017
scro	-10018
▁75%	-10019
▁aff	-10020
▁gho	-10021
▁gym	-10022
▁min	-10023
▁óir	-10024
achas	-10025
chath	-10026
dimer	-10027
eadar	-10028
earra	-10029
▁Bhun	-10030
▁fabr	-10031
▁gyms	-10032
▁shia	-10033
▁shos	-10034
▁stra	-10035
eolais	-10036
mpléid	-10037
íoctha	-10038
▁94.5%	-10039
▁Oidis	-10040
▁colle	-10041
▁céile	-10042
▁fhíne	-10043
▁shine	-10044
scaradh	-10045
áilithe	-10046
álachta	-10047
▁Dúradh	-10048
▁Imíonn	-10049
▁ithaca	-10050
▁iveagh	-10051
▁ladhar	-10052
▁lianna	-10053
▁liopaí	-10054
▁loinge	-10055
▁london	-10056
▁luaite	-10057
▁luiche	-10058
▁lúbadh	-10059
▁mbuail	-10060
▁mbunús	-10061
▁mhicro	-10062
▁modhnú	-10063
▁muinín	-10064
▁murach	-10065
▁murine	-10066
▁míshás	-10067
▁ngéanó	-10068
▁nowruz	-10069
▁oifigí	-10070
▁patric	-10071
▁peadar	-10072
▁peskov	-10073
▁pheann	-10074
▁phróif	-10075
▁pháirc	-10076
▁pleura	-10077
▁pollta	-10078
▁pubmed	-10079
▁rannóg	-10080
▁righin	-10081
▁rugadh	-10082
▁róimhe	-10083
▁satura	-10084
▁seaimp	-10085
▁sheans	-10086
▁shoghl	-10087
▁shráid	-10088
▁sinoph	-10089
▁sionag	-10090
▁siúcra	-10091
▁snomed	-10092
▁socair	-10093
▁sroich	-10094
▁stiabh	-10095
▁síceas	-10096
▁tacúil	-10097
▁tairbh	-10098
▁thástá	-10099
,2	-10100
-9	-10101
bá	-10102
eb	-10103
hp	-10104
of	-10105
ts	-10106
yo	-10107
-9)	-10108
bio	-10109
eon	-10110
eph	-10111
gna	-10112
iad	-10113
inc	-10114
mia	-10115
ocd	-10116
rem	-10117
sic	-10118
▁ai	-10119
▁cí	-10120
ainí	-10121
faoi	-10122
ghar	-10123
idiú	-10124
isco	-10125
níos	-10126
tiús	-10127
▁140	-10128
▁4,0	-10129
▁Agh	-10130
▁Bás	-10131
▁arb	-10132
▁arm	-10133
▁cíb	-10134
ampla	-10135
caire	-10136
eanaí	-10137
ochán	-10138
oiriú	-10139
siceo	-10140
urnal	-10141
▁1977	-10142
▁2,25	-10143
▁bhuí	-10144
▁cryo	-10145
▁cómh	-10146
▁dean	-10147
▁dheo	-10148
▁dích	-10149
▁dísh	-10150
▁gheb	-10151
▁krem	-10152
tanach	-10153
ánaigh	-10154
▁Buail	-10155
▁Cárta	-10156
▁aicme	-10157
▁chuar	-10158
▁nairí	-10159
▁sásta	-10160
eallach	-10161
▁Pianta	-10162
▁Táthar	-10163
▁amhrán	-10164
▁cíbear	-10165
▁difear	-10166
▁dochta	-10167
▁rothlú	-10168
▁théacs	-10169
▁théama	-10170
▁titimí	-10171
▁tobága	-10172
▁toitín	-10173
▁tomhal	-10174
▁trasna	-10175
▁táille	-10176
▁téacst	-10177
▁tógáil	-10178
▁ualach	-10179
▁uirlis	-10180
▁uirthí	-10181
▁urramú	-10182
▁viktor	-10183
▁éilimh	-10184
▁éilliú	-10185
▁íoctha	-10186
▁íogair	-10187
▁ísligh	-10188
acmhainn	-10189
aimhneas	-10190
aimsithe	-10191
aisleáin	-10192
aistrith	-10193
amhlaidh	-10194
aonchine	-10195
athróidh	-10196
bailithe	-10197
bhachais	-10198
bhealach	-10199
2)	-10200
2.	-10201
An	-10202
ep	-10203
fb	-10204
ke	-10205
od	-10206
pó	-10207
sé	-10208
zh	-10209
chs	-10210
enn	-10211
ili	-10212
ola	-10213
son	-10214
▁-7	-10215
▁96	-10216
▁Am	-10217
▁Tú	-10218
.9).	-10219
ibhs	-10220
ocht	-10221
uama	-10222
▁4.2	-10223
▁78,	-10224
▁cfb	-10225
▁imr	-10226
▁jos	-10227
▁nbc	-10228
▁séú	-10229
▁tip	-10230
iorrú	-10231
iptiú	-10232
isola	-10233
shamh	-10234
udson	-10235
ótáil	-10236
▁4,66	-10237
▁5-17	-10238
▁Lorg	-10239
▁chas	-10240
▁fich	-10241
▁míle	-10242
▁sagh	-10243
eicthe	-10244
iostaí	-10245
ostáil	-10246
▁3,405	-10247
▁Aibhs	-10248
▁Feoil	-10249
▁bhfac	-10250
▁cúirt	-10251
▁dílár	-10252
▁imill	-10253
▁mionc	-10254
▁shamh	-10255
▁uainn	-10256
isolate	-10257
ongfort	-10258
ositive	-10259
▁Bheadh	-10260
▁cliste	-10261
▁deasca	-10262
▁feirme	-10263
▁hudson	-10264
▁philip	-10265
▁saghas	-10266
▁scálaí	-10267
▁sráide	-10268
▁stuama	-10269
cheangal	-10270
chobhsaí	-10271
csamburg	-10272
defender	-10273
dheacair	-10274
diúltach	-10275
eantanna	-10276
eastalaí	-10277
eicsiceo	-10278
elscreen	-10279
faisnéis	-10280
fheartha	-10281
ghiniúna	-10282
ghlactha	-10283
ghlasáil	-10284
gnostics	-10285
hcovanna	-10286
hexidine	-10287
ibileach	-10288
imscrúdú	-10289
inníteas	-10290
institiú	-10291
ionóladh	-10292
iorracht	-10293
iteiripe	-10294
lachtach	-10295
laiminte	-10296
leathach	-10297
mptómach	-10298
oibreodh	-10299
2-	-10300
jo	-10301
up	-10302
úd	-10303
.1,	-10304
arb	-10305
ens	-10306
ern	-10307
joy	-10308
mun	-10309
tam	-10310
til	-10311
úra	-10312
2,69	-10313
aric	-10314
cern	-10315
eoch	-10316
padh	-10317
ribh	-10318
suas	-10319
tjoy	-10320
ánta	-10321
▁(47	-10322
▁150	-10323
▁4).	-10324
▁520	-10325
▁575	-10326
▁Pla	-10327
▁art	-10328
▁fhó	-10329
▁gas	-10330
▁gil	-10331
ideal	-10332
mitry	-10333
reamh	-10334
tilio	-10335
uaidh	-10336
áltas	-10337
údáin	-10338
▁1968	-10339
▁2,48	-10340
▁204,	-10341
▁ainé	-10342
▁brón	-10343
▁chan	-10344
▁gang	-10345
▁jazz	-10346
easúra	-10347
iapadh	-10348
ptidyl	-10349
shaoil	-10350
untjoy	-10351
▁2,488	-10352
▁9,336	-10353
▁Ceart	-10354
▁aniar	-10355
▁chaná	-10356
▁chole	-10357
▁críos	-10358
▁gastr	-10359
▁maigh	-10360
▁mbeag	-10361
▁scope	-10362
▁togra	-10363
ealaigh	-10364
onracha	-10365
rafacha	-10366
áiríonn	-10367
▁Feidhm	-10368
▁amnest	-10369
▁bhéile	-10370
▁dmitry	-10371
▁gangel	-10372
▁gilead	-10373
▁iomadú	-10374
▁máthar	-10375
▁vision	-10376
ialachas	-10377
oifigigh	-10378
oircheas	-10379
oirthear	-10380
oláthraí	-10381
omórtais	-10382
onecróis	-10383
onntanas	-10384
oslódáil	-10385
ovirales	-10386
paindéim	-10387
proiféin	-10388
raítithe	-10389
rewsbury	-10390
ruailliú	-10391
ráchtála	-10392
ráideach	-10393
seiceáil	-10394
thachain	-10395
thachtaí	-10396
titheach	-10397
uairiscí	-10398
ustatius	-10399
',	-10400
11	-10401
ari	-10402
uan	-10403
▁(4	-10404
▁1)	-10405
▁nl	-10406
▁tn	-10407
aspa	-10408
easa	-10409
ghai	-10410
▁2).	-10411
▁388	-10412
▁393	-10413
▁Cur	-10414
▁Mic	-10415
▁ata	-10416
▁nia	-10417
▁pau	-10418
▁tnf	-10419
airis	-10420
aoill	-10421
tóidh	-10422
▁cair	-10423
▁fine	-10424
▁huir	-10425
▁inro	-10426
eachán	-10427
inteam	-10428
triail	-10429
▁Foirm	-10430
▁chuis	-10431
▁crith	-10432
▁fhaig	-10433
▁fhíor	-10434
▁ingne	-10435
▁paulo	-10436
▁stáis	-10437
▁ualaí	-10438
isciúil	-10439
ualwell	-10440
▁30,000	-10441
▁bhféad	-10442
▁bhráid	-10443
▁iarmhí	-10444
▁mhainn	-10445
▁newsom	-10446
▁solais	-10447
▁strain	-10448
áirgeann	-10449
áiteanna	-10450
éadchomh	-10451
éigneach	-10452
éilliúil	-10453
éimeanna	-10454
únaíocht	-10455
▁200-300	-10456
▁300,000	-10457
▁320,000	-10458
▁364,000	-10459
▁Aghaidh	-10460
▁Braisle	-10461
▁Cosaint	-10462
▁Dearadh	-10463
▁Diclofe	-10464
▁Díríonn	-10465
▁Glaonna	-10466
▁Gnéithe	-10467
▁Imdhíon	-10468
▁Iompair	-10469
▁Measadh	-10470
▁Músaeim	-10471
▁Seoladh	-10472
▁Speicis	-10473
▁Srianta	-10474
▁Stopadh	-10475
▁Taifead	-10476
▁Taighde	-10477
▁Thairis	-10478
▁abhcóid	-10479
▁acadúla	-10480
▁adhradh	-10481
▁aduaidh	-10482
▁aeráidí	-10483
▁aguisín	-10484
▁aigéine	-10485
▁airways	-10486
▁ancaire	-10487
▁antónio	-10488
▁artaire	-10489
▁athainm	-10490
▁attilio	-10491
▁bhardas	-10492
▁bhfeabh	-10493
▁bhfostú	-10494
▁bhfógra	-10495
▁bhuairt	-10496
▁biorxiv	-10497
▁borradh	-10498
▁borrell	-10499
3)	-10500
rc	-10501
)).	-10502
ago	-10503
mor	-10504
one	-10505
seo	-10506
ure	-10507
ása	-10508
ích	-10509
▁46	-10510
▁ol	-10511
▁pp	-10512
aigí	-10513
dear	-10514
rcgp	-10515
shuí	-10516
teán	-10517
thaí	-10518
▁sel	-10519
▁tas	-10520
deach	-10521
rasta	-10522
óiceo	-10523
▁2015	-10524
▁bhan	-10525
▁feng	-10526
▁naus	-10527
▁phal	-10528
▁self	-10529
▁éigh	-10530
acainn	-10531
▁10-18	-10532
▁Anseo	-10533
▁Obair	-10534
▁Stoic	-10535
▁fuara	-10536
▁gcion	-10537
▁guais	-10538
▁meall	-10539
oiriúnú	-10540
éideadh	-10541
únuithe	-10542
▁20,000	-10543
▁bhalta	-10544
▁chopar	-10545
▁dhruga	-10546
▁gcaill	-10547
▁gcrích	-10548
▁nausea	-10549
▁neodrú	-10550
dearfach	-10551
níomhach	-10552
oiliúint	-10553
▁Torthaí	-10554
▁Tosóidh	-10555
▁baitsil	-10556
▁bparáid	-10557
▁bpobail	-10558
▁bpointe	-10559
▁bpointí	-10560
▁bpáistí	-10561
▁brónach	-10562
▁bunlíne	-10563
▁busanna	-10564
▁cadhnra	-10565
▁capaill	-10566
▁carbóin	-10567
▁ceangal	-10568
▁ceantar	-10569
▁ceaptha	-10570
▁cearnóg	-10571
▁chaipit	-10572
▁champas	-10573
▁cheirde	-10574
▁cholera	-10575
▁chonaic	-10576
▁chosaiv	-10577
▁choíche	-10578
▁chuisle	-10579
▁chumann	-10580
▁chumasc	-10581
▁chumasú	-10582
▁chúigiú	-10583
▁clinicí	-10584
▁cluaise	-10585
▁clóiríd	-10586
▁codanna	-10587
▁codladh	-10588
▁comhars	-10589
▁concern	-10590
▁cuimhne	-10591
▁cultúir	-10592
▁cumhrán	-10593
▁cúnaimh	-10594
▁deimhin	-10595
▁dhaltaí	-10596
▁dhéanfá	-10597
▁dochair	-10598
▁dtógfaí	-10599
út	-10600
fás	-10601
ibv	-10602
mho	-10603
ron	-10604
rud	-10605
rún	-10606
uin	-10607
íog	-10608
▁54	-10609
ccov	-10610
rast	-10611
▁10,	-10612
▁Fút	-10613
▁dlú	-10614
▁mil	-10615
▁phá	-10616
athrú	-10617
iaraí	-10618
itimh	-10619
sarsr	-10620
▁1,00	-10621
▁Tuir	-10622
▁bhag	-10623
▁geor	-10624
▁mbrú	-10625
▁mion	-10626
▁rhin	-10627
▁samp	-10628
▁sion	-10629
▁tabh	-10630
arsmaí	-10631
eartas	-10632
iarraí	-10633
ipeáil	-10634
éanfaí	-10635
▁Riosp	-10636
▁chear	-10637
▁dhara	-10638
▁fhion	-10639
chineál	-10640
iarsmaí	-10641
igiúirí	-10642
laíocht	-10643
▁Contag	-10644
▁Oscail	-10645
▁Tuirse	-10646
▁bhfill	-10647
▁coilín	-10648
▁natura	-10649
▁piaraí	-10650
▁sceith	-10651
▁shaoil	-10652
▁tréidl	-10653
▁veinis	-10654
▁bolgáin	-10655
▁dlúithe	-10656
▁dtógáil	-10657
▁díonach	-10658
▁dúbailt	-10659
▁dúlagar	-10660
▁eachtra	-10661
▁eascair	-10662
▁eastáit	-10663
▁eatánól	-10664
▁endemic	-10665
▁epithel	-10666
▁fearann	-10667
▁ferrets	-10668
▁fiachas	-10669
▁fisicic	-10670
▁fliucha	-10671
▁foilsiú	-10672
▁foircní	-10673
▁foirmiú	-10674
▁fontana	-10675
▁foscadh	-10676
▁fáiltiú	-10677
▁fógairt	-10678
▁gangelt	-10679
▁gcampas	-10680
▁gcoiste	-10681
▁gcuairt	-10682
▁ghairid	-10683
▁ghairmí	-10684
▁ghlaoch	-10685
▁ghnóthú	-10686
▁ghuthán	-10687
▁glactar	-10688
▁gnóthas	-10689
▁gréasán	-10690
▁gutháin	-10691
▁hantais	-10692
▁heather	-10693
▁higgins	-10694
▁hionann	-10695
▁hionsaí	-10696
▁horgáin	-10697
▁hotspot	-10698
▁hselive	-10699
0)	-10700
20,	-10701
cfr	-10702
lee	-10703
leg	-10704
uel	-10705
und	-10706
▁'.	-10707
▁4%	-10708
▁Sl	-10709
▁uí	-10710
5%),	-10711
legm	-10712
méin	-10713
éarú	-10714
▁37%	-10715
▁Ros	-10716
▁Rud	-10717
▁Sao	-10718
▁cún	-10719
▁los	-10720
▁man	-10721
▁rís	-10722
▁sío	-10723
arris	-10724
chill	-10725
dhála	-10726
oróic	-10727
rúite	-10728
▁220,	-10729
▁Fuil	-10730
▁bill	-10731
▁dírí	-10732
▁liún	-10733
▁scor	-10734
nachar	-10735
▁2,500	-10736
▁airím	-10737
▁duáin	-10738
▁seile	-10739
▁zúnna	-10740
chúrsaí	-10741
ghalair	-10742
ionrach	-10743
mhainne	-10744
mphreys	-10745
taítear	-10746
▁Cluain	-10747
▁droich	-10748
▁fhuair	-10749
▁fhíorú	-10750
▁harris	-10751
▁ndúirt	-10752
▁rátáil	-10753
▁teimhn	-10754
iúnaithe	-10755
▁Ardaigh	-10756
▁Iarradh	-10757
▁airméin	-10758
▁amnesty	-10759
▁bhóthar	-10760
▁ceathrú	-10761
▁chomhar	-10762
▁dtrácht	-10763
▁hypoxia	-10764
▁héadach	-10765
▁héigean	-10766
▁héilliú	-10767
▁iachall	-10768
▁iarbhír	-10769
▁iarrtar	-10770
▁iasacht	-10771
▁inflamm	-10772
▁iondúil	-10773
▁ionscóp	-10774
▁iordáin	-10775
▁journal	-10776
▁kolkata	-10777
▁labcorp	-10778
▁leanfaí	-10779
▁leosóta	-10780
▁ligtear	-10781
▁macbeth	-10782
▁mairíne	-10783
▁malaise	-10784
▁maláire	-10785
▁marthan	-10786
▁massari	-10787
▁mbogadh	-10788
▁mbreith	-10789
▁meaisín	-10790
▁meiteas	-10791
▁melinda	-10792
▁meánach	-10793
▁mhaláiv	-10794
▁mhuirís	-10795
▁muintir	-10796
▁muiníne	-10797
▁máthair	-10798
▁míosúil	-10799
fp	-10800
adú	-10801
dam	-10802
her	-10803
ica	-10804
▁-2	-10805
▁5%	-10806
▁56	-10807
▁Mo	-10808
▁pó	-10809
airc	-10810
avir	-10811
fadú	-10812
oirf	-10813
seir	-10814
áthú	-10815
▁434	-10816
▁Gur	-10817
▁bio	-10818
▁cat	-10819
▁coh	-10820
▁wor	-10821
0,000	-10822
aiche	-10823
aidin	-10824
aidís	-10825
aonna	-10826
dóibh	-10827
ithub	-10828
íorth	-10829
▁1000	-10830
▁Gach	-10831
▁Sean	-10832
▁bána	-10833
▁chul	-10834
▁díbr	-10835
▁séal	-10836
▁séip	-10837
▁tslí	-10838
▁will	-10839
▁éalú	-10840
aidéar	-10841
bhaile	-10842
cheart	-10843
únacht	-10844
▁Geall	-10845
▁Leith	-10846
▁Ríomh	-10847
▁gnéis	-10848
▁gurbh	-10849
▁hiarr	-10850
▁shíor	-10851
▁tsean	-10852
▁tsiom	-10853
ealltaí	-10854
maróidí	-10855
naítear	-10856
ánaithe	-10857
▁Bheith	-10858
▁Príomh	-10859
▁advice	-10860
▁bearna	-10861
▁chríos	-10862
▁foghla	-10863
▁hailse	-10864
▁leacht	-10865
▁maidin	-10866
▁mínigh	-10867
íneachta	-10868
▁Aimsigh	-10869
▁Bhraith	-10870
▁amhairc	-10871
▁cinntiú	-10872
▁fostóir	-10873
▁kremlin	-10874
▁measann	-10875
▁natural	-10876
▁ndúnfar	-10877
▁nigéire	-10878
▁novavax	-10879
▁nílimid	-10880
▁oibleag	-10881
▁orthoco	-10882
▁patrick	-10883
▁patróil	-10884
▁peitril	-10885
▁phléasc	-10886
▁phúinse	-10887
▁pictiúr	-10888
▁plunged	-10889
▁plúchta	-10890
▁putóige	-10891
▁pónairí	-10892
▁rathúla	-10893
▁ratings	-10894
▁saibhre	-10895
▁salainn	-10896
▁samhail	-10897
▁scaoill	-10898
▁scríbhn	-10899
279	-10900
age	-10901
alt	-10902
hat	-10903
opt	-10904
túr	-10905
▁06	-10906
aime	-10907
lora	-10908
oise	-10909
raic	-10910
shío	-10911
stra	-10912
▁19.	-10913
▁Den	-10914
▁Trá	-10915
▁bil	-10916
▁gné	-10917
▁hag	-10918
▁pof	-10919
▁Múin	-10920
▁brio	-10921
▁bunú	-10922
▁cura	-10923
▁deor	-10924
▁feic	-10925
▁moth	-10926
▁nasa	-10927
aillte	-10928
aíonna	-10929
chúirt	-10930
ghabhd	-10931
insear	-10932
onnadh	-10933
▁Maisc	-10934
▁aníos	-10935
▁cluas	-10936
▁dramh	-10937
▁gaird	-10938
▁galth	-10939
▁memes	-10940
▁púdar	-10941
▁tacht	-10942
▁tairg	-10943
eadóirí	-10944
iteanna	-10945
▁Leanaí	-10946
▁fáilte	-10947
▁gearán	-10948
▁kinase	-10949
▁leatsa	-10950
▁mbronn	-10951
▁monacó	-10952
▁muiníl	-10953
▁seanad	-10954
▁timthr	-10955
▁wallis	-10956
eachtála	-10957
idirlíon	-10958
incheapa	-10959
naíochta	-10960
protease	-10961
▁Comhair	-10962
▁dhrugaí	-10963
▁mcentee	-10964
▁mutated	-10965
▁scríobh	-10966
▁scríofa	-10967
▁scuaine	-10968
▁scátáil	-10969
▁seattle	-10970
▁seolfar	-10971
▁shaoire	-10972
▁shoghlu	-10973
▁shreabh	-10974
▁sileadh	-10975
▁sintéis	-10976
▁snáithe	-10977
▁stórais	-10978
▁séasúir	-10979
▁sínithe	-10980
▁síntiús	-10981
▁tadhall	-10982
▁teannas	-10983
▁thaithí	-10984
▁thomhas	-10985
▁thurais	-10986
▁timpeal	-10987
▁tinyurl	-10988
▁tionóil	-10989
▁tiúchan	-10990
▁trópaic	-10991
▁tsampla	-10992
▁tseomra	-10993
▁tsochaí	-10994
▁tsraith	-10995
▁tsúdáin	-10996
▁tuillte	-10997
▁tuáille	-10998
▁tógálaí	-10999
buí	-11000
dpp	-11001
ema	-11002
▁53	-11003
▁62	-11004
▁66	-11005
▁Os	-11006
▁va	-11007
eigh	-11008
imní	-11009
ness	-11010
stoc	-11011
tuir	-11012
▁121	-11013
▁129	-11014
▁195	-11015
▁700	-11016
▁Cov	-11017
▁Dún	-11018
▁Mór	-11019
▁Rub	-11020
▁dún	-11021
▁fos	-11022
▁ngá	-11023
-7.2)	-11024
amach	-11025
bóirí	-11026
chúis	-11027
eacon	-11028
pheic	-11029
▁252,	-11030
▁Coim	-11031
▁Loch	-11032
▁Rial	-11033
▁gcam	-11034
▁gcúr	-11035
▁lasc	-11036
▁libh	-11037
▁spré	-11038
▁áitr	-11039
aigéan	-11040
rafaic	-11041
ábhair	-11042
éilimh	-11043
▁12014	-11044
▁breac	-11045
▁iomaí	-11046
▁ionsú	-11047
▁mhasc	-11048
▁press	-11049
▁sciar	-11050
▁scáth	-11051
▁shoch	-11052
▁vatac	-11053
athanna	-11054
éilíonn	-11055
▁Coinne	-11056
▁Iompar	-11057
▁anabaí	-11058
▁beacon	-11059
▁casadh	-11060
▁gcamán	-11061
▁roinne	-11062
▁sheala	-11063
▁éiginn	-11064
athúsáid	-11065
▁bhlains	-11066
▁cúramaí	-11067
▁ionchas	-11068
▁moilliú	-11069
▁preasag	-11070
▁thinnis	-11071
▁túinéis	-11072
▁uathúla	-11073
▁vítneam	-11074
▁áiríodh	-11075
▁árachas	-11076
▁éalaigh	-11077
▁íoclann	-11078
achomharc	-11079
ainmneoir	-11080
aiteachas	-11081
athraíonn	-11082
athshlánú	-11083
chomhairl	-11084
comirnaty	-11085
dhiagnóis	-11086
eagaivéin	-11087
eaitseáil	-11088
fhéadfadh	-11089
formation	-11090
genómacha	-11091
iarmhairt	-11092
ineacháin	-11093
ioncrónaí	-11094
mhilleadh	-11095
mhínítear	-11096
opropanol	-11097
phoblacht	-11098
phróitéin	-11099
cyt	-11100
lob	-11101
lód	-11102
sna	-11103
uma	-11104
▁87	-11105
iltí	-11106
lóim	-11107
pims	-11108
psis	-11109
raoi	-11110
óite	-11111
▁10%	-11112
▁4,4	-11113
▁5),	-11114
▁Sca	-11115
▁bul	-11116
▁srl	-11117
3,000	-11118
8,000	-11119
eoite	-11120
mhall	-11121
ogaid	-11122
oglob	-11123
rófar	-11124
álfar	-11125
▁233,	-11126
▁Mers	-11127
▁Pian	-11128
▁Sábh	-11129
▁hach	-11130
▁huas	-11131
▁kate	-11132
chairr	-11133
chiall	-11134
eanada	-11135
gníomh	-11136
teacha	-11137
▁3,500	-11138
▁Caill	-11139
▁dháta	-11140
▁folús	-11141
▁fíorú	-11142
▁haire	-11143
▁imirc	-11144
▁suite	-11145
casacht	-11146
eanaois	-11147
▁annamh	-11148
▁bhionn	-11149
▁chúirt	-11150
▁hoibre	-11151
▁hothar	-11152
▁lasadh	-11153
▁spraoi	-11154
▁thromb	-11155
éabhlóid	-11156
▁dtáinig	-11157
▁eaglais	-11158
▁eisiltí	-11159
▁mháinli	-11160
coprotein	-11161
faigheann	-11162
pónantúil	-11163
raitheoir	-11164
ruthaithe	-11165
sceidealú	-11166
sclaítear	-11167
shíneacha	-11168
threomhar	-11169
uchtaithe	-11170
uingreach	-11171
ábaltacht	-11172
íodráitiú	-11173
▁2002-200	-11174
▁Bailíonn	-11175
▁Bhunaigh	-11176
▁Bialanna	-11177
▁Briseadh	-11178
▁Bunaíodh	-11179
▁Caisleán	-11180
▁Ceadúnas	-11181
▁Cliseadh	-11182
▁Corcaigh	-11183
▁Damáiste	-11184
▁Díghalrú	-11185
▁Faisnéis	-11186
▁Feicfidh	-11187
▁Feictear	-11188
▁Freagair	-11189
▁Féachann	-11190
▁Gaillimh	-11191
▁Glantach	-11192
▁Gliogáil	-11193
▁Iompaigh	-11194
▁Labhairt	-11195
▁Leibhéal	-11196
▁Longfort	-11197
▁Méadrach	-11198
▁Naproxen	-11199
píd	-11200
inmo	-11201
▁11,	-11202
▁114	-11203
▁aut	-11204
umann	-11205
▁Siúl	-11206
▁oste	-11207
oirmiú	-11208
▁caoga	-11209
▁fionn	-11210
▁ortsa	-11211
lándála	-11212
oirmisc	-11213
▁aíonna	-11214
▁chionn	-11215
▁díríonn	-11216
▁Pléitear	-11217
▁Prótacal	-11218
▁Slaghdán	-11219
▁Socraigh	-11220
▁Socróidh	-11221
▁Tuileadh	-11222
▁Tógálach	-11223
▁afracach	-11224
▁aifreann	-11225
▁alveolar	-11226
▁antaigín	-11227
▁aontaigh	-11228
▁arabacha	-11229
▁athfhill	-11230
▁auckland	-11231
▁bairille	-11232
▁bhailigh	-11233
▁bhfoinse	-11234
▁bhialann	-11235
▁bhoisnia	-11236
▁bhraisle	-11237
▁bpainéal	-11238
▁broadway	-11239
▁broghais	-11240
▁castacht	-11241
▁ceanainn	-11242
▁chabháin	-11243
▁chambóid	-11244
▁chluichí	-11245
▁chodladh	-11246
▁chogaidh	-11247
▁chomhleá	-11248
▁chuairte	-11249
▁chuimilt	-11250
▁cháipéis	-11251
▁cianrial	-11252
▁cliceáil	-11253
▁clárlach	-11254
▁coiteann	-11255
▁colainne	-11256
▁columbia	-11257
▁comhlánú	-11258
▁comórtas	-11259
▁corcaigh	-11260
▁costasaí	-11261
▁creatine	-11262
▁cuirfews	-11263
▁cuirimid	-11264
▁céadfach	-11265
▁cúisíodh	-11266
▁cúramóir	-11267
▁daonnúil	-11268
▁dhaonraí	-11269
▁dhearadh	-11270
▁dheonach	-11271
▁dhéantaí	-11272
▁dhéimeag	-11273
▁dhíríonn	-11274
▁dhóthain	-11275
▁dioplóma	-11276
▁dtarlódh	-11277
▁dtimpeal	-11278
▁dtinneas	-11279
▁dtitfidh	-11280
▁díreacha	-11281
▁dúisithe	-11282
▁eascairt	-11283
▁eatarthu	-11284
▁fabhrach	-11285
▁fadraoin	-11286
▁fheabhas	-11287
▁fhoirmiú	-11288
▁fhágfadh	-11289
▁fhíochán	-11290
▁fhíorúil	-11291
▁fhógairt	-11292
▁fochéime	-11293
▁freasúra	-11294
▁fuinneog	-11295
▁fáiscthe	-11296
▁féachann	-11297
▁físchomh	-11298
▁gaillimh	-11299
▁gcarraig	-11300
▁gceanada	-11301
▁gceathrú	-11302
▁gceithre	-11303
▁gcoimeád	-11304
▁gcolainn	-11305
▁gcomhair	-11306
▁gcroílár	-11307
▁gnéasach	-11308
▁guterres	-11309
▁haerfort	-11310
▁haistriú	-11311
▁hanailís	-11312
▁hiondúil	-11313
▁huanáine	-11314
▁huirlisí	-11315
▁iarchead	-11316
▁iarnróid	-11317
▁ilchóras	-11318
▁ildiscip	-11319
▁imthosca	-11320
▁inscoile	-11321
▁inseoidh	-11322
▁ionchódú	-11323
▁laghdódh	-11324
▁leadóige	-11325
▁leantóir	-11326
▁ligfeadh	-11327
▁lochtach	-11328
▁loingsiú	-11329
▁léiríodh	-11330
▁líomhain	-11331
▁marcóirí	-11332
▁margaidh	-11333
▁maurizio	-11334
▁mbagairt	-11335
▁mbeartas	-11336
▁mbraislí	-11337
▁mbuidéil	-11338
▁meadhrán	-11339
▁meaisíní	-11340
▁medicals	-11341
▁meerjady	-11342
▁mhamaigh	-11343
▁mheabhra	-11344
▁mheabhrú	-11345
▁mheáchan	-11346
▁mholdóiv	-11347
▁mhuilinn	-11348
▁mhíleata	-11349
▁milliúin	-11350
▁moscanna	-11351
▁mountjoy	-11352
▁muiceola	-11353
▁méadóidh	-11354
▁míbhuntá	-11355
▁neodrach	-11356
▁nglanann	-11357
▁ngoradán	-11358
▁oiriúnaí	-11359
▁oklahoma	-11360
▁pacáiste	-11361
▁pacáistí	-11362
▁pasáistí	-11363
▁phangóil	-11364
▁pheitril	-11365
▁phostáil	-11366
▁pháipéar	-11367
▁pictiúir	-11368
▁pleanáil	-11369
▁pláitíní	-11370
▁protease	-11371
▁príomhth	-11372
▁rabhthas	-11373
▁rianairí	-11374
▁ribosóim	-11375
▁ritheann	-11376
▁roghnach	-11377
▁réitithe	-11378
▁salachar	-11379
▁samhradh	-11380
▁samplach	-11381
▁scagaire	-11382
▁scagairí	-11383
▁scanóirí	-11384
▁seacláid	-11385
▁sealanna	-11386
▁seichimh	-11387
▁services	-11388
▁shanghai	-11389
▁shaoráid	-11390
▁shedding	-11391
▁shintéis	-11392
▁shiúlóid	-11393
▁shlógadh	-11394
▁shruthlú	-11395
▁shíneadh	-11396
▁shíomoin	-11397
▁slándála	-11398
▁sonracha	-11399
▁stiabhna	-11400
▁stáisiún	-11401
▁suiteáil	-11402
▁sóisialú	-11403
▁tadhaill	-11404
▁teagaisc	-11405
▁teagmhas	-11406
▁teasctha	-11407
▁teoirice	-11408
▁thacaigh	-11409
▁thaighde	-11410
▁tholgadh	-11411
▁thomhais	-11412
▁thosóidh	-11413
▁threocht	-11414
▁thuairim	-11415
▁traenach	-11416
▁tromlach	-11417
▁truaille	-11418
▁tsaimbia	-11419
▁tsamhail	-11420
▁tseirbia	-11421
▁uafásach	-11422
▁ualaithe	-11423
▁uisciúil	-11424
▁urlabhra	-11425
▁víreolaí	-11426
▁wenliang	-11427
▁árachais	-11428
▁éigníoch	-11429
▁éilítear	-11430
▁éireoidh	-11431
▁íoslainn	-11432
aimseartha	-11433
arthanacht	-11434
ghlantóirí	-11435
iarrthóirí	-11436
idirdhealú	-11437
imoibríoch	-11438
iolachtach	-11439
iomptómach	-11440
láimhseáil	-11441
orthúlacht	-11442
phriontála	-11443
scríbhinní	-11444
sheirbhísí	-11445
theagmhála	-11446
éigeandáil	-11447
íteaplasma	-11448
▁(3.0-7.2)	-11449
▁Aibhsíonn	-11450
▁Ceannaigh	-11451
▁Coinníonn	-11452
▁Cosnaíonn	-11453
▁Creideann	-11454
▁Creidtear	-11455
▁Cuideoidh	-11456
▁Cúiseanna	-11457
▁Déanaimid	-11458
▁Faigheann	-11459
▁Ganntanas	-11460
▁Goilleann	-11461
▁Gortaíonn	-11462
▁Iarrfaidh	-11463
▁Laghdaigh	-11464
▁Laghdóidh	-11465
▁Luimneach	-11466
▁Méadaíodh	-11467
▁Rialachas	-11468
▁Rinneamar	-11469
▁Scriosann	-11470
▁Scrúdóidh	-11471
▁Soláthraí	-11472
▁Sábháilte	-11473
▁Tacaíocht	-11474
▁Taispeáin	-11475
▁Thiobraid	-11476
▁Thángthas	-11477
▁Tionóladh	-11478
▁Táirgeann	-11479
▁ailléirge	-11480
▁aimseoidh	-11481
▁aitíopúla	-11482
▁ambasáidí	-11483
▁analgesia	-11484
▁antaigine	-11485
▁ardtoirte	-11486
▁aspartate	-11487
▁athhiodrá	-11488
▁athláimhe	-11489
▁athmhúnlú	-11490
▁athraíodh	-11491
▁bearbóirí	-11492
▁bhagáiste	-11493
▁bhaltacha	-11494
▁bheartais	-11495
▁bhfacthas	-11496
▁bhféilire	-11497
▁bhialanna	-11498
▁bhraitear	-11499
▁bhriseann	-11500
▁bhronnadh	-11501
▁bhúistéir	-11502
▁bpacáiste	-11503
▁bpróitéin	-11504
▁bréagacha	-11505
▁buaileadh	-11506
▁bunaíocht	-11507
▁buntáistí	-11508
▁caiféanna	-11509
▁cailleann	-11510
▁caitheadh	-11511
▁caitheann	-11512
▁calafoirt	-11513
▁catarrhal	-11514
▁ceadúnais	-11515
▁ceannairí	-11516
▁chainnigh	-11517
▁charghais	-11518
▁chathaoir	-11519
▁cheadófaí	-11520
▁chinneann	-11521
▁chláraigh	-11522
▁chomhréir	-11523
▁chríostaí	-11524
▁chuardach	-11525
▁chuirfidh	-11526
▁chóimheas	-11527
▁chónaidhm	-11528
▁cileavata	-11529
▁cinntithe	-11530
▁coinneála	-11531
▁comhbhrón	-11532
▁comhdhúil	-11533
▁conclúidí	-11534
▁contaetha	-11535
▁contúirtí	-11536
▁craiceann	-11537
▁cruthúnas	-11538
▁cuimhnigh	-11539
▁céadfacha	-11540
▁cóngarach	-11541
▁cúiseanna	-11542
▁cúlchiste	-11543
▁cúramóirí	-11544
▁deichniúr	-11545
▁deireanaí	-11546
▁deochanna	-11547
▁dheirfiúr	-11548
▁dhochtúra	-11549
▁dhíolúine	-11550
▁dioplómaí	-11551
▁dodhéanta	-11552
▁doirteadh	-11553
▁dtabharfá	-11554
▁dtaispeán	-11555
▁dtiomáint	-11556
▁dtitfeadh	-11557
▁dtoghchán	-11558
▁débhríoch	-11559
▁díshealbh	-11560
▁eipidéimí	-11561
▁epizootic	-11562
▁eustatius	-11563
▁fhachtóir	-11564
▁fhaigeann	-11565
▁fheidhmiú	-11566
▁fhormheas	-11567
▁fiafraigh	-11568
▁fiafróidh	-11569
▁foirgnimh	-11570
▁foirmiúla	-11571
▁francisco	-11572
▁freastail	-11573
▁fáiltithe	-11574
▁gairmithe	-11575
▁galraithe	-11576
▁gcealtair	-11577
▁gcinneadh	-11578
▁gcomhordú	-11579
▁gcomhréir	-11580
▁gcruinniú	-11581
▁ghlasanna	-11582
▁giúdachas	-11583
▁gortaíodh	-11584
▁gruagaire	-11585
▁gurdwaras	-11586
▁hamhlaidh	-11587
▁heaglaisí	-11588
▁hidrigine	-11589
▁himscrúdú	-11590
▁hinstitiú	-11591
▁hiontráil	-11592
▁hormónach	-11593
▁humphreys	-11594
▁iarchéime	-11595
▁iarrfaidh	-11596
▁ilbhliana	-11597
▁imréitigh	-11598
▁inbhraite	-11599
▁ingearach	-11600
▁ionsaíodh	-11601
▁leanfaidh	-11602
▁leantacha	-11603
▁leithinis	-11604
▁leochailí	-11605
▁lochtacha	-11606
▁longfoirt	-11607
▁lánghráin	-11608
▁macadóine	-11609
▁mairfeadh	-11610
▁maiscithe	-11611
▁maoinithe	-11612
▁marcáilte	-11613
▁mbuíochas	-11614
▁meicsiceo	-11615
▁mhonaróir	-11616
▁mhórscála	-11617
▁monarchan	-11618
▁mothúchán	-11619
▁méadaíonn	-11620
▁méadracha	-11621
▁méaduithe	-11622
▁múinteoir	-11623
▁naíolanna	-11624
▁ndeimhniú	-11625
▁ndeirtear	-11626
▁ndícheall	-11627
▁neamhoird	-11628
▁neamhrial	-11629
▁ngaillimh	-11630
▁ngairdíní	-11631
▁nsaidanna	-11632
▁obstatraí	-11633
▁oibreoidh	-11634
▁oibríocht	-11635
▁paindéimí	-11636
▁pearsanra	-11637
▁peptidase	-11638
▁priontáil	-11639
▁próiseáil	-11640
▁rialachán	-11641
▁rianaíodh	-11642
▁riboviria	-11643
▁rinneamar	-11644
▁rithfeadh	-11645
▁roghnacha	-11646
▁roinntear	-11647
▁rásaíocht	-11648
▁réasúnach	-11649
▁rómhánach	-11650
▁saineolas	-11651
▁sanitizer	-11652
▁scamhóige	-11653
▁scileanna	-11654
▁scáileáin	-11655
▁seachaint	-11656
▁seaimpíní	-11657
▁seasmhach	-11658
▁sheachaid	-11659
▁shéideadh	-11660
▁sionagóga	-11661
▁sionainne	-11662
▁sochraide	-11663
▁socraíonn	-11664
▁socrúchán	-11665
▁soithíoch	-11666
▁soláthraí	-11667
▁spleáchas	-11668
▁spreagtha	-11669
▁sreabhach	-11670
▁stáisiúin	-11671
▁suaimhnis	-11672
▁sáraítear	-11673
▁séadchomh	-11674
▁séalaithe	-11675
▁tarraingt	-11676
▁teampaill	-11677
▁teimpléid	-11678
▁thagartha	-11679
▁tharraing	-11680
▁thoirmisc	-11681
▁threasach	-11682
▁tipiciúil	-11683
▁toghcháin	-11684
▁toilleadh	-11685
▁trioblóid	-11686
▁tráthnóna	-11687
▁tríonóide	-11688
▁tseoirsia	-11689
▁tuaslagán	-11690
▁tuislithe	-11691
▁téachtáin	-11692
▁uasghrádú	-11693
▁uirbeacha	-11694
▁vaicsaíne	-11695
▁wikimedia	-11696
▁wikipedia	-11697
▁Úsáideadh	-11698
▁éisteacht	-11699
▁íocaíocht	-11700
▁íoslódáil	-11701
adóireachta	-11702
agraíochtaí	-11703
aistéigeach	-11704
aoisghrúpaí	-11705
arascálacha	-11706
chompordach	-11707
cméanastáin	-11708
fhreagracha	-11709
fhréamhacha	-11710
ghlacadóirí	-11711
homalógacht	-11712
iargúltacht	-11713
nóireachtaí	-11714
pholaitiúil	-11715
pháirteacha	-11716
riachtanais	-11717
ronavirinae	-11718
éileáiltear	-11719
íocaíochtaí	-11720
ónaitheoirí	-11721
▁Bronchitis	-11722
▁Ceadaítear	-11723
▁Ceisteanna	-11724
▁Cinnteoidh	-11725
▁Coinneoidh	-11726
▁Cruthaíonn	-11727
▁Deimhníonn	-11728
▁Diclofenac	-11729
▁Forbróimid	-11730
▁Glaineacht	-11731
▁Gníomhairí	-11732
▁Leithdháil	-11733
▁Liostaíonn	-11734
▁Muineachán	-11735
▁Roghnaíonn	-11736
▁Scoileanna	-11737
▁Scrúdaíonn	-11738
▁aerálaithe	-11739
▁aidhmeanna	-11740
▁ainmníocht	-11741
▁amharclann	-11742
▁aonrúcháin	-11743
▁aslonnaigh	-11744
▁associated	-11745
▁athdhéanta	-11746
▁bailiúchán	-11747
▁bhaileofar	-11748
▁bhfaisnéis	-11749
▁bhfanfaidh	-11750
▁bhfeasacht	-11751
▁bhfeiceann	-11752
▁bhfeictear	-11753
▁bhfiaclóir	-11754
▁bhfillfidh	-11755
▁bhlainséir	-11756
▁bhliantúil	-11757
▁bhraoiníní	-11758
▁bhuaileann	-11759
▁bhuinneach	-11760
▁bronntanas	-11761
▁béasaíocht	-11762
▁ceangailte	-11763
▁ceansaithe	-11764
▁ceiliúradh	-11765
▁chaighdeán	-11766
▁chailleadh	-11767
▁chaisleáin	-11768
▁chanáracha	-11769
▁chloigeann	-11770
▁choigeartú	-11771
▁choinneála	-11772
▁chomhaontú	-11773
▁chomhlacht	-11774
▁chonclúidí	-11775
▁choróinvír	-11776
▁chothaithe	-11777
▁chreideann	-11778
▁chreidtear	-11779
▁chruthaigh	-11780
▁chéimnithe	-11781
▁chúramóirí	-11782
▁coimpléasc	-11783
▁coireachta	-11784
▁coirmeacha	-11785
▁consalacht	-11786
▁contráilte	-11787
▁cosúlachta	-11788
▁cuairteoir	-11789
▁cuimhneamh	-11790
▁cáilíochta	-11791
▁cómhalartú	-11792
▁cúirteanna	-11793
▁daingnithe	-11794
▁dhéanfaidh	-11795
▁dipeptidyl	-11796
▁disneyland	-11797
▁distancing	-11798
▁dochreidte	-11799
▁dtaibhithe	-11800
▁dtuigfeadh	-11801
▁díláraithe	-11802
▁díréireach	-11803
▁dóchúlacht	-11804
▁dúshlánach	-11805
▁eascraíonn	-11806
▁eatramhach	-11807
▁feirmeacha	-11808
▁fhadhbanna	-11809
▁fheachtais	-11810
▁fhisiceach	-11811
▁fhisiciúil	-11812
▁fhoréigean	-11813
▁fhreastail	-11814
▁foghlamtha	-11815
▁foirgneamh	-11816
▁foirmeacha	-11817
▁forbraíonn	-11818
▁foriomlána	-11819
▁gaeltachta	-11820
▁galthoitín	-11821
▁gcaillfidh	-11822
▁gcaithfear	-11823
▁gcleachtas	-11824
▁gcomhshaol	-11825
▁gcriosanna	-11826
▁ghabhdóirí	-11827
▁gheimhridh	-11828
▁ghléasanna	-11829
▁gluaisteán	-11830
▁gníomhairí	-11831
▁gníomhaígh	-11832
▁hainmeacha	-11833
▁haireachta	-11834
▁hindíreach	-11835
▁homalógach	-11836
▁iarmhairtí	-11837
▁imeallacha	-11838
▁imoibrithe	-11839
▁imoibríoch	-11840
▁infheicthe	-11841
▁ionchasach	-11842
▁labhraíonn	-11843
▁laghdaíodh	-11844
▁luasghéarú	-11845
▁lucsamburg	-11846
▁macasamhla	-11847
▁mbraithfeá	-11848
▁mbraoiníní	-11849
▁mbuaileann	-11850
▁mheasartha	-11851
▁mhonaróirí	-11852
▁mhéadracht	-11853
▁mionsonraí	-11854
▁modhnaithe	-11855
▁monoclonal	-11856
▁mothúcháin	-11857
▁muineachán	-11858
▁míchompord	-11859
▁móilíneach	-11860
▁móiminteam	-11861
▁núicléapíd	-11862
▁núicléasíd	-11863
▁ocsaiginiú	-11864
▁oilimpeach	-11865
▁peitriliam	-11866
▁phaindéimí	-11867
▁phalaistín	-11868
▁phróiseáil	-11869
▁plaisteach	-11870
▁pleanáilte	-11871
▁príomhaire	-11872
▁príosúnach	-11873
▁reiligiúin	-11874
▁rothaíocht	-11875
▁réamhscoil	-11876
▁saturation	-11877
▁scamhógach	-11878
▁sceitheadh	-11879
▁seachadtaí	-11880
▁sealadacha	-11881
▁sexualwell	-11882
▁shainaithn	-11883
▁shaineolaí	-11884
▁shearmanas	-11885
▁sheicheamh	-11886
▁sholáthraí	-11887
▁shrewsbury	-11888
▁siopadóirí	-11889
▁sochaíocha	-11890
▁spriocanna	-11891
▁staidiamaí	-11892
▁straitéise	-11893
▁suaimhneas	-11894
▁taiscumair	-11895
▁teagmhálaí	-11896
▁teirmeacha	-11897
▁thairgfear	-11898
▁theastóidh	-11899
▁thrasnaigh	-11900
▁tháirgtear	-11901
▁tiomnaithe	-11902
▁tithíochta	-11903
▁toinníteas	-11904
▁tréithiúla	-11905
▁veiniséala	-11906
▁víreasaigh	-11907
▁áirithinte	-11908
▁áirithintí	-11909
▁éisteachta	-11910
▁íocaíochta	-11911
aghaidheanna	-11912
chomhbhrúite	-11913
earrbhachais	-11914
ghluaiseacht	-11915
pholaiteoirí	-11916
ábháilteacht	-11917
éireolaíocht	-11918
▁Amharclanna	-11919
▁Bhraitheann	-11920
▁Deimhnítear	-11921
▁Diaibéiteas	-11922
▁Forordaíonn	-11923
▁Imdhíonacht	-11924
▁Mheabhraigh	-11925
▁Réamhchúram	-11926
▁Sainmhínigh	-11927
▁Soláthairtí	-11928
▁afganastáin	-11929
▁ainéistéise	-11930
▁aisghabhála	-11931
▁ardleibhéil	-11932
▁ardéifeacht	-11933
▁aslonnaíodh	-11934
▁athlastacha	-11935
▁athoscailte	-11936
▁atreoraithe	-11937
▁atreoruithe	-11938
▁bowelscreen	-11939
▁bunaíochtaí	-11940
▁caillteanas	-11941
▁caitliceach	-11942
▁ceadúnaithe	-11943
▁ceanglaíonn	-11944
▁ceolchoirme	-11945
▁chaighdeáin	-11946
▁cheachtanna	-11947
▁cheiliúradh	-11948
▁cheolchoirm	-11949
▁choinnítear	-11950
▁chomhshaoil	-11951
▁chomhthéacs	-11952
▁chonsalacht	-11953
▁choraintíní	-11954
▁chruinnithe	-11955
▁chumarsáide	-11956
▁cliniceoirí	-11957
▁codarsnacht	-11958
▁coraintíniú	-11959
▁custaiméirí	-11960
▁círéibeacha	-11961
▁dearbhuithe	-11962
▁dhíchobhsaí	-11963
▁dhíchriptiú	-11964
▁diagnostics	-11965
▁dighalraigh	-11966
▁dtaiscumair	-11967
▁déthaobhach	-11968
▁eisceachtaí	-11969
▁eisfheartha	-11970
▁fheidhmíonn	-11971
▁fhíneálacha	-11972
▁foilseachán	-11973
▁forlíontach	-11974
▁gcaithfeadh	-11975
▁gcomhthéacs	-11976
▁ghebreyesus	-11977
▁gheimhreadh	-11978
▁ghnóthaíonn	-11979
▁giomnáisíní	-11980
▁gníomhachtú	-11981
▁géiniteacha	-11982
▁géinitíopaí	-11983
▁hainaithnid	-11984
▁haitheantas	-11985
▁hearnálacha	-11986
▁hiarrachtaí	-11987
▁húsáideoirí	-11988
▁iargúltacht	-11989
▁imeallaithe	-11990
▁inathraithe	-11991
▁incháilithe	-11992
▁information	-11993
▁innéacsanna	-11994
▁instealltaí	-11995
▁ionghabháil	-11996
▁leithreasaí	-11997
▁lymphopenia	-11998
▁líomhnaithe	-11999
▁lóistíochta	-12000
▁macasamhail	-12001
▁margaíochta	-12002
▁marthanóirí	-12003
▁measúnuithe	-12004
▁meánioncaim	-12005
▁mheicníocht	-12006
▁mháinliacht	-12007
▁máithreacha	-12008
▁mórcheantar	-12009
▁ndeimhníodh	-12010
▁ngnáthshaol	-12011
▁nidovirales	-12012
▁oibriúcháin	-12013
▁oilimpeacha	-12014
▁ollmhargadh	-12015
▁otharchairr	-12016
▁parlaiminte	-12017
▁peritonitis	-12018
▁pianbhreith	-12019
▁praiticiúil	-12020
▁próiseáladh	-12021
▁rhinolophus	-12022
▁sainghrúpaí	-12023
▁shealadacha	-12024
▁sholáthróir	-12025
▁shráideanna	-12026
▁shuaimhneas	-12027
▁socheacnama	-12028
▁solúbthacht	-12029
▁sráidbhaile	-12030
▁taispeánann	-12031
▁tarraingthe	-12032
▁teiripeacha	-12033
▁thaistealaí	-12034
▁theileafóin	-12035
▁theiripeach	-12036
▁thástálacha	-12037
▁tiománaithe	-12038
▁tionscnóirí	-12039
▁toirmiscthe	-12040
▁trádálaithe	-12041
▁turgnamhach	-12042
▁téacsteacht	-12043
▁vacsaíníthe	-12044
▁víreolaithe	-12045
▁éigeantacha	-12046
aistritheacht	-12047
aonchineálach	-12048
chomhairleoir	-12049
dhiagnóisithe	-12050
nuashonruithe	-12051
oirfeolaíocht	-12052
ollscoileanna	-12053
▁Díhiodráitiú	-12054
▁Iobúproifein	-12055
▁Ionchódaíonn	-12056
▁Tarchuireann	-12057
▁Tarchuirtear	-12058
▁adanaivíreas	-12059
▁aerbhealaigh	-12060
▁ailléirgeach	-12061
▁allmhairíodh	-12062
▁athainmníodh	-12063
▁athbheochana	-12064
▁athchóirithe	-12065
▁bainisteoirí	-12066
▁bhreoiteacht	-12067
▁bhunáiteanna	-12068
▁caillteanais	-12069
▁chainníochtú	-12070
▁cheanglaíonn	-12071
▁chomhthiomsú	-12072
▁chuideachtaí	-12073
▁chóireálacha	-12074
▁cnáimhseacha	-12075
▁comhairleoir	-12076
▁consalachtaí	-12077
▁críochnaithe	-12078
▁cócaireachta	-12079
▁cógaisíochta	-12080
▁dhearbhaíonn	-12081
▁dheireanacha	-12082
▁déthaobhacha	-12083
▁dúghabhálach	-12084
▁ealaíontóirí	-12085
▁fadbhunaithe	-12086
▁fhaireachais	-12087
▁fhreagraíonn	-12088
▁fionnachtain	-12089
▁forimeallach	-12090
▁forlíontacha	-12091
▁frithghníomh	-12092
▁gcomhlíonann	-12093
▁gheilleagair	-12094
▁ghníomhachtú	-12095
▁ghéiniteacha	-12096
▁glycoprotein	-12097
▁haitheantais	-12098
▁heagraíochta	-12099
▁hoidhreachta	-12100
▁héifeachtúil	-12101
▁idirghníomhú	-12102
▁imscrúdaithe	-12103
▁infhéitheach	-12104
▁inflammasome	-12105
▁iobúproiféin	-12106
▁leithdháilte	-12107
▁láimhseálann	-12108
▁maireachtála	-12109
▁mbruitíneach	-12110
▁meitibileach	-12111
▁meánoirthear	-12112
▁mheabhraíonn	-12113
▁mheastacháin	-12114
▁mhuineacháin	-12115
▁mhóilíneacha	-12116
▁monoclónacha	-12117
▁míbhuntáistí	-12118
▁míshástachta	-12119
▁mórimeachtaí	-12120
▁ndeimhnítear	-12121
▁neamhchinnte	-12122
▁neamhghníomh	-12123
▁ngníomhartha	-12124
▁néareolaíoch	-12125
▁onnmhairithe	-12126
▁osteonecróis	-12127
▁paraiméadair	-12128
▁phortaingéil	-12129
▁prognóiseach	-12130
▁príomhréimsí	-12131
▁príosúnachta	-12132
▁páipéarachas	-12133
▁péidiatraice	-12134
▁reiligiúnach	-12135
▁réamhlíneach	-12136
▁réasúnaíocht	-12137
▁sainairíonna	-12138
▁seicheamhach	-12139
▁sheineafóibe	-12140
▁staitistiúil	-12141
▁subgenómacha	-12142
▁tarchuireadh	-12143
▁threoirlínte	-12144
▁timpeallacht	-12145
▁torthúlachta	-12146
▁trédhearcach	-12147
▁tréidliachta	-12148
▁tuairisciúil	-12149
▁turgnamhacha	-12150
▁tánaisteacha	-12151
▁urscaoileadh	-12152
▁víreolaíocht	-12153
▁áitritheoirí	-12154
▁éagsúlachtaí	-12155
▁éighníomhach	-12156
ghluaiseachtaí	-12157
▁Chomhaontaigh	-12158
▁Nuashonruithe	-12159
▁Sainaithníodh	-12160
▁Sainmhínítear	-12161
▁Tuairiscítear	-12162
▁anatamaíochta	-12163
▁athfhillteach	-12164
▁athscríbhinní	-12165
▁bhainisteoirí	-12166
▁bhfeabhsaíonn	-12167
▁bhreathnaíonn	-12168
▁bhreoiteachta	-12169
▁cathaoirleach	-12170
▁chomhordaithe	-12171
▁chríochnaíonn	-12172
▁cháipéisíocht	-12173
▁coigeartaithe	-12174
▁coilíneachtaí	-12175
▁coinneálachta	-12176
▁colaistéaróil	-12177
▁comhfhoireann	-12178
▁coróinivíreas	-12179
▁cothromaíocht	-12180
▁croineolaíoch	-12181
▁dhiagnóiseach	-12182
▁dtaispeántais	-12183
▁dtarchuireann	-12184
▁dtimpeallacht	-12185
▁feidhmiúcháin	-12186
▁fhionnachtain	-12187
▁fhoghlaimíonn	-12188
▁fhondúireacht	-12189
▁foghlaimeoirí	-12190
▁foilsitheoirí	-12191
▁frithghiniúna	-12192
▁fóirdheontais	-12193
▁gceanglaítear	-12194
▁gnáththástála	-12195
▁iarcheadaithe	-12196
▁idirmheánaigh	-12197
▁imdhíontaithe	-12198
▁iompraíochtaí	-12199
▁leochaileacha	-12200
▁mbreathnaíonn	-12201
▁mhéadaitheach	-12202
▁modheolaíocht	-12203
▁nuashonraithe	-12204
▁oirdheisceart	-12205
▁paiteolaíocha	-12206
▁paiteolaíocht	-12207
▁phataiginéime	-12208
▁polapróitéiní	-12209
▁príobháideach	-12210
▁príomhshrutha	-12211
▁seachtainiúla	-12212
▁seanbhunaithe	-12213
▁shláinteachas	-12214
▁shraothartach	-12215
▁speisialaithe	-12216
▁sraothartaigh	-12217
▁straitéiseach	-12218
▁séireolaíocha	-12219
▁síceolaíochta	-12220
▁taistealaithe	-12221
▁tharchuireann	-12222
▁tharchuirtear	-12223
▁thábhachtacha	-12224
▁timpeallachta	-12225
▁turasóireacht	-12226
gastroenteritis	-12227
ghníomhaíochtaí	-12228
idirghabhálacha	-12229
▁Frithghiniúint	-12230
▁Gníomhaíochtaí	-12231
▁Príobháideacht	-12232
▁athchuingreach	-12233
▁bhúistéireacht	-12234
▁bunriachtanais	-12235
▁ceannaitheoirí	-12236
▁chorpoideachas	-12237
▁chreidiúnaithe	-12238
▁cnáimhseachais	-12239
▁comharthaíocht	-12240
▁comhpháirtithe	-12241
▁dteorainneacha	-12242
▁dtuismitheoirí	-12243
▁déantúsaíochta	-12244
▁díhiodraítithe	-12245
▁frithghiniúint	-12246
▁frithvíreasach	-12247
▁féintuairisciú	-12248
▁fóirdheonaithe	-12249
▁gnáthuaireanta	-12250
▁heirseagaivéin	-12251
▁luathfhoghlama	-12252
▁matamaiticiúil	-12253
▁mhainneachtain	-12254
▁mhodheolaíocht	-12255
▁mhéadaitheacha	-12256
▁mífheidhmeanna	-12257
▁neamhchaidrimh	-12258
▁neamhshlándáil	-12259
▁neamhábaltacht	-12260
▁peannaireachta	-12261
▁phataigineacht	-12262
▁príomhinstitiú	-12263
▁radagrafaíocht	-12264
▁raideolaíochta	-12265
▁ríomhaireachta	-12266
▁sraiththástáil	-12267
▁séadchomhartha	-12268
▁síceasóisialta	-12269
▁theorainneacha	-12270
▁tionsclaíochta	-12271
▁tomagrafaíocht	-12272
▁turasóireachta	-12273
▁uachtaránachta	-12274
▁athhiodráitithe	-12275
▁comhfhreagracha	-12276
▁comhghleacaithe	-12277
▁dtimpeallachtaí	-12278
▁féidearthachtaí	-12279
▁gearrthéarmacha	-12280
▁ghnáthphraghais	-12281
▁mhicreascópacht	-12282
▁ngartheagmhálaí	-12283
▁ngníomhaireacht	-12284
▁réamhphriontála	-12285
▁réamhscoileanna	-12286
▁saorfhréamhacha	-12287
▁scagthástálacha	-12288
▁sexualwellbeing	-12289
▁tirimghlantóirí	-12290
▁tuircméanastáin	-12291
111	-12292
7.6	-12293
fih	-12294
hpx	-12295
nih	-12296
tcv	-12297
wfp	-12298
úpl	-12299
,248	-12300
,494	-12301
,548	-12302
,831	-12303
.0%)	-12304
.1.6	-12305
.98%	-12306
037.	-12307
3,82	-12308
bibp	-12309
dish	-12310
eake	-12311
eces	-12312
epha	-12313
ergy	-12314
etts	-12315
hpra	-12316
hpxa	-12317
htag	-12318
info	-12319
kesp	-12320
lock	-12321
mopt	-12322
offs	-12323
ound	-12324
plom	-12325
ried	-12326
roxy	-12327
tgev	-12328
umab	-12329
wibp	-12330
▁-3)	-12331
▁06:	-12332
▁4-5	-12333
▁582	-12334
▁62%	-12335
▁87%	-12336
▁92%	-12337
▁bgi	-12338
▁fbi	-12339
▁ffp	-12340
▁ffs	-12341
▁wee	-12342
.1,1,	-12343
.6%).	-12344
0,191	-12345
0,727	-12346
1,388	-12347
1-7.2	-12348
1080,	-12349
2,647	-12350
2,699	-12351
3,057	-12352
3,545	-12353
3,567	-12354
3,822	-12355
3,892	-12356
37.63	-12357
4,279	-12358
4,378	-12359
4,843	-12360
5,820	-12361
6,547	-12362
6,839	-12363
6,870	-12364
7,554	-12365
7,695	-12366
7,933	-12367
9,430	-12368
9,723	-12369
9,768	-12370
9,780	-12371
99)).	-12372
agoza	-12373
aguma	-12374
algia	-12375
arati	-12376
aslód	-12377
bbibp	-12378
berly	-12379
báibe	-12380
celet	-12381
ciliz	-12382
deigh	-12383
duard	-12384
eloma	-12385
eomor	-12386
giene	-12387
grave	-12388
gánta	-12389
ibaba	-12390
icago	-12391
idiúv	-12392
irtag	-12393
istan	-12394
liter	-12395
maild	-12396
media	-12397
mopty	-12398
oslód	-12399
mphy	-12400
peake	-12401
perly	-12402
rogha	-12403
sabal	-12404
store	-12405
swabs	-12406
tanyl	-12407
tcome	-12408
téama	-12409
uaime	-12410
ueens	-12411
umoma	-12412
upang	-12413
zheim	-12414
átham	-12415
éatíd	-12416
▁(10.	-12417
▁(3,8	-12418
▁(4.8	-12419
▁(40%	-12420
▁(8.8	-12421
▁.9).	-12422
▁13,9	-12423
▁2,02	-12424
▁2.23	-12425
▁2.4.	-12426
▁31,8	-12427
▁4,33	-12428
▁4.59	-12429
▁46.2	-12430
▁5.7.	-12431
▁6,88	-12432
▁6.0%	-12433
▁6.00	-12434
▁78.8	-12435
▁87%.	-12436
▁Asma	-12437
▁Bloc	-12438
▁Rhin	-12439
▁ahme	-12440
▁bhot	-12441
▁bilm	-12442
▁biow	-12443
▁boni	-12444
▁bplé	-12445
▁breá	-12446
▁bulg	-12447
▁ceph	-12448
▁cúnt	-12449
▁diab	-12450
▁dlit	-12451
▁fiob	-12452
▁grád	-12453
▁harv	-12454
▁hdlí	-12455
▁help	-12456
▁hend	-12457
▁juba	-12458
▁june	-12459
▁kenn	-12460
▁larv	-12461
▁minh	-12462
▁more	-12463
▁niac	-12464
▁novi	-12465
▁oita	-12466
▁oliv	-12467
▁pune	-12468
▁rinc	-12469
▁some	-12470
▁tgev	-12471
▁vinc	-12472
▁week	-12473
▁worl	-12474
▁xinf	-12475
-25%),	-12476
2,000,	-12477
7,938,	-12478
acetam	-12479
aratiy	-12480
aricit	-12481
calraí	-12482
cytial	-12483
cóimid	-12484
discov	-12485
douard	-12486
eostoc	-12487
erlock	-12488
ibléad	-12489
icaric	-12490
léinte	-12491
manuel	-12492
mhonar	-12493
mphyse	-12494
munity	-12495
naidhm	-12496
oomber	-12497
phlegm	-12498
raoise	-12499
,834	-12500
dney	-12501
ococ	-12502
yxia	-12503
▁63%	-12504
▁ivf	-12505
ather	-12506
ctors	-12507
ghrád	-12508
iónna	-12509
iúiré	-12510
memad	-12511
mitig	-12512
mouth	-12513
ocomp	-12514
other	-12515
páras	-12516
siaar	-12517
ublin	-12518
yanin	-12519
éillí	-12520
▁(0.2	-12521
▁4.6%	-12522
▁Suim	-12523
▁purg	-12524
ardson	-12525
atibil	-12526
dublin	-12527
imeála	-12528
ingxia	-12529
leagan	-12530
memade	-12531
ococci	-12532
phyxia	-12533
rastru	-12534
rghlao	-12535
riarth	-12536
ropics	-12537
rotein	-12538
rythro	-12539
ráflaí	-12540
sanoma	-12541
scrofa	-12542
scroll	-12543
sreabh	-12544
tagóir	-12545
tamine	-12546
terdam	-12547
ughing	-12548
ularly	-12549
umomab	-12550
unanna	-12551
usetts	-12552
usness	-12553
vidone	-12554
vision	-12555
árasán	-12556
íoctaí	-12557
óscadh	-12558
úpláil	-12559
▁(0.27	-12560
▁(0.4%	-12561
▁(27%)	-12562
▁(37.6	-12563
▁(4.8-	-12564
▁(55%)	-12565
▁(8.8%	-12566
▁0.1%,	-12567
▁1,078	-12568
▁1,108	-12569
▁1,247	-12570
▁1,335	-12571
▁1,342	-12572
▁1,727	-12573
▁1.44%	-12574
▁10.00	-12575
▁10.15	-12576
▁10.6%	-12577
▁11,07	-12578
▁14,74	-12579
▁15,88	-12580
▁15-17	-12581
▁1890,	-12582
▁197,5	-12583
▁2,112	-12584
▁2,153	-12585
▁2,265	-12586
▁2,307	-12587
▁2,336	-12588
▁2,344	-12589
▁2,468	-12590
▁2,536	-12591
▁2,595	-12592
▁2,692	-12593
▁2,818	-12594
▁2,947	-12595
▁2,977	-12596
▁227,6	-12597
▁231,1	-12598
▁233,9	-12599
726	-12600
981	-12601
aka	-12602
xem	-12603
,841	-12604
-44)	-12605
778,	-12606
arms	-12607
asak	-12608
form	-12609
ovan	-12610
▁(98	-12611
▁3-4	-12612
▁3-7	-12613
▁672	-12614
▁788	-12615
2,726	-12616
42%),	-12617
778,7	-12618
asaki	-12619
pidem	-12620
xemia	-12621
▁10,0	-12622
▁10-4	-12623
▁20-3	-12624
▁23,0	-12625
▁4,62	-12626
▁5.2%	-12627
▁79,3	-12628
▁Thom	-12629
▁deif	-12630
▁kell	-12631
▁seif	-12632
-2019.	-12633
epidem	-12634
wasaki	-12635
▁(2.2%	-12636
▁1963.	-12637
▁2-44)	-12638
▁239,3	-12639
▁241,3	-12640
▁244,6	-12641
▁247,0	-12642
▁254,4	-12643
▁290.5	-12644
▁3,307	-12645
▁3,317	-12646
▁3,569	-12647
▁3,674	-12648
▁3,687	-12649
▁3,900	-12650
▁4,021	-12651
▁4,136	-12652
▁4,499	-12653
▁4,509	-12654
▁4,576	-12655
▁4,585	-12656
▁4,588	-12657
▁4,628	-12658
▁4,631	-12659
▁4,667	-12660
▁4,873	-12661
▁4,903	-12662
▁4,940	-12663
▁4,962	-12664
▁4.82.	-12665
▁400,3	-12666
▁6,888	-12667
▁8,248	-12668
▁8.5%.	-12669
▁Astra	-12670
▁Cumas	-12671
▁Gríos	-12672
▁Molta	-12673
▁Mothú	-12674
▁Nocht	-12675
▁ababa	-12676
▁addis	-12677
▁affec	-12678
▁ahead	-12679
▁aspen	-12680
▁bairb	-12681
▁bancá	-12682
▁bhalc	-12683
▁bilay	-12684
▁bioha	-12685
▁blogh	-12686
▁boird	-12687
▁braon	-12688
▁báire	-12689
▁báite	-12690
▁cairr	-12691
▁clúdú	-12692
▁clúid	-12693
▁cogna	-12694
▁dhaka	-12695
▁dtríú	-12696
▁díomá	-12697
▁dúlag	-12698
▁endop	-12699
yza	-12700
▁dlús	-12701
▁1,318	-12702
▁2,327	-12703
▁2,700	-12704
▁4.2%,	-12705
▁euros	-12706
▁fallo	-12707
▁folks	-12708
▁fáigh	-12709
▁gives	-12710
▁gáire	-12711
▁hacho	-12712
▁haeró	-12713
▁hinmh	-12714
▁hinro	-12715
▁iedcr	-12716
▁intel	-12717
▁kelly	-12718
▁kinda	-12719
▁lasca	-12720
▁linda	-12721
▁liotu	-12722
▁lives	-12723
▁masks	-12724
▁mheon	-12725
▁mhása	-12726
▁milis	-12727
▁moscó	-12728
▁míshu	-12729
▁novel	-12730
▁olcas	-12731
▁onóir	-12732
▁papal	-12733
▁rhpxa	-12734
▁scams	-12735
▁sicín	-12736
▁simon	-12737
▁south	-12738
▁sílim	-12739
▁síoda	-12740
▁thocs	-12741
▁titer	-12742
▁utero	-12743
▁zhong	-12744
▁Údara	-12745
140,000	-12746
240,191	-12747
778,711	-12748
aimeras	-12749
aratiya	-12750
ascular	-12751
buidéil	-12752
déalach	-12753
eighilt	-12754
fhillte	-12755
fhliuch	-12756
genital	-12757
ghnátha	-12758
gnaíoch	-12759
ibhléid	-12760
ifnanna	-12761
imsithí	-12762
italbio	-12763
itreabh	-12764
kespear	-12765
lasmach	-12766
leighis	-12767
liostaí	-12768
léadáil	-12769
mhaoirs	-12770
moráidí	-12771
npianna	-12772
ockdown	-12773
oomberg	-12774
prranna	-12775
rabhadh	-12776
ribhith	-12777
roxychl	-12778
ríosúin	-12779
selling	-12780
siaarti	-12781
stocáil	-12782
straimí	-12783
tagenóm	-12784
trigine	-12785
tterdam	-12786
ualgais	-12787
uprofen	-12788
viction	-12789
áineasa	-12790
éagumas	-12791
▁(1,388	-12792
▁(27.3%	-12793
▁(47%),	-12794
▁(98%),	-12795
▁-7.8%)	-12796
▁1,051,	-12797
▁10,700	-12798
▁12,336	-12799
burg	-12800
daím	-12801
▁522	-12802
▁683	-12803
▁776	-12804
▁lij	-12805
▁unp	-12806
lburg	-12807
ápáil	-12808
▁1.44	-12809
▁32).	-12810
▁51),	-12811
▁77.8	-12812
▁791.	-12813
▁977,	-12814
▁food	-12815
▁múnl	-12816
▁síoc	-12817
aláram	-12818
ramhrú	-12819
trilít	-12820
úigear	-12821
▁189,8	-12822
▁Cúpla	-12823
▁angus	-12824
▁comor	-12825
▁comón	-12826
bheagán	-12827
cúigear	-12828
iallódh	-12829
oilgeog	-12830
vovirus	-12831
▁12,841	-12832
▁120130	-12833
▁13,600	-12834
▁14,405	-12835
▁14,749	-12836
▁15,887	-12837
▁189,85	-12838
▁1957-5	-12839
▁2,023,	-12840
▁20-30%	-12841
▁20.5%.	-12842
▁220,27	-12843
▁220,63	-12844
▁235,44	-12845
▁240,19	-12846
▁241,68	-12847
▁243,91	-12848
▁244,29	-12849
▁246,63	-12850
▁247,48	-12851
▁249,43	-12852
▁250,29	-12853
▁251,47	-12854
▁26,494	-12855
▁267,94	-12856
▁268,25	-12857
▁269,79	-12858
▁30-65.	-12859
▁39,768	-12860
▁4,600.	-12861
▁46.2%)	-12862
▁58,000	-12863
▁77,000	-12864
▁79,332	-12865
▁791.70	-12866
▁83,545	-12867
▁85-92%	-12868
▁91,000	-12869
▁99.98%	-12870
▁Amanna	-12871
▁Andóra	-12872
▁Bogann	-12873
▁Bother	-12874
▁Brúigh	-12875
▁Caillt	-12876
▁Cumann	-12877
▁Feicim	-12878
▁Laoise	-12879
▁Neartú	-12880
▁Ordaím	-12881
▁Rothlú	-12882
▁Rphost	-12883
▁Sleamh	-12884
▁Sraoth	-12885
▁Sreabh	-12886
▁Tulach	-12887
▁abseir	-12888
▁aidiúv	-12889
▁ardteo	-12890
▁atráth	-12891
▁bancác	-12892
▁bpríos	-12893
▁buanch	-12894
▁cairde	-12895
▁castle	-12896
▁chiúnú	-12897
▁cileag	-12898
▁cluasa	-12899
231	-12900
góla	-12901
ipah	-12902
lrti	-12903
matú	-12904
ncen	-12905
pren	-12906
regu	-12907
semr	-12908
shah	-12909
ydro	-12910
ytes	-12911
zmat	-12912
▁bmi	-12913
agart	-12914
ahead	-12915
arity	-12916
atini	-12917
ctial	-12918
gúlta	-12919
hydro	-12920
iditi	-12921
iopul	-12922
irect	-12923
mator	-12924
pregu	-12925
semré	-12926
shahá	-12927
▁0.7%	-12928
▁7.5%	-12929
▁Gúna	-12930
▁alex	-12931
▁emis	-12932
▁gamb	-12933
biditi	-12934
inceif	-12935
ipteag	-12936
matory	-12937
ncenna	-12938
slíonn	-12939
watini	-12940
▁2,282	-12941
▁2008.	-12942
▁3,231	-12943
▁gansu	-12944
▁nipah	-12945
aeriomp	-12946
hydroge	-12947
idarity	-12948
iocytes	-12949
iogmatú	-12950
ologies	-12951
swatini	-12952
▁Angóla	-12953
▁aspren	-12954
▁cellex	-12955
▁chonac	-12956
▁chongó	-12957
▁cohórt	-12958
▁corpmh	-12959
▁costco	-12960
▁criosp	-12961
▁cultúr	-12962
▁deifní	-12963
▁digití	-12964
▁direct	-12965
▁domino	-12966
▁eacuad	-12967
▁eastpo	-12968
▁eduard	-12969
▁energy	-12970
▁faiche	-12971
▁faucet	-12972
▁feinim	-12973
▁fhócas	-12974
▁fichiú	-12975
▁fisher	-12976
▁furast	-12977
▁gamble	-12978
▁gcaifé	-12979
▁gcúigí	-12980
▁gcúrsa	-12981
▁geimhr	-12982
▁george	-12983
▁ghuáin	-12984
▁gorman	-12985
▁halcól	-12986
▁hazmat	-12987
▁hoiriú	-12988
▁hunter	-12989
▁héadaí	-12990
▁imshuí	-12991
▁inmhío	-12992
▁intera	-12993
▁intuig	-12994
▁kenned	-12995
▁labora	-12996
▁leosan	-12997
▁lijian	-12998
▁léinte	-12999
541	-13000
▁686	-13001
4,541	-13002
cytop	-13003
▁Luan	-13004
íolótú	-13005
▁2015-	-13006
▁cisph	-13007
▁dathú	-13008
▁mulho	-13009
▁méala	-13010
▁rolla	-13011
aseline	-13012
cytopen	-13013
rialála	-13014
▁fallon	-13015
▁macron	-13016
▁mamach	-13017
▁manuel	-13018
▁markov	-13019
▁mhisin	-13020
▁mortal	-13021
▁ndiadh	-13022
▁ndíleá	-13023
▁ngarda	-13024
▁ngátar	-13025
▁néarch	-13026
▁ordeal	-13027
▁peplom	-13028
▁public	-13029
▁píosaí	-13030
▁reoite	-13031
▁rothaí	-13032
▁salann	-13033
▁scanrú	-13034
▁scuain	-13035
▁seains	-13036
▁sepsis	-13037
▁seónna	-13038
▁shaolr	-13039
▁shícia	-13040
▁sialic	-13041
▁sialod	-13042
▁slógaí	-13043
▁smidiú	-13044
▁soithí	-13045
▁sorcha	-13046
▁sporad	-13047
▁sásúil	-13048
▁síciat	-13049
▁sóláis	-13050
▁tacaio	-13051
▁tatlan	-13052
▁tralee	-13053
▁travel	-13054
▁tseilf	-13055
▁tóiceo	-13056
▁upregu	-13057
▁vápáil	-13058
▁víosaí	-13059
▁árthaí	-13060
▁éitear	-13061
acáistiú	-13062
aibléidí	-13063
alveolar	-13064
amháltas	-13065
angolins	-13066
aricitin	-13067
atherine	-13068
atumomab	-13069
bhsaíonn	-13070
bidities	-13071
ceannadh	-13072
chineála	-13073
cumhacht	-13074
dhéanamh	-13075
dhéanfaí	-13076
discover	-13077
eacnamaí	-13078
easailín	-13079
eillance	-13080
eirmiúda	-13081
eptidase	-13082
giocytes	-13083
hathanna	-13084
iceáilte	-13085
icléatíd	-13086
idirnasc	-13087
ighdeach	-13088
inations	-13089
ionchais	-13090
ionchath	-13091
iousness	-13092
iscirtag	-13093
kespeare	-13094
maildéad	-13095
moptysis	-13096
mphysema	-13097
mpánaigh	-13098
munoglob	-13099
441	-13100
672	-13101
rhy	-13102
rtc	-13103
bert	-13104
dita	-13105
doom	-13106
mber	-13107
▁00:	-13108
▁41-	-13109
▁462	-13110
▁679	-13111
68%).	-13112
bercr	-13113
berra	-13114
itiiú	-13115
leanú	-13116
olaiv	-13117
rhyth	-13118
stoic	-13119
▁1.07	-13120
▁86%,	-13121
▁broc	-13122
15,000	-13123
aivial	-13124
ansáin	-13125
erbert	-13126
member	-13127
▁1,441	-13128
▁1.077	-13129
▁34%).	-13130
▁39%).	-13131
▁4,979	-13132
▁41-50	-13133
▁Buaic	-13134
▁caldi	-13135
▁dinim	-13136
▁pence	-13137
▁tuval	-13138
bercrim	-13139
dishear	-13140
dyspnea	-13141
▁(68%).	-13142
▁218,25	-13143
▁dhiadh	-13144
▁minhai	-13145
▁tuvalu	-13146
máltacht	-13147
nanálann	-13148
nochtadh	-13149
nologies	-13150
ogenebio	-13151
oibrímid	-13152
oróicéin	-13153
oviruses	-13154
phrionsa	-13155
rabhsáil	-13156
rastruct	-13157
rhythmia	-13158
roepidem	-13159
réiteach	-13160
staidéar	-13161
traivial	-13162
uimsithí	-13163
undation	-13164
vascular	-13165
vaseline	-13166
éarscáil	-13167
íochainí	-13168
▁(10-100	-13169
▁(37.6%)	-13170
▁(4.8-13	-13171
▁(47.7%)	-13172
▁-7.8%);	-13173
▁1.44%).	-13174
▁107,933	-13175
▁120140,	-13176
▁153,822	-13177
▁172,726	-13178
▁174,843	-13179
▁176,839	-13180
▁190,000	-13181
▁1918-19	-13182
▁193,892	-13183
▁196,547	-13184
▁197,553	-13185
▁204,397	-13186
▁204,940	-13187
▁214,378	-13188
▁216,870	-13189
▁218,251	-13190
▁220,273	-13191
▁220,630	-13192
▁221,189	-13193
▁221,647	-13194
▁223,651	-13195
▁231,119	-13196
▁233,937	-13197
▁234,541	-13198
▁237,695	-13199
,592	-13200
▁(62	-13201
▁(71	-13202
▁359	-13203
▁423	-13204
▁442	-13205
▁556	-13206
▁771	-13207
fostú	-13208
tuirb	-13209
éamus	-13210
▁(732	-13211
▁473,	-13212
▁55).	-13213
▁penn	-13214
19,592	-13215
chailt	-13216
ingsen	-13217
mpkins	-13218
úbailt	-13219
▁(2-9)	-13220
▁(62.4	-13221
▁2,040	-13222
▁4,715	-13223
▁Aonrú	-13224
▁gcosn	-13225
▁gcúig	-13226
▁https	-13227
▁kings	-13228
▁ridge	-13229
▁store	-13230
▁toirt	-13231
aglaisí	-13232
bhfostú	-13233
ingsend	-13234
ionchas	-13235
teicníc	-13236
tuirbín	-13237
▁(71%),	-13238
▁1.49%.	-13239
▁42,000	-13240
▁473,93	-13241
▁Chóras	-13242
▁barrmh	-13243
▁bianna	-13244
▁bpáirc	-13245
▁dhoirt	-13246
▁madraí	-13247
▁stóras	-13248
▁séamus	-13249
athoscló	-13250
eaglaisí	-13251
teicnící	-13252
▁(62.4%)	-13253
▁219,592	-13254
▁239,325	-13255
▁239,723	-13256
▁240,192	-13257
▁240,945	-13258
▁241,330	-13259
▁241,684	-13260
▁243,911	-13261
▁244,297	-13262
▁244,695	-13263
▁245,743	-13264
▁246,204	-13265
▁246,633	-13266
▁247,069	-13267
▁247,489	-13268
▁249,437	-13269
▁250,000	-13270
▁250,290	-13271
▁251,474	-13272
▁251,904	-13273
▁252,303	-13274
▁253,567	-13275
▁254,450	-13276
▁267,576	-13277
▁269,793	-13278
▁272,000	-13279
▁4.59%).	-13280
▁400,335	-13281
▁600,000	-13282
▁602,000	-13283
▁615,000	-13284
▁733,000	-13285
▁77,938,	-13286
▁800,000	-13287
▁Aerfort	-13288
▁Aerálaí	-13289
▁Aiséirí	-13290
▁Ascaill	-13291
▁Breoite	-13292
▁Ceaptar	-13293
▁Chroith	-13294
▁Coimeád	-13295
▁Deatach	-13296
▁Féilire	-13297
▁Géineas	-13298
▁Imoibrí	-13299
082	-13300
086	-13301
087	-13302
280	-13303
322	-13304
809	-13305
ffn	-13306
ixl	-13307
ryo	-13308
0800	-13309
617,	-13310
8,32	-13311
alal	-13312
niog	-13313
ovid	-13314
ptal	-13315
work	-13316
ímid	-13317
▁461	-13318
▁780	-13319
3,322	-13320
50,88	-13321
6,600	-13322
8,326	-13323
Covid	-13324
acryo	-13325
bhfhr	-13326
ffner	-13327
iogma	-13328
ixlip	-13329
nders	-13330
ocust	-13331
phage	-13332
videc	-13333
▁114.	-13334
50,889	-13335
617,20	-13336
chloch	-13337
laoise	-13338
murine	-13339
éamtha	-13340
▁(0800	-13341
▁114.6	-13342
▁2004.	-13343
▁2014.	-13344
▁2024.	-13345
▁3,086	-13346
▁4,082	-13347
▁4,908	-13348
▁7,566	-13349
▁Cniog	-13350
▁driog	-13351
▁jalal	-13352
▁thaom	-13353
acryoad	-13354
bhfhríd	-13355
garacht	-13356
lannaía	-13357
ndersta	-13358
rophage	-13359
videcia	-13360
workers	-13361
▁20,280	-13362
▁211,75	-13363
▁locust	-13364
▁septal	-13365
617,204)	-13366
chaffner	-13367
▁113,322	-13368
▁199,430	-13369
▁211,751	-13370
▁236,600	-13371
▁248,326	-13372
▁251,087	-13373
▁252,809	-13374
▁Ionscóp	-13375
▁Liostaí	-13376
▁Meáchan	-13377
▁Neamhsh	-13378
▁Príomhó	-13379
▁Rianigh	-13380
▁Rubeola	-13381
▁Saillte	-13382
▁Scanadh	-13383
▁Siúlóid	-13384
▁Síneadh	-13385
▁achainí	-13386
▁admháil	-13387
▁alanine	-13388
▁alibaba	-13389
▁amnesia	-13390
▁athchru	-13391
▁atreora	-13392
▁bairéin	-13393
▁ballstá	-13394
▁bardais	-13395
▁bhabhla	-13396
▁bhabhta	-13397
▁bhfeces	-13398
▁bhútáin	-13399
vice	-13400
▁456	-13401
▁mcg	-13402
▁úra	-13403
eimhl	-13404
omnia	-13405
▁457,	-13406
▁Stór	-13407
▁fede	-13408
▁feel	-13409
▁feet	-13410
▁rúnd	-13411
astáit	-13412
ervice	-13413
snomed	-13414
▁(13%)	-13415
▁254,0	-13416
▁3,300	-13417
▁4,300	-13418
▁fedex	-13419
▁griol	-13420
▁heito	-13421
▁impir	-13422
▁oxfam	-13423
▁píosa	-13424
▁troim	-13425
▁world	-13426
.1.1.7,	-13427
frídíní	-13428
reafóin	-13429
service	-13430
▁34,000	-13431
▁Aithin	-13432
▁bpíosa	-13433
▁chúlra	-13434
▁dhroch	-13435
▁eitice	-13436
▁heitic	-13437
▁heitod	-13438
▁mhionc	-13439
untáistí	-13440
▁120135,	-13441
▁254,013	-13442
▁Caitear	-13443
▁Stóráil	-13444
▁bilayer	-13445
▁bioweap	-13446
▁bpailín	-13447
▁bpunann	-13448
▁brúscar	-13449
▁bulging	-13450
▁béising	-13451
▁castile	-13452
▁cepheid	-13453
▁chairib	-13454
▁chasann	-13455
▁chicago	-13456
▁chiorrú	-13457
▁chártaí	-13458
▁ciapadh	-13459
▁clochán	-13460
▁cohóirt	-13461
▁college	-13462
▁comfort	-13463
▁comhghu	-13464
▁comhleá	-13465
▁compord	-13466
▁comónta	-13467
▁cordita	-13468
▁covivac	-13469
▁céasadh	-13470
▁cúitimh	-13471
▁cúntóra	-13472
▁deirfiú	-13473
▁dhearaí	-13474
▁dhíorth	-13475
▁dochloí	-13476
▁donovan	-13477
▁dramhaí	-13478
▁dtacsaí	-13479
▁dtóiceo	-13480
▁dáiríre	-13481
▁dánlann	-13482
▁dúchais	-13483
▁fallout	-13484
▁fhigiúr	-13485
▁fhoirne	-13486
▁fichead	-13487
▁fochois	-13488
▁furasta	-13489
▁féinmho	-13490
▁gairdín	-13491
▁gambler	-13492
▁gcionta	-13493
▁gcoinní	-13494
▁gcolpaí	-13495
▁georgia	-13496
▁ghiorrú	-13497
▁ghloine	-13498
▁ghobhar	-13499
386	-13500
424	-13501
752	-13502
8,38	-13503
dóch	-13504
ibíl	-13505
itts	-13506
pola	-13507
▁2.9	-13508
▁7.9	-13509
▁dpo	-13510
▁ppe	-13511
.2%),	-13512
.7%),	-13513
6,300	-13514
8,381	-13515
8,424	-13516
gráin	-13517
nancy	-13518
polap	-13519
rasíl	-13520
réith	-13521
▁0.27	-13522
▁1,75	-13523
▁10.9	-13524
▁1201	-13525
▁20,9	-13526
▁78%)	-13527
▁pubs	-13528
▁serg	-13529
gnancy	-13530
ilippo	-13531
iorgan	-13532
luaite	-13533
nuaite	-13534
phoist	-13535
▁1,024	-13536
▁1,047	-13537
▁1,386	-13538
▁1,754	-13539
▁12017	-13540
▁238,1	-13541
▁3,752	-13542
▁4,824	-13543
▁7.9%.	-13544
▁kitts	-13545
▁naugh	-13546
▁serie	-13547
63.7%),	-13548
dóchúil	-13549
mpróirí	-13550
polapró	-13551
rasília	-13552
tiorgan	-13553
▁120150	-13554
▁120175	-13555
▁20,974	-13556
▁2020);	-13557
▁2021.,	-13558
▁9.2%),	-13559
▁Peataí	-13560
▁Plasma	-13561
▁Tacúil	-13562
▁capall	-13563
▁castil	-13564
▁dúshlá	-13565
▁móibíl	-13566
▁sergei	-13567
iníochas	-13568
úlagráin	-13569
▁10.9%),	-13570
▁118,381	-13571
▁120150,	-13572
▁198,424	-13573
▁216,300	-13574
▁238,148	-13575
▁anthony	-13576
▁creidim	-13577
▁dtitfeá	-13578
▁filippo	-13579
▁ghogaid	-13580
▁hagóidí	-13581
▁haltraí	-13582
▁hashtag	-13583
▁hearraí	-13584
▁helical	-13585
▁hiarmhí	-13586
▁huimhir	-13587
▁hullmhú	-13588
▁hygiene	-13589
▁hábhair	-13590
▁héadrom	-13591
▁inghlac	-13592
▁ionraic	-13593
▁josepha	-13594
▁leadrán	-13595
▁leixlip	-13596
▁longini	-13597
▁losainn	-13598
▁macánta	-13599
-40	-13600
215	-13601
564	-13602
870	-13603
ícé	-13604
647,	-13605
8,64	-13606
ocom	-13607
▁(5)	-13608
▁464	-13609
▁884	-13610
▁Plé	-13611
-19",	-13612
1,564	-13613
8,215	-13614
9,324	-13615
camas	-13616
genus	-13617
gland	-13618
ieden	-13619
izona	-13620
oside	-13621
tádas	-13622
yland	-13623
ícéip	-13624
▁3,84	-13625
▁3.4%	-13626
▁85).	-13627
▁bona	-13628
▁fide	-13629
8,644.	-13630
enovir	-13631
landaí	-13632
osocom	-13633
poside	-13634
retion	-13635
stádas	-13636
ucamas	-13637
utland	-13638
ícéips	-13639
▁(647,	-13640
▁3,846	-13641
▁4,884	-13642
▁bluis	-13643
▁múcas	-13644
361,564	-13645
achipir	-13646
▁242,10	-13647
▁Pléigh	-13648
▁bluish	-13649
▁inrian	-13650
▁laryng	-13651
ecretion	-13652
ifenovir	-13653
ipposide	-13654
▁179,324	-13655
▁228,215	-13656
▁242,105	-13657
▁Inaistr	-13658
▁Itheann	-13659
▁arizona	-13660
▁england	-13661
▁frieden	-13662
▁ghlauis	-13663
▁hioncam	-13664
▁jutland	-13665
▁malartú	-13666
▁mbeagán	-13667
▁mbeimid	-13668
▁mccarth	-13669
▁mhaipín	-13670
▁mhamach	-13671
▁mhúnlaí	-13672
▁morálta	-13673
▁mothaím	-13674
▁muirear	-13675
▁myalgia	-13676
▁myeloma	-13677
▁myoglob	-13678
▁míníonn	-13679
▁ndrugaí	-13680
▁ndíghal	-13681
▁nglaonn	-13682
▁ngéinte	-13683
▁nideoga	-13684
▁ningxia	-13685
▁nosocom	-13686
▁npianna	-13687
▁nurofen	-13688
▁oliveir	-13689
▁pheataí	-13690
▁phógadh	-13691
▁pleomor	-13692
▁protéin	-13693
▁punanna	-13694
▁rúitíní	-13695
▁scórála	-13696
▁shagart	-13697
▁shealbh	-13698
▁shóchán	-13699
▁99%	-13700
▁maj	-13701
▁usd	-13702
gapar	-13703
parin	-13704
▁1940	-13705
▁99.4	-13706
▁argó	-13707
▁póga	-13708
▁ríof	-13709
▁trac	-13710
▁usns	-13711
gaparo	-13712
imeodh	-13713
oticea	-13714
▁1,279	-13715
▁203,5	-13716
▁major	-13717
▁mater	-13718
▁monit	-13719
▁monte	-13720
▁neuro	-13721
▁radio	-13722
▁usáid	-13723
gaparoa	-13724
imseodh	-13725
olláine	-13726
oticeab	-13727
paráidí	-13728
▁bordea	-13729
▁bruach	-13730
▁colora	-13731
▁ionmha	-13732
▁ríofai	-13733
▁saolta	-13734
▁stocaí	-13735
isteacha	-13736
partaigh	-13737
▁203,568	-13738
▁bordeau	-13739
▁cheimic	-13740
▁ghéinte	-13741
▁hardáin	-13742
▁heparin	-13743
▁monitor	-13744
▁neurode	-13745
▁postpar	-13746
▁sheicní	-13747
▁sluafho	-13748
▁slógann	-13749
▁snaidhm	-13750
▁sorcóir	-13751
▁sputnik	-13752
▁spásúil	-13753
▁spúinse	-13754
▁strapaí	-13755
▁stórála	-13756
▁séipéal	-13757
▁séipéil	-13758
▁síceamó	-13759
▁síocóid	-13760
▁síorath	-13761
▁tacaigí	-13762
▁tansáin	-13763
▁tastála	-13764
▁thríáil	-13765
▁thástál	-13766
▁théarma	-13767
▁tociliz	-13768
▁tracing	-13769
▁tristan	-13770
▁tropics	-13771
▁tórramh	-13772
▁ultrath	-13773
▁vincent	-13774
▁william	-13775
▁worried	-13776
▁íosfhad	-13777
▁íslíonn	-13778
abhróidís	-13779
achusetts	-13780
acmhainne	-13781
aiceáilte	-13782
aighneáin	-13783
ainmhíniú	-13784
bhsaíocht	-13785
caighdeán	-13786
chaidrimh	-13787
chathrach	-13788
deighilte	-13789
discovery	-13790
dráitithe	-13791
eipitítis	-13792
eirmeacha	-13793
eiteiripe	-13794
ibileacht	-13795
imisinéir	-13796
imscaradh	-13797
indíreach	-13798
ionnuisce	-13799
,74	-13800
591	-13801
645	-13802
730	-13803
,744	-13804
avid	-13805
▁369	-13806
▁453	-13807
▁569	-13808
▁574	-13809
▁769	-13810
▁fav	-13811
▁jav	-13812
▁way	-13813
2,645	-13814
5,591	-13815
ashbo	-13816
icans	-13817
▁1974	-13818
▁city	-13819
▁ways	-13820
▁232,7	-13821
▁4,874	-13822
▁david	-13823
▁javan	-13824
elicans	-13825
mhaíola	-13826
▁14,730	-13827
▁dashbo	-13828
▁domain	-13829
▁dtacaí	-13830
▁github	-13831
taisteal	-13832
áithníní	-13833
▁155,591	-13834
▁192,645	-13835
▁200,744	-13836
▁232,758	-13837
▁Miotóga	-13838
▁ceadúnú	-13839
▁dearcaí	-13840
▁drochph	-13841
▁favipir	-13842
▁rachfaí	-13843
▁thacair	-13844
▁thacúil	-13845
ionsaíonn	-13846
iúltaíodh	-13847
iúmóicítí	-13848
limistéir	-13849
nasclainn	-13850
nderstand	-13851
oticeable	-13852
polapróip	-13853
rafaíocht	-13854
ramhaíola	-13855
riarthóir	-13856
rogenital	-13857
réireanna	-13858
scrolling	-13859
shonracha	-13860
threorach	-13861
tuirseach	-13862
uaslódáil	-13863
ueensland	-13864
uirbeacha	-13865
ullmhacht	-13866
unselling	-13867
urascaill	-13868
veillance	-13869
éaltachta	-13870
éigneacha	-13871
éileálann	-13872
éitheacha	-13873
íocaíocht	-13874
íograithe	-13875
íolacháin	-13876
óngaracht	-13877
▁1,051,63	-13878
▁1957-58,	-13879
▁2019-20,	-13880
▁269,037.	-13881
▁473,933,	-13882
▁5.71-7.2	-13883
▁Acmhainn	-13884
▁Aireoidh	-13885
▁Bailímid	-13886
▁Ceangail	-13887
▁Cinneann	-13888
▁Cinnfidh	-13889
▁Coinnigí	-13890
▁Dhéanfaí	-13891
▁Gearrtar	-13892
▁Institiú	-13893
▁Iompróir	-13894
▁Liatroim	-13895
▁Lorgóidh	-13896
▁Mairfidh	-13897
▁Meadhrán	-13898
▁Mhéadódh	-13899
121	-13900
396	-13901
588	-13902
▁"12	-13903
▁(12	-13904
▁438	-13905
▁5.9	-13906
▁944	-13907
▁yel	-13908
4,588	-13909
5,179	-13910
iarrh	-13911
▁(358	-13912
▁2,39	-13913
▁3,58	-13914
▁5,14	-13915
▁80%.	-13916
▁Mímh	-13917
▁mbré	-13918
▁ríth	-13919
▁yelp	-13920
príomh	-13921
éithre	-13922
▁(12.5	-13923
▁1,500	-13924
▁2,121	-13925
▁3,586	-13926
▁4,396	-13927
▁4,812	-13928
▁5.9%,	-13929
▁Cruth	-13930
▁charm	-13931
▁leasa	-13932
▁leasú	-13933
iarrhea	-13934
▁2,396,	-13935
▁5,143,	-13936
▁Coróin	-13937
▁andóra	-13938
▁bricfe	-13939
▁thearc	-13940
bheirthe	-13941
cóireáil	-13942
▁"12,000	-13943
▁224,588	-13944
▁225,179	-13945
▁Bagairt	-13946
▁Mímhuin	-13947
▁clogaid	-13948
▁cumasaí	-13949
▁dochtúr	-13950
▁fhaiche	-13951
▁mianraí	-13952
▁ríthábh	-13953
▁vitimín	-13954
orgánaigh	-13955
osclaíodh	-13956
príomhcha	-13957
▁2,396,60	-13958
▁Múineann	-13959
▁Nochtadh	-13960
▁Nochtann	-13961
▁Plaicint	-13962
▁Rianaigh	-13963
▁Ríomhadh	-13964
▁Sreabhán	-13965
▁Staidéar	-13966
▁Tacaímid	-13967
▁Tarraing	-13968
▁Teipeann	-13969
▁Tuiscint	-13970
▁abhcóidí	-13971
▁acadóirí	-13972
▁affected	-13973
▁aguswibp	-13974
▁aistrigh	-13975
▁ambasáid	-13976
▁amchláir	-13977
▁ardchlár	-13978
▁argóintí	-13979
▁asraonta	-13980
▁athchúrs	-13981
▁bagairtí	-13982
▁ballstát	-13983
▁banglaid	-13984
▁beostoic	-13985
▁bhacainn	-13986
▁bhaitsil	-13987
▁bheostoc	-13988
▁bhfliuch	-13989
▁bhfoinsí	-13990
▁bhfoirne	-13991
▁bhfágann	-13992
▁bhfágfaí	-13993
▁bhféadaí	-13994
▁bholgáin	-13995
▁bhíothas	-13996
▁bordeaux	-13997
▁bpláiste	-13998
▁bpríosún	-13999
.05	-14000
164	-14001
857	-14002
922	-14003
923	-14004
feé	-14005
íve	-14006
.06%	-14007
4-20	-14008
ands	-14009
bent	-14010
fema	-14011
▁(17	-14012
▁416	-14013
▁557	-14014
▁591	-14015
▁6.0	-14016
▁lay	-14017
▁ops	-14018
.05),	-14019
1,922	-14020
8,923	-14021
becov	-14022
flais	-14023
leoga	-14024
sligh	-14025
umbai	-14026
▁(176	-14027
▁13.0	-14028
▁4,70	-14029
▁Bris	-14030
▁have	-14031
▁kent	-14032
▁mand	-14033
▁oman	-14034
▁subf	-14035
4-2008	-14036
cheoil	-14037
ineoil	-14038
lacent	-14039
ltacht	-14040
▁3.06%	-14041
▁4,705	-14042
▁4,713	-14043
▁4,727	-14044
▁Beoga	-14045
▁guáin	-14046
▁hands	-14047
▁riach	-14048
▁subcu	-14049
▁subun	-14050
▁thaca	-14051
4-2008.	-14052
aildíve	-14053
arbecov	-14054
fhigiúr	-14055
gcheoil	-14056
thriail	-14057
▁13.04%	-14058
▁4.05),	-14059
▁adhlac	-14060
▁cinéal	-14061
▁cocoid	-14062
▁intinn	-14063
▁mumbai	-14064
▁resear	-14065
▁seolta	-14066
▁subfam	-14067
aeltacht	-14068
eanglais	-14069
▁181,922	-14070
▁188,923	-14071
▁232,164	-14072
▁247,857	-14073
▁Lockdow	-14074
▁darragh	-14075
▁dhóichí	-14076
▁icuanna	-14077
▁iltaobh	-14078
▁intinne	-14079
▁layoffs	-14080
▁mandair	-14081
▁placent	-14082
▁sorbent	-14083
▁subunit	-14084
arbecovir	-14085
thréimhse	-14086
▁Bristear	-14087
▁bracelet	-14088
▁brioscaí	-14089
▁briseann	-14090
▁bréagach	-14091
▁bréagáin	-14092
▁brúscair	-14093
▁ceachtar	-14094
▁ceanglas	-14095
▁cheartdo	-14096
▁chomharh	-14097
▁chúigear	-14098
▁chúitimh	-14099
banc	-14100
bina	-14101
cilia	-14102
eitim	-14103
eitir	-14104
lamaí	-14105
▁14,6	-14106
▁deit	-14107
▁loma	-14108
▁rica	-14109
▁sult	-14110
▁ulbi	-14111
cinnte	-14112
eitine	-14113
ithnín	-14114
laonta	-14115
mhóige	-14116
pology	-14117
▁238,9	-14118
▁Fonta	-14119
▁hunan	-14120
▁mheit	-14121
▁íocón	-14122
▁14,650	-14123
▁Cinnte	-14124
▁Leitir	-14125
▁dáimhe	-14126
▁eitleá	-14127
▁lagéis	-14128
▁lonach	-14129
▁marbha	-14130
▁nialas	-14131
▁sabina	-14132
▁shuímh	-14133
▁íoctar	-14134
eitimíní	-14135
tálaithe	-14136
▁238,907	-14137
▁Fontane	-14138
▁himdhío	-14139
▁reitine	-14140
ithnítear	-14141
túsaíocht	-14142
▁Fontanel	-14143
▁ainmnigh	-14144
▁cispheil	-14145
▁clubanna	-14146
▁coimeáda	-14147
▁coinnigí	-14148
▁collegia	-14149
▁colorado	-14150
▁comharsa	-14151
▁comhlath	-14152
▁contúirt	-14153
▁cosnóidh	-14154
▁coughing	-14155
▁craoladh	-14156
▁cripteag	-14157
▁créamtha	-14158
▁cáiliúla	-14159
▁cáithnín	-14160
▁cúntóirí	-14161
▁defender	-14162
▁deitéarm	-14163
▁dhinimic	-14164
▁dhúbailt	-14165
▁diabéite	-14166
▁diarrhea	-14167
▁dramhaíl	-14168
▁dreapadh	-14169
▁dteiripe	-14170
▁dtuáille	-14171
▁dtógfadh	-14172
▁díláithr	-14173
▁dúlagair	-14174
▁eacnamaí	-14175
▁eaglaise	-14176
▁easaontú	-14177
▁emmanuel	-14178
▁epitheli	-14179
▁eviction	-14180
▁fabraice	-14181
▁fentanyl	-14182
▁fhearann	-14183
▁fhómhair	-14184
▁fiobróis	-14185
▁francach	-14186
▁féachana	-14187
▁fíorlíon	-14188
▁gabhdáin	-14189
▁gairdíní	-14190
▁gceadódh	-14191
▁gciapadh	-14192
▁gciarraí	-14193
▁gcorróga	-14194
▁gcosnódh	-14195
▁gcuimhne	-14196
▁gcuspóir	-14197
▁ghearrth	-14198
▁ghnátham	-14199
2%,	-14200
2.6	-14201
478	-14202
768	-14203
huí	-14204
rmo	-14205
ófá	-14206
,750	-14207
.1%,	-14208
.3%,	-14209
.4%,	-14210
.5%,	-14211
clar	-14212
drig	-14213
sula	-14214
▁3.9	-14215
▁335	-14216
▁368	-14217
▁436	-14218
▁536	-14219
7,478	-14220
clark	-14221
drigo	-14222
eadfá	-14223
lgáir	-14224
éarfá	-14225
▁2,35	-14226
▁3,68	-14227
▁82%,	-14228
▁Tríd	-14229
▁carn	-14230
▁ngnó	-14231
▁nucl	-14232
▁ocad	-14233
arshuí	-14234
dritic	-14235
▁0.5%,	-14236
▁2,352	-14237
▁2,768	-14238
▁2.3%,	-14239
▁206,8	-14240
▁3,686	-14241
▁4,651	-14242
▁4,847	-14243
▁Céard	-14244
▁bhanc	-14245
▁cosnó	-14246
▁gcúlú	-14247
▁ocado	-14248
▁ocsaí	-14249
▁teilg	-14250
▁tonna	-14251
imberly	-14252
moilliú	-14253
rlabhra	-14254
transcr	-14255
▁10.1%,	-14256
▁17,750	-14257
▁206,80	-14258
▁34.4%,	-14259
▁fágann	-14260
▁nucleo	-14261
▁ocsaíd	-14262
▁sochaí	-14263
▁thermo	-14264
▁thonna	-14265
▁ursula	-14266
amhábhar	-14267
roichead	-14268
▁206,801	-14269
▁217,478	-14270
▁Imeacht	-14271
▁chúrsaí	-14272
▁fheadfá	-14273
▁heitilt	-14274
▁imoibrí	-14275
▁ndéarfá	-14276
▁ocsaídí	-14277
▁rodrigo	-14278
▁seastán	-14279
▁sochair	-14280
transcrip	-14281
▁Díolúine	-14282
▁bhulgáir	-14283
▁chnáimhs	-14284
▁cosnófar	-14285
▁feachtas	-14286
▁fhoirmle	-14287
▁gearrtha	-14288
▁ghnáthnó	-14289
▁ghobharn	-14290
▁ghogaide	-14291
▁ghoradán	-14292
▁glantóir	-14293
▁glucocor	-14294
▁gnóthais	-14295
▁gréithre	-14296
▁hairgead	-14297
▁healaíon	-14298
▁heitilte	-14299
-14	-14300
-38	-14301
110	-14302
14.	-14303
144	-14304
214	-14305
237	-14306
310	-14307
614	-14308
910	-14309
byn	-14310
ckv	-14311
-38.	-14312
[...]
