<pad>	0
</s>	0
<unk>	0
▁the	-3.08081
,	-3.32484
▁of	-3.53565
.	-3.78783
s	-3.8899
▁and	-3.93995
▁(	-4.08955
▁	-4.13279
▁in	-4.17967
▁to	-4.21765
▁a	-4.34448
-	-4.3786
▁was	-4.40862
)	-4.52825
ed	-4.62805
'	-4.96239
▁is	-4.96638
▁as	-5.03437
ing	-5.06861
▁that	-5.3372
▁by	-5.37928
▁no	-5.4517
▁for	-5.50222
▁he	-5.53442
▁on	-5.54078
▁with	-5.57098
▁The	-5.6523
▁from	-5.67459
e	-5.6938
▁'	-5.72803
▁his	-5.76349
▁"	-5.77779
a	-5.78146
▁In	-5.81127
),	-5.83213
).	-5.84582
▁were	-5.8587
▁it	-5.87399
▁at	-5.91048
d	-5.9462
▁which	-5.94832
▁who	-5.94851
"	-5.95602
ly	-6.01431
al	-6.04011
i	-6.09682
o	-6.10501
ji	-6.10575
n	-6.11177
▁are	-6.14407
▁be	-6.16771
▁He	-6.20601
▁an	-6.21892
▁or	-6.24207
t	-6.27545
the	-6.30302
▁period	-6.31091
▁family	-6.31152
:	-6.3263
y	-6.32889
in	-6.33143
▁Emperor	-6.40053
▁clan	-6.42935
▁had	-6.44113
▁but	-6.44281
▁Kyoto	-6.44533
▁It	-6.46484
▁not	-6.47261
▁also	-6.49802
▁A	-6.49912
er	-6.5198
▁this	-6.52267
shi	-6.56188
▁Temple	-6.56983
l	-6.58267
▁Province	-6.58275
▁name	-6.61323
ko	-6.6223
▁called	-6.64676
▁Japan	-6.6484
ir	-6.67121
u	-6.67863
▁after	-6.68461
▁became	-6.68613
▁City	-6.68619
jo	-6.70672
▁one	-6.71772
▁Imperial	-6.71955
ri	-6.72941
no	-6.73532
▁such	-6.77169
or	-6.77984
▁O	-6.78884
;	-6.79422
▁been	-6.80817
to	-6.81236
▁have	-6.81592
do	-6.8501
▁time	-6.86039
▁Japanese	-6.86274
▁Prefecture	-6.88211
▁when	-6.89382
▁used	-6.89843
▁so	-6.92892
th	-6.94364
an	-6.9593
▁there	-6.97167
es	-6.97236
ra	-6.97652
ki	-6.9793
sho	-6.99517
m	-6.99603
▁His	-7.01358
▁made	-7.03596
▁they	-7.06377
▁other	-7.07564
▁has	-7.0854
▁Edo	-7.08683
▁government	-7.09904
se	-7.10487
▁On	-7.10779
p	-7.11225
▁head	-7.11277
▁son	-7.1132
▁during	-7.11794
c	-7.12119
▁people	-7.1331
▁first	-7.13602
▁-	-7.14218
▁into	-7.14393
▁Ko	-7.14614
▁said	-7.15823
go	-7.15849
ku	-7.17893
ro	-7.19823
mi	-7.20698
cho	-7.2092
ion	-7.21247
en	-7.22136
▁I	-7.22706
re	-7.25448
ka	-7.26296
▁However	-7.26399
ya	-7.2739
▁Station	-7.27812
A	-7.29561
r	-7.30259
▁under	-7.31039
shu	-7.31386
tsu	-7.31396
ta	-7.32443
st	-7.33267
▁because	-7.33462
chi	-7.34274
▁its	-7.36044
▁out	-7.36289
▁year	-7.37284
ke	-7.37412
I	-7.37478
▁Shrine	-7.40124
▁Prince	-7.41426
▁system	-7.41785
ve	-7.42255
▁between	-7.43438
ation	-7.44412
▁many	-7.44548
▁order	-7.45838
▁some	-7.47514
▁To	-7.48134
▁Thi	-7.4908
me	-7.50079
▁same	-7.501
▁T	-7.50225
ru	-7.50354
▁After	-7.50437
▁two	-7.50531
▁only	-7.50749
le	-7.50821
gi	-7.51214
▁about	-7.51674
▁her	-7.51994
ma	-7.52008
ge	-7.53063
▁years	-7.53157
▁died	-7.53208
▁part	-7.54011
▁him	-7.54248
▁re	-7.54782
▁over	-7.54945
▁Sho	-7.55292
yo	-7.55759
O	-7.56014
▁FUJIWARA	-7.56452
g	-7.56821
▁where	-7.56914
▁all	-7.57331
▁S	-7.57856
na	-7.60007
▁temple	-7.60078
ho	-7.60741
so	-7.61687
ga	-7.61726
▁up	-7.61802
kan	-7.6212
▁school	-7.62449
▁main	-7.62691
▁father	-7.62837
▁established	-7.62947
▁can	-7.63294
though	-7.63315
kyo	-7.63363
yama	-7.63521
▁old	-7.64236
ic	-7.64575
▁court	-7.64585
da	-7.64747
▁position	-7.64974
▁army	-7.65735
te	-7.65923
The	-7.66249
fu	-7.66259
shin	-7.66494
▁later	-7.66514
▁rank	-7.67057
▁written	-7.68424
▁well	-7.69159
▁Castle	-7.69608
▁death	-7.69623
.'	-7.69749
zu	-7.7031
▁held	-7.7058
k	-7.7271
▁end	-7.72766
gu	-7.72823
ment	-7.73156
S	-7.73211
▁them	-7.73316
▁Rank	-7.73627
ryo	-7.73754
ba	-7.73797
▁area	-7.74042
▁Shin	-7.74099
▁post	-7.7428
▁So	-7.74364
▁Yoshi	-7.74701
▁being	-7.74839
▁rice	-7.75151
▁including	-7.76059
▁through	-7.76883
zo	-7.77018
▁War	-7.77026
▁Taka	-7.77387
▁however	-7.77392
▁second	-7.77476
▁As	-7.7777
▁those	-7.77834
ar	-7.78337
▁side	-7.7904
▁while	-7.79413
▁three	-7.79428
▁U	-7.79527
bo	-7.79992
ial	-7.80114
▁more	-7.80273
▁than	-7.81142
ne	-7.81579
on	-7.81734
▁daughter	-7.81763
▁located	-7.81826
mon	-7.81853
▁military	-7.81888
▁Court	-7.82218
den	-7.82473
▁known	-7.82491
▁Ho	-7.83173
▁C	-7.83188
bu	-7.83246
▁served	-7.83296
b	-7.83348
wa	-7.83359
▁bakufu	-7.83731
▁There	-7.83843
▁Buddhist	-7.839
▁she	-7.8392
w	-7.84257
▁Kamakura	-7.84276
Japanese	-7.84691
out	-7.85321
us	-7.85708
▁appointed	-7.85866
▁style	-7.8616
▁Domain	-7.86301
▁due	-7.87343
▁since	-7.88397
▁go	-7.88632
▁before	-7.88929
▁young	-7.8952
▁around	-7.89698
▁line	-7.90474
2	-7.90508
▁would	-7.9054
▁came	-7.9063
▁hand	-7.90873
▁Ka	-7.91024
▁Nara	-7.91813
▁Go	-7.91821
ha	-7.91972
▁new	-7.9211
f	-7.922
▁official	-7.92216
dai	-7.92275
▁F	-7.92715
▁each	-7.9274
▁Meiji	-7.92795
▁given	-7.93342
▁then	-7.93578
▁Line	-7.93854
▁down	-7.94481
▁17	-7.94801
▁E	-7.95533
▁Al	-7.95564
▁age	-7.96063
▁place	-7.96134
▁15	-7.96435
kai	-7.96484
▁lord	-7.96497
▁brother	-7.96527
ju	-7.96575
gawa	-7.9669
ten	-7.97158
▁various	-7.97309
▁took	-7.97575
/	-7.97847
▁land	-7.98411
▁Osaka	-7.98668
able	-7.99044
it	-7.99416
mo	-7.99671
▁Shi	-8.00269
▁Tokyo	-8.00494
7	-8.0065
▁region	-8.00656
▁Heian	-8.009
E	-8.01115
▁[	-8.01452
▁use	-8.01489
▁1	-8.01675
▁power	-8.01741
▁early	-8.02035
▁following	-8.02097
sa	-8.02206
jinja	-8.02635
▁MINAMOTO	-8.02669
ll	-8.02752
▁back	-8.02758
based	-8.03235
▁B	-8.03795
▁did	-8.03936
▁shogun	-8.0397
▁Ki	-8.04276
1	-8.04285
U	-8.04399
ers	-8.04449
su	-8.04962
▁station	-8.04989
▁When	-8.05103
▁imperial	-8.0533
▁wife	-8.0573
▁considered	-8.05903
▁become	-8.05945
sha	-8.0618
▁like	-8.06229
yu	-8.06454
sen	-8.06831
▁both	-8.07171
▁these	-8.07231
▁Ward	-8.07366
▁Kan	-8.07386
▁priest	-8.07596
▁mother	-8.07648
▁18	-8.0804
led	-8.08376
jin	-8.08456
▁himself	-8.08935
▁person	-8.09381
▁work	-8.09407
▁local	-8.09743
▁general	-8.09754
ur	-8.10329
▁Chinese	-8.1037
▁title	-8.10861
sei	-8.11204
za	-8.11399
▁M	-8.11413
▁sect	-8.11451
▁could	-8.11576
▁left	-8.11576
▁Palace	-8.11576
▁12	-8.11614
▁day	-8.11769
est	-8.11796
gen	-8.1196
▁Jo	-8.11967
,"	-8.12045
▁un	-8.121
▁Buddhism	-8.12274
▁shrine	-8.12376
▁book	-8.12409
▁San	-8.12947
de	-8.13205
gaku	-8.13535
▁al	-8.13591
▁School	-8.13603
▁even	-8.14417
▁At	-8.15071
▁war	-8.15173
▁Do	-8.15526
▁refer	-8.15845
▁theory	-8.15986
h	-8.16008
be	-8.169
▁de	-8.16954
▁ceremony	-8.17115
▁Buddha	-8.17149
▁11	-8.17288
▁Mt	-8.17424
▁high	-8.17532
▁13	-8.17542
Juni	-8.17592
gyo	-8.17631
▁TOKUGAWA	-8.17784
▁sho	-8.18256
▁P	-8.18266
▁c	-8.18637
▁number	-8.18641
▁addition	-8.18694
went	-8.18783
4	-8.18861
ce	-8.18885
tai	-8.18957
▁According	-8.19283
▁third	-8.19341
li	-8.19416
▁19	-8.19477
mu	-8.19531
▁against	-8.20021
▁born	-8.20067
▁emperor	-8.20129
▁Dai	-8.20724
▁April	-8.20786
at	-8.20804
▁era	-8.20808
▁January	-8.2081
sai	-8.20946
ity	-8.21419
▁Su	-8.21513
▁battle	-8.21591
▁July	-8.21634
san	-8.21642
▁present	-8.21996
▁10	-8.22151
▁Ten	-8.22404
ch	-8.22972
▁March	-8.23085
▁started	-8.23317
x	-8.23476
▁Sei	-8.23654
▁October	-8.23825
▁Ku	-8.241
▁Nobunaga	-8.24471
▁built	-8.24473
▁Period	-8.24534
▁e	-8.24536
▁University	-8.25168
▁above	-8.25169
▁state	-8.25172
▁great	-8.25233
▁section	-8.25293
▁samurai	-8.25323
▁16	-8.25628
▁among	-8.26715
ary	-8.2683
▁fact	-8.27311
▁large	-8.27566
."	-8.27786
▁Mi	-8.28548
▁No	-8.2855
bi	-8.28913
ter	-8.28944
▁capital	-8.29074
▁temples	-8.29129
▁Hideyoshi	-8.29931
▁China	-8.29936
▁feud	-8.29946
▁Masa	-8.30048
▁adopted	-8.30073
▁koku	-8.30138
▁make	-8.30491
▁chief	-8.30496
▁Kai	-8.30697
▁way	-8.30721
ei	-8.30881
▁lived	-8.31083
▁domain	-8.31086
▁ancient	-8.31607
po	-8.31825
ting	-8.31875
▁Ma	-8.31912
▁days	-8.32367
▁right	-8.32457
Ko	-8.32544
ng	-8.32874
▁Shinto	-8.32894
▁7	-8.32932
▁most	-8.33611
3	-8.34413
▁others	-8.34419
▁statue	-8.3446
▁visit	-8.34804
▁put	-8.34932
▁sake	-8.35014
▁Ya	-8.35368
▁century	-8.35661
▁will	-8.35669
▁form	-8.35941
▁unti	-8.36011
man	-8.36135
▁May	-8.3638
▁kami	-8.36554
▁world	-8.36647
▁water	-8.36673
9	-8.36953
▁Shu	-8.36983
ck	-8.37219
▁unknown	-8.37385
▁often	-8.37394
▁national	-8.37613
ent	-8.37895
▁ga	-8.38052
▁tea	-8.38184
▁Gen	-8.38368
▁For	-8.3843
5	-8.38858
▁common	-8.38996
zen	-8.3904
▁life	-8.39226
using	-8.39648
oka	-8.39676
ry	-8.39919
▁Sen	-8.39972
▁ASHIKAGA	-8.4001
▁Ieyasu	-8.40013
▁August	-8.4006
▁February	-8.40161
▁show	-8.40389
moto	-8.40553
▁different	-8.4086
▁four	-8.40944
M	-8.41014
▁December	-8.41026
▁September	-8.41041
▁Yo	-8.41261
age	-8.41342
▁8	-8.41386
▁group	-8.4162
▁set	-8.4172
▁Kin	-8.41752
▁should	-8.41803
▁charge	-8.41819
▁long	-8.42097
▁times	-8.4232
▁do	-8.42366
C	-8.42556
un	-8.42963
8	-8.42969
day	-8.4301
▁office	-8.43354
zan	-8.43381
▁Railway	-8.43633
▁half	-8.43744
ni	-8.43785
ted	-8.43803
▁began	-8.43809
▁if	-8.44068
▁members	-8.44125
▁together	-8.44558
▁another	-8.44877
▁train	-8.44949
▁Gon	-8.44976
▁Sa	-8.45091
dori	-8.45425
▁child	-8.45483
▁still	-8.45496
▁Wa	-8.45544
▁historical	-8.45591
▁November	-8.4562
▁within	-8.45882
▁away	-8.46165
kata	-8.46265
▁Ha	-8.46463
▁Re	-8.46523
▁Battle	-8.46534
▁changed	-8.46704
ant	-8.46791
▁former	-8.46886
▁Ji	-8.47062
ance	-8.47271
▁influence	-8.47386
▁regard	-8.47386
▁result	-8.47387
▁Ken	-8.47475
AIRA	-8.47482
▁Muromachi	-8.48348
▁important	-8.48518
▁4	-8.48696
▁Fu	-8.49077
▁example	-8.49263
▁Tada	-8.49314
▁country	-8.49324
▁families	-8.49374
▁National	-8.49469
having	-8.4971
▁Ta	-8.49755
▁means	-8.49921
mori	-8.49962
bun	-8.50084
kaku	-8.5015
▁birth	-8.50364
▁Yasu	-8.50465
▁real	-8.50534
6	-8.50613
▁according	-8.50645
▁D	-8.51091
R	-8.51417
▁co	-8.51513
mura	-8.51667
▁con	-8.51904
▁branch	-8.52185
nin	-8.52212
▁small	-8.52289
▁Zen	-8.5229
▁take	-8.52378
▁They	-8.52418
▁house	-8.52876
▁late	-8.53257
▁Tai	-8.53362
▁Empress	-8.5339
▁building	-8.53405
roku	-8.54084
▁An	-8.54122
▁lost	-8.54361
▁Sada	-8.54421
ized	-8.54456
▁Shige	-8.54566
▁described	-8.54574
▁m	-8.54709
he	-8.54746
▁center	-8.55352
▁issued	-8.55483
▁Hiro	-8.55514
▁governor	-8.55547
hi	-8.55643
▁man	-8.56087
rin	-8.56265
▁Uji	-8.56268
▁Street	-8.56392
▁service	-8.56452
▁Moto	-8.56545
▁Yamato	-8.56637
▁En	-8.56689
▁Tsu	-8.56691
suke	-8.5691
▁Grade	-8.57449
Since	-8.57456
▁Tokugawa	-8.57604
masa	-8.57823
B	-8.58161
]	-8.58177
ie	-8.58232
nori	-8.58389
Northern	-8.58513
ichi	-8.58783
ous	-8.58876
gun	-8.59309
ated	-8.59438
▁Ni	-8.59451
▁shrines	-8.59596
▁children	-8.59702
▁promoted	-8.59791
▁Cho	-8.59908
very	-8.59952
yoshi	-8.60217
naga	-8.60475
▁front	-8.60671
▁political	-8.60671
Southern	-8.60676
moved	-8.60677
▁believed	-8.60714
ies	-8.60761
▁received	-8.60942
▁6	-8.60974
▁ma	-8.61232
literally	-8.61235
gan	-8.61348
shiki	-8.61487
▁Ise	-8.61754
▁books	-8.61783
▁hall	-8.61829
▁Korea	-8.61882
▁trains	-8.61968
▁succeeded	-8.61996
vi	-8.62039
▁along	-8.62221
▁ko	-8.62314
▁Yu	-8.62479
kei	-8.62728
chu	-8.62743
▁Therefore	-8.62881
Senior	-8.62883
▁history	-8.62953
▁2	-8.6297
▁created	-8.63232
▁noble	-8.63235
▁killed	-8.63369
▁Minister	-8.63528
designated	-8.63635
K	-8.63669
▁5	-8.63714
▁popular	-8.63977
▁view	-8.64005
▁site	-8.64005
▁River	-8.6401
▁She	-8.64062
▁3	-8.64066
▁kind	-8.64093
▁pro	-8.64133
hime	-8.64221
▁castle	-8.64221
▁p	-8.64583
yaku	-8.64947
▁calendar	-8.65141
▁daimyo	-8.65151
▁14	-8.65199
▁last	-8.65337
▁9	-8.65379
▁case	-8.65418
▁Kei	-8.65418
shima	-8.65954
ally	-8.66193
▁original	-8.66355
men	-8.66396
ful	-8.66513
▁character	-8.66585
▁Omi	-8.6664
as	-8.6668
▁control	-8.66789
G	-8.66921
▁works	-8.66983
han	-8.67317
▁sent	-8.6736
▁north	-8.6748
▁Sect	-8.6749
▁Also	-8.67564
▁thought	-8.67578
▁master	-8.67844
myo	-8.68348
▁public	-8.68752
▁June	-8.68991
NO	-8.69184
▁any	-8.69582
▁Sai	-8.69631
machi	-8.69632
▁transferred	-8.69824
▁sever	-8.69836
▁included	-8.70082
▁five	-8.70135
▁modern	-8.70162
kawa	-8.70287
▁Dur	-8.70291
tic	-8.70404
▁Mori	-8.7058
▁lead	-8.70592
▁Yoritomo	-8.71029
▁territory	-8.71114
▁seen	-8.71193
hito	-8.71379
▁term	-8.71392
0	-8.71671
▁Genji	-8.71695
▁sa	-8.72215
▁b	-8.7223
▁residence	-8.72244
▁Kyushu	-8.72272
▁Shogun	-8.72289
▁city	-8.72332
katsu	-8.72362
▁story	-8.72482
el	-8.72578
▁east	-8.72669
▁role	-8.72669
koku	-8.7278
▁origin	-8.72844
▁returned	-8.73086
▁br	-8.7326
mei	-8.73421
▁Mitsu	-8.73477
▁status	-8.73488
▁forces	-8.73703
▁reason	-8.73924
▁law	-8.74533
▁Nobu	-8.74541
▁collection	-8.74876
▁developed	-8.74936
T	-8.74998
▁passed	-8.75054
▁Taira	-8.75056
▁pre	-8.7516
▁performed	-8.75316
▁word	-8.75416
▁art	-8.75704
▁ho	-8.75725
▁express	-8.75957
▁Chi	-8.75959
▁food	-8.75995
▁sometime	-8.76015
ryu	-8.76045
ist	-8.76076
▁just	-8.76151
▁enshrined	-8.76188
taka	-8.76222
])	-8.76392
nomiya	-8.76496
▁sword	-8.76544
▁areas	-8.76826
ive	-8.76866
▁ka	-8.76902
▁characters	-8.76949
ken	-8.77126
co	-8.77231
▁instead	-8.77277
Ta	-8.77302
▁Nishi	-8.77312
▁gate	-8.77359
tion	-8.77902
hira	-8.77984
▁once	-8.77992
▁own	-8.78144
ring	-8.7826
▁music	-8.78328
ate	-8.7845
▁middle	-8.78587
referred	-8.78632
▁commander	-8.78788
▁produced	-8.78823
dan	-8.79069
▁sp	-8.79132
▁Aki	-8.79133
▁Incident	-8.79261
▁found	-8.79279
mitsu	-8.79287
▁member	-8.79473
▁Dynasty	-8.79891
▁construction	-8.79953
▁o	-8.79983
▁support	-8.80049
Z	-8.80104
▁making	-8.8017
▁Kyo	-8.80196
nobu	-8.80201
▁tri	-8.80373
▁Mo	-8.80403
▁Nan	-8.80431
▁good	-8.80493
▁materials	-8.80651
▁Some	-8.80661
▁generation	-8.80682
fusa	-8.80811
▁you	-8.81036
▁close	-8.81106
▁famous	-8.81225
▁County	-8.81248
▁Ju	-8.81253
▁K	-8.81264
ther	-8.81304
D	-8.81433
hon	-8.81613
▁Hide	-8.82571
▁next	-8.82576
▁off	-8.82598
▁shogunate	-8.82734
▁Co	-8.82743
N	-8.82784
▁stone	-8.82839
▁dis	-8.8285
oku	-8.83115
min	-8.83127
▁ten	-8.83249
▁1,	-8.83694
▁countries	-8.83946
▁short	-8.83953
▁image	-8.83954
▁every	-8.84019
less	-8.84063
▁W	-8.84183
ty	-8.84437
▁get	-8.84566
Genji	-8.85165
▁incident	-8.85209
▁palace	-8.85337
▁fire	-8.85351
ban	-8.85483
▁Matsu	-8.86129
et	-8.86263
▁cultur	-8.86508
il	-8.86684
▁Kuni	-8.86788
▁paper	-8.869
▁mo	-8.87121
kuni	-8.87196
▁contain	-8.87506
▁vassal	-8.87562
▁mountain	-8.87746
▁Hon	-8.87906
▁Se	-8.87971
▁plan	-8.88429
▁return	-8.88629
▁fu	-8.88636
▁placed	-8.88947
yuki	-8.88961
▁play	-8.88992
▁retainer	-8.89225
▁d	-8.89451
▁type	-8.89458
▁Lower	-8.89621
▁Office	-8.89752
▁god	-8.8978
▁current	-8.8992
▁originally	-8.89954
seki	-8.89996
kyu	-8.90191
over	-8.90197
ward	-8.90209
▁now	-8.90699
z	-8.90885
▁Han	-8.90929
▁again	-8.9103
▁House	-8.91091
▁study	-8.91092
▁Because	-8.91092
▁method	-8.91092
▁Division	-8.91093
▁Fujiwara	-8.91152
ness	-8.91189
▁ODA	-8.91192
▁process	-8.91273
▁introduced	-8.91306
▁allowed	-8.91462
▁L	-8.91486
):	-8.91739
▁De	-8.9174
nari	-8.91851
pe	-8.92027
ure	-8.92141
dera	-8.92224
TA	-8.92301
▁H	-8.92357
▁business	-8.92584
▁deity	-8.92643
▁base	-8.92675
▁Kami	-8.92762
▁Noh	-8.92845
ism	-8.92877
taro	-8.92943
id	-8.93193
rd	-8.93338
▁f	-8.9358
ron	-8.93792
tsugu	-8.93807
▁Tsune	-8.94143
▁Princess	-8.94295
▁Take	-8.94308
▁Tomo	-8.94383
▁south	-8.94413
related	-8.94526
▁etc	-8.94565
▁troops	-8.94625
▁Hi	-8.95053
▁traditional	-8.95226
▁founded	-8.95253
▁san	-8.95305
▁Cultur	-8.95355
▁Naka	-8.95852
▁History	-8.95858
▁Kanto	-8.95907
▁Ryo	-8.96035
▁entered	-8.96392
▁Miya	-8.96399
▁Naga	-8.96477
▁volume	-8.96834
▁tak	-8.9684
▁nobles	-8.96912
Ka	-8.9696
▁private	-8.97135
▁prince	-8.97158
Japan	-8.97182
▁town	-8.97312
▁Bun	-8.97436
aki	-8.97628
▁appeared	-8.97629
ze	-8.97904
▁Fuku	-8.97925
michi	-8.97929
▁G	-8.97941
▁Bo	-8.98307
v	-8.98348
ought	-8.98559
ld	-8.9872
▁major	-8.98759
▁sea	-8.98776
▁therefore	-8.98789
ifth	-8.98823
▁text	-8.98932
▁Keihan	-8.98982
▁Tale	-8.99198
▁mentioned	-8.99273
oki	-8.99275
va	-8.9936
bon	-8.99513
▁Mu	-8.99627
▁places	-8.99662
▁festival	-8.99944
▁Kita	-8.99957
▁include	-9.00135
▁unit	-9.00311
▁From	-9.00401
▁consist	-9.00404
▁spread	-9.00414
ut	-9.00491
▁Satsuma	-9.00494
one	-9.00582
ts	-9.00913
▁design	-9.01065
jima	-9.01117
▁Korean	-9.01118
bashi	-9.01261
ence	-9.01358
▁letter	-9.01643
▁men	-9.01653
fuku	-9.01763
▁strong	-9.01789
kami	-9.0182
")	-9.01844
DA	-9.01893
▁Family	-9.0204
▁latter	-9.0204
▁wrote	-9.0204
▁occurred	-9.02043
kept	-9.02089
▁Iwa	-9.02256
emon	-9.0242
▁shi	-9.02534
tori	-9.02604
▁names	-9.02701
▁low	-9.0281
▁stop	-9.03185
▁inside	-9.03212
▁N	-9.03241
▁20	-9.03435
▁st	-9.03581
ti	-9.03595
▁foreign	-9.03671
▁Monogatari	-9.03707
▁situation	-9.03707
▁fought	-9.03721
▁Kannon	-9.03831
▁stage	-9.03894
▁Chu	-9.03925
▁soldiers	-9.0397
▁affairs	-9.04005
▁continued	-9.04052
▁defeated	-9.04119
yori	-9.04186
yasu	-9.04624
To	-9.04656
hei	-9.04692
▁practice	-9.04738
koji	-9.04818
▁date	-9.0501
▁Toshi	-9.05145
▁religio	-9.05178
ect	-9.05321
▁provinces	-9.0537
▁Museum	-9.05407
▁few	-9.05408
▁authority	-9.05416
▁Shogunate	-9.05424
19	-9.05469
▁carri	-9.05475
▁Second	-9.05499
▁granted	-9.05547
▁en	-9.05564
▁Later	-9.05649
Shi	-9.05678
ja	-9.05684
▁meters	-9.05793
▁record	-9.05795
P	-9.05809
▁taken	-9.05855
▁provinc	-9.05925
▁officials	-9.06575
▁tax	-9.06892
▁Higashi	-9.07082
▁With	-9.07126
▁women	-9.07129
▁point	-9.07137
▁Hall	-9.0719
butsu	-9.07192
▁operation	-9.07218
head	-9.0728
▁cha	-9.07356
▁Great	-9.07367
▁gain	-9.07506
▁force	-9.07536
▁fish	-9.07621
▁Jin	-9.07666
▁retainers	-9.07838
MI	-9.07968
red	-9.08026
omi	-9.08313
▁shape	-9.08615
nyo	-9.0866
▁social	-9.0888
▁garden	-9.0888
imate	-9.08882
▁Sengoku	-9.08895
YAMA	-9.09062
▁road	-9.09069
▁body	-9.09131
▁class	-9.0914
Kyoto	-9.09164
▁Ministry	-9.09184
▁Guards	-9.09194
▁start	-9.09219
▁special	-9.0923
▁top	-9.0928
▁Toki	-9.09308
▁eight	-9.09536
KI	-9.09707
▁Michi	-9.09849
▁Governor	-9.09852
▁today	-9.09982
mono	-9.10002
hisa	-9.10244
▁bus	-9.10432
land	-9.10491
▁Kore	-9.10498
▁decided	-9.10692
▁represent	-9.10707
▁Sane	-9.10717
▁wooden	-9.10721
▁seem	-9.10747
▁worship	-9.10821
▁poems	-9.10831
▁abolished	-9.10909
son	-9.10944
▁priests	-9.10951
▁culture	-9.11185
rei	-9.11219
▁bi	-9.11336
▁22	-9.11368
▁ri	-9.11525
▁party	-9.11527
▁24	-9.11589
▁Mon	-9.11734
rai	-9.11863
way	-9.12307
ren	-9.12442
▁poet	-9.1248
▁particular	-9.12484
▁sister	-9.12484
▁relationship	-9.12485
▁hard	-9.12497
▁Festival	-9.1253
▁Route	-9.12589
zuka	-9.12622
▁Ichi	-9.12702
read	-9.12772
▁published	-9.12787
▁Kane	-9.1298
zai	-9.13122
and	-9.13142
▁lower	-9.1317
▁cut	-9.13177
Hi	-9.13187
▁per	-9.13343
▁generations	-9.13457
pu	-9.13482
tan	-9.13655
shige	-9.13729
tsuna	-9.14061
▁Then	-9.14136
▁monk	-9.14164
▁poem	-9.14165
▁themselves	-9.14336
▁legend	-9.14336
▁reign	-9.14336
▁Road	-9.14336
▁Right	-9.14342
▁retired	-9.14353
▁what	-9.14359
▁reach	-9.1438
▁Third	-9.14405
▁Yori	-9.14442
▁Bosatsu	-9.14449
ig	-9.14529
uji	-9.14607
▁we	-9.14676
▁assigned	-9.14686
▁joined	-9.14906
L	-9.15036
▁read	-9.15301
▁attacked	-9.15303
▁waka	-9.15587
ai	-9.15664
maro	-9.15891
▁serve	-9.1596
▁jo	-9.16118
▁studi	-9.1612
▁Saga	-9.16133
▁similar	-9.16222
▁Dainagon	-9.16223
▁certain	-9.16223
Sho	-9.16265
▁how	-9.1628
▁direct	-9.16315
▁may	-9.16321
▁broke	-9.16376
ac	-9.16395
▁Nijo	-9.1644
▁w	-9.16489
▁caused	-9.16527
▁western	-9.16548
▁founder	-9.16567
▁room	-9.16588
▁fourth	-9.16632
▁V	-9.16871
ver	-9.16882
▁attack	-9.1699
sada	-9.1713
we	-9.17167
nosuke	-9.17185
00	-9.17563
▁central	-9.17572
▁One	-9.17695
specially	-9.17839
▁conflict	-9.18008
▁ground	-9.18032
▁throne	-9.18146
▁First	-9.18146
▁Sutra	-9.18146
▁beginning	-9.18147
▁estate	-9.18147
▁property	-9.18148
▁dance	-9.18191
▁highest	-9.18231
mune	-9.18233
hama	-9.18372
later	-9.18507
▁higher	-9.18558
▁Bus	-9.18671
most	-9.1873
toku	-9.18847
hiro	-9.18875
▁existed	-9.1888
kin	-9.18993
▁27	-9.19063
▁(1	-9.19071
▁six	-9.1909
▁act	-9.19258
old	-9.19265
▁Na	-9.19394
of	-9.19459
hiko	-9.19567
cha	-9.19616
mb	-9.19984
▁HOSOKAWA	-9.20106
▁World	-9.20106
▁amount	-9.20106
▁TOYOTOMI	-9.20107
▁series	-9.20107
▁Whi	-9.20134
▁administration	-9.20141
▁come	-9.20184
▁Suke	-9.20274
▁kuni	-9.20349
Kan	-9.20369
▁Jodo	-9.20423
▁Ro	-9.20424
▁formed	-9.20475
▁Ba	-9.2052
▁conducted	-9.20554
▁II	-9.20578
ca	-9.20604
am	-9.20879
F	-9.21133
▁l	-9.21369
▁descendants	-9.21414
▁learn	-9.21463
7,	-9.21643
▁rule	-9.21659
▁documents	-9.21918
▁Furthermore	-9.22106
▁usual	-9.22107
▁woman	-9.22111
▁West	-9.22151
▁compil	-9.22169
▁Mino	-9.22182
▁village	-9.2219
ical	-9.22196
▁officer	-9.22223
▁married	-9.22255
▁upon	-9.22316
▁does	-9.22351
▁field	-9.22407
▁guard	-9.2242
▁meaning	-9.22496
▁Ga	-9.22518
▁23	-9.22538
▁Main	-9.22552
▁dai	-9.22566
▁west	-9.22673
like	-9.22698
hide	-9.22836
▁older	-9.2284
▁Mune	-9.22865
▁ha	-9.22923
▁mi	-9.22935
▁enter	-9.23199
nd	-9.23225
ff	-9.23285
tei	-9.23306
Go	-9.23406
jiro	-9.23467
▁Ashi	-9.23791
▁Be	-9.24017
▁services	-9.24029
▁length	-9.24147
▁company	-9.24147
▁belonged	-9.24149
▁Left	-9.24149
▁possible	-9.24152
▁lineage	-9.24235
▁limited	-9.24302
▁got	-9.24342
▁raised	-9.24403
▁mid	-9.2446
▁Tang	-9.24475
chief	-9.24621
▁Yuki	-9.24645
▁fall	-9.24647
▁shu	-9.24717
▁Ri	-9.24765
▁ki	-9.2504
▁follows	-9.25047
saka	-9.25054
▁Kiyo	-9.25123
haru	-9.25167
▁lords	-9.25251
▁heir	-9.25314
H	-9.25484
ish	-9.25977
saku	-9.26196
▁perform	-9.26219
▁HOJO	-9.26231
▁Kabuki	-9.26241
▁list	-9.26262
▁home	-9.26327
▁Western	-9.26352
▁sauce	-9.26386
▁Even	-9.26387
▁Kawachi	-9.26397
▁Fushimi	-9.26524
▁production	-9.26554
▁records	-9.26627
▁actual	-9.26728
hara	-9.2674
▁Hojo	-9.2674
▁ju	-9.26792
gon	-9.26928
rew	-9.2702
con	-9.27099
gai	-9.2714
▁Her	-9.27293
▁appears	-9.27421
nai	-9.27438
▁see	-9.27449
▁kan	-9.27569
▁hot	-9.276
▁ro	-9.27738
▁shin	-9.28152
▁schools	-9.28241
ice	-9.28259
▁seven	-9.28379
▁Land	-9.2838
gata	-9.28453
▁Tendai	-9.28464
▁wa	-9.28547
▁Takeda	-9.28549
▁spring	-9.28579
▁selected	-9.28589
▁originated	-9.28648
kiyo	-9.28691
▁say	-9.28732
present	-9.28856
▁approx	-9.28905
style	-9.28944
▁Koku	-9.29008
um	-9.29072
▁vassals	-9.29277
▁students	-9.29418
▁coins	-9.29601
▁Man	-9.29639
▁trees	-9.2969
▁played	-9.29851
▁pa	-9.29955
ible	-9.29972
▁cases	-9.30046
▁di	-9.30211
guchi	-9.30239
side	-9.30325
▁gold	-9.30517
▁Electric	-9.30532
▁money	-9.30533
▁Act	-9.30536
▁night	-9.30539
▁Army	-9.30554
▁Shingon	-9.30579
▁outside	-9.30597
▁whole	-9.30633
▁Haru	-9.30635
▁scene	-9.30643
Mi	-9.30665
▁Un	-9.30744
▁performance	-9.30759
▁month	-9.3076
▁total	-9.30813
matsu	-9.30848
▁Toyo	-9.30855
▁hereditary	-9.30874
▁wear	-9.30918
▁remained	-9.31019
tsune	-9.31019
▁province	-9.31133
fi	-9.31164
shiro	-9.31185
▁operat	-9.31195
▁Gyo	-9.31312
▁parts	-9.31376
▁remains	-9.3154
▁light	-9.31633
▁words	-9.31887
KA	-9.31951
per	-9.32248
▁hold	-9.32259
jingu	-9.3259
les	-9.32695
▁High	-9.32743
▁gradually	-9.32754
▁properties	-9.32755
▁Owari	-9.32755
▁value	-9.32756
▁renam	-9.32758
▁Nichiren	-9.3276
▁description	-9.3276
▁human	-9.32767
▁give	-9.32781
▁rebellion	-9.32782
▁thus	-9.32784
ged	-9.32799
▁development	-9.32827
ran	-9.32829
▁fell	-9.32833
▁director	-9.32919
▁horse	-9.32955
Sa	-9.3301
▁State	-9.33101
▁Bureau	-9.33178
▁document	-9.33235
ishi	-9.33353
▁details	-9.33439
▁whe	-9.33497
toshi	-9.33792
10	-9.33942
▁kill	-9.34083
▁hi	-9.34092
▁though	-9.34518
mai	-9.34556
Ha	-9.34571
▁positions	-9.34622
▁Prefectur	-9.34666
▁near	-9.34768
▁Nori	-9.34811
▁except	-9.34859
▁Jun	-9.34988
ling	-9.35003
▁Restoration	-9.35027
▁dynasty	-9.35027
▁policy	-9.35027
▁difficult	-9.35027
▁Year	-9.35027
▁Amida	-9.35028
▁Ltd	-9.35028
▁railway	-9.35028
▁never	-9.35032
▁education	-9.35033
▁Fourth	-9.35068
▁literature	-9.35122
▁completed	-9.35123
▁issue	-9.35137
▁below	-9.35196
▁course	-9.35197
▁Law	-9.35208
ner	-9.35234
▁male	-9.35234
▁movement	-9.35271
▁involved	-9.35331
YA	-9.35338
hai	-9.3538
▁inherited	-9.35455
ach	-9.3551
▁spirit	-9.35521
car	-9.35631
istic	-9.35679
▁past	-9.35682
ound	-9.35706
▁New	-9.358
up	-9.35813
pt	-9.36063
fe	-9.36175
▁concern	-9.36346
uchi	-9.36577
▁ex	-9.37052
▁me	-9.37104
also	-9.37242
▁Gi	-9.37247
▁run	-9.37341
?	-9.37353
▁Chunagon	-9.37353
▁silver	-9.37353
▁prevent	-9.37353
▁conferred	-9.37354
▁film	-9.3737
▁asked	-9.37401
pi	-9.3758
▁divided	-9.37593
▁store	-9.37612
▁provided	-9.37637
▁powerful	-9.37658
▁surrounding	-9.37663
▁idea	-9.37678
▁Maizuru	-9.37681
13	-9.37716
▁constructed	-9.37771
▁sub	-9.37838
form	-9.37842
▁added	-9.38093
▁minister	-9.38222
▁25	-9.38354
99	-9.38621
▁Ritsu	-9.3876
chika	-9.38863
line	-9.38901
▁lines	-9.39161
▁wh	-9.39178
▁northern	-9.39219
▁Nao	-9.3924
▁Otsu	-9.39383
▁Fuji	-9.39406
▁command	-9.39441
▁se	-9.3957
▁East	-9.39582
▁liv	-9.39643
90	-9.39702
▁respect	-9.39717
om	-9.39733
▁suffer	-9.39734
▁keep	-9.39734
▁much	-9.39735
▁deriv	-9.39737
▁engag	-9.39738
▁big	-9.39744
▁grave	-9.39779
▁foot	-9.39833
16	-9.39903
▁change	-9.39939
▁level	-9.39991
▁wood	-9.4015
▁ken	-9.40479
maru	-9.40496
▁rest	-9.40657
▁gods	-9.40721
▁statues	-9.40752
▁leader	-9.40772
▁gun	-9.40975
▁Ei	-9.4098
▁And	-9.411
▁councilor	-9.41141
▁terms	-9.41376
ori	-9.41424
daijin	-9.41481
kko	-9.41497
table	-9.41547
▁cars	-9.41564
▁hon	-9.41631
▁cho	-9.41835
▁nation	-9.41837
nce	-9.41889
▁know	-9.41951
▁my	-9.4196
▁connect	-9.42023
gami	-9.42079
▁Affairs	-9.42173
▁request	-9.42173
▁street	-9.42173
▁Among	-9.42173
kura	-9.4218
sui	-9.42198
▁establishment	-9.42214
▁R	-9.42217
dy	-9.42231
▁Mutsu	-9.42272
▁Captain	-9.42274
▁describe	-9.4229
▁More	-9.42305
▁increased	-9.42328
treated	-9.42379
tada	-9.42591
▁structure	-9.42772
▁("	-9.42783
▁26	-9.42945
▁bound	-9.42982
Ki	-9.42998
▁opened	-9.43037
▁regions	-9.43126
▁ti	-9.437
▁full	-9.43813
▁Shimo	-9.4384
▁assum	-9.43842
▁Shiga	-9.43928
▁sun	-9.44211
mportant	-9.44428
▁mon	-9.44578
▁Myo	-9.4465
▁Village	-9.44673
▁Crown	-9.44673
▁Asuka	-9.44674
▁envoy	-9.44679
▁roof	-9.44685
▁theories	-9.44691
ternal	-9.44762
▁white	-9.4486
iddle	-9.44879
lar	-9.44885
▁Sui	-9.44929
▁standing	-9.4493
▁Showa	-9.44932
▁regent	-9.44945
▁Shinshu	-9.45043
▁forced	-9.45106
▁district	-9.45323
▁29	-9.45512
▁Di	-9.45845
▁ge	-9.46275
SU	-9.46593
ple	-9.46691
▁Kazu	-9.46817
▁toward	-9.47181
▁female	-9.47237
▁itself	-9.47237
▁travel	-9.47239
▁deep	-9.47247
▁deities	-9.47255
▁succession	-9.47255
▁things	-9.4727
▁sound	-9.47274
MURA	-9.47275
▁trade	-9.47337
▁chapter	-9.4743
▁sold	-9.47439
▁direction	-9.47443
▁senior	-9.47514
ight	-9.47698
▁drama	-9.47795
house	-9.48041
▁painting	-9.48087
shaped	-9.48237
▁sen	-9.48244
nen	-9.48245
year	-9.48262
Ku	-9.48315
▁Te	-9.48402
mochi	-9.48468
▁Nin	-9.48474
▁exist	-9.48476
dditionally	-9.48497
▁event	-9.48518
▁Minamoto	-9.48542
Ma	-9.48573
▁committ	-9.48583
60	-9.48613
▁Kage	-9.48752
▁po	-9.49002
cal	-9.49156
▁establish	-9.49199
▁red	-9.49249
Wa	-9.49415
called	-9.49438
▁Kamo	-9.49555
▁says	-9.49743
▁favor	-9.49856
▁Goshirakawa	-9.49868
▁available	-9.49868
▁purpose	-9.49868
▁eventually	-9.4987
▁Kiyomori	-9.49895
▁Town	-9.49907
▁color	-9.49944
▁finally	-9.49952
▁resigned	-9.50033
▁shugo	-9.50085
▁natural	-9.50109
RI	-9.50152
▁persons	-9.50154
hashi	-9.5016
66	-9.50388
▁followed	-9.50433
▁JR	-9.5052
▁stayed	-9.50581
▁saying	-9.50663
▁towns	-9.50687
▁100	-9.50748
▁provision	-9.50825
▁Nihon	-9.50836
▁warrior	-9.50877
Emperor	-9.50966
▁k	-9.51323
▁Juni	-9.51758
toki	-9.51862
sato	-9.5192
▁Con	-9.51931
▁fight	-9.51943
▁Du	-9.52176
goro	-9.52213
▁Nari	-9.52223
pp	-9.52406
▁Oda	-9.52428
main	-9.52463
▁30	-9.52518
▁effect	-9.52554
▁distinguish	-9.52571
▁Ancient	-9.52571
▁Association	-9.52571
▁little	-9.52571
▁Godaigo	-9.52571
▁Household	-9.52575
▁awarded	-9.52594
▁Party	-9.52603
for	-9.52609
▁Higashiyama	-9.52648
▁Yoshimitsu	-9.52662
▁Moro	-9.52703
▁equi	-9.52774
▁legal	-9.52902
▁faction	-9.53048
▁Sanjo	-9.5307
pper	-9.53072
▁Yoshino	-9.53124
zoku	-9.53134
▁Shugo	-9.53175
1,	-9.53185
kaga	-9.53188
▁stations	-9.532
▁look	-9.53553
lic	-9.53572
▁Kara	-9.53658
zane	-9.53732
Minister	-9.53736
▁Kata	-9.53754
Ho	-9.53772
▁Ama	-9.53807
ions	-9.53842
▁car	-9.539
tsuryo	-9.53945
▁administrati	-9.54391
▁tsu	-9.5442
ph	-9.54483
setsu	-9.5466
maki	-9.54676
▁Dan	-9.54902
ily	-9.54978
▁3,	-9.54986
row	-9.55095
fa	-9.55156
▁occasion	-9.55331
▁location	-9.55349
▁society	-9.55349
▁enjoy	-9.55349
▁either	-9.5535
▁belonging	-9.5535
▁composed	-9.55353
▁rather	-9.55353
▁dedicat	-9.55355
▁successor	-9.5538
▁meat	-9.55387
▁Department	-9.55465
▁Zo	-9.55469
▁face	-9.55474
▁princip	-9.55476
gura	-9.55479
▁memor	-9.555
tsuki	-9.55507
▁Courts	-9.5554
▁Ie	-9.55559
▁Mikoto	-9.55631
▁suicide	-9.5565
goku	-9.55679
former	-9.55688
ification	-9.55712
▁Inner	-9.55742
▁Daijo	-9.55777
▁Its	-9.55782
▁Shima	-9.5582
▁bu	-9.55906
▁sense	-9.55909
raw	-9.56003
▁organization	-9.56095
▁route	-9.56095
▁technique	-9.56122
▁Katsu	-9.56353
▁g	-9.56378
ura	-9.56483
ppo	-9.56533
0,000	-9.56551
councilor	-9.56584
provinc	-9.56596
▁open	-9.56596
▁becom	-9.56778
▁ship	-9.56779
ating	-9.56797
▁KO	-9.56816
ding	-9.5707
▁call	-9.57273
▁size	-9.57328
▁bell	-9.57405
▁supported	-9.57503
▁burn	-9.57547
▁season	-9.57568
8,	-9.57618
▁By	-9.57792
etsu	-9.5784
▁elde	-9.58114
▁Education	-9.58206
▁Research	-9.58206
▁enemy	-9.58206
▁Island	-9.58208
▁thousand	-9.58209
▁Retire	-9.5821
▁future	-9.58218
▁help	-9.58222
▁lun	-9.58225
▁river	-9.58226
▁gather	-9.5827
eval	-9.58313
ors	-9.58321
▁seventh	-9.58338
▁required	-9.58377
▁empress	-9.58468
WA	-9.58536
,000	-9.58567
low	-9.58575
▁dispatched	-9.58659
▁existing	-9.58913
ordinary	-9.58914
raku	-9.58941
▁h	-9.59025
ide	-9.59091
▁code	-9.59139
▁star	-9.59164
▁highly	-9.59229
dono	-9.59371
▁Tei	-9.59453
▁actor	-9.59465
2,	-9.59484
ssistant	-9.59486
Governor	-9.5953
Imperial	-9.59542
▁here	-9.59621
20	-9.59812
kichi	-9.59819
▁suke	-9.59857
val	-9.59879
35	-9.59961
▁Toku	-9.60147
▁states	-9.60174
▁actors	-9.60269
tur	-9.60416
ization	-9.60426
▁warriors	-9.60443
round	-9.6046
▁paintings	-9.60505
▁Me	-9.60597
▁2,	-9.60689
OKA	-9.60738
Na	-9.60827
▁clear	-9.60894
▁wide	-9.60928
tang	-9.61112
unicipal	-9.61124
▁Company	-9.61147
▁Property	-9.61147
▁further	-9.61147
▁Park	-9.61147
▁settled	-9.61147
▁attempt	-9.61148
pped	-9.61152
▁Kyu	-9.61156
▁carry	-9.61173
▁Hiei	-9.61197
▁Kawa	-9.61222
▁platform	-9.61271
▁Izumo	-9.6139
▁protect	-9.61416
▁monks	-9.61437
▁writing	-9.61467
▁Tango	-9.6152
▁eastern	-9.6152
▁t	-9.61539
▁medi	-9.61543
▁lot	-9.61577
▁submitt	-9.61691
yaki	-9.61847
king	-9.61862
BE	-9.62142
39	-9.62188
▁St	-9.62338
▁bo	-9.62593
▁personal	-9.62706
▁research	-9.62749
▁Shun	-9.6285
▁Council	-9.62954
▁table	-9.63101
ving	-9.63553
MA	-9.63691
▁live	-9.63736
3,	-9.63769
▁clans	-9.63918
▁recent	-9.63976
ble	-9.6407
ship	-9.64148
▁Tumulus	-9.64177
▁depict	-9.64177
▁quit	-9.64177
▁variety	-9.64177
▁unique	-9.64178
▁Harima	-9.64178
▁Center	-9.64178
▁Azuchi	-9.64178
▁southern	-9.64178
▁Qing	-9.64181
▁Nyorai	-9.64184
kuro	-9.64187
▁OTOMO	-9.6419
▁management	-9.64208
shoku	-9.64219
▁reform	-9.64248
cent	-9.64263
▁elder	-9.64307
▁escaped	-9.64322
▁poetry	-9.64342
▁wish	-9.64365
▁honor	-9.64373
▁love	-9.64573
▁fifth	-9.64583
▁directly	-9.64584
▁Ne	-9.64611
In	-9.64756
ral	-9.64896
24	-9.64967
▁port	-9.65204
▁treasure	-9.6522
▁products	-9.65245
▁pieces	-9.65247
▁descendant	-9.65255
▁deal	-9.65257
▁Grand	-9.65375
▁Art	-9.6547
▁na	-9.65542
▁dish	-9.65576
Dai	-9.65773
4,	-9.65776
Jo	-9.65862
▁arm	-9.6606
▁forest	-9.66179
▁v	-9.66291
▁training	-9.6631
eki	-9.66459
▁ranks	-9.66461
let	-9.66526
▁best	-9.66743
▁States	-9.67016
▁add	-9.67156
ult	-9.67249
▁enthronement	-9.67302
▁entrance	-9.67302
▁increasing	-9.67302
▁ticket	-9.67302
▁MATSUDAIRA	-9.67303
▁serving	-9.67303
▁depend	-9.67303
▁attach	-9.67304
▁hundred	-9.67306
▁District	-9.67306
▁difference	-9.67308
▁Book	-9.67312
▁Jusanmi	-9.6732
▁kimono	-9.67323
▁might	-9.67329
▁single	-9.67329
▁owned	-9.67342
sumed	-9.67361
▁necessary	-9.67374
▁Takauji	-9.67378
▁respectively	-9.67378
▁dishes	-9.67408
▁foundation	-9.67445
saki	-9.67461
▁attend	-9.6748
via	-9.67499
▁Choshu	-9.675
▁busho	-9.67504
take	-9.67722
▁Tanba	-9.67723
▁Confucianism	-9.67799
▁sixth	-9.67803
▁less	-9.67962
▁fighting	-9.68052
chin	-9.68078
▁groups	-9.68131
cre	-9.68259
▁Kobe	-9.68282
ill	-9.68326
33	-9.68352
▁relative	-9.68437
▁article	-9.68447
▁ryo	-9.68841
Minamoto	-9.68904
which	-9.68924
▁Bi	-9.69004
AN	-9.6908
tomo	-9.69188
▁swords	-9.69201
▁Bu	-9.69332
Sei	-9.69603
▁cover	-9.69609
▁Tosa	-9.6961
Yo	-9.697
▁6,	-9.69729
gumi	-9.69809
que	-9.69818
▁events	-9.69888
▁join	-9.69909
▁pur	-9.69998
war	-9.70097
38	-9.70101
light	-9.7014
W	-9.70185
miya	-9.70226
▁independent	-9.70268
▁govern	-9.7034
▁ni	-9.7034
ine	-9.70351
▁pot	-9.70389
▁author	-9.70496
▁Hokkaido	-9.70528
▁activities	-9.70528
▁faith	-9.70528
▁merchant	-9.70528
▁politics	-9.70528
▁priesthood	-9.70528
▁territories	-9.70528
▁square	-9.70528
▁Suruga	-9.70528
▁Settsu	-9.70529
▁beautiful	-9.70529
▁version	-9.70531
▁Yoshiaki	-9.70531
▁classified	-9.70537
▁grow	-9.70538
▁silk	-9.7054
▁appointment	-9.70542
zukuri	-9.70554
▁2006	-9.7056
▁aim	-9.70578
▁something	-9.70585
gin	-9.70594
▁non	-9.70617
▁comes	-9.70639
▁Ming	-9.7066
▁Bank	-9.70733
long	-9.70768
▁Musashi	-9.70776
▁noodles	-9.70839
▁31	-9.70853
▁buried	-9.70943
▁religion	-9.70959
▁ruled	-9.70969
▁NAKA	-9.71017
▁fan	-9.71121
▁MORI	-9.71148
▁Kuro	-9.71163
▁mikoto	-9.71182
▁manor	-9.71294
▁mean	-9.71425
▁commonly	-9.71463
shaku	-9.71527
▁subject	-9.71744
▁opinion	-9.71754
▁ritual	-9.71754
▁tree	-9.71799
valen	-9.71819
▁flower	-9.71831
▁compar	-9.72002
ious	-9.72014
law	-9.72248
▁let	-9.72278
tive	-9.72342
▁25,	-9.72377
Ten	-9.724
bei	-9.72402
iwa	-9.72454
)"	-9.72488
▁grand	-9.72884
▁song	-9.72909
nder	-9.7301
ory	-9.73233
▁pray	-9.73394
zuki	-9.73573
▁J	-9.73579
▁If	-9.73729
X	-9.73738
▁oppos	-9.73839
▁Kanpaku	-9.73862
▁childhood	-9.73862
▁disease	-9.73862
▁function	-9.73862
▁marriage	-9.73862
▁Fukuchiyama	-9.73862
▁drum	-9.73862
▁taste	-9.73862
▁information	-9.73863
▁grandfather	-9.73863
▁ruling	-9.73863
▁arrow	-9.73864
▁Chika	-9.73867
▁household	-9.73869
▁lady	-9.7387
▁existence	-9.73878
▁interest	-9.73884
▁Mitsuhide	-9.73889
▁1868	-9.7389
▁frequently	-9.73917
▁cause	-9.73948
▁subsequently	-9.73951
▁completely	-9.73993
▁Kukai	-9.74018
▁la	-9.74032
▁ABE	-9.74034
▁heaven	-9.74057
▁principle	-9.74126
▁grandson	-9.74181
GI	-9.742
tama	-9.7421
▁meeting	-9.74223
▁Koya	-9.74272
ped	-9.74275
tle	-9.74395
▁Ryu	-9.74504
bara	-9.7457
▁soba	-9.7459
kaido	-9.74618
ue	-9.7466
pon	-9.74679
▁runn	-9.74751
▁Waka	-9.74826
▁volumes	-9.74907
▁rid	-9.75132
▁figure	-9.75223
▁matter	-9.75225
▁disciple	-9.75231
▁soy	-9.75414
tch	-9.75419
ball	-9.75473
rose	-9.75479
Shin	-9.75543
pen	-9.75555
▁creat	-9.75647
Nihonshoki	-9.75673
zumi	-9.75731
oshi	-9.75881
if	-9.76052
▁tradition	-9.76084
▁sha	-9.7627
▁report	-9.76341
▁pla	-9.76404
▁rep	-9.76413
ctually	-9.76491
who	-9.76524
mae	-9.76558
▁21,	-9.7664
SHI	-9.76727
cy	-9.76883
▁transfer	-9.77298
▁Cabinet	-9.7731
▁cabinet	-9.7731
▁easily	-9.7731
▁Echizen	-9.7731
▁Echigo	-9.7731
▁recognized	-9.77311
▁object	-9.77313
▁exchange	-9.77315
▁nature	-9.77316
▁walk	-9.77319
▁staff	-9.77319
▁appearance	-9.77331
▁bad	-9.77344
▁Kozuke	-9.77345
▁Michinaga	-9.77346
▁seat	-9.7736
▁2007	-9.77377
▁immediately	-9.7743
▁installed	-9.7747
▁Sakyo	-9.77495
▁declined	-9.77503
▁hair	-9.77542
▁Sangi	-9.77597
▁Other	-9.77621
literary	-9.77688
▁earth	-9.77786
▁Taisho	-9.77874
▁kokushi	-9.77962
▁coming	-9.77966
▁soon	-9.78041
94	-9.78086
mine	-9.78382
▁learning	-9.78439
▁stopp	-9.7845
▁reading	-9.78527
▁sacr	-9.78545
▁posts	-9.78648
9,	-9.78753
▁types	-9.78768
▁chi	-9.78812
▁material	-9.78825
▁newly	-9.78916
jutsu	-9.79021
▁Oki	-9.79108
▁domains	-9.79115
▁bring	-9.79181
▁met	-9.79201
known	-9.79243
▁track	-9.79292
▁coin	-9.79482
Ya	-9.7962
rs	-9.79661
▁indicat	-9.79757
kane	-9.79963
▁sta	-9.79967
▁hands	-9.80001
▁God	-9.80144
▁cook	-9.80258
75	-9.80499
▁King	-9.80591
03	-9.80602
▁active	-9.80654
▁appear	-9.80805
ological	-9.80881
▁Russia	-9.80881
▁companies	-9.80881
▁concept	-9.80881
▁discovered	-9.80881
▁Shinkansen	-9.80881
▁standard	-9.80881
part	-9.80883
▁judge	-9.80884
▁representative	-9.80888
▁Nakamaro	-9.80906
▁28	-9.80915
▁Yoshinaka	-9.80925
▁Hongan	-9.80929
▁belief	-9.80932
▁buildings	-9.80932
zaemon	-9.80949
▁Wakashu	-9.80954
▁association	-9.80999
▁sushi	-9.8102
▁pronounce	-9.81032
▁Kansai	-9.81042
is	-9.81046
NI	-9.81047
▁barbarians	-9.81074
▁formal	-9.81075
▁theater	-9.81078
▁Kofuku	-9.81122
▁Gion	-9.81123
ler	-9.81219
▁shoen	-9.81279
▁anti	-9.81349
▁gon	-9.81384
▁Collection	-9.81392
kyoku	-9.81421
zaki	-9.81423
▁step	-9.81502
5,	-9.81535
▁Iyo	-9.81595
▁Yama	-9.81664
gar	-9.81673
▁opening	-9.81703
▁collected	-9.81712
▁20,	-9.81716
▁strict	-9.81738
▁consider	-9.81784
▁board	-9.81922
▁door	-9.81981
thing	-9.82039
▁Tama	-9.82175
even	-9.82263
▁island	-9.82341
▁Daigo	-9.82469
68	-9.82496
bugyo	-9.82525
▁teachings	-9.82614
▁hid	-9.82627
ists	-9.82658
▁Uda	-9.82688
▁But	-9.82689
▁Pur	-9.82774
▁picture	-9.82808
naka	-9.82818
time	-9.82867
court	-9.82977
kushi	-9.82982
▁job	-9.8318
▁Ishi	-9.83183
88	-9.83244
▁tomb	-9.8356
▁Gun	-9.83572
▁stay	-9.83778
pei	-9.8393
▁Awa	-9.8406
▁spirits	-9.84176
ology	-9.84231
▁Akita	-9.84334
▁Kura	-9.8439
date	-9.84443
▁Bridge	-9.84585
▁Facult	-9.84585
▁advantage	-9.84585
▁alcohol	-9.84585
▁language	-9.84585
▁morning	-9.84585
▁stories	-9.84585
▁survey	-9.84585
▁surface	-9.84586
▁worn	-9.84586
▁basis	-9.84586
▁account	-9.84586
▁legitimate	-9.84587
▁Aizu	-9.84588
▁root	-9.84588
▁Konoe	-9.84591
▁must	-9.84593
▁NAKAMURA	-9.84594
▁Taiwan	-9.84599
▁Kintetsu	-9.84603
▁revision	-9.84605
▁Masakado	-9.84605
sumi	-9.84625
▁ITO	-9.84633
▁Under	-9.84633
▁Cloister	-9.84741
▁Hyogo	-9.84804
ami	-9.84851
▁correspond	-9.84866
wn	-9.84873
▁Jugoinoge	-9.84883
▁Yoko	-9.8489
shoji	-9.84894
▁Sakai	-9.84901
sawa	-9.84926
▁examples	-9.84955
▁count	-9.85093
▁offering	-9.85139
▁claim	-9.8524
▁Oi	-9.85266
▁prefecture	-9.85279
▁General	-9.85299
72	-9.85338
26	-9.85345
▁produce	-9.85448
nother	-9.85476
▁Hira	-9.85532
▁cap	-9.85651
▁kin	-9.85658
▁180	-9.8571
▁canno	-9.85727
78	-9.86016
Chronicles	-9.86063
37	-9.86224
▁individual	-9.86318
ok	-9.86421
shun	-9.86508
▁sign	-9.86547
▁brothers	-9.86655
▁round	-9.86668
gaki	-9.86722
▁Atsu	-9.8681
great	-9.86821
▁disciples	-9.86871
satsu	-9.86965
ew	-9.87002
▁40	-9.87081
▁Ito	-9.87127
▁far	-9.87489
nami	-9.87669
▁think	-9.87794
shitsu	-9.87865
rank	-9.87977
▁peace	-9.8809
▁secret	-9.88148
Chi	-9.88214
48	-9.88229
▁15,	-9.88276
atsu	-9.88411
uta	-9.88414
▁associat	-9.88429
▁autumn	-9.88431
▁bamboo	-9.88431
▁currency	-9.88431
▁facilities	-9.88431
▁financi	-9.88431
▁industry	-9.88431
▁treatment	-9.88431
▁Shinsengumi	-9.88431
▁pagoda	-9.88431
▁model	-9.88432
▁spot	-9.88435
▁leather	-9.88437
▁punishment	-9.88437
▁reviv	-9.88443
▁80	-9.88456
▁followers	-9.88461
▁yen	-9.88472
▁Nagaoka	-9.8849
▁28,	-9.88498
▁Udaijin	-9.88499
▁Shinran	-9.8851
▁officers	-9.88524
▁clothes	-9.88526
▁alive	-9.88549
▁need	-9.88561
▁houses	-9.88577
▁painter	-9.88587
▁sumo	-9.88591
JI	-9.88592
▁won	-9.88602
Re	-9.88609
▁separated	-9.88637
▁adviser	-9.88647
kara	-9.88647
▁Tame	-9.88674
▁arrived	-9.88717
▁Spring	-9.88723
▁widely	-9.8876
▁too	-9.88782
▁action	-9.88782
▁hit	-9.88792
▁advanced	-9.88812
▁Hachi	-9.88937
▁invited	-9.88966
▁destroyed	-9.89008
▁Ren	-9.89052
▁Ge	-9.89099
59	-9.8911
sis	-9.89123
▁accepted	-9.89167
▁Article	-9.89178
▁ended	-9.89247
▁removed	-9.89248
ada	-9.89293
hen	-9.89301
▁Heike	-9.89379
▁additional	-9.89398
▁Seii	-9.89422
Fu	-9.89444
6,	-9.89468
wheat	-9.89733
ture	-9.89744
▁verse	-9.89867
ton	-9.89915
23	-9.90045
▁Mei	-9.90119
ging	-9.90177
▁Y	-9.90192
ified	-9.90208
▁pay	-9.90247
giri	-9.90313
▁Treasure	-9.90322
▁Many	-9.90365
▁Toba	-9.90375
San	-9.9039
▁miya	-9.90486
jun	-9.90507
gashi	-9.90552
oji	-9.90681
▁recorded	-9.9074
Kojiki	-9.9076
cross	-9.90795
tto	-9.90863
▁arts	-9.90899
▁reasons	-9.90983
▁receive	-9.91
▁5,	-9.91217
ang	-9.91263
▁imp	-9.91356
J	-9.91378
▁surrender	-9.91412
▁maintain	-9.91421
▁turn	-9.91428
▁defeat	-9.91436
▁allow	-9.91465
rel	-9.9153
▁emperors	-9.91626
kusa	-9.91626
▁provide	-9.91626
▁possess	-9.92251
▁Gu	-9.92267
qua	-9.92379
▁accompani	-9.92385
▁uncle	-9.92389
▁Europe	-9.92431
▁Poetry	-9.92431
▁Sekigahara	-9.92431
▁Volume	-9.92431
▁avoid	-9.92431
▁blood	-9.92431
▁ceremonies	-9.92431
▁decision	-9.92431
▁manuscript	-9.92431
▁permitted	-9.92431
▁yield	-9.92431
▁drawn	-9.92431
▁excellent	-9.92431
▁screen	-9.92431
▁sutra	-9.92431
▁intention	-9.92433
▁better	-9.92433
▁taishogun	-9.92434
▁Shichi	-9.92435
▁dispute	-9.92437
▁YOSHIDA	-9.92438
▁Shoni	-9.9244
▁Yamashiro	-9.92442
▁Kumamoto	-9.92444
eputy	-9.92445
▁Thereafter	-9.92449
▁department	-9.92449
▁Nagasaki	-9.92454
▁Kongo	-9.92498
▁Yoshitsune	-9.92512
▁Mikawa	-9.92518
▁crop	-9.92556
oter	-9.92562
▁Ryoma	-9.92575
▁heard	-9.92612
▁Yoshinobu	-9.92627
▁Masamune	-9.92654
▁folk	-9.92735
▁card	-9.92847
▁Ukyo	-9.92852
▁Tane	-9.92905
▁Yodo	-9.92923
▁done	-9.9295
▁tai	-9.92957
▁prayer	-9.92997
CHI	-9.93014
▁international	-9.93051
▁achievements	-9.93079
▁longer	-9.93119
▁hole	-9.93145
▁cooking	-9.9316
▁14,	-9.93319
Do	-9.93359
▁offered	-9.93367
17	-9.93505
Mo	-9.93634
65	-9.93719
▁Rei	-9.93746
▁seal	-9.93887
▁gen	-9.93991
▁su	-9.94039
30	-9.94044
▁measures	-9.94111
ft	-9.94205
▁mountains	-9.94224
ong	-9.94354
ui	-9.94395
▁bear	-9.9447
▁problem	-9.94493
▁student	-9.94534
▁em	-9.94557
▁Oto	-9.94636
ities	-9.94775
tatsu	-9.94791
▁hu	-9.94828
Grand	-9.9497
traditional	-9.94984
current	-9.95003
▁articles	-9.95084
op	-9.95124
▁150	-9.95169
▁yu	-9.95306
▁Za	-9.95491
dani	-9.95494
▁va	-9.95591
ranking	-9.95646
▁gi	-9.95722
▁pi	-9.95759
▁custom	-9.95775
▁Kii	-9.95789
▁cloth	-9.95845
▁kai	-9.95935
▁All	-9.9602
▁increase	-9.96331
▁rare	-9.96365
▁contribut	-9.96377
teru	-9.96472
bushi	-9.96566
port	-9.9657
▁South	-9.96579
HARA	-9.96591
▁criticiz	-9.96598
▁Group	-9.96598
▁KUJO	-9.96598
▁Library	-9.96598
▁Peninsula	-9.96598
▁doctor	-9.96598
▁entire	-9.96598
▁occupied	-9.96598
▁portrait	-9.96598
▁prefix	-9.96598
▁target	-9.96598
▁traffic	-9.96598
▁Shizuoka	-9.96598
▁defined	-9.96598
▁talent	-9.96599
▁restored	-9.966
▁teacher	-9.96601
▁recover	-9.96602
▁tell	-9.96603
▁temporarily	-9.96603
▁permission	-9.96604
▁novel	-9.96606
▁Hachiman	-9.96624
▁weight	-9.96627
▁attendant	-9.96627
▁mound	-9.96639
▁Sun	-9.96639
▁SHI	-9.96641
▁thereafter	-9.96643
▁Lake	-9.96661
▁Navy	-9.96665
▁dry	-9.96682
▁Biwa	-9.96695
lways	-9.96703
▁exiled	-9.9673
No	-9.96749
▁Tenmu	-9.96758
▁restoration	-9.96775
▁try	-9.96796
▁(18	-9.96896
▁ONO	-9.96975
▁institution	-9.96976
▁Class	-9.96983
▁MATSU	-9.96983
▁Uma	-9.9699
▁opposit	-9.97015
▁prepared	-9.97022
SHIMA	-9.97075
▁meal	-9.97099
▁insisted	-9.97136
▁TO	-9.9717
▁registered	-9.97225
▁diary	-9.97249
▁Tenno	-9.97295
34	-9.9731
62	-9.97336
▁Kofu	-9.97367
18	-9.97371
tane	-9.97514
▁offices	-9.97566
▁Kame	-9.976
▁letters	-9.97661
▁miko	-9.97673
▁cross	-9.97674
▁scale	-9.97764
▁holding	-9.97835
▁shows	-9.97882
by	-9.98299
▁Iga	-9.98308
▁leaves	-9.98366
▁Ban	-9.98393
▁officially	-9.9855
▁Nihonshoki	-9.9862
▁Miko	-9.98721
▁Ke	-9.98797
▁teaching	-9.98869
tari	-9.98871
▁16,	-9.98952
▁indicate	-9.99014
▁owner	-9.99048
▁(15	-9.99241
minister	-9.9932
Nihon	-9.99335
imperial	-9.99337
Chu	-9.99345
temple	-9.99419
▁treasures	-9.99459
Yoshi	-9.99557
▁Shira	-9.99558
▁La	-9.99607
▁sei	-9.99659
▁relat	-9.99661
kazu	-9.99767
▁collect	-9.99804
uma	-9.99888
▁conduct	-9.99949
▁graduat	-9.99979
▁Roku	-10.0011
▁Taisha	-10.0015
haku	-10.0024
eight	-10.0029
55	-10.0043
▁pass	-10.0048
▁YAMA	-10.005
▁offer	-10.0052
▁told	-10.0056
47	-10.0066
Raku	-10.0076
fine	-10.0081
>	-10.0084
▁th	-10.0091
▁Summary	-10.0095
▁background	-10.0095
▁consort	-10.0095
▁evidence	-10.0095
▁facility	-10.0095
▁husband	-10.0095
▁police	-10.0095
▁project	-10.0095
▁Mountain	-10.0095
▁black	-10.0095
▁million	-10.0095
▁supposed	-10.0095
▁surviv	-10.0095
▁space	-10.0095
▁surname	-10.0095
▁Constitution	-10.0095
▁Shinano	-10.0095
▁true	-10.0095
▁planned	-10.0095
Sakone	-10.0096
▁minutes	-10.0097
▁mind	-10.0099
▁least	-10.0099
▁sentence	-10.01
▁cake	-10.0101
▁eighth	-10.0102
▁reference	-10.0103
▁tra	-10.0104
▁captured	-10.0105
▁upper	-10.0105
▁Amaterasu	-10.0106
▁lacquer	-10.0106
▁Shotoku	-10.0107
▁impos	-10.0107
▁Five	-10.0108
▁Yoshimasa	-10.0113
▁Three	-10.0113
▁annual	-10.0113
▁soup	-10.0114
▁confirmed	-10.0119
▁guardian	-10.012
▁copy	-10.012
▁Toyotomi	-10.0121
▁grounds	-10.0122
▁Ichijo	-10.0125
tomi	-10.0125
art	-10.0135
▁participated	-10.0137
▁boiled	-10.0137
▁posthumous	-10.0139
ninth	-10.0141
▁Fudo	-10.0147
▁Kaga	-10.0147
▁Mito	-10.0157
▁simpl	-10.0158
all	-10.0158
▁strongly	-10.0162
mari	-10.0163
▁ingredients	-10.0184
▁remain	-10.0185
▁Shijo	-10.0187
▁sides	-10.0193
▁Gojo	-10.0196
▁mark	-10.02
64	-10.0201
▁turned	-10.0206
▁restaurants	-10.0212
akari	-10.0253
▁wall	-10.0261
▁continue	-10.0276
▁patterns	-10.0279
▁Shiki	-10.0287
▁Kanze	-10.0293
▁attract	-10.0307
east	-10.0316
▁vo	-10.0326
▁ill	-10.0336
▁Nichi	-10.0338
▁friend	-10.0341
eri	-10.0346
▁Ra	-10.0358
▁reconstruct	-10.036
▁los	-10.0373
SE	-10.0377
V	-10.0382
provision	-10.0385
▁Hot	-10.0386
▁Cha	-10.0388
▁den	-10.0394
Osaka	-10.04
ware	-10.041
▁techniques	-10.0423
▁battles	-10.0434
kage	-10.0443
82	-10.0456
▁21	-10.046
▁10,	-10.0491
▁farm	-10.0493
ON	-10.05
▁manag	-10.0507
▁medic	-10.0507
▁Kiku	-10.0523
ben	-10.0542
▁descend	-10.0545
▁Institute	-10.0549
▁Subway	-10.0549
▁advocat	-10.0549
▁community	-10.0549
▁domestic	-10.0549
▁economic	-10.0549
▁influential	-10.0549
▁regular	-10.0549
▁scroll	-10.0549
▁Bakufu	-10.0549
▁Nagoya	-10.0549
▁peasants	-10.0549
▁Karasuma	-10.0549
▁stock	-10.0549
▁behind	-10.0549
▁aspect	-10.0549
▁movie	-10.0549
▁India	-10.055
▁dead	-10.055
▁sugar	-10.055
▁plot	-10.055
▁Diet	-10.0552
▁relocated	-10.0552
▁copper	-10.0553
▁box	-10.0553
▁salt	-10.0554
rief	-10.0555
▁artist	-10.0557
▁Daijokan	-10.0557
▁fields	-10.0559
▁Daimyo	-10.056
▁announced	-10.0561
▁calligraphy	-10.0565
▁km	-10.0568
▁Daigaku	-10.0568
▁Okinawa	-10.0568
▁summer	-10.0568
▁Mibu	-10.0573
▁your	-10.0574
▁ca	-10.0578
▁propos	-10.0579
▁metal	-10.0581
▁Kasuga	-10.0584
▁servant	-10.0584
▁Hino	-10.0586
▁Com	-10.0589
▁care	-10.0591
▁source	-10.0592
▁Yamana	-10.0597
▁Ume	-10.0606
▁wanted	-10.0608
▁wine	-10.0616
▁items	-10.0623
made	-10.0627
artial	-10.0647
▁follow	-10.0648
gree	-10.066
▁Den	-10.0661
▁vice	-10.0662
▁Saigo	-10.0663
▁bean	-10.0666
▁i	-10.0667
ber	-10.0682
▁send	-10.0683
▁flavor	-10.0709
guri	-10.0711
▁conditions	-10.0722
ASHI	-10.0725
▁60	-10.073
▁plays	-10.0751
▁forms	-10.0754
1.	-10.0758
▁70	-10.0768
▁Unit	-10.0792
▁Izu	-10.0798
▁shaku	-10.0801
▁ancestor	-10.0815
▁figures	-10.0833
51	-10.0836
(	-10.0837
▁flowers	-10.0844
ari	-10.0858
▁nine	-10.0862
Buddhist	-10.0865
direct	-10.0865
written	-10.0865
master	-10.0865
her	-10.0875
▁assistant	-10.0878
io	-10.0885
▁bushi	-10.0896
▁die	-10.0912
▁exists	-10.0923
▁succeed	-10.0926
sue	-10.0932
nao	-10.094
pet	-10.0947
▁Saka	-10.0951
▁tr	-10.0954
▁Hata	-10.0956
▁accord	-10.0962
▁surround	-10.0962
▁Sha	-10.0964
0,	-10.097
▁manage	-10.0972
top	-10.0973
j	-10.0984
iki	-10.0989
▁suppress	-10.0994
▁shar	-10.0997
▁decline	-10.0998
tory	-10.0999
▁Dazai	-10.1021
▁Express	-10.1024
dokoro	-10.1025
▁Bodhisattva	-10.1025
▁English	-10.1025
▁ICHIJO	-10.1025
▁SAIONJI	-10.1025
▁duties	-10.1025
▁enough	-10.1025
▁floor	-10.1025
▁university	-10.1025
▁serious	-10.1025
▁edict	-10.1025
▁Jushiino	-10.1025
▁wealth	-10.1025
▁Series	-10.1025
▁Okayama	-10.1025
▁coast	-10.1025
▁Kingdom	-10.1026
▁thirty	-10.1026
▁machine	-10.1026
▁dried	-10.1026
▁deliver	-10.1026
ssibility	-10.1026
▁Enryaku	-10.1027
▁element	-10.1027
▁Michizane	-10.1027
▁Minami	-10.1029
▁farmers	-10.1029
▁assist	-10.103
▁slight	-10.103
▁Gifu	-10.1035
▁Gate	-10.1042
▁punished	-10.1043
▁invad	-10.1043
efore	-10.1044
▁Government	-10.1046
▁defense	-10.1046
▁replaced	-10.1047
▁executed	-10.1048
▁Ex	-10.1049
▁enshrine	-10.1058
▁titles	-10.1062
▁Kokushi	-10.1068
▁attain	-10.1069
▁Todai	-10.1076
▁magistrate	-10.1078
Tsu	-10.1078
▁Izumi	-10.1084
zaka	-10.1088
kado	-10.109
▁approved	-10.1092
▁crossing	-10.11
new	-10.1106
▁currently	-10.111
▁Daishi	-10.1123
▁Mochi	-10.1131
Provi	-10.1131
▁Oe	-10.1136
Ni	-10.1138
▁quality	-10.1143
▁Nyo	-10.1155
tetsu	-10.1158
▁closed	-10.1163
▁Rin	-10.1168
▁mostly	-10.1175
▁Kinki	-10.1177
▁greatly	-10.1187
46	-10.1197
▁30,	-10.1209
▁concerned	-10.1238
raki	-10.1269
▁am	-10.127
▁8,	-10.1274
ever	-10.1277
▁Haku	-10.1296
▁Ono	-10.1311
▁Li	-10.1311
▁pattern	-10.1317
▁leave	-10.132
▁ruin	-10.1321
▁laws	-10.1347
military	-10.1365
three	-10.1365
New	-10.1365
Shu	-10.1368
▁measure	-10.1369
bound	-10.1372
jaku	-10.1384
▁ver	-10.1406
▁Record	-10.1434
▁alli	-10.1455
▁gra	-10.1472
kun	-10.1478
▁rever	-10.1485
▁evening	-10.1496
▁separate	-10.1498
▁translat	-10.1512
▁meant	-10.1513
大	-10.1525
▁Rebellion	-10.1525
▁SOGA	-10.1525
▁academic	-10.1525
▁circumstances	-10.1525
▁doctrine	-10.1525
▁focus	-10.1525
▁identified	-10.1525
▁mausoleum	-10.1525
▁nobility	-10.1525
▁opponent	-10.1525
▁reflect	-10.1525
▁revolt	-10.1525
▁Hosokawa	-10.1525
▁dress	-10.1525
▁steam	-10.1525
▁twenty	-10.1525
▁understand	-10.1525
▁invasion	-10.1525
▁subdue	-10.1525
▁lectur	-10.1525
▁Tohoku	-10.1525
▁comic	-10.1526
▁Sessho	-10.1526
▁Hitachi	-10.1526
▁tourist	-10.1527
▁Shirakawa	-10.1527
▁deputy	-10.1528
▁Ishikawa	-10.1528
▁equal	-10.1529
▁professional	-10.153
▁Sadaijin	-10.153
▁2008	-10.1531
▁INOUE	-10.1531
▁chant	-10.1531
▁extreme	-10.1532
▁eaten	-10.1532
▁Originally	-10.1532
▁fund	-10.1535
▁Katsura	-10.1536
▁Okimi	-10.1536
▁villages	-10.1537
87	-10.1537
▁Tan	-10.1537
▁Code	-10.1538
▁Kagami	-10.1542
▁arranged	-10.1544
▁incorporated	-10.1544
▁someone	-10.1545
arm	-10.1547
nushi	-10.155
▁promot	-10.155
▁daisho	-10.1551
umi	-10.1553
▁determined	-10.1554
▁Seiwa	-10.1554
▁connection	-10.1556
▁erect	-10.1562
▁Uesugi	-10.1564
WARA	-10.1565
▁Seki	-10.1567
nokami	-10.1569
▁TAKA	-10.1574
▁don	-10.1575
▁18,	-10.1575
▁Hiko	-10.1578
kabuki	-10.1586
▁Kimi	-10.1599
▁remaining	-10.1599
hose	-10.1602
▁Kurama	-10.1617
▁Gan	-10.1623
▁kata	-10.1625
▁relations	-10.1641
terior	-10.1649
refer	-10.1652
▁maintained	-10.1654
41	-10.1659
gei	-10.1671
▁shall	-10.1688
▁han	-10.1703
▁Myoo	-10.1713
▁ware	-10.1716
▁TAKE	-10.175
▁Da	-10.1752
mage	-10.1756
▁Koshi	-10.1759
▁Koma	-10.1767
▁im	-10.1777
▁Sue	-10.1816
▁gin	-10.1832
lk	-10.1836
▁scholar	-10.1841
Chronicle	-10.1844
▁manner	-10.1844
▁Kon	-10.1846
▁songs	-10.1851
bito	-10.1864
▁Oshi	-10.1866
▁decorat	-10.1866
▁Kasa	-10.1867
▁arms	-10.1874
acy	-10.1883
Momoyama	-10.1885
Major	-10.1885
ritsu	-10.1885
person	-10.1893
type	-10.1896
ise	-10.1907
oke	-10.191
▁Hana	-10.1911
▁50	-10.1917
cul	-10.1928
Han	-10.1934
RO	-10.1947
▁accept	-10.1951
▁inherit	-10.1952
▁Pro	-10.1973
sel	-10.1986
▁build	-10.1988
Sen	-10.2003
dayu	-10.2007
50	-10.2013
▁inter	-10.2013
▁months	-10.2019
▁advance	-10.2025
Nan	-10.2025
▁previous	-10.2026
▁calligraph	-10.2033
▁Four	-10.2042
▁move	-10.2044
▁weak	-10.2045
boku	-10.2049
▁North	-10.205
▁flour	-10.2051
%	-10.2052
=	-10.2052
▁Corporation	-10.2052
▁DATE	-10.2052
▁Disturbance	-10.2052
▁Modern	-10.2052
▁People	-10.2052
▁Properties	-10.2052
▁Science	-10.2052
▁TACHIBANA	-10.2052
▁applied	-10.2052
▁check	-10.2052
▁critical	-10.2052
▁emerged	-10.2052
▁license	-10.2052
▁passengers	-10.2052
▁peerage	-10.2052
▁procedure	-10.2052
▁Agency	-10.2052
▁Kagoshima	-10.2052
▁TANAKA	-10.2052
▁finance	-10.2052
▁overthrow	-10.2052
▁Subsequent	-10.2052
▁Women	-10.2052
▁evil	-10.2052
▁scriptures	-10.2052
▁trend	-10.2052
Pacific	-10.2052
▁flourished	-10.2052
▁guest	-10.2052
▁assassinated	-10.2052
▁medicine	-10.2053
▁feeling	-10.2053
▁executive	-10.2053
tsukasa	-10.2053
▁Rokuhara	-10.2053
▁TAKEDA	-10.2053
▁winter	-10.2053
▁market	-10.2054
▁Ryukyu	-10.2054
▁Tokitada	-10.2054
▁desire	-10.2055
▁refused	-10.2057
▁organized	-10.2057
▁Hankyu	-10.2057
▁strengthen	-10.2057
▁rock	-10.2058
▁Nagayoshi	-10.2058
▁tower	-10.2061
▁preserved	-10.2063
▁alone	-10.2064
▁popularity	-10.2065
▁rules	-10.2066
▁protection	-10.2066
81	-10.2067
▁Rokujo	-10.2067
▁Miyazu	-10.2068
▁preparation	-10.2068
Bu	-10.2069
▁Jingi	-10.2069
▁Kurodo	-10.207
▁Day	-10.207
76	-10.2071
ration	-10.2071
▁Kugyo	-10.2072
urban	-10.2073
▁introduction	-10.2075
▁successively	-10.2076
▁failed	-10.2076
▁Tsuna	-10.2078
▁Sagami	-10.2079
▁headquarters	-10.208
▁studies	-10.2081
▁fixed	-10.2082
▁revealed	-10.2082
▁ruler	-10.2087
▁architecture	-10.2091
▁obtained	-10.2093
▁Lady	-10.2093
▁secretary	-10.2096
super	-10.2098
▁race	-10.2099
▁Koto	-10.2101
▁reduced	-10.2104
▁receiv	-10.2109
▁SAKA	-10.211
hata	-10.2111
▁Historical	-10.2113
▁eating	-10.212
▁expression	-10.2125
▁115	-10.213
▁warm	-10.213
▁clothing	-10.2135
zei	-10.2143
▁KAWA	-10.2149
▁Shiro	-10.2155
▁trial	-10.2157
▁Nai	-10.2157
sional	-10.216
ished	-10.2179
▁Aka	-10.2185
▁35	-10.2202
▁cm	-10.2226
▁factor	-10.2237
masu	-10.2244
▁cit	-10.2251
▁features	-10.2253
▁19,	-10.226
▁earn	-10.2261
▁Sato	-10.2266
▁Records	-10.2279
chan	-10.2289
Ran	-10.2295
▁HI	-10.23
▁Mie	-10.23
▁doll	-10.231
▁commit	-10.2317
daka	-10.2319
▁stated	-10.2332
lled	-10.2334
nabe	-10.2342
▁koto	-10.235
▁periods	-10.2371
getsu	-10.2375
saw	-10.2383
Kin	-10.2393
▁n	-10.2397
▁condition	-10.2398
▁player	-10.2399
eous	-10.2417
▁fee	-10.2438
rice	-10.2438
waki	-10.2439
resident	-10.244
modern	-10.2446
while	-10.2446
from	-10.2447
count	-10.2447
▁9,	-10.2456
Fuku	-10.2458
▁anecdote	-10.2461
pping	-10.2463
Nara	-10.2464
Shinto	-10.2465
▁paste	-10.2466
▁chang	-10.2474
there	-10.2478
▁tan	-10.2491
▁construct	-10.25
▁adopt	-10.2501
▁castles	-10.2505
lower	-10.251
ntil	-10.2512
▁sweet	-10.2517
▁Soga	-10.252
▁king	-10.2523
▁feature	-10.2535
▁fac	-10.254
▁historic	-10.2546
▁sell	-10.2553
▁eat	-10.256
▁resident	-10.2562
▁escape	-10.258
▁successive	-10.2583
Kai	-10.2587
mizu	-10.2588
69	-10.2592
zed	-10.2593
▁classic	-10.2599
▁governors	-10.26
▁transport	-10.2602
lock	-10.2602
▁match	-10.2602
▁mat	-10.2603
▁import	-10.2604
▁specific	-10.2605
▁SHIBA	-10.2606
▁devot	-10.2606
▁bow	-10.2606
▁Foreign	-10.2607
▁SHIMAZU	-10.2607
▁Society	-10.2607
▁UESUGI	-10.2607
▁approach	-10.2607
▁contrast	-10.2607
▁diplomat	-10.2607
▁expedition	-10.2607
▁mirror	-10.2607
▁question	-10.2607
▁trouble	-10.2607
▁Matters	-10.2607
▁concurrently	-10.2607
▁monument	-10.2607
▁search	-10.2607
▁Juichii	-10.2607
▁KATO	-10.2607
▁platoon	-10.2607
▁truth	-10.2607
▁attention	-10.2607
▁dancing	-10.2607
▁agreement	-10.2607
▁repair	-10.2607
▁trust	-10.2607
▁Wood	-10.2607
▁Thus	-10.2607
▁edited	-10.2607
▁royal	-10.2607
▁yeast	-10.2608
▁Train	-10.2608
▁adult	-10.2608
▁broad	-10.2608
▁prais	-10.2608
▁Naidaijin	-10.2608
▁gift	-10.2608
▁expect	-10.2608
▁giving	-10.2608
▁KONOE	-10.2608
▁Sanuki	-10.2608
▁Theater	-10.2608
▁Iwakura	-10.261
▁1869	-10.261
▁Imagawa	-10.2611
▁degree	-10.2611
▁price	-10.2611
▁key	-10.2612
▁2005	-10.2613
▁transportation	-10.2613
▁unclear	-10.2613
▁Wakayama	-10.2616
▁rain	-10.2616
▁Kazusa	-10.2616
▁Hiroshima	-10.2617
▁subordinate	-10.2618
▁copie	-10.2619
▁free	-10.262
▁distributed	-10.2622
▁Chugu	-10.2623
▁cold	-10.2623
▁reality	-10.2623
▁Kinai	-10.2624
▁moon	-10.2624
▁Chiba	-10.2627
▁grain	-10.2627
▁successful	-10.2628
▁Kaku	-10.263
▁sects	-10.2631
▁Jizo	-10.2633
▁dismissed	-10.2633
mentary	-10.2636
▁plain	-10.2637
▁painted	-10.264
▁Shingen	-10.2646
▁rise	-10.2648
▁Ura	-10.2649
▁practical	-10.2657
▁Gaku	-10.2661
▁Omiya	-10.2663
▁departed	-10.2663
▁Maru	-10.267
▁74	-10.2675
▁Easter	-10.2677
▁employed	-10.268
▁*	-10.2688
IN	-10.269
▁Iku	-10.2702
suki	-10.2714
▁mis	-10.2718
▁taxi	-10.2719
Y	-10.2725
▁practices	-10.2731
▁tools	-10.2736
▁fr	-10.2746
▁reported	-10.2749
▁sur	-10.2749
waka	-10.2767
▁zo	-10.2802
▁comp	-10.281
▁residents	-10.2822
▁Ima	-10.2836
▁Es	-10.2838
▁Bas	-10.2846
set	-10.2851
▁(17	-10.2856
▁bugyo	-10.287
▁Kana	-10.288
koshi	-10.2887
ita	-10.2908
bata	-10.2909
▁75	-10.2923
▁goods	-10.2925
40	-10.2927
▁Shaka	-10.2932
rail	-10.2943
bumi	-10.2951
25	-10.2961
44	-10.2967
▁range	-10.2979
▁effort	-10.2985
▁content	-10.2987
▁piece	-10.2988
shed	-10.2989
▁troop	-10.299
gy	-10.2999
NAGA	-10.3015
kuri	-10.3027
Kyo	-10.3029
fish	-10.303
play	-10.3034
period	-10.3035
first	-10.3035
▁Today	-10.3037
Ryo	-10.3067
▁stra	-10.3068
HO	-10.3081
▁develop	-10.3092
Yu	-10.3094
▁basic	-10.3095
eak	-10.3117
▁product	-10.3117
TO	-10.3124
▁runs	-10.3124
scale	-10.3129
▁meet	-10.3135
▁Ii	-10.3136
Shoku	-10.3141
▁Koga	-10.3142
▁Haya	-10.3151
aries	-10.3168
▁rapid	-10.317
▁retain	-10.3177
▁fel	-10.3181
stood	-10.3189
▁Mizu	-10.319
▁occur	-10.3194
▁trans	-10.3195
▁reject	-10.3195
territorial	-10.3195
▁College	-10.3195
▁MIYOSHI	-10.3195
▁Statue	-10.3195
▁anniversary	-10.3195
▁arrangement	-10.3195
▁bridge	-10.3195
▁criticism	-10.3195
▁deceased	-10.3195
▁emphasi	-10.3195
▁heavy	-10.3195
▁holiday	-10.3195
▁instruction	-10.3195
▁progress	-10.3195
▁responsible	-10.3195
▁stipend	-10.3195
▁superior	-10.3195
▁typical	-10.3195
▁double	-10.3195
▁funeral	-10.3195
▁captain	-10.3195
▁Sukune	-10.3195
▁decree	-10.3195
▁Tottori	-10.3195
▁Yamashina	-10.3195
▁gokenin	-10.3195
▁Gotoba	-10.3195
▁expert	-10.3195
▁girl	-10.3195
▁Order	-10.3196
▁constable	-10.3196
itially	-10.3196
▁Atago	-10.3196
▁SAIGO	-10.3196
▁expand	-10.3196
▁twel	-10.3197
▁soul	-10.3197
▁medium	-10.3197
▁confrontation	-10.3197
▁shift	-10.3198
▁president	-10.3198
▁estimat	-10.3198
▁execution	-10.3199
▁damage	-10.3199
▁paid	-10.3199
▁Currently	-10.3199
▁1872	-10.32
▁archery	-10.3202
▁understood	-10.3202
▁TV	-10.3203
▁2004	-10.3203
▁Hyaku	-10.3203
▁oil	-10.3203
▁suddenly	-10.3204
▁despi	-10.3204
▁promotion	-10.3204
▁Ako	-10.3207
▁Shigemori	-10.3208
▁foreigners	-10.3208
▁bowl	-10.321
▁hour	-10.3211
tara	-10.3211
▁self	-10.3212
▁cast	-10.3213
▁setting	-10.3213
▁Tokaido	-10.3214
▁Kawara	-10.3215
▁Horyu	-10.3215
▁Mean	-10.3216
▁Ukon	-10.3216
▁Yoshitaka	-10.3216
▁exclud	-10.3216
▁Christian	-10.3218
▁harvest	-10.3221
▁correct	-10.3221
▁Ara	-10.3222
▁path	-10.3222
wan	-10.3224
▁interpret	-10.3225
zawa	-10.3231
▁contribution	-10.3231
▁pair	-10.3232
▁game	-10.3237
▁Onmyo	-10.3239
▁Military	-10.3241
▁Saku	-10.3245
▁Yuan	-10.325
▁kuge	-10.3255
uct	-10.3257
▁tumulus	-10.3261
▁block	-10.3263
▁ban	-10.3266
▁156	-10.3267
ippon	-10.3275
taisha	-10.3278
▁height	-10.3289
▁Minbu	-10.3299
▁controlled	-10.3317
▁temporar	-10.3322
kubo	-10.3322
▁ability	-10.3333
kama	-10.3341
taku	-10.3346
▁Tatsu	-10.3349
shichi	-10.3393
▁Hama	-10.3393
▁efforts	-10.341
▁Sea	-10.3411
▁Le	-10.3415
abi	-10.3434
▁scholars	-10.3436
dama	-10.3447
15	-10.3449
▁ancestors	-10.3463
3)	-10.3477
▁literally	-10.3495
▁customs	-10.3498
▁founding	-10.3499
▁Jushi	-10.3516
▁integrat	-10.3532
toyo	-10.3542
▁stand	-10.3549
motsu	-10.3562
▁matters	-10.3569
ative	-10.3574
▁Tora	-10.3574
80	-10.358
▁Shiba	-10.3581
cred	-10.3582
▁Kumano	-10.3605
▁suggest	-10.3609
▁heart	-10.3627
Ji	-10.3632
▁codes	-10.3636
sode	-10.3641
▁lives	-10.3645
Master	-10.3654
KAWA	-10.3655
General	-10.3657
board	-10.3657
approx	-10.3658
brother	-10.3659
high	-10.3659
March	-10.3659
including	-10.366
second	-10.366
government	-10.366
general	-10.3661
book	-10.3666
52	-10.3667
about	-10.3677
▁500	-10.369
five	-10.3695
▁Pa	-10.3702
▁dispatch	-10.372
▁numbers	-10.3729
▁NA	-10.3755
▁pen	-10.3788
kagami	-10.3802
▁KAN	-10.3809
▁working	-10.3814
scribed	-10.3814
reservation	-10.3818
!	-10.382
–	-10.382
▁French	-10.382
▁SAITO	-10.382
▁Special	-10.382
▁agricultur	-10.382
▁instrument	-10.382
▁science	-10.382
▁secular	-10.382
▁separation	-10.382
▁seppuku	-10.382
▁taught	-10.382
▁treaty	-10.382
▁Further	-10.382
▁appropriate	-10.382
▁hakase	-10.382
▁judicia	-10.382
▁Hokke	-10.382
▁crown	-10.382
▁mouth	-10.382
▁mixed	-10.382
▁Otani	-10.3821
▁proceed	-10.3821
▁excavated	-10.3821
▁green	-10.3821
▁division	-10.3821
▁Oama	-10.3821
▁quarter	-10.3821
▁stick	-10.3821
▁rough	-10.3821
GAWA	-10.3821
▁cherr	-10.3821
▁SATO	-10.3822
▁chujo	-10.3822
▁yet	-10.3822
▁Asano	-10.3822
▁throw	-10.3822
GUCHI	-10.3822
▁SUGA	-10.3822
▁illness	-10.3822
saburo	-10.3825
▁Rikyu	-10.3825
▁unified	-10.3825
▁forth	-10.3826
▁Reform	-10.3826
▁Nagamasa	-10.3828
That	-10.3829
▁Eight	-10.3829
▁Shimazu	-10.3831
▁Tsushima	-10.3831
▁OUCHI	-10.3832
▁Inaba	-10.3832
▁Nohgaku	-10.3834
▁Platform	-10.3837
▁Dewa	-10.3838
▁complete	-10.3839
▁our	-10.3839
▁boat	-10.3843
▁reward	-10.3844
boshi	-10.3845
▁Sendai	-10.3848
▁Otomo	-10.3849
▁poor	-10.3851
▁Kubo	-10.3856
▁Basho	-10.3856
▁disappeared	-10.3857
▁taxes	-10.3859
▁Okura	-10.386
▁Saicho	-10.3862
▁happened	-10.3863
▁Generally	-10.3864
▁begin	-10.3865
▁accus	-10.3866
▁Uta	-10.3869
▁precincts	-10.3869
▁Mura	-10.3873
▁Yoshinori	-10.3875
▁clearly	-10.3875
▁arrested	-10.3877
▁Honno	-10.3877
▁leg	-10.3882
▁prohibited	-10.3883
▁Nagano	-10.3896
▁Min	-10.3898
juku	-10.3907
▁inscription	-10.3909
▁Out	-10.3914
▁Aichi	-10.3916
▁Kira	-10.3917
▁passing	-10.3918
▁sons	-10.3923
▁Nagato	-10.3923
▁Chief	-10.3923
onsen	-10.3926
▁(12	-10.3941
UCHI	-10.3944
▁points	-10.3948
▁Hoko	-10.3954
▁thank	-10.3962
▁manager	-10.3963
▁eyes	-10.3966
▁Soto	-10.3972
▁Naishi	-10.3974
▁surrendered	-10.3984
▁kon	-10.3996
fac	-10.4012
▁dan	-10.4018
▁covered	-10.4024
EN	-10.4029
tenno	-10.4029
▁hear	-10.403
▁ever	-10.4038
▁stands	-10.4041
hiki	-10.4057
akira	-10.406
▁Date	-10.4072
▁continu	-10.4073
owned	-10.4084
▁Shoshi	-10.4084
hu	-10.4092
▁168	-10.4113
Councilor	-10.412
▁walls	-10.4123
▁Uchi	-10.4124
▁air	-10.4148
▁problems	-10.4148
tate	-10.4153
bue	-10.4154
▁Pre	-10.416
lf	-10.4166
chiro	-10.4172
tachi	-10.4172
Taka	-10.4175
ium	-10.418
daira	-10.4194
▁rate	-10.421
He	-10.4228
▁Oku	-10.4239
▁relatives	-10.4248
▁Arts	-10.4259
monin	-10.4264
▁gl	-10.4272
▁tale	-10.4276
▁Hito	-10.428
▁plant	-10.4281
▁detail	-10.4281
▁KI	-10.4286
mark	-10.4324
Record	-10.4325
October	-10.4326
strict	-10.4326
local	-10.4326
family	-10.4327
with	-10.4327
where	-10.4327
Heike	-10.4327
JR	-10.4328
fall	-10.4339
▁dramas	-10.4341
▁Tsuku	-10.4345
vice	-10.4346
Tokyo	-10.4346
Cho	-10.4364
quality	-10.4369
▁kyo	-10.4371
May	-10.4374
▁demand	-10.4384
▁implement	-10.4385
▁register	-10.4386
▁destroy	-10.4386
▁introduc	-10.4387
assistant	-10.4398
▁comment	-10.4416
▁movements	-10.442
uri	-10.4423
▁believe	-10.4435
yabe	-10.4443
some	-10.4446
tum	-10.4449
njaku	-10.4469
▁bar	-10.447
ugh	-10.4471
ties	-10.4473
▁exhibit	-10.4474
.5	-10.4474
▁write	-10.4475
knowledge	-10.4478
▁recommend	-10.4481
▁camp	-10.4482
minute	-10.4484
▁reorganiz	-10.4487
Chamberlain	-10.4487
▁Capital	-10.4487
▁Confuci	-10.4487
▁KUSUNOKI	-10.4487
▁KYOGOKU	-10.4487
▁TAKATSUKASA	-10.4487
▁application	-10.4487
▁beauty	-10.4487
▁behavior	-10.4487
▁cloister	-10.4487
▁completion	-10.4487
▁concubine	-10.4487
▁draft	-10.4487
▁episode	-10.4487
▁exempt	-10.4487
▁fierce	-10.4487
▁fortune	-10.4487
▁honorific	-10.4487
▁narrow	-10.4487
▁nephew	-10.4487
▁policies	-10.4487
▁predecessor	-10.4487
▁response	-10.4487
▁situated	-10.4487
▁Arashiyama	-10.4487
▁corner	-10.4487
▁engineer	-10.4487
▁revised	-10.4487
▁sitting	-10.4487
▁underground	-10.4487
▁Hokuriku	-10.4487
▁border	-10.4487
▁prison	-10.4487
▁Person	-10.4487
▁Samurai	-10.4487
▁costume	-10.4487
▁egg	-10.4487
▁extent	-10.4487
zaburo	-10.4487
▁1889	-10.4487
▁Silla	-10.4487
▁1867	-10.4487
▁1871	-10.4487
▁affect	-10.4487
▁easy	-10.4487
▁snow	-10.4487
▁Region	-10.4487
▁brewing	-10.4487
venue	-10.4487
▁Besides	-10.4487
hachiman	-10.4487
▁secure	-10.4487
▁personnel	-10.4487
▁explo	-10.4487
▁ornament	-10.4487
▁thirteen	-10.4487
▁wrapp	-10.4487
▁Port	-10.4487
▁leaving	-10.4487
▁campaign	-10.4488
▁rites	-10.4488
▁Bicchu	-10.4488
kofun	-10.4488
▁resistance	-10.4488
▁pilgrimage	-10.4488
▁Murakami	-10.4488
▁Yamaguchi	-10.4489
speci	-10.4489
▁pull	-10.4489
▁raid	-10.4489
▁donated	-10.449
▁health	-10.449
▁confusion	-10.4491
▁compet	-10.4492
▁lack	-10.4492
▁flag	-10.4492
▁constitution	-10.4492
▁municipal	-10.4492
▁string	-10.4493
▁iron	-10.4494
▁Mitsunari	-10.4495
▁Engishiki	-10.4495
▁Myojin	-10.4496
▁Yoshitomo	-10.4497
▁Masashige	-10.4497
▁Seven	-10.4497
▁exit	-10.4498
▁participate	-10.4498
▁Teru	-10.4499
▁Masayuki	-10.4499
▁Takakura	-10.4499
▁concluded	-10.45
▁illustrat	-10.45
▁Tadayoshi	-10.4501
▁AKECHI	-10.4502
▁fled	-10.4503
▁Hakata	-10.4503
▁->	-10.4503
▁wind	-10.4505
▁Akashi	-10.4506
▁Kengyo	-10.4508
▁Takakuni	-10.4508
mata	-10.4509
▁moment	-10.4511
▁confiscated	-10.4512
▁soft	-10.4513
▁banish	-10.4517
▁Reizei	-10.4517
▁decoration	-10.4521
▁Yoshimoto	-10.4522
▁centimeters	-10.4524
▁finished	-10.4526
▁rarely	-10.4528
▁hat	-10.453
▁save	-10.4534
▁conflicts	-10.4536
▁formation	-10.4537
▁Shomu	-10.4539
▁Dutch	-10.4541
▁Jiro	-10.4543
ured	-10.4546
ebi	-10.4559
▁branches	-10.4559
▁holder	-10.4567
▁36	-10.4568
▁displayed	-10.4576
▁sla	-10.4579
▁regulations	-10.4583
▁extended	-10.4584
▁implemented	-10.459
AKURA	-10.4599
dachi	-10.4599
▁Noto	-10.4601
▁grade	-10.4601
▁Gosho	-10.4607
▁weapons	-10.4613
▁acc	-10.4616
▁bl	-10.4619
nagi	-10.4627
▁negotiations	-10.4628
▁Bon	-10.4634
▁mass	-10.4637
▁ink	-10.4637
train	-10.4645
lace	-10.4657
▁Shio	-10.4669
▁Tosho	-10.4673
▁forward	-10.468
▁festivals	-10.4683
fully	-10.4688
▁Hatsu	-10.47
▁trip	-10.4713
wake	-10.4714
▁sum	-10.4715
▁acting	-10.4719
linked	-10.4719
cate	-10.4727
▁contents	-10.4733
tsuji	-10.4747
▁powers	-10.4751
chiyo	-10.4769
▁daibu	-10.4787
▁stat	-10.4803
Ge	-10.4852
▁Treasures	-10.4854
choku	-10.4864
▁yaki	-10.4874
▁ran	-10.4899
▁tracks	-10.49
▁media	-10.4916
Pa	-10.4919
ryaku	-10.4922
▁rituals	-10.493
▁opinions	-10.493
BU	-10.4936
cutting	-10.494
▁operate	-10.4943
▁81	-10.4949
▁roles	-10.4971
▁120	-10.4999
▁Pi	-10.5009
▁Kuma	-10.5009
▁Of	-10.5011
On	-10.5029
ability	-10.5033
according	-10.504
work	-10.504
▁uchi	-10.504
huge	-10.5043
member	-10.5045
shita	-10.505
Thi	-10.5054
hand	-10.5058
shisha	-10.5061
mote	-10.5063
▁districts	-10.5068
buki	-10.5073
back	-10.5076
KO	-10.5077
Tang	-10.5083
such	-10.509
▁Rai	-10.5093
▁simple	-10.5096
▁extend	-10.5099
▁approv	-10.51
▁abolish	-10.5102
west	-10.5108
tended	-10.511
▁squad	-10.5111
▁coat	-10.5111
▁200	-10.512
oyal	-10.5126
▁ranking	-10.5136
bean	-10.5142
▁126	-10.5162
ography	-10.5173
▁invit	-10.5175
▁Tenjin	-10.5175
▁immediate	-10.5176
verse	-10.518
▁fla	-10.5182
▁ear	-10.5182
NOUE	-10.5194
▁strength	-10.5194
▁differ	-10.5198
、	-10.5201
undred	-10.5201
▁utiliz	-10.5201
ZAKI	-10.5201
▁Control	-10.5201
▁HATAKEYAMA	-10.5201
▁Mausoleum	-10.5201
▁Mirror	-10.5201
▁OKUBO	-10.5201
▁animals	-10.5201
▁automatic	-10.5201
▁bureaucrat	-10.5201
▁chicken	-10.5201
▁competition	-10.5201
▁fief	-10.5201
▁library	-10.5201
▁magazine	-10.5201
▁monogatari	-10.5201
▁neighbor	-10.5201
▁philosophy	-10.5201
▁probably	-10.5201
▁prosperity	-10.5201
▁rumor	-10.5201
▁settlement	-10.5201
▁significant	-10.5201
▁struggle	-10.5201
▁virtue	-10.5201
▁wrestler	-10.5201
▁ISHIKAWA	-10.5201
▁Local	-10.5201
▁ladies	-10.5201
▁width	-10.5201
▁Shimotsuke	-10.5201
▁thick	-10.5201
▁uniform	-10.5201
▁France	-10.5201
▁distance	-10.5201
▁drawing	-10.5201
▁labor	-10.5201
▁overseas	-10.5201
▁Sometimes	-10.5201
▁besieg	-10.5201
▁hatamoto	-10.5201
▁crime	-10.5201
▁cousin	-10.5201
▁characteristics	-10.5201
▁Saionji	-10.5202
▁Clan	-10.5202
Kitakinki	-10.5202
▁manufacturing	-10.5202
▁Though	-10.5202
▁Kanazawa	-10.5202
speaking	-10.5202
▁pillar	-10.5202
▁spell	-10.5202
▁Fire	-10.5202
▁ASANO	-10.5202
▁enlightenment	-10.5202
▁fundoshi	-10.5202
▁hakama	-10.5203
ZAWA	-10.5203
▁cub	-10.5203
▁break	-10.5203
▁entry	-10.5203
▁HINO	-10.5204
afety	-10.5204
▁assert	-10.5204
▁Hotel	-10.5204
▁Kanezane	-10.5204
▁juice	-10.5205
▁Heiji	-10.5205
▁Nikko	-10.5207
▁fence	-10.5208
▁Kobu	-10.5209
▁Dazaifu	-10.5209
▁genealogy	-10.5209
▁visitors	-10.521
▁Kameyama	-10.521
▁princess	-10.5211
▁Saemon	-10.5211
▁improv	-10.5212
▁Ishiyama	-10.5212
▁urg	-10.5213
▁1600	-10.5213
▁exhibition	-10.5215
▁quickly	-10.5216
gasaki	-10.5216
▁Masanori	-10.5219
▁Miyoshi	-10.522
▁Public	-10.522
▁American	-10.5223
mission	-10.5223
▁Shaku	-10.5223
▁tata	-10.5227
▁chose	-10.5229
▁Takashima	-10.5229
▁Asahi	-10.5229
▁YOSHI	-10.5232
▁Commander	-10.5233
▁privilege	-10.5233
▁Hanazono	-10.5233
▁portion	-10.5233
▁combined	-10.5234
▁Sung	-10.5235
08	-10.5237
▁Bungo	-10.5239
▁HIRA	-10.524
▁proposal	-10.5241
▁abandoned	-10.5243
▁posthumously	-10.5244
▁statement	-10.5246
▁Awaji	-10.5249
▁pan	-10.5251
▁Song	-10.5251
▁printing	-10.5257
▁Kitano	-10.5258
Kami	-10.5258
▁Ezo	-10.526
▁Goryo	-10.5262
▁attacks	-10.5264
▁winn	-10.5264
▁afterward	-10.5265
▁Tenchi	-10.5267
▁Award	-10.5281
▁Inari	-10.5299
▁farming	-10.5306
▁Head	-10.5314
uring	-10.5316
▁Tru	-10.5324
29	-10.5325
▁Masako	-10.5328
▁spit	-10.533
▁musical	-10.5343
rical	-10.5358
▁suppressed	-10.5358
▁edge	-10.5361
▁fat	-10.5366
hin	-10.5368
cap	-10.5387
hitsu	-10.5387
▁Usa	-10.5389
▁fare	-10.5391
▁Kochi	-10.5393
▁ring	-10.5409
▁centraliz	-10.5426
▁tw	-10.5437
▁suggests	-10.545
▁tall	-10.5464
kuma	-10.5472
▁SEN	-10.5473
▁colored	-10.549
▁warr	-10.5522
ISHI	-10.5527
goto	-10.5536
▁bak	-10.5539
▁grandchild	-10.5557
▁Or	-10.5578
▁Tate	-10.5603
▁individuals	-10.5613
▁pictures	-10.563
▁originat	-10.5654
▁internal	-10.5677
Ga	-10.5712
▁mochi	-10.5713
tta	-10.5739
▁organizations	-10.5762
▁routes	-10.5762
▁restaurant	-10.5762
▁Shoko	-10.5773
▁shop	-10.5777
▁looks	-10.5778
pass	-10.5779
▁doing	-10.579
shrine	-10.5793
▁shaped	-10.58
▁Teishi	-10.58
▁Oni	-10.5801
sweet	-10.5803
▁colors	-10.5804
Azuma	-10.5804
six	-10.5804
located	-10.5806
temporar	-10.5807
official	-10.5809
samurai	-10.581
wood	-10.581
color	-10.581
two	-10.5811
Myo	-10.5811
lord	-10.5812
Yamato	-10.5816
point	-10.582
making	-10.5832
▁remov	-10.5836
An	-10.5845
▁explain	-10.5867
▁employ	-10.5869
▁display	-10.5871
▁changes	-10.5877
▁stores	-10.5879
▁dro	-10.588
▁want	-10.588
itation	-10.5893
chiku	-10.5896
▁regional	-10.5897
nichi	-10.5904
▁Fusa	-10.5909
▁117	-10.591
▁architectur	-10.5912
▁buri	-10.5915
▁craft	-10.5917
igata	-10.5918
▁performances	-10.593
▁symbol	-10.5934
93	-10.5945
▁final	-10.5946
▁insist	-10.5946
▁America	-10.5948
▁thin	-10.5948
▁necessar	-10.5953
temp	-10.5959
▁exp	-10.5964
▁lay	-10.5964
▁investigat	-10.5965
▁experience	-10.5966
▁rebel	-10.5969
Q	-10.5969
▁Qu	-10.597
の	-10.597
国	-10.5971
▁script	-10.5971
一	-10.5971
▁pardon	-10.5971
▁stipulat	-10.5971
iscellan	-10.5971
▁Development	-10.5971
▁GOTO	-10.5971
▁MIZUNO	-10.5971
▁System	-10.5971
▁Treaty	-10.5971
▁appeal	-10.5971
▁attitude	-10.5971
▁caught	-10.5971
▁doubt	-10.5971
▁earlier	-10.5971
▁engrav	-10.5971
▁enthroned	-10.5971
▁fifty	-10.5971
▁perfect	-10.5971
▁phrase	-10.5971
▁population	-10.5971
▁professor	-10.5971
▁reinforce	-10.5971
▁reputation	-10.5971
▁surpris	-10.5971
▁tunnel	-10.5971
▁universities	-10.5971
▁vinegar	-10.5971
▁Appoint	-10.5971
▁England	-10.5971
▁SUZUKI	-10.5971
▁herself	-10.5971
▁hospital	-10.5971
▁essential	-10.5971
▁Chichibu	-10.5971
▁abroad	-10.5971
▁Shimousa	-10.5971
▁Shosanmi	-10.5971
▁MIYA	-10.5971
▁basin	-10.5971
dominant	-10.5971
▁expell	-10.5971
▁Hisamitsu	-10.5971
▁Two	-10.5971
▁profit	-10.5971
▁crest	-10.5971
Russo	-10.5971
▁find	-10.5971
▁haiku	-10.5971
▁income	-10.5971
Ushioni	-10.5971
▁shooting	-10.5971
▁chamber	-10.5972
Hikaru	-10.5972
▁program	-10.5972
▁Site	-10.5972
▁explanation	-10.5972
▁Life	-10.5972
▁distribution	-10.5972
▁marry	-10.5973
yomi	-10.5973
▁Heijo	-10.5973
▁fast	-10.5973
▁supervis	-10.5973
▁cool	-10.5973
▁syllables	-10.5973
SHIGE	-10.5973
▁collective	-10.5974
▁worshipped	-10.5974
▁uprising	-10.5974
▁wound	-10.5975
▁Saitama	-10.5975
▁assassination	-10.5975
▁anger	-10.5975
▁Sword	-10.5975
▁worse	-10.5975
Board	-10.5975
KAMI	-10.5975
▁strik	-10.5976
▁Nobutada	-10.5976
▁HAT	-10.5976
▁wore	-10.5976
favorite	-10.5976
▁1923	-10.5976
▁Plan	-10.5977
▁Bizen	-10.5977
▁ONOE	-10.5977
▁wedd	-10.5977
▁Shikibu	-10.5978
▁cities	-10.5979
graph	-10.598
▁Wakasa	-10.598
▁preci	-10.5981
Mt	-10.5981
▁navy	-10.5981
▁require	-10.5981
▁2000	-10.5982
miyatsuko	-10.5982
▁Nobuyoshi	-10.5982
▁celebration	-10.5983
▁OISHI	-10.5983
▁strip	-10.5984
▁achieved	-10.5985
▁decreased	-10.5985
▁Jimyo	-10.5985
▁Agriculture	-10.5986
▁advisor	-10.5988
kasu	-10.5988
▁Kondo	-10.5989
▁Commerce	-10.5989
▁collapsed	-10.5989
▁sand	-10.599
▁1000	-10.599
▁monme	-10.599
▁Graduate	-10.5991
▁messenger	-10.5991
▁Jingu	-10.5992
▁Prim	-10.5993
▁Shichijo	-10.5996
▁Basin	-10.5999
▁mere	-10.5999
▁Miyake	-10.6004
▁kimi	-10.6004
▁classical	-10.601
▁Higo	-10.6012
▁buses	-10.6019
▁Hogen	-10.602
Gi	-10.6024
elimina	-10.6026
▁encourag	-10.6026
▁core	-10.603
▁Seto	-10.6032
▁Taro	-10.6035
▁mint	-10.6039
▁Tokai	-10.6041
▁loved	-10.6042
▁larger	-10.6043
▁ANDO	-10.6045
▁merged	-10.6049
▁junior	-10.6052
diction	-10.6056
▁team	-10.6059
▁Kishu	-10.606
▁waiting	-10.6071
generate	-10.6078
zuke	-10.6079
▁Chuo	-10.608
▁shosho	-10.6085
▁liters	-10.6085
gosho	-10.6094
Uji	-10.6105
▁Diary	-10.6108
entral	-10.6117
biko	-10.6134
leg	-10.6137
▁Azuma	-10.614
▁drive	-10.615
▁Culture	-10.6151
▁skills	-10.6153
▁Funa	-10.6154
Jin	-10.6174
▁Kotsu	-10.6179
▁Sakura	-10.618
▁Master	-10.6182
▁formerly	-10.6189
▁shops	-10.619
▁Oyama	-10.6203
signed	-10.6218
▁Momoyama	-10.6222
▁Major	-10.6223
▁Gra	-10.6231
Hon	-10.6231
▁Ushi	-10.6233
▁plants	-10.6237
rap	-10.625
▁Udon	-10.6259
wheel	-10.6266
JO	-10.6272
▁Oshu	-10.6281
▁Hu	-10.6283
rry	-10.6288
▁manners	-10.6293
▁ruins	-10.6304
▁friends	-10.6338
▁Yoshida	-10.6347
▁kanji	-10.6363
▁Shoin	-10.6364
cchu	-10.6376
ragi	-10.638
rous	-10.6395
▁produc	-10.6403
fth	-10.6412
▁rei	-10.6414
umb	-10.6416
▁Nii	-10.6423
▁Isshi	-10.6425
▁kosa	-10.6428
lot	-10.6432
▁seats	-10.6479
▁subjects	-10.6489
Shinsen	-10.6494
▁Chin	-10.6504
size	-10.6522
▁suitabl	-10.6598
▁map	-10.6607
sub	-10.6632
▁Ele	-10.6636
▁print	-10.6639
Article	-10.664
MORI	-10.6642
Bureau	-10.6642
class	-10.6642
January	-10.6643
Chinese	-10.6643
mentioned	-10.6644
Matsu	-10.6668
room	-10.6673
stone	-10.6694
sake	-10.6712
▁exception	-10.6715
shogun	-10.6717
measur	-10.6718
▁mention	-10.6722
▁passe	-10.6731
▁celebrat	-10.6753
▁Taku	-10.6758
rmal	-10.6763
▁exile	-10.6777
▁pr	-10.6778
coming	-10.6779
▁discuss	-10.6791
that	-10.6792
▁Lot	-10.6795
▁villa	-10.6799
▁entertain	-10.6799
▁prior	-10.6801
MOTO	-10.6803
▁ascetic	-10.6803
▁recogni	-10.6804
cycl	-10.6804
安	-10.6804
子	-10.6804
▁KATSURA	-10.6804
▁commercial	-10.6804
▁respond	-10.6804
▁stretch	-10.6804
expensive	-10.6804
fensive	-10.6804
▁Branch	-10.6804
▁Empire	-10.6804
▁HASHIBA	-10.6804
▁KANZE	-10.6804
▁KONDO	-10.6804
▁KUTSUKI	-10.6804
▁Misasagi	-10.6804
▁Poems	-10.6804
▁acquir	-10.6804
▁alternate	-10.6804
▁audience	-10.6804
▁capacity	-10.6804
▁circle	-10.6804
▁conventional	-10.6804
▁criminal	-10.6804
▁fiction	-10.6804
▁patron	-10.6804
▁peninsula	-10.6804
▁pronunciation	-10.6804
▁schedule	-10.6804
▁security	-10.6804
▁stream	-10.6804
▁supply	-10.6804
▁varieties	-10.6804
▁vicinity	-10.6804
float	-10.6804
▁JNR	-10.6804
▁address	-10.6804
▁autonom	-10.6804
▁categoriz	-10.6804
▁curry	-10.6804
▁exact	-10.6804
▁impress	-10.6804
▁Recently	-10.6804
▁steward	-10.6804
▁1891	-10.6804
▁duty	-10.6804
▁march	-10.6804
▁park	-10.6804
▁1897	-10.6804
▁1998	-10.6804
▁ferment	-10.6804
▁Sarugaku	-10.6804
▁vertical	-10.6804
▁worth	-10.6804
▁split	-10.6804
▁fond	-10.6804
mandala	-10.6804
▁divine	-10.6804
▁convey	-10.6804
Taiheiki	-10.6804
▁fresh	-10.6804
▁loan	-10.6804
▁Asakura	-10.6804
▁geisha	-10.6804
▁convert	-10.6804
▁exclusive	-10.6804
Goddess	-10.6804
▁karate	-10.6804
▁fear	-10.6804
▁SAKAMOTO	-10.6804
▁premise	-10.6804
▁activity	-10.6804
▁stole	-10.6804
▁bills	-10.6804
▁talk	-10.6804
▁advice	-10.6804
▁mythology	-10.6804
▁Service	-10.6804
▁spiritual	-10.6805
▁patien	-10.6805
▁fair	-10.6805
▁pressure	-10.6805
▁beef	-10.6805
▁belongs	-10.6805
▁straight	-10.6805
▁parents	-10.6805
▁frame	-10.6805
▁retirement	-10.6805
▁speed	-10.6806
▁watch	-10.6807
▁Tsunayoshi	-10.6807
▁Tanabe	-10.6807
▁classification	-10.6808
▁1980	-10.6808
▁Katsuyori	-10.6808
▁eleventh	-10.6808
▁examination	-10.6808
▁opportunity	-10.6808
▁Maeda	-10.6809
▁Vice	-10.6809
▁passage	-10.6809
▁choja	-10.6809
▁Iemitsu	-10.6809
▁pond	-10.6809
▁experienc	-10.6809
▁Yakushi	-10.6809
▁Kamigata	-10.681
▁1918	-10.681
▁declared	-10.681
▁Reigen	-10.6811
▁Taishogun	-10.6811
▁cultivation	-10.6811
▁pup	-10.6811
▁subjugat	-10.6811
▁voice	-10.6812
▁Michitaka	-10.6812
▁1920	-10.6812
▁interpretation	-10.6813
▁Music	-10.6813
▁Sanesuke	-10.6814
▁1990	-10.6814
▁concentrat	-10.6814
▁nun	-10.6814
▁remove	-10.6815
▁Yamada	-10.6817
▁2003	-10.6818
▁Nitta	-10.6818
both	-10.6818
▁pine	-10.6818
▁Jinmu	-10.6818
▁writer	-10.6819
▁Yomei	-10.682
▁housing	-10.6821
▁Asian	-10.6821
▁jito	-10.6822
▁Nihongi	-10.6822
▁Yoshisada	-10.6825
▁thereby	-10.6825
teenth	-10.6827
▁translation	-10.6828
▁shochu	-10.6828
▁Tax	-10.6829
▁administrator	-10.6831
▁arrive	-10.6833
ogether	-10.6834
▁bigge	-10.6835
▁Yoshiakira	-10.6835
▁stable	-10.6835
Biography	-10.6837
▁Senju	-10.684
▁rapidly	-10.6841
▁Sorin	-10.6842
▁page	-10.6846
▁county	-10.6847
▁publication	-10.6849
▁normal	-10.6849
▁parties	-10.6849
▁bare	-10.6851
▁Ohara	-10.6852
▁betto	-10.6853
▁contact	-10.6856
▁civil	-10.6858
folding	-10.686
▁host	-10.6862
▁Kokin	-10.6862
▁Honen	-10.6864
▁buy	-10.6864
▁observed	-10.6871
malt	-10.6874
▁cost	-10.6875
▁recently	-10.6877
▁chair	-10.6877
▁Matsuri	-10.6878
▁murdered	-10.6881
▁accident	-10.6887
▁expenses	-10.6889
▁flat	-10.6892
▁numer	-10.6899
▁printed	-10.6907
▁Mine	-10.6907
▁rear	-10.6908
▁celebrated	-10.6908
▁elect	-10.6909
▁Kanei	-10.6912
▁Taiko	-10.6923
▁industrial	-10.6925
▁Goro	-10.6928
▁Eki	-10.6932
▁demanded	-10.6935
▁Hoku	-10.6941
dom	-10.6942
cm	-10.6972
basically	-10.6982
▁exceptional	-10.6995
▁burning	-10.7004
▁seasoning	-10.7004
▁Choku	-10.7008
▁entit	-10.7011
sashi	-10.702
▁drop	-10.702
story	-10.7021
shui	-10.7027
inspector	-10.7032
▁152	-10.7042
▁Sojo	-10.7046
▁create	-10.7048
large	-10.7049
▁tales	-10.7079
▁hope	-10.7084
▁carv	-10.7084
chome	-10.7085
▁protected	-10.7106
▁Soshi	-10.7115
▁155	-10.7121
▁pick	-10.7122
▁sweets	-10.7131
BO	-10.7154
bai	-10.7158
▁Kojiki	-10.717
▁controll	-10.7184
AWA	-10.7203
Sai	-10.7204
▁container	-10.7216
53,	-10.7221
Li	-10.7331
▁Taki	-10.7345
payment	-10.7357
▁Masu	-10.737
kken	-10.7386
▁sixteen	-10.7396
▁178	-10.7426
▁op	-10.7428
▁aide	-10.7435
commissioner	-10.7436
▁skill	-10.7445
▁citizens	-10.7489
▁eye	-10.7503
▁relation	-10.752
produc	-10.7534
right	-10.7537
▁130	-10.7542
claim	-10.755
mikoto	-10.7551
Ministry	-10.7551
February	-10.7552
Period	-10.7552
field	-10.7552
Taira	-10.7552
third	-10.7554
born	-10.7557
▁tool	-10.7562
oven	-10.7571
after	-10.7576
▁prefectur	-10.758
▁177	-10.758
URA	-10.7582
▁169	-10.7596
water	-10.7599
haya	-10.7607
western	-10.7611
Gen	-10.7613
▁assign	-10.7613
▁select	-10.7614
meter	-10.7637
important	-10.7641
▁advis	-10.7641
koma	-10.7644
▁Koki	-10.7658
▁preach	-10.7674
▁divide	-10.7687
▁subsequent	-10.7688
▁council	-10.7698
One	-10.7702
▁plu	-10.7706
▁accomplish	-10.7709
useum	-10.7711
rotection	-10.7711
ollowing	-10.7712
housand	-10.7712
▁extra	-10.7713
院	-10.7713
・	-10.7713
▁petition	-10.7713
▁powder	-10.7713
Ordinance	-10.7713
communication	-10.7713
▁Academy	-10.7713
▁Baekje	-10.7713
▁Exhibition	-10.7713
▁NDL	-10.7713
▁Studies	-10.7713
▁TOKUDAIJI	-10.7713
▁Tachibana	-10.7713
▁argument	-10.7713
▁birthplace	-10.7713
▁calculat	-10.7713
▁category	-10.7713
▁coffee	-10.7713
▁constituen	-10.7713
▁dwelling	-10.7713
▁enemies	-10.7713
▁enormous	-10.7713
▁expansion	-10.7713
▁foster	-10.7713
▁independence	-10.7713
▁institute	-10.7713
▁katsudon	-10.7713
▁nationwide	-10.7713
▁outstanding	-10.7713
▁prevail	-10.7713
▁remnant	-10.7713
▁sovereignty	-10.7713
▁specified	-10.7713
▁suspended	-10.7713
▁wisdom	-10.7713
神	-10.7713
▁1989	-10.7713
▁Administrat	-10.7713
▁Daruma	-10.7713
▁Hospital	-10.7713
▁Hyobu	-10.7713
▁electric	-10.7713
▁ghost	-10.7713
▁poison	-10.7713
proved	-10.7713
▁HORI	-10.7713
▁burden	-10.7713
▁fruit	-10.7713
▁luck	-10.7713
regulat	-10.7713
▁Siege	-10.7713
▁curve	-10.7713
▁1185	-10.7713
▁1884	-10.7713
▁Horikawa	-10.7713
▁newspaper	-10.7713
▁1874	-10.7713
▁What	-10.7713
▁Refer	-10.7713
▁edition	-10.7713
▁enact	-10.7713
▁week	-10.7713
▁1877	-10.7713
▁exceed	-10.7713
▁Color	-10.7713
load	-10.7713
Limited	-10.7713
▁Director	-10.7713
▁ascend	-10.7713
▁temperature	-10.7713
▁Obaku	-10.7713
▁interact	-10.7713
▁Ikeda	-10.7713
▁repeatedly	-10.7713
▁dominat	-10.7713
▁monster	-10.7713
▁Headquarters	-10.7713
▁Oaza	-10.7714
Fukakusa	-10.7714
▁agreed	-10.7714
▁blue	-10.7714
▁intersection	-10.7714
▁Ueno	-10.7714
▁percent	-10.7714
▁hunt	-10.7714
▁mistake	-10.7714
Manyoshu	-10.7715
▁trading	-10.7715
Kumiyama	-10.7715
▁mural	-10.7715
▁nearby	-10.7716
▁responsibility	-10.7716
▁resource	-10.7716
▁preservation	-10.7716
▁promise	-10.7716
▁resignation	-10.7716
▁grew	-10.7717
▁specifically	-10.7717
▁Transportation	-10.7717
▁Vario	-10.7717
▁cooperation	-10.7717
▁Chinju	-10.7717
▁chronicle	-10.7717
▁Tameyoshi	-10.7718
▁smok	-10.7719
▁Yoritsuna	-10.7719
▁hung	-10.7719
▁1876	-10.7719
▁moral	-10.7719
▁Shogoino	-10.7719
▁Yorimichi	-10.772
▁singing	-10.772
▁rope	-10.772
▁Katsuie	-10.772
▁Pass	-10.772
▁Yoriyuki	-10.772
▁Shigetada	-10.7721
▁customers	-10.7721
▁Nobushige	-10.7721
▁buck	-10.7722
▁Dainichi	-10.7722
▁Eizan	-10.7722
▁Takakage	-10.7722
▁rush	-10.7723
▁Antoku	-10.7723
▁ride	-10.7724
▁Mitsukuni	-10.7724
▁meter	-10.7725
▁nominal	-10.7725
▁Chang	-10.7726
▁cave	-10.7726
▁Sutoku	-10.7727
▁Omote	-10.7728
▁spent	-10.773
▁Yoshitada	-10.773
▁riot	-10.7731
▁slope	-10.7732
▁Togoku	-10.7733
▁moat	-10.7733
▁Jokyu	-10.7734
▁Takamatsu	-10.7735
▁abdicat	-10.7735
▁clean	-10.7735
▁enforced	-10.7735
▁Miroku	-10.7738
▁Okubo	-10.7738
▁Shakyamuni	-10.7738
▁701	-10.7738
▁repos	-10.7739
▁2002	-10.7739
▁Shikoku	-10.774
▁ensur	-10.7741
▁compilation	-10.7742
▁Ansei	-10.7744
▁Umako	-10.7744
▁Butsu	-10.7744
▁cultivat	-10.7746
▁Sotoku	-10.7747
▁Xi	-10.7748
▁hill	-10.7748
▁Construct	-10.7748
▁believer	-10.775
▁shot	-10.7751
wise	-10.7751
NAMI	-10.7752
▁myth	-10.7752
ginu	-10.7753
▁adjust	-10.7753
▁possession	-10.7755
metsuke	-10.7755
▁reportedly	-10.7756
▁raise	-10.7759
kanjin	-10.7759
▁roll	-10.776
▁sango	-10.7766
▁drinking	-10.7767
"(	-10.7767
matsuri	-10.7767
▁Amitabha	-10.777
▁ceremonial	-10.777
▁secretly	-10.7776
▁preaching	-10.7779
▁soil	-10.7782
▁seized	-10.7783
hold	-10.7783
▁youth	-10.7785
▁brave	-10.7787
▁OTA	-10.7787
▁answered	-10.7788
▁Komachi	-10.7791
▁peaceful	-10.7796
▁conquer	-10.7799
▁beside	-10.7809
▁tribute	-10.7812
▁chain	-10.7815
▁Tea	-10.7819
▁Shobo	-10.782
▁nearly	-10.782
▁mayor	-10.7822
▁fri	-10.7831
▁Kushi	-10.7837
▁explained	-10.7837
▁layer	-10.784
▁sleeves	-10.7848
▁notion	-10.7849
▁lotus	-10.7849
icated	-10.7863
▁seek	-10.7868
▁privately	-10.787
▁Era	-10.7874
▁thinking	-10.7877
▁bath	-10.7882
Sagano	-10.7884
▁appearing	-10.7887
▁Ikko	-10.7887
▁Kokuga	-10.7891
▁Ason	-10.7892
▁Hosho	-10.7894
▁closely	-10.7897
▁kana	-10.7909
▁Koho	-10.7911
▁Abe	-10.7934
daiko	-10.7948
▁adj	-10.797
▁184	-10.8007
▁OE	-10.8019
▁forty	-10.802
▁Enma	-10.8029
▁fis	-10.8038
▁Nariaki	-10.8038
nishiki	-10.8053
▁couple	-10.8056
▁tied	-10.8095
▁hang	-10.8116
Naomasa	-10.8156
kamatsu	-10.817
▁band	-10.8221
fumi	-10.8266
▁Wata	-10.8267
name	-10.8271
▁Tori	-10.8273
ilk	-10.828
▁144	-10.8281
uli	-10.8318
FU	-10.8328
▁pickl	-10.8347
▁driv	-10.8399
▁win	-10.8416
▁Kashiwa	-10.8428
▁Juro	-10.8428
▁bud	-10.8446
▁Imai	-10.8451
▁presen	-10.8466
Noh	-10.8484
Man	-10.8496
▁165	-10.8497
vision	-10.8498
pachi	-10.8503
▁ingredient	-10.8504
▁negotiation	-10.8509
▁enabl	-10.852
gama	-10.8522
▁enshrin	-10.8527
KAI	-10.8534
four	-10.8542
Diary	-10.8546
Chief	-10.8548
▁depart	-10.8548
word	-10.8549
posthumous	-10.8549
Confucianism	-10.855
hereditary	-10.8551
guard	-10.8551
public	-10.8552
September	-10.8552
National	-10.8552
April	-10.8552
world	-10.8553
▁rais	-10.8555
ternational	-10.8557
Korea	-10.856
Heian	-10.8561
came	-10.8564
Saru	-10.8568
south	-10.8569
compa	-10.8591
▁kokuga	-10.8608
▁appoint	-10.8609
▁prohibit	-10.8611
▁reduc	-10.8615
▁merg	-10.8618
▁boil	-10.8619
▁retreat	-10.8627
tax	-10.8644
yang	-10.8667
teki	-10.867
AKU	-10.8676
dake	-10.8677
▁You	-10.8689
▁effective	-10.8693
▁handle	-10.8694
▁respective	-10.8695
▁Count	-10.8698
▁flow	-10.87
▁demonstrat	-10.87
ivil	-10.871
fold	-10.8712
▁IKE	-10.8713
loud	-10.8713
&	-10.8713
Secretary	-10.8713
cypress	-10.8713
kneading	-10.8713
▁Amanohashidate	-10.8713
▁CHIBA	-10.8713
▁Demachiyanagi	-10.8713
▁Dowager	-10.8713
▁Earthquake	-10.8713
▁Engineering	-10.8713
▁HATTORI	-10.8713
▁ICHIKAWA	-10.8713
▁ICOCA	-10.8713
▁IWAKURA	-10.8713
▁Interchange	-10.8713
▁KURODA	-10.8713
▁SANJO	-10.8713
▁Sixth	-10.8713
▁Treasury	-10.8713
▁WATANABE	-10.8713
▁YAMANA	-10.8713
▁bottom	-10.8713
▁cavalry	-10.8713
▁ceramic	-10.8713
▁convenience	-10.8713
▁corporation	-10.8713
▁defend	-10.8713
▁familiar	-10.8713
▁liquor	-10.8713
▁mixture	-10.8713
▁nickname	-10.8713
▁positive	-10.8713
▁proclamation	-10.8713
▁pseudonym	-10.8713
▁revenge	-10.8713
▁scattered	-10.8713
▁shrimp	-10.8713
▁tendency	-10.8713
▁unchanged	-10.8713
▁vehicle	-10.8713
上	-10.8713
▁Chapter	-10.8713
▁NIJO	-10.8713
▁Peace	-10.8713
▁bonito	-10.8713
▁bottle	-10.8713
▁bronze	-10.8713
▁depriv	-10.8713
▁drastic	-10.8713
▁1870	-10.8713
▁1967	-10.8713
▁Elders	-10.8713
▁goddess	-10.8713
▁sightsee	-10.8713
▁viol	-10.8713
KUMA	-10.8713
▁Okazaki	-10.8713
▁resort	-10.8713
▁1863	-10.8713
▁1995	-10.8713
▁Garden	-10.8713
▁Horses	-10.8713
▁1901	-10.8713
▁threat	-10.8713
▁1997	-10.8713
▁Kudara	-10.8713
▁apparent	-10.8713
▁ignor	-10.8713
▁1873	-10.8713
▁beyond	-10.8713
▁virtually	-10.8713
▁Type	-10.8713
▁resided	-10.8713
▁Regard	-10.8713
▁Shoshiino	-10.8713
▁grill	-10.8713
▁sick	-10.8713
▁Susano	-10.8713
▁jointly	-10.8713
▁baby	-10.8713
▁kiln	-10.8713
▁wives	-10.8713
▁historian	-10.8713
▁Emishi	-10.8713
▁Continued	-10.8713
▁nengu	-10.8713
▁Brit	-10.8713
▁Tower	-10.8713
▁Seinan	-10.8714
▁Medicine	-10.8714
▁KIRA	-10.8714
▁administer	-10.8714
▁mask	-10.8714
▁Foo	-10.8714
▁consumption	-10.8714
▁renga	-10.8714
▁Uiro	-10.8714
Kizugawa	-10.8714
▁repeat	-10.8714
refined	-10.8714
▁heavi	-10.8714
▁IKEDA	-10.8714
▁authorities	-10.8715
▁admitted	-10.8715
▁Rinzai	-10.8715
▁minor	-10.8715
▁Expressway	-10.8716
▁Campus	-10.8716
▁combination	-10.8716
▁Iemochi	-10.8716
▁leadership	-10.8716
▁continuous	-10.8716
▁clerk	-10.8716
Pleas	-10.8716
▁peak	-10.8717
▁demot	-10.8717
▁Iesada	-10.8717
SHITA	-10.8717
▁laid	-10.8717
▁Naniwa	-10.8718
▁moving	-10.8718
▁Report	-10.8718
▁descendent	-10.8718
▁layout	-10.8718
▁1950	-10.8719
▁1941	-10.8719
▁1951	-10.8719
▁1881	-10.8719
▁Chogin	-10.872
▁Hidetada	-10.872
▁occasionally	-10.872
▁blow	-10.872
▁1947	-10.872
▁1862	-10.872
▁1948	-10.8721
▁Tandai	-10.8721
▁1582	-10.8722
▁Suzuki	-10.8722
▁bank	-10.8722
▁merit	-10.8722
▁KANO	-10.8722
▁Bugyo	-10.8723
▁30,000	-10.8723
▁lunch	-10.8723
▁1966	-10.8724
▁plum	-10.8724
▁touch	-10.8724
▁grass	-10.8724
▁Harumoto	-10.8724
▁SHO	-10.8724
▁Sanetomo	-10.8725
▁Omikami	-10.8725
▁1999	-10.8726
▁1910	-10.8726
▁Yasaka	-10.8726
▁Past	-10.8726
▁Yoshikane	-10.8727
▁Totomi	-10.8727
▁cup	-10.8727
▁Shintoism	-10.8731
▁Motonaga	-10.8732
▁Roju	-10.8732
▁rich	-10.8733
▁Especially	-10.8734
▁Tadamasa	-10.8734
▁disclos	-10.8735
▁Tadamori	-10.8736
▁Tokiwa	-10.8737
▁birthday	-10.8738
▁Yoshitsuna	-10.8738
▁Sotan	-10.8739
▁disp	-10.874
▁headship	-10.8743
▁Geki	-10.8744
▁Yoshinari	-10.8745
▁Fugen	-10.8747
▁Ehime	-10.8748
▁golden	-10.875
▁Kogon	-10.8755
▁factory	-10.8758
▁chamberlain	-10.8758
Provinc	-10.876
▁Takamori	-10.8761
▁Yoshiie	-10.8761
ltar	-10.8768
zasu	-10.877
▁Furu	-10.8776
▁boy	-10.8777
▁armor	-10.8778
▁Kichi	-10.8781
▁Hiki	-10.8784
▁weakened	-10.8785
nomaru	-10.8785
▁miso	-10.8786
▁Monjo	-10.8788
▁actively	-10.8788
gumo	-10.8794
▁evaluated	-10.8796
Kiyomizu	-10.8798
▁driver	-10.88
ribe	-10.8824
▁Not	-10.8824
▁Shonin	-10.8831
▁selling	-10.8836
supporters	-10.8845
▁Miki	-10.8849
▁Kaya	-10.8859
▁Onsen	-10.8865
▁Fukui	-10.8868
▁Kuri	-10.8881
▁Once	-10.8882
▁Toru	-10.8883
owed	-10.8885
mash	-10.8907
▁Kanjo	-10.8925
compos	-10.8938
rick	-10.8941
▁guide	-10.8949
▁attribut	-10.895
nishi	-10.8953
▁cont	-10.8958
▁Anega	-10.8962
anjuro	-10.8969
mber	-10.8991
Heiha	-10.9033
gari	-10.9036
last	-10.904
▁exercise	-10.9048
Coup	-10.9078
ISHIDA	-10.91
▁hyo	-10.911
▁wo	-10.9127
▁deni	-10.9162
fune	-10.9162
▁rat	-10.9168
rising	-10.9186
▁32	-10.9188
▁ratio	-10.9198
nuki	-10.9217
Hashi	-10.9246
▁134	-10.9251
▁Karo	-10.927
▁Kusu	-10.9337
Heishi	-10.9353
grade	-10.9374
▁regime	-10.9405
▁NISHI	-10.9413
utter	-10.9423
▁lea	-10.9476
▁dog	-10.9488
boko	-10.9492
ichiro	-10.9495
▁sin	-10.951
▁cat	-10.9516
▁Kodai	-10.9527
▁Sanbo	-10.9551
Daibutsu	-10.9566
▁vari	-10.9609
▁weapon	-10.9613
▁Guard	-10.9618
▁affair	-10.9618
Head	-10.9658
*	-10.9659
scription	-10.966
track	-10.9661
warrior	-10.9661
Maizuru	-10.9662
Fushimi	-10.9662
mountain	-10.9662
Great	-10.9662
Later	-10.9663
governor	-10.9663
dustrial	-10.9663
establish	-10.9663
Tokugawa	-10.9663
November	-10.9663
administrati	-10.9663
December	-10.9663
ancient	-10.9663
common	-10.9663
diary	-10.9663
production	-10.9664
Collection	-10.9666
▁Kim	-10.9678
body	-10.9683
▁pil	-10.9699
Kame	-10.9706
eaves	-10.9712
structed	-10.9716
▁murder	-10.9721
▁arrest	-10.9722
▁Gin	-10.9723
hari	-10.9725
▁grant	-10.9725
Nishi	-10.9728
ency	-10.974
Toki	-10.9741
▁drink	-10.9758
Hei	-10.9788
▁enforce	-10.9797
▁collapse	-10.9797
▁capture	-10.9799
▁Asia	-10.9803
▁negotiat	-10.9816
▁assassin	-10.9816
▁constitut	-10.9817
▁Jugoino	-10.9824
宗	-10.9824
▁acquaint	-10.9824
本	-10.9824
王	-10.9824
▁entrust	-10.9824
▁oblig	-10.9824
▁resembl	-10.9824
▁trigger	-10.9824
▁Career	-10.9824
▁Character	-10.9824
▁Club	-10.9824
▁Consort	-10.9824
▁Examples	-10.9824
▁Goyozei	-10.9824
▁KIKKAWA	-10.9824
▁KIKUCHI	-10.9824
▁KOGA	-10.9824
▁MADENOKOJI	-10.9824
▁Mahayana	-10.9824
▁Organization	-10.9824
▁Railroad	-10.9824
▁SAKUMA	-10.9824
▁TSUDA	-10.9824
▁Tradition	-10.9824
▁Zhou	-10.9824
▁decisive	-10.9824
▁discontinu	-10.9824
▁economy	-10.9824
▁elegant	-10.9824
▁emergenc	-10.9824
▁environment	-10.9824
▁extinct	-10.9824
▁forbidden	-10.9824
▁fortress	-10.9824
▁hometown	-10.9824
▁instructor	-10.9824
▁journey	-10.9824
▁knife	-10.9824
▁loincloth	-10.9824
▁occupation	-10.9824
▁playwright	-10.9824
▁politician	-10.9824
▁prosperous	-10.9824
▁railroad	-10.9824
▁sleep	-10.9824
▁somewhat	-10.9824
▁souvenir	-10.9824
▁substitute	-10.9824
▁suspicion	-10.9824
▁thorough	-10.9824
▁treaties	-10.9824
▁utensils	-10.9824
▁valuable	-10.9824
▁victory	-10.9824
法	-10.9824
▁Foundation	-10.9824
▁Heritage	-10.9824
▁Justice	-10.9824
▁Trams	-10.9824
▁comparison	-10.9824
▁continent	-10.9824
▁involvement	-10.9824
▁missionaries	-10.9824
▁1895	-10.9824
▁Business	-10.9824
▁Jesus	-10.9824
▁ikki	-10.9824
▁improvement	-10.9824
▁Mikkyo	-10.9824
▁Odawara	-10.9824
▁Samaryo	-10.9824
▁brown	-10.9824
▁weather	-10.9824
lyrics	-10.9824
▁1906	-10.9824
▁Representatives	-10.9824
▁Suzaku	-10.9824
▁1885	-10.9824
▁1945	-10.9824
▁impossible	-10.9824
▁Priest	-10.9824
▁missionary	-10.9824
▁storm	-10.9824
horikawa	-10.9824
▁Honzon	-10.9824
▁refuge	-10.9824
▁Locat	-10.9824
▁blind	-10.9824
▁Joruri	-10.9824
▁infectio	-10.9824
Roshigumi	-10.9824
▁Yayoi	-10.9824
▁average	-10.9824
▁false	-10.9824
▁Genroin	-10.9824
▁imina	-10.9824
▁Boxer	-10.9824
Picture	-10.9824
▁Byodo	-10.9824
▁Early	-10.9824
▁Former	-10.9824
▁yellow	-10.9824
▁Lord	-10.9824
▁physical	-10.9824
▁Shosoin	-10.9824
▁crane	-10.9824
▁terminal	-10.9825
▁withdraw	-10.9825
▁genpuku	-10.9825
▁Chamber	-10.9825
▁MAEDA	-10.9825
circular	-10.9825
▁banned	-10.9825
▁solid	-10.9825
▁spend	-10.9825
▁launched	-10.9825
▁risk	-10.9825
Chiyoda	-10.9825
▁chest	-10.9825
▁Police	-10.9825
▁laugh	-10.9825
▁forgive	-10.9825
▁demise	-10.9825
▁conspir	-10.9825
▁Liber	-10.9825
▁digni	-10.9825
▁Hyoe	-10.9826
▁transform	-10.9826
▁biography	-10.9826
▁kugyo	-10.9826
▁supreme	-10.9826
strange	-10.9826
▁blame	-10.9827
▁finger	-10.9827
▁KITA	-10.9827
▁prominen	-10.9827
▁mansion	-10.9827
▁hostage	-10.9827
▁hairstyle	-10.9827
▁distinction	-10.9828
▁Kashihara	-10.9828
▁manufactured	-10.9829
▁1615	-10.9829
▁Nishioji	-10.9829
▁1952	-10.983
▁alliance	-10.983
▁Christianity	-10.983
▁Hatamoto	-10.983
▁Shitenno	-10.983
▁1976	-10.9831
▁Noriyori	-10.9831
▁1946	-10.9831
▁Hakusan	-10.9831
▁Tokushima	-10.9831
▁armies	-10.9832
▁mud	-10.9832
▁bark	-10.9832
▁proper	-10.9832
▁purchased	-10.9832
▁1864	-10.9832
▁1988	-10.9833
▁Yasutoki	-10.9833
▁sixty	-10.9834
▁inspection	-10.9834
▁Norinaga	-10.9834
▁1875	-10.9834
▁Kiyomasa	-10.9835
▁investigation	-10.9836
▁Yorinaga	-10.9836
▁2009	-10.9837
▁Tokimasa	-10.9837
▁Yoriie	-10.9837
▁accompaniment	-10.9838
▁Germany	-10.9839
▁pursued	-10.9839
zakura	-10.9839
▁whereby	-10.984
▁Like	-10.984
▁princesses	-10.9841
▁ashes	-10.9842
▁Gunma	-10.9842
▁Morimasa	-10.9843
▁Himeji	-10.9845
▁Wakoku	-10.9846
▁Kanrei	-10.9846
▁kuji	-10.9847
▁lake	-10.9847
▁mold	-10.9849
▁10,000	-10.9851
▁Kyogen	-10.9853
gashira	-10.9853
▁Yi	-10.9854
▁mikan	-10.9856
▁Ashina	-10.9856
▁fudai	-10.9857
▁Chiten	-10.9858
▁Takatsugu	-10.9858
▁sheet	-10.9861
▁Yang	-10.9861
shoot	-10.9863
▁Hina	-10.9864
▁career	-10.9864
▁press	-10.9868
▁Kyoho	-10.9871
▁tail	-10.9871
▁prepare	-10.9876
▁aggr	-10.9878
▁Kanmu	-10.9878
▁previously	-10.9881
▁Ouchi	-10.9885
▁differentiat	-10.9885
▁Kaneie	-10.9886
▁Now	-10.9886
▁Soun	-10.9886
▁honjo	-10.9888
arashi	-10.989
▁angle	-10.989
TOMI	-10.9892
▁Nagara	-10.9895
▁300	-10.9895
▁Tsuchi	-10.99
▁Komyo	-10.9907
apid	-10.9909
▁Senke	-10.9912
▁reins	-10.9913
▁Chujo	-10.9915
▁tenth	-10.9916
▁Hondo	-10.9916
▁independently	-10.9918
▁practic	-10.9927
▁careful	-10.993
▁demon	-10.9932
▁Sanyo	-10.9935
mpact	-10.9941
posed	-10.9941
▁Gei	-10.9943
nokuni	-10.9955
existent	-10.9969
▁extract	-10.9985
nokoji	-10.9991
▁Toyama	-10.9993
buchi	-11.0002
▁Kujo	-11.0022
▁124	-11.0038
bout	-11.0041
▁Isam	-11.0044
▁gone	-11.0048
▁Nagaya	-11.0077
seii	-11.0089
dum	-11.0093
cope	-11.0119
▁Note	-11.012
enari	-11.0125
HE	-11.0145
▁maker	-11.0174
uff	-11.0178
▁Nav	-11.0181
▁109	-11.0192
▁Medic	-11.0198
▁Haik	-11.0205
gram	-11.0251
▁Shibu	-11.0252
▁nineteen	-11.0255
▁Taga	-11.0312
▁HAN	-11.0336
▁MU	-11.0343
▁fill	-11.0381
▁researcher	-11.0389
▁curse	-11.041
ES	-11.0426
▁Myoho	-11.0445
▁curs	-11.045
▁caus	-11.0456
▁slo	-11.0462
▁Mar	-11.0481
Minor	-11.0489
▁110	-11.0532
▁obi	-11.0538
arrival	-11.0545
▁Iba	-11.0581
▁fil	-11.0586
▁Kageto	-11.0607
itted	-11.0612
▁coup	-11.0628
shihara	-11.0634
▁clos	-11.0671
▁700	-11.0736
▁Hoss	-11.0736
Miya	-11.0738
Genko	-11.0755
eastern	-11.081
▁Murasaki	-11.0821
Sado	-11.0829
▁submit	-11.0835
mile	-11.084
▁Norito	-11.0848
▁Sasa	-11.0852
▁acknowledg	-11.0858
down	-11.0863
udon	-11.0866
▁soldier	-11.0868
▁achievement	-11.087
▁item	-11.0871
▁prepar	-11.0879
▁publish	-11.0908
▁Daibu	-11.091
Tanba	-11.0911
princip	-11.0912
private	-11.0913
elected	-11.0913
generation	-11.0913
lotus	-11.0913
July	-11.0913
Prince	-11.0914
History	-11.0914
Yama	-11.0918
half	-11.0921
▁Nobuto	-11.0934
fifth	-11.0945
life	-11.0952
Kuro	-11.0953
workers	-11.0956
OE	-11.0956
Kita	-11.0962
▁conque	-11.0963
vol	-11.0964
▁plac	-11.0965
▁evaluat	-11.0971
▁answer	-11.0971
▁observ	-11.0973
▁obtain	-11.0973
▁Ikk	-11.0974
▁limit	-11.0975
this	-11.0993
▁commemorat	-11.0994
agaru	-11.1011
cultur	-11.1016
▁wait	-11.1034
▁preserve	-11.1047
▁swor	-11.1048
▁quick	-11.1049
▁confus	-11.1068
▁examin	-11.1069
OTSU	-11.1071
nvoy	-11.1071
▁admit	-11.1072
▁Daini	-11.1072
ifferent	-11.1072
spit	-11.1073
ception	-11.1073
へ	-11.1074
し	-11.1074
▁accompany	-11.1074
▁inaugurat	-11.1074
dharma	-11.1074
overeign	-11.1074
▁ARAKI	-11.1074
▁KITABATAKE	-11.1074
▁Production	-11.1074
▁absorb	-11.1074
▁accommodat	-11.1074
▁astronom	-11.1074
▁deploy	-11.1074
▁jewel	-11.1074
▁promulgat	-11.1074
▁propagat	-11.1074
▁recruit	-11.1074
▁supplement	-11.1074
▁switch	-11.1074
▁technolog	-11.1074
美	-11.1074
Paekche	-11.1074
kilometer	-11.1074
polishing	-11.1074
registration	-11.1074
uspicious	-11.1074
▁AKAMATSU	-11.1074
▁Counselor	-11.1074
▁Gofukakusa	-11.1074
▁Greece	-11.1074
▁Insurance	-11.1074
▁Izanagi	-11.1074
▁KAZANIN	-11.1074
▁KOBORI	-11.1074
▁Nevertheless	-11.1074
▁OGIMACHISANJO	-11.1074
▁Passenger	-11.1074
▁Popula	-11.1074
▁ROKKAKU	-11.1074
▁SASAKI	-11.1074
▁TAKAHASHI	-11.1074
▁Wisdom	-11.1074
▁appreciation	-11.1074
▁aristocrat	-11.1074
▁banquet	-11.1074
▁cabbage	-11.1074
▁centuries	-11.1074
▁commenced	-11.1074
▁complain	-11.1074
▁complicated	-11.1074
▁composition	-11.1074
▁compromise	-11.1074
▁compulsor	-11.1074
▁devastat	-11.1074
▁disasters	-11.1074
▁dissolved	-11.1074
▁etiquette	-11.1074
▁fashion	-11.1074
▁imagin	-11.1074
▁industries	-11.1074
▁invented	-11.1074
▁legitimacy	-11.1074
▁locomotive	-11.1074
▁masterpiece	-11.1074
▁mistress	-11.1074
▁mobiliz	-11.1074
▁mysterious	-11.1074
▁naginata	-11.1074
▁obvious	-11.1074
▁participant	-11.1074
▁permanently	-11.1074
▁photograph	-11.1074
▁resolve	-11.1074
▁sculptor	-11.1074
▁silkworm	-11.1074
▁speech	-11.1074
▁stabiliz	-11.1074
▁uncertain	-11.1074
Summer	-11.1074
club	-11.1074
▁ADACHI	-11.1074
▁ASAKURA	-11.1074
▁Hatakeyama	-11.1074
▁Number	-11.1074
▁Works	-11.1074
▁announcement	-11.1074
▁crisis	-11.1074
▁devised	-11.1074
▁dream	-11.1074
▁graveyard	-11.1074
▁sanction	-11.1074
公	-11.1074
Design	-11.1074
▁1985	-11.1074
▁Chikuzen	-11.1074
▁Next	-11.1074
benefit	-11.1074
▁Prize	-11.1074
▁transition	-11.1074
▁tsubone	-11.1074
▁1886	-11.1074
▁1904	-11.1074
▁Regiment	-11.1074
▁penetrat	-11.1074
▁1943	-11.1074
▁1949	-11.1074
▁ogre	-11.1074
▁phase	-11.1074
▁wild	-11.1074
▁Nikki	-11.1074
▁steel	-11.1074
▁broil	-11.1074
▁Joseon	-11.1074
▁Sojuro	-11.1074
fragment	-11.1074
▁1911	-11.1074
▁breath	-11.1074
▁1921	-11.1074
▁Present	-11.1074
▁TANI	-11.1074
▁Heizei	-11.1074
▁Benkan	-11.1074
▁Rule	-11.1074
▁barrier	-11.1074
▁pool	-11.1074
▁Minato	-11.1074
▁ancestr	-11.1074
▁primary	-11.1074
Gyokuyo	-11.1074
▁salary	-11.1074
▁beads	-11.1074
▁Makino	-11.1074
▁Pond	-11.1074
▁agency	-11.1074
▁Lead	-11.1074
▁jump	-11.1074
▁salmon	-11.1074
▁subsidi	-11.1074
▁Edit	-11.1074
▁textile	-11.1074
▁admir	-11.1074
▁stem	-11.1074
▁haikai	-11.1075
▁oath	-11.1075
▁regain	-11.1075
▁multiple	-11.1075
▁mount	-11.1075
▁maiden	-11.1075
Muryoju	-11.1075
▁Kaoru	-11.1075
▁kingdom	-11.1075
▁YAMAMOTO	-11.1075
▁Building	-11.1075
▁failure	-11.1075
Ebisu	-11.1075
▁loyal	-11.1075
▁odd	-11.1075
▁Sonno	-11.1075
▁nyogo	-11.1075
▁conference	-11.1075
window	-11.1075
▁delegat	-11.1075
▁TOIN	-11.1075
▁flee	-11.1075
▁sokui	-11.1075
▁calm	-11.1075
▁NAKAGAWA	-11.1075
▁composer	-11.1076
▁simplified	-11.1076
▁Letters	-11.1076
▁instance	-11.1076
▁overlap	-11.1076
▁blossoms	-11.1076
▁yokai	-11.1076
▁Yamazaki	-11.1076
▁asceticism	-11.1076
▁informal	-11.1076
▁bones	-11.1076
▁pupil	-11.1076
▁cycle	-11.1076
▁brick	-11.1077
▁whale	-11.1077
Teaching	-11.1077
▁Mandokoro	-11.1077
glass	-11.1077
▁missing	-11.1078
▁farmland	-11.1078
▁Scen	-11.1078
▁Betto	-11.1078
▁data	-11.1078
▁boom	-11.1078
▁wander	-11.1078
▁rebuilt	-11.1078
▁Sonobe	-11.1079
▁1929	-11.1079
▁importance	-11.1079
▁catch	-11.1079
▁belt	-11.108
▁Place	-11.108
▁Chugoku	-11.108
▁everything	-11.108
▁1880	-11.1081
▁argue	-11.1081
▁Highway	-11.1081
▁Isshu	-11.1081
Shoichii	-11.1081
▁variation	-11.1081
▁Mikado	-11.1081
▁1981	-11.1081
▁allowance	-11.1082
▁invest	-11.1082
▁Ienobu	-11.1082
▁Kyogoku	-11.1082
▁Tokimune	-11.1082
Gohojo	-11.1083
▁Katamachi	-11.1083
aboli	-11.1083
▁campus	-11.1083
▁Naiju	-11.1083
▁1965	-11.1083
▁governance	-11.1083
▁Buzen	-11.1084
▁harm	-11.1085
▁cancel	-11.1085
▁shite	-11.1085
▁Naosuke	-11.1086
▁Ikoma	-11.1086
▁tears	-11.1086
▁betrayal	-11.1086
▁recommendation	-11.1086
▁Kanpei	-11.1086
▁Takumi	-11.1086
ellow	-11.1087
▁teahouse	-11.1087
▁Yukinaga	-11.1087
tatistics	-11.1088
▁clarif	-11.1088
▁considerably	-11.1088
▁Yoshikazu	-11.1088
▁1960	-11.1089
▁Yorimori	-11.109
▁demonstration	-11.109
▁anyone	-11.1091
▁Nobutaka	-11.1091
phone	-11.1092
▁Motonari	-11.1092
▁Bunroku	-11.1092
▁compris	-11.1092
▁Nakamura	-11.1092
▁1900	-11.1093
▁1,000	-11.1093
▁discussion	-11.1093
▁homyo	-11.1094
▁Tadayuki	-11.1094
▁Daitoku	-11.1094
▁stance	-11.1094
▁MATSUI	-11.1095
▁Takatsuki	-11.1096
agonal	-11.1096
▁Yoshitoki	-11.1097
▁consideration	-11.1097
▁Hibi	-11.1097
▁Jusan	-11.1098
▁skin	-11.1098
▁matches	-11.1099
▁Rice	-11.1099
▁Ujimasa	-11.11
▁Hime	-11.11
▁Mizuno	-11.1103
▁Nakasen	-11.1104
▁Seimei	-11.1105
▁Masayoshi	-11.1107
▁effectively	-11.1107
▁Tenchu	-11.1108
▁bore	-11.1109
▁Keitai	-11.1109
▁vow	-11.1109
▁daikan	-11.1111
Dainihon	-11.1112
▁Kyokai	-11.1112
▁biwa	-11.1113
▁Masamoto	-11.1114
▁Honmon	-11.1114
uzuri	-11.1115
▁Hachijo	-11.1119
▁cry	-11.1119
▁Tenman	-11.1119
▁Kashima	-11.1119
▁Fuyu	-11.112
▁taxation	-11.1122
▁Muraji	-11.1123
▁Wada	-11.1126
▁Jiju	-11.1126
▁Riku	-11.1126
▁Saigu	-11.1126
▁Give	-11.1127
▁certificate	-11.1128
itud	-11.1129
▁Kazan	-11.1132
▁ryori	-11.1132
▁Yin	-11.1132
Kebiishi	-11.1141
hirty	-11.1144
▁pole	-11.1145
▁Gosan	-11.1148
▁Zao	-11.1148
▁Kotoku	-11.1151
tsuhiko	-11.1155
▁Hakk	-11.1158
▁Koken	-11.1161
▁Komei	-11.1165
▁Shojiro	-11.1165
▁Sake	-11.1169
NU	-11.1174
▁robbe	-11.1181
▁determine	-11.1183
▁Moku	-11.1189
▁counter	-11.1202
Tale	-11.1211
document	-11.1224
▁prize	-11.1225
▁Konin	-11.1236
izar	-11.1236
▁Pol	-11.1246
600	-11.1248
▁pour	-11.1265
syllable	-11.1267
500	-11.1273
put	-11.1287
▁73	-11.13
▁Sawa	-11.13
▁137	-11.1332
▁53	-11.1355
Kazumasa	-11.1388
▁Buil	-11.142
▁imitat	-11.1424
▁97	-11.143
▁loose	-11.1437
▁suit	-11.1474
▁commission	-11.1475
▁patern	-11.1536
akki	-11.1625
▁presum	-11.1652
▁Medi	-11.1673
cidentally	-11.1723
till	-11.174
▁63	-11.1808
▁Yuzu	-11.1819
▁shipp	-11.1824
cession	-11.183
▁nav	-11.1877
▁Issa	-11.1906
ntry	-11.1923
▁Yamaga	-11.1959
36,	-11.197
Honcho	-11.1971
▁link	-11.2014
▁customar	-11.2044
▁sympath	-11.2123
▁liter	-11.2126
dication	-11.2132
▁Mototsun	-11.2147
Direct	-11.2162
shell	-11.2177
ENO	-11.218
▁Shan	-11.2252
earth	-11.2267
grand	-11.227
Ando	-11.2277
▁syllab	-11.228
▁sleeve	-11.2289
▁regulation	-11.2292
grat	-11.2319
complete	-11.2337
tumulus	-11.2338
MATSU	-11.2339
magistrate	-11.2339
ANG	-11.2339
writing	-11.234
regent	-11.234
NAKA	-11.234
suicide	-11.234
level	-11.2341
retainer	-11.2341
Keihan	-11.2341
senior	-11.2341
express	-11.2341
paper	-11.2341
Battle	-11.2342
school	-11.2342
Buddha	-11.2342
people	-11.2343
However	-11.2343
clan	-11.2343
road	-11.2343
block	-11.2349
numer	-11.235
father	-11.235
fourth	-11.2356
national	-11.2357
sixth	-11.236
Some	-11.2361
RAI	-11.2366
spirit	-11.2366
tainment	-11.2369
▁happen	-11.2401
▁weaken	-11.2421
▁success	-11.2424
Bank	-11.2452
▁Commerc	-11.2468
▁decrease	-11.2475
▁conclude	-11.2475
▁boar	-11.2481
lief	-11.2482
▁German	-11.2484
▁broth	-11.2486
▁northwest	-11.2489
eacher	-11.2489
▁Promot	-11.2495
▁Transport	-11.2497
▁frequent	-11.2498
▁Retain	-11.25
onsequently	-11.25
▁FUJI	-11.25
oncern	-11.25
▁pilgrim	-11.25
▁Part	-11.2501
▁initiat	-11.2501
▁ASA	-11.2501
▁resist	-11.2502
行	-11.2503
信	-11.2503
道	-11.2503
KUNI	-11.2503
ZUKI	-11.2503
identify	-11.2503
▁affiliat	-11.2503
▁bloom	-11.2503
門	-11.2503
<	-11.2503
BAYASHI	-11.2503
ITAGAKI	-11.2503
Maitreya	-11.2503
dormitory	-11.2503
mmortal	-11.2503
uperintendent	-11.2503
▁HIGASHI	-11.2503
▁INABA	-11.2503
▁KATSU	-11.2503
▁KOIDE	-11.2503
▁London	-11.2503
▁MAKINO	-11.2503
▁Miyasudokoro	-11.2503
▁NIKAIDO	-11.2503
▁Official	-11.2503
▁Power	-11.2503
▁Residence	-11.2503
▁SANADA	-11.2503
▁Sarutahiko	-11.2503
▁YAMAGA	-11.2503
▁Zeami	-11.2503
▁abbot	-11.2503
▁accurately	-11.2503
▁applicable	-11.2503
▁atmosphere	-11.2503
▁brewery	-11.2503
▁brigade	-11.2503
▁carpenter	-11.2503
▁challeng	-11.2503
▁circulation	-11.2503
▁commerce	-11.2503
▁complex	-11.2503
▁concert	-11.2503
▁consolidate	-11.2503
▁cuisine	-11.2503
▁definition	-11.2503
▁diplomacy	-11.2503
▁disorder	-11.2503
▁dynasties	-11.2503
▁earthquake	-11.2503
▁fundamental	-11.2503
▁happiness	-11.2503
▁immigrants	-11.2503
▁inferior	-11.2503
▁landscape	-11.2503
▁lavatory	-11.2503
▁lodg	-11.2503
▁mainstream	-11.2503
▁mathematics	-11.2503
▁mulberry	-11.2503
▁mutual	-11.2503
▁overwhelm	-11.2503
▁peculiar	-11.2503
▁pollution	-11.2503
▁quantit	-11.2503
▁rhythm	-11.2503
▁sculpture	-11.2503
▁siblings	-11.2503
▁strategy	-11.2503
▁tactics	-11.2503
▁technical	-11.2503
▁tournament	-11.2503
▁treatise	-11.2503
▁vessels	-11.2503
り	-11.2503
人	-11.2503
師	-11.2503
controvers	-11.2503
expulsion	-11.2503
fortunate	-11.2503
lternative	-11.2503
▁KIYO	-11.2503
▁Konparu	-11.2503
▁Pagoda	-11.2503
▁Political	-11.2503
▁Repair	-11.2503
▁Similar	-11.2503
▁Sumitomo	-11.2503
▁aristocracy	-11.2503
▁church	-11.2503
▁column	-11.2503
▁commut	-11.2503
▁concrete	-11.2503
▁contract	-11.2503
▁corps	-11.2503
▁destination	-11.2503
▁encounter	-11.2503
▁hermitage	-11.2503
▁narrative	-11.2503
▁penalty	-11.2503
▁persuad	-11.2503
▁smooth	-11.2503
▁tokonoma	-11.2503
▁unusual	-11.2503
INUKAI	-11.2503
lantern	-11.2503
▁Church	-11.2503
▁Heaven	-11.2503
▁Nenbutsu	-11.2503
▁blade	-11.2503
▁ceiling	-11.2503
▁geographical	-11.2503
▁nurse	-11.2503
▁witnesse	-11.2503
Edict	-11.2503
▁Kamatari	-11.2503
▁parade	-11.2503
山	-11.2503
▁MIURA	-11.2503
▁crowd	-11.2503
▁proclaimed	-11.2503
▁siege	-11.2503
Complete	-11.2503
uarantee	-11.2503
vacuat	-11.2503
▁Alliance	-11.2503
▁Film	-11.2503
▁Kuruwa	-11.2503
▁Sumimoto	-11.2503
▁Yanagawa	-11.2503
▁reliable	-11.2503
NHK	-11.2503
▁1928	-11.2503
▁Establishment	-11.2503
▁Saburo	-11.2503
▁Tsugaru	-11.2503
▁amended	-11.2503
▁generic	-11.2503
▁turtle	-11.2503
bayashi	-11.2503
zhou	-11.2503
▁1183	-11.2503
▁1428	-11.2503
▁Chikugo	-11.2503
▁Tsurugi	-11.2503
▁bitter	-11.2503
elfare	-11.2503
▁Benkei	-11.2503
▁1602	-11.2503
▁Terada	-11.2503
▁anthology	-11.2503
▁obey	-11.2503
▁Sumida	-11.2503
▁Tsubone	-11.2503
▁clouds	-11.2503
▁Azechi	-11.2503
▁Cross	-11.2503
▁lute	-11.2503
▁ultimate	-11.2503
▁OKADA	-11.2503
▁1922	-11.2503
▁Natural	-11.2503
▁Regent	-11.2503
▁Sekkan	-11.2503
▁nenbutsu	-11.2503
▁prime	-11.2503
▁1331	-11.2503
▁firm	-11.2503
▁protest	-11.2503
▁stamp	-11.2503
▁Father	-11.2503
▁Ippon	-11.2503
▁desert	-11.2503
▁fudoki	-11.2503
▁meditation	-11.2503
▁pepper	-11.2503
▁sufficient	-11.2503
▁Kabane	-11.2503
▁sky	-11.2503
▁coincid	-11.2503
▁Sanzon	-11.2503
▁NAGAI	-11.2503
▁Tosando	-11.2503
climb	-11.2503
▁histories	-11.2503
▁dawn	-11.2503
▁debt	-11.2503
kotoba	-11.2503
Musume	-11.2503
Dream	-11.2503
▁partially	-11.2503
▁distinctive	-11.2503
▁rakugo	-11.2503
brush	-11.2503
▁orthodox	-11.2503
▁disturbance	-11.2504
▁extension	-11.2504
▁knee	-11.2504
▁remarkabl	-11.2504
▁cedar	-11.2504
▁slid	-11.2504
▁battalion	-11.2504
▁debut	-11.2504
▁dissolution	-11.2504
UTAGAWA	-11.2504
▁transcribe	-11.2504
▁neck	-11.2504
▁usage	-11.2504
▁okimi	-11.2504
▁Aoyama	-11.2504
▁Ameno	-11.2504
▁acid	-11.2504
▁interven	-11.2504
▁perhaps	-11.2504
▁pottery	-11.2504
▁takana	-11.2504
▁conservative	-11.2504
Origin	-11.2504
▁Saint	-11.2504
▁stuff	-11.2504
▁context	-11.2505
▁horseback	-11.2505
▁Atsutane	-11.2505
▁ramen	-11.2505
▁preface	-11.2505
▁hemp	-11.2505
▁NAKAHARA	-11.2505
▁diaries	-11.2505
▁fifteenth	-11.2505
▁natto	-11.2506
▁Chemical	-11.2506
▁consequently	-11.2506
▁flute	-11.2506
▁fellow	-11.2506
▁Area	-11.2506
▁SHIBATA	-11.2507
▁Mongol	-11.2507
1991	-11.2507
▁Yuryaku	-11.2507
▁aunt	-11.2507
▁Rennyo	-11.2507
▁dough	-11.2508
▁dancers	-11.2509
▁1908	-11.2509
▁KONO	-11.2509
▁1893	-11.2509
▁1180	-11.251
▁1925	-11.251
▁Promotion	-11.2511
▁1969	-11.2511
▁anything	-11.2511
▁Hokushin	-11.2512
▁kanrei	-11.2512
▁kyogen	-11.2512
▁1982	-11.2513
▁lifetime	-11.2513
▁Ninmyo	-11.2513
▁tune	-11.2513
▁5,000	-11.2513
▁baron	-11.2513
▁deport	-11.2513
▁Morosuke	-11.2514
▁leap	-11.2515
▁dating	-11.2515
▁dislike	-11.2515
▁justice	-11.2515
▁waist	-11.2516
▁daytime	-11.2516
▁Yorimitsu	-11.2516
▁1888	-11.2516
▁specialty	-11.2516
▁Kyorai	-11.2517
▁Ichinomiya	-11.2517
▁1894	-11.2517
▁Junnin	-11.2517
▁Hideyori	-11.2517
▁symbolic	-11.2517
▁zone	-11.2518
▁brand	-11.2518
▁Yoshinao	-11.2518
▁Miura	-11.2518
rendered	-11.2518
▁warship	-11.2519
▁Yoriyoshi	-11.2519
▁Munemori	-11.2519
▁Tsunetaka	-11.252
▁Saneyoshi	-11.252
▁unification	-11.252
▁Nobuyuki	-11.252
▁Ningyo	-11.252
▁ronin	-11.2521
▁861	-11.2522
▁Katsuragi	-11.2522
▁1913	-11.2522
▁donation	-11.2522
▁Toshiie	-11.2522
▁pace	-11.2523
▁taifu	-11.2524
▁pack	-11.2524
▁adoption	-11.2524
▁Tadamichi	-11.2524
▁Kagura	-11.2524
▁INA	-11.2524
▁1842	-11.2525
▁Renge	-11.2525
▁robe	-11.2526
▁lid	-11.2526
▁Tadakuni	-11.2526
▁1156	-11.2526
▁2001	-11.2528
▁Tadataka	-11.2529
▁achieve	-11.253
▁roju	-11.253
KOJI	-11.253
▁Commissioner	-11.253
▁majority	-11.2531
▁shame	-11.2531
▁Yoshichika	-11.2532
▁Fukei	-11.2533
▁Buke	-11.2535
▁candy	-11.2536
▁Yoshikiyo	-11.2536
▁cler	-11.2536
▁torii	-11.2537
▁1300	-11.2538
tsukuri	-11.2538
tension	-11.2538
▁49	-11.2542
▁Nada	-11.2546
owadays	-11.2546
HIRO	-11.2546
▁List	-11.2547
▁trace	-11.2549
▁Iwate	-11.255
▁scr	-11.255
▁Naganori	-11.2552
assa	-11.2557
▁symboliz	-11.256
▁Judg	-11.2562
▁Elev	-11.2564
▁Wang	-11.2578
▁sail	-11.2578
▁skillful	-11.2593
▁spare	-11.2594
spens	-11.2605
▁craftsm	-11.2606
fancy	-11.2611
Yokooji	-11.2611
EG	-11.2612
northeastern	-11.262
yobo	-11.2621
SAKA	-11.2624
▁apolog	-11.2647
▁juni	-11.2657
courtier	-11.2667
▁85	-11.2686
SUKA	-11.2751
▁diver	-11.2789
▁rac	-11.2839
kagura	-11.2857
▁Toshiaki	-11.2903
ppression	-11.2991
▁decorati	-11.3011
▁Dam	-11.3086
Taika	-11.3129
▁86	-11.3132
ilt	-11.314
3,000	-11.3147
▁considerabl	-11.3221
onobe	-11.3236
▁sew	-11.3243
▁fit	-11.3249
▁149	-11.3254
children	-11.3314
▁rang	-11.3317
Bai	-11.3372
▁shak	-11.3463
▁seiz	-11.3551
▁loo	-11.3663
▁deifi	-11.37
▁featur	-11.3738
▁paint	-11.3932
▁participat	-11.397
source	-11.4
KATA	-11.4002
ANDO	-11.4003
junior	-11.4003
text	-11.4005
picture	-11.4006
look	-11.4007
stitution	-11.4007
empress	-11.4007
Class	-11.4007
natural	-11.4007
published	-11.4008
Office	-11.4008
grandson	-11.4008
collection	-11.4008
horse	-11.4008
built	-11.4008
Empress	-11.4008
According	-11.4009
feud	-11.4009
young	-11.4009
birth	-11.4009
priest	-11.4009
spring	-11.4009
worship	-11.4009
shogunate	-11.4012
volved	-11.4013
described	-11.4017
bbed	-11.4024
▁Historic	-11.404
▁resign	-11.4063
north	-11.4064
▁abandon	-11.4067
▁finish	-11.4067
▁disappear	-11.4068
▁fix	-11.4069
▁confirm	-11.4069
▁reveal	-11.4069
habit	-11.4074
▁southwest	-11.408
ebiishi	-11.4084
leaning	-11.4133
▁Agricultur	-11.4135
bbreviated	-11.4138
tub	-11.4139
▁decide	-11.4143
▁sudden	-11.4144
▁Original	-11.4145
▁archer	-11.4151
▁militar	-11.4152
▁rebellio	-11.4155
▁cooperat	-11.416
ravel	-11.416
Collect	-11.4162
imation	-11.4163
▁confront	-11.4163
UGA	-11.4164
▁Camp	-11.4165
xplanation	-11.4166
upreme	-11.4166
▁Arm	-11.4167
reserved	-11.4167
▁Sign	-11.4169
い	-11.4169
KAMO	-11.4169
候	-11.4169
都	-11.4169
氏	-11.4169
仏	-11.4169
▁clash	-11.4169
▁corrupt	-11.4169
▁delay	-11.4169
▁rebuild	-11.4169
事	-11.4169
天	-11.4169
武	-11.4169
無	-11.4169
Sanskrit	-11.4169
ambassador	-11.4169
ameitagin	-11.4169
apprentice	-11.4169
collaborat	-11.4169
deficienc	-11.4169
emocratic	-11.4169
iographies	-11.4169
qualification	-11.4169
sexual	-11.4169
tegotomono	-11.4169
thologies	-11.4169
volution	-11.4169
▁AMAGO	-11.4169
▁AZAI	-11.4169
▁Address	-11.4169
▁Arisugawanomiya	-11.4169
▁Beijing	-11.4169
▁Chrysanthemum	-11.4169
▁Defense	-11.4169
▁Gomizunoo	-11.4169
▁Hitotsubashi	-11.4169
▁IMAGAWA	-11.4169
▁ISSHIKI	-11.4169
▁MATSUDONO	-11.4169
▁Magistrate	-11.4169
▁Metropoli	-11.4169
▁Mount	-11.4169
▁OGASAWARA	-11.4169
▁Particularly	-11.4169
▁Plain	-11.4169
▁SHINOHARA	-11.4169
▁Slope	-11.4169
▁TSUCHIMIKADO	-11.4169
▁Tamakazura	-11.4169
▁Tamuramaro	-11.4169
▁Technology	-11.4169
▁Text	-11.4169
▁Throne	-11.4169
▁YANAGISAWA	-11.4169
▁bureau	-11.4169
▁candidate	-11.4169
▁cemetery	-11.4169
▁chopsticks	-11.4169
▁chronological	-11.4169
▁collateral	-11.4169
▁communities	-11.4169
▁component	-11.4169
▁confectionery	-11.4169
▁consecutive	-11.4169
▁contrary	-11.4169
▁counterfeit	-11.4169
▁discipline	-11.4169
▁dumpling	-11.4169
▁earthenware	-11.4169
▁enhanced	-11.4169
▁enthusiastic	-11.4169
▁entomb	-11.4169
▁excavation	-11.4169
▁faculty	-11.4169
▁figurine	-11.4169
▁gorgeous	-11.4169
▁hierarchy	-11.4169
▁imprisoned	-11.4169
▁isolated	-11.4169
▁manhood	-11.4169
▁misfortune	-11.4169
▁neighborhood	-11.4169
▁network	-11.4169
▁occupy	-11.4169
▁octopus	-11.4169
▁palanquin	-11.4169
▁patriarch	-11.4169
▁perspective	-11.4169
▁poverty	-11.4169
▁precedent	-11.4169
▁provoke	-11.4169
▁radical	-11.4169
▁reconciliation	-11.4169
▁released	-11.4169
▁rescript	-11.4169
▁seclusion	-11.4169
▁simultaneously	-11.4169
▁solstice	-11.4169
▁synthe	-11.4169
▁transmitted	-11.4169
▁troupe	-11.4169
▁vigorous	-11.4169
▁welcomed	-11.4169
▁zaibatsu	-11.4169
城	-11.4169
念	-11.4169
社	-11.4169
Assembly	-11.4169
Autumn	-11.4169
Calligraph	-11.4169
Commemorati	-11.4169
▁ARIMA	-11.4169
▁Dannoura	-11.4169
▁Hachinohe	-11.4169
▁KATAOKA	-11.4169
▁MIYAKE	-11.4169
▁Nishikyogoku	-11.4169
▁Okuninushi	-11.4169
▁Painting	-11.4169
▁Sahyoe	-11.4169
▁Serizawa	-11.4169
▁Ukifune	-11.4169
▁audit	-11.4169
▁cheap	-11.4169
▁combat	-11.4169
▁consumer	-11.4169
▁diameter	-11.4169
▁message	-11.4169
▁ominous	-11.4169
▁pioneer	-11.4169
▁shamisen	-11.4169
▁silent	-11.4169
▁tassel	-11.4169
college	-11.4169
▁1996	-11.4169
▁Fujitsubo	-11.4169
▁KISO	-11.4169
▁Legend	-11.4169
▁SOMA	-11.4169
▁borrow	-11.4169
▁equinox	-11.4169
▁paddy	-11.4169
▁pursuit	-11.4169
▁rescue	-11.4169
▁teeth	-11.4169
▁thrust	-11.4169
ANSAI	-11.4169
▁Blue	-11.4169
▁Hikitsuke	-11.4169
▁clever	-11.4169
▁cruel	-11.4169
▁dialect	-11.4169
allegedly	-11.4169
▁1184	-11.4169
▁1932	-11.4169
▁Course	-11.4169
▁Faith	-11.4169
▁Sumiyoshi	-11.4169
▁climate	-11.4169
▁sphere	-11.4169
▁steep	-11.4169
▁unearthed	-11.4169
abdomen	-11.4169
▁Sugoroku	-11.4169
▁Yagyu	-11.4169
▁precisely	-11.4169
▁1896	-11.4169
▁1909	-11.4169
▁Gosaga	-11.4169
▁Taoism	-11.4169
▁Yawata	-11.4169
▁fittings	-11.4169
▁ideology	-11.4169
▁lieu	-11.4169
七	-11.4169
▁1970	-11.4169
▁1979	-11.4169
▁Operation	-11.4169
▁Zhu	-11.4169
▁slowly	-11.4169
▁Shugendo	-11.4169
▁1649	-11.4169
▁1971	-11.4169
▁Priv	-11.4169
▁1977	-11.4169
▁Britain	-11.4169
▁dictionary	-11.4169
▁task	-11.4169
▁Nyoirin	-11.4169
legislat	-11.4169
▁Himiko	-11.4169
▁Mission	-11.4169
▁Zui	-11.4169
▁Information	-11.417
▁epic	-11.417
▁MURATA	-11.417
▁Rokkaku	-11.417
▁Tochigi	-11.417
▁depth	-11.417
▁Girl	-11.417
▁lift	-11.417
Tanabata	-11.417
▁contradict	-11.417
▁Social	-11.417
▁drain	-11.417
Ritsumeikan	-11.417
▁Tatebayashi	-11.417
▁ninja	-11.417
▁Sekke	-11.417
▁persist	-11.417
▁Merit	-11.417
▁Post	-11.417
suchimikado	-11.417
▁garment	-11.417
▁logging	-11.417
FUKU	-11.417
▁Trans	-11.417
Seikanron	-11.417
▁Shinagawa	-11.417
▁palm	-11.417
▁proud	-11.417
▁Abura	-11.417
mentaiko	-11.417
▁Serv	-11.417
▁Yusoku	-11.417
▁injured	-11.417
dragon	-11.417
▁Time	-11.417
▁innovat	-11.417
▁statute	-11.417
loqu	-11.417
▁spearhead	-11.417
▁deem	-11.417
▁angry	-11.417
▁wonder	-11.4171
▁Sanjonishi	-11.4171
▁exposed	-11.4171
▁comprehensive	-11.4171
▁Kyotanabe	-11.4171
▁vend	-11.4171
▁artifacts	-11.4171
uddhahood	-11.4171
▁FUJITA	-11.4171
▁cooperative	-11.4171
▁glory	-11.4171
▁monzeki	-11.4171
▁initiative	-11.4171
ographic	-11.4171
▁Rikken	-11.4171
▁loyalty	-11.4172
▁apply	-11.4172
▁KIMURA	-11.4172
Queen	-11.4172
▁magic	-11.4172
▁Outline	-11.4172
▁else	-11.4172
▁Shikinaisha	-11.4172
▁gambl	-11.4172
▁compound	-11.4172
▁procur	-11.4172
▁Mokuroku	-11.4172
▁towel	-11.4172
▁debate	-11.4172
▁folded	-11.4172
▁Moronao	-11.4172
▁Tametomo	-11.4173
TSUKI	-11.4173
▁Murashige	-11.4173
Winter	-11.4173
▁HIRATA	-11.4173
▁Ginkaku	-11.4173
▁Takechiyo	-11.4173
culpt	-11.4173
▁Mochiuji	-11.4174
▁Retainers	-11.4174
▁Health	-11.4174
Tenpyo	-11.4174
▁Young	-11.4174
▁purple	-11.4174
▁percentage	-11.4174
▁instant	-11.4174
▁TOKI	-11.4175
▁MATSUDA	-11.4175
▁pledg	-11.4175
▁TODA	-11.4175
kabane	-11.4175
▁Human	-11.4175
oracle	-11.4175
▁Narichika	-11.4175
▁priority	-11.4176
▁native	-11.4176
▁Terumoto	-11.4176
▁hyakush	-11.4176
▁glut	-11.4176
tadium	-11.4176
▁tight	-11.4177
▁Noritsune	-11.4177
▁Gakko	-11.4177
▁Nue	-11.4177
▁Suica	-11.4178
▁1915	-11.4178
earby	-11.4178
▁theatre	-11.4178
▁1940	-11.4178
▁Stone	-11.4178
▁manufacturer	-11.4179
▁Ietsugu	-11.4179
▁Tadateru	-11.4179
▁672	-11.4179
▁Yukitsuna	-11.4179
▁1987	-11.4179
▁onwards	-11.418
onoimi	-11.418
▁entertainment	-11.4181
▁tato	-11.4181
▁Shimizu	-11.4181
IDO	-11.4181
▁Kagekatsu	-11.4181
YANAGI	-11.4182
▁thatched	-11.4182
ischarge	-11.4182
▁1930	-11.4182
▁2,000	-11.4182
▁1587	-11.4182
▁Ieyoshi	-11.4182
▁Matsushiro	-11.4182
▁Saneyori	-11.4183
▁1882	-11.4183
yoriai	-11.4183
▁1978	-11.4183
▁1968	-11.4184
isposal	-11.4184
▁bright	-11.4185
▁1683	-11.4185
▁WAKA	-11.4186
▁Bepp	-11.4188
▁reproduce	-11.419
▁dam	-11.4192
ignature	-11.4192
▁1953	-11.4196
▁ethn	-11.4197
monkey	-11.42
plend	-11.42
▁1902	-11.4204
▁access	-11.4207
▁hokk	-11.4209
Tsukuyomi	-11.4209
▁terminat	-11.4211
▁choos	-11.4215
▁genealog	-11.4222
tute	-11.4224
Living	-11.4227
▁infant	-11.4229
▁Spa	-11.4229
▁tube	-11.4234
iragana	-11.424
solo	-11.4262
torehouses	-11.4301
▁pretend	-11.4311
▁provid	-11.4311
▁Shogoi	-11.4319
▁grip	-11.4373
▁essen	-11.438
▁Shakk	-11.4412
circu	-11.446
Jinja	-11.4576
▁Harr	-11.4609
alley	-11.4625
nned	-11.4657
Wakana	-11.4716
Yoshiyasu	-11.4762
▁archive	-11.4856
▁arise	-11.4876
traction	-11.4906
How	-11.4948
Shinkuro	-11.5005
▁compli	-11.5025
USA	-11.5025
sacr	-11.5038
oul	-11.5042
Miyako	-11.5105
Kurum	-11.5176
appa	-11.5235
▁recall	-11.5278
comparable	-11.5281
nshrined	-11.5286
tanabe	-11.5434
okonom	-11.5438
flavored	-11.5443
appointed	-11.5544
▁inspect	-11.5595
ocuments	-11.567
udge	-11.569
Sasaki	-11.5712
▁describ	-11.5734
position	-11.5843
▁modifi	-11.5846
▁expense	-11.5957
▁noodle	-11.5962
Pur	-11.5963
close	-11.5964
presumabl	-11.5975
love	-11.5984
layer	-11.6
celebrat	-11.6002
grandchild	-11.6002
servant	-11.6003
Dutch	-11.6004
waiting	-11.6004
Military	-11.6004
secretary	-11.6005
Lady	-11.6005
Uesugi	-11.6005
equal	-11.6005
Kasuga	-11.6006
folk	-11.6006
chapter	-11.6006
Spring	-11.6006
correspond	-11.6006
Jugoinoge	-11.6006
Musashi	-11.6007
painting	-11.6007
Izumo	-11.6007
Taisho	-11.6007
district	-11.6007
equi	-11.6007
Mikoto	-11.6007
white	-11.6007
course	-11.6007
married	-11.6008
divided	-11.6008
volume	-11.6008
sauce	-11.6008
Even	-11.6008
territory	-11.6008
Kannon	-11.6008
June	-11.6009
original	-11.6009
adopted	-11.6009
Nobunaga	-11.6009
MINAMOTO	-11.6009
[	-11.6009
various	-11.6009
Kamakura	-11.6009
daughter	-11.6009
however	-11.6009
system	-11.6009
death	-11.601
▁specializ	-11.6028
broke	-11.6028
gainst	-11.6039
▁tribut	-11.6048
actor	-11.6048
▁execut	-11.6055
▁scen	-11.6059
▁fail	-11.6067
▁dismiss	-11.6068
▁install	-11.607
▁TAK	-11.6073
▁hesitat	-11.6081
▁involv	-11.6083
llustrated	-11.6125
charg	-11.6128
▁Commission	-11.6131
▁pursue	-11.6145
ivity	-11.6147
▁possib	-11.6159
▁eleven	-11.616
▁certifi	-11.6161
TOKU	-11.6164
▁unfavor	-11.6164
vestig	-11.6164
hemical	-11.6165
blossom	-11.6166
uccessor	-11.6166
bject	-11.6167
xchange	-11.6167
erhaps	-11.6167
▁quar	-11.6167
solution	-11.6168
egitimate	-11.6168
mmediately	-11.6169
▁log	-11.6169
軍	-11.6169
UTSU	-11.6169
き	-11.6169
Establish	-11.6169
源	-11.6169
▁TOYO	-11.6169
に	-11.6169
古	-11.6169
二	-11.6169
三	-11.6169
島	-11.6169
▁suspect	-11.6169
合	-11.6169
姫	-11.6169
▁frustrat	-11.6169
▁nurtur	-11.6169
Ambassador	-11.6169
Inspector	-11.6169
MIKADO	-11.6169
Student	-11.6169
kanpaku	-11.6169
organizing	-11.6169
ormorant	-11.6169
universal	-11.6169
uxiliary	-11.6169
≒	-11.6169
▁Ceremony	-11.6169
▁Chemistry	-11.6169
▁Communication	-11.6169
▁Expedition	-11.6169
▁Float	-11.6169
▁Goguryeo	-11.6169
▁Goryeo	-11.6169
▁HAMADA	-11.6169
▁ISONO	-11.6169
▁Itsukushima	-11.6169
▁Jesuit	-11.6169
▁KAJIWARA	-11.6169
▁Kagutsuchi	-11.6169
▁Ksitigarbha	-11.6169
▁Liquor	-11.6169
▁NAITO	-11.6169
▁Network	-11.6169
▁Ogasawara	-11.6169
▁Practice	-11.6169
▁Progress	-11.6169
▁Publish	-11.6169
▁SAKAKIBARA	-11.6169
▁SHIMIZU	-11.6169
▁TSUTSUI	-11.6169
▁Takamanohara	-11.6169
▁Through	-11.6169
▁Tunnel	-11.6169
▁UMEWAKA	-11.6169
▁Visit	-11.6169
▁Worcester	-11.6169
▁YAGYU	-11.6169
▁YAMASHINA	-11.6169
▁YASUDA	-11.6169
▁YOKOYAMA	-11.6169
▁Zuryo	-11.6169
▁abalone	-11.6169
▁accumulat	-11.6169
▁agencies	-11.6169
▁amusement	-11.6169
▁arrogant	-11.6169
▁automobile	-11.6169
▁breweries	-11.6169
▁clay	-11.6169
▁conclusion	-11.6169
▁configuration	-11.6169
▁convenient	-11.6169
▁conversation	-11.6169
▁cremated	-11.6169
▁dangerous	-11.6169
▁declaration	-11.6169
▁discord	-11.6169
▁dismantl	-11.6169
▁dissatisfaction	-11.6169
▁dowager	-11.6169
▁enclosure	-11.6169
▁ensemble	-11.6169
▁enterprise	-11.6169
▁epitaph	-11.6169
▁erupted	-11.6169
▁fabric	-11.6169
▁falconry	-11.6169
▁fencing	-11.6169
▁folklore	-11.6169
▁foodstuffs	-11.6169
▁forerunner	-11.6169
▁grandmother	-11.6169
▁harsh	-11.6169
▁hybrid	-11.6169
▁identical	-11.6169
▁kakegoe	-11.6169
▁longevity	-11.6169
▁luxur	-11.6169
▁ministries	-11.6169
▁orchestra	-11.6169
▁recited	-11.6169
▁reciting	-11.6169
▁reclamation	-11.6169
▁rectangular	-11.6169
▁reincarnat	-11.6169
▁revitalization	-11.6169
▁sanctuary	-11.6169
▁scandal	-11.6169
▁supplie	-11.6169
▁unprecedented	-11.6169
下	-11.6169
▁1954	-11.6169
▁ENOMOTO	-11.6169
▁Enlightenment	-11.6169
▁FUKUSHIMA	-11.6169
▁FUKUZAWA	-11.6169
▁Field	-11.6169
▁GAMO	-11.6169
▁HASEGAWA	-11.6169
▁HIJIKATA	-11.6169
▁KUMAGAI	-11.6169
▁NARA	-11.6169
▁Numata	-11.6169
▁OGIMACHI	-11.6169
▁Ruins	-11.6169
▁Sakuradamon	-11.6169
▁Udaiben	-11.6169
▁Yatsuhashi	-11.6169
▁clique	-11.6169
▁deceiv	-11.6169
▁equestrian	-11.6169
▁genuine	-11.6169
▁global	-11.6169
▁ministry	-11.6169
▁monarch	-11.6169
▁nutritio	-11.6169
▁plead	-11.6169
▁profound	-11.6169
▁renounc	-11.6169
▁terrace	-11.6169
▁thunder	-11.6169
▁unnecessar	-11.6169
▁yedoensis	-11.6169
政	-11.6169
GAMI	-11.6169
cessive	-11.6169
ersimmon	-11.6169
▁1905	-11.6169
▁Communi	-11.6169
▁Gakkai	-11.6169
▁Hakodate	-11.6169
▁Isonokami	-11.6169
▁Izanami	-11.6169
▁Kiritsubo	-11.6169
▁Neyagawa	-11.6169
▁absence	-11.6169
▁essay	-11.6169
▁furthermore	-11.6169
▁happy	-11.6169
▁incense	-11.6169
▁promising	-11.6169
▁warfare	-11.6169
藤	-11.6169
高	-11.6169
hydra	-11.6169
ladder	-11.6169
▁Furoshiki	-11.6169
▁Gleanings	-11.6169
▁IMAI	-11.6169
▁Newspaper	-11.6169
▁OKAMOTO	-11.6169
▁Usually	-11.6169
▁kelp	-11.6169
▁sarugaku	-11.6169
▁scold	-11.6169
▁storage	-11.6169
▁substance	-11.6169
▁sukune	-11.6169
▁temporal	-11.6169
▁weaving	-11.6169
▁Material	-11.6169
▁generous	-11.6169
▁wrong	-11.6169
Ruiju	-11.6169
uterine	-11.6169
▁1942	-11.6169
▁Dajokan	-11.6169
▁Gokuraku	-11.6169
▁Mimasaka	-11.6169
▁actress	-11.6169
▁coffin	-11.6169
▁constant	-11.6169
▁dark	-11.6169
▁mokuroku	-11.6169
▁petals	-11.6169
▁venge	-11.6169
▁Nyudo	-11.6169
▁elite	-11.6169
▁folktale	-11.6169
▁frozen	-11.6169
▁stead	-11.6169
▁extant	-11.6169
▁oneself	-11.6169
▁phonetic	-11.6169
▁1605	-11.6169
▁Kinosaki	-11.6169
▁Monument	-11.6169
▁Textile	-11.6169
▁detect	-11.6169
▁interfere	-11.6169
KTR	-11.6169
▁1392	-11.6169
▁1992	-11.6169
▁Jiyuto	-11.6169
▁absent	-11.6169
▁bream	-11.6169
omozono	-11.6169
▁Gotairo	-11.6169
▁Kuwana	-11.6169
▁Genealogy	-11.6169
▁HARADA	-11.6169
▁Philosophy	-11.6169
▁Sonohito	-11.6169
▁ferry	-11.6169
▁fox	-11.6169
Hyakki	-11.6169
▁1189	-11.6169
▁1604	-11.6169
▁1611	-11.6169
▁mineral	-11.6169
▁1931	-11.6169
▁Hyojo	-11.6169
▁Tsukiyama	-11.6169
▁appreciated	-11.6169
▁decapitat	-11.6169
▁lawsuit	-11.6169
apprais	-11.6169
▁Warehouse	-11.617
▁Jurokui	-11.617
▁Shugakuin	-11.617
▁moromi	-11.617
▁Byobu	-11.617
▁Hashimoto	-11.617
▁1471	-11.617
▁tuna	-11.617
akadoshiyori	-11.617
▁ujigami	-11.617
▁1221	-11.617
▁Rakuichi	-11.617
▁detach	-11.617
▁editor	-11.617
▁Kawagoe	-11.617
▁mixing	-11.617
▁1827	-11.617
▁inferr	-11.617
▁TAMURA	-11.617
▁pertain	-11.617
▁voluntarily	-11.617
▁Obama	-11.617
▁excelle	-11.617
▁dictat	-11.617
▁multi	-11.617
▁TADA	-11.617
▁Vol	-11.617
physici	-11.617
▁sashimi	-11.617
▁Inoue	-11.617
▁geigi	-11.617
▁systematic	-11.617
▁Niiname	-11.617
▁boast	-11.617
▁censu	-11.617
TSUJI	-11.617
▁iratsume	-11.617
▁aikido	-11.617
▁Rakugo	-11.617
Bukkyo	-11.617
▁Aomori	-11.617
▁halo	-11.617
▁valley	-11.617
▁insects	-11.617
uccession	-11.617
▁standpoint	-11.617
▁FUJIMA	-11.617
▁coarse	-11.617
▁freedom	-11.617
▁Canal	-11.617
▁admission	-11.617
▁solve	-11.617
▁FURUTA	-11.6171
▁MATSUURA	-11.6171
▁townspeople	-11.6171
▁peas	-11.6171
▁Gonara	-11.6171
▁daikon	-11.6171
▁MATSUMOTO	-11.6171
▁torture	-11.6171
▁TAKEUCHI	-11.6171
xperiment	-11.6171
Chikurin	-11.6171
alcove	-11.6171
▁appointee	-11.6171
▁YAMAUCHI	-11.6171
omitted	-11.6171
▁Jaku	-11.6171
▁yard	-11.6171
Mitsubishi	-11.6171
Large	-11.6172
wordsmanship	-11.6172
▁aveng	-11.6172
▁harp	-11.6172
▁tozama	-11.6172
▁devotee	-11.6172
▁illustrations	-11.6173
▁resent	-11.6173
▁referee	-11.6173
▁sort	-11.6174
juhachi	-11.6174
▁bag	-11.6174
▁flu	-11.6175
etails	-11.6175
▁cere	-11.6176
▁chart	-11.6176
arbha	-11.6177
▁Read	-11.6178
▁Naruhi	-11.618
sumption	-11.6181
▁obs	-11.6182
forfeit	-11.6185
▁Machida	-11.6188
ntries	-11.6189
primar	-11.6189
flat	-11.619
▁rent	-11.6194
iribi	-11.6196
898	-11.6197
▁insert	-11.6207
▁1336	-11.6222
conceivable	-11.6224
onzeki	-11.6224
Ekiben	-11.6231
ndemn	-11.6231
itchen	-11.6245
origoe	-11.6249
Keich	-11.6257
ottery	-11.6259
omputer	-11.6272
npuku	-11.6282
publisher	-11.6282
▁destruct	-11.6287
▁MAS	-11.6311
Kichiemon	-11.6316
aigeki	-11.6328
festiv	-11.6348
▁replac	-11.6427
quadron	-11.6446
Tenshu	-11.6463
corporate	-11.6516
ivid	-11.6665
▁squ	-11.6674
02)	-11.6734
▁combin	-11.6751
Imazu	-11.6859
▁arriv	-11.6859
▁presid	-11.6945
aaM	-11.7002
▁Kokubu	-11.701
▁deliberat	-11.706
▁Rokk	-11.707
parent	-11.7175
integration	-11.7227
▁Nitt	-11.7287
Sadaishi	-11.73
▁annotat	-11.7371
1-1	-11.7434
▁oppress	-11.7452
▁volcan	-11.7612
rchives	-11.7681
earning	-11.7726
Shigeyuki	-11.7746
▁exercis	-11.7817
Eiga	-11.7874
▁Nagahar	-11.799
▁guid	-11.8061
▁incorporat	-11.8141
IRA	-11.8244
▁balance	-11.8247
▁determin	-11.8285
▁Kiyohar	-11.8298
▁precinct	-11.8459
courage	-11.8475
cluded	-11.8486
Amitabha	-11.8502
ceremonial	-11.8502
contact	-11.8503
Nagano	-11.8505
interpret	-11.8505
controlled	-11.8505
Easter	-11.8505
Council	-11.8505
Toyotomi	-11.8506
guardian	-11.8506
copy	-11.8506
Hyogo	-11.8507
heaven	-11.8507
village	-11.8508
powerful	-11.8508
Western	-11.8508
compil	-11.8508
Takeda	-11.8508
Kawachi	-11.8508
Law	-11.8508
Bosatsu	-11.8508
Second	-11.8508
Satsuma	-11.8508
Route	-11.8508
group	-11.8508
emperor	-11.8509
families	-11.8509
Court	-11.8509
August	-11.8509
number	-11.8509
Hideyoshi	-11.8509
ceremony	-11.8509
FUJIWARA	-11.8509
dvanced	-11.8536
seventeen	-11.8539
▁punish	-11.8564
▁confiscat	-11.8568
▁arrang	-11.8569
SAKI	-11.862
asically	-11.8626
▁extrem	-11.8634
▁retire	-11.8638
hilly	-11.8641
▁organize	-11.8642
▁refuse	-11.8643
▁betray	-11.8644
ordinated	-11.8651
Catalog	-11.8655
▁Jugoi	-11.8657
TOMO	-11.8658
▁educat	-11.8662
believ	-11.8665
ixteen	-11.8666
xecutive	-11.8666
Letter	-11.8667
attalion	-11.8668
▁FURU	-11.8668
conferr	-11.8668
launch	-11.8668
▁spear	-11.8668
左	-11.8669
sufficien	-11.8669
明	-11.8669
と	-11.8669
小	-11.8669
八	-11.8669
名	-11.8669
光	-11.8669
NOMIYA	-11.8669
▁barricad	-11.8669
▁cylind	-11.8669
▁wield	-11.8669
万	-11.8669
例	-11.8669
普	-11.8669
朝	-11.8669
Gukansho	-11.8669
Karuizawa	-11.8669
migrant	-11.8669
▁KAMEI	-11.8669
▁contemplati	-11.8669
▁simmer	-11.8669
▁stomach	-11.8669
忌	-11.8669
Beauty	-11.8669
Hahakigi	-11.8669
Horyakukanki	-11.8669
Literature	-11.8669
Oranje	-11.8669
Sanjusangen	-11.8669
Siberia	-11.8669
Structure	-11.8669
Wachigaiya	-11.8669
assimilat	-11.8669
embroidery	-11.8669
postscript	-11.8669
quisition	-11.8669
relevant	-11.8669
stubborn	-11.8669
triangular	-11.8669
wrestling	-11.8669
▁0.27	-11.8669
▁ANEGAKOJI	-11.8669
▁Amenohiboko	-11.8669
▁Anahobe	-11.8669
▁Approx	-11.8669
▁Buffaloes	-11.8669
▁CHEN	-11.8669
▁Conquest	-11.8669
▁Divinities	-11.8669
▁Dynasties	-11.8669
▁Environment	-11.8669
▁Fortune	-11.8669
▁Gokameyama	-11.8669
▁Gregori	-11.8669
▁HAJI	-11.8669
▁HASHIMOTO	-11.8669
▁Ikaruga	-11.8669
▁Industry	-11.8669
▁Influence	-11.8669
▁Instead	-11.8669
▁Internet	-11.8669
▁Issunboshi	-11.8669
▁KAJUJI	-11.8669
▁KAMAKURA	-11.8669
▁KIRINO	-11.8669
▁KOBAYAKAWA	-11.8669
▁KOSUGI	-11.8669
▁KUROKAWA	-11.8669
▁Kinugasa	-11.8669
▁Manchuria	-11.8669
▁Marquis	-11.8669
▁NITTA	-11.8669
▁Numazu	-11.8669
▁OGATA	-11.8669
▁Ogigayatsu	-11.8669
▁Paradise	-11.8669
▁SATAKE	-11.8669
▁Sakonoe	-11.8669
▁Seppuku	-11.8669
▁Someiyoshino	-11.8669
▁Standard	-11.8669
▁TORII	-11.8669
▁Takaragaike	-11.8669
▁Tsukigase	-11.8669
▁Vietnam	-11.8669
▁Week	-11.8669
▁YAKUSHIJI	-11.8669
▁YUKI	-11.8669
▁Yokkaichi	-11.8669
▁Zeze	-11.8669
▁allegiance	-11.8669
▁amnesty	-11.8669
▁arbitrar	-11.8669
▁artificial	-11.8669
▁charcoal	-11.8669
▁confess	-11.8669
▁corridor	-11.8669
▁credibility	-11.8669
▁cremation	-11.8669
▁cuckoo	-11.8669
▁currencies	-11.8669
▁declining	-11.8669
▁decreasing	-11.8669
▁diminished	-11.8669
▁disseminate	-11.8669
▁divination	-11.8669
▁drift	-11.8669
▁duplicate	-11.8669
▁easier	-11.8669
▁elaborate	-11.8669
▁empire	-11.8669
▁exaggerat	-11.8669
▁excommunicated	-11.8669
▁exhaust	-11.8669
▁explanator	-11.8669
▁extensive	-11.8669
▁exterminate	-11.8669
▁farewell	-11.8669
▁feather	-11.8669
▁flood	-11.8669
▁furniture	-11.8669
▁gratitude	-11.8669
▁hairpins	-11.8669
▁hammer	-11.8669
▁interrupted	-11.8669
▁knives	-11.8669
▁magnificent	-11.8669
▁marquis	-11.8669
▁maxim	-11.8669
▁metaphor	-11.8669
▁monopoliz	-11.8669
▁motivat	-11.8669
▁nengajo	-11.8669
▁ordinance	-11.8669
▁parentheses	-11.8669
▁pedestal	-11.8669
▁peeling	-11.8669
▁phenomenon	-11.8669
▁pleasure	-11.8669
▁popularizing	-11.8669
▁pregnant	-11.8669
▁recluse	-11.8669
▁reconcile	-11.8669
▁refurbish	-11.8669
▁relieve	-11.8669
▁reopened	-11.8669
▁revolutionary	-11.8669
▁scheme	-11.8669
▁seafood	-11.8669
▁skirt	-11.8669
▁storytelling	-11.8669
▁swimm	-11.8669
▁swollen	-11.8669
▁tartar	-11.8669
▁theoretical	-11.8669
▁treason	-11.8669
▁usurp	-11.8669
▁viscount	-11.8669
▁widespread	-11.8669
▁wrecked	-11.8669
▁yamakasa	-11.8669
▁zaichokanjin	-11.8669
之	-11.8669
反	-11.8669
呂	-11.8669
咒	-11.8669
宮	-11.8669
屋	-11.8669
慶	-11.8669
Minakuchi	-11.8669
confident	-11.8669
isteria	-11.8669
rtillery	-11.8669
ticipated	-11.8669
é	-11.8669
▁Arsenal	-11.8669
▁BOMON	-11.8669
▁Butokuden	-11.8669
▁Ceremonial	-11.8669
▁Children	-11.8669
▁KANROJI	-11.8669
▁License	-11.8669
▁Mizoguchi	-11.8669
▁Okunitama	-11.8669
▁Pilgrimage	-11.8669
▁Spirit	-11.8669
▁Takamimusu	-11.8669
▁Thailand	-11.8669
▁YANAGIWARA	-11.8669
▁Yodoyabashi	-11.8669
▁bacteri	-11.8669
▁clause	-11.8669
▁clog	-11.8669
▁custody	-11.8669
▁discrepanc	-11.8669
▁flesh	-11.8669
▁fool	-11.8669
▁himemiko	-11.8669
▁invention	-11.8669
▁negative	-11.8669
▁pirates	-11.8669
▁plenipotentiar	-11.8669
▁synonym	-11.8669
▁taboo	-11.8669
▁tramway	-11.8669
▁vacant	-11.8669
尺	-11.8669
ictorious	-11.8669
▁1856	-11.8669
▁1958	-11.8669
▁620-0	-11.8669
▁Anthology	-11.8669
▁Himemiko	-11.8669
▁Loop	-11.8669
▁Nikkatsu	-11.8669
▁OMIYA	-11.8669
▁Ribbon	-11.8669
▁Urasenke	-11.8669
▁Worship	-11.8669
▁aesthetic	-11.8669
▁camphor	-11.8669
▁conversely	-11.8669
▁crisp	-11.8669
▁librari	-11.8669
▁margin	-11.8669
▁movable	-11.8669
▁nucle	-11.8669
▁omelet	-11.8669
▁regency	-11.8669
▁sample	-11.8669
▁Quarter	-11.8669
▁disagree	-11.8669
▁lumber	-11.8669
▁motif	-11.8669
▁pigment	-11.8669
Kenreimonin	-11.8669
bilities	-11.8669
▁0.4	-11.8669
▁Bunmyaku	-11.8669
▁Double	-11.8669
▁Kamigamo	-11.8669
▁Market	-11.8669
▁Munakata	-11.8669
▁Uwajima	-11.8669
▁partitions	-11.8669
▁savage	-11.8669
▁Annals	-11.8669
▁Fleet	-11.8669
▁Nashimoto	-11.8669
▁Shonagon	-11.8669
▁admonish	-11.8669
▁dilut	-11.8669
▁emissar	-11.8669
▁equipment	-11.8669
▁unfair	-11.8669
中	-11.8669
余	-11.8669
liberal	-11.8669
▁MURAKAMI	-11.8669
▁Makimuk	-11.8669
▁UME	-11.8669
▁anxious	-11.8669
▁bathhouses	-11.8669
▁bodies	-11.8669
▁indigen	-11.8669
▁visual	-11.8669
▁1585	-11.8669
▁Steam	-11.8669
▁arguing	-11.8669
▁cotton	-11.8669
▁sarva	-11.8669
mizutaki	-11.8669
▁Gokogon	-11.8669
▁Persia	-11.8669
▁Display	-11.8669
▁UCHIYAMA	-11.8669
▁marsh	-11.8669
▁orthography	-11.8669
▁1545	-11.8669
▁Hijikata	-11.8669
▁cadast	-11.8669
▁cruci	-11.8669
▁spoil	-11.8669
▁1142	-11.8669
▁1963	-11.8669
shamanism	-11.8669
▁1607	-11.8669
▁Makibi	-11.8669
▁Toyouke	-11.8669
▁excite	-11.8669
▁1592	-11.8669
▁indigo	-11.8669
oyster	-11.8669
▁joruri	-11.8669
Shakamuni	-11.867
▁align	-11.867
▁1186	-11.867
▁Shushigaku	-11.867
▁Vow	-11.867
▁1961	-11.867
▁Drama	-11.867
▁Ogimachi	-11.867
▁Yangming	-11.867
▁facilitat	-11.867
▁1543	-11.867
▁1879	-11.867
▁1912	-11.867
▁Perry	-11.867
▁1857	-11.867
▁session	-11.867
MOCHI	-11.867
erakoya	-11.867
▁Hakone	-11.867
▁Osabe	-11.867
▁adultery	-11.867
tsuwamono	-11.867
▁dimension	-11.867
▁pork	-11.867
Doctor	-11.867
Commuter	-11.867
▁WADA	-11.867
▁1661	-11.867
▁Jikicho	-11.867
▁ekirei	-11.867
▁guess	-11.867
▁gauge	-11.867
▁Trade	-11.867
▁reprint	-11.867
Sagoromo	-11.867
▁1973	-11.867
▁Kururi	-11.867
▁landlords	-11.867
▁fusuma	-11.867
▁Chuefu	-11.867
▁Councillor	-11.867
▁John	-11.867
▁Gouda	-11.867
▁Sundays	-11.867
▁nails	-11.867
▁Kakitsu	-11.867
▁1727	-11.867
`	-13.2096
q	-13.2097
