<pad>	0
</s>	0
<unk>	0
,	-3.18388
▁	-3.23509
n	-3.44718
a	-3.6273
i	-3.65571
▁ja	-3.95079
e	-4.02665
.	-4.11917
o	-4.12048
r	-4.12598
u	-4.26348
in	-4.30316
t	-4.38238
s	-4.42479
ä	-4.44072
l	-4.47317
en	-4.54296
h	-4.59025
si	-4.65916
y	-4.9547
ta	-4.9579
an	-4.97486
lle	-5.10353
▁on	-5.10888
:	-5.16811
ka	-5.19406
▁hän	-5.23193
▁Ja	-5.28652
tä	-5.30535
ja	-5.31184
mi	-5.35021
v	-5.37944
va	-5.38213
▁he	-5.38367
▁ka	-5.40691
;	-5.4299
et	-5.44062
nsa	-5.4579
lla	-5.46616
is	-5.46627
ksi	-5.4672
ni	-5.47693
p	-5.48474
sta	-5.49451
ma	-5.5058
kä	-5.5189
ke	-5.52366
ssa	-5.5424
▁te	-5.55621
tu	-5.57311
ri	-5.58528
k	-5.59419
to	-5.63731
ko	-5.63978
▁"	-5.64038
▁Herra	-5.64056
vat	-5.64189
te	-5.64595
▁oli	-5.65145
▁minä	-5.65554
m	-5.65747
▁si	-5.68424
▁o	-5.69382
li	-5.70857
el	-5.71116
▁niin	-5.71197
tta	-5.74922
▁se	-5.75607
▁va	-5.75721
▁a	-5.76241
ty	-5.76562
▁hänen	-5.77859
nne	-5.79565
la	-5.81529
ki	-5.81609
kse	-5.86694
na	-5.86727
sa	-5.86769
▁pa	-5.88144
llä	-5.89146
kaa	-5.89485
▁ku	-5.90608
on	-5.92087
nut	-5.92281
ö	-5.92703
▁joka	-5.92946
nsä	-5.93509
▁jo	-5.94713
j	-5.94861
ista	-5.96173
b	-5.97335
▁p	-5.99094
se	-6.01091
ti	-6.02456
▁ei	-6.02995
mme	-6.03174
it	-6.04163
de	-6.04168
tti	-6.06725
▁nä	-6.09362
än	-6.09688
▁ole	-6.09903
stä	-6.12437
▁sanoi	-6.12907
isi	-6.13582
▁että	-6.13588
▁la	-6.1427
▁sen	-6.16106
▁minun	-6.16115
▁sinun	-6.17378
d	-6.17874
▁vi	-6.18188
vi	-6.18688
▁kun	-6.19568
▁kaikki	-6.19805
at	-6.20888
ille	-6.20933
ik	-6.21263
le	-6.21816
▁ra	-6.24103
us	-6.24113
tte	-6.24677
ttä	-6.25084
hd	-6.2591
pa	-6.26156
▁me	-6.26814
nyt	-6.28637
▁ta	-6.2887
aa	-6.31066
▁Mutta	-6.32387
▁A	-6.32431
kin	-6.33487
re	-6.33497
mä	-6.3374
▁ki	-6.34169
▁tu	-6.34225
▁K	-6.3453
jä	-6.35265
▁Jumala	-6.36008
pu	-6.36701
kää	-6.37277
lta	-6.37521
vät	-6.3789
as	-6.38814
uh	-6.38969
uu	-6.39332
▁e	-6.39859
ll	-6.40024
ut	-6.4022
▁m	-6.40672
▁jotka	-6.4203
▁sa	-6.4216
▁ko	-6.42472
kka	-6.43336
▁mu	-6.44038
▁saa	-6.44238
▁pää	-6.44256
un	-6.44844
▁sano	-6.45291
g	-6.45302
▁sinä	-6.46094
▁pe	-6.46286
neet	-6.47993
▁ha	-6.48282
ku	-6.48406
ten	-6.49764
▁sillä	-6.49984
ssä	-6.51963
▁ve	-6.52175
▁heidän	-6.52809
".	-6.53037
inen	-6.53415
vä	-6.5453
▁E	-6.5572
▁kuu	-6.56052
maan	-6.56796
▁ke	-6.57177
▁l	-6.57745
ha	-6.5913
kuin	-6.594
▁kansa	-6.599
mm	-6.60089
ee	-6.62645
-	-6.63133
▁Niin	-6.63276
▁ovat	-6.63401
▁Herran	-6.63976
sä	-6.65065
▁tuli	-6.66427
▁tule	-6.67373
nä	-6.67594
kö	-6.68571
M	-6.69382
▁val	-6.70491
ttu	-6.70704
▁pi	-6.70995
▁ne	-6.71105
pä	-6.71282
▁hu	-6.73077
▁maa	-6.73244
▁mutta	-6.73522
jo	-6.74401
ivat	-6.74854
▁kuin	-6.75869
."	-6.76765
?	-6.77524
▁pal	-6.78179
utta	-6.78193
▁mitä	-6.78955
dä	-6.79763
▁pu	-6.79962
asta	-6.8045
▁tämä	-6.80722
pi	-6.8113
▁voi	-6.81912
▁vuo	-6.81946
itä	-6.82204
▁sy	-6.82572
▁toi	-6.83086
▁S	-6.83094
taa	-6.83287
▁T	-6.83957
▁tai	-6.84897
▁le	-6.85957
▁tie	-6.86205
im	-6.86292
▁poika	-6.86878
▁hänelle	-6.87418
aan	-6.87727
koon	-6.8827
ään	-6.88632
▁Si	-6.88962
▁P	-6.89712
▁olen	-6.90049
ud	-6.90538
f	-6.91184
ro	-6.91593
he	-6.91954
▁Sillä	-6.93256
kun	-6.94934
▁vä	-6.9526
▁so	-6.95762
▁tuo	-6.95834
ita	-6.96288
▁olivat	-6.96978
ske	-6.97215
▁ru	-6.97463
sti	-6.97542
am	-6.97581
ul	-6.97602
▁luo	-6.97651
da	-6.97762
▁puhu	-6.97869
istä	-6.99536
▁kanssa	-6.99981
▁teidän	-7.0026
teen	-7.01178
▁vastaan	-7.01524
me	-7.02236
▁hänet	-7.03856
rin	-7.04559
taan	-7.07431
▁kuningas	-7.07764
do	-7.09538
▁Joo	-7.10055
isen	-7.10088
yy	-7.11009
▁häntä	-7.11788
▁jonk	-7.12208
▁B	-7.12263
▁Israelin	-7.12513
▁asu	-7.14019
iset	-7.14205
▁Jumalan	-7.14843
▁en	-7.15071
▁itse	-7.15233
▁heille	-7.16317
▁Jo	-7.16675
▁olet	-7.1707
▁ette	-7.17551
usta	-7.17566
▁sitä	-7.17773
ltä	-7.17898
`	-7.18052
mu	-7.18614
V	-7.18816
▁Hän	-7.19322
issa	-7.196
ivät	-7.19694
!	-7.20741
▁He	-7.20842
▁ky	-7.21478
▁koko	-7.22606
itse	-7.25097
jan	-7.25823
O	-7.25855
▁Daavid	-7.26211
oit	-7.26953
▁pois	-7.27319
▁lähe	-7.27564
▁`	-7.27763
▁sana	-7.27944
▁var	-7.28697
▁eivät	-7.2908
▁sanoo	-7.29151
▁suu	-7.30021
▁ma	-7.30923
▁jos	-7.30939
▁Se	-7.3113
▁kaike	-7.31437
I	-7.3162
▁lu	-7.3184
ju	-7.32545
uksen	-7.35012
▁minulle	-7.35756
▁heidät	-7.36842
▁elä	-7.37302
▁meidän	-7.37339
▁al	-7.37479
▁kuo	-7.37636
▁minua	-7.37641
ihin	-7.37872
▁päivä	-7.38646
▁isä	-7.41312
▁Kun	-7.41471
▁päivänä	-7.41478
▁maan	-7.42146
▁Mi	-7.42568
▁mies	-7.43102
essä	-7.43366
▁jälke	-7.44364
köön	-7.45352
▁vaan	-7.47101
▁ase	-7.48194
▁nime	-7.49264
▁kaksi	-7.49986
▁edessä	-7.50317
▁suku	-7.51345
▁kuninkaan	-7.5169
▁kor	-7.52213
▁katso	-7.52499
▁Minä	-7.52799
▁Juuda	-7.52846
sivat	-7.52854
▁palvelija	-7.53079
llis	-7.53191
▁myös	-7.53664
▁Je	-7.54389
?"	-7.54465
aika	-7.54814
▁sinua	-7.54854
▁teille	-7.55362
R	-7.55442
▁syö	-7.56601
▁meni	-7.56947
mään	-7.5739
kki	-7.57416
L	-7.58107
▁heitä	-7.58245
▁Jerusalem	-7.59218
H	-7.59596
▁hy	-7.59994
▁sinulle	-7.60344
▁yli	-7.60354
kymmentä	-7.60719
▁usko	-7.61009
▁Silloin	-7.61224
sten	-7.61433
läis	-7.61518
▁vastasi	-7.6234
▁vaimo	-7.6291
▁käsi	-7.6428
▁teki	-7.64526
▁minut	-7.65105
isesti	-7.65288
▁jumal	-7.66159
Katso	-7.6656
▁mukaan	-7.67439
▁viha	-7.67475
▁ihmis	-7.67499
▁tykö	-7.70543
▁mene	-7.71603
sydäm	-7.72033
▁siitä	-7.72077
▁temppeli	-7.73471
"	-7.73741
▁hä	-7.74
▁seura	-7.75798
▁mikä	-7.75982
J	-7.7648
▁anna	-7.7656
iden	-7.7829
▁Israel	-7.78535
▁käy	-7.78727
▁hyvä	-7.79103
▁vielä	-7.79998
▁asti	-7.80112
▁Ma	-7.8039
▁maahan	-7.81756
S	-7.82004
▁juo	-7.83053
▁kolme	-7.83244
▁puole	-7.83344
tele	-7.83773
▁suure	-7.83988
kasv	-7.84025
▁synti	-7.84598
T	-7.84861
▁lähti	-7.85635
▁Egypti	-7.85796
▁tähden	-7.86447
K	-7.86709
▁pyhä	-7.87101
▁velje	-7.87595
▁Ha	-7.88701
▁käsky	-7.89089
▁siihen	-7.93192
▁opet	-7.941
▁vanh	-7.9424
▁vanhurska	-7.9424
▁neljä	-7.94249
▁antoi	-7.94447
▁tehnyt	-7.9676
▁niiden	-7.96943
▁seitsemän	-7.971
▁Jeesus	-7.98011
▁koska	-7.98604
▁tot	-7.99988
▁olkoon	-8.01374
▁ollut	-8.01934
kymmene	-8.02385
▁sitten	-8.02405
▁kutsu	-8.03468
▁enää	-8.05878
▁yht	-8.06312
▁yksi	-8.06774
▁kaupunki	-8.07204
▁nuo	-8.07692
▁Me	-8.08211
koot	-8.08765
▁istu	-8.09483
▁Sitten	-8.10083
▁kirjoit	-8.10466
▁ilo	-8.10493
▁niitä	-8.11589
▁täyt	-8.11782
E	-8.12988
▁pojan	-8.15146
miehi	-8.15857
▁pappi	-8.1623
▁Mooses	-8.17107
▁lähte	-8.17551
▁hävit	-8.17664
▁viini	-8.18726
ttoma	-8.19069
▁antaa	-8.19308
▁silmä	-8.19872
▁tullut	-8.20488
▁armo	-8.20718
▁ympäri	-8.22803
▁Saul	-8.23523
▁antanut	-8.25179
▁talo	-8.25669
▁Jaakob	-8.26141
▁surma	-8.27115
▁älä	-8.28868
▁Sentähden	-8.29093
▁Näi	-8.30097
▁liha	-8.32568
Ä	-8.33156
tuhatta	-8.33504
P	-8.68552
A	-8.68584
U	-8.82619
1	-9.74567
]	-9.77829
3	-10.1485
B	-10.1928
2	-10.2672
4	-10.4442
9	-10.7721
0	-10.8024
5	-10.8336
)	-10.8659
6	-11.2155
Z	-14.8598
Ö	-14.8599
7	-14.86
8	-14.8601
(	-14.8602
[	-14.8603
F	-14.8604
Y	-14.8605
G	-14.8606
D	-14.8607
/	-14.8608
N	-14.8608
