<pad>	0
</s>	0
<unk>	0
▁¦	-0
de	-1
▁s	-2
en	-3
ll	-4
an	-5
ar	-6
ch	-7
▁h	-8
er	-9
och	-10
om	-11
tt	-12
in	-13
ör	-14
▁f	-15
▁𐋇	-16
är	-17
▁de	-18
ig	-19
▁och	-20
▁t	-21
▁m	-22
▁d	-23
▁v	-24
on	-25
▁,	-26
ill	-27
st	-28
ade	-29
▁a	-30
ka	-31
ag	-32
▁b	-33
or	-34
ck	-35
▁i	-36
et	-37
än	-38
ra	-39
ed	-40
na	-41
el	-42
▁för	-43
un	-44
▁g	-45
der	-46
▁till	-47
▁k	-48
▁l	-49
▁.	-50
▁han	-51
för	-52
▁e	-53
kall	-54
da	-55
ån	-56
jag	-57
▁som	-58
ing	-59
va	-60
på	-61
ol	-62
som	-63
▁u	-64
cke	-65
sa	-66
den	-67
▁H	-68
▁n	-69
pp	-70
▁att	-71
sk	-72
rä	-73
▁så	-74
vi	-75
ta	-76
ud	-77
ter	-78
till	-79
▁»	-80
onom	-81
ver	-82
han	-83
▁är	-84
▁O	-85
▁sk	-86
es	-87
▁en	-88
▁st	-89
▁den	-90
äl	-91
▁D	-92
▁skall	-93
us	-94
os	-95
▁det	-96
li	-97
▁jag	-98
så	-99
äg	-100
kt	-101
▁I	-102
var	-103
▁J	-104
▁Och	-105
▁på	-106
ri	-107
att	-108
▁av	-109
av	-110
itt	-111
▁icke	-112
and	-113
▁var	-114
ot	-115
▁S	-116
ung	-117
ER	-118
RE	-119
ERRE	-120
▁med	-121
▁vi	-122
lla	-123
▁HERRE	-124
ina	-125
det	-126
år	-127
▁HERREN	-128
rån	-129
ju	-130
åt	-131
▁har	-132
▁M	-133
re	-134
it	-135
▁ö	-136
åg	-137
ro	-138
ren	-139
mm	-140
▁dem	-141
▁honom	-142
▁du	-143
ja	-144
ad	-145
omm	-146
le	-147
els	-148
▁ut	-149
lig	-150
as	-151
fter	-152
jor	-153
▁G	-154
at	-155
al	-156
▁upp	-157
rö	-158
dig	-159
are	-160
▁;	-161
onung	-162
ru	-163
▁o	-164
▁där	-165
tta	-166
erren	-167
olk	-168
▁mig	-169
ning	-170
▁om	-171
▁p	-172
▁in	-173
änn	-174
▁sig	-175
▁dig	-176
em	-177
▁:	-178
▁A	-179
llt	-180
ut	-181
is	-182
▁sade	-183
skall	-184
het	-185
▁eder	-186
med	-187
▁Gud	-188
.»	-189
▁över	-190
▁hade	-191
ff	-192
ller	-193
lä	-194
ull	-195
icke	-196
herren	-197
du	-198
▁hans	-199
arn	-200
öra	-201
ram	-202
arna	-203
från	-204
▁𐊣	-205
am	-206
ång	-207
▁komm	-208
ola	-209
ens	-210
där	-211
ne	-212
▁då	-213
har	-214
vid	-215
eg	-216
ava	-217
dem	-218
▁sin	-219
ans	-220
id	-221
▁konung	-222
ön	-223
▁alla	-224
ras	-225
▁Men	-226
yn	-227
og	-228
honom	-229
erna	-230
då	-231
men	-232
ss	-233
▁gi	-234
od	-235
ort	-236
ande	-237
jäl	-238
oss	-239
und	-240
▁folk	-241
▁bli	-242
▁man	-243
äm	-244
▁åt	-245
▁E	-246
öd	-247
upp	-248
jän	-249
▁ett	-250
▁från	-251
eder	-252
sra	-253
▁såsom	-254
sig	-255
▁din	-256
ab	-257
▁min	-258
▁nu	-259
ord	-260
▁Isra	-261
vit	-262
▁när	-263
te	-264
äger	-265
▁efter	-266
äng	-267
ett	-268
ste	-269
▁någ	-270
efter	-271
land	-272
gud	-273
enom	-274
inn	-275
sade	-276
▁T	-277
edan	-278
under	-279
la	-280
▁allt	-281
ur	-282
mig	-283
lev	-284
▁Då	-285
gi	-286
ög	-287
▁hel	-288
▁skola	-289
ann	-290
▁vad	-291
över	-292
andra	-293
▁ty	-294
rätt	-295
ken	-296
▁N	-297
▁men	-298
se	-299
ulle	-300
yg	-301
▁dag	-302
il	-303
▁hava	-304
ock	-305
ul	-306
▁barn	-307
▁son	-308
ba	-309
▁r	-310
▁å	-311
▁ock	-312
▁vid	-313
komm	-314
ader	-315
isk	-316
oro	-317
▁må	-318
ingen	-319
alla	-320
ft	-321
sta	-322
▁fram	-323
▁li	-324
ätt	-325
▁be	-326
▁.»	-327
off	-328
ty	-329
▁mot	-330
▁B	-331
iga	-332
hade	-333
yck	-334
▁sina	-335
▁hus	-336
▁hu	-337
▁deras	-338
hans	-339
jär	-340
olen	-341
när	-342
del	-343
des	-344
▁detta	-345
be	-346
man	-347
bli	-348
ända	-349
aga	-350
öl	-351
▁vill	-352
ött	-353
▁-	-354
min	-355
else	-356
▁HERRENS	-357
ak	-358
ga	-359
ott	-360
folk	-361
mn	-362
▁tal	-363
ska	-364
▁oss	-365
▁tjän	-366
sin	-367
▁vil	-368
vär	-369
lag	-370
ast	-371
kte	-372
vå	-373
▁'	-374
konung	-375
▁gjor	-376
ände	-377
▁gå	-378
ti	-379
må	-380
▁Israels	-381
▁Ty	-382
sam	-383
tet	-384
cka	-385
ose	-386
▁eller	-387
vad	-388
mot	-389
hel	-390
▁sitt	-391
son	-392
varade	-393
fär	-394
gå	-395
▁få	-396
▁K	-397
nu	-398
jorden	-399
▁under	-400
▁vara	-401
öner	-402
all	-403
eru	-404
äll	-405
▁se	-406
offer	-407
ring	-408
▁säger	-409
räst	-410
imm	-411
uda	-412
nen	-413
äder	-414
im	-415
hu	-416
▁mitt	-417
nes	-418
▁Så	-419
▁na	-420
▁land	-421
▁V	-422
ligen	-423
eller	-424
▁F	-425
såsom	-426
dan	-427
▁äro	-428
▁själ	-429
allt	-430
▁här	-431
ännisk	-432
din	-433
▁genom	-434
▁göra	-435
▁dina	-436
ly	-437
▁skulle	-438
▁?	-439
▁--	-440
isra	-441
▁bliva	-442
åd	-443
dag	-444
▁blev	-445
▁komma	-446
▁le	-447
▁någon	-448
aden	-449
▁utan	-450
ara	-451
enne	-452
▁rätt	-453
stad	-454
lem	-455
barn	-456
rar	-457
hus	-458
inna	-459
esus	-460
sm	-461
änder	-462
väl	-463
▁dö	-464
gjor	-465
▁ar	-466
▁ned	-467
▁sta	-468
samm	-469
erusa	-470
éerna	-471
erusalem	-472
någ	-473
pa	-474
andet	-475
ron	-476
▁fi	-477
▁voro	-478
äga	-479
räd	-480
gon	-481
ygg	-482
ät	-483
hö	-484
färdig	-485
äst	-486
yp	-487
red	-488
hör	-489
vet	-490
▁dess	-491
edra	-492
nar	-493
▁brö	-494
▁hör	-495
▁väl	-496
här	-497
avid	-498
▁hand	-499
lar	-500
erre	-501
▁konungen	-502
rof	-503
▁David	-504
bet	-505
amm	-506
skola	-507
lå	-508
▁bort	-509
▁ord	-510
ia	-511
je	-512
lat	-513
▁beg	-514
▁syn	-515
ker	-516
erg	-517
▁hon	-518
▁kun	-519
▁än	-520
▁folket	-521
detta	-522
immel	-523
▁kom	-524
ära	-525
▁ur	-526
hava	-527
lade	-528
vara	-529
ven	-530
▁skolen	-531
▁ju	-532
▁ditt	-533
▁P	-534
▁hav	-535
▁inför	-536
▁hela	-537
▁Guds	-538
kun	-539
ifrån	-540
rukt	-541
terna	-542
fram	-543
vill	-544
▁Där	-545
▁De	-546
ölj	-547
▁all	-548
dr	-549
ssa	-550
rofet	-551
▁ifrån	-552
▁stor	-553
▁väg	-554
▁svarade	-555
▁an	-556
▁mina	-557
▁andra	-558
hå	-559
baka	-560
▁Israel	-561
bar	-562
undra	-563
▁först	-564
deras	-565
sina	-566
▁Han	-567
▁När	-568
ret	-569
▁Se	-570
ningar	-571
liga	-572
▁jorden	-573
ypt	-574
▁söner	-575
lö	-576
nat	-577
sen	-578
▁ingen	-579
▁or	-580
herrens	-581
rade	-582
orna	-583
jud	-584
▁namn	-585
▁dessa	-586
▁hög	-587
nade	-588
vinn	-589
lo	-590
▁L	-591
ob	-592
göra	-593
stru	-594
aren	-595
tjän	-596
kom	-597
▁Jag	-598
▁bland	-599
▁giva	-600
räl	-601
ry	-602
järta	-603
▁kan	-604
rik	-605
råg	-606
ännu	-607
▁något	-608
få	-609
ansi	-610
▁gick	-611
▁lå	-612
rist	-613
?»	-614
▁hå	-615
▁Juda	-616
si	-617
ma	-618
ånga	-619
▁fader	-620
▁sedan	-621
rog	-622
▁förb	-623
ger	-624
▁Herren	-625
▁al	-626
lighet	-627
▁fört	-628
kap	-629
▁hö	-630
vil	-631
▁tjänare	-632
jäm	-633
ligt	-634
usen	-635
ighet	-636
nad	-637
äta	-638
läd	-639
▁människ	-640
ingo	-641
▁vår	-642
agt	-643
▁män	-644
▁blivit	-645
kan	-646
▁kommer	-647
▁Jerusalem	-648
▁tog	-649
▁Jesus	-650
kta	-651
eld	-652
rid	-653
▁off	-654
▁präst	-655
uld	-656
åde	-657
▁gjorde	-658
sl	-659
▁henne	-660
▁bl	-661
opp	-662
▁sp	-663
kring	-664
israels	-665
rän	-666
▁år	-667
jung	-668
▁Ab	-669
syn	-670
dom	-671
▁slä	-672
röst	-673
▁mer	-674
mitt	-675
sitt	-676
▁Jo	-677
yr	-678
ling	-679
bliva	-680
dö	-681
▁edra	-682
sp	-683
mar	-684
komma	-685
io	-686
ster	-687
ej	-688
fi	-689
ycket	-690
ve	-691
▁ej	-692
▁on	-693
säger	-694
▁säga	-695
▁tid	-696
bland	-697
ansikte	-698
▁gör	-699
▁får	-700
låt	-701
▁därför	-702
▁Ja	-703
▁Mose	-704
igt	-705
åda	-706
stå	-707
tar	-708
genom	-709
▁ro	-710
räck	-711
immelen	-712
▁ögon	-713
ned	-714
▁lät	-715
▁ska	-716
▁gjort	-717
dina	-718
själ	-719
trä	-720
skulle	-721
▁R	-722
▁två	-723
▁själv	-724
äro	-725
värd	-726
gen	-727
▁denna	-728
▁ka	-729
gär	-730
▁sju	-731
utan	-732
sten	-733
▁vet	-734
sammans	-735
blev	-736
unn	-737
hon	-738
mer	-739
tid	-740
▁åter	-741
▁vatt	-742
akt	-743
▁landet	-744
eb	-745
gjorde	-746
oder	-747
▁sl	-748
▁dr	-749
iska	-750
någon	-751
▁hos	-752
▁låt	-753
▁sådan	-754
tio	-755
ov	-756
sal	-757
hand	-758
sedan	-759
▁tillbaka	-760
▁tre	-761
▁stad	-762
präst	-763
vud	-764
▁profet	-765
▁läg	-766
dar	-767
gör	-768
fader	-769
▁gav	-770
ik	-771
▁br	-772
gypt	-773
▁rättfärdig	-774
▁låta	-775
sar	-776
ena	-777
enast	-778
▁vå	-779
brö	-780
▁bo	-781
ennes	-782
ännen	-783
tten	-784
roder	-785
äck	-786
▁berg	-787
▁ja	-788
väg	-789
▁Om	-790
▁Egypt	-791
voro	-792
ser	-793
▁liv	-794
▁dagen	-795
▁hundra	-796
ödde	-797
▁äl	-798
stån	-799
innes	-800
edom	-801
hav	-802
aul	-803
agen	-804
sö	-805
konungen	-806
dess	-807
män	-808
▁huru	-809
▁haven	-810
▁hjärta	-811
går	-812
▁bes	-813
hög	-814
dessa	-815
folket	-816
bort	-817
▁ännu	-818
ika	-819
▁taga	-820
änt	-821
jer	-822
yra	-823
▁re	-824
▁intet	-825
äd	-826
david	-827
erligen	-828
beg	-829
▁såg	-830
▁frukt	-831
▁kommit	-832
läg	-833
vår	-834
äkt	-835
giva	-836
därför	-837
jur	-838
iterna	-839
ons	-840
▁bröder	-841
▁fråg	-842
guds	-843
dens	-844
ditt	-845
fall	-846
hela	-847
▁satt	-848
stor	-849
▁ly	-850
lats	-851
▁bet	-852
mina	-853
iss	-854
ätta	-855
israel	-856
▁samm	-857
▁tusen	-858
▁bliver	-859
fört	-860
op	-861
skolen	-862
▁dit	-863
▁ti	-864
juda	-865
▁Den	-866
▁hustru	-867
ades	-868
▁höra	-869
inför	-870
▁stod	-871
net	-872
▁åstad	-873
agit	-874
idan	-875
ek	-876
tog	-877
▁denne	-878
▁skull	-879
ytt	-880
▁Du	-881
satt	-882
herre	-883
▁lik	-884
läder	-885
star	-886
enbar	-887
▁vin	-888
▁kvar	-889
ropp	-890
▁sö	-891
▁fem	-892
▁ol	-893
▁vä	-894
gick	-895
▁ända	-896
ige	-897
svarade	-898
ets	-899
jug	-900
▁emot	-901
landet	-902
▁lika	-903
▁staden	-904
ham	-905
stra	-906
öll	-907
▁kall	-908
▁äta	-909
▁fick	-910
▁många	-911
▁död	-912
ristus	-913
▁gud	-914
▁ansikte	-915
▁skri	-916
▁också	-917
jämte	-918
▁sm	-919
▁hem	-920
▁mån	-921
ämligen	-922
söner	-923
▁dri	-924
▁omkring	-925
otter	-926
▁kunna	-927
vinna	-928
tan	-929
udakt	-930
▁talade	-931
▁trä	-932
▁försam	-933
bl	-934
namn	-935
skap	-936
orgon	-937
hag	-938
skri	-939
▁kommo	-940
bör	-941
▁hålla	-942
.'	-943
▁himmelen	-944
sak	-945
ärl	-946
▁går	-947
nas	-948
ell	-949
igen	-950
skar	-951
list	-952
raft	-953
▁!	-954
bor	-955
▁ber	-956
▁vatten	-957
ager	-958
▁lär	-959
▁stå	-960
människ	-961
följ	-962
▁eftersom	-963
håll	-964
ilver	-965
kommer	-966
vä	-967
annan	-968
Jag	-969
▁eld	-970
pel	-971
van	-972
▁fäder	-973
något	-974
tjänare	-975
▁mycket	-976
tal	-977
▁dagar	-978
änd	-979
jo	-980
▁rik	-981
éernas	-982
räm	-983
▁drog	-984
ld	-985
stod	-986
förb	-987
▁ställ	-988
▁städer	-989
onde	-990
slä	-991
cken	-992
ycken	-993
ningen	-994
vin	-995
▁und	-996
låta	-997
ukt	-998
frukt	-999
▁Jak	-1000
annen	-1001
ställ	-1002
▁vitt	-1003
bo	-1004
▁tro	-1005
▁sände	-1006
▁?»	-1007
dde	-1008
▁fly	-1009
▁måste	-1010
▁människor	-1011
fta	-1012
jus	-1013
höra	-1014
▁Saul	-1015
▁förde	-1016
kunna	-1017
änner	-1018
▁bed	-1019
blivit	-1020
rig	-1021
▁slag	-1022
ål	-1023
vd	-1024
ark	-1025
gar	-1026
yll	-1027
▁sagt	-1028
▁lö	-1029
▁Jakob	-1030
sb	-1031
huru	-1032
pen	-1033
baot	-1034
sn	-1035
▁döda	-1036
▁synd	-1037
bed	-1038
diga	-1039
kar	-1040
jesus	-1041
rede	-1042
rus	-1043
vis	-1044
ende	-1045
▁tala	-1046
▁huvud	-1047
jerusalem	-1048
▁givit	-1049
▁vis	-1050
gjort	-1051
▁fräl	-1052
▁läng	-1053
samma	-1054
vor	-1055
ua	-1056
pade	-1057
dagen	-1058
▁vare	-1059
fem	-1060
vedel	-1061
▁gång	-1062
rätta	-1063
▁mun	-1064
▁Sedan	-1065
änniska	-1066
▁hennes	-1067
får	-1068
bygg	-1069
▁För	-1070
henne	-1071
rå	-1072
säga	-1073
gav	-1074
lät	-1075
knen	-1076
ellan	-1077
▁blod	-1078
▁bud	-1079
▁guld	-1080
kor	-1081
höj	-1082
▁händer	-1083
gång	-1084
▁bor	-1085
▁broder	-1086
unt	-1087
▁Därför	-1088
dat	-1089
fly	-1090
jas	-1091
bliver	-1092
has	-1093
judit	-1094
jugu	-1095
slag	-1096
lipp	-1097
ttio	-1098
älla	-1099
▁stora	-1100
dri	-1101
vo	-1102
osef	-1103
ingar	-1104
▁fast	-1105
eli	-1106
▁Därefter	-1107
▁allenast	-1108
um	-1109
▁ren	-1110
raham	-1111
lär	-1112
talade	-1113
räk	-1114
▁full	-1115
▁hörde	-1116
▁gär	-1117
ender	-1118
▁heller	-1119
yd	-1120
digt	-1121
omo	-1122
▁hjäl	-1123
▁Jer	-1124
▁lig	-1125
två	-1126
önder	-1127
berg	-1128
visa	-1129
▁eg	-1130
▁Sal	-1131
▁moder	-1132
lek	-1133
mose	-1134
taga	-1135
▁svärd	-1136
hem	-1137
abel	-1138
ästa	-1139
ältet	-1140
öttrar	-1141
ars	-1142
▁helg	-1143
▁vilka	-1144
emot	-1145
sju	-1146
ten	-1147
▁offer	-1148
ran	-1149
åter	-1150
▁våra	-1151
▁kvinn	-1152
▁samma	-1153
jord	-1154
onen	-1155
taret	-1156
bes	-1157
era	-1158
öda	-1159
▁fri	-1160
▁lag	-1161
▁både	-1162
▁följ	-1163
▁ville	-1164
träd	-1165
denna	-1166
mo	-1167
▁Aron	-1168
▁sätt	-1169
▁finnes	-1170
själv	-1171
▁tr	-1172
mma	-1173
▁Det	-1174
arnas	-1175
▁tän	-1176
val	-1177
▁pl	-1178
▁Var	-1179
▁nåd	-1180
▁dock	-1181
▁prästen	-1182
arm	-1183
▁vilja	-1184
oskap	-1185
ännoffer	-1186
ber	-1187
hålla	-1188
skull	-1189
▁kött	-1190
▁sten	-1191
stånd	-1192
sådan	-1193
▁dom	-1194
yl	-1195
ack	-1196
▁arbet	-1197
▁vilken	-1198
hustru	-1199
mmar	-1200
br	-1201
viterna	-1202
fri	-1203
▁röst	-1204
odde	-1205
▁gott	-1206
▁uppenbar	-1207
▁Eli	-1208
▁fur	-1209
▁fött	-1210
▁själva	-1211
issgär	-1212
▁An	-1213
▁kunde	-1214
ir	-1215
profet	-1216
▁san	-1217
▁port	-1218
▁tron	-1219
hos	-1220
▁and	-1221
ögon	-1222
bär	-1223
▁el	-1224
elser	-1225
bud	-1226
▁og	-1227
▁häm	-1228
▁herre	-1229
▁Egypten	-1230
fra	-1231
▁föra	-1232
enskap	-1233
såg	-1234
tre	-1235
rättfärdig	-1236
jen	-1237
▁Gi	-1238
▁varit	-1239
bb	-1240
iten	-1241
res	-1242
▁fatt	-1243
▁Kristus	-1244
das	-1245
far	-1246
▁blevo	-1247
▁kropp	-1248
▁sam	-1249
haven	-1250
▁försk	-1251
tillbaka	-1252
jon	-1253
▁En	-1254
▁gingo	-1255
vu	-1256
skil	-1257
▁ev	-1258
osua	-1259
▁nämligen	-1260
jak	-1261
järtan	-1262
därefter	-1263
erk	-1264
▁räd	-1265
liv	-1266
dste	-1267
fråg	-1268
▁äng	-1269
▁plats	-1270
egypt	-1271
kter	-1272
▁kär	-1273
givit	-1274
oda	-1275
vat	-1276
▁Detta	-1277
kommit	-1278
▁ogudakt	-1279
▁best	-1280
ffa	-1281
denne	-1282
vr	-1283
▁stam	-1284
▁framför	-1285
änna	-1286
hundra	-1287
fa	-1288
par	-1289
▁sj	-1290
▁lev	-1291
▁oren	-1292
est	-1293
bröder	-1294
pl	-1295
unga	-1296
▁rö	-1297
▁gläd	-1298
▁veta	-1299
▁Si	-1300
arao	-1301
▁födde	-1302
lik	-1303
också	-1304
ias	-1305
▁rättfärdighet	-1306
föra	-1307
mån	-1308
intet	-1309
▁strid	-1310
▁morgon	-1311
▁konungens	-1312
ug	-1313
hjärta	-1314
ycka	-1315
förde	-1316
▁U	-1317
kten	-1318
▁ande	-1319
▁silver	-1320
olv	-1321
redje	-1322
▁begyn	-1323
▁heliga	-1324
tän	-1325
▁finna	-1326
▁giver	-1327
hjäl	-1328
▁välsig	-1329
ningarna	-1330
lika	-1331
▁dotter	-1332
nesbör	-1333
▁ont	-1334
▁sidan	-1335
fte	-1336
▁satte	-1337
▁fördär	-1338
org	-1339
jamin	-1340
ida	-1341
röj	-1342
empel	-1343
först	-1344
▁fått	-1345
▁hed	-1346
▁vän	-1347
rukta	-1348
▁bygg	-1349
»,	-1350
▁annan	-1351
▁Sam	-1352
▁träd	-1353
ygga	-1354
▁makt	-1355
▁tiden	-1356
elsen	-1357
satte	-1358
▁kraft	-1359
▁filist	-1360
ben	-1361
kl	-1362
alt	-1363
stade	-1364
▁förbund	-1365
atan	-1366
▁säg	-1367
dit	-1368
▁Bet	-1369
elset	-1370
fraim	-1371
lingen	-1372
to	-1373
försam	-1374
staden	-1375
▁gr	-1376
▁draga	-1377
ryck	-1378
eftersom	-1379
▁frågade	-1380
ke	-1381
▁läm	-1382
unnit	-1383
▁båda	-1384
▁verk	-1385
▁jämte	-1386
ittning	-1387
vare	-1388
uel	-1389
▁slog	-1390
▁Egyptens	-1391
nelse	-1392
verk	-1393
tiden	-1394
tusen	-1395
dade	-1396
hörde	-1397
esu	-1398
▁På	-1399
▁bära	-1400
▁kläder	-1401
▁lärjung	-1402
ban	-1403
▁vrede	-1404
eln	-1405
▁öpp	-1406
▁undan	-1407
▁Sebaot	-1408
rev	-1409
drog	-1410
dagar	-1411
▁drä	-1412
▁far	-1413
▁ing	-1414
bel	-1415
ust	-1416
födde	-1417
sning	-1418
▁jud	-1419
vån	-1420
vinnerligen	-1421
▁fång	-1422
städer	-1423
▁havet	-1424
▁arvedel	-1425
iel	-1426
inne	-1427
kvar	-1428
tala	-1429
ölja	-1430
▁hit	-1431
▁föll	-1432
omkring	-1433
▁förstån	-1434
hab	-1435
▁låg	-1436
▁varandra	-1437
ats	-1438
len	-1439
▁fyra	-1440
▁före	-1441
▁onda	-1442
drig	-1443
ften	-1444
lakt	-1445
åstad	-1446
▁leva	-1447
▁ljus	-1448
▁människa	-1449
råd	-1450
öm	-1451
▁mannen	-1452
saf	-1453
▁sex	-1454
▁därefter	-1455
bu	-1456
po	-1457
▁vägen	-1458
anns	-1459
många	-1460
▁Fader	-1461
▁sådant	-1462
prästen	-1463
tes	-1464
smän	-1465
bära	-1466
issgärning	-1467
säg	-1468
▁mör	-1469
▁vände	-1470
död	-1471
fick	-1472
sätt	-1473
▁Sim	-1474
▁dör	-1475
▁råd	-1476
vriga	-1477
▁främ	-1478
▁lång	-1479
▁talat	-1480
▁tjugu	-1481
vän	-1482
▁lade	-1483
her	-1484
arken	-1485
oppar	-1486
lingar	-1487
▁barns	-1488
ytter	-1489
offret	-1490
dju	-1491
ela	-1492
▁ske	-1493
▁bröd	-1494
▁vidare	-1495
▁gärningar	-1496
rott	-1497
inner	-1498
Vad	-1499
anna	-1500
sagt	-1501
▁höll	-1502
▁Josef	-1503
djur	-1504
iv	-1505
vatten	-1506
▁reger	-1507
▁Man	-1508
▁prästerna	-1509
essa	-1510
Se	-1511
järn	-1512
▁bef	-1513
▁vem	-1514
kommo	-1515
▁öknen	-1516
▁Davids	-1517
▁Salomo	-1518
jöd	-1519
huset	-1520
▁ära	-1521
▁låtit	-1522
▁vända	-1523
▁sönder	-1524
▁fiender	-1525
ske	-1526
▁tjänst	-1527
ors	-1528
juta	-1529
sy	-1530
nimm	-1531
etrus	-1532
▁Abraham	-1533
viss	-1534
▁står	-1535
ligare	-1536
▁döttrar	-1537
himmelen	-1538
fäng	-1539
fäder	-1540
▁tillsammans	-1541
▁te	-1542
dock	-1543
▁her	-1544
▁runt	-1545
▁några	-1546
▁härlighet	-1547
ket	-1548
Du	-1549
▁lov	-1550
▁förut	-1551
ordan	-1552
▁alnar	-1553
▁mellan	-1554
annerligen	-1555
drä	-1556
▁.'	-1557
▁fyr	-1558
▁bjudit	-1559
▁himmel	-1560
vem	-1561
port	-1562
gudar	-1563
risti	-1564
broder	-1565
▁ären	-1566
▁helgedom	-1567
läng	-1568
vända	-1569
ha	-1570
äv	-1571
Var	-1572
▁släkt	-1573
äk	-1574
▁offra	-1575
▁brännoffer	-1576
kvinn	-1577
uru	-1578
▁stra	-1579
▁värl	-1580
föll	-1581
▁sätta	-1582
▁bodde	-1583
ner	-1584
ygd	-1585
huvud	-1586
larna	-1587
nimma	-1588
orn	-1589
fött	-1590
våra	-1591
▁vär	-1592
▁länge	-1593
utt	-1594
▁krig	-1595
mycket	-1596
ård	-1597
fräl	-1598
jut	-1599
oning	-1600
fyll	-1601
kret	-1602
lead	-1603
▁igen	-1604
▁stör	-1605
elsetältet	-1606
per	-1607
▁ri	-1608
uren	-1609
▁del	-1610
▁ena	-1611
▁likasom	-1612
behag	-1613
igenom	-1614
sår	-1615
vitt	-1616
sände	-1617
▁Dessa	-1618
eda	-1619
fatt	-1620
vding	-1621
händer	-1622
prästerna	-1623
▁leviterna	-1624
annade	-1625
▁veder	-1626
▁lo	-1627
ette	-1628
saul	-1629
▁höj	-1630
▁tio	-1631
iternas	-1632
▁ropade	-1633
helg	-1634
måste	-1635
äpp	-1636
tare	-1637
moder	-1638
oren	-1639
ången	-1640
fallning	-1641
▁lägga	-1642
▁kvinna	-1643
mun	-1644
tro	-1645
▁dricka	-1646
ält	-1647
edde	-1648
full	-1649
▁Josua	-1650
står	-1651
Så	-1652
kas	-1653
amla	-1654
▁Ben	-1655
▁Vad	-1656
jakob	-1657
▁gått	-1658
▁fötter	-1659
vag	-1660
!»	-1661
härt	-1662
▁Babel	-1663
▁låter	-1664
▁medan	-1665
▁äldste	-1666
▁hjärtan	-1667
▁förg	-1668
fur	-1669
arbet	-1670
allenast	-1671
san	-1672
▁dju	-1673
ho	-1674
oab	-1675
amil	-1676
hennes	-1677
plats	-1678
fyra	-1679
stora	-1680
▁därav	-1681
▁fingo	-1682
ossa	-1683
hannes	-1684
▁ung	-1685
▁förl	-1686
▁orätt	-1687
▁alltså	-1688
▁natten	-1689
ok	-1690
tag	-1691
männen	-1692
gås	-1693
önst	-1694
▁vart	-1695
▁släkte	-1696
hop	-1697
▁räk	-1698
▁sak	-1699
heliga	-1700
läm	-1701
synd	-1702
vade	-1703
bara	-1704
▁pri	-1705
▁altaret	-1706
häm	-1707
▁by	-1708
blod	-1709
emia	-1710
▁god	-1711
unger	-1712
▁döden	-1713
▁gudar	-1714
▁sy	-1715
unde	-1716
▁Farao	-1717
▁därpå	-1718
▁redan	-1719
▁första	-1720
▁månaden	-1721
vna	-1722
rota	-1723
vilja	-1724
straff	-1725
nesbörd	-1726
jöl	-1727
teck	-1728
▁dra	-1729
salom	-1730
▁håll	-1731
▁hört	-1732
latsen	-1733
oses	-1734
mannen	-1735
abb	-1736
▁rike	-1737
varför	-1738
▁huset	-1739
▁överste	-1740
dra	-1741
yng	-1742
öp	-1743
▁bu	-1744
▁faders	-1745
▁glädje	-1746
fast	-1747
guld	-1748
kött	-1749
▁fot	-1750
▁grä	-1751
▁förs	-1752
▁skam	-1753
▁därtill	-1754
▁jordens	-1755
▁kallade	-1756
tr	-1757
asse	-1758
▁goda	-1759
unda	-1760
mmande	-1761
▁häl	-1762
▁stri	-1763
▁konungar	-1764
råde	-1765
nåd	-1766
vand	-1767
asar	-1768
höll	-1769
finnes	-1770
löd	-1771
▁säd	-1772
▁vag	-1773
▁sett	-1774
▁sång	-1775
▁edert	-1776
▁tredje	-1777
akta	-1778
kade	-1779
derna	-1780
räcka	-1781
ammal	-1782
marker	-1783
gärningar	-1784
äp	-1785
ski	-1786
▁Je	-1787
vilken	-1788
▁stygg	-1789
gr	-1790
hit	-1791
svärd	-1792
▁hopp	-1793
▁folken	-1794
jest	-1795
loden	-1796
▁tolv	-1797
▁vand	-1798
▁falla	-1799
▁alltid	-1800
▁ligger	-1801
▁därifrån	-1802
delse	-1803
▁Herre	-1804
isoffer	-1805
▁Jordan	-1806
ib	-1807
draga	-1808
▁ör	-1809
både	-1810
▁Nej	-1811
▁hop	-1812
▁djur	-1813
▁togo	-1814
heller	-1815
▁helig	-1816
▁marken	-1817
falla	-1818
▁jäm	-1819
▁ser	-1820
▁svär	-1821
▁våld	-1822
▁högra	-1823
drag	-1824
söka	-1825
ypti	-1826
▁gra	-1827
ättre	-1828
illa	-1829
skade	-1830
jan	-1831
▁bön	-1832
▁fjär	-1833
▁annat	-1834
▁lever	-1835
vang	-1836
skär	-1837
giver	-1838
▁talar	-1839
ått	-1840
fått	-1841
kens	-1842
sidan	-1843
▁fa	-1844
▁visa	-1845
▁Efraim	-1846
▁Ba	-1847
int	-1848
mmer	-1849
deles	-1850
▁Ä	-1851
ville	-1852
▁tack	-1853
▁fråga	-1854
▁tagit	-1855
▁tjänar	-1856
▁evinnerligen	-1857
stä	-1858
aria	-1859
kläd	-1860
▁ä	-1861
orr	-1862
▁Na	-1863
▁nöd	-1864
▁sänt	-1865
▁hjälp	-1866
▁stodo	-1867
vangeli	-1868
▁ibland	-1869
▁vandra	-1870
seg	-1871
leva	-1872
mått	-1873
kläder	-1874
▁känna	-1875
▁kärlek	-1876
▁levande	-1877
gingo	-1878
ästar	-1879
ts	-1880
Det	-1881
själva	-1882
▁boskap	-1883
▁håller	-1884
gas	-1885
gott	-1886
hopa	-1887
tron	-1888
ffade	-1889
boskap	-1890
ytterligare	-1891
ala	-1892
ryta	-1893
▁bär	-1894
▁fall	-1895
▁världen	-1896
ild	-1897
▁Av	-1898
▁red	-1899
försk	-1900
▁hämta	-1901
stam	-1902
iskia	-1903
dighet	-1904
uppenbar	-1905
ass	-1906
obe	-1907
▁ny	-1908
döda	-1909
rött	-1910
▁begär	-1911
▁tager	-1912
▁tempel	-1913
mör	-1914
hövit	-1915
▁Jon	-1916
kunde	-1917
▁gammal	-1918
▁vishet	-1919
rämmande	-1920
▁stadgar	-1921
▁besittning	-1922
gri	-1923
åga	-1924
bred	-1925
ycke	-1926
ama	-1927
▁ha	-1928
▁frid	-1929
▁strö	-1930
▁drogo	-1931
▁ligga	-1932
▁tecken	-1933
människor	-1934
▁missgärning	-1935
gn	-1936
bad	-1937
ers	-1938
lippa	-1939
ingsår	-1940
ärskil	-1941
▁Kan	-1942
▁bör	-1943
kropp	-1944
▁begynte	-1945
▁kvinnor	-1946
▁förskräck	-1947
ene	-1948
välsig	-1949
▁ot	-1950
stör	-1951
aulus	-1952
▁bred	-1953
▁Paulus	-1954
▁konungs	-1955
kär	-1956
kon	-1957
gått	-1958
▁Moab	-1959
▁fröj	-1960
morgon	-1961
egypten	-1962
kia	-1963
varit	-1964
smännen	-1965
▁Benjamin	-1966
blevo	-1967
ringa	-1968
ev	-1969
hed	-1970
gläd	-1971
▁fara	-1972
▁vägar	-1973
nämligen	-1974
▁släkter	-1975
finna	-1976
▁El	-1977
hopp	-1978
▁lagen	-1979
kristus	-1980
▁synder	-1981
föd	-1982
rut	-1983
kam	-1984
▁akt	-1985
▁for	-1986
▁mur	-1987
kraft	-1988
▁ving	-1989
▁utval	-1990
▁männen	-1991
▁övriga	-1992
elek	-1993
mmen	-1994
äste	-1995
fo	-1996
▁skö	-1997
anter	-1998
▁egen	-1999
vånare	-2000
▁Petrus	-2001
sj	-2002
lut	-2003
▁kr	-2004
före	-2005
slut	-2006
▁hal	-2007
bedja	-2008
▁fanns	-2009
▁tillhör	-2010
fång	-2011
ätte	-2012
obarn	-2013
obeam	-2014
öj	-2015
mod	-2016
▁pen	-2017
dotter	-2018
ogudakt	-2019
▁följde	-2020
rättfärdighet	-2021
rön	-2022
lägga	-2023
bas	-2024
for	-2025
mju	-2026
▁ta	-2027
ören	-2028
havet	-2029
kelse	-2030
vilka	-2031
▁sons	-2032
▁steg	-2033
▁förstånd	-2034
▁lärjungar	-2035
post	-2036
kvinna	-2037
framför	-2038
▁Re	-2039
▁funn	-2040
▁intill	-2041
▁sådana	-2042
fäll	-2043
räckte	-2044
smannen	-2045
härtighet	-2046
',	-2047
hat	-2048
▁aft	-2049
▁Allt	-2050
▁Ande	-2051
fördär	-2052
förbund	-2053
▁berget	-2054
oft	-2055
dels	-2056
makt	-2057
flykt	-2058
riket	-2059
unden	-2060
▁Jesu	-2061
▁grän	-2062
▁behag	-2063
lärjung	-2064
▁Kristi	-2065
▁finnas	-2066
▁länder	-2067
▁olycka	-2068
önstrade	-2069
kast	-2070
konungens	-2071
veta	-2072
vände	-2073
▁lott	-2074
ändigt	-2075
▁frälsning	-2076
reat	-2077
▁Ma	-2078
▁tag	-2079
▁slut	-2080
▁stället	-2081
följde	-2082
kat	-2083
▁ed	-2084
▁slå	-2085
▁utt	-2086
ernas	-2087
visso	-2088
▁döds	-2089
håller	-2090
soning	-2091
äkreat	-2092
▁fastän	-2093
ont	-2094
▁ru	-2095
▁ski	-2096
▁barm	-2097
▁svar	-2098
▁vattnet	-2099
▁förnimma	-2100
ore	-2101
mäst	-2102
begyn	-2103
strid	-2104
vägen	-2105
äller	-2106
silver	-2107
kallade	-2108
vangelium	-2109
dre	-2110
▁dräp	-2111
▁rädda	-2112
dor	-2113
låter	-2114
ub	-2115
ien	-2116
tade	-2117
▁bel	-2118
äcken	-2119
▁jord	-2120
▁söka	-2121
▁vädu	-2122
▁bygga	-2123
▁varda	-2124
▁frukta	-2125
▁förtör	-2126
skyl	-2127
rat	-2128
fara	-2129
▁skatt	-2130
▁aldrig	-2131
nej	-2132
ögn	-2133
öpp	-2134
sång	-2135
skur	-2136
▁stån	-2137
▁himmelens	-2138
båda	-2139
frågade	-2140
räv	-2141
änga	-2142
▁Neb	-2143
▁ben	-2144
rarna	-2145
undan	-2146
▁Huru	-2147
▁olja	-2148
filist	-2149
▁förkun	-2150
▁koppar	-2151
▁profeten	-2152
▁profeter	-2153
gat	-2154
▁In	-2155
älska	-2156
▁däri	-2157
▁kläd	-2158
▁lamm	-2159
▁furstar	-2160
▁menighet	-2161
Om	-2162
dets	-2163
slog	-2164
sman	-2165
▁tju	-2166
▁Joab	-2167
▁andre	-2168
▁sända	-2169
▁arbete	-2170
sätta	-2171
▁Låt	-2172
talat	-2173
vidare	-2174
ställde	-2175
alltså	-2176
uta	-2177
bröd	-2178
▁Amm	-2179
▁väx	-2180
▁ängel	-2181
▁Herrens	-2182
▁befallning	-2183
given	-2184
visade	-2185
pet	-2186
▁fåg	-2187
▁slakt	-2188
▁filistéerna	-2189
låtit	-2190
oln	-2191
ulla	-2192
ären	-2193
ernakl	-2194
▁tjäna	-2195
▁trettio	-2196
skyn	-2197
De	-2198
hä	-2199
▁St	-2200
klag	-2201
▁ans	-2202
ättade	-2203
▁hette	-2204
▁förrän	-2205
▁trädde	-2206
olö	-2207
rit	-2208
ssy	-2209
redes	-2210
äster	-2211
marken	-2212
byggare	-2213
eser	-2214
togo	-2215
▁Har	-2216
▁het	-2217
▁utg	-2218
ckade	-2219
▁sabb	-2220
bjudit	-2221
▁Gilead	-2222
egyptens	-2223
mönstrade	-2224
▁människorna	-2225
lad	-2226
låg	-2227
sex	-2228
nart	-2229
▁fär	-2230
vrede	-2231
mellan	-2232
sådant	-2233
▁stort	-2234
▁Samuel	-2235
hug	-2236
aten	-2237
hört	-2238
äten	-2239
▁dal	-2240
▁drö	-2241
låten	-2242
▁enda	-2243
▁nära	-2244
sebaot	-2245
▁Efter	-2246
▁lejon	-2247
▁boning	-2248
▁därmed	-2249
▁skaffa	-2250
▁uppstå	-2251
ton	-2252
iske	-2253
rien	-2254
medan	-2255
▁fl	-2256
aron	-2257
lösa	-2258
samt	-2259
▁oför	-2260
▁vore	-2261
sim	-2262
▁»,	-2263
tjänst	-2264
fy	-2265
▁Le	-2266
ljus	-2267
▁lju	-2268
▁ond	-2269
▁trö	-2270
▁Isak	-2271
Varför	-2272
▁given	-2273
▁hunger	-2274
▁tänkte	-2275
▁Jeremia	-2276
▁hedningarna	-2277
folken	-2278
▁Vi	-2279
▁nog	-2280
▁sid	-2281
ränna	-2282
arvedel	-2283
▁Varför	-2284
▁vittnesbörd	-2285
onda	-2286
vårt	-2287
smäkt	-2288
håg	-2289
▁öster	-2290
ckoffer	-2291
▁femtio	-2292
▁förgås	-2293
▁kommen	-2294
varandra	-2295
▁församlade	-2296
▁allasammans	-2297
by	-2298
lämn	-2299
▁dru	-2300
▁Hans	-2301
▁långt	-2302
amiljer	-2303
▁fyrtio	-2304
människa	-2305
▁stannade	-2306
främ	-2307
altaret	-2308
fru	-2309
nan	-2310
▁Vid	-2311
▁hug	-2312
▁huvu	-2313
▁natt	-2314
▁sorg	-2315
▁tung	-2316
▁åker	-2317
▁slags	-2318
dör	-2319
éer	-2320
örj	-2321
vart	-2322
vdingar	-2323
▁kn	-2324
▁dår	-2325
▁föd	-2326
▁bjöd	-2327
imelek	-2328
▁utrota	-2329
lång	-2330
vakt	-2331
tjugu	-2332
Låt	-2333
asa	-2334
▁Ham	-2335
lodet	-2336
▁Alla	-2337
▁sågo	-2338
gården	-2339
▁byggde	-2340
▁Johannes	-2341
▁församling	-2342
of	-2343
bba	-2344
bef	-2345
sid	-2346
▁Be	-2347
▁Nu	-2348
sken	-2349
▁dog	-2350
▁tab	-2351
barns	-2352
▁evig	-2353
▁läger	-2354
▁varför	-2355
▁Manasse	-2356
öt	-2357
kad	-2358
häng	-2359
lakta	-2360
öknen	-2361
oa	-2362
str	-2363
▁äg	-2364
gamm	-2365
▁hår	-2366
josef	-2367
▁inne	-2368
▁hustrur	-2369
ada	-2370
blå	-2371
safat	-2372
davids	-2373
inga	-2374
värl	-2375
▁Esa	-2376
▁arm	-2377
▁sik	-2378
helst	-2379
▁Dock	-2380
▁akta	-2381
▁lust	-2382
▁skör	-2383
▁Moses	-2384
▁gören	-2385
stycken	-2386
▁mycken	-2387
▁namnet	-2388
▁judarna	-2389
▁helgedomen	-2390
doms	-2391
abraham	-2392
fiender	-2393
▁kal	-2394
reger	-2395
▁mark	-2396
himmel	-2397
▁livet	-2398
▁strax	-2399
▁hövding	-2400
orra	-2401
stodo	-2402
ropade	-2403
härlighet	-2404
.'»	-2405
best	-2406
sett	-2407
▁rör	-2408
orätt	-2409
▁Baal	-2410
▁högt	-2411
▁lyss	-2412
▁sant	-2413
salomo	-2414
▁grund	-2415
▁spisoffer	-2416
kön	-2417
tel	-2418
några	-2419
sönder	-2420
änk	-2421
lamm	-2422
▁sen	-2423
förut	-2424
▁eget	-2425
▁lära	-2426
▁vårt	-2427
döttrar	-2428
▁Fadern	-2429
▁känner	-2430
▁ställe	-2431
▁ställde	-2432
naden	-2433
tillsammans	-2434
Vi	-2435
▁c	-2436
fyr	-2437
lor	-2438
färd	-2439
livet	-2440
▁Sion	-2441
▁förö	-2442
▁stark	-2443
▁område	-2444
▁sjunde	-2445
slå	-2446
aans	-2447
skrivet	-2448
ckså	-2449
runt	-2450
vatt	-2451
▁mat	-2452
▁mär	-2453
▁tör	-2454
▁föda	-2455
▁ting	-2456
▁svara	-2457
likasom	-2458
▁Ah	-2459
▁ry	-2460
igas	-2461
mäkt	-2462
▁All	-2463
delser	-2464
faders	-2465
▁bedrö	-2466
▁egypti	-2467
▁likväl	-2468
▁syster	-2469
ny	-2470
gåva	-2471
▁Må	-2472
▁gen	-2473
▁berö	-2474
▁läpp	-2475
▁sitta	-2476
▁solen	-2477
▁Jerusalems	-2478
esa	-2479
älek	-2480
alnar	-2481
släkt	-2482
berget	-2483
god	-2484
▁si	-2485
stri	-2486
▁små	-2487
▁mjöl	-2488
▁träl	-2489
▁förkunna	-2490
kr	-2491
aka	-2492
näm	-2493
barm	-2494
krig	-2495
ebron	-2496
helgedom	-2497
brännoffer	-2498
▁Dan	-2499
därav	-2500
varar	-2501
▁skap	-2502
▁skyn	-2503
▁rätta	-2504
▁Jakobs	-2505
▁bestäm	-2506
▁tionde	-2507
▁varken	-2508
äkreatur	-2509
▁skrivet	-2510
kalla	-2511
oka	-2512
▁sn	-2513
ledes	-2514
länge	-2515
▁Hiskia	-2516
▁gånger	-2517
▁fruktan	-2518
▁tillhopa	-2519
öta	-2520
ötte	-2521
änker	-2522
rofast	-2523
yllene	-2524
▁fr	-2525
▁Vem	-2526
bodde	-2527
▁egna	-2528
▁skuld	-2529
▁funnit	-2530
▁kvinnan	-2531
▁främmande	-2532
▁profeterna	-2533
följa	-2534
sträv	-2535
sai	-2536
omål	-2537
▁ark	-2538
▁bad	-2539
stygg	-2540
veder	-2541
▁fäng	-2542
▁star	-2543
▁begav	-2544
▁särskil	-2545
▁regeringsår	-2546
porten	-2547
häl	-2548
▁Sk	-2549
▁seg	-2550
▁sida	-2551
▁Såsom	-2552
▁levde	-2553
▁älska	-2554
▁flydde	-2555
▁fåfäng	-2556
ryd	-2557
agog	-2558
dige	-2559
steg	-2560
osonen	-2561
leviterna	-2562
▁Sa	-2563
akar	-2564
förg	-2565
▁Her	-2566
▁tan	-2567
HERRE	-2568
tagit	-2569
▁Ahas	-2570
▁mått	-2571
första	-2572
▁altare	-2573
▁lägret	-2574
▁skrift	-2575
▁alldeles	-2576
▁syndoffer	-2577
ting	-2578
babel	-2579
mor	-2580
pri	-2581
▁ens	-2582
▁lön	-2583
offra	-2584
redan	-2585
▁bitt	-2586
▁gåvo	-2587
▁inom	-2588
▁stenar	-2589
▁större	-2590
ernaklet	-2591
▁Absalom	-2592
▁sanning	-2593
▁utmarker	-2594
anja	-2595
sons	-2596
ving	-2597
hal	-2598
▁Am	-2599
svär	-2600
▁Min	-2601
▁yng	-2602
tagen	-2603
▁fördärv	-2604
▁platsen	-2605
sg	-2606
rop	-2607
hjärtan	-2608
pur	-2609
▁dyr	-2610
▁Sime	-2611
▁pred	-2612
▁finner	-2613
▁invånare	-2614
rov	-2615
tti	-2616
skam	-2617
älsk	-2618
därtill	-2619
fot	-2620
ind	-2621
lile	-2622
▁Hon	-2623
josua	-2624
velse	-2625
dricka	-2626
äldste	-2627
▁Också	-2628
▁siklar	-2629
▁förgöra	-2630
▁ogudaktiga	-2631
▁människobarn	-2632
bon	-2633
fingo	-2634
hjälp	-2635
natten	-2636
sik	-2637
fjär	-2638
lärde	-2639
▁vila	-2640
▁floden	-2641
▁högtid	-2642
▁porten	-2643
▁Jonatan	-2644
▁kastade	-2645
▁stammar	-2646
▁älskade	-2647
▁ytterligare	-2648
ådo	-2649
▁!»	-2650
inda	-2651
rakt	-2652
soffer	-2653
mästaren	-2654
las	-2655
▁nå	-2656
sida	-2657
▁led	-2658
▁ång	-2659
därpå	-2660
känna	-2661
▁vakt	-2662
fötter	-2663
▁begra	-2664
▁Ammons	-2665
▁kunskap	-2666
▁överträ	-2667
strö	-2668
gående	-2669
tjänar	-2670
därifrån	-2671
▁(	-2672
säd	-2673
abyl	-2674
gåvo	-2675
rång	-2676
▁köp	-2677
otade	-2678
abylon	-2679
▁portar	-2680
▁uppfyll	-2681
bul	-2682
hår	-2683
ppa	-2684
fäst	-2685
moab	-2686
våld	-2687
fråga	-2688
talar	-2689
släkte	-2690
månaden	-2691
ym	-2692
▁Å	-2693
bru	-2694
ims	-2695
▁bak	-2696
▁kor	-2697
Herre	-2698
döden	-2699
▁skil	-2700
vänner	-2701
▁bröto	-2702
▁hemsö	-2703
▁still	-2704
▁jämväl	-2705
▁rätter	-2706
▁samman	-2707
konungar	-2708
▁Jerobeam	-2709
▁morgonen	-2710
▁utgjorde	-2711
▁barmhärtighet	-2712
lös	-2713
goda	-2714
dräkt	-2715
vas	-2716
skör	-2717
▁bru	-2718
▁åsn	-2719
annat	-2720
farao	-2721
jordens	-2722
▁försoning	-2723
▁penningar	-2724
▁fångenskap	-2725
▁filistéernas	-2726
fåg	-2727
Gå	-2728
För	-2729
ads	-2730
▁ox	-2731
fria	-2732
lagt	-2733
änka	-2734
ätit	-2735
▁van	-2736
dande	-2737
helig	-2738
rutit	-2739
▁uppe	-2740
djuret	-2741
glädje	-2742
▁tunga	-2743
▁handen	-2744
▁slagna	-2745
lder	-2746
rike	-2747
ligger	-2748
överste	-2749
Ja	-2750
kn	-2751
döm	-2752
löt	-2753
salm	-2754
▁Sid	-2755
▁bas	-2756
hämta	-2757
hända	-2758
hören	-2759
▁döma	-2760
▁just	-2761
▁klag	-2762
▁läto	-2763
▁spet	-2764
▁lovat	-2765
▁otukt	-2766
▁läppar	-2767
▁evangelium	-2768
giv	-2769
mär	-2770
illo	-2771
olja	-2772
jutet	-2773
jungfru	-2774
▁Ar	-2775
▁bok	-2776
edert	-2777
▁kärl	-2778
▁mäkt	-2779
▁ovan	-2780
▁tält	-2781
▁faris	-2782
▁vilket	-2783
▁fjärran	-2784
▁präster	-2785
▁styggelse	-2786
lada	-2787
kommen	-2788
bi	-2789
Vem	-2790
mål	-2791
sel	-2792
▁Är	-2793
▁öd	-2794
leam	-2795
ydda	-2796
skara	-2797
▁Sela	-2798
▁lögn	-2799
▁Arons	-2800
▁Sauls	-2801
▁fasta	-2802
▁funnos	-2803
▁förstå	-2804
▁förtär	-2805
▁aftonen	-2806
cker	-2807
orde	-2808
tager	-2809
trädde	-2810
▁Ö	-2811
Min	-2812
set	-2813
mark	-2814
▁Sik	-2815
▁fal	-2816
▁lit	-2817
▁behö	-2818
▁sjuk	-2819
▁ände	-2820
frukta	-2821
vandra	-2822
▁bryta	-2823
▁höllo	-2824
▁innan	-2825
▁träda	-2826
▁bergen	-2827
▁bättre	-2828
▁hästar	-2829
▁stanna	-2830
▁förbann	-2831
kel	-2832
rör	-2833
frid	-2834
bygga	-2835
sbygd	-2836
stjän	-2837
lileen	-2838
tredje	-2839
▁Ga	-2840
eras	-2841
▁ene	-2842
▁Mika	-2843
▁viss	-2844
högtid	-2845
▁antal	-2846
hövding	-2847
▁köttet	-2848
▁vagnar	-2849
▁fullbor	-2850
▁uppteck	-2851
▁välbehag	-2852
tolv	-2853
hustrur	-2854
gra	-2855
lov	-2856
▁Ka	-2857
erub	-2858
sänt	-2859
väck	-2860
▁Med	-2861
▁bar	-2862
▁rop	-2863
junga	-2864
lämna	-2865
sende	-2866
▁Ahab	-2867
▁djup	-2868
▁lagt	-2869
▁ändå	-2870
alltid	-2871
vishet	-2872
▁basun	-2873
▁gamla	-2874
furstar	-2875
▁ingången	-2876
pe	-2877
grä	-2878
ahas	-2879
sorg	-2880
lever	-2881
kastade	-2882
äktenskap	-2883
».	-2884
gård	-2885
rett	-2886
▁Asa	-2887
▁Sem	-2888
▁gri	-2889
▁kam	-2890
▁Till	-2891
▁ansi	-2892
▁styr	-2893
efraim	-2894
▁stoft	-2895
▁ostraff	-2896
bön	-2897
ktet	-2898
omma	-2899
jordan	-2900
stenar	-2901
huvu	-2902
lott	-2903
sias	-2904
▁Hel	-2905
anden	-2906
änger	-2907
▁Nebu	-2908
skurna	-2909
▁litet	-2910
kvinnor	-2911
levande	-2912
▁därvid	-2913
benjamin	-2914
▁regerade	-2915
▁församlingen	-2916
ef	-2917
högra	-2918
skuld	-2919
kommande	-2920
St	-2921
väx	-2922
éen	-2923
▁bi	-2924
nuft	-2925
otvå	-2926
skus	-2927
örja	-2928
▁bek	-2929
▁häp	-2930
▁per	-2931
▁str	-2932
ygden	-2933
▁kasta	-2934
visning	-2935
▁eljest	-2936
▁ställa	-2937
▁lägrade	-2938
▁lämnade	-2939
su	-2940
skö	-2941
sna	-2942
bord	-2943
varen	-2944
utöver	-2945
pi	-2946
likt	-2947
vädu	-2948
▁pel	-2949
▁ute	-2950
kasta	-2951
▁bety	-2952
▁bord	-2953
▁bröt	-2954
▁byte	-2955
▁unga	-2956
HERREN	-2957
▁elden	-2958
▁skett	-2959
▁ödmju	-2960
världen	-2961
▁fäders	-2962
▁vredes	-2963
▁Efraims	-2964
▁rikedom	-2965
förskräck	-2966
▁följande	-2967
▁fördärva	-2968
ordoka	-2969
ossade	-2970
tecken	-2971
rofasthet	-2972
mur	-2973
▁Ele	-2974
▁gre	-2975
▁hat	-2976
begär	-2977
▁Icke	-2978
▁isra	-2979
▁hören	-2980
▁seger	-2981
▁slogo	-2982
▁sökte	-2983
▁trolö	-2984
▁dragit	-2985
▁inbyggare	-2986
evinnerligen	-2987
fl	-2988
nöd	-2989
ägg	-2990
aktt	-2991
iko	-2992
lju	-2993
▁ve	-2994
▁giv	-2995
▁pal	-2996
▁ropa	-2997
gammal	-2998
ibland	-2999
kärlek	-3000
▁sägen	-3001
vattnet	-3002
▁allena	-3003
▁kunnen	-3004
▁älskar	-3005
▁planter	-3006
▁tillika	-3007
▁vingård	-3008
bok	-3009
kal	-3010
föda	-3011
irja	-3012
handa	-3013
lagen	-3014
ligga	-3015
ängel	-3016
eam	-3017
höjd	-3018
▁hov	-3019
sända	-3020
▁amor	-3021
▁goss	-3022
▁hast	-3023
▁moln	-3024
▁stig	-3025
intill	-3026
tempel	-3027
▁tänka	-3028
▁straff	-3029
▁syndat	-3030
▁evighet	-3031
▁vilkens	-3032
äktenskapsb	-3033
▁människors	-3034
aja	-3035
dån	-3036
fal	-3037
öld	-3038
ullt	-3039
ulus	-3040
utto	-3041
året	-3042
gören	-3043
unnen	-3044
vägar	-3045
kadnes	-3046
samhet	-3047
stadgar	-3048
värdlig	-3049
kadnessar	-3050
ännoffret	-3051
besittning	-3052
rum	-3053
fröj	-3054
▁smä	-3055
▁Aser	-3056
▁aram	-3057
▁järn	-3058
▁stol	-3059
▁året	-3060
▁bedja	-3061
▁jubel	-3062
▁snart	-3063
▁inmönstrade	-3064
ant	-3065
por	-3066
tju	-3067
aram	-3068
sikt	-3069
drogo	-3070
finnas	-3071
rym	-3072
såt	-3073
atus	-3074
egen	-3075
kunn	-3076
tonde	-3077
▁förd	-3078
▁orda	-3079
▁skyl	-3080
▁vild	-3081
aldrig	-3082
faller	-3083
▁blott	-3084
▁lämna	-3085
▁nästa	-3086
konungs	-3087
lämnade	-3088
▁bäcken	-3089
▁förhär	-3090
▁viljen	-3091
▁visste	-3092
denskull	-3093
▁familjer	-3094
fat	-3095
hud	-3096
lit	-3097
smä	-3098
åten	-3099
sådana	-3100
församling	-3101
missgärning	-3102
slu	-3103
vek	-3104
▁sv	-3105
▁va	-3106
röda	-3107
träda	-3108
▁Assy	-3109
▁Gibe	-3110
▁skar	-3111
▁öron	-3112
▁Ingen	-3113
▁därom	-3114
begynte	-3115
▁domare	-3116
▁slakta	-3117
▁Människ	-3118
aft	-3119
utg	-3120
emål	-3121
öder	-3122
ästab	-3123
ågade	-3124
ilatus	-3125
paulus	-3126
ställa	-3127
tändes	-3128
ordokai	-3129
sbygden	-3130
abyloniske	-3131
▁rå	-3132
▁sä	-3133
Huru	-3134
innan	-3135
▁dörr	-3136
▁kung	-3137
länder	-3138
▁arken	-3139
▁följa	-3140
stället	-3141
▁fjärde	-3142
▁mörker	-3143
▁hälften	-3144
▁striden	-3145
vir	-3146
bjöd	-3147
skrift	-3148
sabb	-3149
snöd	-3150
täck	-3151
ftali	-3152
idjan	-3153
▁kors	-3154
▁lida	-3155
▁utom	-3156
mmelse	-3157
ändiga	-3158
▁dräpa	-3159
släkter	-3160
▁längre	-3161
▁stycke	-3162
ningsmän	-3163
▁Samaria	-3164
▁förvisso	-3165
▁rättfärdiga	-3166
dyr	-3167
ckes	-3168
elat	-3169
grän	-3170
minn	-3171
vila	-3172
floden	-3173
nelsen	-3174
synder	-3175
färdighet	-3176
fr	-3177
ine	-3178
▁ra	-3179
rädda	-3180
utval	-3181
▁bock	-3182
▁fann	-3183
▁rena	-3184
alunda	-3185
övriga	-3186
▁föllo	-3187
▁skåda	-3188
fruktan	-3189
platsen	-3190
▁faller	-3191
▁vederg	-3192
▁vänder	-3193
▁Josafat	-3194
▁mörkret	-3195
▁Assyrien	-3196
▁rättfärdige	-3197
sad	-3198
sti	-3199
funn	-3200
natt	-3201
stig	-3202
älja	-3203
fanns	-3204
essias	-3205
petrus	-3206
frälsning	-3207
lärjungar	-3208
älj	-3209
ffar	-3210
▁öde	-3211
araos	-3212
▁haft	-3213
▁mans	-3214
▁slår	-3215
▁vars	-3216
▁beläg	-3217
förstånd	-3218
▁Kanaans	-3219
▁offrade	-3220
▁utanför	-3221
▁Benjamins	-3222
döds	-3223
träl	-3224
arbete	-3225
Den	-3226
hor	-3227
sem	-3228
ovan	-3229
▁Son	-3230
▁spå	-3231
▁sål	-3232
banon	-3233
orten	-3234
▁fint	-3235
olycka	-3236
städes	-3237
▁Eller	-3238
▁veten	-3239
▁öppna	-3240
▁Alltså	-3241
▁blodet	-3242
▁fåglar	-3243
▁utvalt	-3244
▁avgudar	-3245
▁stycken	-3246
ns	-3247
led	-3248
ppar	-3249
andre	-3250
fastän	-3251
dakt	-3252
▁Jis	-3253
▁ihåg	-3254
▁apost	-3255
▁lands	-3256
▁såväl	-3257
undrade	-3258
▁Faraos	-3259
▁drager	-3260
▁starka	-3261
▁strida	-3262
sannerligen	-3263
bal	-3264
mår	-3265
förs	-3266
jesu	-3267
osen	-3268
juder	-3269
habeam	-3270
kristi	-3271
starna	-3272
▁y	-3273
gre	-3274
▁Li	-3275
grip	-3276
kärl	-3277
ropa	-3278
sinn	-3279
ängd	-3280
▁båg	-3281
skatt	-3282
ängde	-3283
▁Från	-3284
▁buro	-3285
▁gräs	-3286
▁kald	-3287
▁rent	-3288
höjden	-3289
skaffa	-3290
▁Moabs	-3291
▁kalla	-3292
▁graven	-3293
▁räckte	-3294
▁smälek	-3295
▁varder	-3296
profeten	-3297
▁rökelse	-3298
▁sjuttio	-3299
himmelens	-3300
▁Eftersom	-3301
▁fäkreatur	-3302
dab	-3303
förl	-3304
guda	-3305
äter	-3306
visar	-3307
trö	-3308
▁os	-3309
flöd	-3310
odom	-3311
pper	-3312
stol	-3313
▁öga	-3314
modig	-3315
▁fett	-3316
▁fing	-3317
▁tukt	-3318
▁vänt	-3319
ringar	-3320
▁bedri	-3321
▁krigs	-3322
▁Daniel	-3323
▁beslut	-3324
▁sitter	-3325
▁öppnade	-3326
▁vandrade	-3327
▁berättade	-3328
▁menigheten	-3329
issgärningar	-3330
hov	-3331
vde	-3332
vänt	-3333
äcka	-3334
förnimma	-3335
tor	-3336
▁Ve	-3337
▁bä	-3338
bild	-3339
dräp	-3340
gade	-3341
mjöl	-3342
änkt	-3343
▁Mina	-3344
▁pris	-3345
▁redo	-3346
▁sjön	-3347
förrän	-3348
förtör	-3349
▁blygd	-3350
▁folks	-3351
▁fulla	-3352
▁invid	-3353
▁söker	-3354
kvinnan	-3355
tillhör	-3356
▁bevisa	-3357
▁dräpte	-3358
▁frälsa	-3359
▁förakt	-3360
▁tankar	-3361
▁gyllene	-3362
▁förbliver	-3363
▁tillbedja	-3364
filistéerna	-3365
▁beständigt	-3366
gal	-3367
ost	-3368
kblå	-3369
näst	-3370
nader	-3371
ornas	-3372
tjäna	-3373
varda	-3374
▁hä	-3375
▁arv	-3376
▁mod	-3377
fylla	-3378
rycka	-3379
▁nytt	-3380
▁regn	-3381
▁resa	-3382
▁äter	-3383
gilead	-3384
koppar	-3385
▁evigt	-3386
▁hövit	-3387
▁stiga	-3388
▁söder	-3389
▁moders	-3390
▁ondska	-3391
profeter	-3392
▁förfölj	-3393
▁främling	-3394
▁välsigna	-3395
▁slaktoffer	-3396
▁lärjungarna	-3397
dru	-3398
jeb	-3399
däri	-3400
dalen	-3401
▁Kor	-3402
▁åto	-3403
ryter	-3404
▁Aram	-3405
▁ofta	-3406
▁vack	-3407
demark	-3408
förkun	-3409
▁förra	-3410
▁klipp	-3411
▁lyfte	-3412
▁varar	-3413
akttaga	-3414
ättring	-3415
▁dennes	-3416
menighet	-3417
▁fursten	-3418
komlingar	-3419
▁gensträv	-3420
▁egyptierna	-3421
▁ogudaktige	-3422
drö	-3423
sma	-3424
aban	-3425
joab	-3426
därmed	-3427
befallning	-3428
sä	-3429
klä	-3430
mat	-3431
baal	-3432
▁Job	-3433
▁Levi	-3434
▁tagen	-3435
▁ditupp	-3436
▁förlåt	-3437
▁skedde	-3438
▁stilla	-3439
▁folkets	-3440
▁ovänner	-3441
penningar	-3442
▁fruktade	-3443
▁förtröst	-3444
▁tillhöra	-3445
gu	-3446
dog	-3447
fog	-3448
rok	-3449
adöm	-3450
khet	-3451
pott	-3452
sågo	-3453
vind	-3454
vore	-3455
jugut	-3456
slakt	-3457
yddor	-3458
eligen	-3459
stycke	-3460
ställe	-3461
▁Sad	-3462
▁Sil	-3463
▁lam	-3464
▁nit	-3465
▁prö	-3466
▁fisk	-3467
▁Anden	-3468
▁Genom	-3469
▁ringa	-3470
▁sidor	-3471
▁Hebron	-3472
▁Josefs	-3473
▁gränsen	-3474
▁somliga	-3475
▁svärdet	-3476
▁tjänares	-3477
▁myckenhet	-3478
▁tillflykt	-3479
▁tabernaklet	-3480
hugg	-3481
rika	-3482
åker	-3483
grund	-3484
hästar	-3485
likväl	-3486
tionde	-3487
trettio	-3488
skt	-3489
åsn	-3490
empl	-3491
lyss	-3492
uppe	-3493
värj	-3494
åtta	-3495
▁Abi	-3496
▁Bas	-3497
▁Ett	-3498
▁Mer	-3499
▁fel	-3500
▁pil	-3501
lejon	-3502
▁illa	-3503
ällukt	-3504
▁Betel	-3505
▁Elisa	-3506
▁Hören	-3507
▁kanan	-3508
▁bringa	-3509
▁helige	-3510
▁krossa	-3511
▁visade	-3512
ståndare	-3513
▁huvuden	-3514
allasammans	-3515
▁förstfödde	-3516
ah	-3517
dår	-3518
nära	-3519
hette	-3520
läger	-3521
samuel	-3522
uppstå	-3523
hedningarna	-3524
ox	-3525
rod	-3526
ugg	-3527
▁',	-3528
▁sa	-3529
▁Jor	-3530
▁Jos	-3531
▁fån	-3532
lovat	-3533
tider	-3534
öster	-3535
▁grav	-3536
▁norr	-3537
▁öken	-3538
gjorda	-3539
▁gåvor	-3540
▁prisa	-3541
▁tänker	-3542
▁därinne	-3543
▁förstör	-3544
▁havande	-3545
▁landets	-3546
▁synagog	-3547
▁städerna	-3548
lön	-3549
tung	-3550
stort	-3551
måttan	-3552
åthåll	-3553
lydande	-3554
johannes	-3555
let	-3556
▁ax	-3557
enda	-3558
gent	-3559
odes	-3560
öden	-3561
▁göm	-3562
Detta	-3563
andel	-3564
sökte	-3565
varna	-3566
▁Joas	-3567
boning	-3568
mycken	-3569
namnet	-3570
▁Judas	-3571
▁Sikem	-3572
▁druck	-3573
▁låten	-3574
▁ropar	-3575
▁gäller	-3576
▁klippa	-3577
▁vingar	-3578
▁hövdingar	-3579
▁välsignade	-3580
▁förtörnelse	-3581
?'	-3582
uk	-3583
bil	-3584
gån	-3585
nog	-3586
tör	-3587
delar	-3588
långt	-3589
strax	-3590
femtio	-3591
fyrtio	-3592
Är	-3593
ond	-3594
ute	-3595
▁gl	-3596
▁su	-3597
falt	-3598
isak	-3599
ötes	-3600
▁Här	-3601
▁hin	-3602
göras	-3603
innor	-3604
stund	-3605
änden	-3606
byggde	-3607
förare	-3608
hunger	-3609
räcker	-3610
saskar	-3611
staken	-3612
tänkte	-3613
▁Denne	-3614
▁bröst	-3615
▁olyck	-3616
▁ordet	-3617
▁talen	-3618
jeremia	-3619
ästabud	-3620
▁mantel	-3621
▁väster	-3622
smäktige	-3623
▁Abimelek	-3624
▁förtryck	-3625
▁drickoffer	-3626
▁styggelser	-3627
ms	-3628
åp	-3629
bådo	-3630
rikt	-3631
svar	-3632
delen	-3633
känner	-3634
förstån	-3635
stammar	-3636
vittnesbörd	-3637
ni	-3638
Han	-3639
sto	-3640
tab	-3641
▁Ke	-3642
förö	-3643
lyft	-3644
stes	-3645
▁Hes	-3646
darna	-3647
hanan	-3648
kades	-3649
▁Elia	-3650
▁Esau	-3651
▁blyg	-3652
▁gråt	-3653
▁livs	-3654
▁teck	-3655
▁åsyn	-3656
förgås	-3657
▁orena	-3658
▁vilse	-3659
judarna	-3660
▁hållen	-3661
▁ljuset	-3662
▁jungfru	-3663
församlade	-3664
▁därigenom	-3665
▁profetera	-3666
▁Människosonen	-3667
eus	-3668
öpa	-3669
ckan	-3670
deen	-3671
iges	-3672
lust	-3673
emplet	-3674
kblått	-3675
rönika	-3676
innande	-3677
minnelse	-3678
stannade	-3679
agn	-3680
jämt	-3681
▁Hör	-3682
▁kon	-3683
föllo	-3684
satta	-3685
slags	-3686
▁hata	-3687
▁horn	-3688
▁hölj	-3689
▁plåg	-3690
▁vika	-3691
kastat	-3692
utrota	-3693
▁storm	-3694
▁stund	-3695
▁tider	-3696
▁ålder	-3697
▁förman	-3698
▁israel	-3699
▁sänder	-3700
▁utföra	-3701
▁vandrar	-3702
▁Abrahams	-3703
▁angående	-3704
▁eldsoffer	-3705
gl	-3706
iva	-3707
domar	-3708
amn	-3709
hes	-3710
ots	-3711
rad	-3712
tas	-3713
ahab	-3714
ckar	-3715
deon	-3716
evig	-3717
ispa	-3718
ugga	-3719
▁gat	-3720
amilj	-3721
▁Edom	-3722
▁Lika	-3723
▁hämn	-3724
kelsen	-3725
träden	-3726
▁Simon	-3727
▁hjord	-3728
▁hände	-3729
▁tröst	-3730
▁varen	-3731
utanför	-3732
▁Konung	-3733
▁fördri	-3734
▁honung	-3735
▁stjärn	-3736
▁Eleasar	-3737
▁Galileen	-3738
▁tungomål	-3739
▁ogudaktigas	-3740
kis	-3741
ogen	-3742
farit	-3743
djuren	-3744
fadern	-3745
heligt	-3746
manasse	-3747
pas	-3748
sant	-3749
tjur	-3750
ömma	-3751
▁tor	-3752
behör	-3753
moses	-3754
solen	-3755
svara	-3756
▁inga	-3757
▁kast	-3758
▁pläg	-3759
▁skon	-3760
▁vikt	-3761
▁även	-3762
vagnar	-3763
▁glada	-3764
▁heter	-3765
▁kring	-3766
▁murar	-3767
▁skepp	-3768
▁stånd	-3769
▁trösk	-3770
▁förråd	-3771
▁gången	-3772
▁person	-3773
▁trodde	-3774
▁förvand	-3775
▁omtalade	-3776
▁bergsbygd	-3777
▁förgården	-3778
▁konungars	-3779
▁sanningen	-3780
▁skriftlärde	-3781
dad	-3782
ffat	-3783
skor	-3784
bryta	-3785
komst	-3786
leken	-3787
räckt	-3788
vorna	-3789
elsens	-3790
vånarna	-3791
helgedomen	-3792
sky	-3793
▁er	-3794
byte	-3795
döma	-3796
högt	-3797
omer	-3798
▁Bar	-3799
▁tra	-3800
höllo	-3801
ileam	-3802
ödmju	-3803
▁stav	-3804
▁vred	-3805
▁ödel	-3806
område	-3807
varken	-3808
▁Abner	-3809
▁förbi	-3810
▁kamel	-3811
▁kände	-3812
präster	-3813
▁hjälpa	-3814
▁betryck	-3815
spisoffer	-3816
▁församla	-3817
▁tackoffer	-3818
▁främlingar	-3819
▁vittnesbör	-3820
▁förskräckelse	-3821
irs	-3822
krä	-3823
oom	-3824
▁.'»	-3825
jebus	-3826
bestäm	-3827
trädet	-3828
ttonde	-3829
planter	-3830
hövdingar	-3831
»;	-3832
bja	-3833
don	-3834
köp	-3835
▁äd	-3836
eget	-3837
just	-3838
lära	-3839
ppra	-3840
reel	-3841
skål	-3842
vist	-3843
▁par	-3844
▁stö	-3845
bedrö	-3846
juter	-3847
mmare	-3848
▁Dama	-3849
▁garn	-3850
▁likt	-3851
▁mätt	-3852
bättre	-3853
egypti	-3854
hållit	-3855
▁Abram	-3856
▁Deras	-3857
▁Salom	-3858
▁fikon	-3859
▁judar	-3860
▁lycka	-3861
▁sluta	-3862
▁trygg	-3863
▁Bileam	-3864
▁befall	-3865
▁begått	-3866
▁förfär	-3867
▁kallas	-3868
banterna	-3869
yndighet	-3870
▁förtära	-3871
▁förutom	-3872
▁väsende	-3873
▁Damaskus	-3874
ge	-3875
oas	-3876
förd	-3877
häva	-3878
pred	-3879
sion	-3880
sjunde	-3881
syndat	-3882
kunskap	-3883
profeterna	-3884
tyg	-3885
ves	-3886
▁ga	-3887
bitt	-3888
emma	-3889
llen	-3890
▁beh	-3891
▁döm	-3892
▁öra	-3893
tända	-3894
▁drag	-3895
▁lågo	-3896
▁näst	-3897
▁skön	-3898
▁Medan	-3899
▁byggt	-3900
▁flytt	-3901
▁psalm	-3902
▁furste	-3903
▁änglar	-3904
▁förbliva	-3905
jerusalems	-3906
▁människan	-3907
▁trofasthet	-3908
▁Sannerligen	-3909
▁alltsammans	-3910
▁sannerligen	-3911
dal	-3912
pal	-3913
ria	-3914
assy	-3915
löts	-3916
nads	-3917
rona	-3918
stav	-3919
enaja	-3920
gåvor	-3921
juten	-3922
vurit	-3923
årdar	-3924
hållen	-3925
mmarna	-3926
syster	-3927
vdingen	-3928
eruberna	-3929
höjderna	-3930
kit	-3931
små	-3932
aner	-3933
bete	-3934
fota	-3935
regn	-3936
▁efa	-3937
▁oom	-3938
▁sår	-3939
avdel	-3940
jakim	-3941
sitta	-3942
sägen	-3943
▁Sara	-3944
▁begå	-3945
▁hörn	-3946
▁rytt	-3947
▁tror	-3948
vilket	-3949
▁beder	-3950
▁fröjd	-3951
▁gräns	-3952
▁muren	-3953
▁berätt	-3954
▁beskär	-3955
▁förnäm	-3956
▁förvar	-3957
▁ångest	-3958
▁Salomos	-3959
▁skatter	-3960
▁övergivit	-3961
urs	-3962
egna	-3963
saja	-3964
funnit	-3965
gjordes	-3966
förkunna	-3967
människorna	-3968
eta	-3969
uns	-3970
▁Ju	-3971
▁ok	-3972
asja	-3973
ckat	-3974
ukta	-3975
▁Säg	-3976
▁Väl	-3977
▁fli	-3978
barma	-3979
fälle	-3980
heten	-3981
undet	-3982
▁Asar	-3983
▁Joja	-3984
▁helt	-3985
▁lukt	-3986
▁växa	-3987
altare	-3988
dragit	-3989
fåfäng	-3990
helige	-3991
jakobs	-3992
skaror	-3993
skuren	-3994
ästare	-3995
▁anden	-3996
▁femte	-3997
▁linne	-3998
▁orent	-3999
▁sutto	-4000
▁tacka	-4001
▁vapen	-4002
▁herres	-4003
▁lovade	-4004
▁tjurar	-4005
▁vänner	-4006
▁fruktar	-4007
▁markens	-4008
▁uppväck	-4009
▁evärdlig	-4010
▁frambära	-4011
▁händerna	-4012
▁oförnuft	-4013
▁undervisa	-4014
▁välsignelse	-4015
▁äktenskapsb	-4016
▁Nebukadnessar	-4017
leb	-4018
tra	-4019
inom	-4020
gånger	-4021
hiskia	-4022
fördärv	-4023
skyldig	-4024
älskade	-4025
tillhopa	-4026
nå	-4027
ced	-4028
fel	-4029
jis	-4030
▁Lo	-4031
kare	-4032
stan	-4033
utom	-4034
▁Uss	-4035
▁gån	-4036
▁pur	-4037
helga	-4038
▁foro	-4039
▁höga	-4040
▁timm	-4041
bergen	-4042
fallit	-4043
krossa	-4044
köttet	-4045
slagna	-4046
▁ditin	-4047
▁givas	-4048
▁löfte	-4049
▁rycka	-4050
▁höjden	-4051
▁slagit	-4052
▁spillo	-4053
▁sätter	-4054
följande	-4055
▁månader	-4056
främmande	-4057
▁skyndade	-4058
▁fåfänglighet	-4059
▁sångmästaren	-4060
so	-4061
fas	-4062
sark	-4063
sime	-4064
basun	-4065
begav	-4066
jutit	-4067
pnade	-4068
stiga	-4069
ästra	-4070
kreter	-4071
siklar	-4072
yckena	-4073
landets	-4074
särskil	-4075
örjelse	-4076
alldeles	-4077
älluktande	-4078
regeringsår	-4079
kvi	-4080
öjde	-4081
▁lös	-4082
▁näm	-4083
▁rov	-4084
fulla	-4085
levde	-4086
tarna	-4087
▁byar	-4088
▁glad	-4089
▁hård	-4090
▁inre	-4091
▁ljuv	-4092
▁miss	-4093
▁pass	-4094
▁ryck	-4095
fjärde	-4096
flydde	-4097
höjder	-4098
större	-4099
▁Ester	-4100
▁Sadok	-4101
▁Sakar	-4102
▁afton	-4103
▁borta	-4104
▁ceder	-4105
▁dryck	-4106
▁funno	-4107
▁hedna	-4108
▁herde	-4109
▁liten	-4110
▁mätte	-4111
bredvid	-4112
▁bliven	-4113
▁smorde	-4114
▁Pilatus	-4115
▁hjärtat	-4116
▁skänker	-4117
▁vinning	-4118
▁Mordokai	-4119
▁sabbaten	-4120
▁träffade	-4121
▁småboskap	-4122
▁upptecknat	-4123
församlingen	-4124
▁babyloniske	-4125
go	-4126
gad	-4127
ler	-4128
mak	-4129
abba	-4130
fett	-4131
löse	-4132
blott	-4133
lägret	-4134
sjunga	-4135
städerna	-4136
syndoffer	-4137
klo	-4138
▁fy	-4139
agda	-4140
ares	-4141
edal	-4142
orda	-4143
segg	-4144
▁döp	-4145
▁grå	-4146
heter	-4147
lotta	-4148
ommen	-4149
ordom	-4150
sluta	-4151
yrade	-4152
änkte	-4153
▁Seru	-4154
▁borg	-4155
kunnen	-4156
skifta	-4157
vinden	-4158
▁mätta	-4159
▁orter	-4160
absalom	-4161
sanning	-4162
uppfyll	-4163
▁stötte	-4164
▁vilkas	-4165
▁ängeln	-4166
utmarker	-4167
▁fattiga	-4168
▁huvudet	-4169
▁händers	-4170
▁predika	-4171
▁dödsriket	-4172
▁hemlighet	-4173
▁upptändes	-4174
▁förkunnade	-4175
ci	-4176
spet	-4177
förstå	-4178
vänder	-4179
Le	-4180
Kom	-4181
öga	-4182
▁ma	-4183
möda	-4184
sare	-4185
▁Din	-4186
▁Hor	-4187
▁Hög	-4188
▁lid	-4189
▁vak	-4190
anska	-4191
begra	-4192
taren	-4193
veten	-4194
▁Jehu	-4195
▁hung	-4196
▁råda	-4197
▁åtta	-4198
finner	-4199
jämväl	-4200
▁Basan	-4201
▁Tyrus	-4202
▁avdel	-4203
▁fullt	-4204
▁hatar	-4205
▁komme	-4206
▁nådig	-4207
▁Jeriko	-4208
▁förvär	-4209
▁ovanpå	-4210
▁sextio	-4211
▁trälar	-4212
invånare	-4213
▁Messias	-4214
▁bittida	-4215
▁kroppen	-4216
▁detsamma	-4217
▁upprätta	-4218
▁araméerna	-4219
▁tjänstgör	-4220
▁fariséerna	-4221
▁brännoffret	-4222
ase	-4223
vre	-4224
iram	-4225
revo	-4226
yrat	-4227
ansar	-4228
irjat	-4229
rogna	-4230
tunga	-4231
yttre	-4232
äckar	-4233
ådade	-4234
handen	-4235
stanna	-4236
älskan	-4237
förgöra	-4238
jonatan	-4239
ogudaktiga	-4240
hövitsmännen	-4241
människobarn	-4242
barmhärtighet	-4243
Gud	-4244
Stå	-4245
ana	-4246
ern	-4247
jes	-4248
ris	-4249
sas	-4250
äld	-4251
rann	-4252
råda	-4253
sjuk	-4254
▁Rub	-4255
▁klo	-4256
▁kru	-4257
▁sky	-4258
ergär	-4259
▁brev	-4260
▁glöd	-4261
▁tram	-4262
gången	-4263
samman	-4264
▁driva	-4265
▁förel	-4266
▁sinne	-4267
▁östra	-4268
färdiga	-4269
mäktiga	-4270
▁Rubens	-4271
▁avfäll	-4272
▁helgat	-4273
▁purpur	-4274
▁Libanon	-4275
▁befästa	-4276
▁fullkom	-4277
▁kroppar	-4278
▁vädurar	-4279
▁bröderna	-4280
▁offergär	-4281
lärjungarna	-4282
▁bedrövelse	-4283
▁gudsmannen	-4284
stö	-4285
vänd	-4286
ammons	-4287
jungen	-4288
bla	-4289
fun	-4290
jäv	-4291
tat	-4292
▁Me	-4293
▁So	-4294
▁bö	-4295
bröt	-4296
etio	-4297
nakt	-4298
rest	-4299
sköl	-4300
årar	-4301
▁Gil	-4302
▁mis	-4303
▁sol	-4304
domen	-4305
gamla	-4306
jävul	-4307
malek	-4308
spill	-4309
uldet	-4310
▁skor	-4311
▁säng	-4312
latser	-4313
lippus	-4314
modiga	-4315
portar	-4316
sgamla	-4317
älskar	-4318
▁Maria	-4319
▁Sebul	-4320
▁bästa	-4321
▁drott	-4322
▁fåren	-4323
▁föras	-4324
▁skada	-4325
▁skara	-4326
ernakel	-4327
sporten	-4328
▁Sidkia	-4329
▁bevara	-4330
▁bjuder	-4331
▁frågar	-4332
▁glädja	-4333
▁husets	-4334
jerobeam	-4335
morgonen	-4336
yttersta	-4337
▁betyder	-4338
▁hemsöka	-4339
▁samlade	-4340
▁Rehabeam	-4341
▁försking	-4342
▁sändebud	-4343
▁därutöver	-4344
rag	-4345
ror	-4346
gäng	-4347
läto	-4348
bröto	-4349
därvid	-4350
rätter	-4351
utgjorde	-4352
evangelium	-4353
Gån	-4354
ams	-4355
väv	-4356
buro	-4357
djup	-4358
resa	-4359
tält	-4360
▁mål	-4361
▁nej	-4362
arons	-4363
ropar	-4364
▁fort	-4365
▁hals	-4366
▁larm	-4367
▁snar	-4368
▁täck	-4369
drager	-4370
▁drabb	-4371
▁farit	-4372
▁ihjäl	-4373
▁levit	-4374
▁reste	-4375
▁riken	-4376
▁räkna	-4377
▁sköld	-4378
▁spjut	-4379
▁vinna	-4380
▁vädur	-4381
▁Skulle	-4382
▁brutit	-4383
▁dödade	-4384
▁föddes	-4385
▁förmår	-4386
förvisso	-4387
▁Naftali	-4388
▁frukten	-4389
▁förakta	-4390
▁föremål	-4391
▁ryttare	-4392
▁räddade	-4393
▁skyldig	-4394
försoning	-4395
▁offereld	-4396
fångenskap	-4397
filistéernas	-4398
▁tillhörande	-4399
▁missgärningar	-4400
ai	-4401
jä	-4402
ys	-4403
plå	-4404
sil	-4405
dres	-4406
järt	-4407
lkas	-4408
löto	-4409
ällt	-4410
ödra	-4411
dning	-4412
elden	-4413
fasta	-4414
klipp	-4415
renar	-4416
bärare	-4417
jordar	-4418
kadres	-4419
modigt	-4420
stjänst	-4421
kadressar	-4422
do	-4423
▁Su	-4424
▁Un	-4425
▁nä	-4426
hölj	-4427
▁Ger	-4428
▁Sab	-4429
▁sal	-4430
▁uts	-4431
faris	-4432
otukt	-4433
▁Beer	-4434
▁Gads	-4435
▁brud	-4436
▁fjor	-4437
▁fäst	-4438
▁gåva	-4439
▁häst	-4440
▁lova	-4441
▁mott	-4442
▁pest	-4443
▁Åter	-4444
eljest	-4445
lammet	-4446
läppar	-4447
vingar	-4448
▁Sodom	-4449
▁flera	-4450
▁givet	-4451
▁sista	-4452
fjärran	-4453
▁barnen	-4454
▁bränna	-4455
▁dörren	-4456
▁fiende	-4457
▁förlor	-4458
▁lägger	-4459
▁mankön	-4460
▁söners	-4461
▁upphöj	-4462
▁berömma	-4463
▁budskap	-4464
▁förlåta	-4465
▁tjänste	-4466
▁ansikten	-4467
▁enlighet	-4468
▁fängelse	-4469
▁konungarna	-4470
▁översteprästen	-4471
ele	-4472
get	-4473
gärd	-4474
kors	-4475
käll	-4476
lögn	-4477
raga	-4478
styr	-4479
beder	-4480
dragen	-4481
funnos	-4482
förtär	-4483
väljer	-4484
fullbor	-4485
förbann	-4486
gärning	-4487
ordning	-4488
styggelse	-4489
sv	-4490
▁C	-4491
ari	-4492
oni	-4493
tad	-4494
▁Fi	-4495
▁Gu	-4496
kant	-4497
mika	-4498
oför	-4499
sela	-4500
skan	-4501
▁Tag	-4502
▁blå	-4503
becka	-4504
blick	-4505
sauls	-4506
talen	-4507
▁Asaf	-4508
▁Dina	-4509
▁Isma	-4510
▁född	-4511
▁möda	-4512
▁ring	-4513
▁sker	-4514
▁vagn	-4515
▁vist	-4516
edalja	-4517
enbara	-4518
herres	-4519
odelar	-4520
rumpet	-4521
tiotvå	-4522
▁bestå	-4523
▁förmå	-4524
▁skänd	-4525
aftonen	-4526
▁gossen	-4527
▁munnen	-4528
▁synden	-4529
lötsligt	-4530
ydlandet	-4531
▁bestånd	-4532
▁dottern	-4533
▁förstod	-4534
▁förstår	-4535
▁hämtade	-4536
▁uppstån	-4537
▁eländiga	-4538
▁iakttaga	-4539
▁likaledes	-4540
▁spetälska	-4541
▁tjänarinna	-4542
▁avkomlingar	-4543
▁välbehaglig	-4544
ks	-4545
båg	-4546
▁».	-4547
alak	-4548
behö	-4549
goss	-4550
mans	-4551
moln	-4552
vars	-4553
antal	-4554
skepp	-4555
såväl	-4556
tamar	-4557
fäders	-4558
fördärva	-4559
Sk	-4560
Ack	-4561
Din	-4562
spå	-4563
▁lä	-4564
▁Än	-4565
dela	-4566
hast	-4567
▁Has	-4568
▁Rak	-4569
▁hag	-4570
▁heb	-4571
fäste	-4572
litet	-4573
slogo	-4574
▁Matt	-4575
▁Mitt	-4576
▁Sina	-4577
▁hugg	-4578
▁ihop	-4579
▁påsk	-4580
▁vänd	-4581
▁Laban	-4582
▁Sions	-4583
▁brunn	-4584
▁dräpt	-4585
▁dödas	-4586
▁rörde	-4587
▁samla	-4588
▁välde	-4589
▁åsnor	-4590
uppteck	-4591
▁fattig	-4592
▁fångar	-4593
▁heligt	-4594
▁livets	-4595
▁sinnet	-4596
▁vittne	-4597
välbehag	-4598
▁antalet	-4599
▁tjänade	-4600
▁ödemark	-4601
▁bättring	-4602
▁strömmar	-4603
▁ståndakt	-4604
▁särskilt	-4605
▁varifrån	-4606
▁världens	-4607
▁Jerobeams	-4608
▁undervisade	-4609
prö	-4610
sor	-4611
uja	-4612
umm	-4613
eträ	-4614
gibe	-4615
sais	-4616
sked	-4617
vall	-4618
vete	-4619
ändå	-4620
äves	-4621
skära	-4622
veros	-4623
bedjen	-4624
bliven	-4625
delsen	-4626
fåglar	-4627
viljen	-4628
önster	-4629
ostraff	-4630
ingången	-4631
bos	-4632
vig	-4633
▁ön	-4634
levi	-4635
▁aln	-4636
▁flä	-4637
▁klä	-4638
▁nät	-4639
▁vek	-4640
hemsö	-4641
stoft	-4642
▁dröm	-4643
▁dött	-4644
▁fien	-4645
▁fred	-4646
▁färd	-4647
▁spis	-4648
pelare	-4649
▁fäste	-4650
▁förli	-4651
▁gärna	-4652
▁synda	-4653
▁utför	-4654
månader	-4655
överträ	-4656
▁fallit	-4657
▁igenom	-4658
▁lyssna	-4659
▁tjugut	-4660
▁tretti	-4661
▁vinden	-4662
▁hjärtas	-4663
▁stoftet	-4664
▁upprätt	-4665
▁utgjuta	-4666
▁överflöd	-4667
▁överträdelser	-4668
me	-4669
häp	-4670
arja	-4671
haft	-4672
nebu	-4673
dömen	-4674
invid	-4675
ägare	-4676
ällde	-4677
kallar	-4678
lämnat	-4679
rikedom	-4680
tillika	-4681
regerade	-4682
Tag	-4683
fan	-4684
mon	-4685
sål	-4686
tur	-4687
▁pu	-4688
bbel	-4689
eber	-4690
ffen	-4691
städ	-4692
tter	-4693
ycko	-4694
öken	-4695
▁nya	-4696
gande	-4697
itisk	-4698
lagan	-4699
lorna	-4700
lyfte	-4701
ordet	-4702
skåda	-4703
snart	-4704
ugade	-4705
vrigt	-4706
ymmer	-4707
▁Hasa	-4708
▁fria	-4709
▁kort	-4710
▁äger	-4711
ansvär	-4712
mäktig	-4713
stoden	-4714
ställt	-4715
testen	-4716
ögnakt	-4717
▁namns	-4718
▁ofärd	-4719
▁plåga	-4720
huvuden	-4721
jungeld	-4722
klädnad	-4723
komling	-4724
lägrade	-4725
sklagan	-4726
▁Helige	-4727
▁bereda	-4728
▁frälst	-4729
▁häpnad	-4730
▁hållit	-4731
▁mäktig	-4732
▁sjätte	-4733
atsdagen	-4734
familjer	-4735
fruktade	-4736
kastning	-4737
▁fattige	-4738
▁syndare	-4739
▁fienders	-4740
▁verkligen	-4741
▁hungersnöd	-4742
▁övermåttan	-4743
▁inmönstrades	-4744
--	-4745
flö	-4746
göm	-4747
hin	-4748
kna	-4749
pil	-4750
bety	-4751
bock	-4752
eman	-4753
höja	-4754
byggt	-4755
fikon	-4756
nades	-4757
skett	-4758
strar	-4759
tänka	-4760
rotade	-4761
vredes	-4762
efraims	-4763
rättfärdiga	-4764
tom	-4765
▁Ta	-4766
elns	-4767
llam	-4768
▁Ass	-4769
▁Jab	-4770
▁Noa	-4771
▁Sel	-4772
▁tak	-4773
atans	-4774
trolö	-4775
▁brän	-4776
▁gods	-4777
▁vise	-4778
kamrar	-4779
skilja	-4780
stolen	-4781
▁andar	-4782
▁hydda	-4783
▁härom	-4784
▁mjölk	-4785
▁svårt	-4786
▁velat	-4787
▁voren	-4788
▁barnet	-4789
▁berett	-4790
▁mindre	-4791
▁nödgas	-4792
▁tänder	-4793
▁varmed	-4794
högtiden	-4795
▁Herodes	-4796
▁Isaskar	-4797
▁altaren	-4798
▁förloss	-4799
▁helgade	-4800
▁skullen	-4801
inbyggare	-4802
▁gästabud	-4803
▁ståthåll	-4804
▁amoréernas	-4805
▁främlingen	-4806
▁ljusstaken	-4807
▁Allsmäktige	-4808
▁underlydande	-4809
råk	-4810
aris	-4811
vild	-4812
abels	-4813
allel	-4814
asses	-4815
hjord	-4816
jutna	-4817
öppna	-4818
▁----	-4819
allena	-4820
gäller	-4821
husets	-4822
härtig	-4823
itiska	-4824
kallas	-4825
ämbete	-4826
öjligt	-4827
mästare	-4828
vingård	-4829
människors	-4830
syningsmän	-4831
elsetältets	-4832
tam	-4833
▁Ge	-4834
Seba	-4835
amor	-4836
fann	-4837
lägg	-4838
slår	-4839
▁Nab	-4840
▁Per	-4841
ansen	-4842
givas	-4843
nästa	-4844
samme	-4845
söder	-4846
▁Sera	-4847
▁grön	-4848
▁löft	-4849
▁närm	-4850
▁sken	-4851
▁torr	-4852
randen	-4853
▁Balak	-4854
▁brist	-4855
▁mötes	-4856
▁riket	-4857
▁råder	-4858
evighet	-4859
fursten	-4860
havande	-4861
vilkens	-4862
▁Asarja	-4863
▁hoppas	-4864
▁tältet	-4865
▁bespott	-4866
▁bredvid	-4867
▁hjältar	-4868
▁klippan	-4869
▁krönika	-4870
▁orenhet	-4871
▁vinträd	-4872
▁folkslag	-4873
▁tjugufem	-4874
▁underdån	-4875
▁furstarna	-4876
▁förföljde	-4877
▁offergåva	-4878
▁begynnelsen	-4879
▁orättfärdighet	-4880
aim	-4881
jav	-4882
lam	-4883
sir	-4884
bart	-4885
hörn	-4886
tack	-4887
tram	-4888
öron	-4889
jubel	-4890
nings	-4891
skinn	-4892
bäcken	-4893
förhär	-4894
visste	-4895
frukten	-4896
inmönstrade	-4897
En	-4898
▁Gå	-4899
▁rä	-4900
amen	-4901
borg	-4902
imot	-4903
nens	-4904
▁Vil	-4905
▁brä	-4906
▁him	-4907
▁löv	-4908
▁våg	-4909
Lehem	-4910
apost	-4911
därom	-4912
edjor	-4913
lands	-4914
rogen	-4915
ätter	-4916
▁skål	-4917
▁Över	-4918
adömet	-4919
bordan	-4920
domare	-4921
inadab	-4922
stadde	-4923
▁Natan	-4924
▁konst	-4925
▁stäng	-4926
▁visar	-4927
arnabas	-4928
folkets	-4929
saltare	-4930
▁Gideon	-4931
▁försyn	-4932
▁ingång	-4933
▁skapat	-4934
▁slippa	-4935
osenrött	-4936
▁bestämt	-4937
▁bosatte	-4938
▁fastmer	-4939
▁utvalda	-4940
▁alltjämt	-4941
▁höjderna	-4942
▁krossade	-4943
▁mörkblått	-4944
▁offergärd	-4945
rättfärdige	-4946
▁fotstycken	-4947
▁huvudmännen	-4948
▁israeliterna	-4949
ira	-4950
amle	-4951
dörr	-4952
kung	-4953
ljud	-4954
folks	-4955
seger	-4956
strun	-4957
söker	-4958
mörker	-4959
seende	-4960
slakta	-4961
stycket	-4962
rs	-4963
Nej	-4964
flä	-4965
sat	-4966
▁rot	-4967
dräpa	-4968
givna	-4969
klaga	-4970
▁band	-4971
▁båge	-4972
▁lärt	-4973
▁lätt	-4974
▁lösa	-4975
▁samt	-4976
▁skog	-4977
hjälpa	-4978
▁Gibea	-4979
▁Haman	-4980
▁bakom	-4981
▁föret	-4982
▁helga	-4983
▁tända	-4984
hälften	-4985
striden	-4986
▁dragen	-4987
▁enligt	-4988
▁fördol	-4989
▁höjder	-4990
▁kallar	-4991
▁lotten	-4992
▁tuktan	-4993
▁plägade	-4994
▁templet	-4995
▁väldiga	-4996
▁vänstra	-4997
hövitsman	-4998
▁begraven	-4999
▁någonsin	-5000
▁invånarna	-5001
▁tillbehör	-5002
▁åminnelse	-5003
agd	-5004
yga	-5005
adad	-5006
dare	-5007
fing	-5008
lida	-5009
lopp	-5010
eende	-5011
ellre	-5012
moabs	-5013
äckes	-5014
äljde	-5015
cieträ	-5016
lovade	-5017
längre	-5018
järtans	-5019
mörkret	-5020
samaria	-5021
alleluja	-5022
ningarnas	-5023
kreteraren	-5024
Må	-5025
Väl	-5026
bin	-5027
mal	-5028
▁so	-5029
etan	-5030
fisk	-5031
larm	-5032
rena	-5033
sjön	-5034
skon	-5035
▁Ber	-5036
▁Hav	-5037
▁fog	-5038
▁rök	-5039
▁väv	-5040
brett	-5041
samla	-5042
▁fyll	-5043
▁köpa	-5044
▁ätit	-5045
herrar	-5046
stjärn	-5047
▁Joram	-5048
▁fören	-5049
▁plund	-5050
josafat	-5051
▁Gilgal	-5052
▁havets	-5053
▁tappra	-5054
▁tågade	-5055
assyrien	-5056
kamrarna	-5057
▁däremot	-5058
▁gjordes	-5059
▁bestämda	-5060
▁förrätta	-5061
▁allahanda	-5062
▁myndighet	-5063
▁drabanterna	-5064
▁förbannelse	-5065
mis	-5066
nor	-5067
yss	-5068
öde	-5069
fint	-5070
kana	-5071
ådar	-5072
beläg	-5073
klara	-5074
skare	-5075
bevisa	-5076
daniel	-5077
faraos	-5078
kanaans	-5079
offrade	-5080
sjuttio	-5081
styckena	-5082
benjamins	-5083
di	-5084
ea	-5085
sd	-5086
bäv	-5087
mas	-5088
▁lu	-5089
Allt	-5090
kald	-5091
kull	-5092
lige	-5093
shus	-5094
även	-5095
▁Ack	-5096
▁Ram	-5097
▁dån	-5098
▁käm	-5099
▁reg	-5100
▁tvi	-5101
cedon	-5102
följd	-5103
gälla	-5104
ikade	-5105
ilkia	-5106
lehem	-5107
▁Stor	-5108
▁alls	-5109
▁bild	-5110
▁blom	-5111
▁bäva	-5112
▁kunn	-5113
▁svag	-5114
▁svek	-5115
blodet	-5116
etiopi	-5117
inehas	-5118
kallat	-5119
nelser	-5120
ryddor	-5121
räknas	-5122
tarets	-5123
utvalt	-5124
äldrar	-5125
▁Rakel	-5126
▁Under	-5127
▁armar	-5128
▁burit	-5129
avgudar	-5130
börligt	-5131
gränsen	-5132
somliga	-5133
▁Benaja	-5134
▁Judeen	-5135
▁förtor	-5136
▁kallat	-5137
▁räknas	-5138
▁rätten	-5139
▁sabbat	-5140
▁styrka	-5141
▁tjuren	-5142
skaffade	-5143
▁Sakarja	-5144
▁arbetet	-5145
▁behålla	-5146
▁behöver	-5147
▁vittnen	-5148
berättade	-5149
▁Allenast	-5150
▁förlåten	-5151
▁skaffade	-5152
▁skickade	-5153
▁förgjorde	-5154
▁kvinnorna	-5155
▁kananéerna	-5156
▁uppenbarat	-5157
▁föreskrivet	-5158
▁gensträviga	-5159
▁undervisning	-5160
pu	-5161
oli	-5162
ihåg	-5163
pris	-5164
redo	-5165
ssla	-5166
unna	-5167
fyllt	-5168
krigs	-5169
oljan	-5170
salen	-5171
åsnor	-5172
föddes	-5173
helgat	-5174
smälek	-5175
starka	-5176
strida	-5177
budskap	-5178
▁Ef	-5179
▁kl	-5180
gift	-5181
gräs	-5182
iden	-5183
rent	-5184
sien	-5185
▁Gat	-5186
▁Lik	-5187
▁Lot	-5188
▁bon	-5189
▁dan	-5190
▁gry	-5191
▁hän	-5192
▁tom	-5193
▁tåg	-5194
▁vit	-5195
▁vån	-5196
bedri	-5197
födda	-5198
liten	-5199
sidor	-5200
▁Silo	-5201
▁bådo	-5202
▁korn	-5203
▁kret	-5204
▁känt	-5205
▁leda	-5206
▁lägg	-5207
▁oliv	-5208
▁rygg	-5209
▁sömn	-5210
beslut	-5211
graven	-5212
hebron	-5213
lägger	-5214
tjurar	-5215
varder	-5216
▁Simei	-5217
▁aktar	-5218
▁dömer	-5219
▁envar	-5220
▁jebus	-5221
▁likna	-5222
▁undfå	-5223
▁vinet	-5224
rökelse	-5225
▁Ismael	-5226
▁avguda	-5227
▁behöva	-5228
▁djuren	-5229
▁drabba	-5230
▁fattas	-5231
▁främst	-5232
▁fröjda	-5233
▁herrar	-5234
▁hyddor	-5235
▁tronen	-5236
▁ungdom	-5237
välsigna	-5238
▁allting	-5239
▁fattade	-5240
▁husfolk	-5241
fäkreatur	-5242
profetera	-5243
▁gräshopp	-5244
▁huvudmän	-5245
▁härefter	-5246
▁uppfylla	-5247
▁överallt	-5248
▁översten	-5249
▁keruberna	-5250
▁tillfälle	-5251
▁vingårdar	-5252
▁ogudaktighet	-5253
fli	-5254
åto	-5255
dera	-5256
llop	-5257
pläg	-5258
ssik	-5259
stöd	-5260
tukt	-5261
vret	-5262
driva	-5263
elska	-5264
maste	-5265
riske	-5266
rista	-5267
saren	-5268
vapen	-5269
förakt	-5270
förlåt	-5271
sitter	-5272
smäkta	-5273
gyllene	-5274
rångmål	-5275
skänker	-5276
vandrade	-5277
ådastolen	-5278
beständigt	-5279
menigheten	-5280
slaktoffer	-5281
bs	-5282
ki	-5283
fån	-5284
▁Hu	-5285
band	-5286
krar	-5287
ofta	-5288
seba	-5289
▁Ada	-5290
▁flö	-5291
▁fru	-5292
▁leg	-5293
▁rev	-5294
blygd	-5295
evigt	-5296
flytt	-5297
reder	-5298
stark	-5299
▁Rama	-5300
▁Tala	-5301
▁kalk	-5302
▁slöt	-5303
▁ädla	-5304
dräpte	-5305
förråd	-5306
ovanpå	-5307
tankar	-5308
uppsåt	-5309
▁Kaleb	-5310
▁Mispa	-5311
▁böner	-5312
▁dalen	-5313
▁förne	-5314
▁gälla	-5315
▁hämnd	-5316
▁intog	-5317
▁släpp	-5318
förfölj	-5319
gammalt	-5320
helgade	-5321
▁Jesaja	-5322
▁anslag	-5323
▁brände	-5324
▁förord	-5325
▁skräck	-5326
▁släppa	-5327
▁sträng	-5328
▁träden	-5329
▁vittna	-5330
▁begärde	-5331
▁folkens	-5332
▁omvända	-5333
därigenom	-5334
förbliver	-5335
hövitsmän	-5336
tillbedja	-5337
▁anförare	-5338
▁dörrvakt	-5339
▁förbarma	-5340
▁förlossa	-5341
▁talenter	-5342
egyptierna	-5343
▁amoréerna	-5344
▁hedningar	-5345
▁smörjelse	-5346
▁särskilda	-5347
▁fullbordas	-5348
▁förbundsark	-5349
▁välluktande	-5350
▁konungshuset	-5351
▁äktenskapsbrott	-5352
sh	-5353
arv	-5354
sla	-5355
sol	-5356
ereb	-5357
iven	-5358
nytt	-5359
vika	-5360
annad	-5361
föder	-5362
stäng	-5363
delade	-5364
dennes	-5365
moders	-5366
ondska	-5367
gudarna	-5368
ställen	-5369
svärdet	-5370
främling	-5371
tillflykt	-5372
människosonen	-5373
bä	-5374
Giv	-5375
job	-5376
mme	-5377
röd	-5378
tav	-5379
▁fo	-5380
▁mi	-5381
llat	-5382
mätt	-5383
osex	-5384
rytt	-5385
tyrs	-5386
▁efo	-5387
▁res	-5388
▁ver	-5389
Denne	-5390
förra	-5391
javes	-5392
kläda	-5393
kräva	-5394
mjölk	-5395
ommar	-5396
oppen	-5397
skund	-5398
ården	-5399
▁Adon	-5400
▁halv	-5401
▁hund	-5402
▁mant	-5403
▁rikt	-5404
▁sjun	-5405
▁vind	-5406
▁värn	-5407
▁åsna	-5408
bringa	-5409
mantel	-5410
skedde	-5411
vänden	-5412
▁Esaus	-5413
▁Varen	-5414
▁blods	-5415
▁flykt	-5416
▁fånga	-5417
▁göras	-5418
▁hugga	-5419
▁klädd	-5420
▁sjuka	-5421
▁uttyd	-5422
▁visst	-5423
▁värde	-5424
esullam	-5425
fattade	-5426
ftoffer	-5427
grunden	-5428
jävulen	-5429
kammare	-5430
sländer	-5431
sägelse	-5432
yckosam	-5433
▁Amasja	-5434
▁Hesbon	-5435
▁Semaja	-5436
▁Simson	-5437
▁Vidare	-5438
▁arbeta	-5439
▁blygas	-5440
▁själar	-5441
▁åkalla	-5442
förtröst	-5443
gensträv	-5444
ssikelns	-5445
▁Gileads	-5446
▁liknade	-5447
▁tillred	-5448
▁utrotas	-5449
▁vänster	-5450
▁därjämte	-5451
▁framgent	-5452
▁förfölja	-5453
▁judarnas	-5454
▁kommande	-5455
▁kärleken	-5456
▁trygghet	-5457
ogudaktige	-5458
äkreaturen	-5459
▁svärdsegg	-5460
Sannerligen	-5461
tabernaklet	-5462
▁förståndig	-5463
▁kaldéernas	-5464
▁överstepräst	-5465
ula	-5466
äte	-5467
akis	-5468
förf	-5469
peja	-5470
pres	-5471
skog	-5472
vikt	-5473
betel	-5474
kände	-5475
rådet	-5476
täcka	-5477
väcka	-5478
ditupp	-5479
furste	-5480
josefs	-5481
stilla	-5482
sätter	-5483
ovänner	-5484
tillhöra	-5485
hövdingen	-5486
kvinnorna	-5487
jt	-5488
▁Y	-5489
När	-5490
löv	-5491
Icke	-5492
edel	-5493
kias	-5494
skön	-5495
ätet	-5496
▁Hag	-5497
▁Kis	-5498
▁hor	-5499
▁pro	-5500
▁rum	-5501
ester	-5502
kanan	-5503
mätta	-5504
sonen	-5505
▁Ahit	-5506
▁Dans	-5507
▁Samm	-5508
▁förk	-5509
▁gagn	-5510
▁gran	-5511
▁oxar	-5512
▁röra	-5513
▁sköl	-5514
▁tåga	-5515
frälsa	-5516
förman	-5517
klippa	-5518
oniten	-5519
skaran	-5520
sänder	-5521
▁Ahabs	-5522
▁Sihon	-5523
▁bestä	-5524
▁bruka	-5525
▁båten	-5526
▁hemma	-5527
▁krona	-5528
▁yttre	-5529
▁Herres	-5530
▁Kirjat	-5531
▁aktade	-5532
▁bitter	-5533
▁fältet	-5534
▁löften	-5535
▁skjuta	-5536
▁skugga	-5537
▁trolös	-5538
▁ögonen	-5539
tjänares	-5540
▁broders	-5541
▁åttonde	-5542
likaledes	-5543
▁härskara	-5544
▁kallades	-5545
▁slaktade	-5546
▁tjänaren	-5547
▁brinnande	-5548
▁förbränna	-5549
▁storligen	-5550
▁förskräckta	-5551
abi	-5552
bak	-5553
nit	-5554
ryt	-5555
tåg	-5556
berö	-5557
norr	-5558
osju	-5559
vagn	-5560
atäpp	-5561
elses	-5562
fritt	-5563
ftade	-5564
fästa	-5565
hopen	-5566
ionde	-5567
levan	-5568
olfte	-5569
rösta	-5570
språk	-5571
älten	-5572
befall	-5573
gripna	-5574
honung	-5575
larnas	-5576
rottan	-5577
tänker	-5578
ännens	-5579
därinne	-5580
huvudet	-5581
spillog	-5582
fotadjur	-5583
immelska	-5584
modighet	-5585
myckenhet	-5586
förstfödde	-5587
styggelser	-5588
Säg	-5589
jos	-5590
ugn	-5591
▁Al	-5592
grav	-5593
livs	-5594
spis	-5595
tänk	-5596
▁San	-5597
▁hud	-5598
▁teg	-5599
arens	-5600
bröst	-5601
innen	-5602
judas	-5603
kakor	-5604
mmade	-5605
orena	-5606
sikem	-5607
simon	-5608
▁Karm	-5609
▁assy	-5610
▁dråp	-5611
▁grät	-5612
▁gärd	-5613
▁höjd	-5614
▁lysa	-5615
▁muns	-5616
▁måst	-5617
▁strå	-5618
▁sörj	-5619
▁böjde	-5620
▁gripa	-5621
▁härpå	-5622
▁höger	-5623
▁krets	-5624
▁leder	-5625
▁lägra	-5626
▁månad	-5627
▁pilar	-5628
▁snara	-5629
▁varom	-5630
förstör	-5631
synagog	-5632
tjänade	-5633
▁begiva	-5634
▁familj	-5635
▁fordom	-5636
▁föröka	-5637
▁lämnat	-5638
▁skaror	-5639
▁vandel	-5640
världens	-5641
▁ordning	-5642
▁osyrade	-5643
▁skrivit	-5644
▁väduren	-5645
▁ävensom	-5646
heligaste	-5647
▁Filippus	-5648
▁Konungen	-5649
▁cederträ	-5650
▁fötterna	-5651
▁lyssnade	-5652
▁molnskyn	-5653
▁uppstått	-5654
▁yttersta	-5655
▁årsgamla	-5656
▁övertäck	-5657
▁förskräcka	-5658
▁leviternas	-5659
▁stjärnorna	-5660
▁tabernakel	-5661
▁tillstädes	-5662
▁vilddjuret	-5663
ax	-5664
deg	-5665
rot	-5666
gråt	-5667
horn	-5668
joas	-5669
jort	-5670
vack	-5671
druck	-5672
givet	-5673
muren	-5674
olyck	-5675
ossar	-5676
ropen	-5677
råder	-5678
storm	-5679
tröst	-5680
väster	-5681
förtryck	-5682
välsignade	-5683
förtörnelse	-5684
Nu	-5685
Här	-5686
fir	-5687
pan	-5688
▁öm	-5689
blyg	-5690
edda	-5691
elia	-5692
född	-5693
jens	-5694
orop	-5695
otre	-5696
röna	-5697
tton	-5698
väkt	-5699
▁Mak	-5700
▁Mal	-5701
▁Upp	-5702
▁hju	-5703
▁mid	-5704
▁ort	-5705
▁oxe	-5706
▁års	-5707
innas	-5708
lycka	-5709
stnad	-5710
ysste	-5711
▁Ebja	-5712
▁Tänk	-5713
▁Uria	-5714
▁drev	-5715
▁vall	-5716
▁vete	-5717
▁väkt	-5718
▁ägde	-5719
blikan	-5720
bröden	-5721
eruber	-5722
ljuset	-5723
sikten	-5724
sålder	-5725
trälar	-5726
▁Låten	-5727
▁Sådan	-5728
▁baner	-5729
▁blind	-5730
▁ensam	-5731
▁haden	-5732
▁hopen	-5733
▁huden	-5734
▁skriv	-5735
▁södra	-5736
▁tårar	-5737
▁ändar	-5738
▁änden	-5739
Mästare	-5740
dragare	-5741
ejsaren	-5742
gårdens	-5743
virring	-5744
ällning	-5745
▁Jojada	-5746
▁bedjen	-5747
▁bordet	-5748
▁förmer	-5749
▁guldet	-5750
▁kunnat	-5751
▁nalkas	-5752
▁nionde	-5753
▁räddat	-5754
▁stadga	-5755
▁stenen	-5756
▁utbred	-5757
abimelek	-5758
angående	-5759
sättning	-5760
tungomål	-5761
▁Jisreel	-5762
▁brunnen	-5763
▁frivill	-5764
▁klädnad	-5765
▁sammans	-5766
▁utvalde	-5767
▁begjutet	-5768
▁härifrån	-5769
▁kanhända	-5770
▁övergiva	-5771
drickoffer	-5772
▁drottning	-5773
▁förbundet	-5774
▁förkunnat	-5775
▁förnämsta	-5776
▁förstfött	-5777
raheligaste	-5778
▁förtröstar	-5779
▁moderlivet	-5780
▁tiondedels	-5781
▁visserligen	-5782
▁Nebukadressar	-5783
▁efterkommande	-5784
hur	-5785
hän	-5786
häv	-5787
nam	-5788
ods	-5789
oms	-5790
▁?'	-5791
brän	-5792
eden	-5793
esau	-5794
lätt	-5795
tror	-5796
åsyn	-5797
ödel	-5798
borta	-5799
fullt	-5800
löfte	-5801
murar	-5802
skriv	-5803
trösk	-5804
vilse	-5805
berätt	-5806
änglar	-5807
ångest	-5808
abrahams	-5809
församla	-5810
ningsmännen	-5811
mi	-5812
jar	-5813
öre	-5814
▁Ai	-5815
▁um	-5816
foro	-5817
jaga	-5818
kron	-5819
plåg	-5820
▁Jes	-5821
▁dar	-5822
▁nor	-5823
▁näp	-5824
Tagen	-5825
elisa	-5826
femte	-5827
föras	-5828
hände	-5829
häver	-5830
psalm	-5831
ålder	-5832
▁Sall	-5833
▁Tars	-5834
▁högg	-5835
▁knän	-5836
▁ljud	-5837
▁mäns	-5838
▁möta	-5839
▁råds	-5840
▁sann	-5841
▁skär	-5842
▁säck	-5843
▁tvär	-5844
sluter	-5845
utföra	-5846
▁Elias	-5847
▁angår	-5848
▁fräls	-5849
▁fylla	-5850
▁kötts	-5851
▁oljan	-5852
▁oskyl	-5853
▁skrev	-5854
▁tukta	-5855
▁upply	-5856
▁utplå	-5857
▁åttio	-5858
jurarna	-5859
markens	-5860
vandrar	-5861
▁begrov	-5862
▁botade	-5863
▁bryter	-5864
▁ditned	-5865
▁falska	-5866
▁ryktet	-5867
träffade	-5868
varifrån	-5869
▁Gedalja	-5870
▁Rebecka	-5871
▁bevarar	-5872
▁dyrbara	-5873
▁frambär	-5874
▁frälsta	-5875
▁fränder	-5876
▁förgäta	-5877
▁kameler	-5878
▁lovligt	-5879
▁lovsång	-5880
▁trolösa	-5881
▁uppstod	-5882
eldsoffer	-5883
skarornas	-5884
▁befallde	-5885
▁beslutit	-5886
▁straffas	-5887
▁ägodelar	-5888
främlingar	-5889
▁stridbara	-5890
▁tillrätta	-5891
▁uppenbara	-5892
▁vedergälla	-5893
▁uppenbarade	-5894
▁vittnesbördet	-5895
efa	-5896
ima	-5897
pad	-5898
rak	-5899
öka	-5900
dnad	-5901
döme	-5902
etta	-5903
hats	-5904
hämn	-5905
häst	-5906
iter	-5907
matt	-5908
oson	-5909
regi	-5910
växa	-5911
ålar	-5912
annar	-5913
atser	-5914
▁	-5915
¦	-5916
a	-5917
e	-5918
n	-5919
r	-5920
t	-5921
s	-5922
d	-5923
l	-5924
o	-5925
i	-5926
m	-5927
h	-5928
g	-5929
k	-5930
v	-5931
ä	-5932
u	-5933
f	-5934
å	-5935
c	-5936
,	-5937
ö	-5938
b	-5939
p	-5940
j	-5941
.	-5942
𐋇	-5943
y	-5944
»	-5945
E	-5946
;	-5947
R	-5948
:	-5949
H	-5950
S	-5951
D	-5952
N	-5953
O	-5954
J	-5955
I	-5956
M	-5957
G	-5958
A	-5959
?	-5960
-	-5961
𐊣	-5962
𐊼	-5963
'	-5964
T	-5965
V	-5966
B	-5967
F	-5968
K	-5969
é	-5970
!	-5971
x	-5972
L	-5973
P	-5974
U	-5975
Ä	-5976
Å	-5977
(	-5978
Ö	-5979
)	-5980
C	-5981
Y	-5982
2	-5983
0	-5984
4	-5985
6	-5986
1	-5987
8	-5988
9	-5989
ó	-5990
3	-5991
5	-5992
7	-5993
í	-5994
]	-5995
á	-5996
