<pad>	0
</s>	0
<unk>	0
▁	-3.28824
ा	-3.52878
.	-3.72486
े	-3.90552
ी	-4.01206
त	-4.14682
र	-4.16481
न	-4.20659
क	-4.26049
,	-4.30812
ं	-4.37155
ल	-4.43748
ो	-4.46428
व	-4.5307
्	-4.56573
स	-4.66603
म	-4.73543
ि	-4.75762
प	-4.77107
▁आहे	-4.81412
च्या	-4.89745
ड	-4.91416
य	-4.92108
▁आणि	-4.99399
ात	-5.01149
ग	-5.02016
च	-5.03396
ला	-5.03561
ु	-5.0686
ज	-5.07054
्या	-5.07137
▁आ	-5.09209
ण	-5.1128
ू	-5.13199
▁या	-5.13875
्य	-5.14567
ट	-5.16031
द	-5.18069
▁अ	-5.18342
▁क	-5.35111
ची	-5.36991
ह	-5.39631
चा	-5.40554
▁स	-5.41796
ळ	-5.41916
ब	-5.43367
श	-5.44271
ध	-5.46433
▁ज	-5.47066
र्	-5.48935
▁प्र	-5.49829
ित	-5.50333
▁म	-5.50902
▁ब	-5.51303
िक	-5.56814
मध्ये	-5.57144
▁प	-5.57561
्र	-5.60095
ही	-5.66022
ली	-5.66761
▁त	-5.6725
वा	-5.6901
चे	-5.6913
▁द	-5.69647
-	-5.73203
ले	-5.73252
ना	-5.7345
▁न	-5.7556
▁व	-5.75814
▁अस	-5.77354
ल्या	-5.77517
ने	-5.80484
ून	-5.81205
रा	-5.82234
▁कोरोना	-5.82991
▁त्या	-5.8551
▁श	-5.88546
ष	-5.8952
ख	-5.93209
ता	-5.95579
वर	-5.975
▁सा	-5.9832
▁ह	-5.98349
ाय	-5.9983
▁आहेत	-6.03299
▁सं	-6.04413
▁नाही	-6.05122
व्ह	-6.05317
थ	-6.06011
▁ग	-6.09003
री	-6.10274
ार	-6.11506
भ	-6.15442
ॅ	-6.15781
चं	-6.1603
▁र	-6.17555
▁फ	-6.17907
ास	-6.20666
ठ	-6.21037
0	-6.21769
▁उ	-6.23592
साठी	-6.23607
णे	-6.2839
▁लस	-6.28893
का	-6.31119
▁पा	-6.32258
▁हे	-6.32635
▁एक	-6.33251
▁1	-6.3329
▁तर	-6.3573
▁वि	-6.37573
▁इ	-6.38471
ती	-6.38907
)	-6.3933
शी	-6.41078
ेश	-6.42519
▁रुग्ण	-6.43782
घ	-6.43839
▁नि	-6.44355
▁करत	-6.45768
रो	-6.4674
ील	-6.49928
▁आरोग्य	-6.50688
मुळे	-6.51958
▁(	-6.52054
ाच्या	-6.52463
▁का	-6.54279
▁ते	-6.54444
▁किंवा	-6.54751
ांना	-6.55196
ई	-6.55601
ते	-6.55949
▁भ	-6.57995
▁सर्व	-6.58905
▁काही	-6.60034
फ	-6.60439
▁2	-6.60536
ंत	-6.6081
5	-6.61762
त्र	-6.62281
ातील	-6.62594
?	-6.63226
झ	-6.63398
▁होत	-6.63689
▁यांनी	-6.63995
▁मा	-6.64844
्स	-6.6494
▁संसर्ग	-6.65179
▁"	-6.65552
लं	-6.65747
▁वाढ	-6.65771
ढ	-6.65904
स्थ	-6.67646
ंड	-6.67731
▁करण्यात	-6.68793
कार	-6.69655
दा	-6.69994
▁कमी	-6.70058
टी	-6.70562
2	-6.7094
्व	-6.72124
▁देश	-6.73291
ंग	-6.74646
वि	-6.74767
▁केले	-6.75984
स्त	-6.76658
▁लशी	-6.77207
▁की	-6.77421
▁करण्या	-6.77439
स्ट	-6.77585
वी	-6.77681
▁जात	-6.77948
1	-6.78293
▁हा	-6.78833
4	-6.79172
्ट	-6.79318
पर्यंत	-6.79392
-19	-6.8004
▁विषाणू	-6.80149
▁ए	-6.80649
▁केली	-6.8074
▁राज्य	-6.80881
ंचा	-6.81551
ांनी	-6.81809
ष्ट	-6.81896
▁सरकार	-6.82364
▁असं	-6.82598
▁वापर	-6.83051
िन	-6.83612
C	-6.83703
▁आले	-6.85294
▁ला	-6.85599
▁को	-6.85902
▁ख	-6.86118
▁लक्ष	-6.8676
नंतर	-6.8765
िस	-6.88233
ए	-6.88254
▁पण	-6.88271
▁वा	-6.88591
मिळ	-6.89835
वे	-6.90004
ेट	-6.90217
▁भारत	-6.90497
पासून	-6.90881
पा	-6.91032
▁पर	-6.91259
9	-6.91825
ांमध्ये	-6.92837
▁ज्या	-6.93764
▁ट	-6.93941
▁ठ	-6.93979
सा	-6.94455
▁केंद्र	-6.94831
ीय	-6.95318
ाला	-6.95366
ै	-6.96211
▁करोना	-6.96473
क्त	-6.96547
हा	-6.96674
णी	-6.97589
▁माहिती	-6.97631
िल	-6.98583
▁ही	-6.98776
ावर	-6.9968
▁करा	-6.99726
▁काम	-6.99797
:	-7.008
पूर	-7.00803
▁घेत	-7.00804
नी	-7.00943
ांच्या	-7.01149
▁येत	-7.03564
▁स्व	-7.03593
ाने	-7.03801
▁सुरू	-7.03804
▁च	-7.03997
▁होते	-7.04047
'	-7.04236
▁अधिक	-7.0506
ेल	-7.05349
▁आजार	-7.05483
तील	-7.05724
णं	-7.06201
8	-7.07169
▁डॉ	-7.07598
▁प्रमाण	-7.07886
7	-7.08174
"	-7.08615
ंना	-7.08906
▁सम	-7.09244
6	-7.09336
ण्यात	-7.09754
२	-7.09776
▁कोव्हिड	-7.10364
▁सु	-7.1112
णाऱ्या	-7.11394
▁महा	-7.11592
णार	-7.12574
र्स	-7.1336
ंद	-7.13399
▁बंद	-7.13672
िया	-7.14177
ाची	-7.14366
▁दु	-7.14675
न्	-7.14856
करण	-7.15033
▁लसीकरण	-7.15051
कडे	-7.15296
ण्यासाठी	-7.15597
०	-7.1598
ाचा	-7.16641
ँ	-7.16764
▁ऑक्सिजन	-7.17079
▁इतर	-7.17301
िट	-7.17591
▁जास्त	-7.18211
▁झाल्या	-7.18363
िंग	-7.1877
▁रुग्णालय	-7.18783
▁दोन	-7.19001
अ	-7.19135
ंट	-7.19289
▁अनेक	-7.20488
▁चा	-7.21124
▁मो	-7.22282
▁होती	-7.22582
बाबत	-7.23454
ुक	-7.23516
डी	-7.23703
▁आली	-7.24616
िय	-7.24944
▁केला	-7.25435
▁ना	-7.25536
▁असलेल्या	-7.25597
R	-7.25644
न्स	-7.26879
I	-7.2703
पेक्षा	-7.27204
▁लोक	-7.27605
ांची	-7.28017
▁'	-7.28049
▁होता	-7.2805
मान	-7.28763
▁करण्यासाठी	-7.28772
▁हात	-7.29089
ोज	-7.29259
▁जे	-7.29397
लेल्या	-7.29553
▁मृत्यू	-7.30218
▁शकत	-7.30384
ेस	-7.31116
नुसार	-7.31853
▁ध	-7.32277
आ	-7.32322
▁एका	-7.3286
▁उपचार	-7.33327
▁काय	-7.33435
▁कार्य	-7.33485
ासाठी	-7.33522
छ	-7.33885
संख्य	-7.34193
वार	-7.34846
▁आता	-7.35784
▁तयार	-7.35975
मधील	-7.35994
र्म	-7.36344
▁झाला	-7.36544
▁झाले	-7.37564
▁झाली	-7.37887
ांत	-7.38016
ाचे	-7.38827
▁चाचणी	-7.3906
▁परिणाम	-7.39256
▁लोकां	-7.40457
▁मान	-7.40986
▁व्यक्ती	-7.4289
00	-7.44477
▁सो	-7.44642
ृत	-7.45031
ृ	-7.45158
▁त्यांच्या	-7.45191
3	-7.4627
कडून	-7.46706
▁औषध	-7.46826
▁यु	-7.47238
▁व्हायरस	-7.47252
▁म्हणून	-7.4761
e	-7.47679
▁लॉकडाऊन	-7.47894
▁3	-7.48243
▁वर्ष	-7.49267
▁COVID	-7.49627
ांवर	-7.4964
▁भाग	-7.49679
ंची	-7.49688
िश	-7.51003
a	-7.5117
▁असेल	-7.51219
▁झालेल्या	-7.51317
▁घर	-7.52144
धार	-7.52253
▁अशा	-7.52435
द्ध	-7.52528
▁गरज	-7.53006
▁संख्या	-7.5336
S	-7.53641
ालय	-7.53912
ऊ	-7.5431
▁कु	-7.54461
▁मार्च	-7.54563
▁असे	-7.54807
▁करून	-7.5488
िम	-7.54884
▁यांच्या	-7.54938
▁दिवस	-7.55121
▁दिली	-7.55282
क्रम	-7.55563
▁राज्यात	-7.55662
ग्र	-7.55973
E	-7.5641
▁कारण	-7.56482
▁केल्या	-7.56636
प्र	-7.56831
ओ	-7.57114
▁पुर	-7.57345
o	-7.57351
P	-7.57823
▁जाण	-7.57923
व्या	-7.58062
▁परिस्थिती	-7.58299
▁होऊ	-7.58302
▁उपलब्ध	-7.59017
▁पुढ	-7.59264
मुख	-7.59421
भाव	-7.59711
▁देण्यात	-7.59844
▁गेल्या	-7.59899
▁होण्या	-7.60171
▁टक्के	-7.60956
A	-7.60956
▁सह	-7.61059
▁त्यांना	-7.61244
▁ने	-7.61681
▁नोंद	-7.61701
▁प्रति	-7.61946
▁म्हटलं	-7.62436
▁म्हणजे	-7.62443
▁आपल्या	-7.62469
▁मु	-7.63106
▁मुंबई	-7.63938
सीओव्ही	-7.64443
▁मात्र	-7.64631
▁म्हणाले	-7.64703
▁रुग्णांच	-7.64768
त्त	-7.6514
▁राज	-7.65591
▁१	-7.65654
▁डॉक्टर	-7.65719
▁केलं	-7.65764
इ	-7.66102
▁वेळ	-7.66467
▁हजार	-7.66504
▁त्यामुळे	-7.67149
▁घेण्या	-7.67564
▁करणे	-7.68218
▁आम्ही	-7.6938
▁महिन्या	-7.69646
▁असल्याच	-7.69686
▁शहर	-7.7002
i	-7.70182
▁2020	-7.7045
▁एप्रिल	-7.7072
▁त्यांनी	-7.71006
▁अशी	-7.71043
ण्याची	-7.7155
▁खा	-7.71989
%	-7.72079
▁चाचण्या	-7.72082
▁घा	-7.72371
मंत्री	-7.72631
▁डोस	-7.74019
▁मोठ्या	-7.74574
▁असून	-7.75364
४	-7.75984
▁महाराष्ट्रात	-7.76269
▁कोण	-7.76365
▁असल्याचं	-7.77062
▁शकतो	-7.77523
▁सांगतात	-7.77996
▁लाख	-7.79433
t	-7.79458
पत्र	-7.79715
▁होतं	-7.79776
▁शाळा	-7.79924
▁सध्या	-7.80677
पैकी	-7.80943
▁दिले	-7.81294
३	-7.81541
▁निर्णय	-7.82448
▁सरकारने	-7.83058
r	-7.83363
▁शकतात	-7.83641
▁येईल	-7.84285
▁वैद्यकीय	-7.84285
▁ट्र	-7.84299
५	-7.85217
▁मुलां	-7.85348
ऑ	-7.85524
▁प्रसार	-7.85584
▁आवश्यक	-7.85843
▁सांगितलं	-7.86158
सोबत	-7.86546
१	-7.86869
▁बदल	-7.86993
▁चीन	-7.87763
▁आलं	-7.87827
ांसाठी	-7.87877
▁कोविड	-7.88068
n	-7.88388
वरील	-7.88692
▁लोकांना	-7.88939
▁गंभीर	-7.9001
▁नवीन	-7.9003
▁दिवसां	-7.90191
ल्यानंतर	-7.90499
▁जिल्ह्य	-7.90667
▁प्रकार	-7.90835
ः	-7.92328
▁प्रवास	-7.92405
ल्ल	-7.92463
९	-7.92664
▁दुसऱ्या	-7.93001
क्षम	-7.93007
▁मदत	-7.9324
बाहेर	-7.93678
▁होणार	-7.94024
M	-7.94359
▁समावेश	-7.94701
▁मास्क	-7.96084
▁स्थिती	-7.96084
▁करू	-7.96498
क्षण	-7.96507
s	-7.97132
पूर्वी	-7.98202
द्द	-7.98342
▁संपर्क	-7.98548
▁घट	-7.99368
▁नियम	-8.00022
बद्दल	-8.00724
▁ठाकरे	-8.01441
▁घ्या	-8.0157
▁डि	-8.01976
▁लागण	-8.03244
दरम्यान	-8.04044
▁विचार	-8.05233
वेळी	-8.05394
▁सुरुवात	-8.05562
▁शक्यता	-8.05562
N	-8.05945
▁ठिकाण	-8.05947
द्वारे	-8.06718
▁आपण	-8.06815
/	-8.07104
▁देण्या	-8.07129
▁अभ्यास	-8.07493
▁जाहीर	-8.07495
;	-8.07883
CoV	-8.08275
६	-8.08275
निर्माण	-8.08277
▁येथ	-8.09068
ांचे	-8.09407
▁जागतिक	-8.09461
▁निर्बंध	-8.09461
▁पसर	-8.10454
▁परवानगी	-8.10661
▁देत	-8.10713
▁लागत	-8.11062
▁म्हणतात	-8.11078
▁महत्त्वाच	-8.11469
▁काळात	-8.1153
▁येणार	-8.12285
D	-8.12694
▁हॉस्पिटल	-8.12694
▁लाटे	-8.12746
▁तुम्हाला	-8.13105
▁जाऊ	-8.13128
▁शिक्षण	-8.13521
▁लागू	-8.13554
८	-8.13933
T	-8.15189
▁बोलताना	-8.16034
▁दिसून	-8.16038
▁शोध	-8.16085
▁उपाय	-8.16644
▁अमेरिक	-8.16887
तज्ज्ञ	-8.17316
▁प्रयत्न	-8.17316
▁प्रश्न	-8.17318
▁करणार	-8.17807
▁रोजी	-8.18195
▁दाखल	-8.18617
ात्मक	-8.19244
▁जाईल	-8.19491
▁नमुन	-8.19497
▁नागरिकां	-8.19931
▁पहिल्या	-8.19931
▁ऑफ	-8.19938
▁दिसत	-8.19971
▁SARS	-8.21264
▁करणाऱ्या	-8.21289
▁कोणत्या	-8.21729
▁मागणी	-8.22619
▁अर्थ	-8.23091
▁विभागा	-8.23527
▁म्हण	-8.23637
▁कंपनी	-8.23986
▁नियंत्रण	-8.24446
ेंद्र	-8.24899
▁श्वसन	-8.25375
▁धोका	-8.25383
ॅक्स	-8.25391
▁योग्य	-8.25842
▁देखील	-8.25842
▁असताना	-8.25855
रुप	-8.26071
▁घेऊ	-8.26311
▁काळजी	-8.26783
▁टाळ	-8.26844
ण्याचा	-8.27075
▁पुरवठा	-8.27733
मधून	-8.27818
क्रिया	-8.27991
▁मुख्यमंत्री	-8.28692
▁आठवड्या	-8.28692
l	-8.28692
▁उत्पादन	-8.29175
▁पुन्हा	-8.29175
▁सेवा	-8.29663
▁आमच	-8.30482
▁उद्धव	-8.30643
▁उत्तर	-8.31142
▁तेव्हा	-8.31672
▁बीबीसी	-8.32124
▁ठेवण्या	-8.32135
▁नसल्या	-8.3217
H	-8.33126
▁उद्रेक	-8.33126
▁टेस्ट	-8.33138
▁मोदी	-8.33159
▁स्पष्ट	-8.33632
प्रमाणे	-8.33636
▁गेले	-8.33824
▁पंतप्रधान	-8.34139
▁परीक्षा	-8.34139
c	-8.35163
▁दिला	-8.35324
▁दिल्ली	-8.36196
▁प्रत्येक	-8.36716
▁विकसित	-8.36717
▁बैठक	-8.3724
▁सूचना	-8.37313
▁कर्मचाऱ्यां	-8.38295
▁विशेष	-8.38296
▁जानेवारी	-8.38827
▁तुम्ही	-8.38827
▁रूग्ण	-8.39784
▁डेटा	-8.39909
▁सार्वजनिक	-8.4044
▁पातळी	-8.40442
शिवाय	-8.40989
▁साथी	-8.41035
▁पाठव	-8.41039
▁उच्च	-8.41532
▁मध्य	-8.41696
७	-8.4208
▁टप्प्या	-8.4208
राष्ट्रीय	-8.42632
▁विद्यार्थ्यां	-8.42632
▁आढळून	-8.43188
h	-8.44308
▁प्रतिबंध	-8.44308
सारख्या	-8.44311
माध्यम	-8.44312
▁जिल्हा	-8.45441
▁पाहिजे	-8.45441
संदर्भात	-8.45441
▁होईल	-8.45441
▁पद्धती	-8.45443
▁रूग्णां	-8.45564
▁लहान	-8.4602
▁संपूर्ण	-8.46587
▁चर्चा	-8.47176
▁प्रभावी	-8.47183
▁वर्षां	-8.47565
▁तसंच	-8.47748
▁विविध	-8.47752
▁पुण्या	-8.48123
▁पोहोच	-8.48332
▁झालं	-8.48333
▁पॉझिटिव्ह	-8.4892
▁ओळख	-8.4892
▁जगभरात	-8.50107
▁अंदाज	-8.50108
▁आहोत	-8.50109
▁दुसरी	-8.50715
▁व्यक्त	-8.51249
युक्त	-8.51253
▁व्यवस्था	-8.51914
▁कुटुंब	-8.52524
d	-8.52525
▁येऊ	-8.52525
▁गोष्टी	-8.53138
O	-8.53755
▁आढळले	-8.53755
▁तीव्र	-8.53757
ञ	-8.5563
U	-8.56262
विषयी	-8.56263
▁केसेस	-8.56265
सुद्धा	-8.56357
▁कालावधी	-8.569
समोर	-8.57131
▁सामान्य	-8.57549
▁राहत	-8.57676
▁फेब्रुवारी	-8.58186
G	-8.58835
▁असल्याने	-8.61494
▁धुण्या	-8.62315
▁बेड्स	-8.62823
“	-8.63503
▁सेंटर	-8.64191
गृह	-8.64485
ज्ञान	-8.65572
▁वेगळ	-8.65573
▁प्रतिसाद	-8.65575
▁संशोधन	-8.66271
▁तसेच	-8.66274
▁खासगी	-8.66976
▁अहवाल	-8.6698
▁सांगितले	-8.67684
▁गर्दी	-8.67685
▁सगळ्या	-8.67686
▁संक्रमण	-8.68403
▁आकडेवारी	-8.69843
▁येणाऱ्या	-8.69845
▁मर्याद	-8.70577
▁शिफारस	-8.71308
▁कर्मचारी	-8.72049
▁सुरक्षित	-8.72795
▁रात्री	-8.72799
▁लागेल	-8.72801
▁वेगान	-8.73563
▁मंत्रालया	-8.75068
m	-8.75838
▁पक्ष	-8.75838
़	-8.76612
’	-8.76612
▁जणां	-8.76977
▁क्षेत्रात	-8.77393
▁ग्रामीण	-8.77393
▁आर्थिक	-8.78181
▁थांब	-8.78975
▁स्थानिक	-8.78975
p	-8.78975
▁उपस्थित	-8.78975
▁आणखी	-8.78976
▁कंपन्या	-8.79775
V	-8.80581
▁फुफ्फुस	-8.80581
उ	-8.82615
!	-8.92613
u	-8.93531
B	-8.99219
g	-9.0119
(	-9.02494
v	-9.13906
L	-9.15041
”	-9.17353
W	-9.22144
ऐ	-9.99718
‘	-9.99728
ौ	-9.99738
औ	-9.99748
ऱ	-9.99758
ॉ	-9.99768
