<pad>	0
</s>	0
<unk>	0
▁¦	-0
▁።	-1
▁፥	-2
▁፤	-3
እን	-4
ንም	-5
ቸው	-6
አብ	-7
እግ	-8
ሔር	-9
እግዚ	-10
እግዚአብ	-11
እግዚአብሔር	-12
ንድ	-13
ወደ	-14
ሁሉ	-15
ነበ	-16
ርሱ	-17
ችሁ	-18
እንደ	-19
ነው	-20
አለ	-21
የሚ	-22
እስ	-23
ነገ	-24
አን	-25
ላይ	-26
ዘንድ	-27
እነ	-28
ለሁ	-29
እርሱ	-30
እንዲ	-31
ስለ	-32
ኤል	-33
ግን	-34
አል	-35
ውን	-36
ድር	-37
▁?	-38
ትን	-39
እኔ	-40
ትም	-41
መን	-42
ዎች	-43
ሰው	-44
ጊዜ	-45
የተ	-46
ልጆ	-47
አም	-48
ዚህ	-49
አይ	-50
ነገር	-51
እስራ	-52
ውም	-53
እስራኤል	-54
ምን	-55
ንጉ	-56
ልጆች	-57
ጋር	-58
መል	-59
ልጅ	-60
ይህ	-61
እና	-62
ነበር	-63
ዚያ	-64
ሕዝ	-65
በት	-66
ምድር	-67
ርስ	-68
ከተ	-69
አንተ	-70
ደረ	-71
ሪያ	-72
አት	-73
ነበረ	-74
ያስ	-75
ችን	-76
እንዲህ	-77
ለም	-78
አምላ	-79
ፊት	-80
ላቸው	-81
ሰማ	-82
እንዳ	-83
ደር	-84
ለው	-85
ያን	-86
ኢየ	-87
ስም	-88
መጣ	-89
ሆነ	-90
ዋል	-91
ድረ	-92
ሆን	-93
ንተ	-94
ቤት	-95
ላችሁ	-96
እርሱም	-97
ለት	-98
ወይ	-99
ጌታ	-100
ቃል	-101
ንና	-102
እነርሱ	-103
እናንተ	-104
በአ	-105
ላል	-106
በመ	-107
እጅ	-108
ተኛ	-109
ናገ	-110
ቀን	-111
ደግ	-112
ድን	-113
መለ	-114
አስ	-115
ሥራ	-116
ነት	-117
ሠራ	-118
እግዚአብሔርም	-119
ቸውም	-120
ሆይ	-121
ለህ	-122
ደግሞ	-123
ቶች	-124
ስጥ	-125
ቱም	-126
ይሁ	-127
ስት	-128
አባ	-129
በዚያ	-130
ሰዎች	-131
እነሆ	-132
ወጣ	-133
ብር	-134
በእ	-135
ወር	-136
ህን	-137
ሆና	-138
ለች	-139
አንድ	-140
የም	-141
አለው	-142
ንጉሥ	-143
የእግዚአብሔር	-144
ብሎ	-145
ገባ	-146
ነበሩ	-147
ልና	-148
ንጉሡ	-149
አምላክ	-150
ድረስ	-151
ወንድ	-152
በሰ	-153
ህም	-154
ቸውን	-155
ዳዊ	-156
ተቀ	-157
ቱን	-158
ካከ	-159
ኃጢ	-160
ዓመ	-161
እስከ	-162
ፍራ	-163
አገ	-164
ውስጥ	-165
ዳን	-166
ግብ	-167
ያለ	-168
ያው	-169
ኋላ	-170
ይወ	-171
አድር	-172
ችኋ	-173
ይላል	-174
ሳሌ	-175
ናቸው	-176
ተው	-177
በል	-178
ደስ	-179
ርም	-180
ሕዝቡ	-181
ኢየሱ	-182
መንገ	-183
የእስራኤል	-184
ምም	-185
ነሣ	-186
ባት	-187
መጡ	-188
ሉት	-189
ባሪያ	-190
በእግዚአብሔር	-191
ድም	-192
በታ	-193
ከተማ	-194
ውያን	-195
በኋላ	-196
ሕዝብ	-197
ይሆና	-198
ቀር	-199
ልም	-200
ትና	-201
ፈር	-202
ስለዚህ	-203
መካከ	-204
አሳ	-205
አላ	-206
ብዙ	-207
በር	-208
ወገ	-209
የሚያ	-210
ምና	-211
ነፍ	-212
በተ	-213
ችም	-214
ሙሴ	-215
ይሁዳ	-216
ደረገ	-217
የአ	-218
ልን	-219
ልብ	-220
ካህ	-221
የማ	-222
እነርሱም	-223
መስ	-224
ስን	-225
ኢየሩ	-226
ውንም	-227
ኢየሩሳሌ	-228
መካከል	-229
ከፍ	-230
እነዚህ	-231
ወይም	-232
ዛብ	-233
መጥ	-234
ማን	-235
ይህን	-236
በላ	-237
ሕዛብ	-238
በረ	-239
ሁለት	-240
ሰጠ	-241
አው	-242
ዓመት	-243
በም	-244
ሁለ	-245
መልካ	-246
ቤቱ	-247
ኢዮ	-248
ክፉ	-249
ቹም	-250
ወን	-251
ቻቸው	-252
ራት	-253
ዓይ	-254
ጠፋ	-255
ለመ	-256
ዋዕ	-257
ስፍራ	-258
በደ	-259
እንዲሁ	-260
በው	-261
እንግ	-262
እኔም	-263
እርስ	-264
ሥዋዕ	-265
አታ	-266
ተናገ	-267
ረው	-268
አሁ	-269
ፍር	-270
መሥዋዕ	-271
ታላ	-272
አይደ	-273
ገለ	-274
ይል	-275
ንን	-276
አቸው	-277
ክርስ	-278
ቢያ	-279
ይሆናል	-280
ኞች	-281
ርያ	-282
ጠብ	-283
ማል	-284
ዋም	-285
መቶ	-286
እኛ	-287
ርባ	-288
ዘላ	-289
እግዚአብሔርን	-290
ናት	-291
ገና	-292
አላቸው	-293
ሞች	-294
ሆኑ	-295
ለማ	-296
በሚ	-297
ራራ	-298
ዲህ	-299
ባል	-300
ታል	-301
ወለ	-302
የመ	-303
እንጂ	-304
ዘላለም	-305
መንገድ	-306
ገብ	-307
አለቆ	-308
ዋለሁ	-309
ሮች	-310
ቀረ	-311
ለን	-312
ይሰ	-313
ያል	-314
መንፈ	-315
ግሥ	-316
ድቅ	-317
ሰማይ	-318
ያደር	-319
ታው	-320
ክርስቶ	-321
ሳት	-322
ኢየሱስ	-323
ኢየሩሳሌም	-324
መሰ	-325
ብን	-326
እጅግ	-327
ባቸው	-328
በዚህ	-329
በምድር	-330
ጠላ	-331
በዚያም	-332
ሥጋ	-333
ሩት	-334
መጠ	-335
የሰ	-336
ለእግዚአብሔር	-337
ተኛው	-338
አሕዛብ	-339
ለሚ	-340
ጠራ	-341
ባለ	-342
ሠራዊ	-343
ቅር	-344
ሕይወ	-345
ሆነው	-346
መሥዋዕት	-347
ነኝ	-348
ውኃ	-349
ጀራ	-350
ሌላ	-351
ምስ	-352
እው	-353
ቅዱ	-354
በማ	-355
ቸዋል	-356
የእግዚአብሔርን	-357
መልካም	-358
በእስራኤል	-359
ብም	-360
ስድ	-361
በግ	-362
ሥር	-363
እንደሚ	-364
ዋን	-365
ፍሬ	-366
ብት	-367
ታቸው	-368
ዴት	-369
ቀድ	-370
ኃጢአት	-371
ተነ	-372
አልና	-373
ለምን	-374
ዳዊት	-375
ሩም	-376
አቤቱ	-377
የምት	-378
ክርስቶስ	-379
በፊ	-380
ጀም	-381
ታችሁ	-382
ብላ	-383
ነውና	-384
ኑም	-385
ቶቻ	-386
እንግዲህ	-387
ሺህ	-388
በጎ	-389
አምላካ	-390
ከራ	-391
ኢያ	-392
ሃለሁ	-393
መረ	-394
ወሰ	-395
ገደ	-396
ፈል	-397
በራ	-398
በየ	-399
ከአ	-400
ዘመን	-401
ፈረ	-402
ከዚያ	-403
ክር	-404
ኃጢአ	-405
አገር	-406
ከእርሱ	-407
አለቃ	-408
ቅም	-409
ወጡ	-410
ሄደ	-411
ቃጠ	-412
ተሰ	-413
ዛሬ	-414
አንዱ	-415
በሉ	-416
እንዳይ	-417
ያም	-418
አጠ	-419
ክት	-420
ወጥ	-421
ንጉሡም	-422
መንግሥ	-423
ታት	-424
ወዳ	-425
ችኋለሁ	-426
ፈራ	-427
ባሕ	-428
በዳ	-429
ቱንም	-430
አለቆች	-431
እንዲህም	-432
ከሚ	-433
እንድ	-434
ድንጋ	-435
በስ	-436
ያዕ	-437
ወለደ	-438
አደረገ	-439
ቹን	-440
ያዕቆ	-441
መና	-442
ወስ	-443
ሦስት	-444
ዶች	-445
ይሁን	-446
እዛ	-447
አሉ	-448
ከን	-449
ሃል	-450
ላም	-451
ሠዊ	-452
ይፍ	-453
ኖች	-454
ራቸው	-455
መቅ	-456
ታላቅ	-457
መንፈስ	-458
ችሁም	-459
መር	-460
ለዘላለም	-461
ምር	-462
ሳይ	-463
ዳዊትም	-464
ሳኦ	-465
ወገን	-466
ሱን	-467
ሞት	-468
በቀ	-469
ሴቶች	-470
ፍል	-471
ክብር	-472
ሰጣ	-473
አዘ	-474
ምድ	-475
ሄዱ	-476
ችሁን	-477
ጀምሮ	-478
መው	-479
አደረ	-480
ኖር	-481
ህንም	-482
ሰጥ	-483
ትእዛ	-484
ኛው	-485
ሎች	-486
ሠራዊት	-487
ውያ	-488
እንጀራ	-489
ቀደ	-490
እስኪ	-491
ከብ	-492
ፈጽ	-493
ቍርባ	-494
ልኝ	-495
ኛል	-496
ድንኳ	-497
ዕቃ	-498
ድምፅ	-499
ሰባት	-500
ወንድሞ	-501
አሁን	-502
ቅን	-503
ከት	-504
ተመለ	-505
ታደር	-506
ታን	-507
ገዛ	-508
ዘው	-509
ማንም	-510
ልፍ	-511
ይቀ	-512
በዙ	-513
ግብፅ	-514
አደ	-515
ያሉ	-516
በእርሱ	-517
ቍጣ	-518
ወረ	-519
ወርቅ	-520
ነበርና	-521
ሴት	-522
ብቻ	-523
ኖሩ	-524
ክንድ	-525
ረት	-526
ቃሉ	-527
ሕይወት	-528
ሕግ	-529
ስሙ	-530
ዳር	-531
ከመ	-532
ወድ	-533
ተራራ	-534
ራስ	-535
ፈሩ	-536
ዓት	-537
ችኋል	-538
አይሁ	-539
የለም	-540
እር	-541
እነሆም	-542
ቹንም	-543
ኩል	-544
ዘር	-545
አሥራ	-546
ሆኖ	-547
ደም	-548
ይልቅ	-549
ልጁ	-550
አጠገብ	-551
ሳን	-552
ፋት	-553
ክን	-554
ይም	-555
ነገሥ	-556
ሄድ	-557
ብል	-558
ናል	-559
አንተም	-560
ብለው	-561
አሁንም	-562
ከማ	-563
ጥር	-564
ቸዋለሁ	-565
ራል	-566
እንዴት	-567
ከተሞች	-568
ያንዳን	-569
መታ	-570
ሀያ	-571
አምስት	-572
በዛ	-573
እየ	-574
ጥበ	-575
ተነሥ	-576
ከእኔ	-577
አያ	-578
አየ	-579
ሌሊ	-580
በታች	-581
አንቺ	-582
ሕዝቡም	-583
ችው	-584
ወይን	-585
ኢየሱስም	-586
በለ	-587
ሞተ	-588
ሩን	-589
አባት	-590
ከዚህ	-591
አሉት	-592
ረገ	-593
ባሕር	-594
ፋን	-595
ጽድቅ	-596
በኩል	-597
አደር	-598
ተመል	-599
ያለውን	-600
አይደለም	-601
ሰባ	-602
ቢሎ	-603
ባይ	-604
ነግ	-605
ገድ	-606
የተነሣ	-607
ናገር	-608
አሳል	-609
ሱም	-610
የቀ	-611
ደው	-612
ሎሞ	-613
ገቡ	-614
እያንዳን	-615
ኝም	-616
ባቢሎ	-617
የሆነ	-618
መዛ	-619
ስፋ	-620
ገረ	-621
ሳቸው	-622
በአንድ	-623
አክ	-624
ምንም	-625
ችንም	-626
የሰው	-627
ውያንም	-628
ደግሞም	-629
ሌዋ	-630
ተዋል	-631
ህል	-632
ሙር	-633
ስጥኤ	-634
የነበረ	-635
የነበሩ	-636
ከእስራኤል	-637
ቢሆን	-638
ፍርድ	-639
ንስ	-640
ከእናንተ	-641
ያዘ	-642
ሮን	-643
ሰም	-644
በዓ	-645
የእ	-646
ጥን	-647
ደቀ	-648
ነገድ	-649
ከእግዚአብሔር	-650
ንቀ	-651
ባሪያዎች	-652
በቅ	-653
ፈርዖ	-654
ከተማይ	-655
አራ	-656
ግባ	-657
ካህና	-658
ግብጽ	-659
ጣል	-660
ቍርባን	-661
ቤተ	-662
ከአንተ	-663
ጠር	-664
ሰብ	-665
ሉም	-666
ታም	-667
ተኞች	-668
ተዋ	-669
ማግ	-670
በፊት	-671
ይሆን	-672
ስማ	-673
ዘን	-674
ለእስራኤል	-675
ከዚያም	-676
ከሰ	-677
ውል	-678
አፍ	-679
በይሁዳ	-680
ተኛውም	-681
ከእርሱም	-682
ሄዳ	-683
በዘ	-684
ይጠ	-685
ስጥኤማ	-686
እርስዋም	-687
መድ	-688
ፎች	-689
ያለው	-690
ሦስ	-691
ይለ	-692
የእስራኤልም	-693
ሁት	-694
▁!	-695
አለሁ	-696
ሙሴም	-697
ርሃ	-698
ያት	-699
ዱም	-700
በፍ	-701
ተማ	-702
ሽማግ	-703
እም	-704
ገል	-705
ሠዊያ	-706
ርዳ	-707
ሴፍ	-708
ከለ	-709
ይመጣ	-710
ነገሥታት	-711
ዮሴፍ	-712
በዚያን	-713
የእግዚአብሔርም	-714
ነቢያ	-715
ትእዛዝ	-716
ቶቻቸው	-717
ገኘ	-718
ሶች	-719
ቀድሞ	-720
አብርሃ	-721
ልቅ	-722
ስላ	-723
አራት	-724
እውነት	-725
ሚስ	-726
ረብ	-727
ነፋ	-728
ጥቂ	-729
ነፍስ	-730
ቅዱስ	-731
በእው	-732
እንስ	-733
ዋለህ	-734
በሬ	-735
ያላ	-736
ድንጋይ	-737
በእኔ	-738
አድርገ	-739
ነህ	-740
ጠው	-741
ባለው	-742
ከእነርሱ	-743
ነቢ	-744
መዛሙር	-745
ሙሴን	-746
በትን	-747
ሽማግሌ	-748
ሰሎሞ	-749
ላከ	-750
የታ	-751
ጸና	-752
ነገሠ	-753
ቴን	-754
በኢየሩሳሌም	-755
በሩ	-756
ጀመ	-757
ጽሐ	-758
በትም	-759
አድርጎ	-760
አውራ	-761
ወይስ	-762
የሠራዊት	-763
ሁም	-764
ሜን	-765
ባር	-766
ታስ	-767
እላ	-768
ተቀም	-769
ቶአል	-770
እጁ	-771
የማይ	-772
አምላክህ	-773
ምሕ	-774
ርን	-775
ዛት	-776
ንድር	-777
ሽም	-778
ሰውም	-779
እንድት	-780
ልህ	-781
ሽን	-782
ፈው	-783
ተና	-784
በመካከ	-785
ኑን	-786
ከም	-787
ራለሁ	-788
ኪዳን	-789
ሂድ	-790
ውሎ	-791
ከንቱ	-792
እርስዋ	-793
ላለ	-794
ላት	-795
ይህም	-796
ደረግ	-797
ከፈ	-798
ዕጣ	-799
ባቢሎን	-800
ድንኳን	-801
ፍልስጥኤማ	-802
ሳል	-803
ብርሃ	-804
ዘረ	-805
ሳችሁ	-806
ልት	-807
ተጠ	-808
ዝም	-809
ደነ	-810
ጆች	-811
ተስፋ	-812
ጀመሪያ	-813
መልሶ	-814
ብላቴ	-815
ምንድር	-816
ቦት	-817
ችንን	-818
ላሳ	-819
ሠሩ	-820
በሰማ	-821
ነፍሴ	-822
ልብስ	-823
የአባ	-824
ያስም	-825
ላሉ	-826
ብዓ	-827
ሰሙ	-828
ከነ	-829
ጆሮ	-830
ዓይን	-831
ሞዓ	-832
ዋጋ	-833
ዘጋ	-834
ገር	-835
ዳቸው	-836
ጌታዬ	-837
ምል	-838
የለ	-839
መለሰ	-840
አደረጉ	-841
ሰድ	-842
ፈጸ	-843
በቀር	-844
ስድስት	-845
ይስ	-846
ሌሊት	-847
ትንም	-848
በእውነት	-849
ልባ	-850
ወዲ	-851
ጊዜም	-852
በዙሪያ	-853
ያዕቆብ	-854
እናንተም	-855
በድ	-856
ኖስ	-857
ሮስ	-858
ቅል	-859
ዊው	-860
ፈቃ	-861
ኃይል	-862
ገን	-863
ሰይፍ	-864
የይሁዳ	-865
አድ	-866
ራችሁ	-867
እንጨ	-868
ላቸውም	-869
ነጋ	-870
ባረ	-871
ናን	-872
አር	-873
ሕዝቤ	-874
ስለዚህም	-875
ንጹ	-876
ይታ	-877
ጥሩ	-878
ዋልና	-879
ደሪያ	-880
ጽሐፍ	-881
ያደርጋ	-882
ቀው	-883
ዳል	-884
መሠዊያ	-885
ርስት	-886
አለኝ	-887
አማል	-888
መንግሥት	-889
ወንድሞች	-890
ዩም	-891
ሆንሁ	-892
እሳት	-893
ዋንም	-894
ዓለም	-895
ካህናት	-896
አሮ	-897
ሰላም	-898
ዮርዳ	-899
ተናገረ	-900
አይሁድ	-901
ሌለ	-902
ማስ	-903
ሳለ	-904
ጠብቅ	-905
ለቆ	-906
ሞላ	-907
ሲል	-908
ቢት	-909
ብኝ	-910
ዎቹ	-911
ሠላሳ	-912
ባልን	-913
ከእነርሱም	-914
ታና	-915
ጠጅ	-916
በውኑ	-917
ሳሉ	-918
አሰ	-919
እያ	-920
ድጓ	-921
መለከ	-922
መከራ	-923
ሚስት	-924
ቀመጡ	-925
እንኳ	-926
ጠብቁ	-927
ቻቸውም	-928
ተራ	-929
ሕያው	-930
አምሳ	-931
ሊያ	-932
ኤፍሬ	-933
ሐሰ	-934
ድማ	-935
ጣሉ	-936
ለውን	-937
ተቀመጠ	-938
የሚያስ	-939
ራም	-940
ናችሁ	-941
ሁል	-942
ዛፍ	-943
ገኝ	-944
አልተ	-945
ጨለማ	-946
ሕዝቡን	-947
በእናንተ	-948
ሕፃ	-949
ረድ	-950
ቴም	-951
ጕል	-952
ሰጠው	-953
ይገባ	-954
የሆነው	-955
የእስራኤልን	-956
ዘይ	-957
አንበ	-958
ዳርቻ	-959
የምድር	-960
ግም	-961
ፀሐ	-962
ወንዶች	-963
ፈን	-964
የወይን	-965
ተም	-966
ዮን	-967
ጠጣ	-968
በላይ	-969
ቤቶች	-970
ታውቃ	-971
አገል	-972
ተኞ	-973
ራሉ	-974
በኵ	-975
የና	-976
ዶም	-977
ፈጥ	-978
እንዲያ	-979
መዝ	-980
ቁም	-981
ሁለቱ	-982
በአንተ	-983
የሚቃጠ	-984
በሕይወት	-985
ልጄ	-986
ይዞ	-987
ጥም	-988
ጨረ	-989
ሁሉም	-990
እንዲሁም	-991
ሽማግሌዎች	-992
ኢየሩሳሌምም	-993
ሙን	-994
ራብ	-995
ሻል	-996
ወቅ	-997
ጥቂት	-998
ላቅ	-999
ቈጠ	-1000
አካ	-1001
አመጣ	-1002
አንዲ	-1003
ዎቹም	-1004
ማት	-1005
ተን	-1006
ዘመ	-1007
ደን	-1008
ጉባ	-1009
ሳኦልም	-1010
መነ	-1011
ሰን	-1012
ጻፈ	-1013
ምርኮ	-1014
አንዳ	-1015
አምላኬ	-1016
ርኩ	-1017
ሸለቆ	-1018
በጎች	-1019
ትውል	-1020
እርሻ	-1021
መጽሐፍ	-1022
በእሳት	-1023
እንዳዘ	-1024
ኃይ	-1025
መለስ	-1026
ታችን	-1027
ኋቸው	-1028
ይሆናሉ	-1029
አምላካችን	-1030
ሙት	-1031
ደኅ	-1032
ጣት	-1033
ጽና	-1034
ምድሪ	-1035
ወዴት	-1036
ጋለሁ	-1037
ብላቴና	-1038
እንዲሆን	-1039
ማኅ	-1040
ሰደ	-1041
ቤል	-1042
ጡት	-1043
ትንና	-1044
ኸው	-1045
ከነዓ	-1046
ኮረብ	-1047
ይወድ	-1048
ጉባኤ	-1049
ጥበብ	-1050
እንዳት	-1051
ወንድም	-1052
ባሉ	-1053
አኖ	-1054
ቀመጥ	-1055
ጳውሎ	-1056
በምድረ	-1057
በሰይፍ	-1058
ተህ	-1059
ዕድ	-1060
ዮሐ	-1061
ካህኑም	-1062
ይህንም	-1063
ክህ	-1064
ዬን	-1065
አወጣ	-1066
ሸክ	-1067
ቶቹ	-1068
ዮና	-1069
ለአንተ	-1070
አባቶቻ	-1071
ሌዋውያን	-1072
ርኵ	-1073
ጴጥ	-1074
ፈለ	-1075
ምድረ	-1076
ተነሣ	-1077
ናገሩ	-1078
ካህኑ	-1079
ተቀመጡ	-1080
ለብ	-1081
ሴሎ	-1082
መልስ	-1083
አድርግ	-1084
ራሱ	-1085
ዝና	-1086
ይሸ	-1087
በፊቱ	-1088
ደስታ	-1089
እክ	-1090
ጋና	-1091
መጥቶ	-1092
ጻድቅ	-1093
አሳልፎ	-1094
አማልክት	-1095
ያዕቆብም	-1096
ማለ	-1097
ያሳ	-1098
ጽኑ	-1099
ብርሃን	-1100
ተናገረው	-1101
ጥላ	-1102
ሙኤል	-1103
ፋንታ	-1104
ከሰማይ	-1105
ዮች	-1106
ጠባ	-1107
ሰውን	-1108
አሥር	-1109
ከምድር	-1110
ሠር	-1111
ዓዛ	-1112
ይኖ	-1113
ሳለሁ	-1114
ኛልና	-1115
የተቀደ	-1116
ትር	-1117
ደሱ	-1118
ገኙ	-1119
ሃልና	-1120
ሰልፍ	-1121
ሳኦል	-1122
አርባ	-1123
ጕድጓ	-1124
ተናገር	-1125
ቸር	-1126
ትሆና	-1127
ኤርም	-1128
ፈሪያ	-1129
መልአክ	-1130
ታቸውን	-1131
እንዳል	-1132
መጋ	-1133
የል	-1134
የት	-1135
ግል	-1136
ጠቀ	-1137
ገንዘ	-1138
ሎት	-1139
መም	-1140
ቀረበ	-1141
ንጹሕ	-1142
ኃጢአታ	-1143
ነበረች	-1144
ምት	-1145
እባ	-1146
እውነ	-1147
ያደረገ	-1148
ፈርዖን	-1149
አልነበረ	-1150
በእግዚአብሔርም	-1151
አቤ	-1152
አዳ	-1153
ነውን	-1154
አደባ	-1155
እግር	-1156
ወዲህ	-1157
ይወጣ	-1158
ሠዊያው	-1159
ባልንጀራ	-1160
ህና	-1161
ሜዳ	-1162
ረኛ	-1163
አጥ	-1164
ይበ	-1165
ጣን	-1166
ሁሉን	-1167
ምሳሌ	-1168
ዘረጋ	-1169
ከሙ	-1170
ፈስ	-1171
ደርግ	-1172
ያደርጉ	-1173
ቡም	-1174
ካል	-1175
ዘም	-1176
ቅያስ	-1177
ቻችሁ	-1178
ወራት	-1179
ኢዮአብ	-1180
መቱ	-1181
ረዳ	-1182
ወል	-1183
ሥራቅ	-1184
የጌታ	-1185
ገለዓ	-1186
ሥርዓት	-1187
ሳሙኤል	-1188
ያደርግ	-1189
እስራኤልም	-1190
መግ	-1191
ማረ	-1192
ብራ	-1193
ወግ	-1194
መጠን	-1195
አጠፋ	-1196
ወሰደ	-1197
ይመጣል	-1198
እያንዳንዱ	-1199
በደል	-1200
በጌታ	-1201
ባችሁ	-1202
ከእኛ	-1203
ዙሪያ	-1204
ፈጽሞ	-1205
በፊትህ	-1206
ታቦት	-1207
ወንዝ	-1208
ቀቅ	-1209
ባየ	-1210
ኃኒ	-1211
ድል	-1212
ጊያ	-1213
ፍረ	-1214
ለሁና	-1215
ብለህ	-1216
በሰማይ	-1217
ለበ	-1218
መክ	-1219
ማር	-1220
ብዬ	-1221
ለእኔ	-1222
ምሕረ	-1223
ከአባ	-1224
ነበሩት	-1225
አስቀድሞ	-1226
ልዩ	-1227
ሞታ	-1228
ሸሸ	-1229
ከሩ	-1230
በእር	-1231
ወዲያ	-1232
መስፈሪያ	-1233
በአሕዛብ	-1234
መቃ	-1235
መኑ	-1236
ስና	-1237
ቀኝ	-1238
እይ	-1239
ኸኝ	-1240
ወዮ	-1241
ለህን	-1242
ኃያላ	-1243
ወስዶ	-1244
ያህል	-1245
ፀሐይ	-1246
ቸውንም	-1247
አይደለምን	-1248
እላችኋለሁ	-1249
ህር	-1250
ራሱን	-1251
ያወጣ	-1252
ባሪያህ	-1253
ውጣ	-1254
ውጭ	-1255
ጣዖ	-1256
ብዛት	-1257
አየሁ	-1258
ክፋት	-1259
ጽዮን	-1260
ትንቢት	-1261
በቤ	-1262
እል	-1263
ገሩ	-1264
ጌል	-1265
ናገረ	-1266
በግብፅ	-1267
ቶአልና	-1268
እንጨት	-1269
በእርሱም	-1270
አብርሃም	-1271
ሞን	-1272
ቆመ	-1273
ክብ	-1274
ገው	-1275
ጹም	-1276
አምስ	-1277
እሰጣ	-1278
ይስሐ	-1279
ተለ	-1280
አበ	-1281
ድና	-1282
ጻድ	-1283
አላት	-1284
የሠራ	-1285
ምስክር	-1286
ታቸውም	-1287
እንደዚህ	-1288
ስብ	-1289
ቆም	-1290
ጠኝ	-1291
በእጁ	-1292
ኤፍሬም	-1293
ዳዊትን	-1294
የከ	-1295
መለሱ	-1296
ሞዓብ	-1297
እኔን	-1298
ሁልጊዜ	-1299
መቅደስ	-1300
ለእናንተ	-1301
ነን	-1302
ዓይኖ	-1303
አቸውም	-1304
ዮርዳኖስ	-1305
ቆሙ	-1306
ቶቼ	-1307
ከቶ	-1308
ድሀ	-1309
ጸጋ	-1310
ምክን	-1311
ርኩስ	-1312
በታል	-1313
በእጅ	-1314
አለች	-1315
ወረደ	-1316
ቅዱሳን	-1317
ችኋልና	-1318
ከእ	-1319
ሰቅል	-1320
በመቅ	-1321
በሰው	-1322
በውኃ	-1323
ተከተ	-1324
ደኅን	-1325
ሰሎሞን	-1326
ቻቸውን	-1327
ሃት	-1328
ረክ	-1329
ርና	-1330
የኤ	-1331
ሩንም	-1332
እነዚያ	-1333
ሞራ	-1334
ጠፉ	-1335
ፍት	-1336
ችንና	-1337
ወደሚ	-1338
ወደቀ	-1339
ወጥቶ	-1340
ጥፋት	-1341
ነቢያት	-1342
እርሱን	-1343
ከር	-1344
ጠቢ	-1345
ለችው	-1346
ስምዖ	-1347
ኋችሁ	-1348
ሰጣቸው	-1349
በእርስ	-1350
እነዚህም	-1351
ሰና	-1352
በቃ	-1353
ችል	-1354
ኑት	-1355
ገዙ	-1356
ፍን	-1357
ልጆቹ	-1358
ሰረገ	-1359
ስምን	-1360
ነፋስ	-1361
ውንና	-1362
ያጠፋ	-1363
በታላቅ	-1364
ነበረው	-1365
ሰል	-1366
በኤ	-1367
ናቡ	-1368
ወቀ	-1369
ይቱ	-1370
ራሳ	-1371
ሴቲ	-1372
ብህ	-1373
ኢያሱ	-1374
ክፍል	-1375
የተቀ	-1376
ደረሰ	-1377
ፈቃድ	-1378
ለእርሱ	-1379
በንጉሡ	-1380
እንዳለ	-1381
ከግብፅ	-1382
ከተማይቱ	-1383
ሬት	-1384
ጠን	-1385
መንደ	-1386
መንጋ	-1387
መጋረ	-1388
ሥርዓ	-1389
ባድማ	-1390
እውቀ	-1391
ያስን	-1392
ተቀምጦ	-1393
የወርቅ	-1394
አደርጋለሁ	-1395
ፍልስጥኤማውያን	-1396
ቈረ	-1397
ፈት	-1398
በሰቡ	-1399
ነትም	-1400
ያቀር	-1401
ገለግ	-1402
ሁለተኛ	-1403
አድርጌ	-1404
ምክንያት	-1405
አደባባይ	-1406
አምላካችሁ	-1407
በኢየሩሳሌምም	-1408
ሞቱ	-1409
ረግ	-1410
አህ	-1411
ከፊ	-1412
ፍጥ	-1413
በአባ	-1414
ታለሁ	-1415
ከእንግዲህ	-1416
ቦች	-1417
ዝራ	-1418
ጦር	-1419
ቀረቡ	-1420
ዎችም	-1421
ይናገ	-1422
ይጠፋ	-1423
ፈልጉ	-1424
ምልክት	-1425
ተነሥቶ	-1426
አድርጉ	-1427
እንስሳ	-1428
የንጉሡ	-1429
የነበረውን	-1430
ለኝ	-1431
መካ	-1432
ሰጡ	-1433
ባዩ	-1434
ከበ	-1435
ገላ	-1436
ቍጥር	-1437
ተብሎ	-1438
ትውልድ	-1439
ካህናቱ	-1440
ዎቹንም	-1441
ቃጥ	-1442
በጥ	-1443
ትዕ	-1444
የው	-1445
ዱት	-1446
ለችና	-1447
የዚያ	-1448
መልእክ	-1449
ሰዎችም	-1450
ያደርጋል	-1451
ማም	-1452
ሰይ	-1453
ስጦ	-1454
ቁን	-1455
ቆሞ	-1456
ብረ	-1457
ቅጥር	-1458
ነቢዩ	-1459
አንደ	-1460
እኛም	-1461
የምታ	-1462
ይቅር	-1463
ደመና	-1464
መጥተው	-1465
ለቀ	-1466
መኛ	-1467
ከና	-1468
ጽዋ	-1469
መሰም	-1470
ተናግ	-1471
ቻለሁ	-1472
ነገረ	-1473
ማደሪያ	-1474
ናቸውም	-1475
ወለደች	-1476
ገናኛው	-1477
ነጻ	-1478
ገት	-1479
ሌሎች	-1480
መልክ	-1481
ርያም	-1482
ሽንም	-1483
ዳችሁ	-1484
ተመለሱ	-1485
መሰምርያ	-1486
እስራኤልን	-1487
ሌሎ	-1488
ቁት	-1489
የዘ	-1490
ቃለሁ	-1491
አመጡ	-1492
ጋችሁ	-1493
ታደርጋ	-1494
አንዲት	-1495
ከዚህም	-1496
እነዚህን	-1497
ሪሳ	-1498
ራን	-1499
ባላ	-1500
አግ	-1501
ሁላችሁ	-1502
ወገኖች	-1503
የሆነውን	-1504
ሁህ	-1505
ልክ	-1506
ልኮ	-1507
ክፋ	-1508
ጨን	-1509
መላለ	-1510
ስንኳ	-1511
ወደደ	-1512
ብንያም	-1513
አንበሳ	-1514
በክርስቶስ	-1515
በዝ	-1516
ኖረ	-1517
ጕር	-1518
ርኵሰ	-1519
ሰፈሩ	-1520
በብዙ	-1521
ጭፍራ	-1522
ላቸዋል	-1523
በየወገ	-1524
አንዱም	-1525
አንዳች	-1526
የሚኖሩ	-1527
ሞገ	-1528
አማ	-1529
አዋ	-1530
ያድ	-1531
ይነ	-1532
ዱን	-1533
አልሁ	-1534
አዘጋ	-1535
ዎችን	-1536
ይዘው	-1537
አገልግ	-1538
ሥል	-1539
ሪክ	-1540
ተቈ	-1541
ያዊ	-1542
ግር	-1543
ግድ	-1544
ማለሁ	-1545
በላያ	-1546
በሰባ	-1547
ዕድሜ	-1548
ገለጠ	-1549
ፈረሰ	-1550
ይኖራል	-1551
ጳውሎስ	-1552
በምድርም	-1553
ሂዱ	-1554
አቢ	-1555
እኅ	-1556
ከረ	-1557
ደቡ	-1558
ጠረ	-1559
አችሁ	-1560
ዘይት	-1561
ይህች	-1562
ሁለተኛው	-1563
መት	-1564
ሚዛ	-1565
ቃሌ	-1566
አዛ	-1567
ገኛ	-1568
ጨነ	-1569
ፈሰ	-1570
ኢዮር	-1571
የቀረ	-1572
ይሠራ	-1573
ቸዋለህ	-1574
ከይሁዳ	-1575
ወደዚህ	-1576
አልነበረም	-1577
ሙም	-1578
ሜሌ	-1579
ቀል	-1580
ብለ	-1581
ንገ	-1582
ጋሻ	-1583
ጮኹ	-1584
ለትም	-1585
ቆመው	-1586
ኑንም	-1587
አሳብ	-1588
ዓዛር	-1589
ፍቅር	-1590
ያሉትን	-1591
ኢዮርብዓ	-1592
ማዶ	-1593
ሶር	-1594
ሾች	-1595
ከው	-1596
ኪዳ	-1597
እጁን	-1598
ከደነ	-1599
አንዳን	-1600
ክርስቲ	-1601
በመጀመሪያ	-1602
ልቤ	-1603
ልታ	-1604
መሠ	-1605
ርዝ	-1606
በኣ	-1607
ጠግ	-1608
ፈታ	-1609
በእጃ	-1610
አጥን	-1611
እያሉ	-1612
ናውያን	-1613
በመንገድ	-1614
ማዕ	-1615
ቃን	-1616
ዔሳ	-1617
ፍና	-1618
እናት	-1619
እየተ	-1620
ከተሞ	-1621
ዎቹን	-1622
የሚል	-1623
ፈቀቅ	-1624
መድኃኒ	-1625
በተራራ	-1626
ጠላቶች	-1627
አድርገው	-1628
ሊቀ	-1629
ንጫ	-1630
አጋ	-1631
ውና	-1632
ብርቱ	-1633
ያውቅ	-1634
ፈርድ	-1635
ባቸውን	-1636
መዛሙርቱ	-1637
ኤርምያስ	-1638
መቼ	-1639
ቁር	-1640
አረ	-1641
የኢ	-1642
በመጣ	-1643
በምት	-1644
በገባ	-1645
ካህን	-1646
የሌለ	-1647
ደረጉ	-1648
ድረግ	-1649
ጠርቶ	-1650
አደረግ	-1651
በኢየሱስ	-1652
ከተማይቱም	-1653
ምራ	-1654
ሦር	-1655
ሰላ	-1656
አዲ	-1657
ይሻ	-1658
ደድ	-1659
ቃጠል	-1660
ችልም	-1661
ውሰድ	-1662
ዛቸው	-1663
የሆኑ	-1664
ያሉት	-1665
ገደሉ	-1666
አንተን	-1667
ኢያሱም	-1668
ታውቃላችሁ	-1669
የነበሩትን	-1670
እግዚአብሔርንም	-1671
ሁን	-1672
ህሉ	-1673
ዎን	-1674
ጩኸ	-1675
ፍታ	-1676
ሻለሁ	-1677
በሥጋ	-1678
በትር	-1679
ቴንም	-1680
አዘዘ	-1681
ይመስ	-1682
መለከት	-1683
ምድርም	-1684
ታደርጉ	-1685
አለችው	-1686
አቸዋል	-1687
ዮሴፍም	-1688
ጕድጓድ	-1689
በእነርሱ	-1690
ሸሽ	-1691
አዝ	-1692
የሌ	-1693
ያዩ	-1694
ይዘ	-1695
ጠል	-1696
ያውቁ	-1697
ይሄዳ	-1698
ላቸውን	-1699
በአሥራ	-1700
ዓይኖች	-1701
ገለዓድ	-1702
በመሠዊያው	-1703
መላ	-1704
ትላ	-1705
አኪ	-1706
ደዌ	-1707
ጠቦ	-1708
ጸል	-1709
ቀንም	-1710
በፊቴ	-1711
አገኘ	-1712
ይበላ	-1713
ዮሐንስ	-1714
ገንዘብ	-1715
ሠዋ	-1716
ቀላ	-1717
ቦታ	-1718
ኪሩ	-1719
ወሬ	-1720
ደብ	-1721
ጻሜ	-1722
ፈሳ	-1723
ፍሩ	-1724
ሁትን	-1725
ሆንም	-1726
ስለሚ	-1727
በሰን	-1728
በእኛ	-1729
አባቱ	-1730
እግሮ	-1731
ካለው	-1732
ድርግ	-1733
ምሕረት	-1734
ምድርን	-1735
ስምንት	-1736
ተመለሰ	-1737
ቡን	-1738
ዳሉ	-1739
ጮኸ	-1740
ሆነች	-1741
በቤት	-1742
ባትም	-1743
አባቴ	-1744
ዓመፀ	-1745
ይወስ	-1746
ገደለ	-1747
ኃያላን	-1748
ኃጢአትን	-1749
የዘላለም	-1750
በአንድነት	-1751
ንያ	-1752
የራ	-1753
ያዝ	-1754
ጠጡ	-1755
ጣፋ	-1756
ጽፎ	-1757
መሰግ	-1758
ምናሴ	-1759
የብር	-1760
ይላሉ	-1761
ጣቸው	-1762
ለንጉሡ	-1763
ምስጋና	-1764
ነገርን	-1765
ሰሎሞንም	-1766
ቀጥ	-1767
በገ	-1768
ዕን	-1769
ያዙ	-1770
ይን	-1771
ደክ	-1772
ጠይ	-1773
በምን	-1774
አቅር	-1775
አንሥ	-1776
በዚህም	-1777
አቤሴሎ	-1778
የሚገባ	-1779
ባን	-1780
ታጠ	-1781
ኖራ	-1782
ዊት	-1783
ሜሌክ	-1784
በምድ	-1785
ትበላ	-1786
ይሰማ	-1787
ጨረሻ	-1788
ፍጻሜ	-1789
ላችሁን	-1790
ወደዚያ	-1791
ሕዝቅያስ	-1792
የአሕዛብ	-1793
ሐዋ	-1794
ስጡ	-1795
ሶን	-1796
ቅድ	-1797
በና	-1798
ብስ	-1799
እጃ	-1800
ዮስ	-1801
ጋት	-1802
ጥል	-1803
መስገ	-1804
አሮን	-1805
ይሁኑ	-1806
በእስራኤልም	-1807
ሊባ	-1808
ሎሌ	-1809
ሙሉ	-1810
ቅና	-1811
ተር	-1812
ተባ	-1813
ነሡ	-1814
ውር	-1815
ምክር	-1816
ሰዓት	-1817
ቀርባ	-1818
በዓል	-1819
በደቡ	-1820
ኛውም	-1821
የሰማ	-1822
ግንብ	-1823
በባሕር	-1824
ብዙዎች	-1825
ማድ	-1826
ርሳ	-1827
ቀበ	-1828
እሳ	-1829
ደባ	-1830
ፊያ	-1831
ፍላ	-1832
መስግ	-1833
ታልና	-1834
ወርድ	-1835
ጀመረ	-1836
ሐዋርያ	-1837
በሕዝቡ	-1838
አንዱን	-1839
ከደነፆ	-1840
ጴጥሮስ	-1841
የእግዚአብሔርንም	-1842
ለየ	-1843
ሌታ	-1844
መራ	-1845
ቀም	-1846
ወቁ	-1847
ደጅ	-1848
ጥፋ	-1849
ሰውነ	-1850
በተቀ	-1851
ነቢይ	-1852
ነኝና	-1853
ነውር	-1854
ጕልማ	-1855
ፈጸመ	-1856
በከንቱ	-1857
አባቶች	-1858
እምነት	-1859
ቶቻቸውም	-1860
አሕዛብም	-1861
ናቡከደነፆ	-1862
ከቀ	-1863
ዓን	-1864
ግራ	-1865
ጮኽ	-1866
ልቅሶ	-1867
በሆነ	-1868
በረታ	-1869
በእም	-1870
እህል	-1871
ከለዳ	-1872
ይነግ	-1873
መስገጃ	-1874
ዳንኤል	-1875
መጻ	-1876
ሸን	-1877
በቁ	-1878
እጄ	-1879
የባ	-1880
ያይ	-1881
ዬም	-1882
ደጃ	-1883
መልኩ	-1884
ማቸው	-1885
ማችሁ	-1886
በስተ	-1887
ታንም	-1888
ቶቹም	-1889
ሁለቱም	-1890
ባቸውም	-1891
ኢየሱስን	-1892
የነበሩት	-1893
ፈርዖንም	-1894
ሕል	-1895
ማሉ	-1896
ተኝ	-1897
ነካ	-1898
ገሥ	-1899
መጣው	-1900
በቤቱ	-1901
በኵር	-1902
ብረት	-1903
ተላለ	-1904
ታላቁ	-1905
ቶችን	-1906
አለቀ	-1907
ወይፈ	-1908
ዕለት	-1909
ጠላት	-1910
ሆናችሁ	-1911
ተናገሩ	-1912
የሰማይ	-1913
በመንፈስ	-1914
ቻቸውንም	-1915
የተቀደሰ	-1916
ሁኑ	-1917
ሕያ	-1918
መሸ	-1919
ሲካ	-1920
ብታ	-1921
ተረ	-1922
ተሻ	-1923
አና	-1924
ወራ	-1925
የዓ	-1926
ጉም	-1927
ሃቸው	-1928
ለሰው	-1929
ሮችም	-1930
ቢኖር	-1931
ተውም	-1932
አብያ	-1933
አገባ	-1934
የተሰ	-1935
ፈጸም	-1936
ለዳዊት	-1937
ሥልጣን	-1938
በላቸው	-1939
ተኞችን	-1940
ታደርግ	-1941
የሚሆን	-1942
ይሁዳም	-1943
መባ	-1944
ሴኬ	-1945
ተደ	-1946
ኬብ	-1947
የጋ	-1948
ጠነ	-1949
ልጁን	-1950
ምስክ	-1951
ቀርቦ	-1952
በሩም	-1953
ዙፋን	-1954
የሰጠ	-1955
ዳለሁ	-1956
ላችኋል	-1957
ልጆቹም	-1958
መጋረጃ	-1959
ርኵሰት	-1960
ስምዖን	-1961
በሌሊት	-1962
በእጅህ	-1963
ሳሙኤልም	-1964
የሚሆነው	-1965
የሚቃጠለውን	-1966
ለቅ	-1967
ሪም	-1968
ስሜ	-1969
ቂያ	-1970
ቈር	-1971
ባም	-1972
ተዉ	-1973
ዘራ	-1974
ይሞ	-1975
ይረ	-1976
በልቡ	-1977
ኢዮሣ	-1978
ከሰው	-1979
ያልፍ	-1980
ፈሪሳ	-1981
ቸርነት	-1982
ናቸውና	-1983
ወዳለው	-1984
ኃጢአተኛ	-1985
ወንዶችና	-1986
ለሽ	-1987
ሴዴ	-1988
ቼን	-1989
እጆ	-1990
ኪያ	-1991
ዘወ	-1992
ጠሩ	-1993
ጠየ	-1994
ጣም	-1995
በሦስ	-1996
ነትን	-1997
እክት	-1998
የምን	-1999
ፋሲካ	-2000
ለሕዝቡ	-2001
ከግብጽ	-2002
ሁለተኛውም	-2003
አባቶቻቸው	-2004
ከእስራኤልም	-2005
ማማ	-2006
ስል	-2007
ሸሹ	-2008
ኤሊ	-2009
ዕረ	-2010
ዝን	-2011
የሐ	-2012
ግጥ	-2013
ቀበል	-2014
በራሱ	-2015
ተአም	-2016
እመል	-2017
የዚህ	-2018
ልብሱን	-2019
በመንገ	-2020
እጅግም	-2021
የዚያን	-2022
ደረገው	-2023
ሊላ	-2024
ቅሬ	-2025
ብና	-2026
ችና	-2027
ውጡ	-2028
ዳሩ	-2029
ዳግ	-2030
ሮስም	-2031
ተጽፎ	-2032
ኤልያ	-2033
ደርስ	-2034
ገለጥ	-2035
ሁለቱን	-2036
መቃብር	-2037
አደርግ	-2038
ወንድሙ	-2039
መጀመሪያ	-2040
ለራ	-2041
ቤቴ	-2042
ተወ	-2043
ነቱ	-2044
ዘዙ	-2045
ያሰ	-2046
ዳና	-2047
ለምና	-2048
ለፊት	-2049
ላችን	-2050
መቅሠ	-2051
መብል	-2052
በዓይ	-2053
እንቢ	-2054
ከሆነ	-2055
ያንም	-2056
ይወር	-2057
ግብፃ	-2058
ጣፋጭ	-2059
ቅርንጫ	-2060
ነፍሴን	-2061
አስቀድ	-2062
ወንጌል	-2063
ኃጢአተኞች	-2064
ላው	-2065
ቀስ	-2066
ቀና	-2067
ከወ	-2068
ካም	-2069
ደዱ	-2070
ዳቤ	-2071
ጠጋ	-2072
ረኞች	-2073
ሰደደ	-2074
ስድሳ	-2075
በግም	-2076
ብንያ	-2077
ታውቁ	-2078
ዓመፃ	-2079
ይበሉ	-2080
ፍየል	-2081
ልጆችም	-2082
መቅደሱ	-2083
ተዋልና	-2084
ተጠንቀ	-2085
አልሰማ	-2086
አሳልፌ	-2087
ያውያን	-2088
ጻድቃን	-2089
በዮርዳኖስ	-2090
ሶም	-2091
ቀለ	-2092
ቡት	-2093
ካር	-2094
ኮር	-2095
የፈ	-2096
ዱቄ	-2097
ፉን	-2098
መስል	-2099
ራእይ	-2100
ቃሉን	-2101
አልጋ	-2102
አያስ	-2103
አግኝ	-2104
ኢያሪ	-2105
ያመጣ	-2106
ያቃጥ	-2107
ሰማያት	-2108
አለሁና	-2109
አባትህ	-2110
አገልጋ	-2111
ከነዓን	-2112
የተሠራ	-2113
የተቈጠ	-2114
ይወጣል	-2115
ዳግመኛ	-2116
ፍርድን	-2117
ካህናቱም	-2118
የሚያደር	-2119
ለኛ	-2120
ሉና	-2121
ሚያ	-2122
ሞል	-2123
ዘዝ	-2124
ያየ	-2125
ገዳ	-2126
ጥቶ	-2127
ጸሎ	-2128
ተነሡ	-2129
ከተል	-2130
ወንዙ	-2131
የምድ	-2132
የበግ	-2133
ይመለ	-2134
ይነሣ	-2135
ይገድ	-2136
ደጃፍ	-2137
ገደል	-2138
ፈልግ	-2139
በሬዎች	-2140
በግብጽ	-2141
በፍጹም	-2142
አምላኩ	-2143
እባክህ	-2144
ውያንን	-2145
የተጻፈ	-2146
መንደሮች	-2147
መብ	-2148
ሲኦ	-2149
በወ	-2150
ተክ	-2151
ተግ	-2152
ይጨ	-2153
ዳም	-2154
ገዱ	-2155
ጉን	-2156
ጮኻ	-2157
ፀን	-2158
ሱንም	-2159
ቃቸው	-2160
ቃችሁ	-2161
አልቻ	-2162
ዕራብ	-2163
ድርጉ	-2164
ገብቶ	-2165
በመከራ	-2166
በአንቺ	-2167
አይገባ	-2168
ሕዝቡንም	-2169
በፊታቸው	-2170
እርሱንም	-2171
የነበረው	-2172
እንዳዘዘው	-2173
ናቡከደነፆር	-2174
መሐ	-2175
ሣር	-2176
ስስ	-2177
ቃወ	-2178
በሱ	-2179
ብሩ	-2180
ናዳ	-2181
እዩ	-2182
ዘሩ	-2183
የጌ	-2184
ጭን	-2185
ስላል	-2186
ስያስ	-2187
ስድስ	-2188
ስጦታ	-2189
አይቶ	-2190
ወሰዱ	-2191
የምና	-2192
የአገ	-2193
ያልተ	-2194
ይሆኑ	-2195
ጀመር	-2196
ጋቸው	-2197
መግቢያ	-2198
ሳቸውም	-2199
ንጉሡን	-2200
ያገለግ	-2201
ይህችን	-2202
ተሰበሰቡ	-2203
ፍልስጥኤማውያንም	-2204
ሆድ	-2205
ሽቱ	-2206
በጠ	-2207
ታሰ	-2208
ኤላ	-2209
ድሆ	-2210
ፉም	-2211
ሆንህ	-2212
ለዚህ	-2213
ሠራው	-2214
ሳለች	-2215
በደረ	-2216
ጠራው	-2217
ላችሁም	-2218
በጽድቅ	-2219
ተራሮች	-2220
አመስግ	-2221
አሮንም	-2222
ያውቃሉ	-2223
ይሁዳን	-2224
ይሰጣል	-2225
ድንበር	-2226
ወንድሞቹ	-2227
ሐፊ	-2228
ሽታ	-2229
ቍጥ	-2230
እኵ	-2231
ከል	-2232
ግደ	-2233
ጥኣ	-2234
ልሃል	-2235
ሐሰት	-2236
ምልክ	-2237
ባረከ	-2238
አለን	-2239
ኤልሳ	-2240
ወደድ	-2241
ዊውም	-2242
ዛሬም	-2243
ጣችሁ	-2244
ጸሐፊ	-2245
ኮረብታ	-2246
በርሳቸው	-2247
በእምነት	-2248
ትሆናለች	-2249
ደኅንነት	-2250
አገልግሎት	-2251
ወንድሞቹም	-2252
የሚያደርግ	-2253
እያንዳንዱም	-2254
ላቆ	-2255
ሔም	-2256
ሳም	-2257
ቋን	-2258
ታወ	-2259
ችግ	-2260
ይች	-2261
ዶን	-2262
ለውም	-2263
ልጁም	-2264
ምናል	-2265
ሰበስ	-2266
ቀርብ	-2267
በሙሴ	-2268
አዲስ	-2269
እያለ	-2270
ጠባቂ	-2271
ጠቦት	-2272
ስፍራው	-2273
በሕይወ	-2274
ታችሁን	-2275
ነገሥታ	-2276
እንድን	-2277
እንግዲ	-2278
የተመረ	-2279
ዮርዳኖ	-2280
አልዓዛር	-2281
ከእርስዋ	-2282
በመካከላቸው	-2283
ኘው	-2284
ለዋል	-2285
ሮንም	-2286
ስምህ	-2287
በረከ	-2288
ተከት	-2289
አታው	-2290
ወለዱ	-2291
ጠጕር	-2292
ፋቸው	-2293
ሌዋውያ	-2294
ተቀመጥ	-2295
የዳዊት	-2296
አይሆንም	-2297
መሰምርያዋን	-2298
ማው	-2299
ሰኝ	-2300
አሸ	-2301
ከዋ	-2302
ዮዳ	-2303
ፍየ	-2304
መክሊ	-2305
በለው	-2306
ተባት	-2307
ቱንና	-2308
ቶችም	-2309
ናትና	-2310
ከክፉ	-2311
በረከት	-2312
ታላላቆ	-2313
እላለሁ	-2314
ከሕዝቡ	-2315
ፍርሃት	-2316
ምናልባት	-2317
መዛሙርቱም	-2318
ለተ	-2319
በሐ	-2320
አሥ	-2321
ውሰ	-2322
ዕራ	-2323
ዞች	-2324
የነ	-2325
ዱር	-2326
ድስ	-2327
ግፍ	-2328
ሉትን	-2329
ቃሌን	-2330
በልብ	-2331
በሜዳ	-2332
በአራ	-2333
አሜን	-2334
እሄዳ	-2335
ከንፈ	-2336
ዘጋጀ	-2337
ይጠብ	-2338
ራቸውም	-2339
ኢያሪኮ	-2340
የሚችል	-2341
የታመነ	-2342
የአንድ	-2343
የከበረ	-2344
የተናገረ	-2345
በእርስዋም	-2346
መዓ	-2347
ማታ	-2348
ቂጣ	-2349
ባው	-2350
ታያ	-2351
ቸነ	-2352
ከታ	-2353
ከኤ	-2354
ይር	-2355
ደደ	-2356
ጻፍ	-2357
ጽድ	-2358
ሶርያ	-2359
ቅሬታ	-2360
በለዓ	-2361
በኞች	-2362
በኢዮ	-2363
ቤቱም	-2364
ተለይ	-2365
ንቀሳ	-2366
ኖሩት	-2367
ኞችም	-2368
አነሣ	-2369
እሆና	-2370
ይበል	-2371
ይቱም	-2372
ፈልጋ	-2373
መጨረሻ	-2374
ማኅበር	-2375
በሕዝብ	-2376
ቶቻችሁ	-2377
ነገረው	-2378
አስተዋ	-2379
አቸውን	-2380
እለምን	-2381
ጠላቶቼ	-2382
ፈረሶች	-2383
አውቃለሁ	-2384
እውነተኛ	-2385
ጴጥሮስም	-2386
አብርሃምም	-2387
ለእግዚአብሔርም	-2388
ለጥ	-2389
ሌም	-2390
ረጥ	-2391
ስእ	-2392
በከ	-2393
ናም	-2394
ኖኅ	-2395
ዋር	-2396
ይመ	-2397
ዴን	-2398
ለታል	-2399
ቅዱሳ	-2400
በሉት	-2401
ነገሩ	-2402
አትክ	-2403
አውሬ	-2404
እናው	-2405
ወስደ	-2406
ወፎች	-2407
ዎችና	-2408
ዝግባ	-2409
ያመጡ	-2410
ይመል	-2411
ሰላምታ	-2412
በዳዊት	-2413
ነበረና	-2414
ያስተም	-2415
ይለዋል	-2416
ተነሥተው	-2417
እሰጣለሁ	-2418
በመገናኛው	-2419
ባሪያዎችህ	-2420
ተናገራቸው	-2421
ያደረገውን	-2422
መሳ	-2423
ማይ	-2424
ምላ	-2425
ሬን	-2426
በቱ	-2427
ወፍ	-2428
ያር	-2429
ጨው	-2430
ሞትም	-2431
በሌላ	-2432
በቅን	-2433
ታናሽ	-2434
ችውን	-2435
አካዝ	-2436
አድም	-2437
ኢያቡ	-2438
እድል	-2439
ኸውን	-2440
ወጡት	-2441
ዓመፅ	-2442
ዘርግ	-2443
የምስ	-2444
የኢዮ	-2445
ፈንታ	-2446
ሰማርያ	-2447
ሰዎችን	-2448
ቀርበው	-2449
ብላችሁ	-2450
ናገረው	-2451
አራዊት	-2452
አስነሣ	-2453
እንግዳ	-2454
ወስደው	-2455
በእርስዋ	-2456
የኢየሱስ	-2457
የይሁዳም	-2458
ኢዮርብዓም	-2459
ለካ	-2460
ቃም	-2461
ነድ	-2462
ኖሮ	-2463
ኬጢ	-2464
ዓብ	-2465
የሮ	-2466
ዶክ	-2467
ጠቅ	-2468
ላለሁ	-2469
ሐናን	-2470
ምንና	-2471
ምንጭ	-2472
ሰማሁ	-2473
ሰፈር	-2474
በሰሙ	-2475
በቍጣ	-2476
አመሰ	-2477
አበዛ	-2478
እምሮ	-2479
ዔሳው	-2480
ዘወር	-2481
ያለቅ	-2482
ይቀመጣ	-2483
የባቢሎን	-2484
የተቀመጡ	-2485
ያዕቆብን	-2486
ክርስቲያን	-2487
ልቡ	-2488
መሎ	-2489
ትቀ	-2490
ቼም	-2491
ናጸ	-2492
ዓሣ	-2493
ጃን	-2494
ጎች	-2495
ጠሉ	-2496
ጫን	-2497
ለልጅ	-2498
ልጅም	-2499
ሰበሰ	-2500
ቋንቋ	-2501
ተጻፈ	-2502
ኛለህ	-2503
አንጻ	-2504
ከሁሉ	-2505
ወደቁ	-2506
ዘጠኝ	-2507
ደርሶ	-2508
ጠቢብ	-2509
ጽናና	-2510
ሁሉንም	-2511
ሊባኖስ	-2512
በጨለማ	-2513
ትምህር	-2514
ያደረግ	-2515
ይስሐቅ	-2516
ይችላል	-2517
ዮናታን	-2518
ዶምያስ	-2519
በእርግጥ	-2520
በዙሪያው	-2521
ኢዮአብም	-2522
መሥዋዕትና	-2523
ሐሤ	-2524
መቀ	-2525
ሸማ	-2526
ተዘ	-2527
ኋለ	-2528
ኔን	-2529
ኝን	-2530
እቀ	-2531
እኩ	-2532
ወጠ	-2533
ይፈ	-2534
ግቡ	-2535
ፋል	-2536
ሞገስ	-2537
ሥራው	-2538
ቅርብ	-2539
በሮች	-2540
በወጣ	-2541
ታለች	-2542
ኛውን	-2543
አስብ	-2544
አንገ	-2545
እናቱ	-2546
ከጌታ	-2547
ዐውሎ	-2548
ያለሁ	-2549
ያሳድ	-2550
ዱቄት	-2551
ጠየቀ	-2552
ጸልይ	-2553
ፈቀደ	-2554
ሳይሆን	-2555
ተገለጠ	-2556
እስክት	-2557
ደብዳቤ	-2558
ጠቦቶች	-2559
ታቸውንም	-2560
ኃጢአትም	-2561
አሕዛብን	-2562
እሄዳለሁ	-2563
እንዳዘዘ	-2564
ይወድቃሉ	-2565
በእነርሱም	-2566
የሚሆነውን	-2567
የኢየሩሳሌም	-2568
ላጦ	-2569
ረዱ	-2570
ተስ	-2571
ታይ	-2572
ኰራ	-2573
ዝር	-2574
ደሙ	-2575
ጨም	-2576
ለጌታ	-2577
ልጆቻ	-2578
ሙታን	-2579
በልጥ	-2580
በነጋ	-2581
አልፎ	-2582
አስቴ	-2583
አቃጠ	-2584
ዛፎች	-2585
ይፈር	-2586
ገሊላ	-2587
ግምጃ	-2588
ጩኸት	-2589
ጲላጦ	-2590
መምህር	-2591
መክሊት	-2592
በከተማ	-2593
ኤልያስ	-2594
ዘወትር	-2595
የሚወድ	-2596
የእሳት	-2597
ሴዴቅያስ	-2598
በመልካም	-2599
ባቢሎንም	-2600
ላክ	-2601
መህ	-2602
ምሰ	-2603
ሰር	-2604
ሱት	-2605
ሳዶ	-2606
ቸዋ	-2607
ነቀ	-2608
ከስ	-2609
ከፋ	-2610
ክሩ	-2611
ዕው	-2612
የሴ	-2613
ይቈ	-2614
ደመ	-2615
ዶቹ	-2616
ሕልም	-2617
መቅደ	-2618
ሙሴና	-2619
ሰብስ	-2620
ስለት	-2621
በቤቴ	-2622
ታመን	-2623
ታሪክ	-2624
ንስሐ	-2625
እሰጥ	-2626
ከፈተ	-2627
ተመልከ	-2628
ነፍሱን	-2629
አሮንን	-2630
አትፍራ	-2631
አንቀላ	-2632
አይተው	-2633
እጅህን	-2634
ከእኔም	-2635
ኬብሮን	-2636
ወጥተው	-2637
የለውም	-2638
ድንጋጤ	-2639
ጽድቅን	-2640
ማናቸውም	-2641
አለቆችና	-2642
አይደለሁ	-2643
አጠፋለሁ	-2644
ሄሮ	-2645
ለይ	-2646
መኖ	-2647
ምኞ	-2648
ሣጽ	-2649
ሬሳ	-2650
ስታ	-2651
ቀት	-2652
በኛ	-2653
ተሸ	-2654
ኋት	-2655
ኖን	-2656
አኑ	-2657
የፊ	-2658
ይባ	-2659
ጭፍ	-2660
ጽሕ	-2661
ለእኛ	-2662
ቀለበ	-2663
በቀል	-2664
በክፉ	-2665
ቤልም	-2666
ቤቱን	-2667
ትኖራ	-2668
ቶቹን	-2669
ከብዙ	-2670
ከፍል	-2671
ወስዳ	-2672
ድንቅ	-2673
ፍረት	-2674
በግምባ	-2675
አቀረበ	-2676
ከአንቺ	-2677
ይመጣሉ	-2678
ተቀምጠው	-2679
እንስሶች	-2680
ይስሐቅም	-2681
እንዳደረገ	-2682
በየወገናቸው	-2683
ከኢየሩሳሌም	-2684
ላኩ	-2685
መጫ	-2686
ሙሽ	-2687
ሜም	-2688
ራቅ	-2689
ሰች	-2690
ሴን	-2691
ተጣ	-2692
ታር	-2693
አቅ	-2694
አወ	-2695
አዩ	-2696
ዙፋ	-2697
ይጥ	-2698
ላሉት	-2699
ላይም	-2700
መሬት	-2701
መውጫ	-2702
ምስል	-2703
ራምም	-2704
ሰነፍ	-2705
ሰጠኝ	-2706
ስንዴ	-2707
ቁንም	-2708
ቅረብ	-2709
በአጠ	-2710
በውጭ	-2711
በዙፋ	-2712
ናለሁ	-2713
አጸና	-2714
እስማ	-2715
ዝናብ	-2716
ዮዳሄ	-2717
ዱንም	-2718
ጣለሁ	-2719
ጸሎት	-2720
ፍጹም	-2721
ቅያስም	-2722
በሰሜን	-2723
ተኞችም	-2724
ታቀርባ	-2725
ዎችንም	-2726
ያውቃል	-2727
አይችልም	-2728
በመጀመሪያው	-2729
ኢየሩሳሌምን	-2730
ሉን	-2731
መኝ	-2732
ሰለ	-2733
ሰነ	-2734
ሲያ	-2735
በሮ	-2736
በብ	-2737
ባዶ	-2738
ተጋ	-2739
ተፈ	-2740
አሜ	-2741
ዘለ	-2742
የፋ	-2743
ይሳ	-2744
ገም	-2745
ገሠ	-2746
ጓዳ	-2747
ጠፍ	-2748
ጫማ	-2749
መርከ	-2750
ሰምቶ	-2751
በማለ	-2752
በረዶ	-2753
በኣል	-2754
በፍታ	-2755
ባለች	-2756
አለፈ	-2757
አበኔ	-2758
አታል	-2759
አገኙ	-2760
ፎችም	-2761
ሴቲቱም	-2762
በደቡብ	-2763
እናቱም	-2764
ወይፈን	-2765
አለቆችም	-2766
አንደኛው	-2767
ታደርጋለህ	-2768
ሸም	-2769
ሹም	-2770
በች	-2771
ቱና	-2772
ሚዛን	-2773
ሞንም	-2774
ሰጥቶ	-2775
ሲኦል	-2776
በሁሉ	-2777
በተራ	-2778
ተሰር	-2779
ታውቅ	-2780
ትቢያ	-2781
ኞቹም	-2782
አትም	-2783
ኰራኵ	-2784
ወረዱ	-2785
የተለ	-2786
ገበታ	-2787
ፍራት	-2788
አጋንን	-2789
ኤልሳዕ	-2790
እግሮች	-2791
ይላልና	-2792
ይጠፋል	-2793
ማስተዋል	-2794
በርሳችሁ	-2795
በእጃቸው	-2796
በይሁዳም	-2797
ቶቻቸውን	-2798
ወንድምህ	-2799
የሚቃጠል	-2800
የያዕቆብ	-2801
ይናገራሉ	-2802
የእስራኤልንም	-2803
ሥጢ	-2804
በክ	-2805
ብሉ	-2806
ብፁ	-2807
ነጭ	-2808
ኞቹ	-2809
ከባ	-2810
ውኆ	-2811
ያጥ	-2812
ይት	-2813
ይዛ	-2814
ይጐ	-2815
ጠም	-2816
ልመና	-2817
ሕፃን	-2818
ሞትን	-2819
በብር	-2820
ናልና	-2821
አሞራ	-2822
አይታ	-2823
ከተሉ	-2824
ካቸው	-2825
ኸውም	-2826
ዕብራ	-2827
ገኝም	-2828
ሌሊትም	-2829
ራቸውን	-2830
ሰምተው	-2831
በፍርድ	-2832
ባቸዋል	-2833
ተመልሶ	-2834
ተናግሮ	-2835
ንቀጠቀ	-2836
አትፍሩ	-2837
እጁንም	-2838
ወጥመድ	-2839
ይሄዳል	-2840
ዳቸውም	-2841
ጕልማሳ	-2842
መንኰራኵ	-2843
በላያቸው	-2844
በምሥራቅ	-2845
እንደምት	-2846
የይሁዳን	-2847
አምላክህን	-2848
አባቶቻችሁ	-2849
እለምንሃለሁ	-2850
ሲዶ	-2851
ሴም	-2852
ቈጣ	-2853
በጌ	-2854
ከሱ	-2855
ካሉ	-2856
ዋሻ	-2857
የን	-2858
ይደ	-2859
ጋለ	-2860
መሐላ	-2861
ማለት	-2862
ማስቆ	-2863
ኖረው	-2864
እግሩ	-2865
ወለድ	-2866
የቀሩ	-2867
የእኔ	-2868
ይዝራ	-2869
ደንግ	-2870
ጊዜው	-2871
ጠበቅ	-2872
ጥኣን	-2873
ፈሳሽ	-2874
ልባቸው	-2875
ሕዝቤን	-2876
ሕያዋን	-2877
መሰክር	-2878
ምሥራቅ	-2879
ሳኦልን	-2880
ስሙንም	-2881
በኃይል	-2882
በውስጥ	-2883
በደስታ	-2884
በጽዮን	-2885
ብቻውን	-2886
ተሰብስ	-2887
ነገሩት	-2888
ኖቻቸው	-2889
አንሥቶ	-2890
የለምና	-2891
ጠግነት	-2892
ለሚቃጠል	-2893
ለኃጢአት	-2894
መልካሙን	-2895
ምድሪቱን	-2896
በባቢሎን	-2897
ከአባቶቹ	-2898
ወዲያውም	-2899
የአምላካ	-2900
የካህናት	-2901
በከተማይቱ	-2902
ምለ	-2903
ረባ	-2904
ቀኑ	-2905
ቤዠ	-2906
ብድ	-2907
ትወ	-2908
ዋይ	-2909
ጥፍ	-2910
ፍም	-2911
ሄደው	-2912
ልብህ	-2913
ሙትና	-2914
በሥራ	-2915
በደኅ	-2916
በጆሮ	-2917
ኀዘን	-2918
ኃያል	-2919
አላስ	-2920
ኢሳይ	-2921
እናገ	-2922
ከፊት	-2923
ዘውን	-2924
የመቅ	-2925
የተዋ	-2926
የወይ	-2927
ይጠራ	-2928
ደነገ	-2929
ጊብዓ	-2930
ፈስስ	-2931
ፍላጻ	-2932
ፍረተ	-2933
ሌሎችን	-2934
ሕዝብም	-2935
ምናምን	-2936
በወርቅ	-2937
ናቸውን	-2938
ክርክር	-2939
ወርዱም	-2940
ወዲያው	-2941
ዳዊትና	-2942
ራሳቸውን	-2943
ታውቃለህ	-2944
ትሆናለህ	-2945
መንግሥታት	-2946
በሰባተኛው	-2947
ከለዳውያን	-2948
ለእስራኤልም	-2949
ልሽ	-2950
ሳድ	-2951
ባስ	-2952
ወዝ	-2953
ዩን	-2954
ይሉ	-2955
ይና	-2956
ዴዎ	-2957
ገነ	-2958
ጠጥ	-2959
ሕፃና	-2960
ሪዎች	-2961
ሰጠን	-2962
ሸክም	-2963
ቀርቡ	-2964
በመስ	-2965
በእጄ	-2966
ተምር	-2967
ነፍሳ	-2968
አኖረ	-2969
አክሊ	-2970
አያው	-2971
እስክ	-2972
ከጥሩ	-2973
ክፉን	-2974
ኳንን	-2975
ዛብሎ	-2976
ያችሁ	-2977
ገረዙ	-2978
ገባው	-2979
ጢሮስ	-2980
ርዝመቱ	-2981
ሰዎቹም	-2982
ተግሣጽ	-2983
ትእዛዙ	-2984
አቀረቡ	-2985
አንጻር	-2986
እንደም	-2987
ከሙታን	-2988
ከንጉሡ	-2989
የሚመጣ	-2990
ይበላል	-2991
ጃንደረ	-2992
ጥበብን	-2993
ለእነርሱ	-2994
መድኃኒት	-2995
ሳቸውንም	-2996
በማደሪያ	-2997
በሰንበት	-2998
በእነዚህ	-2999
ባቸዋለሁ	-3000
አትክልት	-3001
እናንተን	-3002
ከአንተም	-3003
ወንድሞቼ	-3004
ይናገራል	-3005
አምስተኛው	-3006
ሕጉ	-3007
ረፈ	-3008
ተካ	-3009
ተጕ	-3010
ትዮ	-3011
አቁ	-3012
ከሐ	-3013
ወተ	-3014
ዊም	-3015
ዓለ	-3016
የረ	-3017
የዳ	-3018
ይዙ	-3019
ዳት	-3020
ጃጅ	-3021
ጽጳ	-3022
ሰዋል	-3023
ቀንደ	-3024
በገና	-3025
በገዛ	-3026
ባልዋ	-3027
ተዘጋ	-3028
ትዮጵ	-3029
ንግሥ	-3030
አፈር	-3031
እንቅ	-3032
ውኃም	-3033
ይሄዱ	-3034
ለሰልፍ	-3035
ልጆችና	-3036
መኖሪያ	-3037
ሰማያዊ	-3038
በትንም	-3039
በእርሻ	-3040
በዓለም	-3041
ባሪያዬ	-3042
ታችሁም	-3043
አእምሮ	-3044
የግብጽ	-3045
ያስተው	-3046
ይሞታል	-3047
ገደሉት	-3048
ልጆቻችሁ	-3049
አደረገው	-3050
እንግዶች	-3051
ድንጋዮች	-3052
ሆኜ	-3053
ሬም	-3054
ስደ	-3055
ታደ	-3056
ኘት	-3057
ዶል	-3058
ገዥ	-3059
ጤክ	-3060
ጻፉ	-3061
መልአ	-3062
መናፍ	-3063
ምሥጢ	-3064
ቃልህ	-3065
በባሕ	-3066
በትና	-3067
በዳም	-3068
ተናል	-3069
ተኛም	-3070
ትሰጣ	-3071
አህያ	-3072
አምባ	-3073
አዎን	-3074
እስካ	-3075
የተጠ	-3076
ድምፁ	-3077
ግብር	-3078
ፈረሶ	-3079
ሆኖአል	-3080
መሠረት	-3081
መንገሥ	-3082
መዝሙር	-3083
ምሕረቱ	-3084
ሰውንም	-3085
ስንፍና	-3086
በዚህች	-3087
ተጕዘው	-3088
ታላችሁ	-3089
ቻችሁን	-3090
አባቱም	-3091
አንተና	-3092
እናውቃ	-3093
እናደር	-3094
እውቀት	-3095
ከወዴት	-3096
ዓይነት	-3097
የባሪያ	-3098
የተቀረ	-3099
ይሻላል	-3100
ይባላል	-3101
ይጠብቁ	-3102
ብንያምም	-3103
ተመልከት	-3104
አድርገህ	-3105
እስማኤል	-3106
እንዳለው	-3107
እውነትን	-3108
ከእነዚህ	-3109
ዮናታንም	-3110
ለዘላለምም	-3111
አባቶቻችን	-3112
ክርስቶስን	-3113
ፈሪሳውያን	-3114
ሄዶ	-3115
ለጋ	-3116
ሥሩ	-3117
ሮቹ	-3118
በቴ	-3119
በጭ	-3120
አፌ	-3121
ከደ	-3122
ኵላ	-3123
ወላ	-3124
የደ	-3125
ይቆ	-3126
ዲያ	-3127
ግዛ	-3128
መሆኑ	-3129
መሠረ	-3130
ሞተም	-3131
ርሳቤ	-3132
ሮብዓ	-3133
ሴቲቱ	-3134
ሺህም	-3135
በቀኝ	-3136
ባትን	-3137
ብሃል	-3138
ቻችን	-3139
ነህና	-3140
አምጡ	-3141
አሰና	-3142
አበባ	-3143
እጅህ	-3144
ውሰዱ	-3145
የላከ	-3146
ገነት	-3147
ጐናጸ	-3148
ፈጽም	-3149
ሰረገላ	-3150
በተቀደ	-3151
በአደባ	-3152
በዚያች	-3153
ኢይዝራ	-3154
ከወሩም	-3155
የሰውን	-3156
የግብፅ	-3157
ድንኳኑ	-3158
በልባቸው	-3159
ተጠንቀቁ	-3160
አዘዛቸው	-3161
አይሁድም	-3162
ኢዮሣፍጥ	-3163
ከአሕዛብ	-3164
የሚናገር	-3165
ይላቸዋል	-3166
ሌዋውያኑም	-3167
ሕዝቅያስም	-3168
እናገራለሁ	-3169
ዮርዳኖስን	-3170
ከፍልስጥኤማ	-3171
ሎም	-3172
ሠዉ	-3173
ታቦ	-3174
ታድ	-3175
ወጋ	-3176
ጡም	-3177
ጸጥ	-3178
ፋስ	-3179
ህንና	-3180
ለማን	-3181
ለራሱ	-3182
ርግብ	-3183
ሰልፈ	-3184
ስድብ	-3185
ቂርያ	-3186
በአር	-3187
በእሳ	-3188
በጠላ	-3189
ባታል	-3190
ቤትህ	-3191
ተሸክ	-3192
ተከለ	-3193
ትልቅ	-3194
ኑትን	-3195
አላው	-3196
አስቀ	-3197
አገሩ	-3198
ከፍታ	-3199
ወንጌ	-3200
ወዳጅ	-3201
የሞተ	-3202
የናስ	-3203
የውኃ	-3204
ይባር	-3205
ይጮኻ	-3206
ገለባ	-3207
ጠማማ	-3208
ጠይቅ	-3209
በሰላም	-3210
በሰልፍ	-3211
በዓይን	-3212
ነበርሁ	-3213
እኵሌታ	-3214
ከከተማ	-3215
ዕረፍት	-3216
የእህሉ	-3217
ይገባል	-3218
ፈጽመው	-3219
ለማድረግ	-3220
ምድሪቱም	-3221
አንቀላፋ	-3222
የምድርም	-3223
ይሆናልና	-3224
የክርስቶስ	-3225
ሴቦ	-3226
ቄም	-3227
በባ	-3228
ታጥ	-3229
ዋና	-3230
ዑል	-3231
ዖን	-3232
የሜ	-3233
ዳይ	-3234
ሊሆን	-3235
ላቶች	-3236
ሕግን	-3237
መስለ	-3238
ሰጥቼ	-3239
በላዩ	-3240
ተማረ	-3241
ተማር	-3242
ታዘዙ	-3243
ታጠፋ	-3244
ትተው	-3245
አብዝ	-3246
አፈሰ	-3247
ወሪያ	-3248
ወድቆ	-3249
ዕንቍ	-3250
ዕጣን	-3251
የበደ	-3252
የገዛ	-3253
ይገዛ	-3254
ጸልዩ	-3255
ልጆቹን	-3256
መለከቱ	-3257
መላለስ	-3258
መሳፍን	-3259
ሩአቸው	-3260
ሬአለሁ	-3261
በኵራት	-3262
ተመለስ	-3263
ነገዶች	-3264
አቅርቡ	-3265
አድነኝ	-3266
ያስነሣ	-3267
ዳቸውን	-3268
ጽኑዓን	-3269
ሦስተኛው	-3270
ሰረገሎች	-3271
ባችኋለሁ	-3272
ተመለከተ	-3273
ተጽፎአል	-3274
አራተኛው	-3275
መስገጃዎች	-3276
በሁለተኛው	-3277
ቶቻቸውንም	-3278
እሰጥሃለሁ	-3279
መመ	-3280
መሣ	-3281
ረሳ	-3282
ራው	-3283
ሰረ	-3284
በን	-3285
በጉ	-3286
ክል	-3287
ዋት	-3288
የዋ	-3289
ግዱ	-3290
ጓዙ	-3291
ጕን	-3292
ሊገና	-3293
ሰገዱ	-3294
በሕግ	-3295
በቀን	-3296
በቤተ	-3297
ተባለ	-3298
ነፍሰ	-3299
ናዊው	-3300
አውጥ	-3301
ከብር	-3302
ወርዱ	-3303
ወድቅ	-3304
ዓይኔ	-3305
ዘካር	-3306
የመቶ	-3307
የመጣ	-3308
የቀደ	-3309
ይሰጡ	-3310
ደጆች	-3311
ገውን	-3312
ፈጥኖ	-3313
ፊቱን	-3314
ሁለትም	-3315
ልሃለሁ	-3316
ልጆችህ	-3317
ሐሰተኛ	-3318
መልሰው	-3319
መዛግብ	-3320
ማዕዘን	-3321
ሰበሰበ	-3322
ተቀበሉ	-3323
ኛላችሁ	-3324
አላገኘ	-3325
አልሰሙ	-3326
አንዲቱ	-3327
እኔንም	-3328
እንስሶ	-3329
ክፋትን	-3330
ወደምት	-3331
የተባለ	-3332
ይቀመጡ	-3333
በሰማርያ	-3334
ባሪያዎቹ	-3335
ትምህርት	-3336
እሆናለሁ	-3337
ወንድሙን	-3338
የሚመስል	-3339
የቀረውም	-3340
ያስተሰር	-3341
ይወድቃል	-3342
ሶርያውያን	-3343
አምላክህም	-3344
ከእናንተም	-3345
የተቈጠሩት	-3346
እስራኤልንም	-3347
ሎን	-3348
ሞሉ	-3349
ስር	-3350
ትቶ	-3351
ኑና	-3352
እሾ	-3353
ያና	-3354
ደገ	-3355
ጋል	-3356
ጥና	-3357
ፋሉ	-3358
ላለች	-3359
ሌላም	-3360
ልሔም	-3361
መቅረ	-3362
ሞልቶ	-3363
ሠሩት	-3364
ሠርቶ	-3365
በመር	-3366
በመጡ	-3367
በማኅ	-3368
በውስ	-3369
በድን	-3370
አመለ	-3371
አመን	-3372
እልፍ	-3373
እረኛ	-3374
ከበረ	-3375
ከበር	-3376
ከደቀ	-3377
ወልድ	-3378
ወጣው	-3379
ዊውን	-3380
የቃል	-3381
የወር	-3382
ያለች	-3383
ያዘዝ	-3384
ይባረ	-3385
ዮሐን	-3386
ድምፃ	-3387
ድኃኒ	-3388
ሁላቸው	-3389
ልባችሁ	-3390
ሕዝብህ	-3391
መልአኩ	-3392
መተላለ	-3393
መዝገብ	-3394
በሁለት	-3395
በኮረብ	-3396
በጀመረ	-3397
ባልንጀ	-3398
ተቀበረ	-3399
የሚሰማ	-3400
ይደረግ	-3401
ይጠፋሉ	-3402
ፀሐይም	-3403
ለአሕዛብ	-3404
ለእርሱም	-3405
መንገዱን	-3406
ሠራዊቱም	-3407
በድንጋይ	-3408
አታድርጉ	-3409
እነርሱን	-3410
እንደሚያ	-3411
እውቀትን	-3412
የተለወሰ	-3413
የተናገር	-3414
ያገለግሉ	-3415
እንዳይሆን	-3416
ክርስቶስም	-3417
ሀብ	-3418
ሄል	-3419
ለፉ	-3420
ልጥ	-3421
ሣኤ	-3422
ረጅ	-3423
በጋ	-3424
ብዛ	-3425
ትጠ	-3426
ነቅ	-3427
ኑር	-3428
ያዣ	-3429
ይዝ	-3430
ደካ	-3431
ጉት	-3432
ጨካ	-3433
ጸጸ	-3434
ሃልን	-3435
ለበት	-3436
መታሰ	-3437
ረዋል	-3438
ርስቱ	-3439
ሮችን	-3440
ሰጡት	-3441
ሴኬም	-3442
ሸክላ	-3443
በለስ	-3444
በልቤ	-3445
ባሉት	-3446
ቤትም	-3447
ቤትና	-3448
ተቈጣ	-3449
ታንን	-3450
ነፍሱ	-3451
እኅት	-3452
እጥፍ	-3453
የሚቀ	-3454
የማን	-3455
ያምኑ	-3456
ያቸው	-3457
ይሰጣ	-3458
ይሰጥ	-3459
ድንም	-3460
ገኛል	-3461
ፈሩት	-3462
ፊቴን	-3463
መጠጊያ	-3464
ሚስቱን	-3465
በስውር	-3466
በእኔና	-3467
በደመና	-3468
በፊቱም	-3469
ችግረኛ	-3470
ነገሮች	-3471
አሮንና	-3472
አባቱን	-3473
አብረው	-3474
እኩሌታ	-3475
ወዳጆች	-3476
የሚሄድ	-3477
የሚበላ	-3478
የሰሎሞ	-3479
የእህል	-3480
ያመሰግ	-3481
ጌልገላ	-3482
ጠራቸው	-3483
ጤክስስ	-3484
መላእክት	-3485
መቅሠፍት	-3486
መንፈስም	-3487
መገናኛው	-3488
በመቅደስ	-3489
በመንግሥ	-3490
ብሎአልና	-3491
እነዚያም	-3492
እንዲሆኑ	-3493
ወርወሪያ	-3494
ይበላችሁ	-3495
በዙሪያውም	-3496
ተሰብስበው	-3497
ከተማይቱን	-3498
የተናገረውን	-3499
ለቱ	-3500
ለአ	-3501
ልጶ	-3502
ማዳ	-3503
ትታ	-3504
ቶን	-3505
ችላ	-3506
ኅኒ	-3507
ናስ	-3508
ኦር	-3509
ኵራ	-3510
ዐፀ	-3511
ዞት	-3512
የሱ	-3513
የጽ	-3514
ደል	-3515
ጠና	-3516
ፀነ	-3517
ፈተ	-3518
ፌር	-3519
ሁበት	-3520
ሦስቱ	-3521
ሰማያ	-3522
ሰገደ	-3523
ሳለህ	-3524
ስሙን	-3525
ሸከሙ	-3526
በላዬ	-3527
በታላ	-3528
ተንኰ	-3529
ታናሹ	-3530
ትሆን	-3531
ኃይሉ	-3532
ኞችን	-3533
አውቆ	-3534
አጥብ	-3535
እርግ	-3536
ከሩቅ	-3537
ያዘጋ	-3538
ይፈሩ	-3539
ደቡብ	-3540
ደዋል	-3541
ድሆች	-3542
ጃችሁ	-3543
ገኘው	-3544
ግብዣ	-3545
ጣለች	-3546
ፈረስ	-3547
መርዶክ	-3548
መኳንን	-3549
ምለኪያ	-3550
ሲናገር	-3551
ቀንበር	-3552
በሞዓብ	-3553
በሰረገ	-3554
በሸለቆ	-3555
በኋላም	-3556
አንድም	-3557
አይሁን	-3558
ኢያቡሳ	-3559
እንዳላ	-3560
ከዳዊት	-3561
ዓመትም	-3562
ይናገሩ	-3563
ይወጣሉ	-3564
ይገደል	-3565
ሁለቱንም	-3566
ሁልጊዜም	-3567
ለያዕቆብ	-3568
ተመልከቱ	-3569
ተነሥተህ	-3570
ተአምራት	-3571
ንገራቸው	-3572
አቤሴሎም	-3573
አይደለች	-3574
የሕይወት	-3575
ይመለሳል	-3576
ባልንጀራው	-3577
አድርጋችሁ	-3578
እመልሳለሁ	-3579
ከነዓናውያን	-3580
ለል	-3581
ለባ	-3582
ለፈ	-3583
ረቡ	-3584
ራሔ	-3585
ቅጥ	-3586
ትሸ	-3587
አሞ	-3588
አዕ	-3589
እህ	-3590
እሸ	-3591
ዔሊ	-3592
ዘገ	-3593
የዮ	-3594
ጢስ	-3595
ጸያ	-3596
ሁሉና	-3597
ሁትም	-3598
መልሱ	-3599
መርም	-3600
መታው	-3601
ሰናከ	-3602
ስሙም	-3603
ሶንም	-3604
ቃሎች	-3605
ቈረጠ	-3606
ታላቂ	-3607
ናገራ	-3608
ንገረ	-3609
እሠራ	-3610
እሰድ	-3611
እጄን	-3612
ወድድ	-3613
የሚሉ	-3614
የነገ	-3615
ያነሣ	-3616
ያከብ	-3617
ይሰሙ	-3618
ይስጥ	-3619
ይቱን	-3620
ይገለ	-3621
ገመድ	-3622
ጌታም	-3623
ጌታን	-3624
ጥንት	-3625
ጻፎች	-3626
ፍርም	-3627
ለውንም	-3628
ሕዝቤም	-3629
መለከተ	-3630
ምድሪቱ	-3631
ሰላምን	-3632
ስእለት	-3633
ቀበሩት	-3634
በሐሰት	-3635
በሦስት	-3636
ተቀበል	-3637
ቻችሁም	-3638
ኋለኛው	-3639
አኖረው	-3640
ያስጨን	-3641
ይነሣል	-3642
ገዋለሁ	-3643
ፍየሎች	-3644
መዛሙርት	-3645
ምሕረትን	-3646
ቀለበቶች	-3647
በመሠዊያ	-3648
በሰማያት	-3649
ናቸውንም	-3650
እንደሆነ	-3651
እጃቸውን	-3652
ከነበሩት	-3653
የሚቀመጡ	-3654
የተመረጡ	-3655
ፈረሰኞች	-3656
አይደለሁም	-3657
የሚኖሩትን	-3658
ሮት	-3659
ሲና	-3660
ቀይ	-3661
ቆች	-3662
ቈላ	-3663
ብያ	-3664
ተከ	-3665
ቲቱ	-3666
ቻት	-3667
ከድ	-3668
ውስ	-3669
ዞረ	-3670
የሳ	-3671
ይማ	-3672
ገሣ	-3673
ጐደ	-3674
ጫፍ	-3675
ጸን	-3676
ሊገድ	-3677
መስኮ	-3678
ሰባቱ	-3679
ሰውዮ	-3680
ስጠኝ	-3681
ቀንና	-3682
በራል	-3683
በብል	-3684
በትዕ	-3685
በወገ	-3686
ባለሁ	-3687
ታመኑ	-3688
ነጃጅ	-3689
አልቅ	-3690
አታስ	-3691
አክዓ	-3692
ካችሁ	-3693
ውረድ	-3694
ዓምድ	-3695
ዘምሩ	-3696
የሥጋ	-3697
ይመጡ	-3698
ይደር	-3699
ሁላችን	-3700
ሌሎችም	-3701
መንፈሳ	-3702
ሚስቶች	-3703
ሮቻቸው	-3704
ቂርያት	-3705
በላችሁ	-3706
በዘይት	-3707
ባለችው	-3708
ቤርሳቤ	-3709
ተአምራ	-3710
ትዕቢት	-3711
አማልክ	-3712
አንገት	-3713
ኢያሱን	-3714
ወሰደው	-3715
ዊውንም	-3716
የሚሠራ	-3717
የንጉሥ	-3718
የጌታን	-3719
ያቀርቡ	-3720
ጠቢባን	-3721
ፊትህን	-3722
መለሰለት	-3723
መጋረጆች	-3724
በንጉሡም	-3725
ተከተሉት	-3726
አሉአቸው	-3727
አመስግኑ	-3728
ከተሞችና	-3729
ከዘላለም	-3730
ክርስቲያ	-3731
የሚበልጥ	-3732
የንጉሡን	-3733
ሌዋውያንም	-3734
ባሪያዎቹም	-3735
ለእያንዳንዱ	-3736
ምሽ	-3737
ሣት	-3738
በኝ	-3739
ተመ	-3740
ተሽ	-3741
ታዩ	-3742
ቴዎ	-3743
ነቴ	-3744
ክፈ	-3745
ወዱ	-3746
ዐመ	-3747
ዝቅ	-3748
የቆ	-3749
የገ	-3750
ጕብ	-3751
ፈህ	-3752
ፍህ	-3753
ለመን	-3754
ልባል	-3755
መራራ	-3756
ማለች	-3757
ማርያ	-3758
ምግብ	-3759
ሥራት	-3760
ረኛው	-3761
ሲዶና	-3762
ቍስል	-3763
በቃል	-3764
ታንያ	-3765
ትሁን	-3766
ነውም	-3767
አግብ	-3768
እልል	-3769
እርም	-3770
እወቁ	-3771
ከማቹ	-3772
ካሉት	-3773
ክብሩ	-3774
የሞላ	-3775
ያደረ	-3776
ይሄድ	-3777
ይሰድ	-3778
ይሰጠ	-3779
ገረዝ	-3780
ጨነቁ	-3781
ፈርስ	-3782
ለአሥራ	-3783
ለይሁዳ	-3784
ልጆችን	-3785
መቅሠፍ	-3786
መንገዱ	-3787
መፍራት	-3788
ራስህን	-3789
ስምህን	-3790
ቀንዶች	-3791
ቁርበት	-3792
በሁለቱ	-3793
በቤቱም	-3794
በነበረ	-3795
በንጉሥ	-3796
በአባቱ	-3797
በክብር	-3798
በደኅና	-3799
ቤቱንም	-3800
ቶቹንም	-3801
ቶቻችን	-3802
ቸነፈር	-3803
ኃጢአቱ	-3804
አችኋል	-3805
አንቺም	-3806
አክሊል	-3807
አደርጋ	-3808
እስትን	-3809
እናቱን	-3810
እንዳስ	-3811
ዓመፀኛ	-3812
የክብር	-3813
ይሄዳሉ	-3814
ይመለስ	-3815
ይመልስ	-3816
ዮሴፍን	-3817
ገባቸው	-3818
ልጆቹንም	-3819
መልካምም	-3820
መታሰቢያ	-3821
ሰባተኛው	-3822
ንጉሡንም	-3823
አቤሜሌክ	-3824
ኤልያስም	-3825
ከኢየሱስ	-3826
የተቀመጠ	-3827
የተወለደ	-3828
በሦስተኛው	-3829
አምላካቸው	-3830
እናውቃለን	-3831
እንዳደረግ	-3832
እንግዲህም	-3833
በመካከላችሁ	-3834
ታቀርባላችሁ	-3835
አደርገዋለሁ	-3836
እያንዳንዳቸው	-3837
ሕሊ	-3838
ሬስ	-3839
ርቅ	-3840
ሴር	-3841
ታች	-3842
ትዋ	-3843
ነፉ	-3844
ከሳ	-3845
ክም	-3846
ዕዳ	-3847
ይዋ	-3848
ይጣ	-3849
ደና	-3850
ድህ	-3851
ድላ	-3852
ጠች	-3853
ጭል	-3854
ጸኑ	-3855
ፈጣ	-3856
ሆነህ	-3857
ሆንን	-3858
ልጅህ	-3859
መቱም	-3860
ሦርም	-3861
ራስህ	-3862
ርጉም	-3863
ሳንቃ	-3864
ቀንድ	-3865
በላም	-3866
በምስ	-3867
በበሩ	-3868
ቡንም	-3869
ተዘል	-3870
ታንኳ	-3871
ትዕቢ	-3872
ችሉም	-3873
ችበት	-3874
ነደደ	-3875
ናዳብ	-3876
አምጥ	-3877
አሳድ	-3878
አደራ	-3879
እንባ	-3880
ከሀያ	-3881
ክንፍ	-3882
ወደዱ	-3883
ዝበዛ	-3884
የሌዊ	-3885
የመረ	-3886
የዘን	-3887
ዬንም	-3888
ይጠቅ	-3889
ደስም	-3890
ገልጦ	-3891
ጥርስ	-3892
ጻፈው	-3893
ፈረሱ	-3894
ፉንም	-3895
መለስም	-3896
ሙሴንና	-3897
ማንንም	-3898
ራውያን	-3899
ሰንበት	-3900
በነገሠ	-3901
ብትሆን	-3902
ተዘጋጅ	-3903
ኃፍረተ	-3904
ነጋገር	-3905
ነፋስም	-3906
አለቃው	-3907
አልዓዛ	-3908
አርነት	-3909
አዘጋጀ	-3910
ኢዮሣፍ	-3911
ክፉዎች	-3912
ወስደህ	-3913
ወንድሜ	-3914
ዛብሎን	-3915
የሚነካ	-3916
የሚኖር	-3917
የተስፋ	-3918
የአሦር	-3919
ያወጣል	-3920
ይፈልጉ	-3921
በኤፍሬም	-3922
በከነዓን	-3923
በፊታችሁ	-3924
ተመልሰው	-3925
ነገራቸው	-3926
አሳልፈው	-3927
አይሁዳዊ	-3928
እንቅልፍ	-3929
የሕዝቡን	-3930
የኃጢአት	-3931
ያውያንም	-3932
ያደርጋሉ	-3933
ግልሙትና	-3934
መወርወሪያ	-3935
ትበላላችሁ	-3936
የሚያደርጉ	-3937
የአብርሃም	-3938
በመካከላቸውም	-3939
ሌዊ	-3940
ሐን	-3941
ሜሎ	-3942
ራሽ	-3943
ሰበ	-3944
በሴ	-3945
ነሽ	-3946
ኸን	-3947
ዚች	-3948
የላ	-3949
ደቅ	-3950
ዴስ	-3951
ድሁ	-3952
ጆቹ	-3953
ጭቃ	-3954
ፉት	-3955
ፍቺ	-3956
ለንና	-3957
ልኛል	-3958
ልኝም	-3959
ሙንም	-3960
ማታም	-3961
ማዳን	-3962
ርኵስ	-3963
ሮአል	-3964
ሹማም	-3965
በርና	-3966
በተን	-3967
ብሩን	-3968
ብዙም	-3969
ተገና	-3970
ነጋዴ	-3971
ንቀት	-3972
አስታ	-3973
አወቅ	-3974
አይቻ	-3975
ክብት	-3976
ወስድ	-3977
ዓመቱ	-3978
የመጡ	-3979
ያንን	-3980
ያያል	-3981
ይቀበ	-3982
ዶችም	-3983
ፊልጶ	-3984
ለሰማይ	-3985
መሣሪያ	-3986
መስማት	-3987
መከራን	-3988
መጐናጸ	-3989
ምሥጢር	-3990
ምስሎች	-3991
ሥራውን	-3992
ሰጣችሁ	-3993
በናያስ	-3994
በአልጋ	-3995
በደረሰ	-3996
በፍቅር	-3997
ባችኋል	-3998
ብፁዓን	-3999
ትንሣኤ	-4000
ትእዛዜ	-4001
ቸዋልና	-4002
ቼአለሁ	-4003
ነቢዩም	-4004
አስተም	-4005
አስወግ	-4006
አብያተ	-4007
ኢትዮጵ	-4008
ኪሩቤል	-4009
ክፉውን	-4010
ዓመታት	-4011
የተሠሩ	-4012
ያውንም	-4013
ይቀመጥ	-4014
ይኖራሉ	-4015
ገብተው	-4016
ጋለሞታ	-4017
ለራሳቸው	-4018
ለባሪያህ	-4019
ልጆቻቸው	-4020
ሐዋርያት	-4021
ሕይወትን	-4022
ምስክሮች	-4023
ምናምንቴ	-4024
ነበልባል	-4025
አልቻሉም	-4026
የተባረከ	-4027
ያለበትን	-4028
ይወስዳል	-4029
ጥበበኞች	-4030
ለእነርሱም	-4031
አቤሴሎምም	-4032
አንዳንዶቹ	-4033
በሰባተኛውም	-4034
በየአባቶቻቸው	-4035
ላማ	-4036
ማቅ	-4037
ሣራ	-4038
ረኝ	-4039
ረደ	-4040
ራሪ	-4041
ርት	-4042
ቃይ	-4043
ቆስ	-4044
ቢል	-4045
ኑሮ	-4046
ንግ	-4047
ዛል	-4048
የቅ	-4049
ጐራ	-4050
ጥራ	-4051
ጫኑ	-4052
ፈወ	-4053
ፍጹ	-4054
ህበት	-4055
ለብቻ	-4056
ሎአል	-4057
ሐውል	-4058
መለመ	-4059
መልከ	-4060
መጣም	-4061
ማለዳ	-4062
ምነው	-4063
ሰጥህ	-4064
ሳለን	-4065
ቀበሉ	-4066
ቀዋል	-4067
በሀያ	-4068
በሚያ	-4069
በማስ	-4070
በራብ	-4071
በፈቃ	-4072
ቢሆኑ	-4073
ተደነ	-4074
ትችላ	-4075
ትወር	-4076
ኃይለ	-4077
አሰበ	-4078
አቆመ	-4079
አውቃ	-4080
ኤልም	-4081
ከጠላ	-4082
ኬልቅ	-4083
ወልደ	-4084
ወይኑ	-4085
ወደው	-4086
ዘምራ	-4087
ይኖር	-4088
ይከፍ	-4089
ይዋጋ	-4090
ዮችን	-4091
ድካም	-4092
ገልጥ	-4093
ግሪክ	-4094
ጎዶል	-4095
ጠፋም	-4096
ጸለየ	-4097
ፈለጉ	-4098
ፋችሁ	-4099
ሉአቸው	-4100
መላእክ	-4101
መጻተኛ	-4102
ማርያም	-4103
ማውያን	-4104
ምዕራብ	-4105
ርዝመት	-4106
ሳላችሁ	-4107
ሽንገላ	-4108
በማለዳ	-4109
ባለጠጋ	-4110
ብላቴኖ	-4111
ተለይቶ	-4112
ንቀሳቃ	-4113
አታውቁ	-4114
አውድማ	-4115
አዘጋጁ	-4116
እሰበስ	-4117
ከሁለት	-4118
ከአሥር	-4119
ከአንድ	-4120
ከፀሐይ	-4121
ወርቅና	-4122
ወሰዱት	-4123
ወንዞች	-4124
የሞዓብ	-4125
የአሮን	-4126
ይለኛል	-4127
ይበላሉ	-4128
አምላክም	-4129
ኢሳይያስ	-4130
ከምድርም	-4131
ዘካርያስ	-4132
ለአብርሃም	-4133
ቅርንጫፎች	-4134
በአሕዛብም	-4135
ኤርምያስም	-4136
የማምለኪያ	-4137
በሁለተኛውም	-4138
ባልንጀራውን	-4139
ወንድሞቻቸው	-4140
ሄኖ	-4141
ሆም	-4142
ርብ	-4143
ሰሜ	-4144
ሰቡ	-4145
ቃና	-4146
ቃያ	-4147
ቈጡ	-4148
በነ	-4149
በጣ	-4150
አጣ	-4151
ኢዩ	-4152
ኤፉ	-4153
ካሌ	-4154
ካሳ	-4155
ዖዝ	-4156
የሶ	-4157
የይ	-4158
የጠ	-4159
ጣለ	-4160
ጮች	-4161
ፈኛ	-4162
ፋም	-4163
ፍሪ	-4164
ፍቶ	-4165
ለሞት	-4166
ሌላው	-4167
ሬንም	-4168
ሳዶቅ	-4169
ሸማያ	-4170
ቀውም	-4171
ቍጣው	-4172
በራስ	-4173
በስሜ	-4174
በዋል	-4175
ትሞታ	-4176
ትንቢ	-4177
አታም	-4178
አያሌ	-4179
አይቀ	-4180
ኢዮብ	-4181
እኔስ	-4182
እየሰ	-4183
ከልክ	-4184
ክምር	-4185
የማያ	-4186
የኢፍ	-4187
የደረ	-4188
ያማረ	-4189
ደሙን	-4190
ደኅና	-4191
ድንግ	-4192
ገቡም	-4193
ገድል	-4194
ጋለን	-4195
ግዛት	-4196
ፈለግ	-4197
ፍርዴ	-4198
መላለሱ	-4199
መሎጊያ	-4200
መርከብ	-4201
ሞገስን	-4202
ሠራዊቱ	-4203
ራሱንም	-4204
ሰረገሎ	-4205
ሰበሰቡ	-4206
ቅንዓት	-4207
በስምን	-4208
በጥበብ	-4209
ባለበት	-4210
ተመልክ	-4211
ታችኋል	-4212
አልወደ	-4213
እርሱና	-4214
እንሂድ	-4215
እንዳያ	-4216
ከንፈር	-4217
ወርቅም	-4218
ዕጣንም	-4219
የሚሄዱ	-4220
የሚባል	-4221
የሚያሰ	-4222
የአባት	-4223
ያለበት	-4224
ያደረጉ	-4225
ይናገር	-4226
ገልገል	-4227
ፈልገው	-4228
ለልጆቹም	-4229
መልካምን	-4230
መናፍስት	-4231
ምድርንም	-4232
ራቸውንም	-4233
በሌሊትም	-4234
በተራራው	-4235
ነቢያትም	-4236
አመሰግን	-4237
አስተዋይ	-4238
አደረግሁ	-4239
ከዋክብት	-4240
ወንጌልን	-4241
ዓመፀኞች	-4242
የሚለውን	-4243
የሚጠብቅ	-4244
ያዘዘውን	-4245
ይቀመጣል	-4246
ይቀበላል	-4247
ባለጠግነት	-4248
እነርሱንም	-4249
በሦስተኛውም	-4250
እናደርጋለን	-4251
ከእግዚአብሔርም	-4252
ሠሪ	-4253
ረን	-4254
ራቁ	-4255
ርፍ	-4256
ስተ	-4257
ሻገ	-4258
ባሮ	-4259
ታሉ	-4260
ትሰ	-4261
እዘ	-4262
ወሩ	-4263
ዓም	-4264
ዔና	-4265
ይቅ	-4266
ይጸ	-4267
ድፍ	-4268
ጋድ	-4269
ጋጠ	-4270
ግና	-4271
ጠጕ	-4272
ልጆቼ	-4273
መረም	-4274
መሸጉ	-4275
መብራ	-4276
መታጠ	-4277
መቶም	-4278
መጣሁ	-4279
ምኞት	-4280
ሮቤል	-4281
ስሜን	-4282
ሸንጎ	-4283
ቈጠሩ	-4284
በዛዝ	-4285
ቤቴል	-4286
ብርና	-4287
ብኛል	-4288
ተውል	-4289
ትሰማ	-4290
ነዋል	-4291
ኖርም	-4292
ኛቸው	-4293
ኝነት	-4294
አማሌ	-4295
አዝዞ	-4296
እምነ	-4297
ከምድ	-4298
ወጣም	-4299
ዘርህ	-4300
የሰን	-4301
የወጣ	-4302
የጦር	-4303
ያመለ	-4304
ያያሉ	-4305
ያጸና	-4306
ይሞታ	-4307
ይሰብ	-4308
ይወጡ	-4309
ገዋል	-4310
ግርማ	-4311
ጠውን	-4312
ጥልቅ	-4313
ጫንቃ	-4314
ፈሩም	-4315
ፈርም	-4316
ላችሁና	-4317
መሆኑን	-4318
ቃጠለው	-4319
በሚኖሩ	-4320
በትእዛ	-4321
በነቢዩ	-4322
ታችንን	-4323
ኋላቸው	-4324
ነገሩን	-4325
አለቀሱ	-4326
አዘጋጅ	-4327
እናገር	-4328
እንደማ	-4329
እንድታ	-4330
ከመካከ	-4331
ከተራራ	-4332
ከአሥራ	-4333
ከጥንት	-4334
ኸኛልና	-4335
የቀሩት	-4336
የዚህን	-4337
ያድርግ	-4338
ያጠፋል	-4339
ይኸውም	-4340
ፈጽመህ	-4341
ፍታሌም	-4342
ለሰሎሞን	-4343
ለፈርዖን	-4344
በመቅደሱ	-4345
በነበረው	-4346
በኢያሪኮ	-4347
ተናገርሁ	-4348
አኖራለሁ	-4349
አደረግህ	-4350
አገልግሎ	-4351
እንደሌለ	-4352
ዕቃውንም	-4353
የተቀረጸ	-4354
ፈርዖንን	-4355
መስፈሪያው	-4356
ምድሪቱንም	-4357
አንዳንዶች	-4358
ከመጀመሪያ	-4359
የተናገረው	-4360
በአምላካችን	-4361
ክርስቲያናት	-4362
መልእክተኞችን	-4363
የፍልስጥኤማውያን	-4364
መዳ	-4365
ምታ	-4366
ረህ	-4367
ራሴ	-4368
ቆሮ	-4369
በሳ	-4370
ብሽ	-4371
ተላ	-4372
ትኵ	-4373
ቹና	-4374
ቻል	-4375
ንሐ	-4376
አቃ	-4377
አቆ	-4378
ካፈ	-4379
ዓና	-4380
የኝ	-4381
ያነ	-4382
ገዢ	-4383
ጥሁ	-4384
ፈቱ	-4385
ሄዱም	-4386
ለህና	-4387
ለማስ	-4388
ለደቀ	-4389
ለድሀ	-4390
ሉንም	-4391
መሰክ	-4392
ምንስ	-4393
ሞዓባ	-4394
ሮቹም	-4395
ቀርበ	-4396
በሌለ	-4397
በልዩ	-4398
በረሀ	-4399
በሩን	-4400
በደም	-4401
ትወዳ	-4402
ትወድ	-4403
ነህን	-4404
አትን	-4405
አዋጅ	-4406
አዘነ	-4407
ኤልን	-4408
እወቅ	-4409
ከለክ	-4410
ከሕግ	-4411
ከሥጋ	-4412
ከቤተ	-4413
ውድማ	-4414
የልብ	-4415
የቀና	-4416
የተና	-4417
የአኪ	-4418
ይሠሩ	-4419
ይበዛ	-4420
ይገዙ	-4421
ደርሱ	-4422
ግለጥ	-4423
ግብጻ	-4424
ጠዋል	-4425
ጮኽሁ	-4426
ፈራም	-4427
ለማንም	-4428
ለምድር	-4429
ለእህል	-4430
ማላችሁ	-4431
ማኅፀን	-4432
ሞዓብም	-4433
ቈነጃጅ	-4434
በልብህ	-4435
በነገር	-4436
በእግር	-4437
ትላለህ	-4438
ንጉሥም	-4439
አላወቀ	-4440
አመሰግ	-4441
አዕማድ	-4442
እንደዚ	-4443
እፍረት	-4444
ከሰሜን	-4445
የሚለው	-4446
የተለየ	-4447
የአንተ	-4448
ያድርጉ	-4449
ይሳኮር	-4450
ደኅንነ	-4451
ገደለው	-4452
መለከትም	-4453
መጥቶአል	-4454
ሞራውያን	-4455
ራሳችሁን	-4456
በመካከል	-4457
በነጋውም	-4458
ተንቀሳቃ	-4459
ተኛውንም	-4460
እንደማይ	-4461
ከምሥራቅ	-4462
ወዮላቸው	-4463
የሚቀመጥ	-4464
የአምላክ	-4465
ጲላጦስም	-4466
በአምላክህ	-4467
ወለደችለት	-4468
በየወገኖቻቸው	-4469
ሃሌ	-4470
ሚን	-4471
ማሬ	-4472
ርኮ	-4473
ሲሉ	-4474
ስቱ	-4475
ቀሱ	-4476
ቅላ	-4477
ቆር	-4478
ቆን	-4479
በሪ	-4480
ቤር	-4481
ቦዔ	-4482
ቸል	-4483
ኵሬ	-4484
የፍ	-4485
ይድ	-4486
ድያ	-4487
ጸለ	-4488
ጸው	-4489
ላታል	-4490
ልማድ	-4491
መረጠ	-4492
መብረ	-4493
መያዣ	-4494
ሙሽራ	-4495
ሚዛኑ	-4496
ሰብክ	-4497
ሰይጣ	-4498
ቃብር	-4499
በማን	-4500
በረሃ	-4501
በአገ	-4502
ቡቃያ	-4503
ብልሃ	-4504
ተስረ	-4505
ትሄዳ	-4506
አመነ	-4507
አሠራ	-4508
አሦር	-4509
አራቱ	-4510
አስቡ	-4511
አውቄ	-4512
አድራ	-4513
አጽና	-4514
አፍስ	-4515
ኢያቢ	-4516
እርሾ	-4517
እጆች	-4518
ከበቡ	-4519
ኵራብ	-4520
ወይራ	-4521
ውኆች	-4522
ዘርፍ	-4523
የአሞ	-4524
የገባ	-4525
ያገኙ	-4526
ይረግ	-4527
ዮንን	-4528
ዮፍታ	-4529
ጠብቃ	-4530
ፈጠረ	-4531
ሄዳችሁ	-4532
ለብሰው	-4533
ሌላውን	-4534
መቀመጫ	-4535
ሳቸውን	-4536
ሳኦልና	-4537
ስማቸው	-4538
በስፍራ	-4539
በግዞት	-4540
ባሪያዎ	-4541
ብዝበዛ	-4542
ታላቅና	-4543
አላችሁ	-4544
አልቀረ	-4545
አስተማ	-4546
አትበል	-4547
እንዳሉ	-4548
ከምናሴ	-4549
ውኃውም	-4550
የሚሰጥ	-4551
የተገኘ	-4552
ያለቅሱ	-4553
ይመለሱ	-4554
ዲያብሎ	-4555
ጥቂቶች	-4556
ፊተኛው	-4557
ላቸውንም	-4558
በልባችሁ	-4559
በእጃችሁ	-4560
በዳዊትም	-4561
በጌታችን	-4562
ተከትለው	-4563
ተጠንቀቅ	-4564
ትላላችሁ	-4565
ትእዛዛት	-4566
ቶቻችሁም	-4567
ኤልሳዕም	-4568
እንጀራን	-4569
ይልቁንም	-4570
ድንበሩም	-4571
መጐናጸፊያ	-4572
አብርሃምና	-4573
አደረጋቸው	-4574
ለወንድሞቹም	-4575
በከተማይቱም	-4576
ልያ	-4577
ሚካ	-4578
ሚክ	-4579
ሽና	-4580
ቀች	-4581
ባባ	-4582
ትል	-4583
ኀጥ	-4584
ናሉ	-4585
ናከ	-4586
ኔር	-4587
አነ	-4588
አዴ	-4589
አፋ	-4590
ክቡ	-4591
ዋጉ	-4592
ውሸ	-4593
ዛን	-4594
የያ	-4595
ያማ	-4596
ደት	-4597
ደኛ	-4598
ዳድ	-4599
ድብ	-4600
ዶስ	-4601
ግሬ	-4602
ግቢ	-4603
ሉምን	-4604
መስሎ	-4605
መውም	-4606
መጣች	-4607
ማለህ	-4608
ረጅም	-4609
ራእዩ	-4610
ቂዎች	-4611
ቈጠረ	-4612
በሉም	-4613
በሩቅ	-4614
በሰጠ	-4615
በአህ	-4616
በዕጣ	-4617
ብልህ	-4618
ተሰማ	-4619
ተገረ	-4620
ትሆኑ	-4621
ትንሽ	-4622
ቼንም	-4623
ንጉሣ	-4624
አላወ	-4625
አራዊ	-4626
አካል	-4627
አውጣ	-4628
አዘን	-4629
አይዞ	-4630
አድን	-4631
አፍር	-4632
እኔና	-4633
ከላይ	-4634
ከእጄ	-4635
ከፈቱ	-4636
ኪዳኔ	-4637
ኵላሊ	-4638
ወርሱ	-4639
ወርዶ	-4640
ወንዞ	-4641
ወዳጄ	-4642
ዋለች	-4643
ዕረፍ	-4644
ዕንቅ	-4645
ዕውር	-4646
የሚሻ	-4647
የዘበ	-4648
ይቀር	-4649
ይውጣ	-4650
ደነግ	-4651
ዶአል	-4652
ጀርባ	-4653
ጣዖት	-4654
ፈለገ	-4655
ፈተና	-4656
ፍራሉ	-4657
ሄሮድስ	-4658
ለልጆቹ	-4659
ለእኔም	-4660
መታቸው	-4661
መናችሁ	-4662
ሮብዓም	-4663
ሰማንያ	-4664
ሰውነት	-4665
ቃሉንም	-4666
በሕዝቤ	-4667
በአባቴ	-4668
በከተሞ	-4669
በዚያው	-4670
በግልጥ	-4671
ተሻገሩ	-4672
ኃይልን	-4673
አስቴር	-4674
እንዳን	-4675
ከሦስት	-4676
የሚወጣ	-4677
የአደባ	-4678
ይፈጸም	-4679
ደሴቶች	-4680
ጠየቁት	-4681
ጦርነት	-4682
መካከልም	-4683
በገለዓድ	-4684
በፈርዖን	-4685
ተነሥቶም	-4686
ታላላቆች	-4687
ነቢያትን	-4688
አቢሜሌክ	-4689
አይገኝም	-4690
ከኤፍሬም	-4691
ዓይኖችህ	-4692
የአይሁድ	-4693
ይመለሳሉ	-4694
ልጆቻቸውም	-4695
መንደሮችዋ	-4696
አይደለምና	-4697
ኢይዝራኤል	-4698
እርስዋንም	-4699
እንግዲያስ	-4700
የያዕቆብም	-4701
የደኅንነት	-4702
ግብፃውያን	-4703
መንደሮቻቸው	-4704
ሽማግሌዎችም	-4705
አመሰግንሃለሁ	-4706
ከፍልስጥኤማውያን	-4707
ለቃ	-4708
ሉያ	-4709
ሚሳ	-4710
ረሱ	-4711
ረጃ	-4712
ሩቅ	-4713
ሮማ	-4714
ስቍ	-4715
ቀሩ	-4716
ቁባ	-4717
ቤዛ	-4718
ቶም	-4719
ዘዘ	-4720
ዞሩ	-4721
ይው	-4722
ደለ	-4723
ዳሰ	-4724
ዳስ	-4725
ጌጥ	-4726
ጐበ	-4727
ጕረ	-4728
ጢሞ	-4729
ጫወ	-4730
ሀብት	-4731
ሄደህ	-4732
ህምና	-4733
ለሌላ	-4734
ለመነ	-4735
ለመው	-4736
ለምኑ	-4737
ሉትም	-4738
ላባም	-4739
መንሻ	-4740
መንጎ	-4741
ማልና	-4742
ማንን	-4743
ሰጣት	-4744
ሱላም	-4745
ሲመጣ	-4746
ሴቦን	-4747
በመለ	-4748
በሙሉ	-4749
በረቱ	-4750
በክን	-4751
በዘመ	-4752
ብሻል	-4753
ተደፋ	-4754
ተገኘ	-4755
ትሠራ	-4756
ነግር	-4757
አሸዋ	-4758
አትስ	-4759
አወቀ	-4760
እንኪ	-4761
እያስ	-4762
ዓትም	-4763
የልጅ	-4764
የሚሸ	-4765
የሞት	-4766
ያምን	-4767
ያወጡ	-4768
ይሠዋ	-4769
ዳለህ	-4770
ድርሻ	-4771
ጌዴዎ	-4772
ግልገ	-4773
ግደል	-4774
ጠሩት	-4775
ጠግብ	-4776
ፈረደ	-4777
ፈጽሜ	-4778
ለአንድ	-4779
ላላችሁ	-4780
ልጆችዋ	-4781
መስለው	-4782
መብራት	-4783
ሥራቸው	-4784
በተስፋ	-4785
በአንዱ	-4786
በአገሩ	-4787
በአገር	-4788
በጎነት	-4789
ተወለዱ	-4790
ነፍስህ	-4791
አለቀሰ	-4792
አንበጣ	-4793
አድምጡ	-4794
አጥንት	-4795
እሳትም	-4796
ከመከራ	-4797
ከነዓና	-4798
ካህኑን	-4799
ዕቃዎች	-4800
ዘርግቶ	-4801
የለምን	-4802
የለበሰ	-4803
የሚያሳ	-4804
የምድረ	-4805
የተሰጠ	-4806
የተጠራ	-4807
የከተማ	-4808
የጽድቅ	-4809
ይሠራል	-4810
ጐበዛዝ	-4811
ፍጥረት	-4812
ላቸዋለሁ	-4813
መሠዊያው	-4814
መንግሥተ	-4815
ርስታቸው	-4816
ሴቶችንም	-4817
በምዕራብ	-4818
በኃጢአት	-4819
በእሳትም	-4820
ቤርሳቤህ	-4821
ብላቴናው	-4822
አለቆቹም	-4823
አመጣለሁ	-4824
አሳልፈህ	-4825
አብራምም	-4826
አይደለህ	-4827
እርስዋን	-4828
እንኪያስ	-4829
እንዴትስ	-4830
ከብንያም	-4831
ካህናቱና	-4832
ወዳለበት	-4833
የተቈጠሩ	-4834
የተወደደ	-4835
የአባቶች	-4836
የዳዊትም	-4837
ያለውንም	-4838
ያቀርባል	-4839
ያደረገው	-4840
ይቀመጣሉ	-4841
ፍልስጥኤ	-4842
ለኃጢአትም	-4843
ልጆቻቸውን	-4844
ስድስተኛው	-4845
ባሪያዎቹን	-4846
አሕዛብንም	-4847
እንደሚሆን	-4848
ከእርስዋም	-4849
ሁለተኛውንም	-4850
ኢዮርብዓምም	-4851
ከመስፈሪያው	-4852
ልከ	-4853
ማሰ	-4854
ሪቱ	-4855
ሴስ	-4856
ቍራ	-4857
ቡሩ	-4858
ባሳ	-4859
ነዌ	-4860
ነጐ	-4861
ኑሩ	-4862
ኒም	-4863
ናው	-4864
አጽ	-4865
እሰ	-4866
ካራ	-4867
ክፍ	-4868
ውራ	-4869
ዔል	-4870
የሻ	-4871
ገዝ	-4872
ጨና	-4873
ለምስ	-4874
ላለው	-4875
ላሞች	-4876
ልከው	-4877
ሐሤት	-4878
ሕፃኑ	-4879
ማትም	-4880
ምዋር	-4881
ሥልጣ	-4882
ረክስ	-4883
ሰናክ	-4884
ስላላ	-4885
ስሙኝ	-4886
ስትል	-4887
ቍጥቋ	-4888
በቱም	-4889
በታቦ	-4890
በእግ	-4891
በጽኑ	-4892
ብላት	-4893
ተወግ	-4894
ንስር	-4895
ንተው	-4896
አማት	-4897
ኢዩም	-4898
ኢዮአ	-4899
ኤልዛ	-4900
እሆን	-4901
እባብ	-4902
እናቴ	-4903
እኛን	-4904
ከማቸ	-4905
ከማች	-4906
ከምት	-4907
ከእጁ	-4908
ከወገ	-4909
ከግራ	-4910
ከፊቴ	-4911
ክፉም	-4912
ውበት	-4913
ዓረባ	-4914
ዘንግ	-4915
የሰባ	-4916
የቤት	-4917
የአር	-4918
የወጡ	-4919
ያበዛ	-4920
ያገባ	-4921
ያጠፉ	-4922
ይቀድ	-4923
ደረሱ	-4924
ጃቸው	-4925
ገለጡ	-4926
ግንድ	-4927
ጭልፋ	-4928
ፍረድ	-4929
ለሌሎች	-4930
ማድረግ	-4931
ራችሁም	-4932
ቀርሜሎ	-4933
በሕያው	-4934
በወንዝ	-4935
በውስጡ	-4936
በዕድሜ	-4937
ባይሆን	-4938
ተከተሉ	-4939
ታውያን	-4940
ታያለህ	-4941
ቻለሁና	-4942
ነገርም	-4943
አልሁት	-4944
አመጡት	-4945
አሥራት	-4946
አስታው	-4947
አትሥሩ	-4948
አወቅሁ	-4949
አይሆን	-4950
ኢዮአስ	-4951
እለምና	-4952
እረኞች	-4953
እነሆኝ	-4954
ከናወን	-4955
ወንዙም	-4956
ወዳለሁ	-4957
ዔሳውም	-4958
የመጠጥ	-4959
የሚሠሩ	-4960
የምናሴ	-4961
የእርሱ	-4962
የዝግባ	-4963
ያልፋል	-4964
ይሞታሉ	-4965
ይጨምር	-4966
ጠራችው	-4967
ጠየቀው	-4968
ጽላቶች	-4969
ጽናናት	-4970
መዛግብት	-4971
ሰልፈኞች	-4972
ቈነጃጅት	-4973
በተራሮች	-4974
በአይሁድ	-4975
ባቸውንም	-4976
ታችሁንም	-4977
ነጋዴዎች	-4978
አላደረገ	-4979
አንዳንድ	-4980
አክዓብም	-4981
አያውቅም	-4982
ኤፍሬምም	-4983
ከባቢሎን	-4984
የሚያህል	-4985
የምታደር	-4986
የምትኖሩ	-4987
የምድርን	-4988
የቀረውን	-4989
የተባለች	-4990
የተደረገ	-4991
የድንጋይ	-4992
ያመሰግኑ	-4993
ይገባዋል	-4994
መልእክተኛ	-4995
በርሳቸውም	-4996
በተራራማው	-4997
ብላቴናውን	-4998
ኃጢአታቸው	-4999
አመስግኑት	-5000
ወንድሞቹን	-5001
የሚያስፈራ	-5002
መልእክተኞች	-5003
አምላካችንም	-5004
አባቶቻቸውም	-5005
እሰጣቸዋለሁ	-5006
ከተማይቱንም	-5007
ግብፃውያንም	-5008
ሕተ	-5009
መቁ	-5010
ምክ	-5011
ረስ	-5012
ሬብ	-5013
ሮም	-5014
ሴይ	-5015
ቀህ	-5016
ቀባ	-5017
በኮ	-5018
በፋ	-5019
ተቃ	-5020
ትክ	-5021
ኀዘ	-5022
ነጥ	-5023
ንት	-5024
ንኳ	-5025
ክሪ	-5026
ወጉ	-5027
ወጭ	-5028
የዛ	-5029
ዲና	-5030
ድካ	-5031
ጤና	-5032
ሃትም	-5033
ሃይማ	-5034
ሄደች	-5035
ላከኝ	-5036
ልቡም	-5037
መሆን	-5038
መበለ	-5039
መከር	-5040
መዋል	-5041
ሙትም	-5042
ምላስ	-5043
ምጽጳ	-5044
ሮንን	-5045
ሰሜን	-5046
ሰውና	-5047
ሳንም	-5048
ሴሎም	-5049
ስንት	-5050
ስእለ	-5051
ሸሸግ	-5052
ሾመው	-5053
በላው	-5054
በሲና	-5055
በተኑ	-5056
በአሳ	-5057
በወጡ	-5058
በደለ	-5059
በጥሩ	-5060
ተማሩ	-5061
ተገኝ	-5062
ተገዙ	-5063
ታወጣ	-5064
ታዊው	-5065
ታገኛ	-5066
አለፉ	-5067
አላየ	-5068
አማካ	-5069
አሮጌ	-5070
አዛዥ	-5071
አደሰ	-5072
አጠጣ	-5073
እርዳ	-5074
ከሞተ	-5075
ከሞት	-5076
ከብት	-5077
ዛችሁ	-5078
የሚሰ	-5079
የሞቱ	-5080
የዘላ	-5081
ይስማ	-5082
ይታጠ	-5083
ይነድ	-5084
ይፈራ	-5085
ገቡት	-5086
ገኙም	-5087
ግሥት	-5088
ጣሉት	-5089
ጨምር	-5090
ጨረቃ	-5091
ሃይማኖ	-5092
ለመነው	-5093
ለካህኑ	-5094
ሌላውም	-5095
ሐሰትን	-5096
መጣችሁ	-5097
ምስጉን	-5098
ሠራተኛ	-5099
ሥራቅም	-5100
ራሳቸው	-5101
ስለምን	-5102
ስምህም	-5103
ስርየት	-5104
በብርቱ	-5105
በታንኳ	-5106
ባርነት	-5107
ብሃለሁ	-5108
ብሎአል	-5109
ተባባሉ	-5110
ተደረገ	-5111
ተፈጸመ	-5112
ታላቁን	-5113
ችንንም	-5114
አቅርብ	-5115
አይሰማ	-5116
አፈሰሰ	-5117
እሳትን	-5118
ከሁለቱ	-5119
ከፊትህ	-5120
ካለችው	-5121
የሚሆኑ	-5122
የራሱን	-5123
የተመሰ	-5124
የአገሩ	-5125
የወደደ	-5126
የዮሴፍ	-5127
ያስፈል	-5128
ይዘረጋ	-5129
ድምፁን	-5130
ጢሞቴዎ	-5131
ጣዖታት	-5132
ጭፍሮች	-5133
ጽሕፈት	-5134
ላችኋለሁ	-5135
ልብሱንም	-5136
መርከቦች	-5137
ሰማይንና	-5138
ስምዖንም	-5139
በቅንነት	-5140
በነቢያት	-5141
ቶቻችንም	-5142
አልተገኘ	-5143
አንዳችም	-5144
አይሁድን	-5145
አይደሉም	-5146
አገልጋይ	-5147
እስኪሞት	-5148
እንጀራም	-5149
የሚጠብቁ	-5150
የቀሩትም	-5151
የብንያም	-5152
የተባለው	-5153
ያስተምር	-5154
ይመስላል	-5155
ይበሉታል	-5156
ድንጋይም	-5157
ጳውሎስም	-5158
ጳውሎስን	-5159
ለሌዋውያን	-5160
ለአምላክህ	-5161
መንግሥቱን	-5162
አታውቁምን	-5163
አገልጋዮች	-5164
እነዚህንም	-5165
እንደዚህም	-5166
እያንዳንዳ	-5167
የንጉሡንም	-5168
ያቃጥለዋል	-5169
አምላካችሁን	-5170
አደርግሃለሁ	-5171
አድርጌአለሁ	-5172
እሰጣችኋለሁ	-5173
የተቀደሰውን	-5174
የሚቃጠለውንም	-5175
ለታ	-5176
ለፍ	-5177
ሌን	-5178
ሕጌ	-5179
ማና	-5180
ርግ	-5181
ሰስ	-5182
ሰፊ	-5183
ሸፈ	-5184
ቁሙ	-5185
ቄዶ	-5186
ቅሁ	-5187
ቆይ	-5188
ቍስ	-5189
በኩ	-5190
በያ	-5191
ባብ	-5192
ታየ	-5193
ትህ	-5194
ትረ	-5195
ችሉ	-5196
ኑኃ	-5197
ናዖ	-5198
ናፍ	-5199
እሺ	-5200
እጽ	-5201
ከሻ	-5202
ዓል	-5203
ዓር	-5204
ዕሤ	-5205
ዘኑ	-5206
የቄ	-5207
የቤ	-5208
የጎ	-5209
ይክ	-5210
ይገ	-5211
ድኑ	-5212
ገኑ	-5213
ገጫ	-5214
ግዳ	-5215
ጎረ	-5216
ጓሜ	-5217
ጠት	-5218
ጥሎ	-5219
ፍዋ	-5220
ሆነን	-5221
ለምጻ	-5222
ለንም	-5223
ሌለው	-5224
ልቡን	-5225
ሕሊና	-5226
መስሉ	-5227
መድም	-5228
መጥመ	-5229
መጽሐ	-5230
ማልዶ	-5231
ማረኩ	-5232
ምሰሶ	-5233
ርትራ	-5234
ሰበረ	-5235
ሰብሁ	-5236
ሰዎቹ	-5237
ሴትም	-5238
ቀስት	-5239
ቅረቡ	-5240
ቅጣት	-5241
በመረ	-5242
በመሸ	-5243
በቃሉ	-5244
በነገ	-5245
በዳር	-5246
በግራ	-5247
ቡሩክ	-5248
ባርክ	-5249
ባወጣ	-5250
ብርም	-5251
ተሃል	-5252
ተኝቶ	-5253
ተዋጋ	-5254
ተጓዙ	-5255
ትመጣ	-5256
ኖችም	-5257
አብል	-5258
አብራ	-5259
አናው	-5260
አኖሩ	-5261
አዳራ	-5262
ኤሊሳ	-5263
እልከ	-5264
እኵሌ	-5265
ኦርዮ	-5266
ከሚያ	-5267
ኸኝም	-5268
ወንበ	-5269
ውኃን	-5270
ውኃው	-5271
የቂጣ	-5272
የአክ	-5273
የጠራ	-5274
ያለሽ	-5275
ይህስ	-5276
ይለው	-5277
ይጥፋ	-5278
ደዌው	-5279
ዳለች	-5280
ድጓድ	-5281
ጸያፊ	-5282
ጸድቅ	-5283
ፍራጥ	-5284
ፍታሌ	-5285
ለዋልና	-5286
ለጌታዬ	-5287
ሌላቸው	-5288
ልጅንም	-5289
ሐናንያ	-5290
ማኅተም	-5291
ሦስተኛ	-5292
ቃጠልም	-5293
ቄዶንያ	-5294
ቅድስና	-5295
በምሳሌ	-5296
በደለኛ	-5297
በድንኳ	-5298
ባሕርም	-5299
ባደረግ	-5300
ተሃልና	-5301
ታላቂቱ	-5302
ትወስዳ	-5303
ችኋቸው	-5304
ኋቸውም	-5305
ነበሩና	-5306
ነታቸው	-5307
ናገርም	-5308
ንጹሐን	-5309
አለቻት	-5310
አያለሁ	-5311
አድራጊ	-5312
ከሆነው	-5313
ከዓለም	-5314
ኪዳኑን	-5315
ኬጢያዊ	-5316
የበኵር	-5317
የባሕር	-5318
የአሞን	-5319
የወንድ	-5320
የጽዮን	-5321
ይለታል	-5322
ይሰበስ	-5323
ይነግሣ	-5324
ይፈልጋ	-5325
ደርገው	-5326
ዶአልና	-5327
ጉባኤው	-5328
ጲላጦስ	-5329
ፈራጆች	-5330
ሰውዮውም	-5331
በለዓምም	-5332
በላያችን	-5333
በሌለበት	-5334
በመጨረሻ	-5335
በሰማይም	-5336
በይሁዳና	-5337
ተመለከት	-5338
ትኖራለች	-5339
ቶቻችሁን	-5340
አልሰሙም	-5341
አባታችሁ	-5342
አባቶችህ	-5343
አንበሶች	-5344
አኖራቸው	-5345
ኤዶምያስ	-5346
እርሱንና	-5347
እስኪመጣ	-5348
ከኃጢአት	-5349
የሚያውቅ	-5350
የሳኦልም	-5351
የእህሉን	-5352
የዘንባባ	-5353
ይህችንም	-5354
ይሰጠዋል	-5355
ይጠብቃል	-5356
ደረጋችሁ	-5357
ደርሶአል	-5358
ጎዶልያስ	-5359
መሥዋዕትን	-5360
መሰምርያዋ	-5361
በሕይወትም	-5362
ትውልዳቸው	-5363
አልወደደም	-5364
እንደሚገባ	-5365
እንድትሆን	-5366
የሚያገለግ	-5367
የባቢሎንም	-5368
የአሕዛብን	-5369
ይሁንላችሁ	-5370
ፍልስጥኤም	-5371
ታደርጋላችሁ	-5372
ኃጢአታቸውን	-5373
ወንድሞቻችሁ	-5374
በፍልስጥኤማውያን	-5375
ሂጂ	-5376
ላሜ	-5377
ሐር	-5378
ማሌ	-5379
ሪው	-5380
ራይ	-5381
ሰዶ	-5382
ሲም	-5383
ስቴ	-5384
ሾም	-5385
ቈጥ	-5386
በቆ	-5387
ባጥ	-5388
ቤዥ	-5389
ተሳ	-5390
ተቆ	-5391
ነም	-5392
እብ	-5393
ከጌ	-5394
ኪስ	-5395
ካዝ	-5396
ዔር	-5397
ዕማ	-5398
ዘግ	-5399
ይሹ	-5400
ይሽ	-5401
ይያ	-5402
ዲዳ	-5403
ጦፌ	-5404
ሂድና	-5405
ሃለን	-5406
ለሙሴ	-5407
ለብሶ	-5408
መጻሕ	-5409
ሰንቆ	-5410
ሲወጣ	-5411
ስማኝ	-5412
ቀኑን	-5413
ቀጠቀ	-5414
ቃወም	-5415
በመዝ	-5416
በአሥ	-5417
በደሉ	-5418
በድል	-5419
በግን	-5420
በጣም	-5421
በፍጹ	-5422
ባልቴ	-5423
ባርኩ	-5424
ተቈጥ	-5425
ተበት	-5426
ተዋጉ	-5427
ተጠራ	-5428
ታለቅ	-5429
ቹንና	-5430
ነሣው	-5431
አመኑ	-5432
አምጣ	-5433
አሳይ	-5434
አንጀ	-5435
አእላ	-5436
ኤዶም	-5437
እየመ	-5438
ከፍት	-5439
ኪሩብ	-5440
ወጣች	-5441
ዘጋጁ	-5442
የሚጠ	-5443
የማት	-5444
የማዝ	-5445
የቀኝ	-5446
የቤተ	-5447
የአራ	-5448
የዕጣ	-5449
የጽሩ	-5450
ያድር	-5451
ያፈስ	-5452
ይከብ	-5453
ዮስም	-5454
ዮችም	-5455
ደምን	-5456
ዶችን	-5457
ጃግሬ	-5458
ጭንቅ	-5459
ፈራጅ	-5460
ፊትም	-5461
ፌርዛ	-5462
ሌሊትና	-5463
መዝጊያ	-5464
ሚስቱም	-5465
ሰዎችና	-5466
ስለምት	-5467
ቅንነት	-5468
በውኃም	-5469
በፍታም	-5470
ብርታት	-5471
ታላቅም	-5472
ታችንም	-5473
ቸዋለች	-5474
ችኋለን	-5475
ንጹሕም	-5476
አህዮች	-5477
አምስቱ	-5478
አስወገ	-5479
አስጨና	-5480
አቁማዳ	-5481
አብራም	-5482
ኤልያብ	-5483
ከፈሪሳ	-5484
ዓይኖቼ	-5485
ዕውሮች	-5486
የሚያን	-5487
የሚጠሉ	-5488
የሰረገ	-5489
የሳኦል	-5490
የተሞላ	-5491
የተረገ	-5492
የዔሳው	-5493
የፈጠረ	-5494
ያሳድዱ	-5495
ይህችም	-5496
ይመለከ	-5497
ይባረክ	-5498
ይገባሉ	-5499
ይጠብቅ	-5500
ደማስቆ	-5501
ድንገት	-5502
ጌታችን	-5503
ፍርድም	-5504
ለሕዝቡም	-5505
መለከቱን	-5506
ምሕረትህ	-5507
ምርኮኞች	-5508
ሥርዓትና	-5509
ሰሎሞንን	-5510
ሰጡአቸው	-5511
በሕይወቱ	-5512
በስፍራው	-5513
በብንያም	-5514
በየዓመቱ	-5515
በግብፅም	-5516
በፍጹምም	-5517
ባሪያውን	-5518
አልኋቸው	-5519
አምላኬም	-5520
ከሰማይም	-5521
ከይሁዳም	-5522
ኪሩቤልም	-5523
ካህናቱን	-5524
ኮረብቶች	-5525
ወይፈኖች	-5526
ወጥቶአል	-5527
የላቸውም	-5528
የሚያምን	-5529
የተነገረ	-5530
የአባቱን	-5531
የኤፍሬም	-5532
የእናንተ	-5533
የዳዊትን	-5534
ይፈርዳል	-5535
ዮሐንስም	-5536
ገባቸውም	-5537
ገደላቸው	-5538
ለማገልገል	-5539
መሠዊያውን	-5540
መርዶክዮስ	-5541
በመንገድም	-5542
በማደሪያው	-5543
በአደባባይ	-5544
አብርሃምን	-5545
ከከተማይቱ	-5546
ወንዶችንም	-5547
የሚያስጨን	-5548
ዮርዳኖስም	-5549
ለአምላካችን	-5550
ተናግሮአልና	-5551
አመሰግናለሁ	-5552
ከእንግዲህም	-5553
ወንድሞቻቸውም	-5554
ለዩ	-5555
ላስ	-5556
ላፊ	-5557
መሩ	-5558
ረጡ	-5559
ርኅ	-5560
ሮና	-5561
ሮጠ	-5562
ሮጡ	-5563
ሰፋ	-5564
ሰፍ	-5565
ሳር	-5566
ስሁ	-5567
ቂስ	-5568
ቅህ	-5569
ተኣ	-5570
ቶሎ	-5571
ነጣ	-5572
ኤዊ	-5573
እመ	-5574
የሆ	-5575
የሞ	-5576
የቃ	-5577
የቢ	-5578
ይከ	-5579
ደላ	-5580
ጎን	-5581
ሃለች	-5582
ለምጽ	-5583
ሉአት	-5584
ላትም	-5585
ልዑል	-5586
ሕጉን	-5587
መሎች	-5588
መዳን	-5589
ሙትን	-5590
ማውም	-5591
ምራት	-5592
ምራዊ	-5593
ረድኤ	-5594
ራለህ	-5595
ራሔል	-5596
ርንች	-5597
ሳችን	-5598
ቀውን	-5599
ቃልና	-5600
ቆአል	-5601
ቈጠር	-5602
በመም	-5603
በጕል	-5604
ብሆን	-5605
ነድድ	-5606
ናታን	-5607
ንገሥ	-5608
አሳም	-5609
አብድ	-5610
አንኩ	-5611
አድኖ	-5612
አዶን	-5613
እገባ	-5614
እጠብ	-5615
እፍረ	-5616
ወዳሉ	-5617
ወገኔ	-5618
ዝሙት	-5619
ዝማሬ	-5620
የመር	-5621
የተረ	-5622
የተራ	-5623
የአቢ	-5624
የኢን	-5625
የጸና	-5626
ያድን	-5627
ያገኛ	-5628
ይተኛ	-5629
ይዘህ	-5630
ደርብ	-5631
ድስት	-5632
ጀምሬ	-5633
ገብስ	-5634
ጋርም	-5635
ጠይቁ	-5636
ጨረሰ	-5637
ፋይም	-5638
ሆነዋል	-5639
ለመኑት	-5640
ለማየት	-5641
ለንጉሥ	-5642
ለአሮን	-5643
ለዓለም	-5644
ልጃችሁ	-5645
ሕዝብን	-5646
ሕፃናት	-5647
መልካሚ	-5648
መናወጥ	-5649
መናገር	-5650
ሜሱላም	-5651
ሰባትም	-5652
ሰዋልና	-5653
ሰይጣን	-5654
ቀለበት	-5655
ቁመቱም	-5656
ቃልህን	-5657
በሆነው	-5658
በአራቱ	-5659
በእኔም	-5660
ብቻዬን	-5661
ተማከሩ	-5662
ታላላቅ	-5663
ትምክህ	-5664
ትርጓሜ	-5665
ኀጥኣን	-5666
ነበርህ	-5667
ነበርን	-5668
ኛውንም	-5669
አለውና	-5670
አስጨን	-5671
አውጥቶ	-5672
አገሮች	-5673
ኢዮብም	-5674
እንስት	-5675
ከሚኖሩ	-5676
ከምድረ	-5677
ከአባቴ	-5678
ዓይንህ	-5679
ዘመንም	-5680
ዘይትም	-5681
የሆኑት	-5682
የሌለው	-5683
የመገና	-5684
የሚገዛ	-5685
የሠራዊ	-5686
የሮቤል	-5687
የነገር	-5688
ያስፈራ	-5689
ይወስድ	-5690
ይጮኻሉ	-5691
ሆኖአልና	-5692
ላችሁምን	-5693
ልባችሁን	-5694
ሕዝብህን	-5695
ማሰማርያ	-5696
ሳሙኤልን	-5697
ስምህንም	-5698
በመጽሐፍ	-5699
በሸለቆው	-5700
በኬብሮን	-5701
በደቡብም	-5702
ነፍስህም	-5703
አላውቅም	-5704
አልተመለ	-5705
አስጸያፊ	-5706
አታድርግ	-5707
አወጣቸው	-5708
አይቀርም	-5709
አድርአዛ	-5710
አጋንንት	-5711
እናድርግ	-5712
እንጀራና	-5713
እወዳለሁ	-5714
ከፈርዖን	-5715
ኮረብታው	-5716
ወዮላችሁ	-5717
ዓዛርያስ	-5718
የሌለበት	-5719
የሚያውቁ	-5720
የንጉሡም	-5721
የአሞንም	-5722
ጠላቶችህ	-5723
ፈርዖንና	-5724
ሦስተኛውም	-5725
ስምንተኛው	-5726
አይደሉምን	-5727
አይገባውም	-5728
እሰድዳለሁ	-5729
እስትንፋስ	-5730
ዕብራውያን	-5731
በአንድነትም	-5732
ይሆንላችኋል	-5733
ላን	-5734
ሌባ	-5735
ልማ	-5736
ልኬ	-5737
ልፈ	-5738
ሐማ	-5739
ሙላ	-5740
ሚዳ	-5741
ማፀ	-5742
ምጥ	-5743
ሡት	-5744
ስቀ	-5745
ቃት	-5746
ቆማ	-5747
ቤን	-5748
ብኤ	-5749
ተጐ	-5750
ተጸ	-5751
ታበ	-5752
ቴር	-5753
ትሻ	-5754
ትጉ	-5755
አሚ	-5756
አዶ	-5757
ከዘ	-5758
ክስ	-5759
ዕና	-5760
ዝሬ	-5761
የጥ	-5762
ያዳ	-5763
ይቻ	-5764
ይዓ	-5765
ይጭ	-5766
ደቦ	-5767
ዲቦ	-5768
ጁን	-5769
ገፈ	-5770
ጕሮ	-5771
ጠለ	-5772
ጥረ	-5773
ጭም	-5774
ጭድ	-5775
ጽም	-5776
ጾም	-5777
ጾር	-5778
ፈቅ	-5779
ሄሮድ	-5780
ሄድሁ	-5781
ልቤም	-5782
ልቤን	-5783
ልጄን	-5784
መርገ	-5785
መካን	-5786
መዓት	-5787
መጠጥ	-5788
መጣህ	-5789
ሚስቱ	-5790
ማድጋ	-5791
ሜንም	-5792
ሞተች	-5793
ሞቱም	-5794
ረክሱ	-5795
ሩትን	-5796
ራሴን	-5797
ሮስን	-5798
ሰለት	-5799
ሳሚስ	-5800
ሸከም	-5801
ቀልጦ	-5802
ቀኖች	-5803
በራሴ	-5804
በሴሎ	-5805
በአፌ	-5806
በጸና	-5807
ቢሞት	-5808
ባሕሩ	-5809
ብንም	-5810
ተሰብ	-5811
ተነጋ	-5812
ተኩል	-5813
ተድላ	-5814
ትርፍ	-5815
ትነግ	-5816
ትወጣ	-5817
ትገባ	-5818
ትገዛ	-5819
ችውም	-5820
ንገሩ	-5821
አለሽ	-5822
አልታ	-5823
አልጠ	-5824
አመድ	-5825
አሞን	-5826
አሳደ	-5827
አነበ	-5828
አወሩ	-5829
አውቀ	-5830
አየች	-5831
እመጣ	-5832
እሰማ	-5833
እሰጠ	-5834
እናስ	-5835
እያዩ	-5836
እጥላ	-5837
እፈል	-5838
ከማኅ	-5839
ከቤት	-5840
ከዳን	-5841
ኰበለ	-5842
ወርቁ	-5843
ወሰድ	-5844
ወገኑ	-5845
ዋንና	-5846
ዓለት	-5847
የማዕ	-5848
የሰለ	-5849
የነዌ	-5850
ያመነ	-5851
ያድና	-5852
ያገኘ	-5853
ይብላ	-5854
ይከተ	-5855
ይገቡ	-5856
ይፈጸ	-5857
ዱበት	-5858
ገባም	-5859
ገናል	-5860
ገውም	-5861
ግመሎ	-5862
ጠንቋ	-5863
ጠጎች	-5864
ጣለው	-5865
ጻድቃ	-5866
ፈውስ	-5867
ፍርና	-5868
ሄዳለን	-5869
ሄድበት	-5870
ለማዳን	-5871
ለብቻው	-5872
ለነበሩ	-5873
መንፈሱ	-5874
መግባት	-5875
ምራዊም	-5876
ምድሩን	-5877
ሳንቆች	-5878
ሳያውቅ	-5879
ሴቶችም	-5880
ስያስም	-5881
ቃላችሁ	-5882
ቃውያን	-5883
በላዩም	-5884
በማዕድ	-5885
በሠላሳ	-5886
በረኞች	-5887
በሳኦል	-5888
በባሕሩ	-5889
በተነሣ	-5890
በዚህና	-5891
ብለዋል	-5892
ብኛልና	-5893
ብድራት	-5894
ተመልሰ	-5895
ተሰለፉ	-5896
ተገረሙ	-5897
ችሁንም	-5898
ነፍሴም	-5899
ንገረኝ	-5900
ንጉሡና	-5901
ኖርበት	-5902
አመንዝ	-5903
አሳደዱ	-5904
አስገባ	-5905
አቃጠለ	-5906
አንተስ	-5907
አኖሩት	-5908
አደባባ	-5909
አድምጥ	-5910
አግኝቶ	-5911
እነግር	-5912
እንግድ	-5913
ከሰፈሩ	-5914
ከተማም	-5915
ከግራር	-5916
ኪዳኔን	-5917
ወተትና	-5918
ወንድማ	-5919
ወደደው	-5920
የለኝም	-5921
የመከራ	-5922
የሚሉት	-5923
የሚያም	-5924
የምሥራ	-5925
የሰውም	-5926
የተረፈ	-5927
የአሥራ	-5928
የዮዳሄ	-5929
ያልሆነ	-5930
ያስባል	-5931
ያቅርብ	-5932
ያዘዘው	-5933
ያጥባል	-5934
ይድናል	-5935
ደሙንም	-5936
ገድለው	-5937
ፈጥነህ	-5938
ፋቸውም	-5939
ፍርዴን	-5940
ለብቻቸው	-5941
ሊያደርግ	-5942
ላችኋልና	-5943
ሌሎችንም	-5944
በለዓምን	-5945
በሰይፍና	-5946
በአምላኩ	-5947
በድንኳኑ	-5948
በግምባሩ	-5949
ባሪያህን	-5950
ተግሣጽን	-5951
ንቀጠቀጡ	-5952
አስቴርም	-5953
አባታችን	-5954
አቸዋልና	-5955
አቸውንም	-5956
አንተንም	-5957
ኢዮስያስ	-5958
እርግማን	-5959
እንደዚያ	-5960
እንዲኖር	-5961
ከመካከል	-5962
ኬልቅያስ	-5963
ወንድማማ	-5964
ወዳለችው	-5965
ዎቻቸውም	-5966
የመቅደሱ	-5967
የመድኃኒ	-5968
የቀሩትን	-5969
የተሰወረ	-5970
ይወርዳል	-5971
ጕልማሶች	-5972
ፈጽማችሁ	-5973
ሌዋውያንን	-5974
መለሰላቸው	-5975
ባልንጀራህ	-5976
ኃጢአትንም	-5977
አላደረገም	-5978
አውቃለሁና	-5979
ኤርምያስን	-5980
እሰጠዋለሁ	-5981
እስኪፈጸም	-5982
እንሄዳለን	-5983
ከወንድሞቹ	-5984
የሌለበትን	-5985
የአደባባዩ	-5986
የዘላለምን	-5987
የይሁዳንም	-5988
ተናግሬአለሁ	-5989
ከለዳውያንም	-5990
የተቀመጡትን	-5991
በየትውልዳቸው	-5992
ያስተሰርይለታል	-5993
ሉኝ	-5994
ላሞ	-5995
ላባ	-5996
ሐና	-5997
ሕም	-5998
ሚም	-5999
ሸመ	-6000
ቀጣ	-6001
ቁሔ	-6002
ቅኔ	-6003
ቆሬ	-6004
ቸኵ	-6005
ነቃ	-6006
ኢታ	-6007
ኣል	-6008
ኦስ	-6009
ውሽ	-6010
ዎስ	-6011
የሎ	-6012
የወ	-6013
ዬና	-6014
ገሡ	-6015
ጋሉ	-6016
ጋይ	-6017
ጦን	-6018
ፉኝ	-6019
ሁህም	-6020
ለሁሉ	-6021
ለሚያ	-6022
ልህም	-6023
ሎሞን	-6024
መረጥ	-6025
መጣና	-6026
ማረኝ	-6027
ራልና	-6028
ሰጥም	-6029
ሳደድ	-6030
ስሜም	-6031
ቁንስ	-6032
ቂሮስ	-6033
ቃልን	-6034
ቃዴስ	-6035
በለት	-6036
በመዓ	-6037
በሞት	-6038
በቅል	-6039
በቅሎ	-6040
በበጎ	-6041
በጠራ	-6042
ቢገኝ	-6043
ቤልና	-6044
ብለን	-6045
ተሰጥ	-6046
ተቃጠ	-6047
ታንና	-6048
ትቀድ	-6049
ትጠፋ	-6050
ኋላው	-6051
ነሣም	-6052
ናወጥ	-6053
ኖስም	-6054
አለህ	-6055
አሳፍ	-6056
አስማ	-6057
አስቦ	-6058
አንጾ	-6059
አዋቂ	-6060
አይተ	-6061
አዴር	-6062
እጠራ	-6063
ከለከ	-6064
ከረጢ	-6065
ከበሩ	-6066
ከፈለ	-6067
ኪራም	-6068
ካለሁ	-6069
ክቡር	-6070
ክንፎ	-6071
ኮከብ	-6072
ወለል	-6073
ወስጄ	-6074
ወደማ	-6075
ወገብ	-6076
ውደድ	-6077
ዓላማ	-6078
ዓይና	-6079
ዘመኑ	-6080
ዘመና	-6081
ዘነበ	-6082
የሀያ	-6083
የውን	-6084
የጋድ	-6085
ይመታ	-6086
ይቀል	-6087
ይቃጠ	-6088
ይቈር	-6089
ይይዛ	-6090
ይጠሩ	-6091
ዮናስ	-6092
ደመወ	-6093
ደረቀ	-6094
ደረጃ	-6095
ደከመ	-6096
ደውም	-6097
ገልገ	-6098
ገናም	-6099
ገዳይ	-6100
ጋናን	-6101
ጌታው	-6102
ጠረው	-6103
ጠጣም	-6104
ጡትን	-6105
ጽናት	-6106
ፊንሐ	-6107
ለምንስ	-6108
ለአባቱ	-6109
ለዋለሁ	-6110
ለዮሴፍ	-6111
መቅረዙ	-6112
መጥተህ	-6113
ምሰሶች	-6114
ምናሴም	-6115
ሦስቱም	-6116
ራሳችሁ	-6117
ርባቸው	-6118
ሰበስብ	-6119
ሰብስቦ	-6120
ሳችሁም	-6121
በቅዱስ	-6122
በቤቴል	-6123
በትውል	-6124
በአፍህ	-6125
በወይን	-6126
በዙፋኑ	-6127
በጊብዓ	-6128
በፈጸመ	-6129
ብልቶች	-6130
ተስረያ	-6131
ተነሣና	-6132
ተደነቁ	-6133
ታሰቢያ	-6134
ታስተው	-6135
ቼሃለሁ	-6136
ነውርም	-6137
ነጋገሩ	-6138
ነፍሳት	-6139
ናችሁም	-6140
ንግሥት	-6141
አምኖን	-6142
አስተው	-6143
አበኔር	-6144
አዘዘው	-6145
አይገኝ	-6146
ኢያቢስ	-6147
እመልስ	-6148
እንዳታ	-6149
ከሕዝብ	-6150
ከመንጋ	-6151
ከሰይፍ	-6152
ከሴቶች	-6153
ከንፈሩ	-6154
ከወለደ	-6155
ከዋክብ	-6156
ከገሊላ	-6157
ካልሆነ	-6158
ክብርና	-6159
ክብርን	-6160
ወንበር	-6161
ወይንም	-6162
ወደቀች	-6163
ዎቹንና	-6164
ዎቻቸው	-6165
የሚበሉ	-6166
የረከሰ	-6167
የበደል	-6168
የተጠላ	-6169
የታወቀ	-6170
የኃጢአ	-6171
የፍየል	-6172
ያለችው	-6173
ያላችሁ	-6174
ያገኛል	-6175
ያፍራሉ	-6176
ይመስል	-6177
ይሰማል	-6178
ይሰናከ	-6179
ይቆማል	-6180
ይነሣሉ	-6181
ይፈርድ	-6182
ዮሐናን	-6183
ደመወዝ	-6184
ደስታም	-6185
ጌታዬን	-6186
ጥምቀት	-6187
ጻፎችና	-6188
ፀነሰች	-6189
ፈሳሾች	-6190
ፈቀደም	-6191
ፈጥነው	-6192
ፍራጥስ	-6193
ለመሥራት	-6194
ለራሳችሁ	-6195
ሊገናኘው	-6196
መለሱለት	-6197
መለከተው	-6198
መንገዴን	-6199
መንግሥቱ	-6200
መንፈሳዊ	-6201
ሰምቻለሁ	-6202
ስፍራቸው	-6203
ሶምሶንም	-6204
በተቀደሰ	-6205
በአገርህ	-6206
በአፋቸው	-6207
በዓይንህ	-6208
ብታደርግ	-6209
ተናገረኝ	-6210
ተናገሩት	-6211
ትንቢትን	-6212
ነበራችሁ	-6213
አላወቀም	-6214
አላወቁም	-6215
አምጡልኝ	-6216
አበኔርም	-6217
አትችሉም	-6218
አትደንግ	-6219
አካዝያስ	-6220
አደረገች	-6221
አጸናለሁ	-6222
እርሻውን	-6223
እነዚያን	-6224
እንደዚሁ	-6225
እግሮቹም	-6226
ከሕዝቡም	-6227
ከነበረው	-6228
ከንፈሮች	-6229
የሆኑትን	-6230
የሚናገሩ	-6231
የሚያሰኝ	-6232
የሠራውን	-6233
የተቀደሱ	-6234
የአሮንም	-6235
የኮረብታ	-6236
የጻድቃን	-6237
ይልቁንስ	-6238
ይነጋገር	-6239
ይወስዳሉ	-6240
ይወድዳል	-6241
ዳግመኛም	-6242
ገለዓድም	-6243
ግልገሎች	-6244
ልብሳቸውን	-6245
ሰጥቼሃለሁ	-6246
ቂርያትይዓ	-6247
በማናቸውም	-6248
በኤዶምያስ	-6249
በፊታቸውም	-6250
ትሆናላችሁ	-6251
ትወስዳለህ	-6252
አስቀድመው	-6253
አቅርቡልኝ	-6254
ኢዮሣፍጥም	-6255
የሚገባውን	-6256
የምታደርጉ	-6257
የተጻፈውን	-6258
ያደርገዋል	-6259
ጠላቶችህን	-6260
ለአባቶቻቸው	-6261
በመሠዊያውም	-6262
በጠላቶቻቸው	-6263
አይደለችምን	-6264
አድርጎአልና	-6265
የሌለባቸውን	-6266
የከተማይቱም	-6267
ፈሪሳውያንም	-6268
በስምንተኛውም	-6269
ኃጢአታቸውንም	-6270
kw	-6271
ለና	-6272
መተ	-6273
ማኑ	-6274
ሩና	-6275
ሲሶ	-6276
ሳቅ	-6277
ስህ	-6278
ሽሽ	-6279
ሾመ	-6280
ቀሠ	-6281
ቀራ	-6282
ቅጠ	-6283
ቋር	-6284
በዋ	-6285
ቤድ	-6286
ታማ	-6287
ኅብ	-6288
አሣ	-6289
እረ	-6290
እታ	-6291
ኪር	-6292
ኪሶ	-6293
ካላ	-6294
ካች	-6295
ኮን	-6296
ውዴ	-6297
ዕር	-6298
ዘበ	-6299
ዜማ	-6300
ዦች	-6301
የቴ	-6302
የጣ	-6303
ያደ	-6304
ይሮ	-6305
ይዩ	-6306
ዳያ	-6307
ጋግ	-6308
ግማ	-6309
ጎቶ	-6310
ጐድ	-6311
ጦም	-6312
ጨል	-6313
ጨዋ	-6314
ጫል	-6315
ፌዘ	-6316
ፍቅ	-6317
ለልጁ	-6318
ለመቅ	-6319
ሊመጣ	-6320
ላለን	-6321
ልብን	-6322
ልጅን	-6323
መረብ	-6324
መስክ	-6325
መድረ	-6326
መጥቼ	-6327
ሜራሪ	-6328
ምንቸ	-6329
ሞልታ	-6330
ራለች	-6331
ራቢያ	-6332
ቀመጠ	-6333
ቅጠል	-6334
በለጠ	-6335
በምሕ	-6336
በሠራ	-6337
በርታ	-6338
በበታ	-6339
በአሮ	-6340
በአፉ	-6341
በኵሩ	-6342
በዓና	-6343
በየሰ	-6344
በጎቹ	-6345
ተረድ	-6346
ተስማ	-6347
ተከፍ	-6348
ተፈቅ	-6349
ችሁት	-6350
ነበት	-6351
ነናል	-6352
ነካው	-6353
ነግሥ	-6354
ነፎች	-6355
ኛለሁ	-6356
አለቅ	-6357
አብሮ	-6358
አብን	-6359
አከብ	-6360
አፉን	-6361
እሰብ	-6362
እኛስ	-6363
እዘም	-6364
ኦርና	-6365
ከመጠ	-6366
ከአፉ	-6367
ከደም	-6368
ወተት	-6369
ወዳጆ	-6370
ዕለቱ	-6371
ዕዝራ	-6372
ዘሩባ	-6373
ዘንዶ	-6374
ዘጠና	-6375
ዛለሁ	-6376
የማለ	-6377
የማል	-6378
የማስ	-6379
የሰላ	-6380
የትዕ	-6381
ዩንም	-6382
ያሰማ	-6383
ያዙት	-6384
ይምጣ	-6385
ይደነ	-6386
ይግባ	-6387
ዲናር	-6388
ዴዎን	-6389
ድምፄ	-6390
ገረዘ	-6391
ጋሻና	-6392
ጐዳና	-6393
ጠንቅ	-6394
ጨካኝ	-6395
ጸጋና	-6396
ፈራጆ	-6397
ፈሰሰ	-6398
ፈቅድ	-6399
ፈጽሙ	-6400
ፍለጋ	-6401
ለሳኦል	-6402
ለዋለህ	-6403
ልብስም	-6404
ልጅህን	-6405
መልኩም	-6406
መሰክሩ	-6407
መሰግን	-6408
መስጠት	-6409
መሸፈኛ	-6410
መንጎች	-6411
መንፈሴ	-6412
መዘምራ	-6413
መገረዝ	-6414
ማልክት	-6415
ምድርና	-6416
ሥጋውን	-6417
ራላችሁ	-6418
ሮአልና	-6419
ሰነፎች	-6420
ሴቶችን	-6421
ቅዱሳኑ	-6422
በሚዛን	-6423
በሰዎች	-6424
በቀረበ	-6425
በታቦቱ	-6426
በኃይሉ	-6427
በነበሩ	-6428
በእጁም	-6429
በእግሩ	-6430
በወኅኒ	-6431
በዘበዙ	-6432
በጎቹን	-6433
ባላቅም	-6434
ባሪያው	-6435
ባደረገ	-6436
ብሻለሁ	-6437
ተላለፍ	-6438
ተቈጠሩ	-6439
ተኛውን	-6440
ተገልጦ	-6441
ትናገራ	-6442
ትእዛዛ	-6443
ትጠብቅ	-6444
ቻችንም	-6445
ኃይልና	-6446
ኅብስት	-6447
ንጉሥና	-6448
አላወቅ	-6449
አልቅሱ	-6450
አትሁኑ	-6451
አችሁም	-6452
አክዓብ	-6453
አገኙት	-6454
ኢዮራም	-6455
እስራት	-6456
ከአሦር	-6457
ከወይን	-6458
ኵርንች	-6459
ወርደው	-6460
ወደድሁ	-6461
ዕራብም	-6462
የመረጥ	-6463
የሚፈራ	-6464
የምታስ	-6465
የወለደ	-6466
የዓለም	-6467
የጻድቅ	-6468
ይጮኻል	-6469
ይጸናል	-6470
ደረጉት	-6471
ደቡብም	-6472
ድንግል	-6473
ገለግል	-6474
ግብዞች	-6475
ጓዳዎች	-6476
ጡአቸው	-6477
ጭንቀት	-6478
ጻድቁን	-6479
ጻፎችም	-6480
ፋሲካን	-6481
ለማደሪያ	-6482
ለአንተም	-6483
መልአኩም	-6484
መልእክት	-6485
መታጠቂያ	-6486
መኳንንት	-6487
መጻተኞች	-6488
ሰማያትን	-6489
ሰጠኋቸው	-6490
ስፍራዎች	-6491
ቀርቦአል	-6492
ቅርንጫፍ	-6493
በሕዝቡም	-6494
በሕዝብህ	-6495
በሚሆነው	-6496
በራሳቸው	-6497
በተናገረ	-6498
በተፈጸመ	-6499
በአጠገቡ	-6500
በኤርትራ	-6501
በግብጽም	-6502
ቢያደርግ	-6503
ባቢሎንን	-6504
ብላቴኖች	-6505
ተቀመጠች	-6506
ቸነፈርም	-6507
ነበረበት	-6508
ነፍሳችሁ	-6509
ነፍሴንም	-6510
አልነበሩ	-6511
አስጨናቂ	-6512
አይኖርም	-6513
እንዳዘዝ	-6514
ከመከተል	-6515
ከሰማያዊ	-6516
ከአይሁድ	-6517
ካህናትና	-6518
የሚቀበል	-6519
የሚፈርድ	-6520
የማይገባ	-6521
የምናሴም	-6522
የሰሎሞን	-6523
የተመሸጉ	-6524
የነበረች	-6525
የአሦርም	-6526
የፈርዖን	-6527
ያለችውን	-6528
ያስተውሉ	-6529
ይወርሳሉ	-6530
ዮሐንስን	-6531
ዲያብሎስ	-6532
ጌዴዎንም	-6533
ፍርድንና	-6534
መንግሥትም	-6535
በልባቸውም	-6536
በአሥረኛው	-6537
በአራተኛው	-6538
በእናንተም	-6539
በእያንዳን	-6540
ተጽፎአልና	-6541
ትእዛዙንም	-6542
ኃጢአታችሁ	-6543
አድርጎአል	-6544
እንድትሆኑ	-6545
እዘምራለሁ	-6546
እፈልጋለሁ	-6547
ከአባታችን	-6548
ከእነዚህም	-6549
ወንድሞችህ	-6550
የሌዋውያን	-6551
የዘበኞቹም	-6552
ይሆንልሃል	-6553
ልጆቻቸውንም	-6554
በአርጤክስስ	-6555
የአምላክህን	-6556
የአምላካችንን	-6557
በእግዚአብሔርና	-6558
የኢየሩሳሌምንም	-6559
መኰ	-6560
መጪ	-6561
ሩኝ	-6562
ሬካ	-6563
ሰሎ	-6564
ሰቀ	-6565
ሳቱ	-6566
ሻቅ	-6567
ሽባ	-6568
ሾህ	-6569
ቀማ	-6570
ቋቋ	-6571
በፈ	-6572
ቡና	-6573
ቦር	-6574
ቴና	-6575
ትቆ	-6576
ትያ	-6577
ኤስ	-6578
እኖ	-6579
ከዓ	-6580
ከዳ	-6581
ከግ	-6582
ውብ	-6583
ዐር	-6584
ዑዝ	-6585
ዒላ	-6586
ዜቡ	-6587
የሁ	-6588
ያወ	-6589
ያዋ	-6590
ይብ	-6591
ደፈ	-6592
ዳራ	-6593
ድሶ	-6594
ዶሮ	-6595
ገጥ	-6596
ገፋ	-6597
ጠጉ	-6598
ጦብ	-6599
ጫው	-6600
ፍሁ	-6601
ሁህን	-6602
ለመም	-6603
ለትን	-6604
ለዚያ	-6605
መኝታ	-6606
መዕሤ	-6607
መጋቢ	-6608
ምንኛ	-6609
ሞአል	-6610
ሠራሁ	-6611
ሩትም	-6612
ሪቱም	-6613
ሰማኝ	-6614
ሰሜኢ	-6615
ሲሆን	-6616
ሸሸገ	-6617
ሸሽቶ	-6618
ሻገር	-6619
ቃለች	-6620
ቃጥላ	-6621
ቅጥሩ	-6622
ቆሙት	-6623
በሐሰ	-6624
በመቃ	-6625
በርኵ	-6626
በሰብ	-6627
በበዓ	-6628
በጣዖ	-6629
በፋን	-6630
ባላቅ	-6631
ባየች	-6632
ቤልዩ	-6633
ቤትን	-6634
ብልጣ	-6635
ተሻግ	-6636
ተቀደ	-6637
ቲቱም	-6638
ታለህ	-6639
ታምኑ	-6640
ትመስ	-6641
ትወል	-6642
ቶችዋ	-6643
ኀጥእ	-6644
ነገም	-6645
ንግግ	-6646
ንጹሑ	-6647
ኖኅም	-6648
ኖንም	-6649
አላዋ	-6650
አስነ	-6651
አነገ	-6652
አንጥ	-6653
አወጡ	-6654
አዘዝ	-6655
አይቼ	-6656
አዳን	-6657
አጠፉ	-6658
አጥፊ	-6659
አጥፍ	-6660
እኅቴ	-6661
እወጣ	-6662
እጁም	-6663
ከሌለ	-6664
ከራሱ	-6665
ከአር	-6666
ከፊቱ	-6667
ካስማ	-6668
ኮርም	-6669
ወትር	-6670
ወንዶ	-6671
ወድዱ	-6672
ውስጠ	-6673
ዘረጉ	-6674
ዘርጋ	-6675
የሆድ	-6676
የሚሹ	-6677
የብዙ	-6678
የተማ	-6679
የአቤ	-6680
ያልፉ	-6681
ይዘጋ	-6682
ይጠጡ	-6683
ይጠጣ	-6684
ዮአስ	-6685
ድሶን	-6686
ጎዳና	-6687
ጐራጐ	-6688
ጠጡም	-6689
ጨመረ	-6690
ጨነቅ	-6691
ፈጣሪ	-6692
ሃቸውም	-6693
ለሚኖሩ	-6694
ለምርኮ	-6695
ለራስህ	-6696
ለአንዱ	-6697
ማቸውም	-6698
ሜአለሁ	-6699
ምንጮች	-6700
ራስዋን	-6701
ራችሁን	-6702
ሰማችሁ	-6703
ሰባቱን	-6704
ስቍልና	-6705
ቀመጡት	-6706
ቅዱስም	-6707
ቅድስተ	-6708
ቍጣውን	-6709
ቍጥቋጦ	-6710
በለዓም	-6711
በመሬት	-6712
በመቅደ	-6713
በሥጋው	-6714
በሰፈሩ	-6715
በስምህ	-6716
በቅጥር	-6717
በታቸው	-6718
በኣልን	-6719
በገሊላ	-6720
በፊቴም	-6721
ባረከው	-6722
ተራራው	-6723
ተሰጠው	-6724
ተቀብሎ	-6725
ተናልና	-6726
ተናወጠ	-6727
ቶችንም	-6728
አሁንስ	-6729
አለቆቹ	-6730
አማካሪ	-6731
አትሁን	-6732
አችሁን	-6733
አወጣው	-6734
አግኝቼ	-6735
እናትህ	-6736
እግሩን	-6737
እፈርድ	-6738
ከራከር	-6739
ከሳኦል	-6740
ከብበው	-6741
ከንጉሥ	-6742
ከእህሉ	-6743
ከእግሩ	-6744
ከጨለማ	-6745
ክህነት	-6746
ዓለምን	-6747
ዓይኖቹ	-6748
የለንም	-6749
የሚጠራ	-6750
የምስራ	-6751
የሠራው	-6752
የሦስት	-6753
የሶርያ	-6754
የበፍታ	-6755
የተልባ	-6756
የጭፍራ	-6757
ያመጣል	-6758
ይሸሻል	-6759
ይሸከሙ	-6760
ደመናው	-6761
ጕድጓዱ	-6762
ጠብቀው	-6763
ለባቢሎን	-6764
ለንጉሡም	-6765
ልባቸውም	-6766
ልባቸውን	-6767
ማኅበሩም	-6768
ሰዎችንም	-6769
ቅርንጫፎ	-6770
በሰይፍም	-6771
በባሕርም	-6772
በተቀመጠ	-6773
በታላቅም	-6774
በአንተም	-6775
በአንቺም	-6776
በውስጥዋ	-6777
በዚያችም	-6778
በድንገት	-6779
በፊትህም	-6780
በፋንታው	-6781
ባሪያህም	-6782
ብላችኋል	-6783
ተቀመጡት	-6784
ተናገርህ	-6785
ተከተለኝ	-6786
ተከተለው	-6787
ትበላለች	-6788
ቻችሁንም	-6789
አልችልም	-6790
አመጡለት	-6791
አትግለጥ	-6792
አችኋለሁ	-6793
አንዱንም	-6794
አድርገኝ	-6795
አጥንቶቼ	-6796
ኤላውያን	-6797
እልሃለሁ	-6798
እንናገራ	-6799
እኖራለሁ	-6800
ከተሞችን	-6801
ከካህናት	-6802
ዘገለዓድ	-6803
የሰማይን	-6804
የአገሩም	-6805
የወርቁን	-6806
ያደርገው	-6807
ይመለከቱ	-6808
ይበልጣል	-6809
ይነግሣል	-6810
ደመናውም	-6811
ጥበብንና	-6812
ለሚቃጠልም	-6813
ለያዕቆብም	-6814
መንገዳቸው	-6815
መንግሥቱም	-6816
በሰማርያም	-6817
በሰንበትም	-6818
በተቀደሰው	-6819
ነፍሳቸውን	-6820
አልተገኘም	-6821
አርጤክስስ	-6822
አይደለችም	-6823
እሰብራለሁ	-6824
ከሌዋውያን	-6825
ወንድማማች	-6826
የብንያምም	-6827
የአባትህን	-6828
የያዕቆብን	-6829
ያቀርበዋል	-6830
ደርሶአልና	-6831
ደኅንነትም	-6832
ሶርያውያንም	-6833
በመካከላችን	-6834
በአምስተኛው	-6835
በኢዮርብዓም	-6836
እንዲያደርጉ	-6837
የአባቶቻቸው	-6838
ፍልስጥኤማውያንን	-6839
ከፍልስጥኤማውያንም	-6840
ሁሽ	-6841
ለሙ	-6842
ሊም	-6843
ልበ	-6844
ልካ	-6845
ሐት	-6846
ሖር	-6847
መሬ	-6848
ሜር	-6849
ሱባ	-6850
ሺም	-6851
ቃር	-6852
ተቸ	-6853
ትዝ	-6854
ነዶ	-6855
ነጽ	-6856
አሽ	-6857
ኤዶ	-6858
ኪን	-6859
ኰል	-6860
ዖዛ	-6861
ዚፍ	-6862
የኔ	-6863
ያብ	-6864
ዮዛ	-6865
ዱሮ	-6866
ዲን	-6867
ዳው	-6868
ገመ	-6869
ጋዛ	-6870
ግዙ	-6871
ግያ	-6872
ጠህ	-6873
ጠማ	-6874
ጡን	-6875
ጫነ	-6876
ለብዙ	-6877
ለወጠ	-6878
ላይና	-6879
ሎችም	-6880
መርጦ	-6881
መዓካ	-6882
መደረ	-6883
መጡም	-6884
መጣን	-6885
መጥም	-6886
ማርም	-6887
ሜልኮ	-6888
ሠራም	-6889
ሥራህ	-6890
ረሃል	-6891
ርቀው	-6892
ሳውል	-6893
ሴትን	-6894
ስለማ	-6895
ስለም	-6896
ስሕተ	-6897
ስጠን	-6898
ሶአል	-6899
ቀላል	-6900
ቀሚስ	-6901
ቀድሱ	-6902
ቃለህ	-6903
ቃልም	-6904
በልጁ	-6905
በመጋ	-6906
በሱሳ	-6907
በቀኙ	-6908
በአዲ	-6909
በእስ	-6910
በዕቃ	-6911
በዚች	-6912
በዱር	-6913
ባርያ	-6914
ቤልን	-6915
ብለሽ	-6916
ብልጥ	-6917
ተሰው	-6918
ተዋት	-6919
ተዘግ	-6920
ተያዘ	-6921
ታስሮ	-6922
ታትን	-6923
ታናና	-6924
ቴንና	-6925
ትበል	-6926
ትኵር	-6927
ቻለው	-6928
ነትና	-6929
አላል	-6930
አልራ	-6931
አሶን	-6932
አኖር	-6933
አክብ	-6934
አዋር	-6935
አዳም	-6936
እመታ	-6937
እምቦ	-6938
እሾህ	-6939
እቶን	-6940
ከመቶ	-6941
ከቤቱ	-6942
ከናወ	-6943
ከዛሬ	-6944
ኸዋል	-6945
ወረሱ	-6946
ወታደ	-6947
ዐመፁ	-6948
ዔድን	-6949
ዘውድ	-6950
የሚካ	-6951
የእህ	-6952
ያፈራ	-6953
ያፈር	-6954
ይራራ	-6955
ይሰግ	-6956
ይበዘ	-6957
ይኑር	-6958
ይኖሩ	-6959
ይደረ	-6960
ይገሥ	-6961
ይጠባ	-6962
ይጠግ	-6963
ደምም	-6964
ደረቅ	-6965
ደቦል	-6966
ደካማ	-6967
ገሞራ	-6968
ገበሬ	-6969
ጋኔን	-6970
ግባት	-6971
ጠራቢ	-6972
ጥቅም	-6973
ጨነቀ	-6974
ጸንቶ	-6975
ጽድቁ	-6976
ፈረድ	-6977
ፈወስ	-6978
ፈዋል	-6979
ፉትን	-6980
ለመሄድ	-6981
ለታለሁ	-6982
ለድሆች	-6983
ላእክት	-6984
ሌሊቱን	-6985
ልብህን	-6986
ልጅዋን	-6987
መልካሙ	-6988
መምጣት	-6989
መረምር	-6990
መርገም	-6991
መስዋዕ	-6992
መንደር	-6993
ማልደው	-6994
ሞላበት	-6995
ሞዓብን	-6996
ሰማይና	-6997
ሰደደው	-6998
ሲኦልም	-6999
ቀድሞው	-7000
ቆአልና	-7001
በሁሉም	-7002
በሌላው	-7003
በሕልም	-7004
በመቅረ	-7005
በሴቶች	-7006
በአባት	-7007
በውስጤ	-7008
በዐውሎ	-7009
በዓመት	-7010
በዓይኑ	-7011
በደልን	-7012
በጎችና	-7013
በጥቂት	-7014
ባልዋም	-7015
ቤታቸው	-7016
ተሰበረ	-7017
ተሰጥቶ	-7018
ተቀበለ	-7019
ተናግሬ	-7020
ተኛይቱ	-7021
ተከትሎ	-7022
ታላቁም	-7023
ትጠብቃ	-7024
ትፈልጋ	-7025
ኅጥኣን	-7026
ነገሩም	-7027
ነገርና	-7028
ናገሩት	-7029
ንገረን	-7030
ንገረው	-7031
አልሰጠ	-7032
አልተው	-7033
አመለኩ	-7034
አሥረኛ	-7035
አባትዋ	-7036
አብያታ	-7037
አትብሉ	-7038
አትብላ	-7039
አግብቶ	-7040
አፈረሰ	-7041
ኤልያሴ	-7042
እንዳሳ	-7043
እንድና	-7044
ከራከሩ	-7045
ከአገሩ	-7046
ከኢያሱ	-7047
ከእጅህ	-7048
ከጌታዬ	-7049
ከጥቂት	-7050
ወፎችም	-7051
ዓይኑን	-7052
ዝንጕር	-7053
የሚመስ	-7054
የሚሰሙ	-7055
የሚጠላ	-7056
የማታው	-7057
የቀረበ	-7058
የተሞሉ	-7059
የነገረ	-7060
የግሪክ	-7061
የጥፋት	-7062
ያላቸው	-7063
ያልፋሉ	-7064
ያመስግ	-7065
ያስወግ	-7066
ያቃጥሉ	-7067
ይሁዳና	-7068
ይህንስ	-7069
ይሰጠው	-7070
ይቀበል	-7071
ይዛችሁ	-7072
ደስታና	-7073
ደንቆሮ	-7074
ዳላችሁ	-7075
ድምፅም	-7076
ገንዘቡ	-7077
ግመሎች	-7078
ጣቸውን	-7079
ጨረቃም	-7080
ጽድቅም	-7081
ፈራቸው	-7082
ፊልጶስ	-7083
ፊቱንም	-7084
ሄሮድስም	-7085
ለነበሩት	-7086
ላቸውምና	-7087
ሌላውንም	-7088
መስኮቶች	-7089
መንፈስን	-7090
ሠራተኞች	-7091
ሥርዓቴን	-7092
ራቸዋለሁ	-7093
ቍጥራቸው	-7094
በላያችሁ	-7095
በመርከብ	-7096
በማድረግ	-7097
በሠራዊት	-7098
በሰማይና	-7099
በብልሃት	-7100
በትእዛዝ	-7101
በኋለኛው	-7102
በአባቱም	-7103
በዙፋኑም	-7104
በያዕቆብ	-7105
ባልንጀሮ	-7106
ትሞታለህ	-7107
አሜስያስ	-7108
አምላኬን	-7109
አስቀድሜ	-7110
አቅራቢያ	-7111
አቸዋለሁ	-7112
አንዳንዱ	-7113
አንጾኪያ	-7114
አእላፋት	-7115
አያውቁም	-7116
አይቻለሁ	-7117
አዳራሾች	-7118
አዳናቸው	-7119
ኢትዮጵያ	-7120
እስኪነጋ	-7121
እናንተስ	-7122
ከመንገድ	-7123
ከፊታችሁ	-7124
ወደዳችሁ	-7125
ውያንንም	-7126
የሚናገረ	-7127
የሚወጡት	-7128
የሚያህሉ	-7129
የሚያጠፋ	-7130
የማንሣት	-7131
የስምዖን	-7132
የተሸከሙ	-7133
የተወለዱ	-7134
የደኅንነ	-7135
የገለዓድ	-7136
ይመስገን	-7137
ይመጣልና	-7138
ይስሐቅን	-7139
ይቃጠላል	-7140
ይታጠባል	-7141
ዳንኤልም	-7142
ጕስቍልና	-7143
ጠባቂዎች	-7144
ጠየቃቸው	-7145
ፍርዴንም	-7146
ለአሕዛብም	-7147
ልጆቻችሁም	-7148
መንገዳችሁ	-7149
መንገድህን	-7150
መዛሙርቱን	-7151
ማስተዋልን	-7152
ስላደረገው	-7153
ቀርቦአልና	-7154
በመንግሥቱ	-7155
በማስተዋል	-7156
በምሥራቅም	-7157
በኢዮስያስ	-7158
ብላቴናውም	-7159
ነገሥታትም	-7160
እጠብቃለሁ	-7161
ከሚቃጠለው	-7162
ከክርስቶስ	-7163
ወንድሙንም	-7164
የተባለውን	-7165
የፈርዖንን	-7166
ጃንደረቦች	-7167
ገደሉአቸው	-7168
ለአባቶቻችሁ	-7169
መንገዳቸውን	-7170
ሽማግሌዎችና	-7171
በግምባራቸው	-7172
ኃጢአታቸውም	-7173
አደርጋታለሁ	-7174
አድርጌሃለሁ	-7175
ኢየሩሳሌምና	-7176
እንናገራለን	-7177
ከፈሪሳውያን	-7178
ለእያንዳንዱም	-7179
እያንዳንዳችሁ	-7180
የሚያደርጉትን	-7181
የአምላካችሁን	-7182
ሁድ	-7183
ለድ	-7184
ሊሰ	-7185
ሎና	-7186
መች	-7187
ሞር	-7188
ሦራ	-7189
ረቅ	-7190
ረጀ	-7191
ራኄ	-7192
ሮጥ	-7193
ሱር	-7194
ሲድ	-7195
ሳባ	-7196
ሸት	-7197
ሻት	-7198
በሆ	-7199
ባቻ	-7200
ባያ	-7201
ቤዣ	-7202
ተቅ	-7203
ቲም	-7204
ታዝ	-7205
ኆች	-7206
ነጠ	-7207
እሴ	-7208
ኩላ	-7209
ኮት	-7210
ዊቱ	-7211
ዐም	-7212
ዘነ	-7213
የኃ	-7214
የኦ	-7215
የዕ	-7216
ያፌ	-7217
ይሒ	-7218
ደሉ	-7219
ዶር	-7220
ጌት	-7221
ጎቻ	-7222
ጥዋ	-7223
ጥጃ	-7224
ጦች	-7225
ጨር	-7226
ጭኖ	-7227
ፈሉ	-7228
ፈፋ	-7229
ፊም	-7230
ፊቦ	-7231
ፌጎ	-7232
ፎን	-7233
ሄድም	-7234
ሄድን	-7235
ለመር	-7236
ለመታ	-7237
ላከው	-7238
ልብና	-7239
ልናል	-7240
ሐማም	-7241
ሕትና	-7242
መሰን	-7243
መሸሸ	-7244
መትቶ	-7245
መከሩ	-7246
መጥታ	-7247
ሚዳቋ	-7248
ማልክ	-7249
ማኑሄ	-7250
ምጽዋ	-7251
ሣለሁ	-7252
ሣራም	-7253
ሥራን	-7254
ሥቃይ	-7255
ሥጋን	-7256
ሥጋዬ	-7257
ረዳል	-7258
ሩበት	-7259
ራራም	-7260
ራትም	-7261
ራንም	-7262
ሰማው	-7263
ሰደዱ	-7264
ሰጠሁ	-7265
ሰጠህ	-7266
ሲሄዱ	-7267
ሲወጡ	-7268
ሲገባ	-7269
ሳኖች	-7270
ሶችን	-7271
ሽምግ	-7272
ሾችም	-7273
ቀርቶ	-7274
ቀኝም	-7275
ቀጥሎ	-7276
ቃላት	-7277
ቃወሙ	-7278
ቄሣር	-7279
ቅምና	-7280
ቍጣዬ	-7281
በሄደ	-7282
በላት	-7283
በመን	-7284
በማታ	-7285
በቀለ	-7286
በቅጥ	-7287
በባለ	-7288
በድለ	-7289
በጸጋ	-7290
ቢያስ	-7291
ባልተ	-7292
ተማም	-7293
ተቀበ	-7294
ተኛና	-7295
ተኞቹ	-7296
ተደር	-7297
ቲቱን	-7298
ታምነ	-7299
ታሳድ	-7300
ታወከ	-7301
ታጠብ	-7302
ትሄድ	-7303
ትርም	-7304
ትተኛ	-7305
ትጠጣ	-7306
ነሡት	-7307
ነቀፋ	-7308
ነቱን	-7309
ኘውን	-7310
ኛለሽ	-7311
ኝንም	-7312
አህዮ	-7313
አምል	-7314
አርክ	-7315
አቃጥ	-7316
አቅና	-7317
አታር	-7318
አንሡ	-7319
አንካ	-7320
አየና	-7321
አደነ	-7322
አድነ	-7323
አፈለ	-7324
ኤልፋ	-7325
እከፍ	-7326
እዘረ	-7327
ከማሉ	-7328
ከማል	-7329
ከርቤ	-7330
ከአቤ	-7331
ከክፋ	-7332
ከወጡ	-7333
ከፈት	-7334
ወረው	-7335
ወርም	-7336
ወደም	-7337
ወገኖ	-7338
ወጣህ	-7339
ወጭት	-7340
ዋገት	-7341
ዐረፈ	-7342
ዘለላ	-7343
ዘመድ	-7344
ዘመዶ	-7345
ዘዘው	-7346
የሙሴ	-7347
የሚሳ	-7348
የራቀ	-7349
የቀባ	-7350
የእም	-7351
የደም	-7352
የድሀ	-7353
የጠፋ	-7354
ያለን	-7355
ያዛት	-7356
ይሸፍ	-7357
ይበቅ	-7358
ደናጎ	-7359
ደውን	-7360
ገለገ	-7361
ግብዝ	-7362
ጕድፍ	-7363
ጠበቀ	-7364
ጣልና	-7365
ጦሩን	-7366
ጨዋል	-7367
ጺቅላ	-7368
ጽድቄ	-7369
ፊትህ	-7370
ፌሶን	-7371
ፍላጾ	-7372
ፍረስ	-7373
ለሕዝብ	-7374
ለምናሴ	-7375
ለበጠው	-7376
ለአውራ	-7377
ለፍርድ	-7378
ሐውልት	-7379
ሕልምን	-7380
መልጥም	-7381
መበለት	-7382
መታመኛ	-7383
መክደኛ	-7384
መጥቶም	-7385
ሚስትን	-7386
ሜምፊቦ	-7387
ሦስትም	-7388
ሰንበታ	-7389
ሰይፍም	-7390
ሰይፍን	-7391
ሰጠሁት	-7392
ስጣቸው	-7393
ቀደሰው	-7394
ቃሌንም	-7395
ቅዱስን	-7396
በምኵራ	-7397
በምጽጳ	-7398
በሴኬም	-7399
በሶርያ	-7400
በቅድስ	-7401
በበገና	-7402
በቤትህ	-7403
በካህኑ	-7404
በወንዙ	-7405
በዘመኑ	-7406
በጊዜው	-7407
በጌታዬ	-7408
ባላችሁ	-7409
ተሻገረ	-7410
ተቀደሱ	-7411
ተዋቸው	-7412
ተዘርግ	-7413
ተጠበቁ	-7414
ታመንሁ	-7415
ታጠቢያ	-7416
ትወርሱ	-7417
ቸዋለን	-7418
ነቢዩን	-7419
ነትንና	-7420
ናቡዘረ	-7421
አላጠፋ	-7422
አልደረ	-7423
አመጣኝ	-7424
አምላኮ	-7425
አምጥቶ	-7426
አራቱን	-7427
አሰብሁ	-7428
አሳየኝ	-7429
አስመጣ	-7430
አንካሳ	-7431
አውራጃ	-7432
አያልፍ	-7433
አይበል	-7434
አይጠቅ	-7435
አይጸና	-7436
አድርጋ	-7437
አገኘሁ	-7438
ኢታምር	-7439
እነግራ	-7440
እንሞታ	-7441
እንበረ	-7442
እንጎቻ	-7443
እያመሰ	-7444
እግሮቹ	-7445
ከለከል	-7446
ከተማው	-7447
ከንፈሮ	-7448
ከአንዱ	-7449
ካቸውም	-7450
ወርቁን	-7451
ወሰደች	-7452
ወዮለት	-7453
ወድቀው	-7454
ወጥቶም	-7455
ዓመፃን	-7456
ዕቃውን	-7457
ዖዝያን	-7458
ዝናብም	-7459
የሕዝቡ	-7460
የሕዝብ	-7461
የሚበል	-7462
የቀረው	-7463
የብረት	-7464
የተቀባ	-7465
የተፈታ	-7466
ይሰበሰ	-7467
ይሰግዱ	-7468
ይባርክ	-7469
ይወርሱ	-7470
ይፈርዱ	-7471
ዮዛባት	-7472
ድንበራ	-7473
ገረዙት	-7474
ገናኘት	-7475
ጕልበት	-7476
ጠበቅሁ	-7477
ጠነኛው	-7478
ጣላችሁ	-7479
ጥቂትም	-7480
ጥበብም	-7481
ጽዋዎች	-7482
ጽዮንን	-7483
ፍጹማን	-7484
ሁለተኛም	-7485
ለአሮንና	-7486
ለካህናቱ	-7487
ለይስሐቅ	-7488
ልጆችንም	-7489
ሐሰተኞች	-7490
መንጋውን	-7491
ምሕረቱም	-7492
ራሳችንን	-7493
ሳቸዋለሁ	-7494
በመንገዱ	-7495
በመከራዬ	-7496
በምስክሩ	-7497
በነበሩት	-7498
በነገውም	-7499
በዙሪያዋ	-7500
በደለኞች	-7501
በደማስቆ	-7502
ባሪያዎቼ	-7503
ብርሃንም	-7504
ተኸኛልና	-7505
ታደርገው	-7506
ትሄዳለህ	-7507
ነበረችና	-7508
ነበራቸው	-7509
ነፍሳቸው	-7510
አላስተዋ	-7511
አልቀረም	-7512
አልቻለም	-7513
አብደናጎ	-7514
አይችሉም	-7515
አገልጋዮ	-7516
ኢዮአብን	-7517
እስከዚህ	-7518
እቀጣለሁ	-7519
እንዲሄድ	-7520
እንጨትም	-7521
እገባለሁ	-7522
ከነቢያት	-7523
ከያዕቆብ	-7524
ከፊታቸው	-7525
ኪዳኔንም	-7526
የሚወድዱ	-7527
የምስጋና	-7528
የተዘጋጁ	-7529
የአባትህ	-7530
የአንበሳ	-7531
የጌታችን	-7532
ያስተምሩ	-7533
ይሸከማሉ	-7534
ጃንደረባ	-7535
ገለዓድን	-7536
ጉባኤውም	-7537
ጸሐፊውም	-7538
ጽድቅንም	-7539
ፈጥናችሁ	-7540
ለሚያደርጉ	-7541
መንኰራኵር	-7542
ራሳቸውንም	-7543
በመካከልሽ	-7544
በባቢሎንም	-7545
በፈርዖንና	-7546
ተቀበላችሁ	-7547
ትኖራላችሁ	-7548
ትእዛዝህን	-7549
ኃጢአታችን	-7550
ናቡዘረዳን	-7551
አልመለስም	-7552
አቤሜሌክም	-7553
አደረገለት	-7554
አጋንንትን	-7555
ኢየሱስንም	-7556
ኢዮሣፍጥን	-7557
እንግድነት	-7558
እዘረጋለሁ	-7559
ከመሠዊያው	-7560
የሰሎሞንን	-7561
የባሪያዎች	-7562
የባቢሎንን	-7563
የተሠሩትን	-7564
የተቀመጠው	-7565
የይስሐቅም	-7566
ያስተሰርይ	-7567
በአሞራውያን	-7568
አልነበረምን	-7569
ያደረግሁትን	-7570
ይሆንላቸዋል	-7571
በአጠገባቸውም	-7572
እለምናችኋለሁ	-7573
የአባቶቻቸውን	-7574
የኢየሩሳሌምን	-7575
ሃና	-7576
ሄጄ	-7577
ለሰ	-7578
ለዋ	-7579
ሎዶ	-7580
ሕን	-7581
መዋ	-7582
ማቱ	-7583
ምህ	-7584
ሠለ	-7585
ረኩ	-7586
ርጌ	-7587
ሳው	-7588
ሳያ	-7589
ሴዕ	-7590
ሸጥ	-7591
ሻሉ	-7592
ሻው	-7593
ቀብ	-7594
ቂሣ	-7595
ቃቄ	-7596
ቈራ	-7597
በህ	-7598
በሽ	-7599
በካ	-7600
በጅ	-7601
በጽ	-7602
ብጥ	-7603
ታመ	-7604
ትሉ	-7605
ናታ	-7606
ኝና	-7607
አመ	-7608
አጭ	-7609
እደ	-7610
ከሴ	-7611
ከኢ	-7612
ካፍ	-7613
ክራ	-7614
ዛሉ	-7615
ዛው	-7616
የች	-7617
የኬ	-7618
የዝ	-7619
ያኖ	-7620
ዮአ	-7621
ደኝ	-7622
ደጀ	-7623
ደፍ	-7624
ዳኛ	-7625
ድው	-7626
ገፍ	-7627
ጉቦ	-7628
ጋባ	-7629
ግሎ	-7630
ጎድ	-7631
ጣብ	-7632
ጩን	-7633
ጫጩ	-7634
ጫፎ	-7635
ጻት	-7636
ፈላ	-7637
ፈጠ	-7638
ሁከት	-7639
ሄልም	-7640
ህምን	-7641
ለመኑ	-7642
ለውጦ	-7643
ሌዋዊ	-7644
ልያም	-7645
ሎጥም	-7646
መምህ	-7647
መጡት	-7648
ሚንም	-7649
ማቴም	-7650
ማፀኛ	-7651
ምስሎ	-7652
ሞተው	-7653
ሞንዔ	-7654
ረከሰ	-7655
ሬማት	-7656
ርብቃ	-7657
ርንጫ	-7658
ርዳት	-7659
ሰማህ	-7660
ሲሄድ	-7661
ሸቀጥ	-7662
ሻገሩ	-7663
ቁመት	-7664
ቅንም	-7665
ቈጡኝ	-7666
ቍረጥ	-7667
ቍጠር	-7668
በመቶ	-7669
በራሉ	-7670
በቁር	-7671
በቅድ	-7672
በቈላ	-7673
በቱን	-7674
በአቢ	-7675
በአዛ	-7676
በድሉ	-7677
በድካ	-7678
በገቡ	-7679
በጥፋ	-7680
በጸሎ	-7681
ቢሠራ	-7682
ባገኘ	-7683
ብኝም	-7684
ብፁዕ	-7685
ተበቃ	-7686
ተነሺ	-7687
ታትም	-7688
ትመለ	-7689
ትምና	-7690
ነንና	-7691
ነጠቀ	-7692
ናትን	-7693
ንበት	-7694
ንገር	-7695
ኝምና	-7696
አልን	-7697
አርቅ	-7698
አሰኘ	-7699
አሳዳ	-7700
አስቸ	-7701
አቢሳ	-7702
አኪማ	-7703
አወረ	-7704
አውቅ	-7705
አዝዣ	-7706
¦	-7707
▁	-7708
ን	-7709
ም	-7710
አ	-7711
በ	-7712
እ	-7713
ር	-7714
ው	-7715
ል	-7716
ት	-7717
ለ	-7718
ስ	-7719
የ	-7720
ይ	-7721
።	-7722
ነ	-7723
መ	-7724
ደ	-7725
፥	-7726
ብ	-7727
ና	-7728
ች	-7729
ድ	-7730
ተ	-7731
ያ	-7732
ከ	-7733
ሁ	-7734
ግ	-7735
ላ	-7736
ወ	-7737
ህ	-7738
ሰ	-7739
ገ	-7740
ራ	-7741
፤	-7742
ረ	-7743
ባ	-7744
ታ	-7745
ዚ	-7746
ሉ	-7747
ማ	-7748
ቸ	-7749
ቀ	-7750
ጠ	-7751
ዘ	-7752
ዳ	-7753
ፍ	-7754
ሆ	-7755
ሱ	-7756
ሔ	-7757
ሳ	-7758
ቅ	-7759
ክ	-7760
ጥ	-7761
ሚ	-7762
ዋ	-7763
ፈ	-7764
ቱ	-7765
ሩ	-7766
ጋ	-7767
ጣ	-7768
ሥ	-7769
ቶ	-7770
ሞ	-7771
ቃ	-7772
ሕ	-7773
ካ	-7774
ዲ	-7775
ኤ	-7776
ዝ	-7777
ዓ	-7778
ቤ	-7779
ጅ	-7780
ኛ	-7781
ጉ	-7782
ዛ	-7783
ኝ	-7784
ዎ	-7785
ሌ	-7786
ሎ	-7787
ኑ	-7788
ኔ	-7789
ጆ	-7790
ሙ	-7791
ሮ	-7792
ፋ	-7793
ዱ	-7794
ጊ	-7795
ቢ	-7796
ሴ	-7797
ኢ	-7798
ኖ	-7799
?	-7800
ፊ	-7801
ሠ	-7802
ሪ	-7803
ዜ	-7804
ቡ	-7805
ዕ	-7806
ቻ	-7807
ዊ	-7808
ቆ	-7809
ሽ	-7810
ጡ	-7811
ዮ	-7812
ኃ	-7813
ጽ	-7814
ቹ	-7815
ኋ	-7816
ጌ	-7817
ሬ	-7818
ዙ	-7819
ቁ	-7820
ሃ	-7821
ሊ	-7822
ዶ	-7823
ሐ	-7824
ሸ	-7825
ቴ	-7826
ሄ	-7827
ፉ	-7828
ጀ	-7829
ሣ	-7830
ጸ	-7831
ሶ	-7832
ሲ	-7833
ጢ	-7834
ሜ	-7835
ሡ	-7836
ሻ	-7837
ጨ	-7838
ዩ	-7839
ጎ	-7840
ኪ	-7841
ጻ	-7842
ቍ	-7843
ኩ	-7844
ቦ	-7845
ጭ	-7846
ኞ	-7847
ዬ	-7848
ዴ	-7849
ኮ	-7850
ጃ	-7851
ቈ	-7852
ሦ	-7853
ጁ	-7854
ቼ	-7855
ፎ	-7856
ቂ	-7857
ፅ	-7858
ጦ	-7859
ጕ	-7860
ኳ	-7861
ኅ	-7862
ኸ	-7863
ዖ	-7864
ኵ	-7865
ጫ	-7866
ሺ	-7867
ጂ	-7868
ኦ	-7869
ሀ	-7870
ጐ	-7871
ኘ	-7872
ዞ	-7873
ኬ	-7874
ፀ	-7875
ጹ	-7876
ጮ	-7877
ጄ	-7878
ጓ	-7879
ዔ	-7880
ፌ	-7881
ሹ	-7882
ሾ	-7883
ቄ	-7884
ቲ	-7885
ፃ	-7886
ሂ	-7887
ኒ	-7888
ቺ	-7889
ኙ	-7890
ቋ	-7891
ጳ	-7892
!	-7893
ኰ	-7894
ዐ	-7895
ኣ	-7896
ጩ	-7897
ጤ	-7898
ጴ	-7899
ዌ	-7900
ኀ	-7901
ዉ	-7902
ዑ	-7903
ፁ	-7904
ሤ	-7905
ኹ	-7906
ጾ	-7907
ዣ	-7908
ሖ	-7909
ዥ	-7910
ጵ	-7911
ኽ	-7912
ፆ	-7913
ኜ	-7914
ኻ	-7915
ጪ	-7916
ጲ	-7917
ሑ	-7918
ኆ	-7919
ዪ	-7920
ዒ	-7921
a	-7922
ሒ	-7923
ሼ	-7924
ዠ	-7925
ጶ	-7926
w	-7927
ዢ	-7928
ኡ	-7929
ኚ	-7930
ጼ	-7931
ጺ	-7932
𐋇	-7933
ጬ	-7934
k	-7935
ዦ	-7936
ዤ	-7937
ሢ	-7938
ቾ	-7939
ሓ	-7940
ዡ	-7941
ፄ	-7942
𐊣	-7943
𐊼	-7944
g	-7945
ኄ	-7946
r	-7947
d	-7948
ኾ	-7949
ጰ	-7950
ጱ	-7951
ቧ	-7952
ፔ	-7953
ፕ	-7954
t	-7955
ኺ	-7956
*	-7957
1	-7958
v	-7959
"	-7960
l	-7961
ሷ	-7962
ፐ	-7963
ፓ	-7964
2	-7965
s	-7966
3	-7967
[	-7968
]	-7969
o	-7970
ፑ	-7971
ፒ	-7972
(	-7973
)	-7974
-	-7975
5	-7976
e	-7977
ቊ	-7978
ዷ	-7979
ፂ	-7980
0	-7981
4	-7982
@	-7983
b	-7984
m	-7985
u	-7986
ሏ	-7987
ቷ	-7988
ቿ	-7989
ኗ	-7990
ኟ	-7991
ኲ	-7992
ኼ	-7993
ጒ	-7994
ጧ	-7995
ፏ	-7996
