<pad>	0
</s>	0
<unk>	0
▁	-3.30707
.	-3.42125
ي	-3.51906
ا	-3.54937
▁ال	-3.73675
ه	-3.77847
ت	-3.86657
م	-3.98974
ن	-4.03086
ك	-4.05106
ر	-4.14308
س	-4.19007
ل	-4.19424
ى	-4.20846
▁و	-4.2161
ة	-4.23466
ب	-4.3095
ع	-4.35795
▁ي	-4.35839
▁ا	-4.41767
▁في	-4.48921
وا	-4.51709
ق	-4.52098
▁من	-4.57237
د	-4.63851
ون	-4.64126
ح	-4.65958
و	-4.7041
▁ت	-4.7465
ف	-4.77713
▁ف	-4.85218
▁م	-4.94023
ش	-4.95704
▁ب	-4.97234
ّ	-4.99793
ين	-5.03534
خ	-5.06943
هم	-5.13354
▁ان	-5.17408
ها	-5.20043
نا	-5.20871
ط	-5.2145
▁الرب	-5.23082
ث	-5.30506
▁وا	-5.34522
ان	-5.34824
ج	-5.36599
ز	-5.37417
ض	-5.38292
▁ل	-5.38853
▁وال	-5.41638
▁عل	-5.43992
غ	-5.44376
▁كل	-5.48569
ذ	-5.48839
ص	-5.51483
▁لا	-5.52332
▁الم	-5.5715
▁الذي	-5.57912
اء	-5.62923
ما	-5.66065
كم	-5.66072
ئ	-5.72709
▁ع	-5.78422
ار	-5.86215
ال	-5.89393
را	-5.90677
يا	-5.92406
▁ن	-5.92664
▁س	-5.92711
ور	-5.95143
▁قد	-6.01377
ني	-6.05197
▁لان	-6.05659
اب	-6.06577
▁مع	-6.06706
▁ج	-6.07538
أ	-6.08267
▁وي	-6.08852
ير	-6.09933
▁لي	-6.10984
▁اسرائيل	-6.11661
▁ك	-6.13946
▁لل	-6.15724
لا	-6.17589
▁خ	-6.20055
رب	-6.21971
با	-6.22314
ول	-6.25352
▁الله	-6.25561
▁بال	-6.27522
▁ش	-6.27939
▁ولا	-6.28847
ام	-6.32459
▁لم	-6.33029
▁الا	-6.33079
▁فا	-6.33671
▁كان	-6.34048
▁له	-6.34091
▁عن	-6.34558
▁هذا	-6.38079
ست	-6.3915
قد	-6.43122
بي	-6.43446
▁فقال	-6.43527
▁الارض	-6.44214
▁اخ	-6.45322
رج	-6.45339
▁التي	-6.46031
▁وت	-6.46728
ية	-6.47937
▁الس	-6.49179
▁آ	-6.49354
▁بن	-6.49404
كل	-6.49759
▁هو	-6.49878
▁بيت	-6.50487
▁ما	-6.5077
ته	-6.53203
▁أ	-6.54335
وب	-6.55554
يل	-6.55841
يد	-6.55906
لم	-6.5813
قل	-6.58802
▁يا	-6.60351
▁ابن	-6.61593
مة	-6.6221
ري	-6.62257
جد	-6.63348
▁ايضا	-6.63896
دي	-6.6394
▁الج	-6.64153
اد	-6.645
حم	-6.64897
ذا	-6.65056
رف	-6.65516
▁.	-6.6612
▁وقال	-6.6619
▁ملك	-6.66589
يم	-6.68517
▁وم	-6.68568
وت	-6.69497
▁لانه	-6.69895
ات	-6.7057
بع	-6.71008
▁وب	-6.71011
▁جميع	-6.71437
ذهب	-6.72135
▁الملك	-6.72571
عد	-6.72964
صا	-6.73202
▁الح	-6.74675
عل	-6.76798
▁قال	-6.77928
▁به	-6.78129
▁وكان	-6.78141
عة	-6.78548
▁ثم	-6.78802
قي	-6.79169
تم	-6.79629
حا	-6.80799
ظ	-6.81113
▁بني	-6.82292
▁واحد	-6.83171
▁او	-6.83529
▁بل	-6.8386
وه	-6.85705
صر	-6.8612
▁عند	-6.86768
خرج	-6.86861
▁امام	-6.8719
ود	-6.87481
▁عليه	-6.89127
ؤ	-6.90057
▁انا	-6.90469
قر	-6.90746
▁وع	-6.91467
دا	-6.92535
سا	-6.92778
خر	-6.93401
أت	-6.93965
دم	-6.94196
مر	-6.95412
▁وان	-6.95613
▁وكل	-6.95629
لام	-6.96732
▁يد	-6.98661
شر	-7.00011
بر	-7.00307
وق	-7.00766
رك	-7.01718
يت	-7.02165
ضع	-7.02286
▁لك	-7.02399
حر	-7.02482
▁ام	-7.03163
فر	-7.03191
▁اليوم	-7.0351
هر	-7.03803
▁حي	-7.04327
▁ول	-7.04563
▁الش	-7.04746
▁ارض	-7.048
عمل	-7.05347
▁هكذا	-7.05379
جعل	-7.05456
جا	-7.0642
حب	-7.06587
تك	-7.07118
سمع	-7.08145
▁داود	-7.08413
▁لهم	-7.09208
▁الشعب	-7.09705
▁ومن	-7.09894
دخل	-7.10596
▁ار	-7.10903
فت	-7.11219
قول	-7.1143
▁يسوع	-7.12312
طي	-7.12489
▁كما	-7.12752
عط	-7.13035
صنع	-7.13226
فعل	-7.13397
▁هذه	-7.13971
▁د	-7.14352
رة	-7.15196
طر	-7.15447
▁قائلا	-7.15999
جل	-7.16877
▁سب	-7.17675
وس	-7.19624
▁بعد	-7.19708
▁حت	-7.19716
وج	-7.20445
آ	-7.20746
▁الف	-7.21104
▁الع	-7.21344
▁انت	-7.21983
▁ذلك	-7.22012
▁اسم	-7.22029
دع	-7.22539
▁فت	-7.23543
▁يكون	-7.23556
▁رب	-7.23619
بت	-7.24192
▁اع	-7.24437
▁وق	-7.25564
▁وفي	-7.25709
تكلم	-7.25714
▁فان	-7.25795
▁يهوذا	-7.26243
قا	-7.26411
▁نفس	-7.26414
قلب	-7.27163
▁واما	-7.27564
نة	-7.2771
جر	-7.27789
اف	-7.28055
▁ولكن	-7.28334
▁يقول	-7.28552
صعد	-7.28807
تي	-7.28958
حد	-7.29741
▁رجل	-7.30015
▁الب	-7.30186
▁موسى	-7.30377
▁اورشليم	-7.30493
▁با	-7.30748
حل	-7.30889
لو	-7.3139
▁هي	-7.31419
▁هناك	-7.31436
وم	-7.31849
▁ليس	-7.32031
▁ولم	-7.33459
نظر	-7.33463
▁بنو	-7.3377
وح	-7.33851
▁وس	-7.34915
▁اله	-7.35251
▁اذ	-7.35545
عبد	-7.35785
▁كثير	-7.36214
ملك	-7.36484
صل	-7.37097
▁عشر	-7.37565
صي	-7.38396
▁ابي	-7.3854
▁ز	-7.3875
▁حسب	-7.391
آب	-7.39102
▁ط	-7.40335
▁بين	-7.42514
زل	-7.43138
وف	-7.43624
قتل	-7.44938
ضرب	-7.45125
▁ايام	-7.45628
▁انه	-7.45698
▁شعب	-7.46376
▁لكي	-7.47063
ذبح	-7.48847
وع	-7.49561
▁لكم	-7.49578
قام	-7.5034
▁مصر	-7.50782
يين	-7.51104
رد	-7.52133
▁الشر	-7.53292
قب	-7.53351
▁رأ	-7.55437
▁اش	-7.55511
سكن	-7.56298
▁وح	-7.56439
رسل	-7.56728
خل	-7.57106
بني	-7.58552
ئيل	-7.5872
تهم	-7.59482
▁اجل	-7.60099
▁يوم	-7.60199
ء	-7.61835
طلب	-7.62616
▁عمل	-7.62855
موت	-7.62941
▁احد	-7.63351
▁المدينة	-7.63379
صو	-7.63647
▁اليه	-7.63706
▁اذا	-7.6558
▁وجه	-7.66146
تها	-7.66148
▁سمع	-7.66232
كثر	-7.68019
هوذا	-7.6861
▁المسيح	-7.69633
▁فم	-7.69812
خبر	-7.70085
▁للرب	-7.71717
▁وسط	-7.7217
▁وعل	-7.72548
جمع	-7.7519
صب	-7.75379
رض	-7.75541
▁كلام	-7.75697
هما	-7.77043
▁مثل	-7.77092
▁مئة	-7.77648
▁ولما	-7.79517
صد	-7.81413
▁اعط	-7.81446
▁هل	-7.8169
▁السماء	-7.81696
▁مر	-7.81926
▁فلا	-7.82262
▁لت	-7.82469
صف	-7.82584
▁عيني	-7.82796
▁جاء	-7.83452
تقدم	-7.8382
▁عليك	-7.83957
▁عظيم	-7.84134
حكم	-7.84888
▁الهك	-7.85294
أكل	-7.8543
عام	-7.85989
▁كال	-7.86275
▁سيد	-7.86333
▁قو	-7.86577
عز	-7.89365
حفظ	-7.89486
▁الانسان	-7.90419
▁الامم	-7.90432
▁فلما	-7.91107
▁امر	-7.917
▁كنت	-7.91863
▁الآن	-7.91899
قطع	-7.92734
▁وهو	-7.92902
▁شر	-7.93849
عظ	-7.94045
▁لاجل	-7.94133
▁سنة	-7.9445
ظل	-7.94564
▁تكون	-7.94635
▁انسان	-7.94821
ائم	-7.95686
▁ارسل	-7.96089
فرح	-7.96635
▁انتم	-7.97041
▁شاول	-7.97947
▁ثلاث	-7.98558
▁تحت	-7.989
▁الكاهن	-7.99216
▁واذا	-7.99485
ائر	-7.9972
▁راس	-7.99782
▁قدام	-7.99931
ذكر	-8.00203
▁البيت	-8.00449
مسك	-8.0239
▁قبل	-8.03403
▁ايه	-8.04073
▁طريق	-8.04346
▁ولد	-8.04525
خبز	-8.04606
أخذ	-8.04654
▁لذلك	-8.05172
سقط	-8.05548
▁قائلين	-8.06011
▁الابد	-8.06626
▁صوت	-8.07146
▁عبيد	-8.07774
▁جدا	-8.07954
▁يعقوب	-8.08865
عبر	-8.08963
▁الرجل	-8.09152
▁نحو	-8.11613
▁السيد	-8.12019
▁اليك	-8.12128
▁هؤلاء	-8.13001
حسن	-8.1346
▁شيء	-8.15764
الآن	-8.15794
▁البحر	-8.17071
نجس	-8.17304
رام	-8.17511
▁صار	-8.19661
▁وراء	-8.20633
سأل	-8.21494
▁غير	-8.21671
كتب	-8.22505
▁الكهنة	-8.22822
قوم	-8.23054
▁الناس	-8.24303
▁لماذا	-8.24537
▁بابل	-8.25345
▁الجنود	-8.27252
▁فاجاب	-8.27611
دفع	-8.27676
▁خمس	-8.27866
▁امرأة	-8.27944
ائه	-8.28883
▁حق	-8.30887
▁الايام	-8.30898
طلق	-8.31216
▁رجال	-8.31956
▁ويكون	-8.32425
▁جبل	-8.32443
▁بعض	-8.32495
▁ابو	-8.33512
ائك	-8.33568
▁سليمان	-8.34079
▁الفلسطيني	-8.34451
▁وجميع	-8.34452
▁روح	-8.34636
▁اليهود	-8.34698
ائل	-8.3531
▁السموات	-8.37491
▁نحن	-8.38524
▁مكان	-8.38993
حسب	-8.39237
ذبيحة	-8.41018
▁فكان	-8.41356
▁مدن	-8.41805
▁رؤساء	-8.43034
▁واخذ	-8.43113
▁حينئذ	-8.44676
▁باسم	-8.46057
▁الروح	-8.46902
إ	-8.72142
-	-11.918
ً	-12.0608
)	-12.6775
I	-12.6775
:	-13.0108
o	-13.5108
1	-13.5108
2	-13.5108
[	-13.5108
]	-13.5108
h	-13.5108
(	-14.5106
ـ	-14.5107
T	-14.5108
i	-14.5108
m	-14.5108
t	-14.5108
J	-14.5108
*	-14.5108
5	-14.5108
6	-14.5108
n	-14.5108
y	-14.5108
ٍ	-14.5108
