<pad>	0
</s>	0
<unk>	0
s	-3.26152
▁	-3.46092
▁the	-3.78625
.	-3.91663
e	-3.92938
t	-3.97161
,	-4.04488
▁of	-4.20573
a	-4.20769
d	-4.32557
y	-4.3485
o	-4.39599
p	-4.42388
n	-4.47055
▁a	-4.50843
▁and	-4.51861
r	-4.53302
▁in	-4.54521
ed	-4.56036
▁to	-4.56121
i	-4.57135
c	-4.57307
ing	-4.65399
er	-4.70406
m	-4.84412
al	-4.873
ar	-4.96728
g	-4.96912
in	-4.98982
u	-5.03364
▁s	-5.06423
l	-5.07692
or	-5.0855
re	-5.08599
f	-5.11962
h	-5.15207
▁is	-5.17998
an	-5.20936
▁re	-5.21817
le	-5.22109
▁f	-5.32403
th	-5.36448
▁S	-5.38469
b	-5.38785
it	-5.38877
▁c	-5.39682
▁for	-5.39715
k	-5.41312
st	-5.42812
▁be	-5.44737
▁A	-5.44753
ation	-5.49584
▁b	-5.50301
es	-5.51834
ri	-5.54585
▁The	-5.59753
ent	-5.63436
▁w	-5.63697
ur	-5.64075
ra	-5.65238
on	-5.68743
▁-	-5.70198
▁that	-5.71856
se	-5.78381
il	-5.78873
▁you	-5.80532
▁p	-5.83103
ly	-5.83167
ter	-5.83834
)	-5.85012
at	-5.85604
▁de	-5.86277
▁(	-5.87232
ce	-5.87816
en	-5.8834
ment	-5.88536
ve	-5.89618
ic	-5.90404
▁P	-5.90665
▁he	-5.93099
▁C	-5.93417
▁not	-5.96315
w	-5.96982
▁or	-5.97642
▁with	-5.9765
ro	-5.97765
▁I	-5.97873
ch	-5.98453
▁B	-5.98546
▁con	-6.01797
▁M	-6.03891
▁as	-6.05276
▁are	-6.05302
ad	-6.07567
j	-6.08093
▁on	-6.09336
et	-6.0946
ul	-6.12051
:	-6.14673
▁st	-6.14761
un	-6.14863
0	-6.14979
is	-6.15315
ha	-6.15508
▁it	-6.15698
as	-6.15722
ect	-6.16624
ate	-6.16843
ne	-6.18661
▁e	-6.18979
om	-6.20489
ir	-6.20596
▁pro	-6.20655
im	-6.21029
am	-6.21094
▁'	-6.22858
la	-6.23272
ol	-6.23439
▁t	-6.26493
ut	-6.26498
▁g	-6.26882
▁by	-6.27127
▁me	-6.28628
el	-6.28822
▁who	-6.28832
▁N	-6.30621
▁was	-6.31099
▁have	-6.31325
▁T	-6.31403
li	-6.31885
▁from	-6.33178
ng	-6.33347
▁ex	-6.3396
▁will	-6.34658
▁D	-6.3689
te	-6.3701
x	-6.37106
ity	-6.39538
v	-6.39807
vi	-6.39968
▁O	-6.40456
▁H	-6.40928
ci	-6.41217
us	-6.41284
id	-6.42548
▁do	-6.43172
me	-6.43535
and	-6.43725
▁F	-6.43946
▁this	-6.45523
▁E	-6.45583
ow	-6.47139
A	-6.47149
▁d	-6.47607
▁they	-6.5016
▁mo	-6.50405
qu	-6.50686
▁has	-6.51772
;	-6.52941
▁them	-6.538
▁se	-6.54041
▁G	-6.54152
▁He	-6.54711
▁which	-6.55321
▁In	-6.55983
lo	-6.56466
I	-6.56528
▁his	-6.5747
▁L	-6.58304
de	-6.58659
ver	-6.58795
▁an	-6.5917
end	-6.60025
ers	-6.62467
▁ma	-6.63016
▁so	-6.6371
▁ca	-6.64478
ction	-6.64607
▁W	-6.65515
age	-6.65648
▁their	-6.65662
E	-6.66347
ll	-6.66435
▁we	-6.66454
▁India	-6.68643
▁n	-6.69751
ive	-6.70081
▁th	-6.7024
1	-6.70325
▁1	-6.70418
ist	-6.71072
▁co	-6.71936
em	-6.71945
hi	-6.73358
▁po	-6.73542
tion	-6.74184
ion	-6.75065
▁all	-6.75087
▁at	-6.76055
ance	-6.77074
▁no	-6.77254
S	-6.77269
act	-6.77596
op	-6.78297
ant	-6.78408
▁li	-6.80124
▁K	-6.8041
▁We	-6.81811
ous	-6.82125
▁pa	-6.82152
▁un	-6.82181
sion	-6.82497
he	-6.82648
T	-6.82686
▁com	-6.82776
able	-6.83048
▁Allah	-6.83773
▁us	-6.84896
▁And	-6.85042
▁ho	-6.85099
R	-6.85228
▁lo	-6.85491
ence	-6.86498
ff	-6.87474
our	-6.87843
ab	-6.88373
ge	-6.88764
du	-6.88909
▁dis	-6.9104
um	-6.91159
?	-6.91963
▁tr	-6.9373
N	-6.93949
5	-6.93989
▁your	-6.94378
ish	-6.94654
ight	-6.94721
3	-6.97756
-	-6.97807
ru	-6.97821
est	-6.98179
ck	-6.98377
ted	-6.98579
▁en	-6.98925
O	-6.99632
▁la	-7.00666
▁fa	-7.01066
▁su	-7.03049
iv	-7.03052
%	-7.03199
ure	-7.03592
wa	-7.03861
▁man	-7.04965
va	-7.05126
▁up	-7.05164
▁can	-7.0556
'	-7.05602
ies	-7.05993
ud	-7.0601
▁but	-7.06358
lu	-7.06418
▁any	-7.06575
ated	-7.06588
▁di	-7.06628
2	-7.07036
▁pre	-7.07239
▁R	-7.0844
ak	-7.09667
▁comp	-7.09858
▁one	-7.10485
ever	-7.11767
4	-7.11976
D	-7.12248
▁Re	-7.1233
▁him	-7.12359
all	-7.12845
ma	-7.13461
z	-7.14153
ell	-7.1455
ting	-7.15504
port	-7.15912
C	-7.15974
▁other	-7.1631
min	-7.1679
▁J	-7.17048
8	-7.17288
▁been	-7.17457
ill	-7.18102
▁"	-7.18511
▁V	-7.18858
ach	-7.19842
▁were	-7.20682
har	-7.21117
6	-7.2193
▁vi	-7.21965
ig	-7.22474
▁had	-7.22521
▁there	-7.22965
av	-7.23567
mo	-7.23977
ful	-7.244
▁Ma	-7.24494
▁those	-7.24646
gra	-7.24654
▁people	-7.25133
ary	-7.2543
▁app	-7.2584
▁when	-7.26145
▁said	-7.26524
▁what	-7.26618
▁ch	-7.27651
ial	-7.28761
ound	-7.28965
ign	-7.29387
▁It	-7.294
▁shall	-7.29545
ture	-7.30026
ard	-7.30664
▁under	-7.31206
▁sp	-7.31801
▁out	-7.32517
▁mu	-7.32654
▁part	-7.33213
ke	-7.33944
ition	-7.34111
7	-7.34436
tain	-7.34847
form	-7.34882
P	-7.35471
lic	-7.36082
▁go	-7.36776
▁/	-7.36963
M	-7.37109
▁God	-7.37482
▁time	-7.37494
!	-7.37857
▁also	-7.37904
"	-7.37958
9	-7.38271
▁De	-7.38706
ew	-7.38842
▁its	-7.39362
▁if	-7.39377
ical	-7.39606
tri	-7.40205
tic	-7.40689
ally	-7.40963
▁per	-7.41096
”	-7.41273
▁19	-7.41564
▁2	-7.42473
ook	-7.43978
▁our	-7.45778
ness	-7.46052
▁some	-7.46327
▁Ch	-7.46718
▁Lord	-7.46928
▁may	-7.47423
ub	-7.4748
▁So	-7.49067
ph	-7.49978
▁mi	-7.51364
▁20	-7.5139
ven	-7.51658
L	-7.51893
▁This	-7.52183
ough	-7.52628
▁U	-7.53395
▁year	-7.54346
▁know	-7.55146
▁would	-7.56002
▁Th	-7.56031
vo	-7.56467
side	-7.57317
B	-7.57837
▁sub	-7.57874
▁“	-7.58928
▁such	-7.59298
▁only	-7.59773
▁_	-7.60487
▁give	-7.61239
▁over	-7.62938
▁work	-7.63266
H	-7.64263
pos	-7.66656
ities	-7.67218
ward	-7.67329
▁like	-7.67425
▁made	-7.67502
▁day	-7.67635
Y	-7.68147
▁Un	-7.69287
▁Pro	-7.69912
▁should	-7.70807
mber	-7.71024
▁about	-7.71625
▁Con	-7.72476
▁see	-7.72562
▁into	-7.72911
▁my	-7.72965
▁Ra	-7.73263
▁more	-7.73497
ize	-7.73596
▁than	-7.7377
▁new	-7.74256
▁say	-7.74806
ific	-7.75562
▁But	-7.79156
▁take	-7.79298
▁You	-7.80137
F	-7.81006
▁believe	-7.81079
▁two	-7.82985
ship	-7.83305
’	-7.83833
[	-7.84198
ood	-7.84492
]	-7.84611
▁hu	-7.86227
less	-7.86309
▁good	-7.87057
▁after	-7.88226
ative	-7.88264
▁His	-7.8992
▁before	-7.90421
ease	-7.90686
▁make	-7.91834
▁ob	-7.92083
low	-7.93272
▁life	-7.94854
▁right	-7.95405
▁trans	-7.9822
W	-7.98587
U	-7.98767
▁even	-7.99833
G	-8.00481
▁person	-8.01262
▁world	-8.01992
▁where	-8.03077
▁through	-8.05289
▁develop	-8.06084
▁way	-8.06406
▁State	-8.07056
▁every	-8.07601
▁great	-8.07677
ible	-8.09236
▁place	-8.09699
▁spec	-8.11058
▁down	-8.11937
&	-8.12319
▁country	-8.13324
▁Government	-8.14552
▁President	-8.14659
▁follow	-8.15107
▁between	-8.15643
▁could	-8.19127
▁first	-8.19561
▁name	-8.21537
▁Act	-8.21553
struct	-8.21667
▁help	-8.24565
▁earth	-8.25196
▁back	-8.25905
▁provide	-8.26039
▁very	-8.26224
▁high	-8.2715
▁among	-8.27805
▁file	-8.28388
▁own	-8.29123
/	-8.2943
▁power	-8.29767
V	-8.30767
press	-8.32469
mark	-8.33496
▁hand	-8.34131
▁plan	-8.37033
▁number	-8.38241
▁open	-8.39402
▁turn	-8.39773
▁system	-8.39793
Q	-8.46244
>	-8.4806
<	-8.51985
‘	-8.72366
K	-8.81562
—	-8.84575
–	-8.85859
{	-8.92703
}	-8.9339
Z	-9.03043
X	-9.13072
J	-9.39665
q	-9.53034
*	-9.55925
“	-9.62948
(	-9.6762
_	-10.6111
