<pad>	0
</s>	0
<unk>	0
s	-3.25581
▁	-3.63655
e	-3.68723
▁the	-3.79807
.	-3.90487
t	-3.93312
,	-4.04945
a	-4.18639
▁of	-4.22137
o	-4.22944
d	-4.37427
n	-4.4113
i	-4.43788
c	-4.44764
ed	-4.44833
y	-4.4786
r	-4.51995
▁a	-4.54212
▁and	-4.54592
ing	-4.56331
▁to	-4.57043
▁in	-4.60126
p	-4.63916
m	-4.64494
▁s	-4.65497
u	-4.72775
g	-4.77918
ar	-4.85517
er	-4.86265
al	-4.87734
▁c	-5.04056
in	-5.05525
▁f	-5.14423
▁is	-5.14854
or	-5.15365
re	-5.2034
it	-5.21204
f	-5.23997
h	-5.27289
an	-5.29377
le	-5.32103
b	-5.35124
l	-5.35338
▁S	-5.38238
k	-5.39255
▁for	-5.40745
▁p	-5.43065
on	-5.4369
st	-5.46469
▁re	-5.47001
th	-5.49253
en	-5.50785
▁be	-5.51105
es	-5.51206
ic	-5.54008
▁A	-5.54339
ation	-5.54473
at	-5.55794
ent	-5.56147
ur	-5.59644
▁The	-5.59943
▁-	-5.67818
▁w	-5.68058
w	-5.68342
▁that	-5.70477
ri	-5.75115
▁g	-5.80917
▁you	-5.81525
ion	-5.81894
▁C	-5.8316
ra	-5.84055
)	-5.8468
▁b	-5.84857
ly	-5.85304
v	-5.85545
▁m	-5.85995
▁l	-5.86399
▁(	-5.88097
▁de	-5.88353
as	-5.89689
▁P	-5.90203
ment	-5.91451
▁t	-5.9156
ter	-5.93763
et	-5.93935
▁h	-5.9482
ch	-5.95676
il	-5.95985
▁with	-5.96476
▁or	-5.97318
▁I	-5.98509
ect	-5.98947
ow	-5.99424
▁M	-5.99593
se	-6.00064
▁not	-6.00231
el	-6.01754
▁as	-6.02116
am	-6.02554
▁are	-6.03416
▁B	-6.05051
ive	-6.05901
▁he	-6.0651
▁on	-6.09936
▁con	-6.11776
▁d	-6.11882
ce	-6.12065
un	-6.13945
ve	-6.14307
ad	-6.14399
ol	-6.18454
▁it	-6.18873
li	-6.19042
:	-6.19769
▁'	-6.20913
ul	-6.21321
ut	-6.21391
▁e	-6.2379
▁by	-6.26778
▁T	-6.26943
ir	-6.28351
▁n	-6.28788
ate	-6.2996
▁who	-6.30577
▁have	-6.30831
om	-6.30903
and	-6.3116
▁N	-6.31244
▁was	-6.32213
▁from	-6.33165
is	-6.34293
▁pro	-6.3554
▁will	-6.35757
▁O	-6.37939
ha	-6.37997
id	-6.39631
ity	-6.39637
▁ex	-6.39819
▁D	-6.40129
▁this	-6.41654
us	-6.42121
x	-6.43721
▁me	-6.44553
tion	-6.44961
0	-6.45068
▁F	-6.45083
la	-6.45483
op	-6.46666
▁E	-6.47682
ain	-6.48875
j	-6.49327
▁which	-6.51019
A	-6.52788
▁G	-6.52834
ist	-6.5391
▁do	-6.54998
▁has	-6.55337
▁them	-6.55526
ers	-6.55794
end	-6.56237
▁co	-6.56536
▁H	-6.56803
;	-6.56992
▁W	-6.57094
▁his	-6.57327
▁He	-6.58175
▁an	-6.58487
▁L	-6.58535
1	-6.58592
▁they	-6.58643
ies	-6.59249
▁R	-6.59536
I	-6.60242
▁In	-6.60253
age	-6.60841
ru	-6.62299
qu	-6.63552
vi	-6.63637
ous	-6.64321
E	-6.64752
▁r	-6.65412
▁their	-6.66037
te	-6.66097
▁all	-6.67763
▁1	-6.69397
our	-6.6989
▁K	-6.70258
▁mo	-6.70503
hi	-6.70769
ant	-6.71411
▁India	-6.71945
▁so	-6.7271
ver	-6.75841
est	-6.77258
iv	-6.78
▁at	-6.78405
▁we	-6.78682
ab	-6.78872
he	-6.78897
lo	-6.79523
if	-6.8018
T	-6.80557
▁us	-6.81092
ell	-6.81214
S	-6.82037
av	-6.82272
R	-6.83179
ance	-6.83514
▁v	-6.84826
▁We	-6.85039
all	-6.85558
▁un	-6.8594
ther	-6.86338
5	-6.87178
able	-6.8807
▁Allah	-6.89729
▁your	-6.89801
ak	-6.89893
▁lo	-6.90831
▁no	-6.91121
ill	-6.91515
?	-6.91733
ence	-6.92646
-	-6.93864
▁And	-6.9405
N	-6.94428
ff	-6.94771
ide	-6.9518
2	-6.95367
▁dis	-6.95528
▁ma	-6.95698
um	-6.96121
mb	-6.98117
▁po	-6.98868
ome	-6.99896
me	-7.0092
▁sp	-7.01271
ure	-7.01967
ok	-7.02364
▁man	-7.02619
'	-7.02749
%	-7.0355
ever	-7.03633
▁pre	-7.03884
ight	-7.03884
O	-7.03917
▁en	-7.04136
ated	-7.04243
▁comp	-7.06055
▁can	-7.06439
▁up	-7.06584
▁but	-7.06617
pp	-7.07629
4	-7.07979
ho	-7.08363
▁J	-7.09128
ap	-7.09253
ish	-7.09348
▁him	-7.09734
ud	-7.10536
▁one	-7.10548
▁bo	-7.10721
ard	-7.131
C	-7.14279
▁been	-7.14356
▁any	-7.1523
ge	-7.15264
mp	-7.15689
act	-7.15892
▁di	-7.15978
z	-7.16414
em	-7.16433
▁were	-7.16936
▁people	-7.17737
8	-7.18264
ry	-7.18816
▁It	-7.19682
▁when	-7.20694
ig	-7.22083
7	-7.22859
lic	-7.22871
▁other	-7.22916
6	-7.23414
▁Re	-7.2384
▁V	-7.24021
der	-7.24436
▁"	-7.24876
ial	-7.25014
D	-7.25039
ast	-7.25078
▁there	-7.25596
▁what	-7.26262
▁2	-7.26768
ach	-7.26868
▁out	-7.26928
▁said	-7.27139
ful	-7.27236
▁k	-7.27357
▁those	-7.27389
▁tra	-7.28253
ary	-7.28308
ound	-7.28749
▁br	-7.2998
ign	-7.31156
one	-7.31305
9	-7.31395
▁part	-7.32844
▁also	-7.3337
ail	-7.33704
port	-7.34829
▁had	-7.35027
▁/	-7.35349
▁Ma	-7.35436
tri	-7.36915
P	-7.37046
▁under	-7.38865
▁shall	-7.39373
for	-7.3974
M	-7.3997
▁im	-7.40004
▁De	-7.41177
ness	-7.41237
▁time	-7.41351
▁per	-7.42029
”	-7.43358
ack	-7.4355
▁its	-7.43785
▁U	-7.43995
ical	-7.44604
har	-7.44842
▁Ch	-7.4557
old	-7.46628
▁Lord	-7.4683
ally	-7.46923
▁19	-7.47314
ture	-7.48987
lu	-7.49181
▁vi	-7.49242
"	-7.49585
▁our	-7.49623
▁rec	-7.50097
▁go	-7.50135
▁see	-7.51223
▁if	-7.51483
ang	-7.51555
▁20	-7.51686
▁may	-7.51747
!	-7.52229
ugh	-7.52298
3	-7.52598
H	-7.53343
▁God	-7.53774
▁some	-7.54042
B	-7.54137
_	-7.5448
▁This	-7.54678
▁j	-7.57026
▁Sh	-7.57575
ise	-7.57986
▁act	-7.58265
▁would	-7.58745
▁acc	-7.59791
▁year	-7.59951
ition	-7.61362
▁work	-7.63218
▁sub	-7.63705
▁only	-7.63816
▁say	-7.63989
▁know	-7.64035
▁“	-7.64826
▁such	-7.64921
▁made	-7.65389
▁like	-7.66144
lay	-7.66346
▁3	-7.6657
▁over	-7.66666
▁than	-7.6672
▁str	-7.67008
▁Un	-7.69003
▁new	-7.70093
▁Pro	-7.71772
00	-7.72279
L	-7.72412
F	-7.73821
Y	-7.74523
▁Th	-7.75366
▁more	-7.75511
ward	-7.75911
less	-7.76614
ize	-7.77923
▁should	-7.78372
▁into	-7.78854
▁take	-7.78977
ood	-7.79741
▁day	-7.80427
▁about	-7.80812
▁believe	-7.83852
▁good	-7.84187
▁life	-7.85384
’	-7.86397
▁two	-7.86438
▁make	-7.89759
▁before	-7.90139
▁But	-7.92096
]	-7.94553
[	-7.95122
▁You	-7.95203
▁person	-7.95733
W	-7.95927
U	-7.97142
G	-7.97734
▁world	-7.98012
▁after	-7.98061
▁through	-8.00386
▁even	-8.00528
▁His	-8.01014
▁right	-8.01376
pro	-8.01495
ship	-8.04028
▁Act	-8.0459
▁President	-8.04681
▁place	-8.08527
ible	-8.08816
▁between	-8.09169
▁where	-8.09181
▁down	-8.09872
▁country	-8.11156
▁develop	-8.11156
▁very	-8.11329
▁could	-8.12516
point	-8.12937
&	-8.14557
▁state	-8.14965
▁All	-8.16018
▁Government	-8.16655
▁great	-8.17406
▁every	-8.17472
▁way	-8.18294
▁follow	-8.18798
▁help	-8.18861
▁provide	-8.21003
▁among	-8.21731
/	-8.23645
▁power	-8.24817
▁turn	-8.25574
▁State	-8.26366
press	-8.27066
▁name	-8.28969
▁first	-8.29479
V	-8.3175
<	-8.31894
▁just	-8.32738
▁file	-8.33095
▁earth	-8.33591
▁relat	-8.33633
mission	-8.34397
▁high	-8.34401
▁because	-8.36958
▁service	-8.38705
▁account	-8.3959
▁Him	-8.3966
▁water	-8.39752
▁plan	-8.39961
▁change	-8.41389
cultur	-8.41592
Q	-8.44136
▁number	-8.44136
▁another	-8.44148
▁When	-8.45114
▁must	-8.45186
▁return	-8.46968
▁away	-8.4697
▁show	-8.48979
▁system	-8.4988
▁message	-8.50871
▁includ	-8.54931
▁become	-8.54956
▁require	-8.55976
▁public	-8.58089
▁direct	-8.59187
▁consider	-8.60253
▁large	-8.60279
–	-8.83526
K	-8.89521
Z	-8.9678
{	-9.06706
}	-9.06706
(	-9.17045
—	-9.21687
X	-9.30112
+	-9.49448
q	-9.51184
“	-9.58081
J	-9.70798
*	-9.84165
‘	-9.96168
>	-9.96178
