<pad>	0
</s>	0
<unk>	0
¦	-1.84439
▁¦	-2.34953
ˈ	-2.56272
▁	-2.66934
̈	-3.69533
𐋇	-3.88624
,	-3.93021
.	-4.2523
▁Comam	-4.41723
k	-4.57451
▁̈	-4.61904
▁naj	-4.75029
an	-4.77894
▁,	-4.84441
▁tu	-4.939
▁ebnaj	-4.94158
a	-4.95242
▁yin	-5.0033
comam	-5.10769
e	-5.19549
▁.	-5.26328
naj	-5.29056
▁xin	-5.3584
tu	-5.44136
▁yul	-5.49867
ebnaj	-5.51668
▁caw	-5.51811
yin	-5.53985
ti	-5.60351
▁Dios	-5.6408
▁hune	-5.65504
c	-5.68903
▁yu	-5.71457
▁tet	-5.75128
ul	-5.77339
▁anma	-5.77432
▁ti	-5.77546
▁yeb	-5.80204
▁ha	-5.86334
caw	-5.86958
xin	-5.90556
▁tzet	-5.95099
o	-6.01
n	-6.02348
ha	-6.0523
▁mach	-6.0666
yul	-6.06767
to	-6.07416
▁―	-6.08205
yet	-6.14349
i	-6.15562
hune	-6.173
▁ẍi	-6.17705
j	-6.18191
▁yet	-6.1865
yu	-6.19866
:	-6.21218
en	-6.22034
ay	-6.22466
▁ay	-6.23908
ek	-6.26177
▁isc	-6.27416
▁haca	-6.3051
ni	-6.30793
dios	-6.31191
tet	-6.32576
ab	-6.33162
ob	-6.33245
tzet	-6.34162
yeb	-6.34309
anma	-6.3444
ˈ,	-6.35069
ch	-6.37766
▁mac	-6.47464
▁ch	-6.51555
▁Ha	-6.53924
al	-6.55115
mach	-6.55312
▁chi	-6.577
yiban	-6.58813
▁isk	-6.60389
▁tato	-6.6088
▁ta	-6.61279
on	-6.62259
▁yuto	-6.64444
xa	-6.66264
ta	-6.6649
ulal	-6.66594
▁con	-6.66728
▁sunil	-6.67968
isc	-6.69181
▁c	-6.69325
paxo	-6.73266
▁cat	-6.73493
▁isba	-6.7361
ẍi	-6.74114
tic	-6.74562
wal	-6.74602
▁ix	-6.75498
▁sat	-6.78631
haca	-6.7996
▁:	-6.80434
▁hunt	-6.82006
inal	-6.84452
no	-6.84969
tz	-6.86045
▁Wal	-6.86514
watx	-6.8679
▁bey	-6.86895
▁tx	-6.91698
mac	-6.92317
▁hunu	-6.925
▁ya	-6.93204
▁yalni	-6.94064
in	-6.94325
chi	-6.95943
▁Jesús	-6.96238
▁tz	-6.97301
tzoti	-6.98727
▁bay	-6.99469
▁¿	-7.00808
▁chu	-7.01125
yuto	-7.02026
tx	-7.03065
yaj	-7.032
isk	-7.04261
lax	-7.04508
tato	-7.06117
yalni	-7.0629
▁te	-7.06802
▁he	-7.07466
▁is	-7.07997
bal	-7.08561
▁yaj	-7.09016
▁ye	-7.10831
ya	-7.1113
oj	-7.1231
▁Jesucristo	-7.12406
?	-7.12864
con	-7.13305
▁Caw	-7.13392
p	-7.1341
sunil	-7.13685
ic	-7.15755
wi	-7.15831
ix	-7.15873
▁“	-7.18531
▁yuxin	-7.19017
is	-7.21754
▁Yaj	-7.21797
sat	-7.21845
co	-7.23163
yuxin	-7.23304
te	-7.24734
otx	-7.25365
▁ayco	-7.26153
”	-7.26768
bey	-7.26799
▁teyet	-7.27855
tinan	-7.28324
▁chal	-7.30289
cat	-7.30479
hac	-7.30863
isba	-7.31022
▁xol	-7.31272
▁Hac	-7.3149
ojal	-7.32115
▁hac	-7.32359
▁machi	-7.32545
hunt	-7.33314
ˈ:	-7.34646
tajil	-7.35746
▁wal	-7.36013
can	-7.37812
ayic	-7.38352
▁Yuxin	-7.38542
he	-7.3896
il	-7.39265
▁yanma	-7.39278
▁no	-7.3981
atan	-7.40261
han	-7.40272
ye	-7.41071
▁Is	-7.42312
ec	-7.44542
iswatx	-7.45909
▁Lahwi	-7.46094
ca	-7.46946
bay	-7.47312
cano	-7.47326
we	-7.47607
hunu	-7.50736
▁hex	-7.52323
oc	-7.56913
▁yip	-7.57081
s	-7.5773
▁yun	-7.57862
▁ischejab	-7.58139
chu	-7.588
hayet	-7.5882
▁Israel	-7.59654
satcan	-7.60122
▁yoc	-7.62316
▁Yalni	-7.62546
h	-7.62593
bil	-7.63549
u	-7.63987
▁istx	-7.64053
▁Yet	-7.6467
jesús	-7.6523
yalan	-7.65548
m	-7.65905
;	-7.66667
▁co	-7.67028
hex	-7.69486
chon	-7.70994
▁in	-7.73397
▁―¿	-7.743
ibn	-7.74371
lahwi	-7.74768
ojan	-7.75528
▁cha	-7.77156
‐	-7.78224
b	-7.7825
lo	-7.78255
▁yal	-7.78944
chal	-7.79122
machi	-7.79852
▁isya	-7.79997
ahol	-7.80114
▁iswi	-7.80885
esucristo	-7.81755
xol	-7.81859
ayco	-7.82423
cha	-7.82766
▁matxa	-7.84419
teyet	-7.85965
ayxaco	-7.86435
r	-7.86458
▁niman	-7.86992
▁yatut	-7.89109
▁Pablo	-7.89512
anil	-7.90027
nich	-7.90202
▁heyanma	-7.90409
▁Ay	-7.90426
▁heba	-7.91086
▁ton	-7.91638
▁ebix	-7.91905
ap	-7.92179
▁?	-7.92505
ojab	-7.94584
ah	-7.94767
▁han	-7.95458
▁ec	-7.95909
yanma	-7.96561
▁chin	-7.97077
▁lan	-7.98424
istan	-7.99136
▁chex	-8.00673
▁texol	-8.01801
▁yilni	-8.01852
▁ixim	-8.02414
inan	-8.02827
la	-8.04531
yip	-8.05145
▁yilal	-8.05363
tan	-8.05755
yoc	-8.05967
lan	-8.0667
el	-8.06761
▁sata	-8.07103
▁yelapno	-8.07747
▁yehi	-8.0848
▁yapni	-8.09522
amben	-8.09959
waxan	-8.09965
istx	-8.10566
pax	-8.10854
▁Yuto	-8.10996
▁maca	-8.1117
▁chiwalan	-8.12679
yun	-8.12735
l	-8.14172
▁iscuywom	-8.14493
▁Ta	-8.14735
israel	-8.15851
haxinwal	-8.15879
anxa	-8.15919
ischejab	-8.16203
▁maẍto	-8.1661
▁A	-8.17593
▁Espíritu	-8.1761
ba	-8.1849
▁isto	-8.18862
isley	-8.1951
▁Haxa	-8.19616
ilo	-8.19788
ma	-8.20463
▁yaben	-8.20717
▁Pedro	-8.20827
▁Moisés	-8.21238
▁isbi	-8.21307
ej	-8.22364
!	-8.23033
▁win	-8.23276
▁cuybanile	-8.23606
▁hunun	-8.23662
le	-8.2373
mam	-8.23773
▁juẍta	-8.23973
yal	-8.23981
▁icham	-8.24236
▁istz	-8.24559
▁Ista	-8.24627
▁jet	-8.24671
▁teyin	-8.24784
na	-8.24902
▁matzwalil	-8.25409
▁yahawil	-8.25874
▁wetan	-8.2666
yanico	-8.27049
▁choche	-8.28
▁yinta	-8.30621
▁chia	-8.3088
▁ismajul	-8.32228
matxa	-8.32501
Tzet	-8.32515
isya	-8.3308
w	-8.33634
yuxinto	-8.34135
xan	-8.34669
▁Santo	-8.34838
niman	-8.35157
wa	-8.35485
▁ismul	-8.35635
mi	-8.35951
▁Juan	-8.36736
apni	-8.36939
om	-8.37005
▁che	-8.38043
ico	-8.3849
iswi	-8.3883
tom	-8.39674
▁C	-8.4071
ton	-8.41136
chin	-8.41754
yatut	-8.42108
ayical	-8.42739
▁jin	-8.42847
▁Yin	-8.433
▁yeli	-8.44115
tzettaj	-8.44226
Ha	-8.44956
ule	-8.45119
t	-8.45218
ho	-8.45654
▁xa	-8.45884
haxa	-8.4605
▁hec	-8.46705
▁ma	-8.46895
ebix	-8.47415
heba	-8.47786
▁babel	-8.47816
▁xahan	-8.48014
ayo	-8.48183
yilni	-8.48371
d	-8.48737
heyanma	-8.4893
▁yebpaxo	-8.49247
ista	-8.50305
▁Hune	-8.50345
ablo	-8.50678
▁ah	-8.51169
anc	-8.51458
▁janma	-8.52112
ayon	-8.52298
▁Yalnipaxo	-8.52641
▁anmahil	-8.53801
▁ángel	-8.5404
▁yel	-8.5425
ehal	-8.55028
▁Jerusalén	-8.55088
▁lahan	-8.55393
oji	-8.56487
▁yechel	-8.56835
yapni	-8.57321
yilal	-8.5744
▁wa	-8.57469
ayto	-8.58949
▁oc	-8.59151
▁Yu	-8.59415
▁yuninal	-8.59517
ixim	-8.59573
hal	-8.59737
yelapno	-8.59986
texol	-8.60018
▁chiswatx	-8.60038
aypaxo	-8.60088
▁xil	-8.60438
chiwalan	-8.60503
sata	-8.60538
tojan	-8.6087
hanic	-8.61342
chex	-8.61825
▁ismunil	-8.61894
▁Cristo	-8.62245
eb	-8.62316
▁isnimanil	-8.62365
▁isti	-8.62852
▁tiempo	-8.63221
▁Hanin	-8.63277
▁yahaw	-8.6359
▁macta	-8.64836
isto	-8.64897
maca	-8.65142
yehi	-8.65341
espíritu	-8.65671
chitan	-8.65709
▁heyu	-8.6625
matzet	-8.66363
▁isnabal	-8.66628
▁;	-8.67586
▁tawet	-8.67923
▁maẍt	-8.68005
▁chiwa	-8.68088
▁hach	-8.681
▁chiyu	-8.68293
▁sacerdote	-8.68473
Mamin	-8.69046
paxoj	-8.69129
▁hunelxa	-8.69259
▁yec	-8.69435
yahawil	-8.69528
▁T	-8.70225
▁maẍtaj	-8.70381
hec	-8.70652
aban	-8.70818
istz	-8.71316
▁Yum	-8.71356
▁inc	-8.71892
Caw	-8.71906
yo	-8.71999
maẍto	-8.72257
▁cheyute	-8.7241
▁Hex	-8.72416
ebilcano	-8.72532
elo	-8.7288
iscuywom	-8.73007
hunun	-8.73023
wan	-8.73238
Tom	-8.73358
xahan	-8.74094
sunilbal	-8.74277
icham	-8.74301
▁chito	-8.74377
▁rey	-8.74463
▁quin	-8.74607
yaben	-8.74779
▁ja	-8.74964
aybal	-8.7502
hanin	-8.75115
ˈ?	-8.75191
▁wuhan	-8.75551
sa	-8.75586
am	-8.7625
▁Isc	-8.76324
▁isyelal	-8.7647
paxojan	-8.77586
▁chiyij	-8.77785
hach	-8.77988
yel	-8.78444
isbi	-8.79761
▁Jahawil	-8.79769
▁chioc	-8.80658
win	-8.81095
lahan	-8.81142
canoj	-8.81342
▁Inmaman	-8.81392
▁camom	-8.8166
cuybanile	-8.81981
juẍta	-8.82495
wetan	-8.82496
ja	-8.82722
yuninal	-8.8305
▁Sunil	-8.83111
▁chihul	-8.83148
walxinto	-8.83169
nipaxo	-8.83353
teyin	-8.8343
matzwalil	-8.83933
▁camical	-8.84275
bi	-8.84407
▁to	-8.84743
itz	-8.84776
choche	-8.8525
edro	-8.85452
▁payat	-8.85766
yinta	-8.86652
▁ley	-8.86763
▁howal	-8.87088
▁chalni	-8.87199
ulan	-8.87236
yalnipaxo	-8.87356
▁winaj	-8.87462
as	-8.87507
yebpaxo	-8.87509
chia	-8.87601
▁chala	-8.87728
▁ismam	-8.87748
▁chico	-8.8818
hantan	-8.88365
che	-8.88385
ehan	-8.8839
obal	-8.8855
▁ẍiayoj	-8.8887
jet	-8.88996
tocanoj	-8.89041
▁yah	-8.892
▁yi	-8.89276
inalo	-8.89332
yi	-8.89564
oisés	-8.90649
ismajul	-8.90759
▁cuywawom	-8.90846
bilintijan	-8.91064
▁coc	-8.91119
jin	-8.9153
▁colbanile	-8.91989
▁cheyil	-8.92594
▁Mach	-8.93165
quin	-8.93614
▁wuẍtaj	-8.93868
chiwa	-8.94596
ano	-8.94883
quex	-8.95308
ismul	-8.95612
▁Na	-8.95899
ib	-8.96064
taj	-8.96242
babel	-8.96337
▁istzotel	-8.96638
▁el	-8.96657
K	-8.9745
y	-8.97885
▁cheya	-8.98202
▁chiec	-8.98339
g	-8.98777
munil	-8.99292
juan	-8.99514
▁ishowal	-8.99539
ohtan	-9.00274
▁wanab	-9.0044
▁chute	-9.00645
yeli	-9.00701
▁coba	-9.0072
▁Abraham	-9.01044
▁fariseo	-9.01212
▁tiempohal	-9.01413
▁nan	-9.019
potx	-9.01979
ach	-9.02168
ebil	-9.02169
yah	-9.0246
xil	-9.02762
aco	-9.02798
▁wanmahan	-9.02986
yec	-9.03215
ban	-9.03217
▁lahwi	-9.03383
yayto	-9.03939
santo	-9.04092
wej	-9.04998
▁chitit	-9.05048
nihan	-9.05219
▁chaco	-9.05257
▁barco	-9.05669
▁!	-9.05678
▁hunuxa	-9.05864
▁apni	-9.05912
ángel	-9.05992
yahaw	-9.06175
▁quex	-9.06176
ech	-9.06295
masanto	-9.06316
anico	-9.06332
me	-9.06578
▁preso	-9.06587
yohtan	-9.07094
em	-9.07113
▁me	-9.0719
Wal	-9.07632
yabe	-9.07676
cablahon	-9.07696
▁Ya	-9.07755
uil	-9.08022
txahli	-9.08439
▁ismi	-9.08487
▁Tzot	-9.08714
▁yoj	-9.08847
bilxa	-9.08998
at	-9.09172
f	-9.10083
▁lin	-9.10142
▁yeco	-9.10146
inc	-9.10384
li	-9.10408
andiosal	-9.10471
ac	-9.10875
▁camo	-9.10905
maẍtaj	-9.11266
toj	-9.11783
anmahil	-9.12356
▁heyalni	-9.1294
▁chul	-9.12955
melyu	-9.13312
Mach	-9.13533
tiempo	-9.14553
janma	-9.14589
▁chic	-9.147
▁culus	-9.14982
yechel	-9.15019
cawan	-9.15111
howal	-9.15313
▁t	-9.16018
ayc	-9.16232
▁hunxa	-9.16327
balto	-9.16464
aycano	-9.16476
heyu	-9.16489
chiswatx	-9.16692
maẍt	-9.1685
cam	-9.1686
Mac	-9.16864
▁hun	-9.17118
q	-9.17311
man	-9.17317
▁heya	-9.1759
▁ayex	-9.17656
▁lek	-9.18351
uc	-9.18625
ismunil	-9.18658
▁yay	-9.19113
macta	-9.19212
iloj	-9.19372
▁unin	-9.19392
aycan	-9.19797
yinito	-9.20089
ambe	-9.20128
anayo	-9.20535
▁conimanil	-9.2055
▁chihalni	-9.20578
▁munil	-9.20579
isnimanil	-9.20932
yoj	-9.21061
isti	-9.21198
ley	-9.21217
wuhan	-9.22159
▁yute	-9.22167
Mam	-9.22261
▁chiwal	-9.22286
▁istoholal	-9.2284
ayilo	-9.22986
▁wet	-9.23157
▁juẍtaj	-9.23266
sacerdote	-9.23339
▁chischah	-9.23778
lah	-9.24213
erusalén	-9.24547
chalni	-9.24656
apno	-9.24753
▁chis	-9.24812
anto	-9.24933
isnabal	-9.252
▁iscam	-9.25311
chico	-9.25356
▁ip	-9.25437
▁Yoc	-9.26199
len	-9.26512
tawet	-9.26527
▁tzalahilal	-9.26853
▁machojab	-9.26996
▁bis	-9.27061
▁jichmam	-9.27164
hunelxa	-9.27198
huneln	-9.27199
chiyu	-9.27253
anni	-9.2762
wuẍtaj	-9.28001
ulo	-9.28136
hiq	-9.28193
▁Chi	-9.28412
▁Israeloj	-9.28613
▁haxa	-9.28629
paxto	-9.28815
ahan	-9.29092
í	-9.29174
▁haba	-9.29315
▁yixal	-9.2938
ip	-9.2963
tijan	-9.29731
cristo	-9.29874
▁chisje	-9.29994
yocto	-9.30293
inale	-9.30405
hun	-9.30597
etaj	-9.30653
▁Ch	-9.30707
▁istiempohal	-9.30742
▁ayicto	-9.30887
▁soldado	-9.30957
cheyute	-9.30982
rey	-9.30984
icojan	-9.3099
▁cam	-9.31726
▁niẍte	-9.31826
Ta	-9.32049
▁beh	-9.32411
canojan	-9.32696
machoj	-9.32743
chito	-9.32776
nican	-9.32844
jahawil	-9.3318
ilni	-9.33367
isyelal	-9.33655
lin	-9.33783
canilo	-9.34175
▁E	-9.34643
laxi	-9.34987
cheyil	-9.35145
▁inti	-9.352
camom	-9.35378
alomal	-9.35701
▁Waxa	-9.35815
etojan	-9.3586
▁hanin	-9.3663
sic	-9.36794
▁Galilea	-9.36795
ispoh	-9.36816
tzotel	-9.37574
ayojab	-9.37584
jetan	-9.37757
cuywawom	-9.37799
machojab	-9.37871
▁tzujan	-9.37881
▁ispaj	-9.37986
▁María	-9.38109
nico	-9.38214
alom	-9.38576
ismam	-9.38764
istzotel	-9.38822
un	-9.3897
tzen	-9.39091
yum	-9.39265
▁xahanbalil	-9.39307
▁yijem	-9.39375
chiyij	-9.3944
uy	-9.39777
yinilo	-9.39929
▁yaco	-9.40368
▁ishelanil	-9.40558
▁inbahan	-9.40558
▁mule	-9.40564
▁Simón	-9.40782
eni	-9.40811
chihul	-9.40901
▁yuch	-9.41033
chioc	-9.41317
ejholo	-9.41462
inmaman	-9.41466
▁yaw	-9.41471
barco	-9.41576
itzitzbican	-9.42039
▁David	-9.42147
cobahan	-9.42412
yohta	-9.42481
camical	-9.42709
elax	-9.42718
C	-9.42806
ui	-9.43293
▁tzujno	-9.43334
▁tawin	-9.43442
▁Y	-9.43507
mohyi	-9.43531
jiban	-9.43535
nimeta	-9.43997
paxico	-9.44362
im	-9.44363
payat	-9.44369
yil	-9.44425
▁janab	-9.44547
▁yil	-9.44645
▁ju	-9.45264
▁sic	-9.45297
yeco	-9.45364
▁chach	-9.45526
▁Machi	-9.45749
ayayto	-9.45776
cancano	-9.459
winaj	-9.46162
▁Herodes	-9.46361
ilojan	-9.46508
chala	-9.46782
▁pan	-9.46854
ilcha	-9.471
▁lah	-9.47262
hununon	-9.47445
▁nino	-9.47468
ẍiayoj	-9.47479
▁jilni	-9.47518
▁chitzala	-9.47524
▁chil	-9.47733
▁chiwochehan	-9.47795
▁chiapni	-9.47872
▁yabe	-9.48088
juhan	-9.48469
haywan	-9.48533
heyanico	-9.48548
▁ixnam	-9.48699
▁wehan	-9.48836
▁chij	-9.4887
munla	-9.49107
▁Pilato	-9.49268
▁nahat	-9.49288
heya	-9.4974
▁cheyal	-9.49755
Hex	-9.49797
hunxan	-9.49818
▁mar	-9.50019
▁wintajan	-9.50122
▁chejbanile	-9.50128
▁yulaj	-9.50202
Machoj	-9.50236
▁L	-9.50344
▁walnihan	-9.5064
um	-9.50794
colbanile	-9.50969
meltzo	-9.51346
Ay	-9.51477
▁xewilal	-9.51565
yay	-9.51626
▁cheyaco	-9.51742
▁huno	-9.51753
cheya	-9.52063
cach	-9.52186
▁chaẍ	-9.52227
coc	-9.52425
colwa	-9.52487
▁yohta	-9.52573
chic	-9.52795
▁Han	-9.52949
▁mil	-9.53003
ichico	-9.5306
▁hanta	-9.53208
txon	-9.53794
chiitzitzbican	-9.53831
camo	-9.53891
hacpax	-9.53911
elico	-9.54186
▁chitz	-9.54252
beh	-9.54265
▁itzitz	-9.55187
tiempohal	-9.55399
soldado	-9.55532
▁chip	-9.55832
eho	-9.5597
chiec	-9.56241
▁Hunt	-9.5639
culus	-9.5647
yute	-9.56776
umal	-9.56845
▁chiya	-9.56935
wanab	-9.56972
nan	-9.56972
janico	-9.57025
▁hawu	-9.5783
hul	-9.57866
ajan	-9.58068
ishowal	-9.58209
teyiban	-9.58258
▁heyet	-9.58361
maẍn	-9.5854
chute	-9.58575
▁Eb	-9.58594
nicano	-9.58665
▁cheyala	-9.58766
▁ba	-9.58895
▁melyu	-9.59054
▁hununex	-9.59116
▁ismay	-9.59128
wah	-9.59137
lek	-9.59326
ahto	-9.59392
iscapilla	-9.59629
heyalni	-9.59684
▁chielico	-9.59687
▁yoche	-9.59842
fariseo	-9.59844
chitit	-9.59978
eloj	-9.60167
coba	-9.60175
▁halni	-9.6022
▁ac	-9.60536
▁je	-9.60542
▁ischuquil	-9.60697
▁hawanma	-9.60699
anex	-9.60916
▁isn	-9.61153
▁chihallax	-9.61206
wanmahan	-9.61622
▁ayc	-9.61881
yipo	-9.62112
aben	-9.62125
▁ischahni	-9.6227
inti	-9.62274
ten	-9.62334
yixal	-9.62522
▁yetxa	-9.62717
▁isbeybal	-9.63173
cachann	-9.63369
Yin	-9.6349
▁habil	-9.63524
▁yetbi	-9.63643
je	-9.6418
▁coxol	-9.64198
▁cach	-9.64222
how	-9.64311
▁chejab	-9.64314
chaco	-9.64314
encano	-9.64321
▁yichico	-9.64493
hunuxa	-9.64509
iscutxba	-9.64613
I	-9.65154
preso	-9.65273
tzalahilal	-9.65277
issay	-9.65434
▁chitzotel	-9.65506
▁yelapnoj	-9.65512
▁trigo	-9.65596
yaco	-9.65616
▁chiel	-9.65786
yilaxto	-9.66154
colchahi	-9.66245
taxca	-9.66364
▁Mac	-9.66563
▁José	-9.66984
▁Roma	-9.66984
roma	-9.67016
▁istohol	-9.67083
▁ayxa	-9.6713
uxan	-9.67157
▁hawalni	-9.67271
wican	-9.67368
▁tit	-9.67405
▁islo	-9.67439
ismi	-9.67785
colcha	-9.67839
anch	-9.6813
ayex	-9.68205
chul	-9.68245
wiban	-9.68384
octo	-9.68596
enilo	-9.68707
unin	-9.68724
▁Judea	-9.68762
▁yunin	-9.68797
walnihan	-9.68818
tzujan	-9.69073
▁halbilcano	-9.69197
▁issaj	-9.69297
tit	-9.69333
▁wohtajan	-9.69771
occano	-9.70179
▁titna	-9.70245
braham	-9.70544
chejab	-9.70659
▁jahno	-9.70772
▁quexchi	-9.70929
ju	-9.71199
▁ewan	-9.71469
lahon	-9.71662
aj	-9.71802
▁yich	-9.72216
hacojab	-9.72219
▁yijni	-9.72273
▁iscab	-9.72362
▁carta	-9.72449
ocan	-9.72496
▁yalno	-9.72514
alaxico	-9.72663
?”	-9.72742
▁islahobal	-9.72812
▁chiyal	-9.73079
▁isyeni	-9.73144
atil	-9.7317
xahanbal	-9.73332
bel	-9.73688
munlahan	-9.7385
johtan	-9.73901
▁chisyije	-9.74149
xaco	-9.74452
iscon	-9.74523
▁hunel	-9.75179
▁chislo	-9.75205
eintijan	-9.75247
heyohtan	-9.75343
▁H	-9.76048
▁comul	-9.76182
▁Sa	-9.76196
imón	-9.76207
▁majan	-9.76215
▁ayayo	-9.76304
nilo	-9.76644
tzala	-9.76778
ulla	-9.76978
▁wu	-9.77159
hunxa	-9.77191
T	-9.77465
haba	-9.77513
yichico	-9.77654
isyelo	-9.77664
yanayto	-9.7776
chisje	-9.77918
chiwal	-9.77942
iln	-9.77967
▁henabal	-9.78057
▁No	-9.78167
▁machoj	-9.78502
conimanil	-9.79224
chihalni	-9.79274
mil	-9.79325
▁yabil	-9.79345
▁man	-9.79555
toxan	-9.79983
ayoco	-9.80135
▁Machojab	-9.80255
mar	-9.80257
janmahan	-9.80377
istoholal	-9.8039
isbej	-9.80431
hawil	-9.80509
▁chabe	-9.81281
chischah	-9.81887
ocnico	-9.81941
juẍtaj	-9.81948
▁Chiwal	-9.82313
oya	-9.82628
▁yichamil	-9.83298
mo	-9.83366
wet	-9.83772
▁isyenilo	-9.83869
iscam	-9.83871
▁subchaho	-9.83914
laxo	-9.83955
isma	-9.84046
walex	-9.84252
Hach	-9.84262
umel	-9.84296
▁isyijen	-9.84316
chahni	-9.84493
▁chija	-9.84629
▁cosunil	-9.84767
laxayo	-9.85029
▁heyehi	-9.85045
yaw	-9.85234
isje	-9.85259
jichmam	-9.85855
▁yala	-9.85936
hawu	-9.85948
▁ischejbanil	-9.85974
colbanil	-9.86047
▁Yeb	-9.8607
ishitzico	-9.86083
chis	-9.86157
uh	-9.86225
▁hujeb	-9.8626
▁witz	-9.86297
▁isch	-9.86385
wo	-9.86652
xiwcan	-9.86718
▁selel	-9.86876
bilcano	-9.87104
yila	-9.87146
▁haninan	-9.87418
colwal	-9.87566
isye	-9.87711
hujwan	-9.87724
▁yila	-9.87768
▁hum	-9.87864
ispaxto	-9.87874
chicuywi	-9.87904
yanayo	-9.88028
istiempohal	-9.88282
wanoj	-9.88316
▁Bernabé	-9.88531
wabenan	-9.8854
▁oxeb	-9.88735
▁cheyabe	-9.89541
▁cay	-9.89752
jabe	-9.89938
▁jalni	-9.90074
▁ispi	-9.90127
▁wipan	-9.90133
▁mulum	-9.90215
ena	-9.90521
niẍte	-9.90533
istxum	-9.90534
▁abxubal	-9.9063
▁saj	-9.90755
▁tzotelo	-9.90759
wocan	-9.90841
▁Jacobo	-9.90882
▁munlawom	-9.90906
ilaxto	-9.91209
▁hesat	-9.91364
Ma	-9.91371
▁Ma	-9.91746
yoccano	-9.91801
▁ist	-9.91815
ayicto	-9.91825
yoche	-9.92021
aweco	-9.92106
yayilo	-9.92208
nahat	-9.92242
tze	-9.92268
walan	-9.92394
▁comon	-9.92407
▁chawal	-9.9244
carta	-9.92501
▁chicolwa	-9.9258
Hanin	-9.93
▁helan	-9.93014
▁chilo	-9.9313
▁johtaj	-9.93232
▁machiswalil	-9.93566
▁Yul	-9.93652
diosal	-9.9366
▁cab	-9.93804
▁isye	-9.93923
▁cawxo	-9.93988
axep	-9.9415
yofrenda	-9.94155
halni	-9.94221
chiwochehan	-9.94256
▁yuẍta	-9.9432
▁isma	-9.94367
lebil	-9.94492
wilan	-9.94565
▁iscamical	-9.94641
▁chicam	-9.95039
▁Felipe	-9.95313
▁Judas	-9.95313
▁Saulo	-9.95325
▁Yespíritu	-9.95344
▁Israelo	-9.9535
mal	-9.95836
ato	-9.96185
balil	-9.96435
yijem	-9.96526
▁chawa	-9.96787
▁jehi	-9.9687
ispaj	-9.96876
▁chiocnico	-9.96953
yuch	-9.96955
ischahni	-9.96958
▁ispotx	-9.97086
▁ayto	-9.97252
jehan	-9.97272
pan	-9.97561
wayan	-9.97677
z	-9.9769
yanito	-9.97857
tzujno	-9.97987
hitzico	-9.98
▁Yebpaxo	-9.98016
xahanbalil	-9.98083
wabe	-9.98155
chianico	-9.98203
▁yintaj	-9.98446
ahi	-9.98475
chil	-9.98497
▁Yal	-9.98617
weco	-9.98984
▁sa	-9.99175
inbahan	-9.99287
ishelanil	-9.99304
▁tzalaho	-9.99428
tioẍ	-9.99483
apax	-9.99486
ub	-9.99564
mule	-9.99672
▁Walex	-10.001
aría	-10.0026
tohol	-10.0047
yetbi	-10.0054
habil	-10.0071
chiyijen	-10.0075
Ho	-10.0116
cachwa	-10.013
▁chijil	-10.0147
▁chiay	-10.0154
▁payxa	-10.0163
nito	-10.0166
masanta	-10.019
▁hawa	-10.0197
▁istit	-10.0205
▁chicawxi	-10.0228
tawin	-10.0236
chiapni	-10.0243
▁heye	-10.0246
cheyayto	-10.0266
wilnihan	-10.029
alil	-10.0315
belwi	-10.0317
jilni	-10.0327
▁heyoc	-10.0338
janab	-10.0353
hanta	-10.0356
chielico	-10.0361
hum	-10.037
chach	-10.0382
istzabnico	-10.0386
▁lago	-10.0387
▁chintohan	-10.0407
▁circuncisión	-10.0415
▁cheyoche	-10.0418
▁y	-10.042
▁wilnihan	-10.0448
▁heyijen	-10.0448
▁xahanbal	-10.0467
itzitz	-10.0471
▁chawil	-10.0483
wehan	-10.0497
itzitzbocan	-10.0514
jila	-10.0515
unub	-10.0516
mas	-10.0517
wom	-10.0519
nahul	-10.0522
▁M	-10.0525
▁naba	-10.0542
yulajla	-10.0571
iscolni	-10.0599
ischejni	-10.0604
lobal	-10.0604
▁mato	-10.0611
ispotx	-10.063
alaxcan	-10.0631
chitzala	-10.0643
alilea	-10.0644
▁nabil	-10.0658
▁chimunla	-10.0659
ahilo	-10.0672
cheyal	-10.0674
▁iscawilal	-10.0674
yalno	-10.0678
haninan	-10.0682
▁chexoc	-10.0686
utz	-10.0701
yala	-10.0709
enan	-10.0724
ixnam	-10.0745
wu	-10.076
ayojan	-10.0771
cheyala	-10.0824
asi	-10.0848
eniloj	-10.0855
▁hetxumni	-10.0879
wintajan	-10.0888
patrón	-10.0908
chitecha	-10.0909
ochen	-10.0921
yulaj	-10.0928
chij	-10.0937
nilto	-10.094
issayni	-10.0945
elcanico	-10.0949
Hune	-10.0953
chejbanile	-10.0965
yelapnoj	-10.0981
▁hul	-10.1004
alo	-10.1016
won	-10.1016
txumnilo	-10.1022
yichamil	-10.1032
xewilal	-10.1033
chitxumchalo	-10.1039
yinican	-10.1044
▁Pascua	-10.1044
▁Xol	-10.1044
▁Egipto	-10.1044
oco	-10.1057
ist	-10.1061
cheyaco	-10.1061
wohtajan	-10.1067
ham	-10.1086
nino	-10.109
▁Isto	-10.1102
isyeni	-10.1108
ape	-10.1122
▁ayinan	-10.1141
▁ilwebal	-10.1152
lena	-10.1162
▁chichahni	-10.117
yije	-10.1172
lom	-10.1172
▁chalilo	-10.1178
avid	-10.1181
▁binaho	-10.1182
cheh	-10.1193
▁yalte	-10.1203
ˈ!	-10.1228
vaso	-10.1235
chitz	-10.1239
hallax	-10.1239
chip	-10.126
elicoj	-10.1266
hawalni	-10.1275
nojan	-10.1284
bilo	-10.1307
sucal	-10.1319
inchahnihan	-10.132
munlahi	-10.1321
coxahann	-10.1321
chiya	-10.1326
way	-10.1332
chayto	-10.1335
▁isbel	-10.135
lolo	-10.1355
huno	-10.1365
A	-10.1386
▁meẍa	-10.14
yawten	-10.1419
▁gobernador	-10.142
▁yángel	-10.1421
eto	-10.1424
▁xaj	-10.1426
▁ischejabo	-10.1432
jacob	-10.1461
nabn	-10.1466
chma	-10.148
halwe	-10.149
iscancano	-10.1504
▁chixiw	-10.1563
Chi	-10.158
cuywa	-10.1586
erodes	-10.1603
▁xe	-10.1603
laxic	-10.1633
capil	-10.1648
cuybanil	-10.1665
uilo	-10.1692
▁anciano	-10.1696
▁desierto	-10.1696
▁ayexxaco	-10.1698
▁chawute	-10.1699
tzoteli	-10.1712
▁Chin	-10.1716
▁istxahli	-10.1723
▁ismeltzo	-10.1729
mame	-10.1731
cami	-10.1732
ewan	-10.1734
ohtabil	-10.1748
ehojab	-10.1748
isbejtzo	-10.175
hawip	-10.1756
▁pulta	-10.1761
▁yelti	-10.1763
yechman	-10.1763
hununex	-10.1791
ismay	-10.1793
▁tohol	-10.1801
ayxa	-10.1804
▁tioẍ	-10.1823
▁islah	-10.1843
▁yalnicano	-10.1877
heyet	-10.1881
ispa	-10.1882
▁hesunil	-10.1883
pila	-10.1899
alc	-10.1903
isnani	-10.1915
▁chiah	-10.1928
laxilo	-10.1929
iscol	-10.1933
▁chilahwi	-10.194
ischuquil	-10.1949
hawanma	-10.195
▁caj	-10.1963
acan	-10.1967
▁hawet	-10.1971
bawe	-10.1974
▁cutxanico	-10.198
▁hemul	-10.198
hawohtaj	-10.2007
xiw	-10.2014
hin	-10.2016
ayayo	-10.2018
▁baytet	-10.2022
isyijen	-10.2032
xaj	-10.2035
▁nu	-10.2036
laba	-10.2042
ayinic	-10.2048
▁Matxa	-10.2068
paxocan	-10.2071
▁chawala	-10.2079
txah	-10.209
yawte	-10.2099
ayahto	-10.2101
meẍa	-10.2109
Wa	-10.2109
iscuyni	-10.211
▁yan	-10.2116
chihallax	-10.2117
macn	-10.2125
▁machim	-10.2126
caj	-10.2133
ulojab	-10.2136
baytet	-10.2141
oro	-10.2141
wec	-10.2146
▁haban	-10.2159
txumni	-10.2173
laxcan	-10.2195
▁Cocolomal	-10.2196
oxwan	-10.2196
mujan	-10.2197
▁yilalo	-10.2199
▁yeto	-10.2206
▁Mame	-10.2208
alaxicto	-10.2215
▁hinan	-10.2217
ixobal	-10.2227
isbeybal	-10.2239
yunin	-10.2241
▁oro	-10.2267
▁hunujex	-10.2272
▁moyan	-10.2272
machiswalil	-10.2273
▁conabal	-10.2275
▁hata	-10.2276
▁Yahawil	-10.2276
paxilo	-10.2276
halbilcano	-10.2278
▁Chal	-10.2281
▁nimanile	-10.2284
inito	-10.2316
yilo	-10.234
▁intohan	-10.2342
yetxa	-10.2342
▁mame	-10.2351
chitzotel	-10.2356
isn	-10.236
coxol	-10.236
▁chintz	-10.2369
▁vino	-10.2375
chicam	-10.2378
saj	-10.2378
eno	-10.2382
▁hewi	-10.2387
▁Cha	-10.2395
chiel	-10.2411
xiwi	-10.2413
acti	-10.2419
canocan	-10.242
▁chim	-10.2422
▁wec	-10.2426
▁yahawilo	-10.2431
trigo	-10.2441
islahobal	-10.2442
anab	-10.246
hatx	-10.2479
ew	-10.2484
watut	-10.2505
Hacoj	-10.2506
▁Elías	-10.2506
chiwabehan	-10.2506
enico	-10.2508
▁cheyi	-10.2512
islo	-10.2516
▁joc	-10.2524
lahico	-10.2537
yijni	-10.2541
ebilxa	-10.2546
▁isbisil	-10.2572
omal	-10.2577
isyenilo	-10.2582
chexxiw	-10.2593
▁aya	-10.2599
istohol	-10.2605
hulic	-10.2628
▁howeb	-10.2644
▁chiyute	-10.2647
▁istxumni	-10.2659
israelo	-10.266
espada	-10.266
uxni	-10.2665
mohyilal	-10.2665
chawoche	-10.2665
hexahann	-10.2672
yitzitzbican	-10.2677
colwahan	-10.2678
chiwilan	-10.27
▁jahaw	-10.2707
chibe	-10.2712
yabil	-10.2725
laxcano	-10.2755
ojtam	-10.2755
▁tzeh	-10.2762
▁cosat	-10.2787
yintaj	-10.2803
ixwi	-10.2825
echmabil	-10.2826
yalaxico	-10.2837
lahanex	-10.2842
cawxo	-10.2847
chiillax	-10.285
selel	-10.2854
titna	-10.2867
wetbi	-10.287
chabe	-10.2875
▁ispultahil	-10.2882
chiocto	-10.2892
▁walnic	-10.2921
▁yettax	-10.2931
yich	-10.2938
chicabcon	-10.294
istit	-10.2946
issaj	-10.295
hawa	-10.2952
yichmam	-10.2952
oxeb	-10.2955
▁ham	-10.2968
cuarto	-10.299
japnihan	-10.299
yilno	-10.2991
quexchi	-10.2994
jahno	-10.2995
yespíritu	-10.3003
yalcano	-10.3007
cheyohtan	-10.3009
ischah	-10.302
heyi	-10.3039
alxa	-10.3039
munlawom	-10.3047
▁ayach	-10.3054
iscab	-10.3066
ewe	-10.3088
yanican	-10.3094
▁chicolo	-10.3096
haltebil	-10.3104
aldea	-10.3121
tajca	-10.3126
chiyal	-10.3129
ahni	-10.313
▁hasat	-10.3152
tzijxan	-10.3157
osé	-10.3157
ciento	-10.3157
mujlax	-10.3157
▁Antioquía	-10.3158
hecawil	-10.3161
hajlo	-10.3166
iscayel	-10.3167
omilo	-10.3177
▁hechahni	-10.3188
hamanil	-10.3191
isbelwi	-10.3199
▁insatan	-10.3203
nipaxojan	-10.3229
▁chiaben	-10.3235
▁chaliloj	-10.3262
hunel	-10.3276
abico	-10.3277
▁uva	-10.3278
ishajni	-10.3326
yahwano	-10.3334
islin	-10.3381
▁hin	-10.3395
chisyije	-10.3398
▁ichamta	-10.3413
chislo	-10.3417
hechah	-10.3454
cobeybal	-10.3467
▁camoj	-10.3484
▁Nazaret	-10.3499
ispeto	-10.3499
▁Esteban	-10.3499
comul	-10.3505
yictabal	-10.3506
txumu	-10.351
▁ischah	-10.3512
majan	-10.3522
▁chiyo	-10.3533
▁istxiquin	-10.3533
▁henimanil	-10.3533
ibcan	-10.3533
noj	-10.3557
▁pi	-10.3563
heyil	-10.3576
▁chisc	-10.3587
▁Yi	-10.3619
wuẍta	-10.3624
eq	-10.3632
▁sam	-10.3642
jalni	-10.3643
▁yayc	-10.3666
griego	-10.3674
saduceo	-10.3674
xiwquilal	-10.3674
ismachiswalilal	-10.3674
isxahanil	-10.3674
nitam	-10.3674
tzotelo	-10.3676
chijalan	-10.3676
telaj	-10.3684
yehobal	-10.3686
abxubal	-10.3686
issajbilo	-10.3691
hujeb	-10.3692
henabal	-10.3692
aholan	-10.3716
▁tohlabal	-10.3721
chietaxto	-10.3728
chiyeniloj	-10.3759
chija	-10.3762
isch	-10.3774
chahnicano	-10.3786
nicto	-10.3797
▁chijaco	-10.3828
▁Timoteo	-10.3853
udea	-10.3853
ahole	-10.387
▁chijute	-10.3875
▁iscuywa	-10.3879
▁hawoc	-10.388
▁yalnic	-10.3898
mato	-10.3901
camojan	-10.3915
▁coyijen	-10.3957
chilo	-10.398
beybaln	-10.3986
▁capilla	-10.3988
txumchalo	-10.3992
acojan	-10.3995
▁heyohtaj	-10.4002
▁cheyije	-10.4016
jala	-10.4028
chicoyije	-10.4071
cosunil	-10.4072
▁iscolwa	-10.4079
awten	-10.4087
ulmi	-10.4094
ebxa	-10.4096
ías	-10.4102
isman	-10.4113
▁etza	-10.412
tocano	-10.4124
wute	-10.4136
colni	-10.415
ancan	-10.4157
helan	-10.4158
chebej	-10.417
jalnihan	-10.4182
elti	-10.4184
anojab	-10.4189
cadena	-10.422
querubín	-10.422
txitam	-10.422
inchejaban	-10.422
▁Maẍtaj	-10.4221
inmunilan	-10.4221
utelax	-10.4222
tzabno	-10.4226
ischej	-10.4228
yicta	-10.4232
chijilico	-10.4256
O	-10.426
Y	-10.4265
chiyiyo	-10.4266
▁Tz	-10.4267
▁chiyoche	-10.4268
▁camnaxa	-10.4272
▁chinhulan	-10.4273
subchaho	-10.4291
▁yuninalo	-10.4292
ahti	-10.4314
ro	-10.4317
chisna	-10.4326
yan	-10.4338
▁trato	-10.4346
heye	-10.435
witz	-10.4351
yochen	-10.4377
▁Mamin	-10.439
▁chijal	-10.44
▁isyije	-10.4467
▁awtebil	-10.4474
▁chiwaltojan	-10.4475
▁Maẍ	-10.448
ischejbanil	-10.449
chawal	-10.4515
heyehi	-10.4517
abayo	-10.4567
▁Jacob	-10.4576
▁iswa	-10.4577
ehayo	-10.4595
▁wahil	-10.4597
▁chintzalahan	-10.4599
▁hawehi	-10.4599
▁haltebilcano	-10.46
▁xu	-10.46
▁Isaías	-10.4601
inbihan	-10.4601
▁Macedonia	-10.4601
▁Halwe	-10.4606
sunilej	-10.4608
▁xaya	-10.4609
▁nananta	-10.4619
machipaxo	-10.4627
chiilni	-10.4651
▁yawten	-10.4654
istopaxo	-10.4654
comon	-10.468
▁yetbiho	-10.4689
▁Yah	-10.4694
mulum	-10.4694
▁nime	-10.4696
ishajlo	-10.4697
▁yehico	-10.4708
ispi	-10.4717
bililo	-10.4741
▁anican	-10.4752
▁yox	-10.477
▁W	-10.4772
orahil	-10.4791
opo	-10.4794
chijal	-10.4795
olivo	-10.4797
trompeta	-10.4797
chianayto	-10.4805
elan	-10.4814
ohni	-10.4819
ilaxilo	-10.4824
yito	-10.4826
cheyabe	-10.4833
chijochehan	-10.4849
▁yuc	-10.4856
eojab	-10.4868
johtaj	-10.4874
yalnicano	-10.4875
▁chijala	-10.4881
N	-10.4883
▁yohtajo	-10.4892
icoj	-10.4898
▁hon	-10.4899
▁chican	-10.4901
wipan	-10.4921
▁cuybanil	-10.4921
▁Hach	-10.4934
▁toxa	-10.4936
heyijen	-10.4957
tzalaho	-10.4967
tzalacan	-10.4973
▁comandante	-10.4977
▁ixahaw	-10.4977
▁insatajan	-10.4977
▁yallax	-10.4987
▁cabeb	-10.4996
▁nohna	-10.5001
▁Yapni	-10.5004
ayinan	-10.501
camoj	-10.5011
▁capitán	-10.5022
heyoc	-10.504
▁chechah	-10.5061
yanab	-10.5061
hesat	-10.507
▁isbejnicano	-10.507
hechahni	-10.5073
chejn	-10.5088
Yu	-10.5114
▁iscuyni	-10.5116
naba	-10.5144
▁nanxa	-10.5149
▁heyilni	-10.5151
yocpaxo	-10.5158
chicolwa	-10.5158
ilwe	-10.519
chicawxi	-10.5191
udas	-10.5201
cawxican	-10.5204
▁cochahni	-10.5213
bitn	-10.5216
uba	-10.5219
iscutxbanico	-10.5228
yuẍta	-10.5242
cotohan	-10.525
▁iscawxi	-10.5266
heyohtaj	-10.5269
walpaxo	-10.5269
inmunilt	-10.5309
chiyaco	-10.531
▁hayeb	-10.5316
chawaco	-10.5328
yelcan	-10.5339
chiwaltojan	-10.5346
ayoj	-10.5354
xacon	-10.5357
iscamical	-10.5367
▁chinapnihan	-10.5373
▁ayinicojan	-10.5374
▁yawte	-10.5377
▁chiwalcanojan	-10.5377
▁isnu	-10.5394
▁hunix	-10.5404
siq	-10.5409
circuncidar	-10.5409
dragón	-10.5409
▁Samaria	-10.5409
▁isDiosal	-10.5409
innabalan	-10.5409
▁Lázaro	-10.5409
walnitojan	-10.5413
Asi	-10.542
▁iscuyu	-10.5424
incaman	-10.5435
chawil	-10.5474
Chim	-10.5478
tzettaxca	-10.5487
▁yij	-10.5508
yalte	-10.551
tohlabal	-10.5552
▁wacax	-10.5563
halno	-10.5568
circuncisión	-10.5572
cheyoche	-10.5574
wawte	-10.5579
iscawilal	-10.558
payxa	-10.5585
jehi	-10.5591
chiocnico	-10.5594
▁hallax	-10.5597
etza	-10.5615
chawa	-10.5627
▁heyila	-10.5629
Yet	-10.5632
inaloj	-10.5689
chilahwi	-10.5729
chahi	-10.5733
ambeno	-10.5738
▁chitxumcha	-10.575
aymi	-10.5766
hon	-10.5778
▁heyohtajo	-10.5781
▁quinchiyan	-10.5786
ilchalo	-10.5789
vino	-10.5803
chintz	-10.5806
ibo	-10.5832
ernabé	-10.5839
▁Silas	-10.5839
elipe	-10.5839
yamigo	-10.584
▁ayexico	-10.5841
▁chichiwa	-10.5843
chuhi	-10.5844
Na	-10.5864
tzeh	-10.5874
nu	-10.5889
yij	-10.5898
▁xiw	-10.5901
mahul	-10.5908
▁chiway	-10.5917
aytoj	-10.5919
cheja	-10.5922
balo	-10.5925
ahil	-10.5927
▁istzoteli	-10.593
▁selelo	-10.5938
chinocan	-10.5938
▁chicancano	-10.5951
▁yahcano	-10.5966
islah	-10.599
chiay	-10.6028
tzabni	-10.6029
ulalo	-10.6031
techaho	-10.604
pulta	-10.6043
axpon	-10.6059
chintohan	-10.6061
peyab	-10.6061
chicuyni	-10.6061
israelita	-10.6062
sahab	-10.6062
ixloj	-10.6067
yuhi	-10.6085
istxumni	-10.6093
chalniloj	-10.6104
chijil	-10.611
maquex	-10.614
yecheln	-10.6142
▁intz	-10.6157
▁heyaben	-10.6163
ojon	-10.6166
nann	-10.6184
▁Inmam	-10.6206
ebilcanoj	-10.6208
yijnicano	-10.6212
tohan	-10.6226
wiloj	-10.6226
Oc	-10.6239
▁cheyila	-10.6262
elto	-10.6272
innimanil	-10.6283
chejniti	-10.6283
lago	-10.6286
binaho	-10.6287
▁Efeso	-10.6289
▁Asia	-10.6294
tzalahan	-10.63
wohtajojan	-10.6309
istzabnayo	-10.6318
▁ẍicano	-10.6345
▁chicami	-10.6353
chexoc	-10.6354
ecano	-10.6429
▁iscawxican	-10.6437
▁wohtajojan	-10.6501
▁yeh	-10.6524
semana	-10.6526
Sunil	-10.6539
▁cheyu	-10.6556
chimunla	-10.6565
▁yen	-10.6576
wohtan	-10.6594
bilico	-10.66
heyila	-10.6618
intohan	-10.6621
▁chejn	-10.6647
wacojan	-10.6652
▁buchwal	-10.6665
▁chijoche	-10.6671
▁istrato	-10.6673
▁chicochah	-10.6677
▁heyohtaxa	-10.6683
ajo	-10.6687
▁chiwute	-10.6701
▁lemna	-10.6719
subcha	-10.6745
ojex	-10.6759
chixcab	-10.6759
▁Tzujan	-10.6759
sabehal	-10.6759
▁Isaac	-10.676
camnajilo	-10.676
titnajinan	-10.676
▁Cesarea	-10.676
▁Wilni	-10.6762
▁Lahan	-10.6763
cuywahi	-10.6771
jabehan	-10.6776
ajna	-10.6788
winajli	-10.6789
▁istxam	-10.6795
wahi	-10.6798
istxon	-10.6803
▁yohtaxa	-10.6804
quexpax	-10.6807
howeb	-10.6826
▁yitz	-10.683
▁yuẍtaj	-10.6837
▁jec	-10.6846
intzotelan	-10.6852
nabil	-10.6865
wecano	-10.687
tzelax	-10.6873
chiwacojan	-10.6896
yanipaxico	-10.6907
paxic	-10.6915
ebilico	-10.6931
▁quexwil	-10.6939
ambenpaxo	-10.6946
istxumnilo	-10.6956
uloj	-10.696
yahawilo	-10.697
xolaj	-10.6977
johtajan	-10.7024
ilaxcan	-10.7037
ut	-10.7039
ischejnito	-10.7047
xam	-10.7054
ixtan	-10.7066
ilwebal	-10.7066
chichahni	-10.7078
▁In	-10.708
Ah	-10.7084
chalilo	-10.7088
hawunin	-10.7133
hinan	-10.7134
▁inmulan	-10.7136
▁txahlo	-10.7136
▁tawintaj	-10.7141
isyije	-10.7152
▁itah	-10.7158
heyuẍta	-10.7181
sam	-10.7192
capilla	-10.7212
annihan	-10.7224
iscawan	-10.7251
hetxumni	-10.7252
cuarenta	-10.7253
Ilwe	-10.7253
hajxam	-10.7254
naxa	-10.7262
isbejcano	-10.7266
wepaxo	-10.729
trato	-10.7321
wacax	-10.7324
uva	-10.7325
gobernador	-10.7326
xiwan	-10.7332
yángel	-10.7332
ismeltzo	-10.7336
ischejabo	-10.7341
isbel	-10.7347
buchwa	-10.7364
isbili	-10.7398
cantil	-10.7437
ispujba	-10.746
haquin	-10.7473
selelo	-10.7486
chiyenilo	-10.7491
higuera	-10.751
inchuquilan	-10.751
nimajal	-10.751
sábana	-10.751
welapnojan	-10.751
sello	-10.751
ijbalom	-10.751
yichebanil	-10.751
hehelanil	-10.751
chixiw	-10.751
aceite	-10.7511
hawabe	-10.7516
▁Chalni	-10.7516
yorahil	-10.7517
yabxubal	-10.7518
sajn	-10.753
ischejlaxto	-10.7534
presowom	-10.7534
ishel	-10.7537
hesunil	-10.7554
ispixan	-10.7568
Hal	-10.7572
ocpaxo	-10.7574
uico	-10.7589
yillaxi	-10.7592
yettax	-10.7603
desierto	-10.7603
anciano	-10.7603
ayexxaco	-10.7605
hawet	-10.7606
chawute	-10.7609
chahnayto	-10.7624
istxahli	-10.7642
ismunlawom	-10.7643
isvaso	-10.7669
iswayan	-10.7701
hawoj	-10.7717
▁mayu	-10.7737
machim	-10.7751
yalpaxo	-10.7751
▁Zacarías	-10.7773
▁Capernaum	-10.7774
yelti	-10.7834
isnaniti	-10.7839
cutxanico	-10.7889
hemul	-10.7889
chahlax	-10.7911
chilni	-10.7927
tzenilo	-10.7935
▁Ischejni	-10.7944
malto	-10.7947
banil	-10.7947
isnoh	-10.795
itzitzon	-10.7966
▁masan	-10.7987
chawala	-10.7996
haban	-10.8003
testigo	-10.8041
gipto	-10.8042
ascua	-10.8043
ajano	-10.8045
walnic	-10.8082
abewe	-10.8098
yilalo	-10.813
coyijen	-10.8139
bit	-10.8142
chejbanil	-10.8143
hawayto	-10.8146
hacojtam	-10.8164
Tz	-10.8173
cheyi	-10.8177
hunujex	-10.8183
moyan	-10.8184
conabal	-10.8186
Yaj	-10.819
nimanile	-10.8197
ayach	-10.8211
wila	-10.8249
chiyute	-10.825
yayc	-10.8298
ijatz	-10.8316
burro	-10.8321
denario	-10.8321
lepra	-10.8321
▁Festo	-10.8321
▁Leví	-10.8321
wanitojan	-10.8321
istecha	-10.8323
plata	-10.8325
ichamile	-10.8326
ishelni	-10.8341
beybale	-10.8347
anabi	-10.8381
wuten	-10.8381
ixale	-10.8382
ishi	-10.8383
pujbani	-10.8411
hewi	-10.8412
chietanto	-10.8418
sacerdotehal	-10.8484
isbisil	-10.8486
iscuybanil	-10.8488
yetbiho	-10.849
▁hecal	-10.8495
iscolbanil	-10.8545
As	-10.8545
▁chelo	-10.8559
chejaboj	-10.856
ishunba	-10.8581
heyayto	-10.8605
heyilni	-10.8606
nimej	-10.8632
▁lahano	-10.8656
ilwal	-10.8697
jahaw	-10.8731
heyohtajo	-10.8764
nipaxico	-10.8765
heyanayto	-10.8782
ispultahil	-10.8798
▁Yahaw	-10.8819
yahawiloj	-10.8826
elcan	-10.8832
chaliloj	-10.8846
heyohtajoj	-10.8856
ijban	-10.8863
isbejnicano	-10.8868
yawtenti	-10.8877
▁Melquisedec	-10.8901
hulnajinan	-10.8901
▁innimanilan	-10.8908
▁Chis	-10.8911
ishuj	-10.8974
cochah	-10.8996
yelilo	-10.9021
chexcolwa	-10.9031
yijcano	-10.905
chicolo	-10.9053
initi	-10.9099
▁yecoj	-10.9115
chinhulan	-10.9122
insatan	-10.9124
camnaxa	-10.9133
tajo	-10.9149
chiaben	-10.916
hebeybal	-10.9183
uslax	-10.9183
cocolomal	-10.9204
ishoyanil	-10.9204
sajhopon	-10.9204
treinta	-10.9204
inyijenan	-10.9204
hunmajanxa	-10.9204
istzilnilo	-10.9204
tzujanilxa	-10.9204
saywal	-10.9204
istzalanil	-10.9205
iswayic	-10.9205
maxawal	-10.9206
chiinilo	-10.9207
corona	-10.9207
chahwe	-10.9209
intxahlihan	-10.9209
hacuyni	-10.921
iswahni	-10.921
cuywal	-10.9211
janayto	-10.9211
yespada	-10.9212
quexwilnojan	-10.9215
isyecan	-10.9215
tzablaxayo	-10.9219
yanahto	-10.9219
wanicojan	-10.922
atna	-10.9221
elojan	-10.9225
hanabal	-10.9227
yehayto	-10.9229
Yel	-10.9229
techahoj	-10.9233
chijaltojan	-10.9236
ambehan	-10.9238
laxilto	-10.9311
cosat	-10.9324
ichamta	-10.9349
bilxalo	-10.9352
yijewe	-10.9368
▁mu	-10.9369
chayo	-10.938
uninal	-10.9396
xayaco	-10.9435
henimanil	-10.9453
istxiquin	-10.9453
nananta	-10.946
ubal	-10.9468
cosataj	-10.947
chiwatojan	-10.9488
hulan	-10.951
cabconcan	-10.9516
▁Adán	-10.9516
▁Damasco	-10.9516
▁Jordán	-10.9516
yiptzen	-10.9516
▁Ananías	-10.9518
elías	-10.9522
chiyo	-10.9535
nime	-10.9564
yilwen	-10.9569
chiwalpaxojan	-10.9587
wano	-10.9599
mactaxca	-10.9601
echman	-10.9602
xawalan	-10.9618
iswa	-10.9626
chebeybaln	-10.9687
hucanico	-10.9707
inpaxojan	-10.9708
yuẍtaj	-10.9716
iscach	-10.975
chijaco	-10.9751
tetej	-10.9778
iscolwa	-10.9785
camna	-10.9786
capitán	-10.9797
chijute	-10.9798
hawoc	-10.9804
yallax	-10.9809
iscuywa	-10.9811
chiyoche	-10.9827
bejwecano	-10.9839
jocan	-10.9839
naweti	-10.9839
txahlan	-10.9846
issajn	-10.9848
pet	-10.9852
El	-10.9864
hoyanico	-10.9872
uq	-10.9872
yinayo	-10.9908
cawxicanocan	-10.9979
cuywi	-11.0058
mujli	-11.0086
irla	-11.0105
awtebil	-11.015
iscuyu	-11.0159
ohcha	-11.0166
ntioquía	-11.0169
ebedeo	-11.0172
mohyom	-11.0172
partido	-11.0172
xito	-11.0172
xiwquilta	-11.0172
▁Babilonia	-11.0172
▁Jope	-11.0172
subuta	-11.0172
hacuywom	-11.0172
ischibehal	-11.0172
xewbal	-11.0172
xulno	-11.0172
iria	-11.0172
yictajo	-11.0172
istxolal	-11.0172
jetbiho	-11.0172
cohelanil	-11.0173
ispujnacan	-11.0174
jop	-11.0175
axponayo	-11.0175
yacanico	-11.0176
calle	-11.0176
ohchacan	-11.0179
tzujnojan	-11.0181
tzalahi	-11.0184
colchalo	-11.0193
ixwican	-11.0216
yilaxilo	-11.0222
uwan	-11.0222
hesayni	-11.0228
chinachalo	-11.0259
unni	-11.0268
chisbalico	-11.0271
cochahni	-11.0274
intoc	-11.0282
▁istxah	-11.0295
▁sac	-11.0297
isxan	-11.0304
ijbali	-11.0311
istxumchalo	-11.0331
yican	-11.0342
heyichmam	-11.0351
chibuchwa	-11.0362
babito	-11.0363
chiilchalo	-11.0397
chisbejcano	-11.0402
▁Yabe	-11.0402
▁hawuẍta	-11.0408
watojan	-11.0412
awtebilon	-11.0419
yahilo	-11.044
cheyije	-11.0476
aytoco	-11.0485
coln	-11.0488
xilo	-11.0508
yilweno	-11.0509
steban	-11.0516
azaret	-11.0517
cabeb	-11.0525
chintzalahan	-11.0528
hawehi	-11.053
yehico	-11.0531
iscachni	-11.0537
yeniloj	-11.0548
ismajilo	-11.0555
wahil	-11.0558
istoholban	-11.0565
yohtajo	-11.0566
sajxa	-11.0581
oq	-11.0606
heyaben	-11.0614
haltebilcano	-11.0631
unu	-11.0633
incartat	-11.066
johtaxa	-11.066
yahcano	-11.0682
bancano	-11.0711
ismeltzoto	-11.0719
▁Magdala	-11.0874
▁Salomón	-11.0874
▁Marta	-11.0874
moteo	-11.0874
estam	-11.0874
▁Tito	-11.0875
▁Corinto	-11.0875
hebreo	-11.0875
▁Agripa	-11.0876
▁Andrés	-11.0876
illax	-11.0879
▁alcal	-11.088
▁motx	-11.0892
▁Yahawiloj	-11.0895
hebeybaln	-11.0902
ber	-11.0903
comandante	-11.0909
ixahaw	-11.0909
insatajan	-11.0909
comono	-11.0916
awtelax	-11.0916
toholojab	-11.0958
istohla	-11.0963
nohna	-11.098
▁isyijeni	-11.099
▁hununtajil	-11.0993
Cam	-11.1003
▁chielicoj	-11.1013
checutxba	-11.1035
Etza	-11.1062
chintzotelan	-11.1114
▁Inc	-11.1132
bejnicano	-11.119
wacanojan	-11.1198
etalax	-11.1204
Ham	-11.1216
iscawil	-11.124
ázaro	-11.1244
mostaza	-11.1244
odoma	-11.1244
perla	-11.1244
sesenta	-11.1244
tzujtzun	-11.1244
bejbilcano	-11.1244
yichitax	-11.1244
ojlaxayto	-11.1245
ebilcanayo	-11.1245
ochebil	-11.1246
chiabelax	-11.1246
jintajan	-11.1246
chitzejla	-11.1248
isxahann	-11.1248
▁jaben	-11.1248
isreyal	-11.1249
ispalan	-11.1253
istzejla	-11.1257
witzitzbican	-11.1258
matanil	-11.1259
iscawxi	-11.1264
iscutxbaco	-11.1277
▁Chalnipaxo	-11.1292
cheyiyo	-11.1301
ambebal	-11.1303
yoxel	-11.1304
lemna	-11.1308
chinapnihan	-11.1309
chiwalcanojan	-11.1313
uluj	-11.1316
ayinicojan	-11.1322
walach	-11.1329
isnu	-11.1335
istocano	-11.1337
aycanocan	-11.1345
wanico	-11.1354
heyeniloj	-11.1357
hunix	-11.1358
checach	-11.1363
chicancano	-11.1368
yebej	-11.1372
heyaco	-11.1419
hecolni	-11.1423
yijemojab	-11.1429
alem	-11.1442
comunlahan	-11.1455
yexn	-11.1476
E	-11.1503
chiway	-11.1533
H	-11.1541
▁Chiwa	-11.1549
yiniti	-11.1596
alaxayto	-11.1607
edonia	-11.1628
asón	-11.1629
▁Belén	-11.1629
▁Betania	-11.1629
▁Félix	-11.1629
▁Hunun	-11.1629
▁Apolos	-11.163
▁Yawten	-11.1631
Cata	-11.1631
matxam	-11.1647
▁Yilni	-11.1649
saías	-11.1685
xahanojab	-11.1712
lahaninan	-11.1719
quinchiyan	-11.1725
chitxumcha	-11.173
chinyehan	-11.1731
helin	-11.1769
ayexico	-11.1786
isbiho	-11.1806
quexbey	-11.1841
iscamilo	-11.1847
tawiban	-11.1865
chiwican	-11.1866
wohtapaxojan	-11.2029
halbilxa	-11.2045
islahnico	-11.205
yalaxcan	-11.2051
yohtajoj	-11.2102
iscolnilo	-11.2109
chejto	-11.2125
hami	-11.2132
elna	-11.2146
heyohtaxa	-11.2159
chiwute	-11.2181
chiscaj	-11.2204
chijoche	-11.2207
chesay	-11.2272
chutepaxo	-11.2284
etanto	-11.2293
henani	-11.2332
istucle	-11.2376
ismulo	-11.2381
heyahawil	-11.2421
arena	-11.2425
licano	-11.2428
ejbiyal	-11.2439
pujnac	-11.2443
unepixto	-11.2445
heyenilo	-11.2446
colbilon	-11.2446
cuartel	-11.2446
islahwilal	-11.2446
jobnayo	-11.2446
legua	-11.2446
palamuch	-11.2446
tzujanex	-11.2446
’	-11.2446
▁Barrabás	-11.2446
▁Olivo	-11.2446
▁Sidón	-11.2446
▁Tomás	-11.2446
▁Wuẍtaj	-11.2446
▁Tiro	-11.2446
hoyno	-11.2446
inbeybalan	-11.2446
ixwilal	-11.2446
harina	-11.2446
▁Yilal	-11.2446
hunpilan	-11.2446
yiximal	-11.2446
▁Acaya	-11.2446
isyox	-11.2446
amaria	-11.2446
▁Marcos	-11.2446
monten	-11.2446
bulna	-11.2446
isteyele	-11.2446
altar	-11.2446
cocachni	-11.2446
chinelicojan	-11.2447
iscuyno	-11.2447
wamigo	-11.2447
chinanicojan	-11.2448
testigohal	-11.2449
uxantaxca	-11.2449
tzebo	-11.245
ojlaxto	-11.2451
chixew	-11.2451
yijatz	-11.2455
txumwe	-11.2455
▁txahul	-11.246
yilaxilti	-11.2461
wehic	-11.2465
chibili	-11.2471
uslaxto	-11.2478
iscawxican	-11.2479
cajlax	-11.2483
nanantaxan	-11.2501
chetxumu	-11.2509
cawina	-11.2515
chiyahni	-11.2524
chiyijpaxo	-11.2539
istin	-11.2547
ismujli	-11.2555
tzelaxilo	-11.2555
istel	-11.2558
istzabayo	-11.257
yaniti	-11.2573
laxilti	-11.2585
iscantil	-11.2589
itah	-11.2607
buchwal	-11.2619
Comam	-11.2622
istrato	-11.2626
chicochah	-11.2628
chisyah	-11.2665
hawanico	-11.2783
awtebilex	-11.2849
hecolchahi	-11.2866
chewchotan	-11.2881
ischilba	-11.2885
ilas	-11.2953
colin	-11.2966
nimanojab	-11.3009
chinchejtojan	-11.3023
heyehico	-11.3054
chihallaxpaxo	-11.3084
inmulan	-11.309
tawintaj	-11.3095
txahlo	-11.3103
hunon	-11.3161
quexwil	-11.3169
ira	-11.3191
hunoxa	-11.3192
ẍixan	-11.3201
▁Jairo	-11.3335
▁Jonás	-11.3335
▁coDiosal	-11.3335
quinyanicojan	-11.3335
▁Iscariote	-11.3335
▁Caifás	-11.3336
▁Chipre	-11.3336
▁Waben	-11.3337
niẍtejal	-11.3337
▁Istzabni	-11.3348
feso	-11.3358
quinhulan	-11.336
Tzalah	-11.3363
mataxca	-11.3365
chiwuc	-11.337
elilo	-11.3371
M	-11.3395
istzujcha	-11.34
▁Cheya	-11.3481
L	-11.3585
yabenilo	-11.3602
etaxto	-11.3658
haxan	-11.3686
chextzala	-11.3687
inchejtojan	-11.3729
maapni	-11.3773
fes	-11.3786
chioccano	-11.3789
chiohtan	-11.379
esarea	-11.3809
bilexxa	-11.3811
candelero	-11.3811
cincuenta	-11.3811
ejholilo	-11.3811
etsaida	-11.3811
hechuquil	-11.3811
hetxiquin	-11.3811
isxumaquil	-11.3811
itzitzbipaxocan	-11.3811
mantiado	-11.3811
maxawaco	-11.3811
panteón	-11.3811
pohlebahil	-11.3811
somchacan	-11.3811
veinticuatro	-11.3811
chejbilti	-11.3811
patzab	-11.3811
hawichamil	-11.3811
chinyijehan	-11.3811
quinhawohtajojan	-11.3811
helanex	-11.3811
juez	-11.3811
wapnihan	-11.3811
sajsatil	-11.3811
albalax	-11.3812
iscawxobal	-11.3812
haltelax	-11.3812
lanza	-11.3812
titnajach	-11.3812
chiixli	-11.3812
hamataj	-11.3812
chinchahan	-11.3813
chiwahlax	-11.3813
chiwilojan	-11.3814
tesataj	-11.3815
yanicanico	-11.3819
machijinan	-11.3823
wajeb	-11.3826
aynatoj	-11.3829
yalaxicto	-11.383
iscutxbanayo	-11.3833
hunujon	-11.3836
chisbeybaln	-11.3837
xatzujcha	-11.3839
colchahan	-11.3845
yihti	-11.3846
ojnito	-11.3847
tzehtaj	-11.3853
hunlahon	-11.3863
xaheyayto	-11.3869
pojoj	-11.3887
tuclenoj	-11.3892
yalaxto	-11.3915
helanile	-11.3938
hecuyni	-11.3951
chichiwaco	-11.3971
▁xacam	-11.3979
tijab	-11.4001
johtajojan	-11.4006
ismeltzoco	-11.4029
chiixtan	-11.4101
saac	-11.4102
heyuten	-11.4104
Iwe	-11.4125
cocolwa	-11.4145
chijalnihan	-11.4225
▁joccano	-11.4279
Tohol	-11.4311
Abewe	-11.4311
▁Elizabet	-11.4312
▁Cornelio	-11.4313
▁Hum	-11.4315
▁uninale	-11.4319
▁watutan	-11.4331
Haquin	-11.4338
chimyu	-11.4407
hachcachann	-11.4416
ohtajan	-11.4507
chicotxum	-11.4576
nohcan	-11.4597
chicobej	-11.4705
Hunt	-11.4709
txumcha	-11.4746
apernaum	-11.4835
acarías	-11.4838
chepuhilo	-11.4838
isbajil	-11.485
cawilxa	-11.4869
▁xahul	-11.4986
maẍtajach	-11.5058
nanías	-11.5108
wanican	-11.5114
jalno	-11.5198
isbalico	-11.5232
nachalo	-11.5249
hawohta	-11.526
incolnihan	-11.5287
jecoj	-11.5311
hiwochehan	-11.5347
▁Prisc	-11.5393
diezmo	-11.5393
majwahan	-11.5393
)	-11.5393
aodicea	-11.5393
aqueo	-11.5393
caret	-11.5393
inhelanilan	-11.5393
isyahbetajil	-11.5393
oxelxa	-11.5393
pujanto	-11.5393
setenta	-11.5393
tiopía	-11.5393
txihnayo	-11.5393
txutxwi	-11.5393
yaxcamic	-11.5393
yoqui	-11.5393
▁Aquila	-11.5393
▁Iscolomal	-11.5393
▁Txumwe	-11.5393
comajul	-11.5393
isdiezmohal	-11.5393
▁Heyohta	-11.5393
istioẍli	-11.5393
ismajchen	-11.5393
wiyom	-11.5393
hobnican	-11.5393
inmayan	-11.5393
maxawute	-11.5393
camello	-11.5393
isyawub	-11.5393
incartahan	-11.5393
▁Sara	-11.5393
ichmame	-11.5393
chenahuln	-11.5393
▁Herodías	-11.5393
▁Naweti	-11.5393
bajxan	-11.5394
▁Apni	-11.5394
cambehal	-11.5394
matxahojab	-11.5394
alnayo	-11.5394
▁Tesalónica	-11.5394
inchejbanilan	-11.5394
alibe	-11.5394
chinischahan	-11.5394
winitojan	-11.5394
isjepla	-11.5395
winajloj	-11.5395
hihellax	-11.5395
jipan	-11.5395
cheyetato	-11.5395
istohi	-11.5396
ojoch	-11.5397
eojabtaj	-11.5397
comatan	-11.5398
inhowalan	-11.5398
ispohnilo	-11.5398
chexchahlaxi	-11.5399
▁Isyeni	-11.5399
yetaxto	-11.5399
hunepixto	-11.54
camnajon	-11.54
hapaxtoj	-11.54
ejbiyalil	-11.5402
cocawil	-11.5403
xajayto	-11.5405
iscolilo	-11.5405
chiyeni	-11.5406
chiuten	-11.5407
usni	-11.5409
yahbalo	-11.5436
chisayni	-11.5439
chaẍhul	-11.5445
hacawil	-11.5468
Canan	-11.5533
yilwelax	-11.5537
aynato	-11.5554
chexcolcha	-11.5573
cuyu	-11.5612
txumiloj	-11.5645
hajloho	-11.5703
yiyo	-11.5711
isyayil	-11.5728
bejcano	-11.58
tzujcha	-11.5864
inyehan	-11.587
munlaho	-11.5872
pitni	-11.5884
Matxa	-11.5889
camtoj	-11.5948
elquisedec	-11.5981
ispichnico	-11.5981
hanintonan	-11.5983
yilaxti	-11.5986
nipaxcano	-11.6028
cuylax	-11.6187
cutxbanico	-11.6252
chinhesay	-11.6387
johta	-11.6423
tzabnayo	-11.6524
ismajil	-11.6549
coloni	-11.6582
ornelio	-11.6604
Bejwe	-11.6606
ordán	-11.6606
▁Creta	-11.6606
▁heDiosal	-11.6606
amasco	-11.6607
tolab	-11.6609
Hanintonan	-11.661
▁wojan	-11.6615
▁Toxa	-11.6638
cabo	-11.6659
isyenicanilo	-11.6666
Aco	-11.6809
Maẍto	-11.7012
Hun	-11.7031
checuy	-11.7081
saynic	-11.7167
inilti	-11.7201
ofrenda	-11.727
istzabnoyo	-11.7272
adara	-11.7273
anfilia	-11.7273
chepajtze	-11.7273
chepohle	-11.7273
chibejtzolax	-11.7273
eelzebú	-11.7273
esponja	-11.7273
hujel	-11.7273
incuywoman	-11.7273
incuywomojan	-11.7273
isholanil	-11.7273
lejandro	-11.7273
magdal	-11.7273
maxawil	-11.7273
nueve	-11.7273
orcas	-11.7273
pahaw	-11.7273
quetzal	-11.7273
tzujnu	-11.7273
vidrio	-11.7273
yetexxa	-11.7273
cochuquil	-11.7273
wetbihojan	-11.7273
ishatelax	-11.7273
ispaxayti	-11.7273
limeta	-11.7273
conanitijan	-11.7273
reina	-11.7273
holbil	-11.7273
oncio	-11.7273
ohchahi	-11.7273
quiniscolnihan	-11.7273
wuninalan	-11.7273
sur	-11.7273
ispeyabil	-11.7273
weyto	-11.7273
idia	-11.7273
mayor	-11.7273
chinyelojan	-11.7273
chexixli	-11.7273
inmelyuhan	-11.7273
heyetbihoj	-11.7273
cotxahlihan	-11.7273
abilonia	-11.7274
chexwayi	-11.7274
ismalil	-11.7274
hahelanil	-11.7274
hora	-11.7274
plato	-11.7274
intxumnihan	-11.7274
inchejabojan	-11.7274
chiwitijan	-11.7274
quintzotelan	-11.7275
iscolwahi	-11.7275
isnimanbal	-11.7275
yintalto	-11.7275
piso	-11.7275
seis	-11.7276
isbahwa	-11.7276
inmeltzohan	-11.7278
chialaxto	-11.728
tasataj	-11.7281
ayinictojan	-11.7282
yixtan	-11.7289
arpa	-11.729
iswinajil	-11.729
isyenipaxilo	-11.7297
chicoyelo	-11.7298
chincanan	-11.7298
yijlen	-11.7308
inlohan	-11.7324
yanoco	-11.7329
chitac	-11.7351
yinolo	-11.7363
hatelaxo	-11.7386
ẍicoj	-11.7388
wilnojan	-11.7491
nohilo	-11.7704
chaojabilo	-11.79
amigo	-11.7981
gripa	-11.7984
ndrés	-11.7984
orinto	-11.7985
Hallaxojab	-11.7987
▁Iconio	-11.7987
▁Johta	-11.7987
▁Listra	-11.7987
▁Natanael	-11.7987
▁Sión	-11.7987
▁inDiosal	-11.7987
iptzewe	-11.7987
▁Hajxam	-11.7987
Iwel	-11.8317
chistzab	-11.8389
hitzan	-11.8682
polos	-11.8754
cuatro	-11.8757
chinalaxicojan	-11.8757
etania	-11.8757
saybilxa	-11.8757
mago	-11.8758
wahawan	-11.8758
yanipaxto	-11.8759
tolto	-11.876
yinipaxocan	-11.8765
inyenilo	-11.8988
chetxum	-11.9021
epaxtojan	-11.9405
chejlaxto	-11.951
halniloj	-11.9522
hucan	-11.9561
isbutni	-11.959
alión	-11.959
araón	-11.959
arrabás	-11.959
artolomé	-11.959
azufre	-11.959
chabejtzo	-11.959
chaẍtohi	-11.959
chexcuyni	-11.959
chiluylun	-11.959
chinbejtzohan	-11.959
cotxumuloj	-11.959
enesaret	-11.959
enjamín	-11.959
eremías	-11.959
hehelbal	-11.959
hierro	-11.959
higo	-11.959
hulnajojinan	-11.959
idón	-11.959
inbejtzonan	-11.959
W	-12.0731
ñ	-13.4764
U	-13.4765
Q	-13.4766
(	-13.4767
‘	-13.4768
Z	-13.4769
X	-13.477
R	-13.4771
F	-13.4772
G	-13.4773
B	-13.4774
¡	-13.4775
v	-13.4776
ó	-13.4777
á	-13.4778
“	-13.4779
S	-13.478
P	-13.4781
é	-13.4782
¿	-13.4783
ú	-13.4784
―	-13.4785
J	-13.4786
D	-13.4787
ẍ	-13.4788
x	-13.4789
