<pad>	0
</s>	0
<unk>	0
▁the	-3.23993
,	-3.45529
s	-3.52497
▁of	-3.70131
▁	-3.72384
.	-3.95465
▁and	-4.10785
▁(	-4.24587
▁in	-4.29199
▁to	-4.35063
▁a	-4.42328
-	-4.53543
ed	-4.5709
▁was	-4.57644
)	-4.68517
ing	-5.06415
▁is	-5.12472
'	-5.12496
i	-5.17006
e	-5.20877
▁as	-5.21021
a	-5.23506
o	-5.26742
n	-5.29238
d	-5.37212
t	-5.46425
▁that	-5.50191
l	-5.53846
▁by	-5.54786
▁no	-5.59373
▁for	-5.61284
▁he	-5.62599
al	-5.70025
ly	-5.70027
▁on	-5.70538
▁with	-5.73225
u	-5.76218
▁The	-5.77802
▁from	-5.84195
in	-5.84414
ra	-5.84451
er	-5.85095
ri	-5.85774
y	-5.88085
c	-5.90968
▁'	-5.91309
▁his	-5.92168
p	-5.92495
▁In	-5.9429
▁"	-5.95425
),	-5.97948
).	-5.99609
"	-6.01099
▁were	-6.02611
▁it	-6.03473
shi	-6.07026
ji	-6.10043
ku	-6.10047
▁at	-6.10287
or	-6.11296
▁who	-6.11503
▁which	-6.11579
▁be	-6.14761
m	-6.15353
▁A	-6.17157
re	-6.19945
▁O	-6.20626
no	-6.21055
r	-6.22214
ko	-6.2857
to	-6.29279
▁He	-6.31561
▁are	-6.31804
mi	-6.32646
ta	-6.3332
ki	-6.33896
▁an	-6.3482
ma	-6.35082
th	-6.35758
▁or	-6.38808
tsu	-6.39318
se	-6.40733
an	-6.41012
the	-6.41081
▁period	-6.45827
do	-6.47283
▁family	-6.47853
ro	-6.47988
jo	-6.49087
:	-6.49604
ka	-6.5257
ir	-6.52961
▁clan	-6.55636
▁Emperor	-6.56817
▁It	-6.57396
es	-6.59466
k	-6.59658
w	-6.60761
▁had	-6.60894
▁but	-6.61122
▁Kyoto	-6.61338
▁I	-6.61779
▁Ko	-6.63205
te	-6.63749
▁not	-6.64379
▁re	-6.65604
▁also	-6.66455
ation	-6.66653
A	-6.67108
ar	-6.67188
ion	-6.67993
ge	-6.68382
▁this	-6.68978
en	-6.69234
▁name	-6.69408
chi	-6.70601
g	-6.71195
▁Temple	-6.7371
▁so	-6.73987
st	-6.74506
ke	-6.74589
▁Province	-6.75002
▁19	-6.75484
sho	-6.76851
go	-6.77951
O	-6.78207
wa	-6.78297
b	-6.79348
▁called	-6.8146
▁Japan	-6.81648
f	-6.82377
▁after	-6.82498
ter	-6.83221
na	-6.83429
me	-6.8358
ga	-6.83975
ne	-6.84151
▁became	-6.85337
▁City	-6.85359
le	-6.86038
▁c	-6.87432
ru	-6.88379
▁Imperial	-6.88729
▁one	-6.88987
ve	-6.89005
▁f	-6.89534
gi	-6.89534
bo	-6.9119
it	-6.91313
ba	-6.91346
yo	-6.9354
▁such	-6.93892
bu	-6.95997
da	-6.96082
;	-6.9615
ya	-6.96576
▁de	-6.96595
sa	-6.96867
▁been	-6.97701
▁U	-6.98274
▁have	-6.98355
▁P	-6.98423
ce	-7.01968
▁time	-7.02
▁To	-7.02658
ment	-7.02832
▁Japanese	-7.03314
ur	-7.03713
▁Prefecture	-7.04957
▁when	-7.06171
shu	-7.06304
▁used	-7.06648
2	-7.06666
I	-7.07897
su	-7.08079
▁18	-7.09416
ll	-7.10118
zu	-7.11866
9	-7.13852
ho	-7.14398
▁Sho	-7.14809
gu	-7.1519
▁On	-7.15645
5	-7.15694
▁His	-7.15863
7	-7.17354
S	-7.17365
▁con	-7.17549
▁there	-7.17904
on	-7.18196
▁Yoshi	-7.18259
ted	-7.18703
E	-7.19013
4	-7.19017
▁S	-7.19783
▁made	-7.20279
3	-7.20862
cho	-7.21387
▁Mi	-7.21524
▁T	-7.21553
li	-7.2268
▁other	-7.23361
ic	-7.24244
▁head	-7.25031
▁Edo	-7.25493
▁son	-7.25505
so	-7.25976
▁Ka	-7.26339
▁has	-7.26638
▁government	-7.26667
h	-7.26799
▁Sa	-7.27344
ng	-7.28155
▁during	-7.28521
▁they	-7.28715
▁people	-7.30011
▁Ku	-7.30045
▁first	-7.30364
fu	-7.30789
ent	-7.31631
▁p	-7.31912
ch	-7.3236
▁said	-7.32566
▁into	-7.32865
kyo	-7.33439
at	-7.3363
ha	-7.33684
ni	-7.33786
8	-7.33847
tion	-7.33984
mo	-7.35858
kan	-7.36945
6	-7.36947
▁co	-7.37033
U	-7.37691
il	-7.37881
▁So	-7.383
x	-7.38768
ju	-7.39801
▁-	-7.40606
▁Shi	-7.41089
yama	-7.41198
▁Ho	-7.41503
▁Go	-7.41717
▁under	-7.42247
zo	-7.42472
▁e	-7.42962
▁However	-7.43096
ers	-7.43408
gen	-7.43443
kai	-7.43479
vi	-7.43689
▁Station	-7.44557
▁w	-7.44618
be	-7.46816
ated	-7.47053
un	-7.47446
▁part	-7.47843
▁b	-7.48597
us	-7.48678
mu	-7.49395
▁E	-7.49953
▁because	-7.50189
▁Re	-7.50993
ryo	-7.51156
▁C	-7.52841
R	-7.52891
v	-7.53098
▁year	-7.53167
0	-7.53301
▁Taka	-7.53484
▁out	-7.53765
sha	-7.54363
▁some	-7.54582
▁F	-7.54597
de	-7.54614
pp	-7.5482
▁Ki	-7.55093
▁Ta	-7.55929
bi	-7.55971
▁Shrine	-7.56838
▁system	-7.56838
▁its	-7.57109
za	-7.57125
et	-7.57715
den	-7.57731
▁Prince	-7.58066
▁15	-7.58614
▁su	-7.58965
▁between	-7.60166
ry	-7.60557
G	-7.60714
el	-7.60813
ant	-7.61068
▁many	-7.61389
▁Su	-7.61471
▁school	-7.61528
▁over	-7.61537
dai	-7.62283
▁order	-7.62571
ting	-7.62946
ary	-7.63197
1	-7.63227
though	-7.63285
nd	-7.636
▁her	-7.64
▁all	-7.6408
▁Thi	-7.64337
▁can	-7.64613
▁position	-7.64665
▁rank	-7.65382
▁up	-7.6631
▁ma	-7.66797
▁After	-7.66812
▁same	-7.66881
led	-7.6692
mon	-7.66968
▁two	-7.67174
ck	-7.67646
tai	-7.68015
▁only	-7.68143
▁about	-7.68271
sen	-7.68569
▁Kan	-7.68689
M	-7.68729
pe	-7.69097
▁Dai	-7.69295
▁Shin	-7.69329
K	-7.69754
est	-7.69873
▁ex	-7.70141
▁where	-7.70162
▁died	-7.70564
▁him	-7.70564
ive	-7.70567
▁years	-7.71002
▁do	-7.71255
▁pa	-7.71301
N	-7.72415
ten	-7.7275
▁B	-7.73135
▁Ha	-7.73141
▁FUJIWARA	-7.73157
▁mi	-7.7383
as	-7.74295
ver	-7.74514
▁16	-7.75323
▁temple	-7.75714
▁pro	-7.75788
▁Hi	-7.75864
ial	-7.76087
▁pre	-7.76487
▁main	-7.76637
T	-7.76796
▁end	-7.77655
mb	-7.77829
▁sho	-7.77959
▁dis	-7.77972
▁post	-7.77984
ance	-7.78119
▁M	-7.78317
ity	-7.78546
▁father	-7.79522
▁established	-7.79526
▁court	-7.79821
▁st	-7.7986
ate	-7.79866
J	-7.80058
shin	-7.8014
age	-7.80855
um	-7.8102
▁person	-7.81192
.'	-7.81242
▁old	-7.81533
min	-7.81747
▁un	-7.82167
The	-7.82182
▁Court	-7.82438
he	-7.82485
▁army	-7.82521
▁As	-7.8308
▁later	-7.83614
▁Ten	-7.8374
▁Ma	-7.84601
ect	-7.8481
▁written	-7.85227
ist	-7.85253
▁11	-7.85523
ran	-7.85573
▁side	-7.85908
▁well	-7.8592
▁Castle	-7.86317
▁death	-7.8632
▁hand	-7.86831
▁line	-7.86837
▁mo	-7.86942
▁Masa	-7.87058
▁held	-7.87463
out	-7.87822
▁H	-7.88403
▁lord	-7.8854
▁new	-7.88999
▁region	-7.89444
yoshi	-7.89495
able	-7.89505
gawa	-7.89558
▁Rank	-7.90354
▁than	-7.90379
▁ha	-7.90454
ut	-7.90567
▁area	-7.90899
gaku	-7.90933
B	-7.91031
▁Naga	-7.9137
▁rice	-7.91801
▁being	-7.92247
▁War	-7.92252
▁including	-7.92848
▁d	-7.93039
▁through	-7.9361
ze	-7.93617
▁she	-7.93697
ti	-7.93765
▁San	-7.9402
▁however	-7.94084
▁second	-7.94084
▁Tsu	-7.94229
TA	-7.94314
yu	-7.94411
▁those	-7.9456
▁go	-7.9468
▁di	-7.95481
ally	-7.95584
▁official	-7.95602
▁three	-7.96003
▁17	-7.96034
▁while	-7.96212
▁Yo	-7.96879
ie	-7.96972
▁war	-7.97109
▁more	-7.97208
masa	-7.97214
▁o	-7.97598
▁Fu	-7.98063
gyo	-7.98164
▁G	-7.98431
▁daughter	-7.98453
▁military	-7.98692
▁located	-7.98877
▁brother	-7.99142
▁known	-7.9939
fe	-7.99457
jin	-7.99527
▁Chi	-7.99696
po	-7.9985
▁served	-8.00077
▁bakufu	-8.00459
Japanese	-8.00591
▁Buddhist	-8.00715
▁Kamakura	-8.00966
▁station	-8.0117
DA	-8.01413
KI	-8.0155
▁Sei	-8.01704
▁There	-8.01841
▁appointed	-8.02505
▁state	-8.0256
▁13	-8.02644
moto	-8.02835
▁Domain	-8.03023
▁L	-8.03201
▁style	-8.03202
▁Al	-8.03335
ei	-8.0339
▁12	-8.03557
▁them	-8.03811
▁due	-8.04093
▁1	-8.0427
san	-8.04867
nin	-8.05089
▁since	-8.05123
va	-8.05182
▁3	-8.05284
▁before	-8.05661
ies	-8.05667
ence	-8.05837
▁sp	-8.05931
▁Ni	-8.06144
▁young	-8.06229
▁po	-8.06446
ther	-8.06509
▁around	-8.06582
▁Ya	-8.0711
▁would	-8.07267
ding	-8.07273
▁came	-8.07356
ward	-8.07395
sei	-8.07872
ty	-8.08002
▁se	-8.08481
▁Nara	-8.085
▁ho	-8.08719
▁Jo	-8.08775
ous	-8.08984
co	-8.09143
id	-8.09222
▁Meiji	-8.0946
▁each	-8.09495
▁land	-8.09953
▁power	-8.0999
▁given	-8.10137
▁10	-8.10223
▁form	-8.10613
▁Line	-8.10651
D	-8.10853
KA	-8.10879
▁work	-8.11071
▁down	-8.11137
▁place	-8.11722
▁Se	-8.11788
ts	-8.12111
▁high	-8.12149
kuni	-8.12338
C	-8.12543
▁Ju	-8.12705
hi	-8.12741
am	-8.13087
▁br	-8.13365
ff	-8.13423
▁al	-8.13817
▁various	-8.13993
▁took	-8.14034
▁refer	-8.14263
▁Tada	-8.14293
/	-8.14574
▁title	-8.14579
Juni	-8.14791
▁No	-8.14842
▁age	-8.15136
per	-8.15182
day	-8.15214
▁Osaka	-8.15259
▁Ji	-8.15753
▁Do	-8.15969
ring	-8.1627
▁la	-8.16382
▁me	-8.16556
sai	-8.16827
▁sect	-8.16829
▁Tokyo	-8.17142
kawa	-8.17151
▁Heian	-8.17539
suke	-8.17625
ine	-8.18134
▁even	-8.18148
▁[	-8.18202
▁Shu	-8.18227
▁addition	-8.18665
▁early	-8.18742
▁use	-8.18932
▁following	-8.1897
ichi	-8.19254
ac	-8.19254
▁MINAMOTO	-8.19351
▁back	-8.19356
ight	-8.19361
jinja	-8.19378
▁man	-8.19573
red	-8.19772
ken	-8.1991
▁emperor	-8.19965
zen	-8.20328
gun	-8.20434
ical	-8.20471
▁shogun	-8.20585
▁2	-8.21031
man	-8.21188
▁statue	-8.21203
▁did	-8.21239
myo	-8.21329
based	-8.21364
▁koku	-8.21402
▁N	-8.21536
H	-8.21825
▁When	-8.21828
ig	-8.21936
▁imperial	-8.22177
ron	-8.22237
Z	-8.22259
shima	-8.22323
▁wife	-8.22458
▁sa	-8.22572
one	-8.22585
▁considered	-8.22674
mori	-8.22731
▁become	-8.22752
▁battle	-8.2309
▁priest	-8.23314
▁like	-8.2333
▁both	-8.2376
▁day	-8.23999
▁number	-8.24368
▁Ward	-8.24388
▁mother	-8.24417
ca	-8.24608
▁fact	-8.24637
▁himself	-8.25662
▁local	-8.26316
▁general	-8.26316
▁Chinese	-8.26974
▁domain	-8.26975
ban	-8.27034
▁Kin	-8.27174
▁great	-8.2739
ld	-8.27393
kata	-8.27614
we	-8.27886
▁book	-8.2802
,"	-8.28127
ice	-8.2822
▁Palace	-8.28303
▁could	-8.28303
▁left	-8.28304
mura	-8.28484
▁shrine	-8.28515
▁14	-8.28593
▁Sen	-8.28837
▁Buddhism	-8.28974
tic	-8.29469
▁School	-8.3033
▁8	-8.30346
▁At	-8.30372
▁200	-8.30648
Ta	-8.30803
fi	-8.31146
▁5	-8.3118
▁Sai	-8.31285
ful	-8.31487
▁Wa	-8.31542
taka	-8.3161
MA	-8.31626
▁service	-8.31704
▁common	-8.31705
▁theory	-8.31843
▁7	-8.32393
▁Nobu	-8.32554
▁group	-8.33098
▁art	-8.33122
▁ca	-8.33157
▁tea	-8.33161
MI	-8.33171
▁R	-8.33202
yaku	-8.3326
chu	-8.33366
roku	-8.33504
port	-8.3359
▁Buddha	-8.33799
▁ceremony	-8.33802
▁train	-8.33848
son	-8.34307
▁TOKUGAWA	-8.34512
▁large	-8.34514
▁Mt	-8.34562
▁most	-8.34899
up	-8.35044
▁long	-8.3527
oka	-8.35301
naga	-8.35633
▁6	-8.35719
▁According	-8.35945
▁Gen	-8.35945
▁third	-8.35945
▁Tai	-8.36067
▁term	-8.36138
▁ro	-8.36548
ure	-8.36673
▁born	-8.36673
▁against	-8.36735
00	-8.37054
▁April	-8.374
kyu	-8.37453
▁K	-8.37515
▁January	-8.37608
val	-8.3761
▁show	-8.37664
NO	-8.38338
▁these	-8.38427
▁era	-8.385
▁July	-8.3857
▁tri	-8.38929
SHI	-8.39183
▁present	-8.39189
ions	-8.39228
using	-8.39655
kaku	-8.39742
▁Co	-8.39771
▁case	-8.39885
▁March	-8.3991
om	-8.39934
▁started	-8.40069
▁An	-8.40074
▁office	-8.40205
▁ga	-8.40245
men	-8.40337
▁visit	-8.40374
▁Ro	-8.4038
rin	-8.40483
▁October	-8.40645
▁Shige	-8.4072
▁make	-8.40784
rai	-8.40823
SU	-8.40905
went	-8.40985
▁record	-8.41132
▁built	-8.41132
▁Nobunaga	-8.41157
▁exp	-8.41207
▁Period	-8.41329
zan	-8.41388
▁Shinto	-8.41646
kura	-8.41653
Ko	-8.41677
▁ko	-8.41774
pi	-8.41883
▁University	-8.41895
▁samurai	-8.41895
▁above	-8.41901
▁section	-8.42158
ized	-8.42183
▁En	-8.42373
▁Mo	-8.42512
▁Yu	-8.42527
▁h	-8.4258
."	-8.42638
▁example	-8.42664
▁De	-8.4311
▁among	-8.43445
▁set	-8.43447
Ka	-8.43954
▁en	-8.43976
▁per	-8.44176
toku	-8.44326
fa	-8.44574
▁For	-8.44771
gin	-8.44839
▁building	-8.45102
pu	-8.45367
▁Yori	-8.45464
han	-8.45556
ja	-8.45563
▁off	-8.45616
tch	-8.45767
▁capital	-8.45802
▁cha	-8.45949
ture	-8.46401
▁feud	-8.46602
▁word	-8.46606
▁Hideyoshi	-8.46629
▁China	-8.46778
▁adopted	-8.46809
▁Moto	-8.46915
▁house	-8.47017
▁Bu	-8.47159
king	-8.4737
▁ka	-8.47435
▁chief	-8.47548
RI	-8.47664
▁temples	-8.47772
▁lived	-8.47946
▁ancient	-8.48221
▁birth	-8.48222
▁Kyo	-8.48296
▁Ken	-8.48383
▁Hon	-8.48467
▁way	-8.48519
▁then	-8.48661
▁W	-8.48785
▁say	-8.48785
▁right	-8.49047
▁Ba	-8.49081
▁hi	-8.4922
▁Kai	-8.49313
rd	-8.49828
▁car	-8.49844
▁different	-8.49867
▁life	-8.4987
aki	-8.49989
▁put	-8.50013
nari	-8.50129
nori	-8.50283
▁own	-8.50356
▁days	-8.50471
▁god	-8.50746
▁sake	-8.51716
ish	-8.51895
▁rule	-8.51949
▁Chu	-8.52017
▁century	-8.52388
mei	-8.52455
▁will	-8.52487
▁former	-8.52727
▁unti	-8.5274
land	-8.53145
▁vassal	-8.53243
▁world	-8.53243
low	-8.53268
▁water	-8.53358
ple	-8.53482
▁May	-8.53541
▁4	-8.54113
▁unknown	-8.54115
▁national	-8.54372
▁Te	-8.54485
▁Yasu	-8.54504
▁others	-8.54594
yuki	-8.54768
and	-8.54791
z	-8.54863
▁kami	-8.54969
▁control	-8.54975
▁branch	-8.54975
▁governor	-8.55084
▁Ga	-8.55091
▁real	-8.55182
▁Cho	-8.55257
▁Hiro	-8.55324
▁often	-8.55569
kami	-8.56596
▁ASHIKAGA	-8.56737
▁August	-8.56737
▁sword	-8.56737
▁Ieyasu	-8.56747
cy	-8.56959
▁February	-8.56968
L	-8.57009
less	-8.57161
▁four	-8.57457
▁popular	-8.5763
▁support	-8.57746
▁December	-8.57818
▁September	-8.57841
▁should	-8.58531
▁charge	-8.58531
▁bu	-8.58589
ai	-8.59166
ship	-8.59247
ling	-8.59491
▁medi	-8.59581
shiki	-8.5959
▁sent	-8.59833
yori	-8.59898
▁play	-8.5991
hime	-8.59943
▁Railway	-8.60357
▁half	-8.60358
▁Gon	-8.60559
▁began	-8.60567
hara	-8.60578
P	-8.60713
koku	-8.60906
▁fu	-8.61126
kei	-8.6126
literally	-8.61283
▁close	-8.61283
▁together	-8.61286
▁another	-8.61289
▁Be	-8.61385
▁members	-8.61512
▁if	-8.61956
▁comp	-8.6218
machi	-8.62185
▁child	-8.62206
AIRA	-8.62218
▁November	-8.62218
▁castle	-8.62218
▁still	-8.6226
▁town	-8.62265
▁historical	-8.62369
▁you	-8.62385
▁9	-8.62473
▁Mitsu	-8.62653
▁Han	-8.62668
tada	-8.6269
▁we	-8.62734
form	-8.62926
▁Aki	-8.62926
▁away	-8.6313
▁Battle	-8.63161
▁reason	-8.63162
▁V	-8.63212
mitsu	-8.63333
dori	-8.63358
▁changed	-8.63404
daijin	-8.63618
▁times	-8.63717
light	-8.63779
dan	-8.63971
tan	-8.64047
▁law	-8.64068
▁influence	-8.64113
▁regard	-8.64115
▁result	-8.64115
▁Jin	-8.64495
table	-8.64578
▁within	-8.6474
▁gra	-8.65071
▁Muromachi	-8.65075
▁important	-8.65094
▁open	-8.65119
ism	-8.65201
ving	-8.65336
pon	-8.65523
ating	-8.65595
▁Uji	-8.65622
▁ri	-8.65711
▁families	-8.66046
▁National	-8.66047
▁country	-8.66073
▁Omi	-8.66085
old	-8.66331
▁Toki	-8.66385
▁Miya	-8.66526
ishi	-8.66753
▁v	-8.66769
▁Ri	-8.66923
que	-8.67026
▁character	-8.67028
tur	-8.67179
gon	-8.6718
▁means	-8.67361
▁according	-8.67486
ide	-8.67749
having	-8.67776
kin	-8.67813
katsu	-8.67886
very	-8.68116
moved	-8.68294
▁Sada	-8.68341
▁take	-8.68545
▁small	-8.69017
▁Zen	-8.69021
▁tax	-8.69032
gan	-8.69363
cha	-8.6958
dy	-8.69735
▁wa	-8.69927
tori	-8.70005
▁sta	-8.70017
▁Empress	-8.70026
▁north	-8.70033
▁late	-8.70084
nomiya	-8.70225
▁san	-8.70238
row	-8.70606
▁Yama	-8.70634
nder	-8.70697
nobu	-8.70982
▁express	-8.71047
▁type	-8.71049
▁They	-8.71149
▁lost	-8.71154
tomo	-8.71164
▁described	-8.71269
ill	-8.71312
▁act	-8.71339
ors	-8.71383
bun	-8.7146
▁plan	-8.71683
▁any	-8.71728
▁public	-8.72078
▁center	-8.72089
cul	-8.72108
▁exist	-8.72145
ound	-8.72197
▁issued	-8.72325
con	-8.72574
Ma	-8.7259
▁origin	-8.72689
▁ju	-8.72707
les	-8.72898
To	-8.73112
▁Street	-8.7312
▁Kei	-8.73156
Sa	-8.7324
▁Yamato	-8.73314
▁role	-8.73464
▁Sane	-8.73677
emon	-8.73801
▁Waka	-8.74115
▁mountain	-8.74172
▁Grade	-8.74172
▁Tokugawa	-8.74189
Since	-8.74224
▁Mori	-8.7458
]	-8.74999
▁volume	-8.75236
Northern	-8.75247
▁master	-8.75248
ph	-8.75322
▁ten	-8.75427
▁Some	-8.75455
cent	-8.75583
▁found	-8.75912
▁Man	-8.75937
gami	-8.76223
▁good	-8.76317
▁children	-8.7633
▁dai	-8.76336
▁Nishi	-8.76502
▁promoted	-8.76728
ue	-8.76812
ryu	-8.77222
saki	-8.77291
fuku	-8.77323
▁political	-8.77398
▁front	-8.77399
Southern	-8.77413
▁believed	-8.77529
▁kind	-8.7765
▁Ie	-8.77674
▁shrines	-8.77871
▁received	-8.77901
▁monk	-8.78226
▁Korea	-8.78227
▁music	-8.78501
lot	-8.78541
▁Hide	-8.78662
▁succeeded	-8.78737
▁hall	-8.78848
▁noble	-8.78869
▁20	-8.79069
▁along	-8.79093
pen	-8.79154
hira	-8.7924
▁Therefore	-8.79608
▁religio	-8.79609
Senior	-8.79619
tsuna	-8.79656
▁Ise	-8.79724
▁Ryo	-8.79778
▁history	-8.79874
▁run	-8.79975
▁books	-8.80082
▁created	-8.80083
▁killed	-8.80123
▁current	-8.8026
▁Matsu	-8.80474
▁Minister	-8.80594
▁Michi	-8.80695
▁view	-8.80732
▁site	-8.80741
▁River	-8.80782
hon	-8.80819
▁remain	-8.80836
▁stop	-8.8088
▁Bun	-8.80927
▁trains	-8.80933
▁She	-8.80936
▁shi	-8.81284
designated	-8.81284
lic	-8.81439
lar	-8.81716
▁Me	-8.81733
hito	-8.81767
▁calendar	-8.81868
▁daimyo	-8.81899
▁Ichi	-8.81912
▁last	-8.82156
ui	-8.82234
tory	-8.82245
nyo	-8.82489
mune	-8.82594
▁Na	-8.82833
▁prince	-8.83018
▁original	-8.83053
▁appear	-8.83099
▁just	-8.83182
produc	-8.83249
▁Di	-8.83465
▁Kane	-8.83669
▁Iwa	-8.84149
▁thought	-8.84221
▁direct	-8.84236
▁story	-8.84256
▁Also	-8.84378
▁Sect	-8.8441
KAWA	-8.84532
▁Mu	-8.84739
ness	-8.84805
shige	-8.84938
ach	-8.84983
rew	-8.84995
ren	-8.8501
▁Katsu	-8.85265
▁letter	-8.85359
▁Kami	-8.8584
side	-8.85914
▁June	-8.85991
michi	-8.86013
▁works	-8.86245
▁Nan	-8.86475
▁food	-8.86547
▁strong	-8.86548
▁transferred	-8.86557
▁hold	-8.86655
▁sever	-8.86674
▁five	-8.86881
▁included	-8.86893
▁modern	-8.87067
▁lead	-8.87078
▁read	-8.87166
▁Bo	-8.87185
▁Bi	-8.8727
▁Myo	-8.87321
CHI	-8.87558
hiko	-8.87599
▁Incident	-8.87752
▁practice	-8.87752
▁territory	-8.87752
▁spirit	-8.87753
▁Yoritomo	-8.87778
▁Noh	-8.87899
bon	-8.8808
▁Tang	-8.88273
▁seen	-8.88403
▁Dur	-8.88473
saka	-8.88521
▁(1	-8.88637
matsu	-8.88652
▁trans	-8.88841
▁residence	-8.88972
▁contain	-8.88977
tive	-8.88982
▁Kyushu	-8.89007
▁Sha	-8.89037
ished	-8.89068
▁Shogun	-8.89089
▁Y	-8.89093
▁Genji	-8.89156
▁Mon	-8.89159
▁cho	-8.89309
▁city	-8.8931
▁come	-8.8957
▁Naka	-8.89705
tsugu	-8.89816
▁returned	-8.89864
ber	-8.89906
butsu	-8.90075
rei	-8.90096
▁status	-8.90207
▁every	-8.90298
tsune	-8.90303
ities	-8.90404
▁Gi	-8.90748
▁na	-8.90805
▁east	-8.90813
▁KO	-8.91056
▁forces	-8.91127
YA	-8.91407
ious	-8.9157
▁eight	-8.91606
▁collection	-8.91637
▁developed	-8.91676
▁Taira	-8.91974
▁bi	-8.92059
▁performed	-8.92084
▁passed	-8.92289
sada	-8.92314
Y	-8.92576
▁learn	-8.92722
▁enshrined	-8.92729
▁sometime	-8.92761
miya	-8.92886
])	-8.93004
▁Da	-8.9308
▁D	-8.93778
▁kan	-8.93996
ology	-8.94004
▁instead	-8.94004
▁Cultur	-8.94004
▁gate	-8.94278
way	-8.94489
over	-8.94515
kko	-8.94576
fusa	-8.94648
▁member	-8.94982
▁Koku	-8.95051
▁characters	-8.953
▁festival	-8.95303
▁foreign	-8.95303
▁middle	-8.95306
▁tree	-8.95325
▁State	-8.95465
▁produced	-8.95501
▁commander	-8.95562
JI	-8.95572
Mi	-8.95925
▁generation	-8.96297
▁sea	-8.96318
gata	-8.96349
▁Nori	-8.9635
▁once	-8.96357
councilor	-8.96372
▁Dynasty	-8.96619
minister	-8.96619
goku	-8.96633
▁construction	-8.96648
▁areas	-8.96682
▁making	-8.96705
referred	-8.96709
▁Kita	-8.96764
imate	-8.96821
ft	-8.96866
▁officer	-8.96973
▁Li	-8.97329
▁materials	-8.97735
▁private	-8.97952
▁County	-8.97952
▁famous	-8.97952
▁ground	-8.97954
1,	-8.98107
uchi	-8.98244
BE	-8.98962
▁next	-8.99303
▁shogunate	-8.99398
▁stone	-8.99407
▁Un	-8.99595
▁Ne	-8.99765
gar	-8.99907
▁mon	-8.99965
▁Take	-9.00036
▁25	-9.00312
WA	-9.0039
zai	-9.0041
ugh	-9.00529
▁incident	-9.00673
▁countries	-9.00673
▁painting	-9.00674
▁image	-9.00701
▁short	-9.00716
▁Fuku	-9.00768
▁Com	-9.00932
▁my	-9.00961
▁Tsune	-9.00994
Genji	-9.01028
60	-9.01086
▁get	-9.01131
▁point	-9.01168
80	-9.01302
fac	-9.01355
▁Saga	-9.01616
▁Toshi	-9.01717
▁six	-9.01888
▁field	-9.02062
▁1,	-9.02063
▁warrior	-9.02066
▁south	-9.02066
▁studi	-9.0207
▁palace	-9.02085
▁fire	-9.02218
by	-9.02365
▁ki	-9.02943
istic	-9.02946
▁cultur	-9.02961
▁class	-9.0307
tto	-9.03354
▁tr	-9.03394
ssistant	-9.03472
▁text	-9.03472
resident	-9.03472
▁Kiyo	-9.03523
zane	-9.03564
▁paper	-9.03585
ifth	-9.03587
UCHI	-9.03699
▁arm	-9.03704
oki	-9.03819
Na	-9.03873
▁Kuni	-9.03879
kushi	-9.04086
bashi	-9.04172
▁rep	-9.04264
gree	-9.04538
▁now	-9.04611
▁retainer	-9.04813
▁village	-9.04899
▁major	-9.04901
Minamoto	-9.04904
cross	-9.04935
ified	-9.0505
):	-9.05236
▁return	-9.05298
YAMA	-9.05398
Hi	-9.05629
Sho	-9.05925
▁placed	-9.06094
cre	-9.06139
Ho	-9.06175
koji	-9.06257
▁Lower	-9.06348
▁Office	-9.06348
▁worship	-9.06349
▁cloth	-9.06349
▁base	-9.0639
▁fight	-9.06597
▁special	-9.06637
▁originally	-9.06827
▁event	-9.07039
▁actor	-9.07085
oku	-9.07275
▁Tomo	-9.07388
ner	-9.074
▁pur	-9.07713
▁again	-9.07725
qua	-9.07818
▁Because	-9.07819
▁Division	-9.07819
▁Fujiwara	-9.07819
▁except	-9.07819
▁study	-9.07819
▁method	-9.07819
▁process	-9.07819
yasu	-9.07823
▁House	-9.07825
▁sub	-9.07864
leg	-9.07925
▁Shimo	-9.08185
let	-9.08212
AN	-9.08245
▁allowed	-9.0833
▁introduced	-9.08345
mono	-9.08402
▁ODA	-9.08419
jima	-9.09237
▁conflict	-9.09311
▁business	-9.09311
▁TO	-9.09378
uji	-9.09478
▁deity	-9.09673
▁attack	-9.09774
if	-9.09845
seki	-9.09964
pper	-9.10052
F	-9.10239
▁bus	-9.10495
▁may	-9.10826
▁near	-9.10856
dera	-9.10909
▁Princess	-9.11242
▁troops	-9.11598
▁men	-9.11613
▁30	-9.11641
▁tak	-9.1185
,000	-9.12138
ification	-9.12293
▁founded	-9.12324
▁color	-9.12373
▁History	-9.12474
▁farm	-9.12517
MURA	-9.12533
taro	-9.12534
▁traditional	-9.12555
▁month	-9.12586
▁cut	-9.1275
▁etc	-9.12772
guchi	-9.12966
▁Con	-9.1304
Japan	-9.13081
head	-9.13094
▁Kanto	-9.13169
▁entered	-9.13247
Ki	-9.13289
east	-9.13314
▁collect	-9.13702
▁concern	-9.13927
▁assum	-9.14055
▁wide	-9.14082
IN	-9.14254
▁Yuki	-9.14303
ISHI	-9.14611
Ha	-9.14705
▁nobles	-9.14983
▁pass	-9.15103
art	-9.15138
▁appeared	-9.15344
▁protect	-9.15376
ought	-9.154
▁mentioned	-9.15516
▁therefore	-9.15518
▁Keihan	-9.15549
▁relat	-9.15893
▁design	-9.16338
house	-9.16347
ral	-9.16434
▁Tale	-9.16534
even	-9.16619
▁include	-9.1666
specially	-9.16819
▁From	-9.1713
▁Satsuma	-9.1713
▁consist	-9.17137
▁spread	-9.17159
18	-9.17331
15	-9.1765
vol	-9.17682
gura	-9.17743
▁Ishi	-9.17843
▁Cha	-9.17993
hiro	-9.18229
▁Korean	-9.18391
▁follow	-9.1854
▁unit	-9.18621
▁Ashi	-9.18646
▁past	-9.18678
▁Family	-9.18767
▁wrote	-9.18768
▁latter	-9.18768
▁connect	-9.18769
▁occurred	-9.18775
kept	-9.18798
ible	-9.18817
▁compil	-9.18927
hei	-9.19113
▁places	-9.19125
▁Kazu	-9.19332
▁St	-9.19514
Shi	-9.19642
round	-9.20198
▁operat	-9.20219
▁Monogatari	-9.20434
▁affairs	-9.20434
▁situation	-9.20434
▁soldiers	-9.20434
provision	-9.20434
▁prepar	-9.20436
▁Kannon	-9.2044
ternal	-9.20466
▁East	-9.20476
▁fought	-9.20543
▁inside	-9.20743
toki	-9.20844
▁stage	-9.20861
▁defeated	-9.20871
Shin	-9.20998
▁shape	-9.21027
Fu	-9.21066
▁continued	-9.21283
present	-9.21289
▁imp	-9.21499
▁Nao	-9.21657
mochi	-9.21657
read	-9.21916
MOTO	-9.22129
▁custom	-9.22129
▁Museum	-9.22129
▁Second	-9.22129
▁movement	-9.22129
▁granted	-9.22129
▁Later	-9.22132
▁few	-9.22147
▁authority	-9.22158
▁performance	-9.22163
▁Shogunate	-9.22188
▁meters	-9.22269
▁Mune	-9.22291
▁Nai	-9.2231
▁fish	-9.22343
▁dance	-9.22348
▁carri	-9.22751
10	-9.22861
▁provinces	-9.22884
▁provinc	-9.22894
NI	-9.22991
Yo	-9.2301
General	-9.23037
▁taken	-9.2311
hisa	-9.23176
▁low	-9.23199
ging	-9.23334
later	-9.2371
13	-9.23775
▁Higashi	-9.23793
▁technique	-9.23853
▁Great	-9.23853
▁women	-9.23854
▁With	-9.23855
▁attend	-9.23866
19	-9.24067
▁operation	-9.24084
90	-9.24104
▁report	-9.24203
▁Hall	-9.24242
nai	-9.24274
▁store	-9.24341
50	-9.24367
chika	-9.24463
▁pla	-9.24533
▁Daijo	-9.24578
▁start	-9.24652
▁gain	-9.24663
72	-9.24759
time	-9.24775
nen	-9.24805
Kyoto	-9.24963
▁YAMA	-9.25032
▁force	-9.25546
maro	-9.25568
▁see	-9.25601
▁Guards	-9.25607
▁social	-9.25609
▁garden	-9.25609
▁body	-9.25612
▁road	-9.25614
Grand	-9.2564
▁Sengoku	-9.25642
▁retainers	-9.25713
gai	-9.2572
▁home	-9.25992
like	-9.26028
▁Nari	-9.26069
▁Ministry	-9.2607
▁Yoshino	-9.26152
▁manag	-9.26292
related	-9.26455
▁Bus	-9.2663
style	-9.26851
j	-9.26922
▁Jun	-9.26986
point	-9.27035
▁Governor	-9.27089
hai	-9.27248
▁waka	-9.27374
75	-9.27382
mission	-9.27391
▁decided	-9.27393
▁disciple	-9.27393
▁treasure	-9.27393
▁wooden	-9.27393
▁secret	-9.27393
▁article	-9.27394
▁24	-9.27422
▁represent	-9.27528
▁seem	-9.27627
▁gold	-9.27629
▁officials	-9.27639
▁abolished	-9.27651
meter	-9.27678
▁bar	-9.27728
▁today	-9.27835
82	-9.27838
▁Haru	-9.2789
▁culture	-9.28045
▁22	-9.28067
▁Kawa	-9.28135
20	-9.2834
▁poems	-9.28485
zuka	-9.28581
▁count	-9.28691
▁change	-9.28748
nami	-9.28772
▁party	-9.29099
▁Festival	-9.29211
▁particular	-9.29211
▁relationship	-9.29211
▁effect	-9.29211
▁sister	-9.29213
▁Route	-9.29214
▁pray	-9.29217
▁Kore	-9.29266
▁hard	-9.29312
▁ti	-9.29393
▁published	-9.29415
▁poet	-9.29419
▁lower	-9.2954
▁whe	-9.29736
▁tra	-9.29744
▁poem	-9.29947
▁Mura	-9.29983
99	-9.30057
omi	-9.30138
▁priests	-9.30408
▁enter	-9.30412
ult	-9.30502
shaku	-9.30577
▁date	-9.3073
▁MATSU	-9.31063
▁assigned	-9.31063
▁themselves	-9.31063
▁legend	-9.31063
▁oppos	-9.31063
▁Bosatsu	-9.31063
▁retired	-9.31063
Record	-9.31065
▁reign	-9.31065
▁drama	-9.31065
▁indicat	-9.31066
▁Road	-9.31069
▁district	-9.31095
▁Right	-9.31142
▁Third	-9.31178
▁28	-9.31272
▁reach	-9.31285
▁Ritsu	-9.31389
▁big	-9.31443
▁Du	-9.31482
▁what	-9.31502
▁generations	-9.31519
Kan	-9.31735
saku	-9.31799
▁joined	-9.31869
nosuke	-9.31942
jiro	-9.32029
tle	-9.32087
▁Kage	-9.3229
▁attacked	-9.32369
kiyo	-9.32405
40	-9.32496
▁serve	-9.32499
tama	-9.32932
▁similar	-9.3295
▁certain	-9.3295
▁Dainagon	-9.3295
▁High	-9.3295
▁western	-9.32951
Nihonshoki	-9.32954
▁Ei	-9.32962
▁broke	-9.32977
Ku	-9.33014
▁cook	-9.33018
▁room	-9.33024
car	-9.33093
▁caused	-9.33216
▁fourth	-9.33323
▁how	-9.3345
▁Nijo	-9.33496
OKA	-9.33597
▁founder	-9.33667
▁met	-9.33853
hashi	-9.34131
▁central	-9.34376
▁nation	-9.34576
▁21	-9.34587
▁respect	-9.34873
▁beginning	-9.34873
▁property	-9.34873
▁throne	-9.34873
▁First	-9.34874
▁flower	-9.34875
▁horse	-9.34877
▁estate	-9.34879
▁Sutra	-9.34881
35	-9.34928
▁highest	-9.35032
line	-9.35182
▁actual	-9.3535
most	-9.35387
▁27	-9.35597
hama	-9.35745
▁higher	-9.35872
0,000	-9.35948
▁leader	-9.35966
▁Shima	-9.36355
shiro	-9.3646
mportant	-9.3682
▁HOSOKAWA	-9.36834
▁TOYOTOMI	-9.36834
▁amount	-9.36834
▁dispatch	-9.36834
▁World	-9.36834
▁figure	-9.36834
▁teaching	-9.36835
▁administration	-9.36835
▁series	-9.36836
▁Even	-9.36842
▁existed	-9.36859
▁Whi	-9.36908
▁fell	-9.37108
▁conducted	-9.37307
▁code	-9.37311
▁Her	-9.37318
▁Jodo	-9.37408
▁Suke	-9.37532
▁Mino	-9.37619
Ya	-9.37694
▁Nin	-9.38159
hide	-9.38413
toshi	-9.38513
▁One	-9.38544
▁descendants	-9.38759
▁formed	-9.38766
▁guard	-9.38833
▁Furthermore	-9.38834
▁look	-9.38834
▁married	-9.38834
▁piece	-9.38834
▁decline	-9.38834
▁woman	-9.38835
▁advis	-9.38835
▁clear	-9.38835
▁usual	-9.38846
▁West	-9.38948
▁grave	-9.39055
▁23	-9.39071
66	-9.39168
ative	-9.39181
▁stra	-9.39283
▁Moro	-9.39295
▁upon	-9.39302
▁Art	-9.3932
maru	-9.39376
▁meaning	-9.39421
date	-9.3946
▁documents	-9.39501
▁west	-9.39522
haru	-9.39651
mai	-9.39657
▁does	-9.39755
▁II	-9.39823
▁Toyo	-9.39904
▁shin	-9.39991
▁Nihon	-9.40025
shaped	-9.40179
▁Dan	-9.40213
▁Main	-9.40252
▁older	-9.40266
chief	-9.40527
▁live	-9.40575
▁seven	-9.40792
unicipal	-9.40874
▁length	-9.40874
▁limited	-9.40874
▁organization	-9.40874
▁possible	-9.40874
▁company	-9.40875
▁belonged	-9.40876
▁raised	-9.40877
▁route	-9.40879
▁Left	-9.40886
HO	-9.40901
▁song	-9.40918
▁fall	-9.40919
graph	-9.40933
eastern	-9.40945
▁hon	-9.41044
▁lineage	-9.41071
goro	-9.41387
▁Ryu	-9.41521
▁wh	-9.41604
▁continu	-9.41904
▁New	-9.42085
▁im	-9.42147
Go	-9.42358
GI	-9.42424
▁got	-9.42648
▁Fuji	-9.4285
strict	-9.42918
▁HOJO	-9.42958
X	-9.42958
▁sauce	-9.42959
▁Kabuki	-9.42959
▁Fushimi	-9.42959
▁Western	-9.42959
▁production	-9.42961
▁perform	-9.42974
▁turn	-9.42985
▁list	-9.43085
of	-9.43088
▁Kawachi	-9.43104
88	-9.43154
81	-9.43176
▁KAN	-9.43393
tsuki	-9.43497
▁mid	-9.43588
▁Hojo	-9.44123
▁follows	-9.44487
69	-9.44873
establish	-9.45058
▁NAKA	-9.45074
administrati	-9.45083
posthumous	-9.45085
▁selected	-9.45085
▁TAKE	-9.45085
▁equi	-9.45085
▁burn	-9.45094
part	-9.45121
▁season	-9.4513
▁relative	-9.45147
▁coins	-9.45156
▁Land	-9.45173
▁full	-9.45182
W	-9.45208
▁originated	-9.45208
▁spring	-9.4521
▁Takeda	-9.45242
▁Tendai	-9.4534
▁hot	-9.45578
▁cover	-9.45644
▁sold	-9.45672
▁approx	-9.45918
▁vo	-9.46166
▁students	-9.46644
ization	-9.46926
▁province	-9.47192
Chronicle	-9.47259
▁Army	-9.47259
▁Electric	-9.47259
▁occasion	-9.47259
▁separate	-9.47259
▁scene	-9.4726
▁matter	-9.47262
▁money	-9.47264
▁night	-9.47302
▁Act	-9.47334
▁outside	-9.47363
▁Shingon	-9.47368
aries	-9.47382
▁Gyo	-9.47408
▁played	-9.47595
▁love	-9.47602
▁Ex	-9.47726
▁hereditary	-9.4778
tomi	-9.47933
ON	-9.48015
▁wear	-9.48272
▁total	-9.48335
zaki	-9.48512
▁document	-9.48744
bugyo	-9.49087
▁remov	-9.49143
▁Ama	-9.49163
▁give	-9.49186
▁whole	-9.49207
▁mean	-9.49263
▁remained	-9.4929
▁Tei	-9.49429
stitution	-9.4947
▁accept	-9.49481
▁advance	-9.49481
▁gradually	-9.49481
▁opinion	-9.49481
▁properties	-9.49481
▁ritual	-9.49481
claim	-9.49482
▁Nichiren	-9.49482
▁simpl	-9.49482
▁measure	-9.49482
▁rebellion	-9.49482
▁human	-9.49482
▁maintain	-9.49486
▁Owari	-9.4949
▁renam	-9.49491
▁value	-9.495
treated	-9.49507
▁development	-9.49515
▁thus	-9.49518
▁description	-9.49539
▁lun	-9.49564
eputy	-9.49619
mark	-9.49691
temp	-9.49766
▁recent	-9.49772
▁director	-9.49986
Chi	-9.50033
jingu	-9.50044
▁Bureau	-9.50127
long	-9.50546
▁receiv	-9.50778
Wa	-9.5082
▁Kata	-9.50837
GAWA	-9.50838
▁kill	-9.50908
▁Prefectur	-9.51176
yaki	-9.51384
▁issue	-9.51414
V	-9.5163
princip	-9.51746
HARA	-9.51754
▁Restoration	-9.51754
▁difficult	-9.51754
▁dynasty	-9.51754
▁involved	-9.51754
▁literature	-9.51754
▁participat	-9.51754
▁education	-9.51754
▁leave	-9.51754
▁policy	-9.51754
▁Year	-9.51756
▁course	-9.51756
▁railway	-9.51757
▁Law	-9.51757
▁Amida	-9.51759
▁completed	-9.51761
▁Ltd	-9.51763
▁never	-9.5177
▁Fourth	-9.51829
▁add	-9.52189
▁inherited	-9.52207
▁below	-9.5234
▁Sui	-9.52367
▁compar	-9.52551
▁male	-9.52842
17	-9.52955
68	-9.53047
▁Le	-9.53199
kazu	-9.53323
▁100	-9.53966
?	-9.5408
▁Maizuru	-9.5408
▁conferred	-9.5408
▁divided	-9.5408
▁immediate	-9.5408
▁pattern	-9.5408
▁subject	-9.5408
▁Chunagon	-9.5408
▁silver	-9.5408
▁prevent	-9.5408
▁featur	-9.54082
▁film	-9.54082
▁uncle	-9.54082
▁northern	-9.54083
▁track	-9.54142
▁powerful	-9.54187
▁asked	-9.5424
▁Yoshiaki	-9.5431
▁provided	-9.54363
▁surrounding	-9.54391
▁constructed	-9.54539
▁idea	-9.54792
16	-9.54817
▁Toku	-9.54842
▁Sanjo	-9.54856
▁Tame	-9.54945
▁Ge	-9.54989
▁added	-9.55164
▁command	-9.55986
▁liv	-9.56089
▁rest	-9.56248
▁far	-9.56398
▁face	-9.56415
celebrat	-9.56461
▁research	-9.56461
▁level	-9.56461
Confucianism	-9.56461
▁suffer	-9.56462
▁foot	-9.56464
▁keep	-9.56465
▁earth	-9.56465
▁much	-9.56474
lock	-9.56474
▁engag	-9.56487
▁deriv	-9.56505
Dai	-9.56618
eak	-9.56919
▁And	-9.57132
▁hair	-9.57293
zuki	-9.57814
nabe	-9.57834
87	-9.57929
▁join	-9.58002
▁know	-9.58404
▁describe	-9.58432
▁author	-9.58858
▁Affairs	-9.589
▁Captain	-9.589
▁assassin	-9.589
▁calligraph	-9.589
▁contribut	-9.589
▁destroy	-9.589
▁structure	-9.589
▁surrender	-9.589
▁subsequent	-9.589
▁picture	-9.589
▁request	-9.589
▁street	-9.589
▁establishment	-9.58902
▁decorat	-9.58903
▁Among	-9.58903
ography	-9.58907
SAKA	-9.58954
23	-9.58971
scale	-9.59025
▁bound	-9.59038
▁gl	-9.59072
▁increased	-9.59174
48	-9.59189
▁creat	-9.59217
▁Mutsu	-9.59261
▁Taisho	-9.59313
▁fla	-9.59323
Heike	-9.59376
▁More	-9.59573
76	-9.60265
▁Hachi	-9.6086
▁Treasure	-9.614
▁Village	-9.614
▁envoy	-9.614
▁problem	-9.614
▁condition	-9.614
▁independent	-9.614
▁individual	-9.614
▁Crown	-9.61401
▁white	-9.61402
▁Asuka	-9.61407
▁regent	-9.6141
▁roof	-9.61436
▁theories	-9.61444
called	-9.61543
iddle	-9.61656
▁29	-9.61747
▁Shiga	-9.61761
▁standing	-9.61998
▁Shinshu	-9.62
▁forced	-9.62255
▁cap	-9.62755
▁becom	-9.62762
▁Showa	-9.62762
▁govern	-9.63553
▁female	-9.63964
▁succession	-9.63964
▁register	-9.63964
▁itself	-9.63964
▁further	-9.63965
▁chapter	-9.63965
▁silk	-9.63965
▁senior	-9.63965
▁travel	-9.63967
▁things	-9.63976
WARA	-9.64011
▁deep	-9.64084
▁sound	-9.64151
▁deities	-9.64166
▁rare	-9.64183
year	-9.64189
▁wall	-9.64263
▁trade	-9.64263
▁care	-9.64265
dditionally	-9.64293
▁direction	-9.64605
Ten	-9.65021
▁Shichi	-9.65155
65	-9.65176
62	-9.66114
▁favor	-9.66548
>	-9.66595
ological	-9.66595
▁Goshirakawa	-9.66595
▁available	-9.66595
▁flour	-9.66595
▁resigned	-9.66595
▁purpose	-9.66596
▁ancestor	-9.66596
▁eventually	-9.66596
▁natural	-9.66596
▁finally	-9.66597
Article	-9.66603
▁stayed	-9.66603
▁Town	-9.66605
▁print	-9.66618
▁shugo	-9.66633
▁Kiyomori	-9.66647
▁active	-9.66723
▁Hata	-9.6673
▁Council	-9.66848
Emperor	-9.66866
Raku	-9.66883
94	-9.6722
▁Kamo	-9.67568
▁Kame	-9.67853
▁committ	-9.68116
▁promot	-9.68385
▁stand	-9.68957
47	-9.69162
▁Ancient	-9.69298
▁Association	-9.69298
▁Household	-9.69298
▁distinguish	-9.69298
▁little	-9.69298
▁successive	-9.69298
▁peace	-9.69298
▁Godaigo	-9.69299
▁Party	-9.69299
▁think	-9.693
▁legal	-9.69352
▁awarded	-9.69363
▁Higashiyama	-9.69395
Kojiki	-9.69415
▁Yoshimitsu	-9.69525
Minister	-9.69633
▁Gun	-9.6964
▁ONO	-9.70076
41	-9.70086
▁TAKA	-9.70192
▁Shugo	-9.70236
▁faction	-9.70383
quality	-9.70594
64	-9.7101
▁70	-9.7101
78	-9.71295
tang	-9.7133
lace	-9.71521
▁Department	-9.72076
▁location	-9.72076
▁possess	-9.72076
▁restaurant	-9.72076
▁society	-9.72076
▁successor	-9.72076
▁scholar	-9.72076
▁suicide	-9.72076
▁dedicat	-9.72077
▁belonging	-9.72078
▁enjoy	-9.72078
▁Mikoto	-9.7208
▁either	-9.72083
dokoro	-9.72084
▁sign	-9.72084
▁propos	-9.7209
▁composed	-9.72094
▁rather	-9.72114
▁rid	-9.72125
▁sense	-9.72201
▁Zo	-9.72213
▁weak	-9.72327
▁meat	-9.72427
provinc	-9.72483
located	-9.725
▁seat	-9.72593
▁Inner	-9.72672
former	-9.72713
33	-9.72724
▁memor	-9.73076
▁size	-9.74142
▁call	-9.74335
NAGA	-9.74702
▁elde	-9.749
▁Education	-9.74933
▁Research	-9.74933
▁enemy	-9.74933
▁folk	-9.74933
▁suppress	-9.74933
▁thousand	-9.74933
▁friend	-9.74933
ordinary	-9.74934
▁approv	-9.74934
▁Island	-9.74947
▁Dazai	-9.74962
▁Retire	-9.74969
▁bow	-9.74996
▁help	-9.75001
▁future	-9.75009
▁gather	-9.75096
▁required	-9.75105
▁river	-9.75119
▁seventh	-9.75181
Governor	-9.75423
Imperial	-9.75442
Sei	-9.7649
ASHI	-9.76493
▁introduc	-9.76822
▁Company	-9.77874
▁Property	-9.77874
▁accompani	-9.77874
▁effort	-9.77874
▁negotiat	-9.77874
▁platform	-9.77874
NOUE	-9.77874
▁submitt	-9.77874
▁settled	-9.77875
▁Izumo	-9.77876
▁writing	-9.77876
stood	-9.77878
▁Park	-9.7788
▁attempt	-9.77886
▁Kyu	-9.77952
51	-9.77981
▁carry	-9.78057
▁Hiei	-9.78152
AKURA	-9.7837
03	-9.78532
▁consider	-9.79222
▁allow	-9.80009
owned	-9.80097
▁OTOMO	-9.80905
▁Tumulus	-9.80905
▁ingredient	-9.80905
▁quit	-9.80905
▁strength	-9.80905
▁variety	-9.80905
▁Nyorai	-9.80905
▁depict	-9.80905
▁unique	-9.80905
▁management	-9.80906
▁southern	-9.80908
▁Center	-9.80908
▁Azuchi	-9.80908
▁Harima	-9.80909
▁Qing	-9.80911
▁poetry	-9.80988
▁ruin	-9.81041
▁descendant	-9.81068
▁elder	-9.81122
▁fifth	-9.81132
▁driv	-9.81146
▁escaped	-9.8116
▁reform	-9.81346
▁honor	-9.81377
(	-9.81599
▁Za	-9.81707
shrine	-9.83083
▁dish	-9.83406
▁descend	-9.83979
▁MATSUDAIRA	-9.8403
▁architectur	-9.8403
▁difference	-9.8403
▁enthronement	-9.8403
▁entrance	-9.8403
▁hundred	-9.8403
▁increasing	-9.8403
▁ticket	-9.8403
▁respectively	-9.8403
▁Jusanmi	-9.8403
ability	-9.8403
▁serving	-9.8403
▁Book	-9.84031
Momoyama	-9.84032
▁Tanba	-9.84037
▁attach	-9.84038
▁depend	-9.84038
▁District	-9.84052
▁might	-9.84056
▁kimono	-9.84067
▁content	-9.84071
Major	-9.84072
▁impos	-9.84079
▁single	-9.84097
▁sacr	-9.84114
▁manner	-9.84125
▁necessary	-9.84142
▁Takauji	-9.84151
▁dishes	-9.84199
▁Bank	-9.84261
▁Choshu	-9.84346
▁translat	-9.84397
▁foundation	-9.84416
▁sixth	-9.84431
▁busho	-9.84681
▁wish	-9.84771
which	-9.84824
▁Express	-9.87255
▁Hokkaido	-9.87255
▁activities	-9.87255
▁appointment	-9.87255
▁beautiful	-9.87255
▁employ	-9.87255
▁merchant	-9.87255
▁noodles	-9.87255
▁politics	-9.87255
▁priesthood	-9.87255
▁territories	-9.87255
▁square	-9.87256
▁Musashi	-9.87256
▁faith	-9.87256
▁Suruga	-9.87256
▁skill	-9.87258
▁version	-9.87258
▁Settsu	-9.87261
▁grow	-9.87265
zukuri	-9.87265
▁something	-9.87267
▁buried	-9.87268
Provi	-9.87278
▁classified	-9.87283
▁2006	-9.87556
▁aim	-9.87597
court	-9.88164
law	-9.88205
▁cause	-9.90127
▁Kanpaku	-9.90589
▁childhood	-9.90589
▁frequently	-9.90589
▁grandfather	-9.90589
▁grandson	-9.90589
▁marriage	-9.90589
▁function	-9.90589
▁suggest	-9.90589
▁Fukuchiyama	-9.90589
▁disease	-9.90589
▁household	-9.90589
▁heaven	-9.90589
▁implement	-9.90589
▁drum	-9.90592
▁taste	-9.90593
▁completely	-9.90595
▁information	-9.90595
▁ruling	-9.90599
▁principle	-9.906
▁interest	-9.90604
▁arrow	-9.90607
▁Mitsuhide	-9.9062
temporar	-9.9065
▁lady	-9.90694
▁existence	-9.90695
▁1868	-9.90713
SHIMA	-9.91571
count	-9.91664
▁31	-9.91828
▁tradition	-9.92159
▁won	-9.92557
▁transfer	-9.94008
▁Cabinet	-9.94037
▁cabinet	-9.94037
▁easily	-9.94037
▁exhibit	-9.94037
▁object	-9.94037
▁exchange	-9.94037
▁installed	-9.94037
▁specific	-9.94037
▁recognized	-9.94037
▁Echizen	-9.94037
▁rapid	-9.94037
literary	-9.94038
▁Echigo	-9.94039
▁reduc	-9.94039
▁Kozuke	-9.9404
▁extend	-9.94043
▁coming	-9.94061
▁walk	-9.941
▁Michinaga	-9.94112
▁nature	-9.94112
▁staff	-9.9414
▁appearance	-9.94166
▁bad	-9.94301
Master	-9.94604
▁material	-9.94608
▁classic	-9.95004
known	-9.9513
▁produce	-9.96334
scribed	-9.97523
▁achieve	-9.97607
magistrate	-9.97608
▁Russia	-9.97608
▁belief	-9.97608
▁concept	-9.97608
▁discovered	-9.97608
▁pronounce	-9.97608
▁barbarians	-9.97608
▁companies	-9.97609
▁Shinkansen	-9.97609
▁previous	-9.97609
▁standard	-9.97609
▁Collection	-9.9761
▁Yoshinaka	-9.97611
▁judge	-9.97611
▁basic	-9.97612
▁representative	-9.97625
▁Nakamaro	-9.97638
▁display	-9.97642
▁Hongan	-9.97692
oyal	-9.97737
zaemon	-9.97792
▁association	-9.97842
▁step	-9.97915
▁job	-9.9851
ntry	-9.99867
URA	-10.003
▁associat	-10.0107
scription	-10.0122
*	-10.0131
reservation	-10.0131
▁Bridge	-10.0131
▁Cloister	-10.0131
▁advantage	-10.0131
▁alcohol	-10.0131
▁language	-10.0131
▁legitimate	-10.0131
▁obtain	-10.0131
▁survey	-10.0131
▁symbol	-10.0131
▁America	-10.0131
▁Facult	-10.0131
▁morning	-10.0131
▁surface	-10.0131
▁revision	-10.0131
▁basis	-10.0131
▁Hyogo	-10.0131
▁Kintetsu	-10.0131
▁stories	-10.0131
▁ITO	-10.0131
▁Masakado	-10.0131
▁account	-10.0132
▁demand	-10.0132
▁Taiwan	-10.0132
▁worn	-10.0133
▁NAKAMURA	-10.0133
▁Aizu	-10.0133
▁prefecture	-10.0134
▁Konoe	-10.0135
▁camp	-10.0136
▁must	-10.0136
▁root	-10.0137
▁eye	-10.0147
▁tale	-10.0167
▁write	-10.0229
great	-10.0272
work	-10.0278
▁believe	-10.0469
▁provide	-10.047
▁Shinsengumi	-10.0516
▁arrived	-10.0516
▁autumn	-10.0516
▁bamboo	-10.0516
▁currency	-10.0516
▁facilities	-10.0516
▁financi	-10.0516
▁industry	-10.0516
▁punishment	-10.0516
▁treatment	-10.0516
▁Christian	-10.0516
▁leather	-10.0516
▁prohibit	-10.0516
▁pagoda	-10.0516
▁Spring	-10.0516
▁painter	-10.0516
▁model	-10.0517
▁import	-10.0517
▁spot	-10.0519
AKU	-10.052
Chief	-10.0528
Azuma	-10.0531
▁followers	-10.0532
▁reviv	-10.0532
▁yen	-10.0536
nushi	-10.0608
wheat	-10.0767
▁defeat	-10.0811
▁adopt	-10.0813
ctually	-10.0821
▁los	-10.0879
corporate	-10.0916
▁Europe	-10.0916
▁Poetry	-10.0916
▁SHIBA	-10.0916
▁Sekigahara	-10.0916
▁Thereafter	-10.0916
▁Volume	-10.0916
▁YOSHIDA	-10.0916
▁avoid	-10.0916
▁blood	-10.0916
▁ceremonies	-10.0916
▁decision	-10.0916
▁drawn	-10.0916
▁excellent	-10.0916
▁manuscript	-10.0916
▁permitted	-10.0916
▁taishogun	-10.0916
▁yield	-10.0916
▁department	-10.0916
▁screen	-10.0916
▁experienc	-10.0916
▁arrest	-10.0916
▁Kumamoto	-10.0916
▁achievements	-10.0916
▁dispute	-10.0916
▁intention	-10.0917
▁sutra	-10.0918
▁better	-10.0918
▁Kongo	-10.0919
▁Yamashiro	-10.092
▁crop	-10.092
▁attain	-10.092
▁heard	-10.0922
ivil	-10.0928
terior	-10.1007
compos	-10.1017
▁student	-10.1031
traditional	-10.1088
current	-10.1088
Head	-10.117
▁increase	-10.1285
▁South	-10.1328
tumulus	-10.1332
▁KUJO	-10.1332
▁Library	-10.1332
▁Peninsula	-10.1332
▁attract	-10.1332
▁criticiz	-10.1332
▁explain	-10.1332
▁occupied	-10.1332
▁portrait	-10.1332
▁target	-10.1332
▁thereafter	-10.1332
▁defined	-10.1333
▁doctor	-10.1333
▁temporarily	-10.1333
▁traffic	-10.1333
▁prefix	-10.1333
▁Group	-10.1333
▁Shizuoka	-10.1333
▁restoration	-10.1333
▁weapon	-10.1333
▁Navy	-10.1333
▁graduat	-10.1333
▁entire	-10.1333
▁teacher	-10.1333
▁insisted	-10.1333
▁restored	-10.1333
▁recover	-10.1334
▁talent	-10.1334
▁mound	-10.1335
lways	-10.1335
▁novel	-10.1337
▁Hachiman	-10.1337
▁permission	-10.1338
▁tell	-10.134
rmal	-10.1363
grade	-10.1376
Nihon	-10.1522
imperial	-10.1523
Chu	-10.1524
▁conduct	-10.1662
▁Amaterasu	-10.1767
▁HIRA	-10.1767
▁Mountain	-10.1767
▁Summary	-10.1767
▁Three	-10.1767
▁black	-10.1767
▁confirmed	-10.1767
▁evidence	-10.1767
▁facility	-10.1767
▁husband	-10.1767
▁lacquer	-10.1767
▁minutes	-10.1767
▁project	-10.1767
▁recommend	-10.1767
▁surname	-10.1767
▁surviv	-10.1767
▁background	-10.1767
▁supposed	-10.1767
▁flavor	-10.1767
▁captured	-10.1767
▁reconstruct	-10.1767
▁boiled	-10.1767
▁consort	-10.1767
▁devot	-10.1767
▁cooperat	-10.1767
▁annual	-10.1767
▁million	-10.1767
▁guardian	-10.1767
▁police	-10.1768
▁space	-10.1768
complete	-10.1768
▁copy	-10.1769
▁Toyotomi	-10.1769
▁Constitution	-10.1769
▁planned	-10.177
▁Shinano	-10.177
▁merg	-10.1772
▁improv	-10.1772
▁true	-10.1773
diction	-10.1778
Sakone	-10.1784
▁free	-10.1891
▁disappear	-10.2222
▁Institute	-10.2222
▁Karasuma	-10.2222
▁Okinawa	-10.2222
▁advocat	-10.2222
▁announced	-10.2222
▁collapse	-10.2222
▁community	-10.2222
▁conclude	-10.2222
▁domestic	-10.2222
▁economic	-10.2222
▁influential	-10.2222
▁peasants	-10.2222
▁pilgrim	-10.2222
▁quick	-10.2222
▁scroll	-10.2222
▁summer	-10.2222
▁investigat	-10.2222
▁Subway	-10.2222
▁Nagoya	-10.2222
▁regular	-10.2222
▁Bakufu	-10.2222
▁behind	-10.2222
▁items	-10.2222
▁Kasuga	-10.2222
▁stock	-10.2222
▁regulation	-10.2223
Diary	-10.2223
▁pick	-10.2223
▁adult	-10.2223
▁India	-10.2223
▁aspect	-10.2224
▁movie	-10.2224
▁box	-10.2227
▁dead	-10.2228
rief	-10.2245
▁salt	-10.2252
refer	-10.2323
compa	-10.2404
play	-10.2449
direct	-10.245
Buddhist	-10.2454
written	-10.2454
▁succeed	-10.2593
▁surround	-10.2634
▁accord	-10.2634
efore	-10.2694
▁Jushiino	-10.2698
dustrial	-10.2698
ssibility	-10.2698
▁Bodhisattva	-10.2698
▁English	-10.2698
▁Government	-10.2698
▁ICHIJO	-10.2698
▁Kingdom	-10.2698
▁SAIONJI	-10.2698
▁defense	-10.2698
▁murder	-10.2698
▁university	-10.2698
syllable	-10.2698
▁replaced	-10.2698
ZAWA	-10.2698
▁duties	-10.2698
▁floor	-10.2698
▁punished	-10.2698
▁thirty	-10.2698
▁Enryaku	-10.2698
▁broad	-10.2698
▁enough	-10.2698
▁serious	-10.2698
▁element	-10.2698
▁edict	-10.2698
▁wealth	-10.2698
▁Okayama	-10.2699
▁Series	-10.2699
▁Qu	-10.27
▁machine	-10.27
▁coast	-10.27
▁Port	-10.2701
▁deliver	-10.2702
▁dried	-10.2702
▁plu	-10.2785
▁adj	-10.2939
New	-10.2954
military	-10.2954
Shu	-10.2959
enshrin	-10.2968
akari	-10.3163
大	-10.3198
▁Originally	-10.3198
▁Rebellion	-10.3198
▁SOGA	-10.3198
▁academic	-10.3198
▁arranged	-10.3198
▁circumstances	-10.3198
▁determined	-10.3198
▁doctrine	-10.3198
▁enforce	-10.3198
▁genealog	-10.3198
▁identified	-10.3198
▁illustrat	-10.3198
▁mausoleum	-10.3198
▁neighbor	-10.3198
▁nobility	-10.3198
▁observ	-10.3198
▁opponent	-10.3198
▁precinct	-10.3198
▁professional	-10.3198
▁reflect	-10.3198
▁discuss	-10.3198
▁abandon	-10.3198
▁extreme	-10.3198
▁Commerc	-10.3198
▁decrease	-10.3198
▁focus	-10.3198
▁twenty	-10.3198
▁Hosokawa	-10.3198
▁understand	-10.3198
▁invasion	-10.3198
▁craft	-10.3198
▁IKE	-10.3198
▁subdue	-10.3198
▁dress	-10.3198
▁Hitachi	-10.3198
▁steam	-10.3198
▁lectur	-10.3198
▁ascetic	-10.3198
▁Tohoku	-10.3199
▁revolt	-10.3199
▁drink	-10.3199
▁eaten	-10.3199
▁tourist	-10.3199
▁Okimi	-10.32
kabuki	-10.3202
▁comic	-10.3206
▁chant	-10.3223
cycl	-10.3225
▁commit	-10.3423
▁equal	-10.3474
▁inherit	-10.3619
▁build	-10.3661
▁Four	-10.3708
▁North	-10.3719
▁Subsequent	-10.3724
=	-10.3724
%	-10.3724
grandchild	-10.3724
▁Agricultur	-10.3724
▁Corporation	-10.3724
▁DATE	-10.3724
▁Disturbance	-10.3724
▁Historical	-10.3724
▁People	-10.3724
▁Properties	-10.3724
▁Science	-10.3724
▁TACHIBANA	-10.3724
▁TANAKA	-10.3724
▁anecdote	-10.3724
▁critical	-10.3724
▁emerged	-10.3724
▁executive	-10.3724
▁headquarters	-10.3724
▁license	-10.3724
▁passengers	-10.3724
▁procedure	-10.3724
ANDO	-10.3724
▁Modern	-10.3724
▁integrat	-10.3724
▁peerage	-10.3724
▁applied	-10.3724
▁organized	-10.3724
▁revealed	-10.3724
▁fixed	-10.3724
▁overthrow	-10.3724
▁scriptures	-10.3724
▁Kagoshima	-10.3724
▁failed	-10.3724
▁Agency	-10.3724
▁check	-10.3724
FUKU	-10.3724
▁Women	-10.3724
▁refused	-10.3724
Pacific	-10.3725
▁answer	-10.3725
▁MIYA	-10.3725
▁market	-10.3725
▁trend	-10.3725
▁finance	-10.3725
xplanation	-10.3725
▁evil	-10.3725
▁winter	-10.3725
▁earn	-10.3726
tsukasa	-10.3732
▁desire	-10.3737
▁rebel	-10.3738
numer	-10.3741
modern	-10.4035
while	-10.4036
from	-10.4038
▁construct	-10.4161
▁historic	-10.4189
▁escape	-10.4233
▁FUJI	-10.4279
▁diplomat	-10.428
▁Foreign	-10.428
▁KATO	-10.428
▁SHIMAZU	-10.428
▁Society	-10.428
▁UESUGI	-10.428
▁approach	-10.428
▁contrast	-10.428
▁dismissed	-10.428
▁expedition	-10.428
▁mirror	-10.428
▁practical	-10.428
▁sleeve	-10.428
▁subordinate	-10.428
▁trouble	-10.428
▁KONOE	-10.428
▁Matters	-10.428
▁demonstrat	-10.428
▁dancing	-10.428
▁concurrently	-10.428
▁question	-10.428
▁platoon	-10.428
▁evaluat	-10.428
▁Thus	-10.428
▁monument	-10.428
▁Juichii	-10.428
▁search	-10.428
▁attention	-10.428
▁departed	-10.428
▁entertain	-10.428
▁truth	-10.428
▁Imagawa	-10.428
▁painted	-10.428
▁agreement	-10.428
▁repair	-10.428
▁Sanuki	-10.4281
▁Wood	-10.4281
▁price	-10.4281
▁edited	-10.4281
▁trust	-10.4281
▁royal	-10.4282
▁copie	-10.4349
HIRO	-10.4534
▁troop	-10.4568
period	-10.4625
first	-10.4626
▁develop	-10.4754
▁occur	-10.4865
privilege	-10.4868
territorial	-10.4868
▁College	-10.4868
▁Currently	-10.4868
▁MIYOSHI	-10.4868
▁SAIGO	-10.4868
▁Statue	-10.4868
▁anniversary	-10.4868
▁arrangement	-10.4868
▁correct	-10.4868
▁criticism	-10.4868
▁deceased	-10.4868
▁exclud	-10.4868
▁execution	-10.4868
▁harvest	-10.4868
▁progress	-10.4868
▁responsible	-10.4868
▁stipend	-10.4868
▁superior	-10.4868
▁typical	-10.4868
▁double	-10.4868
▁emphasi	-10.4868
▁heavy	-10.4868
▁instruction	-10.4868
▁reject	-10.4868
▁holiday	-10.4868
▁bridge	-10.4868
▁funeral	-10.4868
▁twel	-10.4868
▁damage	-10.4868
linked	-10.4868
▁girl	-10.4868
▁gokenin	-10.4868
▁captain	-10.4868
▁Yamashina	-10.4868
▁Tottori	-10.4868
loud	-10.4868
▁decree	-10.4868
▁Gotoba	-10.4869
▁Sukune	-10.4869
▁Order	-10.4869
▁comment	-10.4869
▁estimat	-10.4869
speci	-10.4904
valen	-10.4958
▁considerabl	-10.4995
approx	-10.5248
high	-10.5248
March	-10.5249
including	-10.525
brother	-10.525
government	-10.525
!	-10.5493
YANAGI	-10.5493
–	-10.5493
▁Platform	-10.5493
▁SAITO	-10.5493
▁SATO	-10.5493
▁SUGA	-10.5493
▁Special	-10.5493
▁agricultur	-10.5493
▁appropriate	-10.5493
▁excavated	-10.5493
▁quarter	-10.5493
▁science	-10.5493
▁separation	-10.5493
▁seppuku	-10.5493
▁treaty	-10.5493
▁division	-10.5493
▁instrument	-10.5493
▁taught	-10.5493
▁French	-10.5493
▁judicia	-10.5493
▁secular	-10.5493
▁Further	-10.5493
▁German	-10.5493
▁illness	-10.5493
contact	-10.5493
▁egg	-10.5494
▁cherr	-10.5496
▁certifi	-10.5523
October	-10.5916
Councilor	-10.6095
knowledge	-10.6147
Q	-10.6156
Collect	-10.616
▁Confuci	-10.616
Amitabha	-10.616
Chamberlain	-10.616
ceremonial	-10.616
▁Arashiyama	-10.616
▁Capital	-10.616
▁Hokuriku	-10.616
▁KUSUNOKI	-10.616
▁KYOGOKU	-10.616
▁Reizei	-10.616
▁TAKATSUKASA	-10.616
▁application	-10.616
▁behavior	-10.616
▁campaign	-10.616
▁cloister	-10.616
▁concubine	-10.616
▁engineer	-10.616
、	-10.6874
の	-10.7643
国	-10.7643
一	-10.7643
子	-10.8477
安	-10.8477
院	-10.9386
神	-10.9386
・	-10.9386
上	-11.0386
&	-11.0386
宗	-11.1497
王	-11.1497
法	-11.1497
本	-11.1497
し	-11.2747
公	-11.2747
美	-11.2747
へ	-11.2747
信	-11.4175
り	-11.4175
山	-11.4175
行	-11.4175
師	-11.4175
門	-11.4175
道	-11.4175
<	-11.4175
人	-11.4175
い	-11.5842
武	-11.5842
仏	-11.5842
七	-11.5842
天	-11.5842
無	-11.5842
事	-11.5842
城	-11.5842
念	-11.5842
氏	-11.5842
都	-11.5842
社	-11.5842
候	-11.5842
[	-11.7599
軍	-11.7842
二	-11.7842
に	-11.7842
源	-11.7842
古	-11.7842
合	-11.7842
≒	-11.7842
政	-11.7842
き	-11.7842
三	-11.7842
下	-11.7842
島	-11.7842
高	-11.7842
姫	-11.7842
藤	-11.7842
`	-12.0341
左	-12.0342
明	-12.0342
例	-12.0342
と	-12.0342
名	-12.0342
普	-12.0342
朝	-12.0342
尺	-12.0342
反	-12.0342
宮	-12.0342
中	-12.0342
万	-12.0342
光	-12.0342
八	-12.0342
呂	-12.0342
咒	-12.0342
屋	-12.0342
慶	-12.0342
é	-12.0342
忌	-12.0342
q	-12.0342
之	-12.0342
余	-12.0342
小	-12.0342
