<pad>	0
</s>	0
<unk>	0
,	-3.02907
▁och	-3.5586
▁	-3.59575
.	-3.80629
s	-3.83793
a	-4.29193
r	-4.36316
t	-4.37324
▁till	-4.39092
▁i	-4.42143
▁som	-4.59875
en	-4.66566
▁för	-4.67308
▁han	-4.71813
▁att	-4.72367
▁de	-4.7553
h	-4.76087
;	-4.81933
n	-4.8399
▁så	-4.87178
:	-4.97406
d	-4.9902
▁skall	-5.03253
▁en	-5.0483
▁jag	-5.04938
▁det	-5.06236
▁Oc	-5.06507
▁på	-5.09652
▁är	-5.11052
▁icke	-5.11818
▁av	-5.12108
er	-5.14081
▁med	-5.17611
l	-5.18987
de	-5.19383
▁den	-5.20249
k	-5.24149
▁har	-5.28623
e	-5.28651
g	-5.29552
▁dem	-5.32168
▁honom	-5.32738
▁du	-5.33528
▁»	-5.33941
ar	-5.39171
v	-5.48956
na	-5.51761
m	-5.53784
i	-5.53985
▁I	-5.5419
▁HERREN	-5.55947
o	-5.56777
▁var	-5.56781
▁mig	-5.59954
▁sig	-5.6592
▁dig	-5.66046
▁upp	-5.68134
et	-5.70139
▁sade	-5.70783
▁eder	-5.73655
.»	-5.74675
▁hade	-5.77168
▁om	-5.79829
som	-5.81575
b	-5.84085
▁ut	-5.85994
an	-5.86893
▁då	-5.87493
▁hans	-5.89329
f	-5.89723
▁över	-5.93145
▁sin	-5.9501
å	-5.96573
▁Men	-5.99801
▁Gud	-6.01249
▁alla	-6.03236
▁åt	-6.03536
j	-6.06447
▁ett	-6.11589
▁från	-6.11751
▁din	-6.12948
▁min	-6.13782
▁b	-6.15382
or	-6.1555
y	-6.16088
▁nu	-6.16767
▁vi	-6.17592
p	-6.17622
▁när	-6.17749
▁där	-6.17825
▁man	-6.18131
ra	-6.18457
st	-6.19495
▁efter	-6.20919
da	-6.21639
än	-6.27184
▁Då	-6.28727
▁skola	-6.30762
▁vad	-6.31418
▁s	-6.3188
▁hava	-6.32935
el	-6.3314
▁be	-6.33341
as	-6.34697
tt	-6.34808
▁ty	-6.34819
▁son	-6.36914
▁men	-6.38994
it	-6.39382
ta	-6.40524
▁mot	-6.42109
sk	-6.43093
▁in	-6.44279
on	-6.45669
▁barn	-6.46726
ka	-6.47203
▁f	-6.47245
?	-6.47292
▁deras	-6.47642
re	-6.48168
▁k	-6.48237
▁sina	-6.49207
▁allt	-6.50542
ade	-6.51488
u	-6.51573
▁vid	-6.5235
▁t	-6.53144
▁detta	-6.5343
▁S	-6.55588
om	-6.56386
▁HERRENS	-6.5668
▁oss	-6.60455
▁fram	-6.60548
▁hus	-6.60549
▁h	-6.61664
un	-6.63914
ja	-6.64112
▁må	-6.65465
es	-6.65708
▁ock	-6.65903
▁g	-6.66223
▁Ty	-6.66763
al	-6.6679
▁folk	-6.6693
▁eller	-6.67595
▁Israels	-6.6788
am	-6.67937
▁sitt	-6.68335
▁sk	-6.69131
▁A	-6.70189
▁vara	-6.70519
▁säger	-6.71817
at	-6.72865
▁mitt	-6.74291
▁land	-6.74521
▁H	-6.7477
▁Så	-6.74939
ga	-6.75065
▁se	-6.75304
▁vill	-6.77611
▁göra	-6.7823
▁skulle	-6.78811
▁komma	-6.79677
▁genom	-6.79961
▁äro	-6.8012
▁konung	-6.81305
▁under	-6.81462
▁bliva	-6.81768
▁dina	-6.83285
▁få	-6.83349
▁någon	-6.8338
▁v	-6.83813
▁utan	-6.84765
la	-6.84939
▁ord	-6.85555
▁ned	-6.85747
in	-6.8614
are	-6.86143
▁gå	-6.89687
te	-6.91128
ri	-6.91232
▁voro	-6.91433
arna	-6.92738
▁bort	-6.93627
ning	-6.93986
▁dess	-6.94121
va	-6.94897
het	-6.96052
▁hon	-6.96273
▁konungen	-6.96843
▁o	-6.978
▁hand	-6.97862
▁kom	-6.98039
▁här	-7.00442
▁Han	-7.01121
ing	-7.01871
▁folket	-7.02837
▁ju	-7.03405
▁hela	-7.04215
▁ur	-7.04846
▁skolen	-7.0526
▁dag	-7.05872
▁ditt	-7.06296
▁inför	-7.06558
▁andra	-7.09527
▁blev	-7.09919
▁Israel	-7.10264
▁p	-7.10395
▁ifrån	-7.10474
▁än	-7.1081
▁svarade	-7.12024
der	-7.12159
▁m	-7.12981
▁Guds	-7.13001
▁Se	-7.13133
▁När	-7.13276
öd	-7.13369
den	-7.13624
lä	-7.14634
ande	-7.14714
▁tjänare	-7.14776
▁jorden	-7.15315
▁söner	-7.15385
▁mina	-7.1581
▁ingen	-7.16092
▁namn	-7.17322
▁st	-7.17565
▁dessa	-7.19252
else	-7.20045
▁bland	-7.20218
ll	-7.20368
▁David	-7.20609
äck	-7.20662
▁giva	-7.21545
▁--	-7.22221
▁Jag	-7.22408
▁något	-7.22562
▁gick	-7.23073
▁Juda	-7.23713
ng	-7.24337
▁kan	-7.2456
▁fader	-7.24769
?»	-7.24842
▁låt	-7.24959
▁De	-7.24981
▁sedan	-7.25045
▁Ja	-7.25672
ma	-7.25876
ur	-7.25918
-	-7.25935
▁Mose	-7.26413
▁Herren	-7.26489
▁män	-7.27477
▁dö	-7.27595
▁gjorde	-7.27972
▁'	-7.28589
ad	-7.28778
is	-7.29166
pp	-7.29308
▁vår	-7.29478
us	-7.29627
▁tid	-7.3012
▁an	-7.30139
ter	-7.30185
för	-7.30698
▁blivit	-7.31164
▁Jerusalem	-7.31289
▁kommer	-7.31292
▁Jesus	-7.32026
ne	-7.32203
edra	-7.32392
▁henne	-7.32411
li	-7.33442
sta	-7.33452
ig	-7.33987
▁lät	-7.36625
▁stor	-7.37326
▁mer	-7.37643
▁B	-7.379
▁rätt	-7.38691
▁säga	-7.3882
'	-7.3955
▁E	-7.3992
▁ej	-7.40355
▁G	-7.40838
▁därför	-7.42748
▁två	-7.4322
▁väl	-7.43781
▁får	-7.43836
ken	-7.44334
▁ögon	-7.44348
▁själv	-7.44462
▁gjort	-7.44777
▁år	-7.45093
▁gör	-7.45935
!	-7.46018
▁sju	-7.46977
▁liv	-7.47398
ot	-7.48964
▁K	-7.49128
▁bo	-7.49952
os	-7.50263
gen	-7.50298
ut	-7.50894
ud	-7.51131
▁denna	-7.51321
▁l	-7.51561
▁hög	-7.52405
▁landet	-7.52462
iga	-7.52487
▁åter	-7.53281
▁hos	-7.53463
le	-7.53659
▁T	-7.54061
▁tillbaka	-7.54373
dom	-7.55572
▁gav	-7.57044
liga	-7.5768
ns	-7.57693
▁tog	-7.57788
▁låta	-7.58475
▁himmelen	-7.59643
▁huru	-7.59704
D	-7.59762
▁Om	-7.60069
▁Egypten	-7.60203
nen	-7.60239
▁hundra	-7.60873
▁dagen	-7.61718
▁tro	-7.61887
▁hjärta	-7.62016
▁haven	-7.62225
▁taga	-7.62449
od	-7.62936
▁Den	-7.63411
▁denne	-7.63606
des	-7.6403
▁väg	-7.64517
erna	-7.64616
▁ansikte	-7.64637
ens	-7.64939
▁Jo	-7.64947
▁vin	-7.65139
▁ännu	-7.65164
ol	-7.65669
▁stå	-7.65882
rän	-7.66213
▁intet	-7.66239
▁ja	-7.66309
▁hustru	-7.66575
▁kommit	-7.67827
▁människor	-7.68174
be	-7.68935
▁ända	-7.69131
uk	-7.70023
ste	-7.70026
▁bröder	-7.70055
im	-7.70151
▁höra	-7.71447
▁all	-7.71662
red	-7.71827
▁hör	-7.71924
lag	-7.71967
▁huvud	-7.72243
▁tusen	-7.72811
▁synd	-7.72846
▁sp	-7.72968
▁bliver	-7.73378
▁såg	-7.7465
▁Ma	-7.75292
▁åstad	-7.75299
var	-7.76021
ligt	-7.76114
ul	-7.76446
▁kunna	-7.77063
▁Du	-7.77356
▁kvar	-7.77636
▁sände	-7.79475
em	-7.79899
▁emot	-7.80068
▁samma	-7.80183
▁Si	-7.80497
▁många	-7.80763
▁skull	-7.81176
▁stad	-7.81228
▁fick	-7.81815
M	-7.8197
▁staden	-7.81982
▁äta	-7.82302
▁lika	-7.82645
▁också	-7.82765
▁strid	-7.82967
▁talade	-7.83463
▁omkring	-7.83587
▁eld	-7.83894
▁nåd	-7.84017
▁fast	-7.84324
dra	-7.84331
c	-7.85126
▁blod	-7.85503
▁tre	-7.85985
▁kommo	-7.86152
isk	-7.86182
äll	-7.86974
▁lik	-7.87031
▁dit	-7.87383
▁döda	-7.87399
▁hålla	-7.87537
Jag	-7.87806
▁vatten	-7.88334
▁dagar	-7.88417
ba	-7.89905
▁går	-7.90847
▁fäder	-7.91022
▁tala	-7.91464
▁mycket	-7.91477
▁plats	-7.91694
V	-7.91699
del	-7.92902
x	-7.92967
▁måste	-7.93525
▁städer	-7.93551
ab	-7.94226
▁vilken	-7.94489
▁lov	-7.95206
lar	-7.95535
▁lag	-7.96227
▁Saul	-7.96387
▁guld	-7.96866
▁vän	-7.9692
år	-7.97127
▁slag	-7.97418
▁sagt	-7.97833
▁bet	-7.97939
▁Jakob	-7.98075
▁givit	-8.0018
▁bud	-8.00647
▁svärd	-8.01071
▁vet	-8.02059
ren	-8.02523
yck	-8.02728
▁mun	-8.0292
▁Sedan	-8.03145
▁hörde	-8.03319
▁sådan	-8.03357
▁herre	-8.0359
▁För	-8.03845
lig	-8.03931
▁gång	-8.04038
▁Mi	-8.04083
▁förde	-8.04484
igt	-8.04753
▁P	-8.05134
ten	-8.05207
▁händer	-8.05906
▁broder	-8.05927
▁Därför	-8.06237
man	-8.06549
▁vare	-8.06657
▁hennes	-8.07812
S	-8.07892
▁Därefter	-8.08333
▁rike	-8.08418
▁bor	-8.08515
▁vrede	-8.08615
▁allenast	-8.08651
▁frukt	-8.08879
kar	-8.0895
▁stod	-8.08982
nde	-8.09085
▁tag	-8.09144
▁oren	-8.09244
um	-8.09427
▁HERRE	-8.09537
▁berg	-8.09557
▁död	-8.09609
▁råd	-8.09975
ölj	-8.10228
▁heller	-8.10235
▁stora	-8.10332
▁hem	-8.10899
ets	-8.11338
▁moder	-8.11343
▁Vi	-8.11887
▁vilka	-8.11908
▁ville	-8.12492
▁både	-8.1332
▁fem	-8.13827
▁prästen	-8.13847
▁full	-8.13883
▁födde	-8.14166
▁vilja	-8.1417
▁vände	-8.14274
▁finnes	-8.14449
▁Aron	-8.14458
▁sten	-8.14902
▁Ab	-8.14937
▁fly	-8.15027
▁for	-8.15211
▁kvinna	-8.15314
▁dock	-8.15618
▁våra	-8.15947
▁ske	-8.16148
▁kött	-8.16186
▁offra	-8.16186
»	-8.16436
▁ren	-8.16561
▁R	-8.16703
orna	-8.16719
▁profeter	-8.16879
▁sätt	-8.17015
mar	-8.17141
vis	-8.17762
▁röst	-8.17953
▁kunde	-8.17958
iterna	-8.18012
▁gott	-8.18258
mma	-8.19159
▁själ	-8.19223
▁människa	-8.1945
ram	-8.19598
▁tjäna	-8.19672
▁ro	-8.19759
▁Det	-8.1998
éerna	-8.20077
▁förbund	-8.20664
▁frukta	-8.20959
.'	-8.2113
▁rättfärdig	-8.21486
▁själva	-8.2157
▁dom	-8.21967
▁giv	-8.22682
▁tron	-8.22706
ick	-8.22721
▁Kristus	-8.22825
▁vandra	-8.23138
▁kropp	-8.23452
▁stam	-8.2357
ligen	-8.23647
▁bröd	-8.23695
▁tjugu	-8.23765
ek	-8.2396
jämte	-8.24081
▁varit	-8.24383
▁gingo	-8.24399
▁först	-8.24521
▁blevo	-8.24627
▁nämligen	-8.24714
▁evig	-8.24728
▁En	-8.25114
gå	-8.25253
men	-8.25398
▁satte	-8.25419
▁ande	-8.25526
stycke	-8.25644
N	-8.26162
▁Detta	-8.26534
träd	-8.26545
▁framför	-8.2667
stånd	-8.27105
inna	-8.27313
▁heliga	-8.2739
▁Je	-8.27601
männen	-8.2769
▁F	-8.27747
▁verk	-8.28001
▁havet	-8.28936
▁mån	-8.29259
▁Salomo	-8.29601
dan	-8.29872
▁veta	-8.29917
▁rättfärdighet	-8.3038
rätt	-8.30499
▁Be	-8.30508
▁morgon	-8.30608
▁träd	-8.30625
▁annan	-8.30626
▁helig	-8.31241
▁silver	-8.31285
ni	-8.31959
▁fri	-8.32437
▁finna	-8.32486
▁giver	-8.32953
▁O	-8.32996
▁dotter	-8.32997
▁ung	-8.33137
▁makt	-8.33344
▁båda	-8.33348
Se	-8.33406
▁ont	-8.3361
▁sidan	-8.33648
låt	-8.33911
▁följ	-8.3398
▁kraft	-8.34389
färd	-8.34737
▁le	-8.34793
▁bära	-8.34803
▁visa	-8.34879
lighet	-8.3504
▁skriv	-8.35099
▁fått	-8.35266
▁tiden	-8.35558
▁draga	-8.35676
nas	-8.36226
▁före	-8.36299
▁ljus	-8.36513
▁konungar	-8.36514
▁far	-8.37663
▁kasta	-8.37989
▁undan	-8.38322
▁Farao	-8.38683
▁lång	-8.38685
▁hit	-8.39143
▁frågade	-8.39185
bar	-8.39276
▁slog	-8.39418
▁konungens	-8.39522
▁onda	-8.39833
▁mannen	-8.3997
▁rädda	-8.40156
▁På	-8.4052
▁Bet	-8.40677
Låt	-8.40901
▁Sebaot	-8.40901
▁leva	-8.40982
▁säg	-8.41033
▁kläder	-8.41219
▁varandra	-8.41279
ock	-8.41382
len	-8.41517
▁drog	-8.42015
jor	-8.42622
▁lämna	-8.42788
skap	-8.42882
▁arvedel	-8.43169
fall	-8.43173
Ha	-8.43248
▁offer	-8.43547
▁föll	-8.43552
▁hjälp	-8.43552
män	-8.43902
▁fyra	-8.43941
▁låg	-8.43969
Varför	-8.43971
▁Där	-8.44248
▁drag	-8.44928
▁Var	-8.45875
▁därefter	-8.45965
▁gärningar	-8.46276
▁Na	-8.46467
iten	-8.46586
▁Fader	-8.46676
Vad	-8.47261
▁öknen	-8.47867
▁vägen	-8.48057
▁tal	-8.48246
▁lade	-8.4828
»,	-8.48361
▁sak	-8.48453
▁sådant	-8.48612
▁fall	-8.4895
▁fråga	-8.49332
▁El	-8.49425
▁talat	-8.49837
▁höll	-8.49891
▁Josef	-8.49891
▁förkunna	-8.49891
▁Ande	-8.50275
▁vidare	-8.5028
Det	-8.50447
▁prästerna	-8.50753
▁ny	-8.5092
ställ	-8.5102
▁djur	-8.51087
▁vem	-8.51372
▁Eli	-8.51527
▁sönder	-8.51541
▁fötter	-8.51565
▁förstånd	-8.51917
▁vända	-8.51931
▁fiender	-8.52002
▁U	-8.52351
▁marken	-8.5238
▁filistéerna	-8.52385
▁Abraham	-8.52796
▁döttrar	-8.52796
▁fann	-8.52852
Du	-8.52962
ighet	-8.53151
▁kalla	-8.53389
rop	-8.53502
▁lärjungar	-8.53642
lade	-8.53994
▁tillsammans	-8.54068
▁Me	-8.54238
▁några	-8.54495
▁runt	-8.54505
▁sätta	-8.54568
▁härlighet	-8.54606
▁huset	-8.55282
▁glädje	-8.55355
▁hämta	-8.55355
▁säd	-8.55355
▁alnar	-8.55357
▁mellan	-8.55788
▁kor	-8.55843
▁slå	-8.55858
▁förut	-8.55926
▁bjudit	-8.56223
▁Babel	-8.56223
▁står	-8.56491
▁församling	-8.56659
▁länge	-8.57098
Huru	-8.57113
▁stark	-8.57197
▁hjärtan	-8.572
▁syn	-8.57342
▁släkte	-8.57426
▁föra	-8.57517
▁brännoffer	-8.57538
▁släkt	-8.57815
▁fört	-8.57983
▁bodde	-8.57998
▁krig	-8.57999
ord	-8.5813
lå	-8.58467
▁kallade	-8.58482
▁tio	-8.5885
▁lägga	-8.58864
▁bön	-8.58872
▁mur	-8.59228
▁missgärning	-8.5932
▁tjänst	-8.5932
▁Davids	-8.59422
▁döden	-8.59432
▁gudar	-8.59709
▁satt	-8.59736
▁skaffa	-8.59771
▁altaret	-8.60659
▁kär	-8.60676
ningen	-8.60771
▁slut	-8.60819
!»	-8.60846
▁tillhör	-8.61129
▁världen	-8.61593
▁Josua	-8.61593
▁Herre	-8.61997
▁Dessa	-8.62056
▁leviterna	-8.62982
▁barns	-8.63078
▁igen	-8.63164
▁ropade	-8.63465
Så	-8.63501
▁god	-8.63548
▁äldste	-8.63919
▁ät	-8.64454
väl	-8.64489
sten	-8.64606
▁kvinnor	-8.64864
▁nöd	-8.64963
▁natten	-8.65459
▁trä	-8.65623
▁kärlek	-8.6582
tid	-8.6588
▁dricka	-8.65918
▁viss	-8.66347
ack	-8.66438
ikt	-8.66627
▁höj	-8.66654
▁tänk	-8.66714
▁sl	-8.6712
▁gått	-8.67443
▁fot	-8.67892
▁fingo	-8.68742
▁därav	-8.68808
▁folken	-8.69002
▁arbete	-8.69234
▁alltså	-8.69283
ret	-8.69417
▁Vad	-8.69661
▁Asa	-8.69829
Gå	-8.70102
Vem	-8.7029
▁gud	-8.70302
opp	-8.70473
▁öppna	-8.70734
▁Jordan	-8.70735
tag	-8.71095
▁välsigna	-8.71239
▁därpå	-8.71753
▁månaden	-8.71754
▁pris	-8.71763
▁redan	-8.71776
▁ängel	-8.72262
▁arm	-8.72445
▁led	-8.72747
I	-8.73137
bland	-8.73147
val	-8.73371
▁begär	-8.73803
▁bröt	-8.74324
▁vittnesbörd	-8.74324
▁furstar	-8.74324
▁gåvo	-8.74331
▁därtill	-8.7452
▁sex	-8.74596
▁ed	-8.74641
▁präst	-8.7485
▁håll	-8.75256
slut	-8.75344
▁våld	-8.75374
▁skam	-8.75393
▁goda	-8.75436
▁Ne	-8.75576
stod	-8.75611
▁ark	-8.75747
▁hört	-8.76279
▁tredje	-8.76435
Hör	-8.7697
▁vagn	-8.76973
▁kläd	-8.77136
▁hop	-8.77308
offer	-8.77472
▁olycka	-8.77508
▁frid	-8.77831
▁hopp	-8.77886
▁sett	-8.77964
▁första	-8.78179
of	-8.78419
▁togo	-8.7843
H	-8.78496
▁ligger	-8.78591
▁tolv	-8.78594
▁alltid	-8.78668
▁därifrån	-8.78789
▁akta	-8.78949
▁bör	-8.79138
håller	-8.79734
▁Nej	-8.79929
▁rik	-8.80105
▁falla	-8.80514
till	-8.80579
▁grav	-8.80826
▁Jesu	-8.80877
▁gammal	-8.81354
▁lever	-8.81358
▁annat	-8.81386
▁hår	-8.81776
▁främling	-8.81916
▁känna	-8.81925
▁samla	-8.81949
▁Efraim	-8.82481
▁besittning	-8.82481
▁lagen	-8.82619
syn	-8.82771
▁vore	-8.83033
▁helga	-8.83053
▁olja	-8.83068
ifrån	-8.83548
▁evinnerligen	-8.8362
▁ligga	-8.83632
gör	-8.83728
▁tagit	-8.83992
▁sänt	-8.84234
gång	-8.84458
▁tempel	-8.84773
▁behag	-8.84775
▁levande	-8.84835
▁stodo	-8.85011
Vi	-8.85409
▁boskap	-8.85442
hål	-8.85796
▁talar	-8.85821
▁trettio	-8.86382
▁styggelse	-8.86527
▁sanning	-8.86569
▁förstå	-8.86702
▁begynte	-8.87119
▁stadgar	-8.87132
▁vägar	-8.87661
▁vishet	-8.87752
▁Av	-8.87948
▁ru	-8.88054
▁jord	-8.88187
▁sabbat	-8.88313
▁tecken	-8.88313
▁befallning	-8.88313
▁uppfyll	-8.88315
▁drogo	-8.88335
K	-8.88584
▁ropa	-8.88614
samma	-8.88716
porten	-8.88726
ägg	-8.89258
▁Sion	-8.89406
▁Paulus	-8.89522
gav	-8.89866
med	-8.90066
▁Moab	-8.90131
▁fröjd	-8.90131
▁Benjamin	-8.90745
vänd	-8.90761
▁ogudaktiga	-8.91044
F	-8.91103
▁släkter	-8.91132
▁träl	-8.91307
▁synder	-8.91363
▁bygga	-8.91445
▁fara	-8.91618
▁lär	-8.91717
▁övriga	-8.91983
▁frälsning	-8.92608
▁utrota	-8.9261
▁egen	-8.9267
▁köp	-8.93237
▁Petrus	-8.93237
▁koppar	-8.93238
▁judarna	-8.93242
▁uppstå	-8.935
▁stöt	-8.9387
▁grund	-8.93871
▁högtid	-8.93942
B	-8.94298
▁räkna	-8.94507
▁andre	-8.94514
▁svara	-8.94641
▁berget	-8.9474
▁följde	-8.94993
▁inne	-8.95008
▁bär	-8.95032
▁förtär	-8.95148
▁rör	-8.95148
▁altare	-8.95176
▁steg	-8.95234
▁uppenbara	-8.95794
▁lott	-8.95805
▁fyrtio	-8.95904
▁fattig	-8.96444
▁Nu	-8.96493
kall	-8.96509
▁skatt	-8.96562
vil	-8.96654
▁Kristi	-8.97096
▁Manasse	-8.97096
▁länder	-8.97098
▁gräns	-8.97108
▁hedningarna	-8.97234
dag	-8.97643
▁Må	-8.97776
▁Min	-8.97978
▁Ahi	-8.98223
▁afton	-8.98416
▁funno	-8.98417
▁utför	-8.98626
▁hemsök	-8.98884
▁förnimma	-8.99084
▁lös	-8.99244
▁boning	-8.99537
▁stället	-8.996
▁femtio	-8.99745
▁Jeremia	-8.99754
▁invånar	-8.99754
▁vattnet	-8.99754
▁lejon	-8.99755
intill	-8.99893
▁profeten	-9.0075
Tag	-9.00789
▁söka	-9.0111
▁vädur	-9.0111
▁Re	-9.01429
▁ogudaktig	-9.01462
G	-9.01625
▁Ke	-9.01629
enbarelsetältet	-9.01795
▁aldrig	-9.01795
▁Di	-9.01907
Om	-9.01949
▁sky	-9.01976
▁fördärva	-9.02055
▁lägra	-9.02485
▁Med	-9.03083
▁lamm	-9.03886
▁fördärv	-9.04316
fat	-9.04354
▁lära	-9.04485
▁Samuel	-9.04583
▁djup	-9.04583
▁fullborda	-9.04583
▁tält	-9.04583
▁vingård	-9.04583
▁övergiv	-9.04584
▁sända	-9.04591
▁profet	-9.04697
▁Joab	-9.04737
igenom	-9.04968
▁lust	-9.05307
▁fatta	-9.05313
A	-9.05377
▁vakt	-9.06016
▁öde	-9.06337
▁ställe	-9.06728
▁mat	-9.06767
▁furste	-9.07465
▁helgedomen	-9.07516
▁trädde	-9.07686
▁bad	-9.07876
▁förbi	-9.08014
▁hette	-9.08209
▁vila	-9.08454
é	-9.08862
▁Gilead	-9.08916
▁lida	-9.0912
bild	-9.09691
hövding	-9.10235
▁behöv	-9.10402
▁löfte	-9.10402
▁slakta	-9.10403
▁därmed	-9.10659
▁bred	-9.10671
▁tänkte	-9.10681
▁hata	-9.10813
▁lögn	-9.11154
▁område	-9.11155
▁sorg	-9.11187
lys	-9.1136
▁dal	-9.11679
'»	-9.11851
▁Isak	-9.11917
▁byggde	-9.12504
▁Hiskia	-9.12675
▁träffa	-9.12676
▁nog	-9.1269
▁solen	-9.1269
▁sido	-9.12703
▁ved	-9.13311
hålla	-9.13387
▁öster	-9.13445
▁allasammans	-9.13445
▁skuld	-9.13465
▁förgås	-9.13496
▁kommen	-9.13706
▁församlade	-9.13936
▁stannade	-9.13942
▁förgöra	-9.14262
Herre	-9.14622
▁åker	-9.15003
▁bjöd	-9.15005
▁Baal	-9.15012
▁orätt	-9.15244
▁krossa	-9.15788
▁tjur	-9.15791
▁portar	-9.15922
▁bak	-9.16491
▁Johannes	-9.16582
▁penningar	-9.16582
▁Alla	-9.16603
▁norr	-9.16604
E	-9.17016
▁läger	-9.17383
▁dog	-9.17385
▁akt	-9.17715
▁utgjorde	-9.18188
skrift	-9.18192
▁ställde	-9.18228
▁drick	-9.18834
▁skörd	-9.19001
▁Jonatan	-9.19002
Icke	-9.19003
▁mycken	-9.19004
▁Dock	-9.19004
▁tionde	-9.19082
offret	-9.19821
▁strax	-9.19822
▁fånga	-9.19905
▁ringa	-9.20501
▁spisoffer	-9.20648
▁sant	-9.20732
▁stammar	-9.20762
▁känner	-9.21481
▁eget	-9.21483
▁natt	-9.21495
▁nästa	-9.22321
▁skåda	-9.22331
▁sjunde	-9.22539
▁bygg	-9.22802
▁gråt	-9.23172
▁föda	-9.23199
▁glad	-9.23317
kså	-9.23464
▁egyptier	-9.24023
▁syster	-9.24024
▁likväl	-9.24093
▁port	-9.24189
▁frälsa	-9.24886
▁hästar	-9.24886
▁regera	-9.24886
▁mjöl	-9.25755
▁byte	-9.25768
▁undervisa	-9.2581
Allt	-9.26684
▁bevara	-9.26776
▁väldig	-9.26808
▁floden	-9.27517
▁lön	-9.27517
▁tillhopa	-9.27517
▁läppar	-9.27517
verk	-9.27825
▁högr	-9.27971
▁främmande	-9.2841
▁funnit	-9.2841
▁egna	-9.28413
▁levde	-9.28419
▁regn	-9.28424
För	-9.29296
▁regeringsår	-9.29311
▁klippa	-9.29311
▁flydde	-9.29325
huset	-9.29337
▁sida	-9.29446
▁himmel	-9.29642
▁fåfäng	-9.3022
▁bringa	-9.30223
▁strö	-9.3037
▁skapa	-9.31012
▁lägret	-9.31138
▁utmarker	-9.31138
▁lyssna	-9.31138
▁hjord	-9.31149
▁Ahas	-9.31161
folk	-9.31186
▁syndoffer	-9.31213
▁Absalom	-9.32063
▁större	-9.32063
▁styr	-9.32138
▁bevisa	-9.32138
djur	-9.33104
▁Ve	-9.33423
▁siklar	-9.33941
▁finner	-9.33942
▁hugg	-9.33942
T	-9.34034
▁miss	-9.34037
▁lägg	-9.34071
sökte	-9.34225
lösa	-9.34329
▁svär	-9.34784
Din	-9.3486
▁människobarn	-9.34894
▁arbeta	-9.34899
▁moln	-9.34902
▁församla	-9.35245
▁Ammon	-9.35855
▁dröm	-9.35855
▁gräs	-9.35855
▁predika	-9.35855
▁straff	-9.35855
▁ytterligare	-9.35855
▁familjer	-9.36826
▁begrav	-9.36827
▁kunskap	-9.36827
▁försoning	-9.36828
▁fåglar	-9.36831
räckte	-9.3779
▁Lik	-9.37807
▁hast	-9.38172
▁stanna	-9.38172
Stå	-9.38737
▁Jerobeam	-9.38797
▁förgät	-9.38797
▁jämväl	-9.38797
▁Esau	-9.38799
▁barmhärtighet	-9.38829
efter	-9.3887
lyft	-9.3949
▁befäst	-9.39797
▁fångenskap	-9.39797
▁drabba	-9.39797
▁vittne	-9.39942
▁bättre	-9.40807
▁rökelse	-9.40807
▁innan	-9.4099
▁evangelium	-9.41827
▁fäkreatur	-9.41827
▁göm	-9.41827
▁otukt	-9.41827
▁berömm	-9.42858
▁fjärran	-9.42858
▁mätta	-9.42858
▁vilket	-9.42858
▁avgudar	-9.42859
▁mäktig	-9.439
▁öron	-9.439
▁gamla	-9.43903
helst	-9.44
Eftersom	-9.44115
Sannerligen	-9.44952
▁järn	-9.44952
▁bryta	-9.44953
▁svår	-9.44958
▁lyfte	-9.45283
▁fött	-9.45955
▁förstör	-9.46016
▁Samaria	-9.46016
▁tröst	-9.46016
▁uppteckna	-9.46016
▁ljud	-9.46018
▁ingången	-9.46019
▁stäng	-9.4605
▁seger	-9.46062
▁överstepräst	-9.4626
▁Kanaan	-9.47092
▁brunn	-9.47093
▁Ahab	-9.47097
▁basun	-9.47099
▁ändå	-9.47111
▁överlämna	-9.48178
▁Till	-9.48181
▁stoft	-9.48181
▁tacka	-9.48234
HERREN	-9.48753
▁helgedom	-9.49177
▁bäva	-9.49277
▁därvid	-9.49278
▁grip	-9.49281
▁änglar	-9.49282
▁litet	-9.49284
▁falsk	-9.49285
▁förakta	-9.49287
gjorda	-9.49291
▁stilla	-9.4931
▁Elisa	-9.49481
Giv	-9.49507
▁eljest	-9.50389
▁fängelse	-9.50389
▁hälft	-9.50389
▁inbyggare	-9.50389
▁tabernaklet	-9.50389
▁förråd	-9.50409
▁ställa	-9.50538
▁stav	-9.51112
▁häpna	-9.51512
▁åkalla	-9.51515
▁hov	-9.5157
▁horn	-9.51598
torka	-9.52057
▁Josafat	-9.52648
▁fäste	-9.52648
▁kerub	-9.52649
▁plåga	-9.52649
▁bedja	-9.52674
▁mantel	-9.52729
▁omtala	-9.52882
▁hövdingar	-9.52905
▁allena	-9.53662
▁fiende	-9.53679
dräkt	-9.53798
▁förtrösta	-9.53798
▁kunnen	-9.538
▁förtryck	-9.538
▁förkasta	-9.5382
▁stund	-9.53848
Ack	-9.5386
▁trolös	-9.54204
▁lyd	-9.54881
▁Levi	-9.54961
▁dräpa	-9.54961
▁menigheten	-9.54966
▁Frå	-9.54972
▁sjuttio	-9.55793
gåvo	-9.56119
▁ondska	-9.56137
▁överträdelse	-9.56138
▁snart	-9.56141
▁jubel	-9.5615
▁bäcken	-9.5616
höjden	-9.56453
▁bergsbygd	-9.57328
▁förgården	-9.57328
▁viljen	-9.57328
▁skynda	-9.57332
▁upprätta	-9.57443
▁resa	-9.57528
▁Assyrien	-9.58532
▁sköld	-9.58532
▁välbehaglig	-9.58532
▁Ingen	-9.58596
▁andar	-9.59275
R	-9.59466
▁fjärde	-9.59752
▁förbanna	-9.59753
Konung	-9.59754
▁amoréerna	-9.60987
▁dräpte	-9.60987
▁längre	-9.60987
▁förvisso	-9.60987
▁tåga	-9.61001
▁mörkret	-9.62236
▁smäda	-9.62236
▁vedergäll	-9.62236
▁väsende	-9.62236
▁sörj	-9.62237
▁förlossa	-9.62237
▁häng	-9.62368
▁blygd	-9.63502
▁haft	-9.63503
▁gjut	-9.63506
yllen	-9.6353
▁blind	-9.63531
▁Daniel	-9.64784
▁plantera	-9.64784
▁smälek	-9.64784
▁Alltså	-9.64785
▁utvalt	-9.64794
▁fint	-9.64818
▁förstfödde	-9.66083
▁tillbedja	-9.66083
▁ihåg	-9.66085
▁tankar	-9.66087
▁orättfärdig	-9.66088
▁buro	-9.66093
▁vittna	-9.66116
▁bestå	-9.66905
▁hälsa	-9.67399
▁berättade	-9.674
Frukt	-9.67403
▁bränna	-9.67414
▁evärdlig	-9.68732
▁jungfru	-9.68732
▁upphör	-9.68732
▁pläga	-9.68735
▁förbarma	-9.68763
▁sjön	-9.70084
▁Eleasar	-9.70084
▁beständigt	-9.70084
▁förbannelse	-9.70084
▁förbliver	-9.70084
▁söker	-9.70084
▁välsignelse	-9.70084
▁skicka	-9.70188
gående	-9.70413
▁Ruben	-9.71453
▁slaktoffer	-9.71453
▁söder	-9.71472
▁ofta	-9.71477
▁förskräckt	-9.71493
▁människo	-9.71553
▁hände	-9.72486
▁bestämd	-9.72842
▁förskräckelse	-9.72842
▁förtörna	-9.72842
▁gensträvig	-9.72842
▁ovänner	-9.72842
▁spetälsk	-9.72842
gift	-9.72891
P	-9.72904
plats	-9.72913
▁vingar	-9.7303
▁Libanon	-9.74251
▁förtörnelse	-9.74251
▁ostrafflig	-9.74251
▁tillflykt	-9.74251
▁trygg	-9.74251
▁undfå	-9.74251
▁ödmjuka	-9.74251
▁skyldig	-9.74251
▁ditupp	-9.74251
▁skedde	-9.7427
▁svag	-9.74385
▁Hebron	-9.75679
märke	-9.77129
▁hjältar	-9.77129
▁synagog	-9.78599
▁dödsriket	-9.78599
▁spjut	-9.786
▁därinne	-9.78602
▁förfölja	-9.78607
)	-9.80092
▁begynnelse	-9.80092
▁störta	-9.80092
▁hunger	-9.80092
▁ödemark	-9.80093
▁linne	-9.80093
▁Sikem	-9.80093
▁gäller	-9.80097
▁finge	-9.81052
▁Abimelek	-9.81607
▁glädja	-9.81607
▁kaldéerna	-9.81607
▁skriftlärde	-9.81607
▁väster	-9.81607
▁bröst	-9.81607
▁hungersnöd	-9.83145
▁driva	-9.83146
▁vilse	-9.8315
▁Galileen	-9.84708
▁Jeriko	-9.84708
▁särskild	-9.84708
▁araméerna	-9.84708
▁dyrbar	-9.84708
▁frimodig	-9.84708
bredvid	-9.84708
▁ålder	-9.84709
▁bedriv	-9.84709
▁eldsoffer	-9.8471
▁betryck	-9.84711
▁lycka	-9.84728
▁Jehu	-9.84754
▁Efter	-9.85969
▁sextio	-9.86281
▁fikon	-9.86295
▁grön	-9.86295
▁tungomål	-9.86295
▁angrip	-9.86295
▁person	-9.86296
▁intog	-9.86296
hållit	-9.86899
▁Sidkia	-9.87908
▁beskär	-9.87908
▁vilddjur	-9.87908
▁psalm	-9.87908
▁dryck	-9.8791
▁begiv	-9.87911
▁bedrövelse	-9.89547
▁tackoffer	-9.89548
skilja	-9.89549
▁bosatt	-9.89555
▁brinn	-9.89828
▁Bileam	-9.91214
▁Damaskus	-9.91214
▁förbliva	-9.91214
▁förvandla	-9.91214
▁smorde	-9.91214
▁strömmar	-9.91215
▁begått	-9.91216
▁talrik	-9.91263
▁Mordokai	-9.92909
▁sannerligen	-9.92909
▁trofasthet	-9.92909
▁belägra	-9.92909
▁alltsammans	-9.92909
▁Noa	-9.92911
▁ångest	-9.94633
▁bruka	-9.94637
översteprästerna	-9.95985
▁Nebukadnessar	-9.96387
▁gudsmannen	-9.96387
▁oförnuft	-9.96387
▁törst	-9.96387
▁växa	-9.96387
▁sutto	-9.96388
▁gossen	-9.96388
anhända	-9.96405
kammare	-9.96426
▁Allsmäktige	-9.98173
▁babyloni	-9.98173
▁försmäkta	-9.98173
▁hämnd	-9.98173
▁mätte	-9.98173
▁pröva	-9.98173
▁spillo	-9.98173
▁sångmästaren	-9.98173
▁herdar	-9.98188
▁dörrar	-9.98203
skild	-9.98741
▁Pilatus	-9.99991
▁gästabud	-9.99991
▁nitälska	-9.99991
▁småboskap	-9.99991
▁Sadok	-9.99992
▁palats	-9.99992
▁Ussi	-9.99992
O	-10.1057
U	-10.4588
2	-10.8845
0	-10.9776
6	-11.9825
1	-12.1253
Y	-12.292
9	-12.292
ó	-12.292
7	-12.492
3	-12.492
5	-12.492
í	-12.742
]	-13.5753
8	-14.5743
4	-14.5744
C	-14.5745
(	-14.5746
Ö	-14.5747
Å	-14.5748
Ä	-14.5749
L	-14.575
J	-14.5751
ö	-14.5752
á	-14.5753
ä	-14.5753
