<pad>	0
</s>	0
<unk>	0
の	-2.48121
、	-2.54473
。	-3.24672
を	-3.78421
は	-3.92349
に	-3.95429
と	-4.07559
▁	-4.08684
が	-4.3714
その	-4.70237
も	-4.87495
か	-4.8798
い	-4.88634
た	-4.92183
る	-5.03485
し	-5.10352
り	-5.25093
で	-5.28051
き	-5.28304
て	-5.36949
、「	-5.41036
から	-5.4292
く	-5.48547
」。	-5.50893
な	-5.53812
って	-5.57514
また	-5.66578
ま	-5.68644
った	-5.68749
み	-5.7207
わたしは	-5.73616
ら	-5.74047
お	-5.75719
である	-5.77036
さ	-5.8
よ	-5.81243
う	-5.81286
あなたの	-5.83916
ない	-5.84496
め	-5.87045
わ	-5.87177
す	-5.90329
あ	-5.92925
わたしの	-5.95564
した	-5.95962
して	-5.98246
ル	-6.04318
つ	-6.04745
ア	-6.05762
者	-6.06771
え	-6.08133
人	-6.09171
いた	-6.10842
や	-6.18333
ン	-6.18758
この	-6.19172
れ	-6.2088
民	-6.35425
シ	-6.35546
する	-6.35725
テ	-6.37179
け	-6.39603
王	-6.40225
日	-6.40241
こと	-6.40702
あなたは	-6.43427
こ	-6.4456
ず	-6.45055
の子	-6.45605
む	-6.47111
すべての	-6.47951
られた	-6.49337
ラ	-6.49867
彼らは	-6.50345
そ	-6.50451
時	-6.51135
ことを	-6.52066
わたし	-6.52204
ヤ	-6.52962
のために	-6.5364
び	-6.54726
たち	-6.56556
ように	-6.56662
これを	-6.56939
」	-6.57004
神	-6.58879
わが	-6.59058
ば	-6.60188
地	-6.61688
わたしが	-6.6193
によって	-6.62556
あなた	-6.63072
だ	-6.64643
ナ	-6.6494
をもって	-6.65242
ち	-6.6527
られる	-6.65277
せ	-6.66776
一	-6.69806
なければならない	-6.70502
父	-6.71362
わたしを	-6.71995
主の	-6.72192
および	-6.72246
んで	-6.72432
なかった	-6.7351
いて	-6.7355
言った	-6.73863
彼は	-6.74917
主	-6.75106
であろう	-6.75562
主は	-6.75984
イエス	-6.7763
からである	-6.77645
なさい	-6.78178
ている	-6.78975
イ	-6.7917
▁また	-6.79293
国	-6.79343
びと	-6.79403
あなたがたは	-6.80477
ダビデ	-6.81177
マ	-6.82508
それ	-6.83442
出	-6.83721
子	-6.84009
ある	-6.84323
ハ	-6.85041
すなわち	-6.86982
女	-6.8718
者は	-6.87689
じ	-6.8786
あなたがたの	-6.87973
エ	-6.89369
のように	-6.89602
わたしに	-6.89629
▁その	-6.89717
ど	-6.89884
行	-6.90509
それを	-6.9052
まで	-6.92128
物	-6.92258
であった	-6.92566
事	-6.92769
ました	-6.93182
▁わたしは	-6.93998
町	-6.94201
言	-6.94254
ム	-6.95207
上	-6.95493
られ	-6.95797
見	-6.96106
彼らを	-6.96126
神の	-6.96261
▁そこで	-6.97027
▁しかし	-6.97362
んだ	-6.97611
ます	-6.98557
自分の	-6.99178
カ	-6.994
主が	-6.99701
彼らの	-7.00368
させ	-7.00485
きた	-7.00518
長	-7.0143
ろ	-7.01692
された	-7.01807
いる	-7.02081
イスラエル	-7.02167
とき	-7.03007
バ	-7.03027
ぎ	-7.03391
十	-7.03466
リ	-7.03585
こう	-7.04268
われ	-7.04401
なく	-7.04575
彼ら	-7.05434
らせ	-7.0586
と共に	-7.05886
あなたがた	-7.06314
心	-7.06355
すべて	-7.06558
るであろう	-7.06877
あなたを	-7.07778
悪	-7.07822
デ	-7.07895
言われた	-7.08055
へ	-7.08444
彼	-7.08904
レ	-7.08913
人々	-7.08975
、『	-7.09411
る者	-7.09832
そして	-7.09942
ご	-7.10097
に言った	-7.10433
よう	-7.10665
ぶ	-7.12233
ん	-7.12401
これ	-7.1242
祭司	-7.1292
あなたが	-7.13877
手	-7.14105
全	-7.14201
』	-7.14299
▁そして	-7.1436
もろもろの	-7.1493
行って	-7.15479
間	-7.16403
ベ	-7.16687
大	-7.17668
きて	-7.18061
もし	-7.1851
年	-7.18578
天	-7.18698
水	-7.18835
死	-7.18846
タ	-7.19091
ひ	-7.19341
人は	-7.19733
ユダ	-7.19786
には	-7.20232
しい	-7.20544
あなたに	-7.21417
人の	-7.21717
今	-7.22099
彼を	-7.22186
しかし	-7.23288
三	-7.23294
です	-7.23465
ために	-7.23491
主に	-7.24152
知	-7.24281
の子孫	-7.24936
出て	-7.25246
のである	-7.25858
ならば	-7.25885
所	-7.25895
なら	-7.25896
メ	-7.26023
家	-7.26134
モーセ	-7.26438
人を	-7.26528
ブ	-7.26576
これは	-7.27067
去	-7.27975
っている	-7.284
ク	-7.28539
山	-7.28823
七	-7.29392
ので	-7.29494
ひとり	-7.29617
事を	-7.29967
二	-7.30645
彼らに	-7.32112
の上に	-7.3249
そう	-7.32969
わたしたち	-7.33194
恐れ	-7.33665
それは	-7.35053
名	-7.35068
として	-7.35146
べ	-7.35579
食べ	-7.36089
生	-7.36111
力	-7.36797
われわれ	-7.36866
行った	-7.36878
ふ	-7.37553
ため	-7.37682
罪	-7.38284
について	-7.3842
下	-7.38566
自分	-7.38678
▁彼らは	-7.38775
何	-7.38816
おり	-7.389
方	-7.38973
ただ	-7.39066
だれ	-7.39155
地に	-7.39479
イスラエルの人々	-7.39797
金	-7.40238
▁主は	-7.40349
であって	-7.40492
しもべ	-7.40882
五	-7.41358
ロ	-7.41584
語	-7.41641
のうちに	-7.417
▁あなたは	-7.41736
ス	-7.42165
言葉	-7.42237
あなたがたに	-7.42894
キリスト	-7.43144
帰	-7.43414
▁「	-7.43626
火	-7.43966
ること	-7.44046
れた	-7.4406
▁彼は	-7.4412
される	-7.45007
人が	-7.45046
後	-7.45464
与え	-7.4562
百	-7.45967
しく	-7.46251
「	-7.46417
ろう	-7.46444
たので	-7.46639
エルサレム	-7.4665
シャ	-7.4781
高	-7.48179
を見	-7.48465
・	-7.48701
ほ	-7.49687
され	-7.50552
四	-7.50593
口	-7.50619
目	-7.51729
彼に	-7.5221
かな	-7.52314
救	-7.52575
の家	-7.53084
なる	-7.53876
宮	-7.54
道	-7.54343
れる	-7.5459
ささげ	-7.54797
物を	-7.54981
人々は	-7.55176
みな	-7.55296
主よ	-7.55484
かた	-7.55845
妻	-7.55879
世	-7.56065
エル	-7.56155
足	-7.56252
イスラエルの	-7.56364
えて	-7.56425
食	-7.56571
立って	-7.57984
の前に	-7.58203
石	-7.58327
従	-7.58724
パ	-7.58826
言う	-7.5885
にある	-7.59088
彼の	-7.59121
オ	-7.59284
てください	-7.59386
ミ	-7.59477
ね	-7.59863
残	-7.59864
所に	-7.59989
使	-7.61198
彼らが	-7.6169
を得	-7.61816
行き	-7.61975
起	-7.62003
はその	-7.62279
書	-7.62413
の中に	-7.62645
とを	-7.63071
頭	-7.63287
これらの	-7.64066
あなたがたが	-7.64468
てはならない	-7.65362
命	-7.65742
ヨ	-7.66053
入れ	-7.66618
敵	-7.66674
々	-7.67279
る者は	-7.67394
定め	-7.67469
歩	-7.67506
つけ	-7.67638
預言者	-7.67925
を受け	-7.68279
見よ	-7.68334
ザ	-7.69192
ホ	-7.69192
行く	-7.69589
住	-7.69634
海	-7.69832
血	-7.70046
日に	-7.70667
あげ	-7.70671
彼女	-7.70746
している	-7.70771
がある	-7.713
実	-7.71332
思	-7.71483
来る	-7.71577
ヤコブ	-7.71775
ダ	-7.72004
兄弟	-7.72334
います	-7.72776
そこに	-7.73417
祭壇	-7.73536
中	-7.73625
ニ	-7.73981
霊	-7.74149
サ	-7.74192
ことは	-7.74381
時に	-7.74549
ざ	-7.7482
彼が	-7.74852
置	-7.74876
ところ	-7.74974
産	-7.75102
撃	-7.75102
王は	-7.7513
よい	-7.7566
われわれは	-7.75699
サウル	-7.76235
ネ	-7.76235
祭	-7.76399
会	-7.7642
分	-7.76742
エジプト	-7.76961
言葉を	-7.77069
でしょう	-7.77306
『	-7.77366
手を	-7.77459
は言った	-7.77583
着	-7.77628
モ	-7.78309
千	-7.78309
のうち	-7.78781
名を	-7.78983
者を	-7.79064
つるぎ	-7.79249
神は	-7.7929
立ち	-7.79328
なり	-7.79485
ください	-7.79498
ゼ	-7.79716
多くの	-7.79847
ド	-7.80189
わたしたちは	-7.80398
万	-7.80426
わせ	-7.80433
造	-7.805
生き	-7.81623
者が	-7.81962
渡	-7.82346
飲	-7.82348
愛	-7.82381
身	-7.83026
第	-7.83078
手に	-7.83138
ぼ	-7.83811
ようと	-7.84125
セ	-7.84155
声	-7.84754
離れ	-7.84764
怒り	-7.85002
肉	-7.85051
取	-7.85279
キ	-7.853
にむかって	-7.85303
わざ	-7.85342
ケ	-7.85549
男	-7.858
パン	-7.85819
でも	-7.86289
たちは	-7.86878
あなたがたを	-7.8693
ガ	-7.87063
前に	-7.87143
にも	-7.87308
になった	-7.87429
家に	-7.87495
かつ	-7.87655
を与え	-7.87881
義	-7.88291
ト	-7.88342
聖なる	-7.8839
れて	-7.89014
聞いて	-7.89118
誓	-7.89899
その子	-7.90064
ペ	-7.9016
夜	-7.9016
大いなる	-7.90162
めて	-7.90692
ぐ	-7.91158
地の	-7.91241
ことが	-7.91284
銀	-7.9148
と言った	-7.92136
近	-7.92279
来	-7.92603
イエスは	-7.92623
を見て	-7.92771
羊	-7.93328
命じ	-7.93365
心を	-7.93543
という	-7.93712
部族	-7.93922
ような	-7.94111
るように	-7.94802
▁もし	-7.94984
となり	-7.95033
思い	-7.95641
人に	-7.9569
かせ	-7.95839
兄弟たち	-7.9595
コ	-7.961
代	-7.96378
建て	-7.96427
言い	-7.9682
追い	-7.97103
のです	-7.97465
座	-7.97783
▁こうして	-7.97798
▁あなたがたは	-7.97991
っ	-7.98143
喜び	-7.98296
月	-7.9835
知恵	-7.98359
寄	-7.98636
リヤ	-7.98912
律法	-7.98921
に対して	-7.98936
どうして	-7.99245
ません	-7.99311
のですか	-7.99573
▁この	-7.99639
える	-7.99715
約	-7.9978
ヘ	-7.99783
ラム	-7.99924
祈	-8.00362
なお	-8.00873
香	-8.00945
牛	-8.01223
を取り	-8.01352
に仕え	-8.01405
げ	-8.01447
ウ	-8.02119
あなたの神	-8.0264
だから	-8.02647
族	-8.02686
引き	-8.02695
六	-8.02712
殺	-8.0282
器	-8.03308
助け	-8.03372
取り	-8.0352
かけ	-8.03682
ソロモン	-8.03908
身を	-8.04033
主を	-8.0419
母	-8.04209
持って	-8.04219
よりも	-8.04581
数	-8.05004
人たち	-8.05917
王の	-8.06177
ためである	-8.06383
▁さて	-8.06418
町々	-8.06486
て言った	-8.06556
示	-8.06651
進	-8.07272
▁それゆえ	-8.07383
恵み	-8.07624
われら	-8.07876
ふたり	-8.07903
喜	-8.08269
打ち	-8.08277
一つ	-8.08587
終	-8.08839
結	-8.0884
ものを	-8.0922
先	-8.09466
者たち	-8.09769
おのおの	-8.09817
つかわし	-8.09861
行い	-8.09868
民は	-8.0987
御	-8.10018
栄光	-8.1012
不	-8.10394
キュビト	-8.10432
川	-8.10753
立て	-8.10826
ていた	-8.10983
木	-8.1103
外	-8.11076
内	-8.11076
にしたがって	-8.11078
に言われた	-8.11275
合	-8.11723
像	-8.11724
君	-8.11724
であり	-8.11964
ものは	-8.12041
れば	-8.12202
同	-8.12273
のもとに	-8.123
連れて	-8.12395
出し	-8.12941
光	-8.13024
▁すなわち	-8.13038
パロ	-8.13137
つく	-8.1339
信じ	-8.13445
場	-8.13611
獣	-8.13695
っていた	-8.13871
主は言われる	-8.13923
ヨセフ	-8.14027
▁イエスは	-8.14251
心に	-8.14289
子を	-8.14313
燔祭	-8.14695
荒野	-8.1471
エリ	-8.148
なぜ	-8.14824
断	-8.1503
からだ	-8.15314
とし	-8.15356
祝福	-8.15367
同じ	-8.15474
ではないか	-8.15894
となる	-8.15961
ユダヤ人	-8.16061
▁あなたの	-8.16218
わたしたちの	-8.16295
良い	-8.16443
あった	-8.16901
ものである	-8.16969
ジ	-8.17411
過	-8.17756
畑	-8.17756
の娘	-8.17992
』。	-8.18022
信仰	-8.18105
るべき	-8.18172
ゲ	-8.18449
ペリシテびと	-8.18449
レビびと	-8.18842
よく	-8.18989
と一緒に	-8.19019
めた	-8.1902
野	-8.19131
そうすれば	-8.19498
おまえ	-8.19507
とする	-8.19577
アビ	-8.19694
だけ	-8.20332
前	-8.20394
けて	-8.20689
ないように	-8.20786
に向かって	-8.20914
戦	-8.21027
▁すると	-8.21105
皆	-8.21148
ではない	-8.21149
苦	-8.21269
フ	-8.21271
気	-8.21271
ほかの	-8.21315
歌	-8.2163
神が	-8.21837
他の	-8.21917
地を	-8.22055
しない	-8.22062
とその	-8.22104
国民	-8.22138
まず	-8.22538
ことごとく	-8.22539
ましょう	-8.22651
共に	-8.22947
えた	-8.23089
立	-8.23136
を見た	-8.23808
さばき	-8.23816
の前で	-8.23865
神に	-8.24047
者に	-8.24144
拝	-8.24544
られて	-8.24849
種	-8.24915
になって	-8.25007
道を	-8.25033
に告げ	-8.25399
帰って	-8.25417
神を	-8.25512
きなさい	-8.2557
があった	-8.25701
罪を	-8.25707
があり	-8.25728
かれ	-8.26332
ゆえ	-8.26366
を捨て	-8.2641
の木	-8.26464
そこ	-8.26529
つか	-8.26655
と言う	-8.26768
ノ	-8.26787
アブラハム	-8.26787
ることを	-8.26889
一つの	-8.27091
はみな	-8.27421
衆	-8.27504
せよ	-8.27552
尋ね	-8.27928
災	-8.27928
次	-8.27928
箱	-8.28696
これに	-8.28846
このように	-8.29101
るために	-8.29373
当	-8.2947
部	-8.29826
われわれの	-8.29828
破	-8.29859
▁その時	-8.29868
正しい	-8.30059
もまた	-8.30325
主の前に	-8.30406
ばれ	-8.30479
目に	-8.30502
を求め	-8.30641
そこで	-8.30745
人の子	-8.30758
娘	-8.30767
では	-8.30968
ここに	-8.30972
ではなく	-8.30989
なし	-8.31693
送	-8.31827
十二	-8.3196
ってはならない	-8.32302
門	-8.32376
んでいる	-8.32402
滅び	-8.32751
ひとりの	-8.32825
ませ	-8.32825
聖	-8.32871
弟子たち	-8.33027
どうぞ	-8.33035
ぶどう	-8.3306
上って	-8.33066
教え	-8.33136
のだ	-8.33541
くだ	-8.33675
死んだ	-8.34132
きょう	-8.34242
柱	-8.34242
のうちから	-8.3426
を行う	-8.3427
答え	-8.34406
アロン	-8.34823
告げ	-8.35363
ぬ	-8.35396
ピ	-8.35471
開	-8.35471
通	-8.35472
らない	-8.35522
むべき	-8.35704
どうか	-8.35976
住む	-8.36006
ったので	-8.36065
戦い	-8.36159
二十	-8.362
隠	-8.36299
にあって	-8.36498
捕	-8.36583
信	-8.36609
嗣業	-8.36716
滅ぼし	-8.3672
の門	-8.36977
こうして	-8.37095
しなさい	-8.3737
べき	-8.37523
ヨシュア	-8.37554
用	-8.37555
ビ	-8.37658
偽り	-8.37732
子供	-8.38289
自	-8.38446
主の宮	-8.38483
しるし	-8.38706
はいって	-8.38813
だれが	-8.39035
エルサレムに	-8.39238
投げ	-8.39255
声を	-8.39337
となった	-8.3943
愚	-8.39682
悟	-8.39682
強	-8.39699
仰せ	-8.39703
いだ	-8.3977
かれた	-8.39876
に従って	-8.4008
殺した	-8.40113
意	-8.40547
目を	-8.40603
あかし	-8.40615
戒め	-8.40649
あり	-8.40689
になる	-8.40746
▁これは	-8.40771
ボ	-8.40981
作	-8.40982
恥	-8.41418
自身	-8.41766
返	-8.41857
供え物	-8.42298
づけ	-8.4235
先祖	-8.42492
まだ	-8.42531
守	-8.42599
する者	-8.42616
病	-8.43182
パウロ	-8.43184
働	-8.43184
逃げ	-8.43631
をことごとく	-8.43846
ズ	-8.44079
風	-8.44079
人々が	-8.44213
しめ	-8.44236
彼女は	-8.44365
土	-8.44529
聖所	-8.45007
は皆	-8.45138
重	-8.45435
体	-8.45436
夫	-8.45436
をも	-8.45537
酒	-8.45869
おられる	-8.46047
仕	-8.46089
悪い	-8.46183
満	-8.46222
ッ	-8.46349
あるいは	-8.46904
満ち	-8.46943
いで	-8.47279
救い	-8.473
と言って	-8.47396
争	-8.47741
ささげる	-8.47826
らず	-8.48318
入	-8.48322
右	-8.48677
わり	-8.48742
食物	-8.49109
度	-8.49149
東	-8.49149
多く	-8.49154
しなければならない	-8.49215
おく	-8.49388
国々	-8.49404
馬	-8.49623
奪	-8.49623
を取って	-8.49963
罰	-8.50099
朝	-8.501
会衆	-8.50152
のゆえに	-8.50181
報い	-8.50359
正	-8.50458
証	-8.50578
▁見よ	-8.50599
望	-8.50726
ほめ	-8.50825
にいる	-8.50953
ようになる	-8.51016
グ	-8.51058
モアブ	-8.51058
からです	-8.51186
者である	-8.51197
を攻め	-8.51542
死ぬ	-8.5163
のところに	-8.52088
イスラエルの神	-8.52163
イスラエルの王	-8.52205
再び	-8.5252
してください	-8.52701
殺され	-8.5289
主の言葉	-8.53485
耳	-8.53497
顔を	-8.53643
させる	-8.53784
富	-8.53993
の子たち	-8.54085
すぐ	-8.54098
ついに	-8.54192
答えて	-8.54216
の子ら	-8.54661
殺し	-8.54926
づ	-8.55432
ヨルダン	-8.55493
の中から	-8.55783
の中で	-8.55841
出して	-8.55925
深	-8.55997
頼	-8.55998
麦	-8.55998
るもの	-8.56127
受け	-8.56155
いない	-8.56666
八	-8.57528
の間に	-8.57615
ることはない	-8.5766
ながら	-8.57698
感謝	-8.58043
無	-8.58043
獲	-8.58044
泣	-8.58044
諸	-8.58044
害	-8.58044
これらは	-8.58231
言いなさい	-8.58258
してはならない	-8.58305
など	-8.58455
谷	-8.58562
う者	-8.58737
の子らは	-8.59004
知っている	-8.59314
▁それで	-8.59482
数え	-8.59802
得	-8.6014
臨	-8.60152
願い	-8.60197
教	-8.60476
歳	-8.60661
エフライム	-8.60662
悪しき者	-8.60662
幕屋	-8.60666
神々	-8.60674
下って	-8.60964
▁神は	-8.61072
宿営	-8.61197
させた	-8.61353
もとに	-8.61475
それで	-8.6181
油を	-8.6192
あらわ	-8.61952
ユダの王	-8.62045
動	-8.62266
ベニヤミン	-8.62267
▁ところが	-8.62316
』」。	-8.62457
すでに	-8.6249
ヒ	-8.62572
工	-8.62807
知らない	-8.62906
るでしょう	-8.62986
流	-8.63017
成	-8.6335
ペテロ	-8.63896
バル	-8.63989
知らせ	-8.6425
来て	-8.6428
主である	-8.64322
庭	-8.64445
兵	-8.64446
造った	-8.64673
先祖たち	-8.64766
ない者	-8.64897
ロン	-8.64916
安	-8.64979
滅ぼす	-8.64999
の手から	-8.65061
おきて	-8.65309
あなたがたの神	-8.65479
願	-8.65486
軍	-8.65547
穴	-8.65554
利	-8.65554
分け	-8.65939
のうちで	-8.66062
語り	-8.66246
ころ	-8.66657
明	-8.66674
台	-8.66675
主人	-8.66847
ベル	-8.67179
万軍の主	-8.67311
されて	-8.67338
のがれ	-8.67375
切り	-8.67757
北	-8.67807
放	-8.67808
らなかった	-8.68141
糸	-8.68379
雲	-8.68379
シオン	-8.6838
小羊	-8.6841
うちに	-8.68512
ることができる	-8.68557
すべての民	-8.68691
しよう	-8.68752
なんの	-8.68782
の氏族	-8.68945
除	-8.68954
権	-8.68954
切	-8.69004
答えた	-8.69226
ほど	-8.69287
解	-8.70113
みずから	-8.70127
二つの	-8.70216
荒	-8.70476
はならない	-8.70543
魂	-8.70698
寝	-8.70698
淫	-8.70698
布	-8.70699
どんな	-8.707
望み	-8.71105
ことができない	-8.71193
境	-8.71286
暗	-8.71286
天幕	-8.71325
ろば	-8.71717
バビロン	-8.71834
親	-8.71877
を聞いた	-8.71878
乳	-8.71878
荒れ	-8.72076
があって	-8.72116
の下に	-8.72352
広	-8.72473
少	-8.72473
不義	-8.72544
による	-8.72595
を知る	-8.72682
初め	-8.72825
アル	-8.72826
負	-8.72864
現れ	-8.72909
打	-8.72943
息	-8.73072
洗	-8.73072
戸	-8.73072
三十	-8.73101
絶え	-8.73413
顔	-8.73496
真実	-8.73698
雄羊	-8.73705
罪を犯し	-8.7428
側	-8.74281
▁それから	-8.74331
油	-8.74671
嘆	-8.7489
囲	-8.7489
の周囲	-8.74891
備え	-8.74959
アヒ	-8.75156
わず	-8.75239
を守る	-8.75321
この事	-8.7539
いつくしみ	-8.75503
ツ	-8.75503
家畜	-8.75505
かれる	-8.75636
命じられた	-8.75854
空	-8.76121
務	-8.76121
勝	-8.76121
滅ぼされ	-8.76123
を捕え	-8.76319
殿	-8.76742
変	-8.76742
夕	-8.76743
ほかに	-8.76811
一頭	-8.77127
岩	-8.77367
様	-8.77367
言われる	-8.77847
もはや	-8.78201
どう	-8.78388
において	-8.78402
清	-8.78528
楽	-8.78627
常	-8.78629
ヨアブ	-8.78629
牧	-8.7863
サムエル	-8.79266
マナセ	-8.79266
異邦人	-8.79266
良	-8.79796
られます	-8.79848
老	-8.79906
ヨハネ	-8.79907
官	-8.79907
決	-8.79907
僕	-8.79907
つかさたち	-8.80409
主なる神	-8.80557
この地	-8.80825
弟	-8.81193
エレミヤ	-8.81201
皮	-8.81201
買	-8.81202
怒	-8.81329
出す	-8.81511
王たち	-8.81514
ヅ	-8.81855
約束	-8.81862
前から	-8.82018
小	-8.82475
別	-8.82506
墓	-8.82513
青銅	-8.82513
散	-8.82513
とこしえに	-8.82513
宝	-8.82513
シケル	-8.82513
安息日	-8.82513
大きな	-8.82524
雄牛	-8.82543
誇	-8.83175
なければ	-8.83176
ゆ	-8.83456
ある者	-8.83577
平	-8.83818
イサク	-8.83842
葬	-8.83842
あわれみ	-8.83847
引	-8.8388
バアル	-8.83944
連	-8.84474
強く	-8.84486
召	-8.84513
驚	-8.84513
苦しみ	-8.84516
軍勢	-8.84518
御使	-8.84617
売	-8.85189
勇士	-8.85192
ないでください	-8.85208
持ち	-8.85311
汚れ	-8.85321
ることがない	-8.85626
半	-8.85868
長老たち	-8.85869
落ち	-8.85967
かしら	-8.85973
善	-8.86553
ギレアデ	-8.86554
果	-8.86554
はずかしめ	-8.86554
降	-8.86554
の入口	-8.86571
セラ	-8.86975
全地	-8.87186
消	-8.87244
憤	-8.87938
ギ	-8.87938
張	-8.87938
アサ	-8.87974
起き	-8.87985
汚れた	-8.8804
となって	-8.8818
祭司たち	-8.88248
恐	-8.88429
言え	-8.88502
隊	-8.88637
位	-8.88638
尊	-8.88638
つかさ	-8.88678
あなたがたのうち	-8.88812
すべての人	-8.88834
流れ	-8.89068
われわれの神	-8.89206
確	-8.89341
エドム	-8.89341
むすこ	-8.8936
ごとに	-8.89401
他	-8.89484
若い	-8.8975
の名は	-8.9038
彼らに言った	-8.90459
雄	-8.90695
それゆえ	-8.90718
労	-8.90764
踏	-8.90765
角	-8.90765
だからである	-8.90834
あがない	-8.90837
見え	-8.90904
ことができる	-8.90907
生れた	-8.91045
持	-8.9133
ダン	-8.91444
城壁	-8.91487
加え	-8.91649
彼に言った	-8.9177
追	-8.91782
その上に	-8.92107
役	-8.92209
ゴ	-8.92209
眠	-8.92209
ヒゼキヤ	-8.92209
合わせて	-8.9221
割礼	-8.92211
たとい	-8.92298
取った	-8.92404
衣	-8.92926
サマリヤ	-8.92939
鳥	-8.92939
相	-8.92939
衣服	-8.92951
ありません	-8.92965
を治め	-8.93012
多	-8.93258
このような	-8.93566
傷	-8.93674
枝	-8.93674
場所	-8.93861
伝え	-8.94116
理	-8.94407
会見の幕屋	-8.94415
花	-8.94415
ことはできない	-8.94415
その中に	-8.94539
好	-8.95161
難	-8.95161
公	-8.95162
南	-8.95162
訴え	-8.95354
領	-8.95913
骨	-8.95913
納	-8.95914
復	-8.95914
指	-8.95914
知識	-8.95914
素祭	-8.95915
おおい	-8.96032
四十	-8.96047
村	-8.9667
ヨナタン	-8.96671
大いに	-8.96759
すること	-8.96895
上げ	-8.96919
ささげなければならない	-8.97179
イスラエルの家	-8.97228
妹	-8.97434
いのち	-8.9808
首	-8.98203
非常に	-8.98203
さいわい	-8.98204
清め	-8.98326
を愛し	-8.98759
服	-8.98965
問	-8.98978
舟	-8.98978
戦車	-8.98998
迎え	-8.99033
自分たち	-8.99043
エリシャ	-8.99111
ことができよう	-8.99289
保	-8.9976
滅	-9.00291
すべき	-9.00445
悲	-9.00546
移	-9.00547
威	-9.00547
栄え	-9.00773
堅く	-9.0081
エジプトびと	-9.00944
毛	-9.01341
エリヤ	-9.01975
弱	-9.02141
見ると	-9.02153
愛する者	-9.02259
罪祭	-9.02361
所へ	-9.02846
ポ	-9.02947
留	-9.02948
昼	-9.02948
しえたげ	-9.02948
ラッパ	-9.02949
立つ	-9.02949
者ども	-9.03185
陣	-9.0376
友	-9.0376
失	-9.0376
福音	-9.03763
新しい	-9.03801
若者	-9.04058
徒	-9.04555
熱	-9.0458
逆	-9.0458
草	-9.0458
配	-9.0458
着物	-9.05354
陰	-9.05406
刈	-9.05407
悲しみ	-9.05408
平安	-9.05427
遠く	-9.05717
舌	-9.06239
ぶどう酒	-9.06283
により	-9.06365
白	-9.0708
続	-9.0708
に臨んだ	-9.07127
正しい者	-9.07635
告	-9.07894
字	-9.07928
記	-9.07928
雨	-9.07928
教会	-9.07997
両	-9.08782
アブサロム	-9.08783
命令	-9.08793
所有	-9.08803
を造り	-9.09025
汚	-9.09157
にとどま	-9.09543
よみがえ	-9.09645
わざわい	-9.09715
かえって	-9.0979
ゆるし	-9.09812
ることができ	-9.10141
は次のとおりである	-9.10514
法	-9.10514
ぞ	-9.11375
いつまで	-9.11408
となるであろう	-9.11759
話し	-9.11791
異	-9.13168
てくれ	-9.13176
ばかり	-9.1322
どこに	-9.13793
落	-9.1394
宿	-9.14063
主はこう言われる	-9.14073
さらに	-9.14651
宣べ伝え	-9.14978
待ち	-9.15098
万軍の	-9.15786
屋	-9.15888
主なる神はこう言われる	-9.15896
バビロンの王	-9.15965
あります	-9.15987
青	-9.17757
報	-9.2009
礼	-9.21584
待	-9.23426
貧	-9.23554
話	-9.25106
ぜ	-9.2619
激	-9.26506
栄	-9.3044
計	-9.32937
車	-9.34009
議	-9.34037
遠	-9.34729
真	-9.37349
プ	-9.37407
幕	-9.38469
音	-9.39715
供	-9.40025
初	-9.40202
治	-9.44389
ソ	-9.45744
偽	-9.46468
堅	-9.46578
宣	-9.49543
定	-9.49769
学	-9.50839
若	-9.50918
離	-9.55054
現	-9.55213
対	-9.56106
兄	-9.56198
勇	-9.56207
和	-9.57586
隣	-9.5759
永	-9.576
祖	-9.61856
営	-9.61876
新	-9.69388
加	-9.75591
壁	-9.75969
葉	-9.84653
士	-9.88482
城	-9.88483
孫	-9.94205
福	-10.0061
絶	-10.0156
備	-10.0477
感	-10.0502
勢	-10.096
設	-10.1196
助	-10.1391
恵	-10.1654
答	-10.1866
仰	-10.1935
祝	-10.2213
建	-10.2437
非	-10.2484
有	-10.304
ー	-10.3644
束	-10.3954
急	-10.3954
受	-10.5256
令	-10.531
伝	-10.5838
戒	-10.5978
ユ	-10.7317
司	-10.8748
業	-10.9834
共	-11.041
割	-11.1046
覚	-11.151
緒	-11.2425
訴	-11.2993
投	-11.3194
再	-11.7037
逃	-11.7047
与	-11.948
銅	-12.1395
素	-12.3392
迎	-12.8956
識	-13.4222
慰	-14.4168
閉	-14.4169
要	-14.417
招	-14.4171
施	-14.4172
ゅ	-14.4173
忘	-14.4174
込	-14.4175
越	-14.4176
築	-14.4177
傾	-14.4178
授	-14.4179
燃	-14.418
偶	-14.4181
裂	-14.4182
奴	-14.4183
隷	-14.4184
払	-14.4185
吹	-14.4186
属	-14.4187
砕	-14.4188
伸	-14.4189
乗	-14.419
畜	-14.419
邦	-14.4191
最	-14.4192
周	-14.4193
以	-14.4194
犠	-14.4195
牲	-14.4196
―	-14.4197
互	-14.4198
及	-14.4199
賜	-14.42
必	-14.4201
選	-14.4202
携	-14.4203
伏	-14.4204
至	-14.4205
叫	-14.4206
燔	-14.4207
悩	-14.4208
注	-14.4209
氏	-14.421
契	-14.4211
憎	-14.4212
攻	-14.4213
導	-14.4214
倒	-14.4215
焼	-14.4216
犯	-14.4217
群	-14.4218
律	-14.4219
捨	-14.422
壇	-14.4221
求	-14.4222
集	-14.4223
向	-14.4224
尋	-14.4224
預	-14.4225
呼	-14.4226
ュ	-14.4227
ャ	-14.4228
ょ	-14.4229
謝	-14.4229
嗣	-14.423
聞	-14.423
