<pad>	0
</s>	0
<unk>	0
▁the	-3.12906
.	-3.24426
,	-3.40178
s	-3.71229
▁of	-3.76968
▁to	-3.93873
▁in	-4.01009
▁	-4.22129
▁and	-4.24532
▁a	-4.41957
▁is	-4.63108
ing	-4.72795
ed	-4.88311
▁The	-4.89049
▁be	-4.97178
▁for	-4.98015
-	-5.0951
▁are	-5.19016
e	-5.2135
▁that	-5.22204
▁has	-5.23115
▁have	-5.31628
▁on	-5.31637
▁with	-5.37692
'	-5.42788
t	-5.50923
▁will	-5.53262
y	-5.53897
▁from	-5.55449
▁corona	-5.61362
▁was	-5.64556
▁not	-5.66028
▁by	-5.71656
ly	-5.72352
al	-5.72828
▁been	-5.74469
d	-5.74995
▁patients	-5.78159
▁as	-5.79789
▁vaccine	-5.81753
▁this	-5.83188
▁at	-5.85224
▁or	-5.92671
▁said	-5.92765
▁A	-5.94032
▁it	-5.95515
▁"	-5.99214
▁(	-6.0089
▁people	-6.0152
▁government	-6.02984
o	-6.03317
n	-6.04548
▁also	-6.07103
▁In	-6.10611
▁state	-6.12335
?	-6.16292
▁were	-6.18127
▁number	-6.19706
ir	-6.23523
er	-6.23538
out	-6.28342
▁virus	-6.28867
▁can	-6.29789
▁w	-6.31257
in	-6.32792
l	-6.33372
▁Corona	-6.35349
▁an	-6.35853
m	-6.3718
▁should	-6.38595
a	-6.41194
p	-6.41972
)	-6.42449
▁Minister	-6.42727
▁S	-6.44323
▁had	-6.44806
i	-6.44995
c	-6.45404
▁C	-6.48061
▁there	-6.49857
-19	-6.50263
▁health	-6.50489
▁other	-6.52458
:	-6.56538
▁Maharashtra	-6.57809
▁oxygen	-6.57932
▁who	-6.58456
▁India	-6.59154
▁COVID	-6.5928
if	-6.60292
▁after	-6.6093
▁ab	-6.61548
g	-6.61752
r	-6.63213
b	-6.63725
▁you	-6.63769
▁I	-6.64081
▁all	-6.66738
u	-6.67693
es	-6.69116
▁more	-6.694
▁no	-6.70623
or	-6.70872
▁Dr	-6.71207
▁time	-6.71861
▁This	-6.72284
▁M	-6.73162
▁lockdown	-6.75702
▁than	-6.75876
▁But	-6.76232
▁we	-6.77132
▁infection	-6.79341
▁It	-6.81297
▁disease	-6.81831
▁vaccination	-6.82208
re	-6.84182
f	-6.84702
▁one	-6.85937
ar	-6.85984
k	-6.86572
▁Health	-6.86864
▁country	-6.86866
▁days	-6.87144
se	-6.88207
▁He	-6.8888
an	-6.88973
2	-6.89237
▁new	-6.8942
ic	-6.90035
▁per	-6.90502
▁being	-6.90581
hich	-6.9071
▁some	-6.91665
▁vaccines	-6.92226
▁B	-6.92279
▁P	-6.92486
▁these	-6.92723
CoV	-6.92821
ation	-6.94042
▁he	-6.94565
▁but	-6.94674
ur	-6.94773
▁first	-6.97953
▁many	-6.99283
▁so	-6.99345
on	-7.01287
▁found	-7.0311
h	-7.03598
▁may	-7.03825
▁re	-7.04079
▁'	-7.04877
▁two	-7.06019
▁do	-7.06916
▁get	-7.06933
th	-7.07306
▁last	-7.07401
▁day	-7.07968
▁second	-7.08053
en	-7.08608
▁cases	-7.0908
▁such	-7.09249
ion	-7.09655
▁use	-7.11242
▁On	-7.11483
▁March	-7.11712
sh	-7.11725
▁Mumbai	-7.1236
▁symptoms	-7.12468
▁SARS	-7.12696
▁hospital	-7.13066
▁hand	-7.13285
▁test	-7.13919
▁According	-7.14561
le	-7.14612
▁district	-7.14939
▁says	-7.15975
▁p	-7.16271
due	-7.16323
ers	-7.16718
▁out	-7.16799
▁given	-7.17114
▁situation	-7.17556
▁they	-7.18276
1	-7.19574
▁children	-7.19876
▁treatment	-7.20675
at	-7.20886
▁wave	-7.20925
it	-7.21459
st	-7.21495
hief	-7.21627
▁There	-7.22179
▁under	-7.22511
▁work	-7.22519
▁up	-7.22945
▁over	-7.23447
▁T	-7.23461
il	-7.23525
▁We	-7.23547
▁spread	-7.24283
ri	-7.25652
▁However	-7.25788
▁Covid	-7.26129
▁only	-7.26972
w	-7.27136
S	-7.27218
4	-7.27514
▁home	-7.28305
▁countries	-7.28874
▁your	-7.29131
▁available	-7.29733
▁take	-7.29785
C	-7.30517
▁As	-7.31295
▁need	-7.31821
▁infected	-7.31934
▁2020	-7.31943
▁April	-7.32275
▁If	-7.33013
▁any	-7.35217
▁f	-7.35254
▁F	-7.35371
▁during	-7.35661
id	-7.36221
▁5	-7.36933
▁against	-7.37012
▁risk	-7.37917
▁10	-7.37996
▁What	-7.38179
▁cent	-7.39152
A	-7.39397
▁when	-7.39516
I	-7.39527
;	-7.4003
▁now	-7.40168
ting	-7.40314
▁while	-7.40349
▁used	-7.40401
▁year	-7.40783
▁system	-7.41478
▁Pune	-7.41638
▁r	-7.42088
▁those	-7.42288
▁vaccinated	-7.42679
▁3	-7.42875
ment	-7.43366
▁G	-7.43395
ive	-7.4345
ent	-7.44343
ce	-7.4447
ch	-7.45813
▁taken	-7.45885
▁his	-7.46029
."	-7.46305
▁medical	-7.46345
▁Thackeray	-7.46963
▁public	-7.48016
▁reported	-7.4852
-2	-7.48534
▁coronavirus	-7.48638
▁through	-7.48742
▁hospitals	-7.49716
ther	-7.50004
▁even	-7.50175
▁outbreak	-7.5151
▁7	-7.51759
▁large	-7.51868
ould	-7.52196
▁made	-7.52693
▁b	-7.53119
▁-	-7.53263
▁restrictions	-7.53322
▁how	-7.53667
▁care	-7.54639
ha	-7.55093
▁China	-7.55153
▁world	-7.55515
ro	-7.56519
▁patient	-7.57255
▁beds	-7.57501
P	-7.57666
▁lakh	-7.57787
ad	-7.57855
6	-7.58634
▁So	-7.58651
▁workers	-7.58925
ter	-7.59132
ul	-7.5979
▁current	-7.60097
um	-7.60395
▁age	-7.60518
"	-7.60878
▁go	-7.60955
▁like	-7.61258
▁including	-7.613
fter	-7.61761
▁covid	-7.61814
▁Hospital	-7.62065
la	-7.62099
▁announced	-7.62143
▁areas	-7.63478
5	-7.6366
E	-7.64193
▁important	-7.64483
▁started	-7.65755
▁information	-7.66135
▁come	-7.66239
▁most	-7.66814
v	-7.67315
▁them	-7.67353
▁well	-7.67901
▁its	-7.68285
▁increase	-7.68322
▁E	-7.68462
ol	-7.68636
▁co	-7.68877
▁what	-7.69065
9	-7.69104
te	-7.69325
▁same	-7.69492
▁increased	-7.69812
▁high	-7.70131
ity	-7.70646
▁1	-7.70816
▁8	-7.70852
ate	-7.70871
▁closed	-7.71363
▁our	-7.71664
▁did	-7.71715
,000	-7.718
▁2	-7.71923
am	-7.72026
7	-7.72287
▁years	-7.72342
▁testing	-7.7236
▁contact	-7.73095
▁help	-7.73213
ta	-7.73727
▁rate	-7.73758
▁positive	-7.73899
▁K	-7.73931
▁doctors	-7.73934
M	-7.74021
▁decision	-7.74317
▁respirator	-7.74319
ies	-7.74458
▁supply	-7.74767
▁increasing	-7.7522
▁few	-7.75221
▁tests	-7.75608
/	-7.75674
8	-7.75714
very	-7.75801
▁city	-7.76168
▁effective	-7.76205
▁body	-7.76211
▁9	-7.76329
▁20	-7.76422
▁case	-7.76508
▁crore	-7.7659
▁administration	-7.76596
▁meeting	-7.77194
▁de	-7.77249
▁million	-7.77514
D	-7.77655
▁N	-7.77942
▁Sa	-7.78162
▁between	-7.78448
vi	-7.78514
▁D	-7.78607
▁Center	-7.78831
▁travel	-7.78958
▁where	-7.78998
▁hands	-7.79325
▁person	-7.79746
▁Uddhav	-7.79861
us	-7.80251
▁4	-7.80256
3	-7.80362
▁6	-7.80402
▁prevent	-7.80731
▁data	-7.80817
un	-7.81133
▁drug	-7.81244
▁present	-7.81497
is	-7.81498
▁students	-7.81615
▁Modi	-7.81787
T	-7.82479
▁into	-7.82864
▁deaths	-7.83113
▁died	-7.8335
om	-7.83798
▁Delhi	-7.84231
▁states	-7.8427
ndra	-7.84397
▁make	-7.84761
▁report	-7.8504
▁could	-7.85277
).	-7.8544
▁does	-7.86036
▁central	-7.86477
▁three	-7.86743
▁school	-7.86865
▁around	-7.86977
ist	-7.86983
ra	-7.8705
),	-7.8708
▁before	-7.87254
▁period	-7.87254
▁death	-7.87405
▁dose	-7.87653
▁set	-7.87785
▁At	-7.88128
▁citizens	-7.88245
▁BBC	-7.88282
▁Wh	-7.88319
▁Prim	-7.89329
▁e	-7.90103
0	-7.90157
▁me	-7.90291
▁19	-7.90503
▁say	-7.90763
▁UK	-7.90909
ten	-7.91027
▁L	-7.91848
▁campaign	-7.91967
op	-7.92028
▁For	-7.92154
▁severe	-7.92258
The	-7.9257
▁social	-7.93097
▁doses	-7.93452
N	-7.9388
el	-7.93883
wa	-7.94294
▁include	-7.94365
mp	-7.94475
▁study	-7.94684
▁different	-7.94686
▁private	-7.94691
▁U	-7.94836
cross	-7.9524
▁Unit	-7.95252
▁every	-7.95282
▁hours	-7.95296
▁d	-7.96129
▁shortage	-7.96363
▁12	-7.96374
▁Re	-7.96514
ti	-7.9666
▁control	-7.9729
▁education	-7.97478
▁January	-7.97583
and	-7.97664
▁allowed	-7.97763
li	-7.98776
▁provide	-7.98964
▁possible	-7.99193
▁tested	-7.99245
▁Institute	-7.9977
▁rules	-7.99806
ve	-7.99845
▁R	-7.99966
▁cause	-8.00005
▁local	-8.00936
ac	-8.00981
tion	-8.01004
▁working	-8.01122
R	-8.01523
▁open	-8.01526
▁15	-8.01798
▁app	-8.0194
▁then	-8.02008
▁Rs	-8.02319
ho	-8.02606
im	-8.02642
▁mask	-8.02672
z	-8.02834
▁Raje	-8.03087
▁washing	-8.03314
▁un	-8.03714
▁c	-8.04188
ural	-8.04474
ile	-8.04505
▁far	-8.04554
unicipal	-8.05709
▁center	-8.06157
▁schools	-8.06832
refore	-8.0698
▁Some	-8.07155
▁Co	-8.07178
▁whe	-8.07341
▁develop	-8.0748
▁Government	-8.07675
▁February	-8.08295
▁24	-8.08306
▁show	-8.09264
ne	-8.09322
▁reach	-8.09551
ll	-8.09593
▁level	-8.09789
▁Many	-8.09823
▁week	-8.09937
▁An	-8.09992
ia	-8.10217
▁May	-8.10219
▁States	-8.10223
▁thousand	-8.10278
▁area	-8.10676
▁company	-8.1079
ary	-8.10845
▁called	-8.11186
▁14	-8.11315
▁human	-8.11839
▁11	-8.11904
able	-8.11941
▁W	-8.12023
▁m	-8.12074
▁developed	-8.12236
ut	-8.12533
peaking	-8.12715
▁affected	-8.1316
ma	-8.13172
▁pandemic	-8.13413
age	-8.13422
▁place	-8.13649
▁Union	-8.14099
▁va	-8.14271
ance	-8.14466
▁using	-8.14735
▁blood	-8.14751
▁regard	-8.14751
▁held	-8.14753
▁total	-8.16029
▁become	-8.16112
▁because	-8.16115
▁start	-8.16504
▁demand	-8.16714
ig	-8.16718
▁low	-8.16741
▁seen	-8.16956
ated	-8.17099
▁both	-8.17127
▁continue	-8.17489
00	-8.17515
▁still	-8.17516
▁masks	-8.17528
▁O	-8.1768
▁result	-8.17828
▁measures	-8.18082
▁since	-8.18176
▁g	-8.18476
▁30	-8.18477
▁don	-8.18497
▁transmission	-8.18875
▁much	-8.18876
▁months	-8.19952
▁done	-8.20242
▁process	-8.20289
▁response	-8.21003
▁four	-8.21004
▁heart	-8.21041
▁clinical	-8.21128
▁V	-8.21128
▁percent	-8.21693
taking	-8.21727
▁among	-8.21886
till	-8.22047
▁down	-8.22457
▁18	-8.22578
▁less	-8.22582
▁today	-8.2268
▁Indian	-8.22945
▁Kovid	-8.23177
▁phase	-8.23178
▁face	-8.23358
na	-8.23549
▁production	-8.23956
▁Ministry	-8.24653
▁population	-8.24653
j	-8.24688
▁50	-8.24755
ical	-8.24806
▁question	-8.25209
▁Nagpur	-8.25399
▁soap	-8.25455
▁emergency	-8.25463
▁sent	-8.25483
▁going	-8.25595
▁places	-8.25884
▁research	-8.26068
▁avoid	-8.26151
▁third	-8.26151
▁order	-8.26176
▁WHO	-8.2654
▁next	-8.26909
▁surveillance	-8.26909
▁media	-8.27101
▁higher	-8.27255
rious	-8.2744
tic	-8.27888
▁doctor	-8.28329
▁samples	-8.28526
▁known	-8.28644
▁When	-8.2871
▁World	-8.29217
▁State	-8.29227
▁asked	-8.29228
▁imposed	-8.29344
▁issued	-8.29412
▁end	-8.29583
▁reduce	-8.2987
▁How	-8.30772
▁All	-8.30787
▁Tope	-8.30805
▁according	-8.30846
▁five	-8.30943
▁fight	-8.31579
▁support	-8.31579
ect	-8.31922
ness	-8.32062
though	-8.32511
▁long	-8.32539
▁another	-8.32601
▁Al	-8.32763
▁experts	-8.32891
▁conditions	-8.32984
ab	-8.33011
▁remain	-8.33186
▁stay	-8.33358
est	-8.33721
▁serious	-8.34002
ant	-8.34556
O	-8.34661
▁crisis	-8.34818
▁keep	-8.34818
▁told	-8.34869
B	-8.34992
▁further	-8.35645
▁fever	-8.35682
▁approved	-8.35761
hi	-8.3582
▁likely	-8.3634
▁fire	-8.36527
▁No	-8.36951
▁early	-8.37319
▁good	-8.3737
▁To	-8.3751
▁H	-8.37647
ak	-8.37745
▁air	-8.38026
lying	-8.38052
▁protect	-8.38082
▁family	-8.38166
▁police	-8.38166
▁small	-8.38166
▁staff	-8.38166
▁Serum	-8.38166
%	-8.38172
kar	-8.38179
▁services	-8.38234
▁addition	-8.38405
▁J	-8.38421
▁trials	-8.38642
▁pro	-8.38673
▁Organization	-8.3902
▁yet	-8.39021
▁least	-8.39034
▁rapidly	-8.39155
ions	-8.39274
▁again	-8.398
di	-8.39835
▁Corporation	-8.39882
▁water	-8.39888
lu	-8.39966
har	-8.40128
▁coronary	-8.40216
me	-8.40678
▁Chinese	-8.40915
▁group	-8.40938
▁non	-8.41453
▁part	-8.41485
▁admitted	-8.41629
▁essential	-8.41641
▁US	-8.41741
▁distance	-8.41754
▁department	-8.41829
▁condition	-8.41848
as	-8.41933
▁And	-8.42202
▁my	-8.42205
▁strain	-8.42514
▁University	-8.42533
▁Ra	-8.4274
▁difficult	-8.43362
▁touch	-8.43414
qu	-8.43414
F	-8.43743
ty	-8.43914
▁know	-8.44977
▁closures	-8.45112
mm	-8.45221
▁him	-8.45249
-19.	-8.45362
▁am	-8.4562
▁Medic	-8.45827
▁centers	-8.46311
ide	-8.46378
based	-8.46516
ke	-8.46712
▁us	-8.46806
▁form	-8.46875
▁Ka	-8.46905
▁global	-8.4706
▁similar	-8.4706
▁host	-8.47063
tra	-8.47081
up	-8.4718
▁People	-8.47317
de	-8.47486
x	-8.47599
V	-8.47671
to	-8.47956
▁common	-8.47995
▁epidemic	-8.47995
▁each	-8.4803
▁she	-8.48229
not	-8.48935
▁Pradesh	-8.48938
▁house	-8.48939
ver	-8.48964
H	-8.4935
ally	-8.495
iv	-8.49602
▁h	-8.49793
▁six	-8.49903
▁lack	-8.49908
ial	-8.49957
▁Nare	-8.49976
line	-8.5016
ine	-8.50186
▁month	-8.50345
▁con	-8.5042
▁wear	-8.50484
▁close	-8.50535
ip	-8.50586
▁weeks	-8.50644
▁critical	-8.50852
▁women	-8.50853
▁way	-8.50868
ous	-8.51046
▁relat	-8.51357
▁coming	-8.51399
▁based	-8.51423
▁action	-8.51717
▁immune	-8.51823
▁pain	-8.51824
▁community	-8.51825
▁June	-8.51839
▁follow	-8.52124
G	-8.52301
▁village	-8.52309
▁infections	-8.52707
▁16	-8.52791
▁Ba	-8.528
▁Wuhan	-8.52929
▁Even	-8.53004
▁want	-8.53296
▁quarantine	-8.53704
ry	-8.53814
▁back	-8.53838
▁decided	-8.53912
▁parents	-8.5403
▁sever	-8.54229
▁ra	-8.5445
▁capacity	-8.54794
▁highest	-8.54852
▁development	-8.54889
▁give	-8.5493
▁You	-8.54964
old	-8.55124
▁required	-8.55199
▁general	-8.55804
▁Also	-8.55811
ted	-8.56238
ard	-8.56323
▁companies	-8.56824
▁Bharat	-8.56824
cute	-8.56853
▁antibodies	-8.56868
▁name	-8.56897
▁young	-8.56943
▁expected	-8.56962
▁Biotech	-8.57278
cr	-8.57322
▁1.	-8.574
▁see	-8.57663
▁200	-8.57723
▁De	-8.5783
▁BJP	-8.57855
▁daily	-8.57855
▁chest	-8.57856
▁cold	-8.57929
pe	-8.57978
▁received	-8.58055
▁conducted	-8.58186
▁l	-8.58397
ya	-8.58608
▁effects	-8.58697
▁evidence	-8.58897
▁safety	-8.58918
▁flu	-8.58976
ase	-8.59259
▁Ch	-8.59279
▁confirmed	-8.59297
▁Ja	-8.59719
▁clear	-8.5995
▁post	-8.5995
▁South	-8.59951
va	-8.60299
▁her	-8.60404
▁reason	-8.60449
ors	-8.60838
▁Marathi	-8.61013
▁ICU	-8.61013
▁half	-8.61015
▁here	-8.61061
▁MERS	-8.61181
▁night	-8.61261
▁growing	-8.61364
▁market	-8.618
▁came	-8.61947
▁find	-8.62069
▁Amravati	-8.62088
▁Pawar	-8.62089
▁Centr	-8.62113
▁main	-8.62202
▁viruses	-8.62439
▁lives	-8.62444
ian	-8.62669
▁able	-8.62874
▁New	-8.6291
▁provided	-8.6296
▁relatives	-8.62976
▁tr	-8.6306
▁Do	-8.63069
▁Europe	-8.63175
ish	-8.63227
▁results	-8.63723
han	-8.63902
ially	-8.64077
▁visit	-8.64274
▁why	-8.64278
▁cities	-8.64299
▁Pra	-8.64313
▁cost	-8.64493
▁ventilators	-8.64617
espec	-8.64789
▁Meanwhile	-8.65385
▁look	-8.65385
▁Italy	-8.65398
▁active	-8.65417
ence	-8.65418
▁train	-8.6562
▁online	-8.65967
▁national	-8.65994
▁humans	-8.66197
the	-8.66271
▁check	-8.66509
▁strict	-8.66509
▁appear	-8.6651
▁outside	-8.66516
▁letter	-8.6652
▁treat	-8.66816
▁shops	-8.67117
We	-8.67509
av	-8.67526
▁safe	-8.67622
▁facilities	-8.67645
▁think	-8.67645
▁National	-8.67646
▁enter	-8.67719
▁force	-8.67745
▁full	-8.67848
ng	-8.67934
▁registered	-8.67976
▁100	-8.68151
▁dis	-8.68794
▁everyone	-8.68832
▁free	-8.6947
▁inter	-8.69814
▁service	-8.69864
▁taluka	-8.69958
▁2019	-8.6998
hu	-8.69996
▁immediately	-8.70091
▁spreading	-8.70266
▁recommend	-8.70365
▁caus	-8.70413
▁experience	-8.70965
▁challenge	-8.71134
▁right	-8.71134
▁room	-8.71136
▁away	-8.71144
pur	-8.71264
▁persons	-8.71271
▁problems	-8.71443
▁took	-8.71746
▁sp	-8.7221
▁HCoV	-8.72415
▁December	-8.72531
con	-8.72583
▁She	-8.72588
war	-8.72968
▁considered	-8.73004
he	-8.73328
▁major	-8.73483
▁Na	-8.73821
▁head	-8.73837
▁crowd	-8.73983
ack	-8.74055
▁officials	-8.74149
▁diseases	-8.74186
▁17	-8.74206
▁following	-8.74638
▁contain	-8.74689
▁necessary	-8.74749
▁negative	-8.74749
▁sector	-8.74749
▁stop	-8.7475
▁viral	-8.74753
▁released	-8.74927
0%	-8.7496
▁Su	-8.75076
▁Dur	-8.75116
▁anti	-8.75198
▁affect	-8.75219
▁needed	-8.7548
▁districts	-8.75684
ach	-8.75804
ublic	-8.75904
▁special	-8.75966
▁Pfizer	-8.75983
▁pneumonia	-8.75983
▁illness	-8.76002
▁31	-8.76021
less	-8.76104
,"	-8.7618
ized	-8.7622
▁needs	-8.76286
▁call	-8.76494
od	-8.76583
▁Ro	-8.76642
▁influenza	-8.77233
▁fear	-8.77236
▁review	-8.77246
gra	-8.77263
▁big	-8.77335
end	-8.77414
▁ex	-8.77978
▁Vi	-8.78119
▁produce	-8.78257
▁issue	-8.78285
▁change	-8.78285
▁enough	-8.78499
▁feel	-8.785
▁undergo	-8.78536
ake	-8.78546
▁just	-8.78561
▁al	-8.78577
▁25	-8.78608
▁others	-8.78626
vel	-8.79103
▁recommended	-8.79331
▁40	-8.79707
▁suspect	-8.79781
▁2021	-8.79782
▁mortality	-8.79785
▁having	-8.79785
ble	-8.79786
▁1,	-8.79863
ash	-8.79902
▁Now	-8.79905
ap	-8.80234
▁Ma	-8.80358
L	-8.80397
▁unti	-8.80548
▁declining	-8.8108
▁genome	-8.8108
▁guidelines	-8.8108
▁mild	-8.81081
▁near	-8.81083
▁writ	-8.81113
▁informed	-8.81388
▁tri	-8.81722
▁man	-8.81763
▁pm	-8.81983
▁lead	-8.8218
▁22	-8.82273
▁task	-8.82396
▁Remedesivir	-8.82465
▁own	-8.8257
co	-8.82745
pite	-8.82895
▁learning	-8.82944
▁60	-8.83593
▁Man	-8.83688
▁effect	-8.83927
▁type	-8.83978
▁Di	-8.84017
▁ACE	-8.84122
▁means	-8.84262
▁consider	-8.84314
▁date	-8.84387
ok	-8.84392
▁Pre	-8.84507
tric	-8.84692
ge	-8.84722
▁transport	-8.84982
▁covacin	-8.85081
▁food	-8.8514
▁later	-8.85233
▁happen	-8.85677
com	-8.85899
led	-8.86026
ep	-8.86327
▁short	-8.86421
▁senior	-8.8645
▁pay	-8.86454
▁side	-8.86506
▁cells	-8.86639
▁pre	-8.86722
▁examination	-8.86788
▁implemented	-8.86797
▁One	-8.86865
▁cough	-8.86935
ath	-8.87103
gen	-8.87516
▁Oxford	-8.87839
▁impact	-8.8784
▁lot	-8.87845
▁Ab	-8.87861
▁September	-8.87955
▁run	-8.88021
▁require	-8.8818
▁questions	-8.88195
▁lung	-8.88202
▁concern	-8.88475
vir	-8.88543
▁passengers	-8.88559
▁21	-8.88716
▁levels	-8.88966
▁District	-8.89248
▁application	-8.89248
▁hotel	-8.89248
▁survey	-8.89248
▁above	-8.89249
▁Vaccination	-8.89252
▁began	-8.89256
▁example	-8.89257
▁mus	-8.89553
▁28	-8.90074
▁St	-8.9009
nt	-8.90223
▁23	-8.90307
▁class	-8.90536
▁13	-8.90657
▁prevalen	-8.90676
▁already	-8.90676
▁might	-8.90676
▁political	-8.90676
▁temperature	-8.90676
▁healthcare	-8.90757
▁drugs	-8.90833
▁limit	-8.91355
▁prepar	-8.91368
ang	-8.91468
ud	-8.91487
▁statement	-8.91642
man	-8.92015
▁times	-8.92042
▁alcohol	-8.92126
▁sick	-8.92126
part	-8.92157
ever	-8.92246
▁demanded	-8.92291
▁Mo	-8.92368
▁completely	-8.92395
▁45	-8.92568
▁shown	-8.92677
ill	-8.92765
PCR	-8.9359
▁Department	-8.93596
▁single	-8.93598
▁worldwide	-8.93633
▁published	-8.9367
day	-8.93691
▁isolation	-8.93833
▁office	-8.93997
▁minister	-8.94124
rom	-8.94382
▁leader	-8.94454
ction	-8.94527
-19,	-8.94667
▁proper	-8.94757
▁Research	-8.95089
▁RNA	-8.95089
▁More	-8.95207
▁monitor	-8.95704
▁allow	-8.9585
mi	-8.95934
▁leaders	-8.96042
▁cur	-8.96134
ities	-8.96422
ood	-8.96443
▁Fadnavis	-8.96604
▁President	-8.96604
▁underway	-8.96605
▁planning	-8.96606
▁team	-8.96606
▁Pro	-8.96699
▁wash	-8.96849
und	-8.96962
▁trying	-8.97038
be	-8.97053
use	-8.97136
▁fill	-8.97248
▁soon	-8.97258
▁en	-8.97296
▁produced	-8.97342
▁reduced	-8.97473
▁waste	-8.97904
▁put	-8.98036
▁syndrome	-8.98142
▁past	-8.98144
▁attend	-8.98147
▁genetic	-8.98148
▁things	-8.98201
▁Lockdown	-8.98247
▁General	-8.9827
▁practices	-8.98356
▁Patients	-8.98356
▁bats	-8.9871
▁Dep	-8.98925
▁Du	-8.98927
▁die	-8.99019
da	-8.99096
ank	-8.99217
par	-8.99241
▁trial	-8.99258
▁Is	-8.99349
▁High	-8.99705
▁laboratory	-8.99705
▁Home	-8.99705
▁life	-8.99708
▁toll	-8.99815
▁instructions	-8.99842
▁Par	-8.99869
▁board	-9.00113
io	-9.00126
▁statistics	-9.00199
▁Cha	-9.00329
▁once	-9.00517
▁0	-9.00732
tri	-9.00961
mbo	-9.00963
W	-9.01158
▁curfew	-9.01292
▁exposure	-9.01292
▁industry	-9.01292
▁victims	-9.01292
▁economic	-9.01292
▁chain	-9.01292
▁save	-9.01342
▁Z	-9.01424
year	-9.01444
▁organ	-9.01586
▁Aji	-9.01612
▁card	-9.01634
▁discussed	-9.01696
▁reasons	-9.01759
▁lower	-9.01976
▁variant	-9.02058
▁animal	-9.02074
▁official	-9.0208
▁offices	-9.0232
▁individuals	-9.02403
▁Commission	-9.02554
▁vaccinate	-9.02588
ja	-9.02614
RCGP	-9.02905
▁immunity	-9.02905
▁infectious	-9.02908
▁financial	-9.02916
▁late	-9.02927
ran	-9.03073
uty	-9.03083
▁view	-9.03161
▁exams	-9.03526
▁ill	-9.03749
20	-9.03817
▁met	-9.03936
▁changes	-9.04408
▁contract	-9.04544
▁incidence	-9.04544
▁left	-9.04544
▁answer	-9.04545
▁That	-9.04546
▁role	-9.04552
▁municipal	-9.04585
ple	-9.04589
▁Ex	-9.04628
▁Other	-9.0468
▁Of	-9.04802
▁clean	-9.04824
▁directly	-9.04845
▁Commissioner	-9.04902
▁Li	-9.04939
▁employees	-9.05105
▁Bo	-9.05109
▁coronaviruses	-9.0521
▁rates	-9.05278
▁limited	-9.05421
▁Vaccine	-9.05423
▁bo	-9.05439
lic	-9.05523
▁went	-9.05612
▁unit	-9.05985
▁Kumbh	-9.06211
▁Uttar	-9.06211
▁Sunday	-9.06211
▁permission	-9.06211
▁entire	-9.06211
▁Drug	-9.06213
▁stopped	-9.06213
▁Thane	-9.06216
▁discussion	-9.06515
▁sw	-9.06727
II	-9.06927
▁breathing	-9.06978
own	-9.07243
▁nose	-9.07514
▁potential	-9.07572
In	-9.07724
▁fac	-9.07871
▁child	-9.07898
▁Police	-9.07906
▁Secretary	-9.07906
▁equipment	-9.07906
▁president	-9.07906
▁Friday	-9.07906
▁point	-9.07906
▁Mela	-9.07909
▁region	-9.07911
▁usual	-9.07915
▁rise	-9.07969
came	-9.08172
▁created	-9.08521
▁Not	-9.08613
one	-9.08721
▁origin	-9.0875
▁project	-9.08905
▁occur	-9.09629
▁Congress	-9.0963
▁families	-9.0963
▁season	-9.0963
▁video	-9.0963
▁RSC	-9.0963
▁sign	-9.0963
▁expressed	-9.09634
▁Care	-9.09642
▁onset	-9.09651
▁La	-9.09717
▁lab	-9.1001
hal	-9.10036
▁causes	-9.10048
land	-9.10056
▁injections	-9.10141
ram	-9.10246
▁mean	-9.10424
▁ensur	-9.10801
▁followed	-9.11
▁exam	-9.11304
▁Disease	-9.11384
▁matter	-9.11385
▁With	-9.11385
▁pressure	-9.11385
▁Kumar	-9.11386
▁car	-9.11389
▁plan	-9.1143
ex	-9.11448
▁effectiveness	-9.11479
▁80	-9.11525
▁ca	-9.12001
nd	-9.12142
▁complete	-9.12662
▁bat	-9.12798
▁reports	-9.12915
▁advis	-9.13099
▁Africa	-9.1317
▁authorities	-9.1317
▁occasion	-9.1317
▁studies	-9.1317
▁together	-9.13172
▁70	-9.13203
njay	-9.13232
▁carri	-9.13248
▁specific	-9.13486
▁ma	-9.13537
▁CDC	-9.13644
▁code	-9.13652
mit	-9.13685
ka	-9.13907
▁2020.	-9.13948
lve	-9.141
ful	-9.1418
▁suggest	-9.14221
▁claim	-9.14224
▁direct	-9.1435
▁protein	-9.14361
▁kits	-9.14647
put	-9.14809
ite	-9.14949
▁Control	-9.14988
▁protocol	-9.14988
▁future	-9.14988
▁Patil	-9.14989
▁mandatory	-9.14994
▁Korea	-9.14994
▁journalist	-9.14999
▁raised	-9.15001
▁track	-9.15015
like	-9.15433
▁off	-9.15501
lock	-9.15924
▁collect	-9.15984
cy	-9.16112
▁ventilator	-9.16263
▁ten	-9.16567
▁sta	-9.16755
▁program	-9.1684
▁Association	-9.1684
▁Covishield	-9.1684
▁Education	-9.1684
▁Nashik	-9.1684
▁location	-9.1684
▁solution	-9.1684
".	-9.16846
▁leave	-9.16848
▁ago	-9.16877
▁Will	-9.1688
▁26	-9.16891
▁events	-9.16893
▁read	-9.16899
▁list	-9.1694
▁cover	-9.17158
ative	-9.17288
▁figures	-9.17428
▁des	-9.17692
▁news	-9.17854
▁international	-9.17982
erg	-9.18153
▁medicine	-9.18174
▁injection	-9.1821
▁parts	-9.18295
no	-9.18398
▁access	-9.18727
▁material	-9.18727
▁PPE	-9.18727
▁Sonu	-9.1873
▁bring	-9.18733
▁standard	-9.18743
ga	-9.18746
▁war	-9.18793
▁hygiene	-9.18805
▁containment	-9.1882
▁director	-9.18886
U	-9.19126
▁nurses	-9.19278
▁recovered	-9.19381
▁real	-9.19394
▁sc	-9.19685
▁problem	-9.20146
▁Office	-9.20515
▁front	-9.20629
▁College	-9.2065
▁amount	-9.2065
▁antiviral	-9.2065
▁separate	-9.2065
▁attention	-9.2065
▁paper	-9.20651
▁Since	-9.20652
▁walk	-9.20656
▁ordered	-9.20668
▁gone	-9.20844
▁2.	-9.20853
▁Oxygen	-9.20926
▁declared	-9.20943
▁extended	-9.20973
art	-9.21041
▁ready	-9.21065
▁quarantined	-9.21276
▁animals	-9.21654
▁breath	-9.21715
▁Raj	-9.21835
▁though	-9.21859
▁la	-9.21924
▁live	-9.21962
Y	-9.22053
▁sub	-9.22058
▁School	-9.22121
ond	-9.22176
▁groups	-9.2219
50	-9.22493
▁Ju	-9.22564
tensive	-9.226
▁address	-9.22611
▁account	-9.22611
▁mind	-9.22613
▁tell	-9.22618
▁indicat	-9.22622
▁drive	-9.22626
▁got	-9.22691
▁men	-9.22773
▁hit	-9.22786
K	-9.23083
kh	-9.23168
▁count	-9.23276
▁tweeted	-9.23278
▁Don	-9.23451
▁RT	-9.235
bo	-9.23519
▁fil	-9.23794
43	-9.2385
▁90	-9.23932
▁factors	-9.23962
▁ban	-9.24072
▁issues	-9.2445
▁diabetes	-9.24611
▁diarrhea	-9.24611
▁identified	-9.24611
▁policy	-9.24611
▁sequencing	-9.24611
▁society	-9.24611
▁average	-9.24612
▁Court	-9.24612
▁seven	-9.24624
▁alone	-9.24639
▁send	-9.24672
▁exist	-9.24676
▁primary	-9.24788
▁personal	-9.2489
▁CoVs	-9.24977
▁AstraZeneca	-9.25112
April	-9.25176
▁controls	-9.25227
▁cor	-9.25255
ji	-9.25319
▁claimed	-9.25459
▁na	-9.25628
▁included	-9.2579
▁saying	-9.26002
▁Vasai	-9.26652
▁difference	-9.26652
▁building	-9.26653
▁play	-9.26653
tory	-9.26669
▁29	-9.26669
▁Director	-9.26681
▁hard	-9.26708
▁fund	-9.26743
▁Officer	-9.26795
▁appealed	-9.26899
▁added	-9.27091
▁asymptomatic	-9.27122
▁depend	-9.27211
▁self	-9.27352
▁detect	-9.27972
▁notice	-9.28188
▁cl	-9.28216
▁stock	-9.28383
▁mutation	-9.28384
▁rapid	-9.28406
▁Collector	-9.28735
▁little	-9.28735
▁morning	-9.28735
▁gave	-9.28736
ize	-9.28743
gi	-9.28919
▁App	-9.28933
▁scientists	-9.2909
▁killed	-9.29265
wide	-9.29479
▁along	-9.29514
▁suggested	-9.29623
ari	-9.29978
▁sit	-9.30126
▁types	-9.30467
▁Mos	-9.30489
▁estimate	-9.30544
▁practice	-9.3059
▁cell	-9.30602
▁seems	-9.30681
ught	-9.30794
▁Bengal	-9.30863
▁particular	-9.30863
▁skin	-9.30863
▁beginning	-9.30864
▁distribution	-9.30889
source	-9.30891
▁dry	-9.30967
95	-9.30985
▁learn	-9.31076
▁compared	-9.31204
▁changed	-9.31403
▁observed	-9.31488
▁West	-9.31617
ise	-9.31855
▁systems	-9.31929
ca	-9.32189
▁record	-9.32263
app	-9.32461
vin	-9.325
▁release	-9.32718
▁sample	-9.32798
▁hour	-9.32806
▁stage	-9.3283
▁business	-9.32895
▁Brazil	-9.33037
▁Palghar	-9.33037
▁adults	-9.33037
▁advice	-9.33037
▁schedule	-9.33037
▁approach	-9.33037
▁target	-9.33037
▁lost	-9.33037
▁assess	-9.33042
▁Singh	-9.33074
amp	-9.33094
cal	-9.33146
▁Ar	-9.33244
▁diagnosed	-9.33257
▁rul	-9.33317
▁estimated	-9.33363
▁create	-9.33391
▁medicines	-9.33678
▁Ha	-9.33774
most	-9.33786
▁recover	-9.34098
▁nation	-9.34124
▁plant	-9.3424
▁treated	-9.34536
ade	-9.35243
▁officer	-9.35252
▁Britain	-9.35259
▁Saturday	-9.35259
▁possibility	-9.35259
▁scheme	-9.35259
▁stress	-9.35259
▁MLA	-9.35259
▁announcement	-9.35259
▁natural	-9.35259
▁tracing	-9.35259
▁court	-9.35261
▁gym	-9.35261
▁fact	-9.35304
▁however	-9.35342
▁HCoVs	-9.35352
▁hospitalized	-9.35406
▁product	-9.35458
▁stages	-9.35519
▁associated	-9.35614
▁generat	-9.35622
ological	-9.3569
▁bacteria	-9.35885
▁talking	-9.35982
ology	-9.36409
▁hy	-9.3643
▁steps	-9.36593
▁gu	-9.36671
▁tweet	-9.36762
19	-9.36882
▁lungs	-9.36939
▁Ga	-9.36951
ani	-9.37007
▁Varsha	-9.37531
▁certain	-9.37531
▁mobile	-9.37531
▁regulator	-9.37531
▁religious	-9.37531
▁throat	-9.37531
▁PHE	-9.37532
▁France	-9.37532
▁living	-9.37532
▁status	-9.37532
▁mouth	-9.37532
▁making	-9.37534
▁remedivir	-9.37538
of	-9.37587
▁normal	-9.37596
▁history	-9.37597
▁Rahu	-9.37636
▁mental	-9.37716
▁Germany	-9.3772
▁antibody	-9.38027
▁efforts	-9.38739
▁prepared	-9.38758
▁maintain	-9.39078
tu	-9.39181
▁flights	-9.3919
▁slow	-9.39543
▁great	-9.39659
▁act	-9.39771
▁Joshi	-9.39857
▁economy	-9.39857
▁progress	-9.39857
▁supplied	-9.39857
▁stand	-9.39857
▁behind	-9.39857
▁successful	-9.39863
▁RTPCR	-9.39873
▁thing	-9.39904
▁findings	-9.39904
rought	-9.39931
▁launched	-9.40067
▁aim	-9.40071
▁recently	-9.40127
▁former	-9.40391
▁too	-9.40527
chief	-9.4067
▁initial	-9.40703
▁minutes	-9.41016
▁infect	-9.41369
▁conduct	-9.41472
pat	-9.41864
10	-9.4202
▁Expert	-9.42238
▁awareness	-9.42238
▁focus	-9.42238
▁incident	-9.42238
▁physical	-9.42238
▁remedicivir	-9.42238
kept	-9.42238
▁request	-9.42238
▁detail	-9.42238
▁turn	-9.42238
▁huge	-9.42239
▁price	-9.42239
▁course	-9.42239
▁buy	-9.42241
▁organization	-9.42256
▁break	-9.42267
▁press	-9.42342
▁delivery	-9.42476
au	-9.42496
▁mutations	-9.42641
▁PM	-9.42779
▁completed	-9.42942
It	-9.43416
▁Des	-9.43773
term	-9.43869
▁numbers	-9.44026
▁training	-9.44169
▁previous	-9.44341
▁Russia	-9.44432
ified	-9.44672
▁Gujarat	-9.44677
▁Thursday	-9.44677
▁conference	-9.44677
▁field	-9.44677
▁function	-9.44677
▁platform	-9.44677
▁picture	-9.44677
▁black	-9.44677
▁adapt	-9.44677
▁model	-9.44686
▁Shiv	-9.44699
air	-9.44717
29	-9.44796
▁criticized	-9.44859
▁Iran	-9.4491
▁researchers	-9.4495
time	-9.45008
▁scale	-9.45257
▁27	-9.45339
▁4.	-9.45526
ily	-9.45546
▁colleges	-9.45957
Co	-9.46113
▁ser	-9.46137
▁manag	-9.46167
There	-9.46206
▁move	-9.46674
ship	-9.46793
▁Ta	-9.47064
▁Gaikwad	-9.47177
▁backdrop	-9.47177
▁contagious	-9.47177
▁environment	-9.47177
▁receptor	-9.47177
▁responsibility	-9.47177
▁website	-9.47177
▁Satara	-9.47177
▁bodies	-9.47177
▁phone	-9.47177
▁Adar	-9.47189
▁priority	-9.47212
▁Today	-9.47218
▁Nagar	-9.47218
▁worse	-9.47238
▁careful	-9.47252
▁exactly	-9.47282
▁Last	-9.47301
ros	-9.47341
▁virology	-9.4742
▁dead	-9.47462
activ	-9.47595
▁recovery	-9.47628
ni	-9.47847
33	-9.47863
▁species	-9.47884
▁passed	-9.47897
▁i	-9.47966
▁suffering	-9.48016
▁proteins	-9.48049
▁ward	-9.48082
▁2,	-9.4856
▁whole	-9.48652
5%	-9.48654
▁monitoring	-9.48688
ell	-9.48773
▁via	-9.4929
load	-9.49726
▁regular	-9.49741
shield	-9.49741
▁Guardian	-9.49741
▁Information	-9.49741
▁Service	-9.49741
▁Trump	-9.49741
▁hundred	-9.49741
▁laboratories	-9.49741
▁manufacturing	-9.49741
▁precaution	-9.49741
▁sudden	-9.49741
▁Monday	-9.49741
▁Coronavirus	-9.49742
▁reaction	-9.49742
▁running	-9.49745
▁swab	-9.49779
▁sell	-9.49786
▁growth	-9.49824
▁option	-9.49881
▁protection	-9.49999
▁Force	-9.50035
▁stocks	-9.50178
ik	-9.50352
▁returned	-9.50403
▁markets	-9.50441
▁projects	-9.50834
bal	-9.50932
▁Deve	-9.51242
round	-9.51244
▁observ	-9.51602
▁register	-9.51606
itially	-9.51607
▁terms	-9.51633
dependent	-9.51654
▁elections	-9.51686
▁decide	-9.52055
▁rest	-9.52192
▁cons	-9.52346
▁Emergenc	-9.52373
▁Opposition	-9.52373
▁distancing	-9.52373
▁responsible	-9.52373
▁scientific	-9.52373
▁Solapur	-9.52373
▁session	-9.52373
▁decline	-9.52373
▁zone	-9.52374
▁delay	-9.52374
▁paid	-9.52374
▁export	-9.52374
▁woman	-9.52374
▁attack	-9.52375
▁acid	-9.52394
▁final	-9.52407
▁anyone	-9.52479
▁sanitizer	-9.52612
▁presen	-9.52646
coming	-9.52656
vas	-9.52705
▁Hon	-9.52744
▁Currently	-9.52755
17	-9.52994
▁seem	-9.5307
agar	-9.53414
light	-9.53527
care	-9.53586
COVID	-9.536
▁tankers	-9.54029
▁crowded	-9.54058
▁grow	-9.54099
▁suffer	-9.54175
▁Va	-9.54233
▁significant	-9.54742
▁teach	-9.54993
▁Additional	-9.55075
▁Aurangabad	-9.55075
▁appropriate	-9.55075
▁digital	-9.55075
▁improve	-9.55075
▁network	-9.55075
▁screen	-9.55075
▁damage	-9.55076
▁tonnes	-9.55076
▁Two	-9.55077
▁better	-9.55096
▁isolated	-9.55196
gaon	-9.55246
▁formula	-9.5527
▁transportation	-9.55274
▁pass	-9.55351
▁decreased	-9.55371
▁closure	-9.5539
ability	-9.55403
▁involved	-9.55467
▁technology	-9.55517
▁Pha	-9.5554
4%	-9.55675
▁procedures	-9.55733
▁longer	-9.55753
63	-9.56001
▁concerned	-9.56585
relat	-9.56646
▁ministers	-9.56858
▁talk	-9.56956
▁additional	-9.5707
2)	-9.57159
log	-9.57425
▁share	-9.57533
▁doing	-9.57566
▁sanitizers	-9.57622
▁Citizens	-9.57853
▁Poonawala	-9.57853
▁Prevention	-9.57853
▁Wednesday	-9.57853
▁admission	-9.57853
▁ambulance	-9.57853
▁chron	-9.57853
▁storage	-9.57853
▁strong	-9.57853
▁studied	-9.57853
▁universities	-9.57853
▁operation	-9.57853
▁management	-9.57854
▁mother	-9.57854
flamma	-9.57854
▁consult	-9.57854
▁rush	-9.57855
▁space	-9.57855
▁East	-9.57855
▁never	-9.57861
▁believe	-9.57863
▁interest	-9.5792
raw	-9.57921
▁station	-9.57924
▁severity	-9.57983
▁November	-9.58045
▁bank	-9.58101
▁Sever	-9.58166
▁benefit	-9.58218
▁measure	-9.5825
▁experienc	-9.58257
▁San	-9.58392
▁availability	-9.5843
▁thought	-9.58466
▁detected	-9.58897
7%	-9.58928
▁plans	-9.58938
▁old	-9.5898
WHO	-9.59231
▁site	-9.5927
tal	-9.59285
ix	-9.59722
▁meet	-9.59846
▁Are	-9.59916
ition	-9.60013
▁recent	-9.6038
▁immediate	-9.60381
▁arriv	-9.60422
sufficient	-9.6071
▁Australia	-9.6071
▁Hyderabad	-9.6071
▁Passenger	-9.6071
▁Tuesday	-9.6071
▁capital	-9.6071
▁respond	-9.6071
▁security	-9.6071
▁border	-9.6071
▁determine	-9.6071
▁friend	-9.6071
▁money	-9.60711
▁loss	-9.60711
▁Task	-9.60713
▁planned	-9.60714
▁shut	-9.60716
▁fall	-9.60717
▁Let	-9.60722
▁begin	-9.60735
▁foreign	-9.60742
▁feet	-9.60742
▁approval	-9.60783
▁teachers	-9.60799
▁law	-9.60817
ture	-9.60968
▁officers	-9.60984
▁October	-9.61039
we	-9.61139
25	-9.61346
▁properly	-9.61354
aj	-9.61496
▁Doctors	-9.61701
tan	-9.61852
▁door	-9.61886
▁vaccinations	-9.61957
▁cured	-9.62194
▁48	-9.6234
ised	-9.62406
▁Un	-9.62444
IV	-9.62538
▁bio	-9.6279
If	-9.63179
▁comes	-9.63271
▁decrease	-9.63331
▁fast	-9.63456
▁multi	-9.63642
▁Bhondwe	-9.63652
▁Diwali	-9.63652
▁efficacy	-9.63652
▁investigation	-9.63652
▁simple	-9.63652
▁subject	-9.63652
▁message	-9.63652
▁photo	-9.63652
▁ongoing	-9.63652
▁therapy	-9.63652
▁tract	-9.63652
▁germ	-9.63653
▁Baba	-9.63654
▁banned	-9.63654
▁resources	-9.63655
▁enforce	-9.63656
▁speed	-9.63663
▁multiple	-9.63663
▁dangerous	-9.63664
▁antigen	-9.63687
▁spend	-9.63692
▁organizations	-9.6371
▁percentage	-9.63776
▁committee	-9.63849
az	-9.64132
▁kit	-9.64226
▁performed	-9.64338
ray	-9.64366
▁relative	-9.64405
▁bar	-9.64549
ternational	-9.6483
▁emerg	-9.64907
▁return	-9.64998
serv	-9.65027
▁Vaccines	-9.65067
Corona	-9.65207
▁provid	-9.65338
▁discuss	-9.6536
▁Bha	-9.65546
▁500	-9.6562
▁accept	-9.65635
ory	-9.65686
▁implement	-9.65815
▁kill	-9.65915
▁thousands	-9.66046
▁agricultur	-9.6613
▁interact	-9.66397
▁serve	-9.66511
▁America	-9.66682
▁Committee	-9.66682
▁Council	-9.66682
▁agencies	-9.66682
▁assistance	-9.66682
▁suspend	-9.66682
▁urban	-9.66682
▁Vijay	-9.66682
▁promot	-9.66682
▁failure	-9.66682
▁activity	-9.66683
▁surg	-9.66684
▁peak	-9.66685
▁entry	-9.66685
▁etc	-9.66687
▁intermedia	-9.6669
▁Kong	-9.66699
▁missing	-9.66703
▁wide	-9.66708
▁toilet	-9.66723
ission	-9.66726
▁hold	-9.6675
▁someone	-9.66869
▁classes	-9.66983
▁store	-9.66987
▁Test	-9.67017
▁distributed	-9.67029
▁double	-9.67078
▁dispos	-9.67088
▁canceled	-9.6722
▁prevention	-9.67225
▁Centers	-9.67243
andeep	-9.67318
▁member	-9.67319
▁Who	-9.67572
▁eight	-9.67682
▁recorded	-9.67775
▁Or	-9.68146
38	-9.68181
free	-9.68332
▁cleaning	-9.68363
▁happened	-9.6843
CO	-9.68481
▁bed	-9.69146
▁members	-9.69154
13	-9.69649
▁ju	-9.69786
▁Consider	-9.69807
▁Earlier	-9.69807
▁Sputnik	-9.69807
▁exercise	-9.69807
▁medication	-9.69807
▁sequence	-9.69807
▁supplier	-9.69807
▁closing	-9.69807
▁spike	-9.69807
▁Work	-9.69807
▁road	-9.69814
▁Chandrapur	-9.69817
▁hope	-9.69843
15	-9.6989
▁Over	-9.69904
▁billion	-9.69968
▁older	-9.7004
▁try	-9.70069
▁established	-9.70364
▁gas	-9.70396
over	-9.70456
▁allegations	-9.7049
▁News	-9.70598
▁starting	-9.70798
mar	-9.71344
▁weekly	-9.71461
▁light	-9.71553
SARS	-9.71557
▁line	-9.71712
▁candidates	-9.7195
30	-9.72016
▁inform	-9.72168
▁mis	-9.72168
▁contacted	-9.7217
▁departments	-9.72293
73	-9.7267
ants	-9.72793
▁import	-9.72981
▁prior	-9.72987
▁restrict	-9.73014
▁England	-9.73033
▁Kerala	-9.73033
▁Krishna	-9.73033
▁Railway	-9.73033
▁adequate	-9.73033
▁enzyme	-9.73033
▁pangolin	-9.73033
▁unknown	-9.73033
▁widespread	-9.73033
▁elderly	-9.73033
▁clarified	-9.73033
▁understand	-9.73033
▁mentioned	-9.73033
▁Malik	-9.73033
▁link	-9.73033
▁extent	-9.73034
▁violat	-9.73034
▁poor	-9.73037
▁overall	-9.7304
▁rising	-9.73041
▁exposed	-9.73044
▁word	-9.73045
▁carry	-9.73071
▁item	-9.73077
▁Medicine	-9.73121
▁parties	-9.73199
▁pregnant	-9.73256
▁Fund	-9.73268
▁significantly	-9.73433
▁exp	-9.73452
▁Amit	-9.73543
ock	-9.7368
▁offer	-9.73691
long	-9.73779
53	-9.73852
▁election	-9.73884
▁continu	-9.73996
▁eyes	-9.74076
▁35	-9.74252
slam	-9.74254
ommunication	-9.74316
▁Sha	-9.74397
▁directed	-9.74434
▁vehicles	-9.74491
▁Ko	-9.74679
▁villages	-9.74684
▁sore	-9.74737
▁cylinders	-9.74743
▁variants	-9.74762
▁arise	-9.7518
▁giv	-9.7544
▁perform	-9.75563
▁produc	-9.75618
▁governments	-9.75693
▁threat	-9.76047
▁traveling	-9.76058
▁except	-9.76104
▁Dat	-9.76351
▁micro	-9.76363
ecutive	-9.76366
▁August	-9.76366
▁Children	-9.76366
▁Deshmukh	-9.76366
▁Rajasthan	-9.76366
▁Singapore	-9.76366
▁Twitter	-9.76366
▁analysis	-9.76366
▁earlier	-9.76366
▁segregation	-9.76366
▁ventilation	-9.76366
▁recogniz	-9.76366
▁Karona	-9.76366
▁device	-9.76366
▁Japan	-9.76367
cular	-9.76367
▁programmes	-9.76367
▁eating	-9.76372
▁toward	-9.76388
▁strategies	-9.76402
isaster	-9.76413
▁constantly	-9.76451
▁Nawa	-9.76546
▁approximate	-9.7664
▁Sure	-9.76687
▁arrested	-9.76696
ism	-9.76696
▁mid	-9.76743
▁mov	-9.76988
▁flight	-9.77418
▁CT	-9.77468
▁...	-9.77915
▁original	-9.78106
▁handle	-9.78178
corona	-9.78341
▁rub	-9.78521
▁surfaces	-9.78746
▁term	-9.78791
▁ability	-9.78819
▁examinations	-9.79027
▁design	-9.79037
▁stores	-9.79105
ssential	-9.79784
▁gather	-9.79795
▁buil	-9.79812
▁Kejriwal	-9.79814
▁Lucas	-9.79814
▁cabinet	-9.79814
▁colleagues	-9.79814
▁gradually	-9.79814
▁guidance	-9.79814
▁initiative	-9.79814
▁describ	-9.79814
▁facility	-9.79814
▁Modern	-9.79814
▁Reddy	-9.79814
▁represent	-9.79814
▁shift	-9.79815
acquir	-9.79815
▁select	-9.79815
▁personnel	-9.79815
▁chance	-9.79819
▁towel	-9.79827
▁key	-9.79837
▁coding	-9.79839
▁Where	-9.79855
▁Covin	-9.79867
▁seat	-9.79878
▁implementation	-9.79928
▁mass	-9.79944
sense	-9.79946
▁Out	-9.7998
▁involve	-9.80089
▁greater	-9.80111
▁imp	-9.80238
▁power	-9.80266
▁Sood	-9.80345
▁July	-9.80409
100	-9.80427
68	-9.80438
▁Schools	-9.80688
▁method	-9.80878
▁job	-9.80892
▁surface	-9.80894
▁drying	-9.81293
ern	-9.81436
▁Maha	-9.81462
▁Every	-9.81524
▁creat	-9.81669
▁fine	-9.81687
75	-9.8177
washing	-9.81914
▁ship	-9.81917
itis	-9.81956
60	-9.82045
▁coughing	-9.8212
nath	-9.82124
▁jobs	-9.8228
▁methods	-9.82282
hra	-9.82391
▁handl	-9.82555
▁add	-9.82887
▁benefits	-9.82917
droxychloroquine	-9.83386
pharmaceutical	-9.83386
▁Development	-9.83386
▁Hubei	-9.83386
▁Science	-9.83386
▁Vidarbha	-9.83386
▁adverse	-9.83386
▁alternative	-9.83386
▁clots	-9.83386
▁communities	-9.83386
▁confusion	-9.83386
▁domestic	-9.83386
▁funeral	-9.83386
▁liquid	-9.83386
▁ministry	-9.83386
▁privacy	-9.83386
▁remedesivir	-9.83386
▁Gandhi	-9.83386
▁Administration	-9.83386
▁FDA	-9.83386
▁wedding	-9.83387
▁spoke	-9.83389
▁tax	-9.83394
▁harm	-9.83397
▁reduction	-9.83411
▁range	-9.83428
▁hospitalization	-9.83443
▁ICMR	-9.83447
▁Shash	-9.83531
▁agent	-9.83561
▁worker	-9.83588
▁postponed	-9.83615
▁faster	-9.83628
▁manufactured	-9.83649
▁stored	-9.83765
▁factor	-9.8403
▁Give	-9.84112
▁boy	-9.84292
▁Can	-9.84315
▁returning	-9.84474
▁candidate	-9.846
▁student	-9.84631
▁Tri	-9.84654
▁collected	-9.84903
▁His	-9.85365
▁tons	-9.85544
said	-9.85664
▁wait	-9.86195
▁Act	-9.86672
▁tend	-9.86762
▁options	-9.86889
▁Hu	-9.86891
WIN	-9.87089
membrane	-9.87089
▁Before	-9.87089
▁hotspot	-9.87089
▁participating	-9.87089
▁pediatric	-9.87089
▁reservoir	-9.87089
▁sneezing	-9.87089
▁street	-9.87089
ngiotensin	-9.87089
▁basis	-9.87089
▁household	-9.8709
▁activist	-9.8709
▁Munde	-9.87091
▁Paul	-9.87091
▁manufacturers	-9.87092
▁section	-9.87095
▁Human	-9.87103
▁Johnson	-9.87133
▁purchase	-9.8717
▁Such	-9.87272
sure	-9.87434
secondary	-9.87573
▁slowly	-9.87627
▁changing	-9.87634
▁disinfect	-9.87823
▁outcomes	-9.88001
▁speaking	-9.88004
alian	-9.88298
▁expert	-9.88475
▁vegetables	-9.8858
▁bus	-9.8865
▁learner	-9.88947
▁cho	-9.8895
▁EU	-9.89172
▁youth	-9.89323
pass	-9.89581
RT	-9.89712
▁announc	-9.90176
▁California	-9.9093
▁employ	-9.90932
▁receive	-9.90933
▁British	-9.90936
▁Kolhapur	-9.90936
▁commission	-9.90936
▁husband	-9.90936
▁politics	-9.90936
▁purpose	-9.90936
▁remote	-9.90936
▁specimen	-9.90936
▁tissue	-9.90936
▁typical	-9.90936
▁institutions	-9.90936
▁machine	-9.90936
▁fatalit	-9.90936
▁Strict	-9.90938
▁true	-9.90938
▁refus	-9.90949
▁Ramde	-9.90955
▁preliminary	-9.90956
rupt	-9.90962
▁Sena	-9.90963
▁menstruation	-9.90963
▁organiz	-9.90965
▁importance	-9.90971
▁ground	-9.90981
worth	-9.9109
▁Hand	-9.91121
▁65	-9.91181
▁businesses	-9.91188
▁object	-9.91202
convert	-9.91295
▁pathogenic	-9.91346
▁rare	-9.91362
▁shared	-9.91388
▁relaxed	-9.91411
▁potentially	-9.91706
▁conv	-9.91882
▁waiting	-9.91886
▁41	-9.91906
Happ	-9.92284
▁extra	-9.92326
▁tanker	-9.92452
No	-9.92534
▁party	-9.9274
vind	-9.92798
▁cov	-9.93153
erous	-9.93457
March	-9.9346
J	-9.93464
▁Use	-9.93697
gainst	-9.93724
▁deliver	-9.93757
▁deal	-9.93817
▁arrive	-9.9394
▁minim	-9.94263
▁update	-9.94614
▁Follow	-9.94936
▁aerosol	-9.94936
▁cluster	-9.94936
▁devotees	-9.94936
▁diagnosis	-9.94936
▁distress	-9.94936
▁droplets	-9.94936
▁facilitate	-9.94936
▁feature	-9.94936
▁holiday	-9.94936
▁respective	-9.94936
▁restaurant	-9.94936
▁territories	-9.94936
▁themselves	-9.94936
▁trouble	-9.94936
▁zoono	-9.94936
▁deploy	-9.94936
▁surviv	-9.94936
▁activities	-9.94936
▁resort	-9.94936
▁super	-9.94936
adhya	-9.94936
▁abroad	-9.94936
▁charg	-9.94939
▁warned	-9.9494
▁everything	-9.94941
▁regulations	-9.94953
▁middle	-9.94958
ubation	-9.94958
▁moderate	-9.9498
saw	-9.94996
referred	-9.94998
▁sale	-9.95006
▁municipality	-9.9505
hana	-9.95075
▁cut	-9.95157
▁50,000	-9.95187
▁connection	-9.95215
▁seek	-9.95353
▁Does	-9.95469
▁virolog	-9.95535
▁rain	-9.95662
▁degrees	-9.95715
▁delivered	-9.95722
▁remove	-9.95845
▁designed	-9.95848
▁37	-9.96095
86	-9.96252
dge	-9.96337
rubb	-9.96463
9%	-9.96483
▁sure	-9.96563
▁step	-9.96628
deep	-9.9668
64	-9.96729
ious	-9.96771
low	-9.97124
district	-9.97624
covid	-9.97626
▁42	-9.97626
work	-9.97628
ax	-9.97665
hose	-9.98109
Table	-9.98252
▁idea	-9.98331
6%	-9.98777
▁moder	-9.99096
▁Bhushan	-9.99102
▁Jessica	-9.99102
▁Pimpri	-9.99102
▁UNESCO	-9.99102
▁York	-9.99102
▁controversy	-9.99102
▁intervention	-9.99102
▁position	-9.99102
▁search	-9.99102
▁struggl	-9.99102
▁supplies	-9.99102
▁ticket	-9.99102
▁twice	-9.99102
▁Election	-9.99102
▁inquiry	-9.99102
HKU	-9.99102
▁identify	-9.99102
▁wrong	-9.99103
▁Bihar	-9.99103
▁moment	-9.99103
▁establishments	-9.99104
▁shock	-9.99104
▁Biden	-9.99105
▁opposition	-9.99106
▁excluded	-9.99107
▁false	-9.99108
▁bind	-9.99109
▁thus	-9.99115
▁something	-9.99119
▁farmers	-9.99179
▁majority	-9.99265
OC	-9.99279
▁useful	-9.993
▁trace	-9.99307
▁joint	-9.99324
▁urg	-9.99337
▁Bank	-9.99378
ency	-9.99401
▁prove	-9.99441
▁Covacin	-9.99458
▁below	-9.99827
-19)	-9.99888
▁Mar	-10.0026
35	-10.0037
▁War	-10.0041
▁Virar	-10.0044
▁requir	-10.0062
▁ei	-10.0069
▁inhibit	-10.0088
▁300	-10.0096
mod	-10.0116
ED	-10.0151
self	-10.0169
veryone	-10.0176
India	-10.02
human	-10.0202
▁continued	-10.0211
olar	-10.022
▁owner	-10.0225
▁establish	-10.0267
nother	-10.0271
rmal	-10.0279
▁cancel	-10.03
atic	-10.0306
▁manufacture	-10.0313
▁refer	-10.0339
▁success	-10.0344
▁extreme	-10.0345
Chinchwad	-10.0345
▁Kovacin	-10.0345
▁accused	-10.0345
▁celebrat	-10.0345
▁combination	-10.0345
▁compound	-10.0345
▁discharg	-10.0345
▁institute	-10.0345
▁plasma	-10.0345
▁proposal	-10.0345
▁secretary	-10.0345
▁vacancies	-10.0345
pulmon	-10.0345
▁Management	-10.0345
▁empty	-10.0345
▁instead	-10.0345
▁kind	-10.0345
▁operate	-10.0345
Report	-10.0345
▁cloth	-10.0345
▁predict	-10.0345
Student	-10.0345
▁probabl	-10.0346
▁forward	-10.0346
▁enhanc	-10.0346
▁nature	-10.0347
▁transmitted	-10.0347
▁camels	-10.0347
▁himself	-10.0347
▁frontline	-10.035
▁obtained	-10.0385
▁interaction	-10.0387
▁Anil	-10.0397
▁bad	-10.0409
▁intend	-10.0431
▁400	-10.0462
east	-10.0463
▁tender	-10.0468
income	-10.0478
▁maintained	-10.0494
3%	-10.0504
On	-10.0517
RO	-10.0518
hav	-10.0535
90	-10.0542
▁shop	-10.0554
eight	-10.0641
mant	-10.0643
▁scan	-10.0664
47	-10.0687
▁extend	-10.0723
posed	-10.073
estrictions	-10.0793
ecause	-10.0794
▁opportunit	-10.08
relevant	-10.08
satisf	-10.08
▁Haridwar	-10.08
▁Pakistan	-10.08
▁Punawala	-10.08
▁Similar	-10.08
▁afraid	-10.08
▁attempt	-10.08
▁bicycle	-10.08
▁chloroquine	-10.08
▁customer	-10.08
▁demonstrat	-10.08
▁everywhere	-10.08
▁policies	-10.08
▁quality	-10.08
▁quick	-10.08
▁revealed	-10.08
▁therapeutic	-10.08
▁tomorrow	-10.08
▁Canada	-10.08
▁Pharma	-10.08
▁cremat	-10.08
▁Tamil	-10.08
▁battle	-10.08
▁overcome	-10.08
stream	-10.08
▁father	-10.08
▁boost	-10.08
▁birth	-10.08
science	-10.08
▁impose	-10.08
▁image	-10.08
lescent	-10.08
▁comment	-10.08
▁prompt	-10.08
▁Order	-10.08
▁complaints	-10.08
▁identity	-10.0801
▁anything	-10.0801
borne	-10.0801
▁serology	-10.0801
▁nine	-10.0801
▁wipe	-10.0801
crete	-10.0808
▁investigated	-10.0811
▁conven	-10.0816
▁Raut	-10.0816
▁cry	-10.0819
▁collection	-10.0821
69	-10.0825
▁heav	-10.0844
reak	-10.0855
▁Nit	-10.0893
▁farm	-10.0927
▁1)	-10.0932
▁symptom	-10.101
▁cylinder	-10.1027
▁college	-10.1028
▁effort	-10.1028
▁individual	-10.1029
▁passenger	-10.1029
▁emergenc	-10.1034
94	-10.1047
fined	-10.1099
▁Ram	-10.111
Virar	-10.1125
risk	-10.1133
40	-10.1161
▁speak	-10.1185
▁compar	-10.1201
aram	-10.121
▁German	-10.1236
▁1.5	-10.1241
▁connect	-10.1257
1%	-10.1265
▁pathogen	-10.1265
▁menstrua	-10.1272
positivity	-10.1276
▁Authority	-10.1276
▁Harshvardhan	-10.1276
▁Haryana	-10.1276
▁Leader	-10.1276
▁Spain	-10.1276
▁accident	-10.1276
▁atmosphere	-10.1276
▁complications	-10.1276
▁construction	-10.1276
▁discovered	-10.1276
▁doubt	-10.1276
▁engineer	-10.1276
▁hazard	-10.1276
▁located	-10.1276
▁railway	-10.1276
▁volunteer	-10.1276
▁Raigad	-10.1276
▁Zhang	-10.1276
▁nucle	-10.1276
▁leaving	-10.1276
Figure	-10.1276
▁broke	-10.1276
▁muscle	-10.1276
▁Jayant	-10.1276
▁Nepal	-10.1276
▁corporation	-10.1276
▁Controller	-10.1276
▁fail	-10.1276
▁install	-10.1276
▁manner	-10.1276
▁applied	-10.1276
▁homolog	-10.1276
▁introduced	-10.1276
▁North	-10.1276
▁tourists	-10.1276
▁remedi	-10.1277
▁alert	-10.1277
▁cancelled	-10.1277
▁gatherings	-10.1279
▁performance	-10.128
▁consistent	-10.1281
8%)	-10.1281
▁factories	-10.1282
▁Board	-10.1282
▁urgent	-10.1283
▁blow	-10.1285
▁movement	-10.1287
▁camp	-10.1294
advised	-10.1295
▁plane	-10.1299
▁Ye	-10.1309
▁updated	-10.1315
▁explained	-10.1324
▁Jai	-10.1334
possibl	-10.1341
▁previously	-10.1342
▁agriculture	-10.1364
▁removed	-10.1379
aff	-10.1381
knowledge	-10.1414
▁MP	-10.1433
▁arrived	-10.1445
84	-10.1484
NL	-10.1484
▁minute	-10.1528
▁reduc	-10.1572
▁examin	-10.1611
ACE	-10.1627
MS	-10.1649
▁capab	-10.1658
▁cardio	-10.1685
▁declar	-10.1699
▁confirm	-10.1699
78	-10.1717
▁postpone	-10.1744
▁inject	-10.1765
ization	-10.1768
▁danger	-10.1774
://	-10.1776
http	-10.1776
▁Dharavi	-10.1776
▁Infection	-10.1776
▁London	-10.1776
▁Treatment	-10.1776
▁budget	-10.1776
▁circulating	-10.1776
▁complex	-10.1776
▁discovery	-10.1776
▁disorder	-10.1776
▁drop	-10.1776
▁encourage	-10.1776
▁envelope	-10.1776
▁evaluat	-10.1776
▁graph	-10.1776
▁industrial	-10.1776
▁petition	-10.1776
▁pregnancy	-10.1776
▁province	-10.1776
▁recruit	-10.1776
▁relief	-10.1776
▁sneeze	-10.1776
▁traffic	-10.1776
▁Maratha	-10.1776
▁biggest	-10.1776
▁federal	-10.1776
▁storm	-10.1776
▁Local	-10.1776
▁alleged	-10.1776
▁otherwise	-10.1776
▁brother	-10.1776
▁sharp	-10.1776
orkplace	-10.1776
▁routine	-10.1776
▁Harsh	-10.1776
▁mechanism	-10.1776
▁panic	-10.1776
▁grant	-10.1776
▁Four	-10.1776
▁upper	-10.1776
▁reverse	-10.1777
▁interview	-10.1777
▁lift	-10.1778
▁professor	-10.1779
▁wife	-10.1779
▁Hind	-10.1781
▁trend	-10.1783
▁controlled	-10.179
▁Shah	-10.1796
▁sometime	-10.1797
▁finger	-10.1799
▁itself	-10.1807
▁port	-10.1814
preserv	-10.1843
▁5,000	-10.1852
▁Ya	-10.1868
▁Mayor	-10.1876
risen	-10.197
▁See	-10.1972
▁love	-10.1993
▁Shara	-10.2012
3,000	-10.2019
87	-10.2052
species	-10.2153
bacteria	-10.2153
People	-10.2154
RS	-10.2159
kant	-10.2176
emed	-10.218
mong	-10.2194
symptomatic	-10.2202
structed	-10.2222
hok	-10.2254
65	-10.226
▁clinic	-10.2261
80	-10.2273
ologist	-10.2298
express	-10.2302
Bioentech	-10.2302
DCGI	-10.2302
▁Besides	-10.2302
▁Canadian	-10.2302
▁Covax	-10.2302
▁Kingdom	-10.2302
▁Mahavikas	-10.2302
▁achiev	-10.2302
▁airport	-10.2302
▁assembl	-10.2302
▁bottle	-10.2302
▁certificate	-10.2302
▁chemical	-10.2302
▁cocktail	-10.2302
▁contribut	-10.2302
▁license	-10.2302
▁polymerase	-10.2302
▁strategy	-10.2302
▁strength	-10.2302
▁vaccinating	-10.2302
▁yesterday	-10.2302
▁sleep	-10.2302
▁Sawant	-10.2302
EEA	-10.2302
▁NCP	-10.2302
▁worship	-10.2302
▁Pandit	-10.2302
▁basic	-10.2302
▁duration	-10.2302
▁Clinic	-10.2302
▁worry	-10.2302
▁surgery	-10.2302
▁occurred	-10.2302
▁Post	-10.2303
▁blam	-10.2303
▁coordinat	-10.2304
intestin	-10.2305
▁attract	-10.2306
▁table	-10.2307
▁let	-10.231
Class	-10.231
▁asking	-10.2311
▁story	-10.2312
▁serum	-10.2313
▁Year	-10.2314
▁Chandra	-10.2314
kins	-10.2315
▁weekend	-10.2316
▁vary	-10.232
▁Hop	-10.2327
▁difficulties	-10.2329
even	-10.2335
▁Das	-10.2336
ox	-10.2366
▁tools	-10.2366
▁Well	-10.2372
▁GP	-10.2388
58	-10.241
ients	-10.2462
bound	-10.2479
▁600	-10.2496
▁150	-10.2555
▁800	-10.2572
▁vehicle	-10.2608
CDC	-10.2709
coronavirus	-10.271
This	-10.2711
anand	-10.2743
made	-10.2776
▁expect	-10.2785
ntibody	-10.2804
▁frequent	-10.2824
▁bill	-10.2851
▁complain	-10.2857
▁electron	-10.2858
clusive	-10.2858
efficient	-10.2858
evolution	-10.2858
▁Aghadi	-10.2858
▁Cambridge	-10.2858
▁Global	-10.2858
▁Google	-10.2858
▁Upadhyay	-10.2858
▁cruise	-10.2858
▁evacuat	-10.2858
▁experiment	-10.2858
▁hypoxia	-10.2858
▁registration	-10.2858
▁sampling	-10.2858
▁summer	-10.2858
▁technique	-10.2858
▁Family	-10.2858
▁contrast	-10.2858
▁operating	-10.2858
▁package	-10.2858
▁subsequent	-10.2858
ollution	-10.2858
▁Group	-10.2858
▁artery	-10.2858
▁pharma	-10.2858
▁Women	-10.2858
▁reliable	-10.2858
▁insurance	-10.2858
▁Agency	-10.2858
▁headache	-10.2858
▁psychiatri	-10.2858
▁loan	-10.2858
▁Under	-10.2858
▁Awate	-10.2858
▁Talk	-10.2858
▁game	-10.2858
▁lockout	-10.2858
▁temporary	-10.2859
▁begun	-10.2859
▁recommendations	-10.2859
▁fees	-10.2859
▁villagers	-10.286
▁partner	-10.286
▁consist	-10.2861
▁num	-10.2863
▁kg	-10.2864
▁trade	-10.2865
▁unlock	-10.2868
soph	-10.2875
▁providers	-10.2877
▁frequently	-10.2891
▁liver	-10.2898
▁bath	-10.2909
▁Russian	-10.2915
▁structur	-10.3009
cardi	-10.3133
▁remov	-10.3188
▁dryer	-10.3191
▁realiz	-10.3235
infected	-10.3273
▁variet	-10.3277
AstraZeneca	-10.3297
Covid	-10.3298
board	-10.3306
vailability	-10.3323
level	-10.334
audi	-10.3389
oreign	-10.344
easures	-10.3443
iddle	-10.3443
▁transmit	-10.3444
▁prim	-10.3446
Statistics	-10.3446
irecrackers	-10.3446
▁Aditya	-10.3446
▁Ahmednagar	-10.3446
▁Akola	-10.3446
▁Avoid	-10.3446
▁Contact	-10.3446
▁Express	-10.3446
▁Facebook	-10.3446
▁Foundation	-10.3446
▁Halfkin	-10.3446
▁Javadekar	-10.3446
▁Karnataka	-10.3446
▁Pandharpur	-10.3446
▁Thorat	-10.3446
▁Vardhan	-10.3446
▁Welfare	-10.3446
▁Yojana	-10.3446
▁academic	-10.3446
▁afford	-10.3446
▁always	-10.3446
▁behavior	-10.3446
▁burden	-10.3446
▁cemetery	-10.3446
▁collapse	-10.3446
▁cycle	-10.3446
▁documents	-10.3446
▁electric	-10.3446
▁eliminat	-10.3446
▁gloves	-10.3446
▁pattern	-10.3446
▁promising	-10.3446
▁window	-10.3446
▁Shops	-10.3446
▁agitation	-10.3446
▁background	-10.3446
▁ignor	-10.3446
▁tight	-10.3446
▁cancellation	-10.3446
▁coroners	-10.3446
▁reservation	-10.3446
▁laborers	-10.3446
▁repeated	-10.3446
▁text	-10.3446
▁Brook	-10.3446
▁agreed	-10.3446
▁Social	-10.3446
▁Demand	-10.3446
▁internet	-10.3446
▁unfortunate	-10.3446
▁milk	-10.3446
▁reserved	-10.3446
▁dropped	-10.3446
Mamata	-10.3446
▁orphan	-10.3446
▁First	-10.3446
▁vot	-10.3446
correct	-10.3446
▁microorganisms	-10.3446
▁Store	-10.3447
▁Thus	-10.3447
▁compli	-10.3447
▁audit	-10.3448
▁methodolog	-10.3448
aheb	-10.3448
▁patholog	-10.3451
▁Party	-10.3455
▁box	-10.346
▁duty	-10.3461
▁sold	-10.3469
aryng	-10.3469
▁Plan	-10.3471
▁2009	-10.3473
▁generation	-10.3484
▁Aadha	-10.3485
threaten	-10.3503
▁km	-10.3511
eet	-10.3578
77	-10.3603
▁vegetable	-10.3821
night	-10.3922
confirmed	-10.3923
quarantine	-10.3923
scale	-10.3929
▁dire	-10.3957
▁relax	-10.3993
▁appeal	-10.3996
▁purchas	-10.4057
fforts	-10.4066
contaminat	-10.407
▁AIIMS	-10.4071
▁Affairs	-10.4071
▁Celsius	-10.4071
▁Company	-10.4071
▁Darekar	-10.4071
▁Journal	-10.4071
▁Survey	-10.4071
▁Uttarakhand	-10.4071
▁agreement	-10.4071
▁anywhere	-10.4071
▁circumstances	-10.4071
▁comprehensive	-10.4071
▁criteria	-10.4071
▁criticism	-10.4071
▁drink	-10.4071
▁fatigue	-10.4071
▁festival	-10.4071
▁fruit	-10.4071
▁influence	-10.4071
▁maxim	-10.4071
▁migrant	-10.4071
▁parcel	-10.4071
▁proportion	-10.4071
▁suppress	-10.4071
▁traditional	-10.4071
▁Second	-10.4071
▁comparison	-10.4071
▁dismiss	-10.4071
▁mutated	-10.4071
▁happy	-10.4071
▁stick	-10.4071
▁Chavan	-10.4071
▁alpha	-10.4071
▁IMA	-10.4071
▁mitigat	-10.4071
▁wrote	-10.4071
▁baby	-10.4071
▁Thre	-10.4071
▁quot	-10.4071
▁felt	-10.4071
▁traders	-10.4071
cumulati	-10.4071
▁winter	-10.4071
▁abdom	-10.4071
▁warning	-10.4072
▁Goa	-10.4072
▁chairman	-10.4072
▁contaminated	-10.4072
▁Kamal	-10.4072
▁liter	-10.4073
▁proposed	-10.4074
▁amino	-10.4074
▁groceries	-10.4074
▁immuno	-10.4075
▁download	-10.4078
▁extensive	-10.4078
▁nothing	-10.4083
media	-10.409
▁disruption	-10.409
▁Final	-10.4095
▁inside	-10.4104
▁exception	-10.4121
lder	-10.4225
▁Khan	-10.424
mini	-10.4263
cknowledg	-10.4545
generat	-10.4585
organ	-10.459
Some	-10.4591
▁receiv	-10.4606
▁complet	-10.4606
▁distribut	-10.4652
roduction	-10.4709
▁disrupt	-10.472
IL	-10.4722
▁administrati	-10.4729
rivate	-10.473
▁journal	-10.4734
frastructure	-10.4738
▁Akhada	-10.4738
▁Hypoxia	-10.4738
▁Infectious	-10.4738
▁Parishad	-10.4738
▁Policy	-10.4738
▁Right	-10.4738
▁Shinde	-10.4738
▁Society	-10.4738
▁Surveillance	-10.4738
▁advance	-10.4738
▁association	-10.4738
▁challenging	-10.4738
▁congestion	-10.4738
▁cultural	-10.4738
▁cytokine	-10.4738
▁disadvantage	-10.4738
▁geographical	-10.4738
▁implications	-10.4738
▁industries	-10.4738
▁liquor	-10.4738
▁newspaper	-10.4738
▁remember	-10.4738
▁spokesperson	-10.4738
▁stomach	-10.4738
▁vomiting	-10.4738
▁cinema	-10.4738
▁injury	-10.4738
▁mRNA	-10.4738
▁rallies	-10.4738
expensive	-10.4738
▁Israel	-10.4738
▁protease	-10.4738
Coronil	-10.4738
▁Vivek	-10.4738
▁interval	-10.4738
▁2012	-10.4738
▁shopping	-10.4738
▁Shivaji	-10.4738
▁civet	-10.4738
▁Nadu	-10.4738
▁Kadu	-10.4738
▁Super	-10.4738
uestion	-10.4738
▁Surat	-10.4738
▁cooperat	-10.4738
▁manpower	-10.4738
▁Fortis	-10.4739
DNA	-10.4739
▁discrimination	-10.474
▁compromis	-10.474
▁invest	-10.4741
▁aches	-10.4742
▁specifically	-10.4746
▁erupt	-10.4746
ength	-10.4747
,500	-10.4747
▁disinfectant	-10.4748
▁flow	-10.4749
▁Young	-10.475
▁Nik	-10.4755
▁Special	-10.4849
gov	-10.4878
▁varie	-10.4963
▁touris	-10.5062
bility	-10.5083
legal	-10.5111
▁gene	-10.5152
▁Doctor	-10.5203
▁employee	-10.5205
▁extract	-10.5207
▁actual	-10.5279
Even	-10.5304
Many	-10.5305
more	-10.531
produc	-10.5349
▁isolate	-10.5421
cientists	-10.5448
promised	-10.545
▁mark	-10.5451
ARDS	-10.5452
investigating	-10.5452
▁Privacy	-10.5452
▁Taiwan	-10.5452
▁bronchitis	-10.5452
▁vitamin	-10.5452
ccupational	-10.5452
isinformation	-10.5452
▁Alcohol	-10.5452
▁Denmark	-10.5452
▁Guidelines	-10.5452
▁Network	-10.5452
▁Novavax	-10.5452
▁Punjab	-10.5452
▁Symptoms	-10.5452
▁Thailand	-10.5452
▁Thousands	-10.5452
▁Washington	-10.5452
▁Yavatmal	-10.5452
▁administer	-10.5452
▁easily	-10.5452
▁floor	-10.5452
▁gynecologist	-10.5452
▁lopinavir	-10.5452
▁morbidity	-10.5452
▁popular	-10.5452
▁prescrib	-10.5452
▁sensitive	-10.5452
▁smoke	-10.5452
▁submitted	-10.5452
▁MPSC	-10.5452
▁Sheikh	-10.5452
▁replac	-10.5452
▁Market	-10.5452
▁obstruct	-10.5452
▁ailments	-10.5452
▁Maharaj	-10.5452
▁1201	-10.5452
▁PTI	-10.5452
▁Rules	-10.5452
▁Ramesh	-10.5452
ISC	-10.5452
vector	-10.5452
▁dispute	-10.5452
▁fixed	-10.5452
▁Times	-10.5452
▁Compar	-10.5452
▁sealed	-10.5452
▁domain	-10.5452
▁diff	-10.5452
▁exceed	-10.5452
▁asthma	-10.5452
▁Tupe	-10.5452
▁persisten	-10.5452
▁frame	-10.5453
▁attach	-10.5453
▁limitations	-10.5453
organisms	-10.5453
▁instance	-10.5454
▁else	-10.5455
▁childcare	-10.5455
▁correspondent	-10.5456
▁chart	-10.5456
▁Naik	-10.5457
▁route	-10.5459
▁mission	-10.546
162	-10.5472
resistan	-10.5489
▁ven	-10.5497
minus	-10.5597
abilit	-10.5622
ctually	-10.5628
drawn	-10.5637
subsid	-10.5661
special	-10.5814
hibition	-10.5867
▁lea	-10.5871
▁figure	-10.5974
▁statistic	-10.5974
▁eye	-10.5976
▁impos	-10.5985
medical	-10.607
specific	-10.6072
Chinese	-10.6073
When	-10.6073
January	-10.6073
You	-10.6085
door	-10.6085
▁explain	-10.6143
▁arrest	-10.6144
▁join	-10.618
▁exact	-10.6188
CMR	-10.6211
▁Johns	-10.6212
adjust	-10.6216
▁grocer	-10.6217
uarantine	-10.6221
▁arrange	-10.6221
▁antibiotic	-10.6221
▁uncertain	-10.6221
iagnostic	-10.6221
ritonavir	-10.6221
volume	-10.6221
▁Agarwal	-10.6221
▁Bajirao	-10.6221
▁Bhagwat	-10.6221
▁Cabinet	-10.6221
▁Gadchiroli	-10.6221
▁Netherlands	-10.6221
▁Osmanabad	-10.6221
▁Parliament	-10.6221
▁Patanjali	-10.6221
▁Pharmaceutical	-10.6221
▁Remdesivir	-10.6221
▁Shenzhen	-10.6221
▁Zydus	-10.6221
▁accelerat	-10.6221
▁accurate	-10.6221
▁collaboration	-10.6221
▁concept	-10.6221
▁conferencing	-10.6221
▁dashboard	-10.6221
▁decreasing	-10.6221
▁drastic	-10.6221
▁journey	-10.6221
▁recombination	-10.6221
▁reflect	-10.6221
▁rejected	-10.6221
▁remdesivir	-10.6221
▁simply	-10.6221
▁speech	-10.6221
▁stuck	-10.6221
mbass	-10.6221
▁Ebola	-10.6221
▁module	-10.6221
▁pilot	-10.6221
▁thorough	-10.6221
▁Answer	-10.6221
▁remind	-10.6221
▁foot	-10.6221
▁smell	-10.6221
▁Sangli	-10.6221
▁Wardha	-10.6221
▁afternoon	-10.6221
▁Kishor	-10.6221
▁CEO	-10.6221
▁Genom	-10.6221
▁club	-10.6221
▁spark	-10.6221
▁Arabia	-10.6221
▁retail	-10.6221
▁Level	-10.6221
▁white	-10.6221
▁easy	-10.6221
▁fresh	-10.6221
▁fifth	-10.6221
▁fortnight	-10.6221
▁pool	-10.6221
▁ahead	-10.6221
▁Shri	-10.6222
▁Nanded	-10.6222
▁burn	-10.6222
▁pace	-10.6222
▁river	-10.6222
▁gain	-10.6223
▁lethal	-10.6223
▁Mask	-10.6223
▁forget	-10.6223
▁Gore	-10.6223
▁Western	-10.6223
▁lessons	-10.6224
corpor	-10.6224
▁reference	-10.6224
▁edition	-10.6224
▁dying	-10.6227
mphasi	-10.6229
▁Sudh	-10.6241
eshwar	-10.6243
▁instruct	-10.6336
▁Prasa	-10.6552
2,6	-10.6618
▁ratio	-10.6659
infection	-10.6763
body	-10.6803
▁nurse	-10.6807
▁withdraw	-10.6843
force	-10.6905
intend	-10.6905
December	-10.6906
effective	-10.6907
says	-10.6909
▁obtain	-10.6976
▁launch	-10.6977
▁practi	-10.6991
q	-10.7041
▁Direct	-10.7042
regulation	-10.7051
▁psych	-10.7054
▁Industri	-10.7054
▁categor	-10.7054
▁concentrator	-10.7054
▁pneumo	-10.7054
▁temple	-10.7054
▁transaction	-10.7054
▁truck	-10.7054
OSHA	-10.7054
efficienc	-10.7054
▁Adhanom	-10.7054
▁Bhujbal	-10.7054
▁Chhattisgarh	-10.7054
▁Niranjan	-10.7054
▁Pandey	-10.7054
▁Safety	-10.7054
▁Secretariat	-10.7054
▁Short	-10.7054
▁Surgeon	-10.7054
▁Through	-10.7054
▁antiseptic	-10.7054
▁autopsy	-10.7054
▁beneficial	-10.7054
▁ceremony	-10.7054
▁constituency	-10.7054
▁consulate	-10.7054
▁context	-10.7054
▁deteriorating	-10.7054
▁division	-10.7054
▁dwellers	-10.7054
▁dynamic	-10.7054
▁enemy	-10.7054
▁eradicat	-10.7054
▁hypertension	-10.7054
▁libraries	-10.7054
▁opinion	-10.7054
▁prohibit	-10.7054
▁provision	-10.7054
▁quantities	-10.7054
▁quarter	-10.7054
▁recognition	-10.7054
▁replication	-10.7054
▁revenue	-10.7054
▁stabiliz	-10.7054
▁unnecessary	-10.7054
▁washroom	-10.7054
▁Instead	-10.7054
▁yoga	-10.7054
▁skill	-10.7054
▁mistake	-10.7054
▁Kunte	-10.7054
▁strange	-10.7054
▁repair	-10.7054
▁transcription	-10.7054
▁2019-20	-10.7054
▁endanger	-10.7054
▁weapon	-10.7054
▁Blood	-10.7054
▁army	-10.7054
▁recip	-10.7055
▁Finance	-10.7055
▁Further	-10.7055
▁throw	-10.7055
▁witness	-10.7055
▁Keep	-10.7055
▁prioritize	-10.7055
▁ILI	-10.7055
▁Lancet	-10.7055
▁match	-10.7055
▁slum	-10.7055
LRTI	-10.7055
▁abortion	-10.7055
▁valid	-10.7055
▁Latur	-10.7055
▁watch	-10.7055
▁tired	-10.7055
▁mucormycosis	-10.7055
▁antimicrobial	-10.7055
▁Pvt	-10.7055
▁requirements	-10.7055
NHS	-10.7056
▁Californians	-10.7056
▁fluids	-10.7056
▁emo	-10.7056
▁conclusion	-10.7056
Trace	-10.7056
glass	-10.7056
sterile	-10.7056
▁Pass	-10.7058
▁award	-10.7058
▁bench	-10.7059
▁debate	-10.706
▁Gupt	-10.7064
▁oppos	-10.7064
▁Ghat	-10.7066
▁Civi	-10.7127
▁desire	-10.716
▁Medi	-10.7185
▁commerc	-10.7191
preme	-10.7578
spira	-10.7725
view	-10.7805
associated	-10.7814
count	-10.7814
isolation	-10.7815
MERS	-10.7815
direct	-10.7816
through	-10.7816
▁absen	-10.7844
1.8	-10.7858
introduc	-10.793
inancial	-10.7957
▁chair	-10.7963
▁technic	-10.7963
▁monoc	-10.7963
▁Securit	-10.7963
▁deteriorate	-10.7963
▁parallel	-10.7963
▁stagger	-10.7963
▁succeed	-10.7963
Transport	-10.7963
epidemiology	-10.7963
graduate	-10.7963
hylogenetic	-10.7963
▁Assembly	-10.7963
▁Bangladesh	-10.7963
▁Bluetooth	-10.7963
▁CEPI	-10.7963
▁Governor	-10.7963
▁Hebber	-10.7963
▁Konkan	-10.7963
▁Kovishield	-10.7963
▁Lucknow	-10.7963
▁MHRA	-10.7963
▁Muslim	-10.7963
▁Pednekar	-10.7963
▁Physician	-10.7963
▁Telangana	-10.7963
▁affidavit	-10.7963
▁anonymity	-10.7963
▁appointment	-10.7963
▁combined	-10.7963
▁conclude	-10.7963
▁consequences	-10.7963
▁displeasure	-10.7963
▁earliest	-10.7963
▁easier	-10.7963
▁epidemiological	-10.7963
▁female	-10.7963
▁harass	-10.7963
▁modify	-10.7963
▁paracetamol	-10.7963
▁participate	-10.7963
▁petrol	-10.7963
▁plastic	-10.7963
▁premises	-10.7963
▁religion	-10.7963
▁smooth	-10.7963
▁suitable	-10.7963
▁twenty	-10.7963
▁university	-10.7963
▁visibl	-10.7963
neutral	-10.7963
▁capture	-10.7963
▁escape	-10.7963
▁permitted	-10.7963
▁sports	-10.7963
▁Bhalke	-10.7963
▁garden	-10.7963
▁medium	-10.7963
▁cleave	-10.7963
▁steel	-10.7963
▁KEM	-10.7964
▁Look	-10.7964
▁Lanka	-10.7964
▁migrat	-10.7964
▁honor	-10.7964
peptid	-10.7964
▁welcome	-10.7964
▁arrangements	-10.7964
▁salary	-10.7964
▁value	-10.7964
▁catch	-10.7964
▁diverge	-10.7964
▁uncle	-10.7964
▁Sample	-10.7964
▁protest	-10.7964
▁Organi	-10.7964
▁Critic	-10.7964
▁pulse	-10.7964
▁highway	-10.7964
▁scared	-10.7964
▁malls	-10.7964
▁agency	-10.7964
▁entities	-10.7964
▁soldier	-10.7964
▁Siram	-10.7964
▁century	-10.7965
idden	-10.7965
edicated	-10.7965
▁worst	-10.7965
▁Fear	-10.7965
▁Stay	-10.7965
▁bru	-10.7966
▁coronaries	-10.7966
▁row	-10.7967
▁hint	-10.7968
▁Ganga	-10.7968
▁identi	-10.7969
▁Shir	-10.7969
trust	-10.7973
▁mandat	-10.7979
▁denie	-10.8004
ractitioner	-10.8023
▁waiv	-10.8047
▁0.5	-10.8112
▁minimiz	-10.8123
▁Increas	-10.823
centralized	-10.8476
communica	-10.8563
▁outcome	-10.8714
▁procedure	-10.8715
▁parent	-10.8718
rincipal	-10.8737
dividuals	-10.8779
changing	-10.8814
Currently	-10.8814
Oxygen	-10.8815
distance	-10.8816
▁criticiz	-10.8886
duced	-10.8952
▁correspond	-10.8957
elatives	-10.896
exclud	-10.8962
▁clarif	-10.8963
▁accompan	-10.8963
Ahmedabad	-10.8963
asketball	-10.8963
definitely	-10.8963
molecular	-10.8963
telligence	-10.8963
▁Agricultur	-10.8963
▁Concern	-10.8963
▁Ghebreyes	-10.8963
▁Laborator	-10.8963
▁Legislat	-10.8963
▁Mungantiwar	-10.8963
▁Number	-10.8963
▁Panchayat	-10.8963
▁Personal	-10.8963
▁Restaurants	-10.8963
▁Solidarity	-10.8963
▁Switzerland	-10.8963
▁System	-10.8963
▁accommodat	-10.8963
▁adopted	-10.8963
▁advantage	-10.8963
▁anticipated	-10.8963
▁attitude	-10.8963
▁authority	-10.8963
▁behaviour	-10.8963
▁cheetah	-10.8963
▁deceased	-10.8963
▁diminish	-10.8963
▁feedback	-10.8963
▁identification	-10.8963
▁imaging	-10.8963
▁improving	-10.8963
▁inadequate	-10.8963
▁kidney	-10.8963
▁mellitus	-10.8963
▁nursing	-10.8963
▁pathway	-10.8963
▁physician	-10.8963
▁rupees	-10.8963
▁smoking	-10.8963
▁substantial	-10.8963
▁sugar	-10.8963
▁tsunami	-10.8963
▁unique	-10.8963
Feluda	-10.8963
appointed	-10.8963
▁Austria	-10.8963
▁substance	-10.8963
▁worried	-10.8963
▁Visakha	-10.8963
▁enroll	-10.8963
▁temporarily	-10.8963
▁devastat	-10.8963
▁modified	-10.8963
▁reliev	-10.8963
▁Virology	-10.8963
▁expense	-10.8963
▁swelling	-10.8964
▁technicians	-10.8964
▁Shaila	-10.8964
▁email	-10.8964
▁2018	-10.8964
▁couple	-10.8964
▁2020-21	-10.8964
▁fecal	-10.8964
▁Recent	-10.8964
▁Proper	-10.8964
▁Wada	-10.8964
▁grand	-10.8964
▁altered	-10.8964
▁pork	-10.8964
▁Join	-10.8964
▁push	-10.8964
kumar	-10.8964
▁Subha	-10.8964
convenient	-10.8964
▁Vyas	-10.8964
▁prais	-10.8965
rench	-10.8965
▁hurt	-10.8965
▁mice	-10.8965
▁lawyer	-10.8966
▁equal	-10.8966
Source	-10.8967
▁inquire	-10.8968
print	-10.8968
ABC	-10.8976
▁racis	-10.8986
▁parame	-10.8992
▁gree	-10.8996
preclinical	-10.9013
technology	-10.9419
Anti	-10.9542
tructural	-10.977
▁allegation	-10.9826
power	-10.9923
double	-10.9925
Wuhan	-10.9927
Maharashtra	-10.9927
▁accord	-10.9985
rofessor	-11.0066
etween	-11.0069
ortality	-11.0071
▁tempora	-11.0072
ography	-11.0074
usceptible	-11.0075
▁legislat	-11.0075
▁lymphocyte	-11.0075
▁mortuar	-11.0075
bronchiolitis	-11.0075
iarrhoea	-11.0075
ibavirin	-11.0075
necessarily	-11.0075
▁Bhandara	-11.0075
▁Consumer	-11.0075
▁Dahanu	-11.0075
▁Deepika	-11.0075
▁Engineer	-11.0075
▁Jaishankar	-11.0075
▁Karjat	-11.0075
▁Kolkata	-11.0075
▁Nandurbar	-11.0075
▁Operation	-11.0075
▁Protocol	-11.0075
▁Religious	-11.0075
▁Response	-11.0075
▁Runwal	-11.0075
▁Shingane	-11.0075
▁Technology	-11.0075
▁Tehsildar	-11.0075
▁Third	-11.0075
▁Turkey	-11.0075
▁Vadettiwar	-11.0075
▁WhatsApp	-11.0075
▁alpaca	-11.0075
▁analyzed	-11.0075
▁ceremonies	-11.0075
▁characteristic	-11.0075
▁commitment	-11.0075
▁confused	-11.0075
▁destination	-11.0075
▁discomfort	-11.0075
▁dramatic	-11.0075
▁elbow	-11.0075
▁emphasiz	-11.0075
▁encounter	-11.0075
▁encouraging	-11.0075
▁exacerbat	-11.0075
▁governor	-11.0075
▁guarantee	-11.0075
▁immunization	-11.0075
▁interferon	-11.0075
▁misconception	-11.0075
▁politici	-11.0075
▁prognosis	-11.0075
▁quantity	-11.0075
▁quarantining	-11.0075
▁reassuring	-11.0075
▁rickshaw	-11.0075
▁saliva	-11.0075
▁sanitation	-11.0075
▁surrounding	-11.0075
▁ultimate	-11.0075
▁vessel	-11.0075
▁Cadilla	-11.0075
▁Important	-11.0075
▁abnormal	-11.0075
▁afterwards	-11.0075
▁climate	-11.0075
▁defeat	-11.0075
▁initiated	-11.0075
▁mumps	-11.0075
▁Kakani	-11.0075
▁ORF	-11.0075
▁RBD	-11.0075
▁explore	-11.0075
▁injured	-11.0075
▁pillow	-11.0075
▁lunch	-11.0075
▁NBA	-11.0075
▁OPD	-11.0075
▁understood	-11.0075
▁caution	-11.0075
▁stead	-11.0075
▁unlikely	-11.0075
▁Lahane	-11.0075
▁favor	-11.0075
▁loom	-11.0075
▁Jalna	-11.0075
▁properties	-11.0075
▁MNS	-11.0075
▁brain	-11.0075
▁encod	-11.0075
ggage	-11.0075
▁travellers	-11.0075
▁Ashish	-11.0075
▁tube	-11.0075
▁scene	-11.0075
▁Long	-11.0076
▁skeptic	-11.0076
▁Protect	-11.0077
ARI	-11.008
▁therapi	-11.0082
▁Sangh	-11.009
▁puni	-11.0114
▁citizen	-11.0159
wake	-11.017
Effective	-11.034
▁comfortabl	-11.05
EUA	-11.0653
▁comfort	-11.0863
▁degree	-11.1074
October	-11.1175
develop	-11.1177
Government	-11.1177
▁approv	-11.1217
▁hygien	-11.127
connected	-11.1285
▁constant	-11.1291
▁investigate	-11.1292
▁strategi	-11.1311
ifferent	-11.1321
ordinat	-11.1322
clusion	-11.1322
andatory	-11.1322
▁broad	-11.1323
Administrat	-11.1324
ortunately	-11.1324
nstitution	-11.1325
▁counsel	-11.1325
▁Business	-11.1325
▁Crowd	-11.1325
▁Devanand	-11.1325
▁Eight	-11.1325
▁brief	-11.1325
▁calculat	-11.1325
▁compensat	-11.1325
▁cyclone	-11.1325
▁infiltrat	-11.1325
▁neglect	-11.1325
▁vulnerab	-11.1325
FEMA	-11.1325
hysiotherap	-11.1325
xpenditure	-11.1325
▁Chaudhary	-11.1325
▁Christmas	-11.1325
▁Dattatraya	-11.1325
▁Dokania	-11.1325
▁English	-11.1325
▁Festival	-11.1325
▁Francisco	-11.1325
▁Hinduism	-11.1325
▁Loksatta	-11.1325
▁Malaysia	-11.1325
▁Manufacturer	-11.1325
▁Member	-11.1325
▁Mhetre	-11.1325
▁Mukherjee	-11.1325
▁Nalasopara	-11.1325
▁Patole	-11.1325
▁Philippines	-11.1325
▁Ratnagiri	-11.1325
▁Registration	-11.1325
▁Sarpanch	-11.1325
▁Sassoon	-11.1325
▁Syndrome	-11.1325
▁Tendulkar	-11.1325
▁WHERE	-11.1325
▁Zealand	-11.1325
▁accuracy	-11.1325
▁aggressive	-11.1325
▁appetite	-11.1325
▁ascertain	-11.1325
▁automatically	-11.1325
▁breastfeed	-11.1325
▁channel	-11.1325
▁church	-11.1325
▁combat	-11.1325
▁competit	-11.1325
▁concert	-11.1325
▁constitute	-11.1325
▁contagion	-11.1325
▁eligible	-11.1325
▁elsewhere	-11.1325
▁explanation	-11.1325
▁explosion	-11.1325
▁fingernails	-11.1325
▁havoc	-11.1325
▁infarction	-11.1325
▁jurisdiction	-11.1325
▁language	-11.1325
▁malaria	-11.1325
▁negligence	-11.1325
▁neighbor	-11.1325
▁oximeter	-11.1325
▁passport	-11.1325
▁preschool	-11.1325
▁prison	-11.1325
▁procured	-11.1325
▁remarkabl	-11.1325
▁replicate	-11.1325
▁robust	-11.1325
▁sanctions	-11.1325
▁saturation	-11.1325
▁tremendous	-11.1325
▁vaccinators	-11.1325
▁voice	-11.1325
▁worrisome	-11.1325
▁xenophobia	-11.1325
▁Integrat	-11.1325
▁Iraq	-11.1325
▁Nigeria	-11.1325
▁Wikimedia	-11.1325
▁applicable	-11.1325
▁article	-11.1325
▁institutional	-11.1325
▁relationship	-11.1325
▁vendors	-11.1325
▁vitro	-11.1325
▁Spring	-11.1325
▁affix	-11.1325
▁subunit	-11.1325
▁unprecedented	-11.1325
▁assign	-11.1325
▁Isolation	-11.1325
▁Shenoy	-11.1325
▁permanent	-11.1325
▁Mishra	-11.1325
▁coaches	-11.1325
▁vacant	-11.1325
▁divide	-11.1325
▁NCE	-11.1325
▁99.9	-11.1325
▁irrita	-11.1325
▁mechani	-11.1325
▁Large	-11.1325
▁consumer	-11.1325
▁Though	-11.1325
Teacher	-11.1325
▁Lokma	-11.1326
▁strik	-11.1326
Remov	-11.1326
▁arteri	-11.1327
▁verifi	-11.134
▁Biologic	-11.1347
nirvan	-11.1347
profil	-11.1521
▁Effect	-11.2416
▁involv	-11.2419
▁scientist	-11.2506
clinical	-11.2533
February	-11.2605
social	-11.2605
vaccine	-11.2606
pproximate	-11.263
▁committe	-11.2652
▁publish	-11.2676
▁technolog	-11.2713
Z	-11.4271
(	-11.4272
