<pad>	0
</s>	0
<unk>	0
¦	-1.56809
▁¦	-1.58121
ᓐ	-3.39069
ᒡ	-3.69335
ᒃ	-3.81442
▁᙮	-3.93157
▁,	-4.0335
ᓂ	-4.33824
ᑕᔥ	-4.43771
ᑳ	-4.44505
ᕽ	-4.55296
ᒋ	-4.61352
ᐙ	-4.71377
ᒦ	-4.86688
ᑭ	-4.92242
ᐃ	-4.95908
ᐁ	-4.97925
ᑮ	-4.98395
ᑲᔦ	-5.03387
ᑕ	-5.14139
ᑫ	-5.18417
ᓇ	-5.23409
ᐞ	-5.24867
ᐅ	-5.29836
ᐗ	-5.30045
ᔥ	-5.31168
ᒫ	-5.36601
ᓴ	-5.46772
ᑭᔐᒪᓂᑑ	-5.56724
ᑯ	-5.58418
ᒥ	-5.58577
ᑎ	-5.62463
ᑲ	-5.67087
ᐸ	-5.67157
ᐊ	-5.67606
ᔅ	-5.67704
ᐱ	-5.68332
▁:	-5.68901
ᐁᑮ	-5.70932
ᐃᐃ	-5.75664
ᑳᐐ	-5.77144
ᒻ	-5.81193
ᓯ	-5.82111
ᑖ	-5.84291
ᑳᑮ	-5.8515
ᔮ	-5.8928
ᐎ	-5.90578
ᒪ	-5.91387
ᐅᑮ	-5.91797
ᓃ	-5.92296
ᓰ	-5.95214
ᐐᓐ	-5.97483
ᓈ	-5.97686
ᔭ	-5.98086
ᐃᓂ	-5.99545
ᔑ	-6.00665
ᐋᓃ	-6.03675
ᒋᓴ	-6.04266
ᐃᐃᒫ	-6.05351
ᓀ	-6.12529
ᔦ	-6.17286
ᐊᐎᔭ	-6.17756
ᐐ	-6.18007
ᐊᐲ	-6.19927
ᐌ	-6.2065
ᐋ	-6.20926
ᐎᓐ	-6.23934
ᑳᐃᔑ	-6.25162
ᑲᑭᓇ	-6.27988
ᐊᐊ	-6.32012
ᑭᒋ	-6.34085
ᐅᐅ	-6.38819
ᑌ	-6.41441
ᑰ	-6.43968
ᐁᔑ	-6.4436
ᐃᑭ	-6.44753
ᓅ	-6.44855
ᐲ	-6.47099
ᐃᔑ	-6.50281
ᓱ	-6.51473
ᑑ	-6.54999
ᐃᑯ	-6.55957
▁	-6.59292
ᒀ	-6.61675
ᒣ	-6.62383
ᐅᒋ	-6.63102
▁?	-6.66433
ᐊᔮ	-6.6995
ᑫᑰ	-6.70535
ᐹ	-6.73617
ᓄ	-6.76831
ᑴ	-6.78407
ᓭ	-6.82354
ᐃᔑᒋᑫ	-6.83958
ᑭᑲ	-6.84753
ᑾ	-6.85863
ᒥᓂ	-6.86147
ᒥᓐ	-6.88899
▁!	-6.8942
ᐎᓂ	-6.89647
ᔥᐱ	-6.92037
ᐯ	-6.92565
ᐃᓇ	-6.93422
ᐃᐌ	-6.94519
ᐅᑮᐃᓈ	-6.946
ᓂᓂ	-6.97715
ᑐ	-7.00663
ᑮᓇᐙ	-7.01982
ᒌ	-7.02481
x	-7.04251
𐋇	-7.04417
ᐊᑮ	-7.07424
ᑦ	-7.07466
ᓲ	-7.08677
ᑣ	-7.09727
ᒧ	-7.10329
ᐯᔑ	-7.1351
ᓂᑮ	-7.14624
ᐁᐐ	-7.15886
ᐁᑕ	-7.17208
ᐱᔥᑰ	-7.1913
ᔕ	-7.20659
ᑌᐺ	-7.21113
ᐅᑲ	-7.21409
ᓵ	-7.21841
ᓈᓐ	-7.22419
ᐄ	-7.22944
ᐃᑭᑐ	-7.27382
ᓈᐙ	-7.27972
ᐋᔕ	-7.28438
ᒨ	-7.28872
ᐱᒫᑎᓯ	-7.29562
ᑕᔑ	-7.30355
ᐌᑎ	-7.31907
ᑮᐃᑭᑐ	-7.32886
ᑲᓇ	-7.33756
ᕒ	-7.34947
ᑭᐸ	-7.35547
ᑳᑎᐯᒋᑫ	-7.35613
ᑳᑮᐃᔑ	-7.36068
ᒦᓇᐙ	-7.36435
ᑲᑴ	-7.37043
ᒥᓄ	-7.41058
ᐃᓂᓂ	-7.43462
ᓈᓂ	-7.46368
ᓵᑭ	-7.46947
ᐃᒫ	-7.47041
ᒋᑫ	-7.48199
ᑭᑮ	-7.48471
ᓂᓯ	-7.49552
ᑳᐅᒋ	-7.51456
ᐙᐸ	-7.52272
ᐅᑎ	-7.52397
ᐴ	-7.52519
ᒧᐙ	-7.52771
ᒪᑲ	-7.52783
ᓂᑲ	-7.53068
ᓂᐳ	-7.54399
ᑳᔑ	-7.55162
ᓂᑯ	-7.55545
ᐊᐌ	-7.55989
ᑕᒫ	-7.56732
ᐃᐃᐌ	-7.58341
ᐅᔕ	-7.58813
ᐐᒋ	-7.58941
ᑫᑯ	-7.5907
ᑮᔑ	-7.59851
ᐎᓇ	-7.59878
ᑮᐃᔑ	-7.6045
ᐯᔑᑾ	-7.61074
ᓯᐙ	-7.61317
ᐱᑯ	-7.61494
ᑖᑯᓯ	-7.61878
ᓈᑯ	-7.64076
ᐊᔮᓂ	-7.64575
ᐃᓈ	-7.64632
ᒫᐗ	-7.65151
ᑯᑕ	-7.65686
ᑑᑕ	-7.65996
ᒪᒋ	-7.66063
ᐃᔖ	-7.68589
ᐃᓂᓂᐗ	-7.70584
ᐅᒌ	-7.70633
ᔑᑾ	-7.71047
ᐊᐌᓀ	-7.71765
ᑭᑎ	-7.72357
ᓅᑕ	-7.73139
ᔒ	-7.73145
ᐅᐌ	-7.73181
ᑭᑌ	-7.73695
ᐙᐸᒫ	-7.74692
ᐙᐸᑕ	-7.75505
ᐋᐱᒋ	-7.75512
ᐐᑫ	-7.76165
ᒑ	-7.76338
ᔖ	-7.76532
ᐊᓂ	-7.76856
ᔐ	-7.77211
ᐁᑳ	-7.77971
ᐅᑌᐺᑕᒨ	-7.78253
ᓂᓂᒻ	-7.78298
ᑾᔭ	-7.7958
ᒥᓯᐌ	-7.8109
ᐆᑌᓈ	-7.81445
ᒋᑳᑌ	-7.81636
ᒫᒌ	-7.8199
ᐌᒋ	-7.8229
ᓇᑰ	-7.82452
ᑭᑫᑕ	-7.82647
ᑕᒧᐙ	-7.83885
ᐅᐅᐌ	-7.84178
ᐃᔥᒀ	-7.84273
ᒎᐗ	-7.84837
ᒥᑯ	-7.84989
ᑲᒥ	-7.85505
ᐌᓂ	-7.8619
ᑮᐌ	-7.86716
ᑭᑭᓄᐊᒫᑫ	-7.87543
ᑖᑾ	-7.87693
ᑕᐌ	-7.89213
ᐱᒥ	-7.89337
ᐅᑮᐃᑰ	-7.90105
ᓂᑕ	-7.90585
ᒎ	-7.90785
ᒣᒀ	-7.90974
ᓂᑖ	-7.9136
ᑕᑯᔑ	-7.91521
ᒫᒑ	-7.91901
ᓯᓂ	-7.92234
ᑌᐺᑕ	-7.93076
ᓬ	-7.93901
ᓯᒀ	-7.94203
ᑕᑲ	-7.9463
ᐅᑖ	-7.9471
ᐤ	-7.94927
ᓯᓅ	-7.95072
ᑮᐅᒋ	-7.95713
ᐌᑯᓀ	-7.96176
ᑯᐙ	-7.96982
ᐊᑕ	-7.97162
ᐃᓀᑖᑯᓯ	-7.97434
ᐊᓄᑮ	-7.97842
ᐊᓇᒥᐁ	-7.98282
ᑌᓂ	-7.98413
ᑮᐊᓂ	-7.98519
ᐊᐊᐌ	-7.98792
ᐋᓂ	-7.98845
ᒋᐅᒋ	-7.99061
ᑭᓯ	-7.99383
ᐅᓇᔓᐌᐎ	-8.00437
ᑳᑮᐅᒋ	-8.007
ᐎᓂᐙ	-8.00719
ᒪᓐ	-8.01168
ᒨᔕ	-8.01906
ᑫᐅᒋ	-8.02782
ᐅᑕ	-8.03555
ᓈᑾ	-8.04716
ᐙᐱ	-8.05004
ᐅᑯ	-8.05216
ᓇᐗ	-8.0578
ᑕᑯ	-8.06221
ᑖᑯ	-8.06234
ᐎᓂᓂ	-8.06544
ᑫᔮᐱ	-8.07213
ᐆ	-8.0766
ᓈᑯᓯ	-8.07809
ᑫᓂ	-8.07998
ᐙᐸᒥ	-8.08293
ᑭᑖ	-8.08414
ᐅᑭᑭᓄᐊᒪᐙᑲᓇ	-8.09783
ᐱᒫᑎᓯᐎ	-8.09876
ᑲᓅᓈ	-8.10008
ᒥᒋ	-8.10117
ᑫᔑ	-8.10195
ᐁᑮᐃᔑ	-8.10482
ᑕᒧ	-8.10653
ᑌᐱ	-8.1069
ᑭᑑ	-8.11003
ᑭᒋᐅᑭᒫ	-8.11113
ᐋᓇ	-8.11404
ᒞ	-8.11482
ᐅᑯᓯᓴ	-8.11485
ᓃᐱᐗ	-8.11497
ᑕᒪᐙ	-8.1152
ᑆᓬ	-8.11965
ᐗᐊ	-8.12369
ᔔᓂᔮ	-8.12462
ᐃᓀᑕ	-8.13059
ᓯᓂᓂ	-8.14843
ᐯᒫᑎᓯᓂ	-8.15961
ᐃᓇᔥᑫ	-8.16481
ᑰᔦ	-8.17086
ᒋᑑ	-8.18037
ᓯᐌ	-8.18787
ᐊᐗᔑᒣ	-8.19062
ᔥᑲ	-8.19092
ᑳᐃᓈ	-8.19149
ᐐᓇᐙ	-8.19624
ᓰᐗ	-8.2003
ᑭᑭ	-8.20337
ᐅᔑ	-8.21244
ᒦᐗ	-8.21261
ᑎᓄ	-8.2175
ᐸᐹ	-8.21823
ᑎᓄᐎ	-8.21938
ᔓ	-8.22152
ᐁᐃᔑ	-8.22274
ᐲᑎᑫ	-8.22828
ᑲᔥᑭᑑ	-8.23077
ᓈᑲ	-8.23166
ᐲᑕᕒ	-8.23365
ᓂᑎᓱ	-8.24604
ᑉ	-8.25009
ᐌᓂᐗ	-8.25164
ᓉ	-8.25186
ᓯᓄ	-8.25484
ᒪᐎ	-8.26069
ᒪᔮ	-8.26166
ᐐᒌᐙ	-8.26198
ᔭᐄ	-8.26287
ᑮᐊᔮ	-8.26977
ᐅᓄ	-8.27767
ᐲᓂ	-8.27894
ᔖᑰ	-8.28101
ᑭᒋᑮᔑᑯ	-8.28411
ᐃᔑᓭ	-8.28563
ᐐᑕᒪᐎ	-8.28868
ᐐᒌᐎ	-8.2929
ᓬᐊ	-8.29376
ᐹᑏᓄ	-8.29569
ᐃᑴ	-8.29903
ᐯᒫᑎᓯᐙ	-8.30153
ᑭᑕ	-8.30351
ᑳᑕᔑ	-8.31051
ᑕᐙ	-8.31223
ᓍ	-8.31332
ᑳᓂ	-8.31889
ᐸᑭᑎᓂ	-8.31919
ᑮᐃᑭᑐᐗ	-8.32098
ᐗᓂᓂ	-8.32402
ᒪᒋᑑᑕᒧᐎ	-8.32582
ᑯᓯ	-8.33101
ᒋᐋ	-8.33207
ᑭᑫᑖ	-8.33428
ᐱᓵ	-8.33551
ᓈᑾᓂᓂ	-8.33726
ᒦᓈ	-8.34511
ᐅᓇ	-8.34703
ᐐᔭᐎ	-8.34997
ᐃᑯᐙ	-8.35833
ᓯᐗ	-8.36022
ᑲᓅᓂ	-8.36432
ᕒᐊ	-8.36775
ᐅᑯᓯᓯ	-8.36827
ᐊᓇᒥᐋ	-8.38085
ᐁᐊᓂ	-8.38886
ᑮᔑᑲ	-8.39278
ᔂ	-8.39362
ᒥᑰ	-8.39534
ᓇᑴᑕ	-8.39743
ᐐᒌᐎᑯ	-8.3986
ᑲᓂᓂ	-8.40257
ᐋᐸ	-8.41066
ᑳᑌ	-8.41123
ᑎᐱ	-8.41741
ᐅᓵ	-8.42309
ᒉᕒᐆᓴᓬᐊ	-8.42631
ᑳᐱ	-8.42787
ᓃᔑ	-8.42891
ᒋᐃᔑ	-8.42997
ᐅᑑ	-8.43058
ᐐᓯᓂ	-8.43169
ᓂᑖᐎᑭ	-8.43321
ᑮᓇᐎ	-8.43484
ᒪᔥᑲᐎᓰ	-8.44124
ᑳᐃᑭᑐ	-8.4431
ᑫᑰᓂᓂ	-8.45296
ᐁᑮᐃᓈ	-8.45645
ᑕᒪᐎ	-8.45768
ᐅᑕᒑᑾ	-8.46009
ᐸᑴᔑᑲ	-8.4601
ᒥᓇ	-8.46346
ᒥᑖ	-8.46351
ᓬᐃ	-8.46589
ᑮᔑᑲᓂᓂ	-8.46916
ᐱᒫᑎᓰ	-8.47394
ᒥᓉᑕ	-8.47446
ᓂᑳᑌ	-8.47582
ᐊᐎ	-8.4784
ᑭᑫᓂᒫ	-8.48104
ᑭᒋᐊᓇᒥᐁᐎᑭᒫ	-8.48149
ᐁᐱ	-8.48298
ᓈᓯᑲ	-8.49661
ᑏ	-8.5094
ᐅᓂᔑᔑ	-8.5094
ᐸᑳ	-8.51539
ᐯᔑᑯ	-8.5206
ᐋᑎ	-8.52326
ᐅᑮᐃᔑ	-8.53042
ᐃᓇᑫ	-8.53056
ᓂᔑᐗᓈ	-8.53121
ᓀᒀ	-8.53291
ᐃᓂᐌᓂᐗ	-8.53477
ᓃᓇ	-8.53655
ᐃᑴᐗ	-8.53782
ᐆᑌᓇ	-8.53875
ᑯᐸᓀ	-8.53925
ᓃᔣ	-8.53936
ᒪᑲᓂᓂ	-8.54013
ᐱᓯ	-8.54463
ᒥᓍᒋᒧᐎ	-8.55369
ᑯᒫ	-8.55581
ᐅᑭᒫ	-8.57688
ᐐᒋᐃ	-8.57809
ᒪᒋᑑᑕ	-8.58192
ᒥᓈ	-8.5823
ᐅᑖᐱᓇ	-8.58437
ᐯᐸᑳ	-8.58565
ᑭᑫᓂᒥ	-8.586
ᑕᒫᑯ	-8.58728
ᔥᑳᑯ	-8.59719
ᐁᔮ	-8.59919
ᐌᐌᓂ	-8.60436
ᐲᔖ	-8.61157
ᐃᓴ	-8.6178
ᑲᓅ	-8.61892
ᒋᑲᓂᐎ	-8.62455
ᐊᒦ	-8.63604
ᑳᑮᐱ	-8.6437
ᑰᔭ	-8.64379
ᐃᔑᐲᐃᑳᑌ	-8.64862
ᐹᓂᒫ	-8.65737
ᐃᐃᐌᓂ	-8.65802
ᐱᓯᑕ	-8.65985
ᐊᔮᐙ	-8.66323
ᒨᓯ	-8.66876
ᒋᑳᑌᓂ	-8.6717
ᑎᐹᑯᓂ	-8.67383
ᐸᑭᑎᓈ	-8.67391
ᑭᑎᔑ	-8.68058
ᑎᐯᑖᑯᓯ	-8.68239
ᑎᐯᑕ	-8.68341
ᓈᐱ	-8.69603
ᐁᑮᐃᑭᑐ	-8.69713
ᒪᒋᐊᒑᑾ	-8.69969
ᑕᐙᐙ	-8.70148
ᓂᔕᐙ	-8.70432
ᐎᑲᒥᑯ	-8.70852
ᐴᓂ	-8.70881
ᑮᐃᔖ	-8.70945
ᑮᐌᐱᒫᑎᓯ	-8.71083
ᐊᒑ	-8.71722
ᑫᒋᓈ	-8.71863
ᐐᑕᒪᐙ	-8.72573
ᒫᐗᒋᐃᑎ	-8.73525
ᐸᑭᑎᓇ	-8.73536
ᐱᒫᒋᐃ	-8.73709
ᐅᑎᓯ	-8.74019
ᑗ	-8.74434
ᐋᐸᒋᑑ	-8.74478
ᑎᐯᓂᒥᑯ	-8.75173
ᐃᔑᓈᑯᓯ	-8.7566
ᐃᑎᓱ	-8.7719
ᐙᑳᐃᑲ	-8.77232
ᑳᐸᐎ	-8.77525
ᐃᓈᑯᓂᑫᐎ	-8.78156
ᑳᒎᐎᐎᓯ	-8.78156
ᐊᔮᔦ	-8.78263
ᑖᓈᐙ	-8.78374
ᐳ	-8.79284
ᐁᒐᓬᐊ	-8.79354
ᐐᑎᑫ	-8.79464
ᑲᓂᐎ	-8.79576
ᑭᑎᑫ	-8.79904
ᐊᔨ	-8.80243
ᐁᐸᕒᐊᐋ	-8.8104
ᔩ	-8.8104
ᑲᓇᐌᑕ	-8.819
2	-8.82021
ᔫ	-8.82021
ᑲᑴᒋᒫ	-8.82041
ᓰᑲᐊᑖ	-8.83011
ᐅᒋᒋᓭ	-8.83107
ᒫᔑ	-8.83286
ᐌᑖᑯᓯ	-8.83311
ᐯᕒᐊᓰ	-8.84011
ᒋᑫᐎ	-8.84013
ᐃᔑᓂᑳᓱ	-8.84026
ᑲᑴᒋᒥ	-8.84292
ᐁᑮᐊᓂ	-8.84732
ᓀᓂᒥ	-8.84828
ᐋᐱ	-8.85002
ᑑᑕᐎ	-8.85282
ᑳᐊᔮᐙ	-8.85526
ᐅᔥᑭ	-8.86269
ᒦᓂᑰ	-8.86309
ᒥᓂᑴ	-8.86926
ᐃᔅᕒᐃᔭᓬ	-8.87072
ᐅᑎᑭᑐᐎ	-8.87073
ᐴᔔ	-8.87119
ᑭᒋᐊᓇᒥᐁᐎᑲᒥᑯ	-8.87213
ᐊᐱ	-8.87462
ᑭᑭᓄᐊᒪᐙᑲᓇ	-8.87667
ᐁᑕᓱ	-8.87933
ᐃᔑᓭᓂ	-8.88028
ᓂᑌᑌ	-8.88139
ᑮᑭᑐ	-8.8881
ᓃᐸᐎ	-8.89294
ᕒᐄ	-8.89509
ᒨᔥᑭᓀ	-8.9023
ᒦᓂᑯ	-8.90233
ᓂᓯᑐᑕ	-8.90325
ᓀᓂᒫ	-8.90386
ᐊᓉ	-8.90883
ᑌᐯᒋᑫ	-8.91306
ᐐᑕᒫᑫ	-8.91451
ᐃᔑᓈᑾ	-8.91745
ᑎᐯᓂᒥ	-8.92597
ᒋᑆ	-8.92925
ᐁᑮᐅᒋ	-8.93254
ᒥᓍᐸ	-8.93494
ᒥᓄᐊᔮ	-8.93796
ᐃᓀᑖᑾ	-8.94112
ᒦᑭᐌ	-8.9477
ᐯᔓ	-8.94807
ᐅᑌᑌ	-8.94818
ᐱᓀ	-8.95369
ᐅᑕᒑᑯᓂ	-8.95726
ᑲᒀᑕᑭᑑ	-8.95797
ᑑᑖ	-8.96065
ᒉ	-8.96863
ᔥᑲᐙ	-8.9714
ᐲᐎ	-8.97151
ᓰᒥ	-8.9758
ᐊᑕᐌᑕ	-8.98156
ᑾᔭᑯ	-8.98814
ᑎᐹᒋᒧᐎ	-8.98966
ᒫᒪᐎ	-8.99043
ᐅᑖᐱᓈ	-8.99197
ᐅᑎᐯᒋᑫᐎ	-8.99216
ᑭᑭᔥᑲ	-8.99857
ᓃᑳᓂ	-9.00234
ᐱᒧᓭ	-9.01551
ᔔ	-9.02689
ᑮᐃᓀᑕ	-9.02961
ᑭᑭᑫᑖ	-9.04277
ᐋᓇᐐ	-9.04485
ᑮᐅᑌᑌ	-9.04988
ᔑᒫᑲᓂᔕ	-9.06451
ᑌᐺᐎ	-9.06508
ᑭᒋᒪᓯᓇᐃᑲ	-9.06603
ᒧᐎ	-9.07417
ᒥᓴᐌᑕ	-9.07727
ᐊᓄᑮᐋᑲ	-9.07781
ᐊᓯᓃ	-9.0784
ᐃᔑᐌᐸ	-9.07906
ᑲᐎ	-9.08105
ᐃᔑᐌᐱᓯ	-9.09021
ᒪᓂᑑ	-9.09042
ᐅᔑᑑ	-9.10658
ᑭᑫᑕᒧ	-9.1088
ᑰᐎ	-9.11163
ᐁᒐᓬ	-9.11274
ᑭᑭᓄᐊᒪᐙ	-9.11546
ᑳᓬᐊᓬᐄ	-9.11613
ᐃᔑᐱᒫᑎᓯ	-9.1265
ᐌᓅᑎᓯ	-9.12947
ᓵᐃᒪ	-9.12997
ᑲᓅᑕᒪᐙ	-9.12999
3	-9.14298
ᐱᒥᓂᔕᐅ	-9.14298
ᒫᒥᑲᐎ	-9.143
ᑲᒀᑕᑭᐃ	-9.14524
ᐊᔮᒀᒥ	-9.15674
ᐃᔑᓂᔕᐅ	-9.15678
ᐙᓭᔮ	-9.15693
ᐃᔥᒀᓭ	-9.16074
ᓭᑭᓯ	-9.16195
ᑲᔥᑭᑑᓰ	-9.16383
ᒪᔥᑲᐎ	-9.16737
ᒣᕒᐃ	-9.17062
ᔖᑯᐌ	-9.17068
ᐊᐱᓅᒌᔕ	-9.17087
ᐌᐱᓂ	-9.18465
ᐃᔥᑯᑌ	-9.18466
ᐅᒌᒪᑲ	-9.19508
ᑾᔭᒀᑎᓯ	-9.19894
ᐹᐃᓬᐊ	-9.19896
ᑌᐺᔦᑕᒧᐎ	-9.19964
ᐅᒫᒫ	-9.20001
ᐐᑕᒪᐎᓇᑰ	-9.20005
ᐐᒋᑭᐌ	-9.20062
ᐌᐱᓈ	-9.21574
ᓅᒋᑯ	-9.22874
ᐱᒫᒋᐃᑰᐎ	-9.22881
ᐃᔑᓂᔕᐙ	-9.23629
ᓶ	-9.24306
ᐅᔑᐲᐊ	-9.24308
ᒪᓯᓇᐃᑲ	-9.25636
0	-9.25821
ᒫᒪᑳᒋᒋᑫ	-9.25821
ᐊᑐᒥ	-9.25931
ᑎᐯᓂᒫ	-9.27361
ᐅᑕᓄᑮ	-9.27362
ᐅᐙᑳᐃᑲᓂ	-9.27374
ᐁᑭᑐ	-9.27408
ᐐᑾᑎ	-9.2742
ᔕᐌᑖᑯᓯ	-9.27476
ᑌᐺᑕᒧᐎ	-9.27925
1	-9.28922
ᐸᓯᑸ	-9.28923
ᒥᔅᑸ	-9.28923
ᐌᔫᓯᒥ	-9.30509
ᐊᑐᒫ	-9.3053
ᒪᒋᐊᔭᐋ	-9.30818
ᓇᒪᑕᐱ	-9.32123
ᑎᐸᐃᑲ	-9.32123
ᐁᓈᓴᒦ	-9.32123
ᐅᑖᐱᓂ	-9.32382
ᓇᐃᑕ	-9.32812
ᒌᑫᑕ	-9.3301
ᑭᑎᑳᓀ	-9.33775
ᐃᑭᑑᒪᑲ	-9.3388
ᒥᓴᐙ	-9.33923
ᓅᑌᓭ	-9.35432
ᑭᑭᔥᑭᑲ	-9.35432
ᐁᐲᒋ	-9.35551
ᑸ	-9.37121
ᐊᔓᑕᒫᑫ	-9.37123
ᐅᑕᓄᑮᐋᑲᓇ	-9.37123
ᔕᐌᓂᒥ	-9.37141
ᐃᔑᓂᔕᐙᑲᓇ	-9.37201
ᑌᐺᔦᑕ	-9.37242
ᐅᓄᐌᓂᐗ	-9.3893
ᒣᐎᔕ	-9.40605
ᓵᑲᐊ	-9.40702
ᑎᐯᒋᑫ	-9.41167
ᐐᓱᐎ	-9.41181
ᔪ	-9.42387
ᑭᑭᓄᐃᑫ	-9.42387
ᐅᑭᔐᐙᑎᓯᐎ	-9.42405
ᐃᓈᑎᓯ	-9.42919
4	-9.44206
ᐅᑎᔑᒋᑫᐎ	-9.44207
ᒦᓂᑰᐎᓯ	-9.44211
ᑲᑭᑐ	-9.44272
ᐱᔑᔑ	-9.44276
ᓵᑭᐃᐌᐎ	-9.4451
ᑎᐱᓇᐌ	-9.46057
ᒫᒪᑳᑌᑕ	-9.46058
ᑭᑭᔥᑳᑯ	-9.46145
ᑮᒨᒋ	-9.46421
ᔨ	-9.47604
ᐋᔑᑌᔮᑎ	-9.47944
ᐗᔦᔑ	-9.47978
ᐐᒌᐗ	-9.48324
ᑭᑭᓄᐊᒫ	-9.49062
ᔔᒥᓈᐳ	-9.49867
ᐊᐯᓂᒧ	-9.49867
ᐅᑕᑳᓀᓯ	-9.49868
ᐅᑎᓀᑕᒧᐎ	-9.51828
ᑕᑶᔑ	-9.51829
ᑌᐺᔦᓂᒥ	-9.5183
ᐊᓈᒥ	-9.51872
ᒐ	-9.53801
ᓵᑭᐃᑎ	-9.53803
ᓀᑖᑾᓂᓂ	-9.54729
ᑆ	-9.54894
7	-9.55869
ᓇᑲᓈ	-9.56453
ᒬ	-9.57952
ᔑᒫᑲᓂᔒᐎᑭᒫ	-9.57952
ᑲᑮᑖᐌᑕ	-9.57952
ᑎᐹᒋᒥ	-9.57963
ᒫᑭᔖ	-9.57973
ᐅᐐᓱᐎᓂ	-9.57978
ᑭᑎᒫᑭ	-9.58107
ᒫᓇᒑᓂᔐ	-9.6008
ᒐᔭᐄ	-9.60108
ᐊᔓᑕᒪ	-9.60123
ᐸᑯᓭᓂᒥ	-9.60155
ᐅᑑᓇᔓᐌᐎ	-9.62254
ᐁᔑᓂᑳᓱ	-9.62254
ᓂᔥᑳᑎᓯ	-9.64476
ᐅᑌᐺᑕᒧᐎᓂ	-9.64498
ᐱᒌᓇ	-9.64501
ᑎᐹᒋᒧ	-9.64881
ᑲᒀᑕᑭ	-9.66227
ᐊᓇᒥᐁᐎᑭᒫ	-9.66563
ᓵᑲᐃᑲ	-9.66749
ᒥᑖᔑᓃᔑ	-9.66749
ᐃᓇᓄᑮ	-9.66761
ᐸᑯᓭ	-9.69016
ᐅᑕᓇᒥᐋ	-9.69074
ᐅᔑᐲᐃᑳᑌ	-9.69074
ᒥᑯᔥᑳᑌᑕ	-9.69074
ᐱᔑᒀᑎᓯ	-9.69074
ᒪᔥᑲᐌᑕ	-9.69075
ᐅᓈᐸᒫ	-9.69075
ᓂᔑᐗᓈᑎᓯ	-9.69103
ᒋᐱᒫᒋᐃᐌ	-9.69121
ᑎᐸᐃᑫ	-9.71457
ᒣᔥᑾ	-9.71467
ᑳᑎᐯᓂᒥᓇ	-9.71485
ᓇᓈᑯᒫ	-9.71495
ᐌᐱᓇ	-9.71515
ᑳᓃᑳᓂᓯ	-9.71555
ᐐᑕᒫᑰ	-9.724
ᑶ	-9.81589
ᐺ	-9.83786
ᒸ	-9.8707
ᔣ	-9.9563
ᓋ	-10.126
ᔛ	-10.2832
ᒶ	-10.3721
5	-10.4697
–	-10.5779
ᒍ	-10.5779
8	-10.6993
ᔾ	-10.8374
ᔀ	-10.8374
6	-11.1885
9	-11.4246
(	-12.5175
)	-12.5175
.	-14.0166
ᔡ	-14.0167
ᐾ	-14.0168
;	-14.0169
ᔗ	-14.017
!	-14.0171
?	-14.0172
:	-14.0173
,	-14.0174
"	-14.0175
[	-14.0175
]	-14.0175
a	-14.0175
u	-14.0175
z	-14.0175
~	-14.0175
ᐼ	-14.0175
ᑡ	-14.0175
ᒒ	-14.0175
/	-14.0175
ᐧ	-14.0175
᙮	-14.0175
