<pad>	0
</s>	0
<unk>	0
,	-2.90277
n	-3.66312
▁ja	-3.6716
.	-3.85253
a	-3.86341
▁	-3.97166
i	-4.31255
t	-4.33163
r	-4.73252
in	-4.7365
si	-4.74465
▁on	-4.79708
:	-4.887
s	-4.92238
ä	-4.93263
u	-4.93943
e	-4.94273
o	-4.96929
▁Ja	-5.00535
▁hän	-5.05219
h	-5.11161
en	-5.13694
;	-5.1488
an	-5.17306
l	-5.20199
ta	-5.21752
▁"	-5.35585
▁he	-5.35692
lle	-5.36949
▁minä	-5.37428
▁niin	-5.43023
ni	-5.43697
▁oli	-5.4513
▁hänen	-5.48767
vat	-5.48978
nsa	-5.51857
▁Herra	-5.53345
y	-5.55076
lla	-5.55165
ja	-5.57721
et	-5.63227
v	-5.65566
ksi	-5.67574
▁se	-5.68414
▁joka	-5.69163
sta	-5.70472
▁ei	-5.72601
ssa	-5.73812
is	-5.74602
ko	-5.75676
ka	-5.77834
▁te	-5.79846
▁että	-5.85293
▁sen	-5.86255
tä	-5.86508
▁minun	-5.88002
▁sinun	-5.89258
k	-5.90331
kä	-5.93324
ke	-5.93561
mme	-5.95986
▁sanoi	-5.96038
tu	-6.00483
va	-6.00506
nne	-6.0111
▁ka	-6.01666
p	-6.02517
▁Mutta	-6.0428
te	-6.04809
na	-6.06958
ti	-6.0893
tte	-6.11847
▁kaikki	-6.12372
el	-6.13883
▁jotka	-6.1391
nsä	-6.14502
to	-6.16817
▁sinä	-6.17632
▁kun	-6.17687
ille	-6.19381
kin	-6.199
vät	-6.20879
sa	-6.21141
▁sillä	-6.21297
▁heidän	-6.24722
".	-6.24799
ki	-6.25758
än	-6.26986
▁ole	-6.27791
▁o	-6.28421
ma	-6.29066
vi	-6.29828
m	-6.30392
ri	-6.30407
ista	-6.30431
ty	-6.31085
kuin	-6.32225
▁saa	-6.32425
la	-6.32496
mi	-6.32537
stä	-6.32613
▁Herran	-6.33318
maan	-6.3381
b	-6.34605
▁ovat	-6.34641
▁Niin	-6.35186
neet	-6.3523
▁Jumala	-6.35798
kaa	-6.36442
nut	-6.36609
ö	-6.369
on	-6.36961
li	-6.40504
▁pa	-6.41124
re	-6.4176
▁a	-6.41871
▁ne	-6.42441
us	-6.42488
▁me	-6.42968
un	-6.43602
ten	-6.4372
isi	-6.44793
▁mutta	-6.4489
."	-6.49003
?	-6.49424
pa	-6.50438
it	-6.51731
▁jo	-6.53175
▁p	-6.58098
▁olen	-6.58865
▁tuli	-6.58966
▁hänelle	-6.5959
jä	-6.59619
llä	-6.5967
ku	-6.5973
tta	-6.59896
d	-6.60769
▁ku	-6.61617
▁kuin	-6.62764
j	-6.62771
at	-6.62945
▁ko	-6.63881
▁A	-6.63887
▁Sillä	-6.64978
se	-6.65356
▁va	-6.67903
▁olivat	-6.68981
de	-6.69064
pu	-6.69848
▁ha	-6.6991
▁tu	-6.71501
tti	-6.71567
lta	-6.71908
▁teidän	-6.72174
▁poika	-6.73547
▁vastaan	-6.73557
ar	-6.74208
▁ke	-6.74841
▁hänet	-6.74925
▁pi	-6.75497
aa	-6.7585
ivat	-6.78965
▁mitä	-6.7905
▁kuningas	-6.79653
▁ve	-6.79978
aan	-6.80151
ssä	-6.80745
▁nä	-6.8174
▁häntä	-6.82106
▁jonk	-6.82389
g	-6.82587
kö	-6.82776
le	-6.82816
▁Jumalan	-6.83458
▁Israelin	-6.84118
▁voi	-6.84178
▁sano	-6.84192
da	-6.86049
▁vi	-6.8677
-	-6.87039
▁sitä	-6.87554
▁ra	-6.8773
▁heille	-6.87854
nyt	-6.88151
▁le	-6.88606
ro	-6.88698
mm	-6.88776
kää	-6.89994
▁S	-6.90176
koon	-6.90305
me	-6.90552
▁tai	-6.90731
▁pää	-6.90873
▁luo	-6.91087
▁Hän	-6.91287
▁la	-6.91328
▁kanssa	-6.92809
ul	-6.93398
▁kansa	-6.94233
taa	-6.94457
vä	-6.95777
mä	-6.95881
▁ki	-6.96182
▁`	-6.96827
ia	-6.96978
ita	-6.97535
inen	-6.97649
▁sanoo	-6.98255
▁pu	-6.99057
▁pois	-6.99246
ha	-6.99728
▁itse	-6.99778
▁jos	-7.00315
uu	-7.00483
▁l	-7.00492
▁E	-7.00581
▁si	-7.00596
yy	-7.01603
ut	-7.02348
▁Se	-7.03092
im	-7.03262
hd	-7.03661
▁tämä	-7.03766
▁en	-7.04004
▁maan	-7.04028
istä	-7.0418
pi	-7.04295
▁koko	-7.04396
▁asu	-7.04446
do	-7.04744
▁olet	-7.06058
▁sa	-7.07149
oo	-7.07169
▁hu	-7.07432
▁minulle	-7.07645
▁ta	-7.07908
▁Si	-7.08006
▁tuo	-7.08589
▁heidät	-7.08731
▁meidän	-7.09247
▁minua	-7.09528
▁m	-7.10436
▁val	-7.11212
illa	-7.11647
as	-7.11806
llis	-7.11843
ttu	-7.1245
▁päivänä	-7.13253
▁mu	-7.14239
ttä	-7.14657
▁vuo	-7.15237
ud	-7.16213
▁vaan	-7.16771
▁He	-7.17119
sti	-7.17405
ne	-7.17536
▁ma	-7.18135
issa	-7.1888
jo	-7.19282
f	-7.20069
!	-7.20259
or	-7.20372
▁nime	-7.21097
▁edessä	-7.22205
▁pe	-7.22795
▁kuninkaan	-7.23997
▁Kun	-7.24003
taan	-7.24276
▁katso	-7.24386
▁lu	-7.245
▁palvelija	-7.25042
▁kuu	-7.25296
▁-	-7.25325
▁Minä	-7.25414
▁myös	-7.25553
kse	-7.25944
?"	-7.26331
aika	-7.26445
▁teille	-7.26481
ot	-7.26639
▁sinua	-7.26735
ik	-7.27659
▁ky	-7.288
asta	-7.2905
▁heitä	-7.29454
isen	-7.29626
▁e	-7.29752
kka	-7.29783
elle	-7.30345
ee	-7.30382
ihin	-7.3058
`	-7.30806
▁s	-7.30953
ltä	-7.30962
pä	-7.31071
er	-7.314
mään	-7.3145
▁puhu	-7.31567
▁eivät	-7.32012
▁oma	-7.32111
▁sinulle	-7.32231
uh	-7.32341
iksi	-7.32577
▁usko	-7.328
▁Silloin	-7.33133
il	-7.33304
▁tule	-7.33938
▁sana	-7.34002
▁toi	-7.34038
▁vaimo	-7.34861
▁vastasi	-7.35408
eli	-7.36334
▁O	-7.36416
kään	-7.36724
▁minut	-7.3687
▁vie	-7.37254
▁var	-7.37485
▁ase	-7.38023
itse	-7.38609
ään	-7.38681
▁mukaan	-7.39224
iset	-7.39984
▁tie	-7.40153
kseen	-7.40394
ansa	-7.40679
▁tulee	-7.41376
▁tykö	-7.42404
▁siitä	-7.4307
▁tämän	-7.44128
▁N	-7.44165
▁kor	-7.44695
jan	-7.44965
rin	-7.45315
sä	-7.4553
nä	-7.45609
▁pal	-7.45722
▁Daavid	-7.45914
▁isä	-7.46116
▁näin	-7.46496
sivat	-7.46842
▁maa	-7.47578
▁ette	-7.47669
kun	-7.47731
▁mikä	-7.47744
▁päivä	-7.4779
itä	-7.48157
▁P	-7.48214
esi	-7.49267
▁syö	-7.49268
essa	-7.49452
▁käy	-7.50461
tele	-7.5054
ur	-7.50783
▁Israel	-7.50977
ol	-7.51332
▁nyt	-7.51409
▁yli	-7.51441
oja	-7.5151
▁vielä	-7.51874
▁al	-7.52087
▁asti	-7.52167
lu	-7.52239
iden	-7.52713
▁T	-7.53367
▁maahan	-7.53637
ll	-7.53772
▁so	-7.53873
usta	-7.54259
oit	-7.54696
▁kolme	-7.55129
▁mene	-7.55214
▁suure	-7.55483
▁suu	-7.5641
▁kaiken	-7.56437
▁mies	-7.56786
▁meni	-7.57608
takaa	-7.57635
▁tähden	-7.58335
ää	-7.58958
▁teki	-7.59048
seen	-7.59265
am	-7.60036
▁vä	-7.6019
▁Juudan	-7.6076
kan	-7.60849
he	-7.60974
▁K	-7.61302
▁sy	-7.61319
illä	-7.61426
al	-7.61839
▁oleva	-7.6212
▁hä	-7.6217
▁viha	-7.62225
▁ru	-7.62666
▁sekä	-7.62975
▁juo	-7.632
▁na	-7.63859
▁sanoen	-7.64323
▁suku	-7.64903
▁tot	-7.64916
▁siihen	-7.65078
iin	-7.65464
van	-7.65495
teen	-7.66061
▁vanhurska	-7.66137
▁antoi	-7.66309
▁tietä	-7.66394
▁käsi	-7.66688
uksen	-7.67006
▁Ha	-7.67077
min	-7.67305
▁sinut	-7.67424
utta	-7.67506
▁kautta	-7.67628
po	-7.67739
han	-7.68594
▁käsky	-7.68627
▁tehnyt	-7.68631
▁kansan	-7.6866
▁niiden	-7.68818
▁Jeesus	-7.699
▁koska	-7.70476
▁pala	-7.70949
▁ettei	-7.71016
▁otti	-7.71373
ttava	-7.71579
▁sanoivat	-7.71675
▁Mi	-7.7199
▁ihmis	-7.72132
ttaa	-7.72222
yt	-7.72423
mu	-7.72456
▁hal	-7.72537
▁Je	-7.72574
ella	-7.72931
▁olkoon	-7.7332
▁ollut	-7.73832
ksen	-7.73884
▁sitten	-7.74263
▁V	-7.75136
ivät	-7.75284
▁kutsu	-7.75353
ad	-7.75451
▁siellä	-7.75458
essä	-7.75568
▁eteen	-7.77133
▁olette	-7.77611
▁Ka	-7.77765
▁enää	-7.77834
▁yksi	-7.78353
K	-7.78461
ton	-7.78511
▁teitä	-7.78764
▁kaupunki	-7.79093
ensa	-7.79194
▁seitsemän	-7.79312
jen	-7.79313
▁L	-7.79511
▁Joo	-7.7982
▁kaksi	-7.79908
tui	-7.79935
▁vai	-7.79964
▁pyhä	-7.803
tava	-7.80593
▁R	-7.80636
koot	-7.80851
▁Ei	-7.81266
▁istu	-7.81304
▁hy	-7.81343
▁Ma	-7.81378
▁Sitten	-7.82019
änsä	-7.82058
lleen	-7.82331
▁ilo	-7.82394
den	-7.82538
ellä	-7.82889
ju	-7.82958
▁niitä	-7.83411
▁Jos	-7.83559
▁et	-7.83699
▁täyt	-7.83942
▁jota	-7.84014
▁nämä	-7.84304
▁vir	-7.84484
▁hyvä	-7.84648
J	-7.84848
ys	-7.84949
M	-7.85183
▁Katso	-7.85772
▁H	-7.86454
läis	-7.86832
▁pojan	-7.87031
▁tee	-7.87288
ske	-7.87632
kaan	-7.88057
▁pappi	-7.88115
▁siis	-7.88195
▁Mooses	-7.88996
▁voima	-7.89113
▁näki	-7.89185
▁suuri	-7.89244
▁olisi	-7.89398
▁lähte	-7.8944
▁neljä	-7.89867
▁temppeli	-7.89916
▁hi	-7.90081
▁mitään	-7.90085
▁vaa	-7.90591
▁seura	-7.90789
▁hävit	-7.90933
▁antaa	-7.91054
▁velje	-7.9125
▁maassa	-7.91534
▁siinä	-7.91711
▁silmä	-7.91886
▁kii	-7.92197
▁Herralle	-7.92361
▁tullut	-7.92375
tanut	-7.92599
▁armo	-7.92618
ran	-7.93013
▁elä	-7.9349
▁puole	-7.93663
man	-7.93663
elin	-7.93811
▁Daavidin	-7.9496
sten	-7.95001
▁nuo	-7.95238
▁Saul	-7.95404
ttanut	-7.95472
hu	-7.95838
toista	-7.95917
ensä	-7.96227
▁Ku	-7.9627
▁Herraa	-7.963
▁Me	-7.97012
uta	-7.97066
▁antanut	-7.97081
▁talo	-7.97373
▁puhui	-7.97449
▁Jo	-7.9772
▁kuuli	-7.98088
▁kuo	-7.98126
▁sota	-7.98635
▁surma	-7.99006
▁annan	-8.00039
▁älä	-8.00734
▁kuule	-8.00815
▁Sentähden	-8.00982
Minä	-8.01143
jat	-8.0145
▁I	-8.01545
▁päälle	-8.02204
hti	-8.02336
▁aja	-8.02388
"	-8.02433
▁Näi	-8.02545
▁M	-8.02624
▁lähti	-8.02796
▁tulivat	-8.0326
kseni	-8.03296
▁suo	-8.03323
▁Va	-8.03372
dä	-8.0368
pää	-8.03796
▁jää	-8.03801
▁rii	-8.04139
▁lähetti	-8.0414
ina	-8.0417
▁liha	-8.04358
▁Sinä	-8.04675
▁joutu	-8.0538
▁ennen	-8.05391
ojen	-8.05657
▁aina	-8.05686
asi	-8.05882
isia	-8.06368
▁alttari	-8.069
▁oikea	-8.069
ksensa	-8.07284
`.	-8.07372
issä	-8.07408
▁B	-8.07645
▁viini	-8.07867
▁olemme	-8.07935
▁tiedä	-8.08301
ettu	-8.09837
▁vei	-8.09919
▁lähe	-8.10127
▁Jumalaa	-8.1026
▁silloin	-8.10454
▁vain	-8.10618
▁ympäri	-8.10675
ile	-8.10998
▁nousi	-8.11187
kki	-8.11193
voi	-8.11204
em	-8.11493
O	-8.116
ettiin	-8.11689
▁paha	-8.12033
▁oikeu	-8.12632
▁ilmoit	-8.13182
köön	-8.13365
▁ol	-8.13538
▁sielu	-8.13771
▁kuinka	-8.1467
▁Aaron	-8.14891
▁vasta	-8.14992
lainen	-8.15396
▁esi	-8.16181
▁kunnia	-8.16336
eksi	-8.16474
▁paljon	-8.16631
▁miehet	-8.16974
▁Egyptin	-8.17221
▁yö	-8.17255
▁sinne	-8.17278
▁pan	-8.1734
▁Te	-8.17495
▁seiso	-8.17587
▁miehen	-8.17801
uus	-8.17872
ttää	-8.1801
▁lau	-8.18157
▁opet	-8.18408
▁rukoil	-8.19328
mise	-8.20043
tiin	-8.20122
T	-8.20133
▁kulta	-8.20264
llinen	-8.2045
▁Tämä	-8.20505
asti	-8.20988
▁kaikkien	-8.21026
ttiin	-8.21232
toa	-8.21357
▁rauha	-8.21449
▁muuta	-8.21584
oista	-8.21584
▁jälkeen	-8.21823
▁j	-8.21962
Mitä	-8.22146
▁pojat	-8.2234
▁toisen	-8.2244
▁osa	-8.22469
ilta	-8.22843
▁älkää	-8.23265
▁miestä	-8.23558
▁tahto	-8.23584
oita	-8.24338
ksesi	-8.24347
▁päällä	-8.24423
▁työ	-8.2486
▁takaisin	-8.25155
▁maasta	-8.25191
▁toinen	-8.25213
▁meille	-8.25218
▁kuolema	-8.25369
▁herra	-8.25808
▁sisä	-8.26059
▁kukaan	-8.26494
▁pyhi	-8.26769
kea	-8.27599
esta	-8.27835
▁alas	-8.27971
▁tekee	-8.28083
▁etsi	-8.28256
▁jumala	-8.2829
miehi	-8.28367
▁hopea	-8.28715
▁synti	-8.28819
▁päivää	-8.28851
▁minkä	-8.29217
▁polt	-8.29446
ttoma	-8.29468
estä	-8.29537
be	-8.29566
kkaa	-8.29644
▁Salomo	-8.29708
▁tulevat	-8.29756
uuden	-8.29846
▁vihollis	-8.30712
iä	-8.30934
▁nimi	-8.31029
▁teidät	-8.31386
uden	-8.31851
▁ulos	-8.32066
▁käänty	-8.32419
ttakoon	-8.32432
itten	-8.32574
▁eivätkä	-8.32806
▁astu	-8.32974
uksi	-8.33293
▁Jeesuksen	-8.34131
▁lapse	-8.34134
!"	-8.34932
kymmentä	-8.3515
tettu	-8.35471
▁miele	-8.3554
E	-8.35604
▁El	-8.35967
▁valta	-8.36124
Katso	-8.36167
▁kuninka	-8.36279
uutta	-8.36442
▁Sebaot	-8.36596
▁enkeli	-8.36602
▁meitä	-8.37397
▁kaikkia	-8.37496
S	-8.3751
▁kirjoit	-8.37639
▁tehdä	-8.37723
▁anna	-8.37828
▁Egypti	-8.3802
▁neuvo	-8.38033
▁isänsä	-8.38221
▁jälke	-8.38269
▁sama	-8.38325
▁pelasta	-8.38399
▁kanssaan	-8.38456
▁elämä	-8.3867
▁synny	-8.38783
▁As	-8.39042
▁muu	-8.39142
▁tahdo	-8.39506
▁Be	-8.39581
kymmene	-8.40056
H	-8.40226
▁kivi	-8.40262
▁puhunut	-8.40375
▁filistealais	-8.40596
▁leeviläis	-8.40596
▁lapsi	-8.40608
eni	-8.40625
▁heimo	-8.40749
▁joku	-8.40765
▁rakasta	-8.40975
▁sai	-8.41349
▁viisa	-8.41687
▁farao	-8.41716
Herra	-8.42123
my	-8.42303
P	-8.42518
▁tuho	-8.42567
▁Jumalasi	-8.42805
▁sanan	-8.42805
▁joita	-8.42839
ttänyt	-8.42945
tävä	-8.43414
▁profeetta	-8.4361
▁vanh	-8.43709
▁tapa	-8.43945
▁viisi	-8.44085
▁Isä	-8.4412
▁ota	-8.44153
▁väli	-8.44343
▁rake	-8.4438
▁tänä	-8.44427
▁Juuda	-8.44494
▁syy	-8.44566
▁Ne	-8.4466
▁juutalais	-8.44764
▁pelastu	-8.44765
▁taivaan	-8.44773
▁verta	-8.44806
▁pane	-8.44814
▁nouse	-8.44982
▁älköön	-8.45151
▁Ke	-8.45196
kasv	-8.45462
▁äiti	-8.45547
▁sentähden	-8.45931
▁vaikka	-8.46073
maa	-8.46219
masta	-8.46304
▁teen	-8.46316
▁velji	-8.46324
▁poiki	-8.46324
▁kaupungin	-8.47112
▁leiri	-8.47575
▁kansaa	-8.47673
▁ääne	-8.47796
▁temppelin	-8.47854
▁keskellä	-8.47908
▁muut	-8.48236
▁Moosekselle	-8.48709
▁israelilaiset	-8.48709
▁hedelmä	-8.48709
▁Joosef	-8.49112
▁päin	-8.49298
▁määrä	-8.49517
▁syntyi	-8.49543
▁tapp	-8.49582
▁maata	-8.49768
▁rakka	-8.50019
nes	-8.50047
▁kaike	-8.50073
tetty	-8.50154
▁jumal	-8.50171
▁häpeä	-8.50332
▁sanon	-8.50558
ttävä	-8.50577
▁Aabraham	-8.50742
▁vuotta	-8.50892
▁kymmenen	-8.51007
isin	-8.51067
mpi	-8.51103
isten	-8.51184
▁huonee	-8.51303
kööt	-8.51579
▁valit	-8.51701
▁pahaa	-8.52032
▁Älä	-8.52086
isesti	-8.52093
▁kuulu	-8.52143
▁ylös	-8.52816
▁tunt	-8.52885
▁paikka	-8.52889
▁Ki	-8.53225
▁Kristuksen	-8.53236
▁vanno	-8.53672
▁Jaakob	-8.54042
▁tähän	-8.54088
▁huom	-8.54116
▁vaiva	-8.54342
▁kal	-8.5435
neen	-8.5435
▁öljy	-8.54508
U	-8.54508
▁kuninkaaksi	-8.54517
▁lain	-8.54571
▁tuhatta	-8.54603
hän	-8.54683
▁riemu	-8.54935
iltä	-8.54964
mies	-8.55174
▁Pa	-8.55455
puolella	-8.55806
▁jossa	-8.5584
▁tätä	-8.55878
▁päästä	-8.55926
▁kuka	-8.56145
▁maailma	-8.56241
kuu	-8.56468
▁turva	-8.56714
▁menivät	-8.57234
▁sala	-8.57463
▁poikansa	-8.57467
▁niistä	-8.57581
sydäm	-8.57697
▁iankaikkisesti	-8.57979
▁ruumii	-8.57979
matta	-8.58023
yttä	-8.58344
▁tytär	-8.58422
▁kuitenk	-8.58428
▁sille	-8.58442
▁kiinni	-8.58546
V	-8.58715
▁kansalle	-8.58768
▁lähtivät	-8.58777
▁pelkää	-8.58875
▁kuninkaalle	-8.58878
▁Joka	-8.58989
▁Joosua	-8.59313
▁kuole	-8.59775
massa	-8.60007
▁mur	-8.60169
▁kulki	-8.6022
▁Jerusalemin	-8.60606
▁tehneet	-8.60681
▁kirja	-8.60707
▁vanha	-8.60895
utensa	-8.61017
▁Kaikki	-8.61119
▁käski	-8.6112
▁jolla	-8.615
▁aut	-8.61538
▁ava	-8.61816
ksenne	-8.62258
▁tuomit	-8.62457
▁huusi	-8.62785
▁Ta	-8.62862
▁kohta	-8.62893
▁kuoli	-8.62967
▁kätensä	-8.63422
▁pysy	-8.63504
▁saakka	-8.63658
lut	-8.63769
▁tuleva	-8.64021
▁tark	-8.64188
▁valmis	-8.64199
▁varten	-8.64538
▁miekka	-8.64831
empi	-8.64847
▁aamu	-8.64864
▁pani	-8.64935
▁henki	-8.64971
▁Jerusalem	-8.6522
▁perintöosa	-8.65305
A	-8.65816
▁laki	-8.65874
▁sanonut	-8.66014
▁missä	-8.66139
▁palvelijoi	-8.6627
iseksi	-8.66278
▁ahdist	-8.66286
▁puolesta	-8.66484
▁tyttäre	-8.6674
▁Nämä	-8.67225
▁kulke	-8.68218
▁kirjoitettu	-8.6824
▁polttouhri	-8.68685
▁vuoden	-8.6888
▁käsiin	-8.68915
▁tunne	-8.6905
▁rikko	-8.6918
▁kärsi	-8.69181
▁pitää	-8.69203
▁meidät	-8.69674
▁kaikille	-8.69677
▁kokoon	-8.70003
▁hänellä	-8.70288
ynnä	-8.70844
tuksi	-8.70968
▁syntiä	-8.71207
▁kauhistu	-8.71679
▁yhtä	-8.71709
▁jokainen	-8.7171
ttaisi	-8.72297
▁sor	-8.72491
▁kaikesta	-8.7261
päivä	-8.72705
▁nu	-8.73067
▁samoin	-8.7321
urska	-8.7333
▁emme	-8.73433
tunut	-8.73536
▁lyö	-8.7373
▁Jerusalemiin	-8.73794
▁heistä	-8.73829
▁asia	-8.74239
▁jälkeläisiä	-8.74244
▁peit	-8.74487
▁Beet	-8.74755
▁ylen	-8.74769
▁pidä	-8.74962
▁puut	-8.75527
▁lii	-8.75541
▁synty	-8.75798
▁taas	-8.75963
▁julista	-8.76041
puoli	-8.76057
Miksi	-8.7606
▁hyvää	-8.76077
kseksi	-8.76314
▁kukin	-8.76589
▁omi	-8.76875
▁korkea	-8.77081
▁kanta	-8.7717
▁peri	-8.77366
▁ihme	-8.77411
▁kaatu	-8.77614
▁lupa	-8.77619
▁todista	-8.77948
▁kaksikymmentä	-8.7801
uudesta	-8.78185
▁häneen	-8.78262
▁israelilaisten	-8.78488
▁joukko	-8.7849
▁henge	-8.78506
▁toimitta	-8.78547
stus	-8.78577
▁jalka	-8.78618
▁kysyi	-8.78789
ssään	-8.78829
mon	-8.7916
ineen	-8.79161
▁tuomio	-8.79619
ilaiset	-8.79784
Kuinka	-8.79791
▁nähdä	-8.80137
▁häneltä	-8.80175
▁hänestä	-8.80176
jia	-8.80197
▁erämaa	-8.80357
▁sydämen	-8.80659
▁mieli	-8.80749
lloin	-8.81063
▁sieltä	-8.81244
▁käskenyt	-8.81289
▁liiton	-8.81291
▁Jerusalemissa	-8.81331
▁toivo	-8.81521
▁Älkää	-8.81937
▁puhe	-8.82281
▁Baabelin	-8.82322
Ei	-8.82523
▁hyvin	-8.82944
▁elää	-8.82962
▁Jaakobin	-8.82975
ksemme	-8.83037
▁vuodat	-8.83361
▁palvele	-8.83489
kke	-8.83512
▁olleet	-8.83513
▁kauan	-8.83563
▁ottaa	-8.84172
▁karja	-8.8419
▁kyynärää	-8.84635
▁leipää	-8.84639
ilaisten	-8.84674
rah	-8.84803
▁Paavali	-8.85213
▁silmissä	-8.85215
▁tässä	-8.85256
▁kulutt	-8.85402
▁ainoastaan	-8.85796
▁katsel	-8.8582
▁sääd	-8.86382
täköön	-8.86609
▁tekivät	-8.87127
▁matka	-8.87158
▁äär	-8.8743
▁muuri	-8.87459
▁valtakunta	-8.87563
▁kysy	-8.88544
▁kaikista	-8.88756
▁kohtaan	-8.88952
▁meren	-8.89286
▁Efraim	-8.89356
▁tulleet	-8.89371
▁veljensä	-8.89931
▁Poika	-8.89962
▁vettä	-8.90025
▁laske	-8.90263
▁valhe	-8.90419
▁Siion	-8.90589
▁puhdist	-8.90595
▁uhri	-8.90628
▁nous	-8.90963
▁anteeksi	-8.91185
▁Abi	-8.91311
▁koske	-8.91607
▁teillä	-8.91675
▁Pietari	-8.91803
▁ihminen	-8.91803
▁teura	-8.92069
▁kohti	-8.92161
▁luona	-8.92225
▁muukalais	-8.92424
▁niille	-8.92564
▁loppu	-8.93678
▁yhden	-8.93678
▁kahden	-8.93701
Jos	-8.93742
▁syödä	-8.93833
▁asetti	-8.94274
ukset	-8.94278
▁minusta	-8.94318
▁tänne	-8.94414
▁keskuudessa	-8.95588
▁ryöst	-8.95589
▁karkoit	-8.95589
▁vähä	-8.96739
▁köyh	-8.96885
▁kasva	-8.97234
▁valtaistuime	-8.97537
▁kallio	-8.97544
▁ilmesty	-8.98195
▁yhdessä	-8.98195
▁Pyhä	-8.98198
▁Baal	-8.98211
▁riko	-8.98289
▁orja	-8.98481
▁pysyy	-8.98745
Mene	-8.98769
▁kansojen	-8.98857
▁alue	-8.98953
Se	-8.99077
▁Ahi	-8.99152
▁Jeremia	-8.99524
▁kaikkea	-8.99524
▁sil	-8.99761
▁autio	-9.00227
tuhatta	-9.00372
▁yht	-9.00801
▁ihmisten	-9.00829
▁ymmärtä	-9.0087
▁kulje	-9.00876
▁täynnä	-9.00878
▁saira	-9.01102
▁päämiehe	-9.01338
▁edestä	-9.01552
▁johon	-9.01564
▁näky	-9.01598
▁kävi	-9.01645
▁kaksitoista	-9.01677
▁avu	-9.01824
▁iankaikki	-9.02235
▁ilmestysmaja	-9.02236
▁papit	-9.02257
▁kasvoi	-9.02287
▁rakenn	-9.02638
▁Kristus	-9.02925
▁edellä	-9.02927
▁vahvist	-9.02927
▁Jooab	-9.03633
▁lähettänyt	-9.03761
uuteen	-9.03838
▁linna	-9.04365
▁mennä	-9.04384
Sinä	-9.04595
▁Samuel	-9.05023
▁kasvoje	-9.05036
▁kerto	-9.05047
uudessa	-9.05613
▁Manasse	-9.05732
▁kuullut	-9.05733
▁jälleen	-9.05742
▁jumalattoma	-9.0579
▁päivinä	-9.05798
▁miehiä	-9.058
▁enemmän	-9.06447
▁jälkeläiset	-9.06447
▁tyttäri	-9.06447
▁ketään	-9.06462
▁luoksensa	-9.06721
▁erämaassa	-9.06868
▁pysty	-9.07167
Totisesti	-9.07168
▁asukkaat	-9.07169
▁nähnyt	-9.07172
▁pilkka	-9.07213
▁kive	-9.07682
▁ruhtinaa	-9.07891
▁taistelu	-9.07891
▁valtakunn	-9.07899
▁metsä	-9.07911
▁odot	-9.08068
▁noudatta	-9.08182
tön	-9.08616
▁liikkeelle	-9.08621
▁perhe	-9.08624
▁liitto	-9.0863
▁väkevä	-9.08639
▁kesken	-9.0864
▁mukana	-9.08678
▁pitkä	-9.08952
▁pohjoi	-9.09356
▁polve	-9.09356
▁Mooseksen	-9.10097
▁söi	-9.10299
▁Hiskia	-9.10843
▁nosta	-9.10854
▁salli	-9.10887
▁sivu	-9.10934
▁saastu	-9.10965
▁kuulleet	-9.11606
▁kahdeksan	-9.11645
▁varust	-9.1252
▁karitsa	-9.13116
▁Iisak	-9.13119
▁vaunu	-9.13415
▁jäi	-9.13796
▁lähde	-9.13886
huone	-9.14324
▁niihin	-9.14716
▁veren	-9.14884
▁noi	-9.15084
▁joukossa	-9.15442
▁minulla	-9.15442
llisesti	-9.15565
▁herät	-9.15877
▁Benjamin	-9.16229
▁yhdeks	-9.16229
▁hallitsi	-9.16229
▁uhraa	-9.16229
▁sinulla	-9.1623
▁sydämensä	-9.16324
▁tutki	-9.16344
▁juhla	-9.17023
▁sydän	-9.17028
▁hevos	-9.17032
▁kimppuun	-9.17822
▁uhrat	-9.17827
▁sisar	-9.17915
▁mone	-9.1803
▁Samaria	-9.18629
▁suitsu	-9.18629
▁Joonatan	-9.18629
▁viisikymmentä	-9.18677
▁perus	-9.1877
▁elävä	-9.19255
▁ruhtinas	-9.19442
▁minulta	-9.19442
▁syntiuhri	-9.19443
Älä	-9.20055
▁molemmat	-9.20262
▁monta	-9.20288
Sano	-9.20899
▁opetuslapse	-9.21088
▁raava	-9.21149
uksesta	-9.21316
▁paimen	-9.21932
▁hankki	-9.21934
▁vaski	-9.21957
▁lahja	-9.21994
▁neljäkymmentä	-9.22007
▁tästä	-9.2202
▁rikka	-9.22828
▁lähettä	-9.23056
▁paino	-9.23138
miehet	-9.23417
▁vyö	-9.2361
▁ulko	-9.23671
▁ruoka	-9.23719
▁pakanain	-9.24464
▁terve	-9.24465
▁taivaasta	-9.24466
portin	-9.24473
idän	-9.24483
▁pyhäkkö	-9.24485
▁kaup	-9.24733
päällikkö	-9.25326
▁egyptiläis	-9.25326
▁ruokauhri	-9.25326
▁unhot	-9.25327
▁aiko	-9.2559
▁lausu	-9.2627
▁kukist	-9.26464
▁sinusta	-9.27093
Anna	-9.27436
L	-9.27884
▁Assurin	-9.27958
▁kädessä	-9.27959
▁pojalle	-9.27964
▁kaste	-9.28696
▁onnettom	-9.2871
ittivät	-9.28822
▁pylvä	-9.28851
▁ammonilais	-9.28851
▁opetuslapsi	-9.29751
▁sukukunta	-9.29761
▁Aasa	-9.29925
▁nälkä	-9.30428
Tämä	-9.30638
▁ainoa	-9.30666
▁henkeä	-9.30678
▁evankeliumi	-9.31578
▁puhtaa	-9.31606
▁rakensi	-9.31841
▁jättä	-9.32107
Tuo	-9.32348
▁lohdut	-9.32504
▁ylitse	-9.32517
Menkää	-9.32718
▁vihastu	-9.3282
▁heittä	-9.3305
▁israelilaisille	-9.33438
▁Absalom	-9.33438
▁tapahtui	-9.33439
eser	-9.33547
▁kurit	-9.33649
▁ajoi	-9.33837
aivan	-9.34218
Älköön	-9.34382
▁sydämessä	-9.34384
▁portti	-9.34391
▁kerro	-9.34396
▁kieltä	-9.34438
▁Baabel	-9.3444
▁taivas	-9.35283
▁esipiha	-9.35337
▁pakeni	-9.35384
▁silmie	-9.35387
▁löi	-9.35521
▁Jerobeam	-9.36296
▁miekan	-9.36296
▁seurakunta	-9.36303
▁lopu	-9.36306
▁valloit	-9.37271
▁tarttu	-9.37277
R	-9.37354
▁etelä	-9.37394
ydy	-9.38167
▁Mooabin	-9.38247
▁pakkosiirtolais	-9.38247
▁lampaa	-9.38248
▁isiensä	-9.38261
▁esikois	-9.3838
Nouse	-9.39239
▁nosti	-9.3924
▁Kosk	-9.39242
▁iho	-9.3926
▁kaltais	-9.39762
▁lähimmä	-9.40237
▁täyde	-9.40238
▁kuollut	-9.4024
▁eräs	-9.4024
▁johdat	-9.40289
▁tekoja	-9.40289
▁loi	-9.40535
▁Eesau	-9.41248
▁tehtävä	-9.41254
▁maksa	-9.41254
▁nähneet	-9.41261
▁vilja	-9.413
▁Elisa	-9.41309
▁sellais	-9.4133
▁auringon	-9.42268
osasto	-9.43056
▁Myös	-9.43299
▁kaupungit	-9.43299
▁laidunmaineen	-9.43299
▁kumarta	-9.43299
▁juuri	-9.433
▁siemen	-9.43301
▁yhä	-9.43302
▁malja	-9.4338
▁moni	-9.44128
▁päivi	-9.44244
▁kuukaude	-9.44366
▁raskaa	-9.44372
▁ääntä	-9.44391
▁rangaist	-9.45393
▁kerran	-9.45399
▁ikinä	-9.45399
▁hylkää	-9.454
▁perä	-9.45504
▁vaelsi	-9.45574
1	-9.46457
▁ylpe	-9.46457
▁vuoristo	-9.46457
▁Ahab	-9.4646
▁itsellesi	-9.46506
▁kaivo	-9.46539
▁yhteen	-9.46694
▁käske	-9.47454
▁sukukunnasta	-9.47532
▁sukupolve	-9.47532
▁eksy	-9.47533
▁sinulta	-9.47533
▁turmio	-9.47533
▁pelto	-9.47565
▁perintö	-9.48617
▁leijona	-9.48619
▁vaatteensa	-9.48619
▁kuoliaaksi	-9.4862
▁sapatti	-9.48621
▁murhee	-9.48627
▁vedet	-9.48728
▁Raam	-9.48924
]	-9.49718
▁Kuningas	-9.49718
▁vanhimmat	-9.49718
▁oikein	-9.49719
▁puhdas	-9.49769
▁Miika	-9.49831
▁linnu	-9.50744
▁hallitusvuotena	-9.50829
▁kätesi	-9.50831
▁väärä	-9.50831
▁ennusta	-9.50851
▁tomu	-9.50858
▁kaupungissa	-9.51953
▁tapahtunut	-9.51953
▁ystävä	-9.51956
▁annetaan	-9.51958
▁lähesty	-9.51959
▁pilvi	-9.51978
▁Ihmisen	-9.53089
▁Joosafat	-9.53089
▁peljästy	-9.53089
▁täällä	-9.5309
▁nouda	-9.53778
▁erot	-9.54109
▁uhrilahja	-9.54238
▁pojille	-9.54238
▁paikassa	-9.54243
▁Edom	-9.54279
▁palveli	-9.54637
▁töi	-9.54781
▁väkivalta	-9.55401
▁Kristuksessa	-9.55401
▁kädestä	-9.55401
▁tuomari	-9.55416
▁vääri	-9.55509
▁sauva	-9.55556
▁himo	-9.55726
I	-9.55889
▁tuhat	-9.5605
▁kaupungista	-9.56578
▁miehelle	-9.56578
▁sijaansa	-9.56582
▁itsellensä	-9.56591
▁laskeutu	-9.56613
▁kiitos	-9.56964
Tule	-9.57583
▁uhrasi	-9.57768
mattomi	-9.5777
▁Kanaani	-9.5778
▁toiselle	-9.5778
▁menesty	-9.57781
▁arkki	-9.57786
euraavana	-9.5794
▁Heidä	-9.57997
▁vuorelle	-9.58989
Kuulkaa	-9.59006
▁saastaise	-9.59338
▁hallitse	-9.60195
▁rupesi	-9.61428
▁saastainen	-9.61437
▁kohot	-9.61461
▁kolmantena	-9.62677
▁asumuksen	-9.62686
▁rukoukse	-9.62687
▁lammas	-9.62776
▁seurakunnan	-9.63943
▁säily	-9.63944
▁pasuna	-9.63949
▁ilman	-9.63952
▁hukku	-9.63967
jumala	-9.64721
▁Daniel	-9.65225
▁päällikö	-9.65225
▁väijy	-9.65225
▁kaksisataa	-9.65226
▁käteni	-9.65228
▁oppi	-9.65232
▁paasto	-9.65251
▁vapaut	-9.65303
▁harjoit	-9.66524
▁Leevi	-9.66525
▁kaikissa	-9.66526
▁tavara	-9.66565
virran	-9.66668
▁onnettomuude	-9.6673
▁leiriytyivät	-9.67839
▁viinitarha	-9.6784
▁pelkäsi	-9.6784
▁perhekunta	-9.6784
▁aramilais	-9.67841
▁miekalla	-9.69173
▁julist	-9.69945
▁poikki	-9.70524
▁keihä	-9.70535
▁profeetat	-9.71894
▁Hengen	-9.71894
▁viisaude	-9.72409
▁Eleasar	-9.73283
▁Hebron	-9.73283
▁aurinko	-9.73283
▁kirje	-9.73283
▁tyhmä	-9.73286
▁ajatteli	-9.73287
▁kerubi	-9.74691
▁Vielä	-9.74691
▁minuun	-9.74692
▁raunio	-9.74693
▁lampu	-9.74697
▁pilve	-9.74703
▁tekoje	-9.74836
▁pahoi	-9.75109
▁todistukse	-9.7612
▁katselmuksessa	-9.7612
▁kirkkaude	-9.7612
▁yltympäri	-9.7612
▁sotavaunu	-9.7612
▁tuoksu	-9.7612
▁kotiinsa	-9.76122
▁lankesi	-9.76127
▁vartioi	-9.76241
▁Libanon	-9.77569
3	-9.86736
B	-9.93225
2	-9.98613
4	-10.1631
9	-10.4909
0	-10.5213
Ä	-10.5525
5	-10.5525
)	-10.5848
6	-10.9344
Z	-14.5787
Ö	-14.5788
7	-14.5789
8	-14.579
(	-14.5791
[	-14.5792
F	-14.5793
Y	-14.5794
G	-14.5795
D	-14.5796
/	-14.5797
N	-14.5797
