<pad>	0
</s>	0
<unk>	0
¦	-1.50386
▁¦	-1.54243
▁.	-4.27636
े	-4.58661
त	-4.66578
न	-4.6793
ा	-4.77156
ं	-4.79838
▁,	-4.84275
स	-4.8723
र	-4.87598
ल	-4.92987
क	-4.94765
ी	-4.96312
व	-4.99713
म	-5.10641
य	-5.22571
ट	-5.27036
ला	-5.29898
आहे	-5.31302
च्या	-5.38956
ो	-5.40167
वा	-5.42416
या	-5.42563
ड	-5.45696
प	-5.47481
आणि	-5.48295
च	-5.49455
द	-5.53653
ज	-5.54505
आ	-5.5965
अ	-5.59861
▁	-5.60554
्	-5.65174
ची	-5.66233
ग	-5.6877
ात	-5.68815
चा	-5.6887
ू	-5.69004
श	-5.79129
ना	-5.80981
ह	-5.83785
ि	-5.83798
ब	-5.8637
ण	-5.95766
ही	-5.96722
रा	-5.97586
ने	-5.99259
र्	-6.0081
ळ	-6.00995
सा	-6.01572
चे	-6.02761
्या	-6.03435
प्र	-6.05033
मध्ये	-6.05086
्य	-6.06982
ता	-6.08696
त्या	-6.09187
वि	-6.09325
का	-6.14162
ख	-6.14192
पा	-6.16166
ली	-6.16863
ते	-6.18002
ध	-6.18143
ले	-6.21087
फ	-6.22216
कोरोना	-6.24882
ून	-6.25319
ु	-6.25767
सं	-6.27951
ल्या	-6.30127
नि	-6.31858
री	-6.35312
वर	-6.3605
ित	-6.38169
मा	-6.40317
हा	-6.42222
-	-6.43926
1	-6.45581
क्	-6.47324
आहेत	-6.50143
नाही	-6.50936
ठ	-6.51713
ती	-6.51758
िक	-6.51981
थ	-6.53768
ॅ	-6.56807
ील	-6.62714
इ	-6.63062
𐊣	-6.64501
𐊼	-6.64501
ए	-6.64907
अस	-6.66834
2	-6.69159
रि	-6.69707
हे	-6.69889
रो	-6.70517
की	-6.71488
जा	-6.7191
तर	-6.72411
भ	-6.75194
व्ह	-6.76611
देश	-6.7688
पण	-6.76919
कर	-6.79423
चं	-6.79503
साठी	-6.80105
दा	-6.80711
क्ष	-6.80916
ई	-6.80977
शी	-6.81255
वे	-6.83462
स्	-6.85336
लस	-6.86603
को	-6.92094
▁"	-6.92108
▁(	-6.9422
से	-6.94679
किं	-6.94897
त्र	-6.95452
एक	-6.9591
त्	-6.96297
बा	-6.96523
▁)	-6.97136
टी	-6.97846
𐋇	-6.98377
शकत	-6.99883
ाय	-7.0068
के	-7.00886
मुळे	-7.01407
यांनी	-7.0194
▁'	-7.02915
उ	-7.05143
करत	-7.05166
णे	-7.05421
आरोग्य	-7.06415
काही	-7.07125
0	-7.09487
5	-7.10824
ष	-7.11046
वाढ	-7.11223
ांना	-7.12352
▁?	-7.12379
गा	-7.12428
झ	-7.13086
घ	-7.13211
रे	-7.1342
वी	-7.14016
ाच्या	-7.14582
शा	-7.14595
ातील	-7.15971
स्ट	-7.16277
सि	-7.16663
लं	-7.16797
सर्व	-7.17039
करण्यात	-7.17189
कमी	-7.17309
टा	-7.18606
कार	-7.1939
णाऱ्या	-7.19943
जी	-7.19959
मान	-7.21671
रुग्ण	-7.22116
ढ	-7.22216
ंड	-7.22918
न्	-7.23258
विषाणू	-7.24106
क्त	-7.25537
नी	-7.25657
लशी	-7.26298
हि	-7.26449
स्थ	-7.26742
3	-7.26945
भा	-7.27131
c	-7.27663
जात	-7.27902
4	-7.28233
खा	-7.28359
पर्यंत	-7.2845
सरकार	-7.29502
केली	-7.30067
असं	-7.30452
-19	-7.30639
प्रमाण	-7.30654
वापर	-7.30829
i	-7.30972
शि	-7.30972
तो	-7.31335
करण्या	-7.3155
e	-7.3164
केले	-7.32146
राज्य	-7.32218
r	-7.32426
प्	-7.33067
लि	-7.33492
मे	-7.33519
पु	-7.33554
जे	-7.34204
होत	-7.34219
पर	-7.34383
आले	-7.34394
सु	-7.3454
णी	-7.35158
ज्या	-7.35452
ंग	-7.35917
सी	-7.36229
ति	-7.37185
णा	-7.37729
a	-7.38105
मिळ	-7.38645
9	-7.39546
.	-7.39664
पासून	-7.39915
केंद्र	-7.40196
णार	-7.42005
नंतर	-7.42038
ावर	-7.42905
येत	-7.43028
यु	-7.43485
धा	-7.43488
्स	-7.43616
करोना	-7.43756
काम	-7.44092
संसर्ग	-7.44096
ांमध्ये	-7.45563
माहिती	-7.46045
अधिक	-7.46317
ै	-7.46432
दी	-7.46583
तील	-7.47088
ांनी	-7.47123
बंद	-7.47703
रुग्णां	-7.48578
घेत	-7.49924
ण्यासाठी	-7.5013
योग	-7.50227
होते	-7.5144
मु	-7.51612
▁:	-7.51764
मो	-7.5247
स्व	-7.52859
सुरू	-7.5286
ण्यात	-7.5296
ांची	-7.53537
कोव्हिड	-7.54248
वर्ष	-7.54305
आजार	-7.54314
णं	-7.5456
स्त	-7.54964
१	-7.55376
ाला	-7.56134
8	-7.5623
7	-7.57236
ांच्या	-7.5827
6	-7.58398
s	-7.5869
२	-7.58837
ट्र	-7.59228
ाने	-7.59347
रु	-7.59577
डि	-7.60077
वेळ	-7.60435
लेल्या	-7.60496
डी	-7.61574
लसीकरण	-7.62271
ष्ट	-7.62938
सह	-7.62953
र्स	-7.63424
मी	-7.63809
कडे	-7.64177
ऑक्सिजन	-7.6473
०	-7.65042
पे	-7.65243
ँ	-7.65825
जास्त	-7.65968
इतर	-7.66357
पो	-7.66564
दर	-7.67476
झाल्या	-7.67521
ृ	-7.67549
अनेक	-7.67749
ण्याच	-7.67749
संख्या	-7.68064
कि	-7.68179
द्या	-7.6957
करा	-7.69589
होती	-7.69689
दु	-7.70119
भाग	-7.70804
हात	-7.71497
ऑ	-7.71991
होता	-7.72072
आली	-7.72258
जन	-7.72348
लोक	-7.72546
बाबत	-7.72684
ंना	-7.72968
केला	-7.73453
कोण	-7.74575
गेल	-7.74627
व्हायरस	-7.74878
असलेल्या	-7.75031
एका	-7.75057
मि	-7.75237
t	-7.75396
पेक्षा	-7.76272
n	-7.7644
ासाठी	-7.76452
व्या	-7.7655
करण्यासाठी	-7.77822
ब्	-7.78161
ाची	-7.78424
काय	-7.78663
मृत्यू	-7.7892
जि	-7.79368
लक्षण	-7.80332
p	-7.8073
नुसार	-7.80915
ाचा	-7.80956
ंचा	-7.81457
न्स	-7.81602
ांत	-7.82033
उपचार	-7.82397
आता	-7.82717
रोग	-7.82723
परिणाम	-7.83885
▁-	-7.8424
मधील	-7.85027
तयार	-7.85027
्यात	-7.85365
आढळ	-7.85406
झाला	-7.85715
यांच्या	-7.86189
िंग	-7.86328
झाली	-7.86757
झाले	-7.86761
भारत	-7.87282
चाचणी	-7.87339
प्रति	-7.87593
लोकां	-7.8774
ण्याची	-7.88143
ग्र	-7.88167
कु	-7.88329
टि	-7.88947
covid	-7.89108
पूर्ण	-7.89109
भर	-7.892
योज	-7.90266
व्यक्ती	-7.90352
ंट	-7.90357
दोन	-7.90753
घा	-7.92019
करून	-7.92239
त्यांच्या	-7.92469
लॉकडाऊन	-7.92543
औषध	-7.93992
राज्यात	-7.94355
पड	-7.94811
म्हणून	-7.95131
कारण	-7.95324
दिवस	-7.95414
पुर	-7.95624
कडून	-7.95705
पी	-7.96479
कार्य	-7.96764
ांवर	-7.97358
असे	-7.98289
,	-7.98322
बो	-7.98679
असेल	-7.99279
घट	-7.99486
वर्	-7.99854
झालेल्या	-8.00449
▁¦20	-8.00971
अशा	-8.01661
गरज	-8.02689
्यु	-8.0271
मार्च	-8.02936
त्यांना	-8.04288
दिली	-8.04316
लक्ष	-8.04744
गेल्या	-8.04824
क्रम	-8.04983
परिस्थिती	-8.06176
ओ	-8.06411
m	-8.06648
v	-8.06885
जो	-8.07308
होऊ	-8.07361
o	-8.07769
देण्यात	-8.07845
घर	-8.08005
उपलब्ध	-8.08318
मुंबई	-8.08318
ऊ	-8.08431
आपल्या	-8.08569
होण्या	-8.08889
तरी	-8.09528
टक्के	-8.09532
ांचा	-8.10186
नोंद	-8.10509
गु	-8.10731
म्हणजे	-8.10792
करणे	-8.11066
म्हटलं	-8.11497
द्ध	-8.11783
मात्र	-8.1229
पत्र	-8.12306
शाळा	-8.12601
आम्ही	-8.13252
सीओव्ही	-8.13505
म्हणाले	-8.13759
ठेव	-8.14075
त्यांनी	-8.14326
त्यामुळे	-8.14981
केलं	-8.15063
हजार	-8.15106
घेण्या	-8.15664
केल्या	-8.15972
काळ	-8.16816
संबंध	-8.17118
शहर	-8.17299
राज	-8.17698
ौ	-8.18175
महिन्या	-8.18179
एप्रिल	-8.18441
आला	-8.18709
असल्याच	-8.19043
00	-8.19097
▁¦2020	-8.19243
अशी	-8.19407
चाचण्या	-8.20337
मोठ्या	-8.20556
असा	-8.20862
सांगता	-8.2087
डोस	-8.21558
d	-8.22241
रुग्णालय	-8.22298
असून	-8.23186
h	-8.23353
सध्या	-8.23368
co	-8.23434
संख्य	-8.24781
४	-8.25046
महाराष्ट्रात	-8.2517
असल्याचं	-8.25634
प्रकार	-8.25816
स्थिती	-8.25827
ल्यानंतर	-8.25852
होतं	-8.27082
महाराष्ट्र	-8.27221
▁."	-8.27373
येई	-8.28248
भारतात	-8.29992
पैकी	-8.30004
दिले	-8.3014
सरकारने	-8.30421
३	-8.30603
कोविड	-8.30908
वैद्यकीय	-8.31206
निर्णय	-8.31509
प्रसार	-8.32197
देख	-8.32458
मुख्यमंत्र	-8.33304
ह्या	-8.33632
मुलां	-8.33725
बदल	-8.33881
पूर	-8.34225
५	-8.34278
आवश्यक	-8.34753
सांगितलं	-8.35219
सोबत	-8.35872
आलं	-8.35895
होतो	-8.36138
गंभीर	-8.36168
जिल्ह्य	-8.36806
लोकांना	-8.36822
उप	-8.37133
नवीन	-8.37158
ायला	-8.38784
संसर्गा	-8.38823
ल्ल	-8.39097
मास्क	-8.39409
नियम	-8.40644
दिवसां	-8.408
मोठ	-8.4081
ः	-8.4139
होणार	-8.41393
दुसऱ्या	-8.41725
९	-8.41725
ांचे	-8.41823
प्रवास	-8.41921
मदत	-8.42241
l	-8.424
द्वार	-8.42741
बाहेर	-8.42744
▁¦10	-8.42939
संपर्क	-8.43079
समावेश	-8.4342
शोध	-8.44123
ांसाठी	-8.45222
करू	-8.46655
उद्	-8.46701
शिक्षण	-8.46902
पूर्वी	-8.47654
ठाकरे	-8.49408
ावं	-8.49865
देत	-8.49951
घ्या	-8.50261
रुग्णालयात	-8.5043
छ	-8.50501
बद्दल	-8.50504
आठवड	-8.51239
विचार	-8.5165
पुढे	-8.51984
क्षेत्र	-8.51987
u	-8.52729
दरम्यान	-8.53105
काळात	-8.5348
सुरुवात	-8.53483
शक्यता	-8.54623
च्छ	-8.54625
विषय	-8.54647
जागतिक	-8.55391
/	-8.56165
अभ्यास	-8.56554
जाहीर	-8.56566
;	-8.56944
g	-8.57336
निर्माण	-8.57336
६	-8.57336
डॉक्टर	-8.57535
वेगळ	-8.5813
येथ	-8.58166
निर्बंध	-8.58522
परवानगी	-8.58921
पसर	-8.59088
बाधित	-8.59724
महत्त्वाच	-8.60125
म्हणतात	-8.6013
येणार	-8.60144
आधी	-8.60155
प्राण	-8.60215
मंत्री	-8.60722
असलेल	-8.60973
लागत	-8.61181
हॉस्पिटल	-8.61345
तुम्हाला	-8.61345
sars	-8.61345
बोलता	-8.61758
जाऊ	-8.62374
तुमच	-8.62659
लागू	-8.62668
८	-8.62994
करणार	-8.64662
अनु	-8.64704
उपाय	-8.64914
दिसून	-8.65096
अमेरिक	-8.65521
दाखल	-8.65546
पहिल्या	-8.65951
तज्ज्ञ	-8.66377
प्रयत्न	-8.66378
प्रश्न	-8.66809
लागण	-8.6761
नागरिकां	-8.68551
श्वसन	-8.68552
नमुन	-8.69086
अर्थ	-8.69442
ण्यास	-8.69661
ात्मक	-8.69764
ांचं	-8.70796
काळजी	-8.7091
मागणी	-8.71227
कृत	-8.71607
विभागा	-8.72457
कंपनी	-8.72588
प्रकरण	-8.72658
म्हण	-8.72773
नियंत्रण	-8.73047
पुरवठा	-8.73507
धोका	-8.73546
विकस	-8.74165
असताना	-8.75001
क्रिया	-8.75178
घेऊ	-8.75374
आधार	-8.75891
उत्पादन	-8.76318
पुन्हा	-8.76318
सामान्य	-8.76805
मधून	-8.76813
उद्धव	-8.79213
उत्तर	-8.80193
स्पष्ट	-8.80194
परीक्षा	-8.80199
प्रत्येक	-8.80688
बीबीसी	-8.80688
तेव्हा	-8.80702
मार्ग	-8.80725
पंतप्रधान	-8.81185
नसल्या	-8.81273
पद्धती	-8.81686
उद्रेक	-8.81695
जिल्हा	-8.832
पातळी	-8.83201
दिल्ली	-8.8371
दिला	-8.84261
तुम्ही	-8.84739
विशेष	-8.85257
साथी	-8.85275
फार	-8.85412
सूचना	-8.85796
व्यवस्था	-8.86301
बैठक	-8.86302
होई	-8.86311
जानेवारी	-8.86828
सार्वजनिक	-8.86828
कर्मचाऱ्यां	-8.87357
श्र	-8.88356
द्द	-8.88776
उच्च	-8.88961
रूग्ण	-8.89015
ेंद्र	-8.89313
नव्हत	-8.89695
शिवाय	-8.9006
पाठव	-8.90278
प्रतिबंध	-8.90591
७	-8.91141
राष्ट्रीय	-8.91693
विद्यार्थ्यां	-8.91693
प्रभावी	-8.91695
लहान	-8.9192
रूग्णां	-8.92193
माध्यम	-8.9337
सारख्या	-8.9337
मध्य	-8.94282
संदर्भात	-8.94503
पाहिजे	-8.94503
़	-8.95074
पॉझिटिव्ह	-8.96227
दुसरी	-8.96232
चर्चा	-8.96254
ल्प	-8.96813
ुद्धा	-8.97376
पोहोच	-8.97393
ओळख	-8.97395
झालं	-8.97397
विविध	-8.97402
असतात	-8.97447
श्वास	-8.97983
जगभरात	-8.98573
व्यक्त	-8.99045
अंदाज	-8.99169
कुटुंब	-8.99767
b	-9.00369
तीव्र	-9.00369
गोष्टी	-9.01585
येऊ	-9.01599
ठेवण्या	-9.02177
पूर्व	-9.02753
केसेस	-9.03444
कालावधी	-9.04691
समोर	-9.04733
मंत्रालय	-9.05961
क्षमता	-9.0599
फेब्रुवारी	-9.07247
एकूण	-9.07904
व्हॅक्सिन	-9.0855
ञ	-9.09208
मर्याद	-9.09215
दुकान	-9.09358
f	-9.10537
असल्याने	-9.10542
बेड्स	-9.11208
धुण्या	-9.11438
“	-9.12564
सेंटर	-9.13285
सुरक्षित	-9.13938
गृह	-9.14144
ज्ञान	-9.14633
शरीरात	-9.1464
प्रतिसाद	-9.1465
संशोधन	-9.14653
खासगी	-9.15332
सांगितले	-9.16037
सगळ्या	-9.16039
अहवाल	-9.16044
संक्रमण	-9.16044
डॉक्टरां	-9.16388
गर्दी	-9.1675
वश्यक	-9.17091
आकडेवारी	-9.1746
निर्मिती	-9.1746
मुख्य	-9.17578
w	-9.1818
आर्थिक	-9.18904
दोन्ही	-9.18907
कर्मचारी	-9.20369
‘	-9.21856
’	-9.25673
)	-9.36841
!	-9.41674
y	-9.53281
'	-9.54986
ऐ	-9.64102
”	-9.66414
‍	-9.74956
"	-9.7576
ऩ	-9.81537
औ	-9.88582
k	-9.96161
x	-10.4363
–	-10.462
•	-10.4883
[	-10.6626
]	-10.6626
#	-10.7627
ऍ	-10.7984
$	-11.0921
z	-11.1421
ऋ	-11.1421
q	-11.2503
:	-11.5061
(	-11.583
j	-11.5867
<	-11.8609
≥	-11.8609
>	-11.972
+	-12.097
ॲ	-12.4065
*	-12.4065
×	-12.8565
_	-12.8566
α	-13.1899
ऎ	-13.6899
=	-13.6899
β	-13.6899
—	-13.6899
?	-14.6865
%	-14.6897
ऱ	-14.6898
~	-14.6899
ß	-14.6899
å	-14.6899
γ	-14.6899
ॉ	-14.6899
