<pad>	0
</s>	0
<unk>	0
¦	-1.24182
▁¦	-1.67357
▁	-2.98083
𐋇	-3.32048
▁,	-3.54498
ja	-3.95821
n	-4.40498
▁.	-4.49652
a	-4.88029
t	-5.05011
on	-5.24447
si	-5.39145
hän	-5.51866
▁:	-5.53844
niin	-5.71369
i	-5.76056
▁;	-5.79777
minä	-5.80631
en	-5.81839
ni	-5.88532
vat	-5.90044
▁"	-5.98179
he	-5.99232
nsa	-6.00315
sta	-6.03723
se	-6.05939
oli	-6.06776
hänen	-6.07699
lle	-6.08034
in	-6.09745
herra	-6.1266
ksi	-6.16042
mutta	-6.16462
an	-6.22603
ssa	-6.23428
te	-6.24289
s	-6.24959
joka	-6.26516
ä	-6.29988
sen	-6.30333
sillä	-6.33305
ta	-6.34339
kuin	-6.39567
että	-6.41174
sanoi	-6.43724
minun	-6.45821
sinun	-6.46966
ei	-6.48751
kun	-6.51448
ne	-6.53342
nsä	-6.57394
kaikki	-6.60291
sinä	-6.61544
maan	-6.63283
nyt	-6.67383
u	-6.67611
lla	-6.70391
mme	-6.71317
vät	-6.74322
o	-6.74457
nut	-6.75159
jotka	-6.76862
e	-6.77893
sa	-6.79109
nne	-6.7961
heidän	-6.8477
na	-6.8569
ko	-6.86383
ole	-6.89398
herran	-6.89876
▁".	-6.89994
neet	-6.92327
ovat	-6.94756
tu	-6.95143
kin	-6.95318
mitä	-6.97838
jumala	-6.98154
me	-7.02553
k	-7.10175
l	-7.10333
israeli	-7.11071
än	-7.12766
y	-7.13386
olen	-7.14808
sano	-7.15393
kaa	-7.1544
▁."	-7.17333
r	-7.20966
jos	-7.21632
hänelle	-7.22165
to	-7.23077
stä	-7.23103
▁?	-7.23472
ke	-7.25906
katso	-7.29779
tte	-7.30524
olivat	-7.31158
ku	-7.318
pa	-7.32369
tuli	-7.32652
teidän	-7.33485
et	-7.33721
ha	-7.34697
tämä	-7.34982
hänet	-7.3552
kanssa	-7.35754
jo	-7.35816
tä	-7.3631
vastaan	-7.37044
b	-7.37527
va	-7.38805
poika	-7.40268
jumalan	-7.40452
ka	-7.40679
h	-7.4091
häntä	-7.43737
m	-7.45338
▁`	-7.45629
kä	-7.45703
jonk	-7.45768
kuningas	-7.46206
lta	-7.46283
ti	-7.47821
sitä	-7.4803
heille	-7.50299
eivät	-7.50512
saa	-7.50543
tta	-7.50743
ille	-7.51677
vi	-7.52265
d	-7.54026
isi	-7.55971
näin	-7.56101
eikä	-7.56673
olet	-7.5738
ki	-7.57587
pois	-7.57696
pi	-7.58411
silloin	-7.58621
nen	-7.5875
mi	-7.5908
koko	-7.59363
sanoo	-7.61054
-	-7.61087
voi	-7.63237
vä	-7.63472
ra	-7.64239
llä	-7.64517
puhu	-7.64603
li	-7.64987
ty	-7.66648
vaan	-7.67253
meidän	-7.6839
minulle	-7.69239
kansa	-7.69976
pu	-7.7037
päivänä	-7.71163
heidät	-7.71584
sitten	-7.72035
minua	-7.72477
kse	-7.72932
le	-7.73052
tti	-7.73318
re	-7.73424
tai	-7.75294
▁-	-7.75438
la	-7.76886
us	-7.77142
koon	-7.77787
myös	-7.78094
teh	-7.78506
maa	-7.79632
hu	-7.80162
edessä	-7.81015
ista	-7.81139
sti	-7.82646
meni	-7.83215
inen	-7.84597
ette	-7.85391
ssä	-7.85415
kuninkaan	-7.86273
teille	-7.87157
sinua	-7.8934
pe	-7.89585
itse	-7.89887
▁!	-7.90637
lu	-7.91013
ri	-7.91108
heitä	-7.91545
de	-7.91652
v	-7.91907
▁?"	-7.92182
tämän	-7.93431
p	-7.94385
sinulle	-7.9471
pää	-7.95068
älä	-7.95402
nä	-7.96606
kö	-7.97605
vastasi	-7.97914
ma	-7.98356
suu	-7.98684
siitä	-7.98723
sä	-7.98975
asti	-7.99006
minut	-7.9989
tulee	-8.01993
mikä	-8.02211
jerusalemi	-8.02672
mukaan	-8.02887
vielä	-8.03197
ten	-8.0347
el	-8.04224
kää	-8.05117
teen	-8.06066
kuka	-8.0709
nämä	-8.07594
vaimo	-8.11408
kka	-8.1205
tähden	-8.1206
mään	-8.12218
maahan	-8.12422
sentähden	-8.12986
g	-8.13229
tykö	-8.13522
koska	-8.137
aan	-8.13845
ihin	-8.14712
kaiken	-8.1607
mene	-8.16306
siihen	-8.16741
otti	-8.17338
hi	-8.1916
van	-8.19443
usko	-8.19653
asu	-8.19946
it	-8.209
tuo	-8.21599
ve	-8.2216
juudan	-8.2234
mies	-8.22416
vai	-8.22882
daavid	-8.23062
jen	-8.23177
kautta	-8.23225
älkää	-8.23377
je	-8.23725
antoi	-8.23799
ro	-8.2431
sekä	-8.24927
käy	-8.24994
kaksi	-8.2561
kään	-8.25748
at	-8.26164
ivat	-8.26207
f	-8.26648
teki	-8.2707
toi	-8.27192
un	-8.27491
olkoon	-8.28392
ttu	-8.28434
niiden	-8.28895
siellä	-8.29072
syö	-8.2935
jä	-8.29715
päivä	-8.29814
su	-8.2991
tule	-8.29935
luo	-8.30261
tee	-8.3082
sinut	-8.3103
jeesus	-8.31731
ettei	-8.32015
kaiki	-8.3212
ita	-8.32452
yksi	-8.32548
ut	-8.33217
ar	-8.33218
kansan	-8.33563
ho	-8.34911
eli	-8.35006
kuinka	-8.35731
sana	-8.35768
pojan	-8.37317
ollut	-8.37396
kseen	-8.37534
eteen	-8.37641
olette	-8.377
jota	-8.38138
teitä	-8.39432
enää	-8.40372
herraa	-8.40457
kir	-8.41185
sydäme	-8.41224
olisi	-8.41314
da	-8.42086
illa	-8.42198
siis	-8.4227
po	-8.42488
ansa	-8.42673
hyvä	-8.42742
herralle	-8.43074
oma	-8.44375
suuri	-8.44583
lä	-8.44996
laisten	-8.45011
niitä	-8.45554
rin	-8.45646
as	-8.4644
mä	-8.46697
ota	-8.47019
or	-8.47282
oleva	-8.47352
antaa	-8.47356
ö	-8.48025
miehet	-8.48089
den	-8.48329
tuhat	-8.48383
siinä	-8.49814
maassa	-8.5001
näki	-8.504
lo	-8.50449
velje	-8.50609
kaike	-8.50804
viha	-8.50815
ttä	-8.50896
ot	-8.51333
vie	-8.51405
mooses	-8.52198
istu	-8.52888
jumalaa	-8.54207
neljä	-8.54212
anna	-8.54522
kolme	-8.5476
ru	-8.54794
oi	-8.55073
käte	-8.55111
toista	-8.55594
tullut	-8.5579
ksen	-8.55844
seitsemän	-8.56476
han	-8.56857
annan	-8.57401
kuu	-8.57479
taan	-8.57567
tietä	-8.57594
puhui	-8.57603
pä	-8.58243
ji	-8.58258
er	-8.58867
kor	-8.59323
antanut	-8.59886
mu	-8.60442
pappi	-8.60816
pala	-8.60859
sivat	-8.62398
tava	-8.62729
aina	-8.63264
aa	-8.63298
pyhä	-8.6345
ennen	-8.63764
jälkeen	-8.63882
juo	-8.64222
päälle	-8.64547
yli	-8.65434
kuuli	-8.65501
al	-8.6555
daavidi	-8.65921
tulivat	-8.66186
lähti	-8.66284
moosekse	-8.66389
olemme	-8.66631
kan	-8.66813
oikea	-8.66904
minu	-8.66946
köön	-8.67343
lähetti	-8.67437
kuule	-8.68165
taa	-8.68402
miksi	-8.68796
▁`.	-8.69223
kristukse	-8.69225
tar	-8.69508
lähte	-8.70876
minkä	-8.71051
esi	-8.71475
iksi	-8.71478
kaan	-8.71959
osa	-8.71993
kar	-8.72712
nousi	-8.72733
päin	-8.72976
miestä	-8.73318
silmä	-8.7339
luokse	-8.73457
ilo	-8.73799
älköön	-8.7432
ia	-8.74382
sielu	-8.76272
koot	-8.76527
kunnia	-8.76701
paljon	-8.76718
so	-8.77628
palvelija	-8.77705
val	-8.78024
tiin	-8.783
iden	-8.78443
kaupunki	-8.78543
itselle	-8.78557
toinen	-8.78793
armo	-8.79543
egyptin	-8.79545
ttava	-8.80064
seen	-8.80079
sinne	-8.80103
tiedä	-8.80495
miehen	-8.80601
kuninkaa	-8.81133
kai	-8.81274
emme	-8.81873
vuo	-8.82267
toisen	-8.82792
suku	-8.82881
llis	-8.82932
ah	-8.83149
erämaa	-8.83944
voit	-8.85072
tään	-8.85192
alla	-8.85233
pojat	-8.8538
käsi	-8.8546
sataa	-8.85865
sille	-8.86069
hä	-8.86135
tuu	-8.86265
israel	-8.86384
maasta	-8.86391
ään	-8.86505
kivi	-8.86513
voima	-8.86576
vei	-8.86727
etsi	-8.86842
joita	-8.87014
päällä	-8.87063
astu	-8.87079
jää	-8.87174
sota	-8.87438
takaisin	-8.87535
ee	-8.87541
sai	-8.87566
alas	-8.87633
meille	-8.87833
issa	-8.88553
henki	-8.88599
vain	-8.88872
il	-8.89008
be	-8.89416
vaikka	-8.89496
kutsu	-8.89561
min	-8.90325
lainen	-8.90747
puu	-8.90748
ulos	-8.90902
uu	-8.91255
pane	-8.91328
tekee	-8.91377
kymmenen	-8.91604
kuul	-8.91672
tulevat	-8.9168
ivät	-8.91893
set	-8.92317
kaikkia	-8.92615
issä	-8.92915
salomo	-8.93021
ttaa	-8.93586
teidät	-8.93686
viisi	-8.93905
itä	-8.95157
koi	-8.95882
ineen	-8.95933
vasta	-8.96192
uksen	-8.96312
missä	-8.96375
sy	-8.96406
heimo	-8.97102
sinu	-8.9725
enkeli	-8.97442
talo	-8.97588
jeesuksen	-8.97633
käske	-8.97777
am	-8.97848
meitä	-8.97857
sten	-8.97893
var	-8.98161
nouse	-8.98242
▁!"	-8.98479
tele	-8.99013
ga	-8.99191
essä	-8.99219
isänsä	-8.99327
mo	-8.99513
kuoli	-9.00093
kansaa	-9.00179
sebaot	-9.0029
kuitenk	-9.00598
tehdä	-9.00601
nime	-9.00646
man	-9.00802
tänä	-9.00838
farao	-9.00956
istä	-9.01064
rauha	-9.01559
isä	-9.01842
otta	-9.02344
synti	-9.02479
joku	-9.02753
syy	-9.0281
valta	-9.03702
määrä	-9.04237
eltä	-9.04286
päästä	-9.04836
käsky	-9.04904
mieli	-9.05101
istui	-9.05469
saul	-9.06083
neuvo	-9.06494
temppelin	-9.06631
juuda	-9.06793
ys	-9.06923
vanha	-9.07332
lai	-9.07558
verta	-9.07639
kaupungin	-9.07903
maata	-9.08045
nimi	-9.08132
pani	-9.08175
ad	-9.08829
laiset	-9.08839
ju	-9.08862
mise	-9.09122
elin	-9.0952
olla	-9.0956
israelilaiset	-9.09658
sanon	-9.09745
vaa	-9.09853
ttiin	-9.10377
poikansa	-9.1054
muu	-9.10625
keskellä	-9.10756
syntyi	-9.11058
sanan	-9.11078
samoin	-9.11154
ympäri	-9.11183
tul	-9.11258
lain	-9.11818
matta	-9.11851
pahaa	-9.12153
jolla	-9.12835
elä	-9.12952
viini	-9.13076
hti	-9.13295
ksensa	-9.13371
ettiin	-9.13426
taivaan	-9.13584
uhri	-9.13749
lleen	-9.13762
tähän	-9.14067
mistä	-9.1415
kulki	-9.14386
miehiä	-9.14709
tätä	-9.14779
kulta	-9.15124
tin	-9.15379
usta	-9.15384
kasvo	-9.15387
jossa	-9.15549
pelkää	-9.15626
vanno	-9.16008
mma	-9.16065
pitä	-9.16245
essa	-9.16361
suure	-9.16528
pyhi	-9.16569
har	-9.166
tahto	-9.1679
iset	-9.17224
vuott	-9.17263
hal	-9.1768
itten	-9.17702
totisest	-9.17727
jaakobi	-9.17895
kyl	-9.18863
isin	-9.19075
suvu	-9.19441
karja	-9.19483
kuulu	-9.19503
asia	-9.19915
masta	-9.19919
työ	-9.20003
teko	-9.20127
suo	-9.20224
tie	-9.20273
omi	-9.20277
kansalle	-9.20769
lähe	-9.20884
päivää	-9.21156
tunte	-9.21171
iankaikkisest	-9.21179
ruumii	-9.21623
kiinni	-9.2163
uh	-9.21701
polttouhri	-9.22067
lähtivät	-9.22273
sel	-9.22457
kuninkaalle	-9.2286
mpi	-9.22913
joosua	-9.22956
eikö	-9.23068
kaua	-9.23111
abi	-9.23233
elle	-9.23289
ltä	-9.2356
näh	-9.23625
miele	-9.23805
hänellä	-9.23858
eri	-9.24057
tanut	-9.24227
aika	-9.24714
käski	-9.2477
huusi	-9.24788
profeetta	-9.24897
ylös	-9.25219
par	-9.25286
yhtä	-9.25688
takaa	-9.25705
rakenta	-9.2571
vir	-9.25789
kohtaa	-9.25985
tyttäre	-9.26139
ssaan	-9.26534
vaelta	-9.26608
ensä	-9.26733
yö	-9.26743
ttää	-9.26856
tässä	-9.26869
hin	-9.26874
her	-9.2731
iltä	-9.27354
varten	-9.2756
tut	-9.2768
tulla	-9.27706
kukin	-9.27751
jalka	-9.27807
kki	-9.27916
isen	-9.27959
liha	-9.27967
turva	-9.28026
tuleva	-9.28236
vuoden	-9.28326
saat	-9.28544
kunne	-9.28827
puolesta	-9.28951
perintöosa	-9.28953
neen	-9.28984
hopea	-9.29247
joukko	-9.29411
kirjoitettu	-9.29425
alle	-9.29455
sanonut	-9.29498
tunne	-9.29533
ly	-9.29763
ker	-9.29823
luu	-9.29868
heistä	-9.30241
massa	-9.30303
ihmisen	-9.30313
ottaa	-9.30737
matka	-9.31107
tytär	-9.31299
ken	-9.31405
pidä	-9.31439
egypti	-9.3152
pitää	-9.31569
taas	-9.31786
julista	-9.31841
maja	-9.31987
vel	-9.32585
syntiä	-9.32725
meidät	-9.33319
iin	-9.3344
käänty	-9.33496
rakasta	-9.33512
muuta	-9.33566
mus	-9.34004
puolella	-9.34014
illä	-9.34077
sieltä	-9.34435
pelasta	-9.34717
liiton	-9.3482
seiso	-9.34849
opetta	-9.34946
tettu	-9.34991
ynnä	-9.35513
paa	-9.35671
enkä	-9.35676
kas	-9.35816
kal	-9.36155
tuomio	-9.36369
ainoastaan	-9.36859
korkea	-9.36882
my	-9.3699
tapahtu	-9.37198
puoli	-9.37253
ylen	-9.37388
mat	-9.37674
tahdo	-9.37699
hyvää	-9.37828
jälkeläisiä	-9.37888
rikko	-9.37889
vesi	-9.37961
ihmi	-9.38023
joi	-9.38099
kaikke	-9.38409
vaattee	-9.38427
hänestä	-9.38629
muista	-9.38987
käsiin	-9.39276
kaksikymmentä	-9.39459
kive	-9.39835
kysyi	-9.39875
loi	-9.39881
soi	-9.40012
staan	-9.40357
änsä	-9.40421
im	-9.40447
rii	-9.40689
toivo	-9.40782
pelastu	-9.40957
sala	-9.41052
jordani	-9.41054
ttävä	-9.41101
paha	-9.41342
elää	-9.41538
häneen	-9.41634
sanat	-9.41844
alttari	-9.41881
päivän	-9.42151
kanta	-9.42155
hyvin	-9.42167
lyö	-9.42258
ol	-9.42467
nnut	-9.42816
iistä	-9.42847
asetta	-9.42947
päämiehe	-9.43205
kysy	-9.43353
muuri	-9.43384
jaakob	-9.43554
nähdä	-9.43772
miehe	-9.43829
taivaa	-9.43893
leipää	-9.43897
pysy	-9.44179
paika	-9.44202
hedelmä	-9.44436
ensa	-9.44521
väki	-9.44767
jälkeläise	-9.44778
ön	-9.45208
▁`,	-9.45448
kohd	-9.45561
meren	-9.45791
ollee	-9.45814
baabelin	-9.46062
väli	-9.4612
laske	-9.46145
kuole	-9.46301
tien	-9.46429
kärsi	-9.46568
edellä	-9.46597
ina	-9.46666
kutsui	-9.4702
teistä	-9.47034
utta	-9.47127
palvele	-9.47134
ran	-9.47216
suuren	-9.47445
kii	-9.47538
ilta	-9.47943
teillä	-9.47961
vettä	-9.4817
vih	-9.48313
kyynärää	-9.4839
j	-9.48447
jumalalle	-9.48552
salli	-9.48769
karitsa	-9.48859
silmissä	-9.48859
tänne	-9.48874
▁",	-9.48899
paavali	-9.48942
kur	-9.49267
aikaan	-9.49352
kulla	-9.49398
etu	-9.49685
nosta	-9.49788
alttarin	-9.50163
tekivät	-9.50434
nuo	-9.50462
asui	-9.50611
käskyn	-9.50701
sauli	-9.50842
essaan	-9.50957
kaupunkiin	-9.51186
laisia	-9.51194
itte	-9.513
aamu	-9.51475
tulen	-9.5166
peit	-9.51775
hävittä	-9.51984
akse	-9.52261
lais	-9.52368
yhden	-9.52398
saatta	-9.52483
saastai	-9.52537
tulleet	-9.53003
veljensä	-9.53393
asettui	-9.53489
luona	-9.53578
baal	-9.53633
mah	-9.54015
linna	-9.54136
kallio	-9.54228
mooabi	-9.5434
mista	-9.54616
via	-9.54652
es	-9.54748
tietää	-9.54803
laakso	-9.5483
anteeksi	-9.54831
aaron	-9.54994
ihmis	-9.5519
tulisi	-9.5531
paikka	-9.5543
josta	-9.55436
pietari	-9.55447
henke	-9.55489
malla	-9.55536
astui	-9.55539
lähde	-9.5565
iä	-9.55666
muut	-9.55884
jumalattoma	-9.56134
tekevä	-9.5629
kansat	-9.56376
kuun	-9.56673
miekka	-9.56899
per	-9.56953
llaan	-9.56964
aikana	-9.57061
syödä	-9.57325
asetti	-9.57335
isäni	-9.57393
osta	-9.57458
edestä	-9.57669
hy	-9.57765
kuolema	-9.58006
uuden	-9.58123
tapa	-9.58343
temppeli	-9.58395
papit	-9.58577
keskuudessa	-9.58592
äiti	-9.59128
toimitta	-9.5914
kansoje	-9.59234
raha	-9.59604
palvelijasi	-9.59632
lau	-9.59661
vanhurskaude	-9.59675
kulke	-9.598
sata	-9.60064
noudatta	-9.60083
saanut	-9.60209
onko	-9.60272
mar	-9.60318
eet	-9.60471
autio	-9.60528
vuori	-9.60626
mai	-9.60715
saavat	-9.60745
elämä	-9.60917
tuksi	-9.60921
koht	-9.61176
yhdessä	-9.61181
manasse	-9.61185
menkää	-9.61187
tetty	-9.61374
kasva	-9.61416
ilmoitta	-9.61538
etelä	-9.61661
näy	-9.61764
luota	-9.61776
kaltai	-9.61785
ilmesty	-9.61839
asukkaa	-9.61846
ihmisten	-9.61895
pysyy	-9.61934
oman	-9.62099
len	-9.62322
korva	-9.62437
liitto	-9.62501
metsä	-9.62505
sekeli	-9.6254
näky	-9.62747
minulla	-9.62825
vaimon	-9.62846
joilla	-9.62899
laisille	-9.6298
jeremia	-9.63168
oppi	-9.6317
päivinä	-9.63195
tähte	-9.63216
puut	-9.63243
kaksitoista	-9.63245
kristus	-9.63839
kerra	-9.63898
laki	-9.6392
täynnä	-9.63925
rukoile	-9.63988
sijaa	-9.64075
kuningasta	-9.6409
ed	-9.64165
raja	-9.64275
hauta	-9.64615
kävi	-9.65061
ilmestysmaja	-9.65195
juhla	-9.65195
johon	-9.65201
kel	-9.65263
nimen	-9.65598
ylistä	-9.65924
mennä	-9.66202
häpeä	-9.66357
sama	-9.66482
hengen	-9.66619
täyttä	-9.66635
kööt	-9.66655
pitkä	-9.66671
lapset	-9.66807
enemmän	-9.67264
lähettänyt	-9.67264
samuel	-9.67271
seisoi	-9.67273
väkevä	-9.67273
kuullu	-9.67346
molemm	-9.67408
soti	-9.67694
viä	-9.6775
seura	-9.67848
aikaa	-9.67935
leeviläise	-9.67964
vier	-9.67971
kyllä	-9.68
itsensä	-9.6803
nimeä	-9.68059
jona	-9.68136
jia	-9.68144
kauhistu	-9.68269
teet	-9.68499
lahja	-9.68582
aaronin	-9.68684
joosef	-9.69044
puolelle	-9.69049
kasvoje	-9.6909
ssään	-9.69137
seuraa	-9.69207
mone	-9.6933
beet	-9.69375
vere	-9.69518
yt	-9.69525
noo	-9.69569
veri	-9.69784
autta	-9.69792
hävit	-9.69838
jälle	-9.70189
palasi	-9.70218
kuusi	-9.70314
sinulla	-9.70347
öljy	-9.70528
kaupungi	-9.70846
kotii	-9.71283
kosta	-9.71353
taistelu	-9.71535
tästä	-9.7159
lähetä	-9.71692
maailma	-9.72032
liikkeelle	-9.72265
mukana	-9.72337
kil	-9.7236
poikaa	-9.72686
leik	-9.7269
iho	-9.72816
lapsia	-9.72976
gileadi	-9.73
assuri	-9.73002
temppeliin	-9.73288
söi	-9.73292
henkeä	-9.73734
virsi	-9.74067
isiin	-9.74356
pään	-9.7441
hiskia	-9.74487
sydän	-9.74487
vanhurskaa	-9.7449
malja	-9.745
siioni	-9.7451
vaunu	-9.74525
samaria	-9.74556
kuullee	-9.74611
joutui	-9.75283
kohta	-9.75296
saisi	-9.75517
palveli	-9.75529
paljo	-9.75543
uhraa	-9.75599
mui	-9.75951
ruoka	-9.76147
vihollise	-9.76388
heillä	-9.76388
itseä	-9.76559
vara	-9.7664
näet	-9.76757
monta	-9.76775
aabrahami	-9.76905
daavidille	-9.76947
joukossa	-9.77025
jeesukse	-9.77075
mihin	-9.77141
nous	-9.77166
synnyttä	-9.77176
jäi	-9.77396
poltta	-9.77534
kuulla	-9.77744
hallitsi	-9.78098
etkä	-9.78147
ruhtinas	-9.78287
uhrat	-9.78339
isille	-9.784
lee	-9.78437
muukalai	-9.78787
valtakunna	-9.79086
▁?`	-9.79087
arvo	-9.7913
toimi	-9.79142
sal	-9.79271
elävä	-9.79666
isie	-9.79775
raava	-9.79996
vihaa	-9.80163
elia	-9.80215
olevan	-9.80275
:	-9.80347
isten	-9.80469
viisikymmentä	-9.80667
paikkaan	-9.8069
olkoot	-9.80919
miehi	-9.81299
neljäkymmentä	-9.81467
opetuslapse	-9.81467
paimen	-9.81483
käskyjä	-9.81521
tahi	-9.81589
vyö	-9.81729
miesten	-9.81888
vaski	-9.82266
pylvä	-9.82273
joonatan	-9.82273
ttömä	-9.82284
huuta	-9.82304
laisen	-9.82448
sukukunna	-9.82846
elämän	-9.82886
kanaani	-9.83077
yhty	-9.83422
taivaasta	-9.83443
mättä	-9.83773
vanhurskas	-9.8391
synty	-9.8399
palvelijat	-9.84115
jumalani	-9.84191
eräs	-9.84289
aabraham	-9.84575
hoo	-9.84593
kukist	-9.84627
auk	-9.84793
filistealaist	-9.84995
äänen	-9.85082
hankki	-9.85603
ittain	-9.85927
mmin	-9.8601
kauka	-9.86165
din	-9.8626
tunut	-9.8639
lampaa	-9.86406
pojalle	-9.86437
kultaa	-9.86495
ihmiset	-9.86521
kuri	-9.86715
isitte	-9.86835
ajan	-9.86916
imme	-9.8693
uskolli	-9.86937
meillä	-9.871
ruokauhri	-9.87107
dessa	-9.87172
pakanain	-9.87254
poikia	-9.87254
puoleen	-9.87261
edomi	-9.87267
jumalia	-9.8727
ihmislapsi	-9.87383
annoi	-9.87452
vien	-9.87522
kuva	-9.87531
tuomitse	-9.87572
portin	-9.8758
mukse	-9.8771
kulutt	-9.88068
nnetaan	-9.88285
huonee	-9.88371
mere	-9.88443
nuun	-9.88457
antakaa	-9.88516
arkki	-9.88545
koske	-9.88858
päällikkö	-9.8897
kaste	-9.89006
löi	-9.89055
aluee	-9.89248
myy	-9.89297
joosefi	-9.89376
lähtee	-9.89617
aasi	-9.89693
portti	-9.89845
kaatu	-9.89847
tehtävä	-9.89855
sivu	-9.8988
tehkää	-9.90107
isäsi	-9.90171
kalu	-9.90184
vuore	-9.90411
halu	-9.90505
rai	-9.90644
ttoma	-9.90682
ammonilais	-9.9077
valmista	-9.90862
noin	-9.91194
porti	-9.91263
luopu	-9.91292
menee	-9.91378
ääntä	-9.91496
kädessä	-9.91644
vaiva	-9.91727
mmat	-9.91786
ainoa	-9.91858
päivään	-9.92039
varo	-9.92151
totta	-9.92164
loppu	-9.92315
laidunma	-9.92495
opetuslapsi	-9.92495
jättä	-9.92779
koo	-9.92962
ympärillä	-9.9304
ell	-9.93057
onnettomuu	-9.93067
ua	-9.93215
syntiuhri	-9.93336
valtakunta	-9.93352
rake	-9.93395
puhtaa	-9.93397
huuto	-9.93397
juuri	-9.93401
▁.`	-9.9341
veren	-9.93523
lepo	-9.93597
filistealaise	-9.93669
vil	-9.93725
rr	-9.93863
kolmen	-9.93877
herralta	-9.94186
evankeliumi	-9.94305
rakensi	-9.94331
lopu	-9.94499
käsistä	-9.94533
isää	-9.94576
olkaa	-9.94606
muita	-9.9462
ottakaa	-9.94703
esiin	-9.94914
juutalaise	-9.94974
leh	-9.9498
tuomit	-9.9499
ylitse	-9.95241
iloitse	-9.95352
valmis	-9.95374
yttä	-9.95404
aivan	-9.95465
dan	-9.95614
lauma	-9.95886
rukoili	-9.96143
löytä	-9.96148
uhreja	-9.96149
ystävä	-9.96168
lah	-9.96243
ilmi	-9.96429
vastaa	-9.96976
piti	-9.9704
lat	-9.9706
poikie	-9.97083
kolmekymmentä	-9.97083
esipiha	-9.97084
eser	-9.97125
uutta	-9.97349
miekan	-9.97443
riemu	-9.97515
kimppuun	-9.97549
valhe	-9.97673
ulko	-9.97803
puhe	-9.97814
pelto	-9.98027
näitä	-9.98129
tarttu	-9.98168
arkin	-9.98335
hopeata	-9.98389
ano	-9.98531
kahdeksan	-9.98967
todista	-9.98972
peto	-9.98977
seurakunta	-9.98982
silmie	-9.98998
tapahtui	-9.99064
tutki	-9.99135
tieltä	-9.99163
kaamme	-9.99342
tälle	-9.99357
kieltä	-9.99438
tulette	-9.99448
sadan	-9.99693
os	-9.99936
päällikö	-9.9994
vuoristo	-9.9994
isän	-10.0009
sisälle	-10.0009
himo	-10.0011
äitinsä	-10.0015
toiset	-10.0018
lie	-10.0028
yöllä	-10.0032
surmasi	-10.0035
perä	-10.0044
kulu	-10.006
tetaan	-10.0074
päivi	-10.009
nöyr	-10.0091
maksa	-10.0093
nimeltä	-10.0095
jooab	-10.0099
jouko	-10.01
ovi	-10.0111
pahan	-10.0115
estä	-10.013
vero	-10.0135
kedo	-10.0153
laste	-10.0168
yön	-10.0169
ylt	-10.0178
omakse	-10.0181
saman	-10.0182
pakkosiirtolais	-10.0189
johdat	-10.0189
yhteen	-10.019
nosti	-10.0191
kiele	-10.0192
merki	-10.0193
vilja	-10.0204
ennusta	-10.0205
aaksi	-10.0206
temppelissä	-10.0215
utti	-10.0216
nousee	-10.0223
nimensä	-10.0233
viiniä	-10.0234
tekoja	-10.0239
itki	-10.0241
valtaistuime	-10.0258
palkka	-10.0279
egyptistä	-10.0303
vedet	-10.0318
kymmen	-10.0325
hevo	-10.0327
lihaa	-10.0336
alka	-10.0339
llään	-10.0342
kirkkau	-10.0348
häväis	-10.0358
lupa	-10.0373
kääntyi	-10.0375
auringon	-10.0388
kammio	-10.0388
oikein	-10.0388
▁`."	-10.0389
lähellä	-10.0399
kuollee	-10.0401
kuollut	-10.0424
ajoi	-10.0427
israelissa	-10.046
tuaan	-10.0479
tappa	-10.0481
vähä	-10.0482
piiri	-10.0488
kuukaude	-10.0489
kumarta	-10.0489
vanhimma	-10.0489
eesau	-10.049
synnytti	-10.0492
köyhä	-10.0503
yhä	-10.0508
päätä	-10.0529
vaari	-10.0541
lloin	-10.0543
du	-10.0584
keskenä	-10.0591
väärä	-10.0591
osasto	-10.0592
aiko	-10.0607
huoneen	-10.0629
maailman	-10.063
arpa	-10.0677
uskon	-10.068
peittä	-10.0691
parempi	-10.0694
raskaa	-10.0695
laulu	-10.0701
udu	-10.0702
kertaa	-10.0705
peri	-10.071
lapse	-10.0715
täyty	-10.0716
sydämessä	-10.0767
kaivo	-10.0768
ampu	-10.0783
hylkää	-10.0798
turmio	-10.0798
leijona	-10.0798
lunasta	-10.0799
siunat	-10.0801
ikinä	-10.0803
vuotee	-10.0815
armon	-10.0821
jokaise	-10.087
meri	-10.0885
rukoil	-10.0893
kahden	-10.0902
rakkaa	-10.0905
oikeutt	-10.0905
vaelsi	-10.0905
eksy	-10.0905
lammas	-10.091
lihan	-10.0913
lti	-10.0915
sauva	-10.0922
efraimin	-10.0925
kuninkaat	-10.0926
oikeuden	-10.094
tahdon	-10.0942
valo	-10.0944
ruhtinaat	-10.0946
jumal	-10.0948
joista	-10.0954
karkoit	-10.0955
kaupungissa	-10.0966
sisare	-10.0982
tavara	-10.0991
voisi	-10.0997
vis	-10.0999
uksia	-10.1004
1	-10.101
pilvi	-10.1011
sukupolve	-10.1012
palvelijoita	-10.1012
valtaa	-10.1016
miika	-10.1018
iankaikkise	-10.1027
asettu	-10.1041
rah	-10.1046
pait	-10.1051
seurasi	-10.1056
lupaukse	-10.106
tekemään	-10.106
pakoon	-10.1079
puhdas	-10.1118
täällä	-10.1118
kauhu	-10.1118
tulkoon	-10.113
linnu	-10.1142
hetke	-10.1149
sukukunnasta	-10.115
jolle	-10.1154
kuoleman	-10.1174
suuret	-10.1176
miin	-10.1193
äiden	-10.1193
palvelijansa	-10.1213
mia	-10.1222
veljie	-10.1227
lähesty	-10.1231
yhdeksän	-10.1231
kiiva	-10.1242
heittä	-10.1259
taloon	-10.1296
autua	-10.1313
baabeli	-10.1324
kätte	-10.1332
[	-10.1336
vuotena	-10.1336
papin	-10.1337
hauda	-10.1364
totuude	-10.137
paikassa	-10.1376
miehille	-10.1384
välillä	-10.1386
oinas	-10.1403
utui	-10.141
pyhän	-10.1416
ikään	-10.143
polve	-10.1435
ymmärtä	-10.1444
hallitusvuotena	-10.1448
moni	-10.1448
tunnust	-10.1452
miehelle	-10.1471
vuorelle	-10.1477
henge	-10.1481
elisa	-10.1494
lline	-10.151
omaan	-10.1539
puhee	-10.1542
katselmukse	-10.156
näkevä	-10.1568
ensimmäisen	-10.1578
riemuit	-10.158
täyte	-10.1582
uhrilahja	-10.1583
pelastaa	-10.1583
tomuu	-10.1583
ala	-10.1585
jätti	-10.1596
huone	-10.1603
telee	-10.1605
näe	-10.1619
efraim	-10.165
minen	-10.1651
kasta	-10.1652
katoa	-10.1668
peljästy	-10.1673
joosafat	-10.1673
äkee	-10.1681
kiitos	-10.1687
kiitä	-10.1709
poikasi	-10.1721
kieli	-10.1726
luku	-10.1732
riko	-10.1733
sanaa	-10.1767
vuosi	-10.177
häpeää	-10.1773
vala	-10.1778
kolmantena	-10.1788
vahvista	-10.1788
päällys	-10.1788
pojille	-10.1788
toiselle	-10.1789
tahtoo	-10.1821
juutalaist	-10.1832
pilkkaa	-10.1833
kaupungista	-10.1834
astia	-10.1843
lapsi	-10.1857
asuu	-10.1878
laski	-10.1902
täytyy	-10.1902
pohjoise	-10.1903
puhdista	-10.1905
kädestä	-10.1905
huuda	-10.1905
todistaja	-10.1905
menesty	-10.1905
tuomari	-10.191
sisään	-10.1911
llisest	-10.1912
vallan	-10.1914
mattoma	-10.1921
tyy	-10.1922
surma	-10.1923
vapau	-10.1927
aseta	-10.1939
jätä	-10.1946
viholli	-10.1953
surmaa	-10.1965
oven	-10.1981
ensimmäi	-10.1983
eita	-10.1991
suitsu	-10.2017
pyhäkkö	-10.2021
kuol	-10.2022
merkki	-10.2022
amorilais	-10.2022
tuhon	-10.2025
rauta	-10.2032
juoda	-10.2034
tarkoi	-10.2034
ella	-10.2041
ppa	-10.2049
muutama	-10.2072
ilmoit	-10.2081
juoma	-10.2091
laskeutu	-10.2111
voitti	-10.2113
seuraavana	-10.2141
uhrasi	-10.2142
ilman	-10.2142
heitti	-10.2142
puolen	-10.2144
kansoi	-10.2149
saalii	-10.2151
nuore	-10.2151
viiden	-10.2164
herät	-10.2196
työtä	-10.2214
jät	-10.2218
leiri	-10.2219
nuori	-10.2225
vaivaa	-10.2225
isiä	-10.2229
kenen	-10.223
hurska	-10.226
leeviläisi	-10.2262
eitsemänkymmentä	-10.2263
tyhmä	-10.2263
urho	-10.2263
mennyt	-10.2266
hävitä	-10.2268
kaup	-10.2273
rikkau	-10.2274
hallitse	-10.2281
pahat	-10.2285
eläimet	-10.2287
öljyä	-10.2293
muukalaise	-10.232
palvelijalle	-10.232
rakastaa	-10.2328
erot	-10.2334
virran	-10.2358
vaino	-10.2375
säily	-10.2384
asumuksen	-10.2385
daniel	-10.2391
seassa	-10.2396
rasva	-10.2404
ram	-10.2411
lke	-10.2424
pääse	-10.2426
maton	-10.244
esikoi	-10.2446
anti	-10.2486
palvell	-10.2507
pyysi	-10.2507
joutuu	-10.2507
rupesi	-10.2508
vihki	-10.2528
omaa	-10.2552
veli	-10.2554
aikoi	-10.2601
leipä	-10.2604
aurinko	-10.2632
rukoukse	-10.2632
korkeu	-10.2634
hukku	-10.2635
vitsa	-10.2636
milloin	-10.2638
katsokaa	-10.2639
pyhää	-10.264
surmat	-10.2665
polvi	-10.2667
rauhaa	-10.2675
rikokse	-10.2685
seinä	-10.2709
pur	-10.2711
mittaa	-10.2725
hdu	-10.2741
valin	-10.2747
voimalla	-10.2754
auta	-10.2758
tyttäriä	-10.2759
väijy	-10.2759
kaunis	-10.2763
ulkopuole	-10.2763
pääsiäi	-10.2763
tila	-10.2778
tullessa	-10.278
saastaise	-10.2781
isälle	-10.2782
tieto	-10.279
lapsen	-10.2817
ääni	-10.2825
uuteen	-10.2835
seurakunnan	-10.2874
galilea	-10.2887
perhekunta	-10.2887
tuonela	-10.2887
turha	-10.2887
paasto	-10.2888
vuoren	-10.29
saarna	-10.2903
veden	-10.2904
pakene	-10.291
leiriytyi	-10.2944
tomu	-10.2967
puolelta	-10.2997
sanokaa	-10.2999
suusta	-10.3006
saata	-10.301
kukkuloi	-10.3017
viinitarha	-10.3017
vuodatta	-10.3017
annettu	-10.3019
miekalla	-10.3023
kadu	-10.3026
syntynyt	-10.3037
onnettomuude	-10.3064
harjoit	-10.3065
uudesta	-10.3104
köy	-10.3106
leske	-10.3109
kova	-10.3118
viisaude	-10.3123
jokaisen	-10.3134
raunio	-10.3148
pelkäsi	-10.3148
ääre	-10.3149
asukkai	-10.3154
avaa	-10.3167
pelastukse	-10.3172
lisäk	-10.3182
otin	-10.3185
kuiva	-10.3185
hullu	-10.32
kuljet	-10.321
silmät	-10.3212
nälkä	-10.3218
ottakoo	-10.3246
siltä	-10.3273
ottamaan	-10.3279
kaldealais	-10.3282
seitsemäntenä	-10.3282
valitu	-10.3285
tuuli	-10.3303
virka	-10.3304
kaltaise	-10.3304
loista	-10.3311
vanhurskaute	-10.3321
tuska	-10.3328
kertoi	-10.3329
rannall	-10.3348
kuulee	-10.335
kokoontu	-10.3368
sairas	-10.3369
sotaan	-10.338
kyynärä	-10.3391
uuri	-10.3393
itke	-10.3402
lakia	-10.3405
tehty	-10.3411
kerubi	-10.3417
murska	-10.3417
poikki	-10.3417
sanansaattaja	-10.3417
joudu	-10.3425
olleit	-10.3426
seurakunna	-10.343
ris	-10.3449
näyttä	-10.3457
kulje	-10.349
sela	-10.3502
riita	-10.3506
oihin	-10.3509
valvo	-10.3516
nimessä	-10.352
palk	-10.3523
benjaminin	-10.3536
saar	-10.3541
pimeyde	-10.3554
johannes	-10.3554
vartioi	-10.3554
ratsu	-10.3554
jäljelle	-10.3564
kehoit	-10.3577
hoita	-10.3579
alttarilla	-10.3585
peljät	-10.3597
profeetat	-10.3602
kestä	-10.3676
virta	-10.3688
todistukse	-10.3693
eleasar	-10.3693
ajatteli	-10.3693
pitali	-10.3693
tuoksu	-10.3693
pello	-10.3694
jauho	-10.3697
leirin	-10.3713
huomaa	-10.374
kokoontui	-10.374
luvan	-10.3743
unhot	-10.3774
aasa	-10.3791
tekoje	-10.3792
itään	-10.3794
iisaki	-10.3795
kymmene	-10.3809
muuttu	-10.3826
lliset	-10.3829
varhain	-10.3834
tyhjä	-10.3834
kätke	-10.3835
huoneeseen	-10.3836
sotavaunu	-10.3836
viisaa	-10.3837
kylvä	-10.384
perhee	-10.3841
puro	-10.3845
sytty	-10.3847
otolli	-10.3849
suosio	-10.385
iseksi	-10.3855
annettava	-10.3857
terve	-10.3859
vapaa	-10.3861
sanotte	-10.3868
hyvi	-10.3874
kerto	-10.3874
taisiin	-10.3877
kovin	-10.3893
?	-10.3896
kirkkaude	-10.3897
täydelli	-10.392
pahoi	-10.3964
joutuvat	-10.3976
sovitukse	-10.3976
lankesi	-10.3976
viisas	-10.3977
varust	-10.3991
orjuu	-10.3997
ääri	-10.4019
sydämestä	-10.4035
bar	-10.404
ensin	-10.4054
naisen	-10.4065
paino	-10.4076
laupeu	-10.4106
pilve	-10.4121
ahdista	-10.4121
sankari	-10.4121
kauris	-10.4121
veljiä	-10.4121
käydä	-10.4122
palatsi	-10.4123
sido	-10.4126
ilmoitti	-10.4131
viholliste	-10.4131
ensimmäise	-10.4146
palvelijai	-10.415
iir	-10.4166
pieni	-10.4167
leevi	-10.4171
juutalaisi	-10.4201
miekkaan	-10.422
etkö	-10.4228
totuu	-10.4229
makaa	-10.4234
ravit	-10.4253
ruoho	-10.4268
rankaise	-10.4269
siunaa	-10.427
odotta	-10.4271
tuhoa	-10.4271
sotajoukko	-10.4273
yhteysuhri	-10.4274
ydy	-10.4291
aiset	-10.4291
benjamini	-10.4307
palvelusta	-10.4309
taivast	-10.4315
pelo	-10.4326
pappien	-10.4351
avasi	-10.4366
jerusalem	-10.4366
veisat	-10.4384
tekijä	-10.4388
päämies	-10.4397
käänny	-10.4399
naise	-10.4406
jumalattomi	-10.4418
lamppu	-10.4418
ryöstä	-10.4418
sarve	-10.4418
abimelek	-10.4418
ymmärtäväi	-10.4422
taido	-10.4424
vaella	-10.4427
vuorella	-10.4439
nouss	-10.4449
jumalalta	-10.4452
seba	-10.4452
beeteli	-10.4464
ihme	-10.4466
huul	-10.4467
tykönä	-10.447
joukosta	-10.4472
antava	-10.4538
kato	-10.4548
kukkula	-10.4568
midiani	-10.4569
juure	-10.4569
veljille	-10.4569
jälkeläisten	-10.457
sokea	-10.4571
pelko	-10.4572
syyttä	-10.458
sanoma	-10.4581
nähnee	-10.4586
absalom	-10.4592
viisau	-10.4593
isänne	-10.4599
tiesi	-10.4616
isämme	-10.4621
dessä	-10.4636
iisak	-10.4669
kiittä	-10.467
äistä	-10.4693
sekaan	-10.4703
siemen	-10.4706
johannekse	-10.4723
ahdistukse	-10.4723
bileam	-10.4723
tarvitse	-10.4723
ehkä	-10.4723
hebroni	-10.4723
käärme	-10.4728
kirjoita	-10.4734
ahabi	-10.474
vanhurskautta	-10.474
papei	-10.474
olko	-10.4752
aamulla	-10.4755
laista	-10.4773
avio	-10.4787
millä	-10.4799
pannu	-10.4809
syövät	-10.4829
daani	-10.483
tultua	-10.4852
karkoitta	-10.4866
raama	-10.4873
huudo	-10.4879
lahjoja	-10.4879
vaske	-10.488
härkä	-10.4881
monin	-10.4887
vääri	-10.4887
annettiin	-10.4888
▁";	-10.4888
hehku	-10.4895
kymmenente	-10.4903
valhett	-10.4919
ruhtina	-10.4935
luke	-10.4973
pellava	-10.4986
soo	-10.4994
esikoise	-10.4999
ylimmäi	-10.5019
jäljell	-10.5027
opeta	-10.5029
joissa	-10.5038
lampaita	-10.5038
mässä	-10.5038
halveksi	-10.5038
palvelijoille	-10.5038
sidkia	-10.5038
poltti	-10.5038
älkööt	-10.5038
abner	-10.5038
saastutta	-10.5039
tuolla	-10.504
suurempi	-10.5042
jeriko	-10.5042
paljasta	-10.5045
noudata	-10.5047
toisia	-10.5052
isältä	-10.5054
kasvoille	-10.5064
kulma	-10.5066
meistä	-10.5071
eela	-10.5073
tapahtuu	-10.5077
läpi	-10.5078
veisaa	-10.5108
käännä	-10.5114
suori	-10.5129
käynyt	-10.516
ilmoita	-10.5183
rangaist	-10.5194
apostoli	-10.5199
mordokai	-10.5199
tappoi	-10.5199
jeehu	-10.5199
kenelle	-10.5204
llisia	-10.5204
voimalli	-10.5209
punais	-10.521
pitäkää	-10.5212
jumalaton	-10.5214
talossa	-10.5216
sopi	-10.523
tappaa	-10.5237
iltaan	-10.5262
vääryyt	-10.5284
kauhistus	-10.5292
vieraa	-10.5292
pilkka	-10.53
yötä	-10.5311
tekemä	-10.5315
tuokaa	-10.5325
tetään	-10.5331
kasvoi	-10.5349
damasko	-10.5363
vaellukse	-10.5363
jäljessä	-10.5363
kaupunkeja	-10.5363
kolmas	-10.5363
abram	-10.5363
luvu	-10.5364
ihmisiä	-10.5366
valkeu	-10.5384
simon	-10.5388
sotajouko	-10.5398
ilmais	-10.5402
kättä	-10.5434
varjo	-10.5467
mullikka	-10.5515
vartija	-10.5529
leivän	-10.553
pyhäkössä	-10.553
sääli	-10.553
kädellä	-10.553
uhrikukkula	-10.5531
kuusisataa	-10.5533
elävi	-10.5535
lausui	-10.5536
tyyro	-10.5536
kerro	-10.554
alkoi	-10.5558
ruhtinaa	-10.5575
virra	-10.5587
kaupungeissa	-10.5599
hengessä	-10.56
saara	-10.5636
tuotta	-10.5641
luotta	-10.5643
saada	-10.5646
pyhittä	-10.5653
teoista	-10.5694
muutami	-10.5695
kaupunkeihin	-10.5699
kuolleista	-10.5699
kyyhky	-10.5699
laaban	-10.5699
nebukadnessar	-10.5699
muisto	-10.5699
äänellä	-10.5699
osoitta	-10.57
suloise	-10.57
ajattele	-10.57
kuninkuu	-10.5701
viedä	-10.5704
valtia	-10.5705
mästä	-10.5707
valmii	-10.5707
valtakuntaa	-10.5708
levo	-10.5709
laupeude	-10.5718
puita	-10.5744
kirot	-10.5759
vaati	-10.5768
miseksi	-10.5823
haudat	-10.5829
kaupungei	-10.583
pari	-10.5854
meno	-10.5872
palvelukse	-10.5872
keskelle	-10.5872
lisäänty	-10.5872
joojada	-10.5872
egyptiläise	-10.5872
nukku	-10.5872
vapaht	-10.5873
ojensi	-10.5873
etaan	-10.5876
teltta	-10.5877
sukukuntaa	-10.5883
veisuu	-10.5891
tuoda	-10.5898
antakoo	-10.5967
vihastui	-10.5995
tahan	-10.6014
maria	-10.6039
hämmästy	-10.6047
kuusikymmentä	-10.6047
baasani	-10.6047
ismael	-10.6047
ohitse	-10.6047
murha	-10.6047
oikeus	-10.6047
mielisty	-10.6048
rakenna	-10.6048
nopea	-10.6048
kirjee	-10.6052
eläimi	-10.6053
kiiru	-10.6056
patsaa	-10.6059
mielessä	-10.6071
alaise	-10.6076
risti	-10.6103
riemuitse	-10.6111
sikemi	-10.6112
vetä	-10.6118
miten	-10.6123
kukka	-10.6131
luola	-10.6136
miseen	-10.6168
profeettain	-10.6173
kaval	-10.6212
lähimmäise	-10.6226
ymmärrä	-10.6226
huomenna	-10.6226
vankeute	-10.6226
varustettu	-10.6226
2	-10.6226
eufrat	-10.6226
kirjoitta	-10.6226
parannu	-10.6226
kahdes	-10.6226
aramin	-10.6226
ester	-10.6227
njohtaja	-10.6228
nähdessä	-10.6228
eefa	-10.6228
pilatu	-10.6229
viisautta	-10.6233
muiden	-10.6243
kyn	-10.6257
kulkee	-10.6258
jäänyt	-10.6302
taivais	-10.6317
synny	-10.6323
syylli	-10.6343
ikee	-10.6345
otettu	-10.6353
iisai	-10.6355
pakeni	-10.6382
iankaikki	-10.6386
opet	-10.6389
kolmanne	-10.6408
väkevyy	-10.6408
armahda	-10.6408
teurasta	-10.6408
saadok	-10.6408
siunasi	-10.6408
joosia	-10.6408
kaula	-10.6408
haaman	-10.6408
töitä	-10.6409
pohjois	-10.6411
sulke	-10.6412
horju	-10.6416
vett	-10.6419
israelilaisia	-10.6433
haava	-10.6439
loppuu	-10.6445
löydä	-10.6447
rikas	-10.6448
lapsille	-10.6461
hanki	-10.6472
väisty	-10.6499
hedelmää	-10.6499
profeeta	-10.6528
murhee	-10.6562
naftali	-10.6593
jalkoje	-10.6593
▁!`	-10.6593
tiedo	-10.6603
lausu	-10.6613
tiellä	-10.6614
saatana	-10.6623
goo	-10.6627
leiriin	-10.6632
valtaistuimella	-10.665
vaipu	-10.6663
joihin	-10.6678
ruua	-10.6681
suru	-10.6685
jerobeami	-10.6687
hevose	-10.6712
sukukunta	-10.6769
avoin	-10.677
teurasuhri	-10.6781
leeviläisten	-10.6781
hyljät	-10.6782
ruumis	-10.6783
lähettää	-10.6786
asetu	-10.6807
härä	-10.6815
tiedätte	-10.6827
temppeliä	-10.6838
päästi	-10.6844
jälk	-10.6938
pasun	-10.6973
fariseukse	-10.6974
rehabeam	-10.6974
aterioi	-10.6974
synnin	-10.6974
pyytä	-10.6974
makasi	-10.6975
alttii	-10.6976
toiseen	-10.6993
aaroni	-10.6993
keski	-10.6998
sammu	-10.7012
itseänsä	-10.7024
varma	-10.7035
vihastu	-10.7043
perintö	-10.705
jerobeam	-10.7071
yksinä	-10.7092
ettakoo	-10.7101
edes	-10.7104
peljätkö	-10.7113
vangit	-10.715
ammo	-10.7153
kuolemaan	-10.7162
suola	-10.7167
gibea	-10.717
pakanat	-10.717
jooram	-10.717
sulje	-10.717
täytä	-10.7171
kameli	-10.7171
huomasi	-10.7171
juomauhri	-10.7172
ihmeitä	-10.7172
kerrottava	-10.7172
kohoa	-10.7172
vahva	-10.7177
heitet	-10.7178
gaadi	-10.7196
pakenivat	-10.72
painoi	-10.7219
ihmistä	-10.7219
kätee	-10.7227
antama	-10.7228
paina	-10.724
menköö	-10.7243
alaisi	-10.7244
kaatui	-10.725
sellaist	-10.7265
vuode	-10.7336
ymmärrykse	-10.737
heikko	-10.737
kompastu	-10.737
myrsky	-10.737
neljäntenä	-10.737
ulottu	-10.737
kosto	-10.7372
lintu	-10.7373
opetti	-10.738
heilut	-10.7384
päältä	-10.7389
koskee	-10.7397
jouse	-10.7404
kirkas	-10.7469
huule	-10.7469
kuivu	-10.7476
saadakse	-10.7496
juokse	-10.7524
myöt	-10.7546
ruuben	-10.7565
heettiläis	-10.7574
etiopia	-10.7574
kruunu	-10.7574
pakanakansa	-10.7574
pöydä	-10.7574
haureutta	-10.7574
lohdutta	-10.7574
ristiinnaulit	-10.7574
valkoisi	-10.7574
raakel	-10.7574
sodoma	-10.7574
leveä	-10.7575
haltuun	-10.758
pilka	-10.7581
saapui	-10.7584
päätty	-10.7595
ovelle	-10.7596
kestää	-10.7602
ojenta	-10.7608
sukujen	-10.7626
viimeise	-10.7676
kimppuu	-10.7679
nuorukai	-10.7695
soda	-10.7696
palvelus	-10.7725
kappale	-10.7731
otetaan	-10.7755
ollessa	-10.7764
vanhurskau	-10.7765
beetlehemi	-10.7782
oikeute	-10.7782
keskeltä	-10.7782
löysi	-10.7782
rypäle	-10.7782
järve	-10.7782
rakkaus	-10.7782
oikeuksi	-10.7782
asarja	-10.7783
ajatukse	-10.7784
kutsutaan	-10.7795
polveutu	-10.7803
ollessaan	-10.7804
ylimmäisen	-10.7808
appe	-10.7841
oinaan	-10.7876
vasemma	-10.792
yynni	-10.7924
antaisi	-10.7953
alati	-10.7975
sapatti	-10.7984
kumartui	-10.7995
4	-10.7995
verho	-10.7995
sapatin	-10.7995
hebrea	-10.7995
paikoille	-10.7995
siirty	-10.7996
paula	-10.7996
sapattina	-10.8007
pysyvä	-10.8021
valitse	-10.8023
säätä	-10.8042
villi	-10.8066
torni	-10.808
kohotta	-10.8111
pidett	-10.8126
varjele	-10.8149
riisu	-10.8189
herättä	-10.8195
pystyttä	-10.8212
gideon	-10.8212
hylkäsi	-10.8212
jisreeli	-10.8212
käskynhaltija	-10.8212
valloitti	-10.8212
viipy	-10.8212
katseli	-10.8212
ylistys	-10.8212
katsele	-10.8213
avukse	-10.8213
palvelijattare	-10.8213
kansoja	-10.8213
polttouhreja	-10.8213
saalista	-10.8213
▁.`"	-10.8213
taulu	-10.8213
pimeä	-10.822
rakasti	-10.8226
hallitus	-10.8228
näkemä	-10.8239
pyydä	-10.824
"	-10.824
salaisuu	-10.8247
halpa	-10.8284
unhotta	-10.8291
nuorukaise	-10.8304
vihamiehe	-10.8351
käsii	-10.8369
taivas	-10.8412
savu	-10.8412
ympärileikka	-10.8414
johta	-10.8433
muka	-10.8433
synagooga	-10.8435
3	-10.8435
lestyj	-10.8435
siunaukse	-10.8435
turhuu	-10.8435
täytty	-10.8435
ojenna	-10.8435
vapise	-10.8436
väkivaltaa	-10.8436
sairaa	-10.8437
hajotta	-10.8438
pedo	-10.8461
ihana	-10.8465
filistealaisi	-10.8475
panna	-10.8479
korjasi	-10.849
siimei	-10.8491
ähden	-10.8496
ahab	-10.8521
kohot	-10.8526
surmattu	-10.8538
viimei	-10.8552
ottaisi	-10.8581
".	-10.8611
juudea	-10.8662
siidoni	-10.8662
hyödy	-10.8662
hyökkää	-10.8662
voideltu	-10.8662
hedelmi	-10.8662
häpy	-10.8662
pöytä	-10.8662
ryöstet	-10.8662
suurta	-10.8662
koriste	-10.8663
vankila	-10.8663
jumalien	-10.8663
ainiaa	-10.8664
henkivartija	-10.8664
rikkomukse	-10.8664
edeltä	-10.8666
pesköö	-10.8667
viereen	-10.8671
baalak	-10.8685
haara	-10.8689
alusta	-10.87
hallit	-10.8702
isäntä	-10.8721
syvyyde	-10.8756
sydäm	-10.8777
leiriyty	-10.8791
idän	-10.8802
absalomi	-10.886
jooabi	-10.8874
keskuudesta	-10.8895
kirjoitti	-10.8895
perhekunn	-10.8895
tyttö	-10.8895
lankea	-10.8895
peljättävä	-10.8895
aikakirja	-10.8895
mispa	-10.8895
naatan	-10.8895
hyljännyt	-10.8895
hädä	-10.8895
pakanoi	-10.8895
jälkeläisille	-10.8896
tarkasta	-10.8898
näänty	-10.8907
pantu	-10.8913
kotka	-10.8931
oksa	-10.8972
isest	-10.9005
kenenkä	-10.9056
korotta	-10.9064
elinaika	-10.9082
asetet	-10.9095
aamo	-10.9112
paljas	-10.9123
yhdeks	-10.9123
viikunapuu	-10.9133
joojakim	-10.9133
vahingo	-10.9133
ympärileikat	-10.9133
tuhannen	-10.9133
täytti	-10.9133
aabel	-10.9133
amasja	-10.9133
muutoin	-10.9133
venhee	-10.9133
aasafi	-10.9133
irti	-10.9134
kehati	-10.9134
hakkaa	-10.9134
luovu	-10.9135
suostu	-10.9135
hilja	-10.9136
benaja	-10.9137
reuna	-10.914
ruubenilais	-10.9143
suitsutus	-10.9144
laula	-10.915
paranta	-10.9204
hakat	-10.9209
valitta	-10.9356
tellut	-10.9368
kunnioitta	-10.9376
puhdistu	-10.9376
säädöksiä	-10.9376
vahvistu	-10.9376
ylhääl	-10.9376
vuodata	-10.9377
sebuloni	-10.9377
osoita	-10.9377
iloitsi	-10.9377
kuorma	-10.9378
taistele	-10.9378
lukumäärä	-10.9379
täysi	-10.9381
tarpee	-10.9383
ylipapit	-10.9383
seitsemäs	-10.9384
levittä	-10.9386
siemene	-10.9405
runsaast	-10.9405
vainio	-10.9421
suurest	-10.9444
kedoll	-10.9518
syvyy	-10.9524
perintömaa	-10.9526
rakas	-10.9543
suurell	-10.9578
gibeoni	-10.9626
haureude	-10.9626
gilgali	-10.9626
profeettoja	-10.9626
viivy	-10.9626
simson	-10.9627
todistus	-10.9627
tunnusteko	-10.9627
kirjuri	-10.9627
lähdi	-10.9627
puutarha	-10.9627
äidin	-10.9627
puolta	-10.9627
valitsi	-10.9627
ahasja	-10.9627
pukeutu	-10.9627
sarvi	-10.9627
jokapäiväi	-10.9628
ihmeelli	-10.9628
merari	-10.9629
kallii	-10.9629
vastustaja	-10.963
kahdenkymmenen	-10.963
ymmärrystä	-10.963
pyhitetty	-10.9631
käsivarte	-10.9641
vangi	-10.9657
murhe	-10.966
päämiesten	-10.966
vääryyde	-10.9727
rutto	-10.9786
eloon	-10.98
alue	-10.9807
panti	-10.9868
tuokoo	-10.9882
johdo	-10.9883
profeetoi	-10.9883
hyvyy	-10.9883
jebusilais	-10.9883
nuhteettom	-10.9883
orjattare	-10.9883
ylpey	-10.9883
yhdy	-10.9883
jälkeläisistä	-10.9883
edelleen	-10.9883
julki	-10.9883
talentti	-10.9883
jumalattomuu	-10.9883
säästä	-10.9883
liitty	-10.9883
kahta	-10.9884
simeoni	-10.9885
vihollisia	-10.9885
jesaja	-10.9887
kirjanoppineet	-10.9887
sortu	-10.9887
sorme	-10.9888
hunaja	-10.989
pasunaa	-10.9891
kohtalo	-10.9898
sivuvaimo	-10.9909
öljypuu	-10.9918
uhka	-10.9928
mainit	-10.9937
melek	-10.9965
entise	-10.9965
muoto	-11.009
mooab	-11.0092
uudella	-11.0125
usein	-11.0134
verkko	-11.0146
vaatteita	-11.0146
katkera	-11.0146
syrjä	-11.0146
puhutteli	-11.0146
kahdentena	-11.0146
pelasti	-11.0146
puettu	-11.0146
nuoruude	-11.0146
viittä	-11.0146
leski	-11.0147
rukous	-11.0147
sorta	-11.0148
kaikkinaisi	-11.0148
kuninkaita	-11.0149
parhaa	-11.0149
kahdeksankymmen	-11.0149
vallassa	-11.015
vaippa	-11.0152
ikuise	-11.0156
hetki	-11.0157
jälkeläi	-11.0192
siinai	-11.0194
kuninka	-11.0224
mennee	-11.0244
avuksi	-11.03
valkeude	-11.0394
kymmenennes	-11.0399
hyljänn	-11.0416
tottele	-11.0416
perustukse	-11.0416
poikkea	-11.0416
teurastet	-11.0416
vaatteisiin	-11.0416
sekoitettu	-11.0416
aramilaise	-11.0416
polku	-11.0416
keihäs	-11.0416
riivaaja	-11.0416
kaaleb	-11.0416
palmu	-11.0416
nouta	-11.0417
syntivelka	-11.0417
pyhäkön	-11.0417
heräjä	-11.0417
asuinsija	-11.0417
kumarsi	-11.0417
särje	-11.0418
pahuude	-11.0418
tasango	-11.0418
hoviherra	-11.0419
asseri	-11.042
kiittäkää	-11.0422
köyhi	-11.0424
kuluttaa	-11.0429
asera	-11.0433
kaunii	-11.0438
murta	-11.0439
laitume	-11.0464
sellaise	-11.0478
kappalee	-11.0483
seiri	-11.0484
käsivarre	-11.0492
armolli	-11.0496
tauti	-11.0613
pyyd	-11.0663
mullika	-11.0692
kyynel	-11.0694
uppiniskai	-11.0694
viinitarho	-11.0694
vapaaehtoi	-11.0694
molempi	-11.0694
viidentenä	-11.0694
vanhempi	-11.0694
eläinten	-11.0694
kiivaute	-11.0695
kerskaa	-11.0695
tervehti	-11.0696
väkeä	-11.0697
epäjumala	-11.0698
ateria	-11.0698
siipi	-11.0699
perusta	-11.07
hamati	-11.0703
murheellise	-11.0704
jooaa	-11.0704
tavoittel	-11.0708
asioi	-11.0724
ovell	-11.0747
synk	-11.0789
ympärileikkaamat	-11.0811
varjel	-11.082
taivaall	-11.0949
saba	-11.0961
puhdistet	-11.098
ympäröi	-11.098
vanhinten	-11.098
tyhji	-11.098
pappeja	-11.098
koorahi	-11.098
epäjumali	-11.098
kädet	-11.0981
kiroukse	-11.0981
pohja	-11.0982
tarkkaa	-11.0982
viitta	-11.0983
kohde	-11.0984
pyhäkköön	-11.0984
arvio	-11.0984
rangaistako	-11.099
aartee	-11.0991
persia	-11.1007
rällä	-11.1045
suuruu	-11.1104
taviks	-11.1252
beerseba	-11.1274
puimatantere	-11.1274
hilkia	-11.1274
jalopeura	-11.1274
kuningatar	-11.1274
pyörä	-11.1274
saavutta	-11.1274
säädetty	-11.1274
rohkea	-11.1274
julisti	-11.1274
ylhäi	-11.1274
varasto	-11.1274
kahdeksantena	-11.1274
perkele	-11.1275
sang	-11.1275
puhalta	-11.1276
puvu	-11.1276
kudo	-11.1278
kohdalle	-11.1281
renkaa	-11.1295
mukaise	-11.1298
huono	-11.1314
paisu	-11.1318
löyd	-11.1511
eläime	-11.1513
niska	-11.1527
vanhimmi	-11.1577
orjantappura	-11.1577
portto	-11.1577
pyrki	-11.1577
säädös	-11.1577
ihmetteli	-11.1577
joohanan	-11.1577
julistet	-11.1577
kirjoitus	-11.1577
kymmenykse	-11.1577
0	-11.1577
leveys	-11.1577
vuodatti	-11.1577
liikku	-11.1577
pimeys	-11.1577
loukka	-11.1577
egyptiläist	-11.1577
katsell	-11.1578
syötävä	-11.1578
vuonna	-11.1578
kotona	-11.1579
toteutu	-11.1579
siive	-11.158
riensi	-11.1581
vastust	-11.1582
kanaanilaise	-11.1586
asukast	-11.1619
kuritus	-11.1628
toimittakoo	-11.1644
sisar	-11.1681
mert	-11.1691
tahol	-11.1784
gedalja	-11.1889
korkeimma	-11.1889
voidellu	-11.1889
lähimmäistä	-11.1889
murehti	-11.1889
säädökse	-11.1889
nebukadressar	-11.1889
nälänhätä	-11.1889
oobed	-11.1889
purppura	-11.1889
pystytti	-11.1889
ehtoo	-11.1889
tähdet	-11.1889
5	-11.1889
häpäise	-11.1889
semmoi	-11.189
valittu	-11.189
kuohu	-11.189
pituus	-11.189
jooas	-11.189
porto	-11.189
kielsi	-11.189
esirip	-11.189
puhalsi	-11.1891
länteen	-11.1891
punnit	-11.1892
ikuisi	-11.1893
rikkaa	-11.1897
hävitetä	-11.1903
vavist	-11.1909
uorta	-11.2082
fariseus	-11.2212
hesboni	-11.2212
punasinisi	-11.2212
pysähty	-11.2212
(	-11.2212
)	-11.2212
jylinä	-11.2212
neitsye	-11.2212
sukukuntien	-11.2212
herodes	-11.2212
vikauhri	-11.2212
läsnä	-11.2212
ovenvartija	-11.2213
toimeen	-11.2214
kaikkivaltias	-11.2215
kohosi	-11.2217
kakku	-11.2218
vasika	-11.2233
vääryy	-11.2239
selittä	-11.2241
muinais	-11.2258
kadot	-11.2261
kuolemall	-11.2281
nahka	-11.2293
eteise	-11.2317
täyde	-11.2349
tuski	-11.2386
lango	-11.2427
iitetty	-11.2484
gaadilais	-11.2505
verra	-11.2513
jäännökse	-11.2545
lohdutukse	-11.2545
pikkukarja	-11.2545
ahdistus	-11.2545
geerson	-11.2545
hyötyä	-11.2545
kärsivällisyy	-11.2545
nuhteli	-11.2545
yhtenä	-11.2545
keisari	-11.2545
riivaaji	-11.2545
vallitse	-11.2545
repäisi	-11.2545
valloitta	-11.2545
rakkautta	-11.2545
kiertä	-11.2546
jefta	-11.2546
riippu	-11.2546
kansakunna	-11.2546
maakunna	-11.2546
sebu	-11.2547
menehty	-11.2547
turhi	-11.2547
vasto	-11.2547
maanpiirin	-11.2552
rebek	-11.2557
tunno	-11.2589
ääree	-11.262
mieka	-11.2743
kullall	-11.2759
nouda	-11.276
pitui	-11.2776
aahas	-11.2852
kaikkeinpyhim	-11.289
tunkeutu	-11.289
puolusta	-11.289
joutunut	-11.289
hiekka	-11.289
kahleis	-11.289
ikkuna	-11.289
laittoi	-11.289
ruoko	-11.289
paljaa	-11.2891
kiellä	-11.2891
tehdy	-11.2892
katsee	-11.2894
nimittäi	-11.2894
siihoni	-11.2902
asunno	-11.2904
kuninkaallise	-11.2912
kummall	-11.2917
iloite	-11.2917
sisäpuolell	-11.292
tytärkaupung	-11.2929
kaukaise	-11.3006
sooba	-11.3009
pellavalang	-11.3014
kohdann	-11.3024
,	-11.3063
oikeude	-11.3124
elossa	-11.3237
poltto	-11.3246
kaksikymmenvuoti	-11.3247
purppuranpunaisi	-11.3247
seitsenhaarai	-11.3247
aasintamma	-11.3247
hyökkäsi	-11.3247
joutuneet	-11.3247
rakkaute	-11.3247
tervehdys	-11.3247
teurasti	-11.3247
ylpeä	-11.3247
äidille	-11.3247
jeesua	-11.3247
8	-11.3247
poikine	-11.3247
hampaa	-11.3247
baesa	-11.3247
juhli	-11.3247
kauneu	-11.3247
tempaa	-11.3247
pojista	-11.3248
sallum	-11.3248
mietti	-11.3248
paransi	-11.3249
tutkistel	-11.3251
käytävä	-11.3254
antautu	-11.3255
puhtai	-11.3273
hillit	-11.3508
jyvä	-11.3617
aarrekammio	-11.3618
aivoitukse	-11.3618
kreikkalai	-11.3618
kuivettu	-11.3618
perinnöks	-11.3618
vankeude	-11.3618
ikävöi	-11.3618
kahtakymmentä	-11.3618
leiviskä	-11.3618
makedonia	-11.3618
nuhteeton	-11.3618
näöltä	-11.3618
palvelkaa	-11.3618
päätökse	-11.3618
rakkaudessa	-11.3618
ymmärsi	-11.3618
edustalle	-11.3618
muodo	-11.3618
opetuslasten	-11.3618
keihää	-11.3618
synneistä	-11.3618
virheetön	-11.3618
lippu	-11.3618
kasukan	-11.3618
iloitkaa	-11.3618
selässä	-11.362
laupia	-11.3621
torvi	-11.363
äältä	-11.363
leili	-11.3632
palvelijoiks	-11.3643
asuvais	-11.3661
vaadi	-11.3733
tehköö	-11.3774
ättömi	-11.3998
kirjoitukse	-11.4002
akasiapuu	-11.4002
benhadad	-11.4002
kapinoi	-11.4002
langet	-11.4002
sukuluettelo	-11.4002
yhdestä	-11.4002
baaruk	-11.4002
neitsyt	-11.4002
rohkais	-11.4002
tyttärie	-11.4002
askelee	-11.4002
poltetta	-11.4002
siirtä	-11.4002
kykene	-11.4002
ikiajoi	-11.4003
viides	-11.4003
nuhde	-11.4003
askare	-11.4003
virittä	-11.4006
jootam	-11.4006
rabba	-11.4007
poimi	-11.4019
ostet	-11.4025
ylistett	-11.4028
valittajais	-11.4047
hengelli	-11.4087
tällais	-11.415
valall	-11.4194
avulla	-11.4214
paist	-11.4214
amaleki	-11.4234
varrella	-11.429
oogi	-11.4333
kirjanoppine	-11.4396
kirjakäärö	-11.4402
pyhyy	-11.4402
daarejave	-11.4402
hivviläis	-11.4402
järkky	-11.4402
ratsasta	-11.4402
taisteli	-11.4402
9	-11.4402
leivo	-11.4402
mesullam	-11.4402
puhkesi	-11.4402
pauhina	-11.4402
yhdist	-11.4402
härki	-11.4402
kalusto	-11.4403
korkein	-11.4403
kiitokse	-11.4403
sytyttä	-11.4403
viisait	-11.4404
karkelo	-11.4404
rimmon	-11.4404
parantu	-11.4405
koettele	-11.441
linnoitt	-11.441
varustukse	-11.4429
kaikkinaist	-11.4461
havaitt	-11.4504
häpeälli	-11.4586
äressä	-11.4592
linno	-11.4631
kuunnel	-11.4681
petolli	-11.4704
orjantappuroi	-11.4819
hurmoksi	-11.4819
profetoi	-11.4819
sisälmy	-11.4819
iisebel	-11.4819
kunnioita	-11.4819
kuukautena	-11.4819
piineha	-11.4819
pystyssä	-11.4819
raukea	-11.4819
runsaude	-11.4819
ryöstö	-11.4819
synnistä	-11.4819
todisti	-11.4819
vakoilema	-11.4819
serubbaabel	-11.4819
turmele	-11.4819
heittäyty	-11.4819
sovitus	-11.4819
synnit	-11.4819
timoteu	-11.4819
terveeksi	-11.4819
raamoti	-11.482
siunaus	-11.482
lyödä	-11.4821
oorebi	-11.4822
kaurii	-11.4822
seitsemää	-11.4824
pudist	-11.4826
nuhtele	-11.4828
turvallise	-11.483
hävinn	-11.4836
kantelei	-11.4842
kuudes	-11.4893
surmannu	-11.4902
juutalai	-11.4967
uotiin	-11.5001
leikkaamattomi	-11.5117
;	-11.516
reväis	-11.5176
omaisuuten	-11.5254
ylösnousemukse	-11.5254
gomorra	-11.5254
katselmus	-11.5254
happamattoman	-11.5254
jäännös	-11.5254
korennot	-11.5254
perissiläis	-11.5254
päässeet	-11.5254
6	-11.5708
7	-11.6685
.	-13.3276
!	-13.3308
`	-14.1519
z	-15.2161
/	-15.2162
]	-15.2162
