<pad>	0
</s>	0
<unk>	0
,	-2.62786
▁ja	-3.39731
.	-3.57806
n	-3.94964
a	-4.2879
▁on	-4.5098
:	-4.60783
t	-4.69182
▁Ja	-4.73033
▁hän	-4.78817
;	-4.87785
▁	-5.01033
▁"	-5.07461
▁minä	-5.10486
i	-5.11633
▁niin	-5.14998
si	-5.16113
▁oli	-5.17893
▁hänen	-5.2049
▁he	-5.28292
in	-5.28298
▁Herra	-5.3277
▁joka	-5.4455
▁ei	-5.45798
en	-5.46529
ä	-5.49099
vat	-5.5198
▁että	-5.57238
▁sen	-5.57546
▁se	-5.59702
▁minun	-5.59996
▁sinun	-5.61251
nsa	-5.69043
▁sanoi	-5.694
▁Mutta	-5.76269
e	-5.79976
ni	-5.80019
sta	-5.80526
s	-5.81431
u	-5.83685
an	-5.84353
▁jotka	-5.85903
lle	-5.863
▁sinä	-5.89591
▁kaikki	-5.92089
ksi	-5.9256
ta	-5.92614
▁sillä	-5.9321
▁kun	-5.94329
▁heidän	-5.96712
".	-5.98054
kä	-5.98741
mme	-6.02012
▁Herran	-6.03594
▁ole	-6.05794
kuin	-6.06161
▁ovat	-6.06213
▁te	-6.06867
▁Niin	-6.09787
r	-6.11242
o	-6.14422
ko	-6.14527
▁mutta	-6.16797
▁ne	-6.17243
lla	-6.23987
ja	-6.24218
."	-6.25696
l	-6.25947
kin	-6.26196
ssa	-6.2722
▁olen	-6.29818
et	-6.29899
?	-6.29953
nne	-6.30661
▁hänelle	-6.31437
▁kuin	-6.32548
h	-6.34692
▁Sillä	-6.36858
sa	-6.40365
▁olivat	-6.40874
▁tuli	-6.41609
nsä	-6.41865
tte	-6.42865
y	-6.43773
▁teidän	-6.44158
vät	-6.44677
▁vastaan	-6.45577
▁hänet	-6.45957
▁Jumala	-6.48989
ille	-6.50419
▁mitä	-6.51082
ka	-6.52459
▁häntä	-6.53219
tu	-6.53913
▁Israelin	-6.55784
tä	-6.56585
▁jonk	-6.58606
▁sitä	-6.5924
▁heille	-6.59438
v	-6.60132
-	-6.60223
va	-6.62881
▁me	-6.63091
▁Hän	-6.63266
▁Jumalan	-6.63473
maan	-6.64416
neet	-6.66859
▁`	-6.67604
▁poika	-6.67738
na	-6.69228
▁sanoo	-6.69553
▁pois	-6.71143
▁kuningas	-6.7271
nut	-6.72712
is	-6.73023
ista	-6.74077
kaa	-6.74135
än	-6.76077
▁tämä	-6.76436
▁olet	-6.77191
stä	-6.77841
▁maan	-6.78729
▁jos	-6.79291
▁jo	-6.79492
▁minulle	-6.7964
▁heidät	-6.80726
▁meidän	-6.81235
▁minua	-6.81523
▁koko	-6.84098
▁päivänä	-6.85309
k	-6.85604
▁vaan	-6.86816
p	-6.89219
▁tai	-6.93675
el	-6.9462
▁-	-6.95602
▁kuninkaan	-6.95701
▁Minä	-6.96817
▁teille	-6.97924
▁Kun	-6.98059
!	-6.98242
?"	-6.98328
▁sinua	-6.9873
ty	-6.9901
m	-6.99417
te	-7.00812
on	-7.01065
▁heitä	-7.01175
pa	-7.01565
▁eivät	-7.03749
▁en	-7.03777
▁sinulle	-7.04226
▁Silloin	-7.05112
ten	-7.05678
isi	-7.06075
▁katso	-7.06917
kö	-7.07308
ti	-7.08819
▁minut	-7.08851
lta	-7.09101
to	-7.09555
re	-7.10854
▁tulee	-7.12003
▁siitä	-7.14962
▁tämän	-7.15112
b	-7.15282
▁saa	-7.1692
▁näin	-7.17131
▁edessä	-7.17194
ke	-7.18115
us	-7.18396
▁mukaan	-7.18954
▁kansa	-7.20276
▁myös	-7.20346
▁nyt	-7.20503
ia	-7.21238
▁vastasi	-7.21807
▁vielä	-7.23862
la	-7.24114
▁asti	-7.24354
aan	-7.24544
ku	-7.25458
▁maahan	-7.25587
koon	-7.25606
▁voi	-7.26552
▁kaiken	-7.27765
▁mikä	-7.27791
li	-7.28267
ki	-7.28399
▁meni	-7.28767
vi	-7.29119
ssä	-7.2914
llä	-7.2937
ma	-7.29653
▁tähden	-7.30351
at	-7.30721
▁He	-7.31705
illa	-7.32289
▁Juudan	-7.32362
▁kanssa	-7.32524
▁sekä	-7.34498
▁sanoen	-7.35309
sti	-7.35767
ne	-7.35828
▁siihen	-7.37072
▁luo	-7.3737
▁sinut	-7.39076
▁kautta	-7.3938
it	-7.39916
▁tehnyt	-7.40622
▁niiden	-7.40805
ö	-7.41074
tti	-7.4177
▁Jeesus	-7.41905
mi	-7.4256
nyt	-7.42839
j	-7.42915
tta	-7.42932
▁mies	-7.43086
▁otti	-7.43163
▁sanoivat	-7.43286
▁maa	-7.43536
▁olkoon	-7.45269
g	-7.45417
▁ollut	-7.45815
se	-7.46208
▁sitten	-7.46208
▁Daavid	-7.46222
▁itse	-7.46387
ita	-7.47035
▁siellä	-7.47358
▁olette	-7.4899
▁Se	-7.49278
▁enää	-7.49734
▁teitä	-7.50495
▁A	-7.50555
inen	-7.50659
ansa	-7.51375
de	-7.51591
ri	-7.51758
▁teki	-7.52088
▁kaksi	-7.52098
uu	-7.53128
▁antoi	-7.53324
▁käy	-7.53736
▁Sitten	-7.53951
▁vie	-7.54446
▁Jos	-7.54653
▁koska	-7.55071
iin	-7.55342
▁niitä	-7.55393
▁oleva	-7.55517
kää	-7.55738
jen	-7.55984
▁nämä	-7.56058
▁vaimo	-7.56515
▁Katso	-7.57052
▁siis	-7.59316
iden	-7.59583
▁ka	-7.60379
▁et	-7.60399
ttu	-7.60445
▁ettei	-7.60923
pu	-7.61314
▁Herraa	-7.6181
▁mitään	-7.61811
▁nä	-7.62043
▁tuo	-7.62193
▁pojan	-7.62329
▁Herralle	-7.62558
vä	-7.62656
▁antaa	-7.63207
▁olisi	-7.63344
▁maassa	-7.63396
▁siinä	-7.63692
▁tullut	-7.64369
d	-7.64468
issa	-7.65007
▁a	-7.65197
▁Daavidin	-7.66152
▁kansan	-7.6636
▁ta	-7.66569
▁sano	-7.66934
kseen	-7.67668
▁ha	-7.67898
▁antanut	-7.69074
▁pi	-7.6935
aa	-7.69865
iksi	-7.70848
ivat	-7.70989
▁annan	-7.71329
▁pappi	-7.71914
im	-7.72076
▁eteen	-7.72229
▁lu	-7.72341
ar	-7.72405
▁Mooses	-7.72446
jä	-7.72476
▁ette	-7.72499
▁älä	-7.72728
▁Sentähden	-7.73004
▁kolme	-7.74113
▁Näi	-7.74294
▁la	-7.74317
Minä	-7.74334
▁puhui	-7.74537
ihin	-7.74831
▁lähti	-7.74835
▁tulivat	-7.74996
▁Sinä	-7.7604
ha	-7.76182
▁P	-7.76191
▁sana	-7.76655
▁aina	-7.77353
▁ennen	-7.77415
elle	-7.78066
▁suuri	-7.78345
`.	-7.78374
me	-7.78861
▁jota	-7.78922
▁va	-7.79211
▁olemme	-7.7974
er	-7.8049
▁syö	-7.80749
▁pa	-7.8124
▁usko	-7.81478
ot	-7.81733
nä	-7.81819
▁seitsemän	-7.82326
▁silloin	-7.82405
as	-7.82713
un	-7.8387
le	-7.84154
▁tykö	-7.84391
▁ra	-7.84523
▁kuinka	-7.85901
pi	-7.86663
▁pu	-7.87342
▁Egyptin	-7.87407
mä	-7.87693
▁miehet	-7.8843
▁sinne	-7.88496
▁paljon	-7.88996
ttä	-7.89416
▁ku	-7.89726
f	-7.89975
istä	-7.90165
esi	-7.90171
▁Ei	-7.90288
▁päälle	-7.90659
▁ko	-7.90763
▁kaikkien	-7.91418
or	-7.9234
▁yli	-7.92662
▁Jumalaa	-7.9281
▁pojat	-7.94329
▁toisen	-7.9435
▁p	-7.94996
il	-7.95166
▁älkää	-7.9526
▁miestä	-7.95284
▁päällä	-7.95961
▁ma	-7.96005
▁meille	-7.9646
▁takaisin	-7.9715
▁maasta	-7.97169
▁toinen	-7.97176
▁vei	-7.97851
▁näki	-7.97997
▁oma	-7.98019
▁kukaan	-7.98067
▁Israel	-7.99152
nen	-7.9919
▁lähetti	-7.9925
▁K	-7.9955
mään	-7.99661
▁alas	-8.00034
▁tekee	-8.00055
da	-8.00553
▁tulevat	-8.00612
▁minkä	-8.01052
taa	-8.01102
hd	-8.0137
kaan	-8.02247
al	-8.02622
▁nousi	-8.03078
▁teidät	-8.03381
▁neljä	-8.03433
▁ulos	-8.04061
ro	-8.04184
▁juo	-8.04593
▁eivätkä	-8.04755
▁käsi	-8.04862
toista	-8.05031
▁hä	-8.0518
jo	-8.05494
▁tule	-8.05652
oja	-8.06114
▁Jeesuksen	-8.06126
▁L	-8.06265
▁tee	-8.06505
▁yksi	-8.06544
!"	-8.06849
▁ke	-8.0709
do	-8.07178
taan	-8.07608
▁teen	-8.07889
▁päivä	-8.08072
▁kanssaan	-8.08566
▁meitä	-8.09074
lu	-8.0917
Katso	-8.09356
koot	-8.09439
▁ki	-8.096
▁isänsä	-8.09794
▁jälkeen	-8.09872
kse	-8.10406
▁ota	-8.10704
▁pää	-8.10772
▁si	-8.1101
▁Jumalasi	-8.11108
van	-8.11206
▁vi	-8.11427
▁ilo	-8.11461
▁puhunut	-8.11963
▁elä	-8.11969
▁joku	-8.1212
▁Me	-8.12326
▁sa	-8.12529
▁sanon	-8.1263
▁nimi	-8.12751
asta	-8.13303
▁joita	-8.1442
Herra	-8.15317
▁temppelin	-8.16008
han	-8.16027
▁S	-8.16087
ksensa	-8.16163
▁Tämä	-8.17059
mu	-8.1712
▁älköön	-8.17146
▁palvelija	-8.17329
eli	-8.17827
▁kuule	-8.17881
▁vaikka	-8.17952
▁sentähden	-8.17954
▁tietä	-8.17958
ul	-8.18262
▁miehen	-8.18386
he	-8.18574
▁le	-8.18867
▁kaupungin	-8.19107
itä	-8.19414
▁syntyi	-8.1943
ut	-8.1951
nes	-8.19698
uh	-8.19705
▁hyvä	-8.19803
kseni	-8.20028
▁voima	-8.20412
tava	-8.20435
▁maata	-8.20675
▁Moosekselle	-8.20714
▁israelilaiset	-8.20721
▁H	-8.20929
kka	-8.21141
▁päin	-8.21284
▁pahaa	-8.2137
▁tehdä	-8.21387
▁lain	-8.22143
▁Sebaot	-8.22218
▁vuotta	-8.22362
▁Ka	-8.2247
essa	-8.2254
▁Saul	-8.22887
iä	-8.22903
▁taivaan	-8.2315
▁kuuli	-8.23292
▁Älä	-8.23481
pä	-8.24311
▁vain	-8.24517
▁o	-8.24561
▁l	-8.24696
ik	-8.24925
▁Kristuksen	-8.25231
▁suku	-8.25411
sä	-8.25532
▁tuhatta	-8.25562
▁ve	-8.25847
▁jossa	-8.25943
▁vai	-8.25943
▁muu	-8.26007
▁Si	-8.26035
▁tähän	-8.26078
isen	-8.26366
▁kuka	-8.26407
▁kuninkaaksi	-8.26509
▁s	-8.27032
▁päästä	-8.2725
▁sille	-8.27485
▁tänä	-8.27665
▁tätä	-8.27796
ksen	-8.28105
▁E	-8.28475
▁enkeli	-8.2849
▁poikansa	-8.28627
▁puhu	-8.28752
▁kaikkia	-8.28899
▁verta	-8.28967
tele	-8.29092
▁menivät	-8.29097
▁O	-8.29112
uksen	-8.29262
ella	-8.29403
▁niistä	-8.29536
usta	-8.2999
▁iankaikkisesti	-8.30007
▁Juuda	-8.30073
▁kansalle	-8.30116
▁vanha	-8.30288
▁kiinni	-8.30443
▁Te	-8.30584
▁anna	-8.30605
▁lähtivät	-8.30694
ud	-8.30846
▁kuninkaalle	-8.30868
▁jää	-8.31219
▁jolla	-8.31309
ttava	-8.3153
ettu	-8.31799
▁suu	-8.31914
▁Jerusalemin	-8.31952
▁Ha	-8.31953
▁keskellä	-8.32039
ol	-8.3225
teen	-8.32357
▁tehneet	-8.3266
▁ky	-8.32764
▁pyhä	-8.32956
▁käski	-8.33113
neen	-8.33116
▁sanan	-8.33324
ilta	-8.33328
▁päivää	-8.33539
▁kansaa	-8.33659
▁tu	-8.33746
ensa	-8.3388
▁viisi	-8.34599
▁var	-8.34745
ltä	-8.34765
▁saakka	-8.35042
▁Sen	-8.35134
▁kätensä	-8.35418
▁muuta	-8.35418
kään	-8.35652
▁mene	-8.35791
▁varten	-8.35981
kun	-8.3682
▁kutsu	-8.36916
▁osa	-8.37086
▁sanonut	-8.37107
K	-8.37539
jan	-8.37739
▁missä	-8.37804
▁puolesta	-8.37956
▁profeetta	-8.3846
ttaa	-8.38795
▁asu	-8.39036
▁Nämä	-8.39298
ää	-8.39652
massa	-8.39959
▁e	-8.40354
itten	-8.40749
▁mu	-8.40808
Mitä	-8.41086
▁pitää	-8.41176
llis	-8.41327
▁hänellä	-8.41354
▁meidät	-8.41669
▁kaikille	-8.41692
kan	-8.41837
▁Mi	-8.42055
sen	-8.42087
▁syntiä	-8.42285
▁etsi	-8.4253
sivat	-8.42535
▁jokainen	-8.428
▁isä	-8.43027
▁pane	-8.43151
sten	-8.43466
▁kivi	-8.43507
▁ylös	-8.43674
itse	-8.43812
am	-8.43821
hu	-8.44012
▁heistä	-8.44045
ynnä	-8.44274
▁kaikesta	-8.4434
▁synti	-8.44473
▁kor	-8.44599
▁emme	-8.44743
▁asia	-8.44862
▁kymmenen	-8.45101
▁samoin	-8.45205
köön	-8.45222
issä	-8.45327
▁liha	-8.45592
▁Jerusalemiin	-8.45745
▁hyvää	-8.45972
▁armo	-8.46123
▁jälkeläisiä	-8.46239
ina	-8.46279
iset	-8.46774
▁Isä	-8.47054
ur	-8.47061
▁kukin	-8.47106
oo	-8.47176
▁sielu	-8.47309
▁N	-8.47356
▁taas	-8.4739
▁paha	-8.47506
▁Joosua	-8.47519
▁pelkää	-8.47645
▁vuoden	-8.47784
▁kunnia	-8.4787
▁hi	-8.47927
min	-8.47935
ys	-8.48051
illä	-8.48284
▁vasta	-8.48373
▁Ke	-8.48804
tettu	-8.49805
jat	-8.50382
▁israelilaisten	-8.50483
▁häneen	-8.50582
tiin	-8.50885
man	-8.51198
▁ase	-8.51248
hän	-8.51259
▁tunne	-8.51275
▁sanat	-8.51334
ksesi	-8.51348
▁Salomo	-8.51549
▁kuoli	-8.51638
▁hänestä	-8.5174
▁ruumii	-8.51778
▁al	-8.51889
▁nähdä	-8.52123
yy	-8.52243
▁jumala	-8.52317
▁häneltä	-8.52385
masta	-8.52772
▁vanh	-8.52941
▁toi	-8.53213
▁sieltä	-8.53241
▁Jerusalemissa	-8.53254
▁käskenyt	-8.53262
▁toivo	-8.53303
▁Älkää	-8.53481
em	-8.53652
rr	-8.53722
▁elää	-8.53854
▁Baabelin	-8.53955
▁Joka	-8.54207
▁Jaakob	-8.54242
▁käsiin	-8.54262
▁Jaakobin	-8.54308
▁kärsi	-8.54351
isin	-8.54488
asi	-8.54536
▁pani	-8.54657
▁tulla	-8.54719
▁na	-8.54732
änsä	-8.54891
▁julista	-8.5499
▁sata	-8.55047
▁kutsui	-8.55175
▁hyvin	-8.55416
ivät	-8.55452
▁olleet	-8.55485
▁kauan	-8.55487
▁ottaa	-8.55519
▁väli	-8.56425
ttää	-8.56447
▁tuomio	-8.56635
▁kyynärää	-8.56655
▁leipää	-8.56889
▁suuren	-8.56918
▁Paavali	-8.57208
▁silmissä	-8.57209
▁tässä	-8.57212
voi	-8.5727
▁turva	-8.57273
yt	-8.5737
▁olla	-8.57534
▁ainoastaan	-8.57804
mm	-8.58031
`,	-8.58232
takaa	-8.5832
▁lyö	-8.58358
▁kaksikymmentä	-8.5839
▁tekivät	-8.58839
▁teistä	-8.58848
▁päivän	-8.58897
▁Kaikki	-8.59005
▁T	-8.59131
matta	-8.59253
po	-8.59279
▁tulen	-8.59526
▁vanno	-8.59651
▁puolella	-8.59735
▁kulta	-8.59747
▁kal	-8.59831
tui	-8.59859
▁heimo	-8.60011
▁tie	-8.60059
▁viha	-8.60106
",	-8.60158
▁Jumalalle	-8.60205
▁kii	-8.60275
▁puu	-8.6036
▁tuleva	-8.60383
▁pysy	-8.60438
▁aja	-8.60693
▁kaikista	-8.6077
▁pelastu	-8.6102
▁kohtaan	-8.61045
▁aikaan	-8.6129
▁laske	-8.61394
▁vettä	-8.61406
▁tulleet	-8.61414
▁veljensä	-8.61465
▁tytär	-8.61585
▁maja	-8.61734
▁kansani	-8.61783
▁Poika	-8.61957
essä	-8.61971
hti	-8.62137
▁luona	-8.62194
▁työ	-8.62449
▁käskyn	-8.62483
▁aika	-8.62491
▁neuvo	-8.62673
▁teillä	-8.62852
▁val	-8.62879
▁käsky	-8.63116
nnut	-8.63136
▁anteeksi	-8.6318
set	-8.63194
ellä	-8.63197
▁tulisi	-8.63494
▁Pietari	-8.63798
▁ihminen	-8.63798
▁kohti	-8.63837
▁kanssansa	-8.6384
▁tietää	-8.63887
▁henki	-8.63931
▁kaupunkiin	-8.64037
ään	-8.64264
▁josta	-8.64403
▁niille	-8.64437
▁uhri	-8.64679
ll	-8.65003
▁sai	-8.65467
ile	-8.65606
▁yhden	-8.65673
tse	-8.65701
▁syödä	-8.65706
▁meren	-8.65738
utta	-8.65871
▁kysy	-8.66065
▁asetti	-8.6624
▁minusta	-8.66306
▁tänne	-8.66316
▁Mitä	-8.66357
▁Jumalamme	-8.6654
mpi	-8.66681
os	-8.66915
▁pala	-8.66951
Jos	-8.66993
staan	-8.67188
uksi	-8.67346
▁istu	-8.67429
▁pyhi	-8.67465
▁oikea	-8.67954
rin	-8.67984
▁saanut	-8.6814
▁pelasta	-8.68191
▁kaupunki	-8.68255
ske	-8.68647
llinen	-8.68697
lleen	-8.688
P	-8.68847
estä	-8.68906
▁vir	-8.68907
▁rii	-8.69033
▁hu	-8.69365
▁kar	-8.69452
tin	-8.69794
▁sy	-8.69945
etaan	-8.7002
▁kansat	-8.70176
▁yhdessä	-8.7019
▁Pyhä	-8.70191
▁pysyy	-8.70366
▁kanssasi	-8.70504
▁hopea	-8.70553
▁astu	-8.70584
▁luota	-8.70692
▁saavat	-8.7075
▁kansojen	-8.70852
S	-8.71174
▁kaikkea	-8.71521
seen	-8.71533
▁Sinun	-8.71585
▁alla	-8.71678
▁Je	-8.7168
mista	-8.71822
▁omi	-8.72091
essaan	-8.7213
▁kallio	-8.72191
▁ihmisten	-8.72265
▁Ne	-8.7268
▁täynnä	-8.72867
▁Aaron	-8.72872
▁Pa	-8.7289
▁kuningasta	-8.72915
▁so	-8.72942
▁pidä	-8.7308
▁kuitenkin	-8.7314
itte	-8.7332
yn	-8.73408
▁V	-8.73443
▁johon	-8.73547
▁kaupunkia	-8.73629
elin	-8.73644
▁kaksitoista	-8.73654
▁edestä	-8.73673
oit	-8.74144
▁muut	-8.74165
▁papit	-8.74232
▁talo	-8.7447
▁huusi	-8.7452
▁alttarin	-8.7466
▁miekka	-8.74723
▁joukko	-8.74741
▁rakasta	-8.74745
esta	-8.74862
▁Kristus	-8.7492
▁polt	-8.75146
eksi	-8.75263
uutta	-8.75415
Me	-8.7559
▁lähettänyt	-8.75648
▁Jordanin	-8.75802
▁vesi	-8.75895
▁aikaa	-8.76025
▁mennä	-8.76327
▁tiedä	-8.76585
▁palvelijasi	-8.76648
ksenne	-8.76772
▁ylen	-8.76991
▁Samuel	-8.77018
▁häpeä	-8.77042
den	-8.7712
▁kysyi	-8.77143
uden	-8.77253
▁raja	-8.7727
▁itsensä	-8.77627
▁jälleen	-8.77728
▁kuullut	-8.77732
▁päivinä	-8.77751
▁laki	-8.7776
Sinä	-8.77782
▁nimen	-8.77909
Ei	-8.77984
▁miehiä	-8.77985
tetty	-8.78014
▁astui	-8.78047
▁jona	-8.7812
▁enemmän	-8.78442
▁jälkeläiset	-8.78442
▁ketään	-8.78466
▁erämaassa	-8.78479
▁luoksensa	-8.7856
▁Be	-8.78674
▁nähnyt	-8.79161
▁asukkaat	-8.79184
▁Aaronin	-8.79716
▁jalka	-8.79848
▁ru	-8.79975
▁vuo	-8.79993
▁Saulin	-8.80078
ettiin	-8.80191
▁syy	-8.802
▁määrä	-8.80208
▁hal	-8.80419
tettiin	-8.80463
▁liikkeelle	-8.80616
Näi	-8.8068
pää	-8.80755
ineen	-8.80895
▁Minun	-8.80956
▁Voi	-8.80968
▁seiso	-8.80999
maa	-8.81119
▁liiton	-8.81359
▁tykönsä	-8.81785
▁temppeliin	-8.81814
▁yhtä	-8.81995
ät	-8.82028
▁Mooseksen	-8.82216
▁noi	-8.82495
ton	-8.82576
▁vaimon	-8.82678
tut	-8.82694
▁Hiskia	-8.82838
▁nosta	-8.82849
▁sota	-8.82959
▁muista	-8.83028
▁As	-8.83062
asti	-8.83134
▁saisi	-8.83146
▁lapsia	-8.83189
▁m	-8.83194
ksemme	-8.83257
▁raha	-8.8356
▁kuulleet	-8.8359
lin	-8.83897
▁seuraa	-8.84158
isiin	-8.84181
▁vihaa	-8.84315
▁oman	-8.8455
tkaa	-8.84605
▁korva	-8.84612
ee	-8.84696
▁I	-8.8476
▁Jo	-8.8495
tanut	-8.85023
▁elämä	-8.85093
▁näky	-8.85115
▁Joosef	-8.85203
malla	-8.85485
uus	-8.85486
▁kuulla	-8.855
▁Daavidille	-8.85721
▁En	-8.85928
tko	-8.86051
▁Jumalanne	-8.86186
▁pe	-8.86635
▁niihin	-8.86662
mättä	-8.86721
▁myöskin	-8.86898
stansa	-8.87168
mies	-8.87249
▁D	-8.87357
▁Beet	-8.87421
▁vä	-8.87424
▁minulla	-8.87436
▁joukossa	-8.87437
▁leeviläiset	-8.87488
▁karja	-8.87964
▁hallitsi	-8.88224
▁sinulla	-8.88224
▁sydämensä	-8.88238
kööt	-8.8827
▁kuolema	-8.88309
A	-8.88332
▁aikana	-8.88491
tesi	-8.88585
▁h	-8.88685
▁saat	-8.88858
▁kirjoitettu	-8.88884
▁Kuka	-8.88905
▁sydän	-8.89018
▁istui	-8.89051
▁herra	-8.89169
▁Miksi	-8.89259
Se	-8.89521
▁faraon	-8.89641
▁muuri	-8.89671
▁kulki	-8.89772
▁uhrat	-8.89818
kkaa	-8.89859
dä	-8.90167
imme	-8.9017
▁valta	-8.9045
▁kanta	-8.90665
▁Elia	-8.90728
llaan	-8.91072
▁hävit	-8.91078
▁sieluni	-8.91111
mmi	-8.91177
▁heillä	-8.91418
▁minulta	-8.91437
▁ruhtinas	-8.91437
▁alttari	-8.91924
▁korkea	-8.91925
▁pal	-8.91951
▁elämän	-8.91997
▁olevan	-8.92112
▁tuho	-8.92127
▁molemmat	-8.92257
▁väkevä	-8.92258
▁monta	-8.92258
▁viisikymmentä	-8.92267
▁lapset	-8.92366
▁ihmis	-8.92561
▁herrani	-8.92582
toa	-8.92583
▁arvo	-8.9268
▁vaunu	-8.9311
Älä	-8.93245
Mene	-8.93433
▁etteivät	-8.93752
▁nouse	-8.93866
▁tästä	-8.93925
▁lahja	-8.94042
ran	-8.94357
▁kuu	-8.94373
▁Eikö	-8.94382
▁yö	-8.94482
▁vaiva	-8.94535
oh	-8.94716
▁lähde	-8.94757
▁neljäkymmentä	-8.94771
eita	-8.94808
ojen	-8.94837
tunut	-8.94925
▁toisi	-8.95004
▁rukoile	-8.95022
▁silmä	-8.95199
ensä	-8.95255
▁sanovat	-8.95349
een	-8.95678
▁ihmiset	-8.95795
ssaan	-8.9592
▁Ma	-8.95959
▁k	-8.95973
▁takaa	-8.96189
▁taivaasta	-8.96459
▁pakanain	-8.96461
▁näkivät	-8.96888
▁Jumalani	-8.96942
▁kuo	-8.9696
▁mistä	-8.96976
▁kultaa	-8.96985
▁puoleen	-8.97162
▁kanssani	-8.97237
▁filistealaist	-8.97278
▁ruokauhri	-8.97326
dan	-8.97386
▁pan	-8.97435
▁juhla	-8.97447
▁Israelia	-8.97541
▁puolelle	-8.97574
▁kasva	-8.97663
▁kuole	-8.97719
assa	-8.97738
▁riko	-8.97936
▁ihmisen	-8.98049
empi	-8.98058
▁palvele	-8.98059
▁perhe	-8.98196
▁velje	-8.98222
my	-8.9851
▁ylistä	-8.98526
▁Ki	-8.98544
▁Kuinka	-8.9859
▁r	-8.9876
▁muukalais	-8.99043
▁sinusta	-8.99069
▁Va	-8.99177
?`	-8.99189
▁Jooab	-8.99428
▁tahdo	-8.99475
▁viini	-8.99697
▁pojalle	-8.99954
▁tietämään	-9.0003
▁Assurin	-9.00132
▁poikia	-9.00166
▁halu	-9.0024
▁vastasivat	-9.0062
▁sanoja	-9.00727
▁vihollis	-9.00736
ad	-9.00757
▁yksin	-9.01072
▁polttouhri	-9.01114
alla	-9.0136
ju	-9.01475
▁puhe	-9.01506
▁hedelmä	-9.01514
▁edellä	-9.01581
▁käänty	-9.0162
▁valtakunta	-9.01649
▁veljet	-9.01798
▁olkoot	-9.01799
▁nälkä	-9.0184
▁totta	-9.01961
▁toista	-9.02119
▁temppeli	-9.02188
`	-9.02221
▁vaa	-9.02401
▁loppu	-9.0261
oista	-9.02618
llensa	-9.02638
▁henkeä	-9.02657
▁perintöosa	-9.0266
▁paikkaan	-9.02933
▁esiin	-9.03053
eni	-9.03063
Miksi	-9.031
▁sor	-9.03192
▁aamu	-9.03226
▁Ar	-9.03509
▁ymmärtä	-9.0357
▁rakensi	-9.03597
▁lähtee	-9.03625
▁Ku	-9.03736
▁heittä	-9.03807
Tämä	-9.03848
▁kävi	-9.03906
▁käsistä	-9.04246
▁kuningasten	-9.04507
▁tahi	-9.0455
▁soti	-9.04551
▁ylitse	-9.04555
.`	-9.04568
▁kaikessa	-9.04685
enne	-9.04863
▁peri	-9.04883
mise	-9.04921
▁rukoili	-9.0502
▁kuusi	-9.05142
alle	-9.05308
▁Absalom	-9.05433
▁israelilaisille	-9.05433
▁tapahtui	-9.05433
▁kolmekymmentä	-9.05455
▁On	-9.05566
▁nime	-9.05618
▁Aabraham	-9.05749
▁kan	-9.05784
▁näet	-9.05997
uko	-9.06008
▁Maa	-9.06041
▁Jeremia	-9.06089
▁ottanut	-9.06405
▁mihin	-9.06433
▁jumalia	-9.06437
▁kaste	-9.06473
▁kosta	-9.06475
▁muita	-9.06494
tään	-9.06613
ttiin	-9.06698
▁veivät	-9.06897
▁piti	-9.06947
▁menee	-9.06999
ttanut	-9.07013
tar	-9.07038
▁löi	-9.07338
▁silmie	-9.07338
▁tieltä	-9.07371
lloin	-9.07408
▁miele	-9.07441
▁isäni	-9.07514
▁vanhurska	-9.07544
▁meillä	-9.07573
päivä	-9.07634
▁tulette	-9.07843
▁puut	-9.07892
osta	-9.08026
▁Herralta	-9.08031
▁jotakin	-9.08037
▁salli	-9.08171
▁miekan	-9.08291
▁seurakunta	-9.08295
▁rauha	-9.08376
aksi	-9.08404
▁sisälle	-9.08422
▁äitinsä	-9.08443
▁El	-9.08586
▁R	-9.086
via	-9.08702
▁hopeata	-9.08704
aika	-9.08714
▁päivään	-9.08832
▁puhuu	-9.08941
▁jäi	-9.09076
▁keskuudessa	-9.09076
mmat	-9.09138
▁J	-9.09184
▁tälle	-9.09286
▁Israelissa	-9.09409
jia	-9.09419
▁kyllä	-9.09425
▁surmasi	-9.09536
▁kuninka	-9.09589
▁pitkä	-9.09816
▁tien	-9.09906
▁seura	-9.09922
hi	-9.09961
kseksi	-9.10026
lut	-9.10108
▁kaike	-9.1022
▁pakkosiirtolais	-9.10242
▁isiensä	-9.10249
▁esikois	-9.10261
▁väki	-9.1043
▁temppelissä	-9.10439
▁nimensä	-9.10453
▁Mooabin	-9.10497
▁nimeä	-9.10775
▁tuomit	-9.10782
▁poikani	-9.10849
kuu	-9.11078
▁nosti	-9.11232
▁nimeltä	-9.11264
▁suo	-9.11272
▁Kosk	-9.11403
▁valo	-9.11548
▁nousee	-9.1161
▁eli	-9.11705
▁poikaa	-9.11773
▁palasi	-9.11797
▁tunt	-9.11833
▁Saa	-9.11907
▁sama	-9.12027
uuden	-9.12165
▁kuollut	-9.12232
▁eräs	-9.12232
▁johdat	-9.12237
▁tekoja	-9.12242
▁Egyptistä	-9.12281
ani	-9.12284
▁ol	-9.12302
▁toimitta	-9.12314
▁valtaistuime	-9.12377
▁noudatta	-9.12416
▁Gileadin	-9.12419
▁vala	-9.12464
`."	-9.12475
ksensä	-9.12754
▁tekevät	-9.12756
py	-9.12822
tetaan	-9.13004
▁rikka	-9.13228
▁ala	-9.1323
▁tapa	-9.1324
▁tehtävä	-9.13243
▁nähneet	-9.13243
▁tutki	-9.13246
▁Elisa	-9.13249
▁ettekä	-9.13262
uuteen	-9.13291
isia	-9.13293
▁synnytti	-9.13293
tyy	-9.13485
miehi	-9.13639
En	-9.13659
▁alle	-9.13794
▁mur	-9.13818
▁toivat	-9.13987
iseksi	-9.14037
▁uhraa	-9.1413
isten	-9.14388
▁saatte	-9.14538
▁vastaa	-9.14571
din	-9.1478
▁tahto	-9.14906
▁päämiehet	-9.14943
▁Myös	-9.15294
▁laidunmaineen	-9.15294
▁yhä	-9.15294
▁kumarta	-9.15294
▁mieli	-9.15297
▁juuri	-9.15298
▁kaupungit	-9.15354
▁kuva	-9.15375
▁maailman	-9.15395
▁isäsi	-9.15449
▁asuivat	-9.15769
▁nuo	-9.15777
▁Siion	-9.15815
▁äiti	-9.15832
▁kimppuun	-9.16163
▁kuukaude	-9.16337
▁ääntä	-9.16338
▁totisesti	-9.16347
eet	-9.16535
▁malja	-9.16621
▁lihaa	-9.1663
▁vuote	-9.16684
▁liitto	-9.17165
▁kauhistu	-9.17267
▁seisoi	-9.1727
▁iho	-9.17336
▁hylkää	-9.17388
▁kerran	-9.17388
▁ikinä	-9.17388
▁kuulivat	-9.17397
▁U	-9.17471
▁kuninkaat	-9.17473
udu	-9.17531
aivan	-9.17678
▁Efraimin	-9.17779
Te	-9.1779
▁viiniä	-9.17904
▁kirjoit	-9.17918
iltä	-9.17928
▁pään	-9.1795
▁köyhä	-9.17989
▁ava	-9.18021
▁isän	-9.18086
kea	-9.18091
utensa	-9.18127
▁riemu	-9.18174
▁nous	-9.18287
▁hankki	-9.18329
1	-9.18452
▁ylpe	-9.18452
▁itsellesi	-9.18461
▁Henki	-9.18461
▁kaivo	-9.18674
eser	-9.18695
▁pakoon	-9.18799
▁B	-9.18862
▁kulkivat	-9.18992
▁Ole	-9.19095
ttoma	-9.19097
▁näe	-9.19133
▁sanoa	-9.19273
▁vaimonsa	-9.19359
▁käske	-9.1947
▁farao	-9.19477
▁vyö	-9.19518
▁har	-9.1952
▁eksy	-9.19527
▁sinulta	-9.19527
▁sukukunnasta	-9.19527
▁turmio	-9.19527
▁veren	-9.19527
▁kertaa	-9.19533
▁orja	-9.19545
▁kasvoi	-9.19555
▁tekemään	-9.19557
oihin	-9.19571
ele	-9.19586
▁näitä	-9.19666
▁hänessä	-9.19965
▁hyväksi	-9.20258
▁asuu	-9.20548
▁kuulu	-9.20579
▁leijona	-9.20614
▁kuoliaaksi	-9.20615
▁vedet	-9.2062
▁oikeuden	-9.20623
▁vaatteensa	-9.20656
▁juutalaiset	-9.20723
▁paimen	-9.20735
uksia	-9.21022
ttivat	-9.2112
▁Joonatan	-9.21188
▁suuret	-9.21259
▁asettui	-9.2132
▁arkin	-9.21344
äsi	-9.21472
▁poikien	-9.21537
▁hevos	-9.2154
be	-9.21562
▁teet	-9.21685
]	-9.21713
▁oikein	-9.21713
▁vanhimmat	-9.21713
▁maksa	-9.21714
▁Miika	-9.21727
▁oikeutta	-9.21745
▁lähellä	-9.21768
jät	-9.21788
▁asuvat	-9.21826
▁Kuningas	-9.21829
▁laakso	-9.21852
▁synty	-9.21857
▁valke	-9.21891
▁välillä	-9.22318
▁vaino	-9.22368
minen	-9.22579
▁palvelijansa	-9.22688
▁ympärillä	-9.22753
▁lihan	-9.2279
▁voisi	-9.22811
▁väärä	-9.22824
▁hallitusvuotena	-9.22824
▁tomu	-9.22826
▁kätesi	-9.22826
▁ennusta	-9.22829
laisia	-9.22836
▁pääsi	-9.22845
▁toiset	-9.22864
idän	-9.22864
▁yöllä	-9.22915
▁häpeään	-9.23022
▁tahdon	-9.23022
▁palkka	-9.23074
stään	-9.23129
uta	-9.2317
llisesti	-9.23247
▁koske	-9.23365
▁panen	-9.23372
▁lähetän	-9.23475
▁asui	-9.23726
▁virsi	-9.23827
▁armon	-9.23926
▁kaupungissa	-9.23948
▁tapahtunut	-9.23948
▁jätti	-9.2395
▁pilvi	-9.23952
▁annetaan	-9.24001
▁myy	-9.24068
▁nai	-9.24134
▁aasi	-9.24186
▁Joosefin	-9.24718
▁eri	-9.24798
▁ystävä	-9.24819
▁pelastaa	-9.24933
▁kuoleman	-9.25007
▁Joosafat	-9.25084
▁täällä	-9.25084
▁Ihmisen	-9.25085
▁kahden	-9.25085
▁itki	-9.25098
sin	-9.25123
rot	-9.2513
ssani	-9.25304
▁veri	-9.25373
▁vanhurskas	-9.25527
▁palvelijat	-9.25586
kki	-9.25608
▁kaikkiaan	-9.25788
▁tiedän	-9.25931
ilaiset	-9.25984
eseen	-9.26029
▁paikassa	-9.26233
E	-9.26253
▁surma	-9.26281
▁filistealaiset	-9.26293
▁sanot	-9.26305
▁moni	-9.26313
san	-9.26393
ttäkää	-9.26398
▁puoli	-9.26556
▁tuomitse	-9.26593
Niin	-9.26726
kymmene	-9.26844
▁todistaja	-9.26869
▁Aabrahamin	-9.26875
▁velji	-9.27013
▁joutui	-9.27219
vän	-9.27316
▁alue	-9.27366
▁Kristuksessa	-9.27396
▁auringon	-9.27396
▁kädestä	-9.27396
▁tuomari	-9.274
▁erämaahan	-9.27406
▁sauva	-9.27415
▁kätte	-9.27432
▁himo	-9.27457
▁peit	-9.27743
▁miesten	-9.27759
▁vähän	-9.27896
▁pääse	-9.27959
▁une	-9.28095
▁luopu	-9.282
▁tuhat	-9.28294
▁taloon	-9.28437
▁kädessä	-9.28447
▁kaupungista	-9.28573
▁miehelle	-9.28573
▁itsellensä	-9.28575
▁pelto	-9.28576
viksi	-9.28588
▁juoda	-9.28692
Tule	-9.28721
▁sijaansa	-9.28757
▁M	-9.28784
▁tahtoo	-9.28821
▁Jerusalem	-9.28933
▁ettet	-9.29096
laiset	-9.29218
▁tot	-9.29387
▁ryöst	-9.2957
▁Heidä	-9.29608
emme	-9.29681
▁kansasi	-9.29684
▁pyhäkkö	-9.29732
kaamme	-9.29762
▁uhrasi	-9.29763
▁arkki	-9.29764
▁toiselle	-9.29764
▁näkee	-9.29764
▁Kanaani	-9.29766
▁sivu	-9.29822
M	-9.29839
▁päällikkö	-9.29848
▁kanssanne	-9.29894
▁vihan	-9.30201
▁Sela	-9.30234
ttaisi	-9.30358
▁ikään	-9.3061
▁lähte	-9.30611
▁palvelijoita	-9.30711
▁kato	-9.30872
▁jolle	-9.30886
▁surmaa	-9.30948
▁vuorelle	-9.30969
▁todista	-9.30988
llansa	-9.31074
akseen	-9.31183
▁saman	-9.31379
V	-9.31491
▁heiltä	-9.31559
▁sanaa	-9.31594
▁päivät	-9.31713
tävä	-9.31766
oissa	-9.31779
tuhatta	-9.31779
▁lapsi	-9.31804
▁synny	-9.31888
▁Jumalansa	-9.3194
▁opetta	-9.32044
▁valit	-9.32122
▁vuoren	-9.32202
▁tuhon	-9.32206
▁sala	-9.32337
▁saalii	-9.32341
▁Manassen	-9.32347
▁kokoon	-9.32405
▁Re	-9.32449
▁kirja	-9.32451
▁öljyä	-9.32491
▁rakastaa	-9.32506
▁sydämeni	-9.32647
▁monet	-9.32687
▁kova	-9.32722
▁Israelille	-9.32764
▁seassa	-9.3287
▁poikasi	-9.32981
▁asua	-9.3321
▁vaski	-9.33374
▁äänen	-9.33412
▁rupesi	-9.33422
▁saastainen	-9.33424
▁kauhu	-9.33426
▁papin	-9.33428
isitte	-9.33629
▁vaivaa	-9.33655
▁lauma	-9.33673
viä	-9.34128
▁vuori	-9.34325
▁saivat	-9.34393
▁kohta	-9.34454
▁esi	-9.34459
▁kolmantena	-9.34672
▁rukoukse	-9.34673
▁tehkää	-9.34684
▁vanhurskauden	-9.34693
▁sanoin	-9.34729
▁rauta	-9.34732
▁lähtenyt	-9.34734
▁rasva	-9.3476
▁miksi	-9.34765
▁rukoil	-9.34808
▁asumuksen	-9.34937
▁kai	-9.3494
▁pilkkaa	-9.35172
aitsi	-9.3519
▁ruhtinaat	-9.3535
▁jalo	-9.35357
oita	-9.35456
▁Ad	-9.35569
▁ilmestysmajan	-9.35581
▁elävä	-9.35586
yttä	-9.35592
ettakoon	-9.35598
▁omaksi	-9.35733
▁karitsa	-9.35829
▁antoivat	-9.35906
▁mennyt	-9.35959
▁juutalaisten	-9.36001
▁menemään	-9.36031
puu	-9.3606
insa	-9.36123
▁kirjoitettuna	-9.36182
▁joutuu	-9.36201
▁Egyptiin	-9.36221
▁nuori	-9.36347
▁kive	-9.36417
Kuka	-9.36548
▁ilman	-9.36584
▁Salomon	-9.36599
▁kuitenk	-9.36701
▁kulke	-9.36704
▁palaja	-9.36788
▁murhee	-9.36924
▁Abi	-9.36979
▁puhun	-9.37043
▁Tä	-9.37193
▁väijy	-9.3722
▁Daniel	-9.3722
▁oppi	-9.3722
▁käteni	-9.3722
▁kaksisataa	-9.3722
▁paasto	-9.37221
▁kuluttua	-9.37222
▁arpa	-9.37224
▁lunasta	-9.37225
▁jätä	-9.37238
ssansa	-9.37348
▁portin	-9.3746
▁lupa	-9.37515
▁asettuivat	-9.37733
▁Totisesti	-9.37749
▁ruoka	-9.37755
▁huoneen	-9.3791
oilla	-9.37976
isiä	-9.38021
▁suusta	-9.38034
▁tyttäriä	-9.38037
▁sisään	-9.38085
hin	-9.38232
▁vahvista	-9.38251
▁puhtaa	-9.38273
▁tavara	-9.38525
▁kaikissa	-9.38538
▁pahat	-9.38543
▁muutamat	-9.38545
▁itselleen	-9.38644
▁pannut	-9.38802
mmin	-9.38984
▁Ni	-9.39062
▁sil	-9.39213
misen	-9.39278
▁kasvojen	-9.39434
▁ajoi	-9.39459
▁työtä	-9.39483
▁os	-9.39552
▁loi	-9.39587
▁seurakunnan	-9.3983
▁viinitarha	-9.39834
▁niillä	-9.3984
▁perhekunta	-9.3984
▁tehty	-9.39842
▁leiriytyivät	-9.39843
ilainen	-9.39846
▁saata	-9.39853
▁surmat	-9.39864
▁oven	-9.39865
▁silmät	-9.40002
var	-9.40022
mat	-9.40023
▁vuotena	-9.4009
▁silmänsä	-9.40092
mittaa	-9.401
▁Vai	-9.40137
kas	-9.40191
▁ensimmäise	-9.40433
Menkää	-9.40504
▁maailma	-9.40523
▁tuon	-9.40523
itsemänkymmentä	-9.40529
▁ihme	-9.40739
▁panivat	-9.40874
▁vanhurskaute	-9.40877
▁palvelijani	-9.40909
yksi	-9.40932
▁miekalla	-9.41168
▁itke	-9.41172
▁vapaa	-9.41198
▁anti	-9.41242
▁nainen	-9.41365
ssasi	-9.41418
▁valmista	-9.41479
▁nousivat	-9.415
▁etsivät	-9.41604
▁Herrassa	-9.41765
▁runsa	-9.41791
▁sotaan	-9.41809
▁lähe	-9.4192
▁kuiva	-9.41953
▁täyttä	-9.42074
tettava	-9.4224
ven	-9.42309
▁saaneet	-9.42387
lleni	-9.42406
▁keihä	-9.42519
▁Veis	-9.4252
▁annettu	-9.4252
▁saarna	-9.42524
▁syntynyt	-9.42595
▁joudu	-9.42668
▁kier	-9.42705
▁saastu	-9.42747
▁Älköön	-9.4281
▁Benjaminin	-9.42894
▁nimessä	-9.42952
▁ympäri	-9.43259
▁valmis	-9.43363
▁kuulee	-9.43594
▁vuosi	-9.43687
ara	-9.4369
▁mukana	-9.43709
▁portti	-9.43783
▁sisar	-9.43861
▁Tämän	-9.43862
▁Hengen	-9.43889
▁profeetat	-9.43889
▁pakene	-9.4389
▁täytyy	-9.43905
▁jokaisen	-9.43953
läis	-9.43984
▁jälkeensä	-9.44005
▁jättä	-9.44025
ossa	-9.4403
▁osta	-9.44106
▁kulje	-9.44127
▁rake	-9.44317
ilaisten	-9.44432
▁muuttu	-9.44577
uudessa	-9.44633
▁tulessa	-9.44653
Hän	-9.44694
▁j	-9.44753
▁leipä	-9.4479
▁kääntyi	-9.44834
On	-9.44836
▁vara	-9.44967
▁ahdist	-9.44999
inä	-9.45049
▁yhteen	-9.45255
▁Eleasar	-9.45278
▁aurinko	-9.45278
▁Hebron	-9.45278
▁tyhmä	-9.45278
▁ajatteli	-9.45281
▁jäljelle	-9.45296
▁edessäsi	-9.45352
isivat	-9.45385
▁suurell	-9.45413
ydy	-9.45469
▁etten	-9.45548
▁omaa	-9.45604
ukset	-9.45728
utui	-9.45755
▁saira	-9.45944
▁rakenn	-9.45974
▁lakia	-9.46009
▁huusivat	-9.46104
▁Efraim	-9.46164
▁sito	-9.46271
mistä	-9.46355
▁sanotte	-9.4636
▁iloitse	-9.46464
▁tieto	-9.46496
▁pahan	-9.46549
lon	-9.46554
▁vähä	-9.46555
▁hengen	-9.46559
▁sydämessä	-9.4656
▁voimalla	-9.46667
▁kerubi	-9.46686
▁minuun	-9.46686
▁laski	-9.4669
▁huuto	-9.46692
▁Simon	-9.46705
▁ääni	-9.46712
▁tekoje	-9.46749
Missä	-9.46768
▁Vielä	-9.46816
▁Jerusalemista	-9.4683
ssään	-9.46869
▁suuria	-9.47053
▁asumaan	-9.47075
laisen	-9.47092
llään	-9.47141
▁opetuslapsi	-9.4726
▁lähettä	-9.47415
▁Baal	-9.47484
Ole	-9.47485
▁tulet	-9.47551
väis	-9.47562
▁valhe	-9.47594
▁leirin	-9.47684
▁Ta	-9.47934
▁pylvä	-9.48063
▁kirkkaude	-9.48115
▁katselmuksessa	-9.48115
▁sotavaunu	-9.48115
▁todistukse	-9.48115
▁yltympäri	-9.48115
▁lankesi	-9.48115
▁vartioi	-9.48115
▁menesty	-9.4813
▁tuska	-9.48135
▁Aasa	-9.48176
"	-9.48187
sydäm	-9.48227
▁sijaan	-9.48232
▁söivät	-9.48264
▁kotiinsa	-9.4827
▁luokseni	-9.48344
▁kuussa	-9.48445
▁saavu	-9.48447
▁huomaa	-9.48537
▁hyvän	-9.48554
▁perä	-9.48623
▁vuodatta	-9.48628
▁peto	-9.48662
Minun	-9.48892
▁Eivät	-9.48964
▁puhua	-9.49071
▁heimon	-9.49286
▁jumal	-9.49376
vien	-9.49384
▁taistelu	-9.49519
▁sydämestä	-9.49564
▁kovin	-9.49574
▁palatsi	-9.49581
▁tulkoon	-9.49587
▁taisteluun	-9.4961
kar	-9.4965
▁käydä	-9.49665
▁ilmoitti	-9.49669
▁rauhassa	-9.49853
nneet	-9.49859
▁lii	-9.49955
▁kuolee	-9.50076
▁vero	-9.50127
lan	-9.50344
Kuinka	-9.50361
ttakoon	-9.50424
ram	-9.50436
▁puhdista	-9.5052
▁menen	-9.50526
▁veljesi	-9.50537
▁itä	-9.50605
isiksi	-9.50876
toon	-9.50907
▁luja	-9.50962
▁ainoa	-9.51016
ettävä	-9.51017
▁annoin	-9.51035
▁ratsu	-9.51035
▁sankari	-9.51035
▁sinuun	-9.51035
▁milloin	-9.51035
▁siunat	-9.51036
▁pello	-9.51037
▁kylvä	-9.51043
▁parempi	-9.5105
▁kaval	-9.51231
▁lie	-9.51234
mia	-9.51262
▁vahvist	-9.51339
▁joutuvat	-9.51352
lainen	-9.5138
▁alttarilla	-9.51421
▁olkaa	-9.5146
▁Ahi	-9.51615
Mikä	-9.51698
▁Siionin	-9.51777
Älkää	-9.51855
▁paikka	-9.51924
▁kiittä	-9.51973
▁kestä	-9.5207
▁vaelsi	-9.5212
▁paljo	-9.52204
▁riita	-9.5242
▁tyttären	-9.52443
▁menet	-9.52462
▁Abimelek	-9.52527
▁Siihen	-9.52527
▁kaukana	-9.52527
▁lamppu	-9.52527
▁sotajoukko	-9.52527
▁alkaen	-9.52529
▁huole	-9.52533
Puhu	-9.52571
▁puolelta	-9.52573
▁pyhät	-9.52586
lliset	-9.52711
▁Tee	-9.52721
▁pelo	-9.52726
▁antakaa	-9.5274
▁huku	-9.5274
▁edessäni	-9.52845
▁miekkaan	-9.52957
▁hy	-9.53013
▁tykönä	-9.53047
▁makaa	-9.53245
▁vihollisen	-9.53365
▁palvelijoi	-9.53466
llisen	-9.53518
▁uskon	-9.53643
▁ahdista	-9.53648
▁autio	-9.53739
▁olemaan	-9.5374
▁vääryyttä	-9.54042
▁juure	-9.54042
▁ottamaan	-9.54043
▁valinnut	-9.54044
▁seitsemäntenä	-9.54045
tuksi	-9.54056
ker	-9.54152
T	-9.54198
Mi	-9.54243
▁epä	-9.54296
▁Saara	-9.54431
▁kasvoje	-9.54506
▁pieni	-9.54602
▁Joo	-9.54617
▁avaa	-9.54822
Nouse	-9.54901
▁avu	-9.54928
▁nuore	-9.55144
▁hajo	-9.5519
▁avasi	-9.55379
▁karkoit	-9.55434
▁peljästy	-9.5556
▁söi	-9.55575
▁tarvitse	-9.55581
▁vuorella	-9.55581
▁siunaa	-9.55583
▁ilmoitta	-9.55672
▁kohtaa	-9.55711
▁tiesi	-9.55712
▁vaella	-9.55735
▁lau	-9.55797
ttänyt	-9.55868
▁ensin	-9.55876
▁Kuu	-9.5594
ron	-9.55979
▁Beeteli	-9.56031
▁tyttäre	-9.56101
▁valli	-9.5621
▁koskaan	-9.56419
▁syövät	-9.56506
▁vilja	-9.56981
▁iankaikki	-9.57084
▁Bileam	-9.57143
▁luvannut	-9.57144
▁niissä	-9.5715
▁vanhurskautta	-9.57175
▁asettanut	-9.57178
▁sokea	-9.57178
▁kaunis	-9.57182
orin	-9.57182
ttaneet	-9.57242
▁naisen	-9.57278
▁eteensä	-9.57324
▁olko	-9.57353
▁ryöstä	-9.57397
▁hullu	-9.57487
▁Et	-9.57499
▁mukanaan	-9.57513
▁veljeni	-9.57715
▁linna	-9.57824
▁asun	-9.5784
telee	-9.57859
▁omaan	-9.57871
";	-9.57987
▁kahdeksan	-9.58322
mässä	-9.58329
▁puhdas	-9.58447
ettava	-9.58448
▁veljiä	-9.58455
▁korvi	-9.58504
mman	-9.58527
▁rauhan	-9.58598
ttävä	-9.58613
▁halveksi	-9.58731
▁tapahtuu	-9.58731
▁Sidkia	-9.58731
▁nuorukais	-9.58731
▁sovituksen	-9.58731
▁eläimet	-9.58731
▁läpi	-9.58731
▁vihki	-9.58731
▁kammio	-9.58739
▁suurempi	-9.58753
▁lupauksen	-9.58779
▁tappaa	-9.58782
▁suuresti	-9.58789
uhri	-9.58863
▁voit	-9.58885
▁poltti	-9.59
▁jälkeläisten	-9.59001
▁nimeni	-9.59023
▁Aaronille	-9.5909
▁odotta	-9.5918
▁ovi	-9.59188
▁käynyt	-9.592
stani	-9.59252
▁päivästä	-9.59254
▁tar	-9.5927
▁tyttäri	-9.59323
▁Anna	-9.59366
▁sekaan	-9.59447
▁kanssamme	-9.59484
▁sydämen	-9.59642
▁Ti	-9.59892
▁huom	-9.59934
ville	-9.60058
▁saatta	-9.601
▁sija	-9.60175
kke	-9.60215
▁kieltä	-9.60314
▁osan	-9.60318
▁etelä	-9.60337
▁Mordokai	-9.60343
▁apostoli	-9.60343
▁varhain	-9.60345
▁tavalla	-9.60351
▁Suu	-9.60356
▁hehku	-9.60387
nkymmenen	-9.60389
▁Arami	-9.60402
▁aut	-9.6041
▁Johannes	-9.60459
▁yksikään	-9.60461
▁varjo	-9.60463
▁kaltais	-9.60494
päin	-9.60602
kuun	-9.60644
ltaan	-9.60856
▁saada	-9.6101
▁päänsä	-9.61128
▁lähettivät	-9.6115
▁sairas	-9.6126
Totisesti	-9.61308
L	-9.61312
▁nimesi	-9.61347
▁kaatu	-9.61375
▁silmäsi	-9.61462
▁tekisi	-9.61482
▁ajan	-9.6151
▁uhrilahja	-9.61525
▁kuul	-9.6174
▁lopu	-9.6174
▁tarttu	-9.61833
▁meri	-9.61893
▁Abner	-9.61983
▁Abram	-9.61983
▁uhreja	-9.61983
▁Jeehu	-9.61983
▁paljasta	-9.61984
▁pilve	-9.61985
▁tahansa	-9.61985
▁kerro	-9.61985
▁jäljellä	-9.61992
▁ottaneet	-9.62012
▁käänny	-9.62073
▁lisäksi	-9.62111
takoon	-9.62135
▁tekemä	-9.62171
▁tuhoa	-9.62222
tensä	-9.62226
▁palvelemaan	-9.62232
▁Jumalalta	-9.62266
▁aamulla	-9.62339
▁jäljessä	-9.62396
▁ajat	-9.62704
▁päällensä	-9.62904
▁teette	-9.62925
▁paino	-9.62959
Voi	-9.62995
▁ilmoit	-9.63086
▁öljy	-9.63136
▁lait	-9.63144
▁vihansa	-9.63181
▁voinut	-9.63285
▁pako	-9.63384
▁teot	-9.63485
▁kansasta	-9.63538
▁ääne	-9.63544
▁metsän	-9.63576
▁asettu	-9.63618
▁Jeesuksessa	-9.63649
▁lampaita	-9.63649
▁kädellä	-9.6365
▁sääli	-9.6365
▁vaeltaa	-9.6365
▁annettiin	-9.6365
▁sarve	-9.6365
▁joukosta	-9.63651
▁kättä	-9.63665
▁kauris	-9.63673
▁kaup	-9.63677
▁ihmisiä	-9.63709
▁ensimmäisenä	-9.63712
▁ottakoon	-9.63725
▁tosi	-9.63741
▁opet	-9.63791
▁leik	-9.63804
▁kauhistus	-9.63818
▁varoit	-9.63899
▁autioksi	-9.63947
▁viisaa	-9.63998
▁näkevät	-9.641
▁valvo	-9.6412
▁kotiin	-9.6414
▁polttouhriksi	-9.64154
▁köyh	-9.64381
▁virka	-9.64386
▁oikealle	-9.644
▁kiele	-9.64404
▁meistä	-9.64414
▁lausui	-9.6452
rai	-9.646
▁jonkun	-9.64623
▁pilkka	-9.64669
▁pais	-9.64712
▁palvelijoille	-9.64759
▁ah	-9.6488
▁minäkin	-9.64898
▁teura	-9.65055
▁Manasse	-9.65122
anin	-9.65186
Ihmislapsi	-9.65344
▁Damasko	-9.65344
▁Laaban	-9.65344
▁poikki	-9.65344
▁ihmislapsi	-9.65344
▁kuusisataa	-9.65344
▁vaellukse	-9.65344
▁henkensä	-9.65345
▁leivän	-9.65345
▁pyhäkössä	-9.65345
▁kuolleista	-9.65345
Tulkaa	-9.65351
▁hoita	-9.65366
llasi	-9.6541
▁äänellä	-9.65415
▁Soo	-9.65453
▁sopi	-9.65455
▁talon	-9.65489
▁jumalattomi	-9.6549
▁itään	-9.65502
▁pelko	-9.65505
▁täyt	-9.65515
▁tyköni	-9.65568
▁viiden	-9.65584
▁pes	-9.6565
▁saastutta	-9.65668
▁lähesty	-9.65674
▁auta	-9.65728
▁päivi	-9.65955
▁säk	-9.65971
▁silmäni	-9.65984
▁talossa	-9.66063
▁ruhtinaa	-9.66139
▁lasten	-9.66448
▁pyhittä	-9.6646
uudesta	-9.66516
▁puhuivat	-9.66566
▁kiusa	-9.66589
▁armonsa	-9.66732
Tä	-9.67016
▁Nebukadnessar	-9.67068
▁horju	-9.67068
▁yhteysuhri	-9.67068
▁Samoi	-9.67069
▁peljätkö	-9.67069
▁sydämesi	-9.67069
▁keskelle	-9.67069
▁Joojada	-9.6707
▁suloise	-9.67074
▁muisto	-9.67077
▁ojensi	-9.67086
▁tekonsa	-9.67096
▁veden	-9.67138
▁metsä	-9.67151
▁olisivat	-9.67175
▁sovi	-9.67215
▁noudata	-9.67215
▁Job	-9.6725
▁valtakuntaa	-9.67264
▁valtakunnan	-9.67329
▁hävitän	-9.67336
▁tuoda	-9.67357
▁näistä	-9.67362
mästä	-9.67827
▁mielessä	-9.6786
▁sukukuntaa	-9.67903
▁isämme	-9.67919
rah	-9.68004
tetään	-9.68062
▁Iisak	-9.68143
▁Baabel	-9.68246
▁Eesau	-9.68651
▁mullikka	-9.68823
▁vangit	-9.68823
▁kohden	-9.68824
maton	-9.68825
▁taivaat	-9.68825
▁aarte	-9.68825
▁kukkula	-9.68825
▁pitävät	-9.68826
▁Sikemi	-9.68826
▁jauhoja	-9.68828
▁ohitse	-9.68834
▁haudattiin	-9.68838
▁härkä	-9.68864
▁teltta	-9.68877
▁veisaa	-9.6892
▁heti	-9.68984
▁yhdeksän	-9.69025
▁koi	-9.69066
▁syntiuhriksi	-9.69074
▁vaati	-9.69091
▁sanotaan	-9.69193
▁siltä	-9.69201
▁teoista	-9.69284
▁Jaakobille	-9.69303
▁vihastui	-9.69342
▁eikö	-9.69398
ön	-9.69673
▁tekevä	-9.69684
iseen	-9.69686
▁kunniaksi	-9.69732
▁suure	-9.69754
▁Vaan	-9.69849
▁käskyjä	-9.70252
eltä	-9.70261
▁tuolla	-9.70393
▁tahtoi	-9.70468
▁Sano	-9.70482
Sinun	-9.70524
O	-9.70544
▁uhrikukkula	-9.70593
▁kätke	-9.70608
njohtaja	-9.70609
▁kolmas	-9.70609
▁minussa	-9.70609
2	-9.70609
▁Eufrat	-9.70609
▁sinussa	-9.70609
▁Pilatu	-9.70609
▁lampu	-9.70609
▁parannu	-9.70609
▁osoitta	-9.7061
▁kullalla	-9.70611
▁Maria	-9.70615
▁seuraavana	-9.70624
▁huoneeseen	-9.70632
▁kaikilla	-9.70645
▁riemuitse	-9.70646
▁päätä	-9.70731
▁miehensä	-9.70739
`"	-9.70882
▁mukaansa	-9.70978
▁lo	-9.71088
▁kuolemalla	-9.71089
▁tulle	-9.71093
▁kokosi	-9.71274
▁apu	-9.71431
ottavat	-9.71491
▁lampaa	-9.71493
▁lausu	-9.71515
▁sanani	-9.71601
▁tykönne	-9.71809
▁päämiehe	-9.7186
▁kantaa	-9.71966
▁neuvoa	-9.721
▁leiri	-9.72124
▁lepo	-9.72207
▁heitti	-9.72213
▁kunnian	-9.72257
▁löydä	-9.72427
▁häväisty	-9.72427
▁laitume	-9.72427
▁siunasi	-9.72427
▁nukku	-9.72428
▁Ester	-9.72428
▁Haaman	-9.72429
▁käännä	-9.7243
▁Saadok	-9.72436
▁viisautta	-9.7244
▁varustettu	-9.72448
▁kaula	-9.72459
▁vieraa	-9.72467
▁Joosia	-9.72497
▁sulke	-9.72511
▁lahjoja	-9.72533
▁opetuslapsensa	-9.72539
▁nimeen	-9.72571
▁tahtonut	-9.72644
▁jäänyt	-9.72692
▁hanki	-9.72715
▁Kuule	-9.7273
▁Kuulkaa	-9.7277
▁laulu	-9.72775
▁kulkee	-9.72863
▁puhumaan	-9.72982
▁sellais	-9.73105
▁seurasi	-9.73116
▁pur	-9.73127
▁jumalattomat	-9.73227
▁Raam	-9.73319
▁pari	-9.73481
Anna	-9.73611
uuri	-9.73763
Kun	-9.73785
▁pakeni	-9.73874
▁mikään	-9.73889
▁juutalais	-9.73916
▁neljän	-9.73964
▁säily	-9.73974
▁lapsille	-9.73996
▁sanoma	-9.74187
du	-9.74247
▁ymmärrä	-9.74279
▁Tyyro	-9.74279
▁noussut	-9.74279
▁pitali	-9.74283
▁miehille	-9.74284
▁kuusikymmentä	-9.7429
▁koti	-9.74293
▁kaupunkeihin	-9.74336
▁yhtäkään	-9.74342
▁Nyt	-9.74352
▁Jerusalemia	-9.74409
▁muiden	-9.74474
▁tiellä	-9.74499
▁äänensä	-9.74506
▁Ra	-9.74543
▁lepoon	-9.74595
He	-9.74651
▁luokseen	-9.74783
▁leiriin	-9.74878
▁linnut	-9.74927
▁kolmen	-9.75059
▁seisoivat	-9.75122
▁Pel	-9.75137
▁sukukunta	-9.75278
▁puhut	-9.75347
▁profeettain	-9.75351
miehiä	-9.75381
jälkeen	-9.75494
▁hedelmää	-9.75507
▁odot	-9.75518
▁polve	-9.75572
▁Benjamin	-9.75643
▁joutu	-9.75644
▁Herramme	-9.75808
kymmentä	-9.75809
▁tuota	-9.75853
▁valtaistuimella	-9.75891
▁syntiuhri	-9.75922
yys	-9.75966
▁vaarin	-9.76049
▁israelilaisia	-9.76165
▁kolmesataa	-9.76166
▁Muista	-9.76166
▁ruoho	-9.76166
▁rakentaa	-9.76166
▁tehtiin	-9.76171
lke	-9.76174
▁tila	-9.76178
▁ruumis	-9.76182
▁Siellä	-9.76247
▁luola	-9.7625
▁kaupunkeja	-9.76263
llista	-9.76295
▁kuulkaa	-9.76307
▁nu	-9.7631
▁luoksesi	-9.76388
▁saattaa	-9.76483
▁päästi	-9.76507
▁keskuudessanne	-9.76529
▁meno	-9.76551
ittivät	-9.76591
▁lisää	-9.76637
▁Jerobeamin	-9.76672
▁lähettää	-9.76749
▁kas	-9.76845
▁tark	-9.7687
▁egyptiläis	-9.76928
▁onnettomuuden	-9.77089
▁temppeliä	-9.77112
▁tulella	-9.77258
▁Nooa	-9.77377
▁ilmesty	-9.77425
mällä	-9.77476
▁Jordan	-9.77568
▁raava	-9.77731
▁suunsa	-9.77774
▁kedo	-9.77786
onsa	-9.78039
miehet	-9.78056
▁kuljet	-9.78077
▁amorilaisten	-9.78088
▁palvelusta	-9.78088
▁vankeuteen	-9.78088
▁Rehabeam	-9.78089
▁teurasuhri	-9.78089
▁neljäsataa	-9.78089
▁taivaassa	-9.78089
▁synnin	-9.78089
▁kuolleet	-9.7809
▁jäsen	-9.7809
▁jalkoje	-9.78091
▁mereen	-9.78098
▁makasi	-9.78101
▁totuuden	-9.78106
▁alkoi	-9.78113
▁vapaut	-9.78125
▁puro	-9.78142
▁toiseen	-9.7815
!`	-9.78171
▁päämies	-9.78214
▁kansansa	-9.78243
▁karitsaa	-9.78255
▁itseänsä	-9.78294
▁lähteneet	-9.78295
▁kaatui	-9.78385
▁kyynärän	-9.78421
▁kysyivät	-9.78593
▁tiedät	-9.78613
J	-9.7862
▁oikealla	-9.78684
tavaksi	-9.78744
▁viisas	-9.78988
▁jano	-9.79224
▁Jerobeam	-9.79525
▁rikko	-9.79552
▁täyde	-9.79638
Siitä	-9.79712
▁vihastu	-9.79736
▁pyysi	-9.79889
mar	-9.80015
▁armahda	-9.80049
▁rannalla	-9.80049
▁juomauhri	-9.80055
▁itsellenne	-9.80055
▁Jooram	-9.80059
▁vahva	-9.80086
▁ihmeitä	-9.80093
▁heihin	-9.80095
▁huomasi	-9.80117
▁leske	-9.80137
▁tiedo	-9.8016
▁linnan	-9.80208
▁uusi	-9.8021
stus	-9.80235
▁yllä	-9.80297
▁huonee	-9.80332
kaksi	-9.80364
▁Aabrahamille	-9.80371
▁syyttä	-9.804
▁pakenivat	-9.80483
▁ympärille	-9.80606
▁pappien	-9.80607
kel	-9.80655
▁matka	-9.80664
▁lähteä	-9.80729
▁yhty	-9.80759
▁kuolemaan	-9.81011
mon	-9.81329
kymmenente	-9.81341
Tuo	-9.81375
Jumala	-9.81378
▁sanansa	-9.81471
pyhä	-9.81583
▁hukku	-9.81643
▁lapse	-9.81653
▁Mooab	-9.81672
▁valtaan	-9.81743
▁kesken	-9.82017
▁oikean	-9.82039
▁Gibea	-9.82049
▁ulottu	-9.82049
▁hyljät	-9.82049
▁päällyst	-9.82049
▁säädöksi	-9.82049
▁pyytä	-9.8205
▁tarkoin	-9.82052
▁tullessaan	-9.82065
▁jumalaton	-9.82114
▁leeviläisten	-9.82116
▁Autua	-9.82167
▁millä	-9.82191
▁päältä	-9.82192
▁palaa	-9.82244
▁erot	-9.82284
▁jouse	-9.82293
▁Ana	-9.82316
▁ajattele	-9.82374
▁oinasta	-9.82403
▁oikeus	-9.8241
▁hautaan	-9.82446
▁suun	-9.82468
▁saatana	-9.82494
▁kertoi	-9.82501
▁ilmestyi	-9.82508
vut	-9.82533
▁kutsunut	-9.82569
▁Iisakin	-9.82652
▁annat	-9.82652
tetut	-9.82727
▁Tuo	-9.82735
▁pian	-9.82769
▁paikkaa	-9.82904
▁kenen	-9.82925
▁rauhaa	-9.83098
▁tulevan	-9.83166
▁kerto	-9.83171
▁sato	-9.83254
▁valtasi	-9.83455
huone	-9.83482
▁suru	-9.83526
▁kes	-9.83597
▁teit	-9.83627
essään	-9.83663
▁toimi	-9.83854
▁herät	-9.83901
käämme	-9.84024
▁aterioi	-9.8409
▁haureutta	-9.8409
▁kompastu	-9.8409
▁ymmärrykse	-9.8409
▁Raakel	-9.8409
▁kirkas	-9.84091
▁polvi	-9.84091
▁rikas	-9.84092
▁haltuun	-9.84093
▁paikan	-9.84093
▁kurja	-9.84102
▁kahdes	-9.84103
▁kosto	-9.84103
▁ammonilaisten	-9.84106
▁käteensä	-9.84107
▁Eela	-9.84133
▁katsomaan	-9.84137
▁saapui	-9.84148
▁Egyptissä	-9.84151
▁pakanat	-9.84155
▁kuului	-9.84161
▁päähän	-9.84178
▁ruua	-9.84182
▁loppuun	-9.84193
▁anta	-9.84197
▁päätty	-9.84241
▁rakenna	-9.84326
▁raskaaksi	-9.8435
▁Moosesta	-9.84365
▁kirjoita	-9.84379
▁kukista	-9.84402
▁vuode	-9.84404
hdu	-9.84416
▁Ahabin	-9.84574
▁voiton	-9.8459
▁joista	-9.84597
▁faraolle	-9.84641
▁koskee	-9.84652
▁viime	-9.84756
laisten	-9.84812
▁vihollisten	-9.84934
▁kuuluva	-9.8505
▁virta	-9.85066
▁puolen	-9.85153
kerta	-9.85156
miseksi	-9.85189
▁aramilais	-9.85205
isesti	-9.85468
▁puhdist	-9.85543
paikka	-9.85587
▁voineet	-9.85802
▁pasuna	-9.85849
▁lähimmä	-9.86173
▁Beetlehem	-9.86173
▁Naftali	-9.86173
▁keskeltä	-9.86173
▁nähdessään	-9.86173
▁suvusta	-9.86173
▁kasvoja	-9.86174
▁viisisataa	-9.86174
▁Asarja	-9.86174
▁kuivu	-9.86174
▁tuntemaan	-9.86174
▁nähden	-9.86175
▁ehkä	-9.86176
▁hävittää	-9.86176
▁ottakaa	-9.86176
▁pitäkää	-9.86176
▁kiroa	-9.8618
▁sammu	-9.86182
▁rinna	-9.86183
▁iltaan	-9.8619
▁ikee	-9.86198
▁Baabeliin	-9.86241
▁fariseukset	-9.86243
▁tulo	-9.86249
▁kutsutaan	-9.86321
▁polveutu	-9.86349
▁kedolla	-9.86389
▁erään	-9.86395
▁valkoisi	-9.86455
▁Ota	-9.86497
▁vaari	-9.86499
▁opetuslapset	-9.86521
▁yötä	-9.86538
▁saattanut	-9.86549
▁tulta	-9.86607
▁ajatukse	-9.86667
▁henge	-9.86746
▁sisä	-9.86748
▁kestää	-9.86762
mattomi	-9.86799
▁evankeliumia	-9.86844
▁menköö	-9.86953
▁Israelista	-9.86963
▁sukua	-9.87049
▁Samarian	-9.87118
▁muka	-9.87232
▁esipihan	-9.87243
ttävät	-9.87268
▁päällikö	-9.87362
imin	-9.87369
▁oikeu	-9.87467
▁lohdutta	-9.87479
▁palveli	-9.87539
▁jumalattoma	-9.87606
R	-9.87625
▁suoja	-9.87696
▁hir	-9.87746
▁Edom	-9.87781
▁lapsen	-9.87808
▁käyvät	-9.87827
▁valtakunn	-9.87953
Ota	-9.87961
▁Jis	-9.88019
▁raskaa	-9.88041
▁Jumalasta	-9.88286
▁perus	-9.88294
H	-9.88295
▁kadu	-9.88298
3	-9.88301
▁Ismael	-9.88301
▁kasvonsa	-9.88301
▁kolmanne	-9.88301
▁löysi	-9.88301
▁pöyd	-9.88301
▁suvun	-9.88301
4	-9.88301
▁Sodoma	-9.88301
▁järve	-9.88301
▁leveä	-9.88301
▁sekeliä	-9.88301
▁tyynni	-9.88301
▁älkööt	-9.88301
▁ovelle	-9.88301
▁heettiläis	-9.88303
▁vartija	-9.88306
▁risti	-9.8831
▁ääreen	-9.88313
▁tällä	-9.88314
▁valtaa	-9.88315
▁vetten	-9.88321
▁siiv	-9.88325
▁myöten	-9.88348
▁viisaus	-9.88369
▁naiset	-9.88424
▁sapattina	-9.88448
▁merkki	-9.88449
▁kaupungeissa	-9.88484
▁Jokainen	-9.88524
▁vihamiehe	-9.88581
▁uskoo	-9.88585
▁sellaista	-9.88647
▁murha	-9.88673
▁ihmistä	-9.88681
▁kääntyy	-9.88684
▁teiltä	-9.88782
▁pysyvä	-9.88846
▁pyhän	-9.88864
▁tiedämme	-9.89054
▁tekoa	-9.89103
▁isänne	-9.89243
▁istuu	-9.89244
▁muurin	-9.89246
▁palasivat	-9.89264
Amen	-9.89276
tön	-9.89309
▁teissä	-9.8934
▁lampaat	-9.89407
Oi	-9.89469
▁hedelmän	-9.8949
udella	-9.89515
▁kumartui	-9.89533
osasto	-9.89753
B	-9.89794
▁sanokaa	-9.89968
▁istut	-9.90058
▁saadakse	-9.90136
urska	-9.90222
▁pidett	-9.90247
utuu	-9.90252
▁kymmen	-9.90274
▁saastaise	-9.90287
▁terve	-9.9044
▁tunnuste	-9.90475
▁Johanneksen	-9.90475
▁hylkäsi	-9.90475
▁kruunu	-9.90475
▁polttouhreja	-9.90475
▁siirty	-9.90475
▁kansoja	-9.90475
▁kaltainen	-9.90476
▁vuoret	-9.90479
▁Loot	-9.90479
▁pimeä	-9.90487
▁ylimmäisen	-9.90488
▁kantoi	-9.90493
▁valloitti	-9.90545
▁Seba	-9.90571
▁ojenta	-9.90573
▁tykösi	-9.90647
▁rakasti	-9.9066
▁varust	-9.90696
isessa	-9.90773
eitä	-9.90808
▁Leevin	-9.91107
▁kirje	-9.9126
▁vaipu	-9.91346
▁kanna	-9.9141
▁tekin	-9.91818
▁kuun	-9.91854
▁viimeise	-9.9198
▁Val	-9.9208
▁sur	-9.92148
▁täytä	-9.92169
▁juokse	-9.92171
▁Ahab	-9.92173
Ha	-9.92188
▁herättä	-9.92237
▁töi	-9.92239
▁omat	-9.9252
▁sapatti	-9.92545
▁nimet	-9.92662
▁seinä	-9.92663
▁Gideon	-9.92697
▁kaldealaisten	-9.92697
▁kirkkaus	-9.92697
▁käärme	-9.92697
▁synagooga	-9.92697
▁lestyj	-9.92697
▁annoit	-9.92698
▁kasvot	-9.92698
▁kerrottavaa	-9.92698
▁viipy	-9.92698
▁ylistys	-9.92698
▁elinaika	-9.92698
▁pitänyt	-9.92698
▁olleita	-9.92698
▁kukkuloi	-9.92698
▁Iisai	-9.92699
▁lopet	-9.92699
▁palvelijattare	-9.927
▁pellava	-9.92706
▁itseänne	-9.92707
▁villi	-9.9272
▁ylimmäinen	-9.92727
▁kuulin	-9.92739
▁maalle	-9.92753
▁taivasten	-9.92762
▁itsesi	-9.92773
▁Kuitenkin	-9.92798
▁pidät	-9.92813
▁kahl	-9.92834
▁kiitosta	-9.92956
▁kokoontuivat	-9.92978
▁kieli	-9.92991
▁korotta	-9.93055
▁veli	-9.9308
▁myöskään	-9.93081
▁menkää	-9.93143
dessä	-9.93211
▁näette	-9.93274
▁laskeutu	-9.93294
▁antava	-9.93307
▁tiedätte	-9.93331
▁unhotta	-9.93426
▁varma	-9.93434
▁enkelin	-9.93579
▁panna	-9.93658
▁voitto	-9.93738
▁täytty	-9.93755
nessä	-9.93881
▁istuva	-9.93968
▁tuoksu	-9.93977
.`"	-9.93999
▁kiven	-9.94047
▁ruumiinsa	-9.94116
▁mone	-9.94205
▁uuden	-9.94227
▁huudan	-9.94242
▁tapp	-9.94343
▁vailla	-9.94347
hun	-9.94451
▁juoksi	-9.94493
▁korjasi	-9.94761
▁rankaise	-9.94951
▁ensimmäinen	-9.9497
▁käskynhaltija	-9.9497
▁taivaaseen	-9.9497
▁varjele	-9.9497
Minkätähden	-9.9497
▁maanpiiri	-9.9497
▁siunaukse	-9.9497
▁rikkomukse	-9.94972
▁paranta	-9.94974
▁vapise	-9.94975
▁täyteen	-9.9499
mitta	-9.94996
▁toteen	-9.95001
▁viereen	-9.95065
▁opetti	-9.95121
▁Tar	-9.95158
▁tuhan	-9.95159
▁ylle	-9.9519
▁suurta	-9.95203
▁paina	-9.95344
▁yönä	-9.95489
▁lapsensa	-9.95551
▁voitti	-9.95598
▁Jeremialle	-9.95671
▁muille	-9.95696
▁menevät	-9.95767
▁elävän	-9.95821
eista	-9.95924
kivi	-9.95943
▁kurit	-9.96034
▁nousevat	-9.96107
misensa	-9.96136
▁vetä	-9.96299
etuksi	-9.96382
▁työn	-9.9649
▁pesköö	-9.96567
▁jälke	-9.96589
▁sanomaan	-9.96659
▁Eeli	-9.96756
▁Egypti	-9.97018
▁harjoitta	-9.9707
▁kunniaa	-9.97092
▁katsele	-9.97153
▁Juudea	-9.97295
▁pöytä	-9.97295
▁Naatan	-9.97296
▁Sakarja	-9.97296
▁hyljännyt	-9.97296
▁hyödy	-9.97296
▁jälkeläisille	-9.97296
▁keskuudesta	-9.97296
▁myrsky	-9.97296
▁ristiinnaulit	-9.97296
▁alttiiksi	-9.97296
▁Simeon	-9.97296
▁Siimei	-9.97296
▁Kirjat	-9.97296
▁henkeni	-9.97296
▁neljäntenä	-9.97296
▁syvyyde	-9.97297
▁Mispa	-9.97297
▁onnettomuus	-9.97301
▁saalista	-9.97303
▁lintu	-9.97303
▁niitten	-9.97306
▁suosio	-9.97317
▁ilmoitettiin	-9.97317
▁keskenään	-9.97318
▁muoto	-9.97322
▁rakkaus	-9.97371
▁itseäsi	-9.9745
▁Baalak	-9.97456
▁antakoo	-9.97468
▁ilmoittanut	-9.97502
ttomaksi	-9.97507
▁kirjoitti	-9.9753
▁lopun	-9.9771
kasv	-9.97713
▁pantu	-9.9773
▁katseli	-9.97764
▁syökö	-9.97797
▁antaisi	-9.97805
▁seurasivat	-9.97875
▁tuokoo	-9.97978
▁benjaminilais	-9.98002
▁laupeuden	-9.98019
▁Tah	-9.98054
▁vihassa	-9.98121
▁rakas	-9.98131
▁Saulille	-9.98174
täköön	-9.98227
▁hyvi	-9.98238
▁Ette	-9.98317
▁väkivaltaa	-9.98331
▁rakkaa	-9.98426
▁luki	-9.98665
▁erämaan	-9.98677
▁alttarille	-9.98788
ikoi	-9.98806
▁kenenkä	-9.98949
jumala	-9.98999
▁aseta	-9.99
Joka	-9.99147
▁kiviä	-9.9931
▁pettä	-9.99328
▁edessään	-9.99389
▁tyhjä	-9.99403
▁pelkäsi	-9.99515
▁suitsu	-9.99564
▁vahingo	-9.99676
▁Amasja	-9.99677
▁Joojakim	-9.99677
▁henkivartija	-9.99677
▁pyydä	-9.99677
▁ruhtinai	-9.99677
▁syttyi	-9.99677
▁ainoatakaan	-9.99677
▁merkit	-9.99677
▁huomenna	-9.99677
▁huone	-9.99679
▁lankea	-9.99679
▁Benaja	-9.9968
▁kullasta	-9.99681
▁Pojan	-9.99683
▁nisu	-9.99683
▁väsy	-9.99684
▁savu	-9.99687
▁riisu	-9.99699
▁paula	-9.99702
▁veljiensä	-9.99704
▁jumalien	-9.99716
▁tarkasta	-9.9972
▁muutamia	-9.99721
▁kiitä	-9.99739
▁eteenpäin	-9.99744
▁vihani	-9.99768
▁joutuisi	-9.99793
▁täytti	-9.99843
▁vankila	-9.99885
▁Eesaun	-9.99911
▁egyptiläiset	-9.99911
▁tarttui	-9.99993
▁unhota	-10.0007
▁valalla	-10.0021
▁töitä	-10.0028
▁kaatuvat	-10.0028
▁salaa	-10.0029
▁kukk	-10.0036
▁rauhaan	-10.0036
▁pyhien	-10.004
▁liittoni	-10.004
▁matkaa	-10.0065
▁palvelukse	-10.0074
▁pohjoi	-10.0076
▁huoka	-10.0081
▁Yl	-10.0084
▁rakka	-10.0085
▁pelastuksen	-10.0091
▁suori	-10.0091
▁omasta	-10.0094
▁nimeäsi	-10.0114
▁Isäni	-10.0115
puoli	-10.0138
▁oinaan	-10.0139
▁kohot	-10.0149
mmaksi	-10.0166
▁perintö	-10.0173
utti	-10.0174
▁ilmoittaa	-10.0191
▁vihasi	-10.0201
▁viisa	-10.0203
▁hyökkää	-10.0212
▁kiiruusti	-10.0212
▁voideltu	-10.0212
▁verho	-10.0212
▁huutavat	-10.0212
▁Aasafin	-10.0212
▁esikoinen	-10.0212
▁täysi	-10.0212
▁vaatteet	-10.0212
▁inho	-10.0212
▁tulkaa	-10.0212
▁lukumäärä	-10.0212
▁Etelä	-10.0212
▁Semaja	-10.0212
▁iloitsi	-10.0213
▁miten	-10.0213
▁synnyttänyt	-10.0213
▁ääressä	-10.0213
▁vedessä	-10.0214
▁parta	-10.0216
▁johta	-10.0217
▁annettava	-10.022
▁kuulevat	-10.0222
▁asettaa	-10.0223
▁otettu	-10.0224
▁apua	-10.023
isivät	-10.0234
lyt	-10.024
▁iso	-10.0241
nnan	-10.0254
▁levittä	-10.0263
▁tapasi	-10.0265
▁virran	-10.0268
▁murhe	-10.0276
▁vuodat	-10.0286
▁pyhää	-10.0304
isesta	-10.0305
▁soi	-10.0323
joita	-10.0345
▁määrää	-10.0345
▁antama	-10.035
ahin	-10.0351
▁väen	-10.0352
▁ruokaa	-10.0356
▁rakastavat	-10.0359
▁huoneessa	-10.0366
▁noudattaa	-10.0385
Sano	-10.0387
misesta	-10.0407
▁luku	-10.0408
▁tuokaa	-10.0421
▁yön	-10.0425
Eikö	-10.0425
▁Tai	-10.0429
▁kiitos	-10.0433
▁näyttä	-10.0441
▁teihin	-10.0443
▁puhuvat	-10.0445
iitetty	-10.045
▁raunio	-10.0457
▁haudat	-10.046
▁Ahasja	-10.0462
▁haureude	-10.0462
▁kaupungeista	-10.0462
▁kirjuri	-10.0462
▁maaherra	-10.0462
▁todistus	-10.0462
▁ylipapit	-10.0462
▁muukalainen	-10.0462
▁tunnusta	-10.0462
▁rakentanut	-10.0462
▁sukujensa	-10.0462
▁puutarha	-10.0462
▁käsivarte	-10.0462
▁vastustaja	-10.0462
▁hampa	-10.0462
▁peittää	-10.0462
▁kuorma	-10.0462
▁väisty	-10.0462
▁tuhannen	-10.0466
▁asukka	-10.0467
▁samaa	-10.0479
▁pakan	-10.0482
▁alati	-10.0485
▁tyttärensä	-10.0493
▁julist	-10.0502
▁keski	-10.0509
Hyvä	-10.0523
▁kohotta	-10.0527
▁joukkoon	-10.0528
▁vaimoksi	-10.053
▁Jumalaasi	-10.0537
▁tehkö	-10.0542
▁hallitse	-10.055
▁Edomin	-10.0552
▁yhdeks	-10.0558
▁hajotta	-10.0559
▁pysty	-10.0561
▁peljättävä	-10.0573
Jo	-10.0581
▁suussa	-10.0583
▁joissa	-10.0592
▁Salomolle	-10.0596
▁polttouhrin	-10.0628
▁laskeutui	-10.0649
▁Assur	-10.0666
▁kiitän	-10.067
▁Herraan	-10.0674
▁maansa	-10.0675
▁laiva	-10.068
päivänä	-10.0681
▁valitu	-10.0683
▁hautaa	-10.0692
▁jumalattoman	-10.0694
▁äär	-10.071
▁sadan	-10.0717
▁Gilgali	-10.0718
▁Simson	-10.0718
▁jälkeläisistä	-10.0718
▁nöyryy	-10.0718
▁sukukunnan	-10.0718
▁tapahtuva	-10.0718
▁tyttö	-10.0718
▁ulkopuolelle	-10.0718
▁orjattare	-10.0718
▁irti	-10.0718
▁kahdenkymmenen	-10.0718
▁kauas	-10.0718
▁ihana	-10.0718
▁Jesaja	-10.0718
▁pukeutu	-10.0718
▁paikoilleen	-10.0718
▁mittasi	-10.0719
▁sivuvaimo	-10.0719
▁muutoin	-10.0719
▁kupe	-10.072
▁suostu	-10.072
▁kuullen	-10.072
▁iankaikkisen	-10.0722
▁filistealaisia	-10.0724
▁ymmärrystä	-10.0725
▁kääntä	-10.0729
▁sulje	-10.073
▁alusta	-10.0731
▁nuole	-10.0734
▁erotta	-10.0737
▁samall	-10.0738
angen	-10.0738
▁mainit	-10.0738
▁juoma	-10.0746
▁vihollisia	-10.0748
▁kaitse	-10.0748
▁suuressa	-10.0749
uksesta	-10.0749
▁matkalle	-10.0756
▁kohtalo	-10.0763
▁valitsi	-10.0764
▁palvelivat	-10.0768
▁matkalla	-10.078
▁uni	-10.078
▁kirjaan	-10.0787
▁kadot	-10.0787
▁per	-10.079
▁kuuluu	-10.0797
▁puheen	-10.0799
▁päässä	-10.0803
▁kaikkine	-10.0804
▁perintömaa	-10.0805
▁Baalin	-10.0815
miehen	-10.082
▁Es	-10.0827
▁sotajoukon	-10.0829
▁toimitti	-10.0831
▁kulutt	-10.0836
▁opeta	-10.0857
▁silmäin	-10.0876
▁talonsa	-10.0876
▁kävisi	-10.0889
▁sielunsa	-10.0891
▁Mah	-10.0904
▁rangaist	-10.0906
▁teurasta	-10.0916
▁palvelijalle	-10.0925
lliseksi	-10.0928
▁poiki	-10.096
▁paljoa	-10.0961
▁heikko	-10.0978
▁tuulen	-10.0981
▁Hesbon	-10.0981
▁kasvosi	-10.0981
▁löytänyt	-10.0981
▁profeettoja	-10.0981
▁rypäle	-10.0981
▁vaeltavat	-10.0981
▁viikunapuu	-10.0981
▁katkera	-10.0981
▁mooabilai	-10.0981
▁säästä	-10.0981
▁usein	-10.0981
▁pelasti	-10.0981
▁tarpee	-10.0981
▁taivaissa	-10.0981
▁ulkopuolella	-10.0981
▁puhutteli	-10.0981
▁julki	-10.0981
▁leski	-10.0981
▁joukon	-10.0982
▁rukous	-10.0982
▁sortu	-10.0983
▁otsa	-10.0983
▁vallassa	-10.0984
▁runsaasti	-10.0984
▁Siinai	-10.0986
▁asukkaita	-10.0988
▁pyhitetty	-10.0988
▁auttaa	-10.0988
▁kaikkinaisi	-10.099
▁jättänyt	-10.0993
▁kirjanoppineet	-10.0993
▁leeviläisille	-10.0996
▁kuninkaita	-10.0997
▁ellei	-10.1
▁Sinu	-10.1004
▁puettu	-10.1005
▁kulma	-10.1008
▁menneet	-10.1015
▁sotimaan	-10.1019
▁evankeliumin	-10.1021
▁suureksi	-10.1024
taessa	-10.1024
▁osaa	-10.1035
▁ilmestysmaja	-10.1037
▁Pois	-10.1037
▁kukistu	-10.104
Ja	-10.1041
▁palvelijallesi	-10.1042
▁voimasta	-10.1046
▁sanasi	-10.1049
▁vienyt	-10.106
▁Uuria	-10.1078
▁armoa	-10.1089
▁väh	-10.1095
▁Daavidia	-10.1098
▁veljelle	-10.1104
▁kasvaa	-10.1142
▁oinas	-10.1144
▁päiviä	-10.1145
▁linnu	-10.1158
▁suuni	-10.1164
▁viisauden	-10.1171
matto	-10.1174
▁siemen	-10.1183
▁ajaa	-10.1189
▁sula	-10.1195
▁tottele	-10.1201
▁katsokaa	-10.1204
▁vuoristo	-10.1206
▁tuonela	-10.1222
▁vaimoja	-10.1237
▁karkoitta	-10.1244
▁puole	-10.1248
▁alueen	-10.1251
▁urho	-10.1251
▁hoviherra	-10.1251
▁hyljänneet	-10.1251
▁jebusilais	-10.1251
▁profeetoi	-10.1251
▁syntivelka	-10.1251
▁vääryyde	-10.1251
▁käsivarre	-10.1251
▁asuinsija	-10.1251
▁seitsemänsataa	-10.1251
▁kumarsi	-10.1252
▁hunaja	-10.1252
▁ikuise	-10.1252
▁nuoruude	-10.1252
▁tuuli	-10.1252
▁käden	-10.1252
▁liitty	-10.1253
▁aikakirjas	-10.1253
▁pahuude	-10.1253
▁osoita	-10.1254
▁käänsi	-10.1254
▁viinipuu	-10.1254
▁kullan	-10.1255
▁pahoj	-10.1256
▁kuluttaa	-10.1258
▁vainio	-10.1261
▁eloon	-10.1262
▁sydämenne	-10.1264
▁suuhun	-10.1266
▁sukupolvesta	-10.1267
▁tielle	-10.1267
▁valkeus	-10.1271
▁Koo	-10.1272
▁sukupolveen	-10.1274
▁vanhurskaus	-10.1274
▁laula	-10.1277
▁tuotiin	-10.1278
▁leikkaa	-10.1279
▁mielellä	-10.128
▁turhaan	-10.128
▁kalut	-10.1281
syt	-10.1284
▁saastaiseksi	-10.1285
▁vaate	-10.1287
▁hävitti	-10.1288
▁tahdot	-10.1291
▁alku	-10.1291
▁avuksi	-10.13
▁käskyjäni	-10.13
▁korvat	-10.1318
▁kunnioitta	-10.1329
▁rikoksen	-10.1334
▁täyttää	-10.1336
▁perintöosaa	-10.1339
of	-10.136
▁herransa	-10.1371
▁jalkansa	-10.1383
Et	-10.1387
▁viisaude	-10.1399
▁kirjan	-10.1403
▁luut	-10.141
▁tyttäret	-10.1416
jille	-10.1463
▁Gilead	-10.1477
▁edes	-10.1478
kunta	-10.1481
Käy	-10.1482
▁leeviläis	-10.1483
▁Mene	-10.1488
▁ollessa	-10.1499
▁itsenne	-10.1522
▁kahdeksankymmen	-10.1524
▁Kaaleb	-10.1529
▁Karitsa	-10.1529
▁Siihon	-10.1529
▁eefa	-10.1529
▁kerskaa	-10.1529
▁seurakunnalle	-10.1529
▁sukukunnalta	-10.1529
▁suvuittain	-10.1529
▁talenttia	-10.1529
▁parhaa	-10.1529
▁vastapäätä	-10.1529
▁syrjä	-10.1529
▁kuoltava	-10.1529
▁sydämeen	-10.1529
▁Jisreel	-10.1529
▁oksa	-10.1529
▁ovet	-10.1529
▁papille	-10.1529
▁verkko	-10.153
▁kiivaute	-10.153
▁onnettomuutta	-10.153
▁Leea	-10.153
▁arv	-10.153
▁öljypuu	-10.1531
▁nopeasti	-10.1533
▁otetaan	-10.1537
▁armollinen	-10.1538
▁öljyllä	-10.1541
▁valhetta	-10.1542
▁herätti	-10.1544
▁uskollinen	-10.1547
▁entise	-10.1548
▁itku	-10.155
▁kulkea	-10.1552
▁kulkemaan	-10.1558
▁suur	-10.156
▁tuottaa	-10.156
▁ympärinsä	-10.1563
▁veljilleen	-10.1567
▁sekelin	-10.1579
▁siemene	-10.1584
▁Sebaotin	-10.161
▁pahoi	-10.1611
▁sanansaattajat	-10.1613
▁äitini	-10.1616
▁huuda	-10.162
▁Oli	-10.1645
▁luovu	-10.1646
▁Nouse	-10.1654
har	-10.1659
▁opetuslapsille	-10.1673
alainen	-10.1681
▁kaupunkinsa	-10.1681
▁Niinpä	-10.1687
▁piiri	-10.1691
▁selkään	-10.1699
▁kasta	-10.1708
▁aiko	-10.1715
ttäköön	-10.1722
issaan	-10.1726
`?	-10.1734
▁Kaa	-10.1739
▁pahoin	-10.1748
▁kuuden	-10.1755
Vie	-10.1775
▁käsissä	-10.1785
▁aikoi	-10.1797
▁Sil	-10.1799
▁ulko	-10.18
ettaisiin	-10.1804
▁vallan	-10.1812
▁Goo	-10.1814
▁venhe	-10.1814
▁Midiani	-10.1815
▁epäjumali	-10.1815
▁peitti	-10.1815
▁perhekunnittain	-10.1815
▁poikkea	-10.1815
▁edelleen	-10.1815
▁kilpe	-10.1815
▁riivaaja	-10.1815
▁polku	-10.1815
▁Viisa	-10.1815
▁ovella	-10.1815
▁vihmo	-10.1815
▁vaatteita	-10.1815
▁halpana	-10.1815
▁luvun	-10.1815
▁korkeude	-10.1815
▁näytti	-10.1815
▁kiroukse	-10.1815
▁epäjumala	-10.1816
▁pyhäkön	-10.1816
▁näytä	-10.1816
▁viitta	-10.1817
▁halaja	-10.1817
▁Siilo	-10.1819
▁seitsemäs	-10.182
▁Seiri	-10.1821
▁vainaja	-10.1821
▁pyhäkköön	-10.1822
▁kylä	-10.1825
▁Jooah	-10.1825
▁rutto	-10.1828
▁itselleni	-10.1829
▁sorme	-10.183
▁myi	-10.1833
▁vatsa	-10.1833
▁sanottiin	-10.1835
▁sydämessään	-10.1841
▁oleskel	-10.1844
▁viljaa	-10.1846
▁pojilleen	-10.1849
▁ryhtyi	-10.1849
▁syömään	-10.1852
▁kotka	-10.1856
▁hevoset	-10.1864
▁riistä	-10.1868
▁asetu	-10.1876
▁polveen	-10.1881
▁alta	-10.1885
▁esille	-10.1885
inensa	-10.1894
▁vuodata	-10.1911
▁arki	-10.1916
▁korkealle	-10.1918
▁vavis	-10.1922
▁suola	-10.1928
▁uskosta	-10.194
▁painoi	-10.1941
▁hyvänsä	-10.1942
▁opettaa	-10.1951
▁käskyt	-10.1952
▁Jerikon	-10.1962
▁käskyä	-10.1965
▁väärin	-10.198
▁eläisi	-10.1983
▁istuivat	-10.1987
▁elo	-10.1988
▁vannoi	-10.2
llisia	-10.2001
▁puhdistu	-10.2001
▁toimittakoo	-10.2005
▁kunnioit	-10.2028
▁asetan	-10.2058
▁henkiin	-10.2064
▁Beerseba	-10.2109
▁Hilkia	-10.2109
▁ateria	-10.2109
▁jalopeura	-10.2109
▁kohdalle	-10.2109
▁perkele	-10.2109
▁purppuranpunais	-10.2109
▁ympäröi	-10.2109
▁kuukautta	-10.2109
▁palvella	-10.2109
▁särje	-10.2109
▁kädet	-10.2109
▁säädetty	-10.2109
▁mieltä	-10.2109
▁sarvi	-10.2109
▁vanhinten	-10.2109
▁papeille	-10.211
▁muisti	-10.211
▁Hamati	-10.2111
▁avio	-10.2111
▁perusta	-10.2112
▁lante	-10.2114
▁päättänyt	-10.2115
▁häviä	-10.2118
▁kyynel	-10.2118
▁lepää	-10.2121
▁juutalaisia	-10.2122
Tehkää	-10.2125
▁vasemmalle	-10.2127
▁pelkäsivät	-10.2129
▁kuolisi	-10.213
▁laaksoon	-10.2135
▁ollessaan	-10.2143
▁lupaus	-10.2145
▁harjoit	-10.2152
▁karjaa	-10.216
▁voittaa	-10.2163
▁korjaa	-10.2164
▁edellänsä	-10.2164
▁ilmoitan	-10.2167
▁vannonut	-10.2171
▁pese	-10.2173
▁vaiti	-10.2173
▁uskossa	-10.2175
▁käsiisi	-10.2189
▁vuorille	-10.2196
▁laissa	-10.2208
▁aro	-10.2209
▁ympärileikkaama	-10.2218
▁perintöosansa	-10.2223
▁omiksi	-10.2226
▁liia	-10.2271
▁Joosualle	-10.2274
▁leiriyty	-10.2279
▁korja	-10.2343
kirja	-10.2345
▁kansaani	-10.2355
▁kaikkialla	-10.2358
▁syntie	-10.2379
▁turha	-10.238
▁teemme	-10.2387
▁mielisty	-10.2407
▁sääd	-10.2412
0	-10.2412
▁Sebuloni	-10.2412
▁Siidon	-10.2412
▁kansoille	-10.2412
▁kuningatar	-10.2412
▁laupeutta	-10.2412
▁mullikan	-10.2412
▁pimeyden	-10.2412
▁rohkea	-10.2412
▁vapahta	-10.2412
▁pimeys	-10.2412
▁riensi	-10.2412
▁Joohanan	-10.2412
▁ihmetteli	-10.2412
▁viidentenä	-10.2412
▁maitoa	-10.2412
▁reuna	-10.2412
▁kiivastu	-10.2412
▁liikku	-10.2412
▁kaune	-10.2412
▁kaunii	-10.2413
▁iäti	-10.2413
▁kohtu	-10.2413
▁jokaiselle	-10.2413
▁kotona	-10.2413
▁hovi	-10.2413
▁tappaja	-10.2413
▁pohjoiseen	-10.2414
▁kaltaiseksi	-10.2415
▁valtakunnassa	-10.2416
▁sisarensa	-10.2418
▁setri	-10.242
▁vuoristoon	-10.2423
▁syötävä	-10.2423
▁vuodatti	-10.2425
▁käsiinsä	-10.2429
▁kuolleit	-10.2431
▁omaksesi	-10.2432
▁tiennyt	-10.2432
▁rikkonut	-10.2432
▁etsimään	-10.2433
▁koira	-10.2434
▁porttie	-10.2436
▁sido	-10.2437
▁tultuaan	-10.2439
▁itseään	-10.2443
▁valmistanut	-10.2444
▁valmisti	-10.245
▁kääntyivät	-10.2455
▁sanovan	-10.2456
▁kaatuu	-10.2468
▁pelastanut	-10.2471
▁tapaa	-10.2477
▁Aak	-10.2478
▁tahdotte	-10.248
▁vihi	-10.2481
▁syönyt	-10.2482
▁voittivat	-10.2487
▁mieleen	-10.2488
▁Libanon	-10.2493
▁ikä	-10.2507
▁Noo	-10.2526
▁vanhurskaan	-10.254
▁kohtasi	-10.2544
▁kuolevat	-10.2558
▁Joonatanin	-10.256
▁uskoneet	-10.2562
▁heimolle	-10.2562
miseen	-10.2568
▁ensimmäis	-10.2571
▁Sy	-10.2575
▁mah	-10.2575
▁Menkää	-10.2575
▁sanoneet	-10.259
▁tuoneet	-10.2594
▁sanansaattaja	-10.2631
▁jälj	-10.264
▁voimassa	-10.264
▁päiväksi	-10.2651
Älköön	-10.2657
laakso	-10.2657
▁tappoi	-10.2684
▁Daan	-10.2703
eluja	-10.2706
▁vanki	-10.2707
▁ohi	-10.2724
▁Oobed	-10.2725
▁Gedalja	-10.2725
▁amalekilais	-10.2725
5	-10.2725
▁Gibeoni	-10.2725
▁Nebukadressar	-10.2725
▁kelpaa	-10.2725
▁löytää	-10.2725
▁nälänhätä	-10.2725
▁puhalsi	-10.2725
▁terällä	-10.2725
▁ylhäis	-10.2725
▁suitsuketta	-10.2725
▁ehtoo	-10.2725
▁vuorelta	-10.2725
▁Merari	-10.2725
▁pitämään	-10.2725
▁ikuinen	-10.2725
▁Asseri	-10.2725
▁Usko	-10.2725
▁huoli	-10.2725
▁härän	-10.2725
▁kahdentena	-10.2725
▁kahta	-10.2725
▁ilmi	-10.2725
▁säädös	-10.2725
▁kielsi	-10.2725
▁toteutu	-10.2725
▁taivaalli	-10.2726
▁saattoi	-10.2726
▁huono	-10.2726
▁kääri	-10.2727
▁luule	-10.2727
▁vieressä	-10.2728
▁punnit	-10.2728
▁Kaike	-10.2728
▁tuntee	-10.2729
▁sidottu	-10.273
▁kanaanilaiset	-10.2731
▁pystytti	-10.2732
▁ottaisi	-10.2732
▁kutsuttiin	-10.2733
▁palmu	-10.2736
▁vihollisesi	-10.2739
▁nuort	-10.274
▁Too	-10.274
▁vanhurskaat	-10.2751
▁aio	-10.2759
▁jokapäiväis	-10.2761
ttaviksi	-10.2761
▁temppelistä	-10.2765
▁Baasanin	-10.2769
▁julisti	-10.277
▁salassa	-10.2775
jien	-10.2775
▁kansaansa	-10.2778
abb	-10.2783
puhta	-10.2789
▁puhtaaksi	-10.2791
▁Jooas	-10.2795
▁Olkoon	-10.2804
▁tarkkaa	-10.2811
▁varasta	-10.2817
▁jääneet	-10.2817
▁puhuneet	-10.2822
▁vitsa	-10.2828
▁turvassa	-10.2831
▁ilmaise	-10.2846
▁maista	-10.2852
▁saakoon	-10.2886
▁kallis	-10.2901
▁kallista	-10.2912
▁tytärtä	-10.2921
▁haava	-10.2925
▁Jumalaanne	-10.2934
▁luonut	-10.2951
ukselle	-10.2965
virran	-10.2979
puolen	-10.2981
▁taivas	-10.3011
▁kokoontui	-10.3012
kkoja	-10.3023
▁orjantappura	-10.3047
▁sotaurho	-10.3047
)	-10.3047
▁Herodes	-10.3047
▁Kaikkivaltias	-10.3047
▁leveys	-10.3047
▁midianilais	-10.3047
▁sukukuntien	-10.3047
▁säätänyt	-10.3047
▁tähtenne	-10.3047
▁hetkellä	-10.3047
▁kohosi	-10.3047
▁otollinen	-10.3047
▁pysähty	-10.3047
▁murehti	-10.3047
▁torni	-10.3047
▁häpäise	-10.3047
▁rangaistakoon	-10.3047
▁huutaa	-10.3047
▁ikuisi	-10.3047
▁haavoi	-10.3047
▁muinais	-10.3048
▁Neba	-10.3048
▁vuonna	-10.3048
▁menette	-10.3049
▁tervehti	-10.305
▁oikeuksia	-10.305
▁ammonilaiset	-10.3052
▁raunioiksi	-10.3053
▁kuolleen	-10.3056
ykset	-10.306
▁isäänsä	-10.306
▁kuohu	-10.3061
▁asumus	-10.3063
▁omaksenne	-10.3063
▁vuotaa	-10.3064
▁Har	-10.3066
▁korkeasti	-10.3073
▁esipihaan	-10.3075
▁koetel	-10.3078
▁tuonelaan	-10.3086
▁valittu	-10.3088
▁asera	-10.3089
▁lähtevät	-10.3091
▁maailmassa	-10.3095
▁pasunaan	-10.3098
▁Libanonin	-10.3103
▁Abia	-10.3111
▁päivällä	-10.3112
▁iloitsee	-10.3118
▁pitki	-10.3126
▁lähelle	-10.3136
▁teetti	-10.3138
▁perintöosaksi	-10.3145
▁oikeassa	-10.3145
▁ajoivat	-10.3149
▁tehdään	-10.315
▁syntinsä	-10.3155
▁kappale	-10.3158
▁oikeamielis	-10.3173
▁hengessä	-10.3174
▁Juudassa	-10.3191
▁päälliköt	-10.3192
▁lähetä	-10.3223
▁pohj	-10.3227
▁tuomaan	-10.3243
▁Jooabin	-10.3243
▁suojaa	-10.329
palvelija	-10.3308
▁lähestyi	-10.3316
▁surmattu	-10.3325
▁voimansa	-10.3328
ira	-10.3352
▁hämmästy	-10.3378
Opettaja	-10.338
▁Ebjatar	-10.338
▁Tervehdy	-10.338
▁hyötyä	-10.338
▁jäännökse	-10.338
▁kohdata	-10.338
▁liitonarkki	-10.338
▁nuhteli	-10.338
▁pyrki	-10.338
▁tasango	-10.338
▁hedelmiä	-10.338
▁repäisi	-10.338
▁vikauhri	-10.338
▁länteen	-10.338
▁vedellä	-10.338
▁Ussia	-10.338
▁kohdusta	-10.338
▁turhi	-10.3381
▁vetäyty	-10.3381
▁Jefta	-10.3381
▁Saafan	-10.3381
▁auttaja	-10.3381
▁kullakin	-10.3381
▁riippu	-10.3381
▁määrännyt	-10.3381
▁yhtenä	-10.3381
▁Nuun	-10.3382
▁Sooba	-10.3382
▁korotti	-10.3382
▁putosi	-10.3383
▁valtia	-10.3384
▁iankaikkiseen	-10.3384
▁huorin	-10.3384
▁viedä	-10.3391
▁erikseen	-10.3395
▁pappeja	-10.3395
▁Jooaan	-10.3397
▁kaista	-10.3405
irottu	-10.3407
▁taivasta	-10.3411
▁mahtava	-10.3419
▁sallinut	-10.3424
▁kaik	-10.3424
▁tappoivat	-10.3424
▁hetki	-10.3428
▁kääntyneet	-10.3429
▁vuorilla	-10.3435
▁jakoi	-10.3438
mitan	-10.3439
▁ihmisille	-10.3443
▁toimita	-10.3446
▁täydellis	-10.3449
▁Joona	-10.3458
▁palvelijaisi	-10.346
▁lohdutukse	-10.3462
▁tuomitsee	-10.3471
▁Vaik	-10.3477
▁vertaista	-10.3481
neinä	-10.3483
▁elämään	-10.3483
▁pelkäävät	-10.3485
▁valheen	-10.3501
▁kuulette	-10.3525
▁vääri	-10.3529
▁ahdistus	-10.353
▁palata	-10.3544
▁syyllis	-10.3545
▁polttakoo	-10.3548
▁lohdut	-10.3555
▁unhot	-10.3556
▁tuonut	-10.3577
työ	-10.3583
▁ympärileikkaa	-10.3599
▁Al	-10.3611
▁lisä	-10.3615
▁näkevä	-10.3632
▁talosta	-10.3644
Emme	-10.3649
▁valloitta	-10.3698
▁pelastukse	-10.3705
▁käteen	-10.3724
▁sapatin	-10.3725
▁Amnon	-10.3725
▁Hengessä	-10.3725
▁miehestä	-10.3725
▁noutamaan	-10.3725
▁päällysmieh	-10.3725
▁sukukunnat	-10.3725
▁tähdet	-10.3725
▁tähtensä	-10.3725
Nouskaa	-10.3725
▁pikkukarja	-10.3725
▁riivaaji	-10.3725
▁suvut	-10.3725
▁tunkeutu	-10.3725
▁kaukaise	-10.3725
▁kehoita	-10.3725
▁tehtävi	-10.3725
▁hävitetään	-10.3725
▁kylineen	-10.3725
▁Hananja	-10.3725
▁Persia	-10.3725
▁puhalta	-10.3725
▁herjaa	-10.3725
▁kannettava	-10.3725
Lähde	-10.3725
▁toimeen	-10.3726
▁laittoi	-10.3726
▁eteesi	-10.3726
▁rakentama	-10.3726
▁puolust	-10.3726
▁kymmenykset	-10.3726
▁tytärkaupungit	-10.3726
▁Koorah	-10.3726
Salli	-10.3726
▁pitäisi	-10.3726
▁kummall	-10.3727
▁menehty	-10.3727
▁kenellekään	-10.3727
▁Toise	-10.3728
▁takana	-10.3728
▁herralleni	-10.3729
▁ensiksi	-10.373
▁elävien	-10.3733
▁levitti	-10.3738
▁viedään	-10.3738
▁kiellä	-10.3743
mattomat	-10.3746
▁seisovan	-10.3747
laisille	-10.3747
▁ilmestysmajassa	-10.3751
▁niska	-10.3753
ttaman	-10.3754
▁pyysivät	-10.3754
▁käskyjänsä	-10.3758
▁puhetta	-10.3759
▁tunsi	-10.3765
▁Olka	-10.3771
▁uhraamaan	-10.3771
▁rakkaani	-10.3775
▁kedolle	-10.3778
▁raavasta	-10.3781
▁kimppuunsa	-10.3783
▁näyttää	-10.3783
▁jäivät	-10.3784
▁Ottakaa	-10.3785
▁sul	-10.3787
▁hyviä	-10.3789
arempi	-10.379
▁kirjassa	-10.3794
▁Joosefille	-10.3796
▁hukkuvat	-10.3797
▁kuninkaallise	-10.3799
▁petosta	-10.3801
▁opettaja	-10.3805
▁jalat	-10.3814
▁kirjoitus	-10.3815
▁suitsutus	-10.3838
▁asuva	-10.3842
▁keskellänsä	-10.3856
▁pyörä	-10.3866
▁linnassa	-10.3901
▁tekijä	-10.3904
Kenen	-10.3905
▁syvä	-10.3942
▁kukist	-10.3953
▁taidollis	-10.3964
▁ratk	-10.3965
Kuulkaa	-10.4015
portin	-10.4015
▁paimenta	-10.4042
▁hauta	-10.4064
▁filistealais	-10.4073
▁päämiesten	-10.4073
euraavana	-10.408
▁viivy	-10.4082
pellavalangoista	-10.4082
▁Jeesua	-10.4082
▁Sallum	-10.4082
▁aivoituks	-10.4082
▁hyökkäsi	-10.4082
▁kansakunnat	-10.4082
▁langoista	-10.4082
▁seitsenhaarai	-10.4082
▁turhuutta	-10.4082
▁Baesa	-10.4082
▁ikkuna	-10.4082
▁ovenvartija	-10.4082
▁äidin	-10.4082
▁pohjoisesta	-10.4082
▁tahra	-10.4082
▁jumalankuva	-10.4083
▁paransi	-10.4083
▁väkeä	-10.4083
▁nimittäin	-10.4083
▁puolta	-10.4083
▁vaskea	-10.4083
▁pituus	-10.4083
▁tavoin	-10.4083
▁kullekin	-10.4083
▁hiekka	-10.4083
▁pahuute	-10.4084
▁sellainen	-10.4084
▁totuudessa	-10.4085
▁rakkautta	-10.4085
▁nautti	-10.4086
▁tehdy	-10.4086
▁minne	-10.4086
Päästä	-10.4086
▁polu	-10.4086
▁päähänsä	-10.4087
▁paljaa	-10.4088
▁hopeasekeli	-10.4088
▁autua	-10.4089
▁kymmenentuhatta	-10.4089
▁revi	-10.409
▁ottako	-10.409
▁tutkistel	-10.4091
▁kaduilla	-10.4094
▁Serah	-10.4096
▁alueelle	-10.4096
▁noja	-10.4096
▁teurasti	-10.4096
▁Esra	-10.4099
▁valloit	-10.4099
▁Isältä	-10.41
▁haara	-10.4101
▁karkoittanut	-10.4102
▁veteen	-10.4104
▁vieras	-10.4104
▁joutunut	-10.4106
▁joutuneet	-10.4107
Siunat	-10.4108
▁vasten	-10.4114
▁peitä	-10.412
▁kädessään	-10.4121
Minull	-10.4122
▁rikkoo	-10.4123
▁Ruubenin	-10.4124
Rauha	-10.4131
▁leirissä	-10.4136
Tulkoo	-10.4138
▁rukoilemaan	-10.414
▁Bi	-10.414
▁aamuna	-10.4144
▁antautu	-10.4146
▁uskoivat	-10.4147
▁puhdasta	-10.4147
▁Suuri	-10.4147
▁kaikella	-10.4158
▁kuolla	-10.4167
▁ystäv	-10.4168
▁maailmaan	-10.4171
▁erämaa	-10.4182
▁vaelsivat	-10.4182
▁tänään	-10.419
▁ihmeellis	-10.4191
uudella	-10.4206
ttämään	-10.4207
▁veljille	-10.4213
Sanokaa	-10.422
▁syökää	-10.424
▁suuremma	-10.4249
▁aramilaise	-10.4253
▁kaata	-10.4297
▁Kiis	-10.4332
▁yht	-10.4354
▁tarkoit	-10.4368
▁pojille	-10.4374
▁Baasan	-10.44
▁ryhty	-10.4409
▁tultua	-10.442
▁seurat	-10.444
▁nuhtee	-10.4451
▁edeltä	-10.4452
▁Vanhurskaa	-10.4453
▁aarrekammio	-10.4453
▁edustalle	-10.4453
▁opetuslasten	-10.4453
▁portissa	-10.4453
▁portto	-10.4453
▁sotarintaan	-10.4453
▁täältä	-10.4453
▁virheetön	-10.4453
▁aasintamma	-10.4453
▁kuivettu	-10.4453
▁mielisuosio	-10.4453
▁mietti	-10.4453
▁sukupolvi	-10.4453
▁ymmärsi	-10.4453
▁vanhurskaudessa	-10.4453
▁Henkeä	-10.4453
▁selässä	-10.4453
▁synneistä	-10.4453
▁valitsee	-10.4453
▁ankara	-10.4453
▁kahdeksantena	-10.4453
▁viittä	-10.4453
▁avoin	-10.4454
▁iloiten	-10.4454
▁Armo	-10.4456
▁kasvoillensa	-10.4457
▁totuus	-10.4458
▁kirjoittanut	-10.4458
▁silmin	-10.4459
▁nouda	-10.4466
▁katsel	-10.447
▁Sana	-10.4471
▁sateen	-10.4479
▁Samariaan	-10.4481
▁ilmestyy	-10.4485
▁tahtoneet	-10.45
▁Antakaa	-10.4501
▁viinistä	-10.4503
▁selittä	-10.4505
▁maihin	-10.4507
▁Daanin	-10.4516
▁mielensä	-10.4517
▁vaadi	-10.4519
▁veljenne	-10.4534
isee	-10.4534
▁puita	-10.4538
▁kertoivat	-10.4538
▁puno	-10.4542
▁ilma	-10.4574
▁esipiha	-10.4609
▁hengestä	-10.4616
▁syökse	-10.4626
▁Jeriko	-10.4649
▁kirjeen	-10.4699
sekelin	-10.4763
Isä	-10.4773
▁antako	-10.4774
▁erää	-10.4797
▁menkö	-10.4815
▁uhrikukkuloi	-10.4837
▁kohdannut	-10.4837
▁lippu	-10.4837
▁portit	-10.4837
▁suvulle	-10.4837
9	-10.4837
▁Baaruk	-10.4837
▁etiopialai	-10.4837
▁ikävöi	-10.4837
▁rakkaudessa	-10.4837
▁Seruja	-10.4837
▁siirtä	-10.4837
▁Taamar	-10.4837
▁keisari	-10.4837
▁Aahas	-10.4837
▁poimi	-10.4838
▁vuorten	-10.4838
▁kykene	-10.4838
▁reväis	-10.4838
▁tunteneet	-10.4838
▁paikalle	-10.4838
▁rakentava	-10.4838
▁viaton	-10.4838
▁Kehati	-10.4838
▁kahtakymmentä	-10.4838
▁murskaa	-10.4838
▁mukaisesti	-10.4838
▁setripuu	-10.4839
▁tehköön	-10.4839
▁nuhteeton	-10.4839
▁Jootam	-10.4839
▁linno	-10.4839
▁ohja	-10.484
▁muukalaisena	-10.484
▁katsee	-10.4841
▁vapautta	-10.4844
▁kasvoilleen	-10.4844
▁kokonaan	-10.4845
▁teettänyt	-10.4846
▁Teidän	-10.4846
▁velka	-10.4846
▁tekosi	-10.4848
▁pantiin	-10.4848
▁palvelijainsa	-10.4849
▁naisia	-10.4849
▁kieltänyt	-10.4852
▁askelee	-10.4853
▁Samariassa	-10.4855
▁täyttänyt	-10.4855
▁voiteli	-10.4856
▁majoi	-10.4856
▁Hall	-10.4857
▁antaneet	-10.4861
▁hakkaa	-10.4862
▁hävitys	-10.4862
▁elossa	-10.4863
▁eläinten	-10.4864
▁polttaa	-10.4864
▁tietäisi	-10.4865
▁asettunut	-10.4866
▁etelään	-10.4868
▁karkoitti	-10.4869
▁voittanut	-10.4871
▁Bil	-10.4872
▁hankkinut	-10.4883
▁Gaadin	-10.4886
▁seisomaan	-10.4909
Ihmis	-10.4948
▁uhrilahjana	-10.4948
▁soitta	-10.4953
▁tuoksuva	-10.5009
▁vitsaus	-10.501
▁onnettomuude	-10.5085
▁vihamiehi	-10.509
▁Isaskari	-10.5117
Ottakaa	-10.5169
Nämä	-10.517
Kosk	-10.5172
läinen	-10.5191
▁mielettöm	-10.5202
▁kirjanoppine	-10.5219
▁kenelle	-10.5236
▁Benhadad	-10.5237
▁Booas	-10.5237
▁Korkeimman	-10.5237
▁Mesullam	-10.5237
▁hivviläis	-10.5237
▁kasvoni	-10.5237
▁kimppuusi	-10.5237
▁kirjakäärö	-10.5237
▁kyyhkys	-10.5237
▁laidun	-10.5237
▁nuorukainen	-10.5237
▁pakanakansat	-10.5237
▁profeetan	-10.5237
▁hebrealais	-10.5237
▁nöyrty	-10.5237
▁pojista	-10.5237
▁puhkesi	-10.5237
▁juhli	-10.5237
▁kansoista	-10.5237
▁kapinoi	-10.5237
▁Aabel	-10.5237
▁asukasten	-10.5237
▁yhdist	-10.5237
▁Hadad	-10.5237
▁tempaa	-10.5237
▁kokoontuneet	-10.5237
▁punasinisistä	-10.5237
▁torvi	-10.5238
▁arvioi	-10.5238
▁virrat	-10.5238
vastoin	-10.5238
▁Neljä	-10.5238
▁hurskaa	-10.5238
▁parantu	-10.5238
▁Arnon	-10.5238
▁ojenna	-10.5239
▁huudon	-10.5239
▁sytyttä	-10.5241
▁semmois	-10.5242
▁totuutta	-10.5243
▁päämiehiä	-10.5244
▁lammasten	-10.5245
▁jännit	-10.5245
▁piiritti	-10.5246
▁kuritta	-10.5252
▁virittä	-10.5254
▁voimallinen	-10.5255
▁Noomi	-10.5258
▁ihmiselle	-10.5259
▁ulkona	-10.5259
▁haju	-10.5259
▁otin	-10.5267
▁erämaasta	-10.5272
ttömäksi	-10.5274
▁omaksensa	-10.5275
▁pojillensa	-10.5276
▁Koko	-10.5279
▁soitti	-10.5281
▁tyhjäksi	-10.5284
▁lapsenne	-10.5289
▁toimittanut	-10.5289
▁toimittamaan	-10.5291
▁tartu	-10.53
▁säilyttä	-10.5304
▁käskystä	-10.5314
▁vään	-10.5326
▁kaikkinaist	-10.5334
▁avulla	-10.5338
▁hama	-10.5339
▁Sama	-10.5341
tunno	-10.5343
▁näkijä	-10.5346
▁veti	-10.535
▁kosketti	-10.5363
▁laste	-10.5429
loon	-10.5456
▁peljättä	-10.5469
▁aseti	-10.5471
▁vastu	-10.5498
▁kappalee	-10.5511
▁juopu	-10.5519
vaimo	-10.5595
▁Gaad	-10.5601
▁myö	-10.5616
▁Gassa	-10.5654
▁Iisebel	-10.5654
▁amorilaiset	-10.5654
▁kuukautena	-10.5654
▁pimeydessä	-10.5654
▁ravituiksi	-10.5654
▁ryhdy	-10.5654
▁salaliito	-10.5654
▁turmele	-10.5654
▁vaeltaneet	-10.5654
▁yhdestä	-10.5654
▁ylhäältä	-10.5654
▁hävitettäköön	-10.5654
▁järkky	-10.5654
▁ratsasta	-10.5654
▁todisti	-10.5654
▁isillenne	-10.5654
▁kasukan	-10.5654
▁neitsyt	-10.5654
▁pauhina	-10.5654
▁synnistä	-10.5654
▁julke	-10.5654
▁päätökse	-10.5654
▁sisälmy	-10.5654
▁synnit	-10.5654
▁huipu	-10.5654
▁nuhtele	-10.5654
▁hiljais	-10.5654
▁kaukaa	-10.5655
▁heitetään	-10.5655
▁miniä	-10.5655
▁nuhde	-10.5655
▁paennut	-10.5655
▁koolle	-10.5655
▁koettele	-10.5655
▁toisianne	-10.5655
▁vereen	-10.5656
▁ampu	-10.5656
▁Raamoti	-10.5657
▁hillit	-10.5657
▁terveeksi	-10.5657
▁rankaisematta	-10.5658
▁kuritusta	-10.5659
▁Aromaa	-10.5659
▁sisältä	-10.5659
▁pystyttänyt	-10.566
▁synnyttää	-10.5661
▁surmannut	-10.5661
▁mielistynyt	-10.5663
▁tarjo	-10.5663
▁Abisai	-10.5663
▁ääriin	-10.5663
▁Moo	-10.5663
▁sovitus	-10.5664
▁etupuol	-10.5665
▁huonetta	-10.5665
▁pystyssä	-10.5666
▁näkemään	-10.5666
▁raavaita	-10.5668
▁palkan	-10.5669
▁kolmetuhatta	-10.567
▁puhuessaan	-10.567
▁esine	-10.5671
▁palautta	-10.5675
huudo	-10.5675
▁painoinen	-10.5675
▁vuohi	-10.5679
▁siementä	-10.5679
▁rikkoneet	-10.5682
▁aikoja	-10.5684
▁Iisakille	-10.5691
▁nuoli	-10.5699
▁anoi	-10.5699
▁luopunut	-10.5699
iläisten	-10.5701
▁raato	-10.5703
▁ympärillään	-10.5705
▁vuoristossa	-10.571
▁opi	-10.5718
▁eteis	-10.5724
tetyt	-10.5729
kutakin	-10.5766
▁synk	-10.5801
▁laaj	-10.5838
▁Samaria	-10.5841
huuli	-10.5855
▁evankeliumi	-10.5884
▁halki	-10.59
▁oina	-10.5911
▁petollis	-10.5967
Kirj	-10.5982
▁toiste	-10.5986
▁kuljetti	-10.6016
laulu	-10.6023
▁istutta	-10.6038
▁vaatteen	-10.6076
▁ylimmä	-10.6081
inoastaan	-10.6083
▁ruubenilai	-10.6087
▁Etiopia	-10.6089
▁Galilean	-10.6089
▁Gomorra	-10.6089
▁Serubbaabel	-10.6089
▁akasiapuusta	-10.6089
▁kohdalta	-10.6089
▁kohoaa	-10.6089
▁laupias	-10.6089
▁osastoittain	-10.6089
▁purppura	-10.6089
▁päässeet	-10.6089
▁rohkais	-10.6089
▁vanhimmille	-10.6089
▁väkevyyte	-10.6089
▁Hiiram	-10.6089
▁Karmel	-10.6089
▁Palvel	-10.6089
▁leivo	-10.6089
▁osoitti	-10.6089
▁otollista	-10.6089
▁perissiläis	-10.6089
▁porton	-10.6089
▁heräjä	-10.6089
▁punasini	-10.6089
▁taisteli	-10.6089
▁vaeltanut	-10.6089
▁rannalle	-10.6089
▁sodassa	-10.6089
▁siipie	-10.6089
▁hävittänyt	-10.6089
▁siunaus	-10.6089
▁annetut	-10.6089
▁lännen	-10.6089
▁kahteen	-10.6089
▁lehmä	-10.6089
▁Toinen	-10.6089
▁karkelo	-10.6089
▁kyllin	-10.6089
▁sotaväen	-10.6089
▁varrella	-10.6089
▁Maaseja	-10.6089
▁isiemme	-10.6089
▁kalusto	-10.6089
▁perässä	-10.6089
▁koski	-10.6089
▁sisäpuolella	-10.6089
▁sydämet	-10.6089
▁pitäneet	-10.6089
▁kodissa	-10.6089
▁uudestaan	-10.6089
▁tähti	-10.609
▁silmiä	-10.609
▁miehistä	-10.609
▁pienet	-10.609
▁Hasael	-10.609
▁lakkaamatta	-10.6091
▁katselmus	-10.6091
▁hajotan	-10.6091
▁taulu	-10.6091
▁neuvosto	-10.6091
▁ammonilaisia	-10.6092
▁pudist	-10.6093
▁keskenänsä	-10.6093
▁kanaanilaisten	-10.6094
▁rikkomus	-10.6094
▁harhail	-10.6095
▁peljästyivät	-10.6095
▁tunnetuksi	-10.6095
▁Suo	-10.6097
▁rivi	-10.6098
▁taistelemaan	-10.6099
▁lyödä	-10.6101
▁autioiksi	-10.6103
▁ilmestynyt	-10.6103
▁isälleen	-10.6105
▁hetken	-10.6108
▁uskollisesti	-10.611
▁napis	-10.6111
▁paljous	-10.6112
▁isien	-10.6118
▁odotti	-10.6122
▁luoksemme	-10.6127
▁luoksenne	-10.613
▁annetta	-10.6147
kaltaista	-10.6152
▁lammasta	-10.6181
▁vamma	-10.6292
▁asettakoo	-10.6309
▁helakanpunaisi	-10.6331
▁sotajouko	-10.6347
adar	-10.6348
▁lähtekää	-10.6349
▁kielellä	-10.6365
▁opetuks	-10.6426
juhla	-10.6476
lahja	-10.6478
Sebu	-10.6479
▁Ruuben	-10.6491
▁kirjoitukse	-10.653
tettäköön	-10.6535
▁hyvänhajuis	-10.6543
▁Kaislamere	-10.6543
▁Makedonia	-10.6543
▁Siisera	-10.6543
▁ainiaaksi	-10.6543
▁armoistuime	-10.6543
▁edomilais	-10.6543
▁happamattoman	-10.6543
▁hiilipannu	-10.6543
▁jäännös	-10.6543
▁kerskaukse	-10.6543
▁korennot	-10.6543
▁löytäneet	-10.6543
▁perhekuntien	-10.6543
▁seurakunnassa	-10.6543
▁sotakelpois	-10.6543
▁taholta	-10.6543
▁väärintekijä	-10.6543
6	-10.6543
▁ainiaan	-10.6543
▁hiljaa	-10.6543
▁kuukausi	-10.6543
▁langet	-10.6543
▁pakanakansoj	-10.6543
▁vaatteisiin	-10.6543
▁vihoitta	-10.6543
▁ylösnousemukse	-10.6543
▁valmiiksi	-10.6543
▁hävittämään	-10.6543
▁vikapää	-10.6543
▁verso	-10.6543
▁kaikkeen	-10.6543
▁kulunut	-10.6543
Miehet	-10.6543
▁työhön	-10.6543
▁pyhäköstä	-10.6543
▁tunnustekoja	-10.6543
▁verellä	-10.6543
▁viides	-10.6544
▁vihitty	-10.6544
▁Oog	-10.6544
▁toisella	-10.6544
▁uskottomat	-10.6544
▁huolta	-10.6544
▁paikasta	-10.6544
▁kerrat	-10.6544
▁pätsi	-10.6544
▁tuomarei	-10.6544
▁orpo	-10.6544
▁suuteli	-10.6544
▁Ruut	-10.6544
▁isällensä	-10.6544
▁Amasa	-10.6544
▁pidot	-10.6544
▁Maakir	-10.6544
▁Esaia	-10.6544
Tiedä	-10.6544
▁pohjoispuol	-10.6544
▁jyvä	-10.6544
▁lukuisa	-10.6544
▁saastaista	-10.6545
▁kirous	-10.6545
kymmentäneljä	-10.6545
▁kauhistuksia	-10.6545
▁repi	-10.6545
▁varustetu	-10.6545
▁voidellut	-10.6546
▁kätki	-10.6546
▁rakkauden	-10.6546
▁fariseusten	-10.6547
▁kaikilta	-10.6547
▁tuule	-10.6548
▁kumo	-10.6549
▁isienne	-10.6551
▁näkemä	-10.6551
▁lähetin	-10.6552
▁yhteensä	-10.6553
▁kahdeksantoista	-10.6553
vartijoi	-10.6554
▁merkkinä	-10.6554
▁lähtemään	-10.6557
▁sekoit	-10.6557
▁vaikea	-10.6559
▁pylväiden	-10.656
▁perustus	-10.6561
▁vallannut	-10.6563
▁kuulkoon	-10.6564
▁makea	-10.6565
▁hallitsemaan	-10.6568
▁vastauksen	-10.6569
▁lakkaa	-10.6569
▁uskoton	-10.6573
▁pelastuisi	-10.6589
kiveä	-10.659
Mihin	-10.6602
▁painu	-10.6618
▁saatua	-10.6621
▁ympärileikat	-10.6629
Siinä	-10.6674
▁egyptiläist	-10.6781
▁Ilo	-10.6793
kymmenvuotisi	-10.6832
Nuo	-10.6912
päämiehet	-10.6935
▁senkaltais	-10.6936
I	-10.6949
Kuule	-10.6952
▁taakse	-10.6969
ittain	-10.6972
mätön	-10.7016
tömän	-10.7019
askaretta	-10.702
▁Filippus	-10.702
▁Iitamar	-10.702
▁Jeesukselle	-10.702
▁ahdistuksessa	-10.702
▁esiripun	-10.702
▁leeviläinen	-10.702
▁lohikäärme	-10.702
▁molemmi	-10.702
▁neuvonantaja	-10.702
▁profetoi	-10.702
▁sotapäällikö	-10.702
▁sukukunnista	-10.702
▁todistuksi	-10.702
▁tähtesi	-10.702
▁uppiniskais	-10.702
▁vangiksi	-10.702
▁vapaaehtoise	-10.702
▁virheettömä	-10.702
▁voiteluöljy	-10.702
▁orjuude	-10.702
▁syöksy	-10.702
▁äkisti	-10.702
▁isillensä	-10.702
▁lähdit	-10.702
▁perustukset	-10.702
▁ymmärtäväinen	-10.702
▁Laakii	-10.702
▁nääntyvä	-10.702
▁hajaantu	-10.702
▁ennusti	-10.702
▁tavoittele	-10.702
▁muodo	-10.702
▁suoraan	-10.702
▁vaivannäkö	-10.702
▁talteen	-10.702
▁kyllästy	-10.702
▁Jaabekse	-10.702
▁auttamaan	-10.702
▁keskenänne	-10.702
▁kokoontuvat	-10.702
▁näyssä	-10.702
▁pedon	-10.702
▁rukouksi	-10.702
▁paikalla	-10.702
▁lisääntyi	-10.702
viikuna	-10.702
▁enkelei	-10.702
▁häpyä	-10.702
▁sotapäällikkö	-10.702
▁Kuninkaan	-10.702
▁seitsemää	-10.7021
▁huilu	-10.7021
▁Elkana	-10.7021
▁naura	-10.7021
▁mentävä	-10.7021
▁määrätty	-10.7021
▁venheeseen	-10.7021
▁mitkä	-10.7021
▁ohra	-10.7022
▁tuntea	-10.7023
▁vapisi	-10.7023
▁unta	-10.7024
▁rinta	-10.7024
▁kauhistukseksi	-10.7025
▁öljyyn	-10.7025
▁Sieltä	-10.7027
▁harras	-10.7027
▁äitiänsä	-10.7029
▁peittävä	-10.703
▁verensä	-10.7033
▁kielillä	-10.7035
▁muukalaisina	-10.7036
▁yle	-10.7041
▁kuluttava	-10.7042
▁puhumasta	-10.7042
▁Bar	-10.7054
▁jousi	-10.7055
Istu	-10.7059
▁uhka	-10.7061
▁lauda	-10.7119
▁tottelemattom	-10.7123
▁puhuttele	-10.7157
▁tallaa	-10.7164
▁levit	-10.73
▁hallitseva	-10.7317
Varo	-10.732
▁suoritta	-10.7321
▁kysel	-10.734
viini	-10.7352
määrä	-10.7452
▁valkoi	-10.7464
▁vasemmall	-10.7489
▁gaadilai	-10.7518
▁ylä	-10.7519
▁Nasaret	-10.7519
▁ahdingo	-10.752
▁Ahitofel	-10.752
▁Naadab	-10.752
▁Obadja	-10.752
▁edustalla	-10.752
▁jylinä	-10.752
▁kumarra	-10.752
▁mieheen	-10.752
▁pahantekijä	-10.752
▁palvelkaa	-10.752
▁piiloutu	-10.752
▁siunannut	-10.752
▁synagoogissa	-10.752
▁tapahtua	-10.752
▁hädässä	-10.752
▁muinoin	-10.752
▁nuoruute	-10.752
▁pylväänpää	-10.752
▁tiedustel	-10.752
▁valmiina	-10.752
▁loukkaa	-10.752
▁Seraja	-10.752
▁puhkea	-10.752
▁viidenkymmenen	-10.752
▁kuluneet	-10.752
▁pakanoille	-10.752
▁tiettäväksi	-10.752
▁Naema	-10.752
▁Saba	-10.752
▁ylistivät	-10.752
▁terävä	-10.752
▁Timna	-10.752
▁hävittäjä	-10.752
▁Aamon	-10.752
▁tuntenut	-10.752
▁uudis	-10.752
▁ruoko	-10.752
▁sotakuntois	-10.752
▁lentävä	-10.752
▁kenkään	-10.752
▁häväistä	-10.752
▁levisi	-10.7521
▁palvelijattari	-10.7521
▁väkevi	-10.7521
▁isiesi	-10.7521
▁auttoi	-10.7521
▁Suusani	-10.7521
▁iski	-10.7522
▁arvalla	-10.7522
▁vaikutta	-10.7523
▁hautasivat	-10.7523
▁tulkoot	-10.7523
▁merta	-10.7524
▁Muut	-10.7524
▁miehenpuoli	-10.7526
▁pidetä	-10.7526
▁rikkautta	-10.7529
▁avukseni	-10.7529
▁paremm	-10.7529
▁ahdistuksen	-10.753
▁katsella	-10.753
▁tili	-10.7531
▁sulki	-10.7531
▁syntymän	-10.7533
▁otettiin	-10.7539
iläiset	-10.7561
▁viattom	-10.7598
uksella	-10.7618
Juo	-10.7621
varasto	-10.7623
▁osuut	-10.7668
▁kuuntele	-10.7695
▁selkä	-10.7743
▁pankoo	-10.7763
patsaat	-10.7783
▁pystyttä	-10.7803
▁kuudes	-10.7916
tähden	-10.7938
▁jääköö	-10.7942
▁sukupolve	-10.7972
Antakaa	-10.7978
tauti	-10.7981
▁pappe	-10.8023
▁ymmärrys	-10.8031
▁nopea	-10.804
▁jälki	-10.8046
Lähtekää	-10.8046
▁Alankomaa	-10.8046
▁Galileaan	-10.8046
▁Geerson	-10.8046
▁Hengellä	-10.8046
▁Korkein	-10.8046
▁Kristukseen	-10.8046
▁Naahor	-10.8046
▁Vanhurskas	-10.8046
▁Ylistäkää	-10.8046
▁esikartano	-10.8046
▁kelvottoma	-10.8046
▁kuninkuuden	-10.8046
▁munuais	-10.8046
▁pakanakansain	-10.8046
▁palvelleet	-10.8046
▁todella	-10.8046
▁valtaistuin	-10.8046
▁vohla	-10.8046
▁väkijuoma	-10.8046
▁Rakkaani	-10.8046
▁aseenkantaja	-10.8046
▁kadonnut	-10.8046
▁maksoi	-10.8046
▁naapuri	-10.8046
▁pauhaava	-10.8046
▁poikkesi	-10.8046
▁publikaani	-10.8046
▁purjehti	-10.8046
▁ihastu	-10.8046
▁hävityksen	-10.8046
▁kuihtu	-10.8046
▁rakentaja	-10.8046
▁huulet	-10.8046
▁selityksen	-10.8046
▁pyyhi	-10.8046
▁sydämellä	-10.8046
▁tekemistä	-10.8046
▁murskasi	-10.8046
▁pääsiäistä	-10.8046
▁Aadam	-10.8046
▁kuninkuute	-10.8046
▁hävitetty	-10.8046
▁irsta	-10.8046
▁kilpi	-10.8046
▁levon	-10.8046
▁tulvi	-10.8046
▁Asdod	-10.8046
▁selitys	-10.8046
▁rikki	-10.8046
▁Simri	-10.8046
▁Haasor	-10.8046
▁tuulta	-10.8046
▁Ahasveroksen	-10.8047
▁puoliso	-10.8047
▁onnistu	-10.8048
▁gaadilaiset	-10.8048
▁hakkasi	-10.8048
▁hurskas	-10.8048
▁tällais	-10.8048
▁pappeina	-10.8049
Jearim	-10.8049
▁äärestä	-10.805
▁täydelliseksi	-10.805
▁illalla	-10.805
▁Aika	-10.805
▁itseäni	-10.8052
▁sisareni	-10.8052
▁Hanna	-10.8053
▁tori	-10.8053
▁lähettilä	-10.8054
▁rakennettu	-10.8056
▁isälleni	-10.8056
▁kumpik	-10.8058
▁syököö	-10.8059
▁veljeänsä	-10.8059
▁hieno	-10.8072
▁hedelmällise	-10.8073
▁hallitusmiehe	-10.8075
▁oikeutee	-10.8139
▁vitsaukse	-10.8179
▁väkivalta	-10.819
Tänä	-10.8203
▁save	-10.8249
▁piirittä	-10.8275
▁kumartu	-10.8281
ihisi	-10.8296
aikoina	-10.83
▁seinäpatsa	-10.8316
▁otetu	-10.8358
▁Uuri	-10.84
▁sotamiehe	-10.8411
▁uskollise	-10.8448
▁opetuslapse	-10.8473
▁jälkeläiste	-10.8506
Vaik	-10.8532
▁jumalanpalvelu	-10.8549
▁hallitus	-10.857
▁fariseuks	-10.8583
▁taistele	-10.8596
Ä	-10.8601
▁Ensimmäis	-10.8601
▁Geba	-10.8601
▁Jeesukseen	-10.8601
▁Mesopotamia	-10.8601
▁Netanjan	-10.8601
▁Tobia	-10.8601
▁johdolla	-10.8601
▁juutalainen	-10.8601
▁jälkeläisensä	-10.8601
▁kaiverr	-10.8601
▁myrkky	-10.8601
▁niskoitteli	-10.8601
▁perinnöksi	-10.8601
▁savenvalaja	-10.8601
▁syntejä	-10.8601
▁säädökset	-10.8601
▁tyhmi	-10.8601
▁tähteeksi	-10.8601
▁vaippansa	-10.8601
▁vaivannäö	-10.8601
▁viinitarhoja	-10.8601
▁Ekroni	-10.8601
▁Kegila	-10.8601
▁Libna	-10.8601
▁Maanoah	-10.8601
▁aaseja	-10.8601
▁iljettäv	-10.8601
▁kerralla	-10.8601
▁kuningattare	-10.8601
▁leiviskää	-10.8601
▁lävistä	-10.8601
▁suistu	-10.8601
▁tyrmisty	-10.8601
▁viiniköynnöks	-10.8601
Lähetä	-10.8601
▁haureute	-10.8601
▁kansanjouko	-10.8601
▁havaitsi	-10.8602
▁ruhjo	-10.8602
▁alttare	-10.8602
▁epäusko	-10.8602
Hooron	-10.8602
▁vaskesta	-10.8602
▁taistell	-10.8602
▁Tirsa	-10.8602
▁kohdussa	-10.8602
▁henkesi	-10.8602
▁kuunteli	-10.8602
▁anniksi	-10.8602
▁raskas	-10.8602
▁vasikan	-10.8602
▁toisessa	-10.8602
▁särke	-10.8602
▁kaatoi	-10.8602
▁levy	-10.8602
▁kymmenennestä	-10.8602
▁toisesta	-10.8602
▁Kaadekse	-10.8602
▁Omri	-10.8602
▁sapatinpäivänä	-10.8602
▁sortaja	-10.8602
▁kaurii	-10.8603
▁loisto	-10.8603
▁kieltäyty	-10.8603
▁ymmärtäväise	-10.8603
▁kourist	-10.8603
▁kalliit	-10.8604
▁toistamiseen	-10.8604
▁kirottu	-10.8604
▁ruubenilaiset	-10.8604
▁loistaa	-10.8604
▁katoavat	-10.8604
▁hämmästyivät	-10.8605
▁ihmislast	-10.8606
▁leeviläisiä	-10.8608
virrasta	-10.8608
▁Vaimo	-10.861
▁Aasia	-10.8612
▁pimen	-10.8612
▁mitat	-10.8612
▁hauto	-10.8614
▁Niinive	-10.8615
▁saastaisi	-10.8616
▁kaikkinaise	-10.8645
▁sisu	-10.8647
▁synnyttävä	-10.871
Erä	-10.8759
▁rangaistuks	-10.8765
▁järjest	-10.8877
▁turvallise	-10.8885
Sinu	-10.8943
▁lammas	-10.9055
ttelevat	-10.9073
eberi	-10.9081
▁Millo	-10.9104
Edomin	-10.9122
Pois	-10.9131
ttomuus	-10.9163
▁tulko	-10.9176
▁Pii	-10.918
Efeso	-10.919
▁Ahimelek	-10.919
▁Eljasib	-10.919
▁Galileasta	-10.919
▁Hoorebi	-10.919
▁Hoosea	-10.919
▁Jeesukselta	-10.919
▁Timoteus	-10.919
▁jälkeläisesi	-10.919
▁kaikkeinpyhimmä	-10.919
▁lähimmäisensä	-10.919
▁läsnä	-10.919
▁nöyrä	-10.919
▁palvellut	-10.919
▁paratiisi	-10.919
▁porteista	-10.919
▁syynalaiseksi	-10.919
▁tähteet	-10.919
▁vihollinen	-10.919
▁Abigail	-10.919
▁Ahikamin	-10.919
▁alamaiset	-10.919
▁pelkäisi	-10.919
▁porteissa	-10.919
▁rakkaudesta	-10.919
▁rupea	-10.919
▁sadanpäämies	-10.919
▁siidonilais	-10.919
▁valhettelija	-10.919
▁valtasuuruu	-10.919
▁Amalek	-10.919
▁Atalja	-10.919
▁jumalankuvi	-10.919
▁ruoski	-10.919
▁ylipappi	-10.919
▁Kesarea	-10.919
▁Kolme	-10.919
▁harppu	-10.919
▁lahjoit	-10.919
▁rankaisi	-10.919
▁parhai	-10.919
▁lakastu	-10.919
▁ympäristö	-10.919
▁Hesron	-10.919
▁katoavais	-10.919
▁pove	-10.919
▁Luoja	-10.919
▁valmiit	-10.919
▁Idän	-10.919
▁järjestykse	-10.919
▁muistut	-10.919
Kutsu	-10.919
▁Minulle	-10.919
▁kapina	-10.919
▁sijoitt	-10.919
▁kuuliaiset	-10.919
▁Aahaa	-10.919
▁veistety	-10.919
▁yläsal	-10.919
▁verestä	-10.919
▁pitalitauti	-10.919
▁pitkämielinen	-10.9191
▁peura	-10.9191
▁onnettomuuteen	-10.9191
▁Heeman	-10.9191
▁helpo	-10.9191
▁vuohen	-10.9191
▁pojasta	-10.9191
▁täytyi	-10.9191
▁kurji	-10.9192
▁huulilla	-10.9192
▁vaipan	-10.9193
▁hedelmätön	-10.9193
▁asuvaiset	-10.9193
▁liekki	-10.9194
▁laumo	-10.9194
▁viskaa	-10.9194
▁syylliseksi	-10.9196
▁seuranneet	-10.9196
▁leili	-10.9197
▁anasta	-10.9197
▁iske	-10.9197
▁tuhka	-10.92
▁halkais	-10.9201
▁varhais	-10.9202
▁polttama	-10.9227
▁viettele	-10.9249
▁kouku	-10.9267
▁Iir	-10.9285
Seura	-10.9297
▁uskottomi	-10.9389
▁kultaise	-10.9414
alttarin	-10.9446
▁todistaji	-10.9457
▁valitukse	-10.9462
▁laupeude	-10.9619
maljan	-10.9638
arvoinen	-10.968
Kuningas	-10.9747
Sentähden	-10.9748
▁sukuluettelo	-10.9766
puolella	-10.977
virta	-10.9803
▁Vuor	-10.9815
▁Filippukse	-10.9815
▁Jefunne	-10.9815
▁Rabsake	-10.9815
▁Vapahtaja	-10.9815
▁happamaton	-10.9815
▁henkilöön	-10.9815
▁katselmuksen	-10.9815
▁kirkkautensa	-10.9815
▁kiukku	-10.9815
▁koorahilais	-10.9815
▁kypressi	-10.9815
▁neitsyen	-10.9815
▁portille	-10.9815
▁portista	-10.9815
▁raavaskarja	-10.9815
▁sanansaattajia	-10.9815
▁seitsemäksi	-10.9815
▁siipensä	-10.9815
▁taivaanvahvuu	-10.9815
▁täytäntöön	-10.9815
▁vartiosto	-10.9815
▁väkevyys	-10.9815
▁väkivallan	-10.9815
▁vääryys	-10.9815
▁yhdellä	-10.9815
▁ylhäällä	-10.9815
▁ylvästel	-10.9815
▁ympärysverhot	-10.9815
▁Baarak	-10.9815
▁Kapernaum	-10.9815
▁Malkia	-10.9815
▁Mattanja	-10.9815
▁Riemu	-10.9815
▁Sukkoti	-10.9815
▁haureelli	-10.9815
▁heilutus	-10.9815
▁luottamus	-10.9815
▁lyhte	-10.9815
▁lähimmäisesi	-10.9815
▁seisahtui	-10.9815
▁särky	-10.9815
▁tiukku	-10.9815
▁hävinneet	-10.9815
▁tervehdyks	-10.9815
▁Elifa	-10.9815
▁Kaldea	-10.9815
▁Siiba	-10.9815
▁kahdelle	-10.9815
▁kudottu	-10.9815
▁rientä	-10.9815
▁jylis	-10.9815
▁kuullessaan	-10.9815
▁merkitsee	-10.9815
▁raivo	-10.9815
▁henkäys	-10.9815
▁kehatilais	-10.9815
▁linnoitti	-10.9815
▁korkeus	-10.9815
▁Amarja	-10.9815
▁kengä	-10.9815
▁kauppiaa	-10.9815
▁polje	-10.9815
▁denari	-10.9815
▁Regu	-10.9815
▁yhdeksäntenä	-10.9815
▁paranna	-10.9815
▁köysi	-10.9815
▁viljel	-10.9815
▁parasta	-10.9815
▁haudan	-10.9815
▁vereksi	-10.9815
▁tulva	-10.9815
▁kasukka	-10.9815
▁riemuitkaa	-10.9815
▁Hanok	-10.9815
▁Samma	-10.9815
▁riemuitsi	-10.9815
▁Leeviläis	-10.9815
▁puuttuu	-10.9816
▁kertomus	-10.9816
▁alussa	-10.9816
▁koolla	-10.9816
▁edeltäpäin	-10.9816
▁kohina	-10.9816
▁Hoori	-10.9816
▁Rooma	-10.9816
▁vallasta	-10.9817
▁rauke	-10.9817
▁lähi	-10.9817
▁vasikka	-10.9818
▁kyps	-10.9818
▁luuni	-10.9818
▁tappio	-10.9819
opea	-10.9821
▁tora	-10.9822
Rakasta	-10.9822
▁korota	-10.9823
Palaja	-10.9824
▁Asael	-10.9831
▁teroit	-10.9833
rkeä	-10.9834
▁sadanpäämiehe	-10.9842
▁saarta	-10.9856
Syö	-10.9859
ttomia	-10.986
▁punais	-10.9874
utukoo	-10.9894
▁pyhitety	-10.9957
▁Siini	-11.0035
▁puvu	-11.0052
▁nuoremma	-11.0092
alai	-11.0108
▁julistakoo	-11.0189
▁imett	-11.0193
▁pyör	-11.0211
Pane	-11.0267
▁otit	-11.0271
▁Leevi	-11.0285
nnolla	-11.0365
▁onnettom	-11.0405
leipä	-11.0441
▁eteläpuol	-11.0445
▁anneta	-11.0451
▁askel	-11.0458
Filistea	-11.0481
▁Aamoksen	-11.0481
▁Abednego	-11.0481
▁Ennustus	-11.0481
▁Hasabja	-11.0481
▁Kaikkivaltiaan	-11.0481
▁Matkalaulu	-11.0481
▁Nebusaradan	-11.0481
▁Pekah	-11.0481
▁Sanherib	-11.0481
▁asuinpaika	-11.0481
▁avionrikkoja	-11.0481
▁happamattomi	-11.0481
▁ikiajoista	-11.0481
▁kaldealaiset	-11.0481
▁kerubeja	-11.0481
▁kolmanteen	-11.0481
▁lammaslauma	-11.0481
▁lampaista	-11.0481
▁lampunjalk	-11.0481
▁levoton	-11.0481
▁löydett	-11.0481
▁mittanuora	-11.0481
▁mykkä	-11.0481
▁ojennetu	-11.0481
▁pellavavaatte	-11.0481
▁pimeyteen	-11.0481
▁sekoitettuna	-11.0481
▁teurasuhreja	-11.0481
▁umpeen	-11.0481
▁uppiniskainen	-11.0481
▁vangeiksi	-11.0481
▁vanhurskaudeksi	-11.0481
Artahsasta	-11.0481
▁Haagar	-11.0481
▁Joonadab	-11.0481
▁Mirjam	-11.0481
▁anoppi	-11.0481
▁hahmo	-11.0481
▁hämminki	-11.0481
▁kehoitta	-11.0481
▁kylvö	-11.0481
▁mahdollista	-11.0481
▁ohdakke	-11.0481
▁ohria	-11.0481
▁palveltava	-11.0481
▁pojanpojan	-11.0481
▁pyydystä	-11.0481
▁sananlasku	-11.0481
▁saviastia	-11.0481
▁sekoitettuja	-11.0481
▁turmeltu	-11.0481
▁vapahda	-11.0481
▁yhteysuhreja	-11.0481
▁aukeni	-11.0481
▁kuoltua	-11.0481
▁pirskoitta	-11.0481
▁poikkitanko	-11.0481
▁vihoitti	-11.0481
▁kahdeksansataa	-11.0481
▁katoamattom	-11.0481
▁kirve	-11.0481
▁huoju	-11.0481
▁kätenne	-11.0481
▁kuultuaan	-11.0481
▁linnoitukse	-11.0481
▁sotahuudon	-11.0481
▁Elieser	-11.0481
▁pelkkä	-11.0481
▁totelleet	-11.0481
▁Ahitub	-11.0481
▁toiselta	-11.0481
▁vieraita	-11.0481
▁huulten	-11.0481
▁kiivaus	-11.0481
▁taidokka	-11.0481
▁väkensä	-11.0481
▁oikeudet	-11.0482
▁Rabba	-11.0482
▁Refa	-11.0482
▁palautan	-11.0482
▁kastoi	-11.0482
mpänä	-11.0482
▁väkevämmä	-11.0482
yydestä	-11.0482
▁itsekukin	-11.0482
määrin	-11.0482
▁voidaan	-11.0482
▁silmille	-11.0482
▁heräsi	-11.0482
▁iloitkaa	-11.0482
▁edellis	-11.0482
▁merestä	-11.0483
▁levätä	-11.0483
▁niiltä	-11.0483
▁tältä	-11.0483
▁murskat	-11.0483
▁vävy	-11.0483
▁tehden	-11.0484
▁bat	-11.0484
▁sairaana	-11.0484
▁Kastaja	-11.0486
▁parku	-11.0489
Käske	-11.0491
▁Vih	-11.0493
▁Mone	-11.0493
▁raatele	-11.0493
▁voidell	-11.0493
▁palkit	-11.0511
▁rantaa	-11.0529
▁lähetit	-11.0536
▁rasitta	-11.0553
▁peseytyköö	-11.0579
▁osallisi	-11.0621
▁tappava	-11.0658
▁paloi	-11.0658
ttomina	-11.0708
▁kuritukse	-11.0754
▁teurastakoo	-11.0785
▁helakanpunais	-11.0805
yhdeksänkymmentä	-11.0837
▁järje	-11.0849
merkki	-11.1128
Vielä	-11.1128
Olka	-11.1135
polttouhr	-11.1193
▁menestyisit	-11.1195
mielinen	-11.1195
▁Rehob	-11.1196
▁balsami	-11.1196
▁ilosanoman	-11.1196
▁ojennettu	-11.1196
▁puimatantereell	-11.1196
▁vahinkoa	-11.1196
▁vilppiä	-11.1196
▁Barnabaa	-11.1196
▁Barnabas	-11.1196
▁Daarejaveksen	-11.1196
▁Efron	-11.1196
▁Eljakim	-11.1196
▁Jerubbaal	-11.1196
▁Kristukselta	-11.1196
▁Mefiboset	-11.1196
▁Naaboti	-11.1196
▁Oholiba	-11.1196
▁Pashur	-11.1196
▁aamurusko	-11.1196
▁efraimilais	-11.1196
▁gaselli	-11.1196
▁granaattiomeni	-11.1196
▁härkiä	-11.1196
▁ilahutta	-11.1196
▁kirkkautta	-11.1196
▁käteesi	-11.1196
▁laupeus	-11.1196
▁läsnäollessa	-11.1196
▁mieheksi	-11.1196
▁miehinensä	-11.1196
▁mirha	-11.1196
▁muisteta	-11.1196
▁portteja	-11.1196
▁pöyhke	-11.1196
▁rakentaneet	-11.1196
▁ravinnoksi	-11.1196
▁riemuhuuto	-11.1196
▁saddukeu	-11.1196
▁sinetillä	-11.1196
▁sisemmä	-11.1196
▁sivelköö	-11.1196
▁sukukunnalle	-11.1196
▁sukulunastaja	-11.1196
▁tarvitsi	-11.1196
▁tyhjin	-11.1196
▁tästedes	-11.1196
▁ulompaa	-11.1196
▁uskalta	-11.1196
▁vakoilemaan	-11.1196
▁valittajaiset	-11.1196
▁Älkööt	-11.1196
▁alhaalla	-11.1196
▁hieho	-11.1196
▁juoksu	-11.1196
▁jyviä	-11.1196
▁kohdalla	-11.1196
▁riennä	-11.1196
▁varastohuone	-11.1196
▁äkkiä	-11.1196
ättömiä	-11.1196
▁Eedeni	-11.1196
▁Henkeni	-11.1196
▁enempää	-11.1196
▁häijy	-11.1196
▁kanteleilla	-11.1196
▁siirsi	-11.1196
▁säkkeihin	-11.1196
▁kiiruht	-11.1196
▁lunastus	-11.1196
▁sydämemme	-11.1196
▁Huusai	-11.1196
▁kadotukseen	-11.1196
▁yhtäkkiä	-11.1196
▁Ahimaas	-11.1196
▁Netanel	-11.1196
▁hyvyyde	-11.1196
▁kirjoitetut	-11.1196
▁lähimmäistäsi	-11.1196
▁toteutta	-11.1196
▁juhta	-11.1196
▁kaitsija	-11.1196
▁liitonarkin	-11.1196
▁maakuntaan	-11.1196
▁isillesi	-11.1196
▁ravitse	-11.1196
▁tehtäköön	-11.1196
▁sikiö	-11.1196
▁ammenta	-11.1196
▁neuvotteli	-11.1196
▁polke	-11.1196
▁ylkä	-11.1196
▁lakannut	-11.1196
▁Jehiel	-11.1196
▁liepee	-11.1196
▁tytön	-11.1196
▁orjia	-11.1196
▁yläpuolella	-11.1196
▁asioita	-11.1196
▁keskeen	-11.1196
▁yksinkertais	-11.1196
▁Peda	-11.1196
▁polttaneet	-11.1196
▁Miekka	-11.1196
▁tappanut	-11.1196
▁kauppaa	-11.1196
▁raukeavat	-11.1196
▁Ehkä	-11.1196
▁osastonsa	-11.1196
▁suojel	-11.1196
▁Hasar	-11.1197
▁uskollisuude	-11.1197
▁salamoi	-11.1197
▁pesästä	-11.1197
▁Kahden	-11.1197
▁Gooseni	-11.1197
Rabbi	-11.1198
▁Eeber	-11.1199
▁kieto	-11.12
▁ajel	-11.12
▁kiitoksen	-11.12
▁hopeamalja	-11.1203
droni	-11.1203
▁liikut	-11.1204
▁osastossa	-11.1205
▁Baani	-11.1205
▁kuunnell	-11.1206
▁voidakse	-11.1213
▁vieköö	-11.1213
▁tuski	-11.1224
▁laittom	-11.1228
▁koriste	-11.1233
▁palatkoo	-11.1239
▁määräykse	-11.1305
▁sukulaise	-11.1314
▁onnellise	-11.134
▁kiusaukse	-11.1409
▁Isaskar	-11.1418
▁voimallisi	-11.149
▁asumuks	-11.1524
▁väkivaltaise	-11.1599
▁rakennutt	-11.1709
▁Olkoo	-11.178
▁häpeällise	-11.1798
lause	-11.1837
kaupungeissa	-11.1897
U	-11.1897
kaupunki	-11.1898
lapset	-11.1898
Daavid	-11.1898
liitto	-11.1901
kaikki	-11.1902
▁iankaikkisest	-11.1913
▁jätett	-11.1923
ppeja	-11.1961
▁Abinadab	-11.1965
▁Etelämaahan	-11.1965
▁Geehasi	-11.1965
▁Geersom	-11.1965
▁Herodeksen	-11.1965
▁Joosabad	-11.1965
▁Meedia	-11.1965
▁Piinehas	-11.1965
▁Rebekka	-11.1965
▁Sefatja	-11.1965
▁apostolei	-11.1965
▁erehdyksestä	-11.1965
▁hajuaineita	-11.1965
▁heilutuksen	-11.1965
▁heinäsirkkoja	-11.1965
▁hurmoksiin	-11.1965
▁ilmaissut	-11.1965
▁jisreeliläi	-11.1965
▁juomanlaskija	-11.1965
▁juomauhreja	-11.1965
▁kyykäärme	-11.1965
▁lampaitte	-11.1965
▁levinnyt	-11.1965
▁metsäkyyhkys	-11.1965
▁miehellä	-11.1965
▁mietevirsi	-11.1965
▁naarasleijona	-11.1965
▁nuhteettomasti	-11.1965
▁nöyri	-11.1965
▁peljätkää	-11.1965
▁rangaiskoo	-11.1965
▁saapuvilla	-11.1965
▁sinetöi	-11.1965
▁toreilla	-11.1965
▁ulkokullatut	-11.1965
▁vaikutuksesta	-11.1965
▁vanhurskaudesta	-11.1965
▁vastedes	-11.1965
▁viinikuurna	-11.1965
▁viinitarhuri	-11.1965
▁vuodenvanhaa	-11.1965
▁ylösnousemus	-11.1965
▁Amminadab	-11.1965
▁Debir	-11.1965
▁aavikkosu	-11.1965
▁hallituksen	-11.1965
▁huulensa	-11.1965
▁jumalattomuude	-11.1965
▁kaukaisi	-11.1965
▁kohoava	-11.1965
▁kuninkuus	-11.1965
▁lempe	-11.1965
▁matkusti	-11.1965
▁pilkkopimeä	-11.1965
▁ristikkokoriste	-11.1965
▁ryöväri	-11.1965
▁salaisuus	-11.1965
▁setripuita	-11.1965
▁säikäh	-11.1965
▁tunnusti	-11.1965
▁uskollisuutta	-11.1965
▁verenkostaja	-11.1965
▁ympärileikkauks	-11.1965
▁Eglon	-11.1965
▁Noudattak	-11.1965
▁riemuitkoot	-11.1965
▁saastaisuude	-11.1965
▁hyökät	-11.1965
▁päässyt	-11.1965
▁tempasi	-11.1965
▁Askelon	-11.1965
▁hetkestä	-11.1965
▁lupauksesi	-11.1965
▁paksu	-11.1965
▁ylenkatse	-11.1965
▁appe	-11.1965
▁kotoisin	-11.1965
▁näyttäyty	-11.1965
▁synnissä	-11.1965
Ilmoit	-11.1965
▁pätevä	-11.1965
▁sinetti	-11.1965
▁vapaiksi	-11.1965
▁Jedaja	-11.1965
▁mannaa	-11.1965
▁poikinensa	-11.1965
▁sytytä	-11.1965
▁hartioi	-11.1965
▁aalto	-11.1965
▁pituinen	-11.1965
▁Neerin	-11.1965
▁nurja	-11.1965
▁lepäsi	-11.1965
▁Raamattu	-11.1965
▁ohella	-11.1965
▁kätketty	-11.1965
▁kuudentena	-11.1965
▁näänny	-11.1965
▁hallussa	-11.1965
▁riemuiten	-11.1966
▁kimpus	-11.1966
▁vuorta	-11.1966
▁vaikene	-11.1966
▁nauru	-11.1966
▁kaadu	-11.1966
▁usea	-11.1966
▁joukolle	-11.1966
▁parane	-11.1966
▁mentyä	-11.1967
▁lakkasi	-11.1967
▁yrtt	-11.1968
▁esikuv	-11.1968
▁outo	-11.1969
▁perikato	-11.1971
▁vyöry	-11.1972
▁puhdistautu	-11.1974
▁Rimmoni	-11.1978
▁kiroil	-11.1979
▁ruvet	-11.2002
ddai	-11.2005
▁samankaltai	-11.2007
osadak	-11.2033
▁katuj	-11.2038
▁kuninkaalli	-11.2046
▁kätkö	-11.2054
Taivas	-11.2084
kaksikymmenvuoti	-11.228
▁pitkämielis	-11.2385
▁millai	-11.2473
seitsemäntuhatta	-11.2567
Kunnioit	-11.258
▁peseyty	-11.2677
▁aikoje	-11.2724
Israel	-11.2731
▁omikse	-11.2741
▁kanaanilais	-11.277
▁Häpeä	-11.2798
▁Megiddo	-11.2798
▁manasselais	-11.2798
▁notkist	-11.2798
▁paatumukse	-11.2798
▁rajuilma	-11.2798
aikkeinpyhimpään	-11.2798
▁Antiokiaan	-11.2798
▁Babylon	-11.2798
▁Batseba	-11.2798
▁Gaal	-11.2798
▁Huuram	-11.2798
▁Iisboset	-11.2798
▁Kääntykää	-11.2798
▁Magdaleena	-11.2798
▁Mahanaimi	-11.2798
▁Paljon	-11.2798
▁Salmunna	-11.2798
▁Sebedeuksen	-11.2798
▁Yhtä	-11.2798
▁aallot	-11.2798
▁armahtavainen	-11.2798
▁auringonnousu	-11.2798
▁granaattiomena	-11.2798
▁huomenaamuna	-11.2798
▁huoneenhaltija	-11.2798
▁hyvyyttä	-11.2798
▁häväissyt	-11.2798
▁israelilaisista	-11.2798
▁katsahti	-11.2798
▁kauhistavi	-11.2798
▁kultakuppi	-11.2798
▁kärsivällisyyde	-11.2798
▁käännettynä	-11.2798
▁maakunnassa	-11.2798
▁maanjäristys	-11.2798
▁mahdotonta	-11.2798
▁merkiksi	-11.2798
▁miehesi	-11.2798
▁naapurei	-11.2798
▁nuhtelu	-11.2798
▁paljastettu	-11.2798
▁palvelustehtävä	-11.2798
▁pasunoihin	-11.2798
▁profeetanoppila	-11.2798
▁roukkio	-11.2798
▁simeonilais	-11.2798
▁synkeyde	-11.2798
▁syvyyteen	-11.2798
▁tapahtukoon	-11.2798
▁torju	-11.2798
▁tähteni	-11.2798
▁viheriä	-11.2798
▁viininkorjuu	-11.2798
▁vilpittömä	-11.2798
▁vyöttäyty	-11.2798
▁ärjyy	-11.2798
▁Hermoni	-11.2798
▁haudalle	-11.2798
▁kamelien	-11.2798
▁kansakuntien	-11.2798
▁ruovo	-11.2798
▁salaisuuden	-11.2798
▁tuulispää	-11.2798
▁vaeltaisi	-11.2798
▁yksimielisesti	-11.2798
▁ylenkatso	-11.2798
▁ylenpalttisesti	-11.2798
▁Hullu	-11.2798
▁Iddo	-11.2798
▁kaksinkertaise	-11.2798
▁mielui	-11.2798
▁omatunto	-11.2798
▁siunaisi	-11.2798
▁verivela	-11.2798
▁ansainnut	-11.2798
▁asetuksiasi	-11.2798
▁luvallista	-11.2798
▁maakunnan	-11.2798
▁useampia	-11.2798
▁Barsillai	-11.2798
▁hankkee	-11.2798
▁lujina	-11.2798
▁vaeltakaa	-11.2798
▁tultiin	-11.2798
▁viivyttele	-11.2798
▁Ornan	-11.2798
▁paikkakunna	-11.2798
▁vaatteissa	-11.2798
▁anotte	-11.2798
▁vihkiyty	-11.2798
▁ehye	-11.2798
▁peittänyt	-11.2798
▁käsivarsi	-11.2798
▁pituiset	-11.2798
▁valetun	-11.2798
Terve	-11.2798
▁taivaisiin	-11.2798
▁Ebed	-11.2798
▁pääsiäinen	-11.2798
▁Betania	-11.2798
▁kamelin	-11.2798
▁kuuluttakaa	-11.2798
▁harhaan	-11.2798
▁oikeuteni	-11.2799
▁haltija	-11.2799
▁ohessa	-11.2799
▁anomisen	-11.2799
▁istuimella	-11.2799
▁vesiastia	-11.2799
▁Sikri	-11.2799
▁ammu	-11.28
▁kukkaro	-11.28
karsikko	-11.28
▁Nebo	-11.2801
▁otollise	-11.2802
▁koetukse	-11.2804
▁kuuliaisuu	-11.282
▁valhettele	-11.2822
Väki	-11.2832
▁keeniläi	-11.2852
▁iloitko	-11.2859
▁sokais	-11.2881
▁viisaute	-11.2886
▁survo	-11.2896
▁riemuvuote	-11.3006
▁kahdeksa	-11.3019
▁leiriytyköö	-11.3178
Arba	-11.3237
▁totise	-11.33
▁väkivaltaist	-11.3485
▁pitäköö	-11.3506
oukut	-11.3599
päällikkö	-11.3638
Mooab	-11.364
Johannes	-11.364
Kaikki	-11.364
▁Ahasvero	-11.3705
▁rosvo	-11.3707
▁sireeninnahk	-11.3707
▁ylenpalttis	-11.3707
▁Iskariot	-11.3707
▁itkuvirsi	-11.3707
▁löydetä	-11.3707
▁miellytt	-11.3707
▁yhdelle	-11.3707
Ensimmäinen	-11.3707
Huomenna	-11.3707
Rukoilkaa	-11.3707
▁Agrippa	-11.3707
▁Diibon	-11.3707
▁Gatin	-11.3707
▁Haggai	-11.3707
▁Heräjä	-11.3707
▁Jeesuksesta	-11.3707
▁Niilivirra	-11.3707
▁Oofiri	-11.3707
▁Rebekan	-11.3707
▁Sippor	-11.3707
▁Tyhmä	-11.3707
▁ammonilainen	-11.3707
▁aviorikokse	-11.3707
▁esirippu	-11.3707
▁filistealainen	-11.3707
▁ikiajoiksi	-11.3707
▁juurta	-11.3707
▁kaksois	-11.3707
▁karitsoita	-11.3707
▁kelvoton	-11.3707
▁kiivaudessa	-11.3707
▁koetteli	-11.3707
▁kurjuutta	-11.3707
▁käskynhaltijoi	-11.3707
▁lankeemukse	-11.3707
▁lisääntyä	-11.3707
▁lähdimme	-11.3707
▁musersi	-11.3707
▁niskoittele	-11.3707
▁niskureita	-11.3707
▁peruuttamaton	-11.3707
▁pilkku	-11.3707
▁poikenneet	-11.3707
▁poiket	-11.3707
▁pyyhki	-11.3707
▁rohkeutta	-11.3707
▁sirppi	-11.3707
▁sisimpään	-11.3707
▁sivukammio	-11.3707
▁sovelias	-11.3707
▁tähystäjä	-11.3707
▁vanhempansa	-11.3707
▁vankeudessa	-11.3707
▁vankeudesta	-11.3707
▁vapaaehtoisi	-11.3707
▁varjelkoon	-11.3707
▁Jegiel	-11.3707
▁Meriba	-11.3707
▁ahkeroi	-11.3707
▁geersonilais	-11.3707
▁hengissä	-11.3707
▁hoitoon	-11.3707
▁huuleni	-11.3707
▁idästä	-11.3707
▁kauhistava	-11.3707
▁kelvolli	-11.3707
▁murheellisiksi	-11.3707
▁näkyleivät	-11.3707
▁ripusta	-11.3707
▁seppele	-11.3707
▁synnyttäjä	-11.3707
▁valkeudessa	-11.3707
▁viinitarhoi	-11.3707
▁yljä	-11.3707
▁hevonen	-11.3707
▁hyppi	-11.3707
▁julmi	-11.3707
▁murehdi	-11.3707
▁naimisiin	-11.3707
▁niskuri	-11.3707
▁suitsukkeen	-11.3707
▁vaippaan	-11.3707
▁kuluessa	-11.3707
▁länsipuol	-11.3707
▁suljettuna	-11.3707
▁suloinen	-11.3707
▁hedelmistä	-11.3707
▁jalkamiestä	-11.3707
▁keskimmäi	-11.3707
▁vaiheilla	-11.3707
▁valtikka	-11.3707
▁Lemek	-11.3707
▁meluisa	-11.3707
▁muserta	-11.3707
▁tiili	-11.3707
▁Dedan	-11.3707
▁isillemme	-11.3707
▁polki	-11.3707
▁sotaväki	-11.3707
▁vaikeroi	-11.3707
▁Jaafet	-11.3707
▁Väär	-11.3707
▁huutaen	-11.3707
▁kilju	-11.3707
▁netofalai	-11.3707
▁pohjoisessa	-11.3707
▁viheltä	-11.3707
▁hinnasta	-11.3707
▁kaluineen	-11.3707
▁pääsiäisen	-11.3707
▁ylistyksen	-11.3707
kilvet	-11.3707
▁lähdettyä	-11.3707
▁varjeli	-11.3707
▁uskollisuute	-11.3707
▁portai	-11.3708
▁rietta	-11.3708
▁vaeltama	-11.3708
▁riutu	-11.3708
▁ihani	-11.3708
▁talve	-11.3708
▁huostaan	-11.3709
▁kultasep	-11.3709
▁urhoollis	-11.3709
▁kaunistukse	-11.3711
Julista	-11.3711
▁tulemukse	-11.3711
▁Mikmaa	-11.3712
hedelm	-11.3713
▁virtoje	-11.3713
▁paikoill	-11.3714
rintaliha	-11.3717
▁etumai	-11.3719
▁varsink	-11.3726
▁upot	-11.3726
▁rehellis	-11.3728
▁heilutt	-11.3735
▁peittämä	-11.3751
uhriteuraan	-11.3754
▁asujattom	-11.3764
Kuole	-11.3781
▁telinee	-11.3799
▁heikkoude	-11.3817
▁tiettäv	-11.3826
surmattujen	-11.4033
▁huokauks	-11.4311
suitsutusalttari	-11.4425
eläinten	-11.4639
Rimmon	-11.469
▁Temppeli	-11.4705
▁Öljy	-11.4707
Barnea	-11.4707
▁työnteettäj	-11.4707
▁urotöistä	-11.4707
Beltsassar	-11.4707
▁Ammihud	-11.4707
▁Berekja	-11.4707
▁Daagoni	-11.4707
▁Debora	-11.4707
▁Eehud	-11.4707
▁Efrat	-11.4707
▁Festus	-11.4707
▁Hengestä	-11.4707
▁Jeroham	-11.4707
▁Melkisedek	-11.4707
▁Nahson	-11.4707
▁Neerian	-11.4707
▁Pereksen	-11.4707
▁Sanballat	-11.4707
▁Ystävä	-11.4707
▁arabialai	-11.4707
▁baaleja	-11.4707
▁etunenässä	-11.4707
▁halveksu	-11.4707
▁havainnut	-11.4707
▁hurmoksissa	-11.4707
▁iltahämärässä	-11.4707
▁israelilaisilta	-11.4707
▁jumalattomuute	-11.4707
▁järky	-11.4707
▁jäähyväis	-11.4707
▁kaupungeille	-11.4707
▁kaupungille	-11.4707
▁kelvottomi	-11.4707
▁kenelläkään	-11.4707
▁kintereillä	-11.4707
▁kirjanoppinut	-11.4707
▁kirkkauteen	-11.4707
▁kiviroukkio	-11.4707
▁koiruoho	-11.4707
▁koristepienat	-11.4707
▁kukkalehtineen	-11.4707
▁kurjuuden	-11.4707
▁kurkku	-11.4707
▁kylvetään	-11.4707
▁lahjoista	-11.4707
▁lahjuksia	-11.4707
▁leveyden	-11.4707
▁levolle	-11.4707
▁matkusta	-11.4707
▁mieluummin	-11.4707
▁monilukuis	-11.4707
▁neitsyet	-11.4707
▁pelastetu	-11.4707
▁pilvenpatsa	-11.4707
▁pimeydestä	-11.4707
▁refalais	-11.4707
▁safiiri	-11.4707
▁salaisuudet	-11.4707
▁seurakunnille	-11.4707
▁suinkaan	-11.4707
▁syynalaisiksi	-11.4707
▁toveri	-11.4707
▁tyhmyy	-11.4707
▁vaunusoturi	-11.4707
▁viiniköynnös	-11.4707
▁Gerari	-11.4707
▁Kooreksen	-11.4707
▁Sefanja	-11.4707
▁Selemja	-11.4707
▁Vanhurskau	-11.4707
▁gatilaise	-11.4707
▁juhlakokous	-11.4707
▁jälkeläistä	-11.4707
▁kahlauspaik	-11.4707
▁kansleri	-11.4707
▁lyijy	-11.4707
▁maapalsta	-11.4707
▁nykyise	-11.4707
▁nyök	-11.4707
▁paadutti	-11.4707
▁ripusti	-11.4707
▁satuloi	-11.4707
▁syyhelmä	-11.4707
▁yllyttä	-11.4707
▁Joppe	-11.4707
▁Muukalai	-11.4707
Z	-14.2987
Ö	-14.2988
7	-14.2989
8	-14.299
(	-14.2991
[	-14.2992
F	-14.2993
Y	-14.2994
G	-14.2995
D	-14.2996
/	-14.2997
N	-14.2997
