<pad>	0
</s>	0
<unk>	0
▁के	-3.77326
▁है	-3.94877
।	-4.09669
,	-4.13107
▁और	-4.16493
▁में	-4.18513
▁	-4.30982
▁की	-4.32927
▁से	-4.52317
▁को	-4.62797
▁का	-4.66907
ी	-4.71956
)	-4.79568
ों	-4.80212
▁(	-4.87167
न	-4.91781
क	-5.02271
.	-5.03205
-	-5.07555
▁हैं	-5.1392
ल	-5.1394
▁कि	-5.14638
▁पर	-5.16962
र	-5.17294
ा	-5.22213
▁एक	-5.26479
▁लिए	-5.29732
े	-5.38093
ता	-5.39426
म	-5.41509
▁तो	-5.42698
त	-5.44722
स	-5.45524
▁नहीं	-5.45626
▁जो	-5.47483
▁हो	-5.55789
▁भी	-5.56914
ने	-5.59989
▁कर	-5.61592
▁न	-5.64687
▁ने	-5.65645
ना	-5.6567
▁आ	-5.73165
▁किया	-5.74207
ट	-5.77216
प	-5.77279
▁यह	-5.77736
▁अ	-5.79031
▁ही	-5.79176
ं	-5.80146
▁इस	-5.81758
ो	-5.83811
ह	-5.85182
▁या	-5.86475
व	-5.87836
द	-5.90355
ित	-5.90546
▁वह	-5.92562
ि	-5.96309
▁करने	-5.96575
ज	-6.03615
य	-6.11669
ब	-6.13493
▁अपने	-6.14398
▁था	-6.16457
श	-6.19946
▁वे	-6.20929
्	-6.24595
ला	-6.25926
रा	-6.27015
ते	-6.27233
▁तुम	-6.28016
▁गया	-6.31452
▁तथा	-6.32723
िक	-6.32741
à	-6.33799
▁कुछ	-6.35859
कर	-6.3655
▁हम	-6.37208
ु	-6.38328
▁किसी	-6.39482
▁प्र	-6.4047
▁म	-6.41569
या	-6.42981
्य	-6.43888
▁साथ	-6.44304
▁जा	-6.4602
▁स	-6.46235
▁सं	-6.48345
▁रूप	-6.48533
▁कोई	-6.49916
ियों	-6.51475
▁उनके	-6.53191
ग	-6.53687
▁थे	-6.55115
ती	-6.552
▁द्वारा	-6.56315
ू	-6.56344
ें	-6.57278
▁लोग	-6.5829
ण	-6.59016
▁जब	-6.60543
▁प	-6.61136
▁करते	-6.61172
री	-6.62493
▁लोगों	-6.63036
ओं	-6.63064
▁दिया	-6.63764
वा	-6.64362
▁वि	-6.64544
▁भारत	-6.66874
नी	-6.66959
▁व	-6.67117
▁क	-6.6782
ै	-6.6861
▁तक	-6.68931
▁कहा	-6.69277
¤	-6.69961
च	-6.70547
ए	-6.71563
का	-6.71623
▁फिर	-6.72143
मा	-6.74044
▁ब	-6.74979
▁ये	-6.75098
ड	-6.76055
/	-6.76369
▁करें	-6.77011
▁आप	-6.77319
▁जाता	-6.78039
▁उस	-6.78137
ख	-6.78516
ः	-6.78946
▁उसके	-6.7955
ड़	-6.79592
▁क्या	-6.80341
▁रहे	-6.80655
▁"	-6.81027
▁त	-6.81405
दा	-6.8185
ज़	-6.81947
▁ग	-6.82122
▁अल्लाह	-6.82842
सा	-6.83098
▁करना	-6.83722
ध	-6.84292
▁ख़ुदा	-6.84987
▁अपनी	-6.85463
?	-6.88105
फ	-6.8844
ई	-6.88487
▁नि	-6.89363
▁पा	-6.89464
▁दो	-6.90348
क्ष	-6.90644
▁हुए	-6.91082
ले	-6.91985
ॉ	-6.92893
▁मैं	-6.94118
▁उन्हें	-6.94176
▁करता	-6.95871
▁उन	-6.96076
सी	-6.96971
▁उ	-6.97374
▁होता	-6.97861
▁कार्य	-6.98091
▁ज	-6.98574
▁श	-6.98843
▁रहा	-6.99324
▁प्रति	-6.99641
▁मु	-6.99762
▁थी	-6.99834
▁सकता	-7.00283
▁उसे	-7.01517
▁बहुत	-7.0308
;	-7.03438
कार	-7.03984
▁दे	-7.05672
ली	-7.06237
▁समय	-7.06983
▁ले	-7.07788
▁ह	-7.08078
ीय	-7.08326
▁मा	-7.08493
▁च	-7.0899
रे	-7.09973
▁अधिक	-7.10666
▁दी	-7.11374
के	-7.12259
▁द	-7.12427
की	-7.1262
e	-7.13736
▁ख	-7.15119
ष	-7.15378
▁बात	-7.15757
%	-7.16469
वि	-7.16648
▁बाद	-7.16799
▁तरह	-7.16898
▁इ	-7.17024
ंग	-7.17203
a	-7.17538
▁वाले	-7.17594
▁इन	-7.17642
ंड	-7.18028
▁ल	-7.18527
▁उन्होंने	-7.18632
से	-7.18778
▁हुआ	-7.18831
▁पहले	-7.20331
▁ए	-7.21279
त्	-7.21809
थ	-7.23045
फ़	-7.23246
▁फ	-7.23457
▁हमने	-7.23519
▁पास	-7.23641
▁काम	-7.24547
▁होगा	-7.25211
▁अन्य	-7.25475
▁भ	-7.2578
▁उनकी	-7.26219
▁तुम्हारे	-7.26423
▁यदि	-7.26541
जा	-7.27138
▁गई	-7.2739
▁दिन	-7.27711
▁प्राप्त	-7.27748
▁गए	-7.27865
ाई	-7.28214
:	-7.28718
अ	-7.28795
▁ओर	-7.29079
▁सा	-7.29271
▁बा	-7.31041
एं	-7.31043
▁सभी	-7.31309
र्	-7.3193
▁सब	-7.31958
▁कम	-7.32102
▁नाम	-7.32225
▁मिल	-7.32279
▁ऐसे	-7.32421
स्	-7.32839
▁हमारे	-7.33106
▁राष्ट्रपति	-7.33415
भ	-7.33578
▁अनु	-7.34262
स्त	-7.34325
▁होने	-7.34518
‍	-7.35136
▁मे	-7.35145
▁सकते	-7.36023
▁प्रकार	-7.36179
▁19	-7.36483
नि	-7.37439
प्र	-7.37584
▁चाहिए	-7.37643
▁बना	-7.38501
o	-7.39562
को	-7.39764
▁इसके	-7.39991
▁क्षेत्र	-7.40606
मान	-7.41248
ौ	-7.41398
▁20	-7.41968
▁उसकी	-7.42814
▁s	-7.42902
s	-7.43417
▁देश	-7.43599
▁किए	-7.43697
टी	-7.44146
गी	-7.44382
▁होती	-7.44477
▁सरकार	-7.44623
▁उप	-7.44851
m	-7.45573
ति	-7.46037
▁हर	-7.46831
त्र	-7.47643
▁भारतीय	-7.47661
▁जाने	-7.47667
यों	-7.48224
िया	-7.4847
▁अगर	-7.48799
▁2	-7.48997
▁राज्य	-7.49009
▁करो	-7.49636
▁ऐसा	-7.49699
▁एवं	-7.49708
▁छ	-7.50054
▁वा	-7.5007
िंग	-7.50266
▁ला	-7.50971
▁र	-7.51073
▁1	-7.51121
आ	-7.51579
▁विकास	-7.51611
▁कारण	-7.51978
ाय	-7.52418
5	-7.52697
▁वर्ष	-7.5282
▁अब	-7.52988
t	-7.5366
4	-7.54182
ठ	-7.54196
क़	-7.5467
!	-7.54692
▁मुझे	-7.55143
बा	-7.55191
▁स्व	-7.55299
▁रसूल	-7.55329
ँ	-7.55336
▁ट	-7.55456
न्	-7.55912
▁हुई	-7.55989
▁(_	-7.56137
▁स्	-7.56146
▁परि	-7.56305
▁कह	-7.56548
▁देख	-7.56946
▁सु	-7.5765
न्द	-7.57657
हा	-7.57766
▁ना	-7.58502
वे	-7.58878
8	-7.5894
ओ	-7.59392
▁व्यक्ति	-7.59591
पा	-7.60771
▁बे	-7.61398
ल्	-7.61698
मे	-7.62517
▁जिस	-7.62592
▁उसने	-7.63
▁लेकिन	-7.6319
▁सी	-7.63194
9	-7.63227
▁मान	-7.63316
्या	-7.6337
i	-7.63537
रण	-7.63625
▁जाती	-7.63747
▁लिया	-7.63768
िका	-7.64075
▁कु	-7.64197
▁दोनों	-7.64691
झ	-7.65205
ंट	-7.65483
▁तुम्हें	-7.65727
पी	-7.65823
्र	-7.65918
▁अपना	-7.66052
▁ईमान	-7.66873
स्ट	-7.67102
्स	-7.67547
3	-7.67613
▁उपयोग	-7.68469
▁ऐसी	-7.68607
2	-7.68694
▁पूर्व	-7.68783
▁जीवन	-7.68875
जी	-7.69332
▁रही	-7.69953
7	-7.70238
गा	-7.704
लि	-7.71031
▁बार	-7.71039
▁भाग	-7.71089
▁होते	-7.71282
ान	-7.713
▁सि	-7.71691
ऐ	-7.71765
र्म	-7.71845
▁जिन	-7.72118
▁प्रदान	-7.72177
दार	-7.72443
ढ़	-7.72608
▁बारे	-7.72809
छ	-7.73051
▁बीच	-7.73222
c	-7.73542
▁गु	-7.73585
ये	-7.73757
6	-7.74019
1	-7.74049
▁वाला	-7.74689
इ	-7.75663
स्थ	-7.75826
मी	-7.75868
उ	-7.7594
पर	-7.76172
टा	-7.76227
y	-7.76375
▁à	-7.76581
▁जैसे	-7.77092
▁श्री	-7.77148
भा	-7.77616
ाइ	-7.77641
।"	-7.78069
ंद	-7.78076
▁दा	-7.78658
रि	-7.79105
▁उसका	-7.79125
0	-7.79231
▁लगा	-7.79423
घ	-7.79929
क्	-7.79932
डी	-7.80086
▁घ	-7.80197
▁विशेष	-7.80701
▁खा	-7.80999
ंस	-7.81028
▁चल	-7.8145
▁पी	-7.81467
दी	-7.82434
u	-7.82453
ार	-7.82536
ड़ी	-7.82856
कों	-7.82958
द्र	-7.83049
ृ	-7.83468
▁जाएगा	-7.83988
▁स्थान	-7.84025
▁अव	-7.84173
▁बन	-7.84433
"	-7.84503
▁अभि	-7.84844
▁सम	-7.84863
रो	-7.84866
▁क़	-7.85032
▁वही	-7.85138
▁रब	-7.85158
▁केवल	-7.85217
▁चीज़	-7.8539
▁आय	-7.85417
▁उनका	-7.85904
एँ	-7.86292
▁प्रयोग	-7.86452
▁जाए	-7.86482
▁मेरे	-7.86843
▁हमें	-7.8702
बी	-7.87347
▁3	-7.87785
▁विचार	-7.88201
▁जिसमें	-7.88223
▁पु	-7.89161
▁जी	-7.89391
▁हूँ	-7.89398
'	-7.90013
वी	-7.90845
न्न	-7.91595
▁ताकि	-7.91847
▁पैदा	-7.923
d	-7.9231
▁ऐ	-7.93081
श्	-7.93136
▁वाली	-7.93302
जन	-7.9336
▁आज	-7.93445
कि	-7.93687
▁रह	-7.93692
लो	-7.93705
▁सबसे	-7.93816
▁देने	-7.9423
▁बड़ा	-7.94474
▁तब	-7.94504
▁ध	-7.94543
ज़ा	-7.94802
▁बढ़	-7.94979
▁राज	-7.95342
ड़ा	-7.95782
तर	-7.9579
▁हमारी	-7.96091
b	-7.96533
त्त	-7.96809
▁अधिनियम	-7.96944
▁धारा	-7.97198
▁बस	-7.97349
▁जाना	-7.97381
▁उसी	-7.97573
गर	-7.97602
िल	-7.97788
▁इसे	-7.98145
ास	-7.9816
▁जाते	-7.98611
वाद	-7.98635
▁इसमें	-7.98734
सं	-7.98776
▁राष्ट्रीय	-7.98837
▁देता	-7.9891
▁सह	-7.99145
p	-7.99372
ख़	-7.99627
▁योजना	-8.00096
दे	-8.00465
शा	-8.00729
▁समझ	-8.01032
़	-8.013
...	-8.01306
व्य	-8.01468
मि	-8.01488
▁ई	-8.01668
▁उपलब्ध	-8.022
▁'	-8.02297
ष्	-8.02315
▁अथवा	-8.02329
▁जिसे	-8.02493
ाव	-8.02532
पूर्ण	-8.02632
▁सेवा	-8.02792
▁डाल	-8.02909
गत	-8.03209
▁दर	-8.03605
म्ब	-8.03792
▁संदेश	-8.03843
▁गो	-8.04038
▁फ़ाइल	-8.04101
▁चि	-8.04278
खा	-8.04893
ही	-8.05276
▁सू	-8.05342
▁संबंध	-8.0537
▁सूचना	-8.05387
▁ता	-8.05518
▁उससे	-8.05639
▁परवरदिगार	-8.05711
▁क्योंकि	-8.05826
▁दूर	-8.05852
▁जान	-8.05921
कृत	-8.06052
▁उनसे	-8.06063
▁विषय	-8.06283
म्	-8.06316
▁शिक्षा	-8.06432
ड़े	-8.06587
्यू	-8.06592
ंज	-8.07255
▁घर	-8.07456
▁भर	-8.07572
▁महा	-8.0758
▁लिख	-8.077
द्ध	-8.07818
▁उत्तर	-8.08081
▁स्थिति	-8.08155
▁पड़	-8.08427
▁मै	-8.08488
▁सकती	-8.08623
िस	-8.09326
ंक	-8.09375
देश	-8.09466
▁शि	-8.09622
पन	-8.09739
▁अर्थ	-8.0989
रु	-8.1012
▁विश्व	-8.10493
गे	-8.10594
मत	-8.10641
जि	-8.10805
▁दूसरे	-8.11454
ंच	-8.11473
धार	-8.11491
▁करती	-8.11836
▁रि	-8.12096
▁फ़	-8.12195
▁इसलिए	-8.12368
ष्ट	-8.12588
20	-8.12645
चा	-8.12806
ियां	-8.13003
▁सहायता	-8.13126
▁बैंक	-8.13261
एस	-8.13309
g	-8.13368
▁कै	-8.13411
▁इं	-8.13476
▁करे	-8.1374
ेट	-8.13808
▁उच्च	-8.1427
▁हाथ	-8.14482
▁आधार	-8.14532
▁बड़ी	-8.1479
▁ज़	-8.14815
तः	-8.15139
▁उठा	-8.15175
र्क	-8.1537
दि	-8.1541
ग्	-8.15498
▁ख़	-8.15519
र्ड	-8.1564
▁उनमें	-8.15957
▁शक्ति	-8.16077
▁बु	-8.16188
▁बाहर	-8.16189
▁हूं	-8.16255
▁दिल	-8.16354
▁विभिन्न	-8.16501
▁वै	-8.16534
▁सम्	-8.16575
ंत	-8.16588
▁कभी	-8.16658
▁अस	-8.16832
▁होगी	-8.17054
▁अधीन	-8.17191
▁शामिल	-8.17209
▁मेरी	-8.17263
यर	-8.17395
०	-8.1763
▁कई	-8.17722
सू	-8.18309
▁मुख्य	-8.18385
▁मो	-8.184
जे	-8.18428
ण्ड	-8.18458
▁बल्कि	-8.18715
▁अप	-8.18875
▁होना	-8.19088
▁दौरान	-8.19181
नों	-8.19269
▁हि	-8.19474
▁लिये	-8.1948
क्र	-8.19731
▁इससे	-8.19958
▁कहते	-8.20031
▁झ	-8.20185
ऋ	-8.20204
▁लाभ	-8.20615
▁भाषा	-8.20673
▁तैयार	-8.20757
▁भेज	-8.20788
▁करके	-8.20895
▁आगे	-8.21017
▁यहाँ	-8.21023
▁रे	-8.21206
▁अनुसार	-8.21712
▁अधिकार	-8.21926
दान	-8.21966
▁बि	-8.22019
क्त	-8.22081
चार	-8.22083
▁जहां	-8.22142
ाँ	-8.22428
▁4	-8.22474
र्द	-8.2255
कारी	-8.22647
कु	-8.22733
हर	-8.22786
ब्	-8.22854
▁अवसर	-8.22875
▁छोड़	-8.23317
▁होंगे	-8.2332
▁हा	-8.2376
ात	-8.23779
T	-8.23854
▁सूची	-8.23974
▁सुन	-8.24174
▁पता	-8.2418
▁तरफ	-8.24245
▁उनको	-8.24411
वार	-8.24771
रू	-8.2508
्व	-8.25094
’	-8.25647
▁अन	-8.26074
सि	-8.26155
और	-8.2618
िन	-8.26275
▁सामने	-8.26282
पाल	-8.26293
था	-8.26439
▁मि	-8.26801
वर	-8.27052
▁जिसके	-8.27128
S	-8.27196
in	-8.27304
▁सामान्य	-8.27399
वाह	-8.27486
▁यही	-8.27641
▁मार्ग	-8.27728
ाल	-8.27779
▁इसका	-8.27832
▁पूरा	-8.27928
▁प्रक्रिया	-8.28116
▁याद	-8.2816
▁आई	-8.2841
▁अलग	-8.28627
र्ज	-8.28652
क्स	-8.28737
▁लड़	-8.28842
टर	-8.28911
▁स्तर	-8.28922
00	-8.29045
▁ऊपर	-8.29202
▁करेगा	-8.29285
▁देते	-8.29292
पुर	-8.295
▁उसमें	-8.2953
R	-8.29683
ट्ट	-8.2976
तन	-8.29835
▁दिखा	-8.29891
▁‘	-8.29901
▁संख्या	-8.29914
▁संबंधित	-8.30085
▁पूर्ण	-8.30625
▁लगे	-8.3084
ेंगे	-8.31284
▁निर्माण	-8.31585
हार	-8.318
▁चाहते	-8.31828
टे	-8.31837
हि	-8.32555
▁प्रत्येक	-8.32566
▁डर	-8.32669
▁किताब	-8.32873
▁पे	-8.32996
मु	-8.33028
▁बह	-8.33266
▁आपको	-8.33438
▁पत्र	-8.33663
फ्	-8.33767
▁नियम	-8.33861
▁इसी	-8.34232
▁रंग	-8.34235
▁आदि	-8.3431
▁बदल	-8.34347
ेगा	-8.3435
शि	-8.34363
ीकरण	-8.34523
h	-8.34836
▁ड	-8.34996
न्त	-8.3513
▁ओ	-8.35166
I	-8.35253
ियाँ	-8.35303
ोर	-8.3534
▁ढ	-8.35457
▁हों	-8.35514
नु	-8.3558
▁पढ़	-8.35977
बू	-8.36017
▁अच्छा	-8.36048
आई	-8.36213
▁तीन	-8.36578
▁नई	-8.36654
्म	-8.36674
ऊ	-8.36718
▁बड़े	-8.36767
▁स्वयं	-8.36939
▁य	-8.36964
▁अनेक	-8.36975
E	-8.36994
▁रो	-8.3707
▁बनाने	-8.37245
▁जल	-8.37339
भाव	-8.37344
▁लो	-8.37454
▁कार्यक्रम	-8.37773
तों	-8.37902
▁पूरी	-8.37976
▁जारी	-8.38036
राम	-8.38037
▁शुरू	-8.3814
A	-8.38413
▁मूल्य	-8.38519
कर्ता	-8.38538
▁जि	-8.38631
▁तुम्हारी	-8.38694
▁प्रयास	-8.39048
▁यू	-8.39083
▁नीति	-8.39339
▁थ	-8.3939
▁चार	-8.39655
▁सके	-8.3989
▁आपके	-8.3996
▁रख	-8.39974
िता	-8.40066
▁ज्ञान	-8.40175
म्प	-8.40197
f	-8.40268
ेशन	-8.40289
▁तू	-8.40499
▁धर्म	-8.40508
त्व	-8.40564
▁मूल	-8.40774
दू	-8.40846
▁करा	-8.40936
वास	-8.41215
O	-8.41418
▁निश्चय	-8.41466
▁पै	-8.41478
▁रखा	-8.41584
▁बी	-8.418
l	-8.42009
▁उत्	-8.42133
चित	-8.42431
▁रु	-8.4254
▁गये	-8.42656
▁पानी	-8.42709
ूर	-8.42784
ची	-8.42817
▁निकाल	-8.42937
यी	-8.42974
बे	-8.43197
▁निकल	-8.43202
▁रा	-8.43379
▁मदद	-8.43523
ताओं	-8.43656
धा	-8.43834
er	-8.44013
भी	-8.44043
▁परियोजना	-8.44145
ीन	-8.4422
▁हेतु	-8.44375
▁सिवा	-8.44404
▁मह	-8.44554
▁जमा	-8.44601
सर	-8.44656
रों	-8.44661
▁5	-8.44707
▁खुदा	-8.4474
▁चला	-8.4482
▁मानव	-8.44949
▁चाहता	-8.45038
▁दुनिया	-8.45092
▁दु	-8.45205
च्छ	-8.45667
▁मध्य	-8.45689
बर	-8.45692
फा	-8.45721
▁गयी	-8.46087
▁भवन	-8.46089
डा	-8.46156
योग	-8.46163
▁डि	-8.46343
▁सो	-8.46349
▁बनाया	-8.46426
n	-8.46444
▁महत्वपूर्ण	-8.46563
ांत	-8.46864
▁वर्ग	-8.47033
▁उद्योग	-8.47172
▁रोक	-8.47194
L	-8.47251
शु	-8.47319
हित	-8.4754
▁प्रभाव	-8.47664
▁माल	-8.47727
र्ट	-8.48113
इस	-8.48205
▁तुम्हारा	-8.48508
▁बोल	-8.48639
▁“	-8.48698
▁&	-8.48756
N	-8.4879
हम	-8.48879
▁करेंगे	-8.48957
इन	-8.48972
▁ध्यान	-8.49099
▁पि	-8.49147
र्ग	-8.49236
यां	-8.49323
▁राष्ट्र	-8.49436
ख्	-8.49712
▁शा	-8.49752
▁ली	-8.49754
धि	-8.49843
▁माध्यम	-8.49846
▁समूह	-8.49887
ुल	-8.50024
▁श्र	-8.50146
▁जन	-8.50211
▁प्रौद्योगिकी	-8.50215
▁यहां	-8.50296
▁जिसने	-8.50375
▁अंत	-8.504
▁निर्	-8.50496
ुर	-8.5053
▁बेशक	-8.50672
उस	-8.51047
▁नीचे	-8.51115
▁ठीक	-8.51141
▁लग	-8.51436
▁a	-8.51648
▁प्रतिशत	-8.51681
▁चाहे	-8.5183
रत	-8.51926
बंध	-8.51964
मू	-8.52026
▁बिना	-8.52045
▁समाज	-8.52406
▁संस्था	-8.52478
▁देना	-8.52553
▁खुल	-8.5278
▁इन्	-8.52799
▁प्रमुख	-8.52907
▁मैंने	-8.5311
▁रू	-8.53172
▁देखा	-8.53224
शन	-8.53235
▁मौ	-8.53419
▁पार	-8.53446
▁परिवर्तन	-8.53554
▁बता	-8.53568
क्ति	-8.53582
शील	-8.53667
¥	-8.53675
कल	-8.53752
▁समान	-8.53961
ूल	-8.53968
▁ज्यादा	-8.54039
ग्र	-8.54066
▁स्पष्ट	-8.54492
ात्मक	-8.54551
▁मन	-8.54711
▁व्य	-8.54727
▁सीमा	-8.54751
▁बर	-8.54768
▁जिसका	-8.54839
▁पीछे	-8.54975
▁आवश्यकता	-8.55071
▁किन्तु	-8.55154
▁क्षेत्रों	-8.55176
▁ज़मीन	-8.55262
ंध	-8.55289
▁लेकर	-8.55292
ट्र	-8.55387
▁मगर	-8.55799
▁जबकि	-8.55845
▁पद	-8.55897
▁लोक	-8.56205
गु	-8.56221
िय	-8.56574
▁विश्वास	-8.56576
▁व्यापार	-8.56833
में	-8.56888
▁धरती	-8.57015
▁मर	-8.57164
▁केंद्र	-8.57348
ज्ञा	-8.57821
▁दिए	-8.57916
दाय	-8.57955
▁कंपनी	-8.58119
युक्त	-8.58152
▁आग	-8.58185
शी	-8.58474
गल	-8.58696
ालय	-8.58773
मो	-8.58821
▁आर्थिक	-8.58952
▁खंड	-8.59096
▁कृषि	-8.59108
टि	-8.59171
▁प्रकाश	-8.5924
▁सुधार	-8.59249
▁अतः	-8.59303
नो	-8.59742
ग्रह	-8.60026
k	-8.60064
श्र	-8.60261
वादी	-8.60309
▁अज़ाब	-8.60313
ग़	-8.6044
or	-8.60509
द्	-8.60758
v	-8.60796
x	-8.60856
▁भू	-8.60973
बल	-8.61092
▁ऋण	-8.61121
▁पहुँच	-8.61134
▁जीव	-8.61264
▁वस्तु	-8.61294
▁आदेश	-8.61347
▁आए	-8.6144
यो	-8.61611
▁पूछ	-8.61651
बद्ध	-8.61708
नीय	-8.62014
▁रखते	-8.62053
▁इसकी	-8.62176
ौर	-8.62236
▁पुस्तक	-8.62271
▁इनकार	-8.62343
काल	-8.62377
▁अवधि	-8.62399
▁कुल	-8.62515
ष्ठ	-8.62534
▁होकर	-8.62553
▁जानकारी	-8.62569
▁विधि	-8.62639
▁मिला	-8.62765
गम	-8.62831
ृत	-8.62933
▁जनता	-8.62954
▁विभाग	-8.63022
डे	-8.63051
▁उत्पाद	-8.6325
▁तुमसे	-8.63357
▁शहर	-8.63404
▁सुविधा	-8.63414
▁लगभग	-8.63493
आर	-8.63685
▁सदस्य	-8.63712
▁पक्ष	-8.63736
र्थ	-8.63773
▁स्वीकार	-8.63897
▁जैसा	-8.64015
▁क्यों	-8.64088
▁वक्त	-8.64136
▁रोग	-8.64165
▁काफी	-8.64331
▁अधि	-8.64396
▁अभी	-8.64467
▁फ़ोल्डर	-8.64478
▁अन्	-8.64489
▁खोज	-8.64491
रूप	-8.64508
▁सारे	-8.6467
▁उद्देश्य	-8.64703
▁सौ	-8.64717
▁लागू	-8.65005
▁राह	-8.65043
▁आया	-8.65061
चर	-8.65093
▁१	-8.65112
▁विज्ञान	-8.65417
▁राम	-8.65421
▁मामले	-8.65535
चे	-8.65633
▁जगह	-8.65671
▁कला	-8.6568
▁सहयोग	-8.65772
▁वहां	-8.65884
णा	-8.6595
▁अच्छे	-8.6598
▁मेरा	-8.66104
र्स	-8.66322
▁अंतर	-8.66337
ुक	-8.6636
▁जानता	-8.66413
स्क	-8.66453
क्रम	-8.66608
▁आवश्यक	-8.66706
>	-8.66706
▁चाह	-8.66808
ूँ	-8.66827
▁विश्वविद्यालय	-8.66875
14	-8.67116
नेवाला	-8.67175
िए	-8.67237
▁प्रा	-8.67331
▁रखने	-8.6766
▁अच्छी	-8.67757
▁गा	-8.67967
नेवाले	-8.68334
▁बराबर	-8.68407
▁सामाजिक	-8.68485
▁ग़	-8.68519
मन	-8.68622
▁बदला	-8.68657
▁सभा	-8.68764
▁प्रणाली	-8.68907
▁समाप्त	-8.68981
▁जाएगी	-8.69043
▁ऑ	-8.69089
w	-8.69205
गार	-8.69218
▁शब्द	-8.69232
राज	-8.69236
▁मार	-8.69321
▁स्थापित	-8.69436
षण	-8.69468
▁आने	-8.69811
गो	-8.70359
ल्ल	-8.70449
र्ण	-8.70451
▁पो	-8.70657
▁सोच	-8.70676
▁खेल	-8.70887
¤3⁄4	-8.70981
an	-8.71116
▁प्रस्तुत	-8.71189
टो	-8.71218
्टर	-8.71506
भाग	-8.7154
▁एन	-8.7176
▁कहीं	-8.71842
▁पहुंच	-8.72058
▁कर्म	-8.72137
▁सुरक्षा	-8.72286
भूत	-8.72487
▁साल	-8.72757
▁क्षमता	-8.72806
▁न्यायालय	-8.72888
▁विवरण	-8.72938
▁क़ौम	-8.72986
▁जानते	-8.73001
▁उसको	-8.731
▁परिणाम	-8.73181
▁दें	-8.73295
▁कानून	-8.73348
▁रात	-8.73374
M	-8.73375
▁रहने	-8.7341
P	-8.73525
बार	-8.73604
चि	-8.73738
▁”	-8.73753
▁कोर्इ	-8.73796
▁सत्य	-8.73833
C	-8.73844
▁सर	-8.73891
स्व	-8.73955
▁सन्	-8.73956
दर्श	-8.74037
▁राशि	-8.74065
▁जिससे	-8.74091
▁क्	-8.741
▁सिर्फ	-8.74184
▁टे	-8.74441
वेद	-8.74454
िम	-8.74474
▁चुका	-8.7449
▁बहु	-8.74546
ियम	-8.74772
▁सर्व	-8.74839
▁7	-8.74874
▁18	-8.75052
▁अर्	-8.75141
▁#44;	-8.75246
एम	-8.75274
तो	-8.75275
▁अतिरिक्त	-8.7528
▁संपर्क	-8.75414
ीकृत	-8.75429
▁6	-8.75487
▁जु	-8.75613
ान्त	-8.757
r	-8.75918
D	-8.76154
▁जोड़	-8.76191
हरा	-8.76301
ियन	-8.7635
▁चु	-8.76354
▁लौट	-8.76498
▁हाल	-8.76503
बि	-8.76536
▁क्र	-8.76568
▁चुके	-8.76569
▁रहते	-8.76589
रिया	-8.76699
▁कॉ	-8.76706
▁पेश	-8.76779
▁देव	-8.76781
हे	-8.76874
▁लाए	-8.76964
▁अंतर्गत	-8.77029
ाना	-8.77054
▁एस	-8.77599
▁अनुसंधान	-8.77937
यु	-8.78013
क्षण	-8.78239
ैर	-8.78261
▁डी	-8.78335
¥	-8.78436
ाधिकार	-8.78471
नाथ	-8.78513
▁कहने	-8.78594
▁आकार	-8.78595
▁लेने	-8.78624
▁टी	-8.78627
▁उत्पादन	-8.78664
गें	-8.7867
▁बंद	-8.78763
▁मंदिर	-8.78798
▁आकाश	-8.78838
▁पाठ	-8.78863
पु	-8.78935
13	-8.79324
वान	-8.79473
▁यातना	-8.79489
▁देशों	-8.7953
▁त्रुटि	-8.79615
मंत्र	-8.79658
▁नए	-8.79705
दर	-8.79814
▁रुप	-8.80139
▁फा	-8.80331
▁गुण	-8.80407
सु	-8.80418
▁नही	-8.80424
तम	-8.80443
▁नया	-8.8046
▁खोल	-8.80529
▁सही	-8.80531
ैन	-8.80534
▁यात्रा	-8.80624
▁धन	-8.80678
▁व्यवस्था	-8.80818
▁:	-8.80995
▁सका	-8.81018
▁8	-8.8109
▁बेहतर	-8.81091
▁आम	-8.81125
▁तौर	-8.81148
▁तुमने	-8.81288
▁बीमा	-8.81368
▁क्रिया	-8.81541
▁समिति	-8.81633
▁बै	-8.81636
▁निवेश	-8.8166
▁बनाए	-8.81868
द्द	-8.81946
▁बल	-8.82059
▁न्याय	-8.82123
on	-8.82215
▁बचा	-8.82245
▁संगठन	-8.82266
▁ब्र	-8.82439
▁प्रदेश	-8.82499
▁स्थित	-8.82537
–	-8.82571
जो	-8.82572
लू	-8.82601
▁एक्स	-8.82807
पत्र	-8.82822
▁परन्तु	-8.82933
▁दृष्टि	-8.82951
▁वालों	-8.82962
▁उपधारा	-8.83022
▁जिन्हें	-8.83039
▁गिर	-8.83079
स्ट्र	-8.83184
▁प्रारंभ	-8.83219
▁चौ	-8.83225
रोध	-8.83246
यंत्र	-8.83284
िर	-8.83323
▁S	-8.83961
▁जे	-8.84026
णी	-8.84031
▁''	-8.84071
कू	-8.84084
▁वर्तमान	-8.84147
▁मूसा	-8.84214
▁आरंभ	-8.84219
▁विशिष्ट	-8.84384
▁निर्णय	-8.84386
श्त	-8.84486
ंब	-8.84501
▁मनुष्य	-8.8453
▁युद्ध	-8.84787
▁इतिहास	-8.84989
▁अधिकारी	-8.85053
▁ग्र	-8.85091
वालों	-8.85111
▁कौन	-8.85147
▁समा	-8.85321
▁परिवार	-8.85356
▁भा	-8.85455
▁दिशा	-8.85525
▁संघ	-8.8554
▁बन्द	-8.85742
▁C	-8.86086
▁मत	-8.86096
▁तु	-8.8618
▁हुक्म	-8.86211
▁बच	-8.86394
▁शरीर	-8.86423
▁पड़े	-8.86512
करण	-8.86666
▁हु	-8.86691
▁साहित्य	-8.86772
▁दूसरी	-8.86809
▁चा	-8.86829
▁चित्र	-8.86987
¤	-8.87015
¤°	-8.87171
▁वर्षों	-8.87253
ढ	-8.87265
▁पहचान	-8.87348
▁%	-8.87364
▁लक्ष्य	-8.87393
▁_	-8.87466
▁तुमको	-8.87641
▁छवि	-8.87645
र्ष	-8.87803
▁थीं	-8.87842
▁वहाँ	-8.87968
ेड	-8.87987
▁प्रेम	-8.88187
▁वास्तव	-8.8831
▁10	-8.88329
▁हमारा	-8.88393
▁डाक	-8.88422
एफ	-8.88474
▁स्वास्थ्य	-8.8851
11	-8.88586
▁दिल्ली	-8.88625
एल	-8.8867
▁kg	-8.8918
च्च	-8.89533
▁बाल	-8.89607
▁प्रधानमंत्री	-8.89719
▁जुड़	-8.89841
लों	-8.89922
▁किस	-8.90047
▁पश्चिम	-8.90163
वीं	-8.90304
स्त्र	-8.90417
▁देगा	-8.9045
उन	-8.90528
स्प	-8.90595
▁वास्ते	-8.9067
▁लाख	-8.90805
▁बच्चों	-8.90845
▁संसद	-8.90886
▁दक्षिण	-8.90903
▁निर्धारित	-8.90936
५	-8.91
▁बो	-8.91019
▁महान	-8.91044
▁वृ	-8.91063
▁देखते	-8.91065
▁जिनके	-8.91121
▁योग्य	-8.91671
तु	-8.91683
▁आसमान	-8.91732
▁कैसे	-8.91859
▁प्रश्न	-8.92048
ंगी	-8.92105
त्य	-8.92108
बाद	-8.9212
▁परंतु	-8.92225
▁अनुभव	-8.9223
▁अमेरिका	-8.92616
▁भूमि	-8.9265
▁मंत्रालय	-8.92775
पति	-8.92803
▁घट	-8.92832
Name	-8.92854
▁घटना	-8.92888
▁छा	-8.93043
▁अग्र	-8.93071
प्त	-8.93117
▁शीर्ष	-8.93135
ियो	-8.93141
▁सम्बन्ध	-8.93152
▁हमेशा	-8.93416
▁जन्म	-8.93444
▁सिंह	-8.93538
ाइट	-8.9358
▁विकसित	-8.93594
पे	-8.93597
▁जिन्होंने	-8.93714
यन	-8.93981
▁स्थानीय	-8.94207
▁औ	-8.94223
▁तहत	-8.9431
▁आर	-8.94338
शे	-8.94493
▁उदाहरण	-8.94683
▁name	-8.94703
▁संस्थान	-8.94818
▁नौ	-8.95041
U	-8.95089
▁चे	-8.95176
ar	-8.95366
▁वापस	-8.95408
ज्ज	-8.96
▁अति	-8.96277
17	-8.96319
▁निर्धारण	-8.96504
म्म	-8.96573
▁डॉ	-8.96669
मय	-8.9668
▁हक़	-8.9672
▁मौजूद	-8.96794
▁हटा	-8.96873
▁कल	-8.96878
▁मांग	-8.96933
फिर	-8.97015
▁विदेशी	-8.97096
▁अंग	-8.97183
▁अंतिम	-8.97195
श्च	-8.97447
जीव	-8.97789
▁भेजा	-8.97928
▁प्रो	-8.97982
ार्थ	-8.98038
▁जरूरत	-8.98107
▁संसाधन	-8.98191
▁छोटे	-8.98254
▁प्रस्ताव	-8.98255
▁रचना	-8.98384
चल	-8.98397
▁निश्चित	-8.98402
it	-8.98452
▁बढ़ा	-8.98571
▁प्रवेश	-8.98656
st	-8.98676
लंब	-8.98767
▁भूमिका	-8.98808
▁गांधी	-8.98866
▁जाएँ	-8.99046
”	-8.99334
१	-8.99334
▁पालन	-8.99393
▁लगता	-8.99412
50	-8.99414
▁डे	-8.99439
▁जहाँ	-8.99588
▁हवा	-8.99783
३	-8.99821
▁ऊ	-8.99829
जू	-8.99894
ज्ञ	-9.0003
¥	-9.00142
▁इस्लाम	-9.00142
▁अनुमति	-9.00213
▁अल	-9.00238
▁सक्रिय	-9.00284
▁निस्संदेह	-9.00722
▁नियंत्रण	-9.00765
▁संयुक्त	-9.00805
▁संग्रह	-9.00931
▁समस्या	-9.01023
▁केन्द्र	-9.01116
्वा	-9.01198
▁भाई	-9.01302
re	-9.01422
डि	-9.01465
▁विस्तार	-9.0148
▁जिसकी	-9.01563
▁हे	-9.01607
▁d	-9.01659
▁प्रमाण	-9.01705
▁रहता	-9.01854
▁किये	-9.01876
▁विकल्प	-9.01912
▁जाएँगे	-9.0206
▁खुश	-9.02063
▁पुनर्	-9.02065
▁आधारित	-9.02222
▁बाजार	-9.02268
▁पाया	-9.02272
▁भीतर	-9.02308
▁मित्र	-9.02397
▁पहुँचा	-9.02456
क्क	-9.02556
र्व	-9.02607
▁निर्दिष्ट	-9.02724
▁वित्तीय	-9.03206
▁सहायक	-9.0321
▁संभव	-9.03272
▁वो	-9.03337
▁चुन	-9.03406
▁जांच	-9.03409
▁जाओ	-9.03445
▁हिस्सा	-9.03496
▁प्रथम	-9.03791
श्व	-9.03961
्रा	-9.03972
नाज़िल	-9.04087
▁स्थापना	-9.04096
15	-9.04202
▁बदले	-9.0432
निर्	-9.04345
८	-9.04385
मंडल	-9.04508
वर्त	-9.04585
▁गण	-9.04661
▁गति	-9.04933
▁ठ	-9.05067
▁संबंधी	-9.05072
फो	-9.05226
द्व	-9.05294
▁लें	-9.05308
▁वृद्धि	-9.0539
▁संविधान	-9.05758
▁पुकार	-9.05966
▁विंडो	-9.06186
▁मी	-9.06198
▁अध्ययन	-9.06266
▁जाये	-9.06326
▁उठ	-9.06334
▁प्रगति	-9.06467
▁माना	-9.06561
▁एम	-9.06645
▁चाल	-9.06691
▁तकनीक	-9.06824
प्ल	-9.07099
▁फल	-9.07105
▁मृत्यु	-9.07379
▁9	-9.07484
ज़ी	-9.07492
▁दल	-9.07496
▁A	-9.07502
▁विरोध	-9.07547
en	-9.07689
▁सकें	-9.07712
▁रोज़	-9.07798
▁बैठ	-9.07906
▁प्रबंधन	-9.08124
▁नागरिक	-9.08142
▁अलावा	-9.08196
▁तंत्र	-9.08204
▁लेते	-9.08249
▁पिछले	-9.08281
धान	-9.083
ॉल	-9.08348
▁I	-9.08356
▁कठिन	-9.08374
▁उपकरण	-9.08405
ठा	-9.08541
▁पहली	-9.08965
यक	-9.09007
▁सां	-9.09313
▁गुनाह	-9.09477
▁कृपया	-9.09496
▁उत्पन्न	-9.09497
▁ति	-9.09804
▁कमी	-9.09827
▁सहित	-9.1001
▁रखता	-9.10049
19	-9.10233
▁समर्थन	-9.10336
▁पूंजी	-9.10371
गाह	-9.10372
▁खुद	-9.1051
▁दृश्य	-9.1056
▁पुनः	-9.10896
▁भुगतान	-9.10989
▁मंत्री	-9.11077
▁कं	-9.11204
▁सर्वर	-9.11407
▁गवाह	-9.11461
12	-9.11534
▁खाता	-9.11571
▁राजा	-9.11625
▁सुनिश्चित	-9.11708
क़यामत	-9.11739
▁पृष्ठ	-9.11756
▁सफलता	-9.11817
optional	-9.11852
▁झूठ	-9.11854
▁प्रशिक्षण	-9.11924
▁भाव	-9.11966
६	-9.12021
वृत्ति	-9.12241
बु	-9.12251
▁भिन्न	-9.12263
▁सत्ता	-9.12517
▁करोड़	-9.12791
▁पहल	-9.12795
एक	-9.12803
▁बिल	-9.1292
▁फाइल	-9.12963
▁मात्रा	-9.12982
▁क्षमा	-9.13054
▁क्रम	-9.13141
▁दिनों	-9.13155
▁ऊर्जा	-9.13186
भि	-9.13237
▁उपस्थित	-9.13282
▁वास्तविक	-9.13688
▁रहो	-9.13789
▁@	-9.138
▁निधि	-9.1383
▁स्रोत	-9.13899
▁समुदाय	-9.13994
ांक	-9.14015
▁बद	-9.14167
▁आधुनिक	-9.1419
▁बच्चे	-9.14266
▁भावना	-9.14274
▁उपबंध	-9.14275
▁आदमी	-9.14307
▁स्प	-9.14337
▁रिपोर्ट	-9.1436
▁कार्यालय	-9.14404
▁15	-9.14431
▁(1)	-9.14488
▁लेखा	-9.14525
कृ	-9.14534
▁घु	-9.14716
परि	-9.14855
▁लि	-9.14882
शोध	-9.14931
▁इस्तेमाल	-9.14982
?"	-9.15012
▁पकड़	-9.15036
al	-9.15091
ण्श्	-9.15232
४	-9.15281
पूर्वक	-9.15384
एगा	-9.15388
छ्ष	-9.15394
पो	-9.15434
▁उनपर	-9.15559
▁उन्	-9.15614
▁वेबसाइट	-9.1563
वह	-9.15912
ल्ड	-9.15927
▁चीज	-9.16144
▁चुनें	-9.16242
▁जैसी	-9.16309
गण	-9.16321
▁युवा	-9.16388
निक	-9.16397
▁ज़रूर	-9.16613
यें	-9.16693
▁यथा	-9.16908
▁लिखा	-9.16964
▁सम्मान	-9.17161
▁ऑफ	-9.17268
▁खाते	-9.17298
▁निर्यात	-9.17322
▁सार्वजनिक	-9.17371
र्त	-9.17529
९	-9.17557
▁प्रकृति	-9.17579
▁स्कूल	-9.17704
▁मामलों	-9.18009
डो	-9.18072
▁बर्	-9.18186
▁पुरुष	-9.18188
at	-9.18355
▁पूरे	-9.18357
▁कप	-9.18369
ौल	-9.18476
▁पू	-9.18574
▁शासन	-9.18745
▁भविष्य	-9.18831
▁घाट	-9.18897
याँ	-9.18913
▁सक्षम	-9.18942
▁अत्यन्त	-9.19012
▁मुक्त	-9.19101
▁आसान	-9.19129
▁उल्लेख	-9.19199
▁सरकारी	-9.19268
धे	-9.19303
▁निकट	-9.19471
▁मालूम	-9.19481
स्थिति	-9.19565
चक	-9.19634
▁महत्व	-9.20022
▁कोशिश	-9.20214
▁फि	-9.20249
▁बाप	-9.20251
▁राज्यों	-9.20282
▁समुद्र	-9.2034
▁कार	-9.20396
▁यक़ीनन	-9.20419
वर्ती	-9.20505
▁ईमानदार	-9.20594
क्का	-9.20759
ii	-9.20768
▁साफ	-9.2081
▁आत्म	-9.20849
▁बुरा	-9.20918
७	-9.20918
वासी	-9.2096
▁बातें	-9.20967
H	-9.21077
▁समझा	-9.21092
▁12	-9.21098
र्ध	-9.21173
▁हित	-9.213
le	-9.21401
▁दिखाएँ	-9.2144
ाइल	-9.21451
क्या	-9.21486
▁प्रकट	-9.21587
▁व्यापक	-9.21688
▁उद्यम	-9.21689
लैंड	-9.21689
▁लाल	-9.21721
▁उतार	-9.21911
▁वैज्ञानिक	-9.21952
▁शख्स	-9.21953
▁ग्रामीण	-9.21979
▁बुला	-9.2212
▁पश्चात	-9.22178
▁कांग्रेस	-9.22272
▁जिनमें	-9.22389
▁अपेक्षा	-9.22434
▁प्रशासन	-9.22453
भव	-9.22689
tion	-9.22767
▁सामग्री	-9.22915
▁सदस्यों	-9.23059
▁आयात	-9.23263
▁जवाब	-9.23269
▁उचित	-9.23291
▁बाज़	-9.23291
▁p	-9.23308
▁बंगाल	-9.23511
न्ट	-9.23528
ोगे	-9.23581
▁बैठक	-9.2375
▁देखने	-9.23774
▁अंक	-9.23965
▁बयान	-9.24103
▁अध्यक्ष	-9.24141
▁नदी	-9.24217
▁कवि	-9.24223
▁संकेत	-9.2423
▁संरचना	-9.24296
▁जाति	-9.24366
▁हल	-9.24367
शास्त्र	-9.2442
क़ा	-9.24437
▁समारोह	-9.24515
▁गैर	-9.24593
▁इतना	-9.24664
▁कहो	-9.2479
▁ईसा	-9.24795
▁केंद्रीय	-9.25014
16	-9.25062
▁आवेदन	-9.2515
▁रक्षा	-9.25259
]	-9.25283
es	-9.25286
▁दिखाई	-9.25404
▁पुरस्कार	-9.25476
▁संदर्भ	-9.25476
▁'%	-9.25524
पाद	-9.25531
र्न	-9.25609
▁चले	-9.25661
▁प्रदर्शन	-9.25677
▁मुँह	-9.26003
ाइड	-9.2607
▁डिस्क	-9.26154
▁महिला	-9.26177
▁आयु	-9.26525
▁गांव	-9.26671
▁नियुक्त	-9.26682
01	-9.26689
▁दशा	-9.26697
दु	-9.26789
▁देती	-9.2681
://	-9.26894
भार	-9.27033
▁संगीत	-9.2725
▁सिर	-9.27314
▁खरीद	-9.27342
▁फेर	-9.27413
▁रहेंगे	-9.27431
▁M	-9.27485
▁बातों	-9.27573
▁इनमें	-9.27591
▁वजह	-9.27632
▁गलत	-9.27765
▁मुद्रा	-9.27941
▁चाहिये	-9.28089
▁सद	-9.28136
▁योगदान	-9.28161
▁औद्योगिक	-9.28188
ख़ुदा	-9.28234
▁ठहरा	-9.28243
▁जाय	-9.28256
▁दिवस	-9.28387
▁अपराध	-9.28388
त्मक	-9.2862
▁मुह	-9.28911
▁सुना	-9.29141
▁शायद	-9.2916
यू	-9.29197
▁स्वतंत्रता	-9.29213
▁रखो	-9.29316
▁translation	-9.29415
अप	-9.29441
▁लेख	-9.29657
द्य	-9.29838
▁प्राथमिक	-9.29875
10	-9.29958
▁२	-9.29983
▁किंतु	-9.30054
प्रे	-9.30076
मुख	-9.30294
▁निजी	-9.30455
▁not	-9.30482
▁यूरोप	-9.30483
▁P	-9.30744
ic	-9.30747
▁व्या	-9.3093
▁बने	-9.31115
▁सिद्ध	-9.31141
▁रखना	-9.31231
▁पड़ा	-9.31243
▁एशिया	-9.3168
▁साम	-9.31685
▁बोर्ड	-9.31964
▁अरब	-9.32048
▁0	-9.32147
▁आशा	-9.32183
▁चयनित	-9.32186
▁निर्देश	-9.32201
लेख	-9.32297
▁रकम	-9.32297
▁पहाड़	-9.32309
▁निम्न	-9.32341
खंड	-9.32489
▁सै	-9.32646
क्षेप	-9.32698
▁अवश्य	-9.32862
तुल	-9.32977
▁सार	-9.3303
▁need	-9.33068
र्ति	-9.3332
▁लागत	-9.33471
▁व्यक्तियों	-9.33811
▁राय	-9.33872
▁तत्व	-9.33955
\	-9.34175
निया	-9.34241
ऊँ	-9.34349
▁नाटक	-9.34426
ांतर	-9.34572
▁मद	-9.34817
पत्ति	-9.34888
▁वित्त	-9.34954
▁आयोजित	-9.35015
▁रक्त	-9.35035
ब्र	-9.35232
▁सफल	-9.35233
ॅ	-9.35265
▁शेयर	-9.35392
▁विधान	-9.35443
्रि	-9.35569
▁उद्	-9.35743
एन	-9.35852
▁ढंग	-9.35873
▁वायु	-9.35892
योजन	-9.35936
▁पांच	-9.36014
▁मजबूत	-9.36059
▁शांति	-9.36122
▁प्रभावित	-9.36165
▁चो	-9.36254
२	-9.36281
वृत्त	-9.36319
▁कविता	-9.36352
▁दर्ज	-9.36355
▁पर्याप्त	-9.36428
▁प्रबंध	-9.36588
▁झुठला	-9.36636
▁लेखक	-9.36702
▁अवस्था	-9.36799
▁नगर	-9.36863
▁देंगे	-9.36874
हु	-9.3692
{	-9.37015
▁http	-9.37078
▁प्रकाशित	-9.37274
न्ह	-9.37371
▁दूसरा	-9.37387
▁व्यवहार	-9.37394
Cit	-9.37394
}	-9.37418
ेक्ट	-9.37677
▁खर्च	-9.37841
▁डाला	-9.37976
▁does	-9.38042
▁संस्कृति	-9.38089
▁नेटवर्क	-9.38167
वंश	-9.38233
्यु	-9.38329
▁probabl	-9.38418
▁दुख	-9.38723
▁भय	-9.38729
गृह	-9.38738
देव	-9.38804
▁सलाह	-9.38807
▁राजनीतिक	-9.38857
▁हासिल	-9.39081
▁छात्र	-9.39084
स्ता	-9.39101
▁आत्मा	-9.39104
ियत	-9.39128
ड्ड	-9.39133
भारत	-9.3917
त्ता	-9.39177
▁निर्धारिती	-9.39183
▁चुकी	-9.39336
▁पर्यावरण	-9.39364
▁मुखर्जी	-9.39428
▁फरमा	-9.39574
▁बैठे	-9.39587
▁चै	-9.3964
धिक	-9.39737
▁मू	-9.39792
▁पैग़म्बर	-9.39818
▁युग	-9.39871
हीन	-9.39883
F	-9.39962
▁प्राण	-9.4002
▁निम्नलिखित	-9.40039
▁मशीन	-9.40105
▁सुरक्षित	-9.40162
▁मोह	-9.40202
▁चर्चा	-9.40225
आयतों	-9.40231
▁असफल	-9.40288
ग्रा	-9.40317
▁तेल	-9.40355
▁ख़बर	-9.40406
बन्ध	-9.4047
ol	-9.40487
▁रखे	-9.40535
▁पैर	-9.40606
▁केन्द्रीय	-9.40738
शाली	-9.40764
▁विविध	-9.40952
▁संरक्षण	-9.40996
▁पदार्थ	-9.41025
▁दुर्	-9.411
▁हस्त	-9.41132
▁व्यक्त	-9.41159
▁भारी	-9.4117
पूर	-9.41593
▁सेवाओं	-9.41608
▁प्रमाणपत्र	-9.41663
▁यद्यपि	-9.41771
▁इच्छा	-9.4179
▁सीधे	-9.41872
▁पौ	-9.4189
▁खो	-9.41983
▁वन	-9.42033
फल	-9.42101
▁विशाल	-9.42112
▁लघु	-9.42129
तुम	-9.42152
▁लाने	-9.42347
▁स्टे	-9.42454
▁तारीख	-9.42482
▁ईश्वर	-9.42553
▁बाग़	-9.42677
र्च	-9.42697
▁डेटा	-9.42723
न्स	-9.42771
▁साधन	-9.42977
▁आपकी	-9.43028
द्वीप	-9.4305
▁गुमराह	-9.43078
▁प्रधान	-9.43139
बाहरी	-9.43144
nic	-9.43304
▁कदम	-9.43364
▁बधाई	-9.43376
▁वर्णन	-9.4343
▁सिद्धांत	-9.43497
▁तरीके	-9.43541
▁सम्मेलन	-9.43606
▁तार	-9.43608
मेंट	-9.43682
▁गीत	-9.43709
आख़िरत	-9.43759
▁अपील	-9.43795
▁आतंकवाद	-9.43804
▁मनो	-9.43949
▁चयन	-9.44159
▁शब्दों	-9.44182
▁विरुद्ध	-9.44336
▁आयोग	-9.44388
▁कहना	-9.44413
ृष्ट	-9.44606
▁बढ	-9.44673
▁छोटी	-9.44771
▁परिषद	-9.44881
▁गिरोह	-9.44906
▁गुणवत्ता	-9.44938
कल्प	-9.44984
▁दबा	-9.45033
▁अनिवार्य	-9.45038
▁आस्ति	-9.45066
▁ज़ालिम	-9.45139
▁कंप्यूटर	-9.45206
▁समर्थ	-9.45277
ro	-9.45285
▁शैतान	-9.45307
▁भोजन	-9.45308
▁मिटा	-9.45315
el	-9.45461
▁बनी	-9.45482
भू	-9.45536
ंदा	-9.45755
▁पसंद	-9.45758
▁प्राकृतिक	-9.45847
▁छोड़कर	-9.4587
▁नमाज़	-9.4592
ंगा	-9.46047
▁१९	-9.46107
▁रखें	-9.46149
ब्ब	-9.46209
▁जिला	-9.46235
▁माँग	-9.46282
▁संपत्ति	-9.46393
▁दस	-9.46517
लिंग	-9.4658
▁मुसलमान	-9.46623
V	-9.46628
▁प्राचीन	-9.46628
▁सख्त	-9.46709
▁दर्शा	-9.46996
▁अधिकांश	-9.4707
ra	-9.47125
▁बताया	-9.47191
▁वर्	-9.47243
la	-9.47352
▁D	-9.4748
▁परीक्षा	-9.47525
▁प्रत्य	-9.47674
▁शर्त	-9.47675
▁भंडार	-9.47691
▁तुलना	-9.47945
▁अगले	-9.48183
▁हस्ताक्षर	-9.48277
▁रखी	-9.48374
▁निष्	-9.4839
▁धार्मिक	-9.48555
▁गरीब	-9.48556
▁शिकायत	-9.4859
▁प्रभावी	-9.48956
▁कट	-9.49159
▁अभिलेख	-9.49164
▁गर्इ	-9.4917
B	-9.49197
¤2	-9.49333
▁संशोधन	-9.4936
▁ब्याज	-9.49384
▁वीडियो	-9.49428
▁बुद्धि	-9.4943
▁समाधान	-9.49591
▁प्रोग्राम	-9.49673
▁विदेश	-9.49727
▁दस्तावेज	-9.4985
प्प	-9.49974
08	-9.50086
▁शीघ्र	-9.50343
▁जोड़ें	-9.50365
▁(19	-9.50382
पोर्ट	-9.50396
▁[	-9.50537
02	-9.50631
▁कक्ष	-9.50708
▁अधिकारियों	-9.50775
▁खड़े	-9.50829
▁चिकित्सा	-9.50911
▁समृद्ध	-9.50911
नेवाली	-9.50945
▁आंदोलन	-9.51018
▁संभावना	-9.51055
ल्स	-9.51095
▁हानि	-9.51135
▁उपाय	-9.51199
▁F	-9.51311
▁हालत	-9.51322
▁बन्दों	-9.5142
साथ	-9.51426
षित	-9.51516
▁कुंजी	-9.51521
▁उन्हीं	-9.51589
▁घो	-9.51656
▁पंक्ति	-9.5177
पेक्ष	-9.51816
ग़रज़	-9.51983
▁उम्मीद	-9.52164
▁जल्दी	-9.52211
▁हजार	-9.52238
राव	-9.52397
▁शैली	-9.52454
▁अंश	-9.525
▁आपका	-9.52536
क्ल	-9.52571
▁बनाना	-9.52629
▁तुमपर	-9.52654
▁भागीदार	-9.52709
▁पहुंचा	-9.52744
▁हिदायत	-9.52851
▁संस्थानों	-9.53004
▁प्रणब	-9.53113
▁हिन्दी	-9.53216
▁तुममें	-9.53219
▁समझते	-9.53229
▁सात	-9.53237
▁प्रतीक	-9.53247
▁लगी	-9.53368
▁साइ	-9.53436
▁संसार	-9.53598
एँगे	-9.53608
▁डरा	-9.53759
▁16	-9.5392
▁नियत	-9.54001
,000	-9.54108
▁श्रेणीः	-9.54227
▁संकल्प	-9.54308
▁जरूरी	-9.5435
▁25	-9.54498
▁B	-9.54518
▁पद्धति	-9.54609
▁G	-9.54705
▁मालिक	-9.54864
क़्त	-9.54868
▁निर्मित	-9.54877
▁पुलिस	-9.54906
▁सीख	-9.55006
▁पत्थर	-9.55052
▁सीमित	-9.55136
▁रहती	-9.55229
राष्ट्र	-9.55277
▁खाद्य	-9.55279
▁मिलता	-9.55318
▁क़सम	-9.55447
घात	-9.55454
▁निर्भर	-9.55536
ल्ट	-9.55552
▁अनुप्रयोग	-9.5561
07	-9.55614
▁पश्चात्	-9.55741
▁ब्रिटिश	-9.55796
विध	-9.55815
▁संस्कृत	-9.55853
▁परंपरा	-9.55983
▁साधारण	-9.55984
▁छोटा	-9.56022
▁ताल	-9.56109
▁जहन्नुम	-9.56133
▁माँ	-9.56202
▁मानते	-9.56295
▁फ्र	-9.56346
▁विफल	-9.56412
▁बिल्कुल	-9.56471
िस्ट	-9.56521
▁विवाह	-9.56551
▁इबराहीम	-9.56622
▁फसल	-9.56639
▁न्यू	-9.56678
is	-9.5675
▁वार्षिक	-9.56773
▁रहना	-9.56898
▁तर्क	-9.56901
▁करनेवालों	-9.5692
▁भगवान	-9.57113
▁शाखा	-9.57253
05	-9.57287
▁जाँच	-9.57307
▁अर्थव्यवस्था	-9.5734
अपने	-9.57357
▁सरल	-9.57374
▁शताब्दी	-9.57416
▁पिता	-9.57434
ल्ला	-9.5766
▁पत्	-9.57746
▁निगम	-9.57883
▁अंदर	-9.57908
▁आदर्श	-9.58155
▁शेष	-9.58262
▁पथ	-9.58308
▁घोषणा	-9.58562
▁किसानों	-9.58579
▁सच्चे	-9.58601
▁सारी	-9.5862
िये	-9.58625
▁कहेंगे	-9.58866
दूसरे	-9.5906
▁शुल्क	-9.59062
▁तरफ़	-9.59091
▁महीने	-9.59155
▁निवास	-9.59255
▁प्रदर्शित	-9.59334
▁व्यक्तिगत	-9.59388
▁अत्यंत	-9.59411
▁फैला	-9.59528
ङ	-9.59604
िष्ट	-9.59685
▁30	-9.59761
▁खुलती	-9.59797
▁संघर्ष	-9.60022
▁अन्तर्	-9.60088
▁स्थल	-9.60156
▁अप्रैल	-9.60266
18	-9.60274
▁मूर्ति	-9.60404
▁मौजूदा	-9.60422
▁मुस्लिम	-9.60501
▁सम्मिलित	-9.60501
▁प्रयोजनों	-9.60585
▁विंडों	-9.60875
शाला	-9.60909
▁सदन	-9.60915
▁चू	-9.60939
▁व्यय	-9.61023
प्रभु	-9.61077
60	-9.61117
▁प्रभार	-9.61118
▁चुनाव	-9.61235
▁अंग्रेज	-9.61279
▁स्थायी	-9.61313
▁भूल	-9.61355
▁अंग्रेजी	-9.61501
मैं	-9.61531
▁सदैव	-9.61564
▁खि	-9.61615
▁सामान	-9.61956
▁(2)	-9.62044
▁बढ़ाने	-9.62078
▁इंडिया	-9.6216
▁नोट	-9.62374
▁चरण	-9.62485
▁हृदय	-9.62558
▁त्रि	-9.62607
▁गर्भ	-9.62626
W	-9.62678
▁तथ्य	-9.62681
▁मिट्टी	-9.63281
▁मार्च	-9.63306
▁प्रविष्ट	-9.63322
▁लगाया	-9.63455
आख़िर	-9.6347
▁देखें	-9.63663
▁तेजी	-9.63784
▁अनुच्छेद	-9.63795
▁रहेगा	-9.63842
▁प्रत्यक्ष	-9.63866
▁हालाँकि	-9.64048
▁स्था	-9.64071
▁जिसको	-9.64083
▁निशानियाँ	-9.6413
▁दृष्टिकोण	-9.6417
▁पहला	-9.64391
▁पेट	-9.64643
▁दायित्व	-9.647
▁धारण	-9.64755
▁मुख	-9.64772
क्षेत्र	-9.6486
▁भली	-9.64866
▁गंभीर	-9.64945
▁खास	-9.64976
ed	-9.64999
▁ज़ि	-9.64999
▁बढ़ावा	-9.65167
▁सज़ा	-9.65433
▁लोड	-9.65434
23	-9.65594
ज्ञान	-9.65617
लिखित	-9.65762
▁शिव	-9.65807
अल्लाह	-9.6594
▁खूब	-9.66063
पूर्व	-9.66129
चित्र	-9.6621
▁बौद्ध	-9.66264
▁चलते	-9.66272
▁सत्र	-9.66289
▁उपयुक्त	-9.66312
G	-9.66321
▁दर्शन	-9.66332
▁सांस्कृतिक	-9.66638
क़ुरान	-9.66641
▁रुपये	-9.66721
▁वर्ण	-9.66794
Y	-9.66805
▁नसीहत	-9.66805
09	-9.67045
▁वैश्विक	-9.67097
06	-9.67154
र्इ	-9.67341
▁दोस्त	-9.67356
▁रद्द	-9.67579
▁इनके	-9.67588
हरगिज़	-9.67727
▁रोजगार	-9.67811
▁श्रेणी	-9.67825
▁उल्	-9.67873
▁वस्तुओं	-9.68111
▁अंतरराष्ट्रीय	-9.68318
कालीन	-9.68346
न्ड	-9.68484
▁भु	-9.68725
▁दशक	-9.68768
▁पात्र	-9.68865
▁झगड़	-9.6889
▁महिलाओं	-9.69072
▁व्यवसाय	-9.69168
ांश	-9.69193
▁झुक	-9.69232
▁दोष	-9.6926
▁बख्श	-9.69263
▁यक़ीन	-9.69382
▁सिस्टम	-9.69397
▁क्षेत्रीय	-9.69516
▁विनिर्दिष्ट	-9.69639
▁द्वार	-9.69662
▁मोड	-9.69691
▁फ्ल	-9.69738
क्रिया	-9.69797
▁प्रसिद्ध	-9.69811
ूँगा	-9.69813
ूंगा	-9.69813
▁गाय	-9.69816
▁प्रसार	-9.69836
▁जिनका	-9.69854
▁अंध	-9.69863
il	-9.69983
▁अध्य	-9.70112
▁व्याख्या	-9.70155
▁उत्तम	-9.70177
et	-9.70199
▁बुरी	-9.70327
▁उतर	-9.70333
▁बनाई	-9.70405
▁कठोर	-9.70458
▁दिये	-9.70477
▁अल्प	-9.7048
▁दिख	-9.7051
▁अनुवाद	-9.70543
▁बीज	-9.70565
▁विस्तृत	-9.70718
▁विजय	-9.70747
▁स्वामी	-9.70764
▁स्वरूप	-9.70782
▁ब्ल	-9.70832
▁अधिकतम	-9.70904
▁शक़	-9.70966
▁अधिकतर	-9.70971
▁मेहरबान	-9.70978
▁अनुकूल	-9.70981
▁the	-9.71035
''	-9.71061
▁बिजली	-9.7111
▁अंतर्	-9.71241
▁सुख	-9.71247
▁दिखाया	-9.71252
▁फु	-9.71257
▁समाचार	-9.71262
न्ध	-9.71274
▁पशु	-9.71478
▁संस्करण	-9.71677
▁छिपा	-9.7176
▁मिशन	-9.71772
वस्था	-9.71791
▁खोलें	-9.71926
▁मार्गदर्शन	-9.7194
▁ग्राम	-9.72072
▁वाक़िफ	-9.7216
▁इतनी	-9.72169
▁एच	-9.72218
▁बावजूद	-9.72247
▁पार्टी	-9.72295
▁आयोजन	-9.72357
▁पंजाब	-9.72512
▁सूर्य	-9.72512
▁समक्ष	-9.72569
▁गुज़र	-9.72606
▁प्रयुक्त	-9.72985
▁मौसम	-9.73062
▁सच्चा	-9.73075
▁कटौती	-9.73221
तंत्र	-9.73226
▁पीठ	-9.73256
▁हालांकि	-9.73265
स्थापित	-9.73316
▁शाह	-9.73378
22	-9.7364
▁अत्याचार	-9.73711
▁ग्राहक	-9.73801
▁कथा	-9.73844
▁निरंतर	-9.74025
▁संचार	-9.7411
▁फैल	-9.74116
▁गुरु	-9.74122
▁परस्पर	-9.74125
▁बेच	-9.74128
li	-9.74551
▁जिम्मेदार	-9.74564
▁कोशिका	-9.74857
अपनी	-9.74953
▁स्पष्टीकरण	-9.7496
▁रेखा	-9.74975
▁डाटा	-9.7511
▁दीवार	-9.75158
▁उपचार	-9.75198
▁गुप्त	-9.75253
03	-9.75284
▁गुजरात	-9.75288
▁सबको	-9.75289
▁तेज	-9.7529
रेट	-9.75319
▁पर्वत	-9.75411
▁निदेशक	-9.75432
▁सामना	-9.75444
▁अनुमान	-9.7548
▁विद्युत	-9.75561
▁दीर्घ	-9.75561
▁खाली	-9.7571
▁सूक्ष्म	-9.7588
▁वायदा	-9.76021
▁संलग्न	-9.76246
▁सरदार	-9.76251
▁सरकश	-9.76273
▁गतिविधियों	-9.76287
▁शिक्षक	-9.76445
▁विवाद	-9.76446
▁वातावरण	-9.76475
▁दौर	-9.76507
▁पूर्ववर्ष	-9.76568
▁ज़रुर	-9.76756
▁सकेगा	-9.76805
▁निभा	-9.77113
▁पुत्र	-9.77179
▁जानवर	-9.77218
▁सचिव	-9.77261
▁ख़ुश	-9.77371
▁हिन्दू	-9.77399
▁ग्रहण	-9.77499
▁खड़ा	-9.77565
▁अभियान	-9.7765
मुसलमानों	-9.7787
▁तिथि	-9.78118
ri	-9.78134
▁शुभ	-9.78179
ेन्द्र	-9.78298
▁स्वागत	-9.78426
▁क्लिक	-9.78526
▁कर्मचारियों	-9.78565
ing	-9.78704
▁महसूस	-9.78894
▁मतलब	-9.78897
▁धु	-9.78962
▁स्त्री	-9.79085
▁ड्र	-9.79099
▁सुंदर	-9.79371
th	-9.79503
▁परीक्षण	-9.79522
ur	-9.79797
▁बनाएँ	-9.79882
▁अवैध	-9.80032
▁पलट	-9.80055
▁आँख	-9.80224
िक्स	-9.80233
▁बोझ	-9.80243
▁फूल	-9.80258
▁कल्याण	-9.80268
२००	-9.80317
▁अफ्रीका	-9.80411
▁उदार	-9.80502
▁सड़क	-9.8054
▁फिल्म	-9.80653
▁100	-9.80688
▁कार्रवाई	-9.80794
▁हिसाब	-9.80796
▁झुठलाया	-9.80854
▁स्वच्छ	-9.81335
▁कारबार	-9.81376
▁जून	-9.81394
▁अक्सर	-9.81429
▁इन्हें	-9.8147
04	-9.81497
▁ख़र्च	-9.81609
वर्धन	-9.81655
▁शुभकामनाएं	-9.8171
▁प्रावधान	-9.81759
▁पाकिस्तान	-9.81759
▁सप्ताह	-9.81807
▁भरोसा	-9.81809
▁इबादत	-9.81856
▁भौतिक	-9.82049
▁सहेजें	-9.82109
▁तौबा	-9.82147
▁सहेज	-9.82253
▁शुद्ध	-9.8249
▁कल्पना	-9.82641
▁खिला	-9.82697
रक्षित	-9.82718
hi	-9.82762
▁जनवरी	-9.82783
▁समस्याओं	-9.82787
▁अंतर्राष्ट्रीय	-9.8283
▁शख़्श	-9.82977
▁क्षति	-9.83043
ग्रस्त	-9.83083
ाणु	-9.83169
▁हिस्से	-9.83173
▁सावधान	-9.83174
▁अद्यतन	-9.8337
अलग	-9.83648
▁उपभोक्ता	-9.83715
▁कितने	-9.83728
▁जैव	-9.8407
▁मानसिक	-9.8412
प्ट	-9.84145
▁इजरायल	-9.84161
▁गणराज्य	-9.8421
▁ढूंढ	-9.8426
▁माबूद	-9.84261
▁शुक्र	-9.84265
▁भलाई	-9.84367
▁पुराने	-9.84414
▁वितरण	-9.84568
▁शून्य	-9.84608
▁मान्यता	-9.8463
▁शुरुआत	-9.84958
▁दूध	-9.85166
▁नेतृत्व	-9.85258
▁गैस	-9.85294
un	-9.85436
दुनिया	-9.8557
▁जायेगा	-9.8561
▁एवोल्यूशन	-9.85811
▁धीरे	-9.85839
▁पहन	-9.85961
▁ख्याल	-9.85972
▁हिंदू	-9.86014
iv	-9.86022
ch	-9.86051
▁ज़ुल्म	-9.86266
▁निर्देशिका	-9.86301
▁स्थिर	-9.8637
▁बजाय	-9.86413
विज्ञान	-9.86435
▁इत्यादि	-9.86622
भाँति	-9.86625
▁कितनी	-9.86667
▁शत्रु	-9.86827
▁प्ले	-9.86854
▁ध्वनि	-9.86979
▁जाएंगे	-9.8704
▁उपन्यास	-9.87183
▁मूल्यांकन	-9.87183
▁अनुसरण	-9.87237
▁प्रयोजन	-9.87247
बोध	-9.8736
▁प्रतिनिधि	-9.87366
▁काफ़िर	-9.87544
▁उत्कृष्ट	-9.87901
▁कमांड	-9.8791
▁गंगा	-9.87935
▁सवाल	-9.88105
▁प्रार्थना	-9.88109
▁पर्यटन	-9.88366
▁आनंद	-9.88496
▁पत्नी	-9.88548
ग्राफ	-9.88563
▁स्क्रीन	-9.88625
▁आपूर्ति	-9.88729
▁उन्होने	-9.88781
▁छूट	-9.8879
▁बातचीत	-9.88834
▁अस्तित्व	-9.89302
▁स्वतंत्र	-9.89522
▁कर्मचारी	-9.89616
▁ऐतिहासिक	-9.89878
▁मिटाएँ	-9.89991
▁तेरे	-9.90139
▁अत्यधिक	-9.90141
▁प्रेरित	-9.90141
▁किस्म	-9.90243
▁विद्यार्थियों	-9.90246
▁बेटे	-9.9025
▁पंचांग	-9.90405
▁वाणिज्य	-9.90563
▁कौशल	-9.90722
▁मामला	-9.90949
ेश्वर	-9.91012
▁ट्रे	-9.91088
▁इकाई	-9.91102
▁लक्षण	-9.91141
▁परामर्श	-9.91147
▁तकलीफ	-9.91288
▁फर्	-9.91373
▁बुराई	-9.91415
▁खिलाफ	-9.91425
▁प्रारूप	-9.9148
▁ऊंचा	-9.91664
▁स्तंभ	-9.91734
▁बिक्री	-9.9195
▁देखभाल	-9.91951
▁लॉग	-9.92059
▁आयतें	-9.92065
▁किसान	-9.92115
▁प्रोत्साहन	-9.92163
▁सौंप	-9.92209
कुफ्फ़ार	-9.92216
▁दुआ	-9.92463
▁सुबह	-9.92708
▁नजर	-9.92711
पंथ	-9.92814
▁बुनियादी	-9.92918
▁सृजन	-9.92973
▁जमीन	-9.93002
▁प्रतिक्रिया	-9.93034
▁नज़र	-9.932
▁लोकप्रिय	-9.93244
▁उपयोक्ता	-9.93352
▁मैदान	-9.93394
▁विशेषज्ञ	-9.93808
▁ठिकाना	-9.93898
Comment	-9.94062
▁वाद्य	-9.94095
निर्माण	-9.94116
▁कृष्ण	-9.94117
क्शन	-9.94241
▁लोकतंत्र	-9.9425
▁दिनांक	-9.94331
▁दौड़	-9.94405
▁भाषण	-9.94446
▁ग्रंथ	-9.94502
▁फ़ैसला	-9.94556
पोषण	-9.94649
▁जंगल	-9.94958
▁अक्षम	-9.94976
▁लगातार	-9.95187
▁रास्ता	-9.95213
▁आध्यात्मिक	-9.9533
▁बिहार	-9.95374
▁सीधा	-9.95514
▁इतने	-9.95524
योजित	-9.95559
▁ब्रह्म	-9.95664
हालॉकि	-9.95728
▁विद्वान	-9.95775
▁क्रांति	-9.95832
▁न्यूनतम	-9.95886
▁ठहर	-9.95953
▁पूजा	-9.96041
▁सामर्थ्य	-9.96054
▁पवित्र	-9.96167
▁रौशन	-9.96278
▁भटक	-9.96438
▁असमर्थ	-9.96558
▁थोड़ा	-9.96558
▁ज्ञापन	-9.96616
▁उम्र	-9.96678
▁स्मृति	-9.96727
▁विनियम	-9.9673
▁उभर	-9.96871
▁स्त्रियों	-9.96902
▁प्रायः	-9.97068
ैक्ट	-9.9709
ent	-9.97207
ोत्तर	-9.97246
▁करीब	-9.97542
▁इंजीनियर	-9.97574
▁आदम	-9.97746
▁ख़ूब	-9.97748
▁आंतरिक	-9.97802
▁औसत	-9.97983
▁शरीक	-9.98131
▁निर्वाचन	-9.98143
▁तीव्र	-9.982
▁घरेलू	-9.98372
j	-9.98486
▁रास्ते	-9.98492
▁नील	-9.9857
▁पुस्तिका	-9.98601
▁महत्त्वपूर्ण	-9.98715
▁साम्राज्य	-9.99002
ाधीन	-9.99011
▁तरीका	-9.99064
▁नृत्य	-9.99065
▁मीडिया	-9.99118
▁मुंबई	-9.99176
▁त्याग	-9.99187
यहूद	-9.99217
▁परहेज़गार	-9.99348
▁जल्द	-9.99627
▁ख़ुद	-9.99646
▁युक्ति	-9.9965
▁जोखिम	-9.99813
▁संचालन	-9.9987
▁दस्तावेज़	-9.99926
▁प्रतिभूति	-10.0008
▁घेर	-10.0012
‘	-10.0018
▁विधेयक	-10.0022
भोग	-10.0024
चंद्र	-10.0032
▁आरोप	-10.0037
▁उद्घाटन	-10.0039
▁अभिप्रेत	-10.0045
▁रीति	-10.0056
▁दयावान	-10.0057
▁ऑनलाइन	-10.0063
▁परिस्थितियों	-10.0069
ट्ठ	-10.0086
▁विश्लेषण	-10.0098
▁सैनिक	-10.0113
▁टूट	-10.0114
▁दृढ़	-10.0116
▁अध्याय	-10.0117
▁तमाम	-10.0123
▁सर्वोच्च	-10.0127
▁तुझे	-10.0151
▁तत्काल	-10.0158
▁बाबत	-10.017
▁दूसरों	-10.0174
▁खींच	-10.0175
शासन	-10.0187
▁गठन	-10.0187
▁अगस्त	-10.0229
▁प्रतीत	-10.0254
▁दयालुता	-10.0258
html	-10.0277
▁मीटर	-10.0285
▁उन्नत	-10.0287
▁मोमिन	-10.0303
▁न्यायाधीश	-10.0317
▁ट्रा	-10.033
▁घोषित	-10.0367
▁किनारे	-10.037
▁फैसला	-10.0384
▁द्वि	-10.0385
ञ	-10.042
िस्तान	-10.042
▁संबोधित	-10.0426
▁लिंक	-10.0431
▁मजदूर	-10.0432
▁चेतना	-10.0457
▁पसन्द	-10.0463
▁औषध	-10.0475
▁जितना	-10.049
▁ग़ालिब	-10.0505
▁जाओगे	-10.0507
▁अज्ञात	-10.0512
▁विन्यास	-10.053
▁सर्वाधिक	-10.0532
▁हिंदी	-10.0561
▁आनन्द	-10.0563
▁आवाज़	-10.0565
▁आश्चर्य	-10.0567
▁हत्या	-10.058
लोगों	-10.059
▁अन्दर	-10.0596
▁आक्रमण	-10.0598
▁महामहिम	-10.0604
▁जटिल	-10.0616
▁प्रयत्न	-10.0622
▁प्रतीक्षा	-10.0641
▁औलाद	-10.0641
▁संकट	-10.0651
▁नेहरू	-10.0673
▁मुक़ाबले	-10.0678
▁परिणामस्वरूप	-10.0684
▁नैतिक	-10.0684
▁विपरीत	-10.069
▁आरम्भ	-10.0703
▁कमजोर	-10.0704
▁सिफारिश	-10.0715
▁साबित	-10.0735
▁नवीन	-10.0743
▁सुझाव	-10.0753
ाशय	-10.0762
▁प्रतिनिधित्व	-10.0762
▁विद्यमान	-10.0784
▁प्रेरणा	-10.0797
▁समझौता	-10.0803
▁कूटशब्द	-10.0816
mukh	-10.0816
▁ज़ाहिर	-10.0822
▁पृथ्वी	-10.0822
▁प्रशंसा	-10.0828
▁नूह	-10.0832
▁चिंता	-10.0841
▁जनसंख्या	-10.0841
▁ज़िम्मे	-10.0866
▁ट्रैक	-10.0876
▁सर्वेक्षण	-10.0904
▁मिनट	-10.0913
prana	-10.0924
erje	-10.0924
▁नोड	-10.0931
▁कर्तव्य	-10.0955
prh	-10.0968
▁शिखर	-10.0975
▁सशक्त	-10.1003
▁धैर्य	-10.1007
▁बादशाह	-10.1008
ऑ	-10.1029
▁जहाज	-10.1031
▁राजनैतिक	-10.1033
▁सन्तान	-10.1035
▁पंजीकरण	-10.1091
▁शासक	-10.1112
अज़ाब	-10.1142
▁कार्यान्वयन	-10.1149
▁निकाय	-10.1156
कुफ़्र	-10.1178
▁शारीरिक	-10.1182
▁अधिसूचना	-10.1208
▁डाउनलोड	-10.1208
▁अदालत	-10.1221
▁फॉर	-10.1254
▁अभिव्यक्ति	-10.1261
▁मुद्दों	-10.1261
▁सुभाष	-10.1267
▁न्यास	-10.129
▁कनेक्शन	-10.1307
▁पाठ्यक्रम	-10.1314
▁पेंशन	-10.1327
▁अमेरिकी	-10.1353
▁शैक्षिक	-10.1353
▁यूसुफ	-10.1359
▁विवेक	-10.1364
▁चुनौती	-10.1373
▁गतिविधि	-10.1376
प्राप्त	-10.1389
▁ताकत	-10.1409
▁परिवहन	-10.1414
▁उलट	-10.142
▁आंख	-10.143
▁of	-10.1441
▁बटन	-10.1454
▁घंटे	-10.1461
▁प्रोत्साहित	-10.1467
▁श्रृंखला	-10.1487
▁नक़ल	-10.1492
▁उत्साह	-10.1495
▁ज्ञात	-10.1508
▁दाखिल	-10.1535
▁कार्यवाही	-10.1549
▁समीक्षा	-10.1556
▁पूज्य	-10.1569
▁निगरानी	-10.1575
▁फिरऔन	-10.1576
▁यूनिट	-10.1583
▁अकबर	-10.1597
▁ज़िन्दगी	-10.1616
▁सलाम	-10.1621
▁परिवर्तित	-10.1623
▁शोक	-10.1635
▁मुश्किल	-10.1637
▁समर्पित	-10.1637
▁तलाश	-10.1647
▁मुक़र्रर	-10.1678
▁मुलाकात	-10.1678
▁स्कीम	-10.169
▁महाराष्ट्र	-10.1691
▁आवाज	-10.1691
▁कलकत्ता	-10.1706
▁इंटरनेट	-10.1713
▁सॉफ्टवेयर	-10.1713
▁संपादक	-10.1713
▁मस्तिष्क	-10.174
▁अनुपात	-10.1769
▁साहस	-10.179
▁सभ्यता	-10.1796
▁छिप	-10.1823
▁तस्वीर	-10.1831
▁मिसाल	-10.1838
▁विभाजन	-10.1845
▁अस्थि	-10.1855
▁पृष्ठभूमि	-10.1858
▁आसपास	-10.1872
▁लानेवालो	-10.1885
▁जरिए	-10.1901
▁टैग	-10.1908
▁सचेत	-10.1915
▁नुकसान	-10.1929
▁संदेह	-10.1944
▁सतह	-10.1948
▁अचानक	-10.1957
▁निष्क्रिय	-10.1979
▁श्रेष्ठ	-10.1985
▁नंबर	-10.1989
र्पण	-10.199
▁कश्मीर	-10.2007
▁जलवायु	-10.2007
▁प्ला	-10.2008
▁जुलाई	-10.2021
▁कदापि	-10.2035
▁लंबे	-10.2053
▁मोबाइल	-10.2078
▁मंजूर	-10.2078
▁दरमियान	-10.2092
▁द्वितीय	-10.21
▁प्राधिकरण	-10.2135
▁फ़ॉन्ट	-10.2142
▁मकान	-10.2146
▁मॉडल	-10.2157
संख्य	-10.2177
▁सजदा	-10.218
क़ियामत	-10.2209
▁जन्नत	-10.2209
▁प्रतिष्ठा	-10.2216
▁इकट्ठा	-10.2229
▁पारंपरिक	-10.2229
▁राजनीति	-10.2252
▁प्यार	-10.2285
▁आकर्षित	-10.2295
▁पुरानी	-10.2295
▁ज़्यादा	-10.2302
▁साझा	-10.2303
▁नेअमत	-10.2317
▁जापान	-10.233
▁चैनल	-10.2341
▁कंपनियों	-10.2346
▁अनक़रीब	-10.2361
▁आमतौर	-10.2361
▁पुष्टि	-10.2361
▁नियंत्रित	-10.2391
▁परमाणु	-10.2413
▁लकड़ी	-10.2428
▁विद्यालय	-10.2436
▁नस्ल	-10.2446
▁सुदृढ़	-10.245
▁फ़रमा	-10.2459
▁कुमार	-10.2474
▁समावेश	-10.2503
▁फरवरी	-10.2509
▁निपटा	-10.251
▁संविदा	-10.2517
▁तत्वदर्शी	-10.2524
▁नवान्वेषण	-10.2532
www	-10.2532
▁अस्पताल	-10.2554
▁व्यावसायिक	-10.2577
▁ज़िन्दा	-10.2584
▁बिंदु	-10.2584
▁विनिमय	-10.2599
▁नहरें	-10.2607
▁चेतावनी	-10.2622
▁प्रजाति	-10.2647
▁विरासत	-10.266
▁निराश	-10.2674
▁खराब	-10.2678
▁फोटो	-10.2698
▁ढांचे	-10.2721
वस्तु	-10.2729
▁बाह्य	-10.2731
▁अपेक्षित	-10.2736
▁बस्ती	-10.2769
▁प्रभुत्वशाली	-10.2774
▁भेंट	-10.2791
▁मुसीबत	-10.2797
▁चूंकि	-10.2805
▁इल्म	-10.286
▁हटकर	-10.2868
▁सांसारिक	-10.2921
▁अन्ततः	-10.2929
▁रहस्य	-10.2931
info	-10.2953
(	-10.2961
▁पृथक	-10.2976
▁परिचय	-10.2976
▁मस्जिद	-10.2991
▁टैब	-10.2992
▁समन्वय	-10.2999
▁दोबारा	-10.3
▁चरित्र	-10.3023
▁राजधानी	-10.3023
▁सिविल	-10.3047
रियल	-10.3052
▁विनष्ट	-10.3079
▁क़िस्म	-10.3086
▁सफेद	-10.3126
▁धातु	-10.315
▁हिंसा	-10.3161
▁एकमात्र	-10.3166
▁प्लगइन	-10.3173
▁चेहरे	-10.3173
▁तयशुदा	-10.3197
▁दाख़िल	-10.3213
▁दैनिक	-10.3221
▁अस्थायी	-10.3245
▁अवतरित	-10.3254
▁आखिर	-10.3262
▁समझौते	-10.3318
▁ऑडियो	-10.3416
▁तुरंत	-10.3424
▁इमारत	-10.3424
जैसे	-10.3449
▁लिमिटेड	-10.3457
▁विभाजित	-10.349
▁सर्वोत्तम	-10.3498
▁अनुसूचित	-10.3498
_	-10.6397
#	-10.6939
औ	-10.8162
&	-11.1298
[	-11.422
“	-11.7827
°	-12.0714
@	-12.3587
⁄	-13.062
	-16.5272
̈	-18.0258
¿	-18.0259
̧	-18.026
	-18.0261
	-18.0262
<	-18.0263
	-18.0263
