<pad>	0
</s>	0
<unk>	0
▁¦	-0
de	-1
▁s	-2
en	-3
ll	-4
an	-5
ar	-6
ch	-7
▁h	-8
er	-9
och	-10
om	-11
tt	-12
in	-13
ör	-14
▁f	-15
▁𐋇	-16
är	-17
▁de	-18
ig	-19
▁och	-20
▁t	-21
▁m	-22
▁d	-23
▁v	-24
on	-25
▁,	-26
ill	-27
st	-28
ade	-29
▁a	-30
ka	-31
ag	-32
▁b	-33
or	-34
ck	-35
▁i	-36
et	-37
än	-38
ra	-39
ed	-40
na	-41
el	-42
▁för	-43
un	-44
▁g	-45
der	-46
▁till	-47
▁k	-48
▁l	-49
▁.	-50
▁han	-51
för	-52
▁e	-53
kall	-54
da	-55
ån	-56
jag	-57
▁som	-58
ing	-59
va	-60
på	-61
ol	-62
som	-63
▁u	-64
cke	-65
sa	-66
den	-67
▁H	-68
▁n	-69
pp	-70
▁att	-71
sk	-72
rä	-73
▁så	-74
vi	-75
ta	-76
ud	-77
ter	-78
till	-79
▁»	-80
onom	-81
ver	-82
han	-83
▁är	-84
▁O	-85
▁sk	-86
es	-87
▁en	-88
▁st	-89
▁den	-90
äl	-91
▁D	-92
▁skall	-93
us	-94
os	-95
▁det	-96
li	-97
▁jag	-98
så	-99
äg	-100
kt	-101
▁I	-102
var	-103
▁J	-104
▁Och	-105
▁på	-106
ri	-107
att	-108
▁av	-109
av	-110
itt	-111
▁icke	-112
and	-113
▁var	-114
ot	-115
▁S	-116
ung	-117
ER	-118
RE	-119
ERRE	-120
▁med	-121
▁vi	-122
lla	-123
▁HERRE	-124
ina	-125
det	-126
år	-127
▁HERREN	-128
rån	-129
ju	-130
åt	-131
▁har	-132
▁M	-133
re	-134
it	-135
▁ö	-136
åg	-137
ro	-138
ren	-139
mm	-140
▁dem	-141
▁honom	-142
▁du	-143
ja	-144
ad	-145
omm	-146
le	-147
els	-148
▁ut	-149
lig	-150
as	-151
fter	-152
jor	-153
▁G	-154
at	-155
al	-156
▁upp	-157
rö	-158
dig	-159
are	-160
▁;	-161
onung	-162
ru	-163
▁o	-164
▁där	-165
tta	-166
erren	-167
olk	-168
▁mig	-169
ning	-170
▁om	-171
▁p	-172
▁in	-173
änn	-174
▁sig	-175
▁dig	-176
em	-177
▁:	-178
▁A	-179
llt	-180
ut	-181
is	-182
▁sade	-183
skall	-184
het	-185
▁eder	-186
med	-187
▁Gud	-188
.»	-189
▁över	-190
▁hade	-191
ff	-192
ller	-193
lä	-194
ull	-195
icke	-196
herren	-197
du	-198
▁hans	-199
arn	-200
öra	-201
ram	-202
arna	-203
från	-204
▁𐊣	-205
am	-206
ång	-207
▁komm	-208
ola	-209
ens	-210
där	-211
ne	-212
▁då	-213
har	-214
vid	-215
eg	-216
ava	-217
dem	-218
▁sin	-219
ans	-220
id	-221
▁konung	-222
ön	-223
▁alla	-224
ras	-225
▁Men	-226
yn	-227
og	-228
honom	-229
erna	-230
då	-231
men	-232
ss	-233
▁gi	-234
od	-235
ort	-236
ande	-237
jäl	-238
oss	-239
und	-240
▁folk	-241
▁bli	-242
▁man	-243
äm	-244
▁åt	-245
▁E	-246
öd	-247
upp	-248
jän	-249
▁ett	-250
▁från	-251
eder	-252
sra	-253
▁såsom	-254
sig	-255
▁din	-256
ab	-257
▁min	-258
▁nu	-259
ord	-260
▁Isra	-261
vit	-262
▁när	-263
te	-264
äger	-265
▁efter	-266
äng	-267
ett	-268
ste	-269
▁någ	-270
efter	-271
land	-272
gud	-273
enom	-274
inn	-275
sade	-276
▁T	-277
edan	-278
under	-279
la	-280
▁allt	-281
ur	-282
mig	-283
lev	-284
▁Då	-285
gi	-286
ög	-287
▁hel	-288
▁skola	-289
ann	-290
▁vad	-291
över	-292
andra	-293
▁ty	-294
rätt	-295
ken	-296
▁N	-297
▁men	-298
se	-299
ulle	-300
yg	-301
▁dag	-302
il	-303
▁hava	-304
ock	-305
ul	-306
▁barn	-307
▁son	-308
ba	-309
▁r	-310
▁å	-311
▁ock	-312
▁vid	-313
komm	-314
ader	-315
isk	-316
oro	-317
▁må	-318
ingen	-319
alla	-320
ft	-321
sta	-322
▁fram	-323
▁li	-324
ätt	-325
▁be	-326
▁.»	-327
off	-328
ty	-329
▁mot	-330
▁B	-331
iga	-332
hade	-333
yck	-334
▁sina	-335
▁hus	-336
▁hu	-337
▁deras	-338
hans	-339
jär	-340
olen	-341
när	-342
del	-343
des	-344
▁detta	-345
be	-346
man	-347
bli	-348
ända	-349
aga	-350
öl	-351
▁vill	-352
ött	-353
▁-	-354
min	-355
else	-356
▁HERRENS	-357
ak	-358
ga	-359
ott	-360
folk	-361
mn	-362
▁tal	-363
ska	-364
▁oss	-365
▁tjän	-366
sin	-367
▁vil	-368
vär	-369
lag	-370
ast	-371
kte	-372
vå	-373
▁'	-374
konung	-375
▁gjor	-376
ände	-377
▁gå	-378
ti	-379
må	-380
▁Israels	-381
▁Ty	-382
sam	-383
tet	-384
cka	-385
ose	-386
▁eller	-387
vad	-388
mot	-389
hel	-390
▁sitt	-391
son	-392
varade	-393
fär	-394
gå	-395
▁få	-396
▁K	-397
nu	-398
jorden	-399
▁under	-400
▁vara	-401
öner	-402
all	-403
eru	-404
äll	-405
▁se	-406
offer	-407
ring	-408
▁säger	-409
räst	-410
imm	-411
uda	-412
nen	-413
äder	-414
im	-415
hu	-416
▁mitt	-417
nes	-418
▁Så	-419
▁na	-420
▁land	-421
▁V	-422
ligen	-423
eller	-424
▁F	-425
såsom	-426
dan	-427
▁äro	-428
▁själ	-429
allt	-430
▁här	-431
ännisk	-432
din	-433
▁genom	-434
▁göra	-435
▁dina	-436
ly	-437
▁skulle	-438
▁?	-439
▁--	-440
isra	-441
▁bliva	-442
åd	-443
dag	-444
▁blev	-445
▁komma	-446
▁le	-447
▁någon	-448
aden	-449
▁utan	-450
ara	-451
enne	-452
▁rätt	-453
stad	-454
lem	-455
barn	-456
rar	-457
hus	-458
inna	-459
esus	-460
sm	-461
änder	-462
väl	-463
▁dö	-464
gjor	-465
▁ar	-466
▁ned	-467
▁sta	-468
samm	-469
erusa	-470
éerna	-471
erusalem	-472
någ	-473
pa	-474
andet	-475
ron	-476
▁fi	-477
▁voro	-478
äga	-479
räd	-480
gon	-481
ygg	-482
ät	-483
hö	-484
färdig	-485
äst	-486
yp	-487
red	-488
hör	-489
vet	-490
▁dess	-491
edra	-492
nar	-493
▁brö	-494
▁hör	-495
▁väl	-496
här	-497
avid	-498
▁hand	-499
lar	-500
erre	-501
▁konungen	-502
rof	-503
▁David	-504
bet	-505
amm	-506
skola	-507
lå	-508
▁bort	-509
▁ord	-510
ia	-511
je	-512
lat	-513
▁beg	-514
▁syn	-515
ker	-516
erg	-517
▁hon	-518
▁kun	-519
▁än	-520
▁folket	-521
detta	-522
immel	-523
▁kom	-524
ära	-525
▁ur	-526
hava	-527
lade	-528
vara	-529
ven	-530
▁skolen	-531
▁ju	-532
▁ditt	-533
▁P	-534
▁hav	-535
▁inför	-536
▁hela	-537
▁Guds	-538
kun	-539
ifrån	-540
rukt	-541
terna	-542
fram	-543
vill	-544
▁Där	-545
▁De	-546
ölj	-547
▁all	-548
dr	-549
ssa	-550
rofet	-551
▁ifrån	-552
▁stor	-553
▁väg	-554
▁svarade	-555
▁an	-556
▁mina	-557
▁andra	-558
hå	-559
baka	-560
▁Israel	-561
bar	-562
undra	-563
▁först	-564
deras	-565
sina	-566
▁Han	-567
▁När	-568
ret	-569
▁Se	-570
ningar	-571
liga	-572
▁jorden	-573
ypt	-574
▁söner	-575
lö	-576
nat	-577
sen	-578
▁ingen	-579
▁or	-580
herrens	-581
rade	-582
orna	-583
jud	-584
▁namn	-585
▁dessa	-586
▁hög	-587
nade	-588
vinn	-589
lo	-590
▁L	-591
ob	-592
göra	-593
stru	-594
aren	-595
tjän	-596
kom	-597
▁Jag	-598
▁bland	-599
▁giva	-600
räl	-601
ry	-602
järta	-603
▁kan	-604
rik	-605
råg	-606
ännu	-607
▁något	-608
få	-609
ansi	-610
▁gick	-611
▁lå	-612
rist	-613
?»	-614
▁hå	-615
▁Juda	-616
si	-617
ma	-618
ånga	-619
▁fader	-620
▁sedan	-621
rog	-622
▁förb	-623
ger	-624
▁Herren	-625
▁al	-626
lighet	-627
▁fört	-628
kap	-629
▁hö	-630
vil	-631
▁tjänare	-632
jäm	-633
ligt	-634
usen	-635
ighet	-636
nad	-637
äta	-638
läd	-639
▁människ	-640
ingo	-641
▁vår	-642
agt	-643
▁män	-644
▁blivit	-645
kan	-646
▁kommer	-647
▁Jerusalem	-648
▁tog	-649
▁Jesus	-650
kta	-651
eld	-652
rid	-653
▁off	-654
▁präst	-655
uld	-656
åde	-657
▁gjorde	-658
sl	-659
▁henne	-660
▁bl	-661
opp	-662
▁sp	-663
kring	-664
israels	-665
rän	-666
▁år	-667
jung	-668
▁Ab	-669
syn	-670
dom	-671
▁slä	-672
röst	-673
▁mer	-674
mitt	-675
sitt	-676
▁Jo	-677
yr	-678
ling	-679
bliva	-680
dö	-681
▁edra	-682
sp	-683
mar	-684
komma	-685
io	-686
ster	-687
ej	-688
fi	-689
ycket	-690
ve	-691
▁ej	-692
▁on	-693
säger	-694
▁säga	-695
▁tid	-696
bland	-697
ansikte	-698
▁gör	-699
▁får	-700
låt	-701
▁därför	-702
▁Ja	-703
▁Mose	-704
igt	-705
åda	-706
stå	-707
tar	-708
genom	-709
▁ro	-710
räck	-711
immelen	-712
▁ögon	-713
ned	-714
▁lät	-715
▁ska	-716
▁gjort	-717
dina	-718
själ	-719
trä	-720
skulle	-721
▁R	-722
▁två	-723
▁själv	-724
äro	-725
värd	-726
gen	-727
▁denna	-728
▁ka	-729
gär	-730
▁sju	-731
utan	-732
sten	-733
▁vet	-734
sammans	-735
blev	-736
unn	-737
hon	-738
mer	-739
tid	-740
▁åter	-741
▁vatt	-742
akt	-743
▁landet	-744
eb	-745
gjorde	-746
oder	-747
▁sl	-748
▁dr	-749
iska	-750
någon	-751
▁hos	-752
▁låt	-753
▁sådan	-754
tio	-755
ov	-756
sal	-757
hand	-758
sedan	-759
▁tillbaka	-760
▁tre	-761
▁stad	-762
präst	-763
vud	-764
▁profet	-765
▁läg	-766
dar	-767
gör	-768
fader	-769
▁gav	-770
ik	-771
▁br	-772
gypt	-773
▁rättfärdig	-774
▁låta	-775
sar	-776
ena	-777
enast	-778
▁vå	-779
brö	-780
▁bo	-781
ennes	-782
ännen	-783
tten	-784
roder	-785
äck	-786
▁berg	-787
▁ja	-788
väg	-789
▁Om	-790
▁Egypt	-791
voro	-792
ser	-793
▁liv	-794
▁dagen	-795
▁hundra	-796
ödde	-797
▁äl	-798
stån	-799
innes	-800
edom	-801
hav	-802
aul	-803
agen	-804
sö	-805
konungen	-806
dess	-807
män	-808
▁huru	-809
▁haven	-810
▁hjärta	-811
går	-812
▁bes	-813
hög	-814
dessa	-815
folket	-816
bort	-817
▁ännu	-818
ika	-819
▁taga	-820
änt	-821
jer	-822
yra	-823
▁re	-824
▁intet	-825
äd	-826
david	-827
erligen	-828
beg	-829
▁såg	-830
▁frukt	-831
▁kommit	-832
läg	-833
vår	-834
äkt	-835
giva	-836
därför	-837
jur	-838
iterna	-839
ons	-840
▁bröder	-841
▁fråg	-842
guds	-843
dens	-844
ditt	-845
fall	-846
hela	-847
▁satt	-848
stor	-849
▁ly	-850
lats	-851
▁bet	-852
mina	-853
iss	-854
ätta	-855
israel	-856
▁samm	-857
▁tusen	-858
▁bliver	-859
fört	-860
op	-861
skolen	-862
▁dit	-863
▁ti	-864
juda	-865
▁Den	-866
▁hustru	-867
ades	-868
▁höra	-869
inför	-870
▁stod	-871
net	-872
▁åstad	-873
agit	-874
idan	-875
ek	-876
tog	-877
▁denne	-878
▁skull	-879
ytt	-880
▁Du	-881
satt	-882
herre	-883
▁lik	-884
läder	-885
star	-886
enbar	-887
▁vin	-888
▁kvar	-889
ropp	-890
▁sö	-891
▁fem	-892
▁ol	-893
▁vä	-894
gick	-895
▁ända	-896
ige	-897
svarade	-898
ets	-899
jug	-900
▁emot	-901
landet	-902
▁lika	-903
▁staden	-904
ham	-905
stra	-906
öll	-907
▁kall	-908
▁äta	-909
▁fick	-910
▁många	-911
▁död	-912
ristus	-913
▁gud	-914
▁ansikte	-915
▁skri	-916
▁också	-917
jämte	-918
▁sm	-919
▁hem	-920
▁mån	-921
ämligen	-922
söner	-923
▁dri	-924
▁omkring	-925
otter	-926
▁kunna	-927
vinna	-928
tan	-929
udakt	-930
▁talade	-931
▁trä	-932
▁försam	-933
bl	-934
namn	-935
skap	-936
orgon	-937
hag	-938
skri	-939
▁kommo	-940
bör	-941
▁hålla	-942
.'	-943
▁himmelen	-944
sak	-945
ärl	-946
▁går	-947
nas	-948
ell	-949
igen	-950
skar	-951
list	-952
raft	-953
▁!	-954
bor	-955
▁ber	-956
▁vatten	-957
ager	-958
▁lär	-959
▁stå	-960
människ	-961
följ	-962
▁eftersom	-963
håll	-964
ilver	-965
kommer	-966
vä	-967
annan	-968
Jag	-969
▁eld	-970
pel	-971
van	-972
▁fäder	-973
något	-974
tjänare	-975
▁mycket	-976
tal	-977
▁dagar	-978
änd	-979
jo	-980
▁rik	-981
éernas	-982
räm	-983
▁drog	-984
ld	-985
stod	-986
förb	-987
▁ställ	-988
▁städer	-989
onde	-990
slä	-991
cken	-992
ycken	-993
ningen	-994
vin	-995
▁und	-996
låta	-997
ukt	-998
frukt	-999
▁Jak	-1000
annen	-1001
ställ	-1002
▁vitt	-1003
bo	-1004
▁tro	-1005
▁sände	-1006
▁?»	-1007
dde	-1008
▁fly	-1009
▁måste	-1010
▁människor	-1011
fta	-1012
jus	-1013
höra	-1014
▁Saul	-1015
▁förde	-1016
kunna	-1017
änner	-1018
▁bed	-1019
blivit	-1020
rig	-1021
▁slag	-1022
ål	-1023
vd	-1024
ark	-1025
gar	-1026
yll	-1027
▁sagt	-1028
▁lö	-1029
▁Jakob	-1030
sb	-1031
huru	-1032
pen	-1033
baot	-1034
sn	-1035
▁döda	-1036
▁synd	-1037
bed	-1038
diga	-1039
kar	-1040
jesus	-1041
rede	-1042
rus	-1043
vis	-1044
ende	-1045
▁tala	-1046
▁huvud	-1047
jerusalem	-1048
▁givit	-1049
▁vis	-1050
gjort	-1051
▁fräl	-1052
▁läng	-1053
samma	-1054
vor	-1055
ua	-1056
pade	-1057
dagen	-1058
▁vare	-1059
fem	-1060
vedel	-1061
▁gång	-1062
rätta	-1063
▁mun	-1064
▁Sedan	-1065
änniska	-1066
▁hennes	-1067
får	-1068
bygg	-1069
▁För	-1070
henne	-1071
rå	-1072
säga	-1073
gav	-1074
lät	-1075
knen	-1076
ellan	-1077
▁blod	-1078
▁bud	-1079
▁guld	-1080
kor	-1081
höj	-1082
▁händer	-1083
gång	-1084
▁bor	-1085
▁broder	-1086
unt	-1087
▁Därför	-1088
dat	-1089
fly	-1090
jas	-1091
bliver	-1092
has	-1093
judit	-1094
jugu	-1095
slag	-1096
lipp	-1097
ttio	-1098
älla	-1099
▁stora	-1100
dri	-1101
vo	-1102
osef	-1103
ingar	-1104
▁fast	-1105
eli	-1106
▁Därefter	-1107
▁allenast	-1108
um	-1109
▁ren	-1110
raham	-1111
lär	-1112
talade	-1113
räk	-1114
▁full	-1115
▁hörde	-1116
▁gär	-1117
ender	-1118
▁heller	-1119
yd	-1120
digt	-1121
omo	-1122
▁hjäl	-1123
▁Jer	-1124
▁lig	-1125
två	-1126
önder	-1127
berg	-1128
visa	-1129
▁eg	-1130
▁Sal	-1131
▁moder	-1132
lek	-1133
mose	-1134
taga	-1135
▁svärd	-1136
hem	-1137
abel	-1138
ästa	-1139
ältet	-1140
öttrar	-1141
ars	-1142
▁helg	-1143
▁vilka	-1144
emot	-1145
sju	-1146
ten	-1147
▁offer	-1148
ran	-1149
åter	-1150
▁våra	-1151
▁kvinn	-1152
▁samma	-1153
jord	-1154
onen	-1155
taret	-1156
bes	-1157
era	-1158
öda	-1159
▁fri	-1160
▁lag	-1161
▁både	-1162
▁följ	-1163
▁ville	-1164
träd	-1165
denna	-1166
mo	-1167
▁Aron	-1168
▁sätt	-1169
▁finnes	-1170
själv	-1171
▁tr	-1172
mma	-1173
▁Det	-1174
arnas	-1175
▁tän	-1176
val	-1177
▁pl	-1178
▁Var	-1179
▁nåd	-1180
▁dock	-1181
▁prästen	-1182
arm	-1183
▁vilja	-1184
oskap	-1185
ännoffer	-1186
ber	-1187
hålla	-1188
skull	-1189
▁kött	-1190
▁sten	-1191
stånd	-1192
sådan	-1193
▁dom	-1194
yl	-1195
ack	-1196
▁arbet	-1197
▁vilken	-1198
hustru	-1199
mmar	-1200
br	-1201
viterna	-1202
fri	-1203
▁röst	-1204
odde	-1205
▁gott	-1206
▁uppenbar	-1207
▁Eli	-1208
▁fur	-1209
▁fött	-1210
▁själva	-1211
issgär	-1212
▁An	-1213
▁kunde	-1214
ir	-1215
profet	-1216
▁san	-1217
▁port	-1218
▁tron	-1219
hos	-1220
▁and	-1221
ögon	-1222
bär	-1223
▁el	-1224
elser	-1225
bud	-1226
▁og	-1227
▁häm	-1228
▁herre	-1229
▁Egypten	-1230
fra	-1231
▁föra	-1232
enskap	-1233
såg	-1234
tre	-1235
rättfärdig	-1236
jen	-1237
▁Gi	-1238
▁varit	-1239
bb	-1240
iten	-1241
res	-1242
▁fatt	-1243
▁Kristus	-1244
das	-1245
far	-1246
▁blevo	-1247
▁kropp	-1248
▁sam	-1249
haven	-1250
▁försk	-1251
tillbaka	-1252
jon	-1253
▁En	-1254
▁gingo	-1255
vu	-1256
skil	-1257
▁ev	-1258
osua	-1259
▁nämligen	-1260
jak	-1261
järtan	-1262
därefter	-1263
erk	-1264
▁räd	-1265
liv	-1266
dste	-1267
fråg	-1268
▁äng	-1269
▁plats	-1270
egypt	-1271
kter	-1272
▁kär	-1273
givit	-1274
oda	-1275
vat	-1276
▁Detta	-1277
kommit	-1278
▁ogudakt	-1279
▁best	-1280
ffa	-1281
denne	-1282
vr	-1283
▁stam	-1284
▁framför	-1285
änna	-1286
hundra	-1287
fa	-1288
par	-1289
▁sj	-1290
▁lev	-1291
▁oren	-1292
est	-1293
bröder	-1294
pl	-1295
unga	-1296
▁rö	-1297
▁gläd	-1298
▁veta	-1299
▁Si	-1300
arao	-1301
▁födde	-1302
lik	-1303
också	-1304
ias	-1305
▁rättfärdighet	-1306
föra	-1307
mån	-1308
intet	-1309
▁strid	-1310
▁morgon	-1311
▁konungens	-1312
ug	-1313
hjärta	-1314
ycka	-1315
förde	-1316
▁U	-1317
kten	-1318
▁ande	-1319
▁silver	-1320
olv	-1321
redje	-1322
▁begyn	-1323
▁heliga	-1324
tän	-1325
▁finna	-1326
▁giver	-1327
hjäl	-1328
▁välsig	-1329
ningarna	-1330
lika	-1331
▁dotter	-1332
nesbör	-1333
▁ont	-1334
▁sidan	-1335
fte	-1336
▁satte	-1337
▁fördär	-1338
org	-1339
jamin	-1340
ida	-1341
röj	-1342
empel	-1343
först	-1344
▁fått	-1345
▁hed	-1346
▁vän	-1347
rukta	-1348
▁bygg	-1349
»,	-1350
▁annan	-1351
▁Sam	-1352
▁träd	-1353
ygga	-1354
▁makt	-1355
▁tiden	-1356
elsen	-1357
satte	-1358
▁kraft	-1359
▁filist	-1360
ben	-1361
kl	-1362
alt	-1363
stade	-1364
▁förbund	-1365
atan	-1366
▁säg	-1367
dit	-1368
▁Bet	-1369
elset	-1370
fraim	-1371
lingen	-1372
to	-1373
försam	-1374
staden	-1375
▁gr	-1376
▁draga	-1377
ryck	-1378
eftersom	-1379
▁frågade	-1380
ke	-1381
▁läm	-1382
unnit	-1383
▁båda	-1384
▁verk	-1385
▁jämte	-1386
ittning	-1387
vare	-1388
uel	-1389
▁slog	-1390
▁Egyptens	-1391
nelse	-1392
verk	-1393
tiden	-1394
tusen	-1395
dade	-1396
hörde	-1397
esu	-1398
▁På	-1399
▁bära	-1400
▁kläder	-1401
▁lärjung	-1402
ban	-1403
▁vrede	-1404
eln	-1405
▁öpp	-1406
▁undan	-1407
▁Sebaot	-1408
rev	-1409
drog	-1410
dagar	-1411
▁drä	-1412
▁far	-1413
▁ing	-1414
▁	-1415
¦	-1416
a	-1417
e	-1418
n	-1419
r	-1420
t	-1421
s	-1422
d	-1423
l	-1424
o	-1425
i	-1426
m	-1427
h	-1428
g	-1429
k	-1430
v	-1431
ä	-1432
u	-1433
f	-1434
å	-1435
c	-1436
,	-1437
ö	-1438
b	-1439
p	-1440
j	-1441
.	-1442
𐋇	-1443
y	-1444
»	-1445
E	-1446
;	-1447
R	-1448
:	-1449
H	-1450
S	-1451
D	-1452
N	-1453
O	-1454
J	-1455
I	-1456
M	-1457
G	-1458
A	-1459
?	-1460
-	-1461
𐊣	-1462
𐊼	-1463
'	-1464
T	-1465
V	-1466
B	-1467
F	-1468
K	-1469
é	-1470
!	-1471
x	-1472
L	-1473
P	-1474
U	-1475
Ä	-1476
Å	-1477
(	-1478
Ö	-1479
)	-1480
C	-1481
Y	-1482
2	-1483
0	-1484
4	-1485
6	-1486
1	-1487
8	-1488
9	-1489
ó	-1490
3	-1491
5	-1492
7	-1493
í	-1494
]	-1495
á	-1496
