<pad>	0
</s>	0
<unk>	0
,	-2.85822
▁ᎠᎴ	-3.54886
.	-3.57974
▁ᎾᏍᎩ	-3.78248
;	-3.97407
Ꮓ	-3.99821
Ꭲ	-4.28535
▁ᎯᎠ	-4.46877
▁Ꭴ	-4.47692
Ꭹ	-4.48898
▁ᎨᏒ	-4.63519
Ꮅ	-4.68379
Ꮧ	-4.81031
Ꮒ	-4.82313
▁Ꭰ	-4.82334
Ꮣ	-4.83264
Ꮎ	-4.84692
Ꭿ	-4.84932
Ꮫ	-4.86135
Ꭶ	-4.88849
Ꮕ	-4.9837
Ꮙ	-5.02388
▁ᎥᏝ	-5.06418
▁ᎨᏒᎢ	-5.10076
Ꮈ	-5.13822
ᏰᏃ	-5.15872
Ꭽ	-5.20451
▁ᎤᏁᎳᏅᎯ	-5.22227
▁	-5.23413
ᏍᏗ	-5.28429
Ꮩ	-5.36656
Ꮑ	-5.4016
Ꮿ	-5.42602
Ᏹ	-5.44254
Ꮵ	-5.44603
Ꭺ	-5.4729
Ꮟ	-5.50242
▁Ꮎ	-5.50778
▁Ꮷ	-5.51563
Ᏼ	-5.57004
?	-5.58932
▁ᎤᏂ	-5.63264
▁ᎠᏂ	-5.63627
Ꮢ	-5.6417
Ᏺ	-5.68931
Ꭼ	-5.70375
▁ᏴᏫ	-5.70617
Ꮳ	-5.70717
▁ᏥᏌ	-5.73317
▁Ꮪ	-5.73413
▁ᎾᏍᏉ	-5.73518
▁ᎩᎶ	-5.74841
▁ᎠᏴ	-5.77439
-	-5.79335
▁ᎨᏎᏍᏗ	-5.81544
ᏍᎩ	-5.81784
Ꭸ	-5.8285
Ꮄ	-5.83674
▁Ꮧ	-5.8411
▁Ꭶ	-5.85191
Ꮆ	-5.86943
Ꮂ	-5.87366
ᏍᎩᏂ	-5.87996
Ꮺ	-5.88579
▁ᏂᎨᏒᎾ	-5.88624
Ꮥ	-5.88783
▁ᎤᎬᏫᏳᎯ	-5.89059
Ᏸ	-5.89441
▁ᏥᎩ	-5.89448
▁Ꮳ	-5.89643
▁Ꮵ	-5.90127
Ꮹ	-5.92177
▁ᎾᏍᎩᏯ	-5.92354
Ꮃ	-5.92518
▁ᎢᏳᏍᏗ	-5.95525
▁ᎠᏎᏃ	-5.95771
ᏗᏱ	-5.9595
Ꮻ	-6.00496
▁ᏂᎯ	-6.0154
Ᏻ	-6.0204
▁ᎢᏥ	-6.0208
▁ᎬᏩ	-6.02815
▁ᎾᎿ	-6.03613
Ꭾ	-6.04116
Ꮤ	-6.0433
Ꭵ	-6.04528
▁Ꮣ	-6.0487
▁ᎦᎶᏁᏛ	-6.07962
ᏍᏓ	-6.10401
▁ᎤᎾ	-6.10915
▁ᏱᎩ	-6.11163
Ꮨ	-6.12953
Ꮸ	-6.14208
Ꮴ	-6.16484
▁ᎢᎦ	-6.16841
Ꮲ	-6.1805
Ꮞ	-6.18244
▁Ꭲ	-6.19445
▁ᎪᎱᏍᏗ	-6.19518
ᏍᎦ	-6.22575
▁ᏂᎦᏛ	-6.23224
ᏍᎪ	-6.24138
Ꮪ	-6.26678
Ꮇ	-6.26833
▁ᎣᏍᏛ	-6.29141
▁ᎠᎩ	-6.30894
Ꮼ	-6.32129
▁Ᏹ	-6.33964
▁ᎢᏳᏃ	-6.34786
Ꮔ	-6.35506
▁Ꭱ	-6.35803
Ꮖ	-6.36631
▁ᎢᏣ	-6.37297
ᏍᏛ	-6.39221
▁ᎿᏉᏃ	-6.42096
ᏍᏗᏱ	-6.45213
ᏰᎸ	-6.4757
ᏁᎢ	-6.48072
Ꭰ	-6.48334
▁ᎤᏪᏥ	-6.48539
▁ᏞᏍᏗ	-6.48982
▁ᎡᎶᎯ	-6.49281
▁ᎤᏣᏘ	-6.51679
▁ᎤᏩᏒ	-6.52875
▁ᎢᏳ	-6.54034
▁ᎤᏲ	-6.54262
▁ᎾᏍᎩᏃ	-6.56873
▁ᏂᎦᎥ	-6.57094
ᎯᏳ	-6.58463
ᏍᎨᏍᏗ	-6.58957
Ꮠ	-6.60249
▁ᎿᏉ	-6.60464
▁Ꭿ	-6.60505
▁Ꮻ	-6.61279
Ꮜ	-6.63461
▁ᎠᏥᎸ	-6.63968
▁Ꮔ	-6.65411
ᎸᎩ	-6.6621
▁ᎤᏓ	-6.66478
▁ᎬᏂᎨᏒ	-6.66982
Ꭱ	-6.68636
▁Ꭼ	-6.68731
ᏒᎩ	-6.69458
▁ᎢᏨ	-6.70517
▁ᎠᏓᏅᏙ	-6.70678
▁ᏄᏍᏛ	-6.71045
▁ᎤᏪ	-6.71274
▁ᏚᏂ	-6.7217
▁Ᏻ	-6.72212
▁ᎧᏃᎮᏛ	-6.72311
ᏁᎸ	-6.72497
▁ᎦᎸᏉᏗᏳ	-6.73953
ᏅᎩ	-6.75268
▁ᎦᎸᎳᏗ	-6.75604
▁ᎠᏆ	-6.75958
▁ᎦᏙ	-6.76838
Ꮶ	-6.77876
▁ᎾᎯᏳ	-6.78211
▁ᎣᏏᏳ	-6.78774
▁ᏗᎧᎿᏩᏛᏍᏗ	-6.79517
▁ᎢᏴᏛ	-6.8022
ᎮᏍᏗ	-6.80546
▁Ꮥ	-6.80849
ᎲᎢ	-6.82331
ᏙᎵ	-6.82877
▁ᎪᎯ	-6.82948
▁ᎠᏥ	-6.83905
ᏎᎢ	-6.85061
▁ᎡᎯ	-6.86142
ᏓᎴ	-6.8714
▁ᎤᏟ	-6.8742
▁ᎾᏂᎥ	-6.87815
▁ᎯᎠᏃ	-6.87821
ᏍᏆ	-6.88666
ᏓᏅ	-6.88914
▁ᎠᏍᎦᏯ	-6.89336
▁Ꮽ	-6.89825
Ꮦ	-6.90064
Ꭴ	-6.91059
ᏤᎵ	-6.91156
ᏙᏗ	-6.92167
▁Ꭸ	-6.92444
▁Ꮿ	-6.92661
ᏅᎯ	-6.92901
▁Ꮒ	-6.93748
ᏁᏗᏱ	-6.93874
▁ᏄᏪᏎᎢ	-6.93922
▁ᎤᏤᎵᎦ	-6.94937
Ꭷ	-6.95222
▁ᎠᏓ	-6.95235
ᏍᏚ	-6.96937
ᎴᎢ	-6.99493
▁ᏧᎾ	-7.0006
ᏍᎬᎢ	-7.00659
▁ᎬᏂᏳᏉ	-7.00686
▁ᎤᏤᎵ	-7.00732
▁Ꮶ	-7.01494
ᏍᎬ	-7.01507
▁ᏗᎦ	-7.01525
▁Ꭳ	-7.01785
▁ᎢᎩ	-7.03295
▁ᏧᏂ	-7.03688
▁ᎢᏳᎵᏍᏙᏗᏱ	-7.06274
ᏁᎸᎯ	-7.06602
▁ᎠᎾ	-7.06668
▁ᎨᏥ	-7.07092
▁ᎡᏥ	-7.07498
▁ᏌᏉ	-7.07586
Ꮏ	-7.08516
▁ᏰᎵ	-7.08877
ᏁᎵ	-7.09017
Ꭻ	-7.09045
▁Ꭺ	-7.09129
▁ᏚᏳᎪᏛ	-7.09529
Ꮯ	-7.10394
ᎸᎯ	-7.10754
▁ᏥᏌᏃ	-7.10884
ᏔᏅ	-7.1093
▁[	-7.10999
▁ᏗᏣ	-7.1171
ᏄᎪ	-7.11939
]	-7.11992
▁Ꭵ	-7.1203
▁ᏕᏥ	-7.12059
▁ᎤᏂᏣᏘ	-7.13503
ᎬᏩ	-7.13588
ᎦᏘ	-7.13717
Ꮝ	-7.15437
ᏲᎱ	-7.15996
Ꮡ	-7.15997
▁ᎨᏎᎢ	-7.16255
▁Ꮩ	-7.16856
▁ᎠᏎ	-7.19268
▁ᎠᏁᎯ	-7.20004
Ꮘ	-7.20122
ᏍᎪᎢ	-7.20171
▁Ꮴ	-7.20215
ᏛᎦ	-7.20358
ᏗᎭ	-7.21183
Ꮰ	-7.21308
ᏔᏅᎯ	-7.21398
▁ᏔᎵᏁ	-7.21399
▁ᎠᏂᏧᏏ	-7.21949
ᎸᎢ	-7.22042
▁ᎤᏁ	-7.22897
▁ᏧᏓᎴᏅᏛ	-7.2312
▁ᎬᏩᏍᏓᏩᏗᏙᎯ	-7.24258
▁ᎤᎵ	-7.25528
ᎲᎩ	-7.26
ᏁᏗ	-7.26038
▁ᎤᎬᏩᎵ	-7.26467
▁ᎤᏬ	-7.26477
ᎨᏍᏗ	-7.27452
ᏍᎨ	-7.27456
▁ᏍᎩ	-7.27609
▁ᏣᏂ	-7.27631
ᏁᎯ	-7.27674
ᎮᎢ	-7.27719
ᎦᏔᎲ	-7.28612
ᏍᎨᎢ	-7.28639
Ꮷ	-7.28961
▁ᏉᎳ	-7.29989
ᏁᎭ	-7.30108
ᎯᏍᏗ	-7.30399
ᏍᏕ	-7.30603
▁ᎣᎩ	-7.30875
ᏍᏙᏗ	-7.31233
ᏚᎵ	-7.31411
ᏍᏙ	-7.31423
▁ᎤᏁᏨ	-7.31852
▁ᏈᏓ	-7.33171
▁Ꮹ	-7.33309
ᏒᎢ	-7.33805
ᏛᎩ	-7.34085
ᏅᎢ	-7.34772
▁ᎦᎪ	-7.35009
ᏂᎸ	-7.35213
▁ᏗᏥ	-7.35565
Ꮀ	-7.36905
▁ᏓᏂ	-7.37158
▁ᏗᏂ	-7.37331
▁ᏂᎪᎯᎸ	-7.37411
▁ᎢᏤ	-7.37542
ᏄᏬ	-7.37589
▁ᏂᏚᏪᏎᎴᎢ	-7.37668
ᏒᎯ	-7.3838
▁ᏄᏪᏒᎩ	-7.39108
▁ᎢᏯ	-7.39305
▁ᎠᎹ	-7.39695
▁ᎠᎦ	-7.39795
▁ᎪᎯᏳᏗ	-7.40037
▁ᎤᏙᎯᏳᎯᏯ	-7.40323
▁ᏄᏪᏎᎴᎢ	-7.41766
Ꮗ	-7.41866
ᏍᏙᏗᏱ	-7.42037
▁ᏝᏍᎪ	-7.42767
ᏩᏛ	-7.4288
▁ᎦᏙᏃ	-7.42905
ᏍᎬᎾ	-7.44262
Ꮋ	-7.44465
▁ᏕᎦ	-7.46775
▁ᎣᎦ	-7.4678
▁Ꮫ	-7.47005
ᏁᎴ	-7.47331
▁ᏥᎷᏏᎵᎻ	-7.47552
▁ᎢᏧᎳᎭ	-7.47708
▁ᎨᏒᎩ	-7.47788
▁ᏂᎦ	-7.48052
▁ᎢᎬᏱ	-7.48091
▁ᎤᏅᏒ	-7.4944
ᎯᏍᏗᏱ	-7.49533
ᎦᎵ	-7.4955
▁ᏔᎵ	-7.50835
ᏗᏍᎨᏍᏗ	-7.50986
▁ᏣᎬᏫᏳᎯ	-7.51177
ᎵᏍᏓ	-7.51377
▁ᎡᏣ	-7.51486
▁ᎡᏍᎦ	-7.51804
ᏗᏍᎩ	-7.52349
▁ᎤᎾᏓ	-7.52564
▁ᏥᎪ	-7.53001
ᏙᏗᏱ	-7.53059
▁ᎬᏂᏛ	-7.53345
▁ᎠᎨᏴ	-7.53432
▁ᏂᏚᏪᏎᎸᎩ	-7.53436
▁ᏱᏂ	-7.53782
▁ᏅᏩᏓᎴ	-7.54963
▁ᎠᏰᎸ	-7.55086
▁ᎠᏰᎵ	-7.55278
▁ᏂᏚ	-7.55634
▁ᏙᏓ	-7.56016
ᏁᎸᎩ	-7.56233
▁ᏚᎾ	-7.56447
ᏲᎯ	-7.56503
▁ᏄᏪᏎᎸᎩ	-7.56557
▁ᎠᏏ	-7.56599
ᎪᎢ	-7.57407
▁ᎦᏚ	-7.57943
▁ᏂᏣ	-7.58947
ᏨᎯ	-7.59118
▁Ꮕ	-7.5968
▁ᎤᏓᏙᎵᏍᏗ	-7.60148
▁ᏂᎦᏗᏳ	-7.60451
ᏔᏂ	-7.60609
ᏅᏎ	-7.6062
ᎪᎲ	-7.61267
▁ᎠᏕᎸ	-7.61288
ᎬᎢ	-7.61383
ᏔᏁ	-7.62036
▁Ꭽ	-7.62111
▁ᏅᏗᎦᎵᏍᏙᏗᎭ	-7.6214
▁ᏧᏪᏥ	-7.62265
ᎦᏔᎭ	-7.62465
ᏪᎳ	-7.62817
Ꮱ	-7.62839
▁ᎬᏗ	-7.63257
▁ᏧᎾᏓᎴᏅᏛ	-7.63764
ᎲᎾ	-7.63995
▁ᏅᏓ	-7.65272
▁ᎾᎥ	-7.65774
▁ᎤᎾᎵ	-7.66173
▁ᎢᏯᏂᏛ	-7.66292
▁ᏥᏚ	-7.66651
ᏙᎯ	-7.67074
ᏁᎮᏍᏗ	-7.67613
▁ᎣᏂ	-7.68003
ᏍᎬᎩ	-7.68334
▁ᎬᏂ	-7.68514
▁ᏅᎩ	-7.68905
ᏗᏍᎬ	-7.69805
▁ᎠᏫ	-7.69945
ᏁᎲ	-7.71032
▁ᏱᎦ	-7.71672
ᏍᏔᏅ	-7.7169
ᏓᏅᏛ	-7.71732
▁ᏥᏂ	-7.72026
ᏛᎾ	-7.72157
ᏁᏟᏴ	-7.72485
▁ᎾᏍᎩᏯᎢ	-7.72976
▁ᎠᏏᏴᏫ	-7.73399
ᎳᏗ	-7.73951
▁ᎪᏪᎵ	-7.74329
▁ᏂᎬ	-7.75509
▁ᏂᏥ	-7.76038
▁ᎤᏙᎯᏳᎯ	-7.7616
▁ᎬᏩᎦᏘᏯ	-7.76204
▁ᎩᎳᏉ	-7.76413
ᏍᏔᏅᎯ	-7.77
ᏲᎵ	-7.77278
▁ᏭᏂ	-7.77345
ᎦᏛ	-7.77854
ᎲᏍᎩ	-7.78005
ᎧᎿ	-7.78295
ᎾᏄᎪᏫ	-7.78515
▁ᎠᏏᏉ	-7.78994
▁ᎤᏍᏗ	-7.79346
ᏉᏍᎩᏂ	-7.79637
▁ᏧᎾᏁᎶᏗ	-7.801
ᏎᏍᏗ	-7.81313
ᏍᎩᏂᏃᏅ	-7.81728
▁ᏗᎬᏩ	-7.82013
▁ᎢᎦᎢ	-7.82293
ᎲᏍᎦ	-7.82421
!	-7.83067
▁ᏄᎬᏫᏳᏒ	-7.83068
ᎶᏒ	-7.83337
▁ᎠᎵ	-7.83841
ᏲᏎ	-7.83936
▁ᏂᏨᏪᏎᎭ	-7.84088
▁ᎢᏳᏩᏂᏌᏛ	-7.84088
▁ᎤᏇᏓᎵ	-7.84088
▁ᏫᏚ	-7.84115
▁ᎨᏣ	-7.8494
▁ᏗᎧᎿᏩᏗᏙᎯ	-7.85118
ᏍᏓᏴ	-7.85948
▁ᎤᎵᏂᎩᏛ	-7.86396
▁ᏕᏣ	-7.86482
ᎫᏴ	-7.86553
▁ᎢᏓᎵᏅᏟ	-7.87213
▁ᏗᎦᎸᏫᏍᏓᏁᏗ	-7.87251
ᎢᏳ	-7.87764
▁ᏓᎾ	-7.87793
▁ᏄᎾ	-7.88216
▁ᏱᏥ	-7.88889
ᎰᎢ	-7.89385
▁ᎢᎬ	-7.90462
▁Ꮜ	-7.90789
▁ᎣᏥ	-7.90869
ᏁᎴᎢ	-7.9089
Ꭳ	-7.90999
▁ᏥᏕ	-7.91276
ᏙᏓ	-7.91406
ᎵᏏ	-7.91979
▁ᏱᏣ	-7.92077
▁ᎢᎦᏤᎵ	-7.92123
▁ᏱᎨᏎᏍᏗ	-7.92876
▁ᏅᏯ	-7.93289
▁ᎦᎵᏉᎩ	-7.93773
▁ᎤᏚᎩ	-7.93841
▁ᎦᏚᎲ	-7.93911
▁ᏦᎢ	-7.9435
▁ᎢᎬᏩ	-7.94893
▁ᎢᏗ	-7.94961
ᎬᎩ	-7.95148
▁ᎤᏍᏆᏂᎪᏗ	-7.95498
▁ᎤᏅ	-7.95803
▁Ꭷ	-7.95944
ᏔᏅᎩ	-7.95964
▁ᏅᏩᏙᎯᏯᏛ	-7.96058
▁ᎤᏕᎵᏛ	-7.96066
▁ᏂᏗ	-7.9609
ᎾᎵ	-7.96116
▁ᎡᏙᏓ	-7.9626
ᎢᏍᏗ	-7.96492
▁ᎩᎶᏃ	-7.96717
ᎶᏗ	-7.96864
Ꮮ	-7.97214
▁ᎤᎷᏨ	-7.97265
ᏅᏒᎩ	-7.97311
▁ᏗᏓ	-7.98134
▁ᏧᎬᏩᎶᏗ	-7.98398
▁ᏧᏙᎢᏛ	-7.98398
▁ᎠᏂᏍᎦᏯ	-7.98407
▁ᎢᏗᏢ	-7.9879
Ꮭ	-7.98897
▁ᏱᏚ	-7.99483
▁ᏄᏂᏪᏒᎩ	-7.99588
ᏅᏏᏛ	-7.99598
ᎠᏁᎶᎯ	-7.99617
▁ᎢᎨᏎᏍᏗ	-7.99624
ᎷᏨ	-8.00494
▁ᎤᏕ	-8.00598
▁ᏄᏂᏪᏎᎢ	-8.00794
ᏍᏔᏂ	-8.00831
ᏁᎳᏅᎯ	-8.01143
▁ᎤᏁᎳᎩ	-8.01264
ᎴᏂ	-8.01503
ᎦᎵᏍᏓ	-8.01793
▁ᎠᎾᏙᎴᎰᏍᎩ	-8.02013
▁ᎤᎾᏓᏅᏘ	-8.02016
ᏯᏅ	-8.025
▁ᎢᎬᏱᏱ	-8.02766
▁ᎦᏥ	-8.03413
▁ᏅᏓᏳ	-8.03484
ᏕᎩ	-8.03978
▁ᏰᎵᏉ	-8.04049
▁ᏱᏗ	-8.04075
▁ᏔᎳᏚ	-8.04497
▁ᎨᏎ	-8.04502
ᏄᎪᏨ	-8.05075
▁ᎢᎦᏛ	-8.05136
ᎧᏁ	-8.05381
ᏗᏍᎬᎢ	-8.05512
▁ᎢᎸᎯᏳ	-8.0577
ᏓᎸ	-8.0599
▁ᎠᎪ	-8.06005
ᎬᎾ	-8.06026
ᏁᏨ	-8.06824
ᎾᏝᎢ	-8.07116
▁ᎢᏳᏰᏃ	-8.0716
ᎳᏫ	-8.07391
▁ᏗᎦᎳᏫᎢᏍᏗᏱ	-8.07518
ᎷᏤᎸ	-8.08165
▁ᎠᏂᏔᎵ	-8.08369
▁ᏄᎵᏍᏔᏅ	-8.08628
ᎴᏅ	-8.08684
▁ᏌᏩᏂ	-8.09662
ᎵᏍᏕᎸᏙᏗ	-8.0969
▁ᎡᎳᏗ	-8.09929
ᏍᏔᏅᎩ	-8.10303
Ꮽ	-8.10454
▁ᎢᏣᏓ	-8.10461
▁Ᏺ	-8.10543
ᏁᎳ	-8.10728
▁ᏄᏂᎬᏫᏳᏒ	-8.10993
▁ᎤᎾᏛᎦᏅ	-8.11019
▁ᎢᏏᎵ	-8.11019
▁Ꮸ	-8.11049
▁ᏕᎤ	-8.1136
ᏍᏔᏁ	-8.11508
▁ᎡᏆᎭᎻ	-8.12344
▁ᏱᎰᏩ	-8.12345
▁ᏅᏓᏳᏓᎴᏅᎯ	-8.12358
▁ᎨᎵᎵ	-8.12373
ᏓᏍᏗᏱ	-8.12537
ᎡᎸ	-8.12978
ᏔᏁᎢ	-8.13104
▁ᎦᏓᎭ	-8.13757
▁ᎠᏍᎦᏂ	-8.13758
ᏁᏤᎸ	-8.14388
ᏅᏏᏓᏍᏗ	-8.14514
▁ᎠᏂᏆᎵᏏ	-8.15104
▁ᏚᏙᎥ	-8.15115
ᏤᎢ	-8.15139
▁ᎬᏩᏂ	-8.15286
ᎨᎶᎯ	-8.15406
ᏌᎳ	-8.15561
▁ᎤᎾᏤᎵᎦ	-8.15634
Ꮁ	-8.1597
▁ᏗᎨ	-8.16352
Ꮾ	-8.16507
▁ᎼᏏ	-8.16511
▁ᏗᏂᎧᎿᏩᏗᏙᎯ	-8.16511
▁ᎤᎾᏓᏡᎬ	-8.16512
▁ᎢᎨ	-8.16549
▁ᎨᎦ	-8.16698
ᏨᎩ	-8.16852
ᏫᏒ	-8.17179
▁ᏂᏨ	-8.17284
▁ᏱᎨᏎᎢ	-8.17299
ᏍᏗᎭ	-8.1769
ᏍᏗᏍᎨᏍᏗ	-8.17748
▁ᏥᎦ	-8.1794
ᎲᎦ	-8.18072
▁ᎤᏩ	-8.18139
▁ᏥᏓ	-8.18224
ᎵᏍᏓᏴᏗ	-8.18355
▁Ꮉ	-8.1844
ᏅᏒ	-8.1875
ᏐᏅ	-8.18754
ᎾᏄᎪᏫᏎ	-8.19187
▁ᎠᏙᎴᎰᏍᎩ	-8.19389
ᏎᎵ	-8.19536
▁ᏄᏂ	-8.19558
ᏍᏔᏁᎢ	-8.19698
▁ᎥᎩ	-8.19831
▁ᏂᏓ	-8.19963
▁ᎠᏎᏉ	-8.20199
ᏎᎴ	-8.20221
ᏗᎦᎳᏫᎢᏍᏗᏱ	-8.20319
ᏍᏗᏍᎩ	-8.20434
ᏁᎰ	-8.20811
ᎬᏫᏳ	-8.20846
▁ᎠᏲᎱᎯᏍᏗ	-8.2087
ᎡᎵ	-8.21063
ᎶᎯ	-8.2122
ᏌᏛ	-8.21241
▁Ꮟ	-8.2132
▁Ꮑ	-8.2136
▁ᏱᏓ	-8.21977
ᎵᏍᏙᏗ	-8.22102
▁Ᏼ	-8.22113
Ꮬ	-8.22352
▁Ꭾ	-8.22549
▁ᏂᎬᏅ	-8.22695
ᏗᏢ	-8.22966
ᏛᏁᏗ	-8.23441
▁ᏥᏥ	-8.23735
▁ᎤᏂᏲ	-8.23837
▁ᎢᏨᏒ	-8.24271
ᏫᏎ	-8.24374
▁ᎠᏓᏁᎸ	-8.24442
ᏩᏛᎲ	-8.24493
ᏁᎸᎢ	-8.24493
▁ᎠᎦᏴᎵᎨ	-8.2467
▁ᎤᏲᎱᏒ	-8.24682
▁ᏂᎯᏍᎩᏂ	-8.24972
▁ᎠᏛ	-8.25126
ᎨᎢ	-8.25235
▁Ꮨ	-8.25267
Ꮉ	-8.25617
▁ᏫᏥ	-8.26056
▁ᏓᏥ	-8.26316
▁ᎦᏙᎯ	-8.26375
ᎢᏍᏗᏱ	-8.2663
▁ᏗᎩ	-8.26892
▁ᎢᏯᎦᏴᎵ	-8.26968
ᏕᏍᏗ	-8.27224
ᎵᏍᏔᏅ	-8.27361
▁ᎤᏛᏅ	-8.27571
▁ᎤᎪᎲ	-8.28005
ᎸᎭ	-8.28204
▁ᏓᎦ	-8.28253
▁ᎬᎩ	-8.28509
▁ᎠᏍᎩᎾ	-8.28629
▁ᎠᏁᎲ	-8.28666
ᏟᎶᏍ	-8.28716
▁ᎦᏰ	-8.28832
ᏁᎬ	-8.29362
▁Ꮀ	-8.29638
ᏯᏅᎲ	-8.29725
▁ᎧᏁ	-8.29802
ᏎᎭ	-8.29846
▁ᎺᎵ	-8.3017
▁ᎦᏳᎳ	-8.30176
▁ᏕᏣᏓ	-8.30191
▁Ꮡ	-8.30212
▁ᎠᏓᎨᏳᏗ	-8.30214
ᏎᏗ	-8.31075
▁ᏄᏍᏗ	-8.31219
▁ᎧᏁᎬ	-8.31814
▁ᏂᎬᎾᏛ	-8.31825
▁ᎾᏂ	-8.31884
ᎧᎵᎢ	-8.31916
▁ᎤᎵᏂᎩᏗᏳ	-8.32028
ᎦᏔᎲᎾ	-8.32369
▁ᏓᏳ	-8.32572
▁ᏱᏙ	-8.32753
▁ᏕᏫ	-8.32936
ᏍᏗᏍᎬ	-8.33096
ᏕᏲ	-8.33312
▁ᎠᎦᏴᎵᎨᎢ	-8.33322
▁ᎤᏁᏤ	-8.33325
▁ᎠᏍᏓᏯ	-8.33507
▁ᎢᎾᎨ	-8.33532
▁ᎤᏥ	-8.33645
▁ᎤᏙᏓ	-8.33731
▁ᏂᏕ	-8.33872
▁ᏥᏄ	-8.33916
ᏁᎲᎢ	-8.34014
ᏓᏁᏗ	-8.34345
▁ᎠᎾᎵᏅᏟ	-8.3517
ᏅᏍᏗᏱ	-8.35476
▁ᎠᏆᏤᎵ	-8.35677
ᏍᏓᏁᎸ	-8.35781
ᏙᎴ	-8.35962
ᎧᏅ	-8.35966
▁ᏗᏤ	-8.36117
ᏛᎢ	-8.36175
ᏍᏓᏩᏗᏙᎯ	-8.36797
▁ᎠᏂᏍᎩᎾ	-8.3693
▁Ꮭ	-8.3749
▁ᎤᏠᏱ	-8.37849
▁ᎯᏍᎩ	-8.38702
ᏛᏁᎵ	-8.38782
ᎮᎸ	-8.39048
▁ᏂᏥᎥ	-8.39099
ᏂᏏ	-8.3913
ᏍᏕᎸᏗ	-8.39242
▁Ꮤ	-8.39505
▁ᎨᏐᎢ	-8.3964
ᏍᏕᎸ	-8.40035
ᏅᎾ	-8.40386
▁ᎠᏃᎯᏳᎲᏍᎩ	-8.40434
▁ᏆᎴᏗ	-8.4044
ᏕᎬ	-8.40538
▁ᎦᎶᎯᏍᏗᏱ	-8.40664
ᎦᏔᎮ	-8.41045
▁ᏄᏪᏒ	-8.4114
ᏅᎦᎸ	-8.41416
▁ᏧᏤᎵ	-8.41487
ᏁᎰᎢ	-8.41567
ᏓᏙᎵᏍᏗ	-8.41601
▁ᎾᏆ	-8.41805
▁ᎠᎩᎾ	-8.41808
▁ᎢᏤᎲ	-8.42055
ᏍᏗᏰ	-8.42073
ᎵᏍᎪᎸᏓ	-8.42172
▁ᏧᏂᏲᎱᏒᎯ	-8.42252
▁ᏅᏩᎾᏓᎴ	-8.42252
▁ᏂᎦᏪᏍᎬ	-8.42272
▁ᎪᏪᎸ	-8.42302
▁ᏥᏳᎯ	-8.42979
▁ᎢᎦᏛᏃ	-8.43258
ᎦᏴᎵᎨ	-8.43269
▁ᎤᏙᎯᏳ	-8.43357
▁ᎤᎷᏤ	-8.43488
ᏪᏎᎸᎩ	-8.43507
▁ᎦᏰᎪᎩ	-8.44109
▁ᎠᏂᎨᏴ	-8.44123
▁ᏐᎢ	-8.4415
▁ᏥᎨᏒᎩ	-8.4423
▁ᎨᏥᏅᏏᏛ	-8.44238
ᏢᏅᎯ	-8.45107
ᏗᏔᏍ	-8.45549
ᏁᎮ	-8.45773
▁ᏗᏃᏪᎵᏍᎩ	-8.4599
▁ᏒᏃᏱ	-8.45991
▁ᎤᏓᏅᏘ	-8.46012
ᎷᏥ	-8.46031
▁ᎢᎬᏱᏗᏢ	-8.46067
ᎪᏩᏛᏗᏱ	-8.46508
▁ᏄᎵᏍᏔᏁᎢ	-8.4668
▁ᎦᎸᎶᎢ	-8.46732
ᏓᏅᏙ	-8.46751
▁ᏂᎨ	-8.46976
▁ᏗᎪ	-8.47481
ᏎᎮᏍᏗ	-8.47817
▁ᏄᏓᎴᏒ	-8.47917
ᏑᏰᏛ	-8.47922
▁ᏗᎬ	-8.48051
▁ᎢᏳᏍᎩᏂ	-8.48888
ᎦᏔᎯ	-8.489
▁ᎠᏋᏒ	-8.49874
▁ᎩᎦᎨ	-8.49875
▁ᎤᏤᎵᎪᎯ	-8.49889
▁"	-8.50013
ᏎᎸᎯ	-8.50056
ᎳᏅᎯ	-8.50204
▁ᎬᏗᏍᎬ	-8.50222
▁ᏕᎬᏩ	-8.50318
ᏒᎾ	-8.50425
▁ᏗᎨᏥ	-8.50501
▁Ꮼ	-8.50696
▁ᏥᎨᏎᎢ	-8.50723
▁ᎥᎥ	-8.50846
ᎸᎾ	-8.50893
▁ᎤᏂᎷᏤ	-8.5177
▁ᎠᎺᏉᎯ	-8.51874
▁ᎤᎾᏙᏓᏆᏍᎬ	-8.51876
▁ᎤᏂᎬᏫᏳᎯ	-8.51878
▁ᎡᎶᏛ	-8.51893
▁ᎢᏳᎾᏍᏗ	-8.51909
▁ᎤᏓᎵᎢ	-8.51963
▁ᎤᎾᏤᎵ	-8.5229
▁ᏥᎨ	-8.52473
▁ᏨᏒ	-8.52581
ᏍᏕᎸᏗᏱ	-8.52677
▁ᎤᏲᎢᏳ	-8.52867
ᏍᏕᏍᏗ	-8.52912
ᏰᎵ	-8.52945
ᏍᎦᎩ	-8.5298
▁ᏦᎢᏁ	-8.53067
ᏬᏂᎯᏍᏗ	-8.5322
▁ᏧᏪ	-8.53598
ᎲᏍᎨᏍᏗ	-8.5363
ᎥᏍᎩ	-8.53638
ᎵᏃᎮ	-8.53838
▁ᏔᏕᏲᎲᏍᎩ	-8.53915
ᏠᎾᏍᏗ	-8.53947
▁ᎩᎬ	-8.54018
▁ᎤᏰᎸᏛ	-8.54027
▁ᎤᏴ	-8.54156
▁ᏥᏳ	-8.54499
▁ᎤᏓᏅᏖ	-8.54631
ᏅᏟ	-8.55732
▁(	-8.55998
▁ᎡᎺᏅ	-8.55999
▁ᎠᏍᎪᎯ	-8.56049
▁ᏚᎾᏓᏅᏛ	-8.56139
ᏪᏎᎸ	-8.56381
▁ᎠᎾᏓ	-8.57861
▁ᎠᏲᎵ	-8.57922
)	-8.58126
▁ᎢᎪᎯᏛ	-8.58131
▁ᎤᏛᎦᏅ	-8.58225
ᎨᏳᎯᏳ	-8.58367
ᎪᏗᏱ	-8.58403
ᏩᏗᏒ	-8.58517
▁ᏅᏗᎦᎵᏍᏙᏗᏍᎬ	-8.58579
ᏠᏱ	-8.5866
ᎡᎢ	-8.58803
▁ᎢᏓ	-8.59678
ᎵᎮᎵᏍᏗ	-8.59728
▁ᎤᏐᏅ	-8.59952
▁Ꭻ	-8.59992
▁ᎾᏍᎩᏍᎩᏂ	-8.60081
▁ᎢᏳᎵᏍᏙᏗ	-8.60082
ᎨᏒ	-8.60159
▁ᎢᏳᏩ	-8.60225
ᎳᏏᏕᏂ	-8.603
▁ᎤᏂᏍᎦᏅᏨ	-8.60301
▁ᎢᎸᎯᏢ	-8.60302
ᏲᎯᏎᎸ	-8.60524
ᎠᏗᏔᏍᏗ	-8.60603
▁ᏚᏪ	-8.60838
▁ᏓᏰ	-8.60967
ᏍᏆᏂᎪᏗ	-8.61381
ᏲᏏ	-8.6161
▁ᏅᏛ	-8.61627
▁ᏱᎬ	-8.61669
ᏁᏍᏗ	-8.61942
▁ᎣᏣ	-8.61952
▁ᏙᏛ	-8.62066
▁ᏗᎨᏒ	-8.62095
ᎨᏳᎯ	-8.62308
ᏘᏂᏙᎯ	-8.62495
▁ᏅᏓᎬᏩᏓᎴᏅᏛ	-8.62522
▁ᎠᏂᏐᎢ	-8.6257
▁ᎧᏃᎮ	-8.62696
▁ᏅᏗᎦᎵᏍᏙᏗᏍᎨᏍᏗ	-8.6295
▁ᏣᏓ	-8.63174
▁ᏫᏂ	-8.64073
▁ᏗᏨ	-8.64499
▁ᏫᎦ	-8.64691
▁ᎦᏍᎩᎸ	-8.64914
ᎪᏩᏛᏗ	-8.65131
ᏁᏍᎨ	-8.65382
ᎶᎯᏍᏗᏱ	-8.65678
▁ᏧᏤᎵᎦ	-8.65781
ᏁᎲᎾ	-8.66042
▁ᏅᏙ	-8.66202
▁ᏧᏗᏱ	-8.66232
▁ᏯᎩ	-8.66708
▁ᎤᏢ	-8.66809
ᎸᏉᏙᏗ	-8.66933
▁ᎢᏳᏟᎶᏛ	-8.67121
▁ᎢᏣᎵᏍᏓᏁᏗ	-8.67128
ᏕᏘᏴ	-8.67143
ᏯᏅᏛ	-8.68017
▁ᎤᏪᎷ	-8.68524
▁ᏓᎬ	-8.6868
ᏃᎮᏍᎩ	-8.68799
▁ᎦᎸᏉᏗ	-8.6926
▁ᏧᏂᎸᏫᏍᏓᏁᎯ	-8.69501
ᏓᏅᏓᏗᏍᏗ	-8.69516
▁ᎠᏍᎪᎯᏧᏈ	-8.69518
▁ᎠᎦᏙᎥᎯᏍᏗ	-8.70141
ᎦᏅᎯᏛ	-8.70141
▁ᏫᎬᏩ	-8.70169
▁ᎡᏗ	-8.70279
▁ᎠᏁᎲᎢ	-8.70395
ᏕᎰ	-8.70589
▁ᏄᏪᏎᎴ	-8.70699
ᏍᎦᎢᎮ	-8.71655
▁ᎠᏯ	-8.71863
▁ᎤᎵᏍᏆᎸᏗ	-8.71941
▁ᏅᏓᎦᎵᏍᏙᏗᏍᎬᎩ	-8.71941
▁ᏈᎵᎩ	-8.71949
▁ᏡᎬ	-8.71963
▁ᎠᎦᏔᎲᎢ	-8.71988
▁ᎠᏇᏥ	-8.72369
▁ᏕᎯ	-8.72444
▁ᏍᎩᏯ	-8.72557
▁ᎦᏚᎲᎢ	-8.72883
▁ᏣᎾ	-8.72949
▁ᏕᎨ	-8.73002
▁ᎤᏓᏅᏙ	-8.73493
ᏃᎮᎭ	-8.73636
ᏟᏌ	-8.73701
▁ᎨᏐ	-8.73888
▁ᎢᏧᎳ	-8.7416
▁ᎠᏂᏯᏫᏍᎩ	-8.74441
▁ᏗᏓᏍᏚᏗᏱ	-8.74441
▁ᎤᏂᏣᏖ	-8.74448
ᎵᏰᎢᎶ	-8.74457
▁ᎢᎸᏍᎩ	-8.74464
ᏗᏍᎪᎢ	-8.74689
▁ᏳᏂ	-8.74905
ᎾᏰᎯᏍᏗ	-8.7493
▁ᎾᏍᏉᏍᎩᏂ	-8.75104
▁ᏥᎻ	-8.7547
▁ᎬᏅ	-8.75913
ᏄᎪᏤ	-8.75964
▁ᏌᏉᏉ	-8.76238
ᎸᏫᏍᏓᏁᏗ	-8.76284
▁ᎡᎵ	-8.76482
▁ᏗᎬᏩᏂ	-8.76526
ᏯᎠ	-8.76664
▁ᏱᏨ	-8.76899
▁ᏫᎾᏍᏛᎾ	-8.77005
▁ᎠᏓᏅᏖᏍᎬ	-8.77005
ᏥᎪᎥ	-8.77068
▁ᎠᏇ	-8.77073
▁ᏱᏥᎦᏔᎭ	-8.77126
▁ᏗᏂᏲᎵ	-8.77198
ᏂᎪᎯ	-8.77316
▁ᏕᎨᏥ	-8.77471
▁ᏥᏯ	-8.77577
▁ᎡᎭ	-8.77916
▁ᏱᏗᏥ	-8.77957
▁ᎠᎵᏍᏓᏴᏗ	-8.78487
ᎵᏍᎪᎸᏔᏅᎯ	-8.79399
ᏌᏂ	-8.79495
▁ᎢᏳᎾᏛᏁᏗ	-8.79642
ᏍᏕᎵᏍᎩ	-8.79648
▁ᏚᎸᏫᏍᏓᏁᎲ	-8.79653
▁ᏄᏛᏁᎸ	-8.79733
▁ᎠᏥᎸᏉᏗᏳ	-8.79737
▁ᎤᏰᎸᏗ	-8.79906
ᏓᏙᎵᏍᏗᏍᎬ	-8.79996
ᏛᏁᎭ	-8.8003
▁Ꮖ	-8.8043
▁ᏥᎦᏔᎭ	-8.80545
."	-8.80617
▁ᏱᎨᏎ	-8.80619
▁ᎤᎷᎯᏍᏗ	-8.80636
▁ᎤᏂᎪᎲ	-8.81015
▁ᏥᎨᏐ	-8.8112
ᏍᏕᎸᎯ	-8.81219
ᏍᏆᏛ	-8.81593
ᏙᎴᎰᎯᏍᏗ	-8.81635
▁ᏧᎾᏓ	-8.81781
ᏬᏂᏍᎬ	-8.82224
ᏂᏗᏳ	-8.8232
▁ᏖᎸᎳᏗ	-8.82339
ᎵᏍᏆᏗᏍᎩ	-8.82379
ᎫᎪᏓ	-8.82589
▁ᎰᏩ	-8.82806
▁ᎩᎶᏍᎩᏂ	-8.829
▁ᎬᏔᏅᎯ	-8.82985
ᎧᏂ	-8.83019
ᏃᎮᏍᎬᎢ	-8.83204
▁ᏫᏗ	-8.83358
▁ᏥᎨᏐᎢ	-8.83767
▁ᎢᏅ	-8.83857
▁ᎦᎨ	-8.84058
ᏩᏛᎮ	-8.84276
▁ᏤᏥ	-8.84591
▁ᏄᎵᏍᏔᏅᎩ	-8.84748
▁ᏗᎾᏓᏅᏟ	-8.85117
▁ᏠᎨᏏ	-8.85117
▁ᎤᏃᏕᎾ	-8.8512
ᏕᎶᏆ	-8.85129
▁ᏧᏂᎾᏫ	-8.85129
▁ᎭᏫᏂᏗᏢ	-8.85139
▁ᎤᏕᏁᎴᎢ	-8.85215
▁ᏥᎪᏪᎳ	-8.85308
▁ᏩᎦ	-8.85311
ᎸᏫᏍᏓᏁᎭ	-8.85541
▁ᎢᏧ	-8.8571
▁ᎢᎪ	-8.85742
▁ᎤᏙᎴᎰᏒ	-8.85757
ᏓᏂᎸᎢᏍᏗ	-8.85764
▁ᎭᏢ	-8.85881
ᏁᎶᏗ	-8.86339
▁ᎢᏦᎯᏳᏒ	-8.87974
▁ᏂᏚᏳᎪᏛᎾ	-8.87974
▁ᎾᏂᏪᏍᎨᎢ	-8.87974
▁ᎤᏍᎦᏅᏨ	-8.87976
▁ᎠᏤᎵᏍᏛ	-8.87984
▁ᎤᏣᏔᏅᎯ	-8.87994
ᏅᏏᏙᎯ	-8.88014
ᎡᏗᏱ	-8.88039
▁ᎢᎾᏛ	-8.88067
▁ᎡᎲ	-8.88178
ᎴᏅᎲ	-8.88228
ᏕᎨᏍᏗ	-8.88864
ᏧᏈ	-8.88929
▁ᎤᏲᎱᏒᎯ	-8.89489
▁ᏦᏩ	-8.89752
ᎧᎲ	-8.90188
▁ᎩᎳ	-8.90372
ᎸᏉᏗᏳ	-8.90512
▁ᏅᏗᎦᎵᏍᏙᏗᏍᎨ	-8.90598
▁ᎤᏂᏍᏆᏂᎪᏎ	-8.90915
▁ᎢᏨᎨᏳᎢ	-8.90915
▁ᏎᏓᏂ	-8.90915
ᏗᎦᏅᏌᏗ	-8.90916
▁ᏥᏂᎬᏅ	-8.90923
ᏟᏂᎬᏁ	-8.9093
ᎨᏳᏎᏍᏗ	-8.90945
▁ᎠᏂᏍᎦᎾ	-8.90957
▁ᏱᎨ	-8.91486
ᏪᏎᎴᎢ	-8.91666
▁ᎤᏬᎯᏳ	-8.91677
▁ᎤᏁᎳ	-8.91872
ᏍᏘ	-8.92201
▁ᏚᏬ	-8.92311
▁Ꮘ	-8.93131
ᎦᏙᎥᎯᏍᏗ	-8.93144
▁ᎤᎦᏔ	-8.9374
▁ᎢᏳᎾᎵᏍᏓᏁᏗ	-8.93946
▁ᎤᎩᏨᏛ	-8.93947
▁ᎢᏥᏍᎦᏯ	-8.93962
▁ᎠᏍᎦᎾ	-8.94041
▁ᎤᏚᎵᏍᎬ	-8.94042
▁ᏄᏍᏕᏍᏗ	-8.94148
ᎵᏏᎾᎯᏍ	-8.94155
▁ᏅᏩ	-8.94647
▁ᏗᏆ	-8.94655
ᏓᎴᏅᎯ	-8.94936
ᎴᎯᏐᏗ	-8.95581
ᎷᏤᏗᏱ	-8.96628
ᎴᎯᏌᏅ	-8.97071
▁ᏓᏁᏩᏗᏒ	-8.97072
▁ᎢᎳᏯ	-8.9709
▁ᎠᎰᎵ	-8.97107
▁ᏧᏓᏏ	-8.97174
▁ᎬᏃᏛ	-8.97213
ᏕᏯᏙ	-8.97416
ᏍᏓᏁᏗ	-8.97424
▁ᎤᎧᎵᏨᎯ	-8.97645
▁ᏧᏅᏏᏓᏍᏗ	-8.98008
▁ᏴᎬ	-8.98077
▁ᎤᏂᎷᏨ	-8.98182
▁ᎤᏂᏁᏨ	-8.98183
ᏥᎨᏳᎢ	-8.98331
▁ᎦᏁᎸ	-8.98497
▁ᏣᏁᎭ	-8.98626
▁ᏴᎦ	-8.98825
▁ᏚᎾᏓ	-8.98934
▁ᏤᏣ	-8.9909
▁ᏅᎬᏩᏪᏎᎸᎩ	-9.00296
▁ᏂᎬᏩᏪᏎᎴᎢ	-9.00296
▁ᏗᎵᏍᏓᏴᏗᏱ	-9.00299
▁ᏂᎦᏪᎭ	-9.00303
▁ᎤᎴᏅᎮ	-9.00304
▁ᏗᏥᎾᏫ	-9.00306
▁ᎢᏣᏛᏁᏗᏱ	-9.00309
▁ᎢᏥᎦᏔᎭ	-9.01285
▁ᏥᏄᏍᏗ	-9.01322
▁ᎦᏁᎸᎢ	-9.02427
ᎫᏴᎡᏗ	-9.02512
ᎶᏎᎢ	-9.02751
▁ᏱᎦᎵᏍᏙᏓ	-9.03629
▁ᏔᎴᎲᎦ	-9.0363
▁ᎠᏰᎳᏍᏗ	-9.0363
▁ᎤᏔᎳᏬᎯᏍᏗ	-9.03631
▁ᏗᏂᎳᏫᎩ	-9.03631
▁ᎡᎳᏪ	-9.0364
ᎬᏫᏳᏌᏕ	-9.03642
ᎵᏂᎬᎬ	-9.03647
▁ᎤᎵᏏᎬ	-9.03678
▁ᏗᏆᏤᎵ	-9.03746
ᏍᏕᎵᏍᎬ	-9.03834
ᏡᏗᏍᎩ	-9.03867
▁ᎠᏂᏏᏴᏫᎭ	-9.03963
ᎪᏩᏛ	-9.04342
ᏲᎢᏳ	-9.04349
▁ᏴᎨ	-9.04359
ᏃᎮᏍᎬ	-9.04471
ᏯᎥᎢ	-9.04478
▁ᎤᏟᎯᏳ	-9.04888
▁ᏚᎴᏅ	-9.05691
ᏓᎴᏅᏛ	-9.06519
▁ᎨᏥᎸᏉᏗ	-9.07078
▁ᏂᎦᎵᏍᏗᎭ	-9.07079
▁ᏕᏣᏓᏅᏛᎢ	-9.07081
▁ᏕᎤᏙᎥ	-9.07081
▁ᎦᎷᏨᎭ	-9.07082
ᏔᏲᏎᎭ	-9.07088
ᎪᎵᏰᏗ	-9.07112
▁ᎢᏳᏓᎴᏅᏛ	-9.07226
ᎨᎳᏍᏗᏱ	-9.07233
▁ᎠᏣᏗ	-9.07269
▁ᎦᏬᏂᏍᎬ	-9.07458
▁ᎦᎸᏉᏙᏗ	-9.0752
▁ᎠᏓᏁᎯ	-9.07738
ᏁᏉᏤ	-9.08403
▁ᏯᏆ	-9.08615
ᏛᏅᎢᏍᏓ	-9.08773
▁ᏂᏚᏪᏎᎴ	-9.09257
▁ᎦᎸᎶ	-9.0931
ᏓᏅᏖᏗ	-9.09563
▁ᎭᏫᏂ	-9.1063
▁ᏄᎵᏍᏔᏂᏙᎸ	-9.10649
▁ᏓᏓᎿᏩᏍᏛ	-9.10649
▁ᏃᏈᏏ	-9.10649
ᎪᏩᏘᎭ	-9.10649
▁ᎢᏓᏓᏅᏟ	-9.1065
▁ᏙᏱᏗᏢ	-9.1065
▁ᏅᏓᏳᎶᏒᎯ	-9.10651
▁ᏆᏂᏆ	-9.10651
▁ᎾᏍᎦᏅᎾ	-9.10651
▁ᏗᏅᏃᏛ	-9.10652
▁ᎤᎵᏍᏆᏗᏍᏗ	-9.10653
▁ᎤᎦᎵᏍᏗ	-9.10683
▁ᏗᎩᎦᏴᎵᎨ	-9.10707
ᏩᏘᏍᎬ	-9.10846
ᏚᎢᏍᏓᏁ	-9.10903
▁ᎢᎬᏁᎸᎯ	-9.1095
▁ᎤᎩᎬ	-9.11036
▁ᎣᏓᎸ	-9.11063
▁ᏗᏓᏅᏙ	-9.11242
ᎨᏳᏗ	-9.11589
ᏘᏅᏍᏔ	-9.12722
▁ᏥᎨᏎ	-9.13852
ᏏᏴᏫᎭ	-9.13983
▁ᎤᎵᏍᏈᏗ	-9.14353
▁ᏓᏆᏙᎥ	-9.14353
▁ᏐᏈᎵ	-9.14353
▁ᏚᎾᏓᏡᏩᏗᏒ	-9.14353
▁ᏗᎨᎦᏁᎶᏗ	-9.14353
ᏁᏢᏔᏅᏛ	-9.14353
▁ᎬᏬᎯᏳ	-9.14356
▁ᎢᏨᏲᏎᎭ	-9.14356
▁ᏥᏂᎦᏪ	-9.14362
▁ᎾᏎᎵᏗ	-9.14362
▁ᎾᎩᏪᏎᎸᎩ	-9.14363
▁ᏧᏂᏢᎩ	-9.14373
ᎵᏍᎪᎸᏙᏗ	-9.14379
ᏍᎦᏅᏤ	-9.1441
▁ᎥᏓᎵ	-9.1441
ᎵᏍᎪᎸᏓᏁᎸᎯ	-9.14535
▁ᎢᏯᏛᏁᏗ	-9.1463
▁ᎠᏥᏅᏏᏓᏍᏗ	-9.1466
▁ᎢᎩᏙᏓ	-9.14705
▁ᎦᏛᎬ	-9.14737
ᏥᏙᏁ	-9.14769
▁ᏄᎾᏍᏛ	-9.14977
▁ᎾᎾᏛᏁᎲ	-9.16373
▁ᏄᎵᏍᏔᏁ	-9.16801
▁ᏭᎷᏤ	-9.17266
▁ᏧᎸᏫᏍᏓᏁᎯ	-9.18199
ᏑᎶᏨᎯ	-9.182
▁ᎢᏯᏛᏁᎯ	-9.18202
▁ᏤᎦᏈ	-9.18203
▁ᎢᏥᏈᏱ	-9.18207
ᏔᏲᏎᎴ	-9.18211
▁ᎢᏳᏩᏂᏐᏗᏱ	-9.18211
▁ᏐᎳ	-9.18218
▁ᎢᏳᎵᏍᏓᏁᏗ	-9.18222
▁ᎤᏕᏯᏙᏗ	-9.1823
▁ᎤᎾᏙᎴᎰᏒ	-9.18417
▁ᎠᏆᏓᏅᏙ	-9.18451
ᏓᏑᏯ	-9.18454
▁ᏅᏲᎯ	-9.18482
▁ᎢᏥᏙᏓ	-9.19186
▁ᎢᎦᎦᏛ	-9.19258
▁ᎢᏣᎵᎮᎵ	-9.19278
ᏱᎵᏙ	-9.19548
ᏚᎪᏓ	-9.21095
ᏰᎵᏎ	-9.21153
ᎧᎿᏩᏛᏍᏗ	-9.2194
▁ᎧᏃᎯᏰᎩ	-9.22199
ᏓᏙᎵᏍᏓᏁᎯ	-9.22199
▁ᎠᏆᏛᎦᏅᎩ	-9.222
ᎪᏣᎴᏛ	-9.22206
▁ᎤᏬᏰᏂ	-9.22215
▁ᏚᎸᏫᏍᏓᏁᎸ	-9.22218
ᏅᏍᏓᏕ	-9.22249
ᎨᏳᎭ	-9.22279
▁ᎠᏲᎩ	-9.22512
▁ᎤᏃᎴ	-9.22826
▁ᎤᏂᏬᏂᎯᏍᏗ	-9.2294
▁ᏗᎨᏫ	-9.22949
ᏓᏬᏍ	-9.25181
Ꮊ	-9.26359
▁ᏄᏃᎯᏳᏒᎾ	-9.26366
▁ᏚᏂᎸᏫᏍᏓᏁᎲ	-9.26366
▁ᏅᏓᏳᎵᏍᏙᏔᏅᎩ	-9.26366
▁ᎢᏳᎾᏛᎿᏕᎩ	-9.26366
▁ᏅᏛᎩᏅᏏᏛ	-9.26367
▁ᏗᏓᎴᏂᏍᎬ	-9.26368
▁ᏑᏓᎵ	-9.26385
ᏛᏓᏍᏓᏁ	-9.26412
ᏍᎦᏅᎢᏍᏗ	-9.26437
▁ᎤᏪᎿᎢ	-9.26462
ᎬᏍᎪᎸ	-9.2651
▁ᏗᎫᎪᏙᏗᏱ	-9.26641
▁ᏚᏁᏤᎴ	-9.26667
▁ᏓᎶᏂᎨ	-9.26706
▁ᎠᎢᏒ	-9.26888
ᎾᏄᎪᎢᏍᏗ	-9.28255
ᏚᎸᏫᏍᏓᏁ	-9.29861
ᏍᏆᏂᎪᏙᏗᏱ	-9.30713
ᏥᎾᏝᎥᎾ	-9.30713
▁ᎠᎦᏘᏏᏗᏢ	-9.30713
▁ᎢᏤᏯᏔᎮᏍᏗ	-9.30713
▁ᎹᏏᏙᏂ	-9.30713
▁ᎬᏩᏚᏫᏛ	-9.30714
▁ᏅᎦᏍᎪᎯ	-9.30714
▁ᏓᏕᏲᎲᏍᎬ	-9.30714
▁ᎠᎵᏥᏙᎲᏍ	-9.30714
▁ᎤᏣᎴᏍᏗ	-9.30714
ᎦᏙᎥᏒ	-9.30718
▁ᏗᏕᏲᏗ	-9.3072
▁ᏗᎹᏗ	-9.30721
ᏂᎳᏍᏓᎸ	-9.30729
▁ᎤᏂᏃᎮᎸ	-9.30746
ᏚᏓᎴᏍᏙᏗ	-9.30769
▁ᎬᏂᏗᏳ	-9.30932
▁ᎨᏥᏅᏏᏓᏍᏗ	-9.30993
▁ᏏᏌ	-9.31143
ᎾᏙᎴᎰ	-9.31145
ᏅᏓᏕ	-9.31159
ᏅᏩᏅ	-9.33921
ᎤᏁᎳᏅᎯ	-9.35111
▁ᏂᏚᎩᏨᏂᏒ	-9.35259
ᎦᏌᏯᏍᏗ	-9.3526
▁ᎤᎾᏤᎵᎪᎯ	-9.35267
▁ᎤᎶᎩᎸ	-9.3527
ᏍᎦᎢᎲᎾ	-9.35275
▁ᏞᎦ	-9.35275
▁ᏑᎾᎴ	-9.3529
▁ᎤᎧᎵ	-9.3537
▁ᏭᎷᏨ	-9.35688
▁ᏅᏗᎦᎵᏍᏙᏗᏍᎪ	-9.35825
▁ᎤᏰᎸᏅ	-9.36424
ᏁᏤᎴ	-9.36676
ᏠᏯᏍᏗ	-9.37514
▁ᏄᏪᏎ	-9.3765
ᎸᏉᏔᏅ	-9.38028
▁ᏓᏠᎯᏍᏛ	-9.40021
▁ᏕᎨᏌᏗᏒ	-9.40021
▁ᏕᏥᎸᏫᏍᏓᏁᎲ	-9.40021
▁ᎧᎳᏩᏗᏒ	-9.40021
▁ᎠᏖᎵᏙ	-9.40021
▁ᎣᏣᎵᏅᏟ	-9.40021
▁ᎢᏳᎾᎵᏍᏙᏗᏱ	-9.40021
▁ᏂᎦᏪᏍᎨᎢ	-9.40022
▁ᎤᏕᎰᎯᏍᏗ	-9.40023
▁ᎡᏈᏌ	-9.40023
▁ᏄᎬᏫᏳᏌᏕᎩ	-9.40023
ᏍᏓᏩᏕᎩ	-9.40023
▁ᏕᏣᏙᎥ	-9.40026
ᏥᎤᏍᏕᏎ	-9.40028
▁ᏂᏥᏪᎭ	-9.40029
▁ᎠᏥᎦᏘᏗᏍᏗ	-9.4003
▁ᎢᏌᏯ	-9.40036
▁ᏨᏍᎩᏃ	-9.40042
▁ᎢᏣᏓᏅᏖ	-9.40045
▁ᎤᎾᏓᏅᏖ	-9.40054
▁ᎤᏃᎯᏳᏅ	-9.40058
▁ᏗᏰᎸᎯ	-9.40073
▁ᏓᎦᎷᏥ	-9.40095
▁ᎤᎧᏛ	-9.40205
▁ᎢᏗᎦᏔᎭ	-9.40244
ᎵᏍᎦᏍᏙᏗ	-9.40354
▁ᎡᏙᎲ	-9.40645
ᏛᏅᎢᏍᏗ	-9.41137
ᎵᏂᎩᏛ	-9.43885
ᏙᎴᎰᏒ	-9.44021
ᏅᏓᏓ	-9.44252
▁ᏑᎾᏓᏡᎩ	-9.45021
▁ᏨᏗᏓᎴᎲᏍᎦ	-9.45021
▁ᎠᎾᎵᎮᎵ	-9.45021
▁ᏄᏂᎬᏫᏳᏌᏕᎩ	-9.45021
ᎵᏍᎦᏍᏙᏛ	-9.45022
ᏁᏢᏔᏅᎯ	-9.45043
▁ᎠᏉᎯᏳ	-9.45117
▁ᏭᎶᏎᎢ	-9.45183
▁ᎠᏍᎪᎵ	-9.45208
ᎵᏥᏙᏁᎸ	-9.4529
ᏂᏪᏎ	-9.46942
ᎦᎵᏍᏙᏗᎭ	-9.49269
ᎦᏔᎰ	-9.49504
▁ᎦᎵᏦᏕ	-9.50284
▁ᏗᎪᏢᏔᏅᎯ	-9.50284
▁ᎦᎵᏦᏛ	-9.50285
▁ᏧᏂᎸᏫᏍᏓᏁᏗᏱ	-9.50285
▁ᎤᏚᎸᏗ	-9.50285
▁ᏥᏅᏗᎦᎵᏍᏙᏗ	-9.50286
ᎪᎵᏰᎥ	-9.50286
▁ᎪᎯᏳᎲᏍᎩ	-9.50286
ᏍᏓᏩᏛᏒᎩ	-9.50286
▁ᎢᏨᏲᏪᎳ	-9.50287
ᏂᎬᏎᎲ	-9.50288
▁ᎤᎾᏓᏤᎵᏛ	-9.5029
▁ᎤᎾᏁᎳᎩ	-9.50295
▁ᎤᎶᏐᏅ	-9.50299
▁ᎢᏣᎵᏍᏙᏗᏱ	-9.503
▁ᏂᏣᏛᏁᎸ	-9.50307
▁ᎪᎯᏗᏳ	-9.50314
▁ᎠᏐᏢ	-9.50315
▁ᏗᎦᏚᎲ	-9.50321
▁ᏱᏅᏗᎦᎵᏍᏙᏗᎭ	-9.50325
▁ᎡᏏᏱ	-9.50326
▁ᏂᏣᏛᏁᎲ	-9.50342
ᎪᎵᏰᏍᎨ	-9.50374
▁ᎡᏏᎩ	-9.50392
▁ᎤᎵᏏᎩ	-9.50399
▁ᏄᎾᏛᏅ	-9.50413
▁ᎦᎾᏄᎪ	-9.50524
▁ᏓᎩᎸᏫᏍᏓᏁ	-9.50563
ᏓᏅᏖᏍᎨ	-9.50649
ᏁᏤᎭ	-9.50886
ᏍᏆᏗᏍ	-9.51695
▁ᎠᏲᎱᏍ	-9.52771
▁ᎤᏂᏣᏔ	-9.52786
▁ᏄᏅᏁ	-9.53283
▁ᎤᎾᏛᏁ	-9.53811
ᎦᏘᏗᏍ	-9.55009
▁ᏌᎺᎵᏱ	-9.5584
ᏠᎾᏍᏛᎾ	-9.5584
▁ᏂᎬᏩᏪᏎᎸᎩ	-9.5584
▁ᎤᎵᎮᎵᏨ	-9.5584
▁ᏗᏟᎶᏍᏔᏅᎯ	-9.5584
▁ᎤᏍᏆᎸᎲ	-9.55841
▁ᎤᏂᏃᏕᎾ	-9.55842
▁ᏱᎨᏐᎢ	-9.55843
▁ᎤᏇᏓᎸ	-9.55844
▁ᎢᏣᎵᏅᏟ	-9.55844
▁ᎬᏩᏟᏍᏗ	-9.55854
▁ᎤᏚᎵᏍᎨᏍᏗ	-9.55855
▁ᏮᏓ	-9.55857
▁ᏱᏄᏍᏗ	-9.55862
▁ᏧᏒᎯᏛ	-9.55869
▁ᎣᎵᏩ	-9.55872
▁ᏙᎴᏛ	-9.5588
ᏑᎵᎪ	-9.55884
▁ᎠᎾᏓᏅᏟ	-9.55898
▁ᏗᏓᏘᏂᏙᎯ	-9.55936
▁ᏇᎵ	-9.55952
▁ᎠᎩᎵᏯ	-9.55953
▁ᏚᎳᏍᎬ	-9.55988
ᏳᎪᏓᏁ	-9.55996
ᏓᏅᎦᎸᏛ	-9.56127
ᏯᎡᏍᏗ	-9.5613
ᎵᏂᎪᎯᏍᏗ	-9.56397
▁ᏧᏁᏤ	-9.60569
ᏥᏁᎦ	-9.61278
:	-9.61722
▁ᎠᎾᏓᏅᏖᏍᎬ	-9.61722
▁ᎦᏓᏅᏖᏍᎬ	-9.61722
▁ᎢᏥᏍᎦᏅᏨ	-9.61722
▁ᎬᏩᎷᏤᎴ	-9.61722
▁ᎠᏂᏙᎾᎥ	-9.61722
▁ᎠᏚᎢᏍᏛ	-9.61722
▁ᎠᎩᎵᏲᎢᏍᏗ	-9.61723
ᏍᏆᏂᎪᏛ	-9.61723
▁ᏥᏄᏪᏎᎢ	-9.61723
ᏍᏆᏂᎪᏔᏅ	-9.61724
▁ᎥᏞᏍᏗ	-9.61724
▁ᏑᏓᎴᎩ	-9.61727
▁ᎠᎫᏴᏙᏗ	-9.61727
▁ᎠᏠᏁᏗ	-9.61729
▁ᏗᏂᎨᏫ	-9.61729
▁ᏓᎿᏩ	-9.6173
▁ᏗᏂᎦᏙᎵ	-9.6173
▁ᎦᏩᏒᎩ	-9.61737
ᏂᏐᏗᏱ	-9.61747
▁ᎤᏛᏛᏁ	-9.61747
▁ᎤᎾᏫᏱ	-9.6176
▁ᎢᎦᏪᏛ	-9.61792
▁ᏄᎾᏛᏁᎸ	-9.61803
▁ᏄᏩᏁᎸ	-9.61824
▁ᏧᏁᏥ	-9.61843
▁ᏄᏛᏁᎴ	-9.61904
▁ᏗᏂᏏᏗ	-9.61938
ᏁᎶᏙᏗ	-9.62614
ᏴᏍᏕᏍ	-9.63772
ᏣᏙᎴᎰ	-9.64752
ᏄᎪᏫᏍᏗᏱ	-9.65141
ᎧᎿᏩᏗᏙᎮᏍᏗ	-9.67972
ᏜᏏᏛᎡ	-9.67972
▁ᎢᏯᎾᏛᏁᎯ	-9.67972
▁ᎤᏁᎫᏥᏛ	-9.67972
▁ᏄᏓᎵᏓᏍᏛᎾ	-9.67972
▁ᏅᏧᎵᏍᏙᏔᏅ	-9.67972
▁ᏧᎾᏛᏐᏅᎯ	-9.67972
▁ᏫᏨᏲᏪᎳ	-9.67972
ᎬᎭᎷᏴ	-9.67972
▁ᎠᎱᏍᏕᏍᏗ	-9.67973
▁ᎢᏣᏓᏙᎵᏍᏗᏍᎨᏍᏗ	-9.67973
ᎪᎵᏰᏍᎩ	-9.67973
▁ᎪᏢᏔᏅᎯ	-9.67974
ᏛᎿᏕᎩ	-9.67975
▁ᎬᏩᏍᏓᏩᏛᏎᎢ	-9.67975
▁ᏏᏌᎵᏱ	-9.67978
▁ᏧᏕᏘᏴᏛ	-9.67981
ᏓᎪᎾᏛ	-9.67981
▁ᎢᏳᏅᏁᏗᏱ	-9.67988
▁ᎨᏆᏂ	-9.67995
▁ᎾᏛᏁᎮᏍᏗ	-9.67997
▁ᎤᏂᏴᏍᏗᏱ	-9.68009
▁ᎢᎳᎪ	-9.68011
ᏅᏬᏗᏱ	-9.68118
▁ᏏᏓᏁᎸ	-9.6827
▁ᎠᏅᏗᏍᎬ	-9.68273
ᏂᏴᎲᎩ	-9.6874
▁ᏚᎴᏁ	-9.69048
ᏗᏧᎪ	-9.6999
ᎧᎵᏨᎯ	-9.73487
ᏂᏚᏩᏁᎸ	-9.74091
ᏓᎶᏂᎨ	-9.74091
▁ᏗᎫᎪᏙᏗ	-9.74194
ᏚᏓᏕᏫᏒ	-9.74639
▁ᏄᏜᏏᏛᏒᎾ	-9.74639
▁ᏗᎨᏥᎤᏍᏕᏎᎸᎯ	-9.74639
▁ᎠᏂᎩᏏᏙᎯ	-9.74639
ᎸᏫᏍᏓᏏ	-9.74639
▁ᎳᏏᎳ	-9.74639
▁ᏍᎩᏃᎲᏏ	-9.74639
▁ᏕᎦᏚᏩᏗᏒ	-9.74639
▁ᏩᏛᎬᎦ	-9.74639
▁ᏚᏳᎪᏗ	-9.74639
▁ᎾᏂᏪᏍᎬᎩ	-9.74639
▁ᏕᎹᏍᎦ	-9.7464
ᏛᎿᏕᎬᎢ	-9.7464
▁ᏂᎦᏥᏴᏁ	-9.74641
▁ᎠᎵᏍᏚᎶ	-9.74641
▁ᎠᏍᎦᏅᏨ	-9.74641
▁ᎤᎾᎴᏅᎮ	-9.74642
▁ᏌᏱᎳ	-9.74646
▁ᎤᏪᎵᎯᏍᏗ	-9.74653
▁ᏓᏟᎶᏍᏛ	-9.74654
ᎸᏉᏕᏍᏗ	-9.74657
▁ᏕᏡᎬ	-9.74658
▁ᏭᏂᎷᏤ	-9.74658
ᏓᏎᎪᎩᏍ	-9.74665
▁ᎡᏉᎯᏳ	-9.74667
▁ᏥᏁᎬᎢ	-9.74668
▁ᏦᎯᏳᏒ	-9.74668
▁ᎠᏁᏙᎯ	-9.74671
▁ᏚᎧᎿᏅ	-9.74675
▁ᎢᏯᏅᏙ	-9.74679
ᏑᏰᏒ	-9.74715
ᎵᏍᏙᏔᏅ	-9.74736
▁ᏄᎾᎵᏍᏓᏁ	-9.74822
▁ᎾᎬᏁᎸ	-9.74837
▁ᎡᏙᎮ	-9.75099
▁ᏭᏴᎸ	-9.75111
▁ᏄᎵᏍᏓᏁ	-9.75226
▁ᏅᏓᏳᎾᎵᏍᎪᎸᏔ	-9.75254
▁ᏥᏄᎵᏍᏔ	-9.76765
ᎦᎶᏁᏛ	-9.81245
ᏣᏪᏐᎸᏍᏙᏗ	-9.81781
▁ᎢᎩᏍᎦᏅᏨ	-9.81781
▁ᎢᏤᎳᏗᏙᎮᏍᏗ	-9.81781
▁ᏅᏓᏳᏂᎶᏒᎯ	-9.81781
▁ᏗᏍᏓᏓᏅᏟ	-9.81781
▁ᎠᏂᏌᏚᏏ	-9.81782
▁ᎢᏥᏯᏫᏍᎨᏍᏗ	-9.81782
▁ᏞᎩᏳ	-9.81782
▁ᏥᏂᏣᏛᏅ	-9.81782
▁ᎡᏦᎢᏳ	-9.81783
▁ᎠᏔᎴᏒ	-9.81784
▁ᏧᏃᏰᏂ	-9.81785
▁ᎤᏁᎷᏅᎩ	-9.81785
▁ᏂᎦᎵᏍᏔᏂ	-9.81785
▁ᎤᏌᎯᎸ	-9.81787
ᏘᏃᎮᎴ	-9.81787
▁ᎠᏆᏚᎵᎭ	-9.8179
▁ᏗᏓᏬᏍᎩ	-9.81791
ᏛᏳᎨᏗ	-9.81794
ᎦᎵᎷᎨᏍᏗ	-9.81796
▁ᏭᎶᏒᎩ	-9.81797
▁ᎠᏓᏰᏍᎩ	-9.81797
▁ᎠᏁᏙᎮ	-9.81801
▁ᎠᏨᏍᏙᏗ	-9.81804
ᏓᏂᎸᏨᎯ	-9.81804
▁ᎠᏆᏚᎵᏍᎬ	-9.81813
ᏍᏓᏩᏛᏎ	-9.81897
▁ᎢᏧᏩᏁ	-9.8211
ᏯᏓᏙᎵᏍᏓᏁ	-9.84085
▁ᏅᏗᎦᎵᏍᏙᏗ	-9.85658
▁ᎾᎾᏛᏁ	-9.85818
"	-9.86047
ᏣᏚᎵᏍᎬ	-9.8854
▁ᎠᏂᎦᏔᎿᎢ	-9.89474
▁ᎤᏂᏁᎫᏥᏛ	-9.89474
▁ᏚᏂᎸᏫᏍᏓᏁᎸᎢ	-9.89474
▁ᏧᏓᎿᏩᏛ	-9.89474
▁ᏗᎧᏃᎩᏍᏗ	-9.89474
▁ᏚᏓᏘᎾᎥ	-9.89474
▁ᏫᏄᏒᎸ	-9.89474
▁ᏅᏓᎦᎵᏍᏔᏂ	-9.89474
▁ᏧᏂᎳᏫᎢᏍᏗᏱ	-9.89474
▁ᎤᏍᏆᎸᎯᏗ	-9.89474
▁ᎤᏜᏅᏛ	-9.89474
▁ᏕᎦᎳᏫᎥ	-9.89475
▁ᎦᏃᏍᎩᏍᎩ	-9.89475
▁ᏛᏍᏆᎸᎯ	-9.89475
▁ᎠᏗᏒᏍᏗ	-9.89476
▁ᎢᏳᏕᏘᏴᏛ	-9.89478
▁ᎤᏩᎨᏫ	-9.89479
ᎪᏩᏘᏍᎪ	-9.89479
ᏏᎾᏌᏅ	-9.89479
ᎧᎵᏬᎯ	-9.89479
▁ᏗᏂᎰᎵ	-9.89482
▁ᎤᏚᎢᏍᏔᏅ	-9.89484
ᏩᏂᎦᎸ	-9.89501
▁ᎠᏆᏓᏅᏖ	-9.89511
▁ᎤᎾᏚᎵᏍᎬ	-9.89524
▁ᏗᏥᎸᏫᏍᏓᏁ	-9.89716
▁ᎤᎵᏠᏯᏍ	-9.90637
▁ᏗᎩᎸᏫᏍᏓᏁ	-9.91199
ᎦᎾᏄᎪᏫᏍᎪ	-9.93222
ᎵᏂᎩᏗᏳ	-9.96657
ᎸᏫᏍᏓᏁᎰᎢ	-9.97578
▁ᎠᎾᎵᏥᏙᎲᏍ	-9.97807
▁ᏕᏣᎸᏫᏍᏓᏁᎲ	-9.97807
▁ᏗᎾᏓᏂᏱᏍᎩ	-9.97807
▁ᏙᏧᎾᏓᏅᏛ	-9.97807
▁ᏧᏓᏕᏒᏛ	-9.97807
▁ᎢᏣᏅᏖᏍᏗ	-9.97807
'	-10.4051
~	-11.4979
Ꮍ	-11.998
Ꮚ	-12.9975
(	-12.9976
Ꮌ	-12.9977
Ꮛ	-12.9978
[	-12.9979
\	-12.9979
