<pad>	0
</s>	0
<unk>	0
¦	-1.46973
▁¦	-1.80012
▁	-3.39262
𐋇	-3.40093
▁,	-3.62202
u	-3.89555
a	-4.41212
e	-4.42102
o	-4.4537
ni	-4.47664
i	-4.62256
▁.	-4.62887
ku	-4.72462
na	-4.77095
ba	-4.84824
nga	-4.94557
ka	-5.05087
la	-5.07328
yo	-5.10945
wa	-5.13186
si	-5.16009
be	-5.20605
le	-5.27222
ya	-5.28114
▁:	-5.34841
▁;	-5.36889
li	-5.37281
“	-5.43223
n	-5.43962
ne	-5.47046
zi	-5.47573
za	-5.50078
m	-5.55709
lo	-5.56575
ngi	-5.56837
yi	-5.57487
sa	-5.64978
se	-5.71379
nge	-5.73969
kepha	-5.75988
we	-5.78404
no	-5.79209
aba	-5.79738
ngokuba	-5.80857
kwa	-5.86986
ma	-5.90073
uku	-5.91201
nkulunkulu	-5.91998
thi	-6.01539
nke	-6.03304
bo	-6.04239
▁.”	-6.04927
bu	-6.08514
ko	-6.09113
ze	-6.1189
ngo	-6.12278
-	-6.13342
ukuba	-6.14127
ke	-6.14419
lu	-6.15248
so	-6.21245
ye	-6.24485
wathi	-6.31176
ukuthi	-6.3204
mi	-6.36327
kho	-6.36925
zo	-6.38043
wo	-6.39271
hla	-6.42066
nkosi	-6.46025
khona	-6.46525
um	-6.47518
lwa	-6.49124
ama	-6.50972
uma	-6.53377
jes	-6.53488
the	-6.54376
bi	-6.55727
ngu	-6.57511
thu	-6.5868
kuye	-6.59671
izi	-6.59705
tha	-6.59806
eni	-6.64915
▁?	-6.65435
isi	-6.68115
ngoku	-6.69539
pha	-6.6975
fa	-6.70899
oku	-6.70928
muntu	-6.72361
s	-6.72411
kubo	-6.73494
ndla	-6.75658
weni	-6.79758
kwe	-6.81299
krist	-6.83268
ezi	-6.83418
noku	-6.86325
h	-6.87975
phi	-6.89487
𐊣	-6.89979
𐊼	-6.89979
ini	-6.91309
hle	-6.92948
lwe	-6.93679
lokho	-6.94315
kodwa	-6.95594
kini	-6.95787
nye	-6.96297
nxa	-6.97186
f	-6.9748
kholwa	-6.98341
c	-7.01765
bona	-7.02461
phe	-7.03813
lokhu	-7.05022
eli	-7.05802
de	-7.07316
ki	-7.0733
ngakho	-7.07333
em	-7.07783
esi	-7.14311
me	-7.14513
kha	-7.15451
bathi	-7.15469
tho	-7.16334
naba	-7.16637
‘	-7.19311
wu	-7.21576
kwaba	-7.21714
ngena	-7.2513
zwa	-7.25265
da	-7.25992
lowo	-7.26142
phu	-7.27369
fu	-7.28065
khulu	-7.28892
▁?”	-7.2913
d	-7.29171
ningi	-7.30074
sha	-7.3026
ukuze	-7.30389
noma	-7.32162
kanye	-7.36131
khuluma	-7.36688
njalo	-7.3865
leyo	-7.38892
nama	-7.38933
bili	-7.40174
kube	-7.40845
nya	-7.4128
r	-7.42056
mbe	-7.42357
pho	-7.42358
lapho	-7.42866
baba	-7.43183
nina	-7.44282
thanda	-7.44966
khu	-7.45795
mp	-7.46886
ndle	-7.47149
mina	-7.47907
yena	-7.49396
kile	-7.4985
nda	-7.50225
phakathi	-7.51832
phezu	-7.52064
kuba	-7.52148
hamba	-7.53556
lela	-7.54502
kwathi	-7.56457
fika	-7.56676
vela	-7.57424
yini	-7.57471
futhi	-7.57745
ese	-7.57788
mbi	-7.57893
ngaba	-7.57964
swa	-7.58126
mo	-7.58359
abe	-7.5868
ngcwele	-7.58702
hi	-7.58834
p	-7.59889
suku	-7.60521
tshe	-7.60525
nase	-7.60792
waba	-7.61896
ndi	-7.62104
yakhe	-7.62603
waye	-7.6325
ninga	-7.64628
juda	-7.64936
zalwane	-7.65126
bonk	-7.65335
uj	-7.65434
kwen	-7.65551
phambi	-7.65831
nzi	-7.66115
esu	-7.66273
mtheth	-7.66593
moy	-7.67437
wayese	-7.70693
mba	-7.71292
ha	-7.7203
nani	-7.72056
sho	-7.72529
in	-7.72549
bam	-7.72727
bantu	-7.73707
naye	-7.7428
izwi	-7.74654
dwa	-7.75303
nezi	-7.75307
zwe	-7.75747
yisi	-7.7633
bakhe	-7.76413
funa	-7.77035
▁.’	-7.77095
usa	-7.77193
ela	-7.78678
x	-7.78678
kakhulu	-7.79244
kwakhe	-7.79846
nde	-7.80157
mvu	-7.81063
kuthi	-7.81288
ngama	-7.81919
thand	-7.82018
babe	-7.82364
isa	-7.82747
bheka	-7.83683
angi	-7.83866
qinis	-7.84026
ngithi	-7.84356
base	-7.84977
ngum	-7.85476
ru	-7.85625
abafundi	-7.86085
sikhathi	-7.86165
hlala	-7.86486
kazi	-7.86652
siya	-7.87056
w	-7.87563
ngiya	-7.88545
uyaku	-7.89932
sindis	-7.90041
kuphila	-7.91903
hlo	-7.9245
ny	-7.92731
kimi	-7.94483
kela	-7.94521
wam	-7.94593
nami	-7.94678
khe	-7.94792
rist	-7.95345
ndlu	-7.95782
b	-7.95881
phansi	-7.95953
phuma	-7.96497
ngelosi	-7.96539
kuqala	-7.97097
muke	-7.97399
imi	-7.97824
munye	-7.98155
owa	-7.99169
yise	-8.0077
wena	-8.00836
uya	-8.01321
ndodan	-8.02042
kwabo	-8.02592
ngesi	-8.02902
omunye	-8.03334
file	-8.03692
zizwe	-8.04395
lunga	-8.04808
aku	-8.0496
zwi	-8.0503
nom	-8.05088
du	-8.05092
abanye	-8.05134
khi	-8.05393
ngase	-8.05531
yen	-8.06137
nyama	-8.065
fanele	-8.06866
ndu	-8.07799
lele	-8.07884
lutho	-8.08003
kwenza	-8.08143
ezulw	-8.09305
kuphela	-8.09516
su	-8.09585
nabo	-8.09861
ngalokho	-8.09864
l	-8.09887
is	-8.09998
kunge	-8.10033
eziyi	-8.10168
lika	-8.10217
shumi	-8.10642
kwazi	-8.10659
jer	-8.10745
di	-8.11944
ani	-8.11958
kade	-8.11992
nalowo	-8.12756
dla	-8.12918
njengalokh	-8.13336
manga	-8.13472
thile	-8.13743
enga	-8.14048
saba	-8.14266
njengo	-8.14328
labo	-8.15494
khonza	-8.1555
misebenzi	-8.15598
abantu	-8.15823
bantwan	-8.17601
pawu	-8.18197
manje	-8.18285
nkulu	-8.18902
leli	-8.19068
oya	-8.19234
ile	-8.19422
asi	-8.19463
qinisile	-8.19838
k	-8.2005
re	-8.20222
lema	-8.20526
mhlaba	-8.2053
dum	-8.20956
ayi	-8.20973
sika	-8.21053
seku	-8.21362
sebe	-8.21477
wabo	-8.23409
kuze	-8.23563
fi	-8.23659
nhliziyo	-8.23765
madoda	-8.24236
indoda	-8.24422
kukho	-8.24798
awu	-8.25084
lakhe	-8.251
zen	-8.25159
musa	-8.25447
ngom	-8.25741
khuleka	-8.25814
ngiyaku	-8.25874
buye	-8.25937
yazi	-8.26617
phandle	-8.26817
nguye	-8.27078
emi	-8.27559
kanjalo	-8.27582
engi	-8.27647
kuwe	-8.27872
pet	-8.28074
zela	-8.28583
kuka	-8.2917
ndoda	-8.29291
aka	-8.29735
nesi	-8.29922
thula	-8.3051
nkazimul	-8.30513
ngezi	-8.30954
ngaye	-8.31001
zulu	-8.31432
y	-8.31511
yizi	-8.31895
nguku	-8.33136
nam	-8.33186
njengokuba	-8.33312
hlezi	-8.33564
vangeli	-8.33805
njenga	-8.33863
phendula	-8.34056
zinto	-8.34139
ngokwe	-8.34225
j	-8.35514
yami	-8.3571
lile	-8.36148
kwenze	-8.36301
zakhe	-8.36962
masinya	-8.37214
mbo	-8.37229
johan	-8.38095
lisa	-8.38457
ra	-8.3848
koku	-8.3857
kuthe	-8.39266
mbus	-8.39586
sixuk	-8.39589
lungis	-8.3972
kele	-8.39736
bonakalis	-8.42192
kulo	-8.42301
sikhombis	-8.42547
mazwi	-8.42922
waphendula	-8.4411
ezwe	-8.44305
uzaku	-8.44318
muka	-8.44524
yethu	-8.45024
thina	-8.45466
ababe	-8.45656
lungile	-8.45711
omkhul	-8.45839
ho	-8.4609
far	-8.46121
kwase	-8.46142
ngubani	-8.46324
bayaku	-8.46879
endl	-8.47143
jo	-8.47265
ndawo	-8.47696
thatha	-8.48284
njenge	-8.48302
nje	-8.48615
ngokuthi	-8.49089
wazi	-8.49606
wakhe	-8.49624
themba	-8.50474
lesi	-8.5088
wethu	-8.51527
kuyaku	-8.51683
langa	-8.5216
ethi	-8.52597
niyaku	-8.52801
gazi	-8.53431
z	-8.54593
nto	-8.55886
yathi	-8.55942
qonda	-8.56224
thokoza	-8.56228
mhla	-8.56447
umbus	-8.5803
kithi	-8.58538
”	-8.59004
emhlab	-8.59134
fundisa	-8.59643
nta	-8.59763
yakho	-8.60132
nezin	-8.60167
kanja	-8.60396
thela	-8.60451
landela	-8.60513
muzi	-8.60518
mehl	-8.60572
kukhona	-8.60703
▁,”	-8.60922
iwe	-8.61035
yebo	-8.61552
shwa	-8.61713
ri	-8.62365
soku	-8.62662
kwakho	-8.62875
wayeseth	-8.62881
nokuba	-8.63018
sakhe	-8.6351
izwe	-8.63775
ow	-8.6402
bhekani	-8.64126
melwe	-8.6437
biza	-8.64374
wami	-8.6584
baprofethi	-8.66122
kusho	-8.66524
fumana	-8.66544
cal	-8.66978
zwile	-8.67237
ngazi	-8.67267
phila	-8.67676
enye	-8.67805
ngco	-8.6839
fanekis	-8.68462
sizwe	-8.68475
fike	-8.68945
limi	-8.69386
kuzwa	-8.69517
sto	-8.69652
memeza	-8.69655
’	-8.6967
zimba	-8.6986
lapha	-8.70516
wase	-8.70664
egam	-8.70789
shumayela	-8.71219
kw	-8.7191
bone	-8.71993
sifazane	-8.72159
ngesa	-8.72229
ray	-8.72325
khanda	-8.72346
kudla	-8.72526
nceku	-8.72999
khulek	-8.73216
▁,’	-8.73537
okukhulu	-8.73864
kulotshiwe	-8.74561
abayi	-8.74743
khumb	-8.7482
bulala	-8.74842
okuhle	-8.7494
hambe	-8.7587
enze	-8.75911
kwakukhona	-8.76187
kwahlulel	-8.76259
manzi	-8.76537
mise	-8.76934
kubona	-8.76949
ncwadi	-8.77109
nakho	-8.77314
sondel	-8.77362
kungathi	-8.77413
dle	-8.77592
bhe	-8.7777
kungabi	-8.785
khanya	-8.78721
thwa	-8.81055
abra	-8.81057
bukhosi	-8.81071
simo	-8.8121
ngizaku	-8.81332
cela	-8.81362
ethempeli	-8.81761
abakhulu	-8.81839
ezint	-8.81899
zabo	-8.82826
galil	-8.83728
lami	-8.83814
hama	-8.84247
mele	-8.8445
nemi	-8.84478
she	-8.85321
nj	-8.87384
thuma	-8.87822
mprofethi	-8.88004
ntand	-8.88083
mpela	-8.88211
suka	-8.8936
wenza	-8.899
zuz	-8.89963
mari	-8.90362
nqum	-8.90923
sinagoge	-8.90923
bhali	-8.92192
gcwal	-8.92415
ntwan	-8.92449
thembis	-8.92522
dem	-8.92679
mashumi	-8.92766
jak	-8.92903
ngaphambi	-8.96513
ncenga	-8.97033
siphamban	-8.97038
fiki	-8.97213
iyaku	-8.97398
ndo	-8.97852
bonile	-8.982
kwethu	-8.98216
khulume	-8.98406
ceb	-8.98603
mile	-8.98636
akakho	-8.99258
butha	-8.995
enu	-8.9972
sathan	-8.99922
thumela	-9.00258
elikhulu	-9.00589
fakaza	-9.01899
mfundi	-9.02717
qondi	-9.03538
bufakazi	-9.03539
izinsuk	-9.04072
zinsuk	-9.04576
msebenzi	-9.05136
phenduka	-9.05235
chith	-9.05295
hlobo	-9.05962
yihlo	-9.06445
lomo	-9.07056
kanti	-9.08712
hlanganyel	-9.08717
busisiwe	-9.08756
kusuk	-9.08794
hlis	-9.09163
ngomus	-9.09659
mbul	-9.09901
kugcina	-9.11509
▁!”	-9.12316
hlwanyel	-9.12317
sihlan	-9.12545
khipha	-9.12684
amukele	-9.13029
sebenzi	-9.14168
shiya	-9.1417
thandeka	-9.142
mbuza	-9.15654
buthakathak	-9.16055
dlula	-9.16063
esikhulu	-9.16874
thempeli	-9.16967
esifazane	-9.17847
hlakanipha	-9.17977
izon	-9.18041
mbethe	-9.18249
esihlal	-9.18668
benza	-9.19217
herod	-9.19938
khwe	-9.19939
hlupheka	-9.19944
gcwele	-9.21421
shu	-9.21885
nca	-9.21985
hor	-9.22319
abap	-9.22362
duduz	-9.22769
sebenza	-9.23032
iminya	-9.23424
thwe	-9.23968
okuphaka	-9.24106
mpof	-9.24214
kesari	-9.26064
bumnyam	-9.26208
khaphel	-9.2642
thabath	-9.26991
ubus	-9.27132
phelele	-9.28777
mzimb	-9.28886
jud	-9.29293
fundisi	-9.29769
iyu	-9.30917
zinceku	-9.30921
makhosi	-9.31072
zibonakalis	-9.3132
tshi	-9.34859
gcina	-9.35878
kwezin	-9.36755
shwe	-9.37062
waqala	-9.39565
mkhunj	-9.39584
ngakwesok	-9.39668
bonakala	-9.39695
zulw	-9.40001
benze	-9.40438
kubafundi	-9.41934
ngceb	-9.42004
wazal	-9.42491
ekudl	-9.43611
kwesaba	-9.43846
kulunkulu	-9.44083
gcwalisek	-9.44507
bekezela	-9.44516
phonsa	-9.44516
ngezw	-9.45563
hawukel	-9.46208
ahlul	-9.46618
pil	-9.47047
hlambalaza	-9.47068
kuqale	-9.47068
ngqond	-9.47068
linganis	-9.4718
zikhathi	-9.47274
hluph	-9.4733
njan	-9.48403
endaw	-9.48488
sekel	-9.49678
thethelelw	-9.49706
khumbula	-9.49729
mbhal	-9.50105
bamangal	-9.5191
etilong	-9.52403
sishiyagalo	-9.52403
ngithumile	-9.52405
lahlwa	-9.55194
zindl	-9.55254
ngcolile	-9.55351
hlatshel	-9.55686
amen	-9.5619
dabul	-9.5647
sihawu	-9.56847
babusi	-9.57824
mukeliswa	-9.58039
hlulela	-9.58543
kukholw	-9.59487
phulukisa	-9.60979
sikhashan	-9.61037
nzal	-9.61491
iband	-9.61983
khubekis	-9.63161
enhliziy	-9.63344
gcine	-9.64009
vunyelw	-9.64009
khathazek	-9.64011
esefik	-9.66141
profetha	-9.67134
ebus	-9.67371
indun	-9.67423
zenzis	-9.68256
azare	-9.69285
hlukanis	-9.69966
mphefumul	-9.7036
sivumelwan	-9.7036
sizukulwane	-9.7036
thembekile	-9.70361
bhapathiza	-9.70831
mnikel	-9.71485
kwenziw	-9.71919
mhawu	-9.73006
nyukela	-9.73699
ncin	-9.73711
mukis	-9.73838
lungel	-9.74938
kungalungi	-9.76607
entab	-9.76875
isitsh	-9.77103
hlakaniphile	-9.77141
ngalaleli	-9.7717
zindlebe	-9.77718
fuman	-9.8004
kedoni	-9.80713
khethiwe	-9.80828
2	-10.259
1	-10.5185
5	-10.9807
6	-11.2486
;	-11.581
4	-11.6153
.	-11.831
7	-12.1986
9	-12.1986
?	-12.6647
'	-12.6986
0	-12.6986
8	-13.6661
3	-13.6662
—	-13.6663
!	-13.6664
v	-13.6665
q	-13.6666
:	-13.6667
t	-13.6668
,	-13.6669
g	-13.6669
