<pad>	0
</s>	0
<unk>	0
▁¦	-0
▁,	-1
ꮝꭹ	-2
ꮝꮧ	-3
▁𐊣	-4
ꭰꮄ	-5
▁.	-6
ꮎꮝꭹ	-7
ꭸꮢ	-8
▁;	-9
ꭿꭰ	-10
ꮅꮝ	-11
ꮕꭿ	-12
ꭲᏻ	-13
ꮧᏹ	-14
ꭴꮑ	-15
ꭼꮹ	-16
ꮒꭶ	-17
ꮣꮑ	-18
ꮣꮕ	-19
ꭴꮒ	-20
ꮝꭼ	-21
ꭿᏻ	-22
ꮝꭶ	-23
ꭸꮢꭲ	-24
ꭵꮭ	-25
ꭰꮒ	-26
ꭴꮎ	-27
ᏸꮓ	-28
ꮺꮞ	-29
ꮃꮕꭿ	-30
ꭸꮞ	-31
ꮝꮫ	-32
ꭴꮑꮃꮕꭿ	-33
ꮩꮧ	-34
ꮝꮧᏹ	-35
ꮴꮅ	-36
ꭼꮻ	-37
ꮝꭸ	-38
ꭼꮻᏻ	-39
ꮣꮄ	-40
ꮝꭹꮒ	-41
ꭶꮈ	-42
ꮵꮜ	-43
ꮈꭹ	-44
ꮝꭺ	-45
ꮒꭸꮢ	-46
ᏼꮻ	-47
ꭹꮆ	-48
▁?	-49
ꭰꮞ	-50
ꭸꮞꮝꮧ	-51
ꮧꭶ	-52
ꮝꮣ	-53
ꭲꭶ	-54
ꭼꮻᏻꭿ	-55
ꮝꮙ	-56
ꮫꮑ	-57
ꮩꭿ	-58
ꮎꮝꮙ	-59
ꮤꮕ	-60
ꮈꭿ	-61
ꮄꭲ	-62
ꮎꮝꭹꮿ	-63
ꮒꭿ	-64
ꭴꮺ	-65
ꭰᏼ	-66
ꮝꮣꮑ	-67
ꮵꭹ	-68
ꮹꮫ	-69
ꮓꭾ	-70
ꮏꮙ	-71
ꮢꭹ	-72
ꮆꭿ	-73
ꭲꮳ	-74
ꭲꮵ	-75
ꮧᏻ	-76
ꭰꮵ	-77
ꮝꭸꮝꮧ	-78
ꮒꭸꮢꮎ	-79
ꭴꭼꮻᏻꭿ	-80
ꮹꮧ	-81
ꭲᏻꮝꮧ	-82
ꭶꮆ	-83
ꭺꭿ	-84
ꮩꮧᏹ	-85
ꮂꭲ	-86
ꭰꮞꮓ	-87
ꭶꮤ	-88
ꮈꭲ	-89
ꮳꮨ	-90
ꮔꮺꮞ	-91
ꭷꮏ	-92
ꮕꮫ	-93
ꮑꭲ	-94
ꮑꮫ	-95
ꭾꮝꮧ	-96
ꭶꮩ	-97
ꮎꮏ	-98
ꮻꮝꮣꮑ	-99
ꭰꭹ	-100
ꭴᏺ	-101
ꭶꮆꮑꮫ	-102
ꮃꮧ	-103
ꮝꮥ	-104
ꮔꭺ	-105
ꭸꮵ	-106
ꮕꮣ	-107
ꭰꮑ	-108
ꮝꮖ	-109
ꮒꮪ	-110
ᏹꭹ	-111
ꮷꮎ	-112
ᏸꮈ	-113
ꮩꮣ	-114
ꭼꮒ	-115
ꮤꮕꭿ	-116
ꮁꮝꮧ	-117
ꭴꮴꮅ	-118
ꮕꭹ	-119
ꮅꮝꮩꮧ	-120
ꭰꮎ	-121
ꭺꮁꮝꮧ	-122
ᏸꮅ	-123
ꮣꮒ	-124
ꮝꭼꭲ	-125
ꮅꮝꮧ	-126
ꭿꮝꮧ	-127
ꮒꭶꮫ	-128
ꮈꮻꮝꮣꮑ	-129
ꭲꮸ	-130
ꭳꮝꮫ	-131
ꮣꮩ	-132
ꮎꮝꭹꮓ	-133
ꮣꮕꮩ	-134
ꭴꮹ	-135
ꭴꮅ	-136
ꭰꮖ	-137
ꭲꮿ	-138
ꭲᏻꮓ	-139
ꮣꮅ	-140
ꭴꮩ	-141
ꭰꮝꭶ	-142
ꮒꭼ	-143
ꭶꮈꮙ	-144
ꮹꮧꮩꭿ	-145
ꮏꮙꮓ	-146
ꮅꮝꮣ	-147
ꮷꮒ	-148
ꭲꭼ	-149
ꭸᏻ	-150
ꮮꮝꮧ	-151
ꮣꮄꮕꮫ	-152
ꮤꮅ	-153
ꮧꭷꮏ	-154
ꮎꮒ	-155
ꮪꮒ	-156
ꮧꮒ	-157
ꭴꮺꮵ	-158
ꭰꮟ	-159
ᏼꮫ	-160
ꭱꮆꭿ	-161
ꮒꭺ	-162
ꮕꮟ	-163
ꭴꮳꮨ	-164
ꮞꭲ	-165
ꭰꮵꮈ	-166
ꮫꭶ	-167
ꮕꮹ	-168
ꭴꮹꮢ	-169
ꮄꮀ	-170
ꭷꮓꭾ	-171
ꮧꭶꮅꮝꮩꮧ	-172
ꮒꭶꭵ	-173
ꮢꭿ	-174
ꮔꮒ	-175
ꮒꮪꮺꮞ	-176
ꮇꮴ	-177
ꭶꮪ	-178
ꮂꭹ	-179
ꮆꮧ	-180
ꮢꭲ	-181
ꭶꮨ	-182
ꭸꮞꭲ	-183
ꮕꮧꭶꮅꮝꮩꮧ	-184
ꮕꭲ	-185
ꭼꮒꭸꮢ	-186
ꮃꮻ	-187
ꮑꮈ	-188
ᏻꭺ	-189
ꭴꮩꭿᏻ	-190
ꭿꭰꮓ	-191
ꮔꮝꮫ	-192
ꭰꮣꮕꮩ	-193
ꮅꮝꮣꮑ	-194
ᏼꮅ	-195
ꭰꮣ	-196
ꭷꮓꭾꮫ	-197
ꮝꮖꮒꭺ	-198
ꭳꮟ	-199
ꭶꮈꮙꮧᏻ	-200
ꭴꮯ	-201
ꭶꮅ	-202
ꮸꭿ	-203
ꭺꮺ	-204
ꮅꮝꮩꮧᏹ	-205
ꮎꭿᏻ	-206
ꮧꮲ	-207
ꮩꮄꮀ	-208
ꮅꮝꮣᏼ	-209
ꮪꮎ	-210
ᏺꮁ	-211
ꭼꭲ	-212
ꮣꮕꮦ	-213
ꮈꮙ	-214
ꮫꭲ	-215
ꭳꮟᏻ	-216
ꮧꭷꮏꮹꮫ	-217
ꮔꭺꮻ	-218
ꭶꮈꮃꮧ	-219
ꭲᏼꮫ	-220
ꭲꭼᏹ	-221
ꮝꮩꮧ	-222
ꭱꭿ	-223
ꮤꮒ	-224
ꮂꮝꭹ	-225
ꭴꮥ	-226
ꮂꮎ	-227
ꭴꮕ	-228
ꮧꮵ	-229
ꭲꭹ	-230
ꮔꮅꮝ	-231
ꮤꮕꭹ	-232
ꮔꮺꮞꭲ	-233
ꭸꮝꮧ	-234
ꭰꭶ	-235
ꮎꮒꭵ	-236
ꮧꮝꭹ	-237
ꮺꮢꭹ	-238
ꭴꮩꭿᏻꭿ	-239
ꭰꮝꭶꮿ	-240
ꮧꭷꮏꮹꮫꮝꮧ	-241
ꮥꮳ	-242
ꮥꮵ	-243
ꮜꮙ	-244
ꮠꭲ	-245
ꮒꭹ	-246
ꮤꮑ	-247
ꭲꮴ	-248
ꮇꮸ	-249
ꮹꮒ	-250
ꭴꮼ	-251
ꮵꭺ	-252
ꮝꭶꮕ	-253
ꮴꮅꭶ	-254
ꭴꮪ	-255
ꮥꭹ	-256
ꮧꮳ	-257
ꮪᏻꭺ	-258
ꭲꮝꮧᏹ	-259
ꭴꮴꮅꭶ	-260
ꮟꮅ	-261
ꮝꭸꭲ	-262
ꮝꭺꭲ	-263
ꭼꮹꮝꮣ	-264
ꮒꮳ	-265
ꮕꮣᏻ	-266
ꮝꭼꭹ	-267
ꭲꮷ	-268
ꮣꮩꮅꮝꮧ	-269
ꭾꭲ	-270
ꭼꮒᏻ	-271
ꮅꮝꭺ	-272
ꮥꮈ	-273
ꮣꮝꮧ	-274
ꭸꮢꭹ	-275
ꭼꮒᏻꮙ	-276
ꮝꮪ	-277
ꭱꮵ	-278
ꮷꮟ	-279
ꮵꮜꮓ	-280
ꮕꮯ	-281
ꮑꮈꭿ	-282
ᏺꭿ	-283
ꭺꭿᏻ	-284
ꭸᏼ	-285
ꭶꮤꭽ	-286
ꭼꮧ	-287
ꭼꮹꮅ	-288
ꭲᏻꮅꮝꮩꮧᏹ	-289
ꮤꮑꭲ	-290
ᏺꮅ	-291
ꮒꭺꭿ	-292
ᏼꮅꭸ	-293
ꭼꭹ	-294
ꮑꮧᏹ	-295
ꭲᏻꮎ	-296
▁[	-297
ꮒꮵ	-298
ꮫꭹ	-299
ꮫꮎ	-300
ꮔꮎ	-301
ꭴꮒꮳꮨ	-302
ꭴꮣ	-303
ꮥᏺ	-304
ꮑꮴ	-305
ꮒꮸ	-306
ꮯꮆ	-307
ꭴꮓ	-308
ꮥꭶ	-309
ꭰꮑꭿ	-310
ꭿꮝꮧᏹ	-311
ꮅꮝꭺꮈ	-312
ꮪᏻꭺꮫ	-313
ᏺꮞ	-314
ꮣꮱ	-315
ꭳꭹ	-316
ꮅꮟ	-317
ꮩꭵ	-318
ꮅᏸ	-319
ꮙꮃ	-320
ꭰꮒꮷꮟ	-321
ꮣꮎ	-322
ꭲꮷꮃ	-323
ꮤꮅꮑ	-324
ꮷꮣꮄꮕꮫ	-325
ꮀꭲ	-326
ꮑꮧ	-327
ꮫꮓ	-328
ꭼꮹꮝꮣꮹꮧꮩꭿ	-329
ꮎꭵ	-330
ꭼꮻᏻꮢ	-331
ꭺꮂ	-332
ꮷꮺ	-333
ꭴꭼꮹꮅ	-334
ꮈꮧ	-335
ꮵꮩ	-336
ꭴꮣꮕ	-337
ꮵꮿ	-338
ꮳꮒ	-339
ꮧꮎ	-340
ꮔꮼ	-341
ꭴꮅꮝ	-342
ꭸꭶ	-343
ꭸꮳ	-344
ꮘꮣ	-345
ꮵꮇ	-346
ꮝꭼꮎ	-347
ꭷꮅ	-348
ꮃꮻꭲꮝꮧᏹ	-349
ꮧꭽ	-350
ꭲꮝꮧ	-351
ꭶꭺ	-352
ꮑꮆꮧ	-353
ꭴꮅꮒꭹ	-354
ꭾꮅ	-355
ꮅᏺ	-356
ꮎꮻ	-357
ꮜꮫ	-358
ꮝꭺꭿ	-359
ꭰꮒꭶ	-360
ꮔꮺꮢꭹ	-361
ꮒꮪꮺꮞꮄꭲ	-362
ꭰꮉ	-363
ꭴꮑꮸ	-364
ꭶꮩꮓ	-365
ꮩꮄꮀꮝꭹ	-366
ꮑꭽ	-367
ꮕꮟꮫ	-368
ꭷꮑ	-369
ꮔꮺꮞꮄꭲ	-370
ꮕꮟꮣꮝꮧ	-371
ꭴꮩꭿᏻꭿꮿ	-372
ꮕꮧꭶꮅꮝꮩꮧꭽ	-373
ꭴꭹ	-374
ꮿꮫ	-375
ꮒꭶꮺ	-376
ꮧꭼꮹ	-377
ꮝꮩꮧᏹ	-378
ꭹꮃ	-379
ꮩꮅ	-380
ꭴᏸꮈ	-381
ꮑꮅ	-382
ꮤꮃ	-383
ꮶꭲ	-384
ꭴᏺꮁ	-385
ꮧꮝꮧ	-386
ꮭꮝꭺ	-387
ꮶꭿᏻ	-388
ᏹꭶ	-389
ꮢꮓ	-390
ꮧꭶꮃꮻꭲꮝꮧᏹ	-391
ꭰꮒꮝꭶ	-392
ꭲꮷꮃꭽ	-393
ꮟꮅꮋ	-394
ꭴꮫ	-395
ꮝꮩ	-396
ꮧꮤ	-397
ꭺꭿᏻꮧ	-398
ꮵꮇꮟꮅꮋ	-399
ꮄꮕ	-400
ꮝꭹꮎ	-401
ꮙꮓ	-402
ꮿꮕ	-403
ꮞꮝꮧ	-404
ꭱꮳ	-405
ꭲᏻꮹꮒ	-406
ꮒꮪꮺꮞꮈꭹ	-407
ꭵꭹ	-408
ꭻᏼ	-409
ꮒᏼ	-410
▁]	-411
ꮧꮣ	-412
ꭱꮝꭶ	-413
ꮳꭼꮻᏻꭿ	-414
ꭼꮎ	-415
ꭼꮒꮫ	-416
ꭰꭸᏼ	-417
ꭴꮕꮢ	-418
ꭶꮣ	-419
ꭺꭲ	-420
ꮧꭹ	-421
ꭰᏸꮅ	-422
ꭰꭶꮤ	-423
ꮕꮹꮣꮄ	-424
ꮎꮝꭹᏸꮓ	-425
ꭶᏸ	-426
ꭶꮎ	-427
ꭺꭹ	-428
ꭺꮲ	-429
ꮃꭹ	-430
ꮔꮺꮞꮈꭹ	-431
ꭲꮈ	-432
ꭰꮥꮈ	-433
ꭲꮿꮒ	-434
ꭲꮫ	-435
ꮹꮨ	-436
ꮂꮝꭶ	-437
ꮣꮒꮈ	-438
ꮼꮒ	-439
ꭴꮳ	-440
ꭴꮝꮧ	-441
ᏹꮵ	-442
ꮕꮓ	-443
ꭰꭶᏼꮅꭸ	-444
ꮎꮫ	-445
ꮓꭿᏻ	-446
ꮝꮤꮕꭿ	-447
ꮺꮞꭽ	-448
ꮒꭶꮧᏻ	-449
ꮺꮞꮈꭹ	-450
ꭴꮣꮩꮅꮝꮧ	-451
ꭰꮻ	-452
ꮧꮝꭸꮝꮧ	-453
ꮷꮺꮵ	-454
ꭴꮆ	-455
ꮃꮟ	-456
ꭶꮨꮿ	-457
ꭴꮎꮣꮕ	-458
ꮷꮎꮣꮄꮕꮫ	-459
ꮣꮣ	-460
ꮝꮥꮝꮧ	-461
ꮅꮝꭹ	-462
ꮝꮤꮕ	-463
ꮒꭺꭿꮈ	-464
ꮎꮝꭹꮿꭲ	-465
ꭳꮒ	-466
ꭴꮗ	-467
ꭶꮫ	-468
ꮀꮹ	-469
ꮸꭹ	-470
ꭲꮿꮒꮫ	-471
ꮅꮝꮣꮑꮧ	-472
ꭵꭲ	-473
ꮣꮕꮯ	-474
ꮯᏼ	-475
ꭸꮠꭲ	-476
ꮎꮫꮑ	-477
ꭰꮅ	-478
ꮑꭿ	-479
ꭰꮣꮑ	-480
ꭴꮝꮖꮒꭺ	-481
ꮔꮝꮧ	-482
ꮢꮎ	-483
ꭺꮺꮅ	-484
ꭰꮎꮅ	-485
ꭲꮣꮅ	-486
ꭵꮭᏸꮓ	-487
ꮝꭶꮕꮸ	-488
ꭶꮑ	-489
ꮑꮈꭹ	-490
ꭸꭲ	-491
ꮷꮩ	-492
ꮫꮑꮧ	-493
ꭰꮟᏼꮻ	-494
ꮝꭹꮒꮓ	-495
ꮂꭶ	-496
ꭶꮈꮻꮝꮣꮑ	-497
ꭱꮖ	-498
ꮠꮕ	-499
ꮵᏻ	-500
ꭲꭶꭲ	-501
ꭶꮩꭵ	-502
ꮣꮄꮕꭿ	-503
ꭼꮹꭶꮨꮿ	-504
ꮅꮫ	-505
ꮙꮝꭹꮒ	-506
ꭱꮅ	-507
ꮣꮈ	-508
ꮧꮓ	-509
ꮪꮅ	-510
ꮤᏺꮞ	-511
ꭰꮒꭶꮤ	-512
ꭺꮹꮫ	-513
ꮑꮄꭲ	-514
ꮦꮈ	-515
ꭶꮪꮂ	-516
ꭺꮅᏸ	-517
ꮝꮫꮎ	-518
ꮷꮎꮑꮆꮧ	-519
ꮑꮄ	-520
ꮰᏹ	-521
ꮴꭲ	-522
ꭴꮎꮅ	-523
ꮪꮅꮝ	-524
ꮽꮒ	-525
ꭰᏺꮁ	-526
ꭹꮆꮓ	-527
ꭰꮝꭺꭿ	-528
ꮆꭿꮝꮧᏹ	-529
ꮝꭹꮒꮓꮕ	-530
ꮠꮲ	-531
ꮫꭶꮕ	-532
ᏹꮳ	-533
▁!	-534
ꭻꭺ	-535
ꮜꮿ	-536
ꮒꮸꮺꮞꭽ	-537
ꮔꭼꮻᏻꮢ	-538
ꮧꭷꮏꮹꮧꮩꭿ	-539
ꭰᏸ	-540
ꮣꭶ	-541
ꮣꭹ	-542
ᏺꭿꮞ	-543
ꭰꮝꮣ	-544
ꮒꭼꮕ	-545
ꮷꭼꮹ	-546
ꭴꮗꮣꮅ	-547
ꭲᏻꮹꮒꮜꮫ	-548
ꮪꮈꮻꮝꮣꮑ	-549
ꮧꭶꮈꮻꮝꮣꮑ	-550
ꭳꭶ	-551
ꮒꮩ	-552
ꮕꮣꭶ	-553
ꭱꮝꭶꮙ	-554
ꮔꮒꮺꮞ	-555
ꮘꮅ	-556
ꮡᏸ	-557
ꭰᏸꮈ	-558
ꭲꮧꮲ	-559
ꮝꮥꮈ	-560
ꮣꮕꮫꭲ	-561
ꭲꮣꮅꮕꮯ	-562
ꮔꮺ	-563
ꮕꮿ	-564
ꮫꮕꭲ	-565
ꮫꮑꮧᏹ	-566
ꮓꭿ	-567
ꭴꮒꮳ	-568
ꮥꮝꮧ	-569
ꮕꮹꮩꭿ	-570
ꭸꮅ	-571
ꮑꮸ	-572
ꭴꮇꮸ	-573
ꮔꮅꮝꮤꮕ	-574
ꮙꭹ	-575
ᏹꭸꮞꮝꮧ	-576
ꭴꮅꮒꭹꮫ	-577
ᏸꮒ	-578
ꮧꭶꮈꮻꮝꮣꮑꮧ	-579
ꮅꮩ	-580
ꮒꮧ	-581
ꮿꮻ	-582
ꭲꭼꮹ	-583
ꭴꮎꮣ	-584
ꭴꮪꭹ	-585
ꭶꮅꮙꭹ	-586
ꮈꮻꮝꮣꮑꭿ	-587
ꭸꮠ	-588
ꮊꮅ	-589
ꮔꮹ	-590
ꮕꮞ	-591
ꭱꮩꮣ	-592
ꮷꮩꭲꮫ	-593
ꮷꭼꮹꮆꮧ	-594
ꭳꮵ	-595
ꮎꭹ	-596
ꮵꮪ	-597
ꭰꮅꮝ	-598
ꮖꮅꮟ	-599
ꭴꮥꮅꮫ	-600
ꮔꮒꮺꮢꭹ	-601
ꮣꮩꮅꮝꮣꮑ	-602
ꭼꮹꮒ	-603
ꮧꮝꭼ	-604
ꭴꮅꮝꮖ	-605
ꭰꮒꮝꭶꮿ	-606
ꮕꮹꮩꭿꮿꮫ	-607
ꮇꭹ	-608
ꮎꮭ	-609
ꮹꮧꮢ	-610
ꭰꮑꮆꭿ	-611
ꭲꭸꮞꮝꮧ	-612
ꮔꮒꮺꮞꭲ	-613
ꮈꭽ	-614
ꮥꮎ	-615
ꮥꮻ	-616
ꮧꭸ	-617
ꭺꮹꮨ	-618
ꮅꮝꮩ	-619
ꭴꮑꮃꭹ	-620
ꭰꮗ	-621
ꭱꮧ	-622
ꮒꭸ	-623
ᏸꮅꮙ	-624
ꭰꮟꮙ	-625
ꭸᏻꮧ	-626
ꮒꮩꭿ	-627
ꮣꮕꮫ	-628
ꭲꭼᏹᏹ	-629
ꮝꮤꮕꭹ	-630
ꭴꮎꮣꮕꮨ	-631
ꭰꮎꮩꮄꮀꮝꭹ	-632
ꮄꭿ	-633
ꮣꮖ	-634
ꮷꮣ	-635
ꭲᏻᏸꮓ	-636
ꭶꮓ	-637
ꭶꮈꮆ	-638
ꮤꮃꮪ	-639
ꭿꭰᏸꮓ	-640
ꮎꮔꭺꮻ	-641
ꭰꮛ	-642
ꮻꮒ	-643
ꭲꮈꭿᏻ	-644
ꮣꮝꮧᏹ	-645
ꮧꮒꭷꮏ	-646
ꭽꮋ	-647
ꮒꮖ	-648
ꮣꮑꮧ	-649
ꭶꮃ	-650
ꭲꮟꮅ	-651
ꭰꮒꮤꮅ	-652
ꭴꮎꮣꮱ	-653
ꮞꮅ	-654
ꮰꮎ	-655
ꮷꮑ	-656
ꮷꮘ	-657
ᏹꮀꮹ	-658
ꭲꭶꮫ	-659
ꭺꮺꮃ	-660
ꮒꭼꮹ	-661
ꮜꮹꮒ	-662
ꮞꮈꭿ	-663
ꭱꮖꭽꮋ	-664
ꮣꮧ	-665
ꮫꮒ	-666
ꭱꮃꮧ	-667
ꭶꮣꭽ	-668
ꮥꮈꮩꮧ	-669
ꮔꮒꭼꮻᏻꮢ	-670
ꭶꭸ	-671
ꭹꭼ	-672
ꮜꮧ	-673
ꮧꭸꮵ	-674
ꮪꮩꭵ	-675
ꭰꮝꭶꮒ	-676
ꮕꮣᏻꮣꮄꮕꭿ	-677
ꭶꮵ	-678
ꮌꮟ	-679
ꭲꮳꮅ	-680
ꭸꮅꮅ	-681
ꮃꮧꮩ	-682
ꮄꮝꮧ	-683
ꮧꮣꮄ	-684
ꮼꮒꭿ	-685
ꭴꮎꮴꮅꭶ	-686
ꭴꮝꮖꮒꭺꮧ	-687
ꮥꮨ	-688
ꮻꮪ	-689
ꭸꮆꭿ	-690
ꮂꮝꭼ	-691
ꮎꮒꮺ	-692
ꮝꮣꮹ	-693
ꮝꮤꮒ	-694
ꮫꮑꮈ	-695
ᏺꮁꮢꭿ	-696
ꭲꭶꮴꮅ	-697
ꭴꮎꮴꮅ	-698
ꭼꮻᏻꮜ	-699
ꮺꮞꮄꭲ	-700
ꭰꮒꮖꮅꮟ	-701
ꭲꮧ	-702
ꭴꮵ	-703
ꭸꮃ	-704
ꮎᏸ	-705
ꮥꭿ	-706
ꮹꮎ	-707
ꭵꮭꮓ	-708
ꭶꮩꭿ	-709
ꮝꭹꮓ	-710
ꮩꮣꮖ	-711
ᏹꭸꮞꭲ	-712
ꭰꮩꮄꮀꮝꭹ	-713
ꮅꮝꭺꮈꮣꮑ	-714
ꮧꮒꭷꮏꮹꮧꮩꭿ	-715
ᏺꮺ	-716
ꭳꮳ	-717
ꮑꮆ	-718
ꮫꮏ	-719
ꮫꮕ	-720
ꮎꮣꮄ	-721
ꮝꭶꭲ	-722
ꮈꮓ	-723
ꮓꭹ	-724
ꮪꮣ	-725
ꭲꮿꭶ	-726
ꭴꮒᏺ	-727
ꮣꮕꮦꮝꭼ	-728
ꮄꮓ	-729
ꭰꮞꮙ	-730
ꮝꮫꭲ	-731
ꭰꮵꮈꮙ	-732
ꭲꮶꭿᏻ	-733
ꮑꮃꮕꭿ	-734
ꮥᏺꮂꮝꭹ	-735
ꮅꮝꮣᏼꮧᏹ	-736
ꭱꮩ	-737
ꭴꮇ	-738
ꮕꭶ	-739
ꮻꮵ	-740
ꮝꮤꮑ	-741
ꮒꭶꮅꮝꮧ	-742
ꮒꭿꮝꭹꮒ	-743
ꭰꮫ	-744
ꭲꮎ	-745
ꮖꮄ	-746
ꭸᏻꭲ	-747
ꮝꮖꮈ	-748
ꭶꮈꮙꮧ	-749
ꮒꭶꮫꮓ	-750
ꮅꮝꮣᏼꮧ	-751
ꭰᏺꮁꭿꮝꮧ	-752
ᏹꮩ	-753
ꮑꮓ	-754
ꮣᏻ	-755
ꮣꮵ	-756
ꮪꭲ	-757
ꮵꭶꮤꭽ	-758
ꭼꮻᏻꮜꮥꭹ	-759
ᏻꮃ	-760
ꭰꮴ	-761
ꭴꭶ	-762
ꮕꮩ	-763
ꮧꮖ	-764
ꭲꮸꮢ	-765
ꭴꮣꮅ	-766
ꭽꮻꮒ	-767
ꮎꮏꮓ	-768
ꮣꮄꮢ	-769
ꭲꮿꭶᏼꮅ	-770
ᏼꭹ	-771
ꮎꮖ	-772
ꭴꮑꮴ	-773
ꮕꮢꭹ	-774
ꭰꮝꭹꮎ	-775
ꭹꮃꮙꮓ	-776
ꮎꮝꭹꮝꭹꮒ	-777
ꭼꮼ	-778
ꮈꮎ	-779
ꭴꮇꮴ	-780
ꭶᏻꮃ	-781
ꮈꮙꮧ	-782
ꮝꭹꮿ	-783
ꮑꭲꮝꮧ	-784
ꭴꮄ	-785
ꭴꮩꮣ	-786
ꭴꮪꮅꮝ	-787
ꭶᏼꮅꭸ	-788
ꮝꮤꮑꭲ	-789
ꮹꮧꮢꭲ	-790
ꭲᏻꮎꮝꮧ	-791
ꮂꮝꭸꮝꮧ	-792
ꮼꮒꭿꮝꮧ	-793
ꭰꭶᏼꮅꭸꭲ	-794
ꭴꮅꮒꭹꮧᏻ	-795
ᏺꭹ	-796
ꭴꮧ	-797
ꮇꮵ	-798
ꮑꮂ	-799
ꮞꭽ	-800
ꮧꮴ	-801
ꮪꭺ	-802
ꮴꭽ	-803
ꮷꮼ	-804
ꭴꮅꮟ	-805
ꭰꮓꭿᏻ	-806
ꭰꮝꮣꮿ	-807
ꮺꮅꮝꭹ	-808
ᏼꭿ	-809
ꭴᏼ	-810
ꮀꮅ	-811
ꮰꮿ	-812
ꮟᏼꮻ	-813
ꭴꮓꭿᏻ	-814
ꭼꮹꮇꮴ	-815
ꮧꮤꮝꮧ	-816
ꭰꮎꮅꮕꮯ	-817
ꭰꮣꭸᏻꮧ	-818
ꭴꮒꮝꮖꮒꭺ	-819
ꮅꭺ	-820
ꮠꮧ	-821
ꭰꮑꮂ	-822
ꭴꮝꮥ	-823
ꭴꮰᏹ	-824
ꮒꮵꮺ	-825
ꭰꮒꮝꭹꮎ	-826
ꮔꮅꮝꮤꮑꭲ	-827
ꮪꮒꮈꮻꮝꮣꮑ	-828
ꭰꭺ	-829
ꭰꮊ	-830
ꭱꭽ	-831
ꮞꮧ	-832
ꮿꭲ	-833
ꭰꭶꮨ	-834
ꮕꭿꮫ	-835
ꮤꮃꮼ	-836
ꮧꭻꭺ	-837
ꮷꮴꮅ	-838
ꮒꮳꮫꮑ	-839
ꮟᏼꮻꭽ	-840
ꮨꮒꮩꭿ	-841
ꭶꮆꭿꮝꮧᏹ	-842
ꭲꮃ	-843
ꭼꮓ	-844
ꮜꮒ	-845
ꮣꮫ	-846
ꭲᏻꮹ	-847
ꭶꮝꭹ	-848
ꭶꮤꮂ	-849
ꮵᏻꭿ	-850
ꭲꭶꮫꮓ	-851
ꭴꮒꮇꮴ	-852
ꮕꮣꭼꮹ	-853
ꭲꮣ	-854
ꭵꮎ	-855
ꮆꮫ	-856
ꮏꭲ	-857
ꮵꮑ	-858
ꮠꮧᏹ	-859
ꮕꮹꮎꮣꮄ	-860
ꮝꮣꮹꮧꮩꭿ	-861
ꮷꮒᏺꮁꮢꭿ	-862
ꭰꮓꭿᏻꮂꮝꭹ	-863
ᏸꭿ	-864
ꮎꭲ	-865
ꮣᏺ	-866
ꮿꮒ	-867
ꭰꭹꮎ	-868
ꭴꭷꮅ	-869
ꮎꮭꭲ	-870
ꮑꮯᏼ	-871
ꭰꮒꭸᏼ	-872
ꭴꮣꮕꮨ	-873
ꭶᏸꭺꭹ	-874
ꮵꭸꮢꭹ	-875
ꭱꮃ	-876
ꭸꮻ	-877
ꮡꮎ	-878
ꮤꮄ	-879
ꮥꭼ	-880
ꮪꮈ	-881
ꮪꮺ	-882
ꭴꮄꮕ	-883
ꭵꮝꭹ	-884
ꮢꮓᏹ	-885
ꭶꮈꮆꭲ	-886
ꮝꮥꮈꮧ	-887
ꮧꮝꭼꭲ	-888
ꭲꭼᏹꮧꮲ	-889
ꭴꮑꮃꮕꭿᏸꮓ	-890
▁"	-891
ꮙꭿ	-892
ꮝꭻ	-893
ꮥꮒ	-894
ꮪꮓ	-895
ꮳꭶ	-896
ꮷꮓ	-897
ꮽꮆ	-898
ꮿꭹ	-899
ꭴꮔꭺ	-900
ꭺꭿꮫ	-901
ꭿꮝꭹ	-902
ꮪꮣꮄ	-903
ꮯꮆꮫ	-904
ꮂꮝꭼꭲ	-905
ꭴꮎꮣꮱꭼ	-906
ꮧꮓꮺꮅꮝꭹ	-907
ꮅꮝꭺꮈꮤꮕꭿ	-908
ꭰꮓ	-909
ꭱꭹ	-910
ꭵꭵ	-911
ꮒꮣ	-912
ꮔꭾ	-913
ꮣᏸ	-914
ꮵꮥ	-915
ꮸꮢ	-916
ꮿꮩ	-917
ꭴꭺꮂ	-918
ꮑꮈꭲ	-919
ꮝꭶꮿ	-920
ꮡᏸꮫ	-921
ꮫꮑꭲ	-922
ꭴꮩꮄꮀ	-923
ꮑꭾꮝꮧ	-924
ꮵꭸꮞꭲ	-925
ꭴꮎꮩꮣꮖ	-926
ꭴꮴꮅꭺꭿ	-927
ꭸꮵꮕꮟꮫ	-928
ꭶꮩꭵꭿꮝꮧ	-929
ᏹꮧ	-930
ꭱꭲ	-931
ꭴꭺ	-932
ꭶꮕ	-933
ꮜꮃ	-934
ꮟꮜ	-935
ꮿꮤ	-936
ꭰꮛꮢ	-937
ꭶꮅꮶ	-938
ꭹꭶꭸ	-939
ꮃꮝꮧ	-940
ꮇꮸꭽ	-941
ꮥꭸꮵ	-942
ꮹꮝꮫ	-943
ꭰꮊꮙꭿ	-944
ꭴꮣꮅꭲ	-945
ꭴꮣꮕꮦ	-946
ꮅꮝꮩꮣ	-947
ꮔꮣꮄꮢ	-948
ꮕꮝꮧᏹ	-949
ꮝꮧꮝꭹ	-950
ꭴꮒꭼꮻᏻꭿ	-951
ꮕꮧꭶꮅꮝꮩꮧꮝꭸꮝꮧ	-952
ꭱꮊ	-953
ꭴꮲ	-954
ꭷꮒ	-955
ꮕꮢ	-956
ꮧꭷ	-957
ꮪꮻ	-958
ᏸꮈꭽ	-959
ᏸꮈꭿ	-960
ꭰᏺꮅ	-961
ꭴꮒᏼ	-962
ꭷꮅꭲ	-963
ꮆꮢꭿ	-964
ꮔꮺꮢ	-965
ꮙꭿᏻ	-966
ꮝꮪꭲ	-967
ꮹꮫꮂ	-968
ꮅꮝꮤꮕ	-969
ꮎꮎꮫꮑ	-970
ꮝꭶꮕꮎ	-971
ꮰꮎꮝꮧ	-972
ꮝꮥꮈꮧᏹ	-973
ꮤꮥᏺꮂꮝꭹ	-974
▁(	-975
ꭿꮿ	-976
ꮂꮟ	-977
ꮄꮫ	-978
ꮑꮙ	-979
ꮥꭸ	-980
ꮧꮸ	-981
ꮩꮒ	-982
ꮫꭿ	-983
ꮻꮸ	-984
ꭱꮊꮕ	-985
ꭹꮅᏺ	-986
ꮅꮝꭶ	-987
ꮝꭶꭹ	-988
ꭰꮣꮑꮈ	-989
ꭴᏺꭲᏻ	-990
ꭴꮒꮓꭾ	-991
ꮥꮨᏼꮫ	-992
ꭺꮹꮫꮧᏹ	-993
ꮈꮻꮝꮣꮑꮧᏹ	-994
ꭲꭸ	-995
ꭲꮕ	-996
ꮢꭽ	-997
ꮣꮆ	-998
ꮻꮎ	-999
ꭰꮧꮎ	-1000
ꭼꮹꮫ	-1001
ꭲꭺꭿꮫ	-1002
ꭸᏻꭿᏻ	-1003
ꮒꭼꮎꮫ	-1004
ꭲᏻꮝꭹꮒ	-1005
ꭴꮎꮔꭺꮻ	-1006
ꮅꮝꮩꮧꮝꭼꭹ	-1007
ꭸꮟ	-1008
ꮎꮣ	-1009
ꮧꭼ	-1010
ꮩᏹ	-1011
ꭲꮈꭿ	-1012
ꭴꭹꮸ	-1013
ꭴꮫꮕ	-1014
ꮑꮝꮧ	-1015
ꮧꭸꭶ	-1016
ꮫꮑꭿ	-1017
ꮷꮧᏹ	-1018
ꭰꮒꮿꮻ	-1019
ꭲꮈꭿꮲ	-1020
ꭴᏺꮁꮢ	-1021
ꭴꮎꮫꭶ	-1022
ꭶꮤꮂꮎ	-1023
ꮃꮟꮥꮒ	-1024
ꮒꭶꮺꭽ	-1025
ꮝꭶꮕꮸꭲ	-1026
ꭲᏻꮅꮝꮩꮧ	-1027
ꭰꮿ	-1028
ꭱꮟ	-1029
ꭾꮎ	-1030
ꮎꮓ	-1031
ꭸᏻꭿ	-1032
ꭺꮧᏹ	-1033
ꮤꮒꮩ	-1034
ꮿꮕꮂ	-1035
ꭰꮒꮠꭲ	-1036
ꭶꮪꮂꭲ	-1037
ꭼꮧꮝꭼ	-1038
ꭰꮧꮤꮝꮧ	-1039
ꭴꮎꮫꭶꮕ	-1040
ꮕꮣꭼꮹꮣꮄꮕꮫ	-1041
ꮷꮒꮈꮻꮝꮣꮑꭿ	-1042
ᏺꮟ	-1043
ꮎꮵ	-1044
ꮜꮕ	-1045
ꮥꮸ	-1046
ᏺꮞꭽ	-1047
ꭴꮠꮕ	-1048
ꭶꮼꮒ	-1049
ꮃꮝꮣ	-1050
ꮅꮵꮩ	-1051
ꮫꮑꮅ	-1052
ꭰꮑꮂꭲ	-1053
ꮞꭾꮝꮧ	-1054
ꮵꭹꮅᏺ	-1055
ꮷꮴꮅꭶ	-1056
ꮅꮝꮥꮈꮩꮧ	-1057
ᏹꮸ	-1058
ꮕꮷ	-1059
ꮘꮧ	-1060
ꮥꭲ	-1061
ꮥꮅ	-1062
ꮽꭺ	-1063
ᏹꮝꭹ	-1064
ꭱꮧᏹ	-1065
ꭲꮎꭸ	-1066
ꭹꮃꮙ	-1067
ꮪꮑꮴ	-1068
ꮿꮩꮧ	-1069
ꭾꮅꮝꮧ	-1070
ꮔꮺꮞꮄ	-1071
ꭲᏻꮯꮆꮫ	-1072
ꭰꭶꮩꭵꭿꮝꮧ	-1073
ꭴꮎꮩꮣꮖꮝꭼ	-1074
ᏸꭲ	-1075
ꭼꭽ	-1076
ꮳꮣ	-1077
ꮳꮧ	-1078
ꮵꭶ	-1079
ꭱꮆꮫ	-1080
ꭱꮝꮧ	-1081
ꭴꮒꮑ	-1082
ꭴꮣꮩ	-1083
ꮔꮫꮑ	-1084
ꮕꮜꮧ	-1085
ꮢꮝꮧ	-1086
ꭴꮒᏸꮈ	-1087
ꭿꮝꮩꮧ	-1088
ꮕꭲꮝꮧ	-1089
ꮝꮪꮧᏹ	-1090
ꭰꮝꭺꭿꮷꮘ	-1091
ꮎꮝꮙꮝꭹꮒ	-1092
ꭲꮳꮅꮝꮣꮑꮧ	-1093
ꭴꮑꮃꮕꭿꮝꭹꮒ	-1094
ꮕꮣꭶꮅꮝꮩꮧꮝꭼꭹ	-1095
ᏹꮓ	-1096
ꭰꮕ	-1097
ꭼꮕ	-1098
ꮅꮿ	-1099
ꮥꮀ	-1100
ꮧꭺ	-1101
ꮪꭶ	-1102
ꮪꮼ	-1103
ꮵꮫ	-1104
ꮶꭹ	-1105
ꭰꮗꮵ	-1106
ꭴꮒꮓ	-1107
ꭶꮜꮿ	-1108
ꮎꮻᏹ	-1109
ꮒꮵꭵ	-1110
ꮘꮅꭹ	-1111
ꮘꮣꮓ	-1112
ꮝꮧᏸ	-1113
ꭴꮣꮕꮩ	-1114
ꮄꭿꮠꮧ	-1115
ꮧꮝꮧᏹ	-1116
ꮹꮎꭶꮃ	-1117
ꭰꭶꮤꮂꭲ	-1118
ꭴꮅꮝꮖꮈꮧ	-1119
ꭱꮈ	-1120
ꮵꮋ	-1121
ꭴꮝꮖ	-1122
ꭴꮺꮇ	-1123
ꮎꮔꭺ	-1124
ꮞꮧᏹ	-1125
ꮥꭼꮹ	-1126
ꭴꮒꮳꮦ	-1127
ꮓꭾꮝꭹ	-1128
ꮫꮏꮥꭹ	-1129
ꭴꮎꮩꮄꮀ	-1130
ꭰꮵꮈꮙꮧᏻ	-1131
ꮧꮣꮝꮪꮧᏹ	-1132
ᏹꮅ	-1133
ꭽꮲ	-1134
ꮄꮒ	-1135
ꮟꮫ	-1136
ꮩꭹ	-1137
ꮽᏼ	-1138
ᏹꮧꮵ	-1139
ꭰꮑꮩ	-1140
ꭲꮸꮿ	-1141
ꮇꮸꭹ	-1142
ꮒꭶꮤ	-1143
ꮜꮙꮙ	-1144
ꮞꭺꭹ	-1145
ꮣꮄꭹ	-1146
ꮿꮕꮫ	-1147
ꭼꮤꮕꭿ	-1148
ꮆꭿꮝꮧ	-1149
ꮧꮒᏺꮅ	-1150
ᏹꮵꭶꮤꭽ	-1151
ꭹꮆꮝꭹꮒ	-1152
ꭺꮲꮤꮕꭿ	-1153
ꮻꮎꮝꮫꮎ	-1154
ꭼꮹꮝꮣꮹꮧꮩꭿꮓ	-1155
ꮕꮎ	-1156
ꮞꮈ	-1157
ꮤᏺ	-1158
ꮥꭽ	-1159
ꮥꮆ	-1160
ꮨꮿ	-1161
ꮱꭼ	-1162
ꮴꮵ	-1163
▁."	-1164
ꭰꮒꮩ	-1165
ꭴꭶꮤ	-1166
ꮂꮝꭸ	-1167
ꮞꮄꭲ	-1168
ꮣꮥᏺ	-1169
ꮧꭶꮤ	-1170
ꮧꮝꭺ	-1171
ꮫꮕꭹ	-1172
ꮰꭸꮟ	-1173
ꭲꮳꮣꮕ	-1174
ꭹꮆᏸꮓ	-1175
ꮇꮴꮧᏹ	-1176
ꮎꮝꭹꮙ	-1177
ꮥꭸꮝꮧ	-1178
ꮒꭶꮅꮝꮧꭽ	-1179
ꮎꮅ	-1180
ꮑꮀ	-1181
ꮴꮈ	-1182
ꮵᏼ	-1183
ꮷꭺ	-1184
ᏹꭸꮞ	-1185
ꮓꭾꭽ	-1186
ꮵꭸꮠ	-1187
ꭰꮞꮙꮙ	-1188
ꭴᏸꮈꮧ	-1189
ꭴꮓꮥꮎ	-1190
ꭴꮫꭶꮕ	-1191
ꭺꮹꮫꮧ	-1192
ꮖꮧꮝꭹ	-1193
ꮤꮅꮑꮓ	-1194
ꮦꮈꮃꮧ	-1195
ꮵꭸꮠꭲ	-1196
ꮵꭺꮺꮃ	-1197
ꭴꮒꮳꮨꮓ	-1198
ꭼꮒᏻꮙꮓ	-1199
ꮈꮻꮝꮣꮑꮂ	-1200
ꮔꮅꮝꮤꮕꭹ	-1201
ꮕꮧꭶꮅꮝꮩꮧꮝꭼ	-1202
ꭰꮧ	-1203
ꭴꮈ	-1204
ꭹᏻ	-1205
ꮕꮅ	-1206
ꮡꮆ	-1207
ꮣꮃ	-1208
ꮪꮕ	-1209
ꭰꮣꮕ	-1210
ꭴꮒꭹ	-1211
ꭷꮑꭼ	-1212
ꮃꮻꭹ	-1213
ꮎꮏꮒ	-1214
ꮒꭿꮓ	-1215
ꮖꮄꮧ	-1216
ꮝꭺꮅ	-1217
ꮹꮧꮩ	-1218
ꭰꭶꮨꮟ	-1219
ꭴꮳꮨꮒ	-1220
ꮝꮣꮹꮫ	-1221
ꮝꮥꮈꭿ	-1222
ꮣꮆꮒꭸ	-1223
ꮣꮒꮈꭲ	-1224
ꮧꭼꮹꮒ	-1225
ꭰᏼꮝꭹꮒ	-1226
ꭴꮥꮑꮄꭲ	-1227
ꭽꮻꮒꮧꮲ	-1228
ꮓꭾꮝꭼꭲ	-1229
ꮝꮥꮅꮝꭹ	-1230
ꮧꮎꮣꮕꮯ	-1231
ꮎꮒꮺꮝꭸꭲ	-1232
ꮤꮃꮼꭿꮝꮧ	-1233
ꭴꮏ	-1234
ꭷꮕ	-1235
ꭼꭶ	-1236
ꮉꮧ	-1237
ꮔꮕ	-1238
ꮘꮟ	-1239
ꮣꮰ	-1240
ꮥꮕ	-1241
ꮪꭹ	-1242
ꮵꮵ	-1243
ꮶꮹ	-1244
ᏺꮺꮃ	-1245
ꭰꮒꮑ	-1246
ꭲᏻꮕ	-1247
ꮣꮈꭲ	-1248
ꮤꮕꭲ	-1249
ꮥꮆꮖ	-1250
ꮪꮅꭽ	-1251
ᏻꭺꮫꮎ	-1252
ꭰᏼᏸꮓ	-1253
ꭰꮴꮅꮝ	-1254
ꭴᏸꮈꮫ	-1255
ꮂꮝꭼꮎ	-1256
ꮣꮧꮝꮧ	-1257
ꭴᏺꮁꮢꭿ	-1258
ꭴꮳꮤꮕꭿ	-1259
ꭰꮒꮿꮻꮝꭹ	-1260
ꭼꮹꮝꮣꮹꮫ	-1261
ꮕꮧꭶꮅꮝꮩꮧꮝꭸ	-1262
ᏻꮒ	-1263
ꮢꮒ	-1264
ꮣꮡ	-1265
ꮥꮢ	-1266
ꮵꮒ	-1267
ᏼꮻꮙ	-1268
ꭶꮵꮿ	-1269
ꮒꮖꮨ	-1270
ꮝꮧꭽ	-1271
ꮞꮈꭹ	-1272
ꮞꮣꮒ	-1273
ꮥꭴꮩ	-1274
ꮬꮟꮫ	-1275
ꮯꮒꭼ	-1276
ꭰᏸꮈꭲ	-1277
ꭴꮎꮔꭺ	-1278
ꭴꮼꭿᏻ	-1279
ꮵꮒꭼꮕ	-1280
ꭸᏻꮞꮝꮧ	-1281
ꮒꭶꮅꮝꮣ	-1282
ꮔꮝꮥꮝꮧ	-1283
ꮧꭶꮕꮜꮧ	-1284
ꭰꮅꮝꮣᏼꮧ	-1285
ꮒꮪᏻꭺꮫꮎ	-1286
ᏹᏻ	-1287
ꭵꮒ	-1288
ꭹꮟ	-1289
ꮡꮄ	-1290
ꮳꮵ	-1291
ꮵꮳ	-1292
ꭴꮎꮑ	-1293
ꭴꮑꮇ	-1294
ꮅꮒꭹ	-1295
ꮕꭼꮹ	-1296
ꮕꮫꭹ	-1297
ꮥꭼꭲ	-1298
ꮦꮅꮩ	-1299
ꮶꭲꮑ	-1300
ꮻꭼꮹ	-1301
ᏸꭿꮝꮧ	-1302
ꭲꮈꮝꭹ	-1303
ꭶꮕꭿꮫ	-1304
ꮕꮟꮩꭿ	-1305
ꭲꮵꮝꭶꮿ	-1306
ꮣꮕꮦꮝꭼꭲ	-1307
ꭸꮒ	-1308
ꮕꮧ	-1309
ꮥꭴ	-1310
ꮲꭹ	-1311
ꮲꮘ	-1312
ꮴꭶ	-1313
ꭰꮀꮅ	-1314
ꭰꮔꮼ	-1315
ꭲꮴꮂ	-1316
ꭴꮫꮎ	-1317
ꭶꮑꮈ	-1318
ꭻꮵꮫ	-1319
ꭼꮓꮫ	-1320
ꭼꮹꮎ	-1321
ꮑꮂꮎ	-1322
ꮣꮑꮈ	-1323
ꮤᏺꭿ	-1324
ꮳꮑꭽ	-1325
ꮷꮣꮄ	-1326
ꮷꮣꮟ	-1327
ꮹꮫꭾ	-1328
ꭰꮖꮴꮅ	-1329
ꭴꮇꮸꭹ	-1330
ꭴꮒꭺꮂ	-1331
ꭴꮹꮢꮙ	-1332
ꭶꮑꮈꭲ	-1333
ꮅꮝꮤꮒ	-1334
ꭴꭷꮅꮸꭿ	-1335
ꮕꮹꮣꮄꮓ	-1336
ꭲꮳꮫꮑꮧᏹ	-1337
ꭴꭼꮻᏻꭿꮓ	-1338
ꮷꮕꮟꮣꮝꮧ	-1339
ꮕꭼꮹꮺꮞꮈꭹ	-1340
ꮧꮅꮝꮣᏼꮧᏹ	-1341
ᏸꭹ	-1342
▁-	-1343
▁𐋇	-1344
ꭵꭶ	-1345
ꭵꭿ	-1346
ꭹꮸ	-1347
ꭺꮅ	-1348
ꮅᏹ	-1349
ꮣꮸ	-1350
ꮧꮧ	-1351
ꮨꮓ	-1352
ꮨꮕ	-1353
ꮯꮜ	-1354
ꮷꮹ	-1355
ꮻꭶ	-1356
ꮼꭹ	-1357
▁,]	-1358
ꭰᏼꮓ	-1359
ꭶꮫꭶ	-1360
ꮑꮂꭲ	-1361
ꮙᏸꮓ	-1362
ꮝꮫꮧ	-1363
ꮩꮅꭹ	-1364
ᏸꮃꮧꮩ	-1365
ᏺꮺꮃꮟ	-1366
ꭲꮵꭶꮤ	-1367
ꭴꮄꮕꭾ	-1368
ꭼꮼꭿᏻ	-1369
ꮪꮎꮣꮱ	-1370
ꮫꭶꮕꭹ	-1371
ꮵꮔꮝꮧ	-1372
ꭲꮵꭶꮤꭽ	-1373
ꭴꮩꮄꮀꮢ	-1374
ꭶꮈꮙꮩꮧ	-1375
ꮒꭺꭿꮈꭲ	-1376
ꮝꭶꮕꮸꭿ	-1377
ꮔꮅꮝꮤꮒꮩ	-1378
ꮧꮣꮄꮂꮝꭶ	-1379
ꭲꮳꮣꮩꮅꮝꮧ	-1380
ꮒꭼꮹꮺꮞꮄꭲ	-1381
ꭰꭲ	-1382
ꭵꮖ	-1383
ꭹꭿ	-1384
ꭼꮿ	-1385
ꮉꮟ	-1386
ꮩꮫ	-1387
ꮳꮎ	-1388
ꮳꮑ	-1389
ꮿꮓ	-1390
ꭱꮃꮺ	-1391
ꭲꮃꮿ	-1392
¦	-1393
▁	-1394
ꮝ	-1395
ꮧ	-1396
ꭰ	-1397
ꭹ	-1398
ꭲ	-1399
ꮎ	-1400
ꮒ	-1401
ꭿ	-1402
ꭴ	-1403
ꭶ	-1404
,	-1405
ꮣ	-1406
ꮅ	-1407
ꮕ	-1408
ꭸ	-1409
ꮄ	-1410
ꮑ	-1411
ꮫ	-1412
ꮓ	-1413
ꮵ	-1414
ꮢ	-1415
ꭼ	-1416
ꮈ	-1417
ᏻ	-1418
𐊣	-1419
𐊼	-1420
ꮩ	-1421
ᏹ	-1422
.	-1423
ꭺ	-1424
ꮞ	-1425
ꮹ	-1426
ꮻ	-1427
ꮙ	-1428
;	-1429
ꮃ	-1430
ꮳ	-1431
ꮪ	-1432
ᏼ	-1433
ꮿ	-1434
ꮥ	-1435
ꮤ	-1436
ꮺ	-1437
ꮆ	-1438
ᏸ	-1439
ꮔ	-1440
ꭵ	-1441
ꮷ	-1442
ꭽ	-1443
ꮂ	-1444
ꮟ	-1445
ꮴ	-1446
ꭱ	-1447
ᏺ	-1448
ꮸ	-1449
ꮜ	-1450
ꭾ	-1451
ꮏ	-1452
ꮖ	-1453
ꮨ	-1454
ꮭ	-1455
ꭷ	-1456
ꭳ	-1457
ꮇ	-1458
ꮼ	-1459
ꮯ	-1460
ꮲ	-1461
ꮀ	-1462
ꮁ	-1463
ꮠ	-1464
?	-1465
ꮶ	-1466
-	-1467
ꮘ	-1468
ꮦ	-1469
ꮽ	-1470
ꭻ	-1471
ꮮ	-1472
ꮡ	-1473
ꮰ	-1474
ꮋ	-1475
ꮗ	-1476
ꮉ	-1477
ꮱ	-1478
[	-1479
ꮊ	-1480
]	-1481
ꮛ	-1482
ꮬ	-1483
"	-1484
!	-1485
ꮾ	-1486
ꮌ	-1487
(	-1488
)	-1489
𐋇	-1490
:	-1491
'	-1492
ꮚ	-1493
~	-1494
ꮍ	-1495
\	-1496
