<pad>	0
</s>	0
<unk>	0
▁के	-3.65599
▁है	-3.81748
।	-3.95733
,	-4.02598
▁में	-4.06607
▁और	-4.10193
▁की	-4.2055
▁	-4.29419
ी	-4.3831
▁से	-4.40624
▁को	-4.48637
े	-4.49021
▁का	-4.61592
ों	-4.62231
)	-4.71301
▁(	-4.72233
ा	-4.85388
.	-5.00125
-	-5.01127
▁हैं	-5.02983
▁कि	-5.03524
▁पर	-5.06765
▁एक	-5.12997
▁लिए	-5.18067
▁इस	-5.24237
ने	-5.33953
▁तो	-5.34169
▁जो	-5.35534
▁नहीं	-5.37764
▁भी	-5.40953
न	-5.42848
▁हो	-5.48606
ित	-5.56091
▁किया	-5.59879
▁यह	-5.61382
▁ने	-5.61501
▁कर	-5.62772
▁उस	-5.63838
▁न	-5.65711
ं	-5.70982
क	-5.71186
▁ही	-5.73242
▁वह	-5.76799
▁या	-5.7716
▁करने	-5.8342
ता	-5.87915
▁हम	-5.93953
▁तुम	-5.99861
▁अपने	-6.03115
▁था	-6.03825
र	-6.04949
▁वे	-6.17387
▁गया	-6.19593
▁तथा	-6.20058
à	-6.20151
▁कुछ	-6.26504
स	-6.28786
▁किसी	-6.30195
िक	-6.30692
ना	-6.31574
ल	-6.34781
▁जब	-6.34859
▁साथ	-6.35675
ि	-6.38223
के	-6.38437
▁रूप	-6.38514
म	-6.39704
▁उनक	-6.39717
से	-6.40811
▁कोई	-6.41088
▁द्वारा	-6.45581
▁भारत	-6.46777
▁अ	-6.47273
▁करते	-6.4811
▁लोग	-6.49615
▁लोगों	-6.50221
▁थे	-6.52337
▁जाता	-6.53241
त	-6.54472
▁तक	-6.55015
▁जा	-6.55401
▁उन	-6.57388
ओं	-6.58616
▁फिर	-6.59102
का	-6.59247
▁आ	-6.59541
ो	-6.61718
▁करें	-6.62417
▁दिया	-6.64487
कर	-6.66039
▁कहा	-6.66352
▁करना	-6.66527
▁क्या	-6.67736
ई	-6.67972
▁मैं	-6.68828
/	-6.69152
▁इन	-6.69177
?	-6.70472
ियों	-6.70832
▁उसके	-6.71574
▁हुए	-6.72138
▁अपनी	-6.72477
▁अल्लाह	-6.74702
▁आप	-6.74913
▁जिस	-6.75026
▁ये	-6.75045
▁क	-6.77784
▁दो	-6.79099
▁उन्हें	-6.79255
¤	-6.79824
▁"	-6.81052
ब	-6.81711
व	-6.82171
ट	-6.82574
▁रहा	-6.83628
▁रहे	-6.83976
▁करता	-6.85015
▁सकता	-6.85259
▁ख़ुदा	-6.86752
▁होता	-6.87046
य	-6.87854
▁थी	-6.88552
▁समय	-6.88591
▁कार्य	-6.90847
▁व	-6.91505
ए	-6.92758
▁मेर	-6.93327
;	-6.93456
्	-6.93734
▁अधिक	-6.95828
ह	-6.96818
ते	-6.9768
▁बहुत	-6.98346
द	-6.9876
▁बात	-7.009
%	-7.01494
में	-7.01764
श	-7.02063
ज	-7.02549
▁उन्होंन	-7.02702
▁तरह	-7.03457
ीय	-7.03951
▁हुआ	-7.06887
▁बाद	-7.07414
▁स	-7.08063
ः	-7.08096
ण	-7.08401
▁वाले	-7.0898
▁राष्ट्रपति	-7.10059
प	-7.10214
▁पास	-7.11489
▁गए	-7.13763
▁प्राप्त	-7.13812
▁अन्य	-7.14167
▁होने	-7.14372
ें	-7.15902
▁हमारे	-7.16284
▁सभी	-7.18852
▁काम	-7.19767
▁यदि	-7.20242
▁प्रति	-7.208
▁दिन	-7.21511
▁प्रकार	-7.21581
▁तुम्हारे	-7.22456
▁ओर	-7.22459
▁पहले	-7.23288
ती	-7.23555
▁सकते	-7.23798
▁होगा	-7.24318
्य	-7.24398
की	-7.24447
▁ले	-7.25865
▁कारण	-7.26414
▁ऐसे	-7.26476
या	-7.26506
▁दी	-7.26797
▁दे	-7.27043
▁गई	-7.27245
▁क्षेत्र	-7.27487
▁कम	-7.28311
▁वर्ष	-7.28352
▁उनकी	-7.28828
▁चाहिए	-7.2944
▁नाम	-7.29755
ग	-7.29903
_	-7.30019
▁ब	-7.30402
▁सब	-7.31155
▁सरकार	-7.31173
▁होती	-7.31859
▁अगर	-7.3192
▁करो	-7.34006
▁देश	-7.35834
▁किए	-7.35955
▁ऐसा	-7.36548
ु	-7.37864
▁जाने	-7.38186
▁एव	-7.39771
s	-7.40105
▁रसूल	-7.40246
कार	-7.40275
▁भारतीय	-7.41585
▁दूसर	-7.4359
▁व्यक्ति	-7.4413
▁हर	-7.44576
सी	-7.44652
▁उसक	-7.45929
्स	-7.47417
▁अब	-7.47738
▁विकास	-7.4872
ू	-7.48812
:	-7.493
▁तुम्हे	-7.4947
ड	-7.50044
▁जाती	-7.50083
▁भाग	-7.50189
▁जिन	-7.50519
▁मुझे	-7.51357
▁हुई	-7.52318
▁दोनों	-7.52409
▁प्रदान	-7.52428
▁राज्य	-7.53266
▁प्र	-7.53457
▁जीवन	-7.53937
▁जैसे	-7.55087
ख	-7.55143
▁à	-7.55639
▁पूर्व	-7.55844
▁म	-7.5651
‍	-7.56678
▁बार	-7.57092
▁रही	-7.57287
ंग	-7.5743
▁s	-7.57895
▁बीच	-7.5804
▁ह	-7.58335
नी	-7.58459
▁होते	-7.58733
▁ऐ	-7.58847
पर	-7.58895
▁रब	-7.58969
▁उ	-7.5938
▁उपयोग	-7.59549
▁लेकिन	-7.59949
▁सं	-7.60594
ाई	-7.61171
ज़	-7.61539
फ	-7.61644
ला	-7.61644
रा	-7.61891
▁लिया	-7.62723
▁स्थान	-7.64716
▁अपना	-7.65367
▁बारे	-7.65884
ऐ	-7.668
▁1	-7.66908
▁पैदा	-7.67481
▁वाला	-7.67707
▁बना	-7.68167
हमारी	-7.68775
▁श्री	-7.6892
▁आग	-7.69117
मान	-7.69369
▁कह	-7.70317
कि	-7.70538
▁देने	-7.70706
एं	-7.70851
▁अधिनियम	-7.71087
▁उप	-7.71269
▁'	-7.71473
को	-7.7172
च	-7.71804
।"	-7.72245
ै	-7.72246
▁ऐस	-7.72317
!	-7.72546
▁वि	-7.72928
▁केवल	-7.72975
▁आज	-7.7323
▁ईमान	-7.7352
़	-7.74176
िंग	-7.75897
▁जाएगा	-7.76425
ड़	-7.76763
▁बस	-7.78196
▁करती	-7.78592
वा	-7.78803
्र	-7.79171
2	-7.79641
▁सेवा	-7.80259
¥	-7.80358
▁अथवा	-7.80399
▁प्रयोग	-7.81174
▁हूँ	-7.81181
▁मे	-7.8154
▁योजना	-7.82049
▁जाना	-7.82309
▁जिसमें	-7.8231
▁जाए	-7.82459
▁सा	-7.82592
री	-7.83672
ध	-7.83706
▁क्योंकि	-7.83737
▁ग	-7.84101
▁सहायता	-7.84493
▁इसलिए	-7.84537
▁त	-7.85056
▁बन	-7.85559
▁सबसे	-7.86486
▁उसी	-7.8668
▁आधार	-7.86708
'	-7.87302
िया	-7.88004
▁देख	-7.8809
▁जाते	-7.88291
▁प	-7.88373
▁तब	-7.88666
▁जिसे	-7.88853
▁सकती	-7.88866
▁वही	-7.89323
▁संदेश	-7.89709
▁ताक	-7.89934
▁पता	-7.90136
▁उपलब्ध	-7.90283
▁हमें	-7.90396
▁देता	-7.91114
▁राष्ट्रीय	-7.91974
▁उनसे	-7.92133
▁वाली	-7.92609
▁इसे	-7.93366
▁विचार	-7.93388
▁जिसक	-7.95209
मा	-7.95275
▁बड़ी	-7.96225
▁होना	-7.97333
▁लगा	-7.97734
ां	-7.9792
▁शिक्षा	-7.98271
▁सार	-7.98329
▁संबंध	-7.98364
थ	-7.98747
स्त	-7.99546
▁अनु	-7.99917
▁सूची	-8.00111
▁भ	-8.00181
▁ए	-8.00182
▁सामने	-8.00219
▁मिल	-8.0053
▁धारा	-8.00562
ली	-8.00733
▁विशेष	-8.00834
▁होंगे	-8.01013
▁यहाँ	-8.01133
▁घर	-8.01857
▁कहते	-8.02098
▁शक्ति	-8.02238
अ	-8.0233
i	-8.02454
गत	-8.02519
▁चीज़	-8.02595
>	-8.02978
▁परवरदिगार	-8.02986
पूर्ण	-8.03415
▁सम	-8.03536
▁बल्कि	-8.04049
▁आदि	-8.05056
▁मान	-8.05205
▁भर	-8.05328
▁जी	-8.05387
▁सूचना	-8.06172
▁याद	-8.06264
▁शामिल	-8.07128
▁बाहर	-8.07986
चित	-8.08075
▁ल	-8.08133
▁लिये	-8.08194
िल	-8.08287
▁पूरी	-8.09271
▁अधिकार	-8.0929
▁ई	-8.09315
▁करेगा	-8.09399
▁अच्छा	-8.09422
▁ज	-8.09589
सा	-8.09609
▁उनमें	-8.0968
▁आय	-8.09765
▁स्थिति	-8.10097
...	-8.1014
▁समझ	-8.10249
▁तैयार	-8.1035
▁विभिन्न	-8.10372
▁कभी	-8.1064
▁करके	-8.11369
▁सी	-8.11472
e	-8.11984
▁हेतु	-8.12564
▁मुख्य	-8.12583
▁बड़ा	-8.12676
गी	-8.1272
▁लगे	-8.13097
जी	-8.13416
▁हूं	-8.13708
▁पूरा	-8.13792
▁विषय	-8.13808
यों	-8.14248
m	-8.14353
▁किताब	-8.14881
▁निर्माण	-8.14923
बा	-8.15561
एँ	-8.15723
▁भवन	-8.15978
तः	-8.15983
▁चाहते	-8.15989
▁होगी	-8.164
▁फ	-8.16453
▁विश्व	-8.16688
▁लो	-8.1682
▁3	-8.16891
▁उसमें	-8.17103
▁दौरान	-8.17137
▁चाहता	-8.1719
▁लाभ	-8.17219
▁मु	-8.17364
▁लोक	-8.17993
▁दिल	-8.18085
▁अर्थ	-8.1818
▁जहां	-8.18309
▁द	-8.18958
1	-8.19159
▁करे	-8.1924
▁सभा	-8.19428
▁तुम्हार	-8.19573
▁जल	-8.19736
▁कु	-8.19756
▁चल	-8.20488
▁उनको	-8.20529
▁निश्चय	-8.20796
फ़	-8.20966
ियाँ	-8.21233
ाल	-8.21308
ंड	-8.21379
▁फ़ाइल	-8.21898
▁प्रक्रिया	-8.2199
▁प्रत्ये	-8.22096
"	-8.22154
▁पा	-8.22563
्म	-8.22834
▁देखा	-8.23031
▁उच्च	-8.23149
▁गयी	-8.2316
▁अनेक	-8.23171
▁अधीन	-8.23176
4	-8.23408
▁2	-8.2385
▁सामान्य	-8.24031
▁तरफ	-8.24378
▁प्रतिशत	-8.24435
▁स्पष्ट	-8.24471
▁बड़े	-8.24536
▁मन	-8.24537
ंत	-8.251
▁गये	-8.25716
▁मदद	-8.25751
▁रंग	-8.25753
0	-8.25839
▁सीमा	-8.26045
ये	-8.26385
▁आम	-8.26707
▁यही	-8.26836
▁महत्वपूर्ण	-8.26995
▁अवसर	-8.272
▁निकल	-8.2735
▁नई	-8.27435
▁क्षेत्रों	-8.28354
▁बनाया	-8.28405
▁आपको	-8.28667
ृत	-8.29022
▁दर	-8.29538
▁स्वीकार	-8.29573
▁कार्यक्रम	-8.29591
▁समूह	-8.29599
▁स्तर	-8.29724
▁परिवर्तन	-8.29923
▁सु	-8.30015
▁रखा	-8.30175
▁अंतर	-8.30177
ऊ	-8.30379
▁इ	-8.30428
C	-8.3063
▁शुरू	-8.30904
▁रह	-8.30911
▁आदेश	-8.30951
▁संख्या	-8.30986
▁मै	-8.31151
▁अभी	-8.31163
न्त	-8.31221
▁दिखा	-8.31386
▁देना	-8.31539
ति	-8.31578
▁जमा	-8.31664
▁जान	-8.31746
▁सके	-8.32098
p	-8.32422
▁जारी	-8.32503
▁हाथ	-8.32699
▁करेंगे	-8.32854
▁बदल	-8.33256
▁माध्यम	-8.33635
▁प्रमुख	-8.33637
▁अनुसार	-8.33641
और	-8.33642
दार	-8.33658
▁प्रौद्योगिकी	-8.33817
भ	-8.33833
▁अलग	-8.34096
▁संबंधित	-8.34178
▁बढ़ा	-8.3427
▁विश्वास	-8.34289
ौ	-8.34785
3	-8.35067
▁‘	-8.35138
▁जनता	-8.35159
▁नीचे	-8.3519
पी	-8.3524
8	-8.35657
आ	-8.35689
धरती	-8.35812
ार	-8.35917
▁कृषि	-8.36422
¤3⁄4	-8.36422
▁ऊपर	-8.36423
▁सुरक्षा	-8.36433
▁मौजूद	-8.36452
वी	-8.36474
▁पानी	-8.36491
िस	-8.36589
▁अतः	-8.36614
▁दूर	-8.36635
क्ष	-8.36846
ले	-8.36919
g	-8.37065
ियां	-8.37126
▁ला	-8.37145
▁दें	-8.37399
न्तु	-8.37438
▁नया	-8.37769
’	-8.37802
▁काफी	-8.38062
▁सर	-8.3844
9	-8.38487
▁मर	-8.3872
ओ	-8.38884
▁चार	-8.39054
वि	-8.39108
▁प्रस्तुत	-8.3933
▁ज्ञान	-8.39495
▁बनाने	-8.4031
मगर	-8.40739
▁अभि	-8.41028
▁बैंक	-8.41244
▁पहल	-8.41731
▁आवश्यकता	-8.41801
▁पी	-8.41934
▁स्वयं	-8.4226
▁प्रयास	-8.42263
दा	-8.42333
▁ठीक	-8.42463
▁दुनिया	-8.42693
▁हों	-8.43164
▁भाषा	-8.43247
वर	-8.4332
▁भेज	-8.43323
वार	-8.4341
रण	-8.43454
▁चला	-8.43558
▁खुदा	-8.43694
▁सामाजिक	-8.43811
▁तीन	-8.43827
इस	-8.43852
▁सिवा	-8.44054
▁समान	-8.44146
▁छोड़	-8.4447
▁मामले	-8.44567
▁पद	-8.45086
▁राज	-8.45334
▁पश्चिम	-8.4548
▁कर्म	-8.46018
बी	-8.46388
▁आए	-8.46621
▁च	-8.46625
▁समस्या	-8.46913
▁जिन्हें	-8.46933
▁लेकर	-8.47319
▁जैसा	-8.47368
ष	-8.47908
▁इतन	-8.47989
▁व्यापार	-8.48468
▁उद्योग	-8.48471
▁“	-8.48479
▁ध्या	-8.48488
▁अंत	-8.48858
▁धर्म	-8.4886
▁माल	-8.48928
▁र	-8.49065
▁उठा	-8.49259
▁इसी	-8.49957
▁ज्यादा	-8.50057
▁फ़ोल्डर	-8.50079
▁न्यायालय	-8.50083
▁ऋण	-8.50098
▁कानून	-8.50138
▁विंडो	-8.50144
▁अच्छे	-8.50182
▁जानते	-8.50197
▁पीछे	-8.50303
▁रहते	-8.5051
▁खंड	-8.50544
▁काल	-8.50586
तर	-8.50611
▁ढ	-8.50878
▁होकर	-8.51097
▁ख	-8.51439
▁केन्द्र	-8.51466
▁मूल	-8.51631
▁नि	-8.51667
▁तुम्हारी	-8.51802
▁प्रभाव	-8.51879
ॉ	-8.5213
▁वर्त	-8.52498
▁लग	-8.52607
▁उत्तर	-8.52917
टी	-8.53097
▁आया	-8.53186
ीकरण	-8.53298
▁लाए	-8.53302
▁क्षमता	-8.53386
ष्ट	-8.53432
▁बराबर	-8.53444
▁ज़मीन	-8.53469
शन	-8.53636
▁देते	-8.53723
▁आपक	-8.53928
▁19	-8.53934
▁आकार	-8.53937
▁5	-8.53994
इ	-8.54004
▁आई	-8.54023
▁किस	-8.54177
▁पूर्ण	-8.54335
दान	-8.54888
▁प्रेम	-8.55089
▁पिछल	-8.55117
▁अवधि	-8.55143
▁जानकारी	-8.55203
▁खोज	-8.55634
▁पार	-8.56045
▁अव	-8.56132
▁जन	-8.5623
▁ना	-8.56577
▁निशान	-8.56609
ग्र	-8.56638
▁मार्ग	-8.56643
▁लगभग	-8.56804
▁आकाश	-8.56805
प्र	-8.56816
हर	-8.56839
▁हुक्म	-8.56846
जा	-8.56963
▁&	-8.57035
▁अधिकारी	-8.57101
ँ	-8.57172
▁अत्य	-8.57188
▁नीति	-8.57241
▁विवरण	-8.57267
▁वहां	-8.57431
▁नही	-8.57469
▁ली	-8.57983
ान	-8.57991
स्थ	-8.58019
ात	-8.58104
▁लेने	-8.58493
	-8.58559
▁रखते	-8.58778
▁आर्थ	-8.58813
▁क़	-8.59063
▁आवश्यक	-8.59132
▁मध्य	-8.59167
▁चाहे	-8.59442
a	-8.59509
▁आने	-8.5996
▁संसद	-8.60345
▁सहयोग	-8.60347
▁सिर्फ	-8.60412
▁प्रदेश	-8.60509
कारी	-8.60739
▁स्थाप	-8.60898
ठ	-8.61005
भी	-8.61072
▁श	-8.6111
▁उद्देश्य	-8.61136
▁शब्द	-8.61221
▁राष्ट्र	-8.61384
▁ओ	-8.61527
पुर	-8.61903
▁मानव	-8.61998
▁परिणाम	-8.62163
▁युद्ध	-8.62163
▁कौन	-8.62178
▁वस्तु	-8.6224
6	-8.62257
जो	-8.62297
▁चुके	-8.62348
▁बिना	-8.62349
▁साल	-8.62503
5	-8.62817
▁वालों	-8.62903
▁विश्वविद्यालय	-8.62985
t	-8.63272
▁सही	-8.6338
▁गुण	-8.63657
▁परि	-8.63707
स्	-8.63888
▁बंगाल	-8.64015
▁वास्ते	-8.64022
▁जगह	-8.64041
▁प्रणाली	-8.64132
▁योग	-8.64191
▁विशिष्ट	-8.6427
डी	-8.64286
▁आयत	-8.6455
▁बे	-8.6485
▁परन्तु	-8.6485
पन	-8.65019
▁बैठक	-8.65143
▁कुल	-8.65317
▁रखने	-8.65439
▁मा	-8.65616
▁बढ़	-8.65638
▁एस	-8.65638
र्इ	-8.6564
▁निम्न	-8.65879
▁अतिरिक्त	-8.65902
▁दक्षिण	-8.65942
▁बेशक	-8.65942
▁स्वतंत्रता	-8.6599
▁सिंह	-8.66073
▁जाओ	-8.66075
▁:	-8.66503
7	-8.66868
▁राह	-8.66894
▁a	-8.6701
▁संस्थान	-8.67143
▁वर्ग	-8.67198
A	-8.67324
▁स्व	-8.67336
in	-8.67459
्ट	-8.67465
▁लागू	-8.67824
िश	-8.6793
▁चुका	-8.68034
▁क्यों	-8.68073
▁पत्र	-8.68724
▁मार	-8.68768
स्ट	-8.68773
▁हा	-8.68963
▁सह	-8.69143
▁एन	-8.69203
उ	-8.69342
▁मनुष्य	-8.69785
▁लक्ष्य	-8.69785
▁अच्छी	-8.69786
▁विदेश	-8.6981
▁साहित्य	-8.69882
हमेशा	-8.69923
▁अप	-8.69928
यां	-8.69978
▁निवेश	-8.7013
▁हाल	-8.70385
▁कहने	-8.70525
▁सदस्य	-8.70616
▁तू	-8.70648
▁शहर	-8.70821
▁अन	-8.71054
▁पढ़	-8.71121
▁उसको	-8.7122
▁बल	-8.71544
क़	-8.71741
▁बच्चे	-8.71785
¤	-8.71785
▁रिपोर्ट	-8.71786
▁दिल्ली	-8.71789
▁बाजार	-8.71791
▁पहुँच	-8.71815
▁नियंत्रण	-8.71819
▁राम	-8.71838
▁कंपनी	-8.71953
▁प्रबंधन	-8.71967
▁रहने	-8.71987
▁क्रिया	-8.72111
▁अज़ाब	-8.72138
▁जानता	-8.7222
u	-8.72292
▁डाल	-8.7277
▁सोच	-8.72786
त्र	-8.72869
▁फ़	-8.73032
▁खा	-8.73186
▁महिला	-8.73328
▁एक्स	-8.73483
▁देशों	-8.73657
▁मत	-8.73689
▁अनुसंधान	-8.73826
▁मंत्रालय	-8.73827
▁यातना	-8.73832
▁खेल	-8.73849
▁दिए	-8.73866
▁निस्संदेह	-8.7387
▁भय	-8.73873
▁परिवार	-8.73896
▁निर्णय	-8.73904
▁लाख	-8.73904
▁देगा	-8.73915
▁रात	-8.73929
▁कहीं	-8.74085
ऋ	-8.7434
झ	-8.74374
T	-8.74426
▁दृष्टि	-8.74426
हमारा	-8.74477
▁न्याय	-8.74841
गे	-8.74844
नि	-8.7494
▁आर	-8.75253
▁10	-8.75554
▁बह	-8.75761
▁<	-8.75779
▁जरूरत	-8.75873
▁गांधी	-8.75877
▁विकल्प	-8.75909
▁अंतर्गत	-8.75916
▁ता	-8.75947
▁प्रारंभ	-8.75987
मी	-8.76056
गा	-8.76077
▁व्यवस्था	-8.76102
▁लौट	-8.76133
▁संघ	-8.7618
▁मूल्य	-8.76214
▁तौर	-8.76362
▁भेजा	-8.7701
▁पेश	-8.77235
▁रू	-8.77635
िका	-8.77874
िन	-8.77992
▁पहचान	-8.78037
¤°	-8.78044
▁संयुक्त	-8.7808
▁जिनक	-8.78081
ाव	-8.78172
▁वक्त	-8.78291
▁सत्य	-8.783
▁वहाँ	-8.78359
▁बा	-8.78684
र्व	-8.78924
▁महा	-8.78999
पा	-8.79068
▁आधारित	-8.79118
वान	-8.79395
▁रोक	-8.79516
▁यू	-8.79669
ियन	-8.79977
▁विधि	-8.80048
▁शरीर	-8.80211
▁निश्चित	-8.80211
▁जांच	-8.80213
▁परंतु	-8.80214
▁फाइल	-8.80218
▁संपर्क	-8.80258
▁जाएगी	-8.80291
▁देखते	-8.8045
▁उत्पादन	-8.80644
l	-8.80669
▁डर	-8.8078
ाना	-8.81157
▁दल	-8.81173
तम	-8.81418
मत	-8.81959
d	-8.8224
ात्मक	-8.82356
▁name	-8.82433
▁बेहतर	-8.82433
▁यक़ीन	-8.82433
▁ग्रामीण	-8.82434
▁वापस	-8.82434
▁प्रस्ताव	-8.82442
▁सक्रिय	-8.82481
▁मूसा	-8.82544
▁सुधार	-8.82544
▁राशि	-8.82578
▁यात्रा	-8.82578
▁कितन	-8.82604
▁स्थापना	-8.82664
▁समिति	-8.82756
▁रखता	-8.82807
▁रख	-8.8289
▁लेते	-8.82894
न्	-8.82932
▁डाक	-8.82933
▁4	-8.83117
▁P	-8.83388
त्व	-8.83612
▁घ	-8.83814
्व	-8.83818
▁प्रकाश	-8.83942
▁निकाल	-8.84323
▁तेज	-8.84403
▁स्वास्थ्य	-8.84755
▁पुरुष	-8.84915
छ	-8.85036
▁सहित	-8.8516
▁मो	-8.85188
त्	-8.85225
वाह	-8.85251
क्स	-8.85477
▁केंद्र	-8.85515
एस	-8.8552
धारा	-8.85626
▁रोग	-8.85953
S	-8.86094
▁पड़े	-8.86273
▁समाज	-8.86653
यर	-8.86696
▁पहुंच	-8.86726
▁6	-8.86767
ाँ	-8.86875
▁छ	-8.86908
ण्ड	-8.86961
▁छोटे	-8.87031
▁कृपया	-8.87031
▁बच्चों	-8.87032
ाब	-8.87033
▁उत्पन्न	-8.87033
▁प्रधानमंत्री	-8.8705
▁मंदिर	-8.87082
टा	-8.87084
▁हिस्सा	-8.87159
▁पाया	-8.87201
▁करा	-8.87398
▁k	-8.87506
रो	-8.88059
▁8	-8.88226
बल	-8.88286
▁अनुभव	-8.88354
▁हित	-8.88484
दी	-8.88526
▁गिर	-8.88874
▁सफल	-8.88986
रे	-8.89219
▁समाप्त	-8.89241
पूर्वक	-8.8926
▁वृद्धि	-8.89283
▁मृत्यु	-8.89412
▁दिशा	-8.89416
▁अलावा	-8.89421
▁बनाए	-8.89429
▁जन्म	-8.89441
▁वित्तीय	-8.89471
▁पुरान	-8.89495
▁शुल्क	-8.89498
▁जहाँ	-8.89536
▁पाक	-8.89565
?"	-8.89656
▁सो	-8.89674
▁स्थानीय	-8.89733
ly	-8.8992
द्ध	-8.89971
▁आपस	-8.90027
▁लगता	-8.90028
▁S	-8.90312
ूर	-8.90339
▁मिला	-8.9077
▁जिन्ह	-8.90827
वीं	-8.90874
▁अस	-8.91027
▁अल	-8.9106
▁माना	-8.91082
▁_	-8.91389
▁बता	-8.91557
▁वास्तव	-8.91665
निर्दिष्ट	-8.91807
▁अंग्रेज	-8.91852
▁आरंभ	-8.91856
▁संकेत	-8.9186
▁आवेदन	-8.91877
▁तहत	-8.91917
▁गति	-8.91988
▁क़ौम	-8.92007
▁रुप	-8.92038
▁आसमान	-8.92086
▁देखने	-8.92093
▁करोड़	-8.92292
▁प्रण	-8.92295
▁स्	-8.92416
▁विज्ञान	-8.92477
r	-8.92651
घ	-8.92812
▁भू	-8.93025
हत	-8.9304
क्या	-8.93072
▁विभाग	-8.93321
▁उत्पाद	-8.9342
▁खोल	-8.93547
▁गु	-8.93622
म्ब	-8.93898
o	-8.94035
▁परियोजना	-8.9416
▁C	-8.94176
▁त्रुटि	-8.94261
▁पृष्ठ	-8.9435
optional	-8.94351
¤¿	-8.94352
▁प्रवेश	-8.94352
▁भूमि	-8.94356
▁इतिहास	-8.94368
▁पुनः	-8.94368
▁धन	-8.94389
ड़ी	-8.94441
▁पक्ष	-8.94501
▁चित्र	-8.94514
▁सर्वर	-8.94514
▁भाई	-8.9454
▁गलत	-8.94632
▁अपेक्षा	-8.94637
▁जाएँ	-8.94703
▁सम्	-8.94711
▁गैर	-8.94722
जन	-8.95035
न्द	-8.95327
दूसर	-8.9554
नाथ	-8.95621
▁नियम	-8.95748
मे	-8.95756
युक्त	-8.95811
▁रहो	-8.96119
▁फल	-8.96311
हा	-8.96357
मन	-8.96617
▁दा	-8.96741
▁बी	-8.96793
Name	-8.96916
▁संविधान	-8.96916
▁सम्मेलन	-8.96916
▁सहायक	-8.9692
▁दिनांक	-8.96928
▁प्रमाणपत्र	-8.96933
▁अवस्था	-8.96936
▁रुपये	-8.96944
▁संस्था	-8.96945
▁मुँह	-8.96971
▁लागत	-8.96978
▁न्यू	-8.97113
▁मांग	-8.97208
्द	-8.97229
▁अमेरिका	-8.97252
▁ट	-8.97268
▁”	-8.97585
▁लिखा	-8.97937
एक	-8.97995
▁जाति	-8.97999
ion	-8.98046
तौर	-8.98149
”	-8.98158
▁स्थित	-8.98174
्श	-8.9833
▁प्रश्न	-8.98496
▁आस	-8.98509
▁कला	-8.98652
टर	-8.99176
▁#44;	-8.99547
▁खुश	-8.99547
▁प्रगति	-8.99547
▁मुखर्जी	-8.99548
▁छवि	-8.99555
▁विस्तार	-8.99566
▁प्रकट	-8.99569
▁वैज्ञानिक	-8.99604
▁डॉ	-8.99644
▁साफ	-8.9966
▁भूमिका	-8.99698
▁जिला	-8.99726
▁बोर्ड	-8.99728
▁निजी	-8.99731
▁चुनें	-8.99794
▁रचना	-8.99857
▁मात्रा	-9.0001
वे	-9.00018
▁शासन	-9.0012
ोर	-9.0014
▁''	-9.00192
▁भीतर	-9.00301
▁लें	-9.00384
०	-9.00607
▁वो	-9.00723
ाया	-9.00962
र्	-9.01111
▁पाठ	-9.01456
▁कल	-9.0147
▁M	-9.01941
▁उपस्थित	-9.02004
ंस	-9.02021
▁हे	-9.02199
▁@	-9.0225
¤	-9.0225
▁इस्तेम	-9.02255
▁मालूम	-9.02256
▁पुलिस	-9.02256
▁अंतिम	-9.02268
▁हस्ताक्षर	-9.02271
▁प्रशिक्षण	-9.02287
▁संगीत	-9.02309
▁संभावना	-9.02319
▁(1)	-9.02327
▁सामग्री	-9.02385
लाल	-9.02443
▁आशा	-9.02473
▁h	-9.02588
c	-9.02944
▁हवा	-9.03027
धिक	-9.03051
▁महान	-9.03064
n	-9.03295
▁सदस्यों	-9.03629
ख़ुदा	-9.03654
राष्ट्रीय	-9.03655
ड़ा	-9.03728
▁18	-9.03951
ंद	-9.03976
▁आत्म	-9.04
▁25	-9.04241
▁बच	-9.04279
▁%	-9.04292
दर	-9.04661
ॅ	-9.05028
▁ऊर्जा	-9.05028
▁दिखाएँ	-9.05091
स्थायी	-9.05098
▁थीं	-9.05107
▁स्कूल	-9.05131
चल	-9.05164
▁व्यवहार	-9.05167
म्	-9.05198
▁रखना	-9.05255
▁व्यक्तियों	-9.05302
▁य	-9.05315
▁कैसे	-9.05814
पत्र	-9.0591
बार	-9.0597
ुल	-9.06003
▁मद	-9.06606
▁भार	-9.06745
E	-9.06759
▁संगठन	-9.06947
▁निर्यात	-9.07316
नीय	-9.07434
▁फेर	-9.07457
ल्ल	-9.07479
▁कठिन	-9.07566
▁व्यक्त	-9.07576
▁घटना	-9.07817
एम	-9.07844
ड़े	-9.07879
▁चिकित्सा	-9.07885
▁भविष्य	-9.07885
▁भुगतान	-9.07885
▁नागरिक	-9.07885
▁शायद	-9.07885
▁प्रथम	-9.07885
▁विजय	-9.07885
▁समाधान	-9.07887
bab	-9.07919
▁शख	-9.07961
▁समर्थन	-9.08098
▁लाल	-9.08179
▁बुरा	-9.08226
▁पैर	-9.08278
ुक	-9.08311
ही	-9.08345
▁7	-9.08367
▁दिनों	-9.08529
ेट	-9.08637
सं	-9.08703
▁आयोज	-9.08715
▁रो	-9.08774
▁हटा	-9.08964
▁पहुँचा	-9.08968
भाव	-9.09314
▁सम्बन्ध	-9.09666
▁राज्यों	-9.09697
▁सरकारी	-9.09713
जह	-9.09724
▁अगल	-9.09837
▁9	-9.0984
▁स्रोत	-9.0984
ख़	-9.10303
▁बने	-9.10366
ity	-9.10464
▁उदाहरण	-9.10471
▁जाएँगे	-9.10486
▁सुविधा	-9.10636
र्स	-9.10794
▁शताब्द	-9.10826
▁अवश्य	-9.10826
▁आदमी	-9.10827
¥	-9.10833
▁आधुनिक	-9.10836
▁पुनर्	-9.10877
▁आसान	-9.10879
▁गवाह	-9.10879
च्छ	-9.10892
▁प्राकृत	-9.10899
▁जवाब	-9.10973
▁खरीद	-9.1098
▁भावना	-9.11002
▁पसंद	-9.11022
क्	-9.11035
▁विचारों	-9.11076
▁चयनित	-9.11113
▁भिन्न	-9.11121
आई	-9.11123
▁खाते	-9.11284
▁रु	-9.11352
00	-9.11623
▁आयु	-9.11649
▁जैस	-9.11935
▁12	-9.12106
▁झ	-9.12212
▁मेल	-9.12229
▁जे	-9.12256
ढ़	-9.12738
▁अग्र	-9.13015
▁सीख	-9.13181
र्ट	-9.13231
था	-9.13444
ज़ा	-9.1346
):	-9.13659
डा	-9.13729
▁जीव	-9.13731
▁ज़रूर	-9.13779
▁pro	-9.13856
▁गुणवत्ता	-9.13856
▁वेबसाइट	-9.13856
▁समारोह	-9.13856
▁̧	-9.13856
▁पूरे	-9.13871
▁पदार्थ	-9.13871
▁गुरु	-9.13881
▁बयान	-9.13903
शील	-9.14113
वादी	-9.14131
▁प्रभावित	-9.14586
tt	-9.14738
▁सुना	-9.14847
हिर	-9.1495
िम	-9.14956
ीन	-9.15031
तु	-9.15369
▁बंद	-9.15392
▁मुक्त	-9.1542
▁इनका	-9.15568
कों	-9.15641
ेंगे	-9.15647
लिखित	-9.15652
▁translat	-9.159
▁not	-9.15925
▁पुस्तक	-9.15931
▁कमी	-9.15991
हार	-9.16167
▁आपने	-9.16222
▁तेर	-9.16528
▁समझा	-9.16792
▁̈	-9.16981
▁+	-9.16981
▁need	-9.16981
▁नेटवर्क	-9.16981
▁पर्यावरण	-9.16981
▁मजबूत	-9.16981
://	-9.16981
▁युवा	-9.16982
▁doe	-9.16982
▁सुनिश्च	-9.16983
▁अध्ययन	-9.16985
▁ज़ालिम	-9.16988
▁विकस	-9.16989
▁गुनाह	-9.17043
▁अधि	-9.17077
▁निर्धारण	-9.17094
▁खुद	-9.17177
▁प्रशासन	-9.17185
▁वास्तविक	-9.17289
▁चुकी	-9.17298
हम	-9.17319
ास	-9.17333
▁पैग़म्बर	-9.17582
▁बन्द	-9.1761
▁बाल	-9.17662
▁बातें	-9.17702
▁चलता	-9.17723
▁मिलता	-9.17892
▁संबंधी	-9.17955
▁रहता	-9.18085
▁तुमको	-9.18085
▁लड़	-9.18122
b	-9.18304
वरण	-9.18385
रूप	-9.18584
▁किये	-9.18707
D	-9.18793
▁जिसकी	-9.18837
अपने	-9.18981
ल्	-9.19047
▁निर्धारित	-9.19085
P	-9.19176
▁लंब	-9.19412
पास	-9.19505
▁ऑफ	-9.19622
ेगा	-9.19672
वाद	-9.19681
▁बाज़	-9.19729
▁सौ	-9.19824
▁गा	-9.19862
ाह	-9.20008
▁झूठ	-9.20125
मु	-9.20138
▁अनुमति	-9.20201
▁कांग्रेस	-9.20207
▁शेष	-9.20208
▁उल्लेख	-9.20208
▁व्यापक	-9.2021
▁डिस्क	-9.20214
▁युग	-9.20216
▁अधिकांश	-9.20231
▁रास्त	-9.20248
▁तेल	-9.20272
▁संरक्षण	-9.20272
▁तत्व	-9.20284
▁नंबर	-9.20391
▁रखो	-9.204
▁अरब	-9.20405
▁इं	-9.20471
▁दिवस	-9.20553
▁सेट	-9.20553
▁सिर	-9.20564
aà	-9.20587
▁हाँ	-9.20634
▁मि	-9.20675
▁मंत्री	-9.20729
▁नदी	-9.20731
▁प्रकाशित	-9.20775
▁हक़	-9.20775
▁सफलता	-9.20853
▁कहो	-9.20862
▁सात	-9.20954
ची	-9.20995
▁सरल	-9.21031
▁व्य	-9.21039
▁क्रम	-9.21063
▁मिलने	-9.21148
▁करनेवाला	-9.21185
▁गण	-9.2136
▁ड	-9.21383
▁सका	-9.2159
्कार	-9.21704
▁d	-9.21796
▁अंक	-9.21854
▁सुन	-9.22273
धर	-9.22353
▁चले	-9.22563
वर्त	-9.22785
▁बि	-9.22963
▁लेख	-9.22984
बर	-9.23258
▁पश्चात	-9.23444
▁जाय	-9.23466
▁लड़क	-9.23485
▁सार्वजनिक	-9.2354
▁पहाड़	-9.23541
क़यामत	-9.23541
▁चाहिये	-9.23542
▁किंतु	-9.23544
▁अत्याचार	-9.23547
▁अध्यक्ष	-9.23549
▁सख्त	-9.23555
▁नियुक्त	-9.23568
▁जाँच	-9.23575
▁आतंकवाद	-9.23583
▁शुक्र	-9.23644
▁क़सम	-9.23647
▁बाप	-9.23673
▁प्रतीक	-9.23675
▁बहु	-9.23721
▁चर्चा	-9.23744
रक्षा	-9.23934
▁ख़बर	-9.24004
▁देती	-9.2407
▁खाता	-9.24264
▁गो	-9.24328
मेल	-9.24473
▁मिली	-9.24494
्ल	-9.24557
▁खास	-9.24584
▁पि	-9.24657
▁बदले	-9.24749
▁वा	-9.24787
▁अगले	-9.24857
वर्ष	-9.24999
▁ज़	-9.25013
रिया	-9.25299
▁बदला	-9.25444
L	-9.25549
▁बनी	-9.25609
▁निकट	-9.25925
ीकृत	-9.25943
▁उपकरण	-9.25977
राम	-9.26174
▁प्रभावी	-9.2618
▁पो	-9.26326
▁मना	-9.26334
▁महत्व	-9.26461
रत	-9.26657
यें	-9.2673
▁सन्	-9.26772
▁20	-9.26814
f	-9.26968
▁ईश्वर	-9.26989
▁वीडियो	-9.26989
▁संदर्भ	-9.26989
▁शेयर	-9.26994
▁विरुद्ध	-9.27002
▁संशोधन	-9.27007
▁समुदाय	-9.27012
▁प्रमाण	-9.27017
▁रक्त	-9.27018
▁बाग़	-9.27021
▁संसार	-9.27024
▁विवाह	-9.27055
▁निर्मित	-9.27062
▁खाद्य	-9.27075
▁निर्देश	-9.27095
▁विस्त	-9.27129
▁प्रकृति	-9.27133
यन	-9.27408
▁लेखक	-9.276
y	-9.27609
▁आयात	-9.27752
▁असफल	-9.27796
▁आख़िर	-9.27857
▁डि	-9.27882
▁लेखा	-9.27985
भूत	-9.28025
▁R	-9.28115
काल	-9.28262
▁तुमपर	-9.28365
▁डाला	-9.28396
▁दूसरा	-9.2847
▁पालन	-9.28473
▁कविता	-9.28594
▁11	-9.28862
▁D	-9.28937
▁शब्दों	-9.28939
▁घाट	-9.29207
उस	-9.29456
▁डे	-9.29458
▁A	-9.29518
पि	-9.29547
▁ज़ा	-9.2955
दाय	-9.29963
क्त	-9.30112
▁सम्मान	-9.30224
ोन	-9.30367
कल	-9.30495
▁बावजूद	-9.3056
▁लघु	-9.3056
▁कोशिश	-9.30562
▁खर्च	-9.30569
▁वायद	-9.30577
▁दशा	-9.30582
▁पीठ	-9.30605
▁अभिलेख	-9.30605
▁ऑ	-9.30628
▁कदम	-9.30655
ंट	-9.307
▁करनेवाल	-9.30725
▁बुद्धि	-9.30785
उन	-9.30852
▁एल	-9.30856
▁छोड़कर	-9.30871
▁जितन	-9.30894
▁हिन्दी	-9.30905
▁सत्ता	-9.30908
बद्ध	-9.30909
करण	-9.30926
▁मुद्रा	-9.30933
▁वर्णन	-9.30959
▁मालिक	-9.30986
▁लाने	-9.31007
▁टी	-9.31038
▁दृश्य	-9.31084
▁तरीके	-9.31181
इन	-9.31194
▁संभव	-9.31275
▁मार्गदर्श	-9.31288
▁राजा	-9.31294
▁काव्य	-9.31298
▁विशेषता	-9.31306
▁नगर	-9.31359
यु	-9.31367
▁बर्	-9.31381
▁बन्दों	-9.31647
▁पथ	-9.31826
▁देखें	-9.31851
▁आत्मा	-9.31955
▁बुला	-9.31991
वासी	-9.31997
▁रखे	-9.3203
वास	-9.32194
▁हालत	-9.32312
ष्	-9.32342
▁ख़	-9.3278
O	-9.32812
▁मित्र	-9.32971
▁सद	-9.33007
▁बैंकों	-9.33038
▁समुद्र	-9.33049
तुम	-9.33172
▁ध	-9.33291
ूद	-9.33359
▁माँ	-9.33873
धा	-9.3421
तिहास	-9.34239
▁मुसलमान	-9.34264
▁वार्षिक	-9.34264
▁वैश्विक	-9.34264
▁औद्योगिक	-9.34264
▁शिकायत	-9.34264
▁सक्षम	-9.34264
▁पुरस्कार	-9.34265
▁परीक्षा	-9.34268
मिट्टी	-9.34271
▁रकम	-9.34274
▁उतार	-9.34293
▁प्रयुक्त	-9.34344
▁छोटा	-9.34345
▁भली	-9.34395
▁वेतन	-9.34409
nic	-9.34479
▁रहेंगे	-9.34487
▁वित्त	-9.34498
▁स्थल	-9.34514
▁राय	-9.34785
▁उत्	-9.34863
ताओं	-9.35075
▁जोड़	-9.35182
देश	-9.35187
▁हद	-9.35285
▁अता	-9.35458
▁आते	-9.35756
▁स्वा	-9.35919
▁पाने	-9.35983
▁अंग	-9.36193
▁बिल	-9.36362
ेंट	-9.3637
▁रखी	-9.36383
तो	-9.36592
पात	-9.3662
ेल	-9.36712
▁देव	-9.36896
▁बोल	-9.36981
▁सेना	-9.3708
▁सू	-9.37128
▁पे	-9.37417
▁पूछ	-9.37427
भा	-9.37432
दे	-9.37438
▁चाल	-9.3744
▁सर्व	-9.37491
▁खो	-9.37491
▁मानक	-9.37703
ॉल	-9.37787
क्षेप	-9.37983
ंक	-9.38031
बे	-9.38088
▁निधि	-9.38096
▁अनिवार्य	-9.3811
▁उपबंध	-9.3811
▁कलकत्ता	-9.3811
▁विधेयक	-9.3811
▁इन्हें	-9.3811
▁अंतर्राष्ट्रीय	-9.38115
▁उद्यम	-9.38115
▁कंप्यूटर	-9.38116
▁नाटक	-9.38124
▁गैस	-9.38126
▁संपत्ति	-9.38128
▁झुठलाया	-9.38157
▁आयोग	-9.38163
▁शांति	-9.38164
▁हालाँकि	-9.38194
▁देंगे	-9.38195
▁संग्रह	-9.38195
यम	-9.38241
▁छोटी	-9.38249
▁शीघ्र	-9.38249
सर	-9.3825
▁केंद्रीय	-9.38264
▁ग्राहक	-9.38304
▁पर्याप्त	-9.38304
▁नियत	-9.38341
▁सुरक्षित	-9.38374
▁डेटा	-9.38376
गु	-9.38403
▁तर	-9.38426
▁मानते	-9.38483
▁इच्छा	-9.386
▁गुज़र	-9.38601
▁बध	-9.38612
▁सदन	-9.38624
▁मिलकर	-9.38629
▁तंत्र	-9.38676
▁डी	-9.38732
▁सेवाओं	-9.38806
राज	-9.38872
▁B	-9.38938
▁कहना	-9.39106
्ष्	-9.39184
▁आती	-9.39305
ियो	-9.39352
मय	-9.3956
▁26	-9.39691
▁प्रदर्शन	-9.39721
▁शक	-9.39995
▁कार	-9.39998
्त	-9.40144
गार	-9.40185
▁चि	-9.40276
ेस	-9.40546
ियम	-9.40633
▁पड़	-9.40644
–	-9.40691
F	-9.40697
▁नसी	-9.40745
▁वै	-9.409
▁बैठ	-9.41028
▁बै	-9.41059
गल	-9.41095
▁मुद्द	-9.4131
गो	-9.41492
▁शीर्ष	-9.41666
▁चयन	-9.41745
▁वायु	-9.41852
देव	-9.41855
्छ	-9.42036
htm	-9.4211
▁अनुप्रयोग	-9.4211
▁अपराध	-9.4211
▁इजरायल	-9.4211
▁पत्थर	-9.4211
▁पूंजी	-9.4211
▁कल्याण	-9.4211
▁सलाह	-9.42111
▁आंदोलन	-9.42111
▁भोजन	-9.42112
यू	-9.42114
▁सरकश	-9.42115
▁मार्च	-9.42118
▁उपन्यास	-9.4212
▁वर्ण	-9.42121
▁जाएंगे	-9.42123
▁समाचार	-9.42127
▁लोकप्रिय	-9.42128
शाली	-9.42138
▁उपचार	-9.42152
▁दर्ज	-9.42163
▁उपयुक्त	-9.42183
▁यद्यपि	-9.42198
ुर	-9.42222
▁महात्मा	-9.42256
▁14	-9.423
▁मिले	-9.42326
▁दोष	-9.42406
▁भूल	-9.42465
▁30	-9.42907
त्ता	-9.43067
वह	-9.43199
▁मामल	-9.4331
▁हल	-9.43311
▁गीत	-9.43495
▁दु	-9.43534
▁खुलत	-9.43609
▁जाये	-9.4367
▁प्रो	-9.43836
▁टन	-9.43845
भाग	-9.44049
न्न	-9.44407
w	-9.44582
▁मोह	-9.4462
▁तार	-9.44623
▁निर	-9.44746
सिल	-9.44865
▁सकें	-9.44947
▁विरोध	-9.44968
▁मुझ	-9.45066
ेज	-9.45125
ंगी	-9.45176
▁पु	-9.45971
▁रि	-9.46135
गिज़	-9.46165
▁यूरोप	-9.46179
▁कठोर	-9.46277
▁बौद्ध	-9.46277
▁गिरोह	-9.46277
▁पांच	-9.46277
▁मौसम	-9.46277
▁प्रयोजन	-9.46277
क़ुरान	-9.46278
▁निर्भर	-9.46278
▁मैदान	-9.4634
▁मंच	-9.46343
▁बताया	-9.46404
▁ज़रुर	-9.46428
▁जोड़ें	-9.46484
▁जहन्नुम	-9.46488
▁गुना	-9.46495
▁योग्य	-9.46541
▁बढ़कर	-9.46563
▁वाता	-9.46665
▁सबको	-9.46675
▁साहस	-9.46725
दास	-9.46805
¤2	-9.46876
लिम	-9.46899
चे	-9.46964
▁खेती	-9.46967
▁प्राधिकारी	-9.46983
▁चुने	-9.47042
▁क्षेत्रीय	-9.47093
चर	-9.47106
▁जून	-9.47252
▁हानि	-9.47271
N	-9.47502
▁पहुंचा	-9.4757
▁संस्कृति	-9.47634
▁सच	-9.47654
▁अधिकत	-9.47657
▁15	-9.47902
वालों	-9.4793
▁निर्धारिती	-9.47964
ोल	-9.48126
नतम	-9.48192
▁E	-9.48205
फा	-9.48324
्वा	-9.48364
▁संस्थानों	-9.48527
▁अनुस	-9.48763
▁गहर	-9.48839
▁श्	-9.48883
ाम	-9.49036
िय	-9.49119
x	-9.49201
▁बैठे	-9.49215
अलग	-9.49244
50	-9.49252
उन्हीं	-9.49353
चार	-9.49367
▁196	-9.49598
▁संसाधन	-9.49646
ायी	-9.49816
गर	-9.5024
ार्थ	-9.50312
▁डा	-9.50333
ुस	-9.5058
▁गंभीर	-9.50624
▁रद्द	-9.50624
▁विद्युत	-9.50624
▁गुमराह	-9.50625
pres	-9.50627
▁दशक	-9.50627
▁स्क्रीन	-9.50629
▁अर्थव्यवस्था	-9.50633
▁निगम	-9.50634
▁पंक्ति	-9.50635
▁लोकतंत्र	-9.50638
▁यथा	-9.50655
▁पेड़	-9.50674
▁साझ	-9.50709
बाइल	-9.50712
▁कहेंगे	-9.50761
▁चुनाव	-9.50761
▁संरचना	-9.50798
▁राजनीतिक	-9.50811
▁हृदय	-9.50845
▁जरूरी	-9.50884
र्द	-9.50934
▁संचार	-9.5096
▁सत्र	-9.50998
▁मह	-9.51009
▁शीर्षक	-9.51089
▁अधिकारियों	-9.51137
▁रखें	-9.51176
▁आता	-9.51345
▁बचा	-9.51434
माज़	-9.51555
▁चा	-9.51663
कला	-9.51853
ेशन	-9.51858
▁रा	-9.5186
▁कथा	-9.51978
▁पड़ा	-9.52149
or	-9.52265
िए	-9.52368
▁सि	-9.52379
ंध	-9.52619
▁सीता	-9.52713
नो	-9.52835
▁बड	-9.52966
▁प्रदर्श	-9.52971
▁बद	-9.53009
▁पत	-9.53176
re	-9.53207
लैंड	-9.53282
बु	-9.53419
▁प्रोग्राम	-9.53456
▁शर्त	-9.53578
▁T	-9.53619
कृत	-9.53729
▁हैः	-9.53796
मैं	-9.53808
▁मल	-9.53829
स्क	-9.5385
▁सीम	-9.53964
दम	-9.53994
▁16	-9.54148
▁ईमानदार	-9.54302
ed	-9.54374
साथ	-9.54447
सन	-9.54491
पाद	-9.54551
▁सामन	-9.54605
▁हट	-9.54636
▁कै	-9.54736
▁I	-9.54813
▁गठ	-9.54817
▁यंत्र	-9.54977
R	-9.55027
▁1.	-9.55147
▁दौर	-9.5515
८	-9.55159
▁ऑनलाइन	-9.5517
▁धार्मिक	-9.5517
▁हिदायत	-9.5517
▁दृष्टिकोण	-9.5517
▁विशाल	-9.5517
बिल्कुल	-9.55171
▁अध्याय	-9.55171
▁परस्पर	-9.55172
▁हजार	-9.55172
▁घोषणा	-9.55174
▁क्षमा	-9.55181
▁बोझ	-9.55182
▁उत्तम	-9.55189
▁गतिविधियों	-9.5519
▁शोध	-9.55194
▁चढ़	-9.55202
▁जायेगा	-9.55203
▁अन्त	-9.55208
▁सहमत	-9.55245
ंगा	-9.55268
▁अनुच्छेद	-9.55282
▁प्रेर	-9.55285
▁कुंजी	-9.55371
▁तरफ़	-9.55372
▁बनाएँ	-9.5538
U	-9.55473
▁सुख	-9.55479
▁आठ	-9.55514
▁कदा	-9.55537
▁किसानों	-9.55573
▁किनार	-9.5558
▁व्यय	-9.55597
▁गर्भ	-9.55676
▁दोस्त	-9.55718
▁शैली	-9.55754
▁जीवित	-9.55779
▁तट	-9.55812
▁बजाय	-9.55893
▁खान	-9.55903
▁पिता	-9.55919
▁रोज़	-9.55961
▁कर्मचारी	-9.56288
चा	-9.56342
हरू	-9.56385
▁जल्दी	-9.5641
शी	-9.56413
▁शा	-9.56608
▁लगाता	-9.56626
लोड	-9.56672
फल	-9.56709
▁रे	-9.56747
हन	-9.56764
आर	-9.5678
▁मौ	-9.56808
▁नय	-9.56838
▁सबके	-9.56869
मेरे	-9.56876
कल्पना	-9.56915
▁छा	-9.56924
¤¤	-9.5698
▁तल	-9.56984
▁नियमों	-9.57015
al	-9.57449
▁स्प	-9.5762
यह	-9.57643
भोग	-9.57697
त्त	-9.57797
पित	-9.57841
▁स्था	-9.57901
▁कैस	-9.57947
मेंट	-9.58173
कर्ता	-9.58267
▁नाज़	-9.58344
ेड	-9.58359
चि	-9.58483
दुनिया	-9.5855
जनक	-9.58555
ेश	-9.58572
▁हाथों	-9.58663
▁जल्द	-9.58702
ट्ट	-9.58708
लो	-9.58776
्री	-9.58926
▁गाय	-9.5907
▁पस	-9.59307
व्य	-9.5962
▁द्वार	-9.59731
▁संकल्प	-9.59734
▁अपील	-9.5976
▁मुख	-9.59801
▁परंपरा	-9.59896
▁पंजाब	-9.59932
▁विद्वान	-9.59932
▁हालांकि	-9.59932
▁तस्वीर	-9.59933
▁सीधे	-9.59934
▁अफ्रीका	-9.59935
▁आरम्भ	-9.59935
▁रीति	-9.59949
▁मिशन	-9.59964
▁आदर्श	-9.59965
▁साधन	-9.59966
ग्रह	-9.59972
▁स्वागत	-9.59976
▁उभर	-9.59979
▁नीतियों	-9.60019
▁बख्श	-9.60037
▁एफ	-9.60038
न्य	-9.60042
▁विधान	-9.6006
▁खूब	-9.60106
णी	-9.60138
▁शुभ	-9.60169
▁स्वच्छ	-9.60274
ख़र्च	-9.60287
▁औरतों	-9.60291
▁कोशिका	-9.60294
▁वस्तुओं	-9.6031
¤1	-9.60403
वन	-9.60403
▁स्वामी	-9.60406
▁रहें	-9.60419
▁सच्चे	-9.60503
▁गृह	-9.60521
▁प्रा	-9.60532
▁0	-9.60566
▁रहना	-9.60604
▁खुला	-9.60638
▁तकनीकी	-9.60661
▁सुल	-9.60671
हीन	-9.60839
on	-9.60948
▁एशिया	-9.6099
▁भाव	-9.61115
▁मुह	-9.61127
▁चरण	-9.61139
बारा	-9.61173
वें	-9.61262
▁जुड़	-9.6137
ॉक्स	-9.61394
▁बस्त	-9.61478
▁एम	-9.61488
ल्स	-9.61629
ुन	-9.62278
हीम	-9.62293
पाल	-9.62345
▁लेना	-9.62379
ून	-9.62406
ांति	-9.62607
रू	-9.62702
ोप	-9.63174
न्स	-9.63192
▁मानो	-9.63335
▁वन	-9.63346
▁तर्क	-9.634
बाहरी	-9.63528
▁कीमत	-9.63537
वाला	-9.63547
▁फ़रिश्त	-9.63628
▁विह	-9.63634
▁चीज	-9.63784
▁पति	-9.63905
ल्ड	-9.63977
▁पै	-9.6399
11	-9.64228
▁अज	-9.64343
▁तौ	-9.64633
र्क	-9.64692
▁कट	-9.64761
कुल	-9.64902
▁हु	-9.64926
}	-9.64932
▁अनुमोद	-9.64932
▁एवोल्यूशन	-9.64932
▁दायित्व	-9.64932
▁निष्क्रिय	-9.64932
▁फ़ैसला	-9.64932
▁महत्त्व	-9.64932
▁महामहिम	-9.64932
▁संघर्ष	-9.64932
▁संस्करण	-9.64932
▁मुकदम	-9.64932
▁हत्या	-9.64932
▁इत्यादि	-9.64932
▁जनवरी	-9.64933
▁उद्घाट	-9.64933
▁भाषण	-9.64935
▁सुबह	-9.64939
ment	-9.6494
प्ताह	-9.6494
▁खिलाफ	-9.64941
▁अनुकूल	-9.64949
▁३	-9.6496
▁जमीन	-9.64962
▁घेर	-9.64978
▁(2)	-9.64984
▁प्रचार	-9.64994
▁वाद्य	-9.64997
▁नौकर	-9.65022
▁पश्चात्	-9.65094
▁ईसा	-9.65137
▁शिकार	-9.6514
▁पेट	-9.65151
▁पद्धति	-9.65152
▁उतन	-9.65178
▁प्रोत्साहन	-9.65196
▁दीन	-9.65205
▁पात्र	-9.65247
▁प्राण	-9.65335
▁चलते	-9.65339
▁मुं	-9.65375
▁ट्रैक	-9.65379
▁समझते	-9.65384
▁क्रो	-9.65386
हान	-9.65418
▁साधारण	-9.65637
▁बनाते	-9.65662
▁पं	-9.65703
▁उतर	-9.65771
जे	-9.65842
ासिल	-9.65968
▁पूछा	-9.65992
▁पारित	-9.66208
वल	-9.66318
▁नव	-9.6643
▁जय	-9.66617
ध्य	-9.669
ूल	-9.67052
▁जुड़े	-9.67179
वाई	-9.67411
वाले	-9.67835
यान	-9.67853
▁पाए	-9.67925
्न	-9.67944
▁लेता	-9.68137
जल	-9.6815
▁कवि	-9.68158
रि	-9.6819
▁स्ट	-9.68294
▁उठ	-9.68377
▁चेहर	-9.68549
I	-9.68619
▁बुर	-9.68646
सार	-9.68683
६	-9.68783
मात्र	-9.68879
▁कर्मचार	-9.68938
▁अध	-9.69009
▁आयोजन	-9.69016
ृ	-9.69172
▁रस	-9.69204
▁झगड़	-9.69245
▁परिवर्त	-9.69282
▁पुकार	-9.69299
▁परिषद	-9.6932
▁पकड़	-9.69326
▁वी	-9.69382
▁इस्लाम	-9.69409
सु	-9.69687
▁सारा	-9.69769
▁मज़ा	-9.69982
▁दुख	-9.7002
▁तारीख	-9.70147
▁घन	-9.70184
▁अद्यतन	-9.70195
▁कटौती	-9.70195
▁परिणामस्वरूप	-9.70195
▁कनेक्शन	-9.70195
▁संविदा	-9.70195
▁स्तंभ	-9.70195
▁निरंतर	-9.70198
▁प्रतीक्षा	-9.70198
▁थोड़ा	-9.70199
▁गणराज्य	-9.70201
▁स्त्री	-9.70204
▁स्वरूप	-9.70228
▁हिंदू	-9.70232
▁सांस्कृतिक	-9.70238
▁फोन	-9.70241
न्द्र	-9.7025
दो	-9.70265
▁इन्सा	-9.70267
▁विवाद	-9.70269
13	-9.70284
▁विनिर्दिष्ट	-9.70293
▁प्रचल	-9.70301
▁बुनियाद	-9.70312
▁17	-9.70323
▁देर	-9.70349
▁खोलें	-9.70375
▁काफ़िर	-9.70388
▁प्रधान	-9.7039
▁एच	-9.70446
▁संपूर्ण	-9.7047
▁डाउन	-9.70476
▁भागीदारी	-9.70512
▁माह	-9.70524
▁ख़ुश	-9.7054
▁दया	-9.70545
▁जंगल	-9.70596
▁खाली	-9.70731
▁अति	-9.70743
▁पीढ़	-9.70759
▁साफ़	-9.70801
▁संलग्न	-9.70853
▁धीरे	-9.70854
▁Z	-9.71076
रम	-9.71128
▁बनाकर	-9.71207
गाह	-9.71264
लम	-9.71365
▁मीटर	-9.71395
▁रेखा	-9.71422
▁बनाई	-9.7151
▁साब	-9.71538
▁करीब	-9.71549
ियर	-9.71559
▁कागज	-9.71591
▁लॉग	-9.71624
▁घटा	-9.71654
▁इबर	-9.71695
▁खुल	-9.71705
▁कॉल	-9.7171
▁बनाना	-9.71728
▁धु	-9.71753
▁एकत्र	-9.71766
शा	-9.7184
२	-9.71901
▁वेब	-9.72017
रबार	-9.72117
▁ग़	-9.72226
▁दस	-9.72476
क्षित	-9.72623
▁अं	-9.72656
र्ज	-9.72693
▁बाहरी	-9.72787
▁(%	-9.72846
▁उपाय	-9.72906
▁तय	-9.72955
र्ड	-9.73039
टो	-9.73044
नेट	-9.73134
▁स्वर	-9.73198
▁भा	-9.7326
पो	-9.73283
▁लोगो	-9.73288
▁माप	-9.73423
▁संरक्ष	-9.73448
फिर	-9.73491
पूर	-9.73609
▁गोल	-9.73826
▁जम	-9.73942
▁चू	-9.73947
▁मुस्	-9.73957
लू	-9.74032
▁बर	-9.74138
एगा	-9.74263
वैध	-9.74347
आख़िर	-9.74355
ग्राम	-9.7437
▁चाह	-9.74374
कुछ	-9.74378
अल्लाह	-9.74386
▁मनो	-9.7441
गढ़	-9.74428
धर्म	-9.74431
विज्ञान	-9.74432
▁मोमिन	-9.74669
पालन	-9.7467
एफ	-9.74831
स्थिति	-9.74836
▁192	-9.74893
▁संपाद	-9.74909
गण	-9.74923
▁197	-9.74926
त्मक	-9.74928
▁जि	-9.75007
▁चुन	-9.7501
▁किलो	-9.75384
▁शास्त्र	-9.75522
ot	-9.7554
गें	-9.75662
॰	-9.7575
▁चेतावन	-9.7575
▁नेतृत्व	-9.7575
▁फ़िल्टर	-9.7575
▁मुश्किल	-9.7575
▁हथियार	-9.7575
ग़ालिब	-9.75751
▁ग्रंथ	-9.75751
▁टैब	-9.75751
▁सर्वेक्षण	-9.75751
▁इंडिया	-9.75751
▁अगस्त	-9.75751
▁मतलब	-9.75751
▁उम्र	-9.75751
▁नृत्य	-9.75752
▁तुलना	-9.75752
▁सड़क	-9.75756
▁पट्टी	-9.7576
▁भगवान	-9.7576
▁संक्षिप्त	-9.75763
▁विश्लेषण	-9.75763
of	-9.75772
▁शख़्	-9.75775
▁अभियान	-9.75777
▁निर्देशिका	-9.75779
▁गंगा	-9.75804
▁अवतर	-9.7583
▁प्रत्यक्ष	-9.75845
▁दर्द	-9.75847
▁लेंगे	-9.75856
▁सिस्टम	-9.75875
▁समक्ष	-9.75884
▁संगम	-9.75893
▁जिनको	-9.7592
▁13	-9.76014
▁घोष	-9.76031
▁{	-9.76036
▁निहित	-9.76037
न्ध	-9.76085
▁रहेगा	-9.76101
▁बढ	-9.76114
▁चली	-9.76118
▁तरीका	-9.76156
▁दर्शन	-9.76228
▁लगाया	-9.76229
▁पार्ट	-9.763
कारों	-9.76312
▁मात्र	-9.76313
▁पोर्ट	-9.76478
▁जू	-9.7653
▁नियमित	-9.76637
▁तुर	-9.76653
▁रेल	-9.76777
▁लगते	-9.76799
वत	-9.76824
नेवाले	-9.76852
▁नामक	-9.76857
▁शाह	-9.76887
▁लिखी	-9.76893
भर	-9.76913
▁मई	-9.76948
▁खुली	-9.77037
▁खड़े	-9.77044
पान	-9.77052
▁बुरी	-9.77182
ांतर	-9.77206
पु	-9.77239
▁खाना	-9.77335
सब	-9.77436
▁पत्त	-9.77451
▁प्राप्ति	-9.77701
▁अधिसूच	-9.77817
▁O	-9.77903
▁देवी	-9.77995
घर	-9.78159
▁मूल्यों	-9.78531
▁बु	-9.78638
▁सूर	-9.78676
ूत	-9.78686
▁लिखित	-9.78699
▁रन	-9.78821
▁लोड	-9.78858
▁पहला	-9.78869
▁दोहरा	-9.78927
▁198	-9.78947
▁खुले	-9.79179
▁सै	-9.79408
▁दिख	-9.79492
सहकारी	-9.79512
▁वर्षा	-9.79525
:-	-9.80025
M	-9.80034
▁अदा	-9.80068
▁संस्कृत	-9.80113
▁वीर	-9.80178
ाओ	-9.80214
यत	-9.80264
अपनी	-9.80292
▁वर	-9.80392
▁लगी	-9.80394
▁वाद	-9.80489
▁गांव	-9.80606
कालीन	-9.80644
▁कार्यालय	-9.80656
▁समर्थ	-9.80686
▁संत	-9.8081
▁खतर	-9.80836
मार	-9.80911
▁रहत	-9.80915
▁जु	-9.81024
लोक	-9.8118
▁स्वतंत्र	-9.81362
टन	-9.81468
्ला	-9.81505
▁आवाज	-9.81588
▁विफल	-9.81596
▁परामर्श	-9.81627
व्यवसाय	-9.81633
▁अप्रैल	-9.81633
▁इकट्ठा	-9.81633
▁उपयोक्ता	-9.81633
▁औसत	-9.81633
▁कर्तव्य	-9.81633
▁ठिकाना	-9.81633
▁पोजीशन	-9.81633
▁प्रसिद्ध	-9.81633
▁रौशन	-9.81633
▁सावधान	-9.81633
विमर्श	-9.81633
▁देखभाल	-9.81633
▁जवाहर	-9.81633
▁मेहरबान	-9.81633
▁शिखर	-9.81633
▁बातचीत	-9.81633
▁तिथि	-9.81633
▁प्राचीन	-9.81633
▁लकड़ी	-9.81633
▁बिक्री	-9.81634
▁मानसिक	-9.81635
▁पृष्ठभूमि	-9.81636
▁मिनट	-9.81638
▁शरीक	-9.81639
▁प्रतिनिधित्व	-9.81644
ग़रज़	-9.81647
▁अंदर	-9.81649
▁लक्षण	-9.81655
स्त्रियों	-9.81658
ana	-9.81661
तोष	-9.81665
▁दिये	-9.81669
▁पैमान	-9.81703
▁सत्याप	-9.81707
प्रभु	-9.81713
दैव	-9.81718
▁दीक्षा	-9.81721
▁संवाद	-9.8173
▁ब्याज	-9.81764
▁हिन्दू	-9.81777
▁क्लिक	-9.81788
▁थ	-9.81838
▁चिंता	-9.81856
यो	-9.81899
▁नज़र	-9.81911
▁सामान	-9.81913
▁समन्वय	-9.81929
▁संस्थाओं	-9.81964
▁विरू	-9.81974
▁योग्यता	-9.82046
▁दीवार	-9.82069
तीत	-9.82129
▁खड़ा	-9.82132
▁भाषाओं	-9.82203
▁झुठला	-9.82216
▁मां	-9.82243
an	-9.82295
▁शक़	-9.82306
न्ट	-9.82309
▁प्राथमिकता	-9.82345
टे	-9.82387
▁सर्वाधिक	-9.8248
▁वस	-9.82545
▁ताकत	-9.82618
▁होम	-9.82677
ारिक	-9.82784
▁ख़ास	-9.82791
▁आवास	-9.82824
मुख	-9.82911
▁तीसरे	-9.82923
▁लाइन	-9.82961
उसका	-9.83089
▁इत	-9.83204
▁ईमानदारों	-9.83221
▁बीज	-9.83222
▁प्रतिभा	-9.83285
▁बदलें	-9.83554
▁उद	-9.83563
ज़ार	-9.83603
▁अना	-9.83695
▁F	-9.83759
▁तोड़	-9.83933
▁करार	-9.83974
▁विन	-9.84107
जिस	-9.84171
▁सक	-9.84252
नाम	-9.84262
er	-9.84282
ूँ	-9.84666
निक	-9.84728
ूँगा	-9.84888
▁80	-9.84893
ज़ी	-9.85069
नर	-9.85113
vi	-9.85155
ar	-9.85189
ाइड	-9.85202
▁फैल	-9.85269
ॉन	-9.85324
लर	-9.85395
▁एड	-9.85455
▁शि	-9.85575
जात	-9.85587
▁100	-9.85668
मि	-9.85671
डि	-9.85779
िला	-9.8598
▁ठो	-9.86073
▁काट	-9.86272
▁50	-9.86277
क्षेत्र	-9.86443
H	-9.86471
मीटर	-9.86527
ोबार	-9.86604
तन	-9.8661
क्रम	-9.8672
खंड	-9.86778
चरण	-9.86795
sh	-9.86908
▁बोले	-9.86964
▁कोड	-9.87021
बू	-9.87079
▁प्रबंध	-9.87096
िज	-9.8717
▁छिप	-9.87184
▁दूरी	-9.87309
▁लौटा	-9.87343
▁नियंत्र	-9.8755
▁दाव	-9.87558
▁दुर्	-9.87617
ख्य	-9.87693
▁जाएं	-9.87741
▁इलेक्ट्रॉनिक	-9.87883
▁औलाद	-9.87883
▁जलवायु	-9.87883
▁धैर्य	-9.87883
▁पवित्र	-9.87883
▁फिलीस्तीन	-9.87883
▁विद्यमान	-9.87883
▁शुभकामनाएं	-9.87883
▁सम्मिलित	-9.87883
▁गिरफ्तार	-9.87883
▁सिविल	-9.87883
▁बिजली	-9.87883
▁मिसाल	-9.87883
▁जैव	-9.87883
▁बच्चा	-9.87883
▁अक्सर	-9.87884
▁शाखा	-9.87885
▁शून्य	-9.87886
▁दयालु	-9.87887
▁ब्रिटि	-9.8789
▁जिम्मेदार	-9.8789
je	-9.87893
▁सुझा	-9.87894
▁गुप्त	-9.87896
▁सिद्ध	-9.87898
▁गुजरात	-9.87899
▁संक्रमण	-9.87903
▁यूनिट	-9.87905
▁जहाज	-9.87905
▁अनुरोध	-9.87908
▁घंट	-9.87918
▁दिखायें	-9.8793
▁मिलेगी	-9.87933
▁आध्यात्मिक	-9.87934
▁श्रेणीः	-9.87958
पत	-9.87963
▁२	-9.87978
hi	-9.87985
▁लड़ाई	-9.87993
▁भौतिक	-9.88025
▁संदेह	-9.88064
▁सजदा	-9.88067
▁भला	-9.88078
▁हस्त	-9.88085
मिंग	-9.8809
▁लिख	-9.88092
▁अक्षर	-9.88099
▁पेज	-9.88103
▁लिंक	-9.8812
राइट	-9.88128
▁संचालन	-9.8813
▁विभाजन	-9.88159
▁सुविधाओं	-9.88192
▁अनुमान	-9.88193
▁उठाया	-9.88194
▁विश्वसनीय	-9.88206
▁ध्वनि	-9.88236
▁अभाव	-9.8824
▁यून	-9.88269
▁प्रसार	-9.88285
▁लाया	-9.88302
▁बहुतेर	-9.88355
▁हिस्से	-9.88378
▁आउट	-9.8839
▁पत्नी	-9.88391
▁बेच	-9.88414
▁कम्प	-9.88443
▁प्रवाह	-9.88452
▁मस्जिद	-9.88534
her	-9.88557
▁किस्म	-9.88557
▁वादा	-9.88827
▁खतरा	-9.88828
▁रिक्त	-9.88846
▁ग्रहण	-9.88854
▁देखकर	-9.88865
याँ	-9.88979
▁केंद्रित	-9.88995
▁स्ट्र	-9.89004
▁बो	-9.89015
▁मंडल	-9.89143
▁मामला	-9.89151
le	-9.89222
pr	-9.893
ंबर	-9.89324
▁कहानी	-9.89343
▁m	-9.89358
परिक	-9.89399
हाल	-9.89421
▁सवाल	-9.89497
60	-9.89528
पक	-9.89886
▁पड़ता	-9.89944
▁नर	-9.89999
लक	-9.90049
▁प्रकाशन	-9.90131
▁जड़	-9.90159
रोपण	-9.9036
▁उड़ा	-9.90413
B	-9.9047
ra	-9.90524
01	-9.90538
ुम	-9.90586
▁हार	-9.9064
प्रिय	-9.90683
▁गहरा	-9.90706
र्त	-9.90716
▁28	-9.90754
प्त	-9.90803
▁देवता	-9.90908
ायिक	-9.90917
डर	-9.91008
▁27	-9.91124
तक	-9.91235
▁आओ	-9.91337
▁प्रशंसा	-9.91393
इश	-9.91506
▁तु	-9.9165
▁जग	-9.91803
ियत	-9.91894
ज्	-9.91947
▁१	-9.91969
▁आरोप	-9.91998
▁इस्	-9.92015
लत	-9.9207
साद	-9.92203
ांकन	-9.92267
▁ठहरा	-9.92647
१	-9.92648
▁सच्चा	-9.927
ष्ठ	-9.92737
कारा	-9.92797
ाओं	-9.92815
प्ल	-9.92988
▁उद्	-9.93016
▁हिस	-9.93019
▁क्र	-9.93037
V	-9.93089
४	-9.93118
k	-9.93124
ालय	-9.93181
यदि	-9.93258
▁इतने	-9.93273
ाणु	-9.93315
लाइन	-9.93364
▁ईमानवाल	-9.93535
सव	-9.93621
़त	-9.93643
30	-9.9374
ांग	-9.93849
लिंग	-9.9385
दिन	-9.93863
▁विषयों	-9.93867
▁40	-9.94344
▁समृद्ध	-9.94376
कभी	-9.94459
▁भंडार	-9.94462
▁मिटा	-9.94488
तल	-9.94535
▁आनन्द	-9.94541
क़ुरआन	-9.94549
▁उन्होने	-9.94549
▁कार्रवाई	-9.94549
▁कौशल	-9.94549
▁विरासत	-9.94549
▁शारीरिक	-9.94549
▁सफेद	-9.94549
▁सर्वोच्च	-9.94549
▁पूर्ति	-9.9455
▁श्रद्धा	-9.9455
▁समझौते	-9.9455
▁फायद	-9.9455
▁दाहिन	-9.9455
▁उत्साह	-9.9455
▁समझौता	-9.9455
▁पर्वत	-9.94551
▁पंचांग	-9.94552
▁कमांड	-9.94553
▁फैसल	-9.94554
▁जनसंख्या	-9.94554
▁महसू	-9.94555
▁उद्यान	-9.94556
▁नवंबर	-9.94557
▁मकान	-9.94557
▁गेंद	-9.9456
▁2007	-9.94561
▁छुट्ट	-9.94561
▁2013	-9.94562
▁रेलवे	-9.94566
▁पसन्द	-9.94569
▁डाटा	-9.94571
▁द्रव	-9.94577
▁इंटर	-9.94578
▁बाहम	-9.94586
▁दूध	-9.94589
▁परिपत्र	-9.94597
▁2000	-9.94598
▁परिभाषित	-9.94605
▁अनुपात	-9.94612
▁आवाज़	-9.94625
▁उच्चतम	-9.94638
▁चेतन	-9.94682
▁29	-9.94684
▁कश्मीर	-9.947
▁त्याग	-9.947
▁सचिव	-9.94702
▁मुंब	-9.94703
▁24	-9.94705
▁प्रारूप	-9.94716
▁चैनल	-9.94717
▁निदेशक	-9.94723
▁पहलू	-9.94815
▁पुत्र	-9.94824
▁उदार	-9.9484
चूंकि	-9.94854
▁बदलाव	-9.94858
थोड़े	-9.94897
▁मानवीय	-9.94903
▁अल्प	-9.94908
▁बोस	-9.94959
▁दीर्घ	-9.94986
▁स्मृति	-9.94995
▁नजर	-9.94997
▁रोजगार	-9.95
▁बचत	-9.95004
▁अनुवाद	-9.95018
▁मिलती	-9.95072
en	-9.95086
▁चिह्न	-9.95094
टक	-9.95101
▁p	-9.95179
▁प्रभार	-9.95198
स्प	-9.95214
▁31	-9.95268
▁दंड	-9.95284
▁५	-9.95323
▁चलो	-9.95357
▁ताल	-9.95366
बिलकुल	-9.95384
▁रिज	-9.95522
▁बीमारी	-9.95552
▁फ्ल	-9.95556
▁निवासी	-9.95633
▁मानवता	-9.95646
▁ट्र	-9.9576
दल	-9.95792
रोसा	-9.95822
▁आयी	-9.95872
▁वंश	-9.96135
▁संसाधनों	-9.96157
▁चुना	-9.96211
मस	-9.96229
▁ग्राम	-9.96293
▁६	-9.96364
पथ	-9.9637
▁वैध	-9.96383
▁”-	-9.96412
▁भावी	-9.96452
ेक्ट	-9.96455
णा	-9.96481
▁कार्ड	-9.96503
ुआ	-9.96565
र्थ	-9.96625
▁बज	-9.96764
▁दू	-9.96809
▁बोली	-9.96912
▁अन्तर्	-9.96915
▁समुद्री	-9.96966
▁सामान्यत	-9.96973
▁–	-9.96993
▁वरन	-9.97077
th	-9.97134
▁घट	-9.97141
▁चीज़े	-9.97256
▁w	-9.9726
▁मैने	-9.97274
▁पक्षों	-9.9736
▁...	-9.9753
▁व्या	-9.97594
▁ब्र	-9.97722
▁चर	-9.97776
ंडा	-9.97837
▁पड़त	-9.97969
ग़	-9.98088
▁बढ़त	-9.98232
ट्स	-9.98239
▁डराने	-9.98314
ंदन	-9.98396
▁फट	-9.9861
नत	-9.98688
विध	-9.98801
मिट	-9.98857
▁मशीन	-9.99006
▁क्ल	-9.99053
▁रच	-9.99364
क्षा	-9.99475
▁चारों	-9.99523
▁तत्काल	-9.99695
▁उपर	-9.99739
▁माता	-9.99772
▁दान	-9.99871
श्त	-10
दत्त	-10.0012
मंडल	-10.0012
पति	-10.0017
थि	-10.0018
मैन	-10.0022
W	-10.0027
पैग़म्बर	-10.0031
संभव	-10.0033
▁चीन	-10.0045
वर्ग	-10.0046
शासन	-10.0055
▁आये	-10.0061
''	-10.0064
▁डाले	-10.0069
▁अमेरिक	-10.009
बोध	-10.0111
त्यंत	-10.0131
▁चलाने	-10.0133
▁सुंदर	-10.0138
▁दृढ़	-10.014
▁बीमा	-10.0147
▁चैन	-10.0153
16	-10.0155
2,	-10.0157
ज्ञ	-10.016
▁आकर्ष	-10.016
▁फ़ॉन्ट	-10.0163
▁संभाव	-10.0164
▁विमान	-10.0167
▁2012	-10.0169
▁गाँधी	-10.0169
▁जम्मू	-10.0169
▁फिरऔन	-10.0169
▁बिंदु	-10.0169
▁बिगाड़	-10.0169
▁मीडिया	-10.0169
▁संयंत्र	-10.0169
▁टैग	-10.0169
▁इंडियन	-10.0169
▁जटिल	-10.0169
▁प्रार्थना	-10.0169
▁विडियो	-10.0169
▁ऊतक	-10.0169
▁समीक्षा	-10.0169
▁पर्यटन	-10.0169
▁मौलिक	-10.0169
▁आज़मा	-10.0169
▁शत्रु	-10.0169
prh	-10.0169
▁आनंद	-10.0169
▁साझीदार	-10.017
▁१५	-10.017
▁सर्वोत्	-10.017
▁प्रभुत्वशाली	-10.017
▁क्रांति	-10.017
▁राजस्थान	-10.017
▁परिस्थितियों	-10.017
▁टूट	-10.017
▁पंजीकरण	-10.017
▁‘‘	-10.017
▁पुस्तकालय	-10.017
▁ट्यूब	-10.0171
▁पाकिस्तान	-10.0171
uk	-10.0171
▁अस्तित्व	-10.0171
शोथ	-10.0172
▁क़दम	-10.0172
▁इकाई	-10.0174
▁नेक	-10.0174
▁सहेजें	-10.0175
▁प्रतिक्रिया	-10.0176
▁कम्पनी	-10.0176
▁पूज्य	-10.0176
▁संध्य	-10.0177
▁डिजिटल	-10.0177
▁शोक	-10.0177
bm	-10.0177
▁चाहती	-10.0179
▁दस्तावेज	-10.0181
▁विनय	-10.0183
▁2014	-10.0184
ाते	-10.0185
▁मर्द	-10.0185
▁उम्मीद	-10.0185
▁पुस्तिका	-10.0185
▁ज़िन्दगी	-10.0186
▁छूट	-10.0186
▁भले	-10.0188
कथित	-10.0189
▁प्रसन्नता	-10.019
▁आजाद	-10.019
▁आग्रह	-10.0191
िस्तान	-10.0193
▁श्रेणी	-10.0195
▁बाकी	-10.0198
▁डरते	-10.0203
▁ज़्यादा	-10.0205
▁द्वीप	-10.0207
▁प्रबंधक	-10.0211
▁दिखाया	-10.0211
-19	-10.0211
ख़ूब	-10.0212
संगत	-10.0214
▁कुफ्फ़ार	-10.0217
▁सरदार	-10.022
▁मित्रता	-10.0227
▁निकलने	-10.0231
मारी	-10.0232
▁चंद्र	-10.024
ांत	-10.0244
▁अपनाया	-10.0248
▁चुनौती	-10.0251
▁वेद	-10.026
▁जिले	-10.0265
ाह्य	-10.0266
▁एंड	-10.0274
▁सांस	-10.0287
▁पाई	-10.0292
▁22	-10.0304
▁चीजों	-10.0319
▁पाल	-10.032
▁ठ	-10.032
.5	-10.032
समय	-10.032
v	-10.0334
▁H	-10.0334
पना	-10.0345
▁परमाण	-10.0349
▁मोट	-10.036
▁फैला	-10.0372
ावस्था	-10.0373
▁फी	-10.0374
क्ल	-10.0375
▁समा	-10.038
▁काफिर	-10.0382
▁बनाये	-10.0385
▁हिक	-10.0398
हो	-10.0404
▁कृष्ण	-10.0404
क्ति	-10.0426
जू	-10.0429
फ़्र	-10.0431
कट	-10.0431
▁संगठनों	-10.0436
▁२००	-10.0437
▁मूर्ति	-10.0461
लय	-10.0461
▁तस	-10.0488
शे	-10.0488
▁अर्ज	-10.0494
▁चौ	-10.0496
▁कामना	-10.0499
08	-10.0505
▁जीत	-10.0515
▁स्टा	-10.0523
▁मूल्यांक	-10.0524
▁दबा	-10.0542
▁पन	-10.0552
▁सिल	-10.0552
▁कीट	-10.0553
es	-10.0555
▁वर्गों	-10.0571
वेयर	-10.0585
▁उद्देश्यों	-10.0594
र्ग	-10.0595
▁बेट	-10.06
ाइन	-10.0611
▁नोट	-10.0613
▁पट	-10.0615
िटी	-10.0645
कर्ताओं	-10.0663
▁असम	-10.0675
▁सोचा	-10.0688
हु	-10.0709
ेयर	-10.071
फी	-10.0712
ीदा	-10.0724
▁अभिव्यक्ति	-10.073
▁करनेवाले	-10.073
▁उड़	-10.0732
▁कही	-10.0734
▁संस्थाप	-10.0738
क्का	-10.0755
▁दि	-10.0766
म्म	-10.0767
पूर्व	-10.0771
▁पढ़ा	-10.0791
▁अर्	-10.0794
५	-10.0795
ऑ	-10.0798
अज़ाब	-10.08
निवेश	-10.08
(	-10.0801
▁विद्यार्थ	-10.0807
प्रदान	-10.0811
म्प	-10.0812
र्न	-10.0816
▁खेत	-10.0818
▁सिद्धांत	-10.0832
▁ऊँच	-10.0849
▁मंत्र	-10.0855
ैया	-10.0859
▁उधार	-10.0874
उसके	-10.0879
डल	-10.088
रेखा	-10.0882
▁राजनीति	-10.0907
▁पशु	-10.0924
▁दोनो	-10.0928
ेंद्र	-10.0929
▁ढूंढ	-10.093
▁अंध	-10.0932
▁प्रतिनिधि	-10.0936
रक्षित	-10.0937
\	-10.0938
९	-10.0938
info	-10.0938
अनक़रीब	-10.0938
जहन्नम	-10.0938
▁अस्पताल	-10.0938
▁आश्चर्य	-10.0938
▁न्यायाधीश	-10.0938
▁प्रयत्न	-10.0938
▁प्रयोक्ता	-10.0938
▁मुक़ाबल	-10.0938
▁विपणन	-10.0938
▁विपरीत	-10.0938
▁श्रृंखला	-10.0938
▁सिफारिश	-10.0938
▁कमज़ोर	-10.0938
▁माबूद	-10.0938
▁परिवहन	-10.0938
▁सराहना	-10.0938
▁इमारत	-10.0938
▁आमंत्र	-10.0939
▁नेअमत	-10.0939
lease	-10.0939
ndia	-10.0939
▁सभ्यता	-10.0939
▁चोट	-10.0939
▁नक़ल	-10.0939
▁चरित्र	-10.0939
▁पुष्टि	-10.0939
▁वकील	-10.0939
▁परेशान	-10.0939
▁मेहनत	-10.0939
▁परीक्षण	-10.0939
▁थोड़ी	-10.0939
ww	-10.0939
▁महीने	-10.094
▁झाड़	-10.094
▁रेडियो	-10.094
▁भाष्	-10.094
▁कब्ज	-10.0941
▁कॉपी	-10.0941
▁झुक	-10.0941
ख्याल	-10.0942
▁तमिल	-10.0942
▁त्रि	-10.0942
▁नवान्वेषण	-10.0942
▁फूल	-10.0943
▁मददगार	-10.0944
▁दाख	-10.0946
महीनों	-10.0946
ोत्तर	-10.0947
▁दुआ	-10.0947
लॉकि	-10.0948
▁लाम	-10.0949
मक	-10.0949
▁प्रांत	-10.0949
▁सकेगा	-10.095
तमाम	-10.095
▁बिहार	-10.095
▁अंश	-10.0951
▁शेख	-10.0951
▁मान्यता	-10.0951
▁बजट	-10.0952
▁प्रभाग	-10.0952
ियामत	-10.0953
▁साहब	-10.0953
▁प्रतिबद्ध	-10.0955
▁ऑफ़	-10.0956
▁चाय	-10.0957
▁अपमान	-10.0958
▁दिखाने	-10.0959
▁सृजन	-10.0959
ंतरिक	-10.0962
▁सज़ा	-10.0963
च्च	-10.0966
▁प्रतिभूति	-10.0969
▁छह	-10.0971
जलि	-10.0975
▁पलट	-10.0989
ट्ठ	-10.0989
ाशय	-10.0991
▁विन्यास	-10.0992
ंदा	-10.0993
▁करोगे	-10.0994
लि	-10.0998
▁नेपाल	-10.1002
▁आदान	-10.1005
▁अभिगम	-10.1007
▁मांस	-10.1009
▁मध्यम	-10.1014
▁मास	-10.1043
▁शिक्ष	-10.1046
हाउस	-10.1053
▁बेटे	-10.106
▁बारह	-10.106
लिन	-10.1072
▁भि	-10.1074
▁पूज	-10.1075
▁देखो	-10.1075
▁गांवों	-10.1076
▁कराया	-10.1077
▁घड़	-10.108
▁टे	-10.1092
▁कॉ	-10.1097
▁भेजे	-10.1112
▁नौ	-10.1114
▁शुद्ध	-10.1124
▁नेता	-10.1141
▁21	-10.1142
18	-10.1145
दु	-10.1148
▁गढ़	-10.1156
्हों	-10.1156
प्रति	-10.1183
39	-10.1188
▁पुस्तकों	-10.1203
ेरत	-10.1206
▁लु	-10.1225
▁फु	-10.1245
▁L	-10.1269
▁दर्शा	-10.1271
15	-10.1272
33	-10.128
is	-10.1281
न्दगी	-10.1296
▁सम्बन्धी	-10.1297
▁प्राप्तकर्ता	-10.1356
▁लेन	-10.1357
ास्त	-10.136
भव	-10.1365
रेश	-10.1366
▁समर्प	-10.137
ाबाद	-10.1372
३	-10.1388
▁ख़त	-10.1389
▁विश्वविद्यालयों	-10.1391
▁आकर	-10.1394
▁बचाने	-10.1395
उनकी	-10.1398
▁रोगी	-10.1404
▁लॉक	-10.1409
▁नाथ	-10.1412
मर	-10.1417
नाक	-10.1427
▁मारे	-10.1434
▁मुक्ति	-10.1452
मल	-10.1453
ल्क	-10.1462
▁क्ष	-10.1471
लिप	-10.1484
रिट	-10.1495
▁कहां	-10.1496
टिंग	-10.151
▁गईं	-10.1527
िक्र	-10.154
▁कृत	-10.1544
िब	-10.155
▁हैंः	-10.1559
▁ब्रा	-10.1559
▁आना	-10.1569
▁कक्ष	-10.1588
▁जोर	-10.1603
गोया	-10.1604
▁आफ	-10.1607
शिक्षण	-10.1618
रानी	-10.1619
Com	-10.1624
K	-10.1627
नैतिक	-10.1628
Z	-10.1632
▁निवास	-10.1633
लोगों	-10.1635
▁प्राधिकार	-10.1638
,000	-10.164
विचार	-10.164
सीसी	-10.1645
▁तकनीक	-10.1645
▁बचे	-10.1647
▁अन्	-10.165
▁तथ्य	-10.1669
▁प्राथमिक	-10.167
सिन	-10.1673
▁विविध	-10.1687
▁सौंप	-10.1687
▁अपेक्ष	-10.1691
कू	-10.1703
-20	-10.1704
▁धारण	-10.1712
पार	-10.1715
▁व्याख्या	-10.1723
▁प्रोत्साह	-10.1727
कर्म	-10.1732
▁स्थिर	-10.1741
▁फार्म	-10.1748
वती	-10.1762
▁आंध्र	-10.1763
▁व्यावस	-10.1768
▁गतिविधि	-10.1769
िष्णु	-10.177
▁जादू	-10.1771
कारात्मक	-10.1771
▁रंगमंच	-10.1772
detail	-10.1772
▁अग्नि	-10.1772
▁अभिभाषण	-10.1772
▁आत्मनिर्भर	-10.1772
▁आपूर्ति	-10.1772
▁कम्प्यूटर	-10.1772
▁गंतव्य	-10.1772
▁डेस्कटॉप	-10.1772
▁दुर्घटना	-10.1772
▁पृथ्वी	-10.1772
▁प्रतियोगिता	-10.1772
▁प्रासंगिक	-10.1772
▁ब्राह्मण	-10.1772
▁मजदूर	-10.1772
▁सुदृढ़	-10.1772
▁सूक्ष्म	-10.1772
▁स्नातक	-10.1772
▁उपभोक्ता	-10.1772
▁तत्वदर्शी	-10.1772
▁दरमियान	-10.1772
▁दुःख	-10.1772
▁पैरामीटर	-10.1772
▁कार्बन	-10.1772
▁अखिल	-10.1772
▁घरेलू	-10.1772
▁जोखिम	-10.1772
▁जुलाई	-10.1772
मूहि	-10.1772
▁ज़िन्दा	-10.1772
▁सितम्बर	-10.1772
▁फिल्म	-10.1772
▁नूह	-10.1772
▁आस्था	-10.1772
▁असमर्थ	-10.1772
▁शैक्ष	-10.1772
▁कमजोर	-10.1772
▁2017	-10.1773
▁आबादी	-10.1773
▁अदालत	-10.1773
▁डूब	-10.1773
▁विद्रोह	-10.1773
▁भड़क	-10.1773
▁खत्म	-10.1774
▁स्थग	-10.1774
▁अभ्यास	-10.1775
▁स्टेशन	-10.1775
dent	-10.1776
▁मिटाएँ	-10.1776
▁खून	-10.1776
▁दस्तावेज़	-10.1777
▁मोदी	-10.1778
▁परिसर	-10.1778
▁बादशाह	-10.1778
▁संकट	-10.1779
▁अर्थात्	-10.1779
▁बायो	-10.1779
▁कंपनियों	-10.1779
▁आक्रमण	-10.1779
▁शोर	-10.1779
▁मक्का	-10.1779
▁पड़ेगा	-10.178
▁स्वीकृति	-10.1782
▁कहलात	-10.1782
▁वृक्ष	-10.1783
▁सूर्य	-10.1784
▁सूख	-10.1784
▁संबद्ध	-10.1784
निर्वाचन	-10.1786
▁स्पष्टीकरण	-10.1786
▁भलाई	-10.179
▁अज्ञात	-10.1791
▁प्रेरणा	-10.1792
▁भौ	-10.1793
▁मासिक	-10.1793
▁स्विच	-10.1793
▁प्रतिवाद	-10.1793
▁झोंक	-10.1794
▁रवी	-10.1794
▁करेगी	-10.1797
▁कर्ज	-10.1799
▁हराम	-10.18
▁जर्मनी	-10.1801
!"	-10.1804
विड	-10.1809
▁आहार	-10.1811
▁दुखद	-10.1811
शस्त्र	-10.1813
▁घटनाओं	-10.1815
▁सूत्र	-10.182
▁बुराई	-10.182
▁परियोजनाओं	-10.1822
▁सेवाएं	-10.1823
▁तथापि	-10.1825
▁the	-10.1826
किसी	-10.1827
▁कूट	-10.1829
▁बांस	-10.1831
▁आइ	-10.1831
▁जेल	-10.1833
▁सशक्त	-10.1835
▁कष्ट	-10.1835
▁संपादक	-10.1838
न्तर	-10.1846
युक़्त	-10.1847
▁छात्रों	-10.1849
▁सागर	-10.1849
▁पौधों	-10.1857
न्दर	-10.1858
▁भरे	-10.1858
▁पारि	-10.1859
▁भक्ति	-10.1859
यल	-10.1861
▁होगें	-10.1865
▁सम्मानित	-10.1869
▁कार्यान्वय	-10.1871
▁अकब	-10.1872
tion	-10.1879
▁बिता	-10.1882
▁G	-10.1883
▁सदस्यता	-10.19
▁ख्वाह	-10.1904
क्रिया	-10.1905
ाइयों	-10.191
▁कुमार	-10.1918
▁झगड़ा	-10.1926
▁सौर	-10.1933
▁बॉ	-10.1934
विद	-10.1944
▁बोध	-10.1945
▁उत्पादक	-10.1951
▁४	-10.1954
▁जानी	-10.1958
▁प्रती	-10.1959
सभापति	-10.1961
▁प्रतिष्ठा	-10.1963
स्व	-10.197
▁3.	-10.1982
▁सहज	-10.1996
प्प	-10.2008
▁44	-10.201
भक्त	-10.2011
▁मित्रों	-10.2014
▁सदा	-10.2025
▁कर्ता	-10.2035
▁चु	-10.2052
▁पड़ी	-10.2066
▁लेखन	-10.2067
रोध	-10.2071
▁75	-10.2088
▁जुड़ा	-10.2093
▁पू	-10.2101
▁इक	-10.2103
दि	-10.2123
बाद	-10.2123
रु	-10.2124
▁औषध	-10.2153
दन	-10.2157
▁जला	-10.2162
म्मा	-10.2168
▁c	-10.2174
▁बाब	-10.2184
राज्य	-10.2188
यक	-10.2189
▁छिपा	-10.221
▁उठाए	-10.2214
ैन	-10.2219
iii	-10.2225
▁वृ	-10.2229
▁दाम	-10.2234
▁वं	-10.2238
▁री	-10.2258
र्च	-10.2273
▁(3	-10.2281
▁रोकत	-10.2288
वाली	-10.229
श्रमिक	-10.2292
देन	-10.2292
▁दर्शात	-10.2304
▁सुर	-10.2307
न्हीं	-10.2315
▁सरो	-10.2326
▁राज़	-10.2328
▁l	-10.2333
ूप	-10.2335
धन	-10.2337
500	-10.2339
स्य	-10.2356
ंडर	-10.2358
▁डालें	-10.2367
ाहित	-10.2372
▁ऋ	-10.2374
34	-10.2379
टू	-10.2389
de	-10.2423
ँस	-10.2424
ज़िल	-10.2429
ियल	-10.244
ारा	-10.2462
▁देय	-10.2471
▁कोष	-10.2482
िग	-10.2495
क्षण	-10.2506
▁मौक	-10.2508
भंग	-10.2513
चित्रण	-10.2515
▁बादल	-10.2518
जीव	-10.2522
▁लिखे	-10.2528
G	-10.2536
वस्तु	-10.2543
अच्छा	-10.2543
मुझे	-10.2543
नहीं	-10.2544
तंत्र	-10.2547
ग्रहण	-10.2551
▁ख़ा	-10.2553
▁प्रत्य	-10.2566
रहित	-10.2566
▁रुक	-10.2571
▁बीमार	-10.2577
पहले	-10.2583
भारत	-10.2583
▁ख़ुद	-10.2597
यस	-10.2605
▁इंच	-10.2609
हक़	-10.2611
फ़ा	-10.2614
नीति	-10.2626
जुल	-10.2627
▁आंख	-10.2629
▁to	-10.263
▁शी	-10.2631
िस्ट	-10.2632
गैर	-10.2638
चित्र	-10.2643
▁उत्कृष्ट	-10.2652
70	-10.2655
▁देन	-10.2663
फि	-10.2665
us	-10.2672
▁लगत	-10.2672
शोधन	-10.2676
▁तकलीफ	-10.2676
चन	-10.2676
▁प्राधिक	-10.2678
▁१९	-10.268
▁उल्लंघन	-10.2681
▁जागरूक	-10.2681
▁टेलीफोन	-10.2681
▁डिजाइन	-10.2681
▁दिसंबर	-10.2681
▁परहेज़गार	-10.2681
▁राजधानी	-10.2681
▁शुरुआत	-10.2681
▁सुभाष	-10.2681
▁दैनिक	-10.2681
▁पूर्वावलोकन	-10.2681
▁संतुष्ट	-10.2681
▁स्मारक	-10.2681
▁आदमियों	-10.2681
▁धातु	-10.2681
▁प्रायः	-10.2681
▁हँसी	-10.2681
1956	-10.2681
ग़ैर	-10.2681
▁उपाधि	-10.2681
▁हिमालय	-10.2681
▁वितरण	-10.2681
▁साक्षी	-10.2681
▁सहानुभूति	-10.2681
▁क्रिकेट	-10.2681
▁एहद	-10.2681
▁कार्यवाही	-10.2681
▁चैत	-10.2682
▁सैन्य	-10.2682
▁दीजिए	-10.2682
▁नस्ल	-10.2682
▁फोटो	-10.2682
कोलकाता	-10.2683
▁पाँच	-10.2683
▁अन्तिम	-10.2683
▁संवर्धन	-10.2683
▁राधा	-10.2683
▁धोख	-10.2684
▁घुस	-10.2684
▁परिकल्पना	-10.2685
▁इनपुट	-10.2685
▁विशेषज्ञ	-10.2685
▁हिंसा	-10.2686
▁अपवाद	-10.2686
▁चमक	-10.2686
▁उत्तरदाय	-10.2687
▁मुगल	-10.2688
▁गौरव	-10.269
▁निचल	-10.2691
▁स्वस्थ	-10.2691
▁काफ़ी	-10.2691
▁राज्यपाल	-10.2692
▁भंडारण	-10.2693
तलाश	-10.2693
▁बटन	-10.2693
▁मोड	-10.2693
ing	-10.2694
▁अक्षम	-10.2695
▁सुविधाएं	-10.2696
▁अनाज	-10.2696
’’	-10.2697
▁भर्त	-10.27
▁मछली	-10.27
▁सामर्थ्य	-10.2702
▁शिव	-10.2702
▁ख़ौफ	-10.2703
▁अमल	-10.2703
▁हिंद	-10.2703
▁इल्	-10.2703
▁समृद्धि	-10.2705
आप	-10.2707
▁चिप	-10.2709
़ौर	-10.2712
▁शिशु	-10.2716
▁जनरल	-10.2716
▁सुनकर	-10.2718
▁मिश्रण	-10.2719
▁अध्य	-10.272
▁पड	-10.272
▁चे	-10.272
▁विनाश	-10.2723
▁धर	-10.2723
ण्ट	-10.2724
▁फरमा	-10.2725
▁डरा	-10.2726
▁स्पर्श	-10.2729
▁2005	-10.2731
▁ईरान	-10.2736
▁चौथ	-10.2736
वाणी	-10.2736
▁निकायों	-10.2738
▁</	-10.274
▁उलट	-10.274
▁जापान	-10.2741
▁ज़रूरत	-10.2742
▁द्वितीय	-10.2743
हिमा	-10.2747
▁उपज	-10.2747
▁खबर	-10.2749
▁समाप्ति	-10.275
▁न्यास	-10.2756
▁मॉ	-10.276
खराब	-10.2761
रिए	-10.2765
▁पाते	-10.2766
र्ज़	-10.2769
▁पेय	-10.2775
▁बाग	-10.2785
▁नेताओं	-10.28
▁ठहरे	-10.2804
▁नर्स	-10.2807
▁एकल	-10.2815
▁आपात	-10.2821
▁गठन	-10.2824
▁35	-10.2824
िष्ठ	-10.2832
▁सच्च	-10.284
दृश्य	-10.2845
▁पाना	-10.2847
000	-10.2855
▁निकास	-10.2859
मोमिनीन	-10.2864
▁दावे	-10.2864
▁W	-10.2867
▁अन्तर	-10.2872
▁दवा	-10.2876
वृत्ति	-10.2887
ायक	-10.2911
गन	-10.2912
कृति	-10.2914
▁पाता	-10.2916
िकेट	-10.2919
▁गीतों	-10.2921
▁तेरा	-10.2933
▁पैस	-10.2937
▁क्रे	-10.2937
06	-10.2967
क़त	-10.2968
▁घड़ी	-10.2978
▁x	-10.2992
▁नाग	-10.2994
बैक	-10.2998
वक	-10.3018
▁सत्	-10.3032
ड़ियों	-10.3035
न्ना	-10.3044
▁बां	-10.3046
07	-10.3047
▁तात्	-10.3066
▁परिभाषा	-10.3066
▁हमला	-10.3071
▁पहन	-10.3072
लु	-10.3076
▁रोका	-10.3094
ब्र	-10.3096
▁बाज	-10.3099
▁हिल	-10.3105
ंभ	-10.3106
▁असल	-10.3112
ol	-10.3115
्रि	-10.3116
्हे	-10.3123
ब्ब	-10.3141
वैसा	-10.3144
ीयत	-10.3145
▁अंतर्	-10.3146
▁काले	-10.3155
ाइल	-10.3162
▁तंग	-10.317
▁श्रम	-10.3174
▁ताज़	-10.3175
त्म	-10.3179
▁नहर	-10.3181
▁पल	-10.3181
▁मुड़	-10.3205
किस	-10.3229
प्रेषित	-10.3235
वाय	-10.3237
ोज	-10.3241
▁उपयोगकर्ता	-10.3242
▁बेस	-10.3243
▁भेजें	-10.325
▁मश	-10.3252
▁बंध	-10.3255
्ति	-10.3268
दियों	-10.328
योग	-10.3296
गोलि	-10.3299
▁घू	-10.3316
▁लिखने	-10.333
▁मं	-10.3331
दाद	-10.3336
लिए	-10.3339
न्ड	-10.3348
याद	-10.3354
लिया	-10.3357
▁अली	-10.3368
▁नहरे	-10.3371
परस्त	-10.3385
▁समझे	-10.3394
▁2,	-10.3406
/-	-10.3417
▁विवरणी	-10.3419
▁युक्ति	-10.3461
▁प्रतिष्ठ	-10.3465
चंड	-10.3474
पद	-10.3476
वश	-10.3486
▁शक्तिय	-10.3495
िनी	-10.3495
▁बतात	-10.3502
▁परत	-10.3511
ोद	-10.3512
▁मुद्र	-10.3534
भेद	-10.3534
कुमार	-10.3538
▁आज्ञा	-10.3539
सूची	-10.3541
आईटी	-10.3542
&	-10.3543
साधारण	-10.3545
ख़बर	-10.3546
▁गरीब	-10.3548
बिल	-10.3558
▁छोड़ें	-10.356
▁आं	-10.3564
ठीक	-10.3574
▁टो	-10.3574
▁कराए	-10.3579
काफिरों	-10.3579
▁शैल	-10.3581
कूल	-10.3582
▁आर्	-10.3583
गम	-10.3591
सभा	-10.3593
▁ढांच	-10.3597
लाज	-10.3599
ुंड	-10.36
कार्य	-10.3605
▁पौध	-10.3608
▁वास	-10.3609
▁दरवाज	-10.3612
▁शिक्षक	-10.3619
जीवन	-10.3622
ूस	-10.3627
वॉ	-10.3631
▁वृत्त	-10.3633
▁विभाज	-10.3636
ोगे	-10.3643
▁लानेवालो	-10.3644
रियों	-10.3649
नगर	-10.3649
▁प्रसन्न	-10.3652
्ध	-10.3652
▁ग्री	-10.3658
अब	-10.366
▁वाणिज्य	-10.3661
धारक	-10.3664
▁सां	-10.3665
▁गल	-10.3665
▁पढ	-10.3676
र्पित	-10.3677
▁छुट	-10.3679
▁प्रभुत्व	-10.368
▁गुजर	-10.368
▁अपशिष्ट	-10.3681
▁आजीविका	-10.3681
▁ऊंचे	-10.3681
▁ऑडियो	-10.3681
▁औपचारिक	-10.3681
▁कर्नाटक	-10.3681
▁क़िस्म	-10.3681
▁ज़बरदस्त	-10.3681
▁डिफ़ॉल्ट	-10.3681
▁ड्राइव	-10.3681
▁निष्कर्ष	-10.3681
▁प्लगइन	-10.3681
▁फरमाबरदार	-10.3681
▁मजबूर	-10.3681
▁मुलाकात	-10.3681
▁लाइसेंस	-10.3681
▁व्यवस्थित	-10.3681
▁श्रेष्ठ	-10.3681
▁सम्पर्क	-10.3681
▁शिष्य	-10.3681
⁄4	-10.3681
▁पासवर्ड	-10.3681
▁प्रतिबंध	-10.3681
▁रणनीति	-10.3681
क़ुबूल	-10.3681
▁डिग्री	-10.3681
▁प्रवर्तन	-10.3681
▁परिचय	-10.3681
▁आकलन	-10.3681
▁टिप्पणी	-10.3681
उपर्युक्त	-10.3681
▁दुश्मन	-10.3681
▁कुरान	-10.3681
▁झुठलाओगे	-10.3681
▁पादप	-10.3681
▁सन्तान	-10.3681
▁एक्सचेंज	-10.3681
▁सीधी	-10.3681
▁नवम्बर	-10.3681
▁कथन	-10.3681
▁खिलाड़ी	-10.3681
▁दर्शक	-10.3682
▁अस्थि	-10.3682
▁ज़रिए	-10.3682
▁संग्रहालय	-10.3682
ख़ैर	-10.3682
▁2006	-10.3683
▁पेंशन	-10.3683
▁2008	-10.3683
▁घिर	-10.3683
▁घुमा	-10.3684
▁विद्वत	-10.3684
▁इलाक	-10.3684
▁शादी	-10.3684
▁ज़ुल	-10.3685
▁प्रदूषण	-10.3685
▁आशु	-10.3686
▁फेंक	-10.3686
▁(4)	-10.3688
▁गर्	-10.3688
▁घाव	-10.3689
▁प्रसंस्करण	-10.3689
▁वैकल्पिक	-10.3689
▁संपद	-10.369
▁जयंत	-10.369
क्शन	-10.369
▁बाबू	-10.3691
▁दायर	-10.3692
▁सहेज	-10.3692
▁ग्लो	-10.3692
▁वर्गीकरण	-10.3692
▁अनुरूप	-10.3692
▁छू	-10.3693
▁हल्क	-10.3694
▁दरबार	-10.3697
▁मिलेगा	-10.3697
▁खाओ	-10.3697
▁जाओगे	-10.3698
▁चीजें	-10.3699
▁अन्दर	-10.3702
▁बांध	-10.3702
▁अनुदान	-10.3703
▁अहल	-10.3704
▁औरतें	-10.3704
▁फरिश्त	-10.3704
▁शैतान	-10.3705
▁नियोज	-10.3705
▁2015	-10.3705
▁अमर	-10.3707
▁आगमन	-10.3713
हारी	-10.3716
▁आएगा	-10.3718
▁आकृति	-10.3718
▁मी	-10.3718
▁मस्तिष्क	-10.3719
▁शासक	-10.372
▁2009	-10.372
▁पुल	-10.3721
▁कर्ण	-10.3721
▁शाम	-10.3721
▁अपीलार्थ	-10.3722
▁मौत	-10.3723
▁नोड	-10.3726
1-201	-10.373
▁तरल	-10.373
जाल	-10.373
▁लेगा	-10.373
▁क़ाब	-10.3733
▁टीम	-10.3733
▁त्वर	-10.3736
▁मेहर	-10.3744
▁साइट	-10.3744
▁पड़ने	-10.3744
▁करूँगा	-10.3746
महाराजा	-10.3747
▁मसल	-10.3752
▁चक्र	-10.3753
▁गुरू	-10.3753
▁मज़	-10.3755
▁हुक	-10.3756
▁सफ़	-10.3758
्लो	-10.3759
▁लाते	-10.3761
▁रवा	-10.3765
▁अलब	-10.3766
▁विनियमन	-10.3772
▁जानवरों	-10.3775
▁घटक	-10.3783
णव	-10.3783
▁गर्मी	-10.3791
▁विविधता	-10.3792
▁कहाँ	-10.3792
ावट	-10.3793
01.	-10.3796
▁कठिनाइय	-10.3798
गामी	-10.3799
▁बेटा	-10.38
10	-10.3801
थल	-10.3802
▁पॉ	-10.3804
पन्न	-10.3805
▁तथ्यों	-10.3808
गुन	-10.3823
ज्ञान	-10.3824
▁आएँ	-10.3824
▁महल	-10.3827
बीर	-10.3829
अप	-10.3835
डीपी	-10.3845
▁पुकारा	-10.3845
▁वार्	-10.3849
पट	-10.3851
पृ	-10.3852
▁समझाने	-10.3857
▁विद्यार्थी	-10.3857
▁नैतिक	-10.3859
र्रा	-10.3862
▁होगे	-10.3862
बूल	-10.3862
▁V	-10.3906
यात	-10.3907
ूम	-10.3908
▁बनना	-10.3921
55	-10.3922
75	-10.3925
शः	-10.3926
मिल	-10.3927
यूँ	-10.3927
जान	-10.3928
वही	-10.3932
▁पोत	-10.3935
▁लंबा	-10.3936
▁शु	-10.3945
▁नबी	-10.3953
▁लिंग	-10.3954
पीएस	-10.398
▁देकर	-10.3986
कालिक	-10.3989
शंकर	-10.3992
▁लि	-10.3993
अर	-10.4003
▁निका	-10.4003
ामक	-10.401
पोर्ट	-10.4012
▁खन	-10.4013
बाब	-10.4023
▁स्टे	-10.4028
वली	-10.403
कम	-10.4035
▁कनेक्ट	-10.404
▁रोज	-10.404
ताब	-10.4041
▁खड़	-10.4041
शास	-10.4048
▁अद	-10.4057
▁स्रोतों	-10.4059
वां	-10.4059
▁चौक	-10.4065
▁नकद	-10.4092
▁डो	-10.4094
िच	-10.4095
माल	-10.41
सीता	-10.4111
▁निस्	-10.4113
▁खात	-10.4119
▁निध	-10.412
▁y	-10.4123
रक्षण	-10.4131
▁करवा	-10.4138
▁क्य	-10.4144
▁प्रविष्टि	-10.4148
▁घाटी	-10.4155
शो	-10.4157
हार्द	-10.4165
ii	-10.4169
रोज	-10.4188
▁सजा	-10.4203
्फ	-10.4206
▁शहरी	-10.421
▁पाप	-10.4215
र्य	-10.4229
▁b	-10.4242
स्त्र	-10.4255
▁निभा	-10.4274
बात	-10.4283
▁यानी	-10.4288
्थ	-10.429
su	-10.4292
जिन	-10.4299
वात	-10.4304
▁पहुँचे	-10.431
tr	-10.4319
सन्	-10.4328
ाचार	-10.4341
▁जगत	-10.4344
h	-10.4349
▁कुर्	-10.4371
बंदी	-10.4371
वीर	-10.4378
ti	-10.4381
दारों	-10.4384
डीए	-10.439
▁निकाले	-10.4396
▁हरि	-10.4414
▁साथियों	-10.4415
▁क़त	-10.4431
टरी	-10.4468
पत्ति	-10.4468
▁नाक	-10.4474
▁सल्	-10.4513
लभ	-10.4517
▁ट्री	-10.4518
जाम	-10.4519
▁उन्	-10.4521
▁हां	-10.4542
▁तरीक	-10.4565
▁भग	-10.457
▁कृति	-10.4573
▁चख	-10.4574
स्ट्र	-10.4583
फ्त	-10.4598
नेवाला	-10.4608
ियार	-10.4617
रुद्ध	-10.4639
ख्वाह	-10.4649
द्वार	-10.4652
गुज़र	-10.4652
गृह	-10.4653
प्रकाश	-10.4654
जैसे	-10.4655
दोनों	-10.4656
आर्थ	-10.4659
ानिक	-10.4662
▁चुनौत	-10.4663
मोह	-10.4665
सत्य	-10.4679
▁प्ले	-10.469
▁छात्र	-10.4693
म्मत	-10.4701
टेक	-10.4708
▁जानवर	-10.4709
▁ओल	-10.4709
▁प्रकाशना	-10.4716
▁अकेल	-10.4717
▁लगाए	-10.4737
टकर	-10.4737
▁संचाल	-10.4747
घट	-10.4747
▁हाथी	-10.4749
▁बढ़ने	-10.4749
मुक्त	-10.4753
▁किसान	-10.4754
दादा	-10.4758
तुम्हारे	-10.4758
▁सिखा	-10.4764
▁गिन	-10.4765
ड्ड	-10.4773
19	-10.4776
▁तीसर	-10.4778
एससी	-10.4778
▁प्रशिक्ष	-10.4784
ांतरण	-10.4786
▁छोड	-10.4787
षण	-10.4788
तन्त्र	-10.4791
▁पश्च	-10.4791
बेहिश्त	-10.4792
िमंत्रण	-10.4792
▁आह्वान	-10.4792
▁इबादत	-10.4792
▁ग्रन्थ	-10.4792
▁तीव्र	-10.4792
▁परिचालन	-10.4792
▁प्रावधान	-10.4792
▁प्रौढ़	-10.4792
▁फलस्वरूप	-10.4792
▁फ़िल्म	-10.4792
▁व्युत्पन्न	-10.4792
▁शरारत	-10.4792
▁संशोधित	-10.4792
▁संहिता	-10.4792
▁सचमुच	-10.4792
▁स्क्रिप्ट	-10.4792
▁आश्वासन	-10.4792
▁सीआरए	-10.4792
▁फरवरी	-10.4792
▁फौज	-10.4792
▁साक्ष्य	-10.4792
ब्रिटेन	-10.4792
▁इंसान	-10.4792
▁प्रसंग	-10.4792
▁सटीक	-10.4792
▁स्कीम	-10.4792
▁दुकान	-10.4792
▁शुरूआत	-10.4792
▁फसल	-10.4792
▁पाठ्यक्रम	-10.4792
▁कचरा	-10.4792
▁संकलन	-10.4793
▁सउद	-10.4793
▁डाक्टर	-10.4793
▁वृक्क	-10.4793
▁माहौल	-10.4793
▁मॉडल	-10.4793
▁बिन्दु	-10.4793
▁आदत	-10.4793
▁साफ्टवेयर	-10.4793
▁घोड़	-10.4793
▁नवाचार	-10.4793
▁झील	-10.4793
▁2010	-10.4793
▁दिव्य	-10.4793
▁जादूगर	-10.4793
▁कपड़े	-10.4793
▁परिश्रम	-10.4793
▁प्रदाता	-10.4793
▁वसूल	-10.4793
▁चमड़	-10.4794
▁उत्सव	-10.4794
▁जानबूझ	-10.4794
▁1957	-10.4794
tel	-10.4794
▁निष्ठा	-10.4794
▁ढेर	-10.4794
▁चावल	-10.4794
▁स्वदेशी	-10.4795
▁क्षमाशील	-10.4795
▁होटल	-10.4795
▁जाननेवाला	-10.4795
▁राजस्व	-10.4795
▁वाक़िफ़	-10.4795
▁नवीन	-10.4795
▁सम्पाद	-10.4796
▁प्रयोगशाला	-10.4796
▁विनिर्माण	-10.4796
▁रहस्य	-10.4796
▁बाध्य	-10.4796
▁प्रजातिय	-10.4796
▁अधिकारिता	-10.4796
▁चौड़ाई	-10.4796
▁अग्रिम	-10.4796
▁मुल्क	-10.4796
▁समेक	-10.4797
▁असामान्य	-10.4797
SL	-10.4797
▁उभार	-10.4797
▁तंत्रिका	-10.4797
▁पैकेज	-10.4798
▁पाइप	-10.4798
▁समकालीन	-10.4799
▁तालाब	-10.4799
▁बूढ़	-10.4799
▁हार्ड	-10.4799
▁दूँ	-10.4799
▁दूँगा	-10.4799
▁अब्दुल्ला	-10.4802
इजाज़त	-10.4802
▁189	-10.4802
▁कृत्य	-10.4803
▁वाक्य	-10.4803
▁ईंट	-10.4803
पीडीएफ	-10.4804
▁प्ला	-10.4804
▁वैष्	-10.4804
▁पत्रिका	-10.4804
▁आइए	-10.4806
▁सितार	-10.4807
▁देगें	-10.4807
▁अमरीक	-10.4809
▁उपेक्ष	-10.4809
▁कच्च	-10.481
▁क्लब	-10.481
▁अज्ञान	-10.4811
▁अपरि	-10.4811
▁कालेज	-10.4812
▁चाहेंगे	-10.4812
▁पशुओं	-10.4814
प्पल	-10.4814
▁तबाह	-10.4815
▁प्रथा	-10.4815
ग्रस्त	-10.4816
▁सतत	-10.4817
▁क़ाय	-10.4818
▁भूख	-10.4818
▁कुशलता	-10.4818
▁निवारण	-10.4818
▁यूरोपीय	-10.4819
▁वार्ता	-10.4825
▁पिला	-10.4827
▁टॉ	-10.4828
▁मुक़र्र	-10.4835
▁इज्ज	-10.4838
▁स्तन	-10.4839
▁मंद	-10.4841
▁मुकाबले	-10.4842
▁राजाओं	-10.4844
▁सकेंगे	-10.4855
▁शरणार्थ	-10.486
▁सेक्टर	-10.4864
36	-10.4865
▁आँखों	-10.4865
▁आंकड़ा	-10.4866
▁गौर	-10.4867
▁स्टार	-10.4867
▁प्यार	-10.4868
▁अक्ष	-10.4868
वाज़े	-10.4875
शुद	-10.4878
▁आश्र	-10.4879
▁मोहम्मद	-10.4888
▁संपादन	-10.4891
▁मुहर	-10.4899
▁ज्ञापन	-10.4904
▁कोविन्	-10.4908
▁रहकर	-10.4911
पट्ट	-10.4915
▁द्वि	-10.4915
▁याची	-10.4919
▁हरे	-10.4925
▁लिपि	-10.4925
▁प्रदर्शक	-10.4925
बाई	-10.4931
▁एकता	-10.4935
are	-10.4935
▁बनते	-10.4937
▁गरीबी	-10.4943
माला	-10.495
▁दादा	-10.4955
▁भेद	-10.4957
ॉस	-10.4958
गाड़ी	-10.4959
भोज	-10.4961
▁नकल	-10.4965
▁सुनने	-10.4967
▁सुनता	-10.497
▁आईटी	-10.4971
▁छि	-10.498
▁सेटिंग	-10.4989
▁K	-10.4991
▁अभ	-10.4996
रों	-10.4998
▁समाजवाद	-10.4999
ानु	-10.5
▁चीनी	-10.5007
पहर	-10.502
▁194	-10.5038
सूर	-10.5039
▁लाना	-10.5042
▁क्यू	-10.5055
डू	-10.5065
चन्द्र	-10.5072
▁नाप	-10.508
▁गोली	-10.5084
▁गुट	-10.5084
▁माँग	-10.5085
वेद	-10.509
खान	-10.5103
▁अभिव्यक्त	-10.5108
ाइज	-10.5119
ay	-10.5128
▁ग्रे	-10.5128
▁अर	-10.513
▁कारक	-10.513
ुरा	-10.5131
▁लॉ	-10.5132
22	-10.5135
▁पार्क	-10.5138
ब्ल	-10.5145
▁व्	-10.5153
con	-10.5156
स्वी	-10.5159
co	-10.516
▁अप्र	-10.5168
▁विरोधी	-10.5169
िड	-10.517
बन्द	-10.5178
ोत्	-10.5185
तुल	-10.5201
गिक	-10.5205
ेंच	-10.5207
िक्ष	-10.521
▁चलने	-10.5212
▁वर्	-10.5217
्रिम	-10.5227
▁बम	-10.5229
ड़न	-10.5259
▁जिहा	-10.527
क्षक	-10.5273
सूचित	-10.5301
चना	-10.5318
▁बेन	-10.5339
▁मारा	-10.5343
शिला	-10.5353
▁रहनेवाल	-10.5353
़ा	-10.5357
17	-10.5361
▁विद	-10.5386
प्रद	-10.5387
राग	-10.5404
आईसी	-10.5407
▁ताज	-10.541
सेट	-10.541
▁जाल	-10.5416
▁दस्त	-10.5417
▁लिखत	-10.5435
सोल	-10.5435
▁छोड़ा	-10.5446
▁कप	-10.5451
▁उठे	-10.5453
▁0.	-10.5462
▁लैं	-10.5465
लिय	-10.5466
मण्ड	-10.5478
▁शत	-10.548
▁डै	-10.5501
▁पडे	-10.5501
25	-10.5507
▁संग	-10.5514
बो	-10.5523
ठी	-10.5539
▁शै	-10.5552
▁केन्द्रों	-10.5572
नेवालों	-10.5573
▁उत्तरी	-10.5582
▁दलील	-10.5585
▁फि	-10.5595
▁जेन	-10.5623
▁42	-10.5628
ईल	-10.5633
▁पुन	-10.5635
▁गिरा	-10.5637
▁गर्म	-10.5639
▁माफ	-10.5647
▁वादी	-10.5653
▁सेल	-10.5663
िये	-10.5686
मेन	-10.5687
▁दम	-10.5693
▁तीस	-10.5694
▁बनाएं	-10.5697
ूढ़	-10.5704
▁in	-10.5706
ेसर	-10.571
▁सलाम	-10.5718
▁मस	-10.5739
▁युक्त	-10.5745
जील	-10.5749
05	-10.5754
०००	-10.5761
▁दास	-10.5768
ूमत	-10.5773
▁मुर्द	-10.578
तुम्हार	-10.5789
डिट	-10.5793
▁वर्क	-10.5799
राह	-10.58
▁जोड़े	-10.5801
पात्र	-10.5806
▁पहुंचे	-10.5811
बंद	-10.5825
▁मृद	-10.5826
▁यूसुफ	-10.5826
▁आल	-10.5834
▁रूस	-10.5837
ज्ज	-10.5851
ाश्त	-10.5854
भार	-10.5856
बाज	-10.5866
▁तं	-10.5869
रेख	-10.5879
▁इच्छ	-10.5889
रूस	-10.5892
गर्भ	-10.5901
वर्ण	-10.5901
वंश	-10.5902
दिवस	-10.5903
वृद्धि	-10.5903
पश्चिम	-10.5904
हमारे	-10.5905
मार्ग	-10.5924
बाध	-10.593
ौल	-10.5937
वेदन	-10.594
११	-10.5958
▁आंकड़	-10.5961
▁गार	-10.5969
▁गौ	-10.5982
शाह	-10.5989
▁साम्राज्य	-10.5992
▁संचय	-10.5994
▁संबोध	-10.6004
▁विनियम	-10.6009
▁बुद्ध	-10.601
▁साह	-10.6011
▁कुशल	-10.6013
ow	-10.6024
▁उन्नत	-10.6024
▁ऊंचा	-10.6028
▁आखिर	-10.6035
र्द्ध	-10.6035
मुदाय	-10.6038
च्छेद	-10.6041
ज़रा	-10.6042
▁प्रबन्धन	-10.6042
NAME	-10.6042
अफसोस	-10.6042
▁अक्तूबर	-10.6042
▁आबंटन	-10.6042
▁कृपा	-10.6042
▁क्रियाकलाप	-10.6042
▁खींच	-10.6042
▁चिकित्सक	-10.6042
▁डेलिगेट	-10.6042
▁निःशुल्क	-10.6042
▁नुकसान	-10.6042
▁पृथक	-10.6042
▁प्रोजेक्ट	-10.6042
▁माइक्रो	-10.6042
▁मीम॰	-10.6042
▁रेगिस्तान	-10.6042
▁विकलांग	-10.6042
▁व्यावहारिक	-10.6042
▁सतर्कता	-10.6042
▁सॉफ्टवेयर	-10.6042
▁हाज़िर	-10.6042
ेश्वर	-10.6042
▁चक्कर	-10.6042
▁निपटान	-10.6042
▁मंजूर	-10.6042
▁मातृ	-10.6042
▁संवेदनशील	-10.6042
▁सम्बंध	-10.6042
▁विघटन	-10.6042
▁समायोज	-10.6042
डब्लू	-10.6042
▁अवज्ञा	-10.6042
▁आचार्य	-10.6042
▁स्वचाल	-10.6042
▁गाँव	-10.6042
▁फिलीप	-10.6042
भ्रंश	-10.6042
▁समावेश	-10.6042
▁जन्नत	-10.6042
▁कूटशब्द	-10.6042
▁क़िबल	-10.6042
▁सुलेमान	-10.6042
▁दिमाग	-10.6042
▁पंडित	-10.6042
▁वरीयता	-10.6042
▁चाहूंगा	-10.6042
▁अधिवक्ता	-10.6042
▁विलोप	-10.6042
▁अनुज्ञा	-10.6043
▁१९९	-10.6043
▁रिकार्ड	-10.6043
▁महाराष्ट्र	-10.6043
सन्देह	-10.6043
▁क्रमांक	-10.6043
▁प्रशांत	-10.6043
▁सिंचाई	-10.6043
▁कमेटी	-10.6043
▁दौड़	-10.6043
▁1997	-10.6043
िख्यात	-10.6044
▁यहूदी	-10.6044
▁सैनिक	-10.6044
▁फोल्ड	-10.6044
▁अनिवास	-10.6044
▁प्रतिलिपि	-10.6044
▁वायुयान	-10.6044
▁इम्त	-10.6045
मंडप	-10.6045
▁अनुभूति	-10.6045
iv	-10.6045
▁ग़लत	-10.6045
▁टेबल	-10.6045
▁हिन्दु	-10.6045
▁समापन	-10.6046
▁इंजीनियरिंग	-10.6046
▁क्षति	-10.6046
▁अनुसूची	-10.6047
▁गुफा	-10.6047
▁निगाह	-10.6047
▁बंब	-10.6048
▁ज़ोर	-10.6048
▁छंद	-10.6049
▁विनिम	-10.605
▁प्रान्त	-10.605
▁निगरा	-10.605
▁कीजिए	-10.605
▁सचेत	-10.605
▁नोक	-10.6051
▁अनधिक	-10.6051
▁अर्ध	-10.6051
op	-10.6051
▁फ्री	-10.6051
शैक्षणिक	-10.6052
धीन	-10.6052
▁आघात	-10.6052
▁शान्त	-10.6053
▁सिफ़ारिश	-10.6053
▁बचपन	-10.6053
▁पंच	-10.6053
▁पीड़ा	-10.6054
ानुसार	-10.6054
▁सारणी	-10.6054
▁धीम	-10.6055
▁विवेकान	-10.6056
▁वचन	-10.6057
▁आकर्षण	-10.6058
▁रूचि	-10.6062
▁रॉ	-10.6062
▁गांधीजी	-10.6063
▁बीविय	-10.6064
▁छपा	-10.6066
कथा	-10.6067
▁रिज़	-10.6067
▁शर्तें	-10.6068
▁कामगार	-10.6069
▁पोस्ट	-10.607
▁जायेंगे	-10.6071
▁कुदरत	-10.6072
▁हिंदुस्तान	-10.6072
▁शिष्ट	-10.6073
▁कहावत	-10.6073
▁तत्त्व	-10.6073
▁ईसाई	-10.6077
▁प्रेस	-10.608
▁दंत	-10.6082
▁टुकड़ा	-10.6082
23	-10.6084
असंख्य	-10.6087
ग्राफ	-10.6088
▁महान्	-10.6089
▁तौरेत	-10.6093
▁2011	-10.6094
▁आमाल	-10.6096
▁दृढ़ता	-10.6096
▁चेक	-10.6096
▁कैश	-10.6097
▁नील	-10.6102
▁तुर्की	-10.6105
स्तर	-10.6107
▁खोजें	-10.611
▁पक्षियों	-10.611
▁कड़ी	-10.6111
▁ज़ि	-10.6111
▁नमूने	-10.6115
▁खण्ड	-10.6115
▁सुनाई	-10.6121
ियाई	-10.6122
▁रखकर	-10.6122
ट्रांस	-10.6122
लोहे	-10.6124
▁चूक	-10.6124
▁बढ़ाया	-10.6124
▁अर्थात	-10.6125
दरख्त	-10.6125
▁प्रवास	-10.6126
मेट	-10.6126
▁मादा	-10.6129
▁गे	-10.6129
▁पुरा	-10.613
▁देगी	-10.6131
दीन	-10.6136
▁अधिकरण	-10.6137
▁फ़ाइलें	-10.6137
▁ओप	-10.614
▁रेख	-10.614
▁बारी	-10.6141
▁तीसरा	-10.6143
टेक्स	-10.6147
▁टुकड़े	-10.6149
▁लोप	-10.615
ईमान	-10.6154
▁हरित	-10.6159
▁समर्थक	-10.6163
▁तस्	-10.6166
शीलता	-10.6171
▁प्लेट	-10.6172
▁अष्ट	-10.6173
र्जी	-10.6176
स्टर	-10.618
▁शम	-10.6184
▁जायें	-10.6194
▁गोर	-10.6195
▁चुक	-10.6209
▁राजी	-10.621
िणी	-10.6213
▁समझो	-10.6214
▁होंगी	-10.6226
▁जंग	-10.6229
▁लगाकर	-10.6234
▁टोक	-10.6236
स्वार्थ	-10.6239
▁लाई	-10.6241
म्बर	-10.6242
▁चाहा	-10.6244
▁धारणा	-10.6244
▁हाई	-10.6245
▁प्रेष	-10.6247
▁कलाकार	-10.625
▁माने	-10.6256
गमन	-10.6261
▁वृद्ध	-10.6265
जीवी	-10.6267
▁इसमे	-10.6268
▁खर	-10.6269
▁फर्	-10.627
▁नेमत	-10.6283
▁चंद	-10.6288
▁नामः	-10.629
ांश	-10.629
▁नेत्र	-10.6297
ाधिकार	-10.6302
▁v	-10.6304
▁शं	-10.6309
▁वरिष्	-10.6314
ग़ा	-10.6318
▁चन्द	-10.6319
डो	-10.6319
है	-10.6319
▁रहम	-10.6321
▁लड	-10.6325
▁दुर	-10.6332
▁सुनत	-10.6334
रिता	-10.6336
्रुत	-10.6338
▁बोला	-10.6344
▁निकालने	-10.6347
वादियों	-10.6353
▁कमर	-10.6354
▁e	-10.6366
▁गन्द	-10.6371
वासियों	-10.6377
▁मरने	-10.6385
▁अर्जन	-10.6387
▁गीता	-10.6388
▁गुम	-10.6398
▁आईडी	-10.6402
▁खिल	-10.6413
▁वर्म	-10.6422
▁उल	-10.6443
इंड	-10.6446
▁उपकरणों	-10.6453
▁लटक	-10.6454
▁डायर	-10.6455
▁N	-10.6457
हल	-10.6462
▁re	-10.647
5,000	-10.6494
्टन	-10.6499
▁बग	-10.6511
▁खोला	-10.6512
जब	-10.6513
▁पीने	-10.6525
▁लिखें	-10.6528
▁करेंः	-10.6536
पत्रों	-10.6537
रह	-10.654
शाला	-10.6566
ँच	-10.6573
▁प्रश्नों	-10.6587
▁फलों	-10.6598
▁विकृत	-10.6604
सब्र	-10.6606
▁विभागों	-10.6617
▁बनाता	-10.6618
थान	-10.6626
▁सकी	-10.6633
▁अला	-10.6634
▁बढा	-10.6665
▁केंद्रों	-10.6665
▁रहित	-10.6669
▁निर्	-10.668
▁माइ	-10.6681
▁पूछें	-10.6691
▁फ़रमा	-10.6704
▁अवि	-10.6711
हृ	-10.6718
फलक	-10.6723
▁द्विप	-10.6736
वारी	-10.6757
▁दोहर	-10.6776
हाँ	-10.6779
ंघ	-10.6784
खन	-10.6809
भिन्न	-10.6809
▁एम्	-10.6829
ड्स	-10.6834
सूचना	-10.6853
▁रजिस्ट्रीक	-10.6861
▁लौ	-10.6869
ाइट	-10.6871
57	-10.6908
▁कन्	-10.694
ec	-10.694
▁ठे	-10.6944
▁शू	-10.6946
▁डाली	-10.6953
ons	-10.6953
lation	-10.6957
सूद	-10.7015
पिक	-10.7016
▁सीडी	-10.703
गै	-10.7031
▁translate	-10.7032
सीन	-10.7033
फ़त	-10.7038
्वे	-10.7048
▁एल्	-10.705
▁नीं	-10.7063
▁चट	-10.7066
▁पॉल	-10.7082
▁फर्ज	-10.7106
▁लान	-10.7133
▁पूर्णत	-10.7141
▁t	-10.7153
वाँ	-10.7155
भक्ति	-10.7186
▁आश	-10.719
▁अवसरों	-10.7192
दिश	-10.7216
रेब	-10.7233
▁२०	-10.7253
बेल	-10.7256
निष्ठ	-10.7269
▁पीट	-10.7272
▁भागने	-10.7273
▁हिस्स	-10.7288
क्की	-10.7289
▁नज़	-10.7292
▁सको	-10.7293
▁बस्तिय	-10.7296
लिख	-10.7306
▁जिल	-10.7306
क़्त	-10.7311
तू	-10.7319
ॉँ	-10.7321
▁सुच	-10.7322
शास्त्र	-10.7322
ज्ञापन	-10.7325
भाषा	-10.7328
निर्माण	-10.7328
व्यवस्था	-10.733
▁(199	-10.733
‘	-10.733
धीरे	-10.733
स्वामी	-10.733
▁कंपन	-10.7331
समझ	-10.7332
परिवर्तन	-10.7333
सिंह	-10.7333
पुरुष	-10.7333
प्राप्त	-10.7341
दृष्टि	-10.7342
योग्य	-10.7343
▁मधु	-10.7343
शिप	-10.7346
विश्वास	-10.7348
महल	-10.7349
म्य	-10.7354
▁डाय	-10.7369
ार्थियों	-10.7371
रचना	-10.7373
▁पीछ	-10.7373
दीक	-10.7373
बीच	-10.7381
ther	-10.7381
▁चर्च	-10.7383
यानि	-10.7387
▁फै	-10.7394
कार्ड	-10.7398
फिल	-10.7403
बड़ी	-10.7406
▁इसरा	-10.7417
▁तह	-10.7419
य्या	-10.7425
▁बरस	-10.7425
▁संगठ	-10.7429
धारी	-10.7452
ृष्टि	-10.7453
▁मार्क	-10.7459
▁स्वीकृत	-10.7462
▁इंजीनियर	-10.7466
▁संयोज	-10.7467
▁स्क्र	-10.7469
▁कहानिया	-10.7471
▁2020	-10.7471
▁अकादेमी	-10.7471
▁ऊंची	-10.7471
▁कुफ्फार	-10.7471
▁चट्टान	-10.7471
▁छत्तीसगढ़	-10.7471
▁दिलचस्प	-10.7471
▁पथभ्रष्ट	-10.7471
▁पुरूष	-10.7471
▁पूँजी	-10.7471
▁प्रचालन	-10.7471
▁प्रतिस्पर्ध	-10.7471
▁प्रेमचंद	-10.7471
▁प्रोटोकॉल	-10.7471
▁फ्रेम	-10.7471
▁भ्रष्टाचार	-10.7471
▁मेजबान	-10.7471
▁रामायण	-10.7471
▁लाइब्रेरी	-10.7471
▁वनस्पति	-10.7471
▁विस्फोट	-10.7471
▁शृंखला	-10.7471
▁सौंदर्य	-10.7471
▁हड़ताल	-10.7471
▁पारिस्थितिक	-10.7471
▁ब्राउज़र	-10.7471
▁मद्रास	-10.7471
▁आकांक्षा	-10.7471
▁उत्तरदायित्व	-10.7471
▁ड्रग	-10.7471
▁वगैरह	-10.7471
▁वाष्प	-10.7471
▁विकिरण	-10.7471
▁संकीर्ण	-10.7471
▁संकुच	-10.7471
▁खजूर	-10.7471
▁पुण्य	-10.7471
▁अतिमानस	-10.7471
▁अवशोष	-10.7471
▁नरेन्द्र	-10.7471
▁क़रीब	-10.7471
▁सिद्धान्त	-10.7471
▁com	-10.7471
▁कार्यकलाप	-10.7471
▁राजपूत	-10.7471
▁ईंधन	-10.7471
बेहश्त	-10.7471
▁बेहद	-10.7471
▁अवकाश	-10.7471
▁नाभिक	-10.7471
▁पर्यटक	-10.7471
▁आमदनी	-10.7471
▁गद्य	-10.7471
▁बाँध	-10.7471
▁छुपा	-10.7471
▁पीड़ित	-10.7471
▁लशकर	-10.7471
पुष्प	-10.7471
▁सघन	-10.7471
▁अस्वीकृत	-10.7471
▁शराब	-10.7471
▁सेवानिवृत्त	-10.7471
▁मृतक	-10.7471
▁वारिस	-10.7471
▁नदियाँ	-10.7471
पब्लिक	-10.7471
▁किशोर	-10.7471
▁गर्दन	-10.7471
▁मतदाता	-10.7471
ance	-10.7471
\\	-10.7471
▁कृतज्ञ	-10.7471
▁खनिज	-10.7471
▁ज़बान	-10.7472
▁संदे	-10.7472
▁2019	-10.7472
▁सूअर	-10.7472
wea	-10.7472
▁2004	-10.7472
▁धूप	-10.7472
▁कपड़ा	-10.7472
▁लाएँगे	-10.7472
▁स्वर्ण	-10.7472
▁अतिथियों	-10.7472
▁रंज	-10.7473
▁2016	-10.7473
▁पाओगे	-10.7473
▁1999	-10.7473
क़द्र	-10.7473
▁मसीह	-10.7473
▁आस्तियों	-10.7473
▁नवीनतम	-10.7473
▁निवेदन	-10.7473
▁मोर्च	-10.7473
▁पुतल	-10.7473
▁कॉलेज	-10.7473
▁एख्त	-10.7473
▁जिन्ना	-10.7473
▁सतह	-10.7474
▁आईआईटी	-10.7474
▁चौपा	-10.7474
▁शोषण	-10.7474
▁रचनात्मक	-10.7474
▁प्रलेख	-10.7475
▁इलाज	-10.7475
▁ऑंख	-10.7475
▁विशेषाधिकार	-10.7475
▁तुझ	-10.7475
ाअत	-10.7475
▁कुबूल	-10.7475
▁एकाग्र	-10.7475
▁योनि	-10.7475
▁लोकसभा	-10.7475
▁सद्भावना	-10.7475
▁ध्वज	-10.7476
▁सुसंगत	-10.7476
▁दिलाने	-10.7476
▁जैन	-10.7477
ch	-10.7477
मन्त्र	-10.7478
क़रार	-10.7478
सफाई	-10.7478
▁तकलीफ़	-10.7478
▁वाहन	-10.7479
▁बाढ़	-10.7479
▁आलोचना	-10.7479
▁छोर	-10.7479
▁इनसाफ़	-10.748
▁कार्यपालिका	-10.748
▁पुराण	-10.748
▁पद्धतियों	-10.748
▁लूत	-10.7481
▁उत्पी	-10.7481
▁मीरा	-10.7482
▁विष	-10.7482
▁उथल	-10.7482
▁परंपरागत	-10.7482
▁पंजीक	-10.7482
▁जायेगी	-10.7483
▁निरूप	-10.7483
▁सुपुर्दगी	-10.7484
▁तरीक़	-10.7485
▁सीधा	-10.7485
▁झेल	-10.7485
▁रखेगा	-10.7485
▁गहन	-10.7486
नुमा	-10.7486
▁चोर	-10.7486
▁ऊंचाई	-10.7486
▁कुफ्	-10.7486
▁बनायी	-10.7487
▁115	-10.7488
▁निभाई	-10.7488
▁ब्लॉक	-10.749
▁अनदेख	-10.749
▁उपदेश	-10.749
भीत	-10.7492
▁समितियों	-10.7494
▁कहेगा	-10.7494
▁विषम	-10.7495
▁पहलुओ	-10.7495
▁उदय	-10.7496
▁मेघ	-10.7498
▁याचिका	-10.7498
▁रवि	-10.7498
▁वाणिज्यिक	-10.7499
िल्ली	-10.75
▁खिसका	-10.7504
▁नारायण	-10.7505
▁स्मरण	-10.7505
▁2002	-10.7506
▁लाओ	-10.7507
▁अंतराल	-10.7507
▁पटल	-10.7508
▁सम्भव	-10.7508
▁तिरु	-10.7509
▁टाल	-10.751
श्रीमती	-10.7514
▁मिटाना	-10.7514
▁जनजाति	-10.7514
▁ज़िम्मे	-10.7515
▁संग्रहण	-10.7515
▁लंबाई	-10.7515
▁हलाक	-10.7516
भू	-10.7516
▁लिखना	-10.7517
▁बैंकिंग	-10.7518
▁हंस	-10.7519
▁उत्कृष्टता	-10.7519
as	-10.752
▁लाएँ	-10.7521
▁लेबल	-10.7521
▁बक्स	-10.7523
▁केरल	-10.7524
▁त्रुटिः	-10.7526
▁पार्श्व	-10.7528
▁आउटपुट	-10.7529
▁इकाइयों	-10.7529
▁छः	-10.753
ुग	-10.7531
▁हौ	-10.7531
▁जिन्हो	-10.7531
▁परसत	-10.7531
▁दरिया	-10.7532
▁जुड	-10.7533
टिव	-10.7535
▁वैसे	-10.7538
▁नकारात्मक	-10.7539
▁अनुसूचित	-10.7539
▁ग्रीन	-10.7539
▁चीख	-10.754
ोहर	-10.7541
▁आख़	-10.7545
रुप	-10.7545
ड़िया	-10.7547
▁क़ुदरत	-10.7551
▁जोड़ना	-10.7552
दर्शिता	-10.7553
▁जोड़त	-10.7553
तिप	-10.7553
▁दीवान	-10.7558
रत्न	-10.756
पूरा	-10.7561
▁चिर	-10.7563
▁अंतः	-10.7567
चंद्र	-10.7568
▁प्रीत	-10.7569
सऋ	-10.7572
▁पढ़ें	-10.7572
▁लम्बे	-10.7575
▁धक्क	-10.7575
IS	-10.7579
▁बहनों	-10.7579
पूरक	-10.7579
▁एंट	-10.758
▁हू	-10.7581
▁१०	-10.7585
▁48	-10.7586
▁किताबें	-10.7589
▁(19	-10.759
▁टेन	-10.759
▁ढांचा	-10.7595
▁बदकार	-10.7598
लाप	-10.7598
▁उत्पा	-10.7602
उप	-10.7609
▁1/	-10.761
▁आपदा	-10.7611
नागरी	-10.7619
▁उल्ट	-10.7621
▁ऊँचा	-10.7621
ुरु	-10.7622
विष्ट	-10.7622
▁बंदर	-10.7624
▁रहेगी	-10.763
▁शिक्षकों	-10.763
▁अकेले	-10.7631
▁(10	-10.7632
▁खुदाई	-10.7635
▁धान	-10.7636
▁थोप	-10.7637
यार	-10.764
टर्न	-10.764
▁मेह	-10.7641
53	-10.7645
▁बीते	-10.7645
▁उठाना	-10.7664
चाप	-10.7672
ेम्स	-10.7675
प्राय	-10.7676
la	-10.7681
प्रेषण	-10.7684
col	-10.7687
ोक्त	-10.7693
▁रूपये	-10.7696
▁दिखाना	-10.7699
▁कैं	-10.7699
▁थो	-10.7704
▁खाल	-10.7705
▁झू	-10.7707
▁पकड़ा	-10.7715
▁बगल	-10.7716
▁चौड़	-10.7716
▁बालक	-10.7721
▁संभाल	-10.7722
▁बहन	-10.7725
▁गोला	-10.7726
निष्	-10.7733
▁Com	-10.7737
▁म्यू	-10.7737
▁लगाई	-10.7739
▁कार्यालयों	-10.7746
न्दा	-10.7749
श्ती	-10.7754
ानंद	-10.7758
▁मोड़	-10.7765
▁गिल	-10.7767
▁उपायों	-10.7769
संकल	-10.7771
वाड़	-10.7772
▁परिषदों	-10.778
▁चाहें	-10.7781
ूंद	-10.7783
st	-10.7784
▁कहें	-10.7784
ab	-10.7787
पोषण	-10.7793
▁सवार	-10.7795
ित्र	-10.7795
पेक्ष	-10.7804
▁फैली	-10.7807
▁पालि	-10.7811
▁वाल	-10.7813
▁बुक	-10.7816
▁साइ	-10.7823
▁होस्ट	-10.7824
▁घम	-10.7834
▁तारा	-10.7839
शिका	-10.7842
▁कैद	-10.7856
▁फे	-10.7858
राना	-10.7871
▁बुल	-10.788
जनों	-10.7881
▁स्टी	-10.7897
▁सीखा	-10.7901
़कात	-10.7904
▁गुणा	-10.7909
▁बिट	-10.7919
़्य	-10.792
मिया	-10.7922
▁सकताः	-10.7926
▁फेरा	-10.7932
▁मुद्दे	-10.7941
एसआई	-10.7942
मिति	-10.7943
पाक	-10.7945
▁निकटता	-10.7954
सज्ज	-10.7962
5)	-10.7965
▁कक्षा	-10.7966
▁नाना	-10.7968
शक्ति	-10.7969
▁बीस	-10.797
आपरेशन	-10.7975
▁निर्वा	-10.7989
▁कमल	-10.7997
▁उपलब्धता	-10.7999
▁कार्	-10.8022
▁अकार	-10.8025
▁दह	-10.8027
▁पाठक	-10.8028
दिल	-10.8048
▁कैन	-10.8048
सीनों	-10.8057
उजी	-10.8058
ौन	-10.8059
▁आँखे	-10.8067
▁छड़	-10.808
▁199	-10.8082
▁जानने	-10.81
▁सेंट	-10.8106
▁कलाम	-10.8127
बेस	-10.8142
हेज	-10.8152
▁बजा	-10.8153
▁पूर्ववर्	-10.8159
▁बरसा	-10.8162
▁अनुभवों	-10.818
ER	-10.8194
डिंग	-10.8195
धु	-10.8203
▁प्रशंस	-10.8212
श्म	-10.8212
▁ठहराए	-10.8225
▁सित	-10.8252
▁n	-10.8253
▁अनन्	-10.8261
ढ़ी	-10.8263
▁बिन	-10.828
हारे	-10.8283
▁मिलान	-10.8284
ंजर	-10.8308
▁किले	-10.8308
सैन	-10.8312
▁आधि	-10.8338
▁अम्	-10.8347
▁आँख	-10.8371
66	-10.8377
▁जोड़ी	-10.8379
तनत	-10.8382
ीर्ण	-10.8395
सहाय	-10.8419
▁भीड़	-10.8424
ीक्षक	-10.8428
ina	-10.8442
्बे	-10.8465
दर्शन	-10.8469
el	-10.847
क्रमण	-10.8499
▁फ्रांस	-10.8501
बाएँ	-10.8507
ate	-10.8512
वृत्त	-10.8531
मीन	-10.8534
▁नकदी	-10.8535
▁वाहि	-10.8549
▁गुल	-10.8567
▁सदृश	-10.8582
टोप	-10.8584
ंकृत	-10.8591
▁सोम	-10.8591
ोचन	-10.8595
21	-10.8596
धारण	-10.8612
▁बीत	-10.8624
▁45	-10.8635
▁प्रोफ	-10.8644
ियोज	-10.8659
▁क़ब्	-10.8677
▁उन्ही	-10.8681
इयों	-10.8692
त्तर	-10.8717
▁अन्तर्ग	-10.8727
▁असफलता	-10.8735
▁उल्	-10.8741
31	-10.8753
▁नै	-10.8766
▁लार	-10.8796
▁वाट	-10.8804
▁बोलत	-10.8844
श्रम	-10.8854
लोर	-10.8863
▁चूर	-10.8863
टाइप	-10.8868
डिग	-10.8891
bo	-10.8899
▁विशिष्टता	-10.8931
▁कार्यान्व	-10.8934
▁सब्ज	-10.894
ाइव	-10.8942
▁लम्ब	-10.8949
ic	-10.8953
त्रियों	-10.8971
बड़े	-10.8976
▁प्रभा	-10.8984
ुए	-10.8988
प्रदेश	-10.8991
मोहम्मद	-10.8992
लॉग	-10.8993
▁ट्रै	-10.8994
चिह्न	-10.8996
आउट	-10.8996
पत्नी	-10.8996
आसमान	-10.8999
विशेष	-10.8999
कहीं	-10.9
निश्चय	-10.9
लियम	-10.9002
मोट	-10.9003
क्योंकि	-10.9004
वित्त	-10.9006
सागर	-10.9007
आपको	-10.9009
प्रभाव	-10.9012
भारतीय	-10.9018
न्यू	-10.9025
▁90	-10.9027
ांक	-10.9029
▁ख्वा	-10.903
न्दु	-10.9036
खुदा	-10.904
न्यास	-10.9041
लेखा	-10.9043
संघ	-10.905
▁ज़्याद	-10.9051
▁निकाय	-10.9053
व्याप	-10.9071
▁सृज	-10.9091
▁फॉर	-10.9093
जिस्ट्रे	-10.9096
कम्प	-10.9097
▁जानेवाल	-10.9104
▁प्रिंट	-10.911
िकुड	-10.9111
पाठ	-10.9114
▁हिम	-10.9122
▁रिश्ते	-10.9128
▁नवान्वेष	-10.9129
j	-10.9131
ent	-10.9133
बूझ	-10.9133
	-10.9133
पालिका	-10.9133
रेशन	-10.9135
▁शांत	-10.9135
एनआर	-10.9136
▁पौ	-10.9136
अफ्रीक	-10.9136
.09.201	-10.9137
▁ध्रुव	-10.9137
▁मेट्रो	-10.9137
Generic	-10.9137
नुत्फे	-10.9137
संदिग्ध	-10.9137
▁अरक्तता	-10.9137
▁आक्रामक	-10.9137
▁उत्कीर्ण	-10.9137
▁ऊँट	-10.9137
▁एहसान	-10.9137
▁ओडिशा	-10.9137
▁क्लिपबोर्ड	-10.9137
▁जिंदगी	-10.9137
▁जुर्मान	-10.9137
▁जॉर्ज	-10.9137
▁डेल्टा	-10.9137
▁ड्राफ्ट	-10.9137
▁तमिलनाडु	-10.9137
▁दार्शनिक	-10.9137
▁निर्वहन	-10.9137
▁प्रारम्भ	-10.9137
▁ब्रैसेरो	-10.9137
▁मलयालम	-10.9137
▁महोत्सव	-10.9137
▁मामूली	-10.9137
▁मुशरिक	-10.9137
▁यौगिक	-10.9137
▁रिकॉर्ड	-10.9137
▁वाजपेयी	-10.9137
▁वाशिंग	-10.9137
▁वैयक्ति	-10.9137
▁शौहर	-10.9137
▁सर्वप्रथम	-10.9137
▁सांख्यिकी	-10.9137
afr	-10.9137
▁एजेंसियों	-10.9137
▁घुटन	-10.9137
▁घुड़	-10.9137
▁छिद्र	-10.9137
▁जरिये	-10.9137
▁धन्यवाद	-10.9137
▁ब्रह्म	-10.9137
▁शुष्क	-10.9137
▁स्लाइड	-10.9137
▁स्वप्न	-10.9137
▁हरियाणा	-10.9137
रिवाज	-10.9137
▁उत्सुक	-10.9137
▁घायल	-10.9137
▁मालदीव	-10.9137
▁स्वेच्छा	-10.9137
▁लपेट	-10.9137
▁शोभा	-10.9137
▁संबन्ध	-10.9137
▁सुल्तान	-10.9137
▁स्कैन	-10.9137
रिसालत	-10.9137
▁सम्राट	-10.9137
▁for	-10.9137
▁खुशहाली	-10.9137
ज्यादत	-10.9137
▁उत्तराखंड	-10.9137
▁मिथ्या	-10.9137
्भुत	-10.9137
▁पहेल	-10.9137
▁क्रियान्व	-10.9137
ावधि	-10.9137
▁सहभागी	-10.9137
RAN	-10.9137
▁कौंस	-10.9137
▁अस्थिरता	-10.9137
क्सीजन	-10.9137
▁डेयरी	-10.9137
▁जर्नल	-10.9137
▁पचास	-10.9137
▁लॉन्च	-10.9137
▁ऊंट	-10.9137
▁ज्वर	-10.9137
▁मकबर	-10.9137
▁कुशाद	-10.9137
▁मलेशिया	-10.9137
▁ज्ञात	-10.9137
▁फूट	-10.9137
▁शर्म	-10.9138
▁अहमदाबाद	-10.9138
▁शल्य	-10.9138
▁यकीन	-10.9138
▁थैल	-10.9138
▁it	-10.9138
▁भूतपूर्व	-10.9138
▁ढूँढ	-10.9138
▁स्याह	-10.9138
▁विद्यालय	-10.9138
गूगल	-10.9138
▁मेनू	-10.9138
▁बंदरगाह	-10.9138
चानक	-10.9138
ैद	-10.9138
▁अनुयाय	-10.9138
्सिडी	-10.9138
▁दक्षता	-10.9138
बन्धु	-10.9138
▁लकीर	-10.9138
▁क़्यों	-10.9138
▁अनुपस्थित	-10.9138
▁ब्रेक	-10.9138
this	-10.9138
▁सांविध	-10.9138
▁गुलाम	-10.9138
▁अलिफ़	-10.9138
आईओए	-10.9139
▁निपटन	-10.9139
▁बरबाद	-10.9139
▁रसीद	-10.9139
▁चिड़िया	-10.9139
▁2003	-10.9139
▁अर्जुन	-10.9139
▁विधायिका	-10.9139
▁फारस	-10.9139
▁वक्र	-10.9139
प्रेत	-10.9139
▁इन्ते	-10.9139
ड्यूटी	-10.9139
▁चिन्ह	-10.9139
च्छाद	-10.9139
▁ख़राब	-10.9139
▁इराक	-10.914
▁ट्रेन	-10.914
ोद्	-10.914
▁व्याकरण	-10.914
▁चश्म	-10.914
▁पट्टे	-10.914
▁राजभाषा	-10.914
▁प्लेयर	-10.914
▁बेपरवा	-10.914
▁मानदंड	-10.914
age	-10.914
▁शुरु	-10.914
▁बहुमुख	-10.914
▁नानक	-10.9141
▁यज्ञ	-10.9141
▁रात्रि	-10.9141
▁स्वयंसेव	-10.9141
▁फैक्ट	-10.9141
▁ट्रेड	-10.9141
हम्मद	-10.9141
▁तख्त	-10.9141
▁दिखायी	-10.9141
▁चमत्क	-10.9141
▁लाठी	-10.9141
▁कहानियों	-10.9141
▁अवरोध	-10.9142
▁बागान	-10.9142
▁अंशदान	-10.9142
्वेष	-10.9142
▁प्रणालिय	-10.9142
▁सुगम	-10.9142
▁फोक	-10.9142
▁सन्देश	-10.9142
▁गुनाहगार	-10.9142
▁कामयाब	-10.9142
▁इसीलिए	-10.9143
▁छांट	-10.9143
AR	-10.9143
आँकड़ा	-10.9143
▁क़ाबिल	-10.9143
▁सूजन	-10.9144
स्फी	-10.9144
▁चिड़ी	-10.9144
▁हुर्इ	-10.9144
▁धमक	-10.9144
▁मेजर	-10.9145
▁कुष्ठ	-10.9145
▁नवीकरण	-10.9145
▁विद्या	-10.9145
▁CD	-10.9145
▁स्वर्ग	-10.9145
▁संपन्न	-10.9146
▁टेली	-10.9146
▁भ्रमण	-10.9146
▁ढोल	-10.9147
▁गेहूं	-10.9147
▁उपयोगिता	-10.9148
▁मॉँ	-10.9148
▁संक्रिया	-10.9149
▁अभ्य	-10.9149
▁सर्विस	-10.915
▁हिंदु	-10.915
▁जरुरत	-10.915
▁बुलाओ	-10.915
▁हिम्म	-10.915
▁गोपन	-10.915
▁कारखान	-10.915
▁निर्गम	-10.9151
▁राजपत्र	-10.9152
्ड	-10.9152
▁दुरु	-10.9153
▁कुलपति	-10.9153
▁सिक्किम	-10.9154
▁भत्ता	-10.9154
▁रखेंगे	-10.9154
▁तारीख़	-10.9154
▁बनो	-10.9154
▁वस्त्र	-10.9155
▁टैक्स	-10.9156
▁लम्बाई	-10.9156
▁हटाएँ	-10.9157
▁पंख	-10.9157
▁ढूंढें	-10.9157
▁ठहराया	-10.9159
▁अम्ल	-10.916
▁मिथ	-10.9161
▁सांसद	-10.9162
▁ज्यादातर	-10.9162
▁अड्ड	-10.9163
▁माँगो	-10.9163
▁करूंगा	-10.9164
ोर्ड	-10.9164
▁ऊँचाई	-10.9166
▁भटक	-10.9166
▁एण्ड	-10.9166
▁दबाव	-10.9166
▁हाइड्रोज	-10.9168
▁कीटनाशक	-10.9168
▁जवान	-10.9168
राधिक	-10.9169
▁नीच	-10.917
▁51	-10.917
ख़रा	-10.9171
▁ईस्ट	-10.9174
▁पुरी	-10.9175
▁मेटा	-10.9175
▁बताये	-10.9176
भद्र	-10.9179
▁{0}	-10.9179
▁मुसीबत	-10.9179
▁निरीक्षण	-10.9179
▁इंग्लै	-10.9179
▁चाँद	-10.9179
▁निदेशालय	-10.9179
▁फूँक	-10.918
▁अनुष	-10.9181
▁समझदार	-10.9181
▁माँगता	-10.9184
per	-10.9186
▁प्रशासक	-10.9186
▁सकाः	-10.9188
▁पुस्तकें	-10.9189
▁पाठ्य	-10.9189
▁पिछड़ा	-10.9192
कूब	-10.9192
ाधिकारी	-10.9192
छुप	-10.9193
▁रूख	-10.9193
▁रुपया	-10.9194
▁वैद	-10.9195
▁डालत	-10.9195
▁फर्म	-10.9196
▁पावर	-10.9196
▁बचाव	-10.9197
▁भ्रम	-10.9197
▁अय्य	-10.9197
▁पहुँचाया	-10.9198
व्यक़्ति	-10.92
▁मध्यस्थ	-10.92
▁साझेदारी	-10.92
▁पक्का	-10.9201
▁मैच	-10.9201
▁देनेवाला	-10.9204
▁पूछो	-10.9205
तिमाह	-10.9206
▁धो	-10.9206
▁स्वामि	-10.9208
▁वशीभ	-10.9208
▁2018	-10.9209
▁सिक्का	-10.921
▁लम्बा	-10.9211
▁रुचि	-10.9211
▁मोटर	-10.9212
▁परीक्षक	-10.9212
दिरा	-10.9213
ारिज	-10.9214
ty	-10.9215
▁टिकट	-10.9215
▁कराती	-10.9216
भूति	-10.9217
▁संतुलन	-10.9218
▁पतंग	-10.9219
▁आन्	-10.9221
▁सुद	-10.9226
▁बोलना	-10.923
▁संकल्पना	-10.9233
▁आदर	-10.9233
▁अवधारणा	-10.9234
▁दिखाएं	-10.9236
▁संधि	-10.9238
ेरिक	-10.9242
▁तलाक	-10.9245
▁पात्रता	-10.9246
▁आंखे	-10.9247
▁मान्य	-10.9255
▁जज	-10.9258
▁नीला	-10.9273
ियॉ	-10.9276
ुँ	-10.9283
▁बताना	-10.9285
CS	-10.9286
ैति	-10.9287
▁व्यास	-10.9293
▁बन्दर	-10.9294
▁साम्	-10.9294
▁फ़ो	-10.9295
▁निकालना	-10.9295
▁ग्रेट	-10.9301
▁रोकना	-10.9304
▁दफ	-10.9308
▁छोड़ो	-10.9309
िचित	-10.9309
▁विपक्ष	-10.9312
▁डालना	-10.9313
आज्ञाकारी	-10.9316
ग्रो	-10.9317
▁सौंपा	-10.9318
▁साइन	-10.9321
-10	-10.9325
▁बहर	-10.9331
हाक़	-10.9332
▁जानेवाले	-10.9333
▁राज्	-10.9335
स्थान	-10.9336
रोग	-10.9337
▁निशानिय	-10.9346
▁आयाम	-10.9352
रदार	-10.9352
▁जाएँगें	-10.9362
▁कमरे	-10.9369
▁बढ़ाई	-10.937
▁डालर	-10.9371
▁समझकर	-10.9372
▁भरें	-10.9373
ख़िल	-10.9374
ाहट	-10.9374
▁स्वाद	-10.9375
▁आयकर	-10.9375
▁साइक	-10.9377
▁सिद्धांतों	-10.9384
हस्तांतरण	-10.9391
फाइ	-10.9395
▁ख़ाक	-10.9397
▁आर्य	-10.9398
घात	-10.9399
▁बदलना	-10.9402
▁गिना	-10.9403
37	-10.9409
▁अवसा	-10.9412
ताछ	-10.9416
▁पूर्वज	-10.9426
▁भूत	-10.9431
MA	-10.9431
▁अपूर्ण	-10.944
िधान	-10.9442
▁सिले	-10.9462
▁नूर	-10.9463
▁उल्ल	-10.9471
संहार	-10.9472
▁स्टाफ	-10.9476
गुआ	-10.9478
▁कारग	-10.9481
प्लस	-10.9486
▁पड़नेवाल	-10.9488
▁मोटी	-10.9492
ूतों	-10.9497
▁निर्म	-10.9505
▁निवृत्त	-10.9519
हीनता	-10.9521
ou	-10.9523
लंकार	-10.9536
▁सोने	-10.9546
कस्म	-10.9547
▁महत	-10.9569
▁फज़	-10.9576
▁चुनत	-10.9579
▁प्रवृत्ति	-10.958
▁निर्यातक	-10.9594
▁खंज	-10.9594
चेत	-10.96
▁झूठा	-10.9615
्पन्न	-10.9615
▁टि	-10.9622
▁चित्रकार	-10.963
मोर	-10.9633
▁गुर	-10.9635
ूच	-10.9637
▁हड्डिय	-10.9642
▁शास	-10.9654
ुप	-10.9656
ंतर	-10.966
खिक	-10.9664
चिका	-10.9666
▁पाट	-10.9672
टाउन	-10.9704
▁लाये	-10.9705
▁बहुमूल्	-10.9712
▁बकर	-10.9724
▁नाल	-10.9729
शान	-10.973
▁पैसे	-10.9732
संवेद	-10.9738
▁प्रिय	-10.9748
▁विधाय	-10.9749
शर्ते	-10.9754
यकता	-10.9763
▁उन्म	-10.9768
pe	-10.9774
▁रजिस्ट्र	-10.9806
स्तान	-10.9806
बिन	-10.9812
▁अग्रस	-10.9814
▁64	-10.9814
▁काउं	-10.9866
डीई	-10.9866
बेड	-10.9897
वियत	-10.99
लौह	-10.9905
▁जोड़ा	-10.9908
il	-10.9912
़्या	-10.9924
▁छिपात	-10.9929
योजना	-10.9935
हाद	-10.9967
▁ग्	-10.9971
▁ऑपरेट	-10.9986
▁शिक	-10.9987
▁पार्	-11.0003
पेल	-11.001
▁रखत	-11.0019
श्च	-11.0021
इस्	-11.0023
ुलर	-11.0031
कृष्णन	-11.0038
▁सांप	-11.0055
वाया	-11.0055
▁विक्र	-11.0058
ओगे	-11.0066
▁साय	-11.0085
स्वर	-11.0085
86	-11.0099
▁थक	-11.0104
पिता	-11.0109
ख्त	-11.0118
▁ब्रि	-11.0125
▁फर	-11.0147
▁अशक्त	-11.0164
चुर	-11.0171
पयोग	-11.0193
▁187	-11.0199
▁रोम	-11.0203
▁ऑपरे	-11.0204
▁रखनेवाल	-11.0208
40	-11.0213
▁थॉ	-11.022
RS	-11.022
ोटो	-11.0225
▁औषधि	-11.0226
▁प्रविष्ट	-11.0227
▁दिखाए	-11.0234
▁पुर्ज	-11.0259
लीस	-11.027
१०	-11.0276
▁भु	-11.0309
िटर	-11.031
▁पाव	-11.0343
विजन	-11.0347
▁बैठा	-11.0348
द्घ	-11.035
विच	-11.0373
▁टॉम	-11.0377
ाइप	-11.0379
आम	-11.0389
▁विधा	-11.0423
▁मूर्त	-11.0444
दूर	-11.0457
्रेड	-11.0469
वस्था	-11.0482
आधा	-11.0516
विधियों	-11.0519
कोप	-11.0535
▁वाक	-11.0567
▁1000	-11.0586
lu	-11.0588
क्टर	-11.0589
▁आश्व	-11.06
िश्च	-11.0625
टिक्स	-11.0626
▁तुम्ह	-11.0628
साधक	-11.0632
▁विश्	-11.0633
कॉम	-11.0639
रचित	-11.065
गिन	-11.0683
ँकि	-11.0705
▁रेट	-11.0725
रेटर	-11.074
दूत	-11.0743
▁पीत	-11.0754
oo	-11.0761
▁गान	-11.0767
▁85	-11.0774
▁पोष	-11.0779
▁फुट	-11.0781
ोल्ड	-11.0795
ष्टि	-11.0815
बाला	-11.0837
▁be	-11.0844
काउंट	-11.0855
क्यू	-11.0856
▁महारा	-11.0858
▁सकत	-11.0864
▁लै	-11.0876
▁आकड	-11.0894
▁जमाओ	-11.09
▁उपाध्य	-11.0929
कृष्ण	-11.0947
▁टूल	-11.0984
यात्रा	-11.0992
▁जरूर	-11.0993
चक्र	-11.0994
द्वितीय	-11.0994
कुफ्फ़ार	-11.0995
मूर्ति	-11.0995
स्मृति	-11.0996
संस्कृत	-11.0996
महिला	-11.0997
रोजगार	-11.0998
राशि	-11.0998
ख़ुश	-11.0998
पसंद	-11.0998
डेटा	-11.0999
क़ौम	-11.0999
विन्यास	-11.0999
सदस्य	-11.0999
प्रणाली	-11.0999
बैठक	-11.0999
अच्छे	-11.1
पीछे	-11.1
स्वच्छ	-11.1
सुरक्षित	-11.1002
▁प्या	-11.1002
तुम्हे	-11.1002
संचार	-11.1004
व्यक्ति	-11.1004
................	-11.1006
स्पष्ट	-11.1007
▁भागीदार	-11.101
जिहा	-11.1011
दीप	-11.1011
सरकारी	-11.1011
वर्धन	-11.1012
किताब	-11.1012
षाण	-11.1013
बोर्ड	-11.1014
प्रवाह	-11.1015
▁नमून	-11.1018
क्यों	-11.1022
कूट	-11.1025
नीचे	-11.1034
खबर	-11.1034
जिसमें	-11.1034
़ूब	-11.1036
▁शरण	-11.104
▁प्रदूष	-11.1049
▁निराश	-11.1051
▁सिक्क	-11.1051
इतन	-11.1054
आधारी	-11.1054
ेंशन	-11.1069
लाभ	-11.1082
▁निदेश	-11.1094
दिर	-11.1101
▁72	-11.1101
रें	-11.1102
▁संतुल	-11.1105
घाट	-11.1109
▁आवश्य	-11.111
▁II	-11.1111
▁कोटि	-11.1114
▁जरुर	-11.1122
▁जानकार	-11.1125
▁मानें	-11.1127
.04.201	-11.1128
ome	-11.1128
▁मिश्र	-11.1129
▁माध्य	-11.1129
▁अहं	-11.1134
▁नीलाम	-11.1134
▁जिम्मे	-11.1135
षेध	-11.1135
▁वाक़िफ	-11.1136
र्पोरे	-11.1136
कृष्ट	-11.1136
▁मूत्र	-11.1137
▁अफगान	-11.1137
tur	-11.1137
▁एमएसएम	-11.1137
▁सौभाग्य	-11.1137
HTML	-11.1137
LIN	-11.1137
ania	-11.1137
cap	-11.1137
cket	-11.1137
उपनिषद	-11.1137
ज्योति	-11.1137
▁whats	-11.1137
▁अक्टूबर	-11.1137
▁अग्रेषित	-11.1137
▁अभियोजन	-11.1137
▁आस्ट्रेलिया	-11.1137
▁इंटरफेस	-11.1137
▁एल्गोरिथ्म	-11.1137
▁औज़ार	-11.1137
▁कंपोजर	-11.1137
▁क्षेञ	-11.1137
▁जनजातीय	-11.1137
▁टाइम्स	-11.1137
▁डिरेक्ट्री	-11.1137
▁नाशुक्र	-11.1137
▁निष्पादन	-11.1137
▁निहायत	-11.1137
▁परिपक्व	-11.1137
▁पॉपअप	-11.1137
▁फ़ायदा	-11.1137
▁बल्लेबाज	-11.1137
▁भूकंप	-11.1137
▁मुअय्य	-11.1137
▁मुख्यमंत्री	-11.1137
▁समझौतों	-11.1137
▁सर्वश्रेष्ठ	-11.1137
▁सिक्ख	-11.1137
▁सूचकांक	-11.1137
▁हकीकत	-11.1137
▁उर्वरक	-11.1137
▁कबूतर	-11.1137
▁ग्यारह	-11.1137
▁टैंक	-11.1137
▁ठाकुर	-11.1137
▁तात्पर्य	-11.1137
▁निर्दोष	-11.1137
▁पूंछ	-11.1137
▁प्रगाढ़	-11.1137
▁प्रतिबिम्ब	-11.1137
▁फ्लैग	-11.1137
▁मर्यादा	-11.1137
▁मुताबिक	-11.1137
▁वर्गमूल	-11.1137
▁वातानुकूल	-11.1137
▁वैचारिक	-11.1137
▁अनुबंध	-11.1137
▁चार्ल्स	-11.1137
▁नियमावली	-11.1137
▁मणिपुर	-11.1137
▁स्नायु	-11.1137
▁दुविधा	-11.1137
▁परिवेश	-11.1137
▁प्रतिस्थाप	-11.1137
▁मज़बूत	-11.1137
▁श्वेत	-11.1137
key	-11.1137
फौरन	-11.1137
▁तापमान	-11.1137
▁फोलो	-11.1137
▁त्यौ	-11.1137
▁सत्याग्रह	-11.1137
▁निश्चल	-11.1137
▁पाबन्दी	-11.1137
▁बागवानी	-11.1137
▁उत्तेज	-11.1137
▁दाँत	-11.1137
▁धारित	-11.1137
▁रावण	-11.1137
▁चेष्टा	-11.1137
▁स्त्रियाँ	-11.1137
▁कार्मिक	-11.1137
▁US	-11.1137
▁अभिदाता	-11.1137
▁आशंका	-11.1137
▁अखबार	-11.1137
▁स्तूप	-11.1137
▁स्थूल	-11.1137
▁अकादम	-11.1137
▁खुल्लम	-11.1137
▁टर्मिनल	-11.1137
▁अवयव	-11.1137
▁झुलस	-11.1137
▁आसियान	-11.1137
▁पिघल	-11.1137
▁गवर्नर	-11.1137
▁लुढ़क	-11.1137
▁शौक	-11.1137
▁कनाडा	-11.1137
श्चिन्त	-11.1138
▁इंतजा	-11.1138
▁वितरित	-11.1138
▁अल्पसंख्यक	-11.1138
▁हकदार	-11.1138
▁श्रोता	-11.1138
▁हिन्दुस्तान	-11.1138
▁अनुपम	-11.1138
▁उन्माद	-11.1138
▁फायर	-11.1138
▁पैनल	-11.1138
▁मज़दूर	-11.1138
▁बिछा	-11.1138
▁सतीश	-11.1138
उपनगरीय	-11.1138
▁पोशीद	-11.1138
▁अटकल	-11.1138
▁स्नेह	-11.1138
▁अमृत	-11.1138
ान्तरण	-11.1138
.01.201	-11.1138
▁बफर	-11.1138
▁लाहौ	-11.1138
▁वास्तुक	-11.1138
▁चोंच	-11.1138
▁चिल्ला	-11.1138
action	-11.1138
▁तनाव	-11.1138
▁स्नान	-11.1138
▁प्रताप	-11.1138
▁आभास	-11.1138
▁डिबग	-11.1138
▁पर्वतमाला	-11.1138
▁जमाअत	-11.1138
▁पड़ोसी	-11.1138
ica	-11.1138
इरादा	-11.1138
▁अमानत	-11.1138
▁प्रत्यर्थ	-11.1139
मग्न	-11.1139
पारदर्शी	-11.1139
▁डॉक्टर	-11.1139
▁तत्परता	-11.1139
▁निर्देशांक	-11.1139
रोकथाम	-11.1139
▁तिलक	-11.1139
▁स्वाधीन	-11.1139
▁विमानक्षेत्र	-11.1139
▁काबुल	-11.1139
▁उन्हे	-11.1139
▁सज्जनो	-11.1139
▁23.	-11.1139
▁ब्राउज	-11.1139
▁महासागर	-11.1139
▁काउंटर	-11.1139
▁गर्भाशय	-11.1139
▁गुस्स	-11.1139
ल्लाह	-11.114
विवेक	-11.114
▁मूर्तिकला	-11.114
▁अभिलाभ	-11.114
पेरिस	-11.114
▁धूम्र	-11.114
▁मंगल	-11.114
▁1996	-11.114
युवक	-11.114
▁ख़ज़ान	-11.114
▁अमीर	-11.114
दोलन	-11.114
▁इख्त	-11.114
▁डिब्ब	-11.114
▁करूं	-11.1141
▁बुराइयों	-11.1141
▁स्वरुप	-11.1141
▁स्वतन्त्र	-11.1141
▁ज़िम्मेदार	-11.1141
▁एजेंसी	-11.1141
्टवेयर	-11.1141
▁इक़रार	-11.1141
▁उपराष्ट्रपति	-11.1141
▁महाभारत	-11.1141
IL	-11.1142
▁संव्यवहार	-11.1142
बम्बई	-11.1142
▁झुकाव	-11.1142
▁दूंगा	-11.1142
▁दायाँ	-11.1142
पाँव	-11.1142
▁लाभांश	-11.1142
▁श्रीकृष्ण	-11.1142
▁सम्मुख	-11.1142
▁विरल	-11.1142
▁ID	-11.1143
मिस्र	-11.1143
▁विक्रेता	-11.1143
ard	-11.1143
▁कैमर	-11.1143
▁निर्माता	-11.1143
▁कानपुर	-11.1143
▁सहारा	-11.1143
end	-11.1143
▁शपथ	-11.1144
▁तालिका	-11.1144
▁In	-11.1144
▁भुला	-11.1144
▁निंदा	-11.1144
▁प्रचुर	-11.1144
▁1948	-11.1144
tle	-11.1144
▁पाचन	-11.1144
▁संगणन	-11.1144
इयाँ	-11.1145
▁सुन्दर	-11.1145
▁2001	-11.1145
▁घोल	-11.1145
▁सारांश	-11.1145
▁छिपाओ	-11.1146
▁अंगूर	-11.1146
▁विनिय	-11.1146
▁मरतब	-11.1146
▁मनाही	-11.1147
▁घराने	-11.1147
▁शीर्षिका	-11.1148
चन्द	-11.1148
▁परिस्थिति	-11.1148
▁बनावट	-11.1148
▁हफ्त	-11.1148
▁रिहा	-11.1149
▁अनुशासन	-11.1149
▁इन्द्र	-11.1149
ार्जन	-11.1149
▁जॉन	-11.1149
▁स्पेन	-11.1149
▁बाधाओं	-11.1149
▁केन्या	-11.115
▁पन्ना	-11.115
ीजिए	-11.115
ET	-11.1151
▁प्रतिनिधियों	-11.1151
▁स्वभाव	-11.1152
▁सिखाया	-11.1152
यहूदियों	-11.1152
we	-11.1153
▁पंथ	-11.1153
▁भव्य	-11.1154
▁मीठ	-11.1155
▁फरमाया	-11.1156
▁चांद	-11.1156
▁बैंड	-11.1156
ाचार्य	-11.1156
▁रैम	-11.1156
▁चिकन	-11.1156
एक्स	-11.1156
▁अधिवेशन	-11.1156
▁अनुभाग	-11.1157
▁घास	-11.1158
▁प्रतिरोध	-11.1158
▁संतोष	-11.1158
▁सतत्	-11.1158
फॉर्म	-11.1158
▁राज्यक्षेत्र	-11.1158
ड्यू	-11.1159
▁अभियुक्त	-11.1159
▁केशव	-11.1159
▁02	-11.1159
▁गंध	-11.116
▁अवतार	-11.116
▁भागवत	-11.116
▁बीबी	-11.116
ोद्धा	-11.1161
▁टेढ़	-11.1161
दीक़	-11.1162
▁पारस्	-11.1163
▁कार्यनीति	-11.1163
▁आरेख	-11.1164
▁बिल्ड	-11.1164
एफसी	-11.1164
संख़्य	-11.1165
▁कब्र	-11.1165
▁लायक	-11.1165
▁फैलाया	-11.1165
▁वार्ड	-11.1166
थड़े	-11.1167
▁संभाग	-11.1167
▁उन्नति	-11.1168
▁मचा	-11.1168
▁राख	-11.1169
▁चलेगा	-11.117
▁अर्द्ध	-11.117
ुष	-11.117
▁चार्ट	-11.1171
▁अनंत	-11.1172
▁उपहार	-11.1172
▁50%	-11.1173
▁क्रय	-11.1174
▁सिटी	-11.1175
▁मायन	-11.1176
ॉफ़	-11.1176
▁विचल	-11.1176
▁चुरा	-11.1177
महाद्वीप	-11.1177
im	-11.1177
▁इंजन	-11.1179
▁सेंटर	-11.1181
▁परियोजनाएं	-11.1181
▁नौका	-11.1183
▁आएगी	-11.1184
दंड	-11.1185
▁गुमान	-11.1185
घातक	-11.1187
▁लगेगा	-11.1187
▁एहकाम	-11.1189
▁गोविंद	-11.1189
▁नाफ़रमानी	-11.1189
▁फ़िरऔन	-11.1189
▁उर्दू	-11.1189
▁शिल्प	-11.1189
▁बांग्लादेश	-11.1189
▁परम्परा	-11.1189
▁मील	-11.1189
▁शेर	-11.1191
जेए	-11.1191
▁सकेगी	-11.1191
▁पराज	-11.1194
IC	-11.1195
▁ढाल	-11.1195
पचय	-11.1196
श्न	-11.1196
▁रै	-11.1198
▁वस्तुएं	-11.1198
▁पुकारो	-11.1198
▁दिसम्बर	-11.1198
▁मक़	-11.1199
▁हाइ	-11.12
▁अस्था	-11.12
▁एजेन्स	-11.12
▁एल्ब	-11.1201
▁फीस	-11.1204
▁जौ	-11.1204
▁सूरत	-11.1204
▁उड़ाई	-11.1205
▁क़ब्र	-11.1207
▁बछ	-11.1211
▁मोती	-11.1215
▁स्थिरता	-11.1217
▁उगा	-11.1217
गुज़ार	-11.1217
▁ढील	-11.1218
▁संचयन	-11.1218
▁संबोधन	-11.1218
▁पटना	-11.1218
आज्ञापालन	-11.1219
▁प्रदूषक	-11.1219
▁हिज	-11.1221
▁वुड	-11.1221
▁आक्षेप	-11.1222
▁जुलत	-11.1223
▁लानेवालों	-11.1225
▁निराशा	-11.1225
▁पैके	-11.1228
▁मुद्रित	-11.1228
ंथन	-11.1229
▁सुंदरता	-11.1231
▁तौल	-11.1233
स्थल	-11.1236
▁दिखला	-11.1238
▁सिंधु	-11.1241
स्कोप	-11.1241
▁उपास	-11.1242
▁रखनेवाला	-11.1244
जागर	-11.1245
▁पड़ना	-11.1247
▁अहम	-11.1248
▁दिखता	-11.1253
▁दमन	-11.1254
सुथर	-11.1256
▁मारते	-11.1257
विलास	-11.1259
▁सींग	-11.1259
डाक	-11.126
▁व्याख्यान	-11.1261
द्योग	-11.1262
▁नियंत्रक	-11.1263
...............	-11.127
MB	-11.127
▁साहा	-11.1272
ांत्रिक	-11.1273
पीले	-11.1275
▁करूँ	-11.1279
बाज़	-11.1282
▁विमानन	-11.1283
▁गज़	-11.1284
▁रोच	-11.1286
▁लंग	-11.1286
डीएम	-11.1288
▁साख	-11.1295
▁डालो	-11.13
▁नारिय	-11.1303
एक्ज	-11.1303
▁पाइ	-11.1308
▁पुस्	-11.1316
▁खोलना	-11.1317
खख	-11.132
▁आस्ति	-11.1321
▁विज़	-11.1324
▁मधुम	-11.1331
लाइट	-11.1334
जोखा	-11.1335
चर्म	-11.1345
▁अंगार	-11.1362
▁हमास	-11.1369
दर्श	-11.1375
▁ऑं	-11.1378
▁ह्य	-11.1398
आईडी	-11.1401
▁अर्थशास्त्र	-11.1402
म्भ	-11.1404
उदाहरणार्थ	-11.1404
▁ताड़	-11.1406
ru	-11.1414
▁फिट	-11.1429
ठान	-11.144
सल्ल	-11.1464
▁ताना	-11.1475
▁सीरिया	-11.1476
इंग	-11.1479
बंगल	-11.1484
▁खाद	-11.1484
▁स्टेट	-11.1487
▁छत	-11.1497
▁बॉल	-11.1497
म्बक	-11.1503
यूसुफ़	-11.1507
प्रीम	-11.1512
▁जरा	-11.1524
बुर्द	-11.1544
▁अधिनिर्ण	-11.1548
थोड	-11.1562
▁खड	-11.1577
▁ग्ल	-11.1598
▁रिप	-11.1604
▁मुर्दा	-11.1604
र्थक	-11.1608
साफ़	-11.1612
रोटी	-11.1628
द्दत	-11.163
ार्जि	-11.1631
होंन	-11.164
गन्ध	-11.1648
अंत	-11.1687
कैले	-11.1691
▁नरम	-11.1714
400	-11.1733
मैट	-11.1737
ग़ज़	-11.1748
लेख	-11.1748
▁जुटा	-11.1785
▁तत्	-11.1787
▁निरस्त	-11.1795
▁वाइ	-11.1799
हूर	-11.1831
व्यय	-11.1832
SA	-11.1839
ड़ाई	-11.1857
▁निकालत	-11.1857
▁इतरा	-11.1885
▁चखो	-11.1894
▁पुं	-11.1901
रहमत	-11.1915
द्रा	-11.1918
▁पुनरु	-11.1942
95	-11.1948
सिख	-11.197
▁अभिज्ञा	-11.198
मशीनरी	-11.1992
▁आंत	-11.1999
▁अनुक्रम	-11.2001
▁मसा	-11.2015
विट	-11.2017
ऊद	-11.2042
28	-11.2046
NT	-11.205
▁खल	-11.2062
48	-11.2068
▁स्वराज	-11.2069
▁बरत	-11.2084
इफ	-11.2086
उसक	-11.2091
▁हुय	-11.21
ुलेट	-11.2102
बहार	-11.2102
▁राष्ट्रवाद	-11.212
फू	-11.2121
तीर्ण	-11.2124
डोल	-11.2155
▁दरज	-11.2179
▁बढत	-11.2245
▁डोर	-11.2252
पेशी	-11.228
um	-11.2327
ार्ड	-11.2343
▁निम	-11.2346
gl	-11.2388
▁आनेवाल	-11.2398
un	-11.24
यार्क	-11.2422
▁न्यायाधिक	-11.246
▁ठहर	-11.2471
राज़्य	-11.2493
िन्ह	-11.2503
68	-11.255
▁इब	-11.2559
▁विकृति	-11.2575
▁पहनत	-11.2604
इड	-11.262
TE	-11.2652
▁उद्भ	-11.2667
मूल्य	-11.2667
हुँ	-11.2673
आबाद	-11.27
लादे	-11.2727
▁दुग	-11.2743
▁दब	-11.2752
▁रेत	-11.2774
▁क्रू	-11.2774
▁उठत	-11.2783
▁लटका	-11.2838
भुज	-11.2839
44	-11.2842
▁जाहि	-11.2848
ॉर्ड	-11.2884
▁हड्ड	-11.2907
▁मुख़	-11.291
िफ़	-11.2912
▁टिक	-11.2922
▁खिला	-11.2949
▁निर्धन	-11.2951
ाउंट	-11.2958
रुख	-11.2968
▁प्रवृत्त	-11.3007
ast	-11.3022
बुक	-11.3043
शुद्धता	-11.3123
रांत	-11.3126
वाट	-11.3137
▁अकस	-11.3193
मित्त	-11.3202
▁वास्	-11.3219
०३	-11.3239
OP	-11.3257
▁जुट	-11.3261
▁नीतिया	-11.3318
ैम्प	-11.3333
▁झुठलाए	-11.3335
लग्नक	-11.3338
ph	-11.3393
भूष	-11.3395
ुगु	-11.34
▁प्रशास	-11.3419
▁टुकड़	-11.3433
पहल	-11.3435
गम्य	-11.3443
द्वीप	-11.3446
हेगें	-11.3478
क़ुदरत	-11.349
गठन	-11.3491
▁अवधारण	-11.3491
अर्थात	-11.3491
व्यवहार	-11.3493
विनियमन	-11.3493
स्पर्श	-11.3494
सूत्र	-11.3495
देखो	-11.3495
व्यास	-11.3496
राष्ट्रपति	-11.3496
ध्वनि	-11.3496
विश्वसनीय	-11.3496
{	-11.3497
घोष	-11.3497
इस्लाम	-11.3497
हृदय	-11.3497
जहन्नुम	-11.3498
निहित	-11.3498
पर्याप्त	-11.3498
ग्राहक	-11.3498
भाषाएँ	-11.3498
हिन्दी	-11.3498
निर्धारित	-11.3498
निर्यात	-11.3498
सम्बन्ध	-11.3498
संख्या	-11.3498
भूमि	-11.3499
पद्धति	-11.3499
सामग्री	-11.3499
ज़रूर	-11.3499
साहित्य	-11.3499
आधारित	-11.3499
जवाब	-11.3499
जैसा	-11.35
मूसा	-11.35
संबंध	-11.35
बल्कि	-11.35
अथवा	-11.35
छोड़	-11.35
उन्हें	-11.35
बहुत	-11.35
रसूल	-11.35
▁हिन्द	-11.3502
अल्प	-11.3504
डाउन	-11.3506
प्रक्रिया	-11.3506
राष्ट्र	-11.3507
▁श्रेण	-11.3508
ज़मीन	-11.3509
ख़ास	-11.3509
2005	-11.351
न्याय	-11.3512
▁सिंध	-11.3512
फ़ाइल	-11.3512
▁तुर्क	-11.3513
मार्क	-11.3513
सकता	-11.3518
▁मुकाबल	-11.3519
दहा	-11.3521
ग्राही	-11.3522
▁इकाइय	-11.3531
जहाँ	-11.3535
उनको	-11.354
निजी	-11.355
नाशक	-11.3551
फेर	-11.3552
▁पिछड़	-11.3552
बदल	-11.3556
▁चिंत	-11.3559
▁सजद	-11.3563
श्री	-11.3564
अति	-11.3569
किलो	-11.357
ड़ीसा	-11.3573
▁प्रस्तु	-11.358
गुण	-11.3593
शाय	-11.3595
लग्न	-11.3597
▁समन्व	-11.3602
▁आतंक	-11.3602
िज्ञान	-11.3604
▁ब्लॉ	-11.3611
▁CO	-11.3613
▁Th	-11.3621
▁चेन्न	-11.3626
cu	-11.3627
बर्द	-11.3629
द्रोह	-11.3633
जरत	-11.3634
ूंगा	-11.3634
श्चात्	-11.3635
यन्त्र	-11.3636
▁अब्दुल	-11.3637
▁अतिथि	-11.3637
▁#-#-#-#-#	-11.3637
cts	-11.3637
▁परिसंपत्तिय	-11.3637
.12.201	-11.3637
PRODUCT	-11.3637
clathrate	-11.3637
curr	-11.3637
helf	-11.3637
label	-11.3637
raviratlami	-11.3637
एंपेथी	-11.3637
च्युति	-11.3637
टैरिफ	-11.3637
फ़ैसले	-11.3637
मुशरेकीन	-11.3637
▁Office	-11.3637
▁अँधेर	-11.3637
▁अतएव	-11.3637
▁अन्वेषण	-11.3637
▁अमूर्त	-11.3637
▁अहिल्या	-11.3637
▁आविष्कार	-11.3637
▁इलैक्ट्र	-11.3637
▁ऊष्म	-11.3637
▁एसोसिएशन	-11.3637
▁कठपुतली	-11.3637
▁किर्लोस्कर	-11.3637
▁कृषक	-11.3637
▁क्रोएशिया	-11.3637
▁ख़िलाफ	-11.3637
▁खामोश	-11.3637
▁ग़ुलाम	-11.3637
▁गुनेहगार	-11.3637
▁ग्राफिक्स	-11.3637
▁चिंघाड़	-11.3637
▁डिजायन	-11.3637
▁तदनुसार	-11.3637
▁परिप्रेक्ष्य	-11.3637
▁पैगंबर	-11.3637
▁प्रायद्वीप	-11.3637
▁फिल्टर	-11.3637
▁फॉन्ट	-11.3637
▁बहादुर	-11.3637
▁बुढ़ाप	-11.3637
▁ब्राज़ील	-11.3637
▁मंत्रिपरिषद	-11.3637
▁मख़लूक़ात	-11.3637
▁मराठा	-11.3637
▁मस्ज़िद	-11.3637
▁महानिदेशक	-11.3637
▁महाविद्यालय	-11.3637
▁मुनाफ़िक़	-11.3637
▁मुनाफिक़	-11.3637
▁मॉड्यूल	-11.3637
▁मॉरिशस	-11.3637
▁मौजिज़	-11.3637
▁लश्कर	-11.3637
▁लिमिटेड	-11.3637
▁वामपंथी	-11.3637
▁वास्तुशिल्प	-11.3637
▁विवेचन	-11.3637
▁व्यतिक्रम	-11.3637
▁श्रावण	-11.3637
▁श्रीवास्तव	-11.3637
▁संपरीक्षा	-11.3637
▁समुच्चय	-11.3637
▁सम्प्रदाय	-11.3637
▁सहभागिता	-11.3637
▁साइरिलिक	-11.3637
▁सोसाइट	-11.3637
count	-11.3637
▁ट्रैफिक	-11.3637
▁तश्तरी	-11.3637
▁तुल्यकाल	-11.3637
▁तैनात	-11.3637
▁निष्पक्ष	-11.3637
▁प्लगिन	-11.3637
▁यूनिकोड	-11.3637
▁रासायनिक	-11.3637
▁रिएक्टर	-11.3637
▁विज्ञप्ति	-11.3637
▁वियतनाम	-11.3637
▁श्रीलंका	-11.3637
▁स्वायत्त	-11.3637
▁URI	-11.3637
▁URL	-11.3637
▁उछाल	-11.3637
▁उद्धृत	-11.3637
▁उन्नयन	-11.3637
▁कप्तान	-11.3637
▁गरिमा	-11.3637
▁निवेदित	-11.3637
▁पंचायत	-11.3637
▁महाकाव्य	-11.3637
▁मॉन्टे	-11.3637
▁रेखांकित	-11.3637
▁वफादार	-11.3637
▁विषाक्त	-11.3637
▁सरस्वती	-11.3637
▁स्मार्ट	-11.3637
.10.201	-11.3637
▁आरोग्य	-11.3637
▁इष्टतम	-11.3637
▁काश्मीर	-11.3637
▁वग़ैरह	-11.3637
▁अंटार्कटिक	-11.3637
▁उद्धार	-11.3637
▁चौदह	-11.3637
▁निगेह	-11.3637
▁युसुफ	-11.3637
▁राक्षस	-11.3637
▁रियासत	-11.3637
▁विलक्षण	-11.3637
▁सामग्रिय	-11.3637
▁अलंकरण	-11.3637
▁निर्दय	-11.3637
▁परिसीमा	-11.3637
▁जवाबदेह	-11.3637
▁त्रिपुरा	-11.3637
▁मूठ	-11.3637
▁स्वीडन	-11.3637
▁चौधरी	-11.3637
▁तत्पश्चात	-11.3637
▁परिमाण	-11.3637
▁भण्डार	-11.3637
▁राजशाही	-11.3637
▁वोल्ट	-11.3637
▁अनुष्ठान	-11.3637
▁चुपके	-11.3637
▁टेक्न	-11.3637
▁पहुच	-11.3637
▁वयस्क	-11.3637
▁स्पैम	-11.3637
▁हिमनद	-11.3637
▁ड्रम	-11.3637
▁भ्रू	-11.3637
▁मत्स्य	-11.3637
▁मलेरिया	-11.3637
▁मेमोरी	-11.3637
▁रसोई	-11.3637
▁करुणा	-11.3637
▁पितामह	-11.3637
पचारिक	-11.3637
▁अध्यापकों	-11.3637
▁आयुर्वेद	-11.3637
▁प्रस्तुतिकरण	-11.3637
▁मुआवज	-11.3637
▁सिनेमा	-11.3637
महोदय	-11.3637
▁कड़ियाँ	-11.3637
ख्याति	-11.3637
भैरव	-11.3637
▁अभिभावक	-11.3637
▁चतुर्थ	-11.3637
▁फ़ज़ल	-11.3637
▁सपाट	-11.3637
▁उपहास	-11.3637
▁जंतु	-11.3637
▁सिंहासन	-11.3637
▁चिन्ता	-11.3637
▁रियायत	-11.3637
view	-11.3637
▁कट्टर	-11.3637
▁गड़बड़	-11.3637
▁शिविर	-11.3637
▁पुनरावृत्त	-11.3637
▁मंज़िले	-11.3637
▁शेख़ी	-11.3637
▁विराट	-11.3637
▁बिगड़	-11.3638
▁खैर	-11.3638
▁ढाँच	-11.3638
▁ब्लू	-11.3638
▁सांप्रदायिक	-11.3638
ताक़तवर	-11.3638
▁देशीराज्य	-11.3638
▁चैक	-11.3638
▁खुराक	-11.3638
▁डुबो	-11.3638
▁लोकायुक्त	-11.3638
ormat	-11.3638
ुअल	-11.3638
▁मीनार	-11.3638
▁विधवा	-11.3638
▁पेशेवर	-11.3638
सोर्स	-11.3638
▁बहुलवाद	-11.3638
▁अविलंब	-11.3638
-04	-11.3638
amp	-11.3638
▁एक्सेसेब	-11.3638
▁जकड़	-11.3638
▁ढलान	-11.3638
▁उच्चारण	-11.3638
▁बांग्ल	-11.3638
▁रूपान्तर	-11.3638
▁ग्रुप	-11.3638
▁मैत्री	-11.3638
▁कावेरी	-11.3638
अपडेट	-11.3638
▁मूत्राशय	-11.3638
इरादे	-11.3638
▁कंठ	-11.3638
▁क्षतिग्रस्त	-11.3638
▁दुहरा	-11.3638
▁पेट्रोलियम	-11.3638
▁प्रोफाइल	-11.3638
▁संकाय	-11.3638
▁तमाश	-11.3638
▁रक्तस्राव	-11.3638
efi	-11.3638
बरुवा	-11.3638
▁तबदील	-11.3638
▁बरकतवाल	-11.3638
▁वबाल	-11.3638
▁निर्जीव	-11.3638
▁म्यु	-11.3638
प्रोसेसर	-11.3638
ारंभ	-11.3638
▁हिट	-11.3638
▁बौने	-11.3638
श्रव्य	-11.3638
▁एकाश्म	-11.3638
▁अभिनय	-11.3638
लैण्ड	-11.3638
सीएल	-11.3638
▁बाधा	-11.3638
NET	-11.3638
▁नींबू	-11.3638
▁गुजार	-11.3638
▁त्यो	-11.3638
05.201	-11.3639
▁नलिका	-11.3639
▁आप्रवास	-11.3639
▁KB	-11.3639
▁भ्रांत	-11.3639
hat	-11.3639
▁इब्रा	-11.3639
▁भेड़	-11.3639
▁निरीक्षक	-11.3639
▁वर्ल्ड	-11.3639
▁ध्व	-11.3639
▁यांत्रिक	-11.3639
़ाफ़िल	-11.3639
▁बलिदान	-11.3639
▁पैटर्न	-11.3639
▁कॉफी	-11.3639
▁धनराशि	-11.3639
▁कारस्तान	-11.3639
▁परदाज़	-11.3639
▁इनसान	-11.3639
▁२५	-11.3639
▁कुंजीपट	-11.364
▁वेदांत	-11.364
▁नियन्त्र	-11.364
▁बिस्तर	-11.364
▁१४	-11.364
▁१९८	-11.364
▁जैक	-11.364
▁कसरत	-11.364
▁ज्यों	-11.364
▁आत्मविश्वास	-11.364
▁कतरा	-11.364
तकालय	-11.364
▁बोतल	-11.364
▁मरीज	-11.364
▁हरकत	-11.364
▁अटल	-11.364
▁देहात	-11.364
▁प्रेमचन्द	-11.364
▁शेयरधारक	-11.364
▁सौहार्द	-11.364
▁फ्यू	-11.364
▁विधानमंडल	-11.364
▁तैर	-11.364
▁१६	-11.364
▁किराए	-11.364
▁धब्ब	-11.364
▁भेदभाव	-11.364
▁यौन	-11.364
▁२६	-11.364
▁निर्बल	-11.364
▁शरद	-11.364
▁व्रत	-11.3641
▁ज़ूम	-11.3641
▁गणतंत्र	-11.3641
▁झारख	-11.3641
rug	-11.3641
▁अज़ीम	-11.3641
▁खौलत	-11.3641
िब्रू	-11.3641
▁अन्यायपूर्ण	-11.3641
ेस्को	-11.3641
▁लुभा	-11.3641
▁उदयपुर	-11.3641
▁किराया	-11.3641
▁हरिजन	-11.3641
▁दशम	-11.3641
▁ज़िक्र	-11.3641
८२	-11.3641
▁अन्धा	-11.3641
▁1953	-11.3641
▁इशार	-11.3642
▁निन्दा	-11.3642
टेशिय	-11.3642
▁मेहराब	-11.3642
▁महासभा	-11.3642
▁बॉम्ब	-11.3642
▁1990	-11.3642
▁रेजि	-11.3642
▁1994	-11.3642
▁समेत	-11.3642
▁राजमार्ग	-11.3643
▁झांक	-11.3643
▁बूट	-11.3643
▁बर्तन	-11.3643
▁अस्वीकार्य	-11.3643
▁छुपाएँ	-11.3643
▁खड्ड	-11.3643
▁जीर्ण	-11.3643
RO	-11.3643
▁डिपो	-11.3643
▁मुक़्त	-11.3643
▁झलक	-11.3643
▁रुसवा	-11.3644
▁जन्मदिन	-11.3644
▁फरार	-11.3644
▁रक्षक	-11.3644
▁न्यूजीलै	-11.3644
▁डॉलर	-11.3644
सिंगार	-11.3644
▁समूच	-11.3645
▁लाभप्रद	-11.3645
▁ट्रस्ट	-11.3645
ive	-11.3645
▁बजाएँ	-11.3645
▁सुअर	-11.3645
▁बायाँ	-11.3645
▁क्लास	-11.3646
uer	-11.3646
▁लखन	-11.3646
▁कोयला	-11.3646
▁प्राधिकृत	-11.3646
▁अनजान	-11.3646
▁अहंकार	-11.3646
▁निकटवर्त	-11.3646
▁देखरेख	-11.3647
▁दहला	-11.3647
ाउंड	-11.3647
▁देखिये	-11.3647
भूषण	-11.3648
▁मग़फ	-11.3648
▁छेड़	-11.3648
▁छापे	-11.3648
▁चीर	-11.3648
▁बेटियाँ	-11.3648
आईईए	-11.3649
▁मदिरा	-11.3649
PE	-11.3649
▁अंकुर	-11.3649
िफ्ट	-11.3649
▁अनुक्रिया	-11.365
▁मास्क	-11.365
▁अहमद	-11.365
▁सूझ	-11.365
der	-11.3651
▁महानगर	-11.3651
TO	-11.3651
▁टपक	-11.3651
ंशिक	-11.3651
▁उम्मत	-11.3651
▁चेन्नई	-11.3652
▁कैप्	-11.3652
▁अपसर	-11.3652
▁आखिरकार	-11.3652
▁दुष्ट	-11.3653
▁बलराम	-11.3653
▁संयोग	-11.3653
▁पम्प	-11.3653
▁डराओ	-11.3653
बूझते	-11.3654
This	-11.3654
▁गोपुर	-11.3654
▁समतल	-11.3655
▁प्रमाणीकरण	-11.3655
कल्या	-11.3656
▁देखोगे	-11.3656
▁मर्ज़	-11.3656
माणिक	-11.3656
▁कार्यवृत्त	-11.3656
ब्रोकर	-11.3656
▁लार्ड	-11.3656
▁आलेख	-11.3656
श्यल	-11.3656
▁एसएम	-11.3657
▁कवियों	-11.3657
▁अन्याय	-11.3658
▁प्रातः	-11.3658
▁क्रै	-11.3658
▁जहान	-11.3658
▁डीवी	-11.3658
▁मोटाई	-11.3659
▁उपक्रम	-11.366
▁विनम्रता	-11.366
▁कार्यशाला	-11.366
पत्य	-11.366
जिये	-11.366
▁47	-11.3662
▁200	-11.3662
▁कश्तिय	-11.3663
▁बाजू	-11.3663
▁फ़ॉन्ट्स	-11.3663
▁सीढ़िय	-11.3664
आइसो	-11.3664
▁46	-11.3664
ite	-11.3666
वलोकन	-11.3667
▁उपग्रह	-11.3667
▁फोर्	-11.3668
▁धाग	-11.3669
▁बलात	-11.3671
▁निम्नतर	-11.3672
▁अभिनेता	-11.3673
▁आभार	-11.3673
ars	-11.3673
▁खुर	-11.3673
▁छवियों	-11.3674
वृति	-11.3678
▁व्याज	-11.3678
▁अहात	-11.3678
▁ग्वाल	-11.3679
▁कन्नड	-11.368
▁प्रिंटर	-11.368
सह्य	-11.368
▁रस्स	-11.368
ॉर्मेट	-11.368
▁बीमारियों	-11.3681
▁विफलः	-11.3682
▁भजन	-11.3682
▁100%	-11.3683
▁क्षय	-11.3683
विलोकन	-11.3684
▁अशो	-11.3684
▁दांत	-11.3684
ौलत	-11.3684
▁पॉव	-11.3685
▁झूठला	-11.3685
dow	-11.3685
ात्मा	-11.3687
ंसू	-11.3687
▁निवासियों	-11.3688
▁54	-11.3688
पहरण	-11.3689
▁नागालै	-11.3689
▁टेस्ट	-11.3689
उथ	-11.3689
▁पर्च	-11.369
▁बियर	-11.3692
स्थापत्य	-11.3692
▁मास्टर्	-11.3693
uri	-11.3693
▁सर्क	-11.3693
▁संस्थाएं	-11.3693
▁मूलतः	-11.3694
▁दिखाओ	-11.3695
▁अंडर	-11.3696
▁रोड	-11.3697
ोपाध्याय	-11.37
▁समीकरण	-11.37
ानेक	-11.3702
▁छाया	-11.3704
▁लहर	-11.3704
▁साठ	-11.3707
▁दरार	-11.3708
GP	-11.3709
▁गायब	-11.3711
पीजी	-11.3711
▁प्रबल	-11.3711
तंबू	-11.3715
▁दलाल	-11.3715
▁मूर	-11.3717
▁व्यप	-11.3717
▁आयुर्व	-11.3718
▁ठंड	-11.3719
▁नीम	-11.3721
▁लगेगी	-11.3723
▁फाल	-11.3723
▁ट्राइ	-11.3724
र्मन	-11.3725
▁शेल	-11.3728
▁नासा	-11.3732
जेड	-11.3736
▁अपार	-11.3736
मोहिनी	-11.3738
▁मन्द	-11.3738
▁साम्राज्यवाद	-11.3745
▁यश	-11.3745
ख्वास्त	-11.3745
मास्टर	-11.3747
▁आलू	-11.3748
ुड़े	-11.3749
▁ex	-11.3757
सिस्को	-11.3768
प्रसार	-11.3768
ीबिया	-11.3774
ाह्न	-11.3775
ंटेनर	-11.3779
माईल	-11.3782
▁सैल	-11.3784
जन्य	-11.3785
▁परिवर्ध	-11.3793
▁ट्रॉ	-11.3799
सिब	-11.38
मादा	-11.3802
्रैक	-11.3803
▁मरोड	-11.3806
▁चखाए	-11.3806
1946	-11.3812
▁कायद	-11.3818
ेंट्स	-11.3819
शिर्क	-11.3823
५१	-11.383
▁डु	-11.3842
पक्षी	-11.3845
क्षणिक	-11.3848
IA	-11.3859
RE	-11.3865
▁व्ह	-11.3873
लामत	-11.3873
अंधेर	-11.3878
▁पक्क	-11.389
▁अतिवाद	-11.3901
▁(20	-11.3901
ंकेत	-11.3903
▁ब्रज	-11.3917
उद्दी	-11.3931
▁मसाल	-11.394
मणि	-11.3948
▁कुंज	-11.3968
एजेंट	-11.397
1700	-11.3972
/10	-11.3999
्वचा	-11.4018
MI	-11.4023
ICO	-11.4042
कलंक	-11.4044
३०	-11.4048
ूषित	-11.4048
पैठ	-11.4056
शिरा	-11.4056
वाकांक्ष	-11.4067
1998	-11.4078
तबलीग	-11.4089
▁प्रस्ता	-11.4102
दाब	-11.4106
ामिन	-11.411
▁रोह	-11.4197
▁इस्लामवाद	-11.421
ानदार	-11.4229
▁तापन	-11.4229
इफ़त	-11.4243
ूवत	-11.4244
▁गेट	-11.4244
▁बजाए	-11.4256
गिर्द	-11.4281
द्दाम	-11.429
ster	-11.4302
▁देखेग	-11.4323
▁दुर्ग	-11.4331
tor	-11.4334
पुट	-11.4348
िस्सा	-11.4355
बालिका	-11.4374
▁सलामत	-11.4378
▁इक्क	-11.4395
▁मोल	-11.4396
रफ्तार	-11.4405
IM	-11.4417
ope	-11.4455
न्च	-11.4495
▁ढ़ं	-11.4502
▁कृष्णरा	-11.4513
चाबी	-11.4547
महिलाएं	-11.4549
▁उधारकर्ता	-11.4578
▁पॉलि	-11.4587
▁मिड	-11.4631
BU	-11.4632
िदान	-11.4645
▁प्रतिज्ञा	-11.4668
▁अहस	-11.4672
डीआर	-11.4698
तौरात	-11.4711
▁अप्रत्य	-11.4753
▁दिलात	-11.4787
आरटी	-11.4789
वलय	-11.4798
▁डंप	-11.4805
ॉर्ट	-11.4829
खण्ड	-11.489
बंधक	-11.493
३३	-11.4931
रोवर	-11.4951
▁निभात	-11.4993
२१	-11.502
▁पढ़त	-11.5116
ंगोल	-11.5146
▁बनेग	-11.5175
इंट	-11.5189
ce	-11.5201
▁फ़रमाय	-11.523
आईपी	-11.5257
ष्ण	-11.5267
ूंकि	-11.5355
▁जीतन	-11.5367
्यर्थ	-11.5376
▁प्रौद्योगिकिय	-11.5385
▁१३	-11.547
▁कल्प	-11.5547
ंपिंग	-11.5566
▁बुर्ज	-11.5662
द्दे	-11.5693
मुस्	-11.5701
▁परिव्य	-11.5714
मिन्	-11.573
ुद्र	-11.5734
अल्	-11.5798
थ्य	-11.5826
फिस	-11.5939
िब्ब	-11.6019
भिमान	-11.605
्बिया	-11.6055
ME	-11.6072
▁रिश्	-11.6113
ne	-11.6115
निर्णय	-11.6138
▁एशिय	-11.6167
▁दृष्ट	-11.6219
11.201	-11.6271
ुद्द	-11.6306
▁अत्याध	-11.6322
▁संभालन	-11.6352
ोमक	-11.6358
▁डालेग	-11.6412
▁एजें	-11.6524
▁हस्तांतर	-11.6529
रखा	-11.6542
खुद	-11.656
वक्ता	-11.6625
▁शक़्	-11.664
▁गोब	-11.666
्ठा	-11.6675
▁बरसात	-11.6691
▁दीर्घकाल	-11.6724
720	-11.6746
रुचि	-11.6748
र्मर	-11.6758
्रॉफ	-11.6762
▁फ्रांसिस	-11.68
शुद्ध	-11.6802
ext	-11.6809
सामान्य	-11.6817
भ्रम	-11.6822
साइक	-11.6823
अनुसूचित	-11.6824
पार्श्व	-11.6824
आउटपुट	-11.6824
टिकट	-11.6825
टुकड़े	-11.6825
मुक़र्र	-11.6826
प्रदर्शक	-11.6826
2009	-11.6827
मिश्रण	-11.6828
शिशु	-11.6828
तौरेत	-11.6828
हिंद	-11.6828
जनरल	-11.6829
कर्ण	-11.6829
मस्तिष्क	-11.6829
समन्वय	-11.683
निर्देश	-11.683
काफ़िर	-11.6831
परिषद	-11.6831
प्रधान	-11.6831
ईमानदारों	-11.6831
महात्मा	-11.6831
बुद्धि	-11.6832
शीघ्र	-11.6832
छोटी	-11.6832
क्रिप्	-11.6832
निर्धारण	-11.6832
ज़रुर	-11.6832
शब्द	-11.6833
शुल्क	-11.6833
सिर्फ	-11.6833
अवधि	-11.6833
प्रौद्योगिकी	-11.6833
प्लेट	-11.6833
बराबर	-11.6833
कानून	-11.6834
इज्ज	-11.6834
लेकिन	-11.6835
संरचना	-11.6835
मदद	-11.6835
विकास	-11.6836
प्रारंभ	-11.6836
▁साझेदार	-11.6836
प्राण	-11.6837
किसान	-11.6838
खूब	-11.6838
प्रकृति	-11.6841
संख्यक	-11.6841
संग्रह	-11.6843
पुत्र	-11.6843
जापान	-11.6844
▁जर्मन	-11.6846
पलट	-11.6846
स्कूल	-11.6846
▁धीर	-11.6859
ालिद	-11.6867
लिंक	-11.6879
▁खिसक	-11.6886
unc	-11.6904
▁विभिन्	-11.6905
ंबित	-11.6906
नकद	-11.6916
हर्षि	-11.6931
वर्जन	-11.6936
▁इजाज	-11.6937
▁विनम्र	-11.6939
ob	-11.6945
error	-11.6955
▁अनुसूचि	-11.6955
▁आवश्	-11.6959
▁तीर्थ	-11.6959
°	-11.6959
▁शोष	-11.6962
▁अस्वीकार	-11.6963
मक्खी	-11.6964
ञ	-11.6964
खोरी	-11.6965
ियॉँ	-11.6965
रिक्त	-11.6965
क्षिप्त	-11.6965
▁दृढ	-11.6966
▁उपलब्	-11.6967
ग़रज	-11.6967
▁किराये	-11.6969
act	-11.6969
▁पेट्रोल	-11.697
▁कॉन्फ़िगर	-11.697
टर्मिन	-11.697
fri	-11.6971
प्रिंसिपल	-11.6971
▁time	-11.6971
▁उखाड़	-11.6971
.07.201	-11.6971
ION	-11.6971
POS	-11.6971
Unit	-11.6971
ahoo	-11.6971
ategory	-11.6971
diff	-11.6971
dition	-11.6971
escription	-11.6971
irect	-11.6971
link	-11.6971
ublic	-11.6971
इम्प्लाँट	-11.6971
गुवाहाटी	-11.6971
ट्रिब्यू	-11.6971
द्वैत	-11.6971
नुवंशिक	-11.6971
पारिभाषित	-11.6971
मुनाफेक़ीन	-11.6971
सॉफ्ट	-11.6971
▁'{0}'	-11.6971
▁07.02.201	-11.6971
▁23.09.2011	-11.6971
▁CalDAV	-11.6971
▁Server	-11.6971
▁png	-11.6971
▁अठारह	-11.6971
▁अधिष्ठाप	-11.6971
▁अननुज्ञ	-11.6971
▁अनुपलब्ध	-11.6971
▁अवशेष	-11.6971
▁इंदौर	-11.6971
▁इऋल्म	-11.6971
▁उज़्बेकिस्तान	-11.6971
▁उपशीर्षक	-11.6971
▁उषाकाल	-11.6971
▁ऋषि	-11.6971
▁क़ानून	-11.6971
▁कैलनबैक	-11.6971
▁क्रिस्टल	-11.6971
▁क्षतिपूर्ति	-11.6971
▁खिंच	-11.6971
▁गठबंधन	-11.6971
▁गद्दार	-11.6971
▁गोरखपुर	-11.6971
▁घोटाल	-11.6971
▁चैलेंज	-11.6971
▁जन्माष्टमी	-11.6971
▁जबरदस्त	-11.6971
▁जिज्ञास	-11.6971
▁जीवद्रव्य	-11.6971
▁टिप्पणियाँ	-11.6971
▁डाईआक्साइड	-11.6971
▁डायस्पो	-11.6971
▁डिबेंचर	-11.6971
▁तंबाकू	-11.6971
▁तफसील	-11.6971
▁त्रासद	-11.6971
▁दुर्भाग्यवश	-11.6971
▁देहरादून	-11.6971
▁द्योत	-11.6971
▁निःशक्तजन	-11.6971
▁निबंधन	-11.6971
▁निर्बंध	-11.6971
▁निस्पृह	-11.6971
▁नुबूवत	-11.6971
▁पचहत्तर	-11.6971
▁परिवीक्षा	-11.6971
▁पहाडिय	-11.6971
▁पांडुलिपि	-11.6971
▁पाउडर	-11.6971
▁पिरामिड	-11.6971
▁पुनर्जागरण	-11.6971
▁पुरोहित	-11.6971
▁प्रतिपूर्ति	-11.6971
▁प्रलोभन	-11.6971
▁प्रियंवद	-11.6971
▁प्रेसिडें	-11.6971
▁प्रोटोकाल	-11.6971
▁फर्नीचर	-11.6971
▁फाउंडेशन	-11.6971
▁बिचौलिय	-11.6971
▁बिजनेस	-11.6971
▁बुजुर्ग	-11.6971
▁बुढाप	-11.6971
▁बेशुमार	-11.6971
▁ब्लैक	-11.6971
▁महफूज़	-11.6971
▁मिज़ोरम	-11.6971
▁यक्ष्म	-11.6971
▁युधिष्ठिर	-11.6971
▁रजिस्टर	-11.6971
▁रुग्ण	-11.6971
▁लक्ष्मण	-11.6971
▁लेफ्टिनेंट	-11.6971
▁वाच्यार्थ	-11.6971
▁वाद्ययंत्र	-11.6971
▁विकिपीडिया	-11.6971
▁वृंदावन	-11.6971
▁शॉर्टकट	-11.6971
▁षडयंत्र	-11.6971
▁संपुष्टि	-11.6971
▁संप्रतीक	-11.6971
▁सल्फाइड	-11.6971
▁सस्पेंड	-11.6971
▁साक्षरता	-11.6971
▁सामंजस्य	-11.6971
▁सिंगापुर	-11.6971
▁स्तोत्र	-11.6971
▁हमबिस्तर	-11.6971
▁हेलिकॉप्टर	-11.6971
mail	-11.6971
अफ़सोस	-11.6971
उपद्रव	-11.6971
चिल्ड्रन	-11.6971
नाफरमान	-11.6971
राज्याभिषे	-11.6971
▁अध्यात्म	-11.6971
▁गोखले	-11.6971
▁चींटी	-11.6971
▁जमींदार	-11.6971
▁ताबेदार	-11.6971
▁पत्नियों	-11.6971
▁पर्वतारोह	-11.6971
▁मांसपेशिय	-11.6971
▁मोड्यूल	-11.6971
▁शाश्वत	-11.6971
▁श्रोणि	-11.6971
▁संगोष्ठियों	-11.6971
▁सूँघ	-11.6971
▁हिफाज	-11.6971
fini	-11.6971
आईएनबी	-11.6971
स्लैब	-11.6971
ाश्रय	-11.6971
▁1959	-11.6971
▁2010-11	-11.6971
▁इन्फ्लुएं	-11.6971
▁एयरलाइ	-11.6971
▁कट्टरपंथ	-11.6971
▁करूणाकर	-11.6971
▁खिड़क	-11.6971
▁तौहीद	-11.6971
▁धनुर्	-11.6971
▁पर्यवेक्ष	-11.6971
▁पूर्वानुमान	-11.6971
▁प्रतिशोध	-11.6971
▁फ्रंट	-11.6971
▁भृंग	-11.6971
▁मुहावरा	-11.6971
▁मूर्ख	-11.6971
▁शिलालेख	-11.6971
▁हुज़ूर	-11.6971
▁distri	-11.6971
▁अनपढ़	-11.6971
▁अभियंता	-11.6971
▁उत्सर्ज	-11.6971
▁उदासीन	-11.6971
▁उलझन	-11.6971
▁निखार	-11.6971
▁पाएँगे	-11.6971
▁श्रेय	-11.6971
▁सर्किट	-11.6971
निरपेक्ष	-11.6971
▁अवांछ	-11.6971
▁ऐंठन	-11.6971
▁ऑप्ट	-11.6971
▁निबन्ध	-11.6971
▁पठार	-11.6971
▁प्रत्यायन	-11.6971
▁लेखापरीक्ष	-11.6971
▁वल्लभ	-11.6971
▁विश्वेश्वरैय	-11.6971
▁सम्भावना	-11.6971
Mac	-11.6971
▁कुल्लू	-11.6971
▁गणमान्य	-11.6971
▁ग़ैब	-11.6971
▁भूगोल	-11.6971
▁लेबनान	-11.6971
{2}	-11.6971
ट्रियम	-11.6971
हाजिर	-11.6971
▁उबाऊ	-11.6971
▁खाँचा	-11.6971
▁गोदाम	-11.6971
▁चालुक्य	-11.6971
▁मुनाफा	-11.6971
▁अंगूठ	-11.6971
▁बहिष्क	-11.6971
▁भित्ति	-11.6971
▁मजलिस	-11.6971
▁मिर्जा	-11.6971
▁वायरल	-11.6971
▁संकेन्द्र	-11.6971
▁गोपनीयता	-11.6971
acity	-11.6971
बदबख्त	-11.6971
हायपर	-11.6971
▁असफ़ल	-11.6971
▁अहिंसा	-11.6971
▁एसएच	-11.6971
▁रसायन	-11.6971
▁विसर्ज	-11.6971
▁अल्फा	-11.6971
▁रौब	-11.6971
▁शब्दकोश	-11.6971
▁स्तम्भ	-11.6971
▁खूबसूरत	-11.6971
▁मंजिल	-11.6971
▁तिब्बत	-11.6971
▁नजदीक	-11.6971
त्कुण	-11.6971
▁इत्या	-11.6971
▁टिप्प	-11.6971
▁तमन्ना	-11.6971
▁व्यस्तता	-11.6971
▁स्कंध	-11.6971
▁चैट	-11.6971
cri	-11.6971
तृप्त	-11.6971
▁कपड़ों	-11.6971
▁बांटना	-11.6971
▁अयस्क	-11.6971
टुंब	-11.6971
ब्रिगेड	-11.6971
▁अनिष्ट	-11.6971
▁असंगति	-11.6971
▁आवेग	-11.6971
▁ब्यौ	-11.6971
▁हिचक	-11.6971
▁ख़रीद	-11.6971
▁ट्रांसमि	-11.6971
▁मसौद	-11.6971
▁व्यथित	-11.6971
▁inmenu	-11.6971
▁औजारपट्ट	-11.6971
एनडीपीए	-11.6971
दुर्भाग्य	-11.6971
App	-11.6971
▁यतीम	-11.6971
hai	-11.6971
▁नग्न	-11.6971
▁मुखौट	-11.6971
आलिमों	-11.6971
कुंच	-11.6971
तिहाई	-11.6971
▁मध्यच्छद	-11.6971
▁मल्टी	-11.6971
▁रोमांच	-11.6971
▁पंखुड़	-11.6971
▁सूत्रकृमि	-11.6971
दूरभाष	-11.6971
▁बकवास	-11.6971
▁चमकीला	-11.6971
लातविया	-11.6971
▁Nation	-11.6971
▁उपस्कर	-11.6971
▁दर्प	-11.6971
▁बैक्ट	-11.6971
▁संबध	-11.6971
असहिष्णु	-11.6971
शिथिल	-11.6971
▁आवेदक	-11.6971
▁कुत्ते	-11.6971
एनएफ	-11.6971
▁ज्वार	-11.6971
▁फ़ायर	-11.6971
▁हस्तशिल्प	-11.6971
▁तूफान	-11.6971
ल्कोहल	-11.6971
▁कुर्बान	-11.6971
▁परजीवियों	-11.6971
▁पूर्णिमा	-11.6971
icro	-11.6971
▁तुलसी	-11.6971
▁लवण	-11.6971
▁पीड़क	-11.6971
▁मृग	-11.6971
▁सजावट	-11.6971
-09	-11.6971
▁क्षुद्र	-11.6971
गवर्न	-11.6971
▁इसराइल	-11.6971
डुबकी	-11.6971
-14	-11.6971
▁tab	-11.6971
▁पीडित	-11.6971
▁अभिषे	-11.6971
▁इलाह	-11.6971
▁फकीर	-11.6971
▁फाउ	-11.6971
्रैंड	-11.6971
▁बढ़ेगी	-11.6971
▁कॉन्फ़िगरेशन	-11.6971
ञ्च	-11.6971
चर्या	-11.6971
1012	-11.6971
▁प्रखर	-11.6972
▁फ़िर	-11.6972
▁मुवाफ	-11.6972
▁रघुनाथ	-11.6972
▁शास्ति	-11.6972
▁पुणे	-11.6972
▁अंगीकार	-11.6972
▁राजकीय	-11.6972
▁अणु	-11.6972
ग़ुस्	-11.6972
परायण	-11.6972
▁प्रामाणिक	-11.6972
reat	-11.6972
▁प्रत्याश	-11.6972
▁बेख़ौफ	-11.6972
▁डाटाबेस	-11.6972
▁but	-11.6972
▁प्रत्याभूत	-11.6972
प्रदायिक	-11.6972
पल्ली	-11.6972
▁बाँट	-11.6972
▁दिशानिर्देश	-11.6972
▁tool	-11.6972
▁बिठा	-11.6972
▁जॉनसन	-11.6972
▁(02	-11.6972
▁१०००	-11.6972
▁ग़िलाफ	-11.6973
▁पाइपलाइन	-11.6973
▁हिरण	-11.6973
▁मक़ाम	-11.6973
▁फाड़	-11.6973
▁उद्गम	-11.6973
▁अन्तर्ज्ञान	-11.6973
▁मैक्सि	-11.6973
पाइंट	-11.6973
▁गुमनाम	-11.6973
▁व्यष्टि	-11.6973
▁इंगित	-11.6973
▁उछल	-11.6973
▁कारगुज़ार	-11.6973
▁लंका	-11.6973
▁पिंजर	-11.6973
▁२००५	-11.6973
▁दंगे	-11.6973
▁पहिल	-11.6973
▁बतायी	-11.6973
▁विद्याधर	-11.6973
NG	-11.6973
▁वित्तपोषण	-11.6973
▁गैल	-11.6973
▁धूम	-11.6973
▁विनोद	-11.6973
▁हांलाक	-11.6973
▁किरायेदार	-11.6973
▁भत्ते	-11.6974
▁महीना	-11.6974
▁आईबीए	-11.6974
गांठ	-11.6974
▁बरहक़	-11.6974
▁छिन्न	-11.6974
▁अविराम	-11.6974
जख्म	-11.6974
▁वचनबद्ध	-11.6974
▁किंग्स	-11.6974
ण्ण	-11.6974
▁सहनशील	-11.6974
ill	-11.6974
▁वाजि	-11.6974
▁साइंस	-11.6974
ark	-11.6974
▁फोरम	-11.6974
▁परिस्थितियां	-11.6974
तिथ्य	-11.6974
▁सियाह	-11.6974
क्रीड़ा	-11.6974
lear	-11.6975
▁पौत्र	-11.6975
ध्यापक	-11.6975
▁कीटाणु	-11.6975
▁निषेध	-11.6975
रघुवंश	-11.6975
▁कनु	-11.6975
▁चालीस	-11.6975
▁पट्टा	-11.6975
▁रमण	-11.6975
▁भूगर्भ	-11.6975
▁लाइफ	-11.6975
▁पगड़	-11.6975
▁बतला	-11.6975
ञ्ज	-11.6975
▁पुश्त	-11.6975
▁कीर्तन	-11.6975
▁राजदूत	-11.6976
▁नायिका	-11.6976
▁समीप	-11.6976
▁भालू	-11.6976
▁TV	-11.6976
▁पदावल	-11.6976
▁विशुद्ध	-11.6976
▁डुबा	-11.6976
नासिका	-11.6976
▁सर्वज्ञ	-11.6976
फ़तेह	-11.6976
▁ललित	-11.6976
▁Ukrain	-11.6976
▁For	-11.6976
▁गौतम	-11.6976
विदारण	-11.6976
्यूनि	-11.6976
▁dis	-11.6976
▁आनन्दमय	-11.6976
ानुभूति	-11.6977
प्रक्रमक	-11.6977
▁मानवाधिकार	-11.6977
▁मुसल्ल	-11.6977
▁क्लोन	-11.6977
9-9	-11.6977
ja	-11.6977
▁सिन्ध	-11.6977
▁पटेल	-11.6977
▁चार्ज	-11.6977
▁सुननेवाला	-11.6977
▁तालमेल	-11.6977
▁पाउंड	-11.6977
▁1947	-11.6977
▁बेईमान	-11.6977
▁राजगुर	-11.6977
▁मधुमक्ख	-11.6977
▁अजगर	-11.6977
▁पाएंगे	-11.6978
तौरैत	-11.6978
▁परावर्त	-11.6978
fer	-11.6978
▁पौंड	-11.6978
▁डीलर	-11.6978
▁अनुमतियाँ	-11.6978
▁प्रोटे	-11.6978
▁मतभेद	-11.6978
▁जीवाणु	-11.6978
चेंज	-11.6978
ber	-11.6978
2018	-11.6978
▁पन्नी	-11.6978
▁धूल	-11.6979
▁क्रास	-11.6979
▁स्टैं	-11.6979
▁मुजर	-11.6979
▁परिरक्षण	-11.6979
००००	-11.6979
▁चप्पल	-11.6979
▁रूकू	-11.6979
▁21.3	-11.6979
▁सहिष्णु	-11.698
RI	-11.698
▁करारनाम	-11.698
▁ज्वाल	-11.698
▁po	-11.698
▁वाक़ि	-11.698
▁क्षत्र	-11.698
▁1934	-11.698
ाधान	-11.698
▁लिवर	-11.6981
रवेल	-11.6981
▁दुर्बल	-11.6981
▁बंदूक	-11.6981
हानिकारक	-11.6981
▁निरोध	-11.6982
▁नियुक़्त	-11.6982
ation	-11.6982
▁org	-11.6982
▁पैटर	-11.6982
▁पहुंचेगी	-11.6982
▁सर्वांग	-11.6982
पड़ोस	-11.6983
tic	-11.6983
▁एजेंसिया	-11.6983
क्चर	-11.6983
ावृष्टि	-11.6983
स्राव	-11.6983
ican	-11.6983
▁चिढ़	-11.6983
रीशस	-11.6983
सभ्य	-11.6984
▁खाएगा	-11.6984
▁सोलर	-11.6984
IT	-11.6985
▁1940	-11.6985
ंप्रदाय	-11.6985
▁बनाएँगे	-11.6986
terror	-11.6986
▁सेकंड	-11.6986
सन्धि	-11.6986
dom	-11.6987
tan	-11.6988
डब्ल्यू	-11.6989
▁सूक्ति	-11.699
▁पकड़ेग	-11.6991
ट्रपति	-11.6991
बाक़ी	-11.6993
▁चिराग	-11.6994
▁09.	-11.6994
▁यूजर	-11.6994
▁मूक	-11.6997
ऑटोम	-11.6998
▁बनारस	-11.7
▁रिश्तेदार	-11.7003
▁समुच	-11.7003
प्रवण	-11.7005
▁राजनेता	-11.7005
बरकत	-11.7006
▁जाग्रत	-11.7007
▁घूमन	-11.7007
प्रसू	-11.7008
va	-11.7009
2011	-11.701
▁उज़्	-11.7011
▁हर्ष	-11.7011
▁ज़िम्म	-11.7011
्यूरो	-11.7012
▁इफ्	-11.7012
▁पैग़	-11.7015
ठाक	-11.7016
Rs	-11.7016
▁नॉर्	-11.7018
▁सम्यक	-11.7019
▁करदाता	-11.702
dim	-11.7026
▁असीम	-11.7032
001	-11.7033
ृच्छ	-11.7035
वृषण	-11.704
▁लतीफ	-11.7041
50,000	-11.7048
▁फरीक	-11.7085
तरीक	-11.7088
प्लेन	-11.7089
ग्नो	-11.7093
▁2.2	-11.7095
ाचिक	-11.7106
रूरतमंद	-11.7109
900	-11.7109
छेद	-11.7123
▁अपवर्ज	-11.7124
गोष्ठ	-11.7133
ज्जीव	-11.7147
▁पुनराव	-11.7153
फार्मूल	-11.7163
▁use	-11.7175
छुआ	-11.7211
अप्रयुक्त	-11.722
2022	-11.7224
▁दूरदर्श	-11.7225
▁वाकिफ	-11.7228
घुम	-11.7228
वायुमंडल	-11.7229
मार्केट	-11.7243
▁उत्तराधिकार	-11.7253
टूल्स	-11.7267
रजिस्ट्रार	-11.7271
शास्त्रियों	-11.7302
ट्ज	-11.732
बोदे	-11.7333
ैक्सी	-11.7356
ठहरने	-11.7387
सिव	-11.7404
▁बंज	-11.7405
बहुदेववादियों	-11.7435
सदक़	-11.7443
evel	-11.7467
▁बृहत्	-11.7483
1975	-11.7502
▁बुआ	-11.7504
ईआईए	-11.7522
▁जनरेट	-11.7528
िरिक	-11.7557
▁देनेवाल	-11.7563
विप्रेषण	-11.7568
बाल्ट	-11.7574
सायट	-11.7608
▁छत्त	-11.7631
ारंट	-11.764
▁मृदु	-11.7642
▁जूत	-11.7672
ॉयर	-11.7689
5.9	-11.77
ऑफिस	-11.7756
धुनिक	-11.7796
5.03.201	-11.7899
▁संसाध	-11.7928
▁चटिय	-11.7998
▁निर्धनत	-11.8012
जेन्ट	-11.8073
फ़रिश्ते	-11.8075
छिपाएं	-11.8139
चेहरा	-11.8274
868	-11.8308
▁प्रौद्योगिक	-11.8369
मुंडा	-11.8448
दलीलें	-11.8467
▁तिर	-11.8484
port	-11.8548
▁एरिय	-11.8607
ुफ्	-11.8652
कॉट	-11.8659
▁फ्रां	-11.8715
खुल्ल	-11.8724
रिश्ता	-11.8779
नोट्स	-11.8787
ब्ज	-11.8789
ैराथ	-11.8805
डेरे	-11.8812
ोमो	-11.8826
श्लेषण	-11.8826
प्रलय	-11.8832
▁बैठत	-11.8935
▁पूछत	-11.9085
ोरम	-11.9146
▁चलनेवाल	-11.9147
ice	-11.9238
महज़	-11.9255
▁मिलनेवाल	-11.9367
मध्यवर्	-11.9479
उत्तराख	-11.949
UR	-11.9628
Imp	-11.9826
▁trans	-11.9963
▁पुर्	-11.9964
शैव	-11.9992
ोधित	-12.0008
कनेक्टि	-12.0011
▁निकलेग	-12.0154
▁रफ्ता	-12.0416
झूठी	-12.0495
▁पंजीय	-12.0511
करीबन	-12.0579
.03.201	-12.0616
▁प्रवृत	-12.0715
्रोतों	-12.0819
▁सर्प	-12.0996
्गंध	-12.1091
▁सीरिय	-12.1145
उतरा	-12.1167
▁बृह	-12.1189
▁Dev	-12.1208
गिरि	-12.1209
▁बहुदेववाद	-12.1256
पॉज	-12.142
toc	-12.1507
ुत्था	-12.1562
▁लेनेवाल	-12.1726
शिल्प	-12.182
एहकाम	-12.1821
गोविंद	-12.1821
नाफ़रमानी	-12.1821
फ़िरऔन	-12.1821
बांग्लादेश	-12.1821
उर्दू	-12.1821
दिसम्बर	-12.1821
परम्परा	-12.1821
{0}	-12.1823
निरीक्षण	-12.1823
मुसीबत	-12.1823
निदेशालय	-12.1823
संतुलन	-12.1824
मध्यस्थ	-12.1824
फूँक	-12.1824
नारायण	-12.1825
जनजाति	-12.1825
चाँद	-12.1826
हिंदुस्तान	-12.1827
कुदरत	-12.1827
तत्त्व	-12.1827
ख़ौफ	-12.1827
निवारण	-12.1828
इंग्लै	-12.1828
2015	-12.1828
फरिश्त	-12.1828
शैतान	-12.1828
सामर्थ्य	-12.1829
प्रेरणा	-12.1829
अज्ञात	-12.183
समर्प	-12.183
भौतिक	-12.183
पुस्तिका	-12.1831
उम्मीद	-12.1831
दस्तावेज	-12.1831
ज़िन्दगी	-12.1831
आजाद	-12.1831
कश्मीर	-12.1831
संदेह	-12.1831
नियंत्र	-12.1831
सचिव	-12.1831
प्रारूप	-12.1831
हिन्दू	-12.1831
ब्याज	-12.1832
त्याग	-12.1832
बुनियाद	-12.1832
सिस्टम	-12.1832
अनुच्छेद	-12.1832
बख्श	-12.1832
सम्भव	-12.1832
यद्यपि	-12.1833
पूछ	-12.1833
हालाँकि	-12.1833
समुद्र	-12.1833
छोटा	-12.1833
खाद्य	-12.1833
प्रमाण	-12.1833
वास्तविक	-12.1833
translat	-12.1833
बैठे	-12.1834
वैज्ञानिक	-12.1834
पुस्तक	-12.1834
अमेरिका	-12.1834
प्राकृत	-12.1834
मुँह	-12.1834
(1)	-12.1834
स्वास्थ्य	-12.1834
सक्रिय	-12.1834
मंदिर	-12.1834
संपर्क	-12.1834
उत्पादन	-12.1834
निस्संदेह	-12.1834
विशिष्ट	-12.1834
प्रबंधन	-12.1834
“	-13.1843
̄	-13.1959
̈	-13.196
+	-13.1961
̧	-13.1962
@	-13.1963
¿	-13.1964
	-13.1965
	-13.1966
<	-13.1967
#	-13.1968
⁄	-13.1969
ढ	-13.197
औ	-13.1971
