<pad>	0
</s>	0
<unk>	0
▁के	-3.61455
▁है	-3.79501
।	-3.93616
,	-3.9702
▁और	-4.00839
▁में	-4.02434
▁की	-4.17886
▁से	-4.38755
▁को	-4.48275
▁का	-4.57573
)	-4.65862
▁(	-4.73017
▁	-4.82302
.	-4.90994
-	-4.96869
▁हैं	-4.98057
ों	-4.98546
▁कि	-5.01409
▁पर	-5.02557
▁लिए	-5.13676
▁एक	-5.14035
ी	-5.22334
▁तो	-5.27514
▁नहीं	-5.29574
▁जो	-5.33487
▁भी	-5.40691
▁हो	-5.4536
▁ने	-5.55213
▁कर	-5.57726
▁किया	-5.57978
▁यह	-5.62298
▁ही	-5.6282
न	-5.68587
▁इस	-5.70799
▁न	-5.75047
▁या	-5.75385
क	-5.76224
▁वह	-5.76727
▁करने	-5.80256
ा	-5.80728
ता	-5.90559
▁अपने	-5.9829
▁था	-6.00194
े	-6.0472
र	-6.06124
▁वे	-6.12589
▁तुम	-6.12919
▁गया	-6.15317
ल	-6.16314
▁तथा	-6.19185
▁कुछ	-6.19815
स	-6.21126
ना	-6.21259
à	-6.22053
▁किसी	-6.23281
▁हम	-6.26158
ने	-6.2865
त	-6.28741
▁साथ	-6.31934
म	-6.31959
ं	-6.32983
▁कोई	-6.33666
▁रूप	-6.34854
▁उनके	-6.37132
▁थे	-6.39016
▁द्वारा	-6.40249
▁करते	-6.44856
▁जब	-6.45106
▁लोग	-6.45463
▁लोगों	-6.46803
▁दिया	-6.47686
▁भारत	-6.50793
▁जा	-6.51562
▁तक	-6.52474
▁फिर	-6.55948
▁ये	-6.58669
ित	-6.60819
▁जाता	-6.6166
▁करें	-6.62484
▁उसके	-6.63485
व	-6.63516
▁कहा	-6.63714
▁अ	-6.63762
▁क्या	-6.6417
ो	-6.64173
/	-6.65591
▁आ	-6.65714
▁"	-6.65732
▁अल्लाह	-6.66761
▁उस	-6.67056
▁करना	-6.67072
▁ख़ुदा	-6.68878
▁अपनी	-6.69352
ट	-6.71514
?	-6.72052
▁रहे	-6.7213
द	-6.74006
▁हुए	-6.75017
कर	-6.76855
▁उन्हें	-6.78134
▁मैं	-6.78148
▁करता	-6.79002
▁उन	-6.79474
▁होता	-6.81002
▁आप	-6.82209
▁रहा	-6.83104
य	-6.83187
▁थी	-6.83758
ते	-6.83842
▁सकता	-6.8423
▁दो	-6.84657
▁उसे	-6.85111
ब	-6.85848
¤	-6.86011
;	-6.88246
ें	-6.89234
ियों	-6.89818
▁बहुत	-6.90191
ि	-6.90269
्	-6.90574
▁समय	-6.90857
ज	-6.91977
प	-6.92393
ः	-6.98193
ए	-6.99427
रा	-6.99977
▁बाद	-7.00254
▁तरह	-7.00863
▁अधिक	-7.01015
▁बात	-7.01162
▁वाले	-7.01555
ग	-7.02251
ला	-7.02314
ह	-7.02511
▁उन्होंने	-7.02585
▁हुआ	-7.02774
▁पहले	-7.04235
ओं	-7.04548
श	-7.04576
▁कार्य	-7.05271
▁पास	-7.06927
▁हमने	-7.07022
▁व	-7.07332
▁होगा	-7.0906
▁दी	-7.09061
▁उनकी	-7.1013
▁तुम्हारे	-7.10354
▁यदि	-7.1053
▁गई	-7.11214
▁दिन	-7.11583
▁गए	-7.11665
%	-7.11971
▁ओर	-7.12859
ती	-7.13685
▁सभी	-7.15214
▁ऐसे	-7.1635
▁काम	-7.16496
▁इन	-7.16497
▁होने	-7.16903
▁हमारे	-7.17088
▁राष्ट्रपति	-7.17361
▁अन्य	-7.17614
या	-7.17689
री	-7.18026
‍	-7.19083
▁सकते	-7.19968
▁प्रकार	-7.19975
ई	-7.21225
▁चाहिए	-7.21587
िक	-7.22404
▁प्राप्त	-7.22644
▁इसके	-7.23808
▁क्षेत्र	-7.24625
ीय	-7.2493
▁दे	-7.25426
▁उसकी	-7.267
▁कम	-7.26728
▁किए	-7.27305
▁s	-7.27308
▁होती	-7.27963
▁नाम	-7.28274
▁ले	-7.28554
▁सब	-7.28721
▁स	-7.2892
▁जाने	-7.29712
्य	-7.30059
ड	-7.30297
का	-7.30905
ण	-7.31879
▁प्रति	-7.32198
▁देश	-7.32268
▁ऐसा	-7.33608
▁एवं	-7.3366
▁करो	-7.34608
ख	-7.34817
▁सरकार	-7.35729
▁अब	-7.35775
▁अगर	-7.3593
▁भारतीय	-7.36403
ज़	-7.36549
ड़	-7.37337
▁वि	-7.38501
▁विकास	-7.3876
▁मुझे	-7.39153
▁रसूल	-7.39299
:	-7.39429
▁म	-7.39676
▁हुई	-7.39916
▁(_	-7.4009
▁कारण	-7.402
▁हर	-7.40444
सी	-7.41923
▁प्र	-7.43211
▁राज्य	-7.43684
▁19	-7.43831
के	-7.45232
▁क	-7.45234
▁उसने	-7.46493
▁1	-7.46503
▁जिस	-7.46989
▁लेकिन	-7.47136
▁जाती	-7.47424
!	-7.47479
▁लिया	-7.4768
▁वर्ष	-7.47905
च	-7.48252
ले	-7.48308
▁दोनों	-7.48633
▁व्यक्ति	-7.49146
नी	-7.49514
▁तुम्हें	-7.49676
ु	-7.50126
मा	-7.50528
▁जीवन	-7.51623
▁ऐसी	-7.52524
▁रही	-7.53452
▁होते	-7.54463
ली	-7.54497
▁मे	-7.54654
सा	-7.55587
▁प्रदान	-7.56082
▁बारे	-7.56386
▁बीच	-7.57122
ऐ	-7.57528
वा	-7.57982
▁à	-7.58322
▁वाला	-7.5856
s	-7.58993
▁जैसे	-7.61003
।"	-7.62027
▁उसका	-7.6294
▁ईमान	-7.63973
वि	-7.64123
▁अपना	-7.64986
▁सी	-7.66514
▁बना	-7.67817
▁जाएगा	-7.67891
▁रब	-7.68581
एं	-7.68862
▁ग	-7.69451
▁सं	-7.69575
▁केवल	-7.69609
▁उनका	-7.6971
▁हमें	-7.7074
▁मेरे	-7.70753
्स	-7.70879
फ	-7.71724
से	-7.71963
▁जिसमें	-7.72172
▁भाग	-7.72555
▁बार	-7.72761
▁श्री	-7.72773
िंग	-7.73
▁हूँ	-7.73288
▁उपयोग	-7.73791
▁पूर्व	-7.75347
▁ताकि	-7.75766
▁कह	-7.75815
▁देने	-7.76146
'	-7.76223
▁ऐ	-7.7651
अ	-7.76703
▁प्रयोग	-7.76882
▁वाली	-7.7726
▁वही	-7.77457
▁सबसे	-7.77695
▁त	-7.77936
▁बस	-7.77937
▁बड़ा	-7.78402
e	-7.78633
▁प	-7.79098
▁पैदा	-7.79789
▁इसे	-7.79984
▁हमारी	-7.80076
कार	-7.80088
▁जाना	-7.801
▁उसी	-7.80101
▁ब	-7.80251
को	-7.80645
▁अधिनियम	-7.80892
▁जाए	-7.81152
▁धारा	-7.81184
▁तब	-7.81257
▁आज	-7.81376
▁मु	-7.81978
▁जाते	-7.82072
▁देता	-7.82184
▁इसमें	-7.82689
▁राष्ट्रीय	-7.8283
की	-7.82831
▁ए	-7.83076
स्	-7.8394
िया	-7.84198
"	-7.84423
▁पा	-7.85203
ंड	-7.85374
▁जिसे	-7.86079
▁अथवा	-7.86276
ू	-7.86389
ंग	-7.86393
जी	-7.86457
▁स्थान	-7.87142
▁'	-7.87598
▁जी	-7.87647
▁संदेश	-7.87659
ाई	-7.87757
▁उ	-7.87794
रे	-7.8789
पी	-7.88694
y	-7.89158
▁सूचना	-7.89392
▁उससे	-7.89462
▁परवरदिगार	-7.89658
▁क्योंकि	-7.8972
आ	-7.89749
▁उनसे	-7.8995
▁शिक्षा	-7.90405
▁आय	-7.91043
नि	-7.91816
▁सकती	-7.92566
▁चीज़	-7.93979
टी	-7.93981
▁सा	-7.94248
▁स्थिति	-7.94401
▁करती	-7.94859
▁द	-7.95148
▁दूसरे	-7.95284
▁2	-7.95475
ौ	-7.95652
ओ	-7.9603
▁जिन	-7.96067
▁सु	-7.96273
▁इसलिए	-7.96314
▁सहायता	-7.97073
▁विशेष	-7.97346
▁विचार	-7.97786
▁फ़ाइल	-7.98567
▁बड़ी	-7.98634
▁इ	-7.98823
एँ	-7.99347
▁उनमें	-7.99911
m	-8.00076
▁हूं	-8.00199
▁विभिन्न	-8.00478
▁होगी	-8.00611
▁कभी	-8.00641
पर	-8.00692
▁होना	-8.00824
▁ना	-8.00905
▁मेरी	-8.01018
▁अधीन	-8.0114
▁शामिल	-8.01159
▁कई	-8.01321
▁कु	-8.01488
▁नि	-8.01738
▁योजना	-8.02403
▁विश्व	-8.02441
▁बल्कि	-8.02701
▁ह	-8.03131
इ	-8.03134
▁दौरान	-8.03141
▁लिये	-8.03404
▁बे	-8.03468
▁इससे	-8.03532
▁उप	-8.03565
जा	-8.03635
▁कहते	-8.03758
ॉ	-8.04004
थ	-8.04026
▁बन	-8.04186
▁सेवा	-8.0441
▁करके	-8.04414
▁आगे	-8.04497
▁यहाँ	-8.04783
दा	-8.05119
▁अनुसार	-8.0567
गी	-8.05917
▁पता	-8.06089
▁विषय	-8.06092
▁संबंध	-8.06105
▁जहां	-8.06125
▁उपलब्ध	-8.07143
▁होंगे	-8.07352
ये	-8.07367
फ़	-8.0737
़	-8.07386
▁लगा	-8.07391
ठ	-8.07418
▁ल	-8.08183
▁तरफ	-8.08202
▁उनको	-8.08227
ध	-8.0841
i	-8.08469
▁ख	-8.08648
ति	-8.09002
▁आधार	-8.0917
▁पी	-8.09266
▁सामने	-8.10101
▁घर	-8.10233
गा	-8.10586
और	-8.10622
▁जिसके	-8.11027
प्र	-8.11044
▁इसका	-8.11081
मान	-8.11151
यों	-8.1137
▁लगे	-8.11738
▁पूरा	-8.11813
ै	-8.12112
▁र	-8.12267
▁अलग	-8.12353
▁ला	-8.12807
▁देते	-8.12836
▁बा	-8.13025
▁करेगा	-8.13033
▁तैयार	-8.13174
▁सूची	-8.13367
ँ	-8.1345
▁उसमें	-8.13482
▁संबंधित	-8.13829
क्ष	-8.13848
▁संख्या	-8.1387
▁बाहर	-8.14129
▁याद	-8.14432
ियां	-8.14684
▁यही	-8.15002
▁निर्माण	-8.15337
बा	-8.15468
▁करे	-8.15581
▁चाहते	-8.15659
न्	-8.15693
▁मार्ग	-8.16049
डी	-8.16427
▁च	-8.16486
▁प्रत्येक	-8.16492
▁किताब	-8.16854
िका	-8.1714
▁आपको	-8.17194
▁ज	-8.17457
▁श	-8.17564
उ	-8.17608
बी	-8.17676
ष	-8.17781
▁आदि	-8.17968
▁अवसर	-8.17979
▁छोड़	-8.18032
▁हों	-8.18847
▁स्	-8.18968
दार	-8.19475
▁नई	-8.19864
र्	-8.19888
▁मुख्य	-8.19947
▁अच्छा	-8.20105
▁बनाने	-8.20175
▁तीन	-8.20321
▁रह	-8.20646
▁बड़े	-8.20649
▁स्तर	-8.20749
घ	-8.2116
▁प्रक्रिया	-8.2133
▁जारी	-8.21478
▁लाभ	-8.21485
हा	-8.21834
▁पूरी	-8.21873
▁उत्तर	-8.22189
▁भाषा	-8.22608
▁तुम्हारी	-8.22679
▁इसी	-8.23326
▁अनेक	-8.23402
▁दूर	-8.23446
त्	-8.23485
t	-8.23495
▁स्वयं	-8.23654
▁आपके	-8.23721
▁ज्ञान	-8.23815
’	-8.2393
▁जल	-8.243
▁‘	-8.24438
▁धर्म	-8.24573
u	-8.24662
▁रखा	-8.2507
▁रंग	-8.25094
▁लो	-8.25436
▁निश्चय	-8.25478
भ	-8.25584
▁ऊपर	-8.25752
▁दर	-8.25965
...	-8.26157
▁पानी	-8.26189
▁उच्च	-8.26405
▁गये	-8.26422
▁माल	-8.26443
▁बैंक	-8.26496
a	-8.26844
▁पूर्ण	-8.2728
वी	-8.27383
▁अर्थ	-8.27632
मे	-8.28238
▁हेतु	-8.28321
▁खुदा	-8.28465
▁चाहता	-8.28672
▁दुनिया	-8.28906
▁सामान्य	-8.29257
सं	-8.29292
▁देख	-8.29448
कि	-8.29521
▁भवन	-8.3003
▁बनाया	-8.30045
▁3	-8.30076
▁शुरू	-8.30147
▁अभि	-8.30317
▁महत्वपूर्ण	-8.30506
o	-8.3054
▁हाथ	-8.30786
स्त	-8.30857
पूर्ण	-8.3135
दी	-8.31456
टा	-8.31492
स्ट	-8.315
क़	-8.31616
▁शक्ति	-8.32422
▁तुम्हारा	-8.32485
▁करेंगे	-8.32564
▁“	-8.32626
▁&	-8.32666
▁ई	-8.32667
▁अधिकार	-8.33045
▁ध्यान	-8.33046
▁पत्र	-8.33092
▁माध्यम	-8.33825
▁जिसने	-8.33876
▁बढ़	-8.33932
▁यहां	-8.33973
▁प्रौद्योगिकी	-8.34062
▁मिल	-8.34587
▁बेशक	-8.34614
▁सके	-8.34893
▁नीचे	-8.35103
▁ठीक	-8.35153
▁समझ	-8.35155
S	-8.35289
▁आई	-8.35465
▁देना	-8.35579
▁प्रतिशत	-8.35657
▁बिना	-8.35674
ीकरण	-8.35714
▁देखा	-8.35998
▁मैंने	-8.36156
d	-8.36703
▁प्रमुख	-8.36793
▁अनु	-8.3682
ऊ	-8.36844
▁मन	-8.37038
p	-8.37074
▁सि	-8.37232
▁परिवर्तन	-8.37585
▁जान	-8.37602
¥	-8.37622
वे	-8.37696
▁मै	-8.37745
▁मूल	-8.37752
▁जमा	-8.37884
▁गयी	-8.38063
मी	-8.38394
▁स्पष्ट	-8.3843
▁जिसका	-8.38642
▁क्षेत्रों	-8.38678
ऋ	-8.38785
▁लेकर	-8.38811
ख़	-8.38833
▁मान	-8.38854
▁पीछे	-8.38963
▁किन्तु	-8.391
▁परि	-8.39118
▁राष्ट्र	-8.39145
▁ज़मीन	-8.39249
▁खा	-8.39354
▁मदद	-8.39575
▁मगर	-8.39601
▁जबकि	-8.39699
▁चल	-8.39717
रो	-8.3972
लि	-8.39888
▁विश्वास	-8.40338
पा	-8.40659
▁धरती	-8.40961
b	-8.41109
▁दिए	-8.41826
ंट	-8.41936
▁प्रभाव	-8.41997
▁कंपनी	-8.42066
▁खंड	-8.42221
▁ली	-8.42392
गत	-8.42487
इस	-8.42728
▁अतः	-8.42841
▁आर्थिक	-8.42964
▁समाज	-8.42969
▁कृषि	-8.43055
▁सुधार	-8.43176
में	-8.435
▁कुल	-8.43752
▁अज़ाब	-8.44145
▁a	-8.44421
ड़ी	-8.44627
▁आदेश	-8.44826
▁ऋण	-8.45082
▁होकर	-8.45107
▁इसकी	-8.45364
▁चाहे	-8.45416
▁मूल्य	-8.45835
▁रखते	-8.45837
▁ओ	-8.45877
▁इनकार	-8.4611
▁मा	-8.46248
▁अवधि	-8.46299
तर	-8.46302
▁जानकारी	-8.46482
▁ज्यादा	-8.46594
▁जनता	-8.46601
िस	-8.46642
वर	-8.46804
▁आया	-8.46842
▁तुमसे	-8.46961
▁कार्यक्रम	-8.47136
▁डाल	-8.4718
▁चार	-8.47437
▁लगभग	-8.47441
▁वा	-8.47671
▁आने	-8.47765
▁जैसा	-8.4797
ंज	-8.4808
▁क्यों	-8.48091
▁अभी	-8.48114
▁सारे	-8.48171
▁फ़ोल्डर	-8.48445
▁काफी	-8.48554
▁तू	-8.48781
▁लागू	-8.48956
▁विज्ञान	-8.49144
▁मामले	-8.4948
▁मेरा	-8.49577
▁जगह	-8.49627
छ	-8.49651
▁समूह	-8.49689
▁ध	-8.49705
▁लोक	-8.49753
▁जानता	-8.4981
▁वहां	-8.49874
▁अच्छे	-8.49999
ड़ा	-8.5022
रण	-8.50305
>	-8.50653
▁आग	-8.5103
्र	-8.51135
▁सिवा	-8.51206
c	-8.51258
न्द	-8.51567
▁अच्छी	-8.51735
▁उद्योग	-8.51987
▁नीति	-8.52166
▁बराबर	-8.52385
▁निकल	-8.52427
▁राज	-8.52449
▁सामाजिक	-8.52452
▁रहने	-8.52596
▁समान	-8.52597
▁विधि	-8.52775
▁प्रणाली	-8.52855
▁ता	-8.52875
▁जाएगी	-8.5292
▁स्थापित	-8.53083
▁आवश्यक	-8.53204
▁भर	-8.53363
ण्ड	-8.53645
▁फ़	-8.53677
▁आवश्यकता	-8.53992
▁प्रयास	-8.54164
▁बदल	-8.5432
▁भ	-8.54511
▁सीमा	-8.54692
▁खेल	-8.54797
¤3⁄4	-8.54929
▁दें	-8.55563
▁कर्म	-8.557
पुर	-8.55779
▁कहीं	-8.55899
▁सुरक्षा	-8.56234
▁दिल	-8.56328
▁जानते	-8.56691
▁क्षमता	-8.56803
▁जन	-8.56847
▁स्वीकार	-8.56848
▁उसको	-8.56869
▁केंद्र	-8.56926
▁क़ौम	-8.56978
C	-8.5706
▁परिणाम	-8.57128
▁वक्त	-8.57228
क्	-8.57281
▁मध्य	-8.57293
टे	-8.57302
▁साल	-8.57343
▁राम	-8.57658
▁कोर्इ	-8.57723
जन	-8.57876
▁जिससे	-8.57939
▁राशि	-8.57956
▁बल	-8.58051
▁मानव	-8.58175
▁चुका	-8.58341
▁खोज	-8.58397
▁पद	-8.58616
▁विभाग	-8.59181
▁#44;	-8.59194
▁अतिरिक्त	-8.59227
▁संपर्क	-8.59361
शा	-8.59385
रु	-8.59421
वार	-8.59916
▁आए	-8.59993
g	-8.60116
▁रहते	-8.60259
▁रखने	-8.60391
in	-8.60396
▁चुके	-8.60429
▁छ	-8.60471
▁लेने	-8.60599
ियाँ	-8.60661
▁अंतर्गत	-8.60968
▁आकार	-8.61089
▁18	-8.61206
▁मिला	-8.61391
▁कहने	-8.61454
▁सहयोग	-8.61537
▁सर	-8.61791
▁अनुसंधान	-8.61884
▁नया	-8.61929
▁उत्पादन	-8.61943
यां	-8.62021
¥	-8.62383
▁नए	-8.62436
▁सभा	-8.62504
▁सही	-8.62677
▁देशों	-8.62773
▁आकाश	-8.62781
▁:	-8.62792
▁लाए	-8.62925
▁तुमने	-8.62925
▁उद्देश्य	-8.63298
▁यातना	-8.63412
▁वर्ग	-8.63779
A	-8.63892
▁नही	-8.63928
▁य	-8.64207
रि	-8.64208
▁फ	-8.64279
▁रात	-8.64289
वाद	-8.6445
▁व्यापार	-8.64451
ात्मक	-8.64557
▁बनाए	-8.64565
▁यात्रा	-8.64637
▁व्यवस्था	-8.64837
▁अव	-8.65032
▁बेहतर	-8.65038
▁चला	-8.65289
▁सदस्य	-8.6547
्व	-8.65576
बे	-8.65659
▁किस	-8.657
▁प्रस्तुत	-8.65928
▁मो	-8.65956
▁वालों	-8.66011
▁गु	-8.66119
ंक	-8.66145
▁प्रदेश	-8.66219
▁परियोजना	-8.66261
▁शब्द	-8.66383
▁एस	-8.66611
ंस	-8.66803
▁वस्तु	-8.66823
▁परन्तु	-8.66879
▁उपधारा	-8.66973
▁जिन्हें	-8.66986
▁दा	-8.67031
▁डर	-8.67085
▁सत्य	-8.67088
▁रि	-8.67534
ंद	-8.67576
▁सम	-8.67724
▁''	-8.67813
▁अधिकारी	-8.68087
▁वर्तमान	-8.68093
▁%	-8.68109
▁मूसा	-8.68112
▁मार	-8.68156
▁यू	-8.68309
्या	-8.68315
▁विशिष्ट	-8.68331
▁निर्णय	-8.6841
▁हाल	-8.68804
जो	-8.68829
▁महा	-8.68831
▁युद्ध	-8.6884
▁क़	-8.68841
▁इतिहास	-8.68936
▁सिर्फ	-8.6896
स्थ	-8.69048
पन	-8.6914
▁संघ	-8.69175
खा	-8.69209
▁कौन	-8.69478
क्स	-8.696
▁हुक्म	-8.70195
▁न्यायालय	-8.70282
▁4	-8.70296
▁शरीर	-8.70366
▁वर्षों	-8.7039
त्र	-8.70559
▁विवरण	-8.70592
▁दूसरी	-8.70756
हर	-8.70831
▁दृष्टि	-8.70897
¤	-8.70963
▁मि	-8.70963
▁थीं	-8.70967
▁छवि	-8.71064
¤°	-8.71118
▁रु	-8.71239
▁तुमको	-8.71263
▁पहचान	-8.71267
▁_	-8.71325
▁लक्ष्य	-8.71339
ष्	-8.71455
▁बि	-8.71463
म्ब	-8.71551
▁निकाल	-8.716
▁वहाँ	-8.71623
ार	-8.71727
▁अन	-8.71857
एस	-8.71886
2	-8.72078
▁ट	-8.72197
▁हमारा	-8.72328
▁वास्तव	-8.72402
▁स्वास्थ्य	-8.72488
▁दिल्ली	-8.72574
T	-8.72621
▁गो	-8.727
▁अप	-8.72754
मो	-8.73015
▁kg	-8.73132
▁उठा	-8.73137
▁गा	-8.7331
00	-8.73332
▁पि	-8.73425
रू	-8.73464
▁अंत	-8.73477
▁स्थित	-8.73613
▁प्रधानमंत्री	-8.73666
▁बंद	-8.73814
▁धन	-8.73849
▁कै	-8.73897
▁विश्वविद्यालय	-8.73972
▁देगा	-8.7412
म्	-8.74248
लो	-8.74248
▁तौर	-8.74259
▁बी	-8.74304
▁रे	-8.74324
▁लाख	-8.74381
▁देखते	-8.74454
गे	-8.74472
▁एन	-8.74549
▁वास्ते	-8.74619
▁डि	-8.74787
▁बच्चों	-8.74791
र्स	-8.74853
▁जिनके	-8.74921
▁निर्धारित	-8.75291
▁कैसे	-8.75711
ान	-8.75713
आई	-8.75868
0	-8.75997
▁चि	-8.76056
▁अनुभव	-8.76135
▁परंतु	-8.76169
त्व	-8.76217
ाव	-8.76221
सर	-8.76232
▁अमेरिका	-8.76563
▁मंत्रालय	-8.76722
▁बह	-8.76724
▁काल	-8.76736
▁भूमि	-8.76786
▁निवेश	-8.76836
▁S	-8.76884
▁पड़े	-8.77048
▁5	-8.77181
▁बता	-8.7725
▁हमेशा	-8.77362
▁पेश	-8.77469
▁विकसित	-8.77541
टर	-8.77564
▁हा	-8.7758
▁जिन्होंने	-8.77662
▁सह	-8.77992
▁कल	-8.78055
▁स्थानीय	-8.78063
▁प्रेम	-8.78096
▁संस्थान	-8.78117
▁C	-8.78122
E	-8.783
▁तहत	-8.78304
▁रा	-8.7861
▁name	-8.78651
▁उदाहरण	-8.78663
▁10	-8.79335
जे	-8.79707
▁क्रिया	-8.79744
वीं	-8.7977
an	-8.7994
▁बाल	-8.80034
▁डी	-8.80035
▁बदला	-8.80435
▁मांग	-8.805
▁निर्धारण	-8.80526
आर	-8.80533
▁हक़	-8.80608
▁विदेशी	-8.80762
▁आम	-8.80806
▁भेजा	-8.80995
▁मौजूद	-8.81033
▁समाप्त	-8.81105
▁अंतिम	-8.81125
▁नियम	-8.81137
▁हे	-8.81193
▁सो	-8.81286
▁रोग	-8.81758
▁दिशा	-8.81765
ज़ा	-8.82057
▁जरूरत	-8.82116
एम	-8.82133
▁रख	-8.82145
▁कला	-8.82147
ंत	-8.82172
▁छोटे	-8.8228
▁समिति	-8.82306
▁निश्चित	-8.82349
▁प्रवेश	-8.8262
▁भूमिका	-8.82694
मु	-8.82728
▁लगता	-8.82865
▁पहुँच	-8.82873
▁फल	-8.82886
▁”	-8.82887
20	-8.82943
वादी	-8.83106
शी	-8.83291
सि	-8.833
कृत	-8.83392
▁राह	-8.83421
▁त्रुटि	-8.83505
▁जहाँ	-8.83545
ड़े	-8.83687
”	-8.83797
▁मंदिर	-8.83963
वाह	-8.83996
¥	-8.8409
▁अनुमति	-8.84135
▁सक्रिय	-8.84198
▁सन्	-8.84211
▁झ	-8.84446
कारी	-8.84475
▁संयुक्त	-8.84546
▁रोक	-8.84672
▁निस्संदेह	-8.84693
▁नियंत्रण	-8.84712
्म	-8.84732
▁भाई	-8.84957
M	-8.84968
▁रहता	-8.84992
▁पाया	-8.85089
▁किये	-8.85125
▁सू	-8.85141
▁जिसकी	-8.85332
▁जन्म	-8.85337
ढ़	-8.85414
▁विस्तार	-8.85428
▁स्व	-8.85588
▁भीतर	-8.8564
▁केन्द्र	-8.85742
▁विकल्प	-8.85794
▁आधारित	-8.85855
I	-8.85859
▁पे	-8.86036
▁सोच	-8.86172
▁बाजार	-8.86211
▁पहुँचा	-8.8637
▁माना	-8.86426
नों	-8.86635
▁निर्दिष्ट	-8.86718
ही	-8.86731
▁आरंभ	-8.86734
▁जाओ	-8.86907
▁जांच	-8.87095
▁वित्तीय	-8.87136
▁सहायक	-8.87156
▁हिस्सा	-8.87443
▁ज़	-8.87535
्यू	-8.87549
n	-8.87666
तो	-8.87672
फा	-8.87704
▁प्रथम	-8.87732
▁डाक	-8.87774
▁संबंधी	-8.87867
चा	-8.87882
र्ज	-8.87888
नाज़िल	-8.88023
▁स्थापना	-8.88051
▁मनुष्य	-8.88231
डा	-8.8856
पत्र	-8.88689
▁कानून	-8.88718
स्क	-8.88751
हार	-8.88758
▁वो	-8.88822
रूप	-8.89026
▁सिंह	-8.89265
▁परिवार	-8.89279
▁वृद्धि	-8.89281
▁संविधान	-8.89705
▁भेज	-8.89818
मन	-8.89974
करण	-8.89991
झ	-8.90187
▁अध्ययन	-8.90208
दर	-8.90233
▁विंडो	-8.90255
िन	-8.90352
कों	-8.90624
ेंगे	-8.90645
▁अंग	-8.90737
▁सका	-8.90871
▁पक्ष	-8.91194
▁लेते	-8.91307
▁मृत्यु	-8.91329
▁6	-8.91368
बर	-8.91466
▁प्रबंधन	-8.91652
र्क	-8.91835
▁सुन	-8.91878
▁बहु	-8.9196
गु	-8.92075
ग़	-8.92124
▁अलावा	-8.92136
▁पिछले	-8.92229
▁पहली	-8.9236
द्र	-8.925
▁दु	-8.926
▁प्रकाश	-8.92603
▁लें	-8.9261
▁<	-8.92612
k	-8.92634
▁खोल	-8.92648
डे	-8.92769
▁महान	-8.92795
ृ	-8.92846
र्म	-8.92847
▁सहित	-8.93027
▁प्रश्न	-8.93113
O	-8.93144
०	-8.93237
▁रखता	-8.93396
▁कृपया	-8.93444
▁उत्पन्न	-8.93447
▁मत	-8.93469
▁आर	-8.93502
यर	-8.93553
▁मर	-8.93556
▁पहुंच	-8.93579
▁समर्थन	-8.93827
▁खाता	-8.94249
▁एक्स	-8.94259
▁पूंजी	-8.94318
▁दृश्य	-8.94508
▁सर्वर	-8.94674
▁साहित्य	-8.94691
▁जाएँ	-8.94855
▁पुनः	-8.94876
▁भुगतान	-8.94968
▁खुद	-8.95012
▁मंत्री	-8.95012
▁गिर	-8.95072
▁लग	-8.95077
हम	-8.95265
▁सुनिश्चित	-8.95655
▁प्रा	-8.95696
▁दक्षिण	-8.95732
▁आसमान	-8.95737
▁पृष्ठ	-8.95789
optional	-8.958
ीन	-8.95855
▁प्रशिक्षण	-8.95872
1	-8.95911
▁पु	-8.95957
D	-8.96001
ेगा	-8.96063
▁संस्था	-8.961
सु	-8.96106
▁सत्ता	-8.96187
▁दिनों	-8.96212
श्	-8.96335
▁भिन्न	-8.96344
तम	-8.96455
ात	-8.96507
▁करोड़	-8.96587
ंच	-8.96716
▁प्रारंभ	-8.9684
▁फाइल	-8.9685
▁पढ़	-8.97018
er	-8.97053
▁ऊर्जा	-8.97132
▁A	-8.97198
▁बु	-8.9732
शि	-8.97399
▁पाठ	-8.97436
ल्	-8.97607
तु	-8.97649
▁@	-8.97727
▁समस्या	-8.97783
▁मात्रा	-8.97861
4	-8.97973
▁आदमी	-8.97997
▁योग्य	-8.98023
▁संगठन	-8.98071
▁आधुनिक	-8.98138
▁बच्चे	-8.98212
िल	-8.98241
▁रिपोर्ट	-8.98291
▁लिखा	-8.98542
▁(1)	-8.98612
▁जाएँगे	-8.98699
स्व	-8.98807
कर्ता	-8.98856
▁पकड़	-8.98856
शन	-8.98875
▁इस्तेमाल	-8.9893
?"	-8.98961
▁d	-8.98967
▁वापस	-8.99013
▁सुविधा	-8.99097
ण्श्	-8.99182
छ्ष	-8.9923
रत	-8.99305
▁उनपर	-8.99405
L	-8.99523
▁वेबसाइट	-8.99578
▁अति	-8.99801
▁रुप	-8.99973
▁चुनें	-9.00142
भी	-9.00196
▁प्रस्ताव	-9.00246
▁जैसी	-9.00271
ाइ	-9.00306
▁शहर	-9.00474
▁खाते	-9.00681
▁लाल	-9.00877
▁रो	-9.00912
▁क्र	-9.00971
▁पड़	-9.01
▁इं	-9.01037
▁सरकारी	-9.01125
बल	-9.0114
चार	-9.01257
▁निर्यात	-9.01268
▁सार्वजनिक	-9.01318
▁एम	-9.01367
वान	-9.01391
l	-9.01418
▁प्रकृति	-9.01547
▁स्कूल	-9.01653
बार	-9.01866
▁मामलों	-9.01956
▁प्रगति	-9.02055
▁दल	-9.02075
▁रहो	-9.02078
▁गांधी	-9.02097
▁पूरे	-9.0223
एक	-9.02323
▁शासन	-9.02334
▁बै	-9.02355
िर	-9.02366
▁अधि	-9.02405
ेशन	-9.02638
मि	-9.02802
▁अत्यन्त	-9.0296
▁सक्षम	-9.02964
यन	-9.02991
▁राज्यों	-9.03085
▁चले	-9.03151
यी	-9.03199
▁प्रमाण	-9.03334
▁निकट	-9.03379
▁मालूम	-9.03426
त्त	-9.03743
▁गुण	-9.03778
▁यक़ीनन	-9.03953
मत	-9.03959
राज	-9.03987
ान्त	-9.04132
▁कोशिश	-9.04159
▁बाप	-9.04172
उस	-9.04482
▁कमी	-9.04523
▁बातें	-9.0459
▁संसद	-9.0477
काल	-9.04836
▁फा	-9.05041
▁दिखाएँ	-9.05125
र्ड	-9.0514
▁अस	-9.05229
ूर	-9.05353
f	-9.05406
▁प्रकट	-9.05504
P	-9.05529
▁व्यापक	-9.05638
▁समझा	-9.05695
लू	-9.05758
▁पार	-9.05803
▁गति	-9.05855
▁देखने	-9.05899
▁शख्स	-9.05899
▁जोड़	-9.05915
▁ग्रामीण	-9.05926
▁भू	-9.05939
तः	-9.06098
▁पश्चात	-9.06203
▁कांग्रेस	-9.06219
▁बचा	-9.06264
▁जिनमें	-9.06312
▁सदस्यों	-9.06552
ुर	-9.0674
ास	-9.06759
▁आयात	-9.0685
ाना	-9.06885
क्या	-9.06905
▁संभव	-9.06925
▁सामग्री	-9.06989
r	-9.07004
▁उचित	-9.07045
▁ड	-9.07126
▁कं	-9.07192
▁बैठक	-9.07222
▁नदी	-9.07266
▁चित्र	-9.07323
▁लौट	-9.07336
▁बंगाल	-9.07458
▁कहो	-9.07571
▁निर्	-9.07616
▁̧	-9.07673
र्ट	-9.07683
▁बढ़ा	-9.07827
▁घटना	-9.0788
रों	-9.07884
▁बने	-9.07931
रिया	-9.07976
▁न्याय	-9.07983
द्ध	-9.08029
▁बयान	-9.08047
जि	-9.08163
▁संकेत	-9.08164
▁संरचना	-9.08254
▁7	-9.08343
ाम	-9.08378
▁समारोह	-9.08465
▁राजा	-9.0856
नो	-9.08582
ुल	-9.08599
▁गुनाह	-9.08632
याँ	-9.08649
▁इतना	-9.08686
▁-	-9.08902
▁केंद्रीय	-9.08911
▁आवेदन	-9.09093
▁दिखाई	-9.09125
▁गैर	-9.0918
▁रक्षा	-9.09198
]	-9.0923
¤¿	-9.09258
▁पुरस्कार	-9.09423
▁संदर्भ	-9.09423
▁निधि	-9.09429
▁महत्व	-9.09445
▁'%	-9.09478
▁प्रदर्शन	-9.09633
कु	-9.09688
चे	-9.09719
मय	-9.098
पो	-9.0992
▁देती	-9.09931
▁मुँह	-9.09949
▁बातों	-9.10089
▁डिस्क	-9.10103
▁महिला	-9.1018
▁अंतर	-9.10336
▁दशा	-9.10379
गो	-9.10443
वन	-9.10513
▁मद	-9.10824
://	-9.10841
▁संगीत	-9.11181
Name	-9.11442
एन	-9.11452
▁रहेंगे	-9.11487
१	-9.11494
िश	-9.11494
हि	-9.11495
▁इनमें	-9.11527
▁वजह	-9.11571
▁पालन	-9.11749
▁भविष्य	-9.11768
ोर	-9.11868
▁मुद्रा	-9.11916
िए	-9.12012
▁चाहिये	-9.12025
▁रखो	-9.1203
▁पुस्तक	-9.12042
▁योगदान	-9.12115
फिर	-9.12117
▁औद्योगिक	-9.12136
धा	-9.1222
on	-9.12282
▁साफ	-9.12357
ar	-9.1237
▁दिवस	-9.12426
ार्थ	-9.12445
▁15	-9.12498
▁पड़ा	-9.12517
R	-9.1254
ष्ठ	-9.12644
पट	-9.12679
ख़ुदा	-9.12698
▁मी	-9.1283
▁बदले	-9.12925
▁लेखा	-9.12951
▁उत्पाद	-9.12984
8	-9.12991
▁स्वतंत्रता	-9.1302
▁शायद	-9.13104
▁translation	-9.13362
राम	-9.13449
¤	-9.13535
▁फेर	-9.13557
▁जवाब	-9.13794
▁निजी	-9.13907
▁किंतु	-9.13997
re	-9.14076
निक	-9.14139
▁उठ	-9.14148
▁एल	-9.1423
भा	-9.14232
▁अल	-9.14238
▁बुरा	-9.14262
▁जे	-9.14342
▁not	-9.1443
देश	-9.14481
▁शि	-9.14531
▁रखना	-9.14589
▁हि	-9.14622
▁टी	-9.14641
▁̈	-9.14662
ाय	-9.14907
न्न	-9.15062
▁ब्र	-9.15112
▁12	-9.15139
▁आशा	-9.15152
al	-9.15261
एल	-9.15269
▁पुनर्	-9.15316
▁पै	-9.15405
3	-9.15685
▁ऑफ	-9.15709
▁शा	-9.15784
▁बोर्ड	-9.15968
▁चयनित	-9.1601
▁दिखा	-9.16015
▁हैः	-9.16136
▁रकम	-9.16232
▁20	-9.16261
▁लिख	-9.16264
▁निम्न	-9.16273
▁निर्देश	-9.16326
▁मह	-9.16642
▁भावना	-9.16677
▁अवश्य	-9.16815
▁स्रोत	-9.16928
▁राय	-9.16931
▁need	-9.17015
▁चौ	-9.17175
▁लि	-9.17228
▁लागत	-9.17259
or	-9.17461
▁व्यक्तियों	-9.17543
म्प	-9.17684
ेड	-9.17723
▁कार्यालय	-9.1787
▁सुना	-9.17897
आयतों	-9.18138
वास	-9.18173
यू	-9.18198
▁नाटक	-9.18363
v	-9.1849
▁जि	-9.18494
दे	-9.18559
▁आयोजित	-9.18827
▁रक्त	-9.18846
x	-9.18951
▁सिर	-9.18953
वह	-9.1914
ॅ	-9.19212
▁भा	-9.19289
▁सफल	-9.19341
▁उपकरण	-9.19458
८	-9.19574
९	-9.19584
▁ढंग	-9.1964
▁पांच	-9.1966
▁प्रभावित	-9.19738
▁वायु	-9.19759
हीन	-9.19865
▁M	-9.19886
▁वास्तविक	-9.20001
▁मजबूत	-9.20007
▁रचना	-9.20128
▁मुक्त	-9.20206
पति	-9.20245
▁पर्याप्त	-9.20375
▁डाला	-9.20553
▁बैठ	-9.20574
गर	-9.20588
▁देंगे	-9.20637
▁समुदाय	-9.2068
बद्ध	-9.20702
▁अवस्था	-9.20712
ष्ट	-9.2074
▁इस्लाम	-9.20782
▁प्रकाशित	-9.20803
धि	-9.20805
नेवाले	-9.20916
▁व्यवहार	-9.21025
▁http	-9.21066
▁तंत्र	-9.21108
ियन	-9.21171
▁आत्म	-9.21319
▁दूसरा	-9.21334
▁सफलता	-9.21461
था	-9.21489
▁8	-9.21592
▁खर्च	-9.21728
र्द	-9.21755
▁हवा	-9.21902
▁बर	-9.21964
▁घ	-9.21986
▁does	-9.21989
िता	-9.22042
▁नेटवर्क	-9.22114
इन	-9.22163
▁हटा	-9.22179
▁ज़रूर	-9.22229
▁ऑ	-9.22358
▁probabl	-9.22365
▁संस्कृति	-9.22453
▁बैठे	-9.22489
▁लाने	-9.22501
ाल	-9.22513
▁निर्धारिती	-9.22569
5	-9.22599
▁राजनीतिक	-9.22663
द्	-9.2276
▁बोल	-9.22896
▁भाव	-9.2302
▁हासिल	-9.2303
पाल	-9.23076
▁चुकी	-9.23154
▁मुखर्जी	-9.23375
▁सम्	-9.23398
▁सकें	-9.23433
▁सौ	-9.2344
▁वै	-9.235
▁पैग़म्बर	-9.23625
▁आत्मा	-9.23653
बि	-9.23681
▁सेना	-9.23695
▁निम्नलिखित	-9.23982
▁सुरक्षित	-9.2408
डि	-9.24202
▁असफल	-9.24212
▁चर्चा	-9.24248
उन	-9.24266
्त	-9.24293
▁ठ	-9.24371
▁केन्द्रीय	-9.24662
▁युग	-9.24691
▁लड़	-9.24823
▁उद्यम	-9.24882
▁व्यक्त	-9.24914
▁संरक्षण	-9.24959
७	-9.2497
ंध	-9.25003
ियो	-9.25139
यह	-9.25189
▁भारी	-9.25231
▁सेवाओं	-9.25303
▁बनी	-9.25318
▁रू	-9.25397
पूर्वक	-9.25417
िम	-9.25596
▁प्रमाणपत्र	-9.25605
▁इच्छा	-9.25673
▁यद्यपि	-9.25718
▁सीधे	-9.25773
▁पूछ	-9.25848
न्त	-9.25919
वर्ती	-9.25999
▁विशाल	-9.26001
▁लघु	-9.26076
दि	-9.26207
▁आपकी	-9.26229
▁तारीख	-9.26318
▁शांति	-9.26349
दान	-9.26409
▁सम्मान	-9.26429
च्छ	-9.26443
▁बाज़	-9.26468
▁ईश्वर	-9.26505
▁बाग़	-9.26522
▁दस	-9.26565
▁शक	-9.26571
▁डॉ	-9.26746
▁अपेक्षा	-9.26769
▁वर्णन	-9.26817
▁कहना	-9.26977
▁प्रधान	-9.26991
▁कदम	-9.27192
▁बधाई	-9.27322
▁मित्र	-9.27336
टो	-9.27349
चल	-9.27459
ाने	-9.27473
▁तरीके	-9.27487
▁सम्मेलन	-9.27553
▁आयोग	-9.2762
▁ख़	-9.27623
▁शब्दों	-9.27655
▁संसाधन	-9.27665
ची	-9.27795
w	-9.27976
▁चयन	-9.2812
▁पुरुष	-9.28228
▁विरुद्ध	-9.28283
▁उपस्थित	-9.28398
▁रखे	-9.28476
यो	-9.28648
▁कवि	-9.28671
▁छोटी	-9.28718
सू	-9.2873
▁गिरोह	-9.28852
▁गुणवत्ता	-9.28885
▁अनिवार्य	-9.28986
त्य	-9.29061
▁रखें	-9.29065
▁कंप्यूटर	-9.29153
▁भोजन	-9.29262
▁शैतान	-9.29313
▁खरीद	-9.29417
क्रम	-9.29465
▁अध्यक्ष	-9.29478
▁छोड़कर	-9.29574
▁जिला	-9.2964
शील	-9.29698
▁सम्बन्ध	-9.29756
▁प्राकृतिक	-9.29794
▁नमाज़	-9.29863
▁संपत्ति	-9.30182
▁१९	-9.30213
▁पश्चिम	-9.3029
▁माँग	-9.30337
▁वित्त	-9.30473
▁आता	-9.30577
▁प्राचीन	-9.30578
▁रखी	-9.30646
फ्	-9.30755
▁सख्त	-9.30769
▁डे	-9.30821
▁बताया	-9.30842
▁अधिकांश	-9.30974
▁जाति	-9.31194
सन	-9.31334
▁गलत	-9.31449
▁परीक्षा	-9.31571
nic	-9.31604
ल्ल	-9.31611
नाथ	-9.31638
▁प्रभावी	-9.31813
▁वैज्ञानिक	-9.31833
▁तुलना	-9.31882
▁व्य	-9.32037
द्द	-9.32051
ाह	-9.32091
▁ति	-9.32112
▁नगर	-9.32194
▁हस्ताक्षर	-9.32225
▁अगले	-9.32241
▁आते	-9.32284
बू	-9.32337
▁धार्मिक	-9.32502
▁शिकायत	-9.32537
▁सात	-9.32703
यें	-9.32726
¤2	-9.32728
):	-9.32842
▁मेल	-9.32878
▁अता	-9.32879
चि	-9.32963
बु	-9.3304
▁गर्इ	-9.33057
▁अभिलेख	-9.33132
▁उत्	-9.33239
▁ब्याज	-9.33307
▁करा	-9.33318
▁वीडियो	-9.33377
▁संशोधन	-9.33405
▁समाधान	-9.33521
▁बुला	-9.33595
▁प्रोग्राम	-9.33623
▁(19	-9.33693
▁जाये	-9.33887
–	-9.34004
▁जोड़ें	-9.34103
▁सर्व	-9.34139
▁संग्रह	-9.342
▁वी	-9.34232
जू	-9.34286
▁शीघ्र	-9.34354
▁[	-9.34408
▁बन्दों	-9.34431
▁अधिकारियों	-9.34463
▁खड़े	-9.34486
वल	-9.34606
▁हालत	-9.34648
▁बनाना	-9.34649
व्य	-9.3466
▁हित	-9.34899
▁बो	-9.34948
▁आंदोलन	-9.34965
▁चिकित्सा	-9.34967
▁संभावना	-9.35001
▁खो	-9.35095
▁लगी	-9.35139
िट	-9.35196
ांत	-9.35197
▁अंक	-9.35232
साथ	-9.35357
▁लेना	-9.35363
▁पाने	-9.35365
N	-9.35366
▁आपका	-9.35386
▁कुंजी	-9.35466
नाम	-9.35497
▁उन्हीं	-9.35537
▁एशिया	-9.35697
▁पंक्ति	-9.35721
▁थ	-9.35723
चर	-9.35724
01	-9.35911
▁जल्दी	-9.35942
देव	-9.36001
▁मिलता	-9.36038
▁मिली	-9.361
षण	-9.36263
▁तुमपर	-9.36309
युक्त	-9.36341
▁जु	-9.36395
▁P	-9.36411
▁उल्लेख	-9.36433
▁p	-9.36481
▁समझते	-9.36592
▁संस्थानों	-9.36637
▁पुकार	-9.36711
▁शैली	-9.36732
▁हिदायत	-9.36798
▁प्रतीक	-9.36881
▁प्रणब	-9.37053
▁तुममें	-9.37212
▁हिन्दी	-9.37279
▁जीव	-9.37542
▁संसार	-9.37564
▁नियत	-9.37592
▁कविता	-9.37593
ढ	-9.37603
र्ण	-9.37636
B	-9.37711
▁तेल	-9.38079
▁आती	-9.38091
▁क्षमा	-9.38155
▁श्रेणीः	-9.38157
पु	-9.38158
भाव	-9.38214
▁बर्	-9.38327
▁जरूरी	-9.38434
▁मालिक	-9.38443
▁D	-9.38457
गें	-9.38539
▁पद्धति	-9.38635
▁रहती	-9.38705
श्त	-9.38787
जीव	-9.388
▁नव	-9.38819
▁पुलिस	-9.38863
▁ढ	-9.38897
▁युवा	-9.38901
लों	-9.38917
▁निर्मित	-9.38928
▁माँ	-9.38962
▁पत्थर	-9.39001
▁सीमित	-9.39106
▁मानते	-9.39186
▁क़सम	-9.39333
▁कीमत	-9.39338
▁करनी	-9.39436
▁संस्कृत	-9.39481
▁निर्भर	-9.39491
▁F	-9.39533
▁अनुप्रयोग	-9.39557
▁चुन	-9.39576
आख़िरत	-9.3958
▁पश्चात्	-9.39583
दु	-9.39693
▁रहना	-9.39726
▁ब्रिटिश	-9.39744
ुक	-9.39764
ल्ड	-9.3984
२	-9.39852
ाइट	-9.39855
12	-9.39903
▁२	-9.39939
▁साधारण	-9.39942
▁छोटा	-9.39968
▁सरल	-9.40012
▁विवाह	-9.40117
पक	-9.40135
▁विरोध	-9.40145
स्प	-9.40152
▁T	-9.40197
▁जहन्नुम	-9.40199
वत	-9.40271
▁पिता	-9.40323
▁दिलों	-9.40356
▁तर्क	-9.40412
▁बिल्कुल	-9.40418
मेंट	-9.40437
10	-9.40507
▁चा	-9.40508
तक	-9.40537
▁इबराहीम	-9.40569
▁सेट	-9.40614
▁झूठ	-9.40722
▁सारी	-9.40741
▁करनेवालों	-9.40768
सब	-9.40786
▁वार्षिक	-9.40814
रस	-9.40919
▁वन	-9.41061
▁क्रम	-9.41193
▁पथ	-9.41205
▁जाँच	-9.41251
▁अर्थव्यवस्था	-9.41293
ोन	-9.41321
प्त	-9.41328
▁शताब्दी	-9.41366
अपने	-9.41413
▁आदर्श	-9.41435
▁औ	-9.415
▁पर्यावरण	-9.41596
▁निगम	-9.41646
फ़ा	-9.41702
ंगा	-9.41761
▁स्प	-9.418
▁अंदर	-9.41833
्यु	-9.4188
▁बन्द	-9.41883
▁डा	-9.41918
▁सिद्ध	-9.41934
▁मुख	-9.41942
▁भूल	-9.41975
▁योग	-9.41989
वाला	-9.42093
▁11	-9.42168
र्न	-9.42206
▁किसानों	-9.42422
▁शेष	-9.42429
▁समुद्र	-9.42438
▁घोषणा	-9.42511
▁सच्चे	-9.42548
▁कहेंगे	-9.42701
▁तु	-9.42746
गार	-9.42748
ेट	-9.42804
ाँ	-9.42954
▁तरफ़	-9.4304
▁महीने	-9.43089
▁शुल्क	-9.43173
▁व्यक्तिगत	-9.43241
▁प्रदर्शित	-9.4328
▁कठिन	-9.43281
▁पाक	-9.43318
एफ	-9.43328
▁अत्यंत	-9.43358
▁खुलती	-9.43363
▁सदन	-9.43461
ज्	-9.43476
दूसरे	-9.43523
▁आपने	-9.43532
ग्	-9.43545
▁नागरिक	-9.43571
▁ख़बर	-9.43689
▁9	-9.43823
ज़ी	-9.4384
▁प्रो	-9.43848
▁मौजूदा	-9.43924
▁संघर्ष	-9.43947
▁व्यय	-9.44032
▁अप्रैल	-9.44215
ठा	-9.44278
▁स्थल	-9.44293
▁ईसा	-9.44409
▁प्रयोजनों	-9.44423
▁सम्मिलित	-9.44448
▁फैला	-9.44473
▁मुस्लिम	-9.44514
▁विंडों	-9.44599
▁16	-9.44603
▁डेटा	-9.44673
्ल	-9.44729
▁अपील	-9.44786
▁अंग्रेजी	-9.44805
ब्	-9.44823
▁फि	-9.44883
▁आयु	-9.45033
▁मनो	-9.45036
▁तट	-9.45067
▁स्थायी	-9.45242
सो	-9.45256
ट्र	-9.4528
▁चुनाव	-9.45286
▁सामान	-9.45293
धार	-9.45377
▁बढ़ाने	-9.45459
▁सदैव	-9.45511
Cit	-9.45522
▁कार्यों	-9.4567
ूल	-9.45677
▁विचारों	-9.45773
▁हल	-9.4583
त्मक	-9.45889
▁चरण	-9.4594
▁(2)	-9.45965
▁पड़ता	-9.46018
,000	-9.46032
▁शक़	-9.4608
ताओं	-9.46087
▁इंडिया	-9.46185
ज्ज	-9.46254
मैं	-9.4633
ूँ	-9.46383
▁30	-9.46417
▁तार	-9.46455
▁लेखक	-9.46487
▁R	-9.46556
▁हृदय	-9.46598
▁लगाया	-9.46703
▁25	-9.46759
ंगे	-9.47146
▁मार्च	-9.47196
▁मिट्टी	-9.47228
▁तेजी	-9.47346
▁रहेगा	-9.47391
▁चाल	-9.47416
ाक	-9.47416
▁पहाड़	-9.47504
▁प्रत्यक्ष	-9.47691
▁अनुच्छेद	-9.4772
▁जिसको	-9.47747
▁पहला	-9.47748
▁गीत	-9.47792
कल	-9.47821
▁चु	-9.47862
▁भली	-9.47972
aà	-9.48014
▁हालाँकि	-9.4805
▁निशानियाँ	-9.48085
▁उपबंध	-9.48102
▁दृष्टिकोण	-9.48118
वें	-9.483
▁परिषद	-9.483
बाहरी	-9.48556
▁सज़ा	-9.48621
क्त	-9.48647
▁दायित्व	-9.48647
वाले	-9.48726
र्व	-9.48776
▁गंभीर	-9.48892
▁बीमा	-9.48912
▁बढ़ावा	-9.4893
▁जाय	-9.48993
टि	-9.49061
्ज	-9.49069
▁उद्	-9.4913
▁सच	-9.4915
मेल	-9.49153
▁नये	-9.49218
▁गवाह	-9.49222
▁कट	-9.4926
▁इन्	-9.49269
11	-9.49284
तन	-9.49333
▁चलते	-9.49339
▁लोड	-9.49351
▁सत्र	-9.49389
ेश	-9.49448
बन्ध	-9.49497
en	-9.49639
प्ल	-9.49676
▁1.	-9.50066
▁उपयुक्त	-9.50124
▁टे	-9.50144
ेल	-9.50193
धान	-9.50255
▁गोल	-9.50292
अल्लाह	-9.50413
ियम	-9.50473
▁विधान	-9.50483
▁दर्शन	-9.50556
▁प्रशासन	-9.50579
कृ	-9.50604
▁रुपये	-9.50615
▁सांस्कृतिक	-9.5063
पे	-9.5066
▁नसीहत	-9.50752
फर	-9.50816
▁पो	-9.50863
▁हानि	-9.50897
▁वैश्विक	-9.51044
▁इनके	-9.51119
▁मिलने	-9.51158
▁गाय	-9.51407
▁रद्द	-9.51418
▁तकनीकी	-9.51479
▁टो	-9.51671
हरगिज़	-9.51678
▁श्रेणी	-9.51791
h	-9.51806
▁वस्तुओं	-9.51878
▁देखें	-9.51939
▁सलाह	-9.5196
▁रोजगार	-9.5196
▁पात्र	-9.51976
▁ग़	-9.52003
क्ति	-9.52015
▁खाद्य	-9.5211
▁देखो	-9.52218
▁मिटा	-9.5225
▁दोस्त	-9.52266
▁अंतरराष्ट्रीय	-9.52269
▁पस	-9.52288
३	-9.52518
▁बीज	-9.52632
▁दर्ज	-9.5264
▁बनाकर	-9.52661
४	-9.5282
▁दोष	-9.52935
▁महिलाओं	-9.5295
▁छा	-9.52954
▁व्यवसाय	-9.53118
▁बिल	-9.53158
}	-9.53201
▁बख्श	-9.53202
▁जिनका	-9.53228
▁आपस	-9.53234
▁शीर्ष	-9.53278
▁क्षेत्रीय	-9.53309
५	-9.53312
▁सिस्टम	-9.53337
धर	-9.53381
▁उतर	-9.53417
▁लेता	-9.53489
▁बनाई	-9.53501
तुम	-9.53537
▁विनिर्दिष्ट	-9.53593
▁मिले	-9.53605
च्च	-9.53608
▁सुख	-9.53652
▁m	-9.53689
▁यूरोप	-9.53729
▁आस	-9.53746
▁बुरी	-9.53766
▁प्रसिद्ध	-9.5377
हे	-9.53833
▁गांव	-9.53922
ौर	-9.53985
तों	-9.54056
▁उत्तम	-9.54076
▁अनुवाद	-9.5417
▁समा	-9.5423
६	-9.54378
▁दिये	-9.54391
▁कठोर	-9.54405
न्ट	-9.54413
▁नियुक्त	-9.54417
जात	-9.54573
▁स्वरूप	-9.54606
▁विजय	-9.54634
▁दिखाया	-9.54651
▁विस्तृत	-9.54665
▁अधिकतर	-9.5468
▁शाह	-9.54714
▁प्रयासों	-9.54752
▁अधिकतम	-9.5479
▁अरब	-9.54866
▁साधन	-9.54869
▁आस्ति	-9.5488
▁I	-9.54921
▁स्वामी	-9.54925
▁मेहरबान	-9.54925
▁अनुकूल	-9.54931
▁the	-9.54977
▁काट	-9.54988
गम	-9.55049
▁बिजली	-9.55056
वालों	-9.55117
▁तत्व	-9.55119
द्व	-9.55127
ोस	-9.55142
▁घरों	-9.55153
▁समाचार	-9.55156
▁गुना	-9.55221
▁14	-9.55227
शु	-9.55281
''	-9.55555
F	-9.55603
फल	-9.55608
ंगी	-9.55609
▁संस्करण	-9.55629
▁मिशन	-9.55655
▁खोलें	-9.55694
हन	-9.55787
▁समक्ष	-9.55875
▁मार्गदर्शन	-9.559
र्थ	-9.56041
▁इतनी	-9.56107
प्रे	-9.5618
▁बावजूद	-9.56195
▁पार्टी	-9.56241
ii	-9.56352
ाइल	-9.56355
▁सै	-9.56391
▁प्रयुक्त	-9.56488
▁आतंकवाद	-9.56505
ल्स	-9.5651
▁गुज़र	-9.56512
▁देव	-9.56526
क़ा	-9.56597
ट्ट	-9.56609
▁सूर्य	-9.5666
▁आयोजन	-9.5668
णा	-9.56864
▁कहानी	-9.56878
जर	-9.56926
लैंड	-9.56926
▁हु	-9.56936
▁मौसम	-9.56999
▁पीठ	-9.57107
▁कटौती	-9.57168
▁हालांकि	-9.57213
▁खुश	-9.5739
▁संचार	-9.57429
▁मोड	-9.5743
्वा	-9.57444
▁मानक	-9.57599
▁B	-9.57613
हो	-9.57614
▁बुद्धि	-9.57626
▁क़यामत	-9.57634
फो	-9.57666
ेस	-9.57699
▁गुरु	-9.57891
न्ड	-9.57902
▁निरंतर	-9.57972
▁शिव	-9.58045
▁परस्पर	-9.58066
▁कथा	-9.58083
▁पहल	-9.58088
▁न्यू	-9.58208
▁0	-9.58242
धी	-9.5827
▁करनेवाला	-9.58463
▁सबको	-9.58696
▁व्या	-9.58734
▁पश्चिमी	-9.58807
▁बद	-9.58826
is	-9.5885
▁बच	-9.58853
नु	-9.58874
▁स्पष्टीकरण	-9.58906
▁दीवार	-9.58924
▁उपचार	-9.58931
▁सामना	-9.59008
▁अपराध	-9.59035
▁गुप्त	-9.59121
▁बंध	-9.59165
▁रोज़ी	-9.592
खे	-9.59234
अपनी	-9.59238
▁गुजरात	-9.59248
▁मशीन	-9.59303
▁पर्वत	-9.59325
▁खाली	-9.59341
मल	-9.59344
▁लेख	-9.59428
डर	-9.59467
▁भय	-9.59483
▁विद्युत	-9.59508
▁ठहरा	-9.59589
▁निदेशक	-9.59599
चन	-9.59692
▁पसंद	-9.59711
▁विवाद	-9.59758
▁सूक्ष्म	-9.59827
▁वाद	-9.59908
▁तल	-9.59963
▁वायदा	-9.59976
ंब	-9.60009
▁आसान	-9.60053
▁सरदार	-9.60136
▁विदेश	-9.60158
▁सरकश	-9.60206
▁गतिविधियों	-9.60207
दो	-9.60279
मर	-9.60373
▁वातावरण	-9.60423
ol	-9.60475
▁झुठला	-9.60515
▁पूर्ववर्ष	-9.60529
▁सकेगा	-9.60669
▁ज़रुर	-9.607
▁जोर	-9.60704
▁लिखने	-9.60716
▁मिलकर	-9.60741
▁एफ	-9.60765
▁ताल	-9.60771
U	-9.60817
▁माता	-9.60977
▁उम्मीद	-9.61002
▁फैल	-9.61048
▁कार	-9.61066
▁यंत्र	-9.61099
्द	-9.61113
▁पुत्र	-9.61116
▁खड़ा	-9.61118
ाधिकार	-9.61277
▁हिन्दू	-9.61346
ाइड	-9.61535
▁अभियान	-9.61554
▁ग्रहण	-9.61683
▁मुसलमानों	-9.61684
▁पहुंचा	-9.61787
▁पदार्थ	-9.61904
▁साम	-9.6195
▁वेतन	-9.62043
▁तिथि	-9.62056
▁चलता	-9.62233
▁17	-9.62335
कारों	-9.62351
▁स्वागत	-9.6239
लु	-9.62423
▁नियमित	-9.62442
▁क्लिक	-9.62467
▁कर्मचारियों	-9.62512
▁क्	-9.62581
▁50	-9.62601
िये	-9.6262
▁कब	-9.62682
▁करनेवाले	-9.62685
▁कार्ड	-9.62708
▁महसूस	-9.62841
▁मतलब	-9.62842
▁संपूर्ण	-9.62871
▁दस्तावेज	-9.6288
प्	-9.62914
▁नियमों	-9.62933
▁स्त्री	-9.63004
सार	-9.63048
hi	-9.63079
▁हाथों	-9.63091
▁बनाएँ	-9.63214
▁दावा	-9.63302
▁सुंदर	-9.63314
पूर्व	-9.63457
▁परीक्षण	-9.63458
▁सिद्धांत	-9.63493
ेज	-9.63532
क्षा	-9.63539
▁प्राप्ति	-9.6355
▁भेजे	-9.63555
▁वेब	-9.63626
▁उदार	-9.63867
▁त्रि	-9.63874
▁फूल	-9.63922
▁अवैध	-9.63977
र्त	-9.64015
▁नामक	-9.64022
▁मना	-9.64092
▁बोझ	-9.64121
हित	-9.64167
▁शेयर	-9.64172
▁कल्याण	-9.64215
लर	-9.64228
ic	-9.64234
भर	-9.64331
▁अफ्रीका	-9.64359
▁तय	-9.64378
▁पलट	-9.64378
▁सड़क	-9.64417
नेवाला	-9.64481
▁फिल्म	-9.64598
▁हद	-9.646
▁झुठलाया	-9.64629
¤¤	-9.64719
▁कार्रवाई	-9.64742
▁हिसाब	-9.64742
▁रहें	-9.64879
मंडल	-9.64903
ोल	-9.64913
▁आवास	-9.64959
▁मं	-9.65017
▁हाँ	-9.65043
▁ग्राम	-9.65067
▁टन	-9.65165
▁भला	-9.65238
▁कारबार	-9.65289
▁अक्सर	-9.65368
▁इन्हें	-9.65416
▁ख़र्च	-9.65522
▁खाने	-9.65541
▁काव्य	-9.65655
▁शुभकामनाएं	-9.65662
▁पाकिस्तान	-9.6571
▁सप्ताह	-9.65754
▁भरोसा	-9.65755
▁सद	-9.65767
▁आर्	-9.65781
▁मात्र	-9.65796
▁इबादत	-9.65803
शक्ति	-9.6593
▁–	-9.65938
▁आयुक्त	-9.65945
▁जीवित	-9.65954
▁दंड	-9.65986
परि	-9.66017
▁सहेजें	-9.66018
▁भौतिक	-9.66072
▁तौबा	-9.66094
▁x	-9.66119
ed	-9.66125
▁सहेज	-9.66158
▁देकर	-9.66164
र्च	-9.662
वां	-9.66341
▁संकल्प	-9.66348
कता	-9.66386
▁शुद्ध	-9.66443
▁प्रसन्नता	-9.66459
▁जिनकी	-9.66567
▁कल्पना	-9.66584
▁समस्याओं	-9.66608
योग	-9.66713
▁जनवरी	-9.66729
▁अंतर्राष्ट्रीय	-9.66779
▁जून	-9.66898
▁अंश	-9.66906
▁शख़्श	-9.66924
▁पेज	-9.6695
▁हिस्से	-9.6712
पि	-9.67295
▁अद्यतन	-9.67317
▁खूब	-9.67318
चित	-9.6743
ोप	-9.67438
▁जाएं	-9.67459
▁कितने	-9.67506
08	-9.67553
▁E	-9.6759
▁बढ़कर	-9.67608
▁खेती	-9.67612
▁चलो	-9.67664
▁उपाय	-9.67678
▁मिलती	-9.67721
रिक	-9.67809
तार	-9.67851
▁खाना	-9.67862
ुआ	-9.67865
▁मानसिक	-9.68059
it	-9.68076
▁खास	-9.68089
▁इजरायल	-9.68108
अलग	-9.68158
▁गणराज्य	-9.68159
▁माबूद	-9.68207
▁पुराने	-9.68366
▁भलाई	-9.68385
▁वितरण	-9.68507
फी	-9.6852
▁तेज	-9.6855
▁शून्य	-9.68557
▁शुक्र	-9.68557
▁बाहरी	-9.68644
▁खुशी	-9.6866
▁परियोजनाओं	-9.68748
▁मान्यता	-9.6884
▁{	-9.68846
्रा	-9.6885
▁शुरुआत	-9.68905
▁लगाने	-9.68926
▁प्राण	-9.68931
▁हजार	-9.69034
▁c	-9.69051
▁दूध	-9.69129
▁नेतृत्व	-9.69205
▁गैस	-9.69219
G	-9.69254
▁जुड़े	-9.6934
▁तकनीक	-9.69353
▁जायेगा	-9.69466
es	-9.69519
▁नोट	-9.69588
सल	-9.69589
▁दीन	-9.69617
▁सवाल	-9.69617
नीय	-9.69624
▁विफल	-9.69688
▁एवोल्यूशन	-9.69759
▁बदलें	-9.69769
▁रेल	-9.69786
▁चे	-9.69797
क्ल	-9.69853
▁ख्याल	-9.69914
▁हिंदू	-9.69975
दुनिया	-9.70024
वासी	-9.70081
▁धीरे	-9.70155
▁निर्देशिका	-9.70212
▁ज़ुल्म	-9.70214
जिस	-9.70241
▁चू	-9.70241
7	-9.7028
▁13	-9.70459
▁कितनी	-9.70535
▁इत्यादि	-9.70569
भाँति	-9.70569
▁दिला	-9.70592
▁मानो	-9.70622
▁उसपर	-9.70654
दू	-9.70666
▁शाखा	-9.70767
▁शत्रु	-9.70773
्न	-9.70803
▁कार्यक्रमों	-9.70984
▁ध्वनि	-9.71028
जनक	-9.71073
र्इ	-9.71078
▁प्रयोजन	-9.71101
▁उपन्यास	-9.7113
▁मूल्यांकन	-9.71143
▁अनुसरण	-9.71181
डो	-9.71222
▁ईमानदार	-9.71254
पत	-9.71279
▁ख़ा	-9.71309
▁शीर्षक	-9.71465
▁काफ़िर	-9.71489
at	-9.71508
गल	-9.71619
▁आये	-9.71642
▁जाएंगे	-9.71652
▁गंगा	-9.71773
6	-9.7179
▁खुले	-9.71798
▁कमांड	-9.71856
स्ता	-9.71875
▁बजे	-9.71906
▁कराने	-9.71934
▁प्रार्थना	-9.72055
▁करार	-9.72084
ing	-9.72129
▁ख़ास	-9.7226
▁पाए	-9.72285
▁पर्यटन	-9.72313
▁पत्नी	-9.72353
▁आनंद	-9.72419
▁बढ	-9.72482
▁वैध	-9.72535
▁अंतरण	-9.72595
▁एं	-9.72635
▁स्क्रीन	-9.72682
न्स	-9.72698
▁आपूर्ति	-9.72715
▁चीज	-9.72726
ाया	-9.72733
▁बातचीत	-9.7278
▁संस्थाओं	-9.72811
क्का	-9.72831
क़यामत	-9.72965
▁छूट	-9.72967
▁जानी	-9.73009
▁द्वार	-9.73021
th	-9.73057
▁३	-9.7309
▁मुझ	-9.73141
▁मल	-9.73173
▁अस्तित्व	-9.73249
▁डरते	-9.73252
▁बनाते	-9.73307
▁बजाय	-9.73476
▁पट्टी	-9.73477
▁कर्मचारी	-9.73563
▁पेट	-9.73585
मुख	-9.73593
▁फसल	-9.73636
▁स्वतंत्र	-9.73677
▁ऐतिहासिक	-9.73825
▁खिलाफ	-9.73843
थे	-9.73847
▁मिटाएँ	-9.7392
H	-9.74021
▁बेटे	-9.74036
लिंग	-9.74041
▁मू	-9.74042
▁तेरे	-9.74043
ां	-9.74056
▁अत्यधिक	-9.74088
▁प्रेरित	-9.74088
▁किस्म	-9.74093
▁विद्यार्थियों	-9.74194
धर्म	-9.74329
चक	-9.74348
▁पंचांग	-9.74355
▁एच	-9.74368
▁अर्	-9.74424
क्षण	-9.7447
ब्ब	-9.74574
ीर	-9.74603
09	-9.74683
▁कौशल	-9.74745
िनी	-9.74754
▁L	-9.74838
▁लक्षण	-9.74861
क्क	-9.74868
▁मामला	-9.74882
▁100	-9.75017
▁मुसलमान	-9.75049
▁इकाई	-9.75066
▁परामर्श	-9.75094
▁निशानी	-9.75152
कन	-9.75265
निया	-9.75266
▁बुराई	-9.75286
▁प्रारूप	-9.75391
िज	-9.75438
le	-9.75472
यक	-9.75489
र्ग	-9.75591
▁स्तंभ	-9.75681
ेश्वर	-9.75872
▁उतार	-9.75884
▁देखभाल	-9.75895
▁बिक्री	-9.75896
▁अल्प	-9.75905
▁आयतें	-9.76005
सम	-9.76042
▁जड़	-9.7608
▁सीख	-9.76098
02	-9.76099
▁प्रोत्साहन	-9.76111
▁कक्ष	-9.76166
टक	-9.76188
▁लाइन	-9.76276
▁दुआ	-9.76296
▁अग्र	-9.76313
▁गृह	-9.76353
▁N	-9.76355
▁किसान	-9.76364
लन	-9.76466
▁नजर	-9.76657
▁सुबह	-9.76667
▁ज़ालिम	-9.76723
▁होनी	-9.76731
▁बदलाव	-9.76761
ाकार	-9.76795
▁भगवान	-9.76824
▁हराम	-9.76845
▁नर	-9.76903
▁प्रतिक्रिया	-9.76907
▁सृजन	-9.7692
▁लाया	-9.76926
▁जमीन	-9.76939
▁बुनियादी	-9.7698
▁गरीब	-9.77035
▁नज़र	-9.77066
▁प्रचार	-9.77102
▁मैदान	-9.7718
▁वादा	-9.77189
▁लोकप्रिय	-9.77196
फे	-9.77289
▁उपयोक्ता	-9.773
िड	-9.7741
िस्ट	-9.77524
▁प्रतिभा	-9.77556
दास	-9.77658
▁विशेषज्ञ	-9.77667
वै	-9.77684
▁ईमानदारों	-9.77701
▁ठिकाना	-9.77845
▁नष्ट	-9.77872
▁प्राथमिकता	-9.77942
▁वाद्य	-9.78014
▁कृष्ण	-9.78064
▁मंच	-9.78073
▁समस्त	-9.78141
▁लोकतंत्र	-9.78192
ज्ञ	-9.78212
▁मां	-9.78269
▁दौड़	-9.78341
▁भाषण	-9.78354
टन	-9.78363
क्र	-9.78436
▁फ़ैसला	-9.78503
▁ग्रंथ	-9.78603
▁ग़रज़	-9.78657
▁आठ	-9.78663
▁ख़ुश	-9.78725
▁दुख	-9.7873
▁आग्रह	-9.78808
▁चारों	-9.78814
▁नौ	-9.79002
ून	-9.79091
स्त्र	-9.7911
▁लगातार	-9.79149
▁...	-9.79178
▁बिहार	-9.79209
▁प्रकाशन	-9.79276
▁आध्यात्मिक	-9.79277
▁रास्ता	-9.79297
▁उठाए	-9.793
▁सीधा	-9.79315
▁विविध	-9.79342
30	-9.79363
▁बैंकों	-9.79372
▁अर्थात्	-9.79378
▁टा	-9.79417
घात	-9.79421
▁इतने	-9.79446
▁नील	-9.795
▁बू	-9.79561
▁संबंधों	-9.79582
ियर	-9.79601
▁अदा	-9.79659
हालॉकि	-9.7967
▁मौत	-9.79803
▁कहता	-9.7981
▁न्यूनतम	-9.79834
▁शिकार	-9.79854
▁पूजा	-9.79865
▁सेवाएं	-9.79881
▁रेखा	-9.79915
▁पढ़ने	-9.79948
▁पैर	-9.79994
▁सामर्थ्य	-9.80001
वर्त	-9.80008
▁लु	-9.80056
▁भटक	-9.8006
▁बनने	-9.80102
▁पवित्र	-9.80113
शास्त्र	-9.80115
▁फ्र	-9.80118
▁पुर	-9.80205
▁रौशन	-9.80225
ंप	-9.80352
▁अक्षम	-9.8046
et	-9.80466
मिन	-9.80494
▁असमर्थ	-9.80512
▁थोड़ा	-9.80519
▁ज्ञापन	-9.80561
▁उम्र	-9.80618
▁स्मृति	-9.80674
▁पेड़	-9.80685
ro	-9.80742
▁उभर	-9.80747
▁यथा	-9.808
मंत्र	-9.80822
▁स्त्रियों	-9.80844
▁2.	-9.80911
▁कू	-9.80913
▁तथ्य	-9.81007
स्ट्र	-9.81026
▁प्रायः	-9.81041
▁मज़ा	-9.81067
▁वीर	-9.81122
▁विमान	-9.81217
टिक	-9.81238
▁करीब	-9.81315
▁in	-9.81393
लेट	-9.81486
▁गुमराही	-9.81514
▁शोध	-9.81623
ग्न	-9.81669
▁ख़ूब	-9.81692
मू	-9.81737
▁आंतरिक	-9.81749
▁दिनांक	-9.81791
▁शरीक	-9.81794
▁कॉ	-9.81869
▁मूर्ति	-9.81895
▁औसत	-9.81921
विज्ञान	-9.82002
ेन	-9.82012
▁मॉ	-9.82018
▁विल	-9.82043
▁निर्वाचन	-9.8209
▁तीव्र	-9.82147
दन	-9.82173
▁तभी	-9.82244
▁वृक्ष	-9.82306
▁घरेलू	-9.82319
कुल	-9.8234
िय	-9.82373
▁सार	-9.82495
▁विषयों	-9.82543
▁पुस्तिका	-9.82548
▁गवाही	-9.82556
▁महत्त्वपूर्ण	-9.82673
▁संसाधनों	-9.82756
▁ची	-9.8279
मार	-9.82883
▁मैने	-9.82886
िक्स	-9.82923
▁स्वा	-9.82934
▁तरीका	-9.83008
▁रास्ते	-9.83057
▁पारित	-9.83069
▁मीडिया	-9.83071
▁स्थानों	-9.83077
▁नृत्य	-9.83103
▁मुंबई	-9.83123
▁त्याग	-9.83124
▁नागरिकों	-9.83157
भाग	-9.83263
▁प्रबंध	-9.83277
ीकृत	-9.83279
▁आओ	-9.83284
▁दूरी	-9.83373
न्या	-9.8339
▁कोड	-9.83436
हाँ	-9.83474
▁अध	-9.83503
एगा	-9.83516
▁भार	-9.83544
यल	-9.83617
टिंग	-9.83628
राव	-9.83637
▁विष	-9.83639
▁अनुमान	-9.83759
▁जोखिम	-9.83759
▁देखकर	-9.83779
▁कम्प	-9.83781
▁रुपए	-9.83796
▁तर	-9.83797
▁संचालन	-9.83817
▁दबा	-9.83838
▁निर	-9.83846
▁दस्तावेज़	-9.83856
▁ख़ुद	-9.83857
केट	-9.83919
▁जल्द	-9.83951
▁प्रभार	-9.84028
ृत	-9.84054
रोध	-9.84126
▁विधेयक	-9.84166
▁फ्ल	-9.84338
▁उद्घाटन	-9.84341
:%	-9.84379
▁अभिप्रेत	-9.84399
▁भागीदारी	-9.84437
कालीन	-9.84484
▁रीति	-9.84513
▁दयावान	-9.84528
▁ऑनलाइन	-9.84575
तल	-9.84585
▁घो	-9.8463
▁परिस्थितियों	-9.84651
▁पू	-9.8467
गण	-9.84698
▁घटा	-9.8473
▁बोले	-9.8475
स्टर	-9.84756
▁दिख	-9.84767
▁देवी	-9.84846
फ़र	-9.84882
▁विश्लेषण	-9.84926
ांग	-9.84928
मित	-9.84988
▁पूछा	-9.85022
▁अध्याय	-9.85052
ेंट	-9.85119
▁तमाम	-9.85162
▁सर्वोच्च	-9.8522
▁भाषाओं	-9.85428
▁आख़िर	-9.85438
▁सहकारी	-9.8544
▁दवा	-9.85479
णी	-9.85501
▁फे	-9.85509
▁तुझे	-9.85567
▁24	-9.85582
▁छिपा	-9.85602
!"	-9.85644
▁बाबत	-9.85652
▁दूसरों	-9.85692
▁खींच	-9.85693
▁वचन	-9.85709
वाली	-9.85759
यु	-9.85786
▁डाले	-9.8579
▁गठन	-9.85812
▁हार	-9.85908
▁सिवाय	-9.85909
▁चै	-9.85934
▁आरोप	-9.85935
छा	-9.85948
▁लड़के	-9.85977
▁टूट	-9.86024
ग्र	-9.86041
▁आसानी	-9.86042
▁राज्यपाल	-9.86158
▁नेता	-9.8616
▁अगस्त	-9.86227
▁फोन	-9.86408
▁प्रतीत	-9.86419
▁स्वतः	-9.86437
▁दयालुता	-9.86524
▁दि	-9.86577
हल	-9.86598
▁चक्र	-9.86613
html	-9.8671
▁माह	-9.86722
▁अं	-9.86726
हु	-9.8682
▁असम	-9.87006
▁संवाद	-9.87061
▁मीटर	-9.87066
▁न्यायाधीश	-9.87122
▁पढ़ा	-9.87177
गन	-9.8723
▁जू	-9.87254
कृति	-9.8729
▁मोमिन	-9.87391
▁मई	-9.8741
▁लड़ाई	-9.8743
▁कॉल	-9.87555
▁किनारे	-9.87613
ur	-9.8765
▁घोषित	-9.87658
▁वेद	-9.87744
▁फैसला	-9.87784
▁आइ	-9.87927
▁डाटा	-9.88006
▁अन्त	-9.88031
05	-9.88055
▁उठाने	-9.88056
▁पशु	-9.88057
▁सर्वाधिक	-9.88093
▁लिंक	-9.88192
▁द्वीप	-9.88208
▁संबोधित	-9.88208
▁चलने	-9.88241
▁शुभ	-9.88253
▁साइ	-9.88273
▁कानूनी	-9.88388
▁दीर्घ	-9.88388
▁चेतना	-9.88513
▁भागों	-9.88524
▁पसन्द	-9.88602
▁प्राथमिक	-9.88647
▁अनुरोध	-9.88719
▁पति	-9.88789
▁देखता	-9.88816
▁जितना	-9.88819
▁जाओगे	-9.88963
▁ग़ालिब	-9.89
यदि	-9.89028
▁अज्ञात	-9.89061
▁छह	-9.89356
भव	-9.89368
▁विन्यास	-9.89379
▁आनन्द	-9.89554
वेद	-9.89578
▁आवाज़	-9.89582
▁यु	-9.89639
▁युक्ति	-9.89713
▁हत्या	-9.89737
▁करेगी	-9.89742
▁करवा	-9.89759
▁हिंदी	-9.89772
▁धु	-9.89802
▁अन्दर	-9.89814
भारत	-9.89839
▁उधार	-9.89874
▁आक्रमण	-9.89921
▁अवि	-9.89934
घर	-9.89947
▁महामहिम	-9.89983
ैर	-9.90024
श्र	-9.90033
भूत	-9.90052
▁प्रसार	-9.90057
▁कप	-9.90073
▁समृद्ध	-9.90079
▁ब्ल	-9.90088
▁जटिल	-9.90119
▁वर	-9.90128
▁प्रयत्न	-9.90168
▁पौ	-9.90183
▁लौटा	-9.9031
▁प्रतीक्षा	-9.90354
▁औलाद	-9.90355
लोगों	-9.90358
▁संकट	-9.90361
▁निभा	-9.90371
▁प्रिय	-9.90444
स्थान	-9.90454
▁अनुरूप	-9.90542
14	-9.90618
ाद	-9.90625
▁नेहरू	-9.90666
▁लोगो	-9.90684
▁लिखी	-9.90689
माल	-9.907
▁मुक़ाबले	-9.90727
प्प	-9.90743
ल्ट	-9.90752
▁परिणामस्वरूप	-9.90789
▁नैतिक	-9.90789
ुन	-9.90792
षित	-9.90813
▁विपरीत	-9.90851
▁अधिकारों	-9.90875
▁बीमारी	-9.90883
जल	-9.90898
▁लेंगे	-9.90905
▁उत्पादों	-9.90969
▁G	-9.90977
▁कमजोर	-9.90983
▁आरम्भ	-9.90983
पै	-9.91018
लेख	-9.91086
▁सिफारिश	-9.91101
▁खुला	-9.91141
नेवाली	-9.91235
▁अर	-9.9128
▁साबित	-9.91289
▁श्र	-9.91311
तंत्र	-9.91349
ॉन	-9.91446
▁होंगी	-9.91459
▁उपबंधों	-9.91465
▁सुझाव	-9.91524
▁प्रतिनिधित्व	-9.91553
यान	-9.91664
पार	-9.91665
▁चीन	-9.917
▁बन्दगी	-9.91717
▁तोड़	-9.91748
▁पंजाब	-9.91756
स्ती	-9.91788
▁विद्यमान	-9.9179
▁दया	-9.91823
▁उपयोगी	-9.91833
ियत	-9.91872
▁प्रेरणा	-9.91916
▁समझौता	-9.91979
▁यक़ीनी	-9.92039
▁कूटशब्द	-9.92106
mukh	-9.92106
ांक	-9.92108
ट्स	-9.92135
ri	-9.9216
▁ज़ाहिर	-9.92168
▁पृथ्वी	-9.92168
▁प्रशंसा	-9.92232
▁नूह	-9.92234
रुप	-9.92297
▁चिंता	-9.92302
▁गर्भ	-9.92346
▁जिनको	-9.92348
▁सचिव	-9.92353
▁जनसंख्या	-9.92357
▁उन्	-9.92428
16	-9.92461
▁कितना	-9.92477
▁घटक	-9.92503
नर	-9.92589
तया	-9.92656
धन	-9.92702
मिल	-9.92813
▁देर	-9.92816
as	-9.92843
▁फो	-9.9287
पात	-9.92899
ैन	-9.92937
▁दौर	-9.9295
भार	-9.92964
▁सर्वेक्षण	-9.92992
▁दशक	-9.93011
ालय	-9.93053
▁मिनट	-9.93065
▁उपक्रम	-9.9318
erje	-9.93184
prana	-9.93184
▁अल्	-9.93202
हत	-9.93215
▁चाह	-9.93269
पूर	-9.93298
▁दर्शा	-9.93336
▁समाप्ति	-9.93351
श्म	-9.93384
▁सच्चा	-9.93407
ख्	-9.93441
▁जहाज	-9.93475
▁कर्तव्य	-9.93502
li	-9.93629
prh	-9.93631
हरी	-9.93636
▁माप	-9.93674
▁शिखर	-9.93695
▁औरतों	-9.93695
▁अर्थात	-9.93712
la	-9.93769
▁w	-9.93772
▁व्	-9.93779
▁खुली	-9.93858
▁एड	-9.93928
▁व्याख्या	-9.93937
▁पुन	-9.93968
न्ध	-9.93982
▁सहज	-9.94011
▁धैर्य	-9.94015
▁बादशाह	-9.94076
▁वैसे	-9.94106
ंभ	-9.94196
▁राजनैतिक	-9.94272
▁सन्तान	-9.94278
ॉँ	-9.94306
▁भंडार	-9.94322
▁एंड	-9.94324
▁इन्कार	-9.94341
▁वर्षा	-9.94352
▁परंपरा	-9.94357
▁मुझसे	-9.94457
ल्ला	-9.94469
▁पट	-9.94691
▁उपभोक्ता	-9.94702
क्षेत्र	-9.94763
▁प्राधिकारी	-9.94802
▁पंजीकरण	-9.94867
▁उच्चतम	-9.9493
▁कौ	-9.94942
▁रस	-9.94949
▁शासक	-9.94992
▁वहीं	-9.95061
▁निकाय	-9.95345
▁टीम	-9.95409
▁कार्यान्वयन	-9.95441
▁अन्	-9.95445
कभी	-9.9547
▁पाई	-9.9552
कुफ़्र	-9.95705
▁लेन	-9.95722
▁शारीरिक	-9.95766
▁साफ़	-9.95806
V	-9.95812
नगर	-9.95847
अज़ाब	-9.9588
▁अंतर्	-9.95941
▁मौ	-9.95955
▁21	-9.9596
▁पाते	-9.96004
▁डाउनलोड	-9.96028
▁अधिसूचना	-9.96035
▁काफ़ी	-9.96097
▁संगठनों	-9.96141
▁अदालत	-9.96162
खी	-9.96241
ांतर	-9.96281
▁नबी	-9.96337
▁ट्रैक	-9.96362
▁पहुँचे	-9.9639
▁निहित	-9.96405
▁मुद्दों	-9.96555
▁लिखित	-9.96561
▁सुभाष	-9.96621
¤1	-9.96644
प्रति	-9.96645
द्य	-9.96687
ूं	-9.96718
▁छु	-9.96727
▁चुने	-9.96735
▁जाकर	-9.96783
03	-9.96791
▁न्यास	-9.96793
हरा	-9.96806
रोह	-9.96845
लोक	-9.96886
भि	-9.96908
▁कनेक्शन	-9.97017
▁पाठ्यक्रम	-9.97087
▁सशक्त	-9.97138
▁चीज़ों	-9.97175
▁पेंशन	-9.97216
▁उठाया	-9.97295
▁श्रम	-9.97297
▁सां	-9.97323
▁प्रबंधक	-9.97349
बो	-9.97472
▁अमेरिकी	-9.97482
▁शैक्षिक	-9.97482
वेश	-9.97485
▁सुविधाओं	-9.97582
कर्म	-9.97625
▁चुनौती	-9.97682
▁पड़ी	-9.97686
▁जिनसे	-9.97688
ॉल	-9.97696
9	-9.97746
▁उलट	-9.97747
▁अक्षर	-9.97818
समय	-9.97987
▁ताकत	-9.98003
▁ड्र	-9.9801
▁उद्योगों	-9.98078
▁परिवहन	-9.98083
▁पाल	-9.98099
चित्र	-9.98125
लंब	-9.98157
याद	-9.98198
श्य	-9.98199
▁फरमा	-9.98218
▁आंख	-9.98229
▁तूने	-9.9831
▁of	-9.98351
प्राप्त	-9.98363
एँगे	-9.98462
▁जिले	-9.98502
▁वर्ण	-9.98546
▁घंटे	-9.98552
ङ	-9.98589
▁प्रोत्साहित	-9.98621
▁गणना	-9.98626
प्ट	-9.98643
▁ज्ञात	-9.9866
कल्प	-9.98716
कर्ताओं	-9.98791
▁श्रृंखला	-9.98822
▁नक़ल	-9.9883
▁चढ़	-9.98837
▁जैव	-9.98843
कुछ	-9.98882
▁उत्साह	-9.9889
फू	-9.98946
▁बटन	-9.98959
▁31	-9.9903
▁क़ा	-9.99062
▁खान	-9.99062
▁पूर्वी	-9.99137
60	-9.99149
▁दाखिल	-9.99295
ाप	-9.99305
▁जीत	-9.99323
जब	-9.99361
▁दू	-9.99363
▁कार्यवाही	-9.99432
पू	-9.9947
लिया	-9.99487
▁समीक्षा	-9.99499
▁अगला	-9.99647
▁Name	-9.99673
vi	-9.99698
▁निगरानी	-9.99702
▁फिरऔन	-9.99703
▁यूनिट	-9.99772
बिल	-9.99855
▁अन्यथा	-9.9987
▁नयी	-9.99895
▁पूज्य	-9.99905
▁अकबर	-9.99908
▁रेलवे	-9.9995
ठी	-10.0007
▁छात्रों	-10.001
▁ज़िन्दगी	-10.0011
▁परिवर्तित	-10.0018
▁रहमत	-10.0021
त्ता	-10.0024
▁सलाम	-10.0027
बूझ	-10.003
▁बदलने	-10.003
▁अभिव्यक्ति	-10.0031
▁मुश्किल	-10.0032
▁समर्पित	-10.0032
▁दान	-10.0032
िकल	-10.0033
रम	-10.0036
▁तलाश	-10.0039
▁री	-10.004
▁कहाँ	-10.0042
▁क़ुरान	-10.0042
िज़	-10.0043
▁धारण	-10.0049
▁छत	-10.0049
ंदा	-10.0054
▁सेटिंग	-10.0059
ब्र	-10.0066
▁मुलाकात	-10.0073
▁आवाज	-10.0077
धे	-10.008
▁स्कीम	-10.0081
▁मुक़र्रर	-10.0082
▁शु	-10.0083
▁संयंत्र	-10.0083
अर	-10.0083
▁महाराष्ट्र	-10.0087
▁घड़ी	-10.0087
▁युक्त	-10.0093
▁उड़	-10.0097
▁कलकत्ता	-10.01
यम	-10.0101
तुल	-10.0102
▁बरस	-10.0104
▁संत	-10.0105
▁सॉफ्टवेयर	-10.0107
▁संपादक	-10.0107
▁इंटरनेट	-10.0107
70	-10.0112
▁हमसे	-10.0112
▁फेंक	-10.0113
▁मर्द	-10.0117
50	-10.012
▁कागज	-10.0123
▁साझीदार	-10.0123
▁झुक	-10.0125
▁बहा	-10.013
▁सरकारों	-10.0131
▁लॉग	-10.0136
▁राजस्थान	-10.0144
▁केरल	-10.0146
▁मस्तिष्क	-10.0146
▁मिलेगा	-10.0147
▁विशेषता	-10.0158
▁पुस्तकालय	-10.0164
▁प्रतिनिधि	-10.0165
▁अनुपात	-10.0165
क़्	-10.0175
▁साहस	-10.0178
▁(3)	-10.0178
▁चालू	-10.0179
▁लगते	-10.018
ेर	-10.0189
▁जादू	-10.0189
▁सभ्यता	-10.019
▁जेल	-10.0193
▁समग्र	-10.0193
▁अस्थि	-10.0194
दर्श	-10.0198
▁स्थिर	-10.0212
क्रि	-10.0212
▁विरोधी	-10.0214
▁आकर	-10.0222
▁तस्वीर	-10.0225
कू	-10.0226
▁मिसाल	-10.0232
▁छाप	-10.0233
▁लाते	-10.0236
▁विभाजन	-10.0239
ानी	-10.0239
19	-10.0248
▁फु	-10.0251
विक	-10.0252
▁पृष्ठभूमि	-10.0254
us	-10.0259
▁आसपास	-10.0268
ेंस	-10.0273
मक	-10.0273
▁तथापि	-10.0274
▁उक्त	-10.0282
▁जरिए	-10.0295
▁वंश	-10.0299
ृष्ट	-10.0308
▁सचेत	-10.031
▁फार्म	-10.0314
▁गुफा	-10.0315
▁प्रारंभिक	-10.0316
▁80	-10.0318
▁नुकसान	-10.0323
्रे	-10.0329
▁सतह	-10.0332
▁भेजें	-10.0339
▁n	-10.0339
▁संदेह	-10.034
▁तंग	-10.0341
▁अचानक	-10.0352
▁निष्क्रिय	-10.0373
ँग	-10.0378
▁श्रेष्ठ	-10.038
▁घट	-10.0383
▁छिप	-10.0383
▁स्था	-10.0387
▁ग्राहक	-10.039
▁g	-10.0391
ra	-10.0392
मूल	-10.0392
▁अंध	-10.0393
ावधि	-10.0397
▁नंबर	-10.0397
▁महल	-10.0399
▁जलवायु	-10.0401
▁द्वि	-10.0406
▁हवाई	-10.0408
18	-10.0408
▁कुफ्फ़ार	-10.0413
▁जुलाई	-10.0416
ैक	-10.0419
▁कश्मीर	-10.0423
▁महात्मा	-10.0423
▁e	-10.0425
▁देखे	-10.0426
07	-10.0427
▁कदापि	-10.043
▁शहरी	-10.0431
लिन	-10.0432
शे	-10.0433
▁देय	-10.0434
▁टि	-10.0444
▁लंबे	-10.0445
▁आना	-10.0456
15	-10.0457
▁खुल	-10.046
ऑ	-10.0464
▁डरा	-10.0464
04	-10.047
▁मोबाइल	-10.0473
गाह	-10.0475
▁रोकने	-10.0478
▁इसको	-10.048
▁इनका	-10.0484
▁लानेवालो	-10.0484
▁लै	-10.0484
▁दरमियान	-10.0487
▁U	-10.049
▁द्वितीय	-10.0494
वाई	-10.0497
श्व	-10.0501
▁दोहरा	-10.0502
▁मोड़	-10.0503
▁पत्रिका	-10.0503
व्	-10.0503
ाणु	-10.0508
▁H	-10.051
▁चमक	-10.0522
▁प्राधिकरण	-10.053
▁मकान	-10.0531
te	-10.0532
▁फ़ॉन्ट	-10.0537
▁करोगे	-10.0541
ंगल	-10.0542
▁उद	-10.0548
एच	-10.055
▁मॉडल	-10.0552
▁शहरों	-10.0552
06	-10.0555
▁वृ	-10.0557
▁क्षमाशील	-10.057
:-	-10.0577
▁बजा	-10.0578
▁सजदा	-10.0584
है	-10.0589
खु	-10.0589
्ति	-10.059
शिया	-10.0594
क़त	-10.0596
▁जन्नत	-10.0602
क़ियामत	-10.0602
▁संलग्न	-10.0603
▁चोट	-10.0605
▁स्वच्छ	-10.0607
▁प्रतिष्ठा	-10.061
▁घाटे	-10.0616
▁”-	-10.0618
ड़ों	-10.0618
▁जम	-10.0621
▁इकट्ठा	-10.0624
▁पारंपरिक	-10.0624
▁आराम	-10.063
िटी	-10.063
▁पत्	-10.0639
जु	-10.0643
लिप	-10.0645
▁समर्थित	-10.0647
▁सदा	-10.0652
ch	-10.0655
▁आफ	-10.0661
▁अनुदान	-10.0666
▁प्यार	-10.0669
▁राजनीति	-10.0679
▁नेताओं	-10.0679
▁नेपाल	-10.0687
▁अगल	-10.0688
▁आकर्षित	-10.069
▁पुरानी	-10.0691
2019	-10.0693
▁ज़्यादा	-10.0697
▁योजनाओं	-10.0698
▁साझा	-10.07
ॉट	-10.0702
▁चर	-10.0703
▁कोशिका	-10.0704
▁ब्रा	-10.0708
▁विशेषकर	-10.0711
▁नेअमत	-10.0712
▁ऊ	-10.0717
▁चलाने	-10.0717
▁जापान	-10.0729
▁जोड़ने	-10.073
▁सागर	-10.0735
▁चन्द्र	-10.0738
▁मूल्यों	-10.0739
▁h	-10.0741
▁कंपनियों	-10.0741
▁नाथ	-10.0747
▁दुखद	-10.0751
▁प्रेस	-10.0752
्क	-10.0753
▁अनक़रीब	-10.0756
▁आमतौर	-10.0756
▁पुष्टि	-10.0757
▁सौर	-10.0759
▁अन्तर	-10.0764
ीम	-10.0764
tr	-10.0764
▁ज़ि	-10.0768
▁चैनल	-10.0771
▁सारा	-10.0778
▁कम्पनी	-10.0785
▁नियंत्रित	-10.0785
▁बिलकुल	-10.0786
▁घटनाओं	-10.0787
-2	-10.079
▁परमाणु	-10.0808
िष्ट	-10.0812
▁मार्	-10.0815
दाय	-10.0817
▁बनाये	-10.0817
▁लकड़ी	-10.0822
▁भंडारण	-10.0822
राज्य	-10.0827
शाली	-10.083
▁नस्ल	-10.0833
▁नी	-10.084
13	-10.0841
▁सुदृढ़	-10.0844
▁विद्यालय	-10.0848
▁बेच	-10.0852
▁विश्वविद्यालयों	-10.0854
▁हैंः	-10.0857
▁ग्रे	-10.0857
▁लेखन	-10.086
▁ईमेल	-10.0871
▁अत्याचार	-10.0873
▁शाम	-10.0873
▁O	-10.0888
▁मुह	-10.0889
▁पड	-10.0893
▁समावेश	-10.0898
ेन्द्र	-10.0901
▁फरवरी	-10.0904
▁मृत	-10.0904
▁संविदा	-10.0911
▁दिखाता	-10.0913
▁जुड़	-10.0918
▁तत्वदर्शी	-10.0919
iii	-10.0921
▁प्रशासनिक	-10.0925
www	-10.0926
▁नवान्वेषण	-10.0926
▁कराया	-10.0934
ड्ड	-10.0937
▁साम्राज्य	-10.0943
बाद	-10.0944
निर्	-10.0948
▁बौद्ध	-10.0948
▁अस्पताल	-10.0949
▁इनकी	-10.0952
▁सब्र	-10.0953
▁व्यावसायिक	-10.0971
▁बॉ	-10.0976
▁ज़िन्दा	-10.0979
स्को	-10.0979
▁b	-10.0984
▁बिंदु	-10.0991
▁विनिमय	-10.0994
▁संसदीय	-10.0999
▁रिक्त	-10.1001
▁प्रावधान	-10.1001
▁नहरें	-10.1002
▁कुमार	-10.1002
▁उपस्थिति	-10.1008
पाद	-10.1011
▁40	-10.1012
▁चेतावनी	-10.1017
▁अप्र	-10.1017
्ता	-10.1018
▁घु	-10.1018
ञ	-10.1025
अप	-10.1025
र्जन	-10.1026
▁शक्तियों	-10.1027
मै	-10.1028
▁2000	-10.1032
▁विरासत	-10.1055
▁खराब	-10.107
लाल	-10.1072
▁हरि	-10.1077
▁बढ़ती	-10.1079
बान	-10.1092
बंध	-10.1092
▁मंडल	-10.1092
▁थोड़े	-10.1094
▁फोटो	-10.1094
▁कामना	-10.1104
▁(%	-10.1107
अनु	-10.1113
▁ढांचे	-10.1115
ia	-10.1116
▁28	-10.1117
▁नाग	-10.1121
▁बाह्य	-10.1123
▁अपेक्षित	-10.1131
स्थापित	-10.1137
▁अंड	-10.1141
▁चुना	-10.1151
▁अक्ष	-10.1153
▁खड़ी	-10.1155
▁आकृति	-10.1158
कम	-10.1162
▁बस्ती	-10.1167
▁प्रभुत्वशाली	-10.1169
वाना	-10.117
▁शुरु	-10.1171
▁सुनने	-10.1176
म्म	-10.1181
▁अफ	-10.1184
▁भेंट	-10.1187
▁मुसीबत	-10.1192
▁विविधता	-10.1195
▁समझने	-10.1198
▁चूंकि	-10.12
▁स्वर	-10.1208
▁निवास	-10.1219
राष्ट्र	-10.1219
दूर	-10.1234
▁छात्र	-10.1235
st	-10.1244
▁2014	-10.1245
▁सकेंगे	-10.1247
▁परिसर	-10.1251
▁अना	-10.1254
▁इल्म	-10.1255
▁उल्	-10.126
▁लिखे	-10.1264
ड्र	-10.1267
▁उत्तरी	-10.1268
25	-10.127
▁जानने	-10.127
हरे	-10.1271
▁हटकर	-10.1272
▁मध्यम	-10.1272
▁खोलने	-10.1273
▁खेत	-10.1275
▁ग्	-10.1275
▁देखना	-10.1278
▁मारे	-10.1278
▁बारगाह	-10.1282
▁पहन	-10.1282
▁ईमानवालों	-10.1286
ce	-10.1287
▁k	-10.1294
▁22	-10.1295
▁कड़ी	-10.1302
पित	-10.1304
▁सांसारिक	-10.1316
▁सबके	-10.1316
▁अभाव	-10.132
न्दा	-10.1324
▁अन्ततः	-10.1325
▁रहस्य	-10.1327
न्ह	-10.1328
▁खिला	-10.1329
ोज	-10.1335
▁सवार	-10.1337
भ्य	-10.1338
▁जय	-10.134
▁अज	-10.1346
▁बुद्ध	-10.135
▁परिचय	-10.137
▁2015	-10.1377
▁f	-10.1379
▁गुमराह	-10.1379
▁शिशु	-10.138
▁नियुक्ति	-10.1383
ल्ली	-10.1385
▁मस्जिद	-10.1386
▁दबाव	-10.1389
▁संबद्ध	-10.139
▁दोबारा	-10.1394
▁टैब	-10.1399
▁उत्कृष्ट	-10.1405
ंडा	-10.1406
(	-10.1408
सभा	-10.1409
▁समन्वय	-10.1412
▁संगम	-10.1414
▁झगड़	-10.1415
▁चरित्र	-10.1418
▁राजधानी	-10.1418
पद	-10.1425
▁मास	-10.1427
▁बोस	-10.1428
▁भग	-10.1429
कै	-10.143
ूंगा	-10.143
▁चीनी	-10.143
▁मिलेगी	-10.1439
▁सिविल	-10.1441
▁युवाओं	-10.1444
▁कलाकार	-10.1444
▁फै	-10.146
▁रहेगी	-10.1461
▁प्रान्त	-10.1462
▁संग्रहालय	-10.1466
ण्य	-10.147
▁सम्पूर्ण	-10.1471
▁विनष्ट	-10.1473
▁क़िस्म	-10.1481
▁अनुग्रह	-10.1483
षा	-10.1486
ity	-10.1497
▁लंबी	-10.1505
▁मिलते	-10.1507
▁इंच	-10.1507
▁सफेद	-10.152
▁Y	-10.1522
▁बहन	-10.1535
▁नेक	-10.1537
▁गांवों	-10.1543
▁धातु	-10.1544
▁तेरी	-10.1546
de	-10.155
▁४	-10.1551
▁प्रतिभूति	-10.1551
▁हिंसा	-10.1553
▁सूत्र	-10.156
▁प्लगइन	-10.1568
▁चेहरे	-10.1569
▁चली	-10.1569
र्ध	-10.1573
नू	-10.1574
▁उपयोगकर्ता	-10.1575
जिन	-10.1576
्री	-10.1576
▁फी	-10.1581
▁स्वस्थ	-10.1587
ाब	-10.1588
चाल	-10.159
▁23	-10.159
▁तयशुदा	-10.1592
▁एकमात्र	-10.1595
▁सम्बन्धी	-10.1595
ेक्ट	-10.1602
▁सौंप	-10.1604
▁मिलियन	-10.1606
ट्री	-10.1607
▁दाख़िल	-10.1608
्ज़	-10.1611
▁दैनिक	-10.1616
▁कैसा	-10.1622
्यो	-10.1627
▁डाय	-10.1627
कार्य	-10.163
▁प्रविष्ट	-10.1633
▁आहार	-10.1639
info	-10.164
▁अस्थायी	-10.164
▁कुरान	-10.1643
▁अवतरित	-10.1648
▁परम	-10.1656
▁आखिर	-10.1656
▁थोड़ी	-10.1666
▁रोगी	-10.1676
▁एकल	-10.1679
▁दिखाने	-10.1684
▁प्रविष्टि	-10.1688
▁लाओ	-10.1689
▁भेजने	-10.17
▁अर्ध	-10.1702
ौल	-10.1705
प्रभु	-10.1707
▁खण्ड	-10.1708
▁बाकी	-10.1713
▁समझौते	-10.1713
न्द्र	-10.1716
▁नेकी	-10.1716
पोर्ट	-10.1716
▁वस्त्र	-10.1717
▁डरो	-10.1735
▁कूट	-10.1737
▁शिक्षक	-10.175
▁भु	-10.1755
▁थो	-10.1761
मार्ग	-10.1772
▁मानवीय	-10.1772
▁प्रथा	-10.1774
▁ऑडियो	-10.1811
▁तुरंत	-10.1819
▁इमारत	-10.1819
ढ़ा	-10.1825
ज़े	-10.1827
▁आश्चर्य	-10.1834
दारी	-10.1835
▁मधु	-10.1841
ho	-10.1842
▁फ़ाइलें	-10.1844
▁सुविधाएं	-10.185
▁लिमिटेड	-10.1851
देन	-10.1851
▁भले	-10.1857
क़ायम	-10.1858
डु	-10.1865
टिव	-10.1869
▁चिह्न	-10.187
▁शर्तों	-10.1876
▁मांस	-10.188
▁विभाजित	-10.1884
▁क्षति	-10.1888
▁26	-10.1891
▁अनुसूचित	-10.1893
▁सर्वोत्तम	-10.1893
▁सराहना	-10.1893
जैसे	-10.1895
▁पालने	-10.1895
▁दिव्य	-10.1896
▁W	-10.19
ोगे	-10.1901
▁बच्चा	-10.1901
▁आउट	-10.1902
▁मुर्द	-10.1906
▁उगा	-10.1908
▁गहरा	-10.1916
▁दोनो	-10.1916
▁गिरफ्तार	-10.1917
▁निरीक्षण	-10.1917
▁समुद्री	-10.1919
▁बाग	-10.1921
▁हिकमत	-10.1926
▁t	-10.1929
▁जिम्मेदारी	-10.193
el	-10.1932
▁इक	-10.1934
▁कही	-10.1941
¤1⁄4	-10.1942
▁घन	-10.1945
▁अनुमोदन	-10.1951
▁संपादित	-10.1967
▁ऑंख	-10.1967
▁संध्या	-10.1971
▁सतत	-10.2004
▁चो	-10.2005
फ़ी	-10.2008
▁सितंबर	-10.2009
▁पाँच	-10.2009
ांकन	-10.2012
▁0.	-10.2015
▁कारक	-10.2015
▁निकाला	-10.2017
▁स्टेशन	-10.2018
देख	-10.2022
▁लाइसेंस	-10.2025
▁जंगल	-10.2026
▁संवर्धन	-10.2029
▁पह	-10.203
▁3.	-10.2031
▁क्रांति	-10.2032
▁बिगाड़	-10.2034
ad	-10.2035
▁उन्नत	-10.2044
▁स्वीकृति	-10.2049
उप	-10.2053
▁हिमालय	-10.2059
▁परेशान	-10.206
▁इसने	-10.206
म्य	-10.2061
▁ठोस	-10.2061
▁समृद्धि	-10.2063
▁प्रवाह	-10.2068
▁उपखंड	-10.2071
▁वर्गों	-10.2076
थि	-10.2078
पना	-10.2079
▁हार्दिक	-10.2093
तू	-10.2094
▁संपादन	-10.2096
▁खत्म	-10.2104
▁बुरे	-10.2123
मगर	-10.2125
▁क़ुरआन	-10.2126
▁गर्म	-10.2135
ग्रह	-10.2137
▁लगाए	-10.2137
▁मोदी	-10.2138
\	-10.2142
▁प्रतिष्ठित	-10.2143
▁घड़	-10.2151
▁प्रदूषण	-10.2152
पान	-10.2154
▁साथी	-10.2155
▁आवश्यकताओं	-10.216
▁अध्य	-10.2161
▁मक्का	-10.2163
स्य	-10.2169
▁27	-10.217
ानु	-10.217
वाल	-10.2175
▁जाल	-10.2176
िकी	-10.2177
▁विहित	-10.218
▁नीतियों	-10.2185
शाला	-10.2186
▁अभिलाभ	-10.2187
-19	-10.2188
▁बनाता	-10.2192
शोथ	-10.2193
▁प्रचलित	-10.2194
▁होम	-10.2196
▁भरा	-10.2202
▁चौड़ाई	-10.2203
▁जुड़ा	-10.2204
▁खाओ	-10.2205
▁हट	-10.2217
▁बाधा	-10.2221
▁राहत	-10.2222
▁द्विपक्षीय	-10.2237
▁डो	-10.2237
▁सुनते	-10.2251
खंड	-10.2253
▁स्टे	-10.2254
▁l	-10.2261
▁स्वचालित	-10.2263
▁कहे	-10.2268
▁गहन	-10.2269
वृत्त	-10.2272
य्य	-10.2272
▁प्रत्या	-10.2277
iv	-10.2286
▁उन्होने	-10.2287
▁ठहर	-10.2288
▁क़दम	-10.2288
▁रेडियो	-10.2291
▁अग्रणी	-10.2297
्रि	-10.2301
▁हस्त	-10.2305
▁कॉलेज	-10.2307
▁फ़िल्म	-10.2314
▁परिभाषित	-10.2314
▁सावधान	-10.232
▁भावी	-10.2323
▁पोर्ट	-10.2325
न्ना	-10.2328
▁उतना	-10.2331
ायत	-10.2341
▁आयी	-10.2344
▁2016	-10.235
▁डिजाइन	-10.2357
▁कन्	-10.2358
▁आदान	-10.2358
▁स्वाभाविक	-10.2365
▁मछली	-10.2365
ाइन	-10.2366
रक्षण	-10.2367
▁सुनता	-10.2373
▁पार्क	-10.2374
सम्	-10.2379
म्बर	-10.2381
▁विपणन	-10.2383
▁सोचा	-10.2384
▁क्ष	-10.2389
▁कर्नाटक	-10.2391
▁संक्रमण	-10.2391
▁कारोबार	-10.2392
▁निष्कर्ष	-10.2392
ोत्	-10.2392
▁परहेज़गार	-10.2398
▁उड़ा	-10.2401
▁कपड़े	-10.2402
▁ढूंढ	-10.2404
▁जहन्नम	-10.2406
▁जिहाद	-10.2408
▁मुंह	-10.2418
▁बीमार	-10.2426
▁१	-10.2427
▁जाग	-10.2429
▁समझे	-10.2434
▁ऋ	-10.2438
क्रिया	-10.2439
नियम	-10.2444
स्थल	-10.2445
▁बन्दे	-10.2453
▁विद्या	-10.2453
▁फर्	-10.2456
▁रोज	-10.2459
Comment	-10.2459
▁बहुतेरे	-10.2461
▁चिह्नित	-10.2467
▁भक्ति	-10.2476
▁फर्म	-10.2477
▁गुजर	-10.2481
▁संरक्षक	-10.2482
▁चेक	-10.2482
▁जोड़ा	-10.2488
▁तारा	-10.2495
▁दिसंबर	-10.2496
चु	-10.2503
क्शन	-10.2506
▁ग्र	-10.2509
▁मज़बूत	-10.2514
▁विनियम	-10.2515
▁उपर	-10.2516
▁अली	-10.2516
क़्त	-10.2529
▁वकील	-10.2532
कला	-10.2537
▁दर्द	-10.2538
▁डिफ़ॉल्ट	-10.254
▁घेर	-10.2543
▁मोह	-10.2548
▁टिप्पणी	-10.2549
▁साहित्यिक	-10.2552
▁आजादी	-10.2552
▁भरे	-10.2556
▁हथियार	-10.2558
▁निशान	-10.256
▁ज़रा	-10.2561
▁सिं	-10.2563
नेवालों	-10.2564
▁अमर	-10.2567
ंडी	-10.2568
▁पैकेज	-10.2576
▁अंग्रेज	-10.258
▁ऊंचाई	-10.258
▁मसल	-10.258
17	-10.2583
रियों	-10.2584
▁इल	-10.2587
क्की	-10.2587
▁बोली	-10.2589
il	-10.2595
▁उतारा	-10.2599
मेरे	-10.2602
▁धन्यवाद	-10.2602
▁छाया	-10.2603
▁बचत	-10.2608
▁मुगल	-10.2609
▁ज़ालिमों	-10.2616
मोमिनीन	-10.2627
▁समूहों	-10.2628
▁2013	-10.2628
स्तर	-10.2631
▁ऊपरी	-10.2638
ियाई	-10.2639
▁एकत्र	-10.2639
लाइन	-10.2642
▁सहमत	-10.2655
ेक्स	-10.266
▁लेती	-10.2663
प्रा	-10.2668
आख़िर	-10.267
▁साइट	-10.267
िस्तान	-10.2675
हद	-10.2681
▁चंद्र	-10.2684
▁चाहा	-10.2688
▁यूरोपीय	-10.2688
▁फट	-10.2698
▁प्ले	-10.2698
▁महीनों	-10.27
▁सीधी	-10.27
थी	-10.2706
▁सामूहिक	-10.2709
जितनी	-10.2712
२००	-10.2718
▁एकता	-10.2718
्ड	-10.272
ख्या	-10.2724
रेख	-10.2729
ढ़ी	-10.2732
▁असर	-10.2734
▁रुचि	-10.2743
▁60	-10.2744
▁क़त्ल	-10.2744
प्रदान	-10.2745
▁पाठक	-10.2748
▁स्वर्ण	-10.2749
▁दुर्घटना	-10.2753
▁बजट	-10.2754
▁भेजी	-10.2759
▁निष्	-10.2759
ट्रो	-10.2761
▁चाहेंगे	-10.2762
▁मानना	-10.277
शो	-10.2773
▁बक	-10.2777
नेट	-10.2777
W	-10.2781
जान	-10.2784
▁दृढ़	-10.2789
▁सत्यापन	-10.2789
ज्य	-10.2795
▁त्वचा	-10.2798
पिता	-10.2806
▁तत्काल	-10.2806
▁पॉ	-10.2807
▁वरिष्ठ	-10.2807
▁अन्तर्गत	-10.2809
▁६	-10.2812
▁गहरी	-10.2814
▁ड्राइव	-10.2817
ऊँ	-10.2817
▁समझता	-10.2823
▁मंदिरों	-10.2825
दृ	-10.2832
▁विवेक	-10.2835
हमारे	-10.2836
बाल	-10.2837
म्बा	-10.2837
▁समानता	-10.2841
▁भि	-10.2848
▁अग्रिम	-10.2854
▁ईरान	-10.2857
▁हिंदुस्तान	-10.2862
uot	-10.2871
▁तंत्रिका	-10.2872
▁लूत	-10.2876
▁बाध्य	-10.2876
दाता	-10.2877
▁उद्यान	-10.2881
▁सदी	-10.2884
▁फ़रिश्ते	-10.2887
▁अरबी	-10.2897
▁पीढ़ी	-10.2901
▁हाइ	-10.2903
पेक्ष	-10.2903
▁पैमाने	-10.2905
▁हितों	-10.2905
▁डॉलर	-10.291
▁पासवर्ड	-10.2914
▁लिपि	-10.2915
▁सीमाओं	-10.2921
▁बां	-10.2925
▁आएगा	-10.2926
▁रोज़	-10.293
▁प्रवृत्ति	-10.2933
me	-10.2934
विमर्श	-10.2935
▁उल्लेखनीय	-10.2936
▁जला	-10.2937
-1	-10.2937
भूमि	-10.2938
मिक	-10.2939
▁क्रिकेट	-10.2944
▁शिक्षण	-10.2946
▁क्षण	-10.2946
▁देवता	-10.2952
▁जानवरों	-10.2956
▁पूर्ति	-10.296
ul	-10.2962
88	-10.2966
ण्	-10.2967
▁देखी	-10.297
भोग	-10.2975
2014	-10.2985
ड़ियों	-10.2986
वर्ग	-10.2987
शर	-10.2989
रेशन	-10.2993
▁यूसुफ	-10.2995
▁अनुज्ञात	-10.2998
▁सीडी	-10.2998
▁पोत	-10.3001
▁पल	-10.3002
लिस	-10.3007
▁जम्मू	-10.3008
▁डेस्कटॉप	-10.3008
▁ग़ौर	-10.3019
गू	-10.302
▁५	-10.3027
▁प्रांत	-10.3028
क्योंकि	-10.3031
▁शोक	-10.3033
80	-10.3033
▁प्रतिबंध	-10.3035
▁इसराईल	-10.3036
मानी	-10.304
▁विनिर्माण	-10.304
▁नौकरी	-10.304
▁नेशनल	-10.3046
फ्ट	-10.3048
मंद	-10.3049
क्षेप	-10.3051
▁सदस्यता	-10.3058
▁आंध्र	-10.3064
▁पहलू	-10.3064
यंत्र	-10.3066
)...	-10.3071
▁अंतरिक्ष	-10.3073
▁बौद्धिक	-10.3074
र्ब	-10.3074
धु	-10.3076
▁रै	-10.3078
▁भेद	-10.308
▁मज	-10.308
▁चन्द	-10.3082
▁प्रारम्भ	-10.3082
लै	-10.3086
ैल	-10.3086
▁गिन	-10.3089
र्श	-10.3091
हाल	-10.3099
▁मजदूर	-10.3104
▁बांध	-10.3108
▁मिलाकर	-10.3109
▁रसायन	-10.311
▁>>	-10.312
ध्या	-10.312
▁जानवर	-10.3123
▁अवसरों	-10.3126
▁अपनाया	-10.3126
22	-10.3127
▁तुम्हे	-10.3127
▁विरूद्ध	-10.3129
ज्ञान	-10.313
▁हॉ	-10.3133
▁सूर	-10.3133
ज्ञा	-10.3139
▁चीजों	-10.314
▁भो	-10.3144
23	-10.3146
\\	-10.3148
▁सिखा	-10.3148
▁असाधारण	-10.3157
▁कष्ट	-10.316
▁चाहें	-10.3164
▁पक्षों	-10.3164
▁यथास्थिति	-10.3167
▁तकलीफ़	-10.3169
▁पूर्वावलोकन	-10.3176
ंति	-10.3179
▁जै	-10.3187
सिंह	-10.3189
▁फ़िरऔन	-10.3194
▁फ़िल्टर	-10.3194
▁अहले	-10.3195
▁भरी	-10.3195
ट्ठ	-10.3196
पल	-10.3197
36	-10.3202
▁वृत्त	-10.3218
▁दावे	-10.3221
▁प्रतियोगिता	-10.3223
▁नवीन	-10.3226
ाशय	-10.3226
▁अर्जित	-10.3232
▁तीसरे	-10.3235
▁दास	-10.3236
▁सम्भव	-10.3243
आप	-10.3243
पास	-10.3243
रात	-10.3244
▁दर्दनाक	-10.3251
क़ी	-10.3259
▁यूँ	-10.3261
▁ऊतक	-10.3262
▁इंडियन	-10.327
▁हमको	-10.3276
▁मातृ	-10.3279
▁पौधों	-10.3279
ूत	-10.3281
▁कठिनाई	-10.3288
▁डूब	-10.3291
▁सन	-10.3294
▁चाय	-10.3294
▁बचाव	-10.3295
▁बढा	-10.3312
▁पंजीकृत	-10.3318
▁दुकान	-10.3318
▁बैठा	-10.3318
भ्र	-10.3322
▁सुर	-10.3325
▁बाहम	-10.333
मुसलमानों	-10.3332
मैन	-10.3332
▁प्रेषित	-10.3336
▁संहिता	-10.3336
▁राजस्व	-10.3344
▁अंतः	-10.3346
▁भागीदार	-10.3349
▁बाबू	-10.3354
▁अक्तूबर	-10.3355
▁लॉ	-10.3357
किसी	-10.3359
▁घाटी	-10.3359
क्के	-10.3366
▁प्रसंग	-10.3375
ent	-10.3379
▁संदाय	-10.3381
श्री	-10.3385
▁ख्वाह	-10.3387
▁भूख	-10.3394
▁दुश्मन	-10.3403
शासन	-10.3408
▁तत्वों	-10.341
▁घूम	-10.3411
▁उपज	-10.3411
▁खतरा	-10.3413
▁ख़ौफ	-10.3413
फि	-10.3418
जीवन	-10.3425
▁मूलभूत	-10.3426
lo	-10.3429
▁संभाल	-10.3443
्टर	-10.3447
▁to	-10.3448
▁नै	-10.346
हू	-10.3463
▁त्रुटिः	-10.3465
▁बारह	-10.3467
▁गठित	-10.3471
▁गरीबी	-10.3479
वादियों	-10.348
▁पुस्तकों	-10.3481
▁आज्ञा	-10.3492
57	-10.3503
33	-10.3505
अच्छा	-10.3509
▁ध्वज	-10.3509
▁शक्तिशाली	-10.3513
▁कुशल	-10.3519
▁कहेगा	-10.352
▁लिंग	-10.3521
▁केंद्रित	-10.3522
▁अभिदाता	-10.3522
▁ज़ोर	-10.3525
detail	-10.3529
▁पुष्प	-10.3534
▁शर्त	-10.3537
▁ईसाई	-10.3538
▁साथियों	-10.3544
▁फायदा	-10.3548
▁शर्म	-10.3565
press	-10.3568
▁आलोचना	-10.3568
▁ब्रह्म	-10.3573
त्री	-10.3574
▁प्रत्य	-10.3576
▁वाहन	-10.3577
▁अधिकरण	-10.3582
▁संक्षिप्त	-10.3587
▁कथन	-10.359
झा	-10.3592
▁सजा	-10.3592
▁बैंकिंग	-10.3594
▁हलाक	-10.3601
▁उपकरणों	-10.3601
▁दलील	-10.3601
▁पाये	-10.3603
▁सहमति	-10.3604
Y	-10.3605
▁व्यक्तित्व	-10.3606
रह	-10.3613
▁अमल	-10.3613
▁छोड़ा	-10.3618
ter	-10.3621
▁वाणिज्यिक	-10.3623
▁उल्लंघन	-10.3626
समझ	-10.3638
००	-10.3641
क्रो	-10.3643
▁गुरू	-10.3646
▁काफिरों	-10.3648
▁गौरव	-10.3655
▁देगें	-10.3655
ूँगा	-10.3656
000	-10.3656
▁सैनिक	-10.3657
ुष	-10.3664
टिन	-10.3664
▁ढांचा	-10.3666
▁सुसंगत	-10.3666
500	-10.3667
34	-10.3668
▁एयर	-10.3671
जुल	-10.3673
▁2017	-10.3674
धिक	-10.3674
▁</	-10.3681
दर्शन	-10.3682
▁असं	-10.3682
रंग	-10.3687
▁शरण	-10.3694
योजित	-10.3696
▁2007	-10.3697
▁प्ला	-10.3703
▁पहुंचे	-10.3703
▁गाँव	-10.3705
▁निष्पादन	-10.3705
▁कोविन्द	-10.3705
▁लगती	-10.3709
▁योग्यता	-10.3715
ैक्ट	-10.3719
▁मुक्ति	-10.372
▁जिम्मेदार	-10.3721
▁पं	-10.3727
▁भारतीयों	-10.3738
हाय	-10.374
▁लाना	-10.3753
▁परिस्थिति	-10.3754
▁माने	-10.3754
▁बग	-10.3759
▁द्रव	-10.3766
्लो	-10.3768
▁नेत्र	-10.3771
▁विद्रोह	-10.3775
▁सम्पर्क	-10.3775
ation	-10.378
ल्फ	-10.3782
▁पर्यटक	-10.3785
▁औषध	-10.3791
▁ग्राफ	-10.3793
ंदी	-10.3797
▁दुःख	-10.3805
▁परम्परा	-10.3805
▁मादा	-10.3809
▁प्रभाग	-10.3809
ूक	-10.3812
▁विद्वान	-10.3816
बत	-10.382
▁1961-201	-10.3824
▁चुनौतियों	-10.3824
धू	-10.3833
▁कक्षा	-10.3833
▁डिजिटल	-10.3834
▁पड़ती	-10.3836
▁पोस्ट	-10.3837
धारी	-10.3844
44	-10.3844
un	-10.3854
▁जायेगी	-10.3854
▁औपचारिक	-10.3865
45	-10.3865
विध	-10.3868
▁पैरवी	-10.3869
▁घुस	-10.3872
▁कीट	-10.3875
59	-10.3875
▁अनुपालन	-10.3875
▁पड़ेगा	-10.3875
▁सकाः	-10.3875
▁श्रमिक	-10.3877
वस्तु	-10.3877
ियल	-10.3879
ग्रे	-10.3887
त्रिक	-10.3889
▁फ़रिश्तों	-10.3895
▁घुमा	-10.3905
72	-10.3907
▁बेटा	-10.3911
▁2005	-10.3917
55	-10.3918
▁दिखाए	-10.3924
▁संभावित	-10.3925
▁अंतराल	-10.3929
▁अकेले	-10.3935
▁चाहती	-10.3938
▁अद	-10.3941
▁नवंबर	-10.3946
▁गतिविधि	-10.3953
▁निवासी	-10.3956
रल	-10.3961
▁वंचित	-10.3966
▁टुकड़े	-10.3967
39	-10.3976
▁परिवारों	-10.3978
▁धारणा	-10.3981
शोध	-10.3983
▁तह	-10.3985
▁कृति	-10.3994
बोध	-10.3996
▁बढ़ने	-10.3996
▁बनकर	-10.3997
▁स्वीकृत	-10.4001
▁जयंती	-10.4006
▁खि	-10.4013
▁गढ़	-10.4014
▁बस्तियों	-10.4027
▁उपलब्धि	-10.403
▁क़ुबूल	-10.4037
▁मनुष्यों	-10.4043
▁स्वामित्व	-10.4047
ग्राफ	-10.405
ावस्था	-10.4057
▁रिकार्ड	-10.4058
त्म	-10.4067
▁कृपा	-10.4068
▁चिकित्सक	-10.407
▁परसतिश	-10.4078
▁वार	-10.4083
▁रोका	-10.4086
▁चीजें	-10.4088
▁साक्ष्य	-10.4098
▁यहूदी	-10.4099
शाह	-10.4111
▁पैसे	-10.4115
▁लगाना	-10.4121
▁विद्यार्थी	-10.4129
▁पिछली	-10.4129
▁अन्तर्	-10.4137
वासियों	-10.4141
ग़रज़	-10.4142
ेयर	-10.4144
▁समुचित	-10.415
▁दरबार	-10.4161
▁नोड	-10.4162
▁चीज़े	-10.4164
माला	-10.4167
▁अनाज	-10.4171
धीरे	-10.4171
▁रूस	-10.4171
▁ठंड	-10.4172
▁कारणों	-10.4173
▁रॉ	-10.4177
▁आबादी	-10.4179
htm	-10.418
ma	-10.4184
▁पंख	-10.4187
▁‘‘	-10.4193
▁विष्णु	-10.4194
▁35	-10.4196
▁पूछो	-10.4196
▁मार्क	-10.42
▁दक्षिणी	-10.4211
▁कमज़ोर	-10.4212
▁संचालित	-10.4215
▁एज	-10.4216
गृह	-10.4216
presidentofindia	-10.4223
▁प्राधिकार	-10.4223
▁शिल्प	-10.4223
▁क्ला	-10.4231
▁ट्रा	-10.4232
▁गहराई	-10.4232
▁लेगा	-10.4235
▁ब्राह्मण	-10.4235
पक्ष	-10.4236
▁छू	-10.4238
विद्	-10.424
release	-10.4243
▁पदार्थों	-10.425
▁रिजर्व	-10.4254
▁निष्ठा	-10.4255
र्ष	-10.4257
ao	-10.4262
▁जनरल	-10.4267
to	-10.4273
▁पंच	-10.4273
ाइज	-10.4276
▁मुल्क	-10.4278
गढ़	-10.4279
▁छुटकारा	-10.4285
▁उत्पादक	-10.4285
▁जायें	-10.4292
21	-10.4297
▁प्रतिमा	-10.4308
▁स्वभाव	-10.431
डिया	-10.4313
▁सरपरस्त	-10.4317
▁झु	-10.4329
▁सफलतापूर्वक	-10.433
▁मौलिक	-10.4338
रोपण	-10.4343
▁अर्ज़	-10.4346
ंडर	-10.4347
▁सामान्यतः	-10.4348
▁ब्रिटेन	-10.4348
▁रवीन्द्रनाथ	-10.4348
सीसी	-10.435
▁जुड़ी	-10.4357
▁आमंत्रित	-10.4359
गुण	-10.436
▁शिक्षकों	-10.4363
▁पीने	-10.4368
▁इलाज	-10.4373
सूची	-10.4374
▁पोषण	-10.4386
▁खून	-10.4386
▁कोलकाता	-10.439
▁पंडित	-10.4391
▁गणित	-10.4393
▁डराने	-10.4399
▁रहमान	-10.44
▁मददगार	-10.4407
▁छोड	-10.4409
▁गर्व	-10.4413
अब	-10.4414
विचार	-10.4416
क़ुरान	-10.4416
पट्टी	-10.4417
ग्रस्त	-10.4421
▁ज़बान	-10.4425
प्रणाल	-10.4428
ेन्ट	-10.4442
▁इनसे	-10.4451
▁स्मरण	-10.4454
▁स्मारक	-10.4454
▁(4)	-10.4458
▁बीस	-10.4459
▁बेल	-10.4466
▁/	-10.4474
46	-10.4482
▁निकाले	-10.4491
40	-10.4493
▁संस्थापित	-10.4494
▁जं	-10.4495
▁गोया	-10.4499
85	-10.4515
51	-10.4517
▁निकले	-10.4522
▁अन्तिम	-10.4531
वालो	-10.4536
▁जानकर	-10.4538
▁रच	-10.4541
▁कराना	-10.4541
▁वारिस	-10.4542
▁कमरे	-10.4543
65	-10.4547
▁मशीनरी	-10.4547
▁टाल	-10.4548
▁उत्तरदायी	-10.4552
▁पिला	-10.4555
▁आदम	-10.4558
▁किलोमीटर	-10.4561
▁निकलने	-10.4562
▁29	-10.4564
▁दरिया	-10.4567
▁वैसा	-10.4568
बै	-10.4573
▁आरंभिक	-10.4576
▁चावल	-10.4577
निशानियों	-10.458
▁हाथी	-10.4585
56	-10.4586
▁रानी	-10.4587
वती	-10.4589
▁सिल	-10.459
▁इलेक्ट्रॉनिक	-10.4594
▁विनाश	-10.4594
पत्ति	-10.4595
संख्य	-10.4599
▁प्रयोगशाला	-10.4599
थर	-10.4599
▁वर्	-10.4603
▁आचरण	-10.4605
▁इस्लामी	-10.4611
▁रोम	-10.4612
▁ज़कात	-10.4615
▁सेक्टर	-10.462
▁पहुंचने	-10.462
पार्ट	-10.4623
▁प्रयोक्ता	-10.4626
▁शर	-10.4629
्थ	-10.463
रेट	-10.4634
▁आद	-10.4634
▁संशोधित	-10.4637
▁दिमाग	-10.4638
▁पौधे	-10.4638
▁रास्त	-10.4642
▁सकी	-10.4643
▁विधा	-10.4644
▁प्रकाशना	-10.4647
सूर	-10.4652
▁बचाने	-10.4654
▁बिन्दु	-10.4659
▁आसमानों	-10.4663
96	-10.4664
▁आदत	-10.4667
▁जातियों	-10.467
48	-10.4672
▁बुक	-10.468
▁स्वप्न	-10.4681
▁अंधे	-10.4681
▁उठे	-10.469
▁अग्नि	-10.4692
▁अनुसूची	-10.4694
▁चढ़ा	-10.4695
▁सिद्धांतों	-10.4696
हान	-10.47
▁आमाल	-10.4713
▁क़रीब	-10.4713
▁१०	-10.4714
राष्ट्रीय	-10.4719
▁शीत	-10.4723
▁ईमानवाले	-10.4726
▁आपसे	-10.4728
▁दस्त	-10.4729
बन्द	-10.4735
▁मासिक	-10.4735
▁आउटपुट	-10.4735
स्थापन	-10.4738
गामी	-10.4742
▁इन्सान	-10.4747
ष्टि	-10.4748
▁तापमान	-10.4748
निर्देश	-10.4754
▁झील	-10.4765
▁अनि	-10.4766
ण्ट	-10.4772
▁हैदराबाद	-10.4779
▁for	-10.4781
▁खिल	-10.4782
▁पहाड़ी	-10.4782
64	-10.4788
क्टर	-10.4793
ाध्यक्ष	-10.4796
▁बहस	-10.4797
▁प्रोजेक्ट	-10.4801
▁फ्रांस	-10.4801
▁भर्ती	-10.4801
▁उद्देश्यों	-10.4804
क्ट	-10.4806
संघ	-10.4808
am	-10.4813
▁शंकर	-10.4817
▁इसपर	-10.482
▁कर्ता	-10.482
मह	-10.4824
सान	-10.4829
_	-10.4832
▁झा	-10.4832
▁बल्लेबाज	-10.4834
▁माइक्रो	-10.4835
▁फीस	-10.4838
▁समर्थ	-10.4841
कॉ	-10.4841
▁वर्णित	-10.4846
ावली	-10.4846
वाय	-10.4846
▁बट	-10.4855
▁दिलचस्प	-10.4856
▁रणनीति	-10.4856
▁बुलाया	-10.4859
वर्तन	-10.486
ख़बरी	-10.4863
▁इसीलिए	-10.4879
▁बढ़ते	-10.4882
▁नो	-10.4883
▁लिखें	-10.4883
▁i	-10.4891
▁लड़की	-10.4893
▁गहरे	-10.4897
▁गे	-10.4897
▁बांट	-10.4899
▁तमिलनाडु	-10.4901
▁शो	-10.4903
▁न्यायिक	-10.4904
▁सोने	-10.4905
▁मित्रों	-10.4909
▁इनपुट	-10.4912
▁पंचायत	-10.4912
▁१८	-10.4913
▁फज़ल	-10.4923
▁जादूगर	-10.4925
०००	-10.4926
▁समाहित	-10.4936
▁अत्याचारी	-10.4937
▁माइ	-10.4937
▁दूरस्थ	-10.4939
▁सकेगी	-10.494
पन्न	-10.494
49	-10.4942
ाधीन	-10.4944
▁महाराजा	-10.4946
▁शे	-10.4946
▁शराब	-10.4947
▁देगी	-10.495
▁पोजीशन	-10.4957
▁सिंचाई	-10.4957
कालिक	-10.4958
▁महाभारत	-10.4961
मुक्त	-10.4963
इश	-10.4972
▁मानवता	-10.4974
▁एकीकृत	-10.4983
पादन	-10.4983
▁कम्प्यूटर	-10.499
▁खनिज	-10.499
▁तुर्की	-10.4992
ैत	-10.4992
▁परिवेश	-10.4994
▁पुरुषों	-10.4997
▁अनुक्रम	-10.4998
▁उच्चतर	-10.5
▁जायेंगे	-10.5
▁वाक़िफ	-10.5003
▁प्रसन्न	-10.5007
▁पुल	-10.5009
▁#-#-#-#-#	-10.5013
▁ज़रिए	-10.5013
47	-10.5015
▁संतुष्ट	-10.5016
▁हाज़िर	-10.5024
▁सम्मानित	-10.5026
▁V	-10.5027
वेल	-10.5034
प्स	-10.5034
▁पन	-10.5038
▁जोड़े	-10.5046
आख़ेरत	-10.5047
▁सकारात्मक	-10.5047
▁एहद	-10.5054
▁उज	-10.5057
▁अभ्यास	-10.5058
▁शैक्षणिक	-10.5058
con	-10.5063
▁समितियों	-10.5063
▁डालें	-10.5065
धारण	-10.5067
▁बहादुर	-10.5069
▁परिभाषा	-10.5072
▁तिल	-10.5072
ल्ले	-10.5081
▁साझी	-10.5088
▁अकेला	-10.5092
95	-10.5094
54	-10.5096
▁संग	-10.5096
▁विभेद	-10.5107
ात्मा	-10.511
▁साहब	-10.5115
▁सैन्य	-10.5116
योजन	-10.5118
90	-10.5124
र्ज़	-10.5134
▁संदेय	-10.5138
स्थिति	-10.5139
▁सम्बंध	-10.5139
▁गेंद	-10.5144
▁दम	-10.5147
▁com	-10.515
▁नवम्बर	-10.515
िमा	-10.5151
▁१५	-10.5151
▁कुफ्र	-10.5152
▁ढो	-10.5155
▁वापसी	-10.5157
▁संस्	-10.5161
▁चिन्ह	-10.5163
86	-10.5166
म्भ	-10.5168
24	-10.5172
▁अमरीकी	-10.5172
रानी	-10.5174
▁सावधानी	-10.5175
▁एहसान	-10.5183
▁तरीकों	-10.5183
क़ुदरत	-10.5184
▁4.	-10.5193
▁स्तन	-10.5198
52	-10.52
्टे	-10.5205
▁सहारा	-10.5207
▁अवज्ञा	-10.5207
▁वाणिज्य	-10.521
वर्धन	-10.5215
74	-10.5216
▁शानदार	-10.5218
तुम्हारे	-10.5218
दिन	-10.5218
▁धो	-10.5222
▁रखकर	-10.5224
▁लंबाई	-10.5225
▁कनेक्ट	-10.523
वत्	-10.523
▁व्यस्त	-10.5241
▁विक्रय	-10.5241
▁संतोष	-10.5241
▁संवेदनशील	-10.5241
71	-10.5245
▁मानी	-10.5249
▁हस्तक्षेप	-10.5253
▁कीजिए	-10.5256
38	-10.5262
▁दर्जे	-10.527
▁निकालने	-10.5271
▁भंग	-10.5275
▁मुद्दे	-10.5276
वर्ड	-10.5285
▁प्रसाद	-10.5287
▁हटाएँ	-10.5288
▁उत्पा	-10.53
दर्शी	-10.5303
पाय	-10.5309
▁आकलन	-10.5311
▁ढूंढें	-10.5318
क्यू	-10.5322
▁गण	-10.5322
▁अटल	-10.5322
▁प्रसंस्करण	-10.5322
▁भूत	-10.5325
च्छेद	-10.5325
▁घिर	-10.5333
▁अवधारणा	-10.5334
▁टॉ	-10.5334
स्टा	-10.5334
▁जैन	-10.534
▁हू	-10.534
▁अभिगम	-10.5344
रचना	-10.5351
▁प्रतिफल	-10.5351
▁तकलीफ	-10.5354
▁जीन	-10.5355
▁सम्पत्ति	-10.5358
चन्द	-10.5361
मक्ख	-10.5363
▁प्रवृत्त	-10.5372
▁बोलते	-10.5373
IN	-10.5373
▁संतुलन	-10.538
▁उतनी	-10.538
▁मानता	-10.5384
▁पुकारा	-10.5384
▁रिकॉर्ड	-10.5392
▁व्यवस्थित	-10.5392
▁औरतें	-10.5394
▁प्रतिकूल	-10.5396
▁प्रस्	-10.5401
▁वनस्पति	-10.5404
▁दाहिने	-10.5404
▁वैज्ञानिकों	-10.5413
पैग़म्बर	-10.5417
घा	-10.5421
▁संधि	-10.5422
▁प्रक्रियाओं	-10.5423
▁रचनात्मक	-10.543
▁पाता	-10.5431
▁शोर	-10.5437
76	-10.5441
ियॉ	-10.5441
▁विनय	-10.5452
▁2012	-10.5453
▁कायम	-10.5454
▁गोद	-10.5458
▁2001	-10.5459
अल	-10.546
▁उल्लिखित	-10.5463
भू	-10.5463
रक्षक	-10.547
75	-10.5477
कथा	-10.5477
मेन	-10.5479
▁अंकित	-10.5484
▁कोशिकाओं	-10.5488
▁प्रतिदिन	-10.5493
ागार	-10.5494
▁ऑफ़	-10.5495
▁सच्ची	-10.5498
▁उभार	-10.55
▁मिश्रण	-10.5501
▁दुर्भाग्य	-10.551
▁पथभ्रष्ट	-10.551
लेखन	-10.5513
▁प्लेट	-10.5515
▁स्वर्ग	-10.5517
▁विश्वसनीय	-10.5521
▁ख़ैर	-10.5524
वाँ	-10.5533
ॉप	-10.5533
▁चाँद	-10.5534
▁निः	-10.5534
विधि	-10.5536
▁re	-10.5541
▁श्वेत	-10.5545
ist	-10.5547
शीलता	-10.5549
मुखी	-10.5549
उसके	-10.5551
▁बदकार	-10.5556
▁सम्राट	-10.5557
▁तेज़	-10.5567
93	-10.5571
▁90	-10.5571
▁परिचित	-10.5575
▁तैयारी	-10.5583
▁डालते	-10.5584
▁फॉर्म	-10.5584
▁एन्	-10.5591
▁वरीयता	-10.5593
▁मिस्र	-10.5593
वही	-10.5593
सेट	-10.5596
▁उग्र	-10.5601
▁हलाल	-10.5602
▁दर्शाता	-10.5608
▁झुका	-10.5609
▁शैल	-10.5626
▁बोला	-10.5628
▁आदर	-10.5631
▁पीड़ित	-10.5641
2015	-10.5647
43	-10.5658
▁खतरे	-10.5665
▁मंजूरी	-10.5665
▁आँखों	-10.5667
▁भाष्	-10.5672
थन	-10.5674
▁अलबत्ता	-10.5677
▁ढेर	-10.568
▁2008	-10.568
▁कामयाब	-10.5683
शंस	-10.5683
▁याची	-10.5688
मिया	-10.5688
▁व्यष्टि	-10.5691
▁गांधीजी	-10.5695
ion	-10.5706
▁रखती	-10.5711
▁आह्वान	-10.5713
तसबीह	-10.5713
▁यथार्थ	-10.5714
▁लंबा	-10.5715
▁दुर्	-10.5719
▁गुट	-10.5721
ानुसार	-10.5723
▁बडी	-10.5724
▁समुदायों	-10.5726
▁(1	-10.5727
▁ग्राहकों	-10.5733
37	-10.5736
▁लानत	-10.5738
सूचना	-10.574
क्रा	-10.5746
▁सुन्दर	-10.575
बेहश्त	-10.575
▁बोध	-10.5761
ोत्तर	-10.5762
रिट	-10.5768
▁जुटा	-10.5772
▁कर्ण	-10.5773
▁औजार	-10.5774
▁वास्तविकता	-10.5775
▁पदों	-10.5778
▁आरक्षित	-10.578
▁होटल	-10.5782
नहीं	-10.5782
व्या	-10.5782
▁कण	-10.5785
▁क्रमशः	-10.5786
▁तीर्थ	-10.5786
▁सीखने	-10.5792
▁टिकट	-10.5794
▁2006	-10.58
▁कार्बन	-10.5802
▁असली	-10.5802
om	-10.5803
61	-10.5805
▁शेख	-10.581
मुझे	-10.5815
▁प्रशांत	-10.5822
▁श्रीमती	-10.5823
▁राहे	-10.5824
योग्य	-10.5831
▁चैतन्य	-10.5835
▁उत्सव	-10.5835
▁पृथक	-10.5836
▁देह	-10.5838
▁अन्ध	-10.5842
▁जितने	-10.5847
▁क़ाबू	-10.5848
▁प्रजाति	-10.5854
▁आदमियों	-10.5858
▁बरकत	-10.5861
▁ढक	-10.5864
▁प्रजनन	-10.5872
▁रुक	-10.5872
▁घनिष्ठ	-10.5872
▁डिग्री	-10.5873
इंट	-10.5874
▁संभवतः	-10.5877
▁नामः	-10.588
काम	-10.588
▁हंस	-10.5881
दादा	-10.5882
▁अमरीका	-10.5884
▁32	-10.5891
▁स्टेट	-10.5893
▁अनुमोदित	-10.5896
▁प्रासंगिक	-10.5896
▁मजबूर	-10.5896
▁प्रभार्य	-10.5898
▁पंज	-10.5899
▁एजेंसी	-10.5908
▁व्यावहारिक	-10.592
▁छि	-10.5921
ुम	-10.5922
▁सूचित	-10.5924
नुमा	-10.5925
उनकी	-10.593
▁क्रेडिट	-10.5933
▁शांत	-10.5936
▁संपन्न	-10.5938
▁पुस्तकें	-10.594
▁फायदे	-10.5945
▁बेस	-10.5947
थान	-10.5951
▁घाट	-10.5951
▁जर्मनी	-10.5954
किस	-10.5954
▁पुराण	-10.5958
▁ग्रा	-10.5964
▁मोटर	-10.597
▁लौ	-10.5971
▁सिद्धान्त	-10.5974
▁लेबल	-10.5982
▁क़ादिर	-10.5982
▁टाइप	-10.5983
▁दक्षता	-10.5983
▁अतीत	-10.5984
▁कैसी	-10.5984
▁पट्ट	-10.5984
्टन	-10.5992
▁लगाते	-10.5993
लिखित	-10.6
दृष्टि	-10.6006
▁सलाहकार	-10.6011
▁पुकारते	-10.6019
▁किन्हीं	-10.602
▁मुताबिक	-10.602
▁प्राधिकृत	-10.602
ab	-10.6028
▁हां	-10.6029
ख्वाह	-10.603
▁श्रोत	-10.6031
▁संलग्नक	-10.6032
▁भौगोलिक	-10.6032
▁कार्यकलाप	-10.6032
▁प्रबन्ध	-10.6038
69	-10.6039
▁निधन	-10.6039
▁चलाया	-10.6042
▁बिता	-10.6042
द्वार	-10.6044
▁सम्बन्धित	-10.6045
▁संपदा	-10.6045
हृ	-10.6053
▁गद्य	-10.6053
▁जवाहरलाल	-10.6057
na	-10.6064
▁कुदरत	-10.6075
▁तुझ	-10.6076
्यूट	-10.6076
▁वसूली	-10.6076
▁बाइ	-10.6081
▁हिन्दुस्तान	-10.6082
▁राजकुमार	-10.6083
▁महत्	-10.6084
▁राजभाषा	-10.6084
▁एकदम	-10.6087
थो	-10.6095
▁रेशम	-10.6096
▁प्रश्नों	-10.6096
▁दाम	-10.6097
ग्राम	-10.6098
▁बर्फ	-10.6103
▁कुशलता	-10.6105
▁प्रोटोकॉल	-10.6107
▁चट्टान	-10.6107
▁आधा	-10.6118
श्च	-10.6118
▁ग्रस्त	-10.6119
▁प्रोफेसर	-10.612
▁115	-10.612
▁अर्पित	-10.6122
▁गुणों	-10.6123
▁पढ	-10.6123
ैट	-10.6126
▁लिखते	-10.6128
▁विद्वानों	-10.613
▁भगवान्	-10.6131
▁पक्षी	-10.6138
▁बरसात	-10.614
▁लोकतांत्रिक	-10.6145
▁हज़ार	-10.6146
छु	-10.6146
▁आंशिक	-10.6158
▁विज्ञप्ति	-10.6158
▁उर्दू	-10.6158
▁लेखकों	-10.6163
ाबाद	-10.6167
94	-10.6179
▁सचमुच	-10.6183
▁खबर	-10.6188
▁वर्मा	-10.6191
भाषा	-10.6192
▁उपायों	-10.6194
▁गंतव्य	-10.6196
▁टर्मिनल	-10.6196
▁तत्त्व	-10.6196
▁प्लस	-10.6207
▁भरें	-10.6209
▁अक्टूबर	-10.6221
▁ज़बरदस्त	-10.6221
▁पारस्परिक	-10.6221
▁फलस्वरूप	-10.6221
▁व्यापारी	-10.6224
ne	-10.6233
▁संगणना	-10.6234
▁प्रस्तावित	-10.6238
▁विवरणी	-10.6244
NAME	-10.6247
▁हिमाचल	-10.6259
▁अखिल	-10.6259
▁टैग	-10.6263
▁असल	-10.6266
ब्ल	-10.6271
▁उतारी	-10.6273
op	-10.6275
▁सर्विस	-10.628
▁रोगों	-10.6281
मूल्य	-10.6283
▁फोल्डर	-10.6285
▁नदियों	-10.6286
वंश	-10.6294
▁थक	-10.6294
▁विभागों	-10.6296
▁दीजिए	-10.6298
▁अर्जन	-10.6299
▁पुराना	-10.6301
▁सॉ	-10.6306
▁लिखना	-10.6307
▁अधिकारिता	-10.6308
▁बीत	-10.6311
▁आशय	-10.6311
▁अस्वीकार	-10.6323
▁आंकड़ा	-10.6323
▁गर्दन	-10.6323
▁हकदार	-10.6324
▁हजारों	-10.6332
▁गर्मी	-10.6335
▁जागरूकता	-10.6336
▁क्रियाकलाप	-10.6336
▁इकाइयों	-10.6336
▁आधारभूत	-10.6343
▁बाँध	-10.635
▁लहर	-10.6351
▁दिखायें	-10.6354
▁यानी	-10.6359
ंगो	-10.6361
▁उर्वरक	-10.6362
▁रामायण	-10.6363
कोड	-10.6363
▁वृत्ति	-10.6365
▁हमला	-10.6372
▁ट्यूब	-10.6375
मिट	-10.6377
▁मंगल	-10.638
ग्री	-10.6383
▁तस्	-10.6388
▁निगाह	-10.6394
▁2002	-10.6397
▁उठाना	-10.6399
फरिश्ते	-10.6401
▁वैदिक	-10.6401
▁न्यायालयों	-10.6408
▁लड़का	-10.6415
▁भांति	-10.6415
ाहट	-10.6418
▁वृद्ध	-10.6419
▁देशवासियों	-10.6422
▁झूठे	-10.6425
▁बेटों	-10.6428
धारा	-10.6438
▁दिसम्बर	-10.644
ex	-10.6441
▁पनाह	-10.6441
साफ़	-10.6443
▁शेयरों	-10.6444
उसकी	-10.6445
▁ब्रह्मा	-10.6446
़त	-10.6448
▁दशकों	-10.6449
▁पान	-10.6452
▁ज़रूरत	-10.6452
▁ईंधन	-10.6453
▁प्रभु	-10.6455
▁पूर्ववर्ती	-10.6457
▁संगत	-10.6458
▁दर्शक	-10.647
66	-10.647
▁दूँगा	-10.6473
▁चलती	-10.6477
▁शै	-10.6478
▁पसंदीदा	-10.6479
▁मचा	-10.6479
▁नरम	-10.648
▁वैकल्पिक	-10.6492
▁संगठित	-10.6492
▁अपराधी	-10.6494
बुल	-10.6497
ैश	-10.6497
बह	-10.6501
रहित	-10.6503
बहुत	-10.6503
डब्ल्यू	-10.6505
▁कार्यरत	-10.6505
sh	-10.6511
▁r	-10.6515
▁आएँ	-10.6521
▁अधिसूचित	-10.6531
▁घास	-10.6538
▁नज़दीक	-10.6544
ate	-10.6545
▁निदेश	-10.6546
▁व्याख्यान	-10.6548
▁पड़ने	-10.6553
▁सकल	-10.6556
j	-10.6561
▁आपदा	-10.6562
77	-10.6571
▁डालने	-10.6574
▁तमिल	-10.6579
▁छुपा	-10.658
वृ	-10.6581
▁पेय	-10.6581
टू	-10.6584
▁उन्होनें	-10.6585
▁ढा	-10.6585
89	-10.659
▁मंडप	-10.6597
▁गुलाम	-10.6598
▁शेर	-10.6602
▁शास्त्र	-10.6607
पेट	-10.6608
▁महत्त्व	-10.6609
▁गारंटी	-10.661
▁विजेता	-10.6612
▁योजनाएं	-10.6621
आउट	-10.6622
▁सत्यापित	-10.6623
▁बालक	-10.6628
▁सको	-10.6629
▁सल	-10.663
▁अंततः	-10.6631
औ	-10.6639
ल्प	-10.664
73	-10.6646
लाइट	-10.6648
▁आएगी	-10.6649
▁परिश्रम	-10.665
▁समूद	-10.665
▁ट्रे	-10.6655
चरित	-10.6655
▁प्रचालन	-10.6663
▁चुकता	-10.6665
▁होगें	-10.6665
▁वन्य	-10.6668
▁प्रबल	-10.6669
▁क्यू	-10.6672
▁पैसा	-10.6675
बाज़	-10.6678
▁आतंकवादी	-10.668
▁चैन	-10.6683
▁सिरे	-10.6685
▁देखोगे	-10.6687
▁हटाने	-10.6687
▁5.	-10.669
▁होगे	-10.6693
रोग	-10.6693
▁तेरा	-10.6693
▁बचे	-10.6698
▁अंग्रेजों	-10.6699
वृत्ति	-10.6701
▁बडे	-10.6702
▁आईडी	-10.6706
▁प्रतिबद्धता	-10.6708
▁असामान्य	-10.6708
▁भरत	-10.6712
▁लाइ	-10.6713
▁डाली	-10.672
▁रंज	-10.672
28	-10.6725
▁सोसाइटी	-10.673
▁अवयव	-10.673
▁फसलों	-10.673
परिवर्तन	-10.6731
58	-10.6731
2016	-10.6733
▁भरपूर	-10.6734
▁75	-10.6735
▁अज्ञान	-10.6735
▁2020	-10.6736
▁रज	-10.6739
tion	-10.6739
निष्ठ	-10.674
▁बनना	-10.674
▁be	-10.6741
▁पहलुओं	-10.6743
▁साक्षी	-10.6743
▁सम्पन्न	-10.6744
▁बीविय	-10.6745
▁ज़िक्र	-10.6745
िणी	-10.6747
▁वाल	-10.6748
▁प्रजा	-10.6755
प्रद	-10.6759
▁आपसी	-10.6759
▁नकद	-10.6759
▁सीता	-10.6761
▁सन्देह	-10.6771
▁तीसरा	-10.6778
अधि	-10.6779
▁साधनों	-10.678
उनके	-10.6781
ly	-10.6784
ेंद्र	-10.6791
▁पैनल	-10.6797
ांश	-10.6798
▁प्रमाणित	-10.6799
▁पाप	-10.6805
▁फरमाया	-10.6812
▁भक्त	-10.6814
▁प्रभावशाली	-10.6814
▁नाप	-10.6826
▁भरने	-10.6826
▁झोंक	-10.6829
ir	-10.6832
▁करेंः	-10.6837
▁इरादा	-10.6837
मात्र	-10.6842
▁निपटान	-10.6842
▁गुणा	-10.6843
▁200	-10.6844
II	-10.6845
रियल	-10.6849
वर्ष	-10.6849
▁प्रावधानों	-10.6852
▁अधिकृत	-10.6855
▁चीज़ें	-10.6856
68	-10.6856
▁रहम	-10.6861
▁श्रद्धा	-10.6865
▁रन	-10.6869
▁अफ़	-10.6869
▁उपलब्धता	-10.6873
▁जाया	-10.6876
‘	-10.6876
▁आकांक्षा	-10.6878
▁दोज़ख़	-10.6878
▁सहयोगी	-10.6886
▁फुट	-10.6895
63	-10.6895
67	-10.6896
्हे	-10.6898
▁आस्तियों	-10.6901
▁निरा	-10.6905
▁दादा	-10.6908
र्रा	-10.6909
▁1999	-10.6911
मोहन	-10.6912
▁बताता	-10.6914
▁यक़ीन	-10.6916
▁धनराशि	-10.6919
▁मतभेद	-10.692
▁डॉक्टर	-10.692
ग्रा	-10.6928
▁समापन	-10.6932
▁पचास	-10.6933
▁अपनाने	-10.6933
▁कृतज्ञता	-10.6934
▁ऊंचा	-10.6937
▁टेलीफोन	-10.6946
▁पाकीज़ा	-10.6946
▁झूठा	-10.6946
▁सारांश	-10.6947
▁मारा	-10.6948
▁राज़ी	-10.6952
▁स्विच	-10.6955
▁यहीं	-10.6957
▁जीवों	-10.6958
age	-10.696
▁कचरा	-10.696
▁भुला	-10.6961
▁व्यापारिक	-10.6962
▁पड़ते	-10.6965
35	-10.6966
ha	-10.6966
▁प्रवर्तन	-10.6967
▁गिरा	-10.6973
▁मुहम्मद	-10.6973
▁नकारात्मक	-10.6974
▁शल्य	-10.6974
▁प्रतिदान	-10.6974
▁विस्	-10.6975
व्यापी	-10.6979
▁वाय	-10.698
र्पण	-10.6985
ल्क	-10.6986
▁दार्शनिक	-10.6987
▁लंदन	-10.6987
मेट	-10.6998
▁फ्रेम	-10.7001
▁वाक्य	-10.7002
स्राव	-10.7009
▁याचिका	-10.7013
▁भाग्य	-10.7014
▁तथ्यों	-10.7016
▁भेड़	-10.7031
▁टीका	-10.7032
2013	-10.7033
▁लाएँ	-10.7036
▁उन्हे	-10.7036
निर्माण	-10.7038
▁पुरूष	-10.7042
▁मेहनत	-10.7042
▁परोक्ष	-10.7043
▁गतिशील	-10.7047
पुरुष	-10.7047
▁बनता	-10.7048
▁ठहराया	-10.7052
▁कालेज	-10.7055
99	-10.7058
▁कार्यालयों	-10.7066
▁गिनती	-10.7068
▁कार्यान्वित	-10.7074
▁निराश	-10.7075
धारक	-10.7077
▁आयुर्वेद	-10.7084
▁अंशदान	-10.7086
▁बताते	-10.7089
▁शीर्षिका	-10.7093
फ्र	-10.7093
▁नौका	-10.7095
▁सिंध	-10.7102
▁विडियो	-10.7103
▁साझेदारी	-10.7108
▁बिट	-10.7109
▁ज्योति	-10.7111
▁आंकड़े	-10.7125
▁कीटों	-10.7129
81	-10.7131
▁इम	-10.7131
▁बचने	-10.7136
▁चाहो	-10.7138
▁डीवीडी	-10.7139
▁जानना	-10.7142
▁खिलाड़ी	-10.7143
▁विचारधारा	-10.7143
26	-10.7147
ind	-10.7153
▁गवर्नर	-10.7153
▁रोकते	-10.7153
▁भाइयों	-10.7155
▁प्रतिलिपि	-10.7156
▁स्तरीय	-10.7156
▁दस्तावेजों	-10.716
62	-10.7162
स्टी	-10.7167
▁ख्वाहिश	-10.7169
▁ट्रांस	-10.7173
▁माफ	-10.7178
▁{0}	-10.7181
▁उत्तरदायित्व	-10.7181
▁नायक	-10.7182
▁ढूँढ	-10.7182
▁बाज़ार	-10.7192
▁संगणक	-10.7195
▁प्रसारण	-10.7197
ाचार्य	-10.7198
▁इराक	-10.7204
गुल	-10.7209
▁विज्ञापन	-10.7209
▁प्रतिरोध	-10.7211
▁कमाई	-10.7213
▁स्ट्र	-10.7213
▁पीछा	-10.7216
▁ईंट	-10.7221
▁डाक्टर	-10.7226
weather	-10.7237
ईमान	-10.7239
31	-10.7242
बर्ग	-10.7255
29	-10.7256
▁मान्य	-10.7262
▁देखेंगे	-10.7264
▁नमूना	-10.7266
▁अध्यक्षता	-10.7267
▁सूरज	-10.7267
▁नाते	-10.7277
▁रहित	-10.7279
▁सौभाग्य	-10.728
▁पिछला	-10.728
▁मश	-10.7283
▁इष्ट	-10.7284
▁आयकर	-10.729
▁चोरी	-10.7293
▁स्रोतों	-10.7293
टिल	-10.7293
▁क्रोध	-10.7296
▁सत्	-10.73
▁वस्तुएं	-10.7302
▁उड़ीसा	-10.7308
▁एव	-10.7309
▁पादप	-10.7312
▁नारायण	-10.7313
▁जवान	-10.7314
▁संक्रिया	-10.7315
▁ग्रह	-10.7317
▁संयोजन	-10.732
▁धान	-10.732
ैया	-10.7327
ोदय	-10.7328
विश्वास	-10.7331
▁नमक	-10.7332
▁इंग्लैंड	-10.7336
▁आकर्षण	-10.7336
▁अनुपस्थित	-10.7338
▁प्रवासी	-10.7339
▁बाक़ी	-10.7341
▁मरियम	-10.7341
ँट	-10.7343
▁अपनाई	-10.7344
सिल	-10.7348
▁आस्था	-10.7348
53	-10.735
▁कृत्रिम	-10.7351
ंबर	-10.736
▁फूट	-10.7366
एमएस	-10.7373
▁अभिभाषण	-10.7379
▁शिक्षित	-10.7379
co	-10.7381
▁जिलों	-10.7398
▁नकल	-10.74
▁लाइब्रेरी	-10.7408
ढा	-10.7411
आईसी	-10.7414
▁स्वच्छता	-10.7419
▁45	-10.742
▁तबाही	-10.7422
▁निकाह	-10.7423
▁सांस	-10.743
78	-10.7431
▁सूरत	-10.7436
▁प्रतिवादी	-10.7438
प्पा	-10.744
▁मौका	-10.7451
▁अपार	-10.7454
▁अतिथि	-10.7454
▁करूँ	-10.7455
▁वॉ	-10.7462
▁हज	-10.7462
डू	-10.7463
▁लटक	-10.7464
▁मनपसंद	-10.7465
▁जग	-10.7468
▁पढ़ते	-10.7471
▁संचित	-10.7475
▁भावनाओं	-10.7479
आईटी	-10.7479
▁क़रार	-10.748
▁बड़	-10.7483
▁दुर्लभ	-10.7494
▁ऑफ़लाइन	-10.7494
▁लाएँगे	-10.7496
▁देवताओं	-10.7496
▁समझना	-10.7496
दाद	-10.7496
▁देनेवाला	-10.7503
▁हाउस	-10.7503
▁दीवान	-10.7505
▁स्थितियों	-10.7505
भोज	-10.7505
युद्ध	-10.7508
▁अकादमी	-10.7508
▁यातायात	-10.7508
▁मानदंड	-10.7508
र्ति	-10.7511
▁लोकसभा	-10.7512
▁लीग	-10.7513
▁अगरचे	-10.7513
ॉर्ड	-10.7518
▁भव्य	-10.752
▁बिन	-10.752
▁आवरण	-10.7523
▁संतान	-10.7536
शेष	-10.7536
▁महासागर	-10.7537
▁मुशरिक	-10.7537
▁जरूर	-10.7543
▁बम	-10.7543
▁भ्रम	-10.7547
▁अपेक्षाकृत	-10.7549
▁ताप	-10.755
▁कैंसर	-10.7552
▁निचले	-10.7552
▁रजिस्टर	-10.7552
▁निकास	-10.7554
षक	-10.7554
▁अवस्थित	-10.756
▁छुट्टी	-10.7566
▁पाओगे	-10.7566
मण्डल	-10.7569
▁मानकों	-10.7573
वसाय	-10.7578
▁अंडे	-10.7579
▁एक्सचेंज	-10.7581
▁सौंदर्य	-10.7581
▁पीड़ा	-10.7582
▁सच्चाई	-10.7584
स्टो	-10.7585
va	-10.7593
aa	-10.7594
▁एजेंसियों	-10.7596
▁बेहिश्त	-10.7597
um	-10.7599
▁बनाओ	-10.7602
▁फ़रमा	-10.7605
भाई	-10.7608
▁दीक्षांत	-10.761
▁लम्बी	-10.761
▁मतदान	-10.7616
ढे	-10.7622
▁इजाज़त	-10.7625
▁इंदिरा	-10.7625
▁प्लगिन	-10.7626
▁क्रय	-10.7629
हमारी	-10.7633
अपना	-10.7633
▁मोहन	-10.7636
▁सैनिकों	-10.7639
▁अन्याय	-10.7644
▁लगाकर	-10.7649
em	-10.7652
निश्चय	-10.7662
▁बहुमत	-10.7662
▁सिख	-10.7662
चन्द्र	-10.7666
ट्रिक	-10.7668
▁आजीविका	-10.7669
ट्टा	-10.7669
मीटर	-10.7669
▁तनाव	-10.7669
शिप	-10.767
84	-10.7676
▁जगत	-10.7678
वस्था	-10.768
▁पाना	-10.7681
खुदा	-10.7684
▁धोखे	-10.7684
▁समर्पण	-10.7685
▁Comment	-10.7687
▁समर्थक	-10.7689
▁आईटी	-10.7689
▁विफलः	-10.7696
▁आत्मनिर्भर	-10.7698
▁हिस्सों	-10.7698
▁शान्ति	-10.7698
▁दूँ	-10.7701
▁अनन्त	-10.7707
ेन्स	-10.7708
▁व्युत्पन्न	-10.7713
▁अमृत	-10.7713
▁प्रणालियों	-10.7713
लाभ	-10.7723
▁शाखाओं	-10.7723
▁मुकदमा	-10.7728
▁मरम्मत	-10.7728
▁परिचालन	-10.7728
▁पेशेवर	-10.7728
देह	-10.7731
▁पूछते	-10.7733
▁मोहम्मद	-10.7742
▁पूर्णतः	-10.7742
▁निवारण	-10.7743
▁जता	-10.7751
▁नवाचार	-10.7757
▁हिम	-10.7759
▁सारणी	-10.7759
▁चौक	-10.776
▁डरता	-10.776
▁फौज	-10.776
▁हँसी	-10.7768
▁चाहूंगा	-10.7773
▁वार्ता	-10.7774
▁तीस	-10.7777
▁मिलना	-10.7777
▁पंजाबी	-10.7781
▁हुये	-10.7783
▁वितरित	-10.7787
▁उदय	-10.7801
▁इन्हीं	-10.7802
▁शुरूआत	-10.7803
स्ते	-10.7804
▁आभास	-10.7806
.–	-10.7807
▁परंपरागत	-10.7807
▁हिला	-10.7809
▁राष्	-10.7814
▁ऊँचाई	-10.7822
▁मील	-10.7825
▁इत्	-10.7826
कोष	-10.7827
▁मानने	-10.7831
▁चमत्कार	-10.7832
▁बताने	-10.7833
▁उपदेश	-10.7834
▁संकल्पना	-10.784
▁प्रतिज्ञा	-10.7844
त्तर	-10.7849
▁करनेवाली	-10.785
▁उत्कृष्टता	-10.7856
▁ग्रन्थ	-10.7858
▁फॉर	-10.7862
▁दांत	-10.7864
▁सोम	-10.7867
भिन्न	-10.7874
▁अध्यापक	-10.7877
▁कुबूल	-10.7877
▁पिछड़	-10.7877
id	-10.7879
▁केडीई	-10.7879
▁कर्ज	-10.7882
▁तीसरी	-10.7884
▁घटित	-10.7891
▁मद्रास	-10.7892
▁खातों	-10.7901
▁शर्तें	-10.7907
▁प्राणी	-10.791
खण्ड	-10.791
......	-10.7912
सिन	-10.7913
▁अनिवासी	-10.7923
▁ओपन	-10.793
▁क्यो	-10.793
एंगे	-10.7934
▁अनुदेश	-10.7934
▁अवसंरचना	-10.7937
▁पोल	-10.7939
▁2003	-10.794
▁२०	-10.7945
▁गुम	-10.7946
ve	-10.7948
▁रिश्ते	-10.7952
▁टू	-10.7953
▁अनुचित	-10.7959
▁विदेशों	-10.7966
▁वैसी	-10.7966
▁मुख्यतः	-10.7968
हक़	-10.7976
उसका	-10.7994
▁अतएव	-10.7997
▁उद्यमों	-10.7997
▁गीता	-10.8009
▁अखबार	-10.8013
म्मा	-10.8019
वचन	-10.802
▁ओवर	-10.8021
▁गले	-10.8022
▁औज़ार	-10.8028
▁सृष्टि	-10.8028
▁बगैर	-10.8029
▁कार्यकारी	-10.8029
▁क्वा	-10.8031
’’	-10.8032
▁2011	-10.8032
▁गौर	-10.8049
▁गोरा	-10.8049
▁सकने	-10.805
▁तालाब	-10.8053
गिर्द	-10.8054
▁ताज	-10.8054
▁प्रदत्त	-10.8058
▁शिष्य	-10.8059
27	-10.806
▁उत्पादकता	-10.8071
▁सृजित	-10.8074
▁मुकदमे	-10.8074
▁संजाल	-10.8074
ब्रा	-10.8074
पंथ	-10.8075
१९	-10.808
▁चलना	-10.8083
▁कवियों	-10.8088
▁पाइप	-10.809
92	-10.8103
▁उपेक्षा	-10.8104
पीठ	-10.8108
▁नूर	-10.8108
ऊँगा	-10.8109
दायी	-10.8116
▁इस्पात	-10.812
▁वाणी	-10.8125
वृत	-10.8132
LAT	-10.8135
▁लम्बे	-10.8135
▁पहुँचने	-10.814
ड़िया	-10.8141
▁अपवाद	-10.8143
▁मध्यस्थ	-10.8145
▁बेकार	-10.8148
▁कराता	-10.8149
दायक	-10.8149
▁आज़ाद	-10.8152
सुर	-10.8152
▁गाड़ी	-10.8153
▁सेंटर	-10.8164
▁वैष्णव	-10.8166
▁डोमेन	-10.8166
▁इंटर	-10.8169
▁समकालीन	-10.817
▁इंजीनियरी	-10.8177
▁संकलन	-10.8181
▁विकासशील	-10.8182
▁OF	-10.8183
▁स्टोर	-10.8185
▁पशुओं	-10.8188
▁माननीय	-10.8189
▁आँखें	-10.8191
▁बाढ़	-10.8191
▁गलती	-10.8193
▁माफ़	-10.8197
▁निर्गम	-10.8198
▁टिक	-10.8206
▁अहम	-10.8206
वित्त	-10.8211
▁बडा	-10.8211
▁विकलांग	-10.8212
▁उपाधि	-10.8212
▁जीवाणु	-10.8214
▁ढाल	-10.8223
ठीक	-10.8228
▁रखरखाव	-10.8228
▁फूँक	-10.8228
संदत्त	-10.8232
▁चौथा	-10.8237
▁मित्रता	-10.8241
▁खतरनाक	-10.8243
▁परिपक्व	-10.8243
▁मुकाबले	-10.8243
▁दिखाना	-10.8244
▁हिंद	-10.8247
▁वजन	-10.825
▁कबीर	-10.825
▁नौकर	-10.8257
▁प्रशासक	-10.8259
चुपके	-10.8261
▁ज़िम्मे	-10.8271
▁बचपन	-10.8273
▁TRANS	-10.8275
▁प्रॉक्सी	-10.8275
कूट	-10.8278
क्यों	-10.8278
ta	-10.8281
चौ	-10.8289
▁हैसियत	-10.8291
▁खोजें	-10.8302
▁चतुर	-10.8305
▁सितम्बर	-10.8306
▁2004	-10.831
▁पडे	-10.8315
▁जंग	-10.8316
महा	-10.8316
कार्ड	-10.832
य्या	-10.832
▁बैक	-10.8321
▁प्रस्तुति	-10.8321
▁प्रिंटर	-10.8321
▁अम्ल	-10.8322
ORS	-10.8323
ट्रा	-10.8325
▁औषधि	-10.8327
▁रूक	-10.8328
▁घाटा	-10.8329
▁उपलब्धियों	-10.8329
▁विनियमन	-10.833
▁उड़ान	-10.8334
▁शादी	-10.8335
▁पब्लिक	-10.8337
▁टैगोर	-10.8339
▁सुनाई	-10.8339
▁अवरोध	-10.8342
▁सामान्यतया	-10.8359
▁वस्तुतः	-10.8363
▁रचनाओं	-10.8366
os	-10.8368
▁अंग्रेज़ी	-10.8369
वाड़	-10.837
▁स्ट्रिंग	-10.8374
▁बांग्लादेश	-10.8385
▁कवर	-10.8389
▁शक्तियां	-10.8391
▁घबरा	-10.8392
चीन	-10.8394
▁त्वरित	-10.84
▁प्रशिक्षित	-10.84
▁इलाकों	-10.84
▁प्रोटीन	-10.84
▁उलझ	-10.8401
▁व्यर्थ	-10.8404
▁रखनेवालों	-10.841
▁बॉक्स	-10.8412
▁स्नातक	-10.8416
▁सुनकर	-10.8417
▁गज	-10.8417
▁कोयला	-10.8422
▁प्रातः	-10.8424
▁पॉल	-10.8425
▁अनंत	-10.8426
▁इताअत	-10.8432
▁मणिपुर	-10.8432
▁अनुशासन	-10.8436
▁मूत्र	-10.8439
▁सोचते	-10.8447
कहीं	-10.8463
▁बंबई	-10.8464
▁रूपरेखा	-10.8464
▁राजमार्ग	-10.8468
▁माउस	-10.8469
▁खाल	-10.8474
गोया	-10.8475
▁ज्या	-10.8476
▁पश्च	-10.8477
▁अफगानिस्तान	-10.848
▁फौरन	-10.848
▁नाट्य	-10.848
▁संवेदना	-10.8482
▁गूगल	-10.8496
▁आकर्षक	-10.8496
▁वसा	-10.8496
▁गयीं	-10.8498
▁रेड	-10.8499
▁ठहरे	-10.8511
▁ऊंची	-10.8512
▁बुल	-10.8518
▁पते	-10.852
▁सिर्फ़	-10.8523
▁दत्त	-10.8526
▁रिज़र्व	-10.8527
▁दिशानिर्देश	-10.853
▁पढ़ाई	-10.854
बाप	-10.854
▁दंत	-10.8541
▁आपात	-10.8541
▁कथित	-10.8544
▁कार्मिक	-10.8544
▁बायो	-10.8545
▁स्पर्श	-10.8545
ca	-10.855
गमन	-10.855
▁लगने	-10.8551
▁अधिवेशन	-10.856
अगर	-10.8566
▁आजाद	-10.8567
▁कविताओं	-10.857
▁रासायनिक	-10.8576
▁करतूत	-10.8577
▁विश्	-10.8578
▁उम्मत	-10.8592
▁पैमान	-10.8605
▁अवकाश	-10.8608
▁अजीब	-10.861
ect	-10.8622
बंद	-10.8623
पेश	-10.8624
▁नाबार्ड	-10.8624
▁परिकल्पना	-10.8624
▁धारक	-10.8625
▁एशियाई	-10.8626
▁आँख	-10.8628
▁ऋषि	-10.8629
▁हर्ष	-10.8632
▁जिन्ना	-10.8633
▁चखा	-10.8633
▁अंतरित	-10.8639
▁झगड़ा	-10.8639
▁वसीयत	-10.864
▁किशोर	-10.8644
▁ललित	-10.8652
▁खुल्लम	-10.8656
▁नकदी	-10.866
▁सर्वथा	-10.8661
▁शासित	-10.8663
▁मिट	-10.8665
▁राजपत्र	-10.8671
▁मुर्ग	-10.8671
▁दौरा	-10.8673
▁कहानियों	-10.8675
▁आर्य	-10.8677
किताब	-10.8677
तौरेत	-10.868
▁चखो	-10.8683
▁एहकाम	-10.8689
▁मौजिज़े	-10.8689
▁सवाब	-10.8689
▁इबरत	-10.8689
पथ	-10.8692
▁सम्बद्ध	-10.8694
▁हिल	-10.8698
ers	-10.87
▁मेमोरी	-10.8705
हमने	-10.8708
▁रूह	-10.8709
▁सरीह	-10.8709
ङ्	-10.8712
▁पहुंचाने	-10.8713
▁प्राप्तकर्ता	-10.8715
▁दिखाते	-10.8716
▁डालो	-10.8719
▁मराठी	-10.8722
▁सौंपा	-10.8734
▁कैद	-10.8736
▁सफाई	-10.8738
▁निर्धन	-10.8741
▁उम्मीदवार	-10.8745
▁सभापति	-10.8751
▁निवेदन	-10.8754
▁धूप	-10.8754
▁ज्यादातर	-10.8762
▁रोज़े	-10.8768
▁रंगमंच	-10.8771
अच्छे	-10.8772
▁घोष	-10.8773
▁वर्गीकरण	-10.8776
▁आमदनी	-10.8787
खाना	-10.8792
▁पंथ	-10.8792
▁वरन्	-10.8795
▁सहानुभूति	-10.8803
▁इंजीनियरिंग	-10.8807
▁ठहराते	-10.8809
चालित	-10.8814
▁कतिपय	-10.882
▁सर्वश्रेष्ठ	-10.882
▁हुकूमत	-10.882
▁निमित्त	-10.882
▁खजूर	-10.882
▁किनारा	-10.8826
▁जंगली	-10.8833
▁ऊंचे	-10.8836
▁स्त्रियाँ	-10.8837
▁दुष्	-10.8839
▁शपथ	-10.8839
▁निबंध	-10.8844
▁बजाए	-10.8847
▁अहमद	-10.8851
▁पार्श्व	-10.8853
▁निक्षेप	-10.8859
▁तरल	-10.8861
▁मरने	-10.8863
▁गै	-10.8869
▁निपटने	-10.887
▁जुड	-10.8872
▁आलेख	-10.8878
▁कॉपी	-10.8881
▁सर्वज्ञ	-10.8883
▁मोती	-10.8895
▁लड	-10.8897
▁आधे	-10.8901
▁क्लब	-10.8903
फिल	-10.8904
एफसी	-10.8909
कंप	-10.8911
▁1956	-10.8912
▁पठन	-10.8922
▁ट्रेड	-10.8923
82	-10.8928
▁छोर	-10.8933
मुशरेकीन	-10.8936
▁स्वाधीनता	-10.8936
▁शास्त्रीय	-10.8939
▁कलाम	-10.8943
▁वक्तव्य	-10.8945
▁निपटा	-10.8947
ment	-10.8951
▁रजिस्ट्री	-10.8953
होंने	-10.8953
▁ऊँट	-10.8954
▁मनाया	-10.8955
▁मैच	-10.8956
▁बढ़ाना	-10.8959
▁एकत्रित	-10.8962
▁क्रांतिकारी	-10.8972
▁सौदा	-10.8973
▁भत्ता	-10.8974
▁चित्रण	-10.8979
▁नोडल	-10.898
▁सूजन	-10.8982
चंद्र	-10.8985
बाजी	-10.8985
▁विस्फोट	-10.8986
▁अन्जाम	-10.8986
▁करुणा	-10.8986
▁माहौल	-10.8987
▁धोखा	-10.8989
if	-10.899
▁निवेशकों	-10.9
▁गणतंत्र	-10.9004
▁बीबी	-10.9012
▁जॉन	-10.9013
▁उपग्रह	-10.9015
▁ज्यादती	-10.902
▁टुकड़ा	-10.9037
▁बरबाद	-10.9039
▁अनुभूति	-10.904
समूह	-10.9041
▁2010	-10.9041
▁गुनाहगार	-10.9042
बंदी	-10.905
▁मिटाना	-10.905
▁लौटने	-10.9054
मन्त्र	-10.9058
▁बेटी	-10.9068
▁सिफ़ारिश	-10.907
अफ़सोस	-10.9071
▁दृढ़ता	-10.9071
▁मोटे	-10.9072
▁स्टै	-10.9076
▁ग़लत	-10.9076
▁पक्का	-10.9084
▁पेट्रोलियम	-10.9087
▁फ्लैग	-10.9087
▁बैकअप	-10.9088
▁घेरे	-10.9096
▁परियोजनाएं	-10.9097
▁सुगम	-10.9102
▁वैयक्तिक	-10.9104
▁उन्नयन	-10.9104
▁असीम	-10.9105
पश्चिम	-10.9109
▁पाठ्य	-10.9109
▁बढ़ाया	-10.911
▁खरीदने	-10.9121
▁ख़िलाफ	-10.9121
▁ब्राउज़र	-10.9121
▁बोलने	-10.9123
▁तत्कालीन	-10.9124
▁जरा	-10.9131
साफ	-10.9138
▁संवैधानिक	-10.9138
▁सशस्त्र	-10.9138
▁घायल	-10.9138
▁प्रदर्शक	-10.9138
▁गेट	-10.9139
▁रिहा	-10.9146
▁मिश्रित	-10.9149
▁दमन	-10.9151
▁ख़राब	-10.9157
▁घोड़े	-10.916
▁सुनो	-10.9161
▁चार्ट	-10.9161
▁विद्वत	-10.9165
पूर्ति	-10.9166
▁दुर्ग	-10.9167
▁दिखला	-10.9168
लैण्ड	-10.9176
▁नाहक़	-10.9176
रोजगार	-10.9177
▁अनुभाग	-10.9179
▁इंद्र	-10.9182
▁अमीर	-10.9184
▁प्रदाता	-10.9186
▁गाँधी	-10.9189
कर्ष	-10.9191
▁आभार	-10.9195
क्रे	-10.9196
▁2018	-10.9197
▁सार्थक	-10.9207
▁संकाय	-10.9207
item	-10.9207
▁लपेट	-10.9211
▁जज़ा	-10.9213
▁१२	-10.9215
▁साकार	-10.922
▁छिपाते	-10.9221
▁सुझा	-10.9221
आइ	-10.9233
▁प्रक्रम	-10.9237
▁मज़े	-10.9237
▁आज्ञाकारी	-10.924
gnome	-10.9241
color	-10.9241
▁निभाई	-10.9249
ग्रहण	-10.925
सेवा	-10.9258
▁सद्भाव	-10.9258
▁बंदरगाह	-10.9258
▁po	-10.9258
▁टै	-10.9268
▁खैर	-10.9288
▁नियोजन	-10.929
32	-10.929
▁इलाहाबाद	-10.9293
▁चूक	-10.9293
▁परहेज़गारी	-10.9296
फ्रे	-10.9297
per	-10.93
▁जाएँगें	-10.9302
▁सचिवालय	-10.9311
▁स्वीकार्य	-10.9313
▁समायोजन	-10.9314
सामग्री	-10.9316
▁आवश्य	-10.9319
▁पका	-10.9321
▁खुर	-10.9321
श्वर	-10.9323
▁मौज़ूद	-10.9327
▁सार्वभौम	-10.9327
▁कृषक	-10.9327
▁फिल्टर	-10.9327
▁पाँव	-10.9327
▁निराशा	-10.9335
▁विशेषाधिकार	-10.934
▁बनायी	-10.9342
▁नुक़सान	-10.9345
▁धारित	-10.9346
▁राजाओं	-10.9348
▁यात्री	-10.9351
▁अवतार	-10.9354
शक्त	-10.9354
नुसार	-10.9357
▁इंजन	-10.9359
▁मुद्रित	-10.9362
डऋ	-10.9363
▁लाई	-10.9365
▁लाभांश	-10.9366
ांकित	-10.9368
▁उपहार	-10.937
भु	-10.9372
▁फॉ	-10.9374
ja	-10.9375
▁कॉन्फ़िगर	-10.9378
#	-10.9379
ख्तियार	-10.9379
▁कतरा	-10.9381
▁(5)	-10.9384
▁पैरा	-10.9392
▁मजदूरी	-10.9393
उनसे	-10.9393
बेट	-10.9395
▁ऊँची	-10.9397
▁स्तम्भ	-10.9397
▁विलय	-10.9398
च्छा	-10.9404
आर्थिक	-10.9404
▁शस्त्र	-10.9406
▁फिलीस्तीनी	-10.9407
रक्त	-10.9411
▁आगमन	-10.9413
▁महानिदेशक	-10.9414
▁श्रद्धांजलि	-10.9414
▁हस्तांतरण	-10.9414
बर्ट	-10.9414
▁उत्सुक	-10.9414
▁अवशेष	-10.9417
▁आभूषण	-10.9422
संस्कृत	-10.9422
▁दूरसंचार	-10.9432
याक़ूब	-10.9432
▁नियंत्रक	-10.9432
▁दरख्त	-10.9432
▁शरारत	-10.9432
▁यौन	-10.9433
▁चरम	-10.9433
▁मोहल	-10.9446
▁विक्रेता	-10.945
वृति	-10.9451
▁आजकल	-10.9452
▁समीकरण	-10.9455
▁कारगर	-10.9455
व्यवस्था	-10.9456
▁रियायत	-10.9467
▁मोटा	-10.9471
NT	-10.9473
▁पुस्	-10.9476
नायक	-10.9488
▁संव्यवहार	-10.9489
▁2009	-10.9489
▁अवगत	-10.9489
स्वामी	-10.9493
▁150	-10.9493
▁कैश	-10.9498
▁पूर्वोत्तर	-10.9509
▁मंजूर	-10.9519
▁अहिंसा	-10.952
▁आज़माइश	-10.952
▁असंभव	-10.9521
▁संरक्षित	-10.9523
केंद्र	-10.9524
▁ऑटो	-10.9525
▁स्क्रिप्ट	-10.9529
▁टेक्न	-10.954
▁आनुवंशिक	-10.9555
▁भूटान	-10.9556
वैज्ञानिक	-10.9564
▁शास्त्री	-10.9565
विशेष	-10.9572
▁नींव	-10.9573
▁हाई	-10.9584
▁संचय	-10.9594
चाहे	-10.9606
▁स्थूल	-10.9609
▁चिंतन	-10.9609
ाइयों	-10.9609
▁बहका	-10.9621
पहले	-10.9622
्नी	-10.9633
रसूल	-10.964
▁श्रीलंका	-10.9644
▁कच्चे	-10.9645
▁वयस्क	-10.9645
▁मंजिल	-10.9645
▁रत्न	-10.9649
▁उपभोग	-10.9651
▁ट्रै	-10.9651
भारतीय	-10.9654
▁भड़कती	-10.9662
▁कार्यपालिका	-10.9662
▁चक्कर	-10.9662
▁नतीजा	-10.9663
बड़े	-10.9673
▁translate	-10.968
▁आश्वासन	-10.968
▁क्षैतिज	-10.968
युक़्त	-10.9688
▁सेनाओं	-10.9689
▁तालिका	-10.9692
मुद्र	-10.9694
▁मनोरंजन	-10.9698
▁वर्षगांठ	-10.9698
▁ढील	-10.9699
▁छेद	-10.9699
▁अमानत	-10.97
end	-10.9707
▁झुठलाओगे	-10.9716
▁धमकी	-10.9716
▁एकजुट	-10.9717
▁बरसाया	-10.9718
▁क़ब्ल	-10.9719
रेखा	-10.9721
▁बाबा	-10.9725
▁सन्देश	-10.9725
▁अज्र	-10.9728
▁दादाओं	-10.9728
▁समस्याएं	-10.9732
▁डाटाबेस	-10.9734
▁पाबन्दी	-10.9734
▁मीम	-10.9736
▁स्टार्ट	-10.9739
▁गोवा	-10.9742
▁निर्माता	-10.9744
&	-10.9744
▁आचार्य	-10.9753
▁रोज़ा	-10.976
▁कमीशन	-10.9762
▁सुलेमान	-10.9771
▁नमूने	-10.9771
▁चिपका	-10.9771
▁चेहरा	-10.9772
▁प्रवाहित	-10.9783
संबंध	-10.9784
तरह	-10.9784
▁तदनुसार	-10.9789
▁दीर्घकालिक	-10.979
▁आँकड़ा	-10.979
▁संग्राम	-10.9795
▁बाएं	-10.9795
▁सुदूर	-10.9797
▁गार्ड	-10.98
▁स्वाद	-10.9804
▁आधी	-10.9805
▁गर्भाशय	-10.9808
डोर	-10.9808
▁अप्रत्याशित	-10.9825
▁बतौर	-10.9825
▁तुम्ही	-10.9825
▁अशोक	-10.9825
▁अनुकरण	-10.9826
ran	-10.9831
▁बेहद	-10.9832
▁रोड	-10.9842
▁यकीन	-10.9844
▁अपराधियों	-10.9848
▁संग्रहण	-10.9848
▁1947	-10.9853
▁आवृत्ति	-10.9855
द्योग	-10.9862
▁थोप	-10.9863
▁झाड़	-10.9864
▁पृ	-10.9864
▁गोपनीय	-10.9869
▁मुख्यालय	-10.987
हाक़	-10.9873
▁उपनिवेश	-10.988
▁उपर्युक्त	-10.988
▁नजदीक	-10.988
▁ठाकुर	-10.988
▁सूझ	-10.9888
▁छः	-10.9889
▁टकरा	-10.9889
▁वाक़िफ़	-10.9889
▁धूल	-10.9893
▁सत्याग्रह	-10.9898
▁स्कैन	-10.9899
▁सीआरए	-10.9899
▁गोपन	-10.99
▁शोषण	-10.99
▁बेचने	-10.9903
आपको	-10.9909
शासित	-10.991
83	-10.9911
▁परिसंपत्ति	-10.9917
▁दरवाजे	-10.9917
▁महामारी	-10.9917
▁सिंहासन	-10.9917
▁घमंड	-10.9917
▁पहना	-10.9919
▁माध्य	-10.992
▁पद्म	-10.992
▁बगल	-10.9932
डियो	-10.9933
▁इच्छुक	-10.9935
▁वग़ैरह	-10.9935
▁नाशुक्र	-10.9935
▁हल्का	-10.9935
▁स्नेह	-10.9937
▁सूचक	-10.9937
▁पागल	-10.995
▁अपमान	-10.9951
▁युवक	-10.9954
▁जाननेवाला	-10.9965
पोषण	-10.9971
▁पड़ोसी	-10.9972
▁निवेदित	-10.9972
▁करूँगा	-10.9973
▁कराए	-10.9976
ph	-10.9978
▁वर्क	-10.9982
योजना	-10.9989
▁एख्तेयार	-10.9991
▁सुलझा	-10.9991
यहूद	-10.9991
▁वास्तुकला	-10.9991
▁तख्त	-10.9993
▁पटेल	-10.9993
▁प्राय	-10.9996
▁पूर्णतया	-10.9998
▁नीतिगत	-10.9998
▁प्रतिवर्ष	-11
भुज	-11.0005
▁अद्वितीय	-11.0009
▁उत्सर्जन	-11.0009
▁उत्तराधिकारी	-11.0009
लौह	-11.0009
▁सुनवाई	-11.0013
▁कुफ्फार	-11.0013
▁पक्षियों	-11.0017
▁टेनिस	-11.0028
▁लड़ने	-11.0032
▁हालात	-11.0042
▁स्थिरता	-11.0045
▁मिथ्या	-11.0046
▁रियासत	-11.0046
▁अपितु	-11.0046
▁प्रभुत्व	-11.0048
▁जीवंत	-11.0054
▁जगा	-11.0056
▁विपक्ष	-11.0058
▁सिखाया	-11.0062
▁सुचरिता	-11.0065
▁नवीनतम	-11.0068
▁कपड़ा	-11.0071
▁चह	-11.0082
▁मुहैया	-11.0084
▁सटीक	-11.0085
▁जाहिर	-11.0085
▁हारून	-11.0086
▁ट्रेन	-11.0089
ियस	-11.0091
एसएस	-11.0092
निर्णय	-11.0097
▁चांद	-11.0102
▁आधिकारिक	-11.0102
▁मेन्यू	-11.0103
IS	-11.0104
▁फ़िर	-11.0119
▁मॉड्यूल	-11.0121
एक्स	-11.0125
▁चित्रित	-11.0125
▁ऋतु	-11.0126
ाइज़	-11.0129
▁जैविक	-11.013
▁नानक	-11.013
▁फैक्ट	-11.0132
▁आकस्मिक	-11.014
▁कामकाज	-11.0152
▁महफूज़	-11.0159
llation	-11.016
▁भेदभाव	-11.0161
▁नेताजी	-11.0174
प्रदेश	-11.0175
ड्यू	-11.0176
▁विनिधान	-11.0178
▁दायर	-11.018
रेटर	-11.0182
▁संक्षेप	-11.0187
▁अनाथ	-11.019
▁बातिल	-11.0192
कूल	-11.0195
▁सेवानिवृत्त	-11.0198
तुष्ट	-11.02
▁परिषद्	-11.0206
▁तै	-11.0211
▁जरुरत	-11.0216
▁प्रचुर	-11.0216
▁मुफ्त	-11.0216
▁मंत्रियों	-11.0219
▁महान्	-11.0226
▁पर्यावरणीय	-11.0232
▁स्टॉक	-11.0234
▁रोचक	-11.0239
घाट	-11.0247
▁दुर्गा	-11.0251
▁निरन्तर	-11.0254
पीडीएफ	-11.0254
▁डिबग	-11.0255
▁बीवी	-11.0261
▁शिर्क	-11.0263
▁ईस्ट	-11.0264
▁पतन	-11.0264
▁प्रतिबद्ध	-11.0268
▁सूचीबद्ध	-11.0272
▁प्रकोप	-11.0273
▁राजदूत	-11.0273
श्रु	-11.0283
▁लायक	-11.0284
▁जनजाति	-11.0291
▁तरीक़े	-11.0292
▁परिदृश्य	-11.0292
▁टॉगल	-11.0293
▁मैत्री	-11.0294
▁आशंका	-11.0294
स्तान	-11.0298
▁खासकर	-11.0299
इयाँ	-11.0299
▁ख़बरदार	-11.0305
लॉक	-11.0307
▁पावर	-11.0308
▁प्रेषक	-11.0311
▁श्लोक	-11.0311
▁आवेदक	-11.0311
▁दर्शाया	-11.0314
▁ज़िम्मेदारी	-11.0316
सीआई	-11.0319
बैक	-11.034
शुल्क	-11.0346
यात्रा	-11.0347
▁आबाद	-11.0348
▁दाऊद	-11.0349
▁चित्रकला	-11.0352
▁प्रभा	-11.0359
मध्य	-11.0361
▁भ्रष्टाचार	-11.0368
▁साक्षात्कार	-11.0368
▁पूजते	-11.0368
▁कनाडा	-11.0368
▁घू	-11.0371
▁पटल	-11.0373
▁बर्तन	-11.0373
▁किराए	-11.0378
▁सामुदायिक	-11.0388
▁साक्षरता	-11.0388
▁महि	-11.039
यन्त्र	-11.039
▁टेक	-11.0393
साधक	-11.0398
▁एण्ड	-11.0399
79	-11.0399
▁क्रमांक	-11.0406
▁URL	-11.0407
▁अप्रत्यक्ष	-11.0407
▁त्योहार	-11.0407
▁न्यायपालिका	-11.0407
दोनों	-11.0411
▁खनन	-11.0414
▁जिन्न	-11.0425
▁इलेक्ट्र	-11.0426
▁तदबीर	-11.0426
▁बदौलत	-11.0426
▁आश्रम	-11.0426
od	-11.0428
▁उन्मूलन	-11.0446
▁दोपहर	-11.0446
▁व्यंजन	-11.0446
▁महाद्वीप	-11.0447
▁कैप	-11.0451
▁आघात	-11.0452
▁बारीक	-11.0459
▁सेवक	-11.046
▁रूपांतरण	-11.0465
▁रोशनी	-11.0465
▁उपयोगिता	-11.0476
▁छप	-11.0477
बेहिश्त	-11.0482
▁सर्वप्रथम	-11.0485
▁बेटियाँ	-11.0485
▁लड़कियों	-11.0485
डीपी	-11.0487
▁समेट	-11.049
▁मुहर	-11.0491
▁जिंदगी	-11.0504
▁मधुमेह	-11.0504
▁इसलिये	-11.0504
पाठ	-11.0507
▁कॉम	-11.051
▁लखनऊ	-11.0524
▁हरियाणा	-11.0524
▁गतिविधियां	-11.0527
▁सूअर	-11.0528
▁पाएंगे	-11.0533
▁झेल	-11.0537
▁तौल	-11.0539
मणि	-11.0539
फरिश्तों	-11.0543
▁आन्दोलन	-11.0543
▁सम्भावना	-11.0543
▁सूचकांक	-11.0546
▁चलाएँ	-11.0548
▁प्रतिनिधियों	-11.0552
▁बुर्ज	-11.0552
ER	-11.0558
▁क़्योंकि	-11.0563
▁बच्चन	-11.0563
▁फ़साद	-11.0563
▁आगामी	-11.0566
▁समेकित	-11.0582
▁श्रेय	-11.0583
▁मैत्रीपूर्ण	-11.0585
▁चर्च	-11.0586
▁मग़फ	-11.0589
▁झुठलाते	-11.0589
▁नींद	-11.0589
▁जाएँगी	-11.0589
▁नोटिस	-11.059
▁झिल्ली	-11.0602
▁पांव	-11.0603
▁इंजीनियर	-11.0603
▁इस्लामवादी	-11.0611
ive	-11.0612
▁निर्वाह	-11.0613
▁इधर	-11.0618
▁स्वायत्त	-11.0622
▁प्रेषण	-11.0622
▁रसीद	-11.0623
▁नरेन्द्र	-11.0624
▁शू	-11.0635
▁करेगें	-11.0638
▁क्षय	-11.0645
▁मतदाता	-11.0645
▁हँस	-11.0649
▁छुपाएँ	-11.0657
▁आइए	-11.0657
▁ट्रस्ट	-11.0662
व्यवहार	-11.0676
▁ग्यारह	-11.0681
▁पारदर्शिता	-11.0681
▁डेटाबेस	-11.0681
▁मेजबान	-11.0681
▁तुर्क	-11.0692
▁रूचि	-11.0697
▁पट्टे	-11.0699
▁संस्थागत	-11.0699
▁क्लिपबोर्ड	-11.0701
▁स्थानांतरित	-11.0701
▁मामूली	-11.0701
▁प्राणियों	-11.0702
▁रुसवा	-11.0705
▁ख़रीद	-11.0706
▁डै	-11.0707
▁स्टाफ	-11.0713
विवाद	-11.0716
▁ऑपरेशन	-11.0721
▁मुख्यमंत्री	-11.0721
▁गरिमा	-11.0721
▁मत्स्य	-11.0721
वेयर	-11.0724
▁प्रजातियों	-11.0726
▁कार्यकाल	-11.0728
▁आतंक	-11.0735
▁वांछित	-11.0741
▁मूर्ख	-11.0741
▁शोभा	-11.0743
▁कल्	-11.0749
▁घाव	-11.0752
▁सिटी	-11.0754
विभाग	-11.0756
▁सांप्रदायिक	-11.0761
▁कब्जा	-11.0761
▁तलाक़	-11.0761
▁कमेटी	-11.0762
▁विवश	-11.0762
▁प्रौद्योगिकियों	-11.0766
▁गिल	-11.0767
▁जर्मन	-11.0767
▁ऊँचा	-11.0775
▁तरंग	-11.0779
▁ज़्यादती	-11.0781
▁१६	-11.0783
▁आपत्ति	-11.0793
▁सादा	-11.0797
बल्कि	-11.0801
▁सजद	-11.081
▁रूट	-11.0811
▁In	-11.0812
बाबू	-11.0818
▁मुद्रण	-11.0821
▁बिगड़	-11.0823
▁मरयम	-11.0825
▁खपत	-11.0835
▁चंद	-11.0839
▁वक्र	-11.0839
▁दशमलव	-11.0841
▁ध्रुव	-11.0841
▁स्त्रोत	-11.0841
▁स्वदेशी	-11.0842
▁किराया	-11.0845
▁अभिव्यक्त	-11.0845
▁वाज़े	-11.0847
प्रिय	-11.0847
युग	-11.0853
शियन	-11.0853
▁पाएँगे	-11.0854
▁रेगिस्तान	-11.0862
▁फरमाबरदार	-11.0862
▁जमाअत	-11.0862
▁यात्रियों	-11.0862
▁स्टाक	-11.0862
▁टाइम्स	-11.0866
▁अपशिष्ट	-11.0882
▁विटामिन	-11.0882
▁यहूदियों	-11.0882
▁समाजवादी	-11.0883
५०	-11.089
ल्लाह	-11.0891
title	-11.0902
▁ध्येय	-11.0902
▁कार्यनीति	-11.0902
मोहम्मद	-11.0903
चिह्न	-11.0903
▁परिपत्र	-11.0903
▁बिस्तर	-11.0906
▁मोहताज	-11.0925
आईएस	-11.0926
▁प्रतिस्पर्धा	-11.0928
▁हड्डी	-11.0943
▁अभिनय	-11.0943
▁छपाई	-11.0947
सम्मत	-11.0955
▁अब्दुल	-11.0963
▁जनजातीय	-11.0963
▁स्वैच्छिक	-11.0963
▁खुल्ला	-11.0963
▁पुणे	-11.0963
▁मंत्रि	-11.0965
▁टूल	-11.0973
▁स्पेन	-11.0977
▁पोर्टल	-11.0983
▁अँधेर	-11.0984
▁संचिका	-11.0984
▁सजावट	-11.0985
▁टेली	-11.099
▁सिंधु	-11.0991
▁गैल	-11.0991
▁1992	-11.0992
▁वसूल	-11.0995
▁नियोक्ता	-11.1004
▁अवज्ञाकारी	-11.1007
▁अकड़	-11.101
▁अनुमानित	-11.1011
▁यज्ञ	-11.102
▁हार्डवेयर	-11.1025
▁ब्यूरो	-11.1025
▁एजेंट	-11.1026
▁पेटेंट	-11.1027
▁पैदावार	-11.1035
▁पीछल	-11.1037
▁अंदाज	-11.1041
▁घृणा	-11.1045
▁आंकड़ों	-11.1045
▁यूनियन	-11.1045
▁पैरामीटर	-11.1045
▁उद्भूत	-11.1048
पूज्य	-11.1048
पीएस	-11.1056
▁विकिरण	-11.1066
▁ज़लील	-11.1066
▁धीमी	-11.1066
▁ग्रिड	-11.1068
▁नीच	-11.1069
2012	-11.1076
▁लोहे	-11.1079
▁काउंसिल	-11.1087
▁स्टार	-11.1088
स्तरीय	-11.1093
▁हॉल	-11.1094
▁बंग	-11.1101
▁कैमरा	-11.1107
▁वर्तनी	-11.1108
▁बताओ	-11.1109
▁स्नान	-11.1111
प्रकाश	-11.1118
▁टांग	-11.1128
▁निश्	-11.113
▁प्रगतिशील	-11.1131
▁कंपनियां	-11.1149
▁सिक्किम	-11.1149
▁इन्होंने	-11.115
वर्ण	-11.1155
▁बंट	-11.1164
▁उन्नति	-11.1165
▁अभिन्न	-11.1168
▁झलक	-11.1169
▁कठिनाइयों	-11.1171
▁कुशाद	-11.1173
भंग	-11.1174
▁गुच्छ	-11.1176
▁उपभोक्ताओं	-11.1177
▁हरेक	-11.1179
▁गम्भीर	-11.119
▁किलोग्राम	-11.119
▁किनारों	-11.1192
use	-11.1193
तन्त्र	-11.1193
▁हास्य	-11.12
ानन्द	-11.1205
▁प्रख्यात	-11.1211
▁उत्पत्ति	-11.1213
▁छिद्र	-11.1214
▁मास्टर्स	-11.1215
▁रूए	-11.1229
▁ऑस्ट्रेलिया	-11.1232
▁निर्वाचित	-11.1232
▁अवलोकन	-11.1232
▁विख्यात	-11.1232
ङ्ग	-11.1233
्तु	-11.1234
प्रभाव	-11.1235
▁तीर	-11.1239
▁फिलीस्तीन	-11.1241
▁रात्रि	-11.1242
out	-11.1242
▁पायी	-11.1245
▁टाइम	-11.1249
सरकारी	-11.1249
▁इंकार	-11.125
▁टेप	-11.1251
▁अधिकाधिक	-11.1253
▁निंदा	-11.1266
▁११	-11.127
▁आहरण	-11.1275
▁निदान	-11.1276
▁दायरे	-11.128
▁मानचित्र	-11.1282
भद्र	-11.1287
▁फंस	-11.1291
▁फसाद	-11.1296
▁कार्यशाला	-11.1296
▁मसीह	-11.1299
▁बनावट	-11.13
एसआई	-11.1301
ानंद	-11.1304
▁रखेगा	-11.1307
▁प्रीत	-11.1312
▁अन्वेषण	-11.1317
▁ऊँचे	-11.1317
▁राज़्य	-11.1317
▁निष्पक्ष	-11.1317
▁अग्रसर	-11.1323
▁प्रसव	-11.1335
▁विनम्र	-11.1338
▁हिन्दुओं	-11.1338
▁प्रगाढ़	-11.1338
▁अपीलार्थी	-11.1338
▁ताज़ा	-11.1339
▁निधियों	-11.134
▁विशेषताओं	-11.1341
▁कोरोना	-11.1341
▁1948	-11.1349
▁परिपूर्ण	-11.1356
▁but	-11.1359
▁वियतनाम	-11.1359
▁सोसायटी	-11.1359
सीआर	-11.1363
एसटी	-11.1368
▁सतर्कता	-11.1375
▁इंतजार	-11.138
▁बशर्ते	-11.138
▁योनि	-11.1381
ध्द	-11.1383
लिट	-11.1384
भेद	-11.1387
▁पीड़क	-11.139
▁सालेह	-11.139
▁निर्णायक	-11.1402
▁विशुद्ध	-11.1402
▁पत्तन	-11.1408
▁प्रतिभूतियों	-11.141
▁अंगूर	-11.1413
▁लक्ष्मी	-11.1423
▁स्मार्ट	-11.1423
▁विधानसभा	-11.1425
▁खौलत	-11.1429
▁अश्व	-11.1429
▁समझदार	-11.1435
अभि	-11.1439
▁सबूत	-11.144
▁सांप	-11.1441
▁विलियम	-11.1447
▁पत्ते	-11.1455
▁मेनू	-11.1459
▁चिल्ला	-11.146
▁फैसले	-11.1466
▁हरकत	-11.1467
▁ID	-11.1472
AN	-11.1475
▁अनुस्मृति	-11.1487
▁पुर्तगाल	-11.1487
▁तृतीय	-11.1487
▁फिटकार	-11.1487
▁दुग्ध	-11.1489
छोटे	-11.1493
▁वाक़िफकार	-11.1501
▁किरायेदार	-11.1509
▁खिसकाएँ	-11.1509
▁वगैरह	-11.1509
▁ओबामा	-11.1509
▁ब्लॉक	-11.1509
▁HTML	-11.1531
▁दरवाज़े	-11.1531
▁श्रेणियों	-11.1531
▁संतुलित	-11.1531
▁कॉन्	-11.1534
आरआई	-11.1548
▁सांसद	-11.155
▁विधियों	-11.1552
▁हिंदुओं	-11.1552
▁पत्नियों	-11.1552
▁यांत्रिक	-11.1552
▁अन्तर्राष्ट्रीय	-11.1553
▁तिरु	-11.1555
ायण	-11.1556
शब्द	-11.1558
▁दिवा	-11.1562
▁प्रतिवेदन	-11.1574
जहां	-11.1581
▁उत्प	-11.1584
action	-11.1596
▁पृथक्	-11.1597
कर्त्ता	-11.1599
2017	-11.1606
ावरण	-11.1606
क्चर	-11.1612
▁संयोग	-11.1616
▁संकीर्ण	-11.1617
▁मौखिक	-11.1617
▁लेनदेन	-11.1619
▁स्वतन्त्र	-11.1619
▁कट्टर	-11.1619
▁व्याकरण	-11.1624
▁अनुबंध	-11.1624
▁झगड़ते	-11.1626
▁महिमा	-11.1632
▁लीजिए	-11.1639
▁एनपीएस	-11.1641
▁गेंदबाज	-11.1641
▁पारदर्शी	-11.1642
▁अनुक्रिया	-11.1645
व्यक्ति	-11.165
रिवाज	-11.1661
▁पारिश्रमिक	-11.1661
▁प्रतिबिंब	-11.1661
mail	-11.1662
▁राजवंश	-11.1665
सख्त	-11.1669
98	-11.1669
▁राष्ट्रवाद	-11.1672
सिद्ध	-11.1675
▁अद्भुत	-11.1683
▁पंद्रह	-11.1683
▁पारिस्थितिक	-11.1683
▁विलोपित	-11.1683
▁निविदा	-11.1683
▁अटकल	-11.1684
▁अभिनेता	-11.1692
▁तैर	-11.1693
▁बारिश	-11.1697
खोलकर	-11.1704
▁प्रोफ़ाइल	-11.1705
▁संस्थापक	-11.1713
▁बिखर	-11.1714
▁मूल्यवान	-11.1724
▁देखिए	-11.1725
▁टेस्ट	-11.1726
▁बग़ैर	-11.1727
▁अर्जुन	-11.1727
▁लाहौर	-11.1727
▁पूरक	-11.1729
कुफ्फ़ार	-11.1735
पृष्ठ	-11.1735
थ्र	-11.1739
▁बिल्ड	-11.174
▁निवासियों	-11.1741
▁अनुज्ञा	-11.1742
▁निषेध	-11.1749
▁सांख्यिकी	-11.1749
▁कदाचित	-11.1749
▁पोषक	-11.175
▁सहभागिता	-11.1771
▁दुशमन	-11.1771
▁महाकाव्य	-11.1771
▁आशुतोष	-11.1793
▁गेहूं	-11.1793
▁हिम्मत	-11.1793
▁पाएगा	-11.1799
91	-11.1801
▁छुड़ा	-11.1801
▁1950	-11.1812
▁अनिश्चित	-11.1816
▁दरगुज़र	-11.1816
▁मौजिज़ा	-11.1816
▁कोविड	-11.1819
▁परंपराओं	-11.1823
▁अहं	-11.183
▁अप्रिय	-11.1832
▁आबंटित	-11.1838
▁निश्चिन्त	-11.1838
▁निरपेक्ष	-11.1839
▁ग्रुप	-11.1839
▁जनजातियों	-11.1842
▁बिलियन	-11.1843
सुविधा	-11.1847
▁भट्ट	-11.1848
▁नातेदार	-11.1849
▁मौके	-11.1858
▁उधर	-11.1858
वुड	-11.1866
चक्र	-11.1873
▁अभियुक्त	-11.1876
▁फंड	-11.1878
▁शुष्क	-11.1883
97	-11.1886
▁असत्य	-11.1891
ोलॉजी	-11.1894
▁मिश्र	-11.1896
87	-11.1901
▁१७	-11.1908
▁1000	-11.1912
▁टीवी	-11.1926
▁इज्ज़त	-11.1928
▁रविशंकर	-11.1928
▁रिमोट	-11.1928
▁पूछताछ	-11.1928
▁इल्ज़ाम	-11.195
▁जगन्नाथ	-11.195
▁निष्पादित	-11.195
▁मुद्दा	-11.195
▁विश्राम	-11.1952
▁स्थाई	-11.1952
▁विमानक्षेत्र	-11.1952
▁अर्द्ध	-11.1955
▁बीमारियों	-11.1956
▁क्रियान्वयन	-11.1973
▁जाएंगी	-11.1986
ख़ास	-11.1988
▁आविष्कार	-11.1995
▁सर्प	-11.2008
▁गरम	-11.2015
▁ब्रैसेरो	-11.2018
▁स्लाइड	-11.2018
▁वापिस	-11.2018
▁प्रदाह	-11.2018
▁विधवा	-11.2018
▁कहलाता	-11.2019
▁धुंध	-11.2022
▁संस्थापन	-11.2032
Generic	-11.2041
▁भयानक	-11.2041
▁समीप	-11.2042
बॉक्स	-11.2051
▁एक्ट	-11.2057
▁अपमानित	-11.2057
▁ग्रीन	-11.2061
▁भागवत	-11.2062
▁निस्बत	-11.2063
▁फ़ज़ल	-11.2064
▁तिब्बत	-11.2064
ard	-11.2083
▁रोकथाम	-11.2086
▁वर्गीकृत	-11.2093
निर्धारण	-11.2098
▁विशेषताएं	-11.2102
▁राज्यक्षेत्र	-11.2107
व्यू	-11.2108
▁समकक्ष	-11.2109
▁कारीगर	-11.211
▁श्रीवास्तव	-11.2112
▁नीतियां	-11.2113
▁व्याप्त	-11.2114
▁आरेख	-11.2118
▁अल्पसंख्यक	-11.2132
▁आबंटन	-11.2132
▁फारसी	-11.2132
▁1998	-11.2138
▁फ़रमाया	-11.2144
raviratlami	-11.2155
▁मुनाफ़िक	-11.2155
▁संप्रदाय	-11.2155
▁अस्वीकृत	-11.2155
बोहतान	-11.2155
▁बंगला	-11.2165
▁लूट	-11.2168
इंस्ट	-11.217
▁आश्रय	-11.2178
प्रधान	-11.2187
▁बेख़बर	-11.2192
क्लि	-11.2192
▁अपलोड	-11.2201
▁अब्बा	-11.2203
▁टेढ़	-11.2205
▁कारावास	-11.2207
▁जगत्	-11.221
▁गणेश	-11.2219
▁सजीव	-11.2222
▁मर्यादा	-11.2224
▁तत्पर	-11.2224
▁हल्के	-11.2224
▁भ्रमण	-11.2236
▁मल्टी	-11.2248
▁चालीस	-11.2249
▁भूभाग	-11.2252
▁स्केल	-11.2263
▁स्वेच्छा	-11.2271
एससी	-11.2277
▁तसदीक़	-11.2294
▁हुज़ूर	-11.2294
▁प्रौढ़	-11.2294
▁धरोहर	-11.2294
▁हिमनद	-11.2294
▁लेखापरीक्षा	-11.2295
पुत्र	-11.2301
est	-11.2305
▁विकिपीडिया	-11.2317
▁गिरावट	-11.2318
▁सनातन	-11.2318
▁संस्कार	-11.2319
▁छीन	-11.233
▁विचित्र	-11.2339
label	-11.2341
▁शृंखला	-11.2341
▁सहारे	-11.2341
रक्षित	-11.236
▁फीड	-11.236
▁वार्तालाप	-11.2364
▁हुकुम	-11.2364
▁सहभागी	-11.2364
▁पूर्वोक्त	-11.2365
कंठ	-11.237
▁निर्माताओं	-11.2376
ग्ध	-11.2385
▁अनजान	-11.2385
▁बलिदान	-11.2388
▁दौलत	-11.2388
▁क्षतिपूर्ति	-11.2388
▁मजिस्ट्रेट	-11.2411
▁जेहाद	-11.2412
▁मुहताज	-11.2412
▁राजकीय	-11.2412
able	-11.2413
▁छंद	-11.2417
चर्या	-11.2419
▁मरीज	-11.2434
▁ग्लोबल	-11.2435
▁पैटर्न	-11.2435
▁शाश्वत	-11.2435
▁कब्र	-11.2437
▁लाभदायक	-11.2439
▁पुनर्वास	-11.2444
▁स्वराज	-11.245
कुमार	-11.2455
▁पोशीदा	-11.2459
▁कॉन्फ़िगरेशन	-11.246
▁बाँट	-11.2465
▁जुदा	-11.2466
साध्य	-11.2481
स्पेस	-11.2482
▁घातक	-11.2485
▁छेड़	-11.2488
▁नारियल	-11.2489
▁ट्रि	-11.249
▁ग़ुलाम	-11.2506
▁मक़सूद	-11.2506
▁हानिकारक	-11.2506
▁हल्की	-11.2506
▁अभिवृद्धि	-11.2508
▁फरमाएगा	-11.2508
▁बकाया	-11.2508
▁असंगत	-11.2516
▁भ्रूण	-11.253
▁सल्तनत	-11.253
▁तुरन्त	-11.253
▁तारीफ	-11.2534
▁मुकाबला	-11.2554
▁तमन्ना	-11.2554
▁सहनशील	-11.2556
हिजरत	-11.2557
▁कमाया	-11.2565
कुदरत	-11.2572
▁आंबेडकर	-11.2578
▁श्वसन	-11.2578
▁तैनात	-11.258
▁मास्टर	-11.2584
▁दिखायी	-11.2588
▁स्वार्थ	-11.2593
▁शेयरधारक	-11.2603
▁लॉगिन	-11.2607
▁URI	-11.2626
▁एक्सटेंशन	-11.2626
▁गुलाब	-11.2629
▁यूसुफ़	-11.2635
▁ज़िम्मेदार	-11.2649
▁अग्रेषित	-11.265
▁ऊंट	-11.2658
[	-11.2667
▁बदरूद्दीन	-11.2675
▁अनुयायी	-11.2675
▁विधायिका	-11.2699
API	-11.2699
▁संचरण	-11.2699
▁org	-11.2699
▁भयंकर	-11.2699
▁अधिग्रहण	-11.2701
▁रहोगे	-11.2722
▁सरस्वती	-11.2723
अंतर	-11.2724
▁१३	-11.2725
▁सौहार्द	-11.2748
▁आत्मविश्वास	-11.2749
▁समायोजित	-11.2749
▁१४	-11.275
▁1991	-11.2754
OR	-11.2763
▁अपर्याप्त	-11.2772
▁पूँजी	-11.2772
▁महर्षि	-11.2772
▁कश्ती	-11.2772
▁कहानियाँ	-11.2773
▁तूफान	-11.2773
▁विधानमंडल	-11.2776
2018	-11.2795
▁उदासीन	-11.2797
▁पारिवारिक	-11.2797
▁तेलुगु	-11.2797
स्फीति	-11.2797
▁सिनेमा	-11.2797
▁उतने	-11.2798
▁हुर्इ	-11.28
▁पिघल	-11.2802
▁क्लो	-11.2807
▁डराओ	-11.2809
्रेट	-11.2811
पर्ण	-11.2816
बोर्ड	-11.2819
▁मार्गदर्शक	-11.2821
▁सदृश	-11.2821
▁मुद्दत	-11.2822
▁छात्रवृत्ति	-11.2823
▁व्यक़्ति	-11.2823
▁रूसवा	-11.2829
▁बुद्धिमान	-11.2841
▁whatsthis	-11.2846
▁जबरदस्त	-11.2846
▁आश्चर्यजनक	-11.2848
▁संबध	-11.2849
▁यूआरएल	-11.287
▁शहीद	-11.2871
▁दुर्बल	-11.2873
एसएल	-11.2874
व्यस्त	-11.2885
▁टुकड	-11.2888
▁साम्राज्यवाद	-11.2889
▁कृतज्ञ	-11.2893
▁तात्कालिक	-11.2895
▁जॉर्ज	-11.2895
▁सोवियत	-11.2895
▁खगोल	-11.2895
▁आज़मा	-11.2895
▁सूखे	-11.2904
बुतों	-11.2908
तुम्हारी	-11.2914
दिवस	-11.2914
▁अनुष्ठान	-11.292
▁पिक्सेल	-11.292
मुनासिब	-11.292
▁आपराधिक	-11.292
▁चिड़िया	-11.2929
▁सापेक्ष	-11.293
▁अनुस्मारक	-11.2945
▁एमएसएमई	-11.2945
▁नियोजक	-11.2945
▁मसौदा	-11.2945
▁स्थगित	-11.2945
▁बहुमूल्य	-11.2948
▁लाभप्रद	-11.295
▁अभियोग	-11.2958
gra	-11.296
▁संज्ञा	-11.2962
▁टैक्स	-11.2969
▁राजनयिक	-11.297
▁समन्वित	-11.297
▁यतीम	-11.297
▁पर्दा	-11.297
▁प्रत्यर्थी	-11.2995
▁क्षतिग्रस्त	-11.2996
▁बुलन्द	-11.2998
▁शब्दावली	-11.2999
▁मूर्तियों	-11.3008
▁पुनर्गठन	-11.302
▁दुबारा	-11.302
▁हकीम	-11.302
हिन्दी	-11.304
गुनाह	-11.3041
▁द्वारकानाथ	-11.3045
▁प्लास्टिक	-11.3045
▁विवेकानंद	-11.3045
▁मूर्तिकला	-11.3047
भाषी	-11.3063
▁रखनेवाले	-11.3068
▁दैव	-11.3073
सूत्र	-11.3081
विकास	-11.3087
▁उद्धरण	-11.3096
▁संख़्या	-11.3096
▁अभिप्राय	-11.3096
▁मुख़्य	-11.3096
▁निःशुल्क	-11.3096
▁फाउंडेशन	-11.3121
▁समुच्चय	-11.3121
▁आमंत्रण	-11.3121
▁मुद्रक	-11.3122
▁इंसान	-11.3125
▁गोपाल	-11.3134
▁परिणत	-11.3139
▁अब्दुल्ला	-11.3146
▁वाकई	-11.3147
▁भूकंप	-11.3148
▁अहंकार	-11.3158
▁रखनेवाला	-11.3166
जहन्नुम	-11.3168
▁कौंसिल	-11.3172
▁स्क्रॉल	-11.3172
▁मेहमान	-11.3172
ill	-11.3173
▁बुनियाद	-11.3194
इतना	-11.3194
▁चित्त	-11.3196
EMAIL	-11.3197
▁एसोसिएशन	-11.3197
▁मंज़िले	-11.3197
▁अस्पष्ट	-11.3197
▁निर्वहन	-11.3197
▁चेन्नई	-11.3223
▁इसराइल	-11.3223
▁सोशल	-11.3223
▁ऑर्	-11.323
▁अनुकम्पा	-11.3231
IP	-11.3239
इख्तेयार	-11.3248
▁निरूपित	-11.3248
▁गुणसूत्र	-11.325
▁देशभक्त	-11.3254
▁जयपुर	-11.3255
▁मंत्रिमंडल	-11.3275
▁खिंच	-11.3278
▁लड़कों	-11.3287
▁कीटनाशक	-11.33
▁श्वास	-11.33
▁याचिकाकर्ता	-11.3304
वर्धित	-11.3325
▁मृदा	-11.3326
▁रस्सी	-11.3326
मूर्ति	-11.3336
▁नौसेना	-11.3338
▁मलयालम	-11.3352
▁हड़ताल	-11.3352
▁हेक्टेयर	-11.3352
▁समेत	-11.3353
▁नाफरमान	-11.3366
▁अनन्य	-11.337
▁चुंबकीय	-11.3378
▁सौन्दर्य	-11.3378
▁आलोचक	-11.3378
▁रेखांकित	-11.3378
▁वर्ल्ड	-11.338
▁उपरांत	-11.338
दक्षिण	-11.3402
▁अपरिचित	-11.3404
▁खूबसूरत	-11.3404
कैलेंडर	-11.3404
▁इंगित	-11.3404
▁छत्तीसगढ़	-11.343
▁ताजमहल	-11.343
▁वाजपेयी	-11.343
▁पॉलिसी	-11.343
▁अवसाद	-11.343
▁ढलान	-11.3431
▁उत्थान	-11.3432
▁ईसवी	-11.3432
▁जन्मदिन	-11.3433
▁सौदे	-11.3438
▁भुजा	-11.3441
▁पौराणिक	-11.3456
▁निमंत्रण	-11.3456
▁प्लग	-11.3457
▁भित्ति	-11.3457
▁वायदे	-11.3458
▁मुराद	-11.3458
▁मैसूर	-11.3462
▁कृतियों	-11.3465
star	-11.3466
▁वृक्क	-11.3467
▁दूंगा	-11.3471
फॉर्म	-11.3481
तौरैत	-11.3481
world	-11.3482
▁पांडुलिपि	-11.3482
▁शोकाकुल	-11.3482
▁अलार्म	-11.3482
▁1997	-11.3489
▁1987	-11.3489
निर्धारित	-11.3507
▁इकट्ठे	-11.3508
▁लॉन्च	-11.3509
▁प्रशस्त	-11.3509
चिकित्सा	-11.3534
▁अश्लील	-11.3535
▁साँचाः	-11.3535
file	-11.3536
▁अणु	-11.3536
▁अन्दाज़	-11.3536
क्षमता	-11.3545
शिक्षा	-11.3549
बुद्धि	-11.356
▁पर्यवेक्षण	-11.3561
▁पैग़ाम	-11.3561
▁स्थानांतरण	-11.3561
▁शास्ति	-11.3565
▁अनुयायियों	-11.3588
▁चुपचाप	-11.3588
▁व्यायाम	-11.3588
▁इटली	-11.3588
▁बेचैन	-11.359
▁स्नातकोत्तर	-11.3615
▁सघन	-11.3615
cast	-11.3615
▁कारस्तानिय	-11.3616
▁सपने	-11.3616
सलाम	-11.3616
▁निगेहबान	-11.3641
जिबरील	-11.3641
▁अमान्य	-11.3641
▁लंबित	-11.3642
▁महाविद्यालय	-11.3642
▁रूजू	-11.3648
▁वाक़िफ़कार	-11.3662
▁नगरपालिका	-11.3668
▁सामंजस्य	-11.3668
▁ज़ूम	-11.3668
▁अपमानजनक	-11.3669
द्वीप	-11.3693
▁एहसास	-11.3695
▁डिज़ाइन	-11.3695
▁समूचे	-11.3695
▁निकोबार	-11.3695
▁जुल्म	-11.3695
कश्मीर	-11.3695
▁(6)	-11.3699
▁राधाकृष्णन	-11.3722
▁चौदह	-11.3722
▁ख़याल	-11.3722
▁अहमदाबाद	-11.3722
▁नियोजित	-11.3731
परीक्षा	-11.3748
▁जमींदार	-11.3748
पीछे	-11.3749
▁वित्तपोषण	-11.375
लौकिक	-11.3752
▁समतल	-11.3758
▁प्रताप	-11.3763
▁शॉर्टकट	-11.3776
▁मन्दिर	-11.3776
▁साहिब	-11.3776
ISO	-11.3778
▁परिपथ	-11.3779
बैंक	-11.3781
▁अभयारण्य	-11.3803
▁तत्पश्चात	-11.3803
▁उपरोक्त	-11.3803
▁शब्दकोश	-11.3803
▁लार्वा	-11.3803
▁मायने	-11.3803
शैली	-11.3804
कुरान	-11.381
▁BAR	-11.383
▁जिन्होने	-11.383
▁साप्ताहिक	-11.383
▁फंक्शन	-11.383
▁फतेह	-11.383
▁बुराइयों	-11.3857
▁क़बूल	-11.3857
▁चिंतित	-11.3857
▁बम्बई	-11.3857
▁उपहास	-11.3857
▁विजेट	-11.3858
▁ख़त्म	-11.386
▁रसोई	-11.3884
▁गर्भवती	-11.3886
▁इन्साफ़	-11.3886
अर्थात	-11.3886
ग्राही	-11.3903
▁वृहत	-11.3904
▁पुरातत्व	-11.3912
▁स्नायु	-11.3912
▁सज्जन	-11.3914
ज़मीन	-11.3914
▁मेनन	-11.3924
▁नियन्त्रण	-11.3939
▁लक्ष्मण	-11.3939
▁इन्द्रिय	-11.3944
▁ड्राफ्ट	-11.3967
▁कानपुर	-11.3973
उत्तर	-11.3976
▁वास्तु	-11.3994
▁उखाड़	-11.3995
▁परिमाण	-11.3995
▁चिन्ता	-11.3995
गृहीत	-11.4002
▁शिविर	-11.4002
गर्भ	-11.4009
▁नोकिया	-11.4022
▁राजपूत	-11.4022
▁सुलभ	-11.4023
आदम	-11.4033
▁जकड़	-11.404
▁पीढ़ियों	-11.405
▁उपासना	-11.405
▁मापदंड	-11.405
▁ग़ैब	-11.405
▁यूनानी	-11.405
▁बरहक़	-11.4052
▁शौक	-11.4071
▁त्रिपुरा	-11.4078
▁घंटा	-11.4078
▁अविलय	-11.408
▁क़ु	-11.4081
▁तात्पर्य	-11.4106
▁बागवानी	-11.4106
लब्ध	-11.4107
▁जिक्र	-11.4111
ाक्षर	-11.4132
▁अनियमित	-11.4134
app	-11.414
▁कोयले	-11.4142
▁तराश	-11.4145
▁विधायी	-11.4165
निर्मित	-11.4168
option	-11.4189
▁प्रीमियम	-11.419
▁भैंस	-11.419
िज्म	-11.4211
▁औचित्य	-11.4218
▁बुखार	-11.4219
▁परिवर्धित	-11.4221
संशोधन	-11.4223
▁उन्मुख	-11.4236
▁काश्मीर	-11.4247
▁प्रेरक	-11.4247
उन्हें	-11.4251
▁उद्धृत	-11.4275
▁प्रामाणिक	-11.4275
▁जागरूक	-11.4275
▁अकारथ	-11.4275
▁सोलह	-11.4275
{	-11.428
▁ख़ज़ान	-11.4286
▁आस्ट्रेलिया	-11.4303
▁कसौटी	-11.4303
▁सैकड़ों	-11.4303
type	-11.4303
▁अलिफ़	-11.4304
▁Google	-11.4304
▁पहुच	-11.4304
▁स्तूप	-11.4332
▁नरेंद्र	-11.4333
▁पूरब	-11.4334
▁उल्लास	-11.4335
ोन्मुख	-11.4336
▁देहात	-11.4353
▁गड़बड़	-11.4361
▁मेडिकल	-11.4361
▁आधारशिला	-11.4361
▁क्लाइंट	-11.4361
ग्रंथ	-11.4369
तकालय	-11.4376
▁कैबिनेट	-11.4389
▁निर्दोष	-11.4389
▁चूँकि	-11.4389
▁संबोधन	-11.4389
कुशल	-11.4395
क़ौम	-11.4398
▁वाराणसी	-11.4418
▁बछड़े	-11.4418
▁अकारत	-11.4448
▁निदेशालय	-11.4448
▁गुज़ार	-11.4449
▁ख़ुशनूदी	-11.4476
▁पुनरावृत्ति	-11.4476
▁उपास्य	-11.4476
▁अखंडता	-11.4476
▁लक्षित	-11.4476
▁क़ैद	-11.4477
▁कृमि	-11.4477
▁दाँत	-11.4477
ग्रन्थ	-11.4483
▁डिरेक्ट्री	-11.4505
▁प्रोफाइल	-11.4505
▁हुसैन	-11.4505
▁जरिये	-11.4505
▁असमानता	-11.4506
▁सेटअप	-11.4509
▁अफसर	-11.4512
▁धूम	-11.4533
▁इंस्टीट्यूट	-11.4534
▁वाशिंगटन	-11.4534
▁लैंगिक	-11.4534
▁सुलह	-11.4535
▁टैंक	-11.4539
ecu	-11.4558
▁Anjuta	-11.4564
▁प्यास	-11.4569
▁अरुणाचल	-11.4593
▁एल्गोरिथ्म	-11.4593
▁ताज्जुब	-11.4593
▁सिलसिले	-11.4593
▁एकाग्र	-11.4594
▁छाँट	-11.4595
▁मणील	-11.4605
▁प्रदूषक	-11.4622
▁LDAP	-11.4622
▁ब्रितानी	-11.4622
▁प्रतिरक्षा	-11.4622
▁ऑफलाइन	-11.4626
▁संगोष्ठी	-11.4652
box	-11.4652
▁अवधारित	-11.4652
▁डिवाइस	-11.4652
▁लश्कर	-11.4652
▁संभाव्य	-11.4652
▁बृहत	-11.4652
▁condition	-11.4681
▁शताब्दियों	-11.4681
▁स्ट्रीट	-11.4682
▁पैदल	-11.4682
unit	-11.4707
▁एनकोडिंग	-11.4711
▁डेविड	-11.4711
▁मेहराब	-11.4711
▁देवनागरी	-11.4741
▁भण्डार	-11.4741
▁योद्धा	-11.4771
▁ग्रीष्म	-11.4771
▁हड्डियों	-11.4771
▁विनोद	-11.4771
गांव	-11.4784
▁साफ्टवेयर	-11.4801
▁संगणित	-11.4801
▁भविष्यवाणी	-11.4831
▁विन्यस्त	-11.4831
▁यूनिकोड	-11.4831
▁विघटन	-11.4831
▁खुशहाली	-11.4831
▁रिसर्च	-11.4831
▁सब्जियों	-11.4831
▁पतली	-11.4831
जहन्नम	-11.484
▁न्यायमूर्ति	-11.4862
क़ब्रों	-11.4866
▁सांकेतिक	-11.4891
▁वाष्प	-11.4891
▁विवेचन	-11.4921
▁सउदी	-11.4921
▁व्यतीत	-11.4921
▁जमानत	-11.494
france	-11.4952
▁वल्लभ	-11.4952
▁इलाके	-11.4952
▁ज्वर	-11.4952
मौजूद	-11.4963
▁क्रियान्वित	-11.4982
▁प्रत्युत्तर	-11.4982
▁आज्ञापालन	-11.4982
▁रिएक्टर	-11.4982
▁तुलसी	-11.4982
▁लकीर	-11.4983
▁बाईं	-11.4983
▁खुराक	-11.4984
भूषण	-11.4989
▁२५	-11.5005
▁क्षेञ	-11.5013
▁अकादमिक	-11.5013
▁खाद्यान्न	-11.5013
▁उम्दा	-11.5013
▁तार्किक	-11.5043
▁पुरातन	-11.5043
▁चतुर्थ	-11.5044
▁नवाब	-11.5053
ज़रूर	-11.5057
▁उत्तेजित	-11.5074
ack	-11.5078
▁संप्रतीक	-11.5105
▁भूगोल	-11.5105
▁उकसा	-11.5111
▁गुंजाइश	-11.5136
▁नवान्वेषी	-11.5136
▁कित्तूर	-11.5136
▁आवेग	-11.5138
▁तमाश	-11.5146
▁फ़ंक्शन	-11.5167
▁अपडेट	-11.5167
▁आश्रित	-11.5167
▁ख्याति	-11.5167
▁शीट	-11.5189
▁इमेज	-11.5191
▁करूणाकर	-11.5198
▁पराजित	-11.5198
▁मरतबा	-11.5198
▁स्वादिष्ट	-11.5199
▁कब्जे	-11.5229
▁बूढ़े	-11.5229
▁सिक्ख	-11.5229
time	-11.523
▁साझेदार	-11.5238
▁POP	-11.5261
▁इकाइयां	-11.5261
▁संदिग्ध	-11.5261
▁ऊर्ध्व	-11.5261
▁पोशाक	-11.5261
▁बैटरी	-11.5261
ल्यूशन	-11.5262
▁शंका	-11.5275
▁अमूर्त	-11.5276
आसमान	-11.5277
▁नौजवान	-11.5292
▁अध्यादेश	-11.5292
▁परिष्कृत	-11.5292
New	-11.5292
▁फोकस	-11.5293
▁ब्राउज़	-11.5323
▁परिप्रेक्ष्य	-11.5324
▁आन्तरिक	-11.5324
▁आश्वस्त	-11.5324
▁ग़ज़ब	-11.5324
▁मुम्बई	-11.5324
▁आवंटन	-11.5355
▁पंचवर्षीय	-11.5355
▁घंटों	-11.5356
▁उपद्रव	-11.5356
▁स्टील	-11.5356
▁आँक	-11.5366
▁समाविष्ट	-11.5387
▁आरोग्य	-11.5387
▁बेहोश	-11.5388
▁कामगारों	-11.5388
कौन	-11.5396
▁त्यौहार	-11.5419
▁धूम्रपान	-11.5419
▁मंत्रिपरिषद	-11.5419
▁तिमाही	-11.5419
▁हनुमान	-11.5419
▁यमुना	-11.5419
▁ताकीद	-11.542
▁खोखल	-11.5432
पुष्प	-11.5435
पुस्तक	-11.5436
▁कार्यवाहियों	-11.5451
▁वकालत	-11.5451
▁पेशकश	-11.5451
▁श्याम	-11.5454
वृद्धि	-11.5464
स्क्रिप्ट	-11.5467
▁शिष्टमंडल	-11.5483
▁नृत्	-11.5495
▁अकादेमी	-11.5515
▁डीपीआई	-11.5515
▁रीसेट	-11.5517
ुएब	-11.5517
वार्षिक	-11.5532
▁अठारह	-11.5547
▁वामपंथी	-11.5547
▁सन्दर्भ	-11.5547
▁वशीभूत	-11.5547
▁व्यंग्य	-11.5547
▁बरामद	-11.555
प्रतिशत	-11.5564
▁अकृतज्ञ	-11.558
▁काल्पनिक	-11.558
▁प्रेमचंद	-11.558
▁संकलित	-11.558
ुद्दीन	-11.558
▁खतरों	-11.558
▁मादक	-11.5581
▁वाकिफ	-11.5609
▁"{0}"	-11.5612
▁मेगावाट	-11.5612
▁सुसज्जित	-11.5612
▁उजागर	-11.5612
▁महोत्सव	-11.5613
▁उत्तेजना	-11.5645
▁पॉपअप	-11.5645
▁लाज़िम	-11.5645
▁नाजुक	-11.5645
▁दहकत	-11.5646
▁अंतर्वस्तु	-11.5646
कायदा	-11.565
▁अस्पृश्य	-11.5677
▁आक्रामक	-11.5678
▁मृदु	-11.5678
सामान्य	-11.5682
▁नर्तक	-11.5683
▁अरविंद	-11.571
▁सुपुर्दगी	-11.571
▁ड्रग्स	-11.571
▁परिवीक्षा	-11.5711
वर्धक	-11.5711
▁स्ट्रीम	-11.5712
▁IMAP	-11.5743
▁दुरुपयोग	-11.5743
▁२००८	-11.5743
▁शिश्न	-11.5776
▁मानसून	-11.5776
▁ओडिशा	-11.5809
▁पाश्चात्य	-11.5809
▁संक्रामक	-11.5809
▁प्रायोगिक	-11.5809
▁सिंगापुर	-11.5809
▁पत्तियों	-11.581
state	-11.5816
शंकर	-11.583
▁प्रचलन	-11.5843
▁बेपरवा	-11.5851
▁अवहेलना	-11.5876
▁रिसालत	-11.5876
▁सब्सिडी	-11.5876
▁नोबेल	-11.5876
▁वाक्यांश	-11.5876
▁खारिज	-11.5878
विद्यालय	-11.5891
▁खिड़की	-11.5909
▁रोबोट	-11.5909
▁दावों	-11.5911
बक्सा	-11.5939
▁प्रशंसनीय	-11.5943
▁फ़ैसले	-11.5943
▁सुल्तान	-11.5943
▁जर्नल	-11.5943
▁खरगोश	-11.5977
▁घुटनों	-11.5977
▁राक्षस	-11.5977
000/-	-11.5988
नारायण	-11.5998
▁कर्त्तव्य	-11.601
▁भयभीत	-11.601
▁नियामक	-11.601
▁क्रेता	-11.6018
नसीब	-11.602
▁बढ़ोतरी	-11.6044
▁यौगिक	-11.6044
▁सर्किट	-11.6044
▁तेरह	-11.6045
▁वाजिब	-11.6045
▁आंत्र	-11.6049
आधारित	-11.6066
▁अपरिहार्य	-11.6078
▁जनगणना	-11.6078
▁उत्तराखंड	-11.6078
▁पूंछ	-11.6078
▁माणिक	-11.6078
▁जेम्स	-11.6078
▁नाभिक	-11.6079
▁कहानियां	-11.608
संवेदन	-11.6096
▁बांग्ला	-11.6111
▁अंतर्निहित	-11.6112
▁सॉफ़्टवेयर	-11.6112
▁नक्शे	-11.6112
▁पल्लव	-11.6113
act	-11.6142
▁द्रुत	-11.6147
▁प्रक्षेपण	-11.6147
▁चिन्तन	-11.6147
▁प्रायद्वीप	-11.6147
▁अफ्रीकी	-11.6181
▁शुभारंभ	-11.6181
वोल्ट	-11.6208
▁अहसास	-11.6215
▁विनियामक	-11.6215
▁चमड़े	-11.6216
▁फँस	-11.6219
▁लिहाज	-11.6228
समन्वय	-11.6239
▁चिकित्सीय	-11.625
▁जुर्माना	-11.625
▁चेष्टा	-11.625
▁सडक	-11.6258
“	-11.6274
ऑपरेटिंग	-11.6285
▁अंतर्विष्ट	-11.6285
▁इंटरनेशनल	-11.6285
▁एप्लिकेशन	-11.6285
▁अलंकृत	-11.6285
▁डेल्टा	-11.6285
▁डेयरी	-11.6285
▁प्रिंस	-11.6285
▁पहाड	-11.6287
ount	-11.6291
थलग	-11.6293
हृदय	-11.6309
▁पारम्परिक	-11.632
▁मिजोरम	-11.632
▁बाँस	-11.6328
▁#39;	-11.6355
▁हस्तशिल्प	-11.6355
▁ग़नीमत	-11.6355
▁पड़ोसियों	-11.6355
▁प्रतिबिम्ब	-11.6355
▁रुग्ण	-11.6355
▁प्रतिभागियों	-11.6355
ोत्सव	-11.6367
शेखर	-11.638
▁क़राबतदार	-11.639
▁मुनाफिक़	-11.639
▁क़ूवत	-11.639
▁शिलालेख	-11.639
इफ़तेरा	-11.639
▁सुगंध	-11.639
▁ख्वाब	-11.639
▁प्रचंड	-11.639
▁याकूब	-11.639
▁परदाज़	-11.6399
text	-11.6425
▁गनोम	-11.6425
▁रूपांतरित	-11.6425
▁कुत्ते	-11.6425
▁एनआईओएस	-11.646
▁तीक्ष्ण	-11.646
▁सहिष्णुता	-11.646
▁फ़ायदा	-11.646
▁क्रमादेश	-11.646
▁कचरे	-11.6461
▁सपनों	-11.6461
तुम्हारा	-11.6486
उत्पाद	-11.6486
▁टेलीविजन	-11.6496
▁डिजीटल	-11.6496
▁अदायगी	-11.6496
▁पालिसी	-11.6496
▁जाहिल	-11.6499
port	-11.65
नाफरमानी	-11.6512
▁यूनिवर्सिटी	-11.6531
▁हुज्जत	-11.6531
▁हिफाज	-11.6532
उच्छेदन	-11.6534
इस्लाम	-11.6558
अपील	-11.656
▁License	-11.6567
▁यथासंभव	-11.6567
▁व्यतिक्रम	-11.6567
▁अभूतपूर्व	-11.6567
▁अस्थाई	-11.6567
▁उच्चारण	-11.6567
day	-11.6568
▁जिम्मे	-11.66
▁मज़हब	-11.6603
▁दाहिनी	-11.6603
▁रोमांच	-11.6603
च्युत	-11.6631
▁कट्टरपंथी	-11.6639
▁चुनौतियां	-11.6639
▁निचली	-11.6639
▁कस्टम	-11.6639
▁इंटरफेस	-11.6675
▁ह्रास	-11.6675
▁दहला	-11.6675
▁प्रोत्सा	-11.671
▁सहकारिता	-11.6711
▁भृंग	-11.6711
▁लंबवत	-11.6711
▁ज्वार	-11.6712
▁विभिन्	-11.6722
घोष	-11.6745
▁अनावश्यक	-11.6747
▁चौधरी	-11.6748
°	-11.9111
@	-12.2033
⁄	-12.9014
	-16.3667
̈	-17.8654
¿	-17.8655
̧	-17.8656
	-17.8657
	-17.8658
<	-17.8659
	-17.8659
