<pad>	0
</s>	0
<unk>	0
▁¦	-0
▁እ	-1
▁አ	-2
▁በ	-3
▁የ	-4
▁ከ	-5
▁።	-6
ንም	-7
ቸው	-8
▁ይ	-9
▁ወ	-10
▁ነ	-11
▁እን	-12
▁፥	-13
አብ	-14
▁መ	-15
ግዚ	-16
ሔር	-17
ግዚአብ	-18
ግዚአብሔር	-19
ንድ	-20
▁ለ	-21
ሁሉ	-22
▁ተ	-23
▁፤	-24
ርሱ	-25
ችሁ	-26
▁ሰ	-27
እግዚአብሔር	-28
▁ል	-29
እን	-30
▁ያ	-31
▁ወደ	-32
▁ስ	-33
▁ሁሉ	-34
ለሁ	-35
ላይ	-36
ዘንድ	-37
ገር	-38
ንተ	-39
ለው	-40
ኤል	-41
ግን	-42
▁ም	-43
▁እግዚአብሔር	-44
▁እንደ	-45
ድር	-46
ትን	-47
ውን	-48
▁ብ	-49
ትም	-50
▁የሚ	-51
ዎች	-52
ጊዜ	-53
▁ነበ	-54
ዚህ	-55
እስ	-56
▁ደ	-57
▁ዘንድ	-58
ጆች	-59
ወደ	-60
ውም	-61
ነበ	-62
ዲህ	-63
▁ላይ	-64
ራኤል	-65
ርሱም	-66
ንጉ	-67
▁ሆ	-68
▁ነው	-69
ል።	-70
ጋር	-71
▁ት	-72
▁ባ	-73
▁ስለ	-74
ህን	-75
ዚያ	-76
▁ግን	-77
ሕዝ	-78
ለም	-79
እስራኤል	-80
ልና	-81
ርስ	-82
▁እነ	-83
ሪያ	-84
▁አለ	-85
▁ቀ	-86
ምላ	-87
በት	-88
ችን	-89
ደረ	-90
▁የተ	-91
▁ድ	-92
መን	-93
▁ጊዜ	-94
እነ	-95
ፊት	-96
▁ታ	-97
ነው	-98
ላቸው	-99
▁አይ	-100
ም።	-101
▁ማ	-102
ኢየ	-103
ደር	-104
እንደ	-105
▁ነገር	-106
ያስ	-107
ንና	-108
ቤት	-109
ለት	-110
ላችሁ	-111
▁በእ	-112
ጌታ	-113
ናንተ	-114
▁ልጆች	-115
▁ክ	-116
▁ጋር	-117
ያን	-118
▁እኔ	-119
ሰው	-120
ሆን	-121
▁እስ	-122
የሚ	-123
ምን	-124
ቃል	-125
ሥራ	-126
ነት	-127
▁በአ	-128
ተኛ	-129
ሠራ	-130
▁ልጅ	-131
▁ነበር	-132
▁ው	-133
ግሞ	-134
ል፤	-135
መል	-136
እኔ	-137
ሰማ	-138
▁ጠ	-139
▁አል	-140
ቶች	-141
ስጥ	-142
መጣ	-143
ቱም	-144
ቸውም	-145
▁ዓ	-146
ስት	-147
ለህ	-148
ለች	-149
ረስ	-150
መለ	-151
▁እንዲህ	-152
ምድር	-153
▁ፈ	-154
ስም	-155
▁ሰው	-156
ል፥	-157
▁ንጉ	-158
ህም	-159
ባት	-160
ገድ	-161
▁እንዲ	-162
▁እንዳ	-163
▁ገ	-164
ከተ	-165
ሆና	-166
▁መን	-167
ምላክ	-168
ሆነ	-169
▁ዘ	-170
አት	-171
ስለ	-172
ይም	-173
እርሱ	-174
ናገ	-175
ቸውን	-176
አል	-177
ይሁ	-178
ዳዊ	-179
▁?	-180
▁አን	-181
ቱን	-182
ካከ	-183
ኃጢ	-184
ግብ	-185
▁ሁ	-186
የተ	-187
ፍራ	-188
ወጣ	-189
▁የአ	-190
▁ሕዝ	-191
ዳን	-192
ገባ	-193
ነበረ	-194
▁ፍ	-195
▁በመ	-196
ብር	-197
ይ፥	-198
አንተ	-199
▁ና	-200
አለ	-201
▁ሳ	-202
ኋላ	-203
▁ቤት	-204
ቀመ	-205
ችኋ	-206
▁የእግዚአብሔር	-207
▁ቀን	-208
ላል	-209
▁ነበረ	-210
▁ፊት	-211
ሳሌ	-212
▁ደግሞ	-213
ቸዋ	-214
ድን	-215
▁ቢ	-216
ኢየሱ	-217
ተው	-218
▁ሆይ፥	-219
▁እጅ	-220
▁መል	-221
ነገር	-222
ሉት	-223
ነሣ	-224
ርም	-225
▁አስ	-226
ውያን	-227
▁በዚያ	-228
▁አንተ	-229
ም፥	-230
▁ከተ	-231
▁እነሆ	-232
▁ይህ	-233
ምም	-234
ትና	-235
ምና	-236
▁አት	-237
ልጆች	-238
▁ሰዎች	-239
ወር	-240
ልጅ	-241
ልን	-242
ውንም	-243
ሉ።	-244
ካከል	-245
▁ቃል	-246
እናንተ	-247
ሙሴ	-248
ደረገ	-249
▁እርሱ	-250
▁አለው	-251
▁ካ	-252
ማይ	-253
አን	-254
አይ	-255
▁እርሱም	-256
መት	-257
ዛብ	-258
▁ምድር	-259
ኢየሩ	-260
ኢየሩሳሌ	-261
▁ሲ	-262
ቸው።	-263
▁ቅ	-264
ርባ	-265
▁ድረስ	-266
▁ጌታ	-267
ኞች	-268
ያው	-269
እርሱም	-270
ሩት	-271
ምት	-272
ነበር	-273
ሕዛብ	-274
▁ሆነ	-275
▁ንጉሥ	-276
ልም	-277
▁አንድ	-278
ሁን	-279
ቤቱ	-280
ራት	-281
ንን	-282
▁ሊ	-283
▁እስከ	-284
ኢዮ	-285
▁ጥ	-286
ቶቻ	-287
ፈር	-288
▁በእግዚአብሔር	-289
ረው	-290
▁ራ	-291
ዋዕ	-292
▁አለው።	-293
ርያ	-294
ለሁ።	-295
ይወ	-296
ቹም	-297
ኢየሱስ	-298
▁አምላክ	-299
ንጉሡ	-300
ሥዋዕ	-301
ጠፋ	-302
ይሁዳ	-303
▁ሕ	-304
▁ነው።	-305
ነገ	-306
▁ውስጥ	-307
ሮች	-308
▁ብሎ	-309
ህና	-310
▁ሌ	-311
እንዲህ	-312
▁አድር	-313
ሞች	-314
▁ዕ	-315
▁ነበር።	-316
▁ሴ	-317
ላቅ	-318
ርስዋ	-319
ን፥	-320
▁አለ።	-321
▁እናንተ	-322
▁የእስራኤል	-323
ላለም	-324
አባ	-325
ይን	-326
ቀር	-327
ለሁ፥	-328
መስ	-329
▁እግዚአብሔርም	-330
እንዲ	-331
ምድ	-332
ራራ	-333
▁ነገ	-334
በላ	-335
ኃጢአ	-336
ለሁ፤	-337
እንዳ	-338
▁በኋላ	-339
▁ቍ	-340
ቆች	-341
▁ይሆና	-342
ገለ	-343
▁በተ	-344
አስ	-345
▁በሰ	-346
ወንድ	-347
ልቅ	-348
ዘላለም	-349
በሰ	-350
ቢያ	-351
ቀን	-352
▁ስለዚህ	-353
▁ወንድ	-354
ካም	-355
ግሥ	-356
▁የሚያ	-357
ድቅ	-358
ርስቶ	-359
እጅ	-360
▁አም	-361
ፈስ	-362
▁አላ	-363
ኢየሩሳሌም	-364
▁ድን	-365
እግዚአብሔርም	-366
በአ	-367
ሕዝቡ	-368
አቸው	-369
▁እነሆ፥	-370
▁ሞ	-371
▁አሳ	-372
ብም	-373
ለን	-374
ም፤	-375
ሳት	-376
ታቸው	-377
በረ	-378
ሥጋ	-379
በር	-380
ጠብ	-381
ሆኑ	-382
ት፥	-383
ደስ	-384
እነርሱ	-385
ድም	-386
ሠራዊ	-387
ርስቶስ	-388
ሰጠ	-389
ለውን	-390
ታችሁ	-391
ልክ	-392
ጀራ	-393
ብን	-394
▁ሄ	-395
ዚያም	-396
ገና	-397
በል	-398
ባቸው	-399
▁ወይም	-400
▁ይህን	-401
▁መካከል	-402
ነበሩ	-403
በታ	-404
በመ	-405
ደርጋ	-406
ግዲህ	-407
▁ምን	-408
ሥዋዕት	-409
ቀረ	-410
ተኛው	-411
ደርግ	-412
ላቸው።	-413
ገብ	-414
ብሎ	-415
ተዋ	-416
▁ንጉሡ	-417
ሆይ	-418
ሥር	-419
ት።	-420
ጥቶ	-421
ደግሞ	-422
ታው	-423
ንጉሥ	-424
ዴት	-425
ሩ።	-426
ኃጢአት	-427
ገን	-428
አልና	-429
▁ከአ	-430
ው።	-431
▁ልብ	-432
▁ዓመት	-433
ሰጣ	-434
ሰዎች	-435
ችም	-436
ጀም	-437
ናገር	-438
መሰ	-439
▁ነው፤	-440
▁ይላ	-441
▁ባሪያ	-442
▁ዳዊ	-443
▁አው	-444
▁እንዲሁ	-445
ስን	-446
▁ዛ	-447
ሺህ	-448
ምላካ	-449
▁ሙሴ	-450
በእ	-451
▁	-452
¦	-453
ን	-454
ም	-455
አ	-456
በ	-457
እ	-458
ር	-459
ው	-460
ል	-461
ት	-462
ለ	-463
ስ	-464
የ	-465
ይ	-466
።	-467
ነ	-468
መ	-469
ደ	-470
፥	-471
ብ	-472
ና	-473
ች	-474
ድ	-475
ተ	-476
ያ	-477
ከ	-478
ሁ	-479
ግ	-480
ላ	-481
ወ	-482
ህ	-483
ሰ	-484
ገ	-485
ራ	-486
፤	-487
ረ	-488
ባ	-489
ታ	-490
ዚ	-491
ሉ	-492
ማ	-493
ቸ	-494
ቀ	-495
ጠ	-496
ዘ	-497
ዳ	-498
ፍ	-499
ሆ	-500
ሱ	-501
ሔ	-502
ሳ	-503
ቅ	-504
ክ	-505
ጥ	-506
ሚ	-507
ዋ	-508
ፈ	-509
ቱ	-510
ሩ	-511
ጋ	-512
ጣ	-513
ሥ	-514
ቶ	-515
ሞ	-516
ቃ	-517
ሕ	-518
ካ	-519
ዲ	-520
ኤ	-521
ዝ	-522
ዓ	-523
ቤ	-524
ጅ	-525
ኛ	-526
ጉ	-527
ዛ	-528
ኝ	-529
ዎ	-530
ሌ	-531
ሎ	-532
ኑ	-533
ኔ	-534
ጆ	-535
ሙ	-536
ሮ	-537
ፋ	-538
ዱ	-539
ጊ	-540
ቢ	-541
ሴ	-542
ኢ	-543
ኖ	-544
?	-545
ፊ	-546
ሠ	-547
ሪ	-548
ዜ	-549
ቡ	-550
ዕ	-551
ቻ	-552
ዊ	-553
ቆ	-554
ሽ	-555
ጡ	-556
ዮ	-557
ኃ	-558
ጽ	-559
ቹ	-560
ኋ	-561
ጌ	-562
ሬ	-563
ዙ	-564
ቁ	-565
ሃ	-566
ሊ	-567
ዶ	-568
ሐ	-569
ሸ	-570
ቴ	-571
ሄ	-572
ፉ	-573
ጀ	-574
ሣ	-575
ጸ	-576
ሶ	-577
ሲ	-578
ጢ	-579
ሜ	-580
ሡ	-581
ሻ	-582
ጨ	-583
ዩ	-584
ጎ	-585
ኪ	-586
ጻ	-587
ቍ	-588
ኩ	-589
ቦ	-590
ጭ	-591
ኞ	-592
ዬ	-593
ዴ	-594
ኮ	-595
ጃ	-596
ቈ	-597
ሦ	-598
ጁ	-599
ቼ	-600
ፎ	-601
ቂ	-602
ፅ	-603
ጦ	-604
ጕ	-605
ኳ	-606
ኅ	-607
ኸ	-608
ዖ	-609
ኵ	-610
ጫ	-611
ሺ	-612
ጂ	-613
ኦ	-614
ሀ	-615
ጐ	-616
ኘ	-617
ዞ	-618
ኬ	-619
ፀ	-620
ጹ	-621
ጮ	-622
ጄ	-623
ጓ	-624
ዔ	-625
ፌ	-626
ሹ	-627
ሾ	-628
ቄ	-629
ቲ	-630
ፃ	-631
ሂ	-632
ኒ	-633
ቺ	-634
ኙ	-635
ቋ	-636
ጳ	-637
!	-638
ኰ	-639
ዐ	-640
ኣ	-641
ጩ	-642
ጤ	-643
ጴ	-644
ዌ	-645
ኀ	-646
ዉ	-647
ዑ	-648
ፁ	-649
ሤ	-650
ኹ	-651
ጾ	-652
ዣ	-653
ሖ	-654
ዥ	-655
ጵ	-656
ኽ	-657
ፆ	-658
ኜ	-659
ኻ	-660
ጪ	-661
ጲ	-662
ሑ	-663
ኆ	-664
ዪ	-665
ዒ	-666
a	-667
ሒ	-668
ሼ	-669
ዠ	-670
ጶ	-671
ዢ	-672
ኡ	-673
ኚ	-674
ጼ	-675
ጺ	-676
ጬ	-677
W	-678
ዦ	-679
ዤ	-680
ሢ	-681
ቾ	-682
ሓ	-683
ዡ	-684
ፄ	-685
k	-686
g	-687
w	-688
ኄ	-689
r	-690
ኾ	-691
ጰ	-692
ጱ	-693
K	-694
ቧ	-695
ፔ	-696
ፕ	-697
𐋇	-698
d	-699
ኺ	-700
*	-701
1	-702
v	-703
T	-704
"	-705
l	-706
ሷ	-707
ፐ	-708
ፓ	-709
𐊣	-710
𐊼	-711
2	-712
s	-713
t	-714
3	-715
[	-716
]	-717
o	-718
ፑ	-719
ፒ	-720
D	-721
(	-722
)	-723
-	-724
5	-725
e	-726
ቊ	-727
ዷ	-728
ፂ	-729
A	-730
0	-731
4	-732
@	-733
b	-734
m	-735
u	-736
ሏ	-737
ቷ	-738
ቿ	-739
ኗ	-740
ኟ	-741
ኲ	-742
ኼ	-743
ጒ	-744
ጧ	-745
ፏ	-746
