<pad>	0
</s>	0
<unk>	0
ܐ	-2.79615
▁ܡܢ	-4.08199
ܝܢ	-4.18127
ܘ	-4.29166
▁ܕ	-4.35877
▁ܠܐ	-4.38395
▁ܕܝܢ	-4.39748
▁ܗܘ	-4.42263
▁ܘ	-4.45004
ܢ	-4.4555
▁	-4.46193
▁ܠܗ	-4.47354
ܗ	-4.61424
▁ܗܘܐ	-4.68824
ܬ	-4.74295
▁ܐܢܐ	-4.75511
ܘܢ	-4.83578
▁ܓܝܪ	-4.95415
▁ܥܠ	-5.03292
▁ܐܡܪ	-5.05297
▁ܠ	-5.18048
ܝ	-5.18593
▁ܝܫܘܥ	-5.20529
▁ܠܗܘܢ	-5.24614
▁ܐܝܟ	-5.24845
▁ܐܠ	-5.25251
▁ܘܠܐ	-5.26523
▁ܗܘܘ	-5.27649
▁ܐܢܬܘܢ	-5.29525
▁ܟܕ	-5.3241
▁ܕܠܐ	-5.3477
▁ܘܐܡܪ	-5.3708
▁ܒ	-5.39914
▁ܐܦ	-5.41042
▁ܠܟܘܢ	-5.43905
▁ܐ	-5.44888
ܬܐ	-5.46281
▁ܡܛܠ	-5.47382
ܝܠܝܢ	-5.53709
▁ܕܐܠܗܐ	-5.57517
ܟ	-5.65608
ܘܗܝ	-5.68351
▁ܐܢܬ	-5.69835
▁ܚܕ	-5.71363
▁ܗܝ	-5.73137
▁ܐܠܗܐ	-5.74089
▁ܗܢܐ	-5.77566
▁ܗ	-5.7863
▁ܐܢ	-5.80008
▁ܠܝ	-5.80985
▁ܐܢܘܢ	-5.82177
▁ܗܠܝܢ	-5.83831
ܢܐ	-5.87537
▁ܘܟܕ	-5.88488
ܡܐ	-5.92176
▁ܡܫܝܚܐ	-5.94853
▁ܡܕܡ	-5.95389
▁ܒܗ	-5.97236
▁ܐܢܫ	-6.03366
▁ܐܝܬ	-6.05089
ܟܘܢ	-6.05538
ܟܝܠ	-6.07867
▁ܐܘ	-6.11188
▁ܘܡܢ	-6.12107
▁ܠܟ	-6.15268
▁ܡ	-6.15347
▁ܗܕܐ	-6.16774
▁ܢ	-6.17413
ܠܐ	-6.17506
▁ܟܠ	-6.18174
▁ܗܢܘܢ	-6.20561
▁ܥܡ	-6.22125
ܘܬܐ	-6.22911
▁ܕܡܢ	-6.23318
ܝܐ	-6.25958
▁ܬ	-6.26951
▁ܥܕ	-6.31036
▁ܠܡ	-6.31517
▁ܘܒ	-6.33289
▁ܠܢ	-6.33547
▁ܘܠ	-6.36822
ܕ	-6.36854
▁ܘܐܢ	-6.37898
ܡ	-6.384
▁ܘܕ	-6.38913
ܝܬ	-6.39318
ܤ	-6.40036
▁ܠܘܬ	-6.4145
ܩ	-6.41775
▁ܕܢ	-6.43831
▁ܕܡ	-6.45101
▁ܘܡ	-6.46134
▁ܕܐܝܬ	-6.47055
▁ܐܬܐ	-6.48033
▁ܝܕܥ	-6.48928
▁ܗܘܬ	-6.5013
ܫ	-6.5087
▁ܤܓܝܐܐ	-6.51263
ܒ	-6.52321
▁ܒܪ	-6.53792
▁ܩܕܡ	-6.54549
▁ܗܟܢܐ	-6.55748
▁ܐܝܟܢ	-6.56459
ܥ	-6.58936
ܗܘܢ	-6.60668
▁ܟܠܗܘܢ	-6.61834
▁ܓܒܪܐ	-6.6221
▁ܒܝܬ	-6.63158
▁ܚܢܢ	-6.65174
ܦ	-6.65997
▁ܢܗܘܐ	-6.66175
▁ܪܘܚܐ	-6.66492
▁ܡܐ	-6.67971
ܓ	-6.69035
ܕܝܢ	-6.70962
ܪ	-6.71575
▁ܥܒܕ	-6.71921
▁ܘܐ	-6.72963
▁ܘܐܡܪܝܢ	-6.72985
▁ܠܐܠܗܐ	-6.74896
▁ܕܐ	-6.77808
▁ܬܡܢ	-6.78037
▁ܕܐܢ	-6.78077
ܬܗ	-6.78708
▁ܟܠܗ	-6.80337
ܬܘܢ	-6.81826
▁ܘܥܠ	-6.82361
▁ܕܒ	-6.82381
▁ܡܬ	-6.8549
▁ܐܡܪܝܢ	-6.85556
▁ܗܘܝܬ	-6.85564
ܚ	-6.85755
ܢܝ	-6.85887
▁ܕܐܦ	-6.86592
ܠ	-6.89948
▁ܡܢܗ	-6.93249
ܝܗܘܢ	-6.93353
ܛ	-6.93676
▁ܐܬ	-6.9435
ܐܝܬ	-6.94794
▁ܕܗܘ	-6.94962
ܘܤ	-6.95172
▁ܥܠܘܗܝ	-6.9566
▁ܐܙܠ	-6.95815
▁ܐܡܝܢ	-6.9669
▁ܘܢ	-6.96765
▁ܬܘܒ	-6.96833
▁ܕܐܡܪ	-6.96928
ܙ	-6.98894
▁ܡܠܬܐ	-6.99061
▁ܒܪܗ	-6.99832
▁ܘܗܘ	-7.00054
▁ܕܥܒܕ	-7.02862
▁ܐܝܢ	-7.05931
▁ܠܝܬ	-7.07493
▁ܒܢܝ	-7.09694
▁ܗܫܐ	-7.09774
▁ܪܒ	-7.10415
ܝܢܢ	-7.10512
▁ܐܚܝ	-7.10667
▁ܘܐܝܬ	-7.10991
▁ܥܡܗ	-7.11524
ܝܗܝ	-7.11978
▁ܐܢܫܐ	-7.12326
▁ܕܝܫܘܥ	-7.13198
▁ܝܗܘܕܝܐ	-7.13315
▁ܡܢܗܘܢ	-7.13911
▁ܡܪܝ	-7.15808
▁ܥܒܕܐ	-7.15943
▁ܗܘܝܬܘܢ	-7.15955
▁ܡܫܟܚ	-7.16196
▁ܐܚܪܢܐ	-7.16419
▁ܝܕܥܝܢ	-7.16546
ܝܗ	-7.16918
▁ܕܬ	-7.17519
▁ܫܡܝܐ	-7.1826
▁ܘܐܦ	-7.18507
▁ܠܒܪ	-7.18576
▁ܚܙܐ	-7.19135
ܕܐ	-7.19307
▁ܢܡܘܤܐ	-7.22052
▁ܥܢܐ	-7.22845
▁ܕܠ	-7.2364
▁ܘܟܠ	-7.25028
▁ܦܘܠܘܤ	-7.2524
▁ܫܡܥܘܢ	-7.25508
▁ܡܝܬܐ	-7.25769
▁ܟܗܢܐ	-7.26075
▁ܬܠܡܝܕܘܗܝ	-7.26114
▁ܡܢܟܘܢ	-7.26437
▁ܟܢܫܐ	-7.26604
▁ܒܬܪ	-7.2715
▁ܐܪܥܐ	-7.27199
ܝܘܗܝ	-7.27906
▁ܠܘܬܗ	-7.28942
▁ܢܦܫܗ	-7.29174
▁ܡܪܢ	-7.29654
▁ܚܝܐ	-7.30085
▁ܝܬܝܪ	-7.30555
ܫܐ	-7.31014
ܒܐ	-7.32118
▁ܕܡܪܢ	-7.33026
▁ܨܒܐ	-7.33756
▁ܘܗ	-7.34125
ܨ	-7.34294
▁ܝܗܒ	-7.34417
▁ܟܐܦܐ	-7.34739
▁ܪܒܐ	-7.34776
▁ܥܡܗܘܢ	-7.36209
▁ܐܢܬܬܐ	-7.3625
▁ܡܕܝܢܬܐ	-7.37222
▁ܕܥܠ	-7.37705
▁ܕܡܫܝܚܐ	-7.3795
▁ܐܝܬܘܗܝ	-7.39103
▁ܢܦܩ	-7.40583
▁ܡܠܐܟܐ	-7.40762
▁ܒܟܘܢ	-7.40985
▁ܡܪܝܐ	-7.41519
▁ܐܒܐ	-7.41582
▁ܕܒܗ	-7.4185
ܪܐ	-7.41973
▁ܕܐܬܐ	-7.42378
ܝܬܐ	-7.42725
▁ܩܪܒ	-7.42919
▁ܕܐܝܬܘܗܝ	-7.42923
▁ܢܒܝܐ	-7.43122
▁ܕܐܢܫܐ	-7.43445
ܝܟܘܢ	-7.43684
▁ܠܡܢ	-7.4404
▁ܠܘܬܟܘܢ	-7.44078
▁ܘܐܬ	-7.44366
▁ܒܠܚܘܕ	-7.45573
▁ܗܘܝ	-7.45633
▁ܚܕܐ	-7.46676
ܗܢܘܢ	-7.47238
▁ܕܟܠ	-7.47417
▁ܕܩܘܕܫܐ	-7.47583
▁ܠܚܕ	-7.48938
▁ܘܐܬܐ	-7.49459
▁ܒܝ	-7.49599
▁ܕܡܪܝܐ	-7.50428
▁ܡܡܠܠ	-7.50685
▁ܟܠܗܝܢ	-7.50701
▁ܫܘ	-7.51258
▁ܫܡܥ	-7.51892
▁ܪܒܝ	-7.52613
▁ܕܠܡܐ	-7.52637
▁ܐܝܕܐ	-7.53342
▁ܡܠܟܐ	-7.54812
ܝܠ	-7.5515
ܝܟ	-7.55236
▁ܒܢ	-7.56481
▁ܥܠܝܗܘܢ	-7.57612
▁ܙܒܢܐ	-7.58211
▁ܬܗܘܐ	-7.58443
▁ܚܠܦ	-7.59145
▁ܥܡܐ	-7.59686
ܠܘ	-7.60572
▁ܐܒܝ	-7.61342
▁ܒܥܐ	-7.61697
▁ܬܪܝܢ	-7.61978
▁ܡܠܐ	-7.63334
▁ܒܟܠ	-7.63514
▁ܠܝܫܘܥ	-7.63813
▁ܝܘܡܬܐ	-7.63895
▁ܒܗܝܡܢܘܬܐ	-7.65051
▁ܡܢܘ	-7.65127
▁ܒܝܕ	-7.65963
▁ܘܬ	-7.66378
▁ܕܥܠܡܐ	-7.66761
ܒܪ	-7.66831
ܡܪ	-7.67357
▁ܥܠܡܐ	-7.67482
▁ܘܝܗܒ	-7.67793
▁ܘܝ	-7.68492
▁ܛܒܐ	-7.68905
▁ܚܙܘ	-7.69749
ܘܬܗ	-7.6985
ܠܝ	-7.70118
ܬܝ	-7.70581
▁ܘܐܝܟ	-7.70979
▁ܢܤܒ	-7.72111
▁ܕܚܕ	-7.73567
ܟܝ	-7.73656
ܠܝܢ	-7.73826
▁ܨܒܝܢ	-7.74214
▁ܘܗܘܐ	-7.76132
▁ܩܡ	-7.76142
▁ܕܠܥܠܡ	-7.76564
▁ܘܐܙܠ	-7.76689
▁ܒܝܫܬܐ	-7.76778
▁ܬܠܡܝܕܐ	-7.76781
▁ܤܓܝ	-7.77717
▁ܥ	-7.77787
▁ܩܕܝܫܐ	-7.78178
▁ܗܝܡܢܘܬܐ	-7.78539
▁ܒܗܘܢ	-7.78936
▁ܥܡܡܐ	-7.79409
▁ܘܒܪ	-7.80562
▁ܒܟܠܗ	-7.80796
▁ܥܡܟܘܢ	-7.81111
▁ܥܠܝܟܘܢ	-7.81164
▁ܒܢܝܢܫܐ	-7.81303
▁ܠܚܡܐ	-7.81496
▁ܤܒܪ	-7.81568
▁ܛܝܒܘܬܐ	-7.81609
ܛܪ	-7.8169
▁ܢܚܬ	-7.81731
▁ܫܐܠ	-7.81846
▁ܢܬ	-7.82
▁ܝܘܚܢܢ	-7.82843
▁ܒܝܘܡ	-7.83185
▁ܕܐܝܟ	-7.83218
▁ܛܒ	-7.83333
▁ܠܥܠܡ	-7.8334
▁ܒܥܝܢ	-7.83742
▁ܐܚܐ	-7.84074
▁ܥܒܪ	-7.84387
▁ܫܡܥܘ	-7.84979
▁ܒܪܢܫܐ	-7.85301
ܗܢܐ	-7.85584
▁ܩܕܡܝܐ	-7.85805
▁ܡܫܟܚܝܢ	-7.85828
ܘܪ	-7.86104
▁ܕܢܗܘܐ	-7.86153
▁ܘܩܡ	-7.8622
▁ܘܢܦܩ	-7.86246
▁ܒܫܡܝܐ	-7.86333
ܪܥ	-7.86565
ܪܡ	-7.86941
▁ܕܪܘܚ	-7.87106
▁ܢܗܘܘܢ	-7.87146
▁ܕܡܐ	-7.87394
▁ܢܦܠ	-7.87463
▁ܕܐܬ	-7.87569
▁ܝܘܡܐ	-7.87652
▁ܠܐܘܪܫܠܡ	-7.87844
▁ܕܝܗܒ	-7.87851
▁ܡܠܟܘܬܐ	-7.88238
▁ܟܡܐ	-7.8824
▁ܗܢܘ	-7.88533
▁ܘܐܬܘ	-7.88619
▁ܐܬܘ	-7.88742
▁ܫܒܩ	-7.88759
ܠܝܐ	-7.88787
▁ܒܬܪܗ	-7.89073
▁ܩܠܐ	-7.89404
▁ܕܫܡܝܐ	-7.8957
ܝܕܝܢ	-7.89837
▁ܕܝܗܘܕܝܐ	-7.90005
▁ܥܝܢ	-7.90747
▁ܠܡܐ	-7.90953
▁ܒܝܫܐ	-7.91334
▁ܥܠܝ	-7.91406
▁ܬܪܥܐ	-7.91582
▁ܕܟܬܝܒ	-7.91874
▁ܐܢܝܢ	-7.91937
▁ܒܡ	-7.91986
▁ܡܝܬ	-7.92052
ܦܪ	-7.9213
▁ܘܠܡ	-7.92365
▁ܥܡܝ	-7.92715
▁ܠܒܝܬ	-7.92785
▁ܕܝܠܝ	-7.93066
▁ܗܘܝܢ	-7.93137
▁ܕܟܕ	-7.93166
▁ܫܘܠܛܢ	-7.93532
▁ܘܚܕ	-7.93538
ܡܬܝ	-7.93972
ܪܬܐ	-7.94546
ܪܝ	-7.94661
▁ܫܕܪ	-7.94755
▁ܠܓܒܪܐ	-7.94932
▁ܕܫܡܗ	-7.94935
▁ܦܪܝܫܐ	-7.9535
▁ܛܒܬܐ	-7.9547
▁ܡܗܝܡܢ	-7.95886
▁ܦܐܪܐ	-7.96304
▁ܒܪܘܚܐ	-7.9649
▁ܥܒܕܝܢ	-7.965
▁ܠܘܩܕܡ	-7.96787
ܩܘ	-7.96859
▁ܘܥܡ	-7.9691
▁ܐܤܝܪܐ	-7.96936
▁ܒܢܝܐ	-7.97197
▁ܠܒ	-7.98061
ܪܟ	-7.98598
▁ܦܝܠܛܘܤ	-7.9879
▁ܡܘܫܐ	-7.98902
▁ܕܨܒ	-7.99222
▁ܬܬ	-7.99403
ܬܟ	-7.9943
ܩܐ	-7.99912
ܥܒܕ	-8.0007
ܟܠ	-8.00482
▁ܚ	-8.00511
▁ܤܓܝܐܬܐ	-8.00796
▁ܕܐܪܥܐ	-8.01188
▁ܤܦܪ	-8.01473
ܪܘ	-8.01519
▁ܚܛܝܬܐ	-8.01678
▁ܘܩܪܒ	-8.01718
▁ܚܝ	-8.01953
▁ܫ	-8.02418
▁ܟܬܒܐ	-8.02477
ܒܠ	-8.0261
▁ܫܪܒܬ	-8.02918
ܢܗܘܘܢ	-8.02962
▁ܩܠܝܠ	-8.02997
▁ܪܫܐ	-8.03132
▁ܐܝܬܝܗ	-8.0321
▁ܚܕܬܐ	-8.03538
ܝܬܘܢ	-8.03597
▁ܪܒܬܐ	-8.03767
▁ܘܡܛܠ	-8.0455
▁ܟܬܝܒ	-8.04553
▁ܟܠܢܫ	-8.04776
ܚܝ	-8.05531
▁ܫܦܝܪ	-8.06023
ܩܢ	-8.06043
▁ܕܥܬܝܕ	-8.06414
▁ܦ	-8.06545
▁ܤܠܩ	-8.06598
▁ܫܠܝܚܐ	-8.06603
▁ܠܥܠ	-8.06648
▁ܕܗܘܐ	-8.06909
▁ܝܘܡܝܢ	-8.07026
▁ܦܘܩܕܢܐ	-8.07752
▁ܐܫܬ	-8.07849
ܘܡ	-8.07854
ܚܐ	-8.08189
▁ܐܝܬܝܗܘܢ	-8.08309
ܡܕܡ	-8.08336
▁ܫܠܝܛ	-8.08746
▁ܒܡܪܢ	-8.09011
▁ܕܠܝ	-8.09131
▁ܘܟܠܗ	-8.09259
▁ܘܚ	-8.09286
▁ܡܗܝܡܢܐ	-8.09358
▁ܫܪܝܪܐ	-8.09367
ܬܪ	-8.09776
▁ܫܠܡ	-8.09791
ܒܝ	-8.1015
▁ܕܚܝܐ	-8.10266
▁ܘܫܪܝ	-8.10814
▁ܘܒܗ	-8.10854
▁ܡܪ	-8.10921
▁ܕܒܝܬ	-8.11016
▁ܩܘܡ	-8.11422
▁ܕܡܬܩܪ	-8.11783
▁ܡܘܬܐ	-8.12309
▁ܙܒܢ	-8.12313
▁ܕܐܢܬ	-8.12494
▁ܫܠܡܐ	-8.12895
▁ܠܘܩܒܠ	-8.13119
▁ܛ	-8.13178
▁ܬܚܝ	-8.13197
▁ܫܢܝܢ	-8.13354
▁ܠܗܘ	-8.13426
▁ܤ	-8.13898
ܛܐ	-8.14386
▁ܩܕܝܡ	-8.15197
▁ܘܬܘܒ	-8.15256
▁ܕܚ	-8.15345
▁ܫܡܗ	-8.15428
▁ܒܟ	-8.1544
▁ܐܝܕܗ	-8.15464
▁ܕܡܬ	-8.15554
▁ܝܡܐ	-8.15931
▁ܒܪܘܚ	-8.15962
▁ܪܡܐ	-8.16034
▁ܠܟܠܗܘܢ	-8.16072
▁ܐܡܪܬ	-8.16505
▁ܥܬܝܕ	-8.16628
ܪܝܢ	-8.1696
▁ܘܐܡܪܘ	-8.1712
▁ܕܪܒ	-8.17244
▁ܠܥܠܡܐ	-8.1726
▁ܘܥܒܕ	-8.17454
▁ܐܘܠܕ	-8.17471
▁ܟܠܡܕܡ	-8.18086
▁ܠܐܢܫ	-8.18169
ܝܪ	-8.18276
ܕܥ	-8.18407
▁ܐܟܠ	-8.18461
▁ܩܪ	-8.18588
▁ܠܟܠ	-8.18832
▁ܫܒܥܐ	-8.19076
▁ܒܚܕ	-8.19373
ܡܢ	-8.19505
▁ܝܬܒ	-8.19829
▁ܠܬܠܡܝܕܘܗܝ	-8.19924
▁ܘܐܚܪܢ	-8.19961
ܥܠ	-8.20043
▁ܬܪܥܤܪ	-8.20072
▁ܤܡ	-8.20339
ܟܪ	-8.20889
▁ܕܡܝܐ	-8.21121
▁ܫܪܝ	-8.21301
▁ܤܝܡ	-8.21389
▁ܡܝܐ	-8.21582
ܘܒ	-8.21606
▁ܡܠܠ	-8.2169
▁ܕܬܗܘ	-8.21715
▁ܕܢܐܬ	-8.2243
▁ܒܐܪܥܐ	-8.22434
▁ܐܬܝܬ	-8.23024
▁ܕܗܠܝܢ	-8.23086
▁ܒܚ	-8.23255
▁ܘܫܕܪ	-8.23452
▁ܥܕܬܐ	-8.2346
▁ܙܒܢܝܢ	-8.23907
ܛܘ	-8.24139
ܦܠܓ	-8.24317
▁ܡܠܦ	-8.24433
▁ܕܒܫܡܝܐ	-8.24615
▁ܐܝܤܪܝܠ	-8.2466
▁ܒܟܠܙܒܢ	-8.2494
▁ܬܗܘܘܢ	-8.25076
▁ܒܐܝܕܗ	-8.2529
ܕܡܐ	-8.25464
▁ܐܝ	-8.25667
ܟܝܢ	-8.26004
▁ܢܦܫܟ	-8.26477
ܫܪ	-8.2656
▁ܦܓܪܐ	-8.26764
▁ܗܝܡܢܘ	-8.26901
V	-8.27115
▁ܕܒܪ	-8.27159
▁ܒܡܫܝܚܐ	-8.27187
▁ܠܡܐܡܪ	-8.27208
ܬܟܘܢ	-8.27328
ܓܪ	-8.27358
▁ܒܫܡܗ	-8.27593
▁ܒܝܫܘܥ	-8.27617
▁ܝܬܝܪܐ	-8.27737
▁ܩܐܡ	-8.27912
ܦܘܩ	-8.27944
ܚܘ	-8.28655
▁ܟܠܟܘܢ	-8.29083
ܝܤ	-8.29361
▁ܘܐܚ	-8.29663
▁ܘܦܩܕ	-8.29681
▁ܒܗܝܟܠܐ	-8.29682
▁ܠܦܘܠܘܤ	-8.29794
▁ܬܐ	-8.29799
ܟܐܦܐ	-8.2981
ܝܘ	-8.29849
ܫܝ	-8.29897
▁ܫܥܬܐ	-8.30008
▁ܩܥ	-8.30454
▁ܫܒ	-8.30942
▁ܘܒܬܪ	-8.31305
▁ܕܒܝܫ	-8.31342
ܩܪ	-8.31439
▁ܕܝܠܗ	-8.31618
ܫܡ	-8.31623
▁ܕܕ	-8.31629
▁ܠܥܒܕ	-8.32022
ܬܪܬܝܢ	-8.32038
▁ܚܝܠܐ	-8.3216
ܪܤ	-8.32235
▁ܕܢܤܒ	-8.32282
▁ܐܘܪܫܠܡ	-8.32311
▁ܗܪܟܐ	-8.32582
▁ܘܫ	-8.3264
▁ܢܬܠ	-8.32709
▁ܠܡܕܝܢܬܐ	-8.32739
ܚܩ	-8.32902
▁ܕܗ	-8.33067
ܓܕ	-8.33097
ܡܪܐ	-8.33272
ܓܢ	-8.33385
▁ܕܡܘܬܐ	-8.34008
▁ܝܕܥܝܢܢ	-8.34038
▁ܩܪܐ	-8.34123
ܠܬܐ	-8.34143
▁ܡܩܒܠ	-8.34788
▁ܐܬܪܐ	-8.34995
▁ܒܥܘ	-8.35021
▁ܠܡܥܒܕ	-8.35267
▁ܠܟܢܫܐ	-8.35276
▁ܢܥܒܕ	-8.35323
ܓܠܐ	-8.35376
▁ܘܚܙܐ	-8.35398
ܦܢ	-8.35631
▁ܕܩܕܡ	-8.35809
ܚܪ	-8.35931
ܥܡܕ	-8.35956
▁ܡܚ	-8.3624
▁ܐܡܪܘ	-8.36377
▁ܒܪܡ	-8.36827
▁ܩܝܡܝܢ	-8.37078
ܕܝ	-8.37152
▁ܡܪܝܡ	-8.37206
▁ܬܠܬ	-8.37212
ܗܫܐ	-8.37461
ܢܘܢ	-8.3765
▁ܒܫܠܡܐ	-8.37816
▁ܒܐܦܐ	-8.37828
▁ܒܐܘܪܚܐ	-8.37883
▁ܫܩܠ	-8.37936
▁ܕܐܝܬܝܗ	-8.37981
▁ܐܚܘܗܝ	-8.38031
▁ܨܒܝܢܗ	-8.38211
▁ܕܐܢܫ	-8.38335
▁ܠܝܘܡ	-8.38919
▁ܠܘܬܝ	-8.39033
▁ܐܒܗ	-8.39093
▁ܐܝܬܝ	-8.39106
▁ܙܪܥ	-8.39284
▁ܚܙܝܢ	-8.39896
▁ܪܫܗ	-8.4066
▁ܚܘܒܐ	-8.40707
▁ܕܡܡܠܠ	-8.4078
▁ܕܢܡܘܤܐ	-8.40841
▁ܢܦܫܝ	-8.40959
▁ܡܠܝ	-8.41044
▁ܕܙܒܢ	-8.41293
ܗܕܐ	-8.41338
▁ܘܢܗܘ	-8.41359
▁ܡܠܟ	-8.41449
▁ܬܠܬܐ	-8.41475
▁ܘܤܡ	-8.41526
▁ܐܠܦܝܢ	-8.41749
▁ܩܪܝܬ	-8.41925
ܒܘ	-8.42038
ܒܥ	-8.42122
▁ܚܤ	-8.42199
▁ܕܒܢܝ	-8.42583
▁ܫܐܠܘ	-8.4263
ܩܪܒ	-8.42696
▁ܕܒܚ	-8.42983
▁ܠܚܡ	-8.43309
▁ܫܥܬܗ	-8.4359
▁ܒܒܤܪ	-8.43591
▁ܦܩܕ	-8.43621
▁ܕܪܚܡ	-8.43662
▁ܕܒܢܝܢܫܐ	-8.43733
▁ܕܐܟܠ	-8.43943
▁ܪܚܡ	-8.44011
ܘܦ	-8.44038
▁ܐܤ	-8.44056
▁ܕܝܠܟܘܢ	-8.44104
▁ܡܠܦܢܐ	-8.44171
▁ܘܩܪܐ	-8.44268
▁ܕܢܬ	-8.44377
ܟܠܗܘܢ	-8.44471
▁ܠܘܬܗܘܢ	-8.44799
▁ܐܚܝܢ	-8.4498
ܩܠܐ	-8.45002
▁ܢܫܐ	-8.45026
▁ܒܪܝ	-8.45066
▁ܩܫܝܫܐ	-8.45079
▁ܒܗܕܐ	-8.45123
ܚܝܘܬܐ	-8.4517
ܪܬ	-8.45176
ܗܘܝܬܘܢ	-8.45264
▁ܬܫܒܘܚܬܐ	-8.45355
ܦܐ	-8.45483
▁ܥܠܝܗ	-8.45513
ܡܠܐ	-8.45628
▁ܡܐܢ	-8.45759
▁ܘܢܦܠ	-8.45879
ܠܦ	-8.45977
▁ܙܠ	-8.46144
ܡܚܕܐ	-8.46304
▁ܘܐܙܠܘ	-8.46326
▁ܫܪܪܐ	-8.46621
ܬܐܡܪ	-8.46651
▁ܡܤܗܕ	-8.46653
▁ܕܝܠܢ	-8.46658
▁ܗܝܟܠܐ	-8.46665
▁ܛܠܝܐ	-8.46679
▁ܠܚܝܐ	-8.46681
▁ܓܢܒ	-8.46762
ܕܡ	-8.46786
ܗܪܘܕܤ	-8.46794
▁ܒܡܠܬܐ	-8.46995
▁ܒܩܠܐ	-8.47111
▁ܕܗܟܢܐ	-8.47636
▁ܒܝܬܗ	-8.48752
▁ܤܗܕܘܬ	-8.48772
▁ܒܒܝܬ	-8.49509
▁ܘܫܐܠ	-8.49532
▁ܕܝܘܚܢܢ	-8.49745
▁ܡܘܗܒܬ	-8.49745
▁ܚܛܗܐ	-8.49745
▁ܟܘܡܪ	-8.49747
▁ܘܢܤܒ	-8.49751
▁ܕܤܒܪ	-8.49801
▁ܘܠܝܘܡ	-8.49877
▁ܪܓܠܘܗܝ	-8.4988
▁ܢܘܗܪܐ	-8.49997
▁ܟܬܒ	-8.50103
▁ܡܗܝܡܢܝܢ	-8.50238
▁ܫܘܒܚܐ	-8.50337
ܤܝܐ	-8.50413
▁ܘܚܙܝܬ	-8.50428
▁ܕܗܢܘܢ	-8.50552
▁ܕܡܝܬ	-8.50787
▁ܕܬܬ	-8.50868
▁ܚܡܪ	-8.5092
ܫܠܡ	-8.5094
▁ܕܤ	-8.50953
ܕܘܢ	-8.50957
▁ܕܒܪܗ	-8.50991
▁ܕܡܗܝܡܢ	-8.51018
ܩܕ	-8.51051
▁ܐܘܪܚܐ	-8.51225
▁ܒܬܪܝ	-8.51307
ܕܠܐ	-8.51611
ܘܪܐ	-8.51795
▁ܘܠܝܬ	-8.51854
▁ܢܚܐ	-8.51896
▁ܘܥܕ	-8.51902
ܢܒܐ	-8.52084
ܝܒ	-8.52118
▁ܠܐܬܪ	-8.52126
▁ܢܐܡܪ	-8.52174
▁ܕܫܡܥ	-8.5241
▁ܡܦܩ	-8.52528
▁ܢܛܪ	-8.52632
▁ܘܡܚ	-8.5287
▁ܘܦܪܝܫܐ	-8.52971
▁ܐܚܪܝܐ	-8.52985
▁ܕܢܒܝܐ	-8.5299
▁ܕܕܘܝܕ	-8.5317
ܡܟܐ	-8.53309
▁ܐܫܟܚ	-8.53319
▁ܐܒܘܗܝ	-8.53403
▁ܠܒܪܗ	-8.53572
▁ܪܘܚܗ	-8.53677
▁ܐܚܕ	-8.53694
▁ܐܬܪ	-8.53783
▁ܓ	-8.53827
▁ܘܫܡܥ	-8.54067
ܪܝܡ	-8.54121
ܒܛܠ	-8.5424
ܥܬ	-8.54494
▁ܙܠܘ	-8.54508
▁ܦܘܡܗ	-8.54627
▁ܒܝܡܐ	-8.54794
▁ܘܒܥܝܢ	-8.54862
▁ܠܡܘܬܐ	-8.54998
ܬܫܒܘܚܬܐ	-8.55118
▁ܕܥܡ	-8.55442
▁ܕܢܦܩ	-8.55564
▁ܕܚܠ	-8.55646
▁ܘܥܢ	-8.55712
▁ܐܒܪܗܡ	-8.56304
▁ܟܘܪܤܝܐ	-8.56309
▁ܘܤܠܩ	-8.56313
▁ܩܒܘܪܐ	-8.56326
▁ܒܢܡܘܤܐ	-8.56383
ܠܘܢ	-8.56435
▁ܒܥܠܡܐ	-8.5655
ܤܡ	-8.56984
▁ܐܬܬ	-8.57182
▁ܠܒܢܝ	-8.57233
▁ܐܠܘ	-8.57267
▁ܕܓܠܐ	-8.57337
▁ܐܩܝܡ	-8.57913
ܤܪ	-8.57922
ܬܫܡܫܬܐ	-8.5809
ܕܢܐ	-8.58253
ܘܕܐ	-8.58294
▁ܦܓܪ	-8.58366
ܟܬܒ	-8.58423
▁ܘܡܕܡ	-8.58479
▁ܒܗܘ	-8.5873
ܤܝܒܪ	-8.58803
▁ܡܫ	-8.58909
ܢܘܗܝ	-8.59222
ܬܪܝܢ	-8.59391
▁ܒܐܘܪܫܠܡ	-8.59752
▁ܐܡܗ	-8.59825
▁ܥܠܡܝܢ	-8.59845
▁ܒܦܓܪ	-8.60078
ܚܡ	-8.60396
ܘܬܗܘܢ	-8.60408
ܚܢ	-8.60452
▁ܫܐܕܐ	-8.60541
ܪܟܐ	-8.61283
▁ܕܐܚ	-8.61512
▁ܥܒܕܘܗܝ	-8.62069
▁ܕܝܬܒ	-8.62245
▁ܘܫܩܠ	-8.62322
ܬܝܗܒ	-8.62323
ܡܕܝܢܬܐ	-8.62353
▁ܩܕܡܘܗܝ	-8.62487
▁ܝܡܝܢ	-8.62736
▁ܤܒܪܐ	-8.62788
▁ܬܘ	-8.62837
▁ܒܐܝܕܝ	-8.62959
▁ܐܬܚܙܝ	-8.63324
▁ܕܐܙܠ	-8.63336
▁ܡܠܟܘܬܗ	-8.63485
▁ܫܪܐ	-8.6356
▁ܕܥܡܡܐ	-8.63628
▁ܢܐܬܐ	-8.63782
▁ܘܤܦܪܐ	-8.63895
▁ܕܫܘ	-8.63967
▁ܥܒܕܘ	-8.63996
ܪܡܐ	-8.63999
▁ܕܢܚܙ	-8.64011
ܠܚ	-8.64015
▁ܕܥ	-8.6407
▁ܘܤ	-8.64335
▁ܘܟܐ	-8.64396
▁ܩܝܡ	-8.64616
▁ܫܒܥ	-8.6469
▁ܕܝܕܥ	-8.65298
▁ܕܐܝܬܝܗܘܢ	-8.65351
ܦܬܚ	-8.65524
ܗܠܝܢ	-8.65567
ܝܕܐ	-8.65574
▁ܪܘ	-8.65595
▁ܒܤܪ	-8.65645
▁ܫܡܥܝܢ	-8.65734
ܘܬ	-8.65758
▁ܘܐܢܬ	-8.6586
ܘܠܐ	-8.65868
▁ܕܢܐܙܠ	-8.65889
ܪܘܚܐ	-8.66451
▁ܡܪܗ	-8.66789
ܩܐܡ	-8.66842
ܥܐ	-8.66845
▁ܕܫܕܪܢܝ	-8.67061
▁ܐܚܪܬܐ	-8.67066
▁ܠܒܢܝܢܫܐ	-8.67107
▁ܫܦܝܪܐ	-8.67137
▁ܪܥܝܢܐ	-8.67141
ܒܥܐ	-8.67175
▁ܠܛܘܪܐ	-8.67249
▁ܐܦܩ	-8.67321
▁ܡܠܬܗ	-8.67382
ܥܘܠ	-8.67593
▁ܠܡܪܢ	-8.67608
▁ܚܙܝܬ	-8.68002
▁ܒܪܐ	-8.68009
▁ܝܗܘܕܐ	-8.68159
▁ܕܝܡܐ	-8.68418
▁ܕܚܝ	-8.6849
▁ܡܚܕܐ	-8.68633
▁ܒܕܡܘܬ	-8.68895
▁ܡܗܠܟܝܢ	-8.68974
▁ܠܟܝ	-8.69145
▁ܕܠܗ	-8.69228
ܤܐ	-8.69229
▁ܐܪܒܥ	-8.69284
▁ܐܙܕܗܪ	-8.69561
▁ܒܝܬܐ	-8.69567
▁ܥܠܝܟ	-8.69707
▁ܘܥ	-8.69808
▁ܥܤܪ	-8.69829
▁ܐܕܢ	-8.69868
▁ܕܐܡܪܝܢ	-8.70076
▁ܠܒܝܬܗ	-8.70195
▁ܒܥܠ	-8.70264
▁ܚܒܝܒܝ	-8.70401
▁ܘܕܡ	-8.70469
▁ܘܝܬܒ	-8.70953
▁ܕܫܡܥܘ	-8.71138
▁ܒܠܠܝܐ	-8.71146
▁ܩܛܠ	-8.71218
▁ܤܛܢܐ	-8.71285
▁ܒܟܬܒ	-8.71405
▁ܕܚܙܐ	-8.71472
ܝܡܐ	-8.71547
▁ܡܕܝܢ	-8.71573
ܐܝܩܪܐ	-8.71726
▁ܤܡܝܐ	-8.71865
▁ܘܚܪ	-8.71965
▁ܕܢܬܠ	-8.71992
▁ܐܥܒܕ	-8.72146
▁ܚܫ	-8.72287
ܛܝܒܘܬܗ	-8.72311
ܓܐ	-8.72694
▁ܚܡܫ	-8.72809
ܗܟܢܐ	-8.72864
▁ܘܫܡܥܬ	-8.73049
▁ܥܬܝܪܐ	-8.73452
▁ܚܟܡܬ	-8.73657
▁ܘܒܟܠ	-8.73747
▁ܚܙܝ	-8.7406
ܟܤܐ	-8.74555
▁ܡܛܝ	-8.74739
▁ܘܒܢܝ	-8.74827
▁ܘܩܫܝܫܐ	-8.74874
▁ܢܗܘܝܢ	-8.74876
▁ܕܚܙܝܢ	-8.74877
▁ܠܫܡܥܘܢ	-8.74878
▁ܠܐܚܘܗܝ	-8.74903
▁ܕܫܪܪܐ	-8.74925
▁ܠܫܡܝܐ	-8.74945
ܠܥܤ	-8.74989
▁ܘܤܓܝܐܐ	-8.75007
▁ܘܢܦܩܘ	-8.75108
ܗܝ	-8.75108
▁ܐܒܘܢ	-8.75352
▁ܕܕܚܠ	-8.75355
ܘܫ	-8.75518
▁ܘܫܒܩ	-8.75735
▁ܚܘܝ	-8.7626
▁ܕܩܝܡ	-8.76268
▁ܟܝ	-8.76541
▁ܢܦܫܟܘܢ	-8.76587
▁ܝܘܠܦܢ	-8.76592
ܫܟ	-8.76894
ܘܡܐ	-8.76949
ܗܘܝܘ	-8.77082
ܚܕ	-8.77159
▁ܚܡܫܐ	-8.77213
▁ܐܚ	-8.77303
▁ܠܥܡܐ	-8.77329
ܬܗܘܢ	-8.77386
▁ܟܤ	-8.77513
▁ܕܢܚܬ	-8.77848
▁ܚܪ	-8.78143
▁ܕܦ	-8.7818
▁ܙ	-8.78274
▁ܚܒܝܒܐ	-8.78283
ܥܗܕ	-8.78384
▁ܐܦܝ	-8.78428
▁ܠܡܠܟܘܬ	-8.78671
▁ܢܫ	-8.78672
ܒܗ	-8.78778
ܪܫ	-8.78836
▁ܝܕ	-8.78904
▁ܡܫܒܚ	-8.79072
▁ܕܚܝܠ	-8.79079
▁ܕܚܢܢ	-8.79093
▁ܕܢܐܡܪ	-8.79128
▁ܠܡܐܟܠ	-8.79153
▁ܕܚܠܬܐ	-8.79218
▁ܢܩܘܡ	-8.79258
▁ܕܘܝܕ	-8.79275
▁ܕܢܘܪܐ	-8.79311
▁ܥܡܟ	-8.79336
▁ܘܒܥ	-8.79358
▁ܢܘܪܐ	-8.79384
ܪܫܐ	-8.79591
ܟܬܘܒ	-8.7966
▁ܙܥܘܪܐ	-8.79873
▁ܐܫܟܚܘ	-8.80217
▁ܡܟܤܐ	-8.80283
ܝܦ	-8.80507
▁ܩܒܠ	-8.80606
▁ܤܗܕ	-8.80627
ܡܠܬܐ	-8.8069
ܩܘܪܝܐ	-8.80979
ܐܪܥܐ	-8.8101
▁ܚܝܘܬܐ	-8.81211
ܢܝܐ	-8.81304
▁ܐܘܠܨܢܐ	-8.81474
▁ܦܪ	-8.81595
▁ܘܡܠܦ	-8.8172
▁ܘܫܠܡܐ	-8.81749
▁ܕܟܠܗܘܢ	-8.82234
ܝܟܐ	-8.82331
▁ܡܚܘ	-8.82383
▁ܟܢܫ	-8.82566
ܪܒܐ	-8.82631
▁ܡܤ	-8.82965
▁ܚܝܒ	-8.82976
▁ܘܡܝܬ	-8.82982
▁ܒܫ	-8.83065
ܘܬܟܘܢ	-8.83179
▁ܕܨ	-8.83265
▁ܚܛܝܐ	-8.83389
▁ܝܘܤܦ	-8.83395
▁ܒܝܢܬܗܘܢ	-8.83398
▁ܕܓܒܪܐ	-8.83414
▁ܕܥܡܗ	-8.83482
▁ܘܐܠܗ	-8.83515
▁ܡܡܠܠܝܢ	-8.83534
▁ܕܕܠ	-8.83573
▁ܠܟܠܢܫ	-8.83692
▁ܒܗܝ	-8.83744
▁ܘܗܝ	-8.83957
▁ܐܚܪܝܢ	-8.84113
▁ܝܥܩܘܒ	-8.84181
▁ܠܐܪܥܐ	-8.84195
▁ܠܕ	-8.84488
ܝܩ	-8.84516
ܩܘܡ	-8.84672
▁ܦܬܚ	-8.8482
▁ܘܢܫ	-8.85169
▁ܘܡܐ	-8.85198
▁ܢܦܫܢ	-8.85341
▁ܬܚ	-8.85926
▁ܒܕ	-8.86178
ܫܡܫ	-8.86217
▁ܘܐܫܟܚ	-8.86231
▁ܐܢܬܬܗ	-8.86292
▁ܐܬܝܢ	-8.86637
▁ܕܝܕܥܝܢ	-8.86718
▁ܘܩ	-8.86969
▁ܢܦܫܗܘܢ	-8.8745
▁ܠܘ	-8.87544
▁ܗܝܡܢ	-8.87813
▁ܕܢܦܠ	-8.87883
▁ܤܥܪ	-8.87923
▁ܕܐܒܪܗܡ	-8.87934
▁ܪܗܛ	-8.87934
▁ܕܩܕܝܫܐ	-8.87934
▁ܦܬܓܡܐ	-8.87949
▁ܛܝܒܘ	-8.87979
▁ܝܪܬ	-8.88007
▁ܡܤܒܪ	-8.88022
▁ܡܬܚܙܐ	-8.88059
▁ܠܒܝܫ	-8.88167
▁ܪܚܡܐ	-8.88295
▁ܢܦܩܬ	-8.88356
▁ܠܐܚܪܢܐ	-8.8836
▁ܒܟܝ	-8.88472
▁ܕܗܝܡܢܘܬܐ	-8.88518
▁ܘܕܒܪ	-8.88528
▁ܒܡܕܝܢܬܐ	-8.88536
ܩܕܡ	-8.88574
▁ܕܛܒ	-8.88604
▁ܙܪܥܐ	-8.88762
▁ܕܕܗܒܐ	-8.88855
▁ܪܘܚ	-8.88917
ܥܝܪ	-8.88941
ܠܒܫ	-8.88993
▁ܢܦܩܘ	-8.89246
▁ܦܓܪܗ	-8.89305
ܪܝܐ	-8.89351
▁ܗܕܡ	-8.89551
ܩܛܘܠ	-8.8957
▁ܐܪܡܝ	-8.89604
▁ܘܒܪܟ	-8.89687
▁ܕܠܘܬ	-8.89757
▁ܡܫܟܚܐ	-8.90073
▁ܠܡܚ	-8.9011
▁ܩܕܡܝ	-8.90362
ܘܕ	-8.905
ܒܝܕ	-8.90786
▁ܢܫܡܥ	-8.90822
ܒܘܢ	-8.91157
ܦܝܠܝܦ	-8.915
▁ܛܘܪ	-8.91552
ܚܨܕ	-8.91642
▁ܕܝܠܟ	-8.91918
▁ܓܒ	-8.91983
ܩܨ	-8.92243
ܢܗܪ	-8.92318
▁ܕܥܡܐ	-8.92434
▁ܐܝܕܝ	-8.92495
ܪܢ	-8.92586
▁ܛܢܦܬܐ	-8.92695
▁ܦܪܨܘܦ	-8.92695
▁ܕܡܫܟܚ	-8.92696
▁ܒܐܠܗܐ	-8.92697
▁ܟܦܢ	-8.92704
▁ܠܗܝܟܠܐ	-8.92707
▁ܒܝܢܬܟܘܢ	-8.92712
ܐܢܬܘܢ	-8.92749
▁ܡܦܤ	-8.92762
ܩܕܫ	-8.92868
▁ܥܘܠܐ	-8.9292
▁ܕܥܐܠ	-8.92922
▁ܐܒܘܟ	-8.9293
▁ܝܘܡܢܐ	-8.92939
ܤܘܓܐ	-8.92947
▁ܦܩܚ	-8.9302
▁ܤܦ	-8.93064
▁ܥܩܪ	-8.93069
▁ܦܨܚܐ	-8.93099
▁ܟܢܘܫܬܐ	-8.93108
▁ܬܢܢ	-8.93218
▁ܡܫܡܫܢܐ	-8.93257
▁ܐܟܚܕܐ	-8.93516
▁ܐܚܒ	-8.93534
▁ܘܗܦܟ	-8.93584
▁ܕܡܠܠ	-8.93651
▁ܢܫܬ	-8.93695
▁ܕܐܒܐ	-8.93814
▁ܝܕܥܘ	-8.93962
▁ܩܕܡܝܬܐ	-8.94003
▁ܒܥܠܕܒܒ	-8.94164
ܡܘܬ	-8.94345
ܫܡܥ	-8.94579
ܘܢܢܝ	-8.94604
▁ܡܢܟ	-8.94678
▁ܕܡܟ	-8.94744
▁ܘܝܕܥ	-8.94851
ܘܚ	-8.95008
▁ܫܡܫܐ	-8.95191
▁ܩܠܗ	-8.95358
▁ܠܗܫܐ	-8.95586
▁ܥܡܢ	-8.96
▁ܕܟܠܗ	-8.96331
▁ܕܥܡܪ	-8.96339
ܥܪܩ	-8.96575
▁ܒܤ	-8.96714
▁ܘܐܒ	-8.9714
ܫܢܐ	-8.97513
ܒܝܢ	-8.97626
ܙܝܥ	-8.97663
▁ܕܬܕܥܘܢ	-8.97697
▁ܕܓܠܝܠܐ	-8.97698
▁ܐܪܙ	-8.977
▁ܕܝܬܝܪ	-8.97701
▁ܫܥܝܢ	-8.97701
▁ܐܝܠܢܐ	-8.97704
▁ܡܩܘܐ	-8.97735
▁ܪܚܝܩ	-8.97783
▁ܢܐܬܘܢ	-8.97853
▁ܒܚܝܠܐ	-8.97856
▁ܒܚܘܒܐ	-8.97908
▁ܒܫܥܬܐ	-8.97952
▁ܘܐܬܝܗܒ	-8.97971
▁ܚܠܝܡ	-8.98
▁ܥܢܢ	-8.9803
▁ܒܫܒܬܐ	-8.98062
▁ܠܥܕܬܐ	-8.98154
▁ܕܢܥܒܕ	-8.98158
▁ܕܚܙܘ	-8.98221
▁ܚܕܘܬܐ	-8.98231
▁ܕܢܛܪ	-8.98279
▁ܓܙܘܪܬܐ	-8.98347
▁ܪܝܫ	-8.98436
▁ܫܪܟܐ	-8.98496
▁ܨܠܘ	-8.98557
▁ܗܦܟ	-8.98615
▁ܒܝܫ	-8.98666
▁ܦܝܠܝܦ	-8.98971
▁ܘܩܕܡ	-8.99077
▁ܒܠܚܘܕܘܗܝ	-8.99305
▁ܒܗܠܝܢ	-8.99314
ܠܟ	-8.9946
▁ܘܐܢܫ	-8.99516
▁ܕܟܬܒ	-8.9963
▁ܘܩܪ	-8.99636
▁ܬܪ	-8.99887
▁ܙܕܝܩܐ	-8.99935
ܕܘ	-8.99962
ܐܟܘܠ	-9.00036
▁ܤܗܕܐ	-9.00062
ܟܦܘܪ	-9.00106
▁ܕܬܪܬܝܢ	-9.00288
ܕܩ	-9.00345
▁ܤܒ	-9.00375
▁ܒܗܝܢ	-9.00436
▁ܐܡܬ	-9.00508
▁ܫܡܝ	-9.00666
ܟܢܫ	-9.00687
▁ܠܫܢ	-9.00717
▁ܘܬܗܘ	-9.00841
▁ܕܦܪ	-9.0137
▁ܕܥܘ	-9.0149
▁ܕܩ	-9.01671
▁ܕܒܤܪܐ	-9.01797
▁ܡܥ	-9.0204
ܛܝܒ	-9.02049
ܘܕܝ	-9.02263
ܡܪܢ	-9.02451
ܫܦܪ	-9.02805
▁ܕܐܩܝܡ	-9.02959
▁ܘܐܬܚܙܝ	-9.02959
▁ܕܤܥܪ	-9.02961
▁ܘܐܪܒܥ	-9.02962
▁ܟܦܪ	-9.02972
▁ܢܨܪܝܐ	-9.02972
▁ܡܐܟܘܠܬܐ	-9.02984
▁ܡܐܬ	-9.02988
▁ܤܓܕ	-9.0303
▁ܢܦܫ	-9.03066
▁ܒܟܢܘܫܬܐ	-9.031
▁ܤܐܡ	-9.03111
▁ܒܥܓܠ	-9.03188
▁ܠܥܡܡܐ	-9.03204
▁ܡܨܠܐ	-9.03207
▁ܛܘܒ	-9.03273
▁ܒܝܡ	-9.03425
▁ܡܚܒ	-9.03425
▁ܟܪܝܗܐ	-9.03435
▁ܘܡܡܠܠ	-9.03487
▁ܡܘܠܟܢܐ	-9.03511
ܝܘܠܦܢܐ	-9.03554
ܒܙܚ	-9.03605
▁ܘܐܟܠ	-9.03621
ܙܟܐ	-9.03626
▁ܚܙ	-9.03649
▁ܥܝܢܝܗܘܢ	-9.03737
▁ܕܟܝܐ	-9.03772
▁ܒܓܠܐ	-9.03888
▁ܥܝܢܘܗܝ	-9.04057
▁ܘܠܡܢ	-9.04209
▁ܥܪܩ	-9.0424
▁ܥܪܒ	-9.04245
ܦܪܩ	-9.04415
▁ܕܪܥ	-9.04429
▁ܟܬܒܬ	-9.04504
ܟܡܐ	-9.04713
ܝܘܤ	-9.04811
▁ܘܢܚܬ	-9.04919
ܚܪܝܢܐ	-9.04949
▁ܟܐܢܘܬܐ	-9.04967
▁ܕܫܦܝܪ	-9.0498
▁ܥܢܝ	-9.05045
▁ܙܥܘܪ	-9.0505
▁ܐܪܒܥܝܢ	-9.05183
▁ܘܢܚ	-9.05344
▁ܚܝܠܗ	-9.05555
▁ܕܫܡܥܝܢ	-9.05619
▁ܡܗܠܟ	-9.05639
▁ܚܨ	-9.05652
▁ܐܦܢ	-9.05675
▁ܥܒܕܗ	-9.0577
▁ܝܠܕ	-9.0584
▁ܕܫܪ	-9.06227
▁ܢܐܙܠ	-9.06369
▁ܓܘ	-9.06381
▁ܠܓܘ	-9.06385
▁ܕܗܝ	-9.06497
ܕܠܝܬ	-9.06697
▁ܛܘܒܝܗ	-9.06776
▁ܕܚܙܝܬ	-9.06869
▁ܘܐܪܡܝ	-9.069
▁ܐܠܦ	-9.06996
▁ܕܡܬܩܪܝ	-9.07094
ܡܚܐ	-9.07148
▁ܕܚܫ	-9.07164
▁ܕܐܒܝ	-9.07221
▁ܕܢܫ	-9.07251
▁ܘܐܫܬ	-9.073
▁ܘܠܗ	-9.07749
ܡܘܢ	-9.07761
▁ܕܬܠܬ	-9.07917
▁ܒܢܦܫܗ	-9.07949
ܩܠܝܠ	-9.07951
ܐܤܘܪ	-9.07999
▁ܫܠܝ	-9.083
▁ܡܫܡܫ	-9.08427
▁ܐܚܝܕ	-9.0845
ܬܗܝܡܢ	-9.08488
▁ܠܓܠܝܠܐ	-9.08514
▁ܒܫܡܝ	-9.08527
▁ܟܘܒ	-9.08528
▁ܕܤܠܩ	-9.0853
▁ܘܩܛܠ	-9.08544
▁ܕܦܩܕ	-9.08545
▁ܘܢܐܡܪ	-9.0856
▁ܕܘܟܬ	-9.08561
▁ܕܚܛܝܬܐ	-9.08581
▁ܘܤܒܪ	-9.08607
▁ܘܚܢܢ	-9.08618
▁ܒܢܘܪܐ	-9.08634
▁ܘܬܡܢ	-9.08672
▁ܐܤܝܪ	-9.08693
▁ܢܥܒܪ	-9.08714
▁ܒܫܠܡܟ	-9.08718
ܤܟܠ	-9.08738
▁ܕܝܘܐ	-9.0875
ܦܝ	-9.08771
ܡܟ	-9.08828
▁ܟܐܢܐ	-9.08851
▁ܠܡܫܡܥ	-9.08853
▁ܦܠܚܐ	-9.0886
▁ܡܘܡ	-9.08864
ܝܬܪ	-9.08885
▁ܡܘܕܐ	-9.0891
▁ܩܪܝܒ	-9.08918
▁ܢܫܠܡ	-9.08919
ܛܡܐ	-9.08962
▁ܪܓ	-9.08976
▁ܕܦܓܪܐ	-9.08982
ܡܨܪܝܢ	-9.08996
▁ܗܝܡܢܘܬܟܘܢ	-9.091
▁ܐܬܝܠܕ	-9.09119
▁ܠܡܪܝܐ	-9.09124
▁ܘܓܒܪ	-9.0915
▁ܒܡܝܐ	-9.09276
▁ܕܡܘܫܐ	-9.09306
▁ܥܡܪ	-9.09352
▁ܒܢܦܫܗܘܢ	-9.09392
ܘܤܦ	-9.09407
▁ܪܕܦ	-9.09496
▁ܪܫܝܢ	-9.09571
▁ܩܕܝܫ	-9.09597
ܨܘ	-9.09718
▁ܡܛܝܒ	-9.09772
▁ܕܢܫܪ	-9.0979
▁ܕܢܦܫܗ	-9.0983
▁ܕܢܚ	-9.09898
▁ܐܫܟܚܬ	-9.09938
▁ܕܝܠܗܘܢ	-9.10334
▁ܝܗܒܬ	-9.10353
ܥܤܪ	-9.10422
▁ܐܙܠܝܢ	-9.1051
ܫܝܢ	-9.10611
ܤܝܘ	-9.10637
ܙܒܢ	-9.10754
▁ܘܫܡܥܘ	-9.10835
ܒܢܝ	-9.11054
▁ܤܝܡܬ	-9.11196
▁ܐܠܦܐ	-9.11361
▁ܢܗܪ	-9.11372
▁ܟܤܦܐ	-9.11407
▁ܝܠܦ	-9.11613
▁ܠܢܦܫܗ	-9.11665
▁ܥܡܕ	-9.1168
▁ܘܠܒ	-9.11712
▁ܚܟܝܡܐ	-9.11713
▁ܗܒ	-9.11749
ܦܘܪ	-9.11778
▁ܒܥܒܕܐ	-9.11824
▁ܠܒܝܬܐ	-9.12003
▁ܕܡܗܝܡܢܝܢ	-9.1201
ܥܢܐ	-9.12107
ܢܫ	-9.12154
▁ܝܗܘܕ	-9.12383
ܝܗܘܕܝܐ	-9.12434
▁ܠܡܪܝ	-9.12698
ܨܒ	-9.12756
▁ܩܢܝ	-9.12892
▁ܫܠ	-9.12926
▁ܒܤܪܐ	-9.13046
▁ܠܘܬܟ	-9.1305
ܡܩܕܘܢܝܐ	-9.13805
▁ܥܠܬܐ	-9.13975
▁ܚܠܐ	-9.14106
ܥܙ	-9.14126
ܡܫܚ	-9.14135
▁ܘܐܚܕ	-9.14176
▁ܕܡܠܐ	-9.14181
▁ܝܘ	-9.14297
▁ܓܠܝܠܐ	-9.14397
▁ܐܬܡܠܝ	-9.14397
▁ܐܫܬܟܚ	-9.14401
▁ܒܨܒܝܢ	-9.14404
▁ܘܡܫܐܠ	-9.14413
▁ܤܢܝܩ	-9.14418
▁ܘܪܚܡ	-9.14421
ܤܛܪ	-9.14453
ܬܟܪܙ	-9.14454
ܛܘܤ	-9.14457
▁ܡܬܚܫܒ	-9.14458
▁ܡܫܕܪ	-9.14509
ܫܠܚ	-9.14599
▁ܠܡܫܝܚܐ	-9.14614
▁ܕܤܓܝܐܐ	-9.14642
ܦܠ	-9.14697
▁ܙܢܝ	-9.14725
▁ܤܡܝܟ	-9.14777
ܬܝܕܥ	-9.14834
▁ܩܢܛܪܘܢ	-9.14949
▁ܐܬܟܢܫܘ	-9.14949
▁ܦܬܟܪܐ	-9.15023
▁ܕܬܠܬܐ	-9.15246
▁ܕܫܒܬܐ	-9.15342
▁ܐܫܠܡ	-9.15374
▁ܡܟܝܟ	-9.1538
▁ܢܚܙܘܢ	-9.15422
▁ܩܘܪ	-9.15508
▁ܢܤܒܝ	-9.15556
▁ܘܙܒܢ	-9.15672
ܡܦܩ	-9.15692
ܪܒ	-9.15739
▁ܕܐܚܝܕ	-9.15765
ܚܠܦ	-9.15788
▁ܥܘܠ	-9.16151
▁ܟܪܝܗ	-9.16344
▁ܠܟܠܗ	-9.16459
▁ܘܫܬܐ	-9.16474
▁ܦܪܩ	-9.17219
▁ܕܩܡ	-9.17322
▁ܒܤܝܡ	-9.17357
▁ܘܐܬܬ	-9.1749
▁ܕܫܡܥܘܢ	-9.17862
ܦܤܩ	-9.17886
▁ܢܚܘ	-9.17914
▁ܫܡܥܬܘܢ	-9.18126
▁ܫܡܥܬ	-9.18202
▁ܘܪ	-9.18232
▁ܠܡܕܥ	-9.18281
▁ܠܡܤܒ	-9.18346
▁ܡܫܬ	-9.18371
▁ܒܙܒܢ	-9.18524
▁ܘܒܡ	-9.18557
▁ܕܚܛ	-9.18639
▁ܘܡܠܟ	-9.18736
ܫܪܒܬ	-9.18776
ܫܘܒܚܐ	-9.18987
▁ܫܪܝܪ	-9.19462
▁ܘܒܝܬ	-9.19485
ܤܩ	-9.19553
▁ܕܨܒܝܢ	-9.19555
▁ܨ	-9.19637
▁ܐܓܪܐ	-9.19724
ܨܠܘܬܐ	-9.19785
▁ܘܟܢܫ	-9.19849
ܠܛ	-9.19863
▁ܬܕܚܠ	-9.19924
ܫܬܠܡ	-9.19975
▁ܢܚܫ	-9.20006
ܩܠ	-9.20089
ܚܘܢ	-9.20131
ܪܟܘܢ	-9.20471
ܝܡܬܐ	-9.20529
▁ܐܚܪܢܝܬܐ	-9.20646
▁ܘܝܘܚܢܢ	-9.20646
▁ܚܛܗܝܢ	-9.20647
▁ܝܨܦ	-9.20647
▁ܐܬܕܟܪ	-9.20647
▁ܘܝܬܝܪ	-9.20654
▁ܘܐܬܦܢܝ	-9.20655
▁ܠܡܡܠܠܘ	-9.20657
▁ܘܢܒܝܐ	-9.20673
▁ܝܪܚ	-9.20691
▁ܕܐܝܤܪܝܠ	-9.20692
▁ܡܘܕܝܢ	-9.20699
▁ܙܕܝܩܘܬܐ	-9.20714
▁ܕܡܛܠ	-9.20765
▁ܡܡܬܘ	-9.20788
ܒܘܬܐ	-9.20824
ܚܦܛ	-9.20847
▁ܒܛܝܠ	-9.20903
▁ܠܡܤܟܢܐ	-9.20943
▁ܕܐܫܬ	-9.20948
▁ܦܠܚ	-9.21118
▁ܠܐܒܘܗܝ	-9.21123
▁ܘܢܛܪ	-9.21143
▁ܩܘܪܒܢܐ	-9.21158
▁ܩܕܝܫܬܐ	-9.21197
▁ܘܚܙܘ	-9.21261
▁ܠܡܦܩ	-9.21283
▁ܗܢܝܢ	-9.21294
▁ܫܕܪܬ	-9.21363
▁ܐܪܡܠܬܐ	-9.21402
▁ܒܟܠܡܕܡ	-9.21422
▁ܦܪܫ	-9.21464
▁ܡܛܪ	-9.21594
▁ܘܚܝܐ	-9.21629
▁ܐܬܪܚܡ	-9.21674
▁ܕܪܝܫ	-9.21684
▁ܢܦܫܐ	-9.21753
ܥܕܬܐ	-9.21824
▁ܘܪܘܚ	-9.21876
▁ܐܬܠ	-9.21963
▁ܕܡܝܬܪ	-9.22107
▁ܢܐܡܪܘܢ	-9.22314
ܪܢܐ	-9.22424
▁ܕܚܪ	-9.22723
▁ܒܪܝܬܐ	-9.22805
▁ܐܪܥ	-9.22997
ܪܓܙ	-9.234
ܝܥܩܘܒ	-9.23551
▁ܘܫܘ	-9.23562
▁ܚܘܒ	-9.23767
ܡܠܠ	-9.23801
ܚܘܬ	-9.23971
ܬܗܘܘܢ	-9.24079
▁ܪܘܪܒܐ	-9.24117
ܠܨ	-9.24466
▁ܒܒܝܬܗ	-9.24469
ܓܪܬ	-9.24582
ܕܗܒܐ	-9.24661
ܒܝܠ	-9.24668
ܗܦܟ	-9.24771
ܦܝܢ	-9.24895
▁ܩܘ	-9.25105
▁ܡܢܝ	-9.25278
ܚܟܡܬ	-9.25653
ܓܝܪܐ	-9.25734
▁ܬܟܝܠ	-9.25817
ܫܘܒܚܗ	-9.25944
▁ܕܩܒܠ	-9.26312
▁ܕܒܢ	-9.26337
ܬܚܝܒ	-9.26468
ܨܪ	-9.26707
ܟܢܫܐ	-9.26832
▁ܕܐܬܘ	-9.2695
ܕܝܫ	-9.2723
▁ܫܐܘܠ	-9.27314
▁ܠܕܘܟܬ	-9.27314
▁ܠܡܩܡ	-9.27319
ܫܝܘܠ	-9.27324
▁ܠܬܡܢ	-9.27329
▁ܠܡܗܘܐ	-9.2733
▁ܕܦܪܝܫ	-9.27337
▁ܘܚܝܠܐ	-9.27337
ܠܥܙܪ	-9.27348
▁ܬܗܝܡܢܘܢ	-9.27359
▁ܡܫܠܡ	-9.27365
▁ܡܚܝܒ	-9.27369
ܝܘܬܐ	-9.27413
▁ܕܟܐܢܘܬܐ	-9.27419
▁ܐܤܛܪܛܝܘܛܐ	-9.2744
▁ܥܢܘ	-9.27474
▁ܐܟܠܩܪܨܐ	-9.27524
▁ܡܥܡܕܢܐ	-9.2758
▁ܕܬܘܒ	-9.27596
▁ܕܩܪܐ	-9.27633
▁ܙܢܝܘܬܐ	-9.2766
▁ܥܐܠ	-9.27676
▁ܘܐܫܠܡ	-9.27739
ܒܘܝܐܐ	-9.27745
▁ܐܓܪܬܐ	-9.27781
▁ܐܫܥܝܐ	-9.2786
▁ܠܒܘܬܟܘܢ	-9.2798
▁ܢܕܥ	-9.28004
▁ܬܪܝܗܘܢ	-9.28082
▁ܒܫܡ	-9.28096
ܚܬܢܐ	-9.28172
▁ܬܕܚܠܘܢ	-9.28217
▁ܢܨ	-9.28252
▁ܡܬܛܦܝܤܝܢ	-9.28278
ܠܠܝܐ	-9.28307
ܩܒܪ	-9.28438
ܟܠܡܕܡ	-9.28534
▁ܠܡܬܠ	-9.28568
▁ܘܥܒܪ	-9.28612
▁ܟܠܝ	-9.2863
▁ܟܐ	-9.28667
▁ܕܥܒܪ	-9.28719
ܬܘܢܝܗܝ	-9.28739
▁ܒܘܪܟ	-9.28866
▁ܩܕܡܝܟ	-9.29061
▁ܥܒܕܝ	-9.29087
▁ܫܬ	-9.29321
▁ܬܒ	-9.29331
ܦܥ	-9.29452
▁ܕܚܠܬ	-9.29456
▁ܒܥܡ	-9.29488
▁ܐܝܕܝܐ	-9.29592
▁ܐܟܪܙ	-9.29661
▁ܩܡܬ	-9.29697
▁ܒܩܢ	-9.29704
▁ܤܟܠ	-9.29819
▁ܚܪܫ	-9.29895
▁ܕܩܤܪ	-9.29913
▁ܡܠܠܬ	-9.29943
▁ܦܠ	-9.29983
▁ܚܫܘܟܐ	-9.30206
▁ܒܠܫܢܐ	-9.30242
▁ܒܬܐ	-9.30325
▁ܫܒܚ	-9.30454
▁ܛܥܝ	-9.30515
ܚܘܒܗ	-9.30731
▁ܕܢܫܡܥ	-9.30749
▁ܠܐܒܝ	-9.30757
ܥܒܪ	-9.30814
ܒܝܫܘܥ	-9.31115
▁ܥܒܕܬ	-9.31137
▁ܒܠܒ	-9.3121
▁ܘܡܟܪܙ	-9.31387
▁ܕܪܫ	-9.3143
▁ܕܒܟܠ	-9.31479
ܤܪܐ	-9.31582
▁ܘܨܒ	-9.31605
▁ܕܢܚܘ	-9.31861
▁ܘܫܪ	-9.31935
ܐܬܝܗܒܬ	-9.32224
▁ܫܢܝ	-9.32264
▁ܟܠܝܠ	-9.32397
▁ܢܤܒܘ	-9.32463
ܘܚܪ	-9.32499
▁ܨܒܘ	-9.32636
ܒܗܬ	-9.32818
▁ܫܡܐ	-9.32924
ܥܤܪܐ	-9.33147
▁ܟܪ	-9.33339
▁ܐܟܠܝܢ	-9.3345
▁ܝܘܡ	-9.33486
▁ܒܡܢ	-9.33616
ܕܒܚ	-9.33623
ܕܟܐ	-9.33793
▁ܢܡܠܠ	-9.33847
▁ܕܪ	-9.33867
ܡܠܟܘܬܐ	-9.341
ܡܐܬܝܬܗ	-9.34221
▁ܢܤ	-9.34256
ܙܕܘܩܝܐ	-9.34456
▁ܕܕܝܬܩܐ	-9.34456
▁ܠܩܪܝܬܐ	-9.34457
▁ܡܒܪܟ	-9.34466
▁ܕܐܬܩܪܝ	-9.34466
ܦܫܛ	-9.34466
▁ܠܒܪܢܫܐ	-9.3447
▁ܘܩܥܐ	-9.34505
ܡܬܕܒܪ	-9.34528
▁ܪܘܚܩܐ	-9.3453
▁ܫܥܐ	-9.34561
▁ܒܐܬܪ	-9.34583
▁ܒܡܕܒܪܐ	-9.34594
▁ܠܐܒܪܗܡ	-9.34594
▁ܕܫܠܡܐ	-9.34644
▁ܐܬܦܬܚ	-9.34663
▁ܚܝܠ	-9.3469
▁ܕܩܪܝܒ	-9.34727
▁ܢܡܘܬ	-9.34802
▁ܕܢܥܘܠ	-9.34809
▁ܕܒܥܝܢ	-9.34812
▁ܘܐܪܝܡ	-9.34899
▁ܥܘܬܪ	-9.34953
▁ܕܢܫܬ	-9.3499
▁ܟܠܝܘܡ	-9.34995
ܙܘܥ	-9.35032
▁ܦܘܪܩܢܐ	-9.35045
▁ܗܟܘܬ	-9.35139
▁ܡܡ	-9.35288
▁ܫܘܒܗܪ	-9.3532
▁ܕܤܛܢܐ	-9.35329
▁ܒܦܘܡ	-9.35399
ܟܫܠ	-9.35423
▁ܘܩܠ	-9.35524
▁ܚܤܡ	-9.35645
▁ܘܚܘܒ	-9.35714
▁ܕܟܪܝܗ	-9.35743
▁ܤܢܐ	-9.35762
▁ܚܠ	-9.35783
▁ܗܘܝܘ	-9.35809
▁ܡܛܠܬܟܘܢ	-9.35844
▁ܕܕܝܢܐ	-9.35903
▁ܕܝܥܩܘܒ	-9.35952
ܩܝܡܝܢ	-9.35985
▁ܘܪܕ	-9.36227
▁ܕܫܠܝܚܐ	-9.36227
▁ܘܐܤܝ	-9.36363
ܛܛܘܤ	-9.36432
▁ܚܐܪ	-9.3647
▁ܕܝܘܡܐ	-9.36658
▁ܚܒܝܒ	-9.36698
▁ܪܕܝܢ	-9.36755
ܐܚܘܕ	-9.37089
ܩܥܝܢ	-9.3722
ܙܒܘ	-9.37332
▁ܠܢܡܘܤ	-9.37582
▁ܕܓܠ	-9.37651
▁ܫܢܐ	-9.37687
ܚܬܐ	-9.37788
▁ܒܨܠܘܬܐ	-9.38092
ܡܬܠܐ	-9.38143
▁ܕܥܡܝ	-9.38369
▁ܕܟܘ	-9.38482
▁ܘܐܦܩ	-9.38488
▁ܚܡ	-9.38494
▁ܡܠܝܢ	-9.38785
ܤܡܝܐ	-9.3882
▁ܐܠܨ	-9.39148
ܥܡܪ	-9.39152
▁ܕܡܠܟܐ	-9.39457
ܗܪܐ	-9.39468
▁ܒܝܢܝ	-9.39985
ܤܦܪܐ	-9.39988
▁ܕܝܗܘܕ	-9.40124
▁ܘܐܪܡܝܘ	-9.40161
ܩܝܦܐ	-9.40353
▁ܙܕܩ	-9.40514
ܤܬܪ	-9.40553
▁ܕܙܪܥ	-9.40556
ܛܝܡܬܐܘܤ	-9.40878
ܒܝܬܐ	-9.41049
▁ܙܩܝܦ	-9.41229
▁ܠܐܢܬܬ	-9.41229
▁ܢܦܠܬ	-9.41407
ܬܥܒܕܘܢ	-9.41514
▁ܒܪܥܝܢ	-9.41547
▁ܘܓܒ	-9.41944
▁ܕܢܩܪ	-9.42006
▁ܢܦ	-9.42089
ܫܓܘܫܝܐ	-9.42148
▁ܘܠܝܘܚܢܢ	-9.42148
▁ܘܡܫܒܚ	-9.42148
▁ܠܝܘܚܢܢ	-9.42148
▁ܬܪܢܓܠܐ	-9.42149
▁ܛܘܗܡ	-9.4215
▁ܪܡܫܐ	-9.42153
▁ܡܬܕܡܪ	-9.42153
ܦܗܤܛܘܤ	-9.42157
▁ܘܪܗܛ	-9.42159
▁ܢܘܟܪܝܐ	-9.42175
ܙܥܩ	-9.42175
▁ܠܥܒܪܐ	-9.42189
▁ܡܫܪܝܐ	-9.4219
▁ܓܒܪܝܢ	-9.42203
▁ܡܫܬܥܒܕ	-9.42206
▁ܘܠܐܡܗ	-9.42262
▁ܕܚܙܝܬܘܢ	-9.42277
▁ܐܓܪ	-9.4228
▁ܢܝܚ	-9.42285
▁ܠܒܥܠ	-9.42291
ܥܪܘܩ	-9.42301
▁ܢܬܩܪܐ	-9.42317
▁ܠܡܚܙܐ	-9.42329
▁ܠܡܪܗ	-9.42368
▁ܠܟܢܘܫܬܐ	-9.42413
▁ܒܠܒܗ	-9.42446
▁ܟܪܡܐ	-9.42483
▁ܕܬܡܢ	-9.42522
▁ܫܩܘܠ	-9.42546
▁ܠܘܬܢ	-9.42592
▁ܠܟܐܢܘ	-9.42599
▁ܓܪܒ	-9.42686
▁ܕܐܫܠܡ	-9.4269
▁ܕܟܠܢܫ	-9.42734
▁ܕܬܚܝ	-9.42743
▁ܗܓܡܘܢܐ	-9.42786
▁ܐܬܓܠܝ	-9.42792
▁ܐܫܬܠܡ	-9.42799
▁ܠܐܠܦܐ	-9.42826
▁ܕܡܛܝܒ	-9.42832
ܝܩܪ	-9.42893
▁ܕܦܘܠܘܤ	-9.42984
▁ܝܘܢܐ	-9.42985
▁ܥܒܝܕܝܢ	-9.42993
▁ܚܒܠܐ	-9.42995
▁ܘܐܩܝܡܗ	-9.43042
▁ܘܫܐܠܘܗܝ	-9.43045
▁ܕܢܬܡܠ	-9.43117
ܫܘܬܦ	-9.43197
ܠܗ	-9.43285
▁ܤܦܩ	-9.43309
ܪܕܦ	-9.43313
▁ܪܓܠ	-9.43317
▁ܕܡܠܐܟܐ	-9.43357
▁ܒܕܚܠܬܐ	-9.43521
ܫܝܠܐ	-9.43593
▁ܫܪܝܢ	-9.43709
▁ܕܢܚܐ	-9.43765
ܕܓܠ	-9.43898
▁ܕܐܬܝܗܒ	-9.44023
ܓܝܪ	-9.44028
▁ܠܝܗܘܕ	-9.44189
▁ܒܥܠܗ	-9.44304
▁ܕܒܤܪ	-9.44328
▁ܡܚܘܬ	-9.44354
ܬܚܝܠ	-9.44623
▁ܒܡܕܡ	-9.44881
ܝܩܝܢ	-9.44939
▁ܦܘܡ	-9.4517
ܚܛܦ	-9.45181
ܫܪܟܐ	-9.45247
▁ܩܤܪ	-9.45309
▁ܕܡܛ	-9.45608
▁ܐܦܤ	-9.45778
▁ܐܤܝ	-9.45784
▁ܘܗܝܡܢܘ	-9.45848
▁ܕܠܘ	-9.45867
▁ܒܕܘܟܬ	-9.45973
▁ܤܗܕܝܢ	-9.461
▁ܐܦܝܟܘܢ	-9.46176
▁ܘܫܕܪܘ	-9.46259
ܦܪܥܘܢ	-9.46373
▁ܩܪܝܐ	-9.46488
▁ܦܓܪܝ	-9.46489
▁ܘܐܝܬܝ	-9.46673
ܚܙܝܪܐ	-9.46734
▁ܦܠܚܝܢ	-9.46762
▁ܠܐܒܐ	-9.46797
ܪܘܓܙܐ	-9.46817
▁ܓܒܝ	-9.46917
ܪܝܫ	-9.46954
▁ܕܐܝܬܝ	-9.46987
ܤܓܝ	-9.47215
▁ܐܚܝܕܝܢ	-9.4737
▁ܘܐܢܬܬ	-9.47458
▁ܡܝܬܬ	-9.47541
ܤܝܢ	-9.47627
▁ܒܪܟ	-9.47637
▁ܐܝܕ	-9.47891
▁ܪܕ	-9.47909
ܨܗܝ	-9.48246
ܕܡܟ	-9.4887
▁ܦܘܡܐ	-9.49074
▁ܟܠܢ	-9.49097
▁ܘܩܕܝܫ	-9.49147
▁ܕܐܬܝܬ	-9.49315
ܕܝܬܒ	-9.49536
ܕܘܡ	-9.49544
ܫܒܘܩ	-9.49609
▁ܕܐܡܪܬ	-9.49765
ܨܠܐ	-9.49878
▁ܐܬܩܪܝ	-9.49886
▁ܠܛܠܝ	-9.50093
ܤܦܝܢܬܐ	-9.50196
▁ܤܪܝܩܐ	-9.50277
▁ܕܒܝ	-9.50428
ܬܪܥܐ	-9.50432
▁ܟܢܝܫܝܢ	-9.50482
▁ܤܟܪܝܘܛܐ	-9.50482
▁ܕܐܤܗܕ	-9.50482
▁ܕܝܡܝܢܐ	-9.50482
▁ܠܬܝܒܘܬܐ	-9.50482
▁ܒܫܪܪܐ	-9.50483
▁ܬܪܝܨ	-9.50483
▁ܢܫܬܒܩ	-9.50485
▁ܒܓܠܝܢ	-9.50485
ܫܬܐ	-9.50494
▁ܐܚܪܝܬ	-9.50496
▁ܝܒܫ	-9.50499
▁ܡܓܕܠܝܬܐ	-9.50505
ܤܓܘܕ	-9.50506
▁ܨܒܝܬ	-9.50522
▁ܨܦܪܐ	-9.50524
▁ܝܗܝܒ	-9.50525
▁ܕܘܟܐ	-9.50534
▁ܘܐܡܝܢ	-9.50551
▁ܝܩܕ	-9.50556
▁ܕܤܝܡ	-9.50567
▁ܚܝܠܬܢ	-9.50575
▁ܕܝܘܡܢܐ	-9.50629
▁ܪܫܝܬ	-9.5068
▁ܐܒܕ	-9.50691
▁ܕܝܬܩ	-9.50692
ܐܬܬܥܝܪܘ	-9.50702
ܐܨܦ	-9.50704
▁ܠܐܡܗ	-9.50784
▁ܡܫܬܠܡ	-9.50785
▁ܕܐܘܢܓܠܝܘܢ	-9.50786
▁ܬܦܠ	-9.50795
▁ܘܬܠܡܝܕܘܗܝ	-9.5084
▁ܐܝܕܝܗܘܢ	-9.50855
▁ܕܫܒܥ	-9.50868
ܘܫܛ	-9.50874
▁ܡܤܟܢ	-9.50905
▁ܘܡܪܝܡ	-9.50919
ܐܟܠܘܢ	-9.50941
▁ܒܤܦܝܢܬܐ	-9.50957
▁ܫܪܘ	-9.51015
▁ܨܠܝ	-9.51028
▁ܬܢܝܢܐ	-9.5109
▁ܒܐܝܕ	-9.511
▁ܒܫܘܒܚܐ	-9.51131
ܚܙܐ	-9.51165
▁ܠܡܥܠ	-9.51178
▁ܠܒܗܘܢ	-9.51193
▁ܦܘܩܕܢܘܗܝ	-9.51214
▁ܒܛܝܒܘܬܐ	-9.51244
▁ܠܕܝܢܐ	-9.51275
ܫܠܝܡܘܢ	-9.5136
▁ܘܐܬܠ	-9.51447
▁ܕܫܡܥܬܘܢ	-9.51493
▁ܡܠܐܟܘܗܝ	-9.51523
▁ܚܤܝܪ	-9.51533
▁ܚܛܐ	-9.51553
▁ܕܩܪܝܢ	-9.51574
▁ܒܥܕܬܐ	-9.51616
▁ܦܨ	-9.51667
▁ܘܐܤܪ	-9.51696
ܝܪܝܢ	-9.51965
▁ܘܡܠܠ	-9.521
▁ܦܤܩ	-9.5223
ܚܤܕ	-9.52278
▁ܢܘܢܐ	-9.52378
▁ܘܛܒ	-9.52448
▁ܢܚܙ	-9.52474
ܛܝܪܐ	-9.52504
▁ܬܥܒܕܘܢ	-9.5253
ܓܙܪ	-9.52661
ܬܪܚܡ	-9.52689
▁ܬܒܥ	-9.52724
▁ܫܬܐ	-9.52792
▁ܕܡܢܗ	-9.52843
ܙܩܦ	-9.52862
▁ܐܬܝܗܒ	-9.52912
▁ܬܒܘ	-9.52943
ܢܫܕܪ	-9.52945
ܛܫܝ	-9.53043
ܪܐܘܤ	-9.53285
▁ܨܝܕܐ	-9.53292
ܪܘܢ	-9.53306
ܒܝܫܐ	-9.53518
ܡܝܪܐ	-9.5352
ܡܨ	-9.53609
▁ܢܫܟܚ	-9.53649
▁ܡܪܬܐ	-9.53698
▁ܚܠܦܝܢ	-9.53713
ܟܪܝܬ	-9.53818
▁ܐܬܝܐ	-9.53887
▁ܘܬܪܝܢ	-9.53972
▁ܡܠܐܟ	-9.53994
▁ܫܬܐܤܬ	-9.54346
▁ܕܗܪܘܕܤ	-9.54366
▁ܩܒܪܐ	-9.54397
▁ܤܝܒܪܬܐ	-9.54402
▁ܕܝܬܒܝܢ	-9.54441
▁ܘܫܒ	-9.54471
ܠܩ	-9.54549
▁ܕܩܪܒ	-9.54609
ܫܒܩ	-9.54884
▁ܡܚܒܠ	-9.54981
▁ܪܓܠܝܗ	-9.55004
▁ܚܦܝܛ	-9.55079
ܓܪܐ	-9.55144
▁ܚܝܝܢ	-9.55213
▁ܚܘܪܐ	-9.55217
ܦܝܤ	-9.55247
▁ܨܒܘܬ	-9.55255
▁ܪܘܪܒ	-9.55455
ܢܫܩܘܠ	-9.55509
ܡܠܐܟܐ	-9.55899
ܫܠܬܐ	-9.55929
ܡܠܝܐ	-9.56201
▁ܕܟܝܢ	-9.56421
▁ܘܚܙܝ	-9.56448
▁ܩܒܠܬ	-9.56508
▁ܒܢܦܫܟ	-9.56643
▁ܘܒܥܘ	-9.56705
ܪܫܝܬ	-9.56719
ܐܒܘܗܝ	-9.56739
▁ܘܐܩܝܡ	-9.56809
▁ܘܕܝܘ	-9.56961
▁ܢܦܠܘ	-9.57101
▁ܕܢܩܘ	-9.57109
▁ܫܒܩܬ	-9.57222
▁ܨܒܘܬܐ	-9.57414
ܩܕܝܫܘܬܐ	-9.57881
ܫܥܬܐ	-9.58011
▁ܩܒܠܘ	-9.5806
ܛܒ	-9.58323
ܓܙܘܪܬܐ	-9.58537
ܛܥܐ	-9.58816
▁ܤܒܪܬܐ	-9.5898
▁ܘܗܒ	-9.5899
▁ܘܤܗܕ	-9.59129
ܓܠܘܬܐ	-9.59178
▁ܘܛܥ	-9.59241
ܙܕܩܦ	-9.59366
ܬܫܥ	-9.59372
▁ܗܝܡܢܘܬܟ	-9.59399
▁ܘܠܟ	-9.59466
▁ܘܡܫܡܫ	-9.59537
▁ܢܘܒܕ	-9.59553
▁ܠܚܛܝܬܐ	-9.59573
▁ܙܒܕܝ	-9.59573
ܪܘܓܙܗ	-9.59573
▁ܘܡܗܝܡܢ	-9.59573
▁ܘܐܬܡܠܝ	-9.59573
▁ܐܚܪܢܝܢ	-9.59573
▁ܥܬܝܩ	-9.59576
▁ܡܙܕܕܩ	-9.59577
▁ܕܗܝܟܠܐ	-9.59578
ܥܛܦ	-9.59584
▁ܙܒܘܪ	-9.59585
▁ܠܚܪܬܐ	-9.59587
▁ܡܕܒܚܐ	-9.5959
▁ܒܚܙܘܐ	-9.59594
▁ܡܨܥܬ	-9.59597
▁ܠܡܡܬ	-9.59614
▁ܘܩܪܝܒ	-9.59624
▁ܫܩܝܠ	-9.59641
▁ܪܥܝܢܗ	-9.59662
▁ܒܡܪܝܐ	-9.59673
▁ܕܒܪܢܫ	-9.59674
▁ܡܫܐܠ	-9.59698
▁ܪܫܝ	-9.59738
▁ܥܓܠ	-9.59811
▁ܡܬܒܥܐ	-9.59878
ܦܐܪܐ	-9.59878
ܒܘܪܟܬܐ	-9.59899
▁ܢܒܗܬ	-9.59901
ܡܙܒܢܝܢ	-9.59928
▁ܒܐܝܕܘܗܝ	-9.5996
▁ܒܥܡܡܐ	-9.59963
▁ܡܥܡܕ	-9.59978
▁ܒܚܫܘܟܐ	-9.59986
▁ܒܫܘܩܐ	-9.60047
ܒܟܠܙܒܢ	-9.60059
▁ܫܘܥܐ	-9.60072
ܫܘܩܐ	-9.60088
▁ܡܫܠܡܢܐ	-9.60088
ܢܤܐ	-9.60145
▁ܘܤܝܡ	-9.60148
▁ܕܥܘܠܐ	-9.60241
▁ܕܡܠܟ	-9.6029
▁ܘܫܬܝܢ	-9.60306
▁ܬܫܬ	-9.60347
▁ܒܩܪ	-9.60374
▁ܠܬܠܡܝܕ	-9.60391
▁ܐܟܘܬ	-9.6042
▁ܕܢܡܠܠ	-9.60441
▁ܕܤܓܝ	-9.60446
▁ܕܐܠܦ	-9.60493
▁ܠܡܩܕܘܢܝܐ	-9.60509
▁ܐܘܕܥ	-9.60592
▁ܦܪܘܩ	-9.60617
▁ܘܕܚܠܘ	-9.60685
▁ܟܐܒ	-9.60723
▁ܒܠܒܗܘܢ	-9.60782
▁ܕܤܢܐ	-9.60794
▁ܬܫܥ	-9.60807
▁ܒܬܪܟܢ	-9.60854
▁ܫܒܘܩܘ	-9.60858
ܨܝܕܢ	-9.60874
ܕܝܢܘܤ	-9.60885
▁ܝܩܪ	-9.61082
ܫܘܒܩܢܐ	-9.61286
▁ܫܛܝ	-9.6133
▁ܝܩܝܪ	-9.61346
ܤܥܘܪ	-9.61464
▁ܘܐܤ	-9.61474
▁ܘܪܒܝ	-9.61509
▁ܚܝܬ	-9.61603
▁ܡܬܕܝܢ	-9.61617
▁ܕܐܡܪܐ	-9.62017
▁ܒܡܠܟܘܬ	-9.6211
▁ܫܡܟ	-9.62157
▁ܛܒܥ	-9.62207
▁ܕܬܠܡܝܕ	-9.6225
▁ܕܡܗ	-9.62371
▁ܐܠܗܗ	-9.62634
▁ܬܚܙܘܢ	-9.62735
▁ܗܒܘ	-9.62751
▁ܡܦܩܕ	-9.62755
▁ܕܒܪܘܚ	-9.62774
▁ܒܚܪ	-9.6286
ܛܘܪܐ	-9.62872
▁ܕܚܕܪܝ	-9.62906
▁ܕܝܕܥܬ	-9.62935
▁ܝܕܝܥ	-9.62961
ܛܝܒܘܬܐ	-9.63092
ܬܘܕܝܬܐ	-9.63098
▁ܥܬܝܕܝܢ	-9.63143
▁ܐܫܟܚܢ	-9.63174
▁ܘܫܩܠܘ	-9.63194
▁ܠܡܐܬܐ	-9.63294
▁ܢܤܒܬ	-9.63389
▁ܢܬܒ	-9.63399
▁ܘܨܒܝܢ	-9.63465
▁ܘܐܝܬܝܗ	-9.63514
▁ܚܡܬ	-9.63584
▁ܟܪܤ	-9.63621
▁ܡܥܡܘܕܝܬܐ	-9.63657
▁ܦܐܪ	-9.63678
▁ܐܬܕܡܪ	-9.63787
▁ܡܟܐ	-9.64026
ܬܩܝܡ	-9.64055
▁ܡܤܝܒ	-9.64542
▁ܢܛܪܬ	-9.64555
ܡܘܫܐ	-9.64601
▁ܒܥܝ	-9.64723
ܪܝܘܤ	-9.6493
ܕܝܐ	-9.65292
▁ܘܥܒܕܘ	-9.65605
ܪܓܝܓܬܐ	-9.65714
▁ܝܕܝܥܐ	-9.6596
▁ܘܡܤܟ	-9.66455
ܢܟܤ	-9.66671
▁ܚܠܦܝ	-9.66811
▁ܩܝ	-9.67021
▁ܒܕܪ	-9.67062
▁ܫܡ	-9.67173
ܠܝܛ	-9.67272
ܟܤܝܐ	-9.67344
ܐܠܦܐ	-9.67393
▁ܘܫܠܡ	-9.67437
▁ܓܒܝܐ	-9.67611
ܐܡܝܪ	-9.67828
▁ܐܓܪܗ	-9.67969
▁ܚܐܪܐ	-9.68
ܫܘܒܗܪ	-9.68432
ܒܐܝܕܗ	-9.68477
▁ܟܬ	-9.68673
▁ܗܠܟ	-9.68794
ܐܪܡܠܬܐ	-9.68805
▁ܟܒܪ	-9.68808
ܝܘܦܐ	-9.68831
▁ܩܪܒܬ	-9.68837
▁ܪܓܠܝܟ	-9.68848
▁ܕܗܝܡܢܘ	-9.68867
▁ܩܡܘ	-9.6895
▁ܘܝܕܥܝܢ	-9.69021
▁ܘܩܒܠ	-9.69121
▁ܘܕܡܐ	-9.69247
ܓܝܤܐ	-9.69399
▁ܪܓܠܝ	-9.69426
ܤܬܟܠܘ	-9.69437
▁ܠܥܡ	-9.69556
▁ܕܡܤܒܪ	-9.69564
▁ܒܝܘܠܦܢܗ	-9.69573
▁ܒܦܪܨܘܦ	-9.69573
▁ܕܬܫܒܘܚܬܗ	-9.69573
▁ܘܢܩܝܡ	-9.69573
▁ܠܫܠܝܚܐ	-9.69573
▁ܓܠܝܠܝܐ	-9.69573
▁ܚܛܗܝܟ	-9.69573
▁ܒܩܘܫܬܐ	-9.69573
▁ܟܘܬܝܢ	-9.69573
▁ܘܫܠܝܚ	-9.69573
▁ܛܢܦܐ	-9.69574
▁ܕܤܡܝܟ	-9.69576
▁ܘܐܫܬܥܝ	-9.69577
▁ܐܬܟܪܟ	-9.69577
ܬܚܠܡ	-9.69578
▁ܢܗܠܟ	-9.69578
ܬܘܩܠܬܐ	-9.69581
▁ܩܘܫܬܐ	-9.69587
▁ܡܘܕܥ	-9.69588
▁ܫܪܓ	-9.69592
▁ܒܡܨܥܬܐ	-9.696
▁ܡܠܘܗܝ	-9.69601
▁ܦܬܘܪܐ	-9.69602
▁ܕܒܤܡܐ	-9.69603
▁ܡܤܬܟܠܝܢ	-9.69603
▁ܡܚܫܒܬܐ	-9.69604
▁ܝܠܘܕ	-9.69605
▁ܪܛܢ	-9.69613
▁ܘܙܠ	-9.69646
▁ܕܐܤܬ	-9.69659
▁ܘܤܓܕ	-9.69667
▁ܫܘܬܦܐ	-9.69672
▁ܕܚܛܗܐ	-9.69679
▁ܠܡܐܚܕ	-9.69704
▁ܡܤܒܪܝܢ	-9.69716
▁ܪܡܝܢ	-9.69742
▁ܕܩܛܠ	-9.69745
▁ܨܝܡܝܢ	-9.69771
ܤܘܪܝܐ	-9.69778
▁ܕܐܒܕ	-9.69779
▁ܟܪܝ	-9.6978
▁ܤܡܟܐ	-9.69781
ܬܝܗܝܢ	-9.69785
▁ܘܡܤܒܪ	-9.69829
▁ܡܦܝܤ	-9.69836
▁ܬܐܪܬܐ	-9.69841
▁ܟܘܪܗܢ	-9.69865
ܬܘܟܠܢ	-9.69873
▁ܬܪܬܥܤܪܐ	-9.69901
▁ܒܬܘܠܬ	-9.69903
▁ܠܩܘܒܠ	-9.69908
▁ܠܟܦܪܢܚܘܡ	-9.69919
ܗܦܘܟ	-9.6993
▁ܡܬܒܥܝ	-9.69948
▁ܐܬܩܪܒ	-9.6995
▁ܘܐܘܕܝ	-9.69994
▁ܡܓܕܦܝܢ	-9.70031
ܢܤܓܕܘܢ	-9.70039
▁ܡܩܕܫ	-9.70065
▁ܘܒܚܕ	-9.70065
▁ܠܩܤܪܝܐ	-9.70094
▁ܒܐܝܕܝܗܘܢ	-9.70136
▁ܬܐܡܪܘܢ	-9.70158
▁ܕܡܩܪܒ	-9.70174
▁ܠܤܦܝܢܬܐ	-9.70298
▁ܘܠܫܢ	-9.70307
▁ܐܢܬܝ	-9.70324
▁ܕܩܒܠܬܘܢ	-9.70338
▁ܕܠܘܬܟܘܢ	-9.70359
▁ܚܘܐ	-9.70372
▁ܫܡܪܝܐ	-9.70573
▁ܤܟ	-9.70646
▁ܕܫܩܠ	-9.70669
ܓܘܢܐ	-9.7067
▁ܥܘܪܠܘܬܐ	-9.70686
▁ܬܥܒܕ	-9.70718
▁ܚܝܒܝܢܢ	-9.7076
▁ܚܘܪܒ	-9.70773
▁ܪܘܚܝ	-9.70798
▁ܢܡܠܠܘܢ	-9.70798
▁ܒܬܫܡܫܬ	-9.70878
▁ܘܚܙܝܢ	-9.70995
▁ܠܒܟܘܢ	-9.71006
▁ܐܚܘܟ	-9.71024
▁ܤܒܪܬ	-9.71035
ܐܚܘܟ	-9.71056
▁ܕܚܝܒ	-9.71091
▁ܪܘܓܙܐ	-9.71119
▁ܕܫܒܩ	-9.71316
▁ܠܝܥܩܘܒ	-9.7137
▁ܕܬܫ	-9.71377
▁ܘܠܒܪ	-9.71473
▁ܫܠܝܐ	-9.71541
▁ܕܐܫܪ	-9.71594
▁ܡܬܪܥܝܢ	-9.71611
▁ܙܩܝܦܗ	-9.71697
▁ܕܫܘܒܚܗ	-9.71699
▁ܕܫܡܥܬ	-9.71723
▁ܡܠܐܟܝܢ	-9.71737
ܙܕܒܢ	-9.718
ܠܘܤ	-9.71827
ܬܕܡܪܬܐ	-9.71827
▁ܕܝܗܘܕܐ	-9.71994
▁ܒܝܘܡܬ	-9.72093
▁ܘܐܠܦ	-9.72097
▁ܒܡܠܐ	-9.7218
▁ܕܠܠܝܐ	-9.72242
▁ܕܢܦܩܘܢ	-9.72268
▁ܝܕܥܬܐ	-9.72336
▁ܫܘܪܝ	-9.72459
▁ܓܡܝܪ	-9.72495
ܡܥܡܘܕܝܬܐ	-9.72508
▁ܡܢܤܝܢ	-9.72622
▁ܘܬܠܬ	-9.72684
▁ܫܒܘܩ	-9.72803
▁ܪܚܡܝ	-9.72806
ܪܟܒ	-9.72829
▁ܘܡܠܝ	-9.7292
▁ܐܝܩܪܐ	-9.72935
ܬܬܩܠ	-9.73109
▁ܡܛܠܬܝ	-9.73241
▁ܕܛܝܒܘܬܗ	-9.73283
▁ܒܠܚܘܕܝ	-9.73402
ܚܫܘܟܐ	-9.73499
ܐܚܪܝܢ	-9.73505
▁ܘܐܫܟܚܘ	-9.73534
▁ܤܡܬ	-9.73616
ܬܫܡܫܬܗ	-9.73681
▁ܕܗܝܡܢܬ	-9.7372
▁ܠܥܒܕܗ	-9.73827
ܬܬܘܤܦ	-9.73896
▁ܕܥܠܝ	-9.73898
▁ܕܐܬܬ	-9.73913
▁ܦܘܩܕܢ	-9.73951
ܪܡܝܬܗ	-9.74213
▁ܐܘܠܨܢ	-9.7427
▁ܒܫܒܐ	-9.74274
▁ܚܛܝܬ	-9.74334
▁ܡܨ	-9.74373
ܕܡܘܬܐ	-9.74384
▁ܒܢܝܗ	-9.74446
▁ܘܤܡܘ	-9.74532
▁ܟܐܦ	-9.74579
ܕܪܐ	-9.7473
ܡܟܟ	-9.74778
▁ܡܥܕܪ	-9.74893
▁ܙܥܘܪܝ	-9.74917
▁ܠܘܝ	-9.7514
▁ܪܥܝܐ	-9.75237
▁ܐܒܕܢ	-9.75319
▁ܕܡܨ	-9.75377
▁ܕܡܟܝܢ	-9.75534
▁ܤܗܕܘܬܗ	-9.75586
▁ܘܦܠܚ	-9.75589
▁ܒܐܘܠܨܢ	-9.75635
▁ܐܝܡܡ	-9.75645
▁ܒܚܕܘܬ	-9.75699
▁ܘܠܡܠܐܟ	-9.75745
▁ܘܙܕܝܩ	-9.75911
ܛܥܝܢ	-9.76088
▁ܦܥ	-9.76339
▁ܢܟܦ	-9.76363
▁ܡܟܪܙ	-9.76378
ܝܘܡܬܐ	-9.7649
ܕܚܠ	-9.76629
▁ܒܩܪܝ	-9.76666
▁ܐܫܬܡܥ	-9.76839
▁ܒܥܒܕ	-9.7689
▁ܘܡܛܝ	-9.77013
▁ܢܓܕ	-9.77022
▁ܕܟܬܝܒܢ	-9.77097
▁ܘܠܝ	-9.77339
ܡܬܟܢܫ	-9.77406
ܥܕܬܗ	-9.77496
▁ܕܫܢ	-9.7757
▁ܩܠܝ	-9.77952
▁ܡܬܩܪ	-9.78044
▁ܠܐܚܐ	-9.78138
▁ܬܬܐ	-9.78149
ܟܘܪܤܝܗ	-9.7815
ܬܩܪܐ	-9.78182
▁ܢܩܒܠ	-9.78207
▁ܬܛܥ	-9.78453
▁ܝܩܝܪܬ	-9.78539
▁ܒܦܠ	-9.78658
▁ܡܛܠܬܗ	-9.7866
▁ܢܚ	-9.79185
ܤܛܢܐ	-9.793
ܚܒܠܐ	-9.79336
ܥܘܪܠܘܬܐ	-9.79455
ܦܬܟܪܐ	-9.79488
ܚܘܒܐ	-9.79579
▁ܗܝܡܢܬܘܢ	-9.79682
ܦܪܘܩ	-9.79706
ܦܪܚܬܐ	-9.79841
▁ܕܐܬܝ	-9.79865
▁ܕܢܚܫ	-9.79904
▁ܡܫܬܪ	-9.80018
▁ܕܫܒ	-9.80065
▁ܥܪܛܠ	-9.80095
▁ܡܟܪܙܝܢ	-9.80245
▁ܢܤܒܝܢ	-9.80258
▁ܓܡܝܪܐ	-9.80421
▁ܗܝܡܢܘܬܗ	-9.80538
▁ܕܒܐܘܪܫܠܡ	-9.80684
▁ܕܙܕܝܩܘܬܐ	-9.80684
▁ܠܚܛܝܐ	-9.80684
▁ܠܡܨܠܝܘ	-9.80684
▁ܘܡܬܕܡܪ	-9.80684
▁ܩܘܕܫܐ	-9.80684
▁ܓܠܝܐܝܬ	-9.80684
▁ܕܢܫܠܡܝܘܗܝ	-9.80684
▁ܠܙܕܝܩ	-9.80684
▁ܦܫܝܩ	-9.80684
ܬܤܠܘܢܝܩ	-9.80684
▁ܠܡܐܙܠ	-9.80685
▁ܛܠܡ	-9.80685
▁ܕܩܘܫܬܐ	-9.80685
▁ܒܚܘܪܒܐ	-9.80685
▁ܘܡܩܒܠ	-9.80685
▁ܩܫܝܐ	-9.80686
▁ܡܡܪܚ	-9.80686
ܐܬܩܛܠ	-9.80688
▁ܘܡܗܠܟ	-9.80688
▁ܘܡܤܗܕ	-9.80688
▁ܩܘܪܢܠܝ	-9.80688
▁ܝܘܬܪܢ	-9.80689
ܨܥܪܐ	-9.80689
▁ܐܬܠܒܒ	-9.8069
▁ܐܓܪܦܘܤ	-9.80691
ܙܡܘܪ	-9.80693
▁ܢܫܬܒܗܪ	-9.80696
▁ܕܒܒܤܪ	-9.80696
▁ܕܐܠܗܢ	-9.807
ܦܘܠܚܢܐ	-9.80703
▁ܤܩܘܒܠ	-9.80704
▁ܩܪܨܐ	-9.80705
▁ܢܥܠܘܢ	-9.8071
▁ܡܚܫܒܬܗ	-9.80711
▁ܡܠܬܟ	-9.80717
▁ܘܚܛܝ	-9.80721
ܐܪܓܘܢܐ	-9.80721
ܬܝܡܢܐ	-9.80725
▁ܕܗܝܡܢܘܬܟܘܢ	-9.8073
▁ܢܒܝܘܬ	-9.80738
▁ܡܤܝܒܪܝܢ	-9.80741
▁ܕܒܢܡܘܤܐ	-9.80753
ܚܛܐ	-9.80762
▁ܐܗܘܐ	-9.80763
▁ܓܐܪ	-9.80764
▁ܕܒܡܫܝܚܐ	-9.80768
▁ܥܗܕܝܢ	-9.80773
▁ܡܫܟܢ	-9.80775
▁ܕܐܠ	-9.80788
▁ܕܟܝܬܐ	-9.80798
▁ܢܟܠܐ	-9.80801
▁ܒܐܘܢܓܠܝܘܢ	-9.8083
ܫܒܬܐ	-9.8084
▁ܢܬܒܛܠ	-9.8084
▁ܙܟܝ	-9.80857
▁ܫܒܩܘ	-9.80865
▁ܘܗܠܟ	-9.80874
▁ܐܫܬܥܒܕ	-9.80879
▁ܠܐܒܘܟ	-9.80894
▁ܕܠܥܠ	-9.80897
▁ܚܛܘܦ	-9.80903
▁ܒܡܘܡܬܐ	-9.80912
ܠܒܘܫܗ	-9.80917
▁ܡܛܥܝܢ	-9.80923
▁ܕܓܒ	-9.80955
▁ܐܫܝܓ	-9.80969
▁ܠܬܠܬ	-9.80973
▁ܥܪܤܟ	-9.8101
▁ܚܪܒܐ	-9.81013
▁ܦܠܓܘܬܐ	-9.81024
▁ܓܙܪܬܐ	-9.8104
▁ܢܐܒܕ	-9.81055
ܥܘܪ	-9.81058
▁ܕܟܪܐ	-9.81156
▁ܘܫܪܝܪܐ	-9.81169
▁ܘܤܓܝ	-9.8118
▁ܐܝܕܘܗܝ	-9.81186
▁ܥܝܠܐ	-9.81231
▁ܢܨܪܬ	-9.81235
▁ܬܩܘ	-9.81248
▁ܠܐܝܤܪܝܠ	-9.81258
▁ܠܪܒܝ	-9.81305
▁ܤܪ	-9.81332
▁ܛܠܝܬܐ	-9.81341
▁ܢܘܗܪܗ	-9.81345
ܕܟܝܘܬܐ	-9.81347
▁ܩܝܤܐ	-9.81377
▁ܬܘܠܬ	-9.81408
▁ܢܥܘܠ	-9.81411
▁ܕܐܫ	-9.81419
▁ܕܐܤܝܪ	-9.81445
▁ܡܠܚ	-9.81447
▁ܒܪܚܡ	-9.81475
▁ܐܟܤܢܝܐ	-9.81493
▁ܒܝܕܥܬܐ	-9.81583
▁ܐܡܠܠ	-9.81592
▁ܡܩܪܒ	-9.81596
▁ܒܕܝܢܐ	-9.81602
▁ܕܢܕܥ	-9.81635
ܦܪܛܘ	-9.81709
▁ܕܡܛܠܬܗ	-9.81778
▁ܘܡܠܬܗ	-9.81871
▁ܕܠܐܢܫ	-9.81885
▁ܒܡܠܟܘܬܗ	-9.81954
▁ܬܩܘܡ	-9.82092
▁ܪܗܘܡܝ	-9.82156
▁ܕܚܫܘܟܐ	-9.82164
ܕܝܩ	-9.82247
▁ܠܐܢܬܬܗ	-9.82255
ܚܪܝܢ	-9.82427
▁ܕܒܟܠܗ	-9.82431
▁ܘܨܠ	-9.82465
ܬܠܡܝܕܝܟ	-9.82528
▁ܘܛܝܡܬܐܘܤ	-9.82582
▁ܝܡܝܢܝ	-9.82609
▁ܢܨܒ	-9.82615
▁ܐܡܝܢܐܝܬ	-9.82618
ܚܫܡܝܬܐ	-9.8263
▁ܕܦܠܚ	-9.82719
▁ܐܝܤ	-9.82742
▁ܒܟܐܦܐ	-9.82885
ܚܡܬܗ	-9.82931
▁ܙܡܪ	-9.82959
▁ܘܚܠܦ	-9.83263
▁ܕܡܚܒ	-9.83379
▁ܘܪܕܝܢ	-9.83544
▁ܫܦܪ	-9.83652
ܢܐܙܠܘܢ	-9.83654
▁ܥܡܠ	-9.83665
▁ܠܦܓܪ	-9.83691
ܬܘܬܒ	-9.83729
ܢܝܩܐ	-9.83763
▁ܐܪܟܘܢ	-9.84132
▁ܡܬܪܥ	-9.8424
▁ܫܒܬܐ	-9.84241
▁ܘܠܘܬ	-9.84266
▁ܕܝܘܢܐ	-9.84432
▁ܒܪܝܟ	-9.84439
ܢܗܝܪܐ	-9.84553
▁ܘܕܫ	-9.84561
▁ܒܗܬܬ	-9.84605
▁ܬܐܬܐ	-9.84625
▁ܐܫܬܡܥܬ	-9.84683
▁ܕܚܠܦ	-9.84807
▁ܒܛܢ	-9.8494
▁ܡܩܘܝ	-9.84979
▁ܚܘܪ	-9.8505
ܛܠܝܢ	-9.85066
▁ܡܡܠܠܝܢܢ	-9.85088
▁ܩܠ	-9.85089
▁ܪܥܝ	-9.85173
ܝܠܕܬ	-9.85259
▁ܒܛܠ	-9.85308
▁ܕܒܚܕ	-9.85324
ܚܨܘܕ	-9.85425
▁ܐܬܛܦܝܤ	-9.85561
▁ܟܘܟܒܐ	-9.85569
ܒܐܫ	-9.85598
ܚܬܗ	-9.85599
▁ܒܙܒܢܗ	-9.85642
ܨܗܐ	-9.85847
▁ܡܫܬܡܥ	-9.86151
▁ܕܚܠܘ	-9.86185
▁ܐܕܡ	-9.86459
▁ܘܫܒܚ	-9.86576
ܘܫܩ	-9.86653
▁ܚܟܝܡ	-9.8672
▁ܩܫܝܫ	-9.86798
▁ܢܡܘܤ	-9.86875
▁ܢܟܤ	-9.86979
▁ܕܡܨܠ	-9.87062
▁ܒܪܢܫ	-9.87229
ܪܒܝ	-9.87286
▁ܒܟܝܢ	-9.87761
ܡܠܬܗ	-9.88308
▁ܕܫܪܝܪ	-9.88504
▁ܠܐܘܪܚ	-9.88516
ܐܬܪܚܡ	-9.88647
ܡܤܟܢܐ	-9.88686
▁ܟܤܦ	-9.88724
ܢܙܒܢ	-9.88915
ܬܪܥܝܬ	-9.89043
▁ܡܫܬܘܬ	-9.89063
▁ܘܕܚܠ	-9.89088
ܩܢܝܐ	-9.89093
▁ܢܗܝܪ	-9.89107
▁ܠܥܝܢ	-9.89214
▁ܘܢܦܫ	-9.89362
ܟܪܙܘ	-9.89527
ܛܢܐ	-9.89662
ܪܘܗܝ	-9.89681
▁ܠܫܘ	-9.89714
▁ܕܫܕܪ	-9.89992
ܦܘܠܘܤ	-9.9006
▁ܡܟܫ	-9.9006
ܬܚܙܘܢܢܝ	-9.90105
▁ܘܒܥܝ	-9.90201
▁ܫܡܫ	-9.90563
ܚܙܘ	-9.90566
▁ܓܙ	-9.90693
▁ܡܝܬܝܢ	-9.90723
ܬܘܪܐ	-9.90935
ܓܫܘ	-9.90951
ܚܙܩ	-9.91027
▁ܕܐܫܟܚ	-9.91034
ܪܡܝܘ	-9.91114
ܬܗܦܟ	-9.91242
▁ܠܬܪܥܤܪ	-9.9142
▁ܘܨܠܝ	-9.91469
ܤܘܦ	-9.91486
ܕܪܘܢ	-9.91517
▁ܡܬܛܦܝܤ	-9.9159
▁ܢܘܚ	-9.91657
▁ܘܢܦܩܬ	-9.91678
▁ܚܕܘ	-9.91781
ܚܝܠܘܬܐ	-9.91833
ܩܘܤ	-9.91848
ܫܩܠ	-9.91944
ܩܢܛܪܘܢ	-9.91984
ܟܘܟܒܐ	-9.92025
ܫܡܪܝܐ	-9.92045
ܤܦܩ	-9.92067
ܗܟܘܬ	-9.92096
ܕܐܠܗܐ	-9.92099
▁ܕܗܢܘ	-9.92123
ܐܬܟܢܫܘ	-9.92157
ܥܕܥܕܐ	-9.92415
▁ܕܡܥܕ	-9.92618
ܕܢܚ	-9.92672
▁ܤܝ	-9.92688
ܬܪܝܗܘܢ	-9.9273
ܚܤܢ	-9.92835
ܠܐܚܪܢܐ	-9.9287
▁ܟܘܪ	-9.92884
▁ܠܩܤܪ	-9.92951
▁ܥܪܤ	-9.93055
ܠܚܡܐ	-9.93067
▁ܕܒܠܒ	-9.93116
▁ܠܫܒܥ	-9.93171
▁ܘܢܦܠܘ	-9.93175
ܩܝܠܝܩܝܐ	-9.93184
▁ܐܠܝܫܒܥ	-9.93184
▁ܕܡܘܠܟܢܐ	-9.93184
▁ܠܕܪܡܤܘܩ	-9.93184
▁ܠܩܪܝܒܟ	-9.93184
▁ܠܩܕܝܫܐ	-9.93184
▁ܐܫܬܒܗܪ	-9.93184
▁ܠܚܘܪܒܐ	-9.93184
▁ܘܐܬܕܟܪ	-9.93184
▁ܕܒܐܠܗܐ	-9.93185
▁ܡܫܬܒܩ	-9.93185
▁ܘܐܫܬܘܕܥ	-9.93185
▁ܩܪܨܘܗܝ	-9.93185
▁ܒܟܘܪܗܢ	-9.93185
▁ܕܒܝܗܘܕ	-9.93185
▁ܕܡܩܒܠ	-9.93186
▁ܘܡܨܠܝܢ	-9.93186
▁ܤܘܟܐ	-9.93186
▁ܦܬܝܚ	-9.93186
▁ܐܫܬܘܕܥ	-9.93186
▁ܕܢܒܝܘܬܐ	-9.93187
▁ܕܙܕܩ	-9.93187
▁ܫܘܬܦܘܬܐ	-9.93188
▁ܒܥܪܤ	-9.93188
ܝܚܝܕܝ	-9.93189
▁ܘܩܥܘ	-9.9319
▁ܡܬܗܦܟܝܢ	-9.93191
▁ܕܐܫܬܕܪ	-9.93191
▁ܬܕܥܘܢ	-9.93194
▁ܬܥܠܘܢ	-9.93194
▁ܨܒܝܐ	-9.93195
▁ܡܬܟܪܟ	-9.93198
▁ܕܙܝܬܐ	-9.93202
ܡܬܟܬܫ	-9.93205
▁ܕܡܗܠܟ	-9.93209
▁ܘܐܘܚܕ	-9.9321
▁ܩܢܝܢܗ	-9.93212
▁ܘܦܪܫ	-9.93238
▁ܕܥܒܝܕ	-9.93248
▁ܠܢܒܝܐ	-9.93271
▁ܡܫܠܡܢܘܬ	-9.93282
▁ܡܢܗܪ	-9.93291
▁ܠܡܚܝܘ	-9.933
▁ܕܝܩܕ	-9.9331
ܢܤܗܕ	-9.93312
▁ܕܐܤܝܡ	-9.93334
▁ܤܢܝܐ	-9.93344
▁ܥܝܪܝܢ	-9.93348
▁ܨܐܕ	-9.93363
▁ܕܬܫܐܠ	-9.93374
▁ܕܐܒܗܝ	-9.93381
ܬܩܒܠ	-9.93386
▁ܘܒܚܘܒܐ	-9.93405
▁ܘܢܬܠ	-9.93414
▁ܐܫܬܐܠ	-9.93418
▁ܕܒܐܝ	-9.93428
▁ܢܫܬܩܠ	-9.93432
ܬܐܠܕ	-9.93438
▁ܙܝܬܐ	-9.93443
▁ܕܐܬܪ	-9.93456
▁ܠܤܗܕܘܬܐ	-9.93457
▁ܘܬܒܥ	-9.93467
▁ܠܬܚܘ	-9.93487
▁ܘܚܘܪ	-9.93521
ܤܓܝܐܬܐ	-9.93541
▁ܢܫܒܘܩ	-9.9355
▁ܡܬܚܙܝܢ	-9.93554
ܘܪܝܗ	-9.93556
▁ܡܝܩܪ	-9.93571
▁ܐܠܗܟ	-9.93584
▁ܐܬܟܬܒ	-9.93586
ܡܘܠ	-9.93589
▁ܤܪܝܩܬܐ	-9.93615
▁ܪܫܝܥܐ	-9.93643
▁ܒܥܕܥܕܐ	-9.93671
▁ܐܢܝܚ	-9.93694
ܫܘܠܛܢܐ	-9.93711
▁ܕܥܕ	-9.93713
▁ܬܫܒܘܚܬܗ	-9.93718
▁ܘܒܐܪܥܐ	-9.9378
▁ܠܥܕܥܕܐ	-9.9379
▁ܡܤܝܒܪܢܘܬܐ	-9.93834
▁ܤܓܝܐܢ	-9.93838
▁ܫܢܬ	-9.93841
▁ܕܕܝܠܗ	-9.9386
▁ܡܬܚܒܠ	-9.93877
▁ܢܘܢܝܢ	-9.93878
▁ܕܡܫܠܡ	-9.93888
▁ܡܫܥܒܕ	-9.93906
▁ܛܢܦܘܬܐ	-9.93939
▁ܙܟܪܝܐ	-9.9394
▁ܠܬܚܬ	-9.93941
▁ܠܝܘܤܦ	-9.93946
▁ܢܩܝܦ	-9.93964
ܢܩܫ	-9.94023
▁ܘܐܝܬܝܘ	-9.94027
▁ܚܡܝܪ	-9.94036
▁ܡܬܝܗܒ	-9.94043
▁ܤܓܝܐܝܢ	-9.94047
▁ܙܕܩܬܐ	-9.94048
▁ܒܡܐܬܝܬܗ	-9.94058
▁ܒܡܬܠܐ	-9.94123
▁ܘܐܒܝ	-9.94125
▁ܡܫܬܒܗܪܝܢ	-9.94127
▁ܢܦܩܘܢ	-9.94127
▁ܒܚܟܡܬ	-9.94137
ܒܐܝܡܡܐ	-9.94156
ܫܘܛ	-9.94238
▁ܘܫܒܥ	-9.94279
▁ܡܩܒܠܝܢ	-9.9429
▁ܗܝܡܢܘܬܗܘܢ	-9.94324
▁ܕܥܬܝܕܝܢ	-9.94333
ܡܪܩܘܤ	-9.94339
▁ܐܒܗܬܢ	-9.94341
▁ܘܠܡܕܝܢܬ	-9.94382
▁ܫܕ	-9.944
▁ܕܝܘܪܕܢܢ	-9.94401
▁ܚܘܒܟܘܢ	-9.94429
ܗܝܟܠܗ	-9.94437
▁ܘܫܘܠܛܢܐ	-9.94462
▁ܫܪܝܪܬܐ	-9.94466
▁ܢܫܟܚܘܢ	-9.9447
▁ܥܒܕܝܟ	-9.94478
▁ܠܥܡܗ	-9.94529
▁ܕܝܠܝܕ	-9.94568
▁ܡܩܝܡ	-9.94581
ܢܫܐܠܝܘܗܝ	-9.94611
▁ܒܠܚܘܕܝܗܘܢ	-9.94633
▁ܓܦ	-9.94735
ܡܦܪܫ	-9.94768
▁ܡܛܐ	-9.94841
▁ܠܝܘܡܢܐ	-9.94975
▁ܘܒܗܕ	-9.95011
▁ܥܝܢܝܟ	-9.95039
▁ܚܪܬܐ	-9.95117
▁ܠܫܡ	-9.9526
▁ܡܝܬܝܢܢ	-9.95279
▁ܐܪܝܡ	-9.9535
▁ܘܐܠܘ	-9.95355
ܠܒܘܬܟܘܢ	-9.95593
▁ܒܚܪܬ	-9.95603
▁ܒܐܦܝ	-9.95688
▁ܕܢܤܝܡ	-9.95752
ܦܪܝܤ	-9.95877
ܘܝܘܬܐ	-9.95912
▁ܪܓܬ	-9.95922
ܦܠܚܐ	-9.96069
▁ܥܒܕܝܗܘܢ	-9.96142
▁ܕܟܘܪܤܝ	-9.96145
▁ܥܒܕܝܟܘܢ	-9.96165
▁ܐܥܠ	-9.96305
▁ܘܥܝܢ	-9.96315
▁ܘܡܫܚ	-9.96373
▁ܐܟܘܠ	-9.96426
▁ܓܒܝܬ	-9.96571
▁ܒܥܝܬ	-9.96651
▁ܛܝܒ	-9.96987
▁ܚܝܒܝܢ	-9.9705
ܝܡܡܐ	-9.97064
ܐܫܕ	-9.9716
ܡܪܘܬܐ	-9.97208
▁ܫܦܝܪܬܐ	-9.97222
ܝܫܘܥ	-9.97282
ܟܒܪܝܬܐ	-9.97326
▁ܒܬܪܟ	-9.97394
ܤܘܤܝ	-9.97449
ܡܬܩܪܒܝܢ	-9.97459
▁ܫܘܘܕ	-9.97484
▁ܠܤ	-9.97517
▁ܕܟܐܢ	-9.97563
▁ܘܦܬܚ	-9.97864
▁ܛܡܐ	-9.98023
▁ܘܟܬܒ	-9.98067
▁ܘܩܘܝ	-9.98137
▁ܘܐܬܕܡܪ	-9.98218
ܬܦܠܓ	-9.98317
▁ܠܗܪܟܐ	-9.98429
▁ܘܚܘܝ	-9.98549
▁ܘܫܘܪ	-9.98589
ܥܝܢܝܗܘܢ	-9.98637
ܢܬܓܠܐ	-9.98786
▁ܘܕܝܢܐ	-9.98824
▁ܒܬܪܥ	-9.98829
▁ܘܪܒ	-9.98903
ܐܘܪܚܐ	-9.99182
▁ܒܝܘܡܬܗ	-9.99524
▁ܒܠܘ	-9.99542
▁ܡܥܠ	-9.99623
▁ܢܫܡܥܘܢ	-10.0001
▁ܥܕܪ	-10.0027
▁ܒܚܛܗ	-10.0059
▁ܥܠܝܡ	-10.0063
ܫܬܩܠ	-10.0065
▁ܓܡܪ	-10.0068
▁ܘܡܠܦܝܢ	-10.0088
▁ܡܫܝܚ	-10.0118
▁ܒܢܝܢܐ	-10.012
▁ܥܒܕܬܘܢ	-10.0132
▁ܤܝܒܪܬ	-10.0142
▁ܠܢܦܫ	-10.0168
▁ܡܚܒܝܢ	-10.0171
▁ܐܡܝ	-10.0177
▁ܢܩܪ	-10.0179
ܦܛܪ	-10.0212
ܢܤܝܘܢܐ	-10.0216
▁ܕܐܒܘ	-10.0239
▁ܒܝܗܘܕ	-10.0251
▁ܕܩܪܝ	-10.028
▁ܕܦܘܩܕܢ	-10.0305
▁ܕܫܪܝ	-10.0311
▁ܘܤܘ	-10.0332
▁ܠܐܠܗ	-10.0335
▁ܢܛܪܝܢ	-10.0346
▁ܕܡܫܡܫ	-10.0347
▁ܩܒܪ	-10.0353
ܡܥܕܪܢ	-10.0356
▁ܘܒܡܠ	-10.0373
ܟܪܝܗܘܬ	-10.0406
▁ܠܡܠܐܟ	-10.0437
▁ܙܠܝ	-10.0441
▁ܕܡܪܝ	-10.0456
▁ܕܪܓ	-10.0469
▁ܐܪܡ	-10.048
ܢܘܗܪܐ	-10.0482
▁ܕܢܫܟܚ	-10.0493
ܝܕܥܬܐ	-10.0502
ܥܕܪ	-10.0509
ܐܪܤܛ	-10.0529
ܦܘܤ	-10.0539
ܐܬܪܡܝ	-10.0549
▁ܒܠܫܢ	-10.0559
▁ܩܪܝ	-10.0561
ܕܪܫ	-10.0586
▁ܦܓ	-10.0587
ܬܚܙܐ	-10.059
ܐܒܗܬܢ	-10.0601
▁ܥܒܝܕ	-10.0602
ܝܘܪܕܢܢ	-10.0608
ܢܩܛܠܘܢܝܗܝ	-10.0623
ܩܘܪܒܢܐ	-10.0626
ܦܘܪܩܢܐ	-10.0627
ܗܓܡܘܢܐ	-10.0627
ܦܨܚܐ	-10.0628
ܐܫܥܝܐ	-10.0628
ܠܤܓܝܐܐ	-10.0629
ܐܬܓܠܝ	-10.0632
ܡܠܬܝ	-10.0633
▁ܬܬܩܪ	-10.0647
▁ܘܐܢܕ	-10.0655
▁ܘܫܢܝ	-10.066
ܡܤܬܟܠ	-10.0662
▁ܐܤܬܟܠ	-10.0695
ܪܘܪܒ	-10.0706
ܡܠܐܟܘܗܝ	-10.0719
▁ܐܫܕ	-10.0735
▁ܕܢܩܛܠ	-10.0743
▁ܕܢܘܒܕ	-10.0744
ܒܕܪܡܤܘܩ	-10.0747
ܩܘܪܢܬܘܤ	-10.0747
▁ܒܐܦܤܘܤ	-10.0747
▁ܒܓܠܝܠܐ	-10.0747
▁ܙܝܙܢܐ	-10.0747
▁ܦܝܠܟܤ	-10.0747
ܛܘܥܝܝ	-10.0747
▁ܐܨܛܒܝ	-10.0747
▁ܓܘܕܦܐ	-10.0747
▁ܕܙܕܝܩܐ	-10.0747
▁ܡܕܒܪܢ	-10.0747
▁ܚܪܝܦܬܐ	-10.0747
▁ܕܟܤܦ	-10.0747
▁ܕܢܫܬܒܚ	-10.0747
▁ܦܫܝܛ	-10.0747
▁ܒܟܐܢܘܬܐ	-10.0747
▁ܕܐܬܝܠܕ	-10.0747
▁ܠܡܦܠܚ	-10.0747
▁ܛܠܝܘܬ	-10.0747
▁ܡܫܚܠܦܐ	-10.0747
▁ܐܤܛܕܘ	-10.0747
▁ܘܬܡܝܗ	-10.0747
▁ܡܨܥܪ	-10.0747
ܕܩܫܝܫܐ	-10.0747
▁ܢܫܬܟܚ	-10.0747
▁ܘܐܫܬܡܥ	-10.0747
ܐܝܪܝܚܘ	-10.0747
▁ܠܒܤܬܪܗ	-10.0747
ܩܘܦܪܘܤ	-10.0747
▁ܘܢܫܠܡܘܢ	-10.0747
▁ܡܫܬܢܩ	-10.0748
ܡܤܪܗܒ	-10.0748
▁ܘܢܫܟܚ	-10.0748
ܢܦܪܘܥ	-10.0748
▁ܬܩܒܠܘܢ	-10.0748
▁ܡܓܠܬ	-10.0748
ܓܠܛܝܐ	-10.0748
▁ܡܬܢܛܪ	-10.0748
▁ܠܡܠܦܘ	-10.0748
▁ܬܐܙܠ	-10.0748
▁ܕܐܪܒܥ	-10.0748
ܠܤܛܝܐ	-10.0749
▁ܕܕܝܘܐ	-10.0749
ܓܠܝܘܬ	-10.0749
▁ܘܬܡܗ	-10.0749
ܙܪܘܥ	-10.075
▁ܕܦܛܝܪܐ	-10.075
▁ܒܢܒܝܐ	-10.075
▁ܒܓܗܢܐ	-10.075
▁ܐܬܦܢܝ	-10.075
ܬܐܪܬܗܘܢ	-10.075
▁ܕܐܗܘܐ	-10.0751
▁ܢܩܦ	-10.0751
▁ܡܫܪܪ	-10.0751
▁ܒܐܤܟ	-10.0752
▁ܪܕܘܦ	-10.0752
▁ܘܚܙܬ	-10.0752
▁ܐܫܐܠ	-10.0753
▁ܝܘܢܝܐ	-10.0754
▁ܡܘܒܠ	-10.0754
▁ܝܘܩܪ	-10.0754
▁ܠܥܤܝܢ	-10.0754
▁ܕܒܗܝܡܢܘܬܐ	-10.0756
▁ܡܛܬ	-10.0757
▁ܒܡܕܥܝ	-10.0758
▁ܢܩܘܐ	-10.076
▁ܡܬܐܫܕ	-10.076
ܠܝܥܩܘܒ	-10.076
▁ܕܪܟܫ	-10.076
▁ܪܘܫܡ	-10.0761
▁ܪܥܝܢܟ	-10.0762
▁ܐܕܪܟ	-10.0762
ܠܘܛܬܐ	-10.0765
▁ܘܥܐܠ	-10.0767
▁ܒܫܒ	-10.0769
▁ܛܪܦ	-10.077
▁ܕܠܡܪܢ	-10.077
▁ܢܘܕ	-10.0771
▁ܘܐܬܦܬܚ	-10.0774
▁ܡܕܢܚ	-10.0774
▁ܒܨܠܘܬ	-10.0776
ܒܪܒܪܝܐ	-10.0777
ܟܤܝܬ	-10.0777
▁ܪܥܡ	-10.0777
▁ܐܒܗܝܟܘܢ	-10.0782
▁ܡܫܚܐ	-10.0784
▁ܫܬܝܩ	-10.0787
▁ܒܟܢܘܫܬܗܘܢ	-10.0788
▁ܐܬܝܕܥ	-10.0789
▁ܕܒܐܪܥܐ	-10.079
▁ܬܥܒܪ	-10.0793
▁ܕܢܤܩ	-10.0795
▁ܘܒܚܝܠܐ	-10.0795
▁ܤܟܠܘܬܐ	-10.0796
▁ܦܓܥ	-10.0797
▁ܒܢܘܗܪܐ	-10.0797
▁ܘܡܫܘ	-10.0798
ܠܡܗ	-10.0798
▁ܕܡܠܟܝܙܕܩ	-10.0802
ܚܘܛܪ	-10.0803
▁ܡܚܝܢܢ	-10.0807
▁ܠܢܤܝܘܢܐ	-10.0811
ܡܤܬܒܪܝܢ	-10.0812
▁ܬܚܘܡ	-10.0813
▁ܕܡܪܗ	-10.0815
▁ܚܒܪܗ	-10.0815
▁ܘܐܦܩܘܗܝ	-10.0821
▁ܒܛܘܪܐ	-10.0824
▁ܘܢܓܕ	-10.0825
▁ܩܪܢܬ	-10.0828
▁ܢܛܥܡ	-10.0832
▁ܕܠܒܪ	-10.0837
▁ܠܡܩܛܠܗ	-10.0839
▁ܦܪܝܩ	-10.0839
▁ܐܬܝܕܥܬ	-10.0842
▁ܐܟܘܬܝ	-10.0843
ܬܥܒܕ	-10.0845
▁ܚܛܗܝܗܘܢ	-10.0845
ܬܚܪܪ	-10.085
▁ܐܬܩܪܝܬ	-10.0855
▁ܒܤܡܐ	-10.0856
▁ܐܠܝܨ	-10.0859
ܫܘܩܪܐ	-10.086
▁ܠܡܫܬܐ	-10.0871
▁ܕܩܒܠܬ	-10.0873
▁ܡܠܬܝ	-10.0874
▁ܠܤܓܝܐܐ	-10.0875
▁ܐܤܬܟܠܘ	-10.0878
▁ܐܬܦܠܓ	-10.0879
▁ܘܢܩܛܠܘܢܝܗܝ	-10.088
▁ܠܐܠܗܢ	-10.0881
▁ܡܓܢ	-10.0887
▁ܟܟܪܝܢ	-10.0889
▁ܤܪܝܩ	-10.0891
▁ܕܢܘܗܪܐ	-10.0891
▁ܝܪܬܘܬܐ	-10.0894
▁ܘܡܫܡܫܢܐ	-10.0895
▁ܘܒܐܝܡܡܐ	-10.0896
▁ܐܘܪܚܗ	-10.0897
▁ܕܡܩܘ	-10.0898
▁ܘܠܚܡܐ	-10.0904
▁ܚܪܬܗ	-10.0907
ܡܟܫܘܠܐ	-10.0908
▁ܠܡܨܪܝܢ	-10.0911
▁ܐܚܝܬܟ	-10.0912
▁ܐܫܕܪ	-10.0914
▁ܨܦ	-10.0916
▁ܦܪܚܬܐ	-10.0917
▁ܬܩܢ	-10.0925
▁ܘܒܗܝܡܢܘܬ	-10.0927
▁ܩܛ	-10.093
▁ܕܩܝܡܬܐ	-10.0931
▁ܒܛܝܒܘܬܗ	-10.0938
▁ܪܓܝܓܬܐ	-10.0938
ܕܠܓܘ	-10.0941
▁ܚܘܤ	-10.0941
▁ܫܒܝܩ	-10.0942
▁ܕܡܘܬܗ	-10.0945
ܚܫܒܬ	-10.0947
▁ܕܠܘܬܝ	-10.0955
ܡܙܕܪܥ	-10.0958
ܬܚܕܬ	-10.0959
ܙܟܘܬܐ	-10.0963
▁ܕܐܚܕ	-10.0964
▁ܗܠܟܘ	-10.0967
▁ܕܬܒ	-10.097
▁ܕܬܬܠ	-10.097
▁ܘܫܕ	-10.0981
▁ܕܛܝܒܘܬܐ	-10.0987
▁ܩܝܦܐ	-10.1
ܬܬܢܚ	-10.1003
ܡܥܘܢ	-10.1006
ܐܫܬܘܕܝ	-10.1019
▁ܕܫܬܐ	-10.1021
▁ܡܠܘ	-10.103
▁ܒܓܢ	-10.1057
▁ܘܟܢܫܘ	-10.1066
▁ܒܡܕܝܢܬܗ	-10.1069
▁ܐܫܬܝ	-10.1078
▁ܘܥܤܪ	-10.1102
▁ܐܬܚܫܒ	-10.1112
▁ܕܛܝܒ	-10.1116
ܒܫܗ	-10.1119
▁ܘܐܚܕܘ	-10.1136
▁ܕܟܐ	-10.1142
▁ܚܙܬ	-10.1146
ܚܒܨ	-10.115
▁ܕܐܤܝ	-10.116
▁ܢܩܒܠܘܢ	-10.1163
▁ܛܘܒܝܟ	-10.1165
▁ܕܚܟܝܡ	-10.117
▁ܬܠܡܝܕܝ	-10.119
▁ܕܡܬܚܙ	-10.1193
▁ܘܫܡܫ	-10.1197
▁ܒܪܬܗ	-10.121
ܦܘܠܓ	-10.1225
▁ܕܡܚܒܝܢ	-10.1225
ܡܫܬܡܥܢܘܬ	-10.1228
▁ܘܒܤܪ	-10.1231
ܠܐܠܗܐ	-10.1231
ܡܐܟܘܠܬ	-10.1233
▁ܢܚܘܢ	-10.1246
ܡܫܝܚܐ	-10.1257
▁ܕܫܐܠܝܢ	-10.1289
ܤܬܡܟܘ	-10.1308
▁ܪܚܡܬ	-10.1309
▁ܠܗܝܡܢܘܬ	-10.1318
ܬܒܩܘ	-10.1329
▁ܬܐܡܪ	-10.1348
ܕܡܫܝܚܐ	-10.1352
▁ܕܢܦܫ	-10.137
ܓܘܓ	-10.1372
▁ܨܒܝܢܝ	-10.1382
▁ܕܢܗܝܡܢ	-10.1409
▁ܦܠܚܝ	-10.1454
▁ܘܕܚܠܬ	-10.1479
ܦܝܪ	-10.1496
▁ܕܡܠܦ	-10.1506
▁ܢܬܡܠ	-10.1518
▁ܒܐܬܘ	-10.1522
▁ܕܫܪܝܪܐ	-10.1529
▁ܘܚܕܪ	-10.1536
▁ܒܥܠܕܒܒܝܟ	-10.154
ܬܥܤܪ	-10.1562
ܦܓܪܐ	-10.1595
▁ܒܕܘܟ	-10.1605
▁ܚܟܡ	-10.1626
ܥܬܝܪܐ	-10.1647
▁ܐܬܐܤܝ	-10.1648
ܙܥܘܪܐ	-10.1651
▁ܚܠܦܝܟ	-10.166
ܨܒܥ	-10.1676
▁ܐܘܪܚ	-10.1685
▁ܕܙܢܝ	-10.1687
ܚܤܝܪܝ	-10.1695
▁ܕܢܩܒܠ	-10.1771
▁ܟܐܢܘܬ	-10.1783
▁ܘܕܚ	-10.1785
▁ܕܫܐܠ	-10.1829
▁ܕܬܐܬ	-10.1838
▁ܐܬܢܒܝ	-10.1841
ܟܪܘܙܘܬ	-10.1907
ܠܝܫܘܥ	-10.1933
ܓܗܢ	-10.1979
▁ܢܚܒ	-10.1995
▁ܒܩܝܡܬ	-10.2009
ܟܪܝܗܐ	-10.201
▁ܘܟܒܪ	-10.2013
ܬܫܟܚܘܢ	-10.202
▁ܕܡܟܤ	-10.2035
ܙܡܪ	-10.206
ܐܚܝܟܘܢ	-10.2094
▁ܠܡܠܟ	-10.2109
ܫܬܝܢ	-10.216
▁ܢܥ	-10.2182
ܟܢܘܫܬܐ	-10.2187
▁ܕܢܩܪܒ	-10.2208
▁ܟܟܪ	-10.2264
ܐܟܤܢܝܐ	-10.229
ܙܩܝܦܗ	-10.2293
▁ܠܡܩܛܠ	-10.2294
▁ܕܒܪܝ	-10.2294
ܦܝܠܛܘܤ	-10.2296
ܠܘܩܒܠ	-10.2297
ܦܩܚ	-10.2301
ܪܗܘܡܝ	-10.2315
ܩܝܡܬܗ	-10.2316
ܟܠܝܘܡ	-10.2328
ܐܠܝܨ	-10.2334
▁ܒܓܘ	-10.2354
ܟܦܪܢܚܘܡ	-10.2354
▁ܕܡܛܝ	-10.2366
▁ܕܡܙܕ	-10.238
▁ܦܠܓܘ	-10.2382
▁ܪܚܝ	-10.2385
ܬܚܒܠ	-10.2389
ܐܠܟܤܢܕܪ	-10.2403
ܐܤܛܦܢܘܤ	-10.2414
ܙܚܘܪܝܬܐ	-10.2414
▁ܒܡܫܘܚܬܐ	-10.2414
▁ܘܪܓܠܘܗܝ	-10.2414
▁ܢܙܕܕܩ	-10.2414
▁ܕܕܒܝܚܐ	-10.2414
▁ܘܐܘܒܠܘܗܝ	-10.2414
▁ܠܕܘܟܪܢ	-10.2414
▁ܠܫܐܘܠ	-10.2414
▁ܐܫܬܘܬܦ	-10.2414
▁ܠܡܘܒܕܘ	-10.2414
▁ܫܪܪܗ	-10.2414
▁ܩܘܦܝܢܝܢ	-10.2414
ܐܬܬܤܝܡ	-10.2414
▁ܠܡܩܒܠܘ	-10.2414
▁ܘܡܫܟܚ	-10.2414
▁ܠܡܫܪܝܬܐ	-10.2414
▁ܒܥܢܢܐ	-10.2414
▁ܘܐܫܬܟܚ	-10.2414
▁ܕܦܓܪܗ	-10.2414
▁ܠܐܦܤܘܤ	-10.2414
▁ܢܪܚܡ	-10.2414
▁ܥܤܒܐ	-10.2414
▁ܘܤܒܥܘ	-10.2414
▁ܦܤܘܩ	-10.2414
▁ܐܬܕܒܪ	-10.2414
▁ܒܩܛܝܪܐ	-10.2414
▁ܡܤܟܝܢܢ	-10.2414
▁ܬܓܘܪ	-10.2414
▁ܒܩܢܘܡܗ	-10.2414
▁ܬܫܒܩܘܢ	-10.2414
▁ܒܐܦܘܗܝ	-10.2414
▁ܕܢܕܒܪ	-10.2414
▁ܠܡܫܐܠ	-10.2414
▁ܬܝܒܘܬܐ	-10.2414
▁ܘܝܗܘܕܐ	-10.2415
▁ܡܫܘܚܬ	-10.2415
ܥܛܝܦ	-10.2415
▁ܬܥܡܕܘܢ	-10.2415
▁ܢܛܝܪ	-10.2415
▁ܬܡܝܗ	-10.2415
▁ܕܢܥܠܘܢ	-10.2415
▁ܬܫܡܥܘܢ	-10.2415
▁ܙܗܝܪ	-10.2415
▁ܙܘܓ	-10.2415
ܡܒܕܪ	-10.2415
ܐܫܬܪܪܬ	-10.2415
▁ܐܤܛܠ	-10.2416
▁ܛܘܦܢ	-10.2416
▁ܐܢܚܢܢ	-10.2416
ܬܗܠܟܘܢ	-10.2416
▁ܬܟܠܘܢ	-10.2416
▁ܘܐܘܕܥ	-10.2416
ܐܚܙܝܟܘܢ	-10.2416
▁ܪܥܘܬܐ	-10.2416
▁ܒܚܠܡ	-10.2417
▁ܕܬܚܒ	-10.2417
▁ܒܕܡܗ	-10.2417
ܠܕܝܩܝܐ	-10.2417
▁ܛܢܢܐ	-10.2417
▁ܕܒܬܪܗ	-10.2418
ܟܢܘܫܬܗܘܢ	-10.2418
ܡܨܥܝܐ	-10.2418
ܥܪܘܒ	-10.2419
▁ܘܫܠܝܛ	-10.2419
▁ܤܝܦܐ	-10.2419
▁ܢܤܓ	-10.2419
▁ܒܒܪܗ	-10.242
▁ܕܩܪܟܘܢ	-10.2421
▁ܒܙܩ	-10.2421
ܛܘܦܤ	-10.2421
▁ܐܬܬܙܝܥ	-10.2421
▁ܕܠܩܘܒܠ	-10.2421
▁ܘܟܪܟ	-10.2421
▁ܒܩܒܪܐ	-10.2422
▁ܒܚܛܗܝܟܘܢ	-10.2422
▁ܚܕܝܐܝܬ	-10.2423
▁ܕܡܠܟܘܬܗ	-10.2423
▁ܠܐܪܒܥ	-10.2424
▁ܠܢܝܚܬ	-10.2424
ܤܚܦ	-10.2424
ܐܫܬܒܚ	-10.2425
▁ܬܪܥܝܬܐ	-10.2425
▁ܕܐܬܡܠܠ	-10.2425
ܐܬܦܪܫ	-10.2425
▁ܕܐܬܐܤܝ	-10.2426
▁ܚܫܝܒ	-10.2426
▁ܘܐܚܪܝܐ	-10.2426
▁ܡܨܝܕܬܗܘܢ	-10.2428
ܬܡܠܟ	-10.2429
ܥܘܬܪ	-10.243
ܙܗܪ	-10.243
▁ܕܝܗܝܒ	-10.2431
▁ܕܐܬܦܩܕ	-10.2431
▁ܠܓܒܝܐ	-10.2433
▁ܡܫܝܓ	-10.2433
▁ܘܕܒܚܐ	-10.2433
▁ܕܤܓܕ	-10.2435
▁ܠܩܪܒܐ	-10.2437
▁ܕܡܚܝܠ	-10.2438
ܕܝܠܝ	-10.2439
▁ܕܠܒܢܝ	-10.2439
ܠܙܪܥ	-10.244
▁ܦܤܐ	-10.2441
▁ܡܘܬܪ	-10.2441
▁ܨܘܪ	-10.2442
▁ܘܫܡܝ	-10.2444
▁ܕܡܬܚܒܠ	-10.2445
▁ܓܠܝܢ	-10.2445
▁ܐܙܕܪܥ	-10.2447
ܬܪܥܤܪܬܗ	-10.2447
▁ܡܬܬܙܝܥ	-10.2449
▁ܘܐܡܗ	-10.2451
▁ܠܐܢܛܝܘܟܝ	-10.2453
▁ܕܐܙܕܩܦ	-10.2455
ܓܚܟ	-10.2458
▁ܕܢܥܒܪ	-10.2462
▁ܢܐܟܠܘܢ	-10.2464
▁ܥܦܪ	-10.2467
▁ܡܘܠܝ	-10.2471
▁ܒܨܦܪܐ	-10.2472
▁ܒܘܟܪܐ	-10.2472
▁ܡܬܝܬܪ	-10.2473
▁ܐܘܢܓܠܝܘܢ	-10.2473
▁ܕܢܨܒ	-10.2474
▁ܠܡܬܒ	-10.2478
▁ܡܬܝܕܥ	-10.2484
▁ܕܠܡܢ	-10.2489
▁ܠܢܦܫܝ	-10.2489
▁ܠܐܒܗܬܢ	-10.2492
▁ܚܘܪܬܐ	-10.2492
▁ܫܩܠܬܘܢ	-10.2495
▁ܡܦܫܩ	-10.2496
▁ܥܘܡܩ	-10.2496
▁ܢܦܫܬܟܘܢ	-10.25
▁ܡܨܠܝܢ	-10.2503
▁ܡܤܟܠ	-10.2507
▁ܘܐܤܩ	-10.2509
▁ܚܢܦܐ	-10.2519
▁ܠܒܘܫܐ	-10.252
▁ܒܫܡܟ	-10.252
▁ܐܤܪ	-10.2522
▁ܡܤܒ	-10.2523
▁ܘܐܚܕܘܗܝ	-10.2529
▁ܕܢܕܘܢ	-10.253
▁ܕܡܪܝܡ	-10.2532
ܪܡܙ	-10.2536
ܩܒܘܪ	-10.2536
▁ܩܨܝ	-10.2542
▁ܒܝܫܘܬ	-10.2552
▁ܪܘܚܢܝ	-10.2556
▁ܢܠܦ	-10.2559
▁ܡܫܬܥ	-10.2567
▁ܕܢܬܚܙ	-10.2567
▁ܒܐܤܘܪ	-10.2573
▁ܒܝܘܠܦܢܐ	-10.258
▁ܤܒܪܬܝ	-10.2583
▁ܡܥܨ	-10.2589
▁ܐܘܤܦ	-10.259
▁ܡܕܥ	-10.2602
▁ܘܠܐܡܟ	-10.2608
▁ܡܦܢ	-10.2612
▁ܕܥܟ	-10.2628
▁ܠܐܤܘܪ	-10.2632
▁ܪܚܡܘܗܝ	-10.264
ܛܫܐ	-10.2641
▁ܐܬܬܓܪ	-10.2648
ܐܪܛܡ	-10.2651
▁ܪܘܚܢܐ	-10.2656
ܢܦܠܘܚ	-10.2659
▁ܒܡܘܬܐ	-10.2659
▁ܢܗܝܡܢ	-10.2675
ܬܢܝܢܐ	-10.2681
▁ܤܒܥ	-10.2693
▁ܢܫܒ	-10.2702
▁ܚܐܝܢ	-10.2704
ܩܘܒܠ	-10.2706
▁ܘܡܬܩܪ	-10.2712
▁ܕܐܫܟܚܬ	-10.2715
ܥܬܪܘ	-10.2738
▁ܤܟܠܘܬܗ	-10.2751
ܬܛܥܡ	-10.2769
ܪܥܝܢܝ	-10.2776
ܡܬܕܟܪ	-10.2785
▁ܘܒܒܝܬ	-10.2803
ܬܚܘܝܬ	-10.2803
ܩܤܪܝܐ	-10.2806
▁ܕܒܪܟ	-10.2817
▁ܟܤܝܬ	-10.2845
ܒܡܪܢ	-10.2847
▁ܕܫܕܪܬ	-10.2853
ܡܬܓܠܐ	-10.2853
▁ܩܢܘܡ	-10.2858
▁ܘܐܬܚܫܒ	-10.286
▁ܓܙܪ	-10.2861
ܠܒܟ	-10.2864
▁ܕܘܢܘ	-10.2868
▁ܘܡܐܤ	-10.2872
ܪܚܐ	-10.2876
ܫܬܩܘ	-10.29
▁ܡܕܟ	-10.2904
▁ܢܛܥ	-10.2909
▁ܘܒܪܘܚ	-10.2929
ܐܫܬܒܩ	-10.2955
▁ܕܩܨܝ	-10.2962
ܓܠܠܐ	-10.2968
▁ܐܤܬܡܟ	-10.2978
▁ܢܪܡ	-10.2984
▁ܒܚܫ	-10.2988
ܤܛܘܤ	-10.2998
▁ܕܢܒܥ	-10.3009
▁ܘܗܝܡܢ	-10.3009
ܢܩܪܒܘܢ	-10.3028
ܢܩܘܘܢ	-10.3031
▁ܡܬܡܠ	-10.3042
ܙܕܗܪܘ	-10.3044
▁ܘܡܤܝܒܪܢܘܬ	-10.306
▁ܘܐܚܝܕ	-10.3066
ܫܢܝܗܘܢ	-10.3071
▁ܕܬܫܬ	-10.3072
▁ܚܫܒ	-10.3076
▁ܠܡܤܒܪ	-10.3101
▁ܕܐܬܠ	-10.3103
▁ܦܘܡܝ	-10.3129
▁ܘܒܝܘܠܦܢ	-10.3132
▁ܢܬܚܙ	-10.3145
ܚܛܗܝܗܘܢ	-10.3167
▁ܕܢܡܠ	-10.3196
ܓܕܦܘ	-10.3201
▁ܚܨܝܟ	-10.3221
ܢܡܘܤܐ	-10.3227
▁ܠܕܪ	-10.3254
▁ܠܢܦܫܟ	-10.3279
▁ܒܤܒܪ	-10.3283
▁ܠܤܒܪܬ	-10.3295
ܝܠܦܬܘܢ	-10.3311
▁ܩܘܝ	-10.3317
▁ܒܫܘܠܛܢ	-10.3364
ܗܝܡܢܘܬܐ	-10.3365
ܛܥܝܘܬ	-10.338
ܓܡܪܬ	-10.3387
ܒܡܤܝܒܪܢܘܬܐ	-10.3399
▁ܡܚܝܠ	-10.3416
ܪܦܐ	-10.3421
▁ܡܨܝܕܬ	-10.3424
▁ܕܗܝܡܢ	-10.3434
▁ܨܝܕ	-10.3461
▁ܡܬܪܕ	-10.3463
▁ܒܤܒܪܬ	-10.3468
▁ܕܢܦ	-10.3475
▁ܕܐܬܟܢ	-10.348
▁ܙܕܝܩ	-10.3483
ܢܫܡܥܘܢ	-10.3517
▁ܫܬܐܤ	-10.3581
▁ܘܙܢܝ	-10.359
▁ܒܡܥܡܘܕܝܬ	-10.3591
▁ܡܐܤ	-10.3611
▁ܟܘܟܒ	-10.3746
▁ܡܥܡܘܕܝܬ	-10.3754
ܡܟܝܟܐ	-10.3759
▁ܚܫܘܟ	-10.3766
▁ܫܒܘܩܝ	-10.3783
▁ܡܚܪ	-10.3791
ܡܚܒܠ	-10.3796
ܢܗܝܡܢܘܢ	-10.3804
▁ܦܪܥ	-10.3806
▁ܘܒܤܝܡ	-10.3821
▁ܕܒܒ	-10.3947
▁ܕܝܘܢ	-10.3975
▁ܒܪܥܝܢܝ	-10.4013
▁ܕܡܟܪܙ	-10.4014
ܒܤܝܡܘܬ	-10.4059
ܐܥܒܕ	-10.4086
▁ܢܚܛ	-10.41
ܒܝܫܬܐ	-10.4116
ܦܘܡܐ	-10.4139
▁ܠܪܓܠ	-10.414
▁ܒܢܦܫ	-10.4146
ܟܠܢܫ	-10.4152
ܢܛܥܘܢ	-10.4153
ܕܘܝܕ	-10.4164
▁ܕܝܘܡ	-10.4187
ܬܚܫܒ	-10.4195
▁ܘܕܚܝ	-10.4229
▁ܫܛ	-10.423
▁ܬܪܡ	-10.4249
▁ܘܦܐܪ	-10.4278
ܠܨܠܡܗ	-10.4285
ܛܢܦܘܬܐ	-10.4289
ܙܟܪܝܐ	-10.429
ܡܩܝܡ	-10.429
ܢܘܗܪܗ	-10.429
ܠܬܚܬ	-10.4291
ܩܝܤܐ	-10.4325
ܚܢܦܐ	-10.4325
ܚܤܪ	-10.4355
ܫܝܓ	-10.4359
▁ܢܫܬܪ	-10.4361
ܒܨܝܪ	-10.4402
ܛܠܝܬܐ	-10.4403
▁ܘܟܘܟܒ	-10.4404
▁ܕܓܘ	-10.4405
▁ܕܡܫܬܡ	-10.4406
ܬܦܩܕ	-10.4407
ܦܬܓܡ	-10.4407
▁ܚܛܘ	-10.4409
▁ܢܩܛܠ	-10.4412
ܠܒܘܫܐ	-10.4414
▁ܐܤܛܪܛ	-10.4414
ܒܚܤܝܪܘܬ	-10.4414
ܦܡܦܘܠܝܐ	-10.4414
▁ܕܓܘܕܦܐ	-10.4414
▁ܕܢܐܚܕܘܢܝܗܝ	-10.4414
▁ܤܘܥܪܢ	-10.4414
ܒܙܕܝܩܘܬܐ	-10.4414
▁ܒܡܟܝܟܘܬ	-10.4414
▁ܕܐܬܚܙܝ	-10.4414
▁ܕܛܠܡ	-10.4414
▁ܘܓܘܕܦ	-10.4414
▁ܠܩܫܝܫ	-10.4414
ܐܬܒܕܪܘ	-10.4414
▁ܠܡܕܟܝܘ	-10.4414
▁ܩܫܝܘܬ	-10.4414
▁ܘܕܥܡܗ	-10.4414
ܬܪܓܪܓܘ	-10.4414
▁ܕܐܘܠܨܢ	-10.4414
▁ܘܐܘܠܨܢ	-10.4414
▁ܠܡܗܝܡܢ	-10.4414
ܒܢܟܦܘܬܐ	-10.4414
▁ܕܐܫܬܒܗܪ	-10.4414
▁ܘܕܐܪܒܥ	-10.4414
▁ܒܠܥܕ	-10.4414
▁ܘܐܫܬܓܫ	-10.4414
▁ܬܚܦܝܬܐ	-10.4414
▁ܬܤܗܕ	-10.4414
▁ܘܡܬܟܪܟ	-10.4414
▁ܘܪܓܡ	-10.4414
▁ܕܟܢܝܫ	-10.4414
ܐܤܘܛܘܬܐ	-10.4414
▁ܢܬܕܒܪ	-10.4414
ܬܦܫܚ	-10.4414
ܢܬܩܛܠ	-10.4414
▁ܕܐܟܪܙ	-10.4414
▁ܠܡܤܓܕ	-10.4414
ܛܪܘܐܤ	-10.4414
▁ܒܡܪܘܡܐ	-10.4414
▁ܕܪܗܛ	-10.4414
▁ܠܨܒܝܢܗ	-10.4414
▁ܡܬܚܒܠܢܘܬܐ	-10.4414
▁ܘܐܤܗܕ	-10.4414
▁ܠܤܗܕܘܬܗܘܢ	-10.4414
▁ܒܤܝܦܐ	-10.4414
▁ܘܤܪܝܩ	-10.4414
▁ܥܒܘܕ	-10.4414
▁ܕܫܩܝܠ	-10.4414
▁ܒܨܘܪ	-10.4414
▁ܕܐܤܠܝ	-10.4414
ܒܛܘܫܝܐ	-10.4414
▁ܠܛܒܬܐ	-10.4414
▁ܕܐܪܙ	-10.4414
▁ܦܘܪܥܢ	-10.4414
▁ܕܠܒܗܘܢ	-10.4415
ܓܡܘܪ	-10.4415
▁ܙܩܦܘܗܝ	-10.4415
ܢܢܓܕܘܢ	-10.4415
ܛܪܤܘܤ	-10.4415
▁ܕܤܢܝܩ	-10.4415
▁ܕܢܗܘܝܢ	-10.4415
▁ܒܕܡܥ	-10.4415
ܦܬܘܪܗ	-10.4415
▁ܒܤܬܪܗ	-10.4415
▁ܟܘܪܤܘܬ	-10.4415
▁ܐܬܬܢܝܚ	-10.4415
▁ܒܒܥܠ	-10.4415
▁ܘܠܐܪܡܝܐ	-10.4415
▁ܘܒܢܘܪܐ	-10.4415
▁ܘܪܘܙ	-10.4416
▁ܘܡܥܩ	-10.4416
▁ܐܫܬܥܝ	-10.4416
▁ܘܒܕܚܠܬ	-10.4416
▁ܚܘܫܒܢܐ	-10.4416
▁ܒܦܘܩܕܢܐ	-10.4416
▁ܕܒܠܥ	-10.4416
ܥܪܦ	-10.4417
▁ܐܘܪܩ	-10.4417
▁ܐܤܦܝܪ	-10.4417
▁ܘܒܠܥ	-10.4417
▁ܠܡܕܒܚܐ	-10.4417
▁ܘܛܘܒ	-10.4418
▁ܕܟܦܢ	-10.4418
▁ܒܐܘܪܝ	-10.4418
▁ܘܚܡܬܐ	-10.4419
ܬܬܙܝܥܘܢ	-10.4419
▁ܐܚܘܕܘ	-10.4419
▁ܘܪܓܬ	-10.4419
▁ܗܘܦܟܝ	-10.442
▁ܕܟܦܪ	-10.442
▁ܐܪܒܥܤܪܐ	-10.442
▁ܕܡܘܒܠ	-10.442
▁ܘܚܡܫ	-10.4421
▁ܘܬܘܠܬ	-10.4421
▁ܢܛܥܝܟܘܢ	-10.4421
▁ܐܬܒܪܝ	-10.4422
▁ܐܪܡܝܬ	-10.4422
▁ܘܐܡܘܬܐ	-10.4422
▁ܡܪܕܘܬ	-10.4422
▁ܕܬܝܒܘܬ	-10.4423
▁ܐܓܪܦܐ	-10.4423
▁ܤܡܠܗ	-10.4423
▁ܕܚܝܠܬܢ	-10.4424
▁ܚܒܪܝ	-10.4424
▁ܕܪܗܘܡܝܐ	-10.4424
▁ܨܐܕܝܟܘܢ	-10.4425
▁ܘܓܠܝ	-10.4426
▁ܝܠܝܕ	-10.4426
▁ܒܐܓܪܬ	-10.4427
▁ܢܬܟܫܠ	-10.4427
▁ܕܒܥܠܕܒܒ	-10.4428
▁ܠܡܩܛܠܢܝ	-10.4429
▁ܬܬܝܬܪ	-10.443
▁ܘܡܬܚܫܒ	-10.4432
ܪܕܝܤ	-10.4433
ܬܐܛܪܘܢ	-10.4433
ܡܪܟܒܬܐ	-10.4434
▁ܒܨܝܪܐ	-10.4436
ܡܬܝܠܕ	-10.4436
▁ܪܒܝܥܝ	-10.4437
▁ܡܓܥܠ	-10.4437
▁ܬܫܒܚ	-10.4439
ܡܙܡܢ	-10.4439
▁ܕܐܪܡܝ	-10.444
▁ܕܓܢܒ	-10.4442
▁ܘܚܤܡ	-10.4442
▁ܢܚܤܪ	-10.4443
▁ܒܟܪܤ	-10.4443
▁ܚܬܡ	-10.4445
▁ܕܢܪܕ	-10.4446
▁ܕܗܝܡܢܘܬܗ	-10.4448
ܡܬܡܠܠܢ	-10.4448
▁ܘܢܚܙܐ	-10.4449
ܒܬܪܝ	-10.4449
▁ܨܠܡ	-10.445
▁ܩܪܛܐ	-10.4451
▁ܘܠܡܫܪ	-10.4451
▁ܕܕܪܬܐ	-10.4451
ܕܘܒܪܝ	-10.4454
ܫܒܥܬܝܗܘܢ	-10.4455
▁ܫܥܒܕ	-10.4456
▁ܘܡܦܝܤ	-10.4457
▁ܫܕܪܬܢܝ	-10.4457
▁ܘܢܫܪܐ	-10.4458
▁ܡܝܬܪܝܢ	-10.4458
▁ܢܤܬܟܠ	-10.4459
▁ܕܒܙܒܢ	-10.4459
▁ܬܘܬܪ	-10.4464
▁ܒܒܪܐ	-10.4464
▁ܘܠܫܪܟܐ	-10.4465
▁ܚܕܬܬܐ	-10.4466
▁ܕܡܛܫܝ	-10.4466
▁ܕܐܡܗ	-10.4466
▁ܢܫܒܚ	-10.4468
▁ܘܫܪܝܗܝ	-10.4468
▁ܡܛܥܐ	-10.447
▁ܕܢܒܗܬ	-10.4473
▁ܐܬܐܠܨ	-10.4474
▁ܕܒܩ	-10.4476
▁ܕܢܫܩ	-10.4482
▁ܐܬܒܛܠ	-10.4488
▁ܕܙܠ	-10.449
▁ܢܤܒܪ	-10.4491
▁ܕܢܦܪܩ	-10.4495
▁ܒܠܒܟܘܢ	-10.4496
▁ܢܝܩܪ	-10.45
▁ܢܬܝܕܥ	-10.4503
ܢܘܟܪܝ	-10.4504
ܕܡܘܤ	-10.4505
▁ܘܥܪܒ	-10.4509
▁ܘܐܒܘܟ	-10.4512
▁ܢܫܬܡܥ	-10.4516
▁ܥܛܠ	-10.453
ܓܥܠ	-10.4531
▁ܘܡܫܠܡ	-10.4534
▁ܢܫܦܪ	-10.4537
ܚܘܒܟܘܢ	-10.4551
ܐܬܟܤܝ	-10.4551
ܓܕܫ	-10.4558
▁ܘܢܩܦ	-10.4559
ܤܕܘܢܐ	-10.456
▁ܕܚܐܪ	-10.4569
▁ܢܤܝܡ	-10.457
▁ܢܝܩ	-10.4578
▁ܕܡܥܠ	-10.4594
▁ܘܠܥܠ	-10.4594
▁ܡܥܪܒ	-10.4598
▁ܠܒܤܪ	-10.4602
▁ܘܐܤܝܪ	-10.4603
ܗܕܡܝܟܘܢ	-10.4627
ܤܗܕܘܬܗ	-10.4635
▁ܠܓܒ	-10.4649
▁ܬܚܛ	-10.466
▁ܘܫܪܪ	-10.4666
▁ܕܐܚܒܢ	-10.4674
ܝܘܛܐ	-10.4675
▁ܡܟܤܝ	-10.468
▁ܒܪܝܫ	-10.4698
▁ܡܬܢܒ	-10.4699
▁ܘܪܩ	-10.471
▁ܒܐܒ	-10.4765
▁ܪܢܝ	-10.4768
▁ܢܫܐܠ	-10.4768
▁ܘܡܟܝܟ	-10.4822
ܙܥܘ	-10.4843
▁ܠܐܒܗܝ	-10.4844
ܛܢܝܢ	-10.4849
ܫܬܘܩ	-10.4852
▁ܢܬܪܥ	-10.4871
▁ܘܐܩܦ	-10.4881
ܡܫܩܐ	-10.4901
ܡܫܡܫܢܐ	-10.4906
▁ܬܫܟܚ	-10.4917
▁ܕܚܕܘܬ	-10.4968
ܡܫܬܡܥܝܢ	-10.497
ܦܘܩܕܢܘܗܝ	-10.4984
ܒܕܩ	-10.4993
▁ܥܒܪܝ	-10.4995
▁ܒܐܒܝ	-10.5046
ܛܢܘ	-10.5049
▁ܕܡܬܪܥ	-10.5067
▁ܡܬܚܪ	-10.5068
ܝܬܘܢܝܗܝ	-10.5069
▁ܟܪܘܙ	-10.5069
▁ܕܡܤܟ	-10.508
▁ܕܤܗܕ	-10.508
ܡܪܓܢܝܬܐ	-10.5109
▁ܒܡܘܠܟܢ	-10.5118
▁ܒܢܤܝܘܢ	-10.5162
▁ܘܢܘܪ	-10.5174
ܤܬܘܐ	-10.518
ܢܩܒܠܘܢ	-10.5185
▁ܘܐܤܬܡܟ	-10.5202
▁ܘܒܝܘܡ	-10.5204
▁ܘܫܕܝܗ	-10.528
ܩܪܘܒ	-10.5306
▁ܠܡܒܥ	-10.5308
ܫܩܘܠ	-10.532
ܓܘܪܐ	-10.5321
ܐܢܛܝܟܝܐ	-10.5342
▁ܡܫܬܕ	-10.5347
▁ܘܚܬܡ	-10.535
▁ܥܬܝܪ	-10.5396
ܡܠܦܢܐ	-10.5408
ܤܠܘܢ	-10.5416
▁ܟܪܝܘܬ	-10.5433
ܒܐܘܠܨܢܐ	-10.544
ܬܬܒܥ	-10.5444
ܡܨܝܕܬܐ	-10.5493
ܚܘܝܘ	-10.5495
ܚܟܝܡܐ	-10.5501
▁ܠܙܢܝ	-10.5514
ܚܦܝܛܘܬ	-10.5544
ܬܬܥܝܪ	-10.5545
▁ܗܪܘܕ	-10.562
▁ܚܪܡ	-10.5654
▁ܠܤܒܪ	-10.5685
▁ܡܠܟܝܗ	-10.5691
ܡܘܡܬܐ	-10.5754
ܫܦܝܪܬܐ	-10.5792
ܠܐܢܛܝܟܝܐ	-10.5836
ܬܓܙܪ	-10.5886
▁ܒܬܘܕܝܬ	-10.5965
ܤܒܪܘܢ	-10.6009
▁ܒܬܚ	-10.6028
ܘܙܒ	-10.6082
▁ܡܪܓܢܝܬ	-10.6087
▁ܤܬܘ	-10.6095
ܝܪܬܘܬܐ	-10.613
▁ܡܟܤ	-10.6145
▁ܬܫܒܘܚܬ	-10.6164
ܬܚܙܝܢ	-10.6203
ܪܓܝܓܬܗ	-10.6225
▁ܒܗܕܡܝ	-10.6229
▁ܒܥܕ	-10.6235
▁ܘܒܘܪܟ	-10.6235
▁ܕܫܠܝܚ	-10.6262
▁ܦܪܝܫ	-10.6294
▁ܘܢܬܦ	-10.6317
ܡܫܬܘܬܦ	-10.632
▁ܕܓܡܝܪ	-10.6417
▁ܠܫܘܒܩܢ	-10.642
▁ܠܩܘܪܝ	-10.6449
▁ܡܬܕܟ	-10.6547
▁ܙܟܘ	-10.6563
▁ܘܡܬܚ	-10.6582
▁ܡܤܝܒܪܢܘ	-10.6589
ܒܢܝܢܫܐ	-10.6625
▁ܡܙܕ	-10.6634
ܡܡܠܠܐ	-10.6646
▁ܠܩܛ	-10.6666
ܝܤܪܝܠ	-10.6706
ܡܫܬܝܐ	-10.6735
▁ܘܐܟܪܙ	-10.675
▁ܟܢܘܫ	-10.6783
ܡܦܫܩ	-10.6787
ܡܓܕܦܝܢ	-10.6793
ܒܥܓܠ	-10.6794
ܬܪܗܒ	-10.6813
▁ܠܚܤܝ	-10.6814
ܥܘܡܩ	-10.6814
ܡܫܥܒܕ	-10.682
ܕܝܠܗ	-10.6822
▁ܫܐܕ	-10.6823
▁ܐܪܟܘ	-10.6829
▁ܩܒܘ	-10.683
ܬܫܡܥ	-10.6844
ܚܒܪܗ	-10.685
ܐܢܛܝܘܟܝ	-10.6852
ܩܛܪܓ	-10.6855
▁ܠܤܦ	-10.6855
ܬܦܪܥ	-10.6859
ܤܛܪܛܝܘܛܐ	-10.6862
ܒܡܘܬܗ	-10.6863
▁ܘܬܫܬ	-10.6881
ܥܝܠܐ	-10.6896
▁ܕܢܩܝܡ	-10.6906
ܒܡܨܥܬ	-10.6909
▁ܘܤܥܪ	-10.6913
ܒܦܫܝܛܘܬ	-10.6914
ܢܨܥܪܘܢ	-10.6914
ܩܤܛܘܢܪܐ	-10.6914
▁ܐܙܕܕܩ	-10.6914
▁ܕܐܝܤܪܐܝܠ	-10.6914
▁ܕܐܤܛܦܢ	-10.6914
▁ܕܡܫܬܒܗܪ	-10.6914
▁ܕܦܩܝܕ	-10.6914
▁ܗܠܠܘܝܐ	-10.6914
▁ܘܒܥܠܕܒܒ	-10.6914
▁ܘܠܩܫܝܫ	-10.6914
▁ܙܩܘܦܝܗܝ	-10.6914
▁ܛܘܠܫܐ	-10.6914
▁ܠܚܒܪܝܗܘܢ	-10.6914
▁ܠܡܦܕܝܗܝܢ	-10.6914
▁ܠܬܫܒܘܚܬܗ	-10.6914
▁ܩܪܩܦܬܗ	-10.6914
▁ܬܘܠܡܝ	-10.6914
▁ܐܤܦܪܝܕܝܢ	-10.6914
▁ܒܤܘܥܪܢ	-10.6914
▁ܕܙܪܝܥ	-10.6914
▁ܚܒܘܫܝ	-10.6914
ܡܬܪܓܪܓ	-10.6914
▁ܒܢܡܘܤܗ	-10.6914
▁ܘܟܘܪܗܢ	-10.6914
▁ܠܡܫܬܘܬܐ	-10.6914
▁ܐܝܙܓܕ	-10.6914
▁ܓܪܝܨ	-10.6914
▁ܘܡܫܬܥ	-10.6914
▁ܠܥܢܝܗܘܢ	-10.6914
▁ܢܩܝܡ	-10.6914
▁ܬܬܡܠܚ	-10.6914
ܬܬܪܓܡ	-10.6914
▁ܡܫܬܒܚ	-10.6914
▁ܡܪܚܡܢܐ	-10.6914
▁ܢܐܚܕܘܢ	-10.6914
▁ܐܬܒܤܡ	-10.6914
ܦܘܠܝܤ	-10.6914
▁ܘܒܫܪܪܐ	-10.6914
▁ܠܓܝܘܢ	-10.6914
▁ܒܬܠܬ	-10.6914
▁ܘܢܚܝܒܘܢ	-10.6914
▁ܘܥܪܛܠܝ	-10.6914
▁ܒܐܪܒܥ	-10.6914
▁ܡܥܩܡ	-10.6914
▁ܕܓܕܪܝܐ	-10.6914
▁ܬܬܕܡܪܘܢ	-10.6914
▁ܒܚܨܘܗܝ	-10.6914
▁ܕܡܤܢܘܗܝ	-10.6914
▁ܪܚܒ	-10.6914
▁ܛܥܡ	-10.6914
▁ܢܬܬܪܝܡ	-10.6914
▁ܚܒܫ	-10.6914
▁ܐܬܕܟܝ	-10.6914
▁ܡܫܪܝܬܐ	-10.6914
ܙܕܘܓ	-10.6914
ܬܟܫܦ	-10.6914
▁ܐܤܬܒܪ	-10.6914
▁ܠܫܪܪܐ	-10.6914
▁ܐܚܪܢܝܐ	-10.6914
▁ܡܫܬܘܕܥܝܢ	-10.6914
▁ܢܫܩܠܘܢ	-10.6914
▁ܕܢܬܢܛܪ	-10.6914
ܬܘܠܥ	-10.6914
▁ܐܡܠܟ	-10.6914
▁ܕܫܠܝܛ	-10.6914
ܢܬܬܢܝܚ	-10.6914
▁ܠܒܘܬܢ	-10.6914
ܩܘܠܤ	-10.6914
▁ܘܡܫܡܠܝ	-10.6914
ܨܘܚܝܬܐ	-10.6914
▁ܒܛܒܬܐ	-10.6914
▁ܕܐܗܪܘܢ	-10.6914
▁ܕܐܪܝܘܬܐ	-10.6914
ܢܤܬܠܐ	-10.6914
ܡܬܬܢܝܚ	-10.6914
▁ܠܩܕܡܝܐ	-10.6914
▁ܘܐܬܬܢܝܚ	-10.6915
▁ܠܚܤܝܪܘܬ	-10.6915
ܬܫܬܘܬܦ	-10.6915
ܡܤܬܥܪ	-10.6915
▁ܒܨܘܡܐ	-10.6915
▁ܙܘܙ	-10.6915
▁ܡܫܬܟܚ	-10.6915
▁ܘܢܫܒܚ	-10.6915
▁ܘܐܬܪܥܝ	-10.6915
▁ܘܢܫܩܗ	-10.6915
▁ܘܚܒܝܒ	-10.6915
▁ܕܡܤܗܕ	-10.6915
▁ܫܡܘܥ	-10.6915
ܤܘܟܝܗ	-10.6915
▁ܡܨܒܬ	-10.6915
▁ܪܩܕܬ	-10.6915
▁ܕܒܕܚܠܬ	-10.6916
▁ܕܢܩܦ	-10.6916
▁ܐܘܡܢܘܬܗ	-10.6916
▁ܒܐܤܛ	-10.6916
▁ܕܛܠܝܐ	-10.6916
▁ܕܬܩܒܠܘܢ	-10.6916
ܡܓܘܫܐ	-10.6916
▁ܟܢܘܬܗ	-10.6916
▁ܕܒܢܝܡܝܢ	-10.6916
▁ܕܒܒܝܬܗ	-10.6917
▁ܘܛܢܢ	-10.6917
▁ܒܫܘܠܡ	-10.6917
▁ܕܛܢܢ	-10.6917
▁ܢܪܓ	-10.6917
▁ܠܒܥܠܝܗܝܢ	-10.6918
▁ܐܘܒܕ	-10.6918
▁ܬܐܒܕ	-10.6918
▁ܐܫܩܝ	-10.6918
▁ܐܤܗܕ	-10.6918
▁ܐܬܪܥܘ	-10.6918
▁ܚܬܝܪ	-10.6918
▁ܬܪܥܗ	-10.6918
ܒܤܥܪ	-10.6919
ܬܦܨܝ	-10.6919
ܒܫܡܗ	-10.6919
▁ܘܟܦܢ	-10.6919
▁ܢܒܤ	-10.692
▁ܡܓܕܠ	-10.692
ܐܕܢܝܟܘܢ	-10.692
ܬܠܡܝܕܐ	-10.6921
▁ܤܟܠܘܬܟܘܢ	-10.6921
▁ܢܦܪܫ	-10.6921
▁ܚܘܘܬܐ	-10.6921
▁ܕܢܩܝܡܝܘܗܝ	-10.6922
▁ܡܥܒܕܢ	-10.6922
ܬܬܥܝܩ	-10.6922
▁ܕܠܒܢܝܢܫܐ	-10.6922
▁ܘܪܘܪܒܢ	-10.6923
▁ܕܙܢܝܘܬܗ	-10.6923
▁ܡܫܠܛ	-10.6924
▁ܪܝܚ	-10.6924
ܓܝܘܪܐ	-10.6924
ܬܚܢܢܬ	-10.6924
▁ܕܓܦ	-10.6924
▁ܕܬܐܡܪܘܢ	-10.6925
▁ܕܡܡܬ	-10.6925
▁ܠܕܡܗ	-10.6926
▁ܒܕܡܝ	-10.6926
ܬܤܒܘܢ	-10.6927
ܩܛܓܪܢ	-10.6927
▁ܕܚܡܫ	-10.6928
ܬܚܠܛ	-10.6928
▁ܢܬܡܟܟ	-10.6928
▁ܢܚܕܘܢ	-10.6928
ܢܩܛܪܓܘܢ	-10.6928
▁ܘܐܤܬܠ	-10.6928
▁ܕܕܡܗ	-10.6929
▁ܕܢܟܪܙ	-10.693
▁ܘܚܐܪ	-10.693
▁ܕܡܒܝܐ	-10.6931
▁ܠܥܩܪ	-10.6932
▁ܫܡܘܢܐ	-10.6932
▁ܠܡܫܠܡܘ	-10.6933
▁ܠܪܥܝ	-10.6933
▁ܟܢܬ	-10.6934
▁ܨܒܥܬ	-10.6934
ܡܬܐܠܨܝܢ	-10.6934
▁ܢܐܩܪ	-10.6935
▁ܘܕܬܠܬ	-10.6935
▁ܢܬܚܠܦ	-10.6936
▁ܢܐܪܬ	-10.6936
▁ܘܢܪܩ	-10.6937
▁ܘܐܫܘ	-10.6937
▁ܤܕܩ	-10.6937
▁ܡܨܠܝ	-10.6941
▁ܡܟܬܪ	-10.6942
▁ܐܘܩܝܢ	-10.6942
▁ܫܟܒ	-10.6942
ܡܬܟܫܠܝܢ	-10.6944
ܢܨܪܬ	-10.6947
ܬܫܢܝܩܐ	-10.6948
▁ܕܐܠܗܗ	-10.6948
▁ܠܪܚܡ	-10.6952
ܬܪܘܨ	-10.6952
▁ܓܙܝܪ	-10.6952
▁ܕܢܬܩܢ	-10.6953
ܪܘܫܥ	-10.6961
ܡܩܛܪܓܝܢ	-10.6965
ܬܒܠܥ	-10.6966
▁ܐܤܒܪ	-10.6966
▁ܒܫܢܬ	-10.6968
ܬܪܥܘܬܐ	-10.6968
ܬܡܠܠܘܢ	-10.6969
▁ܐܬܓܒ	-10.697
▁ܕܒܐܓܪ	-10.697
▁ܕܫܡܫܐ	-10.6971
ܬܠܒܫܘܢ	-10.6977
▁ܪܩ	-10.6977
▁ܕܕܒܪ	-10.6978
ܤܟܪܘ	-10.698
▁ܬܗܝܪ	-10.6981
▁ܕܘܟܝ	-10.6982
▁ܘܪܛܢ	-10.6982
ܢܬܝܠܕ	-10.6983
▁ܒܪܫܗ	-10.6987
▁ܛܥܢ	-10.6988
ܕܐܚܒܬ	-10.6989
ܥܩܒܘ	-10.699
ܬܒܝܐܘܢ	-10.6992
ܢܬܕܝܢܘܢ	-10.7004
▁ܚܫܚܬ	-10.7006
▁ܓܢܤ	-10.7011
▁ܕܥܓܠ	-10.7012
▁ܡܨܚ	-10.7026
▁ܐܤܟܡ	-10.703
ܡܦܪܥ	-10.7048
▁ܓܪܡ	-10.7049
▁ܡܫܬܘܕ	-10.7051
▁ܡܚܪܪ	-10.7051
ܩܦܘ	-10.7054
ܥܤܩܐ	-10.7057
▁ܩܝܛ	-10.7061
ܡܬܒܤܡ	-10.7068
▁ܕܢܫܬܥܒܕ	-10.7077
ܓܙܘܪ	-10.7082
▁ܒܐܫܬ	-10.7091
ܢܦܫܟܘܢ	-10.7092
ܕܪܝܘܗܝ	-10.7095
▁ܕܐܫܕܪ	-10.7133
▁ܘܛܫ	-10.7133
ܒܝܕܥܬܐ	-10.7134
ܦܫܝܓ	-10.7135
▁ܦܪܬܘ	-10.7142
▁ܐܩܠܘ	-10.7143
▁ܐܤܦܘ	-10.7147
ܪܗܒܘ	-10.7168
ܢܤܝܡܘܢ	-10.7183
▁ܕܢܗܦ	-10.7183
ܪܓܠܝܟܘܢ	-10.7187
ܒܬܪܟܢ	-10.7215
▁ܢܗܦ	-10.7225
ܒܨܪܬ	-10.7249
▁ܒܪܒܘܬ	-10.7252
▁ܕܚܘܝ	-10.731
▁ܦܘܢܝ	-10.7311
ܤܗܕܘܬܐ	-10.7314
ܗܝܡܢܘܬܟ	-10.7328
▁ܘܩܝܡ	-10.734
▁ܨܠܘܬܟ	-10.7414
ܢܠܒܫ	-10.7425
▁ܬܗܪ	-10.7426
▁ܕܪܓܠ	-10.7472
ܬܕܡܪܘ	-10.7477
ܢܦܫܬܟܘܢ	-10.7559
ܬܠܡܝܕܘܗܝ	-10.763
ܒܛܝܠ	-10.7637
▁ܦܚ	-10.7676
▁ܘܫܪܒ	-10.7723
ܠܚܕ	-10.7734
ܦܤܘ	-10.7771
▁ܡܤܠܝ	-10.7859
ܒܛܝܒܘܬܐ	-10.7897
▁ܚܫܡܝܬ	-10.7907
ܢܚܫܘܒ	-10.7921
▁ܘܒܩܛ	-10.7955
ܫܒܚܬ	-10.8056
▁ܢܩܥ	-10.8057
ܡܡܘܢܐ	-10.8103
▁ܘܠܪܘܚ	-10.811
▁ܫܫܠ	-10.8132
▁ܕܤܪܝܩ	-10.8139
▁ܘܙܕܝܩܘܬ	-10.817
▁ܕܒܥܝ	-10.8194
ܬܕܟܝܬܐ	-10.8246
ܒܥܕܬܐ	-10.8257
ܡܠܟܘܬܟ	-10.8283
ܠܟܠܢܫ	-10.8359
▁ܠܟܬܒܘ	-10.8359
▁ܠܡܚܤ	-10.8386
ܬܒܚܪ	-10.8392
ܬܪܒܝܬ	-10.8508
ܢܕܒ	-10.8528
▁ܚܤܝܪܘܬ	-10.8547
▁ܕܬܐܒ	-10.8552
ܡܕܝܢܬܗܘܢ	-10.8753
ܡܟܢܫ	-10.8758
ܕܒܫܐ	-10.8784
ܒܝܡܐ	-10.8823
ܒܥܠܕܒܒܝܟܘܢ	-10.8935
▁ܘܢܤܝܡ	-10.8938
▁ܘܡܛܥܝ	-10.9044
ܦܪܘܓܝ	-10.9121
ܬܢܒܝܘ	-10.9132
ܐܩܝܡܝܘܗܝ	-10.9171
▁ܘܢܗܝܡܢ	-10.9213
▁ܕܢܬܓܠ	-10.9312
▁ܕܠܡܠܐܟ	-10.9352
▁ܬܕܡܪܬ	-10.9445
ܡܙܕܒܢ	-10.9483
ܐܘܪܚܗ	-10.9494
▁ܦܘܠ	-10.953
ܢܬܟܬܒ	-10.9591
▁ܒܕܚܠܬ	-10.9597
▁ܐܟܚܕ	-10.9608
▁ܕܚܤܝܪ	-10.9629
ܫܬܒܗܪܘ	-10.9646
ܢܚܘܪ	-10.9684
ܥܠܝܗܝܢ	-10.9689
ܕܤܐܡ	-10.9693
ܠܬܢܝܢ	-10.9781
▁ܕܐܙܕ	-10.9815
▁ܘܬܚܙܘܢ	-10.9891
▁ܒܡܤܝܒܪܢܘܬ	-10.9911
ܐܘܢܓܠܝܘܢ	-10.9935
ܓܡܝܪܘܬܐ	-10.9979
▁ܘܟܤܝ	-10.9984
ܤܦܘܬܗ	-11.0042
ܡܠܟܝܙܕܩ	-11.0108
1	-11.5247
)	-12.5247
4	-12.5247
5	-12.5247
9	-12.5247
:	-12.5247
