<pad>	0
</s>	0
<unk>	0
▁¦	-0
के	-1
्र	-2
ार	-3
है	-4
ें	-5
या	-6
ने	-7
ों	-8
▁़	-9
में	-10
कर	-11
▁।	-12
से	-13
का	-14
की	-15
▁,	-16
ता	-17
कि	-18
और	-19
र्	-20
स्	-21
को	-22
प्र	-23
ना	-24
्य	-25
क्	-26
वि	-27
ान	-28
पर	-29
ही	-30
वा	-31
ति	-32
लि	-33
ला	-34
नि	-35
▁(	-36
हो	-37
▁)	-38
न्	-39
जा	-40
सा	-41
रा	-42
सं	-43
ते	-44
कार	-45
ित	-46
दे	-47
मा	-48
ले	-49
तु	-50
हा	-51
दि	-52
हैं	-53
▁.	-54
भी	-55
था	-56
ती	-57
लिए	-58
इस	-59
ोग	-60
त्	-61
एक	-62
सी	-63
क्ष	-64
जो	-65
दा	-66
सम	-67
तो	-68
त्र	-69
हीं	-70
बा	-71
उस	-72
अप	-73
उन	-74
द्	-75
जि	-76
नहीं	-77
हम	-78
तुम	-79
हु	-80
पा	-81
ल्	-82
ष्	-83
गा	-84
िक	-85
नी	-86
भा	-87
वे	-88
तर	-89
चा	-90
किया	-91
मु	-92
यह	-93
ली	-94
कु	-95
री	-96
यों	-97
वह	-98
श्	-99
रू	-100
ष्ट	-101
अध	-102
करने	-103
पू	-104
अन	-105
मि	-106
लोग	-107
मान	-108
ारा	-109
ये	-110
ंग	-111
रे	-112
मे	-113
▁¦1	-114
खा	-115
जी	-116
दी	-117
शा	-118
हि	-119
वर्	-120
ारे	-121
देश	-122
अपने	-123
सक	-124
भार	-125
न्ह	-126
रह	-127
सु	-128
उप	-129
सि	-130
िर	-131
स्थ	-132
च्	-133
्या	-134
सू	-135
गे	-136
क्र	-137
दो	-138
पु	-139
व्य	-140
▁¤	-141
िया	-142
तथा	-143
प्	-144
ओं	-145
सर	-146
गया	-147
जिस	-148
अनु	-149
ार्	-150
ारी	-151
ैं	-152
रूप	-153
्री	-154
कुछ	-155
आप	-156
जब	-157
शि	-158
तक	-159
▁𐋇	-160
्ह	-161
द्व	-162
निर्	-163
किसी	-164
उन्ह	-165
तुम्ह	-166
परि	-167
साथ	-168
प्रा	-169
मी	-170
पूर्	-171
दू	-172
योग	-173
▁¦2	-174
इन	-175
बं	-176
ोज	-177
गी	-178
हर	-179
कोई	-180
म्	-181
वर	-182
प्रति	-183
वी	-184
ुदा	-185
द्ध	-186
यु	-187
क्त	-188
थे	-189
राज	-190
कृ	-191
करें	-192
ंड	-193
बना	-194
द्वारा	-195
रि	-196
करते	-197
लो	-198
क्ति	-199
भारत	-200
उनके	-201
नों	-202
लोगों	-203
ंत्र	-204
धार	-205
बी	-206
गु	-207
फिर	-208
जाए	-209
गर	-210
पी	-211
राष्ट	-212
अधि	-213
ज्	-214
ची	-215
कार्य	-216
जाता	-217
चार	-218
स्था	-219
बे	-220
ग्र	-221
पह	-222
मैं	-223
दिया	-224
कह	-225
▁"	-226
क्या	-227
अं	-228
टी	-229
थी	-230
द्य	-231
निय	-232
लाह	-233
कहा	-234
ब्	-235
टा	-236
▁?	-237
0¦	-238
अल्	-239
करना	-240
रख	-241
▁्	-242
बर	-243
सब	-244
स्त	-245
अव	-246
उसके	-247
दु	-248
बंध	-249
अपनी	-250
चे	-251
रहे	-252
क्षा	-253
च्छ	-254
अल्लाह	-255
प्त	-256
भि	-257
उत्	-258
धि	-259
रु	-260
क्षे	-261
ज्ञ	-262
मू	-263
हुए	-264
रो	-265
द्र	-266
वाले	-267
त्य	-268
बि	-269
डा	-270
बहु	-271
चि	-272
लग	-273
लों	-274
बात	-275
चु	-276
न्न	-277
जन	-278
▁;	-279
टे	-280
उसे	-281
पै	-282
स्व	-283
क्षेत्र	-284
करता	-285
जान	-286
बाद	-287
समय	-288
सकता	-289
शु	-290
उन्हें	-291
योज	-292
ोंने	-293
दान	-294
होता	-295
बड	-296
रहा	-297
अधिक	-298
शी	-299
पति	-300
शे	-301
कर्	-302
शन	-303
देख	-304
मिल	-305
पास	-306
ियों	-307
वन	-308
काम	-309
भू	-310
ोड	-311
जै	-312
▁'	-313
दर्	-314
चित	-315
राष्ट्र	-316
्यों	-317
ानी	-318
र्थ	-319
कारी	-320
भाग	-321
बु	-322
तीय	-323
बहुत	-324
त्व	-325
कम	-326
मह	-327
पूर्ण	-328
चाह	-329
विश्	-330
लय	-331
निक	-332
धान	-333
करण	-334
डि	-335
कों	-336
तरह	-337
दर	-338
पि	-339
वर्ष	-340
णा	-341
टि	-342
होने	-343
उन्होंने	-344
मत	-345
सम्	-346
मो	-347
हू	-348
हुआ	-349
गए	-350
सह	-351
गत	-352
मुख	-353
्रा	-354
नियम	-355
टर	-356
पे	-357
तुम्हारे	-358
दिन	-359
बो	-360
▁:	-361
चना	-362
▁¦19	-363
प्राप्त	-364
_¦	-365
▁¦_¦	-366
बार	-367
उनकी	-368
वं	-369
स्ता	-370
हमारे	-371
यदि	-372
तों	-373
जिन	-374
्रीय	-375
हमने	-376
मन	-377
ौर	-378
व्यक्ति	-379
चाहि	-380
राष्ट्रपति	-381
नाम	-382
अन्य	-383
वाला	-384
पर्	-385
यी	-386
हों	-387
होगा	-388
पहले	-389
्यू	-390
01	-391
ऐसे	-392
समा	-393
झे	-394
दूस	-395
हां	-396
5¦	-397
गई	-398
सभी	-399
ओर	-400
दन	-401
हाँ	-402
अच्छ	-403
राज्य	-404
एं	-405
▁%	-406
स्ट	-407
स्थान	-408
4¦	-409
न्या	-410
पड	-411
िति	-412
प्रकार	-413
एँ	-414
खु	-415
्रे	-416
लन	-417
बद	-418
संबंध	-419
सरकार	-420
सकते	-421
श्य	-422
कारण	-423
जाने	-424
बढ	-425
अगर	-426
समझ	-427
दार	-428
शेष	-429
भाव	-430
साम	-431
करे	-432
धन	-433
पूर्व	-434
धी	-435
धा	-436
ईमान	-437
चाहिए	-438
तन	-439
न्द	-440
होती	-441
सद	-442
वार	-443
सार	-444
किए	-445
इसके	-446
लिया	-447
ज्ञान	-448
योजना	-449
पो	-450
माण	-451
▁¦3	-452
अभि	-453
फल	-454
ऐसा	-455
गार	-456
ध्य	-457
भाष	-458
सर्	-459
उसकी	-460
क्रिया	-461
ट्	-462
क्यों	-463
करो	-464
रसू	-465
वै	-466
na	-467
डी	-468
यन	-469
दिखा	-470
ंच	-471
त्म	-472
क्रम	-473
द्योग	-474
जू	-475
युक्त	-476
भे	-477
▁𐊣	-478
व्या	-479
तः	-480
पहु	-481
हित	-482
मुझे	-483
यू	-484
निश्	-485
भारतीय	-486
ंक	-487
सो	-488
आई	-489
यर	-490
हे	-491
ठा	-492
स्तु	-493
जे	-494
वृ	-495
लगा	-496
विक	-497
रसूल	-498
प्रदान	-499
रब	-500
किन	-501
अब	-502
विका	-503
ीन	-504
लें	-505
हाय	-506
मंत्र	-507
प्रे	-508
▁¦1¦	-509
गो	-510
च्च	-511
मार्	-512
एवं	-513
क्षण	-514
विश्व	-515
पार	-516
बै	-517
विशेष	-518
अपना	-519
जाती	-520
होते	-521
आर	-522
विष	-523
दृ	-524
शो	-525
कृति	-526
उपयोग	-527
बन	-528
आधार	-529
पत्र	-530
विकास	-531
मौ	-532
जैसे	-533
सहाय	-534
स्थिति	-535
काश	-536
जीवन	-537
दोनों	-538
चल	-539
यो	-540
वाद	-541
सन	-542
श्री	-543
चीज	-544
लोक	-545
हुई	-546
इल	-547
कं	-548
▁!	-549
सेवा	-550
फा	-551
वल	-552
▁-	-553
▁¥	-554
मूल	-555
तुम्हें	-556
काल	-557
▁़्	-558
me	-559
00	-560
रही	-561
ख्या	-562
डर	-563
िय	-564
ष्ठ	-565
ंत	-566
भर	-567
लिख	-568
कू	-569
जु	-570
धारा	-571
मद	-572
शक	-573
कें	-574
माल	-575
ताओं	-576
बारे	-577
प्रयोग	-578
6¦	-579
उसने	-580
स्वा	-581
ti	-582
आव	-583
मै	-584
ऐसी	-585
बीच	-586
चय	-587
णी	-588
लेख	-589
डे	-590
मेरे	-591
लेकिन	-592
स्थाप	-593
बू	-594
पैदा	-595
आज	-596
आय	-597
तम	-598
तंत्र	-599
2¦	-600
ख्	-601
वास	-602
त्या	-603
राष्ट्रीय	-604
पं	-605
तना	-606
पश्	-607
देने	-608
विचार	-609
अथ	-610
कै	-611
नीति	-612
▁¦4	-613
हमारी	-614
8¦	-615
फ्	-616
उसका	-617
दूसरे	-618
अधिनियम	-619
▁।"	-620
निया	-621
1¦	-622
ताकि	-623
in	-624
एस	-625
हूँ	-626
आवश्य	-627
7¦	-628
ण्	-629
इसे	-630
वाली	-631
भिन्न	-632
अंत	-633
उद्	-634
क्स	-635
जाना	-636
9¦	-637
घा	-638
जाएगा	-639
कड	-640
छोड	-641
माम	-642
ल्प	-643
स्प	-644
परा	-645
हमें	-646
उसी	-647
श्र	-648
अथवा	-649
कता	-650
ष्टि	-651
स्वी	-652
क्योंकि	-653
मार	-654
र्म	-655
ग्रा	-656
मान्य	-657
on	-658
वालों	-659
संग	-660
ेंगे	-661
शक्ति	-662
कृत	-663
त्ता	-664
सूचना	-665
जिसमें	-666
उनका	-667
केवल	-668
जिसे	-669
यालय	-670
ra	-671
टन	-672
ार्थ	-673
यार	-674
वही	-675
न्तु	-676
इसमें	-677
पन	-678
यक	-679
उपल	-680
कान	-681
ट्र	-682
सुर	-683
इसलिए	-684
फि	-685
फी	-686
कभी	-687
सबसे	-688
तब	-689
सहायता	-690
ंभ	-691
निर्धार	-692
खे	-693
बल्	-694
मेरी	-695
न्त	-696
पत्	-697
मित	-698
प्रत्य	-699
भव	-700
सूची	-701
अधिकार	-702
ठी	-703
ताब	-704
अर्थ	-705
कट	-706
भाषा	-707
खो	-708
कला	-709
उससे	-710
करती	-711
उपलब्	-712
वेश	-713
3¦	-714
खि	-715
तै	-716
गति	-717
महा	-718
उनसे	-719
बस	-720
लं	-721
लू	-722
तरी	-723
दों	-724
पुर	-725
देता	-726
धर	-727
मार्ग	-728
संदेश	-729
परिवर्	-730
छो	-731
पता	-732
याद	-733
जाते	-734
त्रा	-735
स्ते	-736
घर	-737
जल	-738
बन्	-739
वाह	-740
सभा	-741
सकती	-742
िका	-743
बल	-744
अति	-745
कंप	-746
अंतर	-747
बैं	-748
बैठ	-749
सके	-750
हरा	-751
ज्ञा	-752
व्यव	-753
होना	-754
जिन्ह	-755
महत्व	-756
गि	-757
ध्या	-758
परवर	-759
स्त्र	-760
er	-761
मर	-762
करा	-763
तरफ	-764
वान	-765
सदस्	-766
भु	-767
कुल	-768
समान	-769
उत्पा	-770
परवरदि	-771
शिक्षा	-772
कई	-773
अलग	-774
दूर	-775
भूमि	-776
आया	-777
वरण	-778
िकी	-779
कर्म	-780
परवरदिगार	-781
वो	-782
र्ट	-783
यहाँ	-784
▁¦201	-785
उपलब्ध	-786
फे	-787
बाज	-788
मिक	-789
लिक	-790
सफल	-791
क्षम	-792
अच्छा	-793
स्पष्ट	-794
निर्माण	-795
पुन	-796
बता	-797
उच्च	-798
अर्	-799
बल्कि	-800
..	-801
re	-802
कल	-803
रत	-804
ब्र	-805
हूं	-806
जोड	-807
दौर	-808
हार	-809
लिये	-810
लड	-811
षण	-812
▁”	-813
उठा	-814
किस	-815
टना	-816
name	-817
कहते	-818
द्धि	-819
पहुँ	-820
पूरी	-821
सामान्य	-822
चर	-823
छा	-824
यं	-825
आदि	-826
दाय	-827
लगे	-828
▁..	-829
उनमें	-830
संख्या	-831
अधीन	-832
इससे	-833
प्रो	-834
इं	-835
खंड	-836
शब्	-837
अवसर	-838
इसका	-839
करेगा	-840
तैयार	-841
अज	-842
तू	-843
किताब	-844
होंगे	-845
भग	-846
मं	-847
सिं	-848
विषय	-849
सामने	-850
विभिन्न	-851
कॉ	-852
ेक	-853
बरा	-854
वित	-855
पूरा	-856
क्षित	-857
जिसके	-858
शामिल	-859
गै	-860
ग्	-861
लत	-862
गें	-863
मदद	-864
मृ	-865
प्रौ	-866
होगी	-867
ियाँ	-868
टो	-869
नेक	-870
लाभ	-871
▁¦2¦	-872
मुख्य	-873
वस्तु	-874
निश्चय	-875
प्रकाश	-876
तुम्हारा	-877
नो	-878
फो	-879
▁‘	-880
ंतु	-881
अंग	-882
इसी	-883
उनको	-884
बाहर	-885
रंग	-886
लने	-887
करके	-888
जहां	-889
पक्ष	-890
शुरू	-891
la	-892
लौ	-893
रुप	-894
लाने	-895
विद्	-896
स्ति	-897
▁¦200	-898
ic	-899
पृ	-900
तान	-901
ग्रह	-902
प्रक्रिया	-903
नई	-904
यही	-905
आपको	-906
जाएँ	-907
स्थित	-908
कौ	-909
झु	-910
्व	-911
हरी	-912
ध्यम	-913
धु	-914
हत	-915
ाब	-916
वित्	-917
एम	-918
धे	-919
ून	-920
सित	-921
हाथ	-922
रचना	-923
विधि	-924
संस्	-925
देशों	-926
न्द्र	-927
पद	-928
र्ष	-929
उसमें	-930
ंद	-931
लु	-932
201	-933
गर्	-934
दुनिया	-935
आं	-936
छे	-937
जह	-938
ीय	-939
अभी	-940
ऊपर	-941
गां	-942
तार	-943
कार्	-944
जारी	-945
वर्ग	-946
हेतु	-947
चाहता	-948
दौरान	-949
मंत्री	-950
आए	-951
पढ	-952
लॉ	-953
⁄4	-954
दें	-955
रखा	-956
समू	-957
साइ	-958
ाइल	-959
त्मक	-960
विधा	-961
▁...	-962
वास्त	-963
प्रौद्योग	-964
गण	-965
शत	-966
हन	-967
भवन	-968
यान	-969
लित	-970
चाहते	-971
भावना	-972
प्रत्येक	-973
शै	-974
हक	-975
गयी	-976
गये	-977
शान	-978
च्चे	-979
सीमा	-980
स्तर	-981
अनुसार	-982
गू	-983
गुण	-984
देखा	-985
अग	-986
सौ	-987
जमा	-988
महि	-989
मीन	-990
संघ	-991
सिक	-992
निश्चित	-993
विश्वास	-994
चुन	-995
लना	-996
खुदा	-997
वादी	-998
बनाया	-999
समर्थ	-1000
दृष्टि	-1001
पस	-1002
तीन	-1003
यां	-1004
ज्या	-1005
पानी	-1006
मैंने	-1007
जग	-1008
जरू	-1009
देह	-1010
पिछ	-1011
र्ड	-1012
र्फ	-1013
देना	-1014
उत्तर	-1015
प्रबंध	-1016
महत्वपूर्ण	-1017
आग	-1018
एन	-1019
यम	-1020
गिर	-1021
त्सा	-1022
परिणा	-1023
शिष्ट	-1024
सुरक्षा	-1025
प्रौद्योगिकी	-1026
षि	-1027
चला	-1028
ठीक	-1029
लाल	-1030
सां	-1031
जिसने	-1032
स्वयं	-1033
प्रमाण	-1034
माध्यम	-1035
क्षेत्रों	-1036
it	-1037
▁#	-1038
▁’	-1039
इन्	-1040
नया	-1041
तिहा	-1042
परिवर्तन	-1043
आगे	-1044
रात	-1045
राम	-1046
रों	-1047
ियां	-1048
प्रार	-1049
उद्देश	-1050
फर	-1051
सल	-1052
▁&	-1053
00¦	-1054
क्षि	-1055
ग्री	-1056
जनता	-1057
नीचे	-1058
मौजू	-1059
पोर्ट	-1060
कार्यक्रम	-1061
कठ	-1062
सत	-1063
अतः	-1064
साफ	-1065
निका	-1066
प्रया	-1067
बनाने	-1068
विद्य	-1069
परिणाम	-1070
प्रतिशत	-1071
प्रस्तु	-1072
निर्धारित	-1073
घु	-1074
गुज	-1075
जित	-1076
अध्य	-1077
दारी	-1078
प्रती	-1079
करेंगे	-1080
नियंत्र	-1081
संबंधित	-1082
तुम्हारी	-1083
ह्	-1084
जिक	-1085
धिक	-1086
त्रु	-1087
धरती	-1088
शासन	-1089
आवश्यक	-1090
स्थापित	-1091
व्यवस्था	-1092
ht	-1093
आख	-1094
झा	-1095
फै	-1096
3⁄4	-1097
अनेक	-1098
आपके	-1099
मेरा	-1100
म्बर	-1101
लेकर	-1102
प्रभा	-1103
▁¤3⁄4	-1104
अधिकारी	-1105
▁>	-1106
धित	-1107
मगर	-1108
सिवा	-1109
हिन्	-1110
op	-1111
जाओ	-1112
राह	-1113
▁¦5	-1114
आदेश	-1115
काफी	-1116
ल्डर	-1117
रिक्त	-1118
सिर्फ	-1119
केंद्र	-1120
प्रमुख	-1121
स्वतंत्र	-1122
ण्ड	-1123
परी	-1124
सुन	-1125
tion	-1126
मध्य	-1127
विंड	-1128
स्या	-1129
पश्चि	-1130
संस्थान	-1131
परियोजना	-1132
चौ	-1133
टक	-1134
ंति	-1135
उल्	-1136
चर्	-1137
नीय	-1138
भेज	-1139
पन्न	-1140
श्रे	-1141
प्रणा	-1142
युद्ध	-1143
ज्यादा	-1144
विज्ञान	-1145
ऋण	-1146
▁“	-1147
नाथ	-1148
पाठ	-1149
अत्य	-1150
कृषि	-1151
गुना	-1152
देते	-1153
लाया	-1154
शब्द	-1155
सामा	-1156
विधान	-1157
किन्तु	-1158
प्रयास	-1159
विश्वविद्	-1160
मक	-1161
खोज	-1162
लाए	-1163
अवधि	-1164
दर्श	-1165
पीछे	-1166
अंतर्	-1167
जानते	-1168
दिष्ट	-1169
मामले	-1170
सिद्ध	-1171
उद्योग	-1172
यत	-1173
आकार	-1174
धर्म	-1175
निम्	-1176
बिना	-1177
यहां	-1178
रखने	-1179
समूह	-1180
अच्छे	-1181
तियों	-1182
सामाजिक	-1183
स्वीकार	-1184
ंजी	-1185
जाय	-1186
ज्य	-1187
मर्	-1188
षित	-1189
जबकि	-1190
ट्टी	-1191
बैंक	-1192
चित्र	-1193
जिसका	-1194
विस्त	-1195
सदस्य	-1196
सहयोग	-1197
प्रधान	-1198
or	-1199
ंस	-1200
आस	-1201
दम	-1202
पक	-1203
ोह	-1204
परे	-1205
चाहे	-1206
जैसा	-1207
मानव	-1208
हिस्	-1209
होकर	-1210
पश्चा	-1211
संदेह	-1212
गं	-1213
ोर	-1214
आने	-1215
जवा	-1216
तौर	-1217
कल्प	-1218
ल्ली	-1219
वर्त	-1220
वासी	-1221
पर्या	-1222
प्रभाव	-1223
निर्दिष्ट	-1224
es	-1225
ुष	-1226
कित	-1227
मुक	-1228
हिं	-1229
बन्द	-1230
रहते	-1231
लेने	-1232
सारे	-1233
ध्यान	-1234
मूल्य	-1235
संस्था	-1236
उद्देश्य	-1237
th	-1238
नक	-1239
उन्	-1240
लाई	-1241
शरी	-1242
.201	-1243
डियो	-1244
दर्शन	-1245
दूसरी	-1246
निम्न	-1247
पृष्ठ	-1248
समस्या	-1249
जिन्हें	-1250
ंगे	-1251
इसकी	-1252
बेशक	-1253
मूसा	-1254
जानकारी	-1255
प्रणाली	-1256
ed	-1257
en	-1258
छि	-1259
वत	-1260
ंचा	-1261
रोग	-1262
रोज	-1263
शील	-1264
साल	-1265
आकाश	-1266
आर्थ	-1267
रहने	-1268
लगभग	-1269
संगठ	-1270
सत्य	-1271
जानता	-1272
बराबर	-1273
स्तान	-1274
ोल्डर	-1275
सुविधा	-1276
विशिष्ट	-1277
व्यापार	-1278
प्रस्तुत	-1279
एफ	-1280
गम	-1281
टों	-1282
डाल	-1283
दिए	-1284
दिल	-1285
बेह	-1286
त्मा	-1287
निस्	-1288
पर्क	-1289
लाइन	-1290
वक्त	-1291
वर्ण	-1292
▁¦3¦	-1293
कर्ता	-1294
co	-1295
pr	-1296
आत	-1297
घो	-1298
नु	-1299
ूँ	-1300
ूम	-1301
अमे	-1302
जन्	-1303
जुड	-1304
झुठ	-1305
रोक	-1306
अग्र	-1307
उसको	-1308
एक्स	-1309
निकाल	-1310
निर्ण	-1311
न्याय	-1312
▁¦44¦	-1313
क्षमता	-1314
आवश्यकता	-1315
जगह	-1316
पाद	-1317
र्इ	-1318
कहने	-1319
निष्	-1320
रखते	-1321
लागू	-1322
वहां	-1323
वेदन	-1324
आर्थिक	-1325
पश्चात	-1326
प्रदेश	-1327
अतिरिक्त	-1328
न्यायालय	-1329
ंश	-1330
आम	-1331
नज	-1332
▁<	-1333
देव	-1334
पाल	-1335
मेल	-1336
लिम	-1337
ष्ण	-1338
▁¥	-1339
क्ता	-1340
घटना	-1341
न्यू	-1342
बद्ध	-1343
महान	-1344
सिंह	-1345
हुक्	-1346
निवेश	-1347
लिखित	-1348
नए	-1349
मज	-1350
अन्	-1351
कौन	-1352
चान	-1353
म्प	-1354
रान	-1355
राय	-1356
समु	-1357
सही	-1358
हमे	-1359
हाल	-1360
मनुष	-1361
हाला	-1362
अच्छी	-1363
अमेरि	-1364
इनकार	-1365
कृतिक	-1366
प्रेम	-1367
साहित	-1368
मंत्रा	-1369
वर्तमान	-1370
विश्वविद्यालय	-1371
आद	-1372
खड	-1373
िल	-1374
कूल	-1375
तें	-1376
वों	-1377
साह	-1378
आत्म	-1379
चुके	-1380
न्यास	-1381
महिला	-1382
संधान	-1383
हुक्म	-1384
चै	-1385
टल	-1386
ूब	-1387
कवि	-1388
बदल	-1389
लाम	-1390
हरे	-1391
देशी	-1392
बंगा	-1393
समाज	-1394
जिससे	-1395
शीर्ष	-1396
निर्णय	-1397
साहित्य	-1398
ot	-1399
ूं	-1400
इस्	-1401
गैर	-1402
रोध	-1403
्रो	-1404
योजन	-1405
वार्	-1406
क्ष्य	-1407
तुमसे	-1408
विभाग	-1409
विवरण	-1410
परिवार	-1411
ba	-1412
गड	-1413
डॉ	-1414
पथ	-1415
ran	-1416
ंतर	-1417
क्ट	-1418
गीत	-1419
नेट	-1420
वाज	-1421
वेब	-1422
▁''	-1423
वायु	-1424
शिका	-1425
दक्षि	-1426
यात्रा	-1427
वास्ते	-1428
सम्बन्	-1429
संयुक्त	-1430
अनुसंधान	-1431
अफ	-1432
ऑफ	-1433
ाई	-1434
अपे	-1435
लाख	-1436
स्क	-1437
राशि	-1438
वहार	-1439
वृत्	-1440
जाएगी	-1441
समिति	-1442
वित्तीय	-1443
स्थापना	-1444
अभ	-1445
थम	-1446
बच	-1447
लै	-1448
ृत	-1449
अला	-1450
नही	-1451
पात	-1452
बाग	-1453
माँ	-1454
लती	-1455
वाई	-1456
संर	-1457
क्षर	-1458
धारण	-1459
बुरा	-1460
भेजा	-1461
रिया	-1462
सक्र	-1463
कंपनी	-1464
तुमने	-1465
यातना	-1466
सुधार	-1467
आधारित	-1468
प्रारंभ	-1469
-1	-1470
is	-1471
छु	-1472
जय	-1473
वस	-1474
इंड	-1475
करी	-1476
पित	-1477
भाई	-1478
ल्क	-1479
कहीं	-1480
चिकि	-1481
चुका	-1482
पार्	-1483
मिला	-1484
स्ती	-1485
पिछले	-1486
सक्रिय	-1487
अंतर्गत	-1488
बह	-1489
तीस	-1490
बचा	-1491
ैंड	-1492
जन्म	-1493
जाये	-1494
पहली	-1495
ल्या	-1496
परन्तु	-1497
स्वरूप	-1498
.0	-1499
आन	-1500
नाज	-1501
वरी	-1502
▁¤	-1503
पालन	-1504
पुरा	-1505
मंदि	-1506
बच्चे	-1507
बाजार	-1508
बोर्ड	-1509
हमारा	-1510
कार्या	-1511
दिल्ली	-1512
शिक्षण	-1513
-#	-1514
मॉ	-1515
रण	-1516
शं	-1517
ona	-1518
अनि	-1519
तिम	-1520
थोड	-1521
शहर	-1522
सान	-1523
▁¤°	-1524
देगा	-1525
मिले	-1526
▁¦5¦	-1527
परंतु	-1528
हमेशा	-1529
वृद्धि	-1530
इत	-1531
चन	-1532
तौ	-1533
पण	-1534
तिक	-1535
मंड	-1536
यें	-1537
शर्	-1538
हटा	-1539
अन्त	-1540
कारा	-1541
च्छा	-1542
टिंग	-1543
पुरु	-1544
वहाँ	-1545
ानों	-1546
tiona	-1547
पत्ति	-1548
प्रथम	-1549
मित्र	-1550
हस्ता	-1551
मनुष्य	-1552
संपर्क	-1553
निस्संदेह	-1554
स्वतंत्रता	-1555
do	-1556
डाक	-1557
नित	-1558
भूत	-1559
र्च	-1560
सिल	-1561
बच्च	-1562
ब्रा	-1563
माना	-1564
निशान	-1565
प्रश्	-1566
बंगाल	-1567
योग्य	-1568
प्राधि	-1569
मंत्रालय	-1570
अल	-1571
दय	-1572
पल	-1573
ौम	-1574
जल्	-1575
जें	-1576
पैग	-1577
मीण	-1578
याँ	-1579
रहो	-1580
सेट	-1581
rans	-1582
तत्व	-1583
निकल	-1584
लेखा	-1585
श्वर	-1586
trans	-1587
गांधी	-1588
दियों	-1589
पुरुष	-1590
tional	-1591
अंग्रे	-1592
पश्चिम	-1593
उत्पादन	-1594
ग्रामीण	-1595
रिपोर्ट	-1596
bl	-1597
ma	-1598
ँह	-1599
झू	-1600
थि	-1601
पौ	-1602
सै	-1603
उपा	-1604
कृप	-1605
रीब	-1606
र्य	-1607
हरण	-1608
जाति	-1609
दिशा	-1610
बदला	-1611
लगता	-1612
स्तक	-1613
कृपया	-1614
बेहतर	-1615
मौजूद	-1616
स्थ्य	-1617
वर्षों	-1618
वास्तव	-1619
स्थानी	-1620
निर्देश	-1621
प्रबंधन	-1622
नियंत्रण	-1623
जिन्होंने	-1624
स्वास्थ्य	-1625
गल	-1626
उदा	-1627
छवि	-1628
दया	-1629
पसं	-1630
विध	-1631
साय	-1632
निधि	-1633
पाया	-1634
भीतर	-1635
रिश्	-1636
लेते	-1637
संसा	-1638
समझा	-1639
सुना	-1640
इतिहा	-1641
प्रेर	-1642
इतिहास	-1643
दक्षिण	-1644
transla	-1645
प्रस्ता	-1646
निर्धारण	-1647
एल	-1648
हज	-1649
कठि	-1650
▁¦0	-1651
▁¦8	-1652
कम्प	-1653
जवाब	-1654
जांच	-1655
अलावा	-1656
कोर्इ	-1657
पहचान	-1658
प्रिय	-1659
त्रुटि	-1660
पुस्तक	-1661
व्यवहार	-1662
kg	-1663
टु	-1664
जबू	-1665
तरा	-1666
मिन	-1667
सका	-1668
करोड	-1669
दुर्	-1670
प्ति	-1671
मजबू	-1672
मांग	-1673
मुँह	-1674
संभव	-1675
सार्	-1676
आसमान	-1677
जहन्न	-1678
देखने	-1679
यंत्र	-1680
विकल्प	-1681
अमेरिका	-1682
स्थानीय	-1683
प्रधानमंत्री	-1684
उड	-1685
नर	-1686
kgm	-1687
आयु	-1688
मना	-1689
यदा	-1690
लीन	-1691
वीं	-1692
▁),	-1693
जहाँ	-1694
त्यु	-1695
बनाए	-1696
र्जा	-1697
शरीर	-1698
स्रो	-1699
▁¦18	-1700
देखते	-1701
पहुँच	-1702
बाहरी	-1703
बच्चों	-1704
मृत्यु	-1705
हिस्सा	-1706
ज्ञानिक	-1707
वैज्ञानिक	-1708
टू	-1709
ढा	-1710
नौ	-1711
यद	-1712
चीन	-1713
तहत	-1714
बने	-1715
बाल	-1716
भ्र	-1717
यात	-1718
लिस	-1719
िता	-1720
च्चा	-1721
संशो	-1722
संसद	-1723
साइट	-1724
योजित	-1725
स्क्र	-1726
्यूटर	-1727
▁¦195	-1728
उत्पाद	-1729
मात्रा	-1730
लक्ष्य	-1731
सदस्यों	-1732
सामग्री	-1733
optional	-1734
टै	-1735
्त	-1736
चले	-1737
जों	-1738
न्व	-1739
बिल	-1740
र्क	-1741
सन्	-1742
आरंभ	-1743
कैसे	-1744
क्षक	-1745
तारी	-1746
नागर	-1747
र्जी	-1748
सहित	-1749
अनुभव	-1750
प्रभु	-1751
बातें	-1752
बातों	-1753
पूर्वक	-1754
उत्पन्न	-1755
संविधान	-1756
अर	-1757
गठ	-1758
णि	-1759
वज	-1760
शल	-1761
हद	-1762
ील	-1763
००	-1764
ity	-1765
ंबर	-1766
आशा	-1767
थीं	-1768
ल्म	-1769
ेगा	-1770
▁¤	-1771
किये	-1772
क्का	-1773
चारी	-1774
फाइल	-1775
मीटर	-1776
मूर्	-1777
लिखा	-1778
शाली	-1779
शेयर	-1780
दिनों	-1781
सर्वर	-1782
प्रवेश	-1783
केन्द्र	-1784
विस्तार	-1785
te	-1786
to	-1787
ँच	-1788
दल	-1789
बत	-1790
खरी	-1791
पों	-1792
विन	-1793
▁?"	-1794
▁¦6	-1795
000¦	-1796
द्वि	-1797
निजी	-1798
बैठक	-1799
रखता	-1800
शायद	-1801
शिया	-1802
उपकरण	-1803
चर्चा	-1804
जरूरत	-1805
शुल्क	-1806
सहायक	-1807
उपधारा	-1808
नागरिक	-1809
श्रेणी	-1810
चिकित्सा	-1811
le	-1812
ne	-1813
कमी	-1814
खुद	-1815
चरण	-1816
पूछ	-1817
▁¥	-1818
▁¦7	-1819
इयों	-1820
खिला	-1821
तकनी	-1822
राजा	-1823
लैंड	-1824
सर्व	-1825
अंतिम	-1826
इनमें	-1827
इस्ते	-1828
कानून	-1829
कारों	-1830
दस्ता	-1831
दारों	-1832
मंदिर	-1833
▁¦199	-1834
पहुँचा	-1835
प्रगति	-1836
भूमिका	-1837
व्यक्त	-1838
संबंधी	-1839
समाप्त	-1840
सरकारी	-1841
स्थायी	-1842
//	-1843
ar	-1844
खी	-1845
तृ	-1846
सज	-1847
म्ब	-1848
र्स	-1849
सोच	-1850
ौती	-1851
क्रो	-1852
छोटे	-1853
द्रा	-1854
लयों	-1855
ीकरण	-1856
दिखाई	-1857
अवस्था	-1858
प्रश्न	-1859
विकसित	-1860
समर्थन	-1861
सम्मान	-1862
ia	-1863
tp	-1864
आँ	-1865
फु	-1866
मल	-1867
लर	-1868
कने	-1869
कहो	-1870
खेल	-1871
तत्	-1872
दृढ	-1873
निर	-1874
पकड	-1875
भुग	-1876
रूर	-1877
लोड	-1878
हान	-1879
आतंक	-1880
चुना	-1881
त्रि	-1882
थमिक	-1883
यूरो	-1884
लागत	-1885
वर्क	-1886
वापस	-1887
▁¦4¦	-1888
क्षमा	-1889
जिनके	-1890
तुमको	-1891
नियों	-1892
पुनर्	-1893
मालूम	-1894
उदाहरण	-1895
शास्त्र	-1896
प्राथमिक	-1897
ंज	-1898
नल	-1899
भय	-1900
हल	-1901
pro	-1902
ंचे	-1903
गाह	-1904
र्ण	-1905
ारि	-1906
खाता	-1907
जिला	-1908
निकट	-1909
भूति	-1910
म्मे	-1911
रहता	-1912
सेना	-1913
अध्या	-1914
आवेदन	-1915
चुनें	-1916
पहुंच	-1917
वर्ती	-1918
चाहिये	-1919
दिखाएँ	-1920
भुगतान	-1921
प्रशिक्षण	-1922
व्यक्तियों	-1923
ंट	-1924
छ्	-1925
ृह	-1926
not	-1927
ध्व	-1928
मति	-1929
वहन	-1930
सला	-1931
▁¤¿	-1932
....	-1933
खाते	-1934
नाटक	-1935
परिक	-1936
पुनः	-1937
पूरे	-1938
ब्रि	-1939
संके	-1940
अधिका	-1941
जिसकी	-1942
ज्ञात	-1943
दृश्य	-1944
मुक्त	-1945
संगठन	-1946
सफलता	-1947
समुदा	-1948
अपेक्षा	-1949
प्रदर्श	-1950
हस्ताक्षर	-1951
प्रमाणपत्र	-1952
ii	-1953
il	-1954
nt	-1955
ऊँ	-1956
मय	-1957
रज	-1958
ंग्	-1959
कोण	-1960
जीव	-1961
पेश	-1962
बंद	-1963
लौट	-1964
शख्	-1965
सात	-1966
city	-1967
http	-1968
च्छे	-1969
दिना	-1970
दिवस	-1971
भागी	-1972
यामत	-1973
रखना	-1974
वाही	-1975
ऊर्जा	-1976
किंतु	-1977
द्रीय	-1978
विंडो	-1979
अध्ययन	-1980
औद्योग	-1981
राजनीति	-1982
राज्यों	-1983
इस्तेमाल	-1984
प्रोत्सा	-1985
इज	-1986
उठ	-1987
नै	-1988
लब	-1989
▁@	-1990
htm	-1991
ऊण्	-1992
छ्ष	-1993
पाक	-1994
पीड	-1995
म्भ	-1996
हाड	-1997
ीनन	-1998
इतना	-1999
इन्ह	-2000
क्रा	-2001
गुरु	-2002
लिंग	-2003
शख्स	-2004
समझौ	-2005
्राम	-2006
▁://	-2007
आयतों	-2008
ऊण्श्	-2009
क्रमण	-2010
प्रकट	-2011
मात्र	-2012
सलमान	-2013
दस्तावे	-2014
ऊण्श्छ्ष	-2015
निशानियाँ	-2016
उट	-2017
गढ	-2018
चं	-2019
झी	-2020
पट	-2021
बौ	-2022
सृ	-2023
गुम	-2024
घोष	-2025
ट्स	-2026
ताल	-2027
तित	-2028
फेर	-2029
बाव	-2030
मही	-2031
रकम	-2032
रिक	-2033
ल्स	-2034
सदी	-2035
▁):	-2036
कांग	-2037
गुणव	-2038
तेरे	-2039
मारी	-2040
अत्या	-2041
पुलिस	-2042
मियों	-2043
मिलने	-2044
रक्षा	-2045
लियों	-2046
संगीत	-2047
▁¦10¦	-2048
उल्लेख	-2049
निर्भर	-2050
उपस्थित	-2051
निर्यात	-2052
परीक्षा	-2053
प्रकृति	-2054
मुसलमान	-2055
संरक्षण	-2056
प्रस्ताव	-2057
se	-2058
ड्	-2059
पॉ	-2060
भौ	-2061
हृ	-2062
▁+	-2063
▁̧	-2064
com	-2065
आउट	-2066
ईसा	-2067
कमा	-2068
खिल	-2069
जोर	-2070
बनी	-2071
मंच	-2072
मों	-2073
रेल	-2074
लाओ	-2075
वें	-2076
ोगे	-2077
ोजन	-2078
चालन	-2079
चुकी	-2080
जैसी	-2081
प्रण	-2082
मिटा	-2083
विभा	-2084
वेयर	-2085
स्टे	-2086
कामना	-2087
केन्द	-2088
चयनित	-2089
द्वार	-2090
पूंजी	-2091
रुपये	-2092
वार्य	-2093
सम्मे	-2094
स्कूल	-2095
स्रोत	-2096
जाएँगे	-2097
पदार्थ	-2098
पूर्ति	-2099
संरचना	-2100
समाधान	-2101
गतिविधि	-2102
मुखर्जी	-2103
वेबसाइट	-2104
संपत्ति	-2105
अनिवार्य	-2106
औद्योगिक	-2107
केंद्रीय	-2108
गुणवत्ता	-2109
वास्तविक	-2110
चू	-2111
▁/	-2112
▁̈	-2113
nic	-2114
आधु	-2115
केट	-2116
तेज	-2117
दीन	-2118
नदी	-2119
फ्ट	-2120
भली	-2121
शाल	-2122
शिश	-2123
शुभ	-2124
सों	-2125
need	-2126
उचित	-2127
पसंद	-2128
पहाड	-2129
प्रस	-2130
भविष	-2131
मिली	-2132
मुद्	-2133
युवा	-2134
अर्था	-2135
प्रशा	-2136
मजबूत	-2137
वजनिक	-2138
सर्वो	-2139
अनुमति	-2140
भविष्य	-2141
्राष्ट	-2142
प्राकृतिक	-2143
सार्वजनिक	-2144
सुनिश्चित	-2145
निर्धारिती	-2146
translation	-2147
de	-2148
इक	-2149
शय	-2150
ुम	-2151
bly	-2152
आपस	-2153
जिए	-2154
नगर	-2155
परं	-2156
पाए	-2157
फ्फ	-2158
बर्	-2159
बान	-2160
रखो	-2161
ल्ड	-2162
वजह	-2163
वेद	-2164
शता	-2165
हम्	-2166
हैः	-2167
▁'%	-2168
does	-2169
उद्य	-2170
क्शन	-2171
पर्य	-2172
मर्श	-2173
ल्ला	-2174
विदा	-2175
समार	-2176
ालिम	-2177
▁¦20	-2178
bably	-2179
आत्मा	-2180
इच्छा	-2181
ग्रहण	-2182
डिस्क	-2183
देंगे	-2184
पुरस्	-2185
सक्षम	-2186
दिनांक	-2187
पहुंचा	-2188
बुद्धि	-2189
विदेशी	-2190
व्यापक	-2191
अध्यक्ष	-2192
प्रभावी	-2193
probably	-2194
करनेवाला	-2195
प्रयुक्त	-2196
केन्द्रीय	-2197
्राष्ट्रीय	-2198
इट	-2199
एच	-2200
घन	-2201
फू	-2202
▁–	-2203
ंकन	-2204
चयन	-2205
मुं	-2206
ल्ल	-2207
श्त	-2208
ेंट	-2209
अगले	-2210
आदमी	-2211
आपने	-2212
आयोग	-2213
किंग	-2214
डेटा	-2215
पद्ध	-2216
परिष	-2217
च्छेद	-2218
तरीके	-2219
तुमपर	-2220
न्त्र	-2221
मिलता	-2222
वित्त	-2223
संपाद	-2224
सिस्ट	-2225
▁¦196	-2226
आयोजित	-2227
प्रतीक	-2228
योक्ता	-2229
योगदान	-2230
अधिकांश	-2231
विचारों	-2232
संभावना	-2233
सम्मेलन	-2234
प्रभावित	-2235
सुरक्षित	-2236
बॉ	-2237
षक	-2238
अदा	-2239
काफ	-2240
गिज	-2241
डरा	-2242
दोष	-2243
नेह	-2244
फोन	-2245
बाप	-2246
भंड	-2247
रखे	-2248
वाक	-2249
शीघ	-2250
सहे	-2251
असफल	-2252
दर्भ	-2253
देती	-2254
प्ले	-2255
बदले	-2256
यद्य	-2257
▁¦11	-2258
अवश्य	-2259
उपबंध	-2260
खाद्य	-2261
पात्र	-2262
पुकार	-2263
प्रणब	-2264
प्रोग	-2265
वायदा	-2266
संचार	-2267
संसार	-2268
सत्या	-2269
इन्हें	-2270
परंपरा	-2271
यद्यपि	-2272
समुद्र	-2273
साधारण	-2274
कांग्रे	-2275
नेटवर्क	-2276
संस्करण	-2277
कंप्यूटर	-2278
ta	-2279
us	-2280
अक	-2281
चढ	-2282
१९	-2283
▁}	-2284
res	-2285
ंकि	-2286
ंगी	-2287
आती	-2288
आते	-2289
कलक	-2290
कोड	-2291
गलत	-2292
त्त	-2293
नतम	-2294
माह	-2295
म्र	-2296
रखी	-2297
साब	-2298
हिक	-2299
हिर	-2300
▁)।	-2301
आवाज	-2302
उनपर	-2303
चलता	-2304
द्वी	-2305
न्दा	-2306
पंजी	-2307
पिता	-2308
रक्त	-2309
लियन	-2310
व्यय	-2311
ारों	-2312
ईश्वर	-2313
उपचार	-2314
कोशिश	-2315
रुद्ध	-2316
विद्व	-2317
विशाल	-2318
शताब्	-2319
शीघ्र	-2320
सियों	-2321
अधिकतर	-2322
अर्थात	-2323
जिनमें	-2324
संदर्भ	-2325
समुदाय	-2326
अत्यन्त	-2327
पर्याप्त	-2328
छू	-2329
नू	-2330
पत	-2331
फॉ	-2332
लक	-2333
सच	-2334
ुत	-2335
इला	-2336
ख्त	-2337
झगड	-2338
टिक	-2339
दशा	-2340
पान	-2341
पीठ	-2342
हीन	-2343
कानू	-2344
छोटा	-2345
प्ता	-2346
माने	-2347
हार्	-2348
ित्व	-2349
▁¦6¦	-2350
कार्ड	-2351
कुंजी	-2352
खुलती	-2353
विवाह	-2354
आधुनिक	-2355
तुममें	-2356
बन्दों	-2357
बैंकों	-2358
मूर्ति	-2359
मौजूदा	-2360
संशोधन	-2361
समाचार	-2362
सेवाओं	-2363
हिन्दी	-2364
कांग्रेस	-2365
aà	-2366
ch	-2367
ंख	-2368
अस	-2369
कत	-2370
तल	-2371
नव	-2372
ूप	-2373
आता	-2374
आश्	-2375
उम्	-2376
कथा	-2377
कूट	-2378
खूब	-2379
गाड	-2380
ढंग	-2381
बूल	-2382
रिए	-2383
समी	-2384
स्य	-2385
ाने	-2386
उसपर	-2387
क्टर	-2388
ग्रे	-2389
चिह्	-2390
ठहरा	-2391
बयान	-2392
भारी	-2393
भाषण	-2394
यूनि	-2395
ल्यू	-2396
वधान	-2397
स्थल	-2398
कालीन	-2399
काव्य	-2400
कुफ्फ	-2401
कृष्ण	-2402
दूसरा	-2403
धिकार	-2404
बनाएँ	-2405
संकेत	-2406
सत्ता	-2407
इस्लाम	-2408
न्याया	-2409
प्रसार	-2410
मिट्टी	-2411
विंडों	-2412
वीडियो	-2413
समारोह	-2414
सिस्टम	-2415
स्वागत	-2416
स्वामी	-2417
दायित्व	-2418
संस्कृत	-2419
अनुच्छेद	-2420
पुरस्कार	-2421
व्यक्तिगत	-2422
ur	-2423
इड	-2424
उज	-2425
डो	-2426
िम	-2427
▁̄	-2428
ंगा	-2429
अता	-2430
कीय	-2431
गरी	-2432
गाँ	-2433
झूठ	-2434
तया	-2435
पना	-2436
भला	-2437
शाह	-2438
सिफ	-2439
सीख	-2440
अपरा	-2441
खर्च	-2442
छोटी	-2443
दायत	-2444
द्धा	-2445
धनों	-2446
नंबर	-2447
पांच	-2448
पाने	-2449
रेखा	-2450
लिका	-2451
विजय	-2452
वैश्	-2453
संगत	-2454
सलाह	-2455
सागर	-2456
सारा	-2457
अफ्री	-2458
गुनाह	-2459
घोषणा	-2460
तारीख	-2461
आकाशों	-2462
वृत्ति	-2463
संकल्प	-2464
जहन्नुम	-2465
अंतर्राष्ट्रीय	-2466
al	-2467
तय	-2468
यल	-2469
ैर	-2470
ँकि	-2471
इका	-2472
जूद	-2473
दुख	-2474
धों	-2475
न्ट	-2476
पाई	-2477
पुट	-2478
पेट	-2479
मां	-2480
माइ	-2481
मुझ	-2482
मोड	-2483
युग	-2484
र्व	-2485
लघु	-2486
सरक	-2487
सवा	-2488
हाज	-2489
▁¤¤	-2490
अपील	-2491
करार	-2492
क्रि	-2493
घरों	-2494
जादू	-2495
ट्रै	-2496
डाला	-2497
बिल्	-2498
माता	-2499
लाते	-2500
विधे	-2501
वेतन	-2502
▁¦0¦	-2503
▁¦7¦	-2504
एशिया	-2505
कराने	-2506
प्राय	-2507
बताया	-2508
मार्च	-2509
वार्ष	-2510
विविध	-2511
सच्चे	-2512
हरगिज	-2513
अभिलेख	-2514
मामलों	-2515
हिदायत	-2516
कलकत्ता	-2517
चारियों	-2518
तिहासिक	-2519
विरुद्ध	-2520
शताब्दी	-2521
हालाँकि	-2522
प्रकाशित	-2523
ार्थियों	-2524
प्रदर्शित	-2525
उल	-2526
खर	-2527
सॉ	-2528
कश्	-2529
तरण	-2530
दास	-2531
मशी	-2532
मीर	-2533
लग्	-2534
सरल	-2535
अप्र	-2536
इतनी	-2537
खुला	-2538
जाँच	-2539
दोलन	-2540
धीरे	-2541
न्ना	-2542
बारा	-2543
मंडल	-2544
महत्	-2545
श्रम	-2546
संतु	-2547
साझी	-2548
▁¦12	-2549
कल्या	-2550
क्ट्र	-2551
जिस्ट	-2552
जीवित	-2553
दर्शा	-2554
देखें	-2555
परिषद	-2556
पुस्त	-2557
प्रवि	-2558
भंडार	-2559
विमान	-2560
शुक्र	-2561
शब्दों	-2562
सिद्धा	-2563
आतंकवाद	-2564
दस्तावेज	-2565
प्रभुत्व	-2566
संस्थानों	-2567
अर्थव्यवस्था	-2568
अह	-2569
ऑन	-2570
घड	-2571
चो	-2572
थर	-2573
▁[	-2574
ंदर	-2575
अक्	-2576
एका	-2577
कदम	-2578
गृह	-2579
तेल	-2580
द्द	-2581
नमा	-2582
नये	-2583
नवी	-2584
बां	-2585
भीर	-2586
भेद	-2587
राब	-2588
सौं	-2589
हवा	-2590
ावा	-2591
िरत	-2592
्यु	-2593
-#-#	-2594
pres	-2595
इनके	-2596
खरीद	-2597
छिपा	-2598
टुकड	-2599
नियत	-2600
नेता	-2601
सख्त	-2602
स्पर	-2603
स्वर	-2604
हालत	-2605
हिमा	-2606
ुरान	-2607
कटौती	-2608
निदेश	-2609
बौद्ध	-2610
मिलकर	-2611
सूचित	-2612
सूत्र	-2613
हासिल	-2614
ार्थी	-2615
▁¦197	-2616
▁¦30¦	-2617
बावजूद	-2618
मानसिक	-2619
स्वच्छ	-2620
निर्मित	-2621
प्रसन्न	-2622
विस्तृत	-2623
पर्यावरण	-2624
अनुप्रयोग	-2625
निम्नलिखित	-2626
मार्गदर्शन	-2627
an	-2628
उत	-2629
कथ	-2630
जर	-2631
रल	-2632
सव	-2633
काट	-2634
चली	-2635
ट्ट	-2636
ताव	-2637
पें	-2638
पेड	-2639
बरी	-2640
बिक	-2641
बोल	-2642
मस्	-2643
रुर	-2644
र्न	-2645
लिप	-2646
सचि	-2647
समृ	-2648
▁¤1	-2649
ment	-2650
आईटी	-2651
कठोर	-2652
कहना	-2653
किस्	-2654
कीमत	-2655
खाने	-2656
चुने	-2657
जल्द	-2658
दाता	-2659
पादन	-2660
प्रच	-2661
प्रि	-2662
बैठे	-2663
रखें	-2664
शैली	-2665
संभा	-2666
सकें	-2667
सीता	-2668
हमसे	-2669
हानि	-2670
आज्ञा	-2671
इजराय	-2672
ग्राम	-2673
नैतिक	-2674
मालिक	-2675
शांति	-2676
शुद्ध	-2677
▁¦25¦	-2678
अनुरोध	-2679
नियमित	-2680
नियमों	-2681
परस्पर	-2682
रहेंगे	-2683
संसाधन	-2684
उपयुक्त	-2685
कार्यों	-2686
झुठलाया	-2687
श्रेणीः	-2688
स्क्रीन	-2689
ऐतिहासिक	-2690
कर्मचारी	-2691
प्राप्ति	-2692
प्रोग्राम	-2693
गतिविधियों	-2694
प्राधिकारी	-2695
ct	-2696
vi	-2697
औन	-2698
घट	-2699
डु	-2700
णु	-2701
दै	-2702
भो	-2703
शख	-2704
सड	-2705
▁{	-2706
...	-2707
अना	-2708
अरब	-2709
आंक	-2710
किल	-2711
ख्य	-2712
चिं	-2713
जनक	-2714
जून	-2715
तोड	-2716
दिख	-2717
देन	-2718
नसी	-2719
फ्र	-2720
बाई	-2721
हरि	-2722
▁¤2	-2723
▁¤®	-2724
▁¦9	-2725
html	-2726
आकर्	-2727
आपका	-2728
आयात	-2729
कठिन	-2730
क्सी	-2731
खाना	-2732
तरित	-2733
दूरी	-2734
पंचा	-2735
पाकि	-2736
भोजन	-2737
मेहर	-2738
रहती	-2739
रहना	-2740
रहें	-2741
विफल	-2742
सत्र	-2743
सबके	-2744
सबको	-2745
स्ना	-2746
हृदय	-2747
ारिश	-2748
▁¦8¦	-2749
▁¦9¦	-2750
,000¦	-2751
चंद्र	-2752
जरूरी	-2753
जल्दी	-2754
जिसको	-2755
तृत्व	-2756
दर्शक	-2757
द्वीप	-2758
मानते	-2759
रहेगा	-2760
हम्मद	-2761
उन्हीं	-2762
कल्याण	-2763
प्रचार	-2764
बुनिया	-2765
हिन्दू	-2766
प्राचीन	-2767
महिलाओं	-2768
वैश्विक	-2769
लोकप्रिय	-2770
संस्कृति	-2771
परिस्थिति	-2772
अधिकारियों	-2773
अंतरराष्ट्रीय	-2774
un	-2775
आठ	-2776
तथ	-2777
दस	-2778
दौ	-2779
मण	-2780
ँति	-2781
¦	-2782
▁	-2783
ा	-2784
क	-2785
र	-2786
े	-2787
्	-2788
न	-2789
ि	-2790
स	-2791
त	-2792
ह	-2793
ं	-2794
ी	-2795
म	-2796
ो	-2797
य	-2798
प	-2799
ल	-2800
व	-2801
द	-2802
ज	-2803
ु	-2804
ग	-2805
ब	-2806
ै	-2807
अ	-2808
श	-2809
ए	-2810
च	-2811
उ	-2812
भ	-2813
ू	-2814
़	-2815
।	-2816
ट	-2817
,	-2818
थ	-2819
औ	-2820
ध	-2821
ख	-2822
आ	-2823
ष	-2824
ड	-2825
इ	-2826
ण	-2827
फ	-2828
(	-2829
)	-2830
.	-2831
ई	-2832
-	-2833
छ	-2834
ँ	-2835
1	-2836
ौ	-2837
ृ	-2838
0	-2839
ओ	-2840
ठ	-2841
a	-2842
e	-2843
2	-2844
i	-2845
घ	-2846
झ	-2847
t	-2848
ऐ	-2849
n	-2850
à	-2851
𐋇	-2852
o	-2853
s	-2854
ढ	-2855
¤	-2856
r	-2857
ॉ	-2858
ः	-2859
"	-2860
4	-2861
9	-2862
3	-2863
/	-2864
l	-2865
m	-2866
c	-2867
5	-2868
p	-2869
?	-2870
ञ	-2871
'	-2872
d	-2873
;	-2874
%	-2875
6	-2876
8	-2877
h	-2878
:	-2879
ऊ	-2880
7	-2881
_	-2882
u	-2883
b	-2884
𐊣	-2885
𐊼	-2886
g	-2887
y	-2888
ऑ	-2889
!	-2890
¥	-2891
‍	-2892
ऋ	-2893
k	-2894
f	-2895
०	-2896
w	-2897
१	-2898
#	-2899
v	-2900
‘	-2901
”	-2902
’	-2903
>	-2904
⁄	-2905
&	-2906
२	-2907
x	-2908
“	-2909
<	-2910
	-2911
९	-2912
३	-2913
°	-2914
५	-2915
	-2916
–	-2917
	-2918
	-2919
६	-2920
z	-2921
८	-2922
j	-2923
४	-2924
¿	-2925
@	-2926
+	-2927
̧	-2928
ॅ	-2929
q	-2930
{	-2931
̈	-2932
७	-2933
\	-2934
}	-2935
]	-2936
̄	-2937
[	-2938
®	-2939
॰	-2940
ङ	-2941
μ	-2942
	-2943
$	-2944
«	-2945
	-2946
	-2947
¡	-2948
¶	-2949
—	-2950
	-2951
=	-2952
¬	-2953
	-2954
	-2955
	-2956
ऍ	-2957
ॆ	-2958
	-2959
ॊ	-2960
ळ	-2961
|	-2962
~	-2963
	-2964
	-2965
·	-2966
é	-2967
*	-2968
	-2969
£	-2970
©	-2971
॥	-2972
	-2973
§	-2974
ऎ	-2975
`	-2976
¢	-2977
	-2978
	-2979
̃	-2980
	-2981
	-2982
	-2983
	-2984
	-2985
×	-2986
î	-2987
ò	-2988
þ	-2989
ą	-2990
ĺ	-2991
ş	-2992
ॄ	-2993
॓	-2994
‐	-2995
₹	-2996
