<pad>	0
</s>	0
<unk>	0
▁	-2.74153
s	-3.37504
,	-3.46547
i	-3.77117
.	-3.89985
k	-4.05313
o	-4.1488
a	-4.16513
e	-4.23012
u	-4.2949
g	-4.30136
ti	-4.43069
▁ir	-4.45091
t	-4.50206
in	-4.69557
r	-4.73785
ų	-4.75557
p	-4.76228
n	-4.80034
ą	-4.81861
▁pa	-4.82083
b	-4.84879
d	-4.85697
os	-4.89057
m	-4.89882
ė	-5.01136
me	-5.02485
ės	-5.05575
▁kad	-5.11627
š	-5.11657
l	-5.12267
j	-5.14265
ai	-5.17336
▁su	-5.2091
y	-5.21778
us	-5.23832
▁ne	-5.2608
▁į	-5.26229
to	-5.29835
ra	-5.29889
as	-5.31426
is	-5.32369
es	-5.35275
si	-5.37405
ma	-5.39063
ū	-5.42059
al	-5.42603
v	-5.45595
▁iš	-5.49946
ta	-5.50383
en	-5.51192
te	-5.54965
an	-5.55054
im	-5.55197
tų	-5.56612
ek	-5.58255
į	-5.58752
tin	-5.59143
au	-5.59702
ž	-5.59942
ki	-5.6041
ri	-5.60551
li	-5.62122
ių	-5.64904
▁at	-5.73487
▁Europos	-5.73688
ę	-5.74163
da	-5.75011
uo	-5.81397
▁ši	-5.82334
ir	-5.83709
▁kuri	-5.88234
▁d	-5.89507
▁tai	-5.9059
▁pri	-5.908
tu	-5.90881
▁dėl	-5.91855
z	-5.9315
jų	-5.9478
mi	-5.95581
▁vis	-5.96209
ur	-5.96389
▁k	-5.96389
imo	-6.01417
ka	-6.01892
▁yra	-6.02848
ei	-6.0381
la	-6.05964
▁tik	-6.06947
ro	-6.07553
▁p	-6.07819
io	-6.09289
na	-6.0988
re	-6.10335
ja	-6.10526
ty	-6.10642
▁-	-6.11569
ant	-6.13304
▁ko	-6.14128
▁re	-6.14625
mas	-6.15021
dė	-6.15144
am	-6.16117
di	-6.17374
ng	-6.19465
yb	-6.19923
f	-6.21504
ijos	-6.22263
tas	-6.23474
▁teis	-6.24691
▁K	-6.24888
sta	-6.25643
men	-6.25816
▁po	-6.2583
▁t	-6.26831
ar	-6.28392
▁už	-6.2956
var	-6.29833
le	-6.2989
▁pat	-6.30051
ci	-6.30195
imą	-6.31924
mą	-6.31969
▁A	-6.31976
tar	-6.32824
mo	-6.32872
▁turi	-6.32992
vy	-6.33984
iu	-6.34885
dži	-6.36506
ni	-6.36575
vi	-6.36734
ko	-6.36996
▁ap	-6.37075
yti	-6.3873
▁P	-6.40037
iai	-6.41787
▁b	-6.42026
el	-6.43646
ia	-6.43919
ik	-6.44077
ali	-6.44157
či	-6.44236
▁m	-6.44846
do	-6.4545
▁pas	-6.45803
▁T	-6.46641
aug	-6.46677
tą	-6.47938
va	-6.48045
on	-6.48305
▁(	-6.48378
▁to	-6.48451
)	-6.48928
tai	-6.49565
čia	-6.4975
▁ž	-6.49954
ju	-6.5025
▁B	-6.5037
ve	-6.50608
▁būti	-6.50674
mų	-6.51135
ys	-6.52766
▁nuo	-6.53377
oje	-6.55009
▁nar	-6.55849
▁pra	-6.56726
▁M	-6.57406
pa	-6.57415
du	-6.58599
mon	-6.60979
veik	-6.61148
▁sk	-6.61481
er	-6.62051
▁V	-6.62974
vo	-6.63063
▁kaip	-6.63534
▁pasi	-6.64985
▁pro	-6.64997
inti	-6.65248
"	-6.65271
lo	-6.65348
omis	-6.66036
gr	-6.67044
▁taip	-6.6722
▁per	-6.67455
▁S	-6.70193
▁gali	-6.70539
imas	-6.70953
N	-6.71034
čių	-6.71076
▁J	-6.7137
or	-6.72074
▁jo	-6.72363
sti	-6.72717
▁nu	-6.72922
1	-6.73312
▁va	-6.74874
šal	-6.75008
lin	-6.75391
▁Tai	-6.76609
▁D	-6.77121
▁praneš	-6.77184
▁kai	-6.77273
▁ES	-6.77284
min	-6.78136
nt	-6.78585
tos	-6.79003
ger	-6.80018
▁st	-6.80463
vie	-6.80491
▁būtų	-6.81938
klaus	-6.83688
▁nes	-6.83921
cijos	-6.84062
il	-6.8425
0	-6.84714
kl	-6.85092
laik	-6.86797
usi	-6.87229
iau	-6.87703
ius	-6.88207
ly	-6.8879
ter	-6.88891
▁savo	-6.89448
ams	-6.90579
▁vien	-6.91624
▁labai	-6.91692
▁buvo	-6.92022
▁bendr	-6.92167
▁apie	-6.92385
▁E	-6.9326
▁dar	-6.93531
ija	-6.93944
cija	-6.94219
ži	-6.95027
▁daug	-6.96174
▁ji	-6.96542
L	-6.96774
umo	-6.9716
dar	-6.97399
mos	-6.98371
tik	-6.99272
ing	-7.00077
inių	-7.00515
▁susi	-7.01214
▁be	-7.01359
▁prie	-7.0252
▁R	-7.03121
nauj	-7.03585
oms	-7.03601
ties	-7.04578
▁mūsų	-7.04791
▁ga	-7.04907
iz	-7.05173
▁reik	-7.0518
▁priemon	-7.05738
c	-7.07034
▁Ši	-7.07765
ul	-7.0972
▁Komisijos	-7.10014
inga	-7.10679
E	-7.10743
uoti	-7.11137
iems	-7.11171
iam	-7.11743
▁rink	-7.12749
ran	-7.13409
ėjo	-7.1451
ėms	-7.14962
▁kar	-7.15497
▁pirmininke	-7.15555
rin	-7.17256
▁ar	-7.17279
yje	-7.18079
mai	-7.18842
▁G	-7.19255
▁veiks	-7.20112
sprend	-7.21128
▁I	-7.21817
▁proc	-7.22358
▁mok	-7.224
for	-7.2255
▁bet	-7.2265
imų	-7.22704
▁užtikrin	-7.22799
iškai	-7.23542
lan	-7.23801
▁finans	-7.25198
darb	-7.25755
▁bus	-7.2626
skai	-7.26404
avimo	-7.27019
▁pasiūl	-7.2786
▁tarp	-7.28054
joje	-7.29296
iausia	-7.29606
▁mes	-7.29619
uoja	-7.29973
iant	-7.30479
tus	-7.30734
ymo	-7.3107
▁gal	-7.31812
uose	-7.32074
▁tr	-7.32306
▁Komisija	-7.32683
▁maž	-7.33093
iama	-7.33581
▁kon	-7.33669
P	-7.33752
▁nepa	-7.34637
20	-7.34786
ver	-7.34888
▁reikia	-7.36512
▁jau	-7.36739
▁bū	-7.37495
der	-7.38165
kel	-7.38481
▁kurie	-7.38864
▁pateik	-7.39356
▁pirm	-7.39913
naud	-7.40537
▁ak	-7.40697
nor	-7.41034
tor	-7.41515
▁šiuo	-7.41951
▁kurios	-7.42821
imai	-7.43179
▁norėčiau	-7.43373
▁pagal	-7.43382
▁lyg	-7.43548
▁vert	-7.4394
▁Sąjungos	-7.44463
▁valstybės	-7.44554
:	-7.44881
▁keli	-7.45264
ėja	-7.45423
▁darbo	-7.45633
▁Pa	-7.45933
sistem	-7.46118
▁metu	-7.46466
▁prieš	-7.46518
▁galimyb	-7.47845
2	-7.48883
▁siek	-7.49487
gyvendin	-7.50024
h	-7.50607
▁turėtų	-7.52017
▁susitar	-7.52786
▁Parlamento	-7.52846
▁svarbu	-7.53083
oji	-7.53205
▁disk	-7.53827
▁Todėl	-7.5531
iją	-7.57661
▁naudo	-7.57692
ciją	-7.58234
C	-7.5848
ėmis	-7.58518
▁dabar	-7.62479
▁gyven	-7.63114
ch	-7.6377
▁svarbi	-7.64091
▁narių	-7.6455
region	-7.64622
▁šį	-7.64758
▁valstybių	-7.6565
?	-7.65848
▁atsak	-7.66306
T	-7.67502
R	-7.6751
ojo	-7.6793
▁Tačiau	-7.67969
▁jei	-7.69305
9	-7.69896
O	-7.70294
▁ypač	-7.70787
S	-7.70852
5	-7.70888
▁200	-7.71894
▁nustat	-7.72685
▁valstyb	-7.73472
▁suteik	-7.74339
▁daugiau	-7.74646
▁tačiau	-7.74751
▁Pone	-7.75041
aiški	-7.75255
▁socialin	-7.76263
F	-7.76363
▁vald	-7.77657
ėje	-7.78396
▁mums	-7.79588
▁mano	-7.80302
▁laiko	-7.81112
3	-7.81503
▁nori	-7.82133
U	-7.82545
▁pagrindin	-7.83797
tautin	-7.84718
▁sau	-7.8503
▁didel	-7.85132
▁politikos	-7.85766
▁nėra	-7.85805
▁kriz	-7.85852
V	-7.87196
▁siekiant	-7.87546
ymu	-7.87769
▁klausimu	-7.88521
A	-7.88566
▁politin	-7.88833
▁jūs	-7.90822
osios	-7.90984
▁todėl	-7.91319
demokrat	-7.91987
▁Taryba	-7.92112
nčio	-7.92818
▁žino	-7.92888
▁susijusi	-7.9314
▁kiek	-7.94082
▁laisv	-7.94636
8	-7.95268
;	-7.9551
-	-7.95559
▁Sąjunga	-7.95653
D	-7.9567
7	-7.95751
umu	-7.9724
biudžet	-7.9773
4	-7.98544
▁Gerb	-7.99721
▁šalių	-8.00983
Pirminink	-8.00985
▁srityje	-8.00993
program	-8.01357
▁manau	-8.01609
▁sav	-8.0236
▁arba	-8.04996
▁ekonomikos	-8.05103
Ž	-8.05294
▁teik	-8.05747
I	-8.06183
▁skatin	-8.06245
▁Parlamentas	-8.06382
▁vykd	-8.06845
▁plėt	-8.07357
▁ekonomin	-8.07849
dalyv	-8.08358
▁žmogaus	-8.1158
avimas	-8.11759
▁mėn	-8.1243
▁nepri	-8.128
▁klausimas	-8.13354
6	-8.13369
▁Tarybos	-8.1433
▁bendradarbiavim	-8.15374
▁patvirtin	-8.15789
▁kurį	-8.1622
▁žmonių	-8.16973
pakeit	-8.17606
▁pasakyti	-8.18516
▁sutart	-8.19054
▁privalo	-8.20553
▁pabrėž	-8.21114
avimą	-8.21296
▁Manau	-8.22349
▁visuomen	-8.22882
▁pirminink	-8.23277
▁galėtų	-8.2407
▁įtrauk	-8.26287
H	-8.26379
▁toliau	-8.26664
▁energijos	-8.26667
▁raštu	-8.27404
▁šiandien	-8.27745
išku	-8.27862
Š	-8.28156
▁padaryt	-8.29784
▁apsaugos	-8.29787
▁labiau	-8.31183
▁kalba	-8.31606
▁žemės	-8.31644
▁vyriausyb	-8.34981
▁atveju	-8.35749
▁nacionalin	-8.36118
▁prekybos	-8.37338
▁didesn	-8.38665
▁Norėčiau	-8.38712
B	-8.39162
▁problema	-8.39248
▁politika	-8.39894
K	-8.55096
/	-8.57271
č	-8.70475
M	-8.85978
G	-9.03141
J	-9.92239
(	-10.5511
