<pad>	0
</s>	0
<unk>	0
▁¦	-0
th	-1
in	-2
the	-3
re	-4
on	-5
an	-6
at	-7
en	-8
er	-9
or	-10
▁𐋇	-11
▁the	-12
is	-13
ed	-14
al	-15
as	-16
es	-17
▁s	-18
to	-19
of	-20
▁c	-21
ar	-22
ing	-23
▁a	-24
ti	-25
ou	-26
▁w	-27
and	-28
▁in	-29
▁p	-30
▁h	-31
ent	-32
▁of	-33
▁b	-34
ac	-35
it	-36
▁f	-37
▁d	-38
ati	-39
▁to	-40
ic	-41
il	-42
ro	-43
ve	-44
▁.	-45
ec	-46
id	-47
tr	-48
le	-49
▁,	-50
▁m	-51
he	-52
▁and	-53
us	-54
ation	-55
os	-56
ir	-57
om	-58
▁T	-59
▁th	-60
▁n	-61
▁be	-62
ay	-63
ad	-64
ver	-65
▁re	-66
ly	-67
ow	-68
▁v	-69
tion	-70
▁C	-71
▁is	-72
acc	-73
ter	-74
oron	-75
▁M	-76
ave	-77
ch	-78
un	-79
ur	-80
ol	-81
accin	-82
orona	-83
ment	-84
▁l	-85
ill	-86
▁A	-87
▁g	-88
op	-89
▁e	-90
st	-91
ate	-92
▁I	-93
▁t	-94
▁S	-95
am	-96
ot	-97
um	-98
ce	-99
▁The	-100
ted	-101
im	-102
▁for	-103
di	-104
ith	-105
▁on	-106
et	-107
el	-108
oun	-109
are	-110
ak	-111
oc	-112
ig	-113
rom	-114
for	-115
ers	-116
▁st	-117
▁are	-118
ts	-119
be	-120
res	-121
als	-122
over	-123
ents	-124
ut	-125
ul	-126
em	-127
▁vaccin	-128
ld	-129
ab	-130
ag	-131
fec	-132
ere	-133
▁P	-134
▁that	-135
ain	-136
▁has	-137
▁H	-138
se	-139
ap	-140
out	-141
ther	-142
ome	-143
▁have	-144
atients	-145
umb	-146
ion	-147
▁con	-148
all	-149
▁D	-150
ity	-151
vid	-152
▁an	-153
▁with	-154
▁B	-155
iti	-156
iv	-157
▁In	-158
aid	-159
irus	-160
por	-161
▁wh	-162
overn	-163
20	-164
▁corona	-165
▁𐊣	-166
od	-167
alth	-168
our	-169
overnment	-170
if	-171
ess	-172
▁1	-173
▁was	-174
ore	-175
inis	-176
▁as	-177
ase	-178
eop	-179
eople	-180
▁r	-181
▁"	-182
▁will	-183
ould	-184
gen	-185
uc	-186
qu	-187
har	-188
▁from	-189
ear	-190
▁W	-191
est	-192
▁dis	-193
▁pro	-194
▁(	-195
ud	-196
▁y	-197
▁R	-198
ated	-199
▁or	-200
also	-201
up	-202
ew	-203
▁'	-204
igh	-205
own	-206
▁o	-207
▁not	-208
19	-209
av	-210
▁at	-211
wh	-212
ies	-213
▁sh	-214
pl	-215
▁by	-216
me	-217
ash	-218
tric	-219
pit	-220
tions	-221
▁been	-222
ant	-223
corona	-224
▁it	-225
ays	-226
vaccin	-227
pro	-228
co	-229
ep	-230
▁patients	-231
cl	-232
▁ex	-233
con	-234
umber	-235
ospit	-236
ary	-237
any	-238
end	-239
▁this	-240
ork	-241
▁vaccine	-242
-19	-243
has	-244
per	-245
fter	-246
▁tr	-247
▁Th	-248
▁N	-249
that	-250
sp	-251
▁he	-252
sh	-253
inister	-254
tor	-255
ge	-256
▁O	-257
ef	-258
▁com	-259
▁said	-260
med	-261
gh	-262
ous	-263
▁U	-264
ountr	-265
ical	-266
ast	-267
der	-268
ding	-269
com	-270
ure	-271
▁ch	-272
cre	-273
we	-274
ath	-275
▁government	-276
have	-277
ans	-278
tra	-279
ever	-280
one	-281
▁people	-282
ial	-283
fic	-284
ock	-285
ik	-286
ack	-287
ren	-288
with	-289
ough	-290
port	-291
xy	-292
ue	-293
ound	-294
vel	-295
ms	-296
ail	-297
ex	-298
▁also	-299
ose	-300
ub	-301
virus	-302
xygen	-303
pr	-304
▁F	-305
tic	-306
▁de	-307
▁im	-308
dis	-309
ance	-310
▁state	-311
age	-312
▁infec	-313
ahar	-314
ine	-315
dia	-316
use	-317
ven	-318
down	-319
uch	-320
ator	-321
iz	-322
ashtra	-323
aharashtra	-324
this	-325
▁K	-326
▁ac	-327
▁Ch	-328
ost	-329
▁cl	-330
not	-331
▁un	-332
ospital	-333
ip	-334
▁were	-335
▁G	-336
will	-337
ib	-338
▁ad	-339
▁per	-340
▁virus	-341
able	-342
duc	-343
ens	-344
cent	-345
from	-346
▁number	-347
pre	-348
▁¦1	-349
ll	-350
▁le	-351
ockdown	-352
00	-353
▁2	-354
art	-355
▁He	-356
ond	-357
▁ab	-358
▁cont	-359
reat	-360
ard	-361
ia	-362
iss	-363
▁we	-364
pos	-365
ild	-366
time	-367
▁20	-368
ates	-369
ive	-370
▁can	-371
act	-372
ased	-373
ym	-374
ple	-375
▁E	-376
was	-377
ease	-378
▁Corona	-379
by	-380
trict	-381
eed	-382
ong	-383
ile	-384
enti	-385
ases	-386
ations	-387
▁all	-388
ru	-389
▁countr	-390
ass	-391
day	-392
▁should	-393
arch	-394
lo	-395
ach	-396
ire	-397
▁other	-398
▁work	-399
ra	-400
ovid	-401
ight	-402
te	-403
de	-404
▁J	-405
▁health	-406
ell	-407
▁Minister	-408
patients	-409
ist	-410
ai	-411
▁me	-412
ffec	-413
been	-414
tive	-415
ording	-416
ake	-417
▁there	-418
▁had	-419
▁se	-420
clud	-421
pe	-422
ich	-423
▁cent	-424
une	-425
ask	-426
ymp	-427
vaccine	-428
▁res	-429
ympto	-430
oll	-431
▁ap	-432
other	-433
ID	-434
OV	-435
ang	-436
irst	-437
very	-438
▁k	-439
ally	-440
pec	-441
OVID	-442
wo	-443
ike	-444
ence	-445
ress	-446
said	-447
▁pre	-448
ide	-449
ame	-450
ool	-451
government	-452
covid	-453
▁pl	-454
ied	-455
econd	-456
there	-457
used	-458
▁out	-459
▁after	-460
▁Maharashtra	-461
▁oxygen	-462
▁who	-463
velop	-464
form	-465
▁ag	-466
ish	-467
uring	-468
▁COVID	-469
▁India	-470
ief	-471
orld	-472
▁V	-473
ign	-474
▁you	-475
▁incre	-476
0¦	-477
ace	-478
miss	-479
▁Wh	-480
infec	-481
health	-482
people	-483
oV	-484
▁hand	-485
▁L	-486
▁do	-487
▁dec	-488
chool	-489
ice	-490
ubl	-491
ting	-492
ures	-493
inistr	-494
og	-495
erv	-496
ons	-497
ious	-498
ind	-499
▁no	-500
▁3	-501
ities	-502
uation	-503
▁It	-504
state	-505
ymptoms	-506
▁about	-507
af	-508
aw	-509
iven	-510
▁more	-511
▁pr	-512
ort	-513
ildren	-514
mission	-515
umbai	-516
▁Dr	-517
▁test	-518
▁This	-519
▁)	-520
aj	-521
ok	-522
ade	-523
owever	-524
esh	-525
gan	-526
octor	-527
▁their	-528
reatment	-529
ced	-530
ov	-531
CoV	-532
▁lockdown	-533
▁than	-534
▁time	-535
atory	-536
▁But	-537
mun	-538
▁some	-539
fore	-540
here	-541
odi	-542
▁new	-543
cont	-544
aking	-545
ituation	-546
▁so	-547
▁med	-548
ning	-549
RS	-550
▁?	-551
ek	-552
▁5	-553
stem	-554
▁infection	-555
ree	-556
ublic	-557
ystem	-558
ult	-559
cording	-560
han	-561
but	-562
row	-563
▁under	-564
▁disease	-565
▁being	-566
▁vaccination	-567
▁days	-568
▁vaccines	-569
were	-570
work	-571
bre	-572
can	-573
▁year	-574
fere	-575
▁pos	-576
▁one	-577
▁Health	-578
▁country	-579
rough	-580
▁4	-581
▁if	-582
▁¦2	-583
▁these	-584
▁-	-585
so	-586
▁av	-587
ailable	-588
itiz	-589
ainst	-590
ines	-591
▁There	-592
▁al	-593
number	-594
ber	-595
▁resp	-596
isk	-597
rug	-598
▁Pr	-599
red	-600
ute	-601
sti	-602
pread	-603
ne	-604
▁Un	-605
▁need	-606
▁sup	-607
ministr	-608
aken	-609
▁but	-610
anu	-611
noun	-612
▁As	-613
▁go	-614
after	-615
▁qu	-616
▁which	-617
▁includ	-618
cy	-619
had	-620
mit	-621
ported	-622
ves	-623
feren	-624
ating	-625
-19¦	-626
▁reg	-627
rent	-628
ited	-629
▁they	-630
▁first	-631
▁¦20	-632
erson	-633
jec	-634
cr	-635
▁high	-636
▁ar	-637
▁hospital	-638
▁Ac	-639
▁many	-640
minister	-641
ospitals	-642
ered	-643
urrent	-644
gr	-645
itic	-646
olog	-647
dition	-648
ational	-649
ause	-650
mer	-651
who	-652
-2	-653
old	-654
rol	-655
akh	-656
▁spread	-657
mon	-658
no	-659
break	-660
▁may	-661
▁found	-662
hav	-663
countr	-664
▁second	-665
ody	-666
▁effec	-667
ina	-668
formation	-669
hi	-670
acker	-671
trictions	-672
now	-673
ARS	-674
▁two	-675
ackeray	-676
▁up	-677
,00	-678
ral	-679
app	-680
▁get	-681
emic	-682
eng	-683
should	-684
▁comp	-685
eds	-686
▁cases	-687
osed	-688
owed	-689
▁last	-690
aren	-691
▁such	-692
tim	-693
ater	-694
▁day	-695
ply	-696
dr	-697
▁op	-698
▁over	-699
go	-700
its	-701
▁stud	-702
▁March	-703
▁On	-704
read	-705
ision	-706
iver	-707
▁symptoms	-708
▁SARS	-709
▁develop	-710
ible	-711
▁rel	-712
▁tes	-713
▁Mumbai	-714
cess	-715
ural	-716
ility	-717
▁any	-718
▁2020	-719
5¦	-720
▁According	-721
you	-722
▁says	-723
stit	-724
do	-725
▁death	-726
ata	-727
dec	-728
ech	-729
octors	-730
▁due	-731
amp	-732
atient	-733
than	-734
str	-735
many	-736
▁given	-737
eld	-738
▁district	-739
ative	-740
ipal	-741
arge	-742
▁:	-743
pril	-744
oxygen	-745
get	-746
hand	-747
ivir	-748
itive	-749
illion	-750
▁St	-751
▁use	-752
some	-753
care	-754
▁children	-755
portant	-756
▁am	-757
▁situation	-758
▁treatment	-759
anc	-760
nounced	-761
fl	-762
▁us	-763
▁dif	-764
▁7	-765
asing	-766
icipal	-767
year	-768
▁mon	-769
▁sur	-770
new	-771
▁wave	-772
more	-773
▁like	-774
ark	-775
ials	-776
▁bec	-777
▁trans	-778
▁cr	-779
arted	-780
▁6	-781
avel	-782
resent	-783
hy	-784
▁only	-785
test	-786
reg	-787
▁An	-788
▁Chief	-789
these	-790
▁However	-791
eting	-792
maharashtra	-793
ministration	-794
▁Covid	-795
india	-796
▁en	-797
incre	-798
▁school	-799
hospital	-800
ank	-801
▁system	-802
▁offic	-803
arr	-804
ved	-805
about	-806
emand	-807
uss	-808
▁your	-809
▁countries	-810
su	-811
▁coronavirus	-812
▁available	-813
till	-814
ust	-815
▁We	-816
amil	-817
ember	-818
while	-819
itizens	-820
cer	-821
ros	-822
ior	-823
ganiz	-824
tal	-825
lockdown	-826
▁¦3	-827
way	-828
▁infected	-829
ned	-830
ten	-831
▁his	-832
▁April	-833
▁sto	-834
▁Cent	-835
vent	-836
ble	-837
▁If	-838
▁world	-839
par	-840
eral	-841
may	-842
pur	-843
uk	-844
ord	-845
ween	-846
artment	-847
vi	-848
▁gen	-849
ince	-850
ian	-851
▁fac	-852
▁What	-853
▁during	-854
4¦	-855
▁gr	-856
ying	-857
▁j	-858
▁against	-859
oth	-860
▁8	-861
ared	-862
▁risk	-863
epartment	-864
they	-865
▁anti	-866
ime	-867
posed	-868
▁inter	-869
▁provid	-870
dhav	-871
▁10	-872
▁when	-873
ext	-874
rit	-875
oci	-876
ocial	-877
▁used	-878
▁every	-879
peri	-880
▁now	-881
ollow	-882
their	-883
ours	-884
▁mask	-885
▁while	-886
ise	-887
ety	-888
ules	-889
▁exam	-890
vaccination	-891
▁week	-892
educ	-893
iratory	-894
infection	-895
ob	-896
rore	-897
▁Pune	-898
▁care	-899
▁those	-900
elhi	-901
ized	-902
under	-903
ential	-904
ousand	-905
▁vaccinated	-906
▁pol	-907
."	-908
iate	-909
sid	-910
ird	-911
▁take	-912
vere	-913
ended	-914
ness	-915
▁home	-916
rel	-917
arant	-918
quire	-919
disease	-920
▁9	-921
▁str	-922
▁produc	-923
comm	-924
ffic	-925
▁taken	-926
resp	-927
uman	-928
ivate	-929
▁medical	-930
▁hospitals	-931
what	-932
,000	-933
ampa	-934
ering	-935
ars	-936
▁Sh	-937
▁Thackeray	-938
oses	-939
ty	-940
aces	-941
▁public	-942
▁reported	-943
oy	-944
val	-945
▁its	-946
vaccines	-947
rec	-948
sup	-949
ists	-950
ident	-951
ampaign	-952
▁through	-953
ross	-954
▁par	-955
being	-956
ivers	-957
ove	-958
gency	-959
ps	-960
like	-961
anuary	-962
ferent	-963
▁person	-964
ci	-965
eep	-966
sible	-967
urrently	-968
til	-969
days	-970
man	-971
▁outbreak	-972
ised	-973
tain	-974
▁drug	-975
uce	-976
high	-977
stitute	-978
▁made	-979
▁appro	-980
▁bet	-981
▁them	-982
ection	-983
rap	-984
▁restrictions	-985
ages	-986
ocal	-987
fr	-988
▁how	-989
oid	-990
▁rem	-991
ition	-992
ug	-993
▁China	-994
according	-995
line	-996
low	-997
district	-998
eb	-999
ph	-1000
ices	-1001
alled	-1002
munity	-1003
country	-1004
ari	-1005
▁beds	-1006
▁would	-1007
▁Al	-1008
sur	-1009
).	-1010
1¦	-1011
▁lakh	-1012
cep	-1013
▁So	-1014
▁di	-1015
which	-1016
irec	-1017
▁workers	-1018
ax	-1019
anti	-1020
inical	-1021
mitted	-1022
ampl	-1023
vir	-1024
▁patient	-1025
need	-1026
ular	-1027
▁sp	-1028
education	-1029
nown	-1030
▁even	-1031
hether	-1032
pected	-1033
serv	-1034
ful	-1035
▁including	-1036
ustr	-1037
first	-1038
ments	-1039
second	-1040
▁areas	-1041
▁covid	-1042
ators	-1043
ution	-1044
▁announced	-1045
last	-1046
includ	-1047
8¦	-1048
ah	-1049
▁Y	-1050
effec	-1051
ulation	-1052
tes	-1053
▁Com	-1054
▁short	-1055
ebru	-1056
▁Raj	-1057
ebruary	-1058
unicipal	-1059
dian	-1060
▁wash	-1061
air	-1062
comp	-1063
cuss	-1064
ific	-1065
lood	-1066
▁month	-1067
▁important	-1068
int	-1069
alk	-1070
aly	-1071
),	-1072
press	-1073
ret	-1074
pecial	-1075
▁started	-1076
ality	-1077
ology	-1078
perts	-1079
asures	-1080
itical	-1081
ield	-1082
▁information	-1083
two	-1084
ector	-1085
▁most	-1086
ganization	-1087
2¦	-1088
ont	-1089
such	-1090
ason	-1091
plic	-1092
estion	-1093
ffected	-1094
▁well	-1095
offic	-1096
spread	-1097
mediate	-1098
▁travel	-1099
enc	-1100
uid	-1101
ung	-1102
andemic	-1103
▁come	-1104
▁years	-1105
▁Hospital	-1106
world	-1107
ix	-1108
lear	-1109
▁say	-1110
▁same	-1111
develop	-1112
ination	-1113
▁increased	-1114
found	-1115
▁what	-1116
when	-1117
▁hel	-1118
ink	-1119
ser	-1120
▁testing	-1121
▁tests	-1122
▁closed	-1123
▁did	-1124
▁ser	-1125
▁After	-1126
▁states	-1127
▁level	-1128
▁serv	-1129
▁doctors	-1130
▁ro	-1131
ined	-1132
veill	-1133
veillance	-1134
due	-1135
spec	-1136
ick	-1137
▁large	-1138
tern	-1139
cases	-1140
sars	-1141
struc	-1142
▁decision	-1143
march	-1144
rs	-1145
ale	-1146
olle	-1147
ults	-1148
orpor	-1149
▁then	-1150
esivir	-1151
plement	-1152
▁supply	-1153
7¦	-1154
occ	-1155
stud	-1156
▁few	-1157
▁our	-1158
school	-1159
▁hands	-1160
▁increasing	-1161
says	-1162
based	-1163
pol	-1164
body	-1165
li	-1166
ins	-1167
▁ca	-1168
ived	-1169
▁For	-1170
▁body	-1171
▁city	-1172
▁rate	-1173
▁positive	-1174
▁effective	-1175
abor	-1176
BC	-1177
▁increase	-1178
duce	-1179
20¦	-1180
most	-1181
outh	-1182
amples	-1183
▁meeting	-1184
bal	-1185
▁million	-1186
only	-1187
trans	-1188
few	-1189
his	-1190
▁demand	-1191
▁%	-1192
come	-1193
symptoms	-1194
fact	-1195
earch	-1196
▁between	-1197
odies	-1198
▁case	-1199
▁where	-1200
children	-1201
▁control	-1202
▁administration	-1203
▁Ud	-1204
ploy	-1205
chief	-1206
ouse	-1207
▁app	-1208
▁far	-1209
mumbai	-1210
▁Uddhav	-1211
kar	-1212
coronavirus	-1213
tiv	-1214
▁lead	-1215
death	-1216
yn	-1217
▁fl	-1218
▁low	-1219
given	-1220
▁deaths	-1221
ges	-1222
iot	-1223
amily	-1224
ped	-1225
▁Center	-1226
▁contact	-1227
▁students	-1228
how	-1229
during	-1230
▁ph	-1231
▁ass	-1232
▁Modi	-1233
▁into	-1234
▁2020,	-1235
▁present	-1236
aff	-1237
▁¦5	-1238
▁crore	-1239
fir	-1240
ange	-1241
medical	-1242
ha	-1243
rem	-1244
ect	-1245
ric	-1246
▁data	-1247
▁died	-1248
▁contin	-1249
6¦	-1250
bec	-1251
ues	-1252
und	-1253
▁¦4	-1254
where	-1255
however	-1256
▁comple	-1257
elf	-1258
ood	-1259
onse	-1260
opulation	-1261
flu	-1262
▁age	-1263
▁rec	-1264
urther	-1265
▁Delhi	-1266
iod	-1267
infected	-1268
treatment	-1269
agpur	-1270
▁very	-1271
orporation	-1272
thing	-1273
▁could	-1274
▁direc	-1275
▁central	-1276
▁respiratory	-1277
arket	-1278
▁does	-1279
resident	-1280
onom	-1281
br	-1282
dra	-1283
even	-1284
omen	-1285
▁plan	-1286
mall	-1287
view	-1288
▁At	-1289
▁three	-1290
▁around	-1291
imil	-1292
na	-1293
apr	-1294
urs	-1295
▁es	-1296
home	-1297
▁before	-1298
▁period	-1299
ese	-1300
aim	-1301
oup	-1302
▁dr	-1303
▁set	-1304
atives	-1305
imilar	-1306
▁¦2020¦	-1307
april	-1308
ions	-1309
▁BBC	-1310
states	-1311
▁citizens	-1312
acin	-1313
ains	-1314
iving	-1315
ditions	-1316
bo	-1317
▁Ad	-1318
essential	-1319
uth	-1320
▁19	-1321
inese	-1322
asseng	-1323
situation	-1324
att	-1325
risk	-1326
sto	-1327
▁15	-1328
▁dose	-1329
econom	-1330
led	-1331
itor	-1332
quired	-1333
ked	-1334
▁em	-1335
▁dist	-1336
lying	-1337
public	-1338
alf	-1339
▁UK	-1340
▁emer	-1341
▁doses	-1342
anufact	-1343
▁thousand	-1344
▁man	-1345
going	-1346
iversity	-1347
isis	-1348
rowd	-1349
trib	-1350
wash	-1351
wide	-1352
every	-1353
center	-1354
▁severe	-1355
▁campaign	-1356
wave	-1357
search	-1358
▁help	-1359
▁issu	-1360
▁Prime	-1361
▁prevent	-1362
▁social	-1363
3¦	-1364
ca	-1365
ual	-1366
arath	-1367
▁saf	-1368
entil	-1369
▁These	-1370
▁coron	-1371
▁follow	-1372
▁report	-1373
▁without	-1374
produc	-1375
system	-1376
ma	-1377
ees	-1378
▁ob	-1379
ives	-1380
▁clos	-1381
formed	-1382
arantine	-1383
eg	-1384
▁Or	-1385
▁hours	-1386
▁recomm	-1387
▁private	-1388
▁different	-1389
arious	-1390
gn	-1391
ope	-1392
countries	-1393
▁cap	-1394
▁ind	-1395
anj	-1396
peaking	-1397
atis	-1398
idly	-1399
The	-1400
arg	-1401
times	-1402
atic	-1403
tics	-1404
▁tested	-1405
▁January	-1406
▁allowed	-1407
available	-1408
person	-1409
▁el	-1410
▁May	-1411
▁ventil	-1412
abl	-1413
set	-1414
adesh	-1415
against	-1416
uthor	-1417
▁United	-1418
▁working	-1419
▁possible	-1420
▁research	-1421
your	-1422
acted	-1423
fer	-1424
ops	-1425
▁Rs	-1426
drug	-1427
bodies	-1428
▁rules	-1429
▁percent	-1430
udi	-1431
ected	-1432
▁12	-1433
▁prot	-1434
war	-1435
HO	-1436
fac	-1437
uro	-1438
vol	-1439
echn	-1440
ecess	-1441
▁hear	-1442
idemic	-1443
enz	-1444
firmed	-1445
hel	-1446
▁grow	-1447
po	-1448
mal	-1449
ajor	-1450
oung	-1451
lobal	-1452
medic	-1453
identi	-1454
els	-1455
▁ear	-1456
▁make	-1457
▁Vaccin	-1458
▁50	-1459
ends	-1460
uhan	-1461
▁washing	-1462
ns	-1463
lin	-1464
mask	-1465
week	-1466
those	-1467
▁open	-1468
▁Institute	-1469
through	-1470
▁schools	-1471
well	-1472
appro	-1473
ite	-1474
▁bre	-1475
▁rap	-1476
▁sub	-1477
take	-1478
arents	-1479
inistry	-1480
▁Municipal	-1481
00¦	-1482
ali	-1483
exam	-1484
omes	-1485
ished	-1486
▁long	-1487
information	-1488
less	-1489
provid	-1490
mune	-1491
▁Dis	-1492
taken	-1493
▁Some	-1494
▁They	-1495
▁local	-1496
ured	-1497
ability	-1498
ilities	-1499
▁24	-1500
▁vi	-1501
▁study	-1502
▁Government	-1503
▁11	-1504
▁te	-1505
▁fin	-1506
▁main	-1507
▁States	-1508
▁center	-1509
assengers	-1510
▁February	-1511
ept	-1512
avati	-1513
▁int	-1514
▁back	-1515
▁consid	-1516
ces	-1517
▁¦9	-1518
aily	-1519
ided	-1520
made	-1521
pune	-1522
ecret	-1523
▁ext	-1524
▁Many	-1525
▁reach	-1526
agn	-1527
ather	-1528
hospitals	-1529
cle	-1530
▁14	-1531
abad	-1532
ount	-1533
▁Med	-1534
▁area	-1535
illage	-1536
arendra	-1537
▁discuss	-1538
▁whether	-1539
▁shortage	-1540
inter	-1541
ane	-1542
dro	-1543
▁Am	-1544
agar	-1545
action	-1546
▁called	-1547
▁company	-1548
acity	-1549
aining	-1550
ceived	-1551
vaccinated	-1552
hol	-1553
▁fr	-1554
▁des	-1555
▁down	-1556
▁start	-1557
▁addition	-1558
▁developed	-1559
land	-1560
▁."	-1561
▁sc	-1562
term	-1563
▁air	-1564
anies	-1565
ising	-1566
vidence	-1567
▁fe	-1568
▁lim	-1569
▁less	-1570
▁Speaking	-1571
▁affected	-1572
ats	-1573
ched	-1574
ties	-1575
ibility	-1576
present	-1577
ards	-1578
▁pandemic	-1579
nal	-1580
▁ep	-1581
aled	-1582
▁adv	-1583
ually	-1584
uidel	-1585
▁spec	-1586
▁Union	-1587
▁human	-1588
▁using	-1589
▁education	-1590
gy	-1591
wad	-1592
restrictions	-1593
▁ty	-1594
▁held	-1595
▁lear	-1596
▁masks	-1597
▁rural	-1598
acy	-1599
divid	-1600
iness	-1601
ensive	-1602
reported	-1603
ravati	-1604
▁blood	-1605
ters	-1606
though	-1607
sw	-1608
▁30	-1609
direc	-1610
olation	-1611
▁because	-1612
thackeray	-1613
eases	-1614
▁hy	-1615
ports	-1616
▁rele	-1617
▁seen	-1618
▁across	-1619
bet	-1620
neum	-1621
outs	-1622
,000¦	-1623
iting	-1624
umans	-1625
ducted	-1626
level	-1627
▁still	-1628
▁measures	-1629
▁department	-1630
gram	-1631
duced	-1632
▁don	-1633
harat	-1634
arathi	-1635
iotech	-1636
▁since	-1637
▁total	-1638
ference	-1639
▁months	-1640
lim	-1641
ject	-1642
them	-1643
▁¦1¦	-1644
ck	-1645
tur	-1646
ital	-1647
▁ill	-1648
▁occ	-1649
▁much	-1650
▁transmission	-1651
urope	-1652
anwhile	-1653
ecessary	-1654
▁Ex	-1655
▁¦6	-1656
ings	-1657
▁both	-1658
▁done	-1659
▁Therefore	-1660
▁;	-1661
ovacin	-1662
▁Bh	-1663
▁lo	-1664
-19.	-1665
tice	-1666
▁del	-1667
ature	-1668
ersons	-1669
outbreak	-1670
▁process	-1671
beds	-1672
uses	-1673
▁four	-1674
▁heart	-1675
▁Rajesh	-1676
▁clinical	-1677
ife	-1678
tar	-1679
awar	-1680
ford	-1681
▁18	-1682
▁att	-1683
▁among	-1684
▁today	-1685
▁experi	-1686
▁include	-1687
china	-1688
tig	-1689
▁Tr	-1690
actic	-1691
▁stop	-1692
▁chang	-1693
▁provide	-1694
▁currently	-1695
CE	-1696
ants	-1697
▁Ser	-1698
▁ent	-1699
▁coll	-1700
▁Kovid	-1701
▁places	-1702
▁proble	-1703
tricts	-1704
workers	-1705
pecially	-1706
uidelines	-1707
ff	-1708
▁going	-1709
▁medic	-1710
▁sever	-1711
central	-1712
▁production	-1713
leg	-1714
eck	-1715
vey	-1716
▁bo	-1717
then	-1718
anitiz	-1719
including	-1720
▁Ministry	-1721
control	-1722
▁soap	-1723
washing	-1724
▁Nagpur	-1725
▁taking	-1726
▁emergency	-1727
icy	-1728
mers	-1729
onia	-1730
ymptom	-1731
istered	-1732
mediately	-1733
▁WHO	-1734
▁him	-1735
short	-1736
▁cons	-1737
▁avoid	-1738
▁third	-1739
outside	-1740
▁diffic	-1741
▁implement	-1742
would	-1743
doctors	-1744
testing	-1745
national	-1746
▁Rem	-1747
▁acc	-1748
▁sus	-1749
using	-1750
▁next	-1751
▁till	-1752
ending	-1753
patient	-1754
▁higher	-1755
effective	-1756
▁surveillance	-1757
lakh	-1758
appen	-1759
ana	-1760
▁1.	-1761
▁Res	-1762
▁det	-1763
▁inc	-1764
ready	-1765
reated	-1766
▁samples	-1767
▁question	-1768
▁¦7	-1769
city	-1770
ourt	-1771
month	-1772
arding	-1773
ortality	-1774
my	-1775
cov	-1776
▁Me	-1777
▁wor	-1778
▁When	-1779
▁know	-1780
▁known	-1781
raj	-1782
fied	-1783
izer	-1784
▁HCoV	-1785
encing	-1786
▁World	-1787
▁asked	-1788
▁issued	-1789
▁imposed	-1790
fort	-1791
▁IC	-1792
viral	-1793
▁population	-1794
dif	-1795
ism	-1796
tly	-1797
enef	-1798
part	-1799
acter	-1800
aving	-1801
cohol	-1802
announced	-1803
important	-1804
urb	-1805
lack	-1806
▁How	-1807
▁end	-1808
▁Tope	-1809
▁cell	-1810
▁five	-1811
▁sent	-1812
▁place	-1813
▁doctor	-1814
▁according	-1815
▁conditions	-1816
den	-1817
inc	-1818
emer	-1819
areas	-1820
ev	-1821
io	-1822
▁“	-1823
uty	-1824
▁All	-1825
▁fire	-1826
▁sign	-1827
vention	-1828
▁response	-1829
-2¦	-1830
▁po	-1831
lead	-1832
▁tem	-1833
▁another	-1834
▁experts	-1835
▁complete	-1836
hys	-1837
ournal	-1838
vestig	-1839
neumonia	-1840
municipal	-1841
SC	-1842
far	-1843
▁New	-1844
closed	-1845
▁State	-1846
▁become	-1847
did	-1848
ien	-1849
cove	-1850
tors	-1851
establ	-1852
travel	-1853
▁su	-1854
oder	-1855
▁min	-1856
fizer	-1857
▁part	-1858
▁stay	-1859
▁cause	-1860
▁fight	-1861
▁house	-1862
atistics	-1863
ecretary	-1864
▁serious	-1865
▁Commission	-1866
apur	-1867
tests	-1868
modi	-1869
known	-1870
▁keep	-1871
▁told	-1872
started	-1873
▁crisis	-1874
research	-1875
sc	-1876
akes	-1877
arsh	-1878
tter	-1879
enior	-1880
ically	-1881
usiness	-1882
roll	-1883
▁fever	-1884
▁likely	-1885
▁further	-1886
increased	-1887
▁approved	-1888
case	-1889
covered	-1890
administration	-1891
say	-1892
▁bu	-1893
enza	-1894
human	-1895
ights	-1896
utions	-1897
fluenza	-1898
▁Indian	-1899
▁services	-1900
ara	-1901
▁).	-1902
demand	-1903
lining	-1904
▁Fr	-1905
▁good	-1906
▁early	-1907
▁injec	-1908
▁trials	-1909
▁current	-1910
ued	-1911
atur	-1912
etic	-1913
imal	-1914
rolo	-1915
idence	-1916
positive	-1917
emb	-1918
▁br	-1919
face	-1920
ture	-1921
▁200	-1922
large	-1923
▁Serum	-1924
▁small	-1925
▁staff	-1926
▁family	-1927
col	-1928
drom	-1929
same	-1930
years	-1931
lor	-1932
uka	-1933
▁add	-1934
▁yet	-1935
tious	-1936
▁least	-1937
▁rapidly	-1938
▁manufact	-1939
▁Organization	-1940
position	-1941
ush	-1942
stand	-1943
▁lung	-1944
▁show	-1945
▁water	-1946
▁concer	-1947
▁continue	-1948
▁coronary	-1949
▁infections	-1950
nes	-1951
▁¦8	-1952
igin	-1953
ulti	-1954
CR	-1955
ey	-1956
ry	-1957
▁mut	-1958
▁again	-1959
▁crowd	-1960
▁phase	-1961
▁police	-1962
citizens	-1963
▁Chinese	-1964
▁Corporation	-1965
data	-1966
ala	-1967
ems	-1968
▁US	-1969
▁my	-1970
dist	-1971
open	-1972
osis	-1973
thod	-1974
ained	-1975
illed	-1976
▁post	-1977
contin	-1978
estions	-1979
students	-1980
▁admitted	-1981
increasing	-1982
les	-1983
coron	-1984
supply	-1985
contact	-1986
decision	-1987
ily	-1988
▁cle	-1989
▁sug	-1990
▁econom	-1991
▁centers	-1992
▁University	-1993
ger	-1994
iday	-1995
uals	-1996
xford	-1997
yndrom	-1998
does	-1999
vers	-2000
hands	-2001
▁face	-2002
earing	-2003
▁touch	-2004
▁market	-2005
▁difficult	-2006
cap	-2007
des	-2008
nav	-2009
before	-2010
million	-2011
▁Z	-2012
▁cy	-2013
pite	-2014
▁run	-2015
ances	-2016
between	-2017
▁proper	-2018
▁reduce	-2019
increase	-2020
▁support	-2021
▁various	-2022
▁closures	-2023
▁condition	-2024
19¦	-2025
ead	-2026
requ	-2027
meeting	-2028
plan	-2029
rate	-2030
▁hot	-2031
▁group	-2032
▁labor	-2033
endra	-2034
plied	-2035
ancial	-2036
dividuals	-2037
▁ve	-2038
around	-2039
▁media	-2040
▁identi	-2041
don	-2042
three	-2043
ica	-2044
spe	-2045
ient	-2046
▁And	-2047
▁arr	-2048
▁vis	-2049
▁form	-2050
▁Offic	-2051
▁weeks	-2052
▁People	-2053
▁result	-2054
▁similar	-2055
▁distance	-2056
department	-2057
▁essential	-2058
ft	-2059
fin	-2060
kin	-2061
oon	-2062
▁Is	-2063
▁beg	-2064
▁non	-2065
▁¦2¦	-2066
▁each	-2067
consid	-2068
▁major	-2069
ishield	-2070
▁epidemic	-2071
icro	-2072
rest	-2073
cient	-2074
dings	-2075
yndrome	-2076
ublished	-2077
ERS	-2078
adv	-2079
▁16	-2080
force	-2081
gress	-2082
▁read	-2083
▁¦10¦	-2084
social	-2085
▁initi	-2086
▁common	-2087
possible	-2088
▁Pradesh	-2089
▁getting	-2090
saf	-2091
deaths	-2092
uddhav	-2093
NA	-2094
▁/	-2095
ets	-2096
▁),	-2097
▁Cov	-2098
▁six	-2099
vious	-2100
▁lack	-2101
umbers	-2102
▁based	-2103
▁claim	-2104
actices	-2105
ificant	-2106
▁within	-2107
bc	-2108
ingle	-2109
comple	-2110
follow	-2111
▁imp	-2112
▁vir	-2113
▁women	-2114
▁coming	-2115
▁minister	-2116
eca	-2117
into	-2118
tory	-2119
could	-2120
ustry	-2121
ollege	-2122
clinical	-2123
structions	-2124
▁co	-2125
oper	-2126
▁Dec	-2127
crore	-2128
▁June	-2129
▁class	-2130
▁caused	-2131
▁immune	-2132
▁community	-2133
respiratory	-2134
JP	-2135
dev	-2136
ela	-2137
died	-2138
quip	-2139
sequ	-2140
delhi	-2141
eneca	-2142
tical	-2143
urfew	-2144
▁Wuhan	-2145
▁critic	-2146
▁partic	-2147
thousand	-2148
▁Medical	-2149
▁Narendra	-2150
ymptomatic	-2151
order	-2152
9¦	-2153
long	-2154
▁neg	-2155
▁head	-2156
report	-2157
▁cough	-2158
▁order	-2159
▁decided	-2160
▁parents	-2161
ogen	-2162
asons	-2163
ately	-2164
mitte	-2165
uccess	-2166
clos	-2167
tein	-2168
▁big	-2169
▁own	-2170
severe	-2171
▁chall	-2172
▁retur	-2173
▁highest	-2174
▁several	-2175
▁village	-2176
▁capacity	-2177
▁required	-2178
dose	-2179
know	-2180
wal	-2181
ians	-2182
uted	-2183
adnav	-2184
eputy	-2185
overy	-2186
▁Also	-2187
▁pain	-2188
▁close	-2189
▁press	-2190
adnavis	-2191
schools	-2192
▁respons	-2193
harm	-2194
since	-2195
period	-2196
private	-2197
related	-2198
0.	-2199
back	-2200
remed	-2201
▁2019	-2202
ventil	-2203
▁young	-2204
▁employ	-2205
▁effects	-2206
▁related	-2207
▁expected	-2208
▁companies	-2209
▁antibodies	-2210
ri	-2211
sub	-2212
utes	-2213
ociety	-2214
pressed	-2215
bbc	-2216
iqu	-2217
aged	-2218
▁BJP	-2219
▁Remed	-2220
▁chest	-2221
▁daily	-2222
▁others	-2223
different	-2224
▁Although	-2225
▁received	-2226
▁conducted	-2227
▁underlying	-2228
21	-2229
ors	-2230
ling	-2231
az	-2232
gien	-2233
help	-2234
itis	-2235
▁100	-2236
prime	-2237
tocol	-2238
▁Cont	-2239
▁able	-2240
▁cold	-2241
athing	-2242
igures	-2243
▁stand	-2244
▁cannot	-2245
▁safety	-2246
addition	-2247
campaign	-2248
ological	-2249
currently	-2250
echnology	-2251
▁diseases	-2252
▁evidence	-2253
plications	-2254
▁confirmed	-2255
doses	-2256
without	-2257
aur	-2258
ides	-2259
▁Pol	-2260
▁ord	-2261
▁twe	-2262
place	-2263
▁here	-2264
▁estim	-2265
▁gener	-2266
january	-2267
▁distrib	-2268
▁results	-2269
▁transport	-2270
▁development	-2271
ram	-2272
tle	-2273
aper	-2274
icti	-2275
umar	-2276
aster	-2277
ariant	-2278
gether	-2279
ictims	-2280
mittee	-2281
ections	-2282
andatory	-2283
ani	-2284
▁RT	-2285
-19,	-2286
coll	-2287
ense	-2288
▁ICU	-2289
▁MERS	-2290
▁half	-2291
ective	-2292
▁activ	-2293
▁cance	-2294
▁lives	-2295
▁night	-2296
▁remed	-2297
prevent	-2298
▁global	-2299
▁Marathi	-2300
▁growing	-2301
▁viruses	-2302
uj	-2303
prot	-2304
local	-2305
rules	-2306
▁No	-2307
▁sw	-2308
lier	-2309
imary	-2310
▁Even	-2311
posure	-2312
▁Pawar	-2313
▁South	-2314
▁studi	-2315
agement	-2316
▁humans	-2317
▁reason	-2318
ociation	-2319
cientists	-2320
plication	-2321
▁Amravati	-2322
▁provided	-2323
▁relatives	-2324
▁quarantine	-2325
aik	-2326
ule	-2327
recomm	-2328
▁dep	-2329
▁her	-2330
early	-2331
▁give	-2332
tested	-2333
▁clear	-2334
ainment	-2335
working	-2336
▁Bharat	-2337
▁Europe	-2338
▁action	-2339
▁ventilators	-2340
hea	-2341
hours	-2342
amilies	-2343
otential	-2344
▁1,	-2345
ship	-2346
▁Gen	-2347
▁flu	-2348
▁ful	-2349
▁ter	-2350
▁why	-2351
acing	-2352
today	-2353
police	-2354
▁clean	-2355
▁cities	-2356
▁districts	-2357
rup	-2358
iat	-2359
pes	-2360
put	-2361
sol	-2362
free	-2363
make	-2364
ward	-2365
▁Pro	-2366
▁You	-2367
▁fun	-2368
andid	-2369
forts	-2370
ified	-2371
reach	-2372
unday	-2373
▁look	-2374
alking	-2375
entire	-2376
▁Italy	-2377
▁active	-2378
▁online	-2379
▁Biotech	-2380
▁persons	-2381
uthorities	-2382
▁Meanwhile	-2383
ently	-2384
speaking	-2385
In	-2386
ee	-2387
amm	-2388
mor	-2389
why	-2390
▁To	-2391
cept	-2392
▁see	-2393
▁sol	-2394
▁way	-2395
anger	-2396
▁came	-2397
▁contr	-2398
▁needs	-2399
▁shops	-2400
▁though	-2401
▁spreading	-2402
bh	-2403
alg	-2404
hic	-2405
sis	-2406
umbh	-2407
aries	-2408
allowed	-2409
quipment	-2410
institute	-2411
,"	-2412
la	-2413
▁25	-2414
both	-2415
▁she	-2416
▁¦5¦	-2417
▁While	-2418
▁acute	-2419
▁think	-2420
▁treat	-2421
percent	-2422
▁monitor	-2423
▁facilities	-2424
▁registered	-2425
four	-2426
chang	-2427
called	-2428
united	-2429
company	-2430
emergency	-2431
DC	-2432
oh	-2433
PCR	-2434
ize	-2435
enge	-2436
eted	-2437
ises	-2438
▁loc	-2439
▁carr	-2440
ensure	-2441
nounce	-2442
▁stock	-2443
ociated	-2444
ollowed	-2445
▁outside	-2446
▁National	-2447
▁everyone	-2448
▁especially	-2449
affected	-2450
We	-2451
lock	-2452
▁Ass	-2453
▁tal	-2454
▁prom	-2455
▁requ	-2456
▁took	-2457
ricult	-2458
▁times	-2459
▁strict	-2460
▁problems	-2461
▁municipal	-2462
▁immediately	-2463
irc	-2464
ium	-2465
atter	-2466
awala	-2467
ouble	-2468
tiven	-2469
because	-2470
although	-2471
tiveness	-2472
ner	-2473
grow	-2474
▁Why	-2475
▁cod	-2476
▁men	-2477
sever	-2478
third	-2479
▁away	-2480
▁oper	-2481
▁pass	-2482
▁room	-2483
▁sequ	-2484
whether	-2485
▁happen	-2486
measures	-2487
inning	-2488
ie	-2489
pt	-2490
onu	-2491
▁17	-2492
▁war	-2493
asion	-2494
giene	-2495
pared	-2496
quine	-2497
uture	-2498
▁appe	-2499
▁stor	-2500
arrhea	-2501
ources	-2502
▁decre	-2503
tention	-2504
▁needed	-2505
▁program	-2506
▁service	-2507
▁December	-2508
▁officials	-2509
▁considered	-2510
▁¦3¦	-2511
she	-2512
urg	-2513
▁Do	-2514
▁Ut	-2515
▁cost	-2516
▁decl	-2517
▁prior	-2518
▁strain	-2519
february	-2520
▁sanitiz	-2521
▁following	-2522
hib	-2523
min	-2524
ots	-2525
amin	-2526
ateg	-2527
atil	-2528
head	-2529
loro	-2530
main	-2531
inary	-2532
places	-2533
valence	-2534
perature	-2535
loroquine	-2536
▁Ar	-2537
pass	-2538
▁car	-2539
▁path	-2540
▁safe	-2541
▁diagn	-2542
▁viral	-2543
▁sector	-2544
▁released	-2545
▁necessary	-2546
organization	-2547
road	-2548
blood	-2549
verse	-2550
ministry	-2551
pandemic	-2552
developed	-2553
therefore	-2554
▁”	-2555
▁31	-2556
abet	-2557
area	-2558
hind	-2559
oups	-2560
▁CoV	-2561
among	-2562
ashik	-2563
enstr	-2564
ofess	-2565
still	-2566
study	-2567
union	-2568
urses	-2569
▁find	-2570
▁affec	-2571
▁benef	-2572
discuss	-2573
experts	-2574
▁During	-2575
▁Pfizer	-2576
▁illness	-2577
▁negative	-2578
production	-2579
fe	-2580
bul	-2581
▁Par	-2582
▁pur	-2583
phase	-2584
▁call	-2585
▁School	-2586
▁review	-2587
▁influenza	-2588
keep	-2589
anjay	-2590
avoid	-2591
ening	-2592
imals	-2593
jects	-2594
start	-2595
abetes	-2596
igious	-2597
shortage	-2598
ailability	-2599
jay	-2600
rele	-2601
▁Now	-2602
▁pres	-2603
▁enough	-2604
▁establ	-2605
▁letter	-2606
▁special	-2607
▁pneumonia	-2608
▁recommended	-2609
sue	-2610
cell	-2611
self	-2612
CG	-2613
sus	-2614
ecur	-2615
▁She	-2616
masks	-2617
night	-2618
rural	-2619
▁2021	-2620
argest	-2621
taking	-2622
ularly	-2623
▁having	-2624
▁recent	-2625
eptember	-2626
arantined	-2627
▁mortality	-2628
pm	-2629
seen	-2630
organ	-2631
ya	-2632
▁z	-2633
▁40	-2634
▁60	-2635
▁pm	-2636
▁ra	-2637
half	-2638
▁Kar	-2639
▁¦4¦	-2640
▁Sing	-2641
▁host	-2642
▁want	-2643
▁writ	-2644
likely	-2645
▁issue	-2646
▁leaders	-2647
▁informed	-2648
quarantine	-2649
▁declining	-2650
▁guidelines	-2651
ier	-2652
ilit	-2653
sent	-2654
ittle	-2655
usion	-2656
water	-2657
etwork	-2658
rology	-2659
ecurity	-2660
surveillance	-2661
hem	-2662
drop	-2663
held	-2664
▁sep	-2665
▁free	-2666
▁mild	-2667
▁task	-2668
▁Uttar	-2669
▁means	-2670
▁change	-2671
▁origin	-2672
▁sugges	-2673
▁investig	-2674
▁learning	-2675
▁regarding	-2676
▁Remedesivir	-2677
ez	-2678
her	-2679
pan	-2680
ormal	-2681
total	-2682
centers	-2683
raz	-2684
▁13	-2685
▁ev	-2686
abin	-2687
amed	-2688
atch	-2689
avir	-2690
iers	-2691
ners	-2692
▁ACE	-2693
▁One	-2694
across	-2695
▁check	-2696
▁force	-2697
▁until	-2698
▁levels	-2699
commission	-2700
▁questions	-2701
2,	-2702
del	-2703
room	-2704
ternational	-2705
bor	-2706
▁21	-2707
ower	-2708
▁off	-2709
▁sit	-2710
gener	-2711
▁food	-2712
▁tank	-2713
▁cells	-2714
▁drugs	-2715
▁later	-2716
another	-2717
▁method	-2718
▁taluka	-2719
▁covacin	-2720
▁general	-2721
transmission	-2722
.5	-2723
idd	-2724
ump	-2725
asai	-2726
stop	-2727
heart	-2728
issue	-2729
▁¦15¦	-2730
coming	-2731
market	-2732
tained	-2733
verage	-2734
det	-2735
him	-2736
▁23	-2737
gest	-2738
king	-2739
pain	-2740
▁ban	-2741
▁type	-2742
▁child	-2743
▁front	-2744
▁invol	-2745
▁effect	-2746
▁regard	-2747
▁senior	-2748
▁implemented	-2749
-1	-2750
bs	-2751
ke	-2752
done	-2753
asked	-2754
family	-2755
confirmed	-2756
eu	-2757
dom	-2758
vis	-2759
▁Di	-2760
ably	-2761
cons	-2762
fire	-2763
much	-2764
▁pay	-2765
house	-2766
active	-2767
experi	-2768
iatric	-2769
months	-2770
served	-2771
▁great	-2772
▁regul	-2773
▁teach	-2774
areness	-2775
▁Oxford	-2776
▁business	-2777
▁national	-2778
▁September	-2779
▁experience	-2780
▁passengers	-2781
yes	-2782
board	-2783
ories	-2784
question	-2785
population	-2786
eps	-2787
erc	-2788
▁28	-2789
▁45	-2790
▁aw	-2791
▁Brit	-2792
▁¦20¦	-2793
▁above	-2794
▁began	-2795
▁colle	-2796
entific	-2797
▁appear	-2798
▁record	-2799
▁survey	-2800
approved	-2801
▁Central	-2802
implement	-2803
▁District	-2804
▁critical	-2805
▁Vaccination	-2806
▁examination	-2807
oke	-2808
neez	-2809
oint	-2810
oved	-2811
post	-2812
engal	-2813
ancing	-2814
doctor	-2815
proble	-2816
rajesh	-2817
general	-2818
ization	-2819
process	-2820
samples	-2821
sibility	-2822
'.	-2823
bid	-2824
jit	-2825
greg	-2826
stay	-2827
▁Ram	-2828
▁cer	-2829
activ	-2830
ample	-2831
kovid	-2832
plain	-2833
▁fear	-2834
▁might	-2835
provide	-2836
services	-2837
▁already	-2838
▁demanded	-2839
▁healthcare	-2840
ote	-2841
ron	-2842
five	-2843
include	-2844
ton	-2845
wor	-2846
atus	-2847
soap	-2848
▁201	-2849
▁Can	-2850
▁Pre	-2851
▁dev	-2852
▁mor	-2853
fever	-2854
▁	-2855
¦	-2856
e	-2857
t	-2858
a	-2859
i	-2860
o	-2861
n	-2862
s	-2863
r	-2864
h	-2865
d	-2866
c	-2867
l	-2868
u	-2869
m	-2870
p	-2871
f	-2872
g	-2873
v	-2874
y	-2875
w	-2876
b	-2877
.	-2878
𐋇	-2879
,	-2880
k	-2881
C	-2882
T	-2883
0	-2884
-	-2885
1	-2886
I	-2887
A	-2888
2	-2889
S	-2890
M	-2891
x	-2892
'	-2893
D	-2894
P	-2895
9	-2896
H	-2897
j	-2898
"	-2899
R	-2900
B	-2901
O	-2902
z	-2903
5	-2904
V	-2905
𐊣	-2906
𐊼	-2907
W	-2908
4	-2909
q	-2910
3	-2911
)	-2912
(	-2913
N	-2914
E	-2915
?	-2916
U	-2917
8	-2918
6	-2919
7	-2920
K	-2921
F	-2922
G	-2923
:	-2924
J	-2925
L	-2926
%	-2927
;	-2928
/	-2929
Y	-2930
Z	-2931
!	-2932
’	-2933
”	-2934
“	-2935
–	-2936
Q	-2937
X	-2938
[	-2939
]	-2940
&	-2941
$	-2942
#	-2943
—	-2944
‘	-2945
•	-2946
≥	-2947
+	-2948
°	-2949
*	-2950
ा	-2951
_	-2952
×	-2953
武	-2954
肺	-2955
~	-2956
á	-2957
í	-2958
α	-2959
β	-2960
स	-2961
े	-2962
्	-2963
=	-2964
ò	-2965
č	-2966
ş	-2967
γ	-2968
ं	-2969
क	-2970
ब	-2971
र	-2972
汉	-2973
漢	-2974
炎	-2975
Ü	-2976
£	-2977
é	-2978
ó	-2979
ई	-2980
ओ	-2981
च	-2982
त	-2983
द	-2984
प	-2985
ल	-2986
ळ	-2987
व	-2988
श	-2989
ो	-2990
′	-2991
火	-2992
眼	-2993
Å	-2994
ü	-2995
å	-2996
