<pad>	0
</s>	0
<unk>	0
¦	-1.26133
▁¦	-1.632
▁	-3.14876
𐋇	-3.5679
s	-3.61959
▁,	-3.70365
ų	-3.97785
▁.	-4.15766
i	-4.31558
o	-4.42894
ir	-4.64329
ą	-4.66477
e	-5.2297
as	-5.25263
kad	-5.31726
į	-5.34704
os	-5.56
tai	-5.68523
p	-5.71268
dėl	-5.73723
us	-5.768
u	-5.80639
𐊼	-5.8846
𐊣	-5.8846
europo	-5.88662
je	-5.93633
ne	-6.00983
a	-6.01594
es	-6.13384
su	-6.14597
kai	-6.18232
yra	-6.19721
to	-6.23644
me	-6.24067
ę	-6.28605
▁-	-6.31156
iš	-6.37785
ai	-6.46655
čiau	-6.52151
kuri	-6.53928
m	-6.61873
vis	-6.67539
▁(	-6.6918
būt	-6.72062
y	-6.74181
pat	-6.74321
turi	-6.76895
▁)	-6.85099
ti	-6.85313
ši	-6.86601
ams	-6.88866
ta	-6.89654
tik	-6.94
parlament	-6.97645
labai	-7.0069
būti	-7.02255
jų	-7.0228
už	-7.04315
▁"	-7.08329
savo	-7.08621
buvo	-7.08724
ji	-7.10899
pirmininke	-7.11917
ar	-7.12788
mūs	-7.15585
api	-7.1661
oje	-7.1734
mes	-7.19061
is	-7.19653
ui	-7.24154
omis	-7.24553
norė	-7.24826
ems	-7.29168
pranešim	-7.29825
komisijo	-7.29996
nes	-7.30092
per	-7.30569
bet	-7.32103
bus	-7.34057
be	-7.3493
dar	-7.3798
au	-7.38501
gali	-7.4178
turėt	-7.43547
ės	-7.44501
reikia	-7.49504
šiuo	-7.51884
t	-7.53186
aus	-7.5399
šali	-7.54865
komisija	-7.55135
nari	-7.55712
valstybės	-7.56642
nuo	-7.57373
jau	-7.59457
sąjungo	-7.5977
kurios	-7.6244
jos	-7.63446
darbo	-7.64892
kurie	-7.65246
svarbu	-7.65323
jo	-7.67192
mano	-7.68183
aš	-7.68374
d	-7.69611
▁:	-7.70953
te	-7.70961
metu	-7.72355
mana	-7.75021
uose	-7.7554
mum	-7.76485
nt	-7.78244
kur	-7.78334
pone	-7.79888
ių	-7.80341
prieš	-7.81678
šį	-7.82327
pač	-7.82612
ais	-7.83558
pa	-7.83984
j	-7.83994
klausim	-7.8517
daug	-7.85662
k	-7.85838
valstybi	-7.86479
pasiūlym	-7.87328
teisės	-7.87358
šios	-7.87475
užtikrint	-7.87867
z	-7.87951
jūs	-7.92501
šio	-7.93588
prie	-7.93837
narės	-7.93946
dabar	-7.94748
▁?	-7.95218
daugiau	-7.9613
sprendim	-7.98131
viena	-7.99403
ant	-7.99961
susitarim	-8.01514
siekiant	-8.01521
gerb	-8.01764
nėr	-8.02823
ame	-8.03186
oms	-8.03782
▁.,	-8.04599
tų	-8.06955
politikos	-8.07856
visi	-8.08415
nor	-8.08524
tam	-8.08647
biudžet	-8.08915
kas	-8.0892
jie	-8.10227
teisi	-8.10731
kit	-8.1097
iki	-8.11139
ką	-8.1116
man	-8.11191
bei	-8.11739
nori	-8.12136
klausimu	-8.12326
pagal	-8.12536
šis	-8.14133
ys	-8.1447
padėti	-8.15168
pilieči	-8.15873
galimyb	-8.16031
sąjunga	-8.16185
ko	-8.16827
ekonomiko	-8.16831
šiandien	-8.16969
taryba	-8.17869
tarybo	-8.19191
žmog	-8.19559
veiksm	-8.20063
region	-8.20906
komitet	-8.21562
jei	-8.21834
n	-8.22515
galima	-8.23563
būtina	-8.24894
visiška	-8.25268
▁;	-8.26065
mis	-8.2663
po	-8.26772
negali	-8.28099
arba	-8.29578
srity	-8.29694
vien	-8.3046
kart	-8.30979
turim	-8.32687
bendradarbiavim	-8.32981
metų	-8.33382
susijusi	-8.33779
g	-8.34703
rink	-8.35306
iuosi	-8.35385
žmoni	-8.35755
žemė	-8.36015
europa	-8.36451
de	-8.36876
šalys	-8.37076
darb	-8.3926
priemoni	-8.40333
keli	-8.42128
dėmes	-8.42257
ume	-8.43283
energij	-8.43759
galėt	-8.43808
tarp	-8.44091
ė	-8.44179
čių	-8.44654
tiksl	-8.44857
pasakyti	-8.45883
rinkos	-8.45891
ūki	-8.46041
pv	-8.48461
toliau	-8.48507
igu	-8.48578
tuo	-8.48975
pirma	-8.4978
teis	-8.5013
raštu	-8.50161
ties	-8.50493
kuriuos	-8.51235
tiek	-8.51911
dali	-8.52234
pagrindini	-8.52553
kartu	-8.53397
jog	-8.53512
nustatyt	-8.54257
problema	-8.54776
c	-8.55169
nei	-8.55214
proc	-8.55276
prekybo	-8.55414
čia	-8.55822
projekt	-8.56076
ją	-8.56667
politik	-8.56961
kita	-8.57432
klimat	-8.57679
moter	-8.5814
-	-8.58445
mi	-8.5906
finans	-8.59553
tikrų	-8.59864
ūs	-8.59942
šiam	-8.60203
atveju	-8.60394
lisabono	-8.60587
l	-8.60628
b	-8.60638
lėš	-8.60722
param	-8.60744
klausima	-8.60795
imti	-8.60956
vard	-8.6152
apsaugos	-8.62232
paslaug	-8.62454
ponia	-8.62462
žinoma	-8.6306
politika	-8.63146
pagalb	-8.64244
jam	-8.64504
šie	-8.64873
frakcijos	-8.65195
pona	-8.65326
ma	-8.65579
priemone	-8.6563
fond	-8.65679
ms	-8.6642
poni	-8.66477
svarb	-8.66581
iau	-8.6673
tyrim	-8.69261
proces	-8.69377
atsižvelgia	-8.70146
am	-8.71229
sistem	-8.71858
eur	-8.72014
transport	-8.73123
pateikti	-8.7327
atžvilgiu	-8.73609
ėme	-8.73744
vida	-8.74113
padėko	-8.74123
taigi	-8.74164
reglament	-8.74212
balsav	-8.74321
pasauli	-8.74527
padėt	-8.74562
sutarti	-8.74812
gal	-8.75311
r	-8.75959
vartotoj	-8.76289
sukurt	-8.76393
jum	-8.77236
net	-8.77505
ent	-8.77598
ja	-8.77983
pirminink	-8.77991
akt	-8.78002
įgyvendinti	-8.78053
visos	-8.78157
20	-8.78455
deryb	-8.79035
produkt	-8.79424
osios	-8.79617
reikal	-8.79645
mo	-8.79782
darbuotoj	-8.80063
pakeitim	-8.80123
diskusijos	-8.81147
nu	-8.81208
pritari	-8.81519
aiškiai	-8.81555
maist	-8.81936
tikrai	-8.81965
susitikim	-8.82585
padaryti	-8.83069
labiau	-8.83764
turėtum	-8.8404
priimti	-8.84869
mėn	-8.85071
ateit	-8.85996
toki	-8.86
kelia	-8.86043
nuomone	-8.86265
v	-8.86741
sime	-8.86829
kriz	-8.86888
pasiekti	-8.86904
gyvenim	-8.87138
vaik	-8.87258
tokia	-8.8802
svarbi	-8.88103
klausimai	-8.8881
sveikat	-8.8919
gyventoj	-8.8956
siekiama	-8.89989
informacij	-8.9009
požiūriu	-8.90188
reiškia	-8.91019
pasaul	-8.91064
in	-8.91229
kuria	-8.91614
šiuos	-8.92196
institucijos	-8.92591
galiausia	-8.92636
valstybėm	-8.9279
sektoriu	-8.9283
esu	-8.92837
dideli	-8.92935
laiko	-8.93553
princip	-8.93674
pasi	-8.93934
susiję	-8.94605
pabrėžti	-8.94629
privalom	-8.94652
sistemos	-8.94686
,	-8.94968
▁¦20	-8.96333
pirmiausia	-8.96706
pažang	-8.97737
viet	-8.98256
mokesči	-8.98358
balsavim	-8.98596
neturi	-8.98786
f	-8.98823
saugum	-8.98863
priemonės	-8.98904
ųjų	-8.98945
mas	-8.99292
at	-8.99372
laisv	-8.99433
nariai	-8.99535
spręsti	-9.00176
laik	-9.00217
šia	-9.0054
reikė	-9.01064
krizės	-9.01627
aplinkos	-9.01706
kurio	-9.02
pagrind	-9.02288
suteikt	-9.02698
visa	-9.02753
du	-9.03066
angi	-9.03347
sistema	-9.03556
finansavim	-9.03725
dami	-9.03795
sąjungoje	-9.0388
plan	-9.041
rezultat	-9.04473
ose	-9.0511
pradėt	-9.0539
2	-9.05453
vietos	-9.05679
kuriai	-9.05976
euro	-9.05982
š	-9.06227
žmonėm	-9.06287
įskait	-9.06489
bendrijo	-9.06493
žmonė	-9.06592
oro	-9.068
lygmeni	-9.07422
program	-9.07653
sumažint	-9.07908
daugeli	-9.08049
sąlyg	-9.08497
valdym	-9.08929
veik	-9.08939
taisykl	-9.08946
vaidmen	-9.09089
energetiko	-9.09717
nepaisant	-9.10323
šalim	-9.10998
tą	-9.11059
juos	-9.11205
kuriuo	-9.11355
plėtro	-9.11726
kitos	-9.11765
ištekli	-9.12008
dokument	-9.12082
na	-9.12477
metai	-9.12648
įgyvendinim	-9.13345
kalbant	-9.13458
rezoliucij	-9.13487
politini	-9.1355
teise	-9.1376
inių	-9.138
naudoti	-9.13962
kitai	-9.13968
dažn	-9.14684
narėm	-9.14979
kiek	-9.1509
finansini	-9.15234
nebuvo	-9.15321
diskusij	-9.15487
5	-9.16073
sritys	-9.16587
įstatym	-9.16754
direktyvos	-9.16943
pateik	-9.17005
mą	-9.17083
h	-9.1726
skatint	-9.17427
kelet	-9.17901
augim	-9.18009
svarbiausia	-9.19019
antra	-9.19032
pramonė	-9.19127
sąlyga	-9.19137
inės	-9.19366
gerai	-9.19572
kuo	-9.19899
vadov	-9.20546
naujų	-9.20556
parengt	-9.20815
kuriam	-9.20817
skirti	-9.21035
įvairi	-9.2135
gauti	-9.21557
teism	-9.21557
vėl	-9.22199
bank	-9.22333
iškai	-9.22423
vakar	-9.22491
visuomenės	-9.2273
šiai	-9.23313
▁".	-9.23366
privalo	-9.23374
0	-9.23668
lygio	-9.23678
diskusija	-9.23882
iai	-9.2394
nare	-9.24039
veiklos	-9.24381
▁¦1	-9.24631
valdžio	-9.24682
priežiūro	-9.24765
laikyti	-9.2507
li	-9.25273
institucijų	-9.25569
išlaid	-9.26432
bendrą	-9.26737
/	-9.26964
imo	-9.26975
tas	-9.26996
įsipareigojim	-9.27404
jūros	-9.27944
.	-9.2801
daryti	-9.28012
veikl	-9.28012
▁¦2009	-9.28115
skirt	-9.28598
protokol	-9.28982
socialini	-9.29408
tinkamai	-9.29602
solidarum	-9.29717
problem	-9.30276
standart	-9.30665
rodo	-9.30741
skirta	-9.30864
dirbti	-9.30867
narys	-9.31135
kovos	-9.31595
galim	-9.31645
ln	-9.3171
europ	-9.31881
veikti	-9.32068
užsieni	-9.32099
dalyk	-9.32103
tikslu	-9.32244
pastang	-9.32274
sudaryt	-9.32323
geriau	-9.32519
asmen	-9.32643
žingsni	-9.32991
pinig	-9.33
požiūri	-9.33266
džiaug	-9.33376
augumo	-9.33669
mus	-9.33722
tapt	-9.33799
sien	-9.33841
problemų	-9.33869
įtraukti	-9.33936
do	-9.33943
pranešėja	-9.34264
turės	-9.34628
strategij	-9.34667
šias	-9.35025
galimybe	-9.35033
toks	-9.35175
fr	-9.35208
reikalavim	-9.3527
strategijos	-9.35455
skaidrum	-9.35827
rasti	-9.35976
mažiau	-9.36318
dialog	-9.36489
valstybe	-9.36892
pl	-9.36908
direktyv	-9.37596
dauguma	-9.37616
dien	-9.37786
teisingum	-9.37834
ryt	-9.3797
kol	-9.38093
dal	-9.38245
kain	-9.38279
re	-9.38555
poveik	-9.38602
tinkl	-9.38702
nary	-9.38781
aišku	-9.38906
jai	-9.39004
pirmininkaujanči	-9.39004
sriti	-9.39036
reikalinga	-9.3907
tvarko	-9.39261
piliečiai	-9.39408
jus	-9.39529
rezoliucijos	-9.39569
poveiki	-9.39722
koki	-9.40023
investicij	-9.40147
kalb	-9.40251
šaly	-9.40444
didel	-9.40529
rinkim	-9.40556
vyriausyb	-9.41299
taikym	-9.41476
taikyti	-9.41488
siekia	-9.41508
socialinė	-9.41606
versl	-9.41875
vystymo	-9.42959
naujas	-9.4299
vyksta	-9.43033
padidint	-9.43113
ragin	-9.43167
jūr	-9.434
ni	-9.43559
teikti	-9.43669
atlikti	-9.43788
ro	-9.43802
pasinaudot	-9.44237
joki	-9.44255
kalbėti	-9.44551
tarptautini	-9.44645
mos	-9.44883
esmė	-9.44908
atkreipti	-9.44957
mokslini	-9.45159
iu	-9.45339
nuomon	-9.4536
užimtum	-9.45708
pri	-9.4572
kontrolė	-9.45969
čio	-9.45982
didžiausi	-9.46253
taikoma	-9.4675
ime	-9.46809
pakeist	-9.46872
dėmesi	-9.46968
sektori	-9.47137
priežasti	-9.47254
al	-9.47382
nacionalini	-9.47434
esam	-9.4791
itin	-9.48171
tokios	-9.48532
el	-9.48726
ra	-9.48853
bendro	-9.49037
laisvė	-9.49061
galimybė	-9.49068
tekst	-9.49075
siu	-9.49446
sutart	-9.49484
vertinim	-9.5029
leisti	-9.50295
piet	-9.50421
turiu	-9.5043
paket	-9.50435
dej	-9.50784
įmoni	-9.50907
it	-9.51005
ml	-9.51122
veiksminga	-9.51166
siekti	-9.51219
pozicij	-9.51263
didesn	-9.51579
susi	-9.5172
daugel	-9.51819
nuolat	-9.51861
tarptautinės	-9.51919
atrodo	-9.52096
▁¦2008	-9.52137
ep	-9.5216
sprendimu	-9.52302
pakankama	-9.52421
kokia	-9.52513
pasiūlymu	-9.52567
ada	-9.52577
duomen	-9.52787
naudinga	-9.53071
priemon	-9.53107
ap	-9.53375
sudaro	-9.5341
kyla	-9.53452
le	-9.53473
remianti	-9.5363
da	-9.53752
sąjung	-9.53782
9	-9.53865
kaitos	-9.53866
viz	-9.53916
taut	-9.53925
ekonominė	-9.53951
jas	-9.54188
žini	-9.54497
veikla	-9.54564
rd	-9.54715
remti	-9.54859
direktyva	-9.5493
tada	-9.5495
ekonomin	-9.55038
atsižvelgt	-9.55117
apsauga	-9.55336
daro	-9.55458
technologij	-9.55491
pareiga	-9.55583
vartojim	-9.55695
kiti	-9.55862
parlamentu	-9.56072
saugos	-9.56112
žinot	-9.56225
ž	-9.56482
žinom	-9.56563
komisij	-9.56606
atvej	-9.56766
apsaugot	-9.56878
stabilum	-9.56922
ki	-9.5748
ten	-9.57553
išorė	-9.57629
interes	-9.57714
aspekt	-9.57731
nuomonė	-9.57762
balsuot	-9.57778
sanglaud	-9.58267
jav	-9.58455
afriko	-9.58464
reguliavim	-9.58608
iniciatyva	-9.58662
galėtum	-9.58755
straipsni	-9.58865
procedūr	-9.59096
pasiekta	-9.59098
▁¦10	-9.59259
ku	-9.59274
▁),	-9.59358
ū	-9.59384
strategija	-9.59501
susiduria	-9.59515
problemo	-9.59543
tikslai	-9.59934
teigiam	-9.60267
gera	-9.60318
santyki	-9.60551
mės	-9.60565
pritart	-9.60565
sak	-9.60571
daugyb	-9.60738
kokybė	-9.60855
neturėt	-9.60857
iniciatyv	-9.60943
iant	-9.61056
8	-9.61316
ka	-9.61405
bendra	-9.61556
▁¦2010	-9.61604
žr	-9.61625
didesni	-9.61762
teigiama	-9.61763
suderint	-9.6195
rinka	-9.6217
tampa	-9.62225
dalyvaut	-9.62629
programos	-9.62696
vertu	-9.62935
džio	-9.63083
maž	-9.6312
politin	-9.63145
atsi	-9.63433
iais	-9.63525
konkreči	-9.63627
internet	-9.63867
airijo	-9.6387
išspręst	-9.63951
aiški	-9.64106
pači	-9.64119
veiksming	-9.64182
pažeidim	-9.64213
lyg	-9.64226
duj	-9.64283
frakcija	-9.64313
naują	-9.6432
co	-9.64404
pateikta	-9.64415
pagerint	-9.64436
apsaug	-9.64474
gi	-9.6454
dėkoju	-9.64664
anksčia	-9.64687
pavyzdžiu	-9.6482
4	-9.65104
priežas	-9.652
norint	-9.65296
siekdam	-9.65415
švietim	-9.65754
šalimi	-9.66028
pritaria	-9.66167
finansinė	-9.66384
matyti	-9.66398
sektoria	-9.66586
ekonomika	-9.66591
būdu	-9.66648
skurd	-9.66969
patirti	-9.67012
an	-9.6707
esni	-9.67264
aptart	-9.67299
ur	-9.67396
rib	-9.6747
ri	-9.67512
padarini	-9.67717
programa	-9.68047
atstov	-9.68087
demokrat	-9.68211
priemonėm	-9.68317
lo	-9.6845
turėjo	-9.68765
tinkama	-9.68805
informacija	-9.68861
tokiu	-9.68994
susirūpinim	-9.69009
rūm	-9.69181
vykdyti	-9.69285
ataskait	-9.69374
tenka	-9.69644
kurti	-9.69676
šiol	-9.7019
bent	-9.70603
smurt	-9.70675
žmon	-9.7101
ing	-9.7122
aukščiausio	-9.7123
laiv	-9.71304
vyko	-9.71372
kriterij	-9.71556
išvengt	-9.71648
parama	-9.71956
klausimo	-9.72101
ojo	-9.72133
įmonės	-9.72335
dvi	-9.7238
veikia	-9.7262
no	-9.72626
6	-9.72715
ieji	-9.72843
fakt	-9.7302
avimo	-9.73162
pareiškim	-9.73385
vyr	-9.73391
ekonomini	-9.73529
laika	-9.74178
tinkam	-9.74276
tiksla	-9.74285
rizik	-9.74388
kalba	-9.7441
svarbiausi	-9.7458
daugiausia	-9.74667
demokratijos	-9.74785
ketina	-9.74786
umo	-9.74863
ministr	-9.75121
priėmim	-9.75253
palankia	-9.75288
visai	-9.7534
greičiau	-9.754
būd	-9.7563
suprast	-9.75662
automobili	-9.75921
naudos	-9.76053
ėjo	-9.76182
kovot	-9.76422
ryši	-9.76583
kok	-9.76789
medžiag	-9.76939
▁¦000	-9.7694
kime	-9.77123
▁!	-9.77125
vidur	-9.77127
mirti	-9.77178
kitą	-9.7719
tok	-9.77202
gamybo	-9.77305
juo	-9.77337
žin	-9.7751
teisin	-9.77555
la	-9.77884
pokyči	-9.77895
koleg	-9.7799
skaičiu	-9.78122
panaikint	-9.78281
panaudot	-9.78632
vertinu	-9.78679
požiūr	-9.78757
atsakomyb	-9.78776
ateiti	-9.78992
priimta	-9.79072
derybos	-9.79108
bendros	-9.79195
konflikt	-9.79334
reform	-9.79474
tarptautin	-9.79574
eb	-9.79597
kompromis	-9.7984
vengrijo	-9.79971
tu	-9.79982
sąlygos	-9.80208
priklauso	-9.80296
w	-9.80352
posėdži	-9.80566
dviej	-9.80582
vanden	-9.80732
sustiprint	-9.80734
akivaizdu	-9.81018
atsakomybė	-9.8103
pus	-9.81304
žemi	-9.8138
nebūt	-9.81541
miest	-9.81651
kaita	-9.81728
sriči	-9.81828
ton	-9.81884
rusijo	-9.82117
pasiūlyt	-9.82172
naujo	-9.82275
jokio	-9.8234
pozicijos	-9.82386
ijos	-9.82478
link	-9.82565
partnerystė	-9.82605
poreiki	-9.82661
numatyta	-9.82799
mažinim	-9.82897
tariant	-9.83044
pasveikin	-9.83075
įmonėm	-9.83104
pajam	-9.83166
nti	-9.8317
ntys	-9.83229
sutink	-9.8331
sias	-9.83432
tapo	-9.83678
centr	-9.83679
dabartin	-9.83785
jungtini	-9.84136
vyriausybės	-9.84142
abejo	-9.84164
pirm	-9.84229
veiksmai	-9.84237
padės	-9.84263
prieglobsčio	-9.84304
šiaurė	-9.84304
taikom	-9.84642
taisyklės	-9.84694
parodyt	-9.84713
atsakyt	-9.84724
kalbame	-9.84952
skiria	-9.85028
viso	-9.85042
ch	-9.85109
tiesiog	-9.8515
uost	-9.85336
neabejotina	-9.85597
prancūzijo	-9.85681
kova	-9.85751
turkijo	-9.85936
patvirtinti	-9.86062
valstyb	-9.86135
prioritet	-9.8617
dama	-9.86325
pačios	-9.86355
plėtra	-9.86659
ju	-9.8666
atliek	-9.86686
prezident	-9.86836
zon	-9.86872
tokio	-9.86898
leidim	-9.86929
teisėm	-9.87089
1	-9.87122
tiekim	-9.87307
ėte	-9.87386
rimta	-9.87425
taiko	-9.87429
rimt	-9.87471
partijo	-9.8754
ėms	-9.87569
nl	-9.87574
priemonė	-9.87789
imas	-9.87861
pagrįsta	-9.88068
laikotarpiu	-9.88108
tikim	-9.88143
institucijom	-9.88338
kultūro	-9.88443
reikalavimus	-9.88744
galiu	-9.89354
pajėg	-9.89483
pasitikėjim	-9.89536
pranešimu	-9.89559
duomeni	-9.896
tvirtai	-9.89842
er	-9.89961
gero	-9.90283
tema	-9.9038
ilg	-9.90475
šaltini	-9.90506
siekdama	-9.90623
jt	-9.90661
pateikt	-9.90732
taisykle	-9.9084
kalbėjo	-9.90895
judėjim	-9.91002
žuvininkystė	-9.9105
institucija	-9.91086
įmanoma	-9.91987
kr	-9.92084
skirtum	-9.9216
nar	-9.92327
atsakym	-9.9234
efektyvum	-9.92346
jom	-9.9238
audito	-9.92408
pozicija	-9.92609
atvejai	-9.92823
angli	-9.92862
finansin	-9.92915
puikia	-9.9293
nuostat	-9.92933
imą	-9.93016
naudojimo	-9.9328
sunkum	-9.93343
▁¦3	-9.93468
vieno	-9.93515
pabaigo	-9.93647
inį	-9.93654
kiekvieno	-9.93707
negalima	-9.93718
laikotarpi	-9.93785
lygi	-9.93862
pagrindin	-9.93869
kovo	-9.93924
mažai	-9.93942
mastu	-9.93962
nelyg	-9.93968
reikalauja	-9.94047
bi	-9.94104
konkurencingum	-9.94172
bendrosio	-9.94204
apima	-9.94241
tap	-9.94361
gyvyb	-9.94558
prisidėt	-9.94582
organizacij	-9.94797
tikras	-9.94919
pranešėj	-9.9498
nieko	-9.95012
trūkum	-9.95095
inę	-9.95124
įsitikinę	-9.95161
nenori	-9.95217
praėjusi	-9.9522
savait	-9.95366
mažum	-9.95901
ger	-9.95918
prekyba	-9.96173
3	-9.96237
vokietijo	-9.96414
▁¦2007	-9.9648
teisėkūr	-9.96481
posėd	-9.96494
tarš	-9.96496
užkirst	-9.96497
pra	-9.96505
grėsm	-9.96514
graikijo	-9.96717
paremti	-9.96751
ameriko	-9.96949
plat	-9.97128
auk	-9.97207
ūkinink	-9.9725
principu	-9.97622
kiekviena	-9.97669
priimt	-9.97706
visuomen	-9.97935
rytoj	-9.97936
labiausia	-9.98054
teisini	-9.98136
pakeitimu	-9.98405
nauja	-9.98455
skaiči	-9.98518
tikrą	-9.98536
▁).	-9.98633
ga	-9.98662
žodži	-9.98802
žino	-9.98883
priėm	-9.9901
va	-9.99012
go	-9.99101
vaist	-9.99337
trumpa	-9.99416
procedūra	-9.99417
kiekvien	-9.99428
damas	-9.99489
gamintoj	-9.99578
organizacijos	-10.0002
padar	-10.0021
pavoj	-10.004
štai	-10.0058
dirba	-10.0078
nerim	-10.0108
pripažinti	-10.0112
valstij	-10.0122
nustatyta	-10.0123
tokie	-10.0147
hu	-10.016
geresni	-10.0163
vėliau	-10.0167
integracij	-10.0172
darbotvarkė	-10.0189
palaik	-10.0192
ama	-10.0209
pastanga	-10.0226
tvar	-10.0228
greita	-10.024
en	-10.024
naujos	-10.0242
kar	-10.0247
mišk	-10.0252
stiprint	-10.026
leidžia	-10.027
pien	-10.0281
negu	-10.0284
didelį	-10.0284
režim	-10.0289
italijo	-10.0296
pagalba	-10.031
leiski	-10.0313
pavyk	-10.032
kontrol	-10.0321
infrastruktūr	-10.0326
balsavima	-10.0332
pasak	-10.0334
inio	-10.035
pirmas	-10.0367
socialist	-10.0374
teisinga	-10.0376
uoti	-10.0377
▁¦2011	-10.0395
barro	-10.0395
šeši	-10.0397
mechanizm	-10.0405
laukia	-10.0413
naudojant	-10.0416
siūloma	-10.0424
gruo	-10.0437
atitinkam	-10.0438
kūrim	-10.0452
teikiama	-10.0454
pastab	-10.0468
mėnesi	-10.0485
pati	-10.0511
neigiam	-10.0518
taikomos	-10.0528
bendras	-10.0531
etap	-10.0539
sąraš	-10.0551
inovacij	-10.0551
rūši	-10.0551
draudim	-10.0555
našt	-10.0556
klaid	-10.0574
kokyb	-10.0575
atsižvelgdama	-10.0579
narė	-10.0587
nebe	-10.0607
grupės	-10.0637
būsim	-10.0637
jungtinės	-10.0645
pt	-10.0668
▁¦4	-10.0672
įgaliojim	-10.0683
susijusios	-10.0687
dalyvavim	-10.0716
imigracij	-10.0717
pirmininkaujant	-10.0721
patvirtinim	-10.073
didžiul	-10.0738
ači	-10.075
sius	-10.0776
primin	-10.078
suteikia	-10.0798
laiku	-10.0805
galėsi	-10.0809
skiriama	-10.0813
žvejybo	-10.0831
tikra	-10.0839
teisingai	-10.0839
pagrįst	-10.0841
galės	-10.0857
keleivi	-10.0871
įtraukta	-10.0892
paminėti	-10.0892
svarstym	-10.0894
mv	-10.0918
pareng	-10.0944
sudėting	-10.0951
suteikta	-10.0956
atskir	-10.0985
užduoti	-10.0989
tikiu	-10.0993
kalbam	-10.1001
nieka	-10.1006
plėtr	-10.1015
apskrit	-10.1035
pobūdži	-10.1035
koordinavim	-10.1037
aplinkosaug	-10.1043
krikščioni	-10.1044
ekonomik	-10.1066
fi	-10.1068
▁¦50	-10.1082
vyks	-10.1116
zonos	-10.1125
sėkmingai	-10.1148
sunku	-10.1149
pacient	-10.1176
vieta	-10.1192
šal	-10.1195
referendum	-10.1202
pensij	-10.1202
geležinkeli	-10.1202
bendradarbiaut	-10.1202
atitinka	-10.1202
omeny	-10.1203
tuos	-10.1228
ypating	-10.1232
ausio	-10.1252
sprendimai	-10.1253
pasiek	-10.1254
nčių	-10.126
esama	-10.1266
nr	-10.1268
pritar	-10.1272
pagrindu	-10.13
socialine	-10.1306
padaryta	-10.1328
globalizacij	-10.1332
aktyv	-10.1338
tęsti	-10.1344
vi	-10.1346
taryb	-10.1349
vaidm	-10.1371
išreikšt	-10.138
▁¦12	-10.138
valstybė	-10.1387
rezoliucija	-10.1399
įvertint	-10.1411
gerint	-10.1412
usių	-10.1424
interesus	-10.1427
didelė	-10.1439
trečia	-10.1466
principai	-10.1468
et	-10.1485
jaunim	-10.1493
▁¦14	-10.1494
uoju	-10.1498
palaiko	-10.1498
pastar	-10.1516
tolesni	-10.1519
kinijo	-10.1528
siek	-10.1536
šengen	-10.1543
pabėgėli	-10.1543
birželio	-10.1544
politinės	-10.1552
pasiūl	-10.1559
mane	-10.1567
tie	-10.157
užtikrinant	-10.1581
sen	-10.1586
papildom	-10.1592
kolego	-10.1595
pirmininka	-10.1602
aktu	-10.1625
įsi	-10.1626
pusiausvyr	-10.1652
prašym	-10.1674
pastaruo	-10.169
uot	-10.169
oji	-10.1707
aplinkybėm	-10.1708
kosov	-10.1719
įgyvendinant	-10.1721
atlikt	-10.1728
niekad	-10.1729
amžia	-10.1739
uoja	-10.1745
būtinyb	-10.1753
bendrų	-10.177
▁¦2006	-10.1771
lyči	-10.1783
reaguot	-10.1796
balsavo	-10.1808
romų	-10.1817
neseni	-10.1818
prekyb	-10.1821
dienos	-10.1821
sakant	-10.1822
išlaikyti	-10.1841
remia	-10.1852
▁¦25	-10.1853
gamini	-10.1854
mast	-10.1873
tgi	-10.1889
atidžia	-10.1897
plojimai	-10.1897
▁¦27	-10.1897
tarpusav	-10.1898
aplink	-10.1898
rug	-10.1901
nacionalinės	-10.1902
kilmės	-10.1903
praeit	-10.1914
elektro	-10.1918
inti	-10.1923
mokymo	-10.1937
nacionaliniu	-10.1944
teritorij	-10.1946
moksl	-10.1962
▁¦2	-10.1964
bendrov	-10.1968
▁¦6	-10.1976
konkret	-10.1983
pagarb	-10.2031
vykdym	-10.2036
škai	-10.2037
esant	-10.2047
vienod	-10.2051
idėj	-10.2055
tarptautiniu	-10.2063
nio	-10.2066
nuostata	-10.2067
sankcij	-10.2079
tuomet	-10.2081
minėjo	-10.2082
garantij	-10.2085
nį	-10.2087
panaši	-10.2097
plėtoti	-10.2097
pradžio	-10.2104
palikt	-10.2126
didžiausia	-10.2145
agentūr	-10.2163
žuv	-10.2169
humanitarin	-10.2192
gyvūn	-10.2193
teikim	-10.2216
lig	-10.2219
sveikin	-10.2239
rezultatai	-10.2247
mu	-10.2248
nepa	-10.2264
nurodyt	-10.2291
daugeliu	-10.2299
leis	-10.2303
vertinti	-10.2304
nepriklausom	-10.2307
pavoju	-10.2325
spaudim	-10.2332
pavyzdy	-10.2345
pabrėžiama	-10.2357
pareikšt	-10.238
pasiūlymai	-10.2382
lu	-10.2387
yb	-10.2394
kin	-10.2398
paaiškint	-10.2425
gynyb	-10.2453
sustabdyt	-10.2455
sudėtinga	-10.2459
atsisakyt	-10.2486
sukurta	-10.2489
izraeli	-10.249
patvirtino	-10.2496
darbu	-10.2501
dalimi	-10.2504
partneri	-10.2506
srit	-10.2514
ginti	-10.2521
lygiu	-10.2556
konkurencijo	-10.2556
trečių	-10.2559
susitarimu	-10.2566
siūlom	-10.2587
▁¦11	-10.2588
vert	-10.2598
pagrindinė	-10.26
kalbos	-10.2601
ntis	-10.2615
įtak	-10.2633
nepriimtina	-10.2642
nauju	-10.2646
visuomene	-10.265
rengiant	-10.2662
darbuotojai	-10.2671
liep	-10.2682
baigdama	-10.2702
teising	-10.2704
ži	-10.271
val	-10.2711
dalyka	-10.2722
prioritetu	-10.2737
pažanga	-10.2752
baigti	-10.277
uo	-10.2771
manymu	-10.2787
struktūrini	-10.2829
kito	-10.2832
patenkint	-10.2834
malonu	-10.2842
iššūki	-10.2845
vykdant	-10.285
kultūr	-10.285
ver	-10.2851
metod	-10.2854
skubiai	-10.2857
turint	-10.2862
trij	-10.2893
minėt	-10.2902
atstovai	-10.2924
kartai	-10.2929
vietoj	-10.2948
pradži	-10.2953
policij	-10.2958
kokios	-10.2962
praneš	-10.2979
reforma	-10.2985
didint	-10.3
stebėti	-10.3009
nesu	-10.3015
demokratija	-10.3017
praša	-10.3025
laikomas	-10.3034
vertė	-10.3047
nių	-10.305
lankstum	-10.3051
gana	-10.3055
nai	-10.3056
teisinės	-10.306
kopenhago	-10.3076
padeda	-10.3082
pro	-10.3091
partija	-10.3094
sąnaud	-10.3096
ilgalaiki	-10.3101
saug	-10.3104
pranešėju	-10.3149
geresn	-10.3151
palaikyt	-10.3154
pašalint	-10.3163
šeim	-10.3168
straipsn	-10.3179
būtin	-10.3196
skatinim	-10.3215
bals	-10.3216
gauna	-10.3243
aljans	-10.3246
teršal	-10.3246
visom	-10.3265
krize	-10.3273
pareiškimai	-10.3284
dav	-10.3285
sutarči	-10.3292
on	-10.3293
rumunijo	-10.3294
įvykdym	-10.33
gyvena	-10.3304
vieninteli	-10.3305
suma	-10.333
prevencij	-10.3332
susitarimai	-10.3337
lab	-10.3345
atskirti	-10.3347
naudojimą	-10.336
aspektu	-10.3366
pastat	-10.3368
kapital	-10.337
termin	-10.337
paprašyt	-10.3377
norėt	-10.3388
keturi	-10.3392
aplinka	-10.3393
viduri	-10.34
teikiam	-10.3424
aktai	-10.345
daly	-10.3451
potencial	-10.3454
duomenys	-10.3461
ino	-10.3464
regioninės	-10.3464
grup	-10.3467
kolega	-10.3472
moteri	-10.3478
niu	-10.3486
konvencijos	-10.349
atsak	-10.3493
skatina	-10.3502
žengt	-10.3513
ci	-10.3518
darbotvark	-10.353
apsvarstyt	-10.3534
nuostatos	-10.3548
veikim	-10.3549
taikant	-10.3561
balt	-10.3564
aukšt	-10.3575
ome	-10.3581
skirting	-10.3581
eksport	-10.3593
patikim	-10.36
žodžiu	-10.3608
panaikinim	-10.3611
kitus	-10.366
matome	-10.3663
lio	-10.3664
paprasčiausia	-10.3667
é	-10.3667
uosiu	-10.3668
turizm	-10.3669
informuoti	-10.3669
vykt	-10.3675
reali	-10.368
pakeitimai	-10.3684
status	-10.3687
diskriminacij	-10.3696
mažint	-10.3699
asis	-10.3699
bo	-10.37
nę	-10.3707
agentūros	-10.372
rusija	-10.3726
atliko	-10.3731
gr	-10.374
neturėtum	-10.3754
nedels	-10.3756
geriausia	-10.3807
stipri	-10.3817
respubliko	-10.3826
vaikai	-10.3832
sal	-10.3838
tris	-10.3852
patvirtinta	-10.3868
karo	-10.3873
dešimt	-10.3883
bu	-10.3883
turėsi	-10.3884
kvalifikacij	-10.3884
ispanijo	-10.3884
balkan	-10.3884
organ	-10.3884
socialinę	-10.39
leist	-10.391
veiksmingum	-10.3923
užtikrinim	-10.393
kovojant	-10.3931
ge	-10.394
iniai	-10.3953
usios	-10.3956
patiria	-10.3961
suteik	-10.3978
laisvi	-10.3994
produktai	-10.4007
užbaigt	-10.4017
vartotojai	-10.4037
reikaling	-10.4043
ano	-10.4071
galėjo	-10.4089
gerą	-10.4103
vasar	-10.4103
pasekm	-10.4104
baltarusijo	-10.4106
akivaizdžiai	-10.4112
lengva	-10.4112
tebė	-10.4113
sport	-10.4122
pagrindiniai	-10.4123
ppe	-10.4126
nacionalin	-10.4128
įvyki	-10.4144
tiesiogi	-10.4147
sutartimi	-10.415
tarnybo	-10.4157
pasakė	-10.4163
bž	-10.4165
pačiu	-10.4165
pasaulinė	-10.4174
▁¦15	-10.4182
bendrąj	-10.4184
pabrėž	-10.4184
siūl	-10.4188
procedūros	-10.4211
kieki	-10.4212
eli	-10.4213
šeimo	-10.4217
antras	-10.422
vo	-10.4262
standartai	-10.4263
išmok	-10.4275
lygybė	-10.4276
terorizm	-10.4277
būda	-10.4309
sutarty	-10.4316
tikėti	-10.4316
liaudi	-10.4334
žiniasklaido	-10.4334
sandori	-10.4335
abiej	-10.4335
puik	-10.4342
reikalaujama	-10.4342
kvot	-10.4357
rekomendacij	-10.4357
sutinka	-10.4357
▁¦13	-10.4364
visuotin	-10.4365
bendrai	-10.4365
idėja	-10.4367
tur	-10.4368
prieštarauja	-10.4368
projektu	-10.4372
portugalijo	-10.4374
mat	-10.4381
sako	-10.4382
pranešėjo	-10.4388
priek	-10.4397
ženkl	-10.4401
pirmą	-10.4426
pramon	-10.4438
uojant	-10.444
susijusiu	-10.4443
damos	-10.4444
sutelkt	-10.4452
paskatin	-10.4458
sprendžia	-10.4458
kalbėtoj	-10.4458
įsipareigojimu	-10.4477
atsakinga	-10.4477
▁¦19	-10.4497
speciali	-10.4502
keisti	-10.4506
ak	-10.452
dr	-10.4521
galutini	-10.4529
▁¦30	-10.4533
kalbu	-10.4533
visuomenė	-10.4534
sukelt	-10.4535
milijon	-10.4537
puiki	-10.4538
nurodyta	-10.4538
mėnes	-10.4545
bendrovė	-10.455
pakistan	-10.4566
pasirengę	-10.4566
perkėlim	-10.4566
išpuoli	-10.4567
mokyti	-10.4572
frakcij	-10.4574
ate	-10.4575
kinija	-10.4577
preki	-10.4577
netruk	-10.4577
turkija	-10.46
pasirinkim	-10.4604
išmetamų	-10.4617
suteiks	-10.462
parodė	-10.4636
išsaugot	-10.4639
inius	-10.4642
leido	-10.4645
bandym	-10.4645
pirmąj	-10.4648
galė	-10.466
▁¦5	-10.4661
nuoširdžia	-10.4674
profesini	-10.4675
žal	-10.4683
vidutini	-10.4685
modeli	-10.4691
pavyzdži	-10.4696
viešų	-10.47
ve	-10.4701
susitart	-10.4706
č	-10.4707
abejon	-10.473
avo	-10.4747
vyriausybe	-10.4749
nafto	-10.4759
kuriom	-10.4765
poreik	-10.4768
nuolatini	-10.477
tūkstanči	-10.4778
ragina	-10.4786
tikslą	-10.4793
inink	-10.4802
reikalaut	-10.4803
precedent	-10.4804
lapkri	-10.4804
tės	-10.4812
lenkijo	-10.4823
karalystė	-10.4845
ėmės	-10.4853
nutraukt	-10.486
bulgarijo	-10.4862
atsižvelg	-10.4872
abejonė	-10.4878
kredit	-10.4879
situacij	-10.4883
kokiu	-10.4903
jėg	-10.4941
skubi	-10.4942
gyvent	-10.4962
kov	-10.4966
eniai	-10.4969
paskutin	-10.4974
papraš	-10.4995
įsitikin	-10.4999
didži	-10.5002
pirmininkavim	-10.5006
ba	-10.5015
paskutini	-10.5024
reikšming	-10.5027
vertę	-10.503
akto	-10.5033
minti	-10.5037
lt	-10.5046
švedijo	-10.5048
geguž	-10.5048
penki	-10.5048
palygint	-10.5048
komunikat	-10.5049
užmoj	-10.5052
pateikiam	-10.5054
sparčia	-10.5062
panaudojim	-10.5063
grupi	-10.5066
vy	-10.5071
ginkl	-10.5094
griežtai	-10.5112
anti	-10.5115
yn	-10.5129
▁¦18	-10.5141
santykiai	-10.5144
sek	-10.5159
pritaikyt	-10.5167
daroma	-10.517
drąs	-10.5178
tvark	-10.5184
atlieka	-10.5188
sėkmė	-10.5191
punkt	-10.5202
sv	-10.5205
demokratini	-10.5214
▁¦2013	-10.5214
ekonomine	-10.5236
agentūra	-10.5242
griežt	-10.5245
bū	-10.525
kt	-10.5251
finansuot	-10.5253
nam	-10.5253
▁.)	-10.526
bendru	-10.5276
užtikrinta	-10.5278
iran	-10.5288
sesijo	-10.5293
reiting	-10.5298
pavaduotoja	-10.53
nustatant	-10.5302
kasdien	-10.5302
kam	-10.5303
poreikiu	-10.5306
paskol	-10.5312
prasme	-10.5315
ukraino	-10.5323
prieig	-10.5324
įvykiai	-10.5335
svarbios	-10.5336
prisitaikym	-10.534
muit	-10.534
neįmanoma	-10.5344
fa	-10.5347
priežiūr	-10.5358
partij	-10.536
norėtų	-10.5362
aspektai	-10.5395
kuriant	-10.5396
inis	-10.5409
numatyti	-10.5418
try	-10.5426
žinia	-10.5437
angl	-10.5454
il	-10.5457
siūlo	-10.5464
išsami	-10.5465
van	-10.5469
žodžiai	-10.5474
or	-10.55
vidu	-10.5501
išsam	-10.5508
sėkming	-10.551
par	-10.5516
pareigūn	-10.552
pamiršt	-10.5524
import	-10.5525
kreipti	-10.5526
europieči	-10.5531
konkurencija	-10.5533
praėjus	-10.5534
struktūr	-10.5536
aukštos	-10.5538
ataskaita	-10.5542
ash	-10.5551
rezultatu	-10.5555
kryptimi	-10.5562
tvarkyti	-10.5569
didinim	-10.5571
▁¦8	-10.5575
turt	-10.5575
nė	-10.5577
surengt	-10.5579
juod	-10.5581
nepaprastai	-10.5583
vykdoma	-10.5595
suprant	-10.5596
raginama	-10.5607
sakyti	-10.5626
priešinga	-10.5627
menk	-10.5641
išvad	-10.5653
taik	-10.5661
dirbo	-10.567
buvusi	-10.5683
perspektyv	-10.5693
leidžiama	-10.5699
dė	-10.5702
var	-10.5717
sveikatai	-10.5726
atkurt	-10.5731
turė	-10.5734
pateikiama	-10.5751
pareig	-10.5779
ll	-10.578
paskelb	-10.5784
migracij	-10.5785
teikia	-10.5791
esmini	-10.5796
min	-10.5797
ke	-10.5803
nusikaltim	-10.5815
afganistan	-10.5818
kadencij	-10.5818
bendradarbiauja	-10.5818
trūksta	-10.5819
paty	-10.5828
sukėl	-10.5829
svarstyt	-10.5834
ištekliu	-10.5841
proga	-10.5852
tinka	-10.5852
priimant	-10.5855
santykiu	-10.5863
dalykai	-10.5865
socialinį	-10.5866
prancūzija	-10.5867
nariu	-10.5872
tikros	-10.5875
šaliai	-10.5879
terorizmu	-10.5884
religij	-10.589
socialin	-10.5904
konkrečiai	-10.5904
apibrėžti	-10.5914
sudarym	-10.5939
sukūrim	-10.5947
operacij	-10.5948
didėja	-10.5951
įtako	-10.5965
verta	-10.5967
ūp	-10.5968
ce	-10.5975
moterim	-10.5976
pinigai	-10.5985
priversti	-10.5988
mokėjim	-10.5994
laikin	-10.5999
paskelbt	-10.5999
susitik	-10.6017
eism	-10.6026
palanki	-10.6032
saugumu	-10.6046
autori	-10.6067
paskatint	-10.6067
kolegom	-10.6073
erdv	-10.608
paklaust	-10.6086
įtrauk	-10.6086
aišk	-10.6088
▁¦2012	-10.6088
išgirst	-10.6088
egipt	-10.6088
pradėjo	-10.6088
laikotarp	-10.6091
persvarstyt	-10.6097
didžiuli	-10.6097
ding	-10.6099
branduolini	-10.6099
balan	-10.61
neman	-10.6123
visapusiška	-10.6123
skurdu	-10.6126
atkreip	-10.6134
skatinama	-10.6137
dabartinės	-10.6154
pavyzd	-10.6165
vienu	-10.6165
įvairios	-10.6172
atėj	-10.6176
pramone	-10.6176
imigrant	-10.6178
laisvai	-10.6184
stengti	-10.6187
mėnesiu	-10.6188
▁¦40	-10.6191
kal	-10.6202
sprendžian	-10.6205
jant	-10.6212
žuot	-10.6214
pasaulini	-10.6232
veikianči	-10.6236
įvairovė	-10.624
gamyba	-10.6241
ru	-10.6242
baigta	-10.625
žingsn	-10.6264
priežiūra	-10.6266
galutin	-10.6279
pasiekt	-10.6301
tikru	-10.6327
grindžiama	-10.6328
pusės	-10.6329
nepakankama	-10.6332
kalt	-10.6342
ilgalaik	-10.6358
baudžiam	-10.636
dvej	-10.6364
demokratij	-10.6365
strasbūr	-10.6366
pažymėti	-10.6366
vertybėm	-10.6368
aviacijo	-10.6368
tikriausia	-10.6371
sutarim	-10.6375
išnagrinėt	-10.6378
pripažinim	-10.6392
naud	-10.6393
aukšto	-10.6393
suderinim	-10.6404
atkūrim	-10.6407
tvarum	-10.6407
nelegali	-10.641
skol	-10.641
skirtos	-10.6421
nuolatin	-10.643
iškelt	-10.6433
nuosavybė	-10.6442
aptar	-10.6443
skiriam	-10.6446
besi	-10.6457
atsaking	-10.6462
form	-10.6469
nukreipt	-10.6473
išsi	-10.6476
ilgai	-10.6479
atsarg	-10.6502
analiz	-10.6508
spal	-10.6509
patvirtina	-10.6511
pastaba	-10.6516
konkurencij	-10.6521
gail	-10.6527
vil	-10.6533
gair	-10.6534
svarbiu	-10.6538
buv	-10.6545
mokykl	-10.6551
keičia	-10.6559
gebėjim	-10.6566
apgailestauj	-10.6567
svarst	-10.657
ale	-10.6571
pradeda	-10.6582
supaprastint	-10.659
kelti	-10.6592
naudojamas	-10.6601
suteikiama	-10.6612
privat	-10.6627
kenčia	-10.663
glaudžia	-10.6639
kitom	-10.664
pritarim	-10.6641
aktyvia	-10.6643
pasirengusi	-10.6651
á	-10.6651
student	-10.6651
nauji	-10.6654
kaimynystė	-10.6657
peržiūrėt	-10.666
liberalizavim	-10.6661
klaus	-10.6666
jais	-10.6672
supaprastinim	-10.6673
konvencij	-10.6684
naudoja	-10.6684
didžioj	-10.6687
patirt	-10.669
tarptautinė	-10.6696
ribot	-10.6701
čiai	-10.6702
vystymui	-10.6704
padidin	-10.6705
investuot	-10.6709
tri	-10.6718
duoti	-10.672
sužinot	-10.6724
europin	-10.6725
krizė	-10.6726
svarstom	-10.6728
vienintel	-10.6732
perduot	-10.6749
gerovė	-10.6751
ančių	-10.6761
pie	-10.6766
eina	-10.6773
grįžt	-10.6776
cs	-10.678
dabartini	-10.6789
didele	-10.6793
iesi	-10.6798
ter	-10.6798
numatoma	-10.6806
tolesn	-10.6806
dėti	-10.6834
kliūti	-10.6841
eri	-10.6841
palaikym	-10.6841
vertinam	-10.6861
nčios	-10.6866
gaut	-10.6878
lygmen	-10.6899
50	-10.6903
pasaulin	-10.6935
grėsmė	-10.6939
peticij	-10.6946
judum	-10.6946
spaudo	-10.6946
kontekst	-10.6946
įrodym	-10.6947
iššūkiu	-10.695
branduolinės	-10.6951
diskutuoti	-10.6953
kompetencija	-10.6955
patikimum	-10.6966
apribot	-10.6967
tyrimu	-10.6975
vyriausybi	-10.6975
stebėjim	-10.6983
maistu	-10.6995
mal	-10.7001
parengta	-10.7014
sėkm	-10.7017
ly	-10.7021
pagarba	-10.7033
patenka	-10.7034
nd	-10.7042
suprantama	-10.7062
mini	-10.7068
išeiti	-10.7081
konferencijo	-10.7085
vieš	-10.7098
minėta	-10.7105
naujai	-10.7109
bausmė	-10.7114
didesnė	-10.7119
nedarb	-10.7119
išrinkt	-10.7127
atnaujint	-10.7128
sunki	-10.7135
ha	-10.7143
muo	-10.7144
valstybnar	-10.7165
kada	-10.7182
išskyr	-10.7187
kliū	-10.7188
technologija	-10.7191
naryst	-10.7194
ėja	-10.7194
efektyv	-10.7208
atskira	-10.721
silpn	-10.7214
lieka	-10.7232
prast	-10.7245
atostog	-10.7249
vairuotoj	-10.7249
trečiosiom	-10.7249
reakcij	-10.7249
stebėsen	-10.7249
paragint	-10.725
gu	-10.7251
▁¦16	-10.7251
stiprinim	-10.7253
rinkėj	-10.7253
eiti	-10.7255
kos	-10.7264
▁¦100	-10.7266
pirkim	-10.7266
atvyk	-10.7271
azijo	-10.7286
pridėtin	-10.7288
uždraust	-10.7292
vyn	-10.7295
išaug	-10.7298
lė	-10.7311
skaičiau	-10.734
ėmi	-10.7342
vienodai	-10.735
įvykdyt	-10.7354
asmeny	-10.7356
vadovaujant	-10.7358
demokratinės	-10.7362
pakt	-10.7364
kilt	-10.738
tarnyb	-10.7383
tarpvalstybini	-10.7396
kokie	-10.7407
visam	-10.7415
klas	-10.7415
libijo	-10.7418
tvarka	-10.7428
numatyt	-10.743
iniciatyvo	-10.7436
įmon	-10.7437
padariniai	-10.7437
00	-10.7443
jėgos	-10.7445
tikslia	-10.7447
nuosekli	-10.7466
minėja	-10.7475
nelygyb	-10.7482
politiniu	-10.7485
namų	-10.7489
prieinam	-10.7501
sakoma	-10.7504
perdavim	-10.7531
įtvirtint	-10.7544
baz	-10.756
baigto	-10.7561
subsidiarum	-10.7561
ekspert	-10.7561
frontex	-10.7561
skund	-10.7561
valdžia	-10.7561
žaliav	-10.7561
▁¦2005	-10.7562
kultūrin	-10.757
tvarkym	-10.7575
planu	-10.7591
išvada	-10.7599
saugoti	-10.7607
ištekliai	-10.7614
sunkiai	-10.7614
pagrindine	-10.762
blog	-10.763
pajėgum	-10.7635
forma	-10.7641
žem	-10.765
nelaimė	-10.7654
įvest	-10.7658
nuveikt	-10.7664
tarnyba	-10.7669
situacija	-10.7677
keliu	-10.7685
pranešėjai	-10.7685
įvairov	-10.7705
vertinama	-10.7707
komercini	-10.7709
suteikim	-10.7718
tra	-10.7723
puiku	-10.7738
patenkinta	-10.7749
lengviau	-10.7754
ner	-10.7772
kriterijai	-10.7777
laikau	-10.7777
sulauk	-10.7794
atitikt	-10.7802
diena	-10.7834
strategin	-10.7835
žodini	-10.7837
antys	-10.785
tol	-10.7853
nusipeln	-10.7866
naujovi	-10.7871
gyventojai	-10.7877
administravim	-10.7884
efekt	-10.7884
vystymą	-10.7884
lūkesči	-10.7884
paveld	-10.7884
▁...	-10.7884
japonijo	-10.7884
smark	-10.7884
raštišk	-10.7884
kontroliuot	-10.7885
žemyn	-10.7885
naujosios	-10.7887
abiem	-10.7891
antai	-10.7902
netinkama	-10.7904
mažiausia	-10.7905
dviem	-10.7906
lėt	-10.7912
prisiimti	-10.7919
savai	-10.7934
nustatym	-10.7939
karini	-10.7944
persvarstym	-10.7948
įstaig	-10.7948
visuome	-10.7951
kaimyn	-10.7965
didina	-10.7977
neteisėt	-10.7981
kylanči	-10.7989
briusel	-10.8003
teisė	-10.8004
atvir	-10.8008
byl	-10.8017
galiojanči	-10.8023
technini	-10.8033
pavojing	-10.8036
reikalavimai	-10.8042
atlyginim	-10.8042
iššūkiai	-10.8043
organizacija	-10.8048
reiškin	-10.805
gaus	-10.8058
pilietinė	-10.8058
erdvės	-10.8063
rom	-10.8068
sėkminga	-10.8075
vaizd	-10.8104
visišk	-10.8105
teigia	-10.8112
stipr	-10.8116
elgti	-10.8117
nusikaltimu	-10.8119
esmin	-10.8144
reglamentavim	-10.815
gruzijo	-10.8155
čekijo	-10.8157
galioja	-10.8157
padaryt	-10.8171
patekt	-10.8181
iausi	-10.8183
vyriausybė	-10.8183
pasirinkti	-10.8186
branduolin	-10.8197
toli	-10.8197
vertybi	-10.82
procesu	-10.8201
dešimtmeči	-10.8211
rengia	-10.8213
primygtin	-10.8217
vertybe	-10.8217
reklam	-10.8218
paskirstym	-10.8219
ratifikavim	-10.8224
pirmojo	-10.8232
besivystančios	-10.8232
pasisak	-10.8237
bv	-10.8239
būdai	-10.8242
naudojamo	-10.8247
viešojo	-10.8248
tyrimai	-10.8252
čius	-10.8256
įrang	-10.8257
fer	-10.8259
amos	-10.8274
tikri	-10.8282
sumažėj	-10.8292
rumunija	-10.8299
patobulint	-10.8305
paprastai	-10.8307
nusi	-10.8328
▁¦21	-10.8331
pereit	-10.8335
partneryst	-10.8338
darbinink	-10.8345
užmokesči	-10.8346
humanitarinė	-10.8349
padidėj	-10.8355
alde	-10.8373
konkurencing	-10.8374
sakė	-10.8385
ginč	-10.8385
atitinkamai	-10.839
element	-10.839
išlaida	-10.8397
vertina	-10.8407
serbijo	-10.8407
uosi	-10.8422
vesti	-10.8426
bar	-10.8429
ribos	-10.8432
praktini	-10.8445
įveikt	-10.8449
graikija	-10.846
bausm	-10.8463
bloga	-10.8471
sudary	-10.8472
geros	-10.8474
tv	-10.8485
jėga	-10.8491
nusprend	-10.8494
rūma	-10.8497
kultūrini	-10.8506
tiesiogini	-10.8509
dirb	-10.8509
stojim	-10.8513
svarstoma	-10.8516
egzistuoja	-10.8532
krypti	-10.8533
tikrinim	-10.8556
kreip	-10.8559
ketinim	-10.8559
kodeks	-10.8562
korupcij	-10.8562
penkeri	-10.8562
septyni	-10.8562
signal	-10.8562
šiltnami	-10.8562
imtasi	-10.8562
ystės	-10.8563
nepavyk	-10.8564
trej	-10.8564
mažesni	-10.8564
pasekmė	-10.8567
politiniai	-10.8577
nauda	-10.858
tro	-10.858
centrini	-10.8592
besivystančiom	-10.8594
kipr	-10.8597
rekomendacija	-10.8613
žod	-10.8632
pirmininku	-10.8646
portugalija	-10.8657
ukraina	-10.866
sieki	-10.8661
perspektyvo	-10.8673
pasakyta	-10.8675
liko	-10.868
protinga	-10.8682
remiam	-10.8688
nepakanka	-10.869
ekonominiu	-10.8692
prioritetai	-10.8694
padarė	-10.8706
greit	-10.8715
vykd	-10.8719
kilo	-10.875
svarba	-10.8755
iniam	-10.8756
valiuto	-10.8766
praktiška	-10.877
indėli	-10.8772
reikiam	-10.8774
nelaimi	-10.8775
sraut	-10.8775
reformo	-10.8782
sukelia	-10.8788
likti	-10.8793
ambicing	-10.88
irgi	-10.8803
ataskaitos	-10.8806
nurod	-10.8827
main	-10.8828
mokėtoj	-10.883
zona	-10.8833
pan	-10.8838
konsultacij	-10.8839
visapusišk	-10.884
tem	-10.8841
istorijo	-10.8846
balsuosi	-10.885
krovini	-10.8854
konstitucij	-10.8856
daugumo	-10.886
registr	-10.8865
umėt	-10.8872
vykstanči	-10.8877
prisijungt	-10.8879
žalo	-10.8881
abipusi	-10.8887
neatsižvelgia	-10.8901
technologin	-10.8919
susisiekim	-10.8919
vadovauti	-10.8919
prisidėjo	-10.892
manyti	-10.8922
sudan	-10.8927
kompetencijo	-10.893
tunis	-10.8931
įtrauktos	-10.8939
naudojami	-10.8939
susitar	-10.8948
įgyvendinama	-10.8963
post	-10.8965
apsi	-10.897
komisare	-10.897
nustatytos	-10.8984
struktūros	-10.8988
prisideda	-10.8988
pasiekim	-10.9002
abi	-10.9002
atvirai	-10.9002
praktika	-10.9008
vykdom	-10.9011
pripažįsta	-10.902
dalyvauja	-10.9021
patikrinim	-10.9025
diskutuojam	-10.9026
vienodo	-10.9041
kelion	-10.9043
mažų	-10.9045
mokyklos	-10.9046
kelianči	-10.9059
dž	-10.906
esnės	-10.906
įgyvendinta	-10.9062
motinyst	-10.9077
einanti	-10.9082
gavo	-10.9092
apimt	-10.9101
asmenim	-10.9104
mok	-10.9107
aug	-10.912
įgyvendinam	-10.9121
parod	-10.913
laikymo	-10.9134
britanijo	-10.9139
reikšt	-10.9142
tad	-10.9145
ėm	-10.9152
esanči	-10.917
judėt	-10.9172
ac	-10.9172
nės	-10.9173
davo	-10.9184
abu	-10.922
atsirad	-10.9221
atitikti	-10.9221
mokėt	-10.9232
por	-10.9235
šv	-10.9239
kil	-10.9239
konkrečios	-10.9239
kultūra	-10.9253
tvirt	-10.9257
met	-10.9258
užsi	-10.9259
pasiūlyta	-10.9262
pasiraš	-10.9266
subsidij	-10.9279
teikiant	-10.9279
pirmenyb	-10.9289
potvyni	-10.9289
tūkstant	-10.9289
nuostoli	-10.929
informavim	-10.929
pridur	-10.929
remdamasi	-10.929
fondai	-10.9293
virš	-10.9294
įvedim	-10.9302
plačiai	-10.9302
ženklinim	-10.9303
nato	-10.9305
dėkinga	-10.9311
dalyvavo	-10.9313
oficiali	-10.9314
supratim	-10.9315
atsisak	-10.9319
užtikrinama	-10.9328
ryžtingai	-10.9331
bendr	-10.9331
tun	-10.9353
trukmė	-10.9356
ketvirta	-10.936
ketin	-10.9363
verčia	-10.9365
apribojim	-10.9373
kel	-10.9373
biologin	-10.9375
paklaus	-10.9392
geriausi	-10.9396
škum	-10.9397
patent	-10.9398
papildomų	-10.9403
jung	-10.9415
yti	-10.9417
raginam	-10.9419
valdyt	-10.9443
atlikta	-10.9448
laisve	-10.9455
politine	-10.9466
sena	-10.9475
kredito	-10.948
ras	-10.9483
partneriai	-10.9483
nepamiršt	-10.9487
peln	-10.9497
strategini	-10.9499
ketinam	-10.9503
pon	-10.9505
saugi	-10.951
norėjo	-10.9511
aukom	-10.9513
dirbančių	-10.9517
internetu	-10.9524
regionu	-10.9528
naikinim	-10.9541
pažad	-10.9544
susidar	-10.9555
dokumentai	-10.9566
kaino	-10.9569
išskirtin	-10.9572
matė	-10.9576
linij	-10.9577
stiprina	-10.9589
įgūdži	-10.9596
statybo	-10.9599
vos	-10.9602
išlikt	-10.9612
komisar	-10.9619
patvirtint	-10.9626
lank	-10.9626
misijo	-10.9662
išsakyt	-10.9663
žvej	-10.9667
reikšm	-10.9668
milijard	-10.9674
nyderland	-10.9674
taupym	-10.9674
žaisl	-10.9674
civilinės	-10.9674
patikrint	-10.9675
pasieni	-10.9676
▁¦26	-10.9676
▁¦24	-10.9676
▁¦2000	-10.9677
gavėj	-10.9678
įgyt	-10.9678
vadinama	-10.9693
akr	-10.9704
palengvint	-10.9716
he	-10.9719
forum	-10.972
sukelianči	-10.9725
galv	-10.9731
mon	-10.9735
ėti	-10.9739
ber	-10.9739
vali	-10.9741
taisyklėm	-10.9751
tvirtą	-10.9758
institucin	-10.9763
naujoj	-10.9782
specialist	-10.9793
nemaža	-10.9794
pradžia	-10.9796
mer	-10.9801
pavojinga	-10.9802
išmetam	-10.9805
supranta	-10.9811
jungtin	-10.9814
prasidėj	-10.9822
uždaryt	-10.9822
imu	-10.9829
sąskaita	-10.984
procent	-10.9847
nuspręst	-10.9849
socialiniu	-10.9853
nereikė	-10.9863
pasirod	-10.9866
pasku	-10.9866
pasirašyt	-10.987
priklausomyb	-10.9871
paverst	-10.988
kryp	-10.9889
integruot	-10.989
viening	-10.989
galvoj	-10.9897
teisėj	-10.9899
atliekam	-10.9906
rinkimu	-10.9917
savi	-10.9926
savarankiška	-10.9934
atstovauja	-10.994
koordinuot	-10.9944
kandidat	-10.9948
lių	-10.9953
liga	-10.9958
istorini	-10.9967
valstijos	-10.9985
kasmet	-10.9986
vilti	-10.9995
baig	-11.0004
ienos	-11.0006
likim	-11.0009
konkrečiu	-11.001
inimo	-11.0028
rūpi	-11.0031
ministra	-11.0036
stoti	-11.0044
regionini	-11.0046
nčiu	-11.0055
demokratin	-11.0059
ky	-11.0071
apmokestinim	-11.0074
dioksid	-11.0074
london	-11.0074
skrydži	-11.0074
valdysen	-11.0074
padėči	-11.0074
pardavim	-11.0074
ištaisyt	-11.0074
pašar	-11.0075
tokiai	-11.0075
papildyt	-11.0077
vidutinės	-11.0078
investuotoj	-11.008
garantuot	-11.0083
pobūd	-11.0084
paveik	-11.0085
indėl	-11.0089
sąveik	-11.0092
nusikalstamum	-11.0095
viešai	-11.0101
buvę	-11.0101
sutiko	-11.0102
ombudsmen	-11.0105
san	-11.011
nagrinėt	-11.0111
vykusi	-11.0118
vykstant	-11.0126
gim	-11.0128
įvykusi	-11.0133
sukuria	-11.0143
jk	-11.0145
atsakingos	-11.0145
paaiškinim	-11.0153
duoda	-11.0156
svarbesni	-11.0159
lygiai	-11.0165
nviena	-11.0169
išmetim	-11.0181
vengrija	-11.0189
balsuoj	-11.0206
turinti	-11.0206
ligo	-11.0209
nys	-11.021
pašt	-11.021
patyr	-11.0211
paspartint	-11.0214
pabrėžia	-11.0217
sunk	-11.0234
skyri	-11.0237
oficial	-11.0247
susiet	-11.0253
planuot	-11.0256
nie	-11.0257
išsamia	-11.0261
vadovai	-11.0267
tariam	-11.0268
ankst	-11.0269
įsteigt	-11.0269
nežino	-11.0271
įgyvendint	-11.0276
ho	-11.0277
jungtinėm	-11.0284
išvados	-11.0291
gerbti	-11.0294
aptariam	-11.0318
tikr	-11.0325
praš	-11.0326
sąskait	-11.0329
moksliniai	-11.0333
įsigalioj	-11.0341
interesai	-11.0347
migrant	-11.0353
nustatom	-11.036
susilaik	-11.036
efektyvi	-11.037
naujausi	-11.0373
gan	-11.0382
grupe	-11.0387
teritorijos	-11.0388
naikin	-11.0394
prašyti	-11.0396
išplėsti	-11.0397
veiksmingesn	-11.0405
pirmoj	-11.0406
site	-11.0407
savaim	-11.0408
kiekvienai	-11.0416
diskriminacija	-11.0422
knyg	-11.0431
prog	-11.0448
sprendžiam	-11.0454
tęsi	-11.0454
eib	-11.0462
gue	-11.0471
nepriklausoma	-11.0473
15	-11.0477
dažniausi	-11.0478
dešimtmet	-11.0478
trukd	-11.0479
įprasta	-11.0486
gen	-11.049
gelbė	-11.0491
belgijo	-11.0491
neišvengiama	-11.0491
stebėtoj	-11.0491
savinink	-11.0491
avarij	-11.0491
apgalvot	-11.0491
keliant	-11.0496
šiom	-11.0501
mažėja	-11.051
laukt	-11.0513
derėt	-11.0523
liberalų	-11.0524
lie	-11.0525
▁¦199	-11.0528
jūroje	-11.0532
išimti	-11.0536
gyven	-11.0539
kategorij	-11.0549
milijonai	-11.0551
dur	-11.0551
pageidaujam	-11.0551
teritorin	-11.0556
įdomu	-11.0558
užtikrin	-11.057
ūkininkai	-11.0571
gimt	-11.0573
pakankam	-11.0574
asmenišk	-11.0588
airija	-11.0593
grįž	-11.0606
stabili	-11.0617
likusi	-11.0619
generalini	-11.062
keliam	-11.0623
lenkija	-11.0628
inter	-11.0632
rengt	-11.0634
karin	-11.0642
atsižvelgdam	-11.0644
elgesi	-11.0646
nčio	-11.0674
padarys	-11.0681
bendrojo	-11.069
asociacijo	-11.0698
maža	-11.0704
lygin	-11.0711
sąžining	-11.0713
naudojam	-11.0715
lygyb	-11.0719
kong	-11.0728
galios	-11.073
veiksmingiau	-11.0734
skyrim	-11.0748
energetini	-11.0748
apimti	-11.0755
grąžinim	-11.0765
elges	-11.0766
gri	-11.0768
gazo	-11.0777
pranašum	-11.0785
prireik	-11.079
perėjim	-11.0791
naudojama	-11.0793
susipažint	-11.0794
išim	-11.0797
konvencija	-11.08
geriausiai	-11.081
antr	-11.0817
tautos	-11.0828
skaidri	-11.0829
žlug	-11.083
atskiros	-11.0837
vieninga	-11.0857
kon	-11.0869
laikomi	-11.0871
bad	-11.0874
pasitelk	-11.0879
reikalingi	-11.0881
reikalingo	-11.0892
dalys	-11.0893
istorij	-11.0893
iškil	-11.0895
atlik	-11.0895
konferencij	-11.09
sugebėjo	-11.09
sauga	-11.0904
moksliniu	-11.0908
atsakyma	-11.091
aukščiausi	-11.0916
▁¦9	-11.0924
civili	-11.0924
atspindi	-11.0925
ispanija	-11.0925
▁¦2007-201	-11.0926
▁¦2004	-11.0926
įsipareigojo	-11.0928
gyv	-11.0929
mėgin	-11.0933
arešt	-11.0934
gerbiamie	-11.0943
gerinim	-11.0944
orum	-11.0948
parduot	-11.0949
išlieka	-11.0951
islam	-11.0966
komand	-11.0969
iausia	-11.0974
vykdo	-11.0975
žym	-11.0977
bendri	-11.0984
būdama	-11.0988
ieško	-11.0994
sveikata	-11.1016
metodu	-11.1016
suderinta	-11.1018
bendrovėm	-11.1023
padėtimi	-11.1034
įgaliojimai	-11.1037
atsitik	-11.1044
ankstyv	-11.1055
įsigalio	-11.1055
serbija	-11.1057
rašt	-11.1059
kalėjim	-11.1064
intelektin	-11.1066
projektai	-11.1067
verts	-11.1072
bulgarija	-11.1073
nepritari	-11.1082
bendruomenės	-11.1097
užtikrina	-11.1101
reikšmė	-11.1101
minimali	-11.1107
skatinant	-11.1113
profesinė	-11.1117
gav	-11.1136
dalyvaujant	-11.114
tarptautine	-11.1141
tyn	-11.1142
vykdyt	-11.1165
artim	-11.1166
nagrinėjam	-11.1167
planavim	-11.1175
finansine	-11.1175
kalini	-11.1179
įprast	-11.1192
liberali	-11.1205
globali	-11.1211
energija	-11.1211
mėnesiai	-11.1223
praktiko	-11.1224
oficialia	-11.1228
▁¦80	-11.1231
ėra	-11.1232
rengiam	-11.1232
saugom	-11.1251
iška	-11.1253
raginim	-11.1254
terorist	-11.1258
ekologini	-11.1267
atei	-11.1273
tiesiogin	-11.1276
pavyks	-11.1283
subjekt	-11.1292
ypatinga	-11.1296
svar	-11.13
nutrauk	-11.1301
norm	-11.1307
dvidešimt	-11.1318
efektyvia	-11.1338
jungtinė	-11.1351
ymo	-11.1356
pristat	-11.1363
trūk	-11.1369
pasisek	-11.137
atsako	-11.1378
glaud	-11.1379
produkcij	-11.138
alkoholi	-11.138
pesticid	-11.138
remdami	-11.138
▁¦23	-11.1382
priklausanči	-11.1382
jaunų	-11.1382
tekstil	-11.1383
birmo	-11.1383
mažosiom	-11.1385
▁¦22	-11.1385
slovakijo	-11.1385
priims	-11.1386
vidutinėm	-11.1392
nuoseklum	-11.1393
atgal	-11.1395
remiu	-11.1395
qu	-11.1396
mokymą	-11.1397
indijo	-11.14
socialiniai	-11.14
nukentėjusi	-11.1407
įdiegt	-11.1409
vežim	-11.1416
prisijungim	-11.1428
nepamirš	-11.1428
įmanom	-11.143
derinim	-11.1434
keliama	-11.144
lyderi	-11.1441
pareigūnai	-11.1443
gamyb	-11.1445
viešosio	-11.1445
irak	-11.1461
būst	-11.1463
patvirtintos	-11.1464
turinčių	-11.1468
moka	-11.1472
griežto	-11.1479
sutikt	-11.1483
vietovės	-11.1486
regionai	-11.149
car	-11.1491
naudojimas	-11.1499
įvertinim	-11.1502
istorin	-11.1504
rinkimai	-11.152
nama	-11.1521
radi	-11.1521
vizij	-11.1537
acijos	-11.1547
ati	-11.1553
rat	-11.1554
asmeni	-11.1555
savanorišk	-11.1559
lauki	-11.1572
priežast	-11.1575
len	-11.1603
daliai	-11.1607
partnerė	-11.1615
kroatijo	-11.1617
kūrimą	-11.1622
imasi	-11.1623
atsinaujinančių	-11.1629
mb	-11.1632
tarif	-11.1633
derama	-11.166
akivaizd	-11.1671
įvykiu	-11.1705
valdom	-11.1707
konstruktyv	-11.1712
kokybišk	-11.1716
narkotik	-11.1727
dvišali	-11.173
pel	-11.1736
geri	-11.1738
pateiktu	-11.1738
land	-11.1742
makedonij	-11.1756
paprasta	-11.177
lg	-11.1784
verslinink	-11.1787
gamintoja	-11.1798
derin	-11.1803
asignavim	-11.1808
atsinaujinanči	-11.1815
ūk	-11.1823
metam	-11.1831
ngl	-11.1831
gresia	-11.1834
gina	-11.1835
umu	-11.1836
nant	-11.1839
renka	-11.184
vystymas	-11.1845
veda	-11.1846
vertybė	-11.1853
kelionė	-11.1854
jugoslavij	-11.1856
acqui	-11.1856
aprūpinim	-11.1856
lėktuv	-11.1856
atskaitomyb	-11.1856
naujoves	-11.1856
schem	-11.1856
trečiosios	-11.1857
pasirengim	-11.1857
žaliųjų	-11.1858
save	-11.1858
gėd	-11.1858
uždar	-11.1858
dydži	-11.1859
pasisakym	-11.1859
nelaiming	-11.1859
lan	-11.186
pažeidžiamiausi	-11.1864
ingum	-11.1866
tašk	-11.1869
juk	-11.1871
tiksli	-11.1871
veiksni	-11.1882
biurokratij	-11.1883
įtikin	-11.1886
pamat	-11.1888
užtikrins	-11.1892
vaiko	-11.1894
rin	-11.19
taikomų	-11.19
vaisi	-11.1906
dėjo	-11.1911
▁¦198	-11.1912
šird	-11.1913
laikom	-11.1915
išgyvena	-11.192
didėjanči	-11.1924
įstojim	-11.1925
pasmerkt	-11.1928
gau	-11.1931
misij	-11.1939
išankstini	-11.1943
sąvoka	-11.1943
mokesti	-11.1946
numatyto	-11.1946
antis	-11.195
įsigaliojim	-11.1951
vald	-11.1968
apgint	-11.197
sumažinim	-11.1972
skirtumai	-11.1982
ryš	-11.1987
metinė	-11.1988
ry	-11.1997
kontroliuojam	-11.2001
konstitucini	-11.2002
švar	-11.2002
peržiūr	-11.2012
valdymu	-11.2019
migracija	-11.202
rinkti	-11.2028
kanad	-11.2031
suvokt	-11.2036
uždavin	-11.2037
išorini	-11.2038
užduot	-11.2043
priklausy	-11.2044
blok	-11.2047
dirbant	-11.2052
energetin	-11.2054
tenkina	-11.2055
lemia	-11.2058
elektronini	-11.2065
daugia	-11.2065
mė	-11.2068
uždavini	-11.2068
sudar	-11.207
teko	-11.2076
rado	-11.2079
derybom	-11.2082
smurtu	-11.2084
ministre	-11.2087
ppo	-11.2096
atitinkamos	-11.211
pastara	-11.211
kari	-11.2118
▁¦60	-11.2124
susijus	-11.2125
atsinaujinančios	-11.2133
priima	-11.2138
laipsniška	-11.2141
iausių	-11.2146
avimą	-11.2154
reikalai	-11.2163
veiksn	-11.2163
įgaliotin	-11.2164
neleisti	-11.2175
finansuojam	-11.2176
kortel	-11.2181
atsižvelgiam	-11.2193
neteisėta	-11.2195
nepriklausomyb	-11.2198
baud	-11.2198
teisėt	-11.2223
atidėt	-11.2229
prievart	-11.223
kelios	-11.2235
institucini	-11.2238
trūkumu	-11.2239
sunkumai	-11.2241
tarptautiniai	-11.2244
sujungt	-11.225
apibrėžt	-11.2281
lauk	-11.2286
imtų	-11.2298
balsuojam	-11.23
gamtos	-11.2306
praeiti	-11.231
išimtin	-11.2312
universitet	-11.2319
aspekta	-11.2321
įvykt	-11.2322
žurnalist	-11.2322
ilgiau	-11.2322
atsipraš	-11.2323
pačia	-11.2332
pavadinim	-11.2333
žali	-11.2335
iškėl	-11.2337
kaina	-11.2343
daugum	-11.235
vertinimu	-11.235
reguliuot	-11.2353
tikėtina	-11.2354
▁¦200	-11.2356
personal	-11.2356
televizij	-11.2356
transatlantin	-11.2356
bosnijo	-11.2356
aštuoni	-11.2356
gyvuli	-11.2356
politiška	-11.2356
komentar	-11.2358
nusprendžia	-11.2359
parody	-11.2361
pirmiau	-11.2363
sudedam	-11.2364
žaling	-11.2366
išsaugojim	-11.2366
laikysi	-11.237
pabrėžė	-11.2372
padėjo	-11.2375
papildoma	-11.2378
paskirti	-11.2386
jaučia	-11.2387
įrodyt	-11.24
privatum	-11.2401
neatitinka	-11.2401
ekonomišk	-11.2403
tikrovė	-11.2404
atnaujinim	-11.2404
praktik	-11.2405
ilgalaikė	-11.2408
gyvenam	-11.2419
dalyku	-11.242
komitetu	-11.2421
funkcij	-11.2422
priešingu	-11.2429
ingai	-11.2438
jokiu	-11.2439
augal	-11.244
konstitucijos	-11.2445
gyvenančių	-11.2469
miršta	-11.2475
nic	-11.2476
nenu	-11.2477
griežtesni	-11.2479
rekomendacijos	-11.2495
leidžiant	-11.2503
dalyvi	-11.2504
tinkamo	-11.2517
lemiam	-11.2517
teisėtai	-11.2519
del	-11.2546
įtvirtinta	-11.2554
imsi	-11.2557
visuotini	-11.2558
dera	-11.256
struktūra	-11.2563
delegacijo	-11.2573
jausm	-11.2574
priimtos	-11.2575
kitu	-11.2577
būsima	-11.2584
deficit	-11.2595
skirtingos	-11.2604
erdvė	-11.2609
teisiniu	-11.261
verslu	-11.261
grąžint	-11.2614
ėjusi	-11.2624
ad	-11.2625
delegacija	-11.2628
grandin	-11.2629
milžinišk	-11.2632
tinkamos	-11.2648
ved	-11.2648
grupė	-11.265
amžiu	-11.2653
pried	-11.2655
įtikint	-11.2662
esanti	-11.2665
mažinam	-11.2668
pelno	-11.267
rami	-11.2672
chartijo	-11.2672
leid	-11.2676
numat	-11.2678
prioritetini	-11.2686
pripažįstama	-11.2691
dabartine	-11.2693
išreišk	-11.2695
ištirt	-11.2708
priimam	-11.2708
lėm	-11.271
blogiau	-11.2716
br	-11.2724
imui	-11.2726
▁¦0,	-11.273
džiu	-11.2739
mažos	-11.2743
rėmim	-11.2749
tendencij	-11.2753
biologinė	-11.2761
palik	-11.2762
jauni	-11.2773
ėjim	-11.2783
atkreipia	-11.2786
neb	-11.2791
paaiškina	-11.2801
paaiškinima	-11.2802
pastebėj	-11.2816
parodo	-11.2823
panašu	-11.2827
laukiam	-11.2828
mc	-11.2834
mažą	-11.2835
kenkia	-11.284
tradicij	-11.2842
atmet	-11.2843
arab	-11.2848
atsiranda	-11.2858
tvirtina	-11.2859
pasaky	-11.2862
skyr	-11.287
iausios	-11.2874
pavaduotoj	-11.2879
dideliu	-11.2879
ruož	-11.2881
sveikintina	-11.2882
apčiuopiam	-11.2883
draudžiama	-11.2883
drebėjim	-11.2883
dujotieki	-11.2883
intervencij	-11.2883
kompensacij	-11.2883
mobilum	-11.2883
persekiojim	-11.2883
protekcionizm	-11.2883
susidoro	-11.2883
išgird	-11.2883
krauj	-11.2883
ramst	-11.2884
piktnaudžiavim	-11.2885
švies	-11.2886
šimtai	-11.2886
pagalvot	-11.2887
kanal	-11.2887
mažinant	-11.2889
ženkla	-11.2897
varom	-11.2898
susidomėjim	-11.2898
antroj	-11.2898
verting	-11.29
arkti	-11.2902
kampanij	-11.2923
ėjimas	-11.2937
sumažinta	-11.2951
vin	-11.2954
reaguoja	-11.296
rizika	-11.2963
ind	-11.2969
atitinkanči	-11.2969
atsidūr	-11.297
vieni	-11.297
pastebėt	-11.297
varg	-11.2982
fakto	-11.2986
čekija	-11.2992
salė	-11.3009
sutartys	-11.3016
vykdomas	-11.3016
prašoma	-11.3019
religini	-11.3026
vertinant	-11.3035
asmenin	-11.3035
bendruomen	-11.3043
darbe	-11.3044
vykdomos	-11.306
bankai	-11.3063
duot	-11.3064
poli	-11.3079
gerbiamas	-11.3079
protest	-11.308
teikėj	-11.3094
tar	-11.3098
lenk	-11.3099
pasisakyt	-11.31
tikro	-11.3103
mažina	-11.3107
model	-11.3115
susidūr	-11.3119
pateikia	-11.3123
ėjimo	-11.3125
infrastruktūra	-11.3125
teks	-11.3128
pateiksi	-11.313
stamb	-11.3134
apibrėžim	-11.3134
acij	-11.3142
pažeidimai	-11.3152
pareišk	-11.3157
saky	-11.3178
ekosistem	-11.3182
reng	-11.3193
žiūrėt	-11.3193
gra	-11.32
intensyv	-11.3207
sociali	-11.321
žvejyba	-11.3211
kurd	-11.3214
minimal	-11.3217
remiant	-11.3222
kan	-11.3238
vadina	-11.3247
teisėto	-11.325
palestino	-11.3264
apgailestau	-11.3272
operatori	-11.3274
kalbėt	-11.3279
pse	-11.3283
demokratiška	-11.329
kompetenting	-11.3292
kūr	-11.3309
pasiekė	-11.331
lengvat	-11.3311
panaš	-11.3312
ryžting	-11.3317
der	-11.3321
gale	-11.3321
turk	-11.3323
trump	-11.3336
ekologišk	-11.3337
būtinybė	-11.3344
ieškot	-11.3365
ženg	-11.3375
elgia	-11.3387
gy	-11.3389
bėg	-11.339
sprag	-11.3399
valanda	-11.3403
siunčia	-11.3407
geresnė	-11.341
dvigub	-11.3412
tarsi	-11.3423
metin	-11.343
dažniau	-11.3435
ribojim	-11.3437
è	-11.3438
diegim	-11.3438
dimensij	-11.3438
kvalifikuot	-11.3438
nekantri	-11.3438
padengt	-11.3438
pažeist	-11.3438
premij	-11.3438
įsipareigojusi	-11.3438
vadinamąj	-11.3438
orientuot	-11.3438
prisiėm	-11.3438
nuostab	-11.3438
kūn	-11.3439
did	-11.3439
taikydam	-11.3439
traukia	-11.344
prašom	-11.344
išdavim	-11.3441
grupėm	-11.3442
išsiaiškinti	-11.3442
skurdžiausi	-11.3443
serga	-11.3445
galvot	-11.3445
bendruomene	-11.3445
nelaim	-11.3453
cikl	-11.3459
atsitikim	-11.3466
bal	-11.3473
degal	-11.3474
gv	-11.3474
priešing	-11.3476
mokslinink	-11.3476
paminėjo	-11.348
pradini	-11.3481
atviro	-11.3486
turinčios	-11.349
europiečiai	-11.349
kampanijos	-11.3495
perkelt	-11.3498
aktuali	-11.35
baigiant	-11.3501
nga	-11.3501
nustatoma	-11.3503
prekėm	-11.3512
šak	-11.3513
antrąj	-11.3518
džiaugiam	-11.352
laikanti	-11.3526
suteikiant	-11.353
trumpą	-11.3536
ministru	-11.3539
gir	-11.3546
pokyčiai	-11.3551
mieste	-11.3551
prašo	-11.3551
atlikus	-11.3559
tęs	-11.357
veikėj	-11.357
klaida	-11.3571
didėjant	-11.3572
laikai	-11.358
aplinkybe	-11.3583
objekt	-11.3587
pagrindinėm	-11.3588
moldovo	-11.3597
pirmini	-11.3597
chartija	-11.36
ankstesn	-11.3602
ran	-11.3603
nepriimtin	-11.3606
prasmė	-11.3614
situacijos	-11.3617
cr	-11.3623
bendrais	-11.3629
praktin	-11.3631
kažka	-11.3632
simboli	-11.3649
reišk	-11.365
mint	-11.3656
pateiktos	-11.3668
moralin	-11.3668
dokumentu	-11.3674
greito	-11.3683
tėv	-11.3683
mato	-11.3684
esnė	-11.3685
centrinė	-11.3688
prot	-11.3696
kilm	-11.3698
suvok	-11.3704
ratifikuot	-11.3707
negalės	-11.3708
skiriant	-11.3708
vystyti	-11.3711
atsakingi	-11.3715
liks	-11.3715
kuro	-11.3722
išties	-11.3743
ša	-11.3745
sugebėsi	-11.3773
alternatyv	-11.3774
kli	-11.3775
konferencija	-11.3784
girdėj	-11.379
įmone	-11.3805
žvejyb	-11.3816
proting	-11.3826
kio	-11.3841
valia	-11.3844
niai	-11.3851
veiksmingo	-11.3868
pasauliniu	-11.3872
riba	-11.3888
užima	-11.3898
biur	-11.3906
gerov	-11.3907
pasiektu	-11.3914
kompromisin	-11.3924
karalyst	-11.3926
atsakingai	-11.3926
ah	-11.3928
kažk	-11.3929
plėtoj	-11.3935
parlamentinė	-11.3942
išsivysčiusi	-11.3952
trim	-11.3959
regioniniu	-11.396
auja	-11.3962
pakeit	-11.3971
galiojim	-11.3978
kompetencij	-11.399
bando	-11.3993
garb	-11.3993
kilim	-11.3996
artėja	-11.4
turting	-11.4003
pilietin	-11.4006
tini	-11.4009
aiškinim	-11.4013
motyv	-11.4015
laikydam	-11.4023
bendradarbia	-11.4023
savę	-11.4026
užuojaut	-11.4026
atšilim	-11.4026
kaukaz	-11.4026
palūkan	-11.4026
siaubing	-11.4026
stokholm	-11.4026
ström	-11.4026
komunist	-11.4026
popieri	-11.4026
praranda	-11.4026
girdim	-11.4026
klastojim	-11.4026
gaisr	-11.4027
darbdavi	-11.4027
primena	-11.4027
atsakydama	-11.4027
ketvirtadien	-11.4028
preke	-11.4028
haiči	-11.4028
dvejop	-11.4033
auginim	-11.4033
martin	-11.4034
vaidin	-11.4034
didžiąj	-11.4034
linkiu	-11.4036
atvyksta	-11.4039
kritik	-11.4045
sutaupyt	-11.4046
atsisakym	-11.4046
įrengini	-11.4046
vyriausioj	-11.4048
leidėj	-11.405
naujovišk	-11.4052
parlamentin	-11.4053
perkelti	-11.4053
apskait	-11.4054
aukštesni	-11.4058
bankinink	-11.4058
kreipia	-11.4062
užtikrinanči	-11.4063
bg	-11.4066
autoriu	-11.4073
antrą	-11.4076
technin	-11.4079
sprendžiama	-11.4084
veiksniai	-11.4084
rašytinia	-11.4088
klo	-11.4096
profesin	-11.4096
nusprendė	-11.4102
pranešimai	-11.4102
tvario	-11.4109
raid	-11.4114
įstaigos	-11.4125
den	-11.4133
žv	-11.4142
teigt	-11.4147
pasauliu	-11.4155
argument	-11.4158
vienyb	-11.416
savanoriška	-11.4163
baim	-11.4167
sutar	-11.4172
lytie	-11.4176
brang	-11.4178
kroatija	-11.4188
kolektyvini	-11.4207
platesni	-11.4207
usiai	-11.4227
nemokam	-11.4233
atitinkama	-11.4239
gili	-11.4243
įvair	-11.4256
girdėjo	-11.4269
pradėta	-11.4276
atvyko	-11.4279
sesij	-11.4281
minut	-11.4283
pasirūpint	-11.4298
grindžiam	-11.4303
specifin	-11.4305
libij	-11.4307
nagrinė	-11.431
įvertin	-11.4317
avi	-11.4318
sumažė	-11.432
taiki	-11.4326
mechanizmu	-11.4336
subalansuot	-11.4337
fakta	-11.4343
pradedan	-11.4349
administracini	-11.4355
motin	-11.4355
avimu	-11.4356
ec	-11.4358
vandenyn	-11.436
plači	-11.4361
uota	-11.4367
struktūriniai	-11.437
minu	-11.4372
inami	-11.4389
atliekama	-11.4391
diskusijom	-11.4392
vengti	-11.4395
vair	-11.4396
ančia	-11.4407
žių	-11.4415
paketu	-11.4425
tikimas	-11.4427
bendruomeni	-11.4427
cc	-11.444
tokiom	-11.4449
iškas	-11.446
for	-11.4468
pritarta	-11.4469
jose	-11.4474
paprast	-11.4476
didelėm	-11.4477
sudėt	-11.4482
imigracija	-11.4487
šeima	-11.4494
spręs	-11.4501
vietov	-11.4522
esančių	-11.4523
padėk	-11.4529
papildomo	-11.453
tek	-11.4535
nesąžining	-11.4542
prekė	-11.4569
asmenini	-11.4577
stebi	-11.4582
palengvin	-11.4583
kėl	-11.4607
draug	-11.4614
natūrali	-11.4621
problemom	-11.4634
objektyv	-11.4636
minima	-11.4641
narei	-11.4648
skatins	-11.4649
mikro	-11.4651
horizontal	-11.4651
licencij	-11.4651
gydym	-11.4651
organizavim	-11.4651
prieglobst	-11.4651
schulz	-11.4651
triukšm	-11.4651
parduodam	-11.4651
žaidim	-11.4651
pataisym	-11.4651
pertekli	-11.4651
xx	-11.4651
reikalavo	-11.4651
pabaiga	-11.4651
chemin	-11.4652
keleri	-11.4652
variant	-11.4653
tarpinstitucini	-11.4654
▁¦31	-11.4654
artimiausi	-11.4654
trečiadien	-11.4655
baudžiamosios	-11.4655
▁¦28	-11.4656
austrijo	-11.4656
įtraukiam	-11.4657
piršt	-11.4657
merc	-11.4662
lankst	-11.4663
siejama	-11.4672
kilusi	-11.4674
bandom	-11.4674
nebuvim	-11.4675
neturting	-11.4675
priešina	-11.4676
gavę	-11.4679
neleidžia	-11.4681
pasiryžim	-11.4682
faktai	-11.4682
formos	-11.4684
nauding	-11.4685
galėdama	-11.4687
gamtini	-11.4687
tėvai	-11.4688
teismin	-11.4688
apibrėžta	-11.4693
rodikliai	-11.4695
nepavyks	-11.4695
geresne	-11.4695
bul	-11.4696
cor	-11.4698
bendravim	-11.4701
pakartoti	-11.4703
kla	-11.4704
sukčiavimu	-11.4705
ketinimai	-11.4713
partner	-11.4715
"	-11.473
svarbiau	-11.4739
trečdali	-11.4742
reguliuojam	-11.4744
pažvelgt	-11.4759
pertrauk	-11.476
pirmin	-11.4766
suprantame	-11.4777
▁¦1,	-11.4784
biuro	-11.4785
žmogišk	-11.4786
prižiūrėt	-11.4798
siekianči	-11.4798
30	-11.4806
kitok	-11.4806
konstruktyvi	-11.4808
ren	-11.4817
pastaroj	-11.4822
tęsia	-11.483
eg	-11.4832
rodikli	-11.4833
smulk	-11.4845
vertim	-11.485
monopolij	-11.4859
atitik	-11.4865
reformuot	-11.4866
nurodo	-11.4874
įtraukim	-11.4875
statyb	-11.4875
eno	-11.4879
tokiam	-11.4885
pažįsta	-11.4885
nustato	-11.4885
pagrindinį	-11.4886
atstovavim	-11.4887
ateinančiu	-11.4893
analizė	-11.4905
neteisėtai	-11.4935
nepriklausomybė	-11.4937
pusėj	-11.4944
integracija	-11.4945
trik	-11.4946
vadovavim	-11.4946
sveiko	-11.4949
aplinkyb	-11.4951
reg	-11.4951
nacionaline	-11.4954
kliūt	-11.496
teisį	-11.4961
išlyg	-11.498
nesutink	-11.498
ruošia	-11.4985
krant	-11.4986
dyd	-11.499
pažangio	-11.4991
dvišaliu	-11.4994
eilė	-11.4995
sudėti	-11.5006
surinkt	-11.5006
įsipareigojimai	-11.5015
žengia	-11.5023
krypt	-11.5028
aiškum	-11.5043
pilieti	-11.5047
fondu	-11.5049
žudym	-11.5051
žu	-11.5058
naujojo	-11.5058
turėdam	-11.5067
gre	-11.5067
naująj	-11.5067
vienoda	-11.5072
tobulint	-11.5082
kompromisa	-11.5084
izacijos	-11.5086
vidutin	-11.5087
paminė	-11.5091
dirbanči	-11.5095
sunkiau	-11.51
pr	-11.5102
nuoseklia	-11.5107
ron	-11.5107
turėdama	-11.5112
baigia	-11.5118
pratęst	-11.5124
katastrof	-11.5137
kūrimui	-11.5139
būtini	-11.5143
pripažinta	-11.5144
vietini	-11.5152
brangi	-11.5157
band	-11.5168
sąlygom	-11.5171
nacionaliniai	-11.5173
pajėgumu	-11.5176
padidė	-11.518
skyriu	-11.5189
nukreipta	-11.5198
savaite	-11.5199
atsirast	-11.5201
karto	-11.5217
stengia	-11.5221
pereinam	-11.5223
kartoju	-11.523
žymia	-11.524
nesėkm	-11.5243
vel	-11.5255
įvairiai	-11.5256
užsien	-11.5262
priėmus	-11.5267
didė	-11.5271
reikš	-11.5277
dabartiniam	-11.5284
priimtin	-11.5287
įgyvendin	-11.5295
pareikalaut	-11.5298
auga	-11.5304
skirstym	-11.5306
apibūdin	-11.5309
tyl	-11.5311
stre	-11.5311
masini	-11.5312
smulki	-11.5312
rė	-11.5313
pažiūr	-11.5314
vertinga	-11.5316
rekomenduo	-11.5316
slapt	-11.5317
atspindėt	-11.5318
australij	-11.5318
demonstracij	-11.5318
demping	-11.5318
dirvožemi	-11.5318
farmaci	-11.5318
nepilnameči	-11.5318
paryži	-11.5318
paskirstyt	-11.5318
prasideda	-11.5318
studij	-11.5318
suinteresuotų	-11.5318
telefon	-11.5318
telekomunikacij	-11.5318
mityb	-11.5318
rezerv	-11.5318
būkl	-11.5318
europietišk	-11.5318
kvieči	-11.5318
testavim	-11.5318
apdair	-11.5318
dalyvaus	-11.5318
pjū	-11.5318
nepalankiausi	-11.5318
korėja	-11.5318
korėjo	-11.5318
marok	-11.5319
liečia	-11.5321
▁¦142	-11.5323
slovėnijo	-11.5323
atvert	-11.5324
administracin	-11.5327
metr	-11.5331
gairės	-11.5333
suderinamum	-11.5336
trunka	-11.5339
nurodoma	-11.534
ratifikavo	-11.534
donor	-11.534
geneti	-11.5342
platesn	-11.5344
investavim	-11.5345
dvigubai	-11.5349
kovoja	-11.5351
dalyviai	-11.5352
dėk	-11.5354
delegacij	-11.5358
nežina	-11.5361
išbandym	-11.5369
taikiai	-11.5369
nesutarim	-11.538
teisėtum	-11.5383
sumokėt	-11.5386
reguliari	-11.5386
vidury	-11.539
graž	-11.5395
amži	-11.5407
demokratišk	-11.5419
skubiau	-11.5422
plėtojim	-11.5422
nepaprast	-11.5423
nurodė	-11.5424
nuosmuki	-11.5424
perspektyva	-11.5426
pripažino	-11.5427
)	-11.5429
organizuoti	-11.5432
atliekant	-11.5441
priimtina	-11.5442
tibet	-11.5442
švedija	-11.5447
▁¦35	-11.5448
formuoti	-11.5457
valiut	-11.5464
nepritaria	-11.5464
asamblėjo	-11.5469
skatinam	-11.5476
tebe	-11.5479
tarti	-11.548
mirči	-11.5485
formal	-11.5494
operacijos	-11.5496
pareigos	-11.5497
buvim	-11.5498
mokėtoja	-11.5498
vykdomą	-11.5505
audo	-11.5506
metodas	-11.5508
užmokest	-11.5528
vieningo	-11.5537
padedant	-11.5549
išlik	-11.5552
pamatini	-11.5552
mokest	-11.5554
institut	-11.5556
lk	-11.556
aren	-11.5561
daugėja	-11.5562
paraišk	-11.557
pil	-11.5573
prival	-11.5576
prisi	-11.5584
pusiausvyra	-11.5584
:	-11.5593
tradicini	-11.5595
skelbiam	-11.5596
institucij	-11.56
vaistai	-11.561
kaln	-11.5638
pakenkt	-11.5645
turinči	-11.5652
vadovaujam	-11.5653
lengv	-11.5654
sutelk	-11.5659
išaiškint	-11.5661
kartos	-11.5662
prezidentu	-11.5671
antrojo	-11.5672
iššūk	-11.5673
neteising	-11.5677
iausiai	-11.5677
prieštaring	-11.5681
nedideli	-11.569
mokesčiai	-11.5692
laf	-11.5692
prezidenta	-11.5693
naujom	-11.5693
bylos	-11.5694
būsi	-11.5717
investicijom	-11.5725
vartojam	-11.5734
pradin	-11.5742
kubo	-11.5742
būsimą	-11.5752
nagrinėjama	-11.5754
ana	-11.5755
nutik	-11.5757
stabil	-11.576
rank	-11.5766
debat	-11.5767
išnaudot	-11.5773
skirtingi	-11.5775
mokė	-11.5782
numatom	-11.5793
amerik	-11.5796
patiriam	-11.5814
iešk	-11.5815
laikoma	-11.5816
papildomai	-11.582
įvyks	-11.5822
prognoz	-11.5832
cha	-11.5844
trečias	-11.5853
patvirtin	-11.5863
ekonominiam	-11.5863
įstatymai	-11.5864
einant	-11.5872
pastebim	-11.5873
gerbiami	-11.5887
įnaš	-11.5896
planet	-11.59
uojama	-11.5905
tikrov	-11.5907
patraukl	-11.5907
ribota	-11.5909
neš	-11.5911
konkuruo	-11.5912
daryt	-11.5916
and	-11.5918
▁¦90	-11.5919
karinė	-11.594
steng	-11.5942
ilga	-11.5958
tarpvalstybin	-11.596
prisiima	-11.5965
paprastų	-11.5976
derėti	-11.5976
tikėjim	-11.598
era	-11.6001
cz	-11.6008
pažymėj	-11.6008
bat	-11.601
avimas	-11.6018
moderni	-11.6028
darbai	-11.603
mobili	-11.6032
orientacij	-11.6032
ü	-11.6032
diktatori	-11.6032
novatorišk	-11.6032
statykl	-11.6032
suverenum	-11.6032
vokieči	-11.6032
barselono	-11.6032
besivystančių	-11.6032
išplėtim	-11.6032
juodkalnijo	-11.6032
kankinim	-11.6032
banan	-11.6032
biodegal	-11.6032
gynėj	-11.6032
reglamentuojanči	-11.6032
stabilizavim	-11.6032
viršūn	-11.6032
išsilavinim	-11.6032
neramum	-11.6032
dunoj	-11.6032
nagrinėjim	-11.6032
gelbėjim	-11.6033
abipusiškum	-11.6033
tikėki	-11.6033
pasirinko	-11.6033
grob	-11.6033
įvaikinim	-11.6033
plačiajuos	-11.6033
vadinamoj	-11.6033
stebina	-11.6034
atsilieka	-11.6034
daržov	-11.6034
▁¦2002	-11.6034
ramsči	-11.6034
egf	-11.6034
laivyn	-11.6035
klient	-11.6035
pasirengt	-11.6035
įtraukiant	-11.6035
rengim	-11.6035
ankstesnio	-11.6036
vežėj	-11.6036
restruktūrizavim	-11.6036
eksploatavim	-11.6036
▁¦29	-11.6037
geopolitin	-11.604
didėjim	-11.6041
bendruomenė	-11.6042
lytin	-11.6043
išsiųst	-11.6043
mažosios	-11.6045
ekonominiai	-11.6049
aids	-11.6054
bang	-11.6068
dabartiniu	-11.6071
nepalankio	-11.6074
nesugebėjo	-11.6075
mari	-11.6075
įrod	-11.6076
byla	-11.6078
valand	-11.6079
akis	-11.6081
atmesti	-11.6087
aktyviau	-11.6088
keliaut	-11.6093
imeri	-11.6095
respublika	-11.6099
neteisinga	-11.6103
teroristai	-11.6107
jautri	-11.6111
tūkstančiai	-11.6113
ūky	-11.6113
skatinanči	-11.6114
negalėjo	-11.6116
gruzija	-11.6121
bau	-11.6123
jokia	-11.6126
plane	-11.6127
nukentėj	-11.613
bendrij	-11.6133
elektroninė	-11.6137
baisi	-11.6145
pacientai	-11.6147
elektrinės	-11.6151
logiška	-11.6158
kairi	-11.6163
nutraukim	-11.6164
temos	-11.6164
misija	-11.6169
viešąj	-11.6177
ymas	-11.618
bor	-11.6186
lietuvo	-11.6203
temp	-11.6205
atstovaujama	-11.6207
teigė	-11.621
lyn	-11.622
vokietija	-11.6222
esančios	-11.6224
atrank	-11.6225
panašiai	-11.6226
nuoroda	-11.6226
atskirt	-11.6233
ryšiu	-11.6237
ūkininkavim	-11.6243
vizit	-11.6244
administracinė	-11.6244
auganči	-11.6247
prisijung	-11.6253
fizini	-11.626
galvoja	-11.6266
greičiausi	-11.627
kalbėdam	-11.6285
paremta	-11.6296
vartoja	-11.6296
visum	-11.6297
surinkim	-11.63
karas	-11.6305
keitimo	-11.6311
sukčiavim	-11.6313
remiamas	-11.6314
tinkamum	-11.6318
teik	-11.6324
vyrai	-11.6332
vadovauja	-11.634
ateinanči	-11.6359
balsuos	-11.6362
▁¦300	-11.6362
plenarini	-11.6364
lin	-11.6376
darbin	-11.6377
prieštaraut	-11.638
hol	-11.6383
baigė	-11.6383
poreikiai	-11.6387
techninė	-11.6396
ininkai	-11.6398
skaitmenini	-11.6402
išmetamo	-11.6405
įgyvendinamo	-11.6405
buvusios	-11.6429
pilietini	-11.643
rusij	-11.6443
nuoširdži	-11.6444
dingst	-11.6445
specifini	-11.6445
stal	-11.6453
įgyvendindam	-11.6458
nemat	-11.6463
pen	-11.6466
akl	-11.6468
galiot	-11.6468
norėdam	-11.6471
prevencija	-11.6474
tragedij	-11.6475
nedelsdam	-11.6479
jaunimu	-11.648
tradicin	-11.6489
alternatyvi	-11.6495
dina	-11.6496
bendroj	-11.6503
nepagrįst	-11.6508
įteisin	-11.6511
žala	-11.6524
ekologin	-11.6536
kalbėdama	-11.6536
tvirta	-11.6539
),	-11.6542
žodin	-11.6543
išreiškia	-11.6549
mil	-11.655
neaišku	-11.6555
skirtinga	-11.656
įrodo	-11.6562
tarptautiniam	-11.6571
džiaugti	-11.6575
sulaikym	-11.6579
meksiko	-11.6586
pakenk	-11.6594
nuosavyb	-11.6595
griežta	-11.66
pateiktam	-11.6601
prisimint	-11.6602
plenariniam	-11.6613
tiesioginė	-11.6617
neatidėliotin	-11.6622
punkta	-11.6625
asamblėj	-11.6629
bra	-11.6629
dalyti	-11.6636
sąžiningo	-11.6637
pasinaudoj	-11.6638
priklausomi	-11.665
alternatyva	-11.6652
siūlyti	-11.6652
mann	-11.6652
visuotinė	-11.6655
atsitiktin	-11.6658
klausiau	-11.6668
skelbti	-11.6671
reikėj	-11.6674
ketvirt	-11.6675
prasidėjus	-11.6675
rodyt	-11.6677
pageidauja	-11.6689
tikėj	-11.6691
demokratinė	-11.6693
represij	-11.6694
atrod	-11.6695
įsipareigo	-11.6696
ker	-11.67
darni	-11.67
panaikinta	-11.6701
etnin	-11.6702
pažeidžia	-11.6704
balsavimu	-11.6714
nuorod	-11.6715
imai	-11.6717
laisvas	-11.6723
veikiant	-11.6731
rengiama	-11.6732
deram	-11.674
profesional	-11.6744
andr	-11.6748
hercegovino	-11.6749
diegt	-11.6753
sprend	-11.6754
prieinama	-11.6755
šiandienini	-11.6764
skaidr	-11.6767
septint	-11.6776
plačiau	-11.6777
tvirtino	-11.6781
kalbėsi	-11.6787
prarast	-11.6788
nustat	-11.6788
milijonu	-11.6788
gul	-11.6793
laukiant	-11.6795
pristatyti	-11.6796
žū	-11.6798
kirst	-11.6798
klausym	-11.6799
naudotoj	-11.6801
pražūting	-11.6801
apytikri	-11.6801
atmosfer	-11.6801
inicijuot	-11.6801
integravim	-11.6801
iškraipym	-11.6801
privačia	-11.6801
privačios	-11.6801
proporcingum	-11.6801
redakcij	-11.6801
suinteresuota	-11.6801
išdėstyti	-11.6801
konkurent	-11.6801
mokytoj	-11.6801
pagreitint	-11.6801
palestinieči	-11.6801
vakcin	-11.6801
ö	-11.6801
dvidegin	-11.6802
sekretoriat	-11.6802
valdžią	-11.6802
žiniasklaida	-11.6802
santuok	-11.6802
slovėnija	-11.6802
gynim	-11.6802
skausm	-11.6802
prilygs	-11.6802
slovakija	-11.6802
suverenitet	-11.6802
susidurt	-11.6802
atlant	-11.6802
centralizuot	-11.6802
paragino	-11.6802
įspėjim	-11.6802
liberalizuot	-11.6802
burg	-11.6802
pasirašiusi	-11.6802
dinamišk	-11.6802
autobus	-11.6803
pakak	-11.6803
apžvalg	-11.6803
reglamentuojama	-11.6803
nusteb	-11.6804
brok	-11.6804
čad	-11.6804
aiškiau	-11.6805
švent	-11.6805
2001	-11.6805
gaminti	-11.6805
doho	-11.6805
rajon	-11.6806
manuel	-11.6806
dem	-11.6807
sudarant	-11.6808
nubaust	-11.6808
valdanči	-11.6808
kūrėj	-11.6809
pamatysi	-11.6809
šu	-11.681
drausm	-11.681
pritariama	-11.6813
susirinkim	-11.6813
seksualin	-11.6813
nesuderinam	-11.6814
prieštaravim	-11.6814
naujajam	-11.6816
žvejot	-11.6818
siūlym	-11.682
pirmadien	-11.6823
vystomoj	-11.6824
naudojimui	-11.6825
nvieno	-11.6825
nusikalstam	-11.6828
kely	-11.6828
pirmininkavusi	-11.6829
gad	-11.6831
organizuot	-11.6835
vežam	-11.6836
bijo	-11.6838
aktyvist	-11.6839
registruot	-11.6839
nerimauj	-11.684
arko	-11.6842
palankesn	-11.6846
būki	-11.6846
atvirum	-11.6849
puoselėja	-11.6854
laisvos	-11.6857
eil	-11.686
importuot	-11.6861
nuspręsta	-11.6861
tikrove	-11.6863
neatsakinga	-11.6865
tobulinim	-11.6867
nešališk	-11.6872
fd	-11.6872
elementa	-11.6872
nepakankam	-11.6872
kompromisu	-11.688
gatvė	-11.688
apribojimai	-11.6881
ribojam	-11.6882
viešą	-11.6889
pareiškė	-11.6894
pasikeitė	-11.6898
išsivysčiusios	-11.6901
skubo	-11.6901
stipriai	-11.6907
kaltinam	-11.6908
patekim	-11.6909
apibrėžia	-11.691
fin	-11.6911
patek	-11.6918
priklausoma	-11.6919
the	-11.6921
liūdna	-11.6922
dra	-11.6937
aiškesn	-11.6938
vertin	-11.6945
virt	-11.6948
netek	-11.695
išlaisvint	-11.6955
ateinančia	-11.696
geriausio	-11.6965
prievarta	-11.6966
lanksči	-11.6972
bai	-11.6986
kk	-11.6987
padidėjim	-11.6992
▁."	-11.6995
nagrinėja	-11.6995
tendencija	-11.6996
pažeidžiama	-11.6996
cre	-11.6997
hl	-11.6999
rytinė	-11.7015
praleist	-11.7015
teror	-11.7015
žodi	-11.7016
naudingo	-11.7017
priimtinas	-11.7029
smerk	-11.7041
nusikaltimai	-11.7044
uojamos	-11.7046
tyv	-11.7056
paminėta	-11.7068
atliekami	-11.7083
susidaro	-11.7088
gaz	-11.7096
taikytina	-11.7105
regionine	-11.7118
nedaug	-11.7121
opi	-11.7123
elementai	-11.7131
paskelbim	-11.7134
planuojam	-11.7135
regionin	-11.7136
aktualu	-11.7154
radikal	-11.7178
nepripažįsta	-11.7182
perka	-11.7182
pakartoj	-11.7183
vad	-11.7184
atšaukt	-11.7186
įspūd	-11.7189
vyriausybėm	-11.719
įspūdi	-11.7202
retai	-11.7216
vai	-11.7218
etnini	-11.7225
tru	-11.7226
biurokratin	-11.7232
cb	-11.7236
10	-11.7236
klaidinga	-11.7243
pastarą	-11.7247
teisėta	-11.7254
mažėjim	-11.726
integruoti	-11.7263
sunaikin	-11.7265
emisij	-11.7265
ruoš	-11.7267
paprasti	-11.7271
teig	-11.7275
nuosekl	-11.7276
šaltin	-11.7282
pažeidžiam	-11.7286
įsteig	-11.7297
meta	-11.73
norma	-11.7302
bendrau	-11.7302
sulaukt	-11.7305
koncepcij	-11.731
dėking	-11.7313
nereikaling	-11.7338
danijo	-11.7345
kategori	-11.7349
jungia	-11.738
konstitucin	-11.7381
darn	-11.7382
steigt	-11.7383
laimėjima	-11.739
kreipė	-11.7402
religija	-11.7404
jungtine	-11.7407
pamiršta	-11.7407
kontroliuoja	-11.7409
nepagrįsta	-11.7419
netiesiogi	-11.7433
informacin	-11.7434
lietuv	-11.7438
būdinga	-11.7444
planai	-11.7445
deklaracijo	-11.7446
pagrįsto	-11.7451
prasm	-11.7454
metini	-11.7463
pavojingų	-11.7466
nesuprant	-11.747
treči	-11.7492
užtikrinam	-11.7511
vež	-11.7516
tran	-11.7518
dvasi	-11.7521
atima	-11.7533
geografin	-11.7535
prisitaiky	-11.7535
keitimas	-11.7538
atgaivin	-11.7545
her	-11.7547
diskutuoja	-11.7553
išduot	-11.7555
rui	-11.7558
pasiekus	-11.7564
imamas	-11.7565
leidimai	-11.7579
keliauja	-11.7586
mėlyn	-11.7592
imant	-11.7595
vilk	-11.7596
integruotos	-11.76
ex	-11.7603
sukūr	-11.7611
taupyt	-11.7612
mąstym	-11.7612
prašymo	-11.7615
serb	-11.7615
akivaizdži	-11.7618
liban	-11.7624
struktūrin	-11.7626
neveikia	-11.7629
ó	-11.7633
atskleid	-11.7635
besivystančia	-11.7635
propagand	-11.7635
stygi	-11.7635
diktatūr	-11.7635
gamykl	-11.7635
neapykant	-11.7635
olimpin	-11.7635
pasiruošę	-11.7635
reaktori	-11.7635
žaidyn	-11.7635
augintoj	-11.7635
bažnyči	-11.7635
ekstremist	-11.7635
futbol	-11.7635
georg	-11.7635
pasibaigus	-11.7635
privačioj	-11.7635
spektr	-11.7635
suinteresuoti	-11.7635
įpareigojim	-11.7635
latvijo	-11.7635
pilietyb	-11.7635
sunkvežimi	-11.7635
vystant	-11.7635
gvinėj	-11.7635
palaipsni	-11.7635
panaikinus	-11.7635
konservatori	-11.7635
stavr	-11.7635
kalbėjau	-11.7635
akimirk	-11.7635
atsidavim	-11.7635
perdirbim	-11.7635
alzh	-11.7635
vėliav	-11.7635
statut	-11.7635
tranzit	-11.7635
įpareigot	-11.7635
daikt	-11.7635
užteršt	-11.7635
siuntim	-11.7635
atokiausi	-11.7635
▁¦2003	-11.7636
atskleist	-11.7636
kontakt	-11.7636
aiškinam	-11.7636
indija	-11.7636
sausumo	-11.7636
baudžiamojo	-11.7637
normali	-11.7637
svyravim	-11.7638
akmen	-11.7639
mandat	-11.764
pareikalavo	-11.764
kūryb	-11.764
susirūpinę	-11.7642
pakrantė	-11.7642
artimiausiu	-11.7642
atominės	-11.7643
atleidim	-11.7643
įgij	-11.7644
pakeis	-11.7645
somal	-11.7648
įsikišt	-11.7648
prašytoj	-11.7649
šūki	-11.765
trišali	-11.765
patobulinim	-11.7651
sacharov	-11.7651
namuos	-11.7654
jausti	-11.7655
staiga	-11.7656
padėsiant	-11.7659
peržiūro	-11.7664
rankos	-11.7668
apsirūpinim	-11.7668
/2010	-11.7671
atskait	-11.7671
elektrini	-11.7673
aplinkoje	-11.7675
baroniene	-11.7681
siunčiama	-11.7682
pabrėžta	-11.7687
nacionalinėm	-11.7689
platinim	-11.7693
kainuoja	-11.77
iškastini	-11.7707
rūpina	-11.7709
pagirtin	-11.7716
organizuoja	-11.7717
rašytin	-11.7718
gyvenanti	-11.772
saugojim	-11.7728
kitokia	-11.7731
rūpinti	-11.7734
balsuodam	-11.7737
savaitė	-11.7739
kandidatės	-11.774
graikij	-11.7746
geb	-11.7746
realiai	-11.775
mokestini	-11.775
dvasia	-11.7751
finansavimui	-11.7754
knygos	-11.7759
nčią	-11.7761
ančią	-11.7763
truk	-11.7779
vedant	-11.7784
suteikiam	-11.7794
nutraukta	-11.7796
sisteminga	-11.7803
jemen	-11.7806
orderi	-11.7808
tapatybė	-11.7811
bandoma	-11.7823
demografini	-11.7834
italija	-11.7835
tiekėj	-11.7838
stengiam	-11.7839
sumanym	-11.7839
neturėjo	-11.784
atnaujin	-11.784
sužinoj	-11.784
baimė	-11.7841
katastrofa	-11.7844
rodikliu	-11.7849
globalizacija	-11.7854
galinči	-11.7861
atvira	-11.7863
kitokio	-11.7872
roj	-11.7873
tekstu	-11.7874
gauta	-11.7878
klių	-11.7879
abipus	-11.7879
griežti	-11.7881
con	-11.7888
nesėkmė	-11.7891
gars	-11.7894
būsimos	-11.7907
susilpnint	-11.7908
absurdiška	-11.791
artima	-11.7919
plot	-11.7931
norima	-11.7932
vau	-11.7933
vienam	-11.7937
draud	-11.7941
minėtos	-11.7943
griežtesnė	-11.7953
zy	-11.7964
privalė	-11.7964
vienbalsia	-11.7979
rūpesti	-11.798
prašyma	-11.7986
ančios	-11.7986
italij	-11.7996
stiprinama	-11.8008
sugebės	-11.801
stoko	-11.801
pasidžiaug	-11.8023
darysi	-11.8029
lem	-11.803
sukurs	-11.8032
įgyvendinus	-11.8035
real	-11.8037
veiksniu	-11.8043
klausyti	-11.8043
fizin	-11.8044
garant	-11.8047
vietinė	-11.8051
būtiną	-11.8072
pradės	-11.8078
susidūrus	-11.808
paremt	-11.8084
svarbiausios	-11.8087
administracij	-11.8089
;	-11.8095
ignoruojam	-11.8097
,3	-11.8106
taikytin	-11.8108
ideali	-11.8111
fon	-11.8111
pripažin	-11.8113
salos	-11.8116
sukčiavima	-11.8118
geografini	-11.8121
artimų	-11.8126
taika	-11.8127
nestabilum	-11.8149
skirtingai	-11.8162
derint	-11.8169
siekė	-11.8173
prisimena	-11.8184
romos	-11.8187
ukrain	-11.8191
ilgalaike	-11.8204
briuseli	-11.8206
matom	-11.8209
nesąžininga	-11.8241
prielaid	-11.8245
konkurencingumu	-11.8247
sujung	-11.8265
nustatė	-11.8285
kor	-11.8285
gerbiam	-11.8288
sritim	-11.8289
pasirinkta	-11.8294
teigin	-11.83
brazilijo	-11.8309
kaup	-11.8318
iškų	-11.8328
rus	-11.8328
veiksmingesni	-11.8331
kolektyvin	-11.8336
kritiška	-11.8338
vengr	-11.8342
pateisint	-11.8351
pavadin	-11.8353
rasta	-11.836
stovykl	-11.8362
likus	-11.8371
rody	-11.8378
tikrąj	-11.8381
pagamint	-11.8389
skolo	-11.839
referenta	-11.8402
didesniu	-11.8408
siekiu	-11.8411
planuoja	-11.8417
stipresn	-11.8418
įtraukt	-11.8419
lam	-11.8426
balsuodama	-11.8435
nepritariam	-11.8437
išlaikyt	-11.8451
pagirti	-11.8456
mokslin	-11.8459
steigim	-11.8477
integruota	-11.8479
dimas	-11.8491
nv	-11.8491
deklaracij	-11.8493
pasiteisin	-11.8503
aky	-11.8503
netinkam	-11.8505
įraš	-11.8509
atsitikt	-11.8512
paskelbė	-11.8516
kančia	-11.8517
teritorija	-11.8517
prancūz	-11.8524
vyrauja	-11.8527
pritarė	-11.8531
šešėlin	-11.854
paslaugom	-11.854
grįst	-11.854
konstatuojam	-11.854
įsivaizduo	-11.8542
atomin	-11.8544
viršutin	-11.8544
jurisdikcij	-11.8544
deleguot	-11.8544
doleri	-11.8544
gydytoj	-11.8544
koridori	-11.8544
sąmoninga	-11.8544
barnier	-11.8544
belgija	-11.8544
darfūr	-11.8544
goldston	-11.8544
gyvulininkystė	-11.8544
incident	-11.8544
individual	-11.8544
kapitalizm	-11.8544
kompensavim	-11.8544
medicino	-11.8544
niujork	-11.8544
nuogąstavim	-11.8544
nuolaid	-11.8544
nusiteikę	-11.8544
rasizm	-11.8544
reagavim	-11.8544
užmegzt	-11.8544
ženevo	-11.8544
atstum	-11.8544
praradim	-11.8544
įsipareigoję	-11.8544
revoliucij	-11.8544
patikinti	-11.8544
paaiškėj	-11.8544
vartoti	-11.8544
marž	-11.8544
atotrūk	-11.8544
pasikliau	-11.8544
automati	-11.8544
koloni	-11.8544
kankūn	-11.8544
tajani	-11.8544
žalojim	-11.8544
gerinant	-11.8544
trumpalaiki	-11.8544
raginimu	-11.8544
laivybo	-11.8544
valdyb	-11.8544
skandal	-11.8545
sugriežtint	-11.8545
vandenili	-11.8546
▁¦1990	-11.8546
apklaus	-11.8546
žav	-11.8546
įranki	-11.8547
stebima	-11.8547
šešėliniam	-11.8548
išryškin	-11.8549
nužudyt	-11.8549
mąsta	-11.8549
pakop	-11.8549
gėdinga	-11.8549
įpareigojanči	-11.855
dalyvavusi	-11.855
susirūpinusi	-11.8552
tvarią	-11.8552
susitaikym	-11.8553
neįtikėtin	-11.8553
▁¦32	-11.8554
primest	-11.8554
pirmosios	-11.8556
pavieni	-11.8557
paraš	-11.8558
sustabdym	-11.856
pavasar	-11.8561
bazės	-11.8562
likt	-11.8563
gaivinim	-11.8565
leidžianči	-11.8565
pagaminta	-11.8566
pristatym	-11.8568
garbing	-11.8569
persekiojam	-11.857
smulkio	-11.8571
neabejoj	-11.8572
parems	-11.8572
gaunama	-11.8575
girdėt	-11.8577
vyksiant	-11.8582
skirs	-11.8587
nuodugnia	-11.8596
zimbabvė	-11.8599
straipsniu	-11.8604
nepaisy	-11.8604
mokymas	-11.8606
statistiniai	-11.8606
formavim	-11.8611
manoma	-11.8614
pažeidžiamos	-11.8615
pataisa	-11.8626
nuosav	-11.8629
visapusiško	-11.863
paplit	-11.8632
pateikiant	-11.8641
atitikim	-11.8648
apriboj	-11.865
vyksianči	-11.8651
laišk	-11.8652
pabrėžiam	-11.8652
nelengva	-11.8656
nedalyvauja	-11.8664
atmeta	-11.8664
ginčyti	-11.8665
derinama	-11.8668
nepasieks	-11.867
muitinė	-11.8679
pagaminti	-11.8684
referent	-11.8687
gmo	-11.8688
hama	-11.8688
afrika	-11.869
popiet	-11.8692
glaudesni	-11.8694
daugiametė	-11.8695
netinkamo	-11.8697
suprato	-11.8699
nepateik	-11.8702
naujosiom	-11.8702
prasidės	-11.8703
atlikto	-11.8703
nepriklausomum	-11.8707
prisidės	-11.871
grasin	-11.8714
išsamesn	-11.8716
prašy	-11.8722
dabartiniai	-11.8724
oriai	-11.8726
pastatyt	-11.8727
skaičiai	-11.873
kalbėjusi	-11.8732
kategorijos	-11.8733
list	-11.8736
užmiršt	-11.8739
spręsdam	-11.8751
grindžiami	-11.8751
sekund	-11.8753
techniniai	-11.8755
platform	-11.8756
konsultacijos	-11.8757
išmoko	-11.8764
įvertino	-11.8772
makedonija	-11.8773
pačiai	-11.8778
laivai	-11.8786
gerbiamo	-11.8789
neišspręst	-11.8789
priimdama	-11.8792
neigiamai	-11.8794
pasielg	-11.8795
neaiški	-11.88
statistiko	-11.8805
sakydama	-11.8805
valstybini	-11.8806
anksti	-11.8811
dalyvaujančių	-11.8813
reik	-11.8822
draugišk	-11.8822
trečioj	-11.8833
užsiimt	-11.8842
pripažint	-11.8844
priežastimi	-11.8847
baigiam	-11.8849
augant	-11.8852
suderin	-11.8853
baigsi	-11.8854
aiškiu	-11.8859
trau	-11.8865
pirk	-11.8871
demokratiniam	-11.8876
sanglauda	-11.888
blogesn	-11.8881
ben	-11.8883
aplinkybė	-11.8886
kokybe	-11.8889
▁¦196	-11.8894
jan	-11.8897
kritikuoja	-11.89
koncepcija	-11.8913
sirijo	-11.8915
naudojimu	-11.8936
naudingi	-11.8941
mažumom	-11.8947
tragedija	-11.8948
pasitiki	-11.8964
planuojama	-11.8965
galutiniu	-11.8968
eiga	-11.8974
norėdama	-11.8982
smerkia	-11.8983
rėmėj	-11.8985
stovi	-11.8993
laikymas	-11.8993
supras	-11.8993
gamt	-11.8994
diplomatin	-11.8994
sudėtingos	-11.8998
patirs	-11.9007
racional	-11.9012
versti	-11.9013
rėm	-11.9017
kritika	-11.9018
subalansuota	-11.9026
skaitmenin	-11.9035
tvirtinti	-11.904
41	-11.904
sušvelnint	-11.9041
cukra	-11.9045
pakran	-11.9052
drąsia	-11.9054
laikytų	-11.9054
informuo	-11.9056
diplomatini	-11.9057
ratifikuota	-11.9067
apsunkina	-11.9076
cijos	-11.9077
kiekiai	-11.9079
sudėtingu	-11.9081
vyksiančio	-11.9092
pagerė	-11.9099
geografinė	-11.9101
?	-11.9104
pažymi	-11.9114
keista	-11.9115
apgailestauja	-11.9118
atliekos	-11.9124
kiekvienam	-11.9132
simbolin	-11.9167
didžiuliu	-11.9167
argumentu	-11.9175
žvalg	-11.9178
pasisteng	-11.9189
norinči	-11.9197
rek	-11.9208
dvišal	-11.9211
paskutinė	-11.9213
apsiribot	-11.922
09	-11.9223
svarstymu	-11.9223
eilini	-11.9225
tinkamu	-11.9227
moksliniam	-11.9229
ankstesnia	-11.9239
paskata	-11.9246
gh	-11.9263
bausme	-11.9266
pasinaudo	-11.9285
šaltiniai	-11.9317
vokietij	-11.9328
izrael	-11.9339
taikomu	-11.9341
36	-11.9343
dalini	-11.9343
škotijo	-11.9347
tapatyb	-11.9354
didesne	-11.9356
demokratine	-11.9362
pasikeit	-11.9363
remt	-11.9373
džiaugia	-11.9373
neoficial	-11.9382
suinteresuotos	-11.9382
teritorini	-11.9384
balsu	-11.9394
realyb	-11.9397
nevyriausybin	-11.9398
uždrausta	-11.94
matyt	-11.9402
sąžiningai	-11.9402
įgyvendina	-11.9406
nuvyk	-11.9413
audit	-11.9413
konkurencin	-11.9418
naujovėm	-11.9419
eilut	-11.9422
berg	-11.9427
šaltiniu	-11.9452
naudodami	-11.9452
atstovaujam	-11.9458
apyvart	-11.946
keitimą	-11.9475
statistini	-11.9475
priklausom	-11.9485
baronien	-11.9488
klausiu	-11.9491
tolim	-11.9497
leista	-11.9497
plėsti	-11.9515
prioritetin	-11.9516
kaltinim	-11.9517
pasinaudodama	-11.9517
privilegij	-11.9519
tenkint	-11.9538
atsispind	-11.9538
artimiausia	-11.954
bėd	-11.9542
skyrė	-11.9542
obligacij	-11.9543
žiauri	-11.9544
ambasad	-11.9544
autonomij	-11.9544
konvergencij	-11.9544
kūrybiškum	-11.9544
visokeriop	-11.9544
ä	-11.9544
▁¦2014	-11.9544
baltarusija	-11.9544
chemikal	-11.9544
cunami	-11.9544
diskutavo	-11.9544
ekstremali	-11.9544
koalicij	-11.9544
kruopščia	-11.9544
liuksemburg	-11.9544
madagaskar	-11.9544
mauritanij	-11.9544
modifikuot	-11.9544
musulmon	-11.9544
nykim	-11.9544
smūg	-11.9544
suvaržym	-11.9544
sąmoningum	-11.9544
klaidinanči	-11.9544
rūpesči	-11.9544
sustiprins	-11.9544
venesuelo	-11.9544
grupuotė	-11.9544
modernizuot	-11.9544
í	-11.9544
gaivalin	-11.9544
piratavim	-11.9544
japonija	-11.9544
atsidurt	-11.9544
šalutin	-11.9544
kraštutin	-11.9544
pasenusi	-11.9544
progres	-11.9544
apibendrint	-11.9544
išbris	-11.9544
vyresnio	-11.9544
užsitikrint	-11.9544
obama	-11.9544
detali	-11.9544
jaunuoli	-11.9544
apkaltint	-11.9544
susidurs	-11.9544
lošim	-11.9545
patikinim	-11.9545
trečiąj	-11.9545
įsidarbin	-11.9545
euroobligacij	-11.9545
įvardyt	-11.9545
sąsaj	-11.9546
įproči	-11.9546
grąžin	-11.9547
atskyrim	-11.9547
sumažino	-11.9547
sukels	-11.9548
civilizacij	-11.9548
pirmuosiu	-11.9548
kosmos	-11.9548
saugesni	-11.9548
galiojant	-11.9548
paliekam	-11.9549
1999	-11.955
read	-11.9551
trukdyt	-11.9551
žymėt	-11.9551
žada	-11.9552
alia	-11.9553
pragyvenim	-11.9554
bedarbi	-11.9555
prasming	-11.9555
perskaityt	-11.9556
nesugeba	-11.9556
mokymus	-11.9557
valdytoj	-11.9557
apsisprendim	-11.9557
pasiųst	-11.956
tvirtinama	-11.9562
plenarinė	-11.9566
vaising	-11.9567
pateisinama	-11.9567
įsikišim	-11.9567
vykdys	-11.9568
dugn	-11.957
privalu	-11.9571
įlanko	-11.9571
kelianti	-11.9571
importuojam	-11.9577
x	-11.9583
atkaklia	-11.9583
pasirašym	-11.9585
artėjanči	-11.9593
mažesnė	-11.9598
vertybini	-11.9601
tikrinam	-11.9602
žymėjim	-11.9605
bruožai	-11.9608
rinkini	-11.961
lyderiai	-11.9615
uždaviniai	-11.9617
dešini	-11.9619
prieinamum	-11.9628
sukuriama	-11.9628
paveikti	-11.9629
sąžininga	-11.9631
įneš	-11.9637
krit	-11.9637
išmokėt	-11.9638
manim	-11.9638
tikslinga	-11.9638
sėdi	-11.9651
spart	-11.9655
sukūrus	-11.9656
efektyviau	-11.9659
ginčij	-11.966
brazilija	-11.9661
galing	-11.9664
politinėm	-11.9667
federacij	-11.9674
dialogu	-11.9679
prevencini	-11.9687
atleisti	-11.9688
niam	-11.9691
padalin	-11.9693
ška	-11.9694
argumentai	-11.9694
nustaty	-11.9696
pakartotina	-11.9699
dyti	-11.97
nustatydam	-11.9705
tvirtesni	-11.9705
specialų	-11.9708
kaimynini	-11.9708
didžiulė	-11.9712
mokėjimai	-11.9717
linijos	-11.9719
pažeidžiami	-11.9723
pasiekia	-11.9725
serbij	-11.9732
prižiūri	-11.974
vėži	-11.9744
nepritar	-11.9745
tikrom	-11.9746
prisimin	-11.9747
išnaudojim	-11.9747
įsteigim	-11.9751
pasinaudodam	-11.9762
sunkios	-11.9763
statyti	-11.9763
priėmė	-11.9773
daugiašali	-11.9778
būdam	-11.9783
elio	-11.9789
teikianči	-11.9789
von	-11.979
veikianti	-11.9791
kroatij	-11.9792
geru	-11.9803
mintimi	-11.9809
laimėjim	-11.9815
praėj	-11.9821
dedam	-11.9826
užtikrindam	-11.9834
istorija	-11.9836
pavyzdin	-11.9837
operatoria	-11.9854
atsargia	-11.9856
priverst	-11.9865
esminiai	-11.9871
susipažin	-11.9872
pasinaudoja	-11.9882
prielaida	-11.9885
nuspręs	-11.9886
koordinuo	-11.9888
padidinim	-11.9894
jautr	-11.9894
seksualini	-11.9897
ginklai	-11.991
apibūdint	-11.9912
pritrauk	-11.9916
karšt	-11.9917
atneš	-11.9925
tinklai	-11.9926
sutaria	-11.993
pavyzdžiai	-11.993
vaizdo	-11.9936
ginklu	-11.9938
tvaria	-11.9939
pilietine	-11.9949
įgaliotini	-11.9953
gyvūnai	-11.9957
parengiam	-11.9957
mažiausi	-11.9964
atak	-11.9965
teikdama	-11.9973
britanij	-11.9974
pateisina	-11.9978
prisidedam	-11.9985
riboja	-11.9994
atspi	-11.9996
nuostatom	-11.9996
įsteigta	-11.9998
teikt	-11.9999
paneigt	-12
panaudoj	-12
pol	-12.0009
com	-12.001
minė	-12.0016
anamo	-12.0017
požiūriai	-12.0024
rod	-12.0036
sureng	-12.0043
bauda	-12.0043
griežtesn	-12.0052
neturinči	-12.0069
neteisingai	-12.0073
pradėsi	-12.0085
įsitikinimu	-12.0088
keltų	-12.0093
šiuolaikin	-12.0093
peržiūra	-12.0094
palaikant	-12.0101
makroekonomin	-12.0101
asociacij	-12.0104
tėvyst	-12.0109
avusi	-12.0109
surengta	-12.0124
pastov	-12.0131
nčiais	-12.0145
rūpest	-12.0147
padidina	-12.0165
bendrija	-12.0166
bendrove	-12.0167
įprastin	-12.0184
,6	-12.0198
cija	-12.0199
abejoj	-12.0205
įtamp	-12.0208
netaikyti	-12.0209
silpna	-12.0214
pirmininkau	-12.0218
prašydam	-12.0219
poveikiu	-12.0229
išorin	-12.0234
bendruomenėm	-12.0251
likusia	-12.0255
63	-12.0257
investuoja	-12.0261
kovojam	-12.0275
reikm	-12.0278
visuotiniu	-12.0278
talo	-12.0301
nepasikarto	-12.0303
generalin	-12.0306
apribojimu	-12.031
ankstyva	-12.0321
omen	-12.0325
suvokia	-12.0328
įsitrauk	-12.033
vf	-12.0336
tarpvalstybinė	-12.0341
nesulauk	-12.0368
cit	-12.0375
didžiuoj	-12.0377
demokratiniu	-12.0377
bendram	-12.0378
suprat	-12.039
žvelgiant	-12.0392
plenarin	-12.0395
2009	-12.0398
pakartotin	-12.0404
daugiašal	-12.0413
vėž	-12.0436
sutariam	-12.0438
palydov	-12.0449
vadinti	-12.046
didin	-12.046
dalyvaujanči	-12.047
elektr	-12.0471
kalbėjusie	-12.0472
puse	-12.0481
lit	-12.0515
sukūrė	-12.0521
išvengia	-12.0524
mag	-12.0527
kvota	-12.0537
sritimi	-12.0544
tarpvyriausybin	-12.0545
judėjimu	-12.0555
nusikaltėli	-12.0557
išraišk	-12.0558
piktnaudžiau	-12.0569
įkalin	-12.0577
19	-12.058
papildo	-12.0582
kreipiama	-12.0587
dešin	-12.0591
pasakyt	-12.0606
įtaria	-12.061
sąjunginink	-12.061
grąž	-12.0612
olog	-12.0613
tautom	-12.0613
apsunkin	-12.0614
visiško	-12.0614
ombudsmenu	-12.0616
vyriausi	-12.0616
ištis	-12.0617
mąstyt	-12.0618
kartoja	-12.0619
atžvilgi	-12.0623
ginam	-12.0624
diagnoz	-12.0624
budr	-12.0629
apimančio	-12.0632
stabilizuot	-12.0647
greiči	-12.0649
užbaig	-12.0653
ă	-12.0655
aklavietė	-12.0655
higien	-12.0655
konsultavim	-12.0655
apygard	-12.0655
epidemij	-12.0655
grūd	-12.0655
harbour	-12.0655
kalbėję	-12.0655
maksimal	-12.0655
nusiteikusi	-12.0655
pastraip	-12.0655
sinergij	-12.0655
stereotip	-12.0655
totalitarin	-12.0655
trokšta	-12.0655
advokat	-12.0655
akcentuot	-12.0655
apgailėtin	-12.0655
azartini	-12.0655
biurokratizm	-12.0655
claud	-12.0655
drabuži	-12.0655
dramatišk	-12.0655
energetika	-12.0655
griauna	-12.0655
informavo	-12.0655
interpretuo	-12.0655
ketveri	-12.0655
klysta	-12.0655
komponent	-12.0655
koordinatori	-12.0655
liudininkai	-12.0655
maršrut	-12.0655
mergait	-12.0655
nusivylim	-12.0655
paradoksal	-12.0655
raund	-12.0655
socialdemokrat	-12.0655
troškim	-12.0655
tvarkarašči	-12.0655
ugdym	-12.0655
pradėjus	-12.0655
realistišk	-12.0655
wall	-12.0655
aprėpt	-12.0655
autorė	-12.0655
išdėstyta	-12.0655
islandijo	-12.0655
varikli	-12.0655
klestėjim	-12.0655
pagyvenusi	-12.0655
slypi	-12.0655
žaidėj	-12.0655
atskleidžia	-12.0655
matydama	-12.0655
byloja	-12.0655
įsigyt	-12.0655
kryž	-12.0655
film	-12.0655
išminting	-12.0655
orlaivi	-12.0655
basein	-12.0655
devyni	-12.0655
scenarij	-12.0655
kongres	-12.0655
rompu	-12.0655
atstatym	-12.0656
važiuo	-12.0656
pataisyt	-12.0656
plinta	-12.0656
patenkinama	-12.0656
karjer	-12.0656
atlygint	-12.0656
sergančių	-12.0656
besąlygiška	-12.0656
▁!"	-12.0656
svajo	-12.0656
suvienyt	-12.0656
prarado	-12.0656
eurojust	-12.0656
tabak	-12.0656
teršėj	-12.0657
tėvyn	-12.0657
bls	-12.0657
trisdešimt	-12.0657
susigrąžint	-12.0657
mafij	-12.0657
žinut	-12.0657
rengdami	-12.0658
spekuliacijo	-12.0658
pador	-12.0658
vadinamų	-12.0659
grafik	-12.0659
atsiliep	-12.0659
sukaupt	-12.0659
religinės	-12.0659
palinkė	-12.066
vidin	-12.066
neturtingiausi	-12.0661
tbt	-12.0661
pirmininknutrauk	-12.0661
spėjam	-12.0661
▁¦48	-12.0662
minute	-12.0662
dvišalės	-12.0662
brit	-12.0662
sekretoriu	-12.0663
jaustų	-12.0663
živ	-12.0664
virst	-12.0664
ištikusi	-12.0664
▁¦55	-12.0665
nurodym	-12.0665
sausr	-12.0665
reikšminga	-12.0666
blogiausia	-12.0667
pamoka	-12.0667
perskirstym	-12.0667
gaminama	-12.0667
sugebėt	-12.0668
nikos	-12.0668
ankstesnės	-12.0668
užregistruot	-12.0669
rasmus	-12.067
nabu	-12.067
suprantam	-12.0673
receptini	-12.0673
strateginės	-12.0676
įspėt	-12.0676
buvein	-12.0678
įvairiausi	-12.0679
ček	-12.0679
skyl	-12.068
nutukim	-12.0681
sutrukdyt	-12.0681
padaugė	-12.0681
diplomatij	-12.0684
neatitikim	-12.0687
katastrofišk	-12.0687
pasirodyt	-12.0687
pasakydama	-12.0688
standartizuot	-12.0688
įtempt	-12.0688
reiškiniu	-12.0689
patyrusi	-12.0691
išsak	-12.0691
numatant	-12.0695
grąžinam	-12.0696
šalinim	-12.07
kovojo	-12.0705
sąjungininkai	-12.0705
glaudžiau	-12.0707
terš	-12.0708
puolim	-12.0708
kerta	-12.071
vaidmeniu	-12.0711
europiniu	-12.0712
modeliu	-12.0713
▁¦20-	-12.0714
išreiškiama	-12.0717
gyvenanči	-12.072
koncentracija	-12.072
konstruktyviai	-12.0724
suvartojam	-12.0724
pigiau	-12.0725
sušvelnin	-12.0733
reaguodam	-12.0737
vienija	-12.0737
atstovauj	-12.0738
piktnaudžiauja	-12.0741
tariamai	-12.0742
mokam	-12.0742
renkant	-12.0746
supaprastin	-12.0747
kliūtimi	-12.0751
lankstesn	-12.0752
aptarsi	-12.0756
drauge	-12.0757
perdavima	-12.0768
apimanči	-12.0769
leidžiamo	-12.0772
asignavimai	-12.0772
parengusi	-12.0774
logika	-12.0776
informuota	-12.0778
pasitelkia	-12.0778
atgaivinim	-12.078
dvišaliai	-12.0784
chartij	-12.0789
baust	-12.0794
lyderė	-12.0796
naujovė	-12.0797
išraiška	-12.0804
tobulin	-12.081
šeimom	-12.0814
legali	-12.0815
paminėt	-12.0818
fiskalini	-12.0818
formuoja	-12.0827
likusios	-12.0828
atidaryt	-12.0833
patog	-12.0836
protas	-12.0836
išlikim	-12.0839
suinteresuotosio	-12.0839
stipru	-12.0839
neįtraukta	-12.0847
privert	-12.0855
administracine	-12.0859
sąžiningesn	-12.0859
tikrint	-12.0859
trukm	-12.0861
atsargum	-12.0865
pamatyt	-12.0885
stovyklos	-12.0885
sutikim	-12.0895
sieja	-12.0901
išsivystym	-12.0913
vengrij	-12.0914
trūkumai	-12.0915
prisidė	-12.0919
danga	-12.0919
rodant	-12.0919
įgyvendinimu	-12.0921
pramonini	-12.0922
uždaryta	-12.093
būding	-12.093
paleist	-12.0938
smerkiam	-12.0941
bt	-12.0948
savim	-12.0949
skatindama	-12.0953
paskat	-12.0965
organizacijom	-12.0973
narkotikai	-12.0973
fizi	-12.0976
panaikinimu	-12.0977
valdant	-12.098
prašymu	-12.0981
kritišk	-12.0983
vizija	-12.099
stengė	-12.1002
mokini	-12.1012
susijusiai	-12.1013
pasikartot	-12.102
pastebi	-12.1025
keturios	-12.1026
saugio	-12.1028
metodai	-12.1029
sveika	-12.1037
prieštarauj	-12.104
akcij	-12.1043
efektyvesn	-12.1053
paklausa	-12.1055
finansiniai	-12.1061
apsilank	-12.1064
stebime	-12.1068
kortelė	-12.1072
global	-12.1073
tikroj	-12.1078
pasirinkt	-12.1091
debata	-12.1098
teigdama	-12.1117
kirt	-12.112
patikima	-12.1131
patraukt	-12.1134
investuojam	-12.1135
savanoriško	-12.114
apsisaugo	-12.1144
priklausomybė	-12.116
sąvoko	-12.1162
aptariama	-12.1167
apsiribo	-12.1177
programom	-12.1194
gle	-12.1195
gb	-12.1196
atleist	-12.1211
special	-12.1213
ideal	-12.1218
inėti	-12.1228
turinčia	-12.1234
iškelta	-12.1235
garantuoja	-12.1238
visuomenini	-12.1239
susitelkt	-12.1248
viešas	-12.1262
panaudojam	-12.1263
netekt	-12.1276
atlyginimu	-12.1287
formuojant	-12.1289
apimant	-12.1296
veiksmingesnė	-12.1303
tvarking	-12.1306
atsiras	-12.1332
atmesta	-12.134
dedama	-12.1346
finansuojama	-12.1356
gamina	-12.1359
stiprinam	-12.1364
laime	-12.1368
scu	-12.1368
tinkamesn	-12.138
pirkt	-12.1382
atsilik	-12.1389
minutė	-12.1395
procentin	-12.1397
elektronin	-12.1399
pasisakom	-12.1406
nink	-12.1407
rze	-12.141
ft	-12.1426
dėm	-12.1438
sėd	-12.1461
(	-12.1466
galiojančiu	-12.1474
gerąj	-12.1478
režimu	-12.1493
mažom	-12.1501
įstaiga	-12.1509
skola	-12.1514
pildy	-12.1515
gn	-12.1523
ologin	-12.1535
neatsižvelg	-12.1546
akci	-12.1549
apei	-12.1559
metimai	-12.1566
suformuot	-12.1573
vadovaujama	-12.1585
žiūrim	-12.1588
nepaisom	-12.1589
kiekiu	-12.1595
38	-12.1603
nutar	-12.161
taisyklė	-12.166
naujien	-12.1661
).	-12.1664
nesutinka	-12.1665
daugiamet	-12.1698
statyba	-12.1705
esančia	-12.1709
judė	-12.1721
sugrąžin	-12.173
remiama	-12.173
smerkti	-12.173
pridėti	-12.1745
strateg	-12.1753
žinodam	-12.1754
nebegali	-12.1766
neleis	-12.1775
žiūrint	-12.1779
nereikalinga	-12.1784
pirmininkauja	-12.1797
metal	-12.1799
nesėkming	-12.1801
▁¦2,	-12.1803
kompiuter	-12.1804
puoselė	-12.1819
nedidelė	-12.1824
pasitaik	-12.1827
pristatyt	-12.184
rašoma	-12.1843
tvirtinima	-12.1862
sudarom	-12.1863
vietovė	-12.1877
perim	-12.1878
sacharo	-12.188
sustabd	-12.1882
paisom	-12.1882
kišimas	-12.1882
skaityt	-12.1882
diskriminacin	-12.1893
suvokiam	-12.1895
savyb	-12.19
entuoti	-12.1902
bandyt	-12.1903
neutrali	-12.1905
federali	-12.1905
filosofij	-12.1905
komitologij	-12.1905
pandemij	-12.1905
recesij	-12.1905
tolerancij	-12.1905
išbraukt	-12.1905
kenksming	-12.1905
kompleksin	-12.1905
konsolidavim	-12.1905
medicinin	-12.1905
profesij	-12.1905
susiklosčius	-12.1905
toleruoti	-12.1905
traktori	-12.1905
universal	-12.1905
žiaurum	-12.1905
7/200	-12.1905
almuni	-12.1905
atvirkš	-12.1905
aukcion	-12.1905
detales	-12.1905
direktorat	-12.1905
disbalans	-12.1905
drambli	-12.1905
dvylik	-12.1905
imunitet	-12.1905
išdėstytu	-12.1905
kurstym	-12.1905
kūdik	-12.1905
memorandum	-12.1905
moratorium	-12.1905
nehumanišk	-12.1905
oettinger	-12.1905
optimist	-12.1905
pasitenkinim	-12.1905
pažabot	-12.1905
proporcinga	-12.1905
sukilėli	-12.1905
sąvartyn	-12.1905
transplant	-12.1905
verhofstadt	-12.1905
diegian	-12.1905
laikrašči	-12.1905
pasėli	-12.1905
penkiasdešimt	-12.1905
reagavo	-12.1905
pradėdam	-12.1905
psichi	-12.1905
rehn	-12.1905
spekuliacija	-12.1905
sukrėt	-12.1905
sužeist	-12.1905
weber	-12.1905
biliet	-12.1905
kareivi	-12.1905
griuv	-12.1905
atsigavim	-12.1905
pasipriešinim	-12.1905
skaitytuv	-12.1905
poilsi	-12.1905
deginim	-12.1905
barjer	-12.1905
palyginim	-12.1905
madeiro	-12.1905
globėj	-12.1905
padrąsin	-12.1905
savivaldyb	-12.1905
senyv	-12.1905
nigerij	-12.1905
remont	-12.1905
išmetanči	-12.1905
rūkym	-12.1905
vadovaudam	-12.1905
domina	-12.1905
raket	-12.1906
seminar	-12.1906
vykdydam	-12.1906
skland	-12.1906
santrauk	-12.1906
hans	-12.1906
vienašališka	-12.1906
palyginam	-12.1906
eurostat	-12.1906
ligonin	-12.1906
tiria	-12.1906
meninink	-12.1906
peter	-12.1906
derli	-12.1906
atspaud	-12.1907
pekin	-12.1907
robert	-12.1907
kvail	-12.1907
tikėdam	-12.1907
neginčija	-12.1907
viešuosiu	-12.1907
krikščionišk	-12.1907
mišri	-12.1907
solv	-12.1908
ginkluoti	-12.1908
apmokėt	-12.1908
įdarbinim	-12.1908
šimtų	-12.1909
nusistatym	-12.1909
kaimyninės	-12.1909
žaist	-12.1909
bach	-12.191
viršija	-12.191
klost	-12.1911
įžeidima	-12.1912
suplanuota	-12.1913
▁¦85	-12.1914
teismu	-12.1915
vienkartin	-12.1915
nagrinėjo	-12.1917
albanijo	-12.1917
šri	-12.1918
konfidencialum	-12.1918
suburt	-12.1919
paverčia	-12.192
streik	-12.192
atrodyt	-12.1921
pilna	-12.1921
antradien	-12.1923
išbandyt	-12.1923
regis	-12.1923
skolinim	-12.1924
graf	-12.1924
pareikalau	-12.1925
atstovaujanti	-12.1926
pakom	-12.1927
susipažinę	-12.1928
aplankyt	-12.1929
nesugebėjim	-12.1931
permain	-12.1931
paplitusi	-12.1932
abort	-12.1932
fac	-12.1933
siųst	-12.1937
skirsni	-12.1938
ėjant	-12.1938
ryšk	-12.1938
atvėrim	-12.1939
anot	-12.1939
uždarym	-12.1941
galutiniam	-12.1945
naudingum	-12.1947
greta	-12.1947
naudojanči	-12.1948
nesiima	-12.1953
vb	-12.196
pakviest	-12.196
rodoma	-12.1961
prievartavim	-12.1963
atsirandanči	-12.1966
patvirtinus	-12.1968
estijo	-12.1969
formuluotė	-12.197
retų	-12.1972
kaltinimai	-12.1972
penkiolika	-12.1973
patenkin	-12.1977
pasitrauk	-12.1979
fiskalinė	-12.1979
pasiteisinim	-12.198
uždraudim	-12.1984
sudarius	-12.1989
uždirba	-12.1991
kabin	-12.1993
paprastos	-12.1993
senėjim	-12.1995
žurnalistai	-12.1995
profesionalia	-12.2002
dingusi	-12.2005
atsakomybuž	-12.2006
atstatyt	-12.201
tvirtesn	-12.201
dosn	-12.2014
senėja	-12.2014
nusikaltėlia	-12.2017
skleist	-12.202
nesuprantama	-12.2023
radikalia	-12.2025
pasikeitim	-12.2025
netikėt	-12.2029
romai	-12.2042
pavard	-12.205
analizuot	-12.205
atitinkant	-12.2051
data	-12.2051
saugiai	-12.2053
ateinant	-12.2053
gaunanči	-12.2054
įtvirtinim	-12.2054
kariuomenė	-12.2057
pasidalyt	-12.2058
kandida	-12.2059
priversta	-12.2063
tolimesn	-12.2067
paul	-12.2073
gian	-12.2075
eksportu	-12.2078
šiuolaikinė	-12.2086
nepaisydam	-12.2098
specialiai	-12.21
verslininkai	-12.2101
konsoliduot	-12.2107
viešie	-12.2111
dešimtmečiu	-12.2115
palank	-12.2119
gilia	-12.2121
teroristini	-12.2125
evy	-12.2125
velt	-12.2127
prisiimt	-12.2136
nustot	-12.2144
suomijo	-12.2145
nelik	-12.2145
priklausant	-12.2147
seka	-12.2147
įžvelg	-12.2148
patvirtinama	-12.2151
įnaša	-12.2157
naujiena	-12.2158
uždaviniu	-12.2159
pageidautina	-12.216
subjektai	-12.2162
8/	-12.2169
regioniniai	-12.2176
priskiriam	-12.2189
apsispręst	-12.2199
valiuta	-12.22
įdom	-12.2208
tarnauja	-12.2217
aunos	-12.2226
kaupia	-12.2228
lėta	-12.2232
pagerin	-12.2239
atkreipki	-12.2246
gėj	-12.2251
kompetentinga	-12.2254
kompensuo	-12.2258
nepaiso	-12.2259
ribojanči	-12.2265
pasikeist	-12.2279
išsiskyr	-12.2297
keičiant	-12.2305
ženklu	-12.2306
rašyta	-12.232
11	-12.2326
vandeny	-12.2328
pavadint	-12.234
dabartinė	-12.2348
alyv	-12.2353
religine	-12.2356
iškesn	-12.237
aiškina	-12.2376
tolimoj	-12.2407
intensyvia	-12.2416
paaiškin	-12.2441
ginču	-12.2449
srautu	-12.2455
atleis	-12.2456
kapitalu	-12.2456
puola	-12.2457
terminai	-12.2467
ginama	-12.2476
anduo	-12.2476
išaugt	-12.2477
skaičiavim	-12.2484
mechanizmai	-12.2497
aukštesn	-12.2497
bulgarij	-12.2505
policija	-12.2508
laimėt	-12.251
žmonija	-12.2513
žinojo	-12.2517
abejojam	-12.2528
ranka	-12.2536
plačiu	-12.2536
pelninga	-12.2564
atsakingu	-12.257
administracija	-12.2578
leistin	-12.2591
pirmininkav	-12.2599
sugrįžt	-12.2601
susitelk	-12.2608
sugebėjim	-12.2611
kort	-12.2621
lama	-12.2632
laimė	-12.2635
komercin	-12.2642
įgyvendindama	-12.2684
palanku	-12.2685
vadin	-12.2691
kaimynė	-12.2702
skaičiavimu	-12.273
gamin	-12.273
artimoj	-12.2734
moral	-12.2741
statistik	-12.2741
susieta	-12.2741
▁¦195	-12.2746
susidaryt	-12.2749
išeit	-12.2753
gamta	-12.2761
pakalbė	-12.2762
įsitikinim	-12.2767
turkij	-12.277
kolegė	-12.2786
persvarst	-12.2814
paskelbta	-12.2837
pastebima	-12.284
priklaus	-12.2847
smulkia	-12.2857
tarpinink	-12.2865
garsia	-12.2865
absurdišk	-12.2869
neeilin	-12.287
išankstin	-12.2873
pradiniam	-12.2877
įsitraukt	-12.2878
drauga	-12.289
stengiant	-12.2915
sesija	-12.2917
moldov	-12.2919
padidėt	-12.2935
atkreipt	-12.2937
objekta	-12.2944
skatindam	-12.2946
organizuota	-12.2959
44	-12.2965
imam	-12.2965
darydam	-12.2966
techniniu	-12.2973
upė	-12.2975
palaikoma	-12.298
gebėjimu	-12.2986
pakarto	-12.2995
skelbia	-12.3013
pranešam	-12.3015
laisvoj	-12.3032
order	-12.3035
teikėja	-12.3045
pažadu	-12.3045
rekomenduojam	-12.3058
elektroniniu	-12.3071
politiniam	-12.3085
užimt	-12.3092
savaitgal	-12.3111
tęsiama	-12.3124
įvykdyta	-12.3131
ignoruo	-12.314
infliacij	-12.3148
socialiniam	-12.315
funkcija	-12.3151
plitim	-12.3164
pasiūlė	-12.318
plėtot	-12.3187
komanda	-12.319
sunaikint	-12.3198
taikyt	-12.3199
neįvyk	-12.321
sumažinima	-12.3253
krov	-12.3253
nuodugn	-12.3259
pasiryž	-12.3261
šiandieninė	-12.3264
deda	-12.3264
pavėluot	-12.3267
klausė	-12.3267
ombudsmena	-12.3268
laipsn	-12.3272
mokom	-12.3272
lobist	-12.3292
paskyr	-12.3295
tęsiam	-12.3295
pažeid	-12.3299
valstybinės	-12.3306
blogėja	-12.3308
traukti	-12.3308
klesti	-12.3311
lemti	-12.3312
maloni	-12.3312
liū	-12.3315
slovak	-12.3316
rumun	-12.3316
stebės	-12.3318
uždav	-12.3318
parėm	-12.3319
pasižymi	-12.3323
išsiaiškin	-12.3323
rez	-12.3331
spauda	-12.3332
perkeliam	-12.3332
cohn	-12.3334
wald	-12.3334
bakterij	-12.3334
ksenofobij	-12.3334
ministerij	-12.3334
&	-12.3334
abchazij	-12.3334
atsiduria	-12.3334
civilizuot	-12.3334
deklaruot	-12.3334
fiksuot	-12.3334
globalizuot	-12.3334
ideologij	-12.3334
ideologini	-12.3334
instrument	-12.3334
išklausysi	-12.3334
kalendori	-12.3334
konsensus	-12.3334
logistik	-12.3334
ląstel	-12.3334
mitchell	-12.3334
mobilizuoti	-12.3334
navigacij	-12.3334
nekilnojamo	-12.3334
nesusipratim	-12.3334
neutralum	-12.3334
norvegij	-12.3334
optimiz	-12.3334
pragmatišk	-12.3334
protestuotoj	-12.3334
sekmadien	-12.3334
sertifikavim	-12.3334
ugnikalni	-12.3334
verheugen	-12.3334
watson	-12.3334
šaudmen	-12.3334
šveicarija	-12.3334
žudyn	-12.3334
akademini	-12.3334
baltyming	-12.3334
biometrini	-12.3334
demagogi	-12.3334
demonstrant	-12.3334
deportacij	-12.3334
dislokuo	-12.3334
dizain	-12.3334
genocid	-12.3334
organizacini	-12.3334
organizavo	-12.3334
profesor	-12.3334
sustiprino	-12.3334
aikštelė	-12.3334
akvakultūr	-12.3334
kibernetin	-12.3334
nutolusi	-12.3334
riebal	-12.3334
slepia	-12.3334
sunkiasvor	-12.3334
ugando	-12.3334
viešajam	-12.3334
mažesnį	-12.3334
modernizavim	-12.3334
sugriaut	-12.3334
atidarym	-12.3334
ferrero	-12.3334
sueigo	-12.3334
suklastot	-12.3334
samprat	-12.3334
įsisavin	-12.3334
santaup	-12.3334
sužlugdyt	-12.3334
sklandžia	-12.3334
skamba	-12.3334
sutrikim	-12.3334
magreb	-12.3334
thom	-12.3334
ypatum	-12.3334
kintanči	-12.3334
tinklalap	-12.3334
diev	-12.3334
michel	-12.3334
gydyti	-12.3334
svori	-12.3334
padėdam	-12.3334
patogumu	-12.3334
ginkluotų	-12.3334
postūm	-12.3334
šimtu	-12.3334
bendit	-12.3334
pigesn	-12.3334
įtarim	-12.3334
ignorav	-12.3334
adres	-12.3334
susirinkusi	-12.3334
padvigubė	-12.3334
nuramin	-12.3334
išvardyt	-12.3334
montavim	-12.3334
konsultuo	-12.3334
bendradarbiavo	-12.3334
veid	-12.3335
suvienij	-12.3335
pablogėj	-12.3335
užpildyt	-12.3335
centraliz	-12.3335
įgyja	-12.3335
išryškėj	-12.3335
pokalbi	-12.3335
krikščionyb	-12.3335
pensinink	-12.3335
neįgalių	-12.3336
reikalaudam	-12.3336
traktuo	-12.3336
falsifikuot	-12.3336
netikrum	-12.3336
mašin	-12.3336
papildym	-12.3336
pavirši	-12.3337
perdėta	-12.3337
gryn	-12.3337
juodojo	-12.3338
nepajėgi	-12.3338
skirdam	-12.3338
tobula	-12.3339
rizikuoja	-12.3339
oponent	-12.334
dovan	-12.334
▁¦33	-12.334
atstovaut	-12.3341
sunkiausia	-12.3341
būri	-12.3342
nustatanči	-12.3342
▁¦46	-12.3342
užkertant	-12.3342
▁¦34	-12.3342
paslapt	-12.3343
gerbiama	-12.3343
ugn	-12.3345
tacijos	-12.3345
suvienodin	-12.3345
smuk	-12.3346
pataisos	-12.3346
vertintina	-12.3346
užsienieči	-12.3347
vienuolik	-12.3347
savarankiškum	-12.3348
patarim	-12.3349
baudžiamąj	-12.335
ung	-12.335
tinkamiausia	-12.335
smog	-12.3351
karali	-12.3351
požymi	-12.3352
taliban	-12.3353
teiginiu	-12.3353
skaud	-12.3354
david	-12.3354
suformuluot	-12.3354
maišt	-12.3355
vertindam	-12.3357
pervežim	-12.3358
kritikuojama	-12.3359
ankstesnių	-12.3359
energing	-12.336
nemaloni	-12.336
kiekybi	-12.336
išleidžiam	-12.3363
privaluma	-12.3363
užtruk	-12.3363
nekaltu	-12.3365
keičianči	-12.3371
nuosprendži	-12.3372
kasdieniam	-12.3372
tarpininkavim	-12.3374
aprūpint	-12.3378
išaiškinim	-12.338
keturiasdešimt	-12.3382
prognozuojam	-12.3395
laukianči	-12.3397
armij	-12.3397
tribunolu	-12.3399
pasidalijim	-12.3404
pagerinim	-12.3408
etiketė	-12.3409
įkait	-12.3412
kilę	-12.3413
padedanči	-12.3421
pamąsty	-12.3423
baisu	-12.3427
pirmaut	-12.343
supaprastinta	-12.3431
diskutuodam	-12.3432
lps	-12.3433
veikėjai	-12.3433
kažkur	-12.3435
rengini	-12.3436
kylanti	-12.3437
atnaujinta	-12.3437
spraga	-12.3441
universitetai	-12.3446
pereinamoj	-12.3452
delsim	-12.3452
mirtina	-12.3453
eiv	-12.3457
laukinė	-12.3459
vedim	-12.3459
pabėg	-12.3463
reikalaujanči	-12.3465
kurdam	-12.3469
iškilusi	-12.3474
elgiama	-12.3475
persvarstom	-12.3478
žiūrė	-12.3483
nafta	-12.3493
sustiprė	-12.3494
užsibrėžt	-12.3508
viešum	-12.3509
miel	-12.3518
vengiama	-12.3519
sukuriamo	-12.3519
infliacija	-12.3523
statistika	-12.353
suvokim	-12.353
acija	-12.3556
tebesitęsia	-12.3561
turėtoj	-12.3565
tarnaut	-12.3585
užsidirbt	-12.3587
teor	-12.3588
asmeniu	-12.3592
pateikdama	-12.3594
perkam	-12.3606
pratęs	-12.3609
jungianči	-12.3612
palikim	-12.3615
papild	-12.3617
05	-12.3621
rekomenduojama	-12.3622
grįžim	-12.364
taisom	-12.3643
įgūdžiai	-12.3647
senosio	-12.3653
atskiru	-12.3654
žlugim	-12.3672
praras	-12.3686
neatidėliotina	-12.3688
biurokrat	-12.369
prognozė	-12.3697
informacinė	-12.3699
visuomeninė	-12.3701
pasilikt	-12.3712
didžiuoja	-12.372
nutart	-12.374
rack	-12.3758
deklaracija	-12.3761
atlikdam	-12.3768
kaltin	-12.3774
ieškodam	-12.3791
naujausia	-12.381
greitesn	-12.382
išplėsta	-12.382
sudėtingum	-12.3824
pranašumai	-12.3837
skiri	-12.3849
mainai	-12.3854
tirti	-12.3856
savarankišk	-12.3862
vyksiančia	-12.3863
suvokiama	-12.3868
diskutuosi	-12.387
tragišk	-12.387
įrodė	-12.388
ženklia	-12.3885
svarstys	-12.3893
svarbesn	-12.3906
pašalin	-12.3913
atneša	-12.3914
jėgom	-12.3917
realu	-12.3923
stinga	-12.3924
mokama	-12.3927
pasitikėt	-12.3931
pagerėj	-12.3946
pareikš	-12.3969
religin	-12.397
technologijom	-12.3972
uoliai	-12.3985
kiša	-12.3987
nacionalist	-12.3988
organizuotu	-12.4007
vienintelė	-12.4029
pirmaja	-12.4036
skaitom	-12.4052
geriausiu	-12.4057
milžiniška	-12.4083
stumti	-12.409
grand	-12.4093
klaiding	-12.4095
aktual	-12.4102
izuoti	-12.4116
laimėjo	-12.4141
žadėt	-12.4178
išvystyt	-12.418
direktoriu	-12.419
rumunij	-12.4193
deficita	-12.4198
lub	-12.4198
2006	-12.4205
sutiks	-12.4211
pasirašyta	-12.4223
portugalij	-12.4224
imperialistin	-12.4232
priskirt	-12.4242
teisingesn	-12.4243
pasitar	-12.4266
sekė	-12.4267
ekologinė	-12.4268
reikalauj	-12.429
paband	-12.4296
punktu	-12.4304
ignoruoja	-12.4312
partneriu	-12.4319
vienbalsi	-12.4319
vykusia	-12.4323
prasidė	-12.4335
įdomia	-12.4338
airij	-12.4348
iančio	-12.435
spaudimu	-12.4365
patobulin	-12.4367
lenkij	-12.4368
,4	-12.4369
paraiška	-12.4378
pajėgom	-12.438
demografin	-12.4399
tragiška	-12.4402
žinodama	-12.4402
centrin	-12.4407
dalyviu	-12.4415
apibūdina	-12.4419
žemesn	-12.4426
sunkiu	-12.4431
monopoli	-12.4437
lyder	-12.4444
galinga	-12.445
kaltint	-12.4462
išlyga	-12.4477
patikrinima	-12.4506
pamatin	-12.451
užduoči	-12.4521
kompensuot	-12.4538
reglamentuot	-12.454
minčia	-12.4546
faktini	-12.4565
prancūzij	-12.4578
pakit	-12.4589
nepateisin	-12.4629
2008	-12.4635
park	-12.4637
sudėtin	-12.464
žvelgt	-12.4659
švedij	-12.4672
būsimoj	-12.4684
kampanija	-12.4691
kopenhag	-12.4696
laikymą	-12.4707
elektrinė	-12.4717
perskait	-12.4723
lanksčia	-12.4726
nuosmuk	-12.4732
pigi	-12.4734
rango	-12.477
žuvininkyst	-12.4783
azij	-12.4786
skelb	-12.479
kariuomen	-12.4796
pranešė	-12.4803
veng	-12.4816
gatv	-12.4826
nusikalstama	-12.485
žiem	-12.4855
patikėt	-12.4856
rėmė	-12.4863
išplėst	-12.487
formuluot	-12.4889
nukrypt	-12.4891
zimbabv	-12.4896
nutikt	-12.4903
raiško	-12.4914
iškreipt	-12.4919
kviesti	-12.4925
mara	-12.4935
kūrybin	-12.4936
atveria	-12.4942
grindži	-12.4942
mažė	-12.4944
vystom	-12.4949
amerikieči	-12.4959
naft	-12.4967
produktyv	-12.4975
olika	-12.4983
skaitym	-12.4984
žeidim	-12.4987
zacija	-12.4988
ginanči	-12.4988
laiminga	-12.4991
žmogžudys	-12.4991
dubli	-12.4992
atsinaujin	-12.4995
rengdama	-12.4995
geležin	-12.4995
glob	-12.4999
lavinim	-12.5
specifikacij	-12.5
7-02	-12.5
brutali	-12.5
dislokavim	-12.5
egzistav	-12.5
garcí	-12.5
hierarchij	-12.5
koeficient	-12.5
konstrukcij	-12.5
kraštovaizdži	-12.5
likvidum	-12.5
painiav	-12.5
pornografij	-12.5
protekcionist	-12.5
reputacij	-12.5
saryusz	-12.5
žaizd	-12.5
akcentuojam	-12.5
apibendrindama	-12.5
atgrasy	-12.5
azerbaidžan	-12.5
aštuoneri	-12.5
bankrutav	-12.5
berlusconi	-12.5
besiformuojančio	-12.5
dangu	-12.5
dirvožemį	-12.5
diskriminavim	-12.5
dominuojanči	-12.5
dyzelin	-12.5
elgsen	-12.5
emocij	-12.5
fischer	-12.5
iliuzij	-12.5
išnykt	-12.5
išsilavinusi	-12.5
jacques	-12.5
kabotaž	-12.5
ketvirči	-12.5
konserv	-12.5
laboratorij	-12.5
lampedūz	-12.5
liudija	-12.5
lukašenko	-12.5
madrid	-12.5
moldavij	-12.5
muziko	-12.5
netoleruotina	-12.5
pademonstruot	-12.5
pasibaisėtin	-12.5
pasiruošusi	-12.5
propaguot	-12.5
provokuo	-12.5
radioaktyvių	-12.5
reinfeldt	-12.5
richard	-12.5
rinkliav	-12.5
schwab	-12.5
septyneri	-12.5
skalūn	-12.5
tannock	-12.5
totalitarizm	-12.5
truput	-12.5
černobyl	-12.5
įvykę	-12.5
▁¦1975	-12.5
abejing	-12.5
apmokestint	-12.5
dešimči	-12.5
gabenim	-12.5
kalėd	-12.5
kandidatūr	-12.5
lūž	-12.5
moduli	-12.5
neatsiejama	-12.5
nukrypima	-12.5
subtil	-12.5
suinteresuotom	-12.5
vadinamosios	-12.5
nuotrauk	-12.5
puslapi	-12.5
teheran	-12.5
ukrainieči	-12.5
versija	-12.5
garri	-12.5
mobilizavim	-12.5
rekord	-12.5
agysl	-12.5
išdėstyto	-12.5
neatskiriama	-12.5
neliečiamum	-12.5
papasakot	-12.5
parish	-12.5
priartė	-12.5
orientacin	-12.5
peratyv	-12.5
technik	-12.5
apskaičiuot	-12.5
galėję	-12.5
traukini	-12.5
flor	-12.5
įstojus	-12.5
medviln	-12.5
formul	-12.5
švenči	-12.5
bioduj	-12.5
individ	-12.5
išvestini	-12.5
atidėjim	-12.5
leinen	-12.5
skaudžia	-12.5
john	-12.5001
skambi	-12.5001
skraidy	-12.5001
pažeidėj	-12.5001
nuvyl	-12.5001
maitinim	-12.5001
nežmonišk	-12.5001
įstojo	-12.5001
konsultuojama	-12.5001
neapsiriboja	-12.5001
susiejim	-12.5001
kertini	-12.5001
berlyn	-12.5001
patikslint	-12.5001
išaiškėj	-12.5001
didžiaja	-12.5001
kvietim	-12.5001
paliekant	-12.5001
nuosaik	-12.5001
mikrokredit	-12.5001
užtekt	-12.5001
pretekst	-12.5001
sąžinė	-12.5001
patriot	-12.5001
atidedam	-12.5001
vyriausiaja	-12.5001
momenta	-12.5001
leidyb	-12.5002
perduodam	-12.5002
nedeklaruojama	-12.5002
diskriminuojam	-12.5002
manyčiau	-12.5002
priderint	-12.5002
bomb	-12.5002
formalum	-12.5002
emocin	-12.5002
mėginama	-12.5003
pareigyb	-12.5003
ikimokyklin	-12.5003
atsiradusi	-12.5003
prekiaut	-12.5003
bevizi	-12.5004
nusiaub	-12.5004
zapat	-12.5004
priverčia	-12.5004
geostrategin	-12.5004
ló	-12.5004
užkerta	-12.5005
nuteist	-12.5005
hago	-12.5005
pusmet	-12.5005
ordon	-12.5005
nusiųst	-12.5005
infekcij	-12.5006
bauginim	-12.5006
geriamo	-12.5006
mokymui	-12.5006
vykdytoja	-12.5007
žaliąj	-12.5007
perduosi	-12.5007
konstatuojamąj	-12.5007
eksploatacij	-12.5007
owle	-12.5008
▁¦51	-12.5008
vadinamuo	-12.5008
dubliavim	-12.5008
komercinės	-12.5009
estija	-12.5009
padėsianči	-12.501
▁¦132	-12.501
ilgesni	-12.501
srov	-12.501
atminti	-12.501
reguliuotoj	-12.5011
skaitmeninės	-12.5012
ižd	-12.5012
gener	-12.5012
plačiąj	-12.5013
pripažindama	-12.5013
papildys	-12.5013
komunikacij	-12.5013
aiškūs	-12.5014
būtiniausi	-12.5014
palaikydam	-12.5015
▁";	-12.5019
nulin	-12.5019
posaki	-12.502
ekp	-12.502
dirv	-12.5021
paėm	-12.5023
atsiskaity	-12.5023
asbest	-12.5025
produktyvum	-12.5026
pažeidžiant	-12.5027
klestinči	-12.5027
pažeidžiamum	-12.5029
paklausė	-12.5029
juntama	-12.503
skirstom	-12.5031
lif	-12.5033
krikščiony	-12.5036
motyvuot	-12.5038
funkcini	-12.5039
prižiūrėtoj	-12.5039
gaminamo	-12.504
pažiūrėt	-12.504
gerinam	-12.5041
amerikiečiai	-12.5042
spekuliant	-12.5043
88	-12.5044
objektyviai	-12.5044
žalioj	-12.5046
lobistai	-12.505
siejamo	-12.5051
sudaranči	-12.5051
andor	-12.5051
stabilizacij	-12.5056
atveriant	-12.5059
savaitėm	-12.5059
liudyt	-12.5062
viršyt	-12.5063
motina	-12.5063
intensyvesn	-12.5063
įspūding	-12.5065
gairėm	-12.5067
saugiau	-12.5069
padidinama	-12.507
didžiuot	-12.5073
atsakant	-12.5076
pavėluotai	-12.5079
kritini	-12.5083
kritikuot	-12.509
rūpesting	-12.5096
paskyrim	-12.5099
row	-12.5099
izoliuota	-12.5104
pristatyta	-12.5107
susidūrim	-12.512
įkalinim	-12.513
cial	-12.5132
nacionalizm	-12.5134
nesilaikym	-12.5141
jaučiama	-12.5159
prisiminkim	-12.5164
atstovaujanči	-12.5173
registracij	-12.5175
patobulinta	-12.518
pasiturinči	-12.5182
tarpvyriausybinė	-12.5185
kreipim	-12.5186
aktyvum	-12.5187
absoliučia	-12.5188
didinama	-12.5188
vietom	-12.5191
kovotoj	-12.5199
tenkanči	-12.52
pavadinima	-12.5201
eilutė	-12.5214
palauk	-12.5214
kišti	-12.5215
kontroliav	-12.522
apsigyven	-12.5223
cituoj	-12.5224
įplauk	-12.5225
ratini	-12.5234
įsipareigoja	-12.5236
patogia	-12.5249
diplomatinė	-12.5254
rud	-12.5264
eksportuot	-12.5268
realybė	-12.5272
būsen	-12.5279
frakcijom	-12.5287
costa	-12.5291
stovė	-12.5292
metodik	-12.5294
puol	-12.5307
būtinum	-12.5312
ekologiškesn	-12.5332
laikinoj	-12.534
stabilumu	-12.5358
nevyriausybinė	-12.5359
specialioj	-12.5388
gimim	-12.539
remianči	-12.5405
krovinini	-12.5418
turinčiu	-12.542
nukentėt	-12.5474
operacijom	-12.5482
įpareigojant	-12.5483
nedarys	-12.5485
ekonomi	-12.5507
atnešt	-12.5521
skatin	-12.5526
lemiant	-12.554
aiškinti	-12.5543
minči	-12.5547
išskirtinė	-12.5554
tarpini	-12.5561
užduo	-12.56
ambicinga	-12.5616
valdoma	-12.5637
each	-12.5649
valgyti	-12.566
reaguo	-12.5668
gyvybė	-12.5669
lv	-12.568
atmest	-12.5687
diskutuo	-12.5699
konsulin	-12.5706
paprastesn	-12.5714
reikiamu	-12.5716
nužud	-12.5728
prisimen	-12.5728
tarpininka	-12.5747
sąvok	-12.5756
aptardam	-12.5765
trukt	-12.5772
praktišk	-12.578
pažymim	-12.5787
pačiom	-12.5821
imperialistinė	-12.5832
žemina	-12.5868
pažinti	-12.5878
direktori	-12.5882
▁¦600	-12.5885
ekosistema	-12.5887
pamači	-12.5894
šla	-12.5907
išnaudoj	-12.5915
prieštaringa	-12.5916
rekomendacijom	-12.5918
matoma	-12.5981
tvaresn	-12.5993
agentūrom	-12.5996
gon	-12.5997
pelning	-12.6002
paneig	-12.6008
metan	-12.6017
nukentė	-12.6064
dabartinėm	-12.6066
priėmėm	-12.6074
atsakom	-12.6086
atrast	-12.6095
5/200	-12.6109
teikdam	-12.6114
etninė	-12.6168
pripažįst	-12.6187
audy	-12.6205
▁¦53	-12.6226
lankyti	-12.6237
griežtin	-12.6244
verči	-12.6292
pastangom	-12.6304
stumiam	-12.631
strateginiam	-12.6341
skelbiant	-12.6356
tikėta	-12.6378
matysi	-12.6387
tvirtu	-12.6395
žiūri	-12.64
švaistym	-12.6453
rašyti	-12.6461
sistemini	-12.6485
rastum	-12.6525
domė	-12.6525
uždang	-12.6526
praleidžia	-12.6536
laikymus	-12.6555
vidutinišk	-12.6593
sakydam	-12.6604
vystymu	-12.6609
suomij	-12.6614
glaudesn	-12.6663
diplomat	-12.6671
reguliuoja	-12.6672
tvirtindama	-12.6691
kenkiant	-12.6729
ranc	-12.6753
dalijimo	-12.6763
dalyvav	-12.677
prisiim	-12.6799
švaistyt	-12.6804
naudotų	-12.6811
96	-12.6819
energ	-12.6833
savų	-12.6844
bruož	-12.6876
atkakl	-12.6893
spekuli	-12.6895
investav	-12.6915
sulaukė	-12.6924
propaguoja	-12.693
imtumė	-12.693
susidomėj	-12.6937
užraš	-12.6953
laikytum	-12.6958
neteisyb	-12.6959
apgaul	-12.6965
rašytoj	-12.6966
našum	-12.6972
junta	-12.6972
fragment	-12.6977
alban	-12.698
skurdžia	-12.6981
sugeba	-12.6981
savanori	-12.6984
burt	-12.6984
sekretor	-12.6986
čekij	-12.6988
sutaup	-12.6988
afrik	-12.6992
kišimo	-12.6994
imdamas	-12.6996
šimtmeči	-12.6998
ryžt	-12.6998
diskriminuo	-12.6998
einančia	-12.6999
skaitė	-12.6999
dėsty	-12.7
natūr	-12.7
demencij	-12.7
inicijuoja	-12.7
instancij	-12.7
kontraband	-12.7
naudodamasi	-12.7
nusivylusi	-12.7
pasyvi	-12.7
prostitucij	-12.7
qaeda	-12.7
toleruojam	-12.7
wolski	-12.7
6-00	-12.7
aleksandr	-12.7
ambicij	-12.7
antibiotik	-12.7
apgyvendint	-12.7
aptarinėjam	-12.7
atsekamum	-12.7
atsparum	-12.7
besiverčianči	-12.7
burbul	-12.7
busuttil	-12.7
cenzūr	-12.7
cioloş	-12.7
demonstruoja	-12.7
diplomu	-12.7
dykumėjim	-12.7
ekstremizm	-12.7
elgetavim	-12.7
entuziasting	-12.7
euroskeptik	-12.7
frankfurt	-12.7
fundamentalizm	-12.7
funkcionavim	-12.7
gollnisch	-12.7
helmut	-12.7
homoseksual	-12.7
hökmark	-12.7
iniciator	-12.7
integracin	-12.7
intervencin	-12.7
išsklaidyt	-12.7
katalon	-12.7
keblum	-12.7
klasifikavim	-12.7
klinz	-12.7
kolumbijo	-12.7
komunizm	-12.7
konfrontaci	-12.7
lankytoj	-12.7
latvija	-12.7
literatūr	-12.7
lygiateisiškum	-12.7
lygiaverti	-12.7
negailesting	-12.7
orientavim	-12.7
pasipiktinim	-12.7
paslėpt	-12.7
paukšči	-12.7
pažeidinėjim	-12.7
pažvelki	-12.7
penktadien	-12.7
persikėlim	-12.7
priekabiavim	-12.7
privatizavim	-12.7
propagavim	-12.7
pöttering	-12.7
renovacij	-12.7
sterckx	-12.7
susiskaldym	-12.7
suvaržyt	-12.7
televizori	-12.7
topolánek	-12.7
transliacij	-12.7
tuberkulioz	-12.7
tyrėj	-12.7
vašington	-12.7
ß	-12.7
įkvėpt	-12.7
įvažiavim	-12.7
įšaldyt	-12.7
špidla	-12.7
švieži	-12.7
▁[...]	-12.7
▁¦2009-201	-12.7
atsikraty	-12.7
atsistatydin	-12.7
dalyvaudam	-12.7
integruojant	-12.7
invazij	-12.7
kambodžo	-12.7
katalog	-12.7
klaidinanti	-12.7
logotip	-12.7
nepakeičiama	-12.7
nutekėjim	-12.7
pardavėj	-12.7
pažeidinėja	-12.7
perversm	-12.7
plečiant	-12.7
pozityv	-12.7
prerogatyv	-12.7
provokacij	-12.7
samdom	-12.7
užuomin	-12.7
autentišk	-12.7
gyvsidabr	-12.7
kėdė	-12.7
pardavinė	-12.7
gimdym	-12.7
lūdi	-12.7
protrūki	-12.7
remdamos	-12.7
įžangin	-12.7
daniel	-12.7
sutelkiama	-12.7
6-04	-12.7
baudžiamajam	-12.7
dekret	-12.7
erzin	-12.7
glausta	-12.7
larosi	-12.7
maskvo	-12.7
pradėję	-12.7
slėpim	-12.7
įsigilin	-12.7
lyderyst	-12.7
prekiaujant	-12.7
nepastovum	-12.7
šnip	-12.7
vientisum	-12.7
gydom	-12.7
žudik	-12.7
saugykl	-12.7
replik	-12.7
žyd	-12.7
švęst	-12.7
kosmetik	-12.7
nugar	-12.7
gabenti	-12.7
įrodinėj	-12.7
dilem	-12.7
biomas	-12.7001
fraz	-12.7001
parametr	-12.7001
blair	-12.7001
imperij	-12.7001
pasiteira	-12.7001
viršijo	-12.7001
vėlyv	-12.7001
bandydam	-12.7001
tušči	-12.7001
gerindam	-12.7001
pokyt	-12.7001
prievol	-12.7001
šimtą	-12.7001
gilesn	-12.7001
mugab	-12.7001
aparat	-12.7001
ekran	-12.7001
kilometr	-12.7001
suklaidint	-12.7001
menkina	-12.7001
1/200	-12.7001
atminim	-12.7001
estrel	-12.7001
pirmtak	-12.7001
nesantaik	-12.7001
neginčytina	-12.7001
svarstydam	-12.7001
tvarkarašt	-12.7001
pelnyti	-12.7001
ugdyt	-12.7001
pavidal	-12.7002
prigimti	-12.7002
poslinki	-12.7002
prekiautoja	-12.7002
bendradarbiaudam	-12.7002
nustoj	-12.7002
šimtam	-12.7002
arogan	-12.7002
pavedam	-12.7002
paruošt	-12.7002
įdomios	-12.7002
gavyb	-12.7002
gucht	-12.7002
plačiaj	-12.7002
pateisinim	-12.7002
rdamo	-12.7003
skriau	-12.7003
pradėk	-12.7003
komplikuot	-12.7003
plėtojama	-12.7003
žmogiškąj	-12.7003
anuliu	-12.7004
front	-12.7004
surenkam	-12.7004
šakni	-12.7004
magnet	-12.7004
pažadėjo	-12.7004
davies	-12.7004
padaryki	-12.7004
gaminami	-12.7004
jautien	-12.7004
apmokam	-12.7004
painiot	-12.7004
vice	-12.7004
informuojam	-12.7005
pasiskirstym	-12.7005
tarnautoj	-12.7005
nesibaigia	-12.7005
įsivaizduojam	-12.7005
gebėt	-12.7005
hler	-12.7006
silva	-12.7006
savitarpi	-12.7006
suvaidint	-12.7006
įgaliota	-12.7006
niekuo	-12.7007
hait	-12.7007
virus	-12.7007
žinyn	-12.7007
trich	-12.7007
apmokėjim	-12.7007
laikinąj	-12.7007
jėgainės	-12.7007
kolegija	-12.7007
pakeičiant	-12.7008
praho	-12.7008
lyginama	-12.7008
▁¦99	-12.7008
skyd	-12.7008
pasireikšt	-12.7009
siejami	-12.7009
▁¦138	-12.7009
nuoseklesn	-12.701
vadovavo	-12.701
fanati	-12.7011
▁¦56	-12.7011
marc	-12.7011
įtaking	-12.7011
trukusio	-12.7012
pagalbiniam	-12.7012
atsispindėt	-12.7012
vadovaujanči	-12.7013
ginčytin	-12.7013
pelningum	-12.7014
flam	-12.7014
nykstanči	-12.7015
svarstė	-12.7016
sudedamąj	-12.7017
pakuot	-12.7018
teiginiai	-12.7018
atsiųst	-12.7018
1,2	-12.702
viduramži	-12.702
blokuoja	-12.7021
tyčia	-12.7021
pamėgin	-12.7022
koment	-12.7023
laimėtoj	-12.7024
išpli	-12.7026
pabandyt	-12.7026
juodąj	-12.7026
tuneli	-12.7027
wei	-12.7027
vietnam	-12.7029
naikinanči	-12.7029
auditori	-12.7033
senąj	-12.7035
apgauling	-12.7036
susivienijim	-12.7036
šiaurinė	-12.7039
įsiskolinim	-12.7039
prisipažin	-12.7043
susilauk	-12.7045
kėsin	-12.7045
netekusi	-12.7045
įvairinim	-12.7046
pasižiūrė	-12.7046
saugesnė	-12.7048
atšaukim	-12.7055
atimama	-12.7058
suabejot	-12.7062
kūrybing	-12.7067
skaičiuojam	-12.7067
saul	-12.7067
propaguojant	-12.7071
minsk	-12.7072
septintoj	-12.7072
svetainė	-12.7076
gaminanči	-12.7078
būstinė	-12.7078
išsipild	-12.7084
mažėjanči	-12.7085
nutarim	-12.7086
priėjim	-12.709
kreditori	-12.7092
paniek	-12.7093
mirusi	-12.7099
reikalaujanti	-12.7099
rizm	-12.71
mokestinė	-12.7101
natūralia	-12.7106
nacionalizacij	-12.7107
palaikanči	-12.7108
mėlynoj	-12.7111
pagerėjim	-12.7111
šildy	-12.7114
pratęsim	-12.712
tiesiam	-12.7122
pašalinim	-12.7129
trą	-12.7137
įgyvendinanči	-12.7138
gruzij	-12.714
padalijim	-12.7141
sveikesn	-12.7141
parašyt	-12.7142
vadovyb	-12.7144
arabij	-12.7146
iškėlė	-12.7146
hercegovin	-12.7148
sąžiningum	-12.7152
prisidedanči	-12.7152
stipriausi	-12.7157
frag	-12.7161
nusprendusi	-12.7162
kenčianči	-12.7166
tradicija	-12.7167
mažmenin	-12.7172
mokum	-12.7178
apyvartini	-12.7178
reikšmingum	-12.7183
kritikav	-12.7187
kroe	-12.7189
vadovybė	-12.7191
nesilaiky	-12.7196
konkurencinė	-12.7201
wie	-12.7208
linijom	-12.7214
priskyr	-12.7218
guin	-12.7218
minėj	-12.7219
prioritetinė	-12.7223
naikinama	-12.7225
džiugin	-12.7227
ieškini	-12.723
paskirto	-12.7231
ryžtinga	-12.7233
ankstesniu	-12.7237
gyvenvie	-12.7253
šaka	-12.7255
demografinė	-12.7258
pamen	-12.726
sveikinim	-12.7266
apsirūpin	-12.7267
padarius	-12.7269
patirianči	-12.727
tobulinam	-12.7272
dic	-12.7274
džiug	-12.7281
pagrįstum	-12.7288
išankstinė	-12.7294
pietini	-12.7299
represija	-12.7305
brazilij	-12.7313
didindam	-12.7313
pramoninė	-12.7319
anders	-12.732
kalbanči	-12.7332
kreditavim	-12.7335
kinij	-12.7344
padalyt	-12.7348
sudėtingiausi	-12.7353
kolegijo	-12.7356
skaitysi	-12.7357
konkuruoja	-12.7369
pietinė	-12.7384
įsitvirtin	-12.7395
atmetim	-12.7395
makroekonominė	-12.7396
palydovin	-12.74
seniausi	-12.7402
škotij	-12.7428
biurokratinė	-12.7429
nerv	-12.7448
teisminė	-12.7453
stichinė	-12.7478
stipresnė	-12.7482
ldyt	-12.7482
skaidresn	-12.7535
uzin	-12.7566
nacionaliniam	-12.7609
persikel	-12.7639
artina	-12.7645
keliančiam	-12.7657
atidėta	-12.766
kainav	-12.7676
liberal	-12.7686
atvykim	-12.7697
makro	-12.7697
palestin	-12.7705
pavojingom	-12.7706
jaunesn	-12.78
saugu	-12.7805
prisided	-12.7831
padirbt	-12.7868
šiuolaikinia	-12.7881
rodikl	-12.7953
atsisakė	-12.7975
pridė	-12.7985
švelninim	-12.7987
keitim	-12.7989
tarifin	-12.8079
laipsnišk	-12.8085
santyk	-12.815
atpažin	-12.815
aprašyt	-12.8167
konkurencingesn	-12.8195
organizuo	-12.8232
kokybiška	-12.8242
atskirom	-12.8244
konkretesn	-12.8244
viešoj	-12.8262
racionaliz	-12.8276
užmirš	-12.829
apibrėž	-12.8317
sistemom	-12.8341
apibrėžima	-12.8354
susirūpin	-12.8384
suimt	-12.8444
partin	-12.8495
apsvarsty	-12.8496
suvaldy	-12.8523
išstumt	-12.8537
seksualinė	-12.8567
instituta	-12.8574
ndij	-12.8577
paspartin	-12.8578
mokym	-12.8581
susilpnin	-12.8681
atitraukt	-12.8689
leisdam	-12.8715
paskutiniam	-12.8748
prižiūrė	-12.8828
įvertinima	-12.8874
stichin	-12.892
programavim	-12.8939
paisym	-12.8947
fiskalin	-12.8965
atidėlioj	-12.9038
lankiausi	-12.9051
atsidūrė	-12.9054
!	-12.906
žiūrėjim	-12.9063
automobil	-12.9121
prevencin	-12.9123
nelegal	-12.9127
erkel	-12.9136
paguod	-12.9197
logik	-12.9215
lgėsi	-12.9258
nesąmon	-12.9326
tvarkyt	-12.9343
koncentracij	-12.935
nacionaliz	-12.936
etiket	-12.9364
privers	-12.9365
95/	-12.938
svetain	-12.9404
liberalizav	-12.9408
teigimu	-12.9409
gėr	-12.9423
statym	-12.9449
įsiskolin	-12.9451
šiaurin	-12.9452
užsipu	-12.9454
recept	-12.9456
valstybinėm	-12.9459
keistų	-12.9467
likę	-12.9471
dėkoj	-12.9472
abejotina	-12.9476
stabdym	-12.9477
slovėn	-12.948
užsitęs	-12.9481
vadyb	-12.9484
keisdam	-12.9486
liauti	-12.9487
remdama	-12.9492
pralaimi	-12.9493
pranaš	-12.9493
dviprasmišk	-12.9497
adekvat	-12.9498
deklaruojam	-12.9498
biržel	-12.9499
suvereni	-12.95
klestė	-12.95
cigare	-12.95
hipotek	-12.95
homofobi	-12.95
šiukšl	-12.95
stimul	-12.95
užsispyr	-12.95
ú	-12.95
abbas	-12.95
adekvači	-12.95
angliavandenili	-12.95
antisemit	-12.95
apgailestavim	-12.95
aprėpia	-12.95
apylinkė	-12.95
autonomin	-12.95
bagaž	-12.95
bangladeš	-12.95
benazir	-12.95
bitinink	-12.95
bičiuli	-12.95
budapešt	-12.95
charakteri	-12.95
departamenta	-12.95
dioksin	-12.95
disciplin	-12.95
diversifikavim	-12.95
diversifikuot	-12.95
egzistuot	-12.95
eikvojim	-12.95
ekstradicij	-12.95
entuziazm	-12.95
fikacija	-12.95
filtr	-12.95
gauzès	-12.95
gimstamum	-12.95
guerre	-12.95
hektar	-12.95
identitet	-12.95
importuojanči	-12.95
inicijav	-12.95
islandija	-12.95
išieškojim	-12.95
iškraipyt	-12.95
išsiveržim	-12.95
juncker	-12.95
juodkalnija	-12.95
kirgizij	-12.95
kodifikavim	-12.95
kodifikuot	-12.95
konfiskuot	-12.95
kontinent	-12.95
korporacij	-12.95
kriminalin	-12.95
kruvin	-12.95
ledyn	-12.95
lichtenštein	-12.95
lobizm	-12.95
lukashenk	-12.95
lygiagrečia	-12.95
medžiokl	-12.95
mianmar	-12.95
miroslav	-12.95
miškininkyst	-12.95
nepertraukiam	-12.95
nuslėpt	-12.95
nustačius	-12.95
original	-12.95
padirbėjo	-12.95
pasikartojanči	-12.95
pasikartojim	-12.95
pavesta	-12.95
piebalg	-12.95
plaukioja	-12.95
pliuralizm	-12.95
pragaišting	-12.95
proporcingo	-12.95
protektorat	-12.95
ratifikuoja	-12.95
reprodukcin	-12.95
restoran	-12.95
sarajev	-12.95
savavališka	-12.95
schlyter	-12.95
skiepij	-12.95
sraigtasparni	-12.95
stačiatiki	-12.95
stebukling	-12.95
stevenson	-12.95
surašym	-12.95
techniška	-12.95
temperatūr	-12.95
toubon	-12.95
tvirtovė	-12.95
vakarietišk	-12.95
varžyb	-12.95
°	-12.95
įšaldym	-12.95
šešeri	-12.95
šventvagyst	-12.95
ţ	-12.95
žov	-12.95
▁¦17-1	-12.95
apgaudinėj	-12.95
apėmusi	-12.95
argentin	-12.95
bejėgišk	-12.95
boikot	-12.95
gvilden	-12.95
impuls	-12.95
jacek	-12.95
korumpuot	-12.95
kruopšt	-12.95
kukurūz	-12.95
laureat	-12.95
motorini	-12.95
nusistovėj	-12.95
padėjėj	-12.95
pagarsėjusi	-12.95
pastūmė	-12.95
periodišk	-12.95
pirmaujanči	-12.95
preliminar	-12.95
psichologin	-12.95
rungtyn	-12.95
slopinim	-12.95
standartizavim	-12.95
stulbin	-12.95
tramvaj	-12.95
transeuropini	-12.95
šantažu	-12.95
andersson	-12.95
kaimyninėm	-12.95
pablogint	-12.95
pakrašt	-12.95
resurs	-12.95
rezultatyvi	-12.95
skambėj	-12.95
užkraut	-12.95
įpėdin	-12.95
įvesdama	-12.95
momentu	-12.95
spekuliacin	-12.95
žemdirbyst	-12.95
apsisprendė	-12.95
seišeli	-12.95
šešiasdešimt	-12.95
bjr	-12.95
diabet	-12.95
industri	-12.95
lefran	-12.95
tibetieči	-12.95
ublia	-12.95
atėn	-12.95
devinta	-12.95
fiksuoja	-12.95
sanitari	-12.95
sušauk	-12.95
autoritarin	-12.95
lygiaverči	-12.95
ń	-12.95
spūsti	-12.95
ežer	-12.95
geranorišk	-12.95
informuotum	-12.95
pasmerkim	-12.95
suirutė	-12.95
dešimtajam	-12.95
azor	-12.95
suaugusi	-12.95
vynuog	-12.95
alžyr	-12.95
federalistin	-12.95
perspėjim	-12.95
telkini	-12.95
griūt	-12.95
sutrumpint	-12.95
buzek	-12.95
išduodant	-12.95
pajuto	-12.95
prekiaujam	-12.95
akcinink	-12.95
skurdžios	-12.95
paviršutinišk	-12.9501
sunkmeči	-12.9501
silvi	-12.9501
atėmim	-12.9501
media	-12.9501
patikino	-12.9501
pašalp	-12.9501
clav	-12.9501
sustabdyki	-12.9501
išvalyt	-12.9501
įsikūrus	-12.9501
albanija	-12.9501
ciniška	-12.9501
svetim	-12.9501
patikslinim	-12.9501
iškalbinga	-12.9501
išdėstym	-12.9501
žiauriausi	-12.9501
spąst	-12.9501
daugiašališkum	-12.9501
dinamik	-12.9501
tramdy	-12.9501
bitum	-12.9501
pageidavim	-12.9501
tyrinė	-12.9501
2/200	-12.9501
ketvert	-12.9501
konkurs	-12.9501
brun	-12.9501
elmar	-12.9501
gvardij	-12.9501
antonio	-12.9501
epoch	-12.9501
manydama	-12.9501
džiungl	-12.9501
apžvelgiam	-12.9501
blokland	-12.9501
parduodan	-12.9501
pikti	-12.9501
apraišk	-12.9501
drįsta	-12.9501
žūsta	-12.9501
sukėlusia	-12.9502
žemėlap	-12.9502
mašinist	-12.9502
susirinko	-12.9502
owski	-12.9502
einančio	-12.9502
vėlesniam	-12.9502
priimančios	-12.9502
sūnu	-12.9502
spėju	-12.9502
įvardij	-12.9502
patalp	-12.9502
įdėta	-12.9502
prabang	-12.9502
siūlydam	-12.9502
kišen	-12.9503
leonė	-12.9503
pesimi	-12.9503
neadekvatu	-12.9503
nuolanki	-12.9503
3/200	-12.9503
biokur	-12.9503
liūdes	-12.9503
brand	-12.9503
atsinaujinanti	-12.9503
-40	-12.9503
nedviprasmiška	-12.9503
eksportuotoj	-12.9503
oniška	-12.9504
bankrot	-12.9504
drastišk	-12.9504
nusipirk	-12.9504
kvap	-12.9504
silpnina	-12.9504
stiklin	-12.9504
talent	-12.9505
isaari	-12.9505
nutiest	-12.9506
užsakym	-12.9506
makroregionin	-12.9506
skleidžiam	-12.9506
išaiškinama	-12.9506
miškotvark	-12.9507
sukarint	-12.9507
nesistengi	-12.9508
riauš	-12.9508
rinkiny	-12.9509
nesilaikant	-12.9511
makrofinansin	-12.9511
išsaugant	-12.9512
tipiška	-12.9513
pakoreguot	-12.9513
vilkinim	-12.9513
vadinamie	-12.9514
sulygint	-12.9514
žmogžudystė	-12.9514
pensin	-12.9515
mažesne	-12.9515
sukilima	-12.9517
modernizacij	-12.9517
užsiminė	-12.9518
vadybinink	-12.9518
korektiškum	-12.9519
apskaičiavim	-12.9519
albert	-12.9519
akimi	-12.952
užsitęsusi	-12.9521
importuotoj	-12.9522
kentė	-12.9522
charl	-12.9524
donorystė	-12.9525
pristatom	-12.9525
gebanči	-12.9526
pacituo	-12.9527
dažnum	-12.9528
fragmentiška	-12.953
▁¦0,4	-12.953
keliaudam	-12.9533
atkaklum	-12.9533
rūpė	-12.9533
gimtąj	-12.9537
114	-12.9539
sumuš	-12.9541
tarpsni	-12.9543
maišyt	-12.9543
jautėm	-12.9545
islamist	-12.9546
steigėj	-12.9549
teisybė	-12.9556
įvairiapus	-12.9557
regioninėm	-12.9559
šalininka	-12.9567
budrum	-12.9568
privilegijuot	-12.9569
viešinim	-12.957
eksportuojam	-12.9575
nėtina	-12.9577
apsikeitim	-12.9578
peržvelg	-12.9579
gėrim	-12.9579
north	-12.958
subsidijuojam	-12.9582
procedūriniu	-12.9583
edit	-12.9588
rizikinga	-12.9588
tilta	-12.9591
priartin	-12.9606
blokuot	-12.961
trukdanči	-12.961
lium	-12.9616
mėginima	-12.9618
garsėj	-12.9624
skelbim	-12.9627
grasinim	-12.9644
puikiausia	-12.9652
sudarinė	-12.9657
sąmonė	-12.968
atsisakydam	-12.9711
kandidatė	-12.9718
vengia	-12.9737
privest	-12.9756
užbaigim	-12.9764
nusileid	-12.9815
prieštaraujanči	-12.9819
panaudo	-12.9822
pavojingiausi	-12.9845
genini	-12.9845
spėt	-12.9857
įvairiom	-12.9862
įvairesn	-12.9876
transportavim	-12.9876
pilot	-12.991
galingesn	-12.9911
lul	-12.9938
derybini	-12.9968
respublik	-13.0015
internetinė	-13.007
patrauklesn	-13.0075
vengrišk	-13.0078
socialistinė	-13.0096
prieinamesn	-13.0192
laukdam	-13.0227
ištikima	-13.0227
atsiradim	-13.027
meninės	-13.0276
meksik	-13.0305
apsauganči	-13.0358
rimtum	-13.0393
atliekanči	-13.0398
koncentra	-13.0419
pamatytum	-13.0468
nesinaudoja	-13.0476
2013	-13.0479
būtumė	-13.0483
patirdam	-13.054
inamojo	-13.0545
danij	-13.0587
principini	-13.085
logini	-13.092
erling	-13.0956
nusistat	-13.098
silpnesn	-13.0984
cukr	-13.0987
marg	-13.1039
pagrindžia	-13.1039
atšauk	-13.104
prastėj	-13.117
patrauk	-13.1213
aliej	-13.1226
pabrėždam	-13.1249
konsul	-13.1447
pažįst	-13.1506
pasirūpin	-13.1566
protestuoj	-13.1575
investuo	-13.1819
įpareigoja	-13.1834
kančiom	-13.1866
priimdam	-13.1884
darnesn	-13.1912
pamirš	-13.201
pažvelg	-13.2206
liūdn	-13.226
išlaisvin	-13.2261
besitęsianči	-13.2272
trečdal	-13.2296
priimantie	-13.2345
užsibrėž	-13.24
tvirtinim	-13.2474
aikšt	-13.249
paleid	-13.2592
iškastin	-13.2597
ratifikav	-13.2625
pakanka	-13.264
varžoma	-13.2698
q	-13.2698
makedon	-13.271
funkc	-13.2717
separatist	-13.272
atvėr	-13.2735
gaivin	-13.2741
nutuk	-13.2747
ardini	-13.2757
susivienij	-13.277
prieštarav	-13.2772
aukščiau	-13.2779
saugodam	-13.2783
komunik	-13.2786
menini	-13.2789
konfidencial	-13.2795
nyksta	-13.2807
chronišk	-13.2809
bulgar	-13.2812
stabilizuojan	-13.2814
infek	-13.2822
à	-13.2834
ć	-13.2834
ň	-13.2834
ł	-13.2834
ķ	-13.2834
ê	-13.2834
ñ	-13.7834
ż	-13.7834
·	-13.7834
ç	-13.7834
ý	-13.7834
ő	-14.7826
ï	-14.7827
ø	-14.7828
[	-14.7829
ş	-14.783
+	-14.7831
'	-14.7832
%	-14.7833
]	-14.7834
_	-14.7834
ò	-14.7834
ľ	-14.7834
ś	-14.7834
̨	-14.7834
έ	-14.7834
π	-14.7834
ρ	-14.7834
υ	-14.7834
”	-14.7834
•	-14.7834
ř	-14.7834
7	-14.7834
ī	-14.7834
