<pad>	0
</s>	0
<unk>	0
¦	-1.55744
▁¦	-1.59075
▁်	-2.27079
င	-3.60326
▁့	-3.86807
း	-4.00374
ည	-4.16321
သ	-4.3417
ကို	-4.50845
▁့်	-4.50963
အ	-4.61
က	-4.6992
▁၊	-4.77393
တော	-4.89691
စ	-4.9093
မ	-5.07992
သော	-5.09822
တို	-5.14736
တ	-5.17251
န	-5.22493
▁၏။	-5.24
နှ	-5.33898
ကြ	-5.46817
▁	-5.50242
ရ	-5.52879
ောင	-5.5693
မည	-5.58811
သို	-5.59648
ပ	-5.61903
▁်၊	-5.62799
▁။	-5.72048
ယ	-5.73511
သင	-5.74612
ဖြ	-5.75857
ခြ	-5.76775
ငါ	-5.81554
္	-5.88681
▁်။	-6.00627
စေ	-6.0552
ဆ	-6.07814
မူ	-6.10621
▁၍	-6.11602
ဟု	-6.12069
လည	-6.14608
ထို	-6.18121
▁၏	-6.23584
သူ	-6.24239
နေ	-6.28886
မြို	-6.35279
ဘုရား	-6.37081
မြ	-6.37376
သား	-6.38388
သူတို	-6.39485
ချ	-6.3978
ောက	-6.40067
လ	-6.40642
ပြု	-6.42118
ံ	-6.44256
လျှ	-6.44695
ရာ	-6.44922
ရှိ	-6.46375
ာ	-6.464
သခ	-6.50067
ပါ	-6.50586
ရှင	-6.5059
ုပ	-6.51551
လျ	-6.52104
▁၌	-6.53592
ထာဝရဘုရား	-6.54355
▁်၏	-6.55245
ကိုယ	-6.56945
ေ	-6.57266
ထ	-6.59111
မှာ	-6.5941
၎	-6.61876
လော	-6.62562
လိမ	-6.62595
ပြည	-6.64246
အား	-6.65469
ဒ	-6.65524
ဝ	-6.68045
မိန	-6.69564
ဇ	-6.70957
လေ	-6.7328
ု	-6.73383
ခ	-6.73806
ဉ	-6.75215
းကို	-6.75487
ဆို	-6.76971
တည	-6.7754
▁၍၊	-6.81128
တိုင	-6.81379
သွား	-6.82521
တွ	-6.82667
ကျ	-6.83444
ိမ	-6.84321
မှ	-6.84324
လာ	-6.86928
ုတ	-6.91248
လက	-6.93169
လူ	-6.94285
ပြ	-6.97201
▁်၍၊	-6.98767
▁့။	-6.99051
သေ	-6.9987
▁့်၊	-7.00051
ဗ	-7.00902
ပေး	-7.01903
ကား	-7.02277
ပေါ	-7.03398
ထား	-7.06017
အဘယ	-7.06576
ရှေ	-7.066
ရှ	-7.07004
သောသူ	-7.07112
ဲ	-7.07339
းတို	-7.07581
▁်၏။	-7.08364
ီ	-7.08405
အကြော	-7.09719
ရပ	-7.10135
ို	-7.11713
းငှါ	-7.12035
အကျွန	-7.12239
ဘ	-7.1254
ိ	-7.12995
လင	-7.1371
ုန	-7.15167
တတ	-7.16569
ိတ	-7.17576
အပေါ	-7.17587
းသော	-7.18224
ှ	-7.18758
များ	-7.2029
ရောက	-7.20393
မင	-7.21866
သာ	-7.23059
ခံ	-7.23105
ပြစ	-7.24969
ဂ	-7.27062
ွ	-7.27234
စာ	-7.27288
သန	-7.27859
ဖ	-7.28142
ရေ	-7.29772
အာ	-7.30604
စား	-7.30824
ဤ	-7.33704
ကြော	-7.3557
နို	-7.37165
မိမိ	-7.39027
ူ	-7.39149
ုံ	-7.39315
သိ	-7.40059
ါ	-7.40973
ငါတို	-7.41939
ဘုရ	-7.43426
နား	-7.44163
ကျွန	-7.44216
ကြီး	-7.44734
ကဲ	-7.45479
နာ	-7.45777
ွေ	-7.46791
သောအခါ	-7.47241
▁့၏	-7.47573
အသက	-7.48197
တရား	-7.48199
ဖန	-7.48443
ပြီ	-7.49881
▁့၊	-7.50538
အမှု	-7.5355
ယူ	-7.5395
ပြန	-7.54146
စိတ	-7.54751
ပြော	-7.54791
ထွ	-7.56484
ပျ	-7.56775
တိ	-7.57501
အမျိုး	-7.58319
ရှိသော	-7.58373
လှ	-7.58684
လွ	-7.58866
အရာ	-7.60129
စွာ	-7.60806
သဖြ	-7.61507
မျှ	-7.61644
သက	-7.6165
ငါသ	-7.62051
မိ	-7.63679
းမ	-7.64421
မူသ	-7.65103
မျ	-7.65949
ဘက	-7.66256
ခံရ	-7.66661
ရှု	-7.66996
ခေါ	-7.67233
လိုက	-7.68392
ဥ	-7.68582
လူတို	-7.68788
ကြလော	-7.68899
ရိ	-7.70155
ယော	-7.70538
ကြား	-7.70976
ထံ	-7.71484
ဧ	-7.72946
ထော	-7.73424
မူသော	-7.73529
လုပ	-7.7375
လုံး	-7.74174
မာ	-7.76082
သတ	-7.77341
မရှိ	-7.78925
အားဖြ	-7.79066
ဘဲ	-7.79748
မို	-7.79919
တု	-7.80062
အစ	-7.8316
ဏ	-7.84005
ထိုသို	-7.84088
ဘော	-7.84903
းကင	-7.85748
သားတို	-7.87031
ထာဝရဘုရားသ	-7.87638
သူသ	-7.87711
မြေ	-7.88124
ယုဒ	-7.90006
စီရ	-7.90876
းကြီး	-7.90974
တန	-7.91217
ဆော	-7.91256
စုံ	-7.91579
လွှတ	-7.91708
ခါ	-7.92012
ဟ	-7.92291
းတော	-7.92596
ရဲ	-7.93947
ရကြ	-7.94129
ဦး	-7.94182
ကာလ	-7.94936
ထဲ	-7.94938
တောင	-7.94954
လမ	-7.95667
အို	-7.95676
စစ	-7.96086
းနှ	-7.96707
ထိုသူ	-7.97278
အမျိုးသား	-7.97283
ဝတ	-7.9859
သောသူတို	-7.99152
တယောက	-8.00231
များကို	-8.00468
ခဲ	-8.01578
ပတ	-8.01688
ိုင	-8.0196
ှင	-8.02154
အဘို	-8.02168
စကား	-8.02385
ကြွ	-8.02888
ရှိသမျှ	-8.0315
အဘ	-8.03762
ရှာ	-8.03967
စကားကို	-8.05683
ိပ	-8.06129
ပူဇော	-8.06149
မဟု	-8.06336
မတ	-8.07679
မေ	-8.08193
ထက	-8.08245
ယောက	-8.08622
တပ	-8.09068
ယေရှု	-8.09739
ရသော	-8.09875
မူပါ	-8.11152
ဘို	-8.11311
ွန	-8.11353
ဆုံး	-8.11502
ဒါဝိဒ	-8.12167
သိမ	-8.12285
မြောက	-8.12862
ပြီးမှ	-8.12914
ဝေး	-8.13504
သုံး	-8.13866
ဣသရေလ	-8.14002
မုန	-8.14836
းခြ	-8.1549
▁့်။	-8.16251
ရော	-8.16442
ထိုအခါ	-8.16672
အလို	-8.16794
သောကြ	-8.17434
စု	-8.18469
ကာ	-8.18646
ကယ	-8.18681
တွေ	-8.19099
ရက	-8.19881
ယေ	-8.20601
စရာ	-8.20953
မှီ	-8.2215
ခြေ	-8.22714
အခွ	-8.2289
သီး	-8.23041
ဆာ	-8.23241
းမူကား	-8.23689
ရှိသ	-8.23939
ပုရောဟ	-8.24617
ရန	-8.25521
တာ	-8.25868
ဣသရေလအမျိုး	-8.27239
ကြံ	-8.27516
ကျေးဇူး	-8.27607
ခရ	-8.27792
အမှုကို	-8.27819
သောသူသ	-8.28419
တိုက	-8.29194
အတူ	-8.29301
ဂု	-8.29621
အပ	-8.30234
မီး	-8.31124
ိန	-8.33139
ဖျ	-8.3369
မျိုး	-8.33788
ဃ	-8.3387
လယ	-8.34344
တပါး	-8.3511
မက	-8.3585
မောရှေ	-8.36082
နှာ	-8.36135
၊	-8.36543
ဇာ	-8.3707
မူကား	-8.37776
ဆက	-8.37793
အံ	-8.38625
ယခု	-8.38636
သမျှ	-8.39249
မွေ	-8.39597
နေရာ	-8.40285
ဟာ	-8.4067
ခွ	-8.40952
ဆီး	-8.41089
ခန	-8.41366
သမီး	-8.41477
ပြီးလျ	-8.41512
အဲ	-8.41733
ကြောက	-8.41774
စီး	-8.41909
မေး	-8.42193
ယေရုရှ	-8.42566
ထာဝရ	-8.43485
တံခါး	-8.44069
ဗာ	-8.45412
မှတ	-8.46572
ကွ	-8.46649
မှန	-8.46888
ထဲက	-8.47113
ဟူ	-8.47641
ြ	-8.47779
ခုန	-8.47947
မော	-8.48151
အလွ	-8.48254
ျား	-8.4941
လေး	-8.50272
ကျောက	-8.50375
ေလ	-8.52017
ရှိကြ	-8.52418
မှစ	-8.5244
ဝမ	-8.52561
ပြား	-8.52874
အခြား	-8.53142
ရိုက	-8.53188
တကွ	-8.53608
မြေကြီး	-8.53706
ဝိညာ	-8.53744
အတွ	-8.53825
ချက	-8.54084
ပလ	-8.55034
ဗေ	-8.55153
ဣ	-8.56356
အချိ	-8.56951
လိ	-8.57032
ဣသရေလအမျိုးသား	-8.57136
နှလုံး	-8.57148
တူ	-8.57989
သကဲ	-8.58236
လူများ	-8.58635
ယာ	-8.59487
ရှား	-8.60945
ရွှေ	-8.61207
းဟူသော	-8.61808
ပရောဖ	-8.62122
ဩ	-8.62287
ကြပါ	-8.63268
ကျိ	-8.64479
တမန	-8.64921
ခို	-8.65152
ပညာ	-8.66241
ထုတ	-8.66427
ဗို	-8.66585
နံ	-8.66664
ြိမ	-8.66686
ဘေး	-8.66703
ဝန	-8.66878
လူမျိုး	-8.66983
ဘွ	-8.67252
ဆီ	-8.6778
ွတ	-8.67869
ဓ	-8.68945
မီးရှို	-8.69122
ဇိ	-8.69776
နာမ	-8.69777
မူပြီ	-8.7136
ကြပြီ	-8.72323
ရွံ	-8.72725
ခိုး	-8.72763
ပိုင	-8.7391
ဟော	-8.73923
ဟေ	-8.7488
နိ	-8.75724
နွား	-8.75888
သောအရာ	-8.76488
မိမိတို	-8.76508
အမျ	-8.76745
လဲ	-8.77128
ယုံကြ	-8.77818
လို	-8.77881
စွန	-8.79029
ဟုဆို	-8.79254
▁?????????	-8.80338
ဟူမူကား	-8.80965
ပွဲ	-8.81533
ိမာန	-8.82243
ရှောက	-8.82693
ီအစ	-8.8507
ပြေး	-8.869
ကွယ	-8.87809
ဂါ	-8.88446
မယား	-8.89072
ရွေး	-8.89431
လျော	-8.89918
ပါပြီ	-8.92517
ဒုစ	-8.92757
ျ	-8.92788
ဘွား	-8.92982
ပြောဆို	-8.93885
ရွာ	-8.95017
မှာထား	-8.95721
ရိုး	-8.9753
ယာကု	-8.97573
ချီးမွ	-8.98986
အကျိုး	-8.98987
အော	-9.01686
လူအပေါ	-9.03251
ချီ	-9.04794
သူရဲ	-9.05408
စိုး	-9.05875
ရှောလု	-9.0615
ဖွဲ	-9.06406
ဘူး	-9.06435
စိုးရ	-9.06507
မြော	-9.06575
ဟောပြော	-9.06737
ာဏ	-9.06949
နားမှာ	-9.08649
အာရု	-9.09118
ပရိသတ	-9.10601
ရွက	-9.11228
ဟိ	-9.11481
မှတပါး	-9.11828
းဆဲ	-9.12252
လေဝိ	-9.13041
မတရားသော	-9.16899
ပျော	-9.17072
ချိုင	-9.178
းကပ	-9.1867
အချို	-9.19209
ပါစေသော	-9.19913
အဆွေအမျိုး	-9.20493
ဆုတော	-9.2199
အသရေ	-9.22017
တိရစ	-9.24099
ဒေါ	-9.24974
ဖိလိ	-9.25905
-	-9.52563
ဍ	-9.624
ဌ	-9.62847
ဋ	-9.68898
ဿ	-9.70348
။	-9.82826
၏	-10.6502
ဈ	-11.7902
ဠ	-12.8883
ဦ	-14.5687
?	-14.6057
၌	-14.6058
၍	-14.6059
့	-14.606
ဪ	-14.6061
်	-14.6061
