<pad>	0
</s>	0
<unk>	0
▁እ	-0
▁አ	-1
▁በ	-2
▁የ	-3
▁ከ	-4
▁ይ	-5
▁ወ	-6
▁ነ	-7
▁እን	-8
▁መ	-9
ንም	-10
ቸው	-11
▁ለ	-12
አብ	-13
▁ተ	-14
ግዚ	-15
ሔር	-16
ግዚአብ	-17
ግዚአብሔር	-18
▁ሰ	-19
▁ሁ	-20
▁ል	-21
ንድ	-22
▁ያ	-23
▁ወደ	-24
▁ስ	-25
▁ሁሉ	-26
▁ዘ	-27
ርሱ	-28
ችሁ	-29
▁ም	-30
▁እግዚአብሔር	-31
▁እንደ	-32
▁ብ	-33
▁የሚ	-34
▁ላ	-35
▁ነበ	-36
▁በእ	-37
▁አለ	-38
▁ግ	-39
ለሁ	-40
▁ደ	-41
▁ዘንድ	-42
▁ት	-43
▁ላይ	-44
ም።	-45
ንተ	-46
ገር	-47
▁እንዲ	-48
▁ነው	-49
ል።	-50
▁ሆ	-51
ውን	-52
ኤል	-53
▁ባ	-54
▁ስለ	-55
ድር	-56
▁ግን	-57
▁ከእ	-58
▁የእ	-59
▁እነ	-60
ዎች	-61
ጊዜ	-62
▁ቀ	-63
ትን	-64
ዚህ	-65
▁የተ	-66
▁ድ	-67
▁ጊዜ	-68
▁ታ	-69
▁ልጆ	-70
ትም	-71
▁አይ	-72
ውም	-73
ስራ	-74
▁ማ	-75
▁ጋ	-76
▁ሕ	-77
▁ነገር	-78
ስራኤል	-79
▁ን	-80
▁እርሱ	-81
▁ልጆች	-82
▁ክ	-83
▁ጋር	-84
▁አም	-85
▁እኔ	-86
▁ይህ	-87
ው።	-88
▁በአ	-89
▁ቤ	-90
▁ልጅ	-91
ል፤	-92
ዚያ	-93
▁ነበር	-94
▁ው	-95
▁በመ	-96
▁አል	-97
▁ጠ	-98
ልና	-99
ርስ	-100
ሪያ	-101
▁ዓ	-102
▁ኢ	-103
ችን	-104
▁እንዲህ	-105
ል፥	-106
▁ፈ	-107
ቸው።	-108
በት	-109
▁ንጉ	-110
ፊት	-111
ደረ	-112
▁ሰው	-113
▁ገ	-114
▁እንዳ	-115
▁መን	-116
ንና	-117
ለም	-118
▁እስ	-119
ለው	-120
▁ለእ	-121
ደር	-122
ለት	-123
▁ቃ	-124
ላችሁ	-125
▁አን	-126
ጌታ	-127
▁የአ	-128
ናንተ	-129
▁ሕዝ	-130
▁ፍ	-131
ም፥	-132
ይ፥	-133
ያስ	-134
ን፥	-135
▁ና	-136
ሥራ	-137
ነት	-138
ሠራ	-139
▁አላ	-140
▁አምላ	-141
▁ደግ	-142
ተኛ	-143
▁ሳ	-144
▁ቤት	-145
▁የእግዚአብሔር	-146
▁ነበረ	-147
ለህ	-148
▁ፊት	-149
▁ደግሞ	-150
▁የም	-151
ቸውም	-152
▁ቢ	-153
ያን	-154
ቶች	-155
▁ቀን	-156
▁ሆይ፥	-157
ስጥ	-158
ት።	-159
▁እጅ	-160
▁መል	-161
▁በዚያ	-162
▁አስ	-163
▁በም	-164
▁ዳ	-165
▁አንተ	-166
▁ከተ	-167
▁ከአ	-168
ቱም	-169
▁እነሆ	-170
▁በሰ	-171
▁አት	-172
ረስ	-173
ሆን	-174
ማይ	-175
▁ወይ	-176
▁ሰዎች	-177
ሉ።	-178
▁ሆነ	-179
ህን	-180
ስት	-181
▁ቃል	-182
▁ኃ	-183
▁ካ	-184
ለች	-185
▁ምድር	-186
ቸውን	-187
ገድ	-188
▁ሲ	-189
▁ቅ	-190
ባት	-191
▁ድረስ	-192
▁ጌታ	-193
ን።	-194
መጣ	-195
▁ይላ	-196
ሆና	-197
ነበ	-198
መለ	-199
ናገ	-200
ርሱም	-201
▁ንጉሥ	-202
ምን	-203
▁አንድ	-204
ካከ	-205
▁ሊ	-206
▁እስከ	-207
ጢአ	-208
▁ጥ	-209
▁በእግዚአብሔር	-210
▁ራ	-211
ቱን	-212
ፍራ	-213
▁አለው።	-214
ለሁ።	-215
▁አምላክ	-216
▁የሰ	-217
ኋላ	-218
ህም	-219
▁ነው።	-220
ዊት	-221
▁ኢየ	-222
ስም	-223
ገባ	-224
▁ውስጥ	-225
▁ብሎ	-226
ሆነ	-227
ቀመ	-228
ችኋ	-229
▁ሌ	-230
ሳሌ	-231
ቸዋ	-232
▁አድር	-233
ብር	-234
▁ዕ	-235
▁ነበር።	-236
ት፥	-237
▁ሴ	-238
▁ዓመ	-239
▁አለ።	-240
▁እናንተ	-241
ዳን	-242
ወጣ	-243
▁የእስራኤል	-244
ነሣ	-245
ለሁ፥	-246
▁ሙ	-247
▁እግዚአብሔርም	-248
ውንም	-249
▁በኋላ	-250
▁የሚያ	-251
▁ነገ	-252
ም፤	-253
▁ለአ	-254
ለሁ፤	-255
▁ያለ	-256
መን	-257
ተው	-258
▁ቍ	-259
መል	-260
▁ይሆና	-261
ውያን	-262
▁በተ	-263
ሁዳ	-264
ርም	-265
▁ስለዚህ	-266
▁ወንድ	-267
ካከል	-268
ደረገ	-269
▁ድን	-270
▁እርሱም	-271
ምም	-272
▁እነሆ፥	-273
▁ሞ	-274
ትና	-275
ልን	-276
▁አሳ	-277
ዛብ	-278
ሩሳሌ	-279
ርባ	-280
ግብ	-281
ና።	-282
▁ሥ	-283
ኞች	-284
▁ሄ	-285
▁ነበሩ	-286
▁ይህን	-287
▁መካከል	-288
▁ወይም	-289
▁ምን	-290
ሕዛብ	-291
▁ሕዝብ	-292
▁ኃጢአ	-293
ላቸው	-294
▁ልብ	-295
▁ንጉሡ	-296
ኢየ	-297
ርያ	-298
▁ኢየሱ	-299
▁የወ	-300
ቶቻ	-301
ከተ	-302
▁ነው፤	-303
ዋዕ	-304
▁ባሪያ	-305
▁አው	-306
▁እንዲሁ	-307
▁ዛ	-308
▁ዓመት	-309
▁ሙሴ	-310
ሥዋዕ	-311
ሉ፤	-312
▁ሥራ	-313
ቹም	-314
▁ለመ	-315
ሉ፥	-316
ጠፋ	-317
▁አይደ	-318
ድን	-319
▁አሁ	-320
ልም	-321
ሮች	-322
ህና	-323
▁የመ	-324
▁መሥዋዕ	-325
▁ነፍ	-326
▁ደስ	-327
▁ይሰ	-328
ረው	-329
ራት	-330
▁ሚ	-331
▁ሁለት	-332
ሞች	-333
▁ዮ	-334
ላቅ	-335
ፈር	-336
ንን	-337
ርስዋ	-338
▁ብዙ	-339
ቸው፤	-340
ቤቱ	-341
ኝ።	-342
▁ጽ	-343
ያው	-344
▁ከፍ	-345
▁እነዚህ	-346
ላለም	-347
ይሁዳ	-348
▁በሚ	-349
▁በደ	-350
▁ወር	-351
▁ስፍራ	-352
▁እግዚአብሔርን	-353
▁ሕዝቡ	-354
ሕዝ	-355
ራራ	-356
▁ወገ	-357
ምና	-358
▁መልካ	-359
ዲህ	-360
▁እንጂ	-361
▁ጀ	-362
▁ለእግዚአብሔር	-363
▁የነበ	-364
ንጉ	-365
▁ስም	-366
▁ሸ	-367
ቆች	-368
▁መቶ	-369
▁ክፉ	-370
ት፤	-371
▁ከሰ	-372
ግሥ	-373
ቀር	-374
▁በታ	-375
ይወ	-376
▁ር	-377
ርስቶ	-378
ድቅ	-379
ሩሳሌም	-380
ፈስ	-381
▁አባ	-382
ዘላለም	-383
ልቅ	-384
በላ	-385
ገለ	-386
▁በዚህ	-387
▁አላቸው።	-388
▁እጅግ	-389
▁በል	-390
▁በምድር	-391
▁በዚያም	-392
▁እና	-393
▁ተቀ	-394
▁በው	-395
▁እስራኤል	-396
ታቸው	-397
▁ከመ	-398
▁ሁለ	-399
▁ይሁ	-400
▁ነበረ።	-401
ቢያ	-402
▁በወ	-403
▁እነርሱ	-404
▁ለሚ	-405
▁እኔም	-406
ርስቶስ	-407
▁ሦ	-408
▁በላ	-409
▁ሐ	-410
▁ኤ	-411
ድረ	-412
ታችሁ	-413
▁ወን	-414
ጀራ	-415
▁ማን	-416
▁ሺ	-417
▁በየ	-418
▁የማ	-419
▁ይወ	-420
▁ኢየሱስ	-421
ሳት	-422
▁እንግ	-423
ደርጋ	-424
▁ከእነ	-425
ልክ	-426
▁ነበር፤	-427
ተኛው	-428
▁በዳ	-429
▁ዓይ	-430
▁በማ	-431
▁ተናገ	-432
ቸው፥	-433
ደርግ	-434
ንያ	-435
▁ከተማ	-436
▁የእግዚአብሔርን	-437
ሩት	-438
ውያ	-439
▁ቆ	-440
▁በእስራኤል	-441
▁መጣ	-442
ብም	-443
▁እንደሚ	-444
ጥቶ	-445
ው፥	-446
▁መንገድ	-447
ዴት	-448
ሆኑ	-449
▁ሁሉ፥	-450
▁ምስ	-451
▁መሥዋዕት	-452
▁ጸ	-453
▁አቤቱ	-454
ስተ	-455
▁ተነ	-456
▁የምት	-457
▁በፊ	-458
▁እየ	-459
▁ሽ	-460
▁የሆነ	-461
ጠብ	-462
አልና	-463
ች።	-464
▁ድም	-465
ናገር	-466
▁እንዳይ	-467
ችም	-468
ምሮ	-469
▁ጊዜ፥	-470
▁ይላል።	-471
▁ኢዮ	-472
▁ሠራ	-473
▁አገ	-474
▁ውኃ	-475
ሉት	-476
▁በኢየ	-477
ኝ፥	-478
ውነት	-479
ቃጠ	-480
ቀረ	-481
▁ከዚያ	-482
▁አታ	-483
▁ከእርሱ	-484
▁ፍር	-485
▁አለቆች	-486
ምላ	-487
▁ሺህ	-488
በረ	-489
ንጉሡ	-490
▁በር	-491
▁ብር	-492
ቱንም	-493
▁አጠ	-494
ልፍ	-495
▁ዝ	-496
▁ለማ	-497
▁ተሰ	-498
▁አለቃ	-499
ኝ፤	-500
▁በዓ	-501
▁አገር	-502
▁እኛ	-503
▁ይላል	-504
▁ኪ	-505
▁በግ	-506
ለደ	-507
▁እንድ	-508
▁እንዲህም	-509
ኑም	-510
ና፥	-511
▁ዛሬ	-512
ገብ	-513
▁አሕዛብ	-514
ዎቹ	-515
▁አደረገ	-516
ን፤	-517
▁አቤቱ፥	-518
ዕቆ	-519
ላም	-520
ታት	-521
▁ሠ	-522
▁ዘመን	-523
ቻቸው	-524
▁መልካም	-525
ቅደ	-526
ሩም	-527
ው፤	-528
▁ታላቅ	-529
ቅር	-530
▁ሰማ	-531
መስ	-532
እዛ	-533
▁ከሚ	-534
ሠዊ	-535
ገና	-536
▁አብ	-537
▁ከወ	-538
▁እነርሱም	-539
ኛው	-540
ኖች	-541
ሁ።	-542
ዶች	-543
▁አሉ	-544
▁ዳዊ	-545
ሰማ	-546
▁እርስዋ	-547
▁ለዘላለም	-548
ቀደ	-549
▁የሠራ	-550
ኖር	-551
▁ሄደ	-552
▁መለ	-553
▁እርሱም።	-554
በር	-555
ክር	-556
ይፍ	-557
▁በጎ	-558
▁በመን	-559
ቀመጡ	-560
▁ጣ	-561
▁አዘ	-562
ከራ	-563
ህንም	-564
ባቸው	-565
▁ቅዱ	-566
▁ጀምሮ	-567
▁ጕ	-568
▁በሕ	-569
▁አደረ	-570
ዋን	-571
▁አያ	-572
▁የበ	-573
▁ዘንድ፥	-574
ሎች	-575
▁መስ	-576
ሱን	-577
ኖሩ	-578
ፈል	-579
▁ነበረ፤	-580
▁ወጣ	-581
▁ነበሩ።	-582
▁እስኪ	-583
▁ከእኔ	-584
ችሁን	-585
መሰ	-586
▁ሥጋ	-587
መና	-588
ስን	-589
▁ትእዛ	-590
▁ስድ	-591
▁እያ	-592
▁ባለ	-593
ነገ	-594
ቀድ	-595
▁አደ	-596
▁ድምፅ	-597
▁ከም	-598
▁ሌላ	-599
▁በባ	-600
▁በፍ	-601
▁ጻ	-602
አቸው	-603
▁ብት	-604
▁ነው፥	-605
▁ፊ	-606
▁እንግዲህ	-607
ሕዝቡ	-608
▁እሰ	-609
ውቃ	-610
ድም	-611
▁በእርሱ	-612
ሩ።	-613
ርዳ	-614
▁ይበ	-615
▁አሁን	-616
ጠራ	-617
▁ቍርባ	-618
▁እንጀራ	-619
ኖራ	-620
ረት	-621
ይወት	-622
▁ያል	-623
ላችሁ።	-624
▁አይደለም	-625
▁አንዱ	-626
ዙሪያ	-627
▁ሰባት	-628
▁ተራራ	-629
ልህ	-630
▁ኃጢአት	-631
ለህ።	-632
▁ወዳ	-633
ሰው	-634
ኃጢአ	-635
▁ሰጠ	-636
ይን	-637
▁ክርስቶስ	-638
ልና።	-639
▁ዕቃ	-640
▁የለ	-641
▁የባ	-642
▁ይልቅ	-643
▁ሆኖ	-644
▁ማንም	-645
ረገ	-646
ች፥	-647
▁ክንድ	-648
▁መንግሥ	-649
ቀበ	-650
▁አጠገብ	-651
ተዋ	-652
▁ያስ	-653
▁ሦስት	-654
ረከ	-655
ዓት	-656
▁አማ	-657
ኩል	-658
▁ከአንተ	-659
ላችኋ	-660
▁አሁንም	-661
ሀያ	-662
ርቅ	-663
▁እንዴት	-664
ውያንም	-665
ያንዳን	-666
ገዛ	-667
▁ኢያ	-668
▁መንፈስ	-669
ፈራ	-670
▁ጭ	-671
▁አየ	-672
ህ፥	-673
ጋይ	-674
ችሁም	-675
▁እግ	-676
▁ተነሥ	-677
▁ወገን	-678
▁ስሙ	-679
▁ብቻ	-680
▁ተመለ	-681
▁ከተሞች	-682
ሄድ	-683
በታ	-684
▁ዋ	-685
▁ከእግዚአብሔር	-686
ፋት	-687
▁ካህና	-688
ምራ	-689
ንስ	-690
ተኞች	-691
ፋን	-692
▁አልተ	-693
መረ	-694
▁ብለው	-695
▁ከዚህ	-696
▁ንጉሡም	-697
ሁ፥	-698
ህል	-699
ሕር	-700
ዋም	-701
▁ሴቶች	-702
▁ተመል	-703
▁ዳዊት	-704
መጡ	-705
▁ጨ	-706
▁በራ	-707
▁ያለውን	-708
ሩን	-709
ቢሎ	-710
ግብፅ	-711
▁ምድ	-712
▁በታች	-713
▁ይሆናል።	-714
ልና፥	-715
ቹን	-716
▁አሳል	-717
▁የተነሣ	-718
▁አሥራ	-719
ሎሞ	-720
ጠን	-721
ጥር	-722
▁በክ	-723
ጠው	-724
▁በኩል	-725
ችንም	-726
▁በአንድ	-727
▁አሉት።	-728
ደደ	-729
▁በቀ	-730
▁ዳር	-731
▁ሕግ	-732
▁ሳይ	-733
▁መዛ	-734
▁ገና	-735
▁አምላካ	-736
ሙር	-737
▁ወለደ	-738
▁የማይ	-739
▁አምስት	-740
ልስጥ	-741
▁ልጁ	-742
ንግ	-743
▁ጠላ	-744
ልስጥኤ	-745
▁ከእስራኤል	-746
ልሃ	-747
▁ከብ	-748
ገረ	-749
ለች።	-750
▁ወሰ	-751
▁ክብር	-752
▁እነሆም፥	-753
ስፋ	-754
ባባ	-755
ወር	-756
ደርጉ	-757
▁ወስ	-758
▁ተናገረ	-759
▁ከእናንተ	-760
▁እግዚአብሔር።	-761
በሰ	-762
▁አፍ	-763
▁ፍሬ	-764
ገደ	-765
▁ብላ	-766
ብን	-767
ልክት	-768
▁ስላ	-769
▁ኃይ	-770
ቸውንም	-771
▁ዳዊትም	-772
ና፤	-773
▁ርስ	-774
ጡ።	-775
▁ፈጽ	-776
▁ነገሥ	-777
▁ድንኳ	-778
ሁ፤	-779
ታው	-780
▁መጥ	-781
▁አራ	-782
▁ራስ	-783
▁በት	-784
ሮን	-785
▁ሂ	-786
▁ሴት	-787
▁ካህ	-788
▁ነገድ	-789
ዱም	-790
▁ኤል	-791
▁እር	-792
ር፥	-793
▁በፊት	-794
ነግ	-795
ዘው	-796
ድና	-797
▁ስን	-798
▁ናቸው።	-799
▁ለእስራኤል	-800
ድ፥	-801
▁ሥር	-802
▁ከዚያም	-803
ረብ	-804
ዖን	-805
ቀመጥ	-806
ሱም	-807
ሠዊያ	-808
ሞት	-809
▁በቤ	-810
▁የሰው	-811
▁በይሁዳ	-812
▁ከእርሱም	-813
▁ይሆን	-814
ርን	-815
ኢዮ	-816
▁በእኔ	-817
ልስጥኤማ	-818
ለን	-819
ሊት	-820
ውል	-821
▁በነ	-822
▁የእስራኤልም	-823
ቅም	-824
▁የታ	-825
▁ይጠ	-826
▁ያለው	-827
ማግ	-828
▁ሳኦ	-829
ገቡ	-830
▁ግብ	-831
ጆች	-832
ፎች	-833
ዋል።	-834
▁በስ	-835
▁ለም	-836
ሴፍ	-837
ታን	-838
▁ተከ	-839
▁በዚያን	-840
▁የእግዚአብሔርም	-841
ትንም	-842
▁ሰባ	-843
▁ይመጣ	-844
▁በከ	-845
▁ደግሞም	-846
ገኘ	-847
▁ቍርባን	-848
▁ከን	-849
ተኛውም	-850
▁ቍጣ	-851
▁አጥ	-852
ሩ፥	-853
ግባ	-854
▁ነበር፥	-855
ረሰ	-856
▁በሁ	-857
▁መታ	-858
▁የሌ	-859
▁አድርገ	-860
ሳን	-861
ጠላ	-862
▁በሌ	-863
▁የቀ	-864
▁ምንም	-865
▁አባት	-866
▁ትእዛዝ	-867
▁ከእነርሱ	-868
ለህ፤	-869
ማግሌ	-870
▁በብ	-871
▁መዛሙር	-872
ገል	-873
▁ትን	-874
ላለ	-875
▁ረ	-876
ች፤	-877
▁የለም	-878
▁በኢየሩሳሌም	-879
ወድ	-880
ጽሐ	-881
▁ሀያ	-882
▁አሉ።	-883
▁አድርጎ	-884
ቴን	-885
▁ጉ	-886
▁እው	-887
▁ወይስ	-888
▁የሠራዊት	-889
ደው	-890
ንም፥	-891
▁በበ	-892
▁ጥበ	-893
▁ተቀም	-894
ባል	-895
ዘጋ	-896
▁ሰም	-897
▁አሰ	-898
▁ሕዝቡም	-899
መው	-900
▁ቁ	-901
▁አራት	-902
▁ባሪያዎች	-903
ታል።	-904
ንም።	-905
ንድር	-906
ሶች	-907
ጀመ	-908
▁መብ	-909
▁ዘር	-910
ሮስ	-911
ለውን	-912
▁ምሕ	-913
▁ይቀ	-914
▁ይሁዳ	-915
እክ	-916
ለት።	-917
በትን	-918
ደረግ	-919
▁ልጆች፥	-920
ላሳ	-921
ጡ፥	-922
ረውን	-923
▁ለሰ	-924
▁በቅ	-925
▁ያሉ	-926
▁መቅደ	-927
▁ወንድሞ	-928
ሳችሁ	-929
▁ያዕቆ	-930
ታችን	-931
▁መንገ	-932
▁ሙሴም	-933
▁በእነ	-934
ሉም	-935
ሥር	-936
ውሎ	-937
ያም	-938
ደነ	-939
▁እንድት	-940
ሄዳ	-941
አል።	-942
▁ይሆናል፤	-943
▁መር	-944
ቀመጠ	-945
▁ፈር	-946
▁ኢየሱስም	-947
ርኮ	-948
ታም	-949
ሳቸው	-950
▁በዘ	-951
▁ነፍስ	-952
▁ኪዳን	-953
ሩ፤	-954
▁በጥ	-955
▁አውራ	-956
▁እያንዳን	-957
ምህ	-958
ረደ	-959
ድቃ	-960
ቢሎን	-961
▁ባል	-962
ጀመሪያ	-963
▁እውነት	-964
▁ነገሥታት	-965
ከብ	-966
ዋል፤	-967
▁መልሶ	-968
▁ቅዱስ	-969
▁በሰማ	-970
▁ተስፋ	-971
▁ቸ	-972
ለህ፥	-973
▁ሆን	-974
▁ሊያ	-975
በዛ	-976
ብዓ	-977
ኑን	-978
ዱ፥	-979
▁ምንድር	-980
ደርገ	-981
▁የል	-982
▁ይፈ	-983
▁ናቸው፤	-984
▁ኢየሩሳሌም	-985
ዊው	-986
▁ወዲ	-987
▁ደም	-988
▁አስቀድ	-989
ነው	-990
ጸና	-991
መለከ	-992
ባቶቻ	-993
ነበረ	-994
▁ለል	-995
▁ሆነ፤	-996
▁ይህም	-997
▁እንዲያ	-998
ኖስ	-999
▁ሚስ	-1000
▁ገደ	-1001
ንቀ	-1002
ዛት	-1003
ጆሮ	-1004
ለች፤	-1005
ሩትን	-1006
ናገራ	-1007
▁ፍርድ	-1008
▁ሽማግሌ	-1009
▁አደረጉ	-1010
ሁድ	-1011
ይም	-1012
▁ታላ	-1013
▁በቀር	-1014
▁መሠዊያ	-1015
▁አወ	-1016
▁እጁ	-1017
▁የዘ	-1018
▁ልብስ	-1019
▁በእውነት	-1020
▁በዙሪያ	-1021
▁አንተም	-1022
▁የከ	-1023
▁ሰሎሞ	-1024
ርቶ	-1025
ሱስ	-1026
ኑ።	-1027
ጡ፤	-1028
▁ዐ	-1029
▁ጌ	-1030
▁ለወ	-1031
▁ደቀ	-1032
▁ነፍሴ	-1033
ለማ	-1034
ቈጠ	-1035
ዱ።	-1036
ለች፥	-1037
▁የይሁዳ	-1038
ሄዱ	-1039
ላት	-1040
▁ሞተ	-1041
▁በእናንተ	-1042
ሬም	-1043
▁ነውና	-1044
ልኝ	-1045
ቴና	-1046
በትም	-1047
ግብጽ	-1048
አቸው።	-1049
▁በአን	-1050
ሰሙ	-1051
ቶቹ	-1052
ባችሁ	-1053
ደሪያ	-1054
ጽሐፍ	-1055
▁ያዘ	-1056
ላችሁ፤	-1057
ቅያስ	-1058
ልጣ	-1059
ሽን	-1060
ያዕቆ	-1061
▁ጽድቅ	-1062
መነ	-1063
ሜን	-1064
ብስ	-1065
ቸዋል።	-1066
ረድ	-1067
ሸከ	-1068
ዓብ	-1069
▁ወጥ	-1070
▁የሞ	-1071
▁ድንኳን	-1072
▁መሰ	-1073
▁ይለ	-1074
▁የምታ	-1075
▁በአንተ	-1076
▁ያደርጋ	-1077
▁ከእነርሱም	-1078
ራም	-1079
ቅል	-1080
አል፤	-1081
▁ጠራ	-1082
ለዳ	-1083
ምር	-1084
▁ነፋ	-1085
ድማ	-1086
ድጓ	-1087
▁ጮ	-1088
ዳዊት	-1089
▁መከራ	-1090
▁ብርሃ	-1091
▁እንኳ	-1092
ቦት	-1093
ኑ፥	-1094
ገኝ	-1095
▁ከባ	-1096
▁መጣ።	-1097
▁ሙሴን	-1098
▁ሚስት	-1099
▁ሰላም	-1100
▁ሰይፍ	-1101
▁በውኑ	-1102
▁ነበርና	-1103
▁ነኝ	-1104
▁ባሕር	-1105
ችል	-1106
▁ሌዋ	-1107
▁የደ	-1108
▁እርስ	-1109
▁ስለዚህም	-1110
ቢት	-1111
▁መጥቶ	-1112
▁የሚያስ	-1113
ረጋ	-1114
ስ፥	-1115
ራቸው	-1116
ዋንም	-1117
ላችሁ፥	-1118
▁መልአ	-1119
ስሐ	-1120
ሆን፥	-1121
▁ርስት	-1122
ለቆ	-1123
▁በፈ	-1124
▁ስድስት	-1125
▁ነበረ፥	-1126
ዶም	-1127
▁የምድር	-1128
▁የእስራኤልን	-1129
ቴም	-1130
ፀሐ	-1131
ቻቸውም	-1132
▁ዳርቻ	-1133
▁ነበሩ፤	-1134
ህ።	-1135
ስማ	-1136
ሽም	-1137
ጋና	-1138
▁ጫ	-1139
▁ምና	-1140
▁ጠጅ	-1141
▁ነገሠ	-1142
▁ለአንተ	-1143
▁የወይን	-1144
▁ለባ	-1145
▁ቤተ	-1146
ሰጥ	-1147
ምላካ	-1148
ችንን	-1149
▁ለብ	-1150
▁በለ	-1151
▁ገባ	-1152
▁ለምን	-1153
▁መለሰ	-1154
▁ቢሆን	-1155
ቀደሰ	-1156
▁ሦስ	-1157
▁ተወ	-1158
▁ይገባ	-1159
▁ወንድሞች	-1160
ራችሁ	-1161
ታቸውን	-1162
▁አንቺ	-1163
▁የሚቃጠ	-1164
ቀው	-1165
ቂት	-1166
ያ፥	-1167
ርነት	-1168
▁ንጹ	-1169
▁በሕይወት	-1170
▁ሁል	-1171
▁በኤ	-1172
▁ጠብ	-1173
▁ባለው	-1174
▁እሳት	-1175
▁ድንጋይ	-1176
ሥጋ	-1177
ዬን	-1178
▁ቈ	-1179
▁ኖ	-1180
▁ላከ	-1181
▁ነቢ	-1182
▁ዛፍ	-1183
▁አመጣ	-1184
ሩሳሌምም	-1185
▁አምሳ	-1186
▁በመካከ	-1187
ሉን	-1188
ሱ።	-1189
▁በረ	-1190
▁አምላክህ	-1191
▁ጎ	-1192
ቹንም	-1193
▁አድ	-1194
▁ከማ	-1195
▁ልጅ፥	-1196
▁ሰማይ	-1197
▁በላይ	-1198
▁መጽሐፍ	-1199
▁እንዳዘ	-1200
ሙን	-1201
ሞታ	-1202
ቀቅ	-1203
▁ሜ	-1204
▁ቀር	-1205
▁በእሳት	-1206
▁እርስዋም	-1207
ብ፥	-1208
▁የና	-1209
▁የኤ	-1210
▁በከተ	-1211
▁ወርቅ	-1212
▁ሁልጊዜ	-1213
▁መንግሥት	-1214
▁እንዲሁም	-1215
ርሃ	-1216
ባኤ	-1217
ብሎ	-1218
ነዓ	-1219
ዩም	-1220
ዮን	-1221
ልና፤	-1222
▁ማኅ	-1223
▁በሬ	-1224
▁ከበ	-1225
▁እንስ	-1226
ርና	-1227
ፈው	-1228
ኮረብ	-1229
▁በጽ	-1230
▁ተና	-1231
▁የፍ	-1232
▁ለእኔ	-1233
ህ፤	-1234
ሉአ	-1235
ወስ	-1236
ጳውሎ	-1237
▁ይዞ	-1238
▁በድን	-1239
▁ዮሴፍ	-1240
▁በምድረ	-1241
▁በሰይፍ	-1242
ምነት	-1243
ትንና	-1244
▁ይህንም	-1245
▁ኃያ	-1246
▁እባ	-1247
▁አንዳ	-1248
▁አወጣ	-1249
▁እንዳት	-1250
▁እንዲሆን	-1251
ተህ	-1252
ካህና	-1253
▁በፊቱ	-1254
▁ቤቶች	-1255
▁የጌታ	-1256
ዋል	-1257
ጴጥ	-1258
ብርሃ	-1259
▁ልት	-1260
▁ምድረ	-1261
▁ምድሪ	-1262
ቡ።	-1263
ችሁ፥	-1264
▁ሲል	-1265
▁ተራ	-1266
▁አሮ	-1267
▁ዕጣ	-1268
በው	-1269
ለሁና	-1270
▁ያን	-1271
ናት	-1272
ጡት	-1273
▁ሮ	-1274
መለስ	-1275
▁ርኩ	-1276
▁ገብ	-1277
▁ፈቃ	-1278
▁አሳልፎ	-1279
▁አድርግ	-1280
ብህ	-1281
ሙኤል	-1282
▁አካ	-1283
▁የዮ	-1284
▁ሆነ፥	-1285
▁ምርኮ	-1286
▁በጌታ	-1287
▁ተነሣ	-1288
▁በንጉሡ	-1289
ዎችም	-1290
ፋንታ	-1291
▁ለራ	-1292
▁ቅን	-1293
▁ከጥ	-1294
▁ጆሮ	-1295
▁ጊዜም	-1296
▁አደርጋ	-1297
▁ከሰማይ	-1298
ረክ	-1299
ዘን	-1300
ዎቹም	-1301
▁የክ	-1302
▁የኢየ	-1303
▁ከምድር	-1304
ለ።	-1305
መድ	-1306
ረኛ	-1307
ርሳ	-1308
ሰት	-1309
ጠጣ	-1310
ፈሩ	-1311
ችው።	-1312
▁ይኖራ	-1313
በሩ	-1314
ንዘ	-1315
አል	-1316
ካም	-1317
ገሩ	-1318
ገኙ	-1319
▁ምክ	-1320
▁የነ	-1321
▁የዓ	-1322
▁ይታ	-1323
▁አሥር	-1324
▁ይሁን።	-1325
ይቱ	-1326
ለህን	-1327
ቻችሁ	-1328
ዳቸው	-1329
ፈሪያ	-1330
▁አበ	-1331
▁ከሁ	-1332
ታቸውም	-1333
▁ሠላሳ	-1334
▁ትሆና	-1335
▁ናቸው	-1336
▁አገል	-1337
▁ዓለም	-1338
▁መልአክ	-1339
▁ተቀመጠ	-1340
ጠበ	-1341
መልስ	-1342
▁መጋ	-1343
▁የሕ	-1344
▁ይመ	-1345
▁ይነ	-1346
▁ጴጥ	-1347
ርምያስ	-1348
▁ታውቃ	-1349
▁ግን።	-1350
▁እናንተም	-1351
ልጥ	-1352
▁ልጄ	-1353
▁ፈጥ	-1354
▁ወጥቶ	-1355
▁ፋንታ	-1356
▁ከእንግ	-1357
▁አማልክት	-1358
ምት	-1359
ሱ፥	-1360
ብራ	-1361
ዱ፤	-1362
ጠቀ	-1363
▁ዔ	-1364
▁ባይ	-1365
▁እንጨ	-1366
▁ወሰደ	-1367
▁እንዳል	-1368
▁ያደረገ	-1369
▁በእግዚአብሔርም	-1370
ቁ።	-1371
ኢያ	-1372
ሥራቅ	-1373
▁ከደ	-1374
ልንጀራ	-1375
▁ይወጣ	-1376
▁አልነበረ	-1377
ቤል	-1378
ጊያ	-1379
ጠብቅ	-1380
▁ጕል	-1381
▁ሕያው	-1382
▁ምሳሌ	-1383
ዮች	-1384
▁አዳ	-1385
▁ሁሉን	-1386
▁ዓይን	-1387
▁የአባ	-1388
ኝም	-1389
ጽና	-1390
▁ቦ	-1391
ለን።	-1392
▁ቢያ	-1393
▁ነቢያ	-1394
▁እርሻ	-1395
▁ይበላ	-1396
▁ተናገር	-1397
▁አደባባ	-1398
▁ወንዶች	-1399
▁ፍልስጥኤማ	-1400
ላል	-1401
ሙሴ	-1402
ሴሎ	-1403
▁መዝ	-1404
▁ዘይ	-1405
▁የራ	-1406
▁አለኝ።	-1407
▁ለእናንተ	-1408
ሎት	-1409
ፍታ	-1410
▁ስማ	-1411
ውያንን	-1412
▁ትውል	-1413
▁አርባ	-1414
▁አንዲ	-1415
▁አጠፋ	-1416
▁ይሰጣ	-1417
▁ጳውሎ	-1418
ለሽ	-1419
ኅን	-1420
ወቅ	-1421
ጻፈ	-1422
▁ከእኛ	-1423
▁የተባ	-1424
ሳኦ	-1425
ቃጥ	-1426
ውቅ	-1427
ፍት	-1428
▁ስት	-1429
▁አክ	-1430
▁ይዘ	-1431
ላቸውም	-1432
ላቸው።	-1433
▁ምሕረ	-1434
▁በፊትህ	-1435
▁ካህኑም	-1436
ሁት	-1437
ኃኒ	-1438
መሰግ	-1439
ምላክ	-1440
ሶርያ	-1441
▁ቀረ	-1442
▁ባየ	-1443
▁ወራት	-1444
▁መልሶ።	-1445
▁በታላቅ	-1446
▁እስራኤልም	-1447
ኸው	-1448
ደድ	-1449
▁ክፍ	-1450
▁አስቀድሞ	-1451
▁ርኵ	-1452
▁አር	-1453
▁አቤ	-1454
ሠዊያው	-1455
▁ተቀመጡ	-1456
▁የንጉሡ	-1457
▁በአሕዛብ	-1458
▁ፋ	-1459
ውንና	-1460
ድኃኒ	-1461
ፍሬም	-1462
▁ከክ	-1463
▁ወዮ	-1464
▁የብ	-1465
▁ንጹሕ	-1466
▁ዙሪያ	-1467
▁ድንጋ	-1468
▁ሕዝቡን	-1469
▁በሰማይ	-1470
▁እላችኋ	-1471
▁አይደለምን	-1472
▁እነርሱም።	-1473
መር	-1474
መኑ	-1475
ታል፤	-1476
ገለግ	-1477
▁ታስ	-1478
▁ገለ	-1479
▁ወዲያ	-1480
▁የተወ	-1481
ስና	-1482
ብና	-1483
ትህ	-1484
ገኛ	-1485
ጠኝ	-1486
ናገሩ	-1487
▁ተማ	-1488
▁ይባ	-1489
▁ከአባ	-1490
▁ሽማግሌዎች	-1491
ሰድ	-1492
▁ለተ	-1493
▁ሕፃ	-1494
▁ተለ	-1495
▁ይከ	-1496
ቶቻቸው	-1497
▁በእር	-1498
▁ወስዶ	-1499
▁ጉባኤ	-1500
▁ፈጽሞ	-1501
▁በግብፅ	-1502
▁በእርሱም	-1503
▁አደረገ።	-1504
በስ	-1505
▁ጐ	-1506
ችንና	-1507
አል፥	-1508
ዳችሁ	-1509
▁መግ	-1510
▁ሳለ	-1511
▁የይ	-1512
▁ያሳ	-1513
▁ብለህ	-1514
▁ታቦት	-1515
▁አንበ	-1516
▁እሰጣ	-1517
▁አምላኬ	-1518
ረግ	-1519
ቡ፥	-1520
ነትም	-1521
▁ሰጣ	-1522
▁ሆነው	-1523
▁ሰውም	-1524
▁ወዲህ	-1525
▁ጥቂት	-1526
▁ሥርዓት	-1527
▁እንደዚህ	-1528
ለበት	-1529
ላል።	-1530
ዋል፥	-1531
▁መቅ	-1532
▁ቀድ	-1533
▁በሐ	-1534
▁በዮ	-1535
▁ብዬ	-1536
ርዳኖስ	-1537
▁በእጁ	-1538
▁በእጅ	-1539
▁ብርሃን	-1540
▁ተነሥቶ	-1541
▁የለም።	-1542
▁የወርቅ	-1543
ርድ	-1544
ቁ፥	-1545
ነፍ	-1546
ጹም	-1547
▁በኵ	-1548
▁የፈ	-1549
▁ሆነ።	-1550
▁በሁለ	-1551
▁ጌታዬ	-1552
▁ምስክር	-1553
▁ትንቢት	-1554
▁አብርሃ	-1555
▁ወለደ፤	-1556
▁የተቀደሰ	-1557
ንቃ	-1558
▁ጦ	-1559
▁ውጭ	-1560
ቶቼ	-1561
ውጣ	-1562
ሩንም	-1563
ንድሞ	-1564
ፀሐይ	-1565
▁ብታ	-1566
▁ከቶ	-1567
▁ከንቱ	-1568
▁የተሰ	-1569
▁ጻድቅ	-1570
▁ምክንያ	-1571
▁ብላቴና	-1572
ላን	-1573
ያት	-1574
▁አፈ	-1575
▁ዮሐ	-1576
▁ሆንሁ	-1577
▁በውኃ	-1578
▁ሳሙኤል	-1579
ለኛ	-1580
ነትን	-1581
▁ርኩስ	-1582
▁ኃይል	-1583
▁ያህል	-1584
ሠሩ	-1585
ረጃ	-1586
ተና	-1587
ዝራ	-1588
▁መቃ	-1589
▁ዝም	-1590
ቻቸውን	-1591
▁አለ፤	-1592
▁ወደሚ	-1593
▁የቀረ	-1594
መቱ	-1595
ወጡ	-1596
ዋጋ	-1597
▁ሎ	-1598
▁ከፈ	-1599
▁ብዛት	-1600
▁በእርስዋ	-1601
ሙት	-1602
ውና	-1603
ማይቱ	-1604
በት።	-1605
ታል፥	-1606
▁ትሰ	-1607
▁ከሌ	-1608
ኃጢአት	-1609
▁ሁሉም	-1610
▁መጠን	-1611
▁እስክ	-1612
▁እኔን	-1613
▁ያስተ	-1614
▁ያወጣ	-1615
▁ገንዘ	-1616
▁በመንገድ	-1617
ሞን	-1618
▁ዱ	-1619
ለም።	-1620
ንያም	-1621
▁ለሌ	-1622
▁ሕዝቤ	-1623
▁ሰረገ	-1624
▁ያውቃ	-1625
▁አይሁድ	-1626
▁ኤርምያስ	-1627
ማን	-1628
ተኞ	-1629
ድዳ	-1630
▁ዙ	-1631
▁በድ	-1632
አብርሃ	-1633
▁ወዴት	-1634
▁ለእርሱ	-1635
▁አድርጌ	-1636
▁ከግብፅ	-1637
ሞራ	-1638
ቡ፤	-1639
ታል	-1640
ኃይ	-1641
▁ተፈ	-1642
▁ተቀምጦ	-1643
▁እንዳለ	-1644
▁ይሁን፤	-1645
ሙ።	-1646
ምጣ	-1647
ፍረ	-1648
ጠብቁ	-1649
▁ተከተ	-1650
ረዳ	-1651
ከት	-1652
ውቁ	-1653
ድል	-1654
▁ሣ	-1655
▁ኑ	-1656
▁ዲ	-1657
ሃል።	-1658
▁ራሳ	-1659
▁ሰን	-1660
▁ሄደ።	-1661
▁አዘዘ	-1662
▁ከእንግዲህ	-1663
▁የነበረውን	-1664
▁በኢየሩሳሌምም	-1665
ስታ	-1666
ፍጥ	-1667
ላቸዋ	-1668
በት፥	-1669
ድጓድ	-1670
▁ከፊ	-1671
▁ዘመ	-1672
ራቸው።	-1673
▁ሁለቱ	-1674
▁በከን	-1675
▁ሕይወት	-1676
▁መልእክ	-1677
▁ነውና።	-1678
▁አድርጉ	-1679
ላው	-1680
መኛ	-1681
ማት	-1682
ሬት	-1683
ቆም	-1684
ክል	-1685
ዓዛ	-1686
ዕራ	-1687
ለችው	-1688
ናችሁ	-1689
▁በሦ	-1690
▁ይል	-1691
▁ባድማ	-1692
▁ተብሎ	-1693
▁ወንዝ	-1694
▁ምክንያት	-1695
ኖረ	-1696
ኋችሁ	-1697
ንጉሥ	-1698
▁ትዕ	-1699
ስተኛው	-1700
▁ሌሊት	-1701
▁በሕዝ	-1702
▁ክፍል	-1703
▁የዚያ	-1704
▁ምልክት	-1705
ገዙ	-1706
ሆነው	-1707
ሱንም	-1708
▁መጠ	-1709
▁ቆሞ	-1710
▁ከኤ	-1711
ባቸውን	-1712
ያዕቆብ	-1713
▁ሰቅል	-1714
▁በየወ	-1715
▁አቀረ	-1716
▁የሚበ	-1717
▁ቢሆን፥	-1718
▁ነገሠ።	-1719
▁አደባባይ	-1720
ቈጣ	-1721
ቦች	-1722
ጠፉ	-1723
ፍና	-1724
▁ቂ	-1725
ምህር	-1726
ምርያ	-1727
ትም፥	-1728
▁አህ	-1729
▁ዮና	-1730
ገናኛው	-1731
▁ሸለቆ	-1732
▁ተናግ	-1733
▁ይቅር	-1734
▁ማደሪያ	-1735
▁አላት።	-1736
▁መዛሙርቱ	-1737
▁እላችኋለሁ፥	-1738
ልሁ	-1739
ቡም	-1740
▁ተጠ	-1741
▁የቤ	-1742
▁ደር	-1743
▁መንፈ	-1744
▁ራሱን	-1745
▁ሳኦል	-1746
▁እርሱን	-1747
▁የዘላለም	-1748
ሪሳ	-1749
▁መክ	-1750
▁ራእ	-1751
▁በገ	-1752
▁የጽ	-1753
▁ይሻ	-1754
▁ጽኑ	-1755
▁ፈራ	-1756
▁አመጡ	-1757
▁ይሁን	-1758
▁ከዚህም	-1759
▁መስፈሪያ	-1760
▁እስራኤልን	-1761
ሰና	-1762
ሽንም	-1763
ቀርባ	-1764
ኤል፥	-1765
ዖንም	-1766
▁ኋላ	-1767
▁ዋጋ	-1768
▁ዝና	-1769
▁ቅጥር	-1770
▁ተቀበ	-1771
▁ይመስ	-1772
▁ፈቃድ	-1773
▁መቅደስ	-1774
▁ይናገራ	-1775
▁የሆነውን	-1776
ሪክ	-1777
ጨረ	-1778
▁በዕ	-1779
▁አግ	-1780
▁ስንኳ	-1781
▁አስተ	-1782
▁ይወስ	-1783
▁ካህናት	-1784
▁ዳዊትን	-1785
▁በክርስቶስ	-1786
ጆቹ	-1787
ጌል	-1788
ፍን	-1789
ማችሁ	-1790
▁ለበ	-1791
▁የሴ	-1792
አልና።	-1793
▁በብዙ	-1794
▁እውቀ	-1795
▁ከአን	-1796
▁ለንጉሡ	-1797
▁ሠራዊት	-1798
▁የሚኖሩ	-1799
▁ተናገረው።	-1800
ማም	-1801
ሰ።	-1802
ቍጣ	-1803
በራ	-1804
ብኝ	-1805
ቱና	-1806
ዓድ	-1807
ዱን	-1808
ድሜ	-1809
ጕር	-1810
▁ሬ	-1811
▁መረ	-1812
▁ሲያ	-1813
▁አጋ	-1814
▁ጠየ	-1815
▁አዘጋ	-1816
▁ይጠፋ	-1817
▁ታደርጋ	-1818
▁የነበሩ	-1819
▁መሰምርያ	-1820
ለኝ	-1821
ያዊ	-1822
ሃለሁ	-1823
▁ሰፈ	-1824
▁በሞ	-1825
▁ታና	-1826
▁ወድ	-1827
▁ሥርዓ	-1828
▁ሰልፍ	-1829
▁በላያ	-1830
▁በአባ	-1831
▁ካህኑ	-1832
▁ዓይኖ	-1833
▁ጥበብ	-1834
▁ሁለተኛ	-1835
▁ትውልድ	-1836
▁ኢዮአብ	-1837
▁በምድርም	-1838
ሌክ	-1839
ኑ፤	-1840
ንቅ	-1841
ግር	-1842
ማል።	-1843
▁ማዕ	-1844
▁ትወ	-1845
▁አዋ	-1846
▁እል	-1847
▁ክን	-1848
ሃለሁ።	-1849
▁በጎች	-1850
▁እኛም	-1851
▁ይህች	-1852
▁ሳኦልም	-1853
▁እንጨት	-1854
▁የተናገ	-1855
ቁን	-1856
ጨነ	-1857
ድረግ	-1858
አልና፥	-1859
▁በረከ	-1860
▁ከኢየ	-1861
▁ክርስ	-1862
▁ደስታ	-1863
▁በሕዝቡ	-1864
▁ከይሁዳ	-1865
▁ወደዚህ	-1866
▁የነበረ	-1867
▁ጴጥሮስ	-1868
▁ነበርና።	-1869
▁እነዚህን	-1870
ሰብ	-1871
ቅን	-1872
ጸል	-1873
▁ሹ	-1874
▁ኬ	-1875
▁ጩ	-1876
ለምን	-1877
ርብዓ	-1878
ናቸው	-1879
ዊትም	-1880
ጋችሁ	-1881
▁ሚዛ	-1882
▁ፍየ	-1883
▁ቍጥር	-1884
▁እየተ	-1885
▁ወይፈ	-1886
▁ወደቀ	-1887
▁የመን	-1888
▁ጊዜ።	-1889
▁ያሉትን	-1890
▁ሕዝቅያስ	-1891
▁አደረገ፤	-1892
ርክ	-1893
ሾች	-1894
ቁ፤	-1895
ችው	-1896
▁ጢ	-1897
▁ተመ	-1898
▁ተሸ	-1899
▁ከል	-1900
ናቸውም	-1901
▁በዓይ	-1902
▁ነፋስ	-1903
▁ወጣ።	-1904
▁አንዳች	-1905
▁ወገኖች	-1906
▁በመጀመሪያ	-1907
ቲቱ	-1908
ወት	-1909
ለን፤	-1910
ሜሌክ	-1911
▁ማዶ	-1912
▁ርዝ	-1913
▁ቃሌ	-1914
▁አዝ	-1915
▁እኅ	-1916
▁የሐ	-1917
▁ያላ	-1918
▁ይሸ	-1919
▁በሰው	-1920
▁በእጃ	-1921
▁ክፋት	-1922
▁ወረደ	-1923
▁ይሠራ	-1924
▁ልጆች፤	-1925
▁አደረግ	-1926
▁ክርስቲ	-1927
▁ወንድም	-1928
ለቅ	-1929
ናወ	-1930
ስያስ	-1931
ቀርቡ	-1932
▁ከዓ	-1933
▁የዳ	-1934
▁በኢዮ	-1935
▁በወን	-1936
▁እጁን	-1937
▁ጨለማ	-1938
▁ፈቀቅ	-1939
▁ለሕዝቡ	-1940
▁መድኃኒ	-1941
▁በተራራ	-1942
ቃል	-1943
ኸኝ	-1944
ወቀ	-1945
ገት	-1946
ርያም	-1947
ፈርድ	-1948
ማይቱም	-1949
▁ለእነ	-1950
▁በሰባ	-1951
▁በደረ	-1952
▁ይመለ	-1953
▁ይወድቃ	-1954
▁ኵ	-1955
ደረጉ	-1956
▁ተዋ	-1957
▁ኪዳ	-1958
▁የኢ	-1959
▁በመል	-1960
▁በመጣ	-1961
▁በምት	-1962
▁በገባ	-1963
▁አጥን	-1964
▁የኢዮ	-1965
▁ያልተ	-1966
▁ያጠፋ	-1967
▁ምስጋና	-1968
▁አንዲት	-1969
▁በኢየሱስ	-1970
▁የነበሩትን	-1971
አት	-1972
የት	-1973
▁ች	-1974
ለውም	-1975
ላእክ	-1976
ኑንም	-1977
ዎችን	-1978
▁መቼ	-1979
▁ሰይ	-1980
▁አቢ	-1981
▁ጋሻ	-1982
▁ጠቦ	-1983
ላችሁን	-1984
ፈርዖን	-1985
▁ነኝ፤	-1986
▁አውቃ	-1987
▁የሆኑ	-1988
▁ደመና	-1989
▁ጠርቶ	-1990
▁ፍቅር	-1991
▁በእነርሱ	-1992
ማው	-1993
ናን	-1994
ባቸዋ	-1995
ቴንም	-1996
ከደነ	-1997
▁ሰላ	-1998
▁በና	-1999
▁ከቤ	-2000
▁ፈረ	-2001
▁ሥልጣ	-2002
▁እያሉ	-2003
▁ከመን	-2004
▁የብር	-2005
▁በመቅደ	-2006
▁እያንዳንዱ	-2007
ሙም	-2008
ማስ	-2009
ሞላ	-2010
ሱ፤	-2011
ሳይ	-2012
ቂያ	-2013
▁ኀ	-2014
ርያስ	-2015
▁ልቤ	-2016
▁ሞት	-2017
▁ተደ	-2018
▁ጸጋ	-2019
▁ነኝ።	-2020
▁ኢያሱ	-2021
▁ይሄዳ	-2022
▁ይዘው	-2023
▁በአሥራ	-2024
▁በመሠዊያው	-2025
▁አምላካችን	-2026
▁አይደለም።	-2027
ለዋ	-2028
ደዱ	-2029
ጠባ	-2030
ለት፤	-2031
▁ቀኝ	-2032
▁ቦታ	-2033
▁አዲ	-2034
▁ስለሚ	-2035
▁በሥጋ	-2036
▁በፊቴ	-2037
▁አሳብ	-2038
▁አገኘ	-2039
▁ወጣ፥	-2040
▁የሚል	-2041
▁የተለ	-2042
▁መጥተው	-2043
▁ሰሎሞን	-2044
▁አለው፤	-2045
▁አደርግ	-2046
▁ጳውሎስ	-2047
ሦር	-2048
ጸመ	-2049
ጻሜ	-2050
▁ሞገ	-2051
▁ተን	-2052
▁ከቀ	-2053
▁ከታ	-2054
▁በሰን	-2055
▁በእኛ	-2056
▁ነውን	-2057
▁አለቆ	-2058
▁ወይን	-2059
▁ሰዎችም	-2060
▁አንተን	-2061
▁ከእርስዋ	-2062
ሩቅ	-2063
ቡን	-2064
ንቋ	-2065
ድርግ	-2066
▁የላ	-2067
▁ቀንም	-2068
▁በሆነ	-2069
▁እግር	-2070
▁ምድርን	-2071
▁ያደርግ	-2072
▁በአንድነት	-2073
ሁም	-2074
ኛል	-2075
ድራ	-2076
ጠረ	-2077
▁ኦ	-2078
ቃጠል	-2079
ትን፥	-2080
ገለጠ	-2081
▁ናቡ	-2082
▁ጠቢ	-2083
▁ስምን	-2084
▁በደል	-2085
▁አንዳን	-2086
▁እነዚያ	-2087
▁ያዕቆብም	-2088
▁እግዚአብሔር፤	-2089
▁እግዚአብሔርንም	-2090
ማል	-2091
ፊያ	-2092
ባችኋ	-2093
ትም፤	-2094
ኛውም	-2095
▁ሰጥ	-2096
▁ስጦ	-2097
▁አሜ	-2098
▁ናት፤	-2099
▁አቅር	-2100
▁አንሥ	-2101
▁ካህን	-2102
▁ምሕረት	-2103
▁ተመልከ	-2104
▁ነገርን	-2105
▁አባቶቻ	-2106
▁እንዳያ	-2107
▁የሚገባ	-2108
ቡብ	-2109
ሉት።	-2110
መስግ	-2111
ረኞች	-2112
ኛል።	-2113
ጨለማ	-2114
ጨረሻ	-2115
▁የጥ	-2116
▁ጽዋ	-2117
ላቸው፥	-2118
▁ምድርም	-2119
▁በዚህም	-2120
▁ወደዚያ	-2121
▁የአሕዛብ	-2122
▁አምላካችሁ	-2123
ራን	-2124
ብላ	-2125
ገሥ	-2126
መልሳ	-2127
ውም።	-2128
ፈልጉ	-2129
▁ቆመ	-2130
▁እሳ	-2131
▁እዘ	-2132
▁ክፋ	-2133
▁ወሬ	-2134
▁ይጥ	-2135
ዶምያስ	-2136
▁ሰደደ	-2137
▁ትበላ	-2138
▁ኢያሱም	-2139
▁አለችው።	-2140
▁እነዚህም	-2141
▁የነበሩት	-2142
▁በእስራኤልም	-2143
ሌታ	-2144
ምባ	-2145
ሽ፥	-2146
ዬም	-2147
▁ሐሰ	-2148
▁አቆ	-2149
▁መልክ	-2150
▁ምክር	-2151
▁ሰዓት	-2152
▁በኃይ	-2153
▁በባሕር	-2154
▁አለች።	-2155
▁አገልግ	-2156
▁ኤልያስ	-2157
▁ያዕቆብ	-2158
▁ድረስ፥	-2159
ቀላ	-2160
ቅ፥	-2161
ተን	-2162
ቱ፥	-2163
ነጻ	-2164
ገጃ	-2165
ጎች	-2166
ቀበል	-2167
ዋርያ	-2168
▁ሸክ	-2169
▁ቀለ	-2170
▁እጃ	-2171
▁የዕ	-2172
▁ደዌ	-2173
▁ጠባ	-2174
ከደነፆ	-2175
▁በምን	-2176
▁ነገሩ	-2177
▁እውነ	-2178
▁ከከተ	-2179
▁ደረሰ	-2180
▁ለዳዊት	-2181
▁መሰምርያዋ	-2182
▁የእግዚአብሔርንም	-2183
መታ	-2184
መት	-2185
ነሡ	-2186
ከር	-2187
ዎን	-2188
ዮስ	-2189
ሁትን	-2190
ደሮች	-2191
ጠብቃ	-2192
▁መሠ	-2193
▁መው	-2194
▁በዙ	-2195
▁ቤቱ	-2196
▁ተጽ	-2197
▁ይደ	-2198
ዎቹንም	-2199
▁በከንቱ	-2200
▁አንበሳ	-2201
▁ኃጢአትን	-2202
ረጥ	-2203
ቁም	-2204
ኪያ	-2205
ደል	-2206
በት፤	-2207
አቸዋ	-2208
▁ለዘ	-2209
▁ለደ	-2210
▁ሌሎ	-2211
▁መባ	-2212
▁ሰል	-2213
▁ተዘ	-2214
▁ይነግ	-2215
አብርሃም	-2216
▁መስገጃ	-2217
▁ከሕዝቡ	-2218
▁ዓይኖች	-2219
▁ይሆናል፥	-2220
▁አይደለም፤	-2221
ማማ	-2222
ማረ	-2223
ንቆ	-2224
ውር	-2225
ጥም	-2226
ጥን	-2227
ሉትን	-2228
▁ሂድ	-2229
▁ለካ	-2230
▁መጻ	-2231
▁በሴ	-2232
▁እወ	-2233
▁እጄ	-2234
▁ካል	-2235
▁ደጅ	-2236
▁ድሀ	-2237
▁ፈሳ	-2238
ባቸው።	-2239
▁መንጋ	-2240
▁አምስ	-2241
▁ፍጻሜ	-2242
▁ነውና፤	-2243
▁አልሁ።	-2244
▁አደረጉ።	-2245
▁እግዚአብሔርም።	-2246
ወሰ	-2247
ገላ	-2248
ገዱ	-2249
ጠር	-2250
ቶቹም	-2251
ቶችን	-2252
▁ጣዖ	-2253
▁ፈን	-2254
▁ለሰው	-2255
▁ማስተ	-2256
▁ሰውን	-2257
▁በስተ	-2258
▁በቤቱ	-2259
▁በነገ	-2260
▁አለቀ	-2261
▁ካለው	-2262
▁ወጣ፤	-2263
▁የሰማይ	-2264
▁በመንፈስ	-2265
ቀል	-2266
ዝም	-2267
ተውም	-2268
ዎቹን	-2269
ጣችሁ	-2270
▁ዳን	-2271
ባቸውም	-2272
▁ቢኖር	-2273
▁ናት።	-2274
▁ናችሁ	-2275
▁አይቶ	-2276
▁እግሮ	-2277
▁የሚወ	-2278
▁ግብጽ	-2279
▁ባሪያህ	-2280
▁አቤሴሎ	-2281
▁አንዱን	-2282
▁እንስሳ	-2283
▁ኢየሱስም።	-2284
ለቀ	-2285
ለ፤	-2286
ሜዳ	-2287
ምነ	-2288
ሬታ	-2289
ሶም	-2290
በለ	-2291
አለሁ	-2292
ፈልጋ	-2293
▁በሸ	-2294
▁በጣ	-2295
▁ጩኸ	-2296
▁ጮኸ	-2297
ሃለሁ፤	-2298
▁ለጌታ	-2299
▁ቀርቦ	-2300
▁ተጠን	-2301
▁አሮን	-2302
▁ጕልማ	-2303
▁መጋረጃ	-2304
▁በእጅህ	-2305
▁የለም፤	-2306
▁ሰሎሞንም	-2307
▁የሚቃጠለውን	-2308
ማር	-2309
ከማ	-2310
ዓን	-2311
ሃልና	-2312
ሣፍጥ	-2313
▁ልዩ	-2314
▁ባዩ	-2315
▁ተባ	-2316
▁ትላ	-2317
▁አዛ	-2318
▁ከራ	-2319
▁የግ	-2320
▁ዳግ	-2321
ተኞችን	-2322
ካህናት	-2323
▁ነውር	-2324
▁ከሆነ	-2325
▁የነገ	-2326
▁ያሉት	-2327
ታቸውንም	-2328
▁በሌሊት	-2329
▁ተራሮች	-2330
▁ወዳለው	-2331
▁የሚመስ	-2332
▁አድርገው	-2333
ለቱ	-2334
ሳው	-2335
ሶን	-2336
ፈተ	-2337
▁ቡ	-2338
ማል፥	-2339
ዎች፥	-2340
ዘጋጀ	-2341
▁ከሕ	-2342
▁ከነ	-2343
ናውያን	-2344
ደርገው	-2345
▁ሕይወ	-2346
▁ቀድሞ	-2347
▁በሚያ	-2348
▁አንደ	-2349
ቻቸውንም	-2350
▁ናቸው፥	-2351
▁ከግብጽ	-2352
▁የሚሆን	-2353
▁እንደሚያ	-2354
▁ከእስራኤልም	-2355
ሉና	-2356
ሠዋ	-2357
ቼን	-2358
ዳና	-2359
ለት፥	-2360
ሉም።	-2361
ላችን	-2362
ርንጫ	-2363
ቃችሁ	-2364
ቶችም	-2365
ኛል፤	-2366
ደባባ	-2367
▁ወረ	-2368
▁ምስክ	-2369
▁ሰውነ	-2370
▁በቤት	-2371
▁ከነዓ	-2372
▁ዙፋን	-2373
▁የዚህ	-2374
ባቶቻቸው	-2375
▁ሥልጣን	-2376
▁ቅዱሳን	-2377
▁ነውና፥	-2378
▁አልዓዛ	-2379
▁የዚያን	-2380
ረ፥	-2381
ነጋ	-2382
ጠነ	-2383
ጠጡ	-2384
ሃል፤	-2385
ተው።	-2386
ታንም	-2387
ይሁድ	-2388
ፈልግ	-2389
▁ራሱ	-2390
▁ተሻ	-2391
▁ተአ	-2392
▁አና	-2393
▁የው	-2394
▁ዳሩ	-2395
ላቸውን	-2396
▁ሁሉ።	-2397
▁በምድ	-2398
▁በራሱ	-2399
▁በትር	-2400
▁ተጽፎ	-2401
▁አገባ	-2402
▁ዕድሜ	-2403
▁ለባሪያ	-2404
▁መቃብር	-2405
▁መጀመሪያ	-2406
▁እግዚአብሔር፥	-2407
ሙ፥	-2408
ርከ	-2409
ሰር	-2410
ቁት	-2411
ብት	-2412
ዕማ	-2413
ጠግ	-2414
ፋጭ	-2415
ፍር	-2416
ሳኦል	-2417
ቀርብ	-2418
ኋቸው	-2419
ውን፥	-2420
▁ሠር	-2421
▁ከሞ	-2422
▁ደረ	-2423
ኅንነት	-2424
ደረገው	-2425
▁ሄዱ።	-2426
▁ለፊት	-2427
▁መጡ።	-2428
▁በብር	-2429
▁በዓል	-2430
▁ነቢይ	-2431
▁አባቴ	-2432
▁አይሁ	-2433
▁ኢዮአ	-2434
▁እባክ	-2435
▁ዘይት	-2436
▁የሰማ	-2437
▁የአን	-2438
▁ግንብ	-2439
▁ጭፍራ	-2440
▁ዮሴፍም	-2441
ሊላ	-2442
ሚያ	-2443
ሰሰ	-2444
ሴም	-2445
ድነ	-2446
ጃፍ	-2447
ፉን	-2448
▁ኮ	-2449
በኞች	-2450
ተላለ	-2451
ቱንና	-2452
አችሁ	-2453
ወትር	-2454
ውም፥	-2455
▁ልኮ	-2456
▁በቃ	-2457
ሃለሁ፥	-2458
▁መቅሠ	-2459
▁በሙሴ	-2460
▁ከጌታ	-2461
▁ዕለት	-2462
▁ገብቶ	-2463
▁ግን፥	-2464
▁አልሰማ	-2465
▁አሳልፌ	-2466
▁እጅግም	-2467
▁የተቈጠ	-2468
▁ጕድጓድ	-2469
▁ባልንጀራ	-2470
▁ይሆናሉ።	-2471
▁በዮርዳኖስ	-2472
ሪም	-2473
ርፍ	-2474
ሲካ	-2475
ኅና	-2476
ነካ	-2477
ዘዙ	-2478
ጥ፥	-2479
ጸም	-2480
▁ቋ	-2481
ማል፤	-2482
ንም፤	-2483
▁ነህ	-2484
▁አሸ	-2485
▁አኪ	-2486
▁ከግ	-2487
▁የሁ	-2488
▁ግም	-2489
ታችሁን	-2490
ችኋል፤	-2491
አቸውም	-2492
ዋለሁ።	-2493
▁መብል	-2494
▁ነገረ	-2495
▁አያስ	-2496
▁አድነ	-2497
▁ከሰው	-2498
▁የምን	-2499
▁የበግ	-2500
▁ርኵሰት	-2501
▁ብዙዎች	-2502
▁አንዱም	-2503
▁የተሠራ	-2504
▁ያደርጉ	-2505
▁ዳግመኛ	-2506
▁ገንዘብ	-2507
▁ተቀመጡ።	-2508
▁የነበረው	-2509
ልታ	-2510
ሉንም	-2511
መጣው	-2512
ዎችና	-2513
ድቃን	-2514
▁ሌሊ	-2515
▁ልቅ	-2516
▁ሎሌ	-2517
▁ቁር	-2518
▁ተቈ	-2519
▁አእ	-2520
▁ክብ	-2521
▁ውሰ	-2522
▁የጋ	-2523
▁ሌሎች	-2524
▁ይነሣ	-2525
▁ይገድ	-2526
▁ደጃፍ	-2527
ቶቻቸውም	-2528
ከደነፆር	-2529
▁ሁለቱን	-2530
▁ልብሱን	-2531
▁መላእክ	-2532
▁ስምንት	-2533
▁በግብጽ	-2534
▁በፍጹም	-2535
▁ኃያላን	-2536
▁የሕዝቡ	-2537
▁የተጻፈ	-2538
ረፈ	-2539
ችላ	-2540
ኵራ	-2541
ወግ	-2542
ዩን	-2543
ጠይ	-2544
ፀን	-2545
ፋ፥	-2546
ፍቶ	-2547
▁ሃ	-2548
መሰገ	-2549
በረታ	-2550
ባትም	-2551
ድርጉ	-2552
▁መሐ	-2553
▁ማል	-2554
▁እላ	-2555
▁የሸ	-2556
▁ያያ	-2557
▁ይጨ	-2558
▁ዱቄ	-2559
▁ላይ፥	-2560
▁ስጦታ	-2561
▁ቆመው	-2562
▁በልቡ	-2563
▁አልቻ	-2564
▁አትበ	-2565
▁አይታ	-2566
▁ከነበ	-2567
▁ፀሐይ	-2568
▁ፈሪሳ	-2569
▁መግቢያ	-2570
▁በመከራ	-2571
▁በአንቺ	-2572
▁ነፍሴን	-2573
▁አይገባ	-2574
▁እምነት	-2575
▁ፍርድን	-2576
▁በፊታቸው	-2577
▁እንዳዘዘ	-2578
ልሙ	-2579
ረዱ	-2580
ስ።	-2581
ቃወ	-2582
ጣን	-2583
ፈለ	-2584
ናገረ	-2585
▁ሆኑ	-2586
▁መና	-2587
▁ተጣ	-2588
▁የጌ	-2589
▁ይቈ	-2590
▁ጥላ	-2591
ችኋል።	-2592
ዋውያን	-2593
▁ለአባ	-2594
▁ቃሉን	-2595
▁በጠላ	-2596
▁ተነሡ	-2597
▁አግኝ	-2598
▁የሚሰ	-2599
▁የከተ	-2600
▁ይስሐ	-2601
▁ይህችን	-2602
ለዱ	-2603
ምሩ	-2604
ቅዱ	-2605
ኣል	-2606
ድድ	-2607
ፈታ	-2608
ፉ።	-2609
▁ለቀ	-2610
▁ሜዳ	-2611
▁በጕ	-2612
▁አቅ	-2613
▁ኤሊ	-2614
▁ከስ	-2615
አቸው፤	-2616
ኮረብታ	-2617
ገለዓድ	-2618
▁ልጁን	-2619
▁ልጆቹ	-2620
▁መጣ፥	-2621
▁ምናል	-2622
▁ራእይ	-2623
▁ሰጥቶ	-2624
▁ስድሳ	-2625
▁በነበ	-2626
▁አትፍ	-2627
▁አኖረ	-2628
▁የምና	-2629
▁ያመጣ	-2630
▁በጽድቅ	-2631
▁ባቢሎን	-2632
▁ተሰበሰ	-2633
▁አመስግ	-2634
▁የታመነ	-2635
▁ጠላቶች	-2636
▁የአምላካ	-2637
ሃት	-2638
ሎን	-2639
ሐፊ	-2640
ምረ	-2641
ረጠ	-2642
ቱ።	-2643
ጥኣ	-2644
▁ሀ	-2645
ሮንም	-2646
ንቀሳ	-2647
ዊውም	-2648
ይቱም	-2649
▁መሳ	-2650
▁በዝ	-2651
▁እኵ	-2652
▁እጥ	-2653
▁ፈል	-2654
▁ምልክ	-2655
▁ተለይ	-2656
▁ያቃጥ	-2657
▁ይሆኑ	-2658
▁በሕይወ	-2659
▁ቸርነት	-2660
▁የሚሆነ	-2661
▁ዮሐንስ	-2662
▁በእምነት	-2663
▁የሚያደርግ	-2664
ሙ፤	-2665
ረባ	-2666
በቅ	-2667
ብዳ	-2668
ዘዝ	-2669
ጉም	-2670
ጉን	-2671
ጠቅ	-2672
ፈት	-2673
ሙንም	-2674
ዋለሁ	-2675
ውም፤	-2676
ያውቅ	-2677
▁ዕረ	-2678
▁ያየ	-2679
▁ጥሩ	-2680
▁ሁለቱም	-2681
▁ሰፈሩ።	-2682
▁በኋላ፥	-2683
▁እንድን	-2684
▁የባሪያ	-2685
▁የተመረ	-2686
▁ያገለግ	-2687
▁ይመለሳ	-2688
▁ሌዋውያን	-2689
▁በመካከላቸው	-2690
ዞች	-2691
ግጥ	-2692
ጮኻ	-2693
ሎሞን	-2694
ኖረው	-2695
ኛልና	-2696
ዕራብ	-2697
ገለጥ	-2698
▁ሆና	-2699
▁ለሁ	-2700
▁በጭ	-2701
▁እጆ	-2702
▁ከዘ	-2703
▁ያሰ	-2704
ዴቅያስ	-2705
▁ሠራዊ	-2706
▁ሰምቶ	-2707
▁በውስ	-2708
▁በየአ	-2709
▁ተከት	-2710
▁አይሆ	-2711
▁ዛሬም	-2712
▁የምድ	-2713
▁ይሞታ	-2714
▁ይሰማ	-2715
▁ጠጕር	-2716
▁ጣፋጭ	-2717
▁በዳዊት	-2718
▁አስተዋ	-2719
▁የዳዊት	-2720
▁በርሳቸው	-2721
▁ተናገረ።	-2722
▁እርሱንም	-2723
ሪኮ	-2724
በቃ	-2725
በ።	-2726
ነቱ	-2727
ዳይ	-2728
ጋው	-2729
ግሣ	-2730
ፋስ	-2731
▁ጓ	-2732
ርዳኖ	-2733
ደርስ	-2734
▁ስብ	-2735
▁ይስ	-2736
▁ይተ	-2737
▁ፍላ	-2738
በታል።	-2739
አቸው፥	-2740
▁ሄደ፥	-2741
▁ቅሬታ	-2742
▁በስም	-2743
▁ተባት	-2744
▁አልወ	-2745
▁አዲስ	-2746
▁እሆና	-2747
▁ከክፉ	-2748
ችኋለሁ።	-2749
▁ሐዋርያ	-2750
▁የኃጢአ	-2751
▁ይሁዳም	-2752
▁ዳንኤል	-2753
▁ምናልባት	-2754
▁ነበረች።	-2755
ለ፥	-2756
ልቶ	-2757
መካ	-2758
ጣት	-2759
መለሰ	-2760
ችውን	-2761
ገናኘ	-2762
▁ስሜ	-2763
▁በጸ	-2764
▁አሥ	-2765
▁ሰብስ	-2766
▁ቃሌን	-2767
▁በሜዳ	-2768
▁በሠራ	-2769
▁በአራ	-2770
▁በኢያ	-2771
▁ታላቁ	-2772
▁ነኝ፥	-2773
▁እሄዳ	-2774
▁እንቢ	-2775
▁የሌለ	-2776
▁የሰጠ	-2777
▁አራዊት	-2778
▁የሚችል	-2779
▁የአንድ	-2780
▁ድንበር	-2781
▁ሳሙኤልም	-2782
▁ከእነዚህ	-2783
▁ወንዶችና	-2784
▁በእርስዋም	-2785
▁እርስዋም።	-2786
ልስጥኤማውያን	-2787
ረሳ	-2788
ረካ	-2789
ስቱ	-2790
ቀና	-2791
ቴል	-2792
ከረ	-2793
ግቶ	-2794
▁ዞ	-2795
ዋልና	-2796
ዓብም	-2797
ጽናና	-2798
▁ማር	-2799
▁ባት	-2800
▁ከሙ	-2801
▁ከሴ	-2802
▁ፈለ	-2803
ምላክህ	-2804
ርብዓም	-2805
▁ሂድ፥	-2806
▁ሄደ፤	-2807
▁ለዚህ	-2808
▁ልቅሶ	-2809
▁ስላል	-2810
▁በልብ	-2811
▁አስታ	-2812
▁አነሣ	-2813
▁ፈንታ	-2814
▁መጨረሻ	-2815
▁ማኅበር	-2816
▁ሰላምታ	-2817
▁ቅርንጫ	-2818
▁እለምን	-2819
▁እኔም።	-2820
▁ካህናቱ	-2821
▁የከበረ	-2822
▁በየወገና	-2823
▁ተቀመጠ።	-2824
▁ኢዮሣፍጥ	-2825
▁ለእግዚአብሔርም	-2826
ምለ	-2827
ምታ	-2828
ሬን	-2829
ኔን	-2830
ኩ።	-2831
ጥራ	-2832
መላለ	-2833
ሮችም	-2834
በሩም	-2835
ብዳቤ	-2836
ቲቱም	-2837
ኖሩት	-2838
ኸውን	-2839
▁ሞላ	-2840
▁ብን	-2841
▁ተኝ	-2842
▁የቆ	-2843
ላቸው፤	-2844
ቸውም።	-2845
▁ለሚያ	-2846
▁ለእኛ	-2847
▁መለከ	-2848
▁ብርቱ	-2849
▁ናትና	-2850
▁ዓመፀ	-2851
▁በግምባ	-2852
▁አሮንም	-2853
▁እንድታ	-2854
▁ይላሉ።	-2855
▁ይወስዳ	-2856
▁እባክህ፥	-2857
▁ለእያንዳን	-2858
▁በመገናኛው	-2859
ሃል	-2860
ለከ	-2861
ሔም	-2862
ስል	-2863
ቃም	-2864
በብ	-2865
ባን	-2866
ክራ	-2867
ዝን	-2868
ዴን	-2869
ፈጽ	-2870
▁ጃ	-2871
ግሥት	-2872
▁ልባ	-2873
▁ንገ	-2874
▁የት	-2875
▁የጻ	-2876
▁ይው	-2877
ባቸው፥	-2878
▁ሠራ።	-2879
▁ሶርያ	-2880
▁አድም	-2881
▁ኤልያ	-2882
▁እድል	-2883
▁ጠባቂ	-2884
ቸዋለሁ።	-2885
▁በወርቅ	-2886
▁አመሰግ	-2887
▁አስነሣ	-2888
▁አባቶች	-2889
▁ያደረግ	-2890
▁ይሆናል	-2891
▁ኢየሱስን	-2892
▁የኢየሱስ	-2893
▁የይሁዳም	-2894
ለድ	-2895
ሳም	-2896
ቀት	-2897
ኰራ	-2898
ውራ	-2899
ዳሄ	-2900
ዶክ	-2901
▁ሱ	-2902
ሃል፥	-2903
ለን፥	-2904
ማቸው	-2905
ባኖስ	-2906
ቻችን	-2907
▁ለይ	-2908
▁ልታ	-2909
▁ቸር	-2910
▁ኖሮ	-2911
▁ከዋ	-2912
▁ከዮ	-2913
▁የሮ	-2914
▁የዔ	-2915
▁የጠ	-2916
▁ጮኹ	-2917
▁በሰሙ	-2918
▁በቍጣ	-2919
▁አህያ	-2920
▁አቃጠ	-2921
▁አበዛ	-2922
▁አኖራ	-2923
▁ከሚያ	-2924
▁የእህ	-2925
▁በኃጢአ	-2926
▁ተቀመጥ	-2927
▁ነቢያት	-2928
▁ወለደ።	-2929
▁ዘንድ።	-2930
▁ይቀመጣ	-2931
▁ፈርዖን	-2932
▁እውነተኛ	-2933
▁የባቢሎን	-2934
▁የተቀመጡ	-2935
ርፋ	-2936
ሳዕ	-2937
ናጸ	-2938
ክስ	-2939
ዘራ	-2940
ዶን	-2941
▁ጲ	-2942
ለው፥	-2943
ምና፥	-2944
ሮስም	-2945
ከተል	-2946
▁ለድ	-2947
▁መዓ	-2948
▁ከሐ	-2949
▁ያም	-2950
ሳቸውም	-2951
አለሁ፤	-2952
▁ለልጅ	-2953
▁ለልጆ	-2954
▁ልጁም	-2955
▁ልጅም	-2956
▁መርከ	-2957
▁መጣ፤	-2958
▁ምንጭ	-2959
▁ሰበሰ	-2960
▁ሰፈር	-2961
▁ተጻፈ	-2962
▁ታላላ	-2963
▁አባቱ	-2964
▁እናት	-2965
▁ከሁሉ	-2966
▁የማያ	-2967
▁ያመጡ	-2968
▁ይሸከ	-2969
▁ደርሶ	-2970
▁በጨለማ	-2971
▁ትምህር	-2972
▁ወንጌል	-2973
▁ዘላለም	-2974
▁በእርግጥ	-2975
▁በእነዚህ	-2976
▁በዙሪያው	-2977
▁መሥዋዕትና	-2978
▁እንዳዘዘው	-2979
▁አልነበረም።	-2980
ስህ	-2981
ቀ።	-2982
ኝን	-2983
ኩም	-2984
ኬም	-2985
ክሩ	-2986
ኵር	-2987
ዶቹ	-2988
ሁም።	-2989
ልኝ።	-2990
▁ብል	-2991
ታችሁም	-2992
▁ለአን	-2993
▁በወጣ	-2994
▁ነኝና	-2995
▁አለ፥	-2996
▁ከብዙ	-2997
▁ከተሞ	-2998
▁ጥፋት	-2999
▁ፋሲካ	-3000
ያዕቆብም	-3001
▁እስክት	-3002
▁ሁለተኛው	-3003
▁በአምላካ	-3004
▁ተነሥተው	-3005
▁ከአሕዛብ	-3006
▁አገልግሎት	-3007
▁የኢየሩሳሌም	-3008
ላጦ	-3009
ሌም	-3010
ልባ	-3011
ሮቹ	-3012
ቼም	-3013
ኦል	-3014
ክላ	-3015
ኮር	-3016
ዩ፥	-3017
ደዳ	-3018
ጠ፥	-3019
ለቆች	-3020
ናል።	-3021
▁ለክ	-3022
▁ሊቀ	-3023
▁ሐሤ	-3024
▁ስእ	-3025
▁ታያ	-3026
▁ኪሩ	-3027
▁ድር	-3028
መለከት	-3029
ቢሎንም	-3030
ቸዋል፤	-3031
አቸውን	-3032
ውያንና	-3033
▁በሥራ	-3034
▁ታሪክ	-3035
▁አልፎ	-3036
▁እስካ	-3037
▁የተጠ	-3038
▁የድን	-3039
▁ይፈር	-3040
▁ግምጃ	-3041
ቸዋለሁ፤	-3042
▁ሁሉንም	-3043
▁መክሊት	-3044
▁ሰማያት	-3045
▁ሰዎችን	-3046
▁በድንኳ	-3047
▁ወገን፥	-3048
▁የእሳት	-3049
▁ጠቦቶች	-3050
▁ለአሕዛብ	-3051
▁አሕዛብን	-3052
▁ይመጣል፥	-3053
▁መዛሙርቱም	-3054
▁በእነርሱም	-3055
▁ክርስቲያን	-3056
ሁህ	-3057
ሮድ	-3058
ሴን	-3059
በቱ	-3060
ዩ።	-3061
▁ኅ	-3062
▁ኩ	-3063
ምራት	-3064
ሰቢያ	-3065
ቢያት	-3066
ኛውን	-3067
ያውቁ	-3068
▁ሆይ	-3069
▁ሸሽ	-3070
▁ተር	-3071
▁እቀ	-3072
▁ያዙ	-3073
▁ላከ።	-3074
▁በኵር	-3075
▁አሉ፤	-3076
▁እሰጥ	-3077
▁ወጡ።	-3078
▁ወፎች	-3079
▁የሕዝ	-3080
▁ይገደ	-3081
▁ፈረሰ	-3082
ቸዋለሁ፥	-3083
▁በደስታ	-3084
▁ተገለጠ	-3085
▁ነገሥታ	-3086
▁አትፍራ	-3087
▁ከኃጢአ	-3088
▁ከእኔም	-3089
▁ክንድ፥	-3090
▁የሚወድ	-3091
▁ሕዝቡንም	-3092
▁ማናቸውም	-3093
▁ስለዚህ፥	-3094
▁በመልካም	-3095
▁በመካከል	-3096
▁አሕዛብም	-3097
▁አብርሃም	-3098
▁አይደለሁ	-3099
▁የሚሆነውን	-3100
▁የክርስቶስ	-3101
ለል	-3102
ለጥ	-3103
ልጦ	-3104
ሳድ	-3105
ሸጉ	-3106
ብሻ	-3107
ንኳ	-3108
ንጨ	-3109
ኞቹ	-3110
ከሩ	-3111
ጮኽ	-3112
ሉም፤	-3113
መለሱ	-3114
ስተዋ	-3115
ነዓን	-3116
ዘውን	-3117
ግሣጽ	-3118
▁መኖ	-3119
▁ማረ	-3120
▁ማታ	-3121
▁ምኞ	-3122
▁ሰጡ	-3123
▁በሲ	-3124
▁በዛ	-3125
▁ባሉ	-3126
▁አኑ	-3127
▁እኩ	-3128
▁የፊ	-3129
▁ይቆ	-3130
ዎችንም	-3131
▁ለመን	-3132
▁ቀለበ	-3133
▁በክፉ	-3134
▁ትኖራ	-3135
▁ነቢዩ	-3136
▁የሚከ	-3137
▁መምህር	-3138
▁ታቀርባ	-3139
▁ነገር፥	-3140
▁ነፍሱን	-3141
▁አንቀላ	-3142
▁ከአንቺ	-3143
▁እንዳደረገ	-3144
▁ያደረገውን	-3145
▁ከኢየሩሳሌም	-3146
ለየ	-3147
መህ	-3148
ቅና	-3149
ባም	-3150
ብረ	-3151
ብ።	-3152
ኑት	-3153
ናዳ	-3154
ግሩ	-3155
ጠም	-3156
▁ሾ	-3157
▁ዖ	-3158
ህንና	-3159
ለችና	-3160
ዘረጋ	-3161
ፍረት	-3162
▁ሸሹ	-3163
▁ትቀ	-3164
▁ክር	-3165
▁ውጣ	-3166
▁ጸሎ	-3167
ኋቸው።	-3168
አለሁ።	-3169
▁ልመና	-3170
▁መውጫ	-3171
▁ምስል	-3172
▁በቅን	-3173
▁በአጠ	-3174
▁በውጭ	-3175
▁በዙፋ	-3176
▁ትቢያ	-3177
▁አንጻ	-3178
▁እህል	-3179
▁ከጠላ	-3180
▁የወይ	-3181
▁ጀመር	-3182
▁ጲላጦ	-3183
▁ጸሐፊ	-3184
▁ሁላችሁ	-3185
▁ሌዋውያ	-3186
▁በባሪያ	-3187
▁ተነሣ፥	-3188
▁እስኪያ	-3189
▁ከንጉሡ	-3190
▁የሆነው	-3191
▁በመጀመሪያው	-3192
ሂድ	-3193
ህኑ	-3194
ልድ	-3195
ሽራ	-3196
ወቁ	-3197
ፉ፥	-3198
ፍሬ	-3199
ለምና	-3200
ቀበሉ	-3201
ቤልም	-3202
ወርድ	-3203
▁ልቡ	-3204
▁ምላ	-3205
▁ታም	-3206
▁የገ	-3207
ራቸውን	-3208
ሳይያስ	-3209
ቻችሁን	-3210
ዋለሁ፤	-3211
▁መሬት	-3212
▁በለዓ	-3213
▁አለፈ	-3214
▁አገኙ	-3215
▁ዓመፃ	-3216
▁ዘወር	-3217
▁ዘጠኝ	-3218
▁ዛፎች	-3219
▁ሳይሆን	-3220
▁በሰሜን	-3221
▁እመልሳ	-3222
▁የሚያሰ	-3223
▁በላቸው።	-3224
▁ተቀምጠው	-3225
▁አደረገ፥	-3226
▁ፍልስጥኤማውያንም	-3227
ልሽ	-3228
ርት	-3229
ኋለ	-3230
ኤላ	-3231
ጋት	-3232
ጠ።	-3233
▁ሻ	-3234
ለው።	-3235
መልኩ	-3236
ሞንም	-3237
ብሮን	-3238
ቶቹን	-3239
ዘጋጅ	-3240
ያዋን	-3241
ዱንም	-3242
ፍራው	-3243
▁ሐና	-3244
▁ሙሉ	-3245
▁ናት	-3246
▁የሳ	-3247
ቸዋል፥	-3248
ንቀጠቀ	-3249
ዛቸው።	-3250
▁መጡ፥	-3251
▁በሁሉ	-3252
▁በቅዱ	-3253
▁በተራ	-3254
▁ንስሐ	-3255
▁የእኔ	-3256
▁ግብፅ	-3257
▁ልጆችም	-3258
▁መቅደሱ	-3259
▁በደቡብ	-3260
▁ብላችሁ	-3261
▁አንሥቶ	-3262
▁አይተው	-3263
▁እጅህን	-3264
▁ከተማይ	-3265
▁ደብዳቤ	-3266
▁በርሳችሁ	-3267
▁በእጃቸው	-3268
▁በይሁዳም	-3269
▁ኃጢአተኛ	-3270
▁ንጉሡም።	-3271
▁አለቆችና	-3272
▁አደረጉ፤	-3273
▁የሚቃጠል	-3274
▁ኃጢአተኞች	-3275
▁አብርሃምም	-3276
▁ታውቃላችሁ።	-3277
▁የእስራኤልንም	-3278
ሥጢ	-3279
ስረ	-3280
ቀጥ	-3281
በኛ	-3282
ብሩ	-3283
ታ፥	-3284
ቴር	-3285
ኔር	-3286
ንቁ	-3287
ንት	-3288
ኖን	-3289
ዎስ	-3290
ይት	-3291
ድቁ	-3292
ዶና	-3293
ሁት።	-3294
ሁዳን	-3295
ስጋና	-3296
አት።	-3297
ክልት	-3298
ጋውም	-3299
▁ለዓ	-3300
▁ማለ	-3301
▁ቅድ	-3302
▁ብፁ	-3303
▁ችግ	-3304
▁አቁ	-3305
▁እመ	-3306
▁ከከ	-3307
▁የያ	-3308
▁ይጐ	-3309
ኖቻቸው	-3310
ካርያስ	-3311
▁ላሉት	-3312
▁መጡ፤	-3313
▁ሙሴና	-3314
▁ትልቅ	-3315
▁ወስደ	-3316
▁ዘረጋ	-3317
▁ጠላት	-3318
▁ፍጹም	-3319
▁ሰጠው።	-3320
▁ተመልሶ	-3321
▁ተናግሮ	-3322
▁እንደሌ	-3323
▁እንዳታ	-3324
▁እጁንም	-3325
▁ወጥተው	-3326
▁ሴዴቅያስ	-3327
▁በላያቸው	-3328
▁በምሥራቅ	-3329
▁እንደምት	-3330
▁የአባቶቻ	-3331
▁የይሁዳን	-3332
ሆች	-3333
ላይ	-3334
መፀ	-3335
ርግ	-3336
ሰበ	-3337
በ፤	-3338
ብል	-3339
ወረ	-3340
ወዝ	-3341
ዳም	-3342
ግሬ	-3343
ጣል	-3344
ፉም	-3345
ፍ፥	-3346
▁ፌ	-3347
ለትም	-3348
ማስቆ	-3349
ሪዎች	-3350
ኞቹም	-3351
ጊብዓ	-3352
ጥኣን	-3353
ፈልገ	-3354
ፍራት	-3355
▁ሬሳ	-3356
▁ሽታ	-3357
▁ቅር	-3358
▁በጌ	-3359
▁ባዶ	-3360
▁ዋይ	-3361
▁ውኆ	-3362
▁ዘን	-3363
መሰክር	-3364
ቶቻችሁ	-3365
ችኋለሁ	-3366
▁ሞገስ	-3367
▁በል።	-3368
▁ታናሽ	-3369
▁አሞራ	-3370
▁አካዝ	-3371
▁አይቻ	-3372
ላችኋል።	-3373
ሩሳሌምን	-3374
▁ልባቸው	-3375
▁ምሥራቅ	-3376
▁በውስጥ	-3377
▁ተሰብስ	-3378
▁ነገሠ፤	-3379
▁አእምሮ	-3380
▁ለሚቃጠል	-3381
▁ለኃጢአት	-3382
▁መልካሙን	-3383
▁ምድሪቱን	-3384
▁በባቢሎን	-3385
▁ከአባቶቹ	-3386
▁ወዲያውም	-3387
▁የያዕቆብ	-3388
▁ይላልና።	-3389
▁ፈርዖንም	-3390
▁በከተማይቱ	-3391
▁መሰምርያዋን፥	-3392
ለታ	-3393
በሉ	-3394
ቤዠ	-3395
ብ፤	-3396
ቱ፤	-3397
ደክ	-3398
ጠና	-3399
ፉ፤	-3400
▁ቄ	-3401
ራምም	-3402
ሰናከ	-3403
ንደረ	-3404
ይዝራ	-3405
ጀመረ	-3406
ፈስስ	-3407
ፍረተ	-3408
ፎችም	-3409
▁ረዳ	-3410
▁በጉ	-3411
▁ዓም	-3412
▁ዓሣ	-3413
▁ይረ	-3414
ቻችሁም	-3415
▁በሉ።	-3416
▁በጆሮ	-3417
▁ትሰጣ	-3418
▁አብያ	-3419
▁ከንፈ	-3420
▁ከፊት	-3421
▁የተዋ	-3422
▁ይበሉ	-3423
▁ይጠራ	-3424
ስተኛውም	-3425
▁ስምዖን	-3426
▁በረከት	-3427
▁በጽዮን	-3428
▁ብቻውን	-3429
▁ተመለሰ	-3430
▁ንጉሥ፥	-3431
▁አየሁ፥	-3432
▁ኤልሳዕ	-3433
▁ወርዱም	-3434
▁ዘወትር	-3435
▁የወንድ	-3436
▁ለአባቶቻ	-3437
▁ለእነርሱ	-3438
▁የአምላክ	-3439
▁የካህናት	-3440
▁በሰባተኛው	-3441
▁አይደለም፥	-3442
▁ለእስራኤልም	-3443
▁ናቡከደነፆር	-3444
ሄደ	-3445
ህሉ	-3446
ርደ	-3447
ቅ።	-3448
በ፥	-3449
ተም	-3450
ትዮ	-3451
ገም	-3452
ቅረብ	-3453
በትና	-3454
በው።	-3455
ኛል፥	-3456
ኝነት	-3457
ኳንን	-3458
ገረዙ	-3459
▁ለሴ	-3460
▁ምሰ	-3461
▁ሸሸ	-3462
▁ዕው	-3463
▁ይይ	-3464
ዋለሁ፥	-3465
▁መሐላ	-3466
▁ሞተ።	-3467
▁ቋንቋ	-3468
▁በእጄ	-3469
▁አትግ	-3470
▁ከጥሩ	-3471
▁ወጡ፥	-3472
▁የሚታ	-3473
▁የተከ	-3474
▁ያልፋ	-3475
▁ይልቁ	-3476
▁ገበታ	-3477
▁ጠቢብ	-3478
▁ጠቦት	-3479
ችኋለሁ፤	-3480
▁ለወንድ	-3481
▁ሌሎችን	-3482
▁ርዝመቱ	-3483
▁ንጉሡን	-3484
▁አንጻር	-3485
▁አዘዘ።	-3486
▁አጋንን	-3487
▁እነሆም	-3488
▁ወዲያው	-3489
▁የሚመጣ	-3490
▁ይመልስ	-3491
▁መንደሮች	-3492
▁በመንግሥ	-3493
▁በማደሪያ	-3494
▁በድንጋይ	-3495
▁አሁንም፥	-3496
▁ከአንተም	-3497
▁ፍልስጥኤማውያን	-3498
ራ፥	-3499
በዙ	-3500
ብያ	-3501
ዝር	-3502
ዶል	-3503
ጃጅ	-3504
ጣም	-3505
ጽጳ	-3506
▁ቶ	-3507
▁ኰ	-3508
ላል፤	-3509
ባትን	-3510
ትዮጵ	-3511
ይቱን	-3512
ገባው	-3513
▁ሕል	-3514
▁ራብ	-3515
▁በሉ	-3516
▁ታቦ	-3517
▁አረ	-3518
▁የካ	-3519
▁ጦር	-3520
ልሙትና	-3521
ሳቸውን	-3522
በትንም	-3523
ባቸው፤	-3524
ንያምም	-3525
▁ሚዛን	-3526
▁ማለት	-3527
▁ቀን፥	-3528
▁በገዛ	-3529
▁ንገረ	-3530
▁አምባ	-3531
▁አክሊ	-3532
▁ከሰማ	-3533
▁ክፉን	-3534
▁የበደ	-3535
▁ይሄዱ	-3536
▁ጮኸ።	-3537
▁ፈሳሽ	-3538
ለዳውያን	-3539
▁ሆናችሁ	-3540
▁ለሰልፍ	-3541
▁ለይሁዳ	-3542
▁ልጆችና	-3543
▁መኖሪያ	-3544
▁በእርሻ	-3545
▁በዓለም	-3546
▁እናውቃ	-3547
▁እግሮች	-3548
▁ከሙታን	-3549
▁የአባት	-3550
▁የግብጽ	-3551
▁በሰንበት	-3552
▁ካህናቱም	-3553
ርህ	-3554
ርማ	-3555
ስር	-3556
ሻል	-3557
በዘ	-3558
ንቍ	-3559
ዊም	-3560
ዋት	-3561
የው	-3562
ግም	-3563
ግዱ	-3564
ጠመ	-3565
▁ፀ	-3566
ሦስት	-3567
ሩትም	-3568
ባት፥	-3569
ኝም።	-3570
ጕዘው	-3571
ጣል።	-3572
ጤክስ	-3573
▁ሆኜ	-3574
▁ለጥ	-3575
▁ተዉ	-3576
▁እይ	-3577
▁ከገ	-3578
▁ዘለ	-3579
▁የሜ	-3580
▁የቂ	-3581
▁ያዝ	-3582
▁ለነበ	-3583
▁መናፍ	-3584
▁ምሥጢ	-3585
▁ስሙ፤	-3586
▁በመስ	-3587
▁በባሕ	-3588
▁አፈር	-3589
▁ከዋክ	-3590
▁ወሰዱ	-3591
▁ውሰድ	-3592
▁ዝናብ	-3593
▁የሚመ	-3594
▁ጩኸት	-3595
ላቸውም።	-3596
▁መዝሙር	-3597
▁ምሕረቱ	-3598
▁ሰዎቹም	-3599
▁በዚህች	-3600
▁በየወገ	-3601
▁ተጕዘው	-3602
▁ተጠንቀ	-3603
▁ትእዛዙ	-3604
▁አንተና	-3605
▁እናገራ	-3606
▁እንግዳ	-3607
▁ከወዴት	-3608
▁ዓይነት	-3609
▁የተቀረ	-3610
▁የዮሴፍ	-3611
▁ዮርዳኖ	-3612
▁ጕልማሳ	-3613
▁ጽድቅን	-3614
▁መድኃኒት	-3615
▁ተናገረው	-3616
▁ኢዮአብም	-3617
▁ከወንድሞ	-3618
▁የሚናገር	-3619
▁ይኖራል።	-3620
▁ድንጋዮች	-3621
▁ለዘላለምም	-3622
ለፈ	-3623
ላ፥	-3624
ቀም	-3625
ቢዩ	-3626
ችና	-3627
ካፈ	-3628
▁a	-3629
ልኝ፥	-3630
ሩት።	-3631
ራል።	-3632
ርሳቤ	-3633
ናል፤	-3634
ውን።	-3635
ያስተ	-3636
ጐናጸ	-3637
ጸልይ	-3638
▁ሄዶ	-3639
▁ቅጥ	-3640
▁በሙ	-3641
▁በቍ	-3642
▁ወል	-3643
▁ወፍ	-3644
▁የኬ	-3645
▁የዝ	-3646
ለዋል።	-3647
ቸውም፤	-3648
ቻቸው።	-3649
▁ላይም	-3650
▁መሆኑ	-3651
▁ሺህም	-3652
▁በእሳ	-3653
▁በዳም	-3654
▁አሰና	-3655
▁አበባ	-3656
▁ውኃም	-3657
▁የላከ	-3658
▁የውኃ	-3659
▁ድንቅ	-3660
▁ገባ።	-3661
▁ግብር	-3662
▁ፍላጻ	-3663
▁መሠረት	-3664
▁መንገሥ	-3665
▁ስንፍና	-3666
▁በዚያች	-3667
▁ነበሩ፥	-3668
▁እንግዲ	-3669
▁እኵሌታ	-3670
▁ከወሩም	-3671
▁የሰውን	-3672
▁የግብፅ	-3673
▁ለወንድሞ	-3674
▁ራሳቸውን	-3675
▁በአደባባ	-3676
▁እንዳለው	-3677
▁ደግሞም።	-3678
▁ተናገራቸው።	-3679
ሉኝ	-3680
ሰጠ	-3681
ሱት	-3682
ሸሸ	-3683
ዋ፥	-3684
ድኑ	-3685
ጮኹ	-3686
ላል፥	-3687
መቱም	-3688
ኞችም	-3689
▁ልን	-3690
▁ሽቱ	-3691
▁ትታ	-3692
▁እም	-3693
▁የጦ	-3694
▁የፋ	-3695
▁ይን	-3696
▁ድል	-3697
▁ግፍ	-3698
▁ጫማ	-3699
ተዋል፤	-3700
ዋለህ።	-3701
ዋልና፥	-3702
▁ለሕዝ	-3703
▁ማለዳ	-3704
▁ስማ፤	-3705
▁ስምህ	-3706
▁ተሸክ	-3707
▁	-3708
ን	-3709
ም	-3710
አ	-3711
በ	-3712
እ	-3713
ር	-3714
ው	-3715
ል	-3716
ት	-3717
ለ	-3718
ስ	-3719
የ	-3720
ይ	-3721
።	-3722
ነ	-3723
መ	-3724
ደ	-3725
፥	-3726
ብ	-3727
ና	-3728
ች	-3729
ድ	-3730
ተ	-3731
ያ	-3732
ከ	-3733
ሁ	-3734
ግ	-3735
ላ	-3736
ወ	-3737
ህ	-3738
ሰ	-3739
ገ	-3740
ራ	-3741
፤	-3742
ረ	-3743
ባ	-3744
ታ	-3745
ዚ	-3746
ሉ	-3747
ማ	-3748
ቸ	-3749
ቀ	-3750
ጠ	-3751
ዘ	-3752
ዳ	-3753
ፍ	-3754
ሆ	-3755
ሱ	-3756
ሔ	-3757
ሳ	-3758
ቅ	-3759
ክ	-3760
ጥ	-3761
ሚ	-3762
ዋ	-3763
ፈ	-3764
ቱ	-3765
ሩ	-3766
ጋ	-3767
ጣ	-3768
ሥ	-3769
ቶ	-3770
ሞ	-3771
ቃ	-3772
ሕ	-3773
ካ	-3774
ዲ	-3775
ኤ	-3776
ዝ	-3777
ዓ	-3778
ቤ	-3779
ጅ	-3780
ኛ	-3781
ጉ	-3782
ዛ	-3783
ኝ	-3784
ዎ	-3785
ሌ	-3786
ሎ	-3787
ኑ	-3788
ኔ	-3789
ጆ	-3790
ሙ	-3791
ሮ	-3792
ፋ	-3793
ዱ	-3794
ጊ	-3795
ቢ	-3796
ሴ	-3797
ኢ	-3798
ኖ	-3799
?	-3800
ፊ	-3801
ሠ	-3802
ሪ	-3803
ዜ	-3804
ቡ	-3805
ዕ	-3806
ቻ	-3807
ዊ	-3808
ቆ	-3809
ሽ	-3810
ጡ	-3811
ዮ	-3812
ኃ	-3813
ጽ	-3814
ቹ	-3815
ኋ	-3816
ጌ	-3817
ሬ	-3818
ዙ	-3819
ቁ	-3820
ሃ	-3821
ሊ	-3822
ዶ	-3823
ሐ	-3824
ሸ	-3825
ቴ	-3826
ሄ	-3827
ፉ	-3828
ጀ	-3829
ሣ	-3830
ጸ	-3831
ሶ	-3832
ሲ	-3833
ጢ	-3834
ሜ	-3835
ሡ	-3836
ሻ	-3837
ጨ	-3838
ዩ	-3839
ጎ	-3840
ኪ	-3841
ጻ	-3842
ቍ	-3843
ኩ	-3844
ቦ	-3845
ጭ	-3846
ኞ	-3847
ዬ	-3848
ዴ	-3849
ኮ	-3850
ጃ	-3851
ቈ	-3852
ሦ	-3853
ጁ	-3854
ቼ	-3855
ፎ	-3856
ቂ	-3857
ፅ	-3858
ጦ	-3859
ጕ	-3860
ኳ	-3861
ኅ	-3862
ኸ	-3863
ዖ	-3864
ኵ	-3865
ጫ	-3866
ሺ	-3867
ጂ	-3868
ኦ	-3869
ሀ	-3870
ጐ	-3871
ኘ	-3872
ዞ	-3873
ኬ	-3874
ፀ	-3875
ጹ	-3876
ጮ	-3877
ጄ	-3878
ጓ	-3879
ዔ	-3880
ፌ	-3881
ሹ	-3882
ሾ	-3883
ቄ	-3884
ቲ	-3885
ፃ	-3886
ሂ	-3887
ኒ	-3888
ቺ	-3889
ኙ	-3890
ቋ	-3891
ጳ	-3892
!	-3893
ኰ	-3894
ዐ	-3895
ኣ	-3896
ጩ	-3897
ጤ	-3898
ጴ	-3899
ዌ	-3900
ኀ	-3901
ዉ	-3902
ዑ	-3903
ፁ	-3904
ሤ	-3905
ኹ	-3906
ጾ	-3907
ዣ	-3908
ሖ	-3909
ዥ	-3910
ጵ	-3911
ኽ	-3912
ፆ	-3913
ኜ	-3914
ኻ	-3915
ጪ	-3916
ጲ	-3917
ሑ	-3918
ኆ	-3919
ዪ	-3920
ዒ	-3921
a	-3922
ሒ	-3923
ሼ	-3924
ዠ	-3925
ጶ	-3926
W	-3927
ዢ	-3928
ኡ	-3929
ኚ	-3930
ጼ	-3931
ጺ	-3932
ጬ	-3933
ዦ	-3934
ዤ	-3935
ሢ	-3936
ቾ	-3937
ሓ	-3938
ዡ	-3939
ፄ	-3940
K	-3941
g	-3942
ኄ	-3943
r	-3944
ኾ	-3945
ጰ	-3946
ጱ	-3947
k	-3948
ቧ	-3949
ፔ	-3950
ፕ	-3951
T	-3952
ኺ	-3953
d	-3954
*	-3955
1	-3956
v	-3957
"	-3958
l	-3959
ሷ	-3960
ፐ	-3961
ፓ	-3962
2	-3963
s	-3964
D	-3965
3	-3966
[	-3967
]	-3968
o	-3969
ፑ	-3970
ፒ	-3971
(	-3972
)	-3973
-	-3974
5	-3975
A	-3976
e	-3977
ቊ	-3978
ዷ	-3979
ፂ	-3980
0	-3981
4	-3982
@	-3983
b	-3984
m	-3985
u	-3986
ሏ	-3987
ቷ	-3988
ቿ	-3989
ኗ	-3990
ኟ	-3991
ኲ	-3992
ኼ	-3993
ጒ	-3994
ጧ	-3995
ፏ	-3996
