<pad>	0
</s>	0
<unk>	0
▁t	-0
▁a	-1
in	-2
he	-3
re	-4
▁c	-5
on	-6
▁s	-7
▁o	-8
▁the	-9
at	-10
er	-11
ou	-12
es	-13
▁w	-14
ed	-15
nd	-16
or	-17
▁p	-18
en	-19
▁f	-20
it	-21
al	-22
▁d	-23
is	-24
ing	-25
▁in	-26
▁to	-27
▁m	-28
▁b	-29
▁of	-30
an	-31
as	-32
▁and	-33
▁h	-34
ar	-35
ic	-36
ion	-37
om	-38
▁re	-39
ov	-40
▁y	-41
▁n	-42
id	-43
le	-44
▁you	-45
ct	-46
ent	-47
ve	-48
il	-49
us	-50
ir	-51
▁e	-52
▁th	-53
os	-54
▁be	-55
ot	-56
ac	-57
ly	-58
▁T	-59
ol	-60
▁g	-61
▁v	-62
▁ha	-63
▁for	-64
▁l	-65
▁de	-66
ay	-67
ation	-68
▁cov	-69
19	-70
▁on	-71
ur	-72
op	-73
▁or	-74
im	-75
▁con	-76
▁is	-77
ith	-78
tr	-79
▁your	-80
▁2	-81
ow	-82
▁with	-83
ect	-84
if	-85
ut	-86
▁we	-87
-19	-88
ch	-89
▁as	-90
▁covid	-91
▁The	-92
her	-93
ce	-94
▁st	-95
▁pr	-96
est	-97
ig	-98
th	-99
ill	-100
▁an	-101
▁are	-102
ers	-103
▁u	-104
▁cas	-105
ort	-106
▁I	-107
▁that	-108
▁r	-109
et	-110
▁1	-111
irus	-112
▁fr	-113
▁have	-114
▁wh	-115
se	-116
ment	-117
▁ch	-118
▁not	-119
ive	-120
▁cases	-121
▁tr	-122
mp	-123
▁al	-124
ies	-125
▁he	-126
ul	-127
ad	-128
▁A	-129
▁res	-130
▁from	-131
ther	-132
ta	-133
fect	-134
ld	-135
port	-136
▁(	-137
st	-138
um	-139
▁se	-140
ver	-141
▁sh	-142
▁were	-143
ome	-144
ess	-145
ate	-146
ter	-147
cov	-148
▁cou	-149
▁dis	-150
▁it	-151
ab	-152
od	-153
ath	-154
▁at	-155
ak	-156
am	-157
res	-158
pp	-159
ial	-160
▁ne	-161
ore	-162
and	-163
em	-164
ary	-165
oc	-166
▁su	-167
ople	-168
ity	-169
ine	-170
iv	-171
▁can	-172
▁20	-173
▁sy	-174
el	-175
▁test	-176
are	-177
ud	-178
eople	-179
▁cl	-180
alth	-181
▁ex	-182
▁will	-183
▁by	-184
ions	-185
▁virus	-186
▁wor	-187
▁was	-188
▁health	-189
▁people	-190
▁S	-191
un	-192
▁us	-193
▁death	-194
▁un	-195
qu	-196
▁sp	-197
▁com	-198
▁other	-199
ans	-200
ated	-201
▁C	-202
ical	-203
▁report	-204
ge	-205
ars	-206
ose	-207
mpt	-208
▁ad	-209
ain	-210
igh	-211
▁inc	-212
acc	-213
av	-214
vel	-215
eas	-216
▁out	-217
▁pre	-218
▁if	-219
ant	-220
ber	-221
▁infect	-222
og	-223
▁conta	-224
ub	-225
mptom	-226
▁has	-227
▁le	-228
▁coun	-229
▁who	-230
▁vacc	-231
ib	-232
▁j	-233
▁app	-234
▁k	-235
▁im	-236
ents	-237
ould	-238
▁been	-239
▁deaths	-240
▁fe	-241
ild	-242
oron	-243
▁reported	-244
▁O	-245
▁do	-246
▁may	-247
ied	-248
ost	-249
▁If	-250
▁symptom	-251
ous	-252
▁ab	-253
end	-254
ace	-255
▁W	-256
ia	-257
out	-258
art	-259
▁af	-260
hen	-261
oronav	-262
act	-263
our	-264
▁symptoms	-265
oronavirus	-266
ap	-267
one	-268
med	-269
ire	-270
▁4	-271
ide	-272
▁Y	-273
gh	-274
▁3	-275
▁countr	-276
ice	-277
arch	-278
ines	-279
all	-280
▁contact	-281
▁202	-282
lud	-283
ec	-284
ren	-285
ult	-286
▁sars	-287
ory	-288
ist	-289
ubl	-290
ified	-291
able	-292
▁Th	-293
▁diseas	-294
als	-295
▁D	-296
▁num	-297
rou	-298
low	-299
ure	-300
uary	-301
▁more	-302
ack	-303
▁coronavirus	-304
▁P	-305
read	-306
▁prot	-307
▁child	-308
own	-309
▁includ	-310
▁should	-311
ious	-312
▁pos	-313
▁2020	-314
▁this	-315
▁their	-316
▁br	-317
emic	-318
▁day	-319
ast	-320
▁pl	-321
▁resp	-322
▁march	-323
ight	-324
▁You	-325
▁hand	-326
▁work	-327
▁ac	-328
iz	-329
ue	-330
▁prev	-331
▁ser	-332
▁some	-333
so	-334
▁number	-335
▁M	-336
ool	-337
▁also	-338
▁disease	-339
▁5	-340
ern	-341
▁In	-342
ance	-343
ip	-344
reak	-345
ati	-346
▁sa	-347
▁rec	-348
atory	-349
▁H	-350
▁trans	-351
aus	-352
ations	-353
▁B	-354
ict	-355
ong	-356
▁On	-357
00	-358
▁vaccine	-359
ures	-360
▁F	-361
▁It	-362
chool	-363
▁had	-364
▁they	-365
iss	-366
break	-367
ard	-368
-2	-369
urther	-370
▁than	-371
▁outbreak	-372
ates	-373
▁tim	-374
ich	-375
▁med	-376
▁about	-377
▁countries	-378
▁te	-379
ep	-380
▁conf	-381
▁further	-382
▁spread	-383
ail	-384
▁comm	-385
isk	-386
orm	-387
▁ind	-388
erson	-389
pr	-390
reat	-391
▁all	-392
▁ev	-393
trict	-394
▁This	-395
▁need	-396
▁publ	-397
ll	-398
▁"	-399
red	-400
▁dr	-401
▁pati	-402
enc	-403
lo	-404
uc	-405
ake	-406
▁ph	-407
▁tot	-408
▁when	-409
▁which	-410
▁school	-411
▁person	-412
▁av	-413
▁ef	-414
ign	-415
▁ag	-416
▁one	-417
▁R	-418
▁face	-419
andemic	-420
▁confir	-421
▁cr	-422
ens	-423
▁new	-424
ness	-425
▁over	-426
▁pandemic	-427
ata	-428
▁after	-429
ke	-430
▁und	-431
▁cent	-432
fe	-433
mer	-434
irst	-435
vice	-436
▁int	-437
▁per	-438
▁risk	-439
ities	-440
fic	-441
ina	-442
olog	-443
▁patients	-444
pt	-445
▁inf	-446
ag	-447
br	-448
▁exp	-449
▁restrict	-450
ks	-451
avel	-452
▁gov	-453
▁home	-454
ence	-455
▁public	-456
▁me	-457
▁get	-458
▁them	-459
▁time	-460
▁such	-461
▁first	-462
ational	-463
▁confirmed	-464
not	-465
▁inter	-466
pit	-467
▁stud	-468
con	-469
ors	-470
▁any	-471
▁hum	-472
▁govern	-473
ile	-474
▁mas	-475
▁travel	-476
▁man	-477
▁care	-478
▁infection	-479
ased	-480
▁col	-481
▁data	-482
▁china	-483
ord	-484
▁sur	-485
▁use	-486
ating	-487
ments	-488
ollow	-489
▁comp	-490
ase	-491
▁hands	-492
ie	-493
▁rel	-494
ove	-495
▁qu	-496
ally	-497
▁clos	-498
ission	-499
▁up	-500
land	-501
▁tw	-502
▁bring	-503
age	-504
ited	-505
ress	-506
▁under	-507
▁including	-508
ne	-509
we	-510
▁but	-511
ospit	-512
▁transm	-513
▁caus	-514
oun	-515
▁hospit	-516
ert	-517
▁gen	-518
▁protect	-519
ell	-520
ike	-521
▁ill	-522
bruary	-523
dit	-524
▁prov	-525
▁2020,	-526
▁result	-527
ang	-528
▁high	-529
▁others	-530
ame	-531
▁sc	-532
ific	-533
▁6	-534
ach	-535
sib	-536
▁due	-537
▁rece	-538
▁february	-539
▁no	-540
velop	-541
▁case	-542
▁days	-543
▁contr	-544
arly	-545
▁stay	-546
▁bringing	-547
ood	-548
way	-549
▁hel	-550
ident	-551
▁these	-552
▁world	-553
▁ar	-554
itive	-555
lu	-556
▁rem	-557
▁previous	-558
▁E	-559
▁close	-560
▁en	-561
ever	-562
▁help	-563
▁-	-564
outh	-565
▁two	-566
▁part	-567
▁effect	-568
▁bet	-569
▁government	-570
▁cover	-571
▁follow	-572
▁/	-573
omm	-574
uring	-575
anuary	-576
illion	-577
▁loc	-578
▁possib	-579
ass	-580
▁those	-581
ob	-582
▁how	-583
▁avail	-584
iratory	-585
▁totals	-586
▁january	-587
ices	-588
▁positive	-589
ust	-590
-19.	-591
fore	-592
▁mon	-593
▁call	-594
▁L	-595
anc	-596
ian	-597
▁ant	-598
▁reg	-599
gn	-600
ind	-601
une	-602
▁treat	-603
▁hospital	-604
uct	-605
▁gp	-606
▁dec	-607
▁most	-608
▁previously	-609
lf	-610
▁N	-611
ick	-612
iate	-613
▁bec	-614
ocial	-615
▁there	-616
▁develop	-617
▁available	-618
cc	-619
te	-620
▁ass	-621
▁imp	-622
▁sign	-623
▁7	-624
▁kn	-625
ative	-626
rent	-627
very	-628
▁dif	-629
▁respon	-630
▁wee	-631
▁tested	-632
▁medical	-633
▁infected	-634
▁respiratory	-635
hed	-636
ater	-637
here	-638
▁notified	-639
).	-640
▁9	-641
▁so	-642
lect	-643
▁bre	-644
▁hcov	-645
aly	-646
▁syst	-647
isit	-648
▁am	-649
▁acc	-650
▁ann	-651
ced	-652
han	-653
▁10	-654
ween	-655
ected	-656
int	-657
▁its	-658
ended	-659
▁host	-660
▁track	-661
▁would	-662
▁during	-663
notified	-664
▁between	-665
▁illness	-666
▁transmission	-667
▁8	-668
▁go	-669
merg	-670
▁str	-671
▁possible	-672
000	-673
▁op	-674
▁att	-675
▁meas	-676
▁advice	-677
▁system	-678
ough	-679
pril	-680
unity	-681
▁cons	-682
▁spec	-683
ok	-684
▁–	-685
ings	-686
▁april	-687
),	-688
ise	-689
les	-690
ency	-691
▁che	-692
ential	-693
▁incre	-694
ear	-695
▁bat	-696
rough	-697
▁wear	-698
▁again	-699
▁united	-700
▁children	-701
,000	-702
▁recomm	-703
cr	-704
su	-705
▁emerg	-706
▁states	-707
▁million	-708
ctor	-709
vere	-710
▁act	-711
▁vir	-712
ility	-713
ology	-714
▁announ	-715
day	-716
ree	-717
▁only	-718
▁could	-719
ro	-720
ts	-721
gan	-722
▁14	-723
▁As	-724
care	-725
▁requ	-726
▁restrictions	-727
mediate	-728
▁severe	-729
inis	-730
▁est	-731
arant	-732
▁country	-733
▁G	-734
eep	-735
▁social	-736
oid	-737
▁Do	-738
▁ire	-739
▁pres	-740
▁visit	-741
▁ireland	-742
▁prevent	-743
▁into	-744
▁long	-745
▁announced	-746
▁4,	-747
▁How	-748
oth	-749
oint	-750
ting	-751
▁cle	-752
▁grou	-753
▁affect	-754
▁control	-755
▁through	-756
ins	-757
ound	-758
▁well	-759
▁level	-760
▁while	-761
▁measures	-762
▁ent	-763
▁many	-764
▁being	-765
▁inform	-766
ared	-767
ised	-768
▁like	-769
▁move	-770
▁human	-771
▁response	-772
▁sus	-773
▁clin	-774
▁quarant	-775
ope	-776
ual	-777
▁ed	-778
ning	-779
▁red	-780
▁condit	-781
▁testing	-782
▁vaccines	-783
▁away	-784
ry	-785
aces	-786
▁sup	-787
▁serv	-788
▁before	-789
▁19	-790
▁sm	-791
cond	-792
▁They	-793
▁food	-794
▁issu	-795
pl	-796
ug	-797
pec	-798
tain	-799
▁low	-800
▁var	-801
ening	-802
▁dist	-803
▁There	-804
▁every	-805
▁treatment	-806
af	-807
▁dep	-808
▁cough	-809
▁group	-810
▁someone	-811
▁information	-812
ily	-813
ered	-814
mple	-815
round	-816
▁same	-817
▁U	-818
ead	-819
tin	-820
uhan	-821
▁mask	-822
▁where	-823
az	-824
na	-825
ark	-826
ery	-827
ink	-828
ute	-829
▁imm	-830
▁pol	-831
ially	-832
▁take	-833
▁used	-834
▁offic	-835
▁community	-836
▁import	-837
▁national	-838
▁lim	-839
▁wash	-840
ination	-841
▁against	-842
▁schools	-843
pid	-844
▁cur	-845
▁det	-846
▁dire	-847
▁emergency	-848
▁eur	-849
inese	-850
▁ident	-851
▁wuhan	-852
▁second	-853
▁V	-854
arm	-855
▁24	-856
ouse	-857
▁lar	-858
▁educ	-859
▁show	-860
▁services	-861
amm	-862
ety	-863
▁11	-864
▁ma	-865
▁early	-866
▁prote	-867
▁intern	-868
▁include	-869
▁An	-870
▁di	-871
▁gu	-872
▁When	-873
▁make	-874
▁susp	-875
▁students	-876
ody	-877
old	-878
the	-879
▁fam	-880
▁flu	-881
▁ord	-882
ours	-883
▁inv	-884
▁conc	-885
▁fever	-886
▁europe	-887
▁humans	-888
▁conditions	-889
wide	-890
▁hig	-891
▁non	-892
other	-893
▁epid	-894
▁nose	-895
▁italy	-896
▁surve	-897
▁total	-898
ulation	-899
▁provid	-900
▁require	-901
▁support	-902
ted	-903
▁12	-904
▁15	-905
▁St	-906
ange	-907
ince	-908
▁adv	-909
▁sub	-910
▁june	-911
▁prop	-912
▁clean	-913
▁found	-914
▁without	-915
▁infections	-916
of	-917
ish	-918
par	-919
▁We	-920
▁gr	-921
▁arr	-922
ality	-923
▁mers	-924
▁areas	-925
▁gener	-926
illance	-927
▁issued	-928
yp	-929
-19,	-930
ivid	-931
▁ext	-932
▁least	-933
acy	-934
ade	-935
lob	-936
ogr	-937
uch	-938
ears	-939
▁met	-940
▁house	-941
▁known	-942
▁state	-943
▁trial	-944
▁contin	-945
▁important	-946
ez	-947
ten	-948
uce	-949
ause	-950
osed	-951
▁age	-952
▁del	-953
▁hse	-954
▁occ	-955
▁pop	-956
▁crit	-957
▁keep	-958
▁what	-959
▁These	-960
▁diffe	-961
▁short	-962
▁service	-963
▁clinical	-964
▁surveillance	-965
alk	-966
any	-967
erv	-968
▁des	-969
▁don	-970
▁down	-971
▁self	-972
▁temp	-973
▁chest	-974
▁pract	-975
▁movements	-976
oss	-977
til	-978
▁ob	-979
down	-980
line	-981
omes	-982
▁off	-983
aking	-984
lying	-985
▁2019	-986
▁week	-987
ording	-988
▁estim	-989
▁south	-990
▁using	-991
▁healthcare	-992
arr	-993
▁23	-994
ling	-995
▁aut	-996
iving	-997
▁inst	-998
▁isol	-999
▁pain	-1000
▁supp	-1001
▁medic	-1002
▁organ	-1003
▁around	-1004
▁breath	-1005
▁chinese	-1006
▁contain	-1007
▁z	-1008
▁Wh	-1009
less	-1010
ural	-1011
▁able	-1012
▁anim	-1013
▁much	-1014
inated	-1015
▁avoid	-1016
▁phone	-1017
▁sever	-1018
▁until	-1019
▁years	-1020
▁appoint	-1021
▁workers	-1022
essential	-1023
▁immediate	-1024
erm	-1025
opp	-1026
ized	-1027
▁Cov	-1028
ually	-1029
ublin	-1030
▁open	-1031
▁affected	-1032
ty	-1033
oci	-1034
neez	-1035
kdown	-1036
▁bats	-1037
▁drug	-1038
ically	-1039
▁masks	-1040
▁pregn	-1041
▁start	-1042
▁remain	-1043
▁closures	-1044
▁education	-1045
▁i	-1046
▁’	-1047
ave	-1048
ics	-1049
ork	-1050
▁cy	-1051
gest	-1052
▁Your	-1053
▁cell	-1054
▁main	-1055
▁allow	-1056
▁cance	-1057
▁attend	-1058
▁common	-1059
▁collect	-1060
▁viruses	-1061
▁following	-1062
els	-1063
ful	-1064
ned	-1065
▁13	-1066
ived	-1067
ving	-1068
▁glob	-1069
dition	-1070
▁centre	-1071
▁closed	-1072
▁population	-1073
▁ro	-1074
erly	-1075
iagn	-1076
tail	-1077
▁Con	-1078
▁ask	-1079
▁lab	-1080
▁nov	-1081
ently	-1082
▁lear	-1083
▁However	-1084
▁individ	-1085
1,	-1086
ash	-1087
cem	-1088
ogen	-1089
▁For	-1090
▁air	-1091
▁mod	-1092
▁sim	-1093
▁sit	-1094
▁feel	-1095
▁orig	-1096
▁pass	-1097
▁prod	-1098
cember	-1099
idence	-1100
▁doctor	-1101
▁effective	-1102
oh	-1103
led	-1104
▁18	-1105
▁22	-1106
▁Pr	-1107
▁ir	-1108
ages	-1109
atic	-1110
ined	-1111
side	-1112
▁200	-1113
ember	-1114
ition	-1115
ivers	-1116
▁Read	-1117
▁decl	-1118
▁hours	-1119
▁mouth	-1120
▁study	-1121
inister	-1122
▁dublin	-1123
▁receive	-1124
▁results	-1125
▁international	-1126
hor	-1127
bers	-1128
fort	-1129
self	-1130
▁add	-1131
▁fac	-1132
▁our	-1133
ution	-1134
▁plan	-1135
▁safe	-1136
▁vari	-1137
▁share	-1138
▁december	-1139
erc	-1140
jor	-1141
▁mid	-1142
iting	-1143
gative	-1144
▁among	-1145
▁cause	-1146
▁large	-1147
▁occur	-1148
▁place	-1149
▁recov	-1150
▁sneez	-1151
▁weeks	-1152
▁caused	-1153
▁because	-1154
▁tracking	-1155
▁underlying	-1156
▁recommended	-1157
oor	-1158
▁es	-1159
lood	-1160
▁way	-1161
▁even	-1162
▁last	-1163
infect	-1164
▁alert	-1165
▁major	-1166
▁often	-1167
▁viral	-1168
▁author	-1169
▁partic	-1170
▁current	-1171
▁appointment	-1172
▁30	-1173
▁sw	-1174
oved	-1175
ular	-1176
▁end	-1177
▁exa	-1178
▁min	-1179
▁both	-1180
▁know	-1181
pecially	-1182
▁example	-1183
▁epidemic	-1184
▁quarantine	-1185
ys	-1186
fer	-1187
ica	-1188
▁16	-1189
isol	-1190
iven	-1191
▁adm	-1192
▁body	-1193
▁2020.	-1194
▁activ	-1195
▁blood	-1196
▁separ	-1197
▁direct	-1198
▁another	-1199
ces	-1200
ants	-1201
omic	-1202
uced	-1203
▁tou	-1204
ather	-1205
▁Some	-1206
▁fact	-1207
▁find	-1208
▁must	-1209
▁proc	-1210
▁samp	-1211
▁great	-1212
▁might	-1213
▁meters	-1214
▁within	-1215
▁cancell	-1216
▁negative	-1217
▁transport	-1218
.3	-1219
ix	-1220
ief	-1221
▁By	-1222
▁Ch	-1223
term	-1224
ature	-1225
▁appr	-1226
▁cold	-1227
▁less	-1228
▁live	-1229
▁made	-1230
▁norm	-1231
▁prim	-1232
ficult	-1233
▁antib	-1234
▁tests	-1235
▁three	-1236
▁depart	-1237
▁higher	-1238
▁immune	-1239
▁different	-1240
▁especially	-1241
ene	-1242
hes	-1243
its	-1244
ook	-1245
ung	-1246
ven	-1247
▁2,	-1248
▁He	-1249
ason	-1250
cept	-1251
▁cod	-1252
▁econ	-1253
▁surf	-1254
▁diagn	-1255
▁month	-1256
▁events	-1257
▁family	-1258
▁organiz	-1259
▁protein	-1260
▁univers	-1261
ns	-1262
eng	-1263
str	-1264
arda	-1265
ilar	-1266
itis	-1267
neum	-1268
▁saf	-1269
▁typ	-1270
ished	-1271
▁form	-1272
▁path	-1273
▁very	-1274
▁Covid	-1275
▁acute	-1276
▁labor	-1277
▁cannot	-1278
▁impact	-1279
▁addition	-1280
▁diseases	-1281
▁lockdown	-1282
▁difficult	-1283
▁recommend	-1284
ird	-1285
tur	-1286
xim	-1287
▁26	-1288
▁does	-1289
▁four	-1290
▁rese	-1291
▁then	-1292
▁associ	-1293
ological	-1294
ck	-1295
hy	-1296
yg	-1297
aff	-1298
ior	-1299
loy	-1300
onia	-1301
osis	-1302
▁But	-1303
▁influ	-1304
▁local	-1305
▁since	-1306
▁safety	-1307
▁european	-1308
▁yourself	-1309
0%	-1310
ets	-1311
und	-1312
▁25	-1313
▁el	-1314
form	-1315
itor	-1316
uals	-1317
▁equ	-1318
▁rna	-1319
▁kore	-1320
▁pneum	-1321
▁staff	-1322
▁still	-1323
▁touch	-1324
▁water	-1325
▁infectious	-1326
dc	-1327
wn	-1328
xt	-1329
att	-1330
iod	-1331
oon	-1332
▁1,	-1333
apid	-1334
itiz	-1335
▁eas	-1336
▁fat	-1337
mploy	-1338
▁covs	-1339
▁each	-1340
▁mark	-1341
▁step	-1342
ymptom	-1343
▁fines	-1344
▁hcovs	-1345
▁retur	-1346
▁assess	-1347
▁having	-1348
▁reduce	-1349
▁similar	-1350
▁worldwide	-1351
▁department	-1352
up	-1353
chn	-1354
▁fl	-1355
▁la	-1356
ards	-1357
ject	-1358
ustr	-1359
▁bab	-1360
▁dem	-1361
▁see	-1362
iness	-1363
▁back	-1364
▁team	-1365
▁center	-1366
▁global	-1367
▁period	-1368
▁provide	-1369
▁detected	-1370
▁required	-1371
za	-1372
ids	-1373
ite	-1374
ndr	-1375
urs	-1376
▁17	-1377
▁ey	-1378
enec	-1379
▁afr	-1380
▁car	-1381
▁hub	-1382
▁city	-1383
▁rate	-1384
ancing	-1385
ipment	-1386
opping	-1387
▁based	-1388
▁cyber	-1389
▁indic	-1390
▁right	-1391
▁times	-1392
▁comple	-1393
▁likely	-1394
▁concern	-1395
▁healthy	-1396
▁outside	-1397
▁washing	-1398
▁official	-1399
▁pneumonia	-1400
▁identified	-1401
▁individuals	-1402
ph	-1403
sc	-1404
▁'	-1405
lic	-1406
▁28	-1407
▁3,	-1408
▁wa	-1409
oses	-1410
traz	-1411
▁acr	-1412
▁sug	-1413
▁wom	-1414
eneca	-1415
▁list	-1416
▁rele	-1417
▁reop	-1418
▁said	-1419
▁order	-1420
▁rapid	-1421
▁county	-1422
▁trials	-1423
▁however	-1424
trazeneca	-1425
▁received	-1426
▁laboratory	-1427
inc	-1428
▁To	-1429
▁uk	-1430
enza	-1431
▁cal	-1432
ardaí	-1433
odies	-1434
▁Stay	-1435
▁come	-1436
▁done	-1437
▁guid	-1438
▁mild	-1439
▁appro	-1440
▁signs	-1441
▁across	-1442
▁origin	-1443
▁samples	-1444
▁personal	-1445
▁developed	-1446
▁disinfect	-1447
▁equipment	-1448
3,	-1449
ru	-1450
ife	-1451
uss	-1452
▁21	-1453
▁Sh	-1454
aily	-1455
ives	-1456
▁Res	-1457
▁bas	-1458
▁cap	-1459
ately	-1460
▁init	-1461
▁scre	-1462
▁sick	-1463
▁sure	-1464
ensive	-1465
inistr	-1466
uction	-1467
ularly	-1468
▁syndr	-1469
▁techn	-1470
▁online	-1471
▁suggest	-1472
▁tracker	-1473
▁increased	-1474
ym	-1475
eri	-1476
ged	-1477
▁eu	-1478
eral	-1479
▁old	-1480
ising	-1481
▁Wash	-1482
▁amer	-1483
▁baby	-1484
▁iran	-1485
▁post	-1486
▁prob	-1487
▁daily	-1488
▁enter	-1489
▁lower	-1490
▁needs	-1491
▁record	-1492
otential	-1493
▁several	-1494
▁relating	-1495
▁syndrome	-1496
▁influenza	-1497
▁associated	-1498
▁vaccinated	-1499
ays	-1500
set	-1501
▁Op	-1502
aren	-1503
ides	-1504
▁par	-1505
▁rep	-1506
▁set	-1507
osure	-1508
▁adap	-1509
▁five	-1510
▁meet	-1511
▁mult	-1512
▁year	-1513
▁chang	-1514
▁later	-1515
▁places	-1516
▁related	-1517
▁increase	-1518
▁learning	-1519
▁properly	-1520
▁research	-1521
▁development	-1522
29	-1523
to	-1524
get	-1525
ify	-1526
ism	-1527
ner	-1528
ues	-1529
ient	-1530
rest	-1531
tact	-1532
▁bus	-1533
▁cho	-1534
▁mem	-1535
▁nat	-1536
▁own	-1537
▁sec	-1538
entil	-1539
▁happ	-1540
attack	-1541
lement	-1542
▁invol	-1543
▁novel	-1544
▁small	-1545
ability	-1546
▁detail	-1547
▁normal	-1548
▁stated	-1549
▁evidence	-1550
▁specific	-1551
▁distancing	-1552
▁cyberattack	-1553
dr	-1554
ale	-1555
ron	-1556
▁bu	-1557
cent	-1558
cess	-1559
iral	-1560
ucle	-1561
▁few	-1562
▁fun	-1563
▁hot	-1564
▁mob	-1565
▁put	-1566
covid	-1567
itted	-1568
ption	-1569
▁Open	-1570
▁ther	-1571
▁exerc	-1572
▁korea	-1573
▁women	-1574
▁access	-1575
▁called	-1576
▁groups	-1577
▁effects	-1578
▁economic	-1579
▁sneezing	-1580
▁suspected	-1581
▁prevention	-1582
▁separation	-1583
▁astrazeneca	-1584
▁organization	-1585
ogn	-1586
sis	-1587
▁50	-1588
▁Al	-1589
▁Be	-1590
ises	-1591
ults	-1592
▁All	-1593
▁And	-1594
▁ful	-1595
▁now	-1596
ances	-1597
ental	-1598
ograp	-1599
▁hist	-1600
▁sent	-1601
▁sour	-1602
aching	-1603
▁analy	-1604
▁doses	-1605
erature	-1606
▁animal	-1607
▁months	-1608
▁greater	-1609
▁present	-1610
▁potential	-1611
1.	-1612
iqu	-1613
ock	-1614
orn	-1615
ret	-1616
ved	-1617
ves	-1618
ygi	-1619
▁ur	-1620
ator	-1621
crip	-1622
ists	-1623
▁cam	-1624
▁enc	-1625
▁too	-1626
angol	-1627
ready	-1628
▁Many	-1629
▁date	-1630
▁lung	-1631
▁outd	-1632
▁sing	-1633
action	-1634
though	-1635
▁progr	-1636
ificant	-1637
▁People	-1638
▁employ	-1639
▁experi	-1640
▁levels	-1641
▁ventil	-1642
▁already	-1643
▁history	-1644
▁monitor	-1645
▁antibodies	-1646
▁intermediate	-1647
".	-1648
."	-1649
abl	-1650
for	-1651
▁gl	-1652
covs	-1653
etic	-1654
hold	-1655
▁100	-1656
▁his	-1657
▁tow	-1658
atest	-1659
cript	-1660
rence	-1661
▁anti	-1662
▁area	-1663
▁give	-1664
▁hygi	-1665
▁mand	-1666
▁mort	-1667
▁nurs	-1668
▁priv	-1669
hether	-1670
▁coron	-1671
▁pharm	-1672
▁press	-1673
▁become	-1674
▁establ	-1675
▁guidel	-1676
▁instit	-1677
▁showed	-1678
▁centres	-1679
▁increas	-1680
▁numbers	-1681
▁primary	-1682
▁usually	-1683
▁continue	-1684
▁essential	-1685
▁estimated	-1686
▁spreading	-1687
▁authorities	-1688
▁significant	-1689
2,	-1690
cg	-1691
ft	-1692
me	-1693
.30	-1694
ize	-1695
owd	-1696
▁27	-1697
▁29	-1698
▁Tr	-1699
▁co	-1700
▁ve	-1701
ateg	-1702
hers	-1703
tand	-1704
▁rev	-1705
utive	-1706
▁cour	-1707
igures	-1708
▁colle	-1709
▁rates	-1710
ilities	-1711
▁effort	-1712
▁genome	-1713
▁pangol	-1714
▁therap	-1715
▁details	-1716
▁general	-1717
▁getting	-1718
▁process	-1719
▁variant	-1720
▁declared	-1721
▁pregnant	-1722
▁practices	-1723
▁protection	-1724
▁protective	-1725
▁temperature	-1726
▁vaccination	-1727
.5	-1728
cgp	-1729
omb	-1730
rel	-1731
tle	-1732
ump	-1733
aken	-1734
ancy	-1735
azil	-1736
like	-1737
thod	-1738
▁Acc	-1739
▁def	-1740
▁far	-1741
aging	-1742
aring	-1743
ators	-1744
▁aged	-1745
▁best	-1746
▁cris	-1747
▁disc	-1748
▁just	-1749
▁phys	-1750
▁slow	-1751
▁alone	-1752
▁given	-1753
▁limit	-1754
▁means	-1755
▁phase	-1756
▁prior	-1757
▁gather	-1758
▁necess	-1759
▁workpl	-1760
▁Contact	-1761
▁hygiene	-1762
▁serious	-1763
▁systems	-1764
▁whether	-1765
▁distance	-1766
▁exposure	-1767
▁shopping	-1768
ymptomatic	-1769
▁according	-1770
▁breathing	-1771
▁implement	-1772
▁immediately	-1773
ei	-1774
go	-1775
kn	-1776
li	-1777
ote	-1778
▁fo	-1779
ably	-1780
crib	-1781
ense	-1782
hest	-1783
orth	-1784
otic	-1785
▁cre	-1786
▁Call	-1787
▁Most	-1788
▁dose	-1789
▁free	-1790
▁news	-1791
▁sequ	-1792
ertain	-1793
utions	-1794
▁added	-1795
▁effic	-1796
▁hosts	-1797
▁onset	-1798
▁Follow	-1799
▁causes	-1800
▁detect	-1801
▁flight	-1802
▁mobile	-1803
▁reserv	-1804
▁animals	-1805
▁natural	-1806
▁special	-1807
▁coronary	-1808
▁provided	-1809
▁According	-1810
▁cancelled	-1811
▁household	-1812
▁secondary	-1813
▁coronaviruses	-1814
7,	-1815
iew	-1816
ond	-1817
ops	-1818
utr	-1819
ians	-1820
lamm	-1821
ount	-1822
risk	-1823
trib	-1824
▁rsc	-1825
▁war	-1826
thing	-1827
▁comb	-1828
▁exec	-1829
▁eyes	-1830
▁good	-1831
▁oper	-1832
idents	-1833
▁crowd	-1834
▁paren	-1835
▁worse	-1836
▁adults	-1837
▁commun	-1838
▁method	-1839
▁sample	-1840
▁season	-1841
▁tempor	-1842
▁factors	-1843
▁limited	-1844
▁persons	-1845
lications	-1846
▁contacts	-1847
▁critical	-1848
▁pathogen	-1849
▁executive	-1850
▁intensive	-1851
▁pregnancy	-1852
▁president	-1853
.2	-1854
13	-1855
ef	-1856
use	-1857
iday	-1858
imed	-1859
iple	-1860
ofen	-1861
oors	-1862
serv	-1863
▁Don	-1864
▁ens	-1865
▁sat	-1866
▁upd	-1867
ading	-1868
▁intr	-1869
▁prep	-1870
▁repl	-1871
▁room	-1872
▁send	-1873
▁side	-1874
▁talk	-1875
▁tell	-1876
▁Other	-1877
▁leave	-1878
igation	-1879
▁attack	-1880
▁brazil	-1881
▁crisis	-1882
▁depend	-1883
▁gardaí	-1884
▁longer	-1885
▁monday	-1886
▁unless	-1887
▁business	-1888
▁controls	-1889
▁director	-1890
▁minister	-1891
▁programm	-1892
▁proteins	-1893
▁surfaces	-1894
▁necessary	-1895
▁published	-1896
▁screening	-1897
.4	-1898
18	-1899
ao	-1900
ho	-1901
ng	-1902
amp	-1903
nel	-1904
▁pe	-1905
ible	-1906
irth	-1907
izer	-1908
ring	-1909
▁san	-1910
▁sol	-1911
▁tre	-1912
known	-1913
▁Wear	-1914
▁cert	-1915
▁fore	-1916
▁left	-1917
▁link	-1918
▁near	-1919
▁prom	-1920
▁zoon	-1921
ention	-1922
▁asked	-1923
▁cells	-1924
▁citiz	-1925
▁hubei	-1926
▁nucle	-1927
▁third	-1928
▁breast	-1929
▁mental	-1930
▁nation	-1931
▁observ	-1932
▁recept	-1933
▁though	-1934
ulations	-1935
isolation	-1936
▁Minister	-1937
▁analysis	-1938
▁coughing	-1939
▁extended	-1940
▁hospitals	-1941
▁mortality	-1942
",	-1943
,8	-1944
20	-1945
ea	-1946
ex	-1947
cul	-1948
dom	-1949
gen	-1950
ims	-1951
oir	-1952
oke	-1953
oly	-1954
oph	-1955
opr	-1956
▁Ad	-1957
aper	-1958
ison	-1959
part	-1960
▁ban	-1961
▁cdc	-1962
▁dry	-1963
▁fut	-1964
▁her	-1965
▁net	-1966
▁pro	-1967
▁try	-1968
alian	-1969
▁That	-1970
▁What	-1971
▁died	-1972
▁germ	-1973
▁rcgp	-1974
▁soap	-1975
▁stat	-1976
uation	-1977
▁began	-1978
▁diarr	-1979
▁polic	-1980
▁stand	-1981
▁tract	-1982
related	-1983
▁critic	-1984
▁invest	-1985
▁taking	-1986
ximately	-1987
▁advised	-1988
▁figures	-1989
▁nursing	-1990
▁started	-1991
▁wearing	-1992
▁activity	-1993
▁citizens	-1994
▁everyone	-1995
▁severity	-1996
▁reservoir	-1997
▁guidelines	-1998
▁asymptomatic	-1999
%)	-2000
43	-2001
ku	-2002
pm	-2003
uf	-2004
▁0	-2005
app	-2006
ble	-2007
dle	-2008
emi	-2009
hea	-2010
ral	-2011
▁31	-2012
-229	-2013
hydr	-2014
ican	-2015
ital	-2016
iver	-2017
lies	-2018
roat	-2019
taur	-2020
utes	-2021
▁Ant	-2022
▁Use	-2023
▁hol	-2024
▁joh	-2025
▁leg	-2026
▁let	-2027
▁mic	-2028
▁mit	-2029
▁mut	-2030
▁ref	-2031
▁six	-2032
▁tur	-2033
asses	-2034
aving	-2035
based	-2036
ences	-2037
▁disp	-2038
▁east	-2039
▁feet	-2040
▁grad	-2041
▁late	-2042
▁life	-2043
▁mess	-2044
▁stop	-2045
idered	-2046
ograph	-2047
▁hotel	-2048
▁older	-2049
▁usual	-2050
▁Health	-2051
▁cities	-2052
▁design	-2053
▁enough	-2054
▁billion	-2055
▁patient	-2056
▁recover	-2057
▁restaur	-2058
▁studies	-2059
▁certific	-2060
▁multiple	-2061
▁pressure	-2062
▁attending	-2063
▁mandatory	-2064
▁considered	-2065
▁increasing	-2066
▁technology	-2067
▁university	-2068
63	-2069
air	-2070
▁Ex	-2071
aced	-2072
ches	-2073
uted	-2074
▁bel	-2075
▁mil	-2076
fizer	-2077
ittle	-2078
ronic	-2079
ublic	-2080
uster	-2081
▁char	-2082
▁cond	-2083
▁term	-2084
aining	-2085
struct	-2086
▁austr	-2087
▁check	-2088
▁disru	-2089
▁drink	-2090
▁heart	-2091
▁homes	-2092
▁refer	-2093
▁satur	-2094
▁sport	-2095
▁taken	-2096
▁toile	-2097
ression	-2098
▁africa	-2099
▁change	-2100
▁future	-2101
▁middle	-2102
▁single	-2103
▁source	-2104
▁strain	-2105
▁throat	-2106
▁america	-2107
▁arrange	-2108
▁cluster	-2109
▁officer	-2110
▁perform	-2111
▁protest	-2112
▁rapidly	-2113
▁species	-2114
▁strateg	-2115
▁working	-2116
lammatory	-2117
▁complete	-2118
▁isolated	-2119
▁practice	-2120
▁zoonotic	-2121
▁diagnosis	-2122
0,	-2123
be	-2124
ca	-2125
io	-2126
pe	-2127
gre	-2128
ols	-2129
sel	-2130
▁em	-2131
abet	-2132
apan	-2133
ider	-2134
imes	-2135
ique	-2136
nect	-2137
omet	-2138
sars	-2139
▁beg	-2140
▁eat	-2141
▁fre	-2142
▁phe	-2143
▁Sars	-2144
▁expl	-2145
▁fall	-2146
▁foot	-2147
▁head	-2148
▁mass	-2149
▁outc	-2150
▁prog	-2151
▁rout	-2152
▁soon	-2153
abetes	-2154
ildren	-2155
iviral	-2156
oplets	-2157
ressed	-2158
▁cloth	-2159
▁drugs	-2160
▁going	-2161
▁johns	-2162
▁media	-2163
▁paper	-2164
▁young	-2165
olution	-2166
▁camels	-2167
▁france	-2168
▁introd	-2169
▁market	-2170
▁office	-2171
▁region	-2172
▁return	-2173
▁allowed	-2174
▁changes	-2175
▁unknown	-2176
▁Children	-2177
▁fatality	-2178
▁virology	-2179
▁administr	-2180
▁childcare	-2181
▁reopening	-2182
▁Coronavirus	-2183
▁governments	-2184
▁approximately	-2185
8,	-2186
gr	-2187
alf	-2188
cer	-2189
cle	-2190
hse	-2191
ime	-2192
ipp	-2193
rom	-2194
upr	-2195
▁Af	-2196
▁No	-2197
▁Un	-2198
akes	-2199
ched	-2200
erts	-2201
ired	-2202
onym	-2203
sequ	-2204
▁Get	-2205
▁cir	-2206
▁eld	-2207
▁hom	-2208
▁nam	-2209
▁pat	-2210
▁vul	-2211
acist	-2212
aoise	-2213
ering	-2214
ision	-2215
ither	-2216
pread	-2217
▁beta	-2218
▁exam	-2219
▁extr	-2220
▁line	-2221
▁succ	-2222
▁swab	-2223
▁teac	-2224
▁tiss	-2225
▁walk	-2226
ension	-2227
▁chain	-2228
▁chief	-2229
▁funct	-2230
▁seven	-2231
▁demand	-2232
▁ensure	-2233
▁living	-2234
▁replic	-2235
▁supply	-2236
▁toilet	-2237
▁vulner	-2238
▁certain	-2239
▁continu	-2240
▁describ	-2241
▁elderly	-2242
▁foreign	-2243
▁highest	-2244
▁minutes	-2245
▁reduced	-2246
▁removed	-2247
▁droplets	-2248
▁efficacy	-2249
▁exercise	-2250
▁included	-2251
▁includes	-2252
▁outbreaks	-2253
▁residents	-2254
coronavirus	-2255
▁assessment	-2256
▁difficulty	-2257
▁experience	-2258
▁pathogenic	-2259
▁containment	-2260
5,	-2261
50	-2262
9,	-2263
▁x	-2264
coh	-2265
iot	-2266
ott	-2267
▁my	-2268
▁ok	-2269
▁ox	-2270
ases	-2271
enty	-2272
lean	-2273
ners	-2274
ware	-2275
ways	-2276
▁201	-2277
▁cla	-2278
▁eng	-2279
▁mus	-2280
▁she	-2281
cohol	-2282
going	-2283
▁card	-2284
▁else	-2285
▁fail	-2286
▁impr	-2287
▁nutr	-2288
▁perm	-2289
▁sund	-2290
▁text	-2291
▁unit	-2292
▁uses	-2293
▁want	-2294
pecies	-2295
rested	-2296
tained	-2297
▁After	-2298
▁Clean	-2299
▁elect	-2300
▁india	-2301
▁japan	-2302
▁quick	-2303
▁Before	-2304
▁Social	-2305
▁choose	-2306
▁determ	-2307
▁discov	-2308
▁little	-2309
▁reason	-2310
▁things	-2311
▁confirm	-2312
▁connect	-2313
▁efforts	-2314
▁ordered	-2315
▁outdoor	-2316
▁parents	-2317
▁success	-2318
▁surface	-2319
▁waiting	-2320
ification	-2321
▁diarrhea	-2322
▁occurred	-2323
▁saturday	-2324
▁supplies	-2325
▁antiviral	-2326
▁medicines	-2327
▁commission	-2328
▁nationwide	-2329
▁certificate	-2330
94	-2331
95	-2332
ael	-2333
ges	-2334
▁40	-2335
▁Av	-2336
▁Pl	-2337
oard	-2338
onch	-2339
oves	-2340
tech	-2341
▁Try	-2342
▁beh	-2343
▁cat	-2344
▁dam	-2345
▁did	-2346
▁exc	-2347
▁fed	-2348
▁nas	-2349
▁via	-2350
aight	-2351
erous	-2352
iforn	-2353
ilies	-2354
ively	-2355
▁Make	-2356
▁Vacc	-2357
▁evac	-2358
▁half	-2359
▁port	-2360
▁sect	-2361
▁seen	-2362
▁sept	-2363
▁type	-2364
▁vers	-2365
▁worr	-2366
▁crown	-2367
▁decre	-2368
▁entry	-2369
▁event	-2370
▁polit	-2371
▁trump	-2372
▁better	-2373
▁bronch	-2374
▁clinic	-2375
▁friday	-2376
▁making	-2377
▁manage	-2378
▁pfizer	-2379
▁recogn	-2380
▁scient	-2381
ometimes	-2382
▁centers	-2383
▁epidemi	-2384
▁italian	-2385
▁leaving	-2386
▁members	-2387
▁passeng	-2388
▁percent	-2389
▁regions	-2390
▁stephen	-2391
hydration	-2392
▁approved	-2393
▁arrested	-2394
▁diabetes	-2395
▁families	-2396
▁findings	-2397
▁november	-2398
▁sequence	-2399
▁straight	-2400
▁generally	-2401
▁workplace	-2402
▁vulnerable	-2403
▁restaurants	-2404
.,	-2405
.8	-2406
65	-2407
ps	-2408
-2.	-2409
inf	-2410
val	-2411
▁At	-2412
▁Cl	-2413
▁ju	-2414
astr	-2415
high	-2416
inal	-2417
load	-2418
most	-2419
uman	-2420
▁4,9	-2421
▁ear	-2422
▁eea	-2423
▁inh	-2424
▁law	-2425
▁rad	-2426
▁run	-2427
▁wed	-2428
acter	-2429
aying	-2430
▁Only	-2431
▁full	-2432
▁king	-2433
▁poly	-2434
▁shut	-2435
▁wide	-2436
encies	-2437
selves	-2438
▁birth	-2439
▁plans	-2440
▁sched	-2441
actions	-2442
iontech	-2443
uprofen	-2444
▁amount	-2445
▁anyone	-2446
▁coming	-2447
▁encour	-2448
▁entire	-2449
▁protoc	-2450
▁recent	-2451
▁regard	-2452
▁reopen	-2453
▁retail	-2454
▁review	-2455
▁tissue	-2456
▁weight	-2457
▁worker	-2458
aoiseach	-2459
▁appropr	-2460
▁initial	-2461
▁kingdom	-2462
▁product	-2463
▁californ	-2464
▁cleaning	-2465
▁receptor	-2466
▁released	-2467
▁resident	-2468
▁training	-2469
▁estimates	-2470
▁recovered	-2471
▁activities	-2472
▁quarantined	-2473
▁particularly	-2474
▁universities	-2475
60	-2476
bs	-2477
cm	-2478
co	-2479
erg	-2480
ier	-2481
lem	-2482
ubs	-2483
who	-2484
ych	-2485
▁(3	-2486
▁60	-2487
▁Co	-2488
▁ib	-2489
acet	-2490
alia	-2491
erna	-2492
erse	-2493
pted	-2494
work	-2495
▁4,8	-2496
▁One	-2497
▁cor	-2498
▁dig	-2499
▁job	-2500
▁sle	-2501
▁ten	-2502
▁yet	-2503
artin	-2504
eding	-2505
epend	-2506
inary	-2507
▁With	-2508
▁easy	-2509
▁grow	-2510
▁read	-2511
▁reli	-2512
▁russ	-2513
▁smok	-2514
acetam	-2515
ession	-2516
▁above	-2517
▁adapt	-2518
▁build	-2519
▁delay	-2520
▁drive	-2521
▁fight	-2522
▁frequ	-2523
▁immun	-2524
▁think	-2525
erstand	-2526
ibility	-2527
▁appear	-2528
▁assist	-2529
▁became	-2530
▁course	-2531
▁covers	-2532
▁except	-2533
▁inters	-2534
▁martin	-2535
▁recomb	-2536
▁remove	-2537
▁unique	-2538
▁vector	-2539
▁visits	-2540
cription	-2541
inations	-2542
▁address	-2543
▁becomes	-2544
▁careful	-2545
▁closing	-2546
▁closure	-2547
▁conduct	-2548
▁discuss	-2549
▁distrib	-2550
▁genetic	-2551
▁germany	-2552
▁johnson	-2553
▁largest	-2554
▁ongoing	-2555
▁problem	-2556
▁quickly	-2557
▁travell	-2558
▁various	-2559
idespread	-2560
▁biontech	-2561
▁consider	-2562
▁contract	-2563
▁handling	-2564
▁internet	-2565
▁involved	-2566
▁physical	-2567
▁prepared	-2568
▁recently	-2569
▁recorded	-2570
▁relative	-2571
▁resulted	-2572
▁teachers	-2573
▁breaching	-2574
▁indicated	-2575
▁isolation	-2576
▁receiving	-2577
▁shortness	-2578
▁facilities	-2579
▁gatherings	-2580
▁recommends	-2581
▁themselves	-2582
▁regulations	-2583
▁ventilation	-2584
.7	-2585
6,	-2586
ai	-2587
eg	-2588
ik	-2589
ane	-2590
com	-2591
err	-2592
ift	-2593
ips	-2594
lor	-2595
lus	-2596
ont	-2597
ony	-2598
▁(2	-2599
▁37	-2600
▁et	-2601
aged	-2602
ford	-2603
gent	-2604
head	-2605
ocus	-2606
oids	-2607
stay	-2608
tern	-2609
umul	-2610
▁Pre	-2611
▁Rem	-2612
▁aid	-2613
▁dom	-2614
▁ins	-2615
▁opt	-2616
▁sal	-2617
▁sex	-2618
ached	-2619
anded	-2620
andid	-2621
andom	-2622
lands	-2623
luded	-2624
nelly	-2625
ories	-2626
▁More	-2627
▁Prot	-2628
▁code	-2629
▁cost	-2630
▁deli	-2631
▁fund	-2632
▁lack	-2633
▁lead	-2634
▁play	-2635
▁surg	-2636
▁wait	-2637
gether	-2638
luding	-2639
osable	-2640
▁Avoid	-2641
▁begin	-2642
▁mater	-2643
▁miche	-2644
▁north	-2645
▁range	-2646
▁serve	-2647
▁spain	-2648
ference	-2649
onymous	-2650
▁Latest	-2651
▁cancer	-2652
▁candid	-2653
▁eating	-2654
▁either	-2655
▁gloves	-2656
▁happen	-2657
▁highly	-2658
▁indoor	-2659
▁needed	-2660
▁notice	-2661
▁proced	-2662
▁shared	-2663
acetamol	-2664
▁alcohol	-2665
▁central	-2666
▁crowded	-2667
▁envelop	-2668
▁failure	-2669
▁flights	-2670
▁industr	-2671
▁moderna	-2672
▁privacy	-2673
▁reports	-2674
▁worried	-2675
▁Although	-2676
▁although	-2677
▁concerns	-2678
▁donnelly	-2679
▁globally	-2680
▁together	-2681
▁condition	-2682
▁currently	-2683
▁described	-2684
▁officials	-2685
▁pangolins	-2686
▁suspended	-2687
▁additional	-2688
▁individual	-2689
▁throughout	-2690
▁treatments	-2691
▁understand	-2692
▁widespread	-2693
▁appropriate	-2694
▁established	-2695
▁medications	-2696
▁transmitted	-2697
▁interspecies	-2698
%.	-2699
.1	-2700
4,	-2701
48	-2702
66	-2703
ee	-2704
ma	-2705
nl	-2706
rs	-2707
sh	-2708
bor	-2709
eal	-2710
nes	-2711
rna	-2712
ros	-2713
▁48	-2714
▁ge	-2715
▁lo	-2716
▁ra	-2717
▁rt	-2718
ands	-2719
heck	-2720
icip	-2721
igen	-2722
ones	-2723
urch	-2724
vent	-2725
▁Any	-2726
▁Not	-2727
▁ace	-2728
▁pcr	-2729
▁pil	-2730
▁suf	-2731
▁thr	-2732
▁vis	-2733
▁vol	-2734
acity	-2735
arily	-2736
cular	-2737
erate	-2738
irect	-2739
ledge	-2740
stant	-2741
table	-2742
▁From	-2743
▁Thus	-2744
▁bord	-2745
▁came	-2746
▁gets	-2747
▁kill	-2748
▁peak	-2749
▁poll	-2750
▁prof	-2751
▁real	-2752
▁thus	-2753
atures	-2754
everal	-2755
istics	-2756
undred	-2757
▁2019,	-2758
▁2021,	-2759
▁Every	-2760
▁Visit	-2761
▁basis	-2762
▁canad	-2763
▁clear	-2764
▁codes	-2765
▁focus	-2766
▁fully	-2767
▁minim	-2768
▁quest	-2769
▁spend	-2770
▁stage	-2771
▁thous	-2772
isation	-2773
ubation	-2774
▁active	-2775
▁commit	-2776
▁latest	-2777
▁preval	-2778
▁resour	-2779
▁Several	-2780
▁adapted	-2781
▁chronic	-2782
▁federal	-2783
▁instead	-2784
▁isolate	-2785
▁private	-2786
▁release	-2787
▁staying	-2788
▁Restrict	-2789
▁material	-2790
▁observed	-2791
▁republic	-2792
▁visitors	-2793
▁anonymous	-2794
▁collected	-2795
▁establish	-2796
▁reporting	-2797
▁september	-2798
▁situation	-2799
▁temporary	-2800
▁developing	-2801
▁introduced	-2802
▁mitigation	-2803
▁passengers	-2804
inflammatory	-2805
07	-2806
37	-2807
68	-2808
ax	-2809
sw	-2810
hku	-2811
ibr	-2812
iol	-2813
lev	-2814
nds	-2815
ocy	-2816
omp	-2817
pha	-2818
ule	-2819
ume	-2820
vir	-2821
▁38	-2822
▁Go	-2823
▁Ph	-2824
▁Us	-2825
▁ce	-2826
▁ic	-2827
pite	-2828
pper	-2829
ured	-2830
▁amp	-2831
▁mat	-2832
▁mor	-2833
acing	-2834
astic	-2835
ctors	-2836
erest	-2837
ients	-2838
iring	-2839
ivity	-2840
otide	-2841
viron	-2842
ximum	-2843
▁2021	-2844
▁Comm	-2845
▁acid	-2846
▁cult	-2847
▁dang	-2848
▁hard	-2849
▁item	-2850
▁july	-2851
▁rest	-2852
▁role	-2853
▁stre	-2854
▁ways	-2855
iotics	-2856
▁apart	-2857
▁chall	-2858
▁cumul	-2859
▁evacu	-2860
▁exist	-2861
▁extra	-2862
▁smell	-2863
▁smoke	-2864
▁types	-2865
▁upper	-2866
▁almost	-2867
▁plenty	-2868
▁policy	-2869
▁rather	-2870
▁stages	-2871
▁widely	-2872
▁Protect	-2873
▁claimed	-2874
▁digital	-2875
▁environ	-2876
▁happens	-2877
▁imposed	-2878
▁indoors	-2879
▁markets	-2880
▁message	-2881
▁methods	-2882
▁reached	-2883
▁showing	-2884
▁subject	-2885
▁therapy	-2886
▁capacity	-2887
▁delivery	-2888
▁directly	-2889
▁features	-2890
▁followed	-2891
▁homology	-2892
▁immunity	-2893
▁location	-2894
▁pangolin	-2895
▁progress	-2896
▁evolution	-2897
▁suggested	-2898
▁businesses	-2899
▁collection	-2900
▁cumulative	-2901
▁disruption	-2902
▁medication	-2903
▁monitoring	-2904
▁particular	-2905
▁procedures	-2906
▁travellers	-2907
▁dehydration	-2908
▁educational	-2909
▁implemented	-2910
▁institutions	-2911
36	-2912
47	-2913
5%	-2914
58	-2915
mb	-2916
ny	-2917
aps	-2918
den	-2919
ium	-2920
ius	-2921
lam	-2922
mph	-2923
ole	-2924
oll	-2925
omy	-2926
▁70	-2927
▁De	-2928
▁Dr	-2929
▁Me	-2930
ideo	-2931
ieve	-2932
ooth	-2933
▁Med	-2934
▁Out	-2935
▁abs	-2936
▁bal	-2937
▁buy	-2938
▁fit	-2939
▁haz	-2940
▁ids	-2941
▁lat	-2942
▁led	-2943
▁tar	-2944
arity	-2945
grees	-2946
ining	-2947
opped	-2948
ucing	-2949
ufact	-2950
▁Data	-2951
▁Face	-2952
▁Take	-2953
▁brit	-2954
▁carr	-2955
▁cive	-2956
▁fast	-2957
▁mamm	-2958
▁miss	-2959
▁name	-2960
▁told	-2961
▁york	-2962
istent	-2963
mption	-2964
nesday	-2965
pected	-2966
▁Antib	-2967
▁Where	-2968
▁count	-2969
▁guide	-2970
▁helps	-2971
▁irish	-2972
▁named	-2973
▁preca	-2974
▁shops	-2975
▁shown	-2976
▁steps	-2977
▁table	-2978
▁union	-2979
inistry	-2980
isolate	-2981
istered	-2982
iveness	-2983
ockdown	-2984
▁Infect	-2985
▁School	-2986
▁coding	-2987
▁compar	-2988
▁phased	-2989
▁random	-2990
▁secret	-2991
▁weekly	-2992
▁100,000	-2993
▁Symptom	-2994
▁african	-2995
▁causing	-2996
▁degrees	-2997
▁doctors	-2998
▁improve	-2999
▁maximum	-3000
▁nations	-3001
▁request	-3002
▁respect	-3003
▁respond	-3004
▁subsequ	-3005
▁towards	-3006
▁estimate	-3007
▁learners	-3008
▁maintain	-3009
▁ministry	-3010
▁outcomes	-3011
▁reliable	-3012
▁touching	-3013
▁australia	-3014
▁continued	-3015
▁diagnosed	-3016
▁gradually	-3017
▁institute	-3018
▁knowledge	-3019
▁programme	-3020
▁questions	-3021
▁regularly	-3022
▁thousands	-3023
▁discovered	-3024
▁pharmacist	-3025
▁programmes	-3026
▁successful	-3027
▁combination	-3028
▁restricting	-3029
▁effectiveness	-3030
10	-3031
14	-3032
25	-3033
57	-3034
6%	-3035
ey	-3036
rt	-3037
-2,	-3038
ept	-3039
fig	-3040
gal	-3041
ipl	-3042
let	-3043
lex	-3044
nal	-3045
ses	-3046
tee	-3047
▁Ne	-3048
▁Re	-3049
▁ca	-3050
▁ii	-3051
▁il	-3052
-19)	-3053
alls	-3054
dict	-3055
eria	-3056
ival	-3057
luet	-3058
omed	-3059
pect	-3060
rist	-3061
time	-3062
tric	-3063
uise	-3064
ules	-3065
year	-3066
ygen	-3067
▁Due	-3068
▁Our	-3069
▁Sim	-3070
▁aer	-3071
▁bed	-3072
▁cyt	-3073
▁eye	-3074
▁orf	-3075
▁val	-3076
▁ven	-3077
anged	-3078
aries	-3079
gious	-3080
ieved	-3081
indow	-3082
logen	-3083
oving	-3084
sense	-3085
tings	-3086
urity	-3087
▁Pati	-3088
▁Talk	-3089
▁bind	-3090
▁here	-3091
▁lost	-3092
▁mean	-3093
▁next	-3094
▁okay	-3095
▁radi	-3096
▁road	-3097
▁ship	-3098
▁soci	-3099
▁wall	-3100
ending	-3101
itions	-3102
quired	-3103
weight	-3104
▁Based	-3105
▁accur	-3106
▁along	-3107
▁alpha	-3108
▁break	-3109
▁calls	-3110
▁cardi	-3111
▁conte	-3112
▁cross	-3113
▁earli	-3114
▁fewer	-3115
▁light	-3116
▁lungs	-3117
▁postp	-3118
▁regis	-3119
▁sites	-3120
alities	-3121
umption	-3122
▁Gardaí	-3123
▁accept	-3124
▁constr	-3125
▁domest	-3126
▁fluids	-3127
▁issues	-3128
▁mainly	-3129
▁nearly	-3130
▁saying	-3131
▁select	-3132
▁strong	-3133
▁unable	-3134
ependent	-3135
luetooth	-3136
▁classes	-3137
▁closely	-3138
▁college	-3139
▁created	-3140
▁hundred	-3141
▁origins	-3142
▁planned	-3143
▁produce	-3144
▁signals	-3145
▁sitting	-3146
▁student	-3147
including	-3148
▁Symptoms	-3149
▁Vaccines	-3150
▁agencies	-3151
▁anything	-3152
▁building	-3153
▁communic	-3154
▁contrast	-3155
▁employer	-3156
▁facility	-3157
▁function	-3158
▁instruct	-3159
▁majority	-3160
▁manufact	-3161
▁mutation	-3162
▁outdoors	-3163
▁provides	-3164
▁province	-3165
▁starting	-3166
▁transmit	-3167
▁authority	-3168
▁exercises	-3169
▁expressed	-3170
▁initially	-3171
▁locations	-3172
▁requiring	-3173
▁resources	-3174
▁transmiss	-3175
▁typically	-3176
▁wednesday	-3177
▁california	-3178
▁difference	-3179
▁disposable	-3180
▁nucleotide	-3181
▁scientific	-3182
▁strategies	-3183
▁environment	-3184
▁potentially	-3185
▁disinfectant	-3186
▁hospitalized	-3187
▁preparedness	-3188
▁Coronaviruses	-3189
▁complications	-3190
▁recombination	-3191
▁administration	-3192
'.	-3193
.0	-3194
16	-3195
17	-3196
27	-3197
53	-3198
92	-3199
aw	-3200
ox	-3201
sp	-3202
cdc	-3203
ken	-3204
lim	-3205
man	-3206
urp	-3207
▁Le	-3208
▁Of	-3209
▁bi	-3210
▁pa	-3211
▁ps	-3212
▁sk	-3213
▁wr	-3214
ache	-3215
ades	-3216
ames	-3217
ball	-3218
esco	-3219
ield	-3220
iend	-3221
ilit	-3222
inks	-3223
oned	-3224
ored	-3225
oval	-3226
prom	-3227
reng	-3228
▁4,7	-3229
▁Spe	-3230
▁Who	-3231
▁bin	-3232
▁dev	-3233
▁dur	-3234
▁hit	-3235
▁pan	-3236
▁pay	-3237
▁why	-3238
aster	-3239
borne	-3240
chers	-3241
erick	-3242
eries	-3243
ester	-3244
human	-3245
iplom	-3246
light	-3247
onstr	-3248
ophob	-3249
ument	-3250
▁Priv	-3251
▁arab	-3252
▁bott	-3253
▁camp	-3254
▁circ	-3255
▁clot	-3256
▁cook	-3257
▁deal	-3258
▁exce	-3259
▁jobs	-3260
▁kong	-3261
▁laun	-3262
▁look	-3263
▁pack	-3264
▁pers	-3265
▁pubs	-3266
▁repr	-3267
▁seek	-3268
▁took	-3269
▁tour	-3270
▁user	-3271
formed	-3272
ionate	-3273
merase	-3274
▁Cough	-3275
▁Short	-3276
▁Since	-3277
▁Using	-3278
▁ahead	-3279
▁aware	-3280
▁basic	-3281
▁clust	-3282
▁coord	-3283
▁diver	-3284
▁items	-3285
▁lives	-3286
▁night	-3287
▁prime	-3288
▁psych	-3289
▁scale	-3290
▁spike	-3291
▁terms	-3292
▁video	-3293
▁worry	-3294
idarity	-3295
ization	-3296
▁Travel	-3297
▁agency	-3298
▁always	-3299
▁christ	-3300
▁compan	-3301
▁contam	-3302
▁cruise	-3303
▁decide	-3304
▁inside	-3305
▁linked	-3306
▁orders	-3307
▁oxygen	-3308
▁russia	-3309
▁sneeze	-3310
▁specim	-3311
▁streng	-3312
▁warned	-3313
▁window	-3314
acquired	-3315
ibraries	-3316
lockdown	-3317
▁ability	-3318
▁comfort	-3319
▁explain	-3320
▁exposed	-3321
▁routine	-3322
▁sharing	-3323
▁smoking	-3324
▁strains	-3325
▁sundays	-3326
▁version	-3327
logenetic	-3328
▁Everyone	-3329
▁Patients	-3330
▁antibody	-3331
▁avoiding	-3332
▁challeng	-3333
▁compared	-3334
▁demonstr	-3335
▁identify	-3336
▁impacted	-3337
▁investig	-3338
▁products	-3339
▁reaction	-3340
▁recovery	-3341
▁serology	-3342
▁settings	-3343
▁surgical	-3344
▁affecting	-3345
▁committee	-3346
▁conducted	-3347
▁contacted	-3348
▁experienc	-3349
▁incidence	-3350
▁lockdowns	-3351
▁performed	-3352
▁returning	-3353
▁statement	-3354
▁frequently	-3355
▁relatively	-3356
▁statistics	-3357
▁communities	-3358
▁quarantines	-3359
12	-3360
bd	-3361
oy	-3362
tt	-3363
▁.	-3364
-2-	-3365
500	-3366
agh	-3367
ask	-3368
cil	-3369
des	-3370
elf	-3371
eut	-3372
ger	-3373
pcr	-3374
pre	-3375
ton	-3376
▁33	-3377
▁43	-3378
▁Am	-3379
▁Ir	-3380
▁ct	-3381
▁eg	-3382
▁ut	-3383
▁zh	-3384
avir	-3385
bour	-3386
chan	-3387
door	-3388
ened	-3389
ergy	-3390
iers	-3391
miss	-3392
ohan	-3393
oles	-3394
ores	-3395
pass	-3396
reed	-3397
reme	-3398
stit	-3399
then	-3400
umst	-3401
used	-3402
vers	-3403
▁80%	-3404
▁aff	-3405
▁bag	-3406
▁fil	-3407
▁hyp	-3408
▁icu	-3409
▁key	-3410
▁mal	-3411
▁pow	-3412
▁sum	-3413
▁une	-3414
▁wet	-3415
▁wip	-3416
▁xen	-3417
ables	-3418
agues	-3419
ching	-3420
fered	-3421
force	-3422
inate	-3423
istan	-3424
istic	-3425
itary	-3426
ivals	-3427
otein	-3428
tempt	-3429
where	-3430
▁9.30	-3431
▁Part	-3432
▁Pres	-3433
▁Test	-3434
▁Work	-3435
▁attr	-3436
▁book	-3437
▁cels	-3438
▁cork	-3439
▁jour	-3440
▁kind	-3441
▁kits	-3442
▁mrna	-3443
▁park	-3444
▁patr	-3445
▁plat	-3446
▁rati	-3447
▁sche	-3448
▁seat	-3449
▁tend	-3450
▁terr	-3451
▁tony	-3452
▁trad	-3453
▁vary	-3454
▁whom	-3455
icians	-3456
igious	-3457
urrent	-3458
▁Exerc	-3459
▁Stand	-3460
▁carry	-3461
▁cytok	-3462
▁gastr	-3463
▁index	-3464
▁latin	-3465
▁manag	-3466
▁meals	-3467
▁membr	-3468
▁nasal	-3469
▁point	-3470
▁shows	-3471
▁sleep	-3472
▁throw	-3473
▁today	-3474
▁twice	-3475
▁units	-3476
▁users	-3477
itional	-3478
ophobia	-3479
▁Contin	-3480
▁chance	-3481
▁damage	-3482
▁hazard	-3483
▁letter	-3484
▁mother	-3485
▁muscle	-3486
▁pollen	-3487
▁prelim	-3488
▁prepar	-3489
▁prison	-3490
▁relief	-3491
▁signed	-3492
▁target	-3493
▁threat	-3494
▁trends	-3495
▁update	-3496
promised	-3497
▁Outdoor	-3498
▁antigen	-3499
▁attempt	-3500
▁celsius	-3501
▁consult	-3502
▁facilit	-3503
▁follows	-3504
▁holohan	-3505
▁imaging	-3506
▁iranian	-3507
▁mammals	-3508
▁missing	-3509
▁parties	-3510
▁thought	-3511
▁treated	-3512
▁accurate	-3513
▁approach	-3514
▁circumst	-3515
▁clusters	-3516
▁contains	-3517
▁cultural	-3518
▁distress	-3519
▁domestic	-3520
▁envelope	-3521
▁excluded	-3522
▁expected	-3523
▁industry	-3524
▁launched	-3525
▁mainland	-3526
▁military	-3527
▁pharmacy	-3528
▁platform	-3529
▁problems	-3530
▁provider	-3531
▁shortage	-3532
▁sporting	-3533
▁Shortness	-3534
▁bluetooth	-3535
▁character	-3536
▁companies	-3537
▁determine	-3538
▁gathering	-3539
▁ibuprofen	-3540
▁nutrients	-3541
▁postponed	-3542
▁reference	-3543
▁regarding	-3544
▁shortages	-3545
▁sometimes	-3546
▁therapeut	-3547
▁assistance	-3548
▁bronchitis	-3549
▁candidates	-3550
▁completely	-3551
▁contagious	-3552
▁criticised	-3553
▁disability	-3554
▁indicating	-3555
▁management	-3556
▁polymerase	-3557
▁prevalence	-3558
▁strengthen	-3559
▁workplaces	-3560
▁preliminary	-3561
▁residential	-3562
▁restriction	-3563
▁symptomatic	-3564
▁cancellation	-3565
▁instructions	-3566
▁organizations	-3567
30	-3568
45	-3569
74	-3570
91	-3571
by	-3572
da	-3573
hs	-3574
yn	-3575
▁q	-3576
.4%	-3577
100	-3578
aiw	-3579
cre	-3580
ese	-3581
lia	-3582
mon	-3583
oad	-3584
oqu	-3585
orp	-3586
pac	-3587
upp	-3588
xic	-3589
▁39	-3590
▁99	-3591
▁Im	-3592
▁Or	-3593
▁km	-3594
▁ly	-3595
aste	-3596
atal	-3597
hens	-3598
hern	-3599
ocyt	-3600
osol	-3601
over	-3602
urse	-3603
uter	-3604
wise	-3605
▁Com	-3606
▁Dis	-3607
▁Ind	-3608
▁art	-3609
▁bar	-3610
▁bow	-3611
▁bul	-3612
▁bur	-3613
▁cop	-3614
▁dir	-3615
▁dys	-3616
▁fav	-3617
▁fin	-3618
▁hay	-3619
▁hku	-3620
▁lot	-3621
▁men	-3622
▁rbd	-3623
▁sad	-3624
▁tcm	-3625
aches	-3626
afood	-3627
aiwan	-3628
ength	-3629
iated	-3630
icans	-3631
lease	-3632
ormed	-3633
phone	-3634
ports	-3635
▁Find	-3636
▁Over	-3637
▁amin	-3638
▁ampl	-3639
▁bene	-3640
▁drop	-3641
▁harm	-3642
▁hong	-3643
▁hour	-3644
▁loss	-3645
▁midw	-3646
▁nort	-3647
▁once	-3648
▁rang	-3649
▁rise	-3650
▁scan	-3651
▁size	-3652
▁tele	-3653
▁toll	-3654
▁true	-3655
▁west	-3656
▁wild	-3657
esides	-3658
ifying	-3659
loroqu	-3660
▁2021.	-3661
▁South	-3662
▁Trans	-3663
▁Viral	-3664
▁admin	-3665
▁alarm	-3666
▁apply	-3667
▁asian	-3668
▁below	-3669
▁chair	-3670
▁doors	-3671
▁front	-3672
▁inhib	-3673
▁liver	-3674
▁makes	-3675
▁party	-3676
▁ratio	-3677
▁stock	-3678
▁store	-3679
▁works	-3680
▁worst	-3681
▁youth	-3682
fective	-3683
feeding	-3684
general	-3685
itories	-3686
omedary	-3687
omiting	-3688
▁annual	-3689
▁attrib	-3690
▁border	-3691
▁calcul	-3692
▁choice	-3693
▁circul	-3694
▁counts	-3695
▁create	-3696
▁expert	-3697
▁extent	-3698
▁growth	-3699
▁mechan	-3700
▁member	-3701
▁mostly	-3702
▁nether	-3703
▁passed	-3704
▁placed	-3705
▁police	-3706
▁proper	-3707
▁repres	-3708
▁reprod	-3709
▁respir	-3710
▁screen	-3711
▁series	-3712
▁unesco	-3713
▁upload	-3714
arantine	-3715
ographic	-3716
piratory	-3717
ventions	-3718
▁Healthy	-3719
▁Privacy	-3720
▁affects	-3721
▁changed	-3722
▁complex	-3723
▁economy	-3724
▁enforce	-3725
▁england	-3726
▁experts	-3727
▁funeral	-3728
▁glasses	-3729
▁hosting	-3730
▁network	-3731
▁overall	-3732
▁predict	-3733
▁project	-3734
▁reading	-3735
▁regular	-3736
▁seafood	-3737
▁seconds	-3738
▁sectors	-3739
▁sources	-3740
▁tracing	-3741
▁updated	-3742
▁variety	-3743
assionate	-3744
loroquine	-3745
▁Addition	-3746
▁Speaking	-3747
▁allowing	-3748
▁approval	-3749
▁believed	-3750
▁compound	-3751
▁covering	-3752
▁duration	-3753
▁entering	-3754
▁informed	-3755
▁interest	-3756
▁limiting	-3757
▁membrane	-3758
▁moderate	-3759
▁movement	-3760
▁numerous	-3761
▁particip	-3762
▁possibly	-3763
▁presence	-3764
▁probably	-3765
▁returned	-3766
▁sampling	-3767
▁standard	-3768
▁unemploy	-3769
▁Exercises	-3770
▁Taoiseach	-3771
▁admission	-3772
▁dromedary	-3773
▁permitted	-3774
▁presented	-3775
▁protocols	-3776
▁providers	-3777
▁providing	-3778
▁religious	-3779
▁remaining	-3780
▁resulting	-3781
▁secretary	-3782
▁something	-3783
▁colleagues	-3784
▁collecting	-3785
▁comparison	-3786
▁incubation	-3787
▁officially	-3788
▁overweight	-3789
▁production	-3790
▁profession	-3791
▁solidarity	-3792
▁xenophobia	-3793
▁Antibiotics	-3794
▁attractions	-3795
▁netherlands	-3796
▁replication	-3797
▁administered	-3798
▁appointments	-3799
▁construction	-3800
▁demonstrated	-3801
▁distribution	-3802
▁implications	-3803
▁prescription	-3804
▁circumstances	-3805
▁interventions	-3806
▁investigation	-3807
▁transportation	-3808
▁recommendations	-3809
15	-3810
39	-3811
64	-3812
69	-3813
70	-3814
84	-3815
ah	-3816
ra	-3817
43,	-3818
ald	-3819
amb	-3820
arp	-3821
ban	-3822
bid	-3823
cop	-3824
cto	-3825
ees	-3826
ney	-3827
ric	-3828
ude	-3829
udi	-3830
ums	-3831
▁(5	-3832
▁7,	-3833
▁80	-3834
▁Up	-3835
▁fa	-3836
▁hu	-3837
▁sn	-3838
▁ul	-3839
ague	-3840
aled	-3841
anta	-3842
ding	-3843
gans	-3844
greg	-3845
idge	-3846
onal	-3847
rect	-3848
ters	-3849
uled	-3850
unct	-3851
▁1,0	-3852
▁120	-3853
▁Des	-3854
▁Why	-3855
▁anx	-3856
▁den	-3857
▁fif	-3858
▁har	-3859
▁hop	-3860
▁kit	-3861
▁pen	-3862
▁pet	-3863
▁ppe	-3864
▁rat	-3865
▁rib	-3866
▁syn	-3867
alway	-3868
apore	-3869
board	-3870
eline	-3871
erary	-3872
ifest	-3873
inces	-3874
irmed	-3875
ostic	-3876
ulate	-3877
▁Even	-3878
▁Iran	-3879
▁Sign	-3880
▁Tell	-3881
▁answ	-3882
▁aver	-3883
▁bans	-3884
▁barr	-3885
▁dead	-3886
▁eval	-3887
▁fest	-3888
▁hung	-3889
▁mich	-3890
▁phil	-3891
▁pool	-3892
▁puts	-3893
▁sore	-3894
▁ster	-3895
▁swit	-3896
▁task	-3897
▁tick	-3898
▁viol	-3899
▁webs	-3900
▁worn	-3901
ancial	-3902
ctober	-3903
ground	-3904
inical	-3905
ucture	-3906
useums	-3907
▁Among	-3908
▁Check	-3909
▁Pract	-3910
▁While	-3911
▁advis	-3912
▁alpac	-3913
▁aside	-3914
▁brand	-3915
▁broad	-3916
▁class	-3917
▁colds	-3918
▁force	-3919
▁image	-3920
▁joint	-3921
▁lymph	-3922
▁mitig	-3923
▁model	-3924
▁never	-3925
▁noted	-3926
▁nurse	-3927
▁occup	-3928
▁panic	-3929
▁parts	-3930
▁plane	-3931
▁progn	-3932
▁purch	-3933
▁stret	-3934
▁swabs	-3935
▁taste	-3936
▁urine	-3937
▁volun	-3938
▁whole	-3939
ascular	-3940
chinese	-3941
erating	-3942
liament	-3943
ocument	-3944
tration	-3945
▁During	-3946
▁agreed	-3947
▁applic	-3948
▁arabia	-3949
▁behind	-3950
▁caring	-3951
▁civets	-3952
▁compon	-3953
▁danger	-3954
▁delays	-3955
▁diplom	-3956
▁disapp	-3957
▁easing	-3958
▁energy	-3959
▁factor	-3960
▁faster	-3961
▁friend	-3962
▁object	-3963
▁occurs	-3964
▁opened	-3965
▁opport	-3966
▁organs	-3967
▁phones	-3968
▁rights	-3969
▁slowly	-3970
▁sports	-3971
▁status	-3972
▁stores	-3973
▁stress	-3974
▁sunday	-3975
▁venues	-3976
▁Current	-3977
▁actions	-3978
▁advance	-3979
▁aerosol	-3980
▁average	-3981
▁balance	-3982
▁council	-3983
▁extreme	-3984
▁feeling	-3985
▁funding	-3986
▁genomes	-3987
▁infants	-3988
▁leading	-3989
▁measure	-3990
▁mission	-3991
▁offered	-3992
▁options	-3993
▁outcome	-3994
▁partner	-3995
▁patrick	-3996
▁quality	-3997
▁society	-3998
▁spreads	-3999
▁surpass	-4000
▁talking	-4001
▁whereas	-4002
abilities	-4003
▁american	-4004
▁arriving	-4005
▁coverage	-4006
▁decision	-4007
▁manifest	-4008
▁medicine	-4009
▁northern	-4010
▁policies	-4011
▁probable	-4012
▁prompted	-4013
▁protocol	-4014
▁regional	-4015
▁severely	-4016
▁strategy	-4017
▁visiting	-4018
▁vomiting	-4019
quarantine	-4020
▁Sometimes	-4021
▁depending	-4022
▁emergence	-4023
▁employees	-4024
▁extension	-4025
▁financial	-4026
▁functions	-4027
▁particles	-4028
▁platforms	-4029
▁provinces	-4030
▁represent	-4031
▁standards	-4032
▁taoiseach	-4033
▁therefore	-4034
▁adaptation	-4035
▁attributed	-4036
▁cancelling	-4037
▁connection	-4038
▁operations	-4039
▁parliament	-4040
▁restricted	-4041
▁suggesting	-4042
▁association	-4043
▁interaction	-4044
▁paracetamol	-4045
▁possibility	-4046
▁territories	-4047
▁Additionally	-4048
▁confirmation	-4049
▁difficulties	-4050
▁respectively	-4051
▁unemployment	-4052
▁breastfeeding	-4053
▁compassionate	-4054
▁epidemiological	-4055
..	-4056
21	-4057
32	-4058
35	-4059
38	-4060
4)	-4061
40	-4062
75	-4063
99	-4064
ae	-4065
fr	-4066
nn	-4067
ws	-4068
%),	-4069
300	-4070
adv	-4071
cal	-4072
equ	-4073
hic	-4074
ley	-4075
nge	-4076
ola	-4077
ons	-4078
ppe	-4079
rol	-4080
ury	-4081
▁34	-4082
▁45	-4083
▁6,	-4084
▁85	-4085
▁Ab	-4086
▁Di	-4087
▁Se	-4088
▁Sm	-4089
▁nb	-4090
▁oc	-4091
abor	-4092
coun	-4093
emas	-4094
emed	-4095
etal	-4096
face	-4097
iary	-4098
irds	-4099
ivir	-4100
kins	-4101
lete	-4102
lock	-4103
ming	-4104
more	-4105
norm	-4106
ocks	-4107
ogle	-4108
spec	-4109
thal	-4110
▁112	-4111
▁300	-4112
▁90%	-4113
▁95%	-4114
▁Air	-4115
▁Eat	-4116
▁Par	-4117
▁Sec	-4118
▁ang	-4119
▁caf	-4120
▁die	-4121
▁exh	-4122
▁fda	-4123
▁gas	-4124
▁gly	-4125
▁iii	-4126
▁lic	-4127
▁lun	-4128
▁mar	-4129
▁mis	-4130
▁mun	-4131
▁nor	-4132
asive	-4133
being	-4134
birth	-4135
edros	-4136
igare	-4137
itize	-4138
izing	-4139
mical	-4140
ngeal	-4141
sible	-4142
taken	-4143
worth	-4144
▁Have	-4145
▁Like	-4146
▁Mers	-4147
▁Self	-4148
▁aims	-4149
▁apps	-4150
▁clar	-4151
▁fine	-4152
▁heav	-4153
▁held	-4154
▁hubs	-4155
▁meal	-4156
▁milk	-4157
▁mole	-4158
▁past	-4159
▁ratg	-4160
▁sell	-4161
▁sens	-4162
▁sold	-4163
▁surv	-4164
▁turn	-4165
▁upon	-4166
▁virt	-4167
▁warm	-4168
▁wave	-4169
▁weak	-4170
▁went	-4171
▁wors	-4172
▁zeal	-4173
atives	-4174
elling	-4175
iently	-4176
isions	-4177
itizer	-4178
onatal	-4179
ophary	-4180
ovirus	-4181
rehens	-4182
rences	-4183
school	-4184
ursday	-4185
▁Drink	-4186
▁First	-4187
▁Those	-4188
▁Track	-4189
▁Virus	-4190
▁catch	-4191
▁chart	-4192
▁confe	-4193
▁curfe	-4194
▁delta	-4195
▁dirty	-4196
▁encod	-4197
▁fluid	-4198
▁garda	-4199
▁newly	-4200
▁pilgr	-4201
▁relax	-4202
▁route	-4203
▁runny	-4204
▁sharp	-4205
▁theat	-4206
▁towel	-4207
▁trade	-4208
archers	-4209
estinal	-4210
ficient	-4211
itation	-4212
ography	-4213
ologies	-4214
porting	-4215
ulatory	-4216
▁Eating	-4217
▁accomp	-4218
▁action	-4219
▁advise	-4220
▁altern	-4221
▁appeal	-4222
▁banned	-4223
▁campus	-4224
▁crowds	-4225
▁donald	-4226
▁former	-4227
▁google	-4228
▁ground	-4229
▁handle	-4230
▁indian	-4231
▁median	-4232
▁moving	-4233
▁nature	-4234
▁parent	-4235
▁portal	-4236
▁racist	-4237
▁remark	-4238
▁safely	-4239
▁scheme	-4240
▁spaces	-4241
▁superm	-4242
▁traced	-4243
▁unions	-4244
▁wholes	-4245
atically	-4246
ineering	-4247
isolated	-4248
▁Besides	-4249
▁Despite	-4250
▁adverse	-4251
▁arrived	-4252
▁bottles	-4253
▁british	-4254
▁calling	-4255
▁chances	-4256
▁comment	-4257
▁contrib	-4258
▁delayed	-4259
▁genomic	-4260
▁holiday	-4261
▁journal	-4262
▁meeting	-4263
▁michael	-4264
▁morning	-4265
▁municip	-4266
▁october	-4267
▁philipp	-4268
▁plastic	-4269
▁reflect	-4270
▁remains	-4271
▁reverse	-4272
▁stopped	-4273
▁suscept	-4274
▁website	-4275
▁younger	-4276
▁zealand	-4277
formation	-4278
ocumented	-4279
▁Continue	-4280
▁arranged	-4281
▁colleges	-4282
▁concerts	-4283
▁cytokine	-4284
▁defences	-4285
▁designed	-4286
▁existing	-4287
▁geograph	-4288
▁headache	-4289
▁instance	-4290
▁limerick	-4291
▁produced	-4292
▁proposed	-4293
▁schedule	-4294
▁security	-4295
▁separate	-4296
▁steroids	-4297
▁thursday	-4298
▁whenever	-4299
▁Therefore	-4300
▁beginning	-4301
▁carefully	-4302
▁decreased	-4303
▁evacuated	-4304
▁identical	-4305
▁increases	-4306
▁involving	-4307
▁libraries	-4308
▁political	-4309
▁preparing	-4310
▁responses	-4311
▁sanitizer	-4312
▁solutions	-4313
▁telephone	-4314
▁traveling	-4315
opharyngeal	-4316
▁consistent	-4317
▁criticized	-4318
▁facilitate	-4319
▁precaution	-4320
▁preventing	-4321
▁protecting	-4322
▁washington	-4323
acoronavirus	-4324
▁Paracetamol	-4325
▁Respiratory	-4326
▁application	-4327
▁researchers	-4328
▁serological	-4329
▁temporarily	-4330
▁therapeutic	-4331
▁traditional	-4332
▁contaminated	-4333
▁examinations	-4334
▁geographical	-4335
▁inflammatory	-4336
▁notification	-4337
▁occupational	-4338
▁quarantining	-4339
▁registration	-4340
▁subsequently	-4341
▁participating	-4342
▁significantly	-4343
▁transcription	-4344
%,	-4345
);	-4346
.9	-4347
4.	-4348
61	-4349
80	-4350
90	-4351
cl	-4352
ds	-4353
ni	-4354
%).	-4355
600	-4356
eat	-4357
ema	-4358
gov	-4359
hin	-4360
isl	-4361
key	-4362
nea	-4363
orr	-4364
phe	-4365
pir	-4366
ple	-4367
ram	-4368
rox	-4369
sec	-4370
sue	-4371
ued	-4372
uff	-4373
ugg	-4374
uit	-4375
ula	-4376
ups	-4377
uty	-4378
wor	-4379
zym	-4380
▁(1	-4381
▁(6	-4382
▁(7	-4383
▁1.	-4384
▁35	-4385
▁42	-4386
▁47	-4387
▁65	-4388
▁Ar	-4389
▁En	-4390
▁Te	-4391
▁hy	-4392
▁ig	-4393
▁wm	-4394
abin	-4395
alse	-4396
anan	-4397
ares	-4398
asma	-4399
case	-4400
char	-4401
comm	-4402
crim	-4403
eded	-4404
efin	-4405
iety	-4406
iste	-4407
just	-4408
mers	-4409
nder	-4410
ohib	-4411
olit	-4412
oose	-4413
oted	-4414
ovel	-4415
plan	-4416
pnea	-4417
rael	-4418
thma	-4419
trol	-4420
ttps	-4421
uces	-4422
utum	-4423
vacc	-4424
wash	-4425
▁14,	-4426
▁14-	-4427
▁500	-4428
▁Are	-4429
▁Car	-4430
▁Gen	-4431
▁Imm	-4432
▁Let	-4433
▁Now	-4434
▁Phy	-4435
▁Put	-4436
▁Rep	-4437
▁Str	-4438
▁ach	-4439
▁amb	-4440
▁anc	-4441
▁aug	-4442
▁big	-4443
▁doz	-4444
▁enh	-4445
▁eth	-4446
▁gps	-4447
▁gre	-4448
▁inj	-4449
▁log	-4450
▁mac	-4451
▁mad	-4452
▁mom	-4453
▁nig	-4454
▁phy	-4455
▁pra	-4456
▁pul	-4457
▁rac	-4458
▁sud	-4459
▁urg	-4460
▁web	-4461
▁yel	-4462
acies	-4463
akers	-4464
alled	-4465
aming	-4466
arent	-4467
check	-4468
enter	-4469
hours	-4470
ience	-4471
level	-4472
lines	-4473
organ	-4474
osing	-4475
ouble	-4476
rench	-4477
tered	-4478
terns	-4479
utral	-4480
vales	-4481
works	-4482
▁2009	-4483
▁4.30	-4484
▁Anot	-4485
▁Epid	-4486
▁Give	-4487
▁Good	-4488
▁Long	-4489
▁Meas	-4490
▁Meet	-4491
▁Well	-4492
▁acad	-4493
▁adop	-4494
▁appe	-4495
▁asia	-4496
▁beds	-4497
▁cere	-4498
▁clim	-4499
▁coll	-4500
▁cure	-4501
▁cust	-4502
▁dest	-4503
▁elev	-4504
▁fing	-4505
▁fire	-4506
▁gain	-4507
▁gard	-4508
▁gene	-4509
▁kept	-4510
▁leis	-4511
▁meat	-4512
▁moon	-4513
▁paid	-4514
▁prem	-4515
▁reve	-4516
▁shed	-4517
▁shit	-4518
▁situ	-4519
▁skin	-4520
▁slee	-4521
▁stim	-4522
▁trig	-4523
▁unex	-4524
▁view	-4525
▁wool	-4526
active	-4527
ailand	-4528
akened	-4529
bridge	-4530
ceived	-4531
ctions	-4532
firmed	-4533
ilarly	-4534
inemas	-4535
itable	-4536
ivided	-4537
monary	-4538
naiste	-4539
ospect	-4540
ulates	-4541
urches	-4542
▁2019.	-4543
▁2020)	-4544
▁Emerg	-4545
▁Fever	-4546
▁Human	-4547
▁Never	-4548
▁Place	-4549
▁Signs	-4550
▁Sneez	-4551
▁Treat	-4552
▁adequ	-4553
▁apple	-4554
▁benef	-4555
▁bowel	-4556
▁carer	-4557
▁comes	-4558
▁court	-4559
▁creat	-4560
▁enzym	-4561
▁final	-4562
▁forms	-4563
▁goods	-4564
▁guest	-4565
▁issue	-4566
▁names	-4567
▁offer	-4568
▁optim	-4569
▁pains	-4570
▁pilot	-4571
▁plate	-4572
▁princ	-4573
▁rooms	-4574
▁saudi	-4575
▁sense	-4576
▁space	-4577
▁spill	-4578
▁storm	-4579
▁stuff	-4580
▁takes	-4581
▁toxic	-4582
▁trace	-4583
▁urged	-4584
▁vehic	-4585
advanta	-4586
athogen	-4587
atories	-4588
certain	-4589
desivir	-4590
efinite	-4591
ertiary	-4592
inating	-4593
protein	-4594
taining	-4595
▁Around	-4596
▁Choose	-4597
▁Common	-4598
▁Direct	-4599
▁Person	-4600
▁Second	-4601
▁arrive	-4602
▁asking	-4603
▁august	-4604
▁canada	-4605
▁church	-4606
▁coughs	-4607
▁declar	-4608
▁delete	-4609
▁disord	-4610
▁enable	-4611
▁frames	-4612
▁french	-4613
▁galway	-4614
▁huanan	-4615
▁itself	-4616
▁korean	-4617
▁legisl	-4618
▁lethal	-4619
▁oxford	-4620
▁prices	-4621
▁prohib	-4622
▁rising	-4623
▁search	-4624
▁sector	-4625
▁secure	-4626
▁spring	-4627
▁street	-4628
▁strict	-4629
▁summer	-4630
▁suppli	-4631
▁taiwan	-4632
▁tedros	-4633
▁trying	-4634
▁useful	-4635
ifically	-4636
ipperary	-4637
ologists	-4638
specific	-4639
▁Another	-4640
▁anticip	-4641
▁anxiety	-4642
▁coronav	-4643
▁correct	-4644
▁deliver	-4645
▁devices	-4646
▁dismiss	-4647
▁falling	-4648
▁fingers	-4649
▁fitness	-4650
▁friends	-4651
▁keeping	-4652
▁largely	-4653
▁manager	-4654
▁meaning	-4655
▁prepare	-4656
▁sneezes	-4657
▁suspend	-4658
▁trouble	-4659
▁updates	-4660
▁visited	-4661
infection	-4662
ovascular	-4663
rehensive	-4664
valescent	-4665
▁National	-4666
▁Practice	-4667
▁Shopping	-4668
▁advisory	-4669
▁airborne	-4670
▁arrivals	-4671
▁canadian	-4672
▁carrying	-4673
▁clothing	-4674
▁combined	-4675
▁constant	-4676
▁decrease	-4677
▁drinking	-4678
▁earliest	-4679
▁elevated	-4680
▁governor	-4681
▁guidance	-4682
▁mitigate	-4683
▁neonatal	-4684
▁normally	-4685
▁obtained	-4686
▁pilgrims	-4687
▁protests	-4688
▁remained	-4689
▁substant	-4690
▁teaching	-4691
▁theatres	-4692
▁theories	-4693
▁underway	-4694
▁weakened	-4695
generating	-4696
lexibility	-4697
structural	-4698
▁Community	-4699
▁Following	-4700
▁attention	-4701
▁detection	-4702
▁detention	-4703
▁discovery	-4704
▁encourage	-4705
▁extensive	-4706
▁gastroint	-4707
▁guideline	-4708
▁illnesses	-4709
▁impacting	-4710
▁nutrition	-4711
▁operating	-4712
▁otherwise	-4713
▁prognosis	-4714
▁promising	-4715
▁protected	-4716
▁reduction	-4717
▁retailers	-4718
▁sanctions	-4719
▁singapore	-4720
▁specimens	-4721
▁supermark	-4722
▁surpassed	-4723
▁wholesale	-4724
information	-4725
▁amplifying	-4726
▁calculated	-4727
▁components	-4728
▁containing	-4729
▁contracted	-4730
▁determined	-4731
▁disadvanta	-4732
▁fatalities	-4733
▁households	-4734
▁importance	-4735
▁maintained	-4736
▁physically	-4737
▁preventive	-4738
▁reportedly	-4739
▁resumption	-4740
▁situations	-4741
▁travelling	-4742
▁unexpected	-4743
▁ventilator	-4744
▁alternative	-4745
▁anonymously	-4746
▁independent	-4747
▁manufacture	-4748
▁philippines	-4749
▁politicians	-4750
▁respirators	-4751
▁virological	-4752
▁consultation	-4753
▁convalescent	-4754
▁disabilities	-4755
▁laboratories	-4756
▁reproduction	-4757
▁successfully	-4758
▁comprehensive	-4759
▁manifestations	-4760
▁nasopharyngeal	-4761
,3	-4762
-4	-4763
08	-4764
24	-4765
44	-4766
67	-4767
79	-4768
aa	-4769
au	-4770
ij	-4771
sa	-4772
.5%	-4773
adk	-4774
aro	-4775
aur	-4776
bow	-4777
cel	-4778
cun	-4779
eed	-4780
hel	-4781
iat	-4782
ils	-4783
joy	-4784
ker	-4785
ket	-4786
och	-4787
ona	-4788
oul	-4789
pic	-4790
sol	-4791
tim	-4792
wed	-4793
yms	-4794
▁4.	-4795
▁41	-4796
▁44	-4797
▁55	-4798
▁59	-4799
▁8,	-4800
▁90	-4801
▁Fe	-4802
▁So	-4803
▁Sp	-4804
▁da	-4805
▁ec	-4806
▁lt	-4807
▁mo	-4808
▁py	-4809
-19-	-4810
.8%)	-4811
acks	-4812
adic	-4813
angl	-4814
appr	-4815
ardy	-4816
bing	-4817
bola	-4818
ease	-4819
erve	-4820
hoea	-4821
home	-4822
hood	-4823
iage	-4824
inty	-4825
iton	-4826
lied	-4827
loor	-4828
ncov	-4829
ocom	-4830
oget	-4831
olic	-4832
open	-4833
pond	-4834
resh	-4835
road	-4836
semb	-4837
ship	-4838
such	-4839
uate	-4840
uing	-4841
vant	-4842
ward	-4843
when	-4844
ying	-4845
▁(1)	-4846
▁(2)	-4847
▁(3)	-4848
▁-19	-4849
▁20,	-4850
▁28,	-4851
▁30%	-4852
▁60%	-4853
▁999	-4854
▁App	-4855
▁Ask	-4856
▁Det	-4857
▁Dif	-4858
▁Dry	-4859
▁Ens	-4860
▁Eur	-4861
▁Fin	-4862
▁Ire	-4863
▁Nap	-4864
▁Old	-4865
▁Sur	-4866
▁arm	-4867
▁bad	-4868
▁bil	-4869
▁cut	-4870
▁dic	-4871
▁fer	-4872
▁gap	-4873
▁gel	-4874
▁got	-4875
▁hen	-4876
▁hur	-4877
▁jud	-4878
▁lay	-4879
▁leo	-4880
▁mel	-4881
▁nba	-4882
▁nhs	-4883
▁pal	-4884
▁rod	-4885
▁sen	-4886
▁squ	-4887
▁ver	-4888
▁wat	-4889
▁wiv	-4890
▁yog	-4891
-19),	-4892
-19).	-4893
aceut	-4894
adesh	-4895
adkar	-4896
aghan	-4897
anced	-4898
anied	-4899
apsid	-4900
chief	-4901
estor	-4902
gnant	-4903
idays	-4904
iding	-4905
itage	-4906
itude	-4907
lobal	-4908
ocoon	-4909
ogens	-4910
omach	-4911
omers	-4912
ondon	-4913
orona	-4914
overs	-4915
ovine	-4916
ramid	-4917
rastr	-4918
redit	-4919
wards	-4920
▁2002	-4921
▁Four	-4922
▁Hand	-4923
▁Here	-4924
▁High	-4925
▁Prep	-4926
▁Scre	-4927
▁Then	-4928
▁alle	-4929
▁bank	-4930
▁cill	-4931
▁diet	-4932
▁farm	-4933
▁fear	-4934
▁fell	-4935
▁frag	-4936
▁gone	-4937
▁kild	-4938
▁lomb	-4939
▁neur	-4940
▁nine	-4941
▁ones	-4942
▁rare	-4943
▁retr	-4944
▁rhin	-4945
▁roll	-4946
▁rome	-4947
▁site	-4948
▁swed	-4949
▁trim	-4950
▁wipe	-4951
ecause	-4952
ficial	-4953
icklow	-4954
igence	-4955
imedia	-4956
likely	-4957
lusion	-4958
lusive	-4959
ocytes	-4960
person	-4961
piracy	-4962
tainty	-4963
urofen	-4964
worths	-4965
▁1,000	-4966
▁Bring	-4967
▁Cover	-4968
▁Going	-4969
▁Later	-4970
▁Medic	-4971
▁Third	-4972
▁Three	-4973
▁Under	-4974
▁aimed	-4975
▁amino	-4976
▁behav	-4977
▁binds	-4978
▁breat	-4979
▁cabin	-4980
▁costs	-4981
▁dates	-4982
▁defin	-4983
▁doing	-4984
▁dozen	-4985
▁elbow	-4986
▁exams	-4987
▁exhib	-4988
▁faced	-4989
▁fears	-4990
▁floor	-4991
▁foley	-4992
▁fruit	-4993
▁gives	-4994
▁heavy	-4995
▁learn	-4996
▁lines	-4997
▁norma	-4998
▁pools	-4999
▁power	-5000
▁quant	-5001
▁rules	-5002
▁shock	-5003
▁tight	-5004
▁tired	-5005
▁tools	-5006
▁white	-5007
▁whose	-5008
▁woman	-5009
▁zhang	-5010
akistan	-5011
grounds	-5012
iolitis	-5013
irdress	-5014
mission	-5015
ocapsid	-5016
ogether	-5017
ographs	-5018
ologist	-5019
respond	-5020
theless	-5021
urposed	-5022
vention	-5023
▁Advice	-5024
▁Dublin	-5025
▁Global	-5026
▁Public	-5027
▁Repeat	-5028
▁Unless	-5029
▁abroad	-5030
▁adhere	-5031
▁allows	-5032
▁assemb	-5033
▁asthma	-5034
▁bacter	-5035
▁basket	-5036
▁bodies	-5037
▁buying	-5038
▁carers	-5039
▁chains	-5040
▁cigare	-5041
▁credit	-5042
▁discon	-5043
▁easily	-5044
▁enters	-5045
▁expect	-5046
▁formal	-5047
▁gascun	-5048
▁giving	-5049
▁israel	-5050
▁labour	-5051
▁length	-5052
▁london	-5053
▁lowest	-5054
▁metric	-5055
▁moment	-5056
▁option	-5057
▁plasma	-5058
▁please	-5059
▁raised	-5060
▁sleeve	-5061
▁struct	-5062
▁suffer	-5063
▁timely	-5064
▁turkey	-5065
▁turned	-5066
▁urgent	-5067
▁varies	-5068
▁versus	-5069
▁volume	-5070
▁yellow	-5071
itioners	-5072
izations	-5073
kerchief	-5074
pathogen	-5075
stranded	-5076
tainment	-5077
▁Finally	-5078
▁Ireland	-5079
▁Medical	-5080
▁Wearing	-5081
▁account	-5082
▁airways	-5083
▁alerted	-5084
▁applied	-5085
▁arrival	-5086
▁britain	-5087
▁cillian	-5088
▁cleaned	-5089
▁company	-5090
▁constit	-5091
▁cooking	-5092
▁declare	-5093
▁despite	-5094
▁dischar	-5095
▁donegal	-5096
▁dropped	-5097
▁dyspnea	-5098
▁earlier	-5099
▁emerged	-5100
▁homolog	-5101
▁hopkins	-5102
▁inhibit	-5103
▁interru	-5104
▁islands	-5105
▁justice	-5106
▁kildare	-5107
▁leisure	-5108
▁museums	-5109
▁objects	-5110
▁pathway	-5111
▁program	-5112
▁pyramid	-5113
▁sequenc	-5114
▁visitor	-5115
▁worship	-5116
aceutical	-5117
angladesh	-5118
confirmed	-5119
criptions	-5120
▁Clinical	-5121
▁Remember	-5122
▁Tracking	-5123
▁ancestor	-5124
▁appeared	-5125
▁canceled	-5126
▁commonly	-5127
▁computer	-5128
▁contrace	-5129
▁criteria	-5130
▁electron	-5131
▁exceeded	-5132
▁festival	-5133
▁heritage	-5134
▁holidays	-5135
▁hundreds	-5136
▁identity	-5137
▁indirect	-5138
▁intended	-5139
▁involves	-5140
▁lombardy	-5141
▁managing	-5142
▁offences	-5143
▁offering	-5144
▁original	-5145
▁parental	-5146
▁passport	-5147
▁patterns	-5148
▁prescrib	-5149
▁relevant	-5150
▁seasonal	-5151
▁sleeping	-5152
▁suppress	-5153
▁systemic	-5154
▁treating	-5155
▁varadkar	-5156
pathogenic	-5157
uppression	-5158
▁President	-5159
▁cambridge	-5160
▁candidate	-5161
▁christian	-5162
▁concerned	-5163
▁concluded	-5164
▁criticism	-5165
▁disappear	-5166
▁enteritis	-5167
▁indicates	-5168
▁materials	-5169
▁modelling	-5170
▁mutations	-5171
▁occurring	-5172
▁pandemics	-5173
▁pathogens	-5174
▁perceived	-5175
▁personnel	-5176
▁primarily	-5177
▁receptors	-5178
▁scheduled	-5179
▁selection	-5180
▁seriously	-5181
▁spillover	-5182
▁therapies	-5183
▁universal	-5184
crimination	-5185
rastructure	-5186
▁Protecting	-5187
▁adequately	-5188
▁challenges	-5189
▁conspiracy	-5190
▁continuous	-5191
▁correspond	-5192
▁designated	-5193
▁documented	-5194
▁electronic	-5195
▁encouraged	-5196
▁foundation	-5197
▁nationally	-5198
▁originally	-5199
▁percentage	-5200
▁pharmacies	-5201
▁prioritize	-5202
▁regulatory	-5203
▁retrospect	-5204
▁scientists	-5205
▁subsequent	-5206
▁undertaken	-5207
▁woolworths	-5208
▁accompanied	-5209
▁anticipated	-5210
▁circulating	-5211
▁experienced	-5212
▁limitations	-5213
▁maintaining	-5214
▁populations	-5215
▁precautions	-5216
▁progression	-5217
▁susceptible	-5218
▁Nevertheless	-5219
▁Phylogenetic	-5220
▁applications	-5221
▁availability	-5222
▁californians	-5223
▁epidemiology	-5224
▁evolutionary	-5225
▁experiencing	-5226
▁handkerchief	-5227
▁immunisation	-5228
▁nucleocapsid	-5229
▁performances	-5230
▁phylogenetic	-5231
▁professional	-5232
▁requirements	-5233
▁specifically	-5234
▁vaccinations	-5235
▁bronchiolitis	-5236
▁manufacturing	-5237
▁practitioners	-5238
▁understanding	-5239
▁cardiovascular	-5240
▁establishments	-5241
▁identification	-5242
▁implementation	-5243
▁hospitalization	-5244
23	-5245
54	-5246
62	-5247
93	-5248
bi	-5249
de	-5250
ek	-5251
ev	-5252
gl	-5253
gs	-5254
ji	-5255
mo	-5256
mr	-5257
wa	-5258
wh	-5259
wo	-5260
zh	-5261
...	-5262
.3%	-5263
162	-5264
653	-5265
ads	-5266
ama	-5267
ape	-5268
ari	-5269
bat	-5270
bon	-5271
col	-5272
dis	-5273
erb	-5274
fen	-5275
hip	-5276
ico	-5277
idy	-5278
ilt	-5279
inv	-5280
mes	-5281
nas	-5282
nec	-5283
oks	-5284
pos	-5285
put	-5286
ray	-5287
reg	-5288
rti	-5289
ste	-5290
sus	-5291
try	-5292
tte	-5293
uba	-5294
uck	-5295
uel	-5296
uls	-5297
yan	-5298
ypt	-5299
▁00	-5300
▁1%	-5301
▁2-	-5302
▁32	-5303
▁49	-5304
▁51	-5305
▁52	-5306
▁57	-5307
▁68	-5308
▁77	-5309
▁79	-5310
▁97	-5311
▁Bu	-5312
▁Ef	-5313
▁Sa	-5314
▁ip	-5315
▁mc	-5316
▁pi	-5317
▁pm	-5318
▁ww	-5319
airs	-5320
ania	-5321
asks	-5322
athe	-5323
avan	-5324
aves	-5325
back	-5326
bits	-5327
body	-5328
cast	-5329
cing	-5330
cles	-5331
copy	-5332
drox	-5333
eces	-5334
entr	-5335
erim	-5336
erty	-5337
esus	-5338
from	-5339
ghan	-5340
grad	-5341
gree	-5342
hani	-5343
ills	-5344
imer	-5345
isen	-5346
itus	-5347
ixed	-5348
izes	-5349
lebr	-5350
life	-5351
many	-5352
mark	-5353
niac	-5354
ocal	-5355
okes	-5356
onan	-5357
opre	-5358
rell	-5359
sure	-5360
tary	-5361
whel	-5362
wing	-5363
ynam	-5364
yond	-5365
▁(20	-5366
▁(38	-5367
▁1).	-5368
▁1.4	-5369
▁11,	-5370
▁4,3	-5371
▁400	-5372
▁50%	-5373
▁96%	-5374
▁Bre	-5375
▁Can	-5376
▁Fac	-5377
▁Iob	-5378
▁Lim	-5379
▁Mon	-5380
▁Non	-5381
▁Num	-5382
▁Per	-5383
▁Red	-5384
▁Sit	-5385
▁Sub	-5386
▁Two	-5387
▁abc	-5388
▁aim	-5389
▁bce	-5390
▁cow	-5391
▁der	-5392
▁fen	-5393
▁gaa	-5394
▁gar	-5395
▁hip	-5396
▁ifn	-5397
▁lif	-5398
▁lou	-5399
▁map	-5400
▁oil	-5401
▁pov	-5402
▁rob	-5403
▁rot	-5404
▁rou	-5405
▁row	-5406
▁sin	-5407
▁swe	-5408
▁tom	-5409
▁ves	-5410
▁win	-5411
▁won	-5412
▁www	-5413
▁zim	-5414
acent	-5415
acted	-5416
ament	-5417
amond	-5418
apers	-5419
aused	-5420
clear	-5421
funct	-5422
hanom	-5423
ijing	-5424
ilize	-5425
imary	-5426
inant	-5427
itial	-5428
lated	-5429
march	-5430
night	-5431
ocyte	-5432
olson	-5433
oming	-5434
ommod	-5435
oring	-5436
ortic	-5437
place	-5438
pting	-5439
scale	-5440
trans	-5441
ulent	-5442
urine	-5443
usion	-5444
uting	-5445
venth	-5446
▁2018	-5447
▁8.30	-5448
▁Cold	-5449
▁Comp	-5450
▁Covs	-5451
▁Plan	-5452
▁Spec	-5453
▁acqu	-5454
▁ages	-5455
▁amid	-5456
▁cups	-5457
▁curb	-5458
▁dash	-5459
▁ecdc	-5460
▁eggs	-5461
▁elim	-5462
▁emer	-5463
▁evol	-5464
▁gael	-5465
▁game	-5466
▁gamm	-5467
▁gown	-5468
▁groc	-5469
▁hold	-5470
▁hope	-5471
▁hous	-5472
▁mach	-5473
▁mell	-5474
▁neck	-5475
▁paul	-5476
▁pray	-5477
▁purp	-5478
▁rely	-5479
▁scen	-5480
▁sera	-5481
▁shif	-5482
▁swim	-5483
▁town	-5484
▁tues	-5485
▁unus	-5486
20,000	-5487
acting	-5488
anging	-5489
cedent	-5490
ellect	-5491
ensity	-5492
ferred	-5493
figure	-5494
ieving	-5495
illing	-5496
incial	-5497
income	-5498
isting	-5499
itness	-5500
losure	-5501
necess	-5502
normal	-5503
oenter	-5504
onucle	-5505
ortion	-5506
rought	-5507
second	-5508
thirds	-5509
threat	-5510
urance	-5511
ximity	-5512
▁2012,	-5513
▁7,162	-5514
▁Cases	-5515
▁Diagn	-5516
▁Early	-5517
▁Leave	-5518
▁North	-5519
▁Novel	-5520
▁Organ	-5521
▁Shops	-5522
▁Water	-5523
▁accel	-5524
▁agent	-5525
▁alloc	-5526
▁artic	-5527
▁autom	-5528
▁banks	-5529
▁board	-5530
▁bulbs	-5531
▁civet	-5532
▁curve	-5533
▁doesn	-5534
▁dynam	-5535
▁enrol	-5536
▁false	-5537
▁fatal	-5538
▁fecal	-5539
▁field	-5540
▁fifth	-5541
▁frame	-5542
▁fresh	-5543
▁germs	-5544
▁glynn	-5545
▁green	-5546
▁guang	-5547
▁halls	-5548
▁imper	-5549
▁incon	-5550
▁lunch	-5551
▁malls	-5552
▁meets	-5553
▁minor	-5554
▁mouse	-5555
▁multi	-5556
▁overl	-5557
▁polar	-5558
▁proof	-5559
▁prove	-5560
▁ready	-5561
▁risen	-5562
▁ronan	-5563
▁spent	-5564
▁stain	-5565
▁stick	-5566
▁ultim	-5567
▁uncer	-5568
▁uncom	-5569
▁upset	-5570
▁valve	-5571
contact	-5572
droxych	-5573
eration	-5574
erestim	-5575
issions	-5576
loading	-5577
opreval	-5578
planned	-5579
sequent	-5580
teroids	-5581
uctions	-5582
washing	-5583
▁Corona	-5584
▁Europe	-5585
▁Facial	-5586
▁Online	-5587
▁Partic	-5588
▁Remove	-5589
▁Taking	-5590
▁Things	-5591
▁Within	-5592
▁alerts	-5593
▁alpaca	-5594
▁append	-5595
▁babies	-5596
▁behavi	-5597
▁breach	-5598
▁burden	-5599
▁celebr	-5600
▁cocoon	-5601
▁counse	-5602
▁deemed	-5603
▁degree	-5604
▁driven	-5605
▁engage	-5606
▁enzyme	-5607
▁excess	-5608
▁facing	-5609
▁height	-5610
▁helped	-5611
▁hypert	-5612
▁inject	-5613
▁killed	-5614
▁league	-5615
▁metres	-5616
▁models	-5617
▁nurses	-5618
▁offaly	-5619
▁racism	-5620
▁ranges	-5621
▁refers	-5622
▁remind	-5623
▁remote	-5624
▁resume	-5625
▁shield	-5626
▁snacks	-5627
▁sputum	-5628
▁stuffy	-5629
▁sudden	-5630
▁ticket	-5631
▁towels	-5632
▁twenty	-5633
▁unsure	-5634
▁winter	-5635
▁worked	-5636
criptase	-5637
ertility	-5638
esterday	-5639
etically	-5640
fortable	-5641
infected	-5642
isations	-5643
olitical	-5644
olsonaro	-5645
▁Antigen	-5646
▁Because	-5647
▁Chinese	-5648
▁Further	-5649
▁Getting	-5650
▁Nurofen	-5651
▁Prepare	-5652
▁Schools	-5653
▁Whereas	-5654
▁Without	-5655
▁achieve	-5656
▁adhanom	-5657
▁airline	-5658
▁airport	-5659
▁answers	-5660
▁austria	-5661
▁beijing	-5662
▁borders	-5663
▁breathe	-5664
▁brought	-5665
▁capable	-5666
▁capital	-5667
▁carried	-5668
▁charged	-5669
▁clothes	-5670
▁compare	-5671
▁concept	-5672
▁courses	-5673
▁curfews	-5674
▁decline	-5675
▁depends	-5676
▁detects	-5677
▁diamond	-5678
▁divided	-5679
▁enables	-5680
▁examine	-5681
▁experim	-5682
▁express	-5683
▁formula	-5684
▁gradual	-5685
▁inflamm	-5686
▁install	-5687
▁involve	-5688
▁lessons	-5689
▁located	-5690
▁massive	-5691
▁measles	-5692
▁minimal	-5693
▁neutral	-5694
▁nucleic	-5695
▁package	-5696
▁placent	-5697
▁putting	-5698
▁ranging	-5699
▁reasons	-5700
▁records	-5701
▁reduces	-5702
▁refused	-5703
▁relaxed	-5704
▁relieve	-5705
▁reserve	-5706
▁rouhani	-5707
▁russian	-5708
▁sending	-5709
▁serving	-5710
▁substit	-5711
▁suspect	-5712
▁sustain	-5713
▁tuesday	-5714
▁undergo	-5715
▁varying	-5716
▁warning	-5717
▁wedding	-5718
dependent	-5719
ellectual	-5720
reporting	-5721
secondary	-5722
▁Numerous	-5723
▁Visitors	-5724
▁academic	-5725
▁accommod	-5726
▁airlines	-5727
▁announce	-5728
▁anywhere	-5729
▁apparent	-5730
▁attended	-5731
▁barriers	-5732
▁benefits	-5733
▁calories	-5734
▁cellular	-5735
▁changing	-5736
▁churches	-5737
▁concentr	-5738
▁develops	-5739
▁diagnose	-5740
▁disorder	-5741
▁diverged	-5742
▁emerging	-5743
▁frequent	-5744
▁generate	-5745
▁imported	-5746
▁interval	-5747
▁lineages	-5748
▁mellitus	-5749
▁messages	-5750
▁networks	-5751
▁opportun	-5752
▁position	-5753
▁princess	-5754
▁purchase	-5755
▁referred	-5756
▁reflects	-5757
▁remember	-5758
▁reopened	-5759
▁specimen	-5760
▁suggests	-5761
▁suitable	-5762
▁swimming	-5763
▁temporal	-5764
▁tertiary	-5765
▁unlikely	-5766
▁unnecess	-5767
▁variable	-5768
▁violence	-5769
irdressers	-5770
oenteritis	-5771
▁Infection	-5772
▁Screening	-5773
▁accessory	-5774
▁addressed	-5775
▁americans	-5776
▁compounds	-5777
▁consulate	-5778
▁coverings	-5779
▁customers	-5780
▁dangerous	-5781
▁decisions	-5782
▁diarrhoea	-5783
▁disrupted	-5784
▁fragments	-5785
▁generated	-5786
▁highlight	-5787
▁incidents	-5788
▁insurance	-5789
▁introduce	-5790
▁mechanism	-5791
▁municipal	-5792
▁operators	-5793
▁organised	-5794
▁partially	-5795
▁preschool	-5796
▁prevalent	-5797
▁processed	-5798
▁producing	-5799
▁reactions	-5800
▁recession	-5801
▁replicase	-5802
▁replicate	-5803
▁residence	-5804
▁responsib	-5805
▁sensitive	-5806
▁separated	-5807
▁streaming	-5808
▁suppliers	-5809
▁travelled	-5810
▁unplanned	-5811
▁voluntary	-5812
oprevalence	-5813
threatening	-5814
▁appearance	-5815
▁basketball	-5816
▁controlled	-5817
▁diagnostic	-5818
▁disclosure	-5819
▁homologous	-5820
▁indefinite	-5821
▁indirectly	-5822
▁mechanical	-5823
▁originated	-5824
▁provincial	-5825
▁recognized	-5826
▁recoveries	-5827
▁remdesivir	-5828
▁repurposed	-5829
▁reservoirs	-5830
▁restaurant	-5831
▁stillbirth	-5832
▁stimulates	-5833
▁structural	-5834
▁sufficient	-5835
▁underestim	-5836
armaceutical	-5837
ocompromised	-5838
▁Astrazeneca	-5839
▁antibiotics	-5840
▁challenging	-5841
▁comfortable	-5842
▁compromised	-5843
▁connections	-5844
▁contracting	-5845
▁controlling	-5846
▁declaration	-5847
▁demographic	-5848
▁encouraging	-5849
▁enforcement	-5850
▁engineering	-5851
▁hospitality	-5852
▁legislation	-5853
▁playgrounds	-5854
▁polyprotein	-5855
▁suppression	-5856
▁uncertainty	-5857
▁ventilators	-5858
▁Particularly	-5859
▁Transmission	-5860
▁commentators	-5861
▁hospitalised	-5862
▁hypertension	-5863
▁nonessential	-5864
▁organisation	-5865
▁technologies	-5866
▁accommodation	-5867
▁administrator	-5868
▁communication	-5869
▁disadvantaged	-5870
▁disinfectants	-5871
▁environmental	-5872
▁nonstructural	-5873
▁precautionary	-5874
▁psychological	-5875
▁transmissible	-5876
▁uncomfortable	-5877
▁discrimination	-5878
▁infrastructure	-5879
droxychloroquine	-5880
-7	-5881
2)	-5882
72	-5883
77	-5884
88	-5885
96	-5886
bc	-5887
bo	-5888
cu	-5889
cy	-5890
di	-5891
ha	-5892
hi	-5893
ii	-5894
lr	-5895
yc	-5896
yo	-5897
-20	-5898
.1.	-5899
.2%	-5900
.7%	-5901
19-	-5902
405	-5903
566	-5904
63.	-5905
700	-5906
ago	-5907
aid	-5908
ank	-5909
ara	-5910
asm	-5911
atr	-5912
ats	-5913
bia	-5914
chy	-5915
cor	-5916
der	-5917
drp	-5918
ech	-5919
eez	-5920
efa	-5921
egu	-5922
eli	-5923
eph	-5924
gia	-5925
igr	-5926
ita	-5927
izz	-5928
lan	-5929
lel	-5930
lin	-5931
mat	-5932
min	-5933
mit	-5934
nam	-5935
non	-5936
ocl	-5937
ode	-5938
ogg	-5939
ots	-5940
oub	-5941
pox	-5942
pro	-5943
rid	-5944
rrt	-5945
san	-5946
sen	-5947
sha	-5948
sts	-5949
tab	-5950
tam	-5951
tar	-5952
tic	-5953
urd	-5954
urn	-5955
ush	-5956
wid	-5957
zer	-5958
▁(0	-5959
▁36	-5960
▁5,	-5961
▁63	-5962
▁71	-5963
▁73	-5964
▁86	-5965
▁Ag	-5966
▁Cv	-5967
▁Ib	-5968
▁Ra	-5969
▁Sw	-5970
▁Wa	-5971
▁bs	-5972
▁cd	-5973
▁gi	-5974
▁jo	-5975
▁lu	-5976
▁mh	-5977
-19:	-5978
-2).	-5979
07.1	-5980
ador	-5981
aign	-5982
ails	-5983
aint	-5984
ales	-5985
anol	-5986
aria	-5987
athy	-5988
book	-5989
born	-5990
bott	-5991
ceed	-5992
cour	-5993
date	-5994
each	-5995
eech	-5996
egro	-5997
enge	-5998
esis	-5999
gium	-6000
henz	-6001
heon	-6002
hour	-6003
iche	-6004
igue	-6005
iles	-6006
ilob	-6007
imal	-6008
inel	-6009
ires	-6010
lets	-6011
lude	-6012
lymp	-6013
made	-6014
oche	-6015
olar	-6016
oman	-6017
onel	-6018
oops	-6019
opin	-6020
oral	-6021
orib	-6022
osal	-6023
otes	-6024
otyp	-6025
pres	-6026
prop	-6027
rain	-6028
rets	-6029
room	-6030
seud	-6031
this	-6032
uish	-6033
umed	-6034
wait	-6035
week	-6036
with	-6037
zhou	-6038
▁(27	-6039
▁(4)	-6040
▁10,	-6041
▁13,	-6042
▁16.	-6043
▁2,3	-6044
▁2,4	-6045
▁229	-6046
▁24-	-6047
▁250	-6048
▁290	-6049
▁3,1	-6050
▁3.8	-6051
▁30-	-6052
▁40%	-6053
▁60,	-6054
▁70%	-6055
▁Bel	-6056
▁Bus	-6057
▁Cor	-6058
▁Cut	-6059
▁Dep	-6060
▁Flu	-6061
▁Hot	-6062
▁Its	-6063
▁New	-6064
▁Rec	-6065
▁Reg	-6066
▁Ret	-6067
▁Rub	-6068
▁See	-6069
▁Sup	-6070
▁Vir	-6071
▁ago	-6072
▁alt	-6073
▁bit	-6074
▁bot	-6075
▁dog	-6076
▁emb	-6077
▁etc	-6078
▁fig	-6079
▁fog	-6080
▁gol	-6081
▁hep	-6082
▁hiv	-6083
▁ign	-6084
▁ili	-6085
▁ing	-6086
▁isp	-6087
▁jae	-6088
▁mot	-6089
▁nce	-6090
▁nsp	-6091
▁pac	-6092
▁pun	-6093
▁qom	-6094
▁que	-6095
▁rub	-6096
▁rum	-6097
▁shr	-6098
▁ter	-6099
▁tex	-6100
▁unw	-6101
▁vit	-6102
▁wik	-6103
2,000	-6104
2,653	-6105
acerb	-6106
activ	-6107
afety	-6108
affic	-6109
after	-6110
allel	-6111
anish	-6112
ansom	-6113
ashed	-6114
aters	-6115
bound	-6116
cules	-6117
earch	-6118
endit	-6119
erals	-6120
erian	-6121
gered	-6122
heral	-6123
https	-6124
icion	-6125
icken	-6126
iency	-6127
iftly	-6128
inity	-6129
iques	-6130
irina	-6131
isced	-6132
junct	-6133
kenny	-6134
lamed	-6135
legal	-6136
mphas	-6137
nings	-6138
oking	-6139
overe	-6140
stown	-6141
tocks	-6142
uated	-6143
under	-6144
width	-6145
wuhan	-6146
▁1930	-6147
▁2003	-6148
▁2012	-6149
▁269,	-6150
▁4,90	-6151
▁Anti	-6152
▁Each	-6153
▁Form	-6154
▁Hcov	-6155
▁Hold	-6156
▁Intr	-6157
▁Lack	-6158
▁Last	-6159
▁Less	-6160
▁Mand	-6161
▁Mild	-6162
▁Move	-6163
▁Mult	-6164
▁Reop	-6165
▁Stud	-6166
▁Such	-6167
▁Will	-6168
▁anal	-6169
▁anat	-6170
▁arts	-6171
▁assa	-6172
▁bars	-6173
▁base	-6174
▁bath	-6175
▁busy	-6176
▁caps	-6177
▁capt	-6178
▁cash	-6179
▁cats	-6180
▁chol	-6181
▁corn	-6182
▁cruc	-6183
▁deep	-6184
▁dioc	-6185
▁door	-6186
▁doub	-6187
▁dram	-6188
▁empt	-6189
▁feed	-6190
▁fish	-6191
▁gall	-6192
▁geor	-6193
▁gogg	-6194
▁gyms	-6195
▁heel	-6196
▁herd	-6197
▁holy	-6198
▁inte	-6199
▁jans	-6200
▁jump	-6201
▁lift	-6202
▁liqu	-6203
▁mice	-6204
▁migr	-6205
▁mill	-6206
▁nato	-6207
▁none	-6208
▁opac	-6209
▁opin	-6210
▁pets	-6211
▁phot	-6212
▁poor	-6213
▁quit	-6214
▁reid	-6215
▁rule	-6216
▁save	-6217
▁shel	-6218
▁soft	-6219
▁stag	-6220
▁subs	-6221
▁summ	-6222
▁symp	-6223
▁thor	-6224
▁tree	-6225
▁trop	-6226
▁uefa	-6227
▁wake	-6228
▁wife	-6229
▁writ	-6230
apping	-6231
atitis	-6232
atured	-6233
bourne	-6234
called	-6235
change	-6236
common	-6237
entral	-6238
ephone	-6239
erally	-6240
ercial	-6241
ernity	-6242
erving	-6243
estone	-6244
hengen	-6245
heonji	-6246
iatric	-6247
itored	-6248
ivered	-6249
jected	-6250
justed	-6251
length	-6252
letion	-6253
makers	-6254
tering	-6255
urally	-6256
useppe	-6257
veolar	-6258
ypical	-6259
ysical	-6260
▁2,000	-6261
▁2003,	-6262
▁4,000	-6263
▁5,000	-6264
▁About	-6265
▁Click	-6266
▁Diarr	-6267
▁Level	-6268
▁Local	-6269
▁Phase	-6270
▁Plans	-6271
▁Which	-6272
▁aches	-6273
▁allev	-6274
▁avian	-6275
▁block	-6276
▁brief	-6277
▁broke	-6278
▁champ	-6279
▁chlor	-6280
▁crime	-6281
▁daegu	-6282
▁deter	-6283
▁displ	-6284
▁eased	-6285
▁ebola	-6286
▁edges	-6287
▁egypt	-6288
▁eight	-6289
▁ended	-6290
▁exact	-6291
▁facts	-6292
▁falls	-6293
▁fetal	-6294
▁foods	-6295
▁games	-6296
▁gamma	-6297
▁glass	-6298
▁haven	-6299
▁hotsp	-6300
▁hurts	-6301
▁inhab	-6302
▁insec	-6303
▁islam	-6304
▁lonel	-6305
▁looks	-6306
▁lopin	-6307
▁moist	-6308
▁moved	-6309
▁music	-6310
▁newsp	-6311
▁occas	-6312
▁olymp	-6313
▁param	-6314
▁parks	-6315
▁perip	-6316
▁print	-6317
▁pseud	-6318
▁renal	-6319
▁risks	-6320
▁riton	-6321
▁rural	-6322
▁sales	-6323
▁scope	-6324
▁seats	-6325
▁serum	-6326
▁shake	-6327
▁shall	-6328
▁shenz	-6329
▁ships	-6330
▁sides	-6331
▁spray	-6332
▁stays	-6333
▁suits	-6334
▁swine	-6335
▁telev	-6336
▁thing	-6337
▁train	-6338
▁trend	-6339
▁vital	-6340
▁voted	-6341
▁watch	-6342
▁worth	-6343
ategies	-6344
atering	-6345
collect	-6346
control	-6347
istical	-6348
lusions	-6349
oclonal	-6350
orticos	-6351
ossible	-6352
tenegro	-6353
whelmed	-6354
zerland	-6355
▁(2019-	-6356
▁(5.8%)	-6357
▁10,000	-6358
▁50,000	-6359
▁Compar	-6360
▁Hotels	-6361
▁Intern	-6362
▁Others	-6363
▁Visits	-6364
▁absent	-6365
▁agents	-6366
▁begins	-6367
▁belong	-6368
▁beyond	-6369
▁bovine	-6370
▁bright	-6371
▁calend	-6372
▁casual	-6373
▁charge	-6374
▁citing	-6375
▁claims	-6376
▁combat	-6377
▁conver	-6378
▁decree	-6379
▁dehydr	-6380
▁divers	-6381
▁drinks	-6382
▁easier	-6383
▁easter	-6384
▁econom	-6385
▁emerge	-6386
▁emphas	-6387
▁encoun	-6388
▁exorib	-6389
▁extend	-6390
▁favour	-6391
▁forced	-6392
▁fourth	-6393
▁garden	-6394
▁grades	-6395
▁habits	-6396
▁hassan	-6397
▁hotels	-6398
▁ingred	-6399
▁injury	-6400
▁intell	-6401
▁intend	-6402
▁island	-6403
▁larger	-6404
▁lifted	-6405
▁madrid	-6406
▁micros	-6407
▁morbid	-6408
▁norway	-6409
▁obtain	-6410
▁perman	-6411
▁permit	-6412
▁planes	-6413
▁points	-6414
▁poland	-6415
▁posted	-6416
▁powers	-6417
▁ransom	-6418
▁rarely	-6419
▁rating	-6420
▁repatr	-6421
▁robust	-6422
▁salads	-6423
▁segreg	-6424
▁senior	-6425
▁sexual	-6426
▁shares	-6427
▁slight	-6428
▁sovere	-6429
▁speech	-6430
▁spokes	-6431
▁squeez	-6432
▁strugg	-6433
▁subgen	-6434
▁survey	-6435
▁synthe	-6436
▁termed	-6437
▁tester	-6438
▁thinks	-6439
▁toward	-6440
▁triage	-6441
▁troops	-6442
cedented	-6443
chnology	-6444
enditure	-6445
enovirus	-6446
getables	-6447
graduate	-6448
iagnosed	-6449
lessness	-6450
onymized	-6451
rounding	-6452
ulmonary	-6453
▁122,653	-6454
▁200,000	-6455
▁Alcohol	-6456
▁Epidemi	-6457
▁Initial	-6458
▁Meeting	-6459
▁Reports	-6460
▁Similar	-6461
▁Staying	-6462
▁Testing	-6463
▁Through	-6464
▁Waiting	-6465
▁Washing	-6466
▁accused	-6467
▁adopted	-6468
▁alleged	-6469
▁alpacas	-6470
▁attacks	-6471
▁avoided	-6472
▁banning	-6473
▁believe	-6474
▁binding	-6475
▁cabinet	-6476
▁cardiac	-6477
▁cinemas	-6478
▁cleared	-6479
▁clinics	-6480
▁consist	-6481
▁context	-6482
▁counter	-6483
▁critics	-6484
▁crossed	-6485
▁culture	-6486
▁damaged	-6487
▁decides	-6488
▁defined	-6489
▁denmark	-6490
▁descent	-6491
▁donated	-6492
▁driving	-6493
▁edition	-6494
▁elastic	-6495
▁encoded	-6496
▁enhance	-6497
▁entered	-6498
▁enteric	-6499
▁exacerb	-6500
▁explore	-6501
▁famines	-6502
▁fatigue	-6503
▁focused	-6504
▁goggles	-6505
▁harbour	-6506
▁hearing	-6507
▁illegal	-6508
▁immunos	-6509
▁indexes	-6510
▁infects	-6511
▁interfe	-6512
▁issuing	-6513
▁janssen	-6514
▁matches	-6515
▁midwife	-6516
▁mothers	-6517
▁muscles	-6518
▁nigeria	-6519
▁pacific	-6520
▁payment	-6521
▁poverty	-6522
▁praised	-6523
▁prayers	-6524
▁rodents	-6525
▁secured	-6526
▁seeking	-6527
▁setting	-6528
▁seventh	-6529
▁shorter	-6530
▁shrines	-6531
▁stomach	-6532
▁stretch	-6533
▁studied	-6534
▁surgery	-6535
▁survive	-6536
▁swiftly	-6537
▁tablets	-6538
▁tickets	-6539
▁touches	-6540
▁traffic	-6541
▁trigger	-6542
▁unclear	-6543
▁unusual	-6544
▁virions	-6545
▁virtual	-6546
▁volunte	-6547
▁wicklow	-6548
▁windows	-6549
▁witness	-6550
aboration	-6551
effective	-6552
incheonji	-6553
isolating	-6554
onuclease	-6555
▁Airborne	-6556
▁Business	-6557
▁Limerick	-6558
▁Measures	-6559
▁Monaghan	-6560
▁Personal	-6561
▁Research	-6562
▁Sneezing	-6563
▁accident	-6564
▁adaptive	-6565
▁africans	-6566
▁alarming	-6567
▁appendix	-6568
▁assessed	-6569
▁attacked	-6570
▁breaches	-6571
▁buttocks	-6572
▁campaign	-6573
▁chemical	-6574
▁counties	-6575
▁creating	-6576
▁deletion	-6577
▁descript	-6578
▁detailed	-6579
▁district	-6580
▁dysfunct	-6581
▁enrolled	-6582
▁entities	-6583
▁evacuate	-6584
▁featured	-6585
▁feelings	-6586
▁football	-6587
▁giuseppe	-6588
▁harmless	-6589
▁indicate	-6590
▁interfer	-6591
▁invasive	-6592
▁managers	-6593
▁mandated	-6594
▁meetings	-6595
▁midwives	-6596
▁modified	-6597
▁mortuary	-6598
▁officers	-6599
▁pakistan	-6600
▁parallel	-6601
▁planning	-6602
▁protease	-6603
▁protects	-6604
▁reducing	-6605
▁referral	-6606
▁register	-6607
▁requires	-6608
▁revealed	-6609
▁schengen	-6610
▁selected	-6611
▁sentence	-6612
▁sentinel	-6613
▁sexually	-6614
▁shenzhen	-6615
▁shutting	-6616
▁stations	-6617
▁stopping	-6618
▁stranded	-6619
▁suddenly	-6620
▁supports	-6621
▁targeted	-6622
▁thailand	-6623
▁thorough	-6624
▁toxicity	-6625
▁trillion	-6626
▁urgently	-6627
▁vehicles	-6628
▁virulent	-6629
▁warnings	-6630
▁worsened	-6631
ifications	-6632
ologically	-6633
vaccinated	-6634
▁Currently	-6635
▁Emergency	-6636
▁Generally	-6637
▁Ibuprofen	-6638
▁Libraries	-6639
▁Mandatory	-6640
▁Reopening	-6641
▁Similarly	-6642
▁alleviate	-6643
▁assessing	-6644
▁bacterial	-6645
▁bolsonaro	-6646
▁brazilian	-6647
▁champions	-6648
▁chartered	-6649
▁cigarette	-6650
▁communist	-6651
▁continent	-6652
▁continues	-6653
▁correctly	-6654
▁decreases	-6655
▁delivered	-6656
▁detergent	-6657
▁discontin	-6658
▁emissions	-6659
▁employers	-6660
▁enveloped	-6661
▁exceeding	-6662
▁explained	-6663
▁extending	-6664
▁galleries	-6665
▁guangzhou	-6666
▁happening	-6667
▁healthily	-6668
▁inclusion	-6669
▁influence	-6670
▁initiated	-6671
▁isolating	-6672
▁localised	-6673
▁lopinavir	-6674
▁messaging	-6675
▁milestone	-6676
▁molecular	-6677
▁molecules	-6678
▁monitored	-6679
▁opacities	-6680
▁operation	-6681
▁passenger	-6682
▁petitions	-6683
▁prescribe	-6684
▁provision	-6685
▁proximity	-6686
▁purchases	-6687
▁reception	-6688
▁recognize	-6689
▁recording	-6690
▁referring	-6691
▁relations	-6692
▁relatives	-6693
▁responded	-6694
▁ritonavir	-6695
▁saturdays	-6696
▁schedules	-6697
▁sovereign	-6698
▁stability	-6699
▁stretched	-6700
▁supported	-6701
▁suspicion	-6702
▁targeting	-6703
▁tipperary	-6704
▁trimester	-6705
▁vaccinate	-6706
▁virtually	-6707
▁yesterday	-6708
precedented	-6709
▁Healthcare	-6710
▁Resumption	-6711
▁Strategies	-6712
▁afterwards	-6713
▁altogether	-6714
▁australian	-6715
▁bangladesh	-6716
▁commercial	-6717
▁complement	-6718
▁constantly	-6719
▁controvers	-6720
▁counseling	-6721
▁dependency	-6722
▁depression	-6723
▁diplomatic	-6724
▁discharged	-6725
▁ecological	-6726
▁evacuation	-6727
▁evaluation	-6728
▁exceptions	-6729
▁foreigners	-6730
▁industrial	-6731
▁inhibition	-6732
▁insecurity	-6733
▁instituted	-6734
▁loneliness	-6735
▁lymphocyte	-6736
▁monoclonal	-6737
▁montenegro	-6738
▁negatively	-6739
▁performing	-6740
▁peripheral	-6741
▁persistent	-6742
▁prohibited	-6743
▁protestors	-6744
▁ransomware	-6745
▁regardless	-6746
▁registered	-6747
▁sequencing	-6748
▁supportive	-6749
▁suspension	-6750
▁systematic	-6751
▁techniques	-6752
▁television	-6753
▁tomography	-6754
▁Dehydration	-6755
▁Furthermore	-6756
▁Suppression	-6757
▁breastcheck	-6758
▁chloroquine	-6759
▁comparisons	-6760
▁conclusions	-6761
▁conferences	-6762
▁departments	-6763
▁differences	-6764
▁discussions	-6765
▁disinfected	-6766
▁distributed	-6767
▁effectively	-6768
▁efficiently	-6769
▁emergencies	-6770
▁enforceable	-6771
▁expenditure	-6772
▁flexibility	-6773
▁genetically	-6774
▁handwashing	-6775
▁ingredients	-6776
▁journalists	-6777
▁methodology	-6778
▁opportunity	-6779
▁overlapping	-6780
▁overwhelmed	-6781
▁performance	-6782
▁radiographs	-6783
▁repatriated	-6784
▁restrictive	-6785
▁segregation	-6786
▁statistical	-6787
▁substantial	-6788
▁surrounding	-6789
▁switzerland	-6790
▁announcement	-6791
▁arrangements	-6792
▁certificates	-6793
▁considerably	-6794
▁coordinating	-6795
▁disinfecting	-6796
▁disinfection	-6797
▁dramatically	-6798
▁hairdressers	-6799
▁indefinitely	-6800
▁intellectual	-6801
▁intelligence	-6802
▁interactions	-6803
▁intervention	-6804
▁pathogenesis	-6805
▁periodically	-6806
▁supermarkets	-6807
orticosteroids	-6808
pharmaceutical	-6809
▁International	-6810
▁collaboration	-6811
▁contamination	-6812
▁contraception	-6813
▁corresponding	-6814
▁manufacturers	-6815
▁opportunities	-6816
▁pathogenicity	-6817
▁prescriptions	-6818
▁pseudonymized	-6819
▁characteristic	-6820
▁communications	-6821
▁investigations	-6822
▁representative	-6823
▁responsibility	-6824
▁seroprevalence	-6825
▁betacoronavirus	-6826
▁epidemiologists	-6827
▁exoribonuclease	-6828
▁gastroenteritis	-6829
):	-6830
.6	-6831
0)	-6832
2%	-6833
2-	-6834
34	-6835
4%	-6836
41	-6837
73	-6838
8.	-6839
82	-6840
85	-6841
89	-6842
98	-6843
bt	-6844
do	-6845
hl	-6846
mh	-6847
.1%	-6848
.2)	-6849
057	-6850
078	-6851
1,8	-6852
1.8	-6853
191	-6854
3,5	-6855
4,8	-6856
5%)	-6857
5,8	-6858
534	-6859
6,8	-6860
63,	-6861
67,	-6862
687	-6863
7,6	-6864
9,3	-6865
9,7	-6866
948	-6867
95%	-6868
abs	-6869
ada	-6870
ady	-6871
ana	-6872
apy	-6873
awn	-6874
azz	-6875
def	-6876
eel	-6877
elt	-6878
ero	-6879
fam	-6880
fat	-6881
gev	-6882
gin	-6883
hig	-6884
hoe	-6885
hsa	-6886
hyl	-6887
icu	-6888
iet	-6889
iff	-6890
igs	-6891
ino	-6892
inp	-6893
iny	-6894
isf	-6895
lac	-6896
lad	-6897
law	-6898
mal	-6899
sl	-6900
cks	-6901
ibl	-6902
lig	-6903
mas	-6904
men	-6905
nob	-6906
oma	-6907
oni	-6908
orb	-6909
orc	-6910
otr	-6911
ows	-6912
pis	-6913
ply	-6914
pop	-6915
rea	-6916
rec	-6917
rem	-6918
rew	-6919
roc	-6920
row	-6921
sem	-6922
six	-6923
ugh	-6924
unc	-6925
urt	-6926
usc	-6927
uts	-6928
yal	-6929
▁1-	-6930
▁4)	-6931
▁56	-6932
▁6.	-6933
▁78	-6934
▁95	-6935
▁Ac	-6936
▁Ev	-6937
▁Is	-6938
▁Wr	-6939
▁ci	-6940
▁er	-6941
▁ku	-6942
▁li	-6943
▁mr	-6944
▁ni	-6945
▁pu	-6946
▁sl	-6947
▁sr	-6948
▁tu	-6949
▁xi	-6950
▁zo	-6951
,336	-6952
,866	-6953
-2),	-6954
.5%.	-6955
acht	-6956
acon	-6957
acts	-6958
aids	-6959
aism	-6960
alid	-6961
anda	-6962
anka	-6963
apse	-6964
ario	-6965
beit	-6966
copr	-6967
ecca	-6968
ecdc	-6969
econ	-6970
ells	-6971
elve	-6972
flam	-6973
fold	-6974
gets	-6975
ging	-6976
hing	-6977
hips	-6978
host	-6979
ibly	-6980
iced	-6981
icus	-6982
idae	-6983
ikes	-6984
imir	-6985
indu	-6986
itar	-6987
iter	-6988
know	-6989
lasm	-6990
morr	-6991
ocol	-6992
olio	-6993
ovir	-6994
ower	-6995
sess	-6996
tery	-6997
test	-6998
tive	-6999
-17	-7000
aba	-7001
eps	-7002
imp	-7003
nia	-7004
wet	-7005
▁".	-7006
▁3%	-7007
▁5%	-7008
▁Ma	-7009
▁cz	-7010
▁tv	-7011
asti	-7012
mult	-7013
olia	-7014
sell	-7015
took	-7016
tral	-7017
ttes	-7018
ubai	-7019
ucia	-7020
ufen	-7021
umes	-7022
uous	-7023
upro	-7024
uris	-7025
vert	-7026
view	-7027
west	-7028
ymme	-7029
▁(13	-7030
▁0.2	-7031
▁1,2	-7032
▁1.1	-7033
▁1.7	-7034
▁10-	-7035
▁10.	-7036
▁2.4	-7037
▁3,3	-7038
▁31.	-7039
▁358	-7040
▁5.7	-7041
▁69,	-7042
▁Bat	-7043
▁Bet	-7044
▁Buy	-7045
▁Cdc	-7046
▁Col	-7047
▁Cre	-7048
▁Exp	-7049
▁Fer	-7050
▁Inc	-7051
▁Ing	-7052
▁Int	-7053
▁May	-7054
▁Nas	-7055
▁Off	-7056
▁Ser	-7057
▁Sus	-7058
▁Vol	-7059
▁asp	-7060
▁atl	-7061
▁ble	-7062
▁bor	-7063
▁bub	-7064
▁bup	-7065
▁cmr	-7066
▁cnn	-7067
▁dip	-7068
▁dos	-7069
▁dow	-7070
▁ema	-7071
▁emp	-7072
▁err	-7073
▁eti	-7074
▁fly	-7075
▁hon	-7076
▁hsa	-7077
▁ide	-7078
▁ifr	-7079
▁igg	-7080
▁igm	-7081
▁ios	-7082
▁ken	-7083
▁kid	-7084
▁lao	-7085
▁lik	-7086
▁liv	-7087
▁mix	-7088
▁mos	-7089
▁opp	-7090
▁ped	-7091
▁pps	-7092
▁pup	-7093
▁rig	-7094
▁sac	-7095
▁say	-7096
▁sil	-7097
▁spe	-7098
▁spl	-7099
108	-7100
576	-7101
ivo	-7102
▁72	-7103
▁8:	-7104
arct	-7105
ette	-7106
free	-7107
gins	-7108
ipro	-7109
nees	-7110
oked	-7111
pack	-7112
teen	-7113
ucid	-7114
▁2,2	-7115
▁lav	-7116
▁sri	-7117
▁tob	-7118
▁wen	-7119
▁yes	-7120
aflet	-7121
allow	-7122
althy	-7123
ancet	-7124
anger	-7125
annel	-7126
anted	-7127
apsed	-7128
asing	-7129
astle	-7130
aysia	-7131
bania	-7132
banon	-7133
borns	-7134
bride	-7135
china	-7136
eadow	-7137
easef	-7138
effic	-7139
elfen	-7140
emned	-7141
enced	-7142
ender	-7143
enous	-7144
ensin	-7145
eptid	-7146
ergic	-7147
eshoe	-7148
eters	-7149
forts	-7150
gence	-7151
gment	-7152
hange	-7153
hoids	-7154
lates	-7155
meath	-7156
newed	-7157
ogene	-7158
ollen	-7159
oloph	-7160
opine	-7161
orbid	-7162
oreal	-7163
ought	-7164
ountr	-7165
point	-7166
pport	-7167
raine	-7168
razil	-7169
rosyn	-7170
tarol	-7171
uleve	-7172
undry	-7173
using	-7174
utely	-7175
▁(6.5	-7176
▁(95%	-7177
▁0.1%	-7178
▁10%.	-7179
▁1860	-7180
▁1890	-7181
▁1918	-7182
▁1968	-7183
▁2004	-7184
▁2010	-7185
▁238,	-7186
▁240,	-7187
▁242,	-7188
▁251,	-7189
▁3.89	-7190
▁4,13	-7191
▁4,58	-7192
▁6.30	-7193
▁Also	-7194
▁Bend	-7195
▁Case	-7196
▁Caus	-7197
▁Conc	-7198
▁Disp	-7199
8%	-7200
cep	-7201
scr	-7202
suf	-7203
▁94	-7204
iece	-7205
ilty	-7206
inda	-7207
roid	-7208
ugal	-7209
ugel	-7210
▁14%	-7211
▁15%	-7212
▁18,	-7213
▁19,	-7214
▁23,	-7215
▁Age	-7216
▁Pro	-7217
▁Rna	-7218
▁Var	-7219
▁dna	-7220
▁ple	-7221
ausea	-7222
azard	-7223
glass	-7224
icles	-7225
ixian	-7226
unged	-7227
while	-7228
▁221,	-7229
▁231,	-7230
▁243,	-7231
▁247,	-7232
▁Both	-7233
▁Does	-7234
▁Done	-7235
▁Down	-7236
▁Food	-7237
▁Head	-7238
▁Live	-7239
▁Mill	-7240
▁Mrna	-7241
▁Prov	-7242
▁Pubs	-7243
▁Rcgp	-7244
▁Rest	-7245
▁Safe	-7246
▁Side	-7247
▁Sing	-7248
▁Sore	-7249
▁Sour	-7250
▁Text	-7251
▁Tour	-7252
▁Walk	-7253
▁acts	-7254
▁aids	-7255
▁aldi	-7256
▁anth	-7257
▁ards	-7258
▁bend	-7259
▁bent	-7260
▁bona	-7261
▁born	-7262
▁bulb	-7263
▁cast	-7264
▁cata	-7265
▁chem	-7266
▁club	-7267
▁colm	-7268
▁copd	-7269
▁copy	-7270
▁core	-7271
▁crew	-7272
▁deaf	-7273
▁doll	-7274
▁ease	-7275
▁emot	-7276
▁encl	-7277
▁epic	-7278
▁ever	-7279
▁exit	-7280
▁fake	-7281
▁fash	-7282
▁flat	-7283
▁fort	-7284
▁gang	-7285
▁gave	-7286
▁gift	-7287
▁golf	-7288
▁grip	-7289
▁hips	-7290
▁hors	-7291
▁ifrs	-7292
▁itin	-7293
▁jazz	-7294
▁jian	-7295
▁jinp	-7296
▁jose	-7297
▁kids	-7298
▁kiss	-7299
mony	-7300
▁2,8	-7301
▁labs	-7302
▁land	-7303
▁legs	-7304
▁lots	-7305
▁loud	-7306
▁lrti	-7307
▁mayo	-7308
▁mood	-7309
▁mour	-7310
▁note	-7311
▁oral	-7312
▁pace	-7313
▁page	-7314
▁pair	-7315
▁palm	-7316
▁pict	-7317
▁prec	-7318
▁qual	-7319
▁rail	-7320
▁rbds	-7321
▁rich	-7322
▁riot	-7323
▁scam	-7324
▁seem	-7325
▁shan	-7326
▁shop	-7327
▁spat	-7328
▁spor	-7329
▁stad	-7330
▁stem	-7331
▁subd	-7332
▁subm	-7333
▁suic	-7334
▁tame	-7335
▁tens	-7336
▁tiny	-7337
▁trip	-7338
▁ultr	-7339
▁vast	-7340
▁vivo	-7341
▁vlad	-7342
▁wage	-7343
▁warr	-7344
▁wish	-7345
▁yoga	-7346
▁zhou	-7347
00,000	-7348
amples	-7349
aneous	-7350
ansfer	-7351
atever	-7352
athing	-7353
batcov	-7354
boards	-7355
caused	-7356
conded	-7357
county	-7358
during	-7359
ensing	-7360
erties	-7361
ferent	-7362
friend	-7363
gering	-7364
hering	-7365
hylact	-7366
ickens	-7367
igions	-7368
iguing	-7369
iridae	-7370
irinae	-7371
isters	-7372
itiser	-7373
lector	-7374
lowing	-7375
merman	-7376
nsaids	-7377
ologic	-7378
openia	-7379
oplasm	-7380
oppers	-7381
orcine	-7382
orkers	-7383
orknob	-7384
orpain	-7385
oteins	-7386
otypes	-7387
partum	-7388
phones	-7389
renton	-7390
ricult	-7391
series	-7392
social	-7393
ubator	-7394
ulance	-7395
umably	-7396
urizer	-7397
usable	-7398
ussell	-7399
▁2008,	-7400
▁2019-	-7401
▁3,000	-7402
▁4,534	-7403
▁4,906	-7404
▁4,921	-7405
▁8,000	-7406
▁8,866	-7407
▁Acute	-7408
▁Appro	-7409
▁Chest	-7410
▁Chief	-7411
▁Conta	-7412
▁Death	-7413
▁Given	-7414
▁Immun	-7415
▁Itchy	-7416
▁Labor	-7417
▁Masks	-7418
▁Phone	-7419
▁Pneum	-7420
▁Prior	-7421
▁Rapid	-7422
▁Small	-7423
▁Stret	-7424
▁Their	-7425
▁Think	-7426
▁Throw	-7427
▁Write	-7428
▁aband	-7429
▁abdom	-7430
▁abuse	-7431
▁adopt	-7432
▁adult	-7433
▁advil	-7434
▁ances	-7435
▁birds	-7436
▁built	-7437
▁buses	-7438
▁cafes	-7439
▁cards	-7440
▁cared	-7441
▁categ	-7442
▁choir	-7443
▁click	-7444
▁clots	-7445
▁coded	-7446
▁coinc	-7447
▁coles	-7448
▁color	-7449
▁compr	-7450
▁crude	-7451
▁cycle	-7452
▁czech	-7453
▁diclo	-7454
▁drawn	-7455
▁email	-7456
▁enjoy	-7457
▁etiqu	-7458
▁evict	-7459
▁faces	-7460
▁farms	-7461
▁fined	-7462
▁fixed	-7463
▁gaelt	-7464
▁gates	-7465
▁gathe	-7466
▁gowns	-7467
▁grand	-7468
▁grass	-7469
▁grief	-7470
▁hence	-7471
▁henry	-7472
▁hoard	-7473
▁humid	-7474
▁hypox	-7475
▁incur	-7476
▁initi	-7477
▁input	-7478
▁insuf	-7479
▁jesus	-7480
▁juris	-7481
▁juven	-7482
▁kilob	-7483
▁knees	-7484
▁lanka	-7485
▁lasts	-7486
▁latex	-7487
▁legal	-7488
▁lists	-7489
▁loose	-7490
▁lucia	-7491
▁maybe	-7492
▁meant	-7493
▁mecca	-7494
▁metab	-7495
▁mount	-7496
▁mrnas	-7497
▁niche	-7498
▁obese	-7499
▁obste	-7500
▁overs	-7501
▁paris	-7502
▁peers	-7503
▁price	-7504
▁putin	-7505
▁quite	-7506
▁radio	-7507
▁raise	-7508
▁reach	-7509
▁resid	-7510
▁reven	-7511
▁royal	-7512
▁saint	-7513
▁salon	-7514
▁scare	-7515
▁seoul	-7516
▁solar	-7517
▁sound	-7518
▁speed	-7519
▁spice	-7520
▁steel	-7521
▁super	-7522
▁teams	-7523
▁tears	-7524
▁texas	-7525
▁theme	-7526
▁topic	-7527
▁tours	-7528
▁trips	-7529
▁undet	-7530
▁value	-7531
▁wider	-7532
▁wings	-7533
▁words	-7534
▁wrong	-7535
amental	-7536
arctica	-7537
assador	-7538
aurants	-7539
avenous	-7540
clusive	-7541
covered	-7542
esterol	-7543
figures	-7544
gentina	-7545
highest	-7546
inantly	-7547
induced	-7548
induism	-7549
iprofen	-7550
ishment	-7551
itarian	-7552
itivity	-7553
january	-7554
ministr	-7555
olences	-7556
olophus	-7557
ongolia	-7558
ormonal	-7559
osition	-7560
ositive	-7561
ospital	-7562
pective	-7563
primary	-7564
reading	-7565
redient	-7566
rencing	-7567
ruption	-7568
support	-7569
through	-7570
trician	-7571
undreds	-7572
uppress	-7573
vaccine	-7574
venient	-7575
wearing	-7576
▁80,000	-7577
▁97,000	-7578
▁Adhere	-7579
▁Anyone	-7580
▁Brazil	-7581
▁Canada	-7582
▁Carlow	-7583
▁Castle	-7584
▁Change	-7585
▁Countr	-7586
▁Create	-7587
▁Deputy	-7588
▁Ensure	-7589
▁Ferret	-7590
▁Indeed	-7591
▁Living	-7592
▁Meadow	-7593
▁Nearly	-7594
▁Please	-7595
▁Random	-7596
▁Reduce	-7597
▁Resear	-7598
▁Safety	-7599
▁Severe	-7600
▁Taiwan	-7601
▁Unlike	-7602
▁Ventil	-7603
▁abbott	-7604
▁aboard	-7605
▁acknow	-7606
▁aggreg	-7607
▁analys	-7608
▁angiot	-7609
▁answer	-7610
▁aspect	-7611
▁asymme	-7612
▁autism	-7613
▁behave	-7614
▁bottle	-7615
▁breaks	-7616
▁brufen	-7617
▁brupro	-7618
▁buplex	-7619
▁cancel	-7620
▁castle	-7621
▁ceasef	-7622
▁checks	-7623
▁cheese	-7624
▁compli	-7625
▁consec	-7626
▁corona	-7627
▁curfew	-7628
▁dental	-7629
▁deputy	-7630
▁devast	-7631
▁diclac	-7632
▁difene	-7633
▁dissem	-7634
▁driver	-7635
▁elucid	-7636
▁embass	-7637
▁encode	-7638
▁eradic	-7639
▁exists	-7640
▁feline	-7641
▁fevers	-7642
▁filter	-7643
▁fitted	-7644
▁formed	-7645
▁genera	-7646
▁guests	-7647
▁guilty	-7648
▁harder	-7649
▁hunger	-7650
▁ibugel	-7651
▁ignore	-7652
▁infant	-7653
▁insert	-7654
▁integr	-7655
▁jixian	-7656
▁kuwait	-7657
▁lancet	-7658
▁limits	-7659
▁liquid	-7660
▁livest	-7661
▁mammal	-7662
▁marked	-7663
▁medics	-7664
▁medina	-7665
▁melfen	-7666
▁milder	-7667
▁minute	-7668
▁mouths	-7669
▁murine	-7670
▁nausea	-7671
▁papers	-7672
▁parade	-7673
▁physic	-7674
▁pieces	-7675
▁planet	-7676
▁predom	-7677
▁produc	-7678
▁propag	-7679
▁pupils	-7680
▁ranged	-7681
▁resusc	-7682
▁reveal	-7683
▁satisf	-7684
▁seemed	-7685
▁sentim	-7686
▁septic	-7687
▁serves	-7688
▁signal	-7689
▁simple	-7690
▁simply	-7691
▁spikes	-7692
▁strand	-7693
▁strike	-7694
▁stroke	-7695
▁suffic	-7696
▁superi	-7697
▁sweden	-7698
▁theory	-7699
▁timing	-7700
▁transp	-7701
▁twelve	-7702
▁vessel	-7703
▁washed	-7704
approved	-7705
catering	-7706
changing	-7707
clinical	-7708
counting	-7709
dictions	-7710
eachment	-7711
entioned	-7712
epending	-7713
eptidase	-7714
february	-7715
friendly	-7716
idential	-7717
invasive	-7718
ividuals	-7719
izziness	-7720
missible	-7721
ocytosis	-7722
ognitive	-7723
orporeal	-7724
otherapy	-7725
oviruses	-7726
pregnant	-7727
reaching	-7728
reactive	-7729
stricken	-7730
tinguish	-7731
▁Cinemas	-7732
▁Details	-7733
▁Develop	-7734
▁Donegal	-7735
▁Figures	-7736
▁Measles	-7737
▁Museums	-7738
▁Notably	-7739
▁Partial	-7740
▁Results	-7741
▁Sharing	-7742
▁Someone	-7743
▁Storing	-7744
▁Support	-7745
▁Univers	-7746
▁Vaccine	-7747
▁Various	-7748
▁affairs	-7749
▁aminotr	-7750
▁android	-7751
▁appears	-7752
▁article	-7753
▁artists	-7754
▁barbers	-7755
▁bilater	-7756
▁blocked	-7757
▁booking	-7758
▁broader	-7759
▁capture	-7760
▁carrier	-7761
▁caution	-7762
▁choices	-7763
▁clarify	-7764
▁climate	-7765
▁closest	-7766
▁compuls	-7767
▁consent	-7768
▁consequ	-7769
▁convers	-7770
▁cornell	-7771
▁crucial	-7772
▁dealing	-7773
▁decades	-7774
▁defence	-7775
▁defense	-7776
▁designs	-7777
▁discour	-7778
▁dispers	-7779
▁dollars	-7780
▁doubled	-7781
▁dynamic	-7782
▁easofen	-7783
▁enacted	-7784
▁evening	-7785
▁exactly	-7786
▁existed	-7787
▁factory	-7788
▁fallout	-7789
▁fashion	-7790
▁feeding	-7791
▁ferrets	-7792
▁filling	-7793
▁flector	-7794
▁gardens	-7795
▁georgia	-7796
▁glycopr	-7797
▁grounds	-7798
▁helpful	-7799
▁hostels	-7800
▁housing	-7801
▁hungary	-7802
▁ibuleve	-7803
▁identif	-7804
▁impacts	-7805
▁inactiv	-7806
▁inhaled	-7807
▁insight	-7808
▁interim	-7809
▁jinping	-7810
▁journey	-7811
▁judaism	-7812
▁koreans	-7813
▁leaders	-7814
▁leaflet	-7815
▁lebanon	-7816
▁letters	-7817
▁locally	-7818
▁looking	-7819
▁lowered	-7820
▁machine	-7821
▁mcbride	-7822
▁minimum	-7823
▁nothing	-7824
▁offices	-7825
▁onboard	-7826
▁passing	-7827
▁pattern	-7828
▁perfect	-7829
▁periods	-7830
▁persian	-7831
▁plunged	-7832
▁premier	-7833
▁proceed	-7834
▁proport	-7835
▁publish	-7836
▁purpose	-7837
▁radical	-7838
▁raising	-7839
▁readily	-7840
▁renewed	-7841
▁replace	-7842
▁revised	-7843
▁rollout	-7844
▁rubbing	-7845
▁rumours	-7846
▁running	-7847
▁schemes	-7848
▁science	-7849
▁selling	-7850
▁servers	-7851
▁sharply	-7852
▁slowing	-7853
▁smokers	-7854
▁spanish	-7855
▁stating	-7856
▁targets	-7857
▁teacher	-7858
▁tightly	-7859
▁tissues	-7860
▁tourist	-7861
▁trenton	-7862
▁ukraine	-7863
▁vehicle	-7864
▁violent	-7865
▁visible	-7866
▁weights	-7867
▁western	-7868
▁worries	-7869
▁written	-7870
ansferase	-7871
evolution	-7872
iplomatic	-7873
lementary	-7874
morrhoids	-7875
ochemical	-7876
structive	-7877
suspected	-7878
veillance	-7879
▁Antibody	-7880
▁Cleaning	-7881
▁Diabetes	-7882
▁Diarrhea	-7883
▁Download	-7884
▁Epidemic	-7885
▁European	-7886
▁Headache	-7887
▁Hospital	-7888
▁Hundreds	-7889
▁Immunity	-7890
▁Naprosyn	-7891
▁Outbreak	-7892
▁Physical	-7893
▁Pregnant	-7894
▁Thailand	-7895
▁Visiting	-7896
▁Voltarol	-7897
▁abnormal	-7898
▁adapting	-7899
▁admitted	-7900
▁affinity	-7901
▁agricult	-7902
▁allergic	-7903
▁analysts	-7904
▁appealed	-7905
▁applying	-7906
▁assembly	-7907
▁attitude	-7908
▁bathroom	-7909
▁becoming	-7910
▁calendar	-7911
▁capsules	-7912
▁carriers	-7913
▁cataflam	-7914
▁ceremony	-7915
▁checking	-7916
▁chickens	-7917
▁conclude	-7918
▁conjunct	-7919
▁consists	-7920
▁declares	-7921
▁declined	-7922
▁detained	-7923
▁directed	-7924
▁disaster	-7925
▁donation	-7926
▁doorknob	-7927
▁download	-7928
▁editions	-7929
▁elective	-7930
▁emotions	-7931
▁employed	-7932
▁endanger	-7933
▁enhanced	-7934
▁entirely	-7935
▁evolving	-7936
▁examined	-7937
▁facebook	-7938
▁feedback	-7939
▁fenopine	-7940
▁forecast	-7941
▁gathered	-7942
▁grieving	-7943
▁helpline	-7944
▁hoarding	-7945
▁imprison	-7946
▁isolates	-7947
▁jianghan	-7948
▁longford	-7949
▁malaysia	-7950
▁measured	-7951
▁mobility	-7952
▁mountjoy	-7953
▁newborns	-7954
▁nigerian	-7955
▁overtook	-7956
▁overview	-7957
▁partners	-7958
▁placenta	-7959
▁portugal	-7960
▁praising	-7961
▁printing	-7962
▁priority	-7963
▁projects	-7964
▁promised	-7965
▁reaching	-7966
▁reactive	-7967
▁recalled	-7968
▁refusing	-7969
▁reliance	-7970
▁removing	-7971
▁resource	-7972
▁scenario	-7973
▁shedding	-7974
▁shoppers	-7975
▁shoulder	-7976
▁shutdown	-7977
▁slightly	-7978
▁smallpox	-7979
▁socially	-7980
▁software	-7981
▁soldiers	-7982
▁sporadic	-7983
▁strongly	-7984
▁subjects	-7985
▁tourists	-7986
▁trackers	-7987
▁ultimate	-7988
▁unwashed	-7989
▁variants	-7990
▁verified	-7991
▁vladimir	-7992
▁whatever	-7993
▁wildlife	-7994
▁worksite	-7995
controlled	-7996
efficiency	-7997
especially	-7998
orbidities	-7999
regulation	-8000
▁Breathing	-8001
▁Countries	-8002
▁Different	-8003
▁Effective	-8004
▁Immediate	-8005
▁Potential	-8006
▁Tipperary	-8007
▁Treatment	-8008
▁absconded	-8009
▁ancestral	-8010
▁ascertain	-8011
▁attempted	-8012
▁awareness	-8013
▁behaviour	-8014
▁buildings	-8015
▁cardboard	-8016
▁causative	-8017
▁ceasefire	-8018
▁challenge	-8019
▁childhood	-8020
▁christmas	-8021
▁circulate	-8022
▁clarified	-8023
▁cocooning	-8024
▁condemned	-8025
▁confusion	-8026
▁contained	-8027
▁coronavac	-8028
▁coworkers	-8029
▁cytokines	-8030
▁dashboard	-8031
▁decentral	-8032
▁declaring	-8033
▁defective	-8034
▁dismissed	-8035
▁distances	-8036
▁elections	-8037
▁elsewhere	-8038
▁etiquette	-8039
▁evaluated	-8040
▁excluding	-8041
▁expertise	-8042
▁extremely	-8043
▁fertility	-8044
▁festivals	-8045
▁freephone	-8046
▁groceries	-8047
▁hepatitis	-8048
▁horseshoe	-8049
▁incubator	-8050
▁intention	-8051
▁interests	-8052
▁juveniles	-8053
▁kilobases	-8054
▁maternity	-8055
▁melbourne	-8056
▁mentioned	-8057
▁ministers	-8058
▁morbidity	-8059
▁naturally	-8060
▁permanent	-8061
▁polarized	-8062
▁pollution	-8063
▁predicted	-8064
▁prisoners	-8065
▁processes	-8066
▁pulmonary	-8067
▁readiness	-8068
▁recognise	-8069
▁recombine	-8070
▁requested	-8071
▁sanitiser	-8072
▁sequences	-8073
▁shipments	-8074
▁shoulders	-8075
▁similarly	-8076
▁stainless	-8077
▁structure	-8078
▁sustained	-8079
▁synthesis	-8080
▁technique	-8081
▁travelers	-8082
▁traveller	-8083
▁uncertain	-8084
▁witnessed	-8085
▁zimmerman	-8086
normalities	-8087
▁Disposable	-8088
▁Infectious	-8089
▁Ingredient	-8090
▁Iobuprofen	-8091
▁Laboratory	-8092
▁Medication	-8093
▁Subsequent	-8094
▁actiprofen	-8095
▁activation	-8096
▁addressing	-8097
▁administer	-8098
▁ambassador	-8099
▁antarctica	-8100
▁approaches	-8101
▁asymmetric	-8102
▁attempting	-8103
▁attendance	-8104
▁attendants	-8105
▁authorised	-8106
▁background	-8107
▁beneficial	-8108
▁classified	-8109
▁concerning	-8110
▁confidence	-8111
▁confirming	-8112
▁constitute	-8113
▁continents	-8114
▁contribute	-8115
▁critically	-8116
▁definition	-8117
▁dehydrated	-8118
▁describing	-8119
▁directives	-8120
▁divergence	-8121
▁eliminated	-8122
▁essentials	-8123
▁evacuating	-8124
▁eventually	-8125
▁expression	-8126
▁generation	-8127
▁governance	-8128
▁impossible	-8129
▁indication	-8130
▁installing	-8131
▁interferon	-8132
▁minimizing	-8133
▁optimistic	-8134
▁parameters	-8135
▁permission	-8136
▁postpartum	-8137
▁presenting	-8138
▁processing	-8139
▁properties	-8140
▁reasonable	-8141
▁recognises	-8142
▁recommence	-8143
▁reductions	-8144
▁remarkable	-8145
▁remarkably	-8146
▁resolution	-8147
▁respirator	-8148
▁saturation	-8149
▁separating	-8150
▁similarity	-8151
▁subgenomic	-8152
▁supporting	-8153
▁suspending	-8154
▁transition	-8155
▁translated	-8156
▁undetected	-8157
▁variations	-8158
▁vegetables	-8159
▁ventilated	-8160
ministrative	-8161
▁Containment	-8162
▁Flexibility	-8163
▁Individuals	-8164
▁Medications	-8165
▁Researchers	-8166
▁Restaurants	-8167
▁Vaccination	-8168
▁angiotensin	-8169
▁cholesterol	-8170
▁condolences	-8171
▁consecutive	-8172
▁continually	-8173
▁controversy	-8174
▁coordinated	-8175
▁definitions	-8176
▁destination	-8177
▁devastating	-8178
▁distinguish	-8179
▁encountered	-8180
▁exacerbated	-8181
▁fundamental	-8182
▁impeachment	-8183
▁ineffective	-8184
▁infectivity	-8185
▁interrupted	-8186
▁intravenous	-8187
▁lymphocytes	-8188
▁moisturizer	-8189
▁observation	-8190
▁observatory	-8191
▁obstructive	-8192
▁percentages	-8193
▁progressing	-8194
▁progressive	-8195
▁projections	-8196
▁publication	-8197
▁responsible	-8198
▁stillbirths	-8199
▁supermarket	-8200
▁sustainable	-8201
▁transaction	-8202
▁understands	-8203
▁undiagnosed	-8204
▁unnecessary	-8205
transcriptase	-8206
unprecedented	-8207
▁Asymptomatic	-8208
▁Restrictions	-8209
▁Universities	-8210
▁agricultural	-8211
▁celebrations	-8212
▁confidential	-8213
▁connectivity	-8214
▁continuously	-8215
▁conversation	-8216
▁coordination	-8217
▁experimental	-8218
▁humanitarian	-8219
▁implementing	-8220
▁inconclusive	-8221
▁increasingly	-8222
▁inflammation	-8223
▁insufficient	-8224
▁investigated	-8225
▁neurological	-8226
▁neutralizing	-8227
▁obstetrician	-8228
▁pathological	-8229
▁presentation	-8230
▁rhinoviruses	-8231
▁similarities	-8232
▁sufficiently	-8233
▁therapeutics	-8234
▁transmitting	-8235
▁unexpectedly	-8236
▁unvaccinated	-8237
▁Approximately	-8238
▁authorization	-8239
▁automatically	-8240
▁characterized	-8241
▁concentration	-8242
▁consideration	-8243
▁coronaviridae	-8244
▁functionality	-8245
▁jurisdictions	-8246
▁methodologies	-8247
▁organisations	-8248
▁predominantly	-8249
▁professionals	-8250
▁resuscitation	-8251
▁retrospective	-8252
▁administrators	-8253
▁immunosuppress	-8254
▁infectiousness	-8255
▁misinformation	-8256
▁municipalities	-8257
▁recommendation	-8258
▁characteristics	-8259
▁corticosteroids	-8260
▁retrospectively	-8261
-64	-8262
.15	-8263
013	-8264
096	-8265
160	-8266
174	-8267
179	-8268
189	-8269
204	-8270
279	-8271
3.5	-8272
303	-8273
37.	-8274
397	-8275
402	-8276
437	-8277
452	-8278
466	-8279
509	-8280
548	-8281
647	-8282
65.	-8283
651	-8284
7,5	-8285
743	-8286
9%.	-8287
9,8	-8288
904	-8289
92%	-8290
945	-8291
cfr	-8292
exp	-8293
iii	-8294
kyo	-8295
nio	-8296
wsb	-8297
zeg	-8298
-100	-8299
gu	-8300
la	-8301
aqu	-8302
awi	-8303
rsc	-8304
▁'.	-8305
-300	-8306
.0-7	-8307
.2).	-8308
.7%)	-8309
07.2	-8310
5%),	-8311
7,93	-8312
8,25	-8313
avax	-8314
beth	-8315
copd	-8316
corp	-8317
corv	-8318
draw	-8319
ecmo	-8320
fema	-8321
fume	-8322
ghai	-8323
hism	-8324
hurt	-8325
idyl	-8326
inmo	-8327
isco	-8328
iscu	-8329
kmen	-8330
lege	-8331
lrti	-8332
nces	-8333
orny	-8334
oyle	-8335
pims	-8336
roph	-8337
rump	-8338
swer	-8339
tabl	-8340
ubei	-8341
uela	-8342
xico	-8343
▁'."	-8344
▁(10	-8345
▁(78	-8346
▁0.3	-8347
▁01,	-8348
▁1,3	-8349
▁17,	-8350
▁2.0	-8351
▁215	-8352
▁3,4	-8353
▁3,5	-8354
▁3,6	-8355
▁3,9	-8356
▁3.5	-8357
▁313	-8358
▁364	-8359
▁371	-8360
▁381	-8361
▁4.7	-8362
▁40-	-8363
▁402	-8364
▁420	-8365
▁431	-8366
▁434	-8367
▁437	-8368
▁457	-8369
▁575	-8370
▁7,8	-8371
▁75%	-8372
▁86%	-8373
▁9.5	-8374
▁Aer	-8375
▁Def	-8376
▁Law	-8377
▁Ord	-8378
▁bah	-8379
▁ceo	-8380
▁lux	-8381
▁nbc	-8382
▁nhl	-8383
▁nsa	-8384
▁okl	-8385
▁qat	-8386
▁utc	-8387
▁wcu	-8388
-19",	-8389
-19".	-8390
-2020	-8391
.1.1.	-8392
1,600	-8393
2,500	-8394
abric	-8395
ahoma	-8396
antic	-8397
apped	-8398
attle	-8399
7%	-8400
mi	-8401
ye	-8402
940	-8403
bab	-8404
ibv	-8405
mod	-8406
ocd	-8407
olk	-8408
ovo	-8409
uds	-8410
una	-8411
▁bl	-8412
▁iv	-8413
aked	-8414
atab	-8415
aved	-8416
elly	-8417
ilio	-8418
nedy	-8419
ream	-8420
thoc	-8421
▁(47	-8422
▁1.3	-8423
▁20%	-8424
▁20-	-8425
▁87%	-8426
▁Che	-8427
▁Eye	-8428
▁Mod	-8429
▁gav	-8430
▁sab	-8431
▁vik	-8432
agent	-8433
babwe	-8434
bourg	-8435
chron	-8436
comir	-8437
consc	-8438
dimer	-8439
edged	-8440
eling	-8441
fenac	-8442
first	-8443
gical	-8444
ginal	-8445
grain	-8446
hcovs	-8447
ifein	-8448
ifery	-8449
ipped	-8450
iproc	-8451
isans	-8452
itius	-8453
lanch	-8454
liang	-8455
liest	-8456
mitry	-8457
month	-8458
novel	-8459
ocket	-8460
ocomp	-8461
olved	-8462
ombia	-8463
onias	-8464
oscop	-8465
osols	-8466
osovo	-8467
otees	-8468
owder	-8469
oxide	-8470
parts	-8471
pheic	-8472
plane	-8473
rewsb	-8474
roxen	-8475
sarsr	-8476
spike	-8477
thods	-8478
trole	-8479
ubmed	-8480
ucted	-8481
udson	-8482
ulite	-8483
ussia	-8484
xford	-8485
yesus	-8486
zegov	-8487
▁(50%	-8488
▁.2).	-8489
▁1,37	-8490
▁1,38	-8491
▁1.61	-8492
▁15,8	-8493
▁179,	-8494
▁1950	-8495
▁1960	-8496
▁1977	-8497
▁2,94	-8498
▁2015	-8499
',	-8500
rh	-8501
aca	-8502
acu	-8503
bod	-8504
erj	-8505
hal	-8506
num	-8507
ull	-8508
yst	-8509
▁(4	-8510
adow	-8511
amus	-8512
asta	-8513
atto	-8514
city	-8515
igan	-8516
orse	-8517
quir	-8518
seir	-8519
▁2.2	-8520
▁25%	-8521
▁Imp	-8522
▁Ros	-8523
▁Tou	-8524
▁nlr	-8525
▁oce	-8526
▁rab	-8527
▁sew	-8528
▁sho	-8529
▁tax	-8530
▁una	-8531
acuum	-8532
attoo	-8533
bodia	-8534
estig	-8535
eties	-8536
ingly	-8537
onies	-8538
opper	-8539
otton	-8540
virus	-8541
which	-8542
▁2,60	-8543
▁211,	-8544
▁223,	-8545
▁226,	-8546
▁228,	-8547
▁232,	-8548
▁233,	-8549
▁235,	-8550
▁244,	-8551
▁246,	-8552
▁252,	-8553
▁4,63	-8554
▁4,66	-8555
▁4.7%	-8556
▁5-17	-8557
▁5.30	-8558
▁Amid	-8559
▁Arts	-8560
▁Exam	-8561
▁Gyms	-8562
▁Lift	-8563
▁Loch	-8564
▁Mask	-8565
▁Maur	-8566
▁Mayo	-8567
▁Mean	-8568
▁Note	-8569
▁Osha	-8570
▁Rdrp	-8571
▁Shia	-8572
▁Smok	-8573
▁Surf	-8574
▁Susp	-8575
▁Turn	-8576
▁Unit	-8577
▁alan	-8578
▁anch	-8579
▁army	-8580
▁auck	-8581
▁bacc	-8582
▁bias	-8583
▁bibl	-8584
▁bubb	-8585
▁chin	-8586
▁cuba	-8587
▁damp	-8588
▁debt	-8589
▁dess	-8590
▁ears	-8591
▁elig	-8592
▁entr	-8593
▁ethi	-8594
▁fibr	-8595
▁flag	-8596
▁font	-8597
▁gamb	-8598
▁gluc	-8599
Cl	-8600
dp	-8601
cha	-8602
cho	-8603
cne	-8604
ett	-8605
ifr	-8606
igi	-8607
izo	-8608
ova	-8609
thm	-8610
▁(8	-8611
▁Id	-8612
▁cf	-8613
-19;	-8614
lers	-8615
live	-8616
pizo	-8617
rath	-8618
urdy	-8619
▁150	-8620
▁2,5	-8621
▁4,4	-8622
▁520	-8623
▁545	-8624
▁Act	-8625
▁Gps	-8626
▁His	-8627
▁Rel	-8628
▁Wor	-8629
▁ans	-8630
▁bol	-8631
▁cfb	-8632
▁ist	-8633
▁les	-8634
▁pit	-8635
▁voc	-8636
Close	-8637
ambig	-8638
ested	-8639
estly	-8640
gesia	-8641
illim	-8642
nucle	-8643
ophen	-8644
umans	-8645
wined	-8646
▁gaps	-8647
▁harb	-8648
▁heat	-8649
▁hier	-8650
▁horr	-8651
▁hump	-8652
▁hydr	-8653
▁icel	-8654
▁jair	-8655
▁john	-8656
▁kolk	-8657
▁lies	-8658
▁lips	-8659
▁load	-8660
▁lock	-8661
▁loop	-8662
▁lump	-8663
▁mala	-8664
▁medi	-8665
▁misc	-8666
▁negl	-8667
▁osha	-8668
▁oste	-8669
▁outl	-8670
▁outp	-8671
▁payw	-8672
▁peer	-8673
▁pigs	-8674
▁prej	-8675
▁prud	-8676
▁push	-8677
▁qing	-8678
▁ramp	-8679
▁rico	-8680
▁ring	-8681
▁runs	-8682
▁sess	-8683
▁sort	-8684
▁symb	-8685
▁tenn	-8686
▁trin	-8687
▁utah	-8688
▁vert	-8689
▁vide	-8690
▁viet	-8691
▁vikt	-8692
▁vote	-8693
▁word	-8694
▁zamb	-8695
▁zero	-8696
aillim	-8697
alysis	-8698
anying	-8699
.)	-8700
fi	-8701
ali	-8702
bit	-8703
cut	-8704
irl	-8705
log	-8706
may	-8707
ril	-8708
uay	-8709
url	-8710
xiv	-8711
zed	-8712
▁od	-8713
acle	-8714
agog	-8715
eric	-8716
eses	-8717
idel	-8718
inse	-8719
intr	-8720
osta	-8721
troy	-8722
▁121	-8723
▁448	-8724
▁Sep	-8725
▁bay	-8726
▁eff	-8727
▁exe	-8728
▁hal	-8729
▁ith	-8730
▁ive	-8731
▁orb	-8732
▁pot	-8733
▁sou	-8734
▁usa	-8735
ancer	-8736
april	-8737
cough	-8738
idine	-8739
onomy	-8740
osnia	-8741
udice	-8742
▁0.5%	-8743
▁Nail	-8744
▁Stop	-8745
▁girl	-8746
▁prol	-8747
arency	-8748
arrhal	-8749
aundry	-8750
bidden	-8751
bounds	-8752
centee	-8753
cience	-8754
design	-8755
eliver	-8756
elscre	-8757
ensely	-8758
erjady	-8759
esters	-8760
estine	-8761
eteria	-8762
ezuela	-8763
fected	-8764
hannon	-8765
health	-8766
iggins	-8767
inator	-8768
inscne	-8769
introd	-8770
iorxiv	-8771
ipping	-8772
irales	-8773
iravir	-8774
ishers	-8775
liness	-8776
luenza	-8777
minute	-8778
number	-8779
opanol	-8780
oscopy	-8781
ounted	-8782
oviria	-8783
pfizer	-8784
ptimal	-8785
recogn	-8786
remlin	-8787
report	-8788
retion	-8789
scramb	-8790
spread	-8791
stream	-8792
tamine	-8793
travel	-8794
twined	-8795
ulated	-8796
xidine	-8797
xtreme	-8798
▁(7.4%	-8799
cv	-8800
ya	-8801
3),	-8802
bre	-8803
dpp	-8804
iva	-8805
nat	-8806
sim	-8807
wer	-8808
▁Cr	-8809
▁Ip	-8810
▁ke	-8811
▁sí	-8812
ccov	-8813
earn	-8814
iped	-8815
naty	-8816
rase	-8817
uest	-8818
ursu	-8819
▁Fre	-8820
▁ana	-8821
▁bid	-8822
▁dut	-8823
▁ton	-8824
accep	-8825
ermud	-8826
hebre	-8827
iders	-8828
named	-8829
south	-8830
ycled	-8831
▁220,	-8832
▁Expl	-8833
▁Isol	-8834
▁West	-8835
▁conv	-8836
ancies	-8837
aptive	-8838
entist	-8839
ermuda	-8840
ipedia	-8841
ulence	-8842
▁1,099	-8843
▁1,191	-8844
▁1,261	-8845
▁1,700	-8846
▁10.30	-8847
▁18-64	-8848
▁1967,	-8849
▁2,608	-8850
▁2002.	-8851
▁2015,	-8852
▁3,120	-8853
▁3,150	-8854
▁3,405	-8855
▁3,948	-8856
▁4,319	-8857
▁4,566	-8858
▁4,718	-8859
▁4,785	-8860
▁4,836	-8861
▁4,929	-8862
▁6,174	-8863
▁6,500	-8864
▁8,096	-8865
▁9,336	-8866
▁94.5%	-8867
▁Austr	-8868
▁Avail	-8869
▁Begin	-8870
▁Build	-8871
▁Carry	-8872
▁Cavan	-8873
▁Cells	-8874
▁Colds	-8875
▁Coles	-8876
▁Corca	-8877
▁Doses	-8878
▁Ebola	-8879
▁Enrol	-8880
▁False	-8881
▁Fetal	-8882
▁Fewer	-8883
▁Hubei	-8884
▁Ident	-8885
▁Incre	-8886
▁Learn	-8887
▁Multi	-8888
▁Offer	-8889
▁Older	-8890
▁Owing	-8891
▁Preca	-8892
▁Prime	-8893
▁Swabs	-8894
▁Toile	-8895
▁Trump	-8896
▁Video	-8897
▁Whole	-8898
▁admon	-8899
,"	-8900
1%	-8901
aq	-8902
cp	-8903
eu	-8904
fh	-8905
fs	-8906
ss	-8907
yl	-8908
zx	-8909
488	-8910
ala	-8911
chs	-8912
inm	-8913
nda	-8914
nik	-8915
vol	-8916
▁--	-8917
▁Ur	-8918
▁ai	-8919
aras	-8920
ifth	-8921
ingo	-8922
kill	-8923
rcgp	-8924
▁25,	-8925
▁393	-8926
▁4,5	-8927
▁Arr	-8928
▁Hse	-8929
▁Mis	-8930
▁gmb	-8931
▁tun	-8932
asome	-8933
covzx	-8934
ioned	-8935
utnik	-8936
waras	-8937
▁1,00	-8938
▁Fold	-8939
▁ainm	-8940
▁cryo	-8941
▁dara	-8942
▁gmbh	-8943
▁goal	-8944
▁iraq	-8945
▁jord	-8946
▁micr	-8947
▁visa	-8948
▁zoos	-8949
alaure	-8950
family	-8951
nected	-8952
ormous	-8953
volume	-8954
▁2,488	-8955
▁2018,	-8956
▁Bingo	-8957
▁Close	-8958
▁World	-8959
▁accum	-8960
▁advoc	-8961
▁aerob	-8962
▁alter	-8963
▁answe	-8964
▁aruba	-8965
▁award	-8966
▁bands	-8967
▁bases	-8968
▁beans	-8969
▁begun	-8970
▁bilay	-8971
▁boris	-8972
▁brows	-8973
▁cakes	-8974
▁camel	-8975
▁cargo	-8976
▁cathe	-8977
▁caugh	-8978
▁chats	-8979
▁chose	-8980
▁chron	-8981
▁corps	-8982
▁covax	-8983
▁cured	-8984
▁datab	-8985
▁delhi	-8986
▁denom	-8987
▁distr	-8988
▁dubai	-8989
▁empty	-8990
▁epizo	-8991
▁error	-8992
▁exped	-8993
▁favip	-8994
▁favor	-8995
▁ferry	-8996
▁fifty	-8997
▁filed	-8998
▁flatt	-8999
11	-9000
9)	-9001
nf	-9002
uk	-9003
zo	-9004
.31	-9005
.35	-9006
aco	-9007
ado	-9008
dic	-9009
emy	-9010
ili	-9011
leg	-9012
mpl	-9013
comp	-9014
hand	-9015
idov	-9016
legm	-9017
onus	-9018
otho	-9019
reys	-9020
ulty	-9021
▁4.2	-9022
▁Dic	-9023
▁cfr	-9024
▁tnf	-9025
▁tum	-9026
hreys	-9027
icked	-9028
ptive	-9029
stead	-9030
ulted	-9031
▁204,	-9032
▁Book	-9033
▁Home	-9034
▁Hong	-9035
▁Show	-9036
▁maur	-9037
▁mone	-9038
▁phen	-9039
▁unpr	-9040
▁(0.31	-9041
▁12014	-9042
▁Apart	-9043
▁Diclo	-9044
▁bonus	-9045
▁effus	-9046
▁flybe	-9047
▁guard	-9048
▁hopes	-9049
▁lacks	-9050
▁laois	-9051
▁links	-9052
▁luigi	-9053
▁lunar	-9054
▁luxem	-9055
▁macau	-9056
▁meath	-9057
▁memes	-9058
▁mobil	-9059
▁money	-9060
▁morph	-9061
▁mosqu	-9062
▁motif	-9063
▁neare	-9064
▁neigh	-9065
▁nidov	-9066
▁nowru	-9067
▁owing	-9068
▁paulo	-9069
▁peaks	-9070
▁penal	-9071
▁penit	-9072
▁pheic	-9073
▁pierc	-9074
▁plaqu	-9075
▁plaus	-9076
▁plays	-9077
▁polio	-9078
▁portf	-9079
▁ports	-9080
▁puert	-9081
▁realm	-9082
▁recru	-9083
▁rigor	-9084
▁riots	-9085
▁roman	-9086
▁ruled	-9087
▁salts	-9088
▁scams	-9089
▁scott	-9090
▁secre	-9091
▁seeks	-9092
▁seems	-9093
▁sends	-9094
▁sixth	-9095
▁socio	-9096
▁steep	-9097
▁stopp	-9098
▁stops	-9099
fp	-9100
.1,	-9101
19.	-9102
400	-9103
796	-9104
bal	-9105
eck	-9106
eop	-9107
ini	-9108
thy	-9109
▁bh	-9110
▁dp	-9111
▁pp	-9112
away	-9113
azon	-9114
ecal	-9115
enic	-9116
epid	-9117
ites	-9118
oper	-9119
orra	-9120
that	-9121
▁2,0	-9122
▁2,1	-9123
▁Ble	-9124
▁agg	-9125
▁bud	-9126
▁hun	-9127
▁toe	-9128
conom	-9129
entry	-9130
hesia	-9131
ohort	-9132
putin	-9133
umbia	-9134
▁241,	-9135
▁Drug	-9136
▁Look	-9137
▁Neck	-9138
▁dock	-9139
▁epit	-9140
▁gest	-9141
▁jeop	-9142
▁mike	-9143
▁nlrp	-9144
▁pims	-9145
arters	-9146
conver	-9147
lature	-9148
orated	-9149
tailed	-9150
▁Blend	-9151
▁Seven	-9152
▁cavan	-9153
▁desks	-9154
▁harms	-9155
▁packs	-9156
▁pasta	-9157
▁sudan	-9158
▁síoch	-9159
▁towns	-9160
▁trash	-9161
▁trunc	-9162
▁trust	-9163
▁tumor	-9164
▁tunis	-9165
▁urban	-9166
▁usage	-9167
▁utens	-9168
▁valid	-9169
▁veter	-9170
▁vitam	-9171
▁vitro	-9172
▁wages	-9173
▁waste	-9174
▁wrote	-9175
▁yield	-9176
▁zones	-9177
.0-7.2)	-9178
agogues	-9179
aillimh	-9180
anation	-9181
ancisco	-9182
angolin	-9183
arriage	-9184
assment	-9185
atholic	-9186
atitude	-9187
aturely	-9188
chering	-9189
counter	-9190
courage	-9191
easonal	-9192
elihood	-9193
eptidyl	-9194
fluenza	-9195
henshan	-9196
ificial	-9197
ilkenny	-9198
imanded	-9199
qa	-9200
bed	-9201
kov	-9202
ser	-9203
vil	-9204
▁gt	-9205
▁id	-9206
▁nl	-9207
drew	-9208
erce	-9209
esty	-9210
gion	-9211
hiqa	-9212
idad	-9213
ided	-9214
inct	-9215
lict	-9216
ocon	-9217
omen	-9218
otal	-9219
tend	-9220
tent	-9221
▁4,0	-9222
▁Fix	-9223
▁dil	-9224
▁ele	-9225
▁mol	-9226
▁nom	-9227
arios	-9228
arman	-9229
eadly	-9230
enetr	-9231
eskov	-9232
ifden	-9233
ilead	-9234
iling	-9235
nesty	-9236
oplet	-9237
▁Slow	-9238
▁gove	-9239
▁imag	-9240
▁loan	-9241
▁lose	-9242
▁maio	-9243
▁rial	-9244
▁spot	-9245
▁tool	-9246
▁Saudi	-9247
▁anger	-9248
▁finis	-9249
▁guter	-9250
▁qatar	-9251
▁rials	-9252
▁stiff	-9253
▁surge	-9254
density	-9255
irement	-9256
iscuits	-9257
ivities	-9258
leading	-9259
matical	-9260
necting	-9261
neyland	-9262
nightly	-9263
ocolate	-9264
olutely	-9265
oration	-9266
orement	-9267
osocial	-9268
partate	-9269
quently	-9270
shannon	-9271
slowing	-9272
species	-9273
testing	-9274
troleum	-9275
ursuant	-9276
usement	-9277
▁(50%),	-9278
▁18,000	-9279
▁20,000	-9280
▁Answer	-9281
▁Blanch	-9282
▁Breast	-9283
▁Caring	-9284
▁Causes	-9285
▁Cigare	-9286
▁Closed	-9287
▁Commer	-9288
▁Deadly	-9289
▁Define	-9290
▁Detect	-9291
▁Except	-9292
▁Feline	-9293
▁Flight	-9294
▁Formal	-9295
▁Galway	-9296
▁Having	-9297
▁Hazard	-9298
▁Herein	-9299
83	-9300
ibp	-9301
itr	-9302
sia	-9303
uci	-9304
xia	-9305
▁1)	-9306
▁46	-9307
▁Ob	-9308
abil	-9309
arti	-9310
dong	-9311
emia	-9312
only	-9313
▁Aut	-9314
▁Pat	-9315
▁fem	-9316
▁jan	-9317
▁jun	-9318
▁kin	-9319
▁top	-9320
achta	-9321
arris	-9322
ister	-9323
suite	-9324
weigh	-9325
▁2,25	-9326
▁cord	-9327
▁dirt	-9328
▁hair	-9329
▁heed	-9330
▁kate	-9331
▁lent	-9332
▁moun	-9333
▁sacr	-9334
▁sets	-9335
atient	-9336
itised	-9337
osures	-9338
oundly	-9339
▁12013	-9340
▁Apply	-9341
▁fauci	-9342
▁heter	-9343
▁louis	-9344
▁loved	-9345
▁mayor	-9346
▁ribos	-9347
▁simon	-9348
aracter	-9349
artment	-9350
atively	-9351
ferably	-9352
istance	-9353
siaarti	-9354
▁21,600	-9355
▁Author	-9356
▁Humans	-9357
▁Indoor	-9358
▁Making	-9359
▁Offaly	-9360
▁Option	-9361
▁Pfizer	-9362
▁Russia	-9363
▁Select	-9364
▁Should	-9365
▁Simple	-9366
▁Slowly	-9367
▁Specim	-9368
▁Stocks	-9369
▁Stroke	-9370
▁Tattoo	-9371
▁Thorny	-9372
▁Unesco	-9373
▁absorb	-9374
▁accord	-9375
▁accred	-9376
▁adjust	-9377
▁airway	-9378
▁amazon	-9379
▁anaest	-9380
▁analog	-9381
▁anatom	-9382
▁asians	-9383
▁baltic	-9384
▁barred	-9385
▁barrel	-9386
▁beacon	-9387
▁belief	-9388
▁blamed	-9389
▁bleach	-9390
▁bosnia	-9391
▁bottom	-9392
▁branda	-9393
▁breakf	-9394
▁canine	-9395
▁capita	-9396
▁carbon	-9397
▁caught	-9398
▁cerebr	-9399
sk	-9400
8.3	-9401
mhv	-9402
osh	-9403
▁4%	-9404
▁53	-9405
▁54	-9406
▁58	-9407
▁My	-9408
▁ie	-9409
icit	-9410
izio	-9411
opsy	-9412
roup	-9413
▁4.8	-9414
▁Dec	-9415
▁ice	-9416
heast	-9417
vious	-9418
▁Than	-9419
▁bill	-9420
▁chap	-9421
▁euro	-9422
▁mall	-9423
▁mary	-9424
▁nice	-9425
▁nuts	-9426
▁rice	-9427
▁scar	-9428
▁vill	-9429
allies	-9430
either	-9431
oldova	-9432
oneous	-9433
oultry	-9434
utable	-9435
worthy	-9436
▁2,500	-9437
▁2020"	-9438
▁4,937	-9439
▁Chang	-9440
▁China	-9441
▁Https	-9442
▁Inter	-9443
▁Polio	-9444
▁bally	-9445
▁brain	-9446
▁bread	-9447
▁escal	-9448
▁helen	-9449
▁piece	-9450
▁plant	-9451
▁prepr	-9452
▁shelf	-9453
▁story	-9454
▁subun	-9455
▁Decide	-9456
▁Mental	-9457
▁Thanks	-9458
▁chills	-9459
▁cohort	-9460
▁conven	-9461
▁coping	-9462
▁cotton	-9463
▁courts	-9464
▁crimes	-9465
▁crispr	-9466
▁crying	-9467
▁deadly	-9468
▁defend	-9469
▁denied	-9470
▁differ	-9471
▁discom	-9472
▁dmitry	-9473
▁domain	-9474
▁dosage	-9475
▁equity	-9476
▁ethics	-9477
▁ethiop	-9478
▁evolve	-9479
▁excuse	-9480
▁exhaus	-9481
▁fabric	-9482
▁facial	-9483
▁faeces	-9484
▁failed	-9485
▁fallen	-9486
▁female	-9487
▁figure	-9488
▁finish	-9489
▁forces	-9490
▁forget	-9491
▁futuna	-9492
▁gilead	-9493
▁guards	-9494
▁halted	-9495
▁harris	-9496
▁hereby	-9497
▁hourly	-9498
▁houses	-9499
-2)	-9500
▁-2	-9501
▁-4	-9502
▁2.	-9503
▁6%	-9504
▁96	-9505
▁Hy	-9506
ipid	-9507
phet	-9508
take	-9509
▁/),	-9510
▁109	-9511
▁124	-9512
▁2,9	-9513
▁370	-9514
▁Fan	-9515
▁Fat	-9516
▁Fun	-9517
▁Inv	-9518
▁Occ	-9519
▁Ren	-9520
▁Swe	-9521
▁Upd	-9522
▁mul	-9523
▁saw	-9524
▁tie	-9525
atius	-9526
ensus	-9527
▁1000	-9528
▁2017	-9529
▁250,	-9530
▁None	-9531
▁Once	-9532
▁gurd	-9533
▁rain	-9534
▁vict	-9535
crosis	-9536
ensary	-9537
public	-9538
▁10-18	-9539
▁Hcovs	-9540
▁Renal	-9541
▁drast	-9542
▁gavin	-9543
▁heard	-9544
▁lipid	-9545
▁outlo	-9546
▁remar	-9547
▁surpr	-9548
easures	-9549
iations	-9550
ionally	-9551
▁Return	-9552
▁Strict	-9553
▁endors	-9554
▁expand	-9555
▁fusion	-9556
▁humour	-9557
▁hungry	-9558
▁impose	-9559
▁incred	-9560
▁ithaca	-9561
▁iveagh	-9562
▁jordan	-9563
▁junior	-9564
▁kicked	-9565
▁kidney	-9566
▁killer	-9567
▁kinase	-9568
▁kosovo	-9569
▁landed	-9570
▁lasted	-9571
▁latter	-9572
▁logged	-9573
▁losses	-9574
▁loudly	-9575
▁mainta	-9576
▁makers	-9577
▁malawi	-9578
▁meadow	-9579
▁medium	-9580
▁memory	-9581
▁monaco	-9582
▁newest	-9583
▁nomenc	-9584
▁notify	-9585
▁nsaids	-9586
▁offend	-9587
▁orthoc	-9588
▁overre	-9589
▁panama	-9590
▁passes	-9591
▁patrol	-9592
▁paused	-9593
▁penetr	-9594
▁penins	-9595
▁peskov	-9596
▁petrol	-9597
▁phrase	-9598
▁plague	-9599
31	-9600
750	-9601
oal	-9602
vac	-9603
you	-9604
▁2%	-9605
▁6-	-9606
▁66	-9607
▁69	-9608
▁Eu	-9609
agul	-9610
alks	-9611
erry	-9612
iran	-9613
▁10%	-9614
▁114	-9615
▁13.	-9616
▁37%	-9617
▁59.	-9618
▁78,	-9619
▁End	-9620
▁ath	-9621
▁fip	-9622
▁lie	-9623
▁scr	-9624
atten	-9625
ivors	-9626
▁245,	-9627
▁Sick	-9628
▁coal	-9629
▁fema	-9630
▁flow	-9631
▁laid	-9632
▁seal	-9633
ivitis	-9634
laoise	-9635
revers	-9636
tralia	-9637
▁3,500	-9638
▁Dress	-9639
▁Eight	-9640
▁Press	-9641
▁compl	-9642
▁expon	-9643
▁genes	-9644
▁meter	-9645
▁remit	-9646
▁scrap	-9647
▁tokyo	-9648
▁wipes	-9649
▁Always	-9650
▁attach	-9651
▁copper	-9652
▁famine	-9653
▁fields	-9654
▁inland	-9655
▁mexico	-9656
▁newsom	-9657
▁player	-9658
▁polypr	-9659
▁poorly	-9660
▁powder	-9661
▁prompt	-9662
▁proved	-9663
▁pubmed	-9664
▁puerto	-9665
▁punish	-9666
▁quoted	-9667
▁racing	-9668
▁really	-9669
▁reform	-9670
▁refund	-9671
▁relied	-9672
▁resign	-9673
▁ribbon	-9674
▁routes	-9675
▁saliva	-9676
▁scales	-9677
▁sealed	-9678
▁seized	-9679
▁serbia	-9680
▁serial	-9681
▁server	-9682
▁shifts	-9683
▁sister	-9684
▁skills	-9685
▁slowed	-9686
▁smoker	-9687
▁snomed	-9688
▁sooner	-9689
▁sounds	-9690
▁square	-9691
▁stable	-9692
▁stocks	-9693
▁stored	-9694
▁sturdy	-9695
▁summar	-9696
▁switch	-9697
▁tennis	-9698
▁thromb	-9699
rob	-9700
zar	-9701
▁Gu	-9702
bind	-9703
cope	-9704
illa	-9705
irts	-9706
opec	-9707
osha	-9708
pled	-9709
supp	-9710
tion	-9711
▁140	-9712
▁179	-9713
▁19.	-9714
▁2,6	-9715
▁4).	-9716
▁5),	-9717
▁700	-9718
▁Ass	-9719
▁mcc	-9720
0,000	-9721
1,000	-9722
3,000	-9723
ensed	-9724
iedcr	-9725
onged	-9726
ounts	-9727
▁14.5	-9728
▁eust	-9729
▁ghan	-9730
▁mink	-9731
▁sint	-9732
forest	-9733
itants	-9734
themed	-9735
▁4,600	-9736
▁bound	-9737
▁conce	-9738
▁decry	-9739
▁faith	-9740
▁judge	-9741
▁lough	-9742
▁maced	-9743
▁pulse	-9744
▁smart	-9745
▁unass	-9746
binding	-9747
ficulty	-9748
isition	-9749
otected	-9750
▁Econom	-9751
▁Little	-9752
▁actual	-9753
▁assure	-9754
▁consol	-9755
▁garman	-9756
▁hudson	-9757
▁nowruz	-9758
▁scared	-9759
▁thrown	-9760
▁tobago	-9761
▁unborn	-9762
▁urging	-9763
▁valves	-9764
▁vision	-9765
▁visual	-9766
▁wallis	-9767
▁watery	-9768
▁weaker	-9769
▁wiping	-9770
▁zambia	-9771
adjusted	-9772
affected	-9773
approval	-9774
ardstown	-9775
armament	-9776
berately	-9777
chronous	-9778
defender	-9779
economic	-9780
elscreen	-9781
entation	-9782
existing	-9783
hexidine	-9784
hylactic	-9785
iguingly	-9786
iniscent	-9787
iprocate	-9788
itations	-9789
itonitis	-9790
lamation	-9791
lemental	-9792
moderate	-9793
negative	-9794
olecular	-9795
pandemic	-9796
proifein	-9797
reported	-9798
rewsbury	-9799
gi	-9800
sn	-9801
43.	-9802
727	-9803
typ	-9804
▁62	-9805
▁nm	-9806
-92%	-9807
6%),	-9808
ader	-9809
erms	-9810
iums	-9811
omer	-9812
type	-9813
▁12-	-9814
▁129	-9815
▁388	-9816
▁425	-9817
▁sna	-9818
arked	-9819
germs	-9820
house	-9821
ithub	-9822
itled	-9823
ogeny	-9824
oglob	-9825
▁1957	-9826
▁2007	-9827
▁215,	-9828
▁254,	-9829
▁267,	-9830
▁Dark	-9831
▁cura	-9832
▁iata	-9833
▁mish	-9834
▁shin	-9835
atican	-9836
inking	-9837
ostics	-9838
▁Cause	-9839
▁Could	-9840
▁Raise	-9841
▁instr	-9842
▁keeps	-9843
▁louth	-9844
▁safer	-9845
▁stamp	-9846
andling	-9847
gestion	-9848
ociated	-9849
▁dining	-9850
▁donate	-9851
▁flying	-9852
▁german	-9853
▁masked	-9854
▁offers	-9855
▁pollut	-9856
▁starts	-9857
▁viktor	-9858
weighted	-9859
▁200-300	-9860
▁300,000	-9861
▁320,000	-9862
▁364,000	-9863
▁Agility	-9864
▁Airline	-9865
▁Albania	-9866
▁Altered	-9867
▁Arrange	-9868
▁Belgium	-9869
▁Changes	-9870
▁Chronic	-9871
▁Concert	-9872
▁Disease	-9873
▁Efforts	-9874
▁Feeling	-9875
▁Higgins	-9876
▁Instead	-9877
▁Laundry	-9878
▁Methods	-9879
▁Optimal	-9880
▁Overall	-9881
▁Persons	-9882
▁Porcine	-9883
▁Primary	-9884
▁Private	-9885
▁Project	-9886
▁Raising	-9887
▁Regular	-9888
▁Russell	-9889
▁Samples	-9890
▁Smoking	-9891
▁Sneezes	-9892
▁Sources	-9893
▁Special	-9894
▁Species	-9895
▁Stomach	-9896
▁Studies	-9897
▁Talking	-9898
▁Tourism	-9899
hung	-9900
turb	-9901
▁265	-9902
▁Six	-9903
▁beng	-9904
▁feng	-9905
course	-9906
hunger	-9907
ximate	-9908
▁Blood	-9909
▁feces	-9910
▁oblig	-9911
▁30,000	-9912
▁behalf	-9913
▁lesser	-9914
▁marino	-9915
▁tourna	-9916
zegovina	-9917
▁Unconsc	-9918
▁Walking	-9919
▁Whether	-9920
▁Wicklow	-9921
▁Workers	-9922
▁Working	-9923
▁abandon	-9924
▁abdomen	-9925
▁absence	-9926
▁accumul	-9927
▁adviser	-9928
▁advises	-9929
▁aggress	-9930
▁allergy	-9931
▁altered	-9932
▁amnesty	-9933
▁amongst	-9934
▁anatomy	-9935
▁anthony	-9936
▁anxious	-9937
▁applies	-9938
▁arising	-9939
▁aspects	-9940
▁assumes	-9941
▁attilio	-9942
▁barrier	-9943
▁belgium	-9944
▁benefit	-9945
▁besides	-9946
▁bilayer	-9947
▁biorxiv	-9948
▁bonaire	-9949
▁bubbles	-9950
▁bulbous	-9951
▁cardiop	-9952
▁carrick	-9953
▁cereals	-9954
▁channel	-9955
▁chapels	-9956
▁checked	-9957
▁clarity	-9958
▁cleaner	-9959
▁cleaves	-9960
▁compens	-9961
▁concert	-9962
▁congreg	-9963
▁conting	-9964
▁damages	-9965
▁dancing	-9966
▁daycare	-9967
▁dentist	-9968
▁diocese	-9969
▁diploma	-9970
▁display	-9971
▁disprop	-9972
▁disrupt	-9973
▁distant	-9974
▁diverse	-9975
▁drastic	-9976
▁emptied	-9977
▁endemic	-9978
▁enzymes	-9979
▁estates	-9980
▁ethanol	-9981
▁expects	-9982
▁expense	-9983
▁extract	-9984
▁fifteen	-9985
▁filters	-9986
▁finding	-9987
▁fontana	-9988
▁forward	-9989
▁freight	-9990
▁gangelt	-9991
▁granted	-9992
▁grocery	-9993
▁grouped	-9994
▁handles	-9995
▁harmful	-9996
▁hazards	-9997
▁heather	-9998
▁heavily	-9999
▁helping	-10000
▁hotspot	-10001
▁hypoxia	-10002
▁iceland	-10003
▁induced	-10004
▁injured	-10005
▁instant	-10006
▁invalid	-10007
▁invoked	-10008
▁jeopard	-10009
▁jumping	-10010
▁kennedy	-10011
▁killing	-10012
▁kolkata	-10013
▁labcorp	-10014
▁leather	-10015
▁lesotho	-10016
▁linking	-10017
▁macbeth	-10018
▁macroph	-10019
▁malaise	-10020
▁malaria	-10021
▁managed	-10022
▁mandate	-10023
▁markers	-10024
▁massari	-10025
▁mcentee	-10026
▁melinda	-10027
▁migrant	-10028
▁moldova	-10029
▁monthly	-10030
▁mosques	-10031
▁mutated	-10032
▁nearest	-10033
▁needing	-10034
▁newborn	-10035
▁noticed	-10036
▁novavax	-10037
▁nuclear	-10038
▁nursery	-10039
▁oceania	-10040
▁olympic	-10041
▁opening	-10042
▁operate	-10043
▁opinion	-10044
▁optimal	-10045
▁osteone	-10046
▁outlook	-10047
▁partial	-10048
▁passage	-10049
▁passive	-10050
▁perfume	-10051
▁persist	-10052
▁picture	-10053
▁pitches	-10054
▁playing	-10055
▁pledged	-10056
▁pleural	-10057
▁popular	-10058
▁porpain	-10059
▁preterm	-10060
▁princip	-10061
▁pulling	-10062
▁qualify	-10063
▁ratings	-10064
▁realize	-10065
▁relapse	-10066
▁remarks	-10067
▁renamed	-10068
▁resumed	-10069
▁revenue	-10070
▁sadness	-10071
▁seattle	-10072
▁session	-10073
▁shaking	-10074
▁shelter	-10075
▁shelves	-10076
▁shields	-10077
▁singing	-10078
▁sparked	-10079
▁streets	-10080
▁subsidy	-10081
▁summary	-10082
▁swedish	-10083
▁swollen	-10084
▁temples	-10085
▁thereby	-10086
▁thermal	-10087
▁tinyurl	-10088
▁toilets	-10089
▁tourism	-10090
▁traders	-10091
▁tunisia	-10092
▁turkmen	-10093
▁unaccep	-10094
▁vatican	-10095
▁vietnam	-10096
▁village	-10097
▁waiving	-10098
▁warrant	-10099
▁wealthy	-10100
▁weekend	-10101
▁willing	-10102
▁writing	-10103
▁yoghurt	-10104
according	-10105
alaureate	-10106
ambiguous	-10107
australia	-10108
comirnaty	-10109
eliveries	-10110
ghanistan	-10111
iterature	-10112
operation	-10113
opropanol	-10114
reversing	-10115
scrambled	-10116
▁Abnormal	-10117
▁Churches	-10118
▁Corcaigh	-10119
▁Coughing	-10120
▁Evidence	-10121
▁Gaillimh	-10122
▁Infected	-10123
▁Likewise	-10124
▁Lockdown	-10125
▁Longfort	-10126
▁Millions	-10127
▁Multiple	-10128
▁Naproxen	-10129
▁Negative	-10130
▁Official	-10131
▁Ordinary	-10132
▁Organise	-10133
▁Pakistan	-10134
▁Pandemic	-10135
▁Pangolin	-10136
▁Planning	-10137
▁Positive	-10138
▁Reducing	-10139
▁Seasonal	-10140
▁Students	-10141
▁Surfaces	-10142
▁Surgical	-10143
▁Tertiary	-10144
▁Theaters	-10145
▁Together	-10146
▁accepted	-10147
▁accounts	-10148
▁achieved	-10149
▁actually	-10150
▁adjusted	-10151
▁advanced	-10152
▁advising	-10153
▁affirmed	-10154
▁airplane	-10155
▁airports	-10156
▁alveolar	-10157
▁analyzed	-10158
▁answered	-10159
▁assaults	-10160
▁atlantic	-10161
▁attempts	-10162
▁atypical	-10163
▁auckland	-10164
▁auctions	-10165
▁bacteria	-10166
▁baseline	-10167
▁biblical	-10168
▁broadway	-10169
▁cambodia	-10170
▁catching	-10171
▁category	-10172
▁catholic	-10173
▁cheaters	-10174
▁cleaners	-10175
▁climates	-10176
▁clotting	-10177
▁collects	-10178
▁colombia	-10179
▁colonies	-10180
▁columbia	-10181
▁comeback	-10182
▁commerce	-10183
▁computed	-10184
▁concepts	-10185
▁confined	-10186
▁conflict	-10187
▁confused	-10188
▁corecept	-10189
▁counterm	-10190
▁creatine	-10191
▁curation	-10192
▁damaging	-10193
▁database	-10194
▁declines	-10195
▁demanded	-10196
▁destabil	-10197
▁devotees	-10198
▁dioceses	-10199
▁diplomas	-10200
▁disposed	-10201
▁distinct	-10202
▁dynamics	-10203
▁election	-10204
▁eligible	-10205
▁emergent	-10206
▁employee	-10207
▁enclosed	-10208
▁endorsed	-10209
▁enormous	-10210
▁ethiopia	-10211
▁etiology	-10212
▁eventual	-10213
▁eviction	-10214
▁exchange	-10215
▁expanded	-10216
▁explored	-10217
▁fighting	-10218
▁firework	-10219
▁focusing	-10220
▁forehead	-10221
▁formerly	-10222
▁fraction	-10223
▁funerals	-10224
▁greatest	-10225
▁guterres	-10226
▁happened	-10227
▁harbours	-10228
▁hierarch	-10229
▁hinduism	-10230
▁homeless	-10231
▁hormonal	-10232
▁hotspots	-10233
▁humidity	-10234
▁hygienic	-10235
▁imperial	-10236
▁implying	-10237
▁imposing	-10238
▁improved	-10239
▁inaction	-10240
▁incoming	-10241
▁independ	-10242
▁inducing	-10243
▁inflamed	-10244
▁informal	-10245
▁leftover	-10246
▁licences	-10247
▁machines	-10248
▁marginal	-10249
▁matching	-10250
▁mediates	-10251
▁medicals	-10252
▁meerjady	-10253
▁millions	-10254
▁momentum	-10255
▁monaghan	-10256
▁mongolia	-10257
▁monument	-10258
▁mounting	-10259
▁mourners	-10260
▁oklahoma	-10261
▁olympics	-10262
▁operated	-10263
▁opinions	-10264
▁outweigh	-10265
▁overseas	-10266
▁packages	-10267
▁passages	-10268
▁paywalls	-10269
▁peroxide	-10270
▁piercing	-10271
▁policing	-10272
▁politico	-10273
▁politics	-10274
▁powerful	-10275
▁premises	-10276
▁preprint	-10277
▁prevents	-10278
▁producer	-10279
▁promotes	-10280
▁proposal	-10281
▁publicly	-10282
▁purposes	-10283
▁quantify	-10284
▁quantity	-10285
▁quarters	-10286
▁question	-10287
▁radicals	-10288
▁randomly	-10289
▁rebounds	-10290
▁rejected	-10291
▁remarked	-10292
▁remotely	-10293
▁replaced	-10294
▁requests	-10295
▁reserves	-10296
▁responds	-10297
▁reusable	-10298
▁rotation	-10299
▁scanners	-10300
▁sections	-10301
▁sensible	-10302
▁sessions	-10303
▁shanghai	-10304
▁sharpest	-10305
▁shifting	-10306
▁shipment	-10307
▁societal	-10308
▁solution	-10309
▁somebody	-10310
▁spending	-10311
▁stadiums	-10312
▁sticking	-10313
▁stoppage	-10314
▁struggle	-10315
▁suffered	-10316
▁supplier	-10317
▁sympathy	-10318
▁thousand	-10319
▁townland	-10320
▁transfer	-10321
▁traveled	-10322
▁traveler	-10323
▁trinidad	-10324
▁tropical	-10325
▁uncommon	-10326
▁uploaded	-10327
▁utensils	-10328
▁versions	-10329
▁vertical	-10330
▁vesicles	-10331
▁videocon	-10332
▁wenliang	-10333
▁wherever	-10334
▁withdraw	-10335
▁withdrew	-10336
▁zimbabwe	-10337
▁zoonosis	-10338
acorporeal	-10339
containing	-10340
converting	-10341
designated	-10342
diplomatic	-10343
estigating	-10344
hebreyesus	-10345
identified	-10346
multimedia	-10347
nucleotide	-10348
opolitical	-10349
ourishment	-10350
population	-10351
preserving	-10352
recognized	-10353
solidarity	-10354
technology	-10355
▁(3.0-7.2)	-10356
▁Antiviral	-10357
▁Available	-10358
▁Beginning	-10359
▁Bluetooth	-10360
▁Castlerea	-10361
▁Character	-10362
▁Depending	-10363
▁Disinfect	-10364
▁Emergence	-10365
▁Encourage	-10366
▁Influenza	-10367
▁Meanwhile	-10368
▁Pneumonia	-10369
▁Political	-10370
▁Practices	-10371
▁Providing	-10372
▁Singapore	-10373
▁Transport	-10374
▁Waterford	-10375
▁Westmeath	-10376
▁Workplace	-10377
▁abilities	-10378
▁accepting	-10379
▁acquiring	-10380
▁activated	-10381
▁activists	-10382
▁aforement	-10383
▁allegedly	-10384
▁allocated	-10385
▁allowance	-10386
▁alongside	-10387
▁ambulance	-10388
▁amusement	-10389
▁analgesia	-10390
▁analysing	-10391
▁argentina	-10392
▁aspartate	-10393
▁assaulted	-10394
▁avascular	-10395
▁breakfast	-10396
▁cafeteria	-10397
▁canadians	-10398
▁catarrhal	-10399
▁cellulite	-10400
▁certified	-10401
▁chocolate	-10402
▁clearance	-10403
▁collapsed	-10404
▁comparing	-10405
▁component	-10406
▁comprises	-10407
▁consensus	-10408
▁considers	-10409
▁converted	-10410
▁cytoplasm	-10411
▁declining	-10412
▁departure	-10413
▁designate	-10414
▁discharge	-10415
▁discussed	-10416
▁dismissal	-10417
▁disorders	-10418
▁dispersal	-10419
▁divergent	-10420
▁diversity	-10421
▁dizziness	-10422
▁downloads	-10423
▁durations	-10424
▁economies	-10425
▁economist	-10426
▁effusions	-10427
▁eliminate	-10428
▁embassies	-10429
▁emphasize	-10430
▁epicenter	-10431
▁epidemics	-10432
▁epizootic	-10433
▁eustatius	-10434
▁everybody	-10435
▁exception	-10436
▁expensive	-10437
▁exporting	-10438
▁exposures	-10439
▁fireworks	-10440
▁followers	-10441
▁forbidden	-10442
▁formation	-10443
▁framework	-10444
▁francisco	-10445
▁gaeltacht	-10446
▁generates	-10447
▁genotypes	-10448
▁gestation	-10449
▁gratitude	-10450
▁gurdwaras	-10451
▁headaches	-10452
▁healthier	-10453
▁humphreys	-10454
▁inability	-10455
▁infecting	-10456
▁inhabited	-10457
▁injection	-10458
▁inspected	-10459
▁instances	-10460
▁intensity	-10461
▁interacts	-10462
▁interfere	-10463
▁investing	-10464
▁itinerary	-10465
▁licensing	-10466
▁listening	-10467
▁livestock	-10468
▁localized	-10469
▁macedonia	-10470
▁maintains	-10471
▁marketing	-10472
▁medically	-10473
▁metabolic	-10474
▁midwifery	-10475
▁migration	-10476
▁newspaper	-10477
▁occasions	-10478
▁organizer	-10479
▁originate	-10480
▁overnight	-10481
▁overtaken	-10482
▁palestine	-10483
▁paperwork	-10484
▁pathology	-10485
▁pediatric	-10486
▁penetrate	-10487
▁peptidase	-10488
▁petroleum	-10489
▁practical	-10490
▁preferred	-10491
▁prejudice	-10492
▁prevented	-10493
▁prioritis	-10494
▁radiology	-10495
▁reasoning	-10496
▁relieving	-10497
▁reproduct	-10498
▁riboviria	-10499
▁scenarios	-10500
▁secretory	-10501
▁sequenced	-10502
▁spokesman	-10503
▁squeezing	-10504
▁staggered	-10505
▁strategic	-10506
▁subfamily	-10507
▁subjected	-10508
▁submitted	-10509
▁suffering	-10510
▁superiors	-10511
▁survivors	-10512
▁switching	-10513
▁technical	-10514
▁temperate	-10515
▁templates	-10516
▁tightness	-10517
▁triggered	-10518
▁truncated	-10519
▁varieties	-10520
▁venezuela	-10521
▁volunteer	-10522
▁wellbeing	-10523
▁wikimedia	-10524
▁wikipedia	-10525
▁worsening	-10526
engineering	-10527
respiratory	-10528
urveillance	-10529
▁Activities	-10530
▁Bangladesh	-10531
▁Bookmakers	-10532
▁Businesses	-10533
▁Comparably	-10534
▁Connecting	-10535
▁Contagious	-10536
▁Corruption	-10537
▁Diagnostic	-10538
▁Diclofenac	-10539
▁Difficulty	-10540
▁Increasing	-10541
▁Incubation	-10542
▁Precaution	-10543
▁Presumably	-10544
▁Prioritize	-10545
▁Remdesivir	-10546
▁Shrewsbury	-10547
▁Stretching	-10548
▁Suspension	-10549
▁absolutely	-10550
▁accelerate	-10551
▁acceptance	-10552
▁accordance	-10553
▁accredited	-10554
▁adenovirus	-10555
▁admonished	-10556
▁allocation	-10557
▁ambulatory	-10558
▁apparently	-10559
▁assemblies	-10560
▁authorized	-10561
▁butchering	-10562
▁calculator	-10563
▁capability	-10564
▁cellphones	-10565
▁childbirth	-10566
▁christians	-10567
▁cigarettes	-10568
▁clinicians	-10569
▁commitment	-10570
▁comparable	-10571
▁completion	-10572
▁compliance	-10573
▁compulsive	-10574
▁conference	-10575
▁congestion	-10576
▁consequent	-10577
▁consulates	-10578
▁consultant	-10579
▁contacting	-10580
▁convention	-10581
▁coordinate	-10582
▁dashboards	-10583
▁deliveries	-10584
▁detectable	-10585
▁dipeptidyl	-10586
▁disappears	-10587
▁discomfort	-10588
▁discontent	-10589
▁discussing	-10590
▁dismissals	-10591
▁disneyland	-10592
▁dispensary	-10593
▁disrupting	-10594
▁distribute	-10595
▁emphasized	-10596
▁employment	-10597
▁engagement	-10598
▁eradicated	-10599
▁everything	-10600
▁everywhere	-10601
▁federation	-10602
▁flattening	-10603
▁geographic	-10604
▁harassment	-10605
▁heightened	-10606
▁identifies	-10607
▁imperative	-10608
▁industries	-10609
▁influenced	-10610
▁initiative	-10611
▁injectable	-10612
▁interferes	-10613
▁intubation	-10614
▁likelihood	-10615
▁luxembourg	-10616
▁mainstream	-10617
▁meaningful	-10618
▁microscope	-10619
▁microscopy	-10620
▁minimising	-10621
▁morphology	-10622
▁multimedia	-10623
▁negligence	-10624
▁neurologic	-10625
▁newspapers	-10626
▁noteworthy	-10627
▁opposition	-10628
▁originates	-10629
▁outpatient	-10630
▁paralleliz	-10631
▁physicians	-10632
▁placements	-10633
▁pollutants	-10634
▁portlaoise	-10635
▁positivity	-10636
▁practising	-10637
▁preference	-10638
▁preschools	-10639
▁profoundly	-10640
▁prognostic	-10641
▁progressed	-10642
▁provisions	-10643
▁publishers	-10644
▁quantities	-10645
▁recognizes	-10646
▁regulation	-10647
▁relaxation	-10648
▁sanitation	-10649
▁secretions	-10650
▁sentiments	-10651
▁staggering	-10652
▁statements	-10653
▁struggling	-10654
▁subdivided	-10655
▁substitute	-10656
▁synagogues	-10657
▁thoroughly	-10658
▁toxicities	-10659
▁ultimately	-10660
▁veterinary	-10661
▁virologist	-10662
oronavirinae	-10663
▁Authorities	-10664
▁Cleanliness	-10665
▁Development	-10666
▁Infectivity	-10667
▁Shincheonji	-10668
▁Unconscious	-10669
▁acknowledge	-10670
▁acquisition	-10671
▁anaesthesia	-10672
▁approaching	-10673
▁approximate	-10674
▁bilaterally	-10675
▁constructed	-10676
▁contractors	-10677
▁contributed	-10678
▁convenience	-10679
▁denominator	-10680
▁descriptive	-10681
▁descriptors	-10682
▁diagnostics	-10683
▁differently	-10684
▁disarmament	-10685
▁distraction	-10686
▁drastically	-10687
▁dysfunction	-10688
▁exhibitions	-10689
▁explanation	-10690
▁exponential	-10691
▁favipiravir	-10692
▁fortnightly	-10693
▁hemorrhoids	-10694
▁herzegovina	-10695
▁highlighted	-10696
▁inactivated	-10697
▁influential	-10698
▁inhabitants	-10699
▁integration	-10700
▁interacting	-10701
▁interchange	-10702
▁interesting	-10703
▁intertwined	-10704
▁investigate	-10705
▁involvement	-10706
▁legislative	-10707
▁micrographs	-10708
▁miscarriage	-10709
▁mishandling	-10710
▁necessities	-10711
▁nidovirales	-10712
▁nutritional	-10713
▁observances	-10714
▁overloading	-10715
▁oxygenation	-10716
▁penitential	-10717
▁peritonitis	-10718
▁perspective	-10719
▁plasticitis	-10720
▁pneumocytes	-10721
▁preclinical	-10722
▁pregnancies	-10723
▁prematurely	-10724
▁preparation	-10725
▁prioritised	-10726
▁proportions	-10727
▁radiography	-10728
▁reciprocate	-10729
▁recognition	-10730
▁recombinant	-10731
▁reminiscent	-10732
▁reprimanded	-10733
▁rhinolophus	-10734
▁shincheonji	-10735
▁socialising	-10736
▁symptomless	-10737
▁transferred	-10738
▁transparent	-10739
▁unprotected	-10740
▁virologists	-10741
supplementary	-10742
transmissible	-10743
▁Intriguingly	-10744
▁accelerating	-10745
▁accidentally	-10746
▁accompanying	-10747
▁accumulation	-10748
▁capabilities	-10749
▁combinations	-10750
▁commissioner	-10751
▁conferencing	-10752
▁consequences	-10753
▁considerable	-10754
▁constitution	-10755
▁contributing	-10756
▁counterparts	-10757
▁declarations	-10758
▁deliberately	-10759
▁demonstrates	-10760
▁discontinued	-10761
▁discouraging	-10762
▁distributing	-10763
▁domestically	-10764
▁domesticated	-10765
▁dysfunctions	-10766
▁environments	-10767
▁facilitating	-10768
▁glycoprotein	-10769
▁governmental	-10770
▁homelessness	-10771
▁imprisonment	-10772
▁inconvenient	-10773
▁inflammasome	-10774
▁installation	-10775
▁interrupting	-10776
▁introduction	-10777
▁manufacturer	-10778
▁nomenclature	-10779
▁overreaction	-10780
▁photographic	-10781
▁polyproteins	-10782
▁presidential	-10783
▁preventative	-10784
▁proclamation	-10785
▁proofreading	-10786
▁prophylactic	-10787
▁psychosocial	-10788
▁publications	-10789
▁radiological	-10790
▁recommending	-10791
▁relationship	-10792
▁substitution	-10793
▁supplemental	-10794
▁turkmenistan	-10795
▁unacceptable	-10796
▁unassociated	-10797
▁undocumented	-10798
▁Organizations	-10799
▁Prescriptions	-10800
▁abnormalities	-10801
▁administering	-10802
▁baccalaureate	-10803
▁cancellations	-10804
▁championships	-10805
▁comorbidities	-10806
▁complementary	-10807
▁contraceptive	-10808
▁disadvantages	-10809
▁discontinuing	-10810
▁entertainment	-10811
▁establishment	-10812
▁independently	-10813
▁investigating	-10814
▁osteonecrosis	-10815
▁participation	-10816
▁possibilities	-10817
▁progressively	-10818
▁provisionally	-10819
▁transcriptase	-10820
▁undercounting	-10821
▁unnecessarily	-10822
▁vulnerability	-10823
▁Administrative	-10824
▁Blanchardstown	-10825
▁Characteristic	-10826
▁Misinformation	-10827
▁administrative	-10828
▁aforementioned	-10829
▁appropriations	-10830
▁conjunctivitis	-10831
▁disinformation	-10832
▁susceptibility	-10833
▁underestimated	-10834
▁underreporting	-10835
▁Epidemiological	-10836
▁cardiopulmonary	-10837
▁countermeasures	-10838
▁hospitalisation	-10839
▁physicochemical	-10840
▁underestimation	-10841
111	-10842
7.6	-10843
711	-10844
822	-10845
981	-10846
bmi	-10847
btq	-10848
cpc	-10849
fhd	-10850
fih	-10851
hla	-10852
tcv	-10853
,548	-10854
,834	-10855
,841	-10856
.01%	-10857
.04%	-10858
.98%	-10859
002%	-10860
576.	-10861
9,85	-10862
agmh	-10863
bibp	-10864
cvst	-10865
does	-10866
gbtq	-10867
npis	-10868
nuts	-10869
offs	-10870
reci	-10871
tgev	-10872
▁(98	-10873
▁-42	-10874
▁582	-10875
▁62%	-10876
▁92%	-10877
▁95-	-10878
▁Fss	-10879
▁Wfh	-10880
▁bgi	-10881
▁bmi	-10882
▁ccp	-10883
▁dpo	-10884
▁ffp	-10885
▁gsk	-10886
▁ivf	-10887
▁odh	-10888
▁puz	-10889
▁tyl	-10890
-100,	-10891
.002%	-10892
.6%),	-10893
0,191	-10894
0,402	-10895
0,437	-10896
0,727	-10897
1,875	-10898
2,160	-10899
,889	-10900
▁5,9	-10901
▁71%	-10902
▁71-	-10903
3,057	-10904
3,189	-10905
3,400	-10906
3,567	-10907
3,822	-10908
4,279	-10909
5,179	-10910
5,884	-10911
6,548	-10912
6,870	-10913
7,695	-10914
7,933	-10915
7.6%)	-10916
75%),	-10917
8,796	-10918
8,904	-10919
8-92%	-10920
9,325	-10921
9,332	-10922
9,437	-10923
9,768	-10924
abbit	-10925
aguay	-10926
arthy	-10927
atiya	-10928
azvac	-10929
cceed	-10930
fifth	-10931
ganda	-10932
hrath	-10933
hythm	-10934
hyxia	-10935
iffin	-10936
maybe	-10937
menia	-10938
moyle	-10939
nicus	-10940
nphet	-10941
oagul	-10942
oepid	-10943
omera	-10944
omnia	-10945
omscr	-10946
orado	-10947
orcha	-10948
power	-10949
quiry	-10950
simpl	-10951
snout	-10952
stabl	-10953
steps	-10954
swana	-10955
tario	-10956
ticul	-10957
uador	-10958
uguay	-10959
uilla	-10960
urzar	-10961
ville	-10962
ylene	-10963
▁(0.2	-10964
▁(1.8	-10965
▁(4.8	-10966
▁-44)	-10967
▁1,34	-10968
▁1.10	-10969
▁13,9	-10970
▁2.02	-10971
▁2.4.	-10972
▁21,8	-10973
▁23,0	-10974
▁25,2	-10975
▁31,8	-10976
▁4,42	-10977
▁40%.	-10978
▁5.7.	-10979
▁6.00	-10980
▁78.8	-10981
▁83,5	-10982
▁8665	-10983
▁Crit	-10984
▁Cutl	-10985
▁Full	-10986
▁Groc	-10987
▁Hydr	-10988
▁Lots	-10989
▁Prof	-10990
▁Punc	-10991
▁Push	-10992
▁Rube	-10993
▁Swab	-10994
▁Virt	-10995
▁apop	-10996
▁bhar	-10997
▁bhut	-10998
▁boli	-10999
1-7	-11000
726	-11001
887	-11002
bcv	-11003
fbc	-11004
rlr	-11005
tlr	-11006
.1.5	-11007
88%)	-11008
bofe	-11009
izzy	-11010
mini	-11011
rdrp	-11012
yche	-11013
▁3-7	-11014
▁672	-11015
▁788	-11016
▁988	-11017
▁fbc	-11018
-2019	-11019
1,887	-11020
1-7.2	-11021
2,726	-11022
agoza	-11023
bofey	-11024
icago	-11025
igmat	-11026
isaid	-11027
lanes	-11028
minus	-11029
oalis	-11030
▁0.7%	-11031
▁3,77	-11032
▁5.2%	-11033
▁Deli	-11034
▁Fats	-11035
▁Reli	-11036
▁dper	-11037
▁echo	-11038
▁epis	-11039
▁felt	-11040
▁idea	-11041
▁join	-11042
▁keen	-11043
▁kett	-11044
▁lady	-11045
▁mhra	-11046
▁mosc	-11047
▁npis	-11048
▁odor	-11049
▁oita	-11050
▁pedv	-11051
▁rdrp	-11052
▁saba	-11053
▁sara	-11054
▁shoe	-11055
▁sibl	-11056
▁slov	-11057
▁sorb	-11058
▁soup	-11059
▁taxi	-11060
▁tgev	-11061
▁zoom	-11062
-25%),	-11063
.1.525	-11064
50,889	-11065
60.7%)	-11066
8,251.	-11067
achtas	-11068
achtaí	-11069
advert	-11070
aindic	-11071
alesce	-11072
anking	-11073
arader	-11074
cancer	-11075
cgrath	-11076
choice	-11077
dicott	-11078
gevity	-11079
heagmh	-11080
impact	-11081
iracle	-11082
laimed	-11083
latten	-11084
lawful	-11085
liveir	-11086
omenon	-11087
opathy	-11088
oupled	-11089
ousett	-11090
phlegm	-11091
points	-11092
reaved	-11093
shirts	-11094
within	-11095
ychell	-11096
▁(0.4%	-11097
▁(13-2	-11098
▁(2.2%	-11099
.1.6	-11100
7,554	-11101
arais	-11102
.1.617	-11103
rocyte	-11104
titial	-11105
▁(27%)	-11106
▁(4.8-	-11107
▁(55%)	-11108
▁(88%)	-11109
▁0.01%	-11110
▁0.24%	-11111
▁1,006	-11112
▁1,078	-11113
▁1,108	-11114
▁1,179	-11115
▁1,247	-11116
▁1,335	-11117
▁1,342	-11118
▁10.00	-11119
▁10.6%	-11120
▁15,88	-11121
▁15-17	-11122
▁174,8	-11123
▁197,5	-11124
▁2,040	-11125
▁2,153	-11126
▁2,248	-11127
▁2,252	-11128
▁2,282	-11129
▁2,307	-11130
▁2,336	-11131
▁2,344	-11132
▁2,400	-11133
▁2,536	-11134
▁2,595	-11135
▁2,616	-11136
▁2,700	-11137
▁2,818	-11138
▁2,870	-11139
▁2,947	-11140
▁2,977	-11141
▁2.4%)	-11142
▁2015-	-11143
▁2017.	-11144
▁203,5	-11145
▁206,8	-11146
▁211,1	-11147
▁225,8	-11148
▁226,3	-11149
▁228,2	-11150
▁229,3	-11151
▁233,3	-11152
▁233,9	-11153
▁238,9	-11154
▁239,7	-11155
▁241,3	-11156
▁242,8	-11157
▁243,2	-11158
▁244,6	-11159
▁25%."	-11160
▁254,4	-11161
▁290.5	-11162
▁3,307	-11163
▁3,317	-11164
▁3,394	-11165
▁3,512	-11166
▁3,621	-11167
▁3,674	-11168
▁3,687	-11169
▁3,900	-11170
▁30-65	-11171
▁374,8	-11172
▁4,135	-11173
▁4,136	-11174
▁4,452	-11175
▁4,499	-11176
▁4,518	-11177
▁4,576	-11178
▁4,585	-11179
▁4,631	-11180
▁4,651	-11181
▁4,687	-11182
▁4,783	-11183
▁4,831	-11184
▁4,872	-11185
▁4,903	-11186
▁4,940	-11187
▁4,989	-11188
▁4.7%.	-11189
▁77,93	-11190
▁8.5%.	-11191
▁96.2%	-11192
▁Assay	-11193
▁Cheat	-11194
▁Costa	-11195
▁Dubai	-11196
▁Lower	-11197
▁Major	-11198
▁Millt	-11199
snas	-11200
susp	-11201
yana	-11202
▁00:	-11203
▁1-3	-11204
▁2-3	-11205
▁49%	-11206
▁511	-11207
▁522	-11208
▁771	-11209
▁776	-11210
▁mcp	-11211
fairs	-11212
local	-11213
metry	-11214
posal	-11215
stuck	-11216
yanin	-11217
▁1-3%	-11218
▁1.44	-11219
▁571,	-11220
▁77.8	-11221
▁Ryan	-11222
▁fuel	-11223
▁garg	-11224
▁mcen	-11225
▁nmes	-11226
▁rnas	-11227
▁ryan	-11228
▁tidy	-11229
▁tilt	-11230
erbilt	-11231
heimer	-11232
invest	-11233
manuel	-11234
mbrell	-11235
mmetry	-11236
orrell	-11237
orship	-11238
possib	-11239
rellus	-11240
ulsory	-11241
▁Nasal	-11242
▁Order	-11243
▁Retur	-11244
▁Separ	-11245
▁Smoky	-11246
▁Steps	-11247
▁Touch	-11248
▁Willi	-11249
▁ababa	-11250
▁anthr	-11251
▁apopt	-11252
▁aspen	-11253
▁asthm	-11254
▁await	-11255
▁bacon	-11256
▁bryan	-11257
▁costa	-11258
▁croup	-11259
▁crypt	-11260
▁dilip	-11261
▁dipst	-11262
▁emphy	-11263
▁enemy	-11264
▁fairs	-11265
▁ficus	-11266
▁fidel	-11267
▁fizzy	-11268
▁gangs	-11269
▁ghana	-11270
▁habit	-11271
▁horse	-11272
▁hunan	-11273
▁ideas	-11274
▁irreg	-11275
▁istan	-11276
▁joins	-11277
▁josep	-11278
▁kelly	-11279
▁kenya	-11280
▁kidne	-11281
▁landl	-11282
▁laugh	-11283
▁lavab	-11284
▁liter	-11285
▁loman	-11286
▁niosh	-11287
▁obaid	-11288
▁ocado	-11289
▁odhar	-11290
▁photo	-11291
▁pleom	-11292
▁potat	-11293
▁povid	-11294
▁queue	-11295
▁recyc	-11296
▁robyn	-11297
▁roche	-11298
▁saved	-11299
231	-11300
541	-11301
,...	-11302
...'	-11303
627,	-11304
▁462	-11305
▁69-	-11306
▁awa	-11307
4,541	-11308
abama	-11309
amaat	-11310
apego	-11311
dishe	-11312
diure	-11313
▁9.3%	-11314
▁rodr	-11315
▁ulbi	-11316
apeake	-11317
bovine	-11318
deally	-11319
discov	-11320
diuret	-11321
lomers	-11322
▁1,062	-11323
▁17.3%	-11324
▁3,231	-11325
▁8627,	-11326
▁loads	-11327
▁sanzh	-11328
▁saves	-11329
▁shape	-11330
▁shoes	-11331
▁sinus	-11332
▁speak	-11333
▁stuck	-11334
▁sweet	-11335
▁texts	-11336
▁tuval	-11337
▁votes	-11338
.1.1.7,	-11339
1-7.23,	-11340
240,191	-11341
890,437	-11342
aghrain	-11343
allenge	-11344
angdong	-11345
apegoat	-11346
aragoza	-11347
because	-11348
correct	-11349
coupled	-11350
defined	-11351
derived	-11352
doomscr	-11353
efforts	-11354
eractiv	-11355
evolved	-11356
extreme	-11357
gmented	-11358
hbourne	-11359
healthy	-11360
hlauise	-11361
hythmia	-11362
ichever	-11363
ikingly	-11364
ildlife	-11365
iocytes	-11366
itrogen	-11367
ligeach	-11368
mbrella	-11369
obilize	-11370
ocompat	-11371
ocortic	-11372
oglobul	-11373
ohazard	-11374
olonged	-11375
osafety	-11376
oscopic	-11377
parency	-11378
quiries	-11379
sapeake	-11380
seventh	-11381
skating	-11382
snouted	-11383
sputnik	-11384
ysfunct	-11385
▁(27.3%	-11386
▁-42%),	-11387
▁-75%),	-11388
▁1,005,	-11389
▁10,013	-11390
▁10,700	-11391
▁11,687	-11392
▁12,336	-11393
▁12,841	-11394
▁120130	-11395
▁13,972	-11396
▁14,405	-11397
▁14.5%)	-11398
▁15,815	-11399
082	-11400
1-4	-11401
424	-11402
444	-11403
672	-11404
793	-11405
0800	-11406
aroa	-11407
augh	-11408
auru	-11409
▁-44	-11410
▁41-	-11411
▁44%	-11412
▁442	-11413
▁467	-11414
▁55-	-11415
▁556	-11416
▁624	-11417
▁679	-11418
▁687	-11419
▁8,2	-11420
▁879	-11421
▁944	-11422
▁Gaa	-11423
▁moz	-11424
.8%);	-11425
1-4.0	-11426
8,424	-11427
absol	-11428
bolic	-11429
▁20,2	-11430
▁4.6%	-11431
▁44%.	-11432
▁Bona	-11433
▁Feth	-11434
▁Liat	-11435
▁Swed	-11436
▁daig	-11437
▁mooc	-11438
1-4.05	-11439
abbing	-11440
aparoa	-11441
helial	-11442
ochlor	-11443
osocom	-11444
solves	-11445
umbing	-11446
▁(0800	-11447
▁4,082	-11448
▁4,824	-11449
▁41-50	-11450
▁8,248	-11451
▁Fresh	-11452
▁Nauru	-11453
▁afoul	-11454
▁armen	-11455
▁badly	-11456
▁dying	-11457
▁moocs	-11458
▁naugh	-11459
iatrist	-11460
ymbolic	-11461
▁16,834	-11462
▁17,750	-11463
▁179,54	-11464
▁2.02-4	-11465
▁20,280	-11466
▁211,75	-11467
▁220,27	-11468
▁221,64	-11469
▁223,95	-11470
▁226,74	-11471
▁23,091	-11472
▁23,400	-11473
▁231,53	-11474
▁232,16	-11475
▁240,19	-11476
▁241,68	-11477
▁242,10	-11478
▁243,50	-11479
▁244,29	-11480
▁246,63	-11481
▁250,29	-11482
▁252,80	-11483
▁267,94	-11484
▁269,32	-11485
▁3,778,	-11486
▁34.5%.	-11487
▁4,000-	-11488
▁4,600.	-11489
▁571,67	-11490
▁58,000	-11491
▁7.8%);	-11492
▁77,000	-11493
▁78,000	-11494
▁79,332	-11495
▁85-92%	-11496
▁88-92%	-11497
▁91,000	-11498
▁99.98%	-11499
3-4	-11500
▁0-4	-11501
▁3-4	-11502
▁5,3	-11503
3-4.8	-11504
7,613	-11505
▁Carn	-11506
▁budd	-11507
▁ethn	-11508
▁momo	-11509
3-4.82	-11510
▁11,07	-11511
▁2003;	-11512
▁229,8	-11513
▁400,3	-11514
▁5,325	-11515
▁Maybe	-11516
3-4.82.	-11517
checked	-11518
roorgan	-11519
▁(13.3%	-11520
▁11,072	-11521
▁Assess	-11522
▁Attend	-11523
▁Beyond	-11524
▁Bovine	-11525
▁Buyers	-11526
▁Coking	-11527
▁Comply	-11528
▁Establ	-11529
▁Events	-11530
▁Former	-11531
▁Fourth	-11532
▁Github	-11533
▁Highly	-11534
▁Immune	-11535
▁Israel	-11536
▁Lastly	-11537
▁Letter	-11538
▁Levels	-11539
▁Losing	-11540
▁Monday	-11541
▁Murine	-11542
▁Object	-11543
▁Office	-11544
▁Phlegm	-11545
▁Phylog	-11546
▁Pollen	-11547
▁Recent	-11548
▁Recomb	-11549
▁Recomm	-11550
▁Screen	-11551
▁Single	-11552
▁Source	-11553
▁Speech	-11554
▁Sweden	-11555
▁Toilet	-11556
▁Uganda	-11557
▁Urgent	-11558
▁Vacuum	-11559
▁abseir	-11560
▁afraid	-11561
▁aiming	-11562
▁alleys	-11563
▁amidst	-11564
▁aspren	-11565
▁barcel	-11566
▁bigger	-11567
▁bilmes	-11568
▁biopsy	-11569
▁bitter	-11570
▁bought	-11571
▁budget	-11572
▁chemis	-11573
▁coking	-11574
▁cordon	-11575
▁cycles	-11576
▁daigou	-11577
▁deeply	-11578
▁dessie	-11579
▁diaria	-11580
▁dozens	-11581
▁drills	-11582
▁elbows	-11583
▁emails	-11584
▁eoalis	-11585
▁epithe	-11586
▁ethnic	-11587
▁exempl	-11588
▁faecal	-11589
▁faulty	-11590
▁frying	-11591
▁gained	-11592
▁garter	-11593
▁gisaid	-11594
▁github	-11595
▁gomera	-11596
▁honest	-11597
▁hunter	-11598
▁intake	-11599
2%,	-11600
.3%,	-11601
617,	-11602
644.	-11603
9%).	-11604
▁(71	-11605
▁3.9	-11606
▁359	-11607
▁426	-11608
▁44.	-11609
▁461	-11610
▁5.9	-11611
▁65)	-11612
▁690	-11613
▁7.9	-11614
▁761	-11615
▁780	-11616
▁igc	-11617
.9%),	-11618
2,647	-11619
68%).	-11620
cmorr	-11621
polit	-11622
thugg	-11623
urkey	-11624
ystem	-11625
▁1790	-11626
▁30%,	-11627
▁82%,	-11628
▁amni	-11629
▁azar	-11630
▁niac	-11631
.59%).	-11632
617,20	-11633
8,644.	-11634
clical	-11635
crimin	-11636
istema	-11637
orrhea	-11638
recomm	-11639
system	-11640
uggage	-11641
yspnea	-11642
▁14,74	-11643
▁2.3%,	-11644
▁2004.	-11645
▁2024.	-11646
▁3,600	-11647
▁34%).	-11648
▁39%).	-11649
▁5.9%,	-11650
▁7.9%.	-11651
▁Mathe	-11652
▁Polit	-11653
▁Teach	-11654
▁igcse	-11655
▁smugg	-11656
1.86%),	-11657
closure	-11658
cmorrow	-11659
dyspnea	-11660
sistema	-11661
▁(68%).	-11662
▁(71%),	-11663
▁14,749	-11664
▁Enough	-11665
▁Turkey	-11666
▁couple	-11667
▁ensued	-11668
▁inward	-11669
▁itiner	-11670
▁joined	-11671
▁lavage	-11672
▁leaked	-11673
▁locked	-11674
▁mallow	-11675
▁mancha	-11676
▁melons	-11677
▁millig	-11678
▁moscow	-11679
▁motion	-11680
▁obsess	-11681
▁palant	-11682
▁patchy	-11683
▁pilots	-11684
▁pocket	-11685
▁potato	-11686
▁potent	-11687
▁prayer	-11688
▁prolif	-11689
▁quader	-11690
▁queens	-11691
▁queues	-11692
▁rabies	-11693
▁racial	-11694
▁rainco	-11695
▁repeat	-11696
▁reward	-11697
▁ringse	-11698
▁rodrig	-11699
ehic	-11700
gola	-11701
▁455	-11702
▁456	-11703
▁6,1	-11704
▁6,5	-11705
▁851	-11706
asley	-11707
olley	-11708
vilah	-11709
▁85).	-11710
▁hurr	-11711
▁tons	-11712
lethal	-11713
mingly	-11714
mpkins	-11715
▁1963.	-11716
▁3,300	-11717
▁34.4%	-11718
▁4,300	-11719
▁6,110	-11720
▁6,521	-11721
▁Smoke	-11722
▁angel	-11723
▁marqu	-11724
equival	-11725
herlock	-11726
ivirals	-11727
schools	-11728
xatives	-11729
▁34.4%,	-11730
▁Angola	-11731
▁Delete	-11732
▁Search	-11733
▁Tedros	-11734
▁charts	-11735
▁elabor	-11736
▁licenc	-11737
▁rovers	-11738
▁sadder	-11739
▁safegu	-11740
▁sanita	-11741
▁shirts	-11742
▁silves	-11743
▁slovak	-11744
▁sought	-11745
▁speeds	-11746
▁stampa	-11747
▁stimul	-11748
▁storms	-11749
▁subcut	-11750
▁subsid	-11751
▁suicid	-11752
▁sweats	-11753
▁swedes	-11754
▁sweets	-11755
▁symbol	-11756
▁thermo	-11757
▁tobacc	-11758
▁tonnes	-11759
▁tuvalu	-11760
▁tylony	-11761
▁ultras	-11762
▁ultrav	-11763
▁unlock	-11764
▁unspec	-11765
▁verify	-11766
▁vested	-11767
▁worsen	-11768
▁yogurt	-11769
1-4.05),	-11770
617,204)	-11771
Citation	-11772
aintitis	-11773
altering	-11774
analysis	-11775
aneously	-11776
aphylact	-11777
araderie	-11778
armacies	-11779
articles	-11780
aternity	-11781
atypical	-11782
calories	-11783
computed	-11784
december	-11785
disposal	-11786
distance	-11787
epatitis	-11788
epidemic	-11789
eplomers	-11790
ercoagul	-11791
fatality	-11792
hormonal	-11793
isanship	-11794
istamine	-11795
mplation	-11796
multiple	-11797
odevelop	-11798
oepidemi	-11799
322	-11800
324	-11801
326	-11802
352	-11803
752	-11804
3,35	-11805
7,99	-11806
8,38	-11807
99).	-11808
▁686	-11809
▁732	-11810
▁738	-11811
▁821	-11812
.2%),	-11813
.7%),	-11814
3,322	-11815
3,356	-11816
7,997	-11817
8,326	-11818
8,381	-11819
tersp	-11820
wanda	-11821
▁0.27	-11822
▁1,03	-11823
▁1,75	-11824
▁1940	-11825
▁rats	-11826
antage	-11827
itters	-11828
orrect	-11829
▁-99).	-11830
▁1,037	-11831
▁1,754	-11832
▁12012	-11833
▁2,300	-11834
▁2,352	-11835
▁3,752	-11836
▁4,835	-11837
▁4,962	-11838
▁accep	-11839
▁claws	-11840
▁hoped	-11841
▁madam	-11842
▁synct	-11843
▁vague	-11844
63.7%),	-11845
933,356	-11846
aseline	-11847
exposed	-11848
onstown	-11849
▁1,037,	-11850
▁9.2%),	-11851
▁Checkl	-11852
▁Design	-11853
▁bridge	-11854
▁deadli	-11855
▁fifths	-11856
▁philip	-11857
▁rwanda	-11858
ogeneity	-11859
operable	-11860
ophenics	-11861
oplasmic	-11862
organise	-11863
oscopies	-11864
physical	-11865
position	-11866
positive	-11867
possible	-11868
received	-11869
schooled	-11870
serology	-11871
ssential	-11872
swabbing	-11873
tability	-11874
taminate	-11875
terspers	-11876
throcyte	-11877
thuggish	-11878
timulate	-11879
tirement	-11880
uestions	-11881
▁(10-100	-11882
▁(37.6%)	-11883
▁(4.8-13	-11884
▁(60.7%)	-11885
▁1.44%).	-11886
▁10.9%),	-11887
▁107,933	-11888
▁107,997	-11889
▁113,322	-11890
▁118,381	-11891
▁120125,	-11892
▁120145,	-11893
▁135,884	-11894
▁140,727	-11895
▁153,822	-11896
▁166,548	-11897
▁179,324	-11898
▁184,279	-11899
-85	-11900
039	-11901
069	-11902
396	-11903
564	-11904
690	-11905
708	-11906
842	-11907
870	-11908
939	-11909
sah	-11910
,870	-11911
1.70	-11912
2,69	-11913
647,	-11914
alde	-11915
dney	-11916
▁(15	-11917
▁(5)	-11918
▁464	-11919
▁469	-11920
▁539	-11921
▁584	-11922
▁769	-11923
▁802	-11924
▁884	-11925
1,564	-11926
5,939	-11927
7,039	-11928
8,870	-11929
orney	-11930
raith	-11931
sahar	-11932
sharp	-11933
uania	-11934
▁duty	-11935
▁huos	-11936
▁sabr	-11937
2,692,	-11938
97,039	-11939
aldehy	-11940
rament	-11941
▁(647,	-11942
▁1,842	-11943
▁2,708	-11944
▁4,396	-11945
▁4,690	-11946
▁4,715	-11947
▁4,769	-11948
▁4,884	-11949
▁4,915	-11950
▁cheek	-11951
▁fauce	-11952
361,564	-11953
ambique	-11954
ramento	-11955
removed	-11956
saharan	-11957
▁251,08	-11958
▁791.70	-11959
▁Leaked	-11960
▁Plague	-11961
▁athlet	-11962
▁faucet	-11963
▁snakes	-11964
▁sydney	-11965
accraith	-11966
aldehyde	-11967
ervasive	-11968
ithuania	-11969
▁(2,692,	-11970
▁(97,039	-11971
▁187,554	-11972
▁190,000	-11973
▁197,553	-11974
▁2019-20	-11975
▁202,548	-11976
▁203,000	-11977
▁203,568	-11978
▁204,397	-11979
▁204,940	-11980
▁205,939	-11981
▁208,796	-11982
▁210,402	-11983
▁212,647	-11984
▁213,400	-11985
▁215,743	-11986
▁221,647	-11987
▁221,649	-11988
▁222,160	-11989
▁225,179	-11990
▁225,820	-11991
▁228,796	-11992
▁229,360	-11993
▁229,831	-11994
▁232,164	-11995
▁233,327	-11996
▁233,937	-11997
▁234,541	-11998
▁235,078	-11999
.91	-12000
744	-12001
911	-12002
nhs	-12003
,744	-12004
.91%	-12005
obby	-12006
ília	-12007
▁39.	-12008
▁390	-12009
▁398	-12010
▁574	-12011
▁774	-12012
▁99%	-12013
▁(100	-12014
▁1.4%	-12015
▁Corp	-12016
▁asyn	-12017
▁bulg	-12018
▁bulk	-12019
▁burg	-12020
▁qant	-12021
asília	-12022
inatal	-12023
▁1.44%	-12024
▁169,7	-12025
▁2,100	-12026
▁2,468	-12027
▁2,692	-12028
▁4,874	-12029
▁Distr	-12030
▁India	-12031
▁barak	-12032
▁bulky	-12033
▁lobby	-12034
▁paste	-12035
iliated	-12036
monitor	-12037
orthern	-12038
tenatal	-12039
uterine	-12040
▁2021.)	-12041
▁Coming	-12042
▁Corpor	-12043
▁Sports	-12044
▁burial	-12045
▁burund	-12046
▁guyana	-12047
▁qantas	-12048
▁sewing	-12049
auterine	-12050
mediated	-12051
ritories	-12052
urifying	-12053
▁(10.91%	-12054
▁169,780	-12055
▁200,744	-12056
▁235,444	-12057
▁237,695	-12058
▁238,466	-12059
▁238,907	-12060
▁240,945	-12061
▁241,330	-12062
▁241,684	-12063
▁242,105	-12064
▁242,402	-12065
▁242,819	-12066
▁243,238	-12067
▁243,508	-12068
▁243,911	-12069
▁244,297	-12070
▁245,743	-12071
▁246,633	-12072
▁248,326	-12073
▁250,000	-12074
▁250,290	-12075
▁250,672	-12076
▁251,087	-12077
▁251,904	-12078
▁252,303	-12079
▁252,809	-12080
▁253,189	-12081
▁254,013	-12082
▁254,450	-12083
▁267,949	-12084
▁269,793	-12085
▁272,000	-12086
▁402,000	-12087
▁545,000	-12088
▁600,000	-12089
▁720,000	-12090
▁900,000	-12091
▁Andorra	-12092
▁Armenia	-12093
▁Belturb	-12094
▁Bermuda	-12095
▁Between	-12096
▁Borrell	-12097
▁Castleb	-12098
▁Central	-12099
730	-12100
974	-12101
2,30	-12102
▁335	-12103
▁43%	-12104
▁ctv	-12105
▁joe	-12106
2,308	-12107
ciliz	-12108
urban	-12109
▁14,6	-12110
▁1974	-12111
▁33.5	-12112
▁bagg	-12113
▁ribs	-12114
▁util	-12115
opened	-12116
▁Tests	-12117
▁kinda	-12118
▁kinds	-12119
▁pores	-12120
▁tends	-12121
▁uneth	-12122
▁wiped	-12123
cilizum	-12124
despite	-12125
inceton	-12126
unistic	-12127
ystones	-12128
▁14,650	-12129
▁14,730	-12130
▁20,974	-12131
▁32,308	-12132
▁Mechan	-12133
▁Stores	-12134
▁bengal	-12135
▁button	-12136
▁filipp	-12137
▁ratios	-12138
▁tender	-12139
▁terror	-12140
ivisions	-12141
rouching	-12142
uticians	-12143
▁Clifden	-12144
▁Commerc	-12145
▁Concern	-12146
▁Control	-12147
▁Cutlery	-12148
▁Droplet	-12149
▁Examine	-12150
▁Experts	-12151
▁Express	-12152
▁Extreme	-12153
▁Fethard	-12154
▁Fitness	-12155
▁Flights	-12156
▁Interak	-12157
▁Isolate	-12158
▁Letters	-12159
▁Maximum	-12160
▁Napkins	-12161
▁Partner	-12162
▁Patches	-12163
▁Poultry	-12164
▁Protein	-12165
▁Provide	-12166
▁Rapidly	-12167
▁Regions	-12168
▁Rubeola	-12169
▁Science	-12170
▁Selling	-12171
▁Serious	-12172
▁Sitting	-12173
▁Smokers	-12174
▁Stigmat	-12175
▁Stretch	-12176
▁Subject	-12177
▁Tourist	-12178
▁Virtual	-12179
▁Viruses	-12180
▁Wexford	-12181
▁William	-12182
▁abiding	-12183
▁acceler	-12184
▁aerobic	-12185
▁affinis	-12186
▁affixed	-12187
▁alanine	-12188
▁albania	-12189
▁amplify	-12190
▁angeles	-12191
▁armenia	-12192
▁assumed	-12193
▁awarded	-12194
▁backlog	-12195
▁baggage	-12196
▁bahrain	-12197
▁barakat	-12198
▁baricit	-12199
128	-12200
592	-12201
675	-12202
923	-12203
aws	-12204
raw	-12205
▁.9	-12206
,592	-12207
awas	-12208
hman	-12209
▁(12	-12210
▁592	-12211
▁612	-12212
▁boy	-12213
.1,1,	-12214
6,500	-12215
8,923	-12216
bilit	-12217
cades	-12218
enagh	-12219
oaden	-12220
▁(732	-12221
▁.9).	-12222
▁2,12	-12223
▁Leak	-12224
▁biow	-12225
▁jaws	-12226
▁marl	-12227
▁oils	-12228
▁skil	-12229
19,592	-12230
awasak	-12231
grades	-12232
olored	-12233
urging	-12234
▁(12.5	-12235
▁1,500	-12236
▁2,121	-12237
▁4,128	-12238
▁4,713	-12239
▁4,737	-12240
▁99.4%	-12241
▁Speed	-12242
▁Whoop	-12243
▁bache	-12244
▁biose	-12245
▁biote	-12246
▁biowe	-12247
▁holds	-12248
▁james	-12249
▁marlb	-12250
▁panel	-12251
▁rinks	-12252
▁sinks	-12253
awasaki	-12254
pleural	-12255
ryoaden	-12256
▁46,500	-12257
▁Nenagh	-12258
▁Series	-12259
▁biased	-12260
▁biases	-12261
▁biosec	-12262
▁excell	-12263
▁looked	-12264
▁packed	-12265
▁rahman	-12266
airborne	-12267
commonly	-12268
icolored	-12269
limiting	-12270
uterized	-12271
▁188,923	-12272
▁219,592	-12273
▁240,192	-12274
▁Leakage	-12275
▁arcades	-12276
▁barring	-12277
▁battery	-12278
▁belongs	-12279
▁bending	-12280
▁bengali	-12281
▁bioweap	-12282
▁borrell	-12283
▁bowling	-12284
▁browser	-12285
▁burgers	-12286
▁burundi	-12287
▁castile	-12288
▁ceiling	-12289
▁chemist	-12290
▁chicago	-12291
▁chlorof	-12292
▁clifden	-12293
▁comprom	-12294
▁conceal	-12295
▁contest	-12296
▁cookery	-12297
▁copious	-12298
▁corners	-12299
167	-12300
175	-12301
176	-12302
271	-12303
275	-12304
316	-12305
535	-12306
539	-12307
99%	-12308
.06%	-12309
2,27	-12310
3,53	-12311
▁-9)	-12312
▁1.0	-12313
▁474	-12314
▁617	-12315
▁827	-12316
2,278	-12317
2,539	-12318
3,532	-12319
7,316	-12320
xygen	-12321
▁(176	-12322
▁(8.8	-12323
▁(99%	-12324
▁4,33	-12325
▁Bali	-12326
▁cafe	-12327
▁ilis	-12328
▁orfs	-12329
▁valu	-12330
france	-12331
▁(8.8%	-12332
▁3,167	-12333
▁3.06%	-12334
▁4,271	-12335
▁4,333	-12336
▁4,666	-12337
▁Belug	-12338
▁Spike	-12339
▁bottl	-12340
▁cares	-12341
▁venue	-12342
tending	-12343
▁120175	-12344
▁52,278	-12345
▁93,532	-12346
▁Albeit	-12347
▁Beluga	-12348
▁Oxygen	-12349
▁contex	-12350
settings	-12351
▁152,539	-12352
▁227,316	-12353
▁Reagent	-12354
▁bedtime	-12355
▁crucify	-12356
▁custody	-12357
▁debilit	-12358
▁decided	-12359
▁decimal	-12360
▁densely	-12361
▁denying	-12362
▁destroy	-12363
▁digging	-12364
▁diluted	-12365
▁dosages	-12366
▁ecology	-12367
▁ecuador	-12368
▁embassy	-12369
▁emphyse	-12370
▁empower	-12371
▁emulate	-12372
▁endorse	-12373
▁episode	-12374
▁evicted	-12375
▁exclude	-12376
▁explode	-12377
▁eyeball	-12378
▁favours	-12379
▁filippo	-12380
▁flipped	-12381
▁garages	-12382
▁heterod	-12383
▁higgins	-12384
▁hitting	-12385
▁hselive	-12386
▁ideally	-12387
▁ignored	-12388
▁illicit	-12389
▁imagine	-12390
▁impeded	-12391
▁indexed	-12392
▁intoxic	-12393
▁invades	-12394
▁jointly	-12395
▁josepha	-12396
▁kettles	-12397
▁kidneys	-12398
▁kinderg	-12399
-38	-12400
14.	-12401
144	-12402
582	-12403
588	-12404
614	-12405
814	-12406
857	-12407
1.58	-12408
cipl	-12409
nybr	-12410
unny	-12411
▁2.9	-12412
▁514	-12413
▁76%	-12414
▁Amb	-12415
4,588	-12416
9,144	-12417
9,582	-12418
croll	-12419
ellex	-12420
iolet	-12421
irium	-12422
ittee	-12423
kelet	-12424
onium	-12425
▁3,58	-12426
▁Dele	-12427
▁Maps	-12428
▁alex	-12429
▁flex	-12430
▁latv	-12431
iscipl	-12432
lamore	-12433
ortium	-12434
▁3,586	-12435
▁4,422	-12436
▁8567,	-12437
▁Media	-12438
▁Meets	-12439
▁Runny	-12440
▁absor	-12441
anufact	-12442
keletal	-12443
nybrook	-12444
ophobic	-12445
▁29.8%)	-12446
▁Scroll	-12447
▁balcon	-12448
▁cellex	-12449
▁latvia	-12450
▁missed	-12451
▁resemb	-12452
▁smooth	-12453
▁straps	-12454
▁tablet	-12455
alkonium	-12456
evitable	-12457
idiscipl	-12458
onucleic	-12459
reducing	-12460
ullamore	-12461
▁159,144	-12462
▁209,582	-12463
▁224,588	-12464
▁247,857	-12465
▁absorbs	-12466
▁balcony	-12467
▁carries	-12468
▁derived	-12469
▁kissing	-12470
▁lengthy	-12471
▁licence	-12472
▁license	-12473
▁liquids	-12474
▁longini	-12475
▁madigan	-12476
▁madness	-12477
▁marlbur	-12478
▁marquee	-12479
▁mcenane	-12480
▁mcgrath	-12481
▁metabol	-12482
▁myoglob	-12483
▁newcast	-12484
▁nosocom	-12485
▁obaidul	-12486
▁offends	-12487
▁oliveir	-12488
▁onwards	-12489
▁opposed	-12490
▁pilgrim	-12491
▁plaquep	-12492
▁porcine	-12493
▁portfol	-12494
▁possess	-12495
▁postpon	-12496
▁precise	-12497
▁preclud	-12498
▁precurs	-12499
07.	-12500
237	-12501
4.6	-12502
470	-12503
474	-12504
478	-12505
547	-12506
681	-12507
686	-12508
768	-12509
▁368	-12510
▁38%	-12511
▁383	-12512
▁389	-12513
▁436	-12514
▁447	-12515
▁536	-12516
▁55%	-12517
07.2,	-12518
6,547	-12519
7,478	-12520
aplan	-12521
axing	-12522
piece	-12523
swing	-12524
▁(358	-12525
▁2,37	-12526
▁icus	-12527
▁libr	-12528
scured	-12529
▁114.6	-12530
▁2,371	-12531
▁2,768	-12532
▁2021"	-12533
▁3,686	-12534
▁4,237	-12535
▁4,470	-12536
▁4,681	-12537
▁Users	-12538
▁crush	-12539
▁mathe	-12540
▁matur	-12541
▁moral	-12542
ictable	-12543
▁20.5%.	-12544
▁Deterg	-12545
▁Phased	-12546
▁bordea	-12547
▁kaplan	-12548
▁matter	-12549
abortion	-12550
▁174,843	-12551
▁196,547	-12552
▁217,478	-12553
▁251,474	-12554
▁bordeau	-12555
▁coaxing	-12556
▁endured	-12557
▁hardest	-12558
▁library	-12559
▁matched	-12560
▁prepaid	-12561
▁pretend	-12562
▁printed	-12563
▁prisons	-12564
▁profess	-12565
▁profile	-12566
▁profuse	-12567
▁progeny	-12568
▁prudent	-12569
▁psychom	-12570
▁punched	-12571
▁rabbits	-12572
▁railing	-12573
▁ranking	-12574
▁reagent	-12575
▁recruit	-12576
▁refunds	-12577
▁remotes	-12578
▁restart	-12579
▁restock	-12580
▁resumes	-12581
▁revenge	-12582
▁ringing	-12583
▁roderic	-12584
▁rousett	-12585
▁sabrina	-12586
▁scanned	-12587
▁scoring	-12588
▁secrecy	-12589
▁secrets	-12590
▁segment	-12591
▁senator	-12592
▁shifted	-12593
▁shipped	-12594
▁silence	-12595
▁sinicus	-12596
▁sleeves	-12597
▁solaris	-12598
▁souther	-12599
.16	-12600
4,3	-12601
487	-12602
489	-12603
648	-12604
See	-12605
dee	-12606
nlm	-12607
rsa	-12608
.2%.	-12609
.4%.	-12610
1,48	-12611
4,43	-12612
mrna	-12613
prrs	-12614
shit	-12615
srna	-12616
▁(48	-12617
▁348	-12618
▁4%.	-12619
▁438	-12620
▁Lee	-12621
▁raw	-12622
.1.35	-12623
1,481	-12624
4,366	-12625
4,439	-12626
izona	-12627
nesia	-12628
▁(48)	-12629
▁10.1	-12630
▁3.16	-12631
▁mrsa	-12632
.1.1.7	-12633
boring	-12634
bought	-12635
racted	-12636
▁1.2%.	-12637
▁3.4%.	-12638
▁Ardee	-12639
▁domin	-12640
▁funds	-12641
▁insta	-12642
▁jones	-12643
▁leads	-12644
▁ssrna	-12645
▁visas	-12646
.1.351,	-12647
icipate	-12648
reaming	-12649
stantly	-12650
ubstant	-12651
ventive	-12652
▁10.1%,	-12653
▁220,63	-12654
▁34,366	-12655
▁74,439	-12656
▁Metric	-12657
▁costly	-12658
▁funded	-12659
▁kisses	-12660
▁pilate	-12661
▁salted	-12662
▁worksh	-12663
attached	-12664
iltering	-12665
substant	-12666
▁220,630	-12667
▁247,489	-12668
▁amnesia	-12669
▁arizona	-12670
▁induces	-12671
▁instagr	-12672
▁opacity	-12673
▁spatial	-12674
▁spokesw	-12675
▁sputnik	-12676
▁squeeze	-12677
▁stained	-12678
▁standby	-12679
▁subdued	-12680
▁subtype	-12681
▁subvert	-12682
▁succeed	-12683
▁suicide	-12684
▁surging	-12685
▁swallow	-12686
▁sympath	-12687
▁tallies	-12688
▁tending	-12689
▁threats	-12690
▁thunder	-12691
▁tobacco	-12692
▁trained	-12693
▁trapped	-12694
▁trended	-12695
▁tristan	-12696
▁trolley	-12697
▁tropics	-12698
▁tropism	-12699
.77	-12700
76,	-12701
bai	-12702
ika	-12703
laí	-12704
6,18	-12705
hift	-12706
ontc	-12707
▁(2-	-12708
▁(22	-12709
▁(25	-12710
▁(26	-12711
▁373	-12712
▁378	-12713
▁66,	-12714
▁sik	-12715
37.63	-12716
6,184	-12717
ahead	-12718
egard	-12719
errim	-12720
ontan	-12721
ontar	-12722
umbai	-12723
urers	-12724
▁-100	-12725
▁236,	-12726
▁3.77	-12727
▁cull	-12728
▁kitc	-12729
▁lane	-12730
▁pont	-12731
▁tips	-12732
▁zika	-12733
76,078	-12734
commer	-12735
edontc	-12736
egarde	-12737
enoids	-12738
erries	-12739
ichlor	-12740
ontarf	-12741
▁(2-9)	-12742
▁(26%)	-12743
▁1960.	-12744
▁2,259	-12745
▁249,8	-12746
▁chips	-12747
▁drift	-12748
▁linda	-12749
▁smoky	-12750
ackaged	-12751
earhead	-12752
erriman	-12753
ontanel	-12754
▁66,576	-12755
▁Altern	-12756
▁Prepar	-12757
▁afford	-12758
▁bhutan	-12759
▁bursts	-12760
▁exclus	-12761
▁imaged	-12762
▁mumbai	-12763
commerce	-12764
essional	-12765
forehead	-12766
▁-100%),	-12767
▁186,184	-12768
▁221,189	-12769
▁236,600	-12770
▁249,838	-12771
▁Dichlor	-12772
▁ferries	-12773
▁kitchen	-12774
▁pontius	-12775
▁readers	-12776
▁sikhism	-12777
▁tuition	-12778
▁unaware	-12779
▁urgency	-12780
▁urinate	-12781
▁uruguay	-12782
▁utilise	-12783
▁utility	-12784
▁utilize	-12785
▁vectors	-12786
▁vessels	-12787
▁victims	-12788
▁visibly	-12789
▁vitamin	-12790
▁warming	-12791
▁watches	-12792
▁wexford	-12793
▁whereby	-12794
▁wrapped	-12795
▁writers	-12796
3,890,437	-12797
3,933,356	-12798
acitation	-12799
441	-12800
604	-12801
cmc	-12802
coog	-12803
urbs	-12804
▁423	-12805
▁460	-12806
▁604	-12807
▁606	-12808
▁Cbs	-12809
▁Tcm	-12810
▁rcm	-12811
6,604	-12812
ergus	-12813
ersey	-12814
verse	-12815
▁-20%	-12816
▁4,80	-12817
▁4,85	-12818
▁60),	-12819
▁Mych	-12820
▁laws	-12821
▁unco	-12822
▁wedd	-12823
▁wibp	-12824
almost	-12825
coogan	-12826
highly	-12827
omalia	-12828
ossier	-12829
▁1,441	-12830
▁4,803	-12831
▁4,856	-12832
▁4,900	-12833
▁4,918	-12834
▁4,919	-12835
▁Clare	-12836
▁Clust	-12837
▁Gastr	-12838
▁clubs	-12839
▁juice	-12840
▁males	-12841
396,604	-12842
ergency	-12843
erguson	-12844
iencies	-12845
staying	-12846
versely	-12847
▁Paying	-12848
▁inhale	-12849
▁jersey	-12850
▁matthe	-12851
ilcoogan	-12852
▁Flatten	-12853
▁Mychild	-12854
▁beliefs	-12855
▁catastr	-12856
▁dossier	-12857
▁growing	-12858
▁matthew	-12859
▁somalia	-12860
▁suburbs	-12861
acryoaden	-12862
aditional	-12863
anderbilt	-12864
antageous	-12865
artheagmh	-12866
asionally	-12867
auticians	-12868
challenge	-12869
cilizumab	-12870
commuting	-12871
connected	-12872
depending	-12873
deserving	-12874
diuretics	-12875
earheaded	-12876
elinating	-12877
emergency	-12878
ensorship	-12879
erroneous	-12880
ersistent	-12881
ferencing	-12882
fertility	-12883
filtering	-12884
ildegarde	-12885
iltration	-12886
implement	-12887
importing	-12888
inclusive	-12889
irdresser	-12890
ireachtas	-12891
istrellus	-12892
molecular	-12893
obuprofen	-12894
oglobulin	-12895
olymerase	-12896
ontanelle	-12897
opositive	-12898
organised	-12899
310	-12900
794	-12901
865	-12902
955	-12903
cbi	-12904
gps	-12905
,865	-12906
ncbi	-12907
▁(94	-12908
▁365	-12909
▁394	-12910
▁401	-12911
▁403	-12912
▁407	-12913
▁408	-12914
▁465	-12915
▁tds	-12916
iages	-12917
idges	-12918
inval	-12919
roups	-12920
▁17.8	-12921
▁Play	-12922
▁engl	-12923
▁zhao	-12924
groups	-12925
▁(94%)	-12926
▁1,013	-12927
▁3,794	-12928
▁3,865	-12929
▁3,955	-12930
▁4,509	-12931
▁97.4%	-12932
▁Avian	-12933
▁ridge	-12934
▁sheer	-12935
▁shell	-12936
▁shift	-12937
▁titer	-12938
aliforn	-12939
invalid	-12940
mplated	-12941
tertech	-12942
▁19,865	-12943
▁40,000	-12944
▁Adjust	-12945
▁advert	-12946
▁claire	-12947
▁crisps	-12948
▁damian	-12949
▁degrad	-12950
▁evacue	-12951
▁excite	-12952
▁millen	-12953
▁porter	-12954
▁roller	-12955
▁shells	-12956
arriages	-12957
ochastic	-12958
▁245,310	-12959
▁adjunct	-12960
▁bridges	-12961
▁charges	-12962
▁electro	-12963
▁english	-12964
▁impract	-12965
▁millenn	-12966
▁portion	-12967
▁quicker	-12968
▁removes	-12969
alifornia	-12970
organized	-12971
orporated	-12972
oskeletal	-12973
passports	-12974
political	-12975
president	-12976
propylene	-12977
proximity	-12978
purifying	-12979
quirement	-12980
regularly	-12981
rehension	-12982
religions	-12983
requently	-12984
ressively	-12985
rtificial	-12986
segmented	-12987
ucturally	-12988
urzarbeit	-12989
wednesday	-12990
zalkonium	-12991
▁(13-25%)	-12992
▁(4.8-13)	-12993
▁(63.7%),	-12994
▁100,000)	-12995
▁231,534.	-12996
▁267,576.	-12997
▁269,321.	-12998
▁Abortion	-12999
214	-13000
5,5	-13001
80.	-13002
950	-13003
9,43	-13004
▁55,	-13005
▁65,	-13006
▁650	-13007
▁75,	-13008
▁850	-13009
▁gdp	-13010
5,591	-13011
9,430	-13012
cases	-13013
etime	-13014
hakes	-13015
▁195,	-13016
▁Time	-13017
▁hipp	-13018
▁myel	-13019
▁nipp	-13020
50,000	-13021
chedul	-13022
market	-13023
▁1980.	-13024
▁2005,	-13025
▁2013,	-13026
▁3,214	-13027
▁fired	-13028
▁namib	-13029
ometime	-13030
ovision	-13031
▁Laoise	-13032
▁United	-13033
▁corrob	-13034
▁extrap	-13035
▁george	-13036
▁hippos	-13037
▁linear	-13038
▁manuel	-13039
▁margin	-13040
▁myself	-13041
▁outlet	-13042
▁oxides	-13043
▁patent	-13044
▁phases	-13045
▁shakes	-13046
ervision	-13047
iredness	-13048
undering	-13049
▁155,591	-13050
▁195,303	-13051
▁199,430	-13052
▁350,000	-13053
▁Immunos	-13054
▁Unknown	-13055
▁acronym	-13056
▁anybody	-13057
▁myeloma	-13058
▁namibia	-13059
▁nipples	-13060
▁teaches	-13061
▁tension	-13062
▁touched	-13063
▁walking	-13064
cheduling	-13065
▁Adaptive	-13066
▁Alveolar	-13067
▁Anything	-13068
▁Biscuits	-13069
▁Building	-13070
▁Carnmore	-13071
▁Checking	-13072
▁Commerce	-13073
▁Compared	-13074
▁Computed	-13075
▁Concerns	-13076
▁Critical	-13077
▁December	-13078
▁Dressing	-13079
▁Droplets	-13080
▁Dysfunct	-13081
▁Exercise	-13082
▁Exoscopy	-13083
▁Exposure	-13084
▁Facebook	-13085
▁February	-13086
▁Funerals	-13087
▁Hinduism	-13088
▁Identify	-13089
▁Indirect	-13090
▁Interaks	-13091
▁Manufact	-13092
▁Milltown	-13093
▁Mobilize	-13094
▁Mongolia	-13095
▁Moreover	-13096
▁Movement	-13097
▁Neonatal	-13098
▁Northern	-13099
0,0	-13100
10,	-13101
635	-13102
66,	-13103
beh	-13104
hio	-13105
1,92	-13106
63).	-13107
arbe	-13108
fair	-13109
ibbe	-13110
▁40.	-13111
▁453	-13112
▁524	-13113
▁emm	-13114
-19'.	-13115
0,053	-13116
1,635	-13117
1,922	-13118
death	-13119
grave	-13120
japan	-13121
jiang	-13122
peare	-13123
uscle	-13124
▁230,	-13125
▁Extr	-13126
▁Hair	-13127
▁cows	-13128
▁emir	-13129
▁ohio	-13130
▁refu	-13131
▁turb	-13132
51,635	-13133
behind	-13134
cleans	-13135
fairly	-13136
ibbean	-13137
ideros	-13138
iences	-13139
lasses	-13140
little	-13141
ojapan	-13142
ometer	-13143
saving	-13144
▁1966,	-13145
▁2,460	-13146
▁230,5	-13147
▁Spain	-13148
▁angle	-13149
▁eaten	-13150
▁emmet	-13151
▁sarbe	-13152
▁turke	-13153
▁turns	-13154
injiang	-13155
mometer	-13156
ortured	-13157
▁90,053	-13158
▁Muscle	-13159
▁charit	-13160
▁dispat	-13161
▁fallon	-13162
▁footwe	-13163
▁refuge	-13164
▁sabina	-13165
▁sacrif	-13166
▁termin	-13167
▁waving	-13168
estivals	-13169
nglasses	-13170
ogeneous	-13171
onstruct	-13172
volution	-13173
▁181,922	-13174
▁230,599	-13175
▁charity	-13176
▁messeng	-13177
▁raining	-13178
▁turkeys	-13179
cleansing	-13180
festivals	-13181
oalveolar	-13182
ographics	-13183
olutional	-13184
▁Optional	-13185
▁Overwhel	-13186
▁Pathogen	-13187
▁Politico	-13188
▁Prepared	-13189
▁Pressure	-13190
▁Protocol	-13191
▁Punchest	-13192
▁Pursuant	-13193
▁Reusable	-13194
▁Separate	-13195
▁Serology	-13196
▁Sickened	-13197
▁Sickness	-13198
▁Sligeach	-13199
143	-13200
543	-13201
643	-13202
720	-13203
exc	-13204
▁01	-13205
▁06	-13206
▁07	-13207
43),	-13208
mble	-13209
poly	-13210
sapp	-13211
▁320	-13212
▁33.	-13213
▁443	-13214
▁543	-13215
▁9,8	-13216
▁ruf	-13217
7,720	-13218
icane	-13219
iddle	-13220
▁12%)	-13221
▁Holy	-13222
▁Pims	-13223
▁napp	-13224
alidad	-13225
bercul	-13226
genome	-13227
iaison	-13228
middle	-13229
opharm	-13230
oredom	-13231
throat	-13232
▁1,543	-13233
▁5,143	-13234
▁9,800	-13235
▁Limit	-13236
▁nappy	-13237
▁netil	-13238
▁spoke	-13239
ogenebi	-13240
opriate	-13241
ubercul	-13242
wedding	-13243
▁herber	-13244
▁lavabo	-13245
▁mutate	-13246
▁mutual	-13247
▁rehydr	-13248
▁rufous	-13249
▁stands	-13250
enuation	-13251
▁207,720	-13252
▁240,643	-13253
▁247,069	-13254
▁boredom	-13255
▁costing	-13256
▁herbert	-13257
▁liaison	-13258
▁netilat	-13259
▁pointed	-13260
excluding	-13261
▁Smallpox	-13262
▁Specimen	-13263
▁Spending	-13264
▁Standing	-13265
▁Supports	-13266
▁Sweating	-13267
▁Touching	-13268
▁Tubercul	-13269
▁Vomiting	-13270
▁Whooping	-13271
▁abortion	-13272
▁accuracy	-13273
▁acquired	-13274
▁adhering	-13275
▁advocacy	-13276
▁advocate	-13277
▁aerobics	-13278
▁alleging	-13279
▁amniotic	-13280
▁amounted	-13281
▁analogue	-13282
▁analysed	-13283
▁anchored	-13284
▁anguilla	-13285
▁appendic	-13286
▁artisans	-13287
▁asphyxia	-13288
▁athletic	-13289
▁attaches	-13290
▁autonomy	-13291
▁baseball	-13292
▁behavior	-13293
▁bereaved	-13294
▁bleeding	-13295
▁blockade	-13296
▁bordeaux	-13297
▁botswana	-13298
▁brasília	-13299
.26	-13300
.47	-13301
181	-13302
182	-13303
187	-13304
2.4	-13305
wfp	-13306
▁.4	-13307
2.26	-13308
aois	-13309
ipah	-13310
▁318	-13311
▁418	-13312
▁6,8	-13313
▁7.4	-13314
▁81%	-13315
1,182	-13316
2.4%)	-13317
7,187	-13318
amphe	-13319
ampus	-13320
anama	-13321
aryng	-13322
cored	-13323
ringe	-13324
unnel	-13325
▁.4).	-13326
▁2013	-13327
▁6,88	-13328
▁6.47	-13329
▁7.45	-13330
▁fuse	-13331
▁nchs	-13332
▁solv	-13333
▁trem	-13334
campus	-13335
efined	-13336
urring	-13337
▁4,181	-13338
▁6,888	-13339
▁Block	-13340
▁Laois	-13341
▁Pregn	-13342
▁bible	-13343
▁nipah	-13344
▁solub	-13345
▁tasks	-13346
otunnel	-13347
roliter	-13348
thamphe	-13349
▁(98%),	-13350
▁Panama	-13351
▁buyers	-13352
▁laryng	-13353
▁promin	-13354
▁solved	-13355
▁thirds	-13356
erscored	-13357
ightened	-13358
ligation	-13359
services	-13360
▁(62.4%)	-13361
▁191,182	-13362
▁226,741	-13363
▁237,187	-13364
▁Mention	-13365
▁Updates	-13366
▁breasts	-13367
▁citizen	-13368
▁ensures	-13369
▁heading	-13370
▁overlap	-13371
▁submits	-13372
▁telling	-13373
▁tipping	-13374
▁trading	-13375
▁tremend	-13376
▁upwards	-13377
ringement	-13378
▁268,251.	-13379
▁Fatality	-13380
▁Wildlife	-13381
▁balanced	-13382
▁breaking	-13383
▁briefing	-13384
▁bronchod	-13385
▁browsing	-13386
▁bulgaria	-13387
▁camelids	-13388
▁capitalb	-13389
▁castilla	-13390
▁castlebr	-13391
▁cerebral	-13392
▁checkout	-13393
▁climbing	-13394
▁clontarf	-13395
▁coalesce	-13396
▁collapse	-13397
▁complain	-13398
▁conceive	-13399
.25	-13400
846	-13401
▁08	-13402
gued	-13403
ipei	-13404
lium	-13405
umps	-13406
▁08)	-13407
▁921	-13408
aipei	-13409
chest	-13410
clark	-13411
compl	-13412
cribe	-13413
trump	-13414
▁6.25	-13415
▁977,	-13416
▁crem	-13417
▁harv	-13418
compli	-13419
cribed	-13420
direct	-13421
ything	-13422
▁3,846	-13423
▁4,588	-13424
▁4,866	-13425
▁Mumps	-13426
▁congo	-13427
▁dense	-13428
▁warns	-13429
ilators	-13430
imposed	-13431
irthing	-13432
oonotic	-13433
sharing	-13434
▁Access	-13435
▁argued	-13436
▁copies	-13437
▁defens	-13438
▁defied	-13439
▁racoon	-13440
▁taipei	-13441
directed	-13442
ertainly	-13443
ocooning	-13444
othermal	-13445
utrition	-13446
▁977,452	-13447
▁biggest	-13448
▁combine	-13449
▁creates	-13450
▁dangers	-13451
▁discard	-13452
▁efficac	-13453
▁harvard	-13454
▁intense	-13455
▁miscond	-13456
▁notably	-13457
▁obvious	-13458
nutrition	-13459
▁ascribed	-13460
▁birthing	-13461
▁confirms	-13462
▁consolid	-13463
▁consumed	-13464
▁contexts	-13465
▁cornerst	-13466
▁counsell	-13467
▁creation	-13468
▁creative	-13469
▁critique	-13470
▁customer	-13471
▁cyclical	-13472
▁deadlier	-13473
▁deciding	-13474
▁defended	-13475
▁defender	-13476
▁defenses	-13477
▁deferred	-13478
▁delirium	-13479
▁demarais	-13480
▁deranged	-13481
▁describe	-13482
▁digested	-13483
▁dipstick	-13484
▁disposal	-13485
▁disputes	-13486
▁doubling	-13487
▁elements	-13488
▁emirates	-13489
▁enclaves	-13490
▁encoding	-13491
▁ensuring	-13492
▁entitled	-13493
▁evacuees	-13494
▁exhibits	-13495
▁expedite	-13496
▁explains	-13497
▁extracts	-13498
▁extraord	-13499
'".	-13500
.5,	-13501
.55	-13502
eua	-13503
,358	-13504
meal	-13505
mean	-13506
meat	-13507
meid	-13508
ombe	-13509
romb	-13510
▁08.	-13511
▁1.5	-13512
▁27%	-13513
▁271	-13514
▁294	-13515
▁4.5	-13516
▁mhv	-13517
.55).	-13518
aired	-13519
ategy	-13520
hromb	-13521
infad	-13522
infor	-13523
meida	-13524
metic	-13525
owded	-13526
retty	-13527
stand	-13528
stock	-13529
stret	-13530
theme	-13531
▁13.5	-13532
▁192,	-13533
▁2.5,	-13534
▁7.30	-13535
▁73%.	-13536
▁Clar	-13537
▁Hygi	-13538
▁Prel	-13539
▁torn	-13540
acetic	-13541
cripts	-13542
infadi	-13543
ockery	-13544
▁192,6	-13545
▁2008.	-13546
▁3,498	-13547
▁antih	-13548
▁clock	-13549
▁enfor	-13550
akehold	-13551
hrombin	-13552
meaning	-13553
osmetic	-13554
▁0.39%.	-13555
▁15,358	-13556
▁Clarke	-13557
▁Prelim	-13558
▁Pretty	-13559
▁coined	-13560
▁colleg	-13561
▁coombe	-13562
▁exotic	-13563
▁mandar	-13564
▁revise	-13565
▁sympot	-13566
▁uphold	-13567
inforced	-13568
ousehold	-13569
standers	-13570
strategy	-13571
▁192,645	-13572
▁Crowded	-13573
▁Hygiene	-13574
▁Release	-13575
▁almeida	-13576
▁blowing	-13577
▁convide	-13578
▁farming	-13579
▁pressed	-13580
▁violate	-13581
▁xinfadi	-13582
stretched	-13583
uarantine	-13584
▁convidec	-13585
▁cosmetic	-13586
▁crockery	-13587
▁failures	-13588
▁ferguson	-13589
▁fibrosis	-13590
▁flexible	-13591
▁footwear	-13592
▁forceful	-13593
▁forgoing	-13594
▁fourteen	-13595
▁fragment	-13596
▁fruitful	-13597
▁funfairs	-13598
▁ghlauise	-13599
-1.	-13600
1.6	-13601
21.	-13602
610	-13603
143,	-13604
532,	-13605
alea	-13606
alee	-13607
cale	-13608
▁507	-13609
acism	-13610
chale	-13611
enues	-13612
tysis	-13613
▁2.4%	-13614
▁61.6	-13615
▁Diff	-13616
▁Sept	-13617
▁Temp	-13618
▁bump	-13619
▁male	-13620
▁penn	-13621
affner	-13622
arches	-13623
center	-13624
ingale	-13625
inucle	-13626
planed	-13627
tances	-13628
▁235,8	-13629
▁269,0	-13630
▁4,610	-13631
▁Alert	-13632
▁Being	-13633
▁Nucle	-13634
▁bumps	-13635
▁drops	-13636
▁galea	-13637
▁owner	-13638
▁whale	-13639
532,057	-13640
iraling	-13641
lectron	-13642
oaching	-13643
optysis	-13644
▁5,143,	-13645
▁Airway	-13646
▁Mchale	-13647
▁Racism	-13648
▁Septic	-13649
▁Venues	-13650
▁inserm	-13651
▁orient	-13652
▁tralee	-13653
aception	-13654
chaffner	-13655
moptysis	-13656
ographer	-13657
▁235,854	-13658
▁Diffuse	-13659
▁Nucleic	-13660
▁academy	-13661
▁eastern	-13662
▁nowhere	-13663
▁smaller	-13664
▁sourced	-13665
itability	-13666
▁269,037.	-13667
▁Electron	-13668
▁Treating	-13669
▁advances	-13670
▁deplaned	-13671
▁googlepl	-13672
▁grilling	-13673
▁handwash	-13674
▁holdings	-13675
▁horrific	-13676
▁hydrogen	-13677
▁imagined	-13678
▁impaired	-13679
▁improves	-13680
▁inadvert	-13681
▁inserted	-13682
▁insomnia	-13683
▁intramus	-13684
▁japanese	-13685
▁kawasaki	-13686
▁kogenebi	-13687
▁landlord	-13688
▁licensed	-13689
▁lifetime	-13690
▁literacy	-13691
▁lobbying	-13692
▁logistic	-13693
▁loughrea	-13694
▁maryland	-13695
▁mccarthy	-13696
▁mcmorrow	-13697
▁memories	-13698
▁merriman	-13699
29%	-13700
299	-13701
toe	-13702
rays	-13703
thru	-13704
▁"12	-13705
▁(21	-13706
▁329	-13707
▁829	-13708
▁eua	-13709
▁ffs	-13710
▁lij	-13711
▁pto	-13712
dives	-13713
erged	-13714
geted	-13715
iteri	-13716
ussis	-13717
▁(29%	-13718
▁112.	-13719
▁3,29	-13720
▁32%,	-13721
▁46.2	-13722
▁Athy	-13723
▁Ways	-13724
▁node	-13725
▁onto	-13726
▁rays	-13727
contam	-13728
ileged	-13729
ledged	-13730
▁(21%)	-13731
▁2,299	-13732
▁3,292	-13733
▁Again	-13734
▁Onset	-13735
▁Resur	-13736
▁Shand	-13737
▁Share	-13738
▁black	-13739
▁ideal	-13740
▁posts	-13741
▁tolls	-13742
-202012	-13743
argeted	-13744
emerged	-13745
playing	-13746
unately	-13747
▁30-65.	-13748
▁46.2%)	-13749
▁Either	-13750
▁Opport	-13751
▁adapts	-13752
▁americ	-13753
▁assays	-13754
▁basics	-13755
▁leader	-13756
▁lijian	-13757
▁sprays	-13758
ertussis	-13759
ivileged	-13760
▁"12,000	-13761
▁172,726	-13762
▁Resurge	-13763
▁Toilets	-13764
▁multior	-13765
▁posting	-13766
▁sickest	-13767
▁spiteri	-13768
▁Deleting	-13769
▁Shandars	-13770
▁Targeted	-13771
▁academia	-13772
▁americas	-13773
▁decontam	-13774
▁maldives	-13775
▁mandarin	-13776
▁michigan	-13777
▁midlands	-13778
▁minimise	-13779
▁minority	-13780
▁modelers	-13781
▁modeling	-13782
▁modestly	-13783
▁mulgrave	-13784
▁mulhouse	-13785
▁multilob	-13786
▁naughton	-13787
▁necessit	-13788
▁nitrogen	-13789
▁obscured	-13790
▁observes	-13791
▁outlined	-13792
▁palantir	-13793
▁paraguay	-13794
▁payments	-13795
▁persists	-13796
▁petition	-13797
▁phylogen	-13798
▁pictures	-13799
23,	-13800
3,8	-13801
fsc	-13802
scf	-13803
7,65	-13804
lite	-13805
orph	-13806
phal	-13807
site	-13808
unsc	-13809
yndr	-13810
▁172	-13811
▁173	-13812
▁280	-13813
▁283	-13814
▁284	-13815
▁288	-13816
▁289	-13817
▁3,0	-13818
▁337	-13819
▁450	-13820
▁Rph	-13821
▁geo	-13822
▁lrt	-13823
3,892	-13824
7,657	-13825
eneck	-13826
licit	-13827
ndrit	-13828
oryza	-13829
phate	-13830
▁18.5	-13831
▁2800	-13832
▁Aids	-13833
▁alph	-13834
▁calm	-13835
▁says	-13836
▁vinc	-13837
▁zinc	-13838
enovir	-13839
ericov	-13840
licity	-13841
orphic	-13842
▁231,1	-13843
▁3,066	-13844
▁Elite	-13845
▁Syndr	-13846
▁White	-13847
▁backl	-13848
▁carlo	-13849
▁democ	-13850
▁lrtis	-13851
▁physi	-13852
▁waits	-13853
licitly	-13854
ndritic	-13855
osphate	-13856
▁2,023,	-13857
▁Rphost	-13858
▁backed	-13859
▁coryza	-13860
▁democr	-13861
▁guided	-13862
▁implic	-13863
▁listen	-13864
▁subset	-13865
▁waited	-13866
encephal	-13867
ifenovir	-13868
▁127,657	-13869
▁193,892	-13870
▁231,119	-13871
▁246,204	-13872
▁400,335	-13873
▁elapsed	-13874
▁vincent	-13875
mifenovir	-13876
▁backlash	-13877
▁encephal	-13878
▁platelet	-13879
▁portfoli	-13880
▁postpone	-13881
▁potatoes	-13882
▁povidone	-13883
▁profiles	-13884
▁programs	-13885
▁promoted	-13886
▁property	-13887
▁prospect	-13888
▁qingming	-13889
▁raincoat	-13890
▁reacting	-13891
▁receives	-13892
▁receptac	-13893
▁regarded	-13894
▁reintrod	-13895
▁relieved	-13896
▁reminder	-13897
▁resemble	-13898
▁residual	-13899
0%)	-13900
1),	-13901
50%	-13902
jav	-13903
nlr	-13904
▁fp	-13905
.0%)	-13906
ccdc	-13907
fjav	-13908
fund	-13909
loyd	-13910
mets	-13911
omav	-13912
pets	-13913
shap	-13914
▁1,4	-13915
▁1,8	-13916
▁1,9	-13917
▁25)	-13918
▁cup	-13919
erlin	-13920
fjavz	-13921
imize	-13922
▁-50%	-13923
▁Pets	-13924
▁Soon	-13925
▁nets	-13926
accoon	-13927
anosis	-13928
atters	-13929
erosis	-13930
formal	-13931
funded	-13932
shaped	-13933
terest	-13934
undant	-13935
▁1,386	-13936
▁1,414	-13937
▁1,800	-13938
▁1,910	-13939
▁3,980	-13940
▁9.0%)	-13941
▁Lloyd	-13942
▁flamm	-13943
▁flare	-13944
▁outer	-13945
▁setup	-13946
▁spoon	-13947
college	-13948
illomav	-13949
inimize	-13950
itizing	-13951
lerosis	-13952
▁Employ	-13953
▁Gently	-13954
▁berlin	-13955
▁deploy	-13956
▁equine	-13957
▁jamaat	-13958
▁makeup	-13959
▁markov	-13960
▁reject	-13961
▁tfjavz	-13962
cheduled	-13963
ickening	-13964
▁Appoint	-13965
▁appreci	-13966
▁equally	-13967
▁helmets	-13968
▁illustr	-13969
▁leagues	-13970
▁matters	-13971
▁raccoon	-13972
▁regards	-13973
▁startup	-13974
apillomav	-13975
extremely	-13976
▁Interest	-13977
▁Minimize	-13978
▁cyanosis	-13979
▁deployed	-13980
▁equality	-13981
▁residues	-13982
▁respects	-13983
▁retained	-13984
▁reviewed	-13985
▁richards	-13986
▁rigorous	-13987
▁ringsend	-13988
▁routines	-13989
▁russians	-13990
▁sacrific	-13991
▁sarbecov	-13992
▁scanning	-13993
▁sciences	-13994
▁scottish	-13995
▁screened	-13996
▁searches	-13997
▁secreted	-13998
▁securely	-13999
086	-14000
dge	-14001
eds	-14002
gei	-14003
▁Cc	-14004
arge	-14005
dgeh	-14006
fall	-14007
roll	-14008
▁233	-14009
▁800	-14010
▁Cur	-14011
▁Ira	-14012
▁Sle	-14013
▁cun	-14014
▁nan	-14015
aints	-14016
avers	-14017
diagn	-14018
distr	-14019
heell	-14020
ibaba	-14021
large	-14022
omain	-14023
unate	-14024
▁(40%	-14025
▁Care	-14026
▁Cill	-14027
▁caut	-14028
▁cuts	-14029
▁pose	-14030
▁rose	-14031
▁spar	-14032
▁spin	-14033
▁spon	-14034
▁stab	-14035
ambers	-14036
arrick	-14037
dgehog	-14038
imated	-14039
izures	-14040
▁27%).	-14041
▁3,086	-14042
▁47.7%	-14043
▁Careg	-14044
▁Sleep	-14045
▁Units	-14046
▁cunha	-14047
▁kills	-14048
▁leeds	-14049
▁nanop	-14050
▁snook	-14051
▁unres	-14052
itorial	-14053
october	-14054
▁Domain	-14055
▁Guidel	-14056
▁Sleepy	-14057
▁heated	-14058
▁savers	-14059
▁seated	-14060
▁sergei	-14061
▁sparse	-14062
▁sponge	-14063
▁wheell	-14064
diagnose	-14065
distract	-14066
ensified	-14067
eratures	-14068
▁Carrick	-14069
▁Curling	-14070
▁Typical	-14071
▁alibaba	-14072
▁cholang	-14073
▁placing	-14074
▁snooker	-14075
▁tevilah	-14076
estimated	-14077
▁cautious	-14078
▁chambers	-14079
▁conducts	-14080
▁handball	-14081
▁hedgehog	-14082
▁moisture	-14083
▁restless	-14084
▁securing	-14085
▁seizures	-14086
▁senators	-14087
▁seychell	-14088
▁sherlock	-14089
▁shipping	-14090
▁shortcut	-14091
▁silvestr	-14092
▁slovakia	-14093
▁slowdown	-14094
▁solvents	-14095
▁southern	-14096
▁speakers	-14097
▁speaking	-14098
▁spinning	-14099
crp	-14100
elp	-14101
rtc	-14102
▁ah	-14103
ivac	-14104
safe	-14105
unto	-14106
wine	-14107
▁20.	-14108
▁63%	-14109
▁683	-14110
▁Sta	-14111
▁Sum	-14112
▁bun	-14113
▁byr	-14114
▁eel	-14115
▁fel	-14116
▁syr	-14117
aline	-14118
avior	-14119
inner	-14120
ivate	-14121
▁78%)	-14122
▁Help	-14123
▁Post	-14124
▁Staf	-14125
▁Summ	-14126
▁bare	-14127
▁chun	-14128
▁fare	-14129
▁mine	-14130
▁raid	-14131
▁reun	-14132
esting	-14133
havior	-14134
▁Staff	-14135
▁ahmed	-14136
▁array	-14137
▁buncl	-14138
▁byrne	-14139
▁chuny	-14140
▁kerry	-14141
▁raidi	-14142
▁stric	-14143
▁syria	-14144
entions	-14145
etables	-14146
inement	-14147
▁angled	-14148
▁canary	-14149
▁closer	-14150
▁dewine	-14151
▁dinner	-14152
▁fellow	-14153
▁ferret	-14154
▁income	-14155
▁lesson	-14156
▁radios	-14157
▁unsafe	-14158
havioral	-14159
ongevity	-14160
▁Ideally	-14161
▁Summary	-14162
▁ahmedab	-14163
▁chunyun	-14164
▁covivac	-14165
▁hyaline	-14166
criminals	-14167
stentions	-14168
▁barracks	-14169
▁bunclody	-14170
▁differed	-14171
▁gamblers	-14172
▁hereunto	-14173
▁mortimer	-14174
▁motivate	-14175
▁organise	-14176
▁reunions	-14177
▁splashed	-14178
▁statutes	-14179
▁stickers	-14180
▁stocking	-14181
▁stopover	-14182
▁strained	-14183
▁stricter	-14184
▁strictly	-14185
▁stronger	-14186
▁subgenus	-14187
▁substand	-14188
▁subunits	-14189
▁suicides	-14190
▁superint	-14191
▁supermod	-14192
▁suspends	-14193
▁sweating	-14194
▁switches	-14195
▁symbolic	-14196
▁symmetry	-14197
▁synctial	-14198
▁takeaway	-14199
qi	-14200
bul	-14201
dac	-14202
hoc	-14203
band	-14204
pped	-14205
rhin	-14206
tial	-14207
▁27,	-14208
▁303	-14209
▁311	-14210
▁Tet	-14211
▁yem	-14212
atics	-14213
ialic	-14214
ialod	-14215
ocess	-14216
oding	-14217
qiang	-14218
▁128,	-14219
▁2016	-14220
▁214,	-14221
▁2500	-14222
▁Publ	-14223
▁Tiss	-14224
▁adhe	-14225
▁bust	-14226
▁hdac	-14227
▁neil	-14228
▁pupp	-14229
▁rica	-14230
▁tand	-14231
coding	-14232
cytial	-14233
olling	-14234
orople	-14235
usband	-14236
▁Holes	-14237
▁Tetan	-14238
▁angus	-14239
▁nasda	-14240
▁peter	-14241
▁puppy	-14242
▁stark	-14243
▁sugar	-14244
▁yemen	-14245
amation	-14246
ocessed	-14247
▁(47%),	-14248
▁214,37	-14249
▁231,48	-14250
▁Laying	-14251
▁Sialod	-14252
▁Tissue	-14253
▁andres	-14254
▁expuls	-14255
▁garlic	-14256
▁intact	-14257
▁manual	-14258
▁mapped	-14259
▁nasdaq	-14260
▁partly	-14261
▁septal	-14262
▁sialic	-14263
▁supple	-14264
▁tandem	-14265
oropleth	-14266
▁128,948	-14267
▁214,378	-14268
▁231,484	-14269
▁Surface	-14270
▁Tetanus	-14271
▁Tracing	-14272
▁adhered	-14273
▁husband	-14274
▁islamic	-14275
▁keqiang	-14276
▁loughan	-14277
▁plateau	-14278
quamation	-14279
tribution	-14280
▁1,005,29	-14281
▁Stopping	-14282
▁bustling	-14283
▁entrance	-14284
▁internal	-14285
▁istanbul	-14286
▁reminded	-14287
▁tensions	-14288
▁thrombus	-14289
▁timeline	-14290
▁topology	-14291
▁tortured	-14292
▁tripling	-14293
▁umbrella	-14294
▁uncoated	-14295
▁unlawful	-14296
▁unusable	-14297
▁upgrades	-14298
▁usefully	-14299
abc	-14300
lee	-14301
umn	-14302
▁.0	-14303
▁93	-14304
▁ap	-14305
aval	-14306
come	-14307
gher	-14308
some	-14309
umom	-14310
▁598	-14311
▁Fog	-14312
▁Ins	-14313
▁pig	-14314
▁sep	-14315
▁shu	-14316
▁vou	-14317
achip	-14318
eness	-14319
ivial	-14320
sever	-14321
trics	-14322
uming	-14323
▁.08%	-14324
▁10-4	-14325
▁4,10	-14326
▁coup	-14327
▁fate	-14328
▁hate	-14329
▁ites	-14330
▁saif	-14331
atumom	-14332
erning	-14333
▁4,109	-14334
▁598.0	-14335
▁8665.	-14336
▁Sales	-14337
▁Sweet	-14338
▁hepar	-14339
▁naval	-14340
▁shout	-14341
cerning	-14342
oplanes	-14343
oteness	-14344
plified	-14345
several	-14346
▁14,000	-14347
▁598.02	-14348
▁60,000	-14349
▁Insert	-14350
▁albeit	-14351
▁autumn	-14352
▁inslee	-14353
▁saifur	-14354
▁sepsis	-14355
▁stadia	-14356
▁tachip	-14357
▁youths	-14358
atumomab	-14359
ogenital	-14360
▁101,887	-14361
▁Spanish	-14362
▁apology	-14363
▁batches	-14364
▁coupang	-14365
▁heparin	-14366
▁metrics	-14367
▁pharmac	-14368
▁tougher	-14369
▁trivial	-14370
▁articles	-14371
▁overcome	-14372
▁resuming	-14373
▁sanzhary	-14374
▁shouting	-14375
▁valuable	-14376
▁vitamins	-14377
▁vouchers	-14378
▁watering	-14379
▁waterpro	-14380
▁weakness	-14381
▁websites	-14382
▁weddings	-14383
▁whatsapp	-14384
▁xinjiang	-14385
▁zaragoza	-14386
▁zoonoses	-14387
20,000,000	-14388
agocytosis	-14389
agulopathy	-14390
aintaining	-14391
akeholders	-14392
attenuated	-14393
censorship	-14394
compulsory	-14395
concerning	-14396
deliveries	-14397
edontcomet	-14398
equivalent	-14399
hx	-14400
ece	-14401
hta	-14402
ldi	-14403
sta	-14404
sti	-14405
ulf	-14406
uma	-14407
adol	-14408
htag	-14409
long	-14410
mpit	-14411
ohns	-14412
post	-14413
uler	-14414
▁26,	-14415
▁8.9	-14416
▁aet	-14417
▁aud	-14418
acety	-14419
adolu	-14420
agher	-14421
aguma	-14422
ctang	-14423
johns	-14424
ogram	-14425
stage	-14426
▁100%	-14427
▁26,4	-14428
▁Aldi	-14429
▁Park	-14430
▁aeti	-14431
▁dece	-14432
▁gulf	-14433
▁herb	-14434
▁suct	-14435
illery	-14436
indows	-14437
paguma	-14438
posted	-14439
utland	-14440
▁8.9).	-14441
▁Leitr	-14442
▁audit	-14443
▁hairs	-14444
▁mispl	-14445
▁reply	-14446
droplet	-14447
ilogram	-14448
johnson	-14449
onagher	-14450
▁26,494	-14451
▁armpit	-14452
▁bubble	-14453
▁resort	-14454
▁suited	-14455
ctangles	-14456
drinking	-14457
lonagher	-14458
▁Bonaire	-14459
▁Leitrim	-14460
▁Ongoing	-14461
▁Windows	-14462
▁acquire	-14463
▁anadolu	-14464
▁beasley	-14465
▁coviran	-14466
▁hashtag	-14467
▁jutland	-14468
▁milford	-14469
▁suction	-14470
diagnosed	-14471
▁deceased	-14472
▁kilogram	-14473
▁minimize	-14474
▁phorpain	-14475
▁scarcity	-14476
▁signific	-14477
acetylated	-14478
imposition	-14479
incubation	-14480
introduced	-14481
istinguish	-14482
meaningful	-14483
mitigation	-14484
ngineering	-14485
ocorticoid	-14486
ocytopenia	-14487
opeptidase	-14488
otentially	-14489
owelscreen	-14490
presumably	-14491
redictable	-14492
respective	-14493
rohexidine	-14494
roorganism	-14495
supportive	-14496
suspending	-14497
traception	-14498
umlonagher	-14499
If	-14500
-2;	-14501
has	-14502
oms	-14503
qha	-14504
izac	-14505
rome	-14506
▁(18	-14507
▁377	-14508
▁901	-14509
▁Sen	-14510
▁ade	-14511
▁alg	-14512
▁alz	-14513
▁nod	-14514
▁yad	-14515
erche	-14516
izaci	-14517
▁2.5%	-14518
▁20-3	-14519
▁Prob	-14520
▁adej	-14521
▁dust	-14522
▁heal	-14523
▁novi	-14524
▁seir	-14525
▁stor	-14526
erchek	-14527
mental	-14528
ortant	-14529
▁176,8	-14530
▁Moyle	-14531
▁adeje	-14532
▁backd	-14533
▁loans	-14534
▁soaps	-14535
▁twent	-14536
▁yaday	-14537
▁20-30%	-14538
▁Senior	-14539
▁chrome	-14540
▁dosing	-14541
▁eleven	-14542
▁leaves	-14543
▁reluct	-14544
▁sequel	-14545
disheart	-14546
ortantly	-14547
owerchek	-14548
▁176,839	-14549
▁223,957	-14550
▁37.6%),	-14551
▁algeria	-14552
▁facemas	-14553
▁humoral	-14554
▁skating	-14555
▁storage	-14556
▁twentie	-14557
▁yadayim	-14558
powerchek	-14559
▁Probable	-14560
▁actively	-14561
▁judgment	-14562
▁occasion	-14563
▁prototyp	-14564
▁sequelae	-14565
▁tylonyct	-14566
underlying	-14567
▁(20-25%),	-14568
▁1,005,295	-14569
▁1,051,635	-14570
▁1,361,564	-14571
▁100,000),	-14572
▁100,000).	-14573
▁2,240,191	-14574
▁2,850,889	-14575
▁2018-2019	-14576
▁3,532,057	-14577
▁3,778,711	-14578
▁Ambulance	-14579
▁Anonymous	-14580
▁Argentina	-14581
▁Ashbourne	-14582
▁Australia	-14583
▁Belturbet	-14584
▁Bolsonaro	-14585
▁Brazilian	-14586
▁Castlebar	-14587
▁Causative	-14588
▁Certainly	-14589
▁Cigarette	-14590
▁Clustered	-14591
▁Comparing	-14592
▁Confirmed	-14593
▁Contagion	-14594
▁Detergent	-14595
▁Diagnosis	-14596
▁Diarrhoea	-14597
▁Dizziness	-14598
▁Employers	-14599
yon	-14600
▁Cd	-14601
▁rc	-14602
▁rh	-14603
also	-14604
avid	-14605
bage	-14606
ethe	-14607
heet	-14608
igid	-14609
inet	-14610
kung	-14611
opst	-14612
sers	-14613
stop	-14614
uden	-14615
▁379	-14616
▁503	-14617
▁631	-14618
▁Ann	-14619
▁Caf	-14620
▁abe	-14621
▁crp	-14622
▁fet	-14623
▁neg	-14624
▁nih	-14625
▁pri	-14626
▁ran	-14627
▁ren	-14628
▁rhp	-14629
▁rid	-14630
▁rit	-14631
-1960	-14632
Users	-14633
auden	-14634
etent	-14635
iable	-14636
ourly	-14637
▁Dire	-14638
▁Perc	-14639
▁anom	-14640
▁aven	-14641
▁demy	-14642
▁dial	-14643
▁fill	-14644
▁hall	-14645
▁rcog	-14646
▁reck	-14647
[...]
