<pad>	0
</s>	0
<unk>	0
s	-3.10555
▁the	-3.37858
▁	-3.38009
,	-3.73748
e	-3.84463
.	-3.99524
▁of	-4.08456
t	-4.10684
▁to	-4.11592
d	-4.26876
▁and	-4.31014
▁in	-4.31233
o	-4.36172
ing	-4.38352
▁a	-4.39104
c	-4.44722
a	-4.58174
n	-4.67904
ed	-4.71995
m	-4.7228
al	-4.73151
er	-4.75376
y	-4.7744
f	-4.81258
p	-4.84589
▁that	-4.89213
▁is	-4.91197
u	-4.93626
in	-4.94101
ar	-4.95416
re	-4.97257
h	-4.99004
i	-4.99637
g	-5.02746
l	-5.06933
▁for	-5.07962
▁re	-5.11758
b	-5.12199
▁I	-5.13909
▁p	-5.18334
▁be	-5.20588
or	-5.20748
r	-5.21701
▁f	-5.22779
it	-5.2291
an	-5.25629
ly	-5.31053
ation	-5.35867
▁on	-5.37918
▁we	-5.40292
ic	-5.40538
k	-5.49859
le	-5.50082
▁this	-5.52076
v	-5.54961
▁are	-5.56525
ri	-5.59118
on	-5.59369
en	-5.62737
es	-5.64914
at	-5.65813
▁c	-5.66735
▁with	-5.69291
th	-5.69609
st	-5.72091
ent	-5.72552
▁The	-5.74811
▁as	-5.7568
▁European	-5.7699
▁have	-5.78005
ment	-5.78068
▁m	-5.78262
ion	-5.79594
▁not	-5.79849
ive	-5.81265
is	-5.81521
▁it	-5.81638
w	-5.83684
▁con	-5.83761
▁b	-5.8595
ur	-5.8894
as	-5.89091
ter	-5.90248
'	-5.90954
ate	-5.92827
tion	-5.93384
▁st	-5.93821
ro	-5.96195
▁A	-5.97542
▁de	-5.98362
ul	-6.0053
-	-6.01375
▁l	-6.02783
il	-6.02788
▁an	-6.03142
▁will	-6.03582
ne	-6.04025
ch	-6.0444
▁which	-6.04626
te	-6.06226
ce	-6.09086
ies	-6.0926
▁S	-6.11178
▁by	-6.11574
▁pro	-6.13472
▁t	-6.15904
ad	-6.1638
im	-6.19064
▁r	-6.20345
ra	-6.22162
ow	-6.22577
▁ex	-6.23281
el	-6.24248
▁has	-6.25959
ol	-6.27439
▁do	-6.2899
ut	-6.29143
la	-6.30905
▁-	-6.30994
▁C	-6.31219
ity	-6.31566
▁Commission	-6.32126
▁all	-6.34295
act	-6.34298
et	-6.35248
end	-6.36541
ight	-6.3695
li	-6.38019
ver	-6.3877
ve	-6.38939
▁w	-6.40293
vi	-6.41397
▁Mr	-6.43461
▁also	-6.44364
▁g	-6.45956
▁at	-6.47123
▁(	-6.49007
)	-6.49283
ers	-6.49293
▁me	-6.4931
able	-6.49334
ist	-6.50862
0	-6.51591
ir	-6.52264
▁EU	-6.52315
com	-6.52635
us	-6.52715
▁would	-6.53793
▁you	-6.53891
un	-6.54231
▁so	-6.56324
▁se	-6.56545
and	-6.56765
▁su	-6.57844
▁Member	-6.58413
op	-6.58476
▁We	-6.58633
▁from	-6.59271
qu	-6.59311
▁mo	-6.59816
ge	-6.59886
▁M	-6.59966
▁our	-6.6152
▁President	-6.61854
▁should	-6.63075
▁F	-6.63387
▁us	-6.64441
▁co	-6.64836
ci	-6.64846
ig	-6.65725
▁must	-6.67202
▁d	-6.67778
ous	-6.68097
id	-6.68799
▁comp	-6.69306
age	-6.70066
lo	-6.70871
▁In	-6.71837
▁pre	-6.7233
▁need	-6.73123
▁but	-6.73334
▁P	-6.73413
▁B	-6.74213
▁Union	-6.74272
ance	-6.7504
ence	-6.76351
ti	-6.76978
ru	-6.77721
ac	-6.78928
▁or	-6.79134
gr	-6.79135
x	-6.79334
▁e	-6.80651
ta	-6.82716
▁report	-6.83374
▁States	-6.83951
▁been	-6.84215
▁Parliament	-6.84904
▁am	-6.86136
▁It	-6.86488
und	-6.87086
▁can	-6.87223
▁more	-6.87741
▁was	-6.88902
ally	-6.89054
▁T	-6.92126
R	-6.93382
▁he	-6.93424
am	-6.93638
▁who	-6.9384
em	-6.93941
▁their	-6.94035
ure	-6.94526
▁G	-6.94607
▁like	-6.94674
▁en	-6.95496
▁Europe	-6.95704
▁work	-6.95846
▁its	-6.96666
ill	-6.96791
app	-6.97506
▁un	-6.98201
our	-6.99263
▁This	-6.99574
om	-6.99998
ak	-7.00252
▁very	-7.00433
2	-7.00786
E	-7.00934
▁E	-7.04827
▁sh	-7.09204
▁ho	-7.09784
▁support	-7.09801
ck	-7.10005
ia	-7.10332
um	-7.10518
▁sp	-7.11289
▁important	-7.11475
▁these	-7.11833
▁other	-7.11924
ap	-7.12403
▁part	-7.13003
▁W	-7.13426
ish	-7.14129
▁countries	-7.1433
▁take	-7.1452
▁O	-7.1501
▁H	-7.15079
▁1	-7.15399
:	-7.16962
▁no	-7.17276
▁dis	-7.17473
▁Council	-7.17488
▁time	-7.17584
ated	-7.18484
est	-7.20168
▁people	-7.20472
▁new	-7.22058
j	-7.22192
▁than	-7.22373
▁out	-7.22811
▁about	-7.23131
z	-7.23788
tra	-7.24034
▁D	-7.24528
ide	-7.24584
iv	-7.25155
ary	-7.26905
day	-7.26906
▁one	-7.28698
▁L	-7.29072
▁some	-7.30072
▁N	-7.30436
▁year	-7.31318
▁my	-7.31352
▁because	-7.32247
▁what	-7.33026
▁up	-7.33364
▁policy	-7.3471
▁vote	-7.35816
▁under	-7.36569
port	-7.3666
▁trans	-7.36692
▁issue	-7.38788
▁only	-7.38898
▁market	-7.42765
P	-7.42957
▁make	-7.43234
▁go	-7.43409
1	-7.43527
▁economic	-7.43765
U	-7.44093
ian	-7.47966
▁particular	-7.48792
▁such	-7.49767
S	-7.50034
▁between	-7.50245
▁into	-7.52336
▁see	-7.52948
▁if	-7.55819
▁now	-7.55912
▁proposal	-7.56117
▁imp	-7.56135
9	-7.56371
?	-7.56518
ough	-7.57655
▁di	-7.59213
▁200	-7.59622
5	-7.59884
▁those	-7.62969
▁agreement	-7.6306
T	-7.63107
▁citizens	-7.63658
▁when	-7.64667
▁problem	-7.6478
▁clear	-7.64946
▁believe	-7.65742
▁therefore	-7.65878
▁financial	-7.66164
▁human	-7.66364
▁say	-7.67815
A	-7.68282
▁just	-7.6829
▁concern	-7.68947
▁even	-7.69017
▁over	-7.69124
form	-7.69162
▁think	-7.69595
▁political	-7.69903
▁social	-7.7009
3	-7.70356
▁system	-7.70564
▁against	-7.70616
▁Re	-7.71406
▁way	-7.71544
▁energy	-7.71959
▁development	-7.72506
▁point	-7.72582
▁20	-7.73328
▁regard	-7.73547
C	-7.7359
▁direct	-7.74862
;	-7.74942
▁want	-7.75857
▁many	-7.7662
▁situation	-7.76648
▁region	-7.77847
▁crisis	-7.77879
▁effect	-7.78601
▁well	-7.79419
▁However	-7.79535
▁made	-7.79694
▁know	-7.79857
▁good	-7.80053
▁great	-7.80377
▁level	-7.80479
▁question	-7.80687
▁first	-7.81005
D	-7.81843
▁debate	-7.82098
▁order	-7.84131
▁change	-7.8426
7	-7.84432
8	-7.84619
▁country	-7.84956
▁high	-7.8574
stitution	-7.86332
▁measures	-7.8728
▁adopt	-7.87343
4	-7.8778
O	-7.89661
▁implement	-7.90657
▁ensure	-7.91085
J	-7.91333
▁future	-7.91448
▁national	-7.91609
▁case	-7.91816
▁where	-7.91904
K	-7.92314
▁provide	-7.92738
L	-7.93189
▁through	-7.94983
▁result	-7.9592
%	-7.96152
▁budget	-7.97275
I	-7.97303
ship	-7.97544
▁public	-7.97555
▁same	-7.97667
▁every	-7.98341
▁world	-7.98988
▁Madam	-8.01004
V	-8.01056
▁sector	-8.01569
▁action	-8.01762
▁call	-8.02188
6	-8.02396
▁current	-8.02665
▁possible	-8.02772
▁cannot	-8.03285
▁long	-8.04022
▁That	-8.04053
▁consider	-8.04776
▁respect	-8.0527
▁help	-8.05369
▁international	-8.06315
▁could	-8.06814
▁cooperation	-8.06949
▁two	-8.07253
ability	-8.07456
▁resolution	-8.07691
▁law	-8.08132
▁much	-8.08315
▁place	-8.08422
▁interest	-8.08716
▁increase	-8.09497
▁common	-8.10008
▁favour	-8.10461
F	-8.10953
▁agree	-8.11064
▁rapporteur	-8.11317
▁environment	-8.11807
▁already	-8.12378
▁process	-8.13196
▁said	-8.13617
▁both	-8.13756
▁certain	-8.14122
▁decision	-8.14232
▁view	-8.1495
▁require	-8.15041
▁hope	-8.15102
▁access	-8.15132
▁Treaty	-8.16429
▁discuss	-8.17817
▁achieve	-8.18602
elect	-8.18752
▁security	-8.19679
▁matter	-8.20514
▁writing	-8.21362
▁Committee	-8.21523
▁develop	-8.21666
▁course	-8.22167
▁health	-8.22579
▁example	-8.226
▁service	-8.22874
N	-8.23023
▁regulation	-8.24656
▁major	-8.25193
▁information	-8.25519
▁global	-8.25801
▁gentlemen	-8.26277
▁continue	-8.26402
▁number	-8.27028
▁group	-8.27223
▁improve	-8.27752
▁Group	-8.28514
▁women	-8.2868
▁principle	-8.28991
▁trade	-8.29222
▁legal	-8.29322
▁necessary	-8.31841
▁programme	-8.32806
▁welcome	-8.33879
▁represent	-8.34788
▁objective	-8.34961
▁establish	-8.36244
mission	-8.36401
▁consumer	-8.3661
▁Lisbon	-8.37037
▁close	-8.37046
▁climate	-8.37506
▁account	-8.40901
▁strategy	-8.41693
▁behalf	-8.41879
▁effort	-8.42744
▁follow	-8.43213
▁position	-8.44922
▁difficult	-8.45635
▁employ	-8.45759
M	-8.45853
▁specific	-8.47022
▁job	-8.47442
▁different	-8.48343
▁framework	-8.48541
▁government	-8.4857
▁approach	-8.48811
▁project	-8.49181
▁strong	-8.49553
▁legislation	-8.49567
▁including	-8.502
▁freedom	-8.50286
G	-8.77691
B	-9.05676
H	-9.38224
W	-10.028
(	-10.1619
q	-10.2805
