<pad>	0
</s>	0
<unk>	0
▁¦	-0
्य	-1
्या	-2
▁.	-3
्र	-4
ार	-5
ां	-6
ना	-7
ात	-8
र्	-9
हे	-10
ला	-11
▁,	-12
कर	-13
क्	-14
च्या	-15
वा	-16
आहे	-17
ले	-18
प्र	-19
ही	-20
का	-21
ण्या	-22
ल्या	-23
सा	-24
स्	-25
चा	-26
ती	-27
सं	-28
्ह	-29
ची	-30
वि	-31
मा	-32
के	-33
या	-34
रो	-35
आण	-36
ली	-37
ने	-38
को	-39
ून	-40
आणि	-41
ता	-42
हो	-43
मध	-44
अस	-45
त्या	-46
ंत	-47
रा	-48
नि	-49
्ये	-50
णा	-51
ते	-52
पा	-53
क्ष	-54
पर	-55
कार	-56
चे	-57
ठी	-58
मध्ये	-59
मु	-60
वर	-61
नी	-62
साठी	-63
ित	-64
दे	-65
व्ह	-66
िक	-67
रु	-68
दि	-69
जा	-70
झा	-71
ग्	-72
लं	-73
वे	-74
ील	-75
ंद	-76
शी	-77
तर	-78
कोरो	-79
कोरोना	-80
म्ह	-81
ये	-82
करण्या	-83
यां	-84
्ट	-85
की	-86
सर्	-87
हि	-88
बा	-89
हा	-90
सी	-91
रुग्	-92
णे	-93
तात	-94
सि	-95
त्	-96
सु	-97
चं	-98
ळे	-99
कड	-100
वी	-101
स्थ	-102
लेल्या	-103
ऱ्या	-104
आहेत	-105
नाही	-106
पु	-107
शा	-108
सर	-109
भा	-110
मी	-111
णी	-112
िं	-113
गा	-114
द्	-115
जे	-116
ष्ट	-117
से	-118
शक	-119
लो	-120
ज्या	-121
तो	-122
सां	-123
सार	-124
णार	-125
0¦	-126
त्यां	-127
ाय	-128
रोग	-129
वार	-130
▁𐊣	-131
णां	-132
▁¦2	-133
▁¦1	-134
कां	-135
मुळे	-136
मो	-137
ति	-138
घे	-139
न्	-140
ंत्र	-141
मि	-142
ारा	-143
जन	-144
दा	-145
रे	-146
त्र	-147
री	-148
ल्	-149
उप	-150
ंतर	-151
ण्यात	-152
शि	-153
एक	-154
पू	-155
देश	-156
गे	-157
स्ट	-158
▁"	-159
ळा	-160
यो	-161
तील	-162
किं	-163
विष	-164
क्र	-165
रू	-166
लस	-167
▁(	-168
दु	-169
म्हण	-170
जी	-171
टी	-172
पे	-173
▁)	-174
9¦	-175
आरोग	-176
सरकार	-177
व्य	-178
्यां	-179
मे	-180
पास	-181
किंवा	-182
वर्	-183
पण	-184
परि	-185
टा	-186
▁'	-187
टे	-188
ार्	-189
तु	-190
आरोग्य	-191
निर्	-192
काही	-193
चार	-194
नंतर	-195
स्त	-196
्ही	-197
णू	-198
जात	-199
लाग	-200
मान	-201
यांनी	-202
मह	-203
धी	-204
रि	-205
वाढ	-206
संसर्	-207
डॉ	-208
▁?	-209
ंद्र	-210
िल	-211
सांग	-212
ळी	-213
असल्या	-214
श्	-215
रात	-216
करण्यात	-217
कमी	-218
िती	-219
जार	-220
अध	-221
्यंत	-222
सो	-223
होत	-224
णाऱ्या	-225
बं	-226
लक्ष	-227
व्हि	-228
संख	-229
विषा	-230
धा	-231
खा	-232
डे	-233
राज्या	-234
पूर्	-235
ष्ट्र	-236
णं	-237
विषाणू	-238
सर्व	-239
भार	-240
लशी	-241
-1	-242
दी	-243
्यू	-244
द्या	-245
गर	-246
असे	-247
क्षा	-248
असं	-249
लोकां	-250
पर्यंत	-251
मंत्र	-252
लसी	-253
ऊन	-254
केली	-255
ण्यासाठी	-256
चाच	-257
प्रमा	-258
रुग्णां	-259
नु	-260
क्त	-261
ंब	-262
ज्	-263
लि	-264
-19¦	-265
ृत	-266
दिव	-267
क्सि	-268
co	-269
ठा	-270
बत	-271
ताना	-272
गी	-273
नो	-274
्यात	-275
यु	-276
लॉ	-277
पो	-278
ोना	-279
पासून	-280
केंद्र	-281
ंट	-282
िट	-283
स्थिती	-284
मार्	-285
ईल	-286
कोव्हि	-287
बंध	-288
ांना	-289
करोना	-290
ंड	-291
दर	-292
ातील	-293
माहि	-294
माहिती	-295
आले	-296
कडे	-297
वारी	-298
करण	-299
क्ट	-300
बंद	-301
प्रति	-302
्स	-303
रुग्णा	-304
द्ध	-305
होते	-306
▁:	-307
आप	-308
सुरू	-309
▁¦20	-310
डी	-311
मृत	-312
संसर्ग	-313
प्रा	-314
दो	-315
केले	-316
वर्ष	-317
कोव्हिड	-318
ठे	-319
महारा	-320
रुग्ण	-321
आम	-322
र्थ	-323
शन	-324
मुख	-325
वापर	-326
व्हाय	-327
बो	-328
प्	-329
महाराष्ट्र	-330
कु	-331
कडा	-332
ण्याची	-333
हात	-334
स्प	-335
स्था	-336
काम	-337
लय	-338
राज	-339
¦	-340
▁	-341
ा	-342
्	-343
र	-344
य	-345
त	-346
े	-347
क	-348
ी	-349
स	-350
ल	-351
न	-352
ं	-353
ि	-354
व	-355
ह	-356
म	-357
च	-358
ण	-359
प	-360
ो	-361
आ	-362
द	-363
ग	-364
ज	-365
ु	-366
.	-367
ट	-368
श	-369
अ	-370
ू	-371
ध	-372
ब	-373
ड	-374
,	-375
ष	-376
ळ	-377
ठ	-378
ख	-379
भ	-380
थ	-381
उ	-382
घ	-383
ए	-384
झ	-385
ॉ	-386
फ	-387
-	-388
0	-389
1	-390
ढ	-391
2	-392
इ	-393
ई	-394
ॅ	-395
ऱ	-396
ऊ	-397
ृ	-398
c	-399
"	-400
𐊣	-401
𐊼	-402
9	-403
ै	-404
i	-405
o	-406
)	-407
(	-408
ऑ	-409
'	-410
𐋇	-411
s	-412
r	-413
5	-414
?	-415
a	-416
ओ	-417
3	-418
4	-419
v	-420
e	-421
d	-422
:	-423
१	-424
8	-425
ँ	-426
7	-427
6	-428
२	-429
०	-430
ञ	-431
t	-432
n	-433
औ	-434
p	-435
छ	-436
h	-437
ौ	-438
m	-439
%	-440
४	-441
३	-442
५	-443
ः	-444
९	-445
l	-446
u	-447
/	-448
;	-449
g	-450
w	-451
६	-452
८	-453
७	-454
़	-455
b	-456
f	-457
“	-458
‘	-459
’	-460
!	-461
y	-462
ऐ	-463
”	-464
‍	-465
ऩ	-466
k	-467
x	-468
–	-469
•	-470
[	-471
]	-472
#	-473
ऍ	-474
$	-475
z	-476
ऋ	-477
q	-478
j	-479
<	-480
≥	-481
>	-482
+	-483
*	-484
ॲ	-485
_	-486
×	-487
α	-488
=	-489
β	-490
ऎ	-491
—	-492
~	-493
ß	-494
å	-495
γ	-496
