<pad>	0
</s>	0
<unk>	0
▁t	-0
▁th	-1
▁a	-2
in	-3
▁the	-4
on	-5
re	-6
at	-7
en	-8
is	-9
▁o	-10
er	-11
▁w	-12
▁s	-13
▁c	-14
it	-15
ion	-16
or	-17
an	-18
▁p	-19
es	-20
▁of	-21
▁in	-22
▁to	-23
▁an	-24
▁f	-25
▁b	-26
ro	-27
al	-28
▁and	-29
ed	-30
ing	-31
ar	-32
▁m	-33
ou	-34
ent	-35
ic	-36
▁re	-37
▁h	-38
▁d	-39
le	-40
om	-41
ve	-42
▁n	-43
st	-44
▁be	-45
▁I	-46
▁is	-47
ct	-48
▁that	-49
▁e	-50
il	-51
ation	-52
pe	-53
ly	-54
as	-55
▁E	-56
▁on	-57
ment	-58
▁for	-59
ot	-60
▁T	-61
im	-62
▁wh	-63
ut	-64
▁l	-65
▁we	-66
id	-67
se	-68
ur	-69
▁pro	-70
▁M	-71
ort	-72
▁C	-73
▁Th	-74
ol	-75
▁g	-76
uro	-77
▁con	-78
ce	-79
▁al	-80
▁it	-81
▁Euro	-82
▁Europe	-83
res	-84
un	-85
et	-86
ul	-87
ver	-88
▁this	-89
port	-90
▁are	-91
ra	-92
ld	-93
ig	-94
▁P	-95
▁de	-96
▁as	-97
▁ha	-98
ow	-99
ith	-100
omm	-101
ies	-102
▁S	-103
▁st	-104
ate	-105
▁with	-106
ill	-107
ch	-108
ould	-109
▁European	-110
ir	-111
▁ne	-112
▁not	-113
▁The	-114
▁have	-115
em	-116
▁su	-117
sion	-118
op	-119
ity	-120
oun	-121
ad	-122
ive	-123
ay	-124
us	-125
ke	-126
ble	-127
th	-128
ers	-129
▁A	-130
ore	-131
▁v	-132
ci	-133
▁ex	-134
os	-135
ter	-136
ich	-137
▁im	-138
ant	-139
▁will	-140
ust	-141
ess	-142
ia	-143
▁which	-144
▁y	-145
▁Comm	-146
▁by	-147
igh	-148
▁en	-149
ect	-150
▁sh	-151
ain	-152
▁W	-153
▁r	-154
if	-155
qu	-156
ge	-157
▁-	-158
ission	-159
ber	-160
tr	-161
▁ag	-162
ere	-163
iv	-164
▁res	-165
▁has	-166
est	-167
art	-168
um	-169
am	-170
our	-171
▁com	-172
so	-173
▁at	-174
▁le	-175
▁U	-176
▁Commission	-177
ions	-178
▁all	-179
ight	-180
ure	-181
▁or	-182
▁se	-183
resid	-184
und	-185
▁wor	-186
▁also	-187
▁Mr	-188
pp	-189
▁Presid	-190
ud	-191
▁would	-192
rom	-193
ff	-194
od	-195
▁so	-196
ie	-197
ates	-198
and	-199
▁EU	-200
▁pol	-201
el	-202
ist	-203
▁(	-204
end	-205
▁Un	-206
ard	-207
▁reg	-208
▁Mem	-209
▁int	-210
pport	-211
cial	-212
▁our	-213
▁St	-214
ac	-215
▁me	-216
ations	-217
very	-218
▁part	-219
con	-220
▁coun	-221
▁from	-222
▁F	-223
▁can	-224
▁President	-225
▁should	-226
▁there	-227
up	-228
▁do	-229
ree	-230
▁ad	-231
▁We	-232
▁2	-233
ult	-234
▁ta	-235
▁ch	-236
use	-237
▁countr	-238
vel	-239
▁In	-240
▁G	-241
ue	-242
▁am	-243
arl	-244
▁must	-245
▁Member	-246
▁but	-247
▁B	-248
▁Union	-249
▁H	-250
▁need	-251
▁go	-252
arlia	-253
arliament	-254
ally	-255
▁ab	-256
ans	-257
lo	-258
du	-259
▁inc	-260
all	-261
▁fa	-262
▁li	-263
ous	-264
▁R	-265
▁you	-266
ren	-267
▁report	-268
reat	-269
▁It	-270
▁States	-271
cc	-272
▁been	-273
ome	-274
▁imp	-275
▁ma	-276
ance	-277
ther	-278
ire	-279
ish	-280
ary	-281
ments	-282
▁more	-283
ab	-284
▁co	-285
out	-286
▁Parliament	-287
▁tr	-288
king	-289
▁import	-290
▁dis	-291
▁fin	-292
▁us	-293
gh	-294
▁like	-295
▁their	-296
▁cont	-297
oc	-298
▁j	-299
able	-300
▁right	-301
▁its	-302
▁comm	-303
ast	-304
ens	-305
▁20	-306
▁L	-307
▁was	-308
▁un	-309
▁who	-310
▁prop	-311
conom	-312
ical	-313
ime	-314
ial	-315
▁polic	-316
gy	-317
▁very	-318
ction	-319
▁these	-320
▁qu	-321
tern	-322
▁This	-323
ib	-324
▁comp	-325
▁app	-326
ational	-327
▁pl	-328
▁cons	-329
▁pe	-330
fore	-331
cy	-332
ress	-333
▁cr	-334
▁D	-335
ong	-336
▁bec	-337
▁support	-338
▁econom	-339
iti	-340
▁countries	-341
▁pr	-342
ition	-343
▁he	-344
pt	-345
ities	-346
▁work	-347
▁conc	-348
ark	-349
ution	-350
▁1	-351
ause	-352
age	-353
▁pos	-354
itt	-355
ople	-356
▁bet	-357
▁str	-358
▁man	-359
get	-360
▁one	-361
▁important	-362
velop	-363
▁O	-364
her	-365
▁eff	-366
▁they	-367
▁po	-368
lic	-369
cil	-370
orm	-371
ll	-372
ise	-373
▁ind	-374
ear	-375
▁pre	-376
▁other	-377
▁new	-378
▁propos	-379
▁than	-380
ces	-381
▁people	-382
ose	-383
▁out	-384
ject	-385
▁Coun	-386
pect	-387
ign	-388
▁vot	-389
▁agree	-390
▁Council	-391
ence	-392
▁acc	-393
ility	-394
ated	-395
▁spe	-396
▁time	-397
▁about	-398
ide	-399
ever	-400
▁und	-401
▁policy	-402
▁exp	-403
one	-404
▁mo	-405
▁act	-406
▁my	-407
ord	-408
arket	-409
▁ra	-410
ice	-411
▁tra	-412
▁develop	-413
int	-414
▁partic	-415
▁only	-416
ag	-417
▁dec	-418
ip	-419
ible	-420
▁N	-421
ular	-422
▁again	-423
▁because	-424
ep	-425
▁year	-426
▁under	-427
og	-428
cess	-429
ced	-430
▁ob	-431
▁leg	-432
ap	-433
ms	-434
ack	-435
form	-436
▁iss	-437
▁rec	-438
▁prov	-439
▁trans	-440
▁up	-441
▁market	-442
are	-443
▁sa	-444
ase	-445
owever	-446
ern	-447
we	-448
ures	-449
▁what	-450
ub	-451
ach	-452
erv	-453
ative	-454
▁economic	-455
lear	-456
▁em	-457
ugh	-458
▁finan	-459
fic	-460
ious	-461
▁dem	-462
str	-463
ieve	-464
▁cl	-465
ons	-466
lud	-467
▁rel	-468
ine	-469
▁op	-470
ink	-471
ating	-472
▁ev	-473
ian	-474
ween	-475
ention	-476
▁particular	-477
▁k	-478
▁between	-479
▁rights	-480
irst	-481
▁them	-482
▁proposal	-483
▁gro	-484
uman	-485
act	-486
▁produ	-487
resent	-488
▁take	-489
▁now	-490
eren	-491
irect	-492
▁into	-493
ues	-494
▁no	-495
ee	-496
me	-497
itiz	-498
ame	-499
▁such	-500
xt	-501
ert	-502
▁citiz	-503
▁polit	-504
▁fund	-505
eration	-506
rough	-507
▁those	-508
▁intern	-509
▁inv	-510
▁make	-511
der	-512
day	-513
▁if	-514
▁some	-515
ergy	-516
ural	-517
▁deb	-518
▁therefore	-519
▁bel	-520
tect	-521
ency	-522
▁200	-523
▁proble	-524
ace	-525
▁ter	-526
▁per	-527
▁resp	-528
ak	-529
▁ro	-530
yst	-531
▁clear	-532
▁when	-533
feren	-534
ade	-535
ors	-536
ives	-537
▁say	-538
▁see	-539
▁citizens	-540
▁financial	-541
ri	-542
stit	-543
ystem	-544
▁'	-545
▁concern	-546
▁sit	-547
▁human	-548
ific	-549
▁any	-550
▁energy	-551
ards	-552
▁dif	-553
▁fact	-554
ple	-555
▁over	-556
▁disc	-557
▁includ	-558
▁te	-559
ks	-560
now	-561
▁protect	-562
▁think	-563
▁social	-564
▁against	-565
ublic	-566
▁situ	-567
▁incre	-568
vern	-569
▁prog	-570
de	-571
iew	-572
ual	-573
▁chan	-574
▁As	-575
▁being	-576
▁many	-577
▁want	-578
▁first	-579
ised	-580
ving	-581
▁good	-582
low	-583
lement	-584
▁ens	-585
▁just	-586
▁political	-587
▁cris	-588
▁meas	-589
sel	-590
olution	-591
▁were	-592
▁country	-593
▁point	-594
unity	-595
▁system	-596
▁sub	-597
▁requ	-598
pl	-599
▁bas	-600
lect	-601
▁add	-602
▁appro	-603
▁believe	-604
rat	-605
rit	-606
ision	-607
ulation	-608
▁through	-609
opt	-610
▁rem	-611
ric	-612
▁la	-613
▁way	-614
▁effect	-615
▁However	-616
▁made	-617
rent	-618
▁adopt	-619
▁well	-620
▁order	-621
mental	-622
▁crisis	-623
eg	-624
▁J	-625
read	-626
▁quest	-627
udget	-628
wn	-629
▁poss	-630
▁know	-631
▁situation	-632
ved	-633
▁high	-634
▁today	-635
▁Wh	-636
ind	-637
ices	-638
▁use	-639
ild	-640
▁great	-641
▁development	-642
▁att	-643
▁mat	-644
▁result	-645
▁coop	-646
▁most	-647
▁Commissioner	-648
▁level	-649
▁direct	-650
ful	-651
not	-652
▁sp	-653
▁neg	-654
▁contin	-655
▁national	-656
▁jo	-657
ry	-658
▁There	-659
ough	-660
stru	-661
▁debate	-662
ality	-663
cept	-664
ict	-665
oth	-666
bers	-667
▁ass	-668
ety	-669
▁sec	-670
red	-671
ittee	-672
utions	-673
▁measures	-674
ied	-675
▁Mad	-676
▁ent	-677
▁issue	-678
isation	-679
▁budget	-680
imate	-681
uch	-682
iron	-683
▁cur	-684
▁ext	-685
▁That	-686
▁call	-687
▁even	-688
▁every	-689
▁regard	-690
▁rep	-691
ite	-692
viron	-693
▁years	-694
▁cannot	-695
pet	-696
uss	-697
▁world	-698
▁inform	-699
wo	-700
erest	-701
▁sect	-702
▁fut	-703
ov	-704
ready	-705
▁Madam	-706
isl	-707
▁future	-708
uth	-709
▁sign	-710
▁agreement	-711
▁view	-712
▁public	-713
▁already	-714
▁ach	-715
▁implement	-716
▁cooperation	-717
ood	-718
▁emp	-719
bal	-720
▁ar	-721
omen	-722
▁here	-723
▁legisl	-724
▁where	-725
▁vote	-726
▁area	-727
▁within	-728
▁interest	-729
wor	-730
▁ac	-731
▁international	-732
reed	-733
▁too	-734
arm	-735
loy	-736
▁ensure	-737
▁ful	-738
▁gen	-739
▁hel	-740
▁common	-741
▁two	-742
ass	-743
reaty	-744
▁same	-745
orities	-746
ism	-747
ount	-748
uring	-749
▁compet	-750
ibility	-751
ute	-752
▁dra	-753
▁end	-754
ertain	-755
▁impro	-756
▁democ	-757
▁Ch	-758
iven	-759
▁consid	-760
▁environ	-761
abl	-762
hip	-763
ings	-764
▁law	-765
urity	-766
bon	-767
ope	-768
oti	-769
▁exam	-770
▁help	-771
▁prev	-772
ential	-773
ited	-774
trib	-775
▁both	-776
▁cour	-777
▁respons	-778
▁def	-779
▁num	-780
▁serv	-781
▁strate	-782
▁K	-783
▁negoti	-784
20	-785
eur	-786
▁own	-787
uc	-788
ory	-789
▁fe	-790
▁mon	-791
▁sol	-792
lobal	-793
▁long	-794
▁redu	-795
▁respect	-796
▁question	-797
itions	-798
▁does	-799
▁beh	-800
▁current	-801
ail	-802
▁had	-803
ile	-804
ince	-805
ges	-806
alth	-807
cond	-808
▁how	-809
▁much	-810
▁lo	-811
▁fav	-812
▁protection	-813
▁possible	-814
▁resolution	-815
▁min	-816
ene	-817
cing	-818
▁set	-819
▁Committee	-820
▁put	-821
▁ref	-822
▁amend	-823
▁could	-824
men	-825
▁On	-826
▁Gro	-827
▁des	-828
ority	-829
▁Treaty	-830
pporteur	-831
eral	-832
ract	-833
ient	-834
▁certain	-835
lu	-836
▁gu	-837
▁govern	-838
▁rapporteur	-839
▁Se	-840
▁last	-841
alf	-842
▁your	-843
illion	-844
▁change	-845
▁state	-846
▁instit	-847
▁case	-848
▁reas	-849
▁why	-850
▁auth	-851
▁cond	-852
▁prom	-853
▁writ	-854
▁necess	-855
inci	-856
▁main	-857
▁said	-858
▁region	-859
▁sector	-860
▁wel	-861
▁still	-862
work	-863
ination	-864
▁global	-865
▁princi	-866
▁process	-867
ram	-868
▁tak	-869
urther	-870
▁ke	-871
▁product	-872
▁fra	-873
itive	-874
▁women	-875
▁writing	-876
▁particularly	-877
▁inter	-878
▁voted	-879
▁consum	-880
▁car	-881
te	-882
▁favour	-883
▁security	-884
▁est	-885
way	-886
▁course	-887
▁opport	-888
come	-889
▁hope	-890
▁stand	-891
▁object	-892
gan	-893
▁br	-894
oura	-895
▁saf	-896
▁able	-897
▁real	-898
▁Group	-899
ty	-900
arge	-901
▁lead	-902
▁group	-903
ft	-904
▁col	-905
▁represent	-906
isbon	-907
ricult	-908
▁information	-909
▁allow	-910
▁Lisbon	-911
▁number	-912
▁require	-913
▁differen	-914
▁V	-915
▁conf	-916
▁areas	-917
▁trade	-918
▁issues	-919
▁maj	-920
▁role	-921
▁since	-922
▁climate	-923
▁increas	-924
ules	-925
▁sim	-926
▁provid	-927
chn	-928
▁201	-929
▁pers	-930
▁then	-931
▁problem	-932
air	-933
▁equ	-934
▁contrib	-935
▁including	-936
ollow	-937
ources	-938
▁problems	-939
▁effective	-940
▁invest	-941
▁present	-942
▁necessary	-943
▁health	-944
ang	-945
▁cre	-946
▁needs	-947
▁place	-948
man	-949
▁av	-950
▁med	-951
▁pow	-952
▁val	-953
reedom	-954
▁example	-955
ning	-956
vers	-957
▁off	-958
entle	-959
▁gentle	-960
▁indust	-961
▁gentlemen	-962
led	-963
adies	-964
ves	-965
ines	-966
cific	-967
▁Mrs	-968
ablish	-969
fter	-970
▁thank	-971
ether	-972
ration	-973
▁better	-974
▁ser	-975
pa	-976
iol	-977
▁means	-978
▁techn	-979
eth	-980
▁his	-981
▁meet	-982
ability	-983
▁establish	-984
pr	-985
▁Min	-986
▁elect	-987
▁action	-988
ok	-989
▁aim	-990
▁program	-991
arch	-992
▁follow	-993
ound	-994
▁pri	-995
▁child	-996
▁legal	-997
▁Members	-998
▁specific	-999
its	-1000
old	-1001
▁ask	-1002
ising	-1003
▁invol	-1004
▁taken	-1005
▁De	-1006
▁may	-1007
iving	-1008
▁next	-1009
ug	-1010
▁bene	-1011
▁show	-1012
▁behalf	-1013
▁freedom	-1014
▁progress	-1015
ird	-1016
▁sm	-1017
ward	-1018
als	-1019
ents	-1020
ening	-1021
isions	-1022
▁Presidency	-1023
ank	-1024
ond	-1025
▁come	-1026
▁food	-1027
▁grow	-1028
iter	-1029
▁rev	-1030
sions	-1031
▁rules	-1032
▁project	-1033
▁without	-1034
mework	-1035
▁improve	-1036
▁consider	-1037
▁If	-1038
land	-1039
▁Con	-1040
▁rat	-1041
▁step	-1042
▁employ	-1043
▁strategy	-1044
00	-1045
ered	-1046
rodu	-1047
▁find	-1048
▁happ	-1049
▁matter	-1050
▁however	-1051
▁directive	-1052
gth	-1053
ners	-1054
allen	-1055
▁terms	-1056
▁promot	-1057
▁adopted	-1058
▁products	-1059
▁services	-1060
ss	-1061
▁Ag	-1062
iness	-1063
▁opin	-1064
▁account	-1065
▁sc	-1066
▁fac	-1067
▁agricult	-1068
ost	-1069
▁det	-1070
▁pay	-1071
▁form	-1072
▁give	-1073
▁economy	-1074
▁welcome	-1075
▁whether	-1076
▁approach	-1077
ting	-1078
▁tax	-1079
▁initi	-1080
▁effort	-1081
▁further	-1082
▁continue	-1083
▁regulation	-1084
▁negotiations	-1085
▁For	-1086
ccess	-1087
▁fish	-1088
▁legislation	-1089
he	-1090
▁contro	-1091
▁strong	-1092
▁institutions	-1093
ouse	-1094
self	-1095
wards	-1096
▁State	-1097
▁before	-1098
▁decision	-1099
ivid	-1100
▁imm	-1101
▁job	-1102
ital	-1103
▁EUR	-1104
ately	-1105
▁deal	-1106
▁word	-1107
▁funds	-1108
▁regul	-1109
▁compan	-1110
▁ladies	-1111
▁million	-1112
▁position	-1113
arant	-1114
▁plan	-1115
▁cap	-1116
ently	-1117
▁soci	-1118
▁viol	-1119
ficult	-1120
▁activ	-1121
▁difficult	-1122
ises	-1123
▁after	-1124
▁challen	-1125
DE	-1126
ne	-1127
ell	-1128
ese	-1129
▁Pro	-1130
▁inf	-1131
▁comb	-1132
usiness	-1133
▁provide	-1134
▁success	-1135
▁working	-1136
▁3	-1137
racy	-1138
▁ess	-1139
▁fore	-1140
▁organ	-1141
▁access	-1142
▁guarant	-1143
▁cult	-1144
▁discuss	-1145
nov	-1146
ratic	-1147
▁hand	-1148
ession	-1149
amental	-1150
▁serious	-1151
▁increase	-1152
imes	-1153
▁cor	-1154
▁cost	-1155
▁conditions	-1156
ner	-1157
▁pract	-1158
▁signific	-1159
min	-1160
arity	-1161
stand	-1162
ually	-1163
▁start	-1164
▁ur	-1165
chan	-1166
utes	-1167
rength	-1168
▁commit	-1169
▁resources	-1170
▁aff	-1171
▁far	-1172
ences	-1173
light	-1174
▁What	-1175
▁during	-1176
ten	-1177
▁es	-1178
ross	-1179
▁lab	-1180
arian	-1181
stain	-1182
▁used	-1183
pecial	-1184
▁reason	-1185
▁framework	-1186
▁mem	-1187
▁rese	-1188
▁small	-1189
▁second	-1190
▁strength	-1191
▁different	-1192
▁proposals	-1193
▁transport	-1194
▁euro	-1195
▁relations	-1196
▁importance	-1197
leg	-1198
▁ris	-1199
▁opinion	-1200
▁towards	-1201
ret	-1202
osed	-1203
▁given	-1204
▁United	-1205
▁proced	-1206
▁forward	-1207
▁business	-1208
▁authorities	-1209
ran	-1210
▁enc	-1211
▁pat	-1212
ingle	-1213
▁play	-1214
▁comple	-1215
▁individ	-1216
▁introdu	-1217
▁policies	-1218
▁opportunity	-1219
ffic	-1220
▁achie	-1221
▁third	-1222
▁impact	-1223
sequ	-1224
rency	-1225
▁achieve	-1226
▁mention	-1227
▁transpa	-1228
▁individual	-1229
ral	-1230
▁done	-1231
▁move	-1232
▁benef	-1233
▁speak	-1234
▁instru	-1235
mit	-1236
ases	-1237
▁som	-1238
▁tar	-1239
▁less	-1240
pecially	-1241
▁workers	-1242
▁An	-1243
▁So	-1244
▁aid	-1245
▁lif	-1246
ified	-1247
▁Fund	-1248
gether	-1249
▁based	-1250
▁reform	-1251
▁research	-1252
▁Community	-1253
▁essential	-1254
▁environmental	-1255
ph	-1256
▁aw	-1257
▁Rom	-1258
▁tal	-1259
▁express	-1260
ium	-1261
own	-1262
▁At	-1263
▁mod	-1264
▁prep	-1265
▁Intern	-1266
▁children	-1267
▁attention	-1268
▁especially	-1269
ased	-1270
ivil	-1271
ples	-1272
▁air	-1273
▁day	-1274
▁vis	-1275
▁power	-1276
ification	-1277
▁significant	-1278
ists	-1279
▁nat	-1280
overn	-1281
▁back	-1282
▁bring	-1283
▁going	-1284
▁whole	-1285
▁control	-1286
▁prevent	-1287
av	-1288
les	-1289
uct	-1290
selves	-1291
▁large	-1292
▁remain	-1293
▁quality	-1294
▁society	-1295
▁interests	-1296
▁implementation	-1297
tain	-1298
other	-1299
ec	-1300
ogn	-1301
vant	-1302
▁did	-1303
▁read	-1304
▁supp	-1305
atives	-1306
▁effic	-1307
▁innov	-1308
▁making	-1309
▁safety	-1310
▁subject	-1311
▁sustain	-1312
▁5	-1313
▁ban	-1314
▁bord	-1315
▁each	-1316
▁wish	-1317
▁basis	-1318
▁fundamental	-1319
ily	-1320
▁ca	-1321
rant	-1322
ivers	-1323
▁fight	-1324
▁recogn	-1325
▁together	-1326
eri	-1327
ove	-1328
▁el	-1329
▁ins	-1330
▁Str	-1331
▁Tur	-1332
▁var	-1333
▁manage	-1334
▁target	-1335
tic	-1336
bour	-1337
lose	-1338
▁pur	-1339
▁integ	-1340
▁encoura	-1341
▁addition	-1342
▁internal	-1343
▁democratic	-1344
▁environment	-1345
urn	-1346
ened	-1347
ogue	-1348
ident	-1349
ically	-1350
▁House	-1351
▁close	-1352
▁draft	-1353
▁positive	-1354
▁agreements	-1355
iz	-1356
iod	-1357
ways	-1358
▁dep	-1359
▁pass	-1360
▁These	-1361
▁demand	-1362
▁democracy	-1363
▁responsibility	-1364
ung	-1365
▁Fin	-1366
▁down	-1367
lusion	-1368
▁three	-1369
▁really	-1370
▁industry	-1371
▁proposed	-1372
li	-1373
ts	-1374
▁19	-1375
ared	-1376
▁few	-1377
▁Russ	-1378
▁free	-1379
▁full	-1380
▁expect	-1381
▁Therefore	-1382
ext	-1383
ify	-1384
pri	-1385
▁bu	-1386
▁ide	-1387
▁lim	-1388
▁accept	-1389
▁become	-1390
▁greater	-1391
▁technol	-1392
▁increasing	-1393
▁ap	-1394
oney	-1395
▁fail	-1396
▁itself	-1397
▁clearly	-1398
ys	-1399
ging	-1400
▁pop	-1401
aking	-1402
▁look	-1403
struct	-1404
▁colle	-1405
▁while	-1406
▁actually	-1407
▁4	-1408
ata	-1409
com	-1410
▁Af	-1411
▁ph	-1412
imin	-1413
▁text	-1414
ething	-1415
▁money	-1416
▁applic	-1417
▁consequ	-1418
▁understand	-1419
gest	-1420
▁pack	-1421
▁press	-1422
ialogue	-1423
▁always	-1424
▁discus	-1425
▁growth	-1426
▁efforts	-1427
▁objectives	-1428
ged	-1429
ics	-1430
istr	-1431
▁2009	-1432
▁best	-1433
▁coord	-1434
▁force	-1435
▁reach	-1436
idarity	-1437
▁Direct	-1438
ron	-1439
▁Al	-1440
ilit	-1441
▁abs	-1442
▁address	-1443
▁general	-1444
▁something	-1445
▁standards	-1446
▁Am	-1447
cies	-1448
ness	-1449
ocus	-1450
▁All	-1451
▁enter	-1452
▁major	-1453
▁single	-1454
▁another	-1455
▁partners	-1456
▁pen	-1457
▁Part	-1458
▁among	-1459
▁creat	-1460
ference	-1461
▁guarantee	-1462
ater	-1463
ourt	-1464
▁fel	-1465
▁key	-1466
▁ple	-1467
▁sur	-1468
▁oper	-1469
ending	-1470
▁Court	-1471
▁civil	-1472
▁words	-1473
unities	-1474
▁parliament	-1475
▁transparency	-1476
ix	-1477
▁coh	-1478
▁get	-1479
▁inst	-1480
▁exist	-1481
▁stress	-1482
▁principle	-1483
▁her	-1484
▁wee	-1485
▁cent	-1486
▁risk	-1487
▁extre	-1488
▁focus	-1489
▁Govern	-1490
▁recent	-1491
▁markets	-1492
▁programme	-1493
▁agricultural	-1494
eed	-1495
airs	-1496
verty	-1497
▁once	-1498
▁rather	-1499
igration	-1500
▁regions	-1501
▁employment	-1502
irm	-1503
ule	-1504
ably	-1505
▁let	-1506
▁month	-1507
▁context	-1508
▁dialogue	-1509
▁companies	-1510
cu	-1511
▁ed	-1512
▁loc	-1513
▁data	-1514
▁fully	-1515
vention	-1516
▁period	-1517
▁struct	-1518
▁package	-1519
ages	-1520
itted	-1521
▁avail	-1522
▁assist	-1523
▁experi	-1524
▁groups	-1525
▁comprom	-1526
▁concerns	-1527
▁concerned	-1528
oss	-1529
▁bal	-1530
▁pot	-1531
▁taking	-1532
▁challenges	-1533
aps	-1534
emp	-1535
ror	-1536
uge	-1537
ven	-1538
itor	-1539
▁due	-1540
▁fam	-1541
▁mot	-1542
▁rele	-1543
▁often	-1544
▁colleag	-1545
▁regional	-1546
▁principles	-1547
sw	-1548
gin	-1549
ick	-1550
▁Is	-1551
▁Bar	-1552
▁Pol	-1553
ption	-1554
▁cred	-1555
▁least	-1556
▁create	-1557
▁having	-1558
▁recomm	-1559
▁poverty	-1560
▁Directive	-1561
▁commitment	-1562
▁opp	-1563
▁sum	-1564
▁answ	-1565
▁caus	-1566
▁life	-1567
▁open	-1568
▁apply	-1569
▁resol	-1570
▁results	-1571
▁various	-1572
▁amendments	-1573
▁developing	-1574
▁management	-1575
ead	-1576
row	-1577
ister	-1578
▁They	-1579
▁care	-1580
▁defin	-1581
▁accord	-1582
▁consumers	-1583
▁decisions	-1584
▁activities	-1585
ech	-1586
ier	-1587
▁educ	-1588
▁rece	-1589
ternal	-1590
▁treat	-1591
▁person	-1592
▁proper	-1593
▁amendment	-1594
▁Government	-1595
line	-1596
▁Reg	-1597
▁Rep	-1598
▁amb	-1599
▁mar	-1600
ering	-1601
▁Hung	-1602
▁emph	-1603
▁cases	-1604
▁affect	-1605
▁assess	-1606
▁labour	-1607
▁states	-1608
▁members	-1609
▁appropri	-1610
▁Ar	-1611
fort	-1612
▁2020	-1613
ensive	-1614
▁found	-1615
▁extreme	-1616
▁recommend	-1617
ave	-1618
eng	-1619
erous	-1620
ulate	-1621
▁appl	-1622
▁docu	-1623
▁stud	-1624
▁costs	-1625
issions	-1626
▁aspect	-1627
▁concerning	-1628
ield	-1629
▁fle	-1630
▁urg	-1631
ances	-1632
aring	-1633
▁priv	-1634
▁trad	-1635
▁needed	-1636
▁provided	-1637
▁available	-1638
'.	-1639
FR	-1640
wh	-1641
ians	-1642
▁Gree	-1643
▁farm	-1644
▁fellow	-1645
▁monitor	-1646
stitution	-1647
▁majority	-1648
▁solution	-1649
▁solidarity	-1650
▁competition	-1651
ath	-1652
lig	-1653
ceed	-1654
▁bro	-1655
▁With	-1656
▁harm	-1657
▁jobs	-1658
▁lack	-1659
▁First	-1660
▁short	-1661
▁emphas	-1662
▁indeed	-1663
▁Finally	-1664
▁parties	-1665
▁systems	-1666
▁involved	-1667
▁potential	-1668
▁production	-1669
▁legislative	-1670
▁sustainable	-1671
urd	-1672
▁To	-1673
ania	-1674
orth	-1675
▁appe	-1676
▁cong	-1677
▁name	-1678
ministr	-1679
▁Russia	-1680
▁violence	-1681
▁following	-1682
▁regarding	-1683
ina	-1684
emoc	-1685
ling	-1686
▁ear	-1687
▁non	-1688
ights	-1689
▁build	-1690
▁quite	-1691
▁enough	-1692
▁compromise	-1693
mb	-1694
▁En	-1695
raph	-1696
▁Sch	-1697
▁tot	-1698
epend	-1699
esion	-1700
▁prof	-1701
▁simp	-1702
unately	-1703
▁mechan	-1704
▁initiative	-1705
▁innovation	-1706
ees	-1707
enda	-1708
most	-1709
▁Let	-1710
▁exc	-1711
▁sch	-1712
▁list	-1713
▁shall	-1714
iveness	-1715
▁criter	-1716
▁particip	-1717
▁consequences	-1718
igin	-1719
ived	-1720
▁yet	-1721
ining	-1722
▁seem	-1723
▁Afric	-1724
▁simply	-1725
▁values	-1726
▁congrat	-1727
▁request	-1728
▁projects	-1729
▁responsible	-1730
uel	-1731
ters	-1732
▁cut	-1733
▁sup	-1734
▁keep	-1735
▁peace	-1736
▁origin	-1737
▁things	-1738
▁continu	-1739
▁low	-1740
thing	-1741
▁Rights	-1742
imination	-1743
▁achieved	-1744
▁assistance	-1745
ense	-1746
over	-1747
▁Aff	-1748
▁dou	-1749
▁war	-1750
atory	-1751
round	-1752
▁road	-1753
▁vict	-1754
though	-1755
▁aware	-1756
ilities	-1757
▁months	-1758
▁points	-1759
▁Affairs	-1760
▁Develop	-1761
▁strateg	-1762
▁currently	-1763
▁highlight	-1764
▁objective	-1765
ake	-1766
ale	-1767
▁10	-1768
▁dr	-1769
haps	-1770
unic	-1771
▁ann	-1772
▁occ	-1773
ators	-1774
iting	-1775
▁expl	-1776
uclear	-1777
▁cross	-1778
▁Second	-1779
▁reasons	-1780
▁complete	-1781
▁cultural	-1782
▁certainly	-1783
▁population	-1784
▁6	-1785
for	-1786
angu	-1787
less	-1788
oung	-1789
side	-1790
▁adv	-1791
▁draw	-1792
▁rest	-1793
▁stat	-1794
▁sure	-1795
▁joint	-1796
▁local	-1797
▁oblig	-1798
▁sever	-1799
▁though	-1800
▁criteria	-1801
▁administr	-1802
▁education	-1803
▁government	-1804
equ	-1805
ides	-1806
▁mean	-1807
▁suff	-1808
▁Democ	-1809
▁living	-1810
▁extremely	-1811
fortunately	-1812
▁Development	-1813
key	-1814
▁ret	-1815
▁vol	-1816
eless	-1817
erman	-1818
stant	-1819
▁2008	-1820
▁hist	-1821
itting	-1822
▁young	-1823
▁disast	-1824
▁terror	-1825
▁threat	-1826
▁include	-1827
▁meeting	-1828
▁several	-1829
▁special	-1830
▁emissions	-1831
▁mentioned	-1832
▁questions	-1833
▁regulations	-1834
ck	-1835
til	-1836
rect	-1837
▁item	-1838
▁link	-1839
▁matters	-1840
▁consumer	-1841
▁external	-1842
ims	-1843
ody	-1844
ined	-1845
term	-1846
▁mob	-1847
▁conv	-1848
▁feel	-1849
▁true	-1850
▁broad	-1851
▁ident	-1852
▁Minutes	-1853
▁independ	-1854
▁encourage	-1855
▁priorities	-1856
aged	-1857
▁One	-1858
▁cru	-1859
▁fun	-1860
ittle	-1861
olute	-1862
vious	-1863
▁soon	-1864
▁wast	-1865
idence	-1866
▁equal	-1867
itarian	-1868
▁Turkey	-1869
▁nuclear	-1870
▁pleased	-1871
▁promote	-1872
▁priority	-1873
▁programm	-1874
000	-1875
ried	-1876
▁Bel	-1877
▁gas	-1878
▁net	-1879
anced	-1880
thers	-1881
▁kind	-1882
strict	-1883
▁langu	-1884
▁refer	-1885
▁share	-1886
▁times	-1887
▁value	-1888
ighbour	-1889
▁conclud	-1890
▁enterpr	-1891
▁funding	-1892
▁technolog	-1893
▁application	-1894
mber	-1895
onse	-1896
ying	-1897
ember	-1898
ateral	-1899
employ	-1900
▁field	-1901
ression	-1902
▁German	-1903
▁fisher	-1904
▁little	-1905
▁others	-1906
▁industr	-1907
▁absolute	-1908
▁response	-1909
▁instruments	-1910
erb	-1911
▁bl	-1912
▁il	-1913
atic	-1914
ator	-1915
▁But	-1916
beral	-1917
fully	-1918
▁Agree	-1919
▁illeg	-1920
▁agenda	-1921
▁reduce	-1922
▁actions	-1923
▁requirements	-1924
▁opportunities	-1925
IT	-1926
io	-1927
sp	-1928
yl	-1929
ars	-1930
ean	-1931
fer	-1932
new	-1933
ogy	-1934
pite	-1935
soci	-1936
▁eas	-1937
▁ele	-1938
ended	-1939
orrow	-1940
▁face	-1941
▁hard	-1942
▁mult	-1943
▁seen	-1944
▁above	-1945
▁demon	-1946
▁relig	-1947
▁longer	-1948
▁medium	-1949
▁changes	-1950
▁crucial	-1951
▁restrict	-1952
▁reduction	-1953
▁contribution	-1954
',	-1955
oid	-1956
rist	-1957
▁par	-1958
iency	-1959
encies	-1960
ension	-1961
▁discr	-1962
▁might	-1963
▁never	-1964
▁using	-1965
ilateral	-1966
▁demonstr	-1967
▁relevant	-1968
PL	-1969
▁Sp	-1970
▁US	-1971
hing	-1972
imum	-1973
outh	-1974
rats	-1975
ring	-1976
uary	-1977
▁Bal	-1978
▁jud	-1979
▁mak	-1980
▁sug	-1981
▁2010	-1982
▁Ital	-1983
▁flex	-1984
▁held	-1985
▁idea	-1986
ficial	-1987
reland	-1988
▁begin	-1989
isations	-1990
▁respond	-1991
▁cohesion	-1992
▁creation	-1993
▁previous	-1994
▁themselves	-1995
▁congratulate	-1996
oh	-1997
ned	-1998
uly	-1999
▁ve	-2000
cise	-2001
▁hon	-2002
▁tas	-2003
▁hold	-2004
iation	-2005
▁Ireland	-2006
▁billion	-2007
▁borders	-2008
▁contain	-2009
▁Secondly	-2010
▁document	-2011
▁elections	-2012
▁procedure	-2013
▁discussion	-2014
▁governance	-2015
pos	-2016
▁My	-2017
empt	-2018
just	-2019
oint	-2020
ylum	-2021
▁obs	-2022
▁crit	-2023
▁dist	-2024
▁week	-2025
itious	-2026
▁amount	-2027
▁aspects	-2028
▁perhaps	-2029
▁financing	-2030
▁increased	-2031
▁provisions	-2032
▁enterprises	-2033
EP	-2034
ES	-2035
ted	-2036
cell	-2037
nect	-2038
▁sens	-2039
▁Thank	-2040
▁final	-2041
▁Strate	-2042
▁entire	-2043
▁review	-2044
fficient	-2045
▁conflic	-2046
▁Minister	-2047
▁ensuring	-2048
▁relation	-2049
▁Agreement	-2050
▁procedures	-2051
▁programmes	-2052
▁8	-2053
ants	-2054
ends	-2055
reen	-2056
▁000	-2057
▁mis	-2058
▁sci	-2059
ticle	-2060
▁emer	-2061
▁fair	-2062
▁four	-2063
▁lear	-2064
▁post	-2065
▁thing	-2066
▁agreed	-2067
▁supply	-2068
▁foreign	-2069
▁benefits	-2070
▁maintain	-2071
▁ambitious	-2072
▁contribute	-2073
▁investment	-2074
▁International	-2075
▁7	-2076
une	-2077
▁Re	-2078
▁bo	-2079
▁Tra	-2080
▁ago	-2081
▁top	-2082
istan	-2083
▁Port	-2084
▁dang	-2085
▁decl	-2086
▁doub	-2087
▁stop	-2088
▁test	-2089
▁avoid	-2090
▁capac	-2091
▁gener	-2092
▁renew	-2093
▁waste	-2094
conomic	-2095
▁farmers	-2096
▁Republic	-2097
▁efficient	-2098
▁solutions	-2099
0%	-2100
oice	-2101
▁mom	-2102
ledge	-2103
▁When	-2104
▁term	-2105
▁asked	-2106
▁comes	-2107
▁indic	-2108
▁until	-2109
▁vital	-2110
▁voting	-2111
▁Strategy	-2112
▁communic	-2113
▁relating	-2114
▁Democrats	-2115
▁efficiency	-2116
▁strengthen	-2117
▁coordination	-2118
▁wr	-2119
ires	-2120
ender	-2121
order	-2122
▁line	-2123
▁tell	-2124
▁death	-2125
▁excell	-2126
▁harmon	-2127
▁carried	-2128
▁fishing	-2129
▁illegal	-2130
▁natural	-2131
▁obvious	-2132
▁outside	-2133
▁reality	-2134
▁reflect	-2135
▁regards	-2136
▁suggest	-2137
▁competit	-2138
▁neighbour	-2139
▁conclusion	-2140
▁appropriate	-2141
▁institution	-2142
▁organisations	-2143
kra	-2144
▁ty	-2145
rate	-2146
ffice	-2147
rench	-2148
▁calls	-2149
▁heard	-2150
▁makes	-2151
theless	-2152
▁Portug	-2153
▁enable	-2154
▁moment	-2155
▁territ	-2156
▁reached	-2157
▁function	-2158
▁businesses	-2159
▁monitoring	-2160
▁effectively	-2161
▁humanitarian	-2162
▁Li	-2163
▁Med	-2164
▁Our	-2165
▁dom	-2166
▁dut	-2167
▁six	-2168
▁Cent	-2169
▁Ukra	-2170
▁mess	-2171
▁China	-2172
▁doing	-2173
▁penal	-2174
▁seems	-2175
▁Africa	-2176
▁answer	-2177
▁associ	-2178
▁combat	-2179
▁except	-2180
iversity	-2181
▁correct	-2182
▁traffic	-2183
▁victims	-2184
▁everyone	-2185
▁existing	-2186
▁ourselves	-2187
▁providing	-2188
▁stability	-2189
▁immigration	-2190
ool	-2191
aced	-2192
▁MEP	-2193
▁Man	-2194
▁loo	-2195
erial	-2196
istic	-2197
ively	-2198
▁East	-2199
▁Just	-2200
▁fall	-2201
▁land	-2202
▁pres	-2203
▁model	-2204
▁detail	-2205
▁travel	-2206
▁undert	-2207
▁benefit	-2208
▁consult	-2209
▁private	-2210
▁service	-2211
▁adoption	-2212
▁required	-2213
▁Hungarian	-2214
▁committee	-2215
▁instrument	-2216
▁agriculture	-2217
▁parliamentary	-2218
▁discrimination	-2219
acy	-2220
ief	-2221
▁Fr	-2222
▁UN	-2223
more	-2224
▁Mon	-2225
▁Slo	-2226
▁big	-2227
▁tom	-2228
iance	-2229
▁More	-2230
▁mind	-2231
▁carry	-2232
▁grant	-2233
▁quick	-2234
aration	-2235
▁French	-2236
▁across	-2237
▁called	-2238
▁levels	-2239
▁namely	-2240
▁powers	-2241
▁saying	-2242
▁superv	-2243
▁Further	-2244
▁reports	-2245
▁practice	-2246
▁Convention	-2247
),	-2248
az	-2249
ti	-2250
alu	-2251
edi	-2252
▁Sw	-2253
eric	-2254
ided	-2255
▁talk	-2256
border	-2257
ctions	-2258
ograph	-2259
▁along	-2260
▁Greece	-2261
▁Social	-2262
▁asylum	-2263
▁prices	-2264
▁thanks	-2265
▁effects	-2266
▁patient	-2267
▁sitting	-2268
▁capacity	-2269
▁tomorrow	-2270
▁technical	-2271
ote	-2272
ized	-2273
▁And	-2274
▁flo	-2275
▁red	-2276
estic	-2277
▁huge	-2278
▁live	-2279
▁past	-2280
rought	-2281
▁basic	-2282
▁leave	-2283
▁around	-2284
▁author	-2285
▁credit	-2286
▁reject	-2287
▁Article	-2288
▁Romania	-2289
▁consist	-2290
▁nothing	-2291
▁talking	-2292
▁Internet	-2293
▁excellent	-2294
▁supporting	-2295
▁integration	-2296
cr	-2297
la	-2298
reh	-2299
▁He	-2300
duct	-2301
▁men	-2302
▁she	-2303
▁tab	-2304
ither	-2305
itten	-2306
rated	-2307
▁anal	-2308
▁anim	-2309
▁mand	-2310
▁subs	-2311
▁took	-2312
▁tool	-2313
▁deter	-2314
▁water	-2315
▁Americ	-2316
▁community	-2317
▁supported	-2318
▁absolutely	-2319
▁colleagues	-2320
▁throughout	-2321
).	-2322
reg	-2323
▁er	-2324
fact	-2325
▁mut	-2326
▁2007	-2327
▁Serb	-2328
▁oppos	-2329
ourable	-2330
▁border	-2331
▁motion	-2332
▁raised	-2333
▁return	-2334
▁leaders	-2335
▁liberal	-2336
▁referen	-2337
▁achieving	-2338
▁combating	-2339
▁strategic	-2340
▁additional	-2341
▁experience	-2342
▁Furthermore	-2343
▁implemented	-2344
▁possibility	-2345
▁administrative	-2346
200	-2347
▁12	-2348
▁14	-2349
dict	-2350
isms	-2351
vere	-2352
▁Ind	-2353
▁arg	-2354
▁MEPs	-2355
▁Roma	-2356
▁turn	-2357
▁closed	-2358
▁depend	-2359
▁exchan	-2360
▁immedi	-2361
▁summit	-2362
▁company	-2363
▁culture	-2364
▁reforms	-2365
▁reducing	-2366
▁accession	-2367
▁according	-2368
▁technologies	-2369
EC	-2370
by	-2371
aff	-2372
apt	-2373
ulg	-2374
Euro	-2375
ison	-2376
unch	-2377
▁blo	-2378
▁cir	-2379
▁dam	-2380
▁him	-2381
▁sel	-2382
ished	-2383
overy	-2384
▁2011	-2385
▁June	-2386
▁dire	-2387
▁firm	-2388
▁unac	-2389
mitted	-2390
▁aimed	-2391
▁infra	-2392
▁total	-2393
▁speech	-2394
▁Firstly	-2395
▁balance	-2396
▁measure	-2397
▁message	-2398
▁movement	-2399
▁pressure	-2400
▁completely	-2401
▁infrastruct	-2402
▁initiatives	-2403
▁partnership	-2404
NL	-2405
▁z	-2406
201	-2407
ock	-2408
pid	-2409
▁11	-2410
▁pa	-2411
sels	-2412
udit	-2413
uine	-2414
▁met	-2415
inary	-2416
▁Bank	-2417
▁circ	-2418
▁clos	-2419
▁poor	-2420
▁self	-2421
▁thus	-2422
igrant	-2423
ranean	-2424
▁Barro	-2425
▁Human	-2426
▁South	-2427
▁goods	-2428
▁limit	-2429
▁medic	-2430
lusions	-2431
stances	-2432
▁export	-2433
resident	-2434
▁Ukraine	-2435
▁conduct	-2436
▁sources	-2437
▁targets	-2438
▁prepared	-2439
▁unemploy	-2440
iterranean	-2441
▁knowledge	-2442
▁competitiveness	-2443
ME	-2444
ler	-2445
▁fr	-2446
call	-2447
hold	-2448
▁Sea	-2449
▁Wor	-2450
▁cam	-2451
ially	-2452
sized	-2453
▁disp	-2454
▁five	-2455
▁left	-2456
▁rule	-2457
Europe	-2458
Office	-2459
ogical	-2460
▁price	-2461
▁family	-2462
▁nature	-2463
▁remind	-2464
▁scient	-2465
ceptable	-2466
▁applied	-2467
▁connect	-2468
▁coordin	-2469
▁facilit	-2470
▁quickly	-2471
▁received	-2472
▁fisheries	-2473
▁presented	-2474
▁statement	-2475
▁treatment	-2476
▁assessment	-2477
▁conclusions	-2478
▁governments	-2479
su	-2480
▁9	-2481
▁Ad	-2482
▁Or	-2483
▁ge	-2484
▁wa	-2485
sman	-2486
▁May	-2487
▁lot	-2488
▁oil	-2489
▁old	-2490
iable	-2491
▁Bulg	-2492
▁Fore	-2493
▁Vice	-2494
▁char	-2495
▁deep	-2496
▁weak	-2497
▁milit	-2498
ristian	-2499
▁almost	-2500
▁behind	-2501
▁coming	-2502
▁regret	-2503
▁brought	-2504
▁capital	-2505
▁minimum	-2506
▁agencies	-2507
▁recently	-2508
▁budgetary	-2509
▁committed	-2510
▁sufficient	-2511
▁representatives	-2512
dum	-2513
lus	-2514
omp	-2515
▁Ge	-2516
▁Pe	-2517
▁Tr	-2518
hood	-2519
▁Can	-2520
▁Jan	-2521
▁Sec	-2522
ource	-2523
▁else	-2524
▁head	-2525
▁rein	-2526
▁repe	-2527
▁rise	-2528
▁task	-2529
inking	-2530
▁Party	-2531
▁evalu	-2532
▁trust	-2533
▁attack	-2534
▁happen	-2535
▁Justice	-2536
▁defence	-2537
▁instead	-2538
▁leading	-2539
▁included	-2540
stitutional	-2541
▁mechanisms	-2542
▁unacceptable	-2543
▁recommendations	-2544
ude	-2545
▁15	-2546
▁27	-2547
ands	-2548
aria	-2549
atis	-2550
ilar	-2551
uted	-2552
▁Now	-2553
▁bar	-2554
▁del	-2555
▁eng	-2556
▁ver	-2557
▁away	-2558
▁half	-2559
iminal	-2560
▁deleg	-2561
▁ground	-2562
▁subsid	-2563
▁urgent	-2564
▁Central	-2565
▁constit	-2566
▁although	-2567
▁recovery	-2568
▁requires	-2569
▁direction	-2570
▁expressed	-2571
▁terrorism	-2572
▁introduction	-2573
▁participation	-2574
▁strengthening	-2575
▁infrastructure	-2576
The	-2577
▁CO	-2578
▁Cz	-2579
▁No	-2580
▁sk	-2581
arus	-2582
▁age	-2583
▁cla	-2584
▁opt	-2585
force	-2586
ional	-2587
▁Prog	-2588
▁burd	-2589
▁fuel	-2590
▁goes	-2591
▁guid	-2592
▁meth	-2593
▁poll	-2594
▁tack	-2595
▁visa	-2596
▁alone	-2597
▁explo	-2598
▁famil	-2599
▁goals	-2600
▁media	-2601
▁offer	-2602
▁react	-2603
pective	-2604
▁France	-2605
▁convin	-2606
▁design	-2607
▁highly	-2608
▁produc	-2609
▁Belarus	-2610
▁allowed	-2611
▁decided	-2612
▁remains	-2613
▁creating	-2614
▁includes	-2615
▁language	-2616
▁material	-2617
▁official	-2618
▁colleague	-2619
▁industrial	-2620
▁discussions	-2621
TO	-2622
ton	-2623
▁Ne	-2624
erts	-2625
head	-2626
▁Cro	-2627
▁dev	-2628
▁mor	-2629
▁tro	-2630
engen	-2631
▁2006	-2632
▁fulf	-2633
isters	-2634
▁Czech	-2635
▁influ	-2636
▁party	-2637
▁simpl	-2638
entions	-2639
▁analys	-2640
▁caused	-2641
▁extent	-2642
▁method	-2643
▁tabled	-2644
▁Nations	-2645
▁calling	-2646
▁closely	-2647
▁collect	-2648
▁counter	-2649
▁justice	-2650
ibilities	-2651
▁military	-2652
▁training	-2653
▁transfer	-2654
▁bilateral	-2655
▁dangerous	-2656
▁developed	-2657
▁improving	-2658
▁minorities	-2659
▁structural	-2660
af	-2661
br	-2662
rup	-2663
▁Le	-2664
agen	-2665
aper	-2666
▁SME	-2667
▁aut	-2668
▁awa	-2669
▁bad	-2670
▁dim	-2671
▁vul	-2672
etary	-2673
▁Dece	-2674
▁Many	-2675
▁dise	-2676
▁ever	-2677
▁prob	-2678
▁qual	-2679
▁repl	-2680
▁upon	-2681
▁Trade	-2682
▁becom	-2683
▁light	-2684
▁sense	-2685
▁Serbia	-2686
▁circum	-2687
▁decide	-2688
▁events	-2689
▁gender	-2690
▁giving	-2691
▁vulner	-2692
ervation	-2693
▁Barroso	-2694
▁despite	-2695
▁involve	-2696
President	-2697
▁December	-2698
▁exchange	-2699
▁patients	-2700
▁Europeans	-2701
▁challenge	-2702
▁referendum	-2703
▁technology	-2704
▁established	-2705
▁difficulties	-2706
▁Mediterranean	-2707
RO	-2708
of	-2709
ya	-2710
cal	-2711
▁25	-2712
▁Ex	-2713
body	-2714
open	-2715
pose	-2716
rael	-2717
ught	-2718
▁days	-2719
▁hear	-2720
called	-2721
▁Croat	-2722
▁cause	-2723
▁rural	-2724
▁shows	-2725
▁steps	-2726
▁takes	-2727
▁thous	-2728
nership	-2729
▁Israel	-2730
▁facing	-2731
▁interp	-2732
▁member	-2733
▁school	-2734
▁Foreign	-2735
▁central	-2736
▁compreh	-2737
▁distrib	-2738
▁growing	-2739
▁Schengen	-2740
▁activity	-2741
▁affected	-2742
▁conclude	-2743
▁emphasise	-2744
▁practices	-2745
▁integrated	-2746
▁statements	-2747
▁successful	-2748
▁Partnership	-2749
▁relationship	-2750
to	-2751
yn	-2752
hic	-2753
org	-2754
por	-2755
sec	-2756
ubl	-2757
▁13	-2758
▁Do	-2759
▁ir	-2760
ange	-2761
oday	-2762
rete	-2763
tion	-2764
used	-2765
▁bod	-2766
▁bre	-2767
▁enh	-2768
▁rad	-2769
▁run	-2770
▁sep	-2771
anish	-2772
hagen	-2773
works	-2774
▁abol	-2775
▁aims	-2776
▁anti	-2777
▁deli	-2778
▁easy	-2779
▁loss	-2780
▁oral	-2781
▁Copen	-2782
▁Never	-2783
▁Today	-2784
▁adapt	-2785
▁ahead	-2786
▁early	-2787
▁entry	-2788
▁satis	-2789
▁stage	-2790
▁worth	-2791
imately	-2792
itional	-2793
▁People	-2794
▁bodies	-2795
▁excess	-2796
▁obtain	-2797
▁regime	-2798
▁welcom	-2799
▁January	-2800
▁attempt	-2801
▁concept	-2802
▁explain	-2803
▁history	-2804
▁proceed	-2805
▁sectors	-2806
▁trading	-2807
struction	-2808
▁negative	-2809
▁properly	-2810
▁substant	-2811
▁construct	-2812
▁Copenhagen	-2813
▁discussing	-2814
▁everything	-2815
▁competitive	-2816
▁differences	-2817
▁Nevertheless	-2818
▁unemployment	-2819
▁communication	-2820
▁unfortunately	-2821
PT	-2822
ger	-2823
ovo	-2824
▁Br	-2825
▁Pr	-2826
▁Kos	-2827
▁Lib	-2828
▁cat	-2829
▁lar	-2830
▁yes	-2831
aries	-2832
bourg	-2833
where	-2834
▁Brit	-2835
▁Swed	-2836
▁bind	-2837
▁exer	-2838
▁quot	-2839
▁rail	-2840
action	-2841
▁Amend	-2842
▁Audit	-2843
▁Italy	-2844
▁fraud	-2845
▁parts	-2846
▁rapid	-2847
▁vehic	-2848
▁volun	-2849
▁wrong	-2850
▁active	-2851
▁defend	-2852
▁mutual	-2853
▁Germany	-2854
▁genuine	-2855
▁passeng	-2856
▁rightly	-2857
▁Economic	-2858
▁Moreover	-2859
▁balanced	-2860
▁convinced	-2861
▁economies	-2862
▁practical	-2863
▁promoting	-2864
▁provision	-2865
▁religious	-2866
▁renewable	-2867
▁Regulation	-2868
▁increasingly	-2869
▁comprehensive	-2870
▁consideration	-2871
App	-2872
ash	-2873
▁ec	-2874
Appl	-2875
ills	-2876
ties	-2877
▁Acc	-2878
▁Sum	-2879
andid	-2880
ensus	-2881
itude	-2882
lines	-2883
▁Iran	-2884
▁Turk	-2885
▁argu	-2886
▁spir	-2887
elines	-2888
▁doubt	-2889
▁green	-2890
▁lives	-2891
▁scope	-2892
▁shown	-2893
▁weeks	-2894
▁candid	-2895
▁forget	-2896
Applause	-2897
European	-2898
▁ability	-2899
▁looking	-2900
▁mandate	-2901
▁purpose	-2902
▁Auditors	-2903
▁concrete	-2904
▁conflict	-2905
▁intended	-2906
▁mobility	-2907
▁probably	-2908
▁strongly	-2909
▁scientific	-2910
go	-2911
jo	-2912
app	-2913
ria	-2914
uses	-2915
wise	-2916
▁fre	-2917
▁gra	-2918
▁mil	-2919
▁duty	-2920
▁home	-2921
▁join	-2922
▁rate	-2923
▁send	-2924
▁sent	-2925
idents	-2926
istics	-2927
▁recon	-2928
▁views	-2929
▁whose	-2930
igrants	-2931
▁Kosovo	-2932
▁Summit	-2933
▁desire	-2934
▁police	-2935
▁secure	-2936
▁binding	-2937
▁confirm	-2938
▁contact	-2939
▁finally	-2940
▁precise	-2941
▁setting	-2942
▁similar	-2943
▁Agricult	-2944
▁Alliance	-2945
▁comments	-2946
▁freedoms	-2947
▁dimension	-2948
▁discussed	-2949
▁mechanism	-2950
▁reference	-2951
▁implementing	-2952
▁specifically	-2953
Ch	-2954
sk	-2955
egu	-2956
gra	-2957
▁EC	-2958
know	-2959
urea	-2960
yond	-2961
▁How	-2962
▁Res	-2963
▁cho	-2964
▁cod	-2965
▁den	-2966
▁fri	-2967
▁ign	-2968
▁san	-2969
▁suc	-2970
enary	-2971
itime	-2972
▁Last	-2973
▁cust	-2974
▁dest	-2975
▁safe	-2976
▁ship	-2977
▁Trans	-2978
▁added	-2979
▁alloc	-2980
▁banks	-2981
▁table	-2982
▁voice	-2983
▁causes	-2984
▁failed	-2985
▁higher	-2986
▁launch	-2987
▁linked	-2988
▁record	-2989
▁safegu	-2990
▁wanted	-2991
▁citizen	-2992
▁perform	-2993
▁reading	-2994
▁session	-2995
▁succeed	-2996
▁Bulgaria	-2997
▁Portugal	-2998
▁equality	-2999
▁improved	-3000
▁provides	-3001
▁remember	-3002
▁consensus	-3003
▁interpret	-3004
▁introduce	-3005
▁recognise	-3006
▁sensitive	-3007
▁thousands	-3008
▁accordance	-3009
▁considered	-3010
▁represents	-3011
▁vulnerable	-3012
▁supervision	-3013
▁Unfortunately	-3014
uit	-3015
▁Bl	-3016
▁ce	-3017
iver	-3018
resp	-3019
▁eth	-3020
▁lat	-3021
▁ord	-3022
▁try	-3023
ronic	-3024
▁SMEs	-3025
▁Some	-3026
▁chec	-3027
▁gain	-3028
▁goal	-3029
▁note	-3030
ercial	-3031
▁Georg	-3032
▁crime	-3033
▁enabl	-3034
▁forms	-3035
▁poore	-3036
▁raise	-3037
▁sport	-3038
▁Action	-3039
▁critic	-3040
▁damage	-3041
▁forces	-3042
▁histor	-3043
▁modern	-3044
▁Spanish	-3045
▁concent	-3046
▁content	-3047
▁created	-3048
▁finance	-3049
▁firstly	-3050
▁plenary	-3051
▁propose	-3052
▁criminal	-3053
▁greatest	-3054
▁beginning	-3055
▁producers	-3056
▁guidelines	-3057
▁consumption	-3058
▁establishing	-3059
ex	-3060
ob	-3061
ush	-3062
▁ey	-3063
▁fl	-3064
ival	-3065
ored	-3066
▁cle	-3067
▁led	-3068
arter	-3069
spect	-3070
▁2013	-3071
▁Brus	-3072
▁bear	-3073
▁side	-3074
▁type	-3075
charge	-3076
itable	-3077
▁adequ	-3078
▁faced	-3079
▁later	-3080
▁legit	-3081
▁plans	-3082
▁pursu	-3083
▁study	-3084
mission	-3085
▁Market	-3086
▁animal	-3087
▁beyond	-3088
▁burden	-3089
▁cooper	-3090
▁determ	-3091
▁manner	-3092
▁spirit	-3093
ulations	-3094
▁Croatia	-3095
▁coheren	-3096
▁comment	-3097
▁debates	-3098
▁limited	-3099
▁network	-3100
▁overall	-3101
▁proport	-3102
▁receive	-3103
▁speaker	-3104
▁Although	-3105
▁Brussels	-3106
▁building	-3107
▁constant	-3108
▁directly	-3109
▁disaster	-3110
▁domestic	-3111
▁investig	-3112
▁personal	-3113
▁addressed	-3114
▁obviously	-3115
▁connection	-3116
▁prevention	-3117
▁profession	-3118
▁recognised	-3119
▁situations	-3120
▁commitments	-3121
▁perspective	-3122
▁rapporteurs	-3123
ban	-3124
ets	-3125
pay	-3126
vak	-3127
▁Be	-3128
▁sy	-3129
▁ut	-3130
apan	-3131
ream	-3132
▁199	-3133
arily	-3134
riers	-3135
ufact	-3136
▁fast	-3137
▁heav	-3138
▁mass	-3139
▁milk	-3140
▁mist	-3141
▁norm	-3142
▁publ	-3143
estern	-3144
liance	-3145
urally	-3146
▁Libya	-3147
▁North	-3148
▁brief	-3149
▁compl	-3150
akistan	-3151
▁advant	-3152
▁condem	-3153
▁interv	-3154
▁signal	-3155
▁source	-3156
▁worked	-3157
▁Protect	-3158
▁Turkish	-3159
▁complex	-3160
▁produce	-3161
▁regular	-3162
▁related	-3163
▁elements	-3164
▁manufact	-3165
▁discharge	-3166
▁conference	-3167
▁continuing	-3168
▁opposition	-3169
▁independent	-3170
▁obligations	-3171
HU	-3172
PE	-3173
ps	-3174
idd	-3175
lom	-3176
rel	-3177
▁18	-3178
▁By	-3179
▁Ir	-3180
▁Of	-3181
mbud	-3182
reci	-3183
semb	-3184
xual	-3185
▁nor	-3186
aving	-3187
erves	-3188
lying	-3189
▁Cons	-3190
▁Even	-3191
▁obst	-3192
▁seek	-3193
▁summ	-3194
▁warm	-3195
▁wide	-3196
elling	-3197
▁2009.	-3198
▁Liber	-3199
▁Prime	-3200
▁assum	-3201
▁cover	-3202
▁exact	-3203
▁incor	-3204
▁separ	-3205
▁wants	-3206
illions	-3207
▁Ladies	-3208
▁Slovak	-3209
▁compar	-3210
▁presid	-3211
▁refuge	-3212
▁strict	-3213
▁taxpay	-3214
▁Hungary	-3215
▁dealing	-3216
▁helping	-3217
▁opening	-3218
▁reduced	-3219
▁contains	-3220
▁families	-3221
▁followed	-3222
▁happened	-3223
▁territor	-3224
▁Amendment	-3225
▁materials	-3226
▁migration	-3227
▁operation	-3228
▁commercial	-3229
▁improvement	-3230
▁resolutions	-3231
▁constructive	-3232
▁independence	-3233
▁circumstances	-3234
▁establishment	-3235
0.	-3236
fe	-3237
oke	-3238
oms	-3239
pro	-3240
▁UK	-3241
adow	-3242
olid	-3243
rest	-3244
▁fis	-3245
▁ten	-3246
▁via	-3247
amber	-3248
illed	-3249
▁Balk	-3250
▁acts	-3251
▁clar	-3252
▁enjo	-3253
▁path	-3254
▁pill	-3255
▁prim	-3256
▁spec	-3257
ifying	-3258
making	-3259
ritten	-3260
▁After	-3261
▁Greek	-3262
▁extra	-3263
▁floor	-3264
▁gives	-3265
▁heart	-3266
▁ready	-3267
▁schem	-3268
▁sides	-3269
▁Agency	-3270
▁Budget	-3271
▁Poland	-3272
▁altern	-3273
▁crimes	-3274
▁explan	-3275
▁mainly	-3276
▁status	-3277
▁applies	-3278
▁appreci	-3279
▁putting	-3280
▁totally	-3281
▁Pakistan	-3282
▁anything	-3283
▁expected	-3284
▁experien	-3285
▁networks	-3286
▁planning	-3287
▁speaking	-3288
▁disasters	-3289
▁diversity	-3290
▁positions	-3291
▁associated	-3292
▁compliance	-3293
▁expression	-3294
▁interested	-3295
▁Agriculture	-3296
▁flexibility	-3297
▁restrictions	-3298
▁globalisation	-3299
▁institutional	-3300
..	-3301
ah	-3302
be	-3303
ev	-3304
ik	-3305
...	-3306
fin	-3307
tro	-3308
urs	-3309
▁Ob	-3310
crib	-3311
erve	-3312
lant	-3313
onia	-3314
ours	-3315
ront	-3316
ured	-3317
▁Why	-3318
▁dip	-3319
▁ill	-3320
endit	-3321
paign	-3322
vered	-3323
▁Aust	-3324
▁Inde	-3325
▁Sept	-3326
▁Serv	-3327
▁fear	-3328
▁port	-3329
▁ways	-3330
▁whom	-3331
etimes	-3332
sembly	-3333
▁Ombud	-3334
▁Organ	-3335
▁risks	-3336
▁diplom	-3337
▁either	-3338
▁firmly	-3339
▁fulfil	-3340
▁rating	-3341
▁stated	-3342
▁useful	-3343
▁partner	-3344
▁payment	-3345
▁Security	-3346
▁campaign	-3347
▁contract	-3348
▁election	-3349
▁instance	-3350
▁maritime	-3351
▁produced	-3352
▁standard	-3353
▁thinking	-3354
▁Ombudsman	-3355
▁September	-3356
▁continues	-3357
▁medicines	-3358
▁suffering	-3359
▁Protection	-3360
▁confidence	-3361
▁passengers	-3362
▁communities	-3363
▁considerable	-3364
car	-3365
dom	-3366
els	-3367
ift	-3368
nes	-3369
ury	-3370
val	-3371
▁30	-3372
▁gr	-3373
anim	-3374
▁Ash	-3375
▁Des	-3376
▁Gaz	-3377
▁PPE	-3378
▁fig	-3379
▁inh	-3380
▁unf	-3381
▁won	-3382
osing	-3383
range	-3384
▁came	-3385
▁date	-3386
▁dead	-3387
▁earl	-3388
▁tele	-3389
active	-3390
eneral	-3391
undred	-3392
▁Japan	-3393
▁Rules	-3394
▁Since	-3395
▁Stras	-3396
▁World	-3397
▁adver	-3398
▁emerg	-3399
▁happy	-3400
▁surpr	-3401
lighted	-3402
▁appeal	-3403
▁margin	-3404
▁tackle	-3405
▁trying	-3406
▁budgets	-3407
▁covered	-3408
▁largest	-3409
▁managed	-3410
▁penalty	-3411
▁persons	-3412
▁resolve	-3413
ilisation	-3414
▁starting	-3415
▁Represent	-3416
▁delighted	-3417
▁precisely	-3418
▁Strasbourg	-3419
▁definition	-3420
▁honourable	-3421
▁innovative	-3422
▁proportion	-3423
▁functioning	-3424
▁investments	-3425
▁negotiating	-3426
▁recognition	-3427
▁organisation	-3428
AP	-3429
CS	-3430
EL	-3431
ai	-3432
mp	-3433
oph	-3434
una	-3435
▁Co	-3436
-201	-3437
care	-3438
cast	-3439
gypt	-3440
▁Fra	-3441
▁Par	-3442
▁arr	-3443
acter	-3444
itial	-3445
ously	-3446
▁July	-3447
▁coll	-3448
▁prot	-3449
▁thor	-3450
lantic	-3451
lusive	-3452
▁Egypt	-3453
▁Irish	-3454
▁learn	-3455
▁spent	-3456
▁staff	-3457
▁works	-3458
ovember	-3459
ruption	-3460
▁Accord	-3461
▁Indeed	-3462
▁Polish	-3463
▁Proced	-3464
▁annual	-3465
▁fiscal	-3466
▁income	-3467
▁obstac	-3468
▁office	-3469
▁signed	-3470
▁unanim	-3471
▁volunt	-3472
justment	-3473
▁Program	-3474
▁Western	-3475
▁elected	-3476
▁element	-3477
▁failure	-3478
▁hundred	-3479
▁imports	-3480
▁initial	-3481
▁pension	-3482
▁analysis	-3483
▁geograph	-3484
▁learning	-3485
▁numerous	-3486
▁referred	-3487
▁thorough	-3488
▁urgently	-3489
▁condition	-3490
▁exclusion	-3491
▁immediate	-3492
▁seriously	-3493
▁consistent	-3494
▁electronic	-3495
▁guarantees	-3496
▁structures	-3497
▁violations	-3498
▁trafficking	-3499
▁transparent	-3500
▁distribution	-3501
▁professional	-3502
▁liberalisation	-3503
DP	-3504
ma	-3505
dra	-3506
icy	-3507
tle	-3508
▁1.	-3509
▁17	-3510
▁Cy	-3511
▁Gu	-3512
arks	-3513
▁Com	-3514
▁emb	-3515
▁enl	-3516
▁ult	-3517
▁drug	-3518
▁flow	-3519
▁jour	-3520
▁remo	-3521
agraph	-3522
▁2008.	-3523
▁defic	-3524
▁drawn	-3525
▁enorm	-3526
▁equip	-3527
▁fruit	-3528
▁inequ	-3529
▁tests	-3530
itation	-3531
vereign	-3532
▁Single	-3533
▁acknow	-3534
▁chance	-3535
▁contra	-3536
▁conver	-3537
▁elimin	-3538
▁extend	-3539
▁former	-3540
▁sexual	-3541
▁shadow	-3542
▁treaty	-3543
▁airport	-3544
▁arrange	-3545
▁realise	-3546
▁willing	-3547
Christian	-3548
▁November	-3549
▁accounts	-3550
▁bringing	-3551
▁consolid	-3552
▁designed	-3553
▁exercise	-3554
▁minority	-3555
▁vehicles	-3556
▁According	-3557
▁Programme	-3558
▁continued	-3559
▁involving	-3560
▁safeguard	-3561
▁directives	-3562
▁leadership	-3563
▁reasonable	-3564
▁regulatory	-3565
▁substantial	-3566
▁construction	-3567
▁significantly	-3568
aj	-3569
gn	-3570
ira	-3571
ize	-3572
pol	-3573
ugg	-3574
▁50	-3575
▁Fe	-3576
▁hy	-3577
ades	-3578
ghan	-3579
orse	-3580
vest	-3581
▁Bur	-3582
▁arm	-3583
pping	-3584
▁Kore	-3585
▁Rule	-3586
▁body	-3587
▁exec	-3588
▁laid	-3589
▁late	-3590
▁near	-3591
▁news	-3592
▁paid	-3593
▁told	-3594
▁tour	-3595
ourage	-3596
terday	-3597
▁Black	-3598
▁March	-3599
▁Spain	-3600
▁burea	-3601
▁dealt	-3602
▁delay	-3603
▁event	-3604
▁judic	-3605
▁plant	-3606
▁visas	-3607
actions	-3608
ossible	-3609
▁Ashton	-3610
▁Policy	-3611
▁asking	-3612
▁carbon	-3613
▁forest	-3614
▁incent	-3615
▁insist	-3616
▁saving	-3617
▁spread	-3618
▁stable	-3619
atically	-3620
entially	-3621
standing	-3622
▁Chamber	-3623
▁Despite	-3624
▁Eastern	-3625
▁Georgia	-3626
▁Italian	-3627
▁Swedish	-3628
▁Written	-3629
▁condemn	-3630
▁demands	-3631
▁earlier	-3632
▁exactly	-3633
▁happens	-3634
▁mission	-3635
▁Monetary	-3636
▁approved	-3637
▁barriers	-3638
▁complain	-3639
▁critical	-3640
▁examples	-3641
▁informed	-3642
▁overcome	-3643
▁revision	-3644
▁advantage	-3645
▁employees	-3646
▁excessive	-3647
▁happening	-3648
▁inclusion	-3649
▁labelling	-3650
▁languages	-3651
▁organised	-3652
▁processes	-3653
▁promotion	-3654
▁sanctions	-3655
▁sovereign	-3656
▁submitted	-3657
▁territory	-3658
▁collective	-3659
▁industries	-3660
▁statistics	-3661
▁requirement	-3662
▁consultation	-3663
▁transactions	-3664
▁sustainability	-3665
ze	-3666
ATO	-3667
ape	-3668
set	-3669
▁21	-3670
▁AC	-3671
▁bi	-3672
▁sw	-3673
aken	-3674
amic	-3675
ober	-3676
▁100	-3677
▁Mar	-3678
▁Sol	-3679
▁art	-3680
▁deg	-3681
▁sal	-3682
▁2012	-3683
▁Such	-3684
▁acqu	-3685
▁debt	-3686
▁laws	-3687
coming	-3688
ulated	-3689
▁2009,	-3690
▁Every	-3691
▁enjoy	-3692
▁occur	-3693
▁rates	-3694
▁speed	-3695
▁spoke	-3696
▁stake	-3697
▁truly	-3698
▁union	-3699
▁visit	-3700
▁votes	-3701
▁Afghan	-3702
▁Baltic	-3703
▁Energy	-3704
▁announ	-3705
▁crises	-3706
▁secret	-3707
▁skills	-3708
▁Environ	-3709
▁attract	-3710
▁bureauc	-3711
▁enforce	-3712
▁equally	-3713
▁imposed	-3714
▁planned	-3715
▁propert	-3716
▁univers	-3717
▁becoming	-3718
▁diseases	-3719
▁fighting	-3720
▁flexible	-3721
▁incorpor	-3722
▁ordinary	-3723
▁rejected	-3724
▁supports	-3725
▁Procedure	-3726
▁structure	-3727
▁taxpayers	-3728
▁facilitate	-3729
▁impossible	-3730
▁introduced	-3731
▁strategies	-3732
▁effectiveness	-3733
▁Representative	-3734
TA	-3735
cl	-3736
rs	-3737
sc	-3738
▁Ms	-3739
▁gl	-3740
▁pi	-3741
ibly	-3742
ping	-3743
▁Coh	-3744
▁log	-3745
▁mer	-3746
▁raw	-3747
▁wat	-3748
alest	-3749
iddle	-3750
lands	-3751
uting	-3752
▁Belg	-3753
▁Cong	-3754
▁Gaza	-3755
▁King	-3756
▁NATO	-3757
▁feed	-3758
▁gone	-3759
▁lies	-3760
▁ones	-3761
▁phen	-3762
▁plac	-3763
▁sort	-3764
▁zone	-3765
reness	-3766
▁Third	-3767
▁estim	-3768
▁gradu	-3769
▁known	-3770
▁occas	-3771
▁occup	-3772
▁ought	-3773
▁prior	-3774
▁reven	-3775
▁serve	-3776
▁solve	-3777
▁tools	-3778
▁topic	-3779
▁truth	-3780
quality	-3781
▁choice	-3782
▁clause	-3783
▁engage	-3784
▁myself	-3785
▁satisf	-3786
etitions	-3787
▁Charter	-3788
▁appears	-3789
▁endorse	-3790
▁largely	-3791
▁threats	-3792
▁withdra	-3793
▁definite	-3794
▁enormous	-3795
▁phenomen	-3796
▁politics	-3797
▁property	-3798
▁religion	-3799
▁Framework	-3800
▁Socialist	-3801
▁awareness	-3802
▁documents	-3803
▁protected	-3804
▁alternative	-3805
▁encouraging	-3806
▁ratification	-3807
▁harmonisation	-3808
EA	-3809
enn	-3810
nal	-3811
oot	-3812
ops	-3813
uck	-3814
▁16	-3815
bate	-3816
eter	-3817
ilst	-3818
reas	-3819
wide	-3820
▁Est	-3821
▁fem	-3822
▁mac	-3823
▁ton	-3824
aging	-3825
based	-3826
erity	-3827
going	-3828
trary	-3829
urely	-3830
▁mere	-3831
▁miss	-3832
▁phys	-3833
▁sell	-3834
▁spok	-3835
bruary	-3836
govern	-3837
▁2010,	-3838
▁Those	-3839
▁Women	-3840
▁earth	-3841
▁frequ	-3842
▁grate	-3843
▁ideas	-3844
▁prosp	-3845
▁reply	-3846
▁scale	-3847
▁seven	-3848
▁space	-3849
alities	-3850
▁afford	-3851
▁forced	-3852
▁limits	-3853
▁option	-3854
▁passed	-3855
▁perman	-3856
▁played	-3857
▁prison	-3858
▁unable	-3859
▁vision	-3860
▁British	-3861
▁Russian	-3862
▁attacks	-3863
▁capable	-3864
▁decades	-3865
▁details	-3866
▁factors	-3867
▁pointed	-3868
▁poorest	-3869
▁prepare	-3870
▁subsidi	-3871
▁thought	-3872
▁American	-3873
▁accepted	-3874
▁adequate	-3875
▁adopting	-3876
▁aviation	-3877
▁coherent	-3878
▁contrary	-3879
▁evidence	-3880
▁expendit	-3881
▁grateful	-3882
▁opinions	-3883
▁taxation	-3884
▁welcomed	-3885
ifications	-3886
▁Ministers	-3887
▁accidents	-3888
▁conflicts	-3889
▁equipment	-3890
▁paragraph	-3891
▁preparing	-3892
▁sometimes	-3893
▁voluntary	-3894
▁delegation	-3895
▁immigrants	-3896
▁operations	-3897
▁preventing	-3898
governmental	-3899
▁Fundamental	-3900
▁individuals	-3901
▁introducing	-3902
▁negotiation	-3903
-0	-3904
bu	-3905
iab	-3906
nic	-3907
ova	-3908
rab	-3909
raq	-3910
raz	-3911
uff	-3912
▁2.	-3913
▁Cl	-3914
▁EP	-3915
▁Sh	-3916
lled	-3917
ocol	-3918
opol	-3919
pped	-3920
uese	-3921
▁CAP	-3922
▁Col	-3923
▁Lat	-3924
▁dig	-3925
▁lay	-3926
▁max	-3927
▁	-3928
e	-3929
t	-3930
o	-3931
i	-3932
a	-3933
n	-3934
s	-3935
r	-3936
h	-3937
l	-3938
d	-3939
c	-3940
u	-3941
m	-3942
p	-3943
f	-3944
g	-3945
w	-3946
y	-3947
b	-3948
v	-3949
,	-3950
.	-3951
k	-3952
I	-3953
E	-3954
T	-3955
C	-3956
M	-3957
P	-3958
-	-3959
S	-3960
x	-3961
U	-3962
A	-3963
0	-3964
'	-3965
j	-3966
W	-3967
q	-3968
2	-3969
F	-3970
R	-3971
(	-3972
)	-3973
1	-3974
G	-3975
B	-3976
L	-3977
H	-3978
D	-3979
z	-3980
O	-3981
N	-3982
:	-3983
9	-3984
5	-3985
?	-3986
3	-3987
J	-3988
;	-3989
K	-3990
4	-3991
8	-3992
7	-3993
6	-3994
V	-3995
%	-3996
