<pad>	0
</s>	0
<unk>	0
.	-3.19591
,	-3.76892
▁	-4.13731
▁आहे	-4.26842
▁आणि	-4.44269
च्या	-4.50929
ा	-4.76198
े	-4.79782
ी	-4.83334
त	-4.92983
ची	-4.97154
चा	-4.99229
▁या	-5.13646
ला	-5.25656
चे	-5.29877
ही	-5.31977
मध्ये	-5.33032
-	-5.4091
▁आहेत	-5.45279
च	-5.46332
▁कोरोना	-5.48529
ं	-5.48896
ील	-5.55429
न	-5.62589
▁नाही	-5.68308
ने	-5.73929
क	-5.77602
▁हे	-5.79832
ल	-5.8533
स	-5.8778
▁लस	-5.90288
वर	-5.91848
▁ते	-5.94022
)	-5.94737
्या	-5.98469
ात	-5.98877
ून	-5.99155
▁किंवा	-5.99423
साठी	-6.0075
▁(	-6.01509
▁काही	-6.04568
▁तर	-6.05894
?	-6.07863
▁"	-6.08285
▁यांनी	-6.08693
▁आरोग्य	-6.08942
ित	-6.09234
र	-6.10114
▁करण्यात	-6.12252
▁की	-6.14678
▁एक	-6.17029
▁कमी	-6.20617
य	-6.22163
म	-6.2222
व	-6.23494
▁असं	-6.23945
-19	-6.24696
▁केली	-6.25351
प	-6.26467
चं	-6.28839
▁ही	-6.30496
▁पण	-6.30578
▁हा	-6.33971
शी	-6.35768
▁व	-6.37025
ू	-6.42199
▁अ	-6.42482
▁विषाणू	-6.4465
ली	-6.45565
▁होते	-6.46415
ले	-6.48764
ाच्या	-6.49302
▁त्या	-6.5037
▁न	-6.50905
मुळे	-6.50964
ल्या	-6.52544
▁संसर्ग	-6.52573
'	-6.5371
▁सर्व	-6.5482
▁करोना	-6.54878
▁का	-6.54993
▁कोव्हिड	-6.55086
▁सुरू	-6.55157
▁ज्या	-6.55433
ट	-6.56194
▁डॉ	-6.5647
ना	-6.59078
▁माहिती	-6.5937
▁रुग्ण	-6.60309
▁केले	-6.606
िक	-6.61215
ड	-6.62143
▁अनेक	-6.65117
▁काम	-6.65324
ो	-6.65463
▁इतर	-6.65987
▁आले	-6.66549
्स	-6.66743
▁वापर	-6.69889
▁असलेल्या	-6.69959
▁आली	-6.70303
▁होती	-6.70426
▁जास्त	-6.70646
▁बंद	-6.71213
▁'	-6.73087
▁करण्यासाठी	-6.73282
▁लसीकरण	-6.74391
▁केला	-6.74565
ता	-6.76875
▁केंद्र	-6.79038
▁क	-6.80547
▁करत	-6.80701
ज	-6.80841
▁राज्य	-6.81676
▁ऑक्सिजन	-6.81849
्	-6.81933
▁झाली	-6.8254
▁होत	-6.82961
▁होता	-6.83133
▁एका	-6.83979
पासून	-6.84826
▁हात	-6.85242
▁राज्यात	-6.8764
▁दोन	-6.87713
ण	-6.88484
▁झाला	-6.88812
▁चाचणी	-6.88901
ु	-6.88921
▁करण्या	-6.89159
▁असे	-6.89668
▁मृत्यू	-6.89714
ाचा	-6.91242
▁अधिक	-6.91891
▁लॉकडाऊन	-6.92603
्य	-6.93445
▁स	-6.9432
▁COVID	-6.94394
▁काय	-6.94418
▁असेल	-6.94544
▁झालेल्या	-6.95702
ाची	-6.96695
▁संख्या	-6.97828
▁म्हणून	-6.9812
▁करून	-6.98939
▁च्या	-6.99027
▁तयार	-6.99699
▁दिली	-6.99892
▁आता	-7.01445
द	-7.02281
ांनी	-7.02523
▁त्यांच्या	-7.02668
▁देण्यात	-7.03678
▁अशा	-7.03772
ाला	-7.0386
ाने	-7.05096
▁उपचार	-7.05118
▁त्यांना	-7.05496
▁व्हायरस	-7.05505
▁येत	-7.05525
ांना	-7.07446
पर्यंत	-7.08364
ंना	-7.08591
▁मात्र	-7.08838
ब	-7.09023
▁म्हणाले	-7.09334
लं	-7.10195
▁सरकार	-7.10373
▁त्यामुळे	-7.11144
▁उपलब्ध	-7.11525
▁आजार	-7.11629
:	-7.11877
▁टक्के	-7.12452
पेक्षा	-7.12481
▁करणे	-7.12696
▁परिणाम	-7.12925
ि	-7.13711
नी	-7.13804
▁अशी	-7.13841
▁आम्ही	-7.14101
▁एप्रिल	-7.15377
▁त्यांनी	-7.15692
▁गेल्या	-7.15912
▁औषध	-7.16194
▁आला	-7.16237
▁लशी	-7.17225
ग	-7.17856
▁2020	-7.18098
कडून	-7.18554
मधील	-7.18679
▁मोठ्या	-7.19276
▁जात	-7.19321
▁यांच्या	-7.19466
▁जे	-7.19737
▁शकतो	-7.20381
▁केलं	-7.20444
▁असल्याचं	-7.20563
▁होतं	-7.2123
▁झाले	-7.21695
▁प्र	-7.22037
ावर	-7.2225
▁परिस्थिती	-7.2265
फ	-7.22679
▁सांगतात	-7.22725
▁महाराष्ट्रात	-7.22749
▁भारतात	-7.22939
▁:	-7.23543
▁शाळा	-7.2439
▁असून	-7.25028
▁सध्या	-7.25384
."	-7.25803
▁हजार	-7.26895
▁मार्च	-7.27079
▁निर्णय	-7.27085
▁सरकारने	-7.27166
▁शकतात	-7.2727
ासाठी	-7.27424
▁होऊ	-7.27637
▁डोस	-7.2766
2	-7.28598
▁वैद्यकीय	-7.28923
▁येईल	-7.28937
श	-7.29031
▁म्हणजे	-7.29117
▁देशात	-7.30572
▁-	-7.30604
▁सांगितलं	-7.30795
वा	-7.31126
▁कारण	-7.32282
▁ह्या	-7.32551
▁कोविड	-7.3282
▁लोकांना	-7.32852
▁प्रसार	-7.33031
▁गरज	-7.33595
▁गंभीर	-7.34693
▁नवीन	-7.34702
ाचे	-7.35926
▁प्रकार	-7.36014
नंतर	-7.36114
्र	-7.37046
कडे	-7.37101
▁प्रमाण	-7.37247
▁म्हटलं	-7.37453
▁दुसऱ्या	-7.37662
▁तरी	-7.38418
तील	-7.38495
▁होणार	-7.38687
▁होतो	-7.39022
▁मध्ये	-7.39131
▁लोक	-7.39856
▁केल्या	-7.4016
▁लाख	-7.40272
▁मास्क	-7.40822
"	-7.41067
▁असा	-7.41204
▁जर	-7.41272
▁करू	-7.42115
▁शकते	-7.42116
▁रुग्णालयात	-7.43038
री	-7.44817
▁लक्ष	-7.4631
▁नाहीत	-7.47295
▁व्यक्ती	-7.47445
▁आपल्या	-7.47534
▁समावेश	-7.47573
ेश	-7.47751
ांच्या	-7.48101
ते	-7.48766
ंग	-7.48912
▁ज	-7.49042
ह	-7.49071
▁आलं	-7.49296
▁दिले	-7.49732
▁ब	-7.49902
▁शक्यता	-7.50253
▁आज	-7.50307
▁मुंबई	-7.50314
▁आपण	-7.51434
▁आलेल्या	-7.5172
▁जाहीर	-7.5213
नं	-7.52177
▁चीन	-7.52345
;	-7.5252
CoV	-7.52914
निर्माण	-7.52918
▁बदल	-7.53042
ळ	-7.53299
▁निर्बंध	-7.54099
▁जागतिक	-7.54147
▁परवानगी	-7.55298
▁श	-7.55711
▁म्हणतात	-7.55799
▁असते	-7.56119
▁ने	-7.56184
%	-7.56334
▁काळात	-7.56495
▁होण्या	-7.56556
▁पुढे	-7.56838
▁केलेल्या	-7.56908
▁येणार	-7.56921
ध	-7.56931
▁संसर्गा	-7.57143
▁प्रमाणात	-7.57244
▁स्थिती	-7.573
बाबत	-7.57493
▁मदत	-7.57679
▁तुम्हाला	-7.57742
▁जाऊ	-7.57816
ई	-7.57831
▁ठाकरे	-7.58121
▁लागू	-7.58157
▁चाचण्या	-7.58269
▁करण्याची	-7.58302
▁दिवस	-7.58794
▁लक्षणे	-7.58812
ातील	-7.58845
▁आवश्यक	-7.5996
▁बोलताना	-7.60681
२	-7.60705
▁दिसून	-7.60765
▁प्रवास	-7.61055
▁प्रयत्न	-7.61953
▁10	-7.62295
▁रोजी	-7.63013
▁भारत	-7.63081
ख	-7.63141
▁दाखल	-7.63252
पणे	-7.63389
▁विचार	-7.63604
▁तो	-7.63888
▁जाईल	-7.64127
▁उ	-7.64539
ाय	-7.64764
▁करणाऱ्या	-7.65902
▁SARS	-7.66043
ीन	-7.66343
▁कोणत्या	-7.6635
सह	-7.66621
▁5	-7.66645
सीओव्ही	-7.67002
▁रुग्णांची	-7.67038
▁मागणी	-7.67271
▁शिक्षण	-7.67581
▁अभ्यास	-7.6792
िंग	-7.68871
▁3	-7.69465
▁ग	-7.69554
णे	-7.69576
/	-7.70479
▁ती	-7.70617
▁योग्य	-7.70627
▁म	-7.70736
▁देखील	-7.70841
▁भागात	-7.71117
▁जाते	-7.71214
▁मी	-7.71314
▁काळजी	-7.71431
▁दर	-7.72087
▁1	-7.72328
वरील	-7.72982
▁तीन	-7.73324
▁मुख्यमंत्री	-7.73388
▁ए	-7.737
▁सेवा	-7.73815
▁पुन्हा	-7.7384
▁उत्पादन	-7.73991
ांमध्ये	-7.74002
▁सा	-7.74025
▁मे	-7.74138
▁ला	-7.74223
▁राज	-7.74318
▁प	-7.74671
▁उद्धव	-7.75276
▁यांना	-7.75477
▁वाढ	-7.75689
▁लसी	-7.75984
▁तेव्हा	-7.76357
a	-7.76363
▁बीबीसी	-7.76761
1	-7.76893
▁पूर्ण	-7.7692
या	-7.76921
ॅ	-7.77228
▁द	-7.7777
▁पहिल्या	-7.77841
नुसार	-7.77849
▁कोटी	-7.77884
▁बाहेर	-7.77977
▁महाराष्ट्र	-7.7802
▁भाग	-7.7807
▁कोरोनाची	-7.78117
ांची	-7.78337
▁सं	-7.78445
▁प्रश्न	-7.78733
▁पंतप्रधान	-7.78805
▁परीक्षा	-7.78823
▁असू	-7.78969
ंड	-7.79499
▁संबंधित	-7.79534
▁याचा	-7.80018
▁संपर्क	-7.80111
द्वारे	-7.80147
▁असताना	-7.80436
▁किती	-7.8085
▁सार्स	-7.80861
▁2	-7.8089
▁वा	-7.81222
▁विकसित	-7.81374
4	-7.82025
मधून	-7.82354
सोबत	-7.82356
र्	-7.82641
ांवर	-7.83179
▁नये	-7.83471
▁तुम्ही	-7.83512
▁भर	-7.83754
▁आ	-7.83815
णाऱ्या	-7.84228
रा	-7.84265
▁डेटा	-7.84546
▁ऑफ	-7.84549
▁ठिकाणी	-7.84601
▁वि	-7.84616
ामध्ये	-7.84762
▁रुग्णांना	-7.84834
▁चा	-7.84943
▁धोका	-7.85071
▁सार्वजनिक	-7.85117
▁करता	-7.85598
▁पुरवठा	-7.85659
▁नोंद	-7.85681
▁महिन्यात	-7.85753
ेंद्र	-7.85855
▁शहरात	-7.8613
से	-7.86138
▁4	-7.86263
स्त	-7.86553
झ	-7.87366
8	-7.87595
▁करतात	-7.87783
ीय	-7.87792
णं	-7.8781
▁आढळून	-7.87832
▁डॉक्टर	-7.88064
-2	-7.88138
तून	-7.88177
9	-7.88419
थ	-7.8877
▁झाल्या	-7.88775
6	-7.89327
ष	-7.89396
▁देश	-7.89619
▁सूचना	-7.89638
ंमध्ये	-7.89757
▁आल्या	-7.89933
▁स्पष्ट	-7.90063
▁होईल	-7.90078
▁आजारा	-7.90413
▁दिसत	-7.90493
ंच्या	-7.90588
▁लहान	-7.90654
▁लक्षणं	-7.9084
▁संपूर्ण	-7.9124
▁वेळ	-7.91533
▁टेस्ट	-7.91756
▁प्रत्येक	-7.91797
▁चर्चा	-7.91906
▁याबाबत	-7.92266
व्ह	-7.9228
▁विविध	-7.92384
▁तसंच	-7.92447
▁लागण	-7.93059
▁गेले	-7.93418
▁असतात	-7.93492
▁पॉझिटिव्ह	-7.93581
▁7	-7.93704
▁मोदी	-7.93998
▁जानेवारी	-7.9404
▁6	-7.9412
▁असतो	-7.94156
00	-7.94302
▁आहोत	-7.94744
▁अंदाज	-7.94744
▁जगभरात	-7.94744
▁सु	-7.94988
▁करण्यास	-7.9503
पैकी	-7.95379
▁फ	-7.95733
सा	-7.95777
▁दिला	-7.95975
लेल्या	-7.96129
ेट	-7.96216
▁साथी	-7.96339
▁19	-7.96438
ण्यासाठी	-7.96526
▁उत्तर	-7.96738
▁20	-7.96997
अ	-7.97043
▁कंपनी	-7.97446
▁उच्च	-7.97792
▁वाढत	-7.98199
बद्दल	-7.98685
टी	-7.98895
▁जिल्ह्यात	-7.99484
ांत	-7.99604
s	-7.99838
▁करा	-8.00446
▁घेतला	-8.00609
▁इ	-8.00664
▁केसेस	-8.0091
िया	-8.00955
▁मला	-8.01031
ंनी	-8.01272
ंची	-8.01376
िन	-8.02106
ांचा	-8.02322
▁लोकां	-8.02465
▁त्यात	-8.0292
१	-8.03098
▁एकूण	-8.03473
▁नियंत्रण	-8.04079
▁त	-8.04209
▁तुमच्या	-8.04253
▁पर्यंत	-8.04359
▁त्यानंतर	-8.04423
▁प्रतिबंध	-8.04475
डी	-8.04921
ण्यात	-8.04992
▁शोध	-8.0531
▁दरम्यान	-8.05332
▁खूप	-8.05446
▁जाणार	-8.05591
▁प्रभावी	-8.05736
ातून	-8.05785
ेल	-8.05904
▁फक्त	-8.06125
▁असल्याने	-8.06296
▁अंतर	-8.0631
▁झालं	-8.06612
▁असल्याच	-8.06639
▁धुण्या	-8.06788
णी	-8.07162
ेस	-8.07162
स्ट	-8.07219
▁सरकारी	-8.07546
▁बेड्स	-8.07552
▁केंद्रीय	-8.07604
ेवळ	-8.07711
दा	-8.07996
▁याची	-8.08024
▁आढळले	-8.08674
▁पाहिजे	-8.08777
▁त्रास	-8.08825
▁घरी	-8.09003
▁देण्या	-8.09435
▁“	-8.09531
▁पाच	-8.09933
▁प्रतिसाद	-8.10212
▁जेव्हा	-8.10246
▁होत्या	-8.10428
▁कार्यक्रम	-8.10461
▁यासाठी	-8.1085
कर	-8.10906
▁तसेच	-8.10964
का	-8.11384
ीत	-8.11538
▁रुग्णसंख्या	-8.11613
▁खासगी	-8.11615
▁8	-8.11859
▁50	-8.12131
▁गर्दी	-8.12321
▁सांगितले	-8.12321
▁असतील	-8.12373
▁चार	-8.12484
▁विशेष	-8.12594
ंचा	-8.13008
ायला	-8.13115
▁त्याच्या	-8.13126
▁येऊ	-8.13387
स्	-8.13677
▁रोग	-8.13752
▁येथ	-8.14379
▁येणाऱ्या	-8.1448
▁ठेवण्या	-8.15406
▁घेऊन	-8.15411
▁9	-8.15599
▁शिफारस	-8.15945
▁व्यक्त	-8.16043
तात	-8.16237
▁सो	-8.16298
▁अजून	-8.16687
▁शरीरात	-8.16697
सी	-8.16828
▁करणार	-8.17283
▁लागेल	-8.17432
▁रात्री	-8.17434
▁दोन्ही	-8.17434
▁लशीच्या	-8.17458
भ	-8.17802
ंट	-8.17864
न्स	-8.18144
▁प्रमुख	-8.182
▁आदेश	-8.1824
▁ट	-8.18314
▁दिल्ली	-8.18354
▁ताप	-8.18443
टे	-8.18458
ास	-8.18799
▁सुरुवात	-8.18891
7	-8.18913
▁सेंटर	-8.19601
▁कर्मचारी	-8.19705
▁प्रवेश	-8.19705
▁नाव	-8.19711
▁करताना	-8.19908
▁अधिकारी	-8.19998
िल	-8.20633
▁वर्षा	-8.21015
प्रमाणे	-8.21171
’	-8.21249
▁कालावधी	-8.21548
▁ग्रामीण	-8.22032
▁घेतली	-8.2216
▁हॉस्पिटल	-8.22198
▁लशीं	-8.22236
▁वेगान	-8.2234
▁त्याचा	-8.22342
i	-8.22404
▁भ	-8.22745
▁आर्थिक	-8.22953
▁विभागा	-8.23122
ंत	-8.23565
▁आणखी	-8.23612
▁‘	-8.23612
▁होणाऱ्या	-8.23619
▁करावी	-8.23646
▁स्थानिक	-8.23655
▁तीव्र	-8.23745
▁14	-8.23763
▁नव्या	-8.23854
▁र	-8.24156
▁माग	-8.24677
▁विद्यार्थ्यां	-8.25299
ंचे	-8.25453
▁देत	-8.25738
▁होण्याची	-8.25801
▁टोपे	-8.26031
▁गेली	-8.26035
▁लाटे	-8.26099
▁जिल्हा	-8.26198
▁फेब्रुवारी	-8.26318
▁आपल	-8.26583
▁आधी	-8.26624
▁पर्याय	-8.26851
▁असणाऱ्या	-8.26868
▁पुणे	-8.2687
▁काढ	-8.26889
सारख्या	-8.27155
▁क्षेत्रात	-8.27216
ताना	-8.27353
४	-8.27677
▁माहितीनुसार	-8.27902
▁लाट	-8.28056
▁घेण्यात	-8.28085
र्स	-8.28251
वि	-8.28259
▁मुंबईत	-8.2833
▁परत	-8.28354
▁जी	-8.28467
▁राष्ट्रीय	-8.28491
▁जातो	-8.28708
▁शकत	-8.28989
▁नंतर	-8.29193
▁जो	-8.29206
ामुळे	-8.29212
्व	-8.29323
▁नागपूर	-8.29351
▁परंतु	-8.29351
▁घोषणा	-8.29352
▁अन्य	-8.29354
▁उपाय	-8.29387
▁प्रमाणावर	-8.29558
▁प्रदेश	-8.29647
प्र	-8.29979
मान	-8.30033
▁सहा	-8.30096
▁लॉकडाउन	-8.30274
ठ	-8.30673
▁एचसीओव्ही	-8.31053
▁करणं	-8.31057
वी	-8.31082
▁सर्वाधिक	-8.31087
▁15	-8.3114
▁बस	-8.31173
C	-8.31367
णार	-8.31424
▁ना	-8.31438
▁12	-8.31674
ात्मक	-8.31737
▁शक्य	-8.31932
▁संशोधन	-8.32051
▁30	-8.32203
हून	-8.3237
पा	-8.32425
▁ऑक्सिजनची	-8.32451
▁कधी	-8.32787
▁आमच्या	-8.32815
▁पेक्षा	-8.32873
▁येथे	-8.3291
दरम्यान	-8.32935
▁मुख्य	-8.32941
▁यामुळे	-8.32942
▁उद्रेका	-8.33096
▁आतापर्यंत	-8.33103
शा	-8.33196
3	-8.33683
▁सामान्य	-8.33687
▁डॉक्टरां	-8.3373
ार	-8.33775
e	-8.3385
r	-8.339
▁चे	-8.33955
▁गोष्टी	-8.34156
ै	-8.34421
ंवर	-8.34536
▁सुरु	-8.34578
लो	-8.34643
▁प्रति	-8.34715
▁पूर्व	-8.34859
▁ह	-8.35297
▁भीती	-8.3544
▁प्रक्रिया	-8.35449
▁अर्थ	-8.3562
5	-8.35649
▁त्यांची	-8.35669
n	-8.36052
इ	-8.36118
तः	-8.36531
ांचे	-8.36595
o	-8.36731
ए	-8.37239
!	-8.3725
▁झाल्यानंतर	-8.37362
▁दु	-8.37459
▁ख	-8.37561
▁नियम	-8.37623
०	-8.3766
▁नर	-8.3774
▁मते	-8.38022
▁पुण्यात	-8.38072
▁स्पर्श	-8.38167
▁इन्स्टिट्यूट	-8.38171
▁मिळत	-8.38342
▁को	-8.38531
▁त्याची	-8.38599
तो	-8.3882
ती	-8.38833
▁वर्षां	-8.38923
▁आकडेवारी	-8.39053
त्र	-8.39062
▁पुष्टी	-8.39093
ांसाठी	-8.39305
▁निर्मिती	-8.39571
सं	-8.39887
▁वर्षी	-8.39904
▁बेड	-8.40038
▁तपासणी	-8.40049
▁काळ	-8.40119
▁तास	-8.40314
▁आपल्याला	-8.40418
▁घर	-8.40872
अत्यावश्यक	-8.40971
▁तुटवडा	-8.40971
ंतर्गत	-8.40991
▁करते	-8.41309
▁लशीचा	-8.41441
▁म्हटलंय	-8.41534
▁अत्यं	-8.41924
▁कोणती	-8.41935
▁प्राथमिक	-8.42009
▁आरोग्यमंत्री	-8.4205
शल	-8.42055
▁क्षमता	-8.42249
थेट	-8.42622
▁यांचा	-8.42808
▁इंजेक्शन	-8.42885
जी	-8.42889
▁रेमडेसिवीर	-8.42972
▁एखाद्या	-8.43022
▁मोठा	-8.43059
▁टप्प्यात	-8.43106
▁अहवाल	-8.43427
▁बरे	-8.43481
▁त्याला	-8.43594
▁पा	-8.43767
▁क्वारंटाईन	-8.44007
▁चालू	-8.44012
वरून	-8.44064
▁असल्यास	-8.44088
▁घेत	-8.44104
▁दुसरी	-8.44131
कार	-8.44205
▁दाखव	-8.44244
▁श्वसन	-8.44377
▁मुलां	-8.44567
I	-8.44648
▁सुरक्षित	-8.44713
▁प्रकरणां	-8.44777
▁आव्हान	-8.44838
▁करावा	-8.44945
▁मोठी	-8.45
▁फार	-8.45005
आ	-8.45615
दार	-8.4567
▁पत्रकार	-8.45676
▁लोकांच्या	-8.4571
▁संक्रमण	-8.45729
▁आम्हाला	-8.45932
▁मग	-8.45961
▁नियोजन	-8.46039
▁विषाणूच्या	-8.46152
७	-8.4622
ण्याची	-8.46293
▁अवलंब	-8.46837
▁येण्या	-8.4684
▁वय	-8.46997
रे	-8.47245
▁यावर	-8.47702
▁जोखीम	-8.47836
▁तुलनेत	-8.47836
▁वर	-8.47837
▁नोंदणी	-8.47927
▁ठर	-8.47966
▁असलेले	-8.48017
नि	-8.48064
▁नागरिक	-8.48228
▁लोकांनी	-8.48232
▁करतो	-8.48324
हा	-8.48332
▁भारता	-8.48394
▁पातळी	-8.48956
▁सामाजिक	-8.48965
▁सह	-8.49233
▁संभाव्य	-8.49266
▁मर्याद	-8.49275
▁देशा	-8.49275
जसे	-8.49546
▁सुविधा	-8.49779
५	-8.49801
▁समोर	-8.49878
▁जवळपास	-8.49892
▁स्ट	-8.50083
▁मराठी	-8.50142
▁WHO	-8.50183
▁सरकारच्या	-8.50217
३	-8.50334
घ	-8.50634
▁जवळ	-8.50722
c	-8.50907
▁सुरक्षा	-8.50929
▁लोकसंख्ये	-8.5093
▁पालन	-8.50931
▁दिलं	-8.50948
▁स्वतः	-8.50957
ुर	-8.50979
▁दिल्या	-8.5103
बल	-8.51118
▁जातं	-8.51229
▁वाट	-8.51321
६	-8.51388
▁रुग्णांच्या	-8.514
िश	-8.51562
▁त्यासाठी	-8.51724
पूर्वी	-8.51735
▁बाधित	-8.51771
▁असल्याची	-8.51782
▁श्वास	-8.51982
▁जीव	-8.51995
▁भारतीय	-8.52079
▁तिथे	-8.52294
▁युके	-8.52315
▁कार्य	-8.52344
ाचं	-8.52546
▁साठी	-8.52614
0	-8.53004
▁खर्च	-8.53047
▁दूर	-8.53059
▁जनते	-8.53152
▁महिन्या	-8.53177
▁लाटेत	-8.53212
▁करावे	-8.53362
(	-8.536
▁11	-8.53826
t	-8.54039
▁डिसेंबर	-8.54121
▁रेल्वे	-8.54121
▁सल्ला	-8.54122
▁आरोप	-8.54126
▁वुहान	-8.54236
▁संस्था	-8.54265
▁मुलांना	-8.54338
विषयी	-8.5435
वेळी	-8.54413
▁यात	-8.55087
▁वाहतूक	-8.55209
▁करावं	-8.5521
▁मध्य	-8.5526
डा	-8.55342
▁24	-8.55387
▁के	-8.55393
▁होऊन	-8.55412
▁सोड	-8.55515
▁वाढव	-8.55621
▁ओळख	-8.55718
िष्ट	-8.55772
▁जाण्या	-8.55882
▁तयारी	-8.56088
▁मंत्री	-8.56336
▁बहुतांश	-8.56352
रित्या	-8.56404
▁रि	-8.56453
▁रुग्णालय	-8.56464
▁जाण	-8.56473
▁हॉस्पिटलमध्ये	-8.56995
टा	-8.57039
जा	-8.57145
▁लोकांमध्ये	-8.57289
▁विद्यार्थी	-8.57418
▁पोलीस	-8.57418
▁मोहीम	-8.57419
▁उपस्थित	-8.57605
▁घेण्यासाठी	-8.57605
▁प्रशासना	-8.57661
रि	-8.5792
ावी	-8.5799
E	-8.58026
▁मधील	-8.58248
▁बोल	-8.58336
▁गाव	-8.5837
▁जातात	-8.58536
▁सौम्य	-8.58542
▁फ्लू	-8.58582
▁आजारी	-8.58699
▁त्यांचे	-8.58769
▁सगळ्या	-8.59007
▁सत	-8.59101
S	-8.59184
▁राज्या	-8.59384
त्त	-8.59478
ंद	-8.59532
▁अध्यक्ष	-8.59678
▁सांगण्या	-8.59684
▁पवार	-8.59707
▁सकाळी	-8.59792
▁असल्या	-8.59881
▁दिवसात	-8.6008
▁नमुने	-8.6009
▁नि	-8.6036
▁बायोटेक	-8.60827
▁अद्याप	-8.60828
▁अनुभव	-8.60831
▁पातळीवर	-8.60913
▁कि	-8.61011
▁कोव्हॅक्सिन	-8.6105
▁दिव	-8.61365
▁झालेली	-8.61479
P	-8.61503
▁संपर्कात	-8.61539
▁नागरिकां	-8.61611
▁साथ	-8.61851
जन्य	-8.61931
”	-8.6199
▁तिसऱ्या	-8.6199
▁रद्द	-8.61998
▁माध्यमातून	-8.62006
▁साठा	-8.62011
▁नका	-8.6204
ानुसार	-8.62112
▁ओ	-8.62118
▁कर्मचाऱ्यां	-8.62171
▁दुसरा	-8.62313
▁देशांमध्ये	-8.62361
▁18	-8.62391
मी	-8.62483
र्ड	-8.62555
वे	-8.62578
▁जणां	-8.62696
▁मानवी	-8.62724
▁साध	-8.62943
R	-8.63083
▁दररोज	-8.63254
▁C	-8.63256
▁माझ्या	-8.63331
▁मत	-8.63509
▁उद्रेक	-8.63932
▁घट	-8.63942
▁साबण	-8.64225
▁होणे	-8.64371
▁मान्यता	-8.64405
▁सरकारला	-8.6442
▁घड	-8.64548
▁ल	-8.64838
▁१	-8.64935
▁चाचण्यां	-8.6504
▁इटली	-8.65065
८	-8.65352
▁व्यवस्था	-8.6556
▁समस्या	-8.65563
▁डि	-8.6563
▁पासून	-8.65681
▁राहतील	-8.65723
▁बैठक	-8.65794
▁केल्यानंतर	-8.65806
▁हवा	-8.65826
▁नागरिकांना	-8.66023
▁विलगीकरण	-8.66028
▁तज्ज्ञां	-8.6607
▁सी	-8.66148
▁रुग्णांचा	-8.66159
मधल्या	-8.66207
▁महिन्यां	-8.66209
ावे	-8.66269
▁लशीचे	-8.66588
▁पद्धती	-8.66633
▁कडक	-8.66784
▁पुढ	-8.66793
▁प्रभावित	-8.66942
व्या	-8.67017
m	-8.67309
▁योजना	-8.67559
▁आवश्यकता	-8.67621
▁मिळाली	-8.68016
▁राजकीय	-8.68016
▁पर	-8.68109
▁येते	-8.68523
▁झालेले	-8.68695
▁बन	-8.68799
▁संनिरीक्षण	-8.68959
▁ची	-8.68977
▁जगात	-8.69113
▁कशी	-8.69222
पूर	-8.69244
▁परिणामकारक	-8.6925
▁सुमार	-8.69266
▁लागली	-8.69267
▁संरक्षण	-8.69293
▁होतात	-8.69324
▁मो	-8.69442
▁मूळ	-8.69518
ेशन	-8.69598
▁कोरोनाव्हायरस	-8.69687
ऱ्या	-8.697
ुक	-8.69715
▁म्हणजेच	-8.69742
▁आठवड्यात	-8.69946
गा	-8.7001
सुद्धा	-8.70197
ानंतर	-8.70284
▁पार	-8.70327
संबंधी	-8.70443
D	-8.7048
▁दक्षिण	-8.70532
▁जिथे	-8.70538
▁बऱ्याच	-8.70633
▁यंत्रणा	-8.70635
▁कर्मचाऱ्यांना	-8.70693
स्थ	-8.70746
▁सुद्धा	-8.70868
▁झाल्याचं	-8.70965
▁पुढील	-8.71036
▁स्व	-8.71253
कोरोना	-8.71259
ल्यानंतर	-8.71563
▁चाल	-8.71571
▁संप	-8.71659
सारखी	-8.71694
▁आवाहन	-8.71814
▁फोर्स	-8.71814
िट	-8.71885
▁भेट	-8.71887
▁लागणार	-8.71889
राव	-8.71942
▁घटना	-8.7206
▁असणार	-8.72222
▁साम	-8.72333
▁मार्ग	-8.72442
नल	-8.72637
N	-8.7279
▁प्राणवायू	-8.73113
▁लावण्या	-8.73142
को	-8.73206
दीप	-8.73404
▁त्यांचा	-8.73415
ेन	-8.73726
▁बे	-8.73779
▁घेऊ	-8.74066
▁सप्टेंबर	-8.74428
▁टास्क	-8.74429
,000	-8.7443
▁रिपोर्ट	-8.74504
▁ति	-8.74611
▁ट्र	-8.74889
▁व्यक्तीं	-8.75087
िम	-8.75208
▁16	-8.75256
ेड	-8.75436
्म	-8.75438
▁महत्त्वाच	-8.75602
▁परिस्थितीत	-8.75692
▁दशलक्ष	-8.75762
▁खरेदी	-8.75764
▁राहण्या	-8.75764
▁मार्गदर्शक	-8.7578
▁बंदी	-8.75783
▁अन्न	-8.75826
▁संसर्गजन्य	-8.75933
▁आठवड्या	-8.76174
दर	-8.76258
▁यु	-8.76284
▁क्षेत्र	-8.76522
्यात	-8.76546
▁देव	-8.7676
र्ट	-8.76963
▁कु	-8.77014
▁च	-8.77053
u	-8.77088
▁चिकित्सालय	-8.77113
▁यांची	-8.77148
▁केलेली	-8.7716
▁करणारे	-8.77268
▁असलेली	-8.77354
▁रूग्ण	-8.77474
▁महा	-8.77574
▁पूर्वी	-8.77693
▁घेता	-8.7779
A	-8.78132
क्स	-8.78211
▁वेळी	-8.78313
▁विरोधी	-8.78405
▁तज्ज्ञ	-8.78407
▁प्रसिद्ध	-8.78483
▁निदान	-8.78517
▁सॅनिटायझर	-8.7854
▁केअर	-8.78559
▁उघड	-8.78573
▁वाढली	-8.78937
▁वाटतं	-8.78947
▁S	-8.79051
▁संख्ये	-8.79069
▁तरीही	-8.79173
▁पड	-8.79204
▁देशभरात	-8.79283
▁पाठव	-8.79399
रो	-8.79528
▁मानवा	-8.79589
T	-8.79615
▁५	-8.79715
▁विशिष्ट	-8.79872
▁नसेल	-8.79874
▁आंतर	-8.79875
▁वितरण	-8.79893
▁गेला	-8.79894
न्	-8.79897
▁करुन	-8.79959
▁200	-8.79968
▁पहिला	-8.80174
▁मा	-8.80188
▁तोंड	-8.80197
ळी	-8.80375
▁तपास	-8.80486
के	-8.80573
▁यावेळी	-8.80641
▁पत्र	-8.80755
▁इंडिया	-8.80972
▁दिलेल	-8.81247
▁आढावा	-8.8128
▁प्रादुर्भाव	-8.8128
▁2021	-8.8128
▁अगदी	-8.8128
▁फायझर	-8.81284
▁फोन	-8.81311
डे	-8.81341
ापासून	-8.81432
▁त्याचे	-8.81449
▁देशांनी	-8.81599
▁देण्यासाठी	-8.81791
▁जागा	-8.81796
ओ	-8.82091
▁सूच	-8.82249
ोप	-8.82304
▁देऊ	-8.82343
ः	-8.8237
▁100	-8.82482
▁असल्याचा	-8.82551
▁I	-8.82553
p	-8.82678
d	-8.82699
▁सचिव	-8.82706
▁अंमलबजावणी	-8.82709
▁दावा	-8.82713
▁नसलेल्या	-8.82794
▁होम	-8.82797
▁वेगवेगळ्या	-8.82841
▁प्रणाली	-8.8305
ीकरण	-8.83076
▁सुरुवातीला	-8.83086
▁शहर	-8.83178
▁७	-8.83299
▁आधारित	-8.83313
▁आमच	-8.83391
▁दिवसांत	-8.83451
M	-8.835
▁समज	-8.83824
▁उद्योग	-8.8392
▁घ्या	-8.83931
▁कुटुंब	-8.84027
▁फडणवीस	-8.84158
▁संक्रमित	-8.84158
▁सीरम	-8.84159
▁म्युटेशन	-8.84159
▁गरजेचं	-8.84165
▁नसल्याचं	-8.84268
▁निश्चित	-8.84313
िस	-8.84337
▁नेते	-8.8441
▁महत्वाच	-8.8443
कल	-8.84496
▁ऑ	-8.84545
▁रुग्णांमध्ये	-8.84574
एम	-8.84651
मिळ	-8.85111
व्हा	-8.85133
▁घेण्या	-8.85509
▁ट्वीट	-8.85629
▁सिरम	-8.85629
▁करायला	-8.85633
▁2019	-8.85647
▁ऑक्सफर्ड	-8.85714
▁कसं	-8.85824
▁घरात	-8.85876
▁भाजप	-8.85973
काली	-8.86072
▁सर्वां	-8.86181
▁व्यक्तीला	-8.86264
्यू	-8.86352
▁टन	-8.86557
▁पडत	-8.86719
▁60	-8.86948
▁सात	-8.86993
▁संबंध	-8.87004
▁व्हेरियंट	-8.8705
▁मेडिकल	-8.87121
▁महाराष्ट्रा	-8.87133
▁40	-8.87378
▁अडचणी	-8.87388
▁बनव	-8.87402
चित	-8.87452
▁रुग्णांवर	-8.8751
▁पद्धतीने	-8.87525
▁ACE	-8.87601
▁नव	-8.87636
▁पाळी	-8.8769
▁भा	-8.87763
▁वेग	-8.87977
▁झाल्याने	-8.88006
▁लवकर	-8.88092
ंपैकी	-8.88216
▁मु	-8.88245
▁डे	-8.88334
▁रुग्णालया	-8.88383
▁झाल्याचे	-8.88484
पणा	-8.8857
▁जि	-8.88584
▁युनायटे	-8.88636
l	-8.88643
▁कठोर	-8.88644
▁लागल्या	-8.88651
▁होणं	-8.88651
▁म्हणणं	-8.88659
▁अर्ज	-8.8872
▁रोखण्यासाठी	-8.88751
▁साधारण	-8.88774
▁पेशी	-8.89037
▁धोरण	-8.89084
▁महत्त्वाचं	-8.89131
▁अमेरिके	-8.89206
स्क	-8.89218
ृ	-8.89274
शे	-8.89639
▁जा	-8.89655
ोट	-8.89855
▁समाव	-8.90079
पूर्ण	-8.90084
▁उपयोग	-8.90175
▁हॉटेल	-8.90175
▁संचालक	-8.90175
▁टीका	-8.90204
▁दिवसांपासून	-8.90265
ियन	-8.90547
▁व्यक्तींना	-8.90697
▁बैठकीत	-8.90708
जे	-8.90776
▁प्रशासन	-8.90848
▁शकतं	-8.90945
▁येतील	-8.91134
▁पूर्णपण	-8.91285
▁त्याच	-8.91332
▁गु	-8.91358
ूर	-8.9137
धा	-8.9138
▁संघटने	-8.91409
▁जन	-8.91473
L	-8.91737
▁ऑनलाईन	-8.91737
▁कमतरता	-8.91737
▁भूमिका	-8.91737
▁सदस्य	-8.91737
भर	-8.91808
▁अमरावती	-8.91809
▁दुसरीकडे	-8.9184
बरोबर	-8.91981
क्षण	-8.92021
▁नाक	-8.92065
ाल	-8.92133
▁सांगत	-8.92207
▁८	-8.92254
▁प्रशासनाने	-8.92304
▁रक्त	-8.92311
▁याविषयी	-8.92605
▁शरीरा	-8.92693
O	-8.92774
▁लि	-8.92794
जारी	-8.92833
▁खा	-8.93018
▁घटक	-8.93097
▁चिंता	-8.93322
▁रुपये	-8.93325
▁कारवाई	-8.93325
▁चौकशी	-8.93325
▁रुग्णसंख्ये	-8.93326
▁रा	-8.93335
▁घ	-8.93409
दी	-8.93427
▁म्हटले	-8.93468
▁सि	-8.93678
▁कार्यालय	-8.93959
संदर्भात	-8.94012
▁परि	-8.94115
▁पुण्या	-8.94127
शिवाय	-8.94192
▁अधिकाऱ्यांन	-8.94276
▁शे	-8.94519
्ट	-8.94581
▁विषय	-8.94858
▁17	-8.94909
▁नव्हती	-8.94938
▁धुणे	-8.94938
▁कुठे	-8.94938
▁संवाद	-8.94967
समोर	-8.94977
al	-8.94983
▁शै	-8.95036
▁रेमडेसिव्हिर	-8.95084
▁आलेला	-8.95242
▁टाक	-8.95297
▁घेतल्या	-8.95342
▁तुमच	-8.954
▁ज्यात	-8.9566
▁बाब	-8.95772
▁राहिल	-8.95878
▁महत्त्वाची	-8.96011
▁ठ	-8.96041
▁आत	-8.96273
▁वर्	-8.96424
▁अजित	-8.9658
▁उपक्रम	-8.96583
▁देणार	-8.96589
▁नाहीये	-8.96621
राष्ट्रीय	-8.9663
▁घेतल्यानंतर	-8.9667
▁एकत्र	-8.96735
रण	-8.96816
▁टँकर	-8.96923
▁३	-8.97229
▁उभ	-8.97255
%)	-8.97273
▁प्रवाशां	-8.97489
९	-8.9758
▁31	-8.97596
▁आग	-8.97654
▁अमेरिकेत	-8.97669
▁80	-8.9767
▁एकाच	-8.9771
▁रोगा	-8.97816
▁थांब	-8.97821
▁घेतले	-8.97865
▁दिल्लीत	-8.97867
▁कम	-8.97969
h	-8.97996
▁महिला	-8.98158
▁टक्क्यां	-8.98173
च्च	-8.98241
RCGP	-8.98244
▁वारंवार	-8.98244
▁आकडा	-8.98244
▁पार्श्वभूमीवर	-8.98244
▁आयुक्त	-8.98259
▁घ्यावी	-8.98274
▁दहा	-8.98294
▁पाणी	-8.98301
संख्य	-8.98397
▁छाती	-8.98531
िड	-8.99063
एन	-8.99148
▁व्हायरसच्या	-8.99167
ढ	-8.99481
▁मूळा	-8.99598
▁गो	-8.99787
▁टाळ	-8.998
▁नियमावली	-8.99938
▁राहणार	-8.99939
▁उद्भव	-8.9994
▁उदाहरणार्थ	-8.99942
▁नेमक	-8.99955
▁रेमडेसिविर	-9.00064
▁विभाग	-9.00148
▁थ	-9.00171
▁विकास	-9.00192
मंत्री	-9.00436
एस	-9.00528
▁निष्कर्ष	-9.00539
▁आय	-9.00656
▁पुरव	-9.00673
▁विमान	-9.00689
▁कोड	-9.00789
▁संकट	-9.0087
▁आम	-9.00946
▁मार्चला	-9.01211
▁कामगार	-9.01269
▁पोहोच	-9.01381
▁पाण्या	-9.01458
▁त्यावर	-9.01465
▁गोळ	-9.01575
ांचं	-9.01583
▁कमीत	-9.01631
▁धार्मिक	-9.01663
▁व्यवसाय	-9.01663
▁व्यावसायिक	-9.01663
▁लागला	-9.01665
▁लागले	-9.01674
▁येतात	-9.01766
▁स्वच्छता	-9.01781
विरोधात	-9.01797
▁असली	-9.0181
▁मिळव	-9.0199
▁पहिली	-9.02014
▁चीनमध्ये	-9.02107
िय	-9.02322
▁दिवसा	-9.02401
▁प्रभाव	-9.02431
मधल	-9.02455
▁शेवट	-9.02606
▁अॅप	-9.02737
▁जून	-9.02778
िका	-9.02936
▁जण	-9.03026
V	-9.03213
▁लागत	-9.03296
्युट	-9.03326
▁वर्ग	-9.03349
▁पेशीं	-9.03408
▁खोकला	-9.03417
▁प्रोटोकॉल	-9.03417
▁अतिशय	-9.03417
▁उद्देश	-9.03417
जन	-9.03437
लक	-9.03483
▁प्रकाशित	-9.03561
▁संशयित	-9.03647
▁घेण्यास	-9.03758
▁कसा	-9.03786
▁वापरण्या	-9.03926
▁एकदा	-9.03984
▁अधिकाऱ्यां	-9.04001
▁वर्षे	-9.04229
▁वाढू	-9.04249
▁झा	-9.04296
▁महाराष्ट्राला	-9.04373
▁सीओव्ही	-9.04399
▁गृह	-9.04405
क्लिनिकल	-9.04809
उ	-9.04916
▁स्वच्छ	-9.0503
▁व्हेंटिलेटर	-9.05073
▁कायम	-9.0509
ट्र	-9.05125
▁पश्चिम	-9.05203
▁महामारी	-9.05203
▁RSC	-9.05203
▁संघटना	-9.05203
▁मिळेल	-9.05203
▁पुरेस	-9.05256
▁आधीच	-9.0533
▁ठिकाण	-9.05356
▁जाणवत	-9.05456
▁व्यवस्थापन	-9.0548
▁विद्यार्थ्यांना	-9.05535
▁मंत्रालयाने	-9.05542
ाशी	-9.05574
हे	-9.05619
▁डॉक्टर्स	-9.05621
▁एन	-9.0582
▁लसीकरणासाठी	-9.05929
▁नगर	-9.05954
▁मुलांमध्ये	-9.06156
▁आलंय	-9.0616
▁रोज	-9.06327
वार	-9.06456
▁लक्षण	-9.06466
ोन	-9.06519
▁हळू	-9.06552
▁वर्ष	-9.06689
▁एखाद	-9.06762
तिरिक्त	-9.07018
▁प्रक्रिये	-9.07021
▁बातमी	-9.07021
▁सोनू	-9.07025
▁जैविक	-9.07042
▁ICU	-9.07156
▁25	-9.07196
▁जर्मनी	-9.07201
▁प्राण्यां	-9.07239
H	-9.0724
▁नसल्याने	-9.07261
▁त्यावेळी	-9.07278
दान	-9.07308
▁रूग्णां	-9.0751
तल्या	-9.07518
ळा	-9.07848
▁पालक	-9.07934
करून	-9.07948
▁कंपनीने	-9.08006
ावं	-9.08112
▁सर्	-9.08195
▁वाच	-9.08249
१९	-9.08259
मो	-9.08433
▁तपासण्या	-9.08529
▁दिस	-9.08537
▁महापालिके	-9.0854
▁70	-9.08548
▁अपेक्षित	-9.08873
▁काँग्रेस	-9.08873
▁हेल्थ	-9.08873
▁पुरवठ्या	-9.08873
ल्ड	-9.08892
▁पोस्ट	-9.08899
पर	-9.08908
▁प्रदान	-9.08948
▁वाद	-9.09009
▁स्ट्रेन	-9.09019
▁मदती	-9.09165
▁जगा	-9.09201
भूत	-9.09303
▁दुकाने	-9.09309
▁आठवड्यां	-9.09401
▁रहा	-9.09455
▁28	-9.09496
▁असलेला	-9.09562
▁लक्षणां	-9.09571
ीण	-9.09836
▁राज्यांना	-9.09853
▁अल	-9.10319
ंसाठी	-9.10326
त्व	-9.10335
▁जग	-9.10458
▁23	-9.10527
ज्ञात	-9.10592
▁उत्पन्न	-9.1076
▁इशारा	-9.1076
▁रविवार	-9.1076
▁खात्री	-9.10763
▁शिवाय	-9.10767
▁जाणाऱ्या	-9.10811
▁कोणताही	-9.1087
▁मृत्यूदर	-9.10907
▁आल्यानंतर	-9.11034
▁सहभागी	-9.1114
▁लोकांची	-9.11162
ण्यास	-9.11178
ोर	-9.11202
ँ	-9.11332
ंजय	-9.11374
▁संदर्भात	-9.11416
वून	-9.1145
▁वापरासाठी	-9.11565
▁तासां	-9.11596
ष्ट	-9.11718
20	-9.11833
▁स्वत	-9.11836
▁नमुन्यां	-9.11935
यु	-9.12196
▁ठेवा	-9.12199
▁संस्थे	-9.12352
▁असाल	-9.12367
करण	-9.12445
▁दर्शव	-9.12517
▁उप	-9.12542
▁वेळा	-9.12594
▁आपत्	-9.12654
▁ज्येष्ठ	-9.12683
▁तथापि	-9.12683
▁असतं	-9.12686
▁चित्र	-9.12697
▁तरुण	-9.12698
▁मंत्रालया	-9.12735
▁मांड	-9.12742
▁प्रकल्प	-9.12872
▁करोनाबाधित	-9.12872
गाव	-9.12991
▁असले	-9.1302
▁प्राप्त	-9.13052
▁असण्याची	-9.13087
▁N	-9.13114
▁लागतील	-9.13118
चिनी	-9.13154
▁जबाबदारी	-9.13199
▁प्राणी	-9.13243
▁शिक	-9.13384
▁ध	-9.13432
▁मिळू	-9.13433
▁आधार	-9.13517
▁येतो	-9.13517
▁महत्त्व	-9.13521
बो	-9.13543
यर	-9.13806
▁जातील	-9.13838
▁ई	-9.13981
▁बो	-9.1409
▁मानव	-9.14101
ॅक्ट	-9.14148
तरी	-9.14265
सोबतच	-9.14297
र्म	-9.143
▁माज	-9.1434
बी	-9.14408
▁आयसोलेशन	-9.14643
▁कुठल्या	-9.14644
CDC	-9.14644
▁बहु	-9.14644
▁अस	-9.14647
▁निवडणूक	-9.14647
▁सर्दी	-9.14659
▁पु	-9.14719
▁अँड	-9.14831
▁प्राधान्य	-9.14865
▁90	-9.14943
▁६	-9.14983
▁कंपन्या	-9.14985
▁जिम	-9.14989
जवळ	-9.1503
▁छ	-9.15152
▁1.	-9.15224
की	-9.15253
▁मिनिट	-9.15336
▁नियंत्रणात	-9.15428
क्त	-9.15477
▁विरोधात	-9.1559
लेले	-9.15616
ुन	-9.16059
▁मार	-9.16306
आर	-9.16334
आधी	-9.16456
ऐवजी	-9.16643
▁युनिव्हर्सिटी	-9.16643
▁व्हॅक्सिन	-9.16643
▁पाटील	-9.16645
▁नाशिक	-9.16681
▁हि	-9.16735
▁मृत्यु	-9.1674
▁वाटत	-9.16779
▁त्यांचं	-9.16784
▁१०	-9.16804
▁आकडे	-9.16881
▁अनु	-9.1699
▁पाहता	-9.17026
▁बाबतीत	-9.17138
▁कोणी	-9.17434
▁कोरोनाग्रस्तां	-9.17502
▁22	-9.17549
्झा	-9.17565
ांशी	-9.17655
▁झाल्यास	-9.17675
ण्याचा	-9.17763
▁अॅ	-9.17774
्ज	-9.17792
▁फायद	-9.1784
▁गोष्ट	-9.17887
▁यांच्याशी	-9.17915
ासह	-9.17985
▁मनात	-9.1801
▁पडू	-9.18051
▁गोष्टीं	-9.18345
▁अँप	-9.18455
▁मन	-9.18531
▁मान	-9.18597
▁जंतू	-9.18684
▁इतिहास	-9.18684
▁महापालिका	-9.18684
▁मानसिक	-9.18685
▁जेवण	-9.18696
▁प्रोटीन	-9.18705
▁इथे	-9.18709
▁सादर	-9.18741
▁अधिकृत	-9.18754
▁देताना	-9.18772
क्षणिक	-9.1886
▁साबणा	-9.18912
मागे	-9.18913
▁सामना	-9.18918
▁MERS	-9.18938
▁शक्ती	-9.19075
▁सरकारनं	-9.19137
देखील	-9.19157
▁चुकीच	-9.19178
▁लागते	-9.19665
▁एवढ	-9.19887
▁अव	-9.19888
िव	-9.20008
,"	-9.20109
▁सुरुवाती	-9.20246
▁फुफ्फुसां	-9.20321
टि	-9.20323
▁सोबत	-9.20372
▁केस	-9.20436
िर	-9.20558
्ह	-9.20593
▁आलेले	-9.20681
▁अल्कोहोल	-9.20768
▁क्रमांक	-9.20768
▁रशिया	-9.20768
▁सकारात्मक	-9.20768
▁झपाट्यान	-9.20782
▁संयुक्त	-9.20789
▁मर्स	-9.20893
▁वेगळ	-9.20957
ीक	-9.21181
▁खास	-9.21208
िमान	-9.21286
▁मार्चपर्यंत	-9.21358
▁साथरोग	-9.21366
▁सरकारकडून	-9.21397
▁शि	-9.21509
▁जिनोम	-9.21546
▁कार्यालया	-9.21665
▁टप्प्या	-9.21697
▁भो	-9.21885
▁उपाययोजना	-9.22218
▁येतं	-9.22313
▁जिल्ह्या	-9.22404
▁अधिकार	-9.22431
कारक	-9.22442
▁राज्याच्या	-9.22477
▁सम	-9.22508
▁प्रकरण	-9.22513
▁ब्रिटन	-9.22545
ोम	-9.22572
▁कंपन्यां	-9.22647
▁वेळे	-9.2283
▁यशस्वी	-9.22895
▁सिक्वेंसिंग	-9.22895
▁मोहिमे	-9.22895
▁लागलं	-9.22896
▁घेणं	-9.22896
▁घ्यायला	-9.22897
▁यूके	-9.22905
▁लांब	-9.22906
▁२४	-9.22918
▁१५	-9.22933
▁कोणते	-9.22953
▁बघ	-9.23012
▁आई	-9.23106
▁पॉल	-9.23144
▁A	-9.23145
▁दुकानं	-9.23145
ांकडून	-9.23198
▁रुग्णांसाठी	-9.23214
▁घेतलेल्या	-9.23216
▁कदा	-9.23279
▁शिक्षक	-9.23296
हळू	-9.23453
▁उपचारासाठी	-9.23533
▁रूग्णांमध्ये	-9.23562
▁ठेवण्यासाठी	-9.23627
▁यासंदर्भात	-9.23686
ाईन	-9.23727
ल्ल	-9.23758
▁आव	-9.2399
▁२०	-9.2402
▁बंधन	-9.24159
ायचं	-9.24384
द्ध	-9.24443
आय	-9.24532
▁उत्पादक	-9.24663
णारे	-9.24677
▁रुग्णालयां	-9.2475
▁21	-9.24927
▁अनिवार्य	-9.25069
▁नेटवर्क	-9.25069
▁फ्रान्स	-9.25069
▁वृद्ध	-9.25069
▁इतक्या	-9.25069
▁नव्हते	-9.25069
▁सर्वेक्षण	-9.25071
▁देणे	-9.25071
▁मिळाला	-9.25071
व्यतिरिक्त	-9.25074
▁योजने	-9.25075
▁मिळणार	-9.25075
करिता	-9.25083
▁ताण	-9.25093
in	-9.25123
▁यंत्रणे	-9.25207
▁लोकल	-9.25242
▁अति	-9.25297
००	-9.25416
▁शहरां	-9.25468
▁मध्यम	-9.2547
▁खालील	-9.25471
▁बोर्डा	-9.25587
▁अप	-9.25709
▁पे	-9.25769
▁आधारे	-9.26013
▁शेवटी	-9.26086
ळे	-9.26369
▁रक्ता	-9.26597
▁श्वसना	-9.2661
▁कोरोनाबाधित	-9.2678
▁निरीक्षण	-9.26933
v	-9.26966
य़ा	-9.27255
▁४	-9.27263
▁निवड	-9.2729
▁सोसायटी	-9.27291
▁बंगाल	-9.27291
▁वाजेपर्यंत	-9.27291
▁कॉलेज	-9.27292
▁आणण्या	-9.27295
▁घराबाहेर	-9.27304
▁कृती	-9.27315
मूद	-9.27365
▁असल्यामुळे	-9.27572
▁जेणे	-9.27669
▁निकाल	-9.27761
सारखे	-9.27819
▁रो	-9.27882
▁रुग्णालयांमध्ये	-9.27944
▁द्या	-9.27945
▁माल	-9.28052
▁महिलां	-9.28474
▁भरती	-9.28518
▁विशेषत	-9.28689
▁नमुन्या	-9.28927
िज	-9.29085
▁मॅ	-9.29221
▁ट्रायल	-9.29434
▁याबद्दल	-9.29478
▁पो	-9.29488
▁मधुमेह	-9.29564
▁कारणीभूत	-9.29565
▁सहकार्य	-9.29571
▁पेपर	-9.29578
▁बारावी	-9.29578
▁दहावी	-9.296
▁हवी	-9.29635
▁व्ही	-9.29699
ळ्या	-9.29803
▁कुमार	-9.29961
▁काल	-9.3006
▁याच	-9.30248
▁नमुन	-9.30269
ाबद्दल	-9.30337
▁वेगळे	-9.30482
▁कोण	-9.30544
▁13	-9.30583
▁बैठकी	-9.30641
▁ठरव	-9.30762
पत्र	-9.30833
▁सर्वांना	-9.31143
▁स्थितीत	-9.31183
▁प्रच	-9.31241
▁आयोगा	-9.31274
▁आयोज	-9.31397
▁शासना	-9.31456
▁45	-9.31629
▁विरोध	-9.31697
▁तुलना	-9.31884
▁ठेवणे	-9.3189
▁तालुक्यात	-9.3189
▁निगेटिव्ह	-9.3189
▁ब्राझील	-9.3189
▁मंजुरी	-9.3189
▁वैयक्तिक	-9.3189
▁रुपयां	-9.3189
▁विक्री	-9.3189
▁जनरल	-9.31891
▁करेल	-9.31893
▁घेणार	-9.31894
ीट	-9.31933
▁सक्षम	-9.31944
▁पुरेश	-9.32036
▁प्रवाशांना	-9.32141
▁एकत्रित	-9.32218
▁बी	-9.32275
▁असता	-9.32282
▁टोच	-9.32287
▁वयाच	-9.3229
▁बाजार	-9.32448
▁क्षेत्रा	-9.32486
▁संख्येत	-9.32509
▁पट	-9.32657
ठिकाणी	-9.3266
▁दिवसांचा	-9.32714
▁कठ	-9.32772
▁मिळवण्या	-9.32788
वान	-9.3294
▁साधला	-9.32958
▁वस्तू	-9.32963
▁घाल	-9.32987
ंचं	-9.32993
▁मुल	-9.33016
▁शकल	-9.33056
▁निर्देश	-9.33148
वाद	-9.33213
ंसह	-9.33283
▁प्रा	-9.33466
रोग	-9.3357
▁शकता	-9.33603
▁उपकरण	-9.33701
▁पुर	-9.33872
▁प्रवासी	-9.34025
▁कं	-9.34038
▁यापैकी	-9.34251
▁गर्भ	-9.3427
▁PHE	-9.34271
▁आयुष्य	-9.34271
▁ऑक्टोबर	-9.34271
▁कक्ष	-9.34271
▁खबरदारी	-9.34271
▁मॉडर्ना	-9.34271
▁अचानक	-9.34271
▁टाळेबंदी	-9.34271
▁विनंती	-9.34271
▁राहु	-9.34271
▁घेणाऱ्या	-9.34271
▁नव्हता	-9.34271
▁पुरावा	-9.34272
▁निधी	-9.34272
▁गेलं	-9.34276
▁उलट	-9.34285
▁लेख	-9.34285
▁स्थळ	-9.34294
▁रिक्त	-9.34294
▁जाग	-9.34306
▁अमेरिक	-9.34326
▁सामान्यपणे	-9.34405
▁ढकल	-9.34468
▁शुक्रवारी	-9.34477
g	-9.34619
▁जणांना	-9.34676
विक	-9.34757
▁रोख	-9.34759
▁संघटनेने	-9.34776
वेत	-9.34832
▁राख	-9.3488
▁रे	-9.34901
▁राज्यांमध्ये	-9.34911
ुम	-9.34913
ाबाबत	-9.35019
▁मात	-9.35105
्ड	-9.35111
▁वेळेत	-9.3512
▁माध्यम	-9.3513
राज	-9.35179
हर	-9.35201
▁देशां	-9.35263
गण	-9.35375
▁पाव	-9.36056
▁केल्यास	-9.36285
▁केंद्रात	-9.3639
▁पाळ	-9.364
▁आढळत	-9.36444
िकल	-9.36545
▁झ	-9.36571
▁प्रॅक्टिस	-9.36629
▁ट्विट	-9.36688
च्छ	-9.36693
लेली	-9.367
▁असोसिएशन	-9.3671
▁न्यूमोनिया	-9.3671
मेट्रिक	-9.36715
▁ट्रेन	-9.36715
RNA	-9.36715
▁सिद्ध	-9.36725
▁दिवसांपूर्वी	-9.36728
▁प्रशिक्षण	-9.36735
▁मूल	-9.36738
▁थांबव	-9.36741
▁१८	-9.36747
▁ऑफिस	-9.36779
▁गटा	-9.36864
▁ब्र	-9.3687
▁वाढल्या	-9.36942
50	-9.36949
▁मासिक	-9.36974
▁द्वारे	-9.37011
िस्ट	-9.37104
▁जोशी	-9.3723
▁असला	-9.37401
▁डॉक्टरांना	-9.37489
▁बाल	-9.37534
▁P	-9.37629
▁मिळाले	-9.37637
Co	-9.377
▁शासकीय	-9.37707
▁खाली	-9.37727
▁वाढत्या	-9.37759
▁स्थान	-9.37762
▁हजारो	-9.37781
▁भारतामध्ये	-9.38154
▁नसल्या	-9.38256
▁साठव	-9.38264
▁हवेत	-9.3835
▁रेट	-9.38381
▁वयोगटात	-9.38395
▁सोप	-9.38458
ेअर	-9.38521
▁पसरत	-9.38732
▁फॉर	-9.38954
्यावर	-9.38967
बळ	-9.38997
▁सारख्या	-9.39092
गे	-9.39142
ोल	-9.39185
▁इंग्लंड	-9.3921
▁इमारत	-9.3921
▁गायकवाड	-9.3921
▁देखरेख	-9.3921
▁सरासरी	-9.3921
▁नेहमी	-9.3921
▁शब्द	-9.3921
▁प्रथम	-9.3921
▁ठाणे	-9.39211
▁सहाय्य	-9.39211
▁पुरावे	-9.39228
मेंट	-9.39231
▁एकमेकां	-9.39242
▁पाहाय	-9.39322
▁मोठं	-9.39423
▁युरोप	-9.39446
▁नातेवाईक	-9.39484
▁समान	-9.39511
▁कोणाला	-9.39519
▁इतकी	-9.39522
▁त्यांच्यावर	-9.39584
र्ग	-9.39627
फत	-9.39743
▁संच	-9.39758
▁राहा	-9.39766
▁कसे	-9.39786
▁कॅ	-9.39837
▁नवा	-9.3987
▁मुलांसाठी	-9.39887
▁कोरिया	-9.39917
स्थिती	-9.40145
▁घालण्या	-9.40206
▁किंमत	-9.40246
▁आठ	-9.40273
▁फे	-9.40523
ज्या	-9.4057
▁चेन	-9.40669
नाथ	-9.4069
▁देशांत	-9.40728
ांमधील	-9.40745
▁मिळालेल	-9.4081
भाव	-9.40869
▁होण्यास	-9.40994
▁म्हण	-9.41054
▁पि	-9.41074
▁होतील	-9.41076
▁संकटा	-9.41155
ब्	-9.4123
▁ठरत	-9.41305
▁शोधण्या	-9.41309
वरुन	-9.41322
▁मर्यादा	-9.41331
▁प्रयोगशाळेत	-9.41345
अर	-9.41405
▁रुग्णालयाच्या	-9.41469
▁पाठवण्या	-9.4161
▁गट	-9.41657
▁अँटीबॉडी	-9.41659
▁माझ	-9.41697
▁कोव्हिशील्ड	-9.41774
▁खाजगी	-9.41774
▁गुजरात	-9.41774
▁नोव्हेंबर	-9.41774
▁लगेच	-9.41774
▁राजकारण	-9.41774
▁इराण	-9.41776
▁फार्मा	-9.41776
▁हवं	-9.41776
▁संधी	-9.41776
▁व्यापक	-9.41778
▁विश्वास	-9.41787
म्बो	-9.41794
▁आपला	-9.41927
▁यश	-9.41955
िओ	-9.41957
▁दंड	-9.42001
▁संक्रमणा	-9.42028
टर	-9.42092
▁बातम्या	-9.42094
ईन	-9.42131
▁स्थाप	-9.42179
▁कशा	-9.42228
▁मानले	-9.4235
▁संनिरीक्षणा	-9.42412
▁उभार	-9.42438
▁कळ	-9.42445
▁सेवे	-9.42451
▁यांचं	-9.42504
▁वातावरण	-9.42581
▁कारणं	-9.42582
B	-9.42742
▁गावात	-9.42782
▁यादी	-9.42844
▁९	-9.42917
▁मुले	-9.42955
ठा	-9.4297
▁शकतील	-9.43008
▁द्रव	-9.43018
ांमुळे	-9.43112
जण	-9.43194
▁हाताळ	-9.43332
▁इं	-9.43527
था	-9.43633
ल्याचं	-9.43664
▁फिर	-9.43713
▁व्हाय	-9.43939
▁सापडल	-9.43952
▁पावले	-9.4418
▁अम	-9.44246
▁झालाय	-9.44328
▁कॅलिफोर्निया	-9.44405
▁उल्लेख	-9.44405
▁महिने	-9.44405
▁वाहतुकी	-9.44405
▁संबोध	-9.44405
▁येणं	-9.44406
▁घेणे	-9.44406
▁लॅब	-9.44406
▁कचऱ्या	-9.44406
▁शकेल	-9.44406
▁बँक	-9.44407
▁सिंड्रोम	-9.44407
▁देणाऱ्या	-9.44407
▁फरक	-9.44409
▁अंश	-9.44419
▁कोविन	-9.44419
ाऊ	-9.44421
▁नुकत	-9.44422
▁सीमा	-9.44429
▁दिल्यानंतर	-9.44579
▁वाढला	-9.44602
▁M	-9.44698
ालेय	-9.44707
▁T	-9.44824
▁नियमित	-9.45078
▁त्यानुसार	-9.45205
िटी	-9.45253
ांपासून	-9.45254
▁सुधार	-9.45271
सु	-9.45294
COVID	-9.455
विरोधी	-9.45501
ंदा	-9.4551
▁2.	-9.45531
▁अभ्यासात	-9.45836
▁औषधं	-9.45847
▁नियमां	-9.4586
▁नवी	-9.46008
▁अमेरिका	-9.46086
▁घरीच	-9.46094
▁कोरोनाग्रस्त	-9.46264
डो	-9.46273
▁केलंय	-9.46311
.5	-9.46364
णारा	-9.46543
▁महाविद्यालय	-9.46544
▁राहू	-9.46739
▁27	-9.46796
▁पृष्ठभाग	-9.47022
▁मिळाल्या	-9.47043
▁पालघर	-9.47108
▁बिघड	-9.47108
▁संचारबंदी	-9.47108
मार्फत	-9.47108
▁म्हणाल्या	-9.47109
▁वसई	-9.47111
▁अश्या	-9.47112
▁प्रतिक्रिया	-9.47118
▁एकीकडे	-9.47122
▁गरजेचे	-9.47144
▁कोरोनाविषाणू	-9.47232
▁२	-9.47258
ांपेक्षा	-9.4726
▁क्ल	-9.47366
▁कार्ड	-9.47458
▁प्रांत	-9.47476
▁निर	-9.47506
▁पसर	-9.47596
▁अर्थात	-9.47905
▁बोलत	-9.47928
▁न्यू	-9.47936
▁नर्स	-9.47939
▁मागो	-9.47971
कोव्हिड	-9.48289
▁जोखमी	-9.4829
गत	-9.48337
▁ग्रस्त	-9.48351
▁दिवसां	-9.48353
▁वाढले	-9.4884
▁सातत्यान	-9.48846
▁धर	-9.48866
▁जोड	-9.48945
▁शहरा	-9.48973
▁बाजारात	-9.49222
▁एस	-9.49284
▁छातीत	-9.4941
▁उपस्थिती	-9.4943
▁H	-9.49534
19	-9.49594
▁वेगवेगळ	-9.49628
▁प्रकाश	-9.49658
▁लशीला	-9.49706
▁घोष	-9.49834
▁उड्डाण	-9.49886
▁प्रजाती	-9.49886
▁साखळी	-9.49886
▁मुखवट	-9.49886
▁इतका	-9.49887
▁जलद	-9.49891
▁रोगजनक	-9.49898
▁राहील	-9.49899
▁मृत्युदर	-9.49909
▁ग्र	-9.49957
▁व्हेंटिलेटर्स	-9.50089
▁कोव्हिशिल्ड	-9.50095
▁बाजूला	-9.50164
▁उपमुख्यमंत्र	-9.5047
ालय	-9.50511
▁इंडिय	-9.50512
डि	-9.50583
▁तातडीन	-9.50815
▁शोधून	-9.50971
▁मागच्या	-9.51008
▁प्रकरणे	-9.51017
▁वाचव	-9.51022
▁रूग्णालयात	-9.51037
▁विरुद्ध	-9.51073
गृह	-9.51117
दिवस	-9.51147
▁सगळ्यां	-9.51195
▁मुख्यमंत्र्यांन	-9.51202
▁साधन	-9.51248
्री	-9.51252
▁आलेलं	-9.51362
or	-9.51384
▁शाळेत	-9.51432
▁क्रम	-9.51456
टिंग	-9.51504
▁कोरोनावर	-9.51533
▁तिथ	-9.51573
क्रम	-9.51676
▁रूग्णांच्या	-9.51762
▁तापमान	-9.51877
्टर	-9.52077
▁याला	-9.52142
▁सुर	-9.52151
गी	-9.52203
ऊ	-9.52299
ंडवे	-9.52507
्रॉ	-9.52549
ार्थ	-9.52631
▁उपायां	-9.52693
▁खरं	-9.5274
▁हॉ	-9.52743
▁आटोक्यात	-9.52743
▁आयसीयू	-9.52743
▁डिजिटल	-9.52743
▁नैसर्गिक	-9.52743
▁मूल्यांकन	-9.52743
▁तुटवड्या	-9.52743
▁बहुतेक	-9.52744
▁फटका	-9.52745
▁विजय	-9.52746
▁बरं	-9.52754
▁लग्न	-9.52756
▁राबव	-9.52777
▁सभा	-9.52799
पीपी	-9.52826
▁जम	-9.53002
▁त्याशिवाय	-9.53016
▁वापरले	-9.53088
▁29	-9.53104
▁लागतात	-9.53171
▁कार्यक्षमत	-9.53178
▁अडथळा	-9.53184
▁उपचारांसाठी	-9.53194
er	-9.53203
▁अखेर	-9.53242
▁राय	-9.53373
▁त्यापैकी	-9.53479
17	-9.53687
▁हवे	-9.53835
िव्ह	-9.54016
▁बंधनकार	-9.54099
▁वटवाघळ	-9.54258
▁0	-9.54264
न्ट	-9.54279
▁नॅश	-9.54283
▁डी	-9.54466
▁26	-9.5454
ल्ट	-9.54579
बे	-9.54611
▁प्राण	-9.54683
खोल	-9.54786
▁घा	-9.54864
▁होताना	-9.54889
▁राहत	-9.54898
▁समूह	-9.54987
▁संकल	-9.55108
▁१९	-9.5533
▁समिती	-9.55353
▁मरण	-9.5536
at	-9.55614
PCR	-9.55678
▁तात्पुरत	-9.55684
▁पूनावाला	-9.55684
▁व्यवस्थे	-9.55684
▁सक्रिय	-9.55684
▁विस्तार	-9.55684
▁स्टेट्स	-9.55684
▁स्वीकार	-9.55685
▁हर्षवर्धन	-9.55685
▁गाडी	-9.55687
▁कायद्या	-9.55691
▁कुटुंबा	-9.55722
▁लक्षणीय	-9.55752
▁ठेवून	-9.55777
▁लिह	-9.55782
▁विकत	-9.55783
▁प्रकरणा	-9.55828
▁गुणकार	-9.55845
▁करतील	-9.55941
वाल	-9.55951
▁प्रतिकार	-9.55976
▁आणण्यासाठी	-9.56017
▁जय	-9.56054
रोधक	-9.56074
माहीत	-9.56077
▁धुवा	-9.56484
▁पोट	-9.56629
▁लोकांचं	-9.56677
▁याशिवाय	-9.56795
▁सर्वसामान्य	-9.56831
▁परिसरात	-9.56952
▁फुफ्फुसा	-9.56988
▁विभागाने	-9.57092
▁चेहऱ्या	-9.57094
तर	-9.57111
थे	-9.5741
▁पक्षा	-9.57587
▁तातडी	-9.57712
▁इन	-9.57764
▁35	-9.57873
ृत	-9.57911
ल्यास	-9.57989
र्ज	-9.58016
▁जबाबदार	-9.58078
▁टाळा	-9.58595
भाष	-9.58617
▁योग	-9.58661
दैनंदिन	-9.58714
▁न्युमोनिया	-9.58714
▁प्रतिनिधी	-9.58714
▁मोबाईल	-9.58714
▁शारीर	-9.58714
▁व्यायाम	-9.58715
▁स्वतंत्र	-9.58715
▁कॅनडा	-9.58715
▁प्रतिकारशक्ती	-9.58717
▁अॅक्टिव्ह	-9.58719
▁करीत	-9.58726
▁मान्य	-9.58744
▁गाठ	-9.58746
▁द्यावी	-9.58751
▁स्तरावर	-9.58769
▁मार्गदर्शन	-9.58777
वती	-9.58821
▁दुखत	-9.58832
▁आकार	-9.58843
ँड	-9.58925
▁लागतो	-9.58946
▁रोगप्रतिकारक	-9.58961
▁नियमांचं	-9.58973
▁इन्	-9.59039
▁छोट्या	-9.59044
▁इफेक्ट	-9.59095
▁नको	-9.59097
▁कोरडे	-9.59276
▁रुग्णालयांना	-9.59329
▁मुख्यमंत्र्यां	-9.59411
▁ज्यांन	-9.59413
विषय	-9.5944
▁देऊन	-9.59502
10	-9.59538
▁भास	-9.59557
▁अभाव	-9.59599
▁व्हायरल	-9.59605
▁बार	-9.59647
ायिक	-9.59686
▁सांगा	-9.59688
शन	-9.59829
▁झाल्यावर	-9.60223
निर्मिती	-9.60225
▁बाबी	-9.6025
▁दुसर	-9.60283
मंत	-9.603
▁आल्यास	-9.6031
हित	-9.60391
ापर्यंत	-9.604
अन	-9.60472
▁व्या	-9.60518
▁रुग्णांच	-9.6053
ोज	-9.60626
▁फेब्रुवारीला	-9.60733
▁पोलिसांन	-9.60735
▁शी	-9.6075
वणार	-9.60759
▁०	-9.60998
▁आलाय	-9.61023
▁माध्यमां	-9.61114
कोव्ह	-9.61226
▁भू	-9.61558
ूत	-9.6157
ीज	-9.61633
▁ब्ल	-9.61737
सारखा	-9.61746
▁उदाहरण	-9.61832
▁य	-9.61833
▁गोंधळ	-9.61837
▁आघाडी	-9.61839
▁आढळला	-9.61839
▁आणीबाणी	-9.61839
▁आपात्काल	-9.61839
▁गमाव	-9.61839
▁गोपनीयत	-9.61839
▁ग्राहक	-9.61839
▁प्रस्ताव	-9.61839
▁फोटो	-9.6184
▁पोहच	-9.6184
▁सिस्टम	-9.6184
▁आरोग्यसेवा	-9.61841
▁प्रावस्था	-9.61843
▁लावला	-9.61847
विरार	-9.61879
▁उतर	-9.61903
▁कुणी	-9.61916
▁पोशिंद्या	-9.61922
▁आदी	-9.61924
▁घसा	-9.61927
▁संघ	-9.6197
▁परिणामी	-9.62106
जिकल	-9.6211
▁प्रथिन	-9.62126
▁सुरक्षितता	-9.62237
▁किट	-9.62388
▁विभागात	-9.62417
▁पसरला	-9.6246
मंड	-9.62486
▁सरकारकडे	-9.62634
राम	-9.62844
▁पडले	-9.63036
▁दुर्	-9.63156
▁फि	-9.6326
▁लोकांसाठी	-9.63295
▁याचं	-9.63346
▁उपलब्धता	-9.63352
ल्याने	-9.63434
▁वैज्ञानिक	-9.63473
▁फुफ्फुस	-9.63519
▁मीडियावर	-9.63596
▁लशीमुळे	-9.63607
जर	-9.63618
▁यापूर्वी	-9.63657
▁आशा	-9.63668
▁पद्धत	-9.63841
▁संदर्भ	-9.63909
▁सुरूवात	-9.63969
▁अँ	-9.64001
▁नियामक	-9.64081
▁मोज	-9.64178
▁कोटीं	-9.64408
ायत	-9.64656
शास्त्र	-9.64759
▁उड	-9.648
▁प्रत्यक्ष	-9.64824
▁आर	-9.65031
▁शिंक	-9.65058
▁अतिदक्षत	-9.65065
▁उद्दिष्ट	-9.65065
▁एजन्सी	-9.65065
▁गुरुवारी	-9.65065
▁जनुकीय	-9.65065
▁प्रतिजैविक	-9.65065
▁प्लॅटफॉर्म	-9.65065
▁मॉडेल	-9.65065
▁सगळं	-9.65065
▁अंतिम	-9.65065
▁प्लांट	-9.65065
▁राहणाऱ्या	-9.65065
▁लिहिलं	-9.65065
▁केरळ	-9.65066
▁दिवाळी	-9.65066
▁वर्तमान	-9.65066
▁निधन	-9.65066
▁नक्की	-9.65067
▁सूद	-9.65068
▁वर्णन	-9.65075
▁ओळखपत्र	-9.65093
▁देशमुख	-9.65101
▁आरटी	-9.65101
▁आपत्ती	-9.65114
▁त्याचप्रमाणे	-9.65126
▁श्री	-9.65133
णारी	-9.6514
▁अग्र	-9.65182
▁घ्यावा	-9.65222
▁ठाकरेंनी	-9.65336
▁डोसेस	-9.65429
▁विषाणूमुळे	-9.65518
▁करायची	-9.65578
▁तक्रारी	-9.65617
es	-9.65765
▁सर	-9.65869
▁वापरता	-9.65887
▁काळा	-9.65963
▁पी	-9.66182
▁हॅ	-9.66235
▁अनि	-9.66395
▁फायदे	-9.66431
▁काढले	-9.6644
▁लो	-9.66596
▁वाटते	-9.66638
मर	-9.66666
पीसीआर	-9.66745
G	-9.66755
राज्यात	-9.66791
मंत्र्यांनी	-9.66793
जेन	-9.66968
▁म्हणत	-9.67033
ट्ट	-9.67213
▁विश्लेषण	-9.67226
▁प्रदेशात	-9.67244
▁११	-9.67552
▁स्थगित	-9.67571
▁प्रारंभ	-9.67578
▁चि	-9.67621
▁धोक्या	-9.67655
▁वर्षांवर	-9.679
43	-9.67919
ांपर्यंत	-9.67944
▁चौ	-9.6802
सार	-9.68213
▁वाढता	-9.68368
विल्हेवाट	-9.68399
▁जिल्हाधिकारी	-9.68399
▁दबाव	-9.68399
▁नुकसान	-9.68399
▁मिळालं	-9.68399
▁रेस्पिरेटर	-9.68399
▁लूकस	-9.68399
▁स्थलांतर	-9.68399
▁हैदराबाद	-9.68399
▁इतकं	-9.68399
▁रेड्डी	-9.68399
▁रोजगार	-9.68399
▁साहित्य	-9.68399
▁अचूक	-9.68399
▁संकेत	-9.684
▁स्वयं	-9.68401
▁चांगला	-9.68401
▁शकणार	-9.68407
▁त्वचे	-9.68414
▁त्वचा	-9.6842
▁पैसे	-9.68422
▁अटक	-9.68429
▁धोकादायक	-9.68437
▁गेल्यावर्षी	-9.68446
▁विद्यापीठ	-9.68451
▁रुग्णवाढ	-9.68458
▁शंका	-9.68474
it	-9.68485
▁प्रॅक्टिसेस	-9.68509
▁स्वच्छते	-9.68517
▁आकडेवारीनुसार	-9.68553
▁निर्म	-9.68566
▁पाहिजेत	-9.68636
▁रूग्णांना	-9.68969
▁मोठे	-9.68975
▁प्रो	-9.69073
▁धर्म	-9.69172
▁प्रयोगशाळा	-9.69206
व्याप	-9.69266
▁पाळत	-9.69292
▁मोदींन	-9.69299
ल्स	-9.69415
▁समाज	-9.6946
▁प्राण्या	-9.696
क्क	-9.69639
गल	-9.69646
▁करार	-9.69658
ॅक्स	-9.69667
ाखाली	-9.69699
▁वाढवण्याच	-9.69807
▁सायन	-9.69869
▁देता	-9.69929
▁युरोपिय	-9.69949
▁जमा	-9.6998
स्थान	-9.70023
▁घेण्याची	-9.70032
जो	-9.70105
▁देतात	-9.70228
दायक	-9.70235
▁वस्तूं	-9.7027
प्रमाणेच	-9.70317
▁पोलिसां	-9.70398
▁विषाणूरोध	-9.70447
▁बाळा	-9.70637
▁हु	-9.7065
▁हानी	-9.70789
न्न	-9.70818
▁महत्त्वाचा	-9.70831
पती	-9.70854
▁काढण्या	-9.71126
▁यानंतर	-9.71179
▁नोंदवल	-9.71421
षण	-9.71452
मुख	-9.71462
▁आठवड	-9.71625
▁आफ्रिक	-9.71762
▁आश्रय	-9.71847
▁किराणा	-9.71847
▁ट्रेसिंग	-9.71847
▁तब्येत	-9.71847
▁दवाखान्यात	-9.71847
▁वॉर्ड	-9.71847
▁तात्काळ	-9.71848
▁लोकसंख्या	-9.71848
सारखं	-9.71848
▁ठोस	-9.71848
▁नियंत्रित	-9.71848
▁जपान	-9.71849
▁देणं	-9.71849
▁विज्ञान	-9.71855
▁ट्रम्प	-9.71859
विनाश	-9.71864
▁विद्यमान	-9.71864
▁राजस्थान	-9.71892
▁शेती	-9.7192
▁कोडिंग	-9.71942
रोगप्रतिकारशक्ती	-9.71979
याव	-9.71992
▁१२	-9.71999
ंमधील	-9.72129
▁तासांत	-9.72136
▁अमित	-9.72165
▁स्वॅब	-9.72166
▁आख	-9.72172
▁औषधे	-9.72173
▁पडली	-9.72256
▁द्यावे	-9.72272
▁डॉलर	-9.72279
▁दिसण्या	-9.72328
▁शनिवारी	-9.72352
▁आयात	-9.72402
हो	-9.72494
▁फेस	-9.72566
▁क्रिया	-9.72736
▁गेलेल्या	-9.72737
▁RT	-9.7274
▁वाहन	-9.72747
▁झाल्यामुळे	-9.72797
▁उपाययोजनां	-9.72963
▁संख्येन	-9.72985
▁अमेरिकेमध्ये	-9.72985
95	-9.73063
▁लक्ष्य	-9.73135
▁लाखो	-9.73188
▁थोड	-9.73421
▁असण्या	-9.73703
हान	-9.73897
ाधिक	-9.73973
तोय	-9.73977
▁कालावधीत	-9.74036
▁संसर्गित	-9.74057
▁बसला	-9.74082
▁यांच्यावर	-9.74141
▁दुकान	-9.74244
▁बदलत	-9.74329
थील	-9.74339
▁यांसारख	-9.74478
▁पालकमंत्र	-9.74495
▁रूग्णा	-9.74673
िष	-9.7499
▁मिळते	-9.75117
▁वृत्त	-9.75409
▁कॉल	-9.75417
▁आंदोलन	-9.75418
▁औरंगाबाद	-9.75418
▁जुलै	-9.75418
▁नव्हतं	-9.75418
▁पालिके	-9.75418
▁बांध	-9.75418
▁शिथिल	-9.75418
▁स्पुटनिक	-9.75418
▁ऑगस्ट	-9.75418
▁दुपारी	-9.75418
▁बांधकाम	-9.75418
▁पेशंट	-9.75419
▁युनिट	-9.75419
▁वक्तव्य	-9.75419
▁टप्पा	-9.75419
▁इथं	-9.75419
बंध	-9.75424
▁अतिसार	-9.75429
▁डिस्टन्सिंग	-9.75436
▁मित्र	-9.75443
▁आमदार	-9.75461
▁पहिल्यांदा	-9.75478
▁असलं	-9.75581
▁हृदय	-9.75694
▁तसा	-9.75696
▁विसर	-9.7579
▁कॉन्ट	-9.75984
प्पी	-9.76028
▁संस्थेने	-9.76041
▁वापरल्या	-9.76042
▁वाढलं	-9.76044
▁रक्तात	-9.76198
▁नोंदवले	-9.76377
▁वापरणे	-9.76426
▁देशांना	-9.76496
इन	-9.76529
▁भार	-9.76566
▁पक्ष	-9.76611
▁ओळखण्या	-9.76621
▁आल्याचं	-9.76702
▁पाठवले	-9.76848
▁मंत्र्यां	-9.76859
शास	-9.76917
▁परदेश	-9.7699
▁घटकां	-9.77095
ग्रस्त	-9.77096
▁केंद्रावर	-9.77131
मुक्त	-9.77248
ायक	-9.77265
▁समुदाया	-9.77537
▁आल्याने	-9.77603
▁अपेक्षा	-9.77741
▁टो	-9.77856
▁पालकां	-9.77956
2)	-9.77966
कृत	-9.7819
▁यावी	-9.78213
▁याकडे	-9.78318
क्शन	-9.78378
ांबाबत	-9.78394
▁खाटा	-9.78461
▁लॉकडॉऊन	-9.78493
▁खुल	-9.7851
▁संशोधना	-9.78532
▁झोन	-9.78644
▁म्हणूनच	-9.78751
▁सर्वच	-9.7879
▁क्षमते	-9.78792
▁गण	-9.78813
▁स्वरूप	-9.78835
धार	-9.79052
लोक	-9.79055
WIN	-9.79122
म्युकरमायकोसिस	-9.79122
▁अनावश्यक	-9.79122
▁तणाव	-9.79122
▁दुर्लक्ष	-9.79122
▁पाहिलं	-9.79122
▁वगळता	-9.79122
▁व्यवहार	-9.79122
▁डायरिया	-9.79122
▁मजुरां	-9.79122
▁वरिष्ठ	-9.79122
▁स्टोअर	-9.79122
▁राजधानी	-9.79122
▁इच्छा	-9.79123
▁चांगली	-9.79123
▁मुंडे	-9.79123
▁बाकी	-9.79123
▁बुधवारी	-9.79128
▁कोर्टा	-9.79139
▁उद्या	-9.79152
▁३०	-9.79152
▁बीटा	-9.79163
▁कोल्ड	-9.7917
▁प्रोत्साहन	-9.79171
़	-9.79171
▁नोंदवण्या	-9.79187
▁टक्केवारी	-9.79188
▁घालणे	-9.79197
ाइड	-9.79198
▁अद्यतन	-9.79203
▁टाळणे	-9.79225
▁लढण्यासाठी	-9.79227
ीक्ष	-9.79251
▁खेळ	-9.79284
▁वापरण्यात	-9.79395
▁फंड	-9.79401
▁मि	-9.79444
▁घेतलं	-9.7945
▁क्षमतेने	-9.79455
बाहेर	-9.79461
▁विकासा	-9.79465
▁तब्	-9.79523
सम	-9.79711
▁कळव	-9.79711
▁रस्त्यावर	-9.79716
▁बालकां	-9.79717
▁आपल्याकडे	-9.79775
▁पद्धतीं	-9.79991
▁बाळग	-9.80026
▁आगी	-9.80151
▁वर्षांच्या	-9.80211
प्त	-9.80307
▁प्रवाश	-9.80493
▁समुदाय	-9.80611
▁मुक्त	-9.80829
▁शाळे	-9.80856
25	-9.81096
▁तुमचा	-9.8116
वाज	-9.81174
▁ज्याला	-9.81334
विरुद्ध	-9.81339
भव	-9.81352
किंवा	-9.81361
भार	-9.81384
▁रूग्णालय	-9.81411
▁त्याचं	-9.8149
▁धन	-9.81614
नगर	-9.81785
▁सरकारचा	-9.81808
▁ठेवता	-9.8191
▁मुलांची	-9.81988
ँग	-9.8213
▁ऑस्ट्रेलिया	-9.82284
तज्ज्ञ	-9.82296
▁लाटेचा	-9.82407
▁रोगप्रतिकार	-9.82507
▁तसं	-9.82732
▁केंद्राकड	-9.82836
ॉवेल	-9.82968
▁उत्परिवर्तन	-9.82968
▁उल्लंघन	-9.82968
▁दुप्पट	-9.82968
▁निवडणुकी	-9.82968
▁पुनावाला	-9.82968
▁पॅनगोलिन्स	-9.82968
▁फ्रंटला	-9.82968
▁भविष्यात	-9.82968
▁महापौर	-9.82968
▁विश्वविद्यालये	-9.82968
▁सिलिंडर	-9.82968
▁सिलेंडर	-9.82968
▁सुरक्षे	-9.82968
▁आरएनए	-9.82968
▁कुठली	-9.82968
▁सगळे	-9.82968
▁दोघां	-9.82968
▁चांगलं	-9.82969
▁चांगले	-9.82969
▁चांगल्या	-9.82969
▁आनंद	-9.8297
▁फूट	-9.82971
▁मलिक	-9.82972
▁कचरा	-9.82972
▁यू	-9.82972
▁कार्यरत	-9.82974
▁नव्हे	-9.82977
▁दीड	-9.82982
▁झोप	-9.82997
▁पसरतो	-9.83
▁वाढती	-9.83011
▁दल	-9.83036
▁मीटर	-9.83041
▁सांगू	-9.83108
▁कर्ज	-9.83126
ति	-9.83137
▁सुचव	-9.83158
▁कच्च	-9.83267
▁टेस्टिंग	-9.83285
▁प्रश्नांची	-9.83297
▁शिर	-9.83363
▁दृष्टीने	-9.83455
▁केलाय	-9.83464
▁तीव्रता	-9.83576
▁हॉस्पिटल्स	-9.83622
▁माझा	-9.83775
▁चाचणीसाठी	-9.83801
▁आयोजन	-9.83834
काळ	-9.8385
▁सेल	-9.83878
▁मुलं	-9.8388
▁हर	-9.83996
▁ठेवत	-9.84038
▁कोव्हॅक्सीन	-9.8414
▁गती	-9.84405
▁U	-9.84417
ठी	-9.84439
ंमुळे	-9.84534
▁जाणं	-9.84576
▁देण्यास	-9.84603
▁मुला	-9.84653
▁प्रतिबंधक	-9.84849
ूक	-9.84875
ोलॉजी	-9.84914
▁वार	-9.8495
▁वर्षभरात	-9.85022
▁पहिल	-9.85024
▁इतरांना	-9.85062
▁500	-9.85187
रेट	-9.85195
▁होतोय	-9.85325
शासकीय	-9.85342
▁सर्वो	-9.85396
हाळ	-9.85503
▁37	-9.85518
▁काढला	-9.85539
▁मार्गा	-9.85613
▁सुधारण	-9.85696
▁प्रचार	-9.85753
▁मराठ	-9.85974
▁दम	-9.86036
ग्ल	-9.86171
▁सहभाग	-9.86172
▁विलगीकरणात	-9.86186
▁निर्	-9.8632
▁तोंडा	-9.86428
सिन	-9.86462
▁रु	-9.86498
▁संस्थां	-9.86522
द्वा	-9.86522
▁डब	-9.86612
▁लशीसाठी	-9.86626
▁न्यायालय	-9.86716
▁प्रतिरोध	-9.86722
वेळ	-9.86733
▁संशय	-9.86741
ed	-9.86847
▁चिकित्सा	-9.86968
▁अर्थव्यवस्थे	-9.86968
▁ऑनलाइन	-9.86968
▁कित्येक	-9.86968
▁गांधी	-9.86968
▁निदर्शना	-9.86968
▁प्रयोग	-9.86968
▁फैलाव	-9.86968
▁सविस्तर	-9.86968
▁स्पेन	-9.86968
▁हुबेई	-9.86968
▁ह्रदय	-9.86968
▁२०२०	-9.86968
▁दृष्टीकोन	-9.86968
▁महिले	-9.86968
▁मुद्दा	-9.86968
▁डोळे	-9.86968
▁शुद्ध	-9.86968
▁सिंगापूर	-9.86968
दृष्ट्या	-9.86969
▁अब्ज	-9.86969
▁जेसिका	-9.86969
▁जहाज	-9.8697
▁ठेवावं	-9.8697
▁आहात	-9.8697
▁रुग्णांपैकी	-9.86971
आकृती	-9.86974
शांक	-9.86974
PPE	-9.86976
▁वाजता	-9.86976
▁स्थिर	-9.86977
▁यंदा	-9.86986
▁युद्ध	-9.86998
▁सर्वसाधारण	-9.87002
▁ताब	-9.87005
▁न्याय	-9.87006
▁विधान	-9.87009
शोक	-9.87024
▁दूरस्थ	-9.87033
▁एअर	-9.8704
▁टाळण्यासाठी	-9.87051
▁आफ्रिकेत	-9.87067
▁जिल्ह्यांमध्ये	-9.87076
▁वाढवण्यासाठी	-9.87099
▁पाहून	-9.87122
▁अँटीबॉडीज	-9.8715
▁मंगळवारी	-9.87153
▁जूनपर्यंत	-9.8717
▁रोखण्या	-9.87185
▁ट्रायल्स	-9.87201
▁कळवि	-9.87213
▁भाव	-9.8729
▁रंग	-9.87301
ाइट	-9.87334
▁सामग्री	-9.87341
▁बायो	-9.87368
▁करण्यापूर्वी	-9.87371
▁सोमवारी	-9.87422
ांनुसार	-9.8743
▁हो	-9.87451
▁बोलाव	-9.87459
▁W	-9.87544
वाड	-9.87565
▁तिथं	-9.87567
ुती	-9.87612
▁रूप	-9.87613
▁वर्गा	-9.8762
▁मंजूरी	-9.87625
▁इतके	-9.8768
▁आलीय	-9.87687
ीकृत	-9.87864
▁थांबवण्या	-9.87949
▁घटने	-9.88111
िण्या	-9.88235
ाहून	-9.884
▁E	-9.88722
is	-9.88811
ाबाहेर	-9.88953
▁उपचारां	-9.89
▁येऊन	-9.89074
▁जास्ती	-9.89121
▁आळ	-9.89223
▁१३	-9.89284
▁माणसां	-9.89288
▁परदेशात	-9.89335
रुग्ण	-9.89525
ायचा	-9.89536
मिल	-9.89695
▁कुंभमेळ्यात	-9.89697
▁असूनही	-9.89805
▁परिषदे	-9.89969
धान	-9.90009
▁सेवेत	-9.90044
सिटी	-9.90053
▁प्रयोगशाळां	-9.90131
▁भाजपा	-9.90154
▁परिषद	-9.90273
▁कृ	-9.90292
▁निघ	-9.90539
ंदर	-9.90656
▁प्रतिपिंड	-9.90707
▁राष्ट्र	-9.90816
ंद्र	-9.90913
▁राज्याला	-9.90935
द्द	-9.90947
▁दिसतं	-9.91049
▁हायड्र	-9.91124
▁तंत्र	-9.91135
▁अनलॉक	-9.91135
▁कर्फ्यू	-9.91135
▁कृष्ण	-9.91135
▁डिस्टंसिंग	-9.91135
▁पाहिले	-9.91135
▁महानगरपालिका	-9.91135
▁मार्केट	-9.91135
▁रिसर्च	-9.91135
▁विस्तृत	-9.91135
▁व्हीडिओ	-9.91135
▁जिवंत	-9.91135
▁परीक्षे	-9.91135
▁पालिका	-9.91135
▁शकणाऱ्या	-9.91136
▁ग्लो	-9.91137
▁जुना	-9.91138
▁ICMR	-9.91142
▁कागद	-9.91148
▁दिसू	-9.91152
▁नकारात्मक	-9.9116
▁पक्षनेत	-9.91162
▁प्रि	-9.91239
ब्रेक	-9.91288
त्मक	-9.91295
▁आधारावर	-9.91301
युक्त	-9.91308
▁कंट्रोलर	-9.91335
▁बाय	-9.91349
▁टीम	-9.9137
▁कुटुंबातील	-9.91381
▁तापमाना	-9.91413
▁उंट	-9.91429
▁कर्मचाऱ्यांनी	-9.91448
▁अॅस्ट्राझेनका	-9.91454
▁करणारी	-9.91527
▁प्रतिमा	-9.91628
▁आजाराचे	-9.9176
▁लढ	-9.91986
ाद्वारे	-9.92024
▁राज्यांत	-9.92094
▁टी	-9.92094
▁मृत्यूंच	-9.92107
▁निती	-9.92118
▁लागतं	-9.92157
▁वर्षात	-9.92245
▁गॅ	-9.92422
13	-9.92554
ण्याच्या	-9.92557
▁नकार	-9.92651
▁शेख	-9.92676
▁मोह	-9.9277
▁मीडिया	-9.93075
▁मृत	-9.93548
U	-9.93838
जिनोम	-9.93859
कोविड	-9.93874
सरकार	-9.93891
लेलं	-9.94082
रेख	-9.94158
▁सारखे	-9.94243
▁घाबर	-9.94332
▁व्यक्ति	-9.9439
पाठ	-9.94413
▁पद	-9.94442
शीर	-9.94497
▁लागण्याच	-9.94529
▁जाणे	-9.94579
▁नातेवाईकां	-9.94708
▁पाठ	-9.94771
▁रोगां	-9.94956
▁पथक	-9.95
▁नियोज	-9.95008
▁मना	-9.95017
▁लोकांवर	-9.95088
कमी	-9.95165
▁चालव	-9.95204
क्षम	-9.95237
मागच	-9.95276
▁तंत्रज्ञान	-9.95288
▁कामगारां	-9.95367
द्योग	-9.95435
▁विलग	-9.95471
▁अध्ययना	-9.95483
▁आवृत्ती	-9.95483
▁केजरीवाल	-9.95483
▁कोल्हापूर	-9.95483
▁तारीख	-9.95483
▁रामदेव	-9.95483
▁समन्वय	-9.95483
▁हॉटस्पॉट	-9.95483
▁रक्तदाब	-9.95483
▁कार्यस्थळ	-9.95483
▁धक्का	-9.95483
▁प्राध्यापक	-9.95483
▁शेकडो	-9.95483
▁कुठला	-9.95483
▁अंमल	-9.95483
▁थकवा	-9.95483
▁सल्ल्या	-9.95483
▁जॉन्सन	-9.95484
▁द्यावं	-9.95484
▁आम्ल	-9.95485
▁वंचित	-9.95485
▁द्यायला	-9.95485
▁हंगाम	-9.95486
▁गेलो	-9.95486
▁अखेरीस	-9.95486
▁भूषण	-9.95492
▁दुष्परिणाम	-9.95496
दोष	-9.95497
▁चंद्रपूर	-9.95498
▁राज्यभरात	-9.95503
▁पोहोचवण्या	-9.9551
▁निर्यात	-9.95513
▁डाय	-9.95519
▁मतदान	-9.95527
▁अनुसर	-9.95532
▁मध्यस्थ	-9.95551
कोरोनामुक्त	-9.9557
▁किलो	-9.95574
रविंद	-9.95598
▁लावून	-9.95611
▁समावेशासह	-9.95614
▁बनवण्या	-9.95623
▁अमरावतीत	-9.95826
▁द्यायच	-9.95829
▁पहा	-9.9589
▁घालून	-9.95964
▁नसल्यास	-9.95993
▁तिसरी	-9.96052
▁घ्यायची	-9.96126
▁अर्धा	-9.96245
▁स्ट्र	-9.96456
एक	-9.96529
▁प्रारंभी	-9.96569
▁जातोय	-9.96586
▁पत्रक	-9.96605
▁जाण्यासाठी	-9.96616
▁जावे	-9.96693
▁33	-9.96796
▁१६	-9.96906
▁मालक	-9.96991
एल	-9.97013
▁रुग्णालयं	-9.97186
▁जास्तीत	-9.9722
▁इटलीमध्ये	-9.97327
▁विद्यापीठा	-9.97338
▁वेगळा	-9.97382
हजर	-9.97481
▁वाढते	-9.97498
78	-9.97551
▁शासन	-9.97596
▁दिसतात	-9.97619
▁संसाधन	-9.97636
▁ज्यांच्या	-9.97659
▁पदव	-9.97677
▁चाचण्यांमध्ये	-9.97756
▁स्वरुपाच	-9.97758
▁संसर्गामुळे	-9.97948
▁कण	-9.98065
▁वळ	-9.98136
पक्षी	-9.98374
सध्या	-9.98428
स्थाप	-9.98436
▁नावाच	-9.98491
सायन	-9.98534
दम	-9.98564
▁उत्तरं	-9.98612
पास	-9.98764
▁राखण्या	-9.98922
▁चुक	-9.99009
▁हाय	-9.9901
▁कोरड	-9.99215
र्न	-9.99295
▁मानवां	-9.99572
▁करोनाबाधितांच	-9.99576
नवाब	-9.99616
▁प्रौढ	-9.99749
▁EU	-9.99828
▁कँडीडेट	-9.99895
▁दुकानां	-9.9992
दु	-9.99973
▁जिल्हाधिकाऱ्यां	-10.0003
▁सूक्ष्म	-10.0003
DCGI	-10.0003
२२९ई	-10.0003
▁अर्थव्यवस्था	-10.0003
▁अल्कोहल	-10.0003
▁जनजागृती	-10.0003
▁देखभाल	-10.0003
▁पाकिस्तान	-10.0003
▁युनेस्को	-10.0003
▁सर्वप्रथम	-10.0003
▁सिस्टिम	-10.0003
▁सेकंद	-10.0003
▁अवघड	-10.0003
▁पाहणी	-10.0003
▁मजूर	-10.0003
▁आपापल	-10.0003
▁राऊत	-10.0003
▁खोलीत	-10.0003
▁दुखण्या	-10.0003
▁कल्पना	-10.0003
▁सद्य	-10.0003
▁राष्ट्राध्यक्ष	-10.0003
▁श्वसनमार्गा	-10.0003
विन	-10.0004
▁शेतक	-10.0004
▁बचाव	-10.0005
▁मोकळ	-10.0005
▁सामोर	-10.0008
▁अपुर	-10.0008
▁असणं	-10.0012
▁प्रभावीपणा	-10.0013
▁असणे	-10.0014
▁स्पष्टीकरण	-10.0015
▁ठरेल	-10.0019
▁टक्क्यांपर्यंत	-10.0027
▁नऊ	-10.0028
▁संरक्षक	-10.0035
▁बराच	-10.0036
▁सरकारवर	-10.0037
▁राहतात	-10.0044
गुत	-10.0059
तेने	-10.0073
▁पाड	-10.0073
▁राहून	-10.0077
▁४०	-10.0078
▁मंत्रालय	-10.0082
▁महापालिकेने	-10.0086
कूल	-10.0088
▁प्रवासावर	-10.0096
▁हस्तक्षेप	-10.0108
ताप	-10.0108
▁वाढण्या	-10.0109
र्ण	-10.0122
र्जी	-10.0123
▁शिल्	-10.0127
▁म्हणता	-10.0131
क्षमता	-10.0142
▁शिक्षणमंत्र	-10.0143
▁झालंय	-10.0144
ग्र	-10.0151
▁टप्प्यां	-10.0158
▁दि	-10.017
▁शहरी	-10.0178
▁सांगता	-10.0191
II	-10.0194
▁तिला	-10.0195
▁सलग	-10.02
▁माणसा	-10.0209
▁आं	-10.0209
24	-10.0211
▁स्वरुपात	-10.0213
▁युरोपात	-10.0214
▁परिषदेत	-10.0228
▁पुरवठादार	-10.027
▁B	-10.0295
ॅशन	-10.0303
▁नागरिकांची	-10.0309
बंदी	-10.0318
संबंधित	-10.0318
लॉकडाऊन	-10.0318
▁o	-10.0337
ग्न	-10.0349
वारी	-10.0351
▁अशाच	-10.0357
म्प	-10.0363
▁मनो	-10.0375
▁तज्ञ	-10.0393
▁तक्रार	-10.0397
▁चर्च	-10.0401
▁संरक्ष	-10.0437
कांनी	-10.0454
▁कंट्रोल	-10.0456
िरी	-10.0458
प्प	-10.046
▁निर्जंतुक	-10.0477
▁अद्य	-10.0478
▁डोकेदुखी	-10.0479
▁तत्त्व	-10.0479
▁दूतावास	-10.0479
▁दौर	-10.0479
▁पिंपरी	-10.0479
▁फेटाळ	-10.0479
▁भाजीपाला	-10.0479
▁मृतदेह	-10.0479
▁संध्याकाळी	-10.0479
▁सीडीसी	-10.0479
▁हाँगकाँग	-10.0479
▁दुखणे	-10.0479
▁माणसं	-10.0479
▁2019-20	-10.0479
▁आशिया	-10.0479
▁सुरळीत	-10.0479
▁आरंभ	-10.0479
▁जिल्ह्य़ात	-10.0479
▁वर्कर्स	-10.0479
▁सुट्टी	-10.0479
▁मेसेज	-10.0479
▁स्कूल	-10.0479
▁संदेश	-10.0479
▁लंडन	-10.0479
▁नेपाळ	-10.0479
▁अंगावर	-10.0479
▁घातली	-10.0479
▁सर्व्हे	-10.0479
▁राष्ट्रवादी	-10.0479
▁चक्र	-10.048
▁हॅण्ड	-10.048
▁चंद्र	-10.048
▁दाह	-10.048
▁५०	-10.0481
▁घसर	-10.0482
▁इंटरनेट	-10.0482
▁नाईट	-10.0482
▁कुटुंबीयां	-10.0482
▁नर्सेस	-10.0485
▁ड्रग	-10.0488
▁अहवालानुसार	-10.0489
▁२२	-10.0489
▁१४	-10.049
▁चायन	-10.049
▁निर्जंतुकीकरण	-10.0493
▁पाहा	-10.0493
▁साजर	-10.0493
▁पावलं	-10.0496
93	-10.0501
▁तज्ज्ञांन	-10.0501
▁कोरोनासंसर्ग	-10.0503
▁संशोधकांनी	-10.0505
▁समारंभ	-10.0507
▁अधिकाऱ्या	-10.0518
रुस्त	-10.0521
▁घालण्यासाठी	-10.0535
▁औषधांचा	-10.054
▁वेगळ्या	-10.0543
गामी	-10.0547
▁जाव	-10.0549
▁सोयी	-10.0554
▁देतो	-10.0561
▁२५	-10.0582
▁धोक्यात	-10.0587
▁थोडी	-10.0592
लॅ	-10.0594
▁समूहा	-10.0594
▁यातील	-10.0599
▁करायच	-10.0606
▁देण्याचं	-10.0615
▁बरोबर	-10.0623
थवा	-10.0628
रात्र	-10.0634
▁वयोगटा	-10.0638
▁तोड	-10.0641
▁एसी	-10.0659
▁मोठ	-10.0666
▁संवेदनशील	-10.0698
▁पक्षां	-10.0719
▁परतले	-10.0727
▁पॅ	-10.0737
▁पाया	-10.0739
▁लसीकरणाला	-10.0741
▁एन्	-10.0745
क्व	-10.0749
▁1)	-10.0762
▁आजारां	-10.0765
णूक	-10.0767
▁कामावर	-10.0776
▁दिवसभरा	-10.0776
▁ह्यांन	-10.0778
▁भासत	-10.0817
ACE	-10.0817
SARS	-10.0818
आम्ही	-10.0818
क्षेत्र	-10.0818
ऑ	-10.0819
बर	-10.0821
▁वातावरणात	-10.0822
▁लढाई	-10.0823
▁48	-10.0864
▁पाहत	-10.0884
▁ज्यांच	-10.089
▁असतानाच	-10.0896
▁मंजूर	-10.0897
▁शास्त्रज्ञ	-10.0898
4%	-10.0927
▁नागरिकांन	-10.0934
30	-10.0952
▁निका	-10.0954
▁वापरली	-10.0955
▁स्थापन	-10.0963
▁फ्ल	-10.0973
दीर्घ	-10.0979
http	-10.0979
▁अजिबात	-10.0979
▁घरोघर	-10.0979
▁डब्लूएचओ	-10.0979
▁दृष्टिकोन	-10.0979
▁निष्क्रिय	-10.0979
▁विधानसभ	-10.0979
▁वृत्तसंस्थे	-10.0979
▁सहकाऱ्यां	-10.0979
▁कुठले	-10.0979
▁बिहार	-10.0979
▁रोगनिदान	-10.0979
▁कृषी	-10.0979
▁प्रवक्त	-10.0979
▁गैर	-10.0979
▁विवेक	-10.0979
प्ताह	-10.0979
://	-10.0979
▁गुन्ह	-10.0979
▁रिकाम	-10.0979
▁बरीच	-10.0979
▁RTPCR	-10.098
▁उपयुक्त	-10.098
३६	-10.0981
▁अग्नि	-10.0982
▁घडीला	-10.0982
▁ट्रॅकिंग	-10.0982
▁आवरण	-10.0982
▁वाईट	-10.0983
▁अपयश	-10.0985
▁गुण	-10.0986
पांडे	-10.0988
▁ब्रिट	-10.0988
▁राखणे	-10.0989
▁सुपर	-10.099
▁वाढवण्यात	-10.0994
▁समर्थन	-10.0995
▁स्वस्त	-10.0995
▁पृष्ठभागावर	-10.0995
▁अर्ध्या	-10.0996
▁त्याचबरोबर	-10.0998
▁संस्थांनी	-10.1006
▁मायक्रो	-10.1009
▁सद्यस्थितीत	-10.1009
कडील	-10.1009
▁अँप्स	-10.1012
▁नातेवाईकांना	-10.1013
▁भागांत	-10.1014
▁शुल्क	-10.1017
▁गुंतागुंती	-10.1027
▁पडण्या	-10.1031
▁नाका	-10.1038
▁व्यापारी	-10.1041
▁सहज	-10.1042
कांत	-10.1045
▁सापडलेल	-10.1068
▁ओळखले	-10.1081
▁खाटांच	-10.1085
▁टाळाव	-10.1097
▁तळ	-10.1102
▁ठरणार	-10.1102
ीव्ह	-10.1105
▁कार्यालयं	-10.1114
रिझ	-10.1116
▁गटात	-10.1119
्शन	-10.1121
▁ड्राय	-10.113
▁याआधी	-10.1134
▁आलेख	-10.1134
▁पोहोचला	-10.1139
▁जोर	-10.1153
64	-10.1169
▁पडला	-10.1183
60	-10.1188
▁बि	-10.1188
▁उचल	-10.1195
▁दिवसभर	-10.1204
▁G	-10.1231
▁नोंदी	-10.1241
गो	-10.1252
▁लढा	-10.1259
ब्लि	-10.1262
▁लाल	-10.1307
हॅ	-10.132
मार्ग	-10.1343
आधारित	-10.1343
मुंबई	-10.1344
▁ड्रायर	-10.1352
ांकडे	-10.1356
ियो	-10.1357
कारी	-10.1368
गेल्या	-10.1379
▁महत्व	-10.1405
▁थंड	-10.1411
▁पत्रात	-10.1419
▁माहित	-10.1424
▁तिच्या	-10.1431
▁बाजू	-10.1452
▁फारस	-10.1457
le	-10.1487
▁बऱ्या	-10.1487
▁केल्याने	-10.1489
्फ्ल्युए	-10.1505
▁स्रोत	-10.1505
स्पाईक	-10.1505
▁आखाड्या	-10.1505
▁खोकताना	-10.1505
▁ठेवणं	-10.1505
▁तालुका	-10.1505
▁पॅकेज	-10.1505
▁प्राधिकरणा	-10.1505
▁प्रामुख्यान	-10.1505
▁रिकव्हरी	-10.1505
▁वॉक	-10.1505
▁व्हॅक्सीन	-10.1505
▁सुश्रुष	-10.1505
▁स्त्राव	-10.1505
▁हाफकिन	-10.1505
स्त्रोत	-10.1505
▁दुखणं	-10.1505
▁पशूजन्	-10.1505
▁टप्पे	-10.1505
▁डिसीज	-10.1505
▁नागरी	-10.1505
▁सल्लागार	-10.1505
▁सोलापूर	-10.1505
्फ्लुए	-10.1505
▁सिनेमा	-10.1505
▁बॅट	-10.1505
▁येणे	-10.1505
▁मंडळा	-10.1505
▁उर्वर	-10.1505
▁तेवढ	-10.1505
▁चिंते	-10.1505
▁अल्प	-10.1506
▁कल्याण	-10.1506
सेप्ट	-10.1506
▁लसींच	-10.1506
▁अलिकड	-10.1506
▁नसते	-10.1506
▁निवास	-10.1506
▁दर्जा	-10.1506
▁चिंताजनक	-10.1506
ेश्वर	-10.1507
▁इंटर	-10.1507
▁अपवाद	-10.1508
▁तसे	-10.1508
▁मांस	-10.1509
▁कलम	-10.151
▁आभार	-10.1511
क्लो	-10.1512
DA	-10.1512
नशील	-10.1512
▁CT	-10.1513
▁अॅडव्ह	-10.1513
▁मनपा	-10.1514
▁चेहर	-10.1515
▁बोटां	-10.1515
▁जाताना	-10.1517
▁लावले	-10.1519
▁कारणांमुळे	-10.1519
ED	-10.1521
▁घातल्या	-10.1524
▁जिल्ह्यत	-10.1526
▁भावना	-10.1528
▁अध	-10.153
▁खंड	-10.1532
▁क्रि	-10.1534
गरम	-10.1539
▁अनाथ	-10.1541
खर	-10.1541
▁पोशिंदा	-10.1551
▁ठराव	-10.1551
र्थ	-10.1552
▁असावी	-10.1554
धर	-10.1555
▁ज्ञान	-10.1555
▁डोन	-10.1557
▁समितीने	-10.1566
▁400	-10.1571
▁सोय	-10.1572
▁६०	-10.1593
▁प्रत्येकाला	-10.1594
िरो	-10.1598
▁ग्राम	-10.1599
▁लवकरात	-10.16
रुप	-10.1604
▁जानेवारीपासून	-10.1605
▁अडक	-10.1606
▁वटवाघळा	-10.161
बद्ध	-10.1613
▁वाटप	-10.1616
्षिक	-10.1641
▁आठवडा	-10.1644
ईट	-10.1647
ंबर	-10.1647
▁अटी	-10.1651
डॅ	-10.1654
केंद्र	-10.1655
90	-10.1665
▁समजाव	-10.1667
▁पुरवण्या	-10.1667
▁गाड्यां	-10.1669
घर	-10.1682
खाली	-10.1688
▁साली	-10.1694
▁माती	-10.1721
▁नेत्यां	-10.173
्युल	-10.1734
▁65	-10.1745
नोव	-10.1747
▁बरेच	-10.1751
▁मृतांच	-10.1753
▁ठिकाणे	-10.1763
▁अॅपवर	-10.1767
काही	-10.1783
▁(3	-10.1788
▁जिल्ह्य	-10.1794
▁मानक	-10.1798
शहरांमध्ये	-10.18
▁भारताने	-10.1801
▁फिरत	-10.181
ळक	-10.1817
▁मंत्रालयाच्या	-10.1845
▁पसरण्या	-10.1853
▁वास	-10.1864
▁बिल	-10.1868
▁चाचण्यांची	-10.188
वर्षी	-10.1887
▁संकटात	-10.189
▁पाय	-10.1896
कोव्हॅक्सीन	-10.1897
व्हायरल	-10.1898
WHO	-10.1899
योग्य	-10.19
माझ	-10.19
▁आजारासाठी	-10.19
कोरोनाव्हायरस	-10.19
मास्क	-10.1901
नियम	-10.1902
साद	-10.1908
▁पसरव	-10.1917
▁राज्यातल्या	-10.1918
▁घेण्याच्या	-10.1928
▁पुरुषां	-10.1966
▁अडथळ	-10.1974
▁संशोधक	-10.1978
▁शनिवार	-10.1979
▁''	-10.1981
▁फॅ	-10.2017
▁हृदया	-10.2018
▁शास्त्रज्ञांन	-10.2027
िस्त	-10.2031
▁बदलू	-10.204
▁विकस	-10.2042
प्रकारे	-10.2046
▁घ्यायच	-10.2048
ोगी	-10.2051
▁सगळी	-10.2054
EEA	-10.2061
दृश्य	-10.2061
▁अस्तित्व	-10.2061
▁आढळली	-10.2061
▁आदिवासी	-10.2061
▁कार्यकर्ते	-10.2061
▁कौतुक	-10.2061
▁गरोदर	-10.2061
▁जीनसंच	-10.2061
▁ठेवलं	-10.2061
▁तारखे	-10.2061
▁थायलंड	-10.2061
▁बाजारपेठा	-10.2061
▁भौगोलिक	-10.2061
▁महिना	-10.2061
▁मेडिसिन	-10.2061
▁व्यवस्थित	-10.2061
▁साताऱ्यात	-10.2061
▁सामुदायिक	-10.2061
▁स्नायू	-10.2061
▁हरिद्वार	-10.2061
▁हृदयविकार	-10.2061
▁कामगिरी	-10.2061
▁संमेलन	-10.2061
▁हायकोर्टा	-10.2061
▁किमती	-10.2061
▁बायडन	-10.2061
▁परवाना	-10.2061
▁गरीब	-10.2061
▁कार्यवाही	-10.2061
▁अलीकडेच	-10.2061
▁सूज	-10.2061
▁पाऊल	-10.2062
▁नसतील	-10.2062
द्राव	-10.2062
▁ड्रग्ज	-10.2062
▁अनुकूल	-10.2062
▁चिन्ह	-10.2062
▁GP	-10.2063
▁हँड	-10.2066
▁अँटी	-10.2066
▁वापरकर्त्या	-10.2066
▁४५	-10.2066
▁अनिश्चित	-10.2067
▁विद्य	-10.2068
कल्प	-10.2069
▁गुठळ्या	-10.207
▁स्टेशन	-10.2071
ur	-10.2071
सारणी	-10.2072
▁लावल्या	-10.2079
अप	-10.2079
कोळ	-10.2082
▁साडे	-10.2084
▁चॅ	-10.2087
पूर्वक	-10.209
मिशन	-10.2091
▁सोबतच	-10.2092
▁पडल्यास	-10.2093
ंकन	-10.2098
▁वाटलं	-10.2108
▁अज्ञात	-10.2111
▁कुणा	-10.2112
▁कुणाला	-10.2115
▁व्हि	-10.2126
▁जावं	-10.213
▁वैशिष्ट्ये	-10.2137
▁घालत	-10.2137
▁दिवसांसाठी	-10.215
▁काळासाठी	-10.215
▁ठरली	-10.2153
▁विचारलं	-10.2174
▁पडल्या	-10.2174
▁तोपर्यंत	-10.2175
▁जातंय	-10.2175
44	-10.2177
▁तंत्रज्ञाना	-10.2177
▁व्हायला	-10.2178
व्हल	-10.2179
महाराष्ट्रात	-10.218
▁खुली	-10.2187
▁बाधितांच	-10.2196
▁शाह	-10.2197
▁लसींचा	-10.2197
▁पसरू	-10.2201
▁साथीमुळे	-10.2207
▁सिंग	-10.2211
▁त्यांच्याकडे	-10.2218
▁वेबसाईटवर	-10.2224
▁महाविद्यालये	-10.2242
कुव	-10.2259
▁प्रधान	-10.227
▁रेड	-10.2279
वादी	-10.2287
▁ठेवण्यास	-10.2288
▁करु	-10.2292
▁किर	-10.2303
▁अहवालात	-10.2304
▁जातेय	-10.2315
▁हातावर	-10.2318
▁रड	-10.232
▁शरीर	-10.2324
▁पीसीआर	-10.2346
▁4)	-10.235
ळण	-10.2356
बरोबरच	-10.236
राज्य	-10.2364
रिटी	-10.2366
मोहन	-10.238
▁पक्षी	-10.2399
वस्थ	-10.241
▁२००	-10.2412
▁वाक	-10.2436
53	-10.2446
▁कडू	-10.2455
▁वाचा	-10.2462
▁प्रमाणित	-10.2467
▁युकेत	-10.2468
छ	-10.2487
आणि	-10.2488
80	-10.2506
▁अडचण	-10.2542
11	-10.2548
▁थोडा	-10.2577
साऊ	-10.2585
र्फे	-10.2605
▁येई	-10.2621
▁सेंट	-10.2627
गांभीर्य	-10.2633
63	-10.2636
▁राबवण्या	-10.2644
ऊन	-10.2648
ाध्यक्ष	-10.2649
▁तृतीय	-10.2649
ह्यूमन	-10.2649
▁अंत्यसंस्कार	-10.2649
▁अहमदनगर	-10.2649
▁औपचारिक	-10.2649
▁कर्नाटक	-10.2649
▁जावडेकर	-10.2649
▁टिश्यू	-10.2649
▁डेन्मार्क	-10.2649
▁दूषित	-10.2649
▁रेस्टॉरंट	-10.2649
▁व्हेंटीलेटर	-10.2649
▁शिफारशी	-10.2649
▁श्रेणी	-10.2649
▁हायपॉक्सिया	-10.2649
▁आढळणाऱ्या	-10.2649
▁जागरूक	-10.2649
▁वगळण्या	-10.2649
▁विभाज	-10.2649
▁आसपास	-10.2649
▁उच्चांक	-10.2649
▁स्वागत	-10.2649
▁स्कॅन	-10.2649
▁इथल्या	-10.2649
▁टॅक्सी	-10.2649
▁हल्ला	-10.2649
▁रुमाल	-10.2649
▁प्रकृती	-10.2649
▁सूत्र	-10.2649
▁वर्तवल	-10.2649
बिंदू	-10.2649
साहेब	-10.2649
▁निगड	-10.2649
▁मागितली	-10.2649
▁नसतो	-10.2649
▁लावली	-10.265
▁बजाव	-10.265
▁बाबीं	-10.265
▁यकृत	-10.2651
शिवाजी	-10.2651
▁दाब	-10.2651
▁पीएम	-10.2652
▁US	-10.2652
लिव्हर	-10.2653
▁दरवर्षी	-10.2654
▁युएस	-10.2655
▁ओढ	-10.2656
▁चढ	-10.2657
▁२१	-10.2657
▁पै	-10.2659
ममता	-10.2664
32	-10.2665
▁निकट	-10.2666
▁(5	-10.2667
▁पार्ट	-10.2667
▁क्लब	-10.2669
▁बरा	-10.2676
▁राहतो	-10.2676
▁बळी	-10.2678
▁चिंचवड	-10.2685
CM	-10.2685
▁पाठवलं	-10.2686
▁इंटरन	-10.2687
▁सत्रा	-10.2689
▁आणू	-10.2693
▁आत्तापर्यं	-10.27
▁तेथे	-10.2706
्ती	-10.2706
▁समाजा	-10.2707
▁काढण्यासाठी	-10.272
▁लागणाऱ	-10.2722
▁सिंह	-10.2725
▁सगळ्यांना	-10.2726
▁प्ल	-10.2727
िकट	-10.2731
दिन	-10.2738
▁प्रयोगशाळे	-10.275
▁मानल	-10.2751
९९	-10.2753
▁दिन	-10.2754
कोरोन	-10.2756
वडील	-10.276
▁विदर्भात	-10.2765
ce	-10.2765
▁असावा	-10.2772
▁आणत	-10.2782
86	-10.2788
▁वर्षं	-10.2791
▁केंद्रांमध्ये	-10.2796
शु	-10.2796
▁उपकरणां	-10.2798
▁स्थगिती	-10.2799
▁खाल	-10.28
▁विमानात	-10.28
▁तासात	-10.2821
▁अवयवां	-10.2822
ष्क	-10.2823
▁सातत्य	-10.2877
▁पदार्थ	-10.2901
▁हाताळण्या	-10.2903
वर्धन	-10.2907
▁सेरोलॉजी	-10.2911
▁रूग्णांची	-10.2913
नाकारण	-10.2923
रोधी	-10.2963
व्हेल	-10.2966
▁महिलांन	-10.2974
३८	-10.2976
ho	-10.2987
▁पती	-10.2987
me	-10.3001
16	-10.3002
पूर्व	-10.3013
▁किंमती	-10.3015
▁प्रोट	-10.3016
▁वाढणार	-10.303
73	-10.303
▁ठरले	-10.3031
▁विद्यापीठात	-10.3038
▁पास	-10.3065
-5	-10.3083
▁अवयव	-10.3094
▁संपत	-10.3104
भाग	-10.3108
▁धुव	-10.3108
▁असावे	-10.311
RT	-10.3119
िअर	-10.3131
ाईड	-10.3133
वापर	-10.3139
84	-10.3144
70	-10.3145
▁शिक्ष	-10.3152
▁साधू	-10.3165
ge	-10.3176
▁वैशिष्ट्य	-10.3189
▁घास	-10.3195
▁तिसर	-10.3198
ांमधून	-10.3227
▁95	-10.3228
करता	-10.323
18	-10.3233
▁खेळत	-10.3247
▁सुचवले	-10.3252
ॉलि	-10.3256
▁चोळ	-10.3258
▁कोव्हॅक्स	-10.3266
▁स्तर	-10.3273
▁सुरवात	-10.3274
▁तंत्रज्ञ	-10.3274
क्लोरोक्विन	-10.3274
▁उत्तराखंड	-10.3274
▁एरोसोल	-10.3274
▁काळाबाजार	-10.3274
▁कुंभमेळा	-10.3274
▁जंतुनाशक	-10.3274
▁ठेवला	-10.3274
▁ध्येय	-10.3274
▁निवडणुका	-10.3274
▁पत्नी	-10.3274
▁प्रवृत्त	-10.3274
▁मुलाखती	-10.3274
▁रहिवासी	-10.3274
▁रिस्पॉन्स	-10.3274
▁सहव्याधी	-10.3274
▁अधिवेशन	-10.3274
▁दीर्घकाळ	-10.3274
▁निवेदन	-10.3274
▁समाधान	-10.3274
▁हॅन्ड	-10.3274
▁खोकल्या	-10.3274
▁रायगड	-10.3274
▁जीनोम	-10.3274
▁मंडळी	-10.3274
▁विलंब	-10.3274
▁भागीदार	-10.3274
▁पार्सल	-10.3274
▁रूम	-10.3274
▁कामकाज	-10.3274
▁हिवाळ	-10.3275
▁राज्यपाल	-10.3275
▁दीर्घकाल	-10.3275
▁क्रिये	-10.3275
▁सीमे	-10.3275
▁विचारणा	-10.3275
▁उठव	-10.3276
▁जीवाणू	-10.3276
▁बालरोग	-10.3276
प्लिकेशन	-10.3276
▁गुप्त	-10.3276
▁सहकारी	-10.3277
ation	-10.3277
ग्राफ	-10.3278
▁प्रदूषण	-10.3278
▁गृहमंत्री	-10.3279
ृष्ट	-10.3279
ेन्शन	-10.328
pp	-10.3281
▁जन्म	-10.3281
▁जयंत	-10.3281
▁धडा	-10.3282
▁छत्र	-10.3282
▁भाविकां	-10.3282
RA	-10.3283
▁ठेवावी	-10.3284
▁३१	-10.3287
▁धाव	-10.3288
▁फळ	-10.329
▁शक्यतो	-10.3292
▁नंबर	-10.3293
▁यावं	-10.3294
▁भांड	-10.3294
यलेट	-10.3294
▁लावता	-10.3295
▁मिळण्यासाठी	-10.3295
6%	-10.3301
▁बायोएनटेक	-10.3301
▁अकरा	-10.3301
▁वाढवणे	-10.3302
वर्ती	-10.3305
▁परिणामकारकते	-10.3307
▁न्यु	-10.331
▁दिलासा	-10.3315
▁न्यायालयान	-10.3315
▁असो	-10.3319
▁रब	-10.3322
▁थोड्या	-10.3322
▁साथरोगाच्या	-10.3325
▁दिसली	-10.3331
वाई	-10.3332
oc	-10.3333
▁पदं	-10.3336
फॉर्म	-10.334
▁हेतू	-10.3341
▁ह्यांचा	-10.3341
▁जोडले	-10.3342
IV	-10.3345
▁निघाल	-10.3347
▁आयोगाने	-10.3371
▁औषधांची	-10.3377
▁सोप्या	-10.3378
▁१००	-10.3383
▁कोणा	-10.3385
▁घातक	-10.3389
▁लवकरच	-10.3393
विर	-10.3394
▁हजारांच्या	-10.3399
▁लशीबाबत	-10.3399
▁झाल्यापासून	-10.3401
▁थंडी	-10.3405
▁करतोय	-10.3405
▁कंपन्यांना	-10.341
37	-10.3411
▁खाण्या	-10.3412
▁संकलन	-10.3413
▁आढळलेल्या	-10.3416
▁स्थापना	-10.3422
▁ब्रिटनमध्ये	-10.3426
▁त्याबद्दल	-10.3436
▁करण्याबाबत	-10.344
▁तापमानात	-10.3448
▁ठाण्यात	-10.345
▁दिवसांनी	-10.3451
▁वटवाघळे	-10.3462
▁फेक	-10.348
▁लढाईत	-10.3481
▁सुरूवाती	-10.3498
▁कुंभमेळ्या	-10.3513
▁पाठवला	-10.3522
उदा	-10.353
▁बाध	-10.3547
▁एवढा	-10.3549
रोह	-10.3556
▁जीवन	-10.3558
▁लढ्या	-10.357
बाबतीत	-10.3591
डबल	-10.3591
▁झाक	-10.3605
▁रन	-10.3617
23	-10.3707
▁भरण्या	-10.3727
▁रोखू	-10.3731
▁800	-10.3732
▁संयोज	-10.3735
▁मुलग	-10.3753
▁वेबसाईट	-10.3763
क्रिया	-10.3767
69	-10.3777
प्रणाली	-10.3779
आरोग्य	-10.378
मर्याद	-10.3782
प्रति	-10.3785
विकास	-10.3787
▁उभारण्या	-10.379
▁नसलेल	-10.3801
ब्ब	-10.3808
▁व्यापार	-10.3859
▁प्ले	-10.3885
▁आढळल्या	-10.3912
योजन	-10.3924
काळी	-10.3931
▁सायकल	-10.3936
शंक	-10.3937
▁इम्युन	-10.394
▁जॉन	-10.3941
वैद्यक	-10.3941
▁द्रुत	-10.3941
एचकेयु	-10.3941
स्पेशालिटी	-10.3941
▁अध्यक्षतेखाली	-10.3941
▁आंतरप्रजाती	-10.3941
▁आश्चर्य	-10.3941
▁एन्फ्ल्युएन्झ	-10.3941
▁एफडीए	-10.3941
▁किलोमीटर	-10.3941
▁जिल्हे	-10.3941
▁डाऊनलोड	-10.3941
▁डॅशबोर्ड	-10.3941
▁नोकरी	-10.3941
▁पर्यटन	-10.3941
▁प्लाझ्मा	-10.3941
▁मनुष्यबळ	-10.3941
▁महासंचालक	-10.3941
▁रहिवाशांन	-10.3941
▁व्यापाऱ्यां	-10.3941
▁शस्त्रक्रिया	-10.3941
▁सांस्कृतिक	-10.3941
▁सुनावणी	-10.3941
▁स्टोरेज	-10.3941
▁स्फोट	-10.3941
▁कॅडिला	-10.3941
▁गुंतवणूक	-10.3941
▁चव्हाण	-10.3941
▁झायडस	-10.3941
▁झोपडपट्ट	-10.3941
▁मूल्यमापन	-10.3941
▁मॉड्यूल	-10.3941
▁राहणं	-10.3941
▁विषारी	-10.3941
▁अपघात	-10.3941
▁ठेवले	-10.3941
▁सूक्ष्मजीव	-10.3941
मूर्ती	-10.3941
▁हालचाली	-10.3941
▁प्रतिकृती	-10.3941
▁समजातीय	-10.3941
▁पांढ	-10.3941
▁शिंदे	-10.3941
▁संयुग	-10.3941
▁सतर्क	-10.3941
▁तिकीट	-10.3941
▁चित्रपट	-10.3941
▁लावणे	-10.3941
▁पगार	-10.3941
▁दखल	-10.3941
▁अवस्था	-10.3941
▁गर्भपात	-10.3941
ायटीस	-10.3941
▁मिळणाऱ्या	-10.3941
▁न्यूयॉर्क	-10.3941
▁वाहक	-10.3941
▁अँटीजेन	-10.3942
▁वायू	-10.3942
▁तरूण	-10.3942
▁एम्स	-10.3942
▁जखम	-10.3942
▁महाविकास	-10.3942
खाद्य	-10.3942
▁वर्तन	-10.3943
ांत्रिक	-10.3943
▁नाराजी	-10.3943
रितीने	-10.3943
▁एकमे	-10.3943
ent	-10.3943
▁पुनर्	-10.3944
▁वेध	-10.3944
▁आणले	-10.3945
वडिलां	-10.3945
गुरू	-10.3945
▁ब्रुक	-10.3946
▁पशु	-10.3946
▁शिंकताना	-10.3946
▁अभिनेत	-10.3947
▁सगळीकडे	-10.3949
▁सॅनिटा	-10.395
▁आराम	-10.395
▁लावाव	-10.3951
▁केव्हा	-10.3951
▁खोट	-10.3954
▁पट्ट	-10.3955
▁आश्वासन	-10.3956
▁स्वरूपाचा	-10.3961
▁समुदायातील	-10.3963
▁अलीकड	-10.3966
▁सवाल	-10.3966
▁करोनामुक्त	-10.3969
▁आढळल्यास	-10.397
▁स्टॅ	-10.397
▁विकार	-10.3971
▁यापुढे	-10.3973
▁होय	-10.3976
▁85	-10.3983
▁वीज	-10.3987
▁ढा	-10.399
▁दास	-10.399
▁सावं	-10.3992
▁करायचं	-10.3997
▁लिंग	-10.4
▁व्हेरियंट्स	-10.4002
▁वाया	-10.4008
▁महिन्यापासून	-10.4012
▁येतोय	-10.4014
▁आढळतात	-10.4015
▁बदलण्या	-10.4016
▁लढत	-10.4018
▁बाळ	-10.4021
▁शिव	-10.4031
▁झोनमध्ये	-10.4033
▁ह्यांच्या	-10.4034
▁चालली	-10.4035
▁मिळवून	-10.4044
▁मिळतो	-10.4044
▁पायी	-10.4045
▁सेर	-10.4045
▁वाढवली	-10.4048
▁व्यक्तींनी	-10.4049
▁रूग्णांसाठी	-10.4051
▁वितर	-10.4051
रचनात्मक	-10.4053
▁करायचे	-10.4054
ण्यापूर्वी	-10.4056
▁पत्रकारां	-10.406
▁सेंटर्स	-10.4064
▁वर्षभरा	-10.4075
पूर्त	-10.408
▁मुंबईतल्या	-10.409
▁शास्त्रज्ञां	-10.4093
▁गेल्यानंतर	-10.411
आमच	-10.4111
▁वेळापत्रका	-10.4114
पकि	-10.4115
सागर	-10.4116
▁कामगारांन	-10.4117
▁स्वरूपात	-10.4125
▁कोम	-10.4136
४८	-10.414
▁टाकले	-10.4145
▁मंत्रिमंडळाच	-10.4152
▁ताज	-10.4154
त्रिम	-10.4168
CO	-10.4181
▁विश्लेषणा	-10.4184
▁योजनां	-10.4212
झो	-10.4234
▁उशीर	-10.4248
15	-10.4277
क्षि	-10.4297
ावाटे	-10.4341
▁शेजार	-10.435
he	-10.4353
▁समाजात	-10.4369
▁ट्रॅक	-10.439
▁पकड	-10.4398
जनक	-10.4399
51	-10.4401
▁खान	-10.4402
▁मंत्रिमंडळ	-10.4433
▁क्ष	-10.445
कॅन	-10.4461
▁वेळापत्रक	-10.4472
77	-10.4481
▁४१	-10.4484
▁बोर्ड	-10.449
संपर्क	-10.4494
करोना	-10.4496
▁वेल	-10.4501
अभाव	-10.4503
स्वरूप	-10.4513
▁व्यवस्थापना	-10.4542
▁विभागां	-10.4545
▁सोमवार	-10.4573
▁अनुम	-10.4628
▁सामान	-10.4635
▁असती	-10.4638
com	-10.4655
अँजिओटेनसीन	-10.4655
▁अल्फा	-10.4655
▁दक्ष	-10.4655
▁कौशल्य	-10.4655
▁पंधरा	-10.4655
▁फटाक्यां	-10.4655
▁महानगरपालिके	-10.4655
▁वॉशिंग्टन	-10.4655
aharashtra	-10.4655
कायदेशीर	-10.4655
बुद्धी	-10.4655
ॅण्टीबॉडी	-10.4655
ॉक्सीक्लोरोक्विन	-10.4655
▁अर्थसंकल्प	-10.4655
▁आदित्य	-10.4655
▁कन्टेनमेंट	-10.4655
▁केंब्रिज	-10.4655
▁गाईडलाईन्स	-10.4655
▁गैरसमज	-10.4655
▁तुपे	-10.4655
▁तैवान	-10.4655
▁थेंब	-10.4655
▁दुर्दैवी	-10.4655
▁नेतृत्व	-10.4655
▁पंजाब	-10.4655
▁प्रायोगिक	-10.4655
▁मुद्द्यावर	-10.4655
▁रणनीती	-10.4655
▁लर्निंग	-10.4655
▁स्मशानभूमी	-10.4655
▁इमर्ज	-10.4655
▁कागदपत्रं	-10.4655
▁माणूस	-10.4655
▁रक्कम	-10.4655
▁आक्रमक	-10.4655
▁इच्छित	-10.4655
▁साळुं	-10.4655
▁मिश्र	-10.4655
▁2012	-10.4655
अन्वेष	-10.4655
▁एजंट	-10.4655
▁पोषक	-10.4655
ILI	-10.4655
▁आस्थापना	-10.4655
▁शत्रू	-10.4655
▁रॅप	-10.4655
▁पातळ्या	-10.4655
▁जुळ	-10.4655
▁दूध	-10.4655
▁ऑर्डर	-10.4655
▁राहावं	-10.4655
▁धुतल्या	-10.4655
▁इन्स्टिट्युट	-10.4655
▁कार्यकर्त्यां	-10.4655
▁सक्ती	-10.4655
▁सातारा	-10.4655
▁बाजी	-10.4655
▁नसतात	-10.4656
▁प्रकट	-10.4656
▁उत्क्रांती	-10.4656
▁उपचाराध	-10.4656
▁सचिवालया	-10.4657
▁वर्षांखाल	-10.4657
▁ठेऊ	-10.4657
▁पाहण्या	-10.4658
ing	-10.4659
▁गोल्ड	-10.466
▁२६	-10.4661
▁२३	-10.4661
▁ट्विटरवर	-10.4662
▁इन्फेक्शन	-10.4662
▁साईड	-10.4667
▁तथा	-10.4668
▁असायला	-10.4669
▁चालणार	-10.467
▁बिग	-10.467
▁हव्या	-10.4673
▁द्यावा	-10.4679
▁कराव्या	-10.4679
▁आदर	-10.4679
पॅक	-10.4689
▁वाढतेय	-10.4691
▁माफ	-10.4694
▁नसल्यामुळे	-10.4701
्रॉम	-10.4707
▁खरी	-10.4708
▁नाश	-10.4709
▁कारणांसाठी	-10.471
धर्म	-10.4713
▁पोहोचली	-10.4724
▁उमेदवार	-10.4726
▁चौथ	-10.4736
▁समजले	-10.4737
नवजात	-10.474
III	-10.4747
▁घ्यावे	-10.4752
▁नोंदविण्या	-10.4754
▁घेतो	-10.476
ve	-10.4763
▁मार्गाने	-10.4771
▁पुरुष	-10.478
▁राहिल्या	-10.4781
▁स्त्रियां	-10.4787
▁कळवण्या	-10.4789
▁बीड	-10.479
▁सूचनांच	-10.4791
ुनिक	-10.4795
▁वेळेस	-10.4801
▁त्याप्रमाणे	-10.4804
▁हातांवर	-10.4813
1%	-10.4815
▁पडणार	-10.4817
▁उद्	-10.483
▁ठेवावे	-10.4831
▁पाळीव	-10.486
▁बोलण्या	-10.4865
▁पॅन	-10.489
धु	-10.4897
तंय	-10.4929
▁मारण्या	-10.4945
▁प्रचारा	-10.4988
▁देशभर	-10.4991
लॉजी	-10.5038
▁२९	-10.5051
▁चेहऱ्यावर	-10.5056
▁जोखमीवर	-10.5087
▁उशीरा	-10.5089
▁उत्पाद	-10.5103
्लम	-10.5114
क्टिव्ह	-10.5124
ांश	-10.5126
▁मिनिटां	-10.515
▁नियंत्रणां	-10.5176
०००	-10.519
▁घालता	-10.5192
विण्यासाठी	-10.5194
▁विद्यार्थ्या	-10.52
▁पर्यटक	-10.5217
▁पाळण्या	-10.5233
97	-10.526
जिल्हा	-10.5262
▁नारा	-10.5266
▁दुर्ग	-10.5268
वाढ	-10.5281
▁ढकलण्या	-10.5359
▁म्ह	-10.5384
▁सोडण्या	-10.5399
▁रचना	-10.5412
▁मिळण्या	-10.5423
▁हर्ष	-10.5424
▁आढळलं	-10.5424
▁आयएमए	-10.5424
▁इंडस्ट्री	-10.5424
▁उस्मानाबाद	-10.5424
▁एंझाइम	-10.5424
▁कंटेनमे	-10.5424
▁कारखाने	-10.5424
▁क्लासेस	-10.5424
▁चिकित्सक	-10.5424
▁टास्कफोर्स	-10.5424
▁टेड्रोस	-10.5424
▁तपशील	-10.5424
▁तुलनेन	-10.5424
▁तुषार	-10.5424
▁थेरपी	-10.5424
▁देईल	-10.5424
▁पुनःसंयोज	-10.5424
▁पॅटर्न	-10.5424
▁फेडरल	-10.5424
▁फोर्टिस	-10.5424
▁व्हेंटिलेशन	-10.5424
▁शिफ्ट	-10.5424
▁सक्रीय	-10.5424
▁सपोर्ट	-10.5424
▁सल्लामसलत	-10.5424
▁सावधगिरी	-10.5424
▁सोलापुरात	-10.5424
▁स्टॉर्म	-10.5424
▁हायपोक्सिया	-10.5424
स्ट्राझेनेका	-10.5424
▁तरतूद	-10.5424
▁थोरात	-10.5424
▁नोटीस	-10.5424
▁राहणे	-10.5424
▁लोकप्रिय	-10.5424
▁स्वयंसेवकां	-10.5424
ool	-10.5424
श्लेष	-10.5424
▁अंकित	-10.5424
▁मुद्दे	-10.5424
▁सर्व्हिस	-10.5424
▁किशोर	-10.5424
▁मांजर	-10.5424
▁व्याप्ती	-10.5424
▁स्त्री	-10.5424
▁प्रचारसभा	-10.5424
▁सवलत	-10.5424
▁नसतं	-10.5424
▁सज्ज	-10.5424
▁mRNA	-10.5424
▁निरंजन	-10.5424
▁टीव्ही	-10.5424
▁मुभा	-10.5424
▁मजब	-10.5424
▁प्रगती	-10.5425
▁ओसर	-10.5425
▁गार्ड	-10.5425
▁परजीव	-10.5425
▁आणिबाणी	-10.5425
▁आरक्षणा	-10.5425
▁दिशेन	-10.5425
▁दिलासादायक	-10.5425
त्काळ	-10.5425
▁कोरोनील	-10.5425
स्प्रेडर	-10.5425
▁गंगा	-10.5425
▁शकू	-10.5425
▁नाकारता	-10.5425
▁संकल्पन	-10.5426
▁पर्वा	-10.5426
▁दारू	-10.5427
उष्	-10.5428
▁नियुक्त	-10.5428
▁इम्युनिटी	-10.5428
▁कपात	-10.5428
ste	-10.5429
▁रसायन	-10.543
▁थर्म	-10.543
भोवत	-10.543
▁लाखांहून	-10.543
▁२८	-10.543
▁सादरीकरण	-10.543
▁एक्सप	-10.543
▁श्वसनासंबंधी	-10.5431
▁राहावे	-10.5431
▁असावं	-10.5431
पत्ता	-10.5432
NA	-10.5432
▁४४	-10.5434
▁धुता	-10.5436
RS	-10.5437
do	-10.5438
▁निमित्तान	-10.5438
▁ट्रेनिंग	-10.544
▁मिळाल्यानंतर	-10.5444
▁कँडीडेट्स	-10.5447
ोडल	-10.5449
▁वाचवण्यासाठी	-10.5449
▁साठवण्यासाठी	-10.545
▁नसून	-10.5457
▁न्यूज	-10.5458
▁किट्स	-10.5458
▁दिवसांपर्यंत	-10.5462
▁पहाय	-10.5467
ाईक	-10.5468
▁पसरतोय	-10.5468
▁नजर	-10.5469
▁घाई	-10.5472
▁जिवाणू	-10.5474
▁57	-10.5476
▁वाढेल	-10.5481
▁पुसू	-10.5482
▁लाभ	-10.5482
▁प्रत्यक्षात	-10.549
▁(10	-10.549
35	-10.5491
▁दर्शवली	-10.5493
▁पालकांना	-10.5494
▁घरातल्या	-10.5507
▁पथका	-10.5512
▁घेताना	-10.5513
▁आठवण	-10.553
२५	-10.5535
▁आठव	-10.56
45	-10.5608
▁कोरोनाबाधितांच	-10.5608
ाणू	-10.5608
▁धारावीत	-10.5628
MIS	-10.5647
▁ड्र	-10.5679
९०	-10.5734
िअल	-10.5747
▁पसरलेल	-10.5795
2,6	-10.5801
▁सरस	-10.5819
▁पोहोचत	-10.5856
रुण	-10.5894
▁नेत्या	-10.5895
भाजी	-10.59
87	-10.5911
▁हिरा	-10.5912
▁धू	-10.5944
▁दिसले	-10.5968
▁पसरण्याच	-10.6005
▁धोरणां	-10.6011
▁जोडण्या	-10.6012
प्रमाण	-10.6018
शासनाने	-10.6023
धान्य	-10.6025
40	-10.6034
श्च	-10.6046
व्हायरस	-10.6053
▁पोलिस	-10.6056
शक्ती	-10.6062
कुल	-10.607
संसर्ग	-10.6075
▁अर्ध	-10.6082
▁अधि	-10.6092
विलगीकरण	-10.6095
प्राप्त	-10.6095
कोव्हॅक्सिन	-10.6096
मोठ्या	-10.6097
आपण	-10.6097
आपल्या	-10.6097
शक्य	-10.6097
लसीकरण	-10.6097
व्हॅक	-10.6116
गतीन	-10.6165
▁मंत्र	-10.6167
▁ठरवण्या	-10.6172
▁टक्क	-10.6174
▁परवड	-10.6188
ाइल	-10.6238
1.7	-10.6253
▁खवखव	-10.6254
ांहून	-10.6255
दर्शक	-10.6256
बुधवार	-10.6256
▁उपाध्य	-10.6258
ञ	-10.6258
▁MPSC	-10.6258
▁आकड्यां	-10.6258
▁इत्यादी	-10.6258
▁उन्हाळ्या	-10.6258
▁कोलमड	-10.6258
▁क्लोरोक्वीन	-10.6258
▁निम्न	-10.6258
▁विष्ठे	-10.6258
▁स्वास्थ्य	-10.6258
ओसी४३	-10.6258
▁उत्तेजन	-10.6258
▁उशिरा	-10.6258
▁काटेकोर	-10.6258
▁किंग्डम	-10.6258
▁तडजोड	-10.6258
▁तामिळनाडू	-10.6258
▁देणगी	-10.6258
▁द्राक्ष	-10.6258
▁पुरस्कार	-10.6258
▁पेट्रोल	-10.6258
▁भेदभाव	-10.6258
▁भोजनालय	-10.6258
▁यवतमाळ	-10.6258
▁रक्तवाहिन्या	-10.6258
▁रशियन	-10.6258
▁रॉय	-10.6258
▁सफाई	-10.6258
▁सांगितल्या	-10.6258
▁डोळ्यां	-10.6258
▁विमानसेवा	-10.6258
▁श्रेय	-10.6258
▁पतंजली	-10.6258
▁पाहणं	-10.6258
▁प्रार्थना	-10.6258
NHS	-10.6258
▁निसर्ग	-10.6258
▁मंदाव	-10.6258
▁वयस्कर	-10.6258
▁समुद्र	-10.6258
▁असामान्य	-10.6258
▁स्विकार	-10.6258
▁प्रदर्श	-10.6258
▁धूम्रपान	-10.6258
▁अखिल	-10.6258
▁जर्नल	-10.6258
▁परीक्षण	-10.6258
▁कपडे	-10.6258
अभूतपूर्व	-10.6258
▁पुराव्या	-10.6258
▁सांगली	-10.6258
▁लातूर	-10.6258
▁आणली	-10.6258
▁लेव्हल	-10.6258
▁फेसबुक	-10.6258
▁निर्यातीवर	-10.6258
अॅस्ट्र	-10.6258
▁व्यवस्थापक	-10.6258
▁दरेकर	-10.6258
▁स्टाफ	-10.6258
▁राखीव	-10.6258
▁सचिन	-10.6258
▁जाणीव	-10.6259
▁फायर	-10.6259
▁सवय	-10.6259
▁1201	-10.6259
▁वेस्ट	-10.626
▁आठवडय़ा	-10.626
▁पोषण	-10.626
▁यूएस	-10.626
▁आक्षेप	-10.6261
▁डिग्र	-10.6262
▁MH	-10.6262
▁क्रू	-10.6262
▁विकेंद्र	-10.6265
▁एन्टीबॉडीज	-10.6265
▁वर्गीकरण	-10.6265
पंचायत	-10.6265
▁अधीन	-10.6266
▁Pr	-10.6267
▁सेना	-10.6267
▁०१	-10.6268
▁नसला	-10.6268
▁कुटुंबियां	-10.6269
ers	-10.627
▁थै	-10.6271
▁पाळणं	-10.6271
▁अशाप्रकारे	-10.6272
▁प्रथिनां	-10.6272
▁घोषणे	-10.6273
▁पटींन	-10.6275
▁नाईक	-10.6275
▁कापड	-10.6276
▁कमिशन	-10.6276
▁Re	-10.6277
▁बालका	-10.6277
▁लाखांपेक्षा	-10.6278
▁आदेशानुसार	-10.628
▁खरे	-10.6282
▁किरण	-10.6284
▁उचलली	-10.6285
▁प्रपत्र	-10.6286
▁सांगायचं	-10.629
▁ठरवलं	-10.629
▁याचिका	-10.6291
▁करतायत	-10.6293
▁लशीकरण	-10.6294
▁आलो	-10.6298
▁स्वरुप	-10.6301
पेट	-10.6303
▁लसीकरणाबाबत	-10.6304
▁सुरुवातीपासून	-10.6305
▁55	-10.6305
▁पसरली	-10.631
▁सावध	-10.6315
▁79	-10.6316
▁गटां	-10.6322
▁व्हिडि	-10.6323
समायोज	-10.6324
३३	-10.6325
▁2000	-10.6326
▁शास्त्री	-10.6339
▁मुद्द्यांवर	-10.6342
रेषा	-10.6342
▁पळ	-10.6349
▁गिल	-10.6366
▁निळ	-10.6375
फेक	-10.6393
▁पाठवि	-10.6396
▁पोहोचण्या	-10.6397
▁चालवत	-10.6426
▁७०	-10.643
▁क्लिनिक	-10.645
▁अॅड	-10.6468
▁कार्यक्षम	-10.6473
▁पर्यटकां	-10.6487
tion	-10.6494
▁वर्षभर	-10.6518
िन्ह	-10.6535
महाराष्ट्र	-10.6556
▁गति	-10.6574
बाबा	-10.6663
▁आशादाय	-10.6681
▁देशांमध	-10.6724
▁असलेल	-10.6779
▁आणण	-10.6814
▁सर्वोत्	-10.6817
ांस	-10.6888
र्नि	-10.6895
▁४२	-10.6914
देशात	-10.6917
▁कंपन्यांन	-10.6917
▁रक्तद्रव	-10.693
द्रव्य	-10.6957
विषाणू	-10.6963
ानंद	-10.6967
नुक्रम	-10.6981
▁अडकले	-10.6995
घातक	-10.7002
ग्राम	-10.7002
इतके	-10.7003
अखेर	-10.7004
कुमार	-10.7004
पातळीवर	-10.7005
आर्थिक	-10.7005
अनेक	-10.7008
▁कॉन्	-10.702
प्रकरण	-10.702
पेशी	-10.7031
▁टाकण्या	-10.7056
६३	-10.7062
▁गुंतागुंत	-10.7078
▁पसरल्या	-10.7083
▁शुक्रवार	-10.7086
▁म्हटल	-10.7088
▁सकाळ	-10.7111
BC	-10.7123
▁निकष	-10.7141
▁यंत्र	-10.7148
निमित्त	-10.715
त्यक्ष	-10.716
▁डिस्टन्स	-10.7162
▁संक्राम	-10.7165
बॉडी	-10.7166
▁नेदरलँड	-10.7167
▁असुरक्षित	-10.7167
▁आजूबाजू	-10.7167
▁कंटेन्मेंट	-10.7167
▁खेळाडू	-10.7167
▁तुर्क	-10.7167
▁रणनिती	-10.7167
▁लॉग	-10.7167
▁विश्वसनीय	-10.7167
India	-10.7167
एनएल६३	-10.7167
मॅटिक	-10.7167
विरूद्ध	-10.7167
▁अवस्थेत	-10.7167
▁अॅडमिट	-10.7167
▁आकर्ष	-10.7167
▁ऑक्सिमीटर	-10.7167
▁कमतरते	-10.7167
▁कार्यपद्धती	-10.7167
▁गडचिरोली	-10.7167
▁छाननी	-10.7167
▁जेनेटिक	-10.7167
▁टेंडर	-10.7167
▁डुकराच	-10.7167
▁नांदेड	-10.7167
▁निम्म्या	-10.7167
▁निरनिराळ	-10.7167
▁निशाणा	-10.7167
▁पेडणेकर	-10.7167
▁फ्रेम	-10.7167
▁बांधिलकी	-10.7167
▁भौतिक	-10.7167
▁रणनीति	-10.7167
▁रिक्षा	-10.7167
▁व्यत्यय	-10.7167
▁व्हिडीओ	-10.7167
▁शेंझेन	-10.7167
▁समस्ये	-10.7167
▁सौर	-10.7167
▁हरियाणा	-10.7167
▁केईएम	-10.7167
▁सीताराम	-10.7167
▁हजेरी	-10.7167
खेडकर	-10.7167
ावस्थेत	-10.7167
▁मृत्युमुखी	-10.7167
NBA	-10.7167
▁ऑडिट	-10.7167
▁ठेवल्या	-10.7167
▁पंडीत	-10.7167
▁रूपांतर	-10.7167
▁आखाडा	-10.7167
▁2020-21	-10.7167
▁वैश	-10.7167
▁आढळण	-10.7167
▁रेणू	-10.7167
▁ट्रान्स	-10.7167
▁प्रायव्ह	-10.7167
▁सायटोकीन	-10.7167
▁आहार	-10.7167
▁रमेश	-10.7167
टर्मिन	-10.7167
▁गाऊन	-10.7167
▁वार्ता	-10.7167
▁स्त्रीरोगतज्ज्ञ	-10.7167
▁कुंटे	-10.7167
▁दशकां	-10.7167
▁तुट	-10.7167
▁उत्तम	-10.7167
▁मोनो	-10.7167
▁तृतीयांश	-10.7167
▁घ्यावं	-10.7167
▁ओपन	-10.7167
▁पंढरपूर	-10.7167
▁याचिके	-10.7167
▁सस्तन	-10.7167
▁अकोला	-10.7167
▁शौचालय	-10.7167
▁नियंत्रक	-10.7168
▁व्हॅ	-10.7168
▁झटक	-10.7168
▁देह	-10.7168
CMR	-10.7168
▁बालरोगतज्ज्ञ	-10.7168
▁शतका	-10.7168
▁सॅन	-10.7168
▁बाह	-10.7168
▁तुलनात्मक	-10.7169
▁सभागृह	-10.7169
▁आणाव	-10.7169
ावधी	-10.717
▁वापरावा	-10.717
▁एकट्या	-10.717
▁करतंय	-10.7171
ल्व्ह	-10.7172
▁हक्क	-10.7174
▁इलेक्ट्रॉनिक	-10.7174
▁आग्रह	-10.7176
▁कॅप्	-10.7177
▁६५	-10.7177
▁मॉल्स	-10.7178
ल्हा	-10.7178
▁करोनाकाळा	-10.7179
बीपी	-10.7179
▁वाढतोय	-10.7179
▁घातलेल्या	-10.7179
▁Ne	-10.7179
फूड	-10.718
▁भाऊ	-10.7182
▁चोर	-10.7183
संगत	-10.7184
id	-10.7185
▁दिवसांनंतर	-10.719
प्रवाह	-10.7191
▁फेरी	-10.7192
▁पात्र	-10.7192
विधी	-10.7193
▁प्रमाणपत्र	-10.7194
▁बसतो	-10.7194
▁वाजल्या	-10.7197
▁कळलं	-10.7199
बर्ग	-10.72
▁वाहत	-10.7201
▁प्राद	-10.7206
▁रांग	-10.7208
▁लशीसंदर्भात	-10.7214
▁विषयावर	-10.7219
▁शिकवण्या	-10.7226
ग्रह	-10.727
९५	-10.7308
▁वाढीव	-10.7321
▁नसले	-10.733
▁वाढविण्या	-10.7346
▁राहिलेल	-10.7412
▁ठरविण्या	-10.7449
▁फुफ्फुसांत	-10.7451
निम	-10.7624
युए	-10.7748
▁दाखवाव	-10.776
ाइम	-10.7803
▁५००	-10.7814
्लू	-10.7815
▁तीव्रतेन	-10.7834
▁गाड्या	-10.7855
▁न्यूक्ल	-10.7926
गॅस	-10.7954
तंत्रज्ञान	-10.8003
रूप	-10.8004
क्वारंटाईन	-10.8005
प्रत्येक	-10.8006
▁संरचना	-10.8014
▁आमच्याकड	-10.8016
भारतात	-10.8018
▁प्रशिक्ष	-10.802
▁विमा	-10.8022
▁पोशिंद	-10.8051
▁आत्ता	-10.8079
रबा	-10.8089
▁नसू	-10.8133
प्रकारच	-10.8135
ांबद्दल	-10.8148
▁वेब	-10.815
▁विमानतळ	-10.8158
▁शौच	-10.8166
अहमदाबाद	-10.8167
पार्टमेंट	-10.8167
फेलुदा	-10.8167
▁7,162	-10.8167
▁अपेक्षे	-10.8167
▁अभियान	-10.8167
▁इंस्टीट	-10.8167
▁कारखान्यां	-10.8167
▁जीवघेण	-10.8167
▁ठेवली	-10.8167
▁डिझाइन	-10.8167
▁डिस्चार्ज	-10.8167
▁डोमेन	-10.8167
▁नागपुरात	-10.8167
▁नोकऱ्या	-10.8167
▁नोवाव्हॅक्स	-10.8167
▁परराष्ट्र	-10.8167
▁पाठिंबा	-10.8167
▁पारंपरिक	-10.8167
▁पाहिली	-10.8167
▁पाहूया	-10.8167
▁पोटदुखी	-10.8167
▁प्रॅक्टिशनर्स	-10.8167
▁फॉलो	-10.8167
▁बास्केटबॉल	-10.8167
▁महसूल	-10.8167
▁मॉनिटर	-10.8167
▁यंत्रमाग	-10.8167
▁वडेट्टीवार	-10.8167
▁वीकेंड	-10.8167
▁वॉशरूम	-10.8167
▁संभ्रम	-10.8167
▁सांख्यिकी	-10.8167
▁सेल्सिअस	-10.8167
▁सेल्सियस	-10.8167
▁स्पाइक	-10.8167
LRTI	-10.8167
▁इम्यून	-10.8167
▁तन्मय	-10.8167
▁नव्हत्या	-10.8167
▁प्रार्थनास्थळ	-10.8167
▁फॉर्म्युल	-10.8167
▁वास्तविक	-10.8167
▁विपरीत	-10.8167
▁व्यायामशाळा	-10.8167
▁व्हॅन्टिलेटर	-10.8167
▁कुठलं	-10.8167
▁क्रीडा	-10.8167
▁तितकं	-10.8167
▁प्रश्नचिन्ह	-10.8167
▁रिव्हर्स	-10.8167
▁सैन्य	-10.8167
▁हिंदू	-10.8167
▁ह्युम	-10.8167
▁टंचाई	-10.8167
▁सापडत	-10.8167
▁सशक्त	-10.8167
▁स्नान	-10.8167
भाईंदर	-10.8167
▁युनियन	-10.8167
▁समांतर	-10.8167
▁व्याख्या	-10.8167
▁जंगलात	-10.8167
▁शिंगणे	-10.8167
gov	-10.8167
▁छोटा	-10.8167
▁ग्रुप	-10.8167
▁विकृती	-10.8167
▁इबोला	-10.8167
▁गर्भधारण	-10.8167
▁एरवी	-10.8167
▁बहि	-10.8167
▁मुळात	-10.8167
▁पुढाकार	-10.8167
▁कोसळल	-10.8167
▁टाईम्स	-10.8167
▁ओलांड	-10.8167
▁व्हावं	-10.8167
▁मल्टी	-10.8167
▁सल्ले	-10.8167
▁शोधकार्य	-10.8167
▁ठेवायला	-10.8167
▁दाव्या	-10.8168
▁व्हावा	-10.8168
▁आणला	-10.8168
▁मशीन	-10.8168
▁मुदत	-10.8168
▁मेळाव	-10.8169
▁उमट	-10.8169
▁आणल्या	-10.8169
▁घातला	-10.8169
▁मेडीक	-10.8169
▁वृत्तपत्र	-10.8169
पूजा	-10.817
▁भागवत	-10.817
▁खरंतर	-10.817
▁नसली	-10.817
gen	-10.8171
▁रस्त्यांवर	-10.8171
ीएसई	-10.8171
▁खवखवणं	-10.8172
▁यादव	-10.8172
▁गेम	-10.8172
▁टिकव	-10.8172
▁2018	-10.8173
नुषंग	-10.8173
▁दाट	-10.8173
ene	-10.8174
▁विमानतळावर	-10.8175
ch	-10.818
▁संपल्यानंतर	-10.8181
▁पोहोचलो	-10.8181
▁मिथ	-10.8182
▁विक्रम	-10.8182
▁चरण	-10.8182
PP	-10.8182
ाधिकार	-10.8182
▁त्रि	-10.8185
▁नर्सिंग	-10.8185
▁2005	-10.8185
▁गरजेचा	-10.8186
▁नेत्यांनी	-10.8187
▁मनसे	-10.8189
▁हलक	-10.8191
▁सेने	-10.8192
▁पडेल	-10.8194
▁चालेल	-10.8197
धीर	-10.82
डियम	-10.8213
▁निघालेल	-10.8215
▁पोहोचवल	-10.8219
वहन	-10.8223
▁क्षेत्रांत	-10.8226
ABC	-10.8226
▁नखां	-10.823
ate	-10.8233
▁परवडणार	-10.8251
ाईज	-10.8254
म्युनिटी	-10.8301
▁पोर्	-10.8317
▁फुट	-10.8342
स्तान	-10.8351
▁गरजूं	-10.8376
▁उचलाव	-10.8392
▁जाणवू	-10.8418
िदान	-10.8453
पक्ष्यां	-10.8515
कालिक	-10.8524
▁उचलण्या	-10.8533
ांसोबत	-10.8596
▁परिसर	-10.8795
▁चालवण्या	-10.8886
▁कोरिय	-10.8968
▁मोजाव	-10.8991
मुद	-10.8999
▁श्वसनयंत्र	-10.9003
नियंत्र	-10.9036
▁स्त्रिया	-10.9072
▁रस्त्या	-10.9091
▁पाळल	-10.9109
पदार्थ	-10.9112
▁मागण्या	-10.9113
माध्यम	-10.9113
W	-10.9114
जिल्ह्या	-10.9116
गंभीर	-10.9117
ऑक्सिजन	-10.9117
अधिक	-10.9117
50%	-10.9119
▁प्राधान्यान	-10.9148
▁जर्मन	-10.9164
▁उमेदवारां	-10.9167
▁प्रकल्पां	-10.9179
साथीच	-10.9203
▁ठेवू	-10.9241
▁मॉल	-10.9264
▁अभिन	-10.9268
▁घातले	-10.927
क्षेप	-10.9274
▁जैव	-10.9275
▁समाप्त	-10.9277
म्ब्युलन्स	-10.9277
यॉर्क	-10.9277
▁पार्श्वभूम	-10.9277
सायटोक	-10.9278
टाईम	-10.9278
क्रिप्शन	-10.9278
इंटेन्सिव्ह	-10.9278
▁डिलीव्हरी	-10.9278
▁नारळीकर	-10.9278
▁श्वसननलिके	-10.9278
▁स्पेशल	-10.9278
एसओपी	-10.9278
सुविधे	-10.9278
ॉक्सीक्लोरोक्वीन	-10.9278
▁अक्षर	-10.9278
▁अग्निसुरक्ष	-10.9278
▁अनुप्रयोग	-10.9278
▁आरोग्यसेवक	-10.9278
▁कसोटी	-10.9278
▁कॅबिनेट	-10.9278
▁कॉकेटल	-10.9278
▁खिडकी	-10.9278
▁गुणोत्तर	-10.9278
▁घेईल	-10.9278
▁घेब्रेयेस	-10.9278
▁जीवनावश्य	-10.9278
▁टप्प्याटप्प्यान	-10.9278
▁डायरेक्ट	-10.9278
▁धडपड	-10.9278
▁नपुंसक	-10.9278
▁नववर्षाच	-10.9278
▁पासपोर्ट	-10.9278
▁पुनरावलोकन	-10.9278
▁प्रतिक्रिये	-10.9278
▁फाउंडेशन	-10.9278
▁फिटनेस	-10.9278
▁बिघाड	-10.9278
▁भुजबळ	-10.9278
▁मूत्रपिंड	-10.9278
▁वयोवृद्ध	-10.9278
▁विशाखा	-10.9278
▁व्हेन्टिलेटर	-10.9278
▁शल्यचिकित्सक	-10.9278
▁शवविच्छेदन	-10.9278
▁शिवजयंती	-10.9278
▁शुभेच्छा	-10.9278
▁सरपंच	-10.9278
▁सांगितली	-10.9278
▁स्क्रीन	-10.9278
▁स्पर्धा	-10.9278
▁स्वित्झर्लंड	-10.9278
प्रत्यारोप	-10.9278
मेडिसीन	-10.9278
▁आदर्श	-10.9278
▁जाहिर	-10.9278
▁दुःख	-10.9278
▁पर्यावरण	-10.9278
▁बाटली	-10.9278
▁वेदना	-10.9278
▁संघर्ष	-10.9278
▁सीईओ	-10.9278
▁हातमोजे	-10.9278
▁अमिनो	-10.9278
▁धावपळ	-10.9278
▁विचित्र	-10.9278
▁हेल्थकेअर	-10.9278
▁कॅन्सर	-10.9278
▁डिस्ट्र	-10.9278
▁मध्यभागी	-10.9278
▁ईमेल	-10.9278
▁खराब	-10.9278
▁छोटे	-10.9278
ovid	-10.9278
▁जेवढ	-10.9278
▁टूथ	-10.9278
▁द्रावणा	-10.9278
oronavirus	-10.9278
स्पॅ	-10.9278
▁जमिनी	-10.9278
▁पटोले	-10.9278
▁सत्ताधा	-10.9278
▁सुलभ	-10.9278
▁व्याधी	-10.9278
▁हाऊस	-10.9278
▁लिक्वि	-10.9278
▁रिसेप्टर	-10.9278
▁कॅनेड	-10.9278
▁अधिग्रह	-10.9278
▁श्रम	-10.9278
▁दडप	-10.9278
▁अफवा	-10.9279
▁कोंडी	-10.9279
▁ऑपरेशन	-10.9279
tan	-10.9279
IMS	-10.9279
▁अडीच	-10.9279
टॅग	-10.9279
▁गृहविलगीकरण	-10.928
▁कॅम्प	-10.928
▁प्रसारमाध्यमां	-10.928
▁लिहिलेल	-10.9281
▁ठाम	-10.9281
▁लावायच	-10.9281
▁कुपी	-10.9281
▁महानगर	-10.9283
▁त्वर	-10.9283
▁वर्षाखाल	-10.9284
▁इटाल	-10.9284
▁2015	-10.9284
▁कमिटी	-10.9284
▁२०१९	-10.9284
▁सांगायच	-10.9284
स्वामी	-10.9285
ट्यूब	-10.9285
▁९८	-10.9286
▁तोडण्यासाठी	-10.9287
▁सायकलींच	-10.9288
सत्ता	-10.929
मावेश	-10.9295
मायन	-10.9302
मापन	-10.9303
▁नाकारल	-10.9314
बाद	-10.9315
बुड	-10.9352
राष्ट्रपती	-10.9353
(1)	-10.9356
▁व्हेक्टर	-10.9358
▁डाव	-10.9369
▁कवच	-10.9392
ँपल	-10.9403
▁थोपव	-10.9442
धारकां	-10.9473
कार्यान	-10.9614
▁सोमा	-10.9645
▁ठरल्याच	-10.9751
1.8	-10.9783
▁निर्देशां	-10.9844
▁पंच	-10.9848
▁प्रवर्ध	-10.9987
▁टाकण	-11.0028
▁कर्मचाऱ्या	-11.0067
▁निष्कर्षां	-11.0072
▁लढण्या	-11.0103
▁वाढलेल	-11.013
ISC	-11.0168
ज्यु	-11.0189
रोगतज्ज्ञ	-11.0216
्लिक	-11.0255
पुढे	-11.0305
▁साधनांच	-11.0356
सिंह	-11.0362
दृष्टीने	-11.0364
इफेक्ट	-11.0365
बातम्या	-11.0365
इतकी	-11.0365
MERS	-11.0366
अमरावती	-11.0366
सुविधा	-11.0366
प्रचार	-11.0367
जागतिक	-11.0367
रुग्णालयात	-11.0367
▁म्हणाव	-11.0458
▁समर्थ	-11.049
कर्त्या	-11.0513
▁एन्टीबॉडी	-11.0516
▁विश्व	-11.0521
रक्षक	-11.0523
ायझर	-11.0525
टुंब	-11.0526
ाणिज	-11.0526
ndro	-11.0528
फ्युज	-11.0528
लॉजिस्ट	-11.0528
▁अंत्यविधी	-11.0528
▁अनुवांशिक	-11.0528
▁अभियांत्रिकी	-11.0528
▁इकॉनॉम	-11.0528
▁इन्फ़्लुएन्झा	-11.0528
▁उपचारपद्धती	-11.0528
▁टिप्पणी	-11.0528
▁नियतकालिका	-11.0528
▁नोकरदार	-11.0528
▁मॅन्युफॅक्चर	-11.0528
▁रेकॉर्ड	-11.0528
▁रोगजंतू	-11.0528
ARDS	-11.0528
EMA	-11.0528
OSHA	-11.0528
काउंसिल	-11.0528
निर्वाण	-11.0528
मल्टिमिडीय	-11.0528
ोल्युशन	-11.0528
▁असोशिएशन	-11.0528
▁आच्छादित	-11.0528
▁आपोआप	-11.0528
▁इनहिबिटर	-11.0528
▁एक्स्प्रेस	-11.0528
▁एपिडेमि	-11.0528
▁ओलसर	-11.0528
▁कारखान्यात	-11.0528
▁कोंबड्या	-11.0528
▁गुणवत्ता	-11.0528
▁गॉगल	-11.0528
▁छत्तीसगड	-11.0528
▁टेक्नॉलॉजी	-11.0528
▁त्रिसूत्री	-11.0528
▁दौऱ्या	-11.0528
▁निष्पत्ती	-11.0528
▁पारंपारिक	-11.0528
▁फुप्फुस	-11.0528
▁बदनाम	-11.0528
▁बूस्टर	-11.0528
▁भंडारा	-11.0528
▁भ्रष्टाचार	-11.0528
▁मंदिरा	-11.0528
▁मलेशिया	-11.0528
▁माणुसकी	-11.0528
▁मानसोपचार	-11.0528
▁मोबाइल	-11.0528
▁म्हणण्यानुसार	-11.0528
▁रक्तस्राव	-11.0528
▁रिसॉर्ट	-11.0528
▁लायब्ररी	-11.0528
▁लॅन्सेट	-11.0528
▁वंशप्रकार	-11.0528
▁वगैरे	-11.0528
▁वर्णद्वेष	-11.0528
▁व्हिटॅमिन	-11.0528
▁संरचने	-11.0528
▁सांभाळ	-11.0528
▁सॅम्पल	-11.0528
▁सैनिक	-11.0528
▁स्टॉक	-11.0528
▁ह्रदयवाहिक	-11.0528
ग्रंथी	-11.0528
▁अकाऊंट	-11.0528
▁अस्वस्थ	-11.0528
▁आशिष	-11.0528
▁कन्टेन्	-11.0528
▁जीवनसत्व	-11.0528
▁निविदा	-11.0528
▁पन्नास	-11.0528
▁प्लास्टिक	-11.0528
▁मतदारसंघ	-11.0528
▁शिवसेना	-11.0528
▁सव्वा	-11.0528
▁होईपर्यंत	-11.0528
▁अॅसिड	-11.0528
▁गव्हर्न	-11.0528
▁ड्रोमेड	-11.0528
▁अभिमान	-11.0528
▁आतड्यां	-11.0528
▁शिवसेने	-11.0528
▁सिव्हेट	-11.0528
▁सगळा	-11.0528
▁the	-11.0528
▁डिस्प	-11.0528
▁मेंदू	-11.0528
▁फिजिशि	-11.0528
▁संलक्षण	-11.0528
▁प्रशांत	-11.0528
▁संमती	-11.0528
▁धुतले	-11.0528
आयव्ही	-11.0528
▁जंतूनाश	-11.0528
जीएसटी	-11.0528
▁इराक	-11.0528
▁पंडित	-11.0528
▁सेवक	-11.0528
▁जैन	-11.0528
▁अग्नी	-11.0528
▁करावया	-11.0528
एसीई२	-11.0528
रुपांतर	-11.0528
▁Ro	-11.0528
र्थचक्र	-11.0528
▁आणायच	-11.0528
▁साधावा	-11.0529
▁न्युक्लिओ	-11.0529
▁धारण	-11.0529
▁बालपणात	-11.0529
▁जॅक	-11.0529
▁प्राप्तकर्त्या	-11.0529
▁गुंतलेल	-11.0529
▁अॅम्ब्युलन्स	-11.0529
▁महाराजांच	-11.0529
▁गरजेनुसार	-11.0529
▁HIV	-11.0529
▁सुरवातीला	-11.0529
▁प्रोटीज	-11.053
▁कोणतं	-11.053
▁जायचे	-11.053
▁उपजिल्हा	-11.053
▁लपव	-11.053
▁प्रदात	-11.053
▁ठोक	-11.053
▁ड्युटी	-11.053
▁पोखर	-11.053
▁वसंत	-11.0531
घोळ	-11.0532
▁बॅच	-11.0532
▁ससून	-11.0533
ंजली	-11.0533
ब्रायन	-11.0533
▁टप्या	-11.0533
▁तत्वां	-11.0534
ज्ज्	-11.0535
▁वेगळेपण	-11.0536
▁म्युटे	-11.0537
िअस	-11.0539
▁विकि	-11.0541
▁गांभीर्यान	-11.0563
▁निकषां	-11.0565
प्रीम	-11.0589
▁बनावटीच	-11.0592
ाशया	-11.0602
्टाईन	-11.0668
▁म्हणायच	-11.07
▁जणीं	-11.0737
रंज	-11.0927
▁साठवण्या	-11.0997
▁वाचवण्या	-11.0998
थोडासा	-11.1034
शिक्षित	-11.1037
▁वटवाघूळ	-11.1133
सोर्स	-11.1179
▁संचां	-11.1193
▁वैज्ञानिकांन	-11.1202
सुख	-11.1246
▁सेरोलॉज	-11.1322
▁विमानां	-11.1348
पुट	-11.1362
संभाव्यता	-11.1363
▁शिकवण	-11.1364
acti	-11.1544
▁धारावी	-11.1577
▁हस्तक्षेपां	-11.1616
▁टँक	-11.1641
▁फिरण्या	-11.1645
मुख्यमंत्री	-11.1656
तायेत	-11.1731
भूमीवर	-11.1775
निश्चित	-11.1778
छोट्या	-11.1793
प्रथिन	-11.1794
महाविद्यालय	-11.1794
▁त्सुनामी	-11.1795
सामाजिक	-11.1795
आम्हाला	-11.1795
वुहान	-11.1795
पुरवठा	-11.1795
पहिल्या	-11.1795
म्हणून	-11.1796
मासिक	-11.1799
▁जिवाणूंच	-11.1862
लंबित	-11.1942
▁झपाट	-11.1946
▁धरल	-11.195
▁ऑपरे	-11.1955
▁स्प्र	-11.1956
ॅण्ड	-11.1956
रीटोनावीर	-11.1956
▁लोपिनावीर	-11.1956
▁अभिप्राय	-11.1956
▁आरएटीजी	-11.1956
▁कॉन्फरन्सिंग	-11.1956
CEPI	-11.1956
orth	-11.1956
अॅस्ट्राझेन्का	-11.1956
पॉझिटीव्ह	-11.1956
ाधिकाऱ्यां	-11.1956
्युबेशन	-11.1956
▁COPD	-11.1956
▁PTI	-11.1956
▁अँटिजेन	-11.1956
▁अंगदुखी	-11.1956
▁अचलपूर	-11.1956
▁अॅस्ट्राजेनिका	-11.1956
▁आंबेडकर	-11.1956
▁आरबीडी	-11.1956
▁इंटरफेरॉन	-11.1956
▁इंडोनेशिया	-11.1956
▁ईशान्य	-11.1956
▁उद्दीष्ट	-11.1956
▁उपाहारगृह	-11.1956
▁एक्सप्रेस	-11.1956
▁ऑब्झ	-11.1956
▁ओआरएफ	-11.1956
▁ओपीडी	-11.1956
▁कॉकटेल	-11.1956
▁कोट्यवधी	-11.1956
▁खरोखर	-11.1956
▁ख्रिसमस	-11.1956
▁गडकरी	-11.1956
▁गणेशोत्सव	-11.1956
▁गैरसोय	-11.1956
▁ग्रंथालय	-11.1956
▁चळवळ	-11.1956
▁जगभरामध्ये	-11.1956
▁जबाबदाऱ्या	-11.1956
▁जिल्हय़ात	-11.1956
▁टाईप	-11.1956
▁ट्रान्सपोर्ट	-11.1956
▁थिएटर	-11.1956
▁दुरूस्त	-11.1956
▁निमोनिया	-11.1956
▁निष्काळजीपणा	-11.1956
▁बक्षी	-11.1956
▁ब्राँकायटीस	-11.1956
▁भयंकर	-11.1956
▁भूमिके	-11.1956
▁मुकाबला	-11.1956
▁मॅनेजमेंट	-11.1956
▁याउलट	-11.1956
▁युमिफेनोवीर	-11.1956
▁रेमडेसिव्हीर	-11.1956
▁लखनौ	-11.1956
▁वंशेतिहासिक	-11.1956
▁श्वासोच्छवास	-11.1956
▁संचलनालय	-11.1956
▁स्लॉट	-11.1956
▁स्वातंत्र्य	-11.1956
▁हस्तांतर	-11.1956
आत्मविश्वास	-11.1956
कावासाकी	-11.1956
▁इस्लाम	-11.1956
▁उद्घाटन	-11.1956
▁खंडपीठा	-11.1956
▁डायग्नोस्टिक	-11.1956
▁तत्काल	-11.1956
▁तितक्या	-11.1956
▁दुर्घटन	-11.1956
▁दुष्काळ	-11.1956
▁निष्पन्न	-11.1956
▁परिचारिका	-11.1956
▁पुनर्वसन	-11.1956
▁प्रतिज्ञापत्र	-11.1956
▁प्रसिद्धीपत्रक	-11.1956
▁बंदोबस्त	-11.1956
▁बाटल्या	-11.1956
▁बिनधास्त	-11.1956
▁योजले	-11.1956
▁रेमडेसीव	-11.1956
▁लष्कर	-11.1956
▁लिम्फोसाइट	-11.1956
▁वंशावळ	-11.1956
▁व्हेरिएंट	-11.1956
▁स्मशाना	-11.1956
▁गावकऱ्यां	-11.1956
▁डोकान	-11.1956
▁तत्पर	-11.1956
▁फायजर	-11.1956
▁मारहाण	-11.1956
▁हटवण्या	-11.1956
▁एनकोड	-11.1956
▁निषेध	-11.1956
▁लघु	-11.1956
olle	-11.1956
▁फ्ल्यु	-11.1956
्युअल	-11.1956
▁डोकं	-11.1956
▁सुट्ट्या	-11.1956
ठ्ठ	-11.1956
▁आव्हाड	-11.1956
▁नगराळे	-11.1956
▁हेल्प	-11.1956
▁विळख	-11.1956
▁संगणक	-11.1956
▁अनियमित	-11.1957
ॅस्टिक	-11.1957
▁धुणं	-11.1957
▁रॅली	-11.1957
▁डझन	-11.1957
▁शांतता	-11.1957
▁कूपर	-11.1957
▁डिव्हाई	-11.1957
▁आसाम	-11.1957
▁अत्याध	-11.1957
▁परस्परक्रिया	-11.1957
▁खुलासा	-11.1957
▁प्रजनन	-11.1957
▁पोलाद	-11.1957
▁कोठे	-11.1957
▁शेतकऱ्यांन	-11.1957
▁ओरड	-11.1957
▁rh	-11.1957
ग्रॅम	-11.1957
▁मनोरुग्णां	-11.1957
ज्योत	-11.1957
▁संस्थापक	-11.1957
str	-11.1957
▁वकिला	-11.1957
▁दादर	-11.1957
पीआय	-11.1958
▁बॅग	-11.1958
▁पसंत	-11.1958
इंजिन	-11.1958
▁पडताळ	-11.1958
▁भ्रम	-11.1958
्फ्ल	-11.1958
▁प्रसंग	-11.1958
▁अगोदर	-11.1958
▁कव्हर	-11.1958
▁मल्टि	-11.1958
▁आपात	-11.1958
▁द्वि	-11.1959
▁युवक	-11.196
▁तुळ	-11.1961
पुस्तक	-11.1963
▁एक्झ	-11.1963
▁लिंक	-11.1965
▁पटवण्या	-11.1966
पलीकडे	-11.1967
▁नक्षलवाद्यां	-11.1968
▁बसवण्या	-11.1975
▁सिव्हि	-11.1975
▁लादले	-11.1976
▁मुद्य	-11.1988
▁प्रौढां	-11.2049
▁आयोग	-11.2132
नियोज	-11.2153
▁उद्योगां	-11.2228
▁तज्ञां	-11.2271
▁संशोधकांच	-11.2298
▁घाबरण्याच	-11.2367
गंध	-11.2412
▁नियामकांकड	-11.2431
▁शिकण्या	-11.2628
ोव्हि	-11.2728
▁वटवाघूळां	-11.2854
▁झाकण्या	-11.315
▁पदार्थांच	-11.3151
▁वाहनां	-11.319
▁टाळण्याच	-11.3354
▁कम्युनि	-11.3394
▁मुद्द्यां	-11.3449
साधारण	-11.3451
ज्ञान	-11.3454
सामग्री	-11.3459
स्वॅब	-11.346
रेमडेसिव्हिर	-11.3461
रेमडेसिवीर	-11.3462
प्राथमिक	-11.3462
दुसरी	-11.3462
लॉकडाउन	-11.3462
तुम्ही	-11.3462
पॉलिस	-11.3467
परीक्षा	-11.3489
व्हेक्टर्	-11.3501
▁शिक्षकांच	-11.3504
▁उघडण्याच	-11.3506
▁मंगळवार	-11.3541
साईट्स	-11.3581
▁गुठळ	-11.3596
▁इलेक्ट्रॉन	-11.3609
▁प्रदूष	-11.3613
म्युनिस	-11.3619
स्टिट्युट	-11.3622
▁पृष्ठ	-11.3623
Arg	-11.3623
कन्व्हर्	-11.3623
क्लॉ	-11.3623
ास्पद	-11.3623
▁अन्ननलिके	-11.3623
▁अभियंत	-11.3623
▁गौरव	-11.3623
▁झारखंड	-11.3623
▁मलेरिया	-11.3623
SEIR	-11.3623
Vaccine	-11.3623
कॉमर्स	-11.3623
ट्रान्समेम्ब्रेन	-11.3623
धैर्य	-11.3623
पॅसिफिक	-11.3623
फॉल्	-11.3623
यूपीएससी	-11.3623
विशेषज्ञ	-11.3623
सिम्प्ट	-11.3623
▁iOS	-11.3623
▁अभिवादन	-11.3623
▁अभिव्यक्त	-11.3623
▁अल्पाकस	-11.3623
▁अॅम्बुलन्स	-11.3623
▁आकस्मिक	-11.3623
▁आयसोलेट	-11.3623
▁आर्द्रत	-11.3623
▁इंग्रजी	-11.3623
▁इक्विपमेंट	-11.3623
▁इन्फ्लुएन्झा	-11.3623
▁उंदीर	-11.3623
▁कॉर्नेल	-11.3623
▁कोविशिल्ड	-11.3623
▁गर्भारपण	-11.3623
▁गृहमंत्रालया	-11.3623
▁चंद्रपुरात	-11.3623
▁जबरदस्त	-11.3623
▁जुलाब	-11.3623
▁ज्याअर्थी	-11.3623
▁टेक्नि	-11.3623
▁टोपणना	-11.3623
▁ठेवेल	-11.3623
▁डिटर्जंट	-11.3623
▁ड्राईव्ह	-11.3623
▁ढेरे	-11.3623
▁तंत्रिकातंतु	-11.3623
▁तहसीलदार	-11.3623
▁ताबडतो	-11.3623
▁तिकिटे	-11.3623
▁तूर्तास	-11.3623
▁तोडफोड	-11.3623
▁दोघं	-11.3623
▁दोघे	-11.3623
▁पाहिला	-11.3623
▁पुरूषां	-11.3623
▁पॉलिमरे	-11.3623
▁प्रतिक्ष	-11.3623
▁प्रियंका	-11.3623
▁प्रॉडक्ट	-11.3623
▁फॉर्मुलेशन	-11.3623
▁फ्रान्सिस्को	-11.3623
▁बॅंके	-11.3623
▁बेरोजगारी	-11.3623
▁मनोरंजन	-11.3623
▁युनिसेफ	-11.3623
▁रत्नागिरी	-11.3623
▁रश्मी	-11.3623
▁रिएक्शन	-11.3623
▁रॅमडेसिवीर	-11.3623
▁वसाहती	-11.3623
▁विपणन	-11.3623
▁वेन्टिलेशन	-11.3623
▁वेबसाइट	-11.3623
▁व्हॉट्सअप	-11.3623
▁श्वसनशोथ	-11.3623
▁संघराज्यीय	-11.3623
▁संप्रेषण	-11.3623
▁साहजिक	-11.3623
▁सिक्वेन्स	-11.3623
▁सेक्टर	-11.3623
▁सेल्शिय	-11.3623
▁हरयाणा	-11.3623
▁हिंगोली	-11.3623
ect	-11.3623
थ्रोम	-11.3623
हैद्राबाद	-11.3623
्नॉलॉजी	-11.3623
▁अॅलर्जी	-11.3623
▁ऑर्गनायझेशन	-11.3623
▁ऑस्ट्रिया	-11.3623
▁टाइम्स	-11.3623
▁तारखा	-11.3623
▁पध्दती	-11.3623
▁पीटीआय	-11.3623
▁बांगलादेश	-11.3623
▁वाईप्स	-11.3623
▁विकिमिडिया	-11.3623
▁वेन्टिलेटर	-11.3623
▁साशंकता	-11.3623
▁सेरेब्र	-11.3623
▁स्वीडन	-11.3623
▁हद्दीत	-11.3623
▁हाईड्र	-11.3623
illa	-11.3623
▁इंजिनिअर	-11.3623
▁पवित्र	-11.3623
▁फिजीशि	-11.3623
▁योद्ध	-11.3623
ॅमिनो	-11.3623
▁एकंदरीत	-11.3623
▁जळगाव	-11.3623
▁धमकी	-11.3623
▁पत्कर	-11.3623
▁फ्रीज	-11.3623
▁प्राध्या	-11.3623
▁भरपाई	-11.3623
▁हिंदु	-11.3623
▁अपडेट	-11.3623
▁आस्थापने	-11.3623
▁कसरत	-11.3623
▁काउंट	-11.3623
▁कोरीया	-11.3623
▁सारांश	-11.3623
▁हंगेर	-11.3623
▁हलवण्या	-11.3623
▁होईना	-11.3623
▁उपायुक्त	-11.3623
▁गळती	-11.3623
▁हल्ल्या	-11.3623
▁लोढा	-11.3623
डीएनए	-11.3623
तिनिधि	-11.3623
▁पोहोचवणं	-11.3623
▁बोटीवर	-11.3623
▁लांबणीवर	-11.3623
▁व्हाईट	-11.3623
ेष्ठ	-11.3623
▁पिढी	-11.3623
▁साखरेच	-11.3623
▁फटकारलं	-11.3623
▁मशिन	-11.3623
▁मिसळ	-11.3623
IMA	-11.3623
▁घरकाम	-11.3623
▁क्वचित	-11.3623
▁संचालन	-11.3623
ॅॅब	-11.3623
झाईम	-11.3623
▁अजुन	-11.3623
▁काल्प	-11.3623
▁बुरशी	-11.3623
▁बसवणे	-11.3623
▁कामानिमित्त	-11.3623
▁कैद	-11.3623
▁तितकी	-11.3623
▁शंभर	-11.3623
ायटिस	-11.3623
▁कागदपत्रां	-11.3623
▁बलराम	-11.3623
▁भाषेत	-11.3623
वासीयां	-11.3623
▁पडद्या	-11.3623
▁लावणं	-11.3623
▁चैत	-11.3623
▁तितके	-11.3623
▁दर्शविले	-11.3623
▁बळकट	-11.3623
▁खाल्ल्या	-11.3623
निरीक्षक	-11.3623
क्राळ	-11.3624
▁अनुयाय	-11.3624
▁तितका	-11.3624
▁सार्व	-11.3624
टर्की	-11.3624
फर्स्ट	-11.3624
विकेंड	-11.3625
्वेलर	-11.3625
▁मृत्युदारा	-11.3626
▁धुरा	-11.3626
▁दरवाजा	-11.3628
▁समर्प	-11.3629
▁जाणकारांच	-11.3629
▁धुळ	-11.363
▁भक्तां	-11.363
बैद	-11.363
▁नोंदविले	-11.363
▁पोहोचवता	-11.3631
नुष्य	-11.3634
सबुक	-11.3643
पुण्य	-11.3645
लक्ष्मी	-11.3649
प्रेरण	-11.3662
▁चोळण्या	-11.3668
▁काढाव	-11.3743
▁प्रतिपिंडांच	-11.3807
खात्याच	-11.3872
▁ऑस्ट्रेलिय	-11.3946
▁सुविधांच	-11.4043
▁जिल्ह्यांच	-11.4131
▁उत्पादकांन	-11.4148
▁पाश्	-11.4234
▁अर्थमंत्र	-11.4651
▁सर्वसामान्यां	-11.4811
▁कार्यक्रमांच	-11.4868
▁ठाण्या	-11.5046
अंतरा	-11.5117
▁विदर्भ	-11.5212
▁फुटांच	-11.5266
▁संशोधकांन	-11.5345
शुल्क	-11.5459
अॅस्ट्राझेनका	-11.5459
कोव्हिशिल्ड	-11.546
कार्यालय	-11.546
ICU	-11.5461
स्ट्रेन	-11.5461
संशयित	-11.5461
रेमडेसिविर	-11.5461
पुढील	-11.5462
“	-12.6298
ऐ	-12.7539
‘	-12.754
ौ	-12.7541
औ	-12.7542
ऱ	-12.7543
ॉ	-12.7544
