<pad>	0
</s>	0
<unk>	0
▁the	-3.4536
.	-3.4644
,	-3.48664
s	-3.64762
▁and	-3.91695
▁to	-3.92472
▁	-3.93739
▁of	-3.94211
▁a	-4.34674
▁in	-4.35881
ing	-4.40796
ed	-4.60454
-	-4.72745
▁for	-4.91421
▁you	-4.92773
▁with	-5.04128
e	-5.07401
▁your	-5.078
▁covid	-5.13301
▁is	-5.1444
▁or	-5.16854
▁The	-5.23093
-19	-5.26581
d	-5.30083
▁that	-5.31334
▁on	-5.32486
y	-5.32604
▁be	-5.33585
▁are	-5.34516
▁have	-5.40121
ly	-5.42468
▁cases	-5.44196
▁as	-5.4614
▁from	-5.4962
t	-5.54032
f	-5.54545
▁(	-5.57705
▁were	-5.62023
▁not	-5.63348
p	-5.72145
a	-5.73975
al	-5.75919
n	-5.79344
▁will	-5.87399
m	-5.88262
r	-5.88523
▁by	-5.89447
▁s	-5.90523
▁A	-5.90938
▁people	-5.91245
▁at	-5.9684
)	-5.97223
▁can	-6.00988
▁virus	-6.02334
▁I	-6.04792
▁if	-6.06765
'	-6.08253
▁was	-6.08695
▁it	-6.0933
▁has	-6.10178
▁who	-6.10419
er	-6.13497
cov	-6.13868
▁health	-6.15061
▁been	-6.15745
ir	-6.16772
▁deaths	-6.17185
in	-6.17506
c	-6.17873
▁reported	-6.18725
▁may	-6.19741
▁an	-6.21704
o	-6.23259
i	-6.23879
u	-6.25423
:	-6.27512
▁symptoms	-6.30242
▁other	-6.34359
▁You	-6.34522
▁sars	-6.38681
▁contact	-6.43446
▁test	-6.44946
▁more	-6.46453
b	-6.47977
▁should	-6.50936
▁this	-6.52002
▁do	-6.53803
▁march	-6.54589
▁de	-6.55799
▁number	-6.56855
▁disease	-6.58423
▁coronavirus	-6.59569
▁also	-6.61048
▁vaccine	-6.64944
▁m	-6.65633
or	-6.66156
l	-6.66522
▁On	-6.66904
g	-6.67573
notified	-6.68069
on	-6.69032
▁It	-6.69185
st	-6.69428
▁2020	-6.69527
▁In	-6.69541
▁than	-6.70571
▁countries	-6.71868
▁about	-6.71869
ic	-6.72357
had	-6.72682
▁further	-6.72751
▁2	-6.73222
▁re	-6.73347
es	-6.74255
▁w	-6.76127
▁This	-6.76378
1	-6.76549
▁all	-6.76695
▁outbreak	-6.77946
ar	-6.78648
▁"	-6.78706
0	-6.78786
h	-6.7907
▁face	-6.79264
▁which	-6.80589
▁total	-6.80613
▁when	-6.80687
2	-6.80751
▁4	-6.81026
▁no	-6.81735
▁they	-6.81888
▁app	-6.82629
-2	-6.8376
w	-6.84057
▁one	-6.84182
uch	-6.84428
▁5	-6.84611
is	-6.84645
▁S	-6.85526
ce	-6.86136
se	-6.86678
▁use	-6.86969
▁pandemic	-6.87052
▁1	-6.87392
▁after	-6.87707
▁spread	-6.87848
▁C	-6.88848
▁home	-6.89154
▁risk	-6.89913
▁patients	-6.9102
▁time	-6.91426
▁3	-6.92782
▁public	-6.93007
▁need	-6.93654
le	-6.94414
▁get	-6.94487
ur	-6.94687
▁first	-6.95566
▁confirmed	-6.95691
▁infection	-6.98169
it	-6.98493
te	-6.99786
▁data	-7.00125
▁new	-7.00453
▁over	-7.01264
▁china	-7.01304
re	-7.02039
ers	-7.02185
ation	-7.02908
8	-7.03528
▁hands	-7.04209
▁some	-7.04897
▁bring	-7.05772
▁under	-7.06134
▁including	-7.06907
▁b	-7.08415
▁travel	-7.09277
▁but	-7.09919
v	-7.10515
an	-7.11026
3	-7.1104
▁case	-7.11972
due	-7.12596
9	-7.13046
▁c	-7.13115
▁child	-7.13179
▁february	-7.13853
▁us	-7.13971
en	-7.14191
ol	-7.15094
ion	-7.15175
▁cover	-7.15341
▁close	-7.15375
▁stay	-7.15435
▁high	-7.15915
▁them	-7.16292
"	-7.16501
▁care	-7.16758
▁days	-7.16762
ive	-7.1716
▁others	-7.18339
▁government	-7.1884
▁help	-7.19353
▁unit	-7.19441
▁any	-7.19959
▁two	-7.20062
il	-7.20493
▁these	-7.20814
;	-7.2295
▁/	-7.2295
4	-7.23128
▁f	-7.23981
▁B	-7.24289
▁those	-7.24427
▁person	-7.24554
ry	-7.24674
▁january	-7.25173
6	-7.25447
▁P	-7.25754
▁respirator	-7.25925
▁positive	-7.25927
am	-7.26209
▁un	-7.2688
th	-7.28389
▁school	-7.2893
▁previously	-7.2904
▁gp	-7.29229
▁most	-7.29275
at	-7.29369
▁available	-7.29775
▁day	-7.30812
ri	-7.30993
▁p	-7.31593
▁work	-7.32396
tion	-7.32762
▁up	-7.333
ent	-7.33311
▁protect	-7.33692
▁medical	-7.33772
▁infected	-7.34032
ould	-7.36145
▁tested	-7.36259
▁we	-7.36435
k	-7.37284
li	-7.37661
ve	-7.38331
▁transmission	-7.38794
▁dur	-7.39634
▁between	-7.39656
▁illness	-7.39668
out	-7.40214
ment	-7.40251
▁t	-7.40331
▁possible	-7.4058
▁go	-7.41348
▁advice	-7.41467
▁there	-7.41705
▁april	-7.4318
▁–	-7.4318
▁10	-7.43478
▁million	-7.4499
▁children	-7.45008
▁hospital	-7.45097
▁wear	-7.45114
▁8	-7.4555
▁-	-7.45593
ity	-7.46211
id	-7.46236
▁Do	-7.47319
ro	-7.47624
▁9	-7.47927
▁out	-7.47978
▁states	-7.48227
▁so	-7.48626
▁could	-7.48808
▁treatment	-7.49685
▁its	-7.49763
▁restrictions	-7.4995
▁severe	-7.50862
▁country	-7.51619
▁20	-7.52391
▁response	-7.52577
▁only	-7.52655
▁social	-7.52659
▁14	-7.53283
▁6	-7.53351
-19.	-7.53384
▁ireland	-7.53567
▁world	-7.53567
us	-7.53986
▁announced	-7.54567
▁u	-7.54799
ad	-7.55036
).	-7.55168
ight	-7.55319
▁into	-7.55641
5	-7.56342
▁T	-7.56488
▁through	-7.56602
▁result	-7.57088
▁call	-7.5774
▁human	-7.58395
▁while	-7.5867
▁well	-7.58772
ia	-7.58957
▁measures	-7.59
7	-7.59079
et	-7.59676
ies	-7.59707
▁death	-7.60331
▁g	-7.61076
many	-7.62812
),	-7.62829
▁how	-7.62977
able	-7.63044
▁system	-7.6363
▁take	-7.63762
▁away	-7.6437
▁before	-7.6518
▁st	-7.65508
ine	-7.65792
ter	-7.65835
el	-7.66373
um	-7.66459
▁food	-7.66502
▁testing	-7.67012
▁host	-7.67144
▁i	-7.68029
▁19	-7.6807
▁mask	-7.68282
▁M	-7.68345
▁information	-7.68586
▁someone	-7.68601
▁make	-7.68741
▁7	-7.69408
▁same	-7.69743
the	-7.70009
▁vaccines	-7.70096
▁being	-7.71054
▁where	-7.71213
▁cause	-7.71932
▁As	-7.72024
▁national	-7.72098
▁community	-7.72101
▁v	-7.72513
▁We	-7.74409
▁against	-7.74568
▁relat	-7.75106
▁used	-7.75181
ra	-7.75448
▁emergency	-7.75831
ll	-7.76281
▁include	-7.7636
▁F	-7.76787
ous	-7.768
to	-7.7687
▁wuhan	-7.77007
om	-7.77183
▁e	-7.77342
ate	-7.77503
▁show	-7.77961
ct	-7.78081
▁There	-7.78157
ul	-7.78389
▁schools	-7.78712
▁large	-7.79555
▁early	-7.79555
▁fever	-7.79588
▁hcov	-7.79651
▁di	-7.80459
ng	-7.80494
▁services	-7.80628
▁When	-7.80865
ting	-7.81232
▁students	-7.81291
▁non	-7.81348
▁per	-7.81631
ian	-7.81773
▁11	-7.82054
lo	-7.82117
▁visit	-7.82169
tic	-7.82957
ide	-7.83539
▁nose	-7.83869
▁conditions	-7.84096
ther	-7.84358
▁24	-7.8467
▁support	-7.84854
▁italy	-7.84993
x	-7.85047
▁phone	-7.85299
▁live	-7.85895
z	-7.8598
▁found	-7.86224
▁doctor	-7.86224
▁june	-7.8623
un	-7.86476
▁place	-7.867
▁humans	-7.86908
▁d	-7.86923
▁age	-7.86978
▁hand	-7.87314
▁long	-7.87396
▁what	-7.87613
▁issued	-7.87613
▁mers	-7.8795
▁ma	-7.88806
▁restrict	-7.88912
▁least	-7.89021
▁areas	-7.89261
▁service	-7.89265
▁share	-7.89374
im	-7.89491
▁he	-7.89523
▁con	-7.89981
▁n	-7.90449
▁important	-7.9045
▁12	-7.90584
▁known	-7.90723
▁give	-7.90823
all	-7.91154
▁surveillance	-7.91911
▁keep	-7.91916
▁south	-7.91969
▁clinical	-7.92048
est	-7.92547
▁hse	-7.92602
▁infections	-7.92699
less	-7.93162
▁self	-7.93371
▁chest	-7.93372
ch	-7.93427
▁15	-7.93539
▁movements	-7.93747
▁prevent	-7.94782
▁population	-7.94862
▁attend	-7.94863
▁healthcare	-7.94926
▁chinese	-7.95121
▁control	-7.95195
la	-7.95559
▁2019	-7.95576
based	-7.95597
ute	-7.95632
▁O	-7.9567
▁down	-7.96222
▁quarantine	-7.9629
?	-7.96377
▁pain	-7.96552
▁around	-7.96611
▁open	-7.9664
00	-7.97084
▁avoid	-7.97916
▁appointment	-7.97916
▁until	-7.97916
▁much	-7.98333
age	-7.98395
▁ac	-7.98802
▁workers	-7.98862
ness	-7.9919
▁years	-7.99483
▁affected	-8.00019
▁level	-8.00041
▁part	-8.0032
iv	-8.00423
rt	-8.00456
▁able	-8.00707
▁education	-8.0074
▁ca	-8.01022
▁remain	-8.01066
▁For	-8.01101
▁flu	-8.01105
▁centre	-8.0169
▁closures	-8.01818
▁E	-8.01854
▁follow	-8.02024
▁H	-8.02576
0%	-8.02678
▁’	-8.02678
▁common	-8.02679
▁every	-8.02716
▁co	-8.03021
▁bats	-8.0312
▁viruses	-8.03701
▁ex	-8.03801
na	-8.03832
▁following	-8.03923
▁com	-8.04206
▁D	-8.04211
▁immun	-8.04257
▁23	-8.04305
▁cough	-8.04741
▁masks	-8.04743
ial	-8.04768
▁closed	-8.05552
▁safe	-8.05969
▁feel	-8.05985
▁However	-8.05996
ig	-8.06205
ary	-8.06598
ck	-8.06878
ance	-8.06942
▁receive	-8.07171
very	-8.07568
▁13	-8.07599
▁effective	-8.07693
as	-8.07709
vel	-8.08052
▁po	-8.08414
not	-8.08455
ence	-8.08663
,000	-8.08698
▁even	-8.0899
▁dublin	-8.09403
▁study	-8.09403
▁international	-8.09407
▁usual	-8.09422
▁mouth	-8.09437
▁state	-8.09799
▁hours	-8.09847
▁provide	-8.10653
▁ra	-8.10798
▁december	-8.11158
qu	-8.11218
▁k	-8.1153
▁our	-8.12573
old	-8.12771
viral	-8.12803
▁18	-8.12925
▁because	-8.12944
▁among	-8.13161
▁tracking	-8.13316
▁recommended	-8.13661
▁results	-8.13893
ne	-8.13935
▁see	-8.14212
▁al	-8.14681
▁contain	-8.14699
▁pre	-8.14731
▁current	-8.14762
▁major	-8.14762
▁alert	-8.14765
▁last	-8.14843
▁200	-8.15208
▁pa	-8.15243
▁clean	-8.15353
▁weeks	-8.15519
▁week	-8.15557
▁order	-8.15679
▁Rea	-8.15808
▁often	-8.1583
▁epidemic	-8.16613
▁example	-8.16613
cross	-8.16618
▁pro	-8.16643
▁both	-8.16658
▁meter	-8.16682
▁like	-8.17303
che	-8.17746
▁blood	-8.185
▁body	-8.18674
▁another	-8.18691
▁group	-8.19732
▁Some	-8.20211
▁negative	-8.20423
▁great	-8.20424
▁must	-8.20426
j	-8.20436
▁16	-8.20761
▁30	-8.21732
▁protein	-8.21821
ie	-8.21893
▁declar	-8.22384
▁three	-8.22385
▁different	-8.22386
▁made	-8.22424
▁especially	-8.22483
▁way	-8.22496
▁cold	-8.2271
▁higher	-8.23014
▁22	-8.23096
ions	-8.23102
▁car	-8.23106
ose	-8.23122
vi	-8.23242
▁reduce	-8.2387
ge	-8.23991
▁form	-8.24168
▁me	-8.24266
▁second	-8.24354
▁family	-8.24384
▁local	-8.24385
▁r	-8.25017
▁less	-8.25067
▁events	-8.25205
▁Co	-8.25328
▁don	-8.25692
up	-8.25829
ally	-8.25886
▁bat	-8.26102
▁department	-8.26425
▁Covid	-8.26425
▁impact	-8.26436
ca	-8.26535
▁lockdown	-8.26897
and	-8.27007
▁origin	-8.2762
▁similar	-8.28508
▁european	-8.28554
▁four	-8.28573
▁To	-8.28618
ts	-8.28774
ac	-8.28839
oc	-8.29216
▁does	-8.29301
if	-8.29883
▁come	-8.30195
▁caus	-8.30524
ci	-8.30596
▁short	-8.30604
▁yourself	-8.30636
▁advis	-8.30636
▁But	-8.30638
▁since	-8.30639
▁water	-8.3064
▁organization	-8.30643
▁safety	-8.30668
▁touch	-8.3068
▁rna	-8.30682
▁Re	-8.31398
▁end	-8.31409
ab	-8.31624
ical	-8.31645
tra	-8.31697
cu	-8.32027
▁increase	-8.32301
ver	-8.3245
▁infectious	-8.3281
▁research	-8.3281
▁staff	-8.3281
▁phase	-8.32812
▁still	-8.32855
cal	-8.33092
▁eu	-8.33316
ish	-8.33694
▁2020.	-8.33696
▁low	-8.33832
ty	-8.344
▁center	-8.3471
▁return	-8.35032
▁worldwide	-8.35032
▁having	-8.35033
▁normal	-8.35049
▁each	-8.3507
▁fines	-8.3509
▁Mo	-8.35115
ated	-8.35274
▁dis	-8.35499
▁global	-8.36849
▁sh	-8.36948
▁report	-8.36972
co	-8.37203
▁pneumonia	-8.37305
▁period	-8.37305
▁team	-8.37312
▁rate	-8.37331
land	-8.3786
▁required	-8.37925
▁detected	-8.38003
▁covs	-8.38405
▁tests	-8.38925
de	-8.3901
▁26	-8.39079
▁identified	-8.3963
▁outside	-8.39633
ip	-8.39693
▁near	-8.39695
▁hcovs	-8.39696
▁enter	-8.39698
▁meet	-8.39703
▁right	-8.39709
▁tracker	-8.3981
▁city	-8.39851
▁specific	-8.39935
▁likely	-8.40197
▁ro	-8.40334
▁h	-8.40347
▁individuals	-8.40682
▁washing	-8.40859
▁diseases	-8.41387
▁transport	-8.41918
▁wash	-8.41983
▁laboratory	-8.42013
▁house	-8.42032
▁however	-8.4205
▁said	-8.42065
▁list	-8.42187
▁lower	-8.42251
▁county	-8.42374
han	-8.42668
▁No	-8.42693
▁received	-8.42752
▁breath	-8.43207
▁trials	-8.43807
▁ill	-8.44048
▁28	-8.44092
▁drug	-8.44278
▁late	-8.44337
▁healthy	-8.44363
▁Stay	-8.4445
▁equipment	-8.4445
▁suspect	-8.44451
▁2021	-8.44451
▁mild	-8.44453
▁stop	-8.44459
▁sign	-8.44614
▁uk	-8.4462
▁genome	-8.44762
▁l	-8.44903
ttle	-8.45251
▁developed	-8.4529
ma	-8.45323
▁personal	-8.45509
-19,	-8.45719
▁17	-8.46038
▁samples	-8.46426
▁know	-8.46647
inister	-8.46816
▁corona	-8.46949
▁economi	-8.4695
▁suggest	-8.4695
▁wait	-8.46952
▁sick	-8.46952
▁back	-8.46993
mo	-8.47009
▁date	-8.47075
▁signs	-8.47104
ory	-8.47229
▁online	-8.47335
▁25	-8.47514
▁increased	-8.4754
ph	-8.47631
▁sure	-8.4784
our	-8.48244
▁recommend	-8.48494
▁allow	-8.48513
ell	-8.48662
▁ho	-8.4878
ill	-8.49046
▁sever	-8.49104
for	-8.49113
▁li	-8.49486
▁How	-8.49497
5%	-8.49514
▁associated	-8.49514
▁syndrome	-8.49514
▁baby	-8.49515
▁Wash	-8.49516
▁influenza	-8.49516
▁daily	-8.49519
▁vaccinated	-8.49743
▁main	-8.49913
be	-8.50057
▁year	-8.50217
▁o	-8.50624
▁limit	-8.51132
▁sa	-8.51326
▁21	-8.51842
▁times	-8.51847
▁direct	-8.52014
▁vaccination	-8.52146
43	-8.52226
▁tr	-8.5223
▁properly	-8.52308
▁development	-8.52331
▁De	-8.52341
▁learning	-8.5237
▁five	-8.52452
use	-8.52498
▁later	-8.52502
▁inter	-8.52637
gu	-8.52703
▁far	-8.52997
▁start	-8.53826
po	-8.54017
act	-8.5416
▁continue	-8.54328
▁Al	-8.54433
▁cyberattack	-8.54849
▁distancing	-8.54849
▁evidence	-8.54849
▁own	-8.54849
▁Open	-8.54849
▁worse	-8.5485
▁official	-8.54933
eep	-8.55096
▁cell	-8.55144
tensive	-8.55158
▁stated	-8.55713
we	-8.55908
covid	-8.56318
ize	-8.56961
▁places	-8.57301
▁korea	-8.5731
ice	-8.57317
ontact	-8.57551
▁treat	-8.57575
▁cluster	-8.57627
▁sneezing	-8.57627
▁perform	-8.57627
▁access	-8.57627
▁mobil	-8.57627
▁women	-8.57627
▁few	-8.57629
▁separation	-8.57638
ling	-8.57748
▁prevention	-8.57777
▁animal	-8.57824
▁astrazeneca	-8.57834
▁hu	-8.57869
ef	-8.58076
▁put	-8.58977
ib	-8.59236
ase	-8.5931
▁effects	-8.60044
▁vari	-8.60405
eople	-8.60411
▁occur	-8.6048
▁exercise	-8.60484
▁type	-8.60484
▁source	-8.60485
▁potential	-8.60491
▁intermedia	-8.60491
▁variant	-8.60503
▁extend	-8.60629
▁name	-8.60631
▁cho	-8.6065
▁present	-8.60785
▁called	-8.60808
▁Man	-8.60866
▁And	-8.61012
▁change	-8.61204
though	-8.61417
▁groups	-8.61524
▁months	-8.61622
▁sent	-8.61654
▁done	-8.61659
▁An	-8.61802
mental	-8.62051
▁br	-8.62383
▁affect	-8.62408
ru	-8.62473
▁needs	-8.62568
▁doses	-8.62841
1,	-8.62906
▁immediate	-8.62976
▁small	-8.63425
▁already	-8.63425
▁antibodies	-8.63425
▁particular	-8.63425
▁lung	-8.63425
▁distance	-8.63425
▁outdoor	-8.63432
▁history	-8.63439
▁his	-8.63559
▁add	-8.63635
▁become	-8.63768
▁develop	-8.6394
▁now	-8.64082
▁'	-8.64303
ov	-8.6439
me	-8.64761
▁anti	-8.64798
▁50	-8.65186
▁bo	-8.65794
▁authorities	-8.66455
▁exposure	-8.66455
▁natural	-8.66455
▁significant	-8.66455
▁temperature	-8.66455
▁primary	-8.66482
▁pass	-8.66579
▁ha	-8.66611
com	-8.66645
▁estimated	-8.66673
▁free	-8.66711
▁effect	-8.66847
▁media	-8.67528
essential	-8.67605
ex	-8.6779
▁ask	-8.67886
▁man	-8.68015
ccording	-8.6825
ever	-8.68301
▁par	-8.68315
▁ser	-8.68359
▁essential	-8.68408
▁levels	-8.68485
▁whe	-8.69186
io	-8.69207
▁plan	-8.69482
▁sub	-8.69521
▁process	-8.6958
▁initial	-8.69584
.30	-8.69597
ating	-8.69602
▁arrange	-8.69687
▁general	-8.69729
▁pregnant	-8.6974
▁find	-8.69828
▁protection	-8.69893
▁critical	-8.69907
▁details	-8.69967
▁side	-8.70375
ach	-8.7066
like	-8.70878
▁centres	-8.71591
▁29	-8.71678
▁practices	-8.71699
▁collect	-8.7191
▁cov	-8.72001
▁addition	-8.72186
end	-8.72225
▁27	-8.72661
nt	-8.72678
▁31	-8.72749
▁hygiene	-8.72806
▁shopping	-8.72806
▁serious	-8.72806
▁area	-8.72824
▁workplace	-8.72832
▁alone	-8.72847
▁just	-8.72881
▁count	-8.73004
▁la	-8.73019
ok	-8.73116
▁slow	-8.73117
▁minister	-8.73226
▁immediately	-8.73302
▁rates	-8.7333
▁sample	-8.73489
▁then	-8.7363
one	-8.74114
▁spreading	-8.74131
▁aged	-8.74156
▁means	-8.74187
coronavirus	-8.74189
▁according	-8.74199
line	-8.74227
▁breathing	-8.74486
term	-8.74643
▁dose	-8.74652
▁detect	-8.75119
▁Don	-8.75918
▁household	-8.76139
▁Follow	-8.76139
▁special	-8.76139
▁onset	-8.76195
▁cancelled	-8.76435
▁secondary	-8.76497
▁chi	-8.76525
ized	-8.76565
▁eas	-8.77117
ha	-8.77125
▁best	-8.77151
229	-8.77325
▁coronaviruses	-8.77356
▁air	-8.77357
▁provided	-8.77474
low	-8.77606
risk	-8.77686
gra	-8.78543
▁Th	-8.78752
▁east	-8.79156
ld	-8.79311
▁animals	-8.79343
▁adapt	-8.79494
▁adults	-8.79588
▁executive	-8.79588
▁pregnancy	-8.79588
▁crowd	-8.79588
▁hotel	-8.79588
▁season	-8.79589
▁rsc	-8.79599
▁president	-8.79607
▁good	-8.79609
▁post	-8.79928
▁leave	-8.80134
▁trial	-8.80555
ten	-8.80743
▁factors	-8.8077
▁eyes	-8.80782
▁systems	-8.80925
▁limited	-8.80955
ful	-8.80956
".	-8.80999
48	-8.81073
▁india	-8.81242
ake	-8.81294
day	-8.81304
▁too	-8.81365
."	-8.81917
con	-8.82266
ological	-8.82716
▁again	-8.83024
▁brazil	-8.83159
▁crisis	-8.83159
▁necessary	-8.83159
rcgp	-8.83159
▁location	-8.83159
▁attack	-8.8316
▁talk	-8.8316
▁monday	-8.83167
▁drink	-8.83175
ability	-8.83179
▁gardaí	-8.83183
▁cloth	-8.83187
▁update	-8.832
▁room	-8.83228
▁require	-8.8325
▁Other	-8.83257
▁tell	-8.83263
▁published	-8.83328
▁director	-8.8333
bi	-8.83424
▁officer	-8.8343
▁send	-8.83538
▁read	-8.83612
▁screening	-8.83686
▁longer	-8.83728
▁depend	-8.83967
▁causes	-8.84039
▁hosts	-8.84254
▁los	-8.84787
isolation	-8.84866
relat	-8.85026
fen	-8.85054
▁surfaces	-8.85193
0,000	-8.85235
▁term	-8.85343
35	-8.85954
▁shar	-8.86328
▁europe	-8.8678
▁iran	-8.86846
▁mortality	-8.86863
4%	-8.86863
▁breach	-8.86863
▁zoono	-8.86863
▁hubei	-8.86864
▁check	-8.86864
▁delay	-8.86865
▁left	-8.86869
▁appear	-8.86869
▁north	-8.8688
▁analysis	-8.86886
▁Wear	-8.87211
▁third	-8.8728
di	-8.87792
▁set	-8.8793
▁concern	-8.88013
18	-8.8806
▁proteins	-8.88136
▁asked	-8.88141
mit	-8.88278
▁nurs	-8.88452
▁le	-8.88524
63	-8.8855
▁j	-8.88819
pm	-8.89106
13	-8.89678
▁controls	-8.89692
▁coughing	-8.89728
▁numbers	-8.90133
ud	-8.90148
▁office	-8.90429
ocial	-8.9045
▁cells	-8.90506
▁activity	-8.90709
▁citizens	-8.90709
▁reservoir	-8.90709
▁pressure	-8.90709
▁seven	-8.90712
▁began	-8.90713
▁life	-8.90713
▁paper	-8.90713
▁drive	-8.90713
▁soap	-8.90713
▁figures	-8.90728
▁What	-8.90737
▁tract	-8.90741
▁taking	-8.90749
▁everyone	-8.90751
▁beta	-8.90755
▁lead	-8.90769
▁imp	-8.90784
▁mich	-8.90785
▁That	-8.90785
▁asymptomatic	-8.90793
▁severity	-8.90799
ities	-8.90879
▁He	-8.90932
▁dry	-8.90959
ative	-8.91089
▁mid	-8.91273
▁guidelines	-8.91402
▁her	-8.91419
tory	-8.91671
▁try	-8.9183
▁cdc	-8.91922
▁patient	-8.92082
ted	-8.92092
▁practice	-8.92093
▁handl	-8.92156
▁experience	-8.92169
▁started	-8.922
▁persons	-8.9274
go	-8.92968
▁recover	-8.93165
▁em	-8.93477
▁record	-8.93671
▁died	-8.93933
▁america	-8.94397
▁Use	-8.94602
▁certificate	-8.94709
▁enough	-8.94709
▁receptor	-8.94709
▁studies	-8.94709
▁technology	-8.94709
▁billion	-8.94709
▁increasing	-8.94709
▁Health	-8.94709
▁feet	-8.94711
hku	-8.94714
▁older	-8.94718
▁physical	-8.9472
▁university	-8.94722
▁multiple	-8.94723
▁mandatory	-8.94734
▁range	-8.94735
▁design	-8.94748
▁phe	-8.94773
▁cities	-8.94799
▁approximate	-8.94847
fter	-8.94878
ital	-8.94941
▁six	-8.94992
▁considered	-8.95298
37	-8.96273
of	-8.96483
▁fa	-8.96607
▁sequence	-8.97009
▁serve	-8.97057
▁liv	-8.97643
via	-8.9783
▁ne	-8.9815
20	-8.98209
▁hospitals	-8.98304
▁clinic	-8.98473
ily	-8.98503
▁africa	-8.98566
▁diagnosis	-8.98876
▁future	-8.98876
▁throat	-8.98876
▁middle	-8.98876
▁protest	-8.98876
▁heart	-8.98877
▁strain	-8.98877
▁toilet	-8.98882
▁single	-8.98907
ning	-8.99153
▁offer	-8.99183
▁rapidly	-8.99213
▁isolated	-8.99286
▁taken	-9.00067
▁arr	-9.00302
▁species	-9.00468
▁market	-9.00517
▁region	-9.0054
sars	-9.01895
▁monitor	-9.01954
▁arriv	-9.01983
▁infect	-9.02106
way	-9.02228
covs	-9.02267
▁eat	-9.02291
ways	-9.02709
ology	-9.02823
hildren	-9.03139
▁Late	-9.03223
▁certain	-9.03223
▁foot	-9.03223
▁situation	-9.03223
▁address	-9.03223
▁fatality	-9.03223
▁progress	-9.03223
▁france	-9.03224
▁course	-9.03224
▁prepar	-9.03224
▁Coronavirus	-9.03224
▁maintain	-9.03224
▁walk	-9.03225
▁camels	-9.03226
▁ensure	-9.03234
▁virology	-9.03234
▁unknown	-9.03235
▁Sars	-9.03249
▁assessment	-9.03283
▁childcare	-9.03295
▁mass	-9.03454
▁fall	-9.03529
▁soon	-9.03842
38	-9.0407
▁reopening	-9.04267
ition	-9.04299
▁disinfect	-9.04858
▁allowed	-9.05013
tric	-9.05483
▁ple	-9.05667
▁working	-9.057
isolate	-9.05813
high	-9.05815
tro	-9.05988
▁line	-9.06094
ern	-9.06834
vas	-9.0689
hse	-9.06981
▁changes	-9.07247
▁assess	-9.07713
ility	-9.07731
▁Un	-9.07767
▁Get	-9.07769
▁Go	-9.07769
▁describ	-9.07769
▁efficacy	-9.07769
▁elderly	-9.07769
▁foreign	-9.07769
▁minutes	-9.07769
▁province	-9.07769
▁supply	-9.07769
▁think	-9.07769
▁tissue	-9.07769
pfizer	-9.07769
▁droplets	-9.07769
▁text	-9.07769
▁swab	-9.0777
▁function	-9.0777
▁demand	-9.0777
▁warn	-9.07777
▁genetic	-9.07794
▁antiviral	-9.07815
▁extra	-9.07841
▁shortage	-9.07845
▁want	-9.07874
▁chain	-9.07934
▁containment	-9.07939
▁highest	-9.08031
▁relative	-9.0807
▁drugs	-9.08095
▁difficulty	-9.08175
▁removed	-9.08213
▁wide	-9.08255
▁pathogenic	-9.08359
▁60	-9.08365
▁reduced	-9.08983
▁col	-9.09332
▁included	-9.0969
▁happen	-9.09824
▁surface	-9.09865
▁symptom	-9.09907
▁news	-9.09953
▁residents	-9.10133
▁ten	-9.1042
▁union	-9.10515
efore	-9.10842
ix	-9.10849
ark	-9.10901
ested	-9.1113
▁ja	-9.11512
▁contacts	-9.1164
▁going	-9.11716
going	-9.12106
member	-9.12479
▁college	-9.12531
▁diarrhea	-9.12531
▁nationwide	-9.12531
▁saturday	-9.12531
▁supplies	-9.12531
▁express	-9.12531
▁sunday	-9.12531
▁japan	-9.12531
▁reason	-9.12531
▁Clean	-9.12531
▁clear	-9.12534
▁things	-9.12535
▁occurred	-9.12536
▁else	-9.12542
▁begin	-9.12543
▁commission	-9.12558
▁ship	-9.12583
sense	-9.12655
▁store	-9.1266
▁reach	-9.12723
▁Be	-9.13101
▁ye	-9.13421
▁parents	-9.13532
cle	-9.13601
▁medicines	-9.13665
table	-9.13819
▁efforts	-9.13934
ree	-9.13983
47	-9.14049
▁provider	-9.14259
▁en	-9.14483
95	-9.14603
ppe	-9.14977
▁ordered	-9.15278
▁code	-9.15384
▁she	-9.15935
50	-9.16079
care	-9.16084
▁Ch	-9.1615
▁40	-9.16441
put	-9.16657
▁leav	-9.16738
65	-9.16841
▁Ma	-9.16886
man	-9.17278
q	-9.1734
▁Sh	-9.17475
▁prior	-9.17527
▁amount	-9.17531
▁diabetes	-9.17531
▁expert	-9.17531
▁families	-9.17531
▁november	-9.17531
▁sneeze	-9.17531
▁vulnerable	-9.17531
▁friday	-9.17531
▁message	-9.17531
▁passenger	-9.17531
▁regard	-9.17531
▁stephen	-9.17531
▁crown	-9.17531
▁model	-9.17531
▁straight	-9.17531
▁trump	-9.17532
▁birth	-9.17532
▁half	-9.17534
▁smoke	-9.17534
▁better	-9.1754
▁entry	-9.1754
▁Mak	-9.17552
central	-9.17569
▁findings	-9.17583
▁members	-9.17585
▁approved	-9.17791
▁kit	-9.17816
▁nas	-9.17869
ference	-9.1796
.5	-9.18026
▁includes	-9.18079
▁restaurants	-9.18162
▁generally	-9.18267
▁4,9	-9.18418
▁my	-9.18688
▁vir	-9.18858
▁notice	-9.19144
lia	-9.19176
cy	-9.19524
ack	-9.19843
tant	-9.20328
ven	-9.20422
br	-9.20449
▁regions	-9.2072
species	-9.20807
▁resident	-9.20917
99	-9.20922
66	-9.21096
most	-9.21144
▁Spe	-9.21172
▁governments	-9.21335
▁worker	-9.21596
▁reopen	-9.21599
lan	-9.2182
33	-9.21882
▁refer	-9.22101
▁remove	-9.2228
▁full	-9.22297
nl	-9.22338
▁recent	-9.22341
▁activities	-9.22794
▁decrease	-9.22794
▁encourag	-9.22794
▁kingdom	-9.22794
▁mutation	-9.22794
▁protocol	-9.22794
▁retail	-9.22794
▁review	-9.22794
▁schedule	-9.22794
▁vector	-9.22794
▁closing	-9.22794
▁evacuat	-9.22794
▁entire	-9.22794
▁feature	-9.22794
▁standard	-9.22794
spect	-9.22794
▁determine	-9.22794
▁shut	-9.22796
▁chance	-9.22797
▁universities	-9.22798
▁training	-9.22804
▁eea	-9.22805
organ	-9.22925
▁anyone	-9.22929
▁law	-9.22978
▁Sever	-9.22988
▁weight	-9.23148
▁released	-9.23256
▁mak	-9.23486
10	-9.23631
▁centers	-9.23869
15	-9.24109
▁recovered	-9.2419
▁Du	-9.24253
▁isolate	-9.24605
▁estimates	-9.24813
▁emerg	-9.2489
▁aid	-9.24918
▁quarantined	-9.25075
▁isolation	-9.25731
elly	-9.26061
▁closure	-9.26331
who	-9.26402
came	-9.26413
stay	-9.26419
public	-9.26501
▁cleaning	-9.26531
▁100	-9.26549
▁produc	-9.26607
▁ital	-9.26996
▁plans	-9.27408
artin	-9.27541
ash	-9.27549
▁cons	-9.27778
▁difficult	-9.27797
sure	-9.2787
▁rapid	-9.27899
45	-9.28079
▁aim	-9.28213
▁inform	-9.28275
▁Lo	-9.28304
▁Ne	-9.28324
▁prim	-9.28332
▁chron	-9.28349
acetam	-9.28349
diagnosed	-9.28349
▁With	-9.28349
▁above	-9.28349
▁australia	-9.28349
▁biontech	-9.28349
▁contract	-9.28349
▁facilities	-9.28349
▁failure	-9.28349
▁institute	-9.28349
▁problem	-9.28349
▁quickly	-9.28349
▁receiving	-9.28349
▁teachers	-9.28349
▁themselves	-9.28349
▁ventilation	-9.28349
▁breast	-9.28349
▁discuss	-9.2835
▁except	-9.2835
▁russia	-9.2835
▁germany	-9.2835
▁internet	-9.2835
▁job	-9.2835
▁johnson	-9.28351
▁dispos	-9.28354
nique	-9.28354
▁inciden	-9.28357
▁exist	-9.28359
36	-9.2836
▁homes	-9.28364
▁regulations	-9.28364
▁identi	-9.28403
▁disinfectant	-9.28427
▁careful	-9.28479
▁cent	-9.28517
▁leg	-9.28565
▁4,8	-9.28715
▁african	-9.28766
▁fight	-9.28801
▁recently	-9.28832
▁cost	-9.28897
sk	-9.28934
▁dig	-9.29113
▁involved	-9.29118
▁criticis	-9.2914
▁easy	-9.29191
▁donn	-9.29232
▁move	-9.29294
▁indicated	-9.2936
▁additional	-9.29464
▁recorded	-9.29821
▁toward	-9.29846
▁gatherings	-9.30001
▁produce	-9.3019
▁fin	-9.30227
▁came	-9.30509
27	-9.31008
57	-9.31054
▁indoor	-9.31524
▁individual	-9.31582
▁condition	-9.31595
gov	-9.31608
▁real	-9.31821
phone	-9.32317
▁Not	-9.32537
▁track	-9.32559
▁link	-9.3318
▁becomes	-9.33545
60	-9.33691
▁release	-9.3377
▁Tak	-9.33912
-19)	-9.33965
▁At	-9.34077
mission	-9.34214
▁Avoid	-9.34232
▁alcohol	-9.34232
▁candidate	-9.34232
▁employer	-9.34232
▁gloves	-9.34232
▁moderna	-9.34232
▁subject	-9.34232
▁widespread	-9.34232
▁worried	-9.34232
knowledge	-9.34232
▁improve	-9.34232
▁damage	-9.34232
▁difference	-9.34232
▁understand	-9.34232
▁either	-9.34232
▁reaction	-9.34233
▁fund	-9.34233
▁decide	-9.34234
▁together	-9.34234
▁privacy	-9.34243
▁transmitted	-9.34247
▁cancer	-9.34254
▁appropriate	-9.34291
▁active	-9.34319
▁lack	-9.34322
▁spain	-9.34329
ports	-9.34344
▁More	-9.34487
point	-9.34495
▁pet	-9.34794
▁established	-9.34836
▁suspended	-9.34836
▁cha	-9.35133
▁action	-9.3521
▁globally	-9.35442
▁eating	-9.36089
▁spo	-9.36294
▁flights	-9.36325
92	-9.36334
▁medications	-9.36664
▁pangolins	-9.36664
▁whole	-9.36861
87	-9.371
ism	-9.37325
▁young	-9.37387
▁tru	-9.37737
▁outbreaks	-9.37843
▁ju	-9.37866
inflammat	-9.37976
▁stage	-9.37987
▁mean	-9.38108
▁concerns	-9.38545
cdc	-9.38553
▁manag	-9.39018
▁regula	-9.39099
▁implement	-9.39448
79	-9.39757
lt	-9.39861
time	-9.40263
▁officials	-9.40284
2)	-9.40292
▁visits	-9.40469
▁priva	-9.40471
▁Wa	-9.40479
▁Li	-9.40481
▁Visit	-9.40482
▁anonymous	-9.40482
▁building	-9.40482
▁envelope	-9.40482
▁mitigation	-9.40482
▁september	-9.40482
▁statistic	-9.40482
▁thousand	-9.40482
▁Restrict	-9.40482
▁approach	-9.40482
▁federal	-9.40482
▁material	-9.40482
▁focus	-9.40482
▁instead	-9.40482
▁basis	-9.40482
spite	-9.40483
▁From	-9.40483
▁play	-9.40483
acquir	-9.40486
▁thus	-9.40492
▁visitors	-9.40498
▁look	-9.40504
▁temporary	-9.40504
vision	-9.40512
▁combination	-9.40526
▁disruption	-9.40553
▁kill	-9.40565
▁Thus	-9.40594
▁introduced	-9.40633
▁act	-9.40636
▁acid	-9.40769
▁hub	-9.40831
▁Whi	-9.40936
▁prevalen	-9.41074
▁fully	-9.41101
▁peak	-9.41122
▁observed	-9.41194
ius	-9.41387
nch	-9.41392
▁Fin	-9.41461
94	-9.41511
cate	-9.4153
▁Any	-9.41642
▁reports	-9.41645
▁spend	-9.41675
▁pcr	-9.41871
expected	-9.42218
▁cel	-9.42386
▁ob	-9.42471
▁collected	-9.42565
07	-9.42623
nty	-9.42803
▁rest	-9.432
▁developing	-9.43225
part	-9.43241
▁Eat	-9.43606
▁codes	-9.43977
▁nurse	-9.44323
aking	-9.44334
▁medication	-9.44451
▁pangolin	-9.44451
▁though	-9.44534
▁month	-9.44561
▁reporting	-9.44697
▁conv	-9.44748
19	-9.45936
oph	-9.46001
▁event	-9.4607
role	-9.46325
har	-9.4643
▁previous	-9.46705
cumulati	-9.47117
▁guide	-9.47134
dependent	-9.47148
▁Protect	-9.47148
▁capacity	-9.47148
▁claimed	-9.47148
▁institutions	-9.47148
▁investigation	-9.47148
▁policy	-9.47148
▁procedures	-9.47148
▁challeng	-9.47149
▁cultur	-9.47149
▁environment	-9.47149
▁muscle	-9.47149
▁border	-9.47149
▁network	-9.47149
▁imposed	-9.47149
▁therapy	-9.47149
▁spike	-9.47149
▁option	-9.47149
▁travellers	-9.4715
▁smell	-9.47151
▁turn	-9.47151
▁upper	-9.47155
▁danger	-9.47157
▁hard	-9.47165
▁dehydration	-9.47204
▁space	-9.47208
▁trace	-9.47248
▁rise	-9.47252
▁businesses	-9.4727
▁collection	-9.47322
▁Us	-9.47329
▁homology	-9.4734
xim	-9.47352
▁park	-9.474
▁immunity	-9.47409
▁delivery	-9.47514
outh	-9.47527
▁july	-9.4765
▁Pro	-9.47733
25	-9.47979
ept	-9.48098
▁implemented	-9.48266
▁directly	-9.48341
▁methods	-9.48407
erous	-9.48423
▁educational	-9.48561
▁apart	-9.48565
▁plane	-9.48607
▁learner	-9.48809
▁Dat	-9.49022
▁monitoring	-9.49151
74	-9.49333
▁70	-9.50097
▁stages	-9.50128
▁indoors	-9.50321
▁table	-9.50455
14	-9.5046
pre	-9.50609
▁consider	-9.50667
▁rt	-9.5099
▁estimate	-9.51081
▁happens	-9.51105
▁markets	-9.51498
▁programme	-9.51584
▁mon	-9.51619
▁followed	-9.51681
dow	-9.51732
school	-9.52334
69	-9.52542
▁Par	-9.52639
ards	-9.53312
▁minist	-9.53741
▁complete	-9.53829
▁proper	-9.53847
▁Vir	-9.54179
▁transmit	-9.54272
▁intervention	-9.54291
▁Infect	-9.54291
▁School	-9.54291
▁application	-9.54291
▁decision	-9.54291
▁discovered	-9.54291
▁gradually	-9.54291
▁holiday	-9.54291
▁pharmacist	-9.54291
▁questions	-9.54291
▁respond	-9.54291
▁shops	-9.54291
▁target	-9.54291
▁york	-9.54291
▁accept	-9.54291
▁random	-9.54291
▁typical	-9.54291
▁connection	-9.54292
▁reliable	-9.54292
▁alpha	-9.54292
▁basic	-9.54292
▁Talk	-9.54293
▁regularly	-9.54293
▁request	-9.54293
▁Where	-9.54293
▁version	-9.54293
▁mrna	-9.54293
▁Face	-9.54294
▁successful	-9.54299
▁civet	-9.54301
▁buy	-9.54303
▁nations	-9.54306
▁scale	-9.54307
▁fast	-9.54318
▁coding	-9.54321
▁tele	-9.54325
▁port	-9.5433
▁letter	-9.54333
▁subsequent	-9.54354
▁prescription	-9.54386
▁nucleo	-9.54388
mption	-9.54412
▁effectiveness	-9.54444
▁100,000	-9.54454
▁Ex	-9.54478
▁Who	-9.54508
▁seek	-9.54557
▁statement	-9.5456
▁head	-9.5457
▁carri	-9.54572
▁sea	-9.54751
▁ids	-9.54788
▁Bas	-9.54796
▁american	-9.5486
34	-9.55042
▁degrees	-9.55215
▁pu	-9.55698
▁continued	-9.55712
62	-9.55982
▁outcomes	-9.56041
▁shown	-9.56122
▁weekly	-9.56138
▁steps	-9.56456
▁programmes	-9.57082
nger	-9.57158
▁gene	-9.57414
media	-9.58021
pul	-9.58518
91	-9.59101
▁eye	-9.59343
▁flight	-9.59343
▁student	-9.59347
▁requir	-9.59656
53	-9.59732
including	-9.60031
work	-9.60038
year	-9.6006
84	-9.60117
44	-9.6017
68	-9.60188
▁factor	-9.60189
ified	-9.60236
31	-9.60435
tial	-9.60457
ban	-9.60664
▁business	-9.61843
▁pathogen	-9.61858
ardaí	-9.61933
ugh	-9.61966
▁california	-9.61975
tructural	-9.61984
▁Symptoms	-9.61984
▁agencies	-9.61984
▁authority	-9.61984
▁complications	-9.61984
▁cruise	-9.61984
▁explain	-9.61984
▁hundred	-9.61984
▁multi	-9.61984
▁recombination	-9.61984
▁resources	-9.61984
▁scientific	-9.61984
▁wednesday	-9.61984
▁domestic	-9.61984
▁facility	-9.61984
▁hazard	-9.61984
▁okay	-9.61984
▁contrast	-9.61984
▁routine	-9.61984
▁earlie	-9.61984
▁interaction	-9.61984
▁administration	-9.61984
▁issues	-9.61984
▁preparedness	-9.61984
cubation	-9.61984
▁next	-9.61984
▁break	-9.61985
▁throw	-9.61985
exposed	-9.61985
▁sitting	-9.61986
▁strong	-9.61987
▁along	-9.61988
▁sites	-9.6199
▁fluids	-9.61991
▁anything	-9.61994
strand	-9.62001
▁saying	-9.62003
▁surgi	-9.62003
▁towel	-9.62007
▁signals	-9.62011
▁racis	-9.62026
▁classes	-9.62035
▁indicat	-9.62044
▁choice	-9.62044
▁cancellation	-9.62047
ward	-9.62078
▁strategies	-9.62078
▁enable	-9.6208
▁hospitalized	-9.62126
rofen	-9.62136
▁road	-9.62169
▁light	-9.62187
▁barr	-9.62242
▁referr	-9.62454
▁bind	-9.6247
▁Vaccines	-9.62541
▁rais	-9.62551
▁arrival	-9.62581
▁wall	-9.6269
▁planned	-9.62732
77	-9.62962
▁created	-9.63065
recognize	-9.63128
▁seat	-9.6316
▁Pu	-9.63295
ook	-9.63345
atal	-9.63544
▁fl	-9.63742
▁here	-9.63836
town	-9.64689
vac	-9.64773
▁swi	-9.64901
75	-9.65124
▁inflamma	-9.6518
▁emergenc	-9.66548
▁measure	-9.67684
67	-9.67743
▁critic	-9.68249
place	-9.68286
lockdown	-9.68351
human	-9.68358
where	-9.6836
▁da	-9.68902
round	-9.68951
▁screen	-9.69068
88	-9.69086
▁confirm	-9.6921
▁1,0	-9.6924
row	-9.69496
▁men	-9.69728
▁rat	-9.70152
▁accurate	-9.70317
irborne	-9.70317
political	-9.70317
▁Everyone	-9.70317
▁Patients	-9.70317
▁advance	-9.70317
▁church	-9.70317
▁committee	-9.70317
▁communities	-9.70317
▁coordinat	-9.70317
▁demonstrate	-9.70317
▁funeral	-9.70317
▁launch	-9.70317
▁oxygen	-9.70317
▁smoking	-9.70317
▁specimen	-9.70317
▁ventilator	-9.70317
▁Nu	-9.70317
▁Travel	-9.70317
▁ahead	-9.70317
▁construct	-9.70317
▁electron	-9.70317
▁frame	-9.70317
▁obtain	-9.70317
▁prompt	-9.70317
▁psych	-9.70317
▁window	-9.70317
▁video	-9.70317
▁Short	-9.70318
▁kong	-9.70318
▁stock	-9.70318
▁agency	-9.70319
▁items	-9.70319
▁worry	-9.70319
▁settings	-9.7032
▁identify	-9.7032
▁Since	-9.70321
▁pubs	-9.70322
▁antibody	-9.70324
▁fear	-9.70326
▁why	-9.70328
▁partner	-9.70336
▁bann	-9.70339
▁Cough	-9.70347
worth	-9.70347
▁serology	-9.70354
▁products	-9.70376
▁contaminat	-9.70406
▁rule	-9.7041
▁iranian	-9.70414
▁symptomatic	-9.7045
▁infant	-9.70455
▁book	-9.70464
▁holo	-9.70469
▁frequently	-9.70498
▁cook	-9.70506
chang	-9.70519
▁inside	-9.70545
▁variet	-9.70555
ffic	-9.70645
▁icu	-9.70683
▁hit	-9.70686
▁night	-9.70708
rish	-9.70764
ilita	-9.70807
▁conducted	-9.70825
▁antigen	-9.70858
▁aware	-9.70978
▁Medica	-9.71111
▁duration	-9.71254
▁compared	-9.71316
▁recovery	-9.71416
▁tend	-9.71507
▁4,7	-9.71636
▁4,5	-9.71638
▁generate	-9.71809
▁linked	-9.71847
▁Car	-9.7232
73	-9.72651
17	-9.72685
▁precaution	-9.72846
▁bin	-9.72863
▁separate	-9.73746
▁probabl	-9.73788
▁4,6	-9.74784
▁pan	-9.74839
latin	-9.75644
▁compar	-9.76259
▁gi	-9.763
▁gathering	-9.76715
▁effort	-9.76726
▁step	-9.76729
▁restriction	-9.77319
pcr	-9.77434
▁39	-9.77782
▁Wh	-9.78316
election	-9.78333
▁observ	-9.78366
▁minim	-9.78415
load	-9.78764
▁deliver	-9.78906
▁percent	-9.79373
utdoor	-9.79384
▁drop	-9.79406
▁Work	-9.79408
▁possibilit	-9.79408
▁prison	-9.79408
8%)	-9.79408
▁Exercise	-9.79408
▁attempt	-9.79408
▁bluetooth	-9.79408
▁bronchitis	-9.79408
▁contagious	-9.79408
▁cytokine	-9.79408
▁distress	-9.79408
▁employee	-9.79408
▁facilitat	-9.79408
▁ibuprofen	-9.79408
▁imaging	-9.79408
▁industry	-9.79408
▁instructions	-9.79408
▁membrane	-9.79408
▁nutrients	-9.79408
▁platform	-9.79408
▁polymerase	-9.79408
▁postponed	-9.79408
▁preliminary	-9.79408
▁strengthen	-9.79408
▁therapeutic	-9.79408
▁secure	-9.79408
▁annual	-9.79408
▁companies	-9.79408
▁pollen	-9.79408
▁relief	-9.79408
▁scheme	-9.79408
▁twice	-9.79408
chloro	-9.79408
▁management	-9.79408
▁missing	-9.79409
▁sporting	-9.79409
▁sleep	-9.79409
▁promis	-9.7941
▁trends	-9.7941
▁Stand	-9.7941
▁answer	-9.7941
▁cork	-9.7941
▁bank	-9.7941
cular	-9.79411
▁mother	-9.79413
▁pharmacy	-9.79413
▁image	-9.79414
▁kind	-9.79414
▁bag	-9.79414
▁exceed	-9.79414
▁gastro	-9.79418
▁admission	-9.7942
▁suit	-9.79421
▁scan	-9.79423
▁key	-9.79426
▁assistance	-9.79428
▁ratio	-9.79428
▁index	-9.7943
▁diverge	-9.79448
▁meals	-9.7945
▁ground	-9.79466
▁disability	-9.79475
▁upload	-9.79478
escent	-9.79497
▁Comp	-9.79534
lock	-9.79647
▁vary	-9.79668
▁create	-9.7967
▁sometimes	-9.79682
▁parties	-9.79734
▁excluded	-9.79764
▁carry	-9.79781
▁Test	-9.79791
▁runn	-9.79844
▁interest	-9.79932
▁completely	-9.80006
▁thought	-9.80017
▁fre	-9.8024
78	-9.80329
▁past	-9.80333
▁resu	-9.80556
ants	-9.80565
▁let	-9.80724
▁Pre	-9.80731
nan	-9.80857
agh	-9.81189
isation	-9.81234
▁involve	-9.8134
▁manager	-9.81514
ssiona	-9.81627
uba	-9.82076
▁compa	-9.82548
▁Sel	-9.82656
app	-9.83039
generat	-9.83418
▁original	-9.83531
osis	-9.83636
▁provid	-9.84737
▁serie	-9.85682
▁movement	-9.86884
▁hour	-9.87286
count	-9.87411
general	-9.87431
face	-9.87516
▁cancel	-9.8778
food	-9.8787
▁mov	-9.8802
▁exten	-9.88272
▁establish	-9.88367
▁suspend	-9.88372
▁fact	-9.88702
▁possibl	-9.88782
▁fat	-9.88832
aoiseach	-9.89335
figure	-9.89357
rink	-9.89376
▁urg	-9.89396
▁threat	-9.89398
clusion	-9.89408
▁Additional	-9.89408
▁Antibiotics	-9.89408
▁Give	-9.89408
▁Privacy	-9.89408
▁attractions	-9.89408
▁attribut	-9.89408
▁circumstances	-9.89408
▁colleagues	-9.89408
▁complex	-9.89408
▁compound	-9.89408
▁economy	-9.89408
▁enforce	-9.89408
▁epidemiological	-9.89408
▁geographic	-9.89408
▁hospitalization	-9.89408
▁implications	-9.89408
▁moderate	-9.89408
▁netherlands	-9.89408
▁permitted	-9.89408
▁reduction	-9.89408
▁religious	-9.89408
▁replication	-9.89408
▁represent	-9.89408
▁sampling	-9.89408
▁surpass	-9.89408
▁xenophobia	-9.89408
▁project	-9.89408
▁comparison	-9.89408
▁england	-9.89408
▁front	-9.89408
▁overweight	-9.89408
▁participati	-9.89408
▁aerosol	-9.89408
▁amino	-9.89408
▁mechani	-9.89408
▁inhibit	-9.89408
▁predict	-9.89408
▁unesco	-9.89408
▁arabia	-9.89408
▁stress	-9.89409
▁police	-9.89409
▁task	-9.89409
▁charge	-9.89409
▁decline	-9.89409
▁financi	-9.89409
▁catch	-9.89409
▁tracing	-9.89409
▁balance	-9.8941
▁glasses	-9.8941
▁alarm	-9.8941
length	-9.89411
▁worst	-9.89412
▁rbd	-9.89413
▁headache	-9.89415
▁Comm	-9.89415
▁tcm	-9.89416
▁wild	-9.89418
▁recommendations	-9.89418
▁instance	-9.89419
▁harm	-9.89421
▁something	-9.89423
▁secretary	-9.89426
wise	-9.89427
▁intend	-9.89446
▁growth	-9.89465
▁agree	-9.89467
▁airline	-9.89468
▁distribution	-9.89473
▁Even	-9.89481
spira	-9.89494
▁doors	-9.89504
average	-9.89511
▁urgent	-9.89511
▁production	-9.89538
▁Over	-9.8958
▁route	-9.89584
▁Hav	-9.89586
▁believed	-9.89604
▁Pla	-9.89622
▁lot	-9.89637
ency	-9.89652
drome	-9.8968
▁chair	-9.89798
▁transportation	-9.89817
▁num	-9.89847
▁trade	-9.90085
▁overall	-9.90111
▁cure	-9.90115
comfortable	-9.90322
▁korean	-9.90598
▁fit	-9.90849
mong	-9.91856
testin	-9.92228
▁bus	-9.92506
▁presen	-9.92753
audi	-9.92947
54	-9.93474
▁indicate	-9.93597
ood	-9.95159
▁base	-9.95555
2,6	-9.96325
aining	-9.96579
52	-9.96653
avir	-9.96746
open	-9.97138
▁expect	-9.97432
▁outcome	-9.97806
▁medicine	-9.97837
direct	-9.98546
quarantine	-9.98558
eath	-9.9857
chinese	-9.98671
▁recogni	-9.9886
more	-9.99087
uppression	-9.99114
▁practi	-9.99371
100	-9.9969
linical	-10.0044
í	-10.0051
▁Lea	-10.0052
▁object	-10.0052
ccupational	-10.0052
correct	-10.0052
▁Continue	-10.0052
▁Current	-10.0052
▁Practice	-10.0052
▁alpaca	-10.0052
▁association	-10.0052
▁breastfeeding	-10.0052
▁conclude	-10.0052
▁council	-10.0052
▁energy	-10.0052
▁extreme	-10.0052
▁festival	-10.0052
▁joint	-10.0052
▁notification	-10.0052
▁nutrition	-10.0052
▁particles	-10.0052
▁patrick	-10.0052
▁pattern	-10.0052
▁policies	-10.0052
▁professional	-10.0052
▁purchase	-10.0052
▁quality	-10.0052
▁respectively	-10.0052
▁society	-10.0052
▁strategy	-10.0052
▁stretch	-10.0052
▁territories	-10.0052
▁ticket	-10.0052
▁traditional	-10.0052
▁venues	-10.0052
▁vomiting	-10.0052
▁website	-10.0052
▁behind	-10.0052
▁evaluat	-10.0052
▁communication	-10.0052
▁status	-10.0052
▁Check	-10.0052
▁Human	-10.0052
▁taste	-10.0052
bridge	-10.0052
▁delta	-10.0052
▁broad	-10.0052
▁canadian	-10.0052
▁street	-10.0052
▁2012	-10.0052
▁Sign	-10.0052
▁extension	-10.0052
▁court	-10.0053
▁worn	-10.0053
▁super	-10.0053
▁unemployment	-10.0053
nctions	-10.0054
▁Iran	-10.0054
▁game	-10.0054
▁therefore	-10.0055
▁operations	-10.0055
▁adver	-10.0056
▁percentage	-10.0056
▁refus	-10.0057
ators	-10.0057
▁consistent	-10.0057
▁appeal	-10.0058
▁taoiseach	-10.006
▁brand	-10.0063
▁difficulties	-10.0063
▁organs	-10.0063
▁bans	-10.0064
▁confirmation	-10.0065
▁hip	-10.0065
▁wipe	-10.0067
▁fift	-10.007
▁agent	-10.0072
▁adaptation	-10.0083
▁faster	-10.0088
aryng	-10.0095
▁comment	-10.0099
ctual	-10.0099
▁Plan	-10.0105
ike	-10.0106
▁coverage	-10.0115
▁cancell	-10.0127
▁gas	-10.0141
ometimes	-10.0149
▁bio	-10.0216
▁2,3	-10.0276
2,000	-10.0417
▁gar	-10.0675
probably	-10.0799
▁experienc	-10.0822
▁involv	-10.0865
▁quarantin	-10.105
▁parent	-10.1063
resident	-10.1095
56	-10.1102
▁creat	-10.1121
▁genom	-10.1136
nother	-10.1189
▁cardio	-10.1276
▁run	-10.1278
▁disrupt	-10.1287
▁distribut	-10.1294
▁combin	-10.1294
▁communi	-10.1299
▁garda	-10.1302
▁accompan	-10.1302
ransmissible	-10.1302
▁Direct	-10.1302
▁Respiratory	-10.1302
▁Similar	-10.1302
▁administrator	-10.1302
▁campus	-10.1302
▁christian	-10.1302
▁concerts	-10.1302
▁consultation	-10.1302
▁contribut	-10.1302
▁curfew	-10.1302
▁disappear	-10.1302
▁examinations	-10.1302
▁google	-10.1302
▁journal	-10.1302
▁libraries	-10.1302
▁limerick	-10.1302
▁mitigate	-10.1302
▁municipal	-10.1302
▁october	-10.1302
▁opportunit	-10.1302
▁radiograph	-10.1302
▁reflect	-10.1302
▁register	-10.1302
▁registration	-10.1302
▁responsib	-10.1302
▁sanitizer	-10.1302
▁security	-10.1302
▁steroids	-10.1302
▁suffer	-10.1302
▁sufficient	-10.1302
▁sustain	-10.1302
▁thursday	-10.1302
▁uncertain	-10.1302
▁zealand	-10.1302
▁Besides	-10.1302
▁amplify	-10.1302
▁plastic	-10.1302
▁reserve	-10.1302
▁sexual	-10.1302
▁virtual	-10.1302
pkins	-10.1302
▁temporarily	-10.1302
▁organisation	-10.1302
▁bowel	-10.1302
▁relax	-10.1302
▁search	-10.1302
▁Track	-10.1302
▁morning	-10.1302
▁Like	-10.1302
▁reverse	-10.1302
▁examine	-10.1302
▁transcription	-10.1302
▁lethal	-10.1302
▁bulb	-10.1302
▁encod	-10.1302
▁milk	-10.1302
credit	-10.1302
▁First	-10.1302
▁violen	-10.1302
▁dirty	-10.1302
▁Meet	-10.1302
▁Therefore	-10.1303
▁wave	-10.1303
▁clarif	-10.1303
glass	-10.1303
▁proposed	-10.1303
▁warm	-10.1303
▁grow	-10.1303
▁gap	-10.1303
▁delete	-10.1304
▁lift	-10.1305
▁strict	-10.1305
▁fda	-10.1305
ought	-10.1305
▁nature	-10.1306
▁account	-10.1307
isolating	-10.1308
onnect	-10.1311
▁Long	-10.1313
▁Mea	-10.1319
▁held	-10.1319
▁zha	-10.1321
▁Virus	-10.1322
▁resume	-10.1327
▁arm	-10.1346
▁hope	-10.135
controlled	-10.1355
▁Resu	-10.1408
▁select	-10.1454
▁suppress	-10.1463
eering	-10.1521
2,5	-10.1624
rogen	-10.1659
▁spa	-10.1681
▁weake	-10.1723
▁diploma	-10.1946
infection	-10.2
▁1,3	-10.2042
ndem	-10.2073
hoo	-10.2091
lease	-10.2191
▁learn	-10.2247
▁weak	-10.2294
▁method	-10.2305
▁guideline	-10.2467
specific	-10.2534
called	-10.2537
sign	-10.2539
▁comfort	-10.2599
▁nucle	-10.271
▁clot	-10.272
ceived	-10.2721
▁consist	-10.2724
ffective	-10.2725
hrough	-10.2726
tainment	-10.2727
▁assist	-10.2728
ature	-10.2728
ouble	-10.2729
▁success	-10.2729
▁john	-10.273
clusive	-10.273
gredient	-10.273
isinformation	-10.273
lexibility	-10.273
mdesivir	-10.273
ologist	-10.273
ransmissibility	-10.273
▁National	-10.273
▁Research	-10.273
▁Second	-10.273
▁Shopping	-10.273
▁achieve	-10.273
▁adopt	-10.273
▁alternative	-10.273
▁anxiety	-10.273
▁august	-10.273
▁benefit	-10.273
▁calculated	-10.273
▁comprehensive	-10.273
▁continent	-10.273
▁diagnostic	-10.273
▁disabilities	-10.273
▁disadvantage	-10.273
▁elevated	-10.273
▁enzyme	-10.273
▁governor	-10.273
▁guidance	-10.273
▁identification	-10.273
▁importance	-10.273
▁laboratories	-10.273
▁lymphocyte	-10.273
▁manifestations	-10.273
▁operating	-10.273
▁philippines	-10.273
▁politicians	-10.273
▁prognosis	-10.273
▁singapore	-10.273
▁sleeve	-10.273
▁spillover	-10.273
▁summer	-10.273
▁supermarket	-10.273
▁supplier	-10.273
▁taiwan	-10.273
▁technique	-10.273
▁trigger	-10.273
▁turkey	-10.273
▁vehicle	-10.273
transfer	-10.273
▁devices	-10.273
▁discovery	-10.273
▁dismiss	-10.273
▁disorder	-10.273
▁nigeria	-10.273
▁oxford	-10.273
▁pilot	-10.273
▁prohibit	-10.273
▁consulate	-10.273
▁fatalities	-10.273
▁legislati	-10.273
▁package	-10.273
▁polyprotein	-10.273
▁teaching	-10.273
▁enhance	-10.2731
morbidit	-10.2731
▁detention	-10.2731
▁fruit	-10.2731
▁pathway	-10.2731
▁galway	-10.2731
▁garden	-10.2731
▁remote	-10.2731
▁attention	-10.2731
▁prais	-10.2731
▁dozen	-10.2731
▁plasm	-10.2731
▁theatres	-10.2731
▁plate	-10.2731
▁asthma	-10.2731
▁Person	-10.2731
▁itself	-10.2731
▁Treat	-10.2731
▁valve	-10.2731
▁Under	-10.2731
▁storm	-10.2731
▁simpl	-10.2731
▁wool	-10.2731
▁guest	-10.2731
▁reveal	-10.2731
▁prioritiz	-10.2731
germs	-10.2731
vant	-10.2731
▁gain	-10.2732
▁Community	-10.2732
▁canada	-10.2732
▁reproduction	-10.2732
▁quit	-10.2732
▁characteristic	-10.2733
▁skin	-10.2733
▁moon	-10.2733
▁rising	-10.2733
▁fingers	-10.2733
▁log	-10.2734
▁constant	-10.2734
▁friends	-10.2734
▁chem	-10.2735
▁fitness	-10.2736
erret	-10.2736
▁vote	-10.2736
▁theories	-10.2737
▁phylogenetic	-10.2737
▁Never	-10.2737
▁edition	-10.2738
▁spr	-10.274
▁metric	-10.2741
engin	-10.2742
vided	-10.2742
▁mandat	-10.2742
▁airport	-10.2784
▁methodolog	-10.2888
▁2,2	-10.2972
income	-10.3
virus	-10.3486
pending	-10.3695
,600	-10.3952
bott	-10.402
closure	-10.4197
pathogenic	-10.4198
third	-10.4202
confirmed	-10.4202
when	-10.4203
person	-10.4203
home	-10.4203
▁induc	-10.4245
ware	-10.4264
strazeneca	-10.4265
dvice	-10.4267
▁conduct	-10.4292
▁homolog	-10.4347
▁Anti	-10.4347
ublic	-10.4357
▁norma	-10.4384
▁availab	-10.4388
▁analys	-10.4388
hylogenetic	-10.4389
▁univers	-10.439
operation	-10.4392
▁secret	-10.4394
▁program	-10.4395
pharmac	-10.4396
transcript	-10.4397
▁continuous	-10.4397
▁correspond	-10.4397
▁industri	-10.4397
infrastructure	-10.4397
▁Dublin	-10.4397
▁Emergenc	-10.4397
▁Global	-10.4397
▁Screening	-10.4397
▁abroad	-10.4397
▁adequately	-10.4397
▁anticipated	-10.4397
▁austria	-10.4397
▁britain	-10.4397
▁bronchiolitis	-10.4397
▁burden	-10.4397
▁cigarette	-10.4397
▁contracepti	-10.4397
▁criteria	-10.4397
▁cyber	-10.4397
▁definition	-10.4397
▁demographic	-10.4397
▁discharge	-10.4397
▁elbow	-10.4397
▁evolutionary	-10.4397
▁explore	-10.4397
▁harbour	-10.4397
▁kildare	-10.4397
▁league	-10.4397
▁lombardy	-10.4397
▁london	-10.4397
▁manufacturing	-10.4397
▁midwife	-10.4397
▁museums	-10.4397
▁nucleocapsid	-10.4397
▁passport	-10.4397
▁pyramid	-10.4397
▁scientists	-10.4397
▁stimulate	-10.4397
▁susceptible	-10.4397
▁undertaken	-10.4397
▁worship	-10.4397
▁ancestor	-10.4397
▁assembl	-10.4397
▁exhibit	-10.4397
▁favour	-10.4397
▁interrupt	-10.4397
▁remarkabl	-10.4397
▁retrospective	-10.4397
▁yellow	-10.4397
▁Prepare	-10.4397
▁inject	-10.4397
▁labour	-10.4397
▁bacteria	-10.4397
▁commerc	-10.4397
▁computer	-10.4397
▁High	-10.4397
▁lunch	-10.4397
http	-10.4397
▁Safe	-10.4397
▁confiden	-10.4397
▁crime	-10.4397
▁shock	-10.4397
▁enteritis	-10.4397
▁pharmacies	-10.4397
▁tourist	-10.4397
▁filter	-10.4397
▁Ireland	-10.4397
▁famine	-10.4397
▁bodies	-10.4397
▁floor	-10.4397
▁offences	-10.4397
▁woman	-10.4397
▁donegal	-10.4397
▁yog	-10.4397
▁company	-10.4397
▁establishments	-10.4397
▁wedding	-10.4397
▁shift	-10.4398
▁personnel	-10.4398
▁North	-10.4398
▁Third	-10.4398
▁metre	-10.4398
▁dropped	-10.4398
mbass	-10.4398
▁israel	-10.4398
▁nba	-10.4398
▁requirements	-10.4398
▁twent	-10.4398
▁cabin	-10.4398
▁moment	-10.4399
defined	-10.4399
threatening	-10.4399
▁Remov	-10.4399
▁limitations	-10.4399
matical	-10.4399
▁californians	-10.4399
▁exams	-10.4399
bound	-10.4399
▁pools	-10.44
▁grade	-10.44
print	-10.4401
▁nhs	-10.4402
▁ibu	-10.4402
▁writ	-10.4403
▁activat	-10.4404
onym	-10.4404
▁formula	-10.4406
▁cut	-10.441
lrti	-10.4411
zoo	-10.4412
fema	-10.4414
eutic	-10.4417
▁mort	-10.4429
rgent	-10.443
easures	-10.4437
hydration	-10.4438
titis	-10.4452
▁dicl	-10.4454
▁cata	-10.4489
Close	-10.4545
reign	-10.4547
flam	-10.4552
▁3,5	-10.4563
▁cura	-10.4579
7,1	-10.4669
▁considerabl	-10.5062
makers	-10.5126
lves	-10.5299
peak	-10.5362
▁separat	-10.5565
▁degree	-10.6126
▁restaurant	-10.6129
▁detail	-10.6131
body	-10.6146
infected	-10.6157
planned	-10.6195
reporting	-10.6196
prevalen	-10.6197
secondary	-10.62
week	-10.6201
march	-10.6203
ntigen	-10.627
▁publish	-10.6295
ymptomatic	-10.6316
▁class	-10.6326
▁introduce	-10.6345
▁frequent	-10.6351
▁tempora	-10.6389
ossible	-10.639
rimary	-10.639
friend	-10.6393
hinese	-10.6396
▁Corona	-10.6397
dministrati	-10.6397
▁Diagnos	-10.6397
▁authoriz	-10.6397
mmunocompromised	-10.6397
▁Europe	-10.6397
▁Napro	-10.6397
▁Particularly	-10.6397
▁Transmission	-10.6397
▁accelerat	-10.6397
▁accident	-10.6397
▁accommodation	-10.6397
▁adhanom	-10.6397
▁announcement	-10.6397
▁antibiotics	-10.6397
▁basketball	-10.6397
▁calories	-10.6397
▁climate	-10.6397
▁complement	-10.6397
▁context	-10.6397
▁counsel	-10.6397
▁customers	-10.6397
▁dashboard	-10.6397
▁diarrhoea	-10.6397
▁discrimination	-10.6397
▁dynamic	-10.6397
▁efficient	-10.6397
▁eliminate	-10.6397
▁fragments	-10.6397
▁hairdresser	-10.6397
▁hypertension	-10.6397
▁investigate	-10.6397
▁mellitus	-10.6397
▁opacit	-10.6397
▁operators	-10.6397
▁playgrounds	-10.6397
▁princess	-10.6397
▁replicase	-10.6397
▁repurposed	-10.6397
▁scenario	-10.6397
▁sensitive	-10.6397
▁shield	-10.6397
▁technologies	-10.6397
▁templ	-10.6397
▁trimester	-10.6397
▁tuesday	-10.6397
▁ultimate	-10.6397
▁voluntary	-10.6397
molecular	-10.6397
nsaids	-10.6397
▁concentrat	-10.6397
▁measles	-10.6397
▁mount	-10.6397
▁neutraliz	-10.6397
▁persisten	-10.6397
▁provincial	-10.6397
▁purpose	-10.6397
▁translat	-10.6397
▁unnecessar	-10.6397
▁enroll	-10.6397
▁field	-10.6397
▁imported	-10.6397
▁located	-10.6397
▁protease	-10.6397
▁snacks	-10.6397
ptimal	-10.6397
▁remind	-10.6397
▁concept	-10.6397
▁consequen	-10.6397
▁gamma	-10.6397
▁Change	-10.6397
▁insurance	-10.6397
▁engage	-10.6397
▁babies	-10.6397
▁sputum	-10.6397
▁machine	-10.6397
▁pollut	-10.6397
▁Further	-10.6397
▁Reduc	-10.6397
▁excess	-10.6397
▁piece	-10.6397
▁switch	-10.6397
graduat	-10.6397
▁green	-10.6397
proximity	-10.6397
▁highlight	-10.6397
▁curve	-10.6397
▁interval	-10.6397
▁spray	-10.6397
▁Smok	-10.6397
peptid	-10.6397
▁apparent	-10.6397
▁board	-10.6398
▁lineages	-10.6398
▁watch	-10.6398
▁fecal	-10.6398
▁winter	-10.6398
▁Phase	-10.6398
▁fresh	-10.6398
▁combat	-10.6398
▁attach	-10.6398
▁broke	-10.6398
▁offaly	-10.6398
▁false	-10.6399
▁minor	-10.6399
▁neurologic	-10.6399
▁halls	-10.6399
▁eventual	-10.64
▁virulen	-10.6401
▁premi	-10.6401
▁overlap	-10.6405
citation	-10.6407
▁polari	-10.6413
ntroduc	-10.6421
▁appendi	-10.6423
▁patholog	-10.6431
fairs	-10.6431
▁gav	-10.6443
▁allocat	-10.6467
convert	-10.6491
shoe	-10.652
wnload	-10.6628
▁ecolog	-10.6631
▁minimiz	-10.6632
regulation	-10.688
▁sequenc	-10.7429
iplomatic	-10.7648
2019-	-10.7657
▁hydr	-10.8158
gregation	-10.8679
known	-10.8694
collect	-10.87
vaccinated	-10.8701
▁exclud	-10.8792
▁believe	-10.8844
▁vaccinate	-10.8846
trategies	-10.8864
andatory	-10.8884
▁interfere	-10.8889
otential	-10.889
hysical	-10.889
ositive	-10.889
nternational	-10.8892
▁club	-10.8897
denovirus	-10.8897
distinguish	-10.8897
efficiency	-10.8897
kenny	-10.8897
structive	-10.8897
▁Alcohol	-10.8897
▁Business	-10.8897
▁Epidemiologi	-10.8897
▁Figure	-10.8897
▁Generally	-10.8897
▁Hotels	-10.8897
▁Ibuprofen	-10.8897
▁Libraries	-10.8897
▁Limerick	-10.8897
▁Pregnan	-10.8897
▁Sneezing	-10.8897
▁Vaccination	-10.8897
▁altogether	-10.8897
▁assault	-10.8897
▁authoris	-10.8897
▁bangladesh	-10.8897
▁behaviour	-10.8897
▁buttocks	-10.8897
▁calendar	-10.8897
▁campaign	-10.8897
▁capture	-10.8897
▁champions	-10.8897
▁cinemas	-10.8897
▁claims	-10.8897
▁collaboration	-10.8897
▁constitute	-10.8897
C	-11.2036
A	-11.7038
I	-11.7038
’	-12.7028
V	-12.7029
U	-12.703
G	-12.7031
–	-12.7032
N	-12.7033
L	-12.7034
/	-12.7035
E	-12.7036
R	-12.7037
F	-12.7038
B	-12.7039
%	-12.704
M	-12.7041
P	-12.7042
D	-12.7043
Y	-12.7044
W	-12.7045
O	-12.7046
S	-12.7047
(	-12.7048
H	-12.7049
T	-12.7049
