<pad>	0
</s>	0
<unk>	0
,	-3.13504
▁	-3.48832
.	-3.57308
i	-3.71365
s	-3.75187
▁ir	-4.12587
o	-4.30969
a	-4.40369
ų	-4.47157
ti	-4.51203
e	-4.53045
k	-4.56398
ą	-4.67575
u	-4.68998
▁kad	-4.78488
n	-4.82902
as	-4.86969
os	-4.91135
d	-5.02212
ai	-5.07308
m	-5.08095
▁su	-5.11171
v	-5.12789
p	-5.20835
▁į	-5.22951
us	-5.24238
ė	-5.27109
t	-5.31177
y	-5.33317
▁iš	-5.38875
▁Europos	-5.40964
g	-5.41434
▁ne	-5.42264
ės	-5.44063
in	-5.44473
es	-5.47579
b	-5.49572
l	-5.56469
▁pa	-5.60678
▁dėl	-5.63164
al	-5.67958
▁yra	-5.68664
ta	-5.74114
en	-5.74585
r	-5.75586
▁-	-5.75972
ž	-5.7614
š	-5.76918
ma	-5.77089
▁tai	-5.7857
au	-5.83025
z	-5.83837
me	-5.84331
si	-5.84416
į	-5.85271
to	-5.85792
j	-5.86451
ri	-5.88249
li	-5.88764
ių	-5.90134
is	-5.90427
te	-5.9068
ja	-5.91907
nt	-5.94671
tų	-5.98506
▁pat	-6.01376
ę	-6.06726
▁ši	-6.06983
ra	-6.07478
▁m	-6.09873
▁už	-6.11926
▁t	-6.17246
)	-6.18145
▁(	-6.18488
ar	-6.21805
▁vis	-6.22634
imo	-6.23108
▁kaip	-6.26034
ū	-6.2747
▁p	-6.28232
ir	-6.29336
f	-6.30218
▁tik	-6.30738
▁at	-6.316
▁K	-6.32484
ais	-6.3262
er	-6.33485
tin	-6.3418
ei	-6.34426
▁taip	-6.35328
▁k	-6.35648
yti	-6.36516
imą	-6.37215
▁būti	-6.38336
mi	-6.3976
ik	-6.40867
▁turi	-6.41646
iai	-6.41926
▁dar	-6.43079
ant	-6.44679
▁ES	-6.45706
▁būtų	-6.45888
išk	-6.47087
ek	-6.47844
▁per	-6.48251
oje	-6.4831
▁A	-6.48728
▁kuri	-6.48879
omis	-6.49348
or	-6.495
io	-6.50227
ka	-6.51149
▁kai	-6.51242
iu	-6.51317
▁to	-6.51416
tas	-6.51493
mo	-6.52522
▁pra	-6.52761
ijos	-6.54193
el	-6.54211
an	-6.54276
▁ž	-6.54629
na	-6.55272
▁labai	-6.56747
yb	-6.5704
▁ko	-6.57767
▁savo	-6.58366
▁P	-6.58519
ia	-6.58607
▁v	-6.60567
▁S	-6.61028
imas	-6.61286
▁d	-6.61552
re	-6.61887
▁buvo	-6.62212
tu	-6.62467
▁pri	-6.62559
mas	-6.62622
▁nes	-6.64084
dži	-6.64134
▁apie	-6.64906
▁re	-6.65348
▁T	-6.65413
▁B	-6.6688
▁po	-6.68333
▁be	-6.68484
▁mūsų	-6.70914
tar	-6.7127
ūr	-6.71428
jų	-6.72427
ing	-6.73511
▁Komisijos	-6.75056
▁ar	-6.75398
on	-6.75441
▁M	-6.76493
▁nuo	-6.78411
oms	-6.78602
da	-6.78873
▁kit	-6.79068
▁pasi	-6.80885
▁pirmininke	-6.81445
aug	-6.8163
ci	-6.81948
gi	-6.82756
▁ap	-6.82914
▁J	-6.83578
ys	-6.84207
▁bet	-6.84545
ur	-6.85196
ni	-6.85483
▁gali	-6.87263
▁nauj	-6.88633
▁nar	-6.89995
ty	-6.90384
am	-6.91772
▁prie	-6.92396
la	-6.92666
▁R	-6.92699
kl	-6.94291
sta	-6.95622
inti	-6.9578
▁turėt	-6.96257
▁daug	-6.96727
ams	-6.96756
▁bus	-6.96767
c	-6.97535
▁mes	-6.97556
▁o	-6.97635
▁jau	-6.98046
tos	-6.98171
0	-6.99928
▁kurie	-7.00717
▁G	-7.01893
"	-7.01983
ak	-7.02397
▁reikia	-7.02404
usi	-7.02555
mų	-7.02917
ro	-7.03095
▁Tai	-7.03283
ją	-7.03283
do	-7.03995
pa	-7.04231
inių	-7.04276
▁jų	-7.05096
il	-7.05218
ėjo	-7.05256
va	-7.05376
▁Komisija	-7.05401
▁D	-7.05891
▁kurios	-7.06477
et	-7.06647
▁valstybės	-7.07788
iausi	-7.08685
ko	-7.08741
umo	-7.0885
aus	-7.08911
▁Sąjungos	-7.09419
▁norėčiau	-7.09606
inės	-7.10467
mą	-7.10786
tą	-7.11235
▁"	-7.11952
:	-7.12447
di	-7.12618
em	-7.13524
▁sk	-7.13613
iau	-7.13769
čių	-7.13919
▁rink	-7.14844
var	-7.15297
tai	-7.15501
▁pas	-7.15722
▁metu	-7.15808
ame	-7.15822
joje	-7.16292
▁prieš	-7.16568
▁Parlamento	-7.16766
▁V	-7.16805
ba	-7.16922
ius	-7.17039
▁nu	-7.17203
▁toki	-7.17224
▁Todėl	-7.17774
lai	-7.18639
lo	-7.18821
▁skirt	-7.19049
vo	-7.19237
ms	-7.19881
▁darbo	-7.20326
ol	-7.20463
▁maž	-7.20816
uot	-7.21274
▁L	-7.2156
uoja	-7.21764
▁teis	-7.21866
no	-7.22115
uose	-7.22318
ui	-7.22339
ga	-7.22741
▁turime	-7.22799
▁nepa	-7.23673
▁Ši	-7.23936
ama	-7.2424
ina	-7.24364
at	-7.2569
ėja	-7.25995
▁š	-7.27145
mon	-7.2771
20	-7.27788
yr	-7.27881
▁narių	-7.28216
▁jos	-7.28361
ime	-7.2848
P	-7.2874
tik	-7.28926
▁Pa	-7.29203
ėmis	-7.29879
iems	-7.30282
uoti	-7.31292
ymo	-7.31665
le	-7.32645
▁svarb	-7.32952
▁veik	-7.33246
dami	-7.33342
▁teisės	-7.33559
iam	-7.33754
▁E	-7.33768
▁de	-7.33808
▁vien	-7.33867
▁valstybių	-7.33969
▁N	-7.34363
▁šį	-7.34613
gu	-7.36104
ėje	-7.37
cija	-7.38165
▁šiuo	-7.38603
rod	-7.38652
umą	-7.39222
?	-7.39658
O	-7.39658
▁Tačiau	-7.39659
ome	-7.39872
avimo	-7.40111
ose	-7.40113
▁nor	-7.40135
yje	-7.40377
5	-7.40418
▁mums	-7.40931
ig	-7.41016
▁l	-7.4102
▁Be	-7.41648
▁Pone	-7.41702
▁1	-7.41758
h	-7.42119
▁ypač	-7.42213
▁narės	-7.42704
kai	-7.42808
rin	-7.42869
▁g	-7.43089
mos	-7.4336
▁daugiau	-7.43369
▁tikr	-7.43618
str	-7.45197
▁pateik	-7.46115
▁susi	-7.46655
▁par	-7.4686
▁laik	-7.46921
▁pro	-7.46996
▁užtikrinti	-7.47268
ran	-7.47702
der	-7.47984
ist	-7.4815
▁I	-7.48587
▁mano	-7.48607
dar	-7.4893
▁Vis	-7.49139
▁tačiau	-7.49464
T	-7.50087
imu	-7.50175
jai	-7.50683
iškai	-7.50714
▁gyven	-7.51139
▁nėra	-7.51421
imų	-7.51559
imai	-7.51589
▁šios	-7.51894
▁siek	-7.5197
▁tam	-7.53014
▁siekiant	-7.53191
▁pak	-7.5324
ojo	-7.53419
E	-7.53749
ven	-7.53991
▁politikos	-7.54591
▁gal	-7.54663
▁susijusi	-7.54886
▁suteik	-7.5522
▁pagal	-7.5584
▁keli	-7.56059
▁galimyb	-7.56134
▁todėl	-7.56364
ch	-7.56771
▁jo	-7.56968
▁kuris	-7.57987
du	-7.58003
region	-7.58142
▁laisv	-7.58172
kos	-7.58258
▁aš	-7.58391
ly	-7.5841
▁proc	-7.59064
čiu	-7.596
ne	-7.60166
▁saug	-7.6039
iant	-7.60864
inio	-7.60899
▁politin	-7.60949
▁svarbu	-7.60975
ry	-7.61134
veik	-7.61359
ėms	-7.61865
▁bū	-7.61921
▁šalių	-7.62829
▁Ne	-7.63114
▁net	-7.63138
L	-7.63986
▁šio	-7.64121
▁reikal	-7.64295
▁Taip	-7.6448
ųjų	-7.64542
mus	-7.64632
▁mok	-7.64868
▁padėti	-7.65038
▁negali	-7.65215
▁ji	-7.65333
▁Sąjunga	-7.65404
ęs	-7.65503
gali	-7.65571
ky	-7.66197
tis	-7.66208
▁ga	-7.66228
▁teisių	-7.66843
dama	-7.66967
▁Gerb	-7.67051
S	-7.67238
▁kas	-7.67263
▁va	-7.67532
4	-7.67715
ėme	-7.67748
▁min	-7.67932
osios	-7.6832
imus	-7.68503
▁susitar	-7.68542
oji	-7.68594
▁manau	-7.68645
jo	-7.69149
;	-7.69398
-	-7.69438
ij	-7.69489
čia	-7.69626
8	-7.70079
nčių	-7.70172
sime	-7.70301
▁dabar	-7.70344
▁C	-7.71002
1	-7.71205
▁lyg	-7.71211
inink	-7.71242
▁ekonomin	-7.71804
▁sąlyg	-7.71804
▁tarptautin	-7.71804
▁įgyvendin	-7.72433
▁Taryba	-7.72502
▁iki	-7.7262
3	-7.72853
▁jis	-7.72978
▁vertin	-7.73333
tor	-7.73491
▁atsi	-7.73895
▁ekonomikos	-7.73916
7	-7.74984
inimo	-7.7503
▁tarp	-7.75036
bu	-7.75088
kt	-7.75128
▁Parlamentas	-7.75344
▁galima	-7.75382
umu	-7.75573
ūs	-7.75863
and	-7.75947
▁tinkam	-7.76072
▁skatin	-7.76082
▁du	-7.76157
6	-7.76431
▁klausimas	-7.76497
▁visų	-7.77073
▁srityje	-7.77162
ren	-7.77174
audo	-7.77227
▁tiek	-7.77679
2	-7.77789
▁bendradarbiavim	-7.77899
▁dali	-7.78074
▁mėn	-7.78299
din	-7.78543
▁tvar	-7.79459
▁finans	-7.79539
čiau	-7.79675
▁200	-7.79739
▁Tarybos	-7.80142
▁šiandien	-7.80142
esn	-7.80301
▁valstyb	-7.80485
▁kurį	-7.80805
▁žmogaus	-7.80901
▁metų	-7.80979
▁2	-7.80999
avo	-7.81394
▁visiška	-7.81593
▁būtina	-7.81759
▁Mes	-7.81776
je	-7.81841
▁bendr	-7.82387
▁rezoliucij	-7.82436
▁jie	-7.82458
iame	-7.82472
kur	-7.8336
vert	-7.83559
▁pakeit	-7.83612
ter	-7.83614
umas	-7.83834
▁arba	-7.83864
▁tuo	-7.85288
gr	-7.85363
raš	-7.8569
▁patvirtin	-7.85718
▁man	-7.85842
▁kurių	-7.8597
▁žmonių	-7.86786
▁Manau	-7.86786
▁kur	-7.86859
mės	-7.87302
▁pranešimą	-7.87343
imui	-7.88067
▁ju	-7.88135
▁kar	-7.88333
U	-7.88414
ang	-7.88643
dien	-7.89088
steb	-7.89091
tį	-7.89388
▁ką	-7.90361
esni	-7.90436
▁sp	-7.90472
▁rinkos	-7.90499
▁padar	-7.90517
č	-7.90686
▁priemonių	-7.90752
damas	-7.9081
▁plan	-7.90927
▁gr	-7.90952
▁ra	-7.91389
I	-7.91745
▁veiksming	-7.91755
▁pasakyti	-7.91845
▁pritar	-7.92032
▁kuriuos	-7.9215
▁jei	-7.92671
▁privalo	-7.93038
▁raštu	-7.93042
▁didel	-7.93456
gal	-7.93591
▁pirm	-7.94291
bo	-7.94347
ver	-7.94828
▁veiksmų	-7.95215
▁koki	-7.96398
kalb	-7.96783
▁įtrauk	-7.97038
A	-7.97092
amos	-7.97161
▁sak	-7.97251
▁prekybos	-7.97433
galėtų	-7.97504
▁bendro	-7.97504
▁nacionalin	-7.97885
iams	-7.98086
▁atlik	-7.98372
▁jog	-7.98583
▁toliau	-7.98798
▁praneš	-7.99049
▁finansin	-7.99056
▁laiko	-7.99098
čio	-7.99133
tume	-7.99235
mis	-7.99333
▁Europa	-7.99708
▁klausimu	-7.99778
▁asmen	-8.00171
▁šis	-8.00453
▁nei	-8.00508
čiai	-8.00544
cijos	-8.00617
gy	-8.013
▁klausimą	-8.01669
▁svarbi	-8.02335
▁pirma	-8.02543
▁proces	-8.02714
ciją	-8.02811
inį	-8.02891
▁atveju	-8.02977
▁priemon	-8.03438
▁Norėčiau	-8.03454
▁tap	-8.03688
▁energijos	-8.03932
▁kriz	-8.03973
inis	-8.0458
N	-8.04722
nčia	-8.04965
iniai	-8.05185
▁sutart	-8.05334
▁pasiek	-8.05355
▁žemės	-8.05385
▁kalba	-8.05798
▁kalbė	-8.05823
▁Poni	-8.05944
trauk	-8.06365
bal	-8.06854
▁teik	-8.06942
kr	-8.07051
inę	-8.07138
acijos	-8.07302
▁euro	-8.0735
▁did	-8.07737
▁Lisabono	-8.07844
amas	-8.08231
▁problema	-8.08344
▁kartą	-8.08467
▁taikom	-8.08505
▁pareng	-8.09358
avimas	-8.09423
▁val	-8.09466
▁susitik	-8.0951
▁klimato	-8.0986
▁politika	-8.0986
▁kelia	-8.09881
▁kartu	-8.10581
9	-8.10779
▁vykd	-8.11013
▁žino	-8.11195
▁apsaugos	-8.11398
▁pagrind	-8.11814
▁stipr	-8.12961
ėjus	-8.13239
▁Š	-8.13586
K	-8.13635
▁Su	-8.14017
▁koleg	-8.14022
nčios	-8.14334
▁frakcijos	-8.14451
▁padėkoti	-8.14548
▁vardu	-8.14554
▁nors	-8.14678
▁gera	-8.14761
▁Šiuo	-8.15413
▁dėmesį	-8.1562
▁teisin	-8.15741
▁didesn	-8.15803
▁jūsų	-8.16053
▁kurią	-8.16214
▁geriau	-8.16941
▁vyriausyb	-8.17251
▁kontrol	-8.17251
▁inter	-8.17259
▁Aš	-8.17282
kia	-8.17378
R	-8.17407
olog	-8.18107
▁pagrindini	-8.18314
▁sociali	-8.18331
▁Kaip	-8.18376
▁dėlto	-8.18673
▁Europoje	-8.18908
avimą	-8.18909
▁sumažin	-8.1891
▁Pirmininke	-8.1893
ung	-8.18987
▁Jei	-8.19147
▁padaryti	-8.19148
▁politiką	-8.20029
▁ponai	-8.20075
B	-8.20382
jame	-8.2049
▁ūkio	-8.20594
▁pozicij	-8.20595
▁imtis	-8.20653
▁pranešime	-8.20681
▁aplink	-8.20963
ut	-8.21582
▁kiekvien	-8.21733
▁viena	-8.21815
▁priimti	-8.21967
▁sav	-8.22109
▁priemones	-8.22267
▁esam	-8.22293
▁dvi	-8.2265
ge	-8.23255
▁atžvilgiu	-8.23468
▁iniciatyv	-8.23468
▁turėtum	-8.23746
▁Ž	-8.24562
▁Dėl	-8.24647
▁piliečių	-8.24865
▁nesu	-8.24975
kultūr	-8.25828
▁palaik	-8.25877
▁Turi	-8.26001
▁biudžeto	-8.26377
V	-8.26384
ystės	-8.26438
dėti	-8.27608
▁nuomone	-8.27647
▁mat	-8.27664
▁pateikti	-8.2799
▁pirminink	-8.28269
▁darbą	-8.28269
užtikrin	-8.28574
▁Ar	-8.28579
▁įvairi	-8.28864
▁grup	-8.28866
▁praš	-8.29114
ino	-8.29148
▁įgyvendinti	-8.29596
▁dr	-8.29886
▁svarbus	-8.29936
▁H	-8.30029
▁visiems	-8.30639
ide	-8.30762
DE	-8.30764
▁labiau	-8.31152
▁direktyv	-8.31162
▁pasiūl	-8.31373
▁pagrindin	-8.3152
▁aplinkos	-8.31572
▁pači	-8.31792
antis	-8.31899
▁vidaus	-8.31983
▁pareig	-8.31995
▁klausimai	-8.3203
/	-8.3262
▁kitų	-8.32884
ger	-8.33102
▁vieš	-8.33262
▁nepri	-8.3329
▁vėl	-8.33316
▁ten	-8.33389
▁jūs	-8.33406
dal	-8.33413
C	-8.33464
▁aiškiai	-8.33907
▁tikrai	-8.33977
Jungtin	-8.34005
▁čia	-8.345
▁reikaling	-8.34823
▁atitinka	-8.3521
▁naudoja	-8.3521
▁neturi	-8.35252
▁F	-8.35535
▁ponios	-8.35873
▁daugeli	-8.35963
▁vienas	-8.36181
▁ilg	-8.36323
▁kokyb	-8.36669
inius	-8.36899
▁sek	-8.37035
▁aspekt	-8.37196
▁atsižvelg	-8.37815
▁požiūriu	-8.37867
▁atskir	-8.37875
▁atsižvelgia	-8.37943
▁saugumo	-8.38054
mui	-8.38191
▁jeigu	-8.38651
▁tikrųjų	-8.38674
▁sudary	-8.38723
▁balsu	-8.39041
lieka	-8.39689
▁galimybę	-8.39757
▁įsipareigo	-8.39908
▁galime	-8.40134
▁atstov	-8.40594
▁institucijos	-8.40598
▁siekiama	-8.40606
▁visos	-8.4088
teikia	-8.41064
▁partner	-8.41241
imti	-8.41257
▁organ	-8.41293
▁pasiekti	-8.41486
▁šiuos	-8.41664
▁sukurti	-8.41883
▁mokslini	-8.41999
▁susiję	-8.42002
▁klausimus	-8.42101
▁šioje	-8.42327
▁šiam	-8.42595
▁sistemos	-8.42696
▁finansų	-8.42708
leidžia	-8.42716
▁puik	-8.42722
▁kiek	-8.42734
▁biudžet	-8.42754
▁dabartin	-8.42857
▁nariai	-8.42914
ingai	-8.43245
▁panaikin	-8.43405
▁aptar	-8.4403
▁balsavim	-8.44123
▁pabrėžti	-8.44396
▁bendra	-8.44591
▁nustatyt	-8.44667
▁maisto	-8.44846
▁remia	-8.45013
▁padidin	-8.45565
▁skiria	-8.4559
▁transporto	-8.45859
▁nustatyti	-8.46014
▁priimt	-8.4616
▁atkreip	-8.46293
▁komiteto	-8.47029
▁gerb	-8.47046
▁teigiam	-8.47134
▁socialini	-8.47405
▁EUR	-8.47769
▁Sąjungoje	-8.47769
▁abejo	-8.47769
▁dalyvau	-8.47769
▁moterų	-8.4777
▁sveikatos	-8.47771
▁jums	-8.47935
nčio	-8.47941
tro	-8.47968
trūk	-8.48518
▁žinoma	-8.48587
konkreči	-8.49268
▁reform	-8.49268
▁kuriuo	-8.49286
▁nuostat	-8.49359
▁reiškia	-8.50039
▁klaus	-8.50156
▁energetikos	-8.50788
▁skaidr	-8.50789
▁stat	-8.51101
▁pasaulyje	-8.51558
▁įskaitant	-8.51558
▁sistema	-8.51558
▁Balsav	-8.51561
▁treči	-8.51572
▁Mano	-8.51594
▁nuolat	-8.51595
▁tvirt	-8.51716
▁sveik	-8.51731
bank	-8.51758
▁priėm	-8.51987
▁krizės	-8.52276
▁plėtros	-8.52333
▁standart	-8.52333
▁šalies	-8.52333
▁Iš	-8.52452
▁pranešėja	-8.52461
kirst	-8.52735
▁pagrįst	-8.53114
▁Kita	-8.53214
▁valstybėms	-8.53217
▁kuriam	-8.53664
▁tiesiog	-8.53902
▁vietos	-8.53902
▁nebuvo	-8.53902
▁visuomen	-8.54247
▁pabrėž	-8.54388
▁šalys	-8.54421
▁priemonės	-8.54646
▁efektyv	-8.54695
▁baig	-8.54708
▁nustat	-8.55237
▁Ji	-8.55332
▁tikslu	-8.55511
D	-8.5564
ybę	-8.56239
▁šalims	-8.56302
▁atsakomyb	-8.56302
▁pasiūlymą	-8.56302
▁pareišk	-8.56311
▁turės	-8.57122
▁juos	-8.57152
▁jį	-8.57239
▁bi	-8.57259
▁bendrą	-8.5737
▁Parlamente	-8.57934
program	-8.58077
Euro	-8.58112
F	-8.58187
▁pilieči	-8.58348
Pirminink	-8.58729
▁griežt	-8.58761
▁leis	-8.58898
▁šalyse	-8.59049
▁dideli	-8.59051
tinių	-8.5908
▁vadov	-8.59591
▁parlament	-8.59594
▁struktūr	-8.59594
skelb	-8.59625
jimo	-8.601
kite	-8.60413
▁sprendimu	-8.60434
▁pripažin	-8.60435
▁metais	-8.60439
▁numatyt	-8.60518
▁produktų	-8.60547
▁pasak	-8.60957
▁atsak	-8.60967
▁didžiausi	-8.61282
▁žmonės	-8.61284
▁san	-8.61445
▁gero	-8.61754
▁diskusijos	-8.62137
▁paslaugų	-8.62137
▁srityse	-8.62137
▁pradėt	-8.62329
ėjimo	-8.62828
▁padėtį	-8.63174
▁mažiau	-8.63404
▁kurioje	-8.63441
▁laikotarpi	-8.63868
▁pasaulio	-8.63868
▁oro	-8.64062
▁direktyvos	-8.64129
▁abi	-8.64767
▁vyksta	-8.65065
▁kuriai	-8.6544
▁Dabar	-8.6563
kart	-8.65914
▁lygio	-8.66356
▁veiklos	-8.66541
▁spręsti	-8.66559
▁noriu	-8.67135
▁įstatym	-8.67424
▁pagalbos	-8.67437
▁krit	-8.6748
ntys	-8.67594
▁pranešimas	-8.67697
ved	-8.67837
▁išteklių	-8.68333
▁taisyklių	-8.68333
▁pažeid	-8.68337
▁rimt	-8.68403
▁visuomenės	-8.68849
▁lėšų	-8.69251
▁kelet	-8.69256
▁šalis	-8.69257
▁Bendrijos	-8.69352
▁jiems	-8.69506
ieji	-8.69626
▁pranešimo	-8.69656
lėt	-8.70135
▁diskusija	-8.70177
▁nauding	-8.70177
▁teisę	-8.70246
▁2009	-8.70251
▁Taigi	-8.70815
▁valdy	-8.71021
▁sudėting	-8.71111
▁tiesų	-8.71123
leisti	-8.71168
▁lauk	-8.71205
▁nusi	-8.71695
▁pastar	-8.71795
▁aukšt	-8.72061
▁įvertin	-8.72127
▁norime	-8.7232
▁narėms	-8.72362
▁jūros	-8.73008
▁gyventojų	-8.73008
▁tikslas	-8.73008
▁atsaking	-8.73541
▁ateityje	-8.73968
▁institucijų	-8.73968
▁stabil	-8.73969
▁mokesčių	-8.7397
▁sunku	-8.73974
▁piliečiams	-8.74083
FR	-8.74159
M	-8.74799
▁sistemą	-8.74939
▁vaidmenį	-8.74939
protokol	-8.7494
▁frakcij	-8.75117
▁kuo	-8.75122
G	-8.75855
▁lygmeniu	-8.7592
▁priklauso	-8.7592
▁gamyb	-8.75923
▁Antra	-8.75926
▁pasiūlymu	-8.75929
▁tinkl	-8.75972
ąjį	-8.7612
▁pritariu	-8.76321
▁svarst	-8.76631
▁priežiūros	-8.7691
▁tekst	-8.76922
kryp	-8.77019
▁rodo	-8.77087
▁susitarimas	-8.77317
▁Parlamentu	-8.7791
▁vartotojų	-8.7791
▁palank	-8.7791
▁naudoti	-8.77911
▁būtent	-8.77912
▁geresn	-8.77921
▁aktų	-8.77961
▁užtikrina	-8.78352
▁susitarimo	-8.78511
▁19	-8.79042
▁produkt	-8.79804
▁įsitikin	-8.79941
▁pasaulin	-8.79941
▁pirmiausia	-8.79944
▁papildom	-8.80006
sprendžia	-8.80175
▁akivaizd	-8.80237
▁10	-8.80315
avimu	-8.80467
Į	-8.80971
▁reikėtų	-8.80971
▁žmonėms	-8.80972
▁fakt	-8.80976
▁antr	-8.81825
▁darbuotojų	-8.82013
▁kompromis	-8.82013
▁skub	-8.8205
▁kovos	-8.82075
▁taikyti	-8.83144
tvirtin	-8.83546
▁esu	-8.83907
▁problemų	-8.84129
▁strategijos	-8.84129
▁kadangi	-8.84193
▁plat	-8.84235
▁paramos	-8.84269
uosius	-8.84706
▁dažnai	-8.85205
▁problemos	-8.85205
▁poreiki	-8.85205
▁tikiuosi	-8.85205
▁reikš	-8.85212
▁paramą	-8.85218
▁klausimų	-8.85286
▁patirt	-8.85329
▁siūlom	-8.85738
▁Galiausiai	-8.86292
▁sprendimo	-8.86292
▁tikslų	-8.86293
▁aišku	-8.86346
ES	-8.8674
▁poveikį	-8.87392
▁gauti	-8.87447
▁laiv	-8.87579
▁didžiul	-8.88502
▁dirbti	-8.88502
▁sudaro	-8.88546
▁sėkming	-8.89496
spręs	-8.89579
▁kodėl	-8.89625
▁tyrimų	-8.89626
▁valdžios	-8.89628
▁dirba	-8.8963
▁reikalauja	-8.89641
▁dauguma	-8.89647
▁rengia	-8.89649
▁valdymo	-8.89813
▁elg	-8.89918
▁EP	-8.89958
▁įvyki	-8.90762
▁pajėg	-8.90762
mobili	-8.90763
▁esmės	-8.90802
▁galėtum	-8.9082
kelia	-8.91733
▁internet	-8.91938
▁kyla	-8.91945
▁teisinga	-8.92022
▁būsim	-8.92929
▁sprendimą	-8.93074
▁vidutin	-8.93074
▁Lab	-8.9312
▁dalyvav	-8.9425
▁ženkl	-8.94254
▁vienod	-8.94378
▁bendradarbiau	-8.95441
▁dėmesio	-8.95441
▁iššūki	-8.95441
▁nepriklausom	-8.95441
▁pasinaudoti	-8.95441
▁aktyv	-8.95441
▁pasiūlymas	-8.95442
▁vanden	-8.95442
▁ragina	-8.95444
▁Teis	-8.95492
nelyg	-8.95539
▁gerin	-8.95979
▁apsauga	-8.96647
▁buv	-8.97553
spaud	-8.97785
▁balsavau	-8.97865
▁informacijos	-8.97865
▁susirūpin	-8.97865
▁centr	-8.97865
▁paaiškin	-8.97869
▁įmonių	-8.97874
kirt	-8.97887
▁trump	-8.991
▁blog	-8.991
▁visada	-8.99122
▁Toki	-8.99214
▁kovoj	-8.99357
▁lig	-8.99413
▁toks	-8.99419
▁vykdom	-9.00037
▁konkurencing	-9.0035
▁nieka	-9.00359
▁garant	-9.00401
▁šaltin	-9.00402
▁klaid	-9.00436
▁sprendimas	-9.01615
▁strategija	-9.01615
▁greičiau	-9.01616
▁pagalbą	-9.01632
▁nebus	-9.01736
▁pirmininkauja	-9.01789
▁gamin	-9.02128
▁užsienio	-9.02898
▁derybų	-9.02898
bendruomen	-9.02898
▁smurt	-9.02898
▁vietų	-9.02899
▁šalyje	-9.02899
▁atsisak	-9.0291
▁tikslai	-9.02933
▁grėsm	-9.02943
uoju	-9.02966
▁greit	-9.02975
▁remti	-9.02993
▁vystymosi	-9.04196
▁susiduria	-9.04196
▁dešimt	-9.04197
▁paprast	-9.04197
▁Mūsų	-9.04202
▁vaikų	-9.04207
▁dalį	-9.04228
odžio	-9.04464
▁Bendr	-9.0537
žvelg	-9.05467
▁Vadov	-9.05512
▁pasiūlymų	-9.05513
▁sutarties	-9.05542
▁padės	-9.05606
▁regiono	-9.05692
nčią	-9.05968
▁sukurt	-9.0672
▁rekomendacij	-9.06845
▁sektoriaus	-9.06845
▁šalimis	-9.06845
▁žingsnis	-9.06845
▁fondo	-9.06845
▁metod	-9.06851
▁ketina	-9.06852
▁atvir	-9.0687
eisingumo	-9.07368
▁vyks	-9.07708
▁programa	-9.07913
ėjimas	-9.08188
▁pasiūlyt	-9.08194
▁ekonomika	-9.08197
▁sektoriuje	-9.08197
▁patenkin	-9.082
▁išspręsti	-9.08203
▁išorės	-9.08224
▁vertus	-9.08256
▁diskrimin	-9.09567
▁duomenų	-9.09567
▁veiklą	-9.09588
▁nebūt	-9.09594
▁miest	-9.09639
▁rasti	-9.09672
▁apima	-9.09681
kšt	-9.1006
▁socialinė	-9.10301
▁galbūt	-9.10955
▁priežasčių	-9.10955
▁papraš	-9.10963
▁laikytis	-9.10978
mokė	-9.11351
▁teig	-9.12258
▁sprendimų	-9.12364
▁gamintoj	-9.12382
▁Pirma	-9.12389
▁padėt	-9.13306
▁branduolin	-9.13792
▁neturėtų	-9.13793
▁JAV	-9.13793
▁globali	-9.13793
▁situacij	-9.13793
▁vadinam	-9.13795
▁Mums	-9.13801
▁įmonės	-9.13808
▁patikim	-9.14178
▁užduo	-9.14203
▁Praneš	-9.15242
▁pakeisti	-9.15242
▁poveikio	-9.15243
▁nepaisant	-9.15246
▁Viena	-9.15254
▁jokių	-9.15257
▁programos	-9.15319
▁tada	-9.15379
▁siūl	-9.15995
▁mechanizm	-9.16712
▁Vidur	-9.16712
▁turėjo	-9.16715
▁nurodyt	-9.16723
▁jokio	-9.16772
▁2010	-9.18205
▁strategiją	-9.18205
▁Europą	-9.18205
▁kovoti	-9.18218
▁tolesn	-9.18223
▁galutin	-9.18258
▁Tikiuosi	-9.1972
▁speciali	-9.1972
▁persvarst	-9.1972
▁truk	-9.19721
▁000	-9.21258
▁rezultatų	-9.21258
▁Tarptautin	-9.21259
▁apsaugą	-9.21259
▁kaimyn	-9.21259
▁judėjim	-9.21276
▁Kalba	-9.21277
▁Nors	-9.21282
▁link	-9.21301
udito	-9.22035
▁anksčiau	-9.22821
▁pastangas	-9.22821
▁sustiprint	-9.22821
▁teritorij	-9.22821
▁atrodo	-9.22838
▁Reik	-9.23068
▁teisėt	-9.2334
▁informacija	-9.24408
▁pažangos	-9.24408
▁pinigų	-9.24408
▁mlrd	-9.24408
migracijos	-9.24409
▁nagrinė	-9.24409
▁nuomonės	-9.24412
▁naudos	-9.24413
H	-9.2458
Ž	-9.2459
▁demokratijos	-9.26021
▁humanitarin	-9.26021
▁informaciją	-9.26021
▁prieglobsčio	-9.26021
▁kreip	-9.26022
▁derybos	-9.26022
▁pagerinti	-9.26022
▁erdv	-9.26023
▁žmones	-9.26026
▁atsakym	-9.27415
▁perspektyv	-9.2766
▁sanglaudos	-9.27661
▁profesin	-9.27662
▁Nepais	-9.27668
▁taut	-9.29238
▁diskusijų	-9.29327
▁pavojing	-9.29327
▁pažangą	-9.29327
▁derybas	-9.29327
▁Šiandien	-9.29328
▁nuomonę	-9.29329
▁taikymo	-9.29354
▁daugiausia	-9.29531
▁numat	-9.2956
▁minėt	-9.29862
▁vienintel	-9.31022
▁paminėt	-9.31022
▁leidim	-9.31024
▁Žinom	-9.31056
▁plači	-9.31142
pirmininkaujanči	-9.32513
▁liberal	-9.32746
▁prezident	-9.32746
▁pažeidžiam	-9.32747
▁gyvyb	-9.32747
▁reikalavimus	-9.32748
Europos	-9.33232
▁komitete	-9.34501
▁konferencij	-9.34501
▁konflikt	-9.34501
▁principu	-9.34501
▁Komisiją	-9.34501
▁nieko	-9.34502
▁išmetam	-9.34505
▁paklaus	-9.3451
▁glaud	-9.34516
▁besivystanči	-9.36286
▁dalykas	-9.36286
▁požiūrį	-9.36286
▁reglamento	-9.36286
▁reguliavimo	-9.36286
▁strategin	-9.36286
▁užimtumo	-9.36286
▁pavyzdžiu	-9.36286
▁pasveikinti	-9.36287
▁kredit	-9.36287
▁atvyk	-9.36288
▁partijos	-9.36292
žemio	-9.36293
Darbo	-9.36305
▁visuotin	-9.36502
▁uost	-9.36589
▁komitetas	-9.38105
▁nusikaltim	-9.38105
▁visapusišk	-9.38105
▁supranta	-9.38105
▁verslo	-9.38105
▁užbaig	-9.38106
▁įmonėms	-9.38107
▁neigiam	-9.38116
▁vieta	-9.3813
pone	-9.3936
▁Pritariu	-9.39956
▁demokratų	-9.39956
▁investicijų	-9.39956
▁problemą	-9.39956
▁atliekų	-9.39956
▁įmanoma	-9.39957
▁nuosekl	-9.3996
▁paskatin	-9.39961
▁režim	-9.40793
▁atvejais	-9.41843
▁investuot	-9.41843
▁konsul	-9.41843
▁neabejotina	-9.41843
▁pilietin	-9.41843
▁prekyba	-9.41843
▁savaitę	-9.41843
▁grindžiam	-9.41843
▁technin	-9.41843
▁žvejybos	-9.41844
▁sritis	-9.41845
▁atstovauja	-9.41854
▁prisidėt	-9.41885
▁2011	-9.43766
▁Afrikos	-9.43766
▁eksport	-9.43766
▁milijon	-9.43766
▁atnaujin	-9.43766
▁import	-9.43766
▁lankst	-9.43766
▁neteisėt	-9.43766
▁skaičius	-9.43766
▁suinteresuot	-9.43766
▁supaprastin	-9.43766
▁sustabdy	-9.43766
▁sektorių	-9.43767
▁žvej	-9.43769
▁sąraš	-9.4377
▁ginkl	-9.43771
▁veiksmai	-9.43773
▁bausm	-9.4379
▁išsami	-9.43808
▁dviej	-9.44114
▁svarstym	-9.44314
▁infrastruktūr	-9.45727
▁dalykų	-9.45727
▁institucija	-9.45727
▁organizacijos	-9.45727
▁sąžining	-9.45727
▁vaidmuo	-9.45727
▁Prieš	-9.45727
▁mirties	-9.45727
▁civili	-9.4573
▁išsaugo	-9.45734
▁padeda	-9.45735
▁sugebė	-9.45739
▁vadovauja	-9.4574
▁šeši	-9.45747
▁sėkm	-9.45957
▁pavaduotoj	-9.47727
▁solidarumo	-9.47727
▁posėdži	-9.47727
▁paskutin	-9.47728
▁plėtra	-9.47728
▁aktus	-9.47731
▁Italijo	-9.47734
▁Valstyb	-9.49768
▁apibrėžt	-9.49768
▁demokratini	-9.49768
▁naudojimo	-9.49768
▁projektu	-9.49768
▁projektą	-9.49768
▁sprendimai	-9.49768
▁ypating	-9.49768
▁jūrų	-9.49769
▁zonos	-9.4977
▁Atsižvelgia	-9.51851
▁baudžiam	-9.51851
▁gyvūn	-9.51851
▁pastangų	-9.51851
▁atvejų	-9.51851
▁išlaidų	-9.51852
▁keturi	-9.51853
acional	-9.51857
▁panaudot	-9.51858
▁Turkijos	-9.53979
▁Vengrijos	-9.53979
▁keleivi	-9.53979
▁priežastis	-9.53979
▁reikalavimų	-9.53979
▁santykių	-9.53979
▁element	-9.53979
▁kilmės	-9.5398
▁netinkam	-9.53985
▁esanči	-9.54019
▁papild	-9.56013
▁Sąjungą	-9.56153
▁džiaugiuosi	-9.56153
▁geležinkeli	-9.56153
▁principai	-9.56153
▁projekto	-9.56153
▁vartojimo	-9.56153
▁Diskusij	-9.56153
▁penki	-9.56213
▁Pirmiausia	-9.58375
▁Prancūzijos	-9.58375
▁dėmesys	-9.58375
▁fondų	-9.58375
▁institucijoms	-9.58375
▁išreikšt	-9.58375
▁prioritetu	-9.58375
▁reglamentu	-9.58375
▁sistemų	-9.58375
▁žuvininkystės	-9.58375
▁rūš	-9.58376
▁forma	-9.58381
▁Šiaurė	-9.58381
labiausiai	-9.59087
▁demokratija	-9.60648
▁išteklius	-9.60648
▁oficial	-9.60648
▁pobūdžio	-9.60648
▁straipsnio	-9.60648
▁tarpvalstybin	-9.60648
▁teisėkūros	-9.60648
▁pavyko	-9.60648
▁įsipareigojimų	-9.60648
▁palygin	-9.60649
▁pašalin	-9.60652
▁indėl	-9.62973
▁integruot	-9.62973
▁kriterijus	-9.62973
▁principų	-9.62973
▁anglies	-9.62973
▁moteris	-9.62973
▁vietoj	-9.62979
▁paragin	-9.6298
▁prisiim	-9.63059
▁Barroso	-9.65354
▁Graikijos	-9.65354
▁elektronin	-9.65354
▁švietimo	-9.65354
▁atsinaujinanči	-9.65354
▁moterys	-9.65354
▁reaguoti	-9.65354
▁manymu	-9.65354
▁operacij	-9.65354
▁tarpusav	-9.65355
▁iešk	-9.65357
▁priverst	-9.65363
žiūrėti	-9.67793
▁Pagrindin	-9.67793
▁darbuotojai	-9.67793
▁darbuotojams	-9.67793
▁dialogą	-9.67793
▁kandidat	-9.67793
▁santykius	-9.67793
▁Šengen	-9.67793
▁MVĮ	-9.67793
▁žiniasklaid	-9.67793
▁modeli	-9.67793
krikščionių	-9.70293
▁Džiaugiuosi	-9.70293
▁birželio	-9.70293
▁pavyzdys	-9.70293
▁principo	-9.70293
▁ryžting	-9.70293
▁vartotojams	-9.70293
▁Kopenhag	-9.70293
▁prisitaik	-9.70293
▁privači	-9.70327
J	-9.72406
▁apribojim	-9.72857
▁ilgalaiki	-9.72857
▁kapital	-9.72857
▁konkurencijos	-9.72857
▁lengva	-9.72857
▁rezultatai	-9.72857
▁tūkstanči	-9.72857
▁administracin	-9.75489
▁amžiaus	-9.75489
▁apskritai	-9.75489
▁biurokrat	-9.75489
▁delegacij	-9.75489
▁informuoti	-9.75489
▁integracijos	-9.75489
▁patobulin	-9.75489
▁priežasties	-9.75489
▁lėšas	-9.75489
▁pasiūlymai	-9.7549
▁nusprend	-9.77573
Plojimai	-9.78192
▁nukreipt	-9.78192
▁savanorišk	-9.78192
(	-10.4307
Š	-11.0966
