<pad>	0
</s>	0
<unk>	0
,	-3.02637
.	-4.04458
▁	-4.06694
ni	-4.08992
a	-4.29302
▁u	-4.32787
▁e	-4.40147
la	-4.41325
n	-4.42368
zi	-4.47874
nga	-4.49953
le	-4.51058
si	-4.53692
ka	-4.57409
▁i	-4.58003
ba	-4.62006
▁ku	-4.63851
ku	-4.68447
▁na	-4.72153
:	-4.75644
li	-4.77049
;	-4.78393
yo	-4.83359
▁a	-4.84333
▁“	-4.84948
▁ba	-4.86314
m	-4.86944
▁o	-4.87364
o	-4.91008
se	-4.91769
▁wa	-4.9419
na	-4.94449
be	-5.00181
e	-5.01533
thi	-5.03805
lo	-5.0385
u	-5.04924
ya	-5.09695
kho	-5.10656
sa	-5.11336
yi	-5.12003
ma	-5.15431
bo	-5.19468
ne	-5.28536
i	-5.30037
mi	-5.30096
▁uku	-5.31263
▁aba	-5.3134
▁nga	-5.3238
za	-5.35921
bu	-5.38277
ke	-5.38608
wa	-5.45657
.”	-5.46765
hla	-5.46926
▁be	-5.47712
▁ngi	-5.48959
▁no	-5.5144
▁si	-5.53064
-	-5.55067
▁ukuba	-5.55791
▁ni	-5.5952
we	-5.60147
ze	-5.62784
the	-5.661
bi	-5.6659
▁ya	-5.69211
▁ukuthi	-5.74178
ye	-5.74562
▁ngokuba	-5.77079
▁ka	-5.8001
pha	-5.81006
nge	-5.81099
lu	-5.81426
so	-5.82539
▁kwa	-5.86772
▁Kepha	-5.88903
tha	-5.9008
▁wathi	-5.90991
▁kepha	-5.93273
thu	-5.93281
▁oku	-5.945
zo	-5.97543
lwa	-5.98725
ngi	-6.00962
nye	-6.01957
▁ne	-6.04259
▁izi	-6.0451
▁U	-6.04864
▁nge	-6.05404
▁kuye	-6.05415
me	-6.05425
?	-6.06794
wo	-6.07246
bona	-6.07674
▁ezi	-6.07946
▁ngo	-6.10594
khulu	-6.11079
▁um	-6.1278
phi	-6.13637
kwa	-6.14225
▁Ngokuba	-6.15596
fa	-6.16598
hle	-6.16692
▁noku	-6.1983
ko	-6.2091
mu	-6.22761
▁la	-6.24047
vu	-6.26844
▁yi	-6.27347
d	-6.27371
ki	-6.27964
f	-6.2801
ngo	-6.29061
ngu	-6.29752
yaku	-6.29784
▁ngoku	-6.29851
▁esi	-6.32175
zwe	-6.32298
▁kwe	-6.34281
tho	-6.35457
▁sa	-6.36931
hl	-6.37475
phe	-6.37932
kholwa	-6.38343
▁kubo	-6.38395
kha	-6.38486
▁isi	-6.38841
Jesu	-6.39086
▁li	-6.39579
▁uJesu	-6.41322
sh	-6.42669
mbe	-6.4272
zwa	-6.42779
▁uNkulunkulu	-6.44251
▁uma	-6.44489
ndle	-6.45413
▁za	-6.45852
▁kini	-6.46246
▁ye	-6.46408
du	-6.47484
▁zi	-6.48416
▁we	-6.49162
Nkosi	-6.4938
▁ama	-6.51423
ndi	-6.5161
khu	-6.52336
▁bonke	-6.55092
▁khona	-6.56412
A	-6.56496
c	-6.57211
nda	-6.58117
▁ng	-6.58147
lela	-6.58543
▁ngu	-6.58718
su	-6.58851
▁Ba	-6.59194
wu	-6.59837
▁‘	-6.61037
khona	-6.61827
ngena	-6.619
▁kodwa	-6.62442
hlu	-6.62632
zaku	-6.62757
lwe	-6.63267
de	-6.63367
mbi	-6.66423
U	-6.66561
▁ma	-6.68281
swa	-6.68327
▁se	-6.68936
▁konke	-6.69657
?”	-6.70946
▁le	-6.7111
leyo	-6.71766
▁ukuze	-6.72324
nya	-6.72952
qa	-6.74706
nza	-6.75382
mba	-6.75596
khuluma	-6.79633
▁naba	-6.811
dla	-6.81304
kwe	-6.81769
▁lokho	-6.82249
▁noma	-6.82806
Kristu	-6.83384
ng	-6.83493
▁eli	-6.84031
sho	-6.84741
r	-6.84822
g	-6.85532
thanda	-6.86725
enxa	-6.86731
da	-6.86926
weni	-6.88794
tshe	-6.8899
▁A	-6.89141
▁em	-6.8957
▁owa	-6.90284
K	-6.9063
▁kaNkulunkulu	-6.91383
khe	-6.91532
▁bathi	-6.93312
pho	-6.93683
▁eku	-6.95808
nde	-6.96191
▁nezi	-6.96918
ningi	-6.9702
dwa	-6.97182
qo	-6.974
fika	-6.97843
▁lo	-6.98853
vela	-6.99149
▁lapho	-7.00162
awu	-7.01154
▁kwaba	-7.01169
▁kanye	-7.02412
N	-7.0283
▁nase	-7.02881
ta	-7.03028
▁aku	-7.03247
M	-7.03486
▁ko	-7.055
▁Ngakho	-7.05925
sha	-7.06384
▁N	-7.06749
▁yakhe	-7.06832
▁lokhu	-7.0687
▁Wa	-7.08334
S	-7.08898
hamba	-7.09032
▁yena	-7.09542
kaNkulunkulu	-7.11013
▁umuntu	-7.1191
▁kube	-7.12413
q	-7.12924
nze	-7.13154
Yi	-7.13414
ce	-7.15395
nto	-7.16116
kile	-7.16961
▁I	-7.17141
▁futhi	-7.17499
▁phambi	-7.18448
L	-7.18655
funa	-7.1872
mandla	-7.18775
▁nina	-7.19531
▁ninga	-7.19531
▁ese	-7.19564
.’	-7.19813
mthetho	-7.20889
▁Kwathi	-7.21368
t	-7.21816
▁E	-7.2184
ph	-7.22274
nje	-7.22879
munye	-7.2371
▁izwi	-7.23719
▁mina	-7.24365
lele	-7.2524
▁phakathi	-7.25388
I	-7.25676
▁wo	-7.26301
x	-7.26773
kuphila	-7.27095
swe	-7.27303
▁bakhe	-7.27439
kh	-7.27525
▁Ku	-7.27564
j	-7.27897
sikhathi	-7.28079
z	-7.288
mvu	-7.29849
▁waba	-7.3013
▁kwakhe	-7.30375
▁phezu	-7.3057
manga	-7.30866
”	-7.31195
▁abe	-7.32441
P	-7.32641
nyama	-7.32711
kela	-7.32911
leni	-7.32946
▁naye	-7.33136
▁kakhulu	-7.33263
J	-7.33735
Nkulunkulu	-7.33998
lweni	-7.34433
moya	-7.34612
▁kwenu	-7.34866
zwi	-7.35119
di	-7.35901
ndlu	-7.3599
▁ze	-7.36381
▁waye	-7.37105
▁iNkosi	-7.37884
ngelosi	-7.38278
▁imi	-7.38829
hlala	-7.38971
▁lu	-7.39316
ri	-7.39718
▁uya	-7.40391
k	-7.40715
▁yini	-7.40748
njalo	-7.40984
B	-7.41029
▁zonke	-7.4117
kuqala	-7.41373
phuma	-7.41458
’	-7.42433
▁ngithi	-7.43297
▁in	-7.43925
▁Khona	-7.44181
▁angi	-7.445
▁enga	-7.44861
Si	-7.44886
▁yo	-7.45411
▁engi	-7.45693
▁uyaku	-7.45893
▁kimi	-7.4606
muke	-7.46473
lokhu	-7.46912
Baba	-7.47313
mo	-7.47866
Lo	-7.48267
tu	-7.48294
fanele	-7.48623
▁aka	-7.48869
▁kwabo	-7.48948
lunga	-7.49148
ndoda	-7.4919
fi	-7.49323
Petru	-7.49843
gu	-7.49855
▁babe	-7.50157
ngcwele	-7.50345
kwenza	-7.50703
▁Kwa	-7.51091
zela	-7.51872
musa	-7.52522
▁muntu	-7.52562
▁ayi	-7.52612
▁wam	-7.53011
qh	-7.54479
kwazi	-7.54512
ra	-7.55184
ny	-7.55673
▁kuNkulunkulu	-7.55675
re	-7.55802
▁loku	-7.55947
baJuda	-7.56588
Moya	-7.56595
ga	-7.56771
nike	-7.56889
s	-7.57158
▁nalowo	-7.57242
Y	-7.57855
ile	-7.57871
phendula	-7.57904
▁nxa	-7.57929
p	-7.58657
▁kunge	-7.58991
▁bam	-7.59764
▁O	-7.60245
Ngi	-7.60308
Ng	-7.60319
thile	-7.60586
▁Uma	-7.60655
▁Ngi	-7.60994
▁phansi	-7.62231
bafundi	-7.62406
▁Kristu	-7.62868
▁njengalokh	-7.62923
mva	-7.63698
zinsuku	-7.64457
sebenzi	-7.65026
bantwana	-7.65204
nhliziyo	-7.65204
vi	-7.65204
▁Nga	-7.65471
lisa	-7.65605
mp	-7.66008
W	-7.66693
Johane	-7.66725
nj	-7.66746
muntu	-7.66751
▁wena	-7.66925
mbuso	-7.66992
▁emi	-7.67164
iwe	-7.67441
nkosi	-7.67661
zulu	-7.68152
▁omunye	-7.68707
▁njengo	-7.69866
khuleka	-7.69881
▁lwa	-7.70144
E	-7.70575
ti	-7.70652
nkulu	-7.70731
▁njalo	-7.71252
▁lakhe	-7.71913
bha	-7.7203
▁ezulwini	-7.72238
buye	-7.72321
▁nami	-7.72576
▁ngiya	-7.73002
Ni	-7.73308
tsha	-7.7417
namandla	-7.74335
nceku	-7.74751
▁abafundi	-7.74784
▁abanye	-7.75089
▁ngakho	-7.75213
▁nabo	-7.76066
khonza	-7.76431
▁lowo	-7.76767
▁Wathi	-7.7681
G	-7.77218
▁kuze	-7.77855
▁abantu	-7.77978
gama	-7.78054
nkazimulo	-7.78073
▁asi	-7.78228
hlezi	-7.78608
▁kuwe	-7.78795
▁n	-7.79029
▁kuphela	-7.79048
▁ubu	-7.79581
yakuba	-7.79957
yise	-7.80553
▁yami	-7.80803
busi	-7.80892
abantu	-7.81419
fun	-7.822
bhe	-7.82443
qin	-7.82512
▁ngezi	-7.82518
▁lwe	-7.82541
phum	-7.82808
nika	-7.83384
▁wayese	-7.8366
Ndodana	-7.84143
qiniso	-7.84271
▁ngaye	-7.84669
phela	-7.84839
▁naku	-7.84937
lowo	-7.85261
▁nani	-7.8529
▁Na	-7.85387
▁zakhe	-7.85612
kwenze	-7.86783
go	-7.87112
▁Wayese	-7.87345
▁masinyane	-7.87991
▁omkhulu	-7.88026
▁so	-7.88031
▁iNdodana	-7.88123
lungile	-7.88173
▁njenga	-7.88378
wini	-7.88749
lungis	-7.88806
▁koku	-7.89159
mukela	-7.89258
▁nesi	-7.89272
▁yoku	-7.89367
phenduk	-7.89923
▁Ni	-7.90084
▁yethu	-7.90097
kuthula	-7.90357
madoda	-7.90876
▁yilowo	-7.91097
muka	-7.91151
▁lutho	-7.91198
misa	-7.91342
thando	-7.91856
sixuku	-7.91858
▁njengokuba	-7.9188
▁manje	-7.92132
zalwa	-7.92303
thela	-7.92344
▁ngokwe	-7.92473
▁kwami	-7.92791
themba	-7.93052
▁ngokuthi	-7.93212
▁uKristu	-7.94789
gazi	-7.94803
thatha	-7.94947
▁nguye	-7.95106
fund	-7.95238
thiwa	-7.95539
gcina	-7.95707
▁eJerusalema	-7.96425
▁Kodwa	-7.96908
▁ungu	-7.97086
Th	-7.97949
▁sebe	-7.98557
▁soku	-7.98669
Juda	-7.98922
lotshiwe	-7.99002
▁oNgcwele	-7.99002
▁Ma	-7.99087
onke	-8.00136
▁thina	-8.00299
kileyo	-8.00495
▁Se	-8.01168
bandla	-8.01206
▁bazalwane	-8.0143
qonda	-8.01538
▁uMoya	-8.02144
▁bheka	-8.02249
landela	-8.02276
▁Aba	-8.02711
fundisa	-8.03307
▁yomuntu	-8.03432
▁ezweni	-8.03444
▁seku	-8.03952
wesifazane	-8.04438
▁kanjani	-8.04438
▁wakhe	-8.04457
▁ngiyaku	-8.04549
thathu	-8.05511
▁uPawulu	-8.05562
▁Ngalokho	-8.05567
▁kw	-8.06063
l	-8.06616
Z	-8.06698
thokoza	-8.06703
cala	-8.06772
▁likaNkulunkulu	-8.07181
w	-8.07225
tsh	-8.07382
manzi	-8.07803
baFarisi	-8.07847
baprofethi	-8.07847
fumana	-8.07848
▁yonke	-8.0786
fike	-8.08057
▁Wayesethi	-8.08649
melwe	-8.08716
▁labo	-8.09344
Ku	-8.0941
▁waphendula	-8.10228
▁sakhe	-8.10795
zwile	-8.10998
H	-8.11375
memeza	-8.11387
zono	-8.11452
fikile	-8.12735
▁Bheka	-8.12783
▁kanjalo	-8.13247
F	-8.13801
Israyeli	-8.13801
bapristi	-8.13801
phostoli	-8.13801
▁endlini	-8.13801
▁ngaphandle	-8.1381
▁igama	-8.14101
shumayela	-8.142
abezizwe	-8.15044
▁eNkosini	-8.15145
▁abaningi	-8.15509
file	-8.16301
Mose	-8.16303
▁yenu	-8.16329
bulala	-8.16523
khanda	-8.1713
gcwalis	-8.17552
▁nambili	-8.17587
▁okukhulu	-8.18403
▁lonke	-8.18855
▁wethu	-8.19063
hambe	-8.19696
O	-8.19788
bazalwane	-8.20001
thwa	-8.20133
demoni	-8.20138
khanya	-8.20925
ncwadi	-8.21448
▁kwabafileyo	-8.21449
khombisa	-8.21466
gubani	-8.21907
omhlaba	-8.22243
khulek	-8.22673
mashumi	-8.22782
▁zenu	-8.22802
▁ivangeli	-8.23412
Abrahama	-8.24133
Simoni	-8.24135
phakathi	-8.2531
iyu	-8.2661
▁emhlabeni	-8.26892
▁njenge	-8.26912
amazwi	-8.27905
Bheka	-8.28066
qinisile	-8.28274
ntand	-8.28313
gq	-8.29372
mpristi	-8.29729
mprofethi	-8.29729
mpela	-8.29744
dumo	-8.30118
▁ngezwi	-8.31823
phezu	-8.32643
sinagoge	-8.32649
▁ethempelini	-8.32667
▁kithi	-8.32732
Sathane	-8.34141
▁uqobo	-8.3417
busuku	-8.34203
▁imisebenzi	-8.34278
bonile	-8.34483
sezulwini	-8.35656
Ngiqinisile	-8.35685
▁nangoku	-8.37137
bhubh	-8.38757
ncenga	-8.38803
!	-8.40278
Kepha	-8.4031
sabatha	-8.40471
minyaka	-8.40581
gcin	-8.42256
mfanekiso	-8.43597
▁wonke	-8.43616
thumela	-8.43633
fakaza	-8.43645
sinkwa	-8.45152
Davide	-8.45264
bufakazi	-8.45266
▁nonke	-8.45474
thempeli	-8.46938
chith	-8.46959
▁sonke	-8.46971
▁Be	-8.4699
hlobo	-8.46991
babhali	-8.474
R	-8.48683
▁ngosuku	-8.48697
busweni	-8.4871
busisiwe	-8.50447
▁indodana	-8.50458
▁kungabi	-8.50624
emisebenzi	-8.50707
Pilatu	-8.52223
▁kubantu	-8.52223
sindiswa	-8.52235
Mina	-8.52239
hlanganyel	-8.52302
thwe	-8.54041
D	-8.54041
hlwanyel	-8.54058
!”	-8.54117
gcwele	-8.54458
mbuza	-8.54476
khipha	-8.55898
zibonakalis	-8.55901
shiya	-8.55918
Mariya	-8.5778
dlula	-8.57815
T	-8.59703
mntwana	-8.59703
▁phakade	-8.59703
▁sobukhosi	-8.61664
▁amabili	-8.61689
▁emzini	-8.61782
nziwe	-8.6194
▁eziyishumi	-8.63663
▁amehlo	-8.63663
sebenza	-8.63703
sokunene	-8.63752
nduna	-8.65989
Kesari	-8.67788
mpumputhe	-8.67788
bayishumi	-8.67788
thandekayo	-8.67788
▁okuphakade	-8.67788
kwahlulela	-8.6779
buthakathaka	-8.69915
mpofu	-8.69915
ncane	-8.69916
▁egam	-8.71652
Herode	-8.72089
▁eziyisikhombisa	-8.72089
▁ngaphambili	-8.72089
sondela	-8.72114
▁kwalokho	-8.72158
▁ababili	-8.7218
vangeli	-8.73288
Yebo	-8.74323
phuza	-8.74325
Jerusalema	-8.77663
kwesaba	-8.78673
zinkulungwane	-8.7891
▁esiphambanweni	-8.7891
mhlophe	-8.7891
▁umzimba	-8.78931
mfundi	-8.80927
khathaz	-8.81038
▁Kanjalo	-8.81291
▁izingubo	-8.81308
lukhuni	-8.81523
sithembiso	-8.83731
golide	-8.83733
Wena	-8.83745
shilo	-8.83766
ezinyawo	-8.85085
▁izandla	-8.8623
omlilo	-8.86632
kusukela	-8.86644
Mfundisi	-8.88794
hlambalaza	-8.88794
▁omuhle	-8.88818
ngomuso	-8.88894
▁Bon	-8.89206
besifazane	-8.91425
▁Futhi	-8.91426
khubeki	-8.91439
bekezela	-8.91452
fundiso	-8.93909
seGalile	-8.94128
sibonakaliso	-8.94128
ngithumile	-8.94133
ngcebo	-8.94139
▁izixuku	-8.96906
2	-9.67629
1	-9.93571
5	-10.398
6	-10.6658
4	-11.0325
7	-11.6158
9	-11.6158
8	-12.1146
C	-12.1147
3	-12.1148
X	-12.1149
V	-12.115
Q	-12.1151
—	-12.1152
‘	-12.1153
v	-12.1154
“	-12.1155
y	-12.1156
b	-12.1157
'	-12.1158
0	-12.1158
h	-12.1158
