<pad>	0
</s>	0
<unk>	0
▁¦	-0
ို	-1
▁်	-2
ော	-3
င်	-4
ား	-5
ည်	-6
ကို	-7
တို	-8
သော	-9
ကြ	-10
က်	-11
ရှ	-12
တော	-13
င်း	-14
▁အ	-15
ပြ	-16
သည်	-17
▁့	-18
▁သ	-19
န်	-20
တို့	-21
၏။	-22
▁မ	-23
နှ	-24
င့်	-25
တော်	-26
ုရ	-27
မျ	-28
မှ	-29
တ်	-30
ို့	-31
မူ	-32
ဘုရ	-33
ိမ	-34
ငါ	-35
▁့်	-36
ဖြ	-37
သူ	-38
▁ထ	-39
ခြ	-40
စ်	-41
ီး	-42
သည	-43
ိုး	-44
ေး	-45
ဘုရား	-46
မြ	-47
လျ	-48
ကျ	-49
ယ်	-50
ရှိ	-51
ပ်	-52
ုံ	-53
▁၊	-54
ည်း	-55
ောက်	-56
ရာ	-57
ဟု	-58
ပါ	-59
ချ	-60
▁လ	-61
▁ငါ	-62
ေါ	-63
သား	-64
စေ	-65
နှင့်	-66
မည်	-67
ကြော	-68
ကား	-69
သို့	-70
▁တ	-71
တော်မူ	-72
၍၊	-73
တို့သည်	-74
ာဝ	-75
နေ	-76
ာဝရ	-77
ခြင်း	-78
မျိုး	-79
▁ထို	-80
▁ယ	-81
▁သူ	-82
▁၏။	-83
ိမ်	-84
ာဝရဘုရား	-85
လျှ	-86
ပေါ	-87
??	-88
▁သင်	-89
လော	-90
▁စ	-91
အား	-92
သောသူ	-93
ုံး	-94
တို့ကို	-95
ွန်	-96
ွား	-97
ပြု	-98
▁ပ	-99
ောင်	-100
ဖြစ်	-101
ခါ	-102
သောအ	-103
ရေ	-104
တွ	-105
မည်။	-106
ုပ်	-107
အမျိုး	-108
သခ	-109
ောက	-110
မှာ	-111
သို	-112
မည	-113
ောင	-114
ဆို	-115
်း	-116
ခံ	-117
သင	-118
များ	-119
နှင	-120
လည်း	-121
▁်၊	-122
လူ	-123
ိန်	-124
▁ကို	-125
ကြီး	-126
ငှ	-127
▁ရ	-128
ထို	-129
▁က	-130
ဘုရားသခ	-131
လေ	-132
▁န	-133
▁။	-134
ကြ၏။	-135
▁ထာဝရဘုရား	-136
ခြင	-137
မျှ	-138
ရှေ	-139
▁မြ	-140
ငှါ	-141
▁ပြ	-142
င်း၊	-143
မ်း	-144
▁ဆ	-145
ကျွန်	-146
င်၊	-147
ိမ့်	-148
ုန်	-149
ိတ်	-150
သွား	-151
ွှ	-152
မြို့	-153
ပြီ	-154
ူး	-155
ဲ့	-156
လျက်	-157
မှု	-158
အဘ	-159
ထား	-160
သရေ	-161
▁ကိုယ်	-162
ဖြင့်	-163
လာ	-164
▁်။	-165
????	-166
မိ	-167
အပေါ	-168
ိမိ	-169
လိမ့်	-170
လို	-171
ွာ	-172
ထာဝရဘုရား	-173
▁၍	-174
ွန	-175
▁္	-176
ကား၊	-177
ွေ	-178
ဣသရေ	-179
ဣသရေလ	-180
ောင်း	-181
▁ရှ	-182
ဖြစ	-183
▁ခ	-184
လည	-185
ုပ	-186
▁လူ	-187
▁ကြ	-188
ရား	-189
▁၏	-190
ပေး	-191
ုတ်	-192
▁အဘ	-193
လုံး	-194
ိတ	-195
ုတ	-196
ကြောင	-197
ဘုရားသခင်	-198
အသ	-199
ော်	-200
နာ	-201
▁ငါ့	-202
ွေး	-203
ပြည်	-204
ကြောင့်	-205
ုန	-206
၎င်း၊	-207
သာ	-208
လော့	-209
ပါး	-210
တော်မူ၏။	-211
ိုင်	-212
ဉ်	-213
ပြီး	-214
ဝိ	-215
ေရ	-216
လျှင်၊	-217
▁ကျ	-218
စာ	-219
အရ	-220
ကျွန်ုပ်	-221
သန	-222
လိမ့်မည်။	-223
ကြောင်း	-224
▁်၌	-225
ိန့်	-226
သောအခါ	-227
သူတို	-228
မြို	-229
အမျိုးသား	-230
ရှု	-231
ကာ	-232
ပြော	-233
သေ	-234
သမျှ	-235
သတ	-236
ည်း။	-237
ထဲ	-238
စွာ	-239
ကိုယ	-240
ဟူ	-241
ခြင်းငှါ	-242
စား	-243
▁ဘုရားသခင်	-244
နှစ်	-245
တော်ကို	-246
▁အဘယ်	-247
▁၌	-248
ပျ	-249
▁အကျွန်ုပ်	-250
ွဲ	-251
▁သင်တို့	-252
ည့်	-253
▁ဗ	-254
▁ချ	-255
ရှင	-256
လော့။	-257
ခံရ	-258
ရှိသော	-259
ရှင်	-260
လည်း၊	-261
စကား	-262
အတို	-263
တရား	-264
လေ၏။	-265
▁အသ	-266
သက	-267
္တ	-268
▁မိမိ	-269
▁်၏	-270
းကို	-271
ွက်	-272
းမ	-273
ညာ	-274
▁သူတို့	-275
▁အာ	-276
ကျွန	-277
တတ်	-278
စုံ	-279
▁ဝ	-280
လျှင	-281
▁ဣသရေလ	-282
သိ	-283
▁ဒ	-284
▁်၍	-285
လိမ	-286
လွှ	-287
▁နေ	-288
ဇ်	-289
ပြည	-290
▁ဘ	-291
လှ	-292
ထံ	-293
ိုင	-294
အမှု	-295
နား	-296
လျက	-297
သော်	-298
ဖြင	-299
▁ဤ	-300
ပြီ။	-301
ုဒ	-302
ပြစ်	-303
မိန	-304
ရှေ့	-305
တွင်	-306
ဲ့သို့	-307
ဘဲ	-308
မီး	-309
တူ	-310
န်း	-311
အရာ	-312
ိုက်	-313
ယူ	-314
ရဲ	-315
ောင့်	-316
ံ့	-317
န့်	-318
▁၍၊	-319
ဘုရင်	-320
တိုင်	-321
▁မိန့်	-322
အာ	-323
▁ဟ	-324
ပေါ်	-325
အခါ	-326
ီရ	-327
▁ကိုယ်တော်	-328
ရိ	-329
လင်	-330
ကွ	-331
နိုင်	-332
ဘုရားသခင	-333
မူကား၊	-334
လက	-335
အပေါင်း	-336
ခု	-337
▁ဖ	-338
အစ	-339
▁သို့	-340
ယောက်	-341
သဖြင့်	-342
လက်	-343
ညီ	-344
ျက်	-345
▁ကောင်း	-346
များကို	-347
တွင	-348
ခြင်းကို	-349
ောဟ	-350
ကောင	-351
တပါး	-352
လျက်၊	-353
မရှိ	-354
▁သည်	-355
ဦး	-356
တည	-357
ရော	-358
????????	-359
ခေါ	-360
▁ဖြစ်	-361
တိ	-362
▁နှ	-363
ရှိသမျှ	-364
ဖန်	-365
▁မှ	-366
▁သား	-367
▁ပြု	-368
ူဇ	-369
▁ငါသည်	-370
▁ဧ	-371
▁ထိုသူ	-372
က၊	-373
ကြား	-374
နေ့	-375
မည်ဟု	-376
ဒ်	-377
▁်၍၊	-378
▁ယဇ်	-379
▁့။	-380
ေရှု	-381
မာ	-382
▁့်၊	-383
တံ	-384
ျား	-385
▁သော	-386
စ္	-387
ါဝိ	-388
ဘက်	-389
လု	-390
မင	-391
ပြီးမှ	-392
▁သင့်	-393
မင်း	-394
ရကြ	-395
အဘယ	-396
ခွ	-397
ေလ	-398
ေရု	-399
းတို	-400
ရှင်း	-401
အချ	-402
▁သင်သည်	-403
စေခြင်းငှါ	-404
လျှင်	-405
▁သင်၏	-406
▁်၏။	-407
ရှိ၏။	-408
ထောင်	-409
လင	-410
စရာ	-411
အကြောင	-412
▁၎	-413
မဟု	-414
ပုရ	-415
▁တော	-416
▁င	-417
အကျွန	-418
▁သင်တို့သည်	-419
အောင်	-420
တတ	-421
မိမိ	-422
▁မြေ	-423
ဝေး	-424
းငှါ	-425
စကားကို	-426
▁သူတို့သည်	-427
ကာလ	-428
တော်မူသည်	-429
နှစ	-430
ကဲ့သို့	-431
ပင်	-432
▁လက်	-433
ခြား	-434
▁ထိုသို့	-435
▁ရောက်	-436
▁အသက်	-437
ေးဇ	-438
ရမည်။	-439
ကြောင့်၊	-440
ိမ်း	-441
ကင်	-442
ပုရောဟ	-443
မူကား	-444
ေးဇူး	-445
ိလ	-446
ဆာ	-447
ရပ်	-448
▁ဂ	-449
ခြေ	-450
မြေ	-451
▁အကြောင်း	-452
သောအခါ၊	-453
အားဖြင့်	-454
▁မြို့	-455
ကြလော့။	-456
မျက်	-457
ွယ်	-458
▁့၌	-459
မြင	-460
အရပ်	-461
ရောက	-462
တော်မူသော	-463
ီရင်	-464
တိုင	-465
င်္	-466
▁ထာဝရဘုရားသည်	-467
▁သူ၏	-468
မှီ	-469
စဉ်	-470
ချင်း	-471
ောရှေ	-472
ပြစ	-473
ဘော	-474
သဖြင့်၊	-475
ပါ၏။	-476
ကြံ	-477
▁????????	-478
ဆယ်	-479
ရသော	-480
နှာ	-481
ကဲ	-482
▁အပြစ်	-483
ဇာ	-484
ရှာ	-485
တောင	-486
▁မီး	-487
▁ဘုရား	-488
ရောက်	-489
လမ	-490
ခါး	-491
▁ဆို	-492
▁ယုဒ	-493
တို့အား	-494
၎င်း	-495
ဟူသော	-496
မြင်	-497
ိုဃ	-498
ျာ	-499
အပေါင	-500
အတူ	-501
ဂုတ	-502
တည်း	-503
ဲဂုတ	-504
ပေါ်မှာ	-505
ကြွ	-506
နိုင	-507
ကလည်း၊	-508
ခရ	-509
ယောက	-510
▁ရှိ	-511
အလို	-512
ဆုံး	-513
ပါ။	-514
ေရုရှ	-515
ွတ်	-516
ိန	-517
တွေ	-518
▁နား	-519
ဘေး	-520
ဆောင်	-521
တော်၌	-522
▁ငါတို့	-523
ိပ်	-524
ရမည	-525
ိန်းမ	-526
ယဇ	-527
ငံ	-528
ူဇော်	-529
န့်ရှင်း	-530
လျှောက်	-531
ဆင	-532
▁တဖန်	-533
တိုက်	-534
ွက	-535
ငါတို	-536
မှစ	-537
သုံး	-538
ဆီး	-539
ပါစေ	-540
▁ကျွန်	-541
ယော	-542
ထဲက	-543
ဝါ	-544
▁အမ	-545
ယာ	-546
းက	-547
အန	-548
သက်	-549
စ္စာ	-550
တိုင်အောင်	-551
ာန	-552
▁စိတ်	-553
မျက	-554
ုလ	-555
ထက်	-556
လော။	-557
ါဝိဒ်	-558
စု	-559
▁ပေး	-560
ပြား	-561
▁ရှင်	-562
ဘုရင	-563
သမီး	-564
ဝိညာ	-565
▁ကောင်းကင်	-566
တို့၏	-567
▁ယော	-568
▁ထာဝရဘုရား၏	-569
ဆောင	-570
စီး	-571
ရှား	-572
▁အလ	-573
ဖန	-574
သဖြင	-575
းသော	-576
▁ဖြ	-577
▁ည	-578
ပင	-579
ကြလိမ့်မည်။	-580
တော်သည်	-581
အလ	-582
ပတ်	-583
▁သွား	-584
▁ထိုအခါ	-585
အသက	-586
▁ပြန်	-587
တု	-588
သောသူသည်	-589
ိုလ	-590
ခင်	-591
မေ	-592
တ္တ	-593
လိုက်	-594
▁ရေ	-595
▁့၊	-596
တကွ	-597
▁အမျိုး	-598
ပလ	-599
တို့နှင့်	-600
▁အို	-601
ရ။	-602
▁ရှင်ဘုရင်	-603
ရက်	-604
▁သေ	-605
နည်း	-606
▁အမှု	-607
ရောဖ	-608
လွှတ်	-609
▁့၏	-610
အတိုင	-611
တမ	-612
နှင့်။	-613
လေး	-614
▁သူ့	-615
စိတ	-616
တင်	-617
အကြောင်း	-618
▁တရား	-619
သည်ကို	-620
ပေါင်း	-621
ပြန	-622
စိုး	-623
အပြစ	-624
သံ	-625
ဏ်	-626
▁ဥ	-627
▁မိန့်တော်မူ၏။	-628
အဘို့	-629
ခြင်း၊	-630
▁ငါ့ကို	-631
ခိုး	-632
ကောင်း	-633
အရပ	-634
▁သန့်ရှင်း	-635
အတိုင်း	-636
ခဲ့	-637
ဖြစ်၏။	-638
ဟာ	-639
▁သူသည်	-640
သည်ဟု	-641
ဂလာ	-642
နေရာ	-643
သောအရာ	-644
အမှုကို	-645
ရု	-646
အသီး	-647
ထောင	-648
▁အကြောင်းမူကား၊	-649
ပုရောဟိတ်	-650
ဏာ	-651
ဘို့	-652
ဖြစ်၍၊	-653
▁ဒါဝိဒ်	-654
မတ်	-655
လိ	-656
နောက်	-657
ိုင်း	-658
မြောက်	-659
▁စေ	-660
▁စစ်	-661
သတ်	-662
အမြ	-663
မှား	-664
နှလုံး	-665
တို့၌	-666
မဟုတ်	-667
ငယ်	-668
ငါသည	-669
▁ဆောင်	-670
▁အဘယ်သူ	-671
▁ခံရ	-672
တိုင်း	-673
သတည်း။	-674
▁လေ	-675
▁ယေရှု	-676
▁်္	-677
ွှေ	-678
ဘက	-679
ုံကြ	-680
စေခြင	-681
ပြန်	-682
စ်ကို	-683
ဝတ်	-684
ွမ်း	-685
ုန်း	-686
▁စား	-687
▁ဘုရားသခင်၏	-688
သောအမှု	-689
ွန်း	-690
ကြလော	-691
▁ယဇ်ပုရောဟိတ်	-692
ရှင်ဘုရင်	-693
သူသည	-694
▁ပြော	-695
ဆွေ	-696
အိမ်	-697
အောင	-698
▁ငါ၏	-699
လင်မြို့	-700
▁ဣသရေလအမျိုး	-701
▁စကား	-702
ခွင့်	-703
္တု	-704
စရ	-705
အိမ	-706
တောင်	-707
▁နှုတ်	-708
စိတ်	-709
ိုက	-710
မူသော	-711
ကို၎င်း၊	-712
ွေ့	-713
ိုဃ်း	-714
ရွ	-715
▁အိမ်	-716
အပေါင်းတို့သည်	-717
ဟော	-718
ကောင်	-719
▁မျက်	-720
ဆဲ	-721
လူတို	-722
သော်လည်း၊	-723
ာလ	-724
နောက	-725
အတွ	-726
▁လှ	-727
ခဲ	-728
ထွက်	-729
တန်	-730
ဉ်း	-731
▁သိုး	-732
ဝင်	-733
▁နောက်	-734
ပြင်	-735
လိုက	-736
စွာသော	-737
ွင်း	-738
ပြီဟု	-739
ဲဂုတ္တု	-740
တတ်၏။	-741
ဇိ	-742
တဖန	-743
▁မောရှေ	-744
သင်	-745
ပည	-746
ယုဒ	-747
ကျိုး	-748
▁သခင်	-749
ိရ	-750
▁အား	-751
သနည်း။	-752
▁အဲဂုတ္တု	-753
နည	-754
လည်	-755
▁သူတို့ကို	-756
ီးမ	-757
ယား	-758
ထွက	-759
ငြ	-760
တယောက်	-761
မူသည	-762
ယေရှု	-763
အားဖြင	-764
သိမ	-765
▁ထား	-766
းတော	-767
▁ပြည်	-768
▁ယေရုရှ	-769
ဆိုး	-770
▁ကြား	-771
ကျေးဇူး	-772
ုစရ	-773
ဗြ	-774
▁ခေါ	-775
ဆယ	-776
ရှေ့မှာ	-777
ိပ	-778
နှုတ	-779
ထံသို့	-780
▁မိုဃ်း	-781
ငါး	-782
▁လာ	-783
စစ	-784
▁လုပ်	-785
▁အဘယ်သို့	-786
ထာဝရဘုရားသည	-787
▁ပူဇော်	-788
တံခါး	-789
အတိုင်း၊	-790
ေဒ	-791
ကိုမ	-792
ပြင	-793
္လင်	-794
▁မည်	-795
ထိုသို	-796
ဆင်း	-797
▁ကယ်	-798
▁ယခု	-799
တင	-800
လုပ	-801
▁ထွက်	-802
သခင	-803
▁တည်	-804
ဝိညာဉ်	-805
▁နှစ်	-806
▁နာ	-807
အမ	-808
▁မိ	-809
သောသူတို	-810
သီး	-811
▁မူ	-812
းကင	-813
▁ဣသရေလအမျိုးသား	-814
▁စီရင်	-815
ော့	-816
လုပ်	-817
▁အလွန်	-818
မမူ	-819
သိုး	-820
ကြလိမ	-821
▁ဆင်း	-822
▁ယေရုရှလင်မြို့	-823
သားတို	-824
ကြောင်း၊	-825
သောကြောင့်၊	-826
စီရ	-827
ဝင	-828
▁လျှောက်	-829
တည်း။	-830
ပွဲ	-831
သကဲ့သို့	-832
လမ်း	-833
ောင့်မတ်	-834
သနည	-835
ကြပါ	-836
▁သင့်ကို	-837
လွှတ	-838
စီရင	-839
ကျင	-840
တန	-841
▁ထာဝရ	-842
အပေါ်	-843
▁ရှော	-844
ဗိုလ	-845
ဗာ	-846
ရောဖက်	-847
▁မြင်	-848
ပြီးမှ၊	-849
အသက်	-850
▁မင်း	-851
တော်မူပါ။	-852
ာန်	-853
ကိုလည်း	-854
နှုတ်	-855
ကလည	-856
▁ကျေးဇူး	-857
▁ဗာ	-858
နေသော	-859
ခုန	-860
▁မြေကြီး	-861
မတ	-862
ဘက်၌	-863
ပြုသော	-864
ပတ	-865
ဆက်	-866
ရှို့	-867
▁ငါတို့သည်	-868
အပ	-869
အပြစ်	-870
းကြီး	-871
စီရင်	-872
လော့ဟု	-873
တွင်၊	-874
သော်၊	-875
▁မိန်းမ	-876
ရမည်	-877
ဖွ	-878
မေး	-879
ဝတ	-880
ပြီးလျှင်၊	-881
ကျင့်	-882
ဆီ	-883
ယဇ်	-884
စောင	-885
ုန့်	-886
တောင်း	-887
ကြောင်းကို	-888
အံ့	-889
နားမှာ	-890
▁ရန်	-891
တော်သို့	-892
မ္	-893
▁အစဉ်	-894
င်္ဂလာ	-895
ချင	-896
▁တံ	-897
မှန်	-898
တယောက	-899
လူမျိုး	-900
မှတပါး	-901
ံကို	-902
လွ	-903
ညှ	-904
ဘူး	-905
မက	-906
ရွာ	-907
မှစ၍	-908
စင်	-909
ခြင်းသို့	-910
၏သား	-911
▁များ	-912
နိ	-913
ထဲသို့	-914
▁အခြား	-915
▁ငြ	-916
သောသူ၊	-917
▁တောင်	-918
▁မေး	-919
▁အရှင်	-920
ပေ	-921
ချက်	-922
ထက	-923
မဟုတ	-924
▁ယာ	-925
▁ကိုယ်တော်သည်	-926
▁လိုက်	-927
တည်းဟူသော	-928
တည်	-929
ူဇော	-930
▁သက်	-931
သလော	-932
တို့၊	-933
▁ခရ	-934
ပူဇော	-935
ရှေ့တော်၌	-936
ပလ္လင်	-937
▁လွှ	-938
လျှောက	-939
အစ်ကို	-940
ဂါ	-941
ဗုလ	-942
ဟုဆို	-943
ရေး	-944
တွေ့	-945
▁စောင့်	-946
▁ဖြောင့်မတ်	-947
နာမ	-948
သည်လည်း	-949
မြှ	-950
▁သိ	-951
▁အရာ	-952
သိမ်း	-953
တခု	-954
အမျိုးသားတို	-955
ပါစေသော	-956
▁အချ	-957
ဖြစ်စေ	-958
စစ်	-959
▁ခေါ်	-960
သေး	-961
မှတ်	-962
ရှိရာ	-963
နက်	-964
လိမ့်မည်ဟု	-965
ဋိ	-966
မြို့၊	-967
မြောက	-968
▁ကြီး	-969
ကြည	-970
တကား	-971
▁အရပ်	-972
ကယ	-973
တိုက	-974
သတည	-975
ါဝိဒ	-976
▁ပရောဖက်	-977
▁မီးရှို့	-978
ဒါဝိဒ	-979
ဆွေအမျိုး	-980
ကြွေး	-981
င်သော	-982
အို	-983
▁သတ်	-984
ိမာန်	-985
▁ခံ	-986
ပျစ်	-987
ရိုး	-988
ဟူမူကား၊	-989
ဣသရေလအမျိုး	-990
္ခ	-991
ဘွယ်	-992
ုံကြည်	-993
ပြည်၌	-994
သော်လည်း	-995
▁နားထောင်	-996
သောကြောင	-997
နှင့်အတူ	-998
မိန့်	-999
အဘို	-1000
ိုးဘေး	-1001
ရက	-1002
ထာဝရ	-1003
▁့်။	-1004
▁ဟော	-1005
▁ကြည့်	-1006
ထိုအခါ	-1007
တို့တွင်	-1008
အရှင	-1009
ငွေ	-1010
▁မိန့်တော်မူသည်	-1011
ျက်ဆီး	-1012
ဘွား	-1013
နည်း။	-1014
သောသူသည	-1015
ွယ	-1016
စံ	-1017
သူရဲ	-1018
မပြ	-1019
▁ဝမ်း	-1020
မိန်းမ	-1021
▁အာရ	-1022
စောင့်	-1023
နိုင်ငံ	-1024
▁လူများ	-1025
မင်းကြီး	-1026
အကြောင်း၊	-1027
▁သင်တို့ကို	-1028
▁ကြောက်	-1029
ဖြစ်၍	-1030
တတ်သော	-1031
တပ	-1032
ပါဟု	-1033
ညီအစ်ကို	-1034
ရပ	-1035
စိ	-1036
ည်းဟု	-1037
▁ပည	-1038
▁မိမိတို့	-1039
သမ	-1040
▁မှာ	-1041
ုစရိုက်	-1042
ရည်	-1043
ခန	-1044
သောငှါ	-1045
နှင့်တကွ	-1046
▁ကျောက်	-1047
မောရှေ	-1048
ငယ	-1049
▁ဣ	-1050
ပျက်	-1051
ဖြေ	-1052
ရ၏။	-1053
းပ	-1054
ကုပ်	-1055
ရိမ်	-1056
သလော။	-1057
းမူကား	-1058
▁ယူ	-1059
▁လမ်း	-1060
ခေါ်	-1061
ရှော	-1062
ထဲမှာ	-1063
ရိမ	-1064
သားတို့သည်	-1065
သောသူတို့သည်	-1066
▁ကိုယ်တော်ကို	-1067
ကိုယ်	-1068
င်ရှား	-1069
ုရိ	-1070
သခင်	-1071
မယား	-1072
မော	-1073
္ကာ	-1074
အလုံး	-1075
▁ရွှေ	-1076
စေခြင်းငှါ၊	-1077
လဲ	-1078
▁ဘုရားသခင်သည်	-1079
ကိုလည	-1080
ပုရောဟိတ	-1081
အခြား	-1082
ဘို	-1083
င်းကို	-1084
▁တန်	-1085
▁အသီး	-1086
မြို့သို့	-1087
ရန	-1088
▁အလို	-1089
ကြ။	-1090
တရားကို	-1091
ရှဲ	-1092
ပညာ	-1093
္တိ	-1094
▁တပါး	-1095
င်လ	-1096
သဘော	-1097
▁တယောက်	-1098
ဟူ၍	-1099
ခြောက်	-1100
ကိုး	-1101
သည်ကား၊	-1102
အံ	-1103
းသည	-1104
နွား	-1105
▁စာ	-1106
သေခံ	-1107
ဆက	-1108
▁ပညာ	-1109
▁ကိုယ်တော်၏	-1110
နေ့၌	-1111
▁ကျိန်	-1112
▁မတရား	-1113
ီးမွမ်း	-1114
ဖျ	-1115
စည	-1116
မုန	-1117
ဝပ်	-1118
ိလိတ	-1119
တော်နှင့်	-1120
▁ထာဝရဘုရားကို	-1121
ကြယ်	-1122
ခွင	-1123
ပြေး	-1124
▁ဆုံး	-1125
သောသူကို	-1126
ခံရသော	-1127
မှာထား	-1128
▁ဇ	-1129
ကုန်	-1130
▁ပညတ်	-1131
လူတို့သည်	-1132
ဋိညာ	-1133
သားကို	-1134
တာ	-1135
▁ပြည့်	-1136
▁ဟေ	-1137
▁ဗိမာန်	-1138
စင	-1139
မက်	-1140
▁အသက်ရှင်	-1141
သစ	-1142
စည်း	-1143
အုပ်	-1144
ကြည့်	-1145
သက္ကာ	-1146
▁ရန်သူ	-1147
တော်မူပြီ။	-1148
▁အဘယ်ကြောင့်	-1149
းသို	-1150
တ္တာ	-1151
▁ဝင်	-1152
သွား၍	-1153
တော်မမူ	-1154
▁သင်္	-1155
ဘဲနေ	-1156
သား၊	-1157
ယေရုရှ	-1158
တဖန်	-1159
မြေကြီး	-1160
တစုံ	-1161
▁စပျစ်	-1162
ထုတ်	-1163
ရှိကြ	-1164
အညီ	-1165
ွမ	-1166
ပယ်	-1167
ကြောက	-1168
းနှင	-1169
သည်၊	-1170
စာကို	-1171
ဆို၏။	-1172
အရပ်၌	-1173
ဟံ	-1174
စွဲ	-1175
မြို့၌	-1176
အရှင်	-1177
ပူဇော်	-1178
ွန့်	-1179
ထင	-1180
ဌာန	-1181
လူများ	-1182
မျက်နှာ	-1183
အစဉ	-1184
တဲ	-1185
ရံ	-1186
▁မျက်နှာ	-1187
▁ငွေ	-1188
▁အဲဂုတ္တုပြည်	-1189
မသိ	-1190
ျာဒ	-1191
အမြဲ	-1192
▁သိမ်း	-1193
▁ကယ်တင်	-1194
ရွံ	-1195
▁နေ့	-1196
▁ဆင်းရဲ	-1197
ပြီးလျှင	-1198
အသရေ	-1199
မူပါ	-1200
လွတ်	-1201
တွင်း	-1202
▁မည်။	-1203
▁သုံး	-1204
သည်အတိုင်း	-1205
▁တပ်	-1206
ကယ်	-1207
မိုဃ	-1208
▁အခွင့်	-1209
အပ်	-1210
▁တဲ	-1211
▁ယေ	-1212
ပြု၍	-1213
▁ရှာ	-1214
းဟု	-1215
▁ဒုစရိုက်	-1216
▁မေ	-1217
▁သာ	-1218
တမန်	-1219
အဲဂုတ	-1220
မှတ	-1221
ယခု	-1222
မည်း	-1223
သနား	-1224
▁အမျက်	-1225
နက	-1226
ဖျက	-1227
မပြု	-1228
မှူး	-1229
အတွက်	-1230
ရိသတ်	-1231
အချိန်	-1232
ပတ်လုံး	-1233
နံ	-1234
ပေးတော	-1235
ကပ်	-1236
▁ကာလ	-1237
▁အပ်	-1238
စ္ဆာ	-1239
ပေါလု	-1240
▁နွား	-1241
▁အချင်း	-1242
ကြိုး	-1243
၏ဟု	-1244
ီးမြှ	-1245
ကြပြီ။	-1246
မေ့	-1247
ထိုသူ	-1248
▁တိုက်	-1249
်ခြေ	-1250
ပြည့်	-1251
ဥစ္စာ	-1252
▁ယာကုပ်	-1253
ငှာ	-1254
မှန	-1255
ရုဏာ	-1256
သောကြောင့်	-1257
ပျက	-1258
ကွယ်	-1259
မြတ်	-1260
ရှက်	-1261
လောက	-1262
ဖြောင	-1263
ယေရုရှလင	-1264
▁စေလွှတ်	-1265
ပု	-1266
အလျ	-1267
ရွေး	-1268
လတ	-1269
များ၊	-1270
▁ယနေ့	-1271
▁တို့ကို	-1272
▁သို့ရာ	-1273
▁သင်တို့၏	-1274
ဝမ	-1275
▁အပေါင်း	-1276
ချီ	-1277
ဆင်	-1278
▁သူ့ကို	-1279
▁နောက်တဖန်	-1280
ထံသို	-1281
▁နှင့်	-1282
▁အကျွန်ုပ်ကို	-1283
▁????????????	-1284
စေ့	-1285
ရွှေ	-1286
ဟုတ်	-1287
▁နန်း	-1288
သနည်းဟု	-1289
ိုကြွေး	-1290
▁အကျွန်ုပ်သည်	-1291
▁ရာ	-1292
ဉ်းဆဲ	-1293
အောက်	-1294
ထားသော	-1295
▁ရှောလု	-1296
▁လည်း	-1297
စေတော	-1298
မရှိ။	-1299
ကြီးသော	-1300
▁အမိန့်	-1301
▁ပယ်	-1302
▁ခရစ်	-1303
သမျှသော	-1304
အကျိုး	-1305
အရာကို	-1306
မြစ်	-1307
အလွန	-1308
စီ	-1309
ကျောက	-1310
ဖွဲ့	-1311
ဗြဟံ	-1312
▁တပ	-1313
▁သစ္စာ	-1314
▁ညှ	-1315
▁ဟာ	-1316
ကြွင်း	-1317
ရွက်	-1318
▁ယုံကြည်	-1319
ခြင်းနှင့်	-1320
ချက	-1321
သကဲ	-1322
အပေါင်းတို့ကို	-1323
စဉ	-1324
ဟေ	-1325
သည်အတိုင်း၊	-1326
အောက	-1327
ဗုလုန်	-1328
???	-1329
မ္မ	-1330
ရှောက်	-1331
ရှိသည	-1332
▁ပြင်	-1333
အမည်	-1334
▁လေဝိ	-1335
လျက်နေ	-1336
▁ဘုန်း	-1337
ုတောင်း	-1338
▁ကြည့်ရှု	-1339
အမျိုးမျိုး	-1340
ဒေါ	-1341
▁ပရိသတ်	-1342
ပယ	-1343
နန	-1344
းတ	-1345
အုပ	-1346
▁ဝတ်	-1347
ပြုရ	-1348
စ္ဆာန်	-1349
ဖြစ်သော	-1350
သည်ဖြစ်၍၊	-1351
ယျာ	-1352
▁ရွေး	-1353
ဝိညာဉ	-1354
▁ညီအစ်ကို	-1355
▁နိုင်	-1356
▁လိမ့်	-1357
ွင	-1358
▁ယောက်	-1359
တန်ဆာ	-1360
▁အိပ်	-1361
▁ပြည့်စုံ	-1362
▁ဝမ်းမြောက်	-1363
မည်အကြောင်း၊	-1364
ခို	-1365
ပညတ	-1366
▁အောက်	-1367
ပ်သိမ်း	-1368
▁ထိုသူသည်	-1369
ကြောက်	-1370
က္ခ	-1371
ပန်	-1372
▁တွေ့	-1373
ည့်တော်	-1374
▁ကိုယ်ကို	-1375
သွားကြ	-1376
ခရစ	-1377
သပ်	-1378
အာရ	-1379
ဘော်	-1380
▁တောင်း	-1381
▁ဝိညာဉ်	-1382
အဆွေအမျိုး	-1383
▁ယဇ်ပလ္လင်	-1384
▁မိန့်တော်မူ	-1385
မျှမ	-1386
▁ယေရ	-1387
တရု	-1388
မန်	-1389
ကပတ်	-1390
▁ဤသူ	-1391
▁ထိုသူတို့သည်	-1392
ဥစ	-1393
▁လူမျိုး	-1394
▁အာရုန်	-1395
▁သူတို့၏	-1396
▁ဆောင်ခဲ့	-1397
ရှို	-1398
မွေ	-1399
ရှိကြ၏။	-1400
ရွံ့	-1401
▁လွှတ်	-1402
ဟောပြော	-1403
▁လု	-1404
ထိုသူတို	-1405
▁ချီးမွမ်း	-1406
ြို	-1407
စေလွှတ	-1408
းခြင	-1409
စော	-1410
းဟူသော	-1411
▁ငြိမ်	-1412
ပြောဆို	-1413
▁အမျိုးသား	-1414
ပရောဖ	-1415
လင့်	-1416
ုနစ်	-1417
▁ခုနစ်	-1418
▁ထင်ရှား	-1419
ွင့်	-1420
နီး	-1421
ိယ	-1422
ပရောဖက	-1423
ဒုံ	-1424
▁မုန့်	-1425
ဆရာ	-1426
ရင်း	-1427
နားထောင	-1428
▁	-1429
¦	-1430
်	-1431
ာ	-1432
ု	-1433
ိ	-1434
ေ	-1435
း	-1436
သ	-1437
က	-1438
င	-1439
မ	-1440
တ	-1441
့	-1442
ရ	-1443
ြ	-1444
အ	-1445
ှ	-1446
ည	-1447
န	-1448
လ	-1449
ပ	-1450
စ	-1451
၊	-1452
ျ	-1453
ူ	-1454
ခ	-1455
။	-1456
ါ	-1457
ွ	-1458
၏	-1459
ထ	-1460
ယ	-1461
ဘ	-1462
ံ	-1463
ီ	-1464
ဖ	-1465
၍	-1466
ဆ	-1467
ဝ	-1468
ဟ	-1469
ဲ	-1470
၌	-1471
?	-1472
္	-1473
ဒ	-1474
ဇ	-1475
ဗ	-1476
၎	-1477
ဉ	-1478
ဂ	-1479
ဣ	-1480
ဤ	-1481
ဏ	-1482
ဧ	-1483
ဥ	-1484
ဦ	-1485
ဃ	-1486
ဌ	-1487
ဩ	-1488
ဓ	-1489
ဋ	-1490
ဿ	-1491
-	-1492
ဍ	-1493
ဈ	-1494
ဠ	-1495
ဪ	-1496
