<pad>	0
</s>	0
<unk>	0
▁the	-2.81758
,	-3.16128
.	-3.40867
▁of	-3.50817
▁to	-3.61357
▁and	-3.71611
▁in	-3.98281
▁a	-4.23979
▁that	-4.28435
s	-4.31658
▁is	-4.32398
▁for	-4.62029
▁I	-4.65763
ing	-4.73907
▁on	-4.79774
▁this	-4.92189
▁we	-4.95709
▁be	-4.95766
▁	-5.09129
▁are	-5.10097
▁European	-5.16747
▁it	-5.19278
▁with	-5.19758
▁have	-5.20473
▁not	-5.25271
▁The	-5.31615
▁as	-5.32758
▁will	-5.45992
▁which	-5.477
ed	-5.48608
-	-5.49142
▁by	-5.495
'	-5.51873
▁-	-5.61287
▁has	-5.65943
ly	-5.69989
▁also	-5.82156
▁would	-5.87776
▁an	-5.87808
▁(	-5.92265
▁all	-5.94093
)	-5.95278
▁at	-5.97303
▁Mr	-5.98654
▁Commission	-5.98901
▁from	-6.00701
▁our	-6.01628
▁President	-6.01919
▁should	-6.03274
▁EU	-6.04541
▁We	-6.0554
▁Member	-6.1057
▁must	-6.11699
▁but	-6.12519
▁Union	-6.13868
ir	-6.20089
▁you	-6.23055
▁States	-6.23145
▁been	-6.2327
▁Parliament	-6.27463
▁more	-6.27701
▁report	-6.28245
d	-6.28674
▁like	-6.30542
▁It	-6.31397
▁Europe	-6.33221
▁can	-6.33497
y	-6.35064
▁was	-6.36142
▁or	-6.37532
▁its	-6.38652
▁very	-6.4018
▁This	-6.41406
▁these	-6.42893
▁need	-6.47802
▁countries	-6.48664
▁In	-6.49208
al	-6.50569
▁who	-6.50634
▁do	-6.52286
▁us	-6.54356
▁there	-6.54553
▁one	-6.55285
:	-6.5649
▁important	-6.59227
▁people	-6.60912
m	-6.61474
▁other	-6.63126
▁support	-6.63485
▁so	-6.63531
▁Council	-6.64634
▁they	-6.65865
e	-6.66188
▁about	-6.66734
▁new	-6.66835
▁time	-6.67572
▁policy	-6.67623
▁because	-6.7369
▁my	-6.74469
▁only	-6.747
in	-6.82237
▁am	-6.82687
▁what	-6.8429
▁take	-6.85263
▁economic	-6.85574
▁make	-6.85974
▁work	-6.87852
▁out	-6.89458
▁particular	-6.89914
▁between	-6.90137
▁rights	-6.91259
▁into	-6.94906
▁up	-6.94975
▁now	-6.95225
▁no	-6.95834
▁th	-6.96292
▁such	-6.97077
ose	-6.972
▁market	-7.00149
▁some	-7.00493
▁if	-7.00512
▁therefore	-7.01734
?	-7.01985
▁think	-7.04028
▁when	-7.06094
▁financial	-7.08664
▁energy	-7.09024
▁citizens	-7.09149
▁'	-7.10644
t	-7.12605
▁against	-7.12627
▁believe	-7.12872
▁S	-7.13809
▁many	-7.14008
▁political	-7.14526
▁A	-7.15168
▁were	-7.16157
▁country	-7.16317
▁than	-7.1836
▁order	-7.19248
▁social	-7.19433
▁However	-7.20747
▁them	-7.21191
▁made	-7.21673
▁well	-7.22344
▁crisis	-7.22899
▁situation	-7.23114
;	-7.23205
n	-7.23571
▁first	-7.24433
▁being	-7.25007
▁today	-7.25235
▁development	-7.25342
▁say	-7.26054
▁Commissioner	-7.26844
▁see	-7.2685
▁most	-7.2811
▁proposal	-7.28967
▁way	-7.28977
▁debate	-7.29138
▁good	-7.29288
▁right	-7.29631
▁human	-7.29849
▁any	-7.29999
▁fact	-7.31117
▁issue	-7.31809
▁national	-7.31979
▁measures	-7.32888
▁use	-7.33176
▁want	-7.3437
ies	-7.34702
▁That	-7.35081
▁cannot	-7.36847
▁through	-7.37197
▁agreement	-7.37685
▁years	-7.37991
▁Mada	-7.38284
▁future	-7.38646
▁vote	-7.39349
▁already	-7.39374
er	-7.39661
▁under	-7.39845
▁clear	-7.39901
▁cooperation	-7.40109
▁international	-7.4011
▁world	-7.40846
▁even	-7.40982
▁area	-7.41233
▁here	-7.41685
▁point	-7.42161
▁ensure	-7.43283
▁just	-7.43472
▁budget	-7.43668
▁common	-7.43867
▁public	-7.44228
▁two	-7.44245
▁same	-7.44629
▁regard	-7.44909
▁where	-7.45021
▁M	-7.45332
se	-7.45813
▁level	-7.47656
▁part	-7.48261
▁As	-7.48727
▁both	-7.48961
▁question	-7.49245
es	-7.49271
r	-7.5024
▁does	-7.51559
a	-7.52122
▁year	-7.52178
▁had	-7.52239
▁resolution	-7.52987
▁how	-7.53078
▁much	-7.5349
▁system	-7.53849
▁view	-7.54269
▁Committee	-7.54333
▁possible	-7.54333
▁over	-7.555
▁could	-7.55616
▁put	-7.55649
▁Treaty	-7.5648
▁change	-7.57584
▁call	-7.5836
▁case	-7.58679
▁know	-7.59036
▁protection	-7.59567
▁sector	-7.59578
▁why	-7.60469
▁own	-7.60502
▁said	-7.60915
▁still	-7.61377
▁law	-7.61408
▁course	-7.61836
▁help	-7.62775
▁women	-7.63209
▁writing	-7.63305
▁hope	-7.63399
▁favour	-7.63626
▁last	-7.63695
▁place	-7.63759
▁voted	-7.63913
▁result	-7.64218
▁me	-7.64368
▁your	-7.64375
▁security	-7.64611
▁trade	-7.65557
▁C	-7.66652
▁Group	-7.66992
▁able	-7.67275
▁too	-7.67636
▁un	-7.67652
▁number	-7.68064
▁information	-7.68943
▁end	-7.6908
▁Lisbon	-7.69432
▁thank	-7.70112
▁role	-7.70423
▁climate	-7.70924
▁areas	-7.71894
▁problem	-7.72126
▁issues	-7.72397
▁including	-7.7244
▁agree	-7.73254
▁P	-7.73419
▁necessary	-7.7347
▁respect	-7.73646
▁example	-7.73664
▁rapporteur	-7.73677
▁give	-7.74089
▁problems	-7.74295
▁continue	-7.74833
▁process	-7.74962
able	-7.75166
▁gentlemen	-7.76066
▁better	-7.78199
▁There	-7.78941
▁needs	-7.79306
▁global	-7.79822
▁action	-7.80181
▁means	-7.80343
▁his	-7.80378
▁legal	-7.82265
▁then	-7.823
▁since	-7.82592
l	-7.82999
▁concern	-7.83135
▁progress	-7.83754
▁taken	-7.83936
▁welcome	-7.84141
▁next	-7.84312
▁may	-7.84321
▁For	-7.84338
▁long	-7.84343
▁come	-7.84804
▁behalf	-7.84897
▁Mrs	-7.85912
▁Presidency	-7.86046
▁look	-7.86073
▁again	-7.87191
▁without	-7.8797
▁rules	-7.88239
▁directive	-7.88265
▁matter	-7.88268
o	-7.88707
▁strategy	-7.89005
▁If	-7.89366
en	-7.8956
▁however	-7.89614
▁adopted	-7.90406
▁products	-7.90573
▁services	-7.90685
▁terms	-7.9071
ted	-7.90871
▁regulation	-7.91341
▁economy	-7.92054
▁whether	-7.92054
▁legislation	-7.92055
▁current	-7.92346
▁negotiations	-7.92872
▁he	-7.92876
▁decision	-7.93234
▁Members	-7.93362
▁great	-7.9385
▁institutions	-7.94172
▁million	-7.94489
▁position	-7.9449
▁large	-7.94504
▁before	-7.94564
▁lad	-7.94606
▁On	-7.9517
▁further	-7.95199
ary	-7.95373
▁every	-7.95872
▁funds	-7.96213
▁State	-7.96373
▁set	-7.96408
▁provide	-7.96551
▁high	-7.96735
▁health	-7.96969
ous	-7.97412
▁main	-7.97793
▁after	-7.98101
te	-7.98649
▁increase	-7.9889
▁framework	-7.99108
▁approach	-7.99715
▁EUR	-8.01006
▁What	-8.01122
▁working	-8.01148
▁conditions	-8.01355
▁dur	-8.02464
▁essential	-8.03182
▁food	-8.03195
▁resources	-8.03293
▁Uni	-8.05331
▁opinion	-8.05342
i	-8.05463
▁find	-8.05792
ic	-8.05835
▁importance	-8.05987
▁forward	-8.06136
▁towards	-8.06704
▁used	-8.06856
▁aim	-8.06985
▁different	-8.07236
▁specific	-8.07408
▁authorities	-8.07424
▁given	-8.07531
▁opportunity	-8.08142
▁policies	-8.08143
▁proposals	-8.08161
▁freedom	-8.08262
▁E	-8.08326
▁far	-8.08767
▁third	-8.08894
▁present	-8.09194
▁effective	-8.0928
▁transport	-8.09577
▁force	-8.09896
▁state	-8.10316
▁done	-8.10386
▁certain	-8.10757
DE	-8.11098
▁workers	-8.11247
▁environmental	-8.11619
▁access	-8.11817
▁Community	-8.11846
▁become	-8.11847
▁based	-8.11993
▁go	-8.12075
▁aid	-8.12106
▁real	-8.12496
▁deal	-8.12548
▁children	-8.13367
▁especially	-8.13367
▁attention	-8.13384
▁bring	-8.13712
▁B	-8.14184
▁allow	-8.14285
▁fundamental	-8.14912
▁impact	-8.15081
▁account	-8.15113
p	-8.15262
▁G	-8.1541
ion	-8.15564
▁society	-8.15695
▁implementation	-8.15726
▁quality	-8.15754
▁going	-8.1586
▁re	-8.16441
▁interests	-8.16612
▁step	-8.16624
▁research	-8.17256
▁subject	-8.17275
▁safety	-8.17276
▁did	-8.17286
▁making	-8.17435
ation	-8.17718
▁small	-8.17992
▁basis	-8.18074
▁internal	-8.18074
▁each	-8.18076
▁whole	-8.18145
▁improve	-8.18671
▁fight	-8.1888
▁together	-8.18893
▁region	-8.19023
▁addition	-8.19693
st	-8.21598
▁strong	-8.21834
▁serious	-8.21835
▁House	-8.22173
▁positive	-8.22173
▁euro	-8.22491
▁democracy	-8.23013
▁responsibility	-8.23026
▁back	-8.23053
▁power	-8.23366
▁At	-8.23451
ou	-8.23734
▁industry	-8.23861
▁three	-8.23861
▁proposed	-8.23984
▁really	-8.24246
▁full	-8.24541
▁ask	-8.24644
▁Therefore	-8.24715
▁combat	-8.24715
▁few	-8.24715
▁democratic	-8.24739
▁agreements	-8.25314
▁second	-8.25583
▁greater	-8.25661
▁individual	-8.25967
▁itself	-8.26447
▁clearly	-8.27249
▁while	-8.27324
▁less	-8.27607
▁reason	-8.27714
or	-8.28195
▁money	-8.28209
▁always	-8.29102
▁growth	-8.29107
ctually	-8.29434
▁strengthen	-8.29592
▁efforts	-8.2969
on	-8.29811
▁objectives	-8.30083
▁general	-8.30576
▁best	-8.30811
▁major	-8.30899
▁something	-8.30913
▁control	-8.30961
▁life	-8.30961
▁guarantee	-8.31207
▁standards	-8.31242
▁pay	-8.31823
▁single	-8.31831
▁key	-8.31869
▁another	-8.3208
▁wish	-8.32698
▁2009	-8.32747
▁dialogue	-8.32755
▁among	-8.3283
c	-8.32966
▁consider	-8.33233
▁programme	-8.33292
▁principle	-8.33295
▁transparency	-8.3369
▁Court	-8.3369
▁package	-8.33699
▁vari	-8.33702
▁down	-8.33727
▁words	-8.34106
▁risk	-8.34249
▁group	-8.34257
▁hand	-8.34637
▁get	-8.34639
▁R	-8.35143
▁recent	-8.35247
▁free	-8.35285
▁achieve	-8.35445
▁agricultural	-8.35586
▁establish	-8.36109
▁act	-8.36126
▁environment	-8.36388
▁rather	-8.36549
▁F	-8.36556
▁employment	-8.36558
▁once	-8.37206
▁difficult	-8.37267
▁context	-8.37518
▁companies	-8.37518
ive	-8.37833
▁close	-8.37984
▁regions	-8.38159
▁significant	-8.38161
▁data	-8.38498
▁fully	-8.38748
▁Directive	-8.39489
▁concerned	-8.40218
▁Government	-8.4049
▁taking	-8.40517
▁markets	-8.40869
▁groups	-8.409
▁create	-8.40977
▁challenges	-8.41101
▁commitment	-8.41172
▁due	-8.41519
▁regional	-8.41709
▁concerns	-8.41854
▁prevent	-8.42193
▁hav	-8.42371
▁relations	-8.42382
▁focus	-8.42481
▁least	-8.42521
▁poverty	-8.42529
▁play	-8.42563
▁principles	-8.42953
▁often	-8.4303
▁protect	-8.43082
▁apply	-8.4355
ting	-8.43578
▁management	-8.43584
▁developing	-8.44119
▁amendment	-8.44313
▁start	-8.44376
▁activities	-8.44592
▁amendments	-8.44879
▁consumers	-8.45663
▁let	-8.45972
▁Fund	-8.46414
▁results	-8.46531
▁labour	-8.46708
▁decisions	-8.46838
u	-8.47294
▁implement	-8.47339
th	-8.47671
▁require	-8.4771
▁W	-8.47759
▁extreme	-8.47783
▁2020	-8.4779
▁innovation	-8.47808
2	-8.47976
▁open	-8.48629
▁states	-8.4864
▁They	-8.48665
▁lead	-8.49012
an	-8.49239
▁costs	-8.49605
▁solution	-8.49738
▁cases	-8.49965
▁available	-8.49974
fellow	-8.49979
▁provided	-8.5029
▁draft	-8.50402
▁competition	-8.51081
▁solidarity	-8.51082
▁majority	-8.51096
▁lack	-8.51252
FR	-8.51262
ern	-8.51573
▁potential	-8.51853
▁compromise	-8.51953
▁period	-8.51962
▁day	-8.52112
▁Finally	-8.52204
▁With	-8.52205
▁legislative	-8.52205
▁indeed	-8.52206
▁sustainable	-8.52209
▁production	-8.52229
▁qui	-8.52231
▁parties	-8.52388
▁involved	-8.52425
P	-8.52808
▁interest	-8.52984
▁needed	-8.53149
▁jobs	-8.53238
▁tax	-8.53253
▁Russia	-8.53298
▁violence	-8.5334
▁following	-8.5378
▁plan	-8.5382
▁initiative	-8.54421
▁enough	-8.5449
clear	-8.55035
▁form	-8.55127
▁To	-8.5519
▁express	-8.55207
▁project	-8.55489
▁systems	-8.5582
▁regarding	-8.55975
▁contribute	-8.56333
T	-8.56585
▁promote	-8.56625
▁exist	-8.5664
▁text	-8.56647
▁shall	-8.5683
▁education	-8.56831
▁Let	-8.56847
▁consequences	-8.57061
▁relat	-8.57136
ance	-8.57236
▁remain	-8.57878
▁success	-8.57948
▁responsible	-8.58019
▁simply	-8.58019
▁yet	-8.5802
▁local	-8.59224
▁keep	-8.59224
▁values	-8.5923
▁cultural	-8.59303
▁draw	-8.59338
▁projects	-8.59394
▁meet	-8.59601
ce	-8.60143
▁things	-8.60269
▁objective	-8.60341
▁government	-8.60483
▁Rights	-8.60502
▁assistance	-8.60511
h	-8.60531
▁civil	-8.60687
▁achieved	-8.60966
▁population	-8.61559
▁Affairs	-8.61678
▁aware	-8.61763
▁months	-8.6204
▁currently	-8.62354
▁enable	-8.6247
▁nu	-8.62858
▁Second	-8.62928
▁certainly	-8.63497
▁share	-8.64014
▁sever	-8.64063
▁business	-8.64157
est	-8.64172
▁criteria	-8.64194
▁Development	-8.64194
▁external	-8.64196
▁joint	-8.64233
▁non	-8.64459
▁her	-8.64709
▁reasons	-8.64839
▁include	-8.65237
▁living	-8.65476
▁understand	-8.65713
▁speak	-8.65804
▁points	-8.6617
▁T	-8.66182
▁stress	-8.66291
▁meeting	-8.66353
▁encourage	-8.66562
▁adopt	-8.66747
▁consumer	-8.66759
▁cross	-8.66787
0	-8.66917
b	-8.66931
▁emissions	-8.66978
▁2008	-8.66985
▁mentioned	-8.67065
▁increasing	-8.67781
▁face	-8.67915
▁value	-8.68084
▁billion	-8.68094
▁road	-8.68097
▁gas	-8.681
▁10	-8.68535
re	-8.6888
▁Minutes	-8.69424
▁Thank	-8.69424
▁priorities	-8.69424
▁true	-8.69424
▁young	-8.69495
▁regulations	-8.69645
▁One	-8.70073
term	-8.70189
ment	-8.70192
▁reform	-8.70356
▁equal	-8.70438
▁move	-8.70559
▁application	-8.70775
▁priority	-8.70777
▁reduce	-8.70793
▁Turkey	-8.70797
▁pleased	-8.70831
▁matters	-8.71091
▁questions	-8.71176
▁members	-8.71538
▁response	-8.7214
▁funding	-8.72676
ar	-8.72939
▁1	-8.73113
g	-8.73261
ers	-8.73397
▁r	-8.73433
▁little	-8.73534
▁agenda	-8.73535
▁absolute	-8.73546
▁discuss	-8.73603
▁benefit	-8.73614
it	-8.74149
ite	-8.74415
▁instruments	-8.74688
et	-8.74813
▁Agreement	-8.74943
▁opportunities	-8.74943
▁But	-8.74948
▁reduction	-8.75003
▁contribution	-8.75016
▁requirements	-8.75456
▁mean	-8.75516
▁So	-8.76297
▁medium	-8.76371
▁crucial	-8.76373
▁hard	-8.76413
▁above	-8.76488
▁show	-8.76506
▁longer	-8.76525
▁special	-8.76572
▁seen	-8.76699
▁congratulate	-8.76759
▁accept	-8.77355
▁might	-8.7782
▁relevant	-8.7782
▁creation	-8.77822
▁idea	-8.77887
▁job	-8.77951
▁H	-8.7822
▁actions	-8.78437
ness	-8.79193
▁cohesion	-8.79291
▁themselves	-8.79291
▁held	-8.79291
PL	-8.79301
▁vital	-8.79314
▁2010	-8.79391
▁procedure	-8.79454
%	-8.79466
▁discussion	-8.79467
▁document	-8.79488
▁represent	-8.80429
▁sure	-8.80443
▁Ireland	-8.80784
▁governance	-8.80792
▁changes	-8.80832
▁live	-8.80978
▁demand	-8.81124
▁elections	-8.81405
S	-8.81757
▁direct	-8.81949
▁borders	-8.81959
▁perhaps	-8.82301
▁financing	-8.82313
▁enterprises	-8.82394
▁soon	-8.8246
▁Minister	-8.8249
▁relation	-8.82532
▁increased	-8.82734
▁aspects	-8.82829
▁De	-8.82905
▁provisions	-8.83021
▁All	-8.8344
▁carrie	-8.83517
ry	-8.83587
▁ensuring	-8.83837
▁basic	-8.83845
▁investment	-8.84057
f	-8.84738
▁others	-8.85031
▁answer	-8.85188
▁experience	-8.85204
▁procedures	-8.85246
▁ambitious	-8.854
▁supply	-8.854
▁maintain	-8.85403
nternational	-8.85416
▁000	-8.85479
ural	-8.85488
▁agreed	-8.85981
▁programmes	-8.86071
most	-8.86368
▁de	-8.86651
▁benefits	-8.86911
▁avoid	-8.86987
▁Republic	-8.86988
▁farmers	-8.8699
el	-8.87113
▁develop	-8.87277
▁waste	-8.87282
▁ago	-8.87305
▁illegal	-8.88245
▁appropriate	-8.88247
▁line	-8.88443
▁poor	-8.88587
▁Strategy	-8.886
▁When	-8.886
▁coordination	-8.886
▁voting	-8.886
▁efficiency	-8.886
▁moment	-8.88602
▁leave	-8.88603
▁Democrats	-8.88787
k	-8.88818
▁item	-8.88871
▁conclusion	-8.88894
▁instrument	-8.88898
▁solutions	-8.88947
humanitarian	-8.89094
▁asked	-8.89394
▁term	-8.89642
▁natural	-8.89895
▁thing	-8.90004
▁Hungarian	-8.90239
▁technical	-8.9024
▁six	-8.90241
▁tell	-8.90255
▁reality	-8.90267
▁adoption	-8.90281
▁outside	-8.90298
um	-8.90531
▁20	-8.90629
▁fishing	-8.90641
▁week	-8.9072
▁organisations	-8.90991
▁b	-8.91071
▁Ou	-8.91076
▁US	-8.91905
▁sitting	-8.91909
▁businesses	-8.91982
▁heard	-8.92044
▁field	-8.92233
▁reached	-8.92258
▁monitoring	-8.92351
▁comes	-8.92446
▁times	-8.92631
▁respond	-8.92674
▁effectively	-8.92679
▁al	-8.92951
le	-8.93355
▁Africa	-8.93564
▁foreign	-8.93582
▁immigration	-8.93601
▁providing	-8.93601
▁stability	-8.93605
▁ourselves	-8.93607
▁Convention	-8.93607
▁everyone	-8.93627
▁private	-8.93639
▁China	-8.93659
▁discrimination	-8.93682
▁victims	-8.9389
▁kind	-8.93949
▁committee	-8.93962
▁service	-8.94005
▁seems	-8.94169
▁border	-8.94579
▁off	-8.95061
▁credit	-8.95086
▁peace	-8.95222
▁reflect	-8.95296
▁Article	-8.95331
▁agriculture	-8.95331
▁South	-8.95345
▁East	-8.9538
ity	-8.95595
▁required	-8.9567
▁practice	-8.95733
▁partners	-8.96042
as	-8.96138
▁talk	-8.96599
▁review	-8.96639
▁short	-8.9671
less	-8.96861
▁list	-8.9706
▁age	-8.97065
▁French	-8.97079
▁excellent	-8.97079
▁message	-8.97079
▁summit	-8.97079
▁mind	-8.9708
▁carry	-8.97089
▁calls	-8.97107
▁across	-8.97119
▁namely	-8.97283
▁Rule	-8.97317
ve	-8.97359
▁feel	-8.97967
border	-8.98243
▁found	-8.98396
ability	-8.98669
▁asylum	-8.98865
▁tomorrow	-8.98865
▁Greece	-8.98871
▁capacity	-8.98893
▁address	-8.99289
z	-8.99545
▁along	-8.99554
▁powers	-8.99906
▁prices	-9.00079
▁effects	-9.00154
▁achiev	-9.00178
▁add	-9.00307
▁proper	-9.00343
at	-9.00555
▁Romania	-9.00608
▁low	-9.00621
▁around	-9.00684
▁huge	-9.00684
▁UN	-9.00685
▁integration	-9.00687
▁past	-9.00689
▁nothing	-9.00691
▁Internet	-9.00701
▁send	-9.00734
▁strategic	-9.00735
▁total	-9.01159
▁rule	-9.012
▁final	-9.01401
ial	-9.01523
▁talking	-9.01606
▁saying	-9.02075
▁previous	-9.02188
▁origin	-9.02355
▁balance	-9.02376
▁community	-9.02543
▁throughout	-9.02592
▁50	-9.02599
▁request	-9.02617
▁took	-9.02665
ish	-9.02965
▁motion	-9.0305
▁effect	-9.03055
▁water	-9.03058
▁parliamentar	-9.03173
▁levels	-9.03197
▁D	-9.03433
▁men	-9.03468
U	-9.03494
isation	-9.03636
▁colleagues	-9.03668
▁No	-9.0372
▁thanks	-9.03816
▁doing	-9.0396
▁war	-9.04204
▁though	-9.04289
▁recognise	-9.04355
ese	-9.04399
▁Furthermore	-9.04422
▁possibility	-9.04422
▁enter	-9.04423
▁administrative	-9.04465
6	-9.04622
IT	-9.04648
▁raised	-9.04675
▁culture	-9.04953
ES	-9.05044
▁offer	-9.05073
▁implemented	-9.0516
▁reduc	-9.05625
▁L	-9.05834
▁extend	-9.05914
▁affect	-9.05927
us	-9.05974
▁defend	-9.06186
▁Roma	-9.06281
▁four	-9.06327
▁technologies	-9.06345
▁company	-9.06345
▁Bank	-9.06353
▁turn	-9.06361
▁accession	-9.0646
▁MEPs	-9.0649
▁closed	-9.06727
▁pressure	-9.06888
▁death	-9.06904
▁firm	-9.06917
▁movement	-9.0695
▁mention	-9.06954
▁supported	-9.07166
E	-9.07358
▁m	-9.0767
H	-9.07681
▁pre	-9.07789
▁stop	-9.08129
▁broad	-9.08204
▁reforms	-9.08277
▁infrastructure	-9.08306
▁June	-9.08307
▁2011	-9.08307
▁Sea	-9.08309
▁completely	-9.08511
▁measure	-9.08512
▁limit	-9.08518
▁reach	-9.0853
▁target	-9.08533
▁Firstly	-9.08558
▁bear	-9.08627
▁cost	-9.08652
▁price	-9.08983
▁amount	-9.09038
M	-9.09803
call	-9.09881
▁fair	-9.09911
▁remind	-9.10306
▁knowledge	-9.10306
▁Human	-9.10306
▁self	-9.10306
▁never	-9.10307
NL	-9.10308
▁treatment	-9.10311
▁Ukraine	-9.10313
▁competitiveness	-9.10318
▁thus	-9.10408
▁conduct	-9.10485
▁active	-9.1057
▁supporting	-9.10603
▁initiatives	-9.10624
▁prepared	-9.10669
▁model	-9.10945
▁effort	-9.11008
▁expect	-9.11015
▁assessment	-9.11039
▁statement	-9.11045
▁Man	-9.11076
▁sources	-9.11255
coming	-9.11314
ily	-9.11426
▁targets	-9.11675
Office	-9.11703
▁efficient	-9.12096
▁rise	-9.1227
▁Serbia	-9.12347
▁applied	-9.12347
▁left	-9.12347
▁nature	-9.12347
▁family	-9.12348
sized	-9.12348
▁five	-9.12356
▁fisheries	-9.12359
▁quickly	-9.12378
▁received	-9.12545
out	-9.12593
▁hold	-9.12816
▁presented	-9.13534
▁happen	-9.13868
ra	-9.13945
▁conclusions	-9.14051
▁conclude	-9.14314
til	-9.14335
▁behind	-9.1443
▁convince	-9.1443
▁honour	-9.1443
▁minimum	-9.1443
▁lot	-9.1443
▁agencies	-9.14431
▁him	-9.14431
▁Vice	-9.14433
▁committed	-9.14441
▁direction	-9.14469
▁post	-9.1447
▁oil	-9.14487
▁May	-9.14503
ten	-9.146
▁governments	-9.14617
▁representatives	-9.15103
▁recently	-9.15178
▁task	-9.15192
▁operation	-9.15198
▁cut	-9.15311
▁coming	-9.15328
▁read	-9.15503
▁decide	-9.16426
▁care	-9.165
▁media	-9.16548
▁instead	-9.16558
▁serve	-9.16558
▁trust	-9.16558
▁type	-9.16558
▁Justice	-9.16558
▁defence	-9.16558
▁unacceptable	-9.16562
▁Party	-9.16597
▁included	-9.16874
▁per	-9.17136
▁recommendations	-9.17216
▁mechanisms	-9.17657
▁leading	-9.18309
▁urgent	-9.18394
▁travel	-9.18502
▁Centr	-9.18598
▁reports	-9.18641
lthough	-9.18652
▁mutual	-9.18731
▁voice	-9.18731
▁terrorism	-9.18733
▁introduction	-9.18743
▁participation	-9.18746
▁recovery	-9.18751
▁half	-9.18766
▁goods	-9.18792
▁desp	-9.18795
▁27	-9.1883
▁anti	-9.18857
▁air	-9.18924
▁land	-9.19099
▁challenge	-9.19158
▁away	-9.19234
▁expressed	-9.1952
▁visa	-9.19597
▁colleague	-9.19609
▁language	-9.19632
▁she	-9.19654
▁exchange	-9.19673
to	-9.19877
The	-9.20347
▁France	-9.20954
▁creating	-9.20954
▁industrial	-9.20954
▁structural	-9.20957
▁alone	-9.20968
▁depend	-9.20976
bilateral	-9.21017
▁And	-9.21114
▁goes	-9.21126
▁decided	-9.21204
▁highlight	-9.21426
20	-9.21457
▁ban	-9.21489
▁goals	-9.22042
▁highly	-9.22131
▁allowed	-9.22171
▁accord	-9.22338
D	-9.22543
▁CO	-9.22636
▁d	-9.22731
▁follow	-9.2285
▁fund	-9.22894
▁11	-9.22942
▁discussions	-9.23001
▁Czech	-9.23226
▁Regulation	-9.23226
▁extent	-9.23226
▁improving	-9.23226
▁light	-9.23226
▁renewable	-9.23226
▁minorities	-9.23227
▁military	-9.23227
▁gender	-9.23229
▁North	-9.23231
▁dangerous	-9.23236
▁justice	-9.23238
▁Trade	-9.23241
▁includes	-9.23316
▁2006	-9.23339
ond	-9.23341
▁tabled	-9.23441
▁co	-9.23452
▁training	-9.23483
▁remains	-9.23498
▁caused	-9.2356
▁Nations	-9.23618
▁5	-9.23657
▁developed	-9.23861
▁correct	-9.23963
▁closely	-9.24023
ill	-9.24069
▁party	-9.24244
one	-9.2435
▁giv	-9.24696
President	-9.24935
▁product	-9.2502
▁return	-9.2513
ro	-9.25131
ge	-9.252
C	-9.25401
il	-9.25411
▁invest	-9.25522
▁Barroso	-9.25552
▁December	-9.25552
▁dimension	-9.25552
RO	-9.25552
▁referendum	-9.25552
▁technology	-9.2556
▁sense	-9.25565
▁raise	-9.25605
etary	-9.25611
▁Mediterranean	-9.25648
▁ever	-9.25681
▁difficulties	-9.2571
▁upon	-9.25809
▁patients	-9.25952
▁according	-9.26112
▁events	-9.26298
▁emphasise	-9.26386
▁cause	-9.2644
▁involve	-9.2646
▁established	-9.26576
▁member	-9.26589
is	-9.26874
▁entire	-9.27591
▁sp	-9.27594
▁successful	-9.27603
promoting	-9.27933
▁Economic	-9.27933
▁Foreign	-9.27933
▁Partnership	-9.27933
▁activity	-9.27933
▁remember	-9.27933
▁facing	-9.27933
▁thousand	-9.27933
▁practical	-9.27937
▁confirm	-9.27941
▁Schengen	-9.27956
▁integrated	-9.28015
▁2007	-9.28018
▁Now	-9.28441
▁growing	-9.28459
▁affected	-9.28492
ist	-9.28927
▁regime	-9.28951
▁communication	-9.28972
▁stage	-9.28985
▁conflict	-9.29012
▁statements	-9.29538
European	-9.2976
▁practices	-9.29798
▁safe	-9.29992
▁dis	-9.30036
ally	-9.30163
▁damage	-9.30168
▁shows	-9.30196
▁table	-9.30228
up	-9.30238
▁wide	-9.30241
▁Copenhagen	-9.30372
▁January	-9.30372
▁Nevertheless	-9.30372
▁People	-9.30372
▁attempt	-9.30372
▁bodies	-9.30372
▁easy	-9.30372
▁history	-9.30372
▁negative	-9.30372
▁obtain	-9.30372
▁entry	-9.30372
▁green	-9.30372
▁trading	-9.30372
▁explain	-9.30372
▁early	-9.30373
▁unemployment	-9.30374
▁everything	-9.30374
▁Today	-9.3038
▁competitive	-9.30396
▁unfortunately	-9.30421
▁ahead	-9.30464
▁content	-9.30474
▁rest	-9.30475
▁properly	-9.3083
▁days	-9.30834
▁hear	-9.30906
▁J	-9.3097
▁differences	-9.31028
▁person	-9.31411
▁home	-9.3145
▁partnership	-9.31483
▁consideration	-9.31512
ri	-9.31731
I	-9.31917
▁discussing	-9.31945
▁steps	-9.32088
▁p	-9.32701
▁comprehensive	-9.32872
▁genuine	-9.32872
▁wrong	-9.32872
▁rapid	-9.32873
▁economies	-9.32874
▁Italy	-9.32882
▁religious	-9.32928
▁introduce	-9.32967
▁signal	-9.33
▁Germany	-9.33026
▁g	-9.33055
▁balanced	-9.33233
▁t	-9.33447
▁increasingly	-9.33523
▁seek	-9.33552
▁purpose	-9.34075
A	-9.34145
oreover	-9.34294
v	-9.34472
▁concept	-9.34768
ought	-9.34812
1	-9.34913
▁aims	-9.35021
▁Auditors	-9.35436
▁mandate	-9.35436
▁probably	-9.35436
▁scope	-9.35436
▁concrete	-9.35436
Applause	-9.35436
▁scientific	-9.35437
▁mobility	-9.35437
▁forget	-9.35437
▁beginning	-9.35439
▁Amendment	-9.35447
▁rightly	-9.35486
▁shown	-9.35569
uch	-9.35605
ts	-9.3575
▁intended	-9.35758
▁car	-9.36313
▁strongly	-9.36496
▁12	-9.36597
▁join	-9.3664
▁reference	-9.36663
▁doubt	-9.36685
▁mechanism	-9.36721
▁rate	-9.36891
▁e	-9.36931
▁30	-9.37307
▁weeks	-9.37557
▁First	-9.3773
▁lives	-9.3777
▁old	-9.37985
▁sectors	-9.38024
▁visit	-9.38062
▁Alliance	-9.38068
▁Libya	-9.38068
▁Summit	-9.38068
▁binding	-9.38068
▁similar	-9.38068
▁study	-9.38068
▁Even	-9.38069
▁Kosovo	-9.38069
▁duty	-9.3807
▁precise	-9.38073
▁police	-9.38076
▁Socialist	-9.38093
▁specifically	-9.38103
▁setting	-9.38161
▁finally	-9.38557
▁discussed	-9.38866
▁inter	-9.38882
ism	-9.38958
▁Do	-9.39131
▁reading	-9.39227
▁comments	-9.39253
▁burden	-9.3935
▁citizen	-9.39434
▁met	-9.39469
▁session	-9.39569
▁press	-9.39877
rime	-9.40128
▁sufficient	-9.40429
igh	-9.40544
▁personal	-9.40592
▁7	-9.40593
▁secure	-9.40606
ia	-9.40629
▁receive	-9.40645
▁Bulgaria	-9.40704
▁deep	-9.40729
▁How	-9.4077
▁strict	-9.4077
▁vulnerable	-9.4077
▁sensitive	-9.4077
▁Unfortunately	-9.40771
▁conference	-9.40771
▁connection	-9.40773
▁supervision	-9.40781
▁fraud	-9.40797
▁equality	-9.408
▁consensus	-9.40827
ur	-9.4083
▁expression	-9.40837
▁Portugal	-9.40864
▁higher	-9.41031
▁linked	-9.41056
▁failed	-9.41078
rought	-9.41163
▁He	-9.41199
▁stand	-9.41288
ant	-9.41355
▁added	-9.41398
▁improved	-9.41416
▁fall	-9.41625
▁parts	-9.41711
4	-9.41751
▁finance	-9.41981
▁considered	-9.42001
▁propose	-9.42064
▁crime	-9.42201
▁causes	-9.42355
▁try	-9.42724
▁goal	-9.42759
5	-9.43041
▁freedoms	-9.43093
▁represents	-9.43251
▁Some	-9.43386
▁speech	-9.43489
▁Spanish	-9.43548
▁appeal	-9.43548
▁spirit	-9.43548
▁domestic	-9.43549
▁consumption	-9.43549
▁plenary	-9.43552
▁Action	-9.43562
▁guidelines	-9.43607
▁greatest	-9.43629
▁substantial	-9.43655
▁Lad	-9.43672
▁provision	-9.43827
▁SMEs	-9.4386
▁producers	-9.43884
▁19	-9.4389
▁banks	-9.4395
▁created	-9.44079
▁wanted	-9.44107
▁9	-9.44389
w	-9.4449
and	-9.44588
▁central	-9.44698
▁perspective	-9.44984
▁animal	-9.45038
▁network	-9.45052
▁source	-9.45059
▁disaster	-9.45062
▁speaker	-9.4518
▁learn	-9.45512
▁side	-9.45672
▁bank	-9.45996
▁building	-9.46017
▁tackle	-9.46111
▁German	-9.46293
▁Croatia	-9.46327
▁2013	-9.46405
▁Brussels	-9.46405
▁Market	-9.46405
▁manner	-9.46407
▁constructive	-9.46409
▁chance	-9.4641
▁overall	-9.46432
▁later	-9.46452
▁prevention	-9.46486
▁Although	-9.4651
▁provides	-9.46594
▁firstly	-9.46626
▁obviously	-9.46657
▁recognised	-9.46751
▁note	-9.46757
▁faced	-9.46822
▁views	-9.46834
▁dealing	-9.46892
▁led	-9.46932
▁K	-9.46941
▁capital	-9.47013
▁limited	-9.47017
▁directly	-9.47054
▁inform	-9.47073
▁addressed	-9.47077
▁forms	-9.47087
7	-9.47333
side	-9.47358
▁name	-9.47614
▁produce	-9.4769
▁office	-9.47941
▁detail	-9.47987
▁contain	-9.47995
▁organisation	-9.48012
▁25	-9.48253
L	-9.48597
▁forces	-9.48806
ate	-9.48972
▁independent	-9.49
▁sign	-9.49274
ave	-9.49292
▁demonstrate	-9.49325
▁Belarus	-9.4934
▁regular	-9.49346
▁Greek	-9.49346
▁Securit	-9.49346
▁Turkish	-9.49346
▁continuing	-9.49346
▁milk	-9.49346
▁opposition	-9.49346
▁wait	-9.49346
▁discharge	-9.49347
▁instance	-9.49348
▁Of	-9.49349
▁U	-9.49413
▁establishment	-9.49413
▁listen	-9.49464
ng	-9.49594
▁plans	-9.49849
▁obligations	-9.5006
▁word	-9.50167
erous	-9.50321
▁commitments	-9.50322
▁elements	-9.50511
▁fuel	-9.50527
▁criminal	-9.50716
ot	-9.50802
▁urge	-9.50816
aritime	-9.50925
fter	-9.5093
▁ground	-9.51022
▁comment	-9.51033
▁improvement	-9.51073
▁4	-9.51102
making	-9.51781
▁Constitution	-9.52377
▁Hungary	-9.52377
▁families	-9.52377
▁regret	-9.52377
▁independence	-9.52377
▁adequate	-9.52378
▁child	-9.52404
▁commercial	-9.52406
▁circumstances	-9.52441
▁migration	-9.52449
▁annual	-9.52629
8	-9.5263
▁materials	-9.52776
▁followed	-9.5294
▁nor	-9.52944
▁happened	-9.52993
ince	-9.53291
▁reduced	-9.5348
ied	-9.53732
▁contains	-9.5379
▁6	-9.53835
▁transfer	-9.53983
▁threat	-9.54074
▁rapporteurs	-9.54231
▁opening	-9.54914
▁influence	-9.55109
▁worked	-9.55206
ne	-9.55211
▁8	-9.55305
▁Agency	-9.55502
▁Poland	-9.55502
▁applies	-9.55502
▁diversity	-9.55502
▁status	-9.55502
▁alternative	-9.55502
▁restrictions	-9.55502
▁flexibility	-9.55502
▁anything	-9.55503
▁fear	-9.55504
▁floor	-9.55505
▁path	-9.55507
▁excessive	-9.55508
▁planning	-9.55512
▁transition	-9.55512
▁Agriculture	-9.55525
▁associated	-9.55529
▁Pakistan	-9.55532
▁globalisation	-9.55577
▁compliance	-9.55635
▁ready	-9.55766
▁Iran	-9.55826
▁O	-9.55855
▁institutional	-9.55971
▁expected	-9.56186
▁interested	-9.56674
▁heart	-9.56693
▁react	-9.56777
▁grant	-9.5687
▁Whil	-9.56925
▁disasters	-9.57005
▁networks	-9.57005
▁sides	-9.57005
▁crimes	-9.57049
▁sea	-9.57057
▁regulator	-9.57317
▁relationship	-9.57346
▁partner	-9.57405
▁payment	-9.57424
▁election	-9.5747
G	-9.57571
▁speaking	-9.57705
▁prepar	-9.57831
▁build	-9.57836
li	-9.57861
▁prove	-9.57863
▁fulfil	-9.58154
▁complete	-9.58305
▁helping	-9.58472
▁Ombudsman	-9.58728
▁September	-9.58728
▁Service	-9.58728
▁Why	-9.58728
▁communities	-9.58728
▁electronic	-9.58728
▁Protection	-9.58729
▁confidence	-9.58759
▁big	-9.58791
▁either	-9.588
▁date	-9.58821
▁considerable	-9.58881
▁debates	-9.58903
▁useful	-9.58906
▁produced	-9.59072
▁passengers	-9.59109
▁medicines	-9.59126
▁suffering	-9.59424
▁stated	-9.5958
ence	-9.59615
ty	-9.59639
▁situations	-9.59695
ch	-9.5971
▁worth	-9.59783
ent	-9.59969
▁acts	-9.60031
tion	-9.60253
▁cap	-9.6061
▁definition	-9.60618
▁neighbour	-9.60695
▁monitor	-9.60735
▁2	-9.60825
ised	-9.60888
▁Mon	-9.61016
EC	-9.61401
V	-9.61402
▁intend	-9.61649
▁initial	-9.61709
▁resolve	-9.61915
▁PPE	-9.62061
▁Strasbourg	-9.62061
▁World	-9.62061
▁delighted	-9.62061
▁fiscal	-9.62061
▁negotiating	-9.62061
▁religion	-9.62061
▁penalty	-9.62061
▁innovative	-9.62063
olish	-9.62072
▁recognition	-9.62073
EL	-9.62074
▁happy	-9.62103
▁Japan	-9.62115
▁15	-9.6218
▁came	-9.62265
▁managed	-9.62333
▁covered	-9.62375
▁positions	-9.62444
ian	-9.6258
▁functioning	-9.62634
▁resolutions	-9.62717
▁primar	-9.63072
▁facilitate	-9.63133
▁trying	-9.63146
▁via	-9.6318
▁risks	-9.63502
▁18	-9.6365
▁persons	-9.63907
▁institution	-9.64018
▁income	-9.64055
▁failure	-9.64059
ll	-9.64063
▁official	-9.64145
▁element	-9.64157
▁Re	-9.64813
▁wants	-9.64953
▁starting	-9.64991
▁investments	-9.65041
▁consistent	-9.65159
▁immediate	-9.65167
▁bad	-9.65254
▁Israel	-9.65364
▁realise	-9.65366
ble	-9.65443
▁govern	-9.65471
▁Euro	-9.65507
▁begin	-9.65507
▁else	-9.65509
▁Programme	-9.65509
▁analysis	-9.65509
▁July	-9.65509
▁exclusion	-9.65509
▁distribution	-9.6551
▁Indeed	-9.6551
▁staff	-9.6551
▁Irish	-9.6551
▁construction	-9.65514
▁liberalisation	-9.65517
▁referred	-9.65519
▁transparent	-9.65522
▁trafficking	-9.65522
▁proportion	-9.65527
▁professional	-9.65534
▁spent	-9.65553
▁Western	-9.65577
▁elected	-9.65639
▁Georgia	-9.65878
▁num	-9.65926
▁urgently	-9.66055
▁signed	-9.66064
▁violations	-9.66158
CS	-9.6639
▁learning	-9.66602
▁imports	-9.66642
related	-9.66667
ol	-9.6679
▁test	-9.66795
▁structures	-9.66827
▁tool	-9.66877
▁seriously	-9.6695
▁involv	-9.66966
bility	-9.67197
ingle	-9.67366
▁br	-9.67413
00	-9.67566
▁safeguard	-9.67671
▁attack	-9.6772
▁school	-9.67756
ful	-9.67918
▁structure	-9.68291
Christian	-9.68442
▁suggest	-9.68623
▁3	-9.68671
▁spoke	-9.68813
▁exercise	-9.689
shadow	-9.69021
▁late	-9.69026
▁According	-9.69081
▁Representative	-9.69081
▁enormous	-9.69081
▁Italian	-9.69081
▁leadership	-9.69084
▁minority	-9.69086
responsibilities	-9.69087
▁Procedure	-9.69089
▁November	-9.69093
▁sexual	-9.69117
▁critical	-9.69129
▁treaty	-9.69162
▁India	-9.69181
▁designed	-9.69259
▁reasonable	-9.69272
▁Russian	-9.69317
▁vehicles	-9.69667
▁17	-9.69695
▁former	-9.69726
▁significantly	-9.70349
▁Bar	-9.70365
▁continued	-9.70419
▁standard	-9.70444
▁tests	-9.70469
▁advance	-9.70585
B	-9.70653
▁guarantees	-9.70794
▁author	-9.70924
▁lai	-9.71318
▁sport	-9.71377
▁consultation	-9.71406
▁method	-9.71412
▁fail	-9.71454
▁requirement	-9.71502
spit	-9.71619
▁mission	-9.71724
land	-9.71916
▁gain	-9.72348
▁collective	-9.72422
raw	-9.72456
▁Swed	-9.72747
▁condemn	-9.72754
▁Ashton	-9.72784
▁Black	-9.72784
▁Chamber	-9.72784
▁Policy	-9.72784
▁Spain	-9.72784
▁inclusion	-9.72784
▁industries	-9.72784
▁operate	-9.72784
▁promotion	-9.72784
▁territory	-9.72784
▁paid	-9.72786
▁UK	-9.72786
▁near	-9.72786
▁labelling	-9.72786
▁March	-9.72787
▁sustainability	-9.72789
▁terrorist	-9.72789
▁evaluation	-9.72789
▁earlier	-9.7279
▁explanation	-9.72791
▁stable	-9.728
▁overcome	-9.72801
▁revision	-9.72807
▁submitted	-9.72818
▁told	-9.72824
▁fine	-9.72834
▁space	-9.72849
▁exactly	-9.72855
▁statistics	-9.72864
▁run	-9.72871
▁approved	-9.72906
▁lower	-9.72912
▁employees	-9.72979
▁organised	-9.72995
▁ways	-9.72999
▁sanctions	-9.73017
▁carbon	-9.73058
ory	-9.73065
▁barriers	-9.73082
▁vision	-9.7318
▁processes	-9.73207
▁body	-9.73274
▁transactions	-9.73276
▁unti	-9.73278
▁informed	-9.73327
▁ten	-9.73778
long	-9.73783
▁parliament	-9.73907
▁13	-9.73918
▁happening	-9.74401
ck	-9.74605
▁budgets	-9.74714
▁An	-9.74766
▁languages	-9.75105
▁visas	-9.75105
▁pass	-9.7515
▁debt	-9.75241
▁happens	-9.75242
▁condition	-9.75294
▁Al	-9.75438
▁union	-9.75477
▁accounts	-9.75553
▁fish	-9.75556
de	-9.75718
▁introduc	-9.75761
▁aspect	-9.75824
▁enjoy	-9.7618
▁demands	-9.76209
▁obvious	-9.76291
▁c	-9.76325
▁manage	-9.76413
▁desire	-9.76436
▁underline	-9.76437
▁solve	-9.76474
▁loss	-9.76571
▁rail	-9.76627
▁traffic	-9.7663
▁Baltic	-9.7663
▁Energy	-9.7663
▁Environment	-9.7663
▁crises	-9.7663
▁strategies	-9.7663
▁impossible	-9.7663
▁truly	-9.7663
▁planned	-9.76632
▁seven	-9.76632
▁flexible	-9.76633
▁ratification	-9.76668
▁ordinary	-9.76669
▁speed	-9.76694
▁effectiveness	-9.76713
▁V	-9.76717
▁2012	-9.76718
▁attitude	-9.76738
▁asking	-9.768
▁constitute	-9.7686
▁rejected	-9.7689
▁prepare	-9.76978
▁taxpayers	-9.7698
▁scale	-9.7702
▁skills	-9.7703
▁thought	-9.77041
▁imposed	-9.77077
▁introduced	-9.77366
▁diseases	-9.7752
▁equally	-9.77622
▁directives	-9.77626
▁Asia	-9.78168
▁relate	-9.78526
x	-9.78613
▁rates	-9.78662
▁link	-9.78829
▁con	-9.79079
▁topic	-9.79086
▁zone	-9.7922
▁clause	-9.79228
▁pension	-9.79239
▁centre	-9.79249
▁refer	-9.79249
▁choice	-9.79253
the	-9.79277
ritt	-9.79389
tally	-9.79602
economic	-9.80013
based	-9.80014
ud	-9.80071
▁launch	-9.80201
▁count	-9.80559
▁exploit	-9.80602
▁complex	-9.80617
▁Charter	-9.8063
▁Framework	-9.8063
▁NATO	-9.8063
▁Organisation	-9.8063
▁evidence	-9.8063
▁exclusive	-9.8063
▁myself	-9.8063
▁politics	-9.8063
▁truth	-9.8063
▁Third	-9.8063
▁encouraging	-9.80631
▁administration	-9.80631
▁push	-9.80631
▁Gaza	-9.80631
▁harmonisation	-9.80638
▁property	-9.80646
▁sort	-9.80649
▁awareness	-9.80681
▁judge	-9.80725
▁gone	-9.80738
▁African	-9.80808
▁Giv	-9.80848
▁ke	-9.80919
▁impose	-9.80939
▁seem	-9.81004
▁lies	-9.81054
eful	-9.81115
▁Bo	-9.81213
▁40	-9.81255
▁known	-9.81377
▁leaders	-9.81503
he	-9.81714
led	-9.8177
▁appears	-9.81896
▁tools	-9.82252
▁protected	-9.82346
▁threats	-9.82406
▁prov	-9.8286
▁examples	-9.83136
▁advantage	-9.8332
▁rating	-9.83373
▁import	-9.83394
▁delegation	-9.83422
▁option	-9.8344
▁negotiation	-9.8346
▁representative	-9.8346
▁American	-9.83473
▁suffer	-9.83476
▁writ	-9.83551
▁repeat	-9.84373
▁documents	-9.84404
▁Co	-9.84474
no	-9.84613
▁Ver	-9.84727
▁submit	-9.84759
▁custom	-9.8478
undamental	-9.84793
▁British	-9.84797
▁Region	-9.84797
▁expenditure	-9.84797
▁permanent	-9.84797
▁size	-9.84797
▁territorial	-9.84797
▁sometimes	-9.84798
▁contrary	-9.84798
▁paragraph	-9.84798
▁coherent	-9.84799
▁equipment	-9.848
▁Women	-9.84801
▁observation	-9.84802
▁participate	-9.84815
▁Those	-9.84827
▁voluntary	-9.84831
▁break	-9.84838
▁revenue	-9.8484
▁poorest	-9.84845
▁reply	-9.84852
▁sound	-9.84864
▁taxation	-9.84903
▁grat	-9.84921
▁mere	-9.84953
hol	-9.84954
▁immigrants	-9.8506
▁aviation	-9.85151
▁plant	-9.8516
▁passed	-9.85261
▁decades	-9.85294
▁accidents	-9.8533
id	-9.85459
▁pro	-9.85682
▁accepted	-9.86036
▁factors	-9.86042
▁export	-9.86055
▁gra	-9.86091
▁appreciate	-9.86129
▁welcomed	-9.86293
▁attacks	-9.86413
▁details	-9.86769
▁conflicts	-9.87185
▁abuse	-9.87539
▁operations	-9.87543
▁head	-9.87549
am	-9.87703
▁limits	-9.87734
▁intervention	-9.87735
▁adopting	-9.87747
▁appear	-9.87764
▁recommendation	-9.87806
▁16	-9.87919
ef	-9.88101
ach	-9.88394
debate	-9.88527
▁preventing	-9.88584
▁Ministers	-9.88629
▁emerg	-9.88646
▁succeed	-9.88717
▁ideas	-9.88808
▁laws	-9.88905
▁Portug	-9.88994
▁weak	-9.89058
▁America	-9.89071
▁simple	-9.89083
▁Egypt	-9.89138
ivil	-9.89139
▁Chin	-9.89142
▁Pact	-9.89145
▁currency	-9.89145
▁phase	-9.89145
▁yesterday	-9.89145
▁hours	-9.89147
▁judicial	-9.89149
▁2005	-9.89155
▁pollution	-9.89157
▁February	-9.89161
▁reaction	-9.89191
▁feed	-9.89192
▁bi	-9.89208
▁counter	-9.89213
▁CAP	-9.89244
▁unless	-9.89261
ul	-9.89279
▁acceptable	-9.89279
▁lay	-9.8928
▁ex	-9.89438
▁refugees	-9.8949
▁immediately	-9.8958
▁Slovakia	-9.89646
▁entirely	-9.89779
▁mon	-9.89852
▁candidate	-9.8989
▁EC	-9.89988
▁21	-9.89992
▁amend	-9.90196
be	-9.90527
▁stressed	-9.90593
▁generally	-9.90829
▁cover	-9.90911
pt	-9.91028
nd	-9.91047
employed	-9.9113
▁original	-9.91157
▁speakers	-9.91327
▁purposes	-9.91518
▁individuals	-9.91624
▁record	-9.91824
str	-9.92068
▁base	-9.92132
▁votes	-9.9216
tic	-9.92207
▁campaign	-9.9228
▁gap	-9.9228
▁check	-9.92309
▁block	-9.92421
▁month	-9.92532
ward	-9.93018
Rule	-9.93068
▁intention	-9.93098
▁opinions	-9.9325
▁insist	-9.93255
ru	-9.93256
▁normal	-9.93358
▁event	-9.9336
▁endorse	-9.93444
▁please	-9.93502
▁Korea	-9.93611
▁allocat	-9.93661
▁unanimous	-9.9369
▁April	-9.9369
▁Assembly	-9.9369
▁Kingdom	-9.9369
▁October	-9.9369
▁Slovenia	-9.9369
▁correspond	-9.9369
▁enlargement	-9.9369
▁expense	-9.9369
▁facilities	-9.9369
▁macro	-9.9369
▁tuna	-9.9369
▁multi	-9.93691
▁physical	-9.93691
▁flood	-9.93691
▁New	-9.93692
urban	-9.93693
▁phenomenon	-9.93693
▁agency	-9.93696
▁Here	-9.9372
▁2000	-9.93725
▁existence	-9.93748
▁geographical	-9.93749
▁sincere	-9.93832
▁stay	-9.93888
▁meetings	-9.93911
▁Can	-9.93914
▁experts	-9.93915
▁Lastly	-9.93922
▁carefully	-9.93926
▁opposed	-9.93938
▁tried	-9.93955
▁peaceful	-9.93969
ors	-9.93981
▁severe	-9.94179
▁successfully	-9.94379
▁pose	-9.94392
ag	-9.94639
▁targeted	-9.94682
▁minutes	-9.9475
range	-9.94891
▁cooperate	-9.95271
reby	-9.95314
▁hearing	-9.95404
F	-9.95465
▁payments	-9.95667
▁mark	-9.96234
▁legally	-9.96564
▁Hom	-9.96593
rs	-9.96683
▁14	-9.96684
▁100	-9.96804
O	-9.96948
▁understanding	-9.96978
▁scheme	-9.9705
▁Green	-9.97082
▁allows	-9.97218
drawn	-9.97413
▁identify	-9.97474
▁o	-9.97529
▁spend	-9.9755
▁grow	-9.97552
ure	-9.97702
body	-9.9771
house	-9.97807
vote	-9.97831
▁trans	-9.97903
ever	-9.97956
▁assess	-9.98001
▁adapt	-9.98141
▁v	-9.98261
▁constitution	-9.98302
▁determine	-9.98315
▁afford	-9.98401
▁proceed	-9.9844
olidarity	-9.98444
▁identifi	-9.98451
▁beneficial	-9.98452
▁degree	-9.98452
▁digital	-9.98452
▁duties	-9.98452
▁heavy	-9.98452
▁ratified	-9.98452
▁technological	-9.98452
▁blue	-9.98452
▁heritage	-9.98452
▁tourism	-9.98453
▁subsidiarity	-9.98454
▁wealth	-9.98457
▁speculation	-9.98463
▁performance	-9.98468
▁Afghanistan	-9.9847
▁undertaken	-9.9848
▁realistic	-9.98483
▁otherwise	-9.98489
▁interpretation	-9.98491
▁ethnic	-9.9853
9	-9.98537
▁ultimately	-9.98545
▁relative	-9.98547
▁emergency	-9.98584
▁constantly	-9.98679
▁treated	-9.98712
▁savings	-9.98822
▁works	-9.98914
▁obstacles	-9.98957
▁dem	-9.98985
▁figures	-9.99024
▁millions	-9.99061
▁approval	-9.99084
▁students	-9.99092
▁anyone	-9.9911
▁factor	-9.99182
▁i	-9.99562
os	-9.99655
▁healthy	-9.99797
▁parliaments	-10.0022
▁officials	-10.0038
▁started	-10.0045
▁contribut	-10.0049
▁changed	-10.006
▁diplomat	-10.0073
sion	-10.0075
▁actual	-10.0075
▁buildings	-10.0079
▁concentrate	-10.0099
▁f	-10.0127
▁replace	-10.0157
▁60	-10.0162
na	-10.0183
▁charge	-10.0199
▁delay	-10.0203
▁generation	-10.0204
▁drug	-10.0208
▁difference	-10.0213
▁eye	-10.0217
▁interesting	-10.0236
▁committees	-10.0238
▁spread	-10.0251
ter	-10.0266
ph	-10.0266
▁2.	-10.0283
▁examine	-10.0298
▁restrict	-10.0304
▁Ma	-10.031
▁contributions	-10.0322
ectual	-10.0327
▁fast	-10.0338
efore	-10.0344
▁worse	-10.0345
▁ACP	-10.0345
▁Conference	-10.0345
▁Investment	-10.0345
▁Tunisia	-10.0345
▁abolition	-10.0345
▁chain	-10.0345
▁destroy	-10.0345
▁easier	-10.0345
▁experiencing	-10.0345
▁radio	-10.0345
▁sensible	-10.0345
▁referring	-10.0345
▁Transport	-10.0345
▁creative	-10.0345
▁intell	-10.0345
driving	-10.0346
SK	-10.0346
▁rising	-10.0346
▁proceedings	-10.0347
AL	-10.0347
▁membership	-10.0347
▁Moldova	-10.0347
▁Brazil	-10.035
▁GDP	-10.0351
▁double	-10.0353
▁appropriations	-10.0356
▁definitely	-10.0361
▁studies	-10.0363
▁regulated	-10.0364
▁advocate	-10.0372
▁define	-10.0379
▁reiterate	-10.0381
▁card	-10.0383
▁arrangements	-10.0384
▁wine	-10.0387
▁importantly	-10.0388
▁operators	-10.0391
▁foundations	-10.0407
here	-10.0409
▁users	-10.041
our	-10.0419
eight	-10.042
▁separate	-10.042
man	-10.0439
ad	-10.0439
▁highlighted	-10.0442
▁nations	-10.0449
▁contacts	-10.0469
ological	-10.0493
▁intentions	-10.0498
▁Dan	-10.0514
▁Not	-10.0567
▁hands	-10.0567
▁strengthened	-10.0588
▁controls	-10.0594
▁news	-10.0602
▁maxim	-10.0605
▁function	-10.0625
istic	-10.0636
▁tasks	-10.0678
▁2004	-10.07
nother	-10.0726
▁continent	-10.0728
▁Budget	-10.0733
▁declaration	-10.0736
▁claim	-10.0736
▁competence	-10.0736
▁profit	-10.0749
▁modern	-10.077
▁propos	-10.0796
▁Every	-10.0808
▁emphasis	-10.0814
▁ca	-10.0832
▁thorough	-10.0836
▁considering	-10.085
▁negotiate	-10.0852
3	-10.0858
ear	-10.0863
▁Control	-10.0872
▁Instead	-10.0872
▁Safety	-10.0872
▁Sudan	-10.0872
▁average	-10.0872
▁credibility	-10.0872
▁honest	-10.0872
▁length	-10.0872
▁nevertheless	-10.0872
▁qualifications	-10.0872
▁simplify	-10.0872
▁struggle	-10.0872
▁symbol	-10.0872
▁troops	-10.0872
▁unfair	-10.0872
▁Health	-10.0872
▁explicit	-10.0872
▁neither	-10.0872
▁confront	-10.0872
▁Europol	-10.0872
▁witness	-10.0872
▁Also	-10.0872
▁morning	-10.0872
▁expand	-10.0872
▁eliminate	-10.0872
▁Plan	-10.0872
▁enforcement	-10.0872
▁healthcare	-10.0872
▁expectations	-10.0873
▁pure	-10.0873
▁Frontex	-10.0873
▁extensive	-10.0873
▁legitimate	-10.0873
▁sum	-10.0874
▁criticism	-10.0875
▁20%	-10.0877
▁Fro	-10.0878
▁striv	-10.088
▁corruption	-10.0881
▁traditional	-10.0882
▁spoken	-10.0883
▁revised	-10.0886
▁worrying	-10.0889
▁board	-10.0891
▁investors	-10.0899
▁earn	-10.0902
▁General	-10.0911
▁generate	-10.0918
ling	-10.0927
▁favourable	-10.0927
▁deserves	-10.0932
▁concluded	-10.0934
▁airports	-10.0935
▁hundreds	-10.0943
▁granted	-10.0943
▁spending	-10.0973
ification	-10.0985
▁naturally	-10.0985
▁offered	-10.0992
▁developments	-10.0992
▁quotas	-10.1003
▁represented	-10.1025
ations	-10.1029
wo	-10.1037
▁top	-10.1043
▁creates	-10.1057
▁improvements	-10.1118
▁animals	-10.1132
▁feeling	-10.1147
▁doubts	-10.1155
▁engage	-10.1163
part	-10.1211
coordinated	-10.1217
▁cuts	-10.1224
▁w	-10.123
▁paper	-10.1282
ise	-10.1287
▁pillar	-10.1288
▁argument	-10.1289
▁dispute	-10.129
▁preparation	-10.129
▁contact	-10.129
▁quota	-10.1291
▁obligation	-10.1292
▁achievement	-10.13
▁respected	-10.1324
▁playing	-10.1356
▁deliver	-10.1365
▁brief	-10.1393
▁dai	-10.1394
▁assure	-10.1408
tlantic	-10.1419
▁slow	-10.142
▁drive	-10.1421
▁Macedonia	-10.1421
▁Social	-10.1422
ual	-10.1425
▁System	-10.1426
▁opt	-10.1426
xternal	-10.1426
▁fruit	-10.1426
▁Cohesion	-10.1427
▁Cyprus	-10.1427
▁Research	-10.1427
▁choose	-10.1427
▁female	-10.1427
▁latter	-10.1427
▁leaving	-10.1427
▁piece	-10.1427
▁pipeline	-10.1427
▁worst	-10.1427
▁moving	-10.1427
▁protest	-10.1427
▁ALDE	-10.1427
▁percentage	-10.1427
▁presidency	-10.1427
▁surveillance	-10.1427
▁outcome	-10.1427
▁elsewhere	-10.1427
▁sharing	-10.1427
▁sovereignty	-10.1427
▁perfect	-10.1427
▁Thus	-10.1428
▁proud	-10.1428
▁electricity	-10.1428
▁lend	-10.1428
▁Head	-10.1428
▁authority	-10.1429
▁exploitation	-10.1431
▁tempo	-10.1432
▁sent	-10.1432
▁announced	-10.1433
▁knows	-10.1436
▁removed	-10.1436
▁Or	-10.1437
▁published	-10.1455
▁online	-10.1455
ught	-10.1456
▁enhance	-10.1456
▁enhanced	-10.1458
▁soil	-10.1459
▁sole	-10.1472
me	-10.1474
▁restricted	-10.1477
LT	-10.1478
ooperation	-10.1478
▁sets	-10.1479
▁amended	-10.1481
▁historical	-10.1481
▁repeated	-10.1484
▁...	-10.1485
▁personally	-10.1502
iddle	-10.1509
FI	-10.1515
▁emphasised	-10.1519
R	-10.1527
▁youth	-10.1535
▁politically	-10.1544
▁presen	-10.1547
▁reinforce	-10.1564
▁Greens	-10.159
▁plants	-10.1616
ig	-10.1623
▁St	-10.1636
active	-10.164
ka	-10.1661
day	-10.1676
▁More	-10.1681
▁Pa	-10.1695
▁environmentally	-10.1699
im	-10.1701
▁finances	-10.1711
▁la	-10.1743
▁bio	-10.1839
ov	-10.1848
▁patent	-10.1872
▁arise	-10.1873
▁brings	-10.1874
▁court	-10.1877
▁talks	-10.1878
▁disease	-10.1879
▁minute	-10.1904
▁wonder	-10.192
▁comply	-10.1924
▁answers	-10.1934
ones	-10.1948
vision	-10.1949
institutional	-10.1953
▁warm	-10.1968
om	-10.1976
▁lose	-10.1982
▁assume	-10.1995
▁24	-10.1999
rary	-10.2007
▁facts	-10.2011
▁sub	-10.2011
▁fel	-10.2012
▁200	-10.2013
tructural	-10.2015
ollowing	-10.2015
illennium	-10.2015
ographic	-10.2015
valuable	-10.2015
▁Austria	-10.2015
▁Common	-10.2015
▁Liberties	-10.2015
▁affairs	-10.2015
▁foodstuffs	-10.2015
▁inequalities	-10.2015
▁lost	-10.2015
▁privacy	-10.2015
▁welfare	-10.2015
▁forgotten	-10.2015
▁Authority	-10.2015
▁multilateral	-10.2015
▁version	-10.2016
▁glad	-10.2016
▁Congo	-10.2016
saw	-10.2016
▁proof	-10.2016
▁dignity	-10.2016
▁unnecessary	-10.2016
▁societies	-10.2016
▁hit	-10.2016
▁round	-10.2016
▁Food	-10.2016
▁etc	-10.2017
▁chosen	-10.2017
▁significance	-10.2018
▁retain	-10.2018
un	-10.2019
▁22	-10.2019
▁everybody	-10.202
▁powerful	-10.202
▁latest	-10.202
▁mid	-10.202
▁reliable	-10.2022
mall	-10.2029
▁front	-10.2029
▁authorisation	-10.2033
▁mass	-10.2034
▁constitutional	-10.2035
▁yes	-10.2048
ide	-10.2052
▁wishes	-10.2054
▁farming	-10.2069
▁defined	-10.2071
▁suffered	-10.2077
▁went	-10.2092
▁airlines	-10.2095
all	-10.2098
▁flows	-10.2104
▁man	-10.2125
▁returned	-10.2126
▁substances	-10.2129
▁Balkans	-10.2138
▁heading	-10.2141
▁friends	-10.2151
ke	-10.2166
▁competences	-10.2171
▁26	-10.2173
nt	-10.2202
▁West	-10.2207
▁exports	-10.2209
▁pensions	-10.2223
age	-10.2223
of	-10.2228
▁methods	-10.224
▁coordinate	-10.2243
▁secondly	-10.2259
▁holding	-10.2282
ating	-10.2301
▁proposes	-10.2324
▁N	-10.2328
5%	-10.2365
ard	-10.2367
▁demanding	-10.2384
▁highlights	-10.2388
▁compar	-10.2451
ine	-10.2457
▁offers	-10.2464
▁secret	-10.248
ha	-10.2488
▁association	-10.2495
▁reject	-10.2497
ex	-10.2515
▁competen	-10.2516
ta	-10.2518
mission	-10.2521
▁ship	-10.2534
ber	-10.2543
co	-10.2559
time	-10.2563
scale	-10.2563
initiative	-10.2578
▁historic	-10.258
▁caus	-10.2581
▁forth	-10.2598
▁exceptional	-10.2613
▁Iraq	-10.2615
▁3.	-10.2619
▁save	-10.2621
ga	-10.2636
▁courage	-10.2636
▁perform	-10.2638
▁23	-10.264
rowth	-10.264
▁Free	-10.264
▁assist	-10.264
▁Britain	-10.264
▁London	-10.264
▁Thursday	-10.264
▁applicable	-10.264
▁clarify	-10.264
▁decent	-10.264
▁dossier	-10.264
▁dynamic	-10.264
▁imbalance	-10.264
▁possibilities	-10.264
▁species	-10.264
▁storage	-10.264
▁detriment	-10.264
▁supplement	-10.264
▁sorry	-10.264
▁team	-10.264
▁biodiversity	-10.264
▁neighbourhood	-10.264
▁Like	-10.2641
▁applications	-10.2641
▁harmful	-10.2641
▁prosperity	-10.2641
▁south	-10.2641
▁Leg	-10.2641
▁Burma	-10.2642
▁biggest	-10.2642
▁Bosnia	-10.2643
▁Fisheries	-10.2643
▁behaviour	-10.2643
▁Act	-10.2643
▁infringement	-10.2643
▁suitable	-10.2643
▁outline	-10.2644
▁united	-10.2645
▁oppose	-10.2645
▁Dur	-10.2645
▁involvement	-10.2646
▁advertising	-10.2646
marine	-10.2646
▁east	-10.2651
▁moral	-10.266
▁rich	-10.2662
▁finding	-10.2664
▁manufacturers	-10.2664
▁increases	-10.2669
▁taxes	-10.2674
▁briefly	-10.2679
▁daily	-10.2679
▁warning	-10.268
▁ongoing	-10.2689
if	-10.2701
▁populations	-10.2703
▁Progress	-10.2707
▁errors	-10.2717
▁occasions	-10.2717
▁exceptions	-10.2717
▁stocks	-10.2726
▁incentives	-10.2726
▁warming	-10.2738
▁shared	-10.2739
ative	-10.2762
▁socialist	-10.2767
▁Christians	-10.2771
▁contracts	-10.2771
▁terri	-10.2806
▁claims	-10.2807
▁failing	-10.2809
▁answered	-10.2816
▁Financi	-10.2826
▁wording	-10.2836
▁tan	-10.2843
▁port	-10.2849
▁cl	-10.285
j	-10.2862
▁unions	-10.2871
▁enabl	-10.2887
▁drafted	-10.289
ie	-10.2919
▁rely	-10.2927
op	-10.2942
formal	-10.2983
▁cars	-10.2983
lco	-10.3004
▁forest	-10.3024
▁amounts	-10.3092
▁requests	-10.3122
▁nation	-10.3154
djustment	-10.3157
▁mistake	-10.3161
▁deficit	-10.3164
▁wage	-10.3169
▁contract	-10.317
▁Balkan	-10.317
▁consequence	-10.3173
▁80	-10.3185
▁red	-10.3197
▁lines	-10.3197
▁leader	-10.321
wide	-10.3239
level	-10.3245
▁Un	-10.3248
surance	-10.3253
▁abolish	-10.3262
▁du	-10.3271
▁decisive	-10.3271
▁Last	-10.3276
▁careful	-10.3276
▁reductions	-10.328
▁release	-10.3287
▁Christian	-10.3288
▁complement	-10.3303
▁prison	-10.3305
operating	-10.3306
▁Arab	-10.3306
ubject	-10.3306
way	-10.3307
limate	-10.3307
▁Petitions	-10.3307
▁absurd	-10.3307
▁boost	-10.3307
▁comparison	-10.3307
▁credible	-10.3307
▁envisage	-10.3307
▁excuse	-10.3307
▁extension	-10.3307
▁necessity	-10.3307
▁residence	-10.3307
▁science	-10.3307
▁supervisor	-10.3307
▁vocation	-10.3307
▁whilst	-10.3307
▁image	-10.3307
▁shift	-10.3307
▁supposed	-10.3307
▁uniform	-10.3307
▁universal	-10.3307
▁reveal	-10.3307
▁century	-10.3307
▁ownership	-10.3307
▁began	-10.3307
▁simplification	-10.3307
▁foster	-10.3307
▁president	-10.3307
▁couple	-10.3307
▁urgency	-10.3307
▁Report	-10.3307
abour	-10.3308
▁sentence	-10.3308
▁Islam	-10.3308
▁subsequent	-10.3309
▁dependent	-10.3309
▁devote	-10.3309
atory	-10.3309
▁disposal	-10.331
▁north	-10.3312
▁Paper	-10.3312
▁allocation	-10.3312
▁commit	-10.3312
▁politicians	-10.3312
▁changing	-10.3314
▁track	-10.3314
▁cutting	-10.3315
gible	-10.3316
▁losses	-10.3317
▁speeches	-10.3322
▁stakeholders	-10.3322
outh	-10.3322
▁ignore	-10.3324
▁declared	-10.3326
▁tonnes	-10.3331
ior	-10.3343
for	-10.3347
ious	-10.3349
▁complaints	-10.335
▁foresee	-10.3359
▁stations	-10.3379
▁fo	-10.338
▁undermine	-10.3386
▁resolved	-10.3389
▁1.	-10.3391
▁pursuing	-10.3393
▁argue	-10.3398
ti	-10.3398
▁none	-10.34
▁correctly	-10.341
▁texts	-10.3414
ton	-10.3434
ster	-10.344
▁mistakes	-10.3447
▁Globalis	-10.3458
▁adjustment	-10.3461
▁requested	-10.3465
▁pursu	-10.3467
▁eyes	-10.3496
▁Funds	-10.35
▁toys	-10.3506
▁persist	-10.3508
▁options	-10.3534
▁falling	-10.3535
▁choices	-10.3544
vi	-10.3545
▁links	-10.3545
ues	-10.3552
▁seeking	-10.3555
▁II	-10.3576
▁neighbours	-10.3593
▁evening	-10.3609
▁Con	-10.3611
▁expecting	-10.3617
nity	-10.363
▁notice	-10.3635
▁Any	-10.3639
▁addressing	-10.3658
fin	-10.3748
▁showing	-10.3749
har	-10.3763
lain	-10.3765
▁Bas	-10.3789
ue	-10.3793
by	-10.3812
▁ones	-10.3834
unt	-10.3842
▁respecting	-10.3848
tability	-10.3853
▁kinds	-10.3872
▁code	-10.3875
▁mobilis	-10.3877
▁mother	-10.388
▁substance	-10.3884
▁violation	-10.3886
▁com	-10.3892
▁impos	-10.3893
ut	-10.3895
▁interpret	-10.3902
▁items	-10.3902
ublic	-10.3922
▁mix	-10.3927
stock	-10.3957
▁debat	-10.396
ek	-10.3973
▁tri	-10.3983
▁constant	-10.3987
▁intensive	-10.3995
ning	-10.3999
▁restore	-10.401
▁approve	-10.4014
▁clean	-10.4015
▁settle	-10.4017
▁medic	-10.4017
▁Paris	-10.4019
erhaps	-10.402
▁tele	-10.4021
ulture	-10.4021
▁acquis	-10.4021
▁Agenda	-10.4021
▁Australia	-10.4021
▁Belgian	-10.4021
▁Netherlands	-10.4021
▁Protocol	-10.4021
▁blood	-10.4021
▁built	-10.4021
▁considerably	-10.4021
▁convergence	-10.4021
▁disappear	-10.4021
▁elderly	-10.4021
▁inhabitants	-10.4021
▁mandatory	-10.4021
▁principal	-10.4021
▁restructuring	-10.4021
▁spectrum	-10.4021
▁tragedy	-10.4021
▁watch	-10.4021
▁woman	-10.4021
▁Regard	-10.4021
▁occupation	-10.4021
▁notably	-10.4021
▁destruction	-10.4021
▁qualified	-10.4021
▁fishermen	-10.4021
▁arising	-10.4022
▁hung	-10.4022
▁conservation	-10.4022
▁closing	-10.4022
▁exert	-10.4022
▁absence	-10.4022
▁adhere	-10.4022
▁running	-10.4022
▁assert	-10.4022
▁sphere	-10.4023
▁shortage	-10.4023
▁approximate	-10.4024
▁40%	-10.4025
▁actors	-10.4025
▁justified	-10.4028
▁certainty	-10.4028
▁Canada	-10.4029
▁transa	-10.403
▁disadvantaged	-10.4031
▁city	-10.4031
▁War	-10.4032
▁WTO	-10.4033
▁penalise	-10.4034
▁promised	-10.4034
▁Lat	-10.4034
▁accus	-10.4035
▁trial	-10.4038
▁whatever	-10.4038
▁meat	-10.4041
▁EP	-10.4041
▁determination	-10.4049
▁harmonised	-10.405
▁economically	-10.4056
▁imp	-10.4057
▁solved	-10.4058
▁desired	-10.4058
▁Are	-10.406
▁Sta	-10.4061
▁drivers	-10.4068
▁friendly	-10.4069
ai	-10.4071
▁catch	-10.4074
▁lessons	-10.4078
▁realised	-10.408
N	-10.4081
▁parents	-10.4089
▁vessels	-10.4089
▁traditions	-10.4089
▁succeeded	-10.4093
▁badly	-10.4095
estimated	-10.41
▁weapons	-10.4107
▁geo	-10.4109
▁prospects	-10.4109
▁suggested	-10.4109
▁Mal	-10.4112
▁encouraged	-10.4132
▁exists	-10.4138
▁joined	-10.4142
▁efficiently	-10.4147
▁ministers	-10.4151
▁previously	-10.416
▁formal	-10.4163
▁31	-10.4164
▁intervene	-10.419
ture	-10.4207
▁declarations	-10.4214
▁le	-10.423
▁outer	-10.4234
▁train	-10.424
stating	-10.4242
▁checks	-10.4245
▁covers	-10.4248
cu	-10.4283
▁mot	-10.4297
▁schools	-10.4309
do	-10.432
▁prevented	-10.4335
hip	-10.4426
▁employ	-10.4431
session	-10.4436
▁Mos	-10.445
rmed	-10.4462
▁follows	-10.4474
productive	-10.4528
▁assessments	-10.4534
▁movements	-10.4559
men	-10.4562
▁motions	-10.4577
W	-10.4591
▁numbers	-10.4621
▁permit	-10.4639
▁murder	-10.4642
▁Freedom	-10.4643
▁convention	-10.4651
▁minister	-10.4652
▁patient	-10.4656
▁victim	-10.4656
▁resource	-10.4657
▁candidates	-10.4659
▁rais	-10.4668
ner	-10.4682
▁Nation	-10.4683
▁h	-10.4691
▁sell	-10.47
▁places	-10.4723
precedent	-10.4726
what	-10.4729
quality	-10.4732
ated	-10.4734
▁peoples	-10.4735
ona	-10.4738
dom	-10.4739
▁treat	-10.474
▁abandon	-10.4747
▁radical	-10.4753
▁vi	-10.4766
▁accompan	-10.4771
▁extra	-10.4774
UE	-10.4781
▁liberal	-10.4785
▁harm	-10.4787
▁differ	-10.4789
▁sad	-10.479
imbabwe	-10.4791
▁Albania	-10.4791
▁August	-10.4791
▁Consumer	-10.4791
▁Goals	-10.4791
▁Industry	-10.4791
▁Information	-10.4791
▁Obviously	-10.4791
▁Switzerland	-10.4791
▁VAT	-10.4791
▁bureaucracy	-10.4791
▁collapse	-10.4791
▁convey	-10.4791
▁freight	-10.4791
▁identity	-10.4791
▁inadequate	-10.4791
▁inclusive	-10.4791
▁jurisdiction	-10.4791
▁legitimacy	-10.4791
▁penalties	-10.4791
▁pharmaceutical	-10.4791
▁supplies	-10.4791
▁vegetables	-10.4791
▁volatility	-10.4791
▁blind	-10.4791
▁justify	-10.4791
▁regrettable	-10.4791
▁below	-10.4791
▁buy	-10.4791
▁birth	-10.4791
▁entrepreneurs	-10.4791
▁translate	-10.4791
▁Day	-10.4791
▁textile	-10.4791
▁complicated	-10.4791
▁ecological	-10.4791
▁solid	-10.4791
▁chemicals	-10.4791
▁interference	-10.4791
nternal	-10.4791
▁foremost	-10.4791
▁proactive	-10.4791
▁sold	-10.4791
NG	-10.4791
▁repression	-10.4791
▁accessible	-10.4791
▁beneficiaries	-10.4792
▁map	-10.4793
▁hazardous	-10.4793
▁deprived	-10.4793
▁fit	-10.4793
▁discover	-10.4793
▁massive	-10.4794
▁Equality	-10.4794
▁cities	-10.4794
▁30%	-10.4796
▁viable	-10.4796
▁Canc	-10.4797
▁obliged	-10.4798
▁EIB	-10.4798
▁Sweden	-10.4799
▁occurred	-10.4799
▁openness	-10.4802
▁micro	-10.4803
▁described	-10.4806
▁protectionism	-10.4806
▁weaken	-10.4807
▁surprised	-10.4807
ube	-10.4809
▁extraordinar	-10.481
▁unity	-10.4812
0%	-10.4816
▁ideal	-10.4816
▁po	-10.4817
▁organise	-10.4819
▁banned	-10.482
▁Dat	-10.482
▁Israeli	-10.4824
▁endorsed	-10.4824
▁logical	-10.4826
▁fate	-10.4827
EU	-10.4828
▁pursue	-10.483
▁channels	-10.483
▁location	-10.483
▁registered	-10.4831
▁determined	-10.4835
▁eat	-10.4837
ink	-10.484
▁migrants	-10.4841
▁pesticides	-10.4841
▁publication	-10.4851
tergovernmental	-10.4854
▁Liberals	-10.4875
▁journalists	-10.4875
upport	-10.488
▁stepp	-10.4916
▁wages	-10.4954
▁ba	-10.4962
▁says	-10.4963
▁periods	-10.4964
▁courts	-10.4976
oto	-10.4979
▁achievements	-10.4989
▁Budgets	-10.4999
ement	-10.5003
▁apart	-10.5007
▁ill	-10.501
az	-10.5015
po	-10.5034
▁delegations	-10.5056
go	-10.5061
▁pressing	-10.5062
▁joining	-10.5074
▁Ro	-10.5099
gen	-10.51
▁La	-10.5102
▁opened	-10.5109
▁pan	-10.5152
▁grounds	-10.516
der	-10.5169
▁stands	-10.5198
▁Com	-10.5242
▁trouble	-10.5249
ather	-10.5264
ix	-10.5282
mer	-10.5289
▁straight	-10.5307
▁Then	-10.5325
▁impress	-10.5434
▁register	-10.5435
▁audit	-10.5456
governmental	-10.5456
▁fields	-10.5465
▁seeing	-10.5465
▁label	-10.5477
▁danger	-10.5477
got	-10.5485
▁undertaking	-10.5486
▁vehicle	-10.5488
▁emission	-10.5491
▁prefer	-10.5506
nce	-10.5512
ang	-10.553
▁design	-10.5556
▁indicat	-10.5559
▁mis	-10.5559
ception	-10.5559
General	-10.5561
carbon	-10.5561
free	-10.5562
country	-10.5562
stone	-10.5568
▁timely	-10.5576
▁root	-10.5577
▁publish	-10.5579
▁arrest	-10.558
va	-10.5588
den	-10.5615
▁Haiti	-10.5616
▁tough	-10.5617
▁collect	-10.5619
▁dramatic	-10.5623
▁systematic	-10.5623
▁mater	-10.5623
▁arrive	-10.5623
▁prior	-10.5623
▁chair	-10.5623
▁Arctic	-10.5624
▁Obama	-10.5624
compatible	-10.5624
▁English	-10.5624
▁NGOs	-10.5624
▁Schulz	-10.5624
▁Stockholm	-10.5624
▁Tourism	-10.5624
▁afraid	-10.5624
▁anniversary	-10.5624
▁compulsory	-10.5624
▁consistency	-10.5624
▁continuous	-10.5624
▁controvers	-10.5624
▁delicate	-10.5624
▁dioxi	-10.5624
▁earthquake	-10.5624
▁equivalen	-10.5624
▁heavily	-10.5624
▁prevail	-10.5624
▁prompt	-10.5624
▁rescue	-10.5624
▁satellite	-10.5624
▁solving	-10.5624
▁strike	-10.5624
▁transposition	-10.5624
▁website	-10.5624
▁whatsoever	-10.5624
▁towns	-10.5624
▁Estonia	-10.5624
▁Join	-10.5624
▁earth	-10.5624
▁remit	-10.5624
▁transit	-10.5624
▁housing	-10.5624
▁rape	-10.5624
▁ruling	-10.5624
▁variety	-10.5624
▁shortcomings	-10.5624
▁Resolution	-10.5624
▁spring	-10.5624
▁battle	-10.5624
▁adver	-10.5624
▁multiannual	-10.5624
▁procurement	-10.5624
▁gro	-10.5624
▁concentration	-10.5625
▁demonstration	-10.5625
▁detention	-10.5625
▁149	-10.5625
▁stance	-10.5625
▁persecution	-10.5626
▁employers	-10.5626
DA	-10.5626
▁PSE	-10.5627
▁instability	-10.5627
▁Lef	-10.5627
▁deadline	-10.5627
▁understood	-10.5627
▁eliminati	-10.5628
▁misleading	-10.5629
ssil	-10.5631
▁fourth	-10.5634
▁planet	-10.5636
▁satisfactory	-10.5638
▁reflection	-10.5638
▁wind	-10.5642
▁loans	-10.5642
▁adaptation	-10.5646
▁gradually	-10.565
▁threatened	-10.5652
▁incorporated	-10.5655
▁humanity	-10.5659
▁Romanian	-10.566
▁refused	-10.5663
▁stipulate	-10.5669
▁room	-10.5677
▁Centre	-10.5677
▁Ky	-10.5677
▁await	-10.5681
▁coal	-10.5683
▁reinforced	-10.5686
▁smaller	-10.5693
▁belong	-10.5693
▁demonstrated	-10.5694
▁approaches	-10.5702
▁components	-10.5703
▁financed	-10.5705
▁players	-10.5705
▁transferr	-10.5712
nts	-10.5716
▁launched	-10.5716
▁minors	-10.5728
▁divide	-10.5732
▁experienced	-10.5732
▁Ra	-10.5735
▁complying	-10.5757
fi	-10.5769
▁fairly	-10.5776
▁attach	-10.5779
▁shoulder	-10.5786
older	-10.5787
▁mobilise	-10.5796
aring	-10.5801
▁Ca	-10.5808
▁guaranteed	-10.5811
▁Ka	-10.5811
use	-10.5816
▁extended	-10.5819
▁surely	-10.5828
▁pillars	-10.5839
▁arguments	-10.5839
▁plu	-10.5862
▁feature	-10.5895
rea	-10.5896
▁Office	-10.59
▁abuses	-10.5911
▁centres	-10.5926
▁debts	-10.5939
▁consultations	-10.5952
▁Commissioners	-10.5953
▁fuels	-10.6029
cut	-10.6046
2010	-10.6087
▁exacerbate	-10.6106
▁provider	-10.6109
per	-10.6109
ver	-10.6129
sh	-10.6143
ff	-10.6155
▁forum	-10.6177
▁debated	-10.6205
put	-10.6208
▁admit	-10.6219
ip	-10.6219
▁firms	-10.6257
off	-10.626
und	-10.6289
nel	-10.6344
port	-10.6354
building	-10.6357
ran	-10.6369
▁investigation	-10.6392
▁ambition	-10.6392
▁trend	-10.6392
▁Palestinian	-10.6395
▁mine	-10.6399
▁defin	-10.6403
▁seat	-10.641
ank	-10.6422
▁flow	-10.6431
rant	-10.6442
▁win	-10.6455
cultural	-10.6471
▁plac	-10.6473
new	-10.6474
▁resolv	-10.6477
her	-10.6486
▁lasting	-10.6494
▁attract	-10.6499
titude	-10.6507
▁observe	-10.6509
▁surprise	-10.6513
▁regulate	-10.6514
▁Part	-10.6515
▁strength	-10.652
▁cheap	-10.6526
▁participat	-10.6526
▁except	-10.653
▁electric	-10.6532
losing	-10.6532
▁Just	-10.6533
▁uncertain	-10.6533
▁deploy	-10.6533
▁earmark	-10.6533
▁encounter	-10.6533
▁ratify	-10.6533
▁Because	-10.6533
▁Belgium	-10.6533
▁Dimas	-10.6533
▁Neighbourhood	-10.6533
▁Treaties	-10.6533
▁activists	-10.6533
▁article	-10.6533
▁artificial	-10.6533
▁coherence	-10.6533
▁competitors	-10.6533
▁desirable	-10.6533
▁diverse	-10.6533
▁eurozone	-10.6533
▁evident	-10.6533
▁expensive	-10.6533
▁immunity	-10.6533
▁implications	-10.6533
▁lift	-10.6533
▁overwhelming	-10.6533
▁pilot	-10.6533
▁pleasure	-10.6533
▁possibly	-10.6533
▁schedule	-10.6533
▁silence	-10.6533
▁stringent	-10.6533
▁tape	-10.6533
▁tremendous	-10.6533
▁estimates	-10.6533
▁sheep	-10.6533
▁Brok	-10.6533
▁reconciliation	-10.6533
▁Iceland	-10.6533
▁platform	-10.6533
▁Otherwise	-10.6533
▁cancer	-10.6533
▁declare	-10.6533
▁torture	-10.6533
▁codecision	-10.6533
▁inequality	-10.6533
▁2007-2013	-10.6533
▁Over	-10.6533
▁opposite	-10.6534
▁recycl	-10.6534
▁everywhere	-10.6534
▁bound	-10.6534
▁Martin	-10.6534
▁fill	-10.6535
▁Belarusian	-10.6535
▁modified	-10.6535
▁horizontal	-10.6535
▁attractive	-10.6535
▁prisoners	-10.6535
▁collection	-10.6536
▁Herzegovina	-10.6536
▁Mexico	-10.6536
▁letter	-10.6537
▁universities	-10.6538
▁consequently	-10.6538
▁era	-10.6538
▁van	-10.6541
▁treaties	-10.6541
▁Mercosur	-10.6542
▁SIS	-10.6542
▁suspect	-10.6542
▁Institute	-10.6543
▁prescription	-10.6543
arcel	-10.6544
▁Open	-10.6546
▁Atlantic	-10.6547
▁violent	-10.6549
▁stick	-10.6549
▁cooperating	-10.6551
▁She	-10.6552
▁apparently	-10.6553
▁patterns	-10.6553
▁moreover	-10.6553
▁recommended	-10.6556
▁havens	-10.6557
▁observed	-10.6559
▁Bulgarian	-10.6559
▁consult	-10.656
▁shape	-10.6561
▁tighten	-10.6565
▁Chair	-10.6566
▁aspirations	-10.6567
▁usual	-10.6574
▁acknowledge	-10.6579
▁bus	-10.6581
▁ignored	-10.6591
▁representation	-10.6591
ev	-10.6593
▁reservations	-10.6593
▁combine	-10.6597
▁indicated	-10.6599
▁counterfeiting	-10.6599
▁reserves	-10.6604
▁refuse	-10.6605
▁tr	-10.6624
▁completed	-10.6626
▁Mar	-10.6629
▁precedent	-10.6632
▁suggestions	-10.6634
▁ar	-10.6638
▁selling	-10.6644
▁margins	-10.6647
▁sufficiently	-10.6656
▁house	-10.666
▁4.	-10.667
▁draftsm	-10.6671
iz	-10.6688
▁Speci	-10.6689
ical	-10.67
▁conventions	-10.6702
▁sh	-10.6711
ound	-10.6713
EN	-10.6717
▁ports	-10.6733
▁island	-10.6737
▁forests	-10.6743
▁compromises	-10.6747
▁disputes	-10.677
▁compare	-10.681
ast	-10.6811
za	-10.6814
▁blocks	-10.6822
▁potentially	-10.6833
▁29	-10.6836
lar	-10.6849
ising	-10.6886
▁standing	-10.6896
rate	-10.6904
liability	-10.6913
▁relationships	-10.6949
▁manufactur	-10.6955
▁Ga	-10.6965
▁names	-10.6993
ants	-10.6993
▁satisf	-10.6997
▁Tak	-10.7027
▁compete	-10.7031
▁ensured	-10.7036
▁Nor	-10.7038
▁Mo	-10.704
ub	-10.7051
▁partnerships	-10.7075
▁Va	-10.7096
old	-10.71
ade	-10.7105
▁host	-10.7161
▁beings	-10.7165
▁facilitat	-10.7187
worthy	-10.722
▁cultures	-10.7246
▁Ko	-10.7356
spect	-10.7382
matic	-10.7383
▁volume	-10.7385
▁chapter	-10.7385
▁indicate	-10.7386
▁civilian	-10.7391
▁hundred	-10.7396
▁incentive	-10.7396
▁student	-10.7396
▁airline	-10.7397
▁transaction	-10.7397
▁sale	-10.7398
▁combin	-10.7398
▁material	-10.7399
▁select	-10.7402
▁partly	-10.7404
▁Slovak	-10.7416
2008	-10.7442
we	-10.7454
▁produc	-10.7459
▁preserv	-10.746
connected	-10.7461
ec	-10.7463
▁Je	-10.7464
ow	-10.7468
emen	-10.7468
(	-10.7469
J	-10.747
life	-10.7477
▁restor	-10.7486
▁stock	-10.7487
▁farm	-10.7498
year	-10.7507
▁necessar	-10.7515
▁sen	-10.7516
came	-10.7516
▁predict	-10.7524
▁Syria	-10.7524
▁Lithuania	-10.7525
▁occur	-10.7526
▁avail	-10.7529
▁medicin	-10.753
que	-10.753
ender	-10.7533
▁black	-10.7533
▁registra	-10.7533
▁drop	-10.7533
▁Asylum	-10.7533
▁Barnier	-10.7533
▁Business	-10.7533
▁Change	-10.7533
▁Clear	-10.7533
▁Decision	-10.7533
▁Employment	-10.7533
▁Lukashenko	-10.7533
▁Luxembourg	-10.7533
▁Nabucco	-10.7533
▁OLAF	-10.7533
▁Through	-10.7533
▁afternoon	-10.7533
▁bureaucratic	-10.7533
▁disastrous	-10.7533
▁disparit	-10.7533
▁eligibility	-10.7533
▁expansion	-10.7533
▁imagine	-10.7533
▁imperative	-10.7533
▁imperialis	-10.7533
▁quarter	-10.7533
▁reaffirm	-10.7533
▁redress	-10.7533
▁remote	-10.7533
▁removing	-10.7533
▁resort	-10.7533
▁scenario	-10.7533
▁subsidies	-10.7533
▁yield	-10.7533
▁yourself	-10.7533
▁internet	-10.7533
▁reconstruction	-10.7533
▁renewed	-10.7533
▁Secretary	-10.7533
▁begun	-10.7533
▁consent	-10.7533
▁exceed	-10.7533
▁harsh	-10.7533
▁false	-10.7533
fresh	-10.7533
▁uphold	-10.7533
▁insult	-10.7533
▁blow	-10.7533
▁genetic	-10.7533
▁closure	-10.7533
▁reverse	-10.7533
truck	-10.7533
▁Under	-10.7533
▁Kurdish	-10.7533
▁airspace	-10.7533
▁cycle	-10.7533
▁stake	-10.7533
▁compensation	-10.7533
▁summer	-10.7534
▁distinction	-10.7534
▁attend	-10.7534
▁1990	-10.7534
▁lobby	-10.7534
▁roll	-10.7534
▁coast	-10.7534
▁deregulation	-10.7534
▁fruitful	-10.7534
▁Monday	-10.7534
▁rare	-10.7535
▁born	-10.7535
▁decline	-10.7535
▁travelling	-10.7535
▁28	-10.7535
▁depart	-10.7535
▁Rome	-10.7536
▁entitled	-10.7536
▁extremist	-10.7537
▁responses	-10.7537
▁PNR	-10.7537
▁Wednesday	-10.7537
▁Conce	-10.7537
iversification	-10.7537
▁appointment	-10.7538
▁merit	-10.7538
▁discipline	-10.7538
▁Naturally	-10.7539
▁hence	-10.7539
▁capitalism	-10.7539
▁bigge	-10.7539
mposition	-10.754
▁outstanding	-10.754
▁vary	-10.7541
▁whereby	-10.7542
▁survival	-10.7542
▁worldwide	-10.7543
▁2003	-10.7544
▁faster	-10.7546
▁distort	-10.7547
▁engagement	-10.755
▁mobile	-10.755
▁expos	-10.7551
▁noise	-10.7552
▁satisfy	-10.7553
▁frequently	-10.7553
▁streets	-10.7556
▁mor	-10.7556
▁surrounding	-10.7558
▁fixed	-10.7558
▁seri	-10.7558
▁accelerate	-10.756
▁commissioner	-10.756
▁cease	-10.7561
▁flag	-10.7563
iness	-10.7563
▁constituents	-10.757
▁crops	-10.757
▁EGF	-10.7571
zh	-10.7571
▁negotiated	-10.7571
▁biofuels	-10.7574
▁presentation	-10.7575
▁controlled	-10.7576
▁Di	-10.7579
▁fisher	-10.758
▁k	-10.758
▁flights	-10.7585
▁assets	-10.7585
▁abandoned	-10.759
▁combined	-10.7599
▁petitions	-10.76
▁observers	-10.7601
▁thoroughly	-10.7602
▁delivered	-10.7614
▁missing	-10.7616
▁handle	-10.7622
vast	-10.7625
▁assessed	-10.7627
▁larger	-10.763
▁remarks	-10.763
ca	-10.7636
▁Ben	-10.7638
▁consistently	-10.7639
▁tackl	-10.7641
▁initially	-10.7643
▁fires	-10.7645
ski	-10.7657
▁characterise	-10.7664
▁withdrawn	-10.7668
▁sales	-10.7677
owing	-10.7682
ferred	-10.7684
com	-10.769
▁undertakings	-10.7705
▁promoted	-10.771
▁funded	-10.7758
▁input	-10.7759
▁appropriately	-10.7764
bi	-10.777
▁passing	-10.7787
▁functions	-10.7815
▁arm	-10.7824
▁demanded	-10.7839
▁schemes	-10.7842
▁replac	-10.7842
▁showed	-10.7854
▁bases	-10.7858
▁records	-10.7859
gre	-10.7871
▁pollut	-10.79
▁clauses	-10.7904
▁refers	-10.7905
sk	-10.7905
▁freely	-10.7929
rning	-10.7944
4%	-10.7953
AS	-10.7984
▁seeker	-10.7984
▁handl	-10.8005
▁artist	-10.8056
▁stimulate	-10.8075
cor	-10.8079
son	-10.8082
▁pr	-10.8084
▁0.	-10.809
▁reported	-10.8113
K	-10.8122
▁cr	-10.8123
▁sc	-10.8148
▁communications	-10.8153
▁Hav	-10.8153
▁stages	-10.8155
▁ma	-10.8173
▁n	-10.8177
▁seconds	-10.8181
▁fa	-10.8198
▁fat	-10.8222
▁euros	-10.8233
▁models	-10.828
▁reinforc	-10.8286
ake	-10.831
▁deaths	-10.8312
▁Inter	-10.8316
▁waters	-10.8344
ration	-10.8355
lingu	-10.8355
▁familiar	-10.8362
unch	-10.8363
tention	-10.838
ments	-10.8388
30	-10.842
une	-10.8436
ua	-10.8442
going	-10.8463
ities	-10.8479
▁rid	-10.8482
▁promise	-10.8482
▁exception	-10.8494
pproval	-10.8496
▁railway	-10.8498
▁route	-10.8501
▁section	-10.8501
ans	-10.8503
▁minor	-10.8504
▁margin	-10.8505
▁occasion	-10.8507
▁error	-10.8507
▁prospect	-10.8507
▁figure	-10.8508
▁accident	-10.8508
▁decade	-10.8508
▁airport	-10.8509
▁passenger	-10.8509
▁Democrat	-10.8511
ice	-10.8522
▁medicine	-10.8524
▁foundation	-10.8527
▁Pr	-10.8527
ening	-10.8533
▁producer	-10.8539
▁endeavour	-10.8547
▁complet	-10.8561
point	-10.8576
respective	-10.8576
▁generat	-10.858
back	-10.8581
amount	-10.8582
political	-10.8583
For	-10.8589
▁issu	-10.8602
▁prioritise	-10.8602
ier	-10.8605
▁gradual	-10.8609
▁CE	-10.8616
lim	-10.8624
▁remove	-10.8625
▁jeopardise	-10.8625
▁sit	-10.8628
▁en	-10.863
▁describe	-10.8632
▁consolidate	-10.8633
▁deni	-10.8634
▁teach	-10.8635
▁Cuba	-10.8636
▁sustain	-10.8638
▁foods	-10.8639
▁suit	-10.8639
▁disagree	-10.864
▁super	-10.864
▁delegat	-10.8641
▁excess	-10.8642
▁sovereign	-10.8643
hether	-10.8644
▁consist	-10.8644
▁interfere	-10.8644
▁applaud	-10.8644
▁landscape	-10.8644
▁reintegrati	-10.8644
▁rush	-10.8644
commerce	-10.8644
▁Association	-10.8644
▁Bureau	-10.8644
▁College	-10.8644
▁Conservative	-10.8644
▁Criminal	-10.8644
▁Declaration	-10.8644
▁Dutch	-10.8644
▁Education	-10.8644
▁GSP	-10.8644
▁Geneva	-10.8644
▁Guinea	-10.8644
▁Hamas	-10.8644
▁Meanwhile	-10.8644
▁Tajani	-10.8644
▁Uganda	-10.8644
▁Ukrainian	-10.8644
▁assembly	-10.8644
▁ceiling	-10.8644
▁confident	-10.8644
▁decrease	-10.8644
▁deforestation	-10.8644
▁desperate	-10.8644
▁diminish	-10.8644
▁easily	-10.8644
▁ethical	-10.8644
▁facility	-10.8644
▁hinder	-10.8644
▁hospital	-10.8644
▁intelligent	-10.8644
▁monopolies	-10.8644
▁mountain	-10.8644
▁orientation	-10.8644
▁picture	-10.8644
▁precondition	-10.8644
▁pretext	-10.8644
▁protocol	-10.8644
▁removal	-10.8644
▁statute	-10.8644
▁surplus	-10.8644
▁territories	-10.8644
▁twenty	-10.8644
▁typical	-10.8644
▁unique	-10.8644
▁weaknesses	-10.8644
▁142)	-10.8644
▁utmost	-10.8644
▁zero	-10.8644
▁brutal	-10.8644
▁insight	-10.8644
▁redundan	-10.8644
▁indications	-10.8644
asmus	-10.8644
▁Latvia	-10.8644
▁elite	-10.8644
▁broadband	-10.8644
▁metres	-10.8644
▁congratulations	-10.8644
▁conviction	-10.8644
▁shock	-10.8644
▁electora	-10.8644
▁timetable	-10.8644
▁river	-10.8644
▁deny	-10.8644
▁stead	-10.8644
▁wake	-10.8644
▁lifestyle	-10.8645
▁racism	-10.8645
▁Director	-10.8645
▁units	-10.8645
eimer	-10.8645
▁Chairman	-10.8645
▁innocent	-10.8645
▁luck	-10.8645
▁rigorous	-10.8645
▁passport	-10.8645
▁reciprocity	-10.8645
▁sake	-10.8645
▁eliminating	-10.8645
▁gather	-10.8645
▁executive	-10.8645
▁Workers	-10.8646
▁Doha	-10.8646
▁undoubtedly	-10.8646
▁weight	-10.8647
▁waiv	-10.8647
▁Wall	-10.8647
▁isolated	-10.8648
▁commodities	-10.8648
▁readmission	-10.8648
▁dependence	-10.8648
▁complexity	-10.8648
▁ball	-10.8648
▁Reform	-10.8648
▁accurate	-10.8648
▁cope	-10.8649
▁update	-10.8649
ella	-10.865
▁spare	-10.865
▁dictator	-10.865
▁permitted	-10.865
▁pity	-10.8651
▁150	-10.8652
▁comparable	-10.8652
▁settlement	-10.8652
▁autonomy	-10.8654
▁deliberately	-10.8655
rew	-10.8655
▁legislator	-10.8656
▁unemployed	-10.8657
▁Chad	-10.8658
▁integral	-10.8658
▁admitted	-10.8661
▁alarming	-10.8661
▁recall	-10.8662
▁accountability	-10.8665
▁criticised	-10.8665
▁Nord	-10.8668
▁evaluate	-10.867
▁dual	-10.8674
ncy	-10.8674
pe	-10.8675
▁abstained	-10.8678
▁released	-10.8678
▁bit	-10.8679
▁killed	-10.8679
▁inhuman	-10.868
▁delivery	-10.8682
▁arrived	-10.8684
▁3%	-10.8687
▁ch	-10.869
ship	-10.8692
▁Ba	-10.8692
▁2%	-10.8702
▁tensions	-10.8703
▁arrested	-10.8703
▁inflation	-10.8704
▁acknowledged	-10.8708
▁Le	-10.8712
▁focuses	-10.8714
▁seal	-10.8718
cap	-10.8719
▁burn	-10.872
▁bann	-10.8733
▁assurance	-10.8736
▁fleets	-10.8737
▁preserve	-10.8744
▁camps	-10.8753
lete	-10.8761
▁miss	-10.8773
over	-10.8773
▁gained	-10.8781
▁rebuild	-10.8786
ava	-10.8791
▁owner	-10.8792
▁Mus	-10.8798
▁monitored	-10.8798
▁farms	-10.8806
▁arms	-10.8813
▁moved	-10.8817
▁Palestinians	-10.8821
▁ambitions	-10.8821
▁trends	-10.8821
▁accordingly	-10.8823
visible	-10.8826
▁Ni	-10.8827
ba	-10.8829
ium	-10.8837
are	-10.8849
▁par	-10.8849
▁worker	-10.8856
▁incorporate	-10.8867
▁mothers	-10.8872
tive	-10.8904
▁illegally	-10.8904
▁ships	-10.8906
▁findings	-10.8923
▁founded	-10.8934
▁profits	-10.8958
▁deserve	-10.8988
▁75	-10.899
▁campaigns	-10.901
▁gaps	-10.901
▁fl	-10.9026
▁interventions	-10.9027
▁communicate	-10.9045
▁zones	-10.9062
▁topics	-10.9062
▁sports	-10.9096
▁ha	-10.9103
ically	-10.9109
▁safeguards	-10.9114
location	-10.9122
GB	-10.9125
cing	-10.9163
▁seas	-10.9165
▁regulators	-10.9167
tor	-10.9167
▁unifi	-10.9199
000	-10.92
▁Nu	-10.9213
▁pu	-10.9222
aj	-10.9269
ug	-10.9288
▁references	-10.929
ood	-10.9291
▁responding	-10.931
▁sta	-10.937
▁emphasises	-10.9377
▁liked	-10.938
▁aside	-10.939
yes	-10.9392
fully	-10.9397
▁exchanges	-10.9415
▁meaning	-10.9426
qui	-10.9441
arc	-10.9444
▁ref	-10.9462
▁pl	-10.9488
▁appreciat	-10.9488
nth	-10.9523
ury	-10.9546
fer	-10.9561
▁Ber	-10.9588
▁Gra	-10.9596
▁Lu	-10.9606
▁impacts	-10.9608
▁Global	-10.9614
▁Be	-10.9621
oli	-10.9628
▁organ	-10.9642
mar	-10.9703
▁celebrat	-10.9721
ple	-10.9727
▁ecosystem	-10.9751
▁exemption	-10.9752
▁Liberal	-10.9756
▁journalist	-10.9756
▁weapon	-10.9756
▁bill	-10.9757
▁obstacle	-10.9758
▁lie	-10.9759
▁acknowledg	-10.9759
▁station	-10.976
▁suggestion	-10.9765
wa	-10.9772
▁ignor	-10.9778
▁tone	-10.9799
▁counterfeit	-10.9802
▁fire	-10.9805
look	-10.9815
▁manag	-10.9815
mark	-10.9828
start	-10.9829
Europe	-10.983
friendly	-10.983
efficient	-10.9832
2006	-10.9832
discrimination	-10.9836
down	-10.9844
▁prohibit	-10.9846
▁finish	-10.985
uz	-10.9851
▁skill	-10.9855
▁dead	-10.986
▁withdraw	-10.9871
▁organis	-10.9875
▁ven	-10.9878
▁threaten	-10.988
▁flee	-10.9884
▁harmonise	-10.9885
▁Tibet	-10.9886
▁undertake	-10.9887
▁universit	-10.9887
▁commend	-10.9889
▁speculat	-10.9891
▁exempt	-10.9891
▁persecut	-10.9891
▁adjust	-10.9891
▁prosper	-10.9893
ugoslav	-10.9893
▁suspen	-10.9894
▁cent	-10.9894
▁HIV	-10.9894
▁Olympic	-10.9894
▁Taiwan	-10.9894
▁apologise	-10.9894
▁coordinator	-10.9894
▁disregard	-10.9894
▁film	-10.9894
▁livelihood	-10.9894
▁manifest	-10.9894
▁Caucasus	-10.9894
▁Children	-10.9894
▁Darfur	-10.9894
▁Eurojust	-10.9894
▁Galileo	-10.9894
▁Mauritania	-10.9894
▁OECD	-10.9894
▁Particular	-10.9894
▁Prize	-10.9894
▁Rompuy	-10.9894
▁Sarkozy	-10.9894
▁Similar	-10.9894
▁Taliban	-10.9894
▁Tax	-10.9894
▁abroad	-10.9894
▁adult	-10.9894
▁alleged	-10.9894
▁aquaculture	-10.9894
▁certification	-10.9894
▁clarity	-10.9894
▁corridor	-10.9894
▁dependency	-10.9894
▁distinguish	-10.9894
▁enshrin	-10.9894
▁guilt	-10.9894
▁inappropriate	-10.9894
▁incomplete	-10.9894
▁marginalised	-10.9894
▁parallel	-10.9894
▁programming	-10.9894
▁recital	-10.9894
▁remedy	-10.9894
▁resolute	-10.9894
▁scrutiny	-10.9894
▁shipyards	-10.9894
▁switch	-10.9894
▁synergies	-10.9894
▁tsunami	-10.9894
▁unlike	-10.9894
dominant	-10.9894
▁Who	-10.9894
▁belief	-10.9894
▁contamination	-10.9894
▁distance	-10.9894
▁equipped	-10.9894
▁escape	-10.9894
▁storm	-10.9894
▁taught	-10.9894
▁translation	-10.9894
▁copyright	-10.9894
▁Guant	-10.9894
▁offences	-10.9894
▁suspended	-10.9894
▁advice	-10.9894
▁Great	-10.9894
▁isolation	-10.9894
▁deem	-10.9894
▁diagnosis	-10.9894
eace	-10.9894
▁constraints	-10.9894
▁collaboration	-10.9894
▁dictatorship	-10.9894
▁identification	-10.9894
▁precaution	-10.9894
▁Work	-10.9894
▁1997	-10.9894
▁automatically	-10.9895
▁secretariat	-10.9895
▁wound	-10.9895
namo	-10.9895
▁chairman	-10.9895
▁Fourth	-10.9895
▁intense	-10.9895
▁nine	-10.9895
▁strange	-10.9895
▁wall	-10.9895
▁objection	-10.9895
▁dying	-10.9895
▁2015	-10.9895
▁composition	-10.9895
▁hazard	-10.9895
▁indig	-10.9895
▁systematically	-10.9896
▁separation	-10.9896
▁grand	-10.9896
ould	-10.9896
▁Mich	-10.9896
▁pace	-10.9896
ILO	-10.9896
▁contradiction	-10.9896
▁reactors	-10.9896
▁categories	-10.9896
▁atmosphere	-10.9897
▁generous	-10.9897
▁middle	-10.9897
▁scandalous	-10.9897
▁realities	-10.9898
▁Gold	-10.9898
▁hydro	-10.9899
bundl	-10.9899
▁modernisation	-10.9899
▁blame	-10.9899
▁regulating	-10.9899
▁remarkable	-10.9899
▁punishment	-10.9899
▁quantities	-10.9899
▁Morocco	-10.9899
▁hopefully	-10.99
▁nonetheless	-10.99
▁USA	-10.9901
▁TV	-10.9901
▁rejection	-10.9902
▁Tibetan	-10.9902
▁backward	-10.9902
incomprehensible	-10.9903
▁disgraceful	-10.9903
▁bond	-10.9904
▁Lithuanian	-10.9904
SE	-10.9905
▁diet	-10.9905
▁defenders	-10.9906
▁continuation	-10.9907
▁popular	-10.9907
▁civilisation	-10.9909
▁insufficient	-10.9909
▁2001	-10.9909
▁justification	-10.991
▁citizenship	-10.991
ork	-10.9911
▁voters	-10.9915
▁federal	-10.9916
▁tolerance	-10.9916
▁nationals	-10.9917
▁Time	-10.9917
▁scientists	-10.9923
▁soldiers	-10.9923
▁volunteering	-10.9926
▁Much	-10.9926
ula	-10.9928
▁makers	-10.993
▁fairer	-10.9937
▁finished	-10.9938
▁assured	-10.9941
▁assumption	-10.9941
▁functional	-10.9946
▁died	-10.9948
ick	-10.9948
▁consolidated	-10.9949
▁Li	-10.995
▁sooner	-10.9951
▁pledge	-10.9955
▁consulted	-10.9958
▁decisively	-10.9963
▁Seve	-10.9967
ists	-10.9986
▁secur	-10.9986
▁separately	-10.9986
ab	-10.9997
▁normally	-10.9997
▁meant	-10.9998
▁dumping	-10.9998
▁forecasts	-11
▁judgments	-11
sation	-11.0005
Montenegro	-11.0015
▁inspections	-11.0019
▁door	-11.002
▁managers	-11.0022
llow	-11.0024
▁career	-11.0029
▁Kar	-11.0034
▁quote	-11.0043
▁doors	-11.0046
▁won	-11.0049
▁independently	-11.0055
▁promises	-11.0058
▁stabilis	-11.006
mination	-11.0065
berg	-11.0067
▁mus	-11.0067
▁celebrate	-11.007
TA	-11.0076
▁Th	-11.0081
▁widely	-11.0089
▁pa	-11.0111
▁socially	-11.0145
▁difficulty	-11.0151
▁adapting	-11.0152
▁challeng	-11.0168
▁j	-11.0171
MO	-11.0179
▁carrier	-11.0184
zk	-11.0195
mag	-11.0203
▁reviewed	-11.0231
▁preparations	-11.0235
▁197	-11.0252
▁drugs	-11.0273
▁charges	-11.0278
▁bold	-11.0281
umb	-11.0287
bling	-11.0292
▁breach	-11.0297
▁pe	-11.0315
rang	-11.0327
▁reformed	-11.0335
▁obs	-11.0378
abled	-11.039
▁Si	-11.0481
▁controll	-11.0482
▁wasted	-11.0485
tz	-11.0494
CR	-11.0496
▁purchase	-11.0517
▁criminals	-11.0535
nyone	-11.054
▁signs	-11.0541
▁mentioning	-11.0552
95	-11.0569
▁perspectives	-11.0574
rre	-11.0612
▁burdens	-11.0615
▁sessions	-11.0615
orrections	-11.0629
ria	-11.0643
▁homes	-11.0673
▁regimes	-11.0697
▁Er	-11.0707
mor	-11.0746
tie	-11.0754
▁Ki	-11.0769
2%	-11.0774
▁st	-11.0783
▁Mu	-11.0798
ility	-11.08
uate	-11.0809
27	-11.085
▁respects	-11.0856
▁Ha	-11.0875
▁breache	-11.0877
▁heed	-11.0878
▁art	-11.0901
▁pressures	-11.0906
1%	-11.0914
▁Far	-11.0924
50	-11.0956
▁Air	-11.0958
aries	-11.0996
▁heat	-11.1006
▁ends	-11.1018
tries	-11.1026
cific	-11.1078
pp	-11.1091
▁Fa	-11.1099
lac	-11.1103
gui	-11.1112
▁argu	-11.1121
▁undermin	-11.1122
▁virtu	-11.1128
corporate	-11.1133
▁spa	-11.1143
▁persuade	-11.1147
wing	-11.1152
work	-11.1163
▁Br	-11.1167
▁resident	-11.1177
▁incident	-11.1178
uestion	-11.1179
▁13.	-11.118
▁inspection	-11.1181
▁remark	-11.1181
▁execution	-11.1181
▁camp	-11.1182
▁indicator	-11.1182
▁component	-11.1184
▁vessel	-11.1185
▁parent	-11.1185
▁operator	-11.1186
▁taxpayer	-11.1187
▁SME	-11.1188
▁tradition	-11.119
▁charg	-11.1222
▁manager	-11.1225
▁dump	-11.1229
national	-11.1239
riv	-11.1241
▁receiv	-11.1245
minute	-11.1259
Mediterranean	-11.126
took	-11.126
▁valid	-11.1261
compliance	-11.1262
democratic	-11.1262
sumption	-11.1268
▁punish	-11.1272
▁abstain	-11.1279
▁overlook	-11.1283
▁frank	-11.1286
▁logic	-11.1286
standing	-11.1292
▁warn	-11.1295
▁disadvantage	-11.1303
▁enforce	-11.1304
▁procedur	-11.1304
▁compensate	-11.1305
stitute	-11.1306
▁profession	-11.1308
▁exp	-11.1308
▁Venezuela	-11.1314
▁Minist	-11.1315
fect	-11.1316
▁scandal	-11.1319
▁fragment	-11.1319
▁calculat	-11.1319
▁Access	-11.132
▁neutral	-11.1321
tribute	-11.1321
▁merg	-11.1321
▁class	-11.1321
▁cul	-11.1321
▁tragic	-11.1322
▁stream	-11.1322
▁frame	-11.1322
▁Other	-11.1323
▁engine	-11.1323
▁decentralis	-11.1323
▁acquir	-11.1323
Bendit	-11.1323
▁Barrot	-11.1323
▁Border	-11.1323
▁Democracy	-11.1323
▁Instrument	-11.1323
▁Lynne	-11.1323
▁Madagascar	-11.1323
▁McCreevy	-11.1323
▁Oettinger	-11.1323
▁Ossetia	-11.1323
▁Please	-11.1323
▁Product	-11.1323
▁SOLVIT	-11.1323
▁Society	-11.1323
▁Somalia	-11.1323
▁Strip	-11.1323
▁Verhofstadt	-11.1323
▁austerity	-11.1323
▁autumn	-11.1323
▁blatant	-11.1323
▁capacities	-11.1323
▁catastrophe	-11.1323
▁catastrophic	-11.1323
▁clarification	-11.1323
▁condolence	-11.1323
▁contraven	-11.1323
▁coordinating	-11.1323
▁definitive	-11.1323
▁democracies	-11.1323
▁derogation	-11.1323
▁diplomacy	-11.1323
▁disabilities	-11.1323
▁dream	-11.1323
▁eligible	-11.1323
▁entail	-11.1323
▁flexicurity	-11.1323
▁frozen	-11.1323
▁hatred	-11.1323
▁hygiene	-11.1323
▁immense	-11.1323
▁inconsistent	-11.1323
▁incorrect	-11.1323
▁interview	-11.1323
▁journey	-11.1323
▁liberties	-11.1323
▁literally	-11.1323
▁night	-11.1323
▁obligatory	-11.1323
▁occupie	-11.1323
▁oversight	-11.1323
▁piracy	-11.1323
▁pragmatic	-11.1323
▁premium	-11.1323
▁privilege	-11.1323
▁promising	-11.1323
▁recession	-11.1323
▁robust	-11.1323
▁shelter	-11.1323
▁shield	-11.1323
▁slogan	-11.1323
▁smoking	-11.1323
▁socio	-11.1323
▁subsidis	-11.1323
▁sugar	-11.1323
▁threshold	-11.1323
▁trialogue	-11.1323
▁unanimity	-11.1323
▁unilateral	-11.1323
▁utilisation	-11.1323
▁widespread	-11.1323
▁worried	-11.1323
metric	-11.1323
▁2014	-11.1323
▁Finland	-11.1323
▁Life	-11.1323
▁bomb	-11.1323
▁dark	-11.1323
▁protein	-11.1323
▁regain	-11.1323
▁renewal	-11.1323
▁summarise	-11.1323
▁unconditional	-11.1323
▁alike	-11.1323
▁compos	-11.1323
▁dollar	-11.1323
▁overdue	-11.1323
▁smart	-11.1323
▁Prevent	-11.1323
▁surface	-11.1323
▁Consequently	-11.1323
▁Sak	-11.1323
▁convert	-11.1323
▁entity	-11.1323
▁proclaim	-11.1323
▁repair	-11.1323
kakis	-11.1323
▁spell	-11.1323
▁Immigration	-11.1323
▁Network	-11.1323
▁Statu	-11.1323
▁scarce	-11.1323
▁Eurogroup	-11.1323
▁inquiry	-11.1323
▁Federation	-11.1323
ology	-11.1323
▁abide	-11.1323
▁vaccination	-11.1323
▁1989	-11.1323
▁boundaries	-11.1323
▁demonstrators	-11.1323
▁childhood	-11.1323
▁characteristic	-11.1323
▁correlat	-11.1323
▁acute	-11.1323
▁shipping	-11.1323
▁verification	-11.1323
▁telecom	-11.1323
▁Pole	-11.1323
▁allowances	-11.1323
▁multiple	-11.1323
▁borrow	-11.1323
▁emotion	-11.1323
▁background	-11.1323
▁curb	-11.1323
▁halt	-11.1323
▁story	-11.1323
entities	-11.1324
▁disseminat	-11.1324
▁fifth	-11.1324
opical	-11.1324
▁Pack	-11.1324
▁irresponsible	-11.1324
▁revolution	-11.1324
▁donation	-11.1324
▁2050	-11.1324
▁eco	-11.1324
▁frequency	-11.1324
▁owe	-11.1325
▁ECB	-11.1325
▁interim	-11.1325
Sahara	-11.1325
▁examination	-11.1325
▁violate	-11.1325
▁FTA	-11.1325
▁rebel	-11.1325
▁file	-11.1326
▁alleviate	-11.1326
▁fragile	-11.1326
▁nonsense	-11.1326
▁assent	-11.1326
▁Iranian	-11.1326
▁forestry	-11.1326
▁perpetrated	-11.1326
orium	-11.1327
▁anywhere	-11.1327
oriented	-11.1327
▁season	-11.1327
▁electorate	-11.1327
▁mediation	-11.1328
▁ran	-11.1328
▁disagreement	-11.1328
▁2002	-11.1328
▁Communist	-11.1328
▁Stream	-11.1328
▁prejudice	-11.1328
▁sacrifice	-11.1328
▁discriminatory	-11.1329
▁dominated	-11.1329
▁customers	-11.1329
▁Coh	-11.133
igation	-11.133
▁workplace	-11.1332
▁upgrad	-11.1332
▁25%	-11.1332
▁reward	-11.1333
▁His	-11.1334
▁15%	-11.1334
▁stem	-11.1335
▁condemnation	-11.1335
▁Measures	-11.1335
xic	-11.1336
▁slightly	-11.1337
▁confused	-11.1337
▁motivated	-11.134
▁withdrawal	-11.1341
▁mad	-11.1341
▁Recently	-11.1342
▁Ch	-11.1343
▁fallen	-11.1344
▁decommissioning	-11.1345
▁helpful	-11.1345
stood	-11.1347
▁loud	-11.1348
▁book	-11.1348
▁IMF	-11.1348
▁modest	-11.1349
▁sick	-11.135
▁48	-11.1352
▁stopped	-11.1353
▁excluded	-11.1353
▁concessions	-11.1357
▁researchers	-11.1358
▁fulfilled	-11.1362
▁Croatian	-11.1364
▁AIDS	-11.1369
2010)	-11.1369
▁intolerable	-11.1371
▁punished	-11.1373
▁evaluated	-11.1373
▁screening	-11.1374
▁teachers	-11.1381
▁Iraqi	-11.1383
▁exclude	-11.1384
▁topical	-11.1386
▁footing	-11.1389
▁tariffs	-11.1401
▁analyses	-11.1401
istan	-11.1405
▁Ban	-11.141
▁exceptionally	-11.141
▁1%	-11.141
▁formally	-11.1412
▁undermined	-11.1413
mail	-11.1418
▁Dr	-11.1421
▁game	-11.1421
▁emergenc	-11.1424
▁illustrate	-11.143
▁Pre	-11.1437
▁exercised	-11.1439
hour	-11.1442
bert	-11.1443
tain	-11.1445
spire	-11.1445
vo	-11.1454
▁gen	-11.1455
raftsman	-11.1455
▁Dal	-11.1456
▁understands	-11.1463
▁executions	-11.1468
▁incidents	-11.1468
▁Ac	-11.147
▁insisted	-11.1471
▁facto	-11.1472
▁ver	-11.1479
▁supporters	-11.1486
▁ecosystems	-11.1491
▁auditing	-11.1493
ital	-11.1495
▁Vot	-11.1496
▁emerged	-11.1497
verything	-11.1504
▁sections	-11.1513
▁routes	-11.1513
plication	-11.1515
moon	-11.1518
unreasonable	-11.1522
▁arena	-11.1524
▁Du	-11.153
▁indicates	-11.1547
▁investigations	-11.1558
▁dangers	-11.1581
bin	-11.1602
▁postpone	-11.1604
▁spreading	-11.1612
▁Medi	-11.1629
▁qua	-11.1643
▁deficits	-11.165
▁discourage	-11.1659
▁impressi	-11.1669
ero	-11.1673
grad	-11.1683
▁arises	-11.1696
▁patents	-11.1696
▁testing	-11.1738
▁mo	-11.1741
▁Berlin	-11.1742
ping	-11.1751
▁delays	-11.176
▁generations	-11.1765
▁denounce	-11.18
▁signing	-11.1818
▁70	-11.182
ron	-11.1825
▁specialist	-11.1831
▁financially	-11.1849
▁Americans	-11.1858
▁ratings	-11.1858
▁advantages	-11.1859
▁32	-11.186
ightened	-11.1864
only	-11.1895
11	-11.1914
▁missions	-11.1929
▁initiate	-11.1934
bel	-11.1936
63	-11.195
▁1.5	-11.1991
15	-11.1993
rit	-11.2017
▁grants	-11.2028
▁di	-11.2041
▁engag	-11.2057
tak	-11.209
bus	-11.2092
▁offices	-11.2095
▁produces	-11.2107
oni	-11.2125
▁falls	-11.2147
gle	-11.2149
▁cont	-11.2189
ita	-11.221
▁Whi	-11.2227
▁considerations	-11.2248
mation	-11.2253
even	-11.2256
▁educat	-11.2256
▁rev	-11.2263
▁hop	-11.2278
▁centralis	-11.2279
▁65	-11.2285
▁initiat	-11.231
▁45	-11.2318
▁underestimate	-11.2325
▁issued	-11.2346
▁reviv	-11.2373
eau	-11.2405
CO	-11.2423
CC	-11.2457
ient	-11.2473
▁stra	-11.2502
▁notion	-11.2505
line	-11.2519
ara	-11.2522
tial	-11.2529
▁Gr	-11.255
▁cit	-11.2572
▁stimul	-11.2577
hi	-11.2578
6%	-11.2589
05	-11.262
FP	-11.2634
▁allies	-11.2665
ik	-11.2669
▁advise	-11.2675
RE	-11.2684
owned	-11.2696
▁recommend	-11.2698
▁lacking	-11.2717
▁requir	-11.2724
▁divid	-11.2767
viation	-11.277
▁refus	-11.2776
▁Cha	-11.2779
29	-11.2779
▁San	-11.2785
ania	-11.2822
▁El	-11.2829
▁inspir	-11.284
▁lawyer	-11.2842
tract	-11.2842
mong	-11.2844
gainst	-11.2844
▁consul	-11.2845
bove	-11.2845
nnual	-11.2845
▁distortion	-11.2847
▁judgment	-11.2847
ware	-11.2847
▁forecast	-11.2848
▁emerge	-11.2851
▁arrangement	-11.2853
▁saving	-11.2853
▁barrier	-11.2854
▁MEP	-11.2855
▁fleet	-11.286
▁refugee	-11.2862
pil	-11.2863
bo	-11.287
▁integrat	-11.2877
▁oppos	-11.2879
▁conclud	-11.2881
▁decid	-11.2899
so	-11.2902
▁lesson	-11.2907
▁90	-11.2909
gging	-11.2914
place	-11.2914
▁ste	-11.2921
EGF	-11.2925
liberal	-11.2925
catch	-11.2925
determination	-11.2926
profit	-11.2926
month	-11.2926
board	-11.2926
direct	-11.2927
growing	-11.2927
▁investigat	-11.2927
people	-11.2928
▁consolidat	-11.2929
how	-11.293
▁appoint	-11.2936
uni	-11.2938
2007	-11.2938
aking	-11.2938
▁harmonis	-11.2943
▁fix	-11.2947
writ	-11.2948
▁shap	-11.2951
▁faith	-11.2954
▁frequent	-11.2954
▁ultimate	-11.2955
▁exact	-11.2955
▁acc	-11.2955
▁unfortunate	-11.2955
▁legislat	-11.2959
rain	-11.296
▁player	-11.2966
▁196	-11.2966
▁shame	-11.2968
▁utilise	-11.2968
▁Trans	-11.2969
▁fee	-11.297
▁criticise	-11.2973
▁surviv	-11.2974
▁hid	-11.2977
wise	-11.2978
▁Scot	-11.298
▁invite	-11.2981
cation	-11.2981
▁diversif	-11.2981
▁Agricultur	-11.2983
▁dedicat	-11.2986
▁contradict	-11.2986
▁globalis	-11.2987
▁resist	-11.2988
stablish	-11.2988
xplanation	-11.2988
errorism	-11.2988
sceptic	-11.2989
ocuments	-11.2989
▁irre	-11.2989
▁falsifi	-11.2989
▁Afghan	-11.2989
▁cyber	-11.2989
▁entrust	-11.2989
▁exaggerat	-11.2989
▁sponsor	-11.2989
▁Combat	-11.2989
▁Congress	-11.2989
▁Gaddafi	-11.2989
▁Harbour	-11.2989
▁John	-11.2989
▁Next	-11.2989
▁Nicaragua	-11.2989
▁School	-11.2989
▁Supervisor	-11.2989
▁Transparency	-11.2989
▁aircraft	-11.2989
▁auction	-11.2989
▁broadcasting	-11.2989
▁cells	-11.2989
▁circumvent	-11.2989
▁criterion	-11.2989
▁custody	-11.2989
▁database	-11.2989
▁deadlock	-11.2989
▁destination	-11.2989
▁displaced	-11.2989
▁display	-11.2989
▁divergen	-11.2989
▁echo	-11.2989
▁enemy	-11.2989
▁enlarged	-11.2989
▁essence	-11.2989
▁exhaust	-11.2989
▁gesture	-11.2989
▁husband	-11.2989
▁illusion	-11.2989
▁impunity	-11.2989
▁ingredient	-11.2989
▁injuries	-11.2989
▁liberty	-11.2989
▁liquidity	-11.2989
▁pact	-11.2989
▁prerequisite	-11.2989
▁rehabilitat	-11.2989
▁slaughter	-11.2989
▁specified	-11.2989
▁unavoidabl	-11.2989
▁unwanted	-11.2989
▁veterinar	-11.2989
▁vulnerability	-11.2989
▁xenophobia	-11.2989
▁Ferrero	-11.2989
▁devices	-11.2989
▁proportionality	-11.2989
▁psych	-11.2989
▁Besides	-11.2989
▁Doyle	-11.2989
▁killing	-11.2989
▁summary	-11.2989
▁unsustainable	-11.2989
▁wholehearted	-11.2989
▁Costa	-11.2989
▁Fisc	-11.2989
▁Sometimes	-11.2989
▁suppress	-11.2989
▁obstruct	-11.2989
▁unjustified	-11.2989
▁GMOs	-11.2989
ERDF	-11.2989
▁David	-11.2989
▁resettlement	-11.2989
▁stereotypes	-11.2989
▁weekend	-11.2989
▁Lanka	-11.2989
▁tolerate	-11.2989
▁Appe	-11.2989
▁inevitable	-11.2989
▁soft	-11.2989
▁ICT	-11.2989
▁Sky	-11.2989
▁alliance	-11.2989
▁finger	-11.299
▁praise	-11.299
▁enrich	-11.299
ND	-11.299
▁cofinancing	-11.299
▁manipulation	-11.299
▁flagship	-11.299
▁replie	-11.299
▁devis	-11.299
▁scanners	-11.299
▁Cypriots	-11.299
▁equity	-11.299
▁guardian	-11.299
▁shut	-11.299
▁colonial	-11.299
▁multinational	-11.299
▁childcare	-11.299
▁prominent	-11.299
▁nav	-11.299
▁exposure	-11.299
▁pull	-11.299
▁relief	-11.299
▁accusations	-11.299
▁Bali	-11.299
▁boat	-11.2991
▁clever	-11.2991
▁renovation	-11.2991
IMCO	-11.2991
▁Things	-11.2991
▁pick	-11.2991
▁capture	-11.2991
hould	-11.2991
herent	-11.2991
▁tourist	-11.2991
▁Karas	-11.2991
▁resistance	-11.2991
logue	-11.2992
▁outset	-11.2992
▁transformation	-11.2992
endency	-11.2992
▁awarded	-11.2992
▁wave	-11.2992
▁35	-11.2992
▁Egyptian	-11.2992
▁anticipation	-11.2992
▁permission	-11.2993
▁Accession	-11.2993
▁infection	-11.2993
▁optimism	-11.2994
▁fought	-11.2994
▁limitations	-11.2994
▁net	-11.2994
▁coach	-11.2994
▁Ne	-11.2994
▁disappointed	-11.2994
▁onwards	-11.2994
▁ideology	-11.2995
▁facilitation	-11.2995
▁reciproc	-11.2995
▁paradoxical	-11.2995
▁horror	-11.2995
▁commendable	-11.2996
▁conscious	-11.2996
▁surprising	-11.2996
▁Franco	-11.2996
▁exit	-11.2996
beit	-11.2997
▁Reding	-11.2998
▁hot	-11.2998
▁victory	-11.2998
▁drought	-11.2998
▁deplore	-11.2999
▁cure	-11.2999
SEC	-11.2999
▁complementary	-11.2999
▁alia	-11.3001
acy	-11.3001
▁Cuban	-11.3002
▁distributed	-11.3003
▁interconnected	-11.3003
parliamentarians	-11.3004
▁suppliers	-11.3004
▁salaries	-11.3004
▁Scott	-11.3005
▁Haitian	-11.3005
▁Jan	-11.3005
▁smoothly	-11.3006
▁Innovation	-11.3008
▁depth	-11.3008
▁tongue	-11.3008
▁anyway	-11.3009
log	-11.3012
interoperability	-11.3016
▁swiftly	-11.3019
▁ACTA	-11.302
▁unrest	-11.3021
arg	-11.3022
▁enforced	-11.3026
▁Sever	-11.303
▁finalised	-11.303
▁reassure	-11.3033
▁appointed	-11.3034
▁oversee	-11.3038
▁emba	-11.304
bor	-11.3045
▁invited	-11.3047
▁prohibited	-11.3051
▁investigated	-11.3051
▁addresses	-11.3052
▁girls	-11.3056
▁licences	-11.3056
▁objects	-11.3056
▁formulate	-11.3057
▁quantit	-11.3059
▁integrate	-11.3059
▁pain	-11.306
▁Nic	-11.3062
▁Weber	-11.3063
▁transportation	-11.3064
▁Sch	-11.3065
▁drinking	-11.3068
▁deepening	-11.307
▁Sz	-11.3076
▁coin	-11.3084
▁Cot	-11.3091
▁Lim	-11.3091
▁sites	-11.3092
▁stresses	-11.3095
hl	-11.3099
▁interact	-11.3099
▁abolished	-11.3109
▁newspapers	-11.311
▁recommends	-11.3139
▁fatal	-11.3139
▁damaged	-11.3141
▁stone	-11.3149
IF	-11.3157
uestions	-11.3164
▁residents	-11.3164
▁indicators	-11.3165
rog	-11.3174
▁examin	-11.3185
▁awaiting	-11.3189
▁exemptions	-11.3191
▁bills	-11.3191
▁organs	-11.3192
aki	-11.3197
▁enjoyed	-11.32
▁mixing	-11.3228
▁bo	-11.3233
▁anticipat	-11.3244
▁fulfill	-11.3265
▁authors	-11.3268
▁wondering	-11.3282
rich	-11.3297
▁grav	-11.3297
▁audits	-11.3298
▁Well	-11.3298
▁registers	-11.3301
▁Ros	-11.3316
▁mitigat	-11.3317
▁clearer	-11.3321
▁costly	-11.3328
▁na	-11.3333
▁ski	-11.3357
▁marking	-11.336
▁Has	-11.3361
▁reserve	-11.3362
▁shortly	-11.3371
▁covering	-11.3379
nda	-11.3388
▁exporting	-11.3399
▁measur	-11.3404
09	-11.3406
▁associations	-11.341
▁mal	-11.3416
▁unjustifiabl	-11.3444
▁papers	-11.3465
▁continents	-11.3493
▁hu	-11.3505
▁Up	-11.3514
hann	-11.3519
tar	-11.3524
public	-11.3549
▁marks	-11.3555
assessment	-11.358
▁bur	-11.36
▁Ant	-11.3601
dec	-11.3671
▁advances	-11.3729
col	-11.3753
▁failures	-11.3777
▁incomes	-11.3777
DG	-11.3802
▁definitions	-11.3806
AN	-11.3809
▁cat	-11.382
60	-11.3823
meter	-11.3832
ki	-11.3849
ailway	-11.3862
▁transfers	-11.3865
ending	-11.3865
▁elaborate	-11.387
▁fu	-11.3953
▁Vi	-11.398
ina	-11.4009
used	-11.403
▁Tur	-11.4045
▁lea	-11.4063
action	-11.4101
▁authoris	-11.4102
ome	-11.4149
▁compli	-11.419
uous	-11.4214
▁mental	-11.4257
▁tra	-11.4264
reaching	-11.4314
ois	-11.4319
rious	-11.433
opol	-11.4353
▁Wi	-11.4357
kov	-11.4397
▁congratulat	-11.441
icit	-11.4418
▁commun	-11.4431
ko	-11.4435
▁friend	-11.4473
▁reconcil	-11.4482
3%	-11.4483
FA	-11.449
▁Mari	-11.4529
(2	-11.4537
ches	-11.4538
hu	-11.4548
oll	-11.455
▁split	-11.4665
empor	-11.4678
▁anticipate	-11.4683
ham	-11.469
▁Jos	-11.4698
▁character	-11.4718
▁quo	-11.4745
▁pol	-11.475
gue	-11.4753
▁enhanc	-11.4761
killed	-11.4768
▁incorporat	-11.4786
▁Georgi	-11.4794
▁guid	-11.4809
▁Sup	-11.4815
▁recognis	-11.4824
▁modernis	-11.4831
IA	-11.4834
▁coll	-11.4838
▁accelerat	-11.4841
▁marriage	-11.4842
▁donor	-11.4842
▁division	-11.4843
▁newspaper	-11.4844
▁park	-11.4844
▁reservation	-11.485
▁migrant	-11.4851
▁pesticide	-11.4851
▁complaint	-11.4852
▁misu	-11.4853
▁immigrant	-11.4853
▁sanction	-11.4854
▁gam	-11.4854
▁enterprise	-11.486
▁observer	-11.4866
earning	-11.4868
reserved	-11.4873
▁driver	-11.4875
▁petition	-11.489
▁drink	-11.4894
▁foot	-11.4897
▁disc	-11.4898
2009	-11.4899
reme	-11.49
▁balanc	-11.4911
▁substanti	-11.4913
load	-11.4919
audi	-11.4921
AIDS	-11.4923
2004	-11.4925
▁deepen	-11.4926
▁pri	-11.4927
law	-11.4927
Russia	-11.4927
stay	-11.4928
which	-11.4928
third	-11.4928
mass	-11.4929
East	-11.493
think	-11.4931
▁exercis	-11.4932
▁commission	-11.4933
but	-11.4933
▁gener	-11.4935
▁invit	-11.4938
(5)	-11.4941
▁neglect	-11.4944
management	-11.4945
▁dog	-11.4948
▁revis	-11.495
▁Was	-11.4951
▁profound	-11.4951
▁swift	-11.4953
made	-11.4957
▁definite	-11.4959
▁quick	-11.4961
▁geographic	-11.4962
far	-11.4962
rosi	-11.4966
▁coup	-11.4969
▁confuse	-11.4969
▁oblige	-11.497
▁associate	-11.497
▁sex	-11.4971
▁autonom	-11.4971
▁motivate	-11.4971
▁voluntar	-11.4972
ection	-11.4972
▁recover	-11.4972
anagement	-11.4972
FD	-11.4974
▁disgrace	-11.4975
▁tight	-11.4975
▁dictat	-11.4978
netheless	-11.4979
▁infringe	-11.498
▁commodit	-11.4982
▁consume	-11.4983
▁automo	-11.4984
▁Burm	-11.4984
▁construct	-11.4984
tress	-11.4986
▁investigate	-11.4986
▁explanat	-11.4986
▁migrat	-11.4986
▁Pap	-11.4987
▁Govern	-11.4987
▁extract	-11.4987
evolution	-11.4988
ecovery	-11.4988
equirements	-11.4988
▁Memor	-11.4988
issile	-11.4988
roviding	-11.4988
educ	-11.4988
maker	-11.4988
ounterfeiting	-11.4989
▁simplifi	-11.4989
negotia	-11.4989
empty	-11.4989
▁Annex	-11.4989
iolo	-11.4989
▁Blue	-11.4989
▁accomplish	-11.4989
▁destabilis	-11.4989
▁embark	-11.4989
▁reimburs	-11.4989
Ruijten	-11.4989
WEEE	-11.4989
Waldner	-11.4989
apatero	-11.4989
censorship	-11.4989
djourn	-11.4989
▁Azerbaijan	-11.4989
▁Beijing	-11.4989
▁Busuttil	-11.4989
▁Caribbean	-11.4989
▁Colombia	-11.4989
▁Communication	-11.4989
▁Communities	-11.4989
▁DTP	-11.4989
▁Delegation	-11.4989
▁Estrela	-11.4989
▁Gazprom	-11.4989
▁Klinz	-11.4989
▁Madeira	-11.4989
▁Madrid	-11.4989
▁Mechanism	-11.4989
▁Medicines	-11.4989
▁Nigeria	-11.4989
▁Professor	-11.4989
▁REACH	-11.4989
▁Regrettably	-11.4989
▁Scheme	-11.4989
▁Schwab	-11.4989
▁Soviet	-11.4989
▁Sterckx	-11.4989
▁Thomsen	-11.4989
▁Turkmen	-11.4989
▁Verheugen	-11.4989
▁academic	-11.4989
▁accreditation	-11.4989
▁additive	-11.4989
▁asbestos	-11.4989
▁bottle	-11.4989
▁charter	-11.4989
▁coincide	-11.4989
▁compel	-11.4989
▁confidentiality	-11.4989
▁confusion	-11.4989
▁contrast	-11.4989
▁conversion	-11.4989
▁deliberation	-11.4989
▁deportation	-11.4989
▁dismantling	-11.4989
▁divorce	-11.4989
▁domain	-11.4989
▁drastic	-11.4989
▁dynamism	-11.4989
▁emphatically	-11.4989
▁evasion	-11.4989
▁experiment	-11.4989
▁explore	-11.4989
▁fashion	-11.4989
▁fifteen	-11.4989
▁headquarters	-11.4989
▁herself	-11.4989
▁impartial	-11.4989
▁injustice	-11.4989
▁magnificent	-11.4989
▁massacre	-11.4989
▁mortgage	-11.4989
▁mutilation	-11.4989
▁narrow	-11.4989
▁overview	-11.4989
▁parameters	-11.4989
▁practise	-11.4989
▁predecessor	-11.4989
▁propaganda	-11.4989
▁prosecuted	-11.4989
▁reconsider	-11.4989
▁redundancies	-11.4989
▁relevance	-11.4989
▁resignation	-11.4989
▁ridiculous	-11.4989
▁scrutinis	-11.4989
▁shopping	-11.4989
▁subsidy	-11.4989
▁survey	-11.4989
▁sympath	-11.4989
▁ticket	-11.4989
▁tonight	-11.4989
▁verdict	-11.4989
▁verify	-11.4989
▁volcan	-11.4989
▁Earth	-11.4989
▁Farmers	-11.4989
▁Leinen	-11.4989
▁Rehn	-11.4989
▁abortion	-11.4989
▁accessibility	-11.4989
▁align	-11.4989
▁chronic	-11.4989
▁conditionality	-11.4989
▁continual	-11.4989
▁corporation	-11.4989
▁deaf	-11.4989
▁desert	-11.4989
▁feasib	-11.4989
▁premature	-11.4989
lecommunications	-11.4989
▁Garri	-11.4989
▁Lama	-11.4989
▁divert	-11.4989
▁fathers	-11.4989
▁greet	-11.4989
▁inclin	-11.4989
▁invasion	-11.4989
▁secular	-11.4989
▁sentiment	-11.4989
▁sight	-11.4989
▁demagog	-11.4989
▁repeal	-11.4989
ceptibl	-11.4989
▁legac	-11.4989
▁Jord	-11.4989
▁anchor	-11.4989
▁shales	-11.4989
▁football	-11.4989
▁gift	-11.4989
▁intelligence	-11.4989
▁pandemic	-11.4989
▁admir	-11.4989
▁Adam	-11.4989
▁grip	-11.4989
▁Process	-11.4989
▁sharp	-11.4989
▁Islands	-11.4989
▁Catal	-11.4989
▁relaunch	-11.4989
▁scene	-11.4989
▁cornerstone	-11.4989
▁verified	-11.4989
▁deficiencies	-11.4989
▁Operation	-11.4989
▁stamp	-11.4989
▁tractor	-11.4989
▁harmonious	-11.4989
▁vain	-11.499
▁God	-11.499
▁cabotage	-11.499
▁Games	-11.499
▁Tribunal	-11.499
▁conscience	-11.499
▁telephone	-11.499
▁Initiative	-11.499
▁intent	-11.499
▁epidemic	-11.499
▁expertise	-11.499
▁derivative	-11.499
▁conciliation	-11.499
▁Visa	-11.499
▁forgive	-11.499
▁UKIP	-11.499
▁kick	-11.499
▁Stavr	-11.499
▁exemplary	-11.499
▁flaw	-11.499
▁labor	-11.499
▁deplet	-11.499
▁Package	-11.499
▁deteriorating	-11.499
▁pluralis	-11.499
▁1998	-11.499
▁classification	-11.499
▁1979	-11.499
▁indirectly	-11.499
contaminat	-11.499
▁downturn	-11.499
▁arbitrary	-11.499
▁hostage	-11.499
▁Lebanon	-11.499
▁redistribution	-11.499
▁interconnection	-11.499
▁winter	-11.499
▁distract	-11.4991
▁missile	-11.4991
▁1980	-11.4991
▁pride	-11.4991
▁standpoint	-11.4991
▁evolve	-11.4991
▁uncertainty	-11.4991
▁alert	-11.4991
▁confin	-11.4991
▁detaine	-11.4991
▁Marine	-11.4991
▁coverage	-11.4991
▁bacteria	-11.4991
▁Paul	-11.4991
▁validity	-11.4991
▁Interior	-11.4991
▁eventual	-11.4992
▁Monti	-11.4992
▁turnover	-11.4992
An	-11.4992
▁philosophy	-11.4992
▁plunge	-11.4992
▁unknown	-11.4992
▁incit	-11.4992
▁dire	-11.4992
▁salary	-11.4992
▁femini	-11.4992
▁warrant	-11.4992
▁Move	-11.4993
▁trace	-11.4993
▁repute	-11.4993
▁Code	-11.4993
▁dedication	-11.4993
▁consolidation	-11.4993
▁drawback	-11.4993
▁Hans	-11.4993
▁render	-11.4993
▁gear	-11.4994
▁perpetrator	-11.4994
▁broken	-11.4994
▁hole	-11.4994
▁visitors	-11.4994
ENP	-11.4994
hard	-11.4995
▁70%	-11.4995
▁prohibition	-11.4995
▁privatisation	-11.4995
▁page	-11.4995
▁Parish	-11.4995
▁CFP	-11.4996
▁Round	-11.4996
▁pour	-11.4996
▁195	-11.4997
▁incredible	-11.4997
▁bare	-11.4997
▁poll	-11.4997
▁Eurostat	-11.4998
▁OSCE	-11.4998
▁Together	-11.4998
▁coalition	-11.4998
▁convincing	-11.4998
▁signatories	-11.4998
▁66	-11.4999
▁GN	-11.4999
▁Mik	-11.4999
▁pave	-11.4999
▁category	-11.5
▁sla	-11.5001
▁Emission	-11.5001
▁chose	-11.5001
▁disappointing	-11.5002
▁race	-11.5002
▁courageous	-11.5003
▁100%	-11.5003
ntegrated	-11.5004
▁imprisoned	-11.5005
▁cheaper	-11.5005
usz	-11.5005
▁Camp	-11.5008
▁hide	-11.5008
▁councils	-11.5008
▁110	-11.5009
▁cleaner	-11.5009
strategic	-11.501
▁Certainly	-11.501
▁simultaneously	-11.501
▁suddenly	-11.501
▁meaningful	-11.5013
▁Casp	-11.5013
▁foreigners	-11.5014
▁clarified	-11.5014
▁endorsement	-11.5014
▁simpler	-11.502
▁Macedonian	-11.5021
▁encouragement	-11.5021
▁freez	-11.5021
▁km	-11.5021
peaking	-11.5022
omen	-11.5022
ailing	-11.5024
elling	-11.5024
▁List	-11.5025
▁guard	-11.5027
▁Korean	-11.5028
▁tant	-11.5028
▁liberalised	-11.5028
▁attain	-11.503
▁EURES	-11.5032
uel	-11.5033
nice	-11.5034
sky	-11.5035
▁neglected	-11.5035
▁Drugs	-11.504
▁applicants	-11.504
▁tender	-11.5041
▁phone	-11.5043
▁frankly	-11.5043
▁smallest	-11.5044
▁addiction	-11.5044
▁impede	-11.5052
▁overlooked	-11.5056
▁postponed	-11.5056
▁load	-11.5058
▁saved	-11.5061
taking	-11.5062
▁assumed	-11.5066
▁partial	-11.5066
▁Forest	-11.5067
▁button	-11.5067
working	-11.507
gna	-11.507
▁understandable	-11.5071
▁habits	-11.5071
▁Ric	-11.5072
▁Refugees	-11.5073
▁households	-11.5073
▁loopholes	-11.5073
EEAS	-11.508
▁announcement	-11.508
▁begging	-11.5086
▁Very	-11.509
▁duration	-11.509
▁radically	-11.5093
▁Val	-11.5095
▁attracted	-11.5097
▁Est	-11.5098
onou	-11.5104
▁EPAs	-11.5106
▁bananas	-11.5106
▁logistics	-11.5106
▁successes	-11.5107
▁underlined	-11.5107
▁cre	-11.5112
▁recommending	-11.5112
icted	-11.5121
40	-11.5125
▁ICC	-11.5127
mous	-11.5129
anni	-11.5137
▁divisions	-11.5139
▁marriages	-11.5139
▁parks	-11.5139
▁donors	-11.5139
▁charged	-11.5147
▁restored	-11.5149
▁ineffective	-11.5156
admission	-11.5157
▁distortions	-11.5173
▁lawyers	-11.5173
cker	-11.5173
▁replaced	-11.5175
▁influ	-11.5175
▁endeavouring	-11.5176
native	-11.518
shop	-11.5192
▁guide	-11.5194
▁stopp	-11.5195
RA	-11.5199
▁collectively	-11.521
ific	-11.5212
▁recorded	-11.5213
pol	-11.5216
▁tempt	-11.5219
▁Lap	-11.5223
rror	-11.5238
▁Bel	-11.5242
▁belonging	-11.5242
▁fly	-11.5257
crea	-11.5262
▁influenc	-11.5268
▁Pres	-11.5272
▁railways	-11.5274
▁virtual	-11.5276
▁deriv	-11.5277
▁Statement	-11.528
▁Na	-11.5282
ER	-11.5285
▁0.4	-11.5292
DR	-11.5301
▁premise	-11.5306
own	-11.5307
▁chapters	-11.5308
▁volumes	-11.5308
▁civilians	-11.5308
splitting	-11.5324
▁safely	-11.5329
▁rejecting	-11.5333
▁interpreter	-11.5337
▁islands	-11.5343
list	-11.5349
▁seats	-11.5349
Wol	-11.5357
▁labels	-11.5373
▁mines	-11.5382
▁12-	-11.5384
care	-11.539
▁permits	-11.5408
▁Freedoms	-11.5411
▁murders	-11.5411
▁fam	-11.5412
78	-11.5413
being	-11.5422
fly	-11.5444
▁codes	-11.5446
▁identifying	-11.5455
▁prop	-11.5462
urk	-11.5484
cess	-11.5526
▁En	-11.5548
ari	-11.5562
tional	-11.562
raf	-11.5623
SS	-11.5645
rez	-11.5689
▁rac	-11.5698
▁advis	-11.5717
▁recurr	-11.5764
▁preced	-11.5804
▁intr	-11.5847
▁complie	-11.5856
vide	-11.5861
▁rang	-11.5871
▁die	-11.5891
rov	-11.5919
▁finalis	-11.5927
ij	-11.5942
rag	-11.5956
▁provisional	-11.599
▁37	-11.5997
▁Have	-11.6002
▁Gi	-11.6014
▁Pro	-11.6027
ified	-11.6057
ovi	-11.6068
▁Goo	-11.6069
▁53	-11.6099
26	-11.6164
▁41	-11.6168
▁satisfact	-11.6173
ja	-11.6199
ndustrial	-11.6214
ET	-11.6216
▁purchas	-11.6278
▁Non	-11.6284
▁manufacture	-11.6296
▁64	-11.63
ulation	-11.6337
(4	-11.6375
▁ham	-11.6407
where	-11.6412
state	-11.6417
▁undergo	-11.6466
▁199	-11.6468
▁Stabili	-11.6479
ago	-11.6543
▁abs	-11.6555
oil	-11.6566
▁del	-11.66
▁compet	-11.6621
▁minimise	-11.6631
trained	-11.6634
▁85	-11.6657
▁flo	-11.666
▁denounc	-11.6662
fle	-11.6672
▁basin	-11.6711
PA	-11.6743
▁Dis	-11.6746
▁Financ	-11.6748
▁intra	-11.6749
▁stimulat	-11.6751
8%	-11.6762
ible	-11.6765
▁Cre	-11.6784
mann	-11.6796
39	-11.6833
▁authorise	-11.6844
▁55	-11.6845
▁formula	-11.6853
▁Too	-11.6892
▁postpon	-11.6908
▁qualif	-11.6921
let	-11.6941
▁sha	-11.6979
bar	-11.7006
euro	-11.7085
▁rep	-11.7107
▁derive	-11.7135
▁stabilise	-11.7145
49	-11.7152
gressive	-11.718
amp	-11.7204
77	-11.7214
effective	-11.7218
nche	-11.7249
▁demonstrat	-11.7279
2008)	-11.7287
ashing	-11.7302
▁Fig	-11.7314
▁accommodat	-11.732
▁analyse	-11.7325
▁evaluat	-11.7331
▁banana	-11.7342
▁logistic	-11.7342
ssistance	-11.7344
▁stipulat	-11.7345
▁audi	-11.7345
▁tariff	-11.7346
▁EPA	-11.7349
▁channel	-11.7351
▁tension	-11.7353
▁expert	-11.7353
▁employee	-11.7354
▁Right	-11.7356
stand	-11.7358
▁flight	-11.7361
ledged	-11.7361
▁asset	-11.7368
▁investor	-11.7387
2012	-11.7388
▁site	-11.7398
▁worry	-11.7399
ortunately	-11.7406
▁screen	-11.7406
lateral	-11.741
▁determin	-11.741
▁cow	-11.741
elected	-11.7416
right	-11.7418
recast	-11.7419
class	-11.7423
tradition	-11.7423
funded	-11.7425
Chair	-11.7425
financed	-11.7425
CAP	-11.7426
migration	-11.7427
German	-11.7427
SMEs	-11.7427
balanced	-11.7427
accession	-11.7427
Africa	-11.7427
China	-11.7427
innovation	-11.7427
focus	-11.7428
front	-11.7428
regional	-11.7428
eva	-11.7428
health	-11.7428
social	-11.7428
person	-11.7428
water	-11.7428
either	-11.7428
products	-11.7428
course	-11.7429
increasing	-11.7429
private	-11.743
religious	-11.743
cow	-11.743
food	-11.7431
treat	-11.7433
erra	-11.7437
▁tim	-11.7437
phone	-11.7438
stop	-11.7441
tepping	-11.7445
▁aggre	-11.7446
icken	-11.745
hand	-11.745
▁Recent	-11.7453
▁apparent	-11.7454
▁Post	-11.7457
▁welcom	-11.7457
▁concer	-11.7464
▁totalitarian	-11.7465
ssentially	-11.7466
▁seize	-11.7468
▁dismantle	-11.7468
▁clarifie	-11.7469
▁refuge	-11.747
bric	-11.747
▁justifie	-11.7471
▁Ope	-11.7473
disciplin	-11.7475
▁120	-11.7479
▁beneficiar	-11.7483
▁sur	-11.7483
▁execut	-11.7484
▁elect	-11.7484
▁fun	-11.7484
cycl	-11.7485
▁preci	-11.7486
ompliance	-11.7486
▁corrupt	-11.7486
▁terror	-11.7487
jection	-11.7487
▁circu	-11.7487
▁fift	-11.7487
igorous	-11.7488
believ	-11.7488
▁equip	-11.7488
onitoring	-11.7488
-2013	-11.7488
assenger	-11.7488
nterprises	-11.7488
aragraph	-11.7488
ndition	-11.7488
Cypriot	-11.7488
▁automatic	-11.7488
losure	-11.7489
▁cruel	-11.7489
▁deteriorati	-11.7489
apital	-11.7489
esterday	-11.7489
▁disturb	-11.7489
smuggl	-11.7489
▁bypass	-11.7489
▁compris	-11.7489
▁conceiv	-11.7489
▁decimat	-11.7489
▁disrupt	-11.7489
▁embarrass	-11.7489
▁harvest	-11.7489
▁kidnapp	-11.7489
descend	-11.7489
ndoubtedly	-11.7489
▁Coordinat	-11.7489
▁Cross	-11.7489
▁Look	-11.7489
▁Twenty	-11.7489
▁absorb	-11.7489
▁compound	-11.7489
▁curtail	-11.7489
▁detect	-11.7489
▁enact	-11.7489
▁intensify	-11.7489
▁pioneer	-11.7489
▁specify	-11.7489
▁trigger	-11.7489
Communism	-11.7489
EFSA	-11.7489
Gualtieri	-11.7489
Ivoire	-11.7489
Palestine	-11.7489
admissible	-11.7489
aladministration	-11.7489
convenience	-11.7489
junct	-11.7489
laude	-11.7489
misunderstanding	-11.7489
pertinent	-11.7489
pprenticeship	-11.7489
▁149(8)	-11.7489
▁Abkhazia	-11.7489
▁Amsterdam	-11.7489
▁Antarctic	-11.7489
▁Berlusconi	-11.7489
▁Bhutto	-11.7489
▁Blair	-11.7489
▁Blokland	-11.7489
▁Budapest	-11.7489
▁Citizens	-11.7489
▁Columbia	-11.7489
▁Corbett	-11.7489
▁England	-11.7489
▁Fraga	-11.7489
▁Frank	-11.7489
▁Frassoni	-11.7489
▁Further	-11.7489
▁George	-11.7489
▁Ghana	-11.7489
▁History	-11.7489
▁Honour	-11.7489
▁Institution	-11.7489
▁Jerusalem	-11.7489
▁Lampedusa	-11.7489
▁Maghreb	-11.7489
▁Mitchell	-11.7489
▁Nowadays	-11.7489
▁Organization	-11.7489
▁Pittsburgh	-11.7489
▁Poverty	-11.7489
▁Presidencies	-11.7489
▁Reinfeldt	-11.7489
▁Sarajevo	-11.7489
▁Schlyter	-11.7489
▁Serbs	-11.7489
▁Seychelles	-11.7489
▁Sunday	-11.7489
▁Tamil	-11.7489
▁Tomorrow	-11.7489
▁Tuesday	-11.7489
▁Ultimately	-11.7489
▁Vienna	-11.7489
▁Watson	-11.7489
▁acquisition	-11.7489
▁analysing	-11.7489
▁appalling	-11.7489
▁atrocities	-11.7489
▁bargaining	-11.7489
▁benchmarks	-11.7489
▁bottom	-11.7489
▁capabilities	-11.7489
▁centuries	-11.7489
▁chamber	-11.7489
▁chaos	-11.7489
▁cheese	-11.7489
▁chief	-11.7489
▁choosing	-11.7489
▁clothes	-11.7489
▁cluster	-11.7489
▁college	-11.7489
▁combustion	-11.7489
▁congestion	-11.7489
▁convenient	-11.7489
▁creativity	-11.7489
▁currencies	-11.7489
▁damaging	-11.7489
▁dementia	-11.7489
▁destiny	-11.7489
▁dignified	-11.7489
▁dilemma	-11.7489
▁drift	-11.7489
▁empower	-11.7489
▁encompasse	-11.7489
▁episode	-11.7489
▁eradicate	-11.7489
▁eradicating	-11.7489
▁erect	-11.7489
▁helicopter	-11.7489
▁hierarchy	-11.7489
▁hypocrisy	-11.7489
▁identical	-11.7489
▁indivisible	-11.7489
▁injured	-11.7489
▁kilometre	-11.7489
▁knees	-11.7489
▁lodge	-11.7489
▁logging	-11.7489
▁machine	-11.7489
▁magnitude	-11.7489
▁mainstream	-11.7489
▁monopoly	-11.7489
▁nowadays	-11.7489
▁obese	-11.7489
▁obesity	-11.7489
▁obstinacy	-11.7489
▁opponents	-11.7489
▁overhaul	-11.7489
▁overweight	-11.7489
▁participant	-11.7489
▁phasing	-11.7489
▁pornography	-11.7489
▁prerogatives	-11.7489
▁prosecution	-11.7489
▁proximity	-11.7489
▁recipient	-11.7489
▁remuneration	-11.7489
▁reopen	-11.7489
▁repercussions	-11.7489
▁responsibly	-11.7489
▁reunification	-11.7489
▁satisfactorily	-11.7489
▁scourge	-11.7489
▁search	-11.7489
▁semester	-11.7489
▁seminar	-11.7489
▁slavery	-11.7489
▁slipp	-11.7489
▁struggling	-11.7489
▁suffrage	-11.7489
▁supplied	-11.7489
▁tachograph	-11.7489
▁techniques	-11.7489
▁temperature	-11.7489
▁timeframe	-11.7489
▁traffickers	-11.7489
▁tunnel	-11.7489
▁turmoil	-11.7489
▁undesirable	-11.7489
▁unequivocal	-11.7489
▁unlimited	-11.7489
▁upheld	-11.7489
▁vaccine	-11.7489
▁vacuum	-11.7489
▁villages	-11.7489
▁volatile	-11.7489
▁wheel	-11.7489
▁worthwhile	-11.7489
Sheikh	-11.7489
ndez	-11.7489
▁Cambodia	-11.7489
▁Current	-11.7489
▁DRC	-11.7489
▁Effect	-11.7489
▁Kla	-11.7489
▁Kroes	-11.7489
▁Marinescu	-11.7489
▁affirm	-11.7489
▁anxious	-11.7489
▁biocid	-11.7489
▁codification	-11.7489
▁computer	-11.7489
▁democratisation	-11.7489
▁distant	-11.7489
▁doctor	-11.7489
▁eager	-11.7489
▁furthermore	-11.7489
▁interdependenc	-11.7489
▁march	-11.7489
▁prudent	-11.7489
▁qualitative	-11.7489
▁signatures	-11.7489
▁tactic	-11.7489
supervised	-11.7489
tivation	-11.7489
ublin	-11.7489
▁Minsk	-11.7489
▁attentive	-11.7489
▁biogas	-11.7489
▁church	-11.7489
▁colour	-11.7489
▁giant	-11.7489
▁glass	-11.7489
▁holistic	-11.7489
▁incinerat	-11.7489
▁modification	-11.7489
▁petrol	-11.7489
▁tiger	-11.7489
▁IPCC	-11.7489
▁corp	-11.7489
Jacqu	-11.7489
▁Flor	-11.7489
▁Gucht	-11.7489
▁Training	-11.7489
▁deleted	-11.7489
▁mineral	-11.7489
▁preferences	-11.7489
▁uprising	-11.7489
▁diesel	-11.7489
▁presidencies	-11.7489
DCI	-11.7489
▁Power	-11.7489
▁neo	-11.7489
oretical	-11.7489
▁love	-11.7489
▁repay	-11.7489
▁unstable	-11.7489
▁wild	-11.7489
▁installations	-11.7489
▁updating	-11.7489
▁Audy	-11.7489
▁MDGs	-11.7489
▁annex	-11.7489
▁revise	-11.7489
▁League	-11.7489
ustom	-11.7489
▁excellence	-11.7489
▁productivity	-11.7489
▁conservative	-11.7489
▁match	-11.749
▁calm	-11.749
▁outrage	-11.749
▁Brown	-11.749
▁logo	-11.749
▁moderat	-11.749
▁licensing	-11.749
oslav	-11.749
▁grasp	-11.749
▁leakage	-11.749
▁terminal	-11.749
▁hesitat	-11.749
▁incurred	-11.749
loy	-11.749
▁wisely	-11.749
▁annum	-11.749
ttering	-11.749
▁Nature	-11.749
▁blackmail	-11.749
▁securities	-11.749
▁globe	-11.749
▁ruin	-11.749
▁Univers	-11.749
▁endanger	-11.749
▁discard	-11.749
▁Eurobonds	-11.749
▁vague	-11.749
iolence	-11.749
sighted	-11.749
▁transplantation	-11.749
rgentin	-11.749
▁hydrocarbon	-11.749
owski	-11.749
undering	-11.749
▁standstill	-11.749
▁gay	-11.749
▁departments	-11.749
▁rivalry	-11.749
▁retir	-11.749
▁resume	-11.749
▁uncontrolled	-11.749
aggression	-11.749
▁rocket	-11.749
▁box	-11.749
▁Eliminat	-11.749
▁electro	-11.749
tabling	-11.749
hapter	-11.749
▁wood	-11.749
▁conformity	-11.749
▁Norway	-11.749
hodo	-11.749
▁playground	-11.749
▁pollutants	-11.749
ecki	-11.749
▁barbaric	-11.749
▁provocation	-11.7491
▁Hague	-11.7491
▁Which	-11.7491
▁litre	-11.7491
▁recruitment	-11.7491
▁interruption	-11.7491
▁scam	-11.7491
▁slightest	-11.7491
▁winner	-11.7491
▁cardio	-11.7491
▁Back	-11.7491
aeda	-11.7491
▁theatre	-11.7491
▁Memorial	-11.7491
▁dividend	-11.7491
ugoslavia	-11.7491
▁tragically	-11.7491
▁drain	-11.7491
CITES	-11.7491
▁Mobility	-11.7491
▁Rack	-11.7491
▁hect	-11.7491
▁degradation	-11.7492
▁undeniable	-11.7492
▁pool	-11.7492
▁worsening	-11.7492
▁incidentally	-11.7492
▁polite	-11.7492
▁circulat	-11.7492
▁ODA	-11.7492
pleas	-11.7492
▁neutrality	-11.7492
SCO	-11.7492
▁Board	-11.7492
▁Law	-11.7492
▁Lange	-11.7492
▁passage	-11.7492
▁guidance	-11.7493
kmark	-11.7493
▁edge	-11.7493
▁dramatically	-11.7493
▁mergers	-11.7493
▁perver	-11.7493
▁preca	-11.7493
▁contempt	-11.7493
▁Arabia	-11.7493
▁melt	-11.7493
▁rethink	-11.7493
▁III	-11.7494
▁198	-11.7494
▁trap	-11.7494
▁unfold	-11.7494
▁mitigation	-11.7494
▁deput	-11.7494
netic	-11.7494
omic	-11.7495
▁supermarket	-11.7495
▁iron	-11.7495
▁calculation	-11.7495
▁sadness	-11.7495
▁publishers	-11.7496
▁comparability	-11.7496
DF	-11.7496
▁selective	-11.7496
▁classic	-11.7496
▁CIA	-11.7496
structive	-11.7496
▁infa	-11.7497
nez	-11.7497
▁47	-11.7498
▁thrown	-11.7498
▁ros	-11.7498
▁44	-11.7498
▁sensitivity	-11.7498
▁prediction	-11.7498
ization	-11.7498
▁81	-11.7498
▁lament	-11.7499
▁alter	-11.7499
▁rig	-11.7499
▁gold	-11.7499
OL	-11.7499
▁store	-11.7499
▁underlie	-11.75
▁Abu	-11.75
▁besides	-11.75
▁rationale	-11.75
▁121	-11.75
▁58	-11.75
▁Boel	-11.75
▁1.2	-11.7501
▁fastest	-11.7501
▁statutory	-11.7501
▁tobacco	-11.7501
▁Eight	-11.7501
▁insert	-11.7501
▁1999	-11.7501
▁occurrence	-11.7501
▁arrival	-11.7502
▁51	-11.7502
▁imm	-11.7503
▁pensioners	-11.7503
▁sus	-11.7503
▁appearance	-11.7503
▁capitalist	-11.7504
▁Venezuelan	-11.7505
visual	-11.7505
▁dozen	-11.7506
▁bought	-11.7507
▁tenth	-11.7507
▁cra	-11.7508
▁bankers	-11.7508
▁passive	-11.7508
▁directors	-11.7509
▁dub	-11.7509
▁12%	-11.7511
▁dismantled	-11.7511
▁seized	-11.7511
▁catalogue	-11.7511
▁analysed	-11.7511
▁62	-11.7511
▁tro	-11.7512
▁legislate	-11.7512
▁throw	-11.7512
▁Net	-11.7512
▁Anders	-11.7514
▁Card	-11.7514
▁outlook	-11.7514
lessness	-11.7517
▁stag	-11.7518
▁carers	-11.7518
jer	-11.7519
▁comfort	-11.752
▁Peter	-11.752
▁utilised	-11.7523
▁mistaken	-11.7524
unctioning	-11.7524
▁democratically	-11.7525
▁offender	-11.7526
2009)	-11.7528
▁respectively	-11.7528
▁denial	-11.7531
▁statistical	-11.7531
▁anybody	-11.7535
▁overshadow	-11.7536
▁violated	-11.7536
inner	-11.7537
▁possessi	-11.7537
zen	-11.7538
uite	-11.7538
▁plen	-11.7538
▁profoundly	-11.7538
▁EM	-11.7539
▁Area	-11.754
▁army	-11.754
▁carte	-11.754
▁quiet	-11.7542
▁Edit	-11.7542
▁EIT	-11.7542
▁bull	-11.7543
▁jeopardis	-11.7546
▁embrace	-11.7548
▁compensated	-11.7549
grams	-11.755
▁timescale	-11.7553
ompanies	-11.7555
▁cereals	-11.7556
▁fingerprints	-11.7556
tile	-11.756
▁recast	-11.756
▁accompany	-11.756
▁cast	-11.756
▁devastating	-11.7561
▁formulated	-11.7566
▁pet	-11.7566
▁Membership	-11.7567
uality	-11.757
▁deadly	-11.7571
▁Pie	-11.7572
▁amid	-11.7574
▁unite	-11.7576
▁tend	-11.7587
▁Text	-11.7597
▁rain	-11.7601
▁prioritis	-11.7604
▁risen	-11.7604
▁Mann	-11.7606
master	-11.7607
termination	-11.7607
▁Roman	-11.7611
▁nationality	-11.7613
▁norm	-11.7615
▁hl	-11.7615
EA	-11.7617
wer	-11.7618
▁6%	-11.7625
▁abused	-11.763
▁bid	-11.7634
▁accelerated	-11.7635
▁broaden	-11.7636
▁intensively	-11.7637
▁sal	-11.7642
▁rooted	-11.7644
verge	-11.7648
fire	-11.7654
ndus	-11.7655
▁Anti	-11.7656
ccommodation	-11.7662
pending	-11.7668
NA	-11.7669
▁ho	-11.7679
▁connect	-11.7682
▁handled	-11.7689
▁Mc	-11.7689
big	-11.7693
▁nutritio	-11.7703
▁sweep	-11.7718
▁irregularit	-11.7726
▁rose	-11.773
▁respective	-11.7766
erci	-11.7791
tage	-11.7794
gate	-11.7809
41	-11.7829
▁Hu	-11.7833
83	-11.7835
▁occupy	-11.7846
▁dogma	-11.7869
mple	-11.7896
elimina	-11.7912
▁Cam	-11.7927
We	-11.7929
mes	-11.7942
▁emit	-11.7978
▁exporter	-11.7982
▁profil	-11.7998
election	-11.8012
▁factual	-11.8026
mod	-11.8035
▁creditor	-11.8037
run	-11.807
▁sho	-11.8076
▁Hug	-11.8122
▁Tri	-11.8136
87	-11.8155
▁reconcile	-11.8179
fold	-11.8217
▁rough	-11.8225
urt	-11.8231
▁modernise	-11.8247
communist	-11.8252
▁overcom	-11.8254
ela	-11.8277
▁standardis	-11.8279
tmann	-11.8283
▁realis	-11.8307
COP	-11.8395
Call	-11.8412
▁minimis	-11.8427
▁transpose	-11.8428
▁designate	-11.847
▁holder	-11.8501
10	-11.8508
bridge	-11.8511
kin	-11.8525
▁absen	-11.8569
▁separati	-11.8579
▁0.3	-11.8587
▁unus	-11.859
iation	-11.8592
burst	-11.8725
▁educate	-11.8751
▁Maria	-11.8758
rkov	-11.8764
▁Vo	-11.8773
elle	-11.881
▁wh	-11.8832
▁36	-11.8952
▁concentrat	-11.8968
Maritime	-11.901
▁gl	-11.9011
▁maximis	-11.9021
▁Malt	-11.9035
▁Chi	-11.9096
▁diploma	-11.9143
▁Rail	-11.915
portion	-11.916
iff	-11.917
polluter	-11.9263
valuation	-11.9305
burg	-11.9331
▁pursui	-11.9343
▁glo	-11.9378
▁formulat	-11.9379
▁82	-11.9416
IP	-11.9466
▁originat	-11.9519
eye	-11.9533
▁relie	-11.954
▁transpos	-11.9647
▁prim	-11.966
logical	-11.9682
itarian	-11.9691
lav	-11.9696
▁99	-11.9715
iar	-11.9732
▁sw	-11.9748
▁Cath	-11.9842
fortunately	-11.9859
ckle	-11.9899
roughly	-11.994
signed	-11.9948
etail	-11.996
ordon	-11.9961
rade	-12.0024
▁impl	-12.0029
petition	-12.003
zu	-12.0031
45	-12.0047
specially	-12.0056
rative	-12.0059
▁mi	-12.0092
mitted	-12.0111
▁mitigate	-12.0136
profile	-12.0154
anti	-12.0183
▁LI	-12.0198
▁cur	-12.0208
sistence	-12.0237
▁estima	-12.0258
▁unbrid	-12.0271
▁Bra	-12.029
nium	-12.0371
degenerat	-12.0393
▁rela	-12.0402
TE	-12.0412
▁Implement	-12.0429
▁irregular	-12.0474
▁conduc	-12.0478
rine	-12.0517
utrition	-12.0533
▁illustrat	-12.0552
notes	-12.0583
eference	-12.0587
▁constitut	-12.0592
lux	-12.0596
mines	-12.06
head	-12.0618
▁advoca	-12.0622
flation	-12.0629
▁rectif	-12.0649
nnouncement	-12.0662
▁EEA	-12.0669
▁rational	-12.0669
▁object	-12.0673
▁Refugee	-12.0676
▁household	-12.0676
▁loophole	-12.0676
trategic	-12.0676
▁arriv	-12.0677
▁licence	-12.0678
▁girl	-12.0678
▁biofuel	-12.0683
▁constituent	-12.0683
▁aspiration	-12.0684
▁crop	-12.0685
▁studie	-12.0687
▁tonne	-12.0688
half	-12.069
▁teacher	-12.0704
elect	-12.0704
▁emb	-12.0713
▁habit	-12.0719
ulf	-12.072
▁sel	-12.072
▁confer	-12.0723
▁manufacturer	-12.0725
▁devastat	-12.0725
▁integr	-12.0728
▁reassur	-12.0729
▁volunteer	-12.073
▁surround	-12.0731
worth	-12.0754
guard	-12.0754
ardo	-12.0754
▁modes	-12.0755
known	-12.0755
ACTA	-12.0756
produc	-12.0756
IMF	-12.0757
book	-12.0757
dumping	-12.0757
federal	-12.0757
tolerance	-12.0757
ncies	-12.0758
distort	-12.0758
violent	-12.0758
utter	-12.0758
space	-12.0759
micro	-12.0759
satisfactory	-12.0759
WTO	-12.0759
intensive	-12.0759
resolved	-12.0759
commit	-12.0759
reported	-12.076
corruption	-12.076
definitely	-12.076
ethnic	-12.076
emergency	-12.076
examine	-12.076
decision	-12.076
regulated	-12.076
school	-12.076
Georgia	-12.076
Western	-12.076
Japan	-12.076
reading	-12.076
word	-12.0761
competitive	-12.0761
language	-12.0761
affected	-12.0761
developed	-12.0761
capacity	-12.0761
Turkey	-12.0761
together	-12.0761
regions	-12.0761
fishing	-12.0761
sector	-12.0761
common	-12.0761
crisis	-12.0761
financial	-12.0761
energy	-12.0761
from	-12.0761
responsibility	-12.0761
business	-12.0762
failing	-12.0762
speed	-12.0762
rapporteur	-12.0763
implementation	-12.0763
arms	-12.0763
double	-12.0764
well	-12.0764
risk	-12.0765
workers	-12.0766
▁Tim	-12.0767
48	-12.0768
▁corn	-12.0768
mobile	-12.0768
ladi	-12.0773
funct	-12.0774
judge	-12.0775
stick	-12.0776
judg	-12.0779
▁announc	-12.078
cost	-12.0781
bitant	-12.0781
▁slight	-12.0785
▁defi	-12.0785
▁simultaneous	-12.0786
▁sudden	-12.0786
▁Certain	-12.0786
▁smooth	-12.0786
▁deliberate	-12.0787
tabled	-12.079
▁Addi	-12.0792
▁polic	-12.0793
▁Integr	-12.0795
▁categor	-12.0797
away	-12.0798
▁ratio	-12.0798
▁Trad	-12.08
▁victor	-12.0804
▁occurr	-12.0804
▁harmon	-12.0806
▁dispos	-12.0807
▁broke	-12.0808
▁defer	-12.0808
▁distribute	-12.0809
▁incredibl	-12.0809
▁Susta	-12.0812
▁Travel	-12.0815
ocratic	-12.0816
▁earlie	-12.0817
▁innovat	-12.0818
democrat	-12.0818
▁redefin	-12.0819
▁discriminat	-12.0819
▁frustrat	-12.0819
▁liberalise	-12.0819
lexibility	-12.0819
▁renovat	-12.082
▁populat	-12.082
▁repressi	-12.082
▁prescripti	-12.082
▁capita	-12.082
▁phenomen	-12.082
▁fell	-12.0821
scribed	-12.0821
▁recruit	-12.0821
rivate	-12.0821
east	-12.0821
▁ensu	-12.0821
▁arbitra	-12.0821
▁conform	-12.0821
orrow	-12.0821
▁subsidiar	-12.0821
ultiannual	-12.0821
▁colon	-12.0821
▁Kurd	-12.0821
inority	-12.0821
eased	-12.0822
ersonally	-12.0822
erformance	-12.0822
▁neoliberal	-12.0822
ecretariat	-12.0822
lectronic	-12.0822
cientific	-12.0822
trengthen	-12.0822
chemical	-12.0822
onciliation	-12.0822
xecutive	-12.0822
ncidentally	-12.0822
ountries	-12.0822
tivity	-12.0822
nowledge	-12.0822
udicial	-12.0822
▁sacr	-12.0822
▁unjust	-12.0823
▁fluctuati	-12.0823
▁peacekeep	-12.0823
Jamal	-12.0823
cription	-12.0823
▁Consider	-12.0823
▁escalati	-12.0823
▁knock	-12.0823
▁modify	-12.0823
▁revitalis	-12.0823
▁shrink	-12.0823
SADC	-12.0823
Saxon	-12.0823
compatibility	-12.0823
drzejewska	-12.0823
energise	-12.0823
ethanol	-12.0823
existent	-12.0823
incontrovertible	-12.0823
ludge	-12.0823
pidla	-12.0823
rdles	-12.0823
rgensen	-12.0823
scrupulous	-12.0823
utocracy	-12.0823
▁1325	-12.0823
▁Administration	-12.0823
▁Ahtisaari	-12.0823
▁Albertini	-12.0823
▁Algeria	-12.0823
▁Already	-12.0823
▁Bahrain	-12.0823
▁Batzeli	-12.0823
▁Better	-12.0823
▁Buildings	-12.0823
▁Buzek	-12.0823
▁Chernobyl	-12.0823
▁Christmas	-12.0823
▁Crowley	-12.0823
▁EASA	-12.0823
▁Effort	-12.0823
▁Enlarge	-12.0823
▁Equally	-12.0823
▁Eurocontrol	-12.0823
▁Facility	-12.0823
▁Ferreira	-12.0823
▁Foundation	-12.0823
▁Frattini	-12.0823
▁Friday	-12.0823
▁Gebhardt	-12.0823
▁Grabowska	-12.0823
▁Guarantee	-12.0823
▁Guard	-12.0823
▁Guatemala	-12.0823
▁Guidelines	-12.0823
▁Holo	-12.0823
▁Illegal	-12.0823
▁Juncker	-12.0823
▁Kallenbach	-12.0823
▁Kazakhstan	-12.0823
▁Kyrgyzstan	-12.0823
▁Lamassoure	-12.0823
▁Lechner	-12.0823
▁Liberadzki	-12.0823
▁Liechtenstein	-12.0823
▁Ljubljana	-12.0823
▁Mafia	-12.0823
▁McGuinness	-12.0823
▁Medvedev	-12.0823
▁Mubarak	-12.0823
▁Mugabe	-12.0823
▁Observ	-12.0823
▁Papastamkos	-12.0823
▁Practice	-12.0823
▁Project	-12.0823
▁Regulator	-12.0823
▁Rememb	-12.0823
▁Renewable	-12.0823
▁Roadmap	-12.0823
▁Saakashvili	-12.0823
▁Sacconi	-12.0823
▁Saturday	-12.0823
▁Scheele	-12.0823
▁Schmitt	-12.0823
▁Shalit	-12.0823
▁Singapore	-12.0823
▁Solana	-12.0823
▁Specifically	-12.0823
▁Standard	-12.0823
▁Stevenson	-12.0823
▁Svensson	-12.0823
▁Swoboda	-12.0823
▁Tarabella	-12.0823
▁Technology	-12.0823
▁Transnistria	-12.0823
▁Vessel	-12.0823
▁Wogau	-12.0823
▁abducted	-12.0823
▁abilities	-12.0823
▁academia	-12.0823
▁ambassador	-12.0823
▁architecture	-12.0823
▁assassination	-12.0823
▁authentic	-12.0823
▁boycott	-12.0823
▁branches	-12.0823
▁broadcasts	-12.0823
▁bureaucrats	-12.0823
▁cancelled	-12.0823
▁carcinogenic	-12.0823
▁cattle	-12.0823
▁certificate	-12.0823
▁cigarette	-12.0823
▁clashes	-12.0823
▁cohesive	-12.0823
▁communautaire	-12.0823
▁compassion	-12.0823
▁compatriot	-12.0823
▁complaining	-12.0823
▁conquer	-12.0823
▁constituenc	-12.0823
▁cosmetics	-12.0823
▁crossroads	-12.0823
▁crowd	-12.0823
▁decree	-12.0823
▁deletion	-12.0823
▁devil	-12.0823
▁diamond	-12.0823
▁disorder	-12.0823
▁displacement	-12.0823
▁dreadful	-12.0823
▁dwindling	-12.0823
▁ecology	-12.0823
▁embargo	-12.0823
▁emigrant	-12.0823
▁ethics	-12.0823
▁expulsion	-12.0823
▁fanatic	-12.0823
▁flesh	-12.0823
▁footprint	-12.0823
▁gallery	-12.0823
▁grandchildren	-12.0823
▁grids	-12.0823
▁harassment	-12.0823
▁haulage	-12.0823
▁himself	-12.0823
▁holiday	-12.0823
▁hypocritical	-12.0823
▁iceberg	-12.0823
▁imminent	-12.0823
▁impractical	-12.0823
▁inadequac	-12.0823
▁inauguration	-12.0823
▁indispensable	-12.0823
▁interdependent	-12.0823
▁irreversibl	-12.0823
▁jungle	-12.0823
▁juvenile	-12.0823
▁landfill	-12.0823
▁legitimis	-12.0823
▁leverage	-12.0823
▁lorry	-12.0823
▁mafia	-12.0823
▁mercury	-12.0823
▁milestone	-12.0823
▁miracle	-12.0823
▁multilingual	-12.0823
▁negotiator	-12.0823
▁nightmare	-12.0823
▁parasites	-12.0823
▁patron	-12.0823
▁pedestrians	-12.0823
▁phrase	-12.0823
▁pocket	-12.0823
▁prize	-12.0823
▁pronounce	-12.0823
▁prosecutor	-12.0823
▁relocate	-12.0823
▁reorganis	-12.0823
▁repatriation	-12.0823
▁restaurant	-12.0823
▁rhetoric	-12.0823
▁riots	-12.0823
▁roadmap	-12.0823
▁scarcity	-12.0823
▁segregation	-12.0823
▁semi	-12.0823
▁shipwreck	-12.0823
▁situated	-12.0823
▁smoke	-12.0823
▁sophisticat	-12.0823
▁spurr	-12.0823
▁squeeze	-12.0823
▁subjugat	-12.0823
▁suffice	-12.0823
▁taboo	-12.0823
▁teeth	-12.0823
▁thrombin	-12.0823
▁tragedies	-12.0823
▁transgress	-12.0823
▁truckload	-12.0823
▁turbulence	-12.0823
▁turbulent	-12.0823
▁tyres	-12.0823
▁unanswered	-12.0823
▁undeclared	-12.0823
▁underpinn	-12.0823
▁unquestionabl	-12.0823
▁unwilling	-12.0823
▁upheaval	-12.0823
▁utopia	-12.0823
▁vacancies	-12.0823
▁vigilant	-12.0823
▁wreck	-12.0823
ignature	-12.0823
▁Alexand	-12.0823
▁Child	-12.0823
▁Desert	-12.0823
▁Grosch	-12.0823
▁Kenya	-12.0823
▁Mahm	-12.0823
▁Mission	-12.0823
▁cynical	-12.0823
▁explosi	-12.0823
▁fraudulent	-12.0823
▁inventor	-12.0823
▁nervous	-12.0823
▁retrain	-12.0823
▁shirk	-12.0823
▁stubborn	-12.0823
▁superficial	-12.0823
▁talent	-12.0823
▁workforce	-12.0823
IPPC	-12.0823
Semit	-12.0823
▁Arrest	-12.0823
▁Busk	-12.0823
▁Daul	-12.0823
▁Delors	-12.0823
▁GHS	-12.0823
▁Grech	-12.0823
▁Ocean	-12.0823
▁Welcome	-12.0823
▁algae	-12.0823
▁birds	-12.0823
▁complications	-12.0823
▁cotton	-12.0823
▁cyclone	-12.0823
▁deposit	-12.0823
▁goodwill	-12.0823
▁identities	-12.0823
▁indebt	-12.0823
▁indignation	-12.0823
▁intensity	-12.0823
▁jail	-12.0823
▁librar	-12.0823
▁monument	-12.0823
▁nurses	-12.0823
▁probable	-12.0823
▁reinstate	-12.0823
▁starving	-12.0823
▁stories	-12.0823
▁unaware	-12.0823
sufficiency	-12.0823
▁GPS	-12.0823
▁humankind	-12.0823
▁meagre	-12.0823
▁nurser	-12.0823
▁persuasi	-12.0823
▁taste	-12.0823
6-03	-12.0823
7-00	-12.0823
aughter	-12.0823
vocab	-12.0823
▁ATM	-12.0823
▁CSR	-12.0823
▁Cairo	-12.0823
▁bonus	-12.0823
▁economists	-12.0823
▁evil	-12.0823
▁photo	-12.0823
▁recreation	-12.0823
icably	-12.0823
lope	-12.0823
▁Plus	-12.0823
▁Senate	-12.0823
▁accumulat	-12.0823
▁conceal	-12.0823
▁directories	-12.0823
▁omissions	-12.0823
▁Arif	-12.0823
▁Vries	-12.0823
▁problematic	-12.0823
▁Sharm	-12.0823
▁Andreas	-12.0823
▁Angl	-12.0823
▁baffl	-12.0823
▁horse	-12.0823
▁impair	-12.0823
▁impatien	-12.0823
▁notwithstanding	-12.0823
▁multiply	-12.0823
▁suprem	-12.0823
▁cartels	-12.0823
▁fertili	-12.0823
▁Lyon	-12.0823
▁mamm	-12.0823
▁memory	-12.0823
necks	-12.0823
▁seabed	-12.0823
drome	-12.0823
▁nomad	-12.0823
giver	-12.0823
▁distributors	-12.0823
▁Port	-12.0823
▁Merk	-12.0823
▁engineering	-12.0823
VIS	-12.0823
▁assuming	-12.0823
▁Erika	-12.0823
▁intensifie	-12.0823
▁plague	-12.0823
consuming	-12.0823
▁veto	-12.0823
▁Turmes	-12.0823
▁shareholders	-12.0823
▁Unemployment	-12.0823
▁dropped	-12.0823
▁pressuris	-12.0823
▁Surely	-12.0823
▁articulat	-12.0823
▁behave	-12.0823
▁patern	-12.0823
▁Parma	-12.0823
▁Goe	-12.0823
▁denominat	-12.0823
▁uneas	-12.0823
pecul	-12.0823
▁falsification	-12.0823
▁Key	-12.0823
▁odd	-12.0823
▁dense	-12.0823
▁acid	-12.0823
▁overrid	-12.0823
▁contagio	-12.0823
icrocredit	-12.0823
▁Fishing	-12.0823
▁feast	-12.0823
6-045	-12.0823
▁coastline	-12.0823
▁boast	-12.0823
▁conspi	-12.0823
▁dismiss	-12.0823
▁humiliation	-12.0823
▁motherhood	-12.0823
▁degrad	-12.0823
▁delta	-12.0823
▁alien	-12.0823
▁fright	-12.0823
▁intimidation	-12.0823
▁Helmut	-12.0823
▁compil	-12.0823
▁lobbyists	-12.0823
▁Wild	-12.0824
▁refund	-12.0824
▁judiciary	-12.0824
▁democrats	-12.0824
▁expire	-12.0824
▁Bild	-12.0824
▁motivation	-12.0824
▁default	-12.0824
emper	-12.0824
▁Matte	-12.0824
▁cruelty	-12.0824
▁Farage	-12.0824
▁imprisonment	-12.0824
▁Islamists	-12.0824
tchet	-12.0824
▁formalities	-12.0824
▁neutralise	-12.0824
▁square	-12.0824
▁Burg	-12.0824
▁1984	-12.0824
▁luc	-12.0824
cular	-12.0824
▁homophobia	-12.0824
▁transnational	-12.0824
▁habitat	-12.0824
▁tree	-12.0824
▁treasures	-12.0824
▁vici	-12.0824
▁spiral	-12.0824
▁painful	-12.0824
▁decoupling	-12.0824
▁sceptical	-12.0824
tude	-12.0824
▁assistants	-12.0824
▁accent	-12.0824
▁speculators	-12.0824
▁Chile	-12.0824
▁CEO	-12.0824
▁Overall	-12.0825
▁distress	-12.0825
▁originators	-12.0825
furt	-12.0825
▁brake	-12.0825
▁infected	-12.0825
▁Lead	-12.0825
▁Order	-12.0825
▁Gross	-12.0825
▁restrain	-12.0825
▁bullet	-12.0825
▁Roure	-12.0825
uarte	-12.0826
▁mining	-12.0826
▁Admitt	-12.0826
▁leak	-12.0826
▁misled	-12.0826
odu	-12.0826
▁pertain	-12.0826
▁MPs	-12.0826
▁unambiguous	-12.0826
▁supersede	-12.0826
equest	-12.0826
▁frustration	-12.0826
▁cold	-12.0826
▁metals	-12.0826
▁pessimism	-12.0826
▁hunt	-12.0826
▁genocide	-12.0826
ulder	-12.0826
▁ETS	-12.0826
▁overturn	-12.0826
▁professor	-12.0826
▁Leone	-12.0827
▁brain	-12.0827
▁fool	-12.0827
▁Wallis	-12.0827
▁crew	-12.0827
egg	-12.0827
▁reasonabl	-12.0827
▁vag	-12.0827
▁functionality	-12.0827
▁mediator	-12.0827
▁Munic	-12.0828
▁plantations	-12.0828
▁download	-12.0828
▁Armenian	-12.0828
hood	-12.0828
lique	-12.0828
▁Kato	-12.0828
NDP	-12.0828
▁bug	-12.0828
CRS	-12.0829
straits	-12.0829
▁1950	-12.0829
▁extraction	-12.0829
ferential	-12.0829
▁prolong	-12.0829
▁ignorance	-12.0829
▁broker	-12.083
BE	-12.083
▁Rodr	-12.083
▁province	-12.083
▁Nazi	-12.083
▁Stra	-12.083
▁Dama	-12.083
▁pig	-12.083
▁flu	-12.0831
▁waterway	-12.0831
▁fragmentation	-12.0831
▁35%	-12.0831
▁culp	-12.0831
▁138	-12.0832
▁Christianity	-12.0832
▁illness	-12.0832
▁inevitably	-12.0832
▁expel	-12.0832
▁wit	-12.0832
FC	-12.0832
▁populism	-12.0832
▁38	-12.0832
▁Kov	-12.0833
▁Raj	-12.0833
redit	-12.0833
LV	-12.0833
▁34	-12.0833
ators	-12.0833
▁auto	-12.0834
▁restart	-12.0834
▁professionalism	-12.0834
▁homeland	-12.0834
▁23%	-12.0835
▁Depart	-12.0835
▁deter	-12.0835
▁ideological	-12.0836
▁streamlined	-12.0836
▁mud	-12.0836
▁subscribed	-12.0837
novel	-12.0837
▁240	-12.0837
▁Karl	-12.0837
CRAs	-12.0837
▁tw	-12.0839
EEC	-12.0839
▁deeds	-12.0839
▁57	-12.0839
▁preside	-12.0839
▁undu	-12.0839
▁outright	-12.084
▁21%	-12.084
▁quicker	-12.084
▁rad	-12.084
▁classes	-12.084
▁Often	-12.084
▁Moder	-12.0841
▁86	-12.0841
▁capability	-12.0841
▁lifetime	-12.0841
▁importers	-12.0842
▁weakest	-12.0842
▁enl	-12.0842
▁Four	-12.0842
awful	-12.0842
▁favourabl	-12.0842
▁14%	-12.0844
▁promoters	-12.0844
▁viewpoint	-12.0844
▁variations	-12.0845
▁Para	-12.0845
efence	-12.0845
▁predictable	-12.0845
▁doubtless	-12.0845
▁180	-12.0846
CIT	-12.0846
imar	-12.0846
▁bag	-12.0846
▁downward	-12.0847
▁deregulat	-12.0849
▁Hence	-12.0849
Pie	-12.0852
▁irregularity	-12.0852
IUU	-12.0853
▁Jia	-12.0854
▁dust	-12.0854
▁roa	-12.0855
▁mala	-12.0855
▁Nag	-12.0855
▁Syrian	-12.0855
▁tougher	-12.0856
suspicio	-12.0856
▁passion	-12.0857
▁dry	-12.0857
▁fairness	-12.0858
▁Add	-12.0859
▁Sub	-12.0861
▁advantageous	-12.0862
ika	-12.0863
genic	-12.0864
▁affordable	-12.0864
▁takeover	-12.0865
Lou	-12.0866
▁shameful	-12.087
▁trampl	-12.0872
▁hell	-12.0872
▁slower	-12.0873
coupling	-12.0873
▁Needle	-12.0874
▁Andor	-12.0876
▁star	-12.0877
▁corner	-12.0877
▁insure	-12.0879
▁dear	-12.0879
onym	-12.088
dorf	-12.088
uka	-12.0881
▁Bill	-12.0881
ngsters	-12.0883
▁Gro	-12.0885
▁facilitator	-12.0889
▁classifi	-12.0891
▁passes	-12.0893
TS	-12.0893
DP	-12.0896
▁Ven	-12.09
live	-12.0904
ondo	-12.0913
SF	-12.0914
▁liberalis	-12.0917
▁Lamb	-12.0918
▁Fau	-12.0922
gulf	-12.0941
astro	-12.0943
▁dia	-12.0953
continue	-12.0966
dragg	-12.0967
lad	-12.0967
▁rationalise	-12.0967
▁infectio	-12.0968
minated	-12.0971
▁2009-201	-12.0978
▁validat	-12.098
amara	-12.0981
OK	-12.0986
ppa	-12.0991
▁lu	-12.0994
▁lit	-12.0996
▁rectifi	-12.1
NO	-12.101
lean	-12.1025
▁spokesm	-12.1035
▁homosexual	-12.104
▁loser	-12.1046
poke	-12.1054
2.9	-12.1058
omething	-12.1079
▁unlock	-12.1082
white	-12.1084
▁defendant	-12.1114
loud	-12.115
▁reli	-12.1156
▁municipalit	-12.1166
▁criminalis	-12.1173
▁banner	-12.1176
▁Sali	-12.1177
2.5	-12.1216
raveller	-12.1243
hrill	-12.1243
▁reliev	-12.1261
talitarianism	-12.1279
▁persuad	-12.1288
▁equitabl	-12.13
▁swi	-12.1302
▁writer	-12.1323
still	-12.1395
▁Constructi	-12.1475
bul	-12.1506
7-020	-12.1516
ompetition	-12.1602
▁swa	-12.1612
ON	-12.1615
▁advanc	-12.1629
ola	-12.1644
GRE	-12.1651
▁assign	-12.1703
▁retai	-12.1761
▁cord	-12.1766
▁familiarise	-12.1849
caution	-12.1881
▁differentiat	-12.1916
145	-12.1924
create	-12.1981
▁Interi	-12.1981
usual	-12.202
▁equ	-12.2057
74	-12.2126
▁pack	-12.2141
vice	-12.2143
▁admitt	-12.2198
conception	-12.2227
▁respectful	-12.2229
Ka	-12.2274
▁mentalit	-12.2281
▁LDC	-12.2316
PR	-12.235
▁hostil	-12.2361
▁bubble	-12.2563
▁devalu	-12.2607
54	-12.2656
apped	-12.2661
▁coexist	-12.2692
▁Via	-12.2703
▁trip	-12.2722
▁troubl	-12.2725
▁stu	-12.2748
ague	-12.2765
poli	-12.2791
nik	-12.2856
diagnosed	-12.2863
via	-12.2955
▁urg	-12.3064
gone	-12.3115
▁justifiabl	-12.3157
▁elaborat	-12.3191
PAS	-12.3452
▁preceden	-12.3643
▁cooperat	-12.3789
▁reassess	-12.379
current	-12.3795
pensation	-12.3861
▁communicat	-12.3862
acket	-12.3986
designated	-12.4106
olster	-12.4133
▁raci	-12.4148
EG	-12.4221
▁cautio	-12.43
▁terr	-12.4328
▁interven	-12.4457
▁capitalis	-12.4505
venues	-12.4505
▁Matth	-12.4532
▁civilis	-12.4535
▁bridg	-12.4614
iev	-12.4754
7-02	-12.4783
struction	-12.4837
▁nomin	-12.4847
versa	-12.5016
wash	-12.504
quitable	-12.5089
▁persisten	-12.5151
cooperati	-12.5216
▁Montenegr	-12.5256
▁municipal	-12.5286
IMP	-12.5325
locking	-12.5383
rooms	-12.544
▁exclud	-12.5443
▁Authori	-12.5454
credits	-12.5503
▁quant	-12.5526
▁statistic	-12.5596
▁drag	-12.5599
▁terminat	-12.5601
▁optim	-12.5609
▁temp	-12.5616
cross	-12.5618
tolerable	-12.5625
ordinary	-12.5631
human	-12.5639
▁declar	-12.5646
▁Adv	-12.5648
changing	-12.5665
ddiction	-12.5665
ompanie	-12.567
▁fingerprint	-12.5673
▁cereal	-12.5673
▁applicant	-12.5677
▁Drug	-12.5678
dministrative	-12.5678
chiev	-12.568
▁concession	-12.5681
▁scientist	-12.5683
▁street	-12.5685
▁soldier	-12.5685
▁pattern	-12.5685
▁loan	-12.5686
▁stakeholder	-12.5687
▁appropriation	-12.5688
▁circumstance	-12.5689
▁consensu	-12.569
▁guideline	-12.569
▁embrac	-12.5691
equal	-12.5702
turn	-12.5703
emon	-12.5713
▁penal	-12.5715
▁Fla	-12.5717
▁approv	-12.5722
peak	-12.5727
▁decommission	-12.573
fficiency	-12.5733
▁alarm	-12.5734
nteroperability	-12.5738
markets	-12.575
▁observ	-12.5751
apons	-12.5751
comfort	-12.5753
throw	-12.5753
Peter	-12.5754
Casp	-12.5755
ground	-12.5756
Innovation	-12.5756
depth	-12.5757
authors	-12.5757
employment	-12.5757
certain	-12.5757
Inter	-12.5757
tongue	-12.5758
2001	-12.5758
continuation	-12.5758
functional	-12.5758
popular	-12.5758
locked	-12.5758
solve	-12.5758
engagement	-12.5759
2003	-12.5759
suspect	-12.5759
Mercosur	-12.5759
SIS	-12.5759
prescription	-12.5759
flow	-12.5759
design	-12.5759
fraud	-12.5759
abuses	-12.5759
EIB	-12.5759
Canada	-12.576
approve	-12.576
▁compensat	-12.576
track	-12.576
respecting	-12.576
stresses	-12.576
reliable	-12.576
defined	-12.576
block	-12.576
regulation	-12.576
Brazil	-12.576
financing	-12.576
group	-12.576
drug	-12.576
American	-12.5761
break	-12.5761
imposed	-12.5761
protected	-12.5761
ratification	-12.5761
critical	-12.5761
happy	-12.5761
confidence	-12.5761
Pakistan	-12.5761
criminal	-12.5761
commercial	-12.5761
expected	-12.5761
child	-12.5761
Schengen	-12.5761
secure	-12.5761
Roma	-12.5761
Internet	-12.5761
field	-12.5761
benefit	-12.5761
face	-12.5761
service	-12.5762
▁critic	-12.5762
poverty	-12.5762
package	-12.5762
invest	-12.5762
process	-12.5762
different	-12.5762
development	-12.5762
global	-12.5762
waste	-12.5762
spent	-12.5762
million	-12.5762
through	-12.5762
GDP	-12.5762
who	-12.5762
why	-12.5762
mentioned	-12.5762
production	-12.5763
▁enforc	-12.5764
needed	-12.5766
uspic	-12.5769
▁interconnect	-12.5775
▁imprison	-12.5776
▁ideolog	-12.5783
share	-12.5784
▁criticis	-12.5787
▁Natural	-12.5788
▁consequent	-12.5788
proportiona	-12.5791
▁societ	-12.5799
▁extremis	-12.5801
▁subscribe	-12.5801
▁horr	-12.5801
▁streamline	-12.5801
▁Draft	-12.5802
iscrimination	-12.5802
▁happ	-12.5802
▁entitle	-12.5803
▁sensitivit	-12.5803
▁enterpris	-12.5803
▁isolate	-12.5803
▁deprive	-12.5803
▁privatis	-12.5806
▁energ	-12.5807
▁horizon	-12.5807
▁populis	-12.5807
restricti	-12.5807
ogram	-12.5809
▁nonsens	-12.5809
▁atmospher	-12.5809
▁fragil	-12.5809
▁declin	-12.5809
▁unacceptabl	-12.581
pression	-12.581
▁opa	-12.5812
▁Sah	-12.5813
▁Exam	-12.5814
▁Armenia	-12.5814
▁transform	-12.5814
▁economi	-12.5815
eligious	-12.5815
▁bacteri	-12.5817
▁particula	-12.5817
ambiguous	-12.5817
▁concur	-12.5819
olitical	-12.5819
▁Kosov	-12.5819
▁adequa	-12.5819
ncreasing	-12.5819
▁Protect	-12.5819
▁interrupt	-12.5819
▁conserv	-12.582
▁redistribut	-12.582
▁locat	-12.582
▁provocati	-12.582
▁distinct	-12.582
▁Leban	-12.582
▁barbari	-12.582
▁emoti	-12.582
▁conclusi	-12.582
bitu	-12.582
ventions	-12.582
▁squa	-12.5821
▁rock	-12.5821
style	-12.5821
▁Develop	-12.5821
▁scann	-12.5821
▁procure	-12.5821
ecommendation	-12.5821
compromis	-12.5821
▁milita	-12.5821
▁bloc	-12.5821
▁opportun	-12.5821
▁Amend	-12.5821
isleading	-12.5821
fault	-12.5821
▁rival	-12.5821
ndanger	-12.5822
uidance	-12.5822
echnical	-12.5822
tinction	-12.5822
ncouraging	-12.5822
tatistical	-12.5822
6-04	-12.5822
pplause	-12.5822
implification	-12.5822
ompany	-12.5822
abotage	-12.5822
ongratulations	-12.5822
licens	-12.5822
onsensus	-12.5822
hibition	-12.5822
sequence	-12.5822
reparation	-12.5822
nterpretation	-12.5822
mportantly	-12.5822
nnovative	-12.5822
tarian	-12.5822
fficial	-12.5822
repa	-12.5822
▁marri	-12.5822
▁percent	-12.5822
▁Surve	-12.5822
physic	-12.5822
dropp	-12.5822
▁resettl	-12.5822
ntrepreneur	-12.5822
▁overlap	-12.5822
ecutive	-12.5822
ncreased	-12.5822
▁succ	-12.5822
littl	-12.5823
▁guarant	-12.5823
fluent	-12.5823
▁Sebast	-12.5823
▁Abdul	-12.5823
▁flavour	-12.5823
▁interlink	-12.5823
sanct	-12.5823
▁Compar	-12.5823
▁Guerre	-12.5823
▁Kema	-12.5823
▁Mauro	-12.5823
▁administer	-12.5823
▁chrysotile	-12.5823
▁fascinat	-12.5823
▁flourish	-12.5823
▁indulge	-12.5823
▁invalidat	-12.5823
▁necessitat	-12.5823
▁perplex	-12.5823
▁replenish	-12.5823
▁scrapp	-12.5823
▁tamper	-12.5823
▁ultra	-12.5823
▁whistle	-12.5823
20-20-20	-12.5823
6-001	-12.5823
6-01	-12.5823
7-03	-12.5823
Bissau	-12.5823
EADS	-12.5823
EAFRD	-12.5823
ISA	-12.5823
Kool	-12.5823
PSO	-12.5823
bakh	-12.5823
blower	-12.5823
extr	-12.5823
hovtis	-12.5823
iewicz	-12.5823
igilance	-12.5823
ihadi	-12.5823
mbudsm	-12.5823
orientated	-12.5823
pathy	-12.5823
permissible	-12.5823
substandard	-12.5823
surmountable	-12.5823
witz	-12.5823
ynthia	-12.5823
zdemir	-12.5823
▁(2008-2013)	-12.5823
▁2002-2006	-12.5823
▁Abbas	-12.5823
▁Acceptable	-12.5823
▁Adriatic	-12.5823
▁Almunia	-12.5823
▁Arnaoutakis	-12.5823
▁Artem	-12.5823
▁Atalanta	-12.5823
▁Athens	-12.5823
▁Balzani	-12.5823
▁Bangladesh	-12.5823
▁Bowis	-12.5823
▁Bowles	-12.5823
▁Busoi	-12.5823
▁CFSP	-12.5823
▁Callanan	-12.5823
▁Carinthia	-12.5823
▁Cashman	-12.5823
▁Chastel	-12.5823
▁Chechnya	-12.5823
▁Church	-12.5823
▁Competitiveness	-12.5823
▁Correia	-12.5823
▁Counter	-12.5823
▁Cristian	-12.5823
▁Curtain	-12.5823
▁Dahl	-12.5823
▁Davies	-12.5823
▁Deutsch	-12.5823
▁Dialogue	-12.5823
▁Diamandouros	-12.5823
▁Differen	-12.5823
▁Dolceta	-12.5823
▁Ethiopia	-12.5823
▁Eurovignette	-12.5823
▁FDLR	-12.5823
▁Fajon	-12.5823
▁Fatuzzo	-12.5823
▁Feio	-12.5823
▁Figueiredo	-12.5823
▁Flautre	-12.5823
▁Fukushima	-12.5823
▁Gahler	-12.5823
▁Giannakou	-12.5823
▁Giegold	-12.5823
▁Gollnisch	-12.5823
▁Hallstein	-12.5823
▁Heiligenkreuz	-12.5823
▁Herczog	-12.5823
▁Honduras	-12.5823
▁Hutchinson	-12.5823
▁Immediate	-12.5823
▁Indonesia	-12.5823
▁Jalili	-12.5823
▁Jarzembowski	-12.5823
▁Jensen	-12.5823
▁Jewish	-12.5823
▁Johannesburg	-12.5823
▁Jouyet	-12.5823
▁Karachi	-12.5823
▁Khartoum	-12.5823
▁Kirkhope	-12.5823
▁Kuneva	-12.5823
▁Language	-12.5823
▁Lehne	-12.5823
▁Lochbihler	-12.5823
▁Madlener	-12.5823
▁Mathieu	-12.5823
▁Meijer	-12.5823
▁Mladenov	-12.5823
▁Mochovce	-12.5823
▁Morillon	-12.5823
▁Morvai	-12.5823
▁Muscardini	-12.5823
▁Nistelrooij	-12.5823
▁Norwegian	-12.5823
▁Objective	-12.5823
▁Orlov	-12.5823
▁Ortega	-12.5823
▁PKK	-12.5823
▁Papandreou	-12.5823
▁Peloponnese	-12.5823
▁Posselt	-12.5823
▁Proposal	-12.5823
▁Purvis	-12.5823
▁Rabat	-12.5823
▁Reconciliation	-12.5823
▁Reggiani	-12.5823
▁Register	-12.5823
▁Representation	-12.5823
▁Rinaldi	-12.5823
▁SESAR	-12.5823
▁Science	-12.5823
▁Shipyards	-12.5823
▁Slovene	-12.5823
▁Tannock	-12.5823
▁Tbilisi	-12.5823
▁Thailand	-12.5823
▁Toubon	-12.5823
▁Trakatellis	-12.5823
▁Vietnam	-12.5823
▁Virrankoski	-12.5823
▁Volunteering	-12.5823
▁Vondra	-12.5823
▁Wurtz	-12.5823
▁activate	-12.5823
▁advertisement	-12.5823
▁aegis	-12.5823
▁aggravat	-12.5823
▁allegation	-12.5823
▁ambulance	-12.5823
▁analgesic	-12.5823
▁approximation	-12.5823
▁archive	-12.5823
▁assemblies	-12.5823
▁assimilat	-12.5823
▁backdrop	-12.5823
▁beautician	-12.5823
▁bilingual	-12.5823
▁bleak	-12.5823
▁blending	-12.5823
▁bloggers	-12.5823
▁bosses	-12.5823
▁broadcasters	-12.5823
▁brother	-12.5823
▁cadmium	-12.5823
▁candidacy	-12.5823
▁cinema	-12.5823
▁circle	-12.5823
▁cognitive	-12.5823
▁collateral	-12.5823
▁commander	-12.5823
▁commemorati	-12.5823
▁confess	-12.5823
▁conglomerate	-12.5823
▁congress	-12.5823
▁consolation	-12.5823
▁counteract	-12.5823
▁credentials	-12.5823
▁cruise	-12.5823
▁cucumbers	-12.5823
▁dawn	-12.5823
▁deducted	-12.5823
▁defeat	-12.5823
▁density	-12.5823
▁deteriorated	-12.5823
▁diabetes	-12.5823
▁directorates	-12.5823
▁disband	-12.5823
▁discretion	-12.5823
▁disrespect	-12.5823
▁dissatisf	-12.5823
▁dissociate	-12.5823
▁district	-12.5823
▁elevate	-12.5823
▁emancipati	-12.5823
▁empir	-12.5823
▁enthusiasm	-12.5823
▁enthusiastic	-12.5823
▁entrenched	-12.5823
▁eruption	-12.5823
▁expectancy	-12.5823
▁fantas	-12.5823
▁feedingstuffs	-12.5823
▁filter	-12.5823
▁flash	-12.5823
q	-14.3786
