<pad>	0
</s>	0
<unk>	0
▁¦	-0
▁𐋇	-1
th	-2
in	-3
the	-4
re	-5
on	-6
an	-7
at	-8
en	-9
▁.	-10
er	-11
or	-12
▁,	-13
is	-14
ed	-15
al	-16
as	-17
es	-18
to	-19
of	-20
ar	-21
ing	-22
it	-23
ou	-24
ion	-25
and	-26
ent	-27
ac	-28
ic	-29
st	-30
il	-31
be	-32
ro	-33
ve	-34
id	-35
co	-36
le	-37
se	-38
ch	-39
for	-40
ad	-41
tr	-42
ct	-43
ation	-44
me	-45
ir	-46
are	-47
lo	-48
▁𐊣	-49
ho	-50
cor	-51
ay	-52
he	-53
ver	-54
no	-55
ly	-56
de	-57
we	-58
un	-59
so	-60
us	-61
fe	-62
ha	-63
con	-64
vac	-65
coron	-66
ter	-67
mp	-68
ill	-69
ur	-70
ment	-71
sp	-72
cin	-73
vaccin	-74
corona	-75
has	-76
di	-77
ate	-78
ce	-79
that	-80
su	-81
▁'	-82
ag	-83
ld	-84
do	-85
ab	-86
ut	-87
wi	-88
pe	-89
um	-90
have	-91
ati	-92
with	-93
pro	-94
ig	-95
oun	-96
ap	-97
est	-98
ak	-99
go	-100
sa	-101
0¦	-102
ers	-103
wh	-104
ne	-105
▁¦1	-106
was	-107
op	-108
dis	-109
vid	-110
this	-111
vir	-112
rom	-113
will	-114
ents	-115
mo	-116
from	-117
am	-118
▁¦2	-119
not	-120
fect	-121
pati	-122
po	-123
im	-124
te	-125
sh	-126
ain	-127
out	-128
by	-129
et	-130
ther	-131
ex	-132
ant	-133
ul	-134
res	-135
min	-136
ort	-137
ies	-138
patients	-139
umb	-140
ity	-141
been	-142
per	-143
wor	-144
vaccine	-145
act	-146
if	-147
gen	-148
▁"	-149
af	-150
med	-151
alth	-152
iv	-153
virus	-154
day	-155
vern	-156
our	-157
cent	-158
govern	-159
all	-160
9¦	-161
du	-162
government	-163
ive	-164
ess	-165
ial	-166
dr	-167
cl	-168
minis	-169
said	-170
there	-171
covid	-172
ople	-173
people	-174
health	-175
qu	-176
har	-177
ould	-178
ions	-179
ol	-180
art	-181
any	-182
also	-183
state	-184
▁(	-185
pr	-186
wn	-187
ding	-188
one	-189
ase	-190
infect	-191
ical	-192
ital	-193
igh	-194
ated	-195
▁)	-196
em	-197
but	-198
ef	-199
str	-200
cre	-201
ict	-202
com	-203
ren	-204
pl	-205
can	-206
tra	-207
numb	-208
test	-209
ma	-210
cont	-211
ck	-212
av	-213
other	-214
were	-215
iz	-216
▁?	-217
coun	-218
od	-219
ts	-220
19¦	-221
ca	-222
number	-223
hosp	-224
sy	-225
li	-226
hospital	-227
ary	-228
indi	-229
red	-230
sit	-231
after	-232
work	-233
-19¦	-234
who	-235
der	-236
minister	-237
ash	-238
ll	-239
ud	-240
pre	-241
ox	-242
ous	-243
imp	-244
had	-245
countr	-246
gh	-247
age	-248
low	-249
ast	-250
ke	-251
should	-252
ime	-253
ath	-254
ear	-255
comp	-256
down	-257
ack	-258
tak	-259
ge	-260
port	-261
mar	-262
ough	-263
▁¦20	-264
5¦	-265
end	-266
you	-267
ound	-268
use	-269
ail	-270
ib	-271
oxy	-272
oxygen	-273
some	-274
comm	-275
lock	-276
ms	-277
ser	-278
able	-279
hand	-280
sed	-281
ans	-282
lic	-283
mahar	-284
fic	-285
2¦	-286
ine	-287
new	-288
ator	-289
ashtra	-290
cond	-291
maharashtra	-292
cr	-293
india	-294
▁:	-295
more	-296
these	-297
ip	-298
incre	-299
ra	-300
than	-301
pres	-302
dise	-303
about	-304
very	-305
many	-306
▁¦3	-307
ctor	-308
distr	-309
lockdown	-310
vaccination	-311
wo	-312
say	-313
ance	-314
read	-315
00¦	-316
ide	-317
4¦	-318
ask	-319
fo	-320
up	-321
ist	-322
fir	-323
may	-324
they	-325
time	-326
ai	-327
ild	-328
ates	-329
ard	-330
ased	-331
reat	-332
their	-333
year	-334
ile	-335
spe	-336
part	-337
ia	-338
disease	-339
ases	-340
ach	-341
cur	-342
clo	-343
form	-344
infection	-345
gr	-346
ub	-347
reg	-348
under	-349
ight	-350
district	-351
vaccines	-352
what	-353
ced	-354
get	-355
ars	-356
how	-357
vel	-358
man	-359
now	-360
report	-361
sion	-362
being	-363
ong	-364
sch	-365
ev	-366
days	-367
cording	-368
ations	-369
high	-370
une	-371
according	-372
resp	-373
ace	-374
country	-375
ich	-376
1¦	-377
bo	-378
ious	-379
br	-380
ep	-381
mpto	-382
ens	-383
ction	-384
ann	-385
mon	-386
rent	-387
ass	-388
which	-389
need	-390
pp	-391
care	-392
vent	-393
ris	-394
cial	-395
8¦	-396
incl	-397
child	-398
while	-399
first	-400
treat	-401
whe	-402
▁¦202	-403
mis	-404
last	-405
ure	-406
ave	-407
ence	-408
cted	-409
aw	-410
iven	-411
bre	-412
ted	-413
two	-414
used	-415
second	-416
ss	-417
lop	-418
effect	-419
ang	-420
over	-421
again	-422
sur	-423
uring	-424
offic	-425
chi	-426
fore	-427
found	-428
world	-429
such	-430
spread	-431
sympto	-432
when	-433
ign	-434
its	-435
pub	-436
velop	-437
ool	-438
like	-439
due	-440
vi	-441
ug	-442
only	-443
develop	-444
sars	-445
strict	-446
march	-447
ministr	-448
7¦	-449
cy	-450
cases	-451
ty	-452
stud	-453
school	-454
pers	-455
ci	-456
ade	-457
uation	-458
chin	-459
symptoms	-460
rel	-461
says	-462
▁%	-463
come	-464
mumb	-465
start	-466
mumbai	-467
ition	-468
log	-469
children	-470
chief	-471
given	-472
ities	-473
death	-474
during	-475
▁-	-476
gan	-477
▁¦5	-478
medical	-479
person	-480
dif	-481
6¦	-482
▁¦4	-483
cess	-484
howe	-485
however	-486
doctor	-487
col	-488
ish	-489
avail	-490
treatment	-491
coronavirus	-492
cro	-493
inclu	-494
atory	-495
produ	-496
inter	-497
apr	-498
▁¦2020¦	-499
april	-500
states	-501
dec	-502
esh	-503
home	-504
tal	-505
situation	-506
mun	-507
stem	-508
hy	-509
mb	-510
fl	-511
every	-512
wave	-513
public	-514
sto	-515
center	-516
3¦	-517
ice	-518
ose	-519
system	-520
ree	-521
even	-522
uary	-523
infected	-524
je	-525
contro	-526
countries	-527
ek	-528
your	-529
bed	-530
ting	-531
bet	-532
posit	-533
available	-534
han	-535
itiz	-536
against	-537
fin	-538
uk	-539
serv	-540
most	-541
om	-542
drug	-543
peri	-544
risk	-545
break	-546
ied	-547
,0	-548
io	-549
ating	-550
ational	-551
mand	-552
fr	-553
cal	-554
mask	-555
those	-556
inform	-557
restrict	-558
hav	-559
announ	-560
cle	-561
take	-562
his	-563
ute	-564
add	-565
eng	-566
provid	-567
week	-568
thr	-569
inst	-570
ident	-571
ited	-572
organ	-573
icip	-574
pune	-575
pur	-576
import	-577
hospitals	-578
sul	-579
current	-580
ivir	-581
through	-582
ses	-583
ures	-584
gu	-585
rs	-586
del	-587
wash	-588
appro	-589
centr	-590
vaccinated	-591
main	-592
taken	-593
respon	-594
hum	-595
lar	-596
▁."	-597
them	-598
arr	-599
colle	-600
where	-601
ual	-602
aren	-603
ning	-604
sing	-605
acker	-606
restrictions	-607
ody	-608
made	-609
requ	-610
information	-611
cause	-612
few	-613
issu	-614
ackeray	-615
thackeray	-616
prote	-617
reported	-618
ok	-619
ved	-620
,000¦	-621
par	-622
kar	-623
emic	-624
cer	-625
les	-626
▁¦1¦	-627
air	-628
lin	-629
central	-630
ire	-631
ult	-632
way	-633
▁¦6	-634
ater	-635
clin	-636
fact	-637
ible	-638
well	-639
var	-640
sure	-641
uc	-642
outbreak	-643
akh	-644
ility	-645
beds	-646
dire	-647
mu	-648
ural	-649
▁;	-650
china	-651
contact	-652
mission	-653
prevent	-654
workers	-655
vis	-656
administr	-657
hi	-658
arch	-659
fol	-660
mber	-661
trans	-662
des	-663
pt	-664
eral	-665
side	-666
ata	-667
att	-668
polic	-669
control	-670
ces	-671
follow	-672
search	-673
national	-674
na	-675
would	-676
doctors	-677
short	-678
patient	-679
ko	-680
set	-681
ific	-682
lakh	-683
sup	-684
then	-685
ative	-686
ob	-687
ps	-688
mak	-689
▁¦7	-690
ices	-691
including	-692
sho	-693
fac	-694
meet	-695
level	-696
important	-697
hel	-698
call	-699
ful	-700
areas	-701
announced	-702
oc	-703
exam	-704
ials	-705
month	-706
testing	-707
la	-708
-2¦	-709
asing	-710
icipal	-711
municipal	-712
raj	-713
remed	-714
did	-715
city	-716
au	-717
redu	-718
men	-719
present	-720
mit	-721
allow	-722
started	-723
ten	-724
ves	-725
educ	-726
travel	-727
citiz	-728
resul	-729
research	-730
increased	-731
died	-732
tests	-733
affect	-734
administration	-735
jan	-736
surve	-737
effective	-738
▁).	-739
emer	-740
diffe	-741
▁¦9	-742
lead	-743
poss	-744
hour	-745
supp	-746
instit	-747
less	-748
same	-749
closed	-750
ue	-751
years	-752
demand	-753
don	-754
ctions	-755
int	-756
body	-757
large	-758
ential	-759
▁¦8	-760
respir	-761
far	-762
amil	-763
going	-764
citizens	-765
organiz	-766
positive	-767
cus	-768
students	-769
udd	-770
data	-771
mill	-772
based	-773
decis	-774
supply	-775
ason	-776
hands	-777
increasing	-778
ble	-779
case	-780
does	-781
pand	-782
rap	-783
ween	-784
before	-785
quest	-786
between	-787
increase	-788
sin	-789
meeting	-790
lim	-791
rate	-792
flu	-793
iver	-794
nag	-795
rul	-796
camp	-797
quar	-798
ying	-799
ments	-800
gro	-801
dies	-802
tech	-803
modi	-804
priv	-805
three	-806
depart	-807
dro	-808
cing	-809
logy	-810
▁¦2¦	-811
around	-812
contin	-813
thing	-814
▁¦10¦	-815
washing	-816
bc	-817
ior	-818
deaths	-819
uddhav	-820
ust	-821
▁),	-822
ared	-823
soci	-824
social	-825
comple	-826
meas	-827
education	-828
app	-829
dra	-830
sol	-831
into	-832
samp	-833
could	-834
ages	-835
crit	-836
dist	-837
crore	-838
respiratory	-839
ank	-840
lit	-841
ized	-842
delhi	-843
thous	-844
thousand	-845
ick	-846
ics	-847
ird	-848
lab	-849
iate	-850
safe	-851
vere	-852
ness	-853
eld	-854
ress	-855
ended	-856
speak	-857
bio	-858
val	-859
help	-860
ering	-861
famil	-862
severe	-863
gest	-864
schools	-865
san	-866
mark	-867
since	-868
period	-869
emergen	-870
private	-871
line	-872
pass	-873
human	-874
inv	-875
dose	-876
rece	-877
bbc	-878
dep	-879
antib	-880
exper	-881
decision	-882
el	-883
local	-884
my	-885
cap	-886
ian	-887
sen	-888
aign	-889
prime	-890
addition	-891
campaign	-892
doses	-893
using	-894
quarant	-895
without	-896
open	-897
january	-898
bal	-899
sub	-900
spec	-901
mat	-902
ventil	-903
million	-904
currently	-905
different	-906
cell	-907
ists	-908
reco	-909
rules	-910
recomm	-911
ik	-912
hal	-913
grou	-914
long	-915
tain	-916
commun	-917
working	-918
war	-919
hours	-920
mal	-921
today	-922
por	-923
cour	-924
plac	-925
ew	-926
tested	-927
ind	-928
ric	-929
speaking	-930
fun	-931
kno	-932
why	-933
make	-934
phas	-935
medic	-936
police	-937
possible	-938
department	-939
emp	-940
oid	-941
allowed	-942
institute	-943
wal	-944
▁¦5¦	-945
percent	-946
ven	-947
appe	-948
lish	-949
stru	-950
united	-951
rapid	-952
she	-953
tur	-954
view	-955
imple	-956
univer	-957
company	-958
clinical	-959
ger	-960
back	-961
came	-962
cons	-963
action	-964
called	-965
general	-966
both	-967
pected	-968
whether	-969
blo	-970
post	-971
ular	-972
because	-973
emergency	-974
pop	-975
face	-976
ators	-977
known	-978
ele	-979
four	-980
▁¦3¦	-981
ulation	-982
aff	-983
ors	-984
febr	-985
sever	-986
mitted	-987
february	-988
ject	-989
reason	-990
grow	-991
lack	-992
mers	-993
reach	-994
regis	-995
impo	-996
ministry	-997
therefore	-998
aj	-999
led	-1000
area	-1001
ality	-1002
study	-1003
union	-1004
discus	-1005
experts	-1006
measures	-1007
let	-1008
show	-1009
blood	-1010
ically	-1011
xt	-1012
sal	-1013
rest	-1014
temp	-1015
organization	-1016
sci	-1017
mediate	-1018
affected	-1019
shortage	-1020
ix	-1021
aim	-1022
ext	-1023
sus	-1024
ield	-1025
among	-1026
ired	-1027
vill	-1028
pandemic	-1029
developed	-1030
ned	-1031
tar	-1032
phase	-1033
rural	-1034
sel	-1035
total	-1036
acro	-1037
▁¦4¦	-1038
chang	-1039
masks	-1040
happ	-1041
lear	-1042
avoid	-1043
market	-1044
glo	-1045
still	-1046
third	-1047
ination	-1048
jo	-1049
ission	-1050
centers	-1051
liv	-1052
held	-1053
rele	-1054
across	-1055
contain	-1056
illance	-1057
commission	-1058
production	-1059
surveillance	-1060
inc	-1061
tim	-1062
isol	-1063
king	-1064
seen	-1065
thor	-1066
ward	-1067
sport	-1068
places	-1069
here	-1070
indu	-1071
stat	-1072
place	-1073
corpor	-1074
another	-1075
transmission	-1076
ite	-1077
ange	-1078
heart	-1079
order	-1080
▁¦15¦	-1081
cov	-1082
sis	-1083
epid	-1084
force	-1085
stand	-1086
taking	-1087
him	-1088
mall	-1089
wide	-1090
itions	-1091
eu	-1092
econ	-1093
much	-1094
experi	-1095
months	-1096
bu	-1097
ene	-1098
fur	-1099
hou	-1100
loy	-1101
done	-1102
keep	-1103
asked	-1104
pract	-1105
coming	-1106
question	-1107
mean	-1108
outh	-1109
condu	-1110
▁¦20¦	-1111
econom	-1112
cris	-1113
sent	-1114
train	-1115
proble	-1116
rajesh	-1117
process	-1118
samples	-1119
fer	-1120
kovid	-1121
provide	-1122
services	-1123
essential	-1124
sim	-1125
ung	-1126
five	-1127
family	-1128
include	-1129
fire	-1130
soap	-1131
serum	-1132
implement	-1133
enz	-1134
old	-1135
crow	-1136
stay	-1137
tran	-1138
ants	-1139
itor	-1140
fever	-1141
house	-1142
▁¦50¦	-1143
formed	-1144
further	-1145
next	-1146
response	-1147
population	-1148
hc	-1149
sat	-1150
ived	-1151
know	-1152
▁¦7¦	-1153
▁¦30¦	-1154
diffic	-1155
nagpur	-1156
corporation	-1157
pm	-1158
bat	-1159
ise	-1160
head	-1161
till	-1162
lying	-1163
water	-1164
confir	-1165
higher	-1166
ese	-1167
imal	-1168
oper	-1169
sign	-1170
likely	-1171
ax	-1172
ga	-1173
ally	-1174
ilar	-1175
group	-1176
▁¦19¦	-1177
related	-1178
serious	-1179
mor	-1180
sity	-1181
▁¦10	-1182
vacin	-1183
▁¦24¦	-1184
associ	-1185
atives	-1186
imposed	-1187
similar	-1188
approved	-1189
polit	-1190
concer	-1191
global	-1192
issued	-1193
conditions	-1194
vs	-1195
tope	-1196
times	-1197
tract	-1198
chinese	-1199
passeng	-1200
support	-1201
gy	-1202
amp	-1203
mut	-1204
pat	-1205
aring	-1206
early	-1207
ability	-1208
several	-1209
complete	-1210
president	-1211
sw	-1212
run	-1213
half	-1214
manu	-1215
sequ	-1216
fight	-1217
labor	-1218
remain	-1219
manufact	-1220
immediate	-1221
development	-1222
big	-1223
son	-1224
good	-1225
init	-1226
class	-1227
crowd	-1228
ified	-1229
small	-1230
women	-1231
crisis	-1232
indian	-1233
become	-1234
university	-1235
jay	-1236
non	-1237
tou	-1238
vari	-1239
direct	-1240
strain	-1241
trials	-1242
although	-1243
tion	-1244
told	-1245
ready	-1246
tered	-1247
coronary	-1248
quarantine	-1249
her	-1250
yet	-1251
prad	-1252
marath	-1253
proper	-1254
various	-1255
infections	-1256
che	-1257
want	-1258
lines	-1259
paren	-1260
staff	-1261
animal	-1262
maj	-1263
land	-1264
▁¦6¦	-1265
secre	-1266
six	-1267
ibut	-1268
inje	-1269
lung	-1270
facil	-1271
night	-1272
rapidly	-1273
admitted	-1274
distance	-1275
gn	-1276
hu	-1277
beg	-1278
ory	-1279
suf	-1280
ders	-1281
each	-1282
least	-1283
touch	-1284
ution	-1285
compan	-1286
industr	-1287
protect	-1288
transport	-1289
rt	-1290
see	-1291
sug	-1292
free	-1293
ised	-1294
continue	-1295
everyone	-1296
leg	-1297
esivir	-1298
scient	-1299
condition	-1300
ot	-1301
hol	-1302
bhar	-1303
media	-1304
sures	-1305
author	-1306
necess	-1307
epidemic	-1308
ins	-1309
nor	-1310
rav	-1311
wad	-1312
cept	-1313
ided	-1314
just	-1315
self	-1316
youn	-1317
iting	-1318
major	-1319
▁¦14¦	-1320
within	-1321
confirmed	-1322
stu	-1323
ends	-1324
fort	-1325
task	-1326
claim	-1327
consid	-1328
safety	-1329
getting	-1330
ls	-1331
wu	-1332
den	-1333
pan	-1334
pcr	-1335
gram	-1336
host	-1337
plic	-1338
wuhan	-1339
office	-1340
reduce	-1341
closures	-1342
dev	-1343
imm	-1344
activ	-1345
board	-1346
community	-1347
nal	-1348
biotech	-1349
parents	-1350
remedesivir	-1351
wr	-1352
chall	-1353
cough	-1354
shops	-1355
weeks	-1356
result	-1357
gi	-1358
bus	-1359
guide	-1360
ought	-1361
plann	-1362
▁!	-1363
neg	-1364
dece	-1365
pain	-1366
▁¦12	-1367
active	-1368
caused	-1369
employ	-1370
immune	-1371
ibility	-1372
pradesh	-1373
passengers	-1374
til	-1375
aily	-1376
cold	-1377
june	-1378
clear	-1379
daily	-1380
instru	-1381
lished	-1382
¦	-1383
▁	-1384
e	-1385
t	-1386
a	-1387
i	-1388
o	-1389
n	-1390
s	-1391
r	-1392
h	-1393
d	-1394
c	-1395
l	-1396
𐋇	-1397
u	-1398
m	-1399
p	-1400
f	-1401
g	-1402
v	-1403
y	-1404
w	-1405
b	-1406
.	-1407
,	-1408
k	-1409
0	-1410
-	-1411
𐊣	-1412
𐊼	-1413
1	-1414
2	-1415
x	-1416
'	-1417
j	-1418
9	-1419
"	-1420
z	-1421
5	-1422
q	-1423
4	-1424
3	-1425
)	-1426
(	-1427
?	-1428
8	-1429
6	-1430
7	-1431
:	-1432
%	-1433
;	-1434
/	-1435
!	-1436
’	-1437
”	-1438
“	-1439
–	-1440
[	-1441
]	-1442
&	-1443
$	-1444
#	-1445
—	-1446
‘	-1447
•	-1448
≥	-1449
+	-1450
°	-1451
*	-1452
ा	-1453
_	-1454
×	-1455
武	-1456
肺	-1457
~	-1458
á	-1459
í	-1460
α	-1461
β	-1462
स	-1463
े	-1464
्	-1465
=	-1466
ò	-1467
ü	-1468
č	-1469
ş	-1470
γ	-1471
ं	-1472
क	-1473
ब	-1474
र	-1475
汉	-1476
漢	-1477
炎	-1478
£	-1479
å	-1480
é	-1481
ó	-1482
ई	-1483
ओ	-1484
च	-1485
त	-1486
द	-1487
प	-1488
ल	-1489
ळ	-1490
व	-1491
श	-1492
ो	-1493
′	-1494
火	-1495
眼	-1496
