<pad>	0
</s>	0
<unk>	0
▁¦	-0
in	-1
an	-2
en	-3
ta	-4
si	-5
ka	-6
ja	-7
ll	-8
än	-9
is	-10
tä	-11
va	-12
et	-13
▁s	-14
▁𐋇	-15
▁h	-16
▁k	-17
▁m	-18
on	-19
sa	-20
un	-21
ei	-22
▁,	-23
▁p	-24
▁ja	-25
el	-26
ol	-27
ut	-28
▁t	-29
lle	-30
oi	-31
er	-32
ma	-33
ra	-34
es	-35
jo	-36
la	-37
▁n	-38
▁J	-39
ti	-40
vat	-41
ik	-42
▁hän	-43
as	-44
tu	-45
inä	-46
ki	-47
▁v	-48
ko	-49
uu	-50
iin	-51
ät	-52
▁ol	-53
▁ka	-54
it	-55
sä	-56
aa	-57
te	-58
▁.	-59
se	-60
llä	-61
ää	-62
▁va	-63
▁H	-64
▁jo	-65
ku	-66
mm	-67
▁si	-68
▁l	-69
sta	-70
inun	-71
hän	-72
uo	-73
▁on	-74
ksi	-75
utta	-76
lla	-77
▁"	-78
eid	-79
yt	-80
ul	-81
uh	-82
ke	-83
erra	-84
kä	-85
▁o	-86
▁S	-87
sen	-88
ne	-89
isi	-90
▁san	-91
ansa	-92
al	-93
uma	-94
ten	-95
mi	-96
▁Ja	-97
vi	-98
at	-99
vät	-100
eidän	-101
▁te	-102
▁j	-103
▁M	-104
hd	-105
san	-106
ista	-107
ri	-108
inu	-109
▁a	-110
to	-111
us	-112
että	-113
▁oli	-114
uk	-115
ih	-116
kaa	-117
il	-118
oo	-119
▁ta	-120
ty	-121
ot	-122
▁kun	-123
im	-124
kun	-125
eli	-126
mä	-127
▁minä	-128
een	-129
mme	-130
itä	-131
pa	-132
▁Herra	-133
ssa	-134
ran	-135
▁se	-136
▁niin	-137
▁kaik	-138
▁he	-139
▁hänen	-140
▁ei	-141
ur	-142
kö	-143
▁y	-144
elle	-145
tan	-146
▁ko	-147
äl	-148
▁pa	-149
taa	-150
iv	-151
yn	-152
kaan	-153
▁ku	-154
kin	-155
▁:	-156
▁tä	-157
yö	-158
▁K	-159
umala	-160
▁tul	-161
he	-162
inen	-163
aan	-164
▁joka	-165
kuin	-166
ed	-167
pp	-168
tka	-169
le	-170
li	-171
äh	-172
oit	-173
oli	-174
den	-175
eille	-176
erran	-177
▁N	-178
eh	-179
▁kä	-180
▁sen	-181
maan	-182
niin	-183
eet	-184
so	-185
oin	-186
elin	-187
pä	-188
iset	-189
▁la	-190
ky	-191
▁sanoi	-192
▁A	-193
▁että	-194
eni	-195
▁r	-196
▁;	-197
minä	-198
elä	-199
▁vi	-200
koon	-201
vä	-202
ksen	-203
▁an	-204
▁minun	-205
asta	-206
▁sinun	-207
kan	-208
▁mi	-209
kaik	-210
▁nä	-211
nä	-212
▁as	-213
jan	-214
ole	-215
▁Si	-216
isen	-217
▁kaikki	-218
▁ole	-219
ha	-220
▁E	-221
▁kunin	-222
kää	-223
esi	-224
herra	-225
istä	-226
män	-227
▁kan	-228
essä	-229
lan	-230
istu	-231
▁I	-232
▁Mutta	-233
▁ra	-234
▁pä	-235
ui	-236
▁po	-237
inua	-238
yh	-239
inulle	-240
▁sa	-241
hden	-242
▁et	-243
alv	-244
ee	-245
▁ki	-246
elj	-247
eitä	-248
▁en	-249
nyt	-250
tta	-251
essa	-252
pun	-253
hänen	-254
van	-255
▁jotka	-256
ys	-257
min	-258
uud	-259
lta	-260
ar	-261
ensä	-262
▁vasta	-263
kse	-264
änsä	-265
▁sinä	-266
ille	-267
itse	-268
os	-269
▁Jumala	-270
▁sillä	-271
umalan	-272
mutta	-273
".	-274
isten	-275
tanut	-276
eit	-277
▁heidän	-278
taan	-279
ään	-280
yd	-281
ellä	-282
han	-283
▁kuu	-284
eidät	-285
joka	-286
▁Herran	-287
ni	-288
mmen	-289
issa	-290
▁puh	-291
mu	-292
estä	-293
▁pää	-294
▁läh	-295
▁`	-296
▁Is	-297
assa	-298
▁ovat	-299
▁ne	-300
▁poi	-301
man	-302
▁Niin	-303
▁to	-304
▁saa	-305
upun	-306
▁ni	-307
sillä	-308
▁päiv	-309
ska	-310
ken	-311
stä	-312
änä	-313
llut	-314
po	-315
rin	-316
gas	-317
lloin	-318
▁kuin	-319
pu	-320
tiin	-321
na	-322
raelin	-323
iva	-324
iksi	-325
esta	-326
toi	-327
ud	-328
▁-	-329
ön	-330
▁mutta	-331
."	-332
ensa	-333
onka	-334
pi	-335
pää	-336
maa	-337
tin	-338
ette	-339
alveli	-340
▁is	-341
▁mitä	-342
ks	-343
re	-344
minun	-345
mat	-346
kymmen	-347
▁maa	-348
▁ti	-349
sinun	-350
tän	-351
ihm	-352
▁tuli	-353
sanoi	-354
inut	-355
lä	-356
▁T	-357
kka	-358
ees	-359
▁olen	-360
▁vuo	-361
pe	-362
rj	-363
aavi	-364
aavid	-365
▁ma	-366
kaikki	-367
▁niinkuin	-368
me	-369
yl	-370
▁van	-371
▁mu	-372
▁ha	-373
▁hänelle	-374
tun	-375
jat	-376
▁syn	-377
ura	-378
▁P	-379
yös	-380
kunin	-381
ettu	-382
issä	-383
▁su	-384
▁B	-385
men	-386
uksen	-387
▁Sillä	-388
jen	-389
tel	-390
eru	-391
▁sano	-392
ab	-393
etta	-394
jumala	-395
▁D	-396
▁olivat	-397
sinä	-398
kuu	-399
tso	-400
▁kansa	-401
su	-402
mo	-403
▁suu	-404
▁il	-405
ro	-406
ina	-407
▁Jumalan	-408
▁teidän	-409
kansa	-410
ise	-411
mmä	-412
yttä	-413
▁hänet	-414
▁vastaan	-415
▁ed	-416
laiset	-417
etä	-418
vasta	-419
sivat	-420
tähden	-421
▁	-422
a	-423
¦	-424
i	-425
n	-426
e	-427
t	-428
s	-429
l	-430
ä	-431
k	-432
u	-433
o	-434
m	-435
h	-436
j	-437
v	-438
r	-439
,	-440
p	-441
y	-442
.	-443
d	-444
𐋇	-445
J	-446
"	-447
ö	-448
:	-449
H	-450
;	-451
S	-452
b	-453
M	-454
g	-455
K	-456
N	-457
?	-458
f	-459
A	-460
E	-461
`	-462
-	-463
I	-464
T	-465
P	-466
!	-467
B	-468
D	-469
V	-470
O	-471
G	-472
R	-473
L	-474
Ä	-475
U	-476
Y	-477
1	-478
[	-479
]	-480
F	-481
3	-482
2	-483
4	-484
9	-485
0	-486
5	-487
(	-488
)	-489
8	-490
6	-491
7	-492
Ö	-493
Z	-494
/	-495
z	-496
