<pad>	0
</s>	0
<unk>	0
▁¦	-0
an	-1
ma	-2
ch	-3
▁y	-4
in	-5
aj	-6
is	-7
▁t	-8
al	-9
naj	-10
▁𐋇	-11
▁h	-12
et	-13
eb	-14
mam	-15
il	-16
co	-17
un	-18
ca	-19
▁ch	-20
▁is	-21
to	-22
ay	-23
ul	-24
▁C	-25
ˈ¦	-26
ni	-27
▁Co	-28
▁Comam	-29
▁̈	-30
ebnaj	-31
xin	-32
ah	-33
▁,	-34
▁naj	-35
ey	-36
ab	-37
el	-38
ax	-39
at	-40
▁ma	-41
tz	-42
▁tu	-43
▁yin	-44
caw	-45
▁ebnaj	-46
anma	-47
ti	-48
▁hun	-49
▁chi	-50
oj	-51
▁ha	-52
▁.	-53
comam	-54
▁yu	-55
can	-56
io	-57
ios	-58
ak	-59
chi	-60
en	-61
▁xin	-62
wal	-63
▁tz	-64
aw	-65
tu	-66
▁yul	-67
▁caw	-68
te	-69
yu	-70
▁ay	-71
▁s	-72
▁Y	-73
tx	-74
ha	-75
ta	-76
yin	-77
pax	-78
▁ti	-79
es	-80
hun	-81
ix	-82
▁D	-83
ex	-84
▁hune	-85
alni	-86
▁Dios	-87
ẍi	-88
▁anma	-89
▁H	-90
▁yeb	-91
▁tet	-92
xa	-93
ˈ,	-94
ol	-95
on	-96
▁co	-97
wi	-98
unil	-99
ban	-100
ic	-101
▁b	-102
han	-103
▁tzet	-104
▁w	-105
▁ta	-106
▁J	-107
no	-108
▁―	-109
▁j	-110
▁mach	-111
ej	-112
taj	-113
paxo	-114
▁yet	-115
▁ca	-116
oc	-117
bal	-118
▁isc	-119
▁ẍi	-120
ap	-121
yul	-122
ba	-123
oh	-124
ico	-125
▁yi	-126
▁c	-127
▁I	-128
am	-129
cano	-130
ec	-131
atx	-132
dios	-133
yi	-134
hune	-135
▁haca	-136
ilo	-137
tzet	-138
ob	-139
▁sat	-140
ahan	-141
▁Is	-142
tek	-143
▁x	-144
om	-145
▁mac	-146
isto	-147
tet	-148
▁Jes	-149
inal	-150
yeb	-151
▁hey	-152
watx	-153
▁ix	-154
uy	-155
man	-156
ˈ.	-157
eh	-158
jan	-159
aja	-160
isc	-161
mach	-162
▁Ha	-163
yet	-164
▁l	-165
risto	-166
tan	-167
lax	-168
uc	-169
ojan	-170
▁sunil	-171
qu	-172
▁isk	-173
ús	-174
▁tato	-175
▁in	-176
chej	-177
inan	-178
▁yuto	-179
▁con	-180
tzo	-181
ulal	-182
ra	-183
▁W	-184
ahaw	-185
▁Yu	-186
▁:	-187
sat	-188
▁cat	-189
niman	-190
ucristo	-191
▁ye	-192
▁tx	-193
ahwi	-194
▁hunu	-195
▁isba	-196
eyet	-197
lo	-198
▁huntek	-199
ayet	-200
ilal	-201
er	-202
▁M	-203
▁yalni	-204
▁bey	-205
itz	-206
em	-207
apni	-208
▁Wal	-209
▁chu	-210
che	-211
chah	-212
ya	-213
haca	-214
bil	-215
mac	-216
banil	-217
▁yal	-218
ilni	-219
bi	-220
▁bay	-221
rael	-222
▁chey	-223
▁wal	-224
▁A	-225
con	-226
chejab	-227
▁chal	-228
▁Jesús	-229
▁yuxin	-230
aco	-231
▁chis	-232
ye	-233
hey	-234
yalni	-235
otx	-236
tic	-237
um	-238
ojab	-239
▁yiban	-240
▁¿	-241
oche	-242
▁yel	-243
ayic	-244
uẍ	-245
sunil	-246
jes	-247
▁te	-248
ac	-249
▁m	-250
yel	-251
▁han	-252
bey	-253
▁yun	-254
yuto	-255
uyw	-256
ar	-257
▁P	-258
im	-259
▁n	-260
cam	-261
ayo	-262
yij	-263
▁Caw	-264
ayto	-265
▁Jesucristo	-266
isk	-267
ˈ:	-268
axa	-269
▁k	-270
col	-271
yuxin	-272
tato	-273
▁T	-274
ri	-275
▁ism	-276
ahawil	-277
▁S	-278
▁“	-279
▁machi	-280
ach	-281
we	-282
▁p	-283
▁hac	-284
▁L	-285
banile	-286
▁ayco	-287
▁istx	-288
▁no	-289
▁chin	-290
ut	-291
ich	-292
▁teyet	-293
▁xol	-294
chu	-295
▁yak	-296
▁maẍ	-297
as	-298
aben	-299
▁Yalni	-300
tel	-301
yal	-302
wan	-303
ojal	-304
tzoti	-305
hac	-306
chal	-307
eba	-308
la	-309
xol	-310
ehi	-311
▁cam	-312
anil	-313
ro	-314
uj	-315
ib	-316
▁Israel	-317
tajil	-318
▁yanma	-319
anto	-320
anico	-321
do	-322
emp	-323
atan	-324
cat	-325
▁Yuxin	-326
ebil	-327
wa	-328
atut	-329
▁E	-330
▁yoc	-331
▁ak	-332
huntek	-333
txa	-334
▁hex	-335
abal	-336
apno	-337
isba	-338
nimanil	-339
▁yip	-340
walan	-341
ebix	-342
▁Hayet	-343
ablo	-344
▁Lahwi	-345
▁ischejab	-346
na	-347
hunu	-348
▁yaja	-349
etan	-350
cha	-351
pí	-352
bay	-353
ho	-354
us	-355
píri	-356
ohtaj	-357
píritu	-358
yaja	-359
▁qu	-360
xaco	-361
abe	-362
▁win	-363
yak	-364
▁isto	-365
▁Hac	-366
chey	-367
▁he	-368
icham	-369
tak	-370
maj	-371
án	-372
▁Yaja	-373
lah	-374
uywom	-375
amb	-376
▁ni	-377
walil	-378
tzotel	-379
ed	-380
ute	-381
▁Yet	-382
xan	-383
jesús	-384
chis	-385
inti	-386
xi	-387
▁haw	-388
▁chex	-389
ahol	-390
ila	-391
uẍta	-392
▁Ch	-393
yiban	-394
és	-395
axan	-396
▁chij	-397
yun	-398
ón	-399
hol	-400
▁?	-401
ala	-402
ibn	-403
▁―¿	-404
▁tinan	-405
mal	-406
ip	-407
▁isp	-408
eyin	-409
ulch	-410
ohtan	-411
machi	-412
hul	-413
▁istz	-414
hex	-415
▁isya	-416
▁chiw	-417
▁iswi	-418
edro	-419
▁hunun	-420
oti	-421
chin	-422
uybanile	-423
ois	-424
ohal	-425
oisés	-426
▁niman	-427
jesucristo	-428
uẍtaj	-429
tzwalil	-430
li	-431
abel	-432
iloj	-433
majul	-434
,”	-435
ism	-436
tojan	-437
etic	-438
▁ec	-439
istx	-440
chahni	-441
▁matxa	-442
maẍ	-443
▁heyanma	-444
▁ton	-445
▁yatut	-446
lahwi	-447
▁heba	-448
▁ebix	-449
nico	-450
ek	-451
gel	-452
ayco	-453
hayet	-454
ani	-455
ángel	-456
▁Ay	-457
▁Pablo	-458
da	-459
abil	-460
hal	-461
▁yilal	-462
je	-463
▁lan	-464
▁iswatx	-465
ley	-466
▁xahan	-467
teyet	-468
yoc	-469
uan	-470
haw	-471
chel	-472
chico	-473
▁yaj	-474
canoj	-475
▁to	-476
amben	-477
▁yilni	-478
ule	-479
exol	-480
▁texol	-481
▁ixim	-482
tit	-483
▁yalan	-484
▁satcan	-485
itzitz	-486
▁Es	-487
empohal	-488
uhan	-489
obal	-490
israel	-491
xahan	-492
▁maca	-493
▁sata	-494
anxa	-495
ea	-496
nihan	-497
▁yelapno	-498
▁isn	-499
▁icham	-500
yanma	-501
▁yapni	-502
én	-503
▁hunel	-504
▁¡	-505
hil	-506
▁Hun	-507
anab	-508
▁chiwalan	-509
win	-510
eo	-511
▁yehi	-512
ehan	-513
awet	-514
▁chon	-515
awom	-516
yip	-517
▁Yuto	-518
▁iscuywom	-519
yaj	-520
ical	-521
ik	-522
go	-523
▁maẍto	-524
anc	-525
▁isti	-526
alén	-527
ehal	-528
usalén	-529
erusalén	-530
▁isb	-531
xinwal	-532
acer	-533
dote	-534
▁chak	-535
acerdote	-536
ano	-537
ischejab	-538
utx	-539
empo	-540
▁isbi	-541
▁yaben	-542
▁Espíritu	-543
▁Ta	-544
▁teyin	-545
elo	-546
▁Haxa	-547
▁oc	-548
▁yahawil	-549
lan	-550
howal	-551
▁Pedro	-552
▁Moisés	-553
▁cuybanile	-554
▁Istzoti	-555
▁juẍta	-556
ayoj	-557
▁N	-558
▁wetan	-559
▁matzwalil	-560
he	-561
▁hec	-562
▁jet	-563
▁ho	-564
▁yinta	-565
rey	-566
▁Han	-567
ub	-568
hel	-569
▁Istak	-570
ij	-571
elico	-572
yelal	-573
▁choche	-574
Tz	-575
quin	-576
ilax	-577
tinan	-578
yo	-579
▁chico	-580
▁lahan	-581
▁ayxaco	-582
espíritu	-583
ujan	-584
alah	-585
isp	-586
▁ismajul	-587
cab	-588
▁ismul	-589
mi	-590
▁chaw	-591
maman	-592
lahan	-593
▁nich	-594
▁tzoti	-595
▁col	-596
▁chiak	-597
aban	-598
▁janma	-599
eso	-600
▁ya	-601
▁quin	-602
chex	-603
▁Yaj	-604
santo	-605
▁jin	-606
paxojan	-607
aba	-608
▁Santo	-609
istz	-610
▁ah	-611
▁iss	-612
▁chej	-613
▁chioc	-614
rah	-615
alax	-616
Tzet	-617
▁hal	-618
mun	-619
Mam	-620
▁Yin	-621
▁Juan	-622
▁quex	-623
etx	-624
chiw	-625
elax	-626
ˈ?	-627
yilal	-628
▁yuninal	-629
ten	-630
icto	-631
ton	-632
▁yahaw	-633
chij	-634
▁yij	-635
bican	-636
▁istan	-637
txum	-638
ayat	-639
ulan	-640
ati	-641
itzc	-642
▁yeli	-643
ayical	-644
iswatx	-645
▁yebpaxo	-646
quex	-647
▁babel	-648
le	-649
▁Hune	-650
ech	-651
enilo	-652
hunun	-653
▁chiyu	-654
matxa	-655
alo	-656
tom	-657
▁yechel	-658
ías	-659
bahan	-660
▁In	-661
▁cha	-662
tax	-663
ilan	-664
iswi	-665
isya	-666
cach	-667
uywawom	-668
ew	-669
▁B	-670
ocan	-671
yijen	-672
▁,”	-673
▁wi	-674
▁xa	-675
anmahan	-676
toj	-677
▁ángel	-678
ebilcano	-679
▁;	-680
▁an	-681
▁yah	-682
▁Mach	-683
▁anmahil	-684
reso	-685
ud	-686
ahli	-687
intijan	-688
bej	-689
▁Ma	-690
nilo	-691
haxa	-692
▁Yalnipaxo	-693
halni	-694
▁chiwal	-695
▁o	-696
▁el	-697
yan	-698
aris	-699
yije	-700
colwa	-701
▁Jerusalén	-702
ino	-703
▁chiswatx	-704
oji	-705
heyanma	-706
yatut	-707
yilni	-708
▁hach	-709
beybal	-710
faris	-711
▁haxinwal	-712
heba	-713
▁xil	-714
▁chic	-715
▁sacerdote	-716
atz	-717
ito	-718
fariseo	-719
▁ismunil	-720
eto	-721
ía	-722
pablo	-723
tohan	-724
▁isnimanil	-725
▁Tz	-726
▁tiempo	-727
elyu	-728
paxoj	-729
id	-730
nipaxo	-731
▁isley	-732
▁macta	-733
yah	-734
▁che	-735
raham	-736
iban	-737
▁chitz	-738
▁cawan	-739
▁Cristo	-740
▁maẍtaj	-741
os	-742
coj	-743
▁isnabal	-744
des	-745
balil	-746
▁istohol	-747
ixal	-748
ulus	-749
▁tawet	-750
canojan	-751
▁maẍtic	-752
alil	-753
▁inc	-754
▁ayex	-755
▁chito	-756
ochehan	-757
anan	-758
xinto	-759
yapni	-760
ixim	-761
yalan	-762
▁hunelxa	-763
unin	-764
texol	-765
▁Haca	-766
chiwalan	-767
tam	-768
▁yay	-769
▁waxan	-770
sata	-771
cawxi	-772
isn	-773
▁heyu	-774
satcan	-775
▁cheyute	-776
ohta	-777
ulo	-778
▁Hex	-779
chon	-780
▁cab	-781
aybal	-782
ok	-783
▁rey	-784
▁yec	-785
icojan	-786
▁chiyij	-787
ia	-788
ajil	-789
atic	-790
ichmam	-791
▁Yum	-792
▁wuhan	-793
dado	-794
quil	-795
yelapno	-796
awin	-797
maca	-798
▁isyelal	-799
Tom	-800
len	-801
pil	-802
▁Isc	-803
▁yaw	-804
lahon	-805
oldado	-806
▁hayet	-807
▁iscam	-808
helanil	-809
alahilal	-810
yahawil	-811
xiw	-812
▁istzotel	-813
diosal	-814
hec	-815
Mach	-816
chalo	-817
Mamin	-818
yehi	-819
noj	-820
isti	-821
eltzo	-822
itzitzbican	-823
munil	-824
uk	-825
ẍte	-826
▁tit	-827
canico	-828
nicano	-829
chak	-830
Caw	-831
▁camom	-832
▁chihul	-833
ero	-834
ahil	-835
hach	-836
paxto	-837
hallax	-838
maẍto	-839
cancano	-840
▁Jahawil	-841
hunel	-842
inalo	-843
iscuywom	-844
▁ink	-845
▁ayon	-846
aybalc	-847
▁chala	-848
▁winaj	-849
▁camical	-850
▁ley	-851
▁yanico	-852
▁Inmaman	-853
mul	-854
istzoti	-855
▁jak	-856
yaben	-857
▁Sunil	-858
▁payat	-859
▁chalni	-860
eta	-861
iss	-862
▁lahwi	-863
iw	-864
etz	-865
▁watx	-866
▁howal	-867
▁ismam	-868
▁tzettaj	-869
bilcano	-870
ohtajan	-871
istak	-872
▁chil	-873
Ha	-874
▁coc	-875
▁ẍiayoj	-876
mak	-877
isbi	-878
it	-879
▁ish	-880
▁yuxinto	-881
bilintijan	-882
teyin	-883
walni	-884
ir	-885
▁G	-886
▁colbanile	-887
pedro	-888
imón	-889
▁yil	-890
▁wuẍtaj	-891
tocanoj	-892
▁ik	-893
chio	-894
▁chik	-895
▁yich	-896
▁chute	-897
cuybanile	-898
▁Ab	-899
arco	-900
wetan	-901
moisés	-902
yanico	-903
▁!	-904
ubal	-905
tajan	-906
juẍta	-907
▁preso	-908
▁cuywawom	-909
ann	-910
waxan	-911
matzwalil	-912
▁‐	-913
ujno	-914
etxum	-915
ilojan	-916
yinta	-917
pa	-918
jet	-919
chaw	-920
choche	-921
yebpaxo	-922
ayc	-923
car	-924
▁apni	-925
▁chiec	-926
vid	-927
ayxaco	-928
pan	-929
▁ishowal	-930
oht	-931
tzen	-932
yeni	-933
alilea	-934
▁wanab	-935
eni	-936
uyni	-937
▁coba	-938
chuquil	-939
▁tiempohal	-940
yahaw	-941
ismajul	-942
may	-943
web	-944
▁wet	-945
▁fariseo	-946
yaw	-947
nich	-948
▁cheyil	-949
▁wanmahan	-950
chiak	-951
ato	-952
awe	-953
▁Ak	-954
ahat	-955
ajan	-956
▁yoj	-957
paxico	-958
▁Hanin	-959
uch	-960
▁barco	-961
▁chaco	-962
▁Abraham	-963
▁Jud	-964
▁yan	-965
▁chiy	-966
▁hunuxa	-967
▁ischej	-968
nam	-969
jin	-970
ismul	-971
pilla	-972
▁chul	-973
▁islah	-974
▁chiwak	-975
juan	-976
ayilo	-977
istan	-978
ahi	-979
acob	-980
ahto	-981
chioc	-982
▁wa	-983
▁hes	-984
▁camo	-985
▁yeco	-986
▁chitan	-987
hi	-988
▁F	-989
▁il	-990
▁lah	-991
erodes	-992
ilnihan	-993
▁cheyak	-994
isb	-995
▁ismi	-996
▁itzitz	-997
ilti	-998
tebil	-999
ewilal	-1000
yalnipaxo	-1001
inc	-1002
▁Chi	-1003
cawan	-1004
▁hanic	-1005
▁chitit	-1006
▁matzet	-1007
▁heyalni	-1008
otel	-1009
taxca	-1010
ilato	-1011
inale	-1012
nojan	-1013
alan	-1014
yeli	-1015
▁lin	-1016
▁nan	-1017
babel	-1018
pitzc	-1019
▁Tzoti	-1020
▁sunilbal	-1021
aypaxo	-1022
andiosal	-1023
laxi	-1024
▁culus	-1025
yuxinto	-1026
ilaxto	-1027
ena	-1028
anni	-1029
chahi	-1030
yuninal	-1031
▁tzujan	-1032
ican	-1033
▁hay	-1034
yechel	-1035
▁munil	-1036
mon	-1037
ajilk	-1038
apnoj	-1039
▁lek	-1040
chiyu	-1041
▁haxa	-1042
me	-1043
Wal	-1044
balto	-1045
▁cach	-1046
chiwal	-1047
maẍtaj	-1048
txahli	-1049
▁hunxa	-1050
▁tawin	-1051
▁yulaj	-1052
▁ip	-1053
▁Isk	-1054
▁Tato	-1055
▁unin	-1056
▁conimanil	-1057
abx	-1058
▁me	-1059
alom	-1060
elel	-1061
chaho	-1062
▁yute	-1063
utxban	-1064
abxubal	-1065
cun	-1066
xil	-1067
janma	-1068
ahul	-1069
▁bisc	-1070
▁juẍtaj	-1071
▁istoholal	-1072
ión	-1073
lin	-1074
mar	-1075
cunc	-1076
tijan	-1077
ircunc	-1078
▁Mam	-1079
▁Mar	-1080
▁niẍte	-1081
anmahil	-1082
▁chihalni	-1083
▁machojab	-1084
ewan	-1085
olo	-1086
rigo	-1087
▁yeh	-1088
itzico	-1089
ohtajo	-1090
apnihan	-1091
camical	-1092
▁chischah	-1093
▁K	-1094
▁Da	-1095
chic	-1096
▁Yeb	-1097
mamin	-1098
etojan	-1099
▁nimanc	-1100
▁tzalahilal	-1101
zar	-1102
winaj	-1103
eniloj	-1104
chiswatx	-1105
ayxa	-1106
ayan	-1107
chil	-1108
cu	-1109
osé	-1110
wican	-1111
maẍtic	-1112
jerusalén	-1113
macta	-1114
haxinwal	-1115
oco	-1116
▁Naj	-1117
▁hel	-1118
▁huj	-1119
ismunil	-1120
ás	-1121
ana	-1122
nab	-1123
xeb	-1124
▁―¡	-1125
▁ist	-1126
yenilo	-1127
▁yixal	-1128
▁ayicto	-1129
▁chisje	-1130
▁soldado	-1131
sacerdote	-1132
▁istiempohal	-1133
Mac	-1134
amil	-1135
chiq	-1136
erna	-1137
nito	-1138
potx	-1139
ejhol	-1140
▁inti	-1141
isnimanil	-1142
▁Israeloj	-1143
och	-1144
unl	-1145
ahno	-1146
tiempo	-1147
▁An	-1148
ayex	-1149
▁can	-1150
isley	-1151
chalni	-1152
▁hantan	-1153
colo	-1154
chitz	-1155
anican	-1156
uybanil	-1157
tio	-1158
yaco	-1159
▁beh	-1160
▁hek	-1161
▁yuch	-1162
▁aypaxo	-1163
istohol	-1164
▁R	-1165
wej	-1166
yec	-1167
yil	-1168
etaj	-1169
▁Yoc	-1170
▁haba	-1171
cristo	-1172
▁yijem	-1173
▁jichmam	-1174
▁walxinto	-1175
isnabal	-1176
▁Sa	-1177
▁pan	-1178
aycan	-1179
▁yetbi	-1180
▁chawal	-1181
poh	-1182
tawet	-1183
enabal	-1184
ohtaxa	-1185
▁ac	-1186
cawx	-1187
▁chaẍ	-1188
▁yaco	-1189
▁ispaj	-1190
capilla	-1191
hanin	-1192
ẍa	-1193
▁toh	-1194
chito	-1195
alomal	-1196
ichico	-1197
▁chielico	-1198
▁xahanbalil	-1199
haj	-1200
hunelxa	-1201
▁Mac	-1202
▁yik	-1203
▁Waxan	-1204
▁heyak	-1205
▁Galilea	-1206
▁inbahan	-1207
▁ishelanil	-1208
ink	-1209
rco	-1210
heyu	-1211
▁sic	-1212
▁tan	-1213
anayo	-1214
▁María	-1215
▁heyet	-1216
cheyute	-1217
▁istxum	-1218
ilto	-1219
munla	-1220
machoj	-1221
▁v	-1222
jak	-1223
rato	-1224
▁wak	-1225
▁huno	-1226
▁tzujno	-1227
chiyij	-1228
yum	-1229
wuhan	-1230
▁Simón	-1231
▁iscol	-1232
▁janab	-1233
isyelal	-1234
ux	-1235
ina	-1236
uil	-1237
ambe	-1238
cojab	-1239
iscol	-1240
eyiban	-1241
canocan	-1242
ije	-1243
▁saj	-1244
▁mule	-1245
▁David	-1246
▁chiel	-1247
▁Aypaxo	-1248
▁chewatx	-1249
jahawil	-1250
mo	-1251
meta	-1252
nican	-1253
abehan	-1254
cawilal	-1255
▁chejab	-1256
▁cowatx	-1257
istzotel	-1258
▁chiapni	-1259
▁chitzala	-1260
▁chiwochehan	-1261
ep	-1262
machojab	-1263
▁hul	-1264
▁mar	-1265
▁Jacob	-1266
▁Machi	-1267
▁ixnam	-1268
▁wehan	-1269
▁Yuxinto	-1270
▁walnihan	-1271
san	-1272
bilxa	-1273
camom	-1274
ismam	-1275
acojan	-1276
alahan	-1277
▁X	-1278
ischej	-1279
▁Herodes	-1280
▁masanto	-1281
▁wintajan	-1282
▁chihallax	-1283
aho	-1284
hulan	-1285
inmaman	-1286
iswalil	-1287
uh	-1288
eho	-1289
eno	-1290
▁ej	-1291
anch	-1292
nabé	-1293
uxan	-1294
▁hem	-1295
▁chim	-1296
chihul	-1297
ejholo	-1298
ernabé	-1299
colomal	-1300
▁chicam	-1301
▁cheyaco	-1302
▁xewilal	-1303
ohtajojan	-1304
▁chejbanile	-1305
enan	-1306
wuẍtaj	-1307
awtebil	-1308
▁yo	-1309
ayon	-1310
▁mil	-1311
▁xiw	-1312
chiwa	-1313
▁nino	-1314
▁chach	-1315
▁jilni	-1316
▁melyu	-1317
▁nahat	-1318
▁Pilato	-1319
enta	-1320
ento	-1321
chala	-1322
ist	-1323
eloj	-1324
▁yuẍ	-1325
▁ayto	-1326
▁habil	-1327
▁aycano	-1328
▁hewatx	-1329
▁tzotel	-1330
▁ischahni	-1331
payat	-1332
ipe	-1333
nia	-1334
mame	-1335
umal	-1336
▁ayc	-1337
▁bak	-1338
elipe	-1339
▁chah	-1340
▁yabe	-1341
tzettaj	-1342
▁cheyal	-1343
▁chiwalti	-1344
coc	-1345
hes	-1346
wet	-1347
yay	-1348
anayto	-1349
sa	-1350
▁ohtan	-1351
▁cheyala	-1352
▁cablahon	-1353
oma	-1354
nayo	-1355
ẍiayoj	-1356
ircuncis	-1357
pon	-1358
▁man	-1359
laxto	-1360
▁ayin	-1361
▁halni	-1362
▁ismay	-1363
▁hununex	-1364
▁chitzotel	-1365
yelo	-1366
munlahan	-1367
fr	-1368
Han	-1369
Hex	-1370
anex	-1371
ohyi	-1372
▁sub	-1373
niloj	-1374
▁isbej	-1375
▁jalni	-1376
▁jetan	-1377
haninti	-1378
▁Hacpax	-1379
▁chintz	-1380
▁istzab	-1381
▁hawanma	-1382
▁ischuquil	-1383
ircuncisión	-1384
chik	-1385
chim	-1386
chute	-1387
nimanc	-1388
colbanile	-1389
nic	-1390
say	-1391
▁Eb	-1392
▁je	-1393
yich	-1394
▁yoche	-1395
▁yohtan	-1396
▁yichico	-1397
▁isbeybal	-1398
nan	-1399
camo	-1400
elwi	-1401
naxa	-1402
uywa	-1403
alaho	-1404
dor	-1405
▁Yak	-1406
▁car	-1407
▁xay	-1408
cawil	-1409
canilo	-1410
▁coxol	-1411
▁yayto	-1412
▁hetxum	-1413
▁haninti	-1414
▁yelapnoj	-1415
hay	-1416
chul	-1417
▁	-1418
a	-1419
¦	-1420
n	-1421
i	-1422
t	-1423
c	-1424
e	-1425
o	-1426
h	-1427
y	-1428
l	-1429
ˈ	-1430
m	-1431
u	-1432
j	-1433
s	-1434
b	-1435
x	-1436
̈	-1437
w	-1438
,	-1439
𐋇	-1440
.	-1441
k	-1442
C	-1443
z	-1444
p	-1445
r	-1446
ẍ	-1447
d	-1448
Y	-1449
H	-1450
:	-1451
D	-1452
J	-1453
―	-1454
I	-1455
M	-1456
q	-1457
ú	-1458
W	-1459
?	-1460
¿	-1461
T	-1462
A	-1463
í	-1464
g	-1465
é	-1466
P	-1467
S	-1468
“	-1469
”	-1470
L	-1471
á	-1472
;	-1473
E	-1474
ó	-1475
f	-1476
v	-1477
!	-1478
¡	-1479
‐	-1480
N	-1481
B	-1482
G	-1483
K	-1484
F	-1485
R	-1486
X	-1487
O	-1488
Z	-1489
‘	-1490
’	-1491
(	-1492
)	-1493
Q	-1494
U	-1495
ñ	-1496
