<pad>	0
</s>	0
<unk>	0
▁¦	-0
्य	-1
्या	-2
▁क	-3
्र	-4
ार	-5
▁आ	-6
▁स	-7
ां	-8
ना	-9
▁प	-10
ात	-11
▁म	-12
र्	-13
हे	-14
ला	-15
▁अ	-16
▁व	-17
च्या	-18
क्	-19
▁त	-20
ले	-21
ही	-22
ण्या	-23
ल्या	-24
चा	-25
वा	-26
ती	-27
्ह	-28
रो	-29
ची	-30
िक	-31
▁द	-32
▁य	-33
▁.	-34
सा	-35
▁ज	-36
स्	-37
▁ह	-38
▁आहे	-39
ली	-40
ने	-41
ून	-42
णि	-43
रा	-44
ता	-45
ंत	-46
▁ल	-47
▁प्र	-48
▁न	-49
्ये	-50
मध	-51
णा	-52
मा	-53
कर	-54
ित	-55
क्ष	-56
▁अस	-57
चे	-58
का	-59
ठी	-60
▁कर	-61
्यां	-62
▁ब	-63
मध्ये	-64
वर	-65
▁आणि	-66
▁श	-67
नी	-68
प्र	-69
साठी	-70
▁,	-71
रोना	-72
▁को	-73
▁हो	-74
ते	-75
या	-76
▁र	-77
▁सं	-78
वि	-79
सं	-80
▁के	-81
पा	-82
झा	-83
ग्	-84
लं	-85
ंद	-86
ील	-87
आहे	-88
▁का	-89
व्ह	-90
मु	-91
▁या	-92
कार	-93
शी	-94
्ट	-95
▁उ	-96
▁ग	-97
के	-98
पर	-99
ेश	-100
ण्यात	-101
▁वि	-102
ुग्	-103
ुर	-104
णे	-105
हि	-106
िं	-107
ेत	-108
को	-109
ाय	-110
त्	-111
चं	-112
▁ए	-113
सी	-114
▁घ	-115
री	-116
लेल्या	-117
तात	-118
वी	-119
नि	-120
हो	-121
ळे	-122
नाही	-123
कड	-124
ान	-125
ाण	-126
भा	-127
▁वा	-128
ांनी	-129
▁रा	-130
▁दि	-131
▁झा	-132
ारी	-133
द्	-134
ष्ट	-135
आणि	-136
▁नि	-137
ांना	-138
की	-139
रोग	-140
मी	-141
ोक	-142
से	-143
▁ड	-144
ारा	-145
सि	-146
▁ट	-147
वे	-148
ार्	-149
स्थ	-150
▁कोरोना	-151
▁ला	-152
सर्	-153
▁त्या	-154
ुग्ण	-155
णी	-156
ऱ्या	-157
त्या	-158
मुळे	-159
बा	-160
जन	-161
▁जा	-162
ंत्र	-163
गा	-164
▁इ	-165
तर	-166
▁म्ह	-167
ण्यासाठी	-168
▁स्	-169
तो	-170
▁पर	-171
▁मा	-172
ांच्या	-173
ल्	-174
▁आहेत	-175
अस	-176
ंतर	-177
न्	-178
▁फ	-179
स्त	-180
शा	-181
▁सा	-182
तील	-183
्यात	-184
ुस	-185
ळा	-186
जे	-187
20	-188
▁नाही	-189
ांग	-190
िती	-191
रकार	-192
▁(	-193
टी	-194
हा	-195
19	-196
▁पा	-197
िंवा	-198
णार	-199
▁भ	-200
िल	-201
▁"	-202
रोग्य	-203
▁शक	-204
्रा	-205
ति	-206
जा	-207
▁राज	-208
पास	-209
्ही	-210
म्ह	-211
धी	-212
▁मु	-213
धिक	-214
क्र	-215
स्ट	-216
दि	-217
▁त्यां	-218
▁रुग्ण	-219
ातील	-220
▁ठ	-221
जी	-222
ळी	-223
्यंत	-224
नंतर	-225
ंट	-226
चार	-227
▁हे	-228
ांची	-229
ूर्	-230
▁ते	-231
ये	-232
▁ये	-233
▁दे	-234
ाणू	-235
▁ख	-236
षाणू	-237
पे	-238
▁सुर	-239
व्हि	-240
्यू	-241
करण	-242
वस	-243
क्षा	-244
कोरोना	-245
द्ध	-246
ण्याची	-247
▁चा	-248
ंद्र	-249
▁लोक	-250
▁उप	-251
णाऱ्या	-252
-19	-253
ऊन	-254
मे	-255
ंध	-256
ांमध्ये	-257
क्त	-258
ंब	-259
िट	-260
दी	-261
यो	-262
▁1	-263
ृत	-264
▁एक	-265
दा	-266
रे	-267
जार	-268
शि	-269
णं	-270
र्ष	-271
लय	-272
▁लस	-273
क्सि	-274
▁ऑ	-275
बत	-276
▁म्हण	-277
ताना	-278
▁पु	-279
ख्या	-280
▁सर्	-281
ज्	-282
देश	-283
गी	-284
▁लाग	-285
श्	-286
पर्यंत	-287
माण	-288
▁सरकार	-289
द्या	-290
ेल	-291
ंड	-292
ईल	-293
▁च	-294
▁'	-295
▁मो	-296
▁किंवा	-297
▁तर	-298
वार	-299
ष्ट्र	-300
ेव	-301
सर्ग	-302
तं	-303
मो	-304
हिती	-305
मान	-306
▁आरोग्य	-307
पासून	-308
क्ट	-309
बंध	-310
टा	-311
▁मह	-312
ुग्णा	-313
▁काही	-314
र्म	-315
▁परि	-316
ोन	-317
दे	-318
ांचा	-319
व्हिड	-320
रात	-321
▁कार	-322
▁डॉ	-323
▁सांग	-324
शक	-325
ायर	-326
▁यांनी	-327
▁ध	-328
▁ना	-329
र्थ	-330
▁वाढ	-331
डे	-332
मंत्र	-333
त्र	-334
▁असल्या	-335
▁तु	-336
डी	-337
ोल	-338
आहेत	-339
▁करण्यात	-340
कडा	-341
▁की	-342
▁कमी	-343
टे	-344
प्	-345
▁वे	-346
▁व्य	-347
गर	-348
पूर्	-349
▁देश	-350
सार	-351
क्ती	-352
्यु	-353
क्सिजन	-354
▁आप	-355
▁बा	-356
राज	-357
▁जात	-358
ब्	-359
▁सर्व	-360
क्षण	-361
▁असं	-362
▁लशी	-363
▁निर्	-364
नेक	-365
्यांना	-366
▁मि	-367
वारी	-368
वड	-369
स्थिती	-370
कडे	-371
ठा	-372
ॉकडा	-373
▁विषाणू	-374
▁केली	-375
▁ही	-376
्स	-377
्रे	-378
▁हा	-379
▁लसी	-380
िका	-381
द्य	-382
खा	-383
म्ही	-384
▁घे	-385
▁गे	-386
▁चाच	-387
व्य	-388
ायरस	-389
▁पण	-390
िया	-391
दल	-392
▁भार	-393
सो	-394
ूर	-395
भाग	-396
र्स	-397
▁अधिक	-398
गे	-399
ृत्यू	-400
िंग	-401
पु	-402
रुग्ण	-403
ात्र	-404
▁20	-405
थे	-406
ुसार	-407
ण्याचा	-408
▁𐊣	-409
तिक	-410
ाराष्ट्र	-411
ज्ञ	-412
कीय	-413
च्	-414
ढळ	-415
▁व्ह	-416
िल्ह	-417
ीय	-418
बाबत	-419
▁करोना	-420
्यक	-421
ुग्णालय	-422
▁आले	-423
▁माहिती	-424
मंत्री	-425
शन	-426
ल्यानंतर	-427
मि	-428
दर	-429
ण्यास	-430
▁लक्ष	-431
ांत	-432
ांवर	-433
▁क्	-434
व्ही	-435
▁होते	-436
सुर	-437
लोक	-438
वात	-439
▁करा	-440
▁शि	-441
पेक्षा	-442
ख्य	-443
ॉकडाऊन	-444
ोध	-445
▁सुरू	-446
णाम	-447
औष	-448
ंभ	-449
▁केले	-450
स्प	-451
नुसार	-452
▁:	-453
िय	-454
▁मार्	-455
▁¦1	-456
▁संसर्ग	-457
व्हा	-458
वश	-459
▁2	-460
यु	-461
मधील	-462
ध्य	-463
▁वापर	-464
▁स्थ	-465
ेड	-466
वश्यक	-467
औषध	-468
उप	-469
ाप	-470
एक	-471
लस	-472
ाला	-473
त्यां	-474
स्क	-475
वेश	-476
▁कोव्हिड	-477
दर्	-478
ध्या	-479
नं	-480
कडून	-481
पण	-482
▁C	-483
तु	-484
परि	-485
नो	-486
बी	-487
▁शा	-488
क्रम	-489
▁बंद	-490
जात	-491
▁घेत	-492
▁सु	-493
लाग	-494
म्हण	-495
खी	-496
सरकार	-497
सह	-498
यार	-499
▁केंद्र	-500
ठ्या	-501
टलं	-502
▁दिवस	-503
▁)	-504
▁उत्	-505
▁इतर	-506
▁ऑक्सिजन	-507
पी	-508
▁काम	-509
▁वर्ष	-510
लब्	-511
0¦	-512
किंवा	-513
वळ	-514
लब्ध	-515
्हे	-516
▁-	-517
ंबई	-518
ष्	-519
▁कु	-520
मह	-521
ंप	-522
क्के	-523
▁ज्या	-524
र्क	-525
▁अनेक	-526
ांसाठी	-527
ीर	-528
▁से	-529
ल्याचं	-530
▁आली	-531
▁हात	-532
काही	-533
▁आज	-534
ाणी	-535
आरोग्य	-536
वाढ	-537
णाले	-538
ओव्ही	-539
वं	-540
वत	-541
ाल	-542
ऱ्यां	-543
▁ने	-544
हिन	-545
▁ती	-546
▁केला	-547
▁होती	-548
▁असलेल्या	-549
▁एका	-550
गळ	-551
न्स	-552
▁जे	-553
▁दिस	-554
ांचे	-555
धार	-556
ोस	-557
▁प्रति	-558
▁दुस	-559
▁जास्त	-560
भार	-561
व्या	-562
▁करण्यासाठी	-563
सर	-564
प्रिल	-565
योग	-566
▁?	-567
▁काय	-568
डॉ	-569
लक्ष	-570
▁येत	-571
सर्गा	-572
▁काळ	-573
यांनी	-574
▁मृत्यू	-575
ण्याच्या	-576
ूग्	-577
वस्थ	-578
ष्टी	-579
क्टर	-580
धान	-581
सांग	-582
▁नो	-583
▁निय	-584
▁पो	-585
सु	-586
कमी	-587
▁आता	-588
्यता	-589
पो	-590
त्वा	-591
▁दु	-592
विक	-593
सीओव्ही	-594
▁प्रा	-595
निर्	-596
▁मान	-597
म्हाला	-598
▁पुर	-599
लेले	-600
विषाणू	-601
वाय	-602
वास	-603
▁यु	-604
▁आढळ	-605
▁रो	-606
▁सो	-607
▁झाला	-608
करण्यात	-609
लेली	-610
▁च्या	-611
▁महाराष्ट्र	-612
▁दा	-613
▁प्रमाण	-614
ल्याने	-615
विड	-616
▁झाली	-617
▁होता	-618
रि	-619
▁मध	-620
▁चाचणी	-621
वीन	-622
ैद्य	-623
▁रे	-624
पणे	-625
▁रुग्णालय	-626
ैकी	-627
मार्	-628
ातून	-629
VI	-630
OVI	-631
होत	-632
मक	-633
ैद्यकीय	-634
▁करत	-635
संख्या	-636
OVID	-637
हर	-638
▁व्यक्ती	-639
म्या	-640
िके	-641
▁होत	-642
पूर्ण	-643
▁दोन	-644
▁जिल्ह	-645
लशी	-646
बंद	-647
▁सांगित	-648
▁3	-649
चाच	-650
डा	-651
असं	-652
▁असे	-653
▁राह	-654
▁त्यांच्या	-655
लक	-656
शे	-657
▁नस	-658
घे	-659
▁कोण	-660
लो	-661
दु	-662
करणा	-663
िन	-664
लसी	-665
ंभीर	-666
असे	-667
शास	-668
ख्ये	-669
▁म्हणून	-670
▁व्हायरस	-671
▁गर	-672
▁लॉकडाऊन	-673
सेस	-674
co	-675
्यातील	-676
▁समा	-677
मच्या	-678
▁पूर्	-679
गरिक	-680
▁असेल	-681
▁COVID	-682
चीन	-683
केली	-684
वान	-685
▁औषध	-686
▁परिणाम	-687
▁झालेल्या	-688
ल्यास	-689
00	-690
हेर	-691
विध	-692
नु	-693
ूक	-694
ोग	-695
▁क्ष	-696
िम	-697
पुर	-698
▁संख्या	-699
ढे	-700
वर्ष	-701
▁करून	-702
काळ	-703
▁सम	-704
भाव	-705
िव्ह	-706
▁लसीकरण	-707
पाद	-708
लाव	-709
हान	-710
-19¦	-711
▁मार्च	-712
▁ठेव	-713
द्यार्थ	-714
▁यांच्या	-715
ास	-716
▁मिळ	-717
▁दिली	-718
णय	-719
▁टा	-720
▁असा	-721
▁5	-722
अधिक	-723
▁तयार	-724
बर	-725
लेला	-726
▁अशा	-727
▁उपचार	-728
सर्व	-729
िस	-730
▁परिस्थिती	-731
करा	-732
▁¦20	-733
▁दर	-734
▁उपलब्ध	-735
▁देण्यात	-736
शोध	-737
पैकी	-738
▁माग	-739
करे	-740
्री	-741
चित	-742
▁गो	-743
पूर	-744
द्दल	-745
्ल	-746
घट	-747
ठव	-748
ंदा	-749
ईन	-750
पर्क	-751
▁टक्के	-752
करोना	-753
क्स	-754
▁नोंद	-755
▁राज्य	-756
ात्	-757
ांचं	-758
ूग्ण	-759
▁थ	-760
▁म्हटलं	-761
वारे	-762
▁१	-763
▁त्यांना	-764
▁म्हणजे	-765
हात	-766
सोबत	-767
मडे	-768
म्यान	-769
भ्या	-770
▁आला	-771
▁आपल्या	-772
ुवात	-773
व्हायरस	-774
▁भाग	-775
▁मुंबई	-776
च्छ	-777
▁जो	-778
▁विक	-779
▁म्हणाले	-780
खील	-781
हीर	-782
▁मुख्य	-783
कोव्हिड	-784
्याय	-785
माहिती	-786
्हा	-787
गतिक	-788
त्त्वा	-789
धित	-790
▁केलं	-791
पाल	-792
▁त्यामुळे	-793
▁¦2	-794
साय	-795
पाय	-796
विष	-797
मडेसि	-798
बद्दल	-799
▁गेल्या	-800
संसर्ग	-801
आप	-802
प्रमा	-803
▁सार्	-804
▁पहि	-805
▁तो	-806
▁करणे	-807
▁सू	-808
▁रोग	-809
भरात	-810
भू	-811
िटल	-812
▁अशी	-813
वानगी	-814
कु	-815
▁तरी	-816
▁आजार	-817
दत	-818
ंना	-819
क्षित	-820
▁आम्ही	-821
▁राज्यात	-822
▁महिन	-823
▁हजार	-824
RS	-825
▁2020	-826
होते	-827
▁मात्र	-828
खल	-829
ण्याचे	-830
▁एप्रिल	-831
▁त्यांनी	-832
▁4	-833
ॉस्प	-834
न्हा	-835
ठवड	-836
वेळी	-837
काम	-838
मेर	-839
▁पे	-840
णारे	-841
फे	-842
वापर	-843
सुरू	-844
▁असून	-845
ंबर	-846
ोका	-847
▁बोल	-848
ज्या	-849
वरील	-850
मिक	-851
्रु	-852
▁चाचण्या	-853
ॉल	-854
प्प	-855
▁पड	-856
▁संसर्गा	-857
▁ठा	-858
▁सि	-859
निय	-860
र्ड	-861
भागा	-862
▁मुल	-863
ज्ज्ञ	-864
▁महा	-865
▁शकतो	-866
▁भारतात	-867
▁मोठ्या	-868
▁असल्याचं	-869
यत्	-870
▁होतं	-871
भर	-872
हु	-873
ूप	-874
▁स्प	-875
केंद्र	-876
▁कार्य	-877
ंचा	-878
पूर्वी	-879
."	-880
च्च	-881
टर	-882
▁कंप	-883
बंधित	-884
पड	-885
▁सांगतात	-886
लया	-887
िकाणी	-888
▁डि	-889
डि	-890
पत्र	-891
▁पुरव	-892
जि	-893
दर्भ	-894
▁ओ	-895
रोध	-896
▁जाण	-897
▁कर्म	-898
द्वारे	-899
▁सह	-900
परा	-901
▁लाख	-902
▁स्ट	-903
व्हॅ	-904
▁डॉक्टर	-905
उत्	-906
वली	-907
▁साथ	-908
ोट	-909
्यांनी	-910
▁सरकारने	-911
यत्न	-912
व्हे	-913
▁मध्ये	-914
▁शकतात	-915
▁सध्या	-916
ऑक्सिजन	-917
येत	-918
योज	-919
दिवस	-920
▁होऊ	-921
घेत	-922
ग्र	-923
▁डोस	-924
ॉस्पिटल	-925
अर	-926
▁जी	-927
▁धु	-928
▁श्	-929
▁येईल	-930
▁वैद्यकीय	-931
वर्	-932
म्	-933
अनेक	-934
ेत्र	-935
संख्ये	-936
▁मंत्र	-937
इतर	-938
मार	-939
▁आलं	-940
▁झाल्या	-941
श्न	-942
▁होतो	-943
▁आवश्यक	-944
ंच्या	-945
प्रति	-946
▁सांगितलं	-947
आज	-948
ंग	-949
ल्ली	-950
ीच्या	-951
प्रधान	-952
▁कोविड	-953
▁वेग	-954
दुस	-955
▁𐋇	-956
▁जग	-957
रण	-958
काय	-959
▁आण	-960
▁प्रकार	-961
▁लोकांना	-962
रोप	-963
द्धव	-964
प्रा	-965
5¦	-966
▁भा	-967
बीसी	-968
नात	-969
▁नवीन	-970
▁गंभीर	-971
विषय	-972
▁नागरिक	-973
ंटर	-974
र्ट	-975
िकल	-976
त्ये	-977
द्रे	-978
▁मे	-979
मान्य	-980
आली	-981
वलं	-982
खे	-983
दार	-984
केला	-985
एका	-986
दान	-987
करून	-988
ढा	-989
फार	-990
ंतप्रधान	-991
▁गरज	-992
जास्त	-993
▁मिळा	-994
ोष	-995
▁S	-996
मधून	-997
द्धती	-998
▁कारण	-999
▁२	-1000
▁अॅ	-1001
ंतु	-1002
संच	-1003
▁बी	-1004
▁महाराष्ट्रात	-1005
vi	-1006
भावी	-1007
वण्यात	-1008
प्रमाणे	-1009
ातळी	-1010
महाराष्ट्र	-1011
दिस	-1012
शेष	-1013
हून	-1014
▁मी	-1015
सित	-1016
जून	-1017
होती	-1018
▁समावेश	-1019
असलेल्या	-1020
आले	-1021
▁चीन	-1022
▁विद्यार्थ	-1023
जिल्ह	-1024
▁अँ	-1025
▁स्व	-1026
ैठ	-1027
ांब	-1028
ित्	-1029
र्चा	-1030
भ्यास	-1031
▁स्थिती	-1032
वजन	-1033
▁गा	-1034
▁शाळा	-1035
▁ह्या	-1036
▁निर्णय	-1037
-2	-1038
गो	-1039
क्षम	-1040
▁बदल	-1041
ंत्रण	-1042
वजनिक	-1043
▁शकते	-1044
नेवारी	-1045
▁गु	-1046
▁मास्क	-1047
ंची	-1048
▁करू	-1049
करण्यासाठी	-1050
आता	-1051
मुख	-1052
्याच्या	-1053
ॉझ	-1054
ेशन	-1055
मृत्यू	-1056
▁घट	-1057
▁नाहीत	-1058
▁6	-1059
र्ग	-1060
▁फे	-1061
▁ठर	-1062
्यांच्या	-1063
केले	-1064
सू	-1065
शासना	-1066
ष्ट्रा	-1067
▁ठाकरे	-1068
▁केल्या	-1069
▁दुसऱ्या	-1070
करणे	-1071
▁उत्पाद	-1072
ष्ट्रीय	-1073
वाई	-1074
चना	-1075
सम	-1076
वाह	-1077
प्रमाण	-1078
ष्ठ	-1079
ानिक	-1080
ात्मक	-1081
▁व्या	-1082
रुग्णालय	-1083
▁7	-1084
वाल	-1085
द्धा	-1086
ॉझिट	-1087
मुख्य	-1088
ुप	-1089
▁रि	-1090
ध्यम	-1091
▁झाले	-1092
▁पूर्ण	-1093
नस	-1094
जन्य	-1095
▁ति	-1096
▁रूग्ण	-1097
टु	-1098
ूण	-1099
ृती	-1100
▁प्रवा	-1101
Co	-1102
माग	-1103
▁चे	-1104
लॉकडाऊन	-1105
▁वाट	-1106
▁शक्यता	-1107
▁सुरुवात	-1108
vid	-1109
आढळ	-1110
▁डे	-1111
झाला	-1112
चाचणी	-1113
परिणाम	-1114
निट	-1115
मोर	-1116
झाली	-1117
▁संपर्क	-1118
▁आलेल्या	-1119
▁¦3	-1120
दर्भात	-1121
▁विचार	-1122
र्या	-1123
होता	-1124
▁आपण	-1125
▁जाहीर	-1126
ळख	-1127
जो	-1128
covid	-1129
वीर	-1130
व्यक्ती	-1131
दोन	-1132
▁बेड	-1133
कोण	-1134
राव	-1135
कल	-1136
बाधित	-1137
▁पाहि	-1138
गु	-1139
▁जागतिक	-1140
▁निर्बंध	-1141
▁महत्त्वा	-1142
ुन	-1143
त्यांच्या	-1144
▁मू	-1145
ीत	-1146
तरी	-1147
समा	-1148
करत	-1149
वले	-1150
व्र	-1151
▁परवानगी	-1152
योजन	-1153
▁म्हणतात	-1154
ायला	-1155
ांपासून	-1156
ठे	-1157
ॅन	-1158
▁8	-1159
▁असते	-1160
मिळ	-1161
गळ्या	-1162
▁पुढे	-1163
्यांमध्ये	-1164
▁केलेल्या	-1165
▁छ	-1166
▁पसर	-1167
▁करण्याची	-1168
4¦	-1169
म्हणून	-1170
ARS	-1171
कारक	-1172
निया	-1173
बाहेर	-1174
ुक	-1175
▁टे	-1176
ब्रु	-1177
▁चाल	-1178
सांगित	-1179
▁आजारा	-1180
▁तुम्हाला	-1181
▁व्हे	-1182
्फ	-1183
दरम्यान	-1184
ऱ्यांना	-1185
ट्र	-1186
▁खा	-1187
▁भर	-1188
▁मदत	-1189
▁आठवड	-1190
▁काळात	-1191
▁लक्षणे	-1192
होच	-1193
क्षणा	-1194
दाय	-1195
स्त्र	-1196
▁रुग्णा	-1197
▁निर्माण	-1198
झर	-1199
त्येक	-1200
लावधी	-1201
धा	-1202
णारी	-1203
▁जि	-1204
▁सी	-1205
▁योग	-1206
कार्य	-1207
तिकार	-1208
जर	-1209
▁परी	-1210
▁शोध	-1211
▁दिसून	-1212
▁बोलताना	-1213
आर	-1214
CoV	-1215
▁लागू	-1216
तीत	-1217
थील	-1218
ाच्या	-1219
▁अमेर	-1220
ब्रुवारी	-1221
▁रुग्णालयात	-1222
▁झ	-1223
न्ट	-1224
▁जाते	-1225
यांच्या	-1226
▁रेमडेसि	-1227
ंनी	-1228
वस्था	-1229
▁नमु	-1230
▁प्रसार	-1231
▁प्रमाणात	-1232
ार्थ	-1233
ंद्रा	-1234
▁रोजी	-1235
ॉझिटिव्ह	-1236
ाराष्ट्रा	-1237
बाब	-1238
▁कोटी	-1239
ंगा	-1240
विर	-1241
क्सिन	-1242
असेल	-1243
चि	-1244
र्श	-1245
▁उपाय	-1246
▁जाईल	-1247
विषयी	-1248
▁ऑफ	-1249
राज्य	-1250
▁पहिल्या	-1251
बो	-1252
ेट	-1253
िले	-1254
मुंबई	-1255
न्य	-1256
▁10	-1257
लसीकरण	-1258
ायो	-1259
त्यांना	-1260
झालेल्या	-1261
न्न	-1262
▁संस्थ	-1263
सारख्या	-1264
घड	-1265
भव	-1266
रोधी	-1267
▁SARS	-1268
▁दाखल	-1269
▁देशात	-1270
लगी	-1271
ल्प	-1272
ॅक्ट	-1273
युक्त	-1274
असल्या	-1275
▁कोणत्या	-1276
मार्च	-1277
जग	-1278
▁9	-1279
वसन	-1280
▁पत्र	-1281
▁रुग्णांची	-1282
सेच	-1283
गेल्या	-1284
▁मागणी	-1285
राज्यात	-1286
कारण	-1287
्रास	-1288
शिवाय	-1289
▁जर	-1290
▁अर्थ	-1291
प्रकार	-1292
▁प्रयत्न	-1293
▁काढ	-1294
▁वर्	-1295
अशा	-1296
ल्स	-1297
आम्ही	-1298
▁तपास	-1299
▁कंपनी	-1300
▁“	-1301
ठेव	-1302
न्ही	-1303
ायझर	-1304
परिस्थिती	-1305
rs	-1306
मू	-1307
▁गर्	-1308
आपल्या	-1309
लि	-1310
दिली	-1311
मल	-1312
▁	-1313
ा	-1314
¦	-1315
्	-1316
र	-1317
य	-1318
त	-1319
े	-1320
क	-1321
ी	-1322
स	-1323
ल	-1324
न	-1325
ं	-1326
ि	-1327
व	-1328
ह	-1329
म	-1330
च	-1331
ण	-1332
प	-1333
ो	-1334
आ	-1335
द	-1336
ग	-1337
ज	-1338
ु	-1339
.	-1340
ट	-1341
श	-1342
अ	-1343
ू	-1344
ध	-1345
ब	-1346
ड	-1347
,	-1348
ष	-1349
ळ	-1350
ठ	-1351
ख	-1352
भ	-1353
थ	-1354
उ	-1355
घ	-1356
ए	-1357
झ	-1358
ॉ	-1359
फ	-1360
-	-1361
0	-1362
1	-1363
ढ	-1364
2	-1365
इ	-1366
ई	-1367
ऱ	-1368
ॅ	-1369
ऊ	-1370
ृ	-1371
"	-1372
9	-1373
ै	-1374
)	-1375
(	-1376
ऑ	-1377
'	-1378
5	-1379
?	-1380
C	-1381
ओ	-1382
3	-1383
4	-1384
o	-1385
:	-1386
c	-1387
i	-1388
१	-1389
8	-1390
ँ	-1391
7	-1392
I	-1393
6	-1394
२	-1395
a	-1396
०	-1397
e	-1398
r	-1399
S	-1400
ञ	-1401
𐊣	-1402
𐊼	-1403
s	-1404
V	-1405
औ	-1406
R	-1407
छ	-1408
O	-1409
ौ	-1410
D	-1411
A	-1412
t	-1413
𐋇	-1414
d	-1415
n	-1416
v	-1417
%	-1418
४	-1419
३	-1420
५	-1421
ः	-1422
९	-1423
E	-1424
P	-1425
h	-1426
p	-1427
/	-1428
;	-1429
६	-1430
८	-1431
l	-1432
m	-1433
H	-1434
M	-1435
७	-1436
N	-1437
u	-1438
T	-1439
g	-1440
“	-1441
़	-1442
w	-1443
‘	-1444
’	-1445
W	-1446
!	-1447
U	-1448
G	-1449
b	-1450
f	-1451
y	-1452
ऐ	-1453
”	-1454
‍	-1455
ऩ	-1456
B	-1457
L	-1458
F	-1459
k	-1460
–	-1461
•	-1462
x	-1463
[	-1464
]	-1465
#	-1466
ऍ	-1467
K	-1468
$	-1469
ऋ	-1470
z	-1471
q	-1472
<	-1473
≥	-1474
j	-1475
Y	-1476
>	-1477
+	-1478
Q	-1479
Z	-1480
*	-1481
ॲ	-1482
X	-1483
_	-1484
×	-1485
J	-1486
α	-1487
=	-1488
β	-1489
ऎ	-1490
—	-1491
~	-1492
ß	-1493
γ	-1494
Å	-1495
å	-1496
