<pad>	0
</s>	0
<unk>	0
¦	-1.39467
▁¦	-1.39715
ም	-3.52368
▁።	-3.89365
▁፥	-4.07214
በ	-4.37202
ን	-4.42969
የ	-4.55667
▁፤	-4.58223
ና	-4.75835
ከ	-4.96456
ይ	-5.1545
ለ	-5.20913
ት	-5.35016
ወደ	-5.48439
ሁሉ	-5.52051
አ	-5.63125
ው	-5.76157
ንም	-5.78865
ስ	-5.86829
እግዚአብሔር	-5.86902
ተ	-5.89914
እንደ	-5.92946
ያ	-5.96718
ል	-5.97593
ዘንድ	-6.00171
ነው	-6.02343
ላይ	-6.02571
ህ	-6.16877
ግን	-6.20871
▁?	-6.2131
መ	-6.23345
ር	-6.28809
የሚ	-6.30198
ታ	-6.30344
እ	-6.32609
ጊዜ	-6.35007
ነገር	-6.43762
ደ	-6.45539
ብ	-6.49718
ሰ	-6.50221
ስለ	-6.50645
ልጆች	-6.51009
እርሱ	-6.51709
ጋር	-6.53181
ሰው	-6.54591
ልጅ	-6.55819
ች	-6.56548
እኔ	-6.566
ነበር	-6.60647
ውን	-6.65749
ገ	-6.68203
ድ	-6.69852
እንዲህ	-6.74603
ባ	-6.76824
ጥ	-6.77067
ሉ	-6.77683
ዋ	-6.7815
ማ	-6.7875
አል	-6.78832
ጠ	-6.79917
ግ	-6.81451
ሆ	-6.82888
ቀ	-6.8476
በት	-6.85066
ላ	-6.86008
ነ	-6.88
ቀን	-6.90839
ቤት	-6.91368
ፊት	-6.92576
ራ	-6.94704
አለ	-6.94854
ፍ	-6.95598
ረ	-6.95793
ቅ	-6.96964
እን	-6.98436
ኝ	-6.98462
ዳ	-7.0207
ሽ	-7.02239
ሳ	-7.02581
ደግሞ	-7.03187
ቃል	-7.05445
አት	-7.07948
ነበረ	-7.07975
ሁ	-7.08822
ሆነ	-7.10484
ሰዎች	-7.10715
አይ	-7.11285
አንተ	-7.11964
እነሆ	-7.12073
ካ	-7.13295
ፈ	-7.15288
ሲ	-7.16986
ክ	-7.18474
አንድ	-7.18585
ቢ	-7.19464
አለው	-7.19977
ንጉሥ	-7.20536
ጌታ	-7.21632
ወ	-7.22904
ንና	-7.23355
የተ	-7.24382
ይህ	-7.24506
ድረስ	-7.24634
ምድር	-7.24822
ኑ	-7.29219
ወይ	-7.29526
መጣ	-7.31507
ዘ	-7.31849
በዚያ	-7.33371
ሮ	-7.34266
ላችሁ	-7.3435
እስከ	-7.35047
ውስጥ	-7.3608
ዝ	-7.36976
ሊ	-7.38171
ህን	-7.39877
በእግዚአብሔር	-7.4013
እናንተ	-7.40706
ጣ	-7.41066
ውም	-7.41249
አስ	-7.42739
ይላል	-7.42871
ጋ	-7.43721
ቃ	-7.4397
ዓ	-7.44091
እነርሱ	-7.44294
ብሎ	-7.44512
ናቸው	-7.48234
ትን	-7.48564
በኋላ	-7.50283
ዎች	-7.52713
እጅ	-7.53379
ይህን	-7.53939
ወጣ	-7.54121
ቱ	-7.54985
የእግዚአብሔር	-7.55155
መካከል	-7.56015
ስለዚህ	-7.5638
አምላክ	-7.56913
ፋ	-7.58473
ዛ	-7.5958
እንዲ	-7.6071
ቁ	-7.64034
ንጉሡ	-7.64251
ሁለት	-7.64809
ሩ	-7.65759
ለት	-7.6584
ኢየሱስ	-7.65993
ሕዝብ	-7.66285
ዓመት	-7.66507
ቤቱ	-7.67052
ነበሩ	-7.68029
ቡ	-7.71023
ቶ	-7.7144
ሱ	-7.71566
የእስራኤል	-7.72524
ሎ	-7.73321
ምን	-7.75013
ዱ	-7.75031
ይሆናል	-7.7541
አላ	-7.75498
ሸ	-7.7606
እንዲሁ	-7.76721
ከእርሱ	-7.77131
ቆ	-7.78376
ማን	-7.79142
ዋል	-7.7915
ከፍ	-7.79634
አሁን	-7.79713
ሞ	-7.80213
ገባ	-7.80503
ጨ	-7.81279
ዳዊት	-7.8162
እንዳ	-7.81733
መቶ	-7.81986
ሥራ	-7.82118
ክፉ	-7.82777
ጂ	-7.83512
ለሁ	-7.83538
ለው	-7.83902
ላቸው	-7.83942
እነዚህ	-7.84031
ብዙ	-7.8439
እግዚአብሔርን	-7.84824
ቸው	-7.86295
ሌ	-7.87355
ከተማ	-7.87554
አላቸው	-7.87687
መሥዋዕት	-7.8821
አቸው	-7.88762
ስፍራ	-7.88987
ፉ	-7.91348
ዶ	-7.91865
አሳ	-7.91888
ጉ	-7.92977
ሠራ	-7.93398
ደስ	-7.93799
ሪ	-7.9551
መልካም	-7.96361
ህም	-7.9675
ለእግዚአብሔር	-7.9753
ሙሴ	-7.97532
ሻ	-7.98077
የሚያ	-7.98965
ሙ	-7.99434
ለመ	-7.99448
ሬ	-7.99649
ለህ	-7.99882
ያለ	-8.00456
የእግዚአብሔርን	-8.00951
እጅግ	-8.01455
ችሁ	-8.02206
ባቸው	-8.02469
ተው	-8.04173
በምድር	-8.05149
አሕዛብ	-8.05605
ጭ	-8.06723
መንገድ	-8.06901
በሚ	-8.07634
በር	-8.07645
ሺህ	-8.08648
እኛ	-8.08879
ሞት	-8.08899
ባል	-8.09322
ታል	-8.10582
ወር	-8.10803
ነት	-8.11454
ቤ	-8.12065
በዚህ	-8.12119
አለቆች	-8.12306
ጽ	-8.12687
ለች	-8.12727
በእስራኤል	-8.12767
አገር	-8.13608
ሰማ	-8.13995
የምት	-8.14904
ወጡ	-8.15775
ቴ	-8.15949
ነኝ	-8.16168
ኖ	-8.16251
ዘመን	-8.16317
ጐ	-8.17039
ከዚያ	-8.18538
ጫ	-8.18875
እንደሚ	-8.19334
ስም	-8.19448
ኃጢአት	-8.19601
ገና	-8.19736
ሕዝቡ	-8.20271
ጎ	-8.2028
ዕ	-8.20502
ክርስቶስ	-8.20514
በእርሱ	-8.21169
ይሁን	-8.21436
ውኃ	-8.21446
ዋን	-8.21966
ባት	-8.22151
ቹ	-8.22532
ዛሬ	-8.2274
ማል	-8.23524
ጡ	-8.24151
አይደለም	-8.24249
ሃል	-8.24267
ኩ	-8.24559
ብት	-8.24834
ጌ	-8.24877
ሦስት	-8.25389
ያስ	-8.25714
ያል	-8.25799
ታላቅ	-8.25965
እንዳይ	-8.26471
ሥጋ	-8.26772
እርስዋ	-8.2678
አደረገ	-8.27238
ከእነርሱ	-8.27436
ሶ	-8.27619
ሐ	-8.28596
ሌላ	-8.28625
ዩ	-8.28843
ሆኑ	-8.28881
እስራኤል	-8.29229
ለሚ	-8.29327
መጡ	-8.29592
በላ	-8.29955
ሴቶች	-8.30093
መስ	-8.30182
ቦ	-8.30212
ሚ	-8.30468
ወገን	-8.30735
ፊ	-8.30823
ልብ	-8.30851
ጸ	-8.32146
ኤል	-8.32212
ዮ	-8.32411
አሉ	-8.32467
ጕ	-8.32502
ቼ	-8.32795
ዬ	-8.33133
ለዘላለም	-8.33149
አለቃ	-8.33439
ሳኦል	-8.34244
ባለ	-8.34369
ቱን	-8.34689
ሰባት	-8.34706
ሰጠ	-8.35219
ሄደ	-8.35275
ኛ	-8.35472
ኤ	-8.35915
በዳ	-8.36139
ሴት	-8.3644
መረ	-8.36503
ክብር	-8.36588
አሥራ	-8.36976
ሄዱ	-8.37827
ጀምሮ	-8.38072
ቶች	-8.38395
ሕግ	-8.38713
ኛል	-8.39669
ናል	-8.39949
መንፈስ	-8.39968
እንጀራ	-8.40706
ምድረ	-8.40721
እንግዲህ	-8.41077
ፈራ	-8.41276
ትም	-8.41796
ኮ	-8.43029
እየ	-8.43565
ድምፅ	-8.43688
ገዛ	-8.43808
ኔ	-8.4406
በኢየሩሳሌም	-8.44496
ማንም	-8.44573
ልኝ	-8.44995
ደረ	-8.4509
ሄድ	-8.4514
በተ	-8.45199
ሜ	-8.45394
ከእኔ	-8.45764
የለም	-8.46036
አንዱ	-8.46271
ለን	-8.46734
እስኪ	-8.47058
ኖር	-8.47507
በሉ	-8.477
ካህኑ	-8.47902
ከሚ	-8.47926
ክንድ	-8.48268
ከተሞች	-8.48484
አብ	-8.49705
ተኛ	-8.49747
ሃለሁ	-8.50922
በው	-8.50961
ብር	-8.51358
ሥ	-8.51444
ጠራ	-8.51449
ሃ	-8.51451
አጠገብ	-8.51703
ይልቅ	-8.52008
መታ	-8.52362
ብለው	-8.52908
ችን	-8.53588
ያዕቆብ	-8.53676
ተራራ	-8.54335
በታች	-8.54503
ያለውን	-8.54664
አምላክህ	-8.54789
ከዚህ	-8.5481
ሕ	-8.54826
ደር	-8.54981
እንዴት	-8.55037
አምስት	-8.55044
ሀያ	-8.55086
ናት	-8.55226
ሞተ	-8.55498
ሰጥ	-8.55912
ፍሬ	-8.56193
እሳት	-8.56352
ገቡ	-8.56924
በረ	-8.56977
ዕቃ	-8.5704
ከአንተ	-8.58
እውነት	-8.58177
ሆን	-8.5847
በኩል	-8.58809
ኢየሩሳሌም	-8.59019
የሰው	-8.59028
ጠፋ	-8.59161
ይሆን	-8.59217
የማ	-8.59252
ሆነው	-8.59345
ታቸው	-8.59379
በል	-8.5956
አሉት	-8.59731
ናገር	-8.59926
ሴ	-8.60122
ሰብ	-8.60236
አልና	-8.6028
ጃ	-8.60736
ገረ	-8.60824
ወለደ	-8.61352
ቍርባን	-8.61727
ቈ	-8.62136
የተነሣ	-8.6218
የሆነ	-8.62386
ጦ	-8.62667
ይሁዳ	-8.62702
ሰሙ	-8.62857
ሰሎሞን	-8.63054
ታችሁ	-8.63186
ቢሆን	-8.63473
ፍርድ	-8.63591
ብቻ	-8.63711
ላት	-8.63906
ስሙ	-8.64068
ወድ	-8.64344
ደቀ	-8.64384
ደም	-8.64769
ፈር	-8.65029
በመ	-8.65477
ዙ	-8.65885
ኪ	-8.65995
ራስ	-8.66292
ከእስራኤል	-8.66772
አን	-8.67037
ነገሥታት	-8.67143
ሁለቱ	-8.67945
ሳይ	-8.67995
ነገድ	-8.68035
ከተ	-8.68065
ኖሩ	-8.68123
ተስፋ	-8.68245
ውያን	-8.68496
ቤተ	-8.68843
ሹ	-8.68853
ከእግዚአብሔር	-8.69262
ሾ	-8.69606
ፈርዖን	-8.69608
ከእናንተ	-8.69646
መለ	-8.70039
ቅዱስ	-8.70684
ነህ	-8.70718
ዔ	-8.71042
መከራ	-8.7213
የማይ	-8.72459
አራት	-8.72754
ወርቅ	-8.72785
አሮን	-8.73294
ሙሴን	-8.73352
ሆኖ	-8.73787
ሰላም	-8.73857
ኵ	-8.73975
ድንጋይ	-8.7398
ለእስራኤል	-8.74088
ለማ	-8.74293
ትእዛዝ	-8.74728
ዓለም	-8.75179
ቍ	-8.75515
አውራ	-8.75921
አያ	-8.75949
በይሁዳ	-8.76161
አታ	-8.76235
ልጁ	-8.76312
አይሁድ	-8.76623
ኃይል	-8.76624
ቻቸው	-8.76881
▁!	-8.77005
መር	-8.77434
ናችሁ	-8.78471
መሰ	-8.78521
አፍ	-8.78859
ነገ	-8.78969
ቸዋለሁ	-8.79086
ባሕር	-8.79646
ዮሴፍ	-8.80124
ሉት	-8.80259
ዲ	-8.80423
ኢያሱ	-8.80534
ቸውም	-8.80604
ልህ	-8.81233
አብርሃም	-8.81721
ያለው	-8.81754
አንቺ	-8.82085
ዊው	-8.8214
ዘር	-8.82879
የሠራዊት	-8.83193
ሽን	-8.83271
ነግ	-8.83556
ቻ	-8.83791
ተናገረ	-8.83819
ባሪያ	-8.83864
ቱም	-8.84271
ልብስ	-8.84401
ቂ	-8.84509
ኋቸው	-8.84606
ራቸው	-8.84748
በዚያን	-8.84855
ሕዝቡን	-8.85566
ካህናት	-8.85828
ነገሠ	-8.85842
ተዋ	-8.86358
ችው	-8.86401
መንግሥት	-8.86464
አድርጎ	-8.8667
ጥሩ	-8.87056
ያን	-8.87157
ቸ	-8.8718
በእኔ	-8.87399
ድንኳን	-8.87522
ብኝ	-8.87553
ባለው	-8.87884
ሳለ	-8.88069
ለምን	-8.88338
ፍልስጥኤማውያን	-8.88807
ተቀመጠ	-8.88809
ሕይወት	-8.88841
ኪዳን	-8.89254
ገድ	-8.89619
ጀ	-8.89636
ቸዋል	-8.89851
ቀር	-8.89951
ሂድ	-8.90142
አባት	-8.90231
ቍጣ	-8.90489
ምንድር	-8.90642
ሰጠው	-8.91185
ተቀመጡ	-8.91264
አምላካችን	-8.91433
ሰይፍ	-8.91507
ዋጋ	-8.91522
ስማ	-8.9245
እንድት	-8.92665
እያንዳንዱ	-8.92772
ወንድ	-8.9292
ሚስት	-8.93105
ላል	-8.93135
ዴ	-8.93208
ይቀ	-8.93898
ቀው	-8.94092
ካህናቱ	-8.9413
ወንድሞች	-8.94138
ተቀ	-8.94705
ጠጣ	-8.95046
ብላ	-8.95205
መልሶ	-8.95231
ማር	-8.95311
ጆሮ	-8.95645
በግ	-8.95803
ኸው	-8.96405
በእውነት	-8.9642
እርሻ	-8.96468
ሠ	-8.96483
ሰልፍ	-8.96957
ዋለሁ	-8.97172
ተዋል	-8.97298
አባቱ	-8.97851
ራል	-8.97938
ሞላ	-8.98175
ነሣ	-8.98193
የእስራኤልን	-8.98294
ስድስት	-8.98317
ርስት	-8.98565
ቄ	-8.98792
ፈሩ	-8.99402
አድ	-8.99459
ባር	-8.99518
ያዘ	-8.99569
አደረጉ	-8.99752
ሣ	-8.99783
ጌታዬ	-8.99857
እር	-9.00029
በቀ	-9.00284
ፍር	-9.00404
በጎች	-9.00483
ቀረ	-9.00669
መቅደስ	-9.00738
በማ	-9.00827
ሰማይ	-9.00999
ቀኝ	-9.01184
ልን	-9.01547
መሠዊያ	-9.0165
ሕያው	-9.01702
ረድ	-9.01773
እና	-9.01921
ተናገረው	-9.02115
ሁት	-9.02201
ፎ	-9.02718
ጠው	-9.0283
አሥር	-9.02869
ኒ	-9.03184
ዙሪያ	-9.03246
ባሪያህ	-9.03595
ወንዶች	-9.04186
ሠሩ	-9.04271
ራችሁ	-9.0446
ሆንሁ	-9.04589
መጽሐፍ	-9.04691
ምርኮ	-9.04701
ዳርቻ	-9.04735
አለኝ	-9.04754
ጠብቅ	-9.0477
ገኝ	-9.04951
ሌዋውያን	-9.05199
ነቢያት	-9.052
ድን	-9.05406
በፊቱ	-9.05533
በሕይወት	-9.05669
አማልክት	-9.05709
ገል	-9.05727
በእሳት	-9.05733
በቀር	-9.05852
ይዞ	-9.05981
አባቴ	-9.0623
ተነሣ	-9.06494
ስት	-9.06961
ዘው	-9.06962
ተሰ	-9.06967
አምሳ	-9.06968
ቀመጥ	-9.07109
ነፍስ	-9.07438
ቶአል	-9.07456
በጎ	-9.07558
ፌ	-9.07653
ታስ	-9.07719
ሠላሳ	-9.07776
ችኋል	-9.07854
ተኞች	-9.08297
ክፋት	-9.08305
ዘይት	-9.08325
ጣል	-9.08377
ረው	-9.08758
ጠጅ	-9.08928
ቸውን	-9.08997
ደው	-9.09143
አጥ	-9.09308
ዎቹ	-9.09309
ባሪያዎች	-9.09321
ኖች	-9.09361
ቀድ	-9.09373
ጠብቁ	-9.09398
እንኳ	-9.09532
በዛ	-9.09564
በእናንተ	-9.09801
ጥቂት	-9.09888
ቶቹ	-9.09956
ስላ	-9.10033
ቢያ	-9.10086
አዳ	-9.10236
ብርሃን	-9.10423
ያደርጉ	-9.10429
እርስ	-9.10473
ጨለማ	-9.10486
ዛፍ	-9.10505
በሩ	-9.10733
ቹን	-9.10795
ያደርግ	-9.11067
አሰ	-9.11286
ውጭ	-9.11553
ላከ	-9.12034
መዛሙርቱ	-9.12043
ቅን	-9.12081
ኤፍሬም	-9.12591
ነበረች	-9.12883
የወይን	-9.12942
ልጄ	-9.13846
ኢ	-9.14016
ኛው	-9.14133
ቤቶች	-9.14304
ጣሉ	-9.14461
የይሁዳ	-9.14563
ሽም	-9.14805
ወሰደ	-9.1483
ድል	-9.14901
ወዴት	-9.15933
ውጣ	-9.15941
ፀሐይ	-9.16501
ሰጣቸው	-9.16544
ሳል	-9.16549
ጻ	-9.16692
ሰባ	-9.16749
ሥርዓት	-9.17073
በአንተ	-9.17141
ወገ	-9.17471
ሞዓብ	-9.17648
ሽማግሌዎች	-9.17668
ጅ	-9.17967
ንኳ	-9.18161
በአ	-9.18198
ጊ	-9.18216
መቅደሱ	-9.18225
እህል	-9.18242
ዞ	-9.18259
ደረግ	-9.18271
ችኋለሁ	-9.18481
አምላካችሁ	-9.18807
እንጨት	-9.18809
መለከት	-9.18818
ፋንታ	-9.18837
እያ	-9.18927
ለአንተ	-9.19043
ብን	-9.19187
ዳር	-9.19223
ካል	-9.19373
ቋ	-9.19391
በደል	-9.19571
ሻል	-9.19763
በአንድ	-9.19964
አምላኬ	-9.1998
ጽዮን	-9.19981
ዘረጋ	-9.19981
ምሳሌ	-9.1999
ልፎ	-9.20036
ሳን	-9.20392
መለሰ	-9.2073
ባችሁ	-9.20806
ነፋስ	-9.20811
ዳን	-9.20997
ሰጡ	-9.21058
ሌሊት	-9.21096
ወንድሞቹ	-9.21167
ይሆናሉ	-9.21167
ሁልጊዜ	-9.21769
ትንቢት	-9.21771
እንዲሆን	-9.21864
ጽድቅ	-9.21976
ዚ	-9.22054
ጥበብ	-9.22085
ጥፋት	-9.22106
ሁም	-9.22146
በደ	-9.22248
ዖ	-9.22363
ብንያም	-9.22378
ታው	-9.22568
ልክ	-9.22763
ራት	-9.22842
ጉባኤ	-9.22974
ፈው	-9.23059
አርባ	-9.23077
እንዳለ	-9.23139
ልት	-9.2337
ራሱን	-9.23462
ጢ	-9.23583
አድርግ	-9.23589
ያህል	-9.23786
ጠላ	-9.24122
ጳውሎስ	-9.24197
አመጣ	-9.2427
ጩ	-9.24814
አልተ	-9.25075
በሰይፍ	-9.25341
መካ	-9.25388
ከማ	-9.25429
አባቶቻቸው	-9.25436
እጄ	-9.25482
ቴን	-9.25655
ሰፈሩ	-9.25772
ቀመጡ	-9.2581
ግባ	-9.25867
በሰ	-9.25947
ጴጥሮስ	-9.26061
ልና	-9.26214
ይመጣል	-9.26706
ይገባ	-9.26743
ኸኝ	-9.26791
የምድር	-9.26845
አወጣ	-9.26881
መጥ	-9.26921
በፊትህ	-9.27576
ታለሁ	-9.27644
ጓ	-9.27647
ጸና	-9.27857
ዳቸው	-9.27861
ረዳ	-9.27882
ጻድቅ	-9.27959
ወዲህ	-9.2796
ስብ	-9.27984
ጠብ	-9.2801
እንዳት	-9.28071
እንዳል	-9.28445
ኰ	-9.286
ንጹሕ	-9.28601
ዓይን	-9.2877
ከንቱ	-9.28809
መልስ	-9.28964
ሠራዊት	-9.28966
ግድ	-9.29224
መጀመሪያ	-9.29237
ምልክት	-9.29271
ምናሴ	-9.29296
ድር	-9.29548
የአ	-9.29598
ማለ	-9.29618
ከመ	-9.29653
ተጻፈ	-9.29856
ሊያ	-9.30034
በድ	-9.3016
መው	-9.30173
ከሰማይ	-9.30191
ወራት	-9.30232
ባሉ	-9.30368
እጁን	-9.305
ዜ	-9.30538
መልአክ	-9.30548
ወንዝ	-9.30557
ያጠፋ	-9.30591
መጠን	-9.30616
እንድ	-9.3079
ቆሙ	-9.30867
ለእኔ	-9.31036
ወጥቶ	-9.31157
አደባባይ	-9.31274
እስ	-9.31475
ተወ	-9.31738
እግር	-9.31873
በትን	-9.31891
ብል	-9.31965
ሳሉ	-9.32275
ሁለተኛው	-9.32287
ደረሰ	-9.32331
መለስ	-9.32383
ኤርምያስ	-9.32535
ሰማያት	-9.3256
ዕጣ	-9.32673
እናቱ	-9.32925
ነበሩት	-9.32937
አየሁ	-9.32943
ተናገር	-9.32969
ቅዱሳን	-9.33207
ሳት	-9.33514
ደስታ	-9.33518
ይቱ	-9.33523
ዐ	-9.33882
ምስጋና	-9.33883
ሺ	-9.34244
የምታ	-9.34365
ይጠ	-9.34471
ታቦት	-9.34565
ልቤ	-9.3464
ዘዝ	-9.34674
ጆ	-9.34747
ለእርሱ	-9.34901
ኝም	-9.35017
እንዲያ	-9.35086
ነቢዩ	-9.35248
መጥቶ	-9.35273
ማረ	-9.35326
በንጉሡ	-9.35347
በሬ	-9.35396
ላቸውም	-9.35497
ከምድር	-9.35504
ከተማይቱ	-9.35907
ብዛት	-9.35941
ምስክር	-9.35943
ስሜ	-9.35945
ጸጋ	-9.36104
ዋለህ	-9.36144
ያወጣ	-9.36276
ዘመ	-9.36316
ዬን	-9.36324
ተጠ	-9.36341
ዝም	-9.3639
ያሉ	-9.36471
ኅ	-9.36551
ራለሁ	-9.36623
ኢዮአብ	-9.36631
ርኩስ	-9.36634
ፍቅር	-9.36737
ሙት	-9.36931
ወረደ	-9.36981
መልክ	-9.36986
ልጆቹ	-9.37205
ሚያ	-9.37263
ሳሙኤል	-9.37331
በትም	-9.3735
ኋችሁ	-9.37354
ማት	-9.37402
ረገ	-9.37568
አው	-9.37698
ወዳ	-9.37826
ፈረ	-9.37894
ታችን	-9.38217
ጠር	-9.38298
ለኝ	-9.38303
በቅ	-9.38614
ፈጽሞ	-9.38744
እስራኤልን	-9.38847
ሕዝቤ	-9.39279
ሄ	-9.39506
አንዳች	-9.39621
ወይን	-9.39631
ቅጥር	-9.3964
ራብ	-9.39712
ሮች	-9.39732
በእነርሱ	-9.39741
ዊ	-9.39785
ባቢሎን	-9.40016
ሞቱ	-9.40134
ተራሮች	-9.40186
ይፈ	-9.40199
ቻለሁ	-9.40302
ያዩ	-9.40354
ልዩ	-9.40768
ሸለቆ	-9.40891
ትውልድ	-9.40903
አስቀድሞ	-9.40951
ጠጡ	-9.40982
ገደለ	-9.41124
እርሱን	-9.4126
ለእናንተ	-9.41309
ጥላ	-9.41314
ከእኛ	-9.41332
ብዬ	-9.41345
ታላቁ	-9.41634
ወስዶ	-9.41634
ፈጥ	-9.41708
ከእንግዲህ	-9.42082
ብለህ	-9.42272
እላችኋለሁ	-9.42442
በሰማይ	-9.42465
ወዮ	-9.42587
ማታ	-9.42847
ባይ	-9.42915
ጽና	-9.43115
ታቸውን	-9.43141
ሰቅል	-9.432
ስን	-9.43267
ግብጽ	-9.43375
ወጥ	-9.43419
ቲ	-9.43855
የመ	-9.43897
ድሀ	-9.43931
አር	-9.44005
በታላቅ	-9.44218
በታል	-9.44264
ዳል	-9.44368
ዘን	-9.44507
ሩት	-9.4453
ኦ	-9.44605
ዮሐንስ	-9.44607
ዎቹን	-9.44702
ቆመ	-9.44765
ተናገሩ	-9.45077
ወግ	-9.45277
ሌሎች	-9.45323
አችሁ	-9.45344
ሕዝቅያስ	-9.45364
ይስሐቅ	-9.45364
ገለዓድ	-9.45364
በግብፅ	-9.45609
አለሁ	-9.4598
እንደዚህ	-9.46129
ላችኋል	-9.46588
በአሕዛብ	-9.46634
ባቸውን	-9.46909
ወደደ	-9.46959
ተመለሱ	-9.47085
ሞች	-9.47473
ተነሥቶ	-9.47511
በእጁ	-9.47734
ፋቸው	-9.47972
ጦር	-9.48109
ይህች	-9.48196
ኬ	-9.48453
እውቀት	-9.48453
ነበረው	-9.48465
አልነበረም	-9.48496
ያደርጋል	-9.48562
ቻችሁ	-9.4897
የነበረውን	-9.49067
ፈስ	-9.4913
የወርቅ	-9.49138
ሔ	-9.49233
ምክንያት	-9.49241
እንስሳ	-9.49248
ደርገው	-9.4925
ሸሸ	-9.49293
ነቀ	-9.49318
ችም	-9.49563
ወቅ	-9.49951
ራሉ	-9.50017
ነፍሴ	-9.50227
ገዙ	-9.50326
ከቶ	-9.50826
እነዚያ	-9.50834
ጡት	-9.5086
መጥተው	-9.50878
ጠቅ	-9.50965
አልሁ	-9.51004
አለች	-9.51098
ደሙ	-9.51207
የተቀደሰ	-9.51539
መለሱ	-9.51606
ፈቃድ	-9.51641
ክፍል	-9.51644
ዮናታን	-9.51654
ፍረ	-9.52045
ብህ	-9.52201
ሳቸው	-9.52405
ረግ	-9.52415
መንገዱ	-9.52454
ጣት	-9.52975
ራሱ	-9.53024
ልቡ	-9.53579
እነዚህን	-9.53772
ጤ	-9.541
ሚስቱ	-9.54441
እኔን	-9.54736
ሴቲቱ	-9.54933
ስምዖን	-9.54935
ቍጥር	-9.54949
ያሳ	-9.54982
በላይ	-9.55046
ጠል	-9.55536
ከግብፅ	-9.55548
ይቅር	-9.55593
ምድሪቱ	-9.55671
ልብህ	-9.55675
ይኖራል	-9.55774
ተቀምጦ	-9.55774
ባድማ	-9.55776
አደርጋለሁ	-9.55786
መንጋ	-9.55849
ባየ	-9.55986
ወለደች	-9.56011
ባሪያዎቹ	-9.56133
የሆነውን	-9.56192
ላቸዋል	-9.56462
የሚያስ	-9.5659
አንዲት	-9.56621
አዘዘ	-9.56644
ጥር	-9.56832
ጽኑ	-9.56908
በእርስዋ	-9.56999
ይዘው	-9.57296
ወገኖች	-9.57492
ኋላ	-9.57526
ተመለሰ	-9.57569
ደድ	-9.57594
ያውቁ	-9.57599
ጠባ	-9.57655
ነገሩ	-9.57991
ጽዋ	-9.5807
ኸ	-9.58128
ዳዊትን	-9.58194
አባትህ	-9.58307
ፈልጉ	-9.58344
አድርጉ	-9.58345
ለቀ	-9.5845
በሰው	-9.58821
በመንገድ	-9.58892
ማለሁ	-9.58963
ብረት	-9.59196
አንበሳ	-9.59212
ሐሰት	-9.59216
ነጻ	-9.59365
ተራ	-9.59371
ሶች	-9.59506
ቃሉ	-9.59538
ደመና	-9.59596
ዎ	-9.59673
ብዙዎች	-9.59695
ወደቀ	-9.59711
ጕድጓድ	-9.60085
ለቅ	-9.6029
ንስ	-9.60613
ጥል	-9.60734
ሁህ	-9.60815
ፈታ	-9.60964
መስፈሪያ	-9.60967
ፈት	-9.60975
አሳብ	-9.6104
ቆሞ	-9.61224
ወሩ	-9.61439
ምሕረት	-9.61505
ብረ	-9.61753
መብል	-9.61848
ላሉ	-9.61862
ወንጌል	-9.61862
ሰል	-9.61869
ዘጋጀ	-9.61875
በአንድነት	-9.61913
በሌሊት	-9.6197
በመሠዊያው	-9.62054
ሣር	-9.6221
ኃ	-9.62339
የሠራ	-9.62375
በክርስቶስ	-9.62577
ጠሉ	-9.62722
ገንዘብ	-9.62763
ቀድሞ	-9.62774
ኙ	-9.62834
ዘላለም	-9.62977
ተብሎ	-9.63112
ጁ	-9.63148
ሌላው	-9.63164
ሖ	-9.63672
አቤሴሎም	-9.63672
በፊቴ	-9.63674
የዘላለም	-9.63821
ሁላችሁ	-9.63825
አየ	-9.63836
ብራ	-9.63959
ጌታችን	-9.64214
ወረ	-9.64256
ሕዝብህ	-9.64352
ባልንጀራ	-9.6445
ነን	-9.64577
መቱ	-9.64605
ማዶ	-9.647
ሳለሁ	-9.64731
ቆመው	-9.648
አመጡ	-9.65099
ልኮ	-9.65869
ተህ	-9.65902
ሃቸው	-9.66011
ምድርን	-9.66166
ኃያላን	-9.6645
ልብሱን	-9.66458
ጭፍራ	-9.66479
ራሳቸው	-9.66721
ብርቱ	-9.66916
ማናቸው	-9.66917
ጠፉ	-9.6718
በቤቱ	-9.67297
ጋድ	-9.67303
ልሃል	-9.67373
አቸውም	-9.67378
ዕድሜ	-9.67394
ሂዱ	-9.67413
ነቅ	-9.67452
ማቸው	-9.67588
ቀረበ	-9.67651
በውኃ	-9.67766
በረታ	-9.67784
አድርገው	-9.67828
ፈርድ	-9.68035
ያሉትን	-9.68037
ምሥራቅ	-9.68056
ግብፅ	-9.68294
መጣው	-9.68314
ኃጢአተኞች	-9.68346
መቃብር	-9.68358
ገኙ	-9.6853
አድርገ	-9.68676
ለሽ	-9.68929
ጠርቶ	-9.69276
ልጆቻቸው	-9.69308
በኣል	-9.6931
ኤልያስ	-9.6942
እናት	-9.69431
ችሁን	-9.69543
ነፍ	-9.69731
ይዘ	-9.69749
ኃጢአትን	-9.69755
ነውር	-9.69868
ቀባ	-9.69963
እምነት	-9.70008
ጹ	-9.70275
የሚቃጠለውን	-9.70278
ደኅንነት	-9.70278
ወደዚህ	-9.7028
ማድረግ	-9.70281
ብታ	-9.70296
ቸዋለህ	-9.70484
ያዝ	-9.7053
ለንጉሡ	-9.70663
ይሠራ	-9.70872
ያላ	-9.71084
ሠራው	-9.71185
በትር	-9.7123
አራተኛው	-9.71259
ኢዮርብዓም	-9.71259
ጮኹ	-9.71259
ወሰዱ	-9.7126
ጠሩ	-9.7128
ቦታ	-9.71296
ምድሩ	-9.7136
ወርዱ	-9.71476
ጋሻ	-9.71593
ቀበል	-9.71648
ማደሪያው	-9.7165
ኛለህ	-9.71955
የነበሩትን	-9.7199
ሁለቱን	-9.72024
ቀና	-9.72254
ኪያ	-9.72315
ሸሽ	-9.72331
ከይሁዳ	-9.72355
ሠር	-9.72393
በባሕር	-9.72459
ብሩ	-9.72708
ትሆን	-9.72771
ማስ	-9.72816
ሥራው	-9.72861
ሩቅ	-9.72883
ነቱ	-9.72973
ቶቻቸው	-9.73029
አሕዛብን	-9.73069
ካህን	-9.73114
በመካከላቸው	-9.73249
አልዓዛር	-9.73249
ፈቀቅ	-9.7325
ታደርጉ	-9.73265
ቀል	-9.73328
ይሰማ	-9.73423
አደርግ	-9.7357
እያሉ	-9.73716
ተረ	-9.73748
ቃችሁ	-9.73865
ራሴ	-9.74066
ለዋል	-9.74226
ፀ	-9.74259
ዔሳው	-9.74264
ውሰድ	-9.74274
ማዕ	-9.74303
ቃቸው	-9.74412
ሠዋ	-9.74466
ሻለሁ	-9.74495
ክር	-9.74569
በፊት	-9.74663
መልሳ	-9.74702
ችሁም	-9.74736
ነገረ	-9.74838
ላለች	-9.74897
ወዲያ	-9.74962
የሆኑ	-9.7504
ኖረ	-9.75171
ርኵሰት	-9.75279
ልቅሶ	-9.75283
መሬት	-9.75305
ሰደደ	-9.75317
ደዌ	-9.7538
ወስዳ	-9.75446
ሆነች	-9.75461
ገብ	-9.75526
ያውቅ	-9.75549
ቀኑ	-9.75764
በዙ	-9.7581
ልባችሁ	-9.75955
በሕዝቡ	-9.76109
አንገ	-9.7613
ይወ	-9.76214
ገር	-9.76215
በዙሪያው	-9.7634
አህያ	-9.76366
ሐናን	-9.76378
ሪያ	-9.76536
ሰማርያ	-9.76596
ቆም	-9.76642
ደጅ	-9.76783
ለሕዝቡ	-9.76842
ማደሪያ	-9.76938
ረዱ	-9.77022
አለችው	-9.7703
በቃ	-9.77063
መቼ	-9.77141
ያሉት	-9.77159
ለታል	-9.77173
ሰባቱ	-9.77338
ኃጢአተኛ	-9.77352
ጾ	-9.77352
ታውቃላችሁ	-9.77352
ዙፋን	-9.7737
ማለዳ	-9.77576
ዘጋ	-9.77625
ወዲያው	-9.77678
ቦች	-9.77696
ቃሉን	-9.77731
ውጡ	-9.77755
የባቢሎን	-9.77839
ርቅ	-9.78056
መሠዊያው	-9.78282
ወደሚ	-9.78378
ከነዓን	-9.78405
ሰዓት	-9.78413
ነቢይ	-9.78423
በዓል	-9.78445
ስምንት	-9.78453
ስጡ	-9.78469
ጮኸ	-9.78619
ሥር	-9.78679
ላቸውን	-9.78702
ዘራ	-9.78743
ሰዎቹ	-9.79019
የዳዊት	-9.79034
የሚል	-9.79104
ለዳዊት	-9.79145
አቸዋል	-9.79279
ወቁ	-9.79457
አገኘ	-9.79469
አራቱ	-9.79509
ቶቻችሁ	-9.79518
የቀረው	-9.79568
ግራ	-9.79583
ሠራዊቱ	-9.79662
ባሪያዎችህ	-9.79677
ጠላት	-9.79754
መንግሥቱ	-9.79872
ቈር	-9.80074
ቀስ	-9.80107
ወርድ	-9.80144
ችንን	-9.80151
ፍርድን	-9.802
ገኛ	-9.80325
በጌታ	-9.8037
አንዱን	-9.80429
መጋረጃ	-9.80544
ጻድቃን	-9.80544
ፍጻሜ	-9.80544
ተገኘ	-9.80544
መለከቱ	-9.80557
ሁትን	-9.8056
ነካ	-9.80583
በብዙ	-9.80656
ቻቸውን	-9.80709
በምት	-9.80878
ቻችን	-9.80936
ወንድም	-9.80958
ውኃው	-9.81166
አንተን	-9.81174
በፍጹም	-9.81414
ምክር	-9.8159
በኢየሱስ	-9.81619
ሥልጣን	-9.81631
ወፎች	-9.81631
ስጦታ	-9.81652
ተደረገ	-9.81659
በርሳቸው	-9.81677
ቀርብ	-9.82022
ወሬ	-9.82082
የያዕቆብ	-9.82119
ይሁኑ	-9.82303
ራስህ	-9.82548
አክዓብ	-9.8273
አራዊት	-9.8273
በእጅህ	-9.82775
ታለች	-9.82926
አባቶች	-9.83183
የነበሩት	-9.83203
ፍራ	-9.83274
ሥሩ	-9.83296
ግፍ	-9.83371
የነበሩ	-9.83378
ያልፍ	-9.83401
ስምህ	-9.83506
በልቡ	-9.83508
ታመን	-9.83604
ኤላ	-9.83704
ያደረገ	-9.83711
ሞገስ	-9.83846
ቸርነት	-9.83862
ቅድስ	-9.83891
ጥፍ	-9.83891
ጋት	-9.83966
ፍየል	-9.84061
ይላሉ	-9.8458
ዳችሁ	-9.84813
እጃቸው	-9.84825
በከንቱ	-9.84927
በላቸው	-9.84945
አድርጌ	-9.84956
ፍርሃት	-9.84965
ድንኳኑ	-9.84965
ከእርስዋ	-9.84986
በአሥራ	-9.8499
በረከት	-9.84998
ያዙ	-9.8509
ዕለት	-9.85226
ገደሉ	-9.85291
ተነ	-9.85314
ሁኑ	-9.85354
ኤሊ	-9.85555
በፊታቸው	-9.85735
ነፍሴን	-9.85847
ስፍራው	-9.86078
ባትም	-9.86093
መጨረሻ	-9.86101
ምዕራብ	-9.86102
ወደዚያ	-9.86103
እግሩ	-9.86106
ራእይ	-9.8612
ጀመረ	-9.86163
ራሳችሁ	-9.86193
ምድሪቱን	-9.86239
ራራ	-9.86364
የሚገባ	-9.86573
መሰምርያዋ	-9.86594
በሰማ	-9.86668
ልባቸው	-9.86696
ጣቸው	-9.86729
በራሱ	-9.86732
ደግ	-9.8691
መቅ	-9.86951
ይህችን	-9.87027
ሶርያ	-9.87236
ኤዶምያስ	-9.8725
ፊተኛው	-9.87252
ቅርብ	-9.87416
አፌ	-9.87522
ሜዳ	-9.87624
ቻለ	-9.87635
አሜ	-9.87653
ለሰው	-9.87972
ሰፈር	-9.87974
ሙሉ	-9.88002
ልሃለሁ	-9.88137
ደርስ	-9.88158
ፈሪሳውያን	-9.88413
ተገለጠ	-9.88414
ሮቤል	-9.88414
አዲስ	-9.88418
ሐማ	-9.88514
ልጁን	-9.88634
እጁ	-9.88637
ዮች	-9.88693
ተሰበሰቡ	-9.88793
የብር	-9.88884
በእኛ	-9.8895
ደርግ	-9.88975
ሊቀ	-9.89145
ተራራው	-9.89505
ጆች	-9.89516
ናቡከደነፆር	-9.89589
ጪ	-9.89589
በኵር	-9.89597
ተዉ	-9.89636
በሬዎች	-9.89687
ግንብ	-9.89725
ካለው	-9.89749
ታደርግ	-9.89914
ሆናችሁ	-9.89929
አጠፋ	-9.89935
ነሡ	-9.8998
በዳዊት	-9.90241
የዚያን	-9.90374
በዮርዳኖስ	-9.90446
በመንፈስ	-9.90513
ሰሜን	-9.9073
አባቶቻችሁ	-9.90781
ቅር	-9.90807
ይወጣል	-9.90818
ቢኖር	-9.91098
ሰጥቶ	-9.91424
ሚችል	-9.91798
ሡ	-9.91876
ዘሩ	-9.91911
ኃጢአታቸው	-9.91985
ሰረገላ	-9.91985
ጮኽ	-9.91985
ገለጥ	-9.92001
ዳንኤል	-9.92052
አገሩ	-9.92152
ያለሁ	-9.92284
ሁለተኛ	-9.92545
ወንድሙ	-9.93141
አውቃለሁ	-9.93204
መልኩ	-9.93208
ፈረሶች	-9.93216
ኢየሱስን	-9.93276
በስተ	-9.93406
ድያ	-9.9348
ተነሡ	-9.94141
ማሉ	-9.94349
ሦ	-9.94424
ዘወትር	-9.94439
ያገለግሉ	-9.94439
መግቢያ	-9.9444
ዘጋጅ	-9.94451
ንጉሡን	-9.94508
አሦር	-9.94625
አገባ	-9.9468
አሮንን	-9.94727
እሰ	-9.95075
በሰባተኛው	-9.95183
ሳችሁ	-9.95222
የነበረው	-9.95268
ገሊላ	-9.9569
ፈልግ	-9.95705
ወዳለው	-9.95763
ከሕዝቡ	-9.95965
ታውቁ	-9.95982
ክሩ	-9.96082
ኖረው	-9.96115
ላለሁ	-9.9612
ቤትህ	-9.96359
አረ	-9.96744
ፈንታ	-9.96945
ሦስቱ	-9.96956
ጠቦት	-9.9696
ቃሌን	-9.9697
ማስተዋል	-9.96977
ዝናብ	-9.96982
ገደል	-9.96994
በፍታ	-9.97007
የሚሆን	-9.97011
ቀርቦ	-9.97028
ሚዛን	-9.97185
ተነሥ	-9.97201
የሰማይ	-9.97204
ዳሩ	-9.97282
ወፍ	-9.97318
ግቡ	-9.9746
ኋት	-9.97482
ሩን	-9.97508
ቍጣው	-9.97755
ካሉ	-9.97793
ርፍ	-9.97976
ተሸ	-9.97992
ነፋ	-9.98093
መድኃኒት	-9.98237
አባቶቻችን	-9.98237
ኢዮሣፍጥ	-9.98237
ቀላ	-9.98278
ሰነፍ	-9.9852
ኢያ	-9.9867
ልጆቹን	-9.98749
ባላ	-9.98771
ታዩ	-9.98795
ባዩ	-9.98862
ክፈ	-9.99442
ከለዳውያን	-9.99535
ምሕረቱ	-9.99535
ሰረገሎች	-9.99535
ፋሲካ	-9.99536
ሸሹ	-9.99694
ወራ	-10
ሙታን	-10.0018
ነድ	-10.004
ጮ	-10.0058
ከግብጽ	-10.0077
ማኅበሩ	-10.0085
አባቱን	-10.0086
የዚህ	-10.0091
መገናኛው	-10.0091
ሌዊ	-10.0092
ያመጣ	-10.0098
ወንድምህ	-10.0108
ኢየሩሳሌምን	-10.0113
ፈቱ	-10.0115
አይቶ	-10.014
እየተ	-10.0149
ብላቴናው	-10.0149
ጽድቅን	-10.0157
ሰማሁ	-10.0191
በከተማይቱ	-10.0196
ራቁ	-10.0215
ጠጕር	-10.0219
ጸሎት	-10.0219
ዝግባ	-10.0232
ቀርበው	-10.0233
ተቀመጥ	-10.0251
ለእነርሱ	-10.0268
ገብቶ	-10.0276
ቅል	-10.0293
ነገረው	-10.0314
ወይኑ	-10.0324
ቈረ	-10.0336
ራቅ	-10.0346
ጣፋጭ	-10.0354
እባክ	-10.0354
የቀሩት	-10.0355
ጠራው	-10.0359
ትሆናለች	-10.0364
ሕጉ	-10.037
ይሰጣል	-10.0375
ዶች	-10.0385
ስጥ	-10.0399
ሥራቸው	-10.0402
ቀጥ	-10.041
ባሪያዬ	-10.0417
ይሆኑ	-10.0417
ስለሚ	-10.0427
እንቢ	-10.0447
ቀረቡ	-10.0467
ጣችሁ	-10.0486
ልጆቻችሁ	-10.0491
መላእክት	-10.0491
ዳግመኛ	-10.0491
ዓመፃ	-10.0491
አሳልፌ	-10.0491
ደጃፍ	-10.0491
ስድሳ	-10.0491
ሕልም	-10.0495
ናገሩ	-10.0523
ቤቴል	-10.0526
ወድድ	-10.0542
ለኃጢአት	-10.0564
በደቡብ	-10.0597
ዮስ	-10.0601
በሁለተኛው	-10.0617
አታል	-10.0622
ሊባኖስ	-10.0629
አገልግሎት	-10.0629
ኬብሮን	-10.0629
ባሕሩ	-10.063
ዛፎች	-10.063
ክብሩ	-10.0641
አልጋ	-10.0648
ሰንበት	-10.0656
ታችሁን	-10.0671
ታውቅ	-10.0675
የተሠራ	-10.0683
ማርያም	-10.0695
ልመና	-10.0702
ሰምቶ	-10.0726
በሉት	-10.0731
ጋችሁ	-10.0755
ሆንህ	-10.0764
አምላካቸው	-10.077
ዙፋኑ	-10.0771
ወንዙ	-10.0771
ቅሬታ	-10.0772
አምላኩ	-10.0772
እልል	-10.0773
አውሬ	-10.0778
እንዳዘዘው	-10.08
ስላል	-10.0811
የታመነ	-10.0812
ታላችሁ	-10.0819
ዕጣን	-10.083
ሰጠኝ	-10.0832
ሦስተኛው	-10.0837
አፈር	-10.0842
ማኅበር	-10.0913
ሲኦል	-10.0913
አለቆቹ	-10.0913
ለሚቃጠል	-10.0922
ባዶ	-10.0937
ሽቱ	-10.0954
ስሙን	-10.0964
ያችሁ	-10.0964
ሆድ	-10.0978
የበግ	-10.0991
የይሁዳን	-10.1
በግብጽ	-10.1015
ቃልህ	-10.1022
ተባለ	-10.1048
የሚኖሩ	-10.1051
ዝር	-10.1052
አሞራውያን	-10.1058
ዘጠኝ	-10.1058
ተነሥተው	-10.1062
ጀመር	-10.1063
እንድን	-10.1064
በእምነት	-10.1103
ዱር	-10.111
ወስደው	-10.112
ባልዋ	-10.1134
ሥጋው	-10.1135
እጅህን	-10.1148
ሽታ	-10.1155
ሳለች	-10.1156
መባ	-10.1163
ለዚህ	-10.1177
እውነተኛ	-10.1205
ጩኸት	-10.1205
እንዳደረገ	-10.1205
ሴኬም	-10.1205
ያውቃሉ	-10.1205
ምናልባት	-10.1206
ደኅና	-10.1206
ነፍስህ	-10.1206
አሳልፈ	-10.1211
ሬሳ	-10.1213
ድንበር	-10.1216
ይቱን	-10.1252
ወስድ	-10.1257
ተክ	-10.1278
ምስል	-10.1284
መሥዋዕ	-10.1287
ተማረ	-10.1316
አዝ	-10.1316
በሮች	-10.1323
የአገሩ	-10.1335
ሽማግሌ	-10.1349
ኃጢአቱ	-10.1354
ዪ	-10.1354
ድሆች	-10.1356
ታናሽ	-10.1368
በአንቺ	-10.137
ክራ	-10.1372
ዓሣ	-10.1373
ገራቸው	-10.1389
የተቈጠሩ	-10.1399
ማዳን	-10.1407
የሚያደርግ	-10.1411
ያመጡ	-10.1428
ነፍሱን	-10.145
ጠበቅ	-10.1469
መልካሙን	-10.1506
እንስሶች	-10.1506
ዱቄት	-10.1506
መሐላ	-10.1506
ጠቢብ	-10.1506
ኀዘን	-10.1506
ሰማያዊ	-10.1507
ነቱን	-10.1509
ጠባቂ	-10.1509
ወጥተው	-10.1513
በጽድቅ	-10.1522
ፈሰሰ	-10.1529
ጥፋ	-10.1545
ምንጭ	-10.1569
ድንቅ	-10.1571
ሰላምታ	-10.1582
ወስደ	-10.1597
ታችኋል	-10.161
ናታን	-10.1625
በሦስተኛው	-10.1643
በመገናኛው	-10.1653
ኪሩቤል	-10.166
አንደኛው	-10.166
ወንድሞቻቸው	-10.166
እሰጣለሁ	-10.166
ተናገራቸው	-10.166
ተናገርሁ	-10.1662
የሚሆነውን	-10.1663
ኢዩ	-10.1667
አይሆንም	-10.1667
አድርጋ	-10.1671
ያቸው	-10.1678
እላለሁ	-10.1682
ቂጣ	-10.1683
ሠሩት	-10.1683
በምሥራቅ	-10.1711
የንጉሡን	-10.1713
ነቴ	-10.1714
ፈረሰ	-10.1717
ማለት	-10.1733
ልሽ	-10.1742
ችውን	-10.1748
ፈጸም	-10.176
አልሰማ	-10.1774
ኸውን	-10.1802
ሌዋውያኑ	-10.1816
ሴዴቅያስ	-10.1816
አምስተኛው	-10.1816
ርዝመቱ	-10.1816
አእምሮ	-10.1816
ወጥመድ	-10.1816
ወይፈን	-10.182
አብራም	-10.1821
የከበረ	-10.1821
ሆኖአል	-10.1822
ያደረገውን	-10.1835
ከኢየሩሳሌም	-10.1846
ፍጹም	-10.1848
ክፉዎች	-10.1873
ስድብ	-10.1925
ሀ	-10.1928
በባቢሎን	-10.1937
ሱት	-10.1946
ዓይንህ	-10.1947
ተባት	-10.195
በሰንበት	-10.196
ስማቸው	-10.1964
ረፈ	-10.1967
በደስታ	-10.1968
ኢያሪኮ	-10.1975
a	-10.1975
አበኔር	-10.1975
እሄዳለሁ	-10.1975
እንግዶች	-10.1975
እንግዳ	-10.1975
ፈቀደ	-10.1976
ተራራማው	-10.1976
ፈጠረ	-10.1977
በመጀመሪያው	-10.1977
በሰሜን	-10.1985
ላደረገ	-10.1985
ሌሎችን	-10.1987
ያደረግ	-10.1987
መልከ	-10.1988
ጻፍ	-10.2002
እስክ	-10.2025
ሰቡ	-10.2062
ይለዋል	-10.2071
ጣለሁ	-10.2084
እያለ	-10.2116
ከፈተ	-10.2127
ግብፃውያን	-10.2136
መክሊት	-10.2136
ክርስቲያን	-10.2136
ጠላቶቼ	-10.2136
ትዕቢት	-10.2136
ጠቦቶች	-10.2136
ደማስቆ	-10.2136
በለዓም	-10.2136
ግምጃ	-10.2139
ንስሐ	-10.2144
ባቸዋል	-10.2146
በሜዳ	-10.2152
በላዩ	-10.2154
አቸውን	-10.2154
አኖረ	-10.2181
ቸር	-10.2205
እለምን	-10.2207
ተመልሶ	-10.2234
አነሣ	-10.226
እንዳዘዘ	-10.2266
ራሳቸውን	-10.2272
ጨው	-10.2276
ላባ	-10.2288
ቤቴ	-10.2294
ሑ	-10.23
በየወገናቸው	-10.23
አመስግኑ	-10.23
አጋንንት	-10.23
ደብዳቤ	-10.23
ኢዮብ	-10.23
ሐሤት	-10.23
ውኆች	-10.23
ሕያዋን	-10.23
ጠላቶቻቸው	-10.2302
መጠጥ	-10.2305
ኖኅ	-10.2307
የሚቃጠል	-10.2316
ዘመኑ	-10.2317
ወረዱ	-10.2319
በልባቸው	-10.2338
ደቡብ	-10.2339
ከተማይቱን	-10.2351
አይተው	-10.2379
ነታቸው	-10.238
ጥበብን	-10.2392
ሒ	-10.2467
መቅሠፍት	-10.2467
በእርግጥ	-10.2467
ተጽፎአል	-10.2467
ዕረፍት	-10.2467
መታሰቢያ	-10.2467
ዓመፅ	-10.2467
ወልድ	-10.2469
በላያቸው	-10.247
አስነሣ	-10.2488
ወድቅ	-10.2514
ላክ	-10.2523
አምባ	-10.2531
አቀረበ	-10.2534
ጠየቀ	-10.2535
ብላቴና	-10.2548
ሰጣችሁ	-10.2565
ገነት	-10.2575
ዘርህ	-10.2602
የአሦር	-10.2611
ርጉ	-10.2611
በቀል	-10.2636
ዑ	-10.2636
መርዶክዮስ	-10.2636
ማኅፀን	-10.2636
ትምህርት	-10.2636
ተአምራት	-10.2636
ቋንቋ	-10.2636
ኃይሉ	-10.2636
ታሪክ	-10.2636
ዓይኔ	-10.2636
ያቀርቡ	-10.2637
ጸልይ	-10.2637
ደንግ	-10.2642
ትልቅ	-10.2647
ድኑ	-10.2658
ሣራ	-10.267
ወርሱ	-10.2677
መዝ	-10.2678
ሕዝቤን	-10.2679
ሐዋርያት	-10.268
ኖሮ	-10.269
በዚያች	-10.269
ዘወር	-10.2694
አሞን	-10.2727
ብላችሁ	-10.2758
አበዛ	-10.276
ትቢያ	-10.2771
ያምኑ	-10.2772
ቈጣ	-10.2777
ጠላቶችህ	-10.279
ጻፎች	-10.2809
አባታችን	-10.2809
ይችላል	-10.2809
መልእክተኞች	-10.2809
ይመጣሉ	-10.281
ሶርያውያን	-10.2811
ርስቱ	-10.2816
በረዶ	-10.283
ገበታ	-10.283
ወጋ	-10.286
ሳይሆን	-10.2868
ተቀበሉ	-10.2889
ጓዳ	-10.2894
መልሰው	-10.2895
ዮርዳኖስ	-10.2912
ራቀ	-10.2918
ለልጆቹ	-10.2946
ጥራ	-10.2963
ኤልሳዕ	-10.2984
ይወድቃሉ	-10.2984
ሕፃን	-10.2984
ዐውሎ	-10.2984
ጢሮስ	-10.2984
ይልቁን	-10.2984
ዓይኑ	-10.2985
ይጠፋል	-10.2985
ስንዴ	-10.2989
ሄዶ	-10.2993
ብሃል	-10.3004
በእጃቸው	-10.3006
ፊቱን	-10.3021
በሰማርያ	-10.3035
ሰጡት	-10.3055
ላችኋለሁ	-10.3078
እስክት	-10.3082
ልጦ	-10.3087
ላሉት	-10.309
ታደርጋ	-10.316
ኢዮስያስ	-10.3163
ይናገራል	-10.3163
ጲላጦስ	-10.3163
እግሮች	-10.3163
ታዘዙ	-10.3163
መምህር	-10.3163
ሰይጣን	-10.3163
አስቴር	-10.3163
ተቀምጠው	-10.3163
ስንፍና	-10.3163
መርከብ	-10.3163
ቅረብ	-10.3163
መልሱ	-10.3164
ማዕዘን	-10.3164
አጠፋለሁ	-10.3169
አስብ	-10.3181
ድካም	-10.3187
ሄደው	-10.3191
ባርክ	-10.3192
ረሳ	-10.3202
ተከተለ	-10.3257
አጸና	-10.3274
እንድታ	-10.3284
ገደሉት	-10.3292
መቃ	-10.3307
አልፎ	-10.3315
ቀሩ	-10.3324
ተግሣጽ	-10.3344
ድንጋጤ	-10.3344
መዝሙር	-10.3344
ታውቃለህ	-10.3344
አይደለሁም	-10.3344
መንግሥታት	-10.3345
ሳዶቅ	-10.3345
ታመኑ	-10.3345
እልፍ	-10.3346
መስገጃዎች	-10.3347
ታደርጋለህ	-10.3348
በርሳችሁ	-10.3349
ኃያል	-10.335
አትፍራ	-10.3371
ጫማ	-10.338
ደጆች	-10.3389
ታወቀ	-10.3392
የለውም	-10.3396
መልሰ	-10.3413
ከሙታን	-10.3443
ይመልስ	-10.3443
የአሞን	-10.3459
በዚህች	-10.3518
ሕፃኑ	-10.353
አቤሜሌክ	-10.353
ከዋክብት	-10.353
ኮረብቶች	-10.353
አይችልም	-10.353
ይሄዳል	-10.353
ፈሳሽ	-10.353
ፊታቸው	-10.3533
አባታቸው	-10.3534
ፊቴን	-10.3538
መውጫ	-10.3538
ዎቻቸው	-10.3542
ጣለች	-10.3544
ቀደሰ	-10.3547
ታቀርባ	-10.3548
ወለድ	-10.3553
ወንድሙን	-10.3553
ተቀደሰው	-10.3562
መንግሥ	-10.3564
ይመለስ	-10.3573
ላከኝ	-10.3578
ሄዳ	-10.358
ምሕረትህ	-10.3605
ተከለ	-10.3639
ኮረብታ	-10.364
ላኩ	-10.3641
ዋሻ	-10.3653
ለራሱ	-10.3656
ያድን	-10.3679
ሎች	-10.3717
ጵ	-10.3718
ቸነፈር	-10.3718
ንፍታሌም	-10.3718
ወንድሞቼ	-10.3718
ዮዳሄ	-10.3718
ድንጋዮች	-10.3718
መኖሪያ	-10.3718
መጻተኛ	-10.3718
ጠማማ	-10.3719
ኋለኛ	-10.3719
ምድራቸው	-10.372
ያውቃል	-10.372
መሰክር	-10.3721
ቅንነት	-10.3734
ጠጋ	-10.3775
ነፍሱ	-10.3797
ራውያን	-10.3815
ይገባል	-10.385
ዮርዳኖስን	-10.3851
ሩአቸው	-10.3889
ብሎአል	-10.391
ፅ	-10.391
ኢሳይያስ	-10.3911
መሠረት	-10.3911
አንዲቱ	-10.3911
ቀርባ	-10.3911
አትፍሩ	-10.3921
ቃጠል	-10.3947
ሰምተው	-10.3957
ፊቱ	-10.3959
▁	-10.3965
አገኙ	-10.3984
ሠርቶ	-10.3994
ኛላችሁ	-10.4008
ባረከ	-10.402
ፍሩ	-10.4038
ስምህን	-10.4041
ሰፋ	-10.4041
በጎቹ	-10.4048
ተፈጸመ	-10.4049
ነጭ	-10.4049
የሚኖሩት	-10.4088
መጣሁ	-10.4096
ጳ	-10.4107
መንገዳቸው	-10.4107
ሮብዓም	-10.4107
ወንዞች	-10.4107
ይናገራሉ	-10.4107
ጕልማሳ	-10.4107
ፈጽመው	-10.4107
አትክልት	-10.4107
አንሥቶ	-10.4107
እኅት	-10.4107
አምስቱ	-10.4107
እሾህ	-10.4107
ፍየሎች	-10.4107
ገመድ	-10.4108
ክርክር	-10.4108
ሸክም	-10.411
ጠይቅ	-10.4113
ከአባቶቹ	-10.4138
ትሁን	-10.4169
ያነሣ	-10.4169
ዓይኖች	-10.4179
ብቻውን	-10.4187
አምጡ	-10.4189
እንደምት	-10.4255
ነገሩት	-10.4263
ተቈጣ	-10.4269
ዌ	-10.4287
መዛሙርት	-10.4307
ስምንተኛው	-10.4307
ታላላቆች	-10.4307
እግሮቹ	-10.4307
ዘካርያስ	-10.4307
ፈረሰኞች	-10.4307
ተናግሮ	-10.4307
አይደሉም	-10.4307
ፍላጻ	-10.4307
ልዑል	-10.4307
ይሞታል	-10.4307
ሰገዱ	-10.4307
ታቦቱ	-10.4307
አሴር	-10.4307
ታናሹ	-10.4308
አደባባዩ	-10.4308
ወርቁን	-10.4309
ሰምተ	-10.432
አለቃው	-10.4328
ፈረሱ	-10.4352
ተመለስ	-10.4381
ዕቃውን	-10.4408
ብኛል	-10.4424
ራለች	-10.4427
የናስ	-10.4429
ደመናው	-10.4454
ተጠራ	-10.4472
ሁላቸው	-10.4476
ተወለዱ	-10.4489
ይናገሩ	-10.4505
ኢዮራም	-10.4511
እያንዳንዳቸው	-10.4511
ጊብዓ	-10.4511
ሙሽራ	-10.4511
ድንገት	-10.4511
መፍራት	-10.4512
መዝገብ	-10.4512
ቼአለሁ	-10.4517
ሰዶም	-10.4519
ሸከም	-10.452
ሴሎ	-10.4539
ባታል	-10.4573
ጻፈ	-10.4588
ኮረብታው	-10.4597
አችኋል	-10.4654
ሂ	-10.47
ትሆናለ	-10.4705
ከነዓናውያን	-10.4719
መላለስ	-10.4719
አንጻር	-10.4719
ሐሰተኛ	-10.4719
እፍረት	-10.472
ነፍሳቸው	-10.4721
ልሔም	-10.4721
መዓት	-10.473
ዛብሎን	-10.4736
አበባ	-10.4739
ባላቅ	-10.4764
መንደሮችዋ	-10.4764
ቈላ	-10.4771
አፍህ	-10.4791
ሰባተኛው	-10.4804
ያገኙ	-10.484
ርግብ	-10.4881
ፃ	-10.4932
ዒ	-10.4932
ዓይኖቹ	-10.4932
ጋለሞታ	-10.4932
ራሔል	-10.4932
ተመልከት	-10.4932
ተመለከተ	-10.4932
አዎን	-10.4933
የሚመስል	-10.4933
እባብ	-10.4934
ወሰድ	-10.4934
ገለባ	-10.4935
ሞልቶ	-10.4936
ይበላል	-10.4937
ጸልዩ	-10.4939
ይሰጣ	-10.4947
ነገራቸው	-10.4955
ጥልቅ	-10.4957
ለዚያ	-10.4959
አድርገህ	-10.4979
አቀረቡ	-10.4988
ጸኑ	-10.4992
ፈረስ	-10.5054
አባቶችህ	-10.506
ጠሩት	-10.507
ነፉ	-10.5079
ያድነ	-10.5102
ፋችሁ	-10.5109
ከለከ	-10.5125
w	-10.5149
ሄሮድስ	-10.5149
መጠጊያ	-10.5149
ኢትዮጵያ	-10.5149
አሥረኛ	-10.5149
እኵሌታ	-10.5149
ጠቢባን	-10.5149
ችግረኛ	-10.5149
ግልሙትና	-10.5149
ምጽጳ	-10.5149
ዓይነት	-10.515
ቁርበት	-10.515
እሴይ	-10.515
ሲዶና	-10.515
ሚስቶች	-10.515
ሰበሰበ	-10.5151
ነገዶች	-10.5152
ጥሎ	-10.5152
ገዥ	-10.5157
ተመልሰው	-10.5184
ገድል	-10.5195
ንገሩ	-10.522
ቍጣዬ	-10.5237
ግብር	-10.5248
እስካ	-10.5263
ሥጋዬ	-10.5275
ተቀበል	-10.5285
ጠራቸው	-10.5296
በለስ	-10.5299
ባችኋል	-10.5346
መናፍስት	-10.5371
መንገሥ	-10.5371
አርጤክስስ	-10.5371
እኩሌታ	-10.5371
ዢ	-10.5371
ኢዮአስ	-10.5371
እስማኤል	-10.5371
በኵራት	-10.5371
ጨረቃ	-10.5371
ይሻላል	-10.5372
ይጠፋሉ	-10.5372
ሁላችን	-10.5372
ይባላል	-10.5372
ውሰዱ	-10.5372
አደረግሁ	-10.5375
ርስታቸው	-10.5376
ወተት	-10.5377
ሆኜ	-10.5382
ፈጽም	-10.5385
ወርዳ	-10.5392
አዘዛቸው	-10.5404
መከር	-10.5411
ለምኑ	-10.5413
ደረሱ	-10.5436
ጭቃ	-10.5442
በደሉ	-10.5452
ዞረ	-10.5462
ባችኋለሁ	-10.5588
እህሉ	-10.5595
አካዝ	-10.5598
ሰነፎች	-10.5599
ቤርሳቤህ	-10.5599
እናውቃለን	-10.5599
ዓመፀኞች	-10.5599
ይሳኮር	-10.5599
እናገራለሁ	-10.5599
ልጆቼ	-10.5599
በስውር	-10.5599
ቅንዓት	-10.5599
ጽኑዓን	-10.5599
ጣዖት	-10.5599
ተጠንቀቁ	-10.5602
ትሰጣ	-10.5606
መስማት	-10.5617
ጠበቁ	-10.5629
ያሳድ	-10.5644
ታወቅ	-10.5661
ያጸና	-10.5662
ነግረ	-10.5663
ፈጸመ	-10.5666
ያስነሣ	-10.5687
ቈረጠ	-10.5695
ዓይኖችህ	-10.5746
ኛቸው	-10.5799
ኜ	-10.582
ምሥጢር	-10.5831
አንቀላፋ	-10.5831
ኡ	-10.5831
እሆናለሁ	-10.5831
እረኞች	-10.5831
ዓመፀኛ	-10.5831
ጌልገላ	-10.5831
ጥበበኞች	-10.5831
ቀለበቶች	-10.5831
አቅርቡ	-10.5831
ተመልከቱ	-10.5831
ሸክላ	-10.5831
ሠዉ	-10.5831
ግሪክ	-10.5832
ገባዖን	-10.5832
መሰንቆ	-10.5832
አዘነ	-10.5832
እረኛ	-10.5833
እሳቱ	-10.5834
ጥዋት	-10.5835
ወዳጅ	-10.5835
በናያስ	-10.5843
አድነኝ	-10.5846
ተቀበለ	-10.585
ጠላቶች	-10.5865
ሰጠሁ	-10.5869
የተባለው	-10.5884
ይጠብቃ	-10.5885
ቆሬ	-10.5887
ተከተሉት	-10.5895
መራራ	-10.5923
ማየት	-10.5945
ጄ	-10.5984
ላቸዋለሁ	-10.5997
ጠብቀ	-10.6013
ቸዋለ	-10.6023
ሰማችሁ	-10.6053
አክሊል	-10.6069
እያንዳንዳች	-10.6069
ተንኰል	-10.6069
ሚዛኑ	-10.6069
እሰጥሃለሁ	-10.6069
በነጋው	-10.6069
አውድማ	-10.6069
ዕንቍ	-10.607
ቀበሩት	-10.607
ወዳጆች	-10.6071
ግርማ	-10.6073
ክንፍ	-10.6073
ይወጣሉ	-10.6074
ቀንዶች	-10.6088
መለሰለት	-10.609
ወገኑ	-10.6098
ወድቆ	-10.61
ሊሆን	-10.6119
ሰጣት	-10.616
ሌላቸው	-10.6184
ጌዴዎን	-10.6313
መጋረጆች	-10.6313
ዠ	-10.6313
መንፈሱ	-10.6313
የተለወሰ	-10.6313
የሌለበት	-10.6313
ምኵራብ	-10.6313
ያድርግ	-10.6314
ሰግዱ	-10.6314
ይወድቃል	-10.6314
ባረክ	-10.6314
ይነሣል	-10.6314
ተነሥተህ	-10.6315
አባታችሁ	-10.6315
ሰውዮው	-10.6319
ነገሮች	-10.6319
ቈጠር	-10.632
አጥንት	-10.632
ለወጠ	-10.6321
ፈጥኖ	-10.6323
የተናገረውን	-10.6323
አብረው	-10.6324
ተቀበረ	-10.6325
ወንድሜ	-10.6325
ቁመቱ	-10.6328
በላዬ	-10.6339
ሚሆን	-10.6398
ዘዛቸው	-10.6543
መልእክ	-10.656
መቀመጫ	-10.6563
ኚ	-10.6563
አታድርጉ	-10.6563
ዓይኖቼ	-10.6563
ያስተሰርይ	-10.6563
ሐምራዊ	-10.6563
መልአኩ	-10.6563
አሜስያስ	-10.6563
ይሄዳሉ	-10.6563
ራእዩ	-10.6563
አህዮች	-10.6563
አገሮች	-10.6563
ደርሶአል	-10.6563
ዓረባ	-10.6564
ቃዴስ	-10.6564
አስቀድመ	-10.6564
ሴይር	-10.6564
ፈለጉ	-10.6564
መዓቴ	-10.6565
ነደደ	-10.6566
አካዝያስ	-10.6566
በመካከላችሁ	-10.6569
ተሰወረ	-10.6569
ኸኛል	-10.657
መጥቶአል	-10.6577
እንዳይሆን	-10.6618
ሰገደ	-10.6774
ሐሴቦን	-10.682
መወርወሪያ	-10.682
ተሰብስበው	-10.682
ታላቂቱ	-10.682
አልቻሉም	-10.682
አቢሜሌክ	-10.682
አንዳንዶች	-10.682
ዓዛርያስ	-10.682
ጼ	-10.682
ትንሣኤ	-10.682
ነበልባል	-10.682
ሜራሪ	-10.682
ነጋገር	-10.682
ሶምሶን	-10.682
ይመለሳል	-10.682
የተመረጡ	-10.682
መያዣ	-10.682
አስተዋይ	-10.682
ደነቁ	-10.682
ዓመታት	-10.682
ይበላሉ	-10.6823
መርገም	-10.6823
መከተል	-10.6824
ሀብት	-10.6824
ቀዓት	-10.6825
ቃሎች	-10.6828
ዘምሩ	-10.6832
መሥራት	-10.6854
እናቴ	-10.6874
ወዳሉ	-10.6958
አውቀ	-10.7004
ተከተሉ	-10.7014
ጸሐፊው	-10.7015
ቀኙ	-10.7025
ሕፃናት	-10.7083
መንገዴ	-10.7083
መጐናጸፊያ	-10.7083
ምስክሮች	-10.7083
ሰልፈኞች	-10.7083
ስድስተኛው	-10.7083
ባለጠግነት	-10.7083
አይደለችም	-10.7083
ወኅኒ	-10.7083
ወንድሞቻችሁ	-10.7083
ፊልጶስ	-10.7083
ሕይወቱ	-10.7083
እመልሳለሁ	-10.7083
ግብዣ	-10.7083
ጻድቁ	-10.7083
ፈቃዱ	-10.7083
ሸማያ	-10.7084
አለቀሰ	-10.7084
ርኵስ	-10.7084
ቍስል	-10.7084
መብራት	-10.7086
የእህሉን	-10.7089
ድንበሩ	-10.709
ትኖራለ	-10.7091
ፈለገ	-10.7093
ያደርጋሉ	-10.7094
አርነት	-10.7095
አውቆ	-10.7101
ያጠፉ	-10.7103
ባልንጀራውን	-10.7123
ያደርጋ	-10.7141
ተቀደሱ	-10.7331
ኋ	-10.7337
ቅዱሳኑ	-10.7353
ኢዮአቄም	-10.7353
ተመሸጉ	-10.7353
ትውልዳቸው	-10.7353
ምናምንቴ	-10.7353
ሥርዓቱ	-10.7353
ሴዎን	-10.7353
የሚበልጥ	-10.7353
ካሌብ	-10.7353
በፊታችሁ	-10.7353
ፍርዴን	-10.7354
ዕውር	-10.7354
ስጠኝ	-10.7354
አታውቁም	-10.7357
ጠይቁ	-10.7359
ጸለየ	-10.736
ድዳለሁ	-10.7362
ባለችው	-10.7362
ዓምድ	-10.7363
ከማቹ	-10.7366
ክምር	-10.7372
ያለችው	-10.7375
አደርጋ	-10.7627
አንዳንዶቹ	-10.7631
መሣሪያ	-10.7631
ከተሞቻቸው	-10.7631
ጨነቁ	-10.7631
ተቈጥ	-10.7631
ቈጠረ	-10.7631
ራሳችን	-10.7632
ምስሎች	-10.7632
አይገኝም	-10.7632
አደራ	-10.7634
አይሁዳዊ	-10.7634
ይለኛል	-10.7634
ረጅም	-10.7635
አመድ	-10.7639
ገብተው	-10.7641
መግባት	-10.7641
እንደሌለ	-10.7644
ከበቡ	-10.765
ጫንቃ	-10.7666
ቀበለው	-10.7685
ሠሪ	-10.7769
መከራዬ	-10.7783
እንደማይ	-10.7844
ሠራዊ	-10.7906
ኃጢአታችሁ	-10.7917
አደርገዋለሁ	-10.7917
ድምፃቸው	-10.7917
መዝጊያ	-10.7917
ትእዛዛት	-10.7917
ድንጋዩ	-10.7917
እናደርጋ	-10.7917
ብልሃት	-10.7917
እጆቹ	-10.7917
ያደረጉ	-10.7917
አሞጽ	-10.7917
ድንግል	-10.7917
ይወስዳል	-10.7917
በደለኛ	-10.7917
አንበጣ	-10.7917
ትላለህ	-10.7918
ኃፍረ	-10.7919
ስርየ	-10.7944
ወልደ	-10.796
ምግብ	-10.7966
ያስፈልገ	-10.804
ሰበሰቡ	-10.8115
ለበጠ	-10.8172
ዣ	-10.821
𐋇	-10.8211
ቍርባናቸው	-10.8211
ብፁዓን	-10.8211
እንቅልፍ	-10.8211
ብዝበዛ	-10.8211
ትበላላችሁ	-10.8211
ያስተምር	-10.8211
አሸዋ	-10.8213
መልእክተኛ	-10.8213
ኪራም	-10.8213
ያሳድዱ	-10.8216
ሄዳችሁ	-10.8226
ሕሊና	-10.823
ያለበትን	-10.8231
ሰድድ	-10.8263
ሚናገሩ	-10.8274
ፈልገው	-10.8385
ኀ	-10.8513
ሤ	-10.8514
ሼ	-10.8514
መጽሐፉ	-10.8514
ቀጠቀጠ	-10.8514
ቅርንጫፎች	-10.8514
ኢይዝራኤል	-10.8514
ያመሰግኑ	-10.8514
ጣዖታት	-10.8514
ሕይወቴ	-10.8514
ርዝመት	-10.8514
ኦርዮ	-10.8514
ጭንቀት	-10.8514
ፍጥረት	-10.8514
ዕውሮች	-10.8514
ይኖራሉ	-10.8514
ሽንገላ	-10.8514
ማገልገል	-10.8514
ቅዱሱ	-10.8514
ልብሳቸውን	-10.8514
ፋርስ	-10.8516
ብርታት	-10.8516
ፈተና	-10.8517
መሆኑን	-10.8519
ሰማንያ	-10.8519
ጠላቶቹ	-10.852
የተባረከ	-10.8526
ምስጉ	-10.8529
የማምለ	-10.853
ይቻል	-10.8774
ኣ	-10.8825
መቅረዙ	-10.8826
መንደሮቻቸው	-10.8826
ኃጢአቴ	-10.8826
አዕማድ	-10.8826
ክርስቲያናት	-10.8826
ጎዶልያስ	-10.8826
ጬ	-10.8826
ፈጽመህ	-10.8826
ፍልስጥኤማዊ	-10.8826
አዘጋጁ	-10.8826
ተለይቶ	-10.8826
ኤፉዱ	-10.8826
መርከቦች	-10.8826
እርግማን	-10.8826
አቃጠለ	-10.8826
ከጥንት	-10.8826
ላደረጉ	-10.8829
አቢሳ	-10.883
ባለጠጋ	-10.883
ያስተውሉ	-10.8831
ሰበስብ	-10.8831
ብላቴናይቱ	-10.8837
ሻገር	-10.8837
ዘመናት	-10.884
ጎዳና	-10.8844
ፈለግ	-10.8844
ተባባ	-10.8931
ሚኖሩት	-10.9058
ቺ	-10.9147
መላለሱ	-10.9149
መንፈሴ	-10.9149
በእጃችሁ	-10.9149
በየወገኖቻቸው	-10.9149
ትእዛዜን	-10.9149
ኃጢአታችን	-10.9149
ነጋገሩ	-10.9149
እንግዲያ	-10.9149
ኬልቅያስ	-10.9149
ውስጠኛው	-10.9149
ጭፍሮች	-10.9149
ያስጨንቁ	-10.9149
በግዞት	-10.9149
መንጎች	-10.9149
ታንኳይቱ	-10.9149
ጽድቁ	-10.9149
ዝማሬ	-10.9149
ግመሎች	-10.9149
ይቀበላል	-10.9149
ባደረገ	-10.9149
አዋጅ	-10.9149
አለቀሱ	-10.9149
ያልፋል	-10.9149
እግሬ	-10.9149
አመሰግን	-10.9149
ርብቃ	-10.915
ጠግብ	-10.915
ያለቅሱ	-10.915
ነፍሳችሁ	-10.9151
አድርጌአለሁ	-10.9151
አዝዞ	-10.9151
ነጠቀ	-10.9153
ታያለህ	-10.9154
በሸለቆው	-10.9154
ፈራጆች	-10.9155
ለብሰው	-10.9156
ከንፈር	-10.9157
ጀምረ	-10.9188
ይገድሉ	-10.9203
ካለችው	-10.9237
ያሰኝ	-10.9248
k	-10.9482
መሎጊያዎቹ	-10.9482
ኀጥኣን	-10.9482
ኬጢያዊ	-10.9482
አማሌቅ	-10.9482
አኖራለሁ	-10.9482
ያድርጉ	-10.9482
አደረግህ	-10.9483
ቡቃያ	-10.9483
ሸንጎ	-10.9483
መቃብሩ	-10.9483
ረክስ	-10.9484
ትላላችሁ	-10.9484
ሌዋዊ	-10.9485
ያስተምራ	-10.9485
አልሰሙም	-10.9486
አያውቅም	-10.9486
በረሀ	-10.9486
ሳፋን	-10.949
ወለዱ	-10.952
ተልባ	-10.956
የዚያ	-10.96
መንደሮች	-10.9752
ችኋለ	-10.982
መስገጃ	-10.9822
ተጠንቀ	-10.9823
ዮፍታሔ	-10.9827
መታጠቂያ	-10.9827
ተናግሬአለሁ	-10.9827
አሚናዳብ	-10.9827
አብያታር	-10.9827
በርናባስ	-10.9827
ጥቂቶች	-10.9827
ቍጥራቸው	-10.9827
አይደላችሁም	-10.9827
ጠየቁት	-10.9827
አደረጋቸ	-10.9827
ከተሞቹ	-10.9827
ብድራት	-10.9827
ክህነት	-10.9827
መገረዝ	-10.9827
እንደዚሁ	-10.9827
ማኅተ	-10.9827
አዋቂ	-10.9827
ቅረቡ	-10.9827
ዘርግቶ	-10.9828
ይሸከማ	-10.9828
ኤልያብ	-10.9828
ምድራችሁ	-10.983
ጕልላ	-10.9833
ከንፈሩ	-10.9833
ዮናስ	-10.9834
ከፊትህ	-10.9844
ተማመ	-10.9848
ፈወሰ	-10.9866
ሰበሰባ	-10.9867
መከሩ	-10.9876
ጸሐፊ	-10.9917
አመነ	-10.9933
ይሰድ	-10.9936
ረከሱ	-10.9996
ሦስተኛ	-11.0052
ተቈጠሩ	-11.0079
ዥ	-11.0171
መሳፍንት	-11.0184
መድኃኒቴ	-11.0184
ሜሱላም	-11.0184
እስትንፋስ	-11.0184
ያሰኘው	-11.0184
ዲያብሎስ	-11.0184
ገንዘቡ	-11.0184
ንጹሐን	-11.0184
ቃጥለዋል	-11.0184
ተከትለው	-11.0184
አላውቅም	-11.0184
ቁርበቱ	-11.0184
ቦዔዝ	-11.0184
በላያችን	-11.0184
ሕልሙ	-11.0184
ኢያቢስ	-11.0184
ክብሬ	-11.0184
ያቀርባል	-11.0184
ከፊቴ	-11.0184
ይሰጠዋል	-11.0184
አምኖን	-11.0185
ተጻፉ	-11.0185
ተሸከሙ	-11.0185
ዘለፋ	-11.0185
ሰደዱ	-11.0186
ልማድ	-11.0186
መሰከረ	-11.0187
ተደፋ	-11.0187
መድረ	-11.0187
ታመመ	-11.0192
ተኝቶ	-11.0207
መምጣት	-11.0211
ይሸሻ	-11.0222
ታመነ	-11.0264
መባቻ	-11.0313
ትቀበሉ	-11.0438
ሐዋርያ	-11.0458
ጮኻ	-11.0554
መቄዶንያ	-11.0554
መጻሕፍት	-11.0554
በየዓመቱ	-11.0554
ንግሥቲቱ	-11.0554
ኤርትራ	-11.0554
ጕድጓዱ	-11.0554
ፍልስጥኤም	-11.0554
ልጆቻችን	-11.0554
ፈሳሾች	-11.0554
አቁማዳ	-11.0554
እምነታችሁ	-11.0554
ፈጽሜ	-11.0554
ተርሴስ	-11.0555
ይመለሳሉ	-11.0555
ኪሩብ	-11.0555
ያስፈልጋ	-11.0555
ዕዝራ	-11.0555
አዲሱ	-11.0555
በግልጥ	-11.0555
ጸሎቴ	-11.0555
ባኦስ	-11.0555
አወቅሁ	-11.0555
አዴር	-11.0555
ረክሱ	-11.0555
ተቀበላችሁ	-11.0555
ከመስፈሪያው	-11.0556
ገለጡ	-11.0556
ወዳጄ	-11.0556
ሚክያስ	-11.0556
ያስተውል	-11.0561
መብላት	-11.0574
መኝታ	-11.0578
ጀርባ	-11.0591
ወደድሁ	-11.0595
ለብሳ	-11.0602
ወዳለበ	-11.0623
ጀምራ	-11.0847
ኳ	-11.0849
ሰረገሎቹ	-11.0939
ቀርሜሎስ	-11.0939
ቈነጃጅት	-11.0939
ነጋዴዎች	-11.0939
አማካሪ	-11.0939
አዶንያስ	-11.0939
አገልጋይ	-11.0939
የዘበኞቹ	-11.0939
ይሞታሉ	-11.0939
ፀነሰች	-11.0939
ዖዝያን	-11.0939
ጲ	-11.0939
አይደለህም	-11.0939
ወይፈኖች	-11.0939
መሰገኑ	-11.0939
ሳንቆች	-11.0939
አንበሶች	-11.0939
ሌሎቹ	-11.0939
ማንሣት	-11.0939
ቀደመው	-11.0939
ባሮክ	-11.0939
እግራቸው	-11.0939
ከናወን	-11.094
ጠጎች	-11.094
አድምጡ	-11.094
ዓለሙ	-11.094
ቃወሙ	-11.094
ዓላማ	-11.0941
ክንዱ	-11.0942
ልባችን	-11.0943
ተድላ	-11.0946
ቀደደ	-11.0974
ዳሰሰ	-11.1019
ያጽናና	-11.1337
መጥመቂያ	-11.1339
ባሪያዎቼ	-11.1339
አላገኘሁ	-11.1339
አስጨናቂ	-11.1339
አገልጋዮች	-11.1339
ኢዮአታም	-11.1339
እሰጣቸዋለሁ	-11.1339
ዘሩባቤል	-11.1339
የዘንባባ	-11.1339
ጌድሶን	-11.1339
ጽሕፈት	-11.1339
ፊንሐስ	-11.1339
ዕብራውያን	-11.1339
ሰሜኢ	-11.1339
አንዳንድ	-11.1339
አዛዥ	-11.1339
ሰንሰለት	-11.1339
ጽላቶች	-11.1339
ራፋይም	-11.1339
ተጓዙ	-11.1339
እሰበስባ	-11.1339
ልጃችሁ	-11.1339
ጭልፋ	-11.1339
በዙሪያዋ	-11.134
አውጥቶ	-11.134
እለምና	-11.1341
ካፈሉ	-11.1341
ነግርህ	-11.1343
የተባለች	-11.1358
ሰቀሉ	-11.1375
መንፈሳዊ	-11.1376
መሰምርያ	-11.1574
ታችኛው	-11.1604
መኳንንት	-11.1756
ማስተስረያ	-11.1756
በግምባሩ	-11.1756
ብላቴኖች	-11.1756
ታላላቅ	-11.1756
ትዕቢተኞች	-11.1756
ችግረኞች	-11.1756
አዛሄል	-11.1756
እሰጣችኋለሁ	-11.1756
ዤ	-11.1756
ጢሞቴዎስ	-11.1756
ጣዖቶቻቸው	-11.1756
አንዳንዱ	-11.1756
በሌለበት	-11.1756
ይፈርዳል	-11.1756
ደንቆሮ	-11.1756
ለኪሶ	-11.1756
መግደል	-11.1756
ጸጸት	-11.1756
ገሞራ	-11.1756
ጨረሰ	-11.1756
ይመስላል	-11.1756
የምድያም	-11.1756
ከግራር	-11.1756
ለመኑት	-11.1757
ማድጋ	-11.1757
ጋጠሙ	-11.1758
ተበተኑ	-11.1759
መረጥሁ	-11.1759
መናወጥ	-11.176
አቤል	-11.176
ተለይተ	-11.1761
ሚወዱ	-11.1783
ጸንቶ	-11.1785
ቀደሱ	-11.18
አባቶቹ	-11.2121
መዕሤያ	-11.2191
ሢ	-11.2191
ትችላለህ	-11.2191
ኑኃሚን	-11.2191
አመሰግና	-11.2191
ኤልዛቤል	-11.2191
ኤፍራጥስ	-11.2191
ደመወዝ	-11.2191
ጕልማሶች	-11.2191
ጺ	-11.2191
አድራጊ	-11.2191
መታጠቢያ	-11.2191
ትሆናላችሁ	-11.2191
አታድርግ	-11.2191
አግኝቶ	-11.2191
እወዳለሁ	-11.2191
ሎሌዎች	-11.2191
ይሸከሙ	-11.2191
ይበልጣል	-11.2191
ተዘጋጁ	-11.2191
ሰይፉን	-11.2191
ምስክሩን	-11.2191
ጸድቅ	-11.2191
ትዕማር	-11.2191
ተቃጠለ	-11.2191
ቂሮስ	-11.2191
ያቃጥላ	-11.2191
ተሸክመ	-11.2191
አላወቁም	-11.2191
ይወርዳል	-11.2191
ፋሬስ	-11.2191
አርኖን	-11.2192
መስጠት	-11.2192
መዓካ	-11.2192
አንሥተ	-11.2193
በዙሪያቸው	-11.2193
አውጥተ	-11.2195
ሰውነትህ	-11.2195
ታቀርቡ	-11.2195
ያከብሩ	-11.2204
አዘንብ	-11.2259
ነዚህ	-11.2628
ቾ	-11.2645
መላእክቱ	-11.2645
በአጠገባቸው	-11.2645
ትርጓሜ	-11.2645
አማልክቶቻቸው	-11.2645
ከነዓናዊ	-11.2645
ከንፈሮች	-11.2645
የጽሩያ	-11.2645
መንገዳችሁ	-11.2645
ብልጥግና	-11.2645
ተናግረ	-11.2645
እናድርግ	-11.2645
በአጠገቡ	-11.2645
መልሼ	-11.2645
መጽናናት	-11.2645
ይጮኻሉ	-11.2645
ኀጥእ	-11.2645
እጃችን	-11.2645
ፈጣሪ	-11.2645
ምንጮች	-11.2645
ተሰለፉ	-11.2645
ደነገጠ	-11.2645
እግራችሁ	-11.2645
አፍንጫ	-11.2646
ይቃጠላ	-11.2646
ፈቅድ	-11.2646
ሰናከሉ	-11.2646
ሓ	-11.3121
ጴ	-11.4148
𐊼	-11.4703
𐊣	-11.4703
ኻ	-11.5916
g	-11.5916
ኹ	-11.6583
ኽ	-11.7297
r	-11.7297
d	-11.8067
ጱ	-11.8067
ቧ	-11.89
ፕ	-11.89
ኆ	-11.9809
ጶ	-11.9809
ኺ	-12.0809
*	-12.317
1	-12.317
ፆ	-12.317
v	-12.4599
ዉ	-12.6193
"	-12.6265
l	-12.6265
ፐ	-12.6265
ፓ	-12.6265
s	-12.8265
2	-12.8265
ፄ	-13.4099
3	-13.4099
[	-13.4099
]	-13.4099
o	-13.4099
ጰ	-13.4099
ፒ	-13.4099
ፑ	-13.4099
፤	-13.9098
ፂ	-13.9099
ቊ	-13.9099
5	-13.9099
(	-13.9099
)	-13.9099
-	-13.9099
ዷ	-13.9099
e	-14.9085
ሷ	-14.9086
t	-14.9087
ፔ	-14.9088
ኾ	-14.9089
ኄ	-14.909
ዡ	-14.9091
ዦ	-14.9092
ፁ	-14.9093
!	-14.9094
ኘ	-14.9095
ኞ	-14.9096
?	-14.9097
፥	-14.9098
4	-14.9099
0	-14.9099
@	-14.9099
b	-14.9099
m	-14.9099
u	-14.9099
ሏ	-14.9099
ቷ	-14.9099
ቿ	-14.9099
ኗ	-14.9099
ኟ	-14.9099
ኲ	-14.9099
ኼ	-14.9099
ጒ	-14.9099
ጧ	-14.9099
ፏ	-14.9099
።	-14.9099
