<pad>	0
</s>	0
<unk>	0
▁the	-3.07665
.	-3.19389
,	-3.34764
▁of	-3.71333
▁to	-3.88775
▁in	-3.96863
s	-3.97259
▁and	-4.18826
▁	-4.38666
▁a	-4.39251
▁is	-4.57451
ing	-4.79185
▁The	-4.84057
▁for	-4.92438
▁be	-4.93355
ed	-4.97514
-	-5.05513
▁are	-5.13285
▁that	-5.16528
▁has	-5.17437
▁have	-5.25953
▁on	-5.26203
▁with	-5.32213
'	-5.37345
▁will	-5.47583
▁from	-5.49773
▁corona	-5.56597
▁was	-5.58949
▁not	-5.60297
e	-5.62491
▁by	-5.65961
▁been	-5.68697
▁patients	-5.72387
▁as	-5.7559
y	-5.76026
▁vaccine	-5.76661
▁this	-5.77513
t	-5.78531
▁at	-5.79244
ly	-5.83879
▁or	-5.86683
▁said	-5.87085
▁it	-5.90641
▁"	-5.93491
▁people	-5.95845
▁(	-5.97522
▁government	-5.97898
▁A	-5.99473
▁also	-6.01435
al	-6.07937
▁In	-6.08185
▁state	-6.09424
d	-6.1034
?	-6.11359
▁were	-6.12419
▁number	-6.14629
out	-6.22872
▁virus	-6.23252
▁can	-6.25469
▁Corona	-6.29663
▁should	-6.3292
▁an	-6.3413
▁w	-6.35607
▁Minister	-6.37052
ir	-6.38482
▁had	-6.39124
▁there	-6.42674
-19	-6.4422
▁other	-6.47376
▁health	-6.47536
)	-6.48625
n	-6.51561
▁Maharashtra	-6.52131
▁oxygen	-6.52256
▁India	-6.53559
▁COVID	-6.53593
:	-6.53856
▁after	-6.55258
▁who	-6.553
▁C	-6.56723
▁ab	-6.57067
▁you	-6.58148
▁S	-6.61975
▁all	-6.62024
▁more	-6.6372
if	-6.64139
▁Dr	-6.65629
er	-6.65919
l	-6.66239
▁This	-6.66603
▁time	-6.66738
o	-6.67194
▁lockdown	-6.70038
▁no	-6.70049
▁But	-6.70541
in	-6.73071
▁than	-6.73683
▁infection	-6.74246
▁I	-6.74494
▁It	-6.7613
▁disease	-6.76746
▁vaccination	-6.77132
a	-6.78984
▁we	-6.79171
▁one	-6.79275
▁days	-6.80997
▁Health	-6.81189
▁country	-6.81189
c	-6.82101
▁new	-6.84343
▁being	-6.84403
▁vaccines	-6.84805
hich	-6.85185
▁these	-6.85981
▁per	-6.86049
▁some	-6.86989
▁but	-6.88989
▁He	-6.90742
▁M	-6.91087
▁first	-6.92278
▁many	-6.93588
▁he	-6.95434
▁P	-6.96432
r	-6.97017
CoV	-6.97246
▁found	-6.97486
m	-6.97489
▁'	-6.98038
▁may	-6.98161
▁two	-7.00343
▁get	-7.01256
▁last	-7.01721
▁so	-7.02733
▁day	-7.02813
▁cases	-7.03109
▁such	-7.03593
▁second	-7.03787
se	-7.04452
▁use	-7.05901
▁On	-7.05943
▁March	-7.06021
▁do	-7.06038
b	-7.06181
▁Mumbai	-7.06682
▁symptoms	-7.06763
▁SARS	-7.07004
▁they	-7.07968
es	-7.08345
▁According	-7.08883
▁test	-7.08972
▁district	-7.0984
▁hospital	-7.09996
▁says	-7.10018
▁out	-7.1057
due	-7.10873
▁given	-7.11412
▁hand	-7.11501
▁situation	-7.11881
▁children	-7.142
or	-7.14799
▁wave	-7.15249
u	-7.16288
▁There	-7.164
hief	-7.16643
▁under	-7.17672
▁However	-7.20111
▁B	-7.20122
▁Covid	-7.20443
▁We	-7.20583
▁treatment	-7.20797
▁only	-7.21036
g	-7.21117
▁over	-7.21869
th	-7.22161
i	-7.22884
p	-7.23111
▁countries	-7.23198
▁up	-7.23441
▁spread	-7.23454
sh	-7.23652
▁available	-7.24058
▁take	-7.24202
▁work	-7.24807
▁2020	-7.2607
▁infected	-7.26238
f	-7.26537
▁April	-7.26566
▁your	-7.26578
▁need	-7.26819
▁If	-7.27218
ic	-7.28286
▁any	-7.29891
▁during	-7.29986
▁against	-7.31324
ur	-7.31843
▁risk	-7.32226
▁What	-7.32506
2	-7.32923
▁cent	-7.3355
▁when	-7.338
▁used	-7.3455
▁while	-7.34674
▁year	-7.35647
an	-7.35701
▁now	-7.35708
▁Pune	-7.35982
▁system	-7.36411
▁those	-7.36613
;	-7.36937
▁vaccinated	-7.36985
▁home	-7.37423
▁As	-7.3867
▁taken	-7.40099
▁medical	-7.4066
."	-7.40836
▁Thackeray	-7.41288
▁10	-7.41443
▁his	-7.41979
▁r	-7.42074
▁reported	-7.4272
▁coronavirus	-7.42992
▁through	-7.43058
▁hospitals	-7.43151
▁-	-7.44742
ation	-7.45322
ion	-7.45633
▁public	-7.45814
▁large	-7.46193
▁made	-7.46988
S	-7.47249
▁restrictions	-7.47717
re	-7.47926
▁how	-7.48047
ould	-7.48718
▁China	-7.49508
▁world	-7.4984
ther	-7.50322
▁care	-7.51271
▁beds	-7.51751
▁lakh	-7.5211
▁patient	-7.52161
1	-7.52444
▁workers	-7.5314
-2	-7.53729
▁current	-7.54422
▁them	-7.54628
"	-7.54941
▁like	-7.55569
▁including	-7.5562
▁So	-7.55732
st	-7.56098
▁covid	-7.56113
▁Hospital	-7.5639
▁announced	-7.56429
▁outbreak	-7.56941
▁areas	-7.57358
ar	-7.57472
fter	-7.57591
▁go	-7.57724
▁important	-7.58806
▁its	-7.59314
▁started	-7.59976
A	-7.60128
▁F	-7.60317
le	-7.60371
▁information	-7.60455
▁most	-7.61095
▁come	-7.61133
▁even	-7.61848
ers	-7.62092
▁well	-7.62182
▁increase	-7.62736
ce	-7.63027
▁what	-7.63403
h	-7.63502
▁1	-7.63618
▁same	-7.63816
▁T	-7.6385
▁increased	-7.64046
▁high	-7.6456
▁closed	-7.65629
▁years	-7.6587
▁did	-7.65996
▁testing	-7.6657
▁re	-7.66842
▁our	-7.67312
▁contact	-7.67496
▁help	-7.67534
▁age	-7.67799
▁doctors	-7.67922
▁positive	-7.68219
ting	-7.68238
▁rate	-7.68631
▁respirator	-7.68643
▁tests	-7.68852
▁supply	-7.69093
▁increasing	-7.69545
▁few	-7.69545
▁city	-7.70484
▁effective	-7.70519
▁body	-7.70522
▁crore	-7.70915
▁administration	-7.70917
▁7	-7.71327
▁case	-7.71454
/	-7.71838
C	-7.7197
▁hands	-7.72584
▁between	-7.72772
very	-7.72784
▁where	-7.73282
▁Center	-7.73752
▁Uddhav	-7.74186
▁person	-7.74879
▁prevent	-7.75082
▁states	-7.75164
ive	-7.75767
▁p	-7.75768
▁students	-7.75863
▁Modi	-7.76134
▁drug	-7.76167
▁deaths	-7.76882
▁into	-7.77476
▁data	-7.77568
▁died	-7.77632
▁travel	-7.78156
▁Delhi	-7.78555
at	-7.78967
▁could	-7.79579
▁2	-7.79953
▁does	-7.80246
▁central	-7.80462
▁three	-7.81068
▁around	-7.81214
▁before	-7.81578
▁period	-7.81578
▁citizens	-7.8175
▁school	-7.81774
on	-7.81898
▁decision	-7.82297
▁death	-7.82302
▁20	-7.82403
▁dose	-7.825
▁BBC	-7.82607
▁Wh	-7.82788
▁Prim	-7.83651
▁At	-7.83774
ment	-7.83796
▁million	-7.83884
▁then	-7.84282
▁5	-7.84314
en	-7.84559
I	-7.85105
▁meeting	-7.8511
it	-7.85129
▁UK	-7.85232
▁E	-7.85646
▁say	-7.8574
ndra	-7.85993
▁severe	-7.86484
6	-7.86678
▁present	-7.86808
▁doses	-7.87157
The	-7.87167
▁social	-7.87414
▁include	-7.8878
▁study	-7.89009
▁different	-7.8901
▁private	-7.89012
▁hours	-7.89474
▁Unit	-7.89566
▁every	-7.89622
).	-7.90315
▁12	-7.91238
4	-7.91594
▁3	-7.91748
▁education	-7.91802
▁January	-7.91891
▁6	-7.91965
▁allowed	-7.92059
▁4	-7.92135
▁D	-7.92301
▁N	-7.92401
w	-7.93167
▁tested	-7.9339
▁possible	-7.93599
▁Institute	-7.94101
),	-7.94193
▁rules	-7.94332
▁19	-7.94582
▁R	-7.95038
▁working	-7.95177
▁local	-7.95261
▁open	-7.95907
▁Rs	-7.96005
E	-7.96313
▁15	-7.96445
k	-7.96445
▁For	-7.9649
▁report	-7.96565
▁washing	-7.97503
▁mask	-7.97582
▁far	-7.98797
▁8	-7.99156
ural	-7.99284
▁make	-7.99485
unicipal	-8.00047
▁campaign	-8.00052
▁cause	-8.00101
▁Raje	-8.00349
▁schools	-8.00448
▁control	-8.00534
▁f	-8.0083
▁center	-8.00936
ri	-8.00936
▁9	-8.01004
refore	-8.01305
▁b	-8.01325
▁U	-8.01725
0	-8.01754
▁whe	-8.01773
▁develop	-8.01884
▁Government	-8.01989
id	-8.02039
am	-8.02099
▁shortage	-8.02599
▁February	-8.0261
▁24	-8.02942
▁Some	-8.03296
▁reach	-8.03915
ies	-8.03922
▁States	-8.04068
▁Many	-8.04083
il	-8.04352
▁May	-8.0453
▁level	-8.04678
▁area	-8.04725
▁week	-8.04933
▁company	-8.05115
P	-8.05188
▁thousand	-8.05199
9	-8.05429
▁called	-8.0544
▁set	-8.05725
▁developed	-8.06486
ity	-8.06631
peaking	-8.07052
cross	-8.07144
ten	-8.0718
▁affected	-8.075
▁pandemic	-8.07738
▁11	-8.0826
8	-8.08313
▁Union	-8.08413
▁human	-8.08752
▁using	-8.08942
▁blood	-8.09076
▁regard	-8.09076
▁held	-8.09077
▁place	-8.09972
▁total	-8.10284
▁become	-8.10435
▁because	-8.10437
,000	-8.10577
ent	-8.10985
▁low	-8.10996
▁demand	-8.11111
▁masks	-8.11179
▁seen	-8.11211
▁both	-8.11383
ter	-8.11411
▁still	-8.11829
te	-8.12151
▁measures	-8.1226
▁since	-8.12504
us	-8.1258
▁result	-8.12739
▁provide	-8.13071
▁much	-8.132
▁transmission	-8.132
ol	-8.13418
▁months	-8.13849
T	-8.13915
▁14	-8.14236
▁done	-8.14277
▁me	-8.14594
▁response	-8.15328
▁four	-8.15328
▁heart	-8.15347
▁clinical	-8.15427
ve	-8.15803
▁percent	-8.16026
taking	-8.16051
till	-8.16143
▁show	-8.16206
▁among	-8.16213
▁30	-8.1625
▁less	-8.16578
▁down	-8.16847
▁today	-8.16903
▁18	-8.17444
▁Kovid	-8.17502
ate	-8.17687
ile	-8.17994
▁production	-8.18251
7	-8.18431
▁Ministry	-8.18978
▁population	-8.18978
ch	-8.19418
▁un	-8.19432
▁places	-8.19524
▁Nagpur	-8.19724
▁going	-8.19767
▁emergency	-8.19775
M	-8.19812
▁question	-8.20136
▁research	-8.20424
▁third	-8.20557
▁WHO	-8.20804
▁next	-8.21234
▁surveillance	-8.21258
▁media	-8.21359
▁higher	-8.21459
▁face	-8.21737
▁process	-8.21901
▁samples	-8.22645
▁When	-8.22948
▁known	-8.22952
▁doctor	-8.23237
▁50	-8.23471
▁World	-8.23541
▁imposed	-8.23633
▁asked	-8.23638
▁issued	-8.2368
▁State	-8.24078
▁reduce	-8.24243
R	-8.2436
▁end	-8.24562
ro	-8.24679
is	-8.25087
▁How	-8.25107
▁Tope	-8.25121
▁five	-8.25166
▁according	-8.25166
v	-8.25266
▁va	-8.25432
▁K	-8.25856
um	-8.25918
▁fight	-8.25939
▁support	-8.25951
▁start	-8.26516
▁conditions	-8.26777
▁O	-8.26804
▁long	-8.26866
▁another	-8.26931
un	-8.27032
though	-8.27069
▁experts	-8.27093
▁stay	-8.2759
rious	-8.27698
▁Al	-8.27761
▁All	-8.28119
able	-8.28991
▁don	-8.2912
▁crisis	-8.29143
▁keep	-8.29143
▁told	-8.29169
▁Indian	-8.29749
▁further	-8.29969
▁fever	-8.29979
▁approved	-8.3007
▁likely	-8.30589
▁phase	-8.30597
la	-8.30621
and	-8.30691
▁sent	-8.3082
▁fire	-8.30828
▁de	-8.3123
li	-8.31278
▁early	-8.31643
▁services	-8.32135
▁continue	-8.32178
▁protect	-8.32432
▁family	-8.3249
▁police	-8.3249
▁staff	-8.3249
▁Serum	-8.32491
▁small	-8.32493
▁trials	-8.32648
▁addition	-8.32875
▁non	-8.33034
▁soap	-8.33214
▁Organization	-8.33345
▁yet	-8.33345
▁least	-8.33352
▁rapidly	-8.33465
tic	-8.33778
▁L	-8.34144
▁again	-8.3415
▁Corporation	-8.34207
▁water	-8.34311
▁coronary	-8.344
▁Chinese	-8.35214
▁app	-8.35217
▁group	-8.35853
▁admitted	-8.35955
▁US	-8.36034
▁distance	-8.36062
▁essential	-8.36128
▁department	-8.36749
▁condition	-8.36758
▁University	-8.36854
lying	-8.36874
est	-8.37252
ul	-8.37414
▁difficult	-8.37698
▁touch	-8.37734
▁No	-8.38268
▁closures	-8.39244
▁know	-8.39396
▁him	-8.3955
▁centers	-8.39682
▁avoid	-8.39754
D	-8.3997
▁To	-8.40671
▁V	-8.40976
based	-8.41071
om	-8.4124
-19.	-8.4125
▁G	-8.41291
▁similar	-8.41385
N	-8.41453
▁People	-8.41602
▁And	-8.41684
▁W	-8.41902
im	-8.42095
▁epidemic	-8.4232
▁each	-8.42328
▁e	-8.42506
▁am	-8.42959
not	-8.42973
▁Pradesh	-8.43264
▁house	-8.43265
ra	-8.43332
▁infections	-8.43753
▁Medic	-8.4393
▁weeks	-8.44095
▁lack	-8.44221
▁six	-8.44222
▁Nare	-8.44303
▁wear	-8.44481
▁Sa	-8.44654
▁women	-8.45177
▁critical	-8.4522
▁way	-8.45252
▁month	-8.45313
▁my	-8.4533
▁order	-8.45528
▁based	-8.45534
▁relat	-8.45577
▁coming	-8.45635
▁action	-8.45658
▁air	-8.45822
▁immune	-8.46148
▁pain	-8.46148
▁community	-8.4615
▁June	-8.46158
3	-8.46556
▁follow	-8.46586
ical	-8.46589
▁Re	-8.46597
▁village	-8.47231
▁Wuhan	-8.47234
▁good	-8.4725
▁Even	-8.47296
▁want	-8.47542
age	-8.47913
▁quarantine	-8.48083
▁back	-8.48133
ne	-8.48165
▁decided	-8.48203
▁parents	-8.48298
na	-8.48309
▁16	-8.48334
▁sever	-8.48736
▁capacity	-8.49118
▁highest	-8.49174
▁development	-8.49182
▁give	-8.49215
ha	-8.49372
▁required	-8.49442
ary	-8.49514
ad	-8.49773
▁general	-8.50129
▁Also	-8.50131
▁companies	-8.51149
▁Bharat	-8.51152
▁name	-8.51184
▁antibodies	-8.51194
▁young	-8.51224
▁expected	-8.51274
▁co	-8.51511
▁BJP	-8.5218
▁daily	-8.5218
▁chest	-8.5218
▁cold	-8.52223
▁received	-8.52348
▁conducted	-8.5248
▁effects	-8.52569
ll	-8.52835
▁evidence	-8.53221
▁safety	-8.53233
▁flu	-8.53262
▁You	-8.53375
▁confirmed	-8.53517
ance	-8.53598
▁serious	-8.5396
ta	-8.54029
cute	-8.54278
▁clear	-8.5435
▁us	-8.54493
▁1.	-8.54678
▁her	-8.54687
▁global	-8.55035
▁caus	-8.55199
▁Marathi	-8.55338
▁reason	-8.554
▁ICU	-8.55425
▁MERS	-8.55479
▁half	-8.5552
▁able	-8.55547
▁growing	-8.55666
▁came	-8.5612
▁viruses	-8.56272
▁Co	-8.56339
▁find	-8.56398
▁Pawar	-8.56418
▁lives	-8.5644
▁Amravati	-8.56447
▁main	-8.56452
▁night	-8.56528
▁d	-8.56795
▁provided	-8.57009
▁here	-8.57052
▁relatives	-8.57089
▁results	-8.57131
kar	-8.57165
▁South	-8.57501
▁Europe	-8.57535
▁An	-8.57737
▁New	-8.57825
ially	-8.58078
▁see	-8.58147
▁ventilators	-8.58595
▁why	-8.586
ist	-8.58605
▁cities	-8.58611
▁cost	-8.58662
ac	-8.58715
▁humans	-8.59449
▁she	-8.59528
H	-8.59566
▁Biotech	-8.5971
▁Meanwhile	-8.5971
▁look	-8.5971
▁Italy	-8.59717
▁active	-8.59723
▁online	-8.60185
%	-8.60412
▁outside	-8.60837
▁letter	-8.6084
▁post	-8.60898
▁shops	-8.61166
▁treat	-8.61232
▁force	-8.61515
▁safe	-8.61957
▁facilities	-8.6197
▁think	-8.6197
▁National	-8.6197
▁m	-8.61978
▁enter	-8.61991
▁full	-8.62114
▁registered	-8.6227
espec	-8.62632
▁c	-8.62665
▁common	-8.6282
B	-8.62962
▁everyone	-8.63145
00	-8.63359
We	-8.63453
▁strain	-8.63568
iv	-8.63658
▁close	-8.63754
▁persons	-8.6413
▁spreading	-8.64165
▁taluka	-8.64283
▁immediately	-8.64401
the	-8.64482
▁diseases	-8.64555
▁recommend	-8.64763
▁service	-8.64773
el	-8.64809
▁took	-8.65119
▁2019	-8.65176
▁problems	-8.65409
▁con	-8.65458
▁right	-8.65459
▁room	-8.65459
▁away	-8.65462
▁Do	-8.65511
to	-8.65869
▁remain	-8.66309
▁December	-8.66823
old	-8.67056
▁districts	-8.67113
▁considered	-8.67265
▁HCoV	-8.67283
▁others	-8.67434
▁major	-8.67822
as	-8.67983
▁officials	-8.68034
▁needs	-8.68117
▁part	-8.68155
line	-8.6828
▁following	-8.68885
▁visit	-8.69062
▁necessary	-8.69074
▁negative	-8.69074
▁stop	-8.69074
▁viral	-8.69075
▁100	-8.69083
▁contain	-8.69088
▁released	-8.69201
▁Dur	-8.69287
▁anti	-8.69377
▁needed	-8.69477
▁H	-8.69511
ness	-8.69571
▁affect	-8.69615
O	-8.69928
ig	-8.70015
▁31	-8.70092
ut	-8.70247
ublic	-8.70266
▁Pfizer	-8.70308
▁pneumonia	-8.70308
av	-8.70581
,"	-8.70881
▁host	-8.70947
▁17	-8.7111
▁influenza	-8.71558
▁fear	-8.71558
▁big	-8.71593
up	-8.71705
wa	-8.71873
▁market	-8.72644
▁enough	-8.72824
▁undergo	-8.72882
▁form	-8.72902
▁head	-8.72943
▁issue	-8.73291
op	-8.73334
▁change	-8.73364
▁recommended	-8.73577
ia	-8.73582
▁200	-8.73611
▁mortality	-8.74108
▁having	-8.74109
▁experience	-8.74125
▁suspect	-8.74147
▁unti	-8.74615
j	-8.74771
▁national	-8.75235
ine	-8.75375
▁declining	-8.75405
▁mild	-8.75405
▁genome	-8.75584
▁guidelines	-8.75616
▁informed	-8.75683
▁pm	-8.75828
▁inter	-8.76087
▁own	-8.76101
▁strict	-8.76417
▁lead	-8.76573
▁task	-8.76721
▁Remedesivir	-8.76779
pite	-8.76982
▁learning	-8.77227
ous	-8.77319
▁check	-8.7734
▁J	-8.77368
▁means	-8.77929
▁Now	-8.78108
▁produce	-8.78138
▁date	-8.78318
▁ACE	-8.78394
ti	-8.78482
▁free	-8.78608
▁al	-8.78609
▁22	-8.78651
▁consider	-8.78711
▁effect	-8.78853
▁type	-8.78891
▁transport	-8.79346
▁covacin	-8.79405
▁food	-8.79429
▁later	-8.79506
ally	-8.79699
▁One	-8.80107
▁appear	-8.80255
▁cells	-8.80353
▁Man	-8.806
▁short	-8.80754
▁senior	-8.80777
▁side	-8.80798
vi	-8.80926
▁implemented	-8.81089
▁times	-8.81132
▁cough	-8.81318
ab	-8.81386
▁questions	-8.814
5	-8.8157
▁examination	-8.81697
ated	-8.81816
▁Ka	-8.82003
▁levels	-8.82003
▁lot	-8.82165
▁impact	-8.82176
▁Oxford	-8.82208
▁September	-8.82261
▁run	-8.82269
▁require	-8.8257
▁passengers	-8.82711
▁lung	-8.83116
▁Centr	-8.83208
▁drugs	-8.83389
▁District	-8.83572
▁survey	-8.83572
▁above	-8.83573
▁example	-8.83576
▁Vaccination	-8.8362
▁began	-8.83716
▁mus	-8.83745
ial	-8.84012
ish	-8.84044
vel	-8.84135
▁40	-8.8446
▁21	-8.84532
ized	-8.84702
me	-8.84831
▁illness	-8.84921
▁already	-8.85001
▁might	-8.85001
▁just	-8.8502
▁political	-8.85065
▁healthcare	-8.85083
de	-8.85434
▁28	-8.85495
▁statement	-8.85626
ide	-8.85685
ak	-8.86135
lu	-8.8615
▁alcohol	-8.8645
▁sick	-8.86457
▁demanded	-8.86463
▁leaders	-8.86488
▁45	-8.86619
▁completely	-8.8669
▁23	-8.8674
▁shown	-8.86743
z	-8.86755
▁Su	-8.86924
▁25	-8.87001
▁Ab	-8.87093
▁man	-8.87424
▁13	-8.87436
ho	-8.87889
▁near	-8.87917
▁Department	-8.87921
▁single	-8.87922
▁worldwide	-8.8796
▁published	-8.87988
▁isolation	-8.88118
▁office	-8.88947
▁minister	-8.8904
nt	-8.89139
▁proper	-8.89202
▁Is	-8.8923
▁RNA	-8.89413
▁Research	-8.89413
▁More	-8.89443
▁wash	-8.89933
di	-8.89969
uty	-8.90081
F	-8.90785
▁allow	-8.9089
ant	-8.90896
▁Fadnavis	-8.90928
▁underway	-8.90929
▁planning	-8.9093
▁President	-8.90934
▁Ra	-8.91045
▁pay	-8.91169
▁soon	-8.91201
▁She	-8.9128
▁waste	-8.91324
-19,	-8.91329
▁trying	-8.91335
▁produced	-8.91428
▁put	-8.91524
▁reduced	-8.91592
▁things	-8.92141
▁practices	-8.92258
▁bats	-8.9226
▁toll	-8.92375
▁syndrome	-8.92467
▁past	-8.92468
▁attend	-8.9247
▁genetic	-8.92472
▁Lockdown	-8.92555
▁General	-8.92575
▁leader	-8.92636
▁Dep	-8.92649
▁Patients	-8.92718
▁pre	-8.92853
rom	-8.93374
▁l	-8.93429
ma	-8.93733
▁trial	-8.93889
▁laboratory	-8.94029
▁life	-8.94032
▁Home	-8.94033
▁instructions	-8.9417
▁board	-8.94362
▁statistics	-8.94405
▁once	-8.94454
va	-8.94899
▁review	-8.94913
▁reasons	-8.95199
▁chain	-8.95617
▁curfew	-8.95617
▁economic	-8.95617
▁exposure	-8.95617
▁industry	-8.95617
▁victims	-8.95693
▁special	-8.95751
▁Aji	-8.95837
▁discussed	-8.95982
year	-8.95985
▁offices	-8.9601
▁lower	-8.96103
▁feel	-8.96378
▁individuals	-8.96541
▁60	-8.96641
▁Commission	-8.96974
▁variant	-8.96977
▁official	-8.9699
▁vaccinate	-8.97002
▁animal	-8.97099
▁late	-8.97211
RCGP	-8.9723
▁immunity	-8.9723
▁infectious	-8.97233
▁financial	-8.97254
▁exams	-8.97309
▁rates	-8.97431
▁view	-8.97444
▁1,	-8.97463
pe	-8.97479
▁ill	-8.97836
ted	-8.97969
▁changes	-8.97973
end	-8.9837
▁challenge	-8.98637
▁contract	-8.98869
▁incidence	-8.98869
▁left	-8.98869
▁role	-8.98871
▁municipal	-8.98889
▁That	-8.98894
▁Of	-8.9901
▁directly	-8.99106
▁Commissioner	-8.9913
▁employees	-8.99296
▁coronaviruses	-8.99306
▁Du	-8.99372
▁went	-8.99409
▁limited	-8.99464
▁sector	-9.00329
▁Vaccine	-9.0034
▁class	-9.00438
▁Kumbh	-9.00536
▁Uttar	-9.00536
▁entire	-9.00536
▁Thane	-9.00536
▁Drug	-9.00536
▁stopped	-9.00536
▁Sunday	-9.00539
▁permission	-9.0054
▁pro	-9.00648
▁discussion	-9.00738
▁breathing	-9.01025
less	-9.01081
▁call	-9.01365
▁off	-9.01366
In	-9.0145
▁nose	-9.0152
▁2021	-9.01864
▁potential	-9.01934
▁g	-9.01976
▁Friday	-9.02231
▁High	-9.02231
▁Police	-9.02231
▁Secretary	-9.02231
▁equipment	-9.02231
▁point	-9.02231
▁Mela	-9.02231
▁president	-9.02233
▁usual	-9.02235
▁causes	-9.02392
day	-9.02672
came	-9.02713
▁created	-9.0274
▁origin	-9.03648
▁project	-9.03821
▁injections	-9.03923
▁Congress	-9.03955
▁families	-9.03955
▁season	-9.03955
▁video	-9.03955
▁RSC	-9.03955
▁expressed	-9.03956
▁onset	-9.03967
▁Care	-9.04013
▁Ma	-9.0403
▁card	-9.04031
com	-9.04047
▁reports	-9.04164
▁ensur	-9.0471
ke	-9.04734
ip	-9.04945
▁followed	-9.05189
ty	-9.05696
use	-9.05701
▁Disease	-9.05709
▁With	-9.05709
▁matter	-9.05709
▁pressure	-9.05709
▁Kumar	-9.0571
▁effectiveness	-9.05775
▁exam	-9.06158
▁news	-9.06482
han	-9.06831
▁Raj	-9.06866
▁plan	-9.06933
▁complete	-9.07065
▁temperature	-9.07393
▁authorities	-9.07495
▁occasion	-9.07495
▁together	-9.07496
▁studies	-9.07496
mbo	-9.07545
▁CDC	-9.07738
▁specific	-9.07768
tric	-9.07907
ions	-9.08089
▁De	-9.08115
ry	-9.08195
▁kits	-9.08478
▁crowd	-9.08572
har	-9.08723
▁car	-9.09021
▁Control	-9.09313
▁future	-9.09313
▁Patil	-9.09313
▁mandatory	-9.09318
▁protein	-9.09335
▁Other	-9.09441
L	-9.09486
▁2020.	-9.09497
▁raised	-9.09498
be	-9.09595
▁fac	-9.09668
like	-9.09943
ank	-9.10115
▁Ja	-9.10256
▁parts	-9.10325
tra	-9.10488
▁Nashik	-9.11165
▁location	-9.11166
▁Association	-9.11166
▁leave	-9.11169
▁ventilator	-9.11172
▁Will	-9.11177
▁Education	-9.11201
▁Covishield	-9.11224
▁ago	-9.11458
▁26	-9.11609
▁figures	-9.11611
".	-9.1186
▁events	-9.11937
ard	-9.12022
▁international	-9.12356
led	-9.12557
G	-9.12727
▁rise	-9.12939
▁access	-9.13052
▁PPE	-9.13052
▁Sonu	-9.13053
▁bring	-9.13054
▁standard	-9.13057
▁hygiene	-9.13104
▁medicine	-9.13105
njay	-9.13108
▁injection	-9.13113
▁director	-9.13143
ood	-9.13236
mp	-9.13242
▁containment	-9.13271
▁des	-9.13368
▁recovered	-9.13369
ya	-9.13392
ence	-9.13406
▁die	-9.13416
▁train	-9.13449
▁nurses	-9.1347
▁program	-9.13676
x	-9.13781
part	-9.13851
▁limit	-9.14315
▁ordered	-9.14423
▁too	-9.14864
▁Office	-9.14876
▁College	-9.14975
▁amount	-9.14975
▁antiviral	-9.14975
▁Since	-9.14976
▁attention	-9.15023
▁problem	-9.15056
▁paper	-9.15061
▁gone	-9.15085
▁Z	-9.1511
▁front	-9.15117
▁Oxygen	-9.15135
▁declared	-9.15147
▁ready	-9.1518
▁groups	-9.15198
▁animals	-9.15268
▁extended	-9.15268
▁quarantined	-9.15423
20	-9.15661
▁though	-9.15719
▁Ju	-9.158
ory	-9.159
▁70	-9.16006
▁concern	-9.16318
▁got	-9.16476
▁separate	-9.16682
▁sp	-9.16842
▁live	-9.16852
tensive	-9.1693
▁account	-9.16936
▁tell	-9.16938
▁controls	-9.16941
▁hit	-9.16977
▁90	-9.17074
▁School	-9.17128
▁ban	-9.1713
V	-9.17229
▁tweeted	-9.17539
▁factors	-9.17572
▁Don	-9.17832
▁issues	-9.17844
▁personal	-9.1829
▁prevalen	-9.18624
▁men	-9.18819
▁child	-9.18926
▁diarrhea	-9.18935
▁identified	-9.18935
▁policy	-9.18935
▁sequencing	-9.18935
▁society	-9.18935
▁average	-9.18936
▁Court	-9.18936
▁diabetes	-9.18937
▁seven	-9.18941
▁exist	-9.18951
▁alone	-9.18953
▁send	-9.18965
▁primary	-9.19128
cr	-9.19152
▁AstraZeneca	-9.19358
▁claimed	-9.19375
▁80	-9.19635
April	-9.19731
▁included	-9.1978
▁saying	-9.2008
▁mean	-9.20221
▁direct	-9.20522
▁writ	-9.2056
▁Par	-9.20683
▁CoVs	-9.20732
▁ten	-9.20753
▁save	-9.20764
▁Vasai	-9.20976
▁difference	-9.20976
ng	-9.20983
▁hard	-9.20991
▁fund	-9.20994
▁Director	-9.20995
▁29	-9.21033
▁h	-9.21073
▁Officer	-9.21081
▁asymptomatic	-9.21148
▁team	-9.21149
co	-9.21165
▁Mos	-9.21197
▁appealed	-9.21201
▁self	-9.21278
▁added	-9.21368
▁monitor	-9.21502
▁Pra	-9.21585
da	-9.21807
tion	-9.21826
▁cur	-9.21881
▁ra	-9.21979
95	-9.22209
▁notice	-9.22342
▁systems	-9.22352
▁detect	-9.22373
ors	-9.22744
ver	-9.22756
▁rapid	-9.22766
▁Collector	-9.2306
▁little	-9.2306
▁morning	-9.2306
▁gave	-9.2306
▁clean	-9.23271
▁application	-9.23285
▁mutation	-9.23299
▁stock	-9.23309
▁scientists	-9.23328
tri	-9.23493
▁killed	-9.23523
ful	-9.23633
▁suggested	-9.23689
▁along	-9.23831
▁types	-9.2386
wide	-9.23927
▁numbers	-9.24223
▁seems	-9.24536
43	-9.24722
▁St	-9.25001
▁Bengal	-9.25187
▁particular	-9.25187
▁skin	-9.25187
▁beginning	-9.25188
▁distribution	-9.25206
▁compared	-9.25383
▁observed	-9.25428
▁bat	-9.25497
▁practice	-9.25498
▁changed	-9.25572
▁ca	-9.25577
▁Not	-9.25591
▁dry	-9.25617
hi	-9.25637
▁West	-9.25688
▁learn	-9.26124
▁sit	-9.27
▁release	-9.27133
ash	-9.27155
▁business	-9.27269
▁medicines	-9.27324
▁Palghar	-9.27361
▁adults	-9.27361
▁advice	-9.27361
▁lost	-9.27361
▁Singh	-9.27381
▁estimated	-9.27472
▁schedule	-9.27487
▁diagnosed	-9.27542
▁create	-9.27654
▁sample	-9.27706
▁stage	-9.27713
▁hour	-9.27735
▁la	-9.28099
K	-9.2831
most	-9.28338
▁Bo	-9.28414
▁HCoVs	-9.28586
pur	-9.28619
▁treated	-9.28719
of	-9.29083
▁stages	-9.29243
▁nation	-9.29357
he	-9.29483
con	-9.29499
▁list	-9.29574
▁Britain	-9.29583
▁Saturday	-9.29583
▁scheme	-9.29583
▁MLA	-9.29584
▁natural	-9.29584
▁tracing	-9.29584
▁gym	-9.29584
▁court	-9.29584
▁stress	-9.29586
▁possibility	-9.29594
▁announcement	-9.29598
▁however	-9.29629
▁hospitalized	-9.29714
▁associated	-9.29896
▁fact	-9.30083
▁bacteria	-9.30111
▁officer	-9.30112
▁talking	-9.3026
▁depend	-9.3027
▁lungs	-9.30311
PCR	-9.30578
▁steps	-9.30596
ji	-9.31025
▁tweet	-9.3116
ack	-9.31216
od	-9.31279
Y	-9.31471
▁mobile	-9.31856
▁religious	-9.31856
▁throat	-9.31856
▁France	-9.31856
▁Varsha	-9.31856
▁certain	-9.31856
▁mouth	-9.31856
▁living	-9.31856
▁remedivir	-9.31858
▁making	-9.3186
ud	-9.31866
▁Rahu	-9.31881
▁history	-9.31898
▁normal	-9.31912
▁mental	-9.31939
▁regulator	-9.31945
▁initial	-9.31976
▁Germany	-9.32006
▁PHE	-9.32046
ade	-9.32068
▁status	-9.32099
▁antibody	-9.32246
ran	-9.32275
▁aim	-9.32608
▁efforts	-9.32769
▁Ar	-9.32804
▁carri	-9.32909
▁flights	-9.33115
▁suggest	-9.3347
▁sign	-9.33471
▁maintain	-9.33476
▁Vi	-9.33762
gra	-9.34004
▁Korea	-9.34031
▁great	-9.34053
▁Joshi	-9.34182
▁economy	-9.34182
▁progress	-9.34182
▁supplied	-9.34182
▁behind	-9.34182
▁successful	-9.34187
▁RTPCR	-9.34191
rought	-9.3421
▁findings	-9.34216
ake	-9.34253
▁launched	-9.34372
▁fil	-9.34372
▁recently	-9.34422
▁former	-9.34431
qu	-9.34647
▁answer	-9.3465
▁thing	-9.34768
au	-9.34816
▁i	-9.35058
▁minutes	-9.35062
It	-9.35418
gen	-9.35582
chief	-9.35952
▁conduct	-9.36039
▁infect	-9.36181
▁mutations	-9.3629
▁Africa	-9.36413
▁Expert	-9.36563
▁focus	-9.36563
▁incident	-9.36563
▁physical	-9.36563
▁remedicivir	-9.36563
▁request	-9.36563
▁turn	-9.36563
▁course	-9.36563
▁price	-9.36563
▁buy	-9.36564
kept	-9.36567
▁awareness	-9.3657
▁press	-9.36617
▁huge	-9.36634
▁Ch	-9.36668
▁delivery	-9.36752
▁completed	-9.37118
▁organization	-9.37123
▁RT	-9.37412
ex	-9.37617
▁training	-9.37622
one	-9.3809
▁Ba	-9.38327
ect	-9.38395
ang	-9.38521
bo	-9.38546
▁previous	-9.38702
man	-9.38784
▁PM	-9.38828
▁Russia	-9.38853
amp	-9.38871
▁Ro	-9.38903
▁Gujarat	-9.39002
▁Thursday	-9.39002
▁black	-9.39002
▁conference	-9.39002
▁field	-9.39002
▁function	-9.39002
▁picture	-9.39002
cy	-9.39003
ities	-9.39126
▁criticized	-9.39167
▁researchers	-9.39172
▁0	-9.39338
mm	-9.3943
▁dis	-9.39468
▁scale	-9.39489
ge	-9.39551
ap	-9.39561
▁colleges	-9.39974
There	-9.40513
▁2.	-9.40535
cal	-9.40633
▁Pro	-9.40906
▁27	-9.41441
W	-9.41457
▁Gaikwad	-9.41502
▁backdrop	-9.41502
▁contagious	-9.41502
▁environment	-9.41502
▁receptor	-9.41502
▁responsibility	-9.41502
▁website	-9.41502
▁Satara	-9.41502
▁bodies	-9.41502
▁phone	-9.41502
▁priority	-9.41526
▁Today	-9.41535
▁proteins	-9.41553
▁dead	-9.41572
▁exactly	-9.41597
▁virology	-9.4161
▁Adar	-9.41626
▁recovery	-9.41694
▁Last	-9.41746
▁ward	-9.41924
▁suffering	-9.42071
▁species	-9.42097
▁passed	-9.42134
▁hotel	-9.42165
▁whole	-9.42378
▁monitoring	-9.42531
▁ex	-9.42589
▁markets	-9.42695
▁move	-9.43172
▁happen	-9.43195
▁sub	-9.43326
▁play	-9.43424
▁stocks	-9.4376
▁Brazil	-9.44059
▁Guardian	-9.44066
▁Information	-9.44066
▁Trump	-9.44066
▁laboratories	-9.44066
▁manufacturing	-9.44066
▁sudden	-9.44066
▁Monday	-9.44066
▁running	-9.44068
▁swab	-9.44074
▁sell	-9.44084
▁reaction	-9.4411
▁Coronavirus	-9.44113
▁growth	-9.44138
▁protection	-9.44245
▁met	-9.44261
▁projects	-9.44267
▁Force	-9.4429
29	-9.44412
▁returned	-9.44666
▁option	-9.44798
▁tri	-9.44988
▁rest	-9.45117
▁sc	-9.45177
▁Deve	-9.45199
U	-9.45407
▁terms	-9.45446
▁elections	-9.45542
▁collect	-9.45718
▁register	-9.46002
10	-9.46109
nd	-9.46205
▁2,	-9.46373
▁Na	-9.46452
▁decide	-9.46469
▁presen	-9.46649
▁Opposition	-9.46697
▁Solapur	-9.46697
▁responsible	-9.46697
▁scientific	-9.46697
▁session	-9.46697
▁decline	-9.46698
▁distancing	-9.46698
▁zone	-9.46698
▁export	-9.46698
▁paid	-9.46698
▁woman	-9.46698
▁attack	-9.46699
▁acid	-9.46704
▁final	-9.4672
coming	-9.46741
▁vaccinations	-9.46932
▁anyone	-9.46962
▁Emergenc	-9.47034
▁Currently	-9.47047
ction	-9.4708
ath	-9.4741
ram	-9.47444
▁Pha	-9.47484
▁protocol	-9.47484
ik	-9.47486
▁region	-9.47493
▁cell	-9.47509
▁sanitizer	-9.47522
▁crowded	-9.47722
▁seem	-9.47759
vas	-9.47775
▁tankers	-9.47969
care	-9.48103
COVID	-9.48156
▁governments	-9.48286
lve	-9.48458
▁grow	-9.48489
19	-9.48668
lock	-9.48676
▁significant	-9.49103
▁Additional	-9.494
▁Aurangabad	-9.494
▁appropriate	-9.494
▁damage	-9.494
▁network	-9.494
▁Two	-9.494
▁tonnes	-9.494
▁digital	-9.49402
▁better	-9.49409
▁break	-9.4942
▁isolated	-9.49486
▁transportation	-9.49518
▁decreased	-9.49611
▁involved	-9.49707
▁technology	-9.49751
▁longer	-9.49841
▁Des	-9.49871
▁unit	-9.49886
▁procedures	-9.499
▁via	-9.50068
▁ministers	-9.50084
▁closure	-9.50299
▁concerned	-9.50374
▁na	-9.50412
▁doing	-9.50708
▁additional	-9.50918
relat	-9.50994
io	-9.51061
▁Mo	-9.51268
▁sanitizers	-9.5133
▁talk	-9.51339
ka	-9.51619
▁address	-9.51623
ite	-9.51641
▁cover	-9.51653
▁Are	-9.51675
▁bed	-9.51748
▁pass	-9.51851
ship	-9.52056
▁approach	-9.52082
▁old	-9.52157
▁Poonawala	-9.52178
▁ambulance	-9.52178
▁strong	-9.52178
▁studied	-9.52178
▁universities	-9.52178
▁management	-9.52178
▁mother	-9.52178
▁space	-9.52178
▁rush	-9.52178
▁East	-9.52179
▁never	-9.5218
▁storage	-9.52183
▁Prevention	-9.52184
▁station	-9.52193
ach	-9.52209
▁interest	-9.52233
▁severity	-9.52267
▁Citizens	-9.52268
▁real	-9.52273
▁plans	-9.52303
▁Wednesday	-9.52304
▁chron	-9.52304
▁Sever	-9.52316
▁admission	-9.52339
▁November	-9.52339
▁share	-9.52411
25	-9.52417
ern	-9.5264
▁thought	-9.52642
no	-9.52656
▁availability	-9.52752
▁Cha	-9.53016
▁mind	-9.53113
▁benefit	-9.53136
▁measure	-9.53165
Co	-9.53283
▁detected	-9.53286
ros	-9.53326
▁comes	-9.5341
air	-9.53424
ily	-9.53532
▁San	-9.53704
WHO	-9.53787
▁Pre	-9.53946
ever	-9.5409
▁breath	-9.54201
▁meet	-9.54212
ari	-9.543
▁officers	-9.54548
▁recent	-9.5474
▁immediate	-9.54741
▁door	-9.54889
▁drive	-9.54954
▁Australia	-9.55035
▁Passenger	-9.55035
▁Tuesday	-9.55035
▁security	-9.55035
▁money	-9.55035
▁planned	-9.55037
▁shut	-9.55037
▁Let	-9.55039
▁capital	-9.55048
▁Task	-9.5505
▁feet	-9.5505
▁foreign	-9.55051
▁law	-9.5508
▁Hyderabad	-9.55091
▁fall	-9.55117
▁respond	-9.55119
▁approval	-9.55215
▁October	-9.55312
▁teachers	-9.55575
▁properly	-9.55609
▁Doctors	-9.55881
▁cured	-9.56113
ay	-9.56381
▁48	-9.56764
▁homes	-9.56782
If	-9.57109
▁organizations	-9.57305
▁thousands	-9.5759
▁Centers	-9.57724
▁decrease	-9.57747
0%	-9.57774
▁fast	-9.57847
▁count	-9.57928
▁assess	-9.57938
ga	-9.57965
▁Bhondwe	-9.57976
▁Diwali	-9.57976
▁investigation	-9.57976
▁message	-9.57976
▁photo	-9.57976
▁simple	-9.57976
▁subject	-9.57976
▁therapy	-9.57976
▁tract	-9.57976
▁resources	-9.57977
▁Baba	-9.57977
▁banned	-9.57978
▁ongoing	-9.57978
▁speed	-9.5798
▁multiple	-9.57983
▁dangerous	-9.57985
▁efficacy	-9.58
▁Nagar	-9.58006
▁percentage	-9.58063
▁committee	-9.58126
▁Iran	-9.58147
▁antigen	-9.58168
▁Vaccines	-9.58325
▁read	-9.58509
esh	-9.58512
▁bar	-9.58587
▁performed	-9.58598
mi	-9.58839
ternational	-9.59076
▁solution	-9.59096
▁journalist	-9.59106
▁relative	-9.59264
▁organ	-9.59313
▁500	-9.59322
50	-9.59438
▁return	-9.59454
▁sta	-9.59516
Corona	-9.59762
ok	-9.59823
▁bio	-9.59913
▁discuss	-9.59941
▁track	-9.60163
▁implement	-9.60251
▁wide	-9.60263
▁Or	-9.60317
hu	-9.60627
▁agricultur	-9.60641
▁war	-9.60679
13	-9.60761
▁Who	-9.60771
▁provid	-9.60786
eal	-9.60847
ught	-9.60962
▁Committee	-9.61007
▁Vijay	-9.61007
▁agencies	-9.61007
▁failure	-9.61007
▁activity	-9.61007
▁peak	-9.61007
▁surg	-9.61008
▁assistance	-9.61012
▁intermedia	-9.61013
▁missing	-9.61017
▁Council	-9.61022
▁suspend	-9.61025
63	-9.61028
▁Kong	-9.6103
▁toilet	-9.61034
▁4.	-9.61046
▁etc	-9.61048
▁hold	-9.61048
▁entry	-9.61054
▁someone	-9.61145
▁urban	-9.61171
▁classes	-9.61176
▁interact	-9.61181
tal	-9.61249
▁canceled	-9.61278
▁distributed	-9.6132
▁prevention	-9.61383
▁en	-9.61393
▁eight	-9.61582
▁ages	-9.61627
▁Hon	-9.61667
▁recorded	-9.61676
▁happened	-9.61843
ase	-9.61918
▁store	-9.62096
▁occur	-9.62217
▁cleaning	-9.62222
▁member	-9.62235
▁Ko	-9.62507
▁members	-9.62879
free	-9.62882
advised	-9.63021
▁News	-9.63199
▁walk	-9.63384
▁kill	-9.63395
▁try	-9.63589
▁bo	-9.63878
ond	-9.63977
▁Earlier	-9.64132
▁exercise	-9.64132
▁sequence	-9.64132
▁spike	-9.64132
▁Sputnik	-9.64132
▁closing	-9.64134
▁Chandrapur	-9.64137
▁model	-9.64149
▁hope	-9.6416
▁Consider	-9.64233
▁starting	-9.64275
▁older	-9.64286
▁billion	-9.64323
▁departments	-9.64453
▁established	-9.64635
▁allegations	-9.64651
▁claim	-9.64743
▁record	-9.6475
▁prepared	-9.64757
ian	-9.64813
aj	-9.64941
▁light	-9.65077
▁weekly	-9.65595
▁lab	-9.65705
▁candidates	-9.65756
▁35	-9.65938
▁contacted	-9.65941
SARS	-9.66112
ni	-9.66275
ja	-9.66279
▁provides	-9.66335
▁slow	-9.66345
▁inform	-9.66604
5%	-9.66905
▁villages	-9.67011
▁adapt	-9.67297
▁import	-9.67324
▁prior	-9.67325
▁multi	-9.67354
▁England	-9.67357
▁Kerala	-9.67357
▁Krishna	-9.67357
▁Railway	-9.67357
▁adequate	-9.67357
▁elderly	-9.67357
▁enzyme	-9.67357
▁widespread	-9.67357
▁mentioned	-9.67357
▁extent	-9.67358
▁link	-9.67358
▁Malik	-9.67358
▁poor	-9.67358
▁understand	-9.67358
▁clarified	-9.67359
▁rising	-9.6736
▁exposed	-9.67361
▁overall	-9.67361
▁violat	-9.67361
▁unknown	-9.67364
▁item	-9.67373
▁carry	-9.67379
▁Medicine	-9.67417
▁parties	-9.67448
▁Fund	-9.67477
▁pregnant	-9.67546
▁Amit	-9.67603
▁significantly	-9.67714
▁offer	-9.67848
▁variants	-9.67869
▁sore	-9.6814
▁eyes	-9.68148
▁mov	-9.68449
▁vehicles	-9.68464
▁directed	-9.6848
▁cylinders	-9.68655
4%	-9.68779
▁election	-9.68809
▁building	-9.69187
▁code	-9.6932
▁continu	-9.69547
▁Di	-9.69604
▁traveling	-9.6967
tan	-9.69716
▁Dat	-9.69752
▁perform	-9.69969
▁giv	-9.6997
▁target	-9.69981
▁Shiv	-9.70003
▁except	-9.70513
tory	-9.7052
▁plant	-9.70548
▁August	-9.70691
▁Deshmukh	-9.70691
▁Rajasthan	-9.70691
▁Singapore	-9.70691
▁Twitter	-9.70691
▁analysis	-9.70691
▁earlier	-9.70691
▁segregation	-9.70691
▁recogniz	-9.70691
▁ventilation	-9.70691
▁Japan	-9.70691
▁programmes	-9.70691
▁toward	-9.70697
▁strategies	-9.70717
▁Nawa	-9.70729
gaon	-9.70762
▁constantly	-9.70766
▁Children	-9.70799
ological	-9.70805
ani	-9.70865
vin	-9.70917
long	-9.70931
ca	-9.70933
▁approximate	-9.70971
▁arrested	-9.7099
▁eating	-9.71023
▁mid	-9.71244
▁original	-9.71292
▁manag	-9.71309
▁CT	-9.71376
▁hy	-9.7141
▁ma	-9.7149
▁tr	-9.7164
▁examinations	-9.71874
▁...	-9.72129
ill	-9.72188
▁kit	-9.72258
▁flight	-9.72276
▁ability	-9.72304
30	-9.72351
▁surfaces	-9.72502
term	-9.72641
▁threat	-9.72735
▁stores	-9.72789
▁outbreaks	-9.72807
▁handle	-9.72819
▁cons	-9.72927
II	-9.72995
▁fine	-9.7301
75	-9.73021
ble	-9.73635
▁cross	-9.73779
▁Ga	-9.7383
▁orders	-9.73886
ix	-9.73919
▁Schools	-9.73954
put	-9.74012
▁trans	-9.74092
▁Kejriwal	-9.74139
▁Lucas	-9.74139
▁Reddy	-9.74139
▁colleagues	-9.74139
▁describ	-9.74139
▁gradually	-9.74139
▁guidance	-9.74139
▁initiative	-9.74139
▁cabinet	-9.74139
▁shift	-9.74139
▁personnel	-9.74139
▁chance	-9.7414
▁facility	-9.74144
▁coding	-9.74146
▁key	-9.74146
▁Covin	-9.7416
▁seat	-9.74162
▁Where	-9.74167
▁mass	-9.74178
▁implementation	-9.74207
▁greater	-9.74332
▁involve	-9.74401
▁Sood	-9.74476
▁power	-9.74518
▁ser	-9.74585
lic	-9.74616
▁July	-9.74676
agar	-9.74896
land	-9.75078
▁handl	-9.75085
raw	-9.7517
hal	-9.75356
▁drying	-9.75515
▁ship	-9.75749
▁material	-9.75805
▁job	-9.7581
▁surface	-9.75844
▁methods	-9.75994
▁jobs	-9.76007
▁creat	-9.76202
▁decisions	-9.76265
▁experienc	-9.76288
▁coughing	-9.76294
▁method	-9.76387
▁term	-9.76448
▁benefits	-9.76487
gi	-9.76768
ants	-9.76778
.5	-9.76889
▁Can	-9.76993
▁add	-9.77387
▁worker	-9.77425
▁careful	-9.77501
droxychloroquine	-9.7771
▁Development	-9.7771
▁Hubei	-9.7771
▁Karona	-9.7771
▁Vidarbha	-9.7771
▁alternative	-9.7771
▁clots	-9.7771
▁confusion	-9.7771
▁funeral	-9.7771
▁liquid	-9.7771
▁remedesivir	-9.7771
▁Gandhi	-9.7771
▁privacy	-9.7771
▁wedding	-9.77711
▁communities	-9.77712
▁domestic	-9.77713
▁Administration	-9.77717
▁reduction	-9.77718
▁range	-9.77736
▁ministry	-9.7774
▁hospitalization	-9.77754
▁ICMR	-9.77764
▁manufactured	-9.7779
▁agent	-9.77845
▁faster	-9.77869
▁FDA	-9.77873
▁Give	-9.77894
ture	-9.77982
▁postponed	-9.78017
▁adverse	-9.78058
▁boy	-9.78096
▁Shash	-9.781
▁serve	-9.78164
▁stored	-9.78201
war	-9.78223
▁His	-9.78543
hra	-9.78603
▁collected	-9.7868
▁tons	-9.787
▁returning	-9.78727
▁Ta	-9.79087
▁detail	-9.79486
▁candidate	-9.79516
▁student	-9.79538
▁hosts	-9.79541
▁meetings	-9.79571
over	-9.79634
▁3.	-9.79644
▁Act	-9.7983
▁fill	-9.80088
corona	-9.80168
said	-9.80182
kh	-9.80329
60	-9.80337
▁options	-9.8036
▁suffer	-9.80517
▁wait	-9.80927
▁tend	-9.81054
▁worse	-9.81265
ied	-9.81293
▁loss	-9.81317
WIN	-9.81414
▁Before	-9.81414
▁basis	-9.81414
▁participating	-9.81414
▁reservoir	-9.81414
▁sneezing	-9.81414
▁household	-9.81414
▁Munde	-9.81415
▁Paul	-9.81415
▁hotspot	-9.81415
▁Human	-9.81419
▁section	-9.81429
▁Johnson	-9.81434
▁line	-9.8151
▁crowds	-9.81531
▁Such	-9.81656
alian	-9.81713
▁slowly	-9.8176
▁disinfect	-9.81866
▁changing	-9.81872
2)	-9.82093
▁outcomes	-9.82107
▁learner	-9.82114
▁speaking	-9.82207
▁continues	-9.82277
▁manufacturers	-9.82326
▁vegetables	-9.82545
mit	-9.8329
▁youth	-9.83339
▁expert	-9.83386
▁EU	-9.83554
▁strains	-9.83755
ified	-9.83865
tu	-9.83915
No	-9.83959
RT	-9.84154
▁stand	-9.84412
35	-9.84558
▁65	-9.84674
ara	-9.84785
itially	-9.84963
lt	-9.85099
▁receive	-9.85241
▁California	-9.85257
▁Ex	-9.8526
▁British	-9.8526
▁Kolhapur	-9.8526
▁husband	-9.8526
▁institutions	-9.8526
▁machine	-9.8526
▁politics	-9.8526
▁purpose	-9.8526
▁remote	-9.8526
▁tissue	-9.8526
▁true	-9.8526
▁Strict	-9.85261
▁Sena	-9.85268
▁menstruation	-9.85268
▁preliminary	-9.85272
▁ground	-9.85272
▁Ramde	-9.85273
▁fatalit	-9.85279
▁importance	-9.85284
▁Hand	-9.85344
worth	-9.85351
▁businesses	-9.85426
▁rare	-9.85427
▁typical	-9.85486
▁pathogenic	-9.85559
▁CoV	-9.85605
▁La	-9.8569
▁relaxed	-9.85691
▁potentially	-9.85951
▁shared	-9.8599
▁waiting	-9.8615
art	-9.86187
▁party	-9.86302
▁deal	-9.86366
▁Li	-9.86596
▁arrive	-9.86637
▁extra	-9.86921
▁dep	-9.86971
▁Use	-9.87132
▁Bha	-9.87236
erous	-9.87241
time	-9.87244
▁tanker	-9.87421
▁codes	-9.87485
92	-9.87853
J	-9.87985
March	-9.88015
▁cov	-9.8818
ray	-9.88217
▁deliver	-9.88236
▁refus	-9.8825
ise	-9.88812
hana	-9.88839
ep	-9.88844
86	-9.88849
deep	-9.88953
▁act	-9.88984
▁makes	-9.89015
▁micro	-9.89257
▁Follow	-9.8926
▁cluster	-9.8926
▁deploy	-9.8926
▁devotees	-9.8926
▁diagnosis	-9.8926
▁droplets	-9.8926
▁feature	-9.8926
▁holiday	-9.8926
▁territories	-9.8926
▁themselves	-9.8926
▁trouble	-9.8926
▁zoono	-9.8926
▁abroad	-9.8926
▁activities	-9.8926
▁resort	-9.8926
adhya	-9.8926
▁warned	-9.89262
▁distress	-9.89262
ious	-9.89267
▁super	-9.89271
▁everything	-9.89272
▁regulations	-9.89272
▁middle	-9.89273
▁rul	-9.89278
▁sale	-9.89286
▁moderate	-9.89287
▁ju	-9.89287
saw	-9.89304
▁Over	-9.89309
▁cut	-9.89323
▁municipality	-9.89339
vir	-9.89387
▁connection	-9.89391
▁50,000	-9.8942
▁aerosol	-9.89443
▁rain	-9.89513
▁Does	-9.89582
▁Sure	-9.89611
ism	-9.89632
veryone	-9.89799
▁designed	-9.89811
▁apps	-9.89811
▁degrees	-9.89852
▁delivered	-9.89973
Table	-9.90008
▁remove	-9.90024
▁seek	-9.90142
7%	-9.90211
andeep	-9.90259
ell	-9.90298
vind	-9.90388
▁II	-9.9043
▁sure	-9.90444
▁41	-9.90466
▁settings	-9.90486
ology	-9.9067
▁idea	-9.90897
▁Then	-9.90921
14	-9.90935
▁estimates	-9.90973
hose	-9.90979
▁materials	-9.91442
▁platform	-9.91505
OC	-9.91508
▁millions	-9.91513
▁step	-9.91537
▁recover	-9.9155
▁beta	-9.92017
light	-9.92046
district	-9.92178
covid	-9.9218
▁facilitate	-9.92271
-19)	-9.92352
▁delay	-9.92717
hav	-9.92811
▁aid	-9.92822
▁Work	-9.92919
und	-9.93152
▁rub	-9.93339
▁trains	-9.93356
▁App	-9.93386
▁Bhushan	-9.93427
▁Election	-9.93427
▁Jessica	-9.93427
▁Pimpri	-9.93427
▁UNESCO	-9.93427
▁York	-9.93427
▁controversy	-9.93427
▁inquiry	-9.93427
▁search	-9.93427
▁ticket	-9.93427
▁twice	-9.93427
HKU	-9.93427
▁Bihar	-9.93427
▁identify	-9.93427
cular	-9.93427
▁moment	-9.93427
▁wrong	-9.93427
▁Biden	-9.93427
▁establishments	-9.93428
▁supplies	-9.93428
▁false	-9.93428
▁bind	-9.93429
▁opposition	-9.93429
▁excluded	-9.9343
▁thus	-9.93436
▁something	-9.9344
▁moder	-9.93453
we	-9.93483
▁farmers	-9.93483
▁urg	-9.93524
▁campaigns	-9.93529
▁majority	-9.9354
▁joint	-9.93595
▁gas	-9.936
▁useful	-9.93604
▁Bank	-9.93626
▁best	-9.93647
▁position	-9.93714
▁Covacin	-9.93727
▁below	-9.93747
▁ei	-9.93832
▁challenges	-9.94026
▁birds	-9.9421
IV	-9.94285
100	-9.94524
▁Virar	-9.9458
▁precautions	-9.94628
ED	-9.94674
slam	-9.94677
▁300	-9.9474
94	-9.94777
olar	-9.9485
▁won	-9.94933
▁products	-9.95114
9%	-9.95132
round	-9.95249
pa	-9.953
▁requir	-9.95385
nath	-9.95476
▁continued	-9.95485
▁Mar	-9.955
ock	-9.95569
▁stated	-9.95581
▁PCR	-9.9582
▁42	-9.95882
▁owner	-9.95907
▁claims	-9.95972
▁prepar	-9.96187
▁units	-9.96413
human	-9.96536
▁My	-9.96583
▁Every	-9.9662
▁hotels	-9.96627
nother	-9.96734
▁avoided	-9.96746
gainst	-9.96826
38	-9.96829
onal	-9.96884
On	-9.969
CoVs	-9.97059
▁establish	-9.97073
▁applications	-9.97301
15	-9.97463
▁spoke	-9.97511
▁400	-9.97631
▁determine	-9.97652
▁success	-9.97765
▁Kovacin	-9.97775
▁Management	-9.97775
▁accused	-9.97775
▁celebrat	-9.97775
▁combination	-9.97775
▁compound	-9.97775
▁empty	-9.97775
▁extreme	-9.97775
▁institute	-9.97775
▁plasma	-9.97775
▁proposal	-9.97775
▁vacancies	-9.97775
▁predict	-9.97775
▁instead	-9.97776
▁forward	-9.97777
▁probabl	-9.97777
▁nature	-9.97785
▁camels	-9.97785
▁himself	-9.97787
▁secretary	-9.97788
▁frontline	-9.97819
▁discharg	-9.97856
▁Out	-9.97871
▁Anil	-9.9791
▁bad	-9.9792
app	-9.97993
▁double	-9.9802
▁transmitted	-9.98034
▁interaction	-9.98055
▁operate	-9.9807
east	-9.98101
▁obtained	-9.98138
▁mis	-9.98166
tive	-9.98167
64	-9.98382
▁intend	-9.98478
▁suppliers	-9.98507
▁scan	-9.98696
▁tender	-9.98747
▁refer	-9.99038
ize	-9.9908
▁produc	-9.99098
▁maintained	-9.99122
▁o	-9.99425
▁ever	-9.99509
▁Jai	-9.99533
▁Nit	-9.99556
ative	-9.99896
▁generat	-10.0003
ition	-10.0014
▁estimate	-10.0018
sure	-10.0018
▁border	-10.0038
47	-10.0059
▁organs	-10.0061
▁generate	-10.0076
▁extend	-10.0162
mant	-10.0186
▁regular	-10.0202
▁believe	-10.021
17	-10.0216
3%	-10.0217
▁apply	-10.0221
estrictions	-10.0226
▁impose	-10.0226
▁consult	-10.0226
ick	-10.0227
ecause	-10.0229
relevant	-10.0232
▁Canada	-10.0232
▁Haridwar	-10.0232
▁Pakistan	-10.0232
▁Punawala	-10.0232
▁Similar	-10.0232
▁afraid	-10.0232
▁bicycle	-10.0232
▁chloroquine	-10.0232
▁demonstrat	-10.0232
▁everywhere	-10.0232
▁policies	-10.0232
▁quality	-10.0232
▁revealed	-10.0232
▁therapeutic	-10.0232
▁Tamil	-10.0232
▁boost	-10.0232
stream	-10.0232
▁prompt	-10.0232
▁tomorrow	-10.0232
▁overcome	-10.0232
▁birth	-10.0232
▁father	-10.0232
▁Order	-10.0232
▁comment	-10.0232
▁identity	-10.0233
▁serology	-10.0233
▁nine	-10.0233
▁complaints	-10.0233
▁wipe	-10.0233
▁anything	-10.0233
▁image	-10.0234
▁Raut	-10.0237
▁investigated	-10.024
▁collection	-10.0242
▁capab	-10.0245
reak	-10.0247
▁attempt	-10.0253
▁heav	-10.0269
▁33	-10.0269
RO	-10.0288
▁sectors	-10.0289
par	-10.0304
▁farm	-10.0308
▁1)	-10.0318
▁germs	-10.0336
▁secondary	-10.0337
▁Centre	-10.0352
ead	-10.0354
▁tracking	-10.0362
▁presented	-10.0375
▁hundreds	-10.0381
▁37	-10.0386
▁event	-10.0389
ability	-10.0402
mar	-10.0434
▁cor	-10.0439
▁Ram	-10.0446
▁sw	-10.0449
▁son	-10.0458
tin	-10.0483
24	-10.0484
▁treatments	-10.0493
▁cylinder	-10.0518
▁college	-10.0519
▁effort	-10.0519
▁individual	-10.052
▁passenger	-10.052
▁symptom	-10.052
▁journalists	-10.0528
▁accept	-10.0529
▁rule	-10.0542
▁product	-10.0547
▁:	-10.0561
▁regions	-10.0564
load	-10.0579
Virar	-10.0581
risk	-10.0584
are	-10.06
▁speak	-10.0624
▁plane	-10.0634
▁spend	-10.064
▁1.5	-10.0669
▁German	-10.0677
pat	-10.0677
▁War	-10.0679
▁enforce	-10.0685
▁Va	-10.0691
84	-10.0693
▁menstrua	-10.0707
▁Pharma	-10.0708
▁engineer	-10.0708
▁Authority	-10.0708
▁Harshvardhan	-10.0708
▁Haryana	-10.0708
▁Raigad	-10.0708
▁Zhang	-10.0708
▁accident	-10.0708
▁atmosphere	-10.0708
▁discovered	-10.0708
▁hazard	-10.0708
▁located	-10.0708
▁railway	-10.0708
▁Nepal	-10.0708
▁leaving	-10.0708
▁Spain	-10.0708
▁corporation	-10.0708
▁muscle	-10.0708
▁Leader	-10.0708
▁Controller	-10.0708
▁install	-10.0708
▁manner	-10.0708
▁applied	-10.0708
Figure	-10.0708
▁North	-10.0708
▁complications	-10.0708
▁construction	-10.0709
▁tourists	-10.0709
▁alert	-10.0709
▁blow	-10.071
crete	-10.071
▁Board	-10.0711
▁consistent	-10.0711
▁performance	-10.0711
▁factories	-10.0711
▁urgent	-10.0712
▁introduced	-10.0716
▁movement	-10.0716
▁updated	-10.0719
▁Ye	-10.0728
▁purchase	-10.0732
positivity	-10.0734
king	-10.0741
▁cancelled	-10.0742
▁angiotensin	-10.0743
▁membrane	-10.0743
▁pharmaceutical	-10.0749
▁explained	-10.0752
▁streets	-10.076
▁calls	-10.0764
▁agriculture	-10.0766
▁previously	-10.0768
▁screening	-10.0773
ax	-10.0774
ple	-10.0784
▁MP	-10.0785
▁Un	-10.0787
▁removed	-10.0794
▁arrived	-10.0803
▁recovering	-10.0808
▁City	-10.0816
▁gatherings	-10.0817
NL	-10.0858
ald	-10.0864
▁starts	-10.0871
▁healthy	-10.0895
▁cho	-10.0905
3,000	-10.0932
▁advis	-10.0954
ox	-10.0969
▁AC	-10.0972
8%)	-10.0986
CO	-10.0986
▁formed	-10.0992
▁thank	-10.0999
MS	-10.1006
▁minute	-10.1019
▁solutions	-10.1019
▁Maha	-10.1036
▁reduc	-10.1041
▁examin	-10.1054
▁remaining	-10.106
erg	-10.1072
▁happens	-10.1073
ACE	-10.1083
India	-10.1085
structed	-10.1139
▁Test	-10.1151
▁8,	-10.1163
▁Be	-10.1178
▁fl	-10.1181
▁shortages	-10.1184
▁concerns	-10.1187
78	-10.1194
▁postpone	-10.1196
knowledge	-10.1201
▁inject	-10.1201
serv	-10.1202
▁danger	-10.1207
http	-10.1208
://	-10.1208
▁Dharavi	-10.1208
▁London	-10.1208
▁Maratha	-10.1208
▁budget	-10.1208
▁circulating	-10.1208
▁complex	-10.1208
▁discovery	-10.1208
▁envelope	-10.1208
▁federal	-10.1208
▁industrial	-10.1208
▁petition	-10.1208
▁pregnancy	-10.1208
▁province	-10.1208
▁sneeze	-10.1208
▁traffic	-10.1208
▁Local	-10.1208
▁alleged	-10.1208
▁biggest	-10.1208
▁brother	-10.1208
▁otherwise	-10.1208
▁Harsh	-10.1208
▁Treatment	-10.1208
▁kind	-10.1208
▁relief	-10.1208
▁Infection	-10.1208
▁routine	-10.1208
▁mechanism	-10.1208
▁grant	-10.1208
▁panic	-10.1208
▁Four	-10.1208
▁upper	-10.1208
▁reverse	-10.1209
▁drop	-10.1209
▁interview	-10.1209
▁trend	-10.121
▁professor	-10.121
▁wife	-10.121
▁Hind	-10.1211
▁storm	-10.1212
▁sharp	-10.1214
▁Shah	-10.1215
▁finger	-10.1217
▁cardio	-10.1217
rmal	-10.1219
▁exp	-10.1222
▁sometime	-10.1222
▁itself	-10.1225
▁5,000	-10.1238
▁graph	-10.1244
preserv	-10.1253
▁Mu	-10.1257
▁works	-10.126
▁Ya	-10.1265
▁Mayor	-10.1272
90	-10.1274
▁Sha	-10.1274
▁conv	-10.1279
▁controlled	-10.1285
▁prevalent	-10.1289
▁vi	-10.1289
▁serv	-10.129
%)	-10.1295
▁Pu	-10.1307
emed	-10.1308
▁filled	-10.1309
▁design	-10.1321
by	-10.1331
▁commonly	-10.1342
▁walking	-10.1348
▁seriously	-10.1355
▁Shara	-10.1364
hok	-10.1375
que	-10.1378
▁im	-10.139
▁Services	-10.1393
ki	-10.1405
▁arriv	-10.1422
▁reporting	-10.1427
▁7,	-10.1437
▁remains	-10.1508
▁occurs	-10.1525
▁love	-10.1534
▁Bas	-10.154
▁road	-10.1541
▁Service	-10.1543
RS	-10.1561
▁friend	-10.1566
▁Am	-10.1597
▁4)	-10.1605
kant	-10.1606
species	-10.1609
bacteria	-10.1609
People	-10.161
hat	-10.1629
rao	-10.1633
ised	-10.167
6%	-10.1674
65	-10.1687
▁clinic	-10.1704
alk	-10.1717
▁America	-10.172
▁Modern	-10.1722
▁Mahavikas	-10.1735
▁Besides	-10.1735
▁Canadian	-10.1735
▁Kingdom	-10.1735
▁Sawant	-10.1735
▁airport	-10.1735
▁bottle	-10.1735
▁polymerase	-10.1735
▁sleep	-10.1735
▁strategy	-10.1735
▁vaccinating	-10.1735
▁yesterday	-10.1735
▁Covax	-10.1735
▁NCP	-10.1735
EEA	-10.1735
▁Pandit	-10.1735
▁basic	-10.1735
▁duration	-10.1735
▁worship	-10.1735
▁battle	-10.1735
▁worry	-10.1735
▁Clinic	-10.1735
▁surgery	-10.1735
lescent	-10.1735
▁occurred	-10.1735
▁Post	-10.1735
▁blam	-10.1735
▁cocktail	-10.1735
▁coordinat	-10.1735
▁let	-10.1736
kins	-10.1737
intestin	-10.1737
Class	-10.1737
▁serum	-10.1739
▁Year	-10.174
▁vary	-10.1743
▁weekend	-10.1745
▁Chandra	-10.1748
▁dispos	-10.175
▁GP	-10.1753
▁story	-10.1754
▁certificate	-10.1754
▁difficulties	-10.1755
40	-10.1759
▁chemical	-10.1759
▁tools	-10.1765
▁teaching	-10.1769
▁Das	-10.1769
▁Well	-10.1777
bound	-10.1778
73	-10.1786
▁Hop	-10.1793
▁Air	-10.1793
33	-10.1798
▁600	-10.1806
▁aware	-10.1814
▁prepare	-10.1814
▁sufficient	-10.1841
▁devices	-10.1845
▁asking	-10.1856
itis	-10.1856
▁filling	-10.1859
▁800	-10.1874
▁2021.	-10.1875
87	-10.1878
▁Sit	-10.1883
77	-10.1887
▁banks	-10.1909
▁sites	-10.1941
mong	-10.1949
ze	-10.1957
▁license	-10.1959
▁55	-10.1973
atic	-10.198
az	-10.1986
▁36	-10.2018
anand	-10.2033
▁buildings	-10.2048
▁shows	-10.2055
▁150	-10.2056
▁vehicle	-10.21
▁rely	-10.2108
▁charge	-10.2119
washing	-10.2157
▁minim	-10.2164
This	-10.2166
37	-10.2173
▁5.	-10.2176
▁answers	-10.2177
▁site	-10.2197
▁expect	-10.2222
▁frequent	-10.226
▁bill	-10.2277
▁complain	-10.2289
evolution	-10.229
▁Aghadi	-10.229
▁Cambridge	-10.229
▁Family	-10.229
▁Global	-10.229
▁Group	-10.229
▁Upadhyay	-10.229
▁contrast	-10.229
▁cruise	-10.229
▁evacuat	-10.229
▁hypoxia	-10.229
▁operating	-10.229
▁sampling	-10.229
▁summer	-10.229
▁technique	-10.229
▁artery	-10.229
▁insurance	-10.229
▁Women	-10.229
▁Agency	-10.229
▁loan	-10.229
▁headache	-10.229
▁Awate	-10.229
▁game	-10.229
▁fees	-10.229
▁subsequent	-10.229
▁begun	-10.229
▁consist	-10.229
▁lockout	-10.2291
▁temporary	-10.2291
▁partner	-10.2291
▁kg	-10.2291
▁villagers	-10.2291
▁recommendations	-10.2291
▁package	-10.2291
▁trade	-10.2292
▁reliable	-10.2292
referred	-10.2294
▁unlock	-10.2296
dem	-10.2297
▁Talk	-10.2297
soph	-10.2301
▁Google	-10.2301
▁providers	-10.2301
▁registration	-10.2302
▁num	-10.2313
▁liver	-10.2319
▁Chinchwad	-10.2323
▁Student	-10.2323
▁pulmon	-10.2323
▁Russian	-10.2325
69	-10.2327
▁organized	-10.2327
▁frequently	-10.2331
▁ho	-10.2335
▁10,000	-10.2341
teen	-10.2355
▁restaurants	-10.2363
inary	-10.2364
che	-10.2384
▁Form	-10.2391
▁risen	-10.2394
pt	-10.2425
▁residents	-10.243
▁closely	-10.2438
▁load	-10.2441
▁CI	-10.2447
▁Ki	-10.2451
ah	-10.2454
▁covering	-10.2465
▁begins	-10.2475
58	-10.2485
▁monitored	-10.2487
dar	-10.2514
80	-10.2517
▁realiz	-10.252
men	-10.2526
▁ask	-10.2536
-5	-10.2552
▁dryer	-10.2555
▁Sun	-10.2555
▁variet	-10.2568
hil	-10.2631
▁Did	-10.2651
▁remov	-10.2661
▁whom	-10.2663
▁promote	-10.2666
▁apart	-10.2673
▁factor	-10.2674
▁hundred	-10.2687
▁begin	-10.2688
audi	-10.2689
▁protocols	-10.2702
AS	-10.2704
▁34	-10.2708
▁bank	-10.2717
▁camp	-10.2717
93	-10.2718
infected	-10.274
AstraZeneca	-10.2753
Covid	-10.2754
▁arise	-10.2756
board	-10.2757
▁gu	-10.277
level	-10.2776
▁source	-10.2781
▁methodolog	-10.2783
-2.	-10.2784
▁gather	-10.2792
▁su	-10.2805
▁Go	-10.2821
▁goods	-10.2822
▁teams	-10.2828
shield	-10.284
▁improve	-10.285
bal	-10.2853
▁limits	-10.2867
oreign	-10.2875
isaster	-10.2876
easures	-10.2876
iddle	-10.2876
rupt	-10.2877
▁repeated	-10.2878
▁Aditya	-10.2878
▁Ahmednagar	-10.2878
▁Akola	-10.2878
▁Avoid	-10.2878
▁Brook	-10.2878
▁Contact	-10.2878
▁Express	-10.2878
▁Facebook	-10.2878
▁Foundation	-10.2878
▁Halfkin	-10.2878
▁Javadekar	-10.2878
▁Karnataka	-10.2878
▁Pandharpur	-10.2878
▁Shops	-10.2878
▁Thorat	-10.2878
▁Vardhan	-10.2878
▁Welfare	-10.2878
▁Yojana	-10.2878
▁academic	-10.2878
▁always	-10.2878
▁background	-10.2878
▁behavior	-10.2878
▁burden	-10.2878
▁cemetery	-10.2878
▁documents	-10.2878
▁gloves	-10.2878
▁ignor	-10.2878
▁pattern	-10.2878
▁promising	-10.2878
▁reservation	-10.2878
▁window	-10.2878
▁agreed	-10.2878
▁milk	-10.2878
▁text	-10.2878
▁Demand	-10.2878
▁Social	-10.2878
▁internet	-10.2878
▁reserved	-10.2878
▁unfortunate	-10.2878
▁electric	-10.2878
▁dropped	-10.2878
Mamata	-10.2878
▁orphan	-10.2878
▁vot	-10.2878
▁First	-10.2878
▁cycle	-10.2879
▁Store	-10.2879
▁microorganisms	-10.2879
▁compli	-10.2879
▁audit	-10.2879
▁tribal	-10.2879
aheb	-10.288
▁agitation	-10.288
▁laborers	-10.2881
ission	-10.2882
▁cancellation	-10.2882
▁Party	-10.2882
▁coroners	-10.2883
▁box	-10.2885
aryng	-10.2885
▁remedi	-10.2886
▁Thus	-10.2886
▁duty	-10.2887
▁sold	-10.2891
▁generation	-10.2891
▁evening	-10.2893
▁2009	-10.2893
▁Chain	-10.2905
▁components	-10.2908
▁annual	-10.2914
▁Report	-10.2922
▁Tri	-10.2927
▁regularly	-10.293
▁customers	-10.2932
hus	-10.2948
▁enhance	-10.295
▁announce	-10.2957
▁independent	-10.2958
68	-10.296
▁counter	-10.2967
▁acquir	-10.2969
▁soaps	-10.2994
▁coronation	-10.2997
▁interventions	-10.2998
▁cl	-10.3
▁standing	-10.3011
▁towels	-10.3015
▁(5	-10.3019
tide	-10.3024
▁phases	-10.3028
▁pangolins	-10.3039
▁Here	-10.3044
▁medications	-10.3051
▁Indians	-10.3054
▁sources	-10.3075
mph	-10.3081
▁spreads	-10.3082
activ	-10.3083
aki	-10.3108
▁land	-10.3113
▁32	-10.3133
▁reviewed	-10.3152
▁platforms	-10.3159
▁fat	-10.3188
▁feeling	-10.3202
aram	-10.3269
▁59	-10.3291
▁vegetable	-10.3313
▁Rep	-10.3313
▁Pr	-10.3317
▁shop	-10.3317
53	-10.3342
▁Multi	-10.3361
▁setting	-10.3362
sufficient	-10.3378
confirmed	-10.3378
quarantine	-10.3378
scale	-10.3381
pass	-10.3384
▁dire	-10.339
made	-10.3411
essential	-10.3413
▁screen	-10.3418
▁select	-10.3432
▁relax	-10.3433
▁appeal	-10.3439
▁km	-10.346
▁tax	-10.3485
fforts	-10.3501
▁breathe	-10.3502
ubation	-10.3503
cumulati	-10.3503
▁AIIMS	-10.3503
▁Affairs	-10.3503
▁Celsius	-10.3503
▁Darekar	-10.3503
▁Second	-10.3503
▁Survey	-10.3503
▁Under	-10.3503
▁Uttarakhand	-10.3503
▁agreement	-10.3503
▁anywhere	-10.3503
▁circumstances	-10.3503
▁comparison	-10.3503
▁comprehensive	-10.3503
▁criteria	-10.3503
▁criticism	-10.3503
▁fatigue	-10.3503
▁festival	-10.3503
▁fruit	-10.3503
▁happy	-10.3503
▁influence	-10.3503
▁migrant	-10.3503
▁mutated	-10.3503
▁parcel	-10.3503
▁suppress	-10.3503
▁traditional	-10.3503
▁Company	-10.3503
▁alpha	-10.3503
▁Chavan	-10.3503
▁maxim	-10.3503
▁quot	-10.3503
▁repurpos	-10.3503
▁wrote	-10.3503
▁IMA	-10.3503
▁baby	-10.3503
▁felt	-10.3503
▁winter	-10.3504
▁traders	-10.3504
▁contaminated	-10.3504
▁warning	-10.3504
▁Kamal	-10.3504
▁proportion	-10.3504
▁liter	-10.3504
▁drink	-10.3504
▁chairman	-10.3505
▁groceries	-10.3506
▁amino	-10.3506
▁town	-10.3507
▁download	-10.3507
▁extensive	-10.3507
▁Thre	-10.3509
▁workplace	-10.3509
▁proposed	-10.351
▁nothing	-10.351
▁prove	-10.3511
▁disruption	-10.3516
▁Goa	-10.3517
▁Final	-10.3518
▁inside	-10.352
▁driver	-10.3526
umb	-10.3527
▁exception	-10.3537
eet	-10.3539
▁users	-10.3541
ium	-10.3545
▁collector	-10.3556
lder	-10.3564
▁pediatricians	-10.3573
▁Ask	-10.3584
▁really	-10.3596
▁upon	-10.3599
▁abdom	-10.3604
aries	-10.3612
▁98	-10.3614
▁swing	-10.362
▁preparations	-10.3636
bility	-10.3638
▁targeted	-10.364
▁shield	-10.3642
▁Khan	-10.3642
My	-10.3651
▁72	-10.3661
uri	-10.3669
▁cure	-10.3674
▁words	-10.3687
▁meals	-10.3688
eight	-10.3694
▁44	-10.3696
45	-10.3725
log	-10.373
▁friends	-10.3738
▁appears	-10.375
▁writing	-10.3775
▁Gar	-10.3785
3)	-10.3838
ection	-10.3839
▁85	-10.384
▁Gil	-10.3857
11	-10.3867
▁plants	-10.3876
▁labs	-10.389
▁66	-10.391
ency	-10.3923
▁minds	-10.3945
▁Ban	-10.3964
▁advise	-10.3966
PP	-10.397
▁Science	-10.3976
▁medication	-10.3978
▁word	-10.3978
▁precaution	-10.3979
4)	-10.3986
▁shar	-10.399
▁53	-10.4007
generat	-10.4044
organ	-10.4052
▁Ha	-10.4059
▁complet	-10.4064
▁receiv	-10.4064
▁distribut	-10.4094
pati	-10.4106
▁build	-10.4107
size	-10.4113
IL	-10.4115
ama	-10.4118
may	-10.4149
illa	-10.4149
▁disrupt	-10.4157
ization	-10.4161
▁coron	-10.4164
▁administrati	-10.4166
rivate	-10.4166
▁Hu	-10.4167
▁journal	-10.4168
▁Hypoxia	-10.417
expensive	-10.417
▁Akhada	-10.417
▁Infectious	-10.417
▁Parishad	-10.417
▁Policy	-10.417
▁Right	-10.417
▁Society	-10.417
▁Surveillance	-10.417
▁advance	-10.417
▁association	-10.417
▁challenging	-10.417
▁cinema	-10.417
▁congestion	-10.417
▁cultural	-10.417
▁disadvantage	-10.417
▁industries	-10.417
▁injury	-10.417
▁liquor	-10.417
▁mRNA	-10.417
▁protease	-10.417
▁rallies	-10.417
▁remember	-10.417
▁stomach	-10.417
▁vomiting	-10.417
▁Israel	-10.417
▁Vivek	-10.417
▁interval	-10.417
ologist	-10.417
▁2012	-10.417
▁Nadu	-10.417
▁shopping	-10.417
▁civet	-10.417
▁Kadu	-10.417
uestion	-10.417
▁Super	-10.417
▁Surat	-10.417
▁implications	-10.417
▁newspaper	-10.417
▁Fortis	-10.417
▁spokesperson	-10.417
▁Shinde	-10.4171
▁cytokine	-10.4171
DNA	-10.4171
▁manpower	-10.4171
▁compromis	-10.4171
▁discrimination	-10.4172
▁invest	-10.4172
,500	-10.4172
▁geographical	-10.4172
▁erupt	-10.4173
ength	-10.4174
▁flow	-10.4174
▁aches	-10.4174
▁specifically	-10.4176
▁Young	-10.4177
▁Nik	-10.4179
▁disinfectant	-10.418
▁homology	-10.4182
▁cowardly	-10.4184
▁opportunity	-10.4185
▁Shivaji	-10.4185
▁nucleo	-10.4188
▁warm	-10.4192
▁Asia	-10.4192
▁alarming	-10.4197
▁bus	-10.4198
▁secret	-10.4199
▁arrival	-10.4201
RE	-10.4202
▁Nath	-10.4204
▁meal	-10.4211
▁2,000	-10.4214
frastructure	-10.4231
▁purchased	-10.4236
▁weak	-10.4237
▁dependent	-10.4239
inal	-10.4239
▁doubts	-10.4244
▁volunteers	-10.4244
26	-10.4245
▁book	-10.4248
isation	-10.425
▁Prad	-10.4253
▁indicate	-10.4259
▁cooperat	-10.4273
▁operations	-10.4285
▁sense	-10.4291
▁updates	-10.4299
▁specimens	-10.4313
▁50%	-10.4325
een	-10.4343
▁addressed	-10.4347
▁73	-10.4371
▁round	-10.4376
▁signed	-10.4381
bra	-10.4414
shi	-10.4414
▁port	-10.442
▁experienced	-10.4435
▁touris	-10.4438
hen	-10.4443
1%	-10.4481
▁250	-10.4523
▁details	-10.4532
ati	-10.4545
ong	-10.4546
▁varie	-10.4552
dge	-10.4559
▁extract	-10.4581
▁records	-10.4584
▁gene	-10.4593
▁62	-10.4609
▁connect	-10.4627
gan	-10.4629
▁nas	-10.4671
oral	-10.4672
ctually	-10.4685
ntibody	-10.4686
▁pangolin	-10.4692
▁Doctor	-10.4695
▁employee	-10.4696
07	-10.4696
▁Ho	-10.4705
Happ	-10.4758
162	-10.4759
Even	-10.4759
work	-10.476
Many	-10.476
coronavirus	-10.476
more	-10.4761
sense	-10.4771
half	-10.4775
▁Vir	-10.4778
23	-10.4809
ool	-10.4827
her	-10.4855
▁buil	-10.4861
▁isolate	-10.4862
▁formula	-10.4867
▁base	-10.487
▁employ	-10.488
cientists	-10.4882
▁harm	-10.4882
satisf	-10.4884
▁mark	-10.4884
▁popular	-10.4884
▁prescrib	-10.4884
ARDS	-10.4884
ccupational	-10.4884
investigating	-10.4884
▁Alcohol	-10.4884
▁Denmark	-10.4884
▁Guidelines	-10.4884
▁MPSC	-10.4884
▁Market	-10.4884
▁Network	-10.4884
▁Novavax	-10.4884
▁Privacy	-10.4884
▁Punjab	-10.4884
▁Sheikh	-10.4884
▁Symptoms	-10.4884
▁Taiwan	-10.4884
▁Thousands	-10.4884
▁Washington	-10.4884
▁Yavatmal	-10.4884
▁administer	-10.4884
▁bronchitis	-10.4884
▁easily	-10.4884
▁gynecologist	-10.4884
▁lopinavir	-10.4884
▁morbidity	-10.4884
▁smoke	-10.4884
▁vitamin	-10.4884
▁ailments	-10.4884
vector	-10.4884
▁Maharaj	-10.4884
▁dispute	-10.4884
▁Times	-10.4884
▁floor	-10.4884
ISC	-10.4884
▁domain	-10.4884
▁fixed	-10.4884
▁PTI	-10.4884
▁diff	-10.4884
▁exceed	-10.4884
▁sealed	-10.4884
▁Rules	-10.4884
▁Tupe	-10.4884
▁asthma	-10.4884
▁persisten	-10.4884
▁Thailand	-10.4884
organisms	-10.4885
▁attach	-10.4885
▁sensitive	-10.4885
▁limitations	-10.4885
▁submitted	-10.4885
▁instance	-10.4885
▁else	-10.4885
▁Ramesh	-10.4886
▁Naik	-10.4886
▁correspondent	-10.4886
▁mission	-10.4887
▁childcare	-10.4887
▁Economic	-10.4887
▁1201	-10.4888
▁route	-10.489
▁enable	-10.4891
resistan	-10.4891
▁observe	-10.4892
▁Compar	-10.4892
▁chart	-10.4893
▁consultation	-10.4894
▁assembly	-10.4895
▁commissioner	-10.4896
▁traced	-10.4901
▁quickly	-10.4901
▁American	-10.4905
▁Statistics	-10.4908
acted	-10.4909
▁Th	-10.4913
▁inspected	-10.4914
▁disposal	-10.4917
▁III	-10.4918
▁efficient	-10.4918
▁actor	-10.492
▁Beds	-10.4921
▁believed	-10.4922
▁virolog	-10.4922
▁heard	-10.4922
▁temperatures	-10.4926
▁Bioentech	-10.4928
▁African	-10.493
▁particles	-10.4935
▁disorders	-10.4964
▁82	-10.4967
▁saved	-10.4969
▁controll	-10.4977
▁girls	-10.4979
ients	-10.4986
▁rubb	-10.4991
▁Lab	-10.4995
▁convert	-10.4996
▁Beed	-10.4997
▁delayed	-10.5009
minus	-10.5018
hibition	-10.5022
▁activists	-10.5067
▁actual	-10.5088
▁globally	-10.5097
▁Inter	-10.5103
▁happening	-10.5133
▁replac	-10.5144
▁See	-10.5152
44	-10.5167
▁Kes	-10.5171
posed	-10.5206
▁57	-10.5223
2,6	-10.5265
drawn	-10.528
▁checked	-10.5288
dal	-10.5337
▁Bir	-10.5364
promised	-10.5395
▁marketing	-10.5396
▁indicat	-10.5411
▁imp	-10.5423
▁39	-10.5453
▁activist	-10.546
▁eye	-10.5465
▁figure	-10.5465
▁statistic	-10.5465
▁manufacturer	-10.5471
medical	-10.5478
▁Prav	-10.5488
▁survive	-10.5497
▁resident	-10.5497
▁meter	-10.5507
source	-10.5526
produc	-10.5527
specific	-10.5528
Chinese	-10.5529
January	-10.5529
When	-10.553
door	-10.5532
You	-10.5534
media	-10.554
▁shock	-10.5568
▁cancel	-10.5569
▁confirm	-10.5578
▁explain	-10.5583
▁arrest	-10.5583
▁68	-10.5592
ible	-10.5596
ssential	-10.5608
tap	-10.5609
▁join	-10.5622
▁exact	-10.5624
▁respective	-10.5625
▁absen	-10.5636
▁broke	-10.5638
▁cloth	-10.5644
▁evaluat	-10.5647
▁recruit	-10.5649
▁Johns	-10.5649
▁grocer	-10.565
adjust	-10.5651
uarantine	-10.5653
▁arrange	-10.5653
ritonavir	-10.5653
▁Agarwal	-10.5653
▁Answer	-10.5653
▁Cabinet	-10.5653
▁Ebola	-10.5653
▁Gadchiroli	-10.5653
▁Netherlands	-10.5653
▁Osmanabad	-10.5653
▁Pharmaceutical	-10.5653
▁Remdesivir	-10.5653
▁Shenzhen	-10.5653
▁Zydus	-10.5653
▁accelerat	-10.5653
▁accurate	-10.5653
▁antibiotic	-10.5653
▁concept	-10.5653
▁conferencing	-10.5653
▁dashboard	-10.5653
▁decreasing	-10.5653
▁journey	-10.5653
▁module	-10.5653
▁pilot	-10.5653
▁reflect	-10.5653
▁rejected	-10.5653
▁remdesivir	-10.5653
▁remind	-10.5653
▁simply	-10.5653
▁smell	-10.5653
▁spark	-10.5653
▁speech	-10.5653
▁stuck	-10.5653
▁thorough	-10.5653
mbass	-10.5654
▁Bajirao	-10.5654
▁Bhagwat	-10.5654
▁Patanjali	-10.5654
▁Wardha	-10.5654
▁foot	-10.5654
▁retail	-10.5654
▁Genom	-10.5654
▁Sangli	-10.5654
▁afternoon	-10.5654
▁club	-10.5654
▁CEO	-10.5654
▁Arabia	-10.5654
▁white	-10.5654
▁Level	-10.5654
▁Kishor	-10.5654
▁easy	-10.5654
▁fresh	-10.5654
▁Shri	-10.5654
▁recombination	-10.5654
▁burn	-10.5654
▁fifth	-10.5654
▁fortnight	-10.5654
▁ahead	-10.5654
volume	-10.5654
▁Nanded	-10.5654
▁river	-10.5654
▁pace	-10.5654
▁collaboration	-10.5654
▁forget	-10.5654
▁lessons	-10.5654
▁lethal	-10.5654
▁reference	-10.5655
▁dying	-10.5656
▁Parliament	-10.5656
▁disaster	-10.5656
▁Western	-10.5657
▁Death	-10.5657
▁pool	-10.5659
▁Sudh	-10.5659
▁Gore	-10.5662
▁Mask	-10.5662
▁Apple	-10.5663
▁gain	-10.5663
eshwar	-10.5664
▁ven	-10.5665
▁rail	-10.5667
▁Gold	-10.5669
▁edition	-10.5669
▁70%	-10.5673
▁fish	-10.5673
▁Try	-10.5676
▁bath	-10.5681
ony	-10.5686
▁worsen	-10.5686
▁enforced	-10.5692
▁weakened	-10.5697
▁meat	-10.5701
▁Imp	-10.5704
▁CM	-10.5706
▁Sach	-10.5716
For	-10.5733
▁Prasa	-10.5737
▁science	-10.5742
▁selected	-10.5743
CMR	-10.5745
MC	-10.5745
▁radi	-10.5755
▁income	-10.5756
▁reli	-10.5768
▁soil	-10.5768
▁union	-10.577
▁hall	-10.5771
▁pathogens	-10.5772
▁professionals	-10.5788
▁representatives	-10.5788
▁Testing	-10.579
▁spending	-10.5797
▁97	-10.5805
▁cardi	-10.5821
▁strictly	-10.5839
▁nationally	-10.5847
▁ID	-10.5849
▁noon	-10.5858
ij	-10.5859
mini	-10.5871
imm	-10.5883
▁Sciences	-10.5884
▁arises	-10.5907
300	-10.5942
▁roads	-10.5948
yn	-10.5956
▁trained	-10.5956
▁borders	-10.5996
wan	-10.6003
▁ratio	-10.6018
▁54	-10.6024
wake	-10.6076
erti	-10.6089
▁et	-10.6108
01	-10.6115
▁carrier	-10.6115
▁partial	-10.6121
700	-10.613
iya	-10.6135
iological	-10.6189
▁3)	-10.6256
▁Say	-10.6258
▁Gr	-10.6267
▁Tan	-10.627
eam	-10.6278
▁Bio	-10.6282
body	-10.6289
▁towel	-10.6295
▁germ	-10.6296
▁nurse	-10.6298
▁inhibit	-10.6302
▁write	-10.6306
self	-10.6324
▁Has	-10.6351
gov	-10.6354
convert	-10.6358
acquir	-10.6359
intend	-10.636
force	-10.6362
December	-10.6362
effective	-10.6362
▁struggl	-10.6373
▁observ	-10.6376
says	-10.6376
ilip	-10.6407
▁practi	-10.6409
▁cremat	-10.6415
▁obtain	-10.6416
▁launch	-10.6417
▁gathering	-10.6419
▁2)	-10.6425
▁eat	-10.6447
possible	-10.6472
▁commission	-10.6474
go	-10.6477
q	-10.6479
▁Direct	-10.6479
▁Jayant	-10.648
express	-10.6486
▁psych	-10.6487
▁pharma	-10.6487
▁concentrator	-10.6487
▁consulate	-10.6487
▁eradicat	-10.6487
▁temple	-10.6487
▁transaction	-10.6487
▁washroom	-10.6487
OSHA	-10.6487
efficienc	-10.6487
▁Adhanom	-10.6487
▁Bhujbal	-10.6487
▁Chhattisgarh	-10.6487
▁Industri	-10.6487
▁Niranjan	-10.6487
▁Pandey	-10.6487
▁Secretariat	-10.6487
▁Short	-10.6487
▁Through	-10.6487
▁autopsy	-10.6487
▁beneficial	-10.6487
▁categor	-10.6487
▁ceremony	-10.6487
▁constituency	-10.6487
▁context	-10.6487
▁deteriorating	-10.6487
▁division	-10.6487
▁dwellers	-10.6487
▁dynamic	-10.6487
▁enemy	-10.6487
▁hypertension	-10.6487
▁opinion	-10.6487
▁prohibit	-10.6487
▁provision	-10.6487
▁quantities	-10.6487
▁quarter	-10.6487
▁recognition	-10.6487
▁replication	-10.6487
▁revenue	-10.6487
▁skill	-10.6487
▁stabiliz	-10.6487
▁truck	-10.6487
▁unnecessary	-10.6487
▁yoga	-10.6487
▁Kunte	-10.6487
▁Surgeon	-10.6487
▁mistake	-10.6487
▁strange	-10.6487
▁throw	-10.6487
▁army	-10.6487
▁repair	-10.6487
▁weapon	-10.6487
▁Instead	-10.6487
▁endanger	-10.6487
▁recip	-10.6487
▁match	-10.6487
▁slum	-10.6487
▁transcription	-10.6487
▁Finance	-10.6487
▁abortion	-10.6487
▁witness	-10.6487
▁Blood	-10.6487
▁Further	-10.6487
▁Lancet	-10.6487
▁2019-20	-10.6487
▁ILI	-10.6487
▁watch	-10.6487
▁prioritize	-10.6487
▁valid	-10.6487
LRTI	-10.6487
▁tired	-10.6487
glass	-10.6487
▁Pvt	-10.6487
▁mucormycosis	-10.6487
▁requirements	-10.6487
▁fluids	-10.6487
▁Keep	-10.6487
▁Californians	-10.6487
▁Safety	-10.6487
sterile	-10.6488
NHS	-10.6488
▁antimicrobial	-10.6488
▁award	-10.6488
▁antiseptic	-10.6488
▁libraries	-10.6488
▁conclusion	-10.6488
▁firecrackers	-10.6488
▁debate	-10.6488
▁Gupt	-10.6488
▁bench	-10.6488
please	-10.6489
▁oppos	-10.6489
▁airborne	-10.6489
▁strengthen	-10.6489
▁Like	-10.6489
▁tighten	-10.649
▁employment	-10.6492
▁suggestions	-10.6492
▁slight	-10.6492
▁Latur	-10.6492
▁electronic	-10.6492
▁Chha	-10.6492
▁observation	-10.6493
▁conven	-10.6493
▁preparedness	-10.6493
▁Medi	-10.6495
▁sex	-10.6496
▁specialist	-10.6498
▁assessment	-10.6499
▁buses	-10.6499
▁encouraged	-10.6502
▁Fever	-10.6503
achch	-10.6504
▁anxiety	-10.6504
▁operational	-10.6505
▁TV	-10.6509
▁makeup	-10.6511
▁taxi	-10.6512
▁artificial	-10.6515
▁respectively	-10.652
▁improved	-10.6521
ware	-10.6523
▁Roy	-10.6525
▁page	-10.6526
▁Civi	-10.6529
ility	-10.6533
▁lifted	-10.6534
▁sun	-10.6535
▁Plan	-10.6535
▁hot	-10.6538
▁144	-10.654
▁acknowledg	-10.654
▁Korean	-10.6543
▁strand	-10.655
regulation	-10.6551
▁1,000	-10.6552
▁pneumo	-10.6555
▁carefully	-10.656
▁DCGI	-10.6561
▁determined	-10.6562
▁symptomatic	-10.6563
▁desire	-10.6595
▁indicated	-10.6597
▁pack	-10.66
▁struggle	-10.6602
dium	-10.661
▁donat	-10.6616
▁accepted	-10.6618
▁inflammat	-10.6626
liance	-10.6629
▁diet	-10.6633
▁structure	-10.6633
▁Happ	-10.6645
mall	-10.6647
▁surviv	-10.666
▁log	-10.6666
▁communications	-10.6668
▁withdraw	-10.6668
▁slowed	-10.6681
reate	-10.6715
▁emergenc	-10.6717
mod	-10.6728
08	-10.6737
▁commerc	-10.6747
▁producer	-10.6842
preme	-10.6916
1.8	-10.6923
▁Rea	-10.6928
ntil	-10.6972
▁emerge	-10.7001
Trace	-10.7025
Win	-10.7025
97	-10.703
▁rais	-10.7087
▁Special	-10.7099
dan	-10.7105
▁spen	-10.7122
CDC	-10.7124
infection	-10.7157
▁formulat	-10.7172
case	-10.7188
▁communication	-10.7202
▁specimen	-10.7203
▁object	-10.7203
▁device	-10.7204
▁restriction	-10.7213
▁Ravi	-10.7216
Anti	-10.7218
▁instruct	-10.7239
▁preparation	-10.7247
▁swin	-10.7257
view	-10.7265
▁dr	-10.7266
secondary	-10.7269
count	-10.727
direct	-10.727
associated	-10.727
isolation	-10.7271
MERS	-10.7271
through	-10.7271
Some	-10.7271
hip	-10.7272
availability	-10.7276
even	-10.7279
spira	-10.7291
how	-10.7298
under	-10.7308
▁cry	-10.7322
▁fail	-10.7324
▁Ru	-10.7335
▁achieve	-10.7345
laid	-10.7352
Fig	-10.7361
▁tank	-10.738
▁Pass	-10.7388
inancial	-10.7393
ecutive	-10.7395
clusive	-10.7395
▁chair	-10.7395
correct	-10.7396
▁Bluetooth	-10.7396
▁deteriorate	-10.7396
▁harass	-10.7396
▁technic	-10.7396
Transport	-10.7396
epidemiology	-10.7396
graduate	-10.7396
hylogenetic	-10.7396
▁Assembly	-10.7396
▁Bangladesh	-10.7396
▁CEPI	-10.7396
▁Governor	-10.7396
▁Hebber	-10.7396
▁Konkan	-10.7396
▁Kovishield	-10.7396
▁Lucknow	-10.7396
▁MHRA	-10.7396
▁Muslim	-10.7396
▁Pednekar	-10.7396
▁Physician	-10.7396
▁Securit	-10.7396
▁Telangana	-10.7396
▁affidavit	-10.7396
▁capture	-10.7396
▁combined	-10.7396
▁conclude	-10.7396
▁consequences	-10.7396
▁displeasure	-10.7396
▁earliest	-10.7396
▁easier	-10.7396
▁epidemiological	-10.7396
▁escape	-10.7396
▁female	-10.7396
▁garden	-10.7396
▁mammals	-10.7396
▁modify	-10.7396
▁paracetamol	-10.7396
▁participate	-10.7396
▁permitted	-10.7396
▁plastic	-10.7396
▁premises	-10.7396
▁smooth	-10.7396
▁sports	-10.7396
▁stagger	-10.7396
▁succeed	-10.7396
▁twenty	-10.7396
▁university	-10.7396
▁Bhalke	-10.7396
▁KEM	-10.7396
▁Look	-10.7396
▁anonymity	-10.7396
▁cleave	-10.7396
▁migrat	-10.7396
▁steel	-10.7396
▁Lanka	-10.7396
▁Sample	-10.7396
▁diverge	-10.7396
▁honor	-10.7396
▁pulse	-10.7396
▁salary	-10.7396
▁catch	-10.7396
▁protest	-10.7396
▁value	-10.7396
▁Critic	-10.7396
▁arrangements	-10.7396
▁welcome	-10.7396
▁highway	-10.7396
▁entities	-10.7396
▁scared	-10.7396
▁agency	-10.7396
▁soldier	-10.7396
▁identi	-10.7396
▁Siram	-10.7396
edicated	-10.7396
▁Fear	-10.7396
▁bru	-10.7396
▁Organi	-10.7396
▁worst	-10.7397
▁century	-10.7397
▁row	-10.7397
▁executive	-10.7397
▁hint	-10.7397
▁Chhatra	-10.7397
▁inhibitors	-10.7397
▁Ganga	-10.7397
▁Shir	-10.7397
▁visibl	-10.7397
▁coronaries	-10.7397
peptid	-10.7398
▁appointment	-10.7398
▁suitable	-10.7398
activated	-10.7398
hall	-10.7398
▁virologist	-10.7398
▁revis	-10.7398
▁medium	-10.7399
▁mitigation	-10.7399
▁HIV	-10.74
▁table	-10.74
▁malls	-10.74
▁Stay	-10.7401
▁theaters	-10.7401
▁gap	-10.7401
▁mandat	-10.7402
▁vigilant	-10.7404
▁yourself	-10.7404
▁compare	-10.7407
▁version	-10.7409
▁cit	-10.7411
▁elevated	-10.7413
▁emerg	-10.7418
▁metre	-10.7419
▁denie	-10.7424
▁Division	-10.7427
▁UN	-10.7431
▁30%	-10.7434
▁Trial	-10.7434
▁waiv	-10.7437
▁Asian	-10.7439
▁Coronil	-10.744
▁experimental	-10.744
▁God	-10.7444
▁indication	-10.7446
▁Case	-10.7448
riya	-10.7452
▁Initially	-10.7453
▁restricted	-10.7455
▁factory	-10.7457
▁5)	-10.7458
▁illnesses	-10.7459
▁Var	-10.7471
▁religion	-10.7475
▁crying	-10.7484
▁minimiz	-10.7489
▁emerged	-10.749
▁Head	-10.7494
▁0.5	-10.7497
▁shocking	-10.7499
-2)	-10.7566
pm	-10.7571
▁contribute	-10.7572
atya	-10.7577
▁Wear	-10.7579
▁impos	-10.7584
05	-10.7589
▁Shiva	-10.7591
trust	-10.7602
fined	-10.7619
low	-10.763
▁raise	-10.7633
diti	-10.7675
▁Ke	-10.769
▁formal	-10.7702
erial	-10.7713
TG	-10.7729
▁88	-10.778
threaten	-10.7786
pad	-10.7802
▁52	-10.7814
dra	-10.7839
raka	-10.7934
▁manager	-10.7938
▁Increas	-10.8015
▁declar	-10.8061
gging	-10.8069
ayan	-10.8109
FI	-10.8119
▁unwa	-10.8143
▁update	-10.8179
roduction	-10.8194
dividuals	-10.8203
▁outcome	-10.8206
▁bird	-10.8206
▁procedure	-10.8206
▁parent	-10.8208
▁teacher	-10.8217
virus	-10.823
cardi	-10.8235
rubb	-10.8259
income	-10.8267
changing	-10.8269
Currently	-10.827
distance	-10.8271
flamma	-10.828
▁compar	-10.8295
BP	-10.8317
▁Again	-10.832
▁criticiz	-10.8326
▁cancell	-10.8337
31	-10.8342
possibl	-10.8359
▁manufacture	-10.8363
▁trace	-10.8373
duced	-10.839
▁psychiatri	-10.839
elatives	-10.839
▁correspond	-10.8393
exclud	-10.8395
borne	-10.8395
▁clarif	-10.8395
molecular	-10.8396
▁Visakha	-10.8396
Feluda	-10.8396
asketball	-10.8396
definitely	-10.8396
telligence	-10.8396
▁Agricultur	-10.8396
▁Austria	-10.8396
▁Concern	-10.8396
▁Ghebreyes	-10.8396
▁Laborator	-10.8396
▁Legislat	-10.8396
▁Mungantiwar	-10.8396
▁Panchayat	-10.8396
▁Restaurants	-10.8396
▁Solidarity	-10.8396
▁Switzerland	-10.8396
▁System	-10.8396
▁accompan	-10.8396
▁adopted	-10.8396
▁advantage	-10.8396
▁anticipated	-10.8396
▁attitude	-10.8396
▁authority	-10.8396
▁behaviour	-10.8396
▁cheetah	-10.8396
▁deceased	-10.8396
▁devastat	-10.8396
▁diminish	-10.8396
▁enroll	-10.8396
▁feedback	-10.8396
▁imaging	-10.8396
▁improving	-10.8396
▁inadequate	-10.8396
▁kidney	-10.8396
▁mellitus	-10.8396
▁nursing	-10.8396
▁pathway	-10.8396
▁physician	-10.8396
▁rupees	-10.8396
▁smoking	-10.8396
▁substance	-10.8396
▁substantial	-10.8396
▁tsunami	-10.8396
▁unique	-10.8396
▁worried	-10.8396
Ahmedabad	-10.8396
▁Personal	-10.8396
▁email	-10.8396
▁modified	-10.8396
▁swelling	-10.8396
▁technicians	-10.8396
▁temporarily	-10.8396
kumar	-10.8396
▁couple	-10.8396
▁expense	-10.8396
▁sugar	-10.8396
▁Shaila	-10.8396
▁2018	-10.8396
▁Recent	-10.8396
▁Proper	-10.8396
▁fecal	-10.8396
▁pork	-10.8396
▁Wada	-10.8396
▁Number	-10.8396
▁2020-21	-10.8396
▁Join	-10.8396
convenient	-10.8396
▁identification	-10.8396
rench	-10.8396
▁push	-10.8396
▁altered	-10.8396
▁prais	-10.8396
▁Vyas	-10.8396
▁Subha	-10.8396
▁hurt	-10.8396
▁Mild	-10.8396
▁equal	-10.8396
▁mice	-10.8396
▁misinformation	-10.8397
▁Virology	-10.8397
print	-10.8397
▁reliev	-10.8397
▁gown	-10.8397
▁lawyer	-10.8397
▁formulations	-10.8397
▁affordable	-10.8398
▁inquire	-10.8398
▁(1)	-10.8398
▁ancest	-10.8398
▁energy	-10.8398
Source	-10.8398
▁nutrition	-10.8398
▁pure	-10.8399
▁separation	-10.8399
ask	-10.8399
▁Step	-10.8399
▁classified	-10.8399
▁attract	-10.84
▁emergencies	-10.84
▁reopen	-10.84
▁Common	-10.84
▁assist	-10.84
▁Mohan	-10.84
▁suit	-10.8401
▁objective	-10.8401
▁pollution	-10.8401
▁topic	-10.8401
▁gree	-10.8402
▁theories	-10.8402
ABC	-10.8403
▁racis	-10.8403
▁Karan	-10.8404
▁fell	-10.8406
▁2015	-10.8406
▁series	-10.8406
▁lip	-10.8407
▁oil	-10.8407
▁Wash	-10.8407
▁clothes	-10.8409
▁Virus	-10.8409
orium	-10.8409
onym	-10.8409
▁sufferers	-10.8411
▁handwashing	-10.8412
▁fake	-10.8412
▁2005	-10.8413
▁Day	-10.8413
▁adaptation	-10.8416
▁Moderna	-10.842
▁ease	-10.8421
▁Call	-10.8422
▁Take	-10.8424
▁cool	-10.843
ww	-10.843
▁approaches	-10.8432
jwa	-10.8433
preclinical	-10.8451
▁invit	-10.8451
▁doubled	-10.8453
▁Said	-10.8453
▁Live	-10.8461
rincipal	-10.8472
▁parame	-10.8475
▁failed	-10.8476
▁Jaya	-10.8477
▁cremated	-10.8484
▁reporters	-10.8492
water	-10.8493
▁publicity	-10.8493
▁donation	-10.8498
▁Sama	-10.8507
▁travelers	-10.8511
▁Five	-10.8513
aff	-10.8523
▁Nar	-10.8527
▁processes	-10.8528
reach	-10.8528
▁myo	-10.8536
▁patholog	-10.855
▁Comm	-10.8562
defined	-10.8575
▁Sri	-10.8622
▁Sah	-10.8623
aining	-10.8635
mid	-10.8637
▁declare	-10.8647
▁56	-10.8655
▁player	-10.866
Vac	-10.8676
uti	-10.8704
▁refu	-10.8725
special	-10.8736
homa	-10.8754
▁je	-10.8754
600	-10.8797
▁Bah	-10.8805
AN	-10.8894
TO	-10.8972
ND	-10.8974
▁plu	-10.9042
OS	-10.909
▁Sai	-10.9098
▁designat	-10.9101
▁uncle	-10.9153
▁rena	-10.9178
▁heat	-10.9181
grade	-10.923
▁announc	-10.9237
▁operation	-10.9289
gon	-10.9306
▁map	-10.931
▁representative	-10.9313
▁supplier	-10.9316
▁allegation	-10.9317
▁professional	-10.932
▁guideline	-10.932
▁stor	-10.9351
▁path	-10.9365
▁readi	-10.9373
night	-10.9375
reading	-10.9375
science	-10.9379
▁trip	-10.9379
double	-10.938
technology	-10.9381
power	-10.9382
book	-10.9382
Wuhan	-10.9382
Maharashtra	-10.9383
with	-10.9383
third	-10.9384
▁Non	-10.9385
▁Rai	-10.9393
home	-10.9394
down	-10.9405
pack	-10.9415
▁accord	-10.9423
▁restrict	-10.9427
ID	-10.9428
▁eliminat	-10.9434
Don	-10.9437
▁prim	-10.9469
ography	-10.9477
own	-10.9492
▁petrol	-10.9495
abilit	-10.9498
▁monoc	-10.95
rofessor	-10.9503
etween	-10.9504
ortality	-10.9505
▁tempora	-10.9506
▁admit	-10.9507
▁edit	-10.9507
▁ultimate	-10.9507
usceptible	-10.9507
▁Engineer	-10.9507
▁Karjat	-10.9507
▁dramatic	-10.9507
▁encounter	-10.9507
▁exacerbat	-10.9507
▁interferon	-10.9507
▁lymphocyte	-10.9507
bronchiolitis	-10.9507
iarrhoea	-10.9507
ibavirin	-10.9507
▁Bhandara	-10.9507
▁Cadilla	-10.9507
▁Consumer	-10.9507
▁Dahanu	-10.9507
▁Deepika	-10.9507
▁Important	-10.9507
▁Kakani	-10.9507
▁Kolkata	-10.9507
▁Nandurbar	-10.9507
▁Operation	-10.9507
▁Protocol	-10.9507
▁RBD	-10.9507
▁Religious	-10.9507
▁Response	-10.9507
▁Runwal	-10.9507
▁Shingane	-10.9507
▁Technology	-10.9507
▁Tehsildar	-10.9507
▁Vadettiwar	-10.9507
▁WhatsApp	-10.9507
▁abnormal	-10.9507
▁afterwards	-10.9507
▁alpaca	-10.9507
▁analyzed	-10.9507
▁ceremonies	-10.9507
▁characteristic	-10.9507
▁climate	-10.9507
▁commitment	-10.9507
▁confused	-10.9507
▁defeat	-10.9507
▁destination	-10.9507
▁discomfort	-10.9507
▁elbow	-10.9507
▁encouraging	-10.9507
▁governor	-10.9507
▁guarantee	-10.9507
▁immunization	-10.9507
▁initiated	-10.9507
▁misconception	-10.9507
▁mortuar	-10.9507
▁mumps	-10.9507
▁pillow	-10.9507
▁politici	-10.9507
▁prognosis	-10.9507
▁quantity	-10.9507
▁quarantining	-10.9507
▁reassuring	-10.9507
▁rickshaw	-10.9507
▁saliva	-10.9507
▁sanitation	-10.9507
▁surrounding	-10.9507
▁vessel	-10.9507
▁Jaishankar	-10.9507
▁Lahane	-10.9507
▁OPD	-10.9507
▁ORF	-10.9507
▁explore	-10.9507
▁injured	-10.9507
▁lunch	-10.9507
▁NBA	-10.9507
▁caution	-10.9507
▁favor	-10.9507
▁understood	-10.9507
▁unlikely	-10.9507
▁Jalna	-10.9507
ggage	-10.9507
▁Third	-10.9507
▁encod	-10.9507
▁MNS	-10.9507
▁Turkey	-10.9507
▁properties	-10.9507
▁loom	-10.9507
▁tube	-10.9507
▁travellers	-10.9507
▁scene	-10.9507
▁stead	-10.9507
▁Ashish	-10.9507
▁brain	-10.9507
sputum	-10.9507
▁modelling	-10.9507
▁frame	-10.9507
legal	-10.9508
▁kne	-10.9508
▁wild	-10.9508
▁Life	-10.9508
▁justice	-10.9508
▁skeptic	-10.9508
▁Span	-10.9508
▁military	-10.9508
▁childhood	-10.9508
▁intubation	-10.9508
-12	-10.9508
▁attractions	-10.9509
▁Journalist	-10.9509
▁tree	-10.9509
▁Fire	-10.9509
▁internal	-10.9509
▁cancer	-10.9509
▁therapi	-10.9509
COV	-10.951
ARI	-10.951
▁bought	-10.951
DP	-10.951
▁reception	-10.951
eviate	-10.951
▁Protect	-10.951
▁guide	-10.9511
▁nearby	-10.9511
▁Long	-10.9512
▁puni	-10.9513
,400	-10.9513
▁Shaile	-10.9514
▁Sangh	-10.9515
▁inflammation	-10.9515
▁Parab	-10.9516
▁cellul	-10.9517
▁Jayanti	-10.9517
▁emphasiz	-10.9518
▁2017	-10.9518
▁assum	-10.9518
▁visitors	-10.9518
▁valve	-10.9519
▁scam	-10.9522
▁Workers	-10.9522
▁Salunke	-10.9523
▁Gene	-10.9523
▁80,000	-10.9526
▁dismissal	-10.9526
▁3.5	-10.9526
▁Bala	-10.9527
▁Emp	-10.9527
▁RTI	-10.9527
▁4.5	-10.9527
▁Mira	-10.9528
▁collapsed	-10.9528
▁listen	-10.9528
hule	-10.9528
▁Later	-10.9529
ranging	-10.953
▁60,000	-10.953
▁labor	-10.9532
▁sad	-10.9534
MD	-10.9535
▁Bori	-10.9536
▁Aadha	-10.9536
▁60%	-10.9536
hood	-10.9543
▁batch	-10.9548
▁Flu	-10.9549
Find	-10.9552
▁homeless	-10.9553
ryan	-10.9555
▁900	-10.9564
▁20%	-10.957
tosh	-10.9591
▁10%	-10.9596
▁organiz	-10.96
poly	-10.9603
handra	-10.9614
▁Ji	-10.9615
itation	-10.9628
▁Wals	-10.9633
▁sin	-10.9635
moha	-10.9644
▁adviser	-10.9688
▁Dai	-10.9701
plan	-10.9727
Effective	-10.9735
oyal	-10.9786
▁lea	-10.9834
▁draw	-10.9836
char	-10.9852
▁hug	-10.9853
tructural	-10.987
connected	-10.9891
▁promot	-10.9917
▁transmitt	-10.9972
▁terri	-10.9998
EUA	-11.0055
▁sla	-11.0056
▁comfortabl	-11.0065
OM	-11.0103
750	-11.0134
▁comfort	-11.016
fect	-11.0175
▁transmit	-11.0183
verge	-11.0203
▁Press	-11.0238
▁Lat	-11.027
tention	-11.0271
pari	-11.0375
idden	-11.0421
▁accommodat	-11.0428
loo	-11.0452
▁2.4	-11.0463
risen	-11.0483
▁stick	-11.0498
▁contribut	-11.0516
open	-11.0522
▁pathogen	-11.0556
▁degree	-11.0566
llow	-11.0616
October	-11.0631
Government	-11.0632
develop	-11.0633
face	-11.0633
dverse	-11.0639
called	-11.064
cott	-11.0644
▁teach	-11.0653
▁approv	-11.0665
also	-11.0668
▁genom	-11.0668
wait	-11.067
▁lift	-11.0687
▁weaken	-11.0693
▁hygien	-11.0721
▁quick	-11.0727
▁constant	-11.0727
▁collapse	-11.0733
▁encourage	-11.0733
▁investigate	-11.0734
▁strategi	-11.0748
ollution	-11.0752
ifferent	-11.0755
enior	-11.0755
clusion	-11.0755
▁Less	-11.0755
▁vers	-11.0756
ordinat	-11.0756
▁broad	-11.0756
andatory	-11.0756
▁Comp	-11.0756
iagnostic	-11.0757
ortunately	-11.0757
▁mechani	-11.0757
▁Integrat	-11.0757
▁WHERE	-11.0757
▁aggressive	-11.0757
▁ascertain	-11.0757
▁calculat	-11.0757
▁compensat	-11.0757
▁competit	-11.0757
▁infiltrat	-11.0757
▁neighbor	-11.0757
▁prison	-11.0757
▁tremendous	-11.0757
▁vulnerab	-11.0757
FEMA	-11.0757
hysiotherap	-11.0757
xpenditure	-11.0757
▁Business	-11.0757
▁Chaudhary	-11.0757
▁Christmas	-11.0757
▁Crowd	-11.0757
▁Dattatraya	-11.0757
▁Dokania	-11.0757
▁Eight	-11.0757
▁English	-11.0757
▁Festival	-11.0757
▁Francisco	-11.0757
▁Hinduism	-11.0757
▁Iraq	-11.0757
▁Loksatta	-11.0757
▁Malaysia	-11.0757
▁Manufacturer	-11.0757
▁Member	-11.0757
▁Mhetre	-11.0757
▁Mukherjee	-11.0757
▁Nalasopara	-11.0757
▁Nigeria	-11.0757
▁Patole	-11.0757
▁Philippines	-11.0757
▁Ratnagiri	-11.0757
▁Registration	-11.0757
▁Sarpanch	-11.0757
▁Sassoon	-11.0757
▁Syndrome	-11.0757
▁Tendulkar	-11.0757
▁Zealand	-11.0757
▁accuracy	-11.0757
▁affix	-11.0757
▁appetite	-11.0757
▁applicable	-11.0757
▁article	-11.0757
▁breastfeed	-11.0757
▁brief	-11.0757
▁channel	-11.0757
▁church	-11.0757
▁concert	-11.0757
▁constitute	-11.0757
▁contagion	-11.0757
▁counsel	-11.0757
▁eligible	-11.0757
▁elsewhere	-11.0757
▁explanation	-11.0757
▁explosion	-11.0757
▁fingernails	-11.0757
▁havoc	-11.0757
▁infarction	-11.0757
▁institutional	-11.0757
▁jurisdiction	-11.0757
▁language	-11.0757
▁malaria	-11.0757
▁neglect	-11.0757
▁negligence	-11.0757
▁oximeter	-11.0757
▁passport	-11.0757
▁preschool	-11.0757
▁procured	-11.0757
▁replicate	-11.0757
▁robust	-11.0757
▁sanctions	-11.0757
▁saturation	-11.0757
▁subunit	-11.0757
▁vaccinators	-11.0757
▁vendors	-11.0757
▁voice	-11.0757
▁worrisome	-11.0757
▁xenophobia	-11.0757
▁Devanand	-11.0757
▁Spring	-11.0757
▁Wikimedia	-11.0757
▁assign	-11.0757
▁coaches	-11.0757
▁combat	-11.0757
▁cyclone	-11.0757
▁relationship	-11.0757
▁Isolation	-11.0757
▁Shenoy	-11.0757
▁Squad	-11.0757
▁divide	-11.0757
▁permanent	-11.0757
▁truth	-11.0757
▁unprecedented	-11.0757
▁vitro	-11.0757
▁Dadar	-11.0757
▁Mishra	-11.0757
▁Rapid	-11.0757
▁vacant	-11.0757
▁Large	-11.0757
▁NCE	-11.0757
▁TCM	-11.0757
▁dollar	-11.0757
▁Low	-11.0757
▁hyper	-11.0757
▁99.9	-11.0757
▁consumer	-11.0757
▁grape	-11.0757
Teacher	-11.0757
▁Child	-11.0757
▁blocked	-11.0757
▁aspect	-11.0757
▁balance	-11.0757
▁Though	-11.0757
▁wonder	-11.0757
▁ANI	-11.0757
▁plent	-11.0757
▁sister	-11.0757
▁Biotechnology	-11.0757
nirvan	-11.0757
▁Lokma	-11.0757
▁firm	-11.0757
Remov	-11.0757
▁emo	-11.0757
▁Gym	-11.0757
▁Train	-11.0757
▁strik	-11.0758
▁gear	-11.0758
▁automatically	-11.0758
▁irrita	-11.0758
▁necessities	-11.0758
▁satisfy	-11.0758
ransferr	-11.0758
▁Executive	-11.0758
▁tablets	-11.0758
▁hotelier	-11.0758
▁gastro	-11.0758
▁Amandeep	-11.0758
yush	-11.0759
▁expedit	-11.0759
▁Wadi	-11.0759
▁convention	-11.0759
▁reply	-11.0759
▁inactive	-11.0759
▁harmless	-11.0759
▁clash	-11.0759
▁Raikar	-11.0759
▁disability	-11.076
Treat	-11.076
▁worksite	-11.076
▁Feder	-11.076
▁discre	-11.076
▁arteri	-11.076
▁solid	-11.076
▁meantime	-11.0761
▁verifi	-11.0761
▁Aadhaar	-11.0763
▁chat	-11.0763
▁north	-11.0764
▁Ankita	-11.0765
▁psychiatrist	-11.0765
▁improvement	-11.0766
▁Have	-11.0766
▁primar	-11.0767
▁buri	-11.0768
▁stall	-11.0768
▁Road	-11.0768
▁?;	-11.0769
appointed	-11.077
▁tele	-11.077
▁pick	-11.077
▁inputs	-11.0771
▁pipe	-11.0771
eev	-11.0773
▁Gram	-11.0775
85	-11.0778
nown	-11.0778
▁seriousness	-11.078
▁2003	-11.078
▁Nana	-11.078
▁hospitalised	-11.0781
▁yes	-11.0781
▁Oak	-11.0782
▁gate	-11.0783
▁broken	-11.0783
▁40,000	-11.0787
▁proven	-11.0789
▁Anand	-11.0789
▁losses	-11.0791
▁overlap	-11.0795
khar	-11.0803
trick	-11.082
▁Bhar	-11.0827
▁achiev	-11.0828
▁Tul	-11.0832
▁gur	-11.0838
▁eliminated	-11.084
alls	-11.0841
profil	-11.0854
ension	-11.0876
▁Earl	-11.0884
GDP	-11.0893
▁intrav	-11.0906
▁Lashi	-11.0934
▁Jiten	-11.0951
ukh	-11.097
▁sticker	-11.1023
GM	-11.1106
Arg	-11.1111
▁mon	-11.1132
ommunication	-11.1156
▁cleanse	-11.1182
▁remarkabl	-11.1187
▁film	-11.1193
▁0.2	-11.1194
NT	-11.129
▁Trac	-11.1322
ado	-11.1347
PT	-11.1415
▁pose	-11.144
Bat	-11.1465
weigh	-11.1505
▁dri	-11.1606
subsid	-11.1608
▁citizen	-11.1683
▁remark	-11.1712
2.5	-11.1829
dependent	-11.1858
nstitution	-11.1865
owing	-11.189
▁Effect	-11.1896
▁involv	-11.1903
▁Swi	-11.1927
symptomatic	-11.1929
▁purchas	-11.1967
IG	-11.1973
clinical	-11.1981
▁girl	-11.1992
▁intervention	-11.1993
▁restaurant	-11.1993
▁scientist	-11.1997
drome	-11.202
DCGI	-11.2056
pharmaceutical	-11.2058
cology	-11.2059
pproximate	-11.2059
Last	-11.206
PHE	-11.206
Oxygen	-11.206
front	-11.206
ICU	-11.2061
February	-11.2061
vaccine	-11.2061
affected	-11.2061
social	-11.2061
China	-11.2061
known	-11.2062
such	-11.2064
high	-11.2065
containment	-11.2068
▁committe	-11.2109
▁experiment	-11.2115
▁publish	-11.2116
some	-11.2136
Pro	-11.2136
illions	-11.2149
▁opportunit	-11.2153
▁technolog	-11.2154
pecialty	-11.2155
▁coward	-11.2156
▁dismiss	-11.2161
▁introduce	-11.2163
arms	-11.2173
▁obstruct	-11.218
reliminary	-11.2181
▁strength	-11.2182
▁respect	-11.2182
▁afford	-11.2183
nergy	-11.2183
▁Journal	-11.2184
▁drastic	-11.2184
ommunity	-11.2184
▁uncertain	-11.2184
septic	-11.2185
▁represent	-11.2185
orrow	-11.2186
precedent	-11.2186
▁Extreme	-11.2186
▁discontinu	-11.2186
UPSC	-11.2186
educated	-11.2186
responsibilities	-11.2186
transmissibility	-11.2186
▁Achalpur	-11.2186
▁Ambedkar	-11.2186
▁Aquarius	-11.2186
▁Assistant	-11.2186
▁Deshpande	-11.2186
▁Diarrhea	-11.2186
▁Gadkari	-11.2186
▁Ganeshotsav	-11.2186
▁Gangakhedkar	-11.2186
▁Grocery	-11.2186
▁Guidance	-11.2186
▁Harvard	-11.2186
▁Himachal	-11.2186
▁Hotels	-11.2186
▁Indonesia	-11.2186
▁Jharkhand	-11.2186
▁Jyoti	-11.2186
▁Kanjurmarg	-11.2186
▁Marathwada	-11.2186
▁Narlikar	-11.2186
▁Naxalites	-11.2186
▁Official	-11.2186
▁Particularly	-11.2186
▁Practice	-11.2186
▁Priyanka	-11.2186
▁Ramdesivir	-11.2186
▁Relief	-11.2186
▁Remedivir	-11.2186
▁Revenue	-11.2186
▁Scientific	-11.2186
▁Sindhudurg	-11.2186
▁Swami	-11.2186
▁Talasari	-11.2186
▁Territories	-11.2186
▁Ventilator	-11.2186
▁affiliat	-11.2186
▁akhada	-11.2186
▁calendar	-11.2186
▁capsules	-11.2186
▁cellphone	-11.2186
▁circuit	-11.2186
▁comorbidities	-11.2186
▁confidence	-11.2186
▁congregation	-11.2186
▁cruci	-11.2186
▁definition	-11.2186
▁diabetic	-11.2186
▁disappear	-11.2186
▁favipiravir	-11.2186
▁forgotten	-11.2186
▁fungus	-11.2186
▁goggles	-11.2186
▁grief	-11.2186
▁manifestations	-11.2186
▁microscop	-11.2186
▁operators	-11.2186
▁parallel	-11.2186
▁participation	-11.2186
▁polyprotein	-11.2186
▁prescription	-11.2186
▁pumps	-11.2186
▁reconsider	-11.2186
▁scenario	-11.2186
▁slot	-11.2186
▁societies	-11.2186
▁speculat	-11.2186
▁spillover	-11.2186
▁stimulate	-11.2186
▁substitut	-11.2186
▁surprise	-11.2186
▁suspicion	-11.2186
▁switch	-11.2186
▁undertaken	-11.2186
▁unemployment	-11.2186
▁universal	-11.2186
▁virtual	-11.2186
▁virulent	-11.2186
Pacific	-11.2186
cademy	-11.2186
chimpanzee	-11.2186
hunger	-11.2186
transmissible	-11.2186
▁1,200	-11.2186
▁ERV	-11.2186
▁chlor	-11.2186
▁explode	-11.2186
▁imagine	-11.2186
▁rumors	-11.2186
▁somewhat	-11.2186
▁Jalgaon	-11.2186
▁Justice	-11.2186
▁Travel	-11.2186
▁Vacanc	-11.2186
▁fitness	-11.2186
▁hamper	-11.2186
▁integrate	-11.2186
▁norms	-11.2186
▁umifenovir	-11.2186
▁Begin	-11.2186
▁Cooper	-11.2186
▁cheap	-11.2186
▁corpse	-11.2186
▁crew	-11.2186
▁sporting	-11.2186
▁bleeding	-11.2186
▁festive	-11.2186
▁contamination	-11.2186
▁Megh	-11.2186
▁freedom	-11.2186
▁sentiment	-11.2186
density	-11.2186
▁Somani	-11.2186
▁dozen	-11.2186
▁accumulat	-11.2186
▁foam	-11.2186
▁grand	-11.2186
▁Balram	-11.2186
▁Khare	-11.2186
▁artist	-11.2186
▁blast	-11.2186
▁expression	-11.2186
▁minor	-11.2186
▁pets	-11.2186
▁plate	-11.2186
lotting	-11.2186
▁Type	-11.2186
▁Water	-11.2186
ogue	-11.2186
▁Giri	-11.2186
▁Hazar	-11.2186
▁Akhil	-11.2186
▁SSC	-11.2186
▁Blue	-11.2186
▁Deore	-11.2186
▁Present	-11.2186
▁angry	-11.2186
▁cytomegalovirus	-11.2186
▁debt	-11.2186
▁Ryan	-11.2186
▁idol	-11.2187
▁Serious	-11.2187
NBC	-11.2187
▁deny	-11.2187
▁rich	-11.2187
▁benz	-11.2187
▁Construct	-11.2187
▁Ign	-11.2187
▁click	-11.2187
▁Ltd	-11.2187
▁exclusive	-11.2187
▁threatened	-11.2187
IFN	-11.2187
▁Shekhar	-11.2187
▁upset	-11.2187
▁sheet	-11.2187
▁eventual	-11.2188
▁readiness	-11.2188
▁Assam	-11.2189
hairman	-11.2189
▁Iranian	-11.2189
▁anger	-11.2189
▁jump	-11.219
garet	-11.219
▁immuno	-11.219
▁Brazilian	-11.219
▁stable	-11.219
mphasi	-11.219
▁extensi	-11.219
▁Lesson	-11.2191
▁Practitioner	-11.2191
▁obstruction	-11.2192
▁seeds	-11.2193
▁recruitment	-11.2194
Sometimes	-11.2194
▁mix	-11.2195
▁hence	-11.2195
▁overnight	-11.2196
▁utiliz	-11.2197
▁Ghat	-11.2197
388	-11.2197
▁evaluation	-11.2198
▁confirmation	-11.2198
▁fet	-11.2198
▁preferred	-11.2198
▁Jack	-11.2199
▁Room	-11.22
▁consol	-11.22
▁specialty	-11.2201
▁Adv	-11.2202
▁reality	-11.2204
terminal	-11.2205
▁promotion	-11.2205
▁sentence	-11.2206
▁inspection	-11.2207
▁gel	-11.2208
▁reput	-11.2208
▁Jha	-11.2208
hankar	-11.2209
▁Vice	-11.2217
▁neo	-11.2223
spector	-11.2238
▁Natur	-11.2322
tably	-11.2331
25%	-11.2381
▁minimis	-11.2382
tton	-11.2388
▁triple	-11.241
▁react	-11.2425
ECDC	-11.2427
verything	-11.2517
▁5-1	-11.2582
2019-	-11.2584
▁charg	-11.2776
▁Gavi	-11.3065
8,9	-11.3159
▁subsidi	-11.3298
commerce	-11.333
▁Sea	-11.3406
1,6	-11.3433
ovine	-11.348
lov	-11.3509
toxicity	-11.3539
hield	-11.3586
spreader	-11.3627
▁enhanc	-11.364
▁disorder	-11.3659
▁doubt	-11.3659
▁volunteer	-11.3659
▁pediatrician	-11.366
▁street	-11.3661
▁Patient	-11.3664
▁statu	-11.3668
▁inspect	-11.3694
charge	-11.3699
vailability	-11.3714
▁princip	-11.3722
strand	-11.3723
Report	-11.3724
membrane	-11.3725
ngiotensin	-11.3725
pathogenic	-11.3725
Covacin	-11.3725
graph	-11.3726
Z	-11.3727
diagnosed	-11.3727
primary	-11.3727
General	-11.3727
September	-11.3727
genome	-11.3727
week	-11.3727
approved	-11.3728
(	-11.3728
lockdown	-11.3729
What	-11.3731
nyone	-11.3743
▁postpon	-11.3745
nimal	-11.3761
100,000	-11.3768
LIC	-11.3794
▁homolog	-11.382
▁Universit	-11.3821
▁diagnose	-11.3829
▁appoint	-11.3831
ception	-11.3832
▁emphasi	-11.3839
▁nucle	-11.384
▁electron	-11.3842
▁sanitize	-11.3842
▁elect	-11.3845
esults	-11.3846
ermission	-11.3848
ceived	-11.3849
▁potent	-11.3849
armers	-11.3849
stimates	-11.385
microbial	-11.3851
neutral	-11.3851
▁Safe	-11.3851
▁Shin	-11.3852
corpor	-11.3852
transcript	-11.3852
▁Discuss	-11.3852
▁frustrat	-11.3852
▁synthe	-11.3852
▁acquaint	-11.3852
▁appreciat	-11.3852
▁authoris	-11.3852
BioNTech	-11.3852
Decreased	-11.3852
HRCT	-11.3852
Positive	-11.3852
SEIR	-11.3852
Tocilizumab	-11.3852
fertility	-11.3852
madesivir	-11.3852
privilege	-11.3852
▁Access	-11.3852
▁Acharya	-11.3852
▁Approv	-11.3852
▁Argentina	-11.3852
▁Awhad	-11.3852
▁Bollywood	-11.3852
▁Buddhiraja	-11.3852
▁Build	-11.3852
▁CBSE	-11.3852
▁Christian	-11.3852
▁Crisil	-11.3852
▁Economy	-11.3852
▁Evidence	-11.3852
▁Exercise	-11.3852
▁Fertilizer	-11.3852
▁HERE	-11.3852
▁Hingoli	-11.3852
▁Industry	-11.3852
▁Judaism	-11.3852
▁Kapoor	-11.3852
▁Lodha	-11.3852
▁ORDER	-11.3852
▁Odisha	-11.3852
▁Otherwise	-11.3852
▁Parbhani	-11.3852
▁Pranjal	-11.3852
▁Princess	-11.3852
▁Province	-11.3852
▁Record	-11.3852
▁Regulation	-11.3852
▁Relations	-11.3852
▁Sanitizer	-11.3852
▁Traders	-11.3852
▁UNICEF	-11.3852
▁Varanasi	-11.3852
▁Yoga	-11.3852
▁Zindagi	-11.3852
▁administrator	-11.3852
▁allocated	-11.3852
▁caregiver	-11.3852
▁cerebr	-11.3852
▁civilian	-11.3852
▁cloud	-11.3852
▁concessions	-11.3852
▁confident	-11.3852
▁connectivity	-11.3852
▁contraceptive	-11.3852
▁dermatitis	-11.3852
▁dinner	-11.3852
▁doorknob	-11.3852
▁dyspnea	-11.3852
▁epicent	-11.3852
▁episode	-11.3852
▁ethanol	-11.3852
▁excess	-11.3852
▁exudates	-11.3852
▁fertilizer	-11.3852
▁fragment	-11.3852
▁halved	-11.3852
▁hashtag	-11.3852
▁horrifi	-11.3852
▁hypoth	-11.3852
▁impotence	-11.3852
▁ingredients	-11.3852
▁inhabit	-11.3852
▁kilos	-11.3852
▁monsoon	-11.3852
▁nucleocapsid	-11.3852
▁optimal	-11.3852
▁participants	-11.3852
▁peripheral	-11.3852
▁polling	-11.3852
▁poultry	-11.3852
▁poverty	-11.3852
▁queues	-11.3852
▁remedicavir	-11.3852
▁resolution	-11.3852
▁retrospective	-11.3852
▁sanitiser	-11.3852
▁scarcity	-11.3852
▁square	-11.3852
▁stringent	-11.3852
▁surpass	-11.3852
▁yield	-11.3852
piece	-11.3852
sensitivity	-11.3852
▁Awareness	-11.3852
▁Cornell	-11.3852
▁Jazz	-11.3852
▁Priorit	-11.3852
▁Rashmi	-11.3852
▁Unnao	-11.3852
▁clarity	-11.3852
▁conversation	-11.3852
▁daughter	-11.3852
▁disclos	-11.3852
▁preferabl	-11.3852
▁reproduction	-11.3852
▁vivo	-11.3852
▁Kakkar	-11.3852
▁Tourist	-11.3852
▁companion	-11.3852
▁neurologic	-11.3852
▁pursu	-11.3852
▁taste	-11.3852
▁Android	-11.3852
▁engage	-11.3852
▁intensity	-11.3852
rogya	-11.3852
▁Dolvi	-11.3852
▁Turk	-11.3852
▁dirty	-11.3852
▁fuel	-11.3852
▁organisations	-11.3852
▁element	-11.3852
▁televis	-11.3852
▁tough	-11.3852
▁Mahamand	-11.3852
▁Sabha	-11.3852
▁procla	-11.3852
▁Hungar	-11.3852
▁illegal	-11.3852
▁obligations	-11.3852
ooja	-11.3852
▁IgG	-11.3852
▁legs	-11.3852
conscious	-11.3852
▁Noida	-11.3852
▁choice	-11.3852
▁Shelar	-11.3852
▁zero	-11.3852
▁coaching	-11.3852
▁innovati	-11.3852
▁vacation	-11.3852
▁earn	-11.3852
▁Satav	-11.3852
▁Kalyan	-11.3852
▁housing	-11.3852
▁crop	-11.3853
▁dark	-11.3853
Together	-11.3853
▁Ranj	-11.3853
▁Should	-11.3853
▁itinerar	-11.3853
▁dense	-11.3853
▁Award	-11.3853
▁Explain	-11.3853
▁Pediatrician	-11.3853
▁Color	-11.3853
▁occurring	-11.3853
▁Nagarale	-11.3853
▁coast	-11.3853
▁assured	-11.3853
▁salarie	-11.3853
▁shopkeepers	-11.3853
phylaxis	-11.3853
▁Great	-11.3853
▁Surg	-11.3853
▁correctly	-11.3853
▁directives	-11.3853
▁Help	-11.3853
▁park	-11.3853
▁bias	-11.3853
DAD	-11.3853
▁cafe	-11.3853
▁shedd	-11.3854
▁Outside	-11.3854
▁Usha	-11.3854
▁unnecessarily	-11.3854
▁stem	-11.3854
▁corrupt	-11.3854
▁uncertainty	-11.3854
▁decentralized	-11.3854
▁drastically	-11.3854
roadcast	-11.3854
▁payments	-11.3854
▁Get	-11.3855
▁kid	-11.3855
▁harmful	-11.3855
▁Gamal	-11.3855
▁submit	-11.3855
▁Macro	-11.3855
heck	-11.3855
▁Limit	-11.3855
▁Seema	-11.3856
▁Anura	-11.3856
▁House	-11.3856
▁virion	-11.3856
▁pathologist	-11.3856
▁Nations	-11.3856
▁overwhelm	-11.3856
▁visa	-11.3857
▁objections	-11.3857
Voter	-11.3858
▁tension	-11.3858
pplies	-11.3858
▁Deep	-11.3858
djustment	-11.3859
.7%)	-11.3859
tress	-11.3859
nyway	-11.3861
▁Liqu	-11.3863
▁distan	-11.3863
▁Rohi	-11.3864
▁plac	-11.3864
▁Except	-11.3866
▁Maint	-11.3871
▁Lind	-11.3871
▁abundan	-11.3871
wheeler	-11.3872
2-3	-11.3889
▁radiograph	-11.3898
▁exhibit	-11.3904
cient	-11.3916
operati	-11.4
astro	-11.4038
ohol	-11.4046
rink	-11.4058
▁wall	-11.4071
espirator	-11.4075
cleansing	-11.4212
Stop	-11.4225
acceptable	-11.4261
clear	-11.4284
▁Gree	-11.4364
campus	-11.4376
communica	-11.4402
▁Lea	-11.4418
▁promise	-11.4462
Increase	-11.4545
place	-11.4674
▁hydro	-11.4696
▁Biologic	-11.4763
▁structur	-11.4861
position	-11.4884
portion	-11.5102
turba	-11.5112
Huo	-11.5146
rogramme	-11.5153
▁entr	-11.5371
operate	-11.5396
100%	-11.5509
▁customer	-11.566
structions	-11.566
ocytes	-11.5695
Bioentech	-11.5724
▁determin	-11.5724
pulmon	-11.5724
Chinchwad	-11.5725
Student	-11.5725
nnual	-11.5725
typical	-11.5726
pregnant	-11.5726
antigen	-11.5726
November	-11.5726
detected	-11.5726
ddress	-11.5727
dmission	-11.5727
schedule	-11.5727
Lockdown	-11.5727
Patients	-11.5727
change	-11.5727
month	-11.5728
post	-11.5728
positive	-11.5728
including	-11.5728
Modi	-11.5728
According	-11.5728
Mumbai	-11.5728
Pune	-11.5728
proper	-11.573
inflammat	-11.5734
▁alarm	-11.5766
esponding	-11.5788
▁assembl	-11.582
▁Ankit	-11.584
▁mode	-11.584
contaminat	-11.5843
▁mitigat	-11.5846
▁tight	-11.5848
erior	-11.5849
irecrackers	-11.5849
ilitary	-11.585
ytokine	-11.585
upply	-11.5851
▁registra	-11.5851
▁pediatric	-11.5852
ocation	-11.5852
ransmission	-11.5852
ogenic	-11.5852
▁ambula	-11.5852
▁legislat	-11.5852
▁Observat	-11.5852
▁chemist	-11.5852
▁mourn	-11.5852
▁oppress	-11.5852
▁poison	-11.5852
▁resembl	-11.5852
▁rhinovirus	-11.5852
Chloroquine	-11.5852
Investigat	-11.5852
erjee	-11.5852
norrhea	-11.5852
propyl	-11.5852
telephone	-11.5852
ueensland	-11.5852
▁Airport	-11.5852
▁Alibag	-11.5852
▁Amazon	-11.5852
▁Baramati	-11.5852
▁Bhayandar	-11.5852
▁Bhosale	-11.5852
▁Budruk	-11.5852
▁Cambodia	-11.5852
▁Campaign	-11.5852
▁Chandwad	-11.5852
▁Chennai	-11.5852
▁Comfort	-11.5852
▁Curfew	-11.5852
▁Diploma	-11.5852
▁Epidemic	-11.5852
▁Gallagher	-11.5852
▁Goddess	-11.5852
▁Gulhane	-11.5852
▁Jamnagar	-11.5852
▁Janssen	-11.5852
▁Jawahar	-11.5852
▁Kshirsagar	-11.5852
▁MUMBAI	-11.5852
▁Mexico	-11.5852
▁Moscow	-11.5852
▁Naxals	-11.5852
▁Opinion	-11.5852
▁Premnath	-11.5852
▁Remember	-11.5852
▁Romania	-11.5852
▁Sachchidanand	-11.5852
▁Seattle	-11.5852
▁Shanghai	-11.5852
▁Surekha	-11.5852
▁Sweden	-11.5852
▁Taloja	-11.5852
▁Thakur	-11.5852
▁Urban	-11.5852
▁Zykov	-11.5852
▁adenovirus	-11.5852
▁aircraft	-11.5852
▁anniversary	-11.5852
▁argument	-11.5852
▁belief	-11.5852
▁breakfast	-11.5852
▁bridge	-11.5852
▁chlorhexidine	-11.5852
▁complement	-11.5852
▁concentration	-11.5852
▁coworkers	-11.5852
▁deficiency	-11.5852
▁disabilities	-11.5852
▁discourag	-11.5852
▁display	-11.5852
▁epidemiologist	-11.5852
▁equipped	-11.5852
▁exercising	-11.5852
▁gastroenteritis	-11.5852
▁glycoprotein	-11.5852
▁goddess	-11.5852
▁hepatitis	-11.5852
▁hometowns	-11.5852
▁immunosuppress	-11.5852
▁layoffs	-11.5852
▁loneliness	-11.5852
▁meanwhile	-11.5852
▁microchip	-11.5852
▁mislead	-11.5852
▁mucomycosis	-11.5852
▁paralyze	-11.5852
▁penalized	-11.5852
▁penetrate	-11.5852
▁plague	-11.5852
▁premium	-11.5852
▁simultaneously	-11.5852
▁somewhere	-11.5852
▁stroke	-11.5852
▁susceptibility	-11.5852
▁withdrew	-11.5852
▁zinc	-11.5852
phosphat	-11.5852
sepsis	-11.5852
umbrella	-11.5852
▁Beijing	-11.5852
▁Bolsonaro	-11.5852
▁COEP	-11.5852
▁Consultant	-11.5852
▁Epidemiolog	-11.5852
▁Headache	-11.5852
▁Jammu	-11.5852
▁Kumta	-11.5852
▁Meghalaya	-11.5852
▁Retail	-11.5852
▁Savita	-11.5852
▁Scheme	-11.5852
▁Siddharth	-11.5852
▁assurance	-11.5852
▁bathroom	-11.5852
▁cleanliness	-11.5852
▁consequent	-11.5852
▁elicit	-11.5852
▁facemask	-11.5852
▁freight	-11.5852
▁gamma	-11.5852
▁griev	-11.5852
▁historical	-11.5852
▁hurry	-11.5852
▁jewel	-11.5852
▁landlord	-11.5852
▁pharmacies	-11.5852
▁pilgrim	-11.5852
▁polio	-11.5852
▁sympath	-11.5852
acetam	-11.5852
▁Reuters	-11.5852
▁Wakle	-11.5852
▁circular	-11.5852
▁loud	-11.5852
▁reagent	-11.5852
▁rescue	-11.5852
deposit	-11.5852
▁crime	-11.5852
▁database	-11.5852
▁distinct	-11.5852
▁fellow	-11.5852
▁replicase	-11.5852
ildlife	-11.5852
ntertainment	-11.5852
symmetr	-11.5852
▁BGI	-11.5852
▁Ireland	-11.5852
▁Kanpur	-11.5852
▁Khaw	-11.5852
▁1918	-11.5852
▁Highway	-11.5852
▁UTC	-11.5852
▁bread	-11.5852
▁eleven	-11.5852
▁vandal	-11.5852
▁Claim	-11.5852
▁Parcel	-11.5852
▁wrapp	-11.5852
▁timing	-11.5852
CSE	-11.5852
▁okay	-11.5852
▁warrior	-11.5852
▁Paper	-11.5852
▁monks	-11.5852
▁opacit	-11.5852
▁Diagnostics	-11.5852
▁wound	-11.5852
▁Open	-11.5852
▁airway	-11.5852
▁tackl	-11.5852
▁BCE	-11.5852
▁Vikas	-11.5852
▁Airlines	-11.5852
▁Daman	-11.5852
▁mouse	-11.5852
▁freezer	-11.5852
▁shelter	-11.5852
▁Overall	-11.5852
▁taught	-11.5852
kov	-11.5852
▁frighten	-11.5852
▁spinn	-11.5852
losing	-11.5852
▁immers	-11.5852
▁Click	-11.5852
culture	-11.5853
orph	-11.5853
▁lineages	-11.5853
uddin	-11.5853
▁score	-11.5853
▁Planning	-11.5853
peroxide	-11.5853
▁pour	-11.5853
▁compil	-11.5853
burg	-11.5853
▁thick	-11.5853
▁transparen	-11.5853
flict	-11.5853
SOL	-11.5853
▁proceed	-11.5853
▁Clean	-11.5853
▁Naval	-11.5853
▁vol	-11.5853
▁framework	-11.5853
itigation	-11.5853
▁mangal	-11.5853
▁wander	-11.5853
▁Provid	-11.5853
▁Few	-11.5853
▁inspire	-11.5853
▁demograph	-11.5853
▁hub	-11.5853
▁weather	-11.5853
▁dispel	-11.5853
▁neutraliz	-11.5853
▁dust	-11.5854
famous	-11.5854
revalen	-11.5854
ventilat	-11.5854
▁manual	-11.5854
HSC	-11.5854
▁Commerc	-11.5854
▁Angel	-11.5854
▁Meh	-11.5854
Karna	-11.5854
▁nei	-11.5855
▁worn	-11.5855
▁Coles	-11.5855
njali	-11.5855
▁domin	-11.5855
CPR	-11.5857
sutri	-11.5858
mpact	-11.5861
MIT	-11.5861
pper	-11.5861
ontrary	-11.5861
omba	-11.5862
plain	-11.5863
▁Pawa	-11.5867
IgM	-11.587
▁insert	-11.588
▁allergi	-11.589
▁Kalam	-11.5896
▁lev	-11.59
▁Angu	-11.5906
ouch	-11.5909
▁Administrati	-11.5967
cycl	-11.598
▁Mich	-11.5983
▁spokesm	-11.5985
▁separat	-11.6134
▁ecolog	-11.6174
iwal	-11.6229
▁toxicit	-11.6249
objection	-11.6299
mulate	-11.6456
▁facilitat	-11.6477
urban	-11.6524
flat	-11.6695
▁content	-11.6706
ultiple	-11.6741
▁commun	-11.6797
helpful	-11.6973
ydrogen	-11.7159
▁licens	-11.7247
founder	-11.7714
Multi	-11.7899
domina	-11.793
▁Emergen	-11.8001
▁comme	-11.8101
eligions	-11.8121
terventions	-11.8156
▁particle	-11.8159
upportive	-11.8185
resident	-11.8209
Coronil	-11.8222
Work	-11.8223
cknowledg	-11.8223
efficient	-11.8224
secret	-11.8224
contain	-11.8224
friend	-11.8225
chemical	-11.8225
ttempt	-11.8226
FDA	-11.8226
erosol	-11.8226
Such	-11.8226
paper	-11.8226
approval	-11.8226
Wednesday	-11.8227
School	-11.8227
chron	-11.8227
political	-11.8227
2021	-11.8227
Remedesivir	-11.8227
critical	-11.8228
system	-11.8228
fight	-11.8228
government	-11.8228
number	-11.8228
ntibodies	-11.8242
▁Salunk	-11.8315
▁Current	-11.8323
▁propose	-11.8329
ouncil	-11.8338
ontainment	-11.8339
▁capita	-11.8339
▁Economi	-11.834
arliament	-11.8342
▁crow	-11.8344
restle	-11.8345
▁financ	-11.8345
▁specif	-11.8345
▁discriminat	-11.8346
▁Vaccinat	-11.8346
▁Prevent	-11.8347
reparedness	-11.8348
rontline	-11.8349
▁librar	-11.8349
olutions	-11.835
trategies	-11.835
isinformation	-11.835
ocktail	-11.835
onnect	-11.835
omestic	-11.8351
undreds	-11.8351
▁Pediatric	-11.8352
igital	-11.8352
▁Thai	-11.8352
utrition	-11.8352
▁oblig	-11.8352
▁neuro	-11.8352
iosafety	-11.8352
▁epitheli	-11.8352
▁suffocat	-11.8352
▁Ahmed	-11.8352
▁Metro	-11.8352
▁Monitor	-11.8352
▁Spread	-11.8352
▁Yoge	-11.8352
▁contemplat	-11.8352
▁decentralis	-11.8352
▁metropoli	-11.8352
(1-7)	-11.8352
AYUSH	-11.8352
Bhayander	-11.8352
Enough	-11.8352
IGIB	-11.8352
fibrosis	-11.8352
ntrepreneur	-11.8352
ocytosis	-11.8352
resumably	-11.8352
uebec	-11.8352
ysfunction	-11.8352
▁5,143	-11.8352
▁ALDI	-11.8352
▁Announc	-11.8352
▁Authorities	-11.8352
▁Bangalore	-11.8352
▁Belgium	-11.8352
▁Betacoronavirus	-11.8352
▁Bharadwaj	-11.8352
▁Bhiwandi	-11.8352
▁Bioeasy	-11.8352
▁Blinken	-11.8352
▁Challenge	-11.8352
▁Chemical	-11.8352
▁Columbia	-11.8352
▁Companies	-11.8352
▁Cyanoform	-11.8352
▁DGCI	-11.8352
▁Decision	-11.8352
▁Defense	-11.8352
▁Dubai	-11.8352
▁Establishment	-11.8352
▁Extension	-11.8352
▁Fatigue	-11.8352
▁GSDP	-11.8352
▁Gondia	-11.8352
▁Guangzhou	-11.8352
▁IATA	-11.8352
▁Immunity	-11.8352
▁Intensivist	-11.8352
▁Kashmir	-11.8352
▁Khadse	-11.8352
▁MRNA	-11.8352
▁MSEDCL	-11.8352
▁Macbeth	-11.8352
▁Michigan	-11.8352
▁Mokhada	-11.8352
▁Nottingham	-11.8352
▁Nowadays	-11.8352
▁Pittsburgh	-11.8352
▁Pneumonia	-11.8352
▁Problem	-11.8352
▁Remedicivir	-11.8352
▁Responsibility	-11.8352
▁Rishikesh	-11.8352
▁Saifai	-11.8352
▁Sammelan	-11.8352
▁Seoul	-11.8352
▁Srivastava	-11.8352
▁Standard	-11.8352
▁Vaxart	-11.8352
▁Vikramgad	-11.8352
▁Wankhedkar	-11.8352
▁YouTube	-11.8352
▁adoption	-11.8352
▁aggravate	-11.8352
▁aggregator	-11.8352
▁bilateral	-11.8352
▁bubble	-11.8352
▁cannula	-11.8352
▁celebrities	-11.8352
▁cemeteries	-11.8352
▁characterize	-11.8352
▁cholesterol	-11.8352
▁circulate	-11.8352
▁coincid	-11.8352
▁commodities	-11.8352
▁commotion	-11.8352
▁compris	-11.8352
▁confiscat	-11.8352
▁crazy	-11.8352
▁defecation	-11.8352
▁defective	-11.8352
▁denominator	-11.8352
▁descriptive	-11.8352
▁dilemma	-11.8352
▁diplomas	-11.8352
▁disseminat	-11.8352
▁dissolve	-11.8352
▁ducks	-11.8352
▁eggs	-11.8352
▁enzymatic	-11.8352
▁etiquette	-11.8352
▁exhausted	-11.8352
▁exoribonuclease	-11.8352
▁favour	-11.8352
▁guilty	-11.8352
▁headquarters	-11.8352
▁hormone	-11.8352
▁horrible	-11.8352
▁humectant	-11.8352
▁humidity	-11.8352
▁hungry	-11.8352
▁imperative	-11.8352
▁instrument	-11.8352
▁kitchen	-11.8352
▁lobby	-11.8352
▁marginalis	-11.8352
▁messaging	-11.8352
▁molecules	-11.8352
▁mount	-11.8352
▁mucorrhoea	-11.8352
▁nappies	-11.8352
▁oedema	-11.8352
▁optimize	-11.8352
▁parallelizab	-11.8352
▁parlance	-11.8352
▁plazas	-11.8352
▁powder	-11.8352
▁proliferation	-11.8352
▁qualif	-11.8352
▁quantify	-11.8352
▁recurr	-11.8352
