<pad>	0
</s>	0
<unk>	0
,	-2.38468
.	-3.36016
▁a	-3.44965
▁se	-4.34211
▁v	-4.37791
▁na	-4.62641
:	-4.64931
i	-4.66964
▁z	-4.87044
a	-4.88486
▁i	-4.89475
▁A	-4.90229
▁k	-4.95694
▁s	-5.01845
▁	-5.0229
m	-5.09462
▁jest	-5.12572
▁jeho	-5.14287
;	-5.1493
▁pak	-5.30424
▁I	-5.33044
▁do	-5.42128
▁že	-5.433
ť	-5.46181
e	-5.47376
▁po	-5.48475
▁jsem	-5.55181
▁Hospodin	-5.57502
u	-5.59554
▁od	-5.61479
?	-5.6396
o	-5.65801
y	-5.68209
í	-5.69173
▁za	-5.69624
▁aby	-5.75308
▁by	-5.75835
▁řekl	-5.80675
▁bude	-5.86444
te	-5.88407
▁to	-5.89608
▁byl	-5.9401
▁když	-5.9586
▁jejich	-5.9805
▁tak	-6.00107
▁své	-6.04352
ch	-6.05113
▁jako	-6.05773
ž	-6.06051
▁před	-6.0645
▁u	-6.06763
li	-6.06911
▁nebo	-6.06981
▁kterýž	-6.08673
▁kteříž	-6.09112
▁je	-6.09171
š	-6.13919
r	-6.1538
▁mne	-6.19606
s	-6.21783
▁svého	-6.21881
▁jsou	-6.23676
▁o	-6.23954
▁vy	-6.26824
v	-6.27092
l	-6.27454
▁ale	-6.29776
▁při	-6.30803
▁Nebo	-6.31403
á	-6.34852
ou	-6.36099
▁jsi	-6.40465
▁Bůh	-6.40943
p	-6.41294
k	-6.41518
▁ne	-6.4163
▁já	-6.42531
▁jim	-6.42679
z	-6.4348
é	-6.43681
em	-6.4397
▁země	-6.4409
▁kteréž	-6.44507
t	-6.44544
▁ho	-6.45512
▁toho	-6.47237
▁zemi	-6.47271
▁pro	-6.48437
▁nad	-6.49104
▁proti	-6.49558
▁jemu	-6.49636
▁také	-6.50318
ě	-6.50439
▁až	-6.55213
▁tobě	-6.55549
▁budou	-6.55931
▁ten	-6.55936
▁mi	-6.5662
▁ty	-6.57158
▁jej	-6.58591
▁Tedy	-6.60078
-	-6.63541
▁Ale	-6.65843
▁byli	-6.66459
▁vám	-6.68051
ho	-6.68348
▁svou	-6.68602
▁domu	-6.70079
ů	-6.72417
h	-6.73192
▁což	-6.73233
▁lid	-6.74486
ní	-6.74723
▁svých	-6.75007
la	-6.76116
▁král	-6.76294
▁vás	-6.78539
ti	-6.78816
ce	-6.81966
▁tě	-6.82135
▁tvé	-6.83062
▁ani	-6.83396
ý	-6.83817
ovi	-6.83923
▁sobě	-6.84925
▁syn	-6.86081
▁Protož	-6.86908
me	-6.87093
▁má	-6.88184
▁bylo	-6.89007
▁mé	-6.89419
d	-6.89514
▁Boha	-6.91192
le	-6.91284
mezi	-6.92454
▁lidu	-6.9265
▁synů	-6.94867
▁jste	-6.95349
▁V	-6.95994
▁praví	-6.98636
▁všecky	-6.99448
▁můj	-6.99448
▁ve	-7.01873
b	-7.02388
▁on	-7.02547
▁Hospodinu	-7.03643
▁synové	-7.04455
▁tedy	-7.04626
▁Z	-7.05088
▁den	-7.05163
▁dal	-7.07368
▁všech	-7.07938
▁ním	-7.07944
▁mně	-7.08622
▁syna	-7.10089
to	-7.1029
▁těch	-7.10451
▁všickni	-7.11188
▁kteráž	-7.11489
▁pod	-7.1226
▁jeden	-7.13145
▁kdo	-7.13464
▁jsme	-7.13569
č	-7.14019
▁řka	-7.14423
▁mluvil	-7.15955
na	-7.17329
▁všecko	-7.17619
▁ji	-7.18694
▁aniž	-7.20122
▁byla	-7.20652
st	-7.20762
▁zajisté	-7.2109
ova	-7.21201
▁Boží	-7.21442
ové	-7.21485
▁krále	-7.21885
▁Hospodina	-7.21886
▁tu	-7.22035
▁(	-7.22612
▁S	-7.23043
il	-7.24043
▁dne	-7.24406
mi	-7.24672
ně	-7.24763
ra	-7.25169
▁tvůj	-7.25285
▁srdce	-7.25311
▁Aj	-7.26
▁nás	-7.28346
▁svým	-7.29833
▁Ježíš	-7.29964
▁učinil	-7.29993
▁není	-7.3014
ře	-7.30177
▁věci	-7.30331
▁co	-7.30777
▁tebe	-7.31363
▁Po	-7.31545
mu	-7.32888
▁budu	-7.32899
▁svému	-7.3339
▁Ne	-7.33469
▁kdož	-7.34069
▁ti	-7.35091
▁dí	-7.35508
▁tam	-7.35576
ův	-7.35829
▁nich	-7.35919
▁jakž	-7.35947
▁té	-7.36047
▁města	-7.36451
ni	-7.37242
▁její	-7.37879
▁David	-7.38088
▁kterouž	-7.38228
en	-7.38462
▁jméno	-7.39473
▁každý	-7.3968
▁aj	-7.40352
▁mu	-7.40852
▁více	-7.41129
▁ke	-7.41521
▁jich	-7.41531
▁králi	-7.41989
▁K	-7.42076
▁něho	-7.43821
ých	-7.44594
▁něm	-7.44865
▁Když	-7.4553
▁však	-7.45782
▁již	-7.45936
▁budeš	-7.46594
ého	-7.4702
ná	-7.47096
uje	-7.47906
▁pokolení	-7.48501
▁roz	-7.495
▁Bohu	-7.49924
n	-7.50428
▁obět	-7.50521
▁nám	-7.51329
j	-7.51966
▁jí	-7.52846
né	-7.5332
▁protož	-7.53941
▁němu	-7.54532
▁ob	-7.54541
▁nyní	-7.5472
lo	-7.54845
▁jenž	-7.55657
▁budete	-7.58427
el	-7.58872
▁abych	-7.58998
dlé	-7.60261
še	-7.60505
▁dům	-7.61011
koli	-7.61149
▁aneb	-7.61463
▁stalo	-7.61858
▁přišel	-7.62348
▁Mojžíš	-7.62448
▁měl	-7.62597
vá	-7.62669
▁P	-7.62681
▁tebou	-7.63899
▁mého	-7.63973
▁otce	-7.63988
▁býti	-7.64133
cí	-7.64376
▁p	-7.65485
▁ruku	-7.65792
▁Potom	-7.65793
al	-7.66326
▁muži	-7.66334
▁Na	-7.66358
no	-7.66423
iti	-7.6648
▁svůj	-7.66512
ky	-7.66565
▁mnou	-7.66788
nou	-7.6681
▁tomu	-7.66933
▁Hospodinova	-7.67356
▁všecken	-7.67722
▁slovo	-7.67893
▁ní	-7.68081
▁nimi	-7.68169
▁ještě	-7.68211
jí	-7.68426
skrze	-7.68625
▁království	-7.68711
▁ať	-7.69744
ří	-7.69984
▁prostřed	-7.70398
ma	-7.7083
▁tvá	-7.71066
▁syny	-7.71233
ó	-7.71445
▁místo	-7.71723
▁pře	-7.72053
▁tom	-7.72213
je	-7.7222
▁Vy	-7.72781
▁oni	-7.73351
▁Hospodine	-7.7338
▁svém	-7.73838
▁slova	-7.73959
▁ruce	-7.74266
▁než	-7.74371
▁řekli	-7.74486
▁bratří	-7.74623
▁ta	-7.74811
▁proto	-7.75253
c	-7.7568
▁zase	-7.75886
▁nebude	-7.76676
▁poslal	-7.76763
▁O	-7.76777
▁Izraelský	-7.7679
▁vaše	-7.76984
▁pravím	-7.77182
▁ku	-7.77772
ech	-7.77847
▁ze	-7.77902
▁jakož	-7.79041
▁bez	-7.79334
▁sedm	-7.79501
an	-7.79758
▁abyste	-7.79777
▁tvého	-7.80493
ových	-7.81219
▁tvých	-7.82389
ím	-7.82411
ku	-7.82449
▁abys	-7.82544
▁člověka	-7.82554
▁věky	-7.8298
ka	-7.835
▁nic	-7.83707
▁všecka	-7.83809
▁muže	-7.83817
▁muž	-7.83974
ta	-7.85072
ř	-7.85547
▁člověk	-7.85875
▁oběti	-7.87191
▁svými	-7.88075
▁sám	-7.8818
oval	-7.88182
ům	-7.88376
▁toto	-7.88503
▁synům	-7.88962
▁Izraelských	-7.89374
▁dva	-7.89408
▁Zdaliž	-7.89543
▁let	-7.89979
že	-7.90534
▁velmi	-7.91851
ích	-7.9188
▁rukou	-7.93098
▁duše	-7.93098
▁přikázal	-7.93727
▁tři	-7.93731
▁jednoho	-7.93792
▁vůkol	-7.94044
▁sebe	-7.94068
▁Kdo	-7.94083
▁čas	-7.94228
▁Já	-7.94327
▁U	-7.9439
▁Ty	-7.95524
▁ně	-7.95533
▁Izraelští	-7.96631
krze	-7.96634
▁dědictví	-7.96939
▁mých	-7.96998
▁viděl	-7.97646
▁veliké	-7.97794
lá	-7.97859
po	-7.98449
ný	-7.98559
▁zástupů	-7.98713
▁očima	-7.98953
▁tohoto	-7.99295
▁Takto	-7.99328
ne	-7.99582
▁neb	-7.99903
▁ruky	-7.99919
▁domě	-8.00267
lé	-8.00352
▁hřích	-8.00502
▁též	-8.00698
dě	-8.0124
▁kněží	-8.01665
▁činil	-8.01718
▁žádného	-8.01993
ví	-8.02248
▁nim	-8.02297
▁jísti	-8.02672
▁přišli	-8.0305
▁vody	-8.03475
▁Mojžíšovi	-8.03499
ám	-8.03783
da	-8.03833
▁Tak	-8.0389
tí	-8.04221
▁řkouce	-8.05096
▁m	-8.05164
va	-8.05314
▁tento	-8.05462
ci	-8.05538
▁množství	-8.05803
▁potom	-8.06166
če	-8.06492
▁To	-8.07221
▁vší	-8.07549
▁vámi	-8.0775
▁živ	-8.08022
▁vzal	-8.08547
▁tisíc	-8.08613
▁Panovník	-8.09118
▁naše	-8.09435
▁Jestliže	-8.10175
nu	-8.10664
ko	-8.10691
▁synu	-8.10709
▁Při	-8.11217
▁ode	-8.11396
lí	-8.11407
sa	-8.11597
▁Řekl	-8.11786
cích	-8.11905
▁něj	-8.12089
▁svá	-8.12212
▁Hospodinem	-8.12354
▁bych	-8.12371
▁šel	-8.12533
tě	-8.12557
ovati	-8.12681
ení	-8.12861
▁ženy	-8.12887
▁koli	-8.13416
▁mužů	-8.13515
▁milosrdenství	-8.13584
▁kněz	-8.14004
▁těm	-8.14145
▁buď	-8.14958
▁Saul	-8.1502
▁umřel	-8.15149
čí	-8.15304
▁město	-8.15371
f	-8.15641
▁míti	-8.15929
ek	-8.16485
▁nepo	-8.1688
▁dnů	-8.17517
▁Jeruzaléma	-8.17531
▁knížata	-8.17796
▁mou	-8.18082
▁Kterýž	-8.18243
▁Od	-8.18829
▁On	-8.19111
▁Bože	-8.1913
val	-8.19712
▁Což	-8.20255
▁každého	-8.20421
▁nebe	-8.2068
▁moře	-8.20774
ští	-8.20793
▁dvě	-8.21139
▁Jeruzalémě	-8.21274
▁života	-8.21395
▁tím	-8.21554
▁Za	-8.2156
▁hlas	-8.21944
▁Pán	-8.22029
▁měli	-8.22456
dí	-8.22464
ru	-8.22584
edlé	-8.23073
▁pět	-8.23173
ze	-8.23424
▁tvoji	-8.23714
▁oči	-8.23734
▁všeho	-8.23744
▁kdež	-8.23754
▁dobré	-8.23946
▁Egyptské	-8.23947
▁D	-8.24052
▁zlé	-8.24062
▁nežli	-8.24155
ři	-8.24262
liž	-8.24784
▁sto	-8.24929
▁my	-8.25197
▁byly	-8.25224
▁Hospodinovo	-8.25294
▁jestliže	-8.25439
▁Odpověděl	-8.25843
ují	-8.25858
▁mnoho	-8.2587
▁odpověděl	-8.26281
▁času	-8.26378
▁našeho	-8.26459
)	-8.26501
▁b	-8.26667
▁hned	-8.27268
▁této	-8.27392
ost	-8.27665
ej	-8.2769
▁kteréhož	-8.27714
ým	-8.28036
▁žádný	-8.28519
▁vašich	-8.28676
▁tělo	-8.2875
ha	-8.29242
▁tváři	-8.29492
▁neu	-8.29673
▁moci	-8.29845
g	-8.2987
▁Jozue	-8.2987
▁shromáždění	-8.29902
▁tvář	-8.29908
▁Izraele	-8.3058
▁nebylo	-8.3058
▁bys	-8.30662
▁činí	-8.31186
▁dnes	-8.31825
▁Izrael	-8.31849
▁měsíce	-8.31865
mo	-8.31876
▁Šalomoun	-8.3269
▁d	-8.33049
▁hoře	-8.3307
▁přijde	-8.33204
▁Co	-8.33356
▁Že	-8.33488
▁všechněm	-8.33568
us	-8.33639
▁věcí	-8.33889
▁služebník	-8.34156
▁l	-8.34227
▁jehož	-8.34388
▁zplodil	-8.34583
dl	-8.34966
▁svědectví	-8.34987
▁totiž	-8.35031
ného	-8.3517
▁moc	-8.35204
▁úst	-8.35322
▁otec	-8.35467
▁léta	-8.35473
▁přes	-8.3596
ili	-8.3602
▁tvou	-8.36434
▁bývá	-8.36435
▁Hospodinův	-8.36503
▁Pane	-8.36916
er	-8.36995
tá	-8.37162
▁Davidovi	-8.37204
▁B	-8.37308
▁soud	-8.37863
▁mluviti	-8.37909
▁Izraelského	-8.38004
▁místě	-8.38406
▁zlého	-8.38538
▁řeč	-8.38587
ati	-8.38636
▁spolu	-8.38881
▁těla	-8.38944
▁věc	-8.38988
▁dcery	-8.39036
ovy	-8.39287
ovu	-8.39325
za	-8.39863
▁poušti	-8.39878
▁pokoj	-8.40238
▁smrti	-8.40265
ad	-8.40266
▁žena	-8.40305
ny	-8.40592
▁život	-8.4073
▁poněvadž	-8.40886
▁služebníci	-8.4089
ší	-8.40934
▁Izraelským	-8.41107
lu	-8.41386
▁jménu	-8.41393
▁Pročež	-8.41397
▁sebou	-8.41403
▁nepravost	-8.41646
▁Proč	-8.41966
▁Synové	-8.41968
▁stál	-8.42037
▁národy	-8.42081
on	-8.42155
od	-8.42586
▁nechť	-8.42939
▁silný	-8.43217
▁T	-8.43762
▁oheň	-8.43971
▁srdci	-8.43971
▁Pána	-8.44392
▁Ježíše	-8.44543
íš	-8.44632
▁set	-8.44857
▁mluví	-8.44962
▁obětovati	-8.45097
▁Aby	-8.4558
▁duši	-8.46082
▁kraloval	-8.46098
▁Zdali	-8.46449
▁otci	-8.46617
▁přikázaní	-8.46623
▁stánku	-8.46687
at	-8.46862
▁otců	-8.4708
▁dám	-8.47214
ovali	-8.47248
▁nes	-8.47404
▁lidem	-8.47525
▁Pakli	-8.47695
▁nevy	-8.4838
▁podl	-8.4852
▁veliký	-8.48862
▁Efraim	-8.49334
▁dokudž	-8.49367
▁abychom	-8.496
ly	-8.49629
▁noci	-8.4979
šel	-8.49863
▁jsa	-8.49887
),	-8.50007
▁čtyři	-8.5036
▁opět	-8.50442
ská	-8.50886
▁hlasu	-8.50935
▁krev	-8.51001
▁kníže	-8.51445
stav	-8.51661
▁váš	-8.51703
ba	-8.52249
ách	-8.52438
▁tvým	-8.52503
▁os	-8.52821
▁mým	-8.53025
vali	-8.53173
ň	-8.53363
▁vyšel	-8.53472
▁díl	-8.5358
▁hory	-8.53707
▁šest	-8.53945
▁Jákob	-8.53962
▁dá	-8.5403
ných	-8.54407
▁loket	-8.5442
▁moji	-8.5442
▁řekla	-8.54773
▁měst	-8.54878
▁Božího	-8.54902
▁ješto	-8.55003
▁Syn	-8.55051
▁řkoucí	-8.55119
▁L	-8.55458
▁brány	-8.55586
▁dobře	-8.55587
▁nez	-8.55624
dá	-8.55644
▁náš	-8.55667
▁toliko	-8.55714
▁spravedlnost	-8.55828
iáš	-8.56129
▁národů	-8.56222
▁nichž	-8.56274
▁mohl	-8.56423
ami	-8.56426
▁němž	-8.5643
▁první	-8.56639
▁hlavu	-8.56808
▁Ti	-8.56932
▁takto	-8.57256
▁straně	-8.57407
tež	-8.57472
▁městě	-8.57515
▁dny	-8.5799
vše	-8.58054
▁druhé	-8.58367
ným	-8.5856
▁smlouvu	-8.58591
▁cesty	-8.58688
▁Toto	-8.58702
▁M	-8.58707
▁pole	-8.58993
▁šli	-8.59098
▁Egypta	-8.59395
▁prosím	-8.59402
de	-8.59616
▁jak	-8.59766
▁deset	-8.59778
▁bratra	-8.59893
▁námi	-8.6012
sil	-8.61103
▁ústa	-8.61369
▁nebyl	-8.61386
▁dříví	-8.6163
▁jedno	-8.61964
▁meč	-8.61982
▁spravedlnosti	-8.61997
▁tisíců	-8.62073
▁t	-8.62245
ry	-8.62255
▁činiti	-8.62268
ování	-8.62763
▁mají	-8.62784
▁služebníka	-8.63267
▁Izraelské	-8.63346
▁přede	-8.63475
▁odtud	-8.63532
▁spasení	-8.63636
▁druhého	-8.63651
▁bratr	-8.63663
▁údolí	-8.64154
▁Bohem	-8.64163
▁Pro	-8.6422
ve	-8.645
▁postavil	-8.64534
▁pos	-8.65032
▁Kdož	-8.65362
▁jména	-8.6544
ání	-8.65579
▁anděl	-8.65624
▁Jozef	-8.65786
▁sta	-8.65842
cího	-8.66293
ské	-8.66675
▁cestě	-8.66803
ských	-8.66925
▁tato	-8.66954
či	-8.6703
▁dní	-8.67034
es	-8.67065
▁Izraeli	-8.67249
.)	-8.67397
▁tuto	-8.67758
▁ovoce	-8.68064
▁mám	-8.68074
▁vaši	-8.68129
▁všemu	-8.68416
ši	-8.68416
▁vz	-8.68475
▁Je	-8.69079
▁vyvedl	-8.69283
▁hor	-8.69397
▁prvé	-8.69405
▁h	-8.69544
▁slyšel	-8.69545
íce	-8.69758
▁Hospodinovy	-8.69917
iž	-8.6992
▁učiním	-8.70036
▁roucho	-8.70077
▁místa	-8.7022
▁pán	-8.70267
▁dnech	-8.70406
▁učinili	-8.70471
ud	-8.70535
▁oltář	-8.70607
▁Amen	-8.70776
▁Petr	-8.71334
▁kterak	-8.71442
▁roucha	-8.71442
▁úmluvy	-8.71442
▁zlata	-8.71445
ovo	-8.7196
▁nepravosti	-8.72014
▁rci	-8.72134
▁nohy	-8.72351
uj	-8.7294
▁strany	-8.72948
▁Beniamin	-8.73407
▁národové	-8.73578
▁Páně	-8.73777
▁Aron	-8.73819
▁řeči	-8.74148
▁Ó	-8.7423
▁R	-8.74255
▁cestou	-8.74305
ali	-8.74676
▁Galád	-8.75653
▁sami	-8.75744
▁vojska	-8.75794
▁ukázal	-8.75951
sti	-8.75997
▁Abraham	-8.76154
▁Jeruzalém	-8.76156
▁jazyk	-8.76209
▁ustanovení	-8.76299
▁chléb	-8.76373
▁Ten	-8.76399
▁cestu	-8.76536
▁uvedl	-8.76578
ot	-8.76783
▁Hospodinovu	-8.76921
▁tr	-8.77102
▁jiné	-8.77163
▁Davida	-8.77218
▁milost	-8.77271
▁Se	-8.77715
▁vydal	-8.77784
▁stane	-8.78375
ec	-8.7848
▁znamení	-8.78562
▁čtyřidceti	-8.78562
▁bydlil	-8.79111
▁byste	-8.79128
vr	-8.79144
▁mečem	-8.79219
!	-8.79303
▁Stalo	-8.79316
▁tváří	-8.79551
▁chodí	-8.7959
br	-8.79645
▁přední	-8.7998
nost	-8.80224
▁všem	-8.80528
▁duch	-8.8058
▁oltáře	-8.80639
▁všel	-8.80649
▁služebníky	-8.81354
▁H	-8.81673
▁Kristus	-8.8172
▁Ma	-8.8173
▁J	-8.81817
▁počal	-8.82143
▁stojí	-8.82228
ejte	-8.82629
as	-8.82874
▁stráž	-8.82921
▁navrátil	-8.82924
vý	-8.82956
chází	-8.83091
▁moři	-8.83092
ovým	-8.83196
▁slunce	-8.83246
▁odšel	-8.83611
▁kamení	-8.84045
kou	-8.84058
prav	-8.84112
ujte	-8.84164
▁nev	-8.84241
▁prchlivost	-8.84498
▁Neboť	-8.84531
▁očí	-8.85062
▁svět	-8.85131
▁dílo	-8.85255
▁Pánu	-8.85343
▁Kteříž	-8.85352
ed	-8.85602
▁něhož	-8.85621
▁ačkoli	-8.85872
jde	-8.86004
▁naproti	-8.86229
ově	-8.86317
or	-8.86658
▁neod	-8.86682
▁jsouce	-8.8695
▁Krista	-8.87029
▁pomezí	-8.87029
▁někteří	-8.8703
▁chleba	-8.87112
lož	-8.8743
▁lidé	-8.8757
▁Proto	-8.87595
▁vším	-8.87604
▁dar	-8.87907
▁všeliké	-8.8797
▁velikým	-8.88179
▁budeme	-8.88402
▁boji	-8.88457
▁Samuel	-8.88539
▁mnohé	-8.88648
▁símě	-8.88651
▁tyto	-8.88675
▁níž	-8.888
ků	-8.88864
ský	-8.89194
▁Ducha	-8.89343
▁Joáb	-8.89359
▁ráno	-8.89468
▁svatyně	-8.89468
▁dává	-8.89555
▁Izraelskému	-8.89562
▁nepři	-8.89602
▁jedna	-8.89682
▁zemí	-8.89748
stup	-8.89776
▁ohněm	-8.89898
ému	-8.89969
vedl	-8.90087
▁porodila	-8.90297
▁králem	-8.90808
im	-8.90828
▁Ch	-8.90842
ty	-8.90919
▁krve	-8.9113
há	-8.91132
▁Ta	-8.9144
▁činili	-8.91749
▁mému	-8.91955
▁třidceti	-8.91968
▁Otce	-8.91969
▁rozkázal	-8.91982
▁hněv	-8.92084
▁všemi	-8.92209
romě	-8.92277
it	-8.92396
▁pl	-8.92494
▁oznámil	-8.92726
▁Hle	-8.92926
▁nemá	-8.92976
▁poli	-8.9315
▁an	-8.93571
▁dědičně	-8.9367
▁kterýchž	-8.93672
▁mrtvých	-8.93711
▁prostředku	-8.9381
▁stě	-8.94046
▁Do	-8.94115
▁jde	-8.94166
▁ano	-8.94203
žto	-8.94299
▁Synů	-8.94436
▁mnozí	-8.94532
▁učedlníci	-8.94532
▁všecku	-8.94532
▁Juda	-8.94533
ají	-8.94553
▁š	-8.94609
▁obětoval	-8.94622
▁nej	-8.9465
dal	-8.9476
▁oltáři	-8.94851
▁lidí	-8.94983
▁nebudeš	-8.95239
▁zákon	-8.95366
▁Té	-8.95652
cím	-8.95797
bí	-8.95879
▁vstav	-8.95992
ď	-8.96005
▁n	-8.96034
▁učiněn	-8.96202
tý	-8.96246
▁Poněvadž	-8.96279
▁matky	-8.96279
▁bydliti	-8.9628
▁píti	-8.96297
▁ni	-8.96635
▁uzřel	-8.97107
▁vod	-8.97155
▁dnové	-8.97164
▁starší	-8.97172
▁tvému	-8.97182
lad	-8.97219
osti	-8.97229
▁zabil	-8.97295
av	-8.97349
uji	-8.97391
áž	-8.97467
▁mluvili	-8.97557
bu	-8.97611
▁Duch	-8.97655
▁soudu	-8.97834
▁prorok	-8.97858
▁jíti	-8.97984
▁zlato	-8.98064
▁otcové	-8.98078
▁psáno	-8.98153
pa	-8.98338
▁nebi	-8.98777
ji	-8.98884
▁Nechť	-8.98963
▁ducha	-8.98963
▁pří	-8.99056
▁letech	-8.99086
▁nepřátel	-8.99313
▁čeled	-8.99462
ými	-8.99567
▁Izraelem	-8.99585
▁smlouvy	-8.99907
▁svaté	-8.99969
▁Dí	-9.00056
▁Jdi	-9.00113
eš	-9.00258
▁Synu	-9.00449
bychom	-9.00599
▁viděli	-9.00634
▁počtu	-9.00785
▁Otec	-9.00785
▁čeledech	-9.00828
▁nalezl	-9.00852
▁zástup	-9.0091
▁dvanácte	-9.00954
▁svatých	-9.00994
▁zem	-9.01031
▁tomto	-9.01098
ob	-9.01191
ál	-9.01242
▁slov	-9.0155
▁světa	-9.01674
▁velikou	-9.01711
str	-9.01743
▁udělal	-9.01788
▁dvadceti	-9.01803
eno	-9.01881
▁ona	-9.02003
▁vaší	-9.0204
▁služebníků	-9.02269
íte	-9.02306
▁Kristu	-9.02447
▁přivedl	-9.02851
▁bydlili	-9.0289
▁všelik	-9.0289
▁jedl	-9.03021
▁kněze	-9.03042
▁umře	-9.03348
▁nedo	-9.03391
▁pravé	-9.03463
▁ruka	-9.03541
▁nazval	-9.03616
mluv	-9.03925
ského	-9.04335
▁dcera	-9.04434
▁horu	-9.04478
▁tisíce	-9.04491
▁skutky	-9.04541
▁stříbra	-9.04541
▁chodil	-9.0456
▁pročež	-9.04575
▁městech	-9.04611
▁světlo	-9.04612
▁vzav	-9.04838
▁Nyní	-9.05503
▁dvou	-9.05591
▁pána	-9.05614
▁Aronovi	-9.0565
▁vyvolil	-9.0567
kem	-9.05895
▁proroka	-9.0632
▁jím	-9.06392
▁Pavel	-9.06473
▁vidění	-9.06473
▁větší	-9.06473
▁může	-9.06473
▁manželku	-9.06491
▁meče	-9.06515
▁Judského	-9.06556
▁pokoje	-9.06636
▁jiných	-9.06779
tu	-9.0693
▁neo	-9.07242
ství	-9.07319
▁lodí	-9.07455
▁národ	-9.07462
▁spravedlivý	-9.07549
▁obyvatel	-9.0767
▁každé	-9.0769
▁tvém	-9.07895
▁skutků	-9.08444
▁nebudou	-9.08444
▁sláva	-9.08444
▁způsob	-9.08564
▁obětí	-9.09112
▁Roz	-9.09144
▁vyp	-9.09217
▁poušť	-9.09444
▁Král	-9.09445
▁ovce	-9.09447
▁podobenství	-9.09448
▁oblíčeje	-9.09469
▁hlavy	-9.0951
▁těmi	-9.09526
▁padl	-9.09527
nebo	-9.09529
▁dokonal	-9.0962
▁pokrm	-9.09677
▁E	-9.09696
ložil	-9.10067
▁moudrost	-9.10185
▁navrátí	-9.10345
▁kterémž	-9.1037
▁člověčí	-9.10454
▁Ezau	-9.10454
▁příbytku	-9.10462
▁Eliáš	-9.10473
▁Judských	-9.1061
▁dobrého	-9.10757
zi	-9.10813
▁Hospodinově	-9.10939
vati	-9.11087
▁zákona	-9.11339
hu	-9.11357
▁evangelium	-9.11474
▁truhlu	-9.11474
▁umění	-9.11518
▁čehož	-9.11557
▁obrátil	-9.11587
▁východu	-9.11595
▁Izraelovi	-9.11713
trh	-9.11928
▁modlil	-9.12034
▁svatý	-9.12369
▁věčné	-9.12376
▁vojsko	-9.12599
▁Zákon	-9.12634
▁třetí	-9.13419
▁Božím	-9.13502
▁slávu	-9.13547
▁jedli	-9.13549
▁vždycky	-9.13607
▁shromáždil	-9.1369
▁národu	-9.13941
▁vstal	-9.14587
▁vína	-9.14631
▁Jezukrista	-9.1466
▁Židé	-9.14682
▁proč	-9.14719
▁jedné	-9.14731
pustil	-9.14746
▁Kterýžto	-9.14819
áš	-9.14884
▁dali	-9.15026
▁hněvu	-9.15065
▁vašeho	-9.15106
▁vzali	-9.15217
di	-9.15262
▁učiní	-9.15508
▁Levítové	-9.15663
▁něco	-9.15664
▁chtěl	-9.15789
▁požehnání	-9.15845
▁vrchu	-9.15875
▁nádoby	-9.15921
in	-9.1602
▁Davidův	-9.16043
▁slyší	-9.16101
▁noh	-9.16175
ád	-9.16391
▁druhý	-9.1643
si	-9.16577
▁Farao	-9.16665
▁nečistý	-9.16739
▁některé	-9.16739
▁stolici	-9.16739
▁knize	-9.1674
▁čeledi	-9.16769
▁ustavičně	-9.16778
▁dni	-9.16887
▁vyšli	-9.16937
by	-9.16937
▁našich	-9.16965
▁seděl	-9.16987
▁Jako	-9.17104
▁pa	-9.17167
▁dveří	-9.17204
▁Mojžíše	-9.17213
▁oblak	-9.17285
▁dcer	-9.17397
▁ženu	-9.17468
▁žen	-9.17528
▁Jakož	-9.17739
[	-9.17825
▁]	-9.17825
▁bohy	-9.17826
▁maje	-9.1786
krát	-9.17952
▁čtyř	-9.17987
▁uši	-9.18107
▁příčiny	-9.1814
▁Syna	-9.18155
▁nebesa	-9.18159
▁Ba	-9.18488
▁těchto	-9.18493
▁sloužiti	-9.18924
▁Ruben	-9.18925
▁máš	-9.18928
▁víry	-9.18932
▁bydlí	-9.18951
▁ven	-9.19021
▁mém	-9.19098
▁okolo	-9.19099
▁rychle	-9.19189
▁Ano	-9.19191
▁nepřátely	-9.19341
šli	-9.19483
▁modl	-9.19717
▁služebníku	-9.19802
▁vidí	-9.19946
▁Samaří	-9.20036
ýbrž	-9.20036
▁věcech	-9.20132
▁tito	-9.20575
cházel	-9.20723
▁lidi	-9.20819
▁Není	-9.20825
▁položili	-9.20826
▁N	-9.209
liť	-9.21031
▁noc	-9.21197
▁těle	-9.21234
▁přijdou	-9.21263
▁zůstal	-9.2136
▁nemůže	-9.21387
▁chrámu	-9.21419
dej	-9.21756
ním	-9.21799
ďte	-9.22207
ri	-9.22208
▁bojí	-9.22211
▁bráně	-9.22295
▁žalm	-9.22296
▁konce	-9.22297
▁peníze	-9.22341
▁nebudete	-9.22354
ivše	-9.22357
▁spravedlivého	-9.22361
▁někdo	-9.22438
▁povolal	-9.22516
▁uslyšel	-9.22558
▁naši	-9.22596
▁Ezechiáš	-9.22906
▁králové	-9.23162
▁C	-9.23338
▁živi	-9.23404
▁Opět	-9.23445
▁Všickni	-9.23445
▁Živ	-9.23445
▁semene	-9.23453
▁Manasses	-9.23464
▁miluje	-9.23468
▁svatého	-9.23606
▁prchlivosti	-9.23667
▁Byl	-9.24047
▁osm	-9.24098
▁Aniž	-9.2422
▁Jan	-9.24323
▁budeť	-9.24332
▁nebeské	-9.2446
▁jménem	-9.24608
▁prut	-9.24616
▁lotů	-9.24672
▁přišla	-9.24694
▁nechtěl	-9.24719
▁padesáte	-9.24745
▁vedl	-9.2483
▁hejtman	-9.24895
▁zápal	-9.24967
▁ohně	-9.25171
▁měsíc	-9.25241
▁Zákona	-9.25464
▁žádné	-9.25589
▁dítě	-9.25687
▁půlnoci	-9.25784
▁ssoužení	-9.25852
▁marnost	-9.26009
▁nemohl	-9.26033
uješ	-9.26196
▁příčin	-9.2626
▁obyvatele	-9.2629
zí	-9.26356
▁bratřím	-9.26419
▁neza	-9.26524
▁strom	-9.26596
▁vstoupil	-9.26744
tra	-9.26862
▁Však	-9.26975
▁Nadto	-9.27016
▁ustanovil	-9.27228
▁přichází	-9.2726
aje	-9.27279
▁knězi	-9.27475
▁slyšeli	-9.27539
▁nep	-9.27841
▁jiní	-9.27922
▁jen	-9.28035
▁smrt	-9.28102
▁Takž	-9.28157
▁naplněn	-9.28179
▁Nýbrž	-9.2819
▁hříchy	-9.28193
▁prve	-9.28198
▁list	-9.28199
▁víno	-9.28202
▁trápení	-9.28284
▁východní	-9.2831
▁oko	-9.28342
▁otcům	-9.28347
▁řeky	-9.28353
▁Jákobovi	-9.28406
▁vodou	-9.28423
▁boj	-9.28427
▁sedmého	-9.28433
▁pokoji	-9.28578
,)	-9.28599
▁veselí	-9.28817
▁buďte	-9.29082
▁Absolon	-9.2929
▁Filistinští	-9.29399
▁kralovati	-9.29399
▁náramně	-9.29399
▁stříbro	-9.29399
▁polní	-9.29418
▁třetího	-9.29549
▁obětovali	-9.29627
▁Moáb	-9.30189
▁zá	-9.30439
▁radost	-9.30552
▁odpovídaje	-9.30633
▁odpočinutí	-9.30633
▁přestoupení	-9.30633
▁půlnoční	-9.30633
▁učiniti	-9.30633
▁Bude	-9.30634
▁naději	-9.30635
▁krví	-9.30639
▁počet	-9.30639
▁milosti	-9.30889
▁prvního	-9.30901
▁čím	-9.31072
▁hle	-9.31261
▁nena	-9.31398
vu	-9.31552
▁služebníkům	-9.31555
▁moudrosti	-9.31789
▁ostříhati	-9.31883
▁tehdáž	-9.31883
▁kámen	-9.31885
▁div	-9.31905
▁mnohých	-9.31975
▁člověku	-9.32223
▁Také	-9.32465
▁hovada	-9.32606
▁pr	-9.32677
▁nejvyšší	-9.32951
nil	-9.32988
▁vyhlazen	-9.33149
▁Běda	-9.33149
▁pravdě	-9.3315
▁bližního	-9.33165
▁Mluvil	-9.33218
▁přijíti	-9.3328
ujíce	-9.33289
▁snad	-9.33375
▁dáno	-9.33423
▁stáda	-9.33566
▁tomuto	-9.33593
▁bohům	-9.33634
▁Ja	-9.3375
▁Ob	-9.33778
▁rod	-9.33798
ující	-9.33845
▁hlad	-9.33916
▁jiný	-9.34127
▁zdi	-9.34181
pil	-9.34205
▁los	-9.34292
▁vítr	-9.34432
▁polední	-9.34439
▁zvuk	-9.34459
▁Dan	-9.34552
▁knížat	-9.34582
skou	-9.346
íme	-9.35299
▁které	-9.35346
▁sedí	-9.35386
▁nenávidí	-9.3573
▁síně	-9.35748
▁jistě	-9.35754
▁miloval	-9.35755
▁jedn	-9.35835
▁slib	-9.35917
▁nenávisti	-9.35934
▁utekl	-9.36099
měř	-9.36402
stal	-9.36694
▁přísahou	-9.37046
▁Faraonovi	-9.37046
▁odpověděv	-9.37048
▁neměl	-9.37148
▁hovad	-9.37267
▁vyjde	-9.37372
▁sstoupil	-9.37391
niž	-9.37433
▁cizím	-9.37506
▁sloužili	-9.37517
▁hlasem	-9.37561
▁obě	-9.37565
▁nebyli	-9.37723
▁Ach	-9.37985
▁položil	-9.37986
▁končin	-9.38358
níci	-9.38359
čili	-9.38361
▁matka	-9.38379
▁viděti	-9.38379
▁slávy	-9.38379
eni	-9.3843
▁postav	-9.38649
▁večer	-9.38791
▁loupež	-9.38796
▁čeledí	-9.3888
▁pravili	-9.39189
▁tého	-9.39469
▁králů	-9.39557
▁hod	-9.3957
▁Jeremiáš	-9.39652
▁Mluv	-9.39657
▁Eleazar	-9.39731
▁Jistě	-9.39731
▁Léví	-9.39731
▁nejsou	-9.39732
▁horách	-9.39772
▁suchou	-9.39804
▁Bet	-9.39807
▁uvedu	-9.39845
▁jiného	-9.40186
án	-9.40311
▁posvěcen	-9.4052
▁rozum	-9.40732
▁Eli	-9.40954
dy	-9.40961
▁Gád	-9.4099
▁Bál	-9.41069
▁ostříhá	-9.411
▁zápalné	-9.41164
Psal	-9.41172
▁čist	-9.41226
▁potok	-9.41611
▁pošli	-9.41645
▁nádobí	-9.41848
kládá	-9.42277
▁zlaté	-9.4249
▁síly	-9.42495
▁síla	-9.42522
nouti	-9.42624
▁zdaliž	-9.42701
▁Jak	-9.42926
▁Izák	-9.43021
▁Ve	-9.43133
▁nádob	-9.43216
▁olejem	-9.43218
▁máme	-9.43365
▁Jozafat	-9.43787
ena	-9.43799
▁houf	-9.43862
▁rána	-9.43898
▁skryt	-9.43907
▁vysvobodil	-9.43932
▁Filistinských	-9.4394
▁přikázání	-9.43946
▁medle	-9.43949
▁zápalnou	-9.43955
▁bíd	-9.4396
▁vystavěl	-9.43969
▁přitáhl	-9.43997
▁Před	-9.44055
▁Sion	-9.44137
▁hrobu	-9.44208
▁Jordán	-9.44325
▁Abi	-9.44439
▁velikého	-9.4445
▁vytáhl	-9.4448
bě	-9.44486
▁svýma	-9.44669
▁zde	-9.4471
▁vycházel	-9.45006
▁vně	-9.45027
▁hledají	-9.45219
▁Babylon	-9.45262
▁Sélah	-9.45326
▁Tehdy	-9.45326
▁přisáhl	-9.45326
▁fík	-9.45327
▁Jemuž	-9.45331
▁věků	-9.45372
▁Aneb	-9.45418
▁kde	-9.45425
▁budiž	-9.45427
kaž	-9.45652
▁jdou	-9.45692
▁Jordánu	-9.45702
ložen	-9.45707
▁bral	-9.45824
▁Jáť	-9.45828
▁nešlechetnost	-9.4586
▁všeliký	-9.46131
▁pověděl	-9.46196
▁nemohli	-9.4647
▁kosti	-9.46518
▁oleje	-9.46527
▁Tito	-9.46574
▁královské	-9.46585
1	-9.46776
▁maso	-9.46776
▁kázal	-9.46776
▁meze	-9.46779
▁rozkoš	-9.46782
▁studnice	-9.4686
▁národům	-9.46892
▁jdi	-9.47223
▁pozůstal	-9.47294
▁pravici	-9.47309
▁mocí	-9.47813
▁ž	-9.47882
▁kněžím	-9.48024
nes	-9.48057
▁zed	-9.48188
kové	-9.4824
▁poledne	-9.48246
▁Ještě	-9.48246
▁choditi	-9.48246
▁teď	-9.48249
▁tolikéž	-9.48257
▁domích	-9.4826
▁komu	-9.48271
▁skopce	-9.48283
▁ohni	-9.48306
▁silného	-9.48308
▁Su	-9.48322
ém	-9.48481
▁přestal	-9.48504
▁kol	-9.48544
▁ran	-9.4859
▁každému	-9.48632
▁ohavnosti	-9.48949
▁Babylona	-9.49032
stane	-9.49053
▁Ježíši	-9.49107
▁obrátí	-9.4912
▁uzří	-9.49234
▁znám	-9.49246
▁zle	-9.49262
▁prach	-9.49464
▁Judské	-9.49543
▁mluv	-9.49577
▁ramen	-9.49579
▁svatým	-9.49594
▁Kananejské	-9.49608
▁pohostinu	-9.49739
▁veliká	-9.49739
▁Bethel	-9.49744
▁vysvobodí	-9.49764
▁vida	-9.49791
▁rt	-9.49815
▁jednu	-9.50169
▁dceru	-9.50252
▁proroky	-9.50314
▁Davidova	-9.5036
▁vodu	-9.50383
▁vašim	-9.50656
šedše	-9.50711
▁vzdělal	-9.50717
▁šla	-9.50725
▁pilně	-9.50786
▁sloup	-9.50887
▁stáli	-9.50991
▁strach	-9.51082
vy	-9.51243
▁otevřel	-9.51254
▁vespolek	-9.51254
▁kterýmž	-9.51259
▁samého	-9.51269
▁Joas	-9.51275
třel	-9.51293
▁posly	-9.51305
▁zůstane	-9.51349
▁vešli	-9.51396
▁hříchu	-9.51404
rob	-9.51434
▁přišed	-9.51503
▁Me	-9.51509
▁Judský	-9.51793
▁Muž	-9.51861
▁naplnil	-9.5187
▁kam	-9.51987
▁pozdvihl	-9.52028
▁máte	-9.52092
▁pánu	-9.52093
▁vykoná	-9.52232
vají	-9.52347
▁Jonata	-9.52552
▁myšlení	-9.52795
▁volka	-9.5282
hub	-9.52883
▁jitra	-9.52892
▁bo	-9.53012
▁nepřátelé	-9.53068
▁dáti	-9.53106
▁všelikého	-9.53132
▁připravil	-9.53462
▁bratru	-9.537
▁pravil	-9.53729
▁půjde	-9.54026
▁Daniel	-9.5425
▁předměstí	-9.54389
▁nikoli	-9.54448
ms	-9.54474
▁Le	-9.54651
▁domem	-9.54735
▁jejím	-9.54757
ával	-9.54843
▁cizí	-9.55016
vé	-9.55193
▁rad	-9.55535
▁Saule	-9.55576
▁hříchů	-9.55842
▁nevěst	-9.55894
▁chodili	-9.5591
▁les	-9.55925
▁zboží	-9.55942
▁Abner	-9.55942
▁Sichem	-9.55942
▁odvrátil	-9.55943
▁zajetí	-9.55943
▁dnešní	-9.55945
▁cestách	-9.55962
nul	-9.56025
▁souditi	-9.56097
▁kdy	-9.56099
▁místu	-9.56109
▁Saulovi	-9.56385
▁uděl	-9.56422
▁volal	-9.56509
▁Moábské	-9.5654
▁poznal	-9.56612
▁Babylonský	-9.56734
▁mysli	-9.56787
▁Kristov	-9.56789
▁večera	-9.56846
▁mohli	-9.56874
▁poznali	-9.56878
▁bohů	-9.56939
▁chrám	-9.57032
▁musí	-9.57148
hne	-9.57468
▁požehnal	-9.57555
▁svatyni	-9.57555
▁raději	-9.57559
▁Lid	-9.57563
▁odešli	-9.57605
▁královského	-9.57697
▁učení	-9.57698
▁Jest	-9.5773
▁Tento	-9.57744
▁bývají	-9.57778
▁Kdež	-9.57829
▁sv	-9.58018
▁Job	-9.58045
▁Hospodinovýma	-9.58162
▁cest	-9.58183
jdu	-9.5829
▁Nabuchodonozor	-9.58421
▁hrozn	-9.58438
▁Levítů	-9.58575
▁kterýžto	-9.58679
▁neob	-9.58699
▁vyuč	-9.58875
▁Slyšte	-9.5912
▁díla	-9.59162
▁loktů	-9.59194
▁pohanění	-9.59194
▁kopí	-9.59195
▁přišlo	-9.59197
▁naděje	-9.59199
▁Již	-9.59241
▁tuk	-9.5931
▁bezbožných	-9.59388
fa	-9.594
▁trouby	-9.59402
▁pobil	-9.59647
▁měla	-9.59657
ován	-9.59695
▁Dej	-9.6002
nobrž	-9.60108
▁olej	-9.60287
▁ro	-9.60532
▁kdyby	-9.60617
▁dělá	-9.6064
▁říkají	-9.60751
▁Jéhu	-9.60861
▁Abram	-9.60862
▁Jděte	-9.60863
▁Izaiáš	-9.60873
▁počátku	-9.60883
▁Bázan	-9.60883
bil	-9.60947
▁had	-9.60984
▁zlost	-9.60989
▁Nez	-9.61
▁Tato	-9.61031
▁vůle	-9.61038
▁Izraelskými	-9.61117
▁Jakž	-9.6114
▁tří	-9.61246
▁všelijak	-9.61267
▁volů	-9.61323
▁spatř	-9.61345
▁jaké	-9.61487
▁dílem	-9.61549
▁jiným	-9.6155
▁pomoc	-9.61643
▁bojoval	-9.61662
▁jichž	-9.61669
▁Oni	-9.61758
▁porazil	-9.61856
▁hrob	-9.62012
▁ok	-9.62211
ěj	-9.62324
▁pokojné	-9.62341
▁zlatem	-9.62556
▁Te	-9.62557
▁vždy	-9.6256
▁bohatství	-9.62562
▁jediné	-9.62565
rac	-9.62571
▁oděv	-9.62636
▁křik	-9.62673
▁svatosti	-9.62694
▁chrámě	-9.62716
▁By	-9.62723
▁vinice	-9.62741
▁dvanácti	-9.62778
▁Toho	-9.63164
nější	-9.63208
▁nemoc	-9.63272
▁plakal	-9.634
▁Jeruzalému	-9.63435
▁Neb	-9.63505
▁takové	-9.63544
▁poslední	-9.6404
▁oznam	-9.64124
▁peněz	-9.6428
▁osvědč	-9.6428
▁zůstává	-9.64281
▁velice	-9.64285
▁pojal	-9.64291
▁Babylonského	-9.64333
▁dvakrát	-9.6434
▁službu	-9.64355
▁krajině	-9.64453
▁Jo	-9.64545
vrz	-9.64579
▁Šalomounovi	-9.64684
ros	-9.64793
▁zdali	-9.64897
▁obyvatelů	-9.64969
▁dary	-9.65019
▁ostříhal	-9.65085
▁Mo	-9.65186
▁Achab	-9.65558
▁dílu	-9.65639
▁moudrý	-9.65794
▁rozhněval	-9.66034
▁slávě	-9.66034
▁vlastní	-9.66035
▁konec	-9.66035
▁pohany	-9.66035
▁pověst	-9.66035
▁suché	-9.66035
▁blízko	-9.66041
▁Viděl	-9.66046
▁bran	-9.66057
▁slou	-9.66102
▁sedmdesáte	-9.66122
▁nepře	-9.66138
▁přivedu	-9.66151
▁pane	-9.66155
▁dvěma	-9.66242
▁béře	-9.66254
▁připrav	-9.66373
▁zvěř	-9.66512
▁čistý	-9.66643
▁Aza	-9.66782
▁hledali	-9.66829
▁zhřešil	-9.66868
▁nemají	-9.66927
▁složil	-9.67209
▁Sem	-9.67432
▁srdcem	-9.67535
rostl	-9.67573
eb	-9.6762
stoupí	-9.67663
▁ná	-9.67759
▁Izmael	-9.6782
▁Kterak	-9.6782
▁beránka	-9.6782
▁dělati	-9.6782
▁maličko	-9.6782
▁základ	-9.6782
▁vozy	-9.67821
▁věrný	-9.67821
▁lučiště	-9.6783
▁skryl	-9.6783
▁obličejem	-9.67833
▁kořen	-9.67842
▁dvéře	-9.67858
▁širokost	-9.67881
▁hojnost	-9.67932
▁Egyptě	-9.67953
▁poškvrny	-9.68009
▁mouky	-9.68034
▁propustil	-9.68082
▁Abrahamovi	-9.68091
▁nechať	-9.68131
▁proroků	-9.68169
▁Kteréž	-9.68258
▁Dal	-9.68262
▁Vid	-9.68398
▁Jeruzalémské	-9.68481
▁čí	-9.68494
ček	-9.68496
▁naší	-9.68581
jíti	-9.68593
▁obrácen	-9.68684
byl	-9.6891
▁vyslyš	-9.68976
rot	-9.68995
▁jejího	-9.69119
▁ženě	-9.69421
▁hnu	-9.69563
▁lži	-9.69613
▁pamět	-9.69638
▁Ga	-9.69638
▁Pilát	-9.69638
▁pravdu	-9.69638
▁Sádoch	-9.69638
▁pokání	-9.6964
▁pakli	-9.69751
▁zjeven	-9.69765
▁uměl	-9.69794
▁domů	-9.69838
▁Všecko	-9.69926
▁našemu	-9.6998
▁výsosti	-9.69997
▁stanů	-9.7001
▁navrátili	-9.70038
▁nepřítel	-9.70058
▁nadělal	-9.70179
▁žádost	-9.70187
ským	-9.70643
▁My	-9.70678
▁Šimon	-9.70716
dali	-9.70779
▁městu	-9.70817
címu	-9.70818
▁učiň	-9.70858
sadil	-9.70882
▁soudy	-9.70923
▁slyš	-9.70956
▁vezme	-9.70985
▁nepro	-9.71069
čil	-9.71077
▁sedmi	-9.71179
řednímu	-9.71343
▁padli	-9.71364
chu	-9.71394
▁Lában	-9.7149
▁Zachariáš	-9.7149
▁lepší	-9.7149
▁pravdy	-9.7149
▁Gabaa	-9.7149
▁hůl	-9.71491
▁Nikoli	-9.71491
▁Noé	-9.71515
▁jámy	-9.71547
▁hledati	-9.71591
měřil	-9.71737
▁anděla	-9.71804
▁Ha	-9.71807
▁kamž	-9.71821
▁pěti	-9.71887
▁vložil	-9.71957
veď	-9.71997
▁spal	-9.72078
▁vsi	-9.72181
ců	-9.72297
▁dobrý	-9.72369
▁málo	-9.72408
▁býval	-9.72426
▁přijal	-9.72432
▁vydá	-9.72523
▁Muži	-9.7264
▁vrch	-9.72715
ata	-9.72726
▁jednom	-9.72969
▁zabit	-9.73048
▁příchozí	-9.73309
▁oblíčej	-9.7333
▁Ammon	-9.73376
▁Neftalím	-9.73377
▁desíti	-9.73377
▁práci	-9.73377
▁Vezmi	-9.73377
▁očistí	-9.73383
▁práce	-9.73387
▁dobytek	-9.73391
▁Udělal	-9.73397
stává	-9.73433
▁slyšeti	-9.73452
▁ležel	-9.73453
▁Nebudeš	-9.73522
▁druhému	-9.73591
▁krajiny	-9.73722
nesl	-9.73725
▁majíce	-9.73734
▁kmen	-9.73795
▁oba	-9.73894
▁hledá	-9.73987
▁vdov	-9.7421
▁dával	-9.74475
▁sen	-9.74515
▁uslyší	-9.74587
▁Vstaň	-9.74718
▁mužům	-9.74782
rátil	-9.74783
▁jemuž	-9.75143
▁cesta	-9.75255
▁Roboám	-9.753
▁mořské	-9.753
▁zaslíbil	-9.753
▁žaláře	-9.753
▁Simeon	-9.753
▁povstal	-9.75301
▁Požehnaný	-9.7532
▁manželky	-9.75342
▁víře	-9.75352
náší	-9.75375
▁manželka	-9.7541
▁Aman	-9.75457
▁vidouce	-9.75523
▁lev	-9.7558
▁pravo	-9.75767
neš	-9.75786
▁učedlníkům	-9.75858
▁krajin	-9.76186
▁říká	-9.76302
▁radu	-9.76356
▁stran	-9.76422
▁prac	-9.76494
▁zachová	-9.76577
▁Mar	-9.76586
ujete	-9.76665
▁posvětil	-9.76689
▁pil	-9.76738
▁všelijaké	-9.76784
pouštěj	-9.7701
▁přebývá	-9.77141
▁Abimelech	-9.7715
▁Mistře	-9.77261
▁déšť	-9.77261
▁stánek	-9.77261
▁všudy	-9.77261
▁pomazal	-9.77261
▁Ester	-9.77263
▁děje	-9.77263
▁vezmi	-9.77263
▁výše	-9.77274
▁slouží	-9.77278
▁Š	-9.7728
▁službě	-9.77295
▁soudil	-9.77304
▁prst	-9.77319
▁učil	-9.77355
▁říkajíce	-9.77391
▁vytrhl	-9.77451
▁odpověděli	-9.7753
▁rok	-9.77648
▁posadil	-9.7771
▁vůli	-9.7773
▁předce	-9.77788
▁zjev	-9.77797
▁přicházel	-9.77838
▁jednomu	-9.77867
▁pouště	-9.77876
tisk	-9.77958
▁ohavnost	-9.77983
▁věří	-9.7802
▁každém	-9.78132
berou	-9.783
▁činím	-9.78396
jdou	-9.7853
▁Ježíšovi	-9.7855
▁koz	-9.78677
hal	-9.78752
▁vyvýšen	-9.78798
▁nepřítele	-9.78801
▁prosil	-9.78823
rd	-9.78849
▁osob	-9.7897
▁bezbožný	-9.7903
ele	-9.79053
pokoj	-9.79091
▁zdá	-9.79181
▁Assyrský	-9.79261
▁nikdy	-9.79261
▁proroci	-9.79261
▁vysoké	-9.79261
▁Léta	-9.79261
▁duší	-9.79261
▁jmen	-9.79261
▁podobný	-9.79262
▁vozů	-9.79262
▁hrad	-9.79269
▁příbytek	-9.79273
▁Pře	-9.79302
▁opatr	-9.79308
cházeli	-9.79365
▁čiňte	-9.79375
▁západu	-9.79393
▁Arona	-9.7942
▁Jeremiášovi	-9.79422
▁bratřími	-9.7945
▁stany	-9.79485
ější	-9.79558
▁rady	-9.79659
▁křídla	-9.79785
▁smrtí	-9.79829
▁nalezen	-9.80169
▁Egypt	-9.80173
▁Žid	-9.80634
▁zlořeč	-9.80708
▁Vz	-9.80829
trhl	-9.80886
stoupiv	-9.81116
▁podobné	-9.81172
▁zas	-9.81286
▁Budiž	-9.81302
▁Jezreel	-9.81302
▁vstříc	-9.81302
▁zaslíbení	-9.81302
▁zdaleka	-9.81302
▁přikazuji	-9.81302
▁Sidon	-9.81302
▁nejsem	-9.81302
▁přivedli	-9.81304
▁zkažen	-9.81325
▁místech	-9.81326
▁Jeroboám	-9.81376
▁ostatek	-9.8139
▁svrchu	-9.81462
▁milují	-9.81495
▁pochovali	-9.81551
▁Hospodinovým	-9.81563
▁řekne	-9.8165
▁vyšed	-9.8171
▁uložil	-9.81786
▁blázn	-9.819
▁bližním	-9.81928
▁slove	-9.82081
▁nebyla	-9.82185
▁Hor	-9.82269
▁trní	-9.82288
▁vše	-9.82302
▁čině	-9.82378
ram	-9.8238
▁přinesl	-9.82646
Nebo	-9.82724
▁jednou	-9.82819
▁který	-9.83126
▁Filistinské	-9.83254
▁mající	-9.83286
čkoli	-9.83287
▁Judstvu	-9.83385
▁poslouchati	-9.83385
▁státi	-9.83388
▁otcovských	-9.8339
▁osla	-9.83437
▁nedal	-9.83465
▁očištění	-9.83573
▁Kteřížto	-9.83608
▁duchem	-9.83842
▁díš	-9.83984
▁báli	-9.8416
▁dej	-9.84164
mon	-9.84205
▁soudů	-9.84454
ící	-9.84509
běhl	-9.84704
▁Sal	-9.84709
ající	-9.84987
lil	-9.84989
ic	-9.85008
rov	-9.85052
▁hledal	-9.85067
▁rozs	-9.8514
▁vím	-9.85297
▁Balám	-9.85404
▁Judští	-9.85513
▁Kahat	-9.85513
▁pohlaví	-9.85513
▁pavéz	-9.85513
▁příjemn	-9.85513
▁nebudu	-9.85513
▁dítky	-9.85513
▁Prosím	-9.85514
▁vezma	-9.85514
▁Slyš	-9.85515
▁mladosti	-9.85521
▁Každý	-9.85526
▁farizeové	-9.85535
▁vězení	-9.85536
▁víru	-9.85536
▁pozdvih	-9.85543
▁vojskem	-9.85604
jdi	-9.85667
▁oznámili	-9.8574
▁Neboj	-9.85817
▁postaví	-9.85821
▁trůnu	-9.85839
▁Jozefovi	-9.85872
▁živého	-9.8597
dejte	-9.8615
staň	-9.86192
▁dáš	-9.86386
▁dána	-9.86426
▁El	-9.86549
▁poslali	-9.86629
▁postavili	-9.86724
▁lež	-9.86773
▁šťastně	-9.8697
▁vjíti	-9.87046
vodil	-9.87201
▁lot	-9.87399
▁vzat	-9.87623
▁hrd	-9.87654
▁boje	-9.87682
▁Asser	-9.87687
▁knihy	-9.87687
▁Gi	-9.87687
▁zavrhl	-9.87687
▁Judovi	-9.87687
▁nazván	-9.87688
▁pochován	-9.87706
▁Azaf	-9.87839
▁navrať	-9.8785
▁čistého	-9.87866
▁domy	-9.87868
▁zavolal	-9.87874
▁sobotu	-9.87989
vésti	-9.88082
▁takový	-9.88089
▁polovice	-9.88094
▁zabije	-9.88238
▁způsobil	-9.88256
ach	-9.88277
▁obrátím	-9.88597
▁učí	-9.8921
▁Všeck	-9.89213
ostí	-9.89256
▁pohanů	-9.89282
▁učedlníků	-9.89368
▁jejích	-9.894
▁sprav	-9.89421
▁marn	-9.89492
▁mluvím	-9.89591
▁jaký	-9.89598
▁krás	-9.89614
▁manžel	-9.89678
▁tou	-9.89756
▁Dá	-9.89814
▁Filip	-9.89909
▁přisluhování	-9.89909
▁zvědí	-9.89909
▁Člověk	-9.89909
▁Ráchel	-9.89909
▁pravda	-9.89909
▁usnul	-9.8991
▁báti	-9.8991
▁vládařství	-9.89913
▁poslav	-9.89936
▁Měl	-9.89938
▁Egyptští	-9.89939
▁nalezli	-9.89955
▁plné	-9.89962
▁milý	-9.89964
▁nedá	-9.89964
chovej	-9.89964
▁roh	-9.89969
▁štít	-9.89983
▁Lot	-9.89989
padl	-9.90036
▁Manassesova	-9.90055
▁chceš	-9.90123
▁uzdrav	-9.90172
▁roku	-9.90388
▁smilství	-9.90423
▁jaká	-9.90504
▁Ar	-9.90508
▁poklad	-9.90676
▁vol	-9.90677
▁slovy	-9.90749
▁zabí	-9.90919
▁přijali	-9.91036
ále	-9.91236
vou	-9.91327
však	-9.91521
▁anebo	-9.9157
itský	-9.91585
▁chce	-9.91712
▁polovic	-9.91759
▁stín	-9.9182
▁Kde	-9.92023
▁nečisté	-9.92053
▁neví	-9.92167
▁Gedeon	-9.92181
▁Herodes	-9.92181
▁Levíty	-9.92181
▁mrákot	-9.92181
▁obrátiv	-9.92181
▁zahynul	-9.92181
▁Gabaon	-9.92182
▁Izachar	-9.92182
▁hrůz	-9.92182
▁narodil	-9.92182
▁tovaryš	-9.92182
▁následuj	-9.92182
div	-9.92182
▁žádal	-9.92182
▁děti	-9.92188
▁Maria	-9.9219
▁obilí	-9.92198
▁nebesích	-9.92208
vržen	-9.92219
dělej	-9.92227
▁vodách	-9.92236
▁úrod	-9.92314
▁padnou	-9.92404
jme	-9.92446
▁plná	-9.92475
▁stanu	-9.9248
▁dřevo	-9.92486
▁úrody	-9.92525
▁vola	-9.92582
▁dále	-9.92607
▁vztáhl	-9.92696
▁soudce	-9.92698
▁cel	-9.92752
▁uvěřili	-9.92762
sy	-9.92804
▁nese	-9.92822
▁korun	-9.93118
▁živé	-9.93344
▁stád	-9.93425
▁nesl	-9.93441
▁slavnost	-9.93606
▁dobrořeč	-9.93702
▁Jonat	-9.93708
▁lidmi	-9.94094
nutí	-9.94217
buď	-9.94317
▁drží	-9.94345
hel	-9.94357
▁Prav	-9.9449
stoupiti	-9.94507
▁Nátan	-9.94507
▁beránků	-9.94507
▁bláznovství	-9.94507
▁malomocenství	-9.94507
▁mládenci	-9.94507
▁ničeho	-9.94507
▁zšíří	-9.94509
▁dotkl	-9.94509
▁Masfa	-9.94511
▁trub	-9.94514
▁prvorozený	-9.94519
▁pohledění	-9.94526
▁bělné	-9.94536
▁Ho	-9.94538
▁děvky	-9.94541
▁koně	-9.94551
▁apoštol	-9.94669
▁nové	-9.94672
▁uk	-9.94751
▁řek	-9.94774
pustím	-9.94846
▁stádo	-9.94863
▁kteréžto	-9.94953
vejte	-9.95106
▁potoku	-9.95141
ováni	-9.95172
▁Jákoba	-9.95265
▁služebníkem	-9.95327
dadí	-9.95335
▁pokrmu	-9.95383
▁Levítům	-9.95395
▁vrat	-9.95525
▁prosili	-9.95624
lon	-9.95726
▁potřeb	-9.95749
ouce	-9.95778
▁koš	-9.95815
▁vesel	-9.95989
▁starším	-9.96226
A	-9.96227
▁Božímu	-9.96405
▁dcero	-9.96533
ložíš	-9.9657
▁uzřev	-9.96816
olikéž	-9.9687
rozuměl	-9.96873
▁přátel	-9.96877
▁harf	-9.96888
▁ostříhají	-9.96888
▁třidcíti	-9.96888
▁bohové	-9.96888
▁podobně	-9.96888
▁pokorn	-9.96891
▁Izai	-9.96894
▁Seir	-9.96895
▁Jakub	-9.96896
▁sestry	-9.96903
▁trpí	-9.96922
▁Achas	-9.96942
▁mužského	-9.96988
▁způsobím	-9.96991
▁prvorozeného	-9.97001
▁šedesáte	-9.97007
▁učiněni	-9.97053
▁Adam	-9.9709
▁nejvyššího	-9.97132
nese	-9.97134
kati	-9.97218
▁věcmi	-9.97272
▁Nepo	-9.97304
▁potup	-9.97319
▁padne	-9.97466
▁přidá	-9.9751
▁vylil	-9.97546
vajíce	-9.97653
▁obyčej	-9.9767
▁Hospodinových	-9.97793
▁Judským	-9.98087
▁zkazí	-9.98139
▁vypravoval	-9.98374
ber	-9.98482
▁Má	-9.98513
▁Nad	-9.98651
pal	-9.98654
▁uzdraven	-9.98671
▁věčný	-9.98704
▁známost	-9.98715
ložení	-9.98772
▁ryb	-9.98885
▁trůn	-9.98954
▁koho	-9.99161
bořil	-9.99172
▁mor	-9.99266
▁Amalech	-9.99326
▁Damašku	-9.99327
▁Kteráž	-9.99327
▁Tehdáž	-9.99327
▁bezbožnost	-9.99327
▁hedbáví	-9.99327
▁klaněti	-9.99327
▁kralování	-9.99327
▁mnohem	-9.99327
▁zplozen	-9.99327
▁řkuci	-9.99327
▁uvrhl	-9.99327
▁Semaiáš	-9.99327
▁kůži	-9.99328
▁Balák	-9.99328
▁půl	-9.99329
▁obilé	-9.99333
▁zítra	-9.99333
▁Jmén	-9.99336
▁Necha	-9.99353
▁leč	-9.9937
mysl	-9.99412
▁břehu	-9.99443
▁uděláš	-9.99449
▁poručil	-9.9945
▁plat	-9.99453
▁ukáže	-9.99455
▁světě	-9.99458
▁přijímá	-9.99466
▁pravého	-9.99664
▁právě	-9.9969
▁Zda	-9.99741
▁nezná	-9.99742
▁jimiž	-10.0001
▁potěšení	-10.0013
▁povol	-10.0022
▁bezbožní	-10.0023
▁lidské	-10.0024
▁stu	-10.0026
▁necha	-10.0039
▁Anobrž	-10.0045
sadí	-10.0053
▁potoka	-10.0069
ložím	-10.0079
▁přistoupil	-10.0088
▁soudí	-10.0098
▁čin	-10.0098
íti	-10.0136
dati	-10.0139
▁Zabulon	-10.0143
pusť	-10.0147
ívají	-10.0151
▁vývod	-10.016
▁vnitř	-10.016
▁Syrské	-10.017
▁Amaziáš	-10.0183
▁koflík	-10.0183
▁tehdy	-10.0183
▁vyhladil	-10.0183
▁Či	-10.0183
3	-10.0183
▁zahyne	-10.0183
▁Uriáš	-10.0183
▁poražen	-10.0183
▁Ješto	-10.0183
▁Merari	-10.0183
▁pastv	-10.0183
▁nátisk	-10.0184
▁sílu	-10.0184
▁Judova	-10.0184
jíce	-10.0185
▁písař	-10.0185
▁chlebů	-10.0187
▁chudého	-10.0188
▁popel	-10.0189
▁knížatům	-10.019
▁hojně	-10.0193
▁pětmecítm	-10.0198
▁Egyptských	-10.0199
▁vyslyšel	-10.02
▁jdouce	-10.0202
chyl	-10.0205
▁Jordánem	-10.0212
▁spálil	-10.0215
▁myslí	-10.0223
▁plod	-10.0226
▁jestiť	-10.0237
▁Židům	-10.0237
▁prachu	-10.0248
▁knížaty	-10.025
▁radostí	-10.0253
▁či	-10.0253
▁nocí	-10.026
▁jiná	-10.0281
šk	-10.0281
ývá	-10.0294
atím	-10.0296
▁bolest	-10.0298
▁Kdyby	-10.0301
▁přítel	-10.031
▁mělo	-10.0314
▁odpor	-10.0327
▁bojovali	-10.0329
▁všed	-10.0336
▁Až	-10.0338
▁rozdělen	-10.0339
▁pravic	-10.0347
▁Tam	-10.0349
▁bál	-10.0354
třech	-10.0354
▁utekli	-10.0366
▁Sodom	-10.0369
▁životu	-10.0372
▁kudy	-10.0374
žť	-10.0388
▁křt	-10.0397
▁Nej	-10.0397
▁Hebron	-10.0402
▁hvězd	-10.0405
ice	-10.0407
▁Samson	-10.0439
▁kvílení	-10.0439
▁modlitbu	-10.0439
▁modrého	-10.0439
▁rozptýlen	-10.0439
▁vzhůru	-10.0439
▁obživ	-10.0439
▁Otci	-10.0439
▁Sinai	-10.0439
▁Hlas	-10.0439
▁nenalezl	-10.0439
▁ulicích	-10.044
▁rozdíl	-10.044
▁Slovo	-10.044
▁jistotně	-10.0441
▁opuštěn	-10.0443
▁satan	-10.0443
▁protivník	-10.0443
▁zlořečení	-10.0443
▁západní	-10.0445
▁stříbrných	-10.0445
▁srdcí	-10.0446
▁hledí	-10.0446
▁zachoval	-10.0448
▁ucha	-10.0449
▁služby	-10.045
▁bezpečně	-10.045
▁Judskému	-10.0451
▁An	-10.0452
ření	-10.0455
▁poklady	-10.0479
▁přišedše	-10.0479
▁voly	-10.0481
▁psal	-10.0491
ska	-10.0491
▁roztrhl	-10.0496
▁Nes	-10.0497
▁spravedlivých	-10.0507
▁vzdělá	-10.0509
▁táhli	-10.0527
▁svobod	-10.053
▁nástroj	-10.0538
▁přiblížil	-10.0541
táhl	-10.0549
▁stala	-10.0558
▁obraz	-10.0579
zuj	-10.0586
▁sloužil	-10.0608
▁vchází	-10.0609
▁dvadcíti	-10.0613
▁řečí	-10.0619
▁pas	-10.062
ete	-10.0624
▁pomst	-10.063
▁postaven	-10.0639
▁dřev	-10.0653
▁dělal	-10.0659
stoupili	-10.0663
bro	-10.0666
▁zlatý	-10.0679
▁síň	-10.0689
▁Ezebon	-10.0702
▁mládence	-10.0702
▁obdržel	-10.0702
▁rouchem	-10.0702
▁stavěti	-10.0702
▁vrátn	-10.0702
▁výborné	-10.0702
▁úřad	-10.0702
▁dotekl	-10.0702
▁matku	-10.0702
▁zemřeli	-10.0702
▁Emat	-10.0702
▁hodinu	-10.0702
▁pohané	-10.0702
▁okras	-10.0702
▁vražedlník	-10.0703
▁rovinách	-10.0704
▁jat	-10.0705
▁daleko	-10.0706
▁síle	-10.0708
▁držel	-10.0709
▁rukama	-10.0716
▁Přišel	-10.0717
▁sobotní	-10.0718
▁Cha	-10.0723
dají	-10.0725
▁dán	-10.0726
▁spravedliví	-10.0734
chod	-10.074
▁Hebronu	-10.0741
▁světla	-10.0742
▁bil	-10.0747
▁čemž	-10.0748
▁volati	-10.075
šla	-10.0754
▁tímto	-10.0756
▁jazykem	-10.0763
▁Sionu	-10.0773
▁padesáti	-10.0773
▁smysl	-10.0775
▁zlořečil	-10.0775
▁mord	-10.0798
▁malé	-10.0801
▁jdu	-10.0811
▁přistoupili	-10.0822
▁Syrský	-10.084
▁rozkazu	-10.0855
▁nešlechetnosti	-10.0878
▁sobot	-10.0884
▁volali	-10.089
▁Řek	-10.0893
▁setník	-10.0896
čteno	-10.0898
▁Tu	-10.0902
▁každ	-10.0913
▁hlava	-10.0919
▁Cho	-10.0929
▁věděl	-10.093
▁nejprv	-10.093
▁troub	-10.0932
▁vytrhn	-10.0933
vodí	-10.0938
▁obrátili	-10.095
▁dlouho	-10.096
▁prvorozené	-10.096
vstanou	-10.0964
▁zajaté	-10.0965
▁nebeský	-10.0965
▁Ochoziáš	-10.0973
▁chválu	-10.0973
▁devět	-10.0973
▁neučinil	-10.0973
▁truhla	-10.0973
▁uposlechl	-10.0973
▁Kálef	-10.0973
▁nepoznal	-10.0973
▁přikryl	-10.0973
▁tázal	-10.0973
▁poledni	-10.0973
▁potřín	-10.0973
▁zákoníci	-10.0973
▁silnější	-10.0973
▁jinak	-10.0973
▁nemluvil	-10.0973
▁opravoval	-10.0973
▁ohnivou	-10.0974
▁kalich	-10.0974
▁uslyšev	-10.0974
▁odjal	-10.0974
▁vůni	-10.0975
▁dobytka	-10.0975
▁ovcí	-10.0977
▁med	-10.0977
▁řeknou	-10.0978
▁veseliti	-10.0978
▁Galgala	-10.098
▁víra	-10.098
▁Sílo	-10.0982
▁Seon	-10.0986
▁zabili	-10.0989
▁druhým	-10.099
▁přivodí	-10.0991
▁vydává	-10.0999
▁musil	-10.1005
▁správce	-10.1006
▁hvězdy	-10.1009
▁našim	-10.1011
▁přinese	-10.1015
▁ustav	-10.1034
▁sešli	-10.1039
▁chudý	-10.1041
▁vychází	-10.1042
▁bolesti	-10.1043
▁starších	-10.1046
▁opustili	-10.106
▁hody	-10.1075
▁ženin	-10.1078
▁zástupu	-10.1084
▁slovu	-10.1084
▁Ani	-10.1087
▁dopustil	-10.1089
▁vyvol	-10.1095
▁činíš	-10.1106
▁duchu	-10.1109
▁Hai	-10.1114
▁odejme	-10.1135
▁pili	-10.1137
▁odšed	-10.1139
▁věřící	-10.1148
▁palác	-10.1151
▁povolán	-10.1152
▁Poď	-10.1167
▁ač	-10.1167
▁prorokuj	-10.1169
▁věz	-10.1186
padne	-10.1186
vedu	-10.1199
▁stánk	-10.1213
▁někd	-10.1219
▁táhl	-10.1228
▁mrtvé	-10.1237
▁obrace	-10.1239
▁nebem	-10.1247
▁nadarmo	-10.125
▁neuposlechl	-10.125
▁pevnost	-10.125
▁pohledí	-10.125
▁žoldnéři	-10.125
4	-10.125
▁plamen	-10.125
▁stůl	-10.125
▁jedenáct	-10.125
▁Otče	-10.125
▁důstojnost	-10.1251
▁pobral	-10.1251
▁střev	-10.1252
▁mladší	-10.1252
▁Žádný	-10.1253
▁palm	-10.1254
▁stez	-10.1255
▁Assyrského	-10.1255
▁falešn	-10.1257
▁bitvě	-10.1258
▁stř	-10.1258
razil	-10.1264
▁nečistého	-10.1266
▁Ad	-10.1267
▁sečten	-10.1271
▁postavce	-10.1274
měl	-10.1275
dad	-10.1278
razí	-10.1278
▁pomsty	-10.1287
▁Všecky	-10.1294
▁stínu	-10.1297
▁lít	-10.1301
▁lidských	-10.1302
▁rozdělil	-10.131
▁vinici	-10.1314
▁dobyl	-10.1326
▁jez	-10.1328
▁vysvobození	-10.1331
▁paláce	-10.1353
▁nějaký	-10.1356
▁veselil	-10.1358
kal	-10.1359
chy	-10.136
▁měděné	-10.1378
▁slyšte	-10.1388
itská	-10.1408
eň	-10.1433
▁oznámí	-10.1439
▁neviděl	-10.144
▁otázal	-10.1441
▁Nebude	-10.1444
▁stal	-10.1447
▁Jana	-10.1455
▁potěš	-10.1463
▁žádostiv	-10.1486
dává	-10.1487
mordoval	-10.1488
nesou	-10.1491
▁přivede	-10.1502
▁hotov	-10.1507
▁něž	-10.1513
▁čeho	-10.1513
▁červ	-10.1515
▁vejde	-10.152
▁spravedliv	-10.1524
▁ďábel	-10.1535
▁počala	-10.1536
▁Chóre	-10.1536
▁Elizeus	-10.1536
▁Idumejské	-10.1536
▁chvály	-10.1536
▁přísloví	-10.1536
▁vzkříšení	-10.1536
▁zdélí	-10.1536
2	-10.1536
▁patnáct	-10.1536
▁zloděj	-10.1536
▁živočich	-10.1536
▁efi	-10.1536
▁zavázal	-10.1536
▁Milost	-10.1536
▁učitel	-10.1536
▁dsky	-10.1536
▁přijda	-10.1536
▁ponížen	-10.1536
půjč	-10.1536
▁Ráma	-10.1536
▁skopců	-10.1536
▁potkal	-10.1537
▁Blahoslavený	-10.1537
▁vnitřnost	-10.1538
▁desátky	-10.1538
▁věže	-10.1538
▁poškvrněn	-10.1539
▁čtvrtého	-10.1541
▁divili	-10.1542
▁Semei	-10.1543
▁Abrahama	-10.1554
▁nebeskému	-10.1555
vedou	-10.1559
▁zapsáno	-10.156
▁požehná	-10.1566
▁Jákobův	-10.1569
▁dávati	-10.157
▁vyhnal	-10.157
▁takového	-10.1576
nému	-10.1577
▁říkáte	-10.1578
věř	-10.1583
stupuje	-10.1583
▁učiníš	-10.1596
▁dávám	-10.1599
▁klaněli	-10.1601
▁jejichž	-10.1602
▁celý	-10.1603
▁zelen	-10.1626
cházeti	-10.1662
▁No	-10.1664
ran	-10.1668
piš	-10.1668
▁ranil	-10.1669
▁čt	-10.1683
▁přinesli	-10.1685
▁synem	-10.1686
▁zahanben	-10.1693
vez	-10.1693
▁svatém	-10.1695
▁ono	-10.1697
▁pomoci	-10.1699
▁slyše	-10.1704
▁Char	-10.1705
▁Ner	-10.1717
▁zlý	-10.172
▁ústy	-10.1747
hledal	-10.1765
▁opustil	-10.1791
▁hromad	-10.1792
hledá	-10.1796
▁sloul	-10.1798
kali	-10.1802
ejž	-10.1817
mot	-10.182
▁Bersabé	-10.183
▁Gát	-10.183
▁Kaldejské	-10.183
▁užitek	-10.183
▁vyplénil	-10.183
▁vůdce	-10.183
▁zahynutí	-10.183
▁zpívati	-10.183
▁zvířat	-10.183
▁Žalm	-10.183
▁Židovský	-10.183
▁půjdu	-10.183
▁Dokud	-10.183
▁panovati	-10.183
▁květ	-10.183
▁Toliko	-10.183
▁řád	-10.183
▁líbí	-10.183
▁knihu	-10.183
▁Jimž	-10.183
▁naučení	-10.183
▁skála	-10.1831
▁Cest	-10.1831
▁masa	-10.1831
▁kterémuž	-10.1831
▁Prorok	-10.1832
▁drak	-10.1833
▁branách	-10.1834
▁zbroj	-10.1834
▁pozdvižení	-10.1835
▁míry	-10.184
▁udeřil	-10.1841
▁lsti	-10.1841
▁mast	-10.1844
▁Rci	-10.1844
ejší	-10.1845
▁ptactvo	-10.1848
▁kořisti	-10.1849
▁lněn	-10.185
▁vnitřní	-10.185
▁prosb	-10.1855
▁časy	-10.1856
▁uvodí	-10.1856
▁zlatých	-10.1857
▁přijel	-10.1859
▁učedlníky	-10.186
▁Židy	-10.1881
▁hněvě	-10.1884
▁Elí	-10.1886
▁ohavností	-10.1886
sedl	-10.1889
▁Sedechiáš	-10.189
▁umí	-10.1901
niti	-10.1902
▁vylit	-10.1905
▁mladý	-10.1906
▁Achabov	-10.1912
▁divy	-10.1912
▁modly	-10.1922
▁plný	-10.1928
▁víte	-10.197
▁Vol	-10.199
▁vinný	-10.2017
▁šesti	-10.2021
▁Sam	-10.2032
volil	-10.2046
▁nechal	-10.2051
▁práv	-10.2053
toliko	-10.2067
▁shromáždí	-10.2071
▁zůstali	-10.2079
▁jimž	-10.2086
vracuj	-10.2089
▁shromažď	-10.2115
▁spálen	-10.2126
▁viz	-10.2132
cházení	-10.2133
▁Jochanan	-10.2133
▁skutkové	-10.2133
▁soužení	-10.2133
▁stvořil	-10.2133
▁útočiště	-10.2133
▁Chíram	-10.2133
▁císař	-10.2133
▁mědi	-10.2133
▁podobná	-10.2133
▁rcete	-10.2133
▁Dobře	-10.2133
▁Poslal	-10.2133
▁žádá	-10.2133
▁pominul	-10.2133
▁vladař	-10.2133
▁slepý	-10.2133
▁uhlí	-10.2133
▁jda	-10.2134
▁Jonáš	-10.2134
▁skále	-10.2134
▁hubil	-10.2134
▁píseň	-10.2136
▁běžel	-10.2137
▁síni	-10.2137
▁ohnivé	-10.2137
▁Amorejského	-10.2138
▁kadil	-10.2138
▁naříkání	-10.2139
▁rolí	-10.2139
▁Jeden	-10.2139
pis	-10.2143
▁nepřátelům	-10.2146
▁mrtvého	-10.2147
▁slz	-10.2149
▁povolav	-10.2149
▁vzavše	-10.215
▁milostiv	-10.2153
▁Izákovi	-10.2157
kopal	-10.2157
▁kohož	-10.2163
▁věku	-10.2163
▁přijdu	-10.2168
▁zkazil	-10.217
▁hladem	-10.2173
▁pomstu	-10.2177
▁zná	-10.2182
▁zlému	-10.2183
▁naplní	-10.2185
▁boha	-10.2186
▁zákoně	-10.2187
važ	-10.2188
dání	-10.2193
▁vážil	-10.2195
▁Sta	-10.222
▁napsal	-10.2222
▁rada	-10.2227
▁okol	-10.2237
nění	-10.2238
▁divné	-10.2243
▁posvěcení	-10.225
▁zemské	-10.2257
▁veselé	-10.2274
kají	-10.2293
▁roztrh	-10.2296
▁kraji	-10.2298
▁činíte	-10.2326
▁Egyptským	-10.2331
▁obyčeje	-10.2344
▁loupeže	-10.2348
▁naň	-10.2355
▁pís	-10.2357
▁východ	-10.2375
▁kamením	-10.238
▁sluncem	-10.2382
▁pozná	-10.2386
▁pln	-10.2392
▁Židů	-10.2402
▁vydán	-10.2411
kami	-10.2412
▁vztáhn	-10.2415
▁silné	-10.2427
▁zavřel	-10.2445
▁Gerson	-10.2446
▁blázen	-10.2446
▁druhou	-10.2446
▁krupobití	-10.2446
▁lásce	-10.2446
▁náramenník	-10.2446
▁slaviti	-10.2446
▁vojště	-10.2446
▁lokte	-10.2446
▁vykoupil	-10.2446
▁trpěl	-10.2446
▁neučiní	-10.2446
▁svátek	-10.2446
▁střely	-10.2446
▁Všech	-10.2446
▁poslán	-10.2446
▁Pojď	-10.2447
▁jho	-10.2447
▁Obět	-10.2447
▁docela	-10.2447
▁hříšník	-10.2448
▁pokouše	-10.2448
▁rek	-10.2448
▁Mezi	-10.2448
▁Mnoh	-10.2449
▁centnéřů	-10.245
▁semeni	-10.2451
▁neznal	-10.2451
▁pásti	-10.2452
▁jal	-10.2454
▁třikrát	-10.2456
▁hlavou	-10.2456
▁zlou	-10.2457
▁Izraelská	-10.246
▁hoden	-10.246
▁zahrad	-10.2461
▁dlouhost	-10.2461
▁chleby	-10.2461
nesli	-10.2461
▁staré	-10.2465
▁neposlouchali	-10.2465
▁odpoví	-10.2466
▁jednostejn	-10.247
▁zástupové	-10.2471
nésti	-10.2472
▁povede	-10.2482
▁jinému	-10.2484
▁přednější	-10.2489
▁půjdeš	-10.249
▁nadto	-10.2491
▁utvrdil	-10.2501
▁mal	-10.2502
▁čemuž	-10.2505
▁peci	-10.2505
▁Saulova	-10.2507
▁pastýři	-10.2513
věřil	-10.2513
▁Azariáš	-10.2514
▁nasyceni	-10.252
ajíce	-10.2524
▁křídl	-10.2524
▁pohleděl	-10.2538
skému	-10.255
▁padlo	-10.2557
▁sstoupí	-10.2565
don	-10.2565
▁prodal	-10.2575
▁Abych	-10.2586
▁vlas	-10.2595
▁Ela	-10.26
▁kraje	-10.2606
▁ostříhali	-10.2618
▁Báz	-10.2621
▁spasen	-10.2624
▁čisté	-10.2628
lis	-10.2635
▁vycházejí	-10.2646
▁otcem	-10.2646
▁vydám	-10.2648
nášejí	-10.2656
▁dosti	-10.2662
▁mnohý	-10.2675
▁neměli	-10.2675
pustiv	-10.2687
▁andělů	-10.2692
▁odkud	-10.2694
▁poškvrn	-10.2717
áni	-10.2724
▁chtěli	-10.273
▁dnem	-10.2731
▁rovin	-10.2733
▁provaz	-10.2734
▁psán	-10.2738
▁děv	-10.2741
ina	-10.2743
▁shromáždě	-10.2745
▁měděný	-10.2763
▁ostrov	-10.2763
▁cti	-10.2767
▁dvé	-10.2767
▁Galilee	-10.2768
▁Safan	-10.2768
▁mzdu	-10.2768
▁obzvláštně	-10.2768
▁pachole	-10.2768
▁stupňů	-10.2768
▁výklad	-10.2768
▁zvěstoval	-10.2768
▁blesk	-10.2768
bloudil	-10.2768
▁bojovní	-10.2768
▁Pověz	-10.2768
▁láska	-10.2768
pívejte	-10.2768
▁kterýmiž	-10.2768
▁pěkn	-10.2768
▁snížen	-10.2768
▁svatí	-10.2769
▁zpěv	-10.2769
padá	-10.2769
▁rád	-10.2769
▁vyšlo	-10.2769
páliti	-10.277
▁Joram	-10.277
▁seděti	-10.277
▁Mardocheus	-10.2771
▁zadělané	-10.2771
▁dolů	-10.2771
▁silou	-10.2771
▁nebývá	-10.2773
▁sestra	-10.2775
▁nešlechetný	-10.2775
▁Jeruzalémských	-10.2776
▁bílého	-10.2777
▁hlavě	-10.2778
▁odděl	-10.2778
▁bezbožného	-10.2779
▁svědomí	-10.2781
▁královském	-10.2782
jímá	-10.2784
praví	-10.2784
▁vypravuj	-10.2785
▁doufání	-10.2794
▁tma	-10.2796
▁zlých	-10.2797
▁vojsku	-10.28
▁neboj	-10.2801
▁hejtmané	-10.2814
▁jděte	-10.2814
▁obrazu	-10.2815
▁potřebí	-10.2816
▁utíkali	-10.282
▁úzkosti	-10.2827
▁Duchem	-10.2829
▁uvede	-10.2836
dělal	-10.2837
▁honili	-10.284
▁mysl	-10.2847
▁Jed	-10.2854
ben	-10.2865
▁svrchk	-10.2867
▁tvýma	-10.288
skými	-10.2886
▁sedmý	-10.2899
▁dobrým	-10.2903
tví	-10.2907
▁Duchu	-10.2907
▁víš	-10.2921
▁nesli	-10.2923
▁modlí	-10.2928
▁žádosti	-10.2941
▁dávali	-10.2943
▁nebes	-10.2952
▁dveřím	-10.2957
▁rozp	-10.2959
▁spravedlivé	-10.297
▁kteřížto	-10.2996
pravil	-10.3002
▁jakou	-10.3016
▁Betlém	-10.3024
▁řemesl	-10.3026
▁uslyšeli	-10.3043
▁Udělá	-10.3065
▁zemský	-10.3066
▁ostříhej	-10.3073
▁roční	-10.3078
▁úd	-10.3094
▁Jesua	-10.3102
▁aspoň	-10.3102
▁církve	-10.3102
▁působí	-10.3102
▁rozhněvání	-10.3102
▁rozmnožil	-10.3102
▁skutku	-10.3102
▁stříbrné	-10.3102
▁zahladil	-10.3102
▁blahoslaven	-10.3102
▁nezůstal	-10.3102
▁vypléněn	-10.3102
▁zeměplaz	-10.3102
▁zžíře	-10.3102
▁řetěz	-10.3102
▁matce	-10.3102
▁Abiatar	-10.3102
▁Jefte	-10.3102
▁tajně	-10.3102
▁neuzří	-10.3102
▁Nun	-10.3102
▁Kníže	-10.3102
▁šíji	-10.3102
▁umříti	-10.3102
▁vonných	-10.3102
▁svatá	-10.3102
▁ovec	-10.3102
▁nečiní	-10.3102
▁smiluj	-10.3102
▁vládl	-10.3102
▁nesnadn	-10.3102
▁bázeň	-10.3103
▁ďábelství	-10.3103
▁říkal	-10.3104
svěť	-10.3105
▁Bez	-10.3105
▁Jiné	-10.3108
▁pomazání	-10.311
▁síňce	-10.3116
▁udatných	-10.3119
tiž	-10.312
▁žádnému	-10.3121
táhne	-10.3121
▁dým	-10.3122
▁nového	-10.3125
▁výsostí	-10.3126
▁hřešili	-10.3142
▁kříž	-10.3144
▁světle	-10.3152
▁káže	-10.3156
▁přítomnost	-10.3157
▁bedra	-10.3163
▁Odpověděli	-10.3165
▁pozdrav	-10.317
▁rtů	-10.3171
▁živých	-10.3174
▁pohrdá	-10.3176
▁shromáždím	-10.3176
▁Vzal	-10.3176
níků	-10.3177
▁vašemu	-10.3188
▁Joakim	-10.3191
▁skal	-10.3195
▁zápaly	-10.3202
▁Buď	-10.3205
▁Egyptského	-10.3206
▁zahanbeni	-10.3212
▁ustanoveních	-10.3215
▁patří	-10.3227
▁polí	-10.3236
▁mlad	-10.3246
▁Poďte	-10.325
▁slovem	-10.3264
psal	-10.329
▁korunu	-10.3306
věděl	-10.3312
▁ponese	-10.3315
▁sít	-10.3316
tali	-10.3317
▁pojav	-10.3323
házejí	-10.3336
▁poškvrnil	-10.3364
▁Pís	-10.3373
▁levo	-10.3382
vážil	-10.3384
▁učedlník	-10.3396
▁králům	-10.3397
▁zachován	-10.3399
▁doma	-10.3411
▁čtvrt	-10.3414
ejští	-10.3416
▁pastýře	-10.3423
tru	-10.3433
▁zhoub	-10.3436
▁předměstím	-10.3439
moc	-10.344
▁cedr	-10.3442
▁škod	-10.3446
▁Barnabáš	-10.3446
▁Pohleď	-10.3446
▁Syrští	-10.3446
▁chvále	-10.3446
▁hřmot	-10.3446
▁poslouchal	-10.3446
▁tajemství	-10.3446
▁vysokost	-10.3446
▁zpéře	-10.3446
5	-10.3446
▁Samařsk	-10.3446
▁Svatý	-10.3446
▁chválí	-10.3446
▁mnohá	-10.3446
▁mrtví	-10.3446
▁trpělivost	-10.3446
▁Banaiáš	-10.3446
▁Judu	-10.3446
▁kozlů	-10.3446
▁krvi	-10.3447
▁běda	-10.3447
▁naplň	-10.3447
▁sluší	-10.3447
▁předěšen	-10.3447
▁rány	-10.3447
▁nevidí	-10.3447
rámě	-10.3447
▁stolice	-10.3447
▁mlč	-10.3447
▁hluk	-10.3447
▁čest	-10.3447
▁takovou	-10.3447
▁kamene	-10.3448
▁Egyptskou	-10.3448
▁obdrží	-10.3448
▁Chananiáš	-10.3448
▁vzkřísil	-10.3449
▁Soba	-10.3449
▁staních	-10.345
▁stranách	-10.345
▁stezky	-10.3452
▁oznámeno	-10.3455
▁nepřišel	-10.3455
ováno	-10.3455
▁dome	-10.3456
▁koni	-10.3456
▁zevnitřní	-10.3457
▁sedmkrát	-10.346
▁cen	-10.346
▁modliti	-10.3461
▁ucho	-10.3465
▁obložil	-10.3465
▁kozla	-10.3467
▁Sar	-10.3467
▁nevím	-10.3468
▁uzdravil	-10.3468
▁uzřeli	-10.3469
▁živa	-10.3475
▁těmito	-10.3477
▁Libánu	-10.3477
▁odplatu	-10.3483
braň	-10.3483
▁propustí	-10.3484
▁amen	-10.3489
dní	-10.349
zvíte	-10.3508
▁zbil	-10.3517
▁Pří	-10.3518
▁Dne	-10.3518
▁doufá	-10.3521
▁rohů	-10.3528
▁kraj	-10.353
▁pánem	-10.3532
▁bohat	-10.3533
pochyb	-10.3533
▁hovado	-10.354
▁mnohými	-10.354
▁noham	-10.3542
▁poškvrnili	-10.3545
▁Het	-10.3552
▁svár	-10.3552
▁zápalu	-10.3559
neste	-10.3563
▁dobrořečil	-10.3568
▁věděli	-10.357
▁Jeroboáma	-10.3578
mlouval	-10.3583
▁lidským	-10.3585
▁předešl	-10.3586
▁vcházeti	-10.36
▁bývali	-10.3624
hni	-10.3625
▁míst	-10.3636
▁tisíci	-10.3649
ejské	-10.3664
▁padesát	-10.3665
▁Elam	-10.3668
▁pustil	-10.3669
▁vidím	-10.3671
▁ratolest	-10.3673
zav	-10.3683
▁všelikém	-10.3683
prost	-10.3689
▁rozkaz	-10.3699
kládal	-10.3707
▁čem	-10.3711
cházeje	-10.3714
jímali	-10.3718
▁pravíš	-10.3728
▁odplat	-10.3731
život	-10.3737
▁spí	-10.3738
▁voda	-10.3757
hned	-10.376
▁šarlat	-10.3766
▁přebýval	-10.3768
▁vln	-10.3769
▁Pod	-10.3774
▁Vím	-10.3775
▁obyvateli	-10.3789
▁Dar	-10.3796
▁úhl	-10.3799
▁Mardoche	-10.3801
▁svícen	-10.3801
▁Bratří	-10.3804
▁Judstva	-10.3804
▁Zhřešil	-10.3804
▁Zlořečený	-10.3804
▁kvíliti	-10.3804
▁některý	-10.3804
▁ostatků	-10.3804
▁truhlou	-10.3804
▁vyzdvihl	-10.3804
▁osmnáct	-10.3804
▁posměch	-10.3804
▁skotů	-10.3804
▁mzdy	-10.3804
▁vládnouti	-10.3804
▁svícn	-10.3804
▁nuzný	-10.3804
▁Uziáš	-10.3804
▁pošlapá	-10.3804
▁zvýší	-10.3804
▁skály	-10.3804
▁Amnon	-10.3804
▁větru	-10.3804
▁choď	-10.3804
▁létě	-10.3804
▁nosil	-10.3804
▁ospravedlněn	-10.3804
▁Sedm	-10.3804
▁ovšem	-10.3804
▁panoval	-10.3805
▁kůže	-10.3805
▁řece	-10.3805
▁Kain	-10.3806
▁silní	-10.3806
▁běh	-10.3806
▁vůně	-10.3807
▁daleké	-10.3807
jav	-10.3808
▁ležení	-10.3809
▁učiněno	-10.3811
▁bojovati	-10.3812
kázáno	-10.3813
▁tele	-10.3813
▁udělali	-10.3814
▁zda	-10.3814
▁zpod	-10.3814
▁Chus	-10.3815
▁vinu	-10.3817
▁královských	-10.3823
▁nešlechetní	-10.3823
litoval	-10.3828
▁trvá	-10.3829
▁ročních	-10.3829
▁zpuštění	-10.383
▁přistoupiv	-10.3831
▁vyšla	-10.3832
▁Davidově	-10.3832
▁Pavla	-10.3833
▁mocný	-10.3835
▁připadl	-10.3836
▁hrobě	-10.3836
▁vyjdou	-10.3839
▁Kor	-10.384
▁měsíců	-10.3841
▁poklonil	-10.3845
▁studnici	-10.3851
▁dobrému	-10.3862
▁opil	-10.3863
▁Es	-10.3867
▁vizte	-10.387
▁zajatý	-10.3872
▁stranu	-10.3873
▁bráti	-10.3881
▁čel	-10.3881
▁počali	-10.389
▁ratolesti	-10.39
▁obřezán	-10.3903
▁hladu	-10.391
▁spadl	-10.392
▁celým	-10.3924
hání	-10.3926
▁odpověd	-10.3931
ěte	-10.3937
cházející	-10.3944
▁vydali	-10.395
▁činění	-10.3971
▁spatřil	-10.3983
▁přenesl	-10.3986
▁zhřešili	-10.3998
pad	-10.4001
▁beran	-10.4002
▁Izáka	-10.4003
▁učinila	-10.401
▁zanechal	-10.401
▁Pozdrav	-10.4014
veden	-10.4059
krá	-10.4059
▁uchýlil	-10.4069
▁Byla	-10.4072
▁malý	-10.4074
▁následov	-10.4079
▁vysvobozen	-10.4086
▁prorokoval	-10.4094
▁ustanovili	-10.4095
▁uvěřil	-10.4107
váží	-10.4112
ějí	-10.4116
▁apoštolů	-10.4122
▁proroku	-10.4124
▁vede	-10.4126
▁podstavk	-10.4132
▁zázrak	-10.4139
▁bezpečn	-10.4159
pouštěl	-10.4161
▁Jeremiáše	-10.4166
▁Sl	-10.4168
▁Chanan	-10.4172
▁Halelu	-10.4174
▁děvečka	-10.4174
▁hřešení	-10.4174
▁kadidlnic	-10.4174
▁kantorů	-10.4174
▁lásku	-10.4174
▁odpočinul	-10.4174
▁očišťování	-10.4174
▁pláště	-10.4174
▁pronárodu	-10.4174
▁proroctví	-10.4174
▁pátého	-10.4174
▁rozmnožen	-10.4174
▁ránu	-10.4174
▁trpěti	-10.4174
▁udatní	-10.4174
▁vzbudil	-10.4174
▁Edom	-10.4174
▁Maaseiáš	-10.4174
▁duchovní	-10.4174
▁hluboko	-10.4174
▁napřed	-10.4174
▁nemohou	-10.4174
▁posměvač	-10.4174
▁Heber	-10.4174
▁dělník	-10.4174
▁pohleď	-10.4174
▁vykonal	-10.4174
▁zpět	-10.4174
▁Sallum	-10.4174
▁promluvil	-10.4174
▁milování	-10.4174
pomáhal	-10.4174
▁milovati	-10.4174
▁říci	-10.4174
▁odsud	-10.4174
▁slituj	-10.4175
▁nevěr	-10.4176
▁zisk	-10.4176
▁odjat	-10.4177
▁pohrdl	-10.4177
▁Byli	-10.4178
▁odešla	-10.4179
▁dobrovolně	-10.4185
▁mlčel	-10.4185
▁upřímnosti	-10.4187
▁nemocen	-10.4187
▁zjevně	-10.4188
▁lůn	-10.4188
▁červce	-10.4189
▁přišly	-10.4192
▁osmého	-10.4193
▁tudy	-10.4195
▁stavení	-10.4195
▁dřevě	-10.4196
▁městům	-10.4199
▁Faraona	-10.4201
▁cherubíny	-10.4204
▁pustinu	-10.4207
▁naučil	-10.4208
▁Absolonovi	-10.4208
▁Kam	-10.4209
▁uvržen	-10.4212
▁krásné	-10.4215
▁setim	-10.422
▁vyšedše	-10.4232
▁Týru	-10.4236
▁nečinili	-10.4237
▁tučn	-10.4241
▁zvolal	-10.4247
nat	-10.4251
▁strážný	-10.4258
▁odkudž	-10.4261
▁andělé	-10.4269
▁věčným	-10.427
▁často	-10.4275
▁pije	-10.4278
▁cíl	-10.4281
jší	-10.4308
▁Pokoj	-10.4317
▁obětmi	-10.4321
▁volám	-10.4323
▁vyvedli	-10.433
▁počn	-10.4337
▁velikých	-10.4339
▁položí	-10.4353
▁přítele	-10.4371
▁nemoci	-10.4382
▁porazili	-10.4387
▁navrátím	-10.4392
▁vojsk	-10.4393
▁Ru	-10.4394
▁bohatý	-10.4402
rok	-10.4413
▁otevřín	-10.4416
▁Šalomouna	-10.4418
▁pozůstali	-10.4421
▁rozděl	-10.4422
▁En	-10.4426
▁vytáhli	-10.4428
▁oblečen	-10.4455
▁obřez	-10.4455
stavěl	-10.4459
▁rozumnost	-10.4468
▁prorokují	-10.4473
▁odstoupil	-10.4488
▁dědic	-10.4502
vši	-10.4502
▁uší	-10.451
▁seděli	-10.4513
▁správc	-10.4514
ňuje	-10.4518
▁noha	-10.4521
▁očištěn	-10.4524
▁odplatí	-10.4527
▁čemu	-10.4528
▁vynesl	-10.4531
▁křič	-10.4532
▁očekává	-10.4535
▁dokud	-10.4536
▁mnohým	-10.4538
▁bezbožné	-10.4546
▁zevnitř	-10.4547
▁dobyt	-10.4547
▁leží	-10.4553
▁Benadad	-10.4559
▁Báruch	-10.4559
▁Idumejský	-10.4559
▁Rámot	-10.4559
▁horlivost	-10.4559
▁kadidla	-10.4559
▁lásky	-10.4559
▁městečka	-10.4559
▁napořád	-10.4559
▁pahrbku	-10.4559
▁předsevzetí	-10.4559
▁sochory	-10.4559
▁uprostřed	-10.4559
▁upřímý	-10.4559
▁věčnou	-10.4559
▁lépe	-10.4559
▁půjdou	-10.4559
▁oblékl	-10.4559
▁pečet	-10.4559
▁pramen	-10.4559
▁protivenství	-10.4559
▁ukáži	-10.4559
▁zpronevěř	-10.4559
▁železné	-10.4559
▁Adoniáš	-10.4559
▁loutn	-10.4559
▁rozsívá	-10.4559
▁zastření	-10.4559
▁pověz	-10.4559
▁bydlení	-10.4559
▁kněžský	-10.4559
▁zkušen	-10.4559
▁Bóz	-10.4559
▁Sára	-10.4559
▁oslaven	-10.4559
▁nechodil	-10.4559
▁obrací	-10.4559
ědouce	-10.4559
▁odění	-10.4561
▁snaž	-10.4561
▁chlubí	-10.4561
▁opatrnost	-10.4562
▁vzíti	-10.4562
▁obuv	-10.4563
▁poddán	-10.4563
▁Babylonskému	-10.4564
▁Blahoslavení	-10.4565
▁vůz	-10.4567
▁zmordoval	-10.4568
▁Znám	-10.4568
▁přestane	-10.4571
▁Odstup	-10.4572
▁komorník	-10.4572
▁horší	-10.4574
▁onoho	-10.4578
▁pohleděv	-10.4579
▁Oči	-10.4579
▁celého	-10.458
▁podobného	-10.4583
▁školy	-10.4584
▁čtvrtý	-10.4588
▁knězem	-10.4591
▁zázraky	-10.4595
▁Ezechiášovi	-10.4596
▁sedmdesáti	-10.4602
▁Nemá	-10.4603
▁vezmeš	-10.4605
▁spoj	-10.4608
▁věčného	-10.4608
▁sežral	-10.4608
▁dobrých	-10.4608
▁Jákobova	-10.461
▁nevíte	-10.4613
▁nebeského	-10.4614
▁drahé	-10.4619
▁ukydaným	-10.4619
▁přikryj	-10.4619
ejský	-10.4628
▁ustal	-10.4633
▁řemeslník	-10.4647
▁zbiti	-10.4647
▁zvěděl	-10.4647
▁sloupy	-10.4648
▁umřeš	-10.465
▁prost	-10.465
▁rozumnosti	-10.4655
▁Achis	-10.4658
▁jdeš	-10.466
▁zbili	-10.4667
▁zlým	-10.4682
▁předních	-10.4687
stupují	-10.4689
▁otázali	-10.4689
▁Mas	-10.4692
▁oblaku	-10.4695
hledejte	-10.4696
▁dostal	-10.4698
áme	-10.4701
▁blázna	-10.4704
▁myslil	-10.4704
▁prorokům	-10.4712
▁vypravovali	-10.4712
▁slavnosti	-10.472
ňte	-10.4723
hodil	-10.4724
▁vztáh	-10.4729
▁rozpomenul	-10.4744
▁Jaký	-10.4755
diž	-10.4757
volej	-10.4764
nad	-10.4771
▁nemám	-10.4805
trhne	-10.4807
▁Jer	-10.4808
▁pláč	-10.4821
▁vaším	-10.4823
char	-10.4824
▁křiv	-10.4826
šly	-10.4831
rej	-10.4831
nů	-10.4846
▁nasycen	-10.4864
▁hrozný	-10.488
▁obětují	-10.4895
▁obětuje	-10.4895
▁Panovní	-10.4899
kládají	-10.4907
▁ustavičn	-10.4926
▁navštív	-10.4933
▁nejmenší	-10.4945
stupovali	-10.4951
▁samo	-10.4958
▁Ezdráš	-10.4959
▁Fínes	-10.4959
▁Kádes	-10.4959
▁Lépe	-10.4959
▁Mesullam	-10.4959
▁Sarvie	-10.4959
▁Támar	-10.4959
▁Vezměte	-10.4959
▁Zorobábel	-10.4959
▁chtěje	-10.4959
▁cizozemců	-10.4959
▁druhá	-10.4959
▁ječmene	-10.4959
▁líbilo	-10.4959
▁navrátiv	-10.4959
▁okršlek	-10.4959
▁plésati	-10.4959
▁plésání	-10.4959
▁pokušení	-10.4959
▁pokřtěn	-10.4959
▁provinění	-10.4959
▁trestati	-10.4959
▁truhly	-10.4959
▁výborný	-10.4959
▁zkřikl	-10.4959
▁čtyřmecítma	-10.4959
▁Řka	-10.4959
čátek	-10.4959
▁Arnon	-10.4959
▁vichřic	-10.4959
▁úklad	-10.4959
▁Budou	-10.4959
▁hřeší	-10.4959
▁menší	-10.4959
▁dceři	-10.4959
▁štěp	-10.4959
▁žalost	-10.4959
▁Abizai	-10.4959
▁dosáhl	-10.4959
▁převrácenost	-10.4959
▁rodiny	-10.4959
▁vypléním	-10.4959
▁kupci	-10.4959
▁blud	-10.4959
▁nastroj	-10.4959
▁vzýval	-10.4959
▁Kteréhož	-10.4959
▁měr	-10.4959
▁obrať	-10.4959
▁čern	-10.4959
▁neznají	-10.4959
▁posilň	-10.4959
▁hodina	-10.496
▁knížetem	-10.496
▁Nic	-10.4961
▁kolena	-10.4961
jah	-10.4962
▁slyšán	-10.4962
▁krajinách	-10.4963
▁Totiž	-10.4963
▁navštívím	-10.4963
▁jistý	-10.4963
▁bíti	-10.4964
stávají	-10.4965
▁nohách	-10.4966
▁propustiti	-10.4967
volal	-10.4967
▁hubí	-10.4969
▁houfích	-10.497
▁viny	-10.497
▁nohám	-10.4971
▁jedním	-10.4972
▁bravů	-10.4974
▁koních	-10.4975
ového	-10.4976
▁památku	-10.4976
▁navštívil	-10.4977
▁stolu	-10.4981
▁Moábských	-10.4984
▁přebývání	-10.4985
▁potravy	-10.4986
▁řekou	-10.4989
▁sloupů	-10.4991
vrže	-10.4996
▁vlasy	-10.5001
▁propasti	-10.5008
▁chcete	-10.5009
▁začal	-10.5017
▁statek	-10.5018
▁ohol	-10.5019
▁lotu	-10.5029
▁vdovy	-10.5033
▁Jozefa	-10.5033
▁uzříte	-10.5036
▁krok	-10.5037
▁nazejtří	-10.5039
▁touž	-10.5045
▁zdělal	-10.5054
▁činíce	-10.5061
nut	-10.5082
▁životě	-10.5082
▁Chas	-10.5088
▁Egyptský	-10.5106
▁věk	-10.5112
▁dáte	-10.5163
▁zač	-10.517
▁naplnila	-10.517
▁časem	-10.5172
▁Helkiáš	-10.5174
▁anděly	-10.5178
▁plakali	-10.5186
▁předním	-10.5229
bije	-10.5233
▁vinic	-10.5242
▁vstoupí	-10.5254
ozích	-10.5258
bývej	-10.5264
▁králova	-10.5279
▁přebývají	-10.528
▁klaněl	-10.528
▁připraven	-10.5281
práv	-10.5289
▁bedr	-10.5296
▁pustin	-10.53
neseš	-10.5313
▁zajat	-10.5314
▁měj	-10.5324
▁zapsán	-10.534
▁nalezne	-10.5346
ženu	-10.5354
ejděte	-10.536
▁zbit	-10.536
jmilejší	-10.5375
třesení	-10.5375
▁Lachis	-10.5375
▁barveného	-10.5375
▁břímě	-10.5375
▁devadesát	-10.5375
▁deště	-10.5375
▁hanbu	-10.5375
▁modlitba	-10.5375
▁nejlepší	-10.5375
▁náprsník	-10.5375
▁otvírá	-10.5375
▁přebývati	-10.5375
▁stříbrná	-10.5375
▁utvrzen	-10.5375
▁vojnu	-10.5375
▁vyprahl	-10.5375
▁čaloun	-10.5375
▁říkaje	-10.5375
▁dveře	-10.5375
▁kulhav	-10.5375
▁mohou	-10.5375
▁rozmohl	-10.5375
▁sukni	-10.5375
▁závist	-10.5375
▁šestnáct	-10.5375
8	-10.5375
▁vyplnil	-10.5375
▁pohřb	-10.5375
▁Assur	-10.5375
▁čtver	-10.5375
▁doufají	-10.5375
▁jasn	-10.5375
▁zahynou	-10.5375
▁Nepři	-10.5375
▁veřeje	-10.5375
▁pryč	-10.5375
▁skálu	-10.5375
▁Jotam	-10.5375
zývati	-10.5376
▁učiti	-10.5376
▁pravě	-10.5376
▁nejedl	-10.5376
▁Joachaz	-10.5376
▁válka	-10.5377
▁tmy	-10.5377
▁žíti	-10.5377
▁výsostech	-10.5379
▁neobřez	-10.5379
▁takových	-10.538
▁smrteln	-10.5381
▁Abel	-10.5383
▁kobylky	-10.5383
▁Libán	-10.5384
▁pravý	-10.5385
▁korábu	-10.5386
▁korouhev	-10.5386
▁hrdlo	-10.5388
▁odejde	-10.5393
▁zjevil	-10.5395
▁Slyšel	-10.5395
▁pij	-10.5402
▁obklíčil	-10.5409
▁posel	-10.541
▁mluvě	-10.5419
▁šarlatu	-10.542
▁stoje	-10.5422
▁právo	-10.5425
▁mějte	-10.5436
líbila	-10.5437
▁Odkudž	-10.5438
▁rohy	-10.5441
▁trestání	-10.5445
▁obořil	-10.5446
▁tukem	-10.5452
▁nějaké	-10.5456
▁Ro	-10.5459
▁celé	-10.5462
kládali	-10.5475
▁práva	-10.5484
▁prorokovali	-10.5494
▁městem	-10.5496
▁bolestí	-10.55
▁příčinu	-10.5511
▁kostí	-10.5516
▁Joziáš	-10.5529
▁běží	-10.5535
▁známosti	-10.5545
▁farizeů	-10.5548
ilně	-10.5555
▁nádoba	-10.5562
▁ušel	-10.5564
▁zmocnil	-10.5569
▁Karmel	-10.5572
▁přitáhn	-10.5572
▁silných	-10.5574
▁Nabuchodonozora	-10.5577
▁meči	-10.5598
▁štíp	-10.5598
▁byvše	-10.5609
▁nevin	-10.561
▁Žád	-10.5617
▁síti	-10.5617
▁hn	-10.5619
▁protiví	-10.5619
▁Jeroboámov	-10.563
▁vyznáva	-10.5635
▁rozumný	-10.5648
▁brali	-10.5659
▁radil	-10.566
▁chudým	-10.5661
ány	-10.5676
dávají	-10.5677
▁pásl	-10.5682
▁cizolož	-10.5685
▁ustanovením	-10.5725
▁pohr	-10.5729
▁vedli	-10.573
▁potupu	-10.5733
▁Mouřenín	-10.574
mén	-10.5752
▁cherubín	-10.5755
▁zahanb	-10.5763
▁honil	-10.578
▁starý	-10.5787
lasů	-10.5789
▁skop	-10.5796
▁uče	-10.5797
▁Všemohoucí	-10.5797
pomínej	-10.5804
▁břemen	-10.5805
▁Jericha	-10.581
▁Joiada	-10.581
▁brána	-10.581
▁chválil	-10.581
▁chváliti	-10.581
▁dvamecítma	-10.581
▁hrnčíř	-10.581
▁kadidlo	-10.581
▁kněžství	-10.581
▁požehnaný	-10.581
▁přinášeli	-10.581
▁slitování	-10.581
▁soused	-10.581
▁užívá	-10.581
▁věčnost	-10.581
▁zmužile	-10.581
▁Akaron	-10.581
▁Fereze	-10.581
▁Hazael	-10.581
▁Jerichu	-10.581
▁Učinil	-10.581
▁naklonil	-10.581
▁orlice	-10.581
▁třináct	-10.581
▁zhynul	-10.581
▁železo	-10.581
▁Jábes	-10.581
▁panny	-10.581
▁vzdálen	-10.581
▁mořský	-10.581
▁plášť	-10.581
▁povědíno	-10.581
▁Machir	-10.581
▁pátý	-10.581
▁zrušil	-10.581
▁nevejde	-10.581
▁neřekl	-10.581
▁pojednou	-10.581
▁prudk	-10.581
▁hyne	-10.581
▁zavřín	-10.581
▁hodiny	-10.581
▁hynou	-10.581
▁sebrali	-10.581
▁klásti	-10.581
▁miluji	-10.581
▁Šest	-10.581
▁pohnul	-10.581
▁povstane	-10.581
▁Mer	-10.581
▁zkusil	-10.581
▁dětí	-10.581
▁koupil	-10.581
▁Jiní	-10.5811
▁metali	-10.5811
▁hleděl	-10.5811
▁ostrost	-10.5811
▁rozkázaní	-10.5812
▁taková	-10.5812
▁Cýr	-10.5812
▁příchod	-10.5812
▁ulice	-10.5813
▁kameni	-10.5813
▁Písmo	-10.5813
▁oslavovati	-10.5815
▁Abiáš	-10.5815
▁končinách	-10.5817
▁svíce	-10.5819
▁chlebem	-10.582
▁umyje	-10.5822
▁moudrého	-10.5822
▁modlám	-10.5823
▁trápil	-10.5824
▁podstavků	-10.5824
▁řečeno	-10.5825
▁mladého	-10.5825
▁Jeruzalémští	-10.5827
bíral	-10.5827
▁Noémi	-10.5829
▁znáti	-10.5829
▁odpuštění	-10.5832
▁volání	-10.5832
▁šetř	-10.5834
▁hodné	-10.5834
▁běl	-10.5836
▁nemocné	-10.5837
▁připojen	-10.5838
▁zapomenul	-10.5839
▁jisté	-10.5841
lnice	-10.5844
▁znáš	-10.5846
▁podstavky	-10.5851
▁Maach	-10.5855
▁směle	-10.5856
▁dobrotivost	-10.5864
▁Joábovi	-10.5869
▁obětování	-10.5872
▁líbosti	-10.5881
▁oddělil	-10.5897
▁hněvem	-10.5897
▁svatému	-10.5901
▁Hel	-10.5904
▁Ziz	-10.5904
▁Ef	-10.5908
▁hříchové	-10.5909
▁Betléma	-10.5912
▁přebývající	-10.5914
▁Aronem	-10.5915
▁hojné	-10.5928
▁nádobu	-10.5929
▁háje	-10.5937
▁stan	-10.5938
▁hejtmany	-10.5942
▁pastýř	-10.5946
▁vyzná	-10.5949
▁přitáhne	-10.595
▁jinou	-10.5954
▁pozoruj	-10.5954
▁oznámím	-10.596
▁Mám	-10.5967
▁souzen	-10.598
▁Šimona	-10.5996
▁hrozné	-10.6001
▁Pozdravte	-10.6002
▁zrostl	-10.6007
▁ptá	-10.6008
▁vstupuje	-10.6012
▁královský	-10.6012
▁očekával	-10.6017
▁drahý	-10.6018
▁královským	-10.6034
▁odvrátí	-10.6042
▁nějak	-10.6045
▁obráceni	-10.6045
statek	-10.6047
▁útržk	-10.6061
▁smilní	-10.6063
ících	-10.6065
▁vloží	-10.6085
▁volá	-10.6087
▁odejm	-10.6097
čež	-10.61
▁pták	-10.6109
▁známé	-10.612
▁vzácn	-10.6122
▁vůl	-10.6139
▁učiníme	-10.6141
▁položen	-10.6167
káže	-10.6171
▁kterou	-10.6183
dávej	-10.6185
▁osly	-10.6188
▁nevěděl	-10.6191
▁nečistot	-10.6191
jděte	-10.6199
▁Hospodinovou	-10.6205
▁sstupují	-10.6209
stě	-10.622
▁dvo	-10.6223
▁zpuštěn	-10.623
▁udatný	-10.6241
▁Achi	-10.6252
▁bílé	-10.6252
▁hříšn	-10.6262
krývá	-10.6263
apomíná	-10.6264
▁Filistinská	-10.6265
▁Fáres	-10.6265
▁Jezábel	-10.6265
▁Jidáš	-10.6265
▁Micheáš	-10.6265
▁Nábot	-10.6265
▁bloudí	-10.6265
▁chvíle	-10.6265
▁jitřní	-10.6265
▁mateři	-10.6265
▁nazpět	-10.6265
▁nebezpečenství	-10.6265
▁nenáviděl	-10.6265
▁nezemřeli	-10.6265
▁nečistá	-10.6265
▁obydlí	-10.6265
▁plavili	-10.6265
▁pšenice	-10.6265
▁skutcích	-10.6265
▁starodávní	-10.6265
▁ukřižován	-10.6265
▁vyhledávati	-10.6265
▁vyhlásí	-10.6265
▁větrem	-10.6265
▁zvláště	-10.6265
▁zámutek	-10.6265
▁Čím	-10.6265
▁Levítsk	-10.6265
▁Rechab	-10.6265
▁ponížil	-10.6265
▁příklad	-10.6265
▁skutek	-10.6265
▁spokojující	-10.6265
▁Srdce	-10.6265
▁oklamá	-10.6265
▁zrodil	-10.6265
▁učiniv	-10.6265
▁pusté	-10.6265
▁robot	-10.6265
▁utíká	-10.6265
▁Susan	-10.6265
▁věži	-10.6265
▁chodě	-10.6265
▁tentýž	-10.6265
▁lítosti	-10.6265
▁rozpálen	-10.6265
▁vesnic	-10.6265
▁vinen	-10.6265
▁svlaž	-10.6265
▁zamordovali	-10.6265
▁povstav	-10.6265
▁ulici	-10.6265
▁dobrou	-10.6265
▁chci	-10.6267
▁snop	-10.6267
▁Cis	-10.6267
▁úpění	-10.6268
▁oslavuj	-10.6269
▁oblehl	-10.6269
▁uslyšavše	-10.6269
▁Arab	-10.627
▁domové	-10.6273
▁Achiáš	-10.6275
▁vypravovati	-10.6275
▁děsi	-10.6275
beřte	-10.6275
▁rovně	-10.6278
▁volové	-10.628
▁rodech	-10.628
národech	-10.6281
jedn	-10.6281
▁nařízení	-10.6289
▁rybník	-10.6289
▁potření	-10.6291
▁vstavše	-10.6293
▁Judou	-10.6297
▁prvotiny	-10.6299
▁ostříhejte	-10.6304
▁levé	-10.6304
▁drž	-10.6304
▁vývoda	-10.6307
▁lest	-10.6313
▁provazy	-10.6314
▁Vstup	-10.632
▁soboty	-10.6324
▁Samuelovi	-10.6327
▁posledních	-10.6329
▁ryby	-10.6331
▁Nebudeť	-10.6335
▁soudové	-10.6336
▁Egyptskému	-10.634
▁Žena	-10.6342
▁přiveden	-10.6344
▁jakého	-10.6345
▁nalezeno	-10.6346
urim	-10.6348
▁Proti	-10.635
▁Filistinskými	-10.6352
▁vodě	-10.6353
▁vidíš	-10.6357
▁knížeti	-10.6362
▁dítěte	-10.6383
▁uveden	-10.6389
▁Mé	-10.639
▁sečteni	-10.642
▁neviděli	-10.642
▁dvadcítilet	-10.6423
▁vydávají	-10.6425
▁nalezena	-10.6442
▁neumřel	-10.646
▁našimi	-10.646
▁ležící	-10.6467
hladím	-10.6489
▁nápoj	-10.6491
pověděl	-10.6499
▁Nebojte	-10.6515
▁Chel	-10.6522
▁jedí	-10.6525
olek	-10.6527
▁svrch	-10.6559
▁zjevení	-10.6563
▁Madian	-10.6569
▁pověděli	-10.6576
▁háj	-10.6605
▁výsost	-10.6607
▁Které	-10.6623
▁tesa	-10.6625
▁mrtvým	-10.6625
ázán	-10.6632
▁nepřišl	-10.6636
▁potře	-10.6666
hromáždil	-10.6666
T	-10.6674
bývají	-10.6674
jenž	-10.6675
tský	-10.6688
▁kterého	-10.6695
▁Davidem	-10.6696
▁počten	-10.6697
▁prvotin	-10.6706
achat	-10.6722
▁Nejvyšší	-10.6728
▁moudré	-10.6728
▁potřel	-10.6728
▁stavěl	-10.6729
▁ctí	-10.6729
▁kment	-10.6732
▁žízni	-10.6736
▁Sarai	-10.6741
▁zbořen	-10.6741
yslýchej	-10.6741
▁Judská	-10.6741
▁Ostříhej	-10.6741
▁Služebník	-10.6741
▁bázni	-10.6741
▁břicho	-10.6741
▁dokavad	-10.6741
▁hřbet	-10.6741
▁jeskyně	-10.6741
▁jsuc	-10.6741
▁lehkost	-10.6741
▁mládenec	-10.6741
▁modlitby	-10.6741
▁mokré	-10.6741
▁mrtvá	-10.6741
▁mrzkost	-10.6741
▁neduh	-10.6741
▁neužitečn	-10.6741
▁noční	-10.6741
▁prozpěvovati	-10.6741
▁přísahu	-10.6741
▁rouhání	-10.6741
▁skonání	-10.6741
▁služebnice	-10.6741
▁sváteční	-10.6741
▁svědek	-10.6741
▁svědkové	-10.6741
▁výmluvnost	-10.6741
▁zdraví	-10.6741
▁zvěstuje	-10.6741
▁úhony	-10.6741
▁mlékem	-10.6741
▁popléněn	-10.6741
▁starců	-10.6741
▁vykoupen	-10.6741
▁výplat	-10.6741
▁zpěváku	-10.6741
▁Itamar	-10.6741
▁pamatuj	-10.6741
▁náhle	-10.6741
▁statku	-10.6741
▁někoho	-10.6741
▁strdí	-10.6741
▁činitel	-10.6741
▁Anatot	-10.6741
▁Chvalte	-10.6741
chlub	-10.6741
▁slavil	-10.6741
▁příliš	-10.6741
▁pojedl	-10.6741
okázal	-10.6741
▁zlořečenství	-10.6741
▁sečtl	-10.6741
strašil	-10.6741
▁Joach	-10.6742
▁Azor	-10.6742
▁hrud	-10.6742
▁nepohnu	-10.6743
▁obnaž	-10.6743
▁prsy	-10.6743
▁volků	-10.6744
▁nedostatku	-10.6744
▁loup	-10.6744
▁pošle	-10.6745
▁snách	-10.6745
▁pojď	-10.6746
▁hadač	-10.6746
▁lože	-10.6748
▁hin	-10.6749
▁Dcer	-10.6749
▁nepřijde	-10.6749
bráni	-10.6751
▁zabitého	-10.6756
▁lampy	-10.6757
▁pokojných	-10.676
konati	-10.676
▁Nevy	-10.6764
▁stvoření	-10.6765
▁Tři	-10.6766
▁svolav	-10.6767
▁pokojík	-10.6771
▁hněviv	-10.6773
▁oltářem	-10.6773
▁šlo	-10.6774
▁slýchali	-10.6776
▁lva	-10.6777
vedeš	-10.6777
▁osmdesáte	-10.678
▁očekávají	-10.6782
▁držeti	-10.6782
dávejte	-10.6789
vezl	-10.6794
▁opustí	-10.6803
▁ptactva	-10.6804
▁směl	-10.6808
▁Zákoně	-10.6813
▁odpusť	-10.6813
▁kladl	-10.6814
▁Joel	-10.6814
▁cizích	-10.6815
▁poct	-10.6819
▁Bálovi	-10.682
▁pláče	-10.6825
užil	-10.6833
▁mrtvý	-10.6834
tírá	-10.684
▁všelikému	-10.6841
▁druhých	-10.685
▁zabití	-10.6861
▁zmordovali	-10.6862
▁nemělo	-10.6872
▁pohanům	-10.6878
▁Sef	-10.6879
▁nevěřící	-10.6883
slyšel	-10.6886
▁Madianské	-10.6895
▁Meč	-10.6898
metal	-10.69
▁moudrostí	-10.6908
▁popatř	-10.6917
▁dělali	-10.6919
▁Ezechiáše	-10.6924
▁milí	-10.6932
hlédl	-10.6953
▁nový	-10.6953
rozený	-10.696
▁milostí	-10.6974
▁dejte	-10.6978
říti	-10.6991
▁nápoje	-10.6997
▁rozdělí	-10.7002
▁poklon	-10.7004
▁velbloud	-10.7008
▁Siona	-10.7009
▁pozor	-10.7044
ufa	-10.7045
▁vyhladí	-10.7059
čení	-10.706
▁nepravostí	-10.7075
▁díti	-10.7077
kazuje	-10.7078
▁udělán	-10.7081
plodil	-10.7095
▁smlouva	-10.7101
▁zdvihl	-10.7107
▁slavné	-10.711
▁rychl	-10.7119
▁živý	-10.712
zejtří	-10.714
▁která	-10.7152
▁pec	-10.7186
▁Moábský	-10.7191
▁lov	-10.72
▁neznám	-10.7206
▁potrav	-10.721
▁služební	-10.7214
▁čiň	-10.7217
cházejíce	-10.7218
▁širok	-10.7223
▁příbyt	-10.7226
▁upřímé	-10.7228
▁Obrát	-10.7231
▁uslyšav	-10.7237
dcátého	-10.7237
třásl	-10.724
▁Ger	-10.7241
▁Ezron	-10.7241
▁Fáze	-10.7241
▁Kaldejských	-10.7241
▁Natanael	-10.7241
▁Netaniáš	-10.7241
▁Nádab	-10.7241
▁Obededom	-10.7241
▁Shromažď	-10.7241
▁církev	-10.7241
▁církví	-10.7241
▁grunt	-10.7241
▁kopyt	-10.7241
▁posílám	-10.7241
▁sformoval	-10.7241
▁upevněn	-10.7241
▁vysokých	-10.7241
▁výpověd	-10.7241
▁všemohoucí	-10.7241
▁zamiloval	-10.7241
▁zhůru	-10.7241
▁úředníci	-10.7241
▁Židovské	-10.7241
6	-10.7241
▁Agar	-10.7241
▁Nebudou	-10.7241
▁jezdci	-10.7241
▁pustá	-10.7241
▁rouhal	-10.7241
▁spálí	-10.7241
▁sžíře	-10.7241
▁utíkati	-10.7241
▁Nebudu	-10.7241
▁spasitel	-10.7241
▁Achikam	-10.7241
▁přistupovati	-10.7241
▁vstana	-10.7241
▁vyjití	-10.7241
▁vysuš	-10.7241
▁zákoníků	-10.7241
▁lůže	-10.7241
▁stromoví	-10.7241
▁strýc	-10.7241
▁dávno	-10.7241
▁Medle	-10.7241
▁pádu	-10.7241
▁utěšen	-10.7241
tlouk	-10.7241
▁Měst	-10.7241
▁teprv	-10.7241
▁konci	-10.7241
▁Vizte	-10.7241
▁kvílí	-10.7241
▁obnov	-10.7242
▁věřili	-10.7242
▁Velik	-10.7242
▁ujal	-10.7242
▁strachu	-10.7242
▁Saraiáš	-10.7242
▁bedrách	-10.7243
▁svaz	-10.7244
▁manželkou	-10.7244
▁zavře	-10.7244
▁dvadcátého	-10.7245
▁desátého	-10.7245
▁Enoch	-10.7245
▁přesnic	-10.7246
▁vystaven	-10.7247
▁Jehož	-10.7247
▁nedopustil	-10.7247
▁svázal	-10.7247
▁dobytky	-10.7247
▁děvku	-10.7247
▁nejsi	-10.7248
▁přídržel	-10.7248
▁pres	-10.7249
▁vejdou	-10.7249
▁vinař	-10.725
áhl	-10.725
▁roztáhl	-10.7252
▁Slova	-10.7252
▁spas	-10.7252
▁ctíti	-10.7253
▁vězně	-10.7254
▁uváz	-10.7255
▁kusy	-10.7255
▁šíř	-10.7256
▁protivil	-10.7256
▁příval	-10.7257
▁novou	-10.7258
▁příchozímu	-10.7259
▁míru	-10.726
▁Her	-10.726
▁přisluhovali	-10.7261
▁částky	-10.7261
▁obracení	-10.7263
▁rytiny	-10.7265
▁pokut	-10.7267
▁vonné	-10.7269
▁skr	-10.7271
▁odsouzení	-10.7276
▁půjdeme	-10.7277
▁vyvedu	-10.7277
▁nemil	-10.7279
▁míra	-10.7279
▁nečistoty	-10.728
▁přijme	-10.7282
▁přivodil	-10.7285
▁dálo	-10.729
ozel	-10.729
▁choval	-10.7292
▁houn	-10.7296
▁osadil	-10.7297
▁slyšení	-10.7299
▁slyšíce	-10.7299
šedši	-10.73
▁hák	-10.7304
▁moudrých	-10.7311
▁hořkosti	-10.7313
▁dědi	-10.7315
▁uzříš	-10.7317
▁nejprve	-10.7321
▁bezbožníka	-10.7322
▁Petrovi	-10.7323
▁pláčem	-10.7327
▁osoby	-10.733
▁páchali	-10.7333
beru	-10.7334
▁díle	-10.7334
▁šestý	-10.7339
▁stavěli	-10.7343
▁nevěděli	-10.7348
▁Ammonitským	-10.7348
▁způsobu	-10.7354
rovná	-10.7361
▁naplnilo	-10.7363
byste	-10.7369
▁šetřil	-10.7386
▁rodu	-10.7392
▁sstupující	-10.7392
▁otevřené	-10.7393
▁spaseni	-10.7394
▁hlav	-10.7396
▁hejtmanu	-10.7407
▁bláznů	-10.7409
▁Mojžíšova	-10.7411
▁hotovi	-10.7413
▁učiňte	-10.7416
▁jídal	-10.7416
▁drah	-10.7419
▁bylinu	-10.7427
▁křivd	-10.7432
▁vinn	-10.7435
▁klín	-10.7438
▁časů	-10.7441
▁velbloudů	-10.7443
ložte	-10.7443
▁darů	-10.7466
cké	-10.747
▁nebojte	-10.7474
▁Rad	-10.7476
píše	-10.7478
▁Kristova	-10.7486
▁nov	-10.7488
javše	-10.7491
▁Syrským	-10.7493
▁Jez	-10.7505
prv	-10.751
▁ohrad	-10.751
▁Navrať	-10.7528
díž	-10.7533
▁hojný	-10.7558
letých	-10.7587
pálil	-10.7592
▁nevěd	-10.7606
▁Cham	-10.7607
▁smiln	-10.7609
▁úzkost	-10.7637
▁Pozdvih	-10.7668
▁oddělen	-10.7668
▁Godoliáš	-10.7669
▁páchal	-10.7671
▁dokonalý	-10.7673
▁trestán	-10.7679
J	-10.77
▁nechá	-10.7703
▁Filistinským	-10.7714
▁rovn	-10.7714
▁vzdělám	-10.7714
▁spojen	-10.7724
▁osmdesát	-10.7724
béře	-10.7729
rmoutil	-10.7732
▁škol	-10.7734
▁Vstav	-10.775
▁dobrovoln	-10.7752
▁vezmou	-10.7756
▁ohavn	-10.7763
▁pořád	-10.7763
▁maličký	-10.7767
svěcuje	-10.7767
▁Abdiáš	-10.7767
▁Břímě	-10.7767
▁Kterouž	-10.7767
▁Náchor	-10.7767
▁Služebníci	-10.7767
▁chtíti	-10.7767
▁církvi	-10.7767
▁hospodář	-10.7767
▁jablk	-10.7767
▁jeskyni	-10.7767
▁knihách	-10.7767
▁královští	-10.7767
▁modlitbě	-10.7767
▁musejí	-10.7767
▁navrátiti	-10.7767
▁nezahynul	-10.7767
▁ohlašuj	-10.7767
▁okršlku	-10.7767
▁ostatní	-10.7767
▁oznámiti	-10.7767
▁porodu	-10.7767
▁poslouchej	-10.7767
▁přepásaní	-10.7767
▁příbuzný	-10.7767
▁různic	-10.7767
▁slitovnici	-10.7767
▁svědčí	-10.7767
▁vysvoboď	-10.7767
▁zalíbilo	-10.7767
▁zatvrdil	-10.7767
0	-10.7767
▁Lepší	-10.7767
▁hříšníci	-10.7767
▁obtížen	-10.7767
▁rouchu	-10.7767
▁stůj	-10.7767
▁zpěváci	-10.7767
▁Faraonova	-10.7767
▁neplodn	-10.7767
▁neslyší	-10.7767
▁porodí	-10.7767
▁Eden	-10.7767
▁nakloň	-10.7767
▁plakati	-10.7767
▁porážk	-10.7767
▁dělají	-10.7767
▁moudří	-10.7767
▁levici	-10.7767
▁šaty	-10.7767
▁poslové	-10.7767
▁Duše	-10.7767
▁Teman	-10.7767
▁nazývá	-10.7767
pásal	-10.7767
▁vyšší	-10.7768
▁nejste	-10.7768
▁Beri	-10.7768
▁napsan	-10.7768
▁uteče	-10.7768
▁milého	-10.7768
▁převrácený	-10.7768
▁příbytkem	-10.7768
▁školách	-10.7769
▁koláč	-10.7769
▁nevzal	-10.7769
▁samému	-10.777
▁devátého	-10.777
kázání	-10.7771
▁skopci	-10.7771
▁panují	-10.7771
▁tajné	-10.7771
▁sestru	-10.7772
▁rozpálil	-10.7773
▁břemene	-10.7773
▁rozkáže	-10.7774
▁Sionské	-10.7774
▁zadu	-10.7776
▁troubiti	-10.7777
▁potop	-10.7777
▁zanechá	-10.7778
rozené	-10.7778
▁silnému	-10.7779
▁cherubínů	-10.7782
▁sšikoval	-10.7782
▁Miluj	-10.7784
▁uložené	-10.7784
yleji	-10.7785
▁přímé	-10.7785
▁prsten	-10.7785
▁darmo	-10.7785
▁náleží	-10.7787
▁rozbil	-10.7788
▁napsáno	-10.7789
▁sprostn	-10.779
sazen	-10.779
▁ustavičnou	-10.7791
▁zálohy	-10.7791
▁drahého	-10.7791
▁Set	-10.7792
▁vzbudím	-10.7793
▁ukazuje	-10.7793
▁podíl	-10.7794
▁popouzeli	-10.7796
▁rozptýlím	-10.7796
▁zuby	-10.7799
▁pověděv	-10.78
▁ustavěl	-10.7801
▁každou	-10.7803
▁roce	-10.7803
lehl	-10.7803
▁dokonání	-10.7805
▁Danielovi	-10.7805
▁Dnes	-10.7808
▁přestoupil	-10.7811
stihl	-10.7812
▁děvka	-10.7812
▁změnil	-10.7814
▁oslice	-10.7818
▁Janovi	-10.7818
▁Pavlovi	-10.7819
▁vejdete	-10.7821
▁roviny	-10.7825
▁zahrady	-10.7826
▁Jaké	-10.783
▁shromažďuje	-10.7835
▁pálil	-10.7837
▁losem	-10.7837
zůstanou	-10.7839
▁plodu	-10.7848
▁postavím	-10.7849
▁toul	-10.7852
▁plodil	-10.7857
▁svolal	-10.7858
▁volají	-10.7862
▁Tamna	-10.7864
▁vypustil	-10.7869
▁cele	-10.7872
▁táhne	-10.7872
íseň	-10.7874
▁vrchní	-10.7877
▁lidská	-10.7884
▁tělu	-10.789
▁Každé	-10.7894
▁obětuj	-10.7895
▁vidíte	-10.7906
▁potěšil	-10.7911
▁pás	-10.7914
▁Judo	-10.7917
▁díky	-10.7917
▁stromu	-10.794
▁Bylo	-10.7952
▁založil	-10.7955
zdvihněte	-10.7961
▁přikrytí	-10.7962
▁bezbožník	-10.7968
▁ocel	-10.7979
znávám	-10.7997
▁odín	-10.7999
▁Navraťte	-10.8012
vadlo	-10.8112
▁ochotně	-10.8116
povědí	-10.8125
děláš	-10.8157
▁nevěří	-10.816
mění	-10.8163
▁poznán	-10.8191
bití	-10.8194
▁Sil	-10.8205
▁nemůž	-10.8208
▁slušn	-10.8208
▁nečinil	-10.8227
▁ukydan	-10.8236
stavili	-10.8245
▁potěšen	-10.8251
▁kadí	-10.8256
▁Libánské	-10.826
hnán	-10.8271
▁západ	-10.8275
▁oslic	-10.8284
čistil	-10.8307
▁bitv	-10.8308
▁Babylonské	-10.831
▁poruč	-10.8321
▁vládař	-10.8321
volati	-10.8322
▁Ammonitští	-10.8323
▁Kariatjeharim	-10.8323
▁Mnozí	-10.8323
▁Míkol	-10.8323
▁Odpovídaj	-10.8323
▁Věrou	-10.8323
▁blýskání	-10.8323
▁chloub	-10.8323
▁dlouhé	-10.8323
▁dosavad	-10.8323
▁efod	-10.8323
▁hlubin	-10.8323
▁hříších	-10.8323
▁královna	-10.8323
▁královskou	-10.8323
▁mokrou	-10.8323
▁neostříhal	-10.8323
▁oplývající	-10.8323
▁ostatkové	-10.8323
▁ostatky	-10.8323
▁podměstí	-10.8323
▁pohoršení	-10.8323
▁porušení	-10.8323
▁propuštěn	-10.8323
▁reptal	-10.8323
▁rozptýlil	-10.8323
▁styděti	-10.8323
▁vezměte	-10.8323
▁vysvoboditel	-10.8323
▁zvěstovati	-10.8323
▁čtyřidcíti	-10.8323
▁ďáblů	-10.8323
▁Remmon	-10.8323
▁bedliv	-10.8323
▁chvíli	-10.8323
▁hloup	-10.8323
▁ledví	-10.8323
▁nesčísln	-10.8323
▁opanoval	-10.8323
▁pancíř	-10.8323
▁poslušn	-10.8323
▁pravdomluvn	-10.8323
▁služte	-10.8323
kládati	-10.8323
▁Jehoram	-10.8323
▁Náman	-10.8323
▁hleděti	-10.8323
▁nalézá	-10.8323
▁obcování	-10.8323
▁společn	-10.8323
▁zapálí	-10.8323
▁Tobiáš	-10.8323
▁podobni	-10.8323
▁utíkají	-10.8323
▁vozové	-10.8323
▁chlubiti	-10.8323
▁tráva	-10.8323
▁počínal	-10.8323
▁starci	-10.8323
▁vínem	-10.8323
▁ryzí	-10.8323
▁ocas	-10.8323
▁Manue	-10.8323
▁mzda	-10.8323
▁nasytí	-10.8323
▁ložci	-10.8323
▁padna	-10.8323
▁desk	-10.8323
tresci	-10.8323
▁plačí	-10.8323
▁vládn	-10.8323
▁koží	-10.8323
▁obýval	-10.8323
▁šíje	-10.8323
chýlí	-10.8323
▁nepřijal	-10.8323
▁Melch	-10.8323
▁telat	-10.8323
▁Podobn	-10.8323
▁pýchu	-10.8323
▁dobrá	-10.8323
▁vezmu	-10.8323
▁lakomství	-10.8323
▁umírá	-10.8323
▁plece	-10.8324
▁pravá	-10.8324
▁hrst	-10.8324
▁stolem	-10.8324
▁násilník	-10.8324
▁Amri	-10.8325
▁šelmy	-10.8326
▁ustanoví	-10.8326
▁ptáci	-10.8327
▁chut	-10.8327
▁dějí	-10.8327
▁dobytče	-10.8327
▁sníh	-10.8327
▁suchý	-10.8328
hlaď	-10.8328
▁Boj	-10.8328
▁setření	-10.8328
▁Spravedlivý	-10.8329
▁Měj	-10.8329
▁Sab	-10.833
▁přistoupivše	-10.8331
▁hořící	-10.8331
▁Sochot	-10.8331
▁vnitřku	-10.8332
▁radovati	-10.8333
▁vzavši	-10.8334
▁nuzného	-10.8335
▁rosa	-10.8335
▁síní	-10.8337
▁boku	-10.8338
▁zůstával	-10.834
▁narození	-10.8342
▁Sáb	-10.8343
▁prahu	-10.8346
▁přikrývá	-10.8346
▁očistil	-10.8346
▁Sále	-10.8346
▁přešli	-10.8347
sekal	-10.8352
▁Syrského	-10.8352
▁makovice	-10.8354
▁aťby	-10.8356
▁žně	-10.8356
▁rozmnožím	-10.8357
▁zapálil	-10.8361
▁morem	-10.8361
▁hledajíce	-10.8367
▁znají	-10.8368
▁konali	-10.837
▁Beránk	-10.8372
▁poznáte	-10.8374
▁navra	-10.8375
▁četl	-10.8375
▁Nebudete	-10.838
▁Aronova	-10.8385
▁jezte	-10.8386
▁šedesáti	-10.8388
▁upadl	-10.8388
▁obrazy	-10.8399
▁nenavrátí	-10.8399
▁shlédl	-10.8402
▁okna	-10.8408
▁ponesou	-10.8408
▁hledáte	-10.8409
▁Izraelova	-10.8417
▁oblakové	-10.8421
▁žádostí	-10.843
▁pracoval	-10.8442
jímají	-10.8452
▁vnuk	-10.8461
sypal	-10.847
▁políbil	-10.8475
▁učiníte	-10.8477
▁nedostat	-10.8482
▁spravoval	-10.849
▁Žádné	-10.8499
▁Vstaňte	-10.8522
▁přísn	-10.8525
▁kdybys	-10.8534
▁proměn	-10.8542
▁pozdvihuj	-10.8548
set	-10.8562
povídá	-10.8569
▁posílal	-10.8594
▁chodíval	-10.8594
▁Sedechiáše	-10.8599
▁opoj	-10.86
zdá	-10.8607
▁kříd	-10.8612
▁slavn	-10.8635
▁pastýřů	-10.8644
stavíš	-10.8646
biv	-10.8684
▁Joziáše	-10.8685
troji	-10.8692
▁Všelik	-10.8702
▁plní	-10.8711
pomenul	-10.8723
▁Buďte	-10.8729
plní	-10.8743
▁znal	-10.8747
▁bláznivý	-10.8763
▁Jedno	-10.8768
▁Azariáše	-10.8782
▁činíval	-10.8786
▁ptactv	-10.8798
▁mluvíval	-10.881
▁líbost	-10.8815
▁utíkal	-10.8816
▁nenávist	-10.8817
▁prohléd	-10.8817
▁cizoloží	-10.8819
nížata	-10.884
▁spravedlivě	-10.8849
▁vyhn	-10.8868
▁ssoužen	-10.8876
▁zdrž	-10.8882
▁Kananejský	-10.8887
▁přisluhova	-10.8887
▁chudé	-10.8891
▁opatrný	-10.8892
▁nuzné	-10.8898
▁koní	-10.8907
▁zapomen	-10.891
▁cedrové	-10.8911
▁Abigail	-10.8911
▁Achimelech	-10.8911
▁Betsemes	-10.8911
▁Galilejské	-10.8911
▁Hetejského	-10.8911
▁Kristův	-10.8911
▁Oslavujte	-10.8911
▁Oznam	-10.8911
▁Světlo	-10.8911
▁beránky	-10.8911
▁bránu	-10.8911
▁chudob	-10.8911
▁cizozemec	-10.8911
▁děvečky	-10.8911
▁hřiven	-10.8911
▁nejsilnější	-10.8911
▁nesloužil	-10.8911
▁ničemž	-10.8911
▁nižádný	-10.8911
▁novměsíce	-10.8911
▁ohyzdn	-10.8911
▁ošklivost	-10.8911
▁plésají	-10.8911
▁pomazaný	-10.8911
▁poskvrn	-10.8911
▁poslouchaj	-10.8911
▁poslušenství	-10.8911
▁posmívá	-10.8911
▁posvětí	-10.8911
▁prospěch	-10.8911
▁prozpěvuj	-10.8911
▁přítrž	-10.8911
▁svegruš	-10.8911
▁vykupitel	-10.8911
▁zpořáda	-10.8911
▁zpurný	-10.8911
▁řady	-10.8911
7	-10.8911
▁Gomor	-10.8911
▁Héman	-10.8911
▁Kněží	-10.8911
▁Nebatova	-10.8911
▁Ustanov	-10.8911
▁ledvin	-10.8911
▁neobřízk	-10.8911
▁vidoucí	-10.8911
▁zbohat	-10.8911
▁ztíží	-10.8911
▁Dobré	-10.8911
▁Rabb	-10.8911
▁panství	-10.8911
▁slepí	-10.8911
▁Aroer	-10.8911
▁Tersa	-10.8911
▁Uziel	-10.8911
▁nemohu	-10.8911
▁panování	-10.8911
▁kadění	-10.8911
▁měď	-10.8911
▁plevy	-10.8911
▁starosti	-10.8911
▁Učiň	-10.8911
▁hustý	-10.8911
▁lstivě	-10.8911
▁Bláz	-10.8911
▁doufati	-10.8911
▁hliněn	-10.8911
▁zradoval	-10.8911
chvácen	-10.8911
▁koňů	-10.8911
▁křičeti	-10.8911
▁říkati	-10.8911
▁pekla	-10.8911
▁užíval	-10.8911
ušitel	-10.8911
▁panna	-10.8911
▁vozu	-10.8911
▁Faraonem	-10.8911
▁očišťuj	-10.8911
▁báně	-10.8911
▁desetiny	-10.8911
▁Mícha	-10.8911
▁lhář	-10.8911
▁ulekl	-10.8911
▁zemdlen	-10.8911
▁sbor	-10.8912
▁panuje	-10.8912
▁Země	-10.8912
▁hřeb	-10.8912
▁Koho	-10.8912
▁umyl	-10.8912
stávati	-10.8913
▁pokrytci	-10.8913
▁prsí	-10.8913
▁neobrátil	-10.8913
pomohl	-10.8914
▁padati	-10.8914
kládej	-10.8914
▁Eliab	-10.8914
▁Vejdi	-10.8914
chytil	-10.8914
▁jalovic	-10.8914
▁bydlící	-10.8915
▁převrácené	-10.8915
▁čtrnáctého	-10.8915
▁Teď	-10.8916
▁jednomyslně	-10.8916
▁svlak	-10.8916
▁troubili	-10.8917
▁vtipn	-10.8917
▁padají	-10.8918
▁přikrýval	-10.8918
▁zsilil	-10.8918
▁cherubínové	-10.8921
▁vezmouce	-10.8924
▁vidín	-10.8924
▁Tobě	-10.8925
▁Každého	-10.8927
▁Amorejských	-10.8928
▁pokropí	-10.8928
▁nevěstky	-10.8929
▁zhoubce	-10.893
▁vešla	-10.8936
▁vřed	-10.8936
▁úředníky	-10.8936
▁slovům	-10.8937
▁předpověděl	-10.8941
▁Balámovi	-10.8942
▁Dosti	-10.8942
▁odpuštěno	-10.8943
▁čtrnácte	-10.8944
▁provodí	-10.8946
▁bič	-10.8947
▁vejdu	-10.8947
▁Filistinského	-10.8949
▁přicházeti	-10.895
▁zarmoutil	-10.895
▁Modl	-10.8952
▁smilstva	-10.8952
▁velbloudy	-10.8953
▁vyvodí	-10.8955
▁Jozafatovi	-10.8958
▁plnost	-10.896
▁cizího	-10.8961
▁Davidovým	-10.8962
▁kterémžto	-10.8962
▁Kananejského	-10.8964
▁radě	-10.8964
pomínati	-10.8968
▁ratolestí	-10.897
▁strachem	-10.8977
▁křičí	-10.8977
▁Oze	-10.898
▁hromadu	-10.8989
▁večerou	-10.8991
▁kotl	-10.8994
▁vykládá	-10.8998
▁pokojně	-10.8999
▁chodíce	-10.9003
▁vezmete	-10.9005
jímal	-10.9015
▁zdvih	-10.9021
▁nichžto	-10.9047
▁dub	-10.9047
▁Sám	-10.9051
▁Kol	-10.9055
▁zahanbení	-10.906
▁pasou	-10.9062
▁děláš	-10.9066
▁vězte	-10.9066
▁Azael	-10.9079
▁musím	-10.908
▁proklaté	-10.9113
▁Takový	-10.9127
▁klaněj	-10.913
▁Dejte	-10.9134
▁zkaz	-10.9138
▁pokrmů	-10.9155
▁vyhladím	-10.9156
▁nešlechetné	-10.9158
▁řeka	-10.9162
▁bojuje	-10.9167
▁připoj	-10.9176
▁odporn	-10.919
▁Přišl	-10.921
staviv	-10.9211
▁pokladů	-10.9213
▁Jonatan	-10.9218
▁trval	-10.9221
▁vcházejí	-10.9225
▁radoval	-10.9244
▁rodí	-10.925
dícího	-10.9278
▁zub	-10.9279
▁nepovol	-10.9328
▁proklat	-10.933
▁pozdvihn	-10.9341
▁otevřen	-10.9348
▁doufám	-10.9351
▁prosí	-10.9363
▁zastavil	-10.94
▁naplni	-10.9438
▁Ben	-10.9442
▁jednostejné	-10.9452
M	-10.9469
P	-10.947
▁nechtě	-10.9476
▁Manasse	-10.9483
▁dokonán	-10.9492
▁komor	-10.9513
▁kteří	-10.9516
▁udeř	-10.952
Ž	-10.9534
mýšlí	-10.9536
▁Amariáš	-10.9536
▁Aminadab	-10.9536
▁Astarot	-10.9536
▁Cesaree	-10.9536
▁Dobrořeč	-10.9536
▁Eliasib	-10.9536
▁Eufrates	-10.9536
▁Galilei	-10.9536
▁Gázy	-10.9536
▁Kafarnaum	-10.9536
▁Kaldejským	-10.9536
▁První	-10.9536
▁Uslyšev	-10.9536
▁beránek	-10.9536
▁dobrodiní	-10.9536
▁dveřmi	-10.9536
▁holubice	-10.9536
▁kancléř	-10.9536
▁kupectví	-10.9536
▁mládenců	-10.9536
▁mokrými	-10.9536
▁neoznámil	-10.9536
▁nositi	-10.9536
▁náušnic	-10.9536
▁osídlem	-10.9536
▁otevřev	-10.9536
▁publikán	-10.9536
▁přesukovaného	-10.9536
▁přísahy	-10.9536
▁starodávna	-10.9536
▁stříbrem	-10.9536
▁svědkem	-10.9536
▁temností	-10.9536
▁užívati	-10.9536
▁vojensk	-10.9536
▁zkormoucen	-10.9536
▁zprotivil	-10.9536
▁Úst	-10.9536
▁Čas	-10.9536
▁čisterny	-10.9536
▁žaláři	-10.9536
9	-10.9536
▁Levíta	-10.9536
▁Perského	-10.9536
▁brzo	-10.9536
▁popudil	-10.9536
▁prokletí	-10.9536
▁přináleže	-10.9536
▁tvrdě	-10.9536
▁vymítá	-10.9536
▁zapomenutí	-10.9536
▁navracoval	-10.9536
▁náklad	-10.9536
▁opustivše	-10.9536
▁vyhledává	-10.9536
▁získal	-10.9536
▁Smiluj	-10.9536
▁nařídil	-10.9536
▁ostáti	-10.9536
▁Hned	-10.9536
▁těžkost	-10.9536
▁ostojí	-10.9536
▁vzdálí	-10.9536
▁váhy	-10.9536
▁odpír	-10.9536
▁přihodilo	-10.9536
▁udatné	-10.9536
▁železný	-10.9536
▁neslyšeli	-10.9536
▁vylévá	-10.9536
▁půst	-10.9536
▁zatmí	-10.9536
▁kamenné	-10.9536
▁nevěřili	-10.9536
▁vražd	-10.9536
▁jezera	-10.9536
▁blízký	-10.9536
▁metl	-10.9536
▁železa	-10.9536
▁Efrat	-10.9536
▁velicí	-10.9536
▁Hetejský	-10.9537
▁otevr	-10.9537
▁nemaje	-10.9537
▁znovu	-10.9537
▁barvený	-10.9537
▁Přesto	-10.9537
▁slitin	-10.9537
▁vyměřen	-10.9537
jděme	-10.9537
▁nechodí	-10.9537
▁velebnost	-10.9537
▁těžce	-10.9537
▁Amram	-10.9538
▁zahubil	-10.9538
tížil	-10.9538
▁pohubil	-10.9538
▁svázán	-10.9538
▁nechce	-10.9538
▁Hur	-10.9539
▁zachovávati	-10.954
▁Jair	-10.954
▁násilí	-10.954
▁dvanáctého	-10.9541
▁nesouce	-10.9542
▁vsech	-10.9542
▁dobytku	-10.9543
▁Sionská	-10.9545
▁desátý	-10.9546
▁podnož	-10.9546
▁Pravím	-10.9548
▁Všeliký	-10.9548
zůstavil	-10.9548
▁lživý	-10.9548
▁Aronovým	-10.955
▁cedrového	-10.955
▁sama	-10.9551
iduci	-10.9553
▁Nejvyššího	-10.9553
▁svobodně	-10.9554
▁kormoutí	-10.9556
▁zemští	-10.9558
▁berl	-10.9559
▁vodami	-10.9565
▁rytinu	-10.9569
▁žni	-10.957
▁nepravil	-10.9571
▁nejvyššímu	-10.9571
▁starých	-10.9571
▁Saulovy	-10.9575
ložiti	-10.9575
enství	-10.9578
▁úzkostí	-10.9578
▁pozorujte	-10.9579
▁naleznete	-10.958
▁vycházeti	-10.958
▁nebeští	-10.9581
▁apoštolé	-10.9581
▁rozmnožuje	-10.9585
▁vejdeš	-10.9586
▁Gádovi	-10.9588
▁nečistotu	-10.9589
▁proměnil	-10.9591
▁chudých	-10.9592
▁majícího	-10.9594
páliv	-10.9594
▁Abrahamův	-10.9595
▁bezbožníků	-10.9599
▁přebývalo	-10.96
▁vynáší	-10.9603
▁znáte	-10.9604
▁jakýž	-10.9605
▁Beniaminova	-10.9607
▁vyjíti	-10.9608
▁Jozefova	-10.9612
▁zabijí	-10.9617
▁dotkn	-10.962
▁dejž	-10.9636
▁staví	-10.9636
▁palc	-10.9642
▁spust	-10.9659
▁Vztáh	-10.9669
▁přicházející	-10.9671
▁nemáme	-10.969
▁křtil	-10.972
suďte	-10.973
▁srn	-10.9863
pléní	-10.9879
jmou	-10.9914
▁duchů	-10.9916
▁neumře	-10.9921
▁prázdné	-10.9929
▁skláně	-10.9942
▁obvesel	-10.9943
olku	-10.9945
▁přikryt	-10.9959
▁Navrát	-10.9965
▁šetří	-10.9975
▁veleb	-11.0006
poslechne	-11.004
▁příhodn	-11.0042
šima	-11.0043
▁rozuměj	-11.0084
ejdouce	-11.0093
▁hořkost	-11.0107
▁dobrotiv	-11.0119
ajisté	-11.0125
▁odpuštěn	-11.0132
kterýž	-11.0136
právě	-11.0161
▁stvořen	-11.0168
▁otcov	-11.0185
ustanov	-11.0191
▁vzděla	-11.0194
▁viděv	-11.0197
▁potlač	-11.0202
▁Abdenág	-11.0203
▁Achimaas	-11.0203
▁Asvera	-11.0203
▁Betoron	-11.0203
▁Chasabiáš	-11.0203
▁Efezu	-11.0203
▁Gessur	-11.0203
▁Gál	-11.0203
▁Gázer	-11.0203
▁Jonadab	-11.0203
▁Malkiáš	-11.0203
▁Mizach	-11.0203
▁Nebuzardan	-11.0203
▁Ninive	-11.0203
▁Olivetsk	-11.0203
▁Sidrach	-11.0203
▁chytrost	-11.0203
▁drobného	-11.0203
▁hrazená	-11.0203
▁jezdců	-11.0203
▁líbiti	-11.0203
▁možné	-11.0203
▁nájemník	-11.0203
▁pahrbkové	-11.0203
▁pospíšil	-11.0203
▁prozpěvování	-11.0203
▁přemyšlování	-11.0203
▁přirození	-11.0203
▁skončení	-11.0203
▁soukromí	-11.0203
▁spomocník	-11.0203
▁svitání	-11.0203
▁užitečné	-11.0203
▁velikonoční	-11.0203
▁vonnými	-11.0203
▁věděti	-11.0203
▁zpívání	-11.0203
▁závory	-11.0203
▁Artaxerx	-11.0203
▁Eliezer	-11.0203
▁Faraonovo	-11.0203
▁Jechiel	-11.0203
▁Kanán	-11.0203
▁Křtitel	-11.0203
▁Mifibozet	-11.0203
▁Sicelech	-11.0203
▁cymbál	-11.0203
▁nečiňte	-11.0203
▁oslátk	-11.0203
▁píšťal	-11.0203
▁Čeho	-11.0203
▁škřip	-11.0203
▁Judových	-11.0203
▁povýšen	-11.0203
▁Elifaz	-11.0203
▁Umřel	-11.0203
▁táhnou	-11.0203
▁Prvé	-11.0203
▁jmění	-11.0203
▁postižen	-11.0203
▁stavějí	-11.0203
▁tchán	-11.0203
▁Achitob	-11.0203
▁Otcov	-11.0203
▁Satan	-11.0203
▁suchá	-11.0203
▁dskách	-11.0203
▁slávou	-11.0203
▁něčeho	-11.0203
▁Vesel	-11.0203
▁oponu	-11.0203
▁oráč	-11.0203
▁těžké	-11.0203
▁nosí	-11.0203
▁žernov	-11.0203
▁kněžské	-11.0203
▁lvové	-11.0203
▁Ovšem	-11.0203
▁pohansk	-11.0203
▁Učiní	-11.0203
▁nošen	-11.0203
▁jitře	-11.0203
▁rytíř	-11.0203
▁páší	-11.0203
▁řvá	-11.0204
▁tmě	-11.0204
▁pití	-11.0204
▁nesnáz	-11.0204
▁roste	-11.0204
▁představen	-11.0204
▁léto	-11.0204
▁takoví	-11.0204
vinul	-11.0205
▁rodina	-11.0205
▁umru	-11.0205
▁lejn	-11.0206
▁věda	-11.0206
▁sucho	-11.0207
▁Těm	-11.0207
▁přítelkyn	-11.0208
▁písmo	-11.0209
chytiv	-11.0209
▁písek	-11.0209
▁nabral	-11.0209
▁děli	-11.021
▁pomazaného	-11.021
▁úhlech	-11.0211
▁přepravil	-11.0212
▁soudců	-11.0213
▁rozumného	-11.0215
▁Poslouchejte	-11.0217
▁uzřevše	-11.0218
▁údové	-11.0218
▁kořistí	-11.0218
▁ostrovové	-11.0219
▁krásná	-11.022
▁zavolav	-11.0222
▁oct	-11.0223
▁Všemohoucího	-11.0223
▁neumí	-11.0223
dávati	-11.0225
▁nejmenšího	-11.0225
▁užitku	-11.0225
▁Spasitele	-11.0225
▁vyplní	-11.0226
▁vydávati	-11.0227
▁stěnu	-11.0228
▁Azy	-11.0228
▁Kananejských	-11.023
▁Rut	-11.0232
▁posvěcených	-11.0233
znikl	-11.0237
▁psi	-11.024
▁Abimelechovi	-11.0241
▁vyťat	-11.0242
zpíval	-11.0244
▁Beniaminových	-11.0244
▁utvrdí	-11.0246
▁pustiny	-11.026
▁přešel	-11.0261
▁popatřil	-11.0264
▁přídrž	-11.0266
▁vyjdi	-11.0267
azuji	-11.0271
▁pomocník	-11.0278
▁ramenem	-11.0279
▁Jeruzalémským	-11.028
▁Put	-11.0308
▁zveleben	-11.0311
▁ptal	-11.0339
tero	-11.0344
chopil	-11.0354
▁následoval	-11.0378
▁desát	-11.038
věděv	-11.0387
▁obleče	-11.0388
▁ochotn	-11.0389
padnou	-11.0399
▁svobodné	-11.0412
▁obětován	-11.0422
▁Jordánské	-11.0428
▁chován	-11.0435
▁uslyš	-11.0449
▁přítomn	-11.0491
stěhuj	-11.0509
▁neodpustí	-11.0528
pojím	-11.057
ocha	-11.0597
▁dšt	-11.0597
▁Nábal	-11.0615
▁farize	-11.0615
▁slíbil	-11.0619
▁běž	-11.066
▁dvanáct	-11.0681
chvacuj	-11.0705
▁pouští	-11.0722
potřebu	-11.077
▁chleb	-11.0777
▁studnic	-11.0779
▁povyš	-11.0827
četl	-11.085
S	-11.085
▁rytin	-11.0856
tvrdím	-11.0871
▁vytáhn	-11.0884
▁faleš	-11.0899
▁zanechán	-11.0902
▁služeb	-11.0903
▁přeběh	-11.0914
▁zadrž	-11.0915
▁podoben	-11.0916
▁množ	-11.0916
▁Pamatuj	-11.0917
▁hrazené	-11.0917
▁neostojí	-11.0917
▁poslouchá	-11.0917
▁přemyšluj	-11.0917
▁Barák	-11.0917
▁Jebuzejského	-11.0917
▁Jozabad	-11.0917
▁Kadidlnic	-11.0917
▁Kaldejští	-11.0917
▁Milosrdenství	-11.0917
▁Paschur	-11.0917
▁Pekach	-11.0917
▁Spravedlnost	-11.0917
▁Vstana	-11.0917
▁bázní	-11.0917
▁cvičení	-11.0917
▁dlouhý	-11.0917
▁dětinství	-11.0917
▁hanbě	-11.0917
▁kroužk	-11.0917
▁laskav	-11.0917
▁láhvic	-11.0917
▁nedvěd	-11.0917
▁nemoudrost	-11.0917
▁nenalézá	-11.0917
▁neodkryješ	-11.0917
▁odpočívati	-11.0917
▁okrouhl	-11.0917
▁ostatku	-11.0917
▁poblouzení	-11.0917
▁podruhé	-11.0917
▁pokudž	-11.0917
▁pomažeš	-11.0917
▁povinen	-11.0917
▁povýšil	-11.0917
▁prvorozenství	-11.0917
▁pyšně	-11.0917
▁přeplavi	-11.0917
▁reptání	-11.0917
▁sirotku	-11.0917
▁sklonil	-11.0917
▁sstaral	-11.0917
▁stvořitel	-11.0917
▁temnostech	-11.0917
▁třetin	-11.0917
▁třtin	-11.0917
▁upřímo	-11.0917
▁upřímí	-11.0917
▁upřímě	-11.0917
▁vlnobití	-11.0917
▁vysvoboditi	-11.0917
▁vzešlo	-11.0917
▁vůdcové	-11.0917
▁zachvátil	-11.0917
▁zbožnost	-11.0917
▁zvláštní	-11.0917
▁zámutku	-11.0917
▁čepici	-11.0917
▁Řkouce	-11.0917
▁Židovsky	-11.0917
▁žráti	-11.0917
▁žízní	-11.0917
▁Elisama	-11.0917
▁Lazar	-11.0917
▁chvála	-11.0917
▁kruhy	-11.0917
▁rozptyl	-11.0917
▁spáti	-11.0917
▁sukně	-11.0917
▁tresce	-11.0917
▁velikost	-11.0917
▁žalob	-11.0917
▁nenechá	-11.0917
▁vyplacen	-11.0917
▁potká	-11.0917
▁roztrž	-11.0917
▁vzdálil	-11.0917
▁odeslal	-11.0917
▁Může	-11.0917
▁bdění	-11.0917
▁posilnil	-11.0917
▁Záre	-11.0917
▁rozvod	-11.0917
▁děsí	-11.0917
▁žíně	-11.0917
▁ležeti	-11.0917
▁ostrý	-11.0917
▁Nebylo	-11.0917
▁déle	-11.0917
▁kropi	-11.0917
▁odebral	-11.0917
▁křičeli	-11.0917
▁praviti	-11.0917
▁Jsem	-11.0917
▁smilnila	-11.0917
▁vyčten	-11.0917
▁správu	-11.0917
▁Smrt	-11.0917
▁svadb	-11.0917
▁předěsil	-11.0917
▁Oga	-11.0917
▁svítí	-11.0917
▁naprosto	-11.0918
▁Hermon	-11.0918
▁Emor	-11.0918
▁Rudém	-11.0918
▁Táhn	-11.0918
▁odpovídati	-11.0918
▁Chusai	-11.0918
▁sežrán	-11.0918
▁zachovati	-11.0918
ubové	-11.0919
▁váhu	-11.0919
▁Moholi	-11.0919
▁vyžene	-11.0919
▁Elizeov	-11.0919
▁neodpověděl	-11.0919
▁zbitými	-11.0919
▁Madianských	-11.092
▁Soud	-11.092
▁opojného	-11.092
▁chovati	-11.092
▁nemluví	-11.092
▁oslů	-11.092
▁smilnili	-11.092
▁koltr	-11.0921
▁vyučující	-11.0921
▁Míchov	-11.0921
ěnec	-11.0921
▁Zif	-11.0922
▁Propusť	-11.0922
▁viděvše	-11.0922
▁vrchnost	-11.0923
▁téhodnů	-11.0924
▁zvelebil	-11.0924
▁krav	-11.0925
▁největšího	-11.0925
▁chudému	-11.0925
vracejí	-11.0926
▁síňci	-11.0926
▁nepravý	-11.0927
▁zdržel	-11.0928
▁trvati	-11.0929
▁Izar	-11.0929
▁Samma	-11.0929
▁Joziášova	-11.093
▁bojovných	-11.093
▁prodán	-11.0931
▁vzdělává	-11.0931
žádají	-11.0932
▁plniti	-11.0932
▁mluvení	-11.0932
▁srp	-11.0932
▁Vyjdi	-11.0933
▁nesoucí	-11.0933
▁sloupích	-11.0936
▁upřímého	-11.0936
▁ožil	-11.0938
▁Ammonitských	-11.0938
tahuje	-11.0941
▁prorokovati	-11.0942
▁vodám	-11.0946
▁Jákobovu	-11.0947
▁vyjděte	-11.0948
▁Povstan	-11.0949
▁vzdělání	-11.0951
▁jednostejná	-11.0957
▁očekávání	-11.0962
▁daremn	-11.0962
▁živému	-11.0968
střih	-11.097
▁milosrdný	-11.0974
▁zdržuje	-11.1
▁činěn	-11.1003
▁krad	-11.1033
▁zubů	-11.1034
táhnu	-11.1036
▁postil	-11.1045
▁odplatil	-11.105
▁prokl	-11.1065
▁Sečt	-11.1074
▁kadíval	-11.1085
▁příhodný	-11.1092
vázané	-11.1097
▁tesař	-11.1101
▁kár	-11.1121
▁Hebrejský	-11.1142
prázdní	-11.1158
▁mladé	-11.1161
▁podolk	-11.1163
▁Všeliké	-11.1163
▁hojn	-11.1205
▁přicházejí	-11.124
▁zanecha	-11.1246
pravování	-11.129
▁slavný	-11.1388
▁dokoná	-11.1446
▁Achitofel	-11.1484
▁smlouv	-11.1487
▁přísně	-11.1488
▁úrodné	-11.1522
▁Říman	-11.1543
▁propast	-11.1591
▁hřešil	-11.1591
▁Filistinský	-11.1592
▁pochoval	-11.1594
▁zůřiv	-11.1605
bude	-11.1617
jakož	-11.162
držeti	-11.1624
▁čtrnáct	-11.1637
▁makovic	-11.1643
▁břeh	-11.1649
▁záloh	-11.1651
▁odsouzen	-11.1651
▁slovoutn	-11.1654
▁okn	-11.1654
▁víc	-11.1656
▁Assyrské	-11.1666
svobodil	-11.1666
pustiti	-11.167
vadla	-11.1686
hlubší	-11.1686
pozdil	-11.1686
▁Abinadab	-11.1686
▁Antiochie	-11.1686
▁Dabir	-11.1686
▁Eglon	-11.1686
▁Elkána	-11.1686
▁Gog	-11.1686
▁Hadarezer	-11.1686
▁Izbozet	-11.1686
▁Jehiel	-11.1686
▁Mahanaim	-11.1686
▁Proroci	-11.1686
▁Rebeka	-11.1686
▁Rozpomeň	-11.1686
▁Senacherib	-11.1686
▁Stříbr	-11.1686
▁Timoteus	-11.1686
▁Větší	-11.1686
▁bydlejí	-11.1686
▁chřípí	-11.1686
▁cizozemci	-11.1686
▁dědičnému	-11.1686
▁jablek	-11.1686
▁jmín	-11.1686
▁kazatel	-11.1686
▁možnost	-11.1686
▁mudrci	-11.1686
▁naposledy	-11.1686
▁nejvýbornější	-11.1686
▁nejčistší	-11.1686
▁neposlal	-11.1686
▁okamžení	-11.1686
▁olivoví	-11.1686
▁ostříhaje	-11.1686
▁očkovaté	-11.1686
▁pevné	-11.1686
▁povědom	-11.1686
▁povětří	-11.1686
▁přisahati	-11.1686
▁příbuznosti	-11.1686
▁rozepři	-11.1686
▁rozhněvav	-11.1686
▁rozmáhal	-11.1686
▁slepého	-11.1686
▁svatyní	-11.1686
▁svědků	-11.1686
▁trápiti	-11.1686
▁utrpení	-11.1686
▁vytržen	-11.1686
▁vztažené	-11.1686
▁znamenaných	-11.1686
▁znamenité	-11.1686
▁zošklivil	-11.1686
▁řeřavé	-11.1686
▁žádná	-11.1686
▁Agag	-11.1686
▁Azotu	-11.1686
▁Aškalon	-11.1686
▁Fest	-11.1686
▁Názon	-11.1686
▁Oltář	-11.1686
▁Ondřej	-11.1686
▁Sefatiáš	-11.1686
▁almužn	-11.1686
▁jitro	-11.1686
▁nemluvňátk	-11.1686
▁nespravedliv	-11.1686
▁nevyhnal	-11.1686
▁očerstv	-11.1686
▁plésej	-11.1686
▁přemohl	-11.1686
▁přemyšlova	-11.1686
▁přestěhován	-11.1686
▁užasnutí	-11.1686
▁vrabce	-11.1686
▁válečný	-11.1686
▁zpěváků	-11.1686
▁zrůst	-11.1686
▁Benaiáš	-11.1686
▁Dobrý	-11.1686
▁Efron	-11.1686
▁Rohob	-11.1686
▁napomenut	-11.1686
▁prorock	-11.1686
▁sedmnáct	-11.1686
▁šedin	-11.1686
▁hůry	-11.1686
▁nesluší	-11.1686
▁obloup	-11.1686
▁svatou	-11.1686
▁třmi	-11.1686
▁zkormoutil	-11.1686
▁Jedaiáš	-11.1686
▁soudcové	-11.1686
▁Berot	-11.1686
▁zdávna	-11.1686
▁odkryt	-11.1686
▁podvrátil	-11.1686
▁přisahá	-11.1686
▁vytrhnouti	-11.1686
▁Judy	-11.1686
▁rouše	-11.1686
▁Vezme	-11.1686
▁mlčeti	-11.1686
▁přioděl	-11.1686
▁žíni	-11.1686
▁patrn	-11.1686
▁pamětliv	-11.1686
▁slýchá	-11.1686
▁koupen	-11.1686
▁přiveďte	-11.1686
bravše	-11.1686
▁Sáru	-11.1686
▁samým	-11.1686
▁Anděl	-11.1686
nalezše	-11.1686
▁vzejde	-11.1686
▁medenic	-11.1687
▁vyhubil	-11.1687
mítají	-11.1687
▁lišt	-11.1687
▁Jeter	-11.1687
▁polámi	-11.1687
▁nechtí	-11.1687
▁lékařství	-11.1687
▁Refaim	-11.1687
▁zemrou	-11.1687
▁snědl	-11.1687
▁zvíře	-11.1687
▁domácí	-11.1687
▁kohout	-11.1687
▁Obéd	-11.1688
▁Daria	-11.1688
▁Perský	-11.1688
▁šelmě	-11.1688
▁zapečetěn	-11.1688
▁užasn	-11.1688
▁Hanb	-11.1688
▁Nébo	-11.1688
▁utrhal	-11.1688
▁příbytků	-11.1689
▁Vytrhn	-11.1689
▁škodliv	-11.1689
▁přestěhoval	-11.1689
▁snažnost	-11.1689
▁neslituj	-11.169
mešká	-11.169
▁pustinách	-11.169
▁vyvolené	-11.169
▁mest	-11.1691
▁oněch	-11.1691
nikne	-11.1691
▁poručení	-11.1691
▁Uslyšel	-11.1692
▁Báni	-11.1692
▁zvíš	-11.1692
▁vyvolený	-11.1693
zůstávají	-11.1693
▁uložený	-11.1693
▁suše	-11.1695
▁vinného	-11.1695
▁voze	-11.1696
▁jezdí	-11.1696
▁bezbožníci	-11.1697
▁písku	-11.1697
▁větv	-11.1697
▁hrá	-11.1698
▁obecného	-11.1698
▁pokladích	-11.17
▁summ	-11.17
stupujte	-11.17
▁hral	-11.1701
▁milostivého	-11.1702
▁stával	-11.1702
▁Jiný	-11.1703
▁rovný	-11.1703
▁předivn	-11.1703
▁hrobích	-11.1704
▁Moábští	-11.1704
▁stolicí	-11.1709
▁příští	-11.1711
biji	-11.1715
▁Madianským	-11.1717
▁Iddo	-11.1722
▁ženám	-11.1723
▁varuj	-11.1726
provodili	-11.1737
▁Vydal	-11.1752
▁vysvobozuje	-11.1753
▁zmorduj	-11.1759
▁vloživ	-11.1764
▁nehřešil	-11.1764
▁vzhléd	-11.1787
▁přímo	-11.1811
▁zrn	-11.1813
voditi	-11.1849
▁vystaví	-11.1866
▁vyvýšenost	-11.1871
▁blázniv	-11.1898
▁klek	-11.1905
▁vzdal	-11.1905
pouštíš	-11.1914
▁potřebuje	-11.1917
udyž	-11.1926
▁uzdravoval	-11.1939
▁říkával	-11.1964
▁obveseluj	-11.1995
▁skláněj	-11.1997
▁vstupoval	-11.2016
▁Rozpomín	-11.2017
ázeň	-11.2043
▁úředník	-11.2073
▁úředníků	-11.208
▁nevinné	-11.2093
▁posíla	-11.2121
konává	-11.2213
▁plén	-11.223
▁hlavá	-11.226
▁štípen	-11.2294
pouštěti	-11.2309
▁Ammonitský	-11.2318
lapá	-11.2329
▁šedesát	-11.2379
▁sedmdesát	-11.2381
▁tříd	-11.2386
▁zžírají	-11.2403
▁služb	-11.2432
▁trápen	-11.2445
▁památk	-11.2482
▁napsán	-11.2484
▁částk	-11.2484
▁Amorejský	-11.2495
▁Amorejské	-11.2506
▁obecné	-11.2507
▁centnéř	-11.2507
▁opouští	-11.2508
▁zžíra	-11.2514
▁blíz	-11.2515
popouzej	-11.2517
▁vražedln	-11.2518
poškvrňuj	-11.2518
▁malomocný	-11.2519
▁nejpřednější	-11.2519
▁oklamal	-11.2519
▁rozhojnil	-11.2519
▁slunečn	-11.2519
▁vzdychá	-11.2519
přiblíží	-11.2519
▁Agripp	-11.2519
▁Ananiáš	-11.2519
▁Barzillai	-11.2519
▁Betsabé	-11.2519
▁Cedar	-11.2519
▁Cedron	-11.2519
▁Dágon	-11.2519
▁Eliakim	-11.2519
▁Fáran	-11.2519
▁Gesen	-11.2519
▁Gézi	-11.2519
▁Joiadův	-11.2519
▁Kristem	-11.2519
▁Macedonie	-11.2519
▁Mageddo	-11.2519
▁Mataniáš	-11.2519
▁Moudrost	-11.2519
▁Nazarét	-11.2519
▁Tábor	-11.2519
▁Táre	-11.2519
▁barev	-11.2519
▁bratře	-11.2519
▁cizozemk	-11.2519
▁dvojnásobní	-11.2519
▁frejíř	-11.2519
▁hrazených	-11.2519
▁hřímání	-11.2519
▁maličké	-11.2519
▁mládenček	-11.2519
▁nenáviděti	-11.2519
▁neobřezanci	-11.2519
▁neposlechl	-11.2519
▁neštěstí	-11.2519
▁otevři	-11.2519
▁pahrbcích	-11.2519
▁panovník	-11.2519
▁pečliv	-11.2519
▁povinnost	-11.2519
▁přikrývají	-11.2519
▁přinášeti	-11.2519
▁připomínán	-11.2519
▁sbírati	-11.2519
▁služebnici	-11.2519
▁ssouží	-11.2519
▁strojí	-11.2519
▁třimecítma	-11.2519
▁vyvýšil	-11.2519
▁věderce	-11.2519
▁zatroubil	-11.2519
▁zrnatých	-11.2519
▁zvěstují	-11.2519
▁zámutkem	-11.2519
▁úrazu	-11.2519
▁úsil	-11.2519
▁ďáblov	-11.2519
▁ďábly	-11.2519
▁šafář	-11.2519
▁Cháran	-11.2519
▁Ofir	-11.2519
▁Zebah	-11.2519
▁chlup	-11.2519
▁nevztáhl	-11.2519
▁Dedan	-11.2519
▁Ornan	-11.2519
▁dříve	-11.2519
▁pochleb	-11.2519
▁poznají	-11.2519
▁trávu	-11.2519
▁válečné	-11.2519
▁Druhé	-11.2519
▁Lámech	-11.2519
▁chvalte	-11.2519
▁koupě	-11.2519
▁pekař	-11.2519
▁statkem	-11.2519
▁ztratil	-11.2519
▁kamenů	-11.2519
▁převráceně	-11.2519
▁pannu	-11.2519
▁Jazer	-11.2519
▁bubn	-11.2519
▁pohádk	-11.2519
▁praveno	-11.2519
▁pochodně	-11.2519
▁bílý	-11.2519
▁pyšný	-11.2519
▁zavříti	-11.252
▁přestání	-11.252
▁smíšen	-11.252
▁svátku	-11.252
▁kozelce	-11.252
rokřikuj	-11.252
▁Zamri	-11.252
▁nechoď	-11.252
▁domlouvání	-11.252
▁přemáh	-11.252
▁Tomáš	-11.252
▁lvíče	-11.252
▁užívají	-11.252
▁bouří	-11.252
▁pyšné	-11.252
▁samce	-11.252
▁oblec	-11.252
▁olivy	-11.252
▁spodk	-11.252
▁Síba	-11.252
▁Bratr	-11.252
▁zmocní	-11.252
tvrď	-11.252
▁Těch	-11.252
▁horlení	-11.252
jímejte	-11.252
▁vyleje	-11.252
▁vypálen	-11.252
▁vytrhuje	-11.252
▁snášel	-11.252
▁vyschl	-11.252
▁pohrdají	-11.252
▁koupí	-11.252
hrnul	-11.252
▁pokrytství	-11.252
▁vejda	-11.252
▁Komu	-11.252
▁ponižuje	-11.2521
plésal	-11.2521
▁prositi	-11.2521
▁přídržeti	-11.2521
▁navracuje	-11.2521
▁Judovu	-11.2521
▁strachuj	-11.2521
▁Salmun	-11.2521
▁brod	-11.2521
▁týž	-11.2521
▁matko	-11.2521
▁divok	-11.2521
▁bouře	-11.2522
▁mdlý	-11.2522
▁uvěří	-11.2522
▁hýba	-11.2522
▁lvů	-11.2522
▁tělesné	-11.2522
▁volajícího	-11.2522
▁Salmon	-11.2522
▁nesmysln	-11.2522
▁svěřen	-11.2523
▁umínil	-11.2523
▁nepřijímá	-11.2523
▁bij	-11.2523
▁vědí	-11.2523
▁Nalezl	-11.2523
▁shromáždivše	-11.2524
vázati	-11.2525
▁Zavolej	-11.2526
▁pýcha	-11.2526
▁Azii	-11.2526
▁pořádku	-11.2526
▁opováž	-11.2526
▁navštívení	-11.2526
▁uzřevši	-11.2527
▁Assyrskému	-11.2527
▁příbytky	-11.2528
▁dvoje	-11.2528
▁Egyptská	-11.2528
▁Sláv	-11.2528
tluče	-11.2529
▁vzrostl	-11.2529
▁nevinnou	-11.2529
▁Stane	-11.2529
▁Tyrský	-11.2531
přátelsky	-11.2533
▁Jsi	-11.2534
▁sešlo	-11.2534
▁obětované	-11.2535
▁Přiveď	-11.2535
▁červeno	-11.2537
▁Sluš	-11.2537
▁Mistr	-11.2539
chopí	-11.254
▁vykonáván	-11.2541
▁Sestr	-11.2547
▁vysvobozoval	-11.2548
▁neopouštěj	-11.2551
dutí	-11.2562
▁Osl	-11.2576
▁pohrdal	-11.259
▁plané	-11.2604
drobil	-11.2623
▁prázdný	-11.2628
▁připojil	-11.2629
▁odvrácen	-11.2634
▁ryt	-11.2641
čišťova	-11.2655
▁Mouřenínské	-11.2658
dtud	-11.2698
▁Postavil	-11.27
mlouvati	-11.2722
▁radují	-11.273
▁vzácný	-11.2731
učte	-11.2764
umějí	-11.2772
▁posvěti	-11.2774
odpovídají	-11.2781
▁velebil	-11.28
▁svobodný	-11.2803
▁Sedechiášov	-11.2804
▁šťastn	-11.2808
vrátíš	-11.2827
▁navštěv	-11.2842
jměte	-11.2845
▁povstávající	-11.2852
ref	-11.2867
▁bera	-11.2931
▁pozdvihš	-11.2959
▁rozpomína	-11.2973
▁oboř	-11.2996
▁nemající	-11.301
tvrdé	-11.3026
myje	-11.3033
▁Raduj	-11.3052
▁zřízen	-11.3098
měnil	-11.3124
▁vítěz	-11.3213
vrácení	-11.3226
▁řkou	-11.3228
kryji	-11.3283
▁dvadcet	-11.3334
Job	-11.3364
srozumí	-11.3379
budiž	-11.338
pravovati	-11.339
▁brav	-11.3394
▁shromáždiv	-11.3423
rvorozený	-11.3424
▁prah	-11.3424
▁lékař	-11.3427
▁barv	-11.3427
▁Barabbáš	-11.3428
▁Jebuzejský	-11.3428
▁Melchisedech	-11.3428
▁lvíčat	-11.3428
▁mřežování	-11.3428
▁nejsvětější	-11.3428
▁nemoudrý	-11.3428
▁skrýší	-11.3428
▁znamenitý	-11.3428
onečně	-11.3428
▁Agge	-11.3428
▁Beránek	-11.3428
▁Dibon	-11.3428
▁Dlouhost	-11.3428
▁Idumejští	-11.3428
▁Jericho	-11.3428
▁Joppen	-11.3428
▁Magdaléna	-11.3428
▁Michmas	-11.3428
▁Pozoruj	-11.3428
▁Přikázal	-11.3428
▁Přisáhl	-11.3428
▁Rezin	-11.3428
▁Samaritán	-11.3428
▁Učiniž	-11.3428
▁chvátáním	-11.3428
▁doufanliv	-11.3428
▁drabanty	-11.3428
▁drobtů	-11.3428
▁dveřům	-11.3428
▁děvečku	-11.3428
▁hrnce	-11.3428
▁hrnec	-11.3428
▁humno	-11.3428
▁hýbe	-11.3428
▁hřivn	-11.3428
▁královská	-11.3428
▁lokty	-11.3428
▁nahradí	-11.3428
▁nejposlednější	-11.3428
▁nekvašen	-11.3428
▁obrátě	-11.3428
▁odevšad	-11.3428
▁pahrbků	-11.3428
▁patřiti	-11.3428
▁plačte	-11.3428
▁poctivost	-11.3428
▁pokoušín	-11.3428
▁posmívali	-11.3428
▁povědění	-11.3428
▁pozůstane	-11.3428
▁pravidl	-11.3428
▁pytle	-11.3428
▁pytlík	-11.3428
▁přibližoval	-11.3428
▁přibližuje	-11.3428
▁přikáži	-11.3428
▁přisahají	-11.3428
▁pšenici	-11.3428
▁rozprostřel	-11.3428
▁skutečn	-11.3428
▁strojen	-11.3428
▁svědky	-11.3428
▁ukazoval	-11.3428
▁ukrutní	-11.3428
▁vyslýchá	-11.3428
▁yzop	-11.3428
▁zachvátí	-11.3428
▁zamordovati	-11.3428
▁zdráv	-11.3428
▁zesnuli	-11.3428
▁zlatník	-11.3428
▁zpátkem	-11.3428
▁zvěstujte	-11.3428
▁úmysl	-11.3428
▁účastníci	-11.3428
▁řetízky	-11.3428
▁žehrání	-11.3428
rážejí	-11.3428
▁Chanun	-11.3428
▁Get	-11.3428
▁Judův	-11.3428
▁Jáfet	-11.3428
▁hanby	-11.3428
▁nestydat	-11.3428
▁oblíbil	-11.3428
▁onychin	-11.3428
▁ovčin	-11.3428
▁poznati	-11.3428
▁pošlapal	-11.3428
▁réví	-11.3428
▁těžká	-11.3428
▁vznášel	-11.3428
▁zacpá	-11.3428
▁Pádan	-11.3428
▁mdlob	-11.3428
▁rodičů	-11.3428
▁bezpráví	-11.3428
▁osvícen	-11.3428
▁taženého	-11.3428
▁jezdce	-11.3428
▁mléka	-11.3428
▁posvátn	-11.3428
▁sbírá	-11.3428
▁Lebna	-11.3429
▁vyvyšuj	-11.3429
▁Enakov	-11.3429
▁Simei	-11.3429
▁zavírá	-11.3429
▁Moloch	-11.3429
▁Nuže	-11.3429
▁tvárnost	-11.3429
▁Ammonitské	-11.3429
▁pustý	-11.3429
▁vyplatí	-11.3429
krývati	-11.3429
▁Odejdi	-11.3429
▁nižší	-11.3429
▁branici	-11.3429
▁tmách	-11.3429
▁Betany	-11.3429
▁truchl	-11.3429
▁pýše	-11.3429
▁dotýkal	-11.3429
▁nejsme	-11.3429
▁zafir	-11.3429
▁počítá	-11.3429
▁Ženich	-11.3429
▁mocnosti	-11.3429
▁blízké	-11.3429
tírati	-11.3429
▁nemnoh	-11.3429
▁prostrann	-11.3429
▁jídlu	-11.3429
▁šelmám	-11.3429
▁válku	-11.3429
▁hodině	-11.3429
▁ukryt	-11.3429
▁přinutil	-11.3429
▁kvílil	-11.3429
▁uschl	-11.3429
▁nazarejs	-11.3429
▁pocestn	-11.3429
▁probodn	-11.3429
▁vyzdvihneš	-11.3429
▁píši	-11.343
▁vzýván	-11.343
▁věrné	-11.343
▁chlubil	-11.343
▁Chvál	-11.343
▁Atalia	-11.343
▁opouštějí	-11.343
▁Marie	-11.3431
▁líst	-11.3431
▁nezapomínej	-11.3431
▁poseká	-11.3431
▁stříle	-11.3431
▁nezabije	-11.3431
▁Jestiť	-11.3431
▁počav	-11.3431
▁poselství	-11.3431
▁Rcete	-11.3431
▁popouzejíc	-11.3431
▁dobytkem	-11.3432
▁lítostivý	-11.3433
▁prodlil	-11.3433
volává	-11.3434
▁tekl	-11.3434
▁hořejší	-11.3435
▁svárliv	-11.3435
▁Machat	-11.3435
▁Charim	-11.3437
▁Elihu	-11.3437
▁žíznivé	-11.3438
▁vady	-11.3444
▁držící	-11.3445
moudře	-11.3445
▁lituj	-11.3446
▁nebral	-11.3448
těšitel	-11.3449
tínal	-11.345
vlekou	-11.3451
▁rozešl	-11.3452
střelil	-11.3455
▁Milova	-11.3456
▁pár	-11.3464
▁utec	-11.3467
vadili	-11.3475
▁střela	-11.3481
▁kyj	-11.3481
▁Mis	-11.3482
▁bab	-11.3484
▁test	-11.3494
▁Pavl	-11.3494
▁Ahod	-11.3502
▁pominou	-11.3503
ráce	-11.3503
vyhledával	-11.3507
mstil	-11.3512
▁zůřivost	-11.3526
▁schoval	-11.3545
▁Žádost	-11.3549
▁Zabulonov	-11.3578
koro	-11.3604
hlédal	-11.3606
▁dané	-11.361
▁nahý	-11.3633
▁Vstoupil	-11.3696
saď	-11.3707
▁složí	-11.3763
▁cizoložstv	-11.3769
▁vysokomysln	-11.3826
▁očekáva	-11.3871
▁raněn	-11.4044
▁zrozen	-11.4044
▁postoupil	-11.4051
▁roztáhn	-11.4068
▁skrej	-11.4074
▁Musi	-11.4101
▁bližní	-11.4103
rozumíte	-11.4121
mlouvá	-11.4128
▁zveleb	-11.4256
▁chová	-11.4261
▁porozumě	-11.4268
▁Odkud	-11.4275
▁mír	-11.428
mordováni	-11.4302
ázeli	-11.4328
▁rozmnožuj	-11.435
jakž	-11.4362
▁rozmnoží	-11.4366
▁staven	-11.4384
▁peníz	-11.4387
▁ustanoven	-11.4387
▁lamp	-11.4394
▁stříbrný	-11.4405
▁Socho	-11.4412
▁Spravedliv	-11.4417
▁Požehnan	-11.4418
▁Far	-11.4424
▁pokryt	-11.4424
▁Přišed	-11.4425
▁ospravedln	-11.4427
bývání	-11.4428
sužoval	-11.4428
istotně	-11.4428
lačněl	-11.4428
ospravedlňuje	-11.4428
ůstávej	-11.4428
▁Arfaxad	-11.4428
▁Fanuel	-11.4428
▁Jerachmeel	-11.4428
▁Joiady	-11.4428
▁Kananejskou	-11.4428
▁Kananejští	-11.4428
▁Kádesbarne	-11.4428
▁Michael	-11.4428
▁Nazaretský	-11.4428
▁Netofatský	-11.4428
▁Nižádný	-11.4428
▁Požehnání	-11.4428
▁Ribla	-11.4428
▁Rozkáza	-11.4428
▁Sanballat	-11.4428
▁Selemiáš	-11.4428
▁Sofoniáš	-11.4428
▁Syrii	-11.4428
▁beránku	-11.4428
▁bezbožně	-11.4428
▁bodlák	-11.4428
▁bázně	-11.4428
▁břicha	-11.4428
▁doplnil	-11.4428
▁hluboké	-11.4428
▁kadidlem	-11.4428
▁lačněti	-11.4428
▁líbezn	-11.4428
▁nakloněn	-11.4428
▁napomínal	-11.4428
▁neposlouchají	-11.4428
▁nepřikázal	-11.4428
▁nečtli	-11.4428
▁obležení	-11.4428
▁odsoudí	-11.4428
▁ozdoba	-11.4428
▁ozdobě	-11.4428
▁panenství	-11.4428
▁pokropil	-11.4428
▁pyšní	-11.4428
▁pěšky	-11.4428
▁přístojí	-11.4428
▁přítomen	-11.4428
▁rozcestí	-11.4428
▁rozpomeň	-11.4428
▁rozveselil	-11.4428
▁sirotka	-11.4428
▁skrýši	-11.4428
▁smutku	-11.4428
▁srozumění	-11.4428
▁strašiti	-11.4428
▁stupních	-11.4428
▁sytosti	-11.4428
▁třásti	-11.4428
▁ukřižovali	-11.4428
▁usoudil	-11.4428
▁zapřisáhl	-11.4428
▁zatracení	-11.4428
▁začátku	-11.4428
▁zdravé	-11.4428
▁zpurní	-11.4428
▁zvěstován	-11.4428
neduživ	-11.4428
▁Abiezer	-11.4428
▁Alžbět	-11.4428
▁Dvanáct	-11.4428
▁Jdouce	-11.4428
▁Jerocham	-11.4428
▁hanba	-11.4428
▁humna	-11.4428
▁neuchýli	-11.4428
▁ohlašov	-11.4428
▁ozdobn	-11.4428
▁ozdobu	-11.4428
▁peřest	-11.4428
▁posluhoval	-11.4428
▁překážk	-11.4428
▁vyrozumí	-11.4428
▁vzývají	-11.4428
▁věčná	-11.4428
▁zhynou	-11.4428
▁záplat	-11.4428
▁čtverhran	-11.4428
▁Mamre	-11.4428
▁chtějí	-11.4428
▁dýchání	-11.4428
▁strakat	-11.4428
▁vstáti	-11.4428
▁žáby	-11.4428
▁Aialon	-11.4428
▁Joiadov	-11.4428
▁Rudého	-11.4428
▁neodvrátil	-11.4428
▁nepůjde	-11.4428
▁Salfad	-11.4428
▁odepřel	-11.4428
▁věšťc	-11.4428
▁Tubal	-11.4429
▁Uzřev	-11.4429
▁vyvrhl	-11.4429
▁Abiron	-11.4429
▁Tsin	-11.4429
▁Zaraha	-11.4429
▁nepovstal	-11.4429
▁zpolehl	-11.4429
▁horlivý	-11.4429
▁odkryl	-11.4429
▁zbořeniny	-11.4429
vozuje	-11.4429
▁věrou	-11.4429
▁jediný	-11.4429
▁libost	-11.4429
▁Můj	-11.4429
▁zimnic	-11.4429
▁krmě	-11.4429
▁věřiti	-11.4429
▁nevešli	-11.4429
▁užasl	-11.4429
▁Beor	-11.4429
▁hlás	-11.4429
▁zahnal	-11.4429
▁plazí	-11.4429
▁zaplet	-11.4429
▁rozhlá	-11.4429
▁bouři	-11.4429
▁ztratí	-11.4429
▁Velice	-11.4429
▁zrušen	-11.4429
▁sevřín	-11.4429
▁neuvěří	-11.4429
▁Gerar	-11.4429
▁Amalechitské	-11.4429
▁vypálili	-11.4429
▁starce	-11.4429
▁Immer	-11.4429
hlídal	-11.4429
▁Pusť	-11.4429
▁přestupník	-11.4429
▁slité	-11.4429
▁rodině	-11.4429
▁ssužovali	-11.4429
▁Věří	-11.4429
▁nerozuměli	-11.4429
▁Kari	-11.4429
▁daň	-11.4429
▁požřel	-11.4429
▁Brán	-11.4429
▁Dátan	-11.4429
▁zahnan	-11.4429
▁líba	-11.4429
▁poškvrňuje	-11.443
▁Afek	-11.443
▁rozsíval	-11.443
▁Híra	-11.443
▁čelist	-11.443
▁nechci	-11.443
▁otče	-11.443
▁List	-11.443
▁Vasti	-11.443
▁vítězství	-11.443
▁vyplněn	-11.443
▁odpovědíti	-11.443
▁nepohr	-11.443
▁rozmlouvali	-11.443
▁kůň	-11.443
▁klesl	-11.443
▁vídati	-11.443
▁modlář	-11.443
▁zlostníků	-11.4431
▁lakom	-11.4431
▁Kterýmž	-11.4431
▁Věz	-11.4431
▁Padl	-11.4432
▁padesátník	-11.4432
▁rybář	-11.4432
▁přenesen	-11.4432
▁obloh	-11.4433
▁huben	-11.4434
▁Adar	-11.4434
▁usiloval	-11.4434
▁zdmi	-11.4434
▁zůstávající	-11.4435
mořil	-11.4435
▁váha	-11.4435
▁vsát	-11.4435
▁Sib	-11.4435
▁zahubí	-11.4438
▁usvadl	-11.4438
▁poslů	-11.4441
▁Stál	-11.445
▁oddané	-11.4451
▁Summ	-11.4451
okusí	-11.4451
▁přisluhující	-11.4451
▁lká	-11.4453
▁uloženo	-11.4454
yňal	-11.4456
▁krmn	-11.4461
▁novin	-11.4482
▁Nechte	-11.4483
lezl	-11.4488
žádej	-11.4493
▁mol	-11.4499
▁Jíž	-11.45
▁rozrážel	-11.4506
▁nábožn	-11.4515
▁zanít	-11.453
▁jelen	-11.4543
suď	-11.4547
vyšoval	-11.4559
▁oděný	-11.4575
pustne	-11.4602
▁pracují	-11.4604
žral	-11.461
vařil	-11.462
▁Godoliášov	-11.4623
▁obmýšle	-11.4629
▁způsobný	-11.4631
vítězil	-11.4671
zdvihne	-11.4678
▁směn	-11.4698
▁zmordován	-11.4699
▁nevycházej	-11.4708
▁Sodomský	-11.472
▁sstupoval	-11.4728
▁opatř	-11.4766
▁vystupoval	-11.4814
▁Azov	-11.4825
▁přiběh	-11.4846
▁uposlechn	-11.4901
volám	-11.4925
▁prázd	-11.495
raditi	-11.4974
▁ukáza	-11.5064
▁těsn	-11.5103
▁povstávají	-11.5106
▁smilstv	-11.5197
▁požehnán	-11.5223
▁Pavlov	-11.5262
▁vysyp	-11.5283
▁statečn	-11.5328
▁odměn	-11.5384
▁Odpovědě	-11.5402
▁Boh	-11.5407
▁nehřeš	-11.5426
▁Beránkov	-11.5438
▁konal	-11.5444
▁svatost	-11.5445
▁důstoj	-11.5453
voď	-11.5456
I	-11.5474
V	-11.5474
▁rozptýlí	-11.5477
▁navrácen	-11.5481
volán	-11.5499
▁užitk	-11.5501
štění	-11.5504
▁Který	-11.5509
kládaje	-11.5516
želel	-11.5517
svobodí	-11.552
▁Nepro	-11.5524
▁největší	-11.5526
▁pomazané	-11.5526
idouce	-11.5529
▁pomíje	-11.554
▁Berechiáš	-11.554
▁Ukázal	-11.554
▁Zlořeč	-11.554
▁formu	-11.554
▁nejdalší	-11.554
▁povstanu	-11.554
▁prospíva	-11.554
▁převrací	-11.554
▁zahlazen	-11.554
hrozil	-11.554
krývej	-11.554
náležitě	-11.554
puzení	-11.554
vlášť	-11.554
vyzdvihuj	-11.554
ýstřelek	-11.554
▁Amosův	-11.554
▁Assyrie	-11.554
▁Asverus	-11.554
▁Felix	-11.554
▁Galilejský	-11.554
▁Jebuzea	-11.554
▁Jekoniáš	-11.554
▁Kaifáš	-11.554
▁Kareachův	-11.554
▁Kraloval	-11.554
▁Maličko	-11.554
▁Netinejských	-11.554
▁Neříkej	-11.554
▁Pospěš	-11.554
▁Rabsace	-11.554
▁Slunce	-11.554
▁Svatého	-11.554
▁Svěde	-11.554
▁Sáron	-11.554
▁Ségor	-11.554
▁Tarsu	-11.554
▁Tofet	-11.554
▁Zdráv	-11.554
▁Zebadiáš	-11.554
▁Zebedeov	-11.554
▁Zichri	-11.554
▁bodláčí	-11.554
▁cedul	-11.554
▁chomer	-11.554
▁dlužen	-11.554
▁dvořan	-11.554
▁díkčinění	-11.554
▁hanbou	-11.554
▁hrdličky	-11.554
▁kortýn	-11.554
▁mladistv	-11.554
▁modlitbou	-11.554
▁modliteb	-11.554
▁modrý	-11.554
▁moudřejší	-11.554
▁mudrce	-11.554
▁napájel	-11.554
▁nejhorší	-11.554
▁nejmladší	-11.554
▁nejznamenitější	-11.554
▁nevyslyší	-11.554
▁nezhřešil	-11.554
▁nečistí	-11.554
▁nižádné	-11.554
▁odpočine	-11.554
▁ozdoben	-11.554
▁ozdoby	-11.554
▁pacholík	-11.554
▁patřil	-11.554
▁posvěcován	-11.554
▁povstati	-11.554
▁prašiv	-11.554
▁prokřikování	-11.554
▁prospěje	-11.554
▁přepásán	-11.554
▁přivstávaje	-11.554
▁příjmí	-11.554
▁přívětivost	-11.554
▁rodičové	-11.554
▁rozchváta	-11.554
▁rozdvoj	-11.554
▁rozezná	-11.554
▁rozšířil	-11.554
▁sladké	-11.554
▁slunci	-11.554
▁soumrak	-11.554
▁splnil	-11.554
▁spoluslužebník	-11.554
▁spěšně	-11.554
▁ssužují	-11.554
▁stavitel	-11.554
▁stihati	-11.554
▁svědka	-11.554
▁truhle	-11.554
▁tázati	-11.554
▁ukrutnost	-11.554
▁usmrcen	-11.554
▁učinitel	-11.554
▁velikanoc	-11.554
▁velikomocn	-11.554
▁velikunoc	-11.554
▁vepřů	-11.554
▁vyzdvižen	-11.554
▁zahladiti	-11.554
▁zasnouben	-11.554
▁zbouřil	-11.554
▁zpurná	-11.554
▁zpurné	-11.554
▁zpustnou	-11.554
▁závazk	-11.554
▁závorami	-11.554
▁útočišťn	-11.554
▁Říká	-11.554
▁žoldnéřů	-11.554
▁Bathuel	-11.554
▁Cejly	-11.554
▁Jerimot	-11.554
▁Sesák	-11.554
▁kožené	-11.554
▁královně	-11.554
▁mezky	-11.554
▁nalezna	-11.554
▁opravdov	-11.554
▁peleší	-11.554
▁rozbroj	-11.554
▁skrýše	-11.554
▁zapřel	-11.554
▁závaží	-11.554
▁Měsíc	-11.554
▁domnívá	-11.554
▁krávy	-11.554
▁Ittai	-11.554
▁odvrať	-11.554
▁pilností	-11.554
▁trefil	-11.554
▁Dobrá	-11.554
▁nemožné	-11.554
▁pomíjí	-11.554
▁rozličné	-11.554
▁roztažen	-11.554
▁středm	-11.554
▁tlust	-11.554
▁vyřkl	-11.554
▁zrnatá	-11.554
▁Třetí	-11.554
▁hádání	-11.554
▁městeček	-11.554
▁Judově	-11.554
▁Maceda	-11.554
▁lůžk	-11.554
▁rozšíří	-11.554
▁rynk	-11.554
▁zavrhu	-11.554
▁Poslav	-11.554
▁střechách	-11.554
▁někomu	-11.554
▁peklo	-11.554
▁večeři	-11.554
▁Betsan	-11.554
▁cihel	-11.554
▁natahují	-11.554
▁Mello	-11.554
▁rozplynou	-11.554
▁vyčištěn	-11.554
▁slonových	-11.554
▁Jachin	-11.554
▁nepatří	-11.554
slýchati	-11.554
▁Nobe	-11.554
▁jiskr	-11.554
pomáhá	-11.554
▁sirou	-11.554
▁nakrm	-11.554
▁ponukl	-11.554
▁podvod	-11.554
▁skrývaj	-11.554
▁Javan	-11.554
▁žíní	-11.554
▁žily	-11.554
záleží	-11.554
▁milujte	-11.554
▁přičiní	-11.554
▁Znamen	-11.554
▁povstává	-11.554
▁klasy	-11.554
▁nasbíral	-11.554
▁ruší	-11.554
▁nestalo	-11.554
▁kladiv	-11.554
▁Etam	-11.554
▁hádají	-11.554
▁přistroj	-11.554
▁zapadlo	-11.554
▁prostěradl	-11.554
▁věřte	-11.554
▁Nevíte	-11.554
▁Zjev	-11.554
mítej	-11.554
▁tažení	-11.554
▁zetěm	-11.554
▁Médské	-11.5541
▁mdlí	-11.5541
▁rumu	-11.5541
▁obcoval	-11.5541
stěhoval	-11.5541
▁třásli	-11.5541
▁hluč	-11.5541
▁všechněch	-11.5541
▁Zakur	-11.5541
▁nahotu	-11.5541
▁Aravn	-11.5541
▁Přistupte	-11.5541
zeptej	-11.5541
▁Etan	-11.5541
▁dopustí	-11.5542
▁Zkaz	-11.5542
▁nutil	-11.5542
▁Slavi	-11.5542
▁Arbe	-11.5542
hlédněte	-11.5543
▁postiti	-11.5543
▁silnou	-11.5543
▁hádal	-11.5543
▁libé	-11.5543
▁Jsou	-11.5543
▁prudc	-11.5544
▁nebuďte	-11.5544
▁Jetro	-11.5545
▁obrub	-11.5545
▁ostré	-11.5546
▁Sobn	-11.5548
▁Cet	-11.555
▁pohuben	-11.5552
▁vyryt	-11.5552
▁povolaný	-11.5553
▁tajno	-11.5559
▁Pět	-11.5562
▁netaj	-11.5564
▁udělaný	-11.5564
▁Nevím	-11.557
▁udic	-11.5583
▁pokoř	-11.5611
ptával	-11.5617
▁Amonov	-11.5618
▁koukol	-11.5621
rocítiv	-11.5669
lasové	-11.5675
▁sevřen	-11.57
▁pohnou	-11.571
kostmi	-11.5725
▁Říma	-11.5754
▁zachovávej	-11.5771
drží	-11.5808
▁hroz	-11.5811
▁zavin	-11.5823
▁zabij	-11.5824
▁Bálov	-11.5828
hlédni	-11.5868
vlékl	-11.5878
▁odpustí	-11.5896
▁stroskot	-11.5936
▁vařen	-11.5991
hradil	-11.6
▁neopustí	-11.606
▁Vyšed	-11.6114
▁Helkiášov	-11.6117
oboří	-11.6118
▁nevyhladí	-11.6121
▁nešlechetn	-11.6145
volav	-11.6158
▁nevyšl	-11.62
▁zmocni	-11.6211
▁měděn	-11.6229
▁Vyslyš	-11.6258
▁rozmlouv	-11.6295
statečně	-11.6404
▁svlék	-11.642
poslechnou	-11.6526
▁zpustl	-11.656
▁vysvoboz	-11.6571
▁Týr	-11.6573
čtěte	-11.6579
▁smýšlej	-11.6628
odvrátí	-11.6678
▁obklíč	-11.6685
▁milosrdn	-11.6687
▁slýchal	-11.6694
▁Jezukrist	-11.6713
hledati	-11.6723
kteréž	-11.6724
N	-11.6724
▁vzbudí	-11.6727
▁vyzdvihn	-11.6735
▁proměnn	-11.674
▁Spasitel	-11.6746
učeni	-11.6748
▁sšikova	-11.6753
▁pomazán	-11.6755
▁bojovný	-11.6765
havností	-11.677
▁samé	-11.6772
▁jistot	-11.6783
▁téhodn	-11.6784
okolení	-11.6786
ěkteří	-11.6788
▁zmordovan	-11.679
▁Damašské	-11.679
▁Estaol	-11.679
▁Odvrať	-11.679
▁Safat	-11.679
▁nazůveš	-11.679
▁pospěš	-11.679
▁příbuzné	-11.679
▁pšeničn	-11.679
▁Šetř	-11.679
▁Adulam	-11.679
▁Azmavet	-11.679
▁Bichri	-11.679
▁Chebar	-11.679
▁Chámos	-11.679
▁Cypru	-11.679
▁Debora	-11.679
▁Doufej	-11.679
▁Edrei	-11.679
▁Elifelet	-11.679
▁Elioenai	-11.679
▁Gelboe	-11.679
▁Hadadezer	-11.679
▁Hefer	-11.679
▁Hevejský	-11.679
▁Idumejská	-11.679
▁Kadmiel	-11.679
▁Manahem	-11.679
▁Naposledy	-11.679
▁Nehemiáš	-11.679
▁Neučiní	-11.679
▁Nikdy	-11.679
▁Národ	-11.679
▁Oznámil	-11.679
▁Prozpěvuj	-11.679
▁Právě	-11.679
▁Psáno	-11.679
▁Rebeku	-11.679
▁Rechum	-11.679
▁Sebeon	-11.679
▁Sechaniáš	-11.679
▁Selomit	-11.679
▁Serebiáš	-11.679
▁Způsob	-11.679
▁biskup	-11.679
▁bárky	-11.679
▁chráni	-11.679
▁cizozemce	-11.679
▁devíti	-11.679
▁hanbiti	-11.679
▁holoubátek	-11.679
▁kantoru	-11.679
▁klénoty	-11.679
▁milovník	-11.679
▁modlitbách	-11.679
▁mudrců	-11.679
▁neginot	-11.679
▁neklaněl	-11.679
▁nenalezne	-11.679
▁neobtěžoval	-11.679
▁neposlouchá	-11.679
▁nevyplnil	-11.679
▁odloučil	-11.679
▁odsoudil	-11.679
▁odvrátiv	-11.679
▁otvíral	-11.679
▁ošemetn	-11.679
▁pacholátko	-11.679
▁pavlače	-11.679
▁počítati	-11.679
▁průduch	-11.679
▁psáti	-11.679
▁převelik	-11.679
▁připodobní	-11.679
▁připodobněn	-11.679
▁rozezna	-11.679
▁rozličných	-11.679
▁rozpomíná	-11.679
▁rozráží	-11.679
▁rozveselí	-11.679
▁sbírají	-11.679
▁sehltil	-11.679
▁slitováv	-11.679
▁snášeti	-11.679
▁souženi	-11.679
▁spikli	-11.679
▁spomožení	-11.679
▁spuntoval	-11.679
▁strniště	-11.679
▁svědčil	-11.679
▁trpělivě	-11.679
▁trvánliv	-11.679
▁těhotná	-11.679
▁uctivost	-11.679
▁ukamenován	-11.679
▁ukrutné	-11.679
▁ukrutný	-11.679
▁utíkaje	-11.679
▁ušlechtil	-11.679
▁vinobraní	-11.679
▁vrchoviště	-11.679
▁vyhlásil	-11.679
▁vyhlášen	-11.679
▁vykořeněn	-11.679
▁vynášeti	-11.679
▁vyslýchal	-11.679
▁vztažená	-11.679
▁vzteklost	-11.679
▁větrové	-11.679
▁zkvetne	-11.679
▁znamenití	-11.679
▁zplodí	-11.679
▁zpytuje	-11.679
▁zvítězí	-11.679
▁zůstati	-11.679
▁úsvitě	-11.679
▁člověče	-11.679
▁řvoucí	-11.679
▁šibenici	-11.679
▁špehéři	-11.679
▁šupin	-11.679
▁šňůr	-11.679
požádáš	-11.679
stižiteln	-11.679
ukrutně	-11.679
▁Akkub	-11.679
▁Blízk	-11.679
▁Bozra	-11.679
▁Desát	-11.679
▁Raab	-11.679
▁Sunamitsk	-11.679
▁kázati	-11.679
▁kázně	-11.679
▁lopat	-11.679
▁mandlov	-11.679
▁ničemný	-11.679
▁paběr	-11.679
▁pohodlí	-11.679
▁pytel	-11.679
▁rouhají	-11.679
▁skropen	-11.679
▁spomoz	-11.679
▁věrnost	-11.679
▁vězňové	-11.679
▁zradil	-11.679
bkličují	-11.679
hlaste	-11.679
▁Bezeleel	-11.679
▁Faraonovy	-11.679
▁Gergeze	-11.679
▁Olibam	-11.679
▁dráč	-11.679
▁nezůstane	-11.679
▁ráně	-11.679
▁sirobu	-11.679
▁stezkách	-11.679
▁styděl	-11.679
▁vrátí	-11.679
▁zmínk	-11.679
▁Říkají	-11.679
▁Zabdi	-11.679
▁hledaje	-11.679
▁poznej	-11.679
▁prvnější	-11.679
▁rozvázán	-11.679
▁velryb	-11.679
▁Nemohu	-11.679
▁kotlíky	-11.679
▁mléko	-11.679
▁rozprchn	-11.679
▁vyvrhu	-11.679
škliví	-11.679
▁mannu	-11.679
▁uvrhu	-11.679
▁citar	-11.679
▁důvod	-11.679
▁políbení	-11.679
▁umrou	-11.679
▁utrhač	-11.679
▁utrhání	-11.679
▁utvrzuj	-11.679
▁neobřezaného	-11.679
▁rozvodnilý	-11.679
▁tlačí	-11.679
▁Jemini	-11.679
▁pomíjející	-11.679
▁zlehčen	-11.679
▁zpytov	-11.679
▁Ofra	-11.679
▁potvrzuj	-11.679
▁doufej	-11.679
▁zemřeme	-11.679
▁rozbit	-11.679
▁svrhl	-11.679
▁podobní	-11.679
▁polapen	-11.679
▁střeše	-11.679
▁husté	-11.679
▁chudí	-11.679
▁přepaš	-11.679
▁smiloval	-11.679
▁Budu	-11.679
▁Judovo	-11.679
▁Nejsem	-11.679
▁nalézají	-11.679
▁roznícen	-11.679
▁klesnou	-11.679
▁usilují	-11.679
▁zlámán	-11.679
▁pekle	-11.679
▁střelci	-11.679
▁Mešech	-11.679
▁pečen	-11.679
▁oblacích	-11.679
▁tichosti	-11.679
▁čekati	-11.679
▁naříkati	-11.679
▁oděnc	-11.679
přežívá	-11.679
▁doufali	-11.679
vozují	-11.679
▁péče	-11.679
▁těžký	-11.679
pevná	-11.679
▁vážnost	-11.679
▁nepoškvrňujte	-11.679
▁rodinu	-11.679
▁Strach	-11.679
▁mohu	-11.679
rušiti	-11.679
▁představil	-11.679
▁stydí	-11.679
▁uděláte	-11.679
▁skrýváš	-11.679
▁těžkou	-11.679
▁dobytčetem	-11.679
▁podroben	-11.679
▁povstaň	-11.679
▁Zabad	-11.679
▁napomínám	-11.679
▁Jabín	-11.679
▁dýl	-11.679
▁Nechci	-11.679
▁odešlo	-11.679
▁čarodějník	-11.679
▁rozplýv	-11.679
▁poznav	-11.6791
▁potýkal	-11.6791
▁kazil	-11.6791
▁Varuj	-11.6791
▁strán	-11.6791
▁knížatstv	-11.6791
▁víčk	-11.6792
▁podivil	-11.6792
▁pálí	-11.6792
▁nestál	-11.6792
▁Enos	-11.6792
▁nebýval	-11.6792
▁zpour	-11.6792
▁nepomine	-11.6792
▁hnát	-11.6793
▁oslavován	-11.6793
▁vylévají	-11.6794
▁utrhají	-11.6794
▁sňal	-11.6794
▁Lůz	-11.6795
▁vypsán	-11.6796
strašen	-11.6796
▁setřín	-11.6796
▁Jobab	-11.6797
▁dásní	-11.6797
▁panno	-11.68
▁ctitel	-11.68
▁Mlč	-11.6801
řezán	-11.6801
▁poslaný	-11.6801
Ezer	-11.6802
▁zběř	-11.6805
▁červené	-11.6809
▁polehč	-11.681
▁vystoupil	-11.6885
přímá	-11.6916
oslavoval	-11.7015
▁nevcházej	-11.7058
▁nedopustí	-11.7068
aret	-11.7075
pustíš	-11.7115
▁vystavil	-11.7259
▁pokloniv	-11.7272
▁otevří	-11.7288
chovávají	-11.7289
hléb	-11.7295
rotivníci	-11.7349
▁Nábalov	-11.7356
skočil	-11.7385
▁nenašl	-11.7393
▁neodcház	-11.7434
▁rozbij	-11.7445
▁přísluš	-11.747
okazuj	-11.7472
▁rozpomenu	-11.7539
pléniti	-11.7539
souzení	-11.7614
▁pohledě	-11.7693
voluj	-11.7746
▁Hebrejsk	-11.7768
chopiv	-11.7807
▁Joakimov	-11.7824
▁zraněn	-11.7889
▁zůstan	-11.7924
štípím	-11.7976
nocoval	-11.7981
těšiti	-11.8035
▁kořist	-11.8088
božný	-11.8089
▁neposlouchal	-11.8123
▁pocházejí	-11.8125
hradách	-11.8134
kropí	-11.8175
▁koráb	-11.818
▁oznámen	-11.8183
▁naříká	-11.8191
kázaní	-11.8195
▁cedrový	-11.8203
▁úpě	-11.8206
odobenství	-11.8214
▁zapečet	-11.8214
krýval	-11.8215
▁přisáhn	-11.8216
▁Refa	-11.8216
▁jarmar	-11.8218
pouzení	-11.8218
prázdnil	-11.8218
x	-11.8218
▁Achinoam	-11.8218
▁Amorejští	-11.8218
▁Assyrští	-11.8218
▁Balsazar	-11.8218
▁Binnui	-11.8218
▁Gedor	-11.8218
▁Hevea	-11.8218
▁Hinnom	-11.8218
▁Jarmut	-11.8218
▁Jefonův	-11.8218
▁Kariataim	-11.8218
▁Korintu	-11.8218
▁Mahalaleel	-11.8218
▁Mattitiáš	-11.8218
▁Nazaretského	-11.8218
▁Netinejští	-11.8218
▁Ničeho	-11.8218
▁Otevři	-11.8218
▁Otoniel	-11.8218
▁Ozdob	-11.8218
▁Požehnejž	-11.8218
▁Rahuel	-11.8218
▁Romeliáš	-11.8218
▁Sefarvaim	-11.8218
▁Svědectví	-11.8218
▁Timoteovi	-11.8218
▁Umlkn	-11.8218
▁Vystříhej	-11.8218
▁Vysvoboď	-11.8218
▁Zahanben	-11.8218
▁Zdvih	-11.8218
▁chřípě	-11.8218
▁drabantů	-11.8218
▁dělníci	-11.8218
▁holubici	-11.8218
▁hospodu	-11.8218
▁hospodě	-11.8218
▁jednorožc	-11.8218
▁jízdných	-11.8218
▁korouhv	-11.8218
▁královny	-11.8218
▁lehčej	-11.8218
▁lilium	-11.8218
▁malomocné	-11.8218
▁milovníci	-11.8218
▁nasytiti	-11.8218
▁nedopouští	-11.8218
▁nemoudré	-11.8218
▁nenasytí	-11.8218
▁neposkvrněn	-11.8218
▁nerozmohl	-11.8218
▁nestrachuj	-11.8218
▁neukázal	-11.8218
▁nezlořeč	-11.8218
▁oharkům	-11.8218
▁olivového	-11.8218
▁ozdoboval	-11.8218
▁pahrbek	-11.8218
▁pekelného	-11.8218
▁poslechněte	-11.8218
▁posmívati	-11.8218
▁postranní	-11.8218
▁potáhnou	-11.8218
▁povinni	-11.8218
▁poškvrňovati	-11.8218
▁požehnaná	-11.8218
▁požehnav	-11.8218
▁procítil	-11.8218
▁proklínání	-11.8218
▁prokřikova	-11.8218
▁přispěj	-11.8218
▁příbuzní	-11.8218
▁rodička	-11.8218
▁rozehnal	-11.8218
▁roznemoh	-11.8218
▁shlazen	-11.8218
▁sirotky	-11.8218
▁směsice	-11.8218
▁sochorové	-11.8218
▁ssoužil	-11.8218
▁stodoly	-11.8218
▁stébl	-11.8218
▁udatnost	-11.8218
▁ukamenuj	-11.8218
▁umrtven	-11.8218
▁umývání	-11.8218
▁usmrt	-11.8218
▁velikonoc	-11.8218
▁vstávaje	-11.8218
▁vycvičen	-11.8218
▁vápnem	-11.8218
▁výbornou	-11.8218
▁zaplatím	-11.8218
▁zdravý	-11.8218
▁zhřeší	-11.8218
▁znamenaj	-11.8218
▁znamenitější	-11.8218
▁zvučně	-11.8218
▁čarodějníci	-11.8218
▁čáry	-11.8218
▁řezati	-11.8218
▁šlepějí	-11.8218
▁špižírn	-11.8218
▁štědře	-11.8218
▁štěstí	-11.8218
formován	-11.8218
▁Betaven	-11.8218
▁Betsaid	-11.8218
▁Ceneret	-11.8218
▁Elnatan	-11.8218
▁Faraonově	-11.8218
▁Gamaliel	-11.8218
▁Gomer	-11.8218
▁Goréb	-11.8218
▁Krev	-11.8218
▁Matuzalém	-11.8218
▁Mizael	-11.8218
▁Naplň	-11.8218
▁Náhas	-11.8218
▁Osvědč	-11.8218
▁Padesát	-11.8218
▁Peleg	-11.8218
▁Pokryt	-11.8218
▁Sebaniáš	-11.8218
▁Seboim	-11.8218
▁Simron	-11.8218
▁Sinear	-11.8218
▁hmyz	-11.8218
▁humně	-11.8218
▁krkavc	-11.8218
▁mezcích	-11.8218
▁míse	-11.8218
▁nesmrteln	-11.8218
▁odpočíval	-11.8218
▁plavci	-11.8218
▁pohrůžk	-11.8218
▁posavad	-11.8218
▁požádal	-11.8218
▁rozhojňuj	-11.8218
▁sehltí	-11.8218
▁spáchal	-11.8218
▁tvrdý	-11.8218
▁vyčistí	-11.8218
▁vzebral	-11.8218
▁věčně	-11.8218
▁zapříš	-11.8218
▁zstaral	-11.8218
▁úlisn	-11.8218
▁účin	-11.8218
▁šeňkýř	-11.8218
▁štokové	-11.8218
▁žížal	-11.8218
▁Arioch	-11.8218
▁Elkánov	-11.8218
▁Jabok	-11.8218
▁Peletej	-11.8218
▁jableč	-11.8218
▁jací	-11.8218
▁ocelivé	-11.8218
▁outku	-11.8218
▁průchod	-11.8218
▁rozsedlin	-11.8218
▁vykoupí	-11.8218
▁zamítá	-11.8218
▁zhyne	-11.8218
yvyšovati	-11.8218
▁Háran	-11.8218
▁Nevejde	-11.8218
▁Starší	-11.8218
▁Svatém	-11.8218
▁napomínání	-11.8218
kvetl	-11.8218
▁Faraonovu	-11.8218
▁odolati	-11.8218
▁poklek	-11.8218
▁smutek	-11.8218
▁vštípen	-11.8218
▁zvěše	-11.8218
2:1	-11.8218
attenai	-11.8218
▁Farize	-11.8218
▁bouřk	-11.8218
▁dchnutí	-11.8218
▁dobroty	-11.8218
▁lodech	-11.8218
▁podmaněn	-11.8218
▁počínají	-11.8218
▁Nevezme	-11.8218
▁cedroví	-11.8218
▁odměřeno	-11.8218
▁přičinil	-11.8218
▁rozprchl	-11.8218
▁zřetel	-11.8218
▁Půjdu	-11.8218
▁nepršel	-11.8218
▁vymítal	-11.8218
▁Zůstaň	-11.8218
▁Atén	-11.8218
▁dlaň	-11.8218
▁podpír	-11.8218
▁vzkládání	-11.8218
▁Chuzi	-11.8218
▁Ladan	-11.8218
▁hranic	-11.8218
▁otázk	-11.8218
▁vicher	-11.8218
▁Mariji	-11.8218
▁Modlitb	-11.8218
▁oslavil	-11.8218
▁pochytí	-11.8218
▁nasytil	-11.8218
▁obloze	-11.8218
▁pozván	-11.8218
▁promluviv	-11.8218
▁vichru	-11.8218
▁vyvýší	-11.8218
▁hnoje	-11.8218
▁ukrácen	-11.8218
▁zrostu	-11.8218
▁jedovat	-11.8218
▁rozzlob	-11.8218
▁Sloup	-11.8218
▁Jamin	-11.8218
▁posmívají	-11.8218
▁nedaleko	-11.8218
▁nynější	-11.8218
▁Járed	-11.8218
▁panně	-11.8218
▁libuje	-11.8218
▁Patř	-11.8218
▁zděšen	-11.8219
▁Amosov	-11.8219
▁žluč	-11.8219
▁svítil	-11.8219
▁klatb	-11.8219
▁zláman	-11.8219
▁Nenavrátí	-11.8219
▁osedlal	-11.8219
▁shovív	-11.8219
▁zrnaté	-11.8219
▁zhojen	-11.8219
▁sekera	-11.8219
▁udatně	-11.8219
▁dluh	-11.8219
▁neoblíb	-11.8219
pomůže	-11.8219
▁pecník	-11.822
Truhl	-11.822
▁Neriášov	-11.822
dpůrc	-11.822
▁pevně	-11.822
▁Zelf	-11.822
▁kadeř	-11.822
▁obmyt	-11.822
▁Chtěl	-11.822
tlačeného	-11.822
▁splet	-11.822
▁Lebni	-11.822
odsuzuj	-11.8221
▁Musí	-11.8221
▁ráč	-11.8221
▁lekej	-11.8222
▁Kterýchž	-11.8222
▁vystupující	-11.8223
▁nehodn	-11.8224
▁rozvažuj	-11.8224
▁proměněn	-11.8224
▁Tvář	-11.8225
▁nenadál	-11.8225
▁husl	-11.8228
▁ustanovuj	-11.8233
▁čekají	-11.8233
▁tabul	-11.8235
▁zavede	-11.8236
▁samotn	-11.8239
sedne	-11.824
▁Nécho	-11.8245
voláš	-11.8247
pálenin	-11.8256
vstával	-11.8275
▁prozřeteln	-11.8313
plakal	-11.8332
▁cizoložník	-11.8362
▁znamená	-11.8379
▁házel	-11.8383
▁zastín	-11.8482
▁podvrácen	-11.8504
▁vynaklád	-11.8514
odpovídej	-11.8548
▁Achitofelov	-11.8618
▁uchýli	-11.8656
chápá	-11.8661
▁zachvac	-11.8672
▁hloží	-11.8686
pojen	-11.8791
▁nezapomenu	-11.8815
mordují	-11.8819
patřiv	-11.9228
raněných	-11.9246
▁klanějíc	-11.9256
▁ztrápen	-11.9315
cházejte	-11.9371
vztahuj	-11.9374
▁Každ	-11.9414
▁vynášej	-11.9567
rozumíš	-11.9653
mecítmého	-11.9773
převrácen	-11.9779
▁popouzel	-11.9789
rálovství	-11.9814
náleží	-11.9817
vědomí	-11.9818
D	-11.9818
O	-11.9819
Z	-11.9819
▁kobylk	-11.985
mlouvej	-11.9859
slavovati	-11.9867
cizoložil	-11.9868
▁jednomysln	-11.9875
orodila	-11.988
yšlení	-11.9883
▁Bigva	-11.9885
▁Nepůjde	-11.9885
▁Příchozí	-11.9885
▁převyšuje	-11.9885
hinnom	-11.9885
pohybuje	-11.9885
tvořím	-11.9885
zatvrzujte	-11.9885
▁Abarim	-11.9885
▁Alexandr	-11.9885
▁Amiudův	-11.9885
▁Amorea	-11.9885
▁Aziongaber	-11.9885
▁Azrikam	-11.9885
▁Bazemat	-11.9885
▁Bebai	-11.9885
▁Belfegor	-11.9885
▁Bezbožní	-11.9885
▁Bukki	-11.9885
▁Cinejského	-11.9885
▁Cizozemc	-11.9885
▁Císon	-11.9885
▁Damašek	-11.9885
▁Dison	-11.9885
▁Ebedmelech	-11.9885
▁Eliazaf	-11.9885
▁Engadi	-11.9885
▁Eufraten	-11.9885
▁Eškol	-11.9885
▁Gebbeton	-11.9885
▁Gomoře	-11.9885
▁Hazerot	-11.9885
▁Hebrejští	-11.9885
▁Iškariotského	-11.9885
▁Jachaziel	-11.9885
▁Jazaniáš	-11.9885
▁Jediael	-11.9885
▁Jedutunovi	-11.9885
▁Jektan	-11.9885
▁Kananea	-11.9885
▁Malluch	-11.9885
▁Manželk	-11.9885
▁Nakloň	-11.9885
▁Náiot	-11.9885
▁Očekává	-11.9885
▁Rebeky	-11.9885
▁Seforův	-11.9885
▁Slavnost	-11.9885
▁Syrie	-11.9885
▁Tachpanches	-11.9885
▁Tiglatfalazar	-11.9885
▁Tolmai	-11.9885
▁Učinitel	-11.9885
▁Učiněn	-11.9885
▁Věděl	-11.9885
▁Zebul	-11.9885
▁brázd	-11.9885
▁břitv	-11.9885
▁chrastin	-11.9885
▁chvalitebn	-11.9885
▁devátý	-11.9885
▁dražší	-11.9885
▁dvojnásobně	-11.9885
▁dychtí	-11.9885
▁dětmi	-11.9885
▁haklíků	-11.9885
▁hluboký	-11.9885
▁hospody	-11.9885
▁hořké	-11.9885
▁hudebné	-11.9885
▁jarní	-11.9885
▁komůrek	-11.9885
▁krmičku	-11.9885
▁krumpovan	-11.9885
▁kupčíval	-11.9885
▁kvělte	-11.9885
▁lysina	-11.9885
▁mandát	-11.9885
▁meškati	-11.9885
▁naroditi	-11.9885
▁nejbližší	-11.9885
E	-12.1818
L	-12.7651
R	-12.7652
Š	-13.2652
#	-14.2703
Ď	-14.2704
Ú	-14.2705
]	-14.2706
Ó	-14.2707
Č	-14.2708
Ř	-14.2709
(	-14.271
U	-14.2711
F	-14.2712
G	-14.2713
C	-14.2714
ú	-14.2715
K	-14.2716
B	-14.2717
H	-14.2718
Í	-14.2718
Ý	-14.2718
