<pad>	0
</s>	0
<unk>	0
▁t	-0
he	-1
▁a	-2
in	-3
▁the	-4
▁o	-5
re	-6
er	-7
▁s	-8
nd	-9
▁w	-10
on	-11
at	-12
is	-13
en	-14
▁of	-15
it	-16
▁c	-17
▁b	-18
or	-19
es	-20
▁f	-21
ed	-22
▁p	-23
ou	-24
an	-25
al	-26
ar	-27
▁in	-28
▁and	-29
ing	-30
▁to	-31
▁m	-32
▁d	-33
ion	-34
▁h	-35
ic	-36
as	-37
le	-38
▁th	-39
om	-40
ent	-41
ll	-42
▁T	-43
▁n	-44
▁A	-45
▁be	-46
▁e	-47
ve	-48
▁I	-49
▁is	-50
▁re	-51
ct	-52
▁S	-53
▁l	-54
ro	-55
st	-56
▁y	-57
ut	-58
▁g	-59
id	-60
ot	-61
se	-62
ur	-63
▁for	-64
ation	-65
▁wh	-66
im	-67
ce	-68
ay	-69
ly	-70
▁you	-71
ver	-72
▁u	-73
ad	-74
▁The	-75
ow	-76
▁on	-77
am	-78
▁C	-79
▁P	-80
il	-81
et	-82
▁-	-83
▁M	-84
ir	-85
▁H	-86
▁that	-87
ig	-88
ch	-89
ment	-90
▁he	-91
▁as	-92
ith	-93
ra	-94
▁B	-95
ol	-96
▁(	-97
▁it	-98
ill	-99
▁an	-100
▁or	-101
▁W	-102
if	-103
▁with	-104
ul	-105
od	-106
▁not	-107
ess	-108
▁are	-109
ter	-110
ri	-111
ge	-112
▁st	-113
▁de	-114
▁ha	-115
her	-116
▁G	-117
▁D	-118
▁we	-119
▁pro	-120
▁se	-121
▁R	-122
▁con	-123
ld	-124
res	-125
ate	-126
rom	-127
▁su	-128
ab	-129
op	-130
ers	-131
▁'	-132
nt	-133
▁L	-134
ak	-135
▁by	-136
▁com	-137
ist	-138
ain	-139
th	-140
▁sh	-141
pe	-142
▁1	-143
▁N	-144
▁ex	-145
est	-146
▁have	-147
iv	-148
▁was	-149
ity	-150
▁from	-151
ht	-152
▁them	-153
▁will	-154
▁O	-155
us	-156
all	-157
and	-158
ie	-159
▁who	-160
▁this	-161
▁they	-162
em	-163
ich	-164
▁v	-165
ac	-166
▁F	-167
▁E	-168
ant	-169
ive	-170
um	-171
ah	-172
os	-173
qu	-174
▁r	-175
ore	-176
▁which	-177
▁He	-178
▁Ind	-179
▁at	-180
▁has	-181
▁k	-182
ies	-183
pp	-184
red	-185
el	-186
ction	-187
art	-188
ort	-189
our	-190
ard	-191
▁ne	-192
▁their	-193
un	-194
▁al	-195
▁his	-196
ia	-197
ould	-198
▁All	-199
ure	-200
▁all	-201
▁2	-202
ord	-203
oc	-204
▁K	-205
pt	-206
▁le	-207
ind	-208
ong	-209
ight	-210
te	-211
▁ch	-212
▁do	-213
▁whe	-214
ust	-215
ose	-216
ous	-217
ther	-218
▁In	-219
ag	-220
age	-221
ud	-222
ated	-223
▁U	-224
▁your	-225
ial	-226
ome	-227
▁We	-228
▁pl	-229
ount	-230
▁wor	-231
▁Allah	-232
▁Th	-233
▁tr	-234
av	-235
▁me	-236
cc	-237
ip	-238
▁And	-239
▁go	-240
rou	-241
▁dis	-242
ost	-243
ance	-244
ide	-245
ect	-246
▁us	-247
▁sa	-248
ok	-249
▁pe	-250
ear	-251
ff	-252
▁ab	-253
▁man	-254
ry	-255
ans	-256
▁India	-257
▁un	-258
ame	-259
▁but	-260
▁can	-261
▁one	-262
▁comp	-263
ice	-264
able	-265
▁there	-266
▁J	-267
▁so	-268
▁him	-269
▁en	-270
ast	-271
nder	-272
▁up	-273
ary	-274
ish	-275
▁ad	-276
▁been	-277
▁any	-278
ople	-279
so	-280
▁j	-281
▁It	-282
ap	-283
▁were	-284
au	-285
ult	-286
▁im	-287
now	-288
ik	-289
▁per	-290
ub	-291
▁people	-292
one	-293
▁when	-294
gh	-295
▁"	-296
▁other	-297
ib	-298
▁V	-299
og	-300
▁ag	-301
ations	-302
ress	-303
ine	-304
ru	-305
ake	-306
iz	-307
pl	-308
ical	-309
▁out	-310
very	-311
ition	-312
▁said	-313
out	-314
per	-315
▁those	-316
▁cont	-317
▁am	-318
ail	-319
ire	-320
▁res	-321
are	-322
ings	-323
ign	-324
vers	-325
ens	-326
vel	-327
▁ar	-328
▁part	-329
▁inc	-330
▁also	-331
ue	-332
lic	-333
ime	-334
ence	-335
▁had	-336
▁/	-337
▁bel	-338
ade	-339
ath	-340
▁no	-341
ile	-342
▁what	-343
ase	-344
00	-345
ace	-346
ass	-347
orm	-348
ep	-349
ber	-350
▁its	-351
▁know	-352
▁shall	-353
▁under	-354
▁Ch	-355
urn	-356
ang	-357
▁cl	-358
▁int	-359
▁Y	-360
▁comm	-361
act	-362
▁our	-363
▁co	-364
port	-365
▁ev	-366
▁acc	-367
▁ind	-368
ution	-369
ach	-370
ook	-371
▁if	-372
reat	-373
ident	-374
▁Lord	-375
▁19	-376
ren	-377
fe	-378
ian	-379
▁may	-380
▁sp	-381
erv	-382
fore	-383
vern	-384
du	-385
▁bec	-386
▁God	-387
▁app	-388
ise	-389
rit	-390
ack	-391
ual	-392
▁This	-393
▁St	-394
ike	-395
ory	-396
▁te	-397
▁pre	-398
▁spe	-399
▁sc	-400
ious	-401
▁would	-402
ree	-403
ause	-404
▁year	-405
▁_	-406
▁tw	-407
▁then	-408
int	-409
ks	-410
▁only	-411
ric	-412
hed	-413
▁Sh	-414
▁3	-415
▁say	-416
▁sub	-417
ater	-418
▁rec	-419
▁time	-420
▁“	-421
ces	-422
ove	-423
sel	-424
▁such	-425
▁made	-426
01	-427
fter	-428
ild	-429
rib	-430
▁than	-431
ject	-432
wn	-433
▁Go	-434
▁over	-435
ful	-436
ational	-437
▁po	-438
▁prov	-439
we	-440
▁fo	-441
▁new	-442
ife	-443
form	-444
▁bet	-445
old	-446
lect	-447
iss	-448
ions	-449
▁ear	-450
▁rel	-451
▁belie	-452
ound	-453
▁like	-454
▁rem	-455
ied	-456
▁Wh	-457
▁more	-458
vernment	-459
ite	-460
uth	-461
tern	-462
▁cons	-463
aj	-464
ities	-465
ific	-466
ness	-467
▁Pro	-468
ons	-469
▁count	-470
own	-471
▁my	-472
ward	-473
▁should	-474
way	-475
▁work	-476
▁As	-477
▁act	-478
▁off	-479
ert	-480
▁qu	-481
▁day	-482
▁Se	-483
stit	-484
▁into	-485
▁about	-486
▁some	-487
▁pers	-488
▁these	-489
ark	-490
▁ass	-491
▁They	-492
▁good	-493
ved	-494
cept	-495
cy	-496
▁So	-497
▁Com	-498
ments	-499
velop	-500
▁again	-501
▁em	-502
▁fe	-503
ted	-504
▁De	-505
resident	-506
gr	-507
▁two	-508
other	-509
end	-510
row	-511
▁des	-512
▁reg	-513
oy	-514
ates	-515
hen	-516
▁life	-517
▁before	-518
ily	-519
ink	-520
▁Un	-521
▁ac	-522
▁But	-523
▁form	-524
▁”	-525
▁giv	-526
ower	-527
eng	-528
li	-529
ient	-530
▁Con	-531
▁inv	-532
ph	-533
led	-534
▁[	-535
ond	-536
▁bl	-537
rough	-538
).	-539
rent	-540
▁pr	-541
llow	-542
eth	-543
cess	-544
▁ent	-545
ob	-546
▁On	-547
▁ra	-548
▁after	-549
▁world	-550
),	-551
hi	-552
ors	-553
▁Re	-554
aw	-555
▁An	-556
▁see	-557
▁pres	-558
ft	-559
amm	-560
▁If	-561
▁ro	-562
▁sy	-563
ange	-564
▁dec	-565
▁through	-566
▁ob	-567
▁call	-568
▁right	-569
▁cre	-570
▁dif	-571
▁set	-572
▁serv	-573
ght	-574
ural	-575
▁ret	-576
▁br	-577
ple	-578
▁Pr	-579
ey	-580
▁cent	-581
▁President	-582
▁fir	-583
cial	-584
ublic	-585
ave	-586
▁Bh	-587
▁His	-588
▁used	-589
▁Is	-590
uc	-591
xt	-592
erm	-593
ever	-594
▁Act	-595
▁pol	-596
▁sec	-597
▁fl	-598
pect	-599
ting	-600
ween	-601
▁5	-602
▁sign	-603
▁between	-604
ts	-605
ood	-606
ener	-607
▁did	-608
▁her	-609
▁down	-610
▁make	-611
▁very	-612
▁where	-613
▁country	-614
▁develop	-615
ism	-616
▁Indian	-617
..	-618
its	-619
▁gu	-620
ages	-621
ased	-622
▁could	-623
▁trans	-624
arn	-625
▁op	-626
ally	-627
▁col	-628
lp	-629
ative	-630
ision	-631
▁well	-632
ced	-633
oth	-634
ves	-635
ha	-636
iew	-637
igh	-638
ull	-639
▁Government	-640
ax	-641
▁&	-642
ular	-643
▁being	-644
▁every	-645
▁great	-646
als	-647
elie	-648
▁way	-649
uring	-650
ible	-651
▁200	-652
▁You	-653
▁4	-654
eed	-655
hip	-656
▁pos	-657
▁many	-658
▁most	-659
▁follow	-660
pos	-661
▁En	-662
ility	-663
▁There	-664
mit	-665
uch	-666
▁back	-667
▁disc	-668
▁among	-669
arm	-670
▁ord	-671
▁add	-672
▁att	-673
▁she	-674
▁requ	-675
ars	-676
und	-677
olog	-678
▁person	-679
ble	-680
▁tra	-681
▁years	-682
gan	-683
les	-684
▁ed	-685
▁Min	-686
▁come	-687
▁turn	-688
any	-689
ute	-690
ures	-691
ating	-692
▁help	-693
▁upon	-694
▁Sc	-695
▁ap	-696
ents	-697
ided	-698
▁cle	-699
▁mess	-700
ank	-701
ven	-702
rong	-703
▁eff	-704
▁own	-705
▁even	-706
fer	-707
ised	-708
▁inte	-709
▁first	-710
▁against	-711
▁Ex	-712
ty	-713
ract	-714
▁<	-715
▁>	-716
▁supp	-717
ission	-718
▁Ne	-719
ited	-720
ough	-721
stem	-722
▁201	-723
▁just	-724
stitution	-725
ale	-726
ash	-727
con	-728
lud	-729
▁For	-730
round	-731
▁given	-732
▁produ	-733
▁get	-734
▁mat	-735
▁num	-736
▁hand	-737
▁need	-738
▁take	-739
▁child	-740
▁earth	-741
▁exp	-742
▁hum	-743
▁rep	-744
▁tak	-745
ather	-746
belie	-747
ern	-748
get	-749
ati	-750
▁because	-751
me	-752
of	-753
▁No	-754
ants	-755
ouse	-756
▁mem	-757
▁pass	-758
▁sent	-759
not	-760
read	-761
ving	-762
▁power	-763
ES	-764
oci	-765
▁gl	-766
ters	-767
▁Him	-768
▁how	-769
ature	-770
ished	-771
▁account	-772
oun	-773
▁Ad	-774
oint	-775
▁car	-776
▁dist	-777
ral	-778
▁To	-779
self	-780
▁end	-781
▁lit	-782
▁inst	-783
▁diffe	-784
roup	-785
▁writ	-786
formation	-787
air	-788
▁ph	-789
pend	-790
▁use	-791
▁believe	-792
rest	-793
▁pur	-794
▁gener	-795
▁another	-796
ck	-797
ya	-798
ides	-799
▁unt	-800
▁When	-801
▁does	-802
▁must	-803
tc	-804
ror	-805
▁min	-806
▁conc	-807
▁inter	-808
▁import	-809
▁Al	-810
▁bu	-811
ices	-812
▁nor	-813
▁wom	-814
▁away	-815
▁cert	-816
▁char	-817
▁place	-818
▁return	-819
ana	-820
arch	-821
ared	-822
ives	-823
chn	-824
▁Mu	-825
▁sm	-826
▁ye	-827
less	-828
▁equ	-829
▁want	-830
▁state	-831
ef	-832
▁etc	-833
▁now	-834
▁here	-835
▁long	-836
▁water	-837
▁system	-838
ee	-839
tle	-840
ital	-841
▁Our	-842
▁cur	-843
▁men	-844
iness	-845
uthor	-846
▁lead	-847
▁av	-848
▁cap	-849
▁val	-850
▁sure	-851
ctions	-852
su	-853
▁7	-854
▁8	-855
hes	-856
▁gr	-857
▁lo	-858
▁mod	-859
ified	-860
irect	-861
▁Hind	-862
▁book	-863
▁cond	-864
selves	-865
▁clear	-866
▁present	-867
...	-868
ict	-869
ered	-870
▁inf	-871
▁let	-872
▁loc	-873
▁name	-874
▁includ	-875
orn	-876
alth	-877
ired	-878
ries	-879
▁def	-880
▁open	-881
."	-882
pr	-883
day	-884
ick	-885
▁Te	-886
ains	-887
ists	-888
▁beh	-889
▁fam	-890
▁lar	-891
conom	-892
ivers	-893
wards	-894
▁give	-895
▁public	-896
EN	-897
▁Q	-898
ata	-899
▁med	-900
▁mon	-901
▁cour	-902
▁spec	-903
ug	-904
ense	-905
ript	-906
▁law	-907
▁Cent	-908
▁rece	-909
▁heart	-910
iod	-911
ont	-912
▁Am	-913
▁Day	-914
▁est	-915
▁imp	-916
ained	-917
ament	-918
lease	-919
▁comple	-920
▁number	-921
up	-922
ten	-923
▁came	-924
▁heav	-925
▁play	-926
▁fin	-927
olution	-928
har	-929
▁Do	-930
vent	-931
▁ask	-932
▁dev	-933
▁sin	-934
▁fear	-935
▁same	-936
▁called	-937
▁6	-938
lim	-939
ined	-940
lish	-941
▁vis	-942
riend	-943
▁conf	-944
▁prom	-945
▁human	-946
▁order	-947
▁partic	-948
▁0	-949
ize	-950
ody	-951
▁ke	-952
bers	-953
▁fil	-954
▁ins	-955
▁sur	-956
ister	-957
▁look	-958
▁State	-959
▁found	-960
▁truth	-961
▁OF	-962
▁ce	-963
▁Mah	-964
▁ser	-965
▁find	-966
▁land	-967
▁while	-968
▁different	-969
▁development	-970
ics	-971
ider	-972
ived	-973
▁fac	-974
▁fact	-975
▁word	-976
▁incre	-977
▁things	-978
▁process	-979
201	-980
ify	-981
ros	-982
tend	-983
ality	-984
iving	-985
ledge	-986
▁both	-987
▁list	-988
▁meet	-989
▁show	-990
▁bring	-991
ination	-992
ND	-993
tt	-994
rap	-995
here	-996
▁pri	-997
▁happ	-998
▁view	-999
▁wind	-1000
▁certain	-1001
ari	-1002
erg	-1003
ork	-1004
▁Be	-1005
ency	-1006
▁art	-1007
▁bus	-1008
aking	-1009
▁fore	-1010
▁much	-1011
▁start	-1012
▁wrong	-1013
▁period	-1014
ix	-1015
ms	-1016
man	-1017
asht	-1018
ield	-1019
imes	-1020
▁Res	-1021
▁ref	-1022
▁created	-1023
ctor	-1024
▁cor	-1025
▁ele	-1026
ology	-1027
▁mark	-1028
▁group	-1029
mission	-1030
▁author	-1031
▁during	-1032
▁except	-1033
▁disbelie	-1034
▁information	-1035
ai	-1036
oh	-1037
▁Par	-1038
▁dem	-1039
ocial	-1040
rence	-1041
▁What	-1042
▁stud	-1043
▁organ	-1044
▁econom	-1045
▁indust	-1046
▁interest	-1047
ER	-1048
ys	-1049
esh	-1050
rop	-1051
▁Rs	-1052
crib	-1053
ning	-1054
▁det	-1055
▁gra	-1056
▁mar	-1057
▁Then	-1058
▁educ	-1059
▁main	-1060
▁term	-1061
lected	-1062
▁women	-1063
▁commun	-1064
amp	-1065
▁Ar	-1066
avan	-1067
▁adv	-1068
▁pay	-1069
▁sim	-1070
ience	-1071
ually	-1072
▁Gand	-1073
▁oper	-1074
▁resp	-1075
▁thou	-1076
ov	-1077
▁9	-1078
▁fa	-1079
▁sl	-1080
ware	-1081
▁aff	-1082
▁ext	-1083
ither	-1084
stand	-1085
▁whom	-1086
▁progr	-1087
▁friend	-1088
ety	-1089
▁Pl	-1090
angu	-1091
▁Raj	-1092
▁high	-1093
▁think	-1094
▁cannot	-1095
▁section	-1096
▁National	-1097
▁‘	-1098
inal	-1099
▁occ	-1100
error	-1101
▁each	-1102
▁grow	-1103
▁become	-1104
RB	-1105
ock	-1106
▁10	-1107
▁fr	-1108
▁ty	-1109
reed	-1110
ember	-1111
▁case	-1112
▁rest	-1113
▁service	-1114
▁support	-1115
ID	-1116
the	-1117
ason	-1118
▁ver	-1119
▁Mess	-1120
▁best	-1121
▁cult	-1122
▁exam	-1123
▁estab	-1124
▁point	-1125
▁taken	-1126
▁techn	-1127
▁direct	-1128
▁towards	-1129
▁without	-1130
▁important	-1131
▁–	-1132
irc	-1133
ffic	-1134
oard	-1135
▁ben	-1136
▁ide	-1137
▁som	-1138
▁sou	-1139
ining	-1140
urity	-1141
▁Book	-1142
▁Shri	-1143
▁appe	-1144
▁conn	-1145
▁file	-1146
ething	-1147
▁small	-1148
▁stand	-1149
▁amount	-1150
▁government	-1151
lf	-1152
aid	-1153
▁Tr	-1154
ines	-1155
ized	-1156
ried	-1157
ways	-1158
▁Mus	-1159
▁New	-1160
▁Say	-1161
▁bas	-1162
▁leg	-1163
▁par	-1164
▁pun	-1165
▁put	-1166
▁four	-1167
▁less	-1168
▁activ	-1169
▁never	-1170
▁Gandhi	-1171
▁accept	-1172
▁indeed	-1173
▁message	-1174
mb	-1175
na	-1176
ins	-1177
ross	-1178
▁fold	-1179
▁prof	-1180
ration	-1181
▁allow	-1182
▁polic	-1183
▁relig	-1184
▁effect	-1185
min	-1186
▁My	-1187
ploy	-1188
rate	-1189
▁pop	-1190
▁evil	-1191
▁last	-1192
▁social	-1193
▁knowledge	-1194
:%	-1195
ls	-1196
▁18	-1197
▁ca	-1198
ians	-1199
▁tem	-1200
ically	-1201
▁avail	-1202
▁langu	-1203
▁means	-1204
▁today	-1205
▁contro	-1206
ification	-1207
IT	-1208
▁(1	-1209
▁00	-1210
▁Man	-1211
▁bro	-1212
▁dra	-1213
▁met	-1214
▁old	-1215
▁Rasht	-1216
▁known	-1217
agement	-1218
▁Bhavan	-1219
▁report	-1220
eds	-1221
ool	-1222
▁Me	-1223
line	-1224
ruct	-1225
▁den	-1226
▁opp	-1227
▁ple	-1228
▁free	-1229
lished	-1230
ulation	-1231
▁within	-1232
ird	-1233
por	-1234
▁11	-1235
▁Or	-1236
▁dr	-1237
▁che	-1238
▁forg	-1239
▁hard	-1240
▁left	-1241
rapati	-1242
▁better	-1243
▁proble	-1244
▁business	-1245
▁children	-1246
▁Rashtrapati	-1247
▁Le	-1248
▁ru	-1249
▁sk	-1250
▁She	-1251
▁dest	-1252
▁full	-1253
▁poss	-1254
▁read	-1255
▁large	-1256
ishment	-1257
▁applic	-1258
▁invest	-1259
▁address	-1260
▁heavens	-1261
▁consider	-1262
RA	-1263
put	-1264
▁Ab	-1265
iron	-1266
▁Del	-1267
▁Pre	-1268
▁pat	-1269
▁run	-1270
▁tre	-1271
enger	-1272
ising	-1273
otion	-1274
▁Sing	-1275
▁done	-1276
▁issu	-1277
▁const	-1278
▁change	-1279
▁commit	-1280
▁surely	-1281
▁Central	-1282
▁concern	-1283
▁project	-1284
ternational	-1285
erc	-1286
han	-1287
med	-1288
uss	-1289
ship	-1290
gress	-1291
▁Show	-1292
▁move	-1293
▁send	-1294
▁exist	-1295
▁level	-1296
▁month	-1297
▁income	-1298
▁window	-1299
▁command	-1300
▁provide	-1301
idd	-1302
ita	-1303
ajor	-1304
heme	-1305
▁Add	-1306
▁fun	-1307
ccess	-1308
thing	-1309
▁cost	-1310
▁These	-1311
itation	-1312
▁something	-1313
▁understand	-1314
bs	-1315
uk	-1316
chie	-1317
oura	-1318
▁Eng	-1319
▁One	-1320
▁true	-1321
ternal	-1322
▁faith	-1323
▁light	-1324
▁prote	-1325
▁still	-1326
▁company	-1327
ng	-1328
ode	-1329
que	-1330
rict	-1331
uted	-1332
▁Ram	-1333
▁div	-1334
▁far	-1335
▁var	-1336
iding	-1337
▁Beng	-1338
▁days	-1339
▁real	-1340
▁along	-1341
▁appro	-1342
▁signs	-1343
▁three	-1344
ization	-1345
▁employ	-1346
iversity	-1347
▁appoint	-1348
▁charact	-1349
ta	-1350
ems	-1351
ote	-1352
▁Ag	-1353
▁ri	-1354
▁Ass	-1355
▁Rep	-1356
▁Who	-1357
▁non	-1358
▁rev	-1359
▁sit	-1360
ering	-1361
ories	-1362
▁areas	-1363
▁based	-1364
▁build	-1365
▁cause	-1366
▁chang	-1367
liament	-1368
▁Bengal	-1369
▁contin	-1370
▁institution	-1371
IN	-1372
to	-1373
ENT	-1374
els	-1375
hat	-1376
▁Im	-1377
▁ey	-1378
▁mo	-1379
▁sch	-1380
ances	-1381
vious	-1382
▁body	-1383
▁unto	-1384
▁offic	-1385
▁times	-1386
▁common	-1387
▁market	-1388
▁matter	-1389
▁object	-1390
▁proper	-1391
▁current	-1392
▁members	-1393
▁Minister	-1394
ON	-1395
io	-1396
ma	-1397
com	-1398
ged	-1399
ases	-1400
gest	-1401
▁Sub	-1402
ailed	-1403
cript	-1404
▁orig	-1405
▁plac	-1406
itions	-1407
▁Delhi	-1408
▁death	-1409
▁learn	-1410
▁liter	-1411
▁action	-1412
▁family	-1413
▁others	-1414
▁express	-1415
▁education	-1416
AR	-1417
cl	-1418
alf	-1419
ann	-1420
ron	-1421
tee	-1422
▁Us	-1423
ceed	-1424
irit	-1425
ured	-1426
▁199	-1427
▁How	-1428
icult	-1429
ready	-1430
▁That	-1431
▁held	-1432
▁keep	-1433
▁ment	-1434
▁port	-1435
▁post	-1436
▁seen	-1437
▁self	-1438
▁trad	-1439
ancial	-1440
▁benef	-1441
▁exper	-1442
▁going	-1443
ference	-1444
▁Muslim	-1445
▁associ	-1446
▁father	-1447
▁result	-1448
▁punishment	-1449
▁Z	-1450
ium	-1451
ury	-1452
▁PR	-1453
abha	-1454
rael	-1455
reen	-1456
work	-1457
▁jud	-1458
▁rul	-1459
▁too	-1460
▁priv	-1461
▁reve	-1462
atural	-1463
ential	-1464
gether	-1465
urther	-1466
▁achie	-1467
▁house	-1468
▁quest	-1469
▁thing	-1470
▁whole	-1471
▁Israel	-1472
▁Please	-1473
▁health	-1474
▁respect	-1475
▁together	-1476
amb	-1477
cil	-1478
ief	-1479
inc	-1480
ner	-1481
opy	-1482
ret	-1483
rial	-1484
▁age	-1485
▁due	-1486
▁enj	-1487
eness	-1488
▁mean	-1489
▁rese	-1490
rought	-1491
▁deeds	-1492
▁major	-1493
▁Indeed	-1494
▁already	-1495
▁himself	-1496
▁various	-1497
▁national	-1498
▁provided	-1499
IA	-1500
gu	-1501
par	-1502
uty	-1503
▁At	-1504
▁war	-1505
ected	-1506
ences	-1507
viron	-1508
▁face	-1509
▁fund	-1510
▁mill	-1511
▁path	-1512
itness	-1513
ricult	-1514
▁Singh	-1515
ruction	-1516
▁belong	-1517
▁sector	-1518
▁spirit	-1519
▁required	-1520
▁themselves	-1521
HE	-1522
▁:	-1523
ala	-1524
cut	-1525
ger	-1526
het	-1527
▁Em	-1528
ourn	-1529
▁Dep	-1530
▁Spe	-1531
▁dep	-1532
▁lim	-1533
▁mus	-1534
▁net	-1535
▁data	-1536
▁hist	-1537
▁near	-1538
▁seek	-1539
ession	-1540
ferred	-1541
▁might	-1542
▁polit	-1543
ibility	-1544
▁having	-1545
▁little	-1546
▁perform	-1547
▁respons	-1548
vironment	-1549
▁complete	-1550
▁position	-1551
▁i	-1552
ait	-1553
ats	-1554
jee	-1555
ran	-1556
ues	-1557
umb	-1558
akes	-1559
atic	-1560
come	-1561
hamm	-1562
hing	-1563
itor	-1564
ners	-1565
ring	-1566
rodu	-1567
▁bre	-1568
▁fav	-1569
ently	-1570
illed	-1571
ource	-1572
▁area	-1573
▁date	-1574
▁food	-1575
▁gave	-1576
▁home	-1577
▁kind	-1578
▁test	-1579
cribed	-1580
▁field	-1581
▁pract	-1582
aterial	-1583
isation	-1584
▁comput	-1585
▁special	-1586
▁subject	-1587
▁success	-1588
▁selected	-1589
AT	-1590
az	-1591
ew	-1592
aim	-1593
leg	-1594
ogn	-1595
rah	-1596
val	-1597
▁15	-1598
▁Cl	-1599
▁cr	-1600
▁sw	-1601
eric	-1602
imum	-1603
▁Acc	-1604
▁Can	-1605
▁Dis	-1606
▁dou	-1607
▁eng	-1608
▁key	-1609
▁Cont	-1610
▁diff	-1611
▁head	-1612
▁love	-1613
▁took	-1614
▁Those	-1615
▁words	-1616
▁always	-1617
▁mother	-1618
▁second	-1619
▁security	-1620
▁available	-1621
▁particular	-1622
ets	-1623
iti	-1624
mon	-1625
oss	-1626
▁'%	-1627
▁12	-1628
aled	-1629
land	-1630
oney	-1631
adesh	-1632
▁live	-1633
▁warn	-1634
hammad	-1635
ording	-1636
resent	-1637
▁access	-1638
▁necess	-1639
▁brought	-1640
▁believed	-1641
▁economic	-1642
▁countries	-1643
▁activities	-1644
IC	-1645
▁{	-1646
The	-1647
aps	-1648
ier	-1649
lam	-1650
osp	-1651
▁20	-1652
▁25	-1653
▁Gu	-1654
▁di	-1655
▁hy	-1656
oses	-1657
reng	-1658
▁000	-1659
▁Let	-1660
▁THE	-1661
▁cro	-1662
▁eas	-1663
▁hig	-1664
asure	-1665
ately	-1666
ption	-1667
veral	-1668
▁PRES	-1669
▁farm	-1670
▁hold	-1671
herjee	-1672
▁above	-1673
▁class	-1674
▁night	-1675
▁sense	-1676
▁whose	-1677
▁young	-1678
▁living	-1679
▁language	-1680
▁programm	-1681
▁character	-1682
ali	-1683
olk	-1684
anab	-1685
anks	-1686
ator	-1687
ilit	-1688
▁abs	-1689
▁tal	-1690
acity	-1691
arent	-1692
aring	-1693
lling	-1694
ustom	-1695
▁able	-1696
▁coun	-1697
▁expl	-1698
▁mind	-1699
▁pain	-1700
▁suff	-1701
▁vill	-1702
aining	-1703
▁local	-1704
▁occas	-1705
▁value	-1706
▁clause	-1707
▁extend	-1708
ribution	-1709
▁whether	-1710
hy	-1711
ams	-1712
ara	-1713
ask	-1714
ope	-1715
uct	-1716
▁Dr	-1717
▁Ph	-1718
ched	-1719
ened	-1720
obal	-1721
ours	-1722
ully	-1723
▁195	-1724
▁IND	-1725
▁few	-1726
▁hon	-1727
▁yet	-1728
IDENT	-1729
itive	-1730
▁side	-1731
▁soci	-1732
▁type	-1733
▁vers	-1734
ources	-1735
▁court	-1736
▁equal	-1737
▁treat	-1738
ability	-1739
▁Commit	-1740
▁States	-1741
▁folder	-1742
▁reason	-1743
▁streng	-1744
▁persons	-1745
▁witness	-1746
▁material	-1747
▁difficult	-1748
▁including	-1749
▁therefore	-1750
akh	-1751
oad	-1752
▁ve	-1753
.201	-1754
cell	-1755
cing	-1756
eous	-1757
ivid	-1758
omes	-1759
raph	-1760
reme	-1761
▁Ara	-1762
▁Sec	-1763
▁cut	-1764
▁del	-1765
▁mer	-1766
▁tax	-1767
▁Comp	-1768
▁anim	-1769
▁circ	-1770
▁next	-1771
▁outs	-1772
▁text	-1773
▁Sabha	-1774
▁books	-1775
▁creat	-1776
▁elect	-1777
▁later	-1778
▁until	-1779
▁around	-1780
▁regard	-1781
▁English	-1782
▁further	-1783
▁product	-1784
▁PRESIDENT	-1785
be	-1786
ev	-1787
ray	-1788
unt	-1789
▁ut	-1790
ards	-1791
iful	-1792
ling	-1793
mber	-1794
play	-1795
used	-1796
▁Qur	-1797
▁lat	-1798
▁tot	-1799
▁vol	-1800
verse	-1801
▁mail	-1802
▁repl	-1803
atever	-1804
change	-1805
reedom	-1806
▁House	-1807
ividual	-1808
▁Americ	-1809
▁either	-1810
▁expect	-1811
▁ground	-1812
▁hearts	-1813
▁making	-1814
▁received	-1815
sh	-1816
den	-1817
ead	-1818
ocu	-1819
ods	-1820
▁1.	-1821
ergy	-1822
ilar	-1823
ivil	-1824
rish	-1825
▁ann	-1826
▁aut	-1827
▁big	-1828
▁inn	-1829
bsite	-1830
▁Cour	-1831
▁Prov	-1832
▁cred	-1833
▁ever	-1834
▁fall	-1835
▁inde	-1836
▁once	-1837
▁rele	-1838
▁sing	-1839
▁told	-1840
ension	-1841
minist	-1842
▁Hindu	-1843
▁enjoy	-1844
▁forth	-1845
▁hands	-1846
▁knows	-1847
▁share	-1848
▁short	-1849
itional	-1850
lection	-1851
▁entire	-1852
▁record	-1853
▁control	-1854
▁natural	-1855
▁several	-1856
▁services	-1857
▁Messenger	-1858
▁financial	-1859
▁relations	-1860
▁Parliament	-1861
AN	-1862
ery	-1863
gin	-1864
lig	-1865
men	-1866
rug	-1867
une	-1868
uro	-1869
▁Af	-1870
ault	-1871
ones	-1872
▁App	-1873
▁Cal	-1874
▁Div	-1875
▁Fin	-1876
▁bar	-1877
▁cal	-1878
▁lab	-1879
earch	-1880
ouses	-1881
▁Most	-1882
▁West	-1883
▁plan	-1884
▁prep	-1885
iation	-1886
▁INDIA	-1887
▁gives	-1888
▁ident	-1889
ication	-1890
ilities	-1891
▁Minist	-1892
▁policy	-1893
▁recogn	-1894
▁example	-1895
▁industry	-1896
▁authority	-1897
▁represent	-1898
▁Commission	-1899
▁management	-1900
IS	-1901
af	-1902
ows	-1903
udd	-1904
▁bo	-1905
▁es	-1906
▁ur	-1907
atch	-1908
▁got	-1909
ening	-1910
incip	-1911
olved	-1912
▁bank	-1913
▁defe	-1914
▁five	-1915
▁mult	-1916
▁poet	-1917
▁rule	-1918
▁stay	-1919
ection	-1920
soever	-1921
▁peace	-1922
▁reach	-1923
artment	-1924
▁became	-1925
▁behind	-1926
▁nation	-1927
▁really	-1928
▁strong	-1929
▁though	-1930
cription	-1931
▁discuss	-1932
▁nothing	-1933
▁patient	-1934
▁website	-1935
▁computer	-1936
▁community	-1937
▁individual	-1938
OR	-1939
bt	-1940
▁+	-1941
acy	-1942
▁17	-1943
▁Co	-1944
▁Sw	-1945
ares	-1946
cent	-1947
ises	-1948
utes	-1949
▁Brit	-1950
▁Fire	-1951
▁care	-1952
▁cell	-1953
▁deal	-1954
idence	-1955
▁Islam	-1956
▁Offic	-1957
▁error	-1958
▁impro	-1959
▁money	-1960
▁mount	-1961
eration	-1962
▁custom	-1963
▁growth	-1964
▁school	-1965
▁brother	-1966
▁written	-1967
▁religion	-1968
▁following	-1969
▁University	-1970
▁Constitution	-1971
AL	-1972
AM	-1973
We	-1974
ape	-1975
isl	-1976
oid	-1977
▁Mr	-1978
-201	-1979
ames	-1980
ayer	-1981
ires	-1982
osed	-1983
outh	-1984
rive	-1985
▁Muk	-1986
▁RRB	-1987
▁don	-1988
ached	-1989
fully	-1990
ortun	-1991
uture	-1992
▁Your	-1993
▁acqu	-1994
▁role	-1995
▁trib	-1996
▁close	-1997
▁plant	-1998
▁since	-1999
▁total	-2000
▁trust	-2001
ructure	-2002
section	-2003
stitute	-2004
▁instru	-2005
▁Develop	-2006
▁Pradesh	-2007
▁capital	-2008
▁changes	-2009
▁related	-2010
▁working	-2011
▁occasion	-2012
▁particip	-2013
▁previous	-2014
▁Committee	-2015
▁application	-2016
pur	-2017
sue	-2018
uly	-2019
▁(2	-2020
▁30	-2021
▁Er	-2022
▁er	-2023
▁li	-2024
ails	-2025
erve	-2026
ison	-2027
uses	-2028
▁LRB	-2029
▁Pol	-2030
▁bur	-2031
▁top	-2032
after	-2033
atory	-2034
urope	-2035
▁Cong	-2036
▁List	-2037
▁Prop	-2038
▁line	-2039
▁link	-2040
▁meth	-2041
▁rate	-2042
▁vide	-2043
mitted	-2044
ograph	-2045
▁comes	-2046
▁dated	-2047
▁depos	-2048
▁story	-2049
▁works	-2050
▁Europe	-2051
▁create	-2052
▁effort	-2053
▁rights	-2054
▁century	-2055
▁meeting	-2056
▁quality	-2057
▁require	-2058
▁worship	-2059
believers	-2060
▁Ministry	-2061
▁anything	-2062
▁creation	-2063
▁research	-2064
▁transfer	-2065
▁whatever	-2066
▁appointed	-2067
▁certainly	-2068
▁establish	-2069
▁political	-2070
▁population	-2071
▁technology	-2072
▁environment	-2073
▁established	-2074
▁international	-2075
4.	-2076
6.	-2077
go	-2078
aff	-2079
ges	-2080
gle	-2081
ude	-2082
urs	-2083
ills	-2084
irth	-2085
most	-2086
ruit	-2087
▁Des	-2088
▁air	-2089
▁mag	-2090
▁pub	-2091
aught	-2092
urely	-2093
▁Bank	-2094
▁High	-2095
▁fire	-2096
▁flow	-2097
▁host	-2098
▁says	-2099
▁thus	-2100
▁Court	-2101
▁Hindi	-2102
▁Union	-2103
▁basis	-2104
▁doing	-2105
▁files	-2106
▁super	-2107
▁using	-2108
▁course	-2109
▁future	-2110
▁modern	-2111
▁region	-2112
▁regist	-2113
▁scheme	-2114
▁achieve	-2115
▁contact	-2116
▁million	-2117
▁outside	-2118
▁private	-2119
▁thought	-2120
▁Congress	-2121
▁agricult	-2122
▁capacity	-2123
▁movement	-2124
▁progress	-2125
▁referred	-2126
-1	-2127
ti	-2128
▁%	-2129
▁13	-2130
▁By	-2131
▁Lo	-2132
▁Op	-2133
▁Su	-2134
ably	-2135
airs	-2136
anda	-2137
hood	-2138
ince	-2139
itiz	-2140
▁Not	-2141
▁pap	-2142
asing	-2143
aster	-2144
erily	-2145
iddle	-2146
istic	-2147
orrow	-2148
▁Arab	-2149
▁dise	-2150
▁guid	-2151
▁soon	-2152
▁stat	-2153
▁town	-2154
▁Prime	-2155
▁agree	-2156
▁rules	-2157
▁visit	-2158
iveness	-2159
▁office	-2160
▁turned	-2161
▁verily	-2162
▁freedom	-2163
▁prevent	-2164
▁Muhammad	-2165
▁question	-2166
▁revealed	-2167
▁believers	-2168
▁necessary	-2169
▁Development	-2170
lu	-2171
▁z	-2172
ama	-2173
dom	-2174
for	-2175
ior	-2176
nic	-2177
ump	-2178
ush	-2179
▁Sy	-2180
amed	-2181
ateg	-2182
ites	-2183
lier	-2184
omin	-2185
▁Are	-2186
▁Reg	-2187
▁Rem	-2188
▁ast	-2189
▁die	-2190
▁imm	-2191
▁pot	-2192
▁sea	-2193
▁son	-2194
▁try	-2195
▁why	-2196
usion	-2197
▁Coun	-2198
▁Here	-2199
▁Know	-2200
▁Serv	-2201
▁Such	-2202
▁With	-2203
▁feel	-2204
▁news	-2205
▁redu	-2206
▁step	-2207
▁tree	-2208
▁weak	-2209
▁Gener	-2210
▁artic	-2211
▁begin	-2212
▁blood	-2213
▁goods	-2214
▁image	-2215
▁journ	-2216
▁rural	-2217
ificate	-2218
▁Govern	-2219
ological	-2220
▁allowed	-2221
▁general	-2222
▁problem	-2223
▁society	-2224
▁administ	-2225
▁function	-2226
▁messages	-2227
▁partners	-2228
▁production	-2229
?"	-2230
by	-2231
vi	-2232
▁x	-2233
ION	-2234
elt	-2235
iff	-2236
ilt	-2237
omb	-2238
roy	-2239
see	-2240
▁Po	-2241
▁SA	-2242
▁Tw	-2243
▁Up	-2244
▁jo	-2245
hers	-2246
hold	-2247
ival	-2248
just	-2249
pose	-2250
rect	-2251
▁(1)	-2252
▁Mad	-2253
▁aud	-2254
▁fig	-2255
▁mis	-2256
aries	-2257
inary	-2258
rated	-2259
▁ange	-2260
▁asse	-2261
▁none	-2262
ourage	-2263
▁Chand	-2264
▁carry	-2265
▁crore	-2266
▁leave	-2267
▁makes	-2268
▁opens	-2269
▁parts	-2270
▁Public	-2271
▁global	-2272
▁months	-2273
▁spread	-2274
▁British	-2275
▁matters	-2276
▁similar	-2277
▁started	-2278
▁therein	-2279
▁problems	-2280
▁remember	-2281
▁Mukherjee	-2282
do	-2283
ibr	-2284
ips	-2285
let	-2286
rew	-2287
▁ir	-2288
alay	-2289
ancy	-2290
atma	-2291
augh	-2292
kind	-2293
rown	-2294
sequ	-2295
▁Now	-2296
▁bra	-2297
▁enc	-2298
▁ess	-2299
▁obs	-2300
▁six	-2301
▁tor	-2302
▁tou	-2303
attle	-2304
cutta	-2305
▁Cert	-2306
▁Some	-2307
▁city	-2308
▁copy	-2309
▁king	-2310
▁past	-2311
▁size	-2312
▁went	-2313
▁wide	-2314
itable	-2315
▁Afric	-2316
▁Board	-2317
▁Chief	-2318
▁Moses	-2319
▁alone	-2320
▁asked	-2321
▁below	-2322
▁force	-2323
▁initi	-2324
▁party	-2325
▁terms	-2326
plement	-2327
▁Select	-2328
▁demand	-2329
▁energy	-2330
▁itself	-2331
▁search	-2332
▁belongs	-2333
▁benefit	-2334
▁forward	-2335
▁greater	-2336
▁introdu	-2337
▁leaders	-2338
▁neither	-2339
▁Republic	-2340
▁prepared	-2341
▁signific	-2342
▁specified	-2343
▁literature	-2344
):	-2345
2,	-2346
my	-2347
va	-2348
aun	-2349
der	-2350
duc	-2351
irt	-2352
ony	-2353
ttp	-2354
▁Ge	-2355
▁Pe	-2356
▁Sp	-2357
lled	-2358
▁Col	-2359
▁Pun	-2360
▁Sat	-2361
▁Wor	-2362
▁foc	-2363
▁pal	-2364
▁sal	-2365
▁saw	-2366
▁sum	-2367
▁ter	-2368
cious	-2369
ively	-2370
right	-2371
▁Educ	-2372
▁decl	-2373
▁docu	-2374
▁firm	-2375
▁http	-2376
▁lost	-2377
▁paid	-2378
▁subs	-2379
▁vict	-2380
isions	-2381
ptions	-2382
▁civil	-2383
▁drink	-2384
▁grant	-2385
▁issue	-2386
▁Pranab	-2387
▁Verily	-2388
▁design	-2389
▁failed	-2390
▁issues	-2391
▁member	-2392
▁passed	-2393
▁server	-2394
▁taking	-2395
▁temple	-2396
▁vision	-2397
▁Mahatma	-2398
▁destroy	-2399
▁however	-2400
▁network	-2401
▁receive	-2402
▁request	-2403
▁building	-2404
▁original	-2405
▁training	-2406
▁increased	-2407
▁provision	-2408
▁conditions	-2409
▁disbelievers	-2410
.)	-2411
0,	-2412
AS	-2413
ec	-2414
gn	-2415
ji	-2416
uf	-2417
ani	-2418
ban	-2419
bar	-2420
ler	-2421
uru	-2422
vey	-2423
▁el	-2424
aint	-2425
ging	-2426
haps	-2427
hara	-2428
hest	-2429
know	-2430
miss	-2431
ocra	-2432
oice	-2433
orth	-2434
rust	-2435
word	-2436
▁197	-2437
▁Mar	-2438
▁Pra	-2439
▁ded	-2440
▁dig	-2441
▁sat	-2442
▁wis	-2443
gment	-2444
iture	-2445
▁Have	-2446
▁Name	-2447
▁deny	-2448
▁eyes	-2449
▁phys	-2450
▁soft	-2451
▁soul	-2452
▁sust	-2453
aching	-2454
▁After	-2455
▁South	-2456
▁accom	-2457
▁check	-2458
▁compl	-2459
▁early	-2460
▁fight	-2461
▁happy	-2462
▁sound	-2463
etition	-2464
▁across	-2465
▁aspect	-2466
▁depend	-2467
▁issued	-2468
▁placed	-2469
▁source	-2470
▁unless	-2471
▁central	-2472
▁conduct	-2473
▁friends	-2474
▁history	-2475
▁meaning	-2476
▁Calcutta	-2477
▁decision	-2478
▁district	-2479
▁personal	-2480
▁policies	-2481
▁possible	-2482
▁investment	-2483
▁protection	-2484
▁yourselves	-2485
▁institutions	-2486
1,	-2487
co	-2488
ek	-2489
▁’	-2490
ero	-2491
ili	-2492
ilk	-2493
umn	-2494
use	-2495
▁Bi	-2496
▁Ev	-2497
▁II	-2498
▁Kh	-2499
aged	-2500
ager	-2501
arat	-2502
aste	-2503
chan	-2504
oose	-2505
then	-2506
▁Cre	-2507
▁Pal	-2508
▁ans	-2509
▁gri	-2510
▁lay	-2511
▁lot	-2512
▁sex	-2513
▁sol	-2514
anies	-2515
▁bird	-2516
▁deep	-2517
▁draw	-2518
▁duty	-2519
▁fort	-2520
▁lies	-2521
▁prop	-2522
▁pros	-2523
▁save	-2524
▁situ	-2525
▁task	-2526
▁wish	-2527
esides	-2528
estern	-2529
ocracy	-2530
▁Krish	-2531
▁aware	-2532
▁claim	-2533
▁cover	-2534
▁eight	-2535
▁forms	-2536
▁front	-2537
▁speak	-2538
▁third	-2539
▁Cannot	-2540
▁Surely	-2541
▁propos	-2542
▁reward	-2543
▁single	-2544
▁Council	-2545
▁Prophet	-2546
▁efforts	-2547
▁leading	-2548
▁mankind	-2549
▁mention	-2550
▁purpose	-2551
▁increase	-2552
▁students	-2553
▁concerned	-2554
▁statement	-2555
▁Department	-2556
▁disbelieve	-2557
▁unbelievers	-2558
//	-2559
://	-2560
ici	-2561
oke	-2562
ols	-2563
ott	-2564
uge	-2565
ulf	-2566
▁14	-2567
▁2.	-2568
▁Bl	-2569
▁Mo	-2570
▁TO	-2571
▁kn	-2572
cend	-2573
cies	-2574
emed	-2575
medi	-2576
rist	-2577
uary	-2578
▁100	-2579
▁Jan	-2580
▁Kal	-2581
▁Moh	-2582
▁Off	-2583
▁Tra	-2584
▁Use	-2585
▁Whe	-2586
▁deg	-2587
▁der	-2588
▁ens	-2589
▁ign	-2590
▁job	-2591
▁neg	-2592
▁sav	-2593
▁Plan	-2594
▁Will	-2595
▁adop	-2596
▁dead	-2597
▁gard	-2598
▁harm	-2599
▁idea	-2600
▁insp	-2601
▁norm	-2602
▁plus	-2603
▁rain	-2604
▁tell	-2605
▁till	-2606
atives	-2607
rences	-2608
▁Could	-2609
▁Error	-2610
▁Power	-2611
▁Techn	-2612
▁Where	-2613
▁citiz	-2614
▁event	-2615
▁mercy	-2616
▁wills	-2617
rection	-2618
▁behalf	-2619
▁credit	-2620
▁nature	-2621
▁saying	-2622
▁states	-2623
▁terror	-2624
▁However	-2625
▁continu	-2626
▁culture	-2627
▁percent	-2628
▁writing	-2629
▁opportun	-2630
▁property	-2631
▁operation	-2632
▁righteous	-2633
▁International	-2634
OU	-2635
ho	-2636
ii	-2637
mp	-2638
asa	-2639
aut	-2640
ava	-2641
ees	-2642
hem	-2643
hib	-2644
htm	-2645
ims	-2646
leb	-2647
ume	-2648
▁16	-2649
▁Ed	-2650
▁Qu	-2651
ilos	-2652
ipur	-2653
pped	-2654
raft	-2655
rote	-2656
with	-2657
▁192	-2658
▁196	-2659
▁198	-2660
▁Mon	-2661
▁Rel	-2662
▁aid	-2663
▁eye	-2664
▁hor	-2665
▁ill	-2666
▁lie	-2667
▁low	-2668
▁rad	-2669
▁sug	-2670
▁tar	-2671
▁ten	-2672
essee	-2673
riage	-2674
▁Comm	-2675
▁East	-2676
▁Hell	-2677
▁King	-2678
▁Well	-2679
▁aver	-2680
▁deli	-2681
▁kept	-2682
▁page	-2683
▁stra	-2684
▁wait	-2685
aximum	-2686
▁Under	-2687
▁World	-2688
▁banks	-2689
▁chall	-2690
▁enter	-2691
▁judge	-2692
▁press	-2693
▁price	-2694
▁scale	-2695
▁assess	-2696
▁assist	-2697
▁device	-2698
▁expend	-2699
▁forces	-2700
▁higher	-2701
▁multip	-2702
▁rivers	-2703
▁scient	-2704
▁Section	-2705
▁Whether	-2706
▁display	-2707
▁earlier	-2708
▁foreign	-2709
▁princip	-2710
▁guidance	-2711
▁independ	-2712
▁according	-2713
▁developed	-2714
▁presented	-2715
▁published	-2716
▁resources	-2717
▁treatment	-2718
▁industrial	-2719
▁Information	-2720
0.	-2721
CT	-2722
Th	-2723
ING	-2724
aug	-2725
avi	-2726
onn	-2727
rik	-2728
rog	-2729
ung	-2730
war	-2731
▁(%	-2732
▁26	-2733
▁3.	-2734
▁Ac	-2735
▁ON	-2736
▁Sa	-2737
▁US	-2738
▁vi	-2739
alse	-2740
empt	-2741
ique	-2742
itch	-2743
ored	-2744
than	-2745
▁Aut	-2746
▁Lok	-2747
▁Pat	-2748
▁Rec	-2749
▁Set	-2750
▁sac	-2751
▁squ	-2752
▁sty	-2753
▁typ	-2754
ength	-2755
estic	-2756
odies	-2757
orpor	-2758
range	-2759
▁Bill	-2760
▁Budd	-2761
▁Pers	-2762
▁argu	-2763
▁clim	-2764
▁dire	-2765
▁felt	-2766
▁lakh	-2767
▁laun	-2768
▁safe	-2769
▁thee	-2770
asures	-2771
ention	-2772
idered	-2773
ilosop	-2774
ousand	-2775
uction	-2776
▁Every	-2777
▁Trans	-2778
▁birth	-2779
▁conce	-2780
▁cross	-2781
▁ideas	-2782
▁least	-2783
▁legal	-2784
▁novel	-2785
▁relev	-2786
▁round	-2787
▁spend	-2788
▁Direct	-2789
▁United	-2790
▁angels	-2791
▁enough	-2792
▁giving	-2793
▁manner	-2794
▁origin	-2795
▁parent	-2796
▁police	-2797
▁remind	-2798
▁Address	-2799
▁General	-2800
▁becomes	-2801
▁carried	-2802
▁justice	-2803
▁medical	-2804
▁program	-2805
▁assessee	-2806
▁exchange	-2807
▁condition	-2808
▁connected	-2809
▁essential	-2810
▁programmes	-2811
▁responsibility	-2812
2.	-2813
9,	-2814
CC	-2815
CE	-2816
ME	-2817
],	-2818
gy	-2819
aka	-2820
ech	-2821
ina	-2822
mir	-2823
tax	-2824
▁23	-2825
▁UN	-2826
▁da	-2827
adem	-2828
arge	-2829
band	-2830
irst	-2831
lear	-2832
load	-2833
ttar	-2834
well	-2835
▁Att	-2836
▁May	-2837
▁Sim	-2838
▁Tam	-2839
▁anc	-2840
▁boy	-2841
▁exc	-2842
▁hus	-2843
▁log	-2844
▁pow	-2845
▁red	-2846
▁sun	-2847
istan	-2848
itude	-2849
ostle	-2850
ought	-2851
▁Even	-2852
▁From	-2853
▁Sign	-2854
▁ball	-2855
▁born	-2856
▁dial	-2857
▁earn	-2858
▁folk	-2859
▁hath	-2860
▁mass	-2861
▁pric	-2862
▁sett	-2863
▁stre	-2864
▁symb	-2865
▁vari	-2866
▁wife	-2867
ibrary	-2868
iction	-2869
ulated	-2870
▁Group	-2871
▁March	-2872
▁bound	-2873
▁doubt	-2874
▁emerg	-2875
▁prior	-2876
▁staff	-2877
▁stage	-2878
▁woman	-2879
erciful	-2880
vention	-2881
▁Christ	-2882
▁During	-2883
▁anyone	-2884
▁attend	-2885
▁determ	-2886
▁excell	-2887
▁houses	-2888
▁immedi	-2889
▁rather	-2890
▁undert	-2891
stituted	-2892
▁America	-2893
▁farmers	-2894
▁improve	-2895
▁instead	-2896
▁proceed	-2897
urrection	-2898
▁Division	-2899
▁actually	-2900
▁contract	-2901
▁official	-2902
▁specific	-2903
▁Education	-2904
▁beginning	-2905
▁functions	-2906
▁implement	-2907
▁experience	-2908
▁instrument	-2909
▁prescribed	-2910
▁significant	-2911
.'	-2912
.0	-2913
He	-2914
RI	-2915
adu	-2916
bed	-2917
icy	-2918
jab	-2919
nam	-2920
ras	-2921
rep	-2922
ube	-2923
▁1,	-2924
▁Gl	-2925
▁IN	-2926
....	-2927
agar	-2928
amet	-2929
iter	-2930
iver	-2931
lick	-2932
mend	-2933
oday	-2934
omen	-2935
tion	-2936
vest	-2937
▁194	-2938
▁Ann	-2939
▁Bar	-2940
▁Cur	-2941
▁Def	-2942
▁Int	-2943
▁Jud	-2944
▁Pur	-2945
▁Sar	-2946
▁Sup	-2947
▁Two	-2948
▁bal	-2949
▁har	-2950
▁mut	-2951
▁pan	-2952
▁pen	-2953
▁sky	-2954
ading	-2955
apter	-2956
cribe	-2957
ifest	-2958
lying	-2959
order	-2960
ordin	-2961
▁Cons	-2962
▁Gang	-2963
▁Open	-2964
▁Part	-2965
▁View	-2966
▁Work	-2967
▁dark	-2968
▁fast	-2969
▁laws	-2970
▁note	-2971
▁ones	-2972
▁talk	-2973
engers	-2974
isters	-2975
▁Quran	-2976
▁Uttar	-2977
▁fruit	-2978
▁grand	-2979
▁innov	-2980
▁music	-2981
▁often	-2982
▁paper	-2983
▁recom	-2984
▁seven	-2985
▁video	-2986
ategory	-2987
ocation	-2988
ovember	-2989
▁Africa	-2990
▁Scheme	-2991
▁active	-2992
▁almost	-2993
▁astray	-2994
▁coming	-2995
▁desire	-2996
▁export	-2997
▁favour	-2998
▁length	-2999
▁online	-3000
▁raised	-3001
▁secret	-3002
▁threat	-3003
fficient	-3004
▁husband	-3005
▁include	-3006
▁thereof	-3007
▁usually	-3008
▁village	-3009
▁contains	-3010
▁external	-3011
▁followed	-3012
▁marriage	-3013
▁powerful	-3014
▁presence	-3015
▁servants	-3016
▁strength	-3017
▁religious	-3018
▁considered	-3019
▁Resurrection	-3020
▁contribution	-3021
'.	-3022
Ex	-3023
RE	-3024
RO	-3025
fo	-3026
ze	-3027
ada	-3028
cle	-3029
kar	-3030
oud	-3031
pty	-3032
ram	-3033
tic	-3034
uff	-3035
yan	-3036
▁Ak	-3037
▁Ap	-3038
▁Ty	-3039
▁ho	-3040
▁id	-3041
asts	-3042
atha	-3043
athy	-3044
ches	-3045
from	-3046
ishn	-3047
osen	-3048
ples	-3049
rast	-3050
rely	-3051
yond	-3052
▁(2)	-3053
▁Ham	-3054
▁Har	-3055
▁Nep	-3056
▁Pri	-3057
▁Sur	-3058
▁san	-3059
▁sle	-3060
▁ste	-3061
▁thy	-3062
endar	-3063
ients	-3064
iling	-3065
iting	-3066
oming	-3067
ufact	-3068
▁Dist	-3069
▁File	-3070
▁desp	-3071
▁disp	-3072
▁hope	-3073
▁loss	-3074
▁pict	-3075
▁song	-3076
▁tele	-3077
▁user	-3078
encies	-3079
▁Inter	-3080
▁Progr	-3081
▁Which	-3082
▁While	-3083
▁black	-3084
▁break	-3085
▁celeb	-3086
▁clean	-3087
▁color	-3088
▁defin	-3089
▁influ	-3090
▁items	-3091
▁separ	-3092
▁stone	-3093
▁style	-3094
▁trade	-3095
▁trees	-3096
▁white	-3097
aughter	-3098
igation	-3099
ilitary	-3100
osphere	-3101
▁Create	-3102
▁advice	-3103
▁beyond	-3104
▁column	-3105
▁compet	-3106
▁deemed	-3107
▁integr	-3108
▁mechan	-3109
▁middle	-3110
▁observ	-3111
▁places	-3112
▁status	-3113
External	-3114
ulations	-3115
▁Account	-3116
▁animals	-3117
▁connect	-3118
▁decided	-3119
▁details	-3120
▁economy	-3121
▁journey	-3122
▁maximum	-3123
▁perhaps	-3124
▁popular	-3125
▁protect	-3126
▁suggest	-3127
▁systems	-3128
▁continue	-3129
▁cultural	-3130
▁existing	-3131
▁involved	-3132
▁Institute	-3133
▁languages	-3134
▁objective	-3135
▁potential	-3136
▁Technology	-3137
▁expression	-3138
▁operations	-3139
▁strengthen	-3140
▁expenditure	-3141
▁understanding	-3142
.,	-3143
DA	-3144
VE	-3145
ex	-3146
rs	-3147
▁X	-3148
adi	-3149
alk	-3150
ami	-3151
hab	-3152
idy	-3153
ira	-3154
irm	-3155
isf	-3156
isk	-3157
▁27	-3158
▁Ah	-3159
▁Fl	-3160
▁PM	-3161
▁ge	-3162
▁wo	-3163
aves	-3164
face	-3165
fall	-3166
irty	-3167
rows	-3168
view	-3169
▁Mod	-3170
▁Red	-3171
▁Sch	-3172
▁Unt	-3173
▁Ved	-3174
▁deb	-3175
▁dom	-3176
▁eat	-3177
▁esc	-3178
▁fem	-3179
▁gas	-3180
▁god	-3181
▁nar	-3182
▁sil	-3183
▁wid	-3184
aving	-3185
▁Brah	-3186
▁June	-3187
▁Wind	-3188
▁arch	-3189
▁burn	-3190
▁camp	-3191
▁coll	-3192
▁drop	-3193
▁enab	-3194
▁fest	-3195
▁half	-3196
▁hund	-3197
▁loan	-3198
▁milk	-3199
▁morn	-3200
▁obey	-3201
▁poll	-3202
▁pred	-3203
▁prot	-3204
▁remo	-3205
▁stor	-3206
▁viol	-3207
▁virt	-3208
cially	-3209
though	-3210
urance	-3211
▁Might	-3212
▁North	-3213
▁Their	-3214
▁apply	-3215
▁began	-3216
▁bless	-3217
▁built	-3218
▁cases	-3219
▁doers	-3220
▁lives	-3221
▁maint	-3222
▁print	-3223
▁purch	-3224
▁revel	-3225
▁sides	-3226
▁study	-3227
▁table	-3228
▁worth	-3229
▁wrote	-3230
osition	-3231
ospital	-3232
▁Income	-3233
▁Script	-3234
▁Search	-3235
▁causes	-3236
▁famous	-3237
▁former	-3238
▁guided	-3239
▁histor	-3240
▁legisl	-3241
▁prayer	-3242
▁reject	-3243
▁supply	-3244
▁symbol	-3245
▁wishes	-3246
▁Muslims	-3247
▁Project	-3248
▁Supreme	-3249
▁contrib	-3250
▁disease	-3251
▁element	-3252
▁highest	-3253
▁measure	-3254
▁pleased	-3255
▁promise	-3256
▁prosper	-3257
▁setting	-3258
▁torment	-3259
▁accepted	-3260
▁citizens	-3261
▁devotion	-3262
▁extended	-3263
▁manifest	-3264
▁philosop	-3265
▁relevant	-3266
▁software	-3267
▁solution	-3268
▁thousand	-3269
▁generally	-3270
▁spiritual	-3271
▁provisions	-3272
▁responsible	-3273
4,	-3274
5,	-3275
9.	-3276
ET	-3277
▁*	-3278
arh	-3279
ift	-3280
ikh	-3281
ini	-3282
irl	-3283
ora	-3284
ots	-3285
pre	-3286
rat	-3287
ule	-3288
wer	-3289
▁Ob	-3290
▁dy	-3291
This	-3292
aded	-3293
araj	-3294
body	-3295
comp	-3296
eral	-3297
fety	-3298
lege	-3299
lete	-3300
llah	-3301
mark	-3302
omet	-3303
rene	-3304
requ	-3305
resh	-3306
rick	-3307
▁Bal	-3308
▁Ins	-3309
▁Mal	-3310
▁Nay	-3311
▁Out	-3312
▁Per	-3313
▁Sah	-3314
▁Ser	-3315
▁Tur	-3316
▁bad	-3317
▁cry	-3318
▁fif	-3319
▁mob	-3320
▁mos	-3321
▁oil	-3322
aches	-3323
board	-3324
eding	-3325
▁2007	-3326
▁2013	-3327
▁Copy	-3328
▁Dece	-3329
▁Just	-3330
▁Move	-3331
▁anal	-3332
▁bear	-3333
▁bill	-3334
▁easy	-3335
▁prim	-3336
▁sale	-3337
▁shap	-3338
▁tonn	-3339
▁tour	-3340
▁warm	-3341
▁wise	-3342
action	-3343
ashmir	-3344
rative	-3345
▁First	-3346
▁Tamil	-3347
▁Today	-3348
▁drive	-3349
▁exerc	-3350
▁false	-3351
▁guard	-3352
▁guide	-3353
▁joint	-3354
▁lower	-3355
▁medic	-3356
▁offer	-3357
▁raise	-3358
▁space	-3359
▁types	-3360
ptember	-3361
▁Author	-3362
▁Palest	-3363
▁People	-3364
▁chosen	-3365
▁honour	-3366
▁labour	-3367
▁notice	-3368
▁played	-3369
▁prices	-3370
▁profit	-3371
▁remain	-3372
▁safety	-3373
▁transl	-3374
▁values	-3375
▁verses	-3376
▁wealth	-3377
izations	-3378
pecially	-3379
▁Krishna	-3380
▁collect	-3381
▁contain	-3382
▁correct	-3383
▁getting	-3384
▁hundred	-3385
▁largest	-3386
▁morning	-3387
▁reached	-3388
▁science	-3389
▁session	-3390
▁whoever	-3391
operation	-3392
▁activity	-3393
▁learning	-3394
▁manufact	-3395
▁physical	-3396
▁positive	-3397
▁resident	-3398
▁Evolution	-3399
▁democracy	-3400
▁described	-3401
▁existence	-3402
▁messenger	-3403
▁providing	-3404
▁terrorism	-3405
rastructure	-3406
▁construction	-3407
▁consideration	-3408
20	-3409
8.	-3410
AB	-3411
PS	-3412
ps	-3413
xy	-3414
ESS	-3415
aur	-3416
hru	-3417
inn	-3418
key	-3419
pid	-3420
rec	-3421
reg	-3422
rid	-3423
▁21	-3424
▁Sm	-3425
etic	-3426
fect	-3427
iers	-3428
itle	-3429
ixed	-3430
lict	-3431
ober	-3432
oked	-3433
olar	-3434
pper	-3435
rant	-3436
road	-3437
vere	-3438
vert	-3439
wise	-3440
▁AND	-3441
▁Ben	-3442
▁Her	-3443
▁SAW	-3444
▁cam	-3445
▁dam	-3446
▁dut	-3447
▁fra	-3448
▁inj	-3449
▁pra	-3450
▁tri	-3451
ivity	-3452
izing	-3453
ombay	-3454
oured	-3455
ulate	-3456
umbai	-3457
vered	-3458
▁Mark	-3459
▁Wise	-3460
▁appl	-3461
▁cast	-3462
▁fulf	-3463
▁hear	-3464
▁hour	-3465
▁male	-3466
▁pack	-3467
▁rise	-3468
▁sect	-3469
▁wall	-3470
▁wood	-3471
asthan	-3472
illing	-3473
porary	-3474
▁Nehru	-3475
▁basic	-3476
▁dwell	-3477
▁faces	-3478
▁heard	-3479
▁inaug	-3480
▁limit	-3481
▁needs	-3482
▁shown	-3483
▁speed	-3484
▁unity	-3485
▁voice	-3486
▁watch	-3487
▁write	-3488
amental	-3489
uration	-3490
▁Excell	-3491
▁Punjab	-3492
▁assets	-3493
▁bodies	-3494
▁circum	-3495
▁cultiv	-3496
▁duties	-3497
▁formed	-3498
▁groups	-3499
▁latter	-3500
▁refuge	-3501
▁script	-3502
▁season	-3503
▁series	-3504
▁shares	-3505
▁useful	-3506
ervation	-3507
hibition	-3508
ications	-3509
▁January	-3510
▁Kashmir	-3511
▁Officer	-3512
▁balance	-3513
▁besides	-3514
▁consist	-3515
▁courage	-3516
▁growing	-3517
▁install	-3518
▁methods	-3519
▁officer	-3520
▁produce	-3521
▁remains	-3522
▁station	-3523
▁version	-3524
▁December	-3525
▁Merciful	-3526
▁accounts	-3527
▁humanity	-3528
▁literary	-3529
▁projects	-3530
▁provides	-3531
▁surround	-3532
▁agreement	-3533
▁companies	-3534
▁currently	-3535
▁directory	-3536
▁mountains	-3537
▁Management	-3538
▁assessment	-3539
▁everything	-3540
▁facilities	-3541
▁registered	-3542
▁Certificate	-3543
▁traditional	-3544
▁agricultural	-3545
▁particularly	-3546
AG	-3547
adh	-3548
eks	-3549
ids	-3550
iry	-3551
ley	-3552
set	-3553
uck	-3554
udi	-3555
uls	-3556
▁31	-3557
▁5,	-3558
▁50	-3559
▁Fo	-3560
▁Of	-3561
▁aw	-3562
ales	-3563
apan	-3564
cean	-3565
enge	-3566
ests	-3567
hent	-3568
ingu	-3569
pond	-3570
pril	-3571
reet	-3572
rief	-3573
▁Aug	-3574
▁Che	-3575
▁Gra	-3576
▁Its	-3577
▁Leg	-3578
▁Med	-3579
▁Mem	-3580
▁Ret	-3581
▁Sam	-3582
▁Sri	-3583
▁emb	-3584
▁gen	-3585
▁led	-3586
▁mid	-3587
▁mom	-3588
▁obt	-3589
▁unf	-3590
arily	-3591
ators	-3592
ented	-3593
ester	-3594
icial	-3595
iment	-3596
inion	-3597
inter	-3598
ourse	-3599
place	-3600
poses	-3601
raham	-3602
remon	-3603
▁Asia	-3604
▁Circ	-3605
▁Iran	-3606
▁Thus	-3607
▁Unto	-3608
▁code	-3609
▁comb	-3610
▁crit	-3611
▁drug	-3612
▁enem	-3613
▁lest	-3614
▁mach	-3615
▁mand	-3616
▁mode	-3617
▁mort	-3618
▁poor	-3619
▁pure	-3620
▁repe	-3621
▁rich	-3622
▁risk	-3623
▁rupe	-3624
▁seem	-3625
▁sens	-3626
▁week	-3627
ishing	-3628
istory	-3629
ounced	-3630
strate	-3631
▁Child	-3632
▁Organ	-3633
▁Rajya	-3634
▁Start	-3635
▁added	-3636
▁board	-3637
▁focus	-3638
▁frame	-3639
▁frequ	-3640
▁green	-3641
▁impos	-3642
▁lived	-3643
▁magic	-3644
▁recon	-3645
▁river	-3646
▁south	-3647
▁tried	-3648
▁users	-3649
▁views	-3650
reprene	-3651
▁Before	-3652
▁Bombay	-3653
▁Corpor	-3654
▁Enable	-3655
▁Export	-3656
▁accord	-3657
▁appeal	-3658
▁attack	-3659
▁brings	-3660
▁burden	-3661
▁cities	-3662
▁defend	-3663
▁engine	-3664
▁forest	-3665
▁helped	-3666
▁please	-3667
▁satisf	-3668
▁simple	-3669
▁speech	-3670
▁stated	-3671
▁strate	-3672
▁tonnes	-3673
▁Indians	-3674
▁Service	-3675
▁amongst	-3676
▁covered	-3677
▁default	-3678
▁folders	-3679
▁learned	-3680
▁mission	-3681
▁perfect	-3682
▁regular	-3683
▁November	-3684
▁Programm	-3685
▁Research	-3686
▁document	-3687
▁elements	-3688
▁expected	-3689
▁pleasure	-3690
▁practice	-3691
▁returned	-3692
▁standing	-3693
▁villages	-3694
▁According	-3695
▁Hereafter	-3696
▁September	-3697
▁completed	-3698
▁ourselves	-3699
▁situation	-3700
▁tradition	-3701
▁associated	-3702
▁collection	-3703
▁concerning	-3704
▁especially	-3705
▁importance	-3706
▁increasing	-3707
▁whatsoever	-3708
▁forgiveness	-3709
▁Commissioner	-3710
▁notification	-3711
▁requirements	-3712
▁infrastructure	-3713
0}	-3714
10	-3715
3.	-3716
6,	-3717
7.	-3718
8,	-3719
DE	-3720
It	-3721
OM	-3722
OS	-3723
UL	-3724
].	-3725
eb	-3726
mn	-3727
000	-3728
asm	-3729
ays	-3730
cer	-3731
eal	-3732
elf	-3733
hra	-3734
ien	-3735
iva	-3736
opp	-3737
ubs	-3738
ula	-3739
vis	-3740
▁2,	-3741
▁24	-3742
▁Ay	-3743
▁Di	-3744
▁Ho	-3745
▁IS	-3746
▁il	-3747
▁sn	-3748
abad	-3749
ague	-3750
aksh	-3751
asks	-3752
dden	-3753
dule	-3754
enty	-3755
head	-3756
hens	-3757
ties	-3758
▁193	-3759
▁Det	-3760
▁Fil	-3761
▁Ira	-3762
▁Tag	-3763
▁War	-3764
▁mot	-3765
▁suc	-3766
▁tab	-3767
▁wel	-3768
idden	-3769
orate	-3770
press	-3771
▁Bhag	-3772
▁Data	-3773
▁Gard	-3774
▁Germ	-3775
▁Left	-3776
▁Many	-3777
▁Only	-3778
▁Prof	-3779
▁Sita	-3780
▁Text	-3781
▁Type	-3782
▁base	-3783
▁card	-3784
▁cash	-3785
▁clay	-3786
▁dece	-3787
▁dust	-3788
▁exec	-3789
▁fair	-3790
▁gold	-3791
▁gone	-3792
▁hide	-3793
▁inse	-3794
▁road	-3795
▁teac	-3796
asting	-3797
cedure	-3798
ctober	-3799
ellect	-3800
ground	-3801
haraoh	-3802
hedule	-3803
▁Buddh	-3804
▁Other	-3805
▁avoid	-3806
▁bount	-3807
▁calls	-3808
▁chann	-3809
▁dance	-3810
▁occur	-3811
▁phase	-3812
▁phone	-3813
▁proof	-3814
▁range	-3815
▁seems	-3816
▁sight	-3817
▁strug	-3818
▁touch	-3819
▁track	-3820
▁waste	-3821
stances	-3822
▁Assist	-3823
▁Failed	-3824
▁Mighty	-3825
▁Office	-3826
▁School	-3827
▁animal	-3828
▁arrest	-3829
▁attrib	-3830
▁belief	-3831
▁charge	-3832
▁consum	-3833
▁dialog	-3834
▁ensure	-3835
▁female	-3836
▁format	-3837
▁fought	-3838
▁inform	-3839
▁latest	-3840
▁longer	-3841
▁medium	-3842
▁method	-3843
▁mobile	-3844
▁needed	-3845
▁plants	-3846
▁poetry	-3847
▁remove	-3848
▁review	-3849
▁target	-3850
▁wanted	-3851
lication	-3852
▁Western	-3853
▁article	-3854
▁coordin	-3855
▁council	-3856
▁descend	-3857
▁passing	-3858
▁payment	-3859
▁portion	-3860
▁returns	-3861
▁stories	-3862
▁Exchange	-3863
▁Gandhiji	-3864
▁approach	-3865
▁brothers	-3866
▁constant	-3867
▁exercise	-3868
▁hospital	-3869
▁included	-3870
▁includes	-3871
▁launched	-3872
▁measures	-3873
▁meetings	-3874
▁military	-3875
▁petition	-3876
▁promised	-3877
▁purposes	-3878
▁relating	-3879
▁standard	-3880
▁straight	-3881
▁Rajasthan	-3882
▁Therefore	-3883
▁associate	-3884
▁committed	-3885
▁conscious	-3886
▁direction	-3887
▁programme	-3888
▁transport	-3889
▁generation	-3890
▁profession	-3891
▁revolution	-3892
▁agriculture	-3893
▁achievements	-3894
▁relationship	-3895
".	-3896
);	-3897
,"	-3898
5.	-3899
OC	-3900
Sh	-3901
da	-3902
ij	-3903
kt	-3904
sc	-3905
Ind	-3906
agh	-3907
ane	-3908
bit	-3909
bon	-3910
ell	-3911
hel	-3912
ica	-3913
ipl	-3914
isc	-3915
ixt	-3916
mar	-3917
oms	-3918
osh	-3919
pro	-3920
sec	-3921
ton	-3922
ura	-3923
▁6.	-3924
▁75	-3925
▁Bu	-3926
▁Fr	-3927
▁Va	-3928
▁cy	-3929
▁pi	-3930
▁wr	-3931
ades	-3932
aign	-3933
anas	-3934
athe	-3935
icit	-3936
inks	-3937
krit	-3938
like	-3939
osis	-3940
over	-3941
ugin	-3942
ulpt	-3943
▁189	-3944
▁Adv	-3945
▁Bas	-3946
▁Dev	-3947
▁Men	-3948
▁Net	-3949
▁Pak	-3950
▁ban	-3951
▁dri	-3952
▁fle	-3953
▁lib	-3954
▁lik	-3955
▁nuc	-3956
▁ren	-3957
▁sup	-3958
▁upd	-3959
▁won	-3960
anced	-3961
aters	-3962
cause	-3963
chand	-3964
eting	-3965
itled	-3966
light	-3967
olute	-3968
orted	-3969
phone	-3970
ruits	-3971
udget	-3972
under	-3973
▁2012	-3974
▁Forg	-3975
▁Home	-3976
▁Inst	-3977
▁Iraq	-3978
▁Karn	-3979
▁Lear	-3980
▁More	-3981
▁Park	-3982
▁Post	-3983
▁Prem	-3984
▁Unit	-3985
▁capt	-3986
▁corn	-3987
▁fail	-3988
▁foot	-3989
▁forb	-3990
▁goal	-3991
▁heed	-3992
▁item	-3993
▁knew	-3994
▁pill	-3995
▁rail	-3996
▁runs	-3997
▁seed	-3998
▁sole	-3999
▁vast	-4000
▁ways	-4001
▁wick	-4002
atures	-4003
iences	-4004
ressed	-4005
ritage	-4006
▁April	-4007
▁Assam	-4008
▁Belie	-4009
▁Enter	-4010
▁Stand	-4011
▁amend	-4012
▁apart	-4013
▁beaut	-4014
▁cance	-4015
▁cells	-4016
▁chast	-4017
▁chief	-4018
▁corru	-4019
▁eleph	-4020
▁empty	-4021
▁entry	-4022
▁greet	-4023
▁homes	-4024
▁minus	-4025
▁names	-4026
▁north	-4027
▁poems	-4028
▁quick	-4029
▁quite	-4030
▁recip	-4031
▁serve	-4032
▁shape	-4033
▁simpl	-4034
▁steps	-4035
▁takes	-4036
▁trial	-4037
fection	-4038
respond	-4039
version	-4040
▁Indust	-4041
▁Policy	-4042
▁accomp	-4043
▁advant	-4044
▁appear	-4045
▁battle	-4046
▁behavi	-4047
▁border	-4048
▁caused	-4049
▁contem	-4050
▁degree	-4051
▁denied	-4052
▁fields	-4053
▁govern	-4054
▁happen	-4055
▁heaven	-4056
▁letter	-4057
▁mental	-4058
▁moment	-4059
▁mutual	-4060
▁powers	-4061
▁prison	-4062
▁refers	-4063
▁secure	-4064
▁select	-4065
▁taught	-4066
▁unique	-4067
▁unjust	-4068
ferences	-4069
▁Display	-4070
▁adopted	-4071
▁apostle	-4072
▁arrange	-4073
▁complex	-4074
▁counter	-4075
▁feeling	-4076
▁follows	-4077
▁forgive	-4078
▁letters	-4079
▁nations	-4080
▁opening	-4081
▁opinion	-4082
▁painful	-4083
▁parents	-4084
▁species	-4085
▁succeed	-4086
▁visible	-4087
▁wrongdo	-4088
▁Agricult	-4089
▁Category	-4090
▁becoming	-4091
▁directly	-4092
▁electron	-4093
▁evidence	-4094
▁heritage	-4095
▁mountain	-4096
▁products	-4097
▁destroyed	-4098
▁expressed	-4099
▁intellect	-4100
▁interests	-4101
▁performed	-4102
▁recommend	-4103
▁submitted	-4104
▁Conference	-4105
▁Excellency	-4106
▁employment	-4107
▁parliament	-4108
▁Description	-4109
▁constituted	-4110
▁description	-4111
▁partnership	-4112
▁proceedings	-4113
▁applications	-4114
▁registration	-4115
▁opportunities	-4116
▁organizations	-4117
,'	-4118
AP	-4119
DP	-4120
EF	-4121
IV	-4122
If	-4123
Mu	-4124
My	-4125
ja	-4126
“”	-4127
app	-4128
che	-4129
eep	-4130
emb	-4131
ipt	-4132
iqu	-4133
muk	-4134
oor	-4135
rav	-4136
rol	-4137
▁(3	-4138
▁5.	-4139
▁SC	-4140
▁bi	-4141
▁pu	-4142
Sita	-4143
What	-4144
abor	-4145
aced	-4146
ahar	-4147
aker	-4148
akti	-4149
back	-4150
eath	-4151
grat	-4152
html	-4153
olid	-4154
omic	-4155
onal	-4156
onts	-4157
oral	-4158
owed	-4159
rang	-4160
semb	-4161
tees	-4162
uous	-4163
▁Ant	-4164
▁Aud	-4165
▁Enc	-4166
▁End	-4167
▁Joh	-4168
▁Law	-4169
▁Nav	-4170
▁Pop	-4171
▁Sir	-4172
▁Why	-4173
▁Yet	-4174
▁dim	-4175
▁dry	-4176
▁eld	-4177
▁emp	-4178
▁flu	-4179
▁hel	-4180
▁lic	-4181
▁opt	-4182
▁rid	-4183
▁sus	-4184
▁swe	-4185
▁syn	-4186
▁tim	-4187
anish	-4188
aying	-4189
eless	-4190
enior	-4191
hance	-4192
hemes	-4193
icate	-4194
iders	-4195
known	-4196
osing	-4197
rible	-4198
where	-4199
▁Char	-4200
▁Conf	-4201
▁Food	-4202
▁Fund	-4203
▁Guru	-4204
▁Help	-4205
▁Hour	-4206
▁July	-4207
▁Nath	-4208
▁Next	-4209
▁Pass	-4210
▁Rail	-4211
▁Save	-4212
▁Thou	-4213
▁army	-4214
▁bran	-4215
▁conv	-4216
▁diss	-4217
▁else	-4218
▁feet	-4219
▁fine	-4220
▁furn	-4221
▁game	-4222
▁goes	-4223
▁incl	-4224
▁moon	-4225
▁phot	-4226
▁prob	-4227
▁quar	-4228
▁sins	-4229
▁sons	-4230
▁surv	-4231
▁tend	-4232
▁util	-4233
▁vent	-4234
assion	-4235
ifying	-4236
pranab	-4237
rehens	-4238
ternet	-4239
▁Click	-4240
▁Right	-4241
▁River	-4242
▁Women	-4243
▁arrog	-4244
▁costs	-4245
▁disab	-4246
▁email	-4247
▁invol	-4248
▁lines	-4249
▁media	-4250
▁model	-4251
▁named	-4252
▁owner	-4253
▁plans	-4254
▁shows	-4255
▁spent	-4256
▁strik	-4257
▁truly	-4258
▁youth	-4259
iciency	-4260
iration	-4261
isement	-4262
ography	-4263
▁August	-4264
▁Bharat	-4265
▁Centre	-4266
▁Health	-4267
▁Mumbai	-4268
▁altern	-4269
▁answer	-4270
▁assign	-4271
▁carbon	-4272
▁convey	-4273
▁depart	-4274
▁editor	-4275
▁escape	-4276
▁events	-4277
▁exceed	-4278
▁extent	-4279
▁insect	-4280
▁intend	-4281
▁killed	-4282
▁lawful	-4283
▁likely	-4284
▁master	-4285
▁merely	-4286
▁normal	-4287
▁sculpt	-4288
▁shared	-4289
▁stayed	-4290
▁suffer	-4291
▁territ	-4292
▁thirty	-4293
▁travel	-4294
▁volunt	-4295
atically	-4296
▁Chandra	-4297
▁Company	-4298
▁Contact	-4299
▁Finance	-4300
▁Pharaoh	-4301
▁Science	-4302
▁attempt	-4303
▁authent	-4304
▁average	-4305
▁entered	-4306
▁gardens	-4307
▁inaugur	-4308
▁knowing	-4309
▁minimum	-4310
▁options	-4311
▁parties	-4312
▁picture	-4313
▁serious	-4314
▁sources	-4315
▁storage	-4316
▁sustain	-4317
mukherjee	-4318
▁Palestin	-4319
▁Provided	-4320
▁calendar	-4321
▁campaign	-4322
▁creating	-4323
▁delivery	-4324
▁location	-4325
▁medicine	-4326
▁password	-4327
▁priority	-4328
ifications	-4329
▁Programme	-4330
▁behaviour	-4331
▁challenge	-4332
▁continued	-4333
▁customers	-4334
▁employees	-4335
▁excellent	-4336
▁questions	-4337
▁reference	-4338
▁supported	-4339
▁additional	-4340
▁connection	-4341
▁developing	-4342
▁difference	-4343
▁entreprene	-4344
▁historical	-4345
▁introduced	-4346
▁processing	-4347
▁sufficient	-4348
▁throughout	-4349
▁Corporation	-4350
▁Environment	-4351
▁Institution	-4352
▁certificate	-4353
▁cooperation	-4354
▁circumstances	-4355
pranabmukherjee	-4356
▁administration	-4357
!"	-4358
16	-4359
4)	-4360
AY	-4361
IL	-4362
IM	-4363
IR	-4364
Is	-4365
TH	-4366
la	-4367
oe	-4368
ox	-4369
AGE	-4370
AME	-4371
acc	-4372
att	-4373
aul	-4374
cul	-4375
era	-4376
gen	-4377
hya	-4378
ika	-4379
mer	-4380
ocr	-4381
oga	-4382
shi	-4383
unn	-4384
▁"%	-4385
▁08	-4386
▁35	-4387
▁40	-4388
▁80	-4389
▁CD	-4390
▁CH	-4391
▁CO	-4392
▁IT	-4393
▁ec	-4394
▁ep	-4395
aces	-4396
aken	-4397
ecut	-4398
gend	-4399
llig	-4400
oles	-4401
oned	-4402
oper	-4403
roud	-4404
ught	-4405
uman	-4406
unal	-4407
▁Bab	-4408
▁Bin	-4409
▁Guj	-4410
▁Jaw	-4411
▁Jay	-4412
▁Kar	-4413
▁Key	-4414
▁Lim	-4415
▁Pan	-4416
▁See	-4417
▁Tax	-4418
▁Val	-4419
▁bul	-4420
▁buy	-4421
▁cra	-4422
▁cul	-4423
▁gar	-4424
▁hyd	-4425
▁hyp	-4426
▁lad	-4427
▁rej	-4428
▁unc	-4429
▁und	-4430
▁uns	-4431
ATION	-4432
Allah	-4433
asons	-4434
asses	-4435
ataka	-4436
epend	-4437
idity	-4438
inity	-4439
itect	-4440
ondon	-4441
ounce	-4442
plete	-4443
sible	-4444
venue	-4445
▁2005	-4446
▁Bang	-4447
▁Card	-4448
▁Conn	-4449
▁Khan	-4450
▁Mand	-4451
▁Mary	-4452
▁Rama	-4453
▁Sans	-4454
▁Shah	-4455
▁Supp	-4456
▁Time	-4457
▁User	-4458
▁arms	-4459
▁bond	-4460
▁crim	-4461
▁dang	-4462
▁dear	-4463
▁debt	-4464
▁didn	-4465
▁doub	-4466
▁flag	-4467
▁glad	-4468
▁gods	-4469
▁join	-4470
▁laid	-4471
▁late	-4472
▁liqu	-4473
▁lock	-4474
▁miss	-4475
▁outl	-4476
▁plat	-4477
▁prec	-4478
▁root	-4479
▁symp	-4480
▁team	-4481
▁tool	-4482
▁valu	-4483
airman	-4484
ananda	-4485
ateful	-4486
iments	-4487
ipment	-4488
tering	-4489
▁Autom	-4490
▁Bihar	-4491
▁Japan	-4492
▁Truth	-4493
▁absor	-4494
▁blind	-4495
▁broad	-4496
▁disob	-4497
▁enhan	-4498
▁estim	-4499
▁filed	-4500
▁fully	-4501
▁indig	-4502
▁input	-4503
▁minor	-4504
▁moved	-4505
▁pregn	-4506
▁songs	-4507
▁yield	-4508
conomic	-4509
▁Hindus	-4510
▁Import	-4511
▁Invest	-4512
▁London	-4513
▁Second	-4514
▁Though	-4515
▁Unable	-4516
▁affect	-4517
▁agreed	-4518
▁beings	-4519
▁choose	-4520
▁commer	-4521
▁defeat	-4522
▁distin	-4523
▁divine	-4524
▁easily	-4525
▁filled	-4526
▁marked	-4527
▁memory	-4528
▁mighty	-4529
▁mostly	-4530
▁opened	-4531
▁repent	-4532
▁screen	-4533
▁served	-4534
▁square	-4535
▁thanks	-4536
▁thrust	-4537
▁wonder	-4538
Muhammad	-4539
ensation	-4540
esterday	-4541
standing	-4542
stitutes	-4543
▁Because	-4544
▁Current	-4545
▁History	-4546
▁Library	-4547
▁Message	-4548
▁Mission	-4549
▁actions	-4550
▁advance	-4551
▁centres	-4552
▁changed	-4553
▁concent	-4554
▁consequ	-4555
▁content	-4556
▁deposit	-4557
▁desires	-4558
▁enhance	-4559
▁hearing	-4560
▁looking	-4561
▁numbers	-4562
▁proport	-4563
▁removed	-4564
▁replied	-4565
▁reserve	-4566
▁respond	-4567
▁results	-4568
▁running	-4569
▁sitting	-4570
▁student	-4571
▁Governor	-4572
▁Official	-4573
▁Services	-4574
▁affected	-4575
▁approved	-4576
▁articles	-4577
▁benefits	-4578
▁bringing	-4579
▁composed	-4580
▁festival	-4581
▁platform	-4582
▁purchase	-4583
▁remained	-4584
▁separate	-4585
▁suitable	-4586
iversities	-4587
▁Financial	-4588
▁Forgiving	-4589
▁committee	-4590
▁conducted	-4591
▁contained	-4592
▁effective	-4593
▁happiness	-4594
▁remaining	-4595
▁structure	-4596
▁correspond	-4597
▁permission	-4598
▁prosperity	-4599
▁association	-4600
▁authorities	-4601
▁immediately	-4602
▁revelations	-4603
▁organisation	-4604
▁consciousness	-4605
▁establishment	-4606
▁participation	-4607
',	-4608
LE	-4609
PE	-4610
RL	-4611
lt	-4612
oo	-4613
sy	-4614
yr	-4615
▁.	-4616
-19	-4617
And	-4618
His	-4619
add	-4620
arc	-4621
cks	-4622
det	-4623
equ	-4624
ese	-4625
ews	-4626
has	-4627
ila	-4628
lal	-4629
oon	-4630
pel	-4631
rel	-4632
rie	-4633
rim	-4634
unk	-4635
urb	-4636
▁28	-4637
▁8.	-4638
▁AT	-4639
▁CC	-4640
▁Dh	-4641
▁ID	-4642
▁MS	-4643
▁SH	-4644
▁ST	-4645
▁“”	-4646
aith	-4647
anti	-4648
asis	-4649
emic	-4650
gent	-4651
iber	-4652
icro	-4653
ilty	-4654
ktop	-4655
plit	-4656
rees	-4657
rier	-4658
rypt	-4659
what	-4660
ysis	-4661
▁Air	-4662
▁CON	-4663
▁Did	-4664
▁Est	-4665
▁Gov	-4666
▁IIT	-4667
▁Nag	-4668
▁Run	-4669
▁Sum	-4670
▁Yes	-4671
▁atm	-4672
▁ble	-4673
▁bow	-4674
▁cat	-4675
▁dia	-4676
▁pie	-4677
▁web	-4678
aging	-4679
arian	-4680
erous	-4681
iance	-4682
iform	-4683
ilies	-4684
india	-4685
itial	-4686
legal	-4687
nding	-4688
ocent	-4689
oring	-4690
redit	-4691
umber	-4692
uries	-4693
▁2000	-4694
▁2009	-4695
▁Edit	-4696
▁Fold	-4697
▁Fore	-4698
▁Form	-4699
▁Jamm	-4700
▁Page	-4701
▁Prom	-4702
▁Trib	-4703
▁aims	-4704
▁bott	-4705
▁brok	-4706
▁crop	-4707
▁dawn	-4708
▁drag	-4709
▁excl	-4710
▁hind	-4711
▁imag	-4712
▁impl	-4713
▁magn	-4714
▁pray	-4715
▁qual	-4716
▁room	-4717
▁shif	-4718
▁sick	-4719
▁span	-4720
▁star	-4721
▁zero	-4722
ancing	-4723
aneous	-4724
ashtra	-4725
istics	-4726
ousing	-4727
▁Benef	-4728
▁Email	-4729
▁Found	-4730
▁Great	-4731
▁Nepal	-4732
▁Since	-4733
▁accur	-4734
▁actor	-4735
▁admon	-4736
▁ahead	-4737
▁award	-4738
▁brief	-4739
▁cloud	-4740
▁conqu	-4741
▁coven	-4742
▁decor	-4743
▁deity	-4744
▁disch	-4745
▁discl	-4746
▁explo	-4747
▁funds	-4748
▁gathe	-4749
▁graph	-4750
▁heavy	-4751
▁meant	-4752
▁noted	-4753
▁ocean	-4754
▁plain	-4755
▁proud	-4756
▁radio	-4757
▁subst	-4758
▁theme	-4759
▁towns	-4760
▁turns	-4761
▁units	-4762
▁upper	-4763
▁urban	-4764
ameters	-4765
anation	-4766
ception	-4767
imately	-4768
▁Assemb	-4769
▁Change	-4770
▁Global	-4771
▁Legisl	-4772
▁abroad	-4773
▁annual	-4774
▁appell	-4775
▁attain	-4776
▁borrow	-4777
▁cattle	-4778
▁conver	-4779
▁courts	-4780
▁excess	-4781
▁expans	-4782
▁fellow	-4783
▁forced	-4784
▁forget	-4785
▁fruits	-4786
▁height	-4787
▁levels	-4788
▁looked	-4789
▁mainly	-4790
▁nearly	-4791
▁option	-4792
▁reform	-4793
▁remark	-4794
▁sacred	-4795
▁signal	-4796
▁sorrow	-4797
▁sudden	-4798
▁worked	-4799
▁Default	-4800
▁October	-4801
▁Princip	-4802
▁Reserve	-4803
▁applied	-4804
▁aspects	-4805
▁burning	-4806
▁ceremon	-4807
▁clearly	-4808
▁conceal	-4809
▁consult	-4810
▁defined	-4811
▁digital	-4812
▁effects	-4813
▁emotion	-4814
▁fathers	-4815
▁forever	-4816
▁illegal	-4817
▁kingdom	-4818
▁limited	-4819
▁married	-4820
▁possess	-4821
▁privile	-4822
▁reasons	-4823
▁reduced	-4824
▁schools	-4825
▁smaller	-4826
▁someone	-4827
▁specify	-4828
▁supreme	-4829
▁victory	-4830
▁waiting	-4831
▁warning	-4832
▁workers	-4833
▁wronged	-4834
▁Circular	-4835
▁District	-4836
▁European	-4837
▁Pakistan	-4838
▁Security	-4839
▁accident	-4840
▁complain	-4841
▁daughter	-4842
▁declared	-4843
▁deposits	-4844
▁diseases	-4845
▁domestic	-4846
▁download	-4847
▁electric	-4848
▁employee	-4849
▁families	-4850
▁friendly	-4851
▁intellig	-4852
▁produced	-4853
▁regional	-4854
▁relation	-4855
▁starting	-4856
▁truthful	-4857
▁Believers	-4858
▁beautiful	-4859
▁construct	-4860
▁documents	-4861
▁extension	-4862
▁mechanism	-4863
▁mentioned	-4864
▁promotion	-4865
▁regarding	-4866
▁suffering	-4867
▁telephone	-4868
▁transform	-4869
▁Governance	-4870
▁Messengers	-4871
▁atmosphere	-4872
▁characters	-4873
▁commitment	-4874
▁completely	-4875
▁identified	-4876
▁industries	-4877
▁Governments	-4878
▁appointment	-4879
▁destruction	-4880
▁educational	-4881
▁independent	-4882
▁performance	-4883
▁chastisement	-4884
▁constitution	-4885
▁successfully	-4886
7,	-4887
DU	-4888
SI	-4889
ds	-4890
lo	-4891
ww	-4892
01.	-4893
You	-4894
alt	-4895
alu	-4896
arp	-4897
aya	-4898
dra	-4899
een	-4900
how	-4901
iii	-4902
ils	-4903
itt	-4904
jun	-4905
nov	-4906
urt	-4907
www	-4908
▁0.	-4909
▁22	-4910
▁33	-4911
▁Ib	-4912
▁Ji	-4913
▁af	-4914
▁fu	-4915
▁km	-4916
achi	-4917
alam	-4918
aras	-4919
atab	-4920
aths	-4921
bell	-4922
care	-4923
erus	-4924
greg	-4925
hatt	-4926
ighb	-4927
iled	-4928
irls	-4929
onse	-4930
pret	-4931
ream	-4932
reci	-4933
roph	-4934
teen	-4935
text	-4936
uled	-4937
vail	-4938
▁10,	-4939
▁10.	-4940
▁190	-4941
▁191	-4942
▁Ali	-4943
▁Cap	-4944
▁Cro	-4945
▁Emp	-4946
▁Lam	-4947
▁Maj	-4948
▁Non	-4949
▁Rev	-4950
▁Rul	-4951
▁Sud	-4952
▁Tab	-4953
▁Tem	-4954
▁Top	-4955
▁amb	-4956
▁ant	-4957
▁bab	-4958
▁bit	-4959
▁box	-4960
▁cho	-4961
▁eth	-4962
▁fab	-4963
▁hot	-4964
▁irr	-4965
▁lif	-4966
▁row	-4967
▁tea	-4968
▁tid	-4969
▁unl	-4970
▁{0}	-4971
-2018	-4972
.2015	-4973
acing	-4974
alted	-4975
ander	-4976
anges	-4977
ardon	-4978
herit	-4979
ifies	-4980
lfare	-4981
lythe	-4982
marks	-4983
olars	-4984
orter	-4985
osite	-4986
oting	-4987
ounds	-4988
owing	-4989
point	-4990
quiry	-4991
rency	-4992
ricts	-4993
rived	-4994
ropri	-4995
thern	-4996
wered	-4997
▁2002	-4998
▁Also	-4999
▁Arch	-5000
▁Best	-5001
▁Expl	-5002
▁Last	-5003
▁Mugh	-5004
▁Once	-5005
▁Over	-5006
▁Path	-5007
▁Port	-5008
▁Vice	-5009
▁anti	-5010
▁clot	-5011
▁dele	-5012
▁door	-5013
▁enjo	-5014
▁fell	-5015
▁gain	-5016
▁glor	-5017
▁grie	-5018
▁palm	-5019
▁pupp	-5020
▁race	-5021
▁reck	-5022
▁rock	-5023
▁sand	-5024
▁sees	-5025
▁slow	-5026
▁sort	-5027
▁spot	-5028
▁tear	-5029
▁tiss	-5030
▁trou	-5031
▁unit	-5032
▁walk	-5033
▁weap	-5034
-2011,	-5035
ateral	-5036
detail	-5037
icated	-5038
iverse	-5039
orship	-5040
racted	-5041
ricket	-5042
▁Binoy	-5043
▁Build	-5044
▁China	-5045
▁Jammu	-5046
▁Later	-5047
▁Malay	-5048
▁Never	-5049
▁Prote	-5050
▁admit	-5051
▁arise	-5052
▁audio	-5053
▁autom	-5054
▁backs	-5055
▁drawn	-5056
▁drown	-5057
▁fault	-5058
▁fixed	-5059
▁forty	-5060
▁fresh	-5061
▁index	-5062
▁marry	-5063
▁midst	-5064
▁overt	-5065
▁pages	-5066
▁posts	-5067
▁procl	-5068
▁proxy	-5069
▁pursu	-5070
▁quant	-5071
▁regul	-5072
▁scope	-5073
▁sends	-5074
▁sleep	-5075
▁stead	-5076
▁store	-5077
▁twice	-5078
▁worry	-5079
ofindia	-5080
release	-5081
▁Choose	-5082
▁Houses	-5083
▁Middle	-5084
▁Region	-5085
▁Remove	-5086
▁Report	-5087
▁Server	-5088
▁Switch	-5089
▁System	-5090
▁Vaishn	-5091
▁academ	-5092
▁bounty	-5093
▁centre	-5094
▁encomp	-5095
▁entity	-5096
▁execut	-5097
▁figure	-5098
▁garden	-5099
▁gather	-5100
▁guides	-5101
▁guilty	-5102
▁ignore	-5103
▁larger	-5104
▁leader	-5105
▁limits	-5106
▁offers	-5107
▁orient	-5108
▁recent	-5109
▁rememb	-5110
▁reserv	-5111
▁seeing	-5112
▁senior	-5113
▁severe	-5114
▁shaped	-5115
▁showed	-5116
▁signed	-5117
▁sister	-5118
▁skills	-5119
▁string	-5120
▁temper	-5121
▁twenty	-5122
▁willed	-5123
▁yellow	-5124
▁Abraham	-5125
▁Another	-5126
▁Certain	-5127
▁Gardens	-5128
▁Gujarat	-5129
▁Islamic	-5130
▁Jawahar	-5131
▁Options	-5132
▁Speaker	-5133
▁Special	-5134
▁ability	-5135
▁affairs	-5136
▁ancient	-5137
▁appears	-5138
▁beneath	-5139
▁channel	-5140
▁chapter	-5141
▁comment	-5142
▁congrat	-5143
▁counsel	-5144
▁encoura	-5145
▁engaged	-5146
▁evening	-5147
▁facilit	-5148
▁inherit	-5149
▁oppress	-5150
▁promote	-5151
▁settled	-5152
▁studies	-5153
▁treated	-5154
▁turning	-5155
▁welfare	-5156
assionate	-5157
lytheists	-5158
president	-5159
rehensive	-5160
struction	-5161
▁American	-5162
▁Chairman	-5163
▁Children	-5164
▁Sanskrit	-5165
▁Schedule	-5166
▁absolute	-5167
▁achieved	-5168
▁agencies	-5169
▁although	-5170
▁argument	-5171
▁attitude	-5172
▁carrying	-5173
▁challeng	-5174
▁contents	-5175
▁covenant	-5176
▁darkness	-5177
▁election	-5178
▁entitled	-5179
▁everyone	-5180
▁gathered	-5181
▁innocent	-5182
▁officers	-5183
▁released	-5184
▁reported	-5185
▁requires	-5186
▁restrict	-5187
▁strategy	-5188
▁struggle	-5189
▁subjects	-5190
▁teachers	-5191
▁teaching	-5192
▁violence	-5193
▁Authority	-5194
▁Karnataka	-5195
▁Scripture	-5196
▁deduction	-5197
▁discussed	-5198
▁expansion	-5199
▁followers	-5200
▁greetings	-5201
▁interpret	-5202
▁pollution	-5203
▁pregnancy	-5204
▁standards	-5205
▁whosoever	-5206
▁yesterday	-5207
▁Christians	-5208
▁Investment	-5209
▁assistance	-5210
▁celebrated	-5211
▁confidence	-5212
▁impossible	-5213
▁initiative	-5214
▁scientific	-5215
▁scientists	-5216
▁successful	-5217
▁Agriculture	-5218
▁fundamental	-5219
▁governments	-5220
▁opportunity	-5221
▁sustainable	-5222
▁Institutions	-5223
▁distribution	-5224
▁independence	-5225
▁publications	-5226
presidentofindia	-5227
.%	-5228
1.	-5229
5)	-5230
70	-5231
AC	-5232
MB	-5233
NR	-5234
OL	-5235
ST	-5236
ae	-5237
eg	-5238
oj	-5239
ua	-5240
vy	-5241
wh	-5242
’.	-5243
ARD	-5244
aks	-5245
asc	-5246
cho	-5247
iet	-5248
imb	-5249
isd	-5250
mod	-5251
oli	-5252
omy	-5253
osa	-5254
oti	-5255
pir	-5256
rem	-5257
son	-5258
uit	-5259
wor	-5260
▁-.	-5261
▁3,	-5262
▁44	-5263
▁EX	-5264
▁IP	-5265
▁Od	-5266
ENCE	-5267
_01.	-5268
arya	-5269
atio	-5270
atre	-5271
cont	-5272
ebru	-5273
elve	-5274
eria	-5275
esus	-5276
garh	-5277
iant	-5278
icon	-5279
illa	-5280
imal	-5281
ipes	-5282
ndra	-5283
ocks	-5284
ocol	-5285
ooth	-5286
ords	-5287
ores	-5288
oval	-5289
rete	-5290
rone	-5291
ulum	-5292
umin	-5293
will	-5294
▁(4)	-5295
▁...	-5296
▁Bus	-5297
▁Dem	-5298
▁Eff	-5299
▁Ext	-5300
▁FOR	-5301
▁Inf	-5302
▁Ker	-5303
▁Lab	-5304
▁Mat	-5305
▁Pen	-5306
▁Ren	-5307
▁Sab	-5308
▁Ste	-5309
▁Tat	-5310
▁Tel	-5311
▁URL	-5312
▁Vol	-5313
▁Web	-5314
▁arm	-5315
▁coc	-5316
▁fit	-5317
▁nut	-5318
▁pil	-5319
▁reb	-5320
▁rob	-5321
▁sym	-5322
▁wed	-5323
aipur	-5324
being	-5325
ching	-5326
enous	-5327
enses	-5328
force	-5329
habit	-5330
inent	-5331
ingly	-5332
onent	-5333
oseph	-5334
ports	-5335
pping	-5336
rafts	-5337
tered	-5338
works	-5339
▁2004	-5340
▁2006	-5341
▁Back	-5342
▁Both	-5343
▁Date	-5344
▁Docu	-5345
▁Down	-5346
▁Jews	-5347
▁John	-5348
▁Mail	-5349
▁Make	-5350
▁Send	-5351
▁Sind	-5352
▁Size	-5353
▁Stat	-5354
▁band	-5355
▁bind	-5356
▁calc	-5357
▁dign	-5358
▁edge	-5359
▁emph	-5360
▁ends	-5361
▁feed	-5362
▁film	-5363
▁gets	-5364
▁girl	-5365
▁grew	-5366
▁hero	-5367
▁iron	-5368
▁lose	-5369
▁menu	-5370
▁obed	-5371
▁pand	-5372
▁plot	-5373
▁poem	-5374
▁prem	-5375
▁sacr	-5376
▁site	-5377
▁stem	-5378
▁stop	-5379
▁tong	-5380
▁uses	-5381
▁vote	-5382
-2012,	-5383
ainted	-5384
elines	-5385
father	-5386
liance	-5387
olkata	-5388
oughly	-5389
overed	-5390
perial	-5391
rusted	-5392
ursing	-5393
▁Ahmed	-5394
▁Artic	-5395
▁Check	-5396
▁Civil	-5397
▁Clear	-5398
▁Deleg	-5399
▁Field	-5400
▁Innov	-5401
▁Joint	-5402
▁Mahar	-5403
▁Parad	-5404
▁Signs	-5405
▁aside	-5406
▁birds	-5407
▁datab	-5408
▁enact	-5409
▁favor	-5410
▁fifty	-5411
▁final	-5412
▁fonts	-5413
▁glory	-5414
▁grace	-5415
▁kinds	-5416
▁links	-5417
▁oblig	-5418
▁plays	-5419
▁ratio	-5420
▁ready	-5421
▁saved	-5422
▁slain	-5423
▁somet	-5424
▁split	-5425
▁stars	-5426
▁stock	-5427
▁swear	-5428
▁thank	-5429
▁utter	-5430
▁veget	-5431
▁weeks	-5432
achment	-5433
ebruary	-5434
holders	-5435
idences	-5436
isition	-5437
ligible	-5438
ocratic	-5439
ologies	-5440
ourable	-5441
raction	-5442
▁Access	-5443
▁Deputy	-5444
▁Mohamm	-5445
▁Nature	-5446
▁Secret	-5447
▁Social	-5448
▁absent	-5449
▁actual	-5450
▁allows	-5451
▁assemb	-5452
▁bottom	-5453
▁chance	-5454
▁corpor	-5455
▁desert	-5456
▁discip	-5457
▁disput	-5458
▁double	-5459
▁earned	-5460
▁expand	-5461
▁extens	-5462
▁factor	-5463
▁filter	-5464
▁firmly	-5465
▁formal	-5466
▁hidden	-5467
▁inside	-5468
▁interc	-5469
▁joined	-5470
▁legend	-5471
▁listen	-5472
▁motion	-5473
▁neighb	-5474
▁orders	-5475
▁output	-5476
▁papers	-5477
▁player	-5478
▁prepar	-5479
▁recall	-5480
▁reduce	-5481
▁reveal	-5482
▁rupees	-5483
▁stones	-5484
▁submit	-5485
▁twelve	-5486
▁virtue	-5487
▁volume	-5488
▁weight	-5489
omething	-5490
▁Knowing	-5491
▁appreci	-5492
▁assured	-5493
▁bearing	-5494
▁billion	-5495
▁climate	-5496
▁college	-5497
▁degrees	-5498
▁despite	-5499
▁dispute	-5500
▁extreme	-5501
▁factors	-5502
▁fearing	-5503
▁figures	-5504
▁flowers	-5505
▁granted	-5506
▁holding	-5507
▁keeping	-5508
▁library	-5509
▁located	-5510
▁manager	-5511
▁minutes	-5512
▁musical	-5513
▁nuclear	-5514
▁payable	-5515
▁pension	-5516
▁primary	-5517
▁regions	-5518
▁release	-5519
▁schemes	-5520
▁sectors	-5521
▁seeking	-5522
▁submiss	-5523
▁surface	-5524
▁temples	-5525
▁tidings	-5526
▁visited	-5527
▁Buddhist	-5528
▁Remember	-5529
▁Speaking	-5530
▁Training	-5531
▁analysis	-5532
▁answered	-5533
▁apparent	-5534
▁appropri	-5535
▁approval	-5536
▁attained	-5537
▁conflict	-5538
▁covering	-5539
▁customer	-5540
▁database	-5541
▁definite	-5542
▁distinct	-5543
▁division	-5544
▁happened	-5545
▁instance	-5546
▁inviting	-5547
▁minister	-5548
▁multiple	-5549
▁observed	-5550
▁ordinary	-5551
▁proposal	-5552
▁sections	-5553
▁sentence	-5554
▁settings	-5555
▁thinking	-5556
▁weakness	-5557
▁yourself	-5558
▁Assistant	-5559
▁Principal	-5560
▁architect	-5561
▁centuries	-5562
▁commanded	-5563
▁competent	-5564
▁copyright	-5565
▁disbelief	-5566
▁encourage	-5567
▁enjoyment	-5568
▁equipment	-5569
▁fulfilled	-5570
▁generated	-5571
▁immediate	-5572
▁influence	-5573
▁practices	-5574
▁procedure	-5575
▁technical	-5576
▁Convention	-5577
▁Jawaharlal	-5578
▁accordance	-5579
▁commercial	-5580
▁conference	-5581
▁coordinate	-5582
▁governance	-5583
▁healthcare	-5584
▁innovation	-5585
▁objectives	-5586
▁opposition	-5587
▁philosophy	-5588
▁properties	-5589
▁proportion	-5590
▁recipients	-5591
▁recognised	-5592
▁resolution	-5593
▁transgress	-5594
▁university	-5595
▁Explanation	-5596
▁cultivation	-5597
▁destination	-5598
▁engineering	-5599
▁essentially	-5600
▁improvement	-5601
▁individuals	-5602
▁instruments	-5603
▁participate	-5604
▁personality	-5605
▁conservation	-5606
▁difficulties	-5607
▁intellectual	-5608
▁introduction	-5609
▁strengthening	-5610
▁communications	-5611
)?	-5612
04	-5613
3,	-5614
As	-5615
CH	-5616
DF	-5617
ED	-5618
EP	-5619
HT	-5620
IP	-5621
In	-5622
OT	-5623
TP	-5624
rd	-5625
ux	-5626
za	-5627
”.	-5628
)."	-5629
ERS	-5630
RAT	-5631
Why	-5632
ads	-5633
anj	-5634
avy	-5635
eav	-5636
gic	-5637
hon	-5638
iam	-5639
ima	-5640
iny	-5641
iya	-5642
nan	-5643
ole	-5644
oom	-5645
oso	-5646
ota	-5647
rad	-5648
rok	-5649
wal	-5650
zen	-5651
▁'.	-5652
▁29	-5653
▁32	-5654
▁7,	-5655
▁7.	-5656
▁Az	-5657
▁Ce	-5658
▁Hy	-5659
▁IM	-5660
▁Jo	-5661
▁Ka	-5662
▁Sk	-5663
▁Sr	-5664
▁Ur	-5665
▁Ye	-5666
▁bh	-5667
▁dh	-5668
▁wa	-5669
▁“%	-5670
DUCT	-5671
ache	-5672
anga	-5673
anta	-5674
anya	-5675
apur	-5676
athi	-5677
auty	-5678
dent	-5679
dess	-5680
ects	-5681
enth	-5682
hand	-5683
hash	-5684
icip	-5685
isis	-5686
ithm	-5687
itis	-5688
lets	-5689
lies	-5690
ller	-5691
norm	-5692
ocal	-5693
olve	-5694
oser	-5695
that	-5696
uity	-5697
umar	-5698
umed	-5699
umes	-5700
umph	-5701
vate	-5702
wing	-5703
▁13.	-5704
▁CRA	-5705
▁Car	-5706
▁Deb	-5707
▁Dec	-5708
▁Don	-5709
▁Ear	-5710
▁Fed	-5711
▁Hus	-5712
▁Kov	-5713
▁Lat	-5714
▁Mag	-5715
▁Mos	-5716
▁Mun	-5717
▁PRA	-5718
▁Roy	-5719
▁Sik	-5720
▁Sun	-5721
▁Tar	-5722
▁Ter	-5723
▁Vis	-5724
▁ago	-5725
▁alc	-5726
▁cow	-5727
▁cru	-5728
▁cup	-5729
▁hom	-5730
▁jur	-5731
▁mir	-5732
▁mur	-5733
▁pig	-5734
▁sho	-5735
▁spr	-5736
▁ure	-5737
▁vir	-5738
▁win	-5739
araja	-5740
ested	-5741
going	-5742
ifice	-5743
igure	-5744
iliar	-5745
inese	-5746
inite	-5747
iplom	-5748
ishnu	-5749
lands	-5750
ocrit	-5751
oples	-5752
organ	-5753
osure	-5754
overy	-5755
prise	-5756
rance	-5757
rease	-5758
sured	-5759
tings	-5760
usive	-5761
verty	-5762
▁1956	-5763
▁1961	-5764
▁2017	-5765
▁Abdu	-5766
▁Babu	-5767
▁Bhar	-5768
▁Bose	-5769
▁Chat	-5770
▁Exam	-5771
▁Geor	-5772
▁Good	-5773
▁Inte	-5774
▁Keep	-5775
▁Line	-5776
▁Nare	-5777
▁Pand	-5778
▁Play	-5779
▁Pres	-5780
▁Prot	-5781
▁Sard	-5782
▁Tell	-5783
▁Tour	-5784
▁Turk	-5785
▁acts	-5786
▁aged	-5787
▁airc	-5788
▁blue	-5789
▁brid	-5790
▁died	-5791
▁edit	-5792
▁fill	-5793
▁fuel	-5794
▁germ	-5795
▁grad	-5796
▁heat	-5797
▁hill	-5798
▁holy	-5799
▁hunt	-5800
▁legs	-5801
▁load	-5802
▁mist	-5803
▁oral	-5804
▁pick	-5805
▁rare	-5806
▁seas	-5807
▁sets	-5808
▁shop	-5809
▁skin	-5810
▁sold	-5811
▁tube	-5812
▁unaw	-5813
▁unre	-5814
▁wear	-5815
▁west	-5816
▁wine	-5817
ayment	-5818
enance	-5819
erable	-5820
iciary	-5821
icient	-5822
incial	-5823
lement	-5824
others	-5825
▁Amend	-5826
▁Among	-5827
▁Aware	-5828
▁Chait	-5829
▁Class	-5830
▁Count	-5831
▁Green	-5832
▁Image	-5833
▁Print	-5834
▁Quest	-5835
▁Rural	-5836
▁Saudi	-5837
▁Solar	-5838
▁Swami	-5839
▁Title	-5840
▁Water	-5841
▁abide	-5842
▁abund	-5843
▁adequ	-5844
▁adorn	-5845
▁armed	-5846
▁audit	-5847
▁blown	-5848
▁colle	-5849
▁elder	-5850
▁exact	-5851
▁faced	-5852
▁facts	-5853
▁finds	-5854
▁fluid	-5855
▁gradu	-5856
▁ignor	-5857
▁indic	-5858
▁infid	-5859
▁labor	-5860
▁loans	-5861
▁looks	-5862
▁match	-5863
▁mouse	-5864
▁noise	-5865
▁occup	-5866
▁perce	-5867
▁refer	-5868
▁ships	-5869
▁spoke	-5870
▁steel	-5871
▁taste	-5872
▁throw	-5873
▁union	-5874
▁usual	-5875
▁vital	-5876
▁width	-5877
▁wrath	-5878
▁yours	-5879
atively	-5880
ections	-5881
fulness	-5882
heduled	-5883
iversal	-5884
ocrites	-5885
pective	-5886
tenance	-5887
urities	-5888
▁Andhra	-5889
▁Annual	-5890
▁Arabic	-5891
▁Awards	-5892
▁Budget	-5893
▁Contin	-5894
▁Delete	-5895
▁Divine	-5896
▁Folder	-5897
▁Kovind	-5898
▁Madhya	-5899
▁Mughal	-5900
▁Police	-5901
▁Scient	-5902
▁Sheikh	-5903
▁Tagore	-5904
▁Terror	-5905
▁acknow	-5906
▁aggreg	-5907
▁beauty	-5908
▁behold	-5909
▁colour	-5910
▁dispos	-5911
▁doctor	-5912
▁flight	-5913
▁forgot	-5914
▁handle	-5915
▁impact	-5916
▁manage	-5917
▁mosque	-5918
▁moving	-5919
▁narrow	-5920
▁novels	-5921
▁pardon	-5922
▁pestic	-5923
▁plugin	-5924
▁points	-5925
▁poison	-5926
▁propag	-5927
▁seated	-5928
▁sevent	-5929
▁sexual	-5930
▁silver	-5931
▁slight	-5932
▁smooth	-5933
▁stages	-5934
▁starts	-5935
▁survey	-5936
▁switch	-5937
▁tribal	-5938
▁victim	-5939
▁videos	-5940
▁visual	-5941
▁warner	-5942
▁wicked	-5943
iculture	-5944
ilateral	-5945
lessness	-5946
▁Bengali	-5947
▁Brahman	-5948
▁Chapter	-5949
▁Chinese	-5950
▁Comment	-5951
▁England	-5952
▁Justice	-5953
▁Kingdom	-5954
▁Natural	-5955
▁Similar	-5956
▁Subject	-5957
▁aggress	-5958
▁assault	-5959
▁blessed	-5960
▁breasts	-5961
▁classes	-5962
▁conclud	-5963
▁confirm	-5964
▁consent	-5965
▁constra	-5966
▁dealing	-5967
▁deleted	-5968
▁deliber	-5969
▁deliver	-5970
▁divided	-5971
▁enemies	-5972
▁inhabit	-5973
▁leaving	-5974
▁mothers	-5975
▁objects	-5976
▁obvious	-5977
▁offline	-5978
▁pattern	-5979
▁putting	-5980
▁quickly	-5981
▁raising	-5982
▁reality	-5983
▁recited	-5984
▁replace	-5985
▁reports	-5986
▁sending	-5987
▁subsequ	-5988
▁thereby	-5989
▁touched	-5990
▁trouble	-5991
▁uniform	-5992
▁variety	-5993
▁welcome	-5994
ategories	-5995
ependence	-5996
inguished	-5997
isdiction	-5998
▁Accounts	-5999
▁Judgment	-6000
▁Mohammed	-6001
▁acquired	-6002
▁addition	-6003
▁advanced	-6004
▁appeared	-6005
▁consists	-6006
▁criminal	-6007
▁currency	-6008
▁directed	-6009
▁distance	-6010
▁drinking	-6011
▁entirely	-6012
▁expenses	-6013
▁features	-6014
▁fighting	-6015
▁geograph	-6016
▁greatest	-6017
▁incident	-6018
▁intended	-6019
▁internet	-6020
▁maintain	-6021
▁majority	-6022
▁obtained	-6023
▁occurred	-6024
▁politics	-6025
▁pressure	-6026
▁printing	-6027
▁probably	-6028
▁proclaim	-6029
▁recently	-6030
▁resource	-6031
▁response	-6032
▁somewhat	-6033
▁terrible	-6034
ordination	-6035
▁1961-2018	-6036
▁Knowledge	-6037
▁announced	-6038
▁appellant	-6039
▁awareness	-6040
▁discharge	-6041
▁districts	-6042
▁exceeding	-6043
▁exception	-6044
▁favourite	-6045
▁marketing	-6046
▁materials	-6047
▁organised	-6048
▁principle	-6049
▁processes	-6050
▁prostrate	-6051
▁sacrifice	-6052
▁satisfied	-6053
▁solutions	-6054
▁sometimes	-6055
▁specially	-6056
▁territory	-6057
▁background	-6058
▁committees	-6059
▁compliance	-6060
▁department	-6061
▁difficulty	-6062
▁discussion	-6063
▁excellence	-6064
▁friendship	-6065
▁interested	-6066
▁leadership	-6067
▁appropriate	-6068
▁arrangement	-6069
▁communities	-6070
▁discussions	-6071
▁examination	-6072
▁inspiration	-6073
▁represented	-6074
▁requirement	-6075
▁Palestinians	-6076
▁consequences	-6077
▁considerable	-6078
▁consultation	-6079
▁contributions	-6080
▁administrative	-6081
)]	-6082
,%	-6083
-4	-6084
12	-6085
50	-6086
AK	-6087
Ab	-6088
BB	-6089
BI	-6090
Do	-6091
Go	-6092
KS	-6093
NT	-6094
No	-6095
RU	-6096
SE	-6097
UN	-6098
UT	-6099
WA	-6100
de	-6101
hu	-6102
ka	-6103
kk	-6104
AND	-6105
END	-6106
IME	-6107
ITY	-6108
Our	-6109
PRO	-6110
VIC	-6111
Who	-6112
apt	-6113
asp	-6114
cel	-6115
cha	-6116
ded	-6117
gar	-6118
hus	-6119
ius	-6120
met	-6121
nai	-6122
nar	-6123
nce	-6124
nds	-6125
ned	-6126
ofs	-6127
pet	-6128
pta	-6129
rak	-6130
rus	-6131
utt	-6132
▁42	-6133
▁6,	-6134
▁60	-6135
▁90	-6136
▁Aj	-6137
▁BC	-6138
▁Gr	-6139
▁IC	-6140
▁Ma	-6141
▁TV	-6142
▁ax	-6143
▁eg	-6144
▁ly	-6145
airy	-6146
alty	-6147
aluk	-6148
anak	-6149
aram	-6150
arer	-6151
arma	-6152
ding	-6153
edia	-6154
erty	-6155
esty	-6156
fast	-6157
fort	-6158
ghan	-6159
grad	-6160
igil	-6161
iles	-6162
ivek	-6163
izes	-6164
mail	-6165
mits	-6166
ogle	-6167
oted	-6168
othe	-6169
perm	-6170
rans	-6171
rets	-6172
riya	-6173
roll	-6174
tery	-6175
time	-6176
▁14.	-6177
▁188	-6178
▁25,	-6179
▁26.	-6180
▁500	-6181
▁Aff	-6182
▁Any	-6183
▁Art	-6184
▁Ask	-6185
▁Bag	-6186
▁Bah	-6187
▁Bel	-6188
▁Dig	-6189
▁Exp	-6190
▁Fac	-6191
▁Gaz	-6192
▁Had	-6193
▁Hig	-6194
▁Hon	-6195
▁III	-6196
▁Jag	-6197
▁Kab	-6198
▁Kan	-6199
▁Kes	-6200
▁Kir	-6201
▁Lal	-6202
▁Log	-6203
▁Mas	-6204
▁Met	-6205
▁Mim	-6206
▁Nic	-6207
▁Nob	-6208
▁Nor	-6209
▁Rad	-6210
▁Ref	-6211
▁Tru	-6212
▁Var	-6213
▁afo	-6214
▁aim	-6215
▁bes	-6216
▁cou	-6217
▁dog	-6218
▁ego	-6219
▁fed	-6220
▁fee	-6221
▁gun	-6222
▁ice	-6223
▁jun	-6224
▁lac	-6225
▁mud	-6226
▁org	-6227
▁pet	-6228
▁psy	-6229
▁ran	-6230
▁ray	-6231
▁rot	-6232
▁rub	-6233
▁shr	-6234
▁tom	-6235
▁ult	-6236
▁veh	-6237
achal	-6238
acles	-6239
alaya	-6240
amber	-6241
ayana	-6242
cence	-6243
ensed	-6244
ensus	-6245
eties	-6246
guard	-6247
ially	-6248
icted	-6249
inery	-6250
itius	-6251
izont	-6252
leges	-6253
oning	-6254
osers	-6255
osity	-6256
rator	-6257
rench	-6258
riber	-6259
rical	-6260
rogen	-6261
stitu	-6262
urban	-6263
using	-6264
▁2008	-6265
▁2010	-6266
▁2015	-6267
▁2016	-6268
▁Call	-6269
▁Camb	-6270
▁Code	-6271
▁Conv	-6272
▁Cult	-6273
▁Disc	-6274
▁Find	-6275
▁Flag	-6276
▁Hand	-6277
▁Hide	-6278
▁Indo	-6279
▁Lank	-6280
▁Like	-6281
▁MESS	-6282
▁Main	-6283
▁Maur	-6284
▁Modi	-6285
▁Mult	-6286
▁Phys	-6287
▁Read	-6288
▁Requ	-6289
▁Russ	-6290
▁Sand	-6291
▁Song	-6292
▁Vide	-6293
▁Welf	-6294
▁Yoga	-6295
▁acid	-6296
▁chem	-6297
▁clar	-6298
▁cold	-6299
▁cool	-6300
▁crow	-6301
▁deaf	-6302
▁disk	-6303
▁dram	-6304
▁drum	-6305
▁echo	-6306
▁exit	-6307
▁font	-6308
▁gate	-6309
▁hall	-6310
▁hang	-6311
▁icon	-6312
▁idol	-6313
▁jinn	-6314
▁jute	-6315
▁keen	-6316
▁keys	-6317
▁kill	-6318
▁lack	-6319
▁leaf	-6320
▁nine	-6321
▁nose	-6322
▁pipe	-6323
▁rect	-6324
▁rout	-6325
▁sell	-6326
▁shad	-6327
▁soil	-6328
▁subt	-6329
▁tall	-6330
▁ties	-6331
acular	-6332
ameter	-6333
astern	-6334
cessor	-6335
coming	-6336
ective	-6337
ivered	-6338
ixture	-6339
lation	-6340
lihood	-6341
lusion	-6342
ocates	-6343
opping	-6344
othing	-6345
pelled	-6346
rowser	-6347
uation	-6348
▁Akbar	-6349
▁Allow	-6350
▁Arjun	-6351
▁Banks	-6352
▁Being	-6353
▁Forum	-6354
▁Ganga	-6355
▁Kumar	-6356
▁Major	-6357
▁Mount	-6358
▁Odish	-6359
▁Pract	-6360
▁Press	-6361
▁Rules	-6362
▁Somet	-6363
▁Three	-6364
▁Trade	-6365
▁Vivek	-6366
▁Whoso	-6367
▁abode	-6368
▁alike	-6369
▁anger	-6370
▁arbit	-6371
▁blame	-6372
▁block	-6373
▁brain	-6374
▁daily	-6375
▁deleg	-6376
▁deriv	-6377
▁domin	-6378
▁drama	-6379
▁enemy	-6380
▁extra	-6381
▁falls	-6382
▁flesh	-6383
▁floor	-6384
▁forum	-6385
▁frust	-6386
▁girls	-6387
▁glass	-6388
▁grain	-6389
▁honor	-6390
▁incom	-6391
▁incur	-6392
▁inval	-6393
▁merit	-6394
▁minds	-6395
▁misle	-6396
▁oaths	-6397
▁ordin	-6398
▁panel	-6399
▁prose	-6400
▁prost	-6401
▁rapid	-6402
▁react	-6403
▁sales	-6404
▁sharp	-6405
▁shout	-6406
▁socio	-6407
▁souls	-6408
▁spect	-6409
▁sperm	-6410
▁stood	-6411
▁stuff	-6412
▁sympt	-6413
▁teeth	-6414
▁tooth	-6415
▁twain	-6416
▁valid	-6417
▁verse	-6418
▁wages	-6419
▁wheat	-6420
PRODUCT	-6421
essions	-6422
itoring	-6423
▁Associ	-6424
▁Commer	-6425
▁Filter	-6426
▁French	-6427
▁Google	-6428
▁Kerala	-6429
▁Knower	-6430
▁Member	-6431
▁Vishnu	-6432
▁Window	-6433
▁arrive	-6434
▁belied	-6435
▁boards	-6436
▁closed	-6437
▁crisis	-6438
▁decide	-6439
▁decree	-6440
▁delete	-6441
▁diplom	-6442
▁divide	-6443
▁driven	-6444
▁endeav	-6445
▁ending	-6446
▁exists	-6447
▁fabric	-6448
▁facing	-6449
▁helper	-6450
▁herein	-6451
▁images	-6452
▁intest	-6453
▁liquid	-6454
▁namely	-6455
▁naught	-6456
▁possib	-6457
▁praise	-6458
▁rebell	-6459
▁stream	-6460
▁strike	-6461
▁tongue	-6462
▁trying	-6463
▁update	-6464
▁urgent	-6465
▁waters	-6466
▁wished	-6467
▁worlds	-6468
▁worshi	-6469
........	-6470
isations	-6471
▁Affairs	-6472
▁African	-6473
▁Apostle	-6474
▁Article	-6475
▁Besides	-6476
▁Desktop	-6477
▁Exalted	-6478
▁Germany	-6479
▁Hamachi	-6480
▁Kolkata	-6481
▁MESSAGE	-6482
▁Meeting	-6483
▁Members	-6484
▁Support	-6485
▁Welfare	-6486
▁Whoever	-6487
▁Working	-6488
▁accused	-6489
▁charged	-6490
▁charges	-6491
▁concept	-6492
▁corrupt	-6493
▁delight	-6494
▁depends	-6495
▁enabled	-6496
▁enforce	-6497
▁equival	-6498
▁explain	-6499
▁exports	-6500
▁finally	-6501
▁finance	-6502
▁founded	-6503
▁helping	-6504
▁herself	-6505
▁immense	-6506
▁invited	-6507
▁machine	-6508
▁missing	-6509
▁monthly	-6510
▁ordered	-6511
▁peoples	-6512
▁persist	-6513
▁poverty	-6514
▁profits	-6515
▁reading	-6516
▁receipt	-6517
▁reflect	-6518
▁restore	-6519
▁retreat	-6520
▁revenue	-6521
▁sisters	-6522
▁streams	-6523
▁tourist	-6524
▁triumph	-6525
▁unaware	-6526
▁unknown	-6527
▁weapons	-6528
▁whereas	-6529
mentation	-6530
operative	-6531
▁Administ	-6532
▁Although	-6533
▁Business	-6534
▁Economic	-6535
▁February	-6536
▁Previous	-6537
▁Selected	-6538
▁anywhere	-6539
▁arrogant	-6540
▁assigned	-6541
▁collabor	-6542
▁compared	-6543
▁concrete	-6544
▁distress	-6545
▁educated	-6546
▁elephant	-6547
▁employed	-6548
▁facility	-6549
▁familiar	-6550
▁hardware	-6551
▁identify	-6552
▁infinite	-6553
▁inspired	-6554
▁interact	-6555
▁negative	-6556
▁numerous	-6557
▁opposite	-6558
▁planning	-6559
▁refugees	-6560
▁rejected	-6561
▁reminder	-6562
▁repeated	-6563
▁replaced	-6564
▁scholars	-6565
▁suddenly	-6566
▁thoughts	-6567
▁watching	-6568
▁wherever	-6569
▁Amendment	-6570
▁Mauritius	-6571
▁Similarly	-6572
▁advantage	-6573
▁arguments	-6574
▁childhood	-6575
▁collected	-6576
▁considers	-6577
▁delivered	-6578
▁dwellings	-6579
▁efficient	-6580
▁entrusted	-6581
▁estimated	-6582
▁evidences	-6583
▁executive	-6584
▁falsehood	-6585
▁increases	-6586
▁judgement	-6587
▁occasions	-6588
▁officials	-6589
▁operating	-6590
▁otherwise	-6591
▁permitted	-6592
▁philosoph	-6593
▁prevented	-6594
▁principal	-6595
▁religions	-6596
▁reporting	-6597
▁temporary	-6598
▁Innovation	-6599
▁accessible	-6600
▁commission	-6601
▁constantly	-6602
▁continuous	-6603
▁controlled	-6604
▁definition	-6605
▁electronic	-6606
▁facilitate	-6607
▁foundation	-6608
▁frequently	-6609
▁livelihood	-6610
▁maintained	-6611
▁parameters	-6612
▁petitioner	-6613
▁possession	-6614
▁principles	-6615
▁remarkable	-6616
▁sustenance	-6617
▁wrongdoers	-6618
▁Maharashtra	-6619
▁acquisition	-6620
▁contributed	-6621
▁departments	-6622
▁descendants	-6623
▁differences	-6624
▁experiences	-6625
▁inaugurated	-6626
▁inhabitants	-6627
▁intercourse	-6628
▁manufacture	-6629
▁temperature	-6630
▁transaction	-6631
▁translation	-6632
▁Independence	-6633
▁exploitation	-6634
▁jurisdiction	-6635
▁organization	-6636
▁presentation	-6637
▁Automatically	-6638
▁compassionate	-6639
▁comprehensive	-6640
▁determination	-6641
▁investigation	-6642
▁implementation	-6643
▁representative	-6644
",	-6645
-9	-6646
.“	-6647
07	-6648
11	-6649
19	-6650
30	-6651
84	-6652
AD	-6653
FC	-6654
GU	-6655
IF	-6656
NA	-6657
OI	-6658
OP	-6659
Os	-6660
bb	-6661
ga	-6662
mi	-6663
ne	-6664
oa	-6665
oz	-6666
uv	-6667
wa	-6668
zz	-6669
’,	-6670
.),	-6671
EST	-6672
God	-6673
IST	-6674
VER	-6675
Yes	-6676
alo	-6677
box	-6678
chi	-6679
ena	-6680
ere	-6681
eri	-6682
gor	-6683
gra	-6684
hag	-6685
him	-6686
isp	-6687
kal	-6688
kim	-6689
lis	-6690
ney	-6691
ois	-6692
ola	-6693
pap	-6694
ply	-6695
pto	-6696
thi	-6697
ued	-6698
una	-6699
wan	-6700
yam	-6701
▁34	-6702
▁36	-6703
▁4.	-6704
▁65	-6705
▁70	-6706
▁AM	-6707
▁AN	-6708
▁AP	-6709
▁Av	-6710
▁BY	-6711
▁DE	-6712
▁El	-6713
▁HT	-6714
▁Ha	-6715
▁Ir	-6716
▁La	-6717
▁ji	-6718
NAME	-6719
Tube	-6720
acob	-6721
anic	-6722
anie	-6723
appe	-6724
apse	-6725
aque	-6726
ashi	-6727
avas	-6728
aved	-6729
ayan	-6730
cher	-6731
down	-6732
emor	-6733
ffee	-6734
gypt	-6735
hern	-6736
hets	-6737
iche	-6738
ifer	-6739
ilal	-6740
ildo	-6741
isms	-6742
ming	-6743
odes	-6744
ogen	-6745
oken	-6746
olic	-6747
olit	-6748
omas	-6749
oods	-6750
orns	-6751
otic	-6752
part	-6753
rary	-6754
reak	-6755
sein	-6756
seum	-6757
unch	-6758
upon	-6759
wner	-6760
▁(19	-6761
▁(3)	-6762
▁11,	-6763
▁115	-6764
▁17.	-6765
▁187	-6766
▁20,	-6767
▁800	-6768
▁Abd	-6769
▁Ash	-6770
▁Bur	-6771
▁DAY	-6772
▁Das	-6773
▁Get	-6774
▁Gur	-6775
▁Ill	-6776
▁Inc	-6777
▁Ish	-6778
▁Mid	-6779
▁Mir	-6780
▁NIT	-6781
▁Nil	-6782
▁Opp	-6783
▁PDF	-6784
▁RAM	-6785
▁Ras	-6786
▁Sal	-6787
▁Tor	-6788
▁Tri	-6789
▁Vir	-6790
▁WOR	-6791
▁bed	-6792
▁dow	-6793
▁era	-6794
▁fel	-6795
▁fet	-6796
▁fib	-6797
▁fro	-6798
▁fur	-6799
▁hat	-6800
▁hop	-6801
▁hun	-6802
▁ink	-6803
▁joy	-6804
▁mad	-6805
▁mal	-6806
▁mel	-6807
▁tag	-6808
▁tro	-6809
▁tub	-6810
▁tur	-6811
▁ves	-6812
.2014	-6813
IVERS	-6814
India	-6815
abhar	-6816
amboo	-6817
antic	-6818
arita	-6819
asant	-6820
astic	-6821
avali	-6822
ctors	-6823
ector	-6824
entle	-6825
eries	-6826
fered	-6827
hetic	-6828
iable	-6829
ilipp	-6830
inces	-6831
inger	-6832
iring	-6833
irmed	-6834
isted	-6835
itter	-6836
namic	-6837
ocked	-6838
orous	-6839
otton	-6840
pense	-6841
racts	-6842
rahim	-6843
ridge	-6844
unnel	-6845
utosh	-6846
valid	-6847
▁100%	-6848
▁1950	-6849
▁2003	-6850
▁2014	-6851
▁Cash	-6852
▁Clim	-6853
▁Devi	-6854
▁Fair	-6855
▁Font	-6856
▁Fort	-6857
▁Govt	-6858
▁IMAP	-6859
▁MSME	-6860
▁Miss	-6861
▁Noah	-6862
▁Perm	-6863
▁Phot	-6864
▁Ragh	-6865
▁Raja	-6866
▁Road	-6867
▁Said	-6868
▁Sikh	-6869
▁Soci	-6870
▁Sort	-6871
▁Spec	-6872
▁Task	-6873
▁Tele	-6874
▁Thee	-6875
▁Verm	-6876
▁Vers	-6877
▁Writ	-6878
▁Year	-6879
▁bell	-6880
▁bomb	-6881
▁bore	-6882
▁burd	-6883
▁cure	-6884
▁curs	-6885
▁deed	-6886
▁diet	-6887
▁ease	-6888
▁elim	-6889
▁fees	-6890
▁fish	-6891
▁fled	-6892
▁glob	-6893
▁grat	-6894
▁guru	-6895
▁hast	-6896
▁huge	-6897
▁lect	-6898
▁mant	-6899
▁meas	-6900
▁meat	-6901
▁mere	-6902
▁onto	-6903
▁pert	-6904
▁pron	-6905
▁rank	-6906
▁shel	-6907
▁suit	-6908
▁unex	-6909
▁wage	-6910
▁wild	-6911
Indeed	-6912
acious	-6913
atched	-6914
atical	-6915
ertain	-6916
hattis	-6917
icable	-6918
icians	-6919
ienced	-6920
itting	-6921
ladesh	-6922
ostles	-6923
pected	-6924
rishna	-6925
urning	-6926
urrect	-6927
urrent	-6928
▁About	-6929
▁Again	-6930
▁Arabs	-6931
▁Audio	-6932
▁Based	-6933
▁Creat	-6934
▁Egypt	-6935
▁Elect	-6936
▁Hence	-6937
▁Human	-6938
▁Indra	-6939
▁Jesus	-6940
▁Langu	-6941
▁Learn	-6942
▁Liter	-6943
▁Mohan	-6944
▁Money	-6945
▁Music	-6946
▁Owner	-6947
▁Super	-6948
▁Table	-6949
▁accru	-6950
▁adult	-6951
▁agent	-6952
▁alive	-6953
▁alleg	-6954
▁alloc	-6955
▁aught	-6956
▁bliss	-6957
▁bones	-6958
▁bride	-6959
▁cache	-6960
▁camel	-6961
▁caste	-6962
▁chain	-6963
▁click	-6964
▁clubs	-6965
▁coast	-6966
▁dairy	-6967
▁dread	-6968
▁dream	-6969
▁envis	-6970
▁exped	-6971
▁feels	-6972
▁grass	-6973
▁griev	-6974
▁grown	-6975
▁horse	-6976
▁hours	-6977
▁kings	-6978
▁lands	-6979
▁loves	-6980
▁mango	-6981
▁meets	-6982
▁moral	-6983
▁noble	-6984
▁older	-6985
▁paras	-6986
▁penet	-6987
▁pilgr	-6988
▁pipes	-6989
▁plann	-6990
▁poets	-6991
▁postp	-6992
▁pride	-6993
▁prove	-6994
▁rupee	-6995
▁saint	-6996
▁spite	-6997
▁stake	-6998
▁surre	-6999
▁sweet	-7000
▁tasks	-7001
▁teach	-7002
▁tears	-7003
▁thick	-7004
▁title	-7005
▁toler	-7006
▁vehic	-7007
▁veter	-7008
▁walls	-7009
▁wives	-7010
actions	-7011
aintiff	-7012
assment	-7013
chandra	-7014
irement	-7015
izontal	-7016
justice	-7017
tlement	-7018
▁Assess	-7019
▁Buddha	-7020
▁Commun	-7021
▁Compos	-7022
▁Credit	-7023
▁Energy	-7024
▁Engine	-7025
▁Follow	-7026
▁Ganges	-7027
▁Joseph	-7028
▁Museum	-7029
▁Object	-7030
▁Odisha	-7031
▁Online	-7032
▁Person	-7033
▁Sardar	-7034
▁Sikkim	-7035
▁Thomas	-7036
▁advent	-7037
▁advert	-7038
▁afflic	-7039
▁breast	-7040
▁carved	-7041
▁coffee	-7042
▁config	-7043
▁crores	-7044
▁damage	-7045
▁danger	-7046
▁debate	-7047
▁deeply	-7048
▁differ	-7049
▁edited	-7050
▁enable	-7051
▁equity	-7052
▁evildo	-7053
▁exempt	-7054
▁facult	-7055
▁fourth	-7056
▁fright	-7057
▁guests	-7058
▁hardly	-7059
▁highly	-7060
▁ideals	-7061
▁incent	-7062
▁insert	-7063
▁intens	-7064
▁invoke	-7065
▁leaves	-7066
▁lesson	-7067
▁losers	-7068
▁mandap	-7069
▁mining	-7070
▁minute	-7071
▁monkey	-7072
▁murder	-7073
▁myself	-7074
▁negoti	-7075
▁permit	-7076
▁plague	-7077
▁prompt	-7078
▁render	-7079
▁resist	-7080
▁rulers	-7081
▁shapes	-7082
▁silent	-7083
▁solemn	-7084
▁sought	-7085
▁spring	-7086
▁stored	-7087
▁summon	-7088
▁thread	-7089
▁trains	-7090
▁wisdom	-7091
▁worker	-7092
▁writer	-7093
-9-2011,	-7094
aneously	-7095
igilance	-7096
mination	-7097
▁Brahmin	-7098
▁Climate	-7099
▁College	-7100
▁Control	-7101
▁Disable	-7102
▁Eastern	-7103
▁Freedom	-7104
▁Himalay	-7105
▁Ibrahim	-7106
▁Invalid	-7107
▁Limited	-7108
▁Manager	-7109
▁Nations	-7110
▁Network	-7111
▁Perhaps	-7112
▁Related	-7113
▁Through	-7114
▁YouTube	-7115
▁accompl	-7116
▁adverse	-7117
▁biggest	-7118
▁calling	-7119
▁capable	-7120
▁chamber	-7121
▁charity	-7122
▁columns	-7123
▁complic	-7124
▁context	-7125
▁cricket	-7126
▁decades	-7127
▁desired	-7128
▁devices	-7129
▁discont	-7130
▁dismiss	-7131
▁disobey	-7132
▁diverse	-7133
▁enables	-7134
▁farming	-7135
▁felicit	-7136
▁finding	-7137
▁greatly	-7138
▁happens	-7139
▁harmony	-7140
▁housing	-7141
▁initial	-7142
▁injured	-7143
▁insects	-7144
▁intense	-7145
▁journal	-7146
▁killing	-7147
▁lessons	-7148
▁mailing	-7149
▁mixture	-7150
▁nursing	-7151
▁offence	-7152
▁passive	-7153
▁pillars	-7154
▁pointed	-7155
▁prevail	-7156
▁profile	-7157
▁railway	-7158
▁recruit	-7159
▁removal	-7160
▁reprodu	-7161
▁roughly	-7162
▁showing	-7163
▁studied	-7164
▁subsidy	-7165
▁testing	-7166
▁tribute	-7167
▁underst	-7168
▁warrant	-7169
▁western	-7170
▁writers	-7171
criptions	-7172
ilippines	-7173
▁Assembly	-7174
▁Chhattis	-7175
▁Industry	-7176
▁Narendra	-7177
▁Paradise	-7178
▁academic	-7179
▁adequate	-7180
▁aircraft	-7181
▁attached	-7182
▁believes	-7183
▁category	-7184
▁ceremony	-7185
▁colleges	-7186
▁coloured	-7187
▁commands	-7188
▁consolid	-7189
▁councils	-7190
▁critical	-7191
▁discount	-7192
▁ensuring	-7193
▁faithful	-7194
▁guardian	-7195
▁identity	-7196
▁imperial	-7197
▁imported	-7198
▁incorpor	-7199
▁integral	-7200
▁internal	-7201
▁judgment	-7202
▁managing	-7203
▁maturity	-7204
▁measured	-7205
▁networks	-7206
▁normally	-7207
▁obedient	-7208
▁oriented	-7209
▁overcome	-7210
▁patients	-7211
▁proposed	-7212
▁rainfall	-7213
▁recorded	-7214
▁resulted	-7215
▁sanction	-7216
▁situated	-7217
▁substant	-7218
▁suffered	-7219
▁tomorrow	-7220
▁valuable	-7221
▁whenever	-7222
▁writings	-7223
▁Americans	-7224
▁Chaitanya	-7225
▁Christian	-7226
▁Companies	-7227
▁Implement	-7228
▁Ministers	-7229
▁Sometimes	-7230
▁accompany	-7231
▁admission	-7232
▁attention	-7233
▁believing	-7234
▁blessings	-7235
▁celebrate	-7236
▁converted	-7237
▁defendant	-7238
▁dependent	-7239
▁diplomacy	-7240
▁displayed	-7241
▁diversity	-7242
▁emergency	-7243
▁emotional	-7244
▁encompass	-7245
▁enhancing	-7246
▁gradually	-7247
▁household	-7248
▁infection	-7249
▁initiated	-7250
▁injustice	-7251
▁insurance	-7252
▁investors	-7253
▁involving	-7254
▁plaintiff	-7255
▁rejection	-7256
▁requested	-7257
▁resulting	-7258
▁safeguard	-7259
▁secretary	-7260
▁signature	-7261
▁spreading	-7262
▁steadfast	-7263
▁subjected	-7264
▁subscribe	-7265
▁suggested	-7266
▁thousands	-7267
▁witnessed	-7268
▁witnesses	-7269
orticulture	-7270
▁Foundation	-7271
▁Protection	-7272
▁acceptance	-7273
▁accounting	-7274
▁admonition	-7275
▁advantages	-7276
▁applicable	-7277
▁categories	-7278
▁completion	-7279
▁conclusion	-7280
▁constraint	-7281
▁containing	-7282
▁contribute	-7283
▁corruption	-7284
▁democratic	-7285
▁determined	-7286
▁efficiency	-7287
▁engagement	-7288
▁guidelines	-7289
▁hypocrites	-7290
▁indigenous	-7291
▁irrigation	-7292
▁laboratory	-7293
▁submissive	-7294
▁surrounded	-7295
▁undertaken	-7296
▁whomsoever	-7297
▁Application	-7298
▁Association	-7299
▁Convocation	-7300
▁Directorate	-7301
▁Legislative	-7302
▁Vivekananda	-7303
▁achievement	-7304
▁considering	-7305
▁constructed	-7306
▁disbelieved	-7307
▁dissolution	-7308
▁effectively	-7309
▁functioning	-7310
▁generations	-7311
▁instruction	-7312
▁integration	-7313
▁investments	-7314
▁maintenance	-7315
▁outstanding	-7316
▁recognition	-7317
▁Chhattisgarh	-7318
▁Universities	-7319
▁architecture	-7320
▁connectivity	-7321
▁entrepreneur	-7322
▁geographical	-7323
▁intelligence	-7324
▁significance	-7325
▁Parliamentary	-7326
▁concentration	-7327
▁entrepreneurs	-7328
▁environmental	-7329
▁manufacturing	-7330
▁revolutionary	-7331
▁technological	-7332
▁Implementation	-7333
▁authentication	-7334
'?	-7335
,—	-7336
.—	-7337
15	-7338
25	-7339
26	-7340
57	-7341
:"	-7342
Bs	-7343
EE	-7344
FS	-7345
GP	-7346
KH	-7347
LD	-7348
ML	-7349
NU	-7350
VC	-7351
ba	-7352
gl	-7353
gs	-7354
pa	-7355
uj	-7356
yn	-7357
”;	-7358
▁;	-7359
AID	-7360
App	-7361
For	-7362
How	-7363
IOS	-7364
ORT	-7365
Reg	-7366
abh	-7367
agn	-7368
akk	-7369
amy	-7370
arr	-7371
asi	-7372
aze	-7373
bac	-7374
bum	-7375
chs	-7376
cts	-7377
don	-7378
hop	-7379
hor	-7380
jan	-7381
lla	-7382
lls	-7383
lly	-7384
mun	-7385
odh	-7386
pic	-7387
rar	-7388
rum	-7389
tas	-7390
tha	-7391
tty	-7392
urg	-7393
via	-7394
xic	-7395
yal	-7396
yer	-7397
▁''	-7398
▁01	-7399
▁07	-7400
▁45	-7401
▁55	-7402
▁8,	-7403
▁Ba	-7404
▁Bo	-7405
▁DR	-7406
▁Dw	-7407
▁Es	-7408
▁Gh	-7409
▁KB	-7410
▁Ko	-7411
▁Kr	-7412
▁MU	-7413
▁ND	-7414
▁NE	-7415
▁Ny	-7416
▁Pa	-7417
▁Ra	-7418
▁Ru	-7419
▁UT	-7420
▁du	-7421
▁wi	-7422
▁”.	-7423
▁”“	-7424
ISIT	-7425
Your	-7426
abet	-7427
acle	-7428
adra	-7429
agra	-7430
alem	-7431
alia	-7432
alle	-7433
amma	-7434
aria	-7435
aron	-7436
arsh	-7437
asse	-7438
aunt	-7439
bind	-7440
cast	-7441
cely	-7442
char	-7443
cond	-7444
emat	-7445
ette	-7446
gage	-7447
hyth	-7448
iger	-7449
ijay	-7450
imet	-7451
issa	-7452
izer	-7453
lean	-7454
long	-7455
obby	-7456
oman	-7457
oram	-7458
orce	-7459
osit	-7460
otal	-7461
oter	-7462
oyal	-7463
quet	-7464
raid	-7465
rain	-7466
rase	-7467
rehe	-7468
rian	-7469
riet	-7470
room	-7471
rosy	-7472
ulph	-7473
ulse	-7474
unge	-7475
urch	-7476
usuf	-7477
writ	-7478
▁(5)	-7479
▁11.	-7480
▁13,	-7481
▁15,	-7482
▁202	-7483
▁27,	-7484
▁29,	-7485
▁Ary	-7486
▁Aur	-7487
▁Bra	-7488
▁Cor	-7489
▁DAT	-7490
▁Deg	-7491
▁EVE	-7492
▁Fam	-7493
▁Far	-7494
▁Gan	-7495
▁Gos	-7496
▁Hor	-7497
▁ICT	-7498
▁Ign	-7499
▁Jam	-7500
▁Job	-7501
▁Ken	-7502
▁Lad	-7503
▁Mot	-7504
▁Nar	-7505
▁Nat	-7506
▁Oft	-7507
▁Old	-7508
▁Pac	-7509
▁Rab	-7510
▁SCO	-7511
▁Sin	-7512
▁Spr	-7513
▁Teh	-7514
▁Uda	-7515
▁Was	-7516
▁Woe	-7517
▁alt	-7518
▁ang	-7519
▁ash	-7520
▁avo	-7521
▁bag	-7522
▁bug	-7523
▁cod	-7524
▁cub	-7525
▁err	-7526
▁eve	-7527
▁fan	-7528
▁gif	-7529
▁hol	-7530
▁hur	-7531
▁ing	-7532
▁mig	-7533
▁nin	-7534
▁oxy	-7535
▁rom	-7536
▁thr	-7537
▁tin	-7538
▁unp	-7539
▁vim	-7540
▁wax	-7541
▁wre	-7542
.2013	-7543
.2016	-7544
March	-7545
Shall	-7546
There	-7547
ables	-7548
ademi	-7549
agger	-7550
aints	-7551
asion	-7552
asted	-7553
avana	-7554
awful	-7555
celer	-7556
chant	-7557
chron	-7558
dives	-7559
enary	-7560
icity	-7561
icode	-7562
igarh	-7563
ighth	-7564
imary	-7565
iques	-7566
isive	-7567
itage	-7568
itles	-7569
itted	-7570
izard	-7571
orial	-7572
ossip	-7573
oused	-7574
plant	-7575
ulous	-7576
umpet	-7577
useum	-7578
ushed	-7579
utory	-7580
worth	-7581
▁0870	-7582
▁1948	-7583
▁1990	-7584
▁1992	-7585
▁2001	-7586
▁2011	-7587
▁Adam	-7588
▁Alif	-7589
▁Army	-7590
▁Aust	-7591
▁Azad	-7592
▁Bras	-7593
▁Cell	-7594
▁Chen	-7595
▁Club	-7596
▁Each	-7597
▁Five	-7598
▁Free	-7599
▁Gora	-7600
▁Gree	-7601
▁Guid	-7602
▁Hary	-7603
▁Head	-7604
▁Holy	-7605
▁Jack	-7606
▁Khil	-7607
▁Life	-7608
▁Link	-7609
▁Loan	-7610
▁Mong	-7611
▁Musa	-7612
▁NAME	-7613
▁Nadu	-7614
▁Note	-7615
▁Oper	-7616
▁Poet	-7617
▁Poly	-7618
▁Prak	-7619
▁Pras	-7620
▁Prat	-7621
▁Qual	-7622
▁Rang	-7623
▁Rece	-7624
▁Rest	-7625
▁Sank	-7626
▁Self	-7627
▁Sund	-7628
▁Take	-7629
▁Vidy	-7630
▁Ward	-7631
▁Wild	-7632
▁Zoom	-7633
▁auth	-7634
▁baby	-7635
▁bath	-7636
▁bats	-7637
▁bidd	-7638
▁bits	-7639
▁bone	-7640
▁bush	-7641
▁butt	-7642
▁cand	-7643
▁coal	-7644
▁coin	-7645
▁dies	-7646
▁duly	-7647
▁dump	-7648
▁ears	-7649
▁east	-7650
▁exch	-7651
▁flex	-7652
▁glac	-7653
▁hair	-7654
▁harb	-7655
▁hell	-7656
▁lips	-7657
▁lord	-7658
▁lust	-7659
▁mamm	-7660
▁memo	-7661
▁mine	-7662
▁musc	-7663
▁myst	-7664
▁neck	-7665
▁obst	-7666
▁phen	-7667
▁pull	-7668
▁rage	-7669
▁rent	-7670
▁rice	-7671
▁seat	-7672
▁sequ	-7673
▁slew	-7674
▁stri	-7675
▁supr	-7676
▁tied	-7677
▁urea	-7678
▁urge	-7679
▁vacc	-7680
▁vert	-7681
▁weep	-7682
▁whis	-7683
▁wond	-7684
akhand	-7685
ashing	-7686
gments	-7687
igated	-7688
ndered	-7689
oading	-7690
omever	-7691
ormous	-7692
ournal	-7693
people	-7694
ranath	-7695
resaid	-7696
vation	-7697
verage	-7698
▁Appro	-7699
▁Asian	-7700
▁Award	-7701
▁Cause	-7702
▁Citiz	-7703
▁Close	-7704
▁Color	-7705
▁Domin	-7706
▁Empty	-7707
▁Faith	-7708
▁Front	-7709
▁Guard	-7710
▁Gupta	-7711
▁Hamas	-7712
▁James	-7713
▁Jerus	-7714
▁Lanka	-7715
▁Large	-7716
▁Local	-7717
▁Mahal	-7718
▁Mahas	-7719
▁Micro	-7720
▁Nagar	-7721
▁Night	-7722
▁Sahib	-7723
▁Satan	-7724
▁Small	-7725
▁Tasks	-7726
▁Tatya	-7727
▁Trash	-7728
▁VISIT	-7729
▁Vedas	-7730
▁Video	-7731
▁Vijay	-7732
▁White	-7733
▁Yusuf	-7734
▁aband	-7735
▁alcoh	-7736
▁allot	-7737
▁aspir	-7738
▁bears	-7739
▁bills	-7740
▁breed	-7741
▁brill	-7742
▁climb	-7743
▁compr	-7744
▁crash	-7745
▁creed	-7746
▁crops	-7747
▁curse	-7748
▁dates	-7749
▁delta	-7750
▁demon	-7751
▁diagn	-7752
▁doesn	-7753
▁draft	-7754
▁drops	-7755
▁ethos	-7756
▁flour	-7757
▁gains	-7758
▁gates	-7759
▁gross	-7760
▁habit	-7761
▁hence	-7762
▁hindi	-7763
▁hyper	-7764
▁ideal	-7765
▁idols	-7766
▁lakes	-7767
▁lakhs	-7768
▁laugh	-7769
▁layer	-7770
▁loyal	-7771
▁marks	-7772
▁mixed	-7773
▁mosqu	-7774
▁notes	-7775
▁optim	-7776
▁pairs	-7777
▁palms	-7778
▁peaks	-7779
▁persu	-7780
▁photo	-7781
▁piece	-7782
▁plane	-7783
▁plate	-7784
▁psych	-7785
▁rates	-7786
▁roads	-7787
▁seize	-7788
▁semen	-7789
▁sheep	-7790
▁threw	-7791
▁tobac	-7792
▁uncle	-7793
▁wants	-7794
▁wound	-7795
Abraham	-7796
casting	-7797
cedures	-7798
cession	-7799
derabad	-7800
gorithm	-7801
ichever	-7802
ilation	-7803
ipboard	-7804
oration	-7805
orthern	-7806
pection	-7807
resents	-7808
ression	-7809
riculum	-7810
unction	-7811
▁Academ	-7812
▁Afghan	-7813
▁Arabia	-7814
▁Center	-7815
▁Chaluk	-7816
▁France	-7817
▁Friend	-7818
▁German	-7819
▁Having	-7820
▁Integr	-7821
▁Jaipur	-7822
▁Madras	-7823
▁Master	-7824
▁Mother	-7825
▁Orissa	-7826
▁Pandit	-7827
▁Plugin	-7828
▁Praise	-7829
▁Proper	-7830
▁Rajput	-7831
▁Screen	-7832
▁Summit	-7833
▁Territ	-7834
▁Turkey	-7835
▁Valley	-7836
▁abnorm	-7837
▁acting	-7838
▁adding	-7839
▁adjust	-7840
▁advers	-7841
▁ancest	-7842
▁anyway	-7843
▁aright	-7844
▁ascend	-7845
▁bamboo	-7846
▁beasts	-7847
▁bigger	-7848
▁bright	-7849
▁budget	-7850
▁button	-7851
▁camera	-7852
▁career	-7853
▁circle	-7854
▁claims	-7855
▁clouds	-7856
▁conven	-7857
▁cotton	-7858
▁critic	-7859
▁desist	-7860
▁detail	-7861
▁easier	-7862
▁equals	-7863
▁fallen	-7864
▁flying	-7865
▁freely	-7866
▁gossip	-7867
▁grieve	-7868
▁hatred	-7869
▁illust	-7870
▁impart	-7871
▁invent	-7872
▁jungle	-7873
▁launch	-7874
▁linked	-7875
▁lovers	-7876
▁loving	-7877
▁marble	-7878
▁museum	-7879
▁obtain	-7880
▁organs	-7881
▁owners	-7882
▁oxygen	-7883
▁palace	-7884
▁partly	-7885
▁perpet	-7886
▁plains	-7887
▁prince	-7888
▁proved	-7889
▁punish	-7890
▁purity	-7891
▁relief	-7892
▁retrie	-7893
▁salary	-7894
▁seized	-7895
▁sovere	-7896
▁spoken	-7897
▁stands	-7898
▁strive	-7899
▁talent	-7900
▁testim	-7901
▁theirs	-7902
▁themes	-7903
▁tissue	-7904
▁transp	-7905
▁tuberc	-7906
▁unable	-7907
▁vessel	-7908
▁visits	-7909
▁wholes	-7910
▁worthy	-7911
Laughter	-7912
ificates	-7913
igration	-7914
iversary	-7915
secution	-7916
ventions	-7917
ximately	-7918
▁Akademi	-7919
▁Asutosh	-7920
▁Brasero	-7921
▁Capital	-7922
▁Centres	-7923
▁Details	-7924
▁Digital	-7925
▁Foreign	-7926
▁Further	-7927
▁Gazette	-7928
▁Haryana	-7929
▁Hindust	-7930
▁Hussein	-7931
▁Journal	-7932
▁Manipur	-7933
▁Minimum	-7934
▁Pacific	-7935
▁Persian	-7936
▁Popular	-7937
▁Private	-7938
▁Process	-7939
▁Subhash	-7940
▁Tourism	-7941
▁Unknown	-7942
▁Windows	-7943
▁absence	-7944
▁accepts	-7945
▁acquire	-7946
▁archive	-7947
▁awarded	-7948
▁browser	-7949
▁burdens	-7950
▁chooses	-7951
▁citizen	-7952
▁clothes	-7953
▁comprom	-7954
▁compuls	-7955
▁contend	-7956
▁corners	-7957
▁deceive	-7958
▁decides	-7959
▁derived	-7960
▁describ	-7961
▁dignity	-7962
▁disobed	-7963
▁drowned	-7964
▁eastern	-7965
▁elderly	-7966
▁elected	-7967
▁evident	-7968
▁execute	-7969
▁faculty	-7970
▁failure	-7971
▁favours	-7972
▁forests	-7973
▁goddess	-7974
▁headers	-7975
▁healthy	-7976
▁hostile	-7977
▁hunting	-7978
▁influen	-7979
▁invalid	-7980
▁largely	-7981
▁leather	-7982
▁newspap	-7983
▁offered	-7984
▁offices	-7985
▁precise	-7986
▁prepare	-7987
▁protest	-7988
▁puppets	-7989
▁quarter	-7990
▁reaches	-7991
▁realize	-7992
▁resolve	-7993
▁scholar	-7994
▁secrets	-7995
▁segment	-7996
▁serving	-7997
▁seventy	-7998
▁sharing	-7999
▁shelter	-8000
▁signals	-8001
▁skilled	-8002
▁somehow	-8003
▁strikes	-8004
▁theatre	-8005
▁venture	-8006
▁volumes	-8007
▁volunte	-8008
▁warming	-8009
▁weather	-8010
▁wherein	-8011
▁willing	-8012
▁withdra	-8013
abilities	-8014
ciliation	-8015
gradation	-8016
ilitation	-8017
itionally	-8018
sequently	-8019
something	-8020
▁Abdullah	-8021
▁Building	-8022
▁Comments	-8023
▁Commerce	-8024
▁Consider	-8025
▁Download	-8026
▁Election	-8027
▁Heritage	-8028
▁Himachal	-8029
▁Japanese	-8030
▁Maharaja	-8031
▁Maldives	-8032
▁Officers	-8033
▁Position	-8034
▁Protocol	-8035
▁Tribunal	-8036
▁Universe	-8037
▁Whatever	-8038
▁abundant	-8039
▁accommod	-8040
▁accompan	-8041
▁accurate	-8042
▁ancients	-8043
▁apostles	-8044
▁branches	-8045
▁changing	-8046
▁chemical	-8047
▁communal	-8048
▁contempl	-8049
▁contrary	-8050
▁controls	-8051
▁credited	-8052
▁deceased	-8053
▁deprived	-8054
▁designed	-8055
▁disabled	-8056
▁duration	-8057
▁eligible	-8058
▁enormous	-8059
▁examples	-8060
▁fraction	-8061
▁frequent	-8062
▁grateful	-8063
▁hundreds	-8064
▁ignorant	-8065
▁infidels	-8066
▁interpre	-8067
▁likeness	-8068
▁millions	-8069
▁pandemic	-8070
▁persists	-8071
▁phenomen	-8072
▁pictures	-8073
▁precious	-8074
▁presents	-8075
▁programs	-8076
▁quantity	-8077
▁regarded	-8078
▁reminded	-8079
▁removing	-8080
▁reserves	-8081
▁shifting	-8082
▁soldiers	-8083
▁southern	-8084
▁speaking	-8085
▁stations	-8086
▁strongly	-8087
▁suggests	-8088
▁supports	-8089
▁survived	-8090
▁sympathy	-8091
▁unlawful	-8092
▁visiting	-8093
ortunately	-8094
▁Ahmedabad	-8095
▁Bookmarks	-8096
▁Certainly	-8097
▁Copyright	-8098
▁Democracy	-8099
▁Jerusalem	-8100
▁Malayalam	-8101
▁Secondary	-8102
▁Secretary	-8103
▁Sucharita	-8104
▁Terrorism	-8105
▁Transport	-8106
▁Vigilance	-8107
▁achieving	-8108
▁addresses	-8109
▁aforesaid	-8110
▁aggregate	-8111
▁bilateral	-8112
▁complaint	-8113
▁confident	-8114
▁creatures	-8115
▁deposited	-8116
▁discourse	-8117
▁elephants	-8118
▁evildoers	-8119
▁execution	-8120
▁explained	-8121
▁extensive	-8122
▁factories	-8123
▁financing	-8124
▁forgiving	-8125
▁formation	-8126
▁forwarded	-8127
▁happening	-8128
▁highlight	-8129
▁installed	-8130
▁interface	-8131
▁intestine	-8132
▁machinery	-8133
▁mandatory	-8134
▁movements	-8135
▁naturally	-8136
▁organized	-8137
▁practised	-8138
▁preaching	-8139
▁preferred	-8140
▁primarily	-8141
▁protected	-8142
▁protector	-8143
▁purchased	-8144
▁receiving	-8145
▁recognize	-8146
▁relatives	-8147
▁resurrect	-8148
▁sculpture	-8149
▁searching	-8150
▁selection	-8151
▁therefrom	-8152
▁undertake	-8153
▁universal	-8154
▁varieties	-8155
▁voluntary	-8156
▁whichever	-8157
▁Bangladesh	-8158
▁Chandigarh	-8159
▁Industrial	-8160
▁absolutely	-8161
▁apparently	-8162
▁attachment	-8163
▁capability	-8164
▁challenges	-8165
▁collecting	-8166
▁collective	-8167
▁consisting	-8168
▁definitely	-8169
▁derivative	-8170
▁directions	-8171
▁disclosure	-8172
▁formulated	-8173
▁incentives	-8174
▁indication	-8175
▁institutes	-8176
▁invitation	-8177
▁limitation	-8178
▁messengers	-8179
▁neighbours	-8180
▁pertaining	-8181
▁plantation	-8182
▁recognized	-8183
▁relatively	-8184
▁repentance	-8185
▁represents	-8186
▁resistance	-8187
▁respondent	-8188
▁securities	-8189
▁statements	-8190
▁submission	-8191
▁subsequent	-8192
▁supplement	-8193
▁thereafter	-8194
▁traditions	-8195
▁understood	-8196
▁Philippines	-8197
▁Territories	-8198
▁Uttarakhand	-8199
▁alternative	-8200
▁aspirations	-8201
▁competition	-8202
▁controlling	-8203
▁corporation	-8204
▁electricity	-8205
▁experienced	-8206
▁implemented	-8207
▁initiatives	-8208
▁legislature	-8209
▁polytheists	-8210
▁possibility	-8211
▁preparation	-8212
▁publication	-8213
▁realisation	-8214
▁recommended	-8215
▁regulations	-8216
▁remembrance	-8217
▁retribution	-8218
▁supramental	-8219
▁accomplished	-8220
▁availability	-8221
▁certificates	-8222
▁compensation	-8223
▁contemporary	-8224
▁implementing	-8225
▁professional	-8226
▁restrictions	-8227
▁technologies	-8228
▁translations	-8229
▁transmission	-8230
▁characterized	-8231
▁communication	-8232
▁distinguished	-8233
▁felicitations	-8234
▁modifications	-8235
▁parliamentary	-8236
▁constitutional	-8237
▁identification	-8238
▁interpretation	-8239
▁reconciliation	-8240
▁reconstruction	-8241
▁representation	-8242
)!	-8243
14	-8244
22	-8245
2}	-8246
6)	-8247
60	-8248
80	-8249
Al	-8250
Be	-8251
CA	-8252
CI	-8253
CO	-8254
DM	-8255
De	-8256
EA	-8257
EM	-8258
En	-8259
IZ	-8260
LO	-8261
PM	-8262
Pe	-8263
Ph	-8264
SC	-8265
Se	-8266
St	-8267
TA	-8268
TE	-8269
TI	-8270
UD	-8271
UR	-8272
YS	-8273
bh	-8274
di	-8275
ea	-8276
fi	-8277
ki	-8278
km	-8279
mm	-8280
po	-8281
sa	-8282
tk	-8283
ui	-8284
uz	-8285
yl	-8286
▁q	-8287
':%	-8288
.).	-8289
.06	-8290
ART	-8291
ATI	-8292
Are	-8293
FIC	-8294
HAR	-8295
INE	-8296
ISH	-8297
NAB	-8298
Tax	-8299
aac	-8300
abi	-8301
agu	-8302
aha	-8303
aji	-8304
alm	-8305
anc	-8306
ato	-8307
aud	-8308
azi	-8309
but	-8310
das	-8311
dev	-8312
erk	-8313
eta	-8314
fil	-8315
gon	-8316
gue	-8317
ham	-8318
hil	-8319
ibi	-8320
ipp	-8321
iri	-8322
ked	-8323
lec	-8324
log	-8325
low	-8326
mal	-8327
nel	-8328
nes	-8329
off	-8330
okh	-8331
olu	-8332
omi	-8333
oop	-8334
rer	-8335
roc	-8336
rup	-8337
uce	-8338
uda	-8339
udh	-8340
upa	-8341
uri	-8342
uta	-8343
utr	-8344
vit	-8345
wah	-8346
who	-8347
zer	-8348
zil	-8349
{0}	-8350
▁'-	-8351
▁02	-8352
▁1)	-8353
▁37	-8354
▁52	-8355
▁54	-8356
▁66	-8357
▁85	-8358
▁9.	-8359
▁>%	-8360
▁GL	-8361
▁PW	-8362
▁RS	-8363
▁SE	-8364
▁UK	-8365
▁UP	-8366
▁Ut	-8367
▁Ve	-8368
▁dv	-8369
ANCE	-8370
ATES	-8371
Appl	-8372
Hind	-8373
IRTH	-8374
MENT	-8375
They	-8376
achh	-8377
adas	-8378
adhy	-8379
aits	-8380
akas	-8381
aked	-8382
aman	-8383
anct	-8384
anny	-8385
aris	-8386
arnt	-8387
atah	-8388
atin	-8389
atra	-8390
atta	-8391
avid	-8392
book	-8393
chay	-8394
conf	-8395
culi	-8396
cuss	-8397
date	-8398
elsh	-8399
emet	-8400
eper	-8401
fare	-8402
folk	-8403
ford	-8404
gien	-8405
gram	-8406
happ	-8407
husi	-8408
ichi	-8409
idar	-8410
idth	-8411
ikip	-8412
ilee	-8413
inda	-8414
inte	-8415
ione	-8416
isco	-8417
iser	-8418
itha	-8419
itya	-8420
ixty	-8421
link	-8422
list	-8423
lles	-8424
mans	-8425
mary	-8426
ndom	-8427
obar	-8428
ohan	-8429
onym	-8430
oran	-8431
orms	-8432
orts	-8433
oten	-8434
outs	-8435
pent	-8436
pers	-8437
phan	-8438
pled	-8439
rics	-8440
riev	-8441
ruck	-8442
rupt	-8443
seen	-8444
some	-8445
this	-8446
uine	-8447
uits	-8448
unda	-8449
verb	-8450
veys	-8451
vice	-8452
wali	-8453
wood	-8454
xide	-8455
yche	-8456
▁12.	-8457
▁19,	-8458
▁22,	-8459
▁25.	-8460
▁30,	-8461
▁50%	-8462
▁Ach	-8463
▁Ale	-8464
▁Ang	-8465
▁Ans	-8466
▁Ast	-8467
▁Bad	-8468
▁Ban	-8469
▁Bes	-8470
▁Bro	-8471
▁DEF	-8472
▁Dal	-8473
▁EXP	-8474
▁Equ	-8475
▁Exc	-8476
▁Gal	-8477
▁Gtk	-8478
▁Haj	-8479
▁Hot	-8480
▁Jub	-8481
▁Kad	-8482
▁Kav	-8483
▁Kur	-8484
▁Lah	-8485
▁Lib	-8486
▁Lic	-8487
▁Luc	-8488
▁Mac	-8489
▁Mer	-8490
▁Mic	-8491
▁Miz	-8492
▁Mor	-8493
▁Mur	-8494
▁Nam	-8495
▁Occ	-8496
▁Pub	-8497
▁RBI	-8498
▁Sem	-8499
▁Sex	-8500
▁Smt	-8501
▁Squ	-8502
▁Tea	-8503
▁Til	-8504
▁Tog	-8505
▁Tom	-8506
▁URI	-8507
▁Unf	-8508
▁Vas	-8509
▁Ven	-8510
▁Way	-8511
▁Wel	-8512
▁Zal	-8513
▁ail	-8514
▁anx	-8515
▁apt	-8516
▁beg	-8517
▁bid	-8518
▁bio	-8519
▁cop	-8520
▁cum	-8521
▁din	-8522
▁dyn	-8523
▁exh	-8524
▁fat	-8525
▁fix	-8526
▁flo	-8527
▁gap	-8528
▁gop	-8529
▁gor	-8530
▁hab	-8531
▁hem	-8532
▁hrs	-8533
▁kid	-8534
▁kil	-8535
▁lev	-8536
▁map	-8537
▁mic	-8538
▁mix	-8539
▁nic	-8540
▁orn	-8541
▁pag	-8542
▁pit	-8543
▁que	-8544
▁rig	-8545
▁rod	-8546
▁rou	-8547
▁sad	-8548
▁str	-8549
▁tyr	-8550
▁unw	-8551
▁vac	-8552
▁vag	-8553
▁van	-8554
▁vel	-8555
▁vul	-8556
.2017	-8557
Moses	-8558
adeva	-8559
adhak	-8560
adiya	-8561
agues	-8562
aland	-8563
allow	-8564
ambar	-8565
amese	-8566
amond	-8567
aniel	-8568
antly	-8569
apore	-8570
apsed	-8571
arant	-8572
arest	-8573
astri	-8574
atell	-8575
atern	-8576
chief	-8577
class	-8578
comed	-8579
ctive	-8580
doers	-8581
ename	-8582
erior	-8583
erved	-8584
essor	-8585
giene	-8586
group	-8587
harva	-8588
hibit	-8589
iatic	-8590
icent	-8591
icule	-8592
iency	-8593
ieves	-8594
imate	-8595
inals	-8596
inate	-8597
inear	-8598
inees	-8599
inkle	-8600
ipped	-8601
isher	-8602
itual	-8603
ivals	-8604
journ	-8605
kking	-8606
oking	-8607
omach	-8608
onial	-8609
orney	-8610
osted	-8611
oster	-8612
oters	-8613
owers	-8614
power	-8615
pread	-8616
rates	-8617
reens	-8618
riers	-8619
ronic	-8620
rowth	-8621
throp	-8622
uddin	-8623
ulent	-8624
ulses	-8625
ureau	-8626
urved	-8627
versy	-8628
water	-8629
ystem	-8630
▁(1),	-8631
▁1957	-8632
▁1994	-8633
▁1997	-8634
▁1998	-8635
▁1999	-8636
▁2018	-8637
▁Acts	-8638
▁Anal	-8639
▁Area	-8640
▁Ayat	-8641
▁Barb	-8642
▁Bhai	-8643
▁Cast	-8644
▁City	-8645
▁Does	-8646
▁Drug	-8647
▁Erdo	-8648
▁Ever	-8649
▁Face	-8650
▁Farm	-8651
▁Four	-8652
▁Full	-8653
▁HTML	-8654
▁Hill	-8655
▁Hold	-8656
▁Iron	-8657
▁Jain	-8658
▁Join	-8659
▁Kaly	-8660
▁Kart	-8661
▁Kath	-8662
▁Kumb	-8663
▁Land	-8664
▁Lock	-8665
▁Long	-8666
▁Look	-8667
▁Love	-8668
▁Makk	-8669
▁NIOS	-8670
▁None	-8671
▁Norm	-8672
▁Prob	-8673
▁Resp	-8674
▁Rock	-8675
▁SAYS	-8676
▁Saty	-8677
▁Soft	-8678
▁Stop	-8679
▁Stud	-8680
▁Sult	-8681
▁Teac	-8682
▁Term	-8683
▁Tham	-8684
▁Urdu	-8685
▁Vish	-8686
▁abst	-8687
▁acre	-8688
▁ages	-8689
▁amen	-8690
▁arri	-8691
▁arts	-8692
▁awak	-8693
▁axis	-8694
▁bact	-8695
▁bicy	-8696
▁bord	-8697
▁boys	-8698
▁buff	-8699
▁bulk	-8700
▁bull	-8701
▁buoy	-8702
▁cant	-8703
▁culp	-8704
▁dull	-8705
▁ecst	-8706
▁epic	-8707
▁epid	-8708
▁fert	-8709
▁fiss	-8710
▁fool	-8711
▁guns	-8712
▁heal	-8713
▁heir	-8714
▁inev	-8715
▁inhe	-8716
▁isol	-8717
▁jail	-8718
▁jeal	-8719
▁jest	-8720
▁lake	-8721
▁laug	-8722
▁lays	-8723
▁liar	-8724
▁lone	-8725
▁maid	-8726
▁marg	-8727
▁melt	-8728
▁mete	-8729
▁myth	-8730
▁nigh	-8731
▁nurt	-8732
▁pace	-8733
▁pige	-8734
▁pled	-8735
▁pump	-8736
▁quit	-8737
▁recl	-8738
▁roll	-8739
▁rope	-8740
▁sake	-8741
▁scar	-8742
▁scat	-8743
▁scen	-8744
▁ship	-8745
▁shut	-8746
▁snow	-8747
▁stim	-8748
▁tail	-8749
▁tang	-8750
▁tent	-8751
▁thro	-8752
▁tomb	-8753
▁torn	-8754
▁unhe	-8755
▁vain	-8756
▁wake	-8757
▁wipe	-8758
▁wont	-8759
▁worn	-8760
16_01.	-8761
ablish	-8762
amming	-8763
bedkar	-8764
cience	-8765
clause	-8766
criber	-8767
ending	-8768
ervous	-8769
ewable	-8770
ficial	-8771
friend	-8772
hetics	-8773
holder	-8774
icture	-8775
isible	-8776
itical	-8777
itious	-8778
ivated	-8779
lessly	-8780
manent	-8781
olence	-8782
onents	-8783
orious	-8784
proofs	-8785
ribute	-8786
rypted	-8787
seless	-8788
ulosis	-8789
umbent	-8790
utants	-8791
vision	-8792
▁Abdul	-8793
▁Apply	-8794
▁Basic	-8795
▁Bills	-8796
▁Brief	-8797
▁Chann	-8798
▁Croat	-8799
▁Earth	-8800
▁Encry	-8801
▁Force	-8802
▁Grace	-8803
▁Grand	-8804
▁Griev	-8805
▁Ident	-8806
▁Input	-8807
▁Jacob	-8808
▁Judge	-8809
▁Laksh	-8810
▁Leave	-8811
▁Minor	-8812
▁Obama	-8813
▁Patna	-8814
▁Peace	-8815
▁Preet	-8816
▁Prior	-8817
▁Reset	-8818
▁Shiva	-8819
▁Short	-8820
▁Stamp	-8821
▁Track	-8822
▁Wales	-8823
▁Welsh	-8824
▁Words	-8825
▁Would	-8826
▁Young	-8827
▁adapt	-8828
▁aimed	-8829
▁alarm	-8830
▁alter	-8831
▁ample	-8832
▁angel	-8833
▁angle	-8834
▁auton	-8835
▁blows	-8836
▁brick	-8837
▁broke	-8838
▁calam	-8839
▁catch	-8840
▁coral	-8841
▁coron	-8842
▁cried	-8843
▁delay	-8844
▁delic	-8845
▁dirty	-8846
▁dowry	-8847
▁drugs	-8848
▁dying	-8849
▁etern	-8850
▁evalu	-8851
▁fancy	-8852
▁flood	-8853
▁games	-8854
▁globe	-8855
▁goals	-8856
▁grief	-8857
▁haven	-8858
▁hears	-8859
▁holds	-8860
▁inner	-8861
▁intol	-8862
▁joins	-8863
▁leads	-8864
▁lease	-8865
▁liars	-8866
▁lotus	-8867
▁loved	-8868
▁maybe	-8869
▁metal	-8870
▁metro	-8871
▁minim	-8872
▁mouth	-8873
▁nemat	-8874
▁ornam	-8875
▁overw	-8876
▁owing	-8877
▁pound	-8878
▁quote	-8879
▁rains	-8880
▁ranks	-8881
▁realm	-8882
▁reply	-8883
▁reput	-8884
▁rests	-8885
▁rhyth	-8886
▁royal	-8887
▁ruler	-8888
▁sanct	-8889
▁seals	-8890
▁shade	-8891
▁shame	-8892
▁sites	-8893
▁spont	-8894
▁straw	-8895
▁tales	-8896
▁tells	-8897
▁tests	-8898
▁thumb	-8899
▁topic	-8900
▁torch	-8901
▁tough	-8902
▁train	-8903
▁trave	-8904
▁tries	-8905
▁usage	-8906
▁waves	-8907
▁whoso	-8908
▁worse	-8909
acharya	-8910
ailable	-8911
estival	-8912
icapped	-8913
ificent	-8914
istical	-8915
lasting	-8916
ourcing	-8917
rations	-8918
ressing	-8919
rishnan	-8920
ruption	-8921
verting	-8922
welling	-8923
▁Action	-8924
▁Active	-8925
▁Agency	-8926
▁Bhakti	-8927
▁Chance	-8928
▁Comput	-8929
▁Danish	-8930
▁Except	-8931
▁Fields	-8932
▁Forest	-8933
▁Format	-8934
▁Ganesh	-8935
▁Garden	-8936
▁George	-8937
▁Indira	-8938
▁Labour	-8939
▁Mosque	-8940
▁Number	-8941
▁Prepar	-8942
▁Radhak	-8943
▁Regist	-8944
▁Return	-8945
▁Satish	-8946
▁Sector	-8947
▁Seeing	-8948
▁Seyche	-8949
▁Tehran	-8950
▁Update	-8951
▁Wealth	-8952
▁admiss	-8953
▁afford	-8954
▁afraid	-8955
▁agency	-8956
▁arises	-8957
▁arrang	-8958
▁artist	-8959
▁asking	-8960
▁atomic	-8961
▁bestow	-8962
▁bounds	-8963
▁branch	-8964
▁buying	-8965
▁candid	-8966
▁caught	-8967
▁center	-8968
▁cheque	-8969
▁compan	-8970
▁corner	-8971
▁couldn	-8972
▁crafts	-8973
▁cursor	-8974
▁decade	-8975
▁deduct	-8976
▁digest	-8977
▁disgra	-8978
▁dishon	-8979
▁eating	-8980
▁emphas	-8981
▁engage	-8982
▁enjoys	-8983
▁errors	-8984
▁estate	-8985
▁filing	-8986
▁forbid	-8987
▁gained	-8988
▁handed	-8989
▁header	-8990
▁holder	-8991
▁hunger	-8992
▁immort	-8993
▁interd	-8994
▁judges	-8995
▁learnt	-8996
▁lesser	-8997
▁liable	-8998
▁loaded	-8999
▁lowest	-9000
▁manure	-9001
▁models	-9002
▁native	-9003
▁neglig	-9004
▁novice	-9005
▁outlay	-9006
▁overth	-9007
▁packet	-9008
▁phones	-9009
▁plural	-9010
▁preced	-9011
▁pretty	-9012
▁puppet	-9013
▁purify	-9014
▁random	-9015
▁recite	-9016
▁refund	-9017
▁reiter	-9018
▁remote	-9019
▁retali	-9020
▁rising	-9021
▁saving	-9022
▁sender	-9023
▁shadow	-9024
▁simply	-9025
▁sinful	-9026
▁spared	-9027
▁specim	-9028
▁struck	-9029
▁struct	-9030
▁strugg	-9031
▁subtle	-9032
▁termed	-9033
▁timber	-9034
▁toward	-9035
▁tribes	-9036
▁tunnel	-9037
▁unhapp	-9038
▁voting	-9039
▁wooden	-9040
▁wounds	-9041
Applause	-9042
November	-9043
asonable	-9044
economic	-9045
estation	-9046
ikipedia	-9047
iliation	-9048
inations	-9049
missions	-9050
ordinary	-9051
ployment	-9052
reditary	-9053
umerable	-9054
▁Airport	-9055
▁Appoint	-9056
▁Archive	-9057
▁Austral	-9058
▁Command	-9059
▁Deposit	-9060
▁Empathy	-9061
▁Finally	-9062
▁Initial	-9063
▁Introdu	-9064
▁Israeli	-9065
▁Majesty	-9066
▁Mizoram	-9067
▁Nicobar	-9068
▁Primary	-9069
▁Quality	-9070
▁Session	-9071
▁Several	-9072
▁Turkish	-9073
▁Udaipur	-9074
▁Unicode	-9075
▁Upanish	-9076
▁Version	-9077
▁Washing	-9078
▁William	-9079
▁Witness	-9080
▁amended	-9081
▁anxious	-9082
▁arising	-9083
▁artific	-9084
▁assumed	-9085
▁authors	-9086
▁banquet	-9087
▁bicycle	-9088
▁boiling	-9089
▁captain	-9090
▁carrier	-9091
▁carries	-9092
▁causing	-9093
▁comfort	-9094
▁counted	-9095
▁cutting	-9096
▁declare	-9097
▁defence	-9098
▁defines	-9099
▁demands	-9100
▁denomin	-9101
▁disappe	-9102
▁disinte	-9103
▁drawing	-9104
▁drought	-9105
▁dynamic	-9106
▁edition	-9107
▁enacted	-9108
▁enquiry	-9109
▁enthusi	-9110
▁entries	-9111
▁equally	-9112
▁exactly	-9113
▁existed	-9114
▁feature	-9115
▁flowing	-9116
▁focused	-9117
▁formula	-9118
▁genuine	-9119
▁glitter	-9120
▁glorify	-9121
▁helpers	-9122
▁helpful	-9123
▁hosting	-9124
▁hygiene	-9125
▁imagine	-9126
▁impress	-9127
▁islands	-9128
▁jealous	-9129
▁laughed	-9130
▁liberty	-9131
▁licence	-9132
▁license	-9133
▁loading	-9134
▁managed	-9135
▁mandapa	-9136
▁markets	-9137
▁mistake	-9138
▁neglect	-9139
▁organic	-9140
▁outcome	-9141
▁overall	-9142
▁partner	-9143
▁passage	-9144
▁passion	-9145
▁periods	-9146
▁planned	-9147
▁players	-9148
▁preview	-9149
▁records	-9150
▁reforms	-9151
▁refused	-9152
▁relates	-9153
▁reorgan	-9154
▁reputed	-9155
▁researc	-9156
▁respite	-9157
▁restart	-9158
▁rightly	-9159
▁routine	-9160
▁savings	-9161
▁selling	-9162
▁serpent	-9163
▁shifted	-9164
▁singing	-9165
▁sinners	-9166
▁storing	-9167
▁strange	-9168
▁survive	-9169
▁sympath	-9170
▁teacher	-9171
▁thereto	-9172
▁thunder	-9173
▁tissues	-9174
▁tobacco	-9175
▁totally	-9176
▁tourism	-9177
▁trusted	-9178
▁utility	-9179
▁vaccine	-9180
▁watched	-9181
▁wedding	-9182
▁weeding	-9183
▁windows	-9184
▁younger	-9185
eneration	-9186
ictionary	-9187
▁Ambedkar	-9188
▁Assamese	-9189
▁Buddhism	-9190
▁Contacts	-9191
▁Delegate	-9192
▁Guardian	-9193
▁Hinduism	-9194
▁Internet	-9195
▁Language	-9196
▁Nagaland	-9197
▁Partners	-9198
▁Password	-9199
▁Railways	-9200
▁Ramayana	-9201
▁Regional	-9202
▁Settings	-9203
▁Transfer	-9204
▁Vaishnav	-9205
▁absorbed	-9206
▁actively	-9207
▁admitted	-9208
▁adoption	-9209
▁arrested	-9210
▁attended	-9211
▁boundary	-9212
▁channels	-9213
▁clearing	-9214
▁combined	-9215
▁commonly	-9216
▁composer	-9217
▁comprehe	-9218
▁coverage	-9219
▁creative	-9220
▁creature	-9221
▁declined	-9222
▁depicted	-9223
▁dialogue	-9224
▁disaster	-9225
▁discover	-9226
▁displace	-9227
▁disposal	-9228
▁emerging	-9229
▁emphasis	-9230
▁enjoined	-9231
▁expanded	-9232
▁filename	-9233
▁finished	-9234
▁fourteen	-9235
▁generous	-9236
▁graduate	-9237
▁historic	-9238
▁holistic	-9239
▁honoured	-9240
▁humility	-9241
▁husbands	-9242
▁hydrogen	-9243
▁inclined	-9244
▁incurred	-9245
▁inherent	-9246
▁interven	-9247
▁investig	-9248
▁judicial	-9249
▁lifeless	-9250
▁merciful	-9251
▁miracles	-9252
▁mortgage	-9253
▁offering	-9254
▁painting	-9255
▁peaceful	-9256
▁perceive	-9257
▁planting	-9258
▁predomin	-9259
▁prisoner	-9260
▁produces	-9261
▁purified	-9262
▁reaching	-9263
▁realised	-9264
▁recovery	-9265
▁replying	-9266
▁restored	-9267
▁revision	-9268
▁sequence	-9269
▁sessions	-9270
▁suburban	-9271
▁symbolic	-9272
▁symptoms	-9273
▁talented	-9274
▁thankful	-9275
▁treasure	-9276
▁trekking	-9277
▁tribunal	-9278
▁universe	-9279
▁verified	-9280
▁warnings	-9281
▁welcomed	-9282
▁whomever	-9283
ablishment	-9284
reditation	-9285
▁Configure	-9286
▁Directory	-9287
▁Effective	-9288
▁Hyderabad	-9289
▁Insurance	-9290
▁Mahasabha	-9291
▁Palestine	-9292
▁Premchand	-9293
▁Procedure	-9294
▁Provinces	-9295
▁Questions	-9296
▁Scheduled	-9297
▁Selection	-9298
▁Signature	-9299
▁Vaishnava	-9300
▁abandoned	-9301
▁addressed	-9302
▁affection	-9303
▁allowance	-9304
▁arresting	-9305
▁arrogance	-9306
▁assurance	-9307
▁attribute	-9308
▁basically	-9309
▁biosphere	-9310
▁buildings	-9311
▁classical	-9312
▁clearance	-9313
▁component	-9314
▁computing	-9315
▁continues	-9316
▁dedicated	-9317
▁depending	-9318
▁determine	-9319
▁dimension	-9320
▁discontin	-9321
▁everybody	-9322
▁evolution	-9323
▁exchanges	-9324
▁extremely	-9325
▁faithless	-9326
▁forbidden	-9327
▁framework	-9328
▁frustrate	-9329
▁greatness	-9330
▁idolaters	-9331
▁improving	-9332
▁incidents	-9333
▁institute	-9334
▁intention	-9335
▁judiciary	-9336
▁magicians	-9337
▁obviously	-9338
▁ornaments	-9339
▁partition	-9340
▁personnel	-9341
▁president	-9342
▁processed	-9343
▁projected	-9344
▁prominent	-9345
▁qualities	-9346
▁radiation	-9347
▁reckoning	-9348
▁recovered	-9349
▁reflected	-9350
▁secondary	-9351
▁surrender	-9352
▁sustained	-9353
▁testimony	-9354
▁therewith	-9355
▁vegetable	-9356
▁Additional	-9357
▁Beneficent	-9358
▁Committees	-9359
▁Punishment	-9360
▁Revolution	-9361
▁Scientific	-9362
▁Seychelles	-9363
▁Washington	-9364
▁addressing	-9365
▁aggressive	-9366
▁agreements	-9367
▁appearance	-9368
▁associates	-9369
▁attraction	-9370
▁beneficial	-9371
▁complaints	-9372
▁constitute	-9373
▁conversion	-9374
▁curriculum	-9375
▁deficiency	-9376
▁devotional	-9377
▁discipline	-9378
▁encouraged	-9379
▁equivalent	-9380
▁exhibition	-9381
▁experiment	-9382
▁forefather	-9383
▁hereditary	-9384
▁incomplete	-9385
▁innovative	-9386
▁integrated	-9387
▁invocation	-9388
▁meditation	-9389
▁newspapers	-9390
▁originally	-9391
▁perfection	-9392
▁pesticides	-9393
▁privileges	-9394
▁propaganda	-9395
▁questioned	-9396
▁recompense	-9397
▁remembered	-9398
▁revelation	-9399
▁sentiments	-9400
▁subscriber	-9401
▁supporting	-9402
▁techniques	-9403
▁vertically	-9404
▁wrongdoing	-9405
▁Afghanistan	-9406
▁Educational	-9407
▁Palestinian	-9408
▁Prohibition	-9409
▁acknowledge	-9410
▁appreciated	-9411
▁complicated	-9412
▁connections	-9413
▁consumption	-9414
▁elimination	-9415
▁encouraging	-9416
▁enforcement	-9417
▁innovations	-9418
▁legislation	-9419
▁necessarily	-9420
▁progressive	-9421
▁substantial	-9422
▁superficial	-9423
▁surrounding	-9424
▁territories	-9425
▁undertaking	-9426
▁utilization	-9427
▁administered	-9428
▁congratulate	-9429
▁disabilities	-9430
▁horticulture	-9431
▁installation	-9432
▁modification	-9433
▁periodically	-9434
▁productivity	-9435
▁respectively	-9436
▁stakeholders	-9437
▁tuberculosis	-9438
▁universities	-9439
▁Documentation	-9440
▁Establishment	-9441
▁approximately	-9442
▁automatically	-9443
▁corresponding	-9444
▁extraordinary	-9445
▁manufacturers	-9446
▁organisations	-9447
▁philosophical	-9448
▁righteousness	-9449
▁characteristic	-9450
▁transformation	-9451
▁recommendations	-9452
▁representatives	-9453
':	-9454
)(	-9455
1)	-9456
13	-9457
17	-9458
28	-9459
3)	-9460
44	-9461
68	-9462
6:	-9463
75	-9464
98	-9465
?'	-9466
AI	-9467
AO	-9468
AU	-9469
AV	-9470
Ad	-9471
Am	-9472
BC	-9473
By	-9474
CS	-9475
DD	-9476
EL	-9477
FR	-9478
Gs	-9479
HI	-9480
Hy	-9481
IG	-9482
II	-9483
LL	-9484
MN	-9485
MS	-9486
Mo	-9487
NO	-9488
NS	-9489
OB	-9490
On	-9491
Or	-9492
PC	-9493
Pr	-9494
RT	-9495
SP	-9496
SS	-9497
Tw	-9498
WP	-9499
cr	-9500
mo	-9501
pi	-9502
sm	-9503
ym	-9504
zy	-9505
.03	-9506
200	-9507
ALL	-9508
ARY	-9509
All	-9510
But	-9511
Cal	-9512
DAV	-9513
Did	-9514
ERJ	-9515
IDS	-9516
IMS	-9517
Pay	-9518
RAM	-9519
RIT	-9520
ROM	-9521
Rec	-9522
TER	-9523
ULT	-9524
URE	-9525
VID	-9526
abs	-9527
aki	-9528
ald	-9529
alg	-9530
alp	-9531
aly	-9532
aro	-9533
asw	-9534
atn	-9535
awa	-9536
bly	-9537
cap	-9538
cca	-9539
cow	-9540
dir	-9541
eem	-9542
ele	-9543
ema	-9544
ene	-9545
enn	-9546
eps	-9547
fly	-9548
fol	-9549
fty	-9550
gal	-9551
ibh	-9552
ibl	-9553
ida	-9554
itc	-9555
ito	-9556
jid	-9557
lin	-9558
map	-9559
non	-9560
nty	-9561
occ	-9562
ocy	-9563
opl	-9564
ops	-9565
pal	-9566
pra	-9567
rob	-9568
sis	-9569
sub	-9570
ugg	-9571
ugu	-9572
uis	-9573
uka	-9574
unc	-9575
var	-9576
vic	-9577
was	-9578
yar	-9579
zan	-9580
▁".	-9581
▁(*	-9582
▁(0	-9583
▁(_	-9584
▁06	-9585
▁09	-9586
▁3;	-9587
▁4,	-9588
▁43	-9589
▁47	-9590
▁48	-9591
▁51	-9592
▁72	-9593
▁87	-9594
▁AC	-9595
▁AI	-9596
▁BE	-9597
▁BH	-9598
▁CE	-9599
▁Ca	-9600
▁Da	-9601
▁Fi	-9602
▁GU	-9603
▁Ga	-9604
▁Jh	-9605
▁KP	-9606
▁Ks	-9607
▁Ku	-9608
▁LE	-9609
▁Lt	-9610
▁MD	-9611
▁Na	-9612
▁PU	-9613
▁Pu	-9614
▁Py	-9615
▁RE	-9616
▁Ro	-9617
▁SW	-9618
▁Sl	-9619
▁Wa	-9620
▁XX	-9621
▁Ya	-9622
▁ay	-9623
▁ii	-9624
▁ju	-9625
▁kg	-9626
▁od	-9627
▁py	-9628
▁sq	-9629
▁ud	-9630
▁vo	-9631
▁ww	-9632
▁‘%	-9633
ASHT	-9634
ESCO	-9635
Have	-9636
IONS	-9637
MBER	-9638
OUND	-9639
Oper	-9640
RESS	-9641
SEAN	-9642
That	-9643
When	-9644
abai	-9645
abin	-9646
adav	-9647
addy	-9648
adre	-9649
afed	-9650
ajan	-9651
aleh	-9652
amom	-9653
anal	-9654
ango	-9655
arct	-9656
aren	-9657
arks	-9658
arts	-9659
asha	-9660
asik	-9661
asin	-9662
asty	-9663
atel	-9664
avad	-9665
aven	-9666
avil	-9667
ayuk	-9668
bles	-9669
bran	-9670
brew	-9671
ctag	-9672
elet	-9673
eroz	-9674
etle	-9675
etus	-9676
film	-9677
fire	-9678
hair	-9679
iced	-9680
icks	-9681
ieth	-9682
ikar	-9683
ikud	-9684
iler	-9685
ille	-9686
imun	-9687
inge	-9688
irms	-9689
ithe	-9690
itra	-9691
itud	-9692
kara	-9693
life	-9694
look	-9695
lymp	-9696
mble	-9697
mens	-9698
mind	-9699
more	-9700
nail	-9701
ntax	-9702
odal	-9703
oget	-9704
ogue	-9705
okes	-9706
olor	-9707
onic	-9708
onut	-9709
opal	-9710
oure	-9711
pace	-9712
pell	-9713
pite	-9714
plus	-9715
pora	-9716
qual	-9717
rams	-9718
rika	-9719
rior	-9720
rium	-9721
ront	-9722
rosc	-9723
them	-9724
ucin	-9725
udev	-9726
udra	-9727
ulus	-9728
urna	-9729
utta	-9730
vals	-9731
viet	-9732
wage	-9733
west	-9734
wide	-9735
worm	-9736
ying	-9737
your	-9738
zbar	-9739
zing	-9740
▁'19	-9741
▁110	-9742
▁17,	-9743
▁184	-9744
▁185	-9745
▁23.	-9746
▁25%	-9747
▁400	-9748
▁46.	-9749
▁ATT	-9750
▁Abh	-9751
▁Alm	-9752
▁Alt	-9753
▁Ana	-9754
▁Bat	-9755
▁Bet	-9756
▁Boy	-9757
▁Cub	-9758
▁Cyr	-9759
▁Dak	-9760
▁Dar	-9761
▁Dri	-9762
▁Ele	-9763
▁Emb	-9764
▁Fak	-9765
▁Fig	-9766
▁Fit	-9767
▁Fle	-9768
▁Foc	-9769
▁Fra	-9770
▁Fre	-9771
▁GDP	-9772
▁Gad	-9773
▁Gen	-9774
▁Gun	-9775
▁HIS	-9776
▁ISO	-9777
▁KDE	-9778
▁Kam	-9779
▁Kus	-9780
▁Lay	-9781
▁Lot	-9782
▁Low	-9783
▁Max	-9784
▁Moz	-9785
▁Nah	-9786
▁OCC	-9787
▁Oil	-9788
▁Omn	-9789
▁POP	-9790
▁Pet	-9791
▁Ple	-9792
▁Pot	-9793
▁ROM	-9794
▁Rag	-9795
▁Rai	-9796
▁Ray	-9797
▁Rot	-9798
▁Rub	-9799
▁SER	-9800
▁Sad	-9801
▁Sea	-9802
▁Sil	-9803
▁Som	-9804
▁Sou	-9805
▁Sug	-9806
▁Sut	-9807
▁Taj	-9808
▁Tir	-9809
▁Tok	-9810
▁Tow	-9811
▁UDP	-9812
▁USA	-9813
▁UTs	-9814
▁Wak	-9815
▁Yam	-9816
▁Yoj	-9817
▁ace	-9818
▁adm	-9819
▁ank	-9820
▁ath	-9821
▁cog	-9822
▁dil	-9823
▁dio	-9824
▁dre	-9825
▁dro	-9826
▁enl	-9827
▁fly	-9828
▁fug	-9829
▁gov	-9830
▁gro	-9831
▁gru	-9832
▁gut	-9833
▁hal	-9834
▁hes	-9835
▁hit	-9836
▁lau	-9837
▁lep	-9838
▁liv	-9839
▁mac	-9840
▁mil	-9841
▁mor	-9842
▁mul	-9843
▁mun	-9844
▁pul	-9845
▁raw	-9846
▁scr	-9847
▁unb	-9848
▁upr	-9849
▁vap	-9850
▁vou	-9851
▁wal	-9852
▁woe	-9853
▁www	-9854
.2019	-9855
EPEND	-9856
ERJEE	-9857
ILITY	-9858
Islam	-9859
Peace	-9860
adhar	-9861
adows	-9862
alian	-9863
allel	-9864
alore	-9865
aming	-9866
anand	-9867
anasi	-9868
andem	-9869
ansas	-9870
ariat	-9871
assad	-9872
atics	-9873
atile	-9874
aurat	-9875
azing	-9876
bered	-9877
ceeds	-9878
eksha	-9879
eling	-9880
endra	-9881
ental	-9882
erals	-9883
etary	-9884
folio	-9885
grade	-9886
haust	-9887
henna	-9888
herry	-9889
house	-9890
iblah	-9891
ignty	-9892
iless	-9893
illic	-9894
inath	-9895
inced	-9896
ipher	-9897
irlos	-9898
ishes	-9899
itary	-9900
ithic	-9901
licts	-9902
liest	-9903
luded	-9904
ocate	-9905
ocket	-9906
odder	-9907
odity	-9908
olden	-9909
opard	-9910
opped	-9911
ordan	-9912
pects	-9913
plasm	-9914
pless	-9915
print	-9916
produ	-9917
quest	-9918
ranch	-9919
rious	-9920
ritic	-9921
rophy	-9922
ropic	-9923
tched	-9924
thood	-9925
ticip	-9926
trans	-9927
udiya	-9928
uffer	-9929
ugins	-9930
umped	-9931
unath	-9932
unged	-9933
venth	-9934
while	-9935
words	-9936
▁1226	-9937
▁1900	-9938
▁1920	-9939
▁1974	-9940
▁1993	-9941
▁1996	-9942
▁2019	-9943
▁2020	-9944
▁3000	-9945
▁AIDS	-9946
▁Acqu	-9947
▁Alph	-9948
▁Arts	-9949
▁Auto	-9950
▁Base	-9951
▁Bear	-9952
▁Body	-9953
▁CENT	-9954
▁Camp	-9955
▁Care	-9956
▁Chit	-9957
▁Coll	-9958
▁Deal	-9959
▁Done	-9960
▁Dutt	-9961
▁Duty	-9962
▁Evil	-9963
▁FROM	-9964
▁Fall	-9965
▁Fran	-9966
▁Gall	-9967
▁Gita	-9968
▁Gulf	-9969
▁Hagu	-9970
▁Hast	-9971
▁Host	-9972
▁Info	-9973
▁Jinn	-9974
▁Kama	-9975
▁Kann	-9976
▁Kesh	-9977
▁Khat	-9978
▁Kuch	-9979
▁Lect	-9980
▁MUKH	-9981
▁Mach	-9982
▁Mall	-9983
▁Mant	-9984
▁Mart	-9985
▁Mode	-9986
▁NITs	-9987
▁Nana	-9988
▁Nand	-9989
▁Neph	-9990
▁News	-9991
▁Obey	-9992
▁Oral	-9993
▁Orig	-9994
▁PART	-9995
▁Paul	-9996
▁Pear	-9997
▁Pill	-9998
▁Poth	-9999
▁RAID	-10000
▁Rajg	-10001
▁Rani	-10002
▁Repl	-10003
▁Rule	-10004
▁SHRI	-10005
▁Sang	-10006
▁Sanj	-10007
▁Sant	-10008
▁Sens	-10009
▁Sent	-10010
▁Ship	-10011
▁Soon	-10012
▁Srin	-10013
▁Subs	-10014
▁Sunn	-10015
▁Swed	-10016
▁TIME	-10017
▁Test	-10018
▁Thir	-10019
▁Till	-10020
▁Tool	-10021
▁Trad	-10022
▁True	-10023
▁Viet	-10024
▁Warn	-10025
▁Wing	-10026
▁York	-10027
▁adhe	-10028
▁aest	-10029
▁agro	-10030
▁ally	-10031
▁bare	-10032
▁bark	-10033
▁beak	-10034
▁beat	-10035
▁bent	-10036
▁calf	-10037
▁cens	-10038
▁clut	-10039
▁cord	-10040
▁core	-10041
▁cows	-10042
▁cups	-10043
▁cyst	-10044
▁dens	-10045
▁detr	-10046
▁dias	-10047
▁doth	-10048
▁drew	-10049
▁encl	-10050
▁erad	-10051
▁exem	-10052
▁fasc	-10053
▁fash	-10054
▁feud	-10055
▁figh	-10056
▁flee	-10057
▁fors	-10058
▁gift	-10059
▁hurt	-10060
▁hymn	-10061
▁idle	-10062
▁impr	-10063
▁irre	-10064
▁jack	-10065
▁jobs	-10066
▁junk	-10067
▁kins	-10068
▁kure	-10069
▁lady	-10070
▁lamp	-10071
▁lend	-10072
▁lion	-10073
▁luck	-10074
▁lump	-10075
▁mile	-10076
▁mock	-10077
▁neat	-10078
▁neur	-10079
▁nice	-10080
▁nick	-10081
▁obsc	-10082
▁pale	-10083
▁para	-10084
▁pars	-10085
▁peak	-10086
▁pine	-10087
▁pond	-10088
▁pour	-10089
▁puts	-10090
▁rely	-10091
▁resc	-10092
▁ring	-10093
▁sack	-10094
▁seal	-10095
▁smit	-10096
▁spin	-10097
▁spur	-10098
▁ster	-10099
▁suck	-10100
▁suic	-10101
▁sync	-10102
▁ther	-10103
▁thin	-10104
▁thor	-10105
▁tick	-10106
▁tips	-10107
▁unus	-10108
▁upto	-10109
▁vary	-10110
▁ward	-10111
▁wary	-10112
▁wash	-10113
▁wilt	-10114
▁yarn	-10115
▁zone	-10116
Recall	-10117
Verily	-10118
abetes	-10119
abinet	-10120
active	-10121
actory	-10122
aghosa	-10123
agraha	-10124
airing	-10125
amonds	-10126
angana	-10127
ankara	-10128
arding	-10129
assing	-10130
culiar	-10131
efined	-10132
elieve	-10133
estock	-10134
harana	-10135
icipal	-10136
idency	-10137
ifully	-10138
igious	-10139
ildren	-10140
includ	-10141
inkled	-10142
insula	-10143
intend	-10144
itably	-10145
itchen	-10146
itudes	-10147
liness	-10148
oliday	-10149
olitan	-10150
ometer	-10151
orance	-10152
orters	-10153
ortion	-10154
otechn	-10155
ounded	-10156
prises	-10157
reated	-10158
ressal	-10159
screen	-10160
sement	-10161
teness	-10162
ulance	-10163
valent	-10164
vising	-10165
wahati	-10166
worthy	-10167
zbaroa	-10168
▁1905,	-10169
▁2010,	-10170
▁ASEAN	-10171
▁Aaron	-10172
▁Agree	-10173
▁Ahily	-10174
▁Alban	-10175
▁Apart	-10176
▁Apple	-10177
▁Audit	-10178
▁BIRTH	-10179
▁Birth	-10180
▁Bless	-10181
▁Bliss	-10182
▁Bring	-10183
▁Broad	-10184
▁COVID	-10185
▁Cance	-10186
▁Champ	-10187
▁Clean	-10188
▁Clust	-10189
▁Crore	-10190
▁Cross	-10191
▁David	-10192
▁Debug	-10193
▁Drink	-10194
▁Drugs	-10195
▁Emerg	-10196
▁Fight	-10197
▁Georg	-10198
▁Glory	-10199
▁Grant	-10200
▁Graph	-10201
▁Greek	-10202
▁Haram	-10203
▁Iblis	-10204
▁Impro	-10205
▁Isaac	-10206
▁Issue	-10207
▁Kabul	-10208
▁Kenya	-10209
▁Koran	-10210
▁Label	-10211
▁Likud	-10212
▁Login	-10213
▁MSMEs	-10214
▁Nanda	-10215
▁Nived	-10216
▁OFFIC	-10217
▁Olymp	-10218
▁Order	-10219
▁Paris	-10220
▁Photo	-10221
▁Point	-10222
▁Popup	-10223
▁Posts	-10224
▁Prize	-10225
▁Produ	-10226
▁Recip	-10227
▁Reply	-10228
▁Roman	-10229
▁Saint	-10230
▁Scale	-10231
▁Seven	-10232
▁Skill	-10233
▁Sound	-10234
▁Space	-10235
▁Staff	-10236
▁Steel	-10237
▁Sudan	-10238
▁Tilak	-10239
▁Times	-10240
▁Truly	-10241
▁Trust	-10242
▁Turks	-10243
▁Using	-10244
▁Value	-10245
▁Vedic	-10246
▁WORLD	-10247
▁adopt	-10248
▁angry	-10249
▁annum	-10250
▁argue	-10251
▁assum	-10252
▁aston	-10253
▁avert	-10254
▁bites	-10255
▁blast	-10256
▁boost	-10257
▁brack	-10258
▁brand	-10259
▁brave	-10260
▁cadre	-10261
▁caves	-10262
▁cemet	-10263
▁chair	-10264
▁charm	-10265
▁chart	-10266
▁chest	-10267
▁chrom	-10268
▁crack	-10269
▁craft	-10270
▁crude	-10271
▁cryst	-10272
▁dense	-10273
▁deput	-10274
▁digit	-10275
▁discs	-10276
▁disse	-10277
▁doors	-10278
▁dozen	-10279
▁efflu	-10280
▁embod	-10281
▁ended	-10282
▁exams	-10283
▁excav	-10284
▁expos	-10285
▁fever	-10286
▁fibre	-10287
▁fools	-10288
▁gases	-10289
▁gramm	-10290
▁grasp	-10291
▁grave	-10292
▁greed	-10293
▁guest	-10294
▁harsh	-10295
▁heads	-10296
▁helps	-10297
▁hills	-10298
▁hoard	-10299
▁horiz	-10300
▁horns	-10301
▁hosts	-10302
▁hotel	-10303
▁hydro	-10304
▁immun	-10305
▁irrit	-10306
▁jinns	-10307
▁laden	-10308
▁liked	-10309
▁lobby	-10310
▁lofty	-10311
▁login	-10312
▁lumin	-10313
▁manip	-10314
▁march	-10315
▁memor	-10316
▁metab	-10317
▁metre	-10318
▁micro	-10319
▁milit	-10320
▁motor	-10321
▁mould	-10322
▁mport	-10323
▁multi	-10324
▁needy	-10325
▁nodes	-10326
▁nomin	-10327
▁norms	-10328
▁nucle	-10329
▁octag	-10330
▁paddy	-10331
▁paths	-10332
▁patri	-10333
▁penis	-10334
▁piety	-10335
▁pious	-10336
▁plead	-10337
▁poore	-10338
▁prede	-10339
▁prime	-10340
▁query	-10341
▁quiet	-10342
▁rebel	-10343
▁relax	-10344
▁remun	-10345
▁reset	-10346
▁rites	-10347
▁rival	-10348
▁roots	-10349
▁route	-10350
▁ruled	-10351
▁scoff	-10352
▁seats	-10353
▁shalt	-10354
▁sixty	-10355
▁skins	-10356
▁smile	-10357
▁smoke	-10358
▁smugg	-10359
▁snake	-10360
▁sniff	-10361
▁solid	-10362
▁spell	-10363
▁stamp	-10364
▁stern	-10365
▁sulph	-10366
▁surpr	-10367
▁tenth	-10368
▁tiger	-10369
▁tools	-10370
▁tours	-10371
▁trick	-10372
▁twent	-10373
▁twist	-10374
▁upset	-10375
▁urged	-10376
▁winds	-10377
▁wombs	-10378
▁worst	-10379
achable	-10380
aration	-10381
ayuktas	-10382
chsafed	-10383
cussion	-10384
endable	-10385
entures	-10386
guments	-10387
ignment	-10388
istrate	-10389
itarian	-10390
jecture	-10391
mendous	-10392
nthetic	-10393
ogether	-10394
onsense	-10395
onymous	-10396
otheism	-10397
ounting	-10398
ouraged	-10399
ousands	-10400
ulating	-10401
▁Accept	-10402
▁Applic	-10403
▁Aryans	-10404
▁Branch	-10405
▁Canada	-10406
▁Census	-10407
▁Church	-10408
▁Course	-10409
▁Custom	-10410
▁Editor	-10411
▁Family	-10412
▁Gospel	-10413
▁Groups	-10414
▁Growth	-10415
▁Hearer	-10416
▁Hebrew	-10417
▁Higher	-10418
▁INDIAN	-10419
▁Iraqis	-10420
▁Ishwar	-10421
▁Johann	-10422
▁Jordan	-10423
▁Kanpur	-10424
▁Kesari	-10425
▁Kirlos	-10426
▁Letter	-10427
▁Makkah	-10428
▁Market	-10429
▁Masjid	-10430
▁Medium	-10431
▁Modern	-10432
▁Multip	-10433
▁Munshi	-10434
▁NATION	-10435
▁Nation	-10436
▁PRANAB	-10437
▁Parent	-10438
▁Poresh	-10439
▁Prasad	-10440
▁Rather	-10441
▁Ravana	-10442
▁Reload	-10443
▁Rename	-10444
▁Repair	-10445
▁Review	-10446
▁Scroll	-10447
▁Sender	-10448
▁Sexual	-10449
▁Shakti	-10450
▁Simult	-10451
▁Source	-10452
▁Soviet	-10453
▁Speech	-10454
▁Status	-10455
▁Subhas	-10456
▁Survey	-10457
▁Swaraj	-10458
▁Taurat	-10459
▁Telugu	-10460
▁Topics	-10461
▁Volume	-10462
▁Yojana	-10463
▁actors	-10464
▁allied	-10465
▁allies	-10466
▁append	-10467
▁ardent	-10468
▁argued	-10469
▁arrows	-10470
▁assent	-10471
▁assert	-10472
▁attach	-10473
▁averse	-10474
▁awaits	-10475
▁beside	-10476
▁beware	-10477
▁bhakti	-10478
▁binary	-10479
▁bought	-10480
▁breach	-10481
▁broker	-10482
▁bureau	-10483
▁cancel	-10484
▁cancer	-10485
▁client	-10486
▁colors	-10487
▁combat	-10488
▁compar	-10489
▁consec	-10490
▁cooked	-10491
▁covers	-10492
▁culmin	-10493
▁daniel	-10494
▁decked	-10495
▁deeper	-10496
▁denies	-10497
▁devote	-10498
▁disapp	-10499
▁disill	-10500
▁divers	-10501
▁doubts	-10502
▁echoed	-10503
▁empire	-10504
▁endure	-10505
▁enjoin	-10506
▁excuse	-10507
▁expert	-10508
▁expiry	-10509
▁faults	-10510
▁favors	-10511
▁flower	-10512
▁forged	-10513
▁fortun	-10514
▁foster	-10515
▁founds	-10516
▁fringe	-10517
▁fulfil	-10518
▁funded	-10519
▁gentle	-10520
▁golden	-10521
▁graves	-10522
▁handic	-10523
▁harder	-10524
▁hasten	-10525
▁heifer	-10526
▁hiding	-10527
▁homage	-10528
▁impure	-10529
▁inputs	-10530
▁inward	-10531
▁island	-10532
▁keycap	-10533
▁labels	-10534
▁layers	-10535
▁levied	-10536
▁masses	-10537
▁meteor	-10538
▁metres	-10539
▁mortal	-10540
▁mumbai	-10541
▁oldest	-10542
▁pagans	-10543
▁patent	-10544
▁photos	-10545
▁pieces	-10546
▁planet	-10547
▁poetic	-10548
▁prefer	-10549
▁prelim	-10550
▁priest	-10551
▁proofs	-10552
▁purely	-10553
▁regime	-10554
▁remitt	-10555
▁resign	-10556
▁resort	-10557
▁revers	-10558
▁richly	-10559
▁ritual	-10560
▁rubber	-10561
▁saints	-10562
▁satell	-10563
▁scales	-10564
▁serves	-10565
▁shield	-10566
▁solved	-10567
▁sorted	-10568
▁sowing	-10569
▁spaces	-10570
▁spares	-10571
▁speaks	-10572
▁stable	-10573
▁summer	-10574
▁tariff	-10575
▁tender	-10576
▁throne	-10577
▁timely	-10578
▁titled	-10579
▁topics	-10580
▁trader	-10581
▁traits	-10582
▁unlike	-10583
▁unrest	-10584
▁uterus	-10585
▁valour	-10586
▁vested	-10587
abharata	-10588
cessions	-10589
entation	-10590
grateful	-10591
ibraries	-10592
jections	-10593
ordinate	-10594
owerment	-10595
▁Acharya	-10596
▁Antarct	-10597
▁Ayurved	-10598
▁Balaram	-10599
▁Bharati	-10600
▁Britain	-10601
▁Brother	-10602
▁Ceremon	-10603
▁Chennai	-10604
▁Consult	-10605
▁Creator	-10606
▁Cricket	-10607
▁Croatia	-10608
▁Culture	-10609
▁Deeksha	-10610
▁Defence	-10611
▁Despite	-10612
▁Federal	-10613
▁Friends	-10614
▁Gaudiya	-10615
▁Gehenna	-10616
▁Hamming	-10617
▁Himself	-10618
▁Install	-10619
▁Islands	-10620
▁Jubilee	-10621
▁Loading	-10622
▁Mandali	-10623
▁Maratha	-10624
▁Maximum	-10625
▁Medical	-10626
▁Missing	-10627
▁Motilal	-10628
▁Neither	-10629
▁Penalty	-10630
▁Pension	-10631
▁Picture	-10632
▁Pothana	-10633
▁Prakash	-10634
▁Present	-10635
▁Preview	-10636
▁Printer	-10637
▁Proverb	-10638
▁Railway	-10639
▁Russian	-10640
▁Schemes	-10641
▁Setting	-10642
▁Society	-10643
▁Spacing	-10644
▁Towards	-10645
▁UNIVERS	-10646
▁Vietnam	-10647
▁Without	-10648
▁Zalimun	-10649
▁abiding	-10650
▁acceler	-10651
▁adorned	-10652
▁advised	-10653
▁afflict	-10654
▁alcohol	-10655
▁amounts	-10656
▁anticip	-10657
▁arrived	-10658
▁artists	-10659
▁attract	-10660
▁auction	-10661
▁averted	-10662
▁bondmen	-10663
▁buttons	-10664
▁circles	-10665
▁circuit	-10666
▁clarity	-10667
▁coconut	-10668
▁compact	-10669
▁confine	-10670
▁conquer	-10671
▁conserv	-10672
▁contest	-10673
▁copying	-10674
▁creates	-10675
▁crossed	-10676
▁culprit	-10677
▁customs	-10678
▁damaged	-10679
▁decreed	-10680
▁deniers	-10681
▁desktop	-10682
▁dioxide	-10683
▁discard	-10684
▁discrim	-10685
▁emerged	-10686
▁endowed	-10687
▁essence	-10688
▁evolved	-10689
▁examine	-10690
▁exhaust	-10691
▁factory	-10692
▁falling	-10693
▁fashion	-10694
▁fearful	-10695
▁federal	-10696
▁fellows	-10697
▁females	-10698
▁fishing	-10699
▁fortune	-10700
▁funding	-10701
▁furnish	-10702
▁generic	-10703
▁grieved	-10704
▁grounds	-10705
▁guarant	-10706
▁harvest	-10707
▁imposed	-10708
▁infants	-10709
▁inflict	-10710
▁infring	-10711
▁involve	-10712
▁jointly	-10713
▁lasting	-10714
▁lengths	-10715
▁leprosy	-10716
▁liberal	-10717
▁linkend	-10718
▁matches	-10719
▁migrant	-10720
▁mislead	-10721
▁mortals	-10722
▁mystery	-10723
▁outlook	-10724
▁outward	-10725
▁placing	-10726
▁pleases	-10727
▁precept	-10728
▁predict	-10729
▁printed	-10730
▁prompts	-10731
▁publish	-10732
▁quarrel	-10733
▁repents	-10734
▁revised	-10735
▁rolling	-10736
▁sailing	-10737
▁screens	-10738
▁scripts	-10739
▁secured	-10740
▁selects	-10741
▁servant	-10742
▁sincere	-10743
▁slander	-10744
▁speaker	-10745
▁springs	-10746
▁squared	-10747
▁stomach	-10748
▁streets	-10749
▁superst	-10750
▁surveys	-10751
▁swallow	-10752
▁tangent	-10753
▁testify	-10754
▁textile	-10755
▁threats	-10756
▁traffic	-10757
▁unclean	-10758
▁undergo	-10759
▁unhappy	-10760
▁updates	-10761
▁upright	-10762
▁vehicle	-10763
▁vessels	-10764
▁veteran	-10765
▁victims	-10766
▁vimanas	-10767
▁virtual	-10768
▁visitor	-10769
▁walking	-10770
▁warners	-10771
▁wasting	-10772
▁whereof	-10773
▁whisper	-10774
▁wickets	-10775
▁wonders	-10776
▁worldly	-10777
▁worried	-10778
EPENDENCE	-10779
Operation	-10780
emorative	-10781
etitioner	-10782
fficiency	-10783
including	-10784
intendent	-10785
ropolitan	-10786
▁Advanced	-10787
▁Attorney	-10788
▁Bezbaroa	-10789
▁Bookmark	-10790
▁Calendar	-10791
▁Capacity	-10792
▁Citizens	-10793
▁Contents	-10794
▁Continue	-10795
▁Cultural	-10796
▁Cyrillic	-10797
▁Director	-10798
▁External	-10799
▁Festival	-10800
▁Fragment	-10801
▁Haguichi	-10802
▁Highness	-10803
▁Hospital	-10804
▁Keyboard	-10805
▁Learning	-10806
▁Nivedita	-10807
▁Philosop	-10808
▁Physical	-10809
▁Planning	-10810
▁Practice	-10811
▁Probably	-10812
▁Province	-10813
▁Question	-10814
▁Required	-10815
▁Resource	-10816
▁Software	-10817
▁Standard	-10818
▁Standing	-10819
▁Varanasi	-10820
▁accuracy	-10821
▁affinity	-10822
▁airports	-10823
▁alliance	-10824
▁announce	-10825
▁arranged	-10826
▁artistic	-10827
▁assembly	-10828
▁attacked	-10829
▁attempts	-10830
▁audience	-10831
▁backward	-10832
▁bacteria	-10833
▁barriers	-10834
▁bestowed	-10835
▁bleeding	-10836
▁blessing	-10837
▁breaking	-10838
▁cardamom	-10839
▁circular	-10840
▁cleaning	-10841
▁colonial	-10842
▁constitu	-10843
▁consumer	-10844
▁contacts	-10845
▁conveyed	-10846
▁convince	-10847
▁deciding	-10848
▁demanded	-10849
▁detailed	-10850
▁diameter	-10851
▁diamonds	-10852
▁diaspora	-10853
▁differed	-10854
▁director	-10855
▁disgrace	-10856
▁dramatic	-10857
▁dwelling	-10858
▁earliest	-10859
▁ecstatic	-10860
▁enhanced	-10861
▁equality	-10862
▁eternity	-10863
▁excesses	-10864
▁executed	-10865
▁exported	-10866
▁exporter	-10867
▁failures	-10868
▁feedback	-10869
▁figuring	-10870
▁flexible	-10871
▁garments	-10872
▁generate	-10873
▁glorious	-10874
▁graphics	-10875
▁hardship	-10876
▁heedless	-10877
▁imprison	-10878
▁improper	-10879
▁initiate	-10880
▁insisted	-10881
▁invented	-10882
▁isolated	-10883
▁journals	-10884
▁laughing	-10885
▁leverage	-10886
▁locality	-10887
▁marginal	-10888
▁mischief	-10889
▁modified	-10890
▁mutually	-10891
▁nematode	-10892
▁numbered	-10893
▁ordained	-10894
▁overwhel	-10895
▁packages	-10896
▁peculiar	-10897
▁peripher	-10898
▁pilgrims	-10899
▁pleasant	-10900
▁postpone	-10901
▁producer	-10902
▁properly	-10903
▁proposes	-10904
▁provider	-10905
▁publicly	-10906
▁punished	-10907
▁receives	-10908
▁reducing	-10909
▁rendered	-10910
▁reposted	-10911
▁requests	-10912
▁reserved	-10913
▁resolved	-10914
▁retained	-10915
▁rewarded	-10916
▁schedule	-10917
▁seasonal	-10918
▁shopping	-10919
▁shortage	-10920
▁sickness	-10921
▁solitary	-10922
▁spending	-10923
▁suffices	-10924
▁surprise	-10925
▁trainees	-10926
▁transmit	-10927
▁tributes	-10928
▁virtuous	-10929
Government	-10930
Regulation	-10931
ligibility	-10932
rietorship	-10933
sufficient	-10934
▁Advocates	-10935
▁Allowance	-10936
▁Assessing	-10937
▁Attribute	-10938
▁Australia	-10939
▁Automatic	-10940
▁Chalukyan	-10941
▁Connected	-10942
▁Currently	-10943
▁Generally	-10944
▁Highlight	-10945
▁Himalayan	-10946
▁Ignorance	-10947
▁Kirloskar	-10948
▁MUKHERJEE	-10949
▁Marketing	-10950
▁Officials	-10951
▁Peninsula	-10952
▁Political	-10953
▁Promotion	-10954
▁Provision	-10955
▁Registrar	-10956
▁Singapore	-10957
▁Standards	-10958
▁Thousands	-10959
▁Whosoever	-10960
▁Wikipedia	-10961
▁acknowled	-10962
▁adornment	-10963
▁adversity	-10964
▁affecting	-10965
▁algorithm	-10966
▁ambulance	-10967
▁amendment	-10968
▁attracted	-10969
▁bookmarks	-10970
▁brilliant	-10971
▁campaigns	-10972
▁cancelled	-10973
▁clipboard	-10974
▁commented	-10975
▁computers	-10976
▁concealed	-10977
▁concluded	-10978
▁conferred	-10979
▁confirmed	-10980
▁correctly	-10981
▁corrupted	-10982
▁criminals	-10983
▁decorated	-10984
▁departure	-10985
▁describes	-10986
▁diagnosed	-10987
▁discovery	-10988
▁disputing	-10989
▁dissolved	-10990
▁elections	-10991
▁elsewhere	-10992
▁emergence	-10993
▁equitable	-10994
▁examining	-10995
▁excessive	-10996
▁exclusive	-10997
▁extending	-10998
▁fabricate	-10999
▁festivals	-11000
▁forgotten	-11001
▁harmdoers	-11002
▁hostility	-11003
▁inclusive	-11004
▁incumbent	-11005
▁lightning	-11006
▁listening	-11007
▁livestock	-11008
▁medicinal	-11009
▁narrative	-11010
▁necessity	-11011
▁newsgroup	-11012
▁operative	-11013
▁paintings	-11014
▁parasites	-11015
▁patiently	-11016
▁perfectly	-11017
▁pesticide	-11018
▁portfolio	-11019
▁possessed	-11020
▁practical	-11021
▁preserved	-11022
▁producing	-11023
▁proposals	-11024
▁prospects	-11025
▁publicity	-11026
▁realistic	-11027
▁rebellion	-11028
▁reclining	-11029
▁recognise	-11030
▁regulated	-11031
▁relevance	-11032
▁repayment	-11033
▁reproduce	-11034
▁residence	-11035
▁residents	-11036
▁scheduled	-11037
▁socialism	-11038
▁specimens	-11039
▁stability	-11040
▁substance	-11041
▁succeeded	-11042
▁supporter	-11043
▁technique	-11044
▁treasures	-11045
▁whereupon	-11046
▁wonderful	-11047
▁worldwide	-11048
otechnology	-11049
polytheists	-11050
▁Assemblies	-11051
▁Assistance	-11052
▁Connection	-11053
▁Delegation	-11054
▁Encryption	-11055
▁Horizontal	-11056
▁Institutes	-11057
▁Integrated	-11058
▁Lokayuktas	-11059
▁Ministries	-11060
▁Monitoring	-11061
▁Monotheism	-11062
▁Petitioner	-11063
▁Processing	-11064
▁Provincial	-11065
▁Resolution	-11066
▁Satyagraha	-11067
▁Submission	-11068
▁Upanishads	-11069
▁acquainted	-11070
▁altogether	-11071
▁appreciate	-11072
▁approaches	-11073
▁arbitrator	-11074
▁attributed	-11075
▁attributes	-11076
▁businesses	-11077
▁calculated	-11078
▁classified	-11079
▁colleagues	-11080
▁components	-11081
▁conception	-11082
▁conjecture	-11083
▁connecting	-11084
▁conscience	-11085
▁convention	-11086
▁courageous	-11087
▁dedication	-11088
▁discovered	-11089
▁domination	-11090
▁electrical	-11091
▁eventually	-11092
▁expressing	-11093
▁favourable	-11094
▁frightened	-11095
▁furnishing	-11096
▁generating	-11097
▁grievances	-11098
▁inaugurate	-11099
▁inspection	-11100
▁meaningful	-11101
▁mechanical	-11102
▁mechanisms	-11103
▁multiplier	-11104
▁obligation	-11105
▁oppression	-11106
▁ordinarily	-11107
▁passengers	-11108
▁percentage	-11109
▁percussion	-11110
▁persistent	-11111
▁personally	-11112
▁phenomenon	-11113
▁pollutants	-11114
▁prevailing	-11115
▁preventing	-11116
▁preventive	-11117
▁previously	-11118
▁privileged	-11119
▁procedures	-11120
▁proclaimed	-11121
▁prosperous	-11122
▁reasonable	-11123
▁rebellious	-11124
▁references	-11125
▁regulatory	-11126
▁reiterated	-11127
▁reputation	-11128
▁respective	-11129
▁scriptures	-11130
▁settlement	-11131
▁systematic	-11132
▁transition	-11133
▁tremendous	-11134
▁ultimately	-11135
▁victorious	-11136
▁vouchsafed	-11137
▁worshipped	-11138
▁wrongfully	-11139
▁Engineering	-11140
▁Examination	-11141
▁Mahabharata	-11142
▁Partnership	-11143
▁Preferences	-11144
▁accompanied	-11145
▁accordingly	-11146
▁accountable	-11147
▁allegations	-11148
▁approaching	-11149
▁calculation	-11150
▁challenging	-11151
▁collections	-11152
▁combination	-11153
▁controversy	-11154
▁discouraged	-11155
▁disillusion	-11156
▁distinctive	-11157
▁electronics	-11158
▁forefathers	-11159
▁grandfather	-11160
▁handicapped	-11161
▁humiliation	-11162
▁immigration	-11163
▁innumerable	-11164
▁intelligent	-11165
▁interesting	-11166
▁interpreted	-11167
▁journalists	-11168
▁legislative	-11169
▁magnificent	-11170
▁measurement	-11171
▁nationalist	-11172
▁operational	-11173
▁permissions	-11174
▁politicians	-11175
▁programming	-11176
▁prohibition	-11177
▁recruitment	-11178
▁researchers	-11179
▁residential	-11180
▁sovereignty	-11181
▁statistical	-11182
▁supervising	-11183
▁transparent	-11184
▁Agricultural	-11185
▁Consequently	-11186
▁Coordination	-11187
▁INDEPENDENCE	-11188
▁Introduction	-11189
▁Organization	-11190
▁accompanying	-11191
▁arrangements	-11192
▁capabilities	-11193
▁complication	-11194
▁confirmation	-11195
▁consistently	-11196
▁developments	-11197
▁disobedience	-11198
▁displacement	-11199
▁establishing	-11200
▁implications	-11201
▁improvements	-11202
▁incorporated	-11203
▁increasingly	-11204
▁participated	-11205
▁satisfaction	-11206
▁shareholders	-11207
▁transactions	-11208
▁verification	-11209
▁Environmental	-11210
▁Radhakrishnan	-11211
▁Unfortunately	-11212
▁accommodation	-11213
▁collaboration	-11214
▁encouragement	-11215
▁participating	-11216
▁possibilities	-11217
▁transgressing	-11218
▁Administration	-11219
▁Administrative	-11220
▁transportation	-11221
................	-11222
▁characteristics	-11223
%)	-11224
%,	-11225
%.	-11226
'%	-11227
,.	-11228
-3	-11229
.1	-11230
.2	-11231
.”	-11232
09	-11233
1}	-11234
21	-11235
35	-11236
37	-11237
39	-11238
42	-11239
59	-11240
74	-11241
79	-11242
90	-11243
96	-11244
:-	-11245
?!	-11246
Ar	-11247
CF	-11248
DO	-11249
EC	-11250
Gl	-11251
HD	-11252
MT	-11253
Ms	-11254
NG	-11255
Of	-11256
PA	-11257
PI	-11258
PL	-11259
Ps	-11260
RC	-11261
Sc	-11262
Sw	-11263
TW	-11264
To	-11265
Un	-11266
aq	-11267
dr	-11268
fs	-11269
jj	-11270
kh	-11271
ni	-11272
ns	-11273
rh	-11274
sl	-11275
tW	-11276
tr	-11277
zh	-11278
▁—	-11279
.04	-11280
.09	-11281
001	-11282
ACK	-11283
ANG	-11284
ASE	-11285
BUT	-11286
Com	-11287
DAY	-11288
Del	-11289
Dep	-11290
Dis	-11291
ECH	-11292
Enj	-11293
GAL	-11294
HOU	-11295
Had	-11296
IZE	-11297
Jan	-11298
KCS	-11299
06	-11300
38	-11301
101	-11302
ATH	-11303
Aug	-11304
ESH	-11305
Key	-11306
MTP	-11307
May	-11308
NRF	-11309
OCH	-11310
OCK	-11311
OUS	-11312
Pre	-11313
Pro	-11314
ROW	-11315
RWA	-11316
Raj	-11317
SET	-11318
YPE	-11319
aan	-11320
aed	-11321
afs	-11322
agi	-11323
ahs	-11324
ais	-11325
arb	-11326
aru	-11327
awl	-11328
bin	-11329
chy	-11330
ctr	-11331
dar	-11332
ela	-11333
enb	-11334
etu	-11335
eur	-11336
exi	-11337
far	-11338
god	-11339
heb	-11340
hud	-11341
ibb	-11342
ido	-11343
iot	-11344
jad	-11345
jat	-11346
kan	-11347
kay	-11348
lev	-11349
lit	-11350
lor	-11351
lot	-11352
lyb	-11353
mad	-11354
nag	-11355
nia	-11356
oen	-11357
oft	-11358
ogh	-11359
ogy	-11360
oks	-11361
olm	-11362
omo	-11363
ona	-11364
osc	-11365
osi	-11366
pad	-11367
pat	-11368
pay	-11369
pon	-11370
pot	-11371
pse	-11372
qub	-11373
rac	-11374
raj	-11375
reb	-11376
rix	-11377
sen	-11378
sey	-11379
udo	-11380
usa	-11381
usk	-11382
vag	-11383
van	-11384
vii	-11385
wad	-11386
zar	-11387
▁()	-11388
▁(.	-11389
▁-,	-11390
▁/%	-11391
▁1:	-11392
▁2%	-11393
▁2)	-11394
▁2:	-11395
▁38	-11396
▁56	-11397
▁7%	-11398
▁79	-11399
/-	-11400
US	-11401
VD	-11402
FER	-11403
Qur	-11404
ihe	-11405
▁91	-11406
▁9;	-11407
▁AB	-11408
▁AD	-11409
▁AH	-11410
▁AW	-11411
▁Br	-11412
▁CS	-11413
▁Cy	-11414
▁DD	-11415
▁Dy	-11416
▁EC	-11417
▁ER	-11418
▁Ey	-11419
▁FD	-11420
▁GO	-11421
▁HO	-11422
▁JA	-11423
▁Ke	-11424
▁Ki	-11425
▁LP	-11426
▁MB	-11427
▁NG	-11428
▁OI	-11429
▁Oh	-11430
▁Os	-11431
▁PI	-11432
▁SI	-11433
▁Ud	-11434
▁Vo	-11435
▁Vy	-11436
▁WH	-11437
▁WM	-11438
▁dw	-11439
▁gn	-11440
▁gt	-11441
▁ka	-11442
▁ki	-11443
▁la	-11444
▁ll	-11445
▁ma	-11446
▁mm	-11447
▁ox	-11448
▁pH	-11449
▁sv	-11450
▁ub	-11451
ARCH	-11452
AUGU	-11453
AVAN	-11454
Call	-11455
Down	-11456
ENET	-11457
ERAL	-11458
File	-11459
Hell	-11460
LINE	-11461
Life	-11462
Lord	-11463
Make	-11464
NESS	-11465
NOME	-11466
Name	-11467
OCKS	-11468
OUNT	-11469
PATI	-11470
Prop	-11471
REAK	-11472
Some	-11473
Tell	-11474
Then	-11475
Warn	-11476
abel	-11477
abil	-11478
acer	-11479
acus	-11480
adik	-11481
adle	-11482
ados	-11483
afat	-11484
ahan	-11485
akah	-11486
alli	-11487
also	-11488
amen	-11489
anag	-11490
anch	-11491
anqu	-11492
aped	-11493
appa	-11494
aran	-11495
arus	-11496
asal	-11497
atan	-11498
atar	-11499
api	-11500
bal	-11501
nda	-11502
rab	-11503
▁4;	-11504
▁Cr	-11505
▁SP	-11506
VICE	-11507
adha	-11508
aine	-11509
anan	-11510
arna	-11511
aver	-11512
avit	-11513
barr	-11514
bury	-11515
ccan	-11516
chid	-11517
chus	-11518
cile	-11519
cott	-11520
ctar	-11521
cted	-11522
dars	-11523
days	-11524
deed	-11525
dued	-11526
emen	-11527
emon	-11528
even	-11529
evil	-11530
five	-11531
fted	-11532
ghar	-11533
gies	-11534
gone	-11535
hips	-11536
hira	-11537
hoea	-11538
ibet	-11539
ibia	-11540
icag	-11541
iery	-11542
igal	-11543
igam	-11544
ilip	-11545
iliz	-11546
imha	-11547
inga	-11548
into	-11549
inus	-11550
iput	-11551
irer	-11552
isan	-11553
isht	-11554
itam	-11555
iven	-11556
keep	-11557
laim	-11558
leep	-11559
lend	-11560
leth	-11561
leys	-11562
lied	-11563
lift	-11564
llen	-11565
lude	-11566
macy	-11567
moil	-11568
nash	-11569
noon	-11570
odus	-11571
okia	-11572
olom	-11573
omuk	-11574
only	-11575
onus	-11576
opes	-11577
orch	-11578
orum	-11579
oult	-11580
oung	-11581
oved	-11582
pert	-11583
phal	-11584
quer	-11585
race	-11586
rade	-11587
rage	-11588
rait	-11589
reli	-11590
ribe	-11591
roid	-11592
rose	-11593
rost	-11594
rous	-11595
seur	-11596
soft	-11597
tage	-11598
ucks	-11599
IES	-11600
Sub	-11601
URA	-11602
bab	-11603
spr	-11604
▁81	-11605
▁Ot	-11606
emia	-11607
hnai	-11608
ibli	-11609
rend	-11610
sole	-11611
uctu	-11612
ueen	-11613
uese	-11614
unks	-11615
unto	-11616
urop	-11617
user	-11618
uten	-11619
uven	-11620
vard	-11621
vity	-11622
wami	-11623
want	-11624
werk	-11625
wich	-11626
zone	-11627
▁(16	-11628
▁(22	-11629
▁00,	-11630
▁00:	-11631
▁06.	-11632
▁1-4	-11633
▁118	-11634
▁14,	-11635
▁16,	-11636
▁179	-11637
▁23,	-11638
▁24,	-11639
▁24.	-11640
▁250	-11641
▁28,	-11642
▁300	-11643
▁31,	-11644
▁484	-11645
▁80,	-11646
▁ANN	-11647
▁Aay	-11648
▁Amb	-11649
▁Anc	-11650
▁Ath	-11651
▁Atk	-11652
▁Aux	-11653
▁BAR	-11654
▁Bai	-11655
▁Bap	-11656
▁Beh	-11657
▁Ber	-11658
▁Big	-11659
▁Bos	-11660
▁CCD	-11661
▁COM	-11662
▁Cha	-11663
▁DNA	-11664
▁DVD	-11665
▁Dat	-11666
▁Daw	-11667
▁Ded	-11668
▁Der	-11669
▁Dia	-11670
▁Dif	-11671
▁Din	-11672
▁Due	-11673
▁Ent	-11674
▁Ess	-11675
▁Fax	-11676
▁Fou	-11677
▁Fox	-11678
▁Fut	-11679
▁GEN	-11680
▁GNU	-11681
▁Gas	-11682
▁Gay	-11683
▁Gol	-11684
▁Gor	-11685
▁HIV	-11686
▁HOS	-11687
▁Hap	-11688
▁Hel	-11689
▁Hit	-11690
▁ICM	-11691
▁IIM	-11692
▁INT	-11693
▁KAL	-11694
▁Kak	-11695
▁Kon	-11696
▁Lar	-11697
▁Les	-11698
▁Lit	-11699
BL	-11700
yo	-11701
dis	-11702
fix	-11703
ico	-11704
rip	-11705
▁64	-11706
▁NY	-11707
ario	-11708
idge	-11709
rels	-11710
seas	-11711
▁186	-11712
▁MAC	-11713
▁Mrs	-11714
▁Muj	-11715
▁Mys	-11716
▁NAS	-11717
▁NDC	-11718
▁NPS	-11719
▁Nau	-11720
▁Nir	-11721
▁Nuc	-11722
▁Opt	-11723
▁Ori	-11724
▁PGP	-11725
▁Pad	-11726
▁Pil	-11727
▁RES	-11728
▁RFC	-11729
▁RSA	-11730
▁Rah	-11731
▁SPE	-11732
▁Sas	-11733
▁Sit	-11734
▁Six	-11735
▁Sty	-11736
▁Sul	-11737
▁TRA	-11738
▁Tal	-11739
▁Tot	-11740
▁Tut	-11741
▁Typ	-11742
▁Und	-11743
▁Vaj	-11744
▁Vel	-11745
▁Wat	-11746
▁Yog	-11747
▁abl	-11748
▁aer	-11749
▁agr	-11750
▁ana	-11751
▁arb	-11752
▁bat	-11753
▁bin	-11754
▁bos	-11755
▁bot	-11756
▁bub	-11757
▁cav	-11758
▁cha	-11759
▁cit	-11760
▁dos	-11761
▁dot	-11762
▁dub	-11763
▁dug	-11764
▁eco	-11765
▁fol	-11766
▁gum	-11767
▁gur	-11768
▁ham	-11769
▁haz	-11770
▁hub	-11771
▁iPh	-11772
▁ine	-11773
▁inm	-11774
▁kam	-11775
▁kar	-11776
▁kee	-11777
▁kms	-11778
▁lag	-11779
▁lan	-11780
▁lux	-11781
▁lyr	-11782
▁mak	-11783
▁nay	-11784
▁nit	-11785
▁nom	-11786
▁oce	-11787
▁pad	-11788
▁pel	-11789
▁pin	-11790
▁piv	-11791
▁pix	-11792
▁pom	-11793
▁rap	-11794
▁rat	-11795
▁ric	-11796
▁sam	-11797
▁sed	-11798
▁sir	-11799
Ch	-11800
VS	-11801
WC	-11802
lar	-11803
tar	-11804
▁39	-11805
▁9,	-11806
▁IB	-11807
ATER	-11808
name	-11809
pura	-11810
term	-11811
ukes	-11812
▁Agn	-11813
▁Haz	-11814
▁Jul	-11815
▁NAB	-11816
▁Ruk	-11817
▁Tai	-11818
▁Wis	-11819
▁ker	-11820
▁tet	-11821
▁tow	-11822
▁unm	-11823
▁unn	-11824
▁upt	-11825
▁urg	-11826
▁ved	-11827
▁via	-11828
▁vic	-11829
▁vig	-11830
▁viz	-11831
▁wet	-11832
▁yaj	-11833
▁yes	-11834
▁{2}	-11835
APTER	-11836
ARDAR	-11837
ASION	-11838
Amend	-11839
Bring	-11840
Enjoy	-11841
Hindi	-11842
Hyper	-11843
Never	-11844
ORROW	-11845
OSURE	-11846
RIBUT	-11847
Trans	-11848
VICES	-11849
about	-11850
acked	-11851
adasa	-11852
addam	-11853
adhan	-11854
adium	-11855
afsir	-11856
agers	-11857
agree	-11858
ainfo	-11859
amani	-11860
ammil	-11861
anath	-11862
aning	-11863
aping	-11864
areth	-11865
arked	-11866
arman	-11867
arsha	-11868
arshi	-11869
aunch	-11870
autam	-11871
avidy	-11872
avier	-11873
avyas	-11874
berry	-11875
brane	-11876
break	-11877
chers	-11878
chery	-11879
cover	-11880
deeds	-11881
dered	-11882
eland	-11883
elief	-11884
erant	-11885
ersed	-11886
essed	-11887
etime	-11888
falls	-11889
gical	-11890
gradu	-11891
haran	-11892
hesis	-11893
hetra	-11894
human	-11895
icago	-11896
icine	-11897
idasa	-11898
ieved	-11899
aza	-11900
▁12,	-11901
▁ell	-11902
ijing	-11903
inars	-11904
inted	-11905
ipada	-11906
irits	-11907
iscal	-11908
isite	-11909
istor	-11910
itals	-11911
itate	-11912
izure	-11913
jahed	-11914
ledon	-11915
liers	-11916
ludge	-11917
neath	-11918
night	-11919
obile	-11920
ocity	-11921
odium	-11922
oenix	-11923
oever	-11924
ograp	-11925
ohini	-11926
oline	-11927
olism	-11928
omous	-11929
onder	-11930
onnel	-11931
ophag	-11932
osion	-11933
osome	-11934
ossil	-11935
otope	-11936
ourge	-11937
oxide	-11938
peare	-11939
pered	-11940
plary	-11941
plate	-11942
posal	-11943
prote	-11944
ptive	-11945
rapes	-11946
rings	-11947
ropro	-11948
rowse	-11949
stant	-11950
state	-11951
stead	-11952
steps	-11953
these	-11954
ucive	-11955
ucket	-11956
uctor	-11957
ugned	-11958
ument	-11959
urate	-11960
urbed	-11961
uruks	-11962
visor	-11963
which	-11964
▁000,	-11965
▁000.	-11966
▁1000	-11967
▁1700	-11968
▁1886	-11969
▁1921	-11970
▁1922	-11971
▁1933	-11972
▁1947	-11973
▁1953	-11974
▁1977	-11975
▁1985	-11976
▁1995	-11977
▁Abhi	-11978
▁Agra	-11979
▁Anna	-11980
▁Baba	-11981
▁Bach	-11982
▁Badr	-11983
▁Band	-11984
▁Bapu	-11985
▁Bhoj	-11986
▁Bish	-11987
▁Brok	-11988
▁Bull	-11989
▁CALL	-11990
▁Carn	-11991
▁Cath	-11992
▁Cham	-11993
▁Cond	-11994
▁Dasa	-11995
▁Dash	-11996
▁Dass	-11997
▁Dest	-11998
▁Dhar	-11999
▁Dwij	-12000
▁ESET	-12001
▁EXIF	-12002
▁Eval	-12003
▁Fiss	-12004
▁Frid	-12005
▁Furn	-12006
▁Gamb	-12007
▁Game	-12008
▁Gaur	-12009
▁Ghat	-12010
▁Gokh	-12011
▁Gram	-12012
▁Hari	-12013
▁Hier	-12014
▁Holi	-12015
▁Holl	-12016
▁IITs	-12017
▁Inse	-12018
▁Insp	-12019
▁Java	-12020
▁Kach	-12021
▁Kall	-12022
▁Kany	-12023
▁Kari	-12024
▁Kexi	-12025
▁Khal	-12026
▁Khur	-12027
▁Kosi	-12028
▁Lamp	-12029
▁Lead	-12030
▁Loop	-12031
▁Loss	-12032
▁MIME	-12033
▁Marg	-12034
▁Marx	-12035
▁Mash	-12036
▁Mast	-12037
▁Math	-12038
▁Megh	-12039
▁Meth	-12040
▁Mira	-12041
▁MoEF	-12042
▁Mond	-12043
▁Mont	-12044
▁Mull	-12045
▁Must	-12046
▁Muzz	-12047
▁PKCS	-12048
▁PUBL	-12049
▁Pack	-12050
▁Pali	-12051
▁Poss	-12052
▁Pray	-12053
▁Pune	-12054
▁Puri	-12055
▁Rand	-12056
▁Real	-12057
▁Rich	-12058
▁Saha	-12059
▁Sast	-12060
▁Saud	-12061
▁Scot	-12062
▁Shak	-12063
▁Shan	-12064
▁Shar	-12065
▁Siva	-12066
▁Step	-12067
▁Ster	-12068
▁Sure	-12069
▁Syri	-12070
▁Team	-12071
▁Tort	-12072
▁Town	-12073
▁Tree	-12074
▁Upon	-12075
▁Usbe	-12076
▁Used	-12077
▁Veda	-12078
▁Very	-12079
▁Vill	-12080
▁WORK	-12081
▁Wait	-12082
▁Whom	-12083
▁Wimb	-12084
▁Wood	-12085
▁Zion	-12086
▁Zone	-12087
▁adul	-12088
▁alms	-12089
▁amid	-12090
▁amph	-12091
▁apps	-12092
▁asce	-12093
▁bags	-12094
▁blow	-12095
▁boat	-12096
▁bold	-12097
▁bows	-12098
▁bred	-12099
▁canv	-12100
▁cart	-12101
▁cave	-12102
▁chap	-12103
▁chat	-12104
▁cher	-12105
▁chol	-12106
▁clan	-12107
▁clos	-12108
▁cogn	-12109
▁cuis	-12110
▁curi	-12111
▁curt	-12112
▁cuts	-12113
▁cycl	-12114
▁danc	-12115
▁dhol	-12116
▁diab	-12117
▁dict	-12118
▁duct	-12119
▁dumb	-12120
▁dung	-12121
▁dupl	-12122
▁eats	-12123
▁elev	-12124
▁ensh	-12125
▁expe	-12126
▁fals	-12127
▁fame	-12128
▁fars	-12129
▁fart	-12130
▁feas	-12131
▁feat	-12132
▁fern	-12133
▁ferv	-12134
▁flav	-12135
▁foil	-12136
▁fond	-12137
▁gall	-12138
▁gamb	-12139
▁gand	-12140
▁gang	-12141
▁goat	-12142
▁grim	-12143
▁guer	-12144
▁gush	-12145
▁halo	-12146
▁herb	-12147
▁horn	-12148
▁hors	-12149
▁hung	-12150
▁inex	-12151
▁infl	-12152
▁info	-12153
▁inim	-12154
▁kids	-12155
▁knee	-12156
▁lacs	-12157
▁levy	-12158
▁lime	-12159
▁mart	-12160
▁mast	-12161
▁medi	-12162
▁merc	-12163
▁mild	-12164
▁mism	-12165
▁nali	-12166
▁neem	-12167
▁nest	-12168
▁noct	-12169
▁node	-12170
▁nutr	-12171
▁oath	-12172
▁omit	-12173
▁pair	-12174
▁pays	-12175
▁peas	-12176
▁pest	-12177
▁pier	-12178
▁plug	-12179
▁pole	-12180
▁pose	-12181
▁prev	-12182
▁proc	-12183
▁purg	-12184
▁rape	-12185
▁rear	-12186
▁rein	-12187
▁repr	-12188
▁rose	-12189
▁rows	-12190
▁runa	-12191
▁rush	-12192
▁ruth	-12193
▁sage	-12194
▁sati	-12195
▁seve	-12196
▁shot	-12197
▁silk	-12198
▁slot	-12199
▁soup	-12200
▁spor	-12201
▁sten	-12202
▁stip	-12203
▁surn	-12204
▁tabs	-12205
▁tact	-12206
▁tala	-12207
▁tale	-12208
▁tens	-12209
▁tiny	-12210
▁toil	-12211
▁tone	-12212
▁tons	-12213
▁unac	-12214
▁unav	-12215
▁unem	-12216
▁unsh	-12217
▁uphe	-12218
▁vans	-12219
▁vern	-12220
▁wand	-12221
▁wast	-12222
▁wate	-12223
▁wave	-12224
▁whir	-12225
▁wing	-12226
▁yoga	-12227
ASHTRA	-12228
August	-12229
Joseph	-12230
access	-12231
adhara	-12232
adhyay	-12233
akhpur	-12234
aments	-12235
amount	-12236
ampion	-12237
andhar	-12238
anging	-12239
ankind	-12240
anking	-12241
antile	-12242
arency	-12243
arians	-12244
armati	-12245
asikas	-12246
asmuch	-12247
asseth	-12248
asters	-12249
cation	-12250
commun	-12251
ctrine	-12252
drawal	-12253
eleton	-12254
embers	-12255
enbach	-12256
endars	-12257
entage	-12258
ername	-12259
essors	-12260
etting	-12261
ferent	-12262
formed	-12263
graded	-12264
hattan	-12265
headed	-12266
iances	-12267
icitly	-12268
icting	-12269
ictive	-12270
ictory	-12271
icular	-12272
iguous	-12273
iliary	-12274
inated	-12275
inator	-12276
inence	-12277
ishers	-12278
itated	-12279
ivable	-12280
ligate	-12281
loaded	-12282
mented	-12283
namics	-12284
odging	-12285
odhana	-12286
ogenic	-12287
onesia	-12288
onious	-12289
ounted	-12290
ourers	-12291
ovable	-12292
phones	-12293
piracy	-12294
preced	-12295
rained	-12296
rating	-12297
reathe	-12298
remism	-12299
ricted	-12300
romagn	-12301
rowing	-12302
ructed	-12303
saying	-12304
teenth	-12305
terson	-12306
uguese	-12307
umbled	-12308
unning	-12309
ursive	-12310
ushing	-12311
utable	-12312
utical	-12313
verted	-12314
walior	-12315
within	-12316
▁1942.	-12317
▁1957,	-12318
▁1984,	-12319
▁1992)	-12320
▁2000,	-12321
▁2000.	-12322
▁2012.	-12323
▁2013)	-12324
▁2014,	-12325
▁AIIMS	-12326
▁Abort	-12327
▁Album	-12328
▁Alone	-12329
▁Amrit	-12330
▁Anand	-12331
▁Angle	-12332
▁Anglo	-12333
▁Ashok	-12334
▁Avail	-12335
▁BREAK	-12336
▁Below	-12337
▁Bhagw	-12338
▁Bibli	-12339
▁Black	-12340
▁Blank	-12341
▁Block	-12342
▁Books	-12343
▁Break	-12344
▁Breed	-12345
▁Brown	-12346
▁Cable	-12347
▁Canis	-12348
▁Chall	-12349
▁Chang	-12350
▁Chart	-12351
▁Chrom	-12352
▁Cisco	-12353
▁Compl	-12354
▁DATED	-12355
▁DEFRA	-12356
▁Death	-12357
▁Dharm	-12358
▁Draft	-12359
▁Emper	-12360
▁False	-12361
▁Fatah	-12362
▁Files	-12363
▁Flash	-12364
▁Flood	-12365
▁Focus	-12366
▁Fonts	-12367
▁Franc	-12368
▁Funds	-12369
▁GNOME	-12370
▁Gandh	-12371
▁Ghosh	-12372
▁Girls	-12373
▁Going	-12374
▁Goods	-12375
▁Hamdi	-12376
▁Hotel	-12377
▁Indig	-12378
▁Iraqi	-12379
▁Jatin	-12380
▁Jhark	-12381
▁Kavya	-12382
▁Kumbh	-12383
▁Legal	-12384
▁Lower	-12385
▁Madan	-12386
▁Manik	-12387
▁Maybe	-12388
▁Meher	-12389
▁Mercy	-12390
▁Mirza	-12391
▁Nahin	-12392
▁Names	-12393
▁Nanak	-12394
▁Naval	-12395
▁Noble	-12396
▁Nokia	-12397
▁Ocean	-12398
▁Opens	-12399
▁Padma	-12400
▁Parks	-12401
▁Party	-12402
▁Paste	-12403
▁Patel	-12404
▁Pearl	-12405
▁Phone	-12406
▁Place	-12407
▁Price	-12408
▁Punct	-12409
▁Purch	-12410
▁Queen	-12411
▁Radha	-12412
▁Rajiv	-12413
▁Raman	-12414
▁Range	-12415
▁Rasam	-12416
▁Refer	-12417
▁RuPay	-12418
▁SOCKS	-12419
▁Sabka	-12420
▁Sanct	-12421
▁Shall	-12422
▁Sikhs	-12423
▁Simon	-12424
▁Sindu	-12425
▁Still	-12426
▁Tashi	-12427
▁Third	-12428
▁Tokyo	-12429
▁Tools	-12430
▁Torah	-12431
▁Total	-12432
▁Trich	-12433
▁UNRWA	-12434
▁Units	-12435
▁Upper	-12436
▁Varma	-12437
▁Verma	-12438
▁Vishw	-12439
▁WATER	-12440
▁Width	-12441
▁Works	-12442
▁Write	-12443
▁Wrong	-12444
▁accum	-12445
▁acres	-12446
▁admir	-12447
▁album	-12448
▁alert	-12449
▁analy	-12450
▁annoy	-12451
▁arena	-12452
▁arist	-12453
▁array	-12454
▁asset	-12455
▁await	-12456
▁balls	-12457
▁batch	-12458
▁beach	-12459
▁bench	-12460
▁blasp	-12461
▁blush	-12462
▁bonds	-12463
▁borne	-12464
▁brass	-12465
▁bread	-12466
▁brink	-12467
▁burst	-12468
▁buses	-12469
▁canal	-12470
▁cards	-12471
▁casts	-12472
▁cheap	-12473
▁chips	-12474
▁clerk	-12475
▁cliff	-12476
▁cloth	-12477
▁clust	-12478
▁coinc	-12479
▁coins	-12480
▁crazy	-12481
▁cruel	-12482
▁cubic	-12483
▁cycle	-12484
▁daugh	-12485
▁dealt	-12486
▁debar	-12487
▁debau	-12488
▁demol	-12489
▁devil	-12490
▁dimin	-12491
▁divor	-12492
▁drain	-12493
▁eager	-12494
▁earns	-12495
▁embry	-12496
▁energ	-12497
▁erect	-12498
▁fails	-12499
▁farms	-12500
▁fewer	-12501
▁fifth	-12502
▁flags	-12503
▁flame	-12504
▁flung	-12505
▁flute	-12506
▁fragr	-12507
▁gifts	-12508
▁goats	-12509
▁gopur	-12510
▁grams	-12511
▁grows	-12512
▁guess	-12513
▁hangs	-12514
▁heaps	-12515
▁incap	-12516
▁india	-12517
▁indif	-12518
▁insol	-12519
▁intox	-12520
▁keeps	-12521
▁label	-12522
▁laure	-12523
▁legit	-12524
▁lists	-12525
▁liver	-12526
▁mails	-12527
▁males	-12528
▁manus	-12529
▁masks	-12530
▁mines	-12531
▁moist	-12532
▁molec	-12533
▁monol	-12534
▁moods	-12535
▁necks	-12536
▁obser	-12537
▁overs	-12538
▁owned	-12539
▁panic	-12540
▁parad	-12541
▁pests	-12542
▁pione	-12543
▁plent	-12544
▁pluck	-12545
▁polar	-12546
▁posed	-12547
▁quake	-12548
▁quart	-12549
▁reads	-12550
▁redem	-12551
▁refin	-12552
▁rehab	-12553
▁reign	-12554
▁reins	-12555
▁remit	-12556
▁renew	-12557
▁revol	-12558
▁rises	-12559
▁rocks	-12560
▁rooms	-12561
▁rough	-12562
▁scand	-12563
▁schol	-12564
▁screw	-12565
▁seeds	-12566
▁seest	-12567
▁shake	-12568
▁shave	-12569
▁shelf	-12570
▁shell	-12571
▁shift	-12572
▁skill	-12573
▁slave	-12574
▁solve	-12575
▁sorce	-12576
▁spare	-12577
▁spark	-12578
▁sport	-12579
▁spots	-12580
▁stagn	-12581
▁steal	-12582
▁stick	-12583
▁stiff	-12584
▁stray	-12585
▁stupa	-12586
▁supre	-12587
▁surge	-12588
▁swift	-12589
▁swine	-12590
▁tanks	-12591
▁theat	-12592
▁thorn	-12593
▁toHis	-12594
▁trunk	-12595
▁unpar	-12596
▁velar	-12597
▁wears	-12598
▁widow	-12599
▁wings	-12600
▁yards	-12601
ABILITY	-12602
AUGURAT	-12603
Believe	-12604
ICATION	-12605
Islamic	-12606
January	-12607
October	-12608
acities	-12609
aithful	-12610
angered	-12611
annatha	-12612
ariably	-12613
arrhoea	-12614
aternal	-12615
atility	-12616
atorial	-12617
audable	-12618
cessors	-12619
current	-12620
entials	-12621
ersonal	-12622
forcing	-12623
forward	-12624
further	-12625
hethood	-12626
history	-12627
ideshow	-12628
iliated	-12629
ilizers	-12630
inating	-12631
inities	-12632
inkling	-12633
issions	-12634
istries	-12635
itaries	-12636
itating	-12637
iterate	-12638
licting	-12639
llywood	-12640
manship	-12641
natural	-12642
oisseur	-12643
osystem	-12644
pellate	-12645
porting	-12646
rategic	-12647
reliant	-12648
reshing	-12649
ributed	-12650
secuted	-12651
strated	-12652
theless	-12653
urances	-12654
utenant	-12655
▁2017).	-12656
▁ATTEND	-12657
▁Adding	-12658
▁Always	-12659
▁Arjuna	-12660
▁Attack	-12661
▁Baluch	-12662
▁Basava	-12663
▁Better	-12664
▁Brazil	-12665
▁CENTRE	-12666
▁CONFER	-12667
▁CalDAV	-12668
▁Cancel	-12669
▁Charge	-12670
▁Config	-12671
▁Deccan	-12672
▁Design	-12673
▁Detail	-12674
▁Device	-12675
▁Econom	-12676
▁Edison	-12677
▁Estate	-12678
▁Expand	-12679
▁Expend	-12680
▁Footer	-12681
▁Fourth	-12682
▁Fruits	-12683
▁Galile	-12684
▁Gautam	-12685
▁Gentle	-12686
▁Golden	-12687
▁Govind	-12688
▁Images	-12689
▁Indore	-12690
▁Insert	-12691
▁Instru	-12692
▁Ismail	-12693
▁Jinnah	-12694
▁Kadima	-12695
▁Keshav	-12696
▁Krishi	-12697
▁Kuruks	-12698
▁Ladies	-12699
▁Lahore	-12700
▁Lakshm	-12701
▁Lawful	-12702
▁Layout	-12703
▁League	-12704
▁Living	-12705
▁Malays	-12706
▁Mandir	-12707
▁Minute	-12708
▁Module	-12709
▁Mysore	-12710
▁NABARD	-12711
▁Normal	-12712
▁Output	-12713
▁Period	-12714
▁Pillai	-12715
▁Places	-12716
▁Player	-12717
▁Pratap	-12718
▁Profit	-12719
▁Prompt	-12720
▁Purana	-12721
▁Radhan	-12722
▁Raipur	-12723
▁Recent	-12724
▁Record	-12725
▁Relief	-12726
▁Remote	-12727
▁Reward	-12728
▁Rotate	-12729
▁Russia	-12730
▁SARDAR	-12731
▁SPEECH	-12732
▁Saddam	-12733
▁Sarang	-12734
▁Sataka	-12735
▁Scores	-12736
▁Senior	-12737
▁Shakes	-12738
▁Should	-12739
▁Single	-12740
▁Spring	-12741
▁Surdas	-12742
▁Sweden	-12743
▁Syntax	-12744
▁Syrian	-12745
▁Taking	-12746
▁Tariff	-12747
▁Taught	-12748
▁Temple	-12749
▁Tender	-12750
▁Thamud	-12751
▁Theirs	-12752
▁Throne	-12753
▁Toggle	-12754
▁Tribal	-12755
▁Trophy	-12756
▁UNESCO	-12757
▁USENET	-12758
▁Unseen	-12759
▁Viewer	-12760
▁Warden	-12761
▁Wisdom	-12762
▁Yamuna	-12763
▁absorb	-12764
▁adhere	-12765
▁adults	-12766
▁agenda	-12767
▁analog	-12768
▁apolog	-12769
▁asleep	-12770
▁backup	-12771
▁barley	-12772
▁barred	-12773
▁barren	-12774
▁basins	-12775
▁beetle	-12776
▁betray	-12777
▁bitter	-12778
▁boiled	-12779
▁bridge	-12780
▁bucket	-12781
▁buffer	-12782
▁butter	-12783
▁camels	-12784
▁catast	-12785
▁cavity	-12786
▁ceased	-12787
▁cheeks	-12788
▁chiefs	-12789
▁choice	-12790
▁closer	-12791
▁cocoon	-12792
▁cogent	-12793
▁comply	-12794
▁condol	-12795
▁connot	-12796
▁cooled	-12797
▁cooper	-12798
▁couple	-12799
▁cradle	-12800
▁crowds	-12801
▁dagger	-12802
▁dances	-12803
▁deadly	-12804
▁define	-12805
▁destit	-12806
▁devoid	-12807
▁diesel	-12808
▁disaff	-12809
▁disord	-12810
▁disple	-12811
▁disreg	-12812
▁doings	-12813
▁domain	-12814
▁driver	-12815
▁egoism	-12816
▁elders	-12817
▁embarr	-12818
▁ethnic	-12819
▁exclus	-12820
▁fairly	-12821
▁feared	-12822
▁finger	-12823
▁fiscal	-12824
▁fisher	-12825
▁fodder	-12826
▁folded	-12827
▁framed	-12828
▁frozen	-12829
▁fusion	-12830
▁garlic	-12831
▁gifted	-12832
▁habits	-12833
▁harlot	-12834
▁heroic	-12835
▁hoping	-12836
▁hosted	-12837
▁humans	-12838
▁incarn	-12839
▁indian	-12840
▁indigo	-12841
▁infant	-12842
▁injure	-12843
▁injury	-12844
▁instal	-12845
▁instil	-12846
▁intent	-12847
▁keeper	-12848
▁lament	-12849
▁layout	-12850
▁league	-12851
▁legacy	-12852
▁linear	-12853
▁lonely	-12854
▁losses	-12855
▁mantle	-12856
▁mantra	-12857
▁manual	-12858
▁margin	-12859
▁marine	-12860
▁mathem	-12861
▁merits	-12862
▁meters	-12863
▁millet	-12864
▁mocked	-12865
▁modify	-12866
▁muslim	-12867
▁nectar	-12868
▁nights	-12869
▁ninety	-12870
▁nobody	-12871
▁obeyed	-12872
▁occurs	-12873
▁oceans	-12874
▁offspr	-12875
▁opaque	-12876
▁openly	-12877
▁ordeal	-12878
▁orphan	-12879
▁paying	-12880
▁perfor	-12881
▁phrase	-12882
▁pillar	-12883
▁plenty	-12884
▁plough	-12885
▁plunge	-12886
▁pounds	-12887
▁preach	-12888
▁precip	-12889
▁proves	-12890
▁pulmon	-12891
▁reckon	-12892
▁rectum	-12893
▁refute	-12894
▁repeat	-12895
▁resent	-12896
▁retail	-12897
▁rewrit	-12898
▁rhythm	-12899
▁riches	-12900
▁robbed	-12901
▁ruling	-12902
▁scored	-12903
▁scream	-12904
▁scroll	-12905
▁seeker	-12906
▁seemed	-12907
▁sewage	-12908
▁sheets	-12909
▁simult	-12910
▁sooner	-12911
▁sounds	-12912
▁spades	-12913
▁sphere	-12914
▁spices	-12915
▁spider	-12916
▁splend	-12917
▁sports	-12918
▁spouse	-12919
▁stabil	-12920
▁starve	-12921
▁strang	-12922
▁sunset	-12923
▁svaras	-12924
▁tables	-12925
▁talked	-12926
▁tasted	-12927
▁theory	-12928
▁thesis	-12929
▁throat	-12930
▁titles	-12931
▁tracts	-12932
▁triple	-12933
▁trunks	-12934
▁trusts	-12935
▁united	-12936
▁unlock	-12937
▁unread	-12938
▁uplift	-12939
▁ureter	-12940
▁utmost	-12941
▁vagina	-12942
▁valley	-12943
▁valued	-12944
▁varied	-12945
▁vector	-12946
▁verify	-12947
▁voices	-12948
▁vulner	-12949
▁wander	-12950
▁warned	-12951
▁weapon	-12952
▁wheels	-12953
▁whence	-12954
▁widely	-12955
▁wizard	-12956
▁writes	-12957
-4-2012,	-12958
Calendar	-12959
IVERSARY	-12960
archment	-12961
artments	-12962
cendence	-12963
ceptions	-12964
children	-12965
ependent	-12966
ertained	-12967
ertainty	-12968
graduate	-12969
ibration	-12970
isements	-12971
istering	-12972
ithmetic	-12973
ologists	-12974
ortunate	-12975
ositions	-12976
planting	-12977
poraries	-12978
position	-12979
positive	-12980
ubscribe	-12981
▁Abdulla	-12982
▁Against	-12983
▁Ancient	-12984
▁Andaman	-12985
▁Annuity	-12986
▁Arabian	-12987
▁Asiatic	-12988
▁Authent	-12989
▁Banking	-12990
▁Beijing	-12991
▁Belarus	-12992
▁Benefit	-12993
▁Blessed	-12994
▁Burning	-12995
▁CHAPTER	-12996
▁Cabinet	-12997
▁Changes	-12998
▁Channel	-12999
▁Chicago	-13000
▁Classes	-13001
▁Closing	-13002
▁Connect	-13003
▁Counter	-13004
▁Country	-13005
▁EXPRESS	-13006
▁Element	-13007
▁Folders	-13008
▁Forward	-13009
▁GENERAL	-13010
▁Gallery	-13011
▁Goddess	-13012
▁Gokhale	-13013
▁Gurudev	-13014
▁Gwalior	-13015
▁Harvard	-13016
▁Hearing	-13017
▁Highest	-13018
▁Inquiry	-13019
▁Instead	-13020
▁Iranian	-13021
▁Jayanti	-13022
▁Kalyana	-13023
▁Kannada	-13024
▁Keeping	-13025
▁Leasing	-13026
▁License	-13027
▁Lucknow	-13028
▁Marathi	-13029
▁Masters	-13030
▁Minutes	-13031
▁Mothers	-13032
▁Narayan	-13033
▁Nepomuk	-13034
▁Nothing	-13035
▁Nuclear	-13036
▁Nursing	-13037
▁Offices	-13038
▁Olympic	-13039
▁Organic	-13040
▁Paradip	-13041
▁Patrika	-13042
▁Payment	-13043
▁Perform	-13044
▁Phoenix	-13045
▁Postage	-13046
▁Prachar	-13047
▁Program	-13048
▁RASHTRA	-13049
▁Rajguru	-13050
▁Receipt	-13051
▁Records	-13052
▁Recruit	-13053
▁Respons	-13054
▁Returns	-13055
▁Reverse	-13056
▁Running	-13057
▁Shastri	-13058
▁Singles	-13059
▁Spanish	-13060
▁Specify	-13061
▁Summary	-13062
▁Trumpet	-13063
▁Vedanta	-13064
▁Village	-13065
▁Visible	-13066
▁Welcome	-13067
▁Worship	-13068
▁Writing	-13069
▁acclaim	-13070
▁accrued	-13071
▁airport	-13072
▁altered	-13073
▁aroused	-13074
▁arrival	-13075
▁ascribe	-13076
▁asunder	-13077
▁avoided	-13078
▁banking	-13079
▁batsman	-13080
▁behaved	-13081
▁bellies	-13082
▁beloved	-13083
▁bidding	-13084
▁binding	-13085
▁blowing	-13086
▁booklet	-13087
▁borders	-13088
▁bracket	-13089
▁breathe	-13090
▁bridges	-13091
▁briefly	-13092
▁caravan	-13093
▁careful	-13094
▁caution	-13095
▁checked	-13096
▁chronic	-13097
▁claimed	-13098
▁closing	-13099
▁coastal	-13100
▁colours	-13101
▁commits	-13102
▁compost	-13103
▁confess	-13104
▁consume	-13105
▁contrad	-13106
▁convers	-13107
▁convert	-13108
▁creator	-13109
▁crooked	-13110
▁crucial	-13111
▁cuisine	-13112
▁dancers	-13113
▁dangers	-13114
▁decline	-13115
▁defects	-13116
▁devoted	-13117
▁dischar	-13118
▁discipl	-13119
▁distort	-13120
▁divorce	-13121
▁doctors	-13122
▁doubted	-13123
▁dubious	-13124
▁dumping	-13125
▁dynasty	-13126
▁editors	-13127
▁empathy	-13128
▁engross	-13129
▁enjoyed	-13130
▁enlight	-13131
▁ensured	-13132
▁exalted	-13133
▁excited	-13134
▁experts	-13135
▁extends	-13136
▁extract	-13137
▁fastest	-13138
▁feareth	-13139
▁feeding	-13140
▁fifteen	-13141
▁fighter	-13142
▁filling	-13143
▁focuses	-13144
▁forging	-13145
▁forming	-13146
▁forsake	-13147
▁genetic	-13148
▁glacier	-13149
▁gravity	-13150
▁guiding	-13151
▁hanging	-13152
▁happier	-13153
▁harbour	-13154
▁harness	-13155
▁hearted	-13156
▁heights	-13157
▁heroine	-13158
▁holders	-13159
▁holiday	-13160
▁ignored	-13161
▁illness	-13162
▁impulse	-13163
▁infidel	-13164
▁inmates	-13165
▁insight	-13166
▁inspect	-13167
▁inspire	-13168
▁insured	-13169
▁interim	-13170
▁invites	-13171
▁invoked	-13172
▁joining	-13173
▁keybind	-13174
▁kinsmen	-13175
▁knoweth	-13176
▁launder	-13177
▁lecture	-13178
▁legends	-13179
▁letting	-13180
▁mastery	-13181
▁minimal	-13182
▁monitor	-13183
▁monkeys	-13184
▁mosques	-13185
▁muscles	-13186
▁nearest	-13187
▁nervous	-13188
▁neurons	-13189
▁notices	-13190
▁nurture	-13191
▁onwards	-13192
▁optical	-13193
▁package	-13194
▁panchay	-13195
▁penalty	-13196
▁permits	-13197
▁physics	-13198
▁pigeons	-13199
▁pilgrim	-13200
▁pleaded	-13201
▁plenary	-13202
▁plunged	-13203
▁poorest	-13204
▁prayers	-13205
▁printer	-13206
▁privacy	-13207
▁prophet	-13208
▁propose	-13209
▁puberty	-13210
▁pursuit	-13211
▁purview	-13212
▁radical	-13213
▁readers	-13214
▁readily	-13215
▁realise	-13216
▁rearing	-13217
▁refresh	-13218
▁rejuven	-13219
▁reminds	-13220
▁repeats	-13221
▁resting	-13222
▁retired	-13223
▁revered	-13224
▁reverse	-13225
▁rituals	-13226
▁seizure	-13227
▁shallow	-13228
▁shouted	-13229
▁signing	-13230
▁spermat	-13231
▁spirits	-13232
▁stating	-13233
▁staying	-13234
▁sterner	-13235
▁subcont	-13236
▁subdued	-13237
▁surname	-13238
▁surplus	-13239
▁suspend	-13240
▁symbols	-13241
▁symptom	-13242
▁tableau	-13243
▁talents	-13244
▁targets	-13245
▁teaches	-13246
▁thrusts	-13247
▁touches	-13248
▁trained	-13249
▁traitor	-13250
▁travers	-13251
▁trodden	-13252
▁trumpet	-13253
▁turmoil	-13254
▁tyrants	-13255
▁unusual	-13256
▁updated	-13257
▁useless	-13258
▁valleys	-13259
▁viewing	-13260
▁warfare	-13261
▁warrior	-13262
▁watered	-13263
▁winding	-13264
Amendment	-13265
gratitude	-13266
ibilities	-13267
indictive	-13268
indranath	-13269
istration	-13270
itiveness	-13271
journment	-13272
olescence	-13273
repreneur	-13274
▁Ambassad	-13275
▁Approved	-13276
▁AtkHyper	-13277
▁Aviation	-13278
▁Ayurveda	-13279
▁Barbados	-13280
▁Benefits	-13281
▁Ceremony	-13282
▁Chancell	-13283
▁Complete	-13284
▁Computer	-13285
▁Constitu	-13286
▁Contract	-13287
▁Creating	-13288
▁Creation	-13289
▁Displays	-13290
▁Document	-13291
▁Drinking	-13292
▁Eligible	-13293
▁Examples	-13294
▁Frontier	-13295
▁Function	-13296
▁Guidance	-13297
▁Guwahati	-13298
▁Identity	-13299
▁Imperial	-13300
▁Increase	-13301
▁Islamist	-13302
▁Johannes	-13303
▁Kalidasa	-13304
▁Khilafat	-13305
▁Lectures	-13306
▁Likewise	-13307
▁Measures	-13308
▁Memorial	-13309
▁Messages	-13310
▁Military	-13311
▁Mongoose	-13312
▁Moreover	-13313
▁Movement	-13314
▁NATIONAL	-13315
▁Northern	-13316
▁OCCASION	-13317
▁Original	-13318
▁Particip	-13319
▁Powerful	-13320
▁Priority	-13321
▁Progress	-13322
▁Prophets	-13323
▁SERVICES	-13324
▁Sciences	-13325
▁Scotland	-13326
▁Southern	-13327
▁Teachers	-13328
▁Wildlife	-13329
▁abstract	-13330
▁accustom	-13331
▁advances	-13332
▁agrarian	-13333
▁allowing	-13334
▁altering	-13335
▁assessed	-13336
▁attracts	-13337
▁aviation	-13338
▁avoiding	-13339
▁birthday	-13340
▁bookmark	-13341
▁borrower	-13342
▁bounties	-13343
▁bringeth	-13344
▁bureaucr	-13345
▁calamity	-13346
▁captives	-13347
▁cardinal	-13348
▁cellular	-13349
▁champion	-13350
▁checking	-13351
▁climbing	-13352
▁clothing	-13353
▁commerce	-13354
▁communic	-13355
▁complied	-13356
▁compound	-13357
▁concerns	-13358
▁conclude	-13359
▁confined	-13360
▁confused	-13361
▁conquest	-13362
▁counting	-13363
▁crossing	-13364
▁decisive	-13365
▁decrease	-13366
▁defeated	-13367
▁defender	-13368
▁delicate	-13369
▁describe	-13370
▁destined	-13371
▁deterior	-13372
▁diabetes	-13373
▁diabetic	-13374
▁dialects	-13375
▁disorder	-13376
▁disputes	-13377
▁distingu	-13378
▁dividend	-13379
▁doctrine	-13380
▁dominant	-13381
▁dominion	-13382
▁dragging	-13383
▁drawings	-13384
▁earnings	-13385
▁egoistic	-13386
▁enabling	-13387
▁enduring	-13388
▁entities	-13389
▁entrance	-13390
▁envisage	-13391
▁equipped	-13392
▁evenings	-13393
▁exempted	-13394
▁expelled	-13395
▁explains	-13396
▁fairness	-13397
▁fetching	-13398
▁fissures	-13399
▁forceful	-13400
▁forehead	-13401
▁forgives	-13402
▁fruitful	-13403
▁fugitive	-13404
▁glaciers	-13405
▁goodwill	-13406
▁governed	-13407
▁grievous	-13408
▁guarding	-13409
▁handling	-13410
▁hardened	-13411
▁helpless	-13412
▁highways	-13413
▁horrible	-13414
▁humidity	-13415
▁ideology	-13416
▁imagined	-13417
▁immortal	-13418
▁improved	-13419
▁impugned	-13420
▁inasmuch	-13421
▁indirect	-13422
▁infected	-13423
▁infringe	-13424
▁interval	-13425
▁involves	-13426
▁landmark	-13427
▁lectures	-13428
▁lifetime	-13429
▁lighting	-13430
▁linkages	-13431
▁listener	-13432
▁maternal	-13433
▁melodies	-13434
▁membrane	-13435
▁metainfo	-13436
▁micropro	-13437
▁militant	-13438
▁minerals	-13439
▁minority	-13440
▁monoxide	-13441
▁mosquito	-13442
▁mulberry	-13443
▁multiply	-13444
▁northern	-13445
▁notified	-13446
▁observes	-13447
▁operates	-13448
▁operator	-13449
▁organize	-13450
▁outgoing	-13451
▁overseas	-13452
▁overtook	-13453
▁parallel	-13454
▁patterns	-13455
▁payments	-13456
▁perverse	-13457
▁pillared	-13458
▁pipeline	-13459
▁playback	-13460
▁pointing	-13461
▁polished	-13462
▁possibly	-13463
▁precepts	-13464
▁premises	-13465
▁prepares	-13466
▁proceeds	-13467
▁promises	-13468
▁prophets	-13469
▁protests	-13470
▁protocol	-13471
▁province	-13472
▁pursuits	-13473
▁realized	-13474
▁reciproc	-13475
▁recourse	-13476
▁reliable	-13477
▁renounce	-13478
▁requited	-13479
▁residing	-13480
▁retrieve	-13481
▁ridicule	-13482
▁rigorous	-13483
▁scarcely	-13484
▁securing	-13485
▁severely	-13486
▁shortcut	-13487
▁shouldst	-13488
▁simplify	-13489
▁sleeping	-13490
▁slightly	-13491
▁socially	-13492
▁somebody	-13493
▁sorcerer	-13494
▁spinning	-13495
▁sprinkle	-13496
▁stringed	-13497
▁superior	-13498
▁supplied	-13499
▁supposed	-13500
▁suppress	-13501
▁synchron	-13502
▁tendency	-13503
▁theories	-13504
▁touching	-13505
▁tracking	-13506
▁unaccept	-13507
▁underway	-13508
▁unpreced	-13509
▁uprising	-13510
▁utilised	-13511
▁variable	-13512
▁vehicles	-13513
▁volatile	-13514
▁workshop	-13515
▁worrying	-13516
▁wretched	-13517
▁wrinkled	-13518
Prevention	-13519
aeological	-13520
avidyalaya	-13521
celeration	-13522
romagnetic	-13523
▁Agreement	-13524
▁Anonymous	-13525
▁Appellate	-13526
▁Architect	-13527
▁Arguments	-13528
▁Available	-13529
▁Bangalore	-13530
▁Cambridge	-13531
▁Champions	-13532
▁Contracts	-13533
▁Directors	-13534
▁Emergency	-13535
▁Europeans	-13536
▁Extension	-13537
▁Gandharva	-13538
▁Gentlemen	-13539
▁Gorakhpur	-13540
▁Governors	-13541
▁Himalayas	-13542
▁Hindustan	-13543
▁INAUGURAT	-13544
▁Improving	-13545
▁Indonesia	-13546
▁Jharkhand	-13547
▁Meherally	-13548
▁Microsoft	-13549
▁Muzzammil	-13550
▁Naturally	-13551
▁Operating	-13552
▁Patterson	-13553
▁Personnel	-13554
▁Professor	-13555
▁Receiving	-13556
▁Redressal	-13557
▁Reference	-13558
▁Renewable	-13559
▁Resources	-13560
▁Sabarmati	-13561
▁Something	-13562
▁Statutory	-13563
▁Strategic	-13564
▁Switching	-13565
▁Technical	-13566
▁Temporary	-13567
▁Universal	-13568
▁Wimbledon	-13569
▁Workplace	-13570
▁abundance	-13571
▁academics	-13572
▁adherence	-13573
▁advocates	-13574
▁afflicted	-13575
▁afterward	-13576
▁allocated	-13577
▁amenities	-13578
▁amounting	-13579
▁ancestors	-13580
▁appearing	-13581
▁apprehens	-13582
▁assistant	-13583
▁attaining	-13584
▁attending	-13585
▁authentic	-13586
▁avoidance	-13587
▁awakening	-13588
▁belonging	-13589
▁calendars	-13590
▁carefully	-13591
▁commodity	-13592
▁companion	-13593
▁conducive	-13594
▁confusion	-13595
▁consensus	-13596
▁consumers	-13597
▁contended	-13598
▁contribut	-13599
▁convinced	-13600
▁criticism	-13601
▁curiosity	-13602
▁daughters	-13603
▁decisions	-13604
▁defective	-13605
▁delegates	-13606
▁demanding	-13607
▁detriment	-13608
▁digestion	-13609
▁directors	-13610
▁disciples	-13611
▁disintegr	-13612
▁dismissed	-13613
▁dispersed	-13614
▁disturbed	-13615
▁donations	-13616
▁downloads	-13617
▁duplicate	-13618
▁economics	-13619
▁employers	-13620
▁enactment	-13621
▁encrypted	-13622
▁endeavour	-13623
▁entertain	-13624
▁envisaged	-13625
▁exclusion	-13626
▁exemplary	-13627
▁expelling	-13628
▁expertise	-13629
▁exploited	-13630
▁expresses	-13631
▁extracted	-13632
▁filtering	-13633
▁fragments	-13634
▁frequency	-13635
▁gathering	-13636
▁germplasm	-13637
▁hereafter	-13638
▁identical	-13639
▁ignorance	-13640
▁imitation	-13641
▁impressed	-13642
▁inception	-13643
▁inclusion	-13644
▁indicates	-13645
▁inflation	-13646
▁influenza	-13647
▁initially	-13648
▁intermedi	-13649
▁intervals	-13650
▁interview	-13651
▁introduce	-13652
▁invisible	-13653
▁journeyed	-13654
▁labourers	-13655
▁libraries	-13656
▁liquidity	-13657
▁literally	-13658
▁locations	-13659
▁mentality	-13660
▁ministers	-13661
▁multiples	-13662
▁municipal	-13663
▁musicians	-13664
▁nominated	-13665
▁obedience	-13666
▁octagonal	-13667
▁ordinance	-13668
▁organisms	-13669
▁permanent	-13670
▁plentiful	-13671
▁pluralism	-13672
▁poisonous	-13673
▁positions	-13674
▁postponed	-13675
▁precisely	-13676
▁prevalent	-13677
▁prisoners	-13678
▁privilege	-13679
▁probation	-13680
▁proceeded	-13681
▁qualified	-13682
▁readiness	-13683
▁realizing	-13684
▁reconcile	-13685
▁reduction	-13686
▁referring	-13687
▁regiments	-13688
▁regularly	-13689
▁replacing	-13690
▁respected	-13691
▁retreated	-13692
▁returneth	-13693
▁returning	-13694
▁sanctuary	-13695
▁satellite	-13696
▁scattered	-13697
▁scientist	-13698
▁scripture	-13699
▁seemingly	-13700
▁sensitive	-13701
▁seriously	-13702
▁sincerely	-13703
▁slightest	-13704
▁southwest	-13705
▁strategic	-13706
▁strengths	-13707
▁successes	-13708
▁summoning	-13709
▁supremacy	-13710
▁switching	-13711
▁teachings	-13712
▁terrorist	-13713
▁traveling	-13714
▁undergone	-13715
▁undertook	-13716
▁unwilling	-13717
▁viewpoint	-13718
▁villagers	-13719
▁visionary	-13720
▁wandering	-13721
▁wholesome	-13722
PRODUCTNAME	-13723
▁23-9-2011,	-13724
▁Acquainted	-13725
▁Addressing	-13726
▁Antarctica	-13727
▁Assessment	-13728
▁Attachment	-13729
▁Background	-13730
▁Collection	-13731
▁Conversion	-13732
▁Converting	-13733
▁Dictionary	-13734
▁Everything	-13735
▁Exhibition	-13736
▁Facilities	-13737
▁Guidelines	-13738
▁Harassment	-13739
▁Hindustani	-13740
▁Individual	-13741
▁Israelites	-13742
▁Jagannatha	-13743
▁Kallenbach	-13744
▁Literature	-13745
▁Minorities	-13746
▁Opposition	-13747
▁Parameters	-13748
▁Portuguese	-13749
▁Presidency	-13750
▁Prevention	-13751
▁Properties	-13752
▁Recipients	-13753
▁Regulation	-13754
▁Scriptures	-13755
▁Securities	-13756
▁Statistics	-13757
▁Thereafter	-13758
▁UNIVERSITY	-13759
▁Withdrawal	-13760
▁adjustment	-13761
▁admissible	-13762
▁aesthetics	-13763
▁affliction	-13764
▁allocation	-13765
▁amendments	-13766
▁approached	-13767
▁assemblies	-13768
▁attainment	-13769
▁attendance	-13770
▁authorized	-13771
▁autonomous	-13772
▁boundaries	-13773
▁candidates	-13774
▁ceremonial	-13775
▁chargeable	-13776
▁compassion	-13777
▁complexity	-13778
▁compromise	-13779
▁compulsory	-13780
▁conducting	-13781
▁configured	-13782
▁confirming	-13783
▁consistent	-13784
▁contention	-13785
▁contractor	-13786
▁conviction	-13787
▁coronation	-13788
▁creativity	-13789
▁debentures	-13790
▁decorative	-13791
▁defendants	-13792
▁delegation	-13793
▁descending	-13794
▁differenti	-13795
▁disappoint	-13796
▁distracted	-13797
▁ecological	-13798
▁economists	-13799
▁emphasised	-13800
▁endangered	-13801
▁endeavours	-13802
▁enterprise	-13803
▁enthusiasm	-13804
▁exceptions	-13805
▁expiration	-13806
▁explaining	-13807
▁explicitly	-13808
▁forgetting	-13809
▁harassment	-13810
▁horizontal	-13811
▁impressive	-13812
▁indicative	-13813
▁inevitable	-13814
▁influenced	-13815
▁influences	-13816
▁instituted	-13817
▁instructed	-13818
▁invariably	-13819
▁liberation	-13820
▁manuscript	-13821
▁metabolism	-13822
▁ministries	-13823
▁misleading	-13824
▁monitoring	-13825
▁monolithic	-13826
▁negligence	-13827
▁obligatory	-13828
▁officially	-13829
▁oppressors	-13830
▁originates	-13831
▁perception	-13832
▁performing	-13833
▁peripheral	-13834
▁photograph	-13835
▁pioneering	-13836
▁preference	-13837
▁prevention	-13838
▁productive	-13839
▁profitable	-13840
▁pronounced	-13841
▁protecting	-13842
▁provincial	-13843
▁recordings	-13844
▁regulating	-13845
▁regulation	-13846
▁respecting	-13847
▁retirement	-13848
▁sanctioned	-13849
▁sanitation	-13850
▁scholastic	-13851
▁sculptural	-13852
▁sculptures	-13853
▁separately	-13854
▁simplicity	-13855
▁situations	-13856
▁strategies	-13857
▁structures	-13858
▁substitute	-13859
▁sufferings	-13860
▁supporters	-13861
▁surprising	-13862
▁threatened	-13863
▁travelling	-13864
▁underlying	-13865
▁underneath	-13866
▁unexpected	-13867
▁unfaithful	-13868
▁ungrateful	-13869
▁uniformity	-13870
▁vernacular	-13871
▁volunteers	-13872
▁weaknesses	-13873
withstanding	-13874
▁ANNIVERSARY	-13875
▁Baluchistan	-13876
▁Composition	-13877
▁Considering	-13878
▁Cooperative	-13879
▁Everlasting	-13880
▁Expenditure	-13881
▁Kurukshetra	-13882
▁Legislature	-13883
▁Permissions	-13884
▁Preparation	-13885
▁RASHTRAPATI	-13886
▁Secretariat	-13887
▁Shakespeare	-13888
▁Upgradation	-13889
▁Vaishnavism	-13890
▁alternation	-13891
▁anniversary	-13892
▁beautifully	-13893
▁celebration	-13894
▁commendable	-13895
▁complainant	-13896
▁concentrate	-13897
▁concessions	-13898
▁constraints	-13899
▁conventions	-13900
▁coordinated	-13901
▁credentials	-13902
▁declaration	-13903
▁demonstrate	-13904
▁differently	-13905
▁dignitaries	-13906
▁disappeared	-13907
▁disbeliever	-13908
▁distinction	-13909
▁distributed	-13910
▁eligibility	-13911
▁empowerment	-13912
▁encompassed	-13913
▁encompasses	-13914
▁enhancement	-13915
▁expectation	-13916
▁expeditious	-13917
▁experiments	-13918
▁fertilizers	-13919
▁illustrious	-13920
▁imperialist	-13921
▁implication	-13922
▁indentation	-13923
▁inheritance	-13924
▁inscription	-13925
▁intervening	-13926
▁involvement	-13927
▁limitations	-13928
▁necessities	-13929
▁observation	-13930
▁orientation	-13931
▁outsourcing	-13932
▁perspective	-13933
▁populations	-13934
▁predominant	-13935
▁preferences	-13936
▁preliminary	-13937
▁promotional	-13938
▁proportions	-13939
▁prosecution	-13940
▁prostration	-13941
▁punishments	-13942
▁realization	-13943
▁replacement	-13944
▁restriction	-13945
▁retaliation	-13946
▁righteously	-13947
▁specialized	-13948
▁spectacular	-13949
▁subordinate	-13950
▁substituted	-13951
▁termination	-13952
▁transferred	-13953
▁uncertainty	-13954
▁understands	-13955
▁unfortunate	-13956
▁utilisation	-13957
▁worshipping	-13958
▁Applications	-13959
▁Bibliography	-13960
▁Broadcasting	-13961
▁Conservation	-13962
▁Entrepreneur	-13963
▁Metropolitan	-13964
▁Organisation	-13965
▁alternatives	-13966
▁artificially	-13967
▁attributable	-13968
▁authenticity	-13969
▁civilization	-13970
▁collectively	-13971
▁competitions	-13972
▁consolidated	-13973
▁constructing	-13974
▁continuously	-13975
▁coordination	-13976
▁disaffection	-13977
▁discontinued	-13978
▁dispensation	-13979
▁expectations	-13980
▁imprisonment	-13981
▁inauguration	-13982
▁instructions	-13983
▁intoxication	-13984
▁manufactured	-13985
▁negotiations	-13986
▁occupational	-13987
▁performances	-13988
▁predecessors	-13989
▁preservation	-13990
▁purification	-13991
▁regeneration	-13992
▁remuneration	-13993
▁safeguarding	-13994
▁straightened	-13995
▁strengthened	-13996
▁subcontinent	-13997
▁subsequently	-13998
▁unreasonable	-13999
▁Accreditation	-14000
▁Authorization	-14001
▁Biotechnology	-14002
▁Commemorative	-14003
▁Communication	-14004
▁Compassionate	-14005
▁Configuration	-14006
▁Distinguished	-14007
▁administrator	-14008
▁configuration	-14009
▁congratulated	-14010
▁deliberations	-14011
▁documentation	-14012
▁grandchildren	-14013
▁intellectuals	-14014
▁interventions	-14015
▁profitability	-14016
▁psychological	-14017
▁spontaneously	-14018
▁supplementary	-14019
▁transplanting	-14020
▁unprecedented	-14021
▁Simultaneously	-14022
▁contemporaries	-14023
▁discrimination	-14024
▁microprocessor	-14025
▁multiplication	-14026
▁recommendation	-14027
▁reorganisation	-14028
▁understandable	-14029
▁congratulations	-14030
▁disillusionment	-14031
▁electromagnetic	-14032
▁interpretations	-14033
(1)	-14034
)?"	-14035
)]:	-14036
-11	-14037
-12	-14038
.02	-14039
.07	-14040
.08	-14041
111	-14042
19,	-14043
57)	-14044
848	-14045
859	-14046
?14	-14047
AIM	-14048
AKR	-14049
ASH	-14050
ASS	-14051
Ask	-14052
BBS	-14053
BOL	-14054
CLE	-14055
CNR	-14056
DUL	-14057
EPC	-14058
GEF	-14059
GHT	-14060
III	-14061
IVE	-14062
KET	-14063
MoL	-14064
NET	-14065
NRE	-14066
OTE	-14067
OUR	-14068
One	-14069
PCL	-14070
PEG	-14071
PSC	-14072
RIL	-14073
STR	-14074
TEX	-14075
TOT	-14076
UTs	-14077
VCD	-14078
bye	-14079
gyz	-14080
ijj	-14081
lux	-14082
oze	-14083
trl	-14084
{2}	-14085
-13.	-14086
-194	-14087
2022	-14088
7-19	-14089
848'	-14090
ACKG	-14091
ANAK	-14092
ASTP	-14093
CAIR	-14094
DESH	-14095
DIST	-14096
EPTE	-14097
GRAT	-14098
ICOM	-14099
AMI	-14100
ANT	-14101
HHD	-14102
MAN	-14103
NOR	-14104
ORY	-14105
IGHT	-14106
IMES	-14107
ITAL	-14108
IVES	-14109
NDOL	-14110
REET	-14111
RORT	-14112
Shiv	-14113
TAIN	-14114
TEXT	-14115
TORY	-14116
UNCT	-14117
WING	-14118
aena	-14119
balt	-14120
bola	-14121
chho	-14122
door	-14123
glot	-14124
grie	-14125
hawa	-14126
imsa	-14127
jabi	-14128
kbar	-14129
keys	-14130
loom	-14131
maph	-14132
mbps	-14133
mler	-14134
oora	-14135
oppy	-14136
ozoa	-14137
prak	-14138
tube	-14139
ummy	-14140
umni	-14141
urtz	-14142
vada	-14143
xico	-14144
ylum	-14145
zpur	-14146
zzle	-14147
▁','	-14148
▁(6)	-14149
▁011	-14150
▁08.	-14151
▁21.	-14152
▁234	-14153
▁35%	-14154
▁350	-14155
▁40.	-14156
▁44.	-14157
▁47.	-14158
▁5,—	-14159
▁50.	-14160
▁59,	-14161
▁59.	-14162
▁85%	-14163
▁ACC	-14164
▁ALL	-14165
▁ASP	-14166
▁BBC	-14167
▁BCC	-14168
▁Bij	-14169
▁Bux	-14170
▁CSC	-14171
▁CVS	-14172
▁FIP	-14173
▁GPS	-14174
▁Haf	-14175
▁Hyp	-14176
▁ICC	-14177
▁IDA	-14178
▁IIS	-14179
▁IPS	-14180
▁IPT	-14181
▁IPv	-14182
▁ISB	-14183
▁ISN	-14184
▁KOr	-14185
▁LAN	-14186
▁LDA	-14187
▁Lyn	-14188
▁MSL	-14189
▁Maa	-14190
▁NEH	-14191
▁NSS	-14192
▁OUR	-14193
▁PEC	-14194
▁PIO	-14195
▁RTI	-14196
▁SPM	-14197
▁SRI	-14198
▁Syn	-14199
270	-14200
hyd	-14201
OUTH	-14202
burg	-14203
uddy	-14204
vara	-14205
▁28.	-14206
▁TOM	-14207
▁WMD	-14208
▁Yea	-14209
▁elb	-14210
-2022	-14211
ACKGR	-14212
ALAND	-14213
ASEAN	-14214
Bhair	-14215
Faith	-14216
INIST	-14217
Micro	-14218
PITAL	-14219
RACLE	-14220
Saleh	-14221
Satan	-14222
TOTAL	-14223
Taste	-14224
Those	-14225
Today	-14226
WAHAR	-14227
adevi	-14228
aedia	-14229
agarh	-14230
agunt	-14231
ancou	-14232
apada	-14233
aptan	-14234
apuri	-14235
arapp	-14236
arers	-14237
arpur	-14238
atisf	-14239
ayoga	-14240
check	-14241
chend	-14242
chiro	-14243
cimal	-14244
cules	-14245
culia	-14246
eches	-14247
ednes	-14248
eenth	-14249
elfth	-14250
empts	-14251
erald	-14252
ersey	-14253
eurys	-14254
false	-14255
flies	-14256
front	-14257
frost	-14258
grams	-14259
habar	-14260
helor	-14261
herds	-14262
hroom	-14263
ianvi	-14264
iawar	-14265
ibiot	-14266
idney	-14267
iheit	-14268
ihood	-14269
imbab	-14270
imbur	-14271
immer	-14272
inema	-14273
iquid	-14274
irmal	-14275
itzer	-14276
junct	-14277
mouth	-14278
mpire	-14279
namma	-14280
oblig	-14281
ocols	-14282
oghly	-14283
ojini	-14284
olkar	-14285
olled	-14286
omani	-14287
omboy	-14288
omoha	-14289
omson	-14290
onald	-14291
ophon	-14292
owler	-14293
pathy	-14294
pidor	-14295
raged	-14296
ramid	-14297
ravag	-14298
ravid	-14299
Gh	-14300
RD	-14301
BRD	-14302
INK	-14303
ibs	-14304
oot	-14305
raw	-14306
▁"'	-14307
▁95	-14308
▁Ja	-14309
▁Vi	-14310
▁vc	-14311
Ghum	-14312
LINK	-14313
east	-14314
eson	-14315
last	-14316
oudh	-14317
ules	-14318
wala	-14319
▁70.	-14320
▁Dod	-14321
▁Dub	-14322
▁Jab	-14323
▁Jal	-14324
▁Jur	-14325
▁Kap	-14326
▁Sau	-14327
▁Suk	-14328
▁UND	-14329
▁Ver	-14330
achar	-14331
akist	-14332
anadd	-14333
anzan	-14334
ishth	-14335
otent	-14336
repro	-14337
rimal	-14338
rimun	-14339
roots	-14340
runch	-14341
scale	-14342
scape	-14343
shore	-14344
smith	-14345
strip	-14346
supra	-14347
thalm	-14348
uliya	-14349
umdar	-14350
urosc	-14351
urses	-14352
utiny	-14353
vaggo	-14354
ville	-14355
wange	-14356
width	-14357
xford	-14358
yanam	-14359
young	-14360
yrgyz	-14361
{0}".	-14362
▁'{0}	-14363
▁(11.	-14364
▁109.	-14365
▁1207	-14366
▁1300	-14367
▁1892	-14368
▁1916	-14369
▁1925	-14370
▁1938	-14371
▁1963	-14372
▁1964	-14373
▁1971	-14374
▁1980	-14375
▁1981	-14376
▁1983	-14377
▁1986	-14378
▁7944	-14379
▁8000	-14380
▁ANDH	-14381
▁Airl	-14382
▁Ajay	-14383
▁Alex	-14384
▁Angk	-14385
▁Anti	-14386
▁Apab	-14387
▁BHIM	-14388
▁Brig	-14389
▁Brus	-14390
▁CCNA	-14391
▁CEOs	-14392
▁CONS	-14393
▁Chem	-14394
▁Dwar	-14395
▁EEPC	-14396
▁Eden	-14397
▁Ehud	-14398
▁FCNR	-14399
!'	-14400
adv	-14401
bow	-14402
haj	-14403
xtu	-14404
▁71	-14405
Come	-14406
bear	-14407
clea	-14408
enry	-14409
imas	-14410
izia	-14411
nect	-14412
obic	-14413
okel	-14414
puri	-14415
▁Ald	-14416
▁Cry	-14417
▁FIT	-14418
▁kip	-14419
angle	-14420
cency	-14421
hajir	-14422
idwar	-14423
ndial	-14424
stage	-14425
uance	-14426
ustav	-14427
▁Days	-14428
▁Fitr	-14429
▁Flee	-14430
▁Folk	-14431
▁GURU	-14432
▁Gaza	-14433
▁Grat	-14434
▁Grav	-14435
▁Gray	-14436
▁Gril	-14437
▁GtkS	-14438
▁HTTP	-14439
▁IITF	-14440
▁ISBN	-14441
▁Janm	-14442
▁Joze	-14443
▁Juda	-14444
▁KVIC	-14445
▁Kadu	-14446
▁Kirg	-14447
▁Kosh	-14448
▁Lakh	-14449
▁Lost	-14450
▁Ludh	-14451
▁Mask	-14452
▁Maul	-14453
▁Mohd	-14454
▁NASA	-14455
▁NGOs	-14456
▁Nirv	-14457
▁Nyay	-14458
▁Nyus	-14459
▁OVER	-14460
▁Poll	-14461
▁Poor	-14462
▁Pump	-14463
▁Qaed	-14464
▁Qazi	-14465
▁Quit	-14466
▁Qura	-14467
▁Ratn	-14468
▁Ravi	-14469
▁Rena	-14470
▁Risk	-14471
▁Role	-14472
▁SCBs	-14473
▁SEWA	-14474
▁SHGs	-14475
▁SING	-14476
▁SIZE	-14477
▁SMTP	-14478
▁STUD	-14479
▁Sadh	-14480
▁Same	-14481
▁Samu	-14482
▁Sena	-14483
▁Serb	-14484
▁Seva	-14485
▁Shiv	-14486
▁Shua	-14487
▁Sibs	-14488
▁Sijj	-14489
▁Srav	-14490
▁Srik	-14491
▁Srir	-14492
▁Sris	-14493
▁Sufi	-14494
▁Suri	-14495
▁Sush	-14496
▁Symb	-14497
▁THOU	-14498
▁Talk	-14499
aba	-14500
ahr	-14501
bro	-14502
vir	-14503
▁Id	-14504
▁ow	-14505
,000	-14506
Here	-14507
lind	-14508
ocab	-14509
ocon	-14510
▁020	-14511
▁Dou	-14512
▁Jun	-14513
▁Kel	-14514
▁Khe	-14515
▁Kol	-14516
▁Kut	-14517
▁Pul	-14518
▁Sha	-14519
▁Wah	-14520
▁enm	-14521
▁ion	-14522
▁sag	-14523
▁una	-14524
acult	-14525
ainer	-14526
asual	-14527
ously	-14528
rophe	-14529
ussed	-14530
▁Diac	-14531
▁Gord	-14532
▁Kant	-14533
▁Kind	-14534
▁SHAR	-14535
▁Tatt	-14536
▁Tuls	-14537
▁UPSC	-14538
▁Vaik	-14539
▁Veen	-14540
▁Venk	-14541
▁VoIP	-14542
▁WRIT	-14543
▁Wahe	-14544
▁Yogi	-14545
▁Yudh	-14546
▁Zeal	-14547
▁Zhim	-14548
▁answ	-14549
▁auto	-14550
▁barg	-14551
▁beef	-14552
▁blem	-14553
▁bony	-14554
▁budd	-14555
▁calm	-14556
▁cann	-14557
▁chow	-14558
▁coil	-14559
▁craw	-14560
▁doll	-14561
▁doom	-14562
▁dugi	-14563
▁eleg	-14564
▁enqu	-14565
▁envy	-14566
▁epis	-14567
▁epit	-14568
▁flew	-14569
▁fora	-14570
▁garb	-14571
▁gaze	-14572
▁gene	-14573
▁gulf	-14574
▁hubs	-14575
▁ills	-14576
▁java	-14577
▁jerk	-14578
▁jump	-14579
▁lean	-14580
▁leis	-14581
▁logs	-14582
▁loud	-14583
▁lung	-14584
▁maha	-14585
▁mapp	-14586
▁mosa	-14587
▁navy	-14588
▁owed	-14589
▁pane	-14590
▁pear	-14591
▁plea	-14592
▁pomp	-14593
▁pots	-14594
▁puff	-14595
▁push	-14596
▁rabb	-14597
▁rags	-14598
▁sarc	-14599
AF	-14600
CB	-14601
“%	-14602
Non	-14603
qun	-14604
tan	-14605
▁78	-14606
▁CF	-14607
▁Dj	-14608
chia	-14609
quar	-14610
▁Dun	-14611
▁Jad	-14612
▁Kot	-14613
▁ONG	-14614
▁Pud	-14615
▁ate	-14616
▁cel	-14617
▁clo	-14618
▁ket	-14619
▁kin	-14620
▁pla	-14621
▁ras	-14622
ENGAL	-14623
ORTID	-14624
Throw	-14625
acred	-14626
ankar	-14627
cture	-14628
ician	-14629
igies	-14630
quate	-14631
usser	-14632
▁Cart	-14633
▁Disk	-14634
▁IPTC	-14635
▁ONGC	-14636
▁Repe	-14637
▁Sabb	-14638
▁leth	-14639
▁lure	-14640
▁monu	-14641
▁pard	-14642
▁sard	-14643
▁scor	-14644
▁semi	-14645
▁summ	-14646
▁susp	-14647
▁tags	-14648
▁trif	-14649
▁trop	-14650
▁turb	-14651
▁unde	-14652
▁unin	-14653
▁unra	-14654
▁unut	-14655
▁upro	-14656
▁vend	-14657
▁vibr	-14658
▁waxy	-14659
▁webp	-14660
15_01.	-14661
ANGING	-14662
Buffer	-14663
Crunch	-14664
DEVICE	-14665
GRATUL	-14666
PORTID	-14667
SEARCH	-14668
STRING	-14669
Should	-14670
Surely	-14671
Tafsir	-14672
VATION	-14673
VERNOR	-14674
achers	-14675
adiksh	-14676
agaram	-14677
akable	-14678
akarna	-14679
akshas	-14680
allabh	-14681
amshed	-14682
analal	-14683
andard	-14684
anjali	-14685
apriya	-14686
apurna	-14687
arator	-14688
arcity	-14689
arling	-14690
armara	-14691
asagar	-14692
avitri	-14693
cerity	-14694
charge	-14695
chhoff	-14696
ctName	-14697
ctares	-14698
dinary	-14699
CP	-14700
iah	-14701
inx	-14702
jac	-14703
lak	-14704
nah	-14705
oos	-14706
uma	-14707
▁"”	-14708
▁Ec	-14709
▁FA	-14710
▁Fe	-14711
▁JS	-14712
agre	-14713
akum	-14714
anto	-14715
bars	-14716
erge	-14717
orah	-14718
ourg	-14719
rich	-14720
sets	-14721
▁Ame	-14722
▁Bac	-14723
▁Bay	-14724
▁Fer	-14725
▁Hum	-14726
▁Inv	-14727
▁Num	-14728
▁hug	-14729
▁tum	-14730
▁vom	-14731
.2012	-14732
Torah	-14733
acent	-14734
ansom	-14735
lsson	-14736
onomy	-14737
otive	-14738
urich	-14739
▁Give	-14740
▁Half	-14741
▁Pant	-14742
▁drap	-14743
▁ejac	-14744
▁hots	-14745
▁judg	-14746
▁khed	-14747
▁pant	-14748
▁sauc	-14749
aswamy	-14750
elands	-14751
erance	-14752
ernius	-14753
eshwar	-14754
eurysm	-14755
ferior	-14756
ghizia	-14757
guards	-14758
hamana	-14759
helial	-14760
hemist	-14761
houses	-14762
icemen	-14763
ifiers	-14764
illity	-14765
imeter	-14766
imetre	-14767
indagi	-14768
inejad	-14769
ippets	-14770
ipping	-14771
ispens	-14772
itamin	-14773
ithing	-14774
ittals	-14775
larger	-14776
letion	-14777
longed	-14778
lybden	-14779
marked	-14780
master	-14781
menian	-14782
meters	-14783
minder	-14784
ndials	-14785
oberts	-14786
ocated	-14787
odhpur	-14788
ograms	-14789
olapur	-14790
onomic	-14791
option	-14792
orrect	-14793
oultry	-14794
ouring	-14795
ourses	-14796
passes	-14797
phrase	-14798
placed	-14799
zi	-14800
").	-14801
OUT	-14802
lyg	-14803
mus	-14804
ype	-14805
▁1'	-14806
▁Ni	-14807
▁Ow	-14808
Cent	-14809
Food	-14810
Free	-14811
Mark	-14812
anth	-14813
atus	-14814
free	-14815
imil	-14816
mand	-14817
thon	-14818
▁75%	-14819
▁Fav	-14820
▁Hai	-14821
▁Jin	-14822
▁Kom	-14823
▁Oak	-14824
▁Ost	-14825
▁Tod	-14826
▁Try	-14827
▁awe	-14828
▁gem	-14829
▁lap	-14830
▁lun	-14831
▁mah	-14832
▁wad	-14833
allic	-14834
avior	-14835
estly	-14836
godly	-14837
ishly	-14838
onard	-14839
orily	-14840
renic	-14841
stall	-14842
urthi	-14843
▁Cuba	-14844
▁Foll	-14845
▁Hage	-14846
▁Kail	-14847
▁Wall	-14848
▁athe	-14849
▁guys	-14850
▁peep	-14851
▁pity	-14852
▁stag	-14853
▁vine	-14854
▁wasn	-14855
Market	-14856
pledge	-14857
rakuta	-14858
ranted	-14859
rapped	-14860
ravati	-14861
rebell	-14862
recogn	-14863
ribery	-14864
rivate	-14865
rowned	-14866
solute	-14867
steady	-14868
steria	-14869
udence	-14870
ulsive	-14871
untala	-14872
urable	-14873
urally	-14874
urated	-14875
urbita	-14876
urnima	-14877
ursday	-14878
uthdir	-14879
visory	-14880
xtuple	-14881
▁07.02	-14882
▁14001	-14883
▁15.03	-14884
▁1819,	-14885
▁1898.	-14886
▁1929.	-14887
▁1957.	-14888
▁1971,	-14889
▁1972,	-14890
▁1973.	-14891
▁1999,	-14892
▁2002,	-14893
▁2004.	-14894
▁2005,	-14895
▁2005.	-14896
▁2007,	-14897
▁2008,	-14898
▁2010.	-14899
PF	-14900
no	-14901
VOC	-14902
abb	-14903
auj	-14904
may	-14905
nth	-14906
pop	-14907
zon	-14908
▁'!	-14909
▁'(	-14910
▁',	-14911
▁Ky	-14912
▁LO	-14913
From	-14914
Take	-14915
View	-14916
abon	-14917
akar	-14918
came	-14919
ders	-14920
thol	-14921
xade	-14922
zhou	-14923
▁Lod	-14924
▁VIC	-14925
▁bud	-14926
▁spo	-14927
▁suk	-14928
▁tie	-14929
▁{1}	-14930
attam	-14931
ibian	-14932
llers	-14933
olate	-14934
opter	-14935
ounty	-14936
plane	-14937
uslim	-14938
▁1969	-14939
▁237,	-14940
▁6500	-14941
▁Fast	-14942
▁Fauj	-14943
▁Issu	-14944
▁Late	-14945
▁Lion	-14946
▁Shek	-14947
▁Vich	-14948
▁afar	-14949
▁dish	-14950
▁leuc	-14951
▁meal	-14952
Muslim	-14953
ffable	-14954
riched	-14955
ronomy	-14956
▁2013,	-14957
▁2014)	-14958
▁2015,	-14959
▁2017.	-14960
▁2019)	-14961
▁2019.	-14962
▁23-11	-14963
▁Aadha	-14964
▁Abdur	-14965
▁Ahmad	-14966
▁Akhil	-14967
▁Alpha	-14968
▁Ameer	-14969
▁Annie	-14970
▁Asked	-14971
▁Asset	-14972
▁Avoid	-14973
▁Bahad	-14974
▁Barua	-14975
▁Beaut	-14976
▁Besie	-14977
▁Bhasa	-14978
▁Bhatt	-14979
▁Bidar	-14980
▁Bison	-14981
▁Blaze	-14982
▁Boyer	-14983
▁Built	-14984
▁Burma	-14985
▁Celeb	-14986
▁Cells	-14987
▁Cloud	-14988
▁Coast	-14989
▁Coimb	-14990
▁Dacus	-14991
▁Daksh	-14992
▁Dalip	-14993
▁Dalit	-14994
▁Dewan	-14995
▁Diwan	-14996
▁Dwarf	-14997
▁Early	-14998
[...]
