<pad>	0
</s>	0
<unk>	0
¦	-1.45487
▁¦	-1.46814
ᓐ	-3.23666
ᒡ	-3.57871
ᒃ	-3.69978
▁᙮	-3.81693
▁,	-3.91886
ᑕᔥ	-4.32145
ᕽ	-4.43832
ᓂ	-4.7162
ᑲᔦ	-4.91832
ᒦ	-4.93905
ᑳ	-5.01027
ᐙ	-5.0987
ᐞ	-5.13403
ᒋ	-5.26878
ᐃ	-5.30652
ᑮ	-5.38545
ᐁ	-5.41628
ᑭᔐᒪᓂᑑ	-5.46868
ᔥ	-5.50921
▁:	-5.57437
ᑳᐐ	-5.5756
ᐃᐃ	-5.63363
ᓴ	-5.66218
ᔅ	-5.67477
ᒻ	-5.71543
ᑭ	-5.77555
ᓇ	-5.8122
ᑫ	-5.82741
ᐁᑮ	-5.83967
ᐗ	-5.90574
ᒋᓴ	-5.91808
ᐋᓃ	-5.92028
ᐃᐃᒫ	-5.93495
ᑯ	-5.98594
ᐃᓂ	-6.00519
ᐐᓐ	-6.02323
ᑕ	-6.03003
ᑳᑮ	-6.06171
ᐊᐎᔭ	-6.06272
ᐅ	-6.10496
ᒫ	-6.14864
ᑲᑭᓇ	-6.16518
ᐊᐲ	-6.19804
ᐊᐊ	-6.19967
ᐅᑮ	-6.22704
ᔦ	-6.27311
ᑳᐃᔑ	-6.27342
ᐅᐅ	-6.2859
ᑖ	-6.29239
ᐃᑭ	-6.31786
ᔭ	-6.34536
ᓃ	-6.41371
ᔮ	-6.50274
ᓰ	-6.5143
▁?	-6.54969
ᑫᑰ	-6.60138
▁	-6.64966
ᐃᑯ	-6.6629
ᐁᔑ	-6.66874
ᒥ	-6.77231
▁!	-6.77956
ᓯ	-6.79686
ᒥᓐ	-6.81395
ᐸ	-6.83816
ᔥᐱ	-6.86546
ᓅ	-6.89024
ᑮᓇᐙ	-6.90502
ᑭᑲ	-6.90839
ᐅᑮᐃᓈ	-6.91607
x	-6.92787
𐋇	-6.92953
ᑦ	-6.96002
ᐊᑮ	-6.97008
ᐌ	-6.98348
ᐐ	-6.98872
ᐎᓐ	-7.00036
ᐃᔑ	-7.05436
ᓲ	-7.05748
ᐱᔥᑰ	-7.07662
ᐅᒋ	-7.09358
ᑭᒋ	-7.14243
ᑎ	-7.14672
ᐯᔑ	-7.14934
ᑐ	-7.15193
ᐁᑕ	-7.16434
ᐌᑎ	-7.1739
ᒪ	-7.1766
ᐃᐌ	-7.17777
ᐋᔕ	-7.1805
ᐅᑲ	-7.19555
ᐊ	-7.21016
ᓈ	-7.23437
ᑳᑎᐯᒋᑫ	-7.24061
ᒥᓂ	-7.24113
ᒦᓇᐙ	-7.24932
ᐃᓇ	-7.27205
ᒣ	-7.27493
ᐁᐐ	-7.28576
ᐎ	-7.28779
ᐃᓂᓂ	-7.29782
ᑲ	-7.31992
ᓈᓐ	-7.3226
ᐃᒫ	-7.32717
ᑳᑮᐃᔑ	-7.32945
ᐋ	-7.34437
ᑮᐃᑭᑐ	-7.35382
ᓀ	-7.38133
ᐱ	-7.38141
ᑭᐸ	-7.41399
ᐄ	-7.42668
ᑳᐅᒋ	-7.43684
ᑳᔑ	-7.43972
ᑫᑯ	-7.45637
ᐃᐃᐌ	-7.47267
ᑌᐺ	-7.47789
ᓂᑮ	-7.47928
ᐊᐌ	-7.4817
ᐯᔑᑾ	-7.49628
ᑣ	-7.51716
ᑯᑕ	-7.51986
ᓂᓂ	-7.51989
ᒀ	-7.53186
ᑰ	-7.5355
ᐅᔕ	-7.54089
ᔑ	-7.54705
ᐁᑳ	-7.55372
ᑭᑮ	-7.56917
ᓄ	-7.57229
ᐃᓂᓂᐗ	-7.58803
ᔑᑾ	-7.62411
ᓈᐙ	-7.63362
ᐋᐱᒋ	-7.63816
ᑾ	-7.6428
ᓂᓂᒻ	-7.64438
ᓂᑲ	-7.65978
ᑴ	-7.67153
ᐅᐌ	-7.67376
ᐱᑯ	-7.69588
ᒎᐗ	-7.72928
ᒫᐗ	-7.73598
ᐆᑌᓈ	-7.74491
ᒥᓯᐌ	-7.75783
ᑌ	-7.76448
ᐐᑫ	-7.77437
ᐅᑮᐃᑰ	-7.78685
ᐲ	-7.79289
ᐋᓂ	-7.79616
ᒣᒀ	-7.80995
ᐤ	-7.83463
ᐊᐌᓀ	-7.83641
ᐹ	-7.84494
ᐌᑯᓀ	-7.84708
ᐊᐊᐌ	-7.86782
ᑾᔭ	-7.88191
ᑕᑲ	-7.8825
ᑳᑮᐅᒋ	-7.88608
ᐅᐅᐌ	-7.90127
ᓇᐗ	-7.91153
ᑮᐃᔑ	-7.92786
ᐅᑌᐺᑕᒨ	-7.93422
ᑫᐅᒋ	-7.94271
ᒨᔕ	-7.95277
ᑫᔮᐱ	-7.95733
ᐅᑯ	-7.96403
ᐊᔮ	-7.97649
ᐗᐊ	-7.97656
ᐅᑭᑭᓄᐊᒪᐙᑲᓇ	-7.98193
ᐎᓂ	-7.99514
ᐌᒋ	-7.99523
ᒋᐅᒋ	-7.99612
ᑫᔑ	-7.99754
ᐅᑯᓯᓴ	-8.00019
ᓃᐱᐗ	-8.00019
ᑮᐊᓂ	-8.03095
ᐃᑭᑐ	-8.03521
ᓯᒀ	-8.03722
ᐯᒫᑎᓯᓂ	-8.04542
ᐃᓇᔥᑫ	-8.05054
ᓱ	-8.06732
ᐊᐗᔑᒣ	-8.07598
ᒞ	-8.07598
ᓂᑕ	-8.07947
ᐐᓇᐙ	-8.0813
ᒪᓐ	-8.08243
ᐃᓀᑖᑯᓯ	-8.08871
ᓭ	-8.09093
ᐌᓂᐗ	-8.11296
ᐲᑕᕒ	-8.11893
ᒪᔮ	-8.12287
ᑉ	-8.13545
ᐲᓂ	-8.13664
ᐁᑮᐃᔑ	-8.1394
ᒦᐗ	-8.13966
ᐅᓄ	-8.14469
ᓯᐌ	-8.15708
ᑳᐃᓈ	-8.16734
ᑭᒋᑮᔑᑯ	-8.16992
ᔐ	-8.17939
ᒪᒋ	-8.17988
ᐯᒫᑎᓯᐙ	-8.18724
ᑭᑖ	-8.18748
ᒫᒑ	-8.19863
ᑮᐃᑭᑐᐗ	-8.2002
ᓇᑰ	-8.21182
ᑲᑴ	-8.21222
ᑑ	-8.21569
ᑎᓄ	-8.24398
ᐸᑳ	-8.25502
ᑮᔑ	-8.25852
ᐊᔮᓂ	-8.25901
ᐅᓇᔓᐌᐎ	-8.26678
ᐃᔖ	-8.27063
ᐁᐊᓂ	-8.27549
ᑳᑕᔑ	-8.27622
ᑮᐅᒋ	-8.27656
ᓂᑖ	-8.28524
ᓯᓂ	-8.29108
ᐃᔑᒋᑫ	-8.3054
ᐃᑴ	-8.30764
ᒉᕒᐆᓴᓬᐊ	-8.31167
ᑆᓬ	-8.31761
ᓃᔑ	-8.31795
ᒧ	-8.32742
ᒥᓄ	-8.33171
ᑲᓅᓈ	-8.3361
ᑫᑰᓂᓂ	-8.33663
ᐅᑕᒑᑾ	-8.34545
ᑭᒋᐅᑭᒫ	-8.35105
ᐅᑖ	-8.35338
ᒨ	-8.36497
ᓯᓅ	-8.3707
ᐁᐃᔑ	-8.3716
ᓰᐗ	-8.37332
ᐯ	-8.38254
ᐃᓇᑫ	-8.40035
ᔔᓂᔮ	-8.40626
ᐋᑎ	-8.409
ᐙᐸ	-8.41802
ᐃᑴᐗ	-8.41973
ᐃᓂᐌᓂᐗ	-8.42009
ᐁᑮᐃᓈ	-8.42118
ᑯᐸᓀ	-8.42514
ᒧᐙ	-8.43141
ᓯᓂᓂ	-8.4373
ᑲᓇ	-8.44669
ᐱᒫᑎᓯᐎ	-8.45157
ᐊᓂ	-8.45358
ᐃᓴ	-8.45833
ᐌᐌᓂ	-8.48567
ᑯᒫ	-8.4858
ᒌ	-8.4937
ᐊᒦ	-8.49507
ᐃᓈ	-8.49742
ᓀᒀ	-8.50287
ᑳᐱ	-8.50812
ᐊᑭ	-8.51455
ᑮᔑᑲᓂᓂ	-8.52484
ᒋᐃᔑ	-8.52487
ᓈᓂ	-8.52572
▁;	-8.54231
ᑮᐌ	-8.54235
ᐹᓂᒫ	-8.54235
ᐋᓇ	-8.54241
ᑭᒋᐊᓇᒥᐁᐎᑭᒫ	-8.54338
ᐐᒌᐙ	-8.55161
ᐃᐃᐌᓂ	-8.55776
ᑮᐊᔮ	-8.55904
ᐱᒫᑎᓯ	-8.57601
ᒨᓯ	-8.57671
ᒪᒋᐊᒑᑾ	-8.5852
ᓯᐙ	-8.58811
ᑕᔑ	-8.59219
ᑕᑯ	-8.60292
ᐎᓇ	-8.60499
ᐅᑮᐃᔑ	-8.61198
ᑳᑮᐱ	-8.61338
ᓃᓇ	-8.61358
ᒥᓍᒋᒧᐎ	-8.61383
ᓯᐗ	-8.61579
ᓈᑯᓯ	-8.65341
ᓂᐳ	-8.65886
ᐃᔑᓭ	-8.66288
ᐃᓈᑯᓂᑫᐎ	-8.67046
ᐯᐸᑳ	-8.67679
ᐁᒐᓬᐊ	-8.67697
ᑕᑯᔑ	-8.68
ᔖᑰ	-8.68661
ᐊᓇᒥᐋ	-8.69344
ᓯᓄ	-8.69545
ᑰᔦ	-8.69631
ᓂᑖᐎᑭ	-8.7012
ᒦᓴ	-8.70506
ᑳᐊᔮ	-8.71046
ᐐᒌᐎ	-8.7111
ᑲᔥᑭᑑ	-8.71297
ᐊᔮᐙ	-8.72252
ᐲᑎᑫ	-8.72274
ᒪᑲ	-8.72489
ᐎᓂᐙ	-8.73637
ᑯᐙ	-8.73659
ᔂ	-8.73745
ᑳᐊᔮᐙ	-8.73854
ᑳᒎᐎᐎᓯ	-8.74322
ᐐᒋ	-8.74457
ᑮᓇᐎ	-8.74708
ᐁᑮᐊᓂ	-8.75566
ᒦᐃ	-8.75752
ᐐᓯᓂ	-8.76239
ᑭᑭᓄᐊᒪᐙᑲᓇ	-8.765
ᓂᑌᑌ	-8.76651
ᒥᒋ	-8.77256
ᑭᒋᐊᓇᒥᐁᐎᑲᒥᑯ	-8.77324
ᔭᐄ	-8.7751
ᑎᐸ	-8.78118
ᑫᓂ	-8.78472
ᒋᑳᑌ	-8.78856
ᒦᒋ	-8.78901
ᐆ	-8.7956
ᑌᐯᒋᑫ	-8.79842
ᒋᑮ	-8.79881
ᑮᔑᑲ	-8.79999
ᔕ	-8.80205
ᑮᐱ	-8.8042
ᑕᒪᐙ	-8.80845
ᐅᒫ	-8.81132
ᒋᑆ	-8.83232
ᐋᓇᐐ	-8.83378
ᒪᔑ	-8.83412
ᑳᐃᑭᑐ	-8.8368
ᐃᔥᒀ	-8.84042
ᑌᐱ	-8.84205
ᓂᓯ	-8.84244
ᐅᑕᒑᑯᓂ	-8.84467
ᐊᔮᔦ	-8.84551
ᑫᓃ	-8.85233
ᐸᑭᑎᓈ	-8.85381
ᐐᑕᒪᐎ	-8.85441
ᑭᑭᓄᐊᒫᑫ	-8.8567
ᐋᐸᒋᑑ	-8.85883
ᐁᐸᕒᐊᐋ	-8.86431
ᔥᑲ	-8.87243
ᐯᕒᐊᓰ	-8.87706
ᑫᐃᔑ	-8.87916
ᒋᑫ	-8.882
ᑮᑭᒋ	-8.88219
ᑫᒋᓈ	-8.89126
ᑭᑑ	-8.89497
ᐁᐱ	-8.89528
ᐃᓀᑖᑾ	-8.89645
ᐙᐸᒫ	-8.89869
ᓇᑫ	-8.90267
ᒪᒋᑑᑕᒧᐎ	-8.90324
ᒫᒌ	-8.90385
ᓂᑯ	-8.91128
ᐁᐃᑭᑐ	-8.91219
ᐁᑮᐅᒋ	-8.92771
ᑲᒥ	-8.92851
ᐱᓵ	-8.93131
ᑭᑎᔑ	-8.93369
ᒋᐱ	-8.93493
ᒥᓂᑴ	-8.938
ᐃᔑᐲᐃᑳᑌ	-8.93845
ᑮᐅᑌᑌ	-8.93995
ᑳᑭᒋ	-8.94022
ᐅᔥᑭ	-8.94025
ᐅᓵ	-8.94732
ᑭᒋᒪᓯᓇᐃᑲ	-8.95412
ᔒ	-8.95839
ᑳᓂ	-8.95862
ᑑᑕ	-8.95879
ᑳᐊᔮᓂ	-8.96554
ᑯᓯ	-8.96561
ᒥᓉᑕ	-8.97033
ᒪᐎ	-8.98908
ᑳᐃᔑᒋᑫ	-8.98966
ᑲᓂᐎ	-8.99525
ᐅᑯᓯᓯ	-8.99896
ᐁᒐᓬ	-9.00076
ᓵᑭ	-9.00123
ᑳᐃᔥᒀ	-9.01195
ᐁᐅᒋ	-9.0134
ᔑᒫᑲᓂᔕ	-9.01482
ᓵᐃᒪ	-9.01584
ᑕᐌ	-9.01741
ᐊᑕ	-9.02232
ᐄᓴ	-9.02258
ᒥᑰ	-9.02583
ᐃᑯᐙ	-9.027
ᐱᒫᑎᓯᐙ	-9.02794
ᓈᐱ	-9.02854
ᒥᑯ	-9.03021
ᐗᓂᓂ	-9.03096
ᑭᑭ	-9.03567
ᐙᓭᔮ	-9.04305
ᐅᑭᒋ	-9.04648
ᒥᑖ	-9.04728
ᐁᑮᐱ	-9.04734
ᐯᔓ	-9.05587
ᐊᐱᓅᒌᔕ	-9.05597
ᐯᔑᑯ	-9.05855
ᐸᑮ	-9.06103
ᑌᐺᐎ	-9.06151
ᐃᔥᑯᑌ	-9.07017
ᐲᐎ	-9.07268
ᒦᓈ	-9.07345
ᐃᔑᓭᓂ	-9.07431
ᐊᐱ	-9.08366
ᐹᐃᓬᐊ	-9.0843
ᐁᑭᒋ	-9.08514
ᐋᐱ	-9.08815
ᐅᒫᒫ	-9.08931
ᑖᑯᓯ	-9.09134
ᓃᑳᓂ	-9.09144
ᒎᑕ	-9.09954
ᑭᑭᑫᑖ	-9.10225
ᐅᑑ	-9.10454
ᒑ	-9.10486
ᐅᑭᑭᓄᐊᒫᑫ	-9.11026
ᐯᑭ	-9.11109
ᐐᑕᒪᐎᓇᑰ	-9.11164
ᓅᒋᑯ	-9.11361
ᐁᕒᐊ	-9.11661
ᐊᔮᐗ	-9.12251
ᑭᑌ	-9.1241
ᐅᑎ	-9.12641
ᓍ	-9.12839
ᐐᑕᒪᐙ	-9.13188
ᐁᑕᓱ	-9.13277
ᐅᑮᐅᒋ	-9.13436
ᐃᓀᑕ	-9.13496
▁¦3	-9.13563
ᐅᑌᑌ	-9.13804
ᑲᑴᒋᒫ	-9.13829
ᐃᔑᓈᑾ	-9.14594
ᑕᒧᐙ	-9.15292
ᐁᐊᔮ	-9.15424
ᐃᑰ	-9.15693
ᐊᓯᓃ	-9.1585
ᐁᑭᑐ	-9.15906
ᑳᐃᑯ	-9.15951
ᐆᑌᓇ	-9.16011
ᐅᐙᑳᐃᑲᓂ	-9.1628
ᒫᐗᒋᐃᑎ	-9.16851
ᕒ	-9.17583
ᓇᑭ	-9.17947
▁¦2	-9.1804
ᐁᑕᔑ	-9.18478
ᐙᐱ	-9.18525
ᐅᑕ	-9.18704
ᒥᐙ	-9.18984
ᐌᔫᓯᒥ	-9.19046
ᐃᑎᓱ	-9.19165
ᐙᐸᒥ	-9.19284
ᑳᐅᒌ	-9.19352
ᐲᔖ	-9.19543
ᐗᑭ	-9.19576
ᒪᒋᐊᔭᐋ	-9.2032
ᐊᓄᑮ	-9.20541
ᐁᓈᓴᒦ	-9.20659
ᐁᔑᓈᑾ	-9.20808
ᑫᑮ	-9.20864
ᐁᔑᒋᑫ	-9.20914
ᐴ	-9.21102
ᔖ	-9.21187
ᑌᐺᑕ	-9.21207
ᑳᑭᑭᓄᐊᒫᑫ	-9.21548
ᑳᓂᑖ	-9.21757
ᐐᒌᐎᑯ	-9.2189
ᑭᑫᓂᒫ	-9.22124
ᒨᔥᑭᓀ	-9.22165
ᒥᓴᐙ	-9.22322
ᓰᒥ	-9.22761
ᓃᐸᐎ	-9.23252
ᑭᑕ	-9.23379
ᑭᑎᑳᓀ	-9.23385
ᒦᓂᑰ	-9.23495
ᐋᐙ	-9.23725
ᑮᐃᔖ	-9.23729
ᐃᔅᕒᐃᔭᓬᐊ	-9.23989
ᐅᑖᐱᓇ	-9.24251
ᐁᐲᒋ	-9.24251
ᑭᐐ	-9.25036
ᐅᑕᓄᑮᐋᑲᓇ	-9.25659
ᐃᔑᓂᔕᐙᑲᓇ	-9.25737
ᑮᑭᑐ	-9.25968
ᑭᐐᑕᒪᐎ	-9.26131
ᐐᒋᐃ	-9.26613
ᑑᑕᐎ	-9.26883
ᑕᒫ	-9.26985
ᓵ	-9.26992
ᒫᐙ	-9.2701
ᐅᓄᐌᓂᐗ	-9.27478
ᒋᑲᓂᐎ	-9.28508
ᐁᑮᐃᑭᑐ	-9.28609
ᐊᓇᒥᐁ	-9.28794
ᐃᔥᐱ	-9.29027
ᒣᐎᔕ	-9.29138
ᐃᔑᓂᔕᐅ	-9.29332
ᐸᑴᔑᑲᓇ	-9.29364
ᐐᐸ	-9.29514
ᑫᑳ	-9.30076
ᑳᐊᓂ	-9.30582
ᐙᐸᑕᒧᐙ	-9.30819
ᓅᑌᓭ	-9.3086
ᐃᔑᒋᑫᐙ	-9.31043
ᒋᑳᑌᓂ	-9.31104
ᑆᓬᐊ	-9.31124
ᓈᑯᑑ	-9.31362
ᑕᓱ	-9.3165
ᒪᔥᑲᐎᓰ	-9.31833
ᐙᑳᐃᑲᓂ	-9.31859
ᐱᓵᓂ	-9.31888
ᐊᐌᓀᓇ	-9.32252
ᒪᔥᑲᐎ	-9.32326
ᓅᑕᒧᐙ	-9.32422
ᐸᐹ	-9.32695
ᐱᔑᔑ	-9.32744
ᑲᒀᑕᑭᑑ	-9.32871
ᑎᓱ	-9.32897
ᐅᑮᐱ	-9.32935
ᐅᑯᓯᓯᒫ	-9.33041
ᓈᓂᐗ	-9.33334
ᐱᒧᓭ	-9.33847
ᐙᐸᒫᐙ	-9.33984
ᐃᔑᐌᐸ	-9.3409
ᓇᑴᑕ	-9.34121
ᐅᑖᐱᓈ	-9.34407
ᑎᐱᓇᐌ	-9.34593
ᓈᑯ	-9.34809
ᓃᔣᓱ	-9.34848
ᑫᑌ	-9.3548
ᑳᑎᐯᑕ	-9.36039
ᓂᓂᑭ	-9.36208
ᑳᓬᐊᓬᐄ	-9.36355
ᓂᑎᔑ	-9.36359
ᐋᔑᑌᔮᑎ	-9.3648
ᒎᓴ	-9.36623
ᐅᒌ	-9.36834
ᑳᓵᑭᐃ	-9.36844
ᒦᓂᑯ	-9.36855
ᐹᑏᓄ	-9.37036
ᓂᓯᓐ	-9.37337
ᒫᒪᐎ	-9.37433
ᐊᑲ	-9.37643
ᓂᐳᐎᓂ	-9.37858
ᐅᑮᐃᓈᐙ	-9.37899
ᑭᒋᑲ	-9.38077
ᔔᒥᓈᐳ	-9.38403
ᐅᒋᒋᓭ	-9.39112
ᐅᑎᑭᑐᐎ	-9.39194
ᐅᐅᐌᓂ	-9.39517
ᓂᐳᐎ	-9.39625
ᑖᑾ	-9.39629
ᐊᐙ	-9.39846
ᐅᓇ	-9.40164
ᒦᑭᐌ	-9.40614
ᐁᑮᐃᑯ	-9.41433
ᐊᑕᐌᑕ	-9.41794
ᑖᓈᐙ	-9.41936
ᓃᐎ	-9.42045
ᒧᐗ	-9.42183
ᓯᐙᐙ	-9.42808
ᐁᔑᓈᑯᓯ	-9.42824
ᓇᑴᑕᐙ	-9.42835
ᑕᐅᒋ	-9.42953
ᑭᑎ	-9.43097
ᑲᑴᒋᒥ	-9.43242
ᑕᓯ	-9.43509
ᑲᔥᑭᑑᓰ	-9.43592
ᐁᔮᓂ	-9.43679
ᒫᒪ	-9.43739
ᑭᑫᓂᒥ	-9.44069
ᐃᔑᐊᔮ	-9.44291
ᐁᑮᐃᔖ	-9.44323
ᓇᑲᓈ	-9.44542
ᑭᓉ	-9.44667
ᑎᐱ	-9.44718
ᓂᐱ	-9.4474
ᔕᐌᑖᑯᓯ	-9.44851
ᑳᐊᐲᒋ	-9.45014
ᒋᐃᔖ	-9.45037
ᑕᒪᐎ	-9.45055
ᓂᑭ	-9.45357
ᔫ	-9.46486
ᒣᕒᐃ	-9.46488
ᒬ	-9.46488
ᒫᑭᔖ	-9.46489
ᔑᒫᑲᓂᔒᐎᑭᒫ	-9.4649
ᓇᐎ	-9.46492
ᑰᔭ	-9.46515
▁¦7	-9.46842
ᒥᓇ	-9.46854
ᐊᐎ	-9.47027
ᕒᐊ	-9.47097
ᔑᓈ	-9.4721
ᐅᐐᓱᐎᓂ	-9.4769
ᑭᓯ	-9.47752
ᐃᔑᒋᑫᔦ	-9.47904
ᒫᒥᑲᐎ	-9.47908
ᐁᔮ	-9.4811
ᐊᓄᑮᐋᑲ	-9.48347
ᐎᓂᓂ	-9.48378
ᐃᓀ	-9.4838
ᐅᑎᓯ	-9.48888
ᐁᑮᐊᐎ	-9.48921
ᑭᑭᔥᑳᑯ	-9.49057
ᐊᒀ	-9.49217
ᑾᔭᑯ	-9.49222
ᓭᓂ	-9.49335
ᓈᑾᓂᓂ	-9.4953
ᑭᐱ	-9.49764
ᔥᑳᑯ	-9.50267
ᐊᓇᒥᐁᐎᑲᒥᑯ	-9.50367
ᐌᒌ	-9.50382
ᐅᑎᓯᑯ	-9.50765
ᐁᔑᓂᑳᓱ	-9.50791
ᑲᑴᑗ	-9.50797
ᓭᑕ	-9.51165
ᓈᐸ	-9.51872
ᐅᔑ	-9.52032
ᓈᑾ	-9.52082
ᐅᑎᑭᑐᐎᓂ	-9.52105
ᑮᐊᔮᐗ	-9.52186
ᑫᒫ	-9.52427
ᓵᑲᐊ	-9.52783
ᐅᔑᑑ	-9.52874
ᐅᑎᔑ	-9.52905
ᐗᔦᔑ	-9.52963
ᐱᒫᑎᓰᒪ	-9.52967
ᐱᒌᓇ	-9.53013
ᐅᓵᐎ	-9.53135
ᑕᒣ	-9.53305
ᒫᒪᑳᒋᒋᑫᐎ	-9.53352
ᑳᑑᑕ	-9.53497
ᐅᑭᒫ	-9.53585
ᓂᐐ	-9.53616
ᐱᐴ	-9.53646
ᒣᑴ	-9.53751
ᓵᑭᐃ	-9.53847
ᑎᐯᑖᑯᓯ	-9.54139
ᑳᑮᐃᑭᑐ	-9.54165
ᑯᓰ	-9.54186
ᐃᓂᓃ	-9.54725
ᐸᓯᑸ	-9.54823
ᐊᒋ	-9.54829
ᑎᐹᒋᒧ	-9.54873
ᐅᑖᐱᓂ	-9.55261
ᒎᐎ	-9.55486
ᐅᑮᓇᑴᑕᐙ	-9.55515
ᓯᔅ	-9.55898
ᒪᔥᑲᐎᓰᐎ	-9.55907
ᐲᑑ	-9.55915
ᐱᓯᑕ	-9.56107
ᐱᒥ	-9.56266
ᐱᒫᒋᐃᑰᐎ	-9.56521
ᒥᓀ	-9.56683
ᐴᓯ	-9.56813
ᓵᑭᐋ	-9.57719
ᒋᐱᒫᒋᐃᐌ	-9.578
ᐸᑭᑎᓂ	-9.58236
ᑭᑑᒋ	-9.58526
ᑭᑫᑕᒧ	-9.58559
ᓂᑎ	-9.58641
ᐸᑴᔑᑲ	-9.58759
ᐅᑎᐯᒋᑫᐎ	-9.59096
ᔮᐹ	-9.59281
ᑎᐯᓂᒫ	-9.59317
ᒋᑕᔑ	-9.59383
ᒦᐃᐌ	-9.59842
ᑖᑯ	-9.59953
ᒣᔥᑾ	-9.59993
ᑳᓃᑳᓂᓯ	-9.60022
ᐊᐸᓀ	-9.60042
ᑎᐯᒋᑫ	-9.60211
ᑯᓂ	-9.6045
ᑳᑎᐯᓂᒥᓇ	-9.60516
ᑳᑌ	-9.60574
ᐙᑳᐃᑲ	-9.6063
ᒪᑲᓂᓂ	-9.60682
ᒋᐊᓂ	-9.60791
ᐊᔮᔭ	-9.61297
ᑮᐌᐱᒫᑎᓯ	-9.61608
ᐃᑭᑑᒪᑲ	-9.61708
ᐗᐐᑫ	-9.61726
ᓅᑕ	-9.61815
ᓉ	-9.61845
ᒋᑑ	-9.62042
ᐊᑖᐌ	-9.62438
ᑕᐙ	-9.62493
ᐁᑎᓄᐎ	-9.62541
ᑎᐹᒋᒧᐎ	-9.62631
ᑭᑭᓄᐊᒪᐙ	-9.62638
ᒦᓂᑰᐎᓯ	-9.62759
ᑮᒨᒋ	-9.62795
ᓃᒋ	-9.62876
ᐴᓂ	-9.63076
ᑳᐹᑏᓄ	-9.63295
ᓬ	-9.6373
ᓂᓵᐙ	-9.63779
ᐊᓯᓐ	-9.63924
ᐅᐱᒫᑎᓯᐎ	-9.63994
ᓯᐎᓐ	-9.6434
ᐌᐱᓈ	-9.64532
ᔖᑯᐌ	-9.64623
ᑲᓇᐌᑕ	-9.64711
ᑭᑫᑕᒣ	-9.64973
ᐁᐊ	-9.65368
ᑌᐺᔦᑕ	-9.6537
ᐌᓅᑎᓯ	-9.65606
ᐐᑎᑫ	-9.65947
ᐃᓂᓇᑰ	-9.66301
ᒌᒫᓂ	-9.66343
ᓈᑫ	-9.66493
ᐐᒌᐙᐙ	-9.66528
ᓃᑳ	-9.66765
ᐃᔥᒀᑌ	-9.66899
ᐙᐸᑕᒣ	-9.6706
ᔪ	-9.67164
ᐊᓉ	-9.67213
ᑳᐸᐎ	-9.67514
ᐗᒀ	-9.67597
ᐊᔮᒀᒥᓯ	-9.67605
ᐋᐸ	-9.67853
ᐲᑎ	-9.67895
ᐐᐗ	-9.67917
ᐊᑾ	-9.68007
ᐊᔮᔮ	-9.6807
ᓵᑭᐃᑎ	-9.68077
ᑭᑎᓂ	-9.68178
ᑎᐯᓂᒥᑯᐙ	-9.68212
ᐃᑭᑐᔭ	-9.6852
ᐐᒋᐋ	-9.68641
ᐐᑕᒫᑫ	-9.68793
ᒥᔅ	-9.68821
ᓂᓯᑐᑕ	-9.69018
ᐃᔑᐌᐱᓯ	-9.6937
ᒥᑲ	-9.69529
ᑭᑮᐃᔑ	-9.69587
ᐎᑲᒥᑯ	-9.69967
ᐌᒀ	-9.70124
ᑭᔒᐌ	-9.70205
ᑎᐸᐊᒪᐙ	-9.70302
ᑕᐎ	-9.70475
ᑑᑕᒧᐙ	-9.70835
ᐁᔑᓈᑾᓂᓂ	-9.70861
ᑌᐺᔦᑕᒧᐎ	-9.70942
ᐁᓂ	-9.71008
ᐱᓯ	-9.71067
ᑮᐃᔥᒀ	-9.71679
ᐃᑭᑐᔮ	-9.7173
ᑌᐱᓇ	-9.71869
ᒥᓄᒋᑫ	-9.71998
ᓈᓯᑲ	-9.72077
ᑲᓅᓂ	-9.72145
ᐊᑐᒥ	-9.72208
ᓂᑑᒋ	-9.72257
ᐋᑯᓯ	-9.72416
ᐊᔓᑕᒫᑫ	-9.7254
ᐙᓴ	-9.72604
ᐅᔑᐲᐃᑳᑌ	-9.72724
ᐅᓃᑳᓂᓰ	-9.72828
ᒎᑏᔭ	-9.72829
ᐗᓂᔥᑳ	-9.7283
ᐸᑭᔑ	-9.72952
ᐱᒫᑎᓯᐎᓂ	-9.73036
ᒥᑲᐙ	-9.73204
ᓂᔑ	-9.7331
ᑮᒫᒌ	-9.73425
ᑮᔑᑯ	-9.73435
ᐲᒋ	-9.73629
ᐃᐌᓂ	-9.73744
ᐃᓀᑖᑯᓯᐎ	-9.73927
ᒥᓈ	-9.74141
ᒫᒋ	-9.74525
ᐅᒌᒪᑲ	-9.74675
ᓂᑳᑌ	-9.74997
ᒋᑲᑴ	-9.75035
ᓂᑯᓯ	-9.75158
ᒥᑯᔥᑳᑌᑕ	-9.75164
ᒫᓇᒑᓂᔐ	-9.75242
ᑳᑮᐃᔑᒋᑫ	-9.75359
ᑌᓂ	-9.75395
ᑎᐹᒋᒥ	-9.75486
ᐅᑭᔐᐙᑎᓯᐎ	-9.75562
ᐅᑎᐹᒋᒧᐎᓂᓃᒪ	-9.75607
ᐱᓬᐊ	-9.75618
ᐋᒋᑯ	-9.75621
ᐱᓇᒫ	-9.75727
ᐅᑌᐺᑕᒧᐎᓂ	-9.75739
ᑑᑕᐙ	-9.75816
ᐁᐃᓈ	-9.75818
ᒋᑲ	-9.75874
ᓅᑌ	-9.76099
ᐅᑕᓇᒥᐋ	-9.76502
ᓂᑎᓱ	-9.76528
ᐅᑮᐙᐸᒫ	-9.76593
ᐊᔮᒪᑲ	-9.76651
ᕒᐄ	-9.76653
ᒫᔑ	-9.76699
ᑲᑴᒋᒫᐙ	-9.76772
ᒥᑎ	-9.76865
ᒋᐅ	-9.77197
ᐃᔑᓈᑯᓯ	-9.7731
ᐅᒋᒋᓭᓂ	-9.77582
ᓰᓈᐙ	-9.7764
ᑳᐅᓂᔑᔑ	-9.78097
ᔨ	-9.78166
ᓭᑭᓯ	-9.78321
ᑭᑫᑖ	-9.78325
ᒋᐋ	-9.78416
ᒐᔭᐄ	-9.78467
ᐱᒫᒋᐋ	-9.78482
ᐊᐴᔥᑫ	-9.78493
ᐅᓂᒌ	-9.78627
ᑌᐺᑕᐙ	-9.78671
ᐐᓯᓂᐙ	-9.78703
ᓂᑭᑫᑖ	-9.7873
ᑲᐎ	-9.78734
ᐃᔑᓂᔕᐙ	-9.79048
ᑖᓈ	-9.79109
ᑎᐯᓂᒥᑯ	-9.79136
ᐅᑎᓈ	-9.79331
ᒋᔑ	-9.79534
ᒋᐃᔑᒋᑫ	-9.79545
ᔥᑲᐙ	-9.79871
ᔔᓂᔮᓴ	-9.79872
ᑳᓅᑕ	-9.80082
ᐅᓂᔑᔑ	-9.80352
ᒪᒋᑑᑕ	-9.80424
ᑫᒋ	-9.80509
ᑎᐹᑯᓂ	-9.80639
ᑲᑭᑐ	-9.81005
ᐌᐱᓇ	-9.81031
ᐴᔔ	-9.81326
ᐌᑕ	-9.81337
ᑕᒧ	-9.81337
ᐱᑾᑕᑲᒥ	-9.81405
ᐹᕒᓇᐸ	-9.81405
ᐅᔥᑭᓃᑭᑴ	-9.81424
ᐊᓂᔖ	-9.81446
ᓂᔑᐗᓈᑕ	-9.81446
ᑲᔥᑭᐁᐎᓯᐎ	-9.81688
ᐌᓂ	-9.81691
ᑮᐃᓀᑕ	-9.81766
ᐃᔖᐙ	-9.81806
ᐃᑭᑐᐎᓐ	-9.82097
ᐳ	-9.82109
ᐅᑕᔮ	-9.82234
ᒥᑣ	-9.82242
ᑕᒫᓱ	-9.82245
ᐃᑣ	-9.8275
ᒌᒫ	-9.82774
ᑑᐙ	-9.82803
ᐊᐸ	-9.82811
ᐊᓇᒥᐁᐎᑭᒫ	-9.8289
ᓬᐃ	-9.83156
ᐙᐸᒪ	-9.83172
ᐐᔭᐎᒫ	-9.83276
ᑑᑖ	-9.83435
ᑭᑫᑕᒧᐙ	-9.83498
ᓃᔣ	-9.83516
ᑭᑎᑫ	-9.837
ᓂᑮᐃ	-9.83723
ᐊᔨ	-9.83984
ᓂᑮᐃᔑ	-9.84045
ᐃᓀᓂᒫ	-9.84084
ᒉ	-9.84137
ᔓ	-9.84162
ᓈᓈ	-9.84441
ᐊᒑᑾ	-9.84452
ᐸᑭᑎᓂᑫ	-9.84665
ᐱᒫᑎᓯᓂ	-9.84672
ᒨᔥᑭᓀᔥᑳᑯ	-9.84688
ᐊᓄᑮᐎ	-9.85043
ᐊᔕ	-9.8546
ᐃᔑᐱᒫᑎᓯ	-9.85519
ᑳᐅᔫᓯᒥ	-9.85564
ᑯᐸ	-9.85665
ᐃᓀᑕᒧᐙ	-9.85748
ᐃᓂᓃᐎ	-9.85979
ᐅᑖᐎᓂ	-9.86099
ᓵᑭᒋ	-9.86413
ᓂᓱ	-9.86429
ᓂᑲᒧ	-9.86657
ᑎᓄᐎ	-9.86671
ᓈᓂᐗᓂᓂ	-9.86728
ᐊᐲᒋ	-9.86792
ᐁᐙᐸᒫ	-9.87007
ᑲᓇᐙᐸᒫ	-9.87379
ᐊᐯᓂᒧ	-9.87558
ᑭᓇᑕᐌᓂᒥ	-9.8756
ᑾᔭᒀᑎᓯ	-9.87581
ᒦᑲᓈ	-9.87589
ᐐᒋᑭᐌᔭ	-9.87646
ᐸᑭᑎᓇ	-9.87718
ᓂᑮᐙᐸᒫ	-9.87722
ᓂᔑᐌ	-9.87758
ᑮᐹᑏᓄᐗ	-9.87776
ᓀᐱᒋ	-9.87784
ᑎᒪ	-9.87874
ᐊᓄᑮᐋᑲᓇ	-9.88012
ᐙᐸᑖ	-9.88101
ᓯᐎ	-9.88314
ᑎᔦ	-9.88403
ᑫᑮᓇᐎ	-9.88519
ᐐᔭᐎ	-9.88571
ᐋᐱᑕ	-9.88625
ᐁᑮᐃᑭᑐᐙ	-9.88734
ᑎᐙ	-9.88924
ᐃᔑᐎᓂ	-9.89082
ᑳᑮᔑᑲ	-9.891
ᑲᑴᒋᒥᑯ	-9.8914
ᑰᔮ	-9.89526
ᑫᑕ	-9.89733
ᒥᓄᐊᔮ	-9.90136
ᑫᐃᔑᒋᑫ	-9.9041
ᒦᓂᓀ	-9.90518
ᒥᔅᑸ	-9.90562
ᔥᑲᐎ	-9.90618
ᑭᒨᑎ	-9.90789
ᑕᐱ	-9.90789
ᐅᑌᐃ	-9.90834
ᐅᑭᒋᓂᑭ	-9.90911
ᑳᐃᒋᑳᑌ	-9.90937
ᒋᐅᑌᐺᑕᒨ	-9.90959
ᒧᔐ	-9.91305
ᑕᑯᔑᓅ	-9.91371
ᑭᑭᓄᐊᒪᐎ	-9.9145
ᒋᐐᒋ	-9.9156
ᐐᒋᐃᑯ	-9.91568
ᐱᓱ	-9.91751
ᑕᑶᔑ	-9.91908
ᑮᑎᓄᐎ	-9.92012
ᐊᒑ	-9.92051
ᒪᓯᓇᐃᑲ	-9.92448
ᑕᓄ	-9.92681
ᓂᐳᓂ	-9.92738
ᑌᐺᒪᑲ	-9.92944
ᐅᑎᓀᑕᒧᐎ	-9.93201
ᒥᑖᔑᓃᔑ	-9.93449
ᐱᓈ	-9.93591
ᓬᐊ	-9.93672
ᓂᐹ	-9.93777
ᓂᓇᑰ	-9.94039
,000	-9.94119
ᐊᑕᐌᓂᒥ	-9.9412
ᔕᐌᓂᒫ	-9.94126
ᓵᒥᓈ	-9.94135
ᑎᐱᑲ	-9.94158
ᐆᑌᓇᐌ	-9.94324
ᑲᒀᑕᑭᐃ	-9.94461
ᑳᐃᔑᓂᑳᓱ	-9.94467
ᐊᒧ	-9.94874
ᐃᓀᓂᒥ	-9.94885
ᓂᑕᔮ	-9.94941
ᑭᑲᐅᒋ	-9.9529
ᔕᐌᓂᒥ	-9.95376
ᑎᐸᐃᑲ	-9.95396
ᐸᑴᔑᑲᓂ	-9.95436
ᐱᓀ	-9.9545
ᑲᓅᓂᑰ	-9.95468
ᑲᓅᑕᒪᐙ	-9.95551
4	-9.95555
ᑳᐐᐃᔑ	-9.95748
ᐁᑮᓂᐳ	-9.96011
ᐐᒋᐃᐌ	-9.96314
ᒋᐊ	-9.96439
ᐅᑎᑕ	-9.96593
ᐁᒣ	-9.96604
ᑭᑭᑫᓂᒥ	-9.96932
ᒪᑗ	-9.97126
ᐊᑐᒫ	-9.97131
ᑎᐯᓂᒥ	-9.9729
ᐃᓬᐋᐃᒐ	-9.97568
ᓈᓴᕒᐃ	-9.97568
ᐁᔑᐲᐃᑳᑌ	-9.97568
ᐗᑎᑾ	-9.9757
ᑎᐹᒋᒫ	-9.97571
ᑮᐗᓂᒧ	-9.97596
ᐸᑭᑎᓂᑎᓱ	-9.97712
ᑮᔑᑑ	-9.97741
ᐅᕒᐆᒥ	-9.97752
ᐅᑑᑭᒫᒪ	-9.97759
ᒥᓉᑕᒧ	-9.97782
ᓇᑲᑕ	-9.9792
ᐌᑖᑯᓯ	-9.98056
ᐅᒋᑕ	-9.9816
ᑲᔥᑭᐋ	-9.98306
ᑭᓱ	-9.98327
ᓀᐱ	-9.98404
ᑕᑭᒋ	-9.98714
ᓈᓇ	-9.98733
ᐯᐯᔑ	-9.99268
ᑕᐃᔑ	-9.99308
ᒋᓂ	-9.99363
ᔂᓬ	-9.99582
ᒋᑭᒋ	-9.99595
ᐙᐸᒥᑯ	-9.99854
ᐸᑭᑎᓈᓱ	-9.99959
ᑌᐺᔦᓂᒥ	-10.0008
ᐃᔑᓈᑾᓂᓂ	-10.0012
ᑲᓅ	-10.0018
ᑭᒋᐅᑭᒫᐎ	-10.0021
ᑯᓰᐙ	-10.0028
ᒋᐊᔮ	-10.0034
ᐅᑕᑳᓀᓯ	-10.0047
ᒀᓂ	-10.006
ᓂᓯᒥᓐ	-10.0064
ᐱᑑ	-10.0086
ᑳᐱᒫᑎᓯ	-10.0091
ᑭᑭᔥᑭᑲ	-10.0092
ᑫᑮᐃᔑ	-10.0098
ᒋᐲ	-10.0113
ᑶ	-10.0113
ᐐᒌᐗ	-10.0114
ᓲᑭᑌᐁ	-10.0114
ᐙᐹᐱᑯ	-10.0114
ᑭᑌᐃᐙ	-10.0115
ᐃᓀᓂᑎᓱ	-10.0115
ᓵᑲᐃᑲᓃ	-10.012
ᑲᔥᑭᑕᒫᓱ	-10.0122
ᐌᔩ	-10.0132
ᐁᑲᑴ	-10.0138
ᑮᐐ	-10.0156
ᐁᓀᑕ	-10.016
ᑎᐸᐊᒪᐎ	-10.0175
ᑕᐙᐙ	-10.0176
ᐃᓇᓄᑮ	-10.0187
ᒋᐊᐎ	-10.0212
ᐎᓂᓂᐗ	-10.0232
ᐐᐎ	-10.0235
ᓂᐲ	-10.0236
ᓰᐲ	-10.025
ᑎᐹ	-10.0332
ᑕᔑᒫ	-10.0352
ᓇᒪᑕᐱ	-10.037
ᑲᑲᓅᓈ	-10.0414
ᒋᑫᐙ	-10.0427
ᑭᑭᓄᐃᑫ	-10.0438
ᐐᒌᑎ	-10.0472
1	-10.0484
▁¦12	-10.0484
ᐅᔑᐲᐃᑲ	-10.0484
ᐄᒋᐸᑮ	-10.0484
ᐃᔑᒋᑫᔮ	-10.049
ᐅᓇᐱ	-10.0499
ᑳᐃᓂ	-10.0501
ᓂᓵ	-10.0503
ᓂᔑᐗᓈᒋᐃ	-10.0504
ᒥᓴᐌᑕ	-10.0507
ᐐᒌᐎᑰ	-10.0517
ᐃᔥᒀᓭ	-10.0522
ᑳᐃᓇᑌᓂ	-10.0537
ᑲᓇᐌᓂᒫ	-10.0549
ᐁᐊᓉ	-10.0551
ᐁᑌᐺ	-10.0557
ᐅᑮᐊᓂ	-10.0571
ᒑᑭ	-10.0574
ᓇᒀ	-10.0575
ᐱᐅᒋ	-10.058
ᑮᐃᔖᐗ	-10.0581
ᒌᑫᑕ	-10.0585
ᐸᑭᓯ	-10.0605
ᒋᐐ	-10.0615
ᒋᑮᐌ	-10.062
ᐃᔖᔮ	-10.0623
ᓈᑯᓂ	-10.0628
ᐊᔓᑕᒫᑎᐎ	-10.0636
ᑳᐃᔑᓈᑯᓯ	-10.0646
ᐁᐃᔑᒋᑫ	-10.0659
ᐃᓀᑖᑾᓂᓂ	-10.066
ᓂᑯᒋ	-10.0675
ᑳᑮᐊᔮ	-10.0689
ᑳᐃᔑᐲᐃᑳᑌ	-10.0692
ᐃᑳᑌ	-10.0717
ᒦᔑ	-10.0726
ᑳᑲᓅᑕᒪᐙ	-10.0745
ᓈᓈᑲᑕᐌᑕ	-10.0746
ᑖᐗ	-10.075
ᐅᑎᓈᑯᓂᑫᐎ	-10.0757
ᓂᑮᐅᒋ	-10.0765
ᒋᑑᑕ	-10.0782
ᐸᓂᓂ	-10.0784
ᓀᓂᒥ	-10.0792
ᒋᑕᑯ	-10.0799
ᑕᓂ	-10.0826
ᐅᔑᐲᐊ	-10.086
ᒪᓯᓇᐃᑲᓂ	-10.0865
ᒫᒪᑳᑌᑕ	-10.0867
ᒫᓇᒑᓂᔕ	-10.0869
ᐅᐱᒣ	-10.0875
ᐙᓴᑯᓀᒋᑲ	-10.0875
ᓂᐴᒪᑲ	-10.0877
ᐱᓈᓯᑳᑰ	-10.0888
ᑳᐃᔑᓂᑳᑌ	-10.0889
ᐅᒑᓂᒥᓯ	-10.0889
ᐅᑑᓇᔓᐌᐎᓂ	-10.089
ᐊᔓᑕᒪᐙ	-10.0895
ᑌᐱᑎ	-10.0897
ᐱᓵᓂᓯᐎ	-10.0904
ᑳᐙᐱᓯ	-10.0906
ᐱᒫᒋᐃ	-10.0915
ᒥᒋᐯᔑᑯ	-10.0952
ᑭᑲᐃᔑ	-10.0961
ᐅᑭᒫᐎ	-10.0961
ᐁᑑᑕ	-10.0983
ᐱᓯᑕᐎ	-10.0992
ᑭᑫᑖᑾ	-10.1001
ᑭᑫᑕᒫ	-10.1018
ᒌᒥ	-10.1021
ᐗᓂᔑ	-10.1067
ᒪᓈ	-10.107
ᐁᓂᑯ	-10.108
ᐁᑮᐃᑭᑐᓂ	-10.1083
ᐱᑕᑯᔑ	-10.1105
ᑮᐃᔑᒋᑫ	-10.1117
ᐱᑮᐌ	-10.1118
ᑳᑮᐊᔮᓂ	-10.1119
ᓵᑭᐃᐌ	-10.1141
ᒪᔥᑲᐌᑕ	-10.1163
ᐅᑎᐹᒋᒧᐎ	-10.118
ᑲᓇᐌᓂᒥ	-10.118
ᐌᐱᓂ	-10.1185
ᐃᓈᑎᓯ	-10.1207
ᒦᓂᓐ	-10.1237
ᑲᑮᑖᐌᑕ	-10.1269
ᐱᑾᑎᓈ	-10.1269
ᑭᑑᔑᐲᐊᒪᐎ	-10.1269
ᒦᑴᒋᐌᓂᒫ	-10.127
ᐙᐸᑕᒪ	-10.1271
ᓇᐃᓂᑏᐎᑲᒥᑯ	-10.1275
ᐅᐐᔭ	-10.1275
ᐸᑭᑎᓇᒪᐙ	-10.1278
ᐁᑮᑭᒋ	-10.1281
ᐅᑮᐅᑖᐱᓈ	-10.1308
ᐊᐯ	-10.1312
ᑲᓂᓂ	-10.132
ᐎᑭᒫ	-10.132
ᑳᑎᓄᐎ	-10.1336
ᐆᑌᓇᐗ	-10.1357
ᐅᐱᒫᑎᓰ	-10.1368
ᑳᒥᓄ	-10.1398
ᐸᑭᑎᓈᓱᐎ	-10.1422
ᐅᒪᔥᑲᐎᓰᐎ	-10.1427
ᑮᒦᓈ	-10.1465
ᑖᐙ	-10.1475
ᒥᓍᐸᒥ	-10.1491
ᐁᑮᒫᒌ	-10.1497
ᐅᑮᒫᒌ	-10.1506
ᑳᑮᑭᑐ	-10.1524
ᐱᒥᓂᔕᐅ	-10.1525
ᓇᑲᓂᑯ	-10.1539
ᑮᐱᐅᒋ	-10.156
ᑲᓅᓂᑯ	-10.1563
ᐱᐊᑕ	-10.1564
ᑕᒪ	-10.159
ᒥᓄᓭ	-10.1614
ᑑᑕᒣ	-10.1615
ᐐᓱᐎ	-10.1641
ᑾᔭᒀᑎᓯᐎ	-10.1641
ᐊᒸ	-10.1647
ᐅᑎᔑᓂᔕᐙᑲᓇ	-10.1686
ᐋᐃᓭᔭ	-10.1686
ᔛ	-10.1686
ᐹᑏᓇᑎ	-10.1686
ᐐᓀᑕ	-10.1687
ᓰᑲᐊᑖᓱ	-10.1688
ᑌᐺᔦᑖᑯᓯ	-10.169
ᑎᔭ	-10.169
ᓀᑕᒣ	-10.1694
ᑾᔭᑾ	-10.1697
ᒋᐃᔑᓭ	-10.1699
ᐊᑖᐙᑫ	-10.1702
ᑭᑭᑫᑕᓰ	-10.1709
ᐅᑮᐊᑐᒫ	-10.171
ᑳᑮᐅᓈᐸᒫ	-10.1714
ᓰᑲᐊᑖᑫᐎᓂᓂ	-10.1718
ᑕᑾ	-10.1725
ᑭᑕᔮ	-10.1728
ᓭᑭᓯᑫ	-10.173
ᓈᐯ	-10.1732
ᑌᐺᑕᒣ	-10.1746
ᒦᓂᓇ	-10.1751
ᑳᑮᒦᔑ	-10.1754
ᑎᐯᑖᑯᓯᐙ	-10.1763
ᑳᐅᑕᑳᓀᓯ	-10.1765
ᓅᑕᐎ	-10.1786
ᑳᒎᐎᐎ	-10.1793
ᐱᒫᑎᓰ	-10.1801
ᒥᑖᓱ	-10.1806
ᑫᑕᔑ	-10.1815
ᓄᐙ	-10.1822
ᓂᑑ	-10.1823
ᑫᒋᓈᐅ	-10.1832
ᑭᑫᑕ	-10.1839
ᐱᒫᑎᓯᔭ	-10.1862
ᐁᑎᐱᑲᓂ	-10.1879
ᑌᐺᑕᐎ	-10.1887
ᑳᐅᓂᔑᔑᓂᓂ	-10.1899
ᐸᑭᒌ	-10.192
ᑳᐃᑭᑐᐙ	-10.1929
ᑴᑕ	-10.1932
ᓈᓯᑳᑯ	-10.1941
ᓯᑑ	-10.1941
ᒪᓂᑑ	-10.1947
ᑖᑰ	-10.197
ᑎᐸᐃᑫ	-10.1978
ᑫᐃᔑᒋᑫᔮ	-10.1984
ᑴᑭ	-10.1992
ᐐᑎᑫᒫ	-10.2004
ᑎᐯᑕ	-10.204
ᑭᑭᒋ	-10.2056
ᑮᐲᑎᑫ	-10.2058
ᑎᐱᓇᐌᐎᓯ	-10.2067
ᓇᓈᑯᒫ	-10.2068
ᑭᑭᓄᐊᒫᑫᐎ	-10.2077
ᐊᔮᓰ	-10.209
ᔕᔒᐱᑕ	-10.2103
ᑰᐎ	-10.2108
ᐅᑌᒐᓬᐃᒪ	-10.212
ᐁᓀᑖᑯᓯ	-10.212
ᐅᓵᐙᐱᑯ	-10.212
ᑭᒋᐅᔑᐲᐃᑫᐎ	-10.212
ᐗᓇᑯᔕ	-10.2121
ᑭᐴᔔᐃᑯᐙ	-10.2121
ᐋᐃᓯ	-10.2121
ᑲᑮᐹᑎᓯ	-10.2121
ᐱᑾᒋᐊᔭᐋᐎᔕ	-10.2122
ᒥᑕᑲᒥ	-10.2122
ᑲᕒᐄ	-10.2124
ᐋᓬᐃ	-10.213
ᐃᔑᒋᑫᐗ	-10.2144
ᑳᓬᐊᓬᐄᐎ	-10.215
ᑭᑫᑕᒪ	-10.2151
ᐅᑮᐃᔑᓂᔕᐙ	-10.2154
ᐅᒪᒋᑑᑕᒧᐎᓂᐙ	-10.2154
ᑭᒋᐊᓇᒥᐁᐎᑭᒫᐎ	-10.2162
ᑲᐯ	-10.2163
ᓅᑖᑯᓯ	-10.2171
ᐸᐹᒥ	-10.2199
ᒫᐗᒋ	-10.2208
ᒫᒑᐙ	-10.2209
ᒀᐸ	-10.222
ᑲᔥᑭᑑᔦ	-10.2228
ᐙᐸᑕ	-10.223
ᑳᑎᐯᓂᒫ	-10.2246
ᐃᓇᑭᒫ	-10.2268
ᑑᑕᒪ	-10.2272
ᐱᔑᒀᑎᓯ	-10.2292
ᐃᔑᒋᑫᓰ	-10.23
ᐅᑎᒀᓂ	-10.231
ᐁᐊᔮᓂ	-10.2318
ᒪᑲᑭ	-10.2319
ᐙᐸᑕᐃ	-10.2326
ᐐᑑᑳᓱ	-10.2329
ᐁᒥᒋ	-10.2336
ᑳᐊ	-10.2336
ᐊᓈᒥᒥ	-10.2338
ᐱᓯᑕᒧ	-10.2338
ᓂᔕᐙ	-10.2342
ᑭᑫᑕᓯ	-10.2365
ᐅᒋᑎᐯᑖᑯᓯ	-10.2372
ᐊᑌᓂ	-10.2385
ᐗᓀ	-10.2421
ᐌᓅᒋ	-10.2426
ᒋᑎᓄᐎ	-10.2429
ᓇᓈ	-10.2446
ᐅᐱ	-10.2486
ᔕᔒᐯᑕ	-10.2494
ᐲᒋᓂᔕᐅ	-10.2504
ᑌᐺᔦᓂᒫ	-10.2511
ᓈᓯᑲᐙ	-10.2518
ᑑᑖᑯ	-10.2524
ᑲᔥᑭᒋᑫ	-10.2527
ᑭᒋᐊᓇᒥᐁᐎᑲᒥ	-10.2527
ᑲᑮᑴ	-10.2559
ᓰᑲᐊᑖᑫ	-10.2568
ᒪᔥᑲᐌᑖᑯᓯ	-10.2575
ᐊᓇᒥᑑ	-10.2575
ᑳᐐᒋᐅᑌᐺᑕᒨᒥ	-10.2575
ᐅᔕᐌᒋᑫᐎ	-10.2575
ᑭᐱᒫᑎᓯᐎᓂᐙ	-10.2575
ᑭᑎᑳᑕ	-10.2579
ᑎᐹᑯᓈ	-10.258
ᐲᑯᓇ	-10.258
ᐐᑕ	-10.2586
ᒋᐃᑭᑐ	-10.2586
ᑯᓈᓂ	-10.2588
ᐸᑭᑎᓇᒪᐎ	-10.2596
ᑭᒋᐊᐱᐎᓂ	-10.2596
ᑮᑕᔑ	-10.2597
ᓃᔓ	-10.26
ᐱᒫᑎᓯᔦ	-10.2601
ᐁᐱᒥ	-10.2604
ᐅᔥᑮᔑᑯ	-10.2609
ᐅᑎᔑᒋᑫᐎᓂᐙ	-10.2611
ᒫᒋᓭ	-10.2623
ᐁᐋᐎ	-10.2623
ᐐᑕᒫᑰ	-10.2624
ᓂᔑᐗᓈᑎᓯ	-10.2634
ᐃᑎᐗ	-10.264
ᑭᑫᓂᒥᑰ	-10.264
ᑫᒀ	-10.2641
ᐅᒥᔅᑸ	-10.2656
ᑕᒦᓈ	-10.266
ᐅᑎᐯᒋᑫᐎᓂ	-10.2661
ᑳᑮᐃᓂ	-10.2665
ᓭᓯ	-10.267
ᐸᓃ	-10.2672
ᒎ	-10.2675
ᐅᑎᐯᒋᑫᐎᓂᓂ	-10.2679
ᓇᐃᑕ	-10.2684
ᐅᓈᐯᒥ	-10.2692
ᑕᔑᑕ	-10.2706
ᓵᑭᐃᐌᐎ	-10.2707
ᐃᑰᔦ	-10.2712
ᑕᒫᑫ	-10.2721
ᓬᐋ	-10.2761
ᐅᓂᔑᔑᓂᓂ	-10.2765
ᐙᐸᑕᐃᐌ	-10.2766
ᐸᑫ	-10.2776
ᐱᒥᓂᔕᐅᑯ	-10.2813
ᒋᒥᓄ	-10.2817
ᓃᔮ	-10.2822
ᓵᑭᐃᐌᐎᓂ	-10.2924
ᐎᓰ	-10.2951
ᓱᓂ	-10.2961
ᒋᐱᒫᑎᓯ	-10.2963
ᒫᒪᑳᒋᒋᑫ	-10.2981
ᐋᐸᑕ	-10.2981
ᑳᑮᐅᒌ	-10.2987
ᐁᒀ	-10.2987
ᐊᑲᒋ	-10.2996
ᑳᓇᑲ	-10.2999
ᑭᑫᑖᓈᐙ	-10.2999
ᑖᑭ	-10.3001
ᑑᔦ	-10.3021
ᔩ	-10.3026
ᐱᒥᐊᔮ	-10.303
ᑭᑭᓄᐊᒪᐙᑲ	-10.3033
ᑭᔒ	-10.3034
ᒋᐲᑎᑫ	-10.3039
ᑴᑳᑎᓯ	-10.304
ᐴᓀᑕᒪᐎ	-10.3049
ᐅᑕᓇᒥᐁᐎᑲᒥᑯ	-10.3051
ᒪᒫᔒ	-10.3051
ᓵᐃᓬᐊ	-10.3051
ᐸᑯᐲ	-10.3051
ᑭᐸᐅᑏᐎᑲᒥ	-10.3052
ᐁᑎᔮ	-10.3053
ᒉᑲ	-10.306
ᓈᑯᓯᓂ	-10.3062
ᒋᑎᐯᑕ	-10.3064
ᓂᓯᑯ	-10.3071
ᓃᔣᒋ	-10.3072
ᐐᑕᒫᑰᔦ	-10.3076
ᑲᑲᓅᓂᑎ	-10.3082
ᐅᓇᔓᐌᐎᓂ	-10.3094
ᑳᑮᐅᔑᑑ	-10.3104
ᑫᐱ	-10.3111
ᑳᓃᑳᓀᑖᑯᓯ	-10.3113
ᓯᐙᓈ	-10.313
ᑮᐊᓅᑮ	-10.3142
ᓅᑖᑾ	-10.3143
ᐊᑑ	-10.3162
ᒌᑭ	-10.3168
ᐅᑮᑲᓅᓈ	-10.3198
ᐁᔮᐙ	-10.3209
ᐁᔑᐊᔮᓂ	-10.321
ᐅᐐᒋ	-10.3212
ᐅᑮᑲᑴ	-10.3212
ᑭᒋᑮᔑ	-10.3234
ᐃᔑᒋᑫᓯ	-10.3242
ᐅᓃᒑᓂᓯ	-10.3248
ᐲᑎᑫᐙ	-10.3256
ᒥᓍᐸᑕ	-10.327
ᒋᑲᔥᑭ	-10.3272
ᕒᐋ	-10.3279
ᑳᒪᒋ	-10.3282
ᑭᑌᓂᒥ	-10.3288
ᑳᐃᔑᐊᔮ	-10.3293
ᑳᐃᔑᐊᔮᓂ	-10.3301
ᒪᑭ	-10.3301
ᒋᑲᓂᐎᓂ	-10.3314
ᐅᑎᔑᒋᑫᐎ	-10.3365
ᑣᐸ	-10.3376
ᐱᑕᑶᔑ	-10.3379
ᐁᓅᑕ	-10.3394
ᐗᑭᐸ	-10.34
ᐅᓃᒑᓂ	-10.3405
ᐱᒫᑎᓯᔮ	-10.3426
ᓵᑭᑑ	-10.3433
ᑲᓂ	-10.3449
ᑮᑮᐌ	-10.3449
ᒋᐗ	-10.3464
ᒦᓂᑯᐙ	-10.3465
ᑳᐃᑭᑐᓂ	-10.3465
ᓅᑕᒫ	-10.3484
ᐊᓇᒥᐁᑕᐙ	-10.3489
ᐃᔅᕒᐃᔭᓬ	-10.3497
ᓂᑯᑣ	-10.3513
ᐅᑑᓇᔓᐌᐎ	-10.3523
ᑎᓄᐗ	-10.3525
ᓂᑳᑌᓂ	-10.3531
ᐊᐱᓅᒌ	-10.3544
ᑲᔥᑮᑎᐱᑲ	-10.3545
ᐁᐅᒌ	-10.3546
ᑯᑎ	-10.355
5	-10.3551
ᐅᑌᒐᓬᐃᒥ	-10.3551
ᐅᑕᔓᑕᒫᑫᐎ	-10.3551
ᓃᑳᓇᔭᐄ	-10.3551
ᑭᑌᐺᑕᒧᐎᓂᐙ	-10.3551
ᒪᓂᑑᑳᓇ	-10.3551
ᐊᔭᐋᐎᔕ	-10.3552
ᐋᓉᑕ	-10.3553
ᐊᓇᒥᐁᑕᐎ	-10.3554
ᒥᑎᑰ	-10.3561
ᔥᑳᑯᐙ	-10.3563
ᐅᑭᔐᐙᑎᓯᐎᓂ	-10.3572
ᐊᓄᑮᑕᐙ	-10.3573
ᑲᒀᑕᑭᐋ	-10.3579
ᔭᐸ	-10.3587
ᒥᑎᑯ	-10.3603
ᓈᓯᑲᐙᐙ	-10.3611
ᐁᐐᒌᐗ	-10.3616
ᑑᑖᑰ	-10.3625
ᐊᓇᒥᐋᐎ	-10.3626
ᐅᑮᐐᑕᒪᐙ	-10.3629
ᑲᑴᒋ	-10.3641
ᑭᑭᔥᑲ	-10.3645
ᑮᐸᓯᑸ	-10.3657
ᒋᐐᒋᐃ	-10.3663
ᒪᒀ	-10.3666
ᐊᔮᐎᓂ	-10.3673
ᐃᑭᑐᐗ	-10.3682
ᐸᑭᑎᓂᑰ	-10.3683
ᐗᑭᒋ	-10.3685
ᐃᑭᑐᐎ	-10.3686
ᐁᓃᐸᐎ	-10.369
ᐊᓉᐱ	-10.3708
ᓯᑌ	-10.3715
ᑕᔑᑕᒧᐙ	-10.3715
ᕒᐃᔭ	-10.3716
ᒋᒦᓂ	-10.3719
ᒋᐐᒌᐎᑯ	-10.372
ᑳᐃᑕ	-10.373
ᐗᑮ	-10.3739
ᐊᑮᐎ	-10.3759
ᒥᑖᔑ	-10.3765
ᐃᔖᐗ	-10.3767
ᑭᑎᑳᓇ	-10.3796
ᑎᐯᑕᒥᓂ	-10.38
ᒪᒥᔑ	-10.3808
ᐱᒫᒋᐃᑰᐎᓯ	-10.3818
ᒋᐙᐸᒥ	-10.3841
ᐃᑕᐙ	-10.3854
ᐁᑭᑭᔥᑲ	-10.3863
ᔑᔭ	-10.3878
ᑭᑎᑫᐎᓂ	-10.3886
ᓈᑾᑭ	-10.3886
ᒥᓂᒀᑲ	-10.3897
ᐃᔑᒋᑫᔭ	-10.39
ᓂᓯᑰ	-10.3928
ᐎᓈ	-10.3929
ᑳᑮᑕᔑ	-10.3929
ᑕᔑᑕᒫ	-10.3931
ᒋᑎᐹᑯᓂ	-10.3967
ᑭᑮᐱ	-10.3969
ᒪᑲᓂᓂᑭ	-10.3973
ᐅᑕᒑᑯ	-10.398
ᑮᔖ	-10.3998
ᓃᑳᓀᑖᑯᓯ	-10.401
ᑕᒫᑯ	-10.4016
ᑲᓅᑕᒪᐙᐙ	-10.4025
ᒋᑲᓇ	-10.4039
ᓀᓂᒫ	-10.4045
ᒌᑫᑕᒧ	-10.4047
ᐅᓈᐸᒫ	-10.4053
ᓈᑲ	-10.4062
ᔖᑯᐌᐗ	-10.407
ᐙᐱᔥᑮᑭ	-10.4077
ᓃᒥᑕᓇ	-10.4077
ᐃᔥᐯᑖᑯᓯ	-10.4077
ᓬᐋᓴᕒᐊ	-10.4077
ᐃᓍᓂᑎᓱ	-10.4077
ᔒᑫᓂᒫ	-10.4077
ᐲᑎᑲᓈ	-10.4078
ᓂᑎᑭᑐᐎ	-10.4078
ᐊᓇᒥᐁᐙᑎᓯ	-10.4078
ᑭᑫᑌᔭᐋᒥᓈᐸᓃ	-10.4079
ᐊᔭᔮ	-10.408
ᐙᐱᔥᑭ	-10.408
ᒥᓉᑖ	-10.4081
ᐁᑕᓱᐯᔑᑯ	-10.4082
ᐱᓯᑕᐎᔑ	-10.4085
ᓅᑎ	-10.4089
ᐲᐎᑌ	-10.4094
ᑌᐺᑕᒥᓂ	-10.4101
ᑾᓂᓂ	-10.4104
ᑭᐱᒌ	-10.4107
ᐱᒫᑎᓯᐗ	-10.4107
ᑌᐁ	-10.4109
ᐸᑭᑌ	-10.411
ᔖᐳ	-10.4112
ᐁᐃᔑᓂᑳᓱ	-10.4115
ᒌᒥᓴ	-10.4127
ᑳᑭᑎᒫᑭᓯ	-10.4128
ᐅᒌᒪᑲᓂᓂ	-10.4129
ᐊᓄᑮᒪᑲᓂᓂ	-10.4156
ᑎᔅ	-10.4157
ᐅᑮᐃᑯᐙ	-10.4164
ᐹᐱ	-10.4169
ᐅᔑᐋ	-10.4177
ᑌᐺᑕᒨ	-10.4183
ᑑᓂ	-10.4192
ᑲᑴᒋᒥᑰ	-10.4209
ᐐᔭᐎᓂ	-10.4212
ᐱᒥᓂᔕᐙᐙ	-10.4214
ᐁᐐᐅᒋ	-10.4215
ᓬᐆ	-10.4218
ᑳᐌᓅᑎᓯ	-10.4221
ᐸᔦ	-10.4222
ᓀᑖ	-10.423
ᑰᓰ	-10.4252
ᑳᓂᑖᐎᑭ	-10.4255
ᐐᑕᒫ	-10.4271
ᐃᓇᑭᒥ	-10.4273
ᑮᒫᒪᐎ	-10.428
ᐊᑯᓴᑲᐅ	-10.4294
ᐌᒌᓂ	-10.4307
ᐱᓵᓀᑕᒧᐎ	-10.431
ᑮᐃᔑᓂᑳᓱ	-10.4324
ᐊᓈᒥ	-10.4346
ᒪᒥᔑᒥ	-10.4355
ᑮᓂᐳ	-10.4368
ᑑᒋᑳᑌ	-10.4369
ᓂᔥᑳᑎᓯ	-10.4399
ᓇᒧᐙ	-10.4403
ᐁᓈ	-10.4405
ᒪᒋᒋᑫ	-10.4424
ᐱᓈᓯᑲᐙ	-10.4426
ᒪᒋᑑᑕᒥ	-10.4445
ᑭᑭᔥᑲᐙ	-10.4485
ᐅᓈᐯ	-10.4494
ᑭᒋᐊᓄᑮ	-10.45
ᒋᑑᑕᒫ	-10.4516
ᑭᑲᐐᒌᐎᑯ	-10.4539
ᐐᑕᒪᐎᔑ	-10.4546
ᐃᓀᑕᒫ	-10.4551
ᐸᑑ	-10.4554
ᒫᒌᑑ	-10.4572
ᑆ	-10.4579
ᑸ	-10.4579
ᑫᐊᔮ	-10.4583
ᑲᒀᑕᑭᑑᐎ	-10.4583
ᓇᔥᑫ	-10.4596
ᓇᓈᑕ	-10.4615
ᓈᑲᑕᐌᑕ	-10.462
ᒋᑲᔥᑭᑑ	-10.4628
ᐱᑾᒋᐊᔭᐋᐎ	-10.4631
ᐅᓇᔓᐙ	-10.4632
ᐃᔑᑮᔗᐎ	-10.4633
ᐱᓀᔒᔕ	-10.4633
ᐸᔑᐸᐃᑫᐎᑯᒫ	-10.4633
ᒪᒦᒀᓂᑎᓱ	-10.4633
ᓭᓴᕒᐄᔭ	-10.4633
ᒎᑏᔮ	-10.4633
ᒥᓴᐌᒋᑫ	-10.4633
ᑲᑮᓇᐎᔥᑭ	-10.4633
ᐊᑕᐌᓂᒫ	-10.4633
ᐋᐸᑎᓯ	-10.4633
ᓇᓈᑯᒧ	-10.4633
ᑭᑭᔐᒪᓂᑑᒥᓈ	-10.4633
ᒪᔥᑯᓰ	-10.4633
ᐲᒋᓂᔕᐙ	-10.4634
ᐱᒥᐎᑑ	-10.4635
ᐅᑕᓄᑮᐎᓂᐙ	-10.4635
ᐊᑳᒥ	-10.4635
ᐱᒥᔑᓂᓂ	-10.4637
ᑭᑫᑕᒥᓂ	-10.4643
ᑫᐃᔑᓭ	-10.4644
ᐅᓂᔥᑳᑎᓯᐎ	-10.4649
ᓰᑭᓇ	-10.4653
ᐊᑕᐌᑕᒥᓂ	-10.4654
ᐊᓄᑮᒪᑲ	-10.4656
ᑌᐺᑕᒧᐙ	-10.4662
ᐐᔭ	-10.4672
ᑲᑖ	-10.4673
ᐐᑾᑎ	-10.4675
ᑲᓇᐙᐸᒥ	-10.4678
ᑳᑮᐊᔓᑕᒫᑫ	-10.4684
ᓂᐴᔔᐋ	-10.4689
ᑑᑕᒫ	-10.4689
ᓯᓄᑭ	-10.4696
ᑲᒀᑕᑭ	-10.4707
ᐃᑰᔭ	-10.4719
ᔕᔒᐯᑕᒧ	-10.4733
ᐊᒦᐗ	-10.4734
ᓂᑭᑫᓂᒫ	-10.4741
ᑕᑯᔑᓄᐙ	-10.4746
ᑌᐱᓭ	-10.4768
ᐅᓇᔓᐌᐎᓂᓂ	-10.4773
ᐸᕒ	-10.4796
ᑳᐲ	-10.4804
ᒪᐎᓀ	-10.4824
ᑌᐺᑕᒧᐎ	-10.4829
ᒋᒥᓄᐊᔮ	-10.4833
ᑲᒥᑲᓂᓂ	-10.4868
ᓂᓯᑐᑕᓰ	-10.4872
ᒋᐴᓂ	-10.4887
ᑫᐎᓐ	-10.4894
ᑾᔭᑯᒋᑫ	-10.4901
ᓂᓱᑮᔑ	-10.4902
ᐁᑮᒦᓈ	-10.4905
ᐊᒑᑯ	-10.4914
ᓂᐗᓂᓂ	-10.4918
ᐯᑕ	-10.4918
ᑭᑫᑕᓰ	-10.4933
ᐊᓇᒥᐋᔮ	-10.4934
ᒧᐎ	-10.4946
ᐁᐊᓇᒥᐋ	-10.4966
ᒋᐙᐱ	-10.4976
ᐅᐌᓂ	-10.4989
ᔥᑳᑰ	-10.5006
ᑳᓵᑭ	-10.5019
ᑮᔖᒋ	-10.5035
ᓅᑕᒥᓂ	-10.5037
ᑮᐃᓈ	-10.5049
ᔑᔮ	-10.5065
ᐁᐸᐹ	-10.5069
ᐅᔑᒋᑳᑌ	-10.5081
ᓀᑕᒥᓂ	-10.5093
ᑳᑮᒦᓂ	-10.51
ᐴᓂᑑ	-10.5112
ᐐᐱ	-10.5117
ᐃᓀᑖᑯ	-10.5118
ᓈᓯᑲᐎ	-10.5134
ᐋᐎ	-10.514
ᒌᑫ	-10.5141
ᓈᑲᒋᑑ	-10.517
ᓂᑑᑭᒫ	-10.518
ᑸᐎᓭ	-10.5185
ᓯᓅᓇ	-10.5187
ᑳᐃᓀᑕ	-10.5194
ᑲᑮᑖᐌᑕᒧᐎ	-10.522
ᐅᓃᑭᐃᑰ	-10.5221
ᒦᒋᓈᑳᑌ	-10.5221
ᑮᐙᒋᑴ	-10.5222
ᔑᒫᑲᓂᔒ	-10.5222
ᑭᐐᔭᐎᐙ	-10.5222
ᔔᒥᓇ	-10.5222
▁–	-10.5222
ᐅᓯᑎ	-10.5222
ᐋᐌᒋᑲ	-10.5227
ᐁᑭᑑᒪᑲ	-10.5228
ᑯᑖᒋ	-10.5232
ᑕᐃᑕ	-10.5232
ᒪᒫᔑ	-10.5242
ᑭᑌᓂᒫ	-10.5247
ᐱᓯᑲ	-10.5256
ᐋᔩᒋ	-10.5259
ᓂᓯᑐᑖ	-10.5263
ᑭᑫᓂᒫᓰ	-10.5266
ᐁᑮᐊᑕ	-10.527
ᑭᐐᓱᐎ	-10.5271
ᐃᔅᕒᐃᔭᓬᐃ	-10.5277
ᐁᐃᔑᓂᑳᑌᓂ	-10.5288
ᑮᐃᓀᑕᒨ	-10.5292
ᑲᓅᒋᑫᑕᒪᐙ	-10.5296
ᑳᑌᐺᑕᓯ	-10.5299
ᒪᒋᐊᒑ	-10.5304
ᑳᓃᔣᒋ	-10.5307
ᐁᐙᐸᑕ	-10.5307
ᓱᑮᔑ	-10.5312
ᐅᓇᑑ	-10.5314
ᐅᑌᑌᒫ	-10.5315
ᐅᓈᐸᒥ	-10.5322
ᑌᐺᑕᒧᐎᓂ	-10.5325
ᐁᐐᐃᔑ	-10.5335
ᒥᓄᐊᔮᐋ	-10.5342
ᐅᒌᓂ	-10.5346
ᑎᐹᑐᑕ	-10.5372
ᑳᐋᑯᓯ	-10.5372
ᐗᔭᐄ	-10.5379
ᓂᑯᐙ	-10.5389
ᒋᐃᔑᓈᑯᓯ	-10.5397
ᐅᓀᑕ	-10.5398
ᓂᐐᔭᐎ	-10.5404
ᑳᒦᑭᐌ	-10.543
ᑫᒦᒋ	-10.5436
ᐅᑖᐱᓇᒪᐙ	-10.5442
ᑕᑯᓂ	-10.5448
ᓂᑮᐱ	-10.5455
ᐎᔭ	-10.546
ᐅᑭᒫᐎᐎ	-10.5465
ᐁᐱᒫᑎᓯ	-10.5476
ᑳᑎᐯᓂᒥ	-10.5483
ᓅᑕᐙ	-10.5494
ᑮᐱᐅᒌ	-10.5505
ᐌᓅᑎᓯᐎ	-10.5513
ᐅᐐᓱᐎ	-10.552
ᐁᑮᐐ	-10.5532
ᐅᑕᓄᑮᐎ	-10.554
ᐅᔑᐲᐊᒪᐎ	-10.555
ᑭᑫᑖᓱ	-10.5559
0	-10.5559
ᒦᑳᑎ	-10.5561
ᑯᓵ	-10.5561
ᒥᒥᓐ	-10.5573
ᐐᒌᐎᑯᐙ	-10.5584
ᐐᑕᒪ	-10.559
ᐅᒌᐗ	-10.559
ᒋᑫᐎ	-10.5593
ᐃᔑᒋᑫᐎ	-10.5604
ᑫᓇ	-10.5606
ᑕᕒ	-10.5628
ᓇᑲᓂ	-10.5629
ᐌᓂᔑᔑ	-10.5638
ᐅᑭᑭᔥᑭᑲᓂ	-10.5651
ᑳᑲᑴ	-10.5653
ᐁᑮᔑᑲ	-10.5658
ᐃᔑᒋᑫᓂ	-10.5708
ᑮᐌᐱᒫᑎᓯᐋ	-10.5709
ᐱᑾ	-10.5713
ᐊᑕᐙᐸᒥ	-10.572
ᐱᒥᓂᔕᐙ	-10.5731
ᔔᓂᔮᐗ	-10.5732
ᒫᒑᔮ	-10.5734
ᑮᐃᓀᑕᓰ	-10.5743
ᐁᒥᓄ	-10.5758
ᐅᑑᓂ	-10.5758
ᑭᑭᓄᐃᑫᐎ	-10.5762
ᐸᒥᐃ	-10.5773
ᑎᓄᐎᔮ	-10.5781
ᐊᔮᒀᒥ	-10.5785
ᑮᐱᑕᑯᔑ	-10.5794
ᐸᑯᓭᓂᒥ	-10.5798
ᒋᒥᒋ	-10.5801
ᑎᐹᑯᓂᑫ	-10.5813
ᑳᔒᑫᓂᒥ	-10.5815
ᐗᓂᑑ	-10.5816
ᓇᐃᑖ	-10.5817
ᐁᓂᑖ	-10.5826
ᐐᑕᒪᐙᐙ	-10.583
ᔔᒥᓂ	-10.5832
ᑲᑮᑖᐎ	-10.5832
ᓇᒪᐙ	-10.5834
ᐃᑰᐎᓯ	-10.5837
ᒫᓇᒑᓂᔑ	-10.5846
8	-10.5846
ᐸᐸᔕᔐᐅ	-10.5846
ᒣᓬᑭᓯᑌ	-10.5846
ᑰᐹᓯᓈ	-10.5846
ᑳᒫᒪᐌᓄ	-10.5846
ᓵᒐᓰ	-10.5846
ᐅᑾᔭᒀᑎᓰᒪ	-10.5846
ᑰᑰᔕ	-10.5846
ᓇᑴᑖᑯ	-10.5846
ᐸᑭᓈᑫ	-10.5846
ᓇᑭᒋᑳᓱ	-10.5846
ᒥᓈᑾᐅ	-10.5846
ᔖᑰᒋᑣ	-10.5846
ᒫᕒᑕ	-10.5846
ᐅᑎᔑᓂᑳᓱᐎᓂ	-10.5846
ᑭᓅᔐ	-10.5847
ᓂᔑᐗᓈᒋᑑ	-10.5847
ᐅᔒᑖ	-10.5847
ᑭᑫᓂᒪ	-10.5847
ᐊᔕᐙᐱ	-10.5848
ᐊᓅᓈ	-10.5849
ᑲᑮᒀ	-10.5852
ᒥᔕᑳ	-10.5856
ᐃᓈᐸᑕ	-10.5858
ᑕᔑᑕᒥᓂ	-10.5861
ᐁᔖ	-10.5862
ᑭᑎᑰ	-10.5864
ᒫᒌᔮᔑ	-10.5869
ᒥᓯᐌᑲᒥ	-10.5869
ᐃᔑᓂᑳᓈ	-10.5871
ᐗᑸ	-10.5878
ᑸᐎᓭᓴ	-10.5885
ᒥᓴᐌᑕᒫ	-10.5885
ᐱᒥᓂᔕᐊ	-10.5896
ᑲᒀᑕᑭᑑᔮ	-10.59
ᐋᑕ	-10.5902
ᑭᑌᑌᐙ	-10.5906
ᑮᐅᒌ	-10.5908
ᐊᔑ	-10.5909
ᐐᒋᐊᔮᒥ	-10.5911
ᐁᑮᓅᑕ	-10.5911
ᐁᐸᕒᐊᐋᒥ	-10.5912
ᑑᑕᒧ	-10.5923
ᓂᑯᑣᓱ	-10.593
ᑕᑯᔑᓈ	-10.5952
ᑳᑮᓂᐳᓂ	-10.5957
ᐁᒪ	-10.5976
ᐊᔭᐋᐎ	-10.598
ᐁᑌ	-10.5988
ᑕᑯᓈ	-10.599
ᐁᐱᒧᓭ	-10.6005
ᑳᑮᐅᒌᓂ	-10.602
ᐃᔑᓂᑳᓱ	-10.6027
ᐐᑾᑎᐎᓐ	-10.6051
ᒋᐊᑕ	-10.6054
ᐁᐃᔑᓈᑯᓯ	-10.6055
ᒋᐃᔑᐱᒫᑎᓯ	-10.6058
ᑭᑯᓯ	-10.6066
ᑳᒫᒪᐎ	-10.6076
ᐅᑭᑭᔥᑭᑲ	-10.6085
ᑮᐌᐙ	-10.6088
ᒋᑮᐌᐱᒫᑎᓯ	-10.6099
ᒦᓂᑰᔦ	-10.6109
ᑕᑯᔑᓂ	-10.6129
ᑳᑮᐐᒌᐎᑯ	-10.613
ᑳᑮᐃᑭᑐᓂ	-10.6132
ᐅᑮᒦᓈ	-10.6143
ᑲᓅᓈᐙ	-10.6145
ᑖᐅᓂᔑᔑ	-10.6149
ᓈᑾᓂᓂᑭ	-10.6182
ᐁᑭᑫᓂᒥ	-10.6196
ᐁᑮᑲᑴ	-10.6199
ᐅᑕᔭᐄᒥ	-10.6203
ᒥᑖᒋ	-10.6225
ᐊᔮᓯ	-10.6235
ᑌᐺᑕᐙᐙ	-10.6238
ᓂᑮᐃᓈ	-10.6244
ᐱᔑᒀᑎᓯᐎ	-10.6253
ᓅᑖᑯ	-10.6275
ᑭᒋᐆᑌᓇ	-10.6275
ᓃᑕᓇᒥᐋ	-10.6289
ᓂᑲᐱ	-10.6291
ᑳᐅᒌᓂ	-10.6302
ᐴᓀᑕᒫ	-10.6319
ᑳᔑᐊᔮ	-10.6341
ᑫᔭ	-10.6347
ᑕᒪᐗ	-10.6354
ᑎᐯᓂᒥᓀ	-10.6357
ᒥᓄᐊᔮᐃ	-10.6366
ᐃᔑᔭ	-10.6383
ᑲᐎᓭ	-10.6398
ᒥᓍᐸ	-10.6426
ᐁᐐᐃᔑᒋᑫ	-10.6427
ᓂᔑᐗᓈ	-10.6439
ᑳᐱᒥ	-10.6446
ᑭᑌᑌ	-10.647
ᐅᑯᓯᓯᒥᑯ	-10.6473
ᑭᑫᑕᒨ	-10.6475
ᑯᓇᔦ	-10.6482
ᑌᐱᓈ	-10.65
ᓅᑕᐙᐙ	-10.6501
ᒋᓂᓯ	-10.6501
ᓶ	-10.6502
ᑎᒫᔅᑲ	-10.6513
ᓭᑲᕒᐋᔭ	-10.6513
ᓅᑌᔅᑲᑌ	-10.6513
ᐴᓂᓭᓯᓂᓂ	-10.6513
ᐌᓅᑕᓂᓂ	-10.6513
ᒥᒋᓇᐌᓯ	-10.6513
ᑭᓀᐱᑰ	-10.6513
ᒞᕒᑕ	-10.6513
ᑫᐃᔥᒀᓭᓯᓄ	-10.6513
ᐅᑕᓄᑮᐋᑲᓂ	-10.6513
ᑭᑫᓂᑎᓱ	-10.6513
ᐅᓀᓂᒥᑯ	-10.6513
ᑫᓅᑕᒪᐙ	-10.6513
ᐸᑯᓭᓂᒫ	-10.6513
ᓂᑮᓅᑖ	-10.6513
ᑭᑎᔑᒋᑫ	-10.6513
ᐐᓈᑎᓯ	-10.6514
ᐯᑳᑎᓯ	-10.6514
ᐅᔑᓯᑑ	-10.6514
ᑭᑎᑫᐎᓂᓂᐗ	-10.6514
ᐅᒪᓂᑑ	-10.6514
ᑭᑎᑳᓂ	-10.6516
ᐃᓉᐎ	-10.6516
ᓬᐄᐹ	-10.6516
ᐐᒋᐊᔮᒫ	-10.6517
ᐅᓇᑭᒥ	-10.6518
ᓂᑮᓅᑕᐙ	-10.652
ᐐᑾᑫ	-10.6521
ᒪᓂᔑᑫ	-10.6521
ᒫᓯᑑᓂᔮ	-10.6522
ᑭᐸᐅᑰᔮ	-10.6522
ᐗᓂᑑᑕ	-10.6526
ᓂᑮᐙᐸᑖ	-10.6526
ᒦᑲᓇ	-10.6532
ᑕᐸᓰ	-10.6533
ᑮᐲᔖᐗ	-10.6536
ᑳᑮᓅᑕ	-10.654
ᐹᑏᓄᐗ	-10.6542
ᐃᑴᓭ	-10.6546
ᑲᓅᔑ	-10.6547
ᑭᒥᐗ	-10.6553
ᐐᒋᐱᒫᑎᓰ	-10.6559
ᒋᓂᔑᐗᓈᑎᓯ	-10.6561
ᐊᔭᐄ	-10.6563
ᐙᐸᑕᐋ	-10.6564
ᐁᒪᒋ	-10.6582
ᒦᓂᑣ	-10.6583
ᑕᐱᓇ	-10.6587
ᑫᐊᐲᒋ	-10.6589
ᐁᓇᒪᑕᐱ	-10.6597
ᑎᐹᑯᓂᐌ	-10.6609
ᐱᓯᑲᒧ	-10.6624
ᒥᒋᓃ	-10.6629
ᓅᑕᒨ	-10.663
ᐅᓇᔓᐌ	-10.6631
ᑲᓅᑕᒫᑯ	-10.6631
ᑳᓇᒪᑕᐱ	-10.664
ᐁᑮᑕᔑ	-10.6643
ᐙᐸᒥᑰ	-10.6647
ᑮᐅᔑᒋᑳᑌ	-10.665
ᐅᑎᓵ	-10.6664
ᑏ	-10.6669
ᐃᓂᑖᑯᓯ	-10.6682
ᐊᔨᑎ	-10.6683
ᐱᐊᔮ	-10.6712
ᐅᑎᐹᒋᒧᐎᓂ	-10.6733
ᑮᑮᐌᐱᒫᑎᓯᐃ	-10.6737
ᑭᑫᒋᑳᑌ	-10.6738
ᐳᐗ	-10.674
ᐙᐸᑕᒫ	-10.6761
ᓈᓈᑲᑕᐌᑕᒧ	-10.6769
ᑳᑮᐃᔑᒋᑫᓂ	-10.6778
ᑲᐯᔑ	-10.6784
ᓂᔑᑫ	-10.6821
ᐱᓈᓯᑳᑯ	-10.6833
ᑑᑕᐙᐙ	-10.6873
ᓀᑖᑾᓂᓂ	-10.6881
ᐗᐙᓀᑕ	-10.6882
ᒫᒑᐗ	-10.6888
ᐃᔑᐌᐱᓯᐙ	-10.6905
ᑳᐃᔑᓭᓂ	-10.6906
ᐁᔑᓭ	-10.6913
ᐅᒪᒋ	-10.692
ᑳᓵᑭᐊ	-10.6931
ᐅᑮᓈᓯᑲᐙ	-10.6936
ᑎᐯᒋᑫᐎ	-10.6938
ᔕᐌᓂᒥᓇ	-10.6942
ᐐᑕᒫᑫᐙ	-10.6942
ᐅᑎᒀ	-10.6947
ᑳᒥᒋ	-10.6957
ᑕᔑᑖ	-10.6967
ᐅᐱᒫᑎᓯᐎᓂ	-10.6984
ᐅᒪᔥᑲᐎᓰᐎᓂ	-10.702
ᓇᐹ	-10.7026
ᑭᑎᑫᐎ	-10.7036
ᐋᓇᑮ	-10.7055
ᒋᒥᓄᓭ	-10.7069
ᐃᓇᑌ	-10.7071
ᓂᔥᑭ	-10.7073
ᒥᑕᑎ	-10.7099
ᐱᑕᑯᔑᓂ	-10.7114
ᐲᑎᑲᓂ	-10.7115
ᐅᓃᒑᓂᓯᒥ	-10.7143
ᑕᒫᑯᓈ	-10.7181
ᐅᕒᐆ	-10.719
ᑳᐃᓇᑌ	-10.7199
ᑳᑮᔑᑲᓂᓂ	-10.7203
ᐃᔑᐎᓈ	-10.7204
ᓇᔓᐌ	-10.7206
ᑲᓇᐌᑖ	-10.7207
ᐁᐅᒋᒋᓭ	-10.7208
ᐴᔥᑫ	-10.722
ᑳᓂᐳᐙ	-10.7221
ᐅᔥᑭᓃᑭ	-10.7223
ᑭᑎᒫᑭᓯ	-10.7226
ᐅᒻᐺ	-10.7227
ᑎᔑᓂᑳᓱᐎ	-10.7227
ᑭᑭᓇᐙᑕᔕᑫᔣ	-10.7227
ᐄᐸᕒᐆ	-10.7227
ᑭᑭᓇᐙᑕᔕᑫᔑᑲᓂᐎ	-10.7227
ᑲᒀᑕᑫᑕ	-10.7227
ᐅᒪᒋᑑᑕᒨ	-10.7227
ᑫᑎᒫᑭᓯ	-10.7227
ᒥᓋ	-10.7228
ᐅᐱᔥᑳ	-10.7228
ᐴᓀᑕᒪᐙ	-10.7228
ᐐᑕᐱᒫ	-10.7229
ᐅᑭᑭᓄᐊᒪᐙᑲᓂ	-10.7229
ᐅᑕᐌᒫ	-10.7229
ᓂᔣᓱ	-10.723
ᒪᔥᑲᐎᑳᐸᐎ	-10.723
ᐯᕒᐊᓰᐎᓂᓂᐗ	-10.723
ᐱᓯᑖᑯ	-10.7231
ᑲᐋᒀ	-10.7231
ᓇᓈᑯᒥ	-10.7231
ᐅᓈᑯᔑᓂᓂ	-10.7232
ᑮᐃᔑᓭ	-10.7233
ᐅᑖᐱᓂᑳᑌ	-10.7233
ᑲᓅᓇ	-10.724
ᑳᑾᔭᑯᓈᑾ	-10.7241
ᓇᐁᑕᒥ	-10.7243
ᑳᒫᐗᑑᓈ	-10.725
ᑮᒫᒪᑳᑌᑕᒨ	-10.7254
ᐙᐸᑖᓈᐙ	-10.7259
ᐊᓯᓃᐎ	-10.7261
ᐁᔑᑖᓂ	-10.7275
ᐸᕒᐊ	-10.7275
ᐯᑌ	-10.7276
ᒫᔑᒥᑕᑎᒨ	-10.7278
ᒪᒋᑫᑰ	-10.7281
ᒫᑰ	-10.7281
ᒪᔭᑭ	-10.7287
ᐐᑕᒫᑯᐙ	-10.7298
ᑭᑭᑫᑖᓈᐙ	-10.7302
ᐱᐅᒌ	-10.7307
ᐸᓂᐅ	-10.7329
ᑳᒥᓍᐸᑕ	-10.733
ᐁᑾᔭᒀᑎᓯ	-10.7332
ᒋᐃᓇᓄᑮ	-10.7334
ᐃᔑᐱᒧᓭ	-10.7344
ᐲᐙᐱ	-10.7352
ᐊᐱᒧ	-10.7356
ᐌᑖᑾᓂᓂ	-10.7361
ᐋᐲ	-10.7366
ᐸᑭᑎᓂᑫᐎ	-10.7373
ᐅᐱᑭ	-10.7375
ᑭᒋᓂᑭ	-10.7375
ᑳᒥᑖᔑᓃᔑ	-10.7379
ᐁᐹᑏᓄ	-10.7389
ᒋᓇᐃᑕ	-10.7432
ᑳᐅᔫᓯ	-10.7463
ᑭᐐᒋ	-10.7464
ᐅᐐᔭᐎ	-10.747
ᒥᓂᒀᑲᓂ	-10.7481
ᑎᐯᓂᒥᑯᓰ	-10.7486
ᒥᓉᑕᒨ	-10.7502
ᐁᐃᔑᐲᐃᑳᑌ	-10.7503
ᑳᑕᓱ	-10.751
ᒋᑎᐯᓂᒥᑯ	-10.7523
ᑳᑮᓂᑖ	-10.753
ᐌᐱᓂᑳᑌ	-10.7546
ᑕᓰᓈᐙ	-10.7555
ᑳᑲᓇᐌᑕ	-10.7654
ᐊᑣ	-10.7663
ᐃᔑᐌᐸᓂᓂ	-10.7692
ᐊᓵ	-10.7696
ᔕᔒᐱᑕᒧ	-10.7705
ᑕᐃᔑᓭ	-10.7727
ᓇᑲᒋ	-10.7731
ᒋᑭᑫᓂᒥ	-10.7742
ᑳᑲᔥᑭᑑ	-10.7747
ᑭᑮᐅᒋ	-10.7751
ᑳᑮᒫᒌ	-10.7762
ᒪᐙᐙ	-10.7771
ᐃᓀᑖ	-10.7787
ᐃᔑᐲᐊ	-10.7842
ᒋᐃᓈ	-10.7851
ᑳᐅᒋᑎᐯᑖᑯᓯ	-10.7854
ᒫᑰᔦ	-10.786
ᐅᑕᓄᑮ	-10.7874
ᐐᑕᒫᑯ	-10.7889
ᑲᑳᓱ	-10.7905
ᒋᑑᑕᒣ	-10.791
ᐋᓇᐌᓂᒥ	-10.7927
ᐁᑮᐙᐸᑕ	-10.7947
ᐎᓇᑰ	-10.7953
ᒋᐲᔖ	-10.7967
ᐃᓈᑯᓂᑫ	-10.7974
ᐃᔑᓂᔕᐙᑲ	-10.7982
ᑯᑖᓀᑖᑾ	-10.799
ᐅᑎᑖ	-10.7994
ᒐ	-10.7995
ᐐᑕᓇᒥᐋ	-10.7996
ᐸᑾᒋᐱᑑ	-10.7996
ᓃᓵᑕᐌ	-10.7996
ᐯᔑᑴᑖᑯᓯ	-10.7996
ᔮᐸᒋᑑ	-10.7996
ᔂᓬᐊᒪ	-10.7997
ᑳᐃᔑᒫᒫᐗᒋᐃᑎ	-10.7997
ᓴᒣᕒᐃᔭ	-10.7997
ᒥᓄᑑᑖᑫ	-10.7997
ᐐᒋᑭᐌᔨ	-10.7997
ᑲᔥᑮᑮᐎ	-10.7997
ᑫᑌᐃᓈᑎᓯᐎ	-10.7997
ᓵᑭᒋᓂᔕᐙ	-10.7997
ᐐᑕᒫᑫᔮ	-10.7998
ᐅᑕᐗᑳ	-10.7998
ᓬᐄ	-10.8001
ᑮᐗᔥᑴᐲ	-10.8001
ᐅᑖᑯᓰ	-10.8005
ᐸᑯᓭ	-10.8006
ᐹᐱᓬᐊ	-10.8009
ᑮᒪᒋᑑᑕ	-10.8011
ᓂᑎᓀᑕᓰ	-10.8012
ᑳᐃᔑᑖᓂ	-10.8012
ᓅᑳᑎᓯ	-10.8018
ᐅᑮᐃᔑᐎᓈ	-10.8023
ᒪᒋᑑᑕᐎ	-10.8025
ᓴᓭᑳ	-10.8028
ᐃᓈᐸᒋᑑ	-10.8029
ᒪᔥᑲᐙ	-10.8031
ᐅᓇᔓᐌᐎᓂᓂᐗ	-10.8037
ᐁᓀᑕᒫ	-10.8044
ᑳᑕᓶᐙᓇᑭᓯᐙ	-10.8045
ᑎᐸᐃᑲᓀᔮᓂ	-10.8045
ᑭᑫᑕᒨᓈ	-10.8045
ᑭᒪᒋᑑᑕᒧᐎᓂᐙ	-10.805
ᔖᑲ	-10.8055
ᒑᐸ	-10.8059
ᐁᑮᐅᒌ	-10.8059
ᒦᑭᐙ	-10.8065
ᑭᑖᑮ	-10.8067
ᐐᓂᑯ	-10.807
ᐅᑮᐊᐎ	-10.8076
ᐊᔕᒫ	-10.8085
ᑕᒫᑯᐙ	-10.8085
ᐁᓵᑭᐃ	-10.8086
ᑳᐃᔑᒫᐗᒋᐃᑎ	-10.8097
ᐊᔪ	-10.8099
ᐁᐙᐸᒥᑯ	-10.8101
ᐁᒪᑗ	-10.8102
ᔖᔖᑯᐌ	-10.8111
ᐊᓄ	-10.8114
ᒦᐗᑭ	-10.8115
ᓈᓈᑲᒋᐃ	-10.8122
ᒥᓂᑴᔦ	-10.8124
ᑎᐹᑯᓂᑫᐎ	-10.8126
ᑑᓰ	-10.8128
ᑲᓇᐌᑕᒧᐙ	-10.8144
ᑳᑌᐺᔦᓂᒥ	-10.8149
ᐃᔑᓂᔕᐅᑯ	-10.8165
ᐌᐱᓈᐙ	-10.8165
ᐲᑎᑫᔥᑳ	-10.8177
ᐐᑎᑫᑎ	-10.818
ᑣᒪ	-10.8209
ᒋᐅᑖᐱᓇ	-10.821
ᑲᓇᐙᐸᑕ	-10.8211
ᒪᓂᑑᑫ	-10.8211
ᐯᔑᒀ	-10.8213
ᐁᑮᑭᑐ	-10.8215
ᐁᑭᑫᓂᒫ	-10.8219
ᐅᑎᓈᑯᓂᑫᐎᓂ	-10.8228
ᐅᑎᔑᒋᑫᐎᓂ	-10.8232
ᐁᐱᓴ	-10.8237
ᑌᓂᒫ	-10.8242
ᑳᐱᐅᒋ	-10.8243
ᑭᒋᐅᑭᒫᐎᓂ	-10.8247
ᐸᑲᒥ	-10.8265
ᑌᓂᑭ	-10.8272
ᐃᓂᓀ	-10.8275
ᒋᐙᐸᑕ	-10.8283
ᐁᔑᐊᔮ	-10.8288
ᐅᒪᒋᑑᑕᒧᐎᓂ	-10.8299
ᒋᑲᒀᑕᑭᐃ	-10.8301
ᐁᒫᒌ	-10.8306
ᐌᔮ	-10.8324
ᒋᑎᐯᓂᒥᓀ	-10.8325
ᓈᑾᓯᓅ	-10.8333
ᐃᔑᓭᓯᓅ	-10.8353
ᑳᑮᐃᓈ	-10.8359
ᑮᐊᓂᐅᒋ	-10.8381
ᑳᑮᐊᑐᒥ	-10.8383
ᑳᐱᒫᑎᓯᓂ	-10.8397
ᐃᔑᒦᓈ	-10.8402
ᑭᒪᒋ	-10.8415
ᐅᕒ	-10.842
ᐐᑾᑎᓈᓂᐗ	-10.8424
ᑫᑮᐅᒋ	-10.843
ᑌᐺᐎᓂ	-10.8448
ᑎᐱᑲᓂᓂ	-10.8464
ᓇᑲᑕᒧᐙ	-10.8473
ᐲᔖᔮ	-10.8475
ᐃᔑᐌᐱ	-10.8481
ᐊᑕᐙᐸ	-10.8503
ᑮᑮᐌᐱᒫᑎᓯ	-10.8512
ᒪᒋᒋᑫᐎ	-10.8527
ᑳᑮᐃᓀᑕ	-10.8529
ᑮᓂᐳᐗ	-10.8544
ᑭᑭᓄᐊᒫᑰ	-10.8571
ᐱᒫᒋᐃᐌ	-10.8591
ᑭᒋᐐᑎᑫ	-10.8603
ᑲᒀᑕᑭᐃᑰ	-10.8613
ᑕᔑᒥᑰ	-10.862
ᑭᒋᐆᑌᓈ	-10.8626
ᓇᓇᐊ	-10.8651
ᑕᑯᓇ	-10.8657
ᑫᐃᔑᓈᑾ	-10.8663
ᑳᒦᒋ	-10.8672
ᒋᒫᒌ	-10.8672
ᐐᒌᐌ	-10.8675
ᒋᒥᓄᐐᒌᐎᑯ	-10.8679
ᑎᓄᐎᓰ	-10.8681
ᐅᑭᑫᑖ	-10.8697
ᑳᐃᑭᑑᒪᑲ	-10.8701
ᑭᒫᐎ	-10.8714
ᑮᐃᔑᓈᑯᓯ	-10.8747
ᑭᑎᒫᑭ	-10.8751
ᒪᒋᑑᑕᒧᐎᓂ	-10.8766
ᐐᓂᓯ	-10.8773
ᑌᓴᐱ	-10.8778
ᐙᐸᒥᓇᑰ	-10.8786
ᐁᐃᓀᑕ	-10.8795
ᔣ	-10.881
ᐹᑏ	-10.8811
ᐐᓴᑫᑕ	-10.8829
ᐅᔑᐲᐃᑫ	-10.8829
ᐅᒋᒌᑾᓃᑕ	-10.883
ᐃᓬᐃᓯᐸ	-10.883
ᐋᑲᕒᐃᐸ	-10.883
ᒪᒑᑎᓯ	-10.883
ᓂᓯᒥᑕᓇ	-10.883
ᐊᔓᑕᒫᑯ	-10.883
ᑭᒋᐅᑳᑏᑭᓀᐱ	-10.883
ᐁᑕᕒᐆ	-10.883
ᑭᔐᐹᐗᑲ	-10.883
ᒥᑴᓂᒥ	-10.883
ᐅᑭᒋᐅᑭᒫᒥᐙ	-10.883
ᔒᐎᑖᑲ	-10.883
ᒫᒥᑲᐎᓄᑕᐎ	-10.883
ᓂᔑᐗᓈᒋᒋᑳᑌ	-10.883
ᐁᓈᑎᓯ	-10.883
ᒥᓴᐌᓂ	-10.883
ᐋᓇᓈᔭ	-10.883
ᑕᔭᕒ	-10.883
ᑾᔮᒌ	-10.883
ᑳᒋᑎᓂ	-10.883
ᔖᐳᔥᑳ	-10.883
ᑰᐹᑌᓂᒥ	-10.883
ᐃᔥᐯᓂᑎᓱ	-10.883
ᐱᑾᒐᔭᐄ	-10.883
ᐯᑳᓂᓯ	-10.8831
ᐅᓈᑯᓂᑫ	-10.8831
ᑫᐃᑭᑐᔦ	-10.8831
ᐸᕒᐋᐸ	-10.8831
ᐯᔅᑕ	-10.8831
ᒫᒋᓂᔕᐙ	-10.8831
ᐸᑭᑎᓂᑳᑌ	-10.8833
ᐊᑕᐌᑖᑯᓯ	-10.8833
ᐱᓂᔅᑴ	-10.8833
ᓇᑭᔥᑲᐙ	-10.8833
ᓈᑐᓀ	-10.8834
ᓵᒥᓇ	-10.8835
ᑕᔑᑌᓂ	-10.8837
ᓂᓃᒑᓂᓴ	-10.8838
ᔖᑰᒋᐋ	-10.8838
ᑲᔥᑮᑎᐱᑲᓂᓂ	-10.8841
ᐅᓀᓂᒫ	-10.8842
ᓭᔮ	-10.8843
ᑯᑖᑎ	-10.8851
ᑳᑮᐃᔑᐲᐃᑫ	-10.8852
ᑕᐱᒫᑎᓯ	-10.8855
ᑳᐸᐹ	-10.8859
ᑸᓄ	-10.8863
ᑮᐲᔖ	-10.8864
ᑲᐸᕒᓂᔭᒦ	-10.8866
ᐅᑲᑲᔥᑭᑑᓰ	-10.8866
ᐋᕒ	-10.8867
ᑭᑫᓂᒫᓯᐙᐙ	-10.8867
ᑎᐹᒋᒥᑯ	-10.887
ᐁᑮᐃᔑᐎᓈ	-10.8876
ᐊᔮᒀᒥᒫ	-10.8878
ᑭᑭᓄᐊᒫᑎ	-10.8884
ᐱᒫᒋᐃᑣ	-10.8898
ᐅᓈᑲᓂ	-10.8899
ᒌᑲ	-10.8903
ᐅᐐᔭᐎᐙ	-10.8904
ᑯᓵᐙ	-10.8919
ᐅᑖᐱᓇᒧᐙ	-10.8927
ᐱᒥᑌ	-10.8932
ᓈᑯᒋᑳᑌ	-10.894
ᐅᐱᒫᒋᐃᐌ	-10.8941
ᐁᑮᐃᔑᓂᑳᓱ	-10.8942
ᒦᓂᑰᔮ	-10.8948
ᑭᑲᒦᓂᑯ	-10.895
ᑌᐺᔦᓂᒫᐙ	-10.895
ᐗᑭᑕ	-10.8964
ᑳᒫᐗᒋ	-10.8965
ᑎᐱᓭ	-10.8966
ᓂᑭᑫᑕᓰ	-10.8969
ᒥᑕᑎᒨ	-10.8981
ᐅᑮᐋᐸᒋᑑ	-10.8988
ᐃᔑᐌᐱᓯᐎ	-10.9003
ᐃᓀᓂᒫᐙ	-10.9013
ᑏᒪ	-10.9023
ᑮᑰᔭ	-10.9033
ᒋᒫᒥᑲᐎ	-10.904
ᓂᐐᔭ	-10.9041
ᐁᐐᑲᑴ	-10.9045
ᓇᐃᑕᐎ	-10.9046
ᒋᐃᔑᒋᑫᔭ	-10.9048
ᐱᓈᓯᑲᐎ	-10.9054
ᐃᓈᐸᑕᓯ	-10.9054
ᐁᐐᒌᐎᑯ	-10.9058
ᐃᔑᒫᒑ	-10.9066
ᒥᓄᑑᑕ	-10.9079
ᐅᑮᑮᐌ	-10.9086
ᐁᑮᒥᒋ	-10.9099
ᒪᒋᑑᑕᒧ	-10.9101
ᐐᒌᐎᓇᑰ	-10.9112
ᑳᓵᑭᐋ	-10.9114
ᐹᐱᓄᑕᐙ	-10.9114
ᐅᑮᐙᐸᒫᐙ	-10.9127
ᑳᑎᐯᓂᒥᒥ	-10.9129
ᑑᑕᓰ	-10.9137
ᒥᓇᐋ	-10.9147
ᐸᒥᐃᑯ	-10.9152
ᐁᑭᑭᓄᐊᒫᑫ	-10.9183
ᓰᑲᐊᑖᑰ	-10.9184
ᒨᒋᑫᑕ	-10.9189
ᐃᓀᑖᑯᓯᐎᓂ	-10.919
ᐅᔑᐲᐊᒪ	-10.9194
ᑳᑮᒦᓈ	-10.9195
ᐅᑮᑭᑫᓂᒫ	-10.9201
ᑌᐺᐎᓂᐗ	-10.9204
00	-10.9222
ᑭᑭᓇᐙᑕᔕᑫᔓ	-10.9237
ᐊᓇᒥᐁᑕᒪᐎ	-10.9272
ᐃᓀᑕᒧᐎ	-10.9289
ᐊᑌ	-10.929
ᐐᒋᑣ	-10.9301
ᑲᓅᓂᓇᑰ	-10.9313
▁¦40	-10.9346
ᐐᒋᑭᐌ	-10.9346
ᐲᓈ	-10.9347
ᑭᐸᑯᓭᓂᒥ	-10.9348
ᑳᒪᒋᑑᑕ	-10.9375
ᐃᓇᑲᒥᑲ	-10.9394
ᐃᔑᐎᓂᑰ	-10.9408
ᔑᑑ	-10.944
ᑭᑭᓄᐊᒪ	-10.9445
ᑫᐃᔑᐌᐸ	-10.9447
ᐴᓀᒋᑳᑌ	-10.9454
ᓅᑖᑯᑑ	-10.946
ᑮᐃᓈᑯᓂᑫ	-10.9466
ᐃᑭᑐᓰ	-10.947
ᐐᑲᑴ	-10.9476
ᐅᓵᑭᐃᐌᐎ	-10.9482
ᑎᐸᐊᒫ	-10.9511
ᑕᒪᐎᓇᑰ	-10.9519
ᑎᐸᐊᒪ	-10.952
ᐅᒪᒋᑑᑕᒧᐎ	-10.9525
ᑲᔥᑭᑑᔮ	-10.9533
ᐅᑲᔥᑭᑑ	-10.9549
ᐃᔥᒀᐱᒫᑎᓯ	-10.9558
ᒪᑲᒥ	-10.9564
ᐅᑕᔮᓰ	-10.9571
ᓂᓯᑕᐎᓇ	-10.9592
ᑮᐃᔥᒀᓭ	-10.9599
ᐁᓀᑖᑾ	-10.9608
ᑭᔥᑮᔑ	-10.9618
ᑮᐌᐗ	-10.9632
ᐅᑎᓯᓀ	-10.9636
ᐃᔑᐱᒫᑎᓯᐗ	-10.9639
ᐅᒥᔅᑸᒥ	-10.964
ᐃᔑᒋᑫᒪᑲ	-10.9646
ᐴᔔᐋ	-10.9668
ᔒᑫᓂᒥ	-10.9669
ᑭᒋᐊᐱᐎ	-10.9686
ᐸᔭᑌ	-10.9686
ᐊᓄᑮᑕᐗ	-10.9695
ᐊᓇᒥᐁᐎᑲᒥ	-10.9703
ᑭᒪᒋᑑᑕᒧᐎᓂ	-10.9715
ᐊᑕᐌᑕᒧ	-10.9716
ᐃᔑᐲᐃᑫ	-10.9717
ᓂᑎᓀᑕ	-10.9721
ᓵᑲᐃᑲ	-10.9722
ᑳᑮᐃᓈᑯᓂ	-10.9732
ᐅᓈᑯᔑ	-10.9732
ᑲᓇᐌᒋᑫ	-10.9732
ᐃᔅᑏᐱ	-10.9739
ᐅᒻᐺᑲᒥᑭᓯ	-10.9739
ᑑᐳᐎᓈᑯ	-10.9739
ᒪᐗᑎᓯ	-10.9739
ᓭᐸᑏ	-10.9739
ᔾ	-10.9739
ᐅᑳᐎᒥᓇᑲᔒ	-10.9739
ᑌᓴᓬᐊᓇᐃ	-10.9739
ᑕᐸᓭᓂᒧ	-10.9739
ᒪᒍᑌ	-10.9739
ᐗᓂᔥᑴ	-10.9739
ᒣᒥᑕᑫ	-10.9739
ᐅᒌᒫᑲᓇ	-10.9739
ᐲᓬᐃᑭ	-10.9739
ᐲᑯᐱᑑ	-10.9739
ᐅᑑᑭᒫᐎᐎ	-10.9739
ᑳᑎᐸᐃᑫᐃᐌ	-10.9739
ᐸᑯᓭᓂᒧ	-10.9739
ᐐᑕᓄᑮᒥ	-10.9739
ᑳᒋᑎᓈ	-10.9739
ᒀᕒᓃᓬᐃᔭ	-10.974
ᓃᓇᒥᓯ	-10.974
ᑲᓇᐌᓂᑎᓱ	-10.974
ᐅᓈᑯᓈ	-10.974
ᓯᑌᑳᐸᐎ	-10.974
ᐸᐸᑭᑌᐙᐙ	-10.974
ᑭᑎᑳᓈ	-10.9741
ᐃᔑᓂᔕᐗ	-10.9741
ᐸᑭᑎᓈᓱᐎᓈᐱ	-10.9744
ᑲᓇᐌᒋᑫᐎ	-10.9745
ᐃᔥᒀᓭᓯᓂᓂ	-10.9745
ᓂᓯᑐᑕᒧᐙ	-10.9747
ᐗᓃᑫ	-10.9748
ᐃᔥᒀᑌᒥᐗ	-10.975
ᒑᑭᓱ	-10.975
ᐊᐌᒋᑫᐎ	-10.9751
ᑭᒫᒫ	-10.9753
ᑲᔥᑮ	-10.9755
ᐃᓇᓵ	-10.9758
ᐃᔥᑯ	-10.9759
ᐁᔑᓂᑳᑌᓂ	-10.9764
ᑭᑎᑳᑌ	-10.9765
ᐋᓇᐌᑕ	-10.9766
ᐅᑮᐙᐸᒥᑰ	-10.9767
ᑮᐃᔑᓈᑾᓂᓂ	-10.9773
ᓵᑭᒋᐌᐱᓈ	-10.978
ᐅᑭᑫᑕᓰ	-10.978
ᒪᑲᑌ	-10.9781
ᓵᐃᑕ	-10.9783
ᒥᓄᓈᑾ	-10.9788
ᒥᓉᑕᒥᐃ	-10.9788
ᑲᔥᑭᒫ	-10.9789
ᐁᐐᒌᐌ	-10.9791
ᐅᑑᑭᒫᒥᐙ	-10.9792
ᒥᓍᒋᒥ	-10.9793
ᒥᓴᐌᑕᒧᐙ	-10.9796
ᐅᑎᓀᑕᒧᐎᓂᐙ	-10.9797
ᐅᑭᔐᒪᓂᑑᒥᐙ	-10.9798
ᑭᑖᐸ	-10.9798
ᑮᑕᔑᐗ	-10.9799
ᑭᑲᐙᐸᒥ	-10.9801
ᒉᕒ	-10.9811
ᐅᐱᒫᑎᓯᐎᓂᐙ	-10.9826
ᐅᑮᐅᔑᑑ	-10.9828
ᔔᓂᔮᐎ	-10.9831
ᑕᓱᐱᐴ	-10.9832
ᐁᐐᐊᓂ	-10.9832
ᒋᒪᓈ	-10.9843
ᒫᓀᑕᒧ	-10.9844
ᑳᑭᑫᓂᒫᓯ	-10.9851
ᐊᓇᒥᐁᑕᐙᐙ	-10.9861
ᒫᓇᒑᓂᔐᓴ	-10.9863
ᑭᔥᑮᔑᑯ	-10.9864
ᑳᓱᐙ	-10.9867
ᑰᓯᐙ	-10.987
ᐁᑲᓇᐌᑕ	-10.9874
ᓂᑎᑭ	-10.9882
ᐁᑲᑭᑐ	-10.9888
ᑲᓅᓂᑯᐙ	-10.9892
ᑌᑖᑾᓂᓂ	-10.9898
ᑳᐃᓈᑎᓯ	-10.9904
ᑮᐃᓈᐱ	-10.9907
ᐅᐐᔭᐎᓂ	-10.9907
ᒋᐱᒥᓂᔕᐅ	-10.9921
ᑭᑭᔥᑲᐙᓂ	-10.9921
ᐅᓀᑖ	-10.9923
ᐅᒦᒦ	-10.9933
ᑭᔐᐙᑎᓯᐎ	-10.994
ᓃᒌ	-10.9944
ᑮᑮᐌᐱᒫᑎᓯᐋ	-10.9959
ᐅᒋᑕᑯ	-10.9963
ᔂᑕ	-10.9976
ᒪᔥᑲᐌᑕᒧ	-10.998
ᔑᓄᐙ	-10.9987
ᐐᒋᐋᐙ	-10.9989
ᑌᐺᑕᒪ	-11.0002
ᑳᑮᓂᐳ	-11.0015
ᐊᓇᒥᐁᐎᑭᒫᐎ	-11.0018
ᒥᑯᔥᑳᒋᐃ	-11.0021
ᐐᑌ	-11.0022
ᐁᒫᐗᒋᐃᑎ	-11.0022
ᐃᒋᑲᓂᐎ	-11.0024
ᑭᑭᓄᐊᒫᑯᐙ	-11.0034
ᐹᒫ	-11.0037
ᐅᒥᓍᒋᒧᐎ	-11.0045
ᒋᐃᔑᒋᑫᔦ	-11.0046
ᐱᒥᔑ	-11.0049
ᐙᐸᒋᑳᑌ	-11.0049
ᒋᐸᑭᑎᓂ	-11.0058
ᑭᑲᔑ	-11.0062
ᑳᓂᐎ	-11.0077
ᐅᑌᐺᑕᒧ	-11.0087
ᑭᑭᓄᐊᒫ	-11.0091
ᓵᐃ	-11.0095
ᑳᒪᔥᑲᐎᓰ	-11.0099
ᐙᐸᒣ	-11.01
ᑭᐸᐊ	-11.0105
ᓈᑕᒪᐎ	-11.0106
ᐸᑯᓭᓂᒥᑰ	-11.0117
ᐱᓀᓂ	-11.0121
ᐁᐋᐸᒋᑑ	-11.0127
ᔕᔒᐱ	-11.0135
ᐁᐅᒌᒪᑲ	-11.0158
ᐲᔖᓰ	-11.0167
ᐊᓂᒫᒑ	-11.0171
ᑫᔭᐸ	-11.0183
ᐃᓀᑕᒧ	-11.0216
ᑳᑑᑕᐎ	-11.0218
ᒎᓇ	-11.0239
ᑭᒋᐎᓇ	-11.0247
ᑮᒋᐱᒫᑎ	-11.0249
ᑲᓇᐌᑕᒥᓂ	-11.0258
ᑌᐺᔦᑕᒧ	-11.026
ᑳᑮᐙᐸᑕ	-11.0267
ᐁᓅᑖᑯ	-11.0271
ᒥᓍᒋᒧᐎᓂ	-11.0272
ᑲᓅᑕ	-11.0313
ᑲᑕᐎ	-11.0326
ᑎᐸᐊᒫᑰ	-11.033
ᑭᑮᒦᓂᑯ	-11.0345
ᐱᒫᒋᐃᓇ	-11.038
ᒥᑯᔥᑳ	-11.0413
ᑎᐸᐊᒫᑰᐎ	-11.043
ᑳᐱᒥᓂᔕᐅ	-11.0434
ᑭᔐᐙᑎᓯ	-11.0497
ᒥᓴᐌᑕᒪ	-11.0502
ᑕᔑᑌ	-11.0567
ᐯᒫᑎᓯ	-11.0584
ᐸᐃᑎ	-11.0596
ᐙᐱᓰ	-11.0611
ᓃᒋᑭᐌ	-11.0648
ᐃᓀᑕᒨ	-11.0664
ᑳᑕᓶᐙᓇᑭᓯ	-11.0675
ᐙᐸᑕᓰ	-11.0691
ᐃᓇᒀ	-11.0703
ᐅᐙᑳᐃᑲ	-11.071
ᓵᒥᓂ	-11.0718
ᐙᓴᑯᓀ	-11.0722
ᑾᔭᒀᑎᓰ	-11.0732
ᑭᑎᓀᑕ	-11.0736
ᐱᔑᒀ	-11.0738
ᐯᔓᓈᑾ	-11.0738
ᑭᑎᓀᑕᒧᐎ	-11.0738
ᐐᑕᓄᑮᒫᑲ	-11.0739
ᐅᒋᒌᑾᓇᐱ	-11.0739
ᐲᐙᐱᑴᔮᐲ	-11.0739
ᑭᐱᔥᑭᐗᓯᑲ	-11.0739
ᑭᑎᑳᓈᑎᑯᑳ	-11.0739
ᑳᐯᐸᑳᓉᐙᓇᑭᓯ	-11.0739
ᓇᒪᑎᓂᑭ	-11.0739
6	-11.0739
ᐅᑑᑌᓈᒥ	-11.0739
ᐅᔅᑲᑎᑯ	-11.0739
ᐋᓬᐃᑭᓵᑕᕒ	-11.0739
ᐯᑕᓬᐃᐁ	-11.0739
ᑮᔖᐯᐎ	-11.0739
ᒋᔖᐾ	-11.0739
ᐃᓈᐸᑎᓯ	-11.0739
ᐃᔅᑫᕒᐃᔭ	-11.0739
ᐅᑭᒫᑲᑖᑫ	-11.0739
ᐅᑮᒨᒋᔥᑲ	-11.0739
ᐲᐌᓰᒪ	-11.0739
ᑭᑌᐺᔦᑕᒧᐎᓂᐙ	-11.0739
ᑲᒀᓂᓴᑫᑖᑾ	-11.0739
ᑳᐅᔥᑳᑎᓯ	-11.0739
ᒪᒫᒋᑾᐱᓂ	-11.0739
ᔕᔒᐯᓂᒥ	-11.0739
ᐱᔑᒀᒋᑴ	-11.0739
ᐱᑕᐊᓈ	-11.0739
ᐃᔥᐸᑎᓈ	-11.0739
ᔖᐗᓄ	-11.0739
ᒥᓍᑎᓯ	-11.0739
ᑭᑌᑖᑯᓯᐎ	-11.0739
ᐅᑌᔥᑲ	-11.0739
ᑮᒫᐗᒋᐃᑎᐗ	-11.074
ᑴᑭᑳᐸᐎ	-11.074
ᑌᓄᐎ	-11.074
ᑳᓃᑳᓂᔥᑲ	-11.0741
ᒉᑲᐴ	-11.0741
ᐁᓈᒋᒥ	-11.0741
ᑭᐱᒫᑎᓯᐎᓂᓈ	-11.0742
ᓈᑲᒋᐋ	-11.0742
ᑭᑎᑳᓇᑲᒥ	-11.0742
ᐅᑲᔥᑭᐁᐎᓯᐎᓂ	-11.0742
ᒋᑲᑭᑐ	-11.0743
ᐱᓀᓯᐗ	-11.0745
ᐸᑭᑕᐙ	-11.0745
ᓀᓈᐎ	-11.0747
ᒥᑲᒧᐙ	-11.0748
ᑭᑌᓂᒧ	-11.0748
ᑕᓂᐳᓰ	-11.0749
ᐊᐱᓅᒌᔑ	-11.075
ᓂᑖᐸᒋ	-11.0753
ᐊᓄᑮᔮ	-11.0755
ᔑᒫᑲᓂ	-11.0756
ᓵᑭᒋᓂᔕᐊᒪᐙ	-11.0759
ᐅᒦᑭᐌᐎ	-11.0763
ᐐᑑᑲ	-11.0764
ᑲᑴᒋᒪ	-11.0764
ᐊᓅᓂ	-11.0766
ᑭᑫᓂᒣ	-11.0767
ᑕᐴᓀᑕᒪᐙ	-11.0775
ᓂᑖᓇᑮ	-11.0777
ᑕᐹᑏᓄᐗ	-11.0778
ᐅᒌᒪᑲᓯᓅ	-11.0783
ᐅᑮᐙᐸᑖ	-11.0785
ᐊᑯᓴᑲᐙᐙ	-11.0787
ᐐᒌᐎᓀ	-11.0788
ᐃᔑᓂᔕᐊᒪᐎ	-11.0789
ᐁᐊᓄᑮᑕᐗ	-11.079
ᐋᐸᒋᐃ	-11.0792
ᑳᐸᒦᑖᑫ	-11.0794
ᑮᐸᐹ	-11.0803
ᐅᑮᑲᓅᓂᑰ	-11.0803
ᐅᑭᔐᒪᓂᑑᒥ	-11.0809
ᐱᒫᒋᐃᑯ	-11.0812
ᐁᑮᓇᓈᑯᒫ	-11.0812
ᑳᑮᐊᑐᒫ	-11.0814
ᐊᐹ	-11.0818
ᐅᑮᒥᑲᐙ	-11.0819
ᑳᑌᓴᐱ	-11.0823
ᑲᓇᐌᓂ	-11.0825
ᒋᐐᑕᒫᑫᔮ	-11.0826
ᑳᐋᓇᐌᓂᒥ	-11.0831
ᒦᑳᓈ	-11.0832
ᒫᔑᓭ	-11.0833
ᐁᐃᓈᐱ	-11.0833
ᑭᑫᑕᓯᒀ	-11.0834
ᒋᐴᓀᑕᒪᐎ	-11.0835
ᐊᑯᓈᑾ	-11.0843
ᑌᐺᔦᓂᒥᑰ	-11.0848
ᑌᐺᐎᓂᐎ	-11.0857
ᓈᑯᓰ	-11.0865
ᑳᐅᔑᒋᑳᑌ	-11.0865
ᒋᑎᐱᓇᐌᐎᓯ	-11.0867
ᒋᓵᑭᐋ	-11.087
ᐎᓂᓈᓂ	-11.0882
ᑲᑴᒋᑎ	-11.0885
ᑳᑕᔑᑕᒫ	-11.0899
ᐲᓈᓂ	-11.0907
ᑌᐺᑖᑯ	-11.0913
ᒋᐐᑕᒫᑫ	-11.0914
ᐁᓂᐹ	-11.0915
ᐃᓇᑭᒥᑯ	-11.092
ᐁᑑᑕᒧᐙ	-11.0931
ᐃᔑᑭᑭᓄᐊᒫᑫ	-11.0941
ᑲᓂᓂᑭ	-11.0943
ᐅᑎᓀᑕᒧᐎᓂ	-11.0964
ᐸᑭᑎᓇᒫ	-11.0997
ᑮᔑᓈᑾᓂᓂ	-11.1011
ᒋᑌᐱᓇᒧ	-11.1019
ᒦᔑᔑ	-11.103
ᐐᒌᐎᒪ	-11.106
ᓇᐃᑕᒧ	-11.1062
ᐃᓀᑕᓰ	-11.1073
ᒋᒥᓄᐐᒌᐙ	-11.1086
ᒥᓄᒋᑫᐎ	-11.1095
ᐐᐃᔖ	-11.11
ᒋᒥᓄᐐᒌ	-11.1121
ᐹᑌ	-11.1136
ᐲᑌ	-11.1146
ᐊᑕᐎ	-11.1152
ᑲᑲᓅᓂ	-11.1175
ᒫᒌᓈ	-11.119
ᑑᑕᐎᓀ	-11.1196
ᐙᐸᑕᒧᐗ	-11.121
ᑕᑯᓂᑰ	-11.1218
ᓇᓃᓵᓂᓯ	-11.1254
ᑭᑕᓇᒥ	-11.134
ᑳᑮᐐᑕᒪᐙ	-11.1342
ᔖᑰᓱᒫ	-11.1347
ᑑᑕᐎᔭ	-11.1356
ᐙᐸᑕᐃᑯ	-11.137
ᑮᐌᐱᒫᑎ	-11.1373
ᒋᐃᔑᒋᑫᔮ	-11.1392
ᐋᐸᑕᓂᓂ	-11.1395
ᐊᑳᓯ	-11.1405
ᒋᑭᑫᒋᑳᑌ	-11.1406
ᒨᒪᑲ	-11.1449
ᐯᒥ	-11.1456
ᓵᔭ	-11.1459
ᒪᑲᒫ	-11.1461
ᓯᓬ	-11.1463
ᒫᒌᐸᐃᐌ	-11.1487
ᑌᐱᓇᒧᐙ	-11.149
ᐅᑭᒋᐊᓇᒥᐁᐎᑲᒥ	-11.15
ᑮᒫᓀᑕ	-11.1529
ᑕᐱᔑᒧ	-11.1548
ᑯᑖᓀᓂᒫ	-11.1551
ᑲᐲ	-11.1557
ᑮᐊᐸᑭ	-11.1573
ᑭᑫᑕᒫᐎ	-11.1607
ᐅᑮᓅᑖ	-11.1612
ᑮᐌᓄᑕ	-11.1671
ᒦᒋᒥ	-11.1679
ᐃᔑᐊᓄᑮ	-11.1694
ᑕᒪᐎᓇ	-11.1705
ᑖᑾᑭ	-11.1716
ᓅᑕᒫᑯ	-11.1736
ᐁᓇᓄᑮ	-11.176
ᒋᑎᐱᓭ	-11.1769
ᐁᐃᔑᓂᑳᑌ	-11.177
ᐅᑌᐺᔦᑕᒧᐎᓂ	-11.1786
ᒋᓈᓈᑲᒋ	-11.1798
ᐃᔑᐐᒋᐃ	-11.1808
ᐅᑮᑭᑫᑖ	-11.1826
ᓂᑎᓈ	-11.1827
ᐱᒫᑎ	-11.1831
ᐊᔦᒀᒥ	-11.1831
ᒥᓴᐌᑕᒧ	-11.1833
ᒫᓯᑑᓂ	-11.1835
ᐸᔥᑴᑭᓄ	-11.184
ᐅᓈᑲ	-11.1843
ᑭᐸᐅᑰ	-11.1845
ᐁᑲᑮᐹ	-11.1847
ᐅᑮᓇᑴᑖᑰ	-11.185
ᐅᑲᓇᐎᒫᓇᒑᓂᔑᐌ	-11.185
ᑕᐸᓭᑖᑯᓯ	-11.185
ᑭᑎᑫᐗᑲᒥᑯ	-11.185
ᑭᑕᓄᑮᐋᑲ	-11.185
ᐁᐃᔑᑮᔗ	-11.185
ᐅᑎᐹᒋᒨ	-11.185
ᐅᒑᓂᒣᑕ	-11.185
ᐯᐸᑳᓂᑮᔗ	-11.185
ᐱᔑᑮᓴ	-11.185
ᑭᓰᐲᑭᓯᑌ	-11.185
ᒌᐯᑲᒥ	-11.185
ᒪᒫᒋᑾᐱᓱ	-11.185
ᓂᓇᑕᐌᑖ	-11.185
ᓴᑭᓂᑫᓈ	-11.185
ᐅᐲᐌᓰᒥ	-11.185
ᑭᐐᔭᐎᓈᓂ	-11.185
ᑳᐃᔑᑮᔗ	-11.185
ᑭᒋᒨᑯᒫ	-11.185
ᐅᑲᓅᑕᒫᑫ	-11.185
ᐋᓇᐌᓂᒫ	-11.185
ᑾᔮᒋᑑ	-11.185
ᓂᓱᑮᔑᑾᑳ	-11.185
ᒀᕒᐃ	-11.185
ᑌᐺᔦᓂᒪ	-11.185
ᐋᓇᐌᒋᑫ	-11.185
ᐅᑴᓄ	-11.185
ᓭᓴᑰ	-11.185
ᐙᑳᐃᑫ	-11.185
ᑮᓭᑭᓯᐗ	-11.185
ᑎᐱᑭᑮᓯ	-11.1851
ᐗᐌᔑ	-11.1851
ᑭᑎᑳᓱ	-11.1851
ᑌᐸᑫᑖᑯᓯ	-11.1851
ᐋᐌᒋᑫ	-11.1851
ᓯᒥᔭ	-11.1852
ᑸᓇᐎ	-11.1852
ᓂᓯᑕᐎᓈ	-11.1852
ᐅᓂᑖᐎᑭᑑ	-11.1852
ᑭᑭᓇᐙᒋᒋᑲ	-11.1854
ᑲᓅᑕᒪᐎ	-11.1854
ᓇᑲᔑ	-11.1857
ᐊᑰᒋ	-11.1857
ᑮᐊᑕᐌᑖ	-11.1858
ᑭᐱᑎᓂ	-11.1859
ᐸᑲᒥᔥᑳᑯ	-11.186
ᑯᑖᓀᑖᑾᓂᓂ	-11.186
ᐊᓄᑮᑕᐌ	-11.1862
ᐅᑑᑭᒫᒥ	-11.1864
ᒋᑾᔭᑾᑭᒥ	-11.1866
ᔒᑫᑕ	-11.1867
ᐁᐱᓴᓯ	-11.1867
ᓂᓯᑐᑕᒨ	-11.1868
ᐐᒋᐐᓯᓃᒫ	-11.1869
ᐸᐸᑭᑌ	-11.1872
ᑳᑮᐅᓈᐸᒥᑯ	-11.1873
ᐱᓱᑫᔑ	-11.1874
ᐅᑮᐃᓇᓵ	-11.1876
ᓂᑮᒥᑲᐙ	-11.1877
ᐱᒥᐎᓈ	-11.1878
ᒋᑴᑳᑎᓯ	-11.1879
ᑲᑮᑖᐎᓯᐎ	-11.1879
ᑌᐺᔦᑕᒣ	-11.1884
ᐊᓈᒪ	-11.1886
ᐁᓇᑌ	-11.1889
ᓴᓇᑲᓂᓂ	-11.1907
ᐊᐌᓀᓂᐎ	-11.191
ᐅᑖᐱᓇᒧ	-11.191
ᑳᓀᑖᑾ	-11.1914
ᐅᑌᐺᔦᑕᒧᐎᓂᐙ	-11.1915
ᑕᓇᓈᑯᒫ	-11.1917
ᑮᑕᓇᒥᐋᓈᓂ	-11.1923
ᒋᐊᑕᐎ	-11.1924
ᑮᐅᒋᐅᔑᒋᑳᑌ	-11.1925
ᓂᑕᔮᓰ	-11.1933
ᐁᔑᓈᑯᓯᔮ	-11.1942
ᑳᐅᑌᐺᑕᒧᐎᓂᓯ	-11.1949
ᓵᑲᐊᒧ	-11.1973
ᐁᔑᐸᑯᓭᓂᒥ	-11.1976
ᑳᐅᔑᐲᐊᒪᐎ	-11.1988
ᑲᒀᑕᑭᐃᑰᐎ	-11.1992
ᑕᔕᐌᑖᑯᓯ	-11.1995
ᒪᑭᓯ	-11.2004
ᐅᑭᒫᐗᐱ	-11.2016
ᐲᑎᑲᓂᑯ	-11.2034
ᑫᐃᔑᓈᑯᓯ	-11.2041
ᑮᐃᔑᒋᑫᐗ	-11.206
ᐋᓈᐙ	-11.2091
ᑮᒋᑭᐌᓯ	-11.2091
ᑆᓇᐎᒋᑫ	-11.2125
ᐎᓀ	-11.2137
ᑕᔑᑕᒪᐙ	-11.2137
ᒌᑫᑕᒧᐎ	-11.2146
ᑲᑴᒋᐃᑰ	-11.216
ᑕᓇᑖ	-11.2171
ᑌᓯᓅ	-11.2177
ᒋᓂᔕᐅ	-11.2224
ᒋᑲᔥᑭᑑᔮ	-11.223
ᐌᓂᔑᔑᓂᓂ	-11.2241
ᐁᑮᐸᐹ	-11.2251
ᐲᓈᐙ	-11.2251
ᒋᐱᒫᒋᐃᑰ	-11.2252
ᐸᐃᐌᐗ	-11.2266
ᐃᓀᓂᒥᑯ	-11.2273
ᒋᑭᐌᔭ	-11.2276
ᓃᒋᑭᐌᓯ	-11.2281
ᐃᔑᐊᔮᔮ	-11.2282
ᓈᓯᑳ	-11.2289
ᐊᐎᐋ	-11.23
ᓂᔥᑳᑎᓯᐎ	-11.2316
ᑲᒀᑕᑭᐃᑯ	-11.2337
ᐊᐸᓂ	-11.2347
ᐸᑭᑎᓇᒫᑰ	-11.2367
ᐅᐐᑎᑫᒫᑲ	-11.2389
ᐅᑕᔭᐄ	-11.2416
ᐁᑕᔑᒫ	-11.243
ᑭᑮᓅᑖ	-11.2461
ᐃᔑᒦᓂᑰᐎᓯ	-11.2477
ᐗᐙᓀᑕᒥ	-11.2492
ᒦᑭᐌᐎ	-11.2497
ᒥᓄᑑᑕᐎ	-11.2501
ᑮᒋᑭᐌ	-11.2508
ᒪᑏ	-11.2515
ᑳᐐᓀᑖᑾ	-11.2517
ᐃᑴᐎ	-11.2526
ᐅᐐᑎᑫᒫᑲᓂ	-11.2527
ᐹᑭᓇ	-11.2529
ᑫᒦᓂ	-11.2531
ᑾᔭᑯᒋᑫᐎ	-11.2537
ᒦᓂᑰᐎ	-11.258
ᐃᓀᓂᒥᑰ	-11.2596
ᓂᑖᒪᒋᑑᑕ	-11.2608
ᑮᐋᐸᑕᓂᓂ	-11.2637
ᐯᑭᓯ	-11.2639
ᐅᔑᑕᒪᐎ	-11.2654
ᐅᒋᒥᓄᓭ	-11.2663
ᐊᔓᑕᒫᑎ	-11.2684
ᐅᑎᓇᒧ	-11.2721
ᐊᓉᐱᐎ	-11.2734
ᒋᐐᒋᐃᑯ	-11.2735
ᔔᒥᓈᑎ	-11.2782
ᑮᐊᑐᒥᑯ	-11.2792
ᓈᑾᓯᓂᓂ	-11.2795
ᒥᓍᒋᐋ	-11.28
ᐯᐸ	-11.2814
ᓂᑖᐎᑭᐋ	-11.2848
ᐙᓄᒀ	-11.286
ᐱᓯᑕᐙᓯ	-11.2864
ᓵᐸ	-11.2872
ᒪᒋᑭᑎᑳ	-11.294
ᒥᓄᐐᒌᑎ	-11.2948
ᒥᓉᑕᒧᐎ	-11.2984
ᐸᒦᑖᑫ	-11.3006
ᑭᑭᓇᐙᒋᐃ	-11.3011
ᒦᑴᒋᐌᑕ	-11.3015
ᐊᐲᑌᑖᑯᓯᓰ	-11.3043
ᑮᐋᐸᒋᐋ	-11.3054
ᐃᓈᑯᓂᑰ	-11.3057
ᒫᒪᑳᑌᑕᒨ	-11.3059
ᓂᓇᑕᐌᓂᒫ	-11.3077
ᐸᑭᑎᓂᑯ	-11.3088
ᐸᑴᐱᓈ	-11.3088
ᔔ	-11.309
ᑮᐗᔥᑴ	-11.3092
ᒋᐅᑭᒫᑲᑕ	-11.3093
ᐸᔕᔐᐙ	-11.31
9	-11.31
ᐐᓴᑳᐱᓀ	-11.31
ᑭᑑᔑᐲᐊᒫᑰ	-11.31
ᒥᔑᐱᔑ	-11.31
ᒪᑕᐐᐃᑎᓱ	-11.31
ᒫᑲᑕᓬᐊᐎᑴ	-11.31
ᓈᓂᒥᑕᓇ	-11.31
ᐅᑖᔑᑌᔮᑎᑯ	-11.31
ᐅᓇᑕᐌᓂᒫ	-11.31
ᐌᑕᑳᓀᓯ	-11.31
ᐸᓯᑴᐱᓱ	-11.31
ᑎᑎᐯᔩᑭ	-11.31
ᑳᑎᐯᓂᒪ	-11.31
ᓃᔥᑕᓇᔑᓃᐎ	-11.31
ᔔᒥᓈᐴ	-11.31
ᐊᑳᓰᓄ	-11.31
ᑭᓰᓂᒌ	-11.31
ᑳᐅᑭᒫᐌᑖᑯᓯ	-11.31
ᒪᒫᑳᔥᑳ	-11.31
ᓰᑲᐊᑕᐙ	-11.31
ᑭᑫᑌᔭᐋᒥᐙ	-11.31
ᑯᔥᒀᐙ	-11.31
ᐸᑲᒫᔑ	-11.31
ᑭᑭᓇᐙᐸᒥ	-11.31
ᓇᓇᐁᑕᒥᐋ	-11.31
ᐸᑫᐎᓂᑎ	-11.31
ᑲᒀᓂᓴ	-11.31
ᓅᑕᔮᐹᑴ	-11.31
ᐃᔑᓇᒧᐎ	-11.31
ᐊᔨᔑᓭ	-11.31
ᐊᔨᑭᑐ	-11.31
ᑭᓰᓯᐸ	-11.31
ᑭᐐᒋᐅᑌᐺᑕᒨᒥ	-11.31
ᑭᑭᔥᑲᐙᐗᓱ	-11.31
ᓂᐴᑕᒪᐙ	-11.31
ᐱᒥᓂᔕᐃᑫ	-11.31
ᐸᑕᑯᔥᑳᑯ	-11.31
ᓴᒣᕒᐃᔮ	-11.31
ᑭᐱᑎᓈ	-11.31
ᐊᑲᐙᑌ	-11.31
ᐱᒋᑯᓇᔦ	-11.3101
ᑮᑳᑎᐎ	-11.3101
ᐙᓭᓈᑯᓯ	-11.3101
ᑮᓃᐸᐎᐗ	-11.3101
ᒪᐎᓀᔥᑲᐙ	-11.3101
ᐅᑲᔥᑮᑮᐎᓂ	-11.3102
ᐅᓂᐴ	-11.3102
ᐱᒫᑎᓰᔥᑳᑫᒪᑲ	-11.3102
ᑮᐃᔑᐎᒋᑲᓂᐎ	-11.3102
ᑳᑕᓱᐯᔑᑯ	-11.3102
ᑳᑮᐋᓂᑫ	-11.3102
ᑎᐹᑯᓂᑫᐎᑮᔑᑲ	-11.3102
ᓈᐗᑴ	-11.3103
ᐙᑌᓭ	-11.3103
ᐗᓂᒋᑫ	-11.3103
ᐁᑕᓶᐙᓇᑭᓯ	-11.3104
ᒪᔥᑲᐌᑖᑾ	-11.3104
ᐯᔑᑯᑎᐸᐃᑲ	-11.3105
ᑲᓇᐌᑕᒫᑯ	-11.3105
ᑭᑕᑭᒥ	-11.3106
ᑳᐱᒥᓭ	-11.3106
ᑭᑎᔑᑲᓅᓂ	-11.3107
ᑭᑕᑭᒫ	-11.3107
ᐅᑮᒥᑲᓰ	-11.3108
ᑰᓯᓈ	-11.3108
ᓈᑯᐃᑎᓱ	-11.3108
ᒥᓍᐸᒥᑯᐙ	-11.3108
ᐃᔥᑾ	-11.3108
ᓂᐴᒥ	-11.3108
ᑭᑫᑖᑯᓯ	-11.3109
ᔖᑯᐙᓈ	-11.3109
ᐊᓴᐲ	-11.311
ᐅᑎᓇᐌᒫᑲᓇ	-11.311
ᒋᑫᒪᑲᓂᓂ	-11.3112
ᑖᐸᒋᑑᓰ	-11.3113
ᐅᑕᔕ	-11.3114
ᑳᔭᔮ	-11.3115
ᒫᔑᒋᑫ	-11.3116
ᐯᔓᓈᑾᓂᓂ	-11.3116
ᐅᑖᑲᔥᑭᑑᓰ	-11.3116
ᐐᒋᐐᓯᓃᒥ	-11.3116
ᐅᐴᑖᒋᑲ	-11.3118
ᓇᑴᑕᒨ	-11.3118
ᑭᒋᐊᓇᒥᐁᐸᒀᓀᑲᒥᑯ	-11.3118
ᐅᑮᐅᑎᑎᓈ	-11.3118
ᑲᕒᐄᑲ	-11.3121
ᐱᒫᑎᓰᐋ	-11.3121
ᑲᔥᑭᒋᑳᑌ	-11.3121
ᑳᑲᔥᑭᐁᐎᓯ	-11.3122
ᑳᑮᐊᔓᑕᒪᐎ	-11.3125
ᐸᒀᓀᑲᒥᑯ	-11.3127
ᔔᒥᓈᑎᑯ	-11.3128
ᑳᔖᓂ	-11.3128
ᐃᓇᑭᓱ	-11.313
ᐹᑏᓄᓈᓂᐗᓂᓂ	-11.3131
ᑭᑭᔐ	-11.3131
ᐅᑭᒫᑲᑕᐙ	-11.3134
ᑳᑮᐅᓀᓂᒫ	-11.3139
ᒥᓂᒀᑕ	-11.3139
ᒥᓄᐊᓄᑮᐎ	-11.3141
ᐁᑮᐋᐸᒋᐋ	-11.3147
ᒣᓂᑲᓈ	-11.315
ᑆᓇᐎᑑ	-11.3157
ᑯᒋᐃᑰᐎ	-11.3163
ᐅᓈᐯᒥᒫ	-11.3164
ᐅᑭᒋᐊᐱᐎᓂ	-11.3169
ᐁᑎᐯᓂᒥᓇ	-11.3169
ᑌᐐᓯᓂ	-11.3169
ᑮᐃᔑᒋᑫᓰ	-11.317
ᑕᐃᓇᑭᒫ	-11.3176
ᐃᓈᐸᒋ	-11.3192
ᑴᑮᓄᑕ	-11.3208
ᐊᑐᒥᑰ	-11.3209
ᐊᔓᑕᒪᐎ	-11.3228
ᐐᑑᑳ	-11.3235
ᐁᐅᑯᓯᓯᒥᑯ	-11.3237
ᐗᔦᔑᐋ	-11.3257
ᑕᐙᓯᐙᐙ	-11.3257
ᐅᑖᐱᓇᒪᐎ	-11.3272
ᑾᐃᑲ	-11.3279
ᐅᓈᐸᒥᑯ	-11.328
ᓂᓯᑕᐎᓇᓰ	-11.3309
ᐐᒋᐃᑰ	-11.3323
ᑫᑌᒪᓯᓇᐃᑲ	-11.3328
ᔑᐲᐊᒪᐎ	-11.3329
ᑎᐹᑯᓂᑲᓂᐎ	-11.3337
ᐐᒋᐃᑯᓰ	-11.3339
ᐲᒋᓂᔕᐅᑯ	-11.3354
ᐃᔑᒫᒌ	-11.3361
ᓅᑖᓈᐙ	-11.3373
ᐸᑭᓯᓂᓂ	-11.3377
ᒥᑳᑯ	-11.3381
ᑌᐸᑫ	-11.3386
ᒫᓀᑕᒣ	-11.339
ᐃᔑᑭᑭᓄᐃᑫ	-11.3445
ᐐᑾᑎᐎ	-11.3473
ᔒᐹ	-11.3495
ᐐᑕᒪᐎᑣ	-11.3532
ᑎᐸᐃᑫᐎ	-11.3542
ᐊᑕᐌᑕᒪ	-11.3569
ᐐᑕᒪᐗ	-11.3572
ᑭᒋᓅᑎ	-11.3583
ᑳᑮᑭᑫᒋᑳᑌᓯ	-11.3613
ᐅᓇᔓᐌᐎᑭᒫ	-11.362
ᔥᑳᒪᑲ	-11.3626
ᐃᔑᒋᑫᓈᓂᐗ	-11.3635
ᐸᑭᒌᓯ	-11.3737
ᐃᑭᑑᒪᑲᓂᓂ	-11.374
ᐅᑎᓯᑰ	-11.3748
ᔥᑭᓀ	-11.3753
ᐅᒋᑎᐯᑖᑾ	-11.3774
ᐌᐱᓂᑰ	-11.3792
ᑖᐃᑭᑐᓰ	-11.3804
ᐊᓄᑳᑕ	-11.382
ᒦᑳᓱᐎ	-11.3821
ᐃᓇᑭᒥᑰ	-11.3823
ᓰᑲᐊᑖ	-11.3834
ᑭᑎᑭᑐᐎ	-11.3842
ᒦᑳᑎᐎ	-11.3879
ᐃᔥᐸ	-11.3941
ᒋᐸᑭᑎᓇ	-11.3953
ᑳᐊᐲᑌᑖᑯᓯ	-11.3958
ᒋᑎᐯᓂᒥᑯᓯ	-11.3969
ᐅᑖᐱᓇᒣ	-11.3982
ᑳᑮᐅᓈᐸ	-11.4021
ᐊᓂᑮᐌ	-11.4032
ᐅᑕᓇᒥᐋᐎᓂ	-11.4054
ᐗᐱᐎᓂ	-11.4108
ᒥᓄᐃᔑᐌᐱᓯ	-11.4139
ᐙᐸᑕᒧ	-11.4167
ᔕᐌᑖᑯᓯᐎ	-11.418
ᑳᒪᒋᓈᑾ	-11.418
ᐊᐗᑳ	-11.4193
ᐊᔮᓰᐗ	-11.4196
ᐊᓅᑮ	-11.4258
ᐅᑑᑭᒫ	-11.4349
ᓵᑭᒋᐌᐱᓂ	-11.4355
ᐊᑯᓈ	-11.4359
ᑮᐃᑭᑐᑯᐸ	-11.4378
ᐊᕒ	-11.4397
ᑮᐊᓂᒫᒑ	-11.4399
ᓅᑖᑎᓯ	-11.4413
ᑎᐸᐃᑲᓀᔮ	-11.4435
ᑭᑭᔥᑳᑯᓰ	-11.4439
ᐅᔫᓯ	-11.4443
ᑎᓄᐎᒥ	-11.4478
ᐐᓯᓃᒫ	-11.4503
ᐅᑎᑎᓈ	-11.4512
ᐃᔥᐯᓂ	-11.4528
ᐅᑎᓇᐌᒫᑲᓂ	-11.4528
ᐊᑶᓬᐊ	-11.4528
ᐱᐁᓬᓯᐳᓬ	-11.4528
ᐸᐹᒣᓂᒥ	-11.4528
ᐸᕒᐃᓯᓬᐊ	-11.4528
ᒍ	-11.4528
ᓂᑯᑣᓯᒥᑕᓇ	-11.4528
ᐅᒋᒌᑾᓇᐲᑖ	-11.4528
ᐐᓴᑳᐸᓱᐌ	-11.4528
ᐹᐹᐗᐃᑫ	-11.4528
ᑭᑕᒑᑯᐙ	-11.4528
ᑭᔑᓱᐙᐱᓀ	-11.4528
ᒌᑲᑲᒥᑭᓯ	-11.4528
ᒪᓯᓇᐊᒪᐙ	-11.4528
ᒫᒫᑕᐆ	-11.4528
ᓂᑖᐎᑭᓈᐗᓱ	-11.4528
ᐅᐱᓯᑲᓂᐎᓯ	-11.4528
ᐊᑳᓭᑖᑾ	-11.4528
ᐌᑭᒫᐌᑖᑯᓯ	-11.4528
ᐗᓯᑖᐎᓭ	-11.4528
ᐱᓬᐃᐹ	-11.4528
ᐸᐲᑾᑎᓈ	-11.4528
ᐸᐸᑭᓀ	-11.4528
ᐸᐹᒣᓂᒫ	-11.4528
ᑳᐃᔑᐐᐸᑲᒥᑳ	-11.4528
ᑳᐅᓅᑕᒫᐎᓂ	-11.4528
ᑳᒥᓍᑎᓰᔑᑑ	-11.4528
ᒋᐸᐹᒣᑕᓯ	-11.4528
ᒥᓍᑐᑌ	-11.4528
ᒥᔕᑮᔮᓯ	-11.4528
ᒦᑴᒋᐌᓂᒥ	-11.4528
ᓂᑕᓄᑮᐋᑲ	-11.4528
ᓬᐁᔮᑎᓰ	-11.4528
ᐅᒥᓴᑖ	-11.4528
ᐊᔨᔑᒋᑫ	-11.4528
ᐱᔑᒀᑎᓰ	-11.4528
ᑕᓇᓄᑮ	-11.4528
ᑲᒀᑕᑫᑖ	-11.4528
ᑲᔥᑮᑎᐱᑭ	-11.4528
ᒪᔥᑭᑮᐎᓂᓂ	-11.4528
ᑎᑎᐲᑭᓂᑲᓂ	-11.4529
ᓃᑳᓇᑭᓱ	-11.4529
ᓰᑲᐊᑕᐎ	-11.4529
ᐅᐱᓯᑲᓀ	-11.4529
ᐅᑰᐹᓯᓈᑫᐎ	-11.4529
ᐱᔅᑲᓀ	-11.4529
ᐴᓂᓭᓯᓄ	-11.4529
ᒀᐱᑭᓯ	-11.4529
ᓂᓵᐹᐌ	-11.4529
ᑮᔥᑭᔑᑲ	-11.4529
ᐅᒥᓍᑎᓰᔑᑑ	-11.4529
ᑳᑭᑌᑖᑯᓯ	-11.4529
ᐁᔑᐌᐱᓯ	-11.4529
ᑯᔥᑯᓭ	-11.4529
ᐊᑐᒪᒀ	-11.4529
ᐅᔥᑲᔭᐄ	-11.4529
ᐊᔨᔑᑖ	-11.4529
ᐅᑳᑭᑲᓂ	-11.4529
ᐅᑎᑎᓂᑯ	-11.4529
ᐅᓃᑭᐃᑯ	-11.4529
ᓂᒫᓇᒑᓂᔑᒪ	-11.4529
ᐙᐱᔥᑳᓂ	-11.4529
ᐃᓇᑭᑎᓱ	-11.4529
ᓃᒥᓂᑫᓂ	-11.4529
ᐸᑕᑭᑌ	-11.4529
ᑭᑌᐃᓈᓂ	-11.4529
ᐙᐸᒫᐗᓱ	-11.4529
ᐃᔑᓂᑳᒋᑲᓂᐎ	-11.4529
ᑌᐺᔦᑖᑾ	-11.4529
ᓯᔮᑭᐃ	-11.4529
ᓂᐯᐎᓂ	-11.4529
ᑲᓇᐌᒋᑳᑌ	-11.453
ᑭᑎᓀᑖ	-11.453
ᑳᐃᓇᒧ	-11.453
ᐁᑲᓇᐙᐸᒥᑯ	-11.453
ᑎᓄᐙᑎ	-11.453
ᐗᓃᑫᓄᑕ	-11.453
ᑳᐅᓃᒑᓂᓯᒥᑯ	-11.453
ᑭᑌᐺᑕᒧᐎᓂᓈ	-11.453
ᑮᑮᔑᒋᑳᑌ	-11.453
ᓇᓇᐊᓵ	-11.453
ᓂᓯᑐᑕᒧᐎ	-11.4531
ᓂᔑᐗᓈᒋᐋ	-11.4531
ᑭᑎᑫᐗᑮ	-11.4531
ᑭᓇᑕᐌᑖ	-11.4531
ᒥᑖᔑᓃᐎ	-11.4531
ᐐᓴᑫᑕᒧᐎ	-11.4531
ᑲᓅᑕᒫᓱ	-11.4531
ᑳᐅᑌᑌᒫᐎ	-11.4531
ᓇᑭᔥᑳᑰ	-11.4532
ᒨᑭᒋᐗ	-11.4532
ᓃᓀᑕ	-11.4532
ᑭᔑᑌ	-11.4532
ᐱᒫᒋᐃᑎᓱ	-11.4532
ᑭᑎᔑᒋᑫᐎᓂᐙ	-11.4532
ᐱᓬᐃᔭ	-11.4533
ᑕᓀᑖᑯᓯ	-11.4533
ᐙᓭᔥᑲ	-11.4534
ᐊᔨᓈᐱ	-11.4535
ᐊᓄᑮᑕᐎ	-11.4536
ᐅᑖᓂᓴ	-11.4536
ᓂᔥᑫᓂ	-11.4536
ᔕᐌᓂᒥᑯᐙ	-11.4537
ᑭᒋᐅᓇᔓᐌᐎᑭᒫ	-11.4538
ᐯᑭᐃᑎᓱ	-11.454
ᑕᑾᑭᒥ	-11.4541
ᐃᓇᓯᑯ	-11.4542
ᑲᓇᐌᑖᑯᓯ	-11.4542
ᑰᓂᑫ	-11.4543
ᒋᒪᔥᑲᐌᑕᒥ	-11.4543
ᐸᑫᒋᑲ	-11.4545
ᐁᐐᐊᑕ	-11.4546
ᒌᑫᑕᒨ	-11.4546
ᐊᒑᑯᐎ	-11.4547
ᐅᑮᐅᑖᐱᓈᓈᐙ	-11.4548
ᐱᔑᑭᐗ	-11.4549
ᑲᑴᔖᑰᓱᑎ	-11.455
ᑳᑮᐃᔑᓂᑳᑌᓂ	-11.455
ᓬᐄᐸ	-11.4551
ᑯᐹᑌᓂ	-11.4551
ᐅᒋᐱᓂᑯ	-11.4551
ᐸᐸᑴᐱᓈ	-11.4555
ᑮᓀᑕ	-11.4555
ᐅᐸᒦᑖᑫ	-11.4556
ᐁᔮᐎᓂ	-11.4557
ᑭᐸᐅᒥ	-11.4563
ᓂᔑᐗᓈᑕᓂᓂ	-11.4564
ᑮᒋᐱᒫᑎᓰ	-11.4567
ᐐᒌᐙᑲᓇ	-11.4571
ᐊᓂᑲᑮᔑᑲ	-11.4572
ᓂᓯᑐᑕᒣ	-11.4572
ᐊᑖᐙ	-11.4574
ᐅᓯᑯ	-11.4577
ᑳᑮᐃᔥᒀᐱᒫᑎᓯ	-11.4582
ᓂᑲᒦᓈ	-11.4586
ᑭᑫᑖᑾᓯᓅ	-11.459
ᑮᐊᐸᑑ	-11.4593
ᑮᑕᓇᒥᐋᓈ	-11.4597
ᑭᒋᐴᑖᒋᑲ	-11.4603
ᑌᐊᐲᑌᑖᑯᓯᓰ	-11.4606
ᑲᓇᐌᑕᐃᓐ	-11.4628
ᐙᐸᑕᐃᔑ	-11.463
ᒋᐙᐸᒋᑳᑌᓂ	-11.4646
ᓇᐃᓭ	-11.4653
ᑭᑫᑕᒧᐎ	-11.4656
ᑭᑑᒋᑎᐯᑖᑯᓯ	-11.466
ᓴᑲᐅ	-11.4672
ᐱᑭᔑ	-11.4684
ᑮᔐᑕ	-11.4686
ᐸᑫᓯᐎ	-11.4697
ᑲᑳᓱᒫ	-11.471
ᐌᐱᓂᑲᓂᐎ	-11.4712
ᔒᑫᓂᒥᑯᐙ	-11.4717
ᒪᓂᑑᐎ	-11.4753
ᓈᓃᐸᐎ	-11.4781
ᐱᒫᒋᐃᐌᐎ	-11.4784
ᐙᐱᑲᓂ	-11.4814
ᑮᐌᓂᔕᐙ	-11.4819
ᒥᑯᔥᑳᑌᑕᒧ	-11.4821
ᔥᒀᑌᒥ	-11.493
ᑭᑭᓇᐙᑕᔕᑫᔓᑰ	-11.4942
ᐴᓀᑕᒫᑰ	-11.4976
ᐱᒥᓂᔕᐅᑰ	-11.5005
ᑭᑭᔥᑳ	-11.5032
ᐅᑮᓅᑕᐙ	-11.5109
ᔑᔑᓈ	-11.5135
ᔑᓂᑳᓂ	-11.5142
ᒋᑭᐌᓯᐗ	-11.5227
ᑭᑎᑭᑐ	-11.5266
ᐃᔑᓂᑳᑌ	-11.5318
ᒋᐅᑎᓇ	-11.5336
ᐊᓇᒥᐁᑕᒪᐎᔑ	-11.5339
ᐱᒫᔑ	-11.5433
ᐱᒥᓂᔕ	-11.5442
ᐙᐸᒫᓯᐙᐙ	-11.5492
ᐸᑭᑎᓇᒧ	-11.5493
ᑕᔑᒋᑳᑌ	-11.5505
ᓈᑾᓯᓄᑭ	-11.5537
2	-11.5546
ᐱᒫᒋᐃᑰᔭ	-11.5568
ᑾᔭᑴᓂ	-11.5573
ᐎᓂᓃᒪ	-11.558
ᐲᕒᐃ	-11.5624
ᑯᒋᐃ	-11.5629
ᑭᑭᔥᑲᒣ	-11.565
ᑭᑫᒋᑳᑌᓯᓄ	-11.5673
ᐁᐐᒌᐎᓇ	-11.5682
ᑆᓇᐎ	-11.5713
ᑎᓯᐎᓂ	-11.5865
ᓂᔑᐗᓈᑎᓯᐎ	-11.5869
ᑭᑎᓈ	-11.5922
ᒥᓍᒋᐃ	-11.5954
ᓈᐱᑭᓯ	-11.5967
ᐴᓀᑕᒪ	-11.5976
ᐅᑮᓰᑭ	-11.5986
ᑮᑕᓇᒥᐋ	-11.6004
ᒫᓀᑕᒧᐎ	-11.6012
ᑯᑖᓀᓂᒥ	-11.6028
ᑳᓱᐗ	-11.6046
ᓂᑎᓀᑕᒧᐎᓂ	-11.6048
ᒫᔑᒥᑕᑎ	-11.6075
ᑎᐯᑖᑯ	-11.6078
ᐴᑖᒋᑲ	-11.6085
ᓰᑭᓈ	-11.6091
ᐃᓈᓴᒥᑳᐸᐎ	-11.6091
ᓈᑕᒫᑯ	-11.6092
ᓈᓯᑳᑰ	-11.6114
ᑲᐸᕒᓂᔭ	-11.612
ᐊᑯᓴᑲᐙ	-11.6131
ᐅᑾᔭᒀᑎ	-11.6134
ᒸ	-11.6138
ᐁᐅᑯᓯᓯᒥ	-11.6169
ᓇᐃᓂᑏᐎᑲᒥ	-11.617
ᔖᑰᓱᒥ	-11.6179
ᑕᐸᓯ	-11.6191
ᒪᑲᑗ	-11.6192
ᐸᐹᐐᑕᒫᑫ	-11.6194
ᒦᑴᒋᐎ	-11.6195
ᐃᕒᐆᑎᔭ	-11.6195
ᐅᔥᑲᐱᓅᒌ	-11.6195
ᐌᑭᒫᐙᑎᓯ	-11.6195
ᐙᓴᑯᓀᒋᑲᓈᑎᑯ	-11.6195
ᐱᒀᐎᑲᓀ	-11.6195
ᑕᑌᐱᓇᒫᓱ	-11.6195
ᑲᓬᐁᔑᔭ	-11.6195
ᑳᐊᑳᓭᑖᑯᓯ	-11.6195
ᒐᕒᐆᐗ	-11.6195
ᒪᓯᓇᐃᑫ	-11.6195
ᓃᔗᐙᓇᑭᓯ	-11.6195
ᓇᓃᓵᓀᑕ	-11.6195
ᓬᐃᔅᑕᕒᐊ	-11.6195
ᐅᔖᐗᔥ	-11.6195
ᐊᔮᒀᒥᓰᑲᑕ	-11.6195
ᐌᑯᓯᓯᒥ	-11.6195
ᐐᓯᓂᐎᓈᑎ	-11.6195
ᐸᐲᒶᓯᓇᐃ	-11.6195
ᑕᐸᓭᓂᑎᓱ	-11.6195
ᑭᓰᔩᑴ	-11.6195
ᑰᐹᓯᓇᐙ	-11.6195
ᐋᐃᑰᓂᔭ	-11.6195
ᐐᑯᐲᒪᑲ	-11.6195
ᐲᓯᑲᐙᑲ	-11.6195
ᐹᑭᑌᓇᒫ	-11.6195
ᑭᑭᔥᑭᑫ	-11.6195
ᒋᐃᔑᐊᓈᒣᑖᑯᓯᓯ	-11.6195
ᒑᑭᓯᑳᑌ	-11.6195
ᓂᑌᐃᓈᓂ	-11.6195
ᐐᒋᑳᐸᐎᑖᑯ	-11.6195
ᑭᑭᓇᐙᒋᒋᑫ	-11.6195
ᓂᑎᑭᑐᓰ	-11.6195
▁¦14	-11.6195
ᐋᐸᒋᑖᐗ	-11.6195
ᐋᔕᐎᔥᑳ	-11.6195
ᐲᑕᒪᐎᔑ	-11.6195
ᑌᐯᓂᒥ	-11.6195
ᑳᐅᑭᒫᑲᑕ	-11.6195
ᑭᑎᒫᑫᓂ	-11.6195
ᒫᒪᑳᓯᓈᑾ	-11.6195
ᐅᑎᐯᑖ	-11.6195
ᐃᓉᒪᑲ	-11.6195
ᓵᑭᐃᑎᓱᔭ	-11.6195
ᑳᑮᐙᐱᓯᓂ	-11.6195
ᐊᑐᑕᒫᑫ	-11.6195
ᐐᒋᔭᔮᒥ	-11.6195
ᒨᔕᑭᓂᑫ	-11.6195
ᓵᒥᓇᒪᐙ	-11.6195
ᑳᐊᐯᓂᒧᓄᑕ	-11.6195
ᐅᒫᓇᒑᓂᔑᒪ	-11.6195
ᒥᓴᐌᑖ	-11.6195
ᐸᑕᑭᓱ	-11.6195
ᐲᑎᑲᔑ	-11.6195
ᑲᑮᐹᓯ	-11.6195
ᓂᐱᒫᑎᓯᐎᓂᓈᓂ	-11.6195
ᐅᑮᔑᑳᒥ	-11.6195
ᐸᐹᐱᓯᔅᑫᑕᓰ	-11.6195
ᒪᒐᑭ	-11.6195
ᑎᐹᑐᑌ	-11.6195
ᑰᐹᑌᓂᒫ	-11.6195
ᐅᑕᑖᐌ	-11.6195
ᐙᑳᔮᐱᑭ	-11.6195
ᐲᑎᑲᐙ	-11.6195
ᐊᓄᑲᐗ	-11.6195
ᑑᓇᔓᐌᐎᓂᓈ	-11.6195
ᓂᒥᑲᒧᐙᓰ	-11.6195
ᓈᓯᐲ	-11.6196
ᐅᑲᐱᓯᑕᐙ	-11.6196
ᑾᔮᒋᑕᒫ	-11.6196
ᐸᑕᑭᑑ	-11.6196
ᓇᒥᐁᐗᓄᑮ	-11.6196
ᒥᔕᐗ	-11.6196
ᐅᑎᓇᓰ	-11.6196
ᐃᓇᒪᒋᐅ	-11.6196
ᑕᐃᔥᒀᓭᓯᓅ	-11.6196
ᓈᐱᔥᑭᑲ	-11.6196
ᑭᐹᑾ	-11.6196
ᐗᑫᑕᒧ	-11.6196
ᐅᑌᑎ	-11.6196
ᑮᒥᓄᐊᔮᐗ	-11.6196
ᐅᐸᑴᔑᑲᓂᒪ	-11.6196
ᐸᑴᔑᑲᓂᑳᓇ	-11.6196
ᑫᐅᑎᓇ	-11.6196
ᓵᐃᕒᐄ	-11.6196
ᑕᓱᐱᐴᓉ	-11.6197
ᓂᑕᒑᑯ	-11.6197
ᓴᑲᐊ	-11.6197
ᐋᔩᒋᑳᐸᐎ	-11.6197
ᑮᑭᒋᒫᒪᑳᑌᑕᒨ	-11.6197
ᐋᒋᒋᑳᑌ	-11.6197
ᑳᒫᑭᓯ	-11.6198
ᐲᑕᒪᐙᐙ	-11.6198
ᐅᑲᑮᑖᐌᑕᒧᐎᓂ	-11.6199
ᐊᓈᒥᒫᐙ	-11.6199
ᓂᓂᑭᔥᑳ	-11.6199
ᐊᐗᓱ	-11.62
ᓂᑕᓄᑮᐎ	-11.62
ᑮᓯᓲ	-11.62
ᐅᑕᔮᐎᓂᓂ	-11.62
ᐱᑾᑕᑮ	-11.62
ᐊᓂᒥᑯᑖ	-11.62
ᓂᒪᓂᓂ	-11.62
ᐗᓈᑕ	-11.6201
ᐃᔥᐱᔥᑳ	-11.6201
ᑭᐴᔔᐃ	-11.6202
ᑲᑖᑯᐙ	-11.6202
ᐱᓯᑕᐙᐙ	-11.6202
ᓂᑎᐹᒋᒧᐎᓂ	-11.6202
ᑎᐹᑐᑕᒧᐙ	-11.6202
ᐅᓯᑕ	-11.6202
ᑕᑯᓂᑲᓇ	-11.6203
ᑲᓇᐌᓂᒥᑯᐙ	-11.6203
ᐅᔑᐲᐃᑳᓱ	-11.6204
ᑰᐹᑌ	-11.6204
ᑮᑭᑑᑕᒪᐙ	-11.6205
ᓵᑳᑌ	-11.6205
ᔖᑰᒋᐃᑯ	-11.6207
ᑫᑌᑖᑯᓯ	-11.6207
ᒫᒪᑳᑌᑖ	-11.6207
ᑆᑕᐐ	-11.6208
ᐃᔑᐌᐱᓯᐎᓂᐙ	-11.6208
ᑭᒋᐗᒋ	-11.6209
ᐱᒥᐗᓈ	-11.6211
ᑭᑎᑯᐙ	-11.6212
ᑌᑕᒧ	-11.6213
ᒥᑴᑖ	-11.6214
ᓂᑎᓀᑖ	-11.6215
ᐅᓈᑯᓇ	-11.6216
ᑕᐲᑎᑫᓰ	-11.6216
ᒋᐅᒋᔥᑲᐎ	-11.6216
ᐐᒌᐎᔭᒥ	-11.6218
ᐗᓇᑯ	-11.6219
ᐊᓇᒥᐁᑕᐌ	-11.6219
ᐃᔑᑣᐎ	-11.622
ᓇᑕᐌᓂᒫᓯᐙᓈ	-11.6226
ᓇᐃᑕᐙᐙ	-11.6231
ᒥᓋᑭᒥᑰ	-11.6237
ᑳᓂᐳᐙᐱᓀ	-11.6238
ᐁᐙᐱᓯ	-11.624
ᔔᒥᓂᑭᑎᑫᐎ	-11.6247
ᐱᑕᑯᔑᓅᒪᑲ	-11.6248
ᐐᑾᑎᐗᑲᒥᑭᓯᓈᓂᐗ	-11.6258
ᐃᓀᒋᑲᓂᐎ	-11.6262
ᓵᑭᓯᐃ	-11.6266
ᑖᑎᓰ	-11.6273
ᑮᐅᔑᐲᐃᑳᑌᓂ	-11.6273
ᓴᑲᐅᓈ	-11.6275
ᑳᐃᓈᒋᒥ	-11.6285
ᐴᓂᓭᓂ	-11.6285
ᑲᑮᑴᓄᑕ	-11.6285
ᐁᑌᐺᒪᑲᓂᓂ	-11.6289
ᒥᓄᑯᓇᔦ	-11.6291
ᐁᒦᑴᒋᐌ	-11.63
ᒋᓂᐳᓯ	-11.6308
ᐁᑮᐊᔮᐙᓯ	-11.6315
ᐊᔮᒪᑲᓯᓄ	-11.6318
ᑲᔥᑭᐊ	-11.6319
ᓴᓇᑲ	-11.6319
ᓈᓄᑮ	-11.6321
ᐅᑎᔑᐊᔮᐎ	-11.6334
ᑮᓅᑖᑎ	-11.6339
ᑴᑭᐱᒫᑎᓯ	-11.634
ᐱᒥᐗᓀ	-11.6342
ᑕᐎᓇᒪᐎ	-11.6348
ᑭᓂᒌ	-11.6365
ᐅᒋᒫᒌᑭ	-11.6369
ᓂᔕᐅᑯ	-11.6389
ᐙᓭᔥᑳ	-11.6409
ᑮᐊᒸᐙ	-11.6421
ᐐᒋᐊᔮᒪ	-11.6513
ᒋᑴᑮ	-11.6514
ᐅᓀᑕᒧ	-11.6575
ᒋᑑᑕᒥ	-11.6601
ᓂᔕᐅᑣ	-11.6606
ᔔᒥᓈᑎᑰ	-11.6606
ᐅᑕᒋᑫ	-11.6679
ᑭᑭᓇᐙᑕᔕᑫᔓᑰᐎ	-11.671
ᐐᑕᐱᒥ	-11.6781
ᓇᓈᑕᐙᐸᒥ	-11.6785
ᓃᑕᓇᒥᐋᓈ	-11.681
ᑌᑕᒨ	-11.6846
ᐁᑾᔭᑴ	-11.689
ᐅᔫᓯᒫ	-11.6902
ᐅᔑᑕᒪᐙ	-11.6905
ᐃᔑᐊᔮᐎ	-11.696
ᐲᑕᒪ	-11.6972
ᐃᓈᑯᓈ	-11.6973
ᐊᐱᐎ	-11.7008
ᑎᐱᑑᑕ	-11.7034
ᒦᓂᑰᐎᓯᐎ	-11.7059
ᐙᐸᑕᐃᑰ	-11.7085
ᑕᑯᔑᓅᒪᑲ	-11.7135
ᑭᑌᓂᒥᑰ	-11.7216
ᓈᑲᒋᐃ	-11.7358
ᑲᓈᑎ	-11.7393
ᑴᑲᓂ	-11.7404
ᐊᐲᑌᑖᑯᓯᓯ	-11.7512
ᐊᑐᓀᐊ	-11.7517
ᑌᐊᐲᑌᑖᑯᓯ	-11.7541
ᑳᑭᑭᓄᐊᒫᑯ	-11.7544
ᐊᐯᓂᒧᓄᑕᐎ	-11.759
ᐅᐱᒫᑎᓰᒥ	-11.7711
ᐊᔓᑕᒪ	-11.7802
ᑭᑎᓇᐌᒫᑲ	-11.7861
ᒋᐊᔕᒥ	-11.7892
ᒋᒫᓀᑕ	-11.7961
ᑖᐱᓇᓰᓈᐙ	-11.8018
ᐅᔥᑮᔑ	-11.8038
ᐊᒫᑯ	-11.8073
ᒫᐗᑑᓈ	-11.8135
ᒥᓋᑭᒥ	-11.815
ᐸᒀᓀᑲᒥ	-11.815
ᑮᐃᑭᑑ	-11.8153
30	-11.816
ᐊᔭᐋᒥᓈᐸ	-11.8166
ᐱᔑᑭ	-11.8167
ᐐᓯᓃᒥ	-11.8168
ᐊᑑᐹᓇ	-11.8177
ᒫᒪᑳᒋ	-11.8188
ᐲᐃᑫᔮ	-11.8191
ᑏᐎᑲᒥᑯ	-11.8193
ᐅᔒᒣᔑ	-11.8195
ᑎᑎᐲᑭ	-11.8195
ᒨᒀᐱᓀ	-11.8195
ᐅᑮᐙᑎᓰᑴ	-11.8195
ᐅᓈᑲᑕᐌᑕᒧᐎᓂᐙ	-11.8195
ᐊᔨᔑᑮᔗ	-11.8195
ᐸᑭᑕᓈᒧ	-11.8195
ᑲᑴᒋᑲᔑᐌ	-11.8195
ᑳᑲᑴᓇᑳᔥᑲᐙ	-11.8195
ᒥᔅᑯᒥᓂᑫᓯ	-11.8195
ᒪᒋᑭᓀᐱᑯ	-11.8195
ᒪᒫᑕᐎᒋᑫ	-11.8195
ᒶ	-11.8195
ᓃᑳᓀᓂᑎᓱ	-11.8195
ᓇᑖᓂᔭᓬ	-11.8195
ᓵᑲᐃᑲᓂᑳᓀ	-11.8195
ᐁᕒᐃᔅᑖᕒᑲ	-11.8195
ᐃᓈᓴᒥᑳᐸᐐᑕ	-11.8195
ᐃᔥᐯᑖᑾᓂᓂ	-11.8195
ᐅᑎᑎᓂᑰ	-11.8195
ᐅᑕᐱᓅᒌᔑᒥ	-11.8195
ᐸᐲᒶᓯᓇᐋᐙ	-11.8195
ᐹᐱᓄᑖᑫ	-11.8195
ᑕᐸᓭᓂᒫ	-11.8195
ᑭᑭᓄᐎᓈ	-11.8195
ᑭᒋᐙᒥᑲᐃᑲ	-11.8195
ᑲᒀᑕᑲᓄᑮ	-11.8195
ᑲᔥᑭᐃᑯᓰ	-11.8195
ᑳᑮᐅᑫᑌᔭᐋᒥ	-11.8195
ᒨᔥᑭᓇᑑ	-11.8195
ᒪᑗᔮᐲᑭᐱᒋ	-11.8195
ᒪᒫᒋᑾᐱᓈ	-11.8195
ᓂᔑᐗᓈᑕᑲᒥᑭᓯ	-11.8195
ᓃᑳᓃᑕᒫᑫ	-11.8195
ᓇᓃᓵᓀᑖ	-11.8195
ᔕᔒᐯᓂᒫ	-11.8195
ᔖᑴᓂᒧᓰ	-11.8195
ᐁᓈᓴᒥᑳᐸᐎ	-11.8195
ᐁᓈᓴᒪᐱ	-11.8195
ᐅᑑᓃᒑᓂᓯᒥ	-11.8195
ᐅᑮᒫᒪᑳᓯᑖ	-11.8195
ᐅᒋᒌᑾᓇᐲᑕᐙ	-11.8195
ᐊᑕᐗᓄᑮ	-11.8195
ᐊᔫᑾᐱ	-11.8195
ᐋᐹᐱᑲᐃᑲ	-11.8195
ᐯᕒᐊᓯᐗ	-11.8195
ᐸᑯᓀᔮ	-11.8195
ᐸᑴᔑᑲᓂᑳᓀᓴ	-11.8195
ᐸᓰᑴᑲᓈᒥ	-11.8195
ᑖᔥᑮᑭᓭ	-11.8195
ᑭᐲᑭᓂᑲ	-11.8195
ᑭᑕᐯᓂᒧᐎᓂ	-11.8195
ᑭᑕᔮᒀᒥᒥ	-11.8195
ᑭᒋᐊᔭᐋᒥᐙ	-11.8195
ᑭᓃᒑᓂᓯᐙ	-11.8195
ᑰᐹᓯᓇᐎᔑ	-11.8195
ᑳᐗᓂᑭᑭᓄᐃᑫ	-11.8195
ᑳᑕᓶᐙᓇᑭᓈᑯᓯ	-11.8195
ᒪᓂᒎᔕ	-11.8195
ᓇᑕᐌᑕᓰ	-11.8195
ᔖᑰᓱᑖᑯᓯ	-11.8195
ᐙᓭᒋᑲᓈᐱ	-11.8195
ᐲᑴᑕᒧᐎ	-11.8195
ᑮᒋᑯᔥᑲ	-11.8195
ᑲᔥᑭᐁᐎᓰᒪᑲ	-11.8195
ᐲᓯᐴᒋ	-11.8195
ᑎᐹᒋᑎᓱ	-11.8195
ᓂᑕᓇᒥᐁ	-11.8195
ᓂᔑᐗᓈᒋᑕᒪᐙ	-11.8195
ᓈᒋᐐᑯᐱ	-11.8195
ᔥᑫᑕᒧᐎ	-11.8195
ᐅᑌᓇᓂ	-11.8195
ᐋᔮᓂᑫ	-11.8195
ᑭᑫᑕᒨᔑᐌ	-11.8195
ᑮᑭᒋᓭᑭᓯᐗ	-11.8195
ᒉᐃᕒᐊ	-11.8195
ᐲᑖᐸᓂᓂ	-11.8195
ᒑᔓᐙ	-11.8195
ᒦᑭᓱᒫᐙ	-11.8195
ᒫᒨᔕᑭᓈ	-11.8195
ᓃᔥᑕᓇ	-11.8195
ᔒᑫᓂᑎ	-11.8195
ᐊᑕᐌᑖᑾ	-11.8195
ᐯᑫᑖᑯᓯ	-11.8195
ᑯᑖᐎᑭ	-11.8195
ᐊᓂᒥᑯᐸᓂᐅ	-11.8195
ᒥᓍᐸᒫᓰ	-11.8195
ᑳᓂᔥᑫᓂᒥ	-11.8195
ᐅᐐᔮᓯ	-11.8195
ᐲᑎᑲᑑ	-11.8195
ᑲᑮᑭᒫ	-11.8195
ᒫᒦᓄᐸᔕᔐ	-11.8195
ᐊᓇᒥᒋᑳᑌ	-11.8195
ᐋᔑᑌ	-11.8195
ᓀᐗᒋᑮᔑ	-11.8195
ᐊᒀᐸᑌ	-11.8195
ᔕᐌᒋᑫ	-11.8195
ᑭᑭᑯᓇᔦᓯ	-11.8195
ᑫᐃᓈᒋᒥ	-11.8195
ᒋᔖᑰᒋᐊ	-11.8195
ᓲᑭᑳᐸᐎ	-11.8195
ᐅᑕᐃᐹ	-11.8195
ᐃᔑᒋᑳᓂᐗ	-11.8195
ᐴᔔᐃᑎ	-11.8195
ᐅᑮᐅᒋᒌᑾᓃᑕᐙ	-11.8195
ᑳᑭᑕᑭᑌ	-11.8196
ᐸᐹᐱᓯᔅ	-11.8196
ᐌᐱᓇᒪᐙ	-11.8196
ᓰᑭᓂᑳᑌ	-11.8196
ᐅᑮᓇᑲᑖ	-11.8196
ᒪᓂᐱᑑ	-11.8196
ᒎᒎᔖ	-11.8196
ᐅᓈᑯᓂᐌ	-11.8196
ᑮᐲᑕᒪᐙ	-11.8196
ᑮᓇᒪᑕᐱᐗ	-11.8196
ᐃᓀᓂᒪ	-11.8196
ᐴᑖᒋᑫ	-11.8196
ᒋᓵᑭᐃᑎᔭ	-11.8196
ᒋᐱᒫᒋᐊ	-11.8196
ᓵᑮᔭ	-11.8196
ᐊᐌᑴᓇ	-11.8196
ᔖᑯᐙᓂ	-11.8197
ᒥᑖᔑᓃᔓ	-11.8197
ᐅᑌᓂᑎ	-11.8197
ᐊᐯᓂᒧᓄᑖ	-11.8197
ᐅᑮᐅᒻᐺᐋ	-11.8197
ᐃᓉᑑ	-11.8197
ᑭᐐᐎᐙ	-11.8197
ᑲᓅᑕᒪᐗ	-11.8197
ᐊᐲᑌᑖᑾᓯᓂᓂ	-11.8197
ᑭᑎᓀᑖᑯᓯ	-11.8197
ᑯᔥᑯᓯ	-11.8197
ᓵᑭᒋᐎᓈ	-11.8197
ᒥᓄᑑᑖᑎ	-11.8198
ᒋᐅᓇᔓᐙᓂ	-11.8198
ᒫᒦᑳᑎᓈᓂᐗ	-11.8198
▁¦200	-11.8198
ᒥᓈᑯᐅ	-11.8198
ᑭᐱᒫᒋᐃᑰᐎᓂ	-11.8198
ᓰᑲᐊᑖᑯᐙ	-11.8198
ᑲᕒᐃ	-11.8198
ᑲᓇᐌᒋᑫᐎᔑᒫᑲᓂᔕ	-11.8198
ᑳᑮᐃᔑᓂᑳᓱᓂ	-11.8199
ᐁᓈᑯᓂᑫ	-11.8199
ᐐᒋᑖᒫᑲ	-11.8199
ᐅᐱᔑᒀᑎᓯᐎᓂ	-11.8199
ᓵᑲᑮ	-11.8199
ᐅᓇᑭᒫ	-11.8199
ᐊᔕᐙᐸᑖ	-11.8199
ᑫᓂᔑᐗᓈᒋᐃᑯ	-11.82
ᓂᑕᐌᒫ	-11.82
ᐲᑾᐊ	-11.82
ᑲᒀᑕᑭᐃᐌᐎ	-11.82
ᒥᑳᓈᐙ	-11.8201
ᑭᒪᒋᒋᑫᐎᓂ	-11.8201
ᐸᐹᒧᓭ	-11.8202
ᑕᐎᓇᒫᑰ	-11.8203
ᐅᑕᓴᐲ	-11.8203
ᑭᑲᑳᓱᒥ	-11.8204
ᐅᑎᔑᓈᑯᓯᐎ	-11.8207
ᐁᑌᐺᑕᐗ	-11.8208
ᒋᑕᑯᓂᒥ	-11.8209
ᐁᐸᓬ	-11.8211
ᐊᑰᑌᓂ	-11.8212
ᐊᐲᑌᑖᑾᓯᓅ	-11.8213
ᑮᐊᐸᐃᐌ	-11.8214
ᐸᒥᐋ	-11.8214
ᐸᔥᑴ	-11.8214
ᔒᑯᔥ	-11.8218
ᓰᑭᓭ	-11.822
ᔕᐌᓂᒥᑰᐎ	-11.8221
ᑮᔒᑖ	-11.8223
ᑭᑫᒋᑫ	-11.8225
ᐅᔔᓂᔮᒥ	-11.8228
ᑭᑌᐺᑕᓰ	-11.8229
ᐁᓵᑭᐁ	-11.823
ᐅᑎᓈᑎᓯᐎ	-11.8233
ᑮᐸᑭᑌᐙ	-11.8233
ᑳᒦᓂᒥ	-11.8234
ᐋᔅᑯ	-11.8239
ᐋᑕᐌᓯ	-11.8247
ᒪᓈᒋᐋ	-11.8257
ᑳᑮᐊᐎᐃ	-11.8264
ᐋᑲᐗ	-11.8277
ᑎᐹᑯᓂᑰᔮ	-11.8285
ᑕᒀᑭ	-11.8287
ᑮᐐᒋᑭᐌᑎ	-11.8295
ᓀᑳᒥ	-11.8298
ᐃᔭᓬ	-11.8328
ᐁᐊᓇᒥᐁᑮᔑᑲ	-11.8347
ᓇᒪᐎᑣ	-11.8354
ᑮᓂᒋᑲᓂᐎ	-11.8358
ᓂᐴᑕᒫ	-11.8387
ᑳᐃᓀᓂᒥᓇ	-11.8394
ᑖᑮᐅᓂᔑᔑ	-11.8461
ᐃᔑᐎᑕᐙ	-11.8467
ᐃᔑᐎᔑ	-11.8594
ᐅᔑᒋᑲ	-11.8596
ᓇᐃᓈᑾ	-11.8643
ᒪᒋᑕᔑᒥ	-11.8675
ᒦᑳᓱᔮ	-11.8697
ᑭᓂᑲᐎ	-11.8768
ᒋᐴᓀᒋᑳᑌᓂ	-11.8891
ᓂᑖᐎᑭᒋᑫᒪᑲ	-11.8925
ᐊᑲᒋᐌᑖᑾ	-11.9205
ᑲᑴᔖᑰᓱ	-11.921
ᓀᑕᒨ	-11.9267
ᒥᓍᒋᒧ	-11.9312
ᑫᒋᓈᐅᐌᑖᑾ	-11.9341
ᑲᑴᑲᔥᑭ	-11.9761
ᓵᒥᓯ	-11.9833
ᓂᒥᓈᐌ	-11.9907
ᓇᓄᑮᒪᑲ	-11.9962
ᑕᔑᒥᐌ	-12.0132
ᑮᒦᑳᓱ	-12.0216
ᐊᐲᑌᑖᑾ	-12.0389
ᔕᐌᑖᑯ	-12.0408
ᑲᐎᐌᐱ	-12.0433
ᑑᒋᑎᐯᑖᑯᓯᓰ	-12.0466
ᐋᔩᒋᐊᔓᑕᒫ	-12.052
ᐅᒑᓂᒥ	-12.055
ᑮᑲᔥᑭ	-12.059
ᑕᐯᓂᒧᓄᑕᐙ	-12.0614
ᐸᐹᒥᓯᐎᓂ	-12.0668
ᑳᐃᔑᐅᔑᐲ	-12.067
ᓶᐙᓇᑭᓯ	-12.0687
ᔭᒀᑎᓯ	-12.0687
ᒪᑲᑌᒥᔅᑴ	-12.0695
ᐸᒥᓇᒧᐃ	-12.0695
ᐁᑮᐅᑕᐗᑳᓂᒥᑯ	-12.0695
ᐅᑑᔑᐲᐃᑲᓂ	-12.0695
ᐅᓂᑸᑲᓂ	-12.0695
ᐱᒫᔕᑳᒣ	-12.0695
ᑎᔑᓂᔕᐙᑲᓂᒥ	-12.0695
ᑎᔦᐺᔦᓂ	-12.0695
ᑭᑕᓄᑮᐎᓂᐙ	-12.0695
ᑭᑭᓇᐙᒋᐲᐅ	-12.0695
ᒥᑖᔀᔑᓃᔑ	-12.0695
ᒥᒑᐱᑭᓯ	-12.0695
ᒪᒫᑖᐎᒋᑫ	-12.0695
ᓂᑑᔑᐲᐃᑲᓂᓈ	-12.0695
ᓃᒥᑕᓇᔑᓃᐎ	-12.0695
ᓯᕒᐊᐸᐸᓬ	-12.0695
ᓰᓯᐹᑾ	-12.0695
ᔑᔮᓬᑏᔭᓬ	-12.0695
ᐁᑮᓃᒫᑾᐊ	-12.0695
ᐃᔑᐐᔮᓯᐎ	-12.0695
ᐅᑎᔑᑮᔗᐎᓂ	-12.0695
ᐅᑮᓈᑯᓰᑕᐙ	-12.0695
ᐅᒨᑕᔮᐱ	-12.0695
ᐊᔨᔑᐌᐸ	-12.0695
ᐋᒀᑎᓯ	-12.0695
ᐙᓴᑯᓀᒋᑲᓈᑎᑰ	-12.0695
ᐯᔑᑴᐙᓇᑭᓯ	-12.0695
ᐱᒶᓯᓇᐃ	-12.0695
ᐱᔪᓬᐊ	-12.0695
ᐲᑾᑲᒥᑭ	-12.0695
ᐴᓃᓴᑖᑯ	-12.0695
ᐹᐱᓄᑕᐎ	-12.0695
ᐹᐹᐎᓯᑌᔑᒨᓄ	-12.0695
ᑕᐸᓭᑖᑾ	-12.0695
ᑭᐲᑲᐃᑲ	-12.0695
ᑭᑳᓄᒀᓀ	-12.0695
ᑮᐴᑯᓂᑳᑌ	-12.0695
ᑲᑮᐹᒋᒋᑫ	-12.0695
ᑾᔮᒋᑕᒪᐎ	-12.0695
ᒪᓯᓇᐊᒪᐎ	-12.0695
ᓂᑲᐅᔑᐲᐊᒧᐙ	-12.0695
ᓯᓇᐊᒪᐗ	-12.0695
ᐃᓬᐋᔭᑭ	-12.0695
ᐅᑳᐎᒥᓇᑭᔒ	-12.0695
ᐊᑖᓱᐎᑲᒥ	-12.0695
ᐙᐹᑲᒣᑕ	-12.0695
ᐯᕒᐆ	-12.0695
ᐱᒣᑕᑫ	-12.0695
ᐸᑲᒫᓂᒪ	-12.0695
ᐹᑭᑌᓇᒪᐙ	-12.0695
ᐹᕒᑖᓬᐊᒥ	-12.0695
ᑭᑫᑌᐃᓈᑎᓯᐎᓂᐙ	-12.0695
ᑭᑭᓅᓄᐎ	-12.0695
ᑭᓃᑭᐃᑯᐙ	-12.0695
ᑯᔥᑴᑕᒨ	-12.0695
ᑳᐊᑳᔒᔑ	-12.0695
ᑳᐋᑾᑭᓱ	-12.0695
ᑳᐯᐸᑳᓇᑎ	-12.0695
ᑳᑎᐯᓂᑎᓱ	-12.0695
ᑳᑮᒫᑕᓄᑮ	-12.0695
ᑳᑾᔭᑴᑖᑯᓯ	-12.0695
ᑾᔮᑕᑌ	-12.0695
ᒋᑎᐯᓂᑎᓱ	-12.0695
ᒥᑌᓇᓂ	-12.0695
ᒥᒋᒪᐱᓂᑯ	-12.0695
ᒥᓯᑌᔥᑳᒪᑲ	-12.0695
ᒫᓇᑎᑾ	-12.0695
ᓀᐗᑕᑎ	-12.0695
ᓇᓇᐃᓯᑑ	-12.0695
ᓇᓈᑐᓂᑫ	-12.0695
ᓈᓈᑲᑕᐌᓂᑎ	-12.0695
ᓴᓰᒀᓈᐙ	-12.0695
ᔀ	-12.0695
ᔖᑲᓯᒥᑕᓇᔑ	-12.0695
ᑮᒋᑯᓇᔦᐱ	-12.0695
ᑳᐃᔑᐎᔑᐌᒪᑲ	-12.0695
ᓅᑌᐐᒥᓂᑴ	-12.0695
ᐁᓇᒥᐁᑕ	-12.0695
ᐅᑲᒨᓇᐋ	-12.0695
ᐅᒪᒋᒋᑫᐎᓂᐙ	-12.0695
ᑭᑮᐋᐸᐅᑯ	-12.0695
ᓂᓯᑖᐌᑕᓰ	-12.0695
ᐅᑮᒪᓈᒋᐋᓰ	-12.0695
ᐅᓃᑳᓂᔥᑲᐙ	-12.0695
ᒫᑕᑖᔭ	-12.0695
ᒫᒦᓄᒥ	-12.0695
ᐅᑑᑖᐱᓈ	-12.0695
ᐅᑮᓇᑲᓂᑰ	-12.0695
ᑗᔮᐱᑌ	-12.0695
ᑳᑭᑖᑎᓯ	-12.0695
ᓵᓬᒪ	-12.0695
ᑳᐹᔥᑭᓀ	-12.0695
ᓃᑳᓃᑕᒪᐎ	-12.0695
ᓬᐱᔭ	-12.0695
ᑳᒋᒋᐋᐙ	-12.0695
ᓴᑲᑲᑭ	-12.0695
ᐗᓂᔑᒥᐌ	-12.0695
ᐲᑕᒫᑰ	-12.0695
ᒫᐗᑑᓂᑫ	-12.0695
ᓂᑎᐯᑖ	-12.0695
ᐅᑮᒥᓍᐸᒥᑰ	-12.0695
ᑭᒦᑭᐌᐎᓂᐙ	-12.0695
ᑳᐐᑕᓄᑮᒪ	-12.0695
ᓂᒦᑴᒋᐎᐋ	-12.0695
ᓂᑮᓇᑲᑖ	-12.0695
ᑭᑌᐺᔦᑕᒧᐎᓂᓈ	-12.0695
ᐴᓂᓭᐗ	-12.0695
ᑖᐱᑕᐎ	-12.0695
ᐐᓯᓃᒪ	-12.0695
ᐯᑫᑖᑾ	-12.0695
ᐱᒫᒋᒋᑳᑌ	-12.0695
ᑭᑑᑭᒫᐎᐎ	-12.0695
ᐸᑲᒫᑲ	-12.0695
ᐁᑮᐊᐸᑭᓱ	-12.0695
ᐊᑯᓴᑲᐅᑰᒫ	-12.0695
ᓂᐯᐎᓈ	-12.0695
ᐁᐋᑾᑭ	-12.0695
ᑮᑌᐺᑕᓰᐗ	-12.0695
ᐅᐐᑕᓄᑮᒫᑲᓇ	-12.0695
ᐊᒥᓇᑖ	-12.0695
ᐃᔥᐹᓂ	-12.0695
ᐅᒥᑮᐎ	-12.0695
ᐌᔑᐅᐙᑫ	-12.0695
ᐐᒋᒥᓉᑕᒨᒥ	-12.0695
ᓴᓰᓶ	-12.0695
ᒋᐊᓄᑳᑕᒫ	-12.0695
ᑮᓂᓯᓯᐙ	-12.0695
ᐁᐹᑭᓯ	-12.0695
ᓃᓯᐌᐱᓈ	-12.0695
ᑮᑌᐐᓯᓂᐗ	-12.0695
ᐅᑮᔑᑲᓄ	-12.0695
ᑭᐱᑎᓇ	-12.0695
ᒫᑲᑕᓬ	-12.0696
ᐋᔩᑌᑕ	-12.0696
ᑲᑮᑖᐌᑖ	-12.0696
ᒪᔥᑲᐙᑎᓯ	-12.0696
ᓲᑫᑖᑯᓯ	-12.0696
ᐅᔒᒣᔑᒫᐎ	-12.0696
ᒣᓬᑳ	-12.0696
ᐁᓂᓱᑎᐸᐃᑲᓀᔮ	-12.0696
ᐅᒦᒋᒥᒥ	-12.0696
ᓂᐸᑯᓭᑖ	-12.0696
ᐅᑎᒀᓂᑫᑲ	-12.0696
ᑮᐃᔥᑯᓭᓂ	-12.0696
▁¦144	-12.0696
ᑮᓃᔣᒋᐗ	-12.0696
ᐁᐋᐗᓂᓂ	-12.0696
ᑮᓰᑲᐊᑖᓱᐗ	-12.0696
ᒪᓀᓯ	-12.0696
ᐃᔑᓂᑳᓂᑰ	-12.0696
ᑌᐊᐲᒌ	-12.0697
ᐌᑌᑌ	-12.0697
ᑳᑮᐅᑎᓇ	-12.0697
ᐲᓇᐊ	-12.0697
ᐸᐸᑭᑌᐅᑰ	-12.0697
ᐊᔫᑯ	-12.0697
ᒫᒦᒀᓂᑎ	-12.0698
ᓭᓭᑲ	-12.0698
ᔮᐸᒋᐋ	-12.0698
ᐁᓍᑌ	-12.0699
ᑎᒀᓀ	-12.0699
ᓇᓈᑯᒪ	-12.0699
ᑳᑭᑭᔥᑲᐎ	-12.07
ᑳᑲᑮᑖᐎᓯ	-12.07
ᐱᒪᒧ	-12.0701
ᐅᒪᑲᑗᔥ	-12.0702
ᑮᒋᐅᑌᐺᑕᒨᒥ	-12.0702
ᑎᓅᐎ	-12.0702
ᑳᐃᔑᐐᓱ	-12.0703
ᐁᓂᓯᑐᑕᓯ	-12.0703
ᐁᐅᑕᒥ	-12.0705
ᐊᑕᐌᓂᒣ	-12.0705
ᐋᐸᐅᑰ	-12.0705
ᑮᐌᐱᒫᑎᓰᐃ	-12.0707
ᒦᑴᒋᐌᓂᒪ	-12.0709
ᐱᑮᐌᓄᑕᐎ	-12.0709
ᒋᐅᑖᐱᓂᒥ	-12.0711
ᐱᑭᑭᓯ	-12.0713
ᑕᔑᒥᑯᐙ	-12.0717
ᐅᐸᐹᒥᓯᐎ	-12.0723
ᑭᑑᑎᓯ	-12.0723
ᐁᐯᑲ	-12.0727
ᒥᒋᒥᓇᒧ	-12.0729
ᐃᓇᓯᑰ	-12.073
ᑮᐃᓈᒋᒧ	-12.0732
ᑲᑴᐗᓈ	-12.0732
ᑮᐅᓶ	-12.0739
ᑭᑭᓇᐙᐸᒋ	-12.074
ᑮᐊᔦᒀᒥᒫ	-12.0741
ᑭᑎᔑᒋᑫᐎᓂᓈ	-12.0756
ᑖᐸᒋᐋ	-12.0757
ᒋᐊᓈᒥᒥᓀ	-12.0763
ᐸᑭᑎᓂᑳᓱ	-12.0814
ᐸᐃᑲᓂᐎ	-12.0814
ᐙᓭᓈᑾ	-12.0916
ᐊᓇᒥᐁᑳᓱ	-12.095
ᒥᑲᐎᓄᑖ	-12.0964
ᒋᓅᑌᓭᓯ	-12.1061
ᑎᓇᐌᒫᑲᓇ	-12.1118
ᓰᒋᔥᑳ	-12.1197
ᓃᔣᓯᒥᑕᓇ	-12.1388
ᐁᐊᐯᓂᒧᓄᑕ	-12.1528
ᑐᓀᐊᒧᐙ	-12.1614
ᒫᓀᑕᒥᐃ	-12.1754
ᐁᑲᔥᑭ	-12.1832
ᓇᒥᐁᐎᑲᒥ	-12.2038
ᐁᑮᓇᓃᓵᓂ	-12.23
ᔑᐐᑑᑳᓱᔦ	-12.2374
ᐱᓵᓀᑕᒧ	-12.2475
ᑳᑮᐊᑯᓴᑲ	-12.254
ᐁᑯᑖᓀᓂ	-12.2572
ᐅᒥᑮᐙᐱᓀᓂ	-12.2627
ᑕᓄᑮᐊᑲ	-12.2675
ᑭᑭᓇᐙᒋᑑ	-12.2825
ᐁᐹᐱᓄᑕ	-12.2827
ᒋᒥᓍᒋ	-12.2975
ᑕᐃᔑᓈᑾᓯ	-12.302
ᑳᑯᑖᓀᓂ	-12.3089
ᔣᓯᒥᑕᓇᔑ	-12.3137
ᓅᑖᑳᓂᐗ	-12.3828
ᐃᔑᓂᔕᐊᒪ	-12.3835
ᓵᑭᒋᓂᔕᐊᒪ	-12.3964
ᑭᒋᐊᓇᒥᐁᐸᒀᓀᑲᒥ	-12.3975
ᑭᑌᐺᔦᑖ	-12.3993
ᓂᓃᒑᓂ	-12.3993
ᐸᐸᑴᐱ	-12.3995
ᑗ	-12.3995
ᐺ	-12.4009
ᓋ	-12.4017
ᑭᐸᐅᑏᐎ	-12.4027
ᐅᒥᓍᑎᓰ	-12.4028
ᐗᓯᔀᓂ	-12.4028
ᐯᔣᐸᑕ	-12.4028
ᑭᒑᐱᐌᐸ	-12.4028
ᑭᔑᐗᔥᑲᑌ	-12.4028
(	-12.4028
)	-12.4028
ᐁᑲᐗᔅᑲᑌ	-12.4028
ᐁᓇᒥᐁᐙᑎᓯ	-12.4028
ᐁᕒᐃᔮᐸᑲ	-12.4028
ᐅᓀᓯᒪ	-12.4028
ᐅᔥᑭᐅᔑᒋᑲᓂᐎ	-12.4028
ᐊᐹᐃᒐ	-12.4028
ᐊᓀᓯᑆᕒᐊ	-12.4028
ᐊᓃᐲᔑᐎ	-12.4028
ᐋᑌᑕᓰ	-12.4028
ᐋᒀᑎᓰᑲᑕ	-12.4028
ᐌᒥᑮᐙᐱᓀ	-12.4028
ᐯᕒᓇᐃᓯ	-12.4028
ᐱᒨᑲᐊ	-12.4028
ᐸᔕᔐᐃᑲ	-12.4028
ᐸᕒᐃᒋᔭ	-12.4028
3	-12.6413
7	-13.6561
–	-13.9016
.	-13.902
ᔡ	-13.9021
ᐾ	-13.9022
;	-13.9023
ᔗ	-13.9024
!	-13.9025
?	-13.9026
:	-13.9027
,	-13.9028
ᑡ	-13.9028
"	-13.9028
[	-13.9028
]	-13.9028
a	-13.9028
u	-13.9028
~	-13.9028
ᐧ	-13.9028
ᐼ	-13.9028
ᒒ	-13.9028
/	-13.9029
z	-13.9029
᙮	-13.9029
