<pad>	0
</s>	0
<unk>	0
,	-3.01803
▁e	-3.55248
▁di	-3.66792
▁il	-3.98978
▁la	-4.27319
a	-4.28615
'	-4.31193
▁a	-4.36032
▁che	-4.40639
:	-4.5859
▁i	-4.64733
i	-4.65346
▁in	-4.68895
▁per	-4.70015
▁del	-4.74676
▁non	-4.79709
▁Signore	-4.83995
e	-4.85507
o	-4.85587
▁	-4.88962
▁le	-4.96831
▁si	-4.97642
;	-5.0678
▁con	-5.1151
▁un	-5.11727
▁«	-5.11829
▁è	-5.18907
▁dell	-5.2149
▁loro	-5.23895
▁l	-5.28997
.	-5.29099
re	-5.34616
▁gli	-5.38313
▁Dio	-5.38568
▁al	-5.39575
▁da	-5.49305
te	-5.59918
»	-5.62715
▁re	-5.64068
▁perché	-5.64607
▁come	-5.65871
▁dei	-5.70522
▁lo	-5.723
▁nel	-5.74783
ò	-5.74897
▁ha	-5.82373
no	-5.8323
to	-5.83886
▁sono	-5.87128
▁una	-5.8943
▁suo	-5.92172
▁ma	-5.95748
▁mi	-5.97259
▁nell	-6.00607
▁vi	-6.01757
▁disse	-6.06755
▁io	-6.07229
▁se	-6.07909
▁alla	-6.09137
ti	-6.09359
▁sua	-6.09486
la	-6.0996
▁mio	-6.10086
▁tutti	-6.11973
▁d	-6.12382
▁tuo	-6.12722
▁figlio	-6.13549
▁ti	-6.13772
▁Il	-6.15779
▁voi	-6.19057
▁figli	-6.21641
va	-6.22322
▁te	-6.23408
▁dal	-6.24098
▁ne	-6.24255
▁suoi	-6.25561
ta	-6.25749
▁me	-6.2868
▁popolo	-6.31415
▁dall	-6.31742
▁lui	-6.32263
▁aveva	-6.32662
r	-6.34952
▁E	-6.37067
▁era	-6.37482
▁tu	-6.37701
gli	-6.38418
▁ai	-6.39693
▁questo	-6.40271
n	-6.40419
▁li	-6.41284
▁Ma	-6.41919
rà	-6.42669
▁più	-6.45731
▁terra	-6.46589
rono	-6.47364
▁su	-6.49498
▁sarà	-6.49642
▁contro	-6.50487
▁o	-6.51119
▁Israele	-6.51686
▁paese	-6.52394
▁tua	-6.54214
ro	-6.55372
▁egli	-6.55763
▁città	-6.55863
▁ho	-6.56011
▁tutto	-6.57398
le	-6.58697
▁fu	-6.59351
▁chi	-6.60988
▁giorno	-6.6236
▁mia	-6.63597
▁casa	-6.64752
ri	-6.65144
▁anche	-6.65802
▁I	-6.67371
▁sull	-6.67693
?	-6.67923
vano	-6.69081
▁davanti	-6.71532
▁degl	-6.72236
▁quando	-6.72452
▁Davide	-6.73155
▁Non	-6.73333
erà	-6.76039
ogni	-6.77864
▁ad	-6.78548
▁Allora	-6.80046
ndo	-6.80055
▁uomini	-6.81323
m	-6.83028
▁hai	-6.83041
▁Gesù	-6.83429
▁fatto	-6.83544
u	-6.83608
s	-6.84839
li	-6.85748
▁tuoi	-6.87476
▁Se	-6.87667
▁così	-6.87763
▁noi	-6.87883
▁ci	-6.89269
▁né	-6.90435
ato	-6.91519
▁all	-6.91887
▁secondo	-6.92458
g	-6.93433
▁sul	-6.94121
b	-6.94301
uomo	-6.94909
▁ed	-6.95691
▁erano	-6.95931
ranno	-6.95957
si	-6.96054
f	-6.96857
▁Giuda	-6.99652
▁mezzo	-7.00349
▁Mosè	-7.01061
▁tutte	-7.01273
t	-7.01418
▁due	-7.02687
è	-7.03979
▁Gerusalemme	-7.03997
▁c	-7.04104
di	-7.04821
▁mano	-7.0513
mi	-7.05273
▁hanno	-7.05293
à	-7.07287
▁tra	-7.08228
rò	-7.0858
▁fino	-7.09357
ci	-7.09391
▁padre	-7.10538
▁Israeliti	-7.1162
▁essi	-7.12518
▁sue	-7.1389
▁vita	-7.14083
▁La	-7.14585
na	-7.15032
▁nome	-7.15851
▁ciò	-7.15989
▁cuore	-7.16027
ni	-7.16881
ra	-7.1798
l	-7.18169
▁occhi	-7.18506
▁A	-7.19155
▁cui	-7.19549
-	-7.19665
▁questa	-7.19672
are	-7.20639
ne	-7.20659
▁tempio	-7.20955
lo	-7.21451
▁alle	-7.22832
▁Egli	-7.23187
▁parola	-7.2324
▁Quando	-7.23306
de	-7.23925
▁giorni	-7.24147
▁dice	-7.24208
▁quel	-7.25847
▁Io	-7.2614
▁dunque	-7.26486
▁cosa	-7.26565
mo	-7.26936
▁poi	-7.27192
erò	-7.27308
▁grande	-7.27377
▁tutta	-7.27395
rai	-7.27844
▁quant	-7.2811
▁uno	-7.28126
vi	-7.28304
▁senz	-7.28676
!	-7.28703
▁quelli	-7.29288
▁miei	-7.30688
▁s	-7.3076
▁sei	-7.31328
▁mani	-7.31665
nti	-7.32069
▁-	-7.32074
nte	-7.33069
?»	-7.33553
!»	-7.3374
».	-7.35304
▁ri	-7.35468
▁fra	-7.36461
▁cose	-7.36661
▁fece	-7.37129
▁capo	-7.38031
▁dove	-7.38663
▁In	-7.38669
z	-7.40283
▁tempo	-7.40439
▁infatti	-7.40832
▁parole	-7.4279
▁rispose	-7.43012
eranno	-7.43085
▁uomo	-7.4457
se	-7.44686
▁Poi	-7.44724
▁ancora	-7.44892
sse	-7.45481
▁nostro	-7.45951
▁porta	-7.46207
▁Cristo	-7.46708
ate	-7.47156
▁fratelli	-7.47281
▁Chi	-7.48033
▁cielo	-7.48051
▁Si	-7.4823
▁vostro	-7.48824
▁parte	-7.48868
▁saranno	-7.49057
▁fa	-7.49204
▁poiché	-7.49227
c	-7.50033
ati	-7.50163
▁mentre	-7.50194
so	-7.50257
▁quale	-7.50303
▁sta	-7.5051
▁sempre	-7.51184
▁capi	-7.51506
▁quello	-7.51898
sa	-7.52196
▁sia	-7.52498
▁sopra	-7.52623
▁detto	-7.52807
▁Per	-7.53388
▁legge	-7.53601
▁allora	-7.53657
▁vostri	-7.54214
▁fuoco	-7.54215
▁sotto	-7.5485
▁Così	-7.54884
▁Gli	-7.55497
▁dopo	-7.55886
ve	-7.5662
▁stato	-7.56813
▁sacerdote	-7.5694
▁tue	-7.57188
ca	-7.58088
vo	-7.58619
▁avete	-7.58622
▁C	-7.58706
▁Ora	-7.59023
▁luogo	-7.60566
erai	-7.60578
ì	-7.61196
▁essa	-7.61513
Israele	-7.61805
Egitto	-7.62691
rlo	-7.62947
▁ecco	-7.63005
▁forse	-7.6301
co	-7.63884
▁servo	-7.64126
▁male	-7.64466
▁Ecco	-7.64929
▁bene	-7.64982
▁queste	-7.65288
▁giustizia	-7.65497
d	-7.66742
▁morte	-7.67175
oro	-7.67378
▁servi	-7.67726
▁sangue	-7.68052
▁Saul	-7.68294
p	-7.68395
▁tre	-7.69012
▁anni	-7.69342
▁solo	-7.70072
▁padri	-7.70195
▁essere	-7.70278
anno	-7.70448
▁spada	-7.71163
▁vers	-7.71444
gi	-7.71943
presso	-7.72307
▁nessuno	-7.72406
▁dato	-7.73605
▁sacerdoti	-7.73655
arono	-7.74492
▁dai	-7.74647
ma	-7.7488
ano	-7.7489
▁questi	-7.74995
▁peccato	-7.75541
▁voce	-7.75636
▁là	-7.75872
▁altri	-7.75891
▁regno	-7.76534
▁stesso	-7.76657
ce	-7.76976
▁fratello	-7.7743
▁insieme	-7.78732
▁prima	-7.78732
che	-7.78747
▁via	-7.79114
▁sette	-7.79254
ga	-7.79448
▁Di	-7.80927
Non	-7.81202
ggi	-7.8122
▁Giacobbe	-7.81663
rsi	-7.81782
▁Le	-7.81876
tà	-7.82314
▁mie	-7.82324
▁furono	-7.82457
▁gloria	-7.82639
▁tribù	-7.83291
▁Perché	-7.83326
da	-7.8333
▁bocca	-7.83628
▁donna	-7.84124
▁L	-7.84503
▁ora	-7.85817
▁prese	-7.86628
▁pu	-7.86676
tto	-7.86877
▁fare	-7.86961
▁moglie	-7.8712
tta	-7.8875
▁deserto	-7.88934
▁Aronne	-7.88934
▁quella	-7.89646
verso	-7.90196
▁dicendo	-7.90199
do	-7.90648
po	-7.91211
me	-7.91257
▁quali	-7.91852
▁invece	-7.92557
▁oggi	-7.92651
▁Mi	-7.92876
▁siete	-7.92888
▁mai	-7.93285
▁popoli	-7.943
ssi	-7.94357
rti	-7.94384
ste	-7.94714
▁mondo	-7.95225
▁piedi	-7.95229
or	-7.96181
▁monte	-7.96469
▁mare	-7.96557
▁tenda	-7.96587
▁abbiamo	-7.96692
▁causa	-7.97095
▁posto	-7.97105
altare	-7.97564
sti	-7.98284
▁faccia	-7.98703
▁Tu	-7.9877
ata	-7.99393
go	-8.00859
▁nulla	-8.01276
▁notte	-8.01289
▁colui	-8.01627
rete	-8.01823
▁Babilonia	-8.02598
▁carne	-8.02599
rmi	-8.03048
▁Un	-8.03198
▁Salomone	-8.03602
▁eserciti	-8.03939
▁madre	-8.0394
▁gente	-8.03972
▁fede	-8.04037
?».	-8.04205
▁nostri	-8.0428
amo	-8.05009
tte	-8.05545
zione	-8.05649
sci	-8.05694
▁dissero	-8.05976
sce	-8.06883
▁spirito	-8.07021
▁nemici	-8.0737
▁Poiché	-8.07807
▁vostra	-8.0807
▁aver	-8.08515
▁sacrificio	-8.08536
▁pot	-8.08694
rvi	-8.08821
erete	-8.08974
▁S	-8.0922
ar	-8.09287
▁gener	-8.09418
▁va	-8.09679
zza	-8.09917
bi	-8.09963
▁abitanti	-8.10229
tti	-8.1085
▁co	-8.10867
un	-8.11031
▁farò	-8.11032
pi	-8.11562
▁far	-8.11601
▁faraone	-8.11648
▁pane	-8.11649
pa	-8.11877
▁vostre	-8.12013
▁molto	-8.12379
▁color	-8.12393
▁qui	-8.13004
▁andò	-8.13244
▁finché	-8.13493
sta	-8.14673
▁avrà	-8.15013
an	-8.1513
v	-8.15324
▁visto	-8.15494
▁figlia	-8.15877
in	-8.16098
ono	-8.16288
▁grazia	-8.165
nza	-8.16876
el	-8.1703
▁leviti	-8.18045
▁Padre	-8.18078
▁pace	-8.18431
▁Al	-8.18679
▁verità	-8.19607
▁Quest	-8.20284
▁fuori	-8.20434
▁profeta	-8.20797
▁cioè	-8.208
▁nuovo	-8.20804
▁acque	-8.21198
▁altro	-8.21446
iamo	-8.21487
▁Giudei	-8.22003
▁Giosuè	-8.22407
▁Abramo	-8.23007
▁vesti	-8.23172
▁profeti	-8.23191
▁fronte	-8.23222
▁quanti	-8.23375
▁Giuseppe	-8.23632
▁sp	-8.2408
▁O	-8.24113
▁gia	-8.24191
A	-8.24242
▁Vi	-8.24304
▁diede	-8.24596
altra	-8.24632
▁Essi	-8.24685
argento	-8.24946
▁so	-8.25023
▁Filistei	-8.25288
▁de	-8.25394
▁farà	-8.25734
tevi	-8.2601
▁gioia	-8.26131
gu	-8.26485
▁volta	-8.26663
▁viene	-8.26734
▁Come	-8.26792
mente	-8.27097
era	-8.273
▁discepoli	-8.27398
arca	-8.27633
▁Spirito	-8.27825
▁molti	-8.27825
▁ascolta	-8.28052
▁siamo	-8.28084
▁nazioni	-8.28255
▁mese	-8.28693
chi	-8.2879
acqua	-8.28917
k	-8.29115
▁mette	-8.2959
▁sui	-8.30115
tori	-8.30816
▁dico	-8.31017
du	-8.314
▁Anch	-8.31427
▁giusto	-8.31756
▁opere	-8.31758
Ecco	-8.3184
▁guerra	-8.3265
▁luce	-8.32651
▁Ed	-8.32772
▁Figlio	-8.3279
▁Figli	-8.32822
tu	-8.33009
lla	-8.33258
ssa	-8.33336
▁quattro	-8.3348
▁stati	-8.34073
al	-8.3449
▁corpo	-8.34923
▁forza	-8.34927
▁pro	-8.35291
▁sé	-8.35386
io	-8.35717
▁do	-8.35727
▁signore	-8.35884
▁Ti	-8.36143
▁uscire	-8.36314
altro	-8.36492
▁Lo	-8.37237
E	-8.37423
▁primo	-8.38194
▁Perciò	-8.38195
ba	-8.39264
▁dov	-8.39445
▁cubiti	-8.40113
▁famiglia	-8.40113
▁abbia	-8.40465
!».	-8.40812
▁G	-8.41009
▁porte	-8.41093
▁figlie	-8.41295
▁Che	-8.4133
▁donne	-8.41584
▁trova	-8.42007
▁cieli	-8.42074
▁sa	-8.42533
▁bestiame	-8.4258
▁mangiare	-8.43015
▁dire	-8.43077
nta	-8.43476
▁dimora	-8.43571
ai	-8.44199
▁testa	-8.44333
▁fecero	-8.44483
ando	-8.44895
Se	-8.45159
▁ama	-8.45179
▁Giordano	-8.45587
▁campo	-8.45587
▁ciascuno	-8.4626
am	-8.46393
▁vino	-8.4643
▁mandò	-8.46615
▁anziani	-8.46616
▁sc	-8.46633
▁alcuni	-8.46847
▁strada	-8.47134
ssero	-8.47536
iti	-8.47551
ira	-8.47907
▁Da	-8.47969
▁po	-8.4823
nda	-8.48659
▁grandi	-8.48711
alleanza	-8.49007
nto	-8.49022
▁mangia	-8.49802
▁proprio	-8.49868
▁lascia	-8.50096
▁b	-8.50133
▁Dopo	-8.50309
▁morti	-8.50387
mento	-8.50479
▁Rispose	-8.50692
▁qual	-8.50736
▁Efraim	-8.50838
▁scritto	-8.50838
▁cinque	-8.50855
▁santuario	-8.50869
▁nostra	-8.51385
▁servizio	-8.51396
▁messo	-8.51559
er	-8.51628
▁parla	-8.51636
Che	-8.5171
▁Ri	-8.52598
ul	-8.52778
▁destra	-8.53031
▁divenne	-8.53049
▁gran	-8.5309
▁pre	-8.53532
▁modo	-8.53668
▁grida	-8.5383
▁intorno	-8.54297
sso	-8.5437
▁presenza	-8.5474
▁Tutti	-8.54989
▁Su	-8.55155
▁stata	-8.5523
per	-8.55388
▁Questi	-8.55482
▁lontano	-8.55812
▁riguardo	-8.55815
▁potenza	-8.55825
▁ebbe	-8.56429
rli	-8.56808
▁stava	-8.57231
▁andare	-8.57651
▁potere	-8.57942
▁alzò	-8.58108
▁genti	-8.58139
▁Voi	-8.58293
▁vide	-8.58298
ava	-8.58535
▁trono	-8.58794
mmo	-8.58856
llo	-8.59141
▁Paolo	-8.5927
pe	-8.59287
▁chiamò	-8.59374
▁fine	-8.59467
▁sacrifici	-8.59668
▁fosse	-8.59714
▁morire	-8.59853
▁libro	-8.59859
Il	-8.60348
▁peccati	-8.60514
▁possesso	-8.61644
▁salvezza	-8.61644
▁ordinato	-8.61733
▁vedere	-8.62024
▁quelle	-8.62232
▁famiglie	-8.62246
▁santo	-8.62273
▁Con	-8.62574
▁dieci	-8.62933
ete	-8.63327
▁mise	-8.63442
▁Mentr	-8.63462
▁numero	-8.63804
▁comunità	-8.64693
▁padrone	-8.64693
▁lavoro	-8.64699
▁Moab	-8.64716
▁mandato	-8.64905
▁ra	-8.65246
▁Giovanni	-8.65354
▁venire	-8.65465
▁venuto	-8.65467
▁que	-8.65607
▁Dice	-8.65619
▁però	-8.65818
▁parlare	-8.65858
▁monti	-8.65942
▁sole	-8.66336
▁Pietro	-8.66569
▁lei	-8.66753
▁Egitto	-8.66807
ino	-8.67021
▁Sion	-8.67261
zioni	-8.6729
▁Beniamino	-8.67838
▁verrà	-8.67935
▁f	-8.68266
▁venne	-8.68357
▁pietra	-8.68479
▁preso	-8.68542
us	-8.69046
▁col	-8.69069
▁Santo	-8.6914
▁ve	-8.69166
▁esso	-8.69199
tura	-8.69448
cchi	-8.69483
▁empi	-8.69532
▁oltre	-8.69773
▁convegno	-8.69773
▁folla	-8.69803
▁fin	-8.69998
▁chiamato	-8.70036
▁misericordia	-8.70427
▁sapienza	-8.70427
ver	-8.70768
▁venti	-8.70828
im	-8.70916
sca	-8.71028
lle	-8.71141
▁alcun	-8.71285
▁Ha	-8.71582
min	-8.71684
fa	-8.71895
▁pe	-8.72323
▁rovina	-8.72422
on	-8.72968
▁Ci	-8.73001
▁ognuno	-8.73114
▁allo	-8.73438
▁passa	-8.73717
▁Tutt	-8.73775
rci	-8.73881
▁iniquità	-8.74228
▁guarda	-8.7437
▁avev	-8.74429
ora	-8.74569
▁aff	-8.74655
▁Sono	-8.7498
▁Geremia	-8.75126
▁opera	-8.75285
▁terzo	-8.75296
▁parti	-8.75419
▁mura	-8.75817
▁Ioab	-8.75875
▁udito	-8.75945
▁acqua	-8.76333
remo	-8.76415
▁por	-8.76507
▁eredità	-8.76775
Perché	-8.77164
▁gett	-8.77216
sto	-8.77239
▁Quant	-8.77329
▁fatti	-8.77428
bo	-8.77542
▁rivolta	-8.77543
▁frutto	-8.77914
▁timore	-8.77918
▁generazione	-8.77937
▁volte	-8.78126
cco	-8.78253
▁sorte	-8.78622
h	-8.7906
▁ce	-8.7918
▁resto	-8.79238
▁nessun	-8.79275
▁tale	-8.79664
▁lungo	-8.80135
▁Me	-8.80622
▁pietre	-8.80781
▁ministri	-8.80781
▁vicino	-8.80785
▁Samuele	-8.80806
▁bere	-8.80811
▁quell	-8.80872
▁Elia	-8.81559
▁cal	-8.81773
▁testimonianza	-8.82246
accampamento	-8.82247
▁B	-8.82329
▁sarai	-8.82353
▁morto	-8.82397
▁fate	-8.82411
▁cerca	-8.82442
▁siano	-8.82554
oni	-8.82844
angelo	-8.82966
▁condotta	-8.82987
▁incontro	-8.82987
▁alza	-8.83165
▁pure	-8.83224
▁sera	-8.8358
▁denaro	-8.83733
▁sabato	-8.83733
▁diritto	-8.83741
▁discendenza	-8.83743
▁valle	-8.83768
▁vede	-8.83901
▁ira	-8.83937
▁quest	-8.83973
anni	-8.84067
▁dodici	-8.84472
▁cavalli	-8.84485
▁Isacco	-8.84485
▁voglio	-8.84485
▁rimase	-8.84488
fer	-8.84658
▁darò	-8.84712
▁vento	-8.84794
▁lingua	-8.85242
▁Ezechia	-8.85242
▁uscì	-8.85254
Io	-8.85749
▁cammina	-8.85792
▁Fa	-8.8593
▁Gàlaad	-8.86006
▁perciò	-8.86023
▁marito	-8.86102
▁territorio	-8.86105
▁chiunque	-8.86112
cu	-8.86331
▁anch	-8.86763
▁Ho	-8.86775
▁immondo	-8.86776
▁simile	-8.86781
▁farai	-8.87124
▁getta	-8.87138
▁regione	-8.8755
▁mattino	-8.87552
▁subito	-8.87561
▁anno	-8.87706
▁quegli	-8.8776
▁Eli	-8.87965
▁diceva	-8.8829
▁Manàsse	-8.88331
▁neppure	-8.88331
▁idoli	-8.88334
▁possa	-8.88367
▁forte	-8.88522
▁pecore	-8.89119
▁altre	-8.89131
edi	-8.89438
ghi	-8.89497
▁festa	-8.89913
▁condusse	-8.89981
telo	-8.90594
▁pietà	-8.90721
vevano	-8.90724
▁morì	-8.90741
Chi	-8.90766
▁Baal	-8.90845
cci	-8.90901
mmi	-8.91326
▁carri	-8.91519
▁andarono	-8.91566
offerta	-8.91572
▁Ne	-8.91714
▁ar	-8.91717
▁dietro	-8.92146
lu	-8.92256
▁Fece	-8.92332
▁quindi	-8.92449
▁volto	-8.92522
▁trovato	-8.92808
▁Nell	-8.9287
▁dà	-8.92925
bbiamo	-8.93135
▁qualcuno	-8.93152
èl	-8.93168
▁onore	-8.93176
▁giudizio	-8.93453
▁conosce	-8.93495
▁De	-8.93904
▁chiama	-8.94288
▁parlato	-8.94417
▁prendere	-8.94628
▁Samaria	-8.94812
ho	-8.94929
▁cibo	-8.94941
▁espiatorio	-8.94953
▁vennero	-8.95129
▁pascoli	-8.95173
▁manda	-8.95625
▁Li	-8.95649
▁prova	-8.9568
▁Re	-8.95824
▁rimane	-8.96499
▁Bet	-8.96754
uto	-8.96943
▁rende	-8.97043
ingresso	-8.97354
▁Giònata	-8.97354
▁olocausti	-8.97354
▁Oracolo	-8.97354
▁offri	-8.97369
▁esse	-8.97436
▁abita	-8.97583
Tu	-8.97753
rla	-8.97805
mila	-8.97926
▁Sa	-8.97966
ru	-8.98002
▁acc	-8.98076
▁sali	-8.98217
▁pi	-8.9869
▁olio	-8.98857
▁pensa	-8.99081
▁battaglia	-8.99086
▁gregge	-8.99086
▁polvere	-8.99086
▁bestie	-8.99086
▁stessa	-8.99086
bile	-8.99357
▁alleanza	-8.99462
col	-8.99476
endo	-8.99676
▁nemico	-8.99963
▁nostre	-8.99967
▁speranza	-8.99977
▁santi	-9.0004
▁case	-9.00142
▁dicevano	-9.00149
▁dare	-9.00816
▁campagna	-9.00848
▁soltanto	-9.00848
▁giovani	-9.00864
▁pratica	-9.00864
▁sarete	-9.00914
▁stavano	-9.0098
▁entrare	-9.01329
▁t	-9.01509
tò	-9.01534
▁comandi	-9.0174
▁eterna	-9.01741
▁giovane	-9.01756
ordine	-9.01883
▁ben	-9.019
▁fame	-9.01906
▁cento	-9.02137
▁Questa	-9.02327
▁and	-9.02457
olocausto	-9.02789
azione	-9.02942
▁legno	-9.03149
ch	-9.03393
assemblea	-9.03551
▁paura	-9.03551
▁Dimora	-9.03551
▁sicli	-9.03554
▁Ogn	-9.03562
amente	-9.03595
▁metà	-9.04183
cc	-9.0435
▁Assalonne	-9.04468
▁Daniele	-9.04468
▁prossimo	-9.04479
ach	-9.045
▁tenebre	-9.04698
▁entra	-9.04761
▁Essa	-9.04817
▁resta	-9.04895
▁giusti	-9.05379
▁sapere	-9.05398
▁pose	-9.05509
rne	-9.0556
▁p	-9.05601
▁settimo	-9.06329
▁colpa	-9.06372
▁F	-9.06601
avrai	-9.06629
empio	-9.06784
zia	-9.0695
▁be	-9.07087
▁Ammoniti	-9.07272
▁villaggi	-9.07272
▁sorella	-9.07272
▁lode	-9.07628
▁Nel	-9.07671
▁grano	-9.0769
don	-9.082
▁settentrione	-9.08224
▁sventura	-9.08224
▁uccelli	-9.08224
▁orecchi	-9.08393
▁misero	-9.08675
▁Pa	-9.09
▁ordine	-9.09049
▁dinanzi	-9.09186
▁labbra	-9.09186
▁preghiera	-9.09186
▁piena	-9.09187
ab	-9.09891
▁prende	-9.09892
▁no	-9.10075
ita	-9.10285
▁sarò	-9.10329
▁propria	-9.10481
ut	-9.10489
▁crede	-9.10513
▁Abi	-9.10519
avano	-9.10677
▁cammino	-9.10716
▁leggi	-9.10734
unque	-9.10743
ndosi	-9.10994
▁testimoni	-9.11137
▁tanto	-9.1114
▁aiuto	-9.11462
spi	-9.1192
▁Be	-9.12031
▁tornò	-9.12127
▁attravers	-9.12127
▁Infatti	-9.1214
▁buona	-9.12217
▁beni	-9.12282
esercito	-9.12413
▁sap	-9.12467
▁amore	-9.12705
▁D	-9.12758
▁libera	-9.12834
▁anzi	-9.12996
▁osserva	-9.13033
▁bronzo	-9.13127
▁montagne	-9.13127
▁stessi	-9.13129
▁sdegno	-9.1325
▁presero	-9.13656
ché	-9.14033
▁Ad	-9.14046
tra	-9.14078
▁vergogna	-9.14137
▁ricorda	-9.14369
▁grido	-9.14388
▁dono	-9.14411
▁oriente	-9.14552
▁tende	-9.14605
ud	-9.14658
▁arriva	-9.14775
▁passare	-9.1488
▁comunione	-9.15158
▁momento	-9.15159
▁ferro	-9.15159
▁forma	-9.1516
▁prodigi	-9.15183
▁costoro	-9.15189
▁poco	-9.15353
ene	-9.15484
vranno	-9.15501
cò	-9.15677
▁Quelli	-9.15683
nna	-9.15786
▁diventa	-9.15819
▁Quindi	-9.16189
▁Esaù	-9.16189
▁campi	-9.16189
▁scelto	-9.16189
▁potente	-9.16248
▁vivo	-9.16342
olio	-9.16588
bbero	-9.1669
▁salva	-9.16924
▁Geroboamo	-9.1723
▁misura	-9.1723
▁costui	-9.17231
▁favore	-9.17232
▁frutti	-9.17232
▁sarebbe	-9.17262
Signore	-9.17698
uno	-9.1779
en	-9.17931
▁giunge	-9.18283
▁primogenito	-9.18285
▁comando	-9.183
▁ver	-9.18327
▁Disse	-9.18383
▁vie	-9.18508
▁abbandona	-9.18751
ad	-9.18819
ghe	-9.19015
▁divora	-9.19313
▁porpora	-9.19347
▁purifica	-9.19403
▁preda	-9.19429
▁fil	-9.19474
▁entrò	-9.19477
▁Ar	-9.19781
▁seguito	-9.19795
▁chiamava	-9.19867
▁cinquanta	-9.19871
ha	-9.20047
stra	-9.20168
▁parlò	-9.20422
▁povero	-9.20422
▁comandato	-9.2056
▁risposero	-9.21274
▁U	-9.21548
▁cura	-9.21581
▁darà	-9.21752
Per	-9.22044
▁Fu	-9.22095
▁teme	-9.22133
▁compi	-9.22195
▁comp	-9.22199
▁R	-9.2241
▁Egiziani	-9.22608
▁angeli	-9.22608
▁mezzogiorno	-9.22608
▁ordinò	-9.22608
▁present	-9.22732
▁deve	-9.22749
sero	-9.22788
▁certo	-9.22819
iniquità	-9.22961
▁portato	-9.23475
▁Canaan	-9.23719
▁avr	-9.23876
▁dis	-9.239
▁Nessuno	-9.23997
▁Ta	-9.24193
▁meno	-9.24279
▁presenta	-9.24341
sco	-9.24355
▁costrui	-9.2454
▁tocca	-9.24553
scono	-9.24722
▁ucciso	-9.24843
▁ricevuto	-9.24848
▁Acab	-9.24853
▁verranno	-9.24945
▁fi	-9.25011
▁segno	-9.2505
▁mille	-9.2514
▁mogli	-9.252
▁ascoltato	-9.25224
▁dura	-9.25351
▁leone	-9.25471
▁venga	-9.25765
▁commesso	-9.25979
▁sterminio	-9.25979
▁reggia	-9.26
▁offerta	-9.26008
▁m	-9.26011
▁Achi	-9.26024
▁peso	-9.26074
▁meglio	-9.26168
▁sposa	-9.26741
▁trenta	-9.26747
▁rito	-9.2676
▁pote	-9.26854
▁offrire	-9.26891
▁passi	-9.26922
▁temere	-9.26976
▁bestia	-9.27093
▁buoi	-9.27128
▁tavola	-9.27128
▁fiume	-9.27131
▁persone	-9.27133
▁Edom	-9.27303
▁riempi	-9.2743
▁ossa	-9.27524
▁gio	-9.27578
C	-9.2762
▁buono	-9.2785
▁oro	-9.27856
▁reso	-9.28046
▁Giòsafat	-9.28291
▁Nabucodònosor	-9.28291
▁farisei	-9.28291
▁giovenco	-9.28291
▁messaggeri	-9.28291
▁indietro	-9.28291
▁facendo	-9.28295
▁perenne	-9.28297
▁schiava	-9.283
▁vangelo	-9.28301
▁nascosto	-9.28405
▁conoscere	-9.28461
za	-9.28495
▁braccio	-9.28502
▁colpi	-9.2872
Si	-9.2896
▁colonne	-9.29468
udi	-9.29507
▁vivente	-9.29518
▁sommo	-9.29523
ent	-9.29583
▁segui	-9.29663
▁alture	-9.29706
▁risponde	-9.2984
anima	-9.29903
▁saggio	-9.30165
▁son	-9.30366
I	-9.30479
▁nube	-9.30658
▁mattina	-9.30659
▁partorì	-9.3066
▁vigna	-9.3066
▁pieno	-9.30661
▁dentro	-9.3067
▁azioni	-9.30707
▁fanno	-9.3075
stri	-9.30939
▁senti	-9.31006
▁malvagi	-9.31035
▁sola	-9.31231
▁vol	-9.31495
▁prega	-9.31755
▁stranieri	-9.31863
▁sto	-9.31916
▁agnelli	-9.3194
arsi	-9.32033
▁torna	-9.32155
▁Levi	-9.32178
ppi	-9.32547
▁annunzia	-9.32842
opera	-9.32957
▁umili	-9.32977
▁grazie	-9.33082
▁venuti	-9.33082
▁schiavo	-9.33083
▁pur	-9.33254
▁tempi	-9.33537
▁Noi	-9.33677
erano	-9.33715
▁benedi	-9.33724
▁Sal	-9.33863
▁bambino	-9.34317
▁profumo	-9.34329
▁torrente	-9.34346
▁discendenti	-9.34358
▁comincia	-9.34359
▁sepolcro	-9.34371
zzi	-9.34404
▁allontana	-9.34438
▁regnò	-9.34438
▁puro	-9.3451
▁radun	-9.34519
▁divent	-9.34546
▁partire	-9.34615
▁All	-9.34644
▁Na	-9.34824
▁buon	-9.3542
▁Ebron	-9.35567
▁pioggia	-9.35567
▁stolto	-9.35567
▁maestro	-9.35568
▁Ze	-9.35577
▁stabilito	-9.35717
▁condanna	-9.35977
▁abbandonato	-9.36004
▁duran	-9.36336
▁vista	-9.36392
▁bruc	-9.36399
▁Dan	-9.36583
▁mente	-9.36722
▁So	-9.36761
glio	-9.3677
▁molte	-9.36833
▁Gad	-9.36846
▁qualunque	-9.36859
▁osserv	-9.36946
▁n	-9.37059
▁parlava	-9.37187
Quest	-9.37284
▁Era	-9.37315
es	-9.37648
▁faceva	-9.37815
▁lato	-9.37931
▁appena	-9.37932
▁P	-9.37977
cca	-9.37992
dia	-9.38083
con	-9.38102
▁scribi	-9.38115
▁concesso	-9.38115
▁bastone	-9.38117
età	-9.38221
▁velo	-9.38266
▁alto	-9.38304
▁uccide	-9.38328
gno	-9.3834
▁Ieu	-9.38382
▁brucia	-9.38513
▁letto	-9.38612
orecchio	-9.38645
Figlio	-9.38806
▁for	-9.38921
▁casati	-9.39012
▁coro	-9.39044
▁domanda	-9.39125
▁data	-9.39229
▁censimento	-9.39414
▁confini	-9.39414
▁grasso	-9.39414
▁schiavi	-9.39414
▁scamp	-9.39415
▁avuto	-9.39533
▁fatta	-9.39668
▁esser	-9.39736
▁avere	-9.3977
▁Ai	-9.40187
▁u	-9.40418
bili	-9.4052
ù	-9.4061
▁fedeltà	-9.40729
▁pelle	-9.40761
▁negli	-9.4077
▁animali	-9.4079
essi	-9.40863
▁tornare	-9.41248
▁fedele	-9.4126
▁convoc	-9.4131
Và	-9.41328
▁saggi	-9.41391
▁Ghe	-9.41909
pre	-9.41982
▁Quegli	-9.42063
▁volontà	-9.42063
▁confine	-9.42063
▁Eliseo	-9.42063
▁farina	-9.42068
▁lutto	-9.42068
▁cammin	-9.42096
P	-9.42399
▁vivere	-9.42481
▁custodi	-9.42913
▁suolo	-9.43176
▁qua	-9.43369
▁Ruben	-9.4339
▁larghezza	-9.43414
▁principe	-9.43414
▁salì	-9.43414
▁basi	-9.4342
▁oggetto	-9.43565
▁giurato	-9.43632
▁consiglio	-9.43699
▁Ben	-9.4389
▁avversari	-9.44104
▁pal	-9.44337
▁Te	-9.44379
▁attorno	-9.44784
▁decreti	-9.44785
▁sinistra	-9.44785
▁alberi	-9.44787
▁contamina	-9.44787
▁stanno	-9.44788
▁portò	-9.44808
▁sommi	-9.4483
ndolo	-9.44947
▁devo	-9.44961
▁veste	-9.44979
▁Forse	-9.45
▁presi	-9.45023
▁ricord	-9.45042
lli	-9.45121
olui	-9.45358
osa	-9.45998
▁vero	-9.46126
▁tromba	-9.46173
▁copri	-9.46173
▁terrore	-9.46179
▁viola	-9.46234
▁odia	-9.46289
▁sogno	-9.46364
▁fà	-9.46367
▁visione	-9.46403
▁devi	-9.46414
aia	-9.46676
gra	-9.468
▁conto	-9.46818
▁mor	-9.46989
▁abitare	-9.47029
▁prepara	-9.47049
one	-9.47086
az	-9.47296
atevi	-9.47429
▁inter	-9.47561
▁Caldei	-9.47581
▁bambini	-9.47581
▁Libano	-9.47581
▁mantello	-9.47582
▁catene	-9.47582
▁oracolo	-9.47582
▁viaggio	-9.47583
▁Parol	-9.47616
▁pagani	-9.47639
▁rifugio	-9.47669
▁consacrato	-9.47776
▁benedetto	-9.47912
▁tali	-9.48454
▁collo	-9.48458
▁nomi	-9.4864
amore	-9.48849
zio	-9.48852
▁com	-9.48927
▁piccolo	-9.4901
▁ricchezze	-9.4901
▁muro	-9.4901
▁greggi	-9.4901
▁spalle	-9.49011
▁persona	-9.49016
▁nazione	-9.49028
▁Betel	-9.4906
▁và	-9.49081
▁alcuno	-9.49275
▁abbandon	-9.49315
▁riusci	-9.49376
erba	-9.49561
▁portare	-9.49727
▁lamento	-9.49854
▁servire	-9.50102
▁gradi	-9.50171
▁Asa	-9.50236
▁ber	-9.50284
▁pare	-9.5035
▁manca	-9.50436
▁specie	-9.50459
▁troppo	-9.50459
▁addosso	-9.50459
▁guardie	-9.50466
▁Ioas	-9.50473
▁prostra	-9.50486
▁sapete	-9.5049
▁avendo	-9.50538
▁piange	-9.50597
▁nato	-9.50622
mon	-9.50862
▁incenso	-9.50912
▁loda	-9.51053
▁sazi	-9.51092
▁altare	-9.51366
▁quaranta	-9.5137
▁portarono	-9.51662
sione	-9.51765
▁fianchi	-9.5193
▁giudice	-9.5193
▁fossa	-9.5193
▁Aramei	-9.51937
▁angelo	-9.51958
▁offerte	-9.52008
▁alcuna	-9.52041
eremo	-9.52278
▁cari	-9.52284
▁usa	-9.52305
▁conta	-9.52324
▁adora	-9.52349
▁farete	-9.52736
▁ritorn	-9.52928
cur	-9.53027
▁chiede	-9.53256
▁profan	-9.5328
▁fai	-9.53332
▁promessa	-9.53422
▁stirpe	-9.53422
▁Sichem	-9.53423
▁saggezza	-9.53426
▁secoli	-9.53428
▁spogli	-9.53428
▁apri	-9.53433
▁accamparono	-9.53453
▁soff	-9.53465
▁Maria	-9.53472
▁cominciò	-9.53509
▁rami	-9.53595
▁muove	-9.53629
▁continua	-9.53647
▁forti	-9.53683
▁riceve	-9.53783
ale	-9.53793
▁videro	-9.53801
ppena	-9.53862
▁riposo	-9.53928
men	-9.54
▁lega	-9.54111
▁regni	-9.54162
▁vedendo	-9.54311
▁raccoglie	-9.54477
ccio	-9.54634
▁veniva	-9.54639
▁argento	-9.54663
▁andava	-9.54678
▁mut	-9.54736
▁Amorrei	-9.54937
▁Eppure	-9.54937
▁motivo	-9.54937
▁trovò	-9.54937
▁venuta	-9.54937
▁tavole	-9.54938
atrio	-9.54939
▁santa	-9.55009
▁manderò	-9.55062
▁trovava	-9.55252
▁vecchio	-9.55281
In	-9.55368
▁lavora	-9.55665
Assiria	-9.55713
▁poteva	-9.55841
▁scaccia	-9.55946
tato	-9.56033
▁udi	-9.56096
▁esercito	-9.56104
▁guard	-9.56144
▁orm	-9.56304
▁Balaam	-9.56476
▁bisogno	-9.56476
▁scienza	-9.56476
▁pani	-9.56481
▁proprietà	-9.56494
▁benedizione	-9.56516
▁Galilea	-9.56725
▁Ac	-9.56942
▁cuori	-9.57047
isce	-9.57115
▁abit	-9.57151
Mi	-9.57236
mbi	-9.57255
▁faranno	-9.57438
No	-9.57465
▁Abimèlech	-9.58038
▁giardino	-9.58038
▁oggetti	-9.58038
▁piuttosto	-9.58038
▁vuoi	-9.58038
▁prendi	-9.58039
▁uscito	-9.5804
▁schiere	-9.58041
▁Giudea	-9.58041
▁metter	-9.5805
▁inferi	-9.58055
▁collera	-9.58084
▁Guai	-9.58129
▁tesori	-9.58158
▁avrete	-9.58292
▁sai	-9.58294
▁Aram	-9.58361
▁taglia	-9.58363
▁presto	-9.58456
▁vive	-9.58478
▁sì	-9.58526
▁tratta	-9.58654
▁distrugge	-9.58896
ccia	-9.58932
▁mangiato	-9.58938
▁olocausto	-9.59364
▁giunse	-9.5948
▁ribelli	-9.59617
▁Gerico	-9.59626
▁moltitudine	-9.59626
▁piede	-9.59627
▁impar	-9.59627
▁sguardo	-9.59637
▁lavori	-9.59639
▁guardia	-9.59646
▁settanta	-9.59671
▁apparve	-9.59683
▁uccise	-9.59719
▁quarto	-9.59892
▁Salmo	-9.59914
▁Qual	-9.5994
▁proclama	-9.60042
ero	-9.60223
asse	-9.60303
Sono	-9.60513
▁tal	-9.60574
nne	-9.61095
▁cadaveri	-9.61238
▁domandò	-9.61238
▁forestiero	-9.61238
▁violenza	-9.61238
▁nubi	-9.61239
▁poveri	-9.61239
▁circa	-9.6124
▁Isaia	-9.61244
▁altari	-9.61338
▁par	-9.61414
▁presta	-9.61498
▁sappia	-9.61528
▁fedeli	-9.61745
S	-9.61756
▁disprezza	-9.61905
▁cima	-9.61929
▁passato	-9.61998
▁Abram	-9.62099
▁giudica	-9.62104
▁Pe	-9.62111
cat	-9.62191
stru	-9.62423
▁dicono	-9.6244
▁udire	-9.62442
▁Sia	-9.62463
Andate	-9.62564
▁stende	-9.62569
▁Abner	-9.62878
▁Sedecìa	-9.62878
▁cherubini	-9.62878
▁germogli	-9.62878
▁partì	-9.62878
▁straniero	-9.62878
▁calpest	-9.62878
▁provoca	-9.62878
▁eterno	-9.62879
▁uscirono	-9.62879
▁turba	-9.62879
▁seduto	-9.62881
▁finito	-9.62885
▁lasciò	-9.62899
▁pezzi	-9.629
▁predica	-9.62906
▁macchia	-9.62913
▁Alla	-9.6293
▁scese	-9.62951
▁cadere	-9.63311
▁Pi	-9.63328
▁cost	-9.63376
▁maschio	-9.63408
▁reca	-9.63435
▁appar	-9.63596
▁miele	-9.63754
▁lasciato	-9.63767
▁piomb	-9.63956
▁insegna	-9.64066
▁stermina	-9.64256
▁continu	-9.64294
▁fiducia	-9.64545
▁lunghezza	-9.64551
▁registrati	-9.64557
▁amici	-9.64559
temi	-9.64579
▁volge	-9.64579
▁rimarr	-9.6462
▁vedova	-9.64624
▁rame	-9.64645
▁andate	-9.64673
▁assi	-9.64762
▁passò	-9.64768
▁avesse	-9.64798
▁fossero	-9.64958
rim	-9.64979
▁renderò	-9.65082
endi	-9.65097
rebbe	-9.65248
▁annunzi	-9.6527
met	-9.66055
▁vidi	-9.66127
▁combattere	-9.66167
▁apostoli	-9.66239
▁fortezze	-9.66239
▁prigione	-9.66239
▁significa	-9.66239
▁maledizione	-9.6624
▁Intanto	-9.6624
▁accanto	-9.66241
▁lancia	-9.66241
gni	-9.66242
▁giogo	-9.66289
▁conoscenza	-9.66298
bbene	-9.66447
▁ferma	-9.6645
rie	-9.66502
▁tratt	-9.6653
▁potre	-9.66706
▁abominio	-9.66995
pu	-9.67072
F	-9.67122
dur	-9.67288
▁scor	-9.67543
Parla	-9.67694
▁tagli	-9.67695
▁Mardocheo	-9.67964
▁fiumi	-9.67964
▁strade	-9.67964
▁dolore	-9.67965
▁bue	-9.67966
▁caccia	-9.67967
▁schiera	-9.68013
▁mettere	-9.68025
▁vieni	-9.68122
meno	-9.68173
▁vedi	-9.68186
▁trema	-9.68385
▁abitavano	-9.68391
▁porterà	-9.68549
▁principio	-9.68618
▁mostr	-9.68625
fica	-9.68638
G	-9.68956
▁scende	-9.69122
▁piant	-9.69163
atore	-9.69447
▁fior	-9.69602
▁invoca	-9.69662
▁prostr	-9.69665
▁avvicina	-9.69698
▁Damasco	-9.69718
▁Giosia	-9.69718
▁bottino	-9.69718
▁menzogna	-9.69718
▁promesso	-9.69718
▁splendore	-9.69718
▁perseguit	-9.69718
▁sopport	-9.69718
▁fretta	-9.69718
▁conosciuto	-9.6973
▁furore	-9.69733
▁supplica	-9.69734
▁possiamo	-9.69737
▁ordini	-9.69746
▁faccio	-9.69784
▁tornarono	-9.69945
▁prostrò	-9.70035
▁beve	-9.7016
▁preparato	-9.70173
▁costruito	-9.70173
▁seno	-9.70196
▁scendere	-9.70199
▁Tiro	-9.70271
▁canto	-9.70323
▁sale	-9.70358
▁abbatte	-9.70477
▁perire	-9.70625
▁confida	-9.70678
estremità	-9.70738
Come	-9.70747
▁essendo	-9.7075
▁chiamare	-9.70818
▁canta	-9.71229
▁danno	-9.71406
▁Giobbe	-9.71504
▁gesta	-9.71504
▁luoghi	-9.71504
▁interroga	-9.71504
▁Pilato	-9.71504
▁roccia	-9.71505
▁carro	-9.71505
▁morirà	-9.71506
▁arieti	-9.71507
▁fuggi	-9.71559
▁sacco	-9.71562
▁peste	-9.71602
▁spera	-9.71624
Vieni	-9.71653
▁ricco	-9.71668
▁gliel	-9.71779
▁prenderà	-9.71874
▁chiam	-9.71999
▁chiamati	-9.72053
▁bac	-9.721
▁El	-9.72121
▁metti	-9.72321
▁pianta	-9.72333
▁avanza	-9.72434
▁obbedi	-9.72455
▁Az	-9.72495
B	-9.72562
▁cade	-9.72865
▁Pu	-9.72884
▁consola	-9.72933
M	-9.7297
▁ritorna	-9.73199
costruì	-9.73244
▁conosci	-9.73303
▁riferi	-9.73306
▁giunto	-9.73322
▁Làbano	-9.73322
▁demoli	-9.73322
▁vigne	-9.73325
▁base	-9.73326
▁compiuto	-9.73343
▁carità	-9.73371
▁Gat	-9.73397
▁Po	-9.73481
▁gridò	-9.73508
▁ascoltare	-9.7351
Sa	-9.73589
▁v	-9.73717
▁oblazione	-9.73963
▁innalza	-9.74126
oriente	-9.74415
▁Ave	-9.74448
▁mesi	-9.74524
▁piace	-9.74692
▁benedisse	-9.74726
▁batte	-9.75014
▁Eleazaro	-9.75174
▁Zaccaria	-9.75174
▁fianco	-9.75174
▁arredi	-9.75175
▁concede	-9.75177
▁giuramento	-9.75191
▁median	-9.75229
▁predi	-9.75397
▁prodi	-9.75481
▁avanti	-9.75501
▁dissi	-9.75583
▁As	-9.7572
▁nati	-9.75753
O	-9.75811
▁vuole	-9.75811
alto	-9.76074
▁gettato	-9.76153
▁stare	-9.76153
▁peccatori	-9.76153
▁second	-9.76318
▁semina	-9.76834
▁uccidere	-9.76895
▁descritt	-9.77061
▁pasqua	-9.77061
▁piccoli	-9.77061
▁ricchezza	-9.77061
▁pieni	-9.77062
▁vicini	-9.77063
efod	-9.77063
▁intanto	-9.77068
▁domani	-9.77092
▁procur	-9.77096
▁pastori	-9.77104
ber	-9.7711
▁Noè	-9.77145
▁potenti	-9.77171
rse	-9.77277
▁occidente	-9.77287
▁creato	-9.77382
▁Simone	-9.77389
▁guida	-9.77433
▁consegnato	-9.77591
▁Fara	-9.78192
▁malvagio	-9.78311
▁canti	-9.7837
▁vestito	-9.78417
ìa	-9.78677
▁ordina	-9.78798
▁paga	-9.78925
▁Betlemme	-9.78983
▁Cananei	-9.78983
▁Zadòk	-9.78983
▁ardente	-9.78984
▁benevolenza	-9.78984
▁coppa	-9.78984
▁medesim	-9.78984
▁Ester	-9.78985
▁stima	-9.78988
▁governatore	-9.7899
▁aperto	-9.78996
▁risuscitato	-9.79059
amm	-9.79071
▁gr	-9.79112
▁profetizza	-9.79129
impu	-9.79174
▁presa	-9.79181
▁segni	-9.79231
▁Aser	-9.7926
▁numerosi	-9.7929
▁alzarono	-9.79395
▁retto	-9.79428
Ma	-9.79562
▁albero	-9.79562
▁compra	-9.796
ngono	-9.79607
▁consegn	-9.79625
lta	-9.79665
La	-9.79752
▁dirà	-9.79849
▁crea	-9.79951
▁dovre	-9.79976
▁pianto	-9.8021
▁vivi	-9.80251
▁N	-9.80285
▁Mar	-9.80617
▁Quell	-9.80719
▁perdona	-9.80814
▁Nèftali	-9.80944
▁Roboamo	-9.80944
▁appartiene	-9.80944
▁comandamenti	-9.80944
▁cedro	-9.80945
▁superbi	-9.80945
▁uscirà	-9.80945
▁piaga	-9.80946
▁accoglie	-9.80946
▁viscere	-9.80951
▁domina	-9.80967
▁ascoltate	-9.81007
Da	-9.81009
▁entrerà	-9.81032
▁resterà	-9.81049
▁inviato	-9.81086
▁cant	-9.81113
▁circonda	-9.81275
egli	-9.81485
par	-9.81507
▁angoscia	-9.81606
ndovi	-9.81626
▁allontan	-9.81856
ione	-9.81874
▁doni	-9.81891
▁spavento	-9.81928
▁Tal	-9.82228
Di	-9.82266
▁Za	-9.82426
▁ridott	-9.8243
▁Cam	-9.82634
una	-9.82718
▁avver	-9.82782
▁discende	-9.8285
q	-9.82943
▁Gàbaa	-9.82944
▁Simeone	-9.82944
▁bontà	-9.82944
▁desidera	-9.82944
▁dispersi	-9.82944
▁frontiera	-9.82944
▁moltiplica	-9.82944
▁ricostrui	-9.82944
orgoglio	-9.82944
Altissimo	-9.82946
▁distrutto	-9.82946
▁regina	-9.82947
▁Amàn	-9.82948
▁colpevole	-9.82948
▁raggiunge	-9.82951
▁toglie	-9.82971
▁vendetta	-9.82981
▁mangerete	-9.82994
▁aiuta	-9.83002
▁Ioram	-9.83016
▁viventi	-9.83031
▁salire	-9.83044
▁tesoro	-9.83066
▁nuova	-9.83071
▁capro	-9.83081
▁dirgli	-9.83082
▁prepar	-9.83221
sal	-9.83326
ssimo	-9.83353
▁sentito	-9.83442
pro	-9.83646
▁mostra	-9.83742
▁No	-9.83753
▁farlo	-9.8387
▁regna	-9.83969
▁spavent	-9.83984
▁Sta	-9.84081
▁abomini	-9.84199
▁porti	-9.84227
▁abiti	-9.84407
oppresso	-9.84654
▁posso	-9.84762
▁spiega	-9.84953
▁Madian	-9.84963
▁Ioiadà	-9.84985
▁compassione	-9.84985
▁fondamenta	-9.84985
▁cadranno	-9.84985
▁fonda	-9.84986
▁fatica	-9.84987
▁lettera	-9.84988
▁Chiesa	-9.84991
vestì	-9.85034
▁vanno	-9.85043
▁comporta	-9.85058
▁To	-9.85111
▁corona	-9.85118
▁resti	-9.85133
▁punto	-9.85138
▁vengono	-9.85149
▁dottrina	-9.85173
▁Certo	-9.85247
▁compiere	-9.85339
at	-9.85538
steso	-9.85556
▁braccia	-9.8565
▁presente	-9.85729
Su	-9.85808
L	-9.85993
▁pecca	-9.86074
▁ricordo	-9.862
▁rest	-9.86233
▁messi	-9.86254
▁cap	-9.86264
▁principi	-9.86281
eredità	-9.8631
▁agita	-9.86373
▁duecento	-9.86553
▁occhio	-9.8658
▁Am	-9.86637
▁commette	-9.86778
▁manifest	-9.86892
àm	-9.87054
▁primi	-9.87057
▁govern	-9.87061
▁Zàbulon	-9.87068
▁aggiunse	-9.87068
▁ascolto	-9.87068
▁banchetto	-9.87068
▁schiavitù	-9.87068
▁trombe	-9.87068
▁insulta	-9.87069
▁sacro	-9.87069
▁stelle	-9.8707
▁prezzo	-9.87084
▁pens	-9.87096
▁agito	-9.87101
▁accusa	-9.87135
▁salvato	-9.87263
▁vada	-9.87328
▁Car	-9.87358
▁ricerca	-9.87395
▁intelligenza	-9.87416
▁decimo	-9.87528
▁Assiria	-9.88114
▁commettere	-9.88211
▁seme	-9.88233
▁combatte	-9.8824
▁temete	-9.8835
▁date	-9.88384
▁giudizi	-9.88413
▁Pres	-9.88435
venterà	-9.88438
▁avrebbe	-9.88477
▁consegna	-9.88607
D	-9.88679
▁viva	-9.88864
▁vende	-9.8895
▁accost	-9.88993
▁doveva	-9.89027
▁sazia	-9.89056
▁Cor	-9.89117
▁dec	-9.89138
▁legna	-9.8917
▁Rachele	-9.89196
▁cammelli	-9.89196
▁giovinezza	-9.89196
▁menzogne	-9.89196
▁scriba	-9.89196
▁Basan	-9.89196
▁notizia	-9.89196
▁altrimenti	-9.89196
▁ufficiali	-9.89197
▁satana	-9.89197
▁bisso	-9.89198
▁Azaria	-9.89202
▁colpe	-9.89257
T	-9.89265
▁pastore	-9.89377
▁accosta	-9.89414
▁possono	-9.8951
▁distruggere	-9.89518
▁offrirà	-9.89602
▁caso	-9.8963
▁quarant	-9.89687
▁scorre	-9.89811
▁riscatto	-9.89818
▁piano	-9.90057
▁riconosce	-9.90205
▁agisc	-9.90275
▁otto	-9.90344
▁giura	-9.90448
ombra	-9.90601
oblazione	-9.90608
ram	-9.90625
▁stabili	-9.9092
▁Cont	-9.91015
▁tira	-9.9111
▁manifesta	-9.91148
▁conserva	-9.91237
▁chiese	-9.91239
▁accamp	-9.9126
▁Sòdoma	-9.9137
▁desolazione	-9.9137
▁lebbra	-9.9137
▁risurrezione	-9.9137
▁sconfisse	-9.9137
▁demòni	-9.9137
▁niente	-9.9137
▁tolto	-9.9137
▁prigionieri	-9.9137
▁deciso	-9.91371
▁recinto	-9.91371
▁guadagn	-9.91372
▁Iesse	-9.91382
▁colpì	-9.91387
▁fissa	-9.91413
▁latte	-9.91431
▁quinto	-9.91495
▁marcia	-9.91502
▁talenti	-9.91575
▁andato	-9.91633
▁allontanò	-9.91714
▁voto	-9.91849
▁chiamata	-9.91924
▁ero	-9.92002
▁generato	-9.92013
▁terre	-9.92153
▁raduna	-9.92558
interno	-9.92822
▁And	-9.93025
▁comanda	-9.93049
▁prender	-9.9312
▁rimand	-9.93305
▁costruire	-9.93312
▁acquista	-9.93461
▁possed	-9.93547
▁Ismaele	-9.93592
▁cavalieri	-9.93592
▁giudici	-9.93592
▁pensieri	-9.93592
▁scarlatto	-9.93592
▁successo	-9.93592
▁fiamme	-9.93592
▁qualcosa	-9.93592
▁vanità	-9.93592
▁voglia	-9.93596
▁statua	-9.93596
▁soave	-9.93596
▁onora	-9.93609
Maestro	-9.9363
▁soffio	-9.93637
▁indoss	-9.93684
▁pronunzi	-9.93716
▁barca	-9.93726
▁capri	-9.93727
▁andati	-9.93747
▁radunarono	-9.93834
▁sapeva	-9.93867
▁innocente	-9.93894
▁denti	-9.93968
▁riva	-9.93997
▁venivano	-9.94036
▁luna	-9.94247
rì	-9.94396
▁pian	-9.94423
▁or	-9.94478
sette	-9.9449
gano	-9.94586
▁lino	-9.94613
▁atti	-9.94701
▁ritorno	-9.94792
▁ripos	-9.94903
▁liberato	-9.94934
▁Lot	-9.94975
▁digiun	-9.95086
Prendi	-9.95096
angoscia	-9.95102
Dice	-9.95156
cam	-9.95192
▁Ascoltate	-9.95363
fino	-9.95508
stro	-9.95519
▁vole	-9.95754
▁considera	-9.95838
Onnipotente	-9.95865
▁carestia	-9.95865
▁nudità	-9.95865
▁offrì	-9.95865
▁ragione	-9.95865
▁sepolto	-9.95865
▁sfugg	-9.95865
▁stanze	-9.95865
▁superstiti	-9.95865
▁debole	-9.95865
▁destinat	-9.95865
▁ripudi	-9.95865
▁aprì	-9.95866
▁conduce	-9.95866
▁Venne	-9.95869
▁strument	-9.95871
▁dici	-9.959
▁portico	-9.95919
▁siede	-9.95965
▁volle	-9.95972
▁circoncisi	-9.96004
▁compagni	-9.96012
▁immol	-9.96103
▁rallegr	-9.96121
▁terreno	-9.96177
▁rivolge	-9.9618
▁entrarono	-9.9629
▁disprezzato	-9.96356
▁bella	-9.96526
▁lì	-9.96559
▁trovarono	-9.96593
▁salvare	-9.97006
▁anima	-9.97113
▁travi	-9.97115
▁Av	-9.97165
▁Do	-9.97262
▁Sara	-9.97361
▁vuol	-9.97395
▁servito	-9.97414
Voi	-9.97438
▁insegui	-9.97656
▁Pot	-9.97795
ture	-9.97817
▁ricev	-9.97852
▁seppelli	-9.9804
▁cadde	-9.98186
▁Balak	-9.98191
▁coraggio	-9.98191
▁innanzi	-9.98191
▁inoltre	-9.98191
▁sinagoga	-9.98191
▁valorosi	-9.98191
▁Benaià	-9.98191
▁Partirono	-9.98191
▁soldati	-9.98191
▁Kiriat	-9.98191
▁cadavere	-9.98191
▁vedrà	-9.98191
▁generazioni	-9.98192
▁libero	-9.98192
▁peggio	-9.98193
▁antichi	-9.98195
▁sacrifica	-9.98197
▁amico	-9.98202
▁asini	-9.98212
▁chiude	-9.98269
▁malvagità	-9.98269
▁stese	-9.98305
▁petto	-9.98325
▁Asaf	-9.98348
▁ritira	-9.98358
▁riuni	-9.98475
▁agnello	-9.98539
▁abbondanza	-9.98547
▁rimasto	-9.98634
▁partirono	-9.98723
▁castigo	-9.9873
▁Beat	-9.9873
▁fama	-9.98732
▁Han	-9.98777
▁dar	-9.98913
▁miseria	-9.98969
▁lasciar	-9.99109
▁trovavano	-9.99252
▁V	-9.99265
unzione	-9.99742
quattro	-9.99815
Quando	-9.99816
▁attacca	-9.9987
▁Dal	-9.99898
occhio	-9.99927
▁separ	-10.0007
▁cresce	-10.0012
▁spezza	-10.0028
▁Sem	-10.0044
▁strappa	-10.0056
▁Gedeone	-10.0057
▁Giacomo	-10.0057
▁orientale	-10.0057
▁ragazzo	-10.0057
▁risparmi	-10.0057
▁vergine	-10.0057
▁conclus	-10.0057
▁difesa	-10.0057
▁falso	-10.0057
▁migliaia	-10.0057
▁corna	-10.0057
▁decreto	-10.0057
▁feci	-10.0057
▁grave	-10.0058
▁Erode	-10.0058
▁santifica	-10.0059
▁voluto	-10.006
▁diletto	-10.006
▁Is	-10.0061
▁inform	-10.0064
▁sappiamo	-10.0068
▁pesci	-10.0069
▁mosse	-10.0071
▁veda	-10.0074
▁Ebbene	-10.0082
▁Or	-10.0082
▁salv	-10.0084
▁colli	-10.0094
▁raccolto	-10.01
▁facevano	-10.0113
▁annunziato	-10.0134
▁Fino	-10.0157
▁mal	-10.0174
▁prove	-10.0175
▁maschi	-10.0223
incenso	-10.0225
intorno	-10.0225
aria	-10.0241
▁pass	-10.0246
▁seguire	-10.0247
▁diventat	-10.0259
▁esseri	-10.0278
▁riposa	-10.0285
▁armi	-10.0286
▁Zi	-10.0287
▁vorr	-10.0298
▁sacri	-10.03
▁attenzione	-10.0301
▁cancell	-10.0301
▁quattordici	-10.0301
▁precede	-10.0301
▁precetti	-10.0301
▁vedranno	-10.0301
▁scudo	-10.0301
▁vittima	-10.0301
▁cintura	-10.0301
▁Nilo	-10.0301
▁rialz	-10.0301
▁Acaz	-10.0301
▁minuto	-10.0301
▁anelli	-10.0301
▁culto	-10.0301
▁serve	-10.0302
▁scrive	-10.0302
▁navi	-10.0302
▁simili	-10.0302
Ascolt	-10.0303
▁corse	-10.0306
▁deportati	-10.0306
▁fortezza	-10.0311
▁pesa	-10.032
▁grosso	-10.0322
▁giunsero	-10.0323
▁vado	-10.0328
▁nutr	-10.0334
att	-10.0335
▁condotto	-10.034
▁vite	-10.0347
▁avverrà	-10.0352
▁asse	-10.0357
▁maggiore	-10.036
▁ariete	-10.0368
▁sessanta	-10.0368
▁Là	-10.0378
▁abitano	-10.0395
▁vera	-10.0409
▁combatt	-10.0423
aveva	-10.0442
ndoli	-10.0455
anche	-10.046
▁mando	-10.0463
▁desideri	-10.0472
▁ciascun	-10.0473
car	-10.0474
▁teso	-10.0517
▁mari	-10.0523
▁sol	-10.0526
▁arriv	-10.0532
▁corre	-10.0549
omicida	-10.0551
▁Issacar	-10.0551
▁guerrieri	-10.0551
▁mangerà	-10.0551
▁stabilì	-10.0551
▁Osserv	-10.0551
▁Merari	-10.0551
▁Tuttavia	-10.0551
▁Rama	-10.0551
▁avvenne	-10.0551
▁siclo	-10.0552
▁tuttavia	-10.0553
▁strapp	-10.0553
▁pozzo	-10.0553
▁senno	-10.0554
▁rovine	-10.0554
▁rapi	-10.0556
▁inviò	-10.0556
▁diecimila	-10.0556
▁scava	-10.0562
▁suona	-10.0567
▁costituito	-10.0568
▁fermò	-10.058
▁pone	-10.0592
▁Tutta	-10.0603
▁Ascolta	-10.0609
▁salvatore	-10.061
▁suon	-10.0616
▁desiderio	-10.0631
▁esulta	-10.0643
▁Amat	-10.0644
▁prov	-10.0647
▁confid	-10.0669
▁poter	-10.0723
▁camminare	-10.0726
albero	-10.0731
▁adempi	-10.0735
▁proclam	-10.074
▁cerc	-10.0741
▁T	-10.0752
▁entr	-10.0758
▁passava	-10.0763
▁sentire	-10.077
▁fiss	-10.0771
▁fumo	-10.0778
▁irr	-10.0781
▁saluta	-10.0789
▁avre	-10.0794
▁leoni	-10.08
Bàal	-10.0807
▁Gherson	-10.0807
▁Gàbaon	-10.0807
▁Inoltre	-10.0807
▁creduto	-10.0807
▁lingue	-10.0807
▁rispetto	-10.0807
▁rumore	-10.0807
▁scioglie	-10.0807
▁spiriti	-10.0807
▁capelli	-10.0807
▁riferì	-10.0807
▁sacra	-10.0807
▁stolti	-10.0808
▁croce	-10.0808
Benedett	-10.0808
verà	-10.0808
▁cieco	-10.0808
▁sicuro	-10.0809
▁termine	-10.0809
▁pezzo	-10.0809
▁scudi	-10.0811
▁Amen	-10.0823
▁seppellirono	-10.0825
▁cantori	-10.0827
▁trasport	-10.0835
▁suono	-10.084
▁Molti	-10.0842
zion	-10.0861
▁partori	-10.0874
Ti	-10.0881
▁Seir	-10.0886
▁cuor	-10.0894
▁god	-10.0898
▁Silo	-10.0908
▁diranno	-10.0917
arco	-10.0957
lmente	-10.0958
▁Ver	-10.0973
aspetto	-10.0994
▁inni	-10.1021
▁soli	-10.1037
▁cambia	-10.104
▁cercate	-10.1055
▁risuscit	-10.106
▁trovare	-10.1061
▁perde	-10.1069
▁Gàlgala	-10.1071
▁Izreèl	-10.1071
▁caduta	-10.1071
▁candelabro	-10.1071
▁opprime	-10.1071
▁primizie	-10.1071
▁sacerdozio	-10.1071
▁salario	-10.1071
▁sparge	-10.1071
▁superiore	-10.1071
▁giudicher	-10.1071
▁guarir	-10.1071
▁selvatiche	-10.1071
▁libazioni	-10.1071
▁minaccia	-10.1071
▁Anania	-10.1071
▁malizia	-10.1071
▁ruba	-10.1071
ronache	-10.1071
▁sorta	-10.1071
▁piega	-10.1071
▁edifica	-10.1071
▁Sinai	-10.1072
▁Uria	-10.1072
▁usciti	-10.1073
▁inarid	-10.1073
▁dì	-10.1074
▁Can	-10.1074
▁cubito	-10.1075
▁Sansone	-10.108
▁addormentò	-10.1088
▁giace	-10.1106
▁alta	-10.1117
▁sedere	-10.1118
▁volete	-10.1119
▁consacra	-10.1124
▁colle	-10.113
zzo	-10.1133
▁esult	-10.1138
▁suscit	-10.1157
▁Prende	-10.1157
▁Sì	-10.1167
▁Core	-10.1174
▁finir	-10.1182
▁tenta	-10.1182
herò	-10.121
▁rispondere	-10.1219
▁trecento	-10.1227
▁cos	-10.1233
▁riscatt	-10.1237
▁dirai	-10.1238
edero	-10.1241
▁attende	-10.1255
▁consum	-10.133
▁giovenchi	-10.1341
▁grembo	-10.1341
▁lacrime	-10.1341
▁necessario	-10.1341
▁piazze	-10.1341
▁qualsiasi	-10.1341
▁riguarda	-10.1341
▁toccò	-10.1341
▁troverà	-10.1341
▁inciamp	-10.1341
▁stanghe	-10.1341
▁pecora	-10.1341
▁cortile	-10.1341
▁trovi	-10.1341
▁calice	-10.1341
▁forze	-10.1341
▁condizione	-10.1341
▁credi	-10.1342
Venite	-10.1342
▁intris	-10.1343
orzo	-10.1344
▁sedette	-10.1344
▁Persia	-10.1344
▁degno	-10.1347
▁dovunque	-10.1347
ottavo	-10.1349
▁passerà	-10.1354
▁autorità	-10.1357
▁riten	-10.1358
▁Dov	-10.1359
▁avvicinò	-10.1363
▁salut	-10.1365
▁uccisero	-10.1366
▁percosse	-10.1367
▁rese	-10.1367
▁quantità	-10.1369
▁spezzato	-10.1374
▁pena	-10.1374
Dio	-10.1377
▁grandine	-10.138
vole	-10.1383
▁Sarà	-10.1395
▁gradito	-10.1396
▁potrebbe	-10.1399
▁sonno	-10.1411
hi	-10.1413
▁vent	-10.1417
▁affid	-10.142
▁consumato	-10.1435
dad	-10.1441
▁serva	-10.1445
▁bruci	-10.1447
▁aspetto	-10.1451
▁estremità	-10.146
san	-10.1471
ntro	-10.1488
▁aspetta	-10.1507
▁solleva	-10.1533
▁ferm	-10.1536
▁pianse	-10.1542
▁segue	-10.1557
hanno	-10.156
▁pat	-10.1579
▁gem	-10.1593
▁uccisi	-10.1602
▁torre	-10.1605
Hadàd	-10.1619
▁meraviglie	-10.1619
▁muoia	-10.1619
▁muore	-10.1619
▁paterni	-10.1619
▁riguardi	-10.1619
▁risposta	-10.1619
▁risposto	-10.1619
▁rivolse	-10.1619
▁rugiada	-10.1619
▁sconvol	-10.1619
▁stoltezza	-10.1619
▁Caleb	-10.1619
▁paesi	-10.1619
▁armenti	-10.1619
▁torni	-10.1619
▁dolori	-10.1619
▁vittime	-10.1619
▁torment	-10.1619
▁svegli	-10.1619
▁vivrà	-10.1619
▁vicina	-10.1619
▁ciechi	-10.1619
▁Acazia	-10.162
▁Ghi	-10.1621
▁riferisci	-10.1624
▁rientr	-10.1626
▁Filippo	-10.1629
▁fossi	-10.1629
▁Passa	-10.1632
▁Tra	-10.1633
▁vanta	-10.1637
▁resistere	-10.1639
▁prenderai	-10.1643
▁dimenticato	-10.1644
▁morta	-10.1644
▁dimore	-10.1646
▁irrit	-10.1651
▁schi	-10.1655
▁arrivò	-10.1657
▁occupa	-10.1661
▁vaso	-10.1664
▁ventre	-10.1668
▁mandarono	-10.1671
▁segreto	-10.1671
▁grandezza	-10.1674
▁rivolto	-10.1677
Z	-10.1686
▁colpito	-10.1688
▁inganna	-10.1706
▁ch	-10.1711
▁compie	-10.1733
▁impadron	-10.1737
▁indica	-10.1743
▁trama	-10.1748
▁nasconde	-10.1752
▁comprende	-10.1753
▁dò	-10.1768
ntrato	-10.1772
▁Guarda	-10.1774
Un	-10.1776
▁sembra	-10.1777
▁sovr	-10.1782
▁sede	-10.1792
▁buone	-10.1799
▁Sua	-10.1804
ariete	-10.183
àr	-10.1835
asino	-10.1838
▁votat	-10.1846
insegn	-10.1864
▁rivel	-10.1878
▁Natan	-10.1903
▁Negheb	-10.1904
▁fanciullo	-10.1904
▁frecce	-10.1904
▁immondi	-10.1904
▁rettitudine	-10.1904
▁saccheggia	-10.1904
▁testimone	-10.1904
▁tomba	-10.1904
▁Kades	-10.1904
▁stupi	-10.1904
▁Amazia	-10.1904
▁regioni	-10.1904
▁rupe	-10.1904
▁corni	-10.1905
▁condotti	-10.1905
▁sentieri	-10.1905
▁venite	-10.1905
▁rossa	-10.1905
▁conged	-10.1905
▁spine	-10.1905
▁vigore	-10.1905
▁levita	-10.1907
▁odio	-10.1909
▁spiegazione	-10.1909
abisso	-10.1912
▁vedrete	-10.1914
▁pronto	-10.1918
▁pochi	-10.1919
▁colloca	-10.192
▁osservato	-10.1921
▁gelosia	-10.1923
▁parli	-10.1926
▁coric	-10.1932
▁produce	-10.1933
▁colm	-10.1947
▁maniera	-10.1953
▁prostituta	-10.1955
▁retta	-10.1977
▁voti	-10.1981
retti	-10.1983
▁vasi	-10.1987
▁disprezz	-10.2015
▁possiede	-10.2019
▁ribella	-10.2021
▁rifiut	-10.2025
centocinquanta	-10.2046
▁fatte	-10.2055
▁ingann	-10.2059
▁accetta	-10.2062
▁tutt	-10.2099
▁sigill	-10.2123
▁nascos	-10.2147
▁sete	-10.215
▁render	-10.218
▁seppe	-10.2183
▁assegnat	-10.2191
▁prelev	-10.2193
▁Obed	-10.2198
▁Bersabea	-10.2199
▁Ioiakìm	-10.2199
▁cattivo	-10.2199
▁cisterna	-10.2199
▁davvero	-10.2199
▁dipendenze	-10.2199
▁mangeranno	-10.2199
▁scongiur	-10.2199
▁serpente	-10.2199
▁montagna	-10.2199
▁Costoro	-10.2199
▁difetto	-10.2199
▁cavallo	-10.2199
▁diavolo	-10.2199
▁cadrà	-10.2199
▁vantaggio	-10.2199
▁saldo	-10.2199
▁molta	-10.2199
▁realtà	-10.2199
▁stracci	-10.2199
▁visioni	-10.2199
▁basso	-10.2199
▁liberi	-10.2199
▁dirige	-10.2199
▁stele	-10.22
▁tace	-10.2201
▁protegg	-10.2202
▁visita	-10.2203
▁divorerà	-10.2204
▁Dall	-10.2207
stre	-10.2218
▁andrai	-10.2221
▁verrò	-10.2222
▁carcere	-10.2224
▁fuggirono	-10.2225
▁conoscono	-10.2228
▁avessi	-10.2228
▁partorito	-10.2231
▁stanza	-10.2242
▁pronti	-10.2242
▁ricompensa	-10.2243
▁insegnare	-10.2284
▁deport	-10.2293
mar	-10.23
▁entri	-10.2311
▁annunziare	-10.2333
▁seicento	-10.2351
▁tener	-10.2352
▁Ab	-10.2365
▁abbatt	-10.237
▁fiori	-10.2393
Così	-10.2426
▁consuma	-10.2431
▁buoni	-10.2431
▁Cas	-10.2433
▁guid	-10.2442
▁portate	-10.2459
▁regn	-10.2464
▁confusi	-10.2501
▁Filisteo	-10.2502
▁Scrittura	-10.2502
▁appunt	-10.2502
▁frumento	-10.2502
▁mangerai	-10.2502
▁pazienza	-10.2502
▁provincia	-10.2502
▁soggiunse	-10.2502
▁ultimi	-10.2502
▁ruote	-10.2502
▁vittoria	-10.2502
▁discute	-10.2502
▁dolce	-10.2502
▁torto	-10.2502
▁schiave	-10.2502
▁valore	-10.2502
▁pianura	-10.2502
▁Simei	-10.2502
▁circoncisione	-10.2503
▁afflitt	-10.2503
▁vitello	-10.2504
▁sapendo	-10.2507
▁veglia	-10.2512
▁restaur	-10.2512
▁fico	-10.2515
▁agguato	-10.2517
▁compagno	-10.2518
▁offerto	-10.2518
▁Fra	-10.2524
▁riferirono	-10.2528
▁profanato	-10.2533
▁quindici	-10.2533
▁direzione	-10.2534
...	-10.2538
▁celebr	-10.2546
▁acceso	-10.2546
▁accese	-10.2547
▁Mica	-10.2554
▁disperde	-10.2556
▁colpiti	-10.2561
▁sparse	-10.2576
nni	-10.2581
▁entrati	-10.2584
▁sesto	-10.2607
Ri	-10.2607
▁rifugia	-10.2607
àn	-10.2623
▁vale	-10.2627
▁osservare	-10.2668
▁amano	-10.269
▁Lia	-10.2713
nderò	-10.2726
▁ove	-10.2732
▁rendi	-10.2732
▁tenebr	-10.2735
Alzati	-10.2737
▁terz	-10.2743
▁avvi	-10.2752
iamoci	-10.2777
▁conosco	-10.2785
▁laccio	-10.2794
▁rive	-10.2812
Agnello	-10.2814
▁Rebecca	-10.2814
▁caduti	-10.2814
▁coscienza	-10.2814
▁giunta	-10.2814
▁membra	-10.2814
▁oppure	-10.2814
▁riparazione	-10.2814
▁scherno	-10.2814
▁spezzer	-10.2814
▁cittadin	-10.2814
▁perfetta	-10.2814
▁norme	-10.2814
▁mietitura	-10.2814
▁arresta	-10.2814
▁sabati	-10.2814
▁spazio	-10.2814
ultimo	-10.2814
▁falsi	-10.2814
▁carni	-10.2814
▁attenta	-10.2814
▁tard	-10.2815
sentì	-10.2815
▁isole	-10.2816
▁ripet	-10.2821
▁puoi	-10.2822
▁credette	-10.2824
▁assegn	-10.2827
▁terribile	-10.2828
▁Sicon	-10.2829
▁mossero	-10.2834
▁credenti	-10.2836
▁vedono	-10.2837
▁sapre	-10.2842
▁stesse	-10.2849
▁battezz	-10.2852
▁scacci	-10.2854
▁sceso	-10.2856
▁crescere	-10.2878
▁pascolo	-10.288
▁giudicare	-10.2907
▁gridarono	-10.2908
▁abbi	-10.2911
▁ven	-10.2929
scerà	-10.293
V	-10.2932
▁usc	-10.2957
tela	-10.298
▁comprendere	-10.2983
▁bagn	-10.2983
▁Entr	-10.299
nati	-10.2991
▁voleva	-10.2997
lità	-10.3034
▁grid	-10.3035
hai	-10.3046
▁convert	-10.3053
▁percuote	-10.3058
▁dimentica	-10.3059
▁manten	-10.3066
▁raccont	-10.307
▁rendere	-10.3082
▁spia	-10.3085
▁stai	-10.3095
▁nuo	-10.3104
▁usciva	-10.3106
▁credete	-10.312
▁Chelkia	-10.3137
▁Sidòne	-10.3137
▁afferma	-10.3137
▁ascolti	-10.3137
▁bestemmia	-10.3137
▁lampade	-10.3137
▁messaggero	-10.3137
▁parabola	-10.3137
▁preghiere	-10.3137
▁deposit	-10.3137
▁piccola	-10.3137
▁Giona	-10.3137
▁fiamma	-10.3137
orfano	-10.3137
▁Zerach	-10.3137
▁lontani	-10.3137
▁spetta	-10.3137
▁chiesto	-10.3137
▁accade	-10.3137
Ezer	-10.3138
▁scrisse	-10.3139
▁aument	-10.3139
▁destro	-10.3141
▁Chiese	-10.3141
▁profumi	-10.3141
▁saputo	-10.3141
▁fichi	-10.3144
▁mangi	-10.3153
▁nove	-10.3155
▁malato	-10.3157
▁flagello	-10.3162
▁avvicinarono	-10.317
venuto	-10.3173
▁Pro	-10.3176
▁sante	-10.3184
Le	-10.3184
▁cambi	-10.3184
▁rotolo	-10.3185
▁seminato	-10.3188
▁abitava	-10.3189
▁consegnò	-10.3189
etro	-10.3191
duci	-10.3199
uma	-10.3204
▁racconta	-10.3204
▁distribui	-10.321
▁sposo	-10.3213
▁preoccupa	-10.3217
▁trattato	-10.3218
▁esalt	-10.3218
▁bruciato	-10.3223
▁sigillo	-10.3225
▁han	-10.3229
▁stend	-10.3234
▁Alzati	-10.3236
▁visse	-10.3236
▁mangiarono	-10.3237
▁contare	-10.3256
▁arco	-10.3256
▁cercano	-10.3276
▁prest	-10.3289
Con	-10.3309
cinque	-10.3312
▁vestiti	-10.3321
▁credere	-10.3332
▁benefic	-10.3335
▁priva	-10.3337
▁innalz	-10.3347
▁divenut	-10.3351
▁Dove	-10.3366
▁gode	-10.3366
▁Però	-10.3369
▁diventati	-10.3371
▁ricad	-10.3388
▁maggior	-10.3391
▁benedett	-10.3395
▁Sam	-10.3398
uscita	-10.3408
▁rivers	-10.3409
▁domande	-10.342
R	-10.3435
▁appari	-10.3436
▁devasta	-10.3439
▁devastato	-10.3443
▁pronunziat	-10.3451
▁Keat	-10.3468
▁messe	-10.3469
almente	-10.3469
▁imped	-10.347
obbrobrio	-10.347
▁Booz	-10.347
▁Safàn	-10.347
▁accessori	-10.347
▁discepolo	-10.347
▁felice	-10.347
▁miracoli	-10.347
▁rimprovera	-10.347
▁trafitti	-10.347
▁tribolazione	-10.347
▁memoria	-10.347
Araba	-10.347
▁congiura	-10.347
▁palazzi	-10.347
▁Pertanto	-10.347
▁colonna	-10.347
▁udì	-10.347
▁dominio	-10.347
▁azzimi	-10.347
▁cenere	-10.347
▁fondo	-10.347
ingiustizia	-10.347
▁canna	-10.3471
▁cerchi	-10.3471
▁lascerò	-10.3471
▁gira	-10.3472
▁limite	-10.3472
▁province	-10.3472
scendono	-10.3473
▁Nun	-10.3475
▁sabbia	-10.3476
▁Maaca	-10.3478
▁palme	-10.3479
▁accende	-10.348
▁spunt	-10.3482
▁crocifisso	-10.349
▁verde	-10.3493
sorto	-10.3503
▁Canto	-10.3508
▁altezza	-10.351
▁prostrarono	-10.3516
Vi	-10.3518
▁agire	-10.3531
▁retti	-10.3545
▁liberati	-10.3547
▁giurare	-10.3553
▁Risposero	-10.3562
▁bat	-10.3567
▁spos	-10.3576
▁seguirono	-10.3579
▁Og	-10.3582
▁passati	-10.3592
▁glori	-10.36
▁ridurr	-10.3619
▁sollev	-10.3628
▁quattrocento	-10.3633
▁castig	-10.3639
Dov	-10.3658
▁immola	-10.3674
▁colpisc	-10.3679
▁Ve	-10.3685
▁darai	-10.3689
▁cercare	-10.3703
▁presenti	-10.3717
espiazione	-10.3738
▁sappiate	-10.3738
▁vecchi	-10.3745
Sì	-10.3749
▁vacilla	-10.377
▁cess	-10.3777
▁Bel	-10.3779
efa	-10.3789
▁capita	-10.3791
Ci	-10.3801
▁url	-10.3803
▁nem	-10.3806
Hittita	-10.3815
infedeltà	-10.3815
uccello	-10.3815
▁Barnaba	-10.3815
▁Hittiti	-10.3815
▁Kis	-10.3815
▁Legge	-10.3815
▁Pasqua	-10.3815
▁bevuto	-10.3815
▁cattivi	-10.3815
▁coperchio	-10.3815
▁eppure	-10.3815
▁fuggì	-10.3815
▁penetra	-10.3815
▁preziose	-10.3815
▁settentrionale	-10.3815
▁toccher	-10.3815
▁tranquilli	-10.3815
▁Dodici	-10.3815
▁Iefte	-10.3815
▁libertà	-10.3815
▁rafforz	-10.3815
▁difetti	-10.3815
▁libazione	-10.3815
▁tramonto	-10.3815
▁scaccer	-10.3815
▁ricopr	-10.3815
▁fragore	-10.3815
▁accorse	-10.3815
▁Carmel	-10.3815
▁migliore	-10.3815
▁eravamo	-10.3816
▁Semaia	-10.3816
▁barba	-10.3816
▁fabbrica	-10.3817
▁soglia	-10.3817
▁ladro	-10.3818
errore	-10.3823
▁caro	-10.3824
▁nasce	-10.3832
▁sepolcri	-10.3834
▁prego	-10.3836
▁caddero	-10.3837
▁scuote	-10.384
▁prescrizioni	-10.384
Al	-10.3841
▁periranno	-10.3842
▁accaduto	-10.3856
▁posa	-10.3867
▁Sull	-10.3869
▁"	-10.3884
▁prodotti	-10.3885
▁rimasti	-10.3897
▁toccato	-10.3906
▁elimin	-10.3917
▁salvo	-10.3927
▁Abia	-10.3947
▁pregare	-10.3954
▁versato	-10.3955
▁bruciare	-10.3955
▁consacr	-10.3957
▁operato	-10.3958
▁accett	-10.398
▁fuga	-10.4004
N	-10.4015
▁portano	-10.4019
ume	-10.4022
durrò	-10.4042
▁sorge	-10.4054
▁Mo	-10.406
▁seguiva	-10.4061
▁celebra	-10.4062
▁uccid	-10.4071
▁Dis	-10.4073
gar	-10.4084
omini	-10.4094
cento	-10.4096
condo	-10.4096
Anch	-10.4103
▁farti	-10.4104
Elam	-10.4126
trice	-10.4136
▁ricevere	-10.4137
▁saliva	-10.4168
▁Anzi	-10.4172
▁pubblic	-10.4172
accompagna	-10.4172
▁Amnòn	-10.4172
▁Godolia	-10.4172
▁ministero	-10.4172
▁occidentale	-10.4172
▁primogeniti	-10.4172
▁sciagura	-10.4172
▁spegne	-10.4172
▁strage	-10.4172
▁tranquillo	-10.4172
▁Alcuni	-10.4172
▁rattrist	-10.4172
▁vergini	-10.4172
▁Baasa	-10.4172
▁Cesare	-10.4172
▁lievito	-10.4172
▁percorre	-10.4172
▁mormora	-10.4172
▁comune	-10.4172
▁esilio	-10.4172
▁martell	-10.4172
▁radici	-10.4172
▁esamina	-10.4172
▁piazza	-10.4172
▁cinge	-10.4172
▁portieri	-10.4172
▁Giudeo	-10.4172
milacinquecento	-10.4172
▁prigioniero	-10.4172
▁riprese	-10.4173
▁alzerà	-10.4173
▁nave	-10.4173
▁selva	-10.4173
▁adulterio	-10.4173
▁bada	-10.4174
▁proced	-10.4174
▁annienta	-10.4175
▁comandamento	-10.4175
▁pelli	-10.4176
▁custodia	-10.4177
▁gust	-10.4178
▁conferm	-10.4179
▁imita	-10.4181
▁purificazione	-10.4183
▁Gia	-10.4188
▁consider	-10.419
▁divorato	-10.4195
▁vanto	-10.4195
▁dimostra	-10.4199
▁teneva	-10.4203
▁numeroso	-10.4205
▁fermarono	-10.4211
▁difend	-10.4215
▁perdonato	-10.4226
▁obbedito	-10.423
▁manifestato	-10.424
▁Tre	-10.424
▁scoprir	-10.4244
▁cambio	-10.426
▁ricade	-10.4262
▁inganno	-10.4263
▁piacere	-10.4267
▁decima	-10.4274
▁Ner	-10.4275
▁steppa	-10.4277
▁ombra	-10.43
▁rad	-10.4304
▁precipita	-10.4309
▁lunga	-10.4312
▁portando	-10.4317
mettono	-10.4325
estate	-10.4339
▁sud	-10.434
▁sarem	-10.4341
▁rifiuta	-10.4345
▁inizi	-10.4377
▁amato	-10.4392
▁pari	-10.4396
▁ancor	-10.4405
▁gen	-10.4432
▁riferire	-10.4435
posero	-10.4435
▁tratto	-10.4448
seguirono	-10.446
▁consigli	-10.4467
nvece	-10.4482
▁potra	-10.4508
▁aggiung	-10.451
▁concepi	-10.4511
▁giur	-10.4513
▁vot	-10.4527
aquila	-10.4542
▁caduto	-10.4542
▁fanciulla	-10.4542
▁prìncipi	-10.4542
▁raggiunse	-10.4542
▁sbran	-10.4542
▁tempesta	-10.4542
▁frantum	-10.4542
▁offre	-10.4542
▁apparteneva	-10.4542
▁giaciglio	-10.4542
▁richiest	-10.4542
▁zelo	-10.4542
▁paglia	-10.4542
▁vedrai	-10.4542
▁scelti	-10.4542
▁cattura	-10.4542
▁Adonia	-10.4542
▁governatori	-10.4542
stituì	-10.4542
▁lassù	-10.4542
▁confort	-10.4542
▁pregò	-10.4543
▁saldi	-10.4543
▁piatto	-10.4543
occorre	-10.4543
▁Greci	-10.4543
▁venticinque	-10.4543
▁smarr	-10.4543
▁corno	-10.4543
▁chiuso	-10.4543
▁nascondi	-10.4545
▁trascin	-10.4545
▁comunic	-10.4546
▁vedove	-10.4547
▁cetra	-10.4548
▁divina	-10.4549
▁Sappi	-10.455
▁Ozia	-10.4553
▁prenda	-10.4557
▁parente	-10.456
▁porzione	-10.456
▁avvolto	-10.4562
▁inviati	-10.4563
▁vollero	-10.4566
▁chiesero	-10.4568
sù	-10.4572
▁offrirai	-10.4573
▁detta	-10.4578
▁signori	-10.4578
▁Cur	-10.458
nunc	-10.4583
▁pelo	-10.4585
▁occasione	-10.4588
▁parto	-10.4597
▁imposto	-10.4598
▁riferito	-10.4602
attesa	-10.4606
▁fuggire	-10.4628
▁cercavano	-10.4632
▁riserv	-10.4636
▁distrugg	-10.4644
▁rivolt	-10.4663
▁faremo	-10.4669
▁pascol	-10.4672
▁esiste	-10.4678
▁potut	-10.4681
▁rin	-10.4689
▁lavorato	-10.4693
▁Prendi	-10.4707
▁fiore	-10.4717
▁darti	-10.4731
▁avanz	-10.4732
sistenza	-10.4741
Eccomi	-10.4751
▁diffonde	-10.4754
▁presentaron	-10.4756
▁Alza	-10.4758
inizio	-10.4784
▁teste	-10.4795
▁Ana	-10.4796
▁allontanato	-10.482
▁stacc	-10.4822
▁darete	-10.4833
"	-10.485
Qual	-10.485
Poiché	-10.4851
Questa	-10.4874
▁Lascia	-10.4881
▁toglier	-10.4884
▁glorifica	-10.4898
▁consumat	-10.4899
Re	-10.4911
▁assal	-10.4919
roprio	-10.4926
immondezza	-10.4927
oscurità	-10.4927
▁Abisài	-10.4927
▁Amalek	-10.4927
▁Assuero	-10.4927
▁Chesbon	-10.4927
▁Zeruià	-10.4927
▁bianco	-10.4927
▁cavalca	-10.4927
▁caverna	-10.4927
▁cherubino	-10.4927
▁contrario	-10.4927
▁giusta	-10.4927
▁meridionale	-10.4927
▁messaggio	-10.4927
▁straniere	-10.4927
▁Ramot	-10.4927
▁meraviglia	-10.4927
▁Riprese	-10.4927
▁coppe	-10.4927
▁sandali	-10.4927
▁scruta	-10.4927
▁acacia	-10.4927
▁maestà	-10.4927
▁Rosso	-10.4927
▁tolse	-10.4927
▁radice	-10.4927
angolo	-10.4927
▁corda	-10.4927
▁migliori	-10.4927
▁riport	-10.4927
▁realizz	-10.4927
▁distrutti	-10.4927
▁compiace	-10.4927
infamia	-10.4927
▁morirono	-10.4927
▁mistero	-10.4927
▁preferi	-10.4927
▁Dario	-10.4928
▁monta	-10.4928
▁discorso	-10.4928
▁scudiero	-10.4928
▁venduto	-10.4928
Voglio	-10.4928
assedio	-10.4928
▁bellezza	-10.4929
▁sentiero	-10.493
▁avvenut	-10.493
▁divide	-10.4933
▁sorgenti	-10.4934
▁addett	-10.4938
▁schiacciat	-10.4938
▁apparso	-10.494
▁vorrà	-10.4941
▁Moabiti	-10.4942
▁benedica	-10.4943
vrebbero	-10.4945
▁circonciso	-10.4948
▁fost	-10.4948
▁vend	-10.4949
▁esplorar	-10.4955
▁stabilirono	-10.4956
▁calma	-10.4956
▁Bil	-10.4966
▁affidato	-10.4976
▁Achis	-10.4982
▁permett	-10.4984
▁andiamo	-10.4998
▁invoch	-10.4999
▁capaci	-10.4999
▁Sul	-10.5004
▁legato	-10.5009
▁peccare	-10.5018
▁spacc	-10.5032
▁sanno	-10.5041
▁alzati	-10.5049
▁ritornare	-10.5051
▁plac	-10.506
▁afferr	-10.5064
▁digiuno	-10.5064
rida	-10.5072
▁abbonda	-10.5086
▁orecchio	-10.5091
▁cav	-10.5106
▁basta	-10.5111
▁Sarai	-10.5125
▁Col	-10.5139
▁avvicin	-10.5139
▁erba	-10.5142
▁palo	-10.5155
▁possied	-10.5168
▁trovano	-10.5168
lat	-10.5172
▁colpire	-10.5178
insegnamento	-10.5234
▁cert	-10.5235
seguì	-10.525
Guarda	-10.525
▁cas	-10.5264
▁vendic	-10.5271
▁conquista	-10.5294
▁scont	-10.5312
▁rigett	-10.5316
U	-10.5324
▁sorvegli	-10.5327
▁Esdra	-10.5327
▁Mesullàm	-10.5327
▁Nebàt	-10.5327
▁Sallùm	-10.5327
▁concubina	-10.5327
▁estende	-10.5327
▁fanciulli	-10.5327
▁giunti	-10.5327
▁magistrati	-10.5327
▁malfattori	-10.5327
▁misurò	-10.5327
▁montone	-10.5327
▁raccolse	-10.5327
▁splende	-10.5327
▁virtù	-10.5327
▁abbass	-10.5327
▁cresciut	-10.5327
▁diffus	-10.5327
▁preziosi	-10.5327
▁rovesci	-10.5327
▁scherni	-10.5327
▁soggiorn	-10.5327
▁vestibolo	-10.5327
▁Baruc	-10.5327
▁predetto	-10.5327
▁Ebrei	-10.5327
▁Maledett	-10.5327
▁coperta	-10.5327
▁foresta	-10.5327
▁umana	-10.5327
▁vicenda	-10.5327
▁scelta	-10.5327
▁immonda	-10.5327
▁indovini	-10.5327
▁cetre	-10.5327
▁Merib	-10.5327
▁ostina	-10.5327
▁Michea	-10.5328
▁piene	-10.5329
▁invoc	-10.5329
▁spari	-10.533
▁lettere	-10.5331
▁Prim	-10.5331
▁Ricordati	-10.5332
▁assol	-10.5333
▁aromi	-10.5333
▁legname	-10.5334
▁seguente	-10.5337
▁passeranno	-10.5337
▁Chiram	-10.5338
▁distruzione	-10.534
▁cessa	-10.5341
▁impose	-10.5341
▁tenut	-10.5342
▁carica	-10.5349
▁ammon	-10.5352
▁forni	-10.5354
acquist	-10.5357
▁concep	-10.5362
▁giurò	-10.5362
▁andrò	-10.5364
▁ricchi	-10.5368
▁Ur	-10.5373
▁unico	-10.5374
▁consultare	-10.5375
▁Avev	-10.538
▁rivelato	-10.5392
▁fissato	-10.5398
▁Ciro	-10.5418
▁propri	-10.5443
▁Vedi	-10.545
▁asino	-10.5451
vince	-10.5465
▁custodisc	-10.5473
▁eresse	-10.5474
fat	-10.5542
ttene	-10.5547
▁esorta	-10.555
▁disonora	-10.5552
▁interno	-10.5557
▁passate	-10.5564
▁rimast	-10.5569
▁Và	-10.558
abbia	-10.56
▁lapida	-10.5618
empietà	-10.5651
▁Far	-10.5655
altura	-10.566
▁segret	-10.5668
▁miseri	-10.5695
▁piangere	-10.5706
▁vedo	-10.5714
▁vengo	-10.5718
improvviso	-10.5744
▁Gebusei	-10.5744
▁Ioacaz	-10.5744
▁abominevoli	-10.5744
▁costruzione	-10.5744
▁prescritt	-10.5744
▁proposito	-10.5744
▁rispondi	-10.5744
▁sostegno	-10.5744
▁volontari	-10.5744
▁materno	-10.5744
▁palazzo	-10.5744
▁pettorale	-10.5744
▁cedri	-10.5744
▁parlerò	-10.5744
▁genitori	-10.5744
▁romp	-10.5744
▁Lachis	-10.5744
▁partecipa	-10.5744
▁scoppi	-10.5744
▁giù	-10.5744
▁ventidue	-10.5744
▁riparo	-10.5744
▁corde	-10.5744
▁permesso	-10.5744
▁stanca	-10.5744
▁veleno	-10.5744
▁perversa	-10.5744
▁mosto	-10.5744
▁fonte	-10.5744
▁dispost	-10.5744
▁natura	-10.5744
▁seduti	-10.5744
▁Iotam	-10.5744
▁relativ	-10.5744
▁tunica	-10.5745
▁debito	-10.5745
afflizione	-10.5745
▁asine	-10.5747
▁eletti	-10.5748
▁pegno	-10.5749
ezer	-10.575
▁lecito	-10.575
▁rivestir	-10.5752
▁pascolare	-10.5753
Arnon	-10.5753
▁veramente	-10.5753
▁scompars	-10.5753
▁entreranno	-10.5753
▁profonda	-10.5754
▁chiuse	-10.5757
▁trent	-10.5758
Dove	-10.5765
▁tremila	-10.5767
Oreb	-10.5767
▁ritirò	-10.5767
▁punirò	-10.5771
▁distruggerò	-10.5774
▁viveri	-10.5781
▁scesero	-10.5782
▁Eber	-10.5783
▁focacce	-10.5783
▁eseguire	-10.5785
▁andranno	-10.5788
▁esterno	-10.5792
▁scendeva	-10.5793
erebbe	-10.5794
▁Sap	-10.5798
▁prode	-10.581
▁fuggito	-10.5814
▁proprie	-10.5822
▁seguì	-10.5825
▁porteranno	-10.5829
▁secca	-10.5836
▁volere	-10.5836
▁priv	-10.5837
▁Dissero	-10.5838
dotto	-10.5845
▁udite	-10.5848
▁divise	-10.5906
sosten	-10.5907
seguito	-10.5912
▁conoscete	-10.5939
▁liberare	-10.595
▁bracci	-10.5958
▁vedete	-10.5959
▁manto	-10.596
▁dichiara	-10.5962
▁Del	-10.5976
▁indic	-10.5984
termin	-10.5988
▁giova	-10.5989
arma	-10.5997
▁intero	-10.6008
▁Quel	-10.6059
▁Fin	-10.6077
▁raccolt	-10.6099
▁quand	-10.61
Quant	-10.6103
▁oppressi	-10.6124
▁invia	-10.6146
▁prati	-10.617
ttanta	-10.6173
▁tribun	-10.6177
▁Ebiatàr	-10.6178
▁Gomorra	-10.6178
▁Testimonianza	-10.6178
▁angoli	-10.6178
▁ascoltò	-10.6178
▁divinità	-10.6178
▁eunuchi	-10.6178
▁fanciulle	-10.6178
▁femmina	-10.6178
▁ginocchia	-10.6178
▁possibile	-10.6178
▁superstite	-10.6178
▁trionf	-10.6178
▁battesimo	-10.6178
▁pensiero	-10.6178
▁celeste	-10.6178
▁trascur	-10.6178
▁Perizzit	-10.6178
▁doppio	-10.6178
▁Salutate	-10.6178
▁disperse	-10.6178
▁statuti	-10.6178
▁fango	-10.6178
▁usciranno	-10.6179
▁Noemi	-10.6179
▁Altri	-10.6179
▁Gaza	-10.6179
▁morirai	-10.6179
▁moriranno	-10.6179
▁guai	-10.6179
▁discorsi	-10.6179
▁liberò	-10.6179
▁suocero	-10.6179
▁benessere	-10.618
▁pertanto	-10.618
▁vitelli	-10.618
▁narr	-10.6181
▁sterminer	-10.6182
▁tanti	-10.6183
▁assedia	-10.6183
▁pasce	-10.6185
▁merita	-10.6185
▁libererà	-10.6186
▁sorgente	-10.6187
▁valli	-10.6189
▁falc	-10.6191
▁Abel	-10.6193
▁battenti	-10.6194
▁parlo	-10.62
▁mortale	-10.62
▁ignor	-10.6202
▁intes	-10.6203
alba	-10.6205
▁animale	-10.6205
▁gall	-10.6206
▁umiliato	-10.6217
▁sorti	-10.6219
▁lamenti	-10.6221
▁conviene	-10.6224
▁consacrati	-10.6224
▁perversi	-10.6225
▁vari	-10.6235
▁Rend	-10.6239
▁animo	-10.6245
▁uva	-10.6248
▁decime	-10.6251
▁Cad	-10.6253
▁mod	-10.6269
▁andavano	-10.6275
▁medit	-10.6276
▁espiazione	-10.6277
▁prenderò	-10.6284
udire	-10.6292
▁avvicinare	-10.631
▁passo	-10.6325
▁risulta	-10.6336
▁inseguire	-10.6339
corso	-10.6349
▁prodott	-10.6385
▁prendete	-10.6416
manderà	-10.6417
levò	-10.6438
▁massa	-10.6439
▁servile	-10.644
▁salvi	-10.6484
▁depose	-10.6493
▁patria	-10.6532
▁espiatori	-10.6555
intelligenza	-10.6557
Baal	-10.6557
▁rivolg	-10.657
▁Simon	-10.6573
▁muov	-10.658
▁riunit	-10.6586
endete	-10.6593
Giu	-10.6615
▁eredit	-10.6625
▁Qui	-10.6633
comandò	-10.6633
iniquo	-10.6633
investitura	-10.6633
▁Cazaèl	-10.6633
▁Macedonia	-10.6633
▁Timòteo	-10.6633
▁centinaia	-10.6633
▁centurione	-10.6633
▁progetti	-10.6633
▁rimanga	-10.6633
▁rocce	-10.6633
▁scettro	-10.6633
▁scoperto	-10.6633
▁sinagoghe	-10.6633
▁sinedrio	-10.6633
▁stringe	-10.6633
▁veggente	-10.6633
▁cattiva	-10.6633
▁riflett	-10.6633
▁bevanda	-10.6633
▁Mizpa	-10.6633
▁misfatti	-10.6633
▁prime	-10.6633
▁Timna	-10.6633
▁diciotto	-10.6633
▁maltratt	-10.6633
▁compiuti	-10.6633
▁consiglieri	-10.6633
▁Venut	-10.6633
▁confess	-10.6633
▁esercita	-10.6633
Fratelli	-10.6633
▁classi	-10.6633
▁hin	-10.6633
▁giubileo	-10.6633
▁sedici	-10.6634
▁arricch	-10.6634
▁onde	-10.6634
▁Dura	-10.6634
▁corri	-10.6634
▁sceglie	-10.6634
▁abbattuto	-10.6635
▁croll	-10.6636
▁regali	-10.6636
▁lance	-10.6638
▁correzione	-10.6639
▁cani	-10.6639
▁nacquero	-10.664
▁compimento	-10.6642
▁calcol	-10.6642
▁intona	-10.6644
▁torrenti	-10.6644
▁rigettato	-10.6645
▁decid	-10.6647
▁palma	-10.6648
▁carico	-10.6648
▁minore	-10.6649
▁cella	-10.665
frutt	-10.665
▁mostrerò	-10.6651
▁parenti	-10.6654
▁santità	-10.6654
▁attira	-10.6655
▁ispir	-10.6658
tornerà	-10.6659
anello	-10.6659
▁Solo	-10.6661
▁stabile	-10.6663
▁sparso	-10.6666
▁salvami	-10.6673
▁Susa	-10.668
▁mangiò	-10.6681
▁eliminato	-10.6689
▁istante	-10.6693
▁risponderà	-10.6698
▁cessare	-10.67
▁bello	-10.6707
▁cinquecento	-10.6712
▁consulta	-10.6714
▁ecce	-10.6715
▁gridando	-10.6731
▁soddisf	-10.6734
▁odiano	-10.6734
asina	-10.6736
▁salita	-10.6737
▁sorgere	-10.6744
▁stretto	-10.6756
▁vengano	-10.6758
▁insist	-10.6764
▁riso	-10.6766
ura	-10.6783
▁osservano	-10.679
▁stabilir	-10.681
▁nomin	-10.6813
▁quart	-10.6833
nzo	-10.688
eravate	-10.6881
▁nasconder	-10.6885
▁bast	-10.6898
▁ribellat	-10.6915
▁cinquant	-10.6921
Fate	-10.6925
fatti	-10.6948
▁condann	-10.6962
▁stepp	-10.6969
super	-10.6979
▁Ricord	-10.7024
Forse	-10.7033
▁strett	-10.7034
▁doma	-10.7043
▁pregava	-10.7044
▁rallegra	-10.7056
▁succed	-10.7073
Signor	-10.7074
1	-10.7109
▁dipende	-10.7109
Eufrate	-10.7109
Oltrefiume	-10.7109
aurora	-10.7109
▁Alleluia	-10.7109
▁Mizpà	-10.7109
▁Scritture	-10.7109
▁Soltanto	-10.7109
▁capifamiglia	-10.7109
▁contempl	-10.7109
▁designat	-10.7109
▁funzionari	-10.7109
▁giovinett	-10.7109
▁giuste	-10.7109
▁gonfi	-10.7109
▁guarito	-10.7109
▁inginocchi	-10.7109
▁lampada	-10.7109
▁padroni	-10.7109
▁prostituzione	-10.7109
▁splendid	-10.7109
▁sterile	-10.7109
▁tributo	-10.7109
▁troverete	-10.7109
▁truppa	-10.7109
▁violento	-10.7109
▁Iabes	-10.7109
▁carbon	-10.7109
▁disparte	-10.7109
▁fornace	-10.7109
▁deboli	-10.7109
▁buio	-10.7109
▁integro	-10.7109
▁vacche	-10.7109
▁cortina	-10.7109
▁ferita	-10.7109
▁pericolo	-10.7109
▁scrivi	-10.7109
▁Sisara	-10.7109
▁orrore	-10.7109
▁ritorto	-10.7109
▁tralci	-10.7109
▁grado	-10.7109
▁sacre	-10.7109
▁Manasse	-10.711
▁profondo	-10.711
▁proferi	-10.711
▁fonde	-10.711
▁spade	-10.711
▁debb	-10.7111
▁grasse	-10.7111
▁condurre	-10.7111
▁assicur	-10.7112
▁regola	-10.7112
▁incaricat	-10.7113
▁appoggia	-10.7113
▁scagli	-10.7114
▁dodicimila	-10.7118
▁perdono	-10.7118
▁dichiarerà	-10.7118
▁copre	-10.712
▁pongo	-10.7121
▁venisse	-10.7121
▁delitto	-10.7123
▁attua	-10.7124
▁riscattare	-10.7124
▁aderi	-10.7124
▁rettili	-10.7125
▁tradito	-10.7125
▁incontra	-10.7127
▁capra	-10.7127
▁ucciderlo	-10.7128
▁verga	-10.7129
▁salverà	-10.7133
▁importa	-10.7136
▁posti	-10.7142
offrir	-10.7145
▁glorificato	-10.7146
▁flagelli	-10.7155
▁canestr	-10.7157
▁venera	-10.716
▁Costui	-10.7168
▁tenne	-10.7172
▁amanti	-10.7175
▁lavorava	-10.7179
▁dimenticare	-10.7182
▁centotrenta	-10.7183
avanti	-10.7186
▁consacrate	-10.7187
▁celebrare	-10.7188
▁belle	-10.7189
attu	-10.7191
▁Guardate	-10.7191
▁sterminato	-10.7195
▁privo	-10.72
▁cercava	-10.7218
▁odor	-10.7218
▁salvati	-10.7229
▁seguendo	-10.7235
▁formato	-10.725
▁vendicato	-10.725
▁lapid	-10.7275
▁desiste	-10.7275
▁question	-10.7288
▁elev	-10.7303
▁rott	-10.7307
▁decim	-10.7308
ggiunge	-10.7367
▁riconosc	-10.7372
▁piantato	-10.7392
centomila	-10.7431
▁prendendo	-10.7432
▁ragg	-10.7442
▁vola	-10.7442
▁afferra	-10.7461
▁guardando	-10.7465
que	-10.747
▁riservat	-10.7483
vennero	-10.7501
Edom	-10.7533
uccise	-10.7535
Aram	-10.7541
▁trasportar	-10.7555
▁duemila	-10.7557
▁addorment	-10.7577
▁fol	-10.7584
▁Com	-10.7587
▁comport	-10.7595
▁iniqui	-10.7605
▁prigioni	-10.7608
▁ingiust	-10.7608
▁aperta	-10.7609
▁Amaleciti	-10.7609
▁Eleàzaro	-10.7609
▁Elkana	-10.7609
▁Gezabele	-10.7609
▁Gioele	-10.7609
▁Tamàr	-10.7609
▁Zorobabele	-10.7609
▁apostolo	-10.7609
▁cittadella	-10.7609
▁confuso	-10.7609
▁costituir	-10.7609
▁demonio	-10.7609
▁esclamò	-10.7609
▁forestieri	-10.7609
▁guarì	-10.7609
▁maggiordomo	-10.7609
▁mucchio	-10.7609
▁ottenuto	-10.7609
▁preziosa	-10.7609
▁ribelle	-10.7609
▁sicurezza	-10.7609
▁silenzio	-10.7609
▁squill	-10.7609
▁turbine	-10.7609
impurità	-10.7609
▁calunnia	-10.7609
▁figura	-10.7609
▁misure	-10.7609
▁perfetto	-10.7609
▁piacque	-10.7609
▁pilastri	-10.7609
▁riconobbe	-10.7609
▁tessut	-10.7609
▁Nabal	-10.7609
▁Tarsis	-10.7609
▁canale	-10.7609
▁breccia	-10.7609
▁Itamar	-10.7609
▁rinnega	-10.7609
▁maledetto	-10.7609
▁camera	-10.7609
▁sorelle	-10.7609
▁tredici	-10.7609
▁salda	-10.7609
▁spighe	-10.7609
▁sentenza	-10.7609
▁breve	-10.7609
▁distrutte	-10.7609
▁drago	-10.7609
▁armati	-10.7609
▁brama	-10.7609
▁Machir	-10.761
argilla	-10.761
▁facce	-10.761
▁provved	-10.761
▁Enoch	-10.761
▁brill	-10.761
▁mensa	-10.761
▁Osea	-10.761
▁scandalizza	-10.761
▁litigi	-10.761
▁scaten	-10.761
▁introdur	-10.7612
▁finestre	-10.7612
▁rinnov	-10.7612
▁Teman	-10.7613
▁Giunt	-10.7613
▁Difatti	-10.7614
accorto	-10.7616
▁comprese	-10.7616
▁milizi	-10.7618
▁macell	-10.7618
▁finestra	-10.7618
▁purificher	-10.7621
▁folle	-10.7623
▁arpe	-10.7624
▁Saba	-10.7624
▁colline	-10.7625
▁deposto	-10.7628
▁abiteranno	-10.7629
▁riferirai	-10.7629
▁deportato	-10.7632
▁distrusse	-10.7633
▁coppiere	-10.764
▁riscattato	-10.7641
▁immagine	-10.7647
▁sosta	-10.7647
Etiopia	-10.7652
centotrenta	-10.7652
▁dichiarato	-10.7653
▁conserv	-10.7655
▁geme	-10.7656
▁uscivano	-10.7657
▁stabiliti	-10.7658
▁liberer	-10.7659
▁chiedere	-10.767
▁divorer	-10.7675
▁osservando	-10.7676
▁acquistato	-10.7677
▁radunati	-10.7687
▁compirà	-10.7688
▁saprà	-10.7693
▁giudicato	-10.7701
▁Sob	-10.7709
omer	-10.771
▁punir	-10.7716
Dammi	-10.772
▁dovra	-10.7721
▁scacciato	-10.7724
▁domandato	-10.7725
▁tornato	-10.7733
▁mostrato	-10.774
▁Comp	-10.7749
▁raccogliere	-10.7765
▁arrivato	-10.7776
▁presentato	-10.779
Riman	-10.779
mòn	-10.7797
▁cerv	-10.7829
ubito	-10.7864
abbondanza	-10.7882
▁assalir	-10.791
Prendete	-10.7963
▁consult	-10.7979
▁scomparir	-10.8005
acqu	-10.8045
▁acclam	-10.8049
Lascia	-10.8053
▁capac	-10.8056
▁rotol	-10.8057
▁Nessun	-10.8057
animo	-10.8065
▁Porta	-10.8071
▁bel	-10.8089
▁Etiopi	-10.8091
erub	-10.81
▁ordi	-10.8113
▁accord	-10.8121
▁ricondur	-10.8127
Esult	-10.813
▁triste	-10.8132
▁centoventi	-10.8134
▁Antiochia	-10.8135
▁Assur	-10.8135
▁Cercate	-10.8135
▁Efeso	-10.8135
▁balìa	-10.8135
▁bisogna	-10.8135
▁difficil	-10.8135
▁dintorni	-10.8135
▁esclama	-10.8135
▁flutti	-10.8135
▁gruppo	-10.8135
▁misericordios	-10.8135
▁moltiplicher	-10.8135
▁oblazioni	-10.8135
▁parabole	-10.8135
▁profezia	-10.8135
▁replicò	-10.8135
▁sapienti	-10.8135
▁scolpit	-10.8135
▁sconfitto	-10.8135
▁spezzò	-10.8135
▁straniera	-10.8135
▁tranquilla	-10.8135
(	-10.8135
Egiziano	-10.8135
▁Succot	-10.8135
▁estraneo	-10.8135
▁foglie	-10.8135
▁sentinella	-10.8135
Grande	-10.8135
▁malattia	-10.8135
▁ristabili	-10.8135
▁illumina	-10.8135
▁pentola	-10.8135
▁Nacor	-10.8135
▁posteri	-10.8135
▁traverse	-10.8135
▁torri	-10.8135
▁restituir	-10.8135
▁piaghe	-10.8135
▁degna	-10.8136
▁scelse	-10.8136
▁Udite	-10.8136
▁futuro	-10.8136
▁feste	-10.8136
▁aromatic	-10.8136
▁distrutta	-10.8136
▁sincer	-10.8136
▁lembo	-10.8136
▁disegno	-10.8136
▁Arriv	-10.8136
▁incinta	-10.8136
▁Caino	-10.8136
▁baciò	-10.8136
▁disposizione	-10.8136
▁distanza	-10.8136
▁regale	-10.8137
▁inferiore	-10.8137
▁esempio	-10.8137
▁Abdia	-10.8137
▁avviene	-10.8137
▁Pens	-10.8138
▁perduto	-10.8139
▁Anak	-10.8139
▁suppliche	-10.8139
▁deriva	-10.814
▁Sorg	-10.814
▁voltò	-10.8141
▁Rut	-10.8141
amarezza	-10.8143
▁produrr	-10.8146
▁Uzzi	-10.815
▁archi	-10.8151
Canan	-10.8162
▁soffia	-10.8162
▁dovrebbe	-10.8165
obbedienza	-10.8166
▁posta	-10.8166
▁radunerò	-10.8167
▁Metter	-10.8168
▁Anna	-10.8177
▁nascosti	-10.8177
▁numerosa	-10.8186
▁cessò	-10.8186
▁ritornerà	-10.8187
▁cessato	-10.8191
▁rifiutato	-10.8198
▁Diede	-10.82
intera	-10.8208
Scend	-10.8212
▁ucciderà	-10.8223
▁vedevano	-10.8227
▁costruita	-10.823
intimo	-10.8256
▁acces	-10.8273
▁scar	-10.8335
▁bar	-10.8346
▁Uz	-10.8346
▁rendendo	-10.8354
razione	-10.8413
affanno	-10.8473
forme	-10.8478
▁Ah	-10.8506
salgono	-10.8534
▁sedeva	-10.8544
forma	-10.8552
▁occup	-10.8606
▁impost	-10.8607
innocente	-10.8615
Vedi	-10.8617
▁venir	-10.8626
ossia	-10.8628
▁pasto	-10.863
Ora	-10.8639
profond	-10.8676
Port	-10.868
▁giubil	-10.869
)	-10.8691
▁Amasà	-10.8691
▁Ciascuno	-10.8691
▁cavallette	-10.8691
▁colomba	-10.8691
▁credono	-10.8691
▁desolata	-10.8691
▁desolato	-10.8691
▁firmamento	-10.8691
▁guerre	-10.8691
▁infedeli	-10.8691
▁interrogò	-10.8691
▁membro	-10.8691
▁musica	-10.8691
▁narici	-10.8691
▁necessità	-10.8691
▁popolazione	-10.8691
▁risplende	-10.8691
▁scandalo	-10.8691
▁scomparve	-10.8691
▁sfinit	-10.8691
▁sofferenze	-10.8691
▁solennità	-10.8691
▁stipiti	-10.8691
▁superiori	-10.8691
▁troveranno	-10.8691
▁tumulto	-10.8691
▁vuote	-10.8691
▁vuoto	-10.8691
Amorreo	-10.8691
▁ammaestr	-10.8691
▁appartenent	-10.8691
▁commerci	-10.8691
▁genealogi	-10.8691
▁vassoio	-10.8691
▁Nabot	-10.8691
▁Tirza	-10.8691
▁antenato	-10.8691
▁comparire	-10.8691
▁invitati	-10.8691
▁piscina	-10.8691
▁rapporti	-10.8691
▁prosperità	-10.8691
▁ministro	-10.8691
▁scritte	-10.8691
▁Libna	-10.8691
▁Valle	-10.8691
asciutto	-10.8691
▁ammass	-10.8691
▁nord	-10.8691
▁Tobia	-10.8691
▁infrant	-10.8691
▁Omri	-10.8691
▁favori	-10.8691
▁distinguere	-10.8691
▁affetto	-10.8691
▁Manoach	-10.8691
▁durerà	-10.8691
▁Sidone	-10.8691
▁umano	-10.8691
▁spalla	-10.8692
▁invidia	-10.8692
▁classe	-10.8692
▁suocera	-10.8692
▁uscite	-10.8692
▁otri	-10.8692
▁tribunale	-10.8692
▁Vedendo	-10.8692
▁vigila	-10.8692
▁Perez	-10.8692
▁undici	-10.8693
▁battut	-10.8693
▁Natania	-10.8694
▁aperti	-10.8694
▁armate	-10.8695
▁Vol	-10.8695
▁pienezza	-10.8695
▁ladri	-10.8696
▁diviso	-10.8696
▁alliet	-10.8697
▁erige	-10.8698
▁eletto	-10.8699
▁rimess	-10.8699
▁tieni	-10.8699
▁facesse	-10.8702
▁predicazione	-10.8702
▁consolazione	-10.8702
Prega	-10.8703
▁Conosc	-10.8704
▁trasgredit	-10.8707
▁chiamerai	-10.8708
▁Adamo	-10.871
▁ottanta	-10.8712
▁lieto	-10.8712
▁notti	-10.8712
▁seppero	-10.8719
▁Morto	-10.8721
▁coltiv	-10.8731
▁dette	-10.8737
▁dargli	-10.8741
accus	-10.8742
▁fresc	-10.8743
▁numerose	-10.8748
Eden	-10.8748
▁mariti	-10.8749
▁Mor	-10.875
▁toglierà	-10.875
▁comandava	-10.8751
amenti	-10.8754
▁beato	-10.8754
▁Uscit	-10.8774
▁cuoc	-10.8822
stiamo	-10.8842
▁Abbi	-10.8843
àim	-10.8891
agitazione	-10.8898
tornerò	-10.8917
Asia	-10.9012
spande	-10.9013
terrà	-10.9015
▁risorge	-10.9071
▁sana	-10.9116
▁Tem	-10.9129
▁Giud	-10.9157
sperderò	-10.9172
▁territori	-10.9201
Quell	-10.9203
Certo	-10.9203
figlio	-10.9204
▁ritir	-10.9235
▁considerat	-10.9256
▁bocc	-10.9266
▁suppli	-10.9269
viene	-10.9273
ggono	-10.9274
posizione	-10.9279
▁Cesarèa	-10.9279
▁Nazareno	-10.9279
▁Pincas	-10.9279
▁affilata	-10.9279
▁annull	-10.9279
▁bilanc	-10.9279
▁geloso	-10.9279
▁giovenca	-10.9279
▁impossibile	-10.9279
▁notizie	-10.9279
▁noviluni	-10.9279
▁piovere	-10.9279
▁preannunzi	-10.9279
▁premura	-10.9279
▁prosper	-10.9279
▁riparazioni	-10.9279
▁risuon	-10.9279
▁sbarre	-10.9279
▁sciacalli	-10.9279
▁settimane	-10.9279
▁sorpres	-10.9279
▁squarci	-10.9279
▁troverai	-10.9279
▁vittorios	-10.9279
▁Atalia	-10.9279
▁accolto	-10.9279
▁appartengono	-10.9279
▁notabili	-10.9279
▁oppor	-10.9279
▁insegnamenti	-10.9279
▁raggiunt	-10.9279
▁riedific	-10.9279
▁ritrov	-10.9279
▁sotterra	-10.9279
▁Offr	-10.9279
▁delizie	-10.9279
▁capanne	-10.9279
▁assassin	-10.9279
▁diadema	-10.9279
▁nudo	-10.9279
▁trasform	-10.9279
▁glorioso	-10.9279
▁veduto	-10.9279
▁capitelli	-10.9279
▁coperto	-10.9279
▁frode	-10.9279
▁corpi	-10.9279
▁false	-10.9279
▁adorna	-10.9279
▁compiute	-10.9279
▁mondi	-10.9279
▁fatiche	-10.928
▁acconsent	-10.928
▁document	-10.928
▁adirato	-10.928
▁conceda	-10.928
Domani	-10.928
▁attesta	-10.928
▁concesse	-10.928
▁sparti	-10.928
▁vendemmia	-10.9281
▁nido	-10.9281
▁affari	-10.9281
▁venticinquemila	-10.9281
Domand	-10.9281
▁deportazione	-10.9282
▁ribellione	-10.9283
▁temono	-10.9283
▁tristezza	-10.9283
▁Keatiti	-10.9283
▁cada	-10.9285
▁nobili	-10.9285
▁Madianiti	-10.9286
▁passioni	-10.9287
▁abbondante	-10.929
▁possedeva	-10.929
▁freme	-10.929
▁svel	-10.9291
▁mancanza	-10.9291
▁duramente	-10.9293
▁nuora	-10.9294
Vuo	-10.9295
▁battezzare	-10.9295
▁dovuto	-10.9296
▁ospit	-10.9296
▁pesante	-10.9296
▁esaltato	-10.9299
▁benedice	-10.9301
▁Agar	-10.9302
Cantate	-10.9302
▁malati	-10.9303
▁pesce	-10.9309
▁insegnando	-10.932
▁soggett	-10.9323
▁metall	-10.9326
▁lavato	-10.9329
istante	-10.934
▁sces	-10.9345
▁impor	-10.936
eserci	-10.9374
restò	-10.938
▁curv	-10.9386
▁coglier	-10.94
attacc	-10.9416
▁adempisse	-10.945
▁consol	-10.9463
▁obbedisc	-10.9471
▁dichiar	-10.9527
Pace	-10.9547
▁devast	-10.9554
▁sussist	-10.9623
sessanta	-10.9689
coperti	-10.9693
▁spen	-10.9777
isola	-10.9782
▁sdegn	-10.9815
▁Quand	-10.9826
Costui	-10.9827
occasione	-10.9827
▁preserv	-10.9828
occidente	-10.9828
essere	-10.984
aiuto	-10.9856
▁interpret	-10.9871
milaseicento	-10.9904
▁ubriach	-10.9904
Sèmes	-10.9904
▁Achikàm	-10.9904
▁Anatòt	-10.9904
▁Cafarnao	-10.9904
▁Iefunne	-10.9904
▁Ionadàb	-10.9904
▁Maaseia	-10.9904
▁Ninive	-10.9904
▁Sennàcherib	-10.9904
▁ancelle	-10.9904
▁ascolterete	-10.9904
▁bianca	-10.9904
▁cembali	-10.9904
▁collabora	-10.9904
▁corregge	-10.9904
▁disgrazia	-10.9904
▁disposizioni	-10.9904
▁fertile	-10.9904
▁gonorrea	-10.9904
▁impunito	-10.9904
▁insulti	-10.9904
▁intelligente	-10.9904
▁melagrane	-10.9904
▁mercanti	-10.9904
▁nefandezze	-10.9904
▁oblati	-10.9904
▁progetto	-10.9904
▁prudenza	-10.9904
▁raccomanda	-10.9904
▁sconfitti	-10.9904
▁stupore	-10.9904
▁torneranno	-10.9904
▁zoppi	-10.9904
secutori	-10.9904
▁Mikal	-10.9904
▁diluvio	-10.9904
▁divampa	-10.9904
▁giustificato	-10.9904
▁malattie	-10.9904
▁Zibà	-10.9904
▁prosciug	-10.9904
▁riconosciuto	-10.9904
▁sentimenti	-10.9904
▁sottomesso	-10.9904
▁spirituale	-10.9904
▁vignaioli	-10.9904
▁avvenire	-10.9904
▁bande	-10.9904
▁giornat	-10.9904
▁integri	-10.9904
▁promesse	-10.9904
▁storpi	-10.9904
ventitrè	-10.9904
▁costumi	-10.9904
▁sorveglianza	-10.9904
▁trovo	-10.9904
▁Totale	-10.9904
▁mantelli	-10.9904
Etiope	-10.9904
▁norma	-10.9904
▁depred	-10.9904
▁antenati	-10.9904
▁lucerna	-10.9904
▁pubblicani	-10.9904
▁Aroer	-10.9904
▁disonest	-10.9904
▁linguaggio	-10.9904
▁tuniche	-10.9905
▁prendono	-10.9905
▁persever	-10.9905
milaquattrocento	-10.9905
▁bulb	-10.9905
▁marciò	-10.9905
▁contiene	-10.9905
▁Eman	-10.9905
▁Amaria	-10.9906
Ordina	-10.9906
▁perdizione	-10.9906
▁vecchiaia	-10.9906
▁attenti	-10.9906
▁possia	-10.9906
▁confusione	-10.9906
▁bastoni	-10.9906
▁indurit	-10.9907
▁rivelazione	-10.9907
▁esige	-10.9907
▁Lodate	-10.9908
Ermon	-10.9909
▁Asaèl	-10.991
▁settecento	-10.9912
▁vendette	-10.9914
▁ricondurrò	-10.9914
▁sdegnato	-10.9915
▁Rubeniti	-10.9916
▁spero	-10.9917
▁finita	-10.9918
▁elevato	-10.9918
▁ricevette	-10.9919
incarico	-10.9935
▁razza	-10.9936
incontr	-10.9942
▁Zif	-10.9949
▁volse	-10.9968
▁vacill	-10.9987
▁Grid	-11.0002
▁assiste	-11.0025
▁bell	-11.0064
Metti	-11.0121
▁stia	-11.0126
Coron	-11.0132
▁uffici	-11.0142
▁Torn	-11.0145
▁attend	-11.0148
Canàn	-11.0149
▁App	-11.0271
▁dimostr	-11.0276
Tutt	-11.0294
▁Cos	-11.0314
▁precipit	-11.0316
▁sogn	-11.0324
▁risult	-11.0331
▁andar	-11.0333
ebbe	-11.0359
▁potesse	-11.0375
goment	-11.0378
▁resiste	-11.0402
dicesim	-11.0402
Figli	-11.0417
▁resping	-11.0441
oggetto	-11.0445
esterno	-11.0494
altezza	-11.0494
▁ripr	-11.0545
▁cominc	-11.0547
istruzione	-11.0557
▁ringrazi	-11.0571
arroganza	-11.0571
edificio	-11.0571
ignominia	-11.0571
▁Abdènego	-11.0571
▁Barak	-11.0571
▁Gosen	-11.0571
▁Iechièl	-11.0571
▁Keila	-11.0571
▁Mattania	-11.0571
▁Mesàch	-11.0571
▁Oppure	-11.0571
▁altrui	-11.0571
▁angosce	-11.0571
▁ascensioni	-11.0571
▁avvolge	-11.0571
▁bevande	-11.0571
▁concubine	-11.0571
▁decimosecondo	-11.0571
▁esposto	-11.0571
▁gambe	-11.0571
▁ginocchio	-11.0571
▁guarita	-11.0571
▁infelice	-11.0571
▁intendere	-11.0571
▁lebbroso	-11.0571
▁montoni	-11.0571
▁muoio	-11.0571
▁nozze	-11.0571
▁picchett	-11.0571
▁plasmato	-11.0571
▁popolazioni	-11.0571
▁quotidian	-11.0571
▁rassegna	-11.0571
▁serpenti	-11.0571
▁settimana	-11.0571
▁uguale	-11.0571
▁zolfo	-11.0571
▁Gloria	-11.0571
▁bagagli	-11.0571
▁commesse	-11.0571
▁commessi	-11.0571
▁prezioso	-11.0571
▁spinge	-11.0571
▁Cananeo	-11.0571
▁Ghezer	-11.0571
▁avvenga	-11.0571
▁bordo	-11.0571
▁prediletto	-11.0571
▁rivestiti	-11.0571
▁santissima	-11.0571
▁precetto	-11.0571
Riferite	-11.0571
impresa	-11.0571
▁lievitat	-11.0571
▁totale	-11.0571
▁Ulivi	-11.0571
▁ripaga	-11.0571
▁scritti	-11.0571
insulto	-11.0571
▁cortili	-11.0571
▁terremoto	-11.0571
ventiquattromila	-11.0571
▁scrivo	-11.0571
▁Michele	-11.0571
▁trentadue	-11.0571
▁parlerà	-11.0571
▁utile	-11.0571
▁perfidi	-11.0571
▁Roma	-11.0571
▁alzatosi	-11.0571
▁spesso	-11.0571
▁stanco	-11.0571
▁insidie	-11.0571
▁passaggio	-11.0571
▁invitato	-11.0571
▁lontana	-11.0571
▁compens	-11.0571
▁cuocere	-11.0571
▁percosso	-11.0571
▁introdott	-11.0571
▁affatto	-11.0571
▁scenda	-11.0571
▁interesse	-11.0572
▁prestito	-11.0572
▁Iair	-11.0572
▁truppe	-11.0572
▁letizia	-11.0572
▁rosso	-11.0572
affamato	-11.0572
▁Susanna	-11.0573
▁Amram	-11.0573
▁mirra	-11.0573
▁voci	-11.0573
▁lamenta	-11.0573
▁antico	-11.0573
▁mandi	-11.0574
▁giro	-11.0574
▁risana	-11.0574
▁gola	-11.0575
▁impieg	-11.0575
▁istruir	-11.0576
▁conosca	-11.0576
▁solenne	-11.0579
▁larga	-11.0579
▁tentazione	-11.0579
▁Ritorna	-11.058
▁grava	-11.058
▁sarei	-11.0581
▁battezzati	-11.0584
▁gigli	-11.0584
▁vediamo	-11.0584
▁ventimila	-11.0585
▁abiterete	-11.0585
▁valid	-11.0586
▁cinquemila	-11.0588
▁accampati	-11.059
▁rapina	-11.0594
▁sacchi	-11.0596
estremo	-11.0601
Stend	-11.0602
▁eretto	-11.0604
Getta	-11.0605
▁moss	-11.0607
inverno	-11.0622
segnato	-11.0637
▁oliv	-11.0647
oppressione	-11.0656
quarantacinque	-11.067
▁spint	-11.067
▁circond	-11.0708
uova	-11.0745
▁aspett	-11.0771
▁oltrepass	-11.0782
▁commett	-11.0782
▁Preser	-11.0846
Alzatevi	-11.0867
▁disonorat	-11.089
avversario	-11.0918
▁riprender	-11.0943
▁metterl	-11.0958
▁dedic	-11.0973
▁adoper	-11.0973
▁lung	-11.0976
▁Vers	-11.0982
zona	-11.1051
▁devastat	-11.1084
Andiamo	-11.1097
▁sacerdot	-11.1111
▁soddisfar	-11.1126
Pass	-11.1147
▁lacer	-11.1171
▁mettera	-11.1197
▁Molt	-11.12
Nessuno	-11.1209
Fino	-11.1218
venire	-11.1219
▁cane	-11.1222
▁scuot	-11.1233
▁Usc	-11.1242
sorgerà	-11.1246
▁scomp	-11.1268
▁profu	-11.1274
piegò	-11.128
trici	-11.1282
▁Artaserse	-11.1285
▁Battista	-11.1285
▁Cazor	-11.1285
▁Efron	-11.1285
▁Ekron	-11.1285
▁Gebuseo	-11.1285
▁Giaffa	-11.1285
▁Idumei	-11.1285
▁Ioiachìn	-11.1285
▁Iozabàd	-11.1285
▁Malchia	-11.1285
▁Mediterraneo	-11.1285
▁Ofir	-11.1285
▁Pekach	-11.1285
▁Profeti	-11.1285
▁Sadràch	-11.1285
▁andarsene	-11.1285
▁cattive	-11.1285
▁crogiuolo	-11.1285
▁ebraico	-11.1285
▁esaminerà	-11.1285
▁fegato	-11.1285
▁giudichi	-11.1285
▁inavvertenza	-11.1285
▁infedele	-11.1285
▁inghiotti	-11.1285
▁irreprensibile	-11.1285
▁notturn	-11.1285
▁ornamenti	-11.1285
▁pagherà	-11.1285
▁profondità	-11.1285
▁rinchius	-11.1285
▁rinfranca	-11.1285
▁risiede	-11.1285
▁risposi	-11.1285
▁robust	-11.1285
▁sadducei	-11.1285
▁sapiente	-11.1285
▁soccorso	-11.1285
▁sventure	-11.1285
▁tortuos	-11.1285
▁tribolazioni	-11.1285
▁durezza	-11.1285
▁passeggia	-11.1285
▁rimangono	-11.1285
▁battè	-11.1285
▁rinunzi	-11.1285
▁cadono	-11.1285
▁freccia	-11.1285
▁vasaio	-11.1285
▁conversione	-11.1285
▁infine	-11.1285
▁Misur	-11.1285
▁cervice	-11.1285
emolì	-11.1285
▁svanisc	-11.1285
▁pazzo	-11.1285
▁seguono	-11.1285
▁terminato	-11.1285
ultima	-11.1285
▁detesto	-11.1285
▁partoriente	-11.1285
▁confront	-11.1285
▁maligno	-11.1285
▁Lazzaro	-11.1285
▁circoncidere	-11.1285
▁disonore	-11.1285
▁corsa	-11.1285
▁rilasci	-11.1285
▁respiro	-11.1286
▁ripagh	-11.1286
▁riscontr	-11.1286
▁Seraià	-11.1286
▁accampamenti	-11.1286
▁Macli	-11.1286
▁gravi	-11.1286
▁inebri	-11.1286
▁gemito	-11.1286
▁butt	-11.1286
▁apparterrà	-11.1286
▁stella	-11.1286
▁canne	-11.1286
▁abissi	-11.1286
esperto	-11.1286
▁gioirà	-11.1286
▁traffic	-11.1286
▁sforz	-11.1286
▁Bani	-11.1287
▁ungerai	-11.1287
▁tasso	-11.1287
▁uncini	-11.1288
▁macina	-11.1288
▁clamor	-11.1289
▁apertamente	-11.1289
▁Uzziel	-11.1289
▁Trenta	-11.129
▁sazietà	-11.129
▁novella	-11.1291
▁Cammin	-11.1292
▁passione	-11.1293
▁assalì	-11.1295
▁decise	-11.1295
▁Gaditi	-11.1299
▁Nebo	-11.1301
▁stanch	-11.1301
▁sicura	-11.1302
Basta	-11.1305
▁pregher	-11.1305
▁pigia	-11.1306
▁Ved	-11.1311
Apri	-11.1314
Peor	-11.135
▁lascera	-11.1357
▁scosse	-11.1363
▁contese	-11.1365
Vedete	-11.1435
▁agir	-11.1443
Torna	-11.1456
▁terr	-11.149
Lasciami	-11.1497
▁vivand	-11.1499
cinquanta	-11.1597
▁maledir	-11.1603
sorgeranno	-11.1625
▁insegne	-11.1633
▁convertit	-11.1649
▁rivelat	-11.1689
Parl	-11.1695
▁avrest	-11.1713
stretto	-11.1737
▁impreca	-11.1757
▁turn	-11.1801
cambierò	-11.1842
Devo	-11.1886
▁prostitut	-11.1915
▁riemp	-11.1932
▁Israelit	-11.1959
agnello	-11.1978
Padre	-11.1979
splor	-11.1997
▁schiaccia	-11.2031
▁spuntar	-11.2032
▁rovi	-11.2041
▁felici	-11.205
▁lunghe	-11.2051
▁registr	-11.2052
ruppe	-11.2053
ffligge	-11.2054
▁Abbandon	-11.2054
▁Basàn	-11.2054
▁Betsabea	-11.2054
▁Eglon	-11.2054
▁Eliasìb	-11.2054
▁Kàreca	-11.2054
▁Maskil	-11.2054
▁Nazaret	-11.2054
▁Recàb	-11.2054
▁Refaim	-11.2054
▁Romelia	-11.2054
▁Ziklàg	-11.2054
▁avvolse	-11.2054
▁candelabri	-11.2054
▁corruzione	-11.2054
▁custode	-11.2054
▁deserta	-11.2054
▁febbre	-11.2054
▁freddo	-11.2054
▁immensa	-11.2054
▁impetuos	-11.2054
▁lettuccio	-11.2054
▁magazzini	-11.2054
▁pavimento	-11.2054
▁prodezze	-11.2054
▁prostituit	-11.2054
▁prostituzioni	-11.2054
▁quaggiù	-11.2054
▁redentore	-11.2054
▁ribellò	-11.2054
▁ruscelli	-11.2054
▁sanguinari	-11.2054
▁sgabello	-11.2054
▁sottrar	-11.2054
▁timpani	-11.2054
▁travolge	-11.2054
▁Radun	-11.2054
▁dimenticher	-11.2054
▁moltiplichi	-11.2054
▁nonostante	-11.2054
▁oltraggi	-11.2054
▁somiglia	-11.2054
▁Elifaz	-11.2054
▁Terach	-11.2054
▁giunga	-11.2054
▁orfani	-11.2054
▁perfezione	-11.2054
▁pruni	-11.2054
oprattutto	-11.2054
▁vegliardi	-11.2054
▁sudditi	-11.2054
sorgono	-11.2054
▁novanta	-11.2054
▁nutrimento	-11.2054
▁prolung	-11.2054
▁scoraggia	-11.2054
▁sincerità	-11.2054
▁capretto	-11.2054
▁istruzioni	-11.2054
▁maneggia	-11.2054
▁sottomessi	-11.2054
undecimo	-11.2054
▁covoni	-11.2054
▁Nacas	-11.2054
▁Raab	-11.2055
▁Festo	-11.2055
▁terrori	-11.2055
▁completa	-11.2055
▁rimani	-11.2055
eunuco	-11.2055
▁soffoca	-11.2055
▁quercia	-11.2055
Rimmòn	-11.2055
▁tremeranno	-11.2055
▁concessa	-11.2055
▁condurrà	-11.2055
▁vomit	-11.2055
▁conversa	-11.2055
▁mattoni	-11.2055
avorio	-11.2055
▁impedito	-11.2055
▁scopo	-11.2055
▁stilla	-11.2055
▁statue	-11.2055
▁misteri	-11.2055
▁massacr	-11.2055
uragano	-11.2056
▁monda	-11.2056
▁richiam	-11.2056
▁vicine	-11.2056
▁regole	-11.2056
▁tigna	-11.2056
▁Gog	-11.2056
▁scure	-11.2056
▁senso	-11.2056
▁corte	-11.2057
▁sorteggiat	-11.2057
▁Andrea	-11.2057
▁anime	-11.2057
▁fiere	-11.2057
▁introdusse	-11.2057
▁diminu	-11.2058
▁venendo	-11.2058
▁felicità	-11.2059
▁primizia	-11.2059
▁Evei	-11.2061
▁ebbi	-11.2061
▁protest	-11.2062
▁divorò	-11.2063
▁mancher	-11.2065
▁impegna	-11.2066
▁benedizioni	-11.2066
▁degni	-11.2067
▁pretest	-11.2068
▁revoc	-11.207
▁cinse	-11.2071
▁tosa	-11.2073
▁prelevat	-11.2076
accordo	-11.2077
▁gioire	-11.209
▁tenendo	-11.2092
▁ricerche	-11.2102
▁conquist	-11.2119
unghia	-11.2134
rattanto	-11.2162
▁veglie	-11.2166
▁svergogn	-11.2175
unica	-11.2186
acclamazione	-11.2187
elevazione	-11.222
eresti	-11.2281
▁Dell	-11.2303
▁piombar	-11.234
▁stabilisc	-11.2537
ntri	-11.2558
▁depor	-11.2561
▁Amm	-11.2563
▁indag	-11.2567
scrizione	-11.2625
▁centr	-11.2645
▁diventere	-11.2683
▁informar	-11.2735
▁Galile	-11.2749
▁appicc	-11.2787
▁focacc	-11.2807
▁avut	-11.281
unico	-11.2812
▁estremi	-11.2884
▁adulter	-11.2885
allegria	-11.2887
▁Ebed	-11.2888
▁accorge	-11.2888
Iearìm	-11.2888
Rabbì	-11.2888
accolgono	-11.2888
umiltà	-11.2888
▁Abigail	-11.2888
▁Achimelech	-11.2888
▁Betània	-11.2888
▁Casabià	-11.2888
▁Felice	-11.2888
▁Geenna	-11.2888
▁Ghecazi	-11.2888
▁Idutun	-11.2888
▁Màgdala	-11.2888
▁Nabuzaradàn	-11.2888
▁Nàaman	-11.2888
▁Rabbà	-11.2888
▁Tekòa	-11.2888
▁Zebedèo	-11.2888
▁artigiani	-11.2888
▁asport	-11.2888
▁assunt	-11.2888
▁bevvero	-11.2888
▁commensali	-11.2888
▁cospetto	-11.2888
▁costruttor	-11.2888
▁escrementi	-11.2888
▁fuggiaschi	-11.2888
▁gazzella	-11.2888
▁immagini	-11.2888
▁imprese	-11.2888
▁insensat	-11.2888
▁magnificenza	-11.2888
▁nipoti	-11.2888
▁onnipotente	-11.2888
▁proverbio	-11.2888
▁prudente	-11.2888
▁quadrato	-11.2888
▁remissione	-11.2888
▁riscald	-11.2888
▁ruggine	-11.2888
▁scrittur	-11.2888
▁sollecit	-11.2888
▁tornerai	-11.2888
▁ultime	-11.2888
▁canali	-11.2888
▁copertura	-11.2888
▁crudel	-11.2888
▁esperti	-11.2888
▁fischi	-11.2888
▁infuri	-11.2888
▁ombre	-11.2888
▁oscura	-11.2888
▁Gioisc	-11.2888
▁colpevoli	-11.2888
▁vissut	-11.2888
▁Asdod	-11.2888
▁Lamech	-11.2888
▁Terminat	-11.2888
▁fortuna	-11.2888
▁profumato	-11.2888
▁Giunse	-11.2888
▁Sammà	-11.2888
▁nuca	-11.2888
▁persuas	-11.2888
▁Debir	-11.2888
▁errando	-11.2888
▁superbo	-11.2888
▁vedrò	-11.2888
▁Carran	-11.2888
▁origin	-11.2888
▁trebbia	-11.2888
▁volgiti	-11.2888
▁corazza	-11.2888
▁solitari	-11.2888
▁inebrianti	-11.2888
▁scatur	-11.2888
dàk	-11.2888
▁maledice	-11.2888
▁ottenere	-11.2888
▁tradizione	-11.2888
▁vivrete	-11.2888
▁follia	-11.2888
▁uscirai	-11.2888
▁erbe	-11.2888
▁muli	-11.2888
▁Ieter	-11.2888
▁Ribla	-11.2888
▁Amoz	-11.2888
▁secche	-11.2888
▁acquistò	-11.2888
▁perdonerò	-11.2888
▁acceca	-11.2888
▁punito	-11.2888
▁lunghi	-11.2888
▁Carissim	-11.2888
Eveo	-11.2888
▁brutt	-11.2889
▁consolid	-11.2889
attività	-11.2889
▁consigliere	-11.2889
▁vessill	-11.2889
▁guad	-11.2889
approva	-11.2889
adunanza	-11.2889
Lungi	-11.289
▁Scese	-11.2891
▁contento	-11.2892
intrecci	-11.2892
▁luci	-11.2892
▁posseduto	-11.2893
▁onori	-11.2895
▁duro	-11.2896
▁Allontan	-11.2897
▁Cusa	-11.2899
▁tremend	-11.2907
▁disporr	-11.2908
Ritorn	-11.2908
▁permise	-11.2929
▁Porr	-11.3006
▁Mostr	-11.3009
Portate	-11.3023
▁dedit	-11.3025
▁respinger	-11.3061
▁eliminat	-11.3115
affront	-11.312
▁dispon	-11.312
▁bagnar	-11.3121
▁attaccat	-11.3167
▁castigher	-11.3172
▁Tornat	-11.3245
guardo	-11.3393
▁poc	-11.3408
▁affidat	-11.3422
▁delusi	-11.3536
sporre	-11.3645
▁produc	-11.3703
▁carcer	-11.3717
▁gross	-11.3737
rendiamo	-11.3774
▁nacque	-11.3782
▁aspers	-11.3783
▁rischi	-11.3796
▁distingu	-11.3796
▁Riconosc	-11.3796
▁Kir	-11.3797
▁Paddan	-11.3797
▁corromp	-11.3797
▁offend	-11.3797
▁sollievo	-11.3797
Mèlech	-11.3797
equità	-11.3797
▁Aggeo	-11.3797
▁Agrippa	-11.3797
▁Asdòd	-11.3797
▁Barzillài	-11.3797
▁Beniaminita	-11.3797
▁Cazar	-11.3797
▁Eliakìm	-11.3797
▁Nadàb	-11.3797
▁Tommaso	-11.3797
▁Zalmunna	-11.3797
▁Zoar	-11.3797
▁Zorea	-11.3797
▁accovacci	-11.3797
▁ascolterà	-11.3797
▁ascolterò	-11.3797
▁beffe	-11.3797
▁branco	-11.3797
▁caldaie	-11.3797
▁cranio	-11.3797
▁cupidigia	-11.3797
▁edificò	-11.3797
▁fibbie	-11.3797
▁flusso	-11.3797
▁fornicazione	-11.3797
▁fortificò	-11.3797
▁giardini	-11.3797
▁incisioni	-11.3797
▁ipocriti	-11.3797
▁mezzanotte	-11.3797
▁nazireato	-11.3797
▁omicidi	-11.3797
▁paralitico	-11.3797
▁promulgat	-11.3797
▁redenzione	-11.3797
▁rimpatriati	-11.3797
▁rinnegher	-11.3797
▁sfoga	-11.3797
▁sgorga	-11.3797
▁soccomb	-11.3797
▁sovrintendent	-11.3797
▁templi	-11.3797
▁trappola	-11.3797
▁valoroso	-11.3797
▁vuota	-11.3797
▁zoppo	-11.3797
pendente	-11.3797
▁innocenti	-11.3797
▁paragona	-11.3797
▁suggeri	-11.3797
▁Giusto	-11.3797
▁accadrà	-11.3797
▁fariseo	-11.3797
▁spruzz	-11.3797
▁ferito	-11.3797
▁rivestito	-11.3797
▁sandalo	-11.3797
apposta	-11.3797
▁appres	-11.3797
▁astension	-11.3797
▁ferite	-11.3797
▁fugge	-11.3797
▁decisione	-11.3797
▁enorme	-11.3797
▁sciolt	-11.3797
▁Apollo	-11.3797
▁navata	-11.3797
▁perseveranza	-11.3797
▁trattenne	-11.3797
▁respinto	-11.3797
▁accolse	-11.3797
▁Dedan	-11.3797
▁balz	-11.3797
▁fidanz	-11.3797
▁Milca	-11.3797
▁convertirsi	-11.3797
▁manciat	-11.3797
▁Dagon	-11.3797
▁indugia	-11.3797
▁inebriante	-11.3797
▁gioisca	-11.3797
▁Dibon	-11.3797
▁grotta	-11.3797
▁partecipi	-11.3797
▁umane	-11.3797
▁Iddo	-11.3797
▁corrisponde	-11.3797
▁mietitori	-11.3797
▁Netofa	-11.3797
▁accorre	-11.3797
▁compreso	-11.3797
▁impugn	-11.3797
▁Recob	-11.3797
▁compiuta	-11.3797
▁capitello	-11.3797
▁attingere	-11.3797
▁cardi	-11.3797
▁terminò	-11.3797
▁dorso	-11.3797
▁valut	-11.3797
▁ponga	-11.3797
▁compratore	-11.3798
▁attento	-11.3798
▁vagare	-11.3798
▁domestic	-11.3798
▁pasta	-11.3798
▁intenzion	-11.3798
rituale	-11.3798
▁Beria	-11.3799
▁trascors	-11.3799
▁chiusa	-11.38
ignoranza	-11.3801
▁erge	-11.3803
▁viandant	-11.3803
indign	-11.3804
▁contener	-11.3804
▁affond	-11.3804
aspersione	-11.3811
▁vorrest	-11.3811
ardore	-11.3813
▁contrad	-11.3817
▁invitar	-11.3824
ostruì	-11.3838
milasettecento	-11.3855
▁disfatt	-11.3867
▁Ricordatev	-11.3954
▁comprendi	-11.3979
▁immolat	-11.4095
▁pervert	-11.4138
▁separat	-11.4172
▁costrett	-11.4209
Buon	-11.4243
esortazione	-11.4244
▁riesc	-11.4274
▁riprende	-11.4276
rmene	-11.4307
▁aggiungere	-11.4345
Abb	-11.4364
▁depress	-11.4371
Fuggi	-11.438
▁avid	-11.4415
edicazione	-11.4487
▁scopr	-11.4606
▁flagell	-11.4618
▁signor	-11.4627
▁insegue	-11.4657
▁eseguir	-11.4659
vverrà	-11.4682
immagine	-11.4719
Moab	-11.4721
fuori	-11.4721
innalz	-11.4722
Vedo	-11.4749
▁incensi	-11.4773
impegn	-11.4783
Baltazzàr	-11.4797
Barnea	-11.4797
elemosina	-11.4797
individuo	-11.4797
irrevocabil	-11.4797
issòpo	-11.4797
▁Abinadàb	-11.4797
▁Achimaaz	-11.4797
▁Aialon	-11.4797
▁Barabba	-11.4797
▁Cedron	-11.4797
▁Celebr	-11.4797
▁Chesbòn	-11.4797
▁Elisabetta	-11.4797
▁Iafet	-11.4797
▁Kenaz	-11.4797
▁Micmas	-11.4797
▁Musi	-11.4797
▁Princip	-11.4797
▁Sanballàt	-11.4797
▁Tofet	-11.4797
▁Zippor	-11.4797
▁abbastanza	-11.4797
▁abominevole	-11.4797
▁assoggett	-11.4797
▁bianchi	-11.4797
▁caligine	-11.4797
▁canizie	-11.4797
▁cercheranno	-11.4797
▁compiaciuto	-11.4797
▁decisioni	-11.4797
▁disciplina	-11.4797
▁divisioni	-11.4797
▁fecondi	-11.4797
▁giustificazione	-11.4797
▁grappoli	-11.4797
▁gratuitamente	-11.4797
▁guancia	-11.4797
▁guariti	-11.4797
▁guarnigion	-11.4797
▁improvvisa	-11.4797
▁mandria	-11.4797
▁nuvola	-11.4797
▁nuziale	-11.4797
▁patrimonio	-11.4797
▁primogenitura	-11.4797
▁recipient	-11.4797
▁ricorre	-11.4797
▁rimprovero	-11.4797
▁segnale	-11.4797
▁semplici	-11.4797
▁sfogo	-11.4797
▁sottratt	-11.4797
▁terafim	-11.4797
▁trafigge	-11.4797
▁trasversali	-11.4797
▁tributi	-11.4797
▁ubriaca	-11.4797
▁ubriaco	-11.4797
▁ugualmente	-11.4797
▁zampe	-11.4797
▁Chezron	-11.4797
▁Consider	-11.4797
▁append	-11.4797
▁rappresenta	-11.4797
▁sostiene	-11.4797
▁spalanc	-11.4797
▁squadra	-11.4797
▁trasmess	-11.4797
Avvicinatevi	-11.4797
Riferisci	-11.4797
spugna	-11.4797
▁Sefatia	-11.4797
▁eccelso	-11.4797
▁estranei	-11.4797
▁folgori	-11.4797
▁fortificate	-11.4797
▁giustificati	-11.4797
▁occult	-11.4797
▁pendici	-11.4797
▁processo	-11.4797
▁provenient	-11.4797
▁roveto	-11.4797
▁santissime	-11.4797
▁torchi	-11.4797
increduli	-11.4797
▁intercede	-11.4797
▁sospira	-11.4797
▁trabocch	-11.4797
▁vincitor	-11.4797
▁brocca	-11.4797
▁caverne	-11.4797
▁cipressi	-11.4797
▁ringraziamento	-11.4797
▁selvatica	-11.4797
▁Ioiada	-11.4797
▁riconduc	-11.4797
▁coltelli	-11.4797
▁flauto	-11.4797
▁porgete	-11.4797
Coraggio	-11.4797
▁Porgi	-11.4797
▁Zimri	-11.4797
▁castoni	-11.4797
▁pendio	-11.4797
▁rinforz	-11.4797
▁Tafni	-11.4797
▁Ornan	-11.4797
▁bussa	-11.4797
▁profitt	-11.4797
▁depone	-11.4797
▁terebint	-11.4797
▁Tubal	-11.4797
▁Trova	-11.4797
▁abbattuti	-11.4797
▁trasfer	-11.4797
anfora	-11.4797
▁quarantadue	-11.4797
▁Salvami	-11.4797
▁amaramente	-11.4797
▁fiacca	-11.4797
▁spiaggia	-11.4797
▁bianche	-11.4797
▁conosciuti	-11.4797
▁Vasti	-11.4797
▁falsa	-11.4797
▁oliveti	-11.4797
▁Venga	-11.4797
▁rupi	-11.4797
▁disgust	-11.4797
▁congiunt	-11.4797
▁marinai	-11.4797
▁completo	-11.4797
▁pazzi	-11.4797
▁discuss	-11.4797
▁Isear	-11.4797
▁garant	-11.4797
▁sapevo	-11.4797
▁grassi	-11.4797
▁altissimo	-11.4797
▁aggiunt	-11.4797
▁atting	-11.4797
▁sordi	-11.4797
▁facile	-11.4797
▁Messia	-11.4798
▁Arabi	-11.4798
▁Datan	-11.4798
▁ammirat	-11.4798
▁disegni	-11.4798
Badate	-11.4798
▁Mangi	-11.4798
▁premio	-11.4798
fferenza	-11.4798
▁svanir	-11.4799
▁discord	-11.4799
▁insidia	-11.4799
▁prepost	-11.4799
▁istruisc	-11.4799
Costrui	-11.48
spinse	-11.4803
▁ricolm	-11.4803
▁monet	-11.4808
▁brame	-11.4809
▁bimb	-11.4811
▁Partit	-11.4812
▁trattener	-11.4813
▁rimoss	-11.4815
▁onest	-11.4819
▁palett	-11.4823
▁scriva	-11.4831
▁tradir	-11.4836
indigenza	-11.485
▁espor	-11.4944
Acaia	-11.4948
Popol	-11.4996
rappo	-11.5012
▁benevol	-11.5029
Arba	-11.5058
▁sdr	-11.5061
▁riversat	-11.5094
▁relazion	-11.5097
indigente	-11.514
▁Prepar	-11.521
caric	-11.5277
▁offro	-11.5336
▁stopp	-11.5429
Preparate	-11.5465
▁indigen	-11.5481
▁vest	-11.5539
interess	-11.558
import	-11.569
▁sessant	-11.5735
▁formazion	-11.5778
▁costituit	-11.5829
accaduto	-11.5831
Giovanni	-11.5832
venga	-11.5836
▁vedre	-11.5891
▁sagge	-11.5905
sponde	-11.5905
introdu	-11.5906
olpì	-11.5907
▁circoncid	-11.5908
miladuecento	-11.5908
▁rumina	-11.5908
Azmàvet	-11.5908
uguaglia	-11.5908
▁Aggiunse	-11.5908
▁Beniaminiti	-11.5908
▁Bicrì	-11.5908
▁Binnui	-11.5908
▁Chezròn	-11.5908
▁Ekròn	-11.5908
▁Elifèlet	-11.5908
▁Elisamà	-11.5908
▁Galaadita	-11.5908
▁Iedaia	-11.5908
▁Ittài	-11.5908
▁Macanàim	-11.5908
▁Makkeda	-11.5908
▁Milcom	-11.5908
▁Neemia	-11.5908
▁Querc	-11.5908
▁Ringrazi	-11.5908
▁Secania	-11.5908
▁Tessalonic	-11.5908
▁Zaccur	-11.5908
▁Zelofcad	-11.5908
▁ammalò	-11.5908
▁balsamo	-11.5908
▁banchetti	-11.5908
▁beffardo	-11.5908
▁bisaccia	-11.5908
▁braciere	-11.5908
▁calamità	-11.5908
▁campagne	-11.5908
▁comprendono	-11.5908
▁contributo	-11.5908
▁corrotti	-11.5908
▁costringe	-11.5908
▁esaudì	-11.5908
▁flauti	-11.5908
▁frequent	-11.5908
▁guerriero	-11.5908
▁individui	-11.5908
▁intelligenti	-11.5908
▁irreprensibili	-11.5908
▁manufatto	-11.5908
▁meridione	-11.5908
▁ostinò	-11.5908
▁parzialità	-11.5908
▁piogge	-11.5908
▁pomeriggio	-11.5908
▁propositi	-11.5908
▁puledro	-11.5908
▁rapporto	-11.5908
▁religione	-11.5908
▁reticolato	-11.5908
▁scelleratezze	-11.5908
▁sciolse	-11.5908
▁sconfitta	-11.5908
▁sentenze	-11.5908
▁sepoltura	-11.5908
▁servì	-11.5908
▁sfracell	-11.5908
▁solitudine	-11.5908
▁sommers	-11.5908
▁sorprende	-11.5908
▁spigolare	-11.5908
▁spregevole	-11.5908
▁sàtrapi	-11.5908
▁trafitto	-11.5908
alterigia	-11.5908
▁Benedici	-11.5908
▁Mesech	-11.5908
▁accadde	-11.5908
▁conclud	-11.5908
▁costrinse	-11.5908
▁distinzione	-11.5908
▁magnifica	-11.5908
▁opportuno	-11.5908
▁pescatori	-11.5908
▁sentinelle	-11.5908
▁sobilla	-11.5908
▁trabocca	-11.5908
mpietosi	-11.5908
▁Betuèl	-11.5908
▁Caifa	-11.5908
▁Iazer	-11.5908
▁Selemia	-11.5908
▁Semaià	-11.5908
▁affamati	-11.5908
▁effond	-11.5908
▁ragazza	-11.5908
▁ruota	-11.5908
▁violenti	-11.5908
Idumea	-11.5908
▁appell	-11.5908
▁ceppo	-11.5908
▁Debora	-11.5908
▁Beisan	-11.5908
▁Nadab	-11.5908
▁fecondo	-11.5908
▁inutile	-11.5908
▁profess	-11.5908
▁Iabin	-11.5908
▁Natàn	-11.5908
▁Sèba	-11.5908
▁fallace	-11.5908
▁oscure	-11.5908
▁Tabor	-11.5908
▁chiaramente	-11.5908
▁brace	-11.5908
▁Vorre	-11.5908
▁arrosti	-11.5908
▁restituit	-11.5908
▁cinture	-11.5908
▁fuggiasco	-11.5908
▁peccher	-11.5908
▁punizione	-11.5908
▁scritta	-11.5908
Semes	-11.5908
▁venduti	-11.5908
centodieci	-11.5908
▁preparativi	-11.5908
▁locuste	-11.5908
▁evitare	-11.5908
▁nuda	-11.5908
Neppur	-11.5908
▁cospars	-11.5908
▁seduce	-11.5908
▁deride	-11.5908
arsura	-11.5908
▁attaccher	-11.5908
▁ceneri	-11.5908
▁feriti	-11.5908
▁destino	-11.5908
▁bosco	-11.5908
▁veritier	-11.5908
archivista	-11.5908
▁inflitt	-11.5908
▁azzime	-11.5908
▁materia	-11.5908
▁saperlo	-11.5908
▁sponda	-11.5908
▁dorme	-11.5908
▁regge	-11.5909
▁rischiara	-11.5909
▁pollic	-11.5909
▁smont	-11.591
▁licenz	-11.591
▁Rimase	-11.591
▁strazi	-11.5912
▁salga	-11.5913
Accost	-11.5913
settantadue	-11.5917
Scegli	-11.5927
▁punisc	-11.5932
▁mirabil	-11.5932
incensiere	-11.5935
▁dens	-11.5956
▁vergogne	-11.596
▁effi	-11.5965
▁precis	-11.5968
▁ceder	-11.599
ccedeva	-11.5995
settantacinque	-11.6018
Comand	-11.6065
▁bagnat	-11.6172
interven	-11.6177
trepid	-11.6236
▁spars	-11.6268
▁eliminer	-11.6313
▁ricopert	-11.6323
Poss	-11.6352
imprecazione	-11.6362
▁coricat	-11.6379
avvent	-11.6416
▁sembr	-11.6442
▁rifugi	-11.6634
sistevano	-11.666
▁partorisc	-11.6749
▁preoccup	-11.6838
▁distribu	-11.6866
▁ricerc	-11.6877
▁Dett	-11.7059
▁coppier	-11.7077
▁crocifiss	-11.7079
▁santuari	-11.708
autorità	-11.7081
abominio	-11.7082
cominciò	-11.7082
Guai	-11.7082
Gesù	-11.7082
insegui	-11.7083
▁disobbedi	-11.7087
▁cadd	-11.7089
▁fabbri	-11.7151
▁Attravers	-11.7158
▁sopprim	-11.7158
Ammonita	-11.7158
Convertitevi	-11.7158
Hinnòn	-11.7158
amministratore	-11.7158
appetito	-11.7158
imprigion	-11.7158
impudicizia	-11.7158
indennizzo	-11.7158
indovinello	-11.7158
ipocrisia	-11.7158
mbedue	-11.7158
▁Afek	-11.7158
▁Amminadab	-11.7158
▁Araunà	-11.7158
▁Bacurìm	-11.7158
▁Baldassàr	-11.7158
▁Berechia	-11.7158
▁Cilicia	-11.7158
▁Cornelio	-11.7158
▁Gelboe	-11.7158
▁Gentili	-11.7158
▁Ieconia	-11.7158
▁Immer	-11.7158
▁Interroga	-11.7158
▁Ioakìm	-11.7158
▁Kedàr	-11.7158
▁Kenan	-11.7158
▁Keniti	-11.7158
▁Meghiddo	-11.7158
▁Menachem	-11.7158
▁Menfi	-11.7158
▁Netaneèl	-11.7158
▁Pascùr	-11.7158
▁Rallegratevi	-11.7158
▁Selomìt	-11.7158
▁Tarsìs	-11.7158
▁Zoba	-11.7158
▁abbraccia	-11.7158
▁accreditato	-11.7158
▁agguati	-11.7158
▁appaia	-11.7158
▁applica	-11.7158
▁arrossire	-11.7158
▁ascolteranno	-11.7158
▁astrologi	-11.7158
▁baluardo	-11.7158
▁battaglie	-11.7158
▁brecce	-11.7158
▁bubboni	-11.7158
▁cavaliere	-11.7158
▁chiacchiere	-11.7158
▁cordicell	-11.7158
▁cumul	-11.7158
▁desolate	-11.7158
▁dignitari	-11.7158
▁dimensioni	-11.7158
▁dimentichi	-11.7158
▁divampò	-11.7158
▁eseguisc	-11.7158
▁falegnami	-11.7158
▁fessur	-11.7158
▁fodero	-11.7158
▁frastuono	-11.7158
▁fronde	-11.7158
▁impone	-11.7158
▁incomincia	-11.7158
▁inesperti	-11.7158
▁inghiottì	-11.7158
▁iniqua	-11.7158
▁leoncelli	-11.7158
▁leoncello	-11.7158
▁mercenari	-11.7158
▁negromanti	-11.7158
▁padrona	-11.7158
▁persuadere	-11.7158
▁pietoso	-11.7158
▁predecessori	-11.7158
▁profetessa	-11.7158
▁pronunciare	-11.7158
▁retroguardia	-11.7158
▁richiede	-11.7158
▁riuscì	-11.7158
▁ruggito	-11.7158
▁santifico	-11.7158
▁sopravvive	-11.7158
▁sospes	-11.7158
▁sostentamento	-11.7158
▁spalline	-11.7158
▁spirituali	-11.7158
▁sporgenz	-11.7158
▁squame	-11.7158
▁squisit	-11.7158
▁straordinaria	-11.7158
▁stritola	-11.7158
▁superficie	-11.7158
▁zizzania	-11.7158
▁zoccol	-11.7158
▁Astarot	-11.7158
▁Consacr	-11.7158
▁Insegna	-11.7158
▁Intorno	-11.7158
▁assenzio	-11.7158
▁cercherà	-11.7158
▁estirper	-11.7158
▁guariva	-11.7158
▁mercato	-11.7158
▁nuvole	-11.7158
▁officia	-11.7158
▁punteggiat	-11.7158
▁quadruped	-11.7158
▁raddrizz	-11.7158
▁raffinat	-11.7158
▁scellerat	-11.7158
▁selvaggina	-11.7158
▁uccisa	-11.7158
▁violenta	-11.7158
▁ònice	-11.7158
Vattene	-11.7158
▁Chebàr	-11.7158
▁Giung	-11.7158
▁Sefela	-11.7158
▁Serebia	-11.7158
▁Zof	-11.7158
▁istruito	-11.7158
▁spedizione	-11.7158
▁tortura	-11.7158
▁ammalat	-11.7158
▁intinge	-11.7158
▁particolare	-11.7158
▁paterno	-11.7158
▁presiedeva	-11.7158
▁Ammiud	-11.7158
▁Pisga	-11.7158
▁Spada	-11.7158
▁arcieri	-11.7158
angustia	-11.7158
▁Sopra	-11.7158
▁miriadi	-11.7158
▁sofferto	-11.7158
▁usura	-11.7158
▁Rivesti	-11.7158
▁scintill	-11.7158
▁severamente	-11.7158
▁Iachin	-11.7158
▁Roccia	-11.7158
▁declina	-11.7158
▁località	-11.7158
▁rovescer	-11.7158
▁assistito	-11.7158
▁laterale	-11.7158
▁capello	-11.7158
▁Simeì	-11.7158
▁comprenda	-11.7158
▁fallaci	-11.7158
▁Gerar	-11.7158
▁parleranno	-11.7158
unguento	-11.7158
▁Trascors	-11.7158
▁locusta	-11.7158
innocenza	-11.7158
▁ricevuta	-11.7158
Iearim	-11.7158
▁mescolat	-11.7158
▁Misael	-11.7158
▁egizian	-11.7158
▁singol	-11.7158
▁danze	-11.7158
▁delizios	-11.7159
▁sciocch	-11.7159
▁sostener	-11.7159
▁Devast	-11.7159
▁distoglie	-11.7159
▁razzia	-11.716
▁dissolv	-11.716
assennato	-11.716
nzitutto	-11.716
▁roman	-11.716
energi	-11.716
▁complott	-11.7161
Volgiti	-11.7161
▁spazzat	-11.7162
▁giustificar	-11.7162
▁tenerezz	-11.7163
Convoca	-11.7164
▁inserir	-11.7165
▁emigr	-11.7166
▁piegh	-11.7167
parecchi	-11.7169
▁dannegg	-11.7171
Distrugg	-11.7182
é	-11.8577
’	-11.8586
]	-12.8086
j	-13.3086
J	-14.3073
9	-14.3074
0	-14.3075
8	-14.3076
7	-14.3077
5	-14.3078
4	-14.3079
3	-14.308
2	-14.3081
6	-14.3082
K	-14.3083
H	-14.3084
Q	-14.3085
}	-14.3086
«	-14.3086
