<pad>	0
</s>	0
<unk>	0
▁¦	-0
ch	-1
ai	-2
an	-3
ar	-4
th	-5
ea	-6
in	-7
▁𐋇	-8
ag	-9
dh	-10
na	-11
bh	-12
le	-13
mh	-14
ir	-15
▁.	-16
is	-17
▁,	-18
ío	-19
ach	-20
us	-21
il	-22
co	-23
agus	-24
id	-25
ta	-26
air	-27
gh	-28
ao	-29
tá	-30
each	-31
go	-32
la	-33
io	-34
do	-35
ra	-36
ei	-37
the	-38
te	-39
ain	-40
fh	-41
lá	-42
ad	-43
iú	-44
chu	-45
al	-46
de	-47
ás	-48
eo	-49
ann	-50
cov	-51
inn	-52
ine	-53
or	-54
sc	-55
aí	-56
ro	-57
anna	-58
eas	-59
9¦	-60
as	-61
áil	-62
tú	-63
éi	-64
nó	-65
íon	-66
ri	-67
ais	-68
▁¦2	-69
bhf	-70
19¦	-71
aithe	-72
covid	-73
uair	-74
ír	-75
-19¦	-76
mar	-77
sh	-78
éad	-79
▁’	-80
eadh	-81
ion	-82
nío	-83
má	-84
seo	-85
adh	-86
it	-87
éan	-88
ná	-89
▁¦1	-90
aigh	-91
ac	-92
eag	-93
ear	-94
du	-95
ig	-96
sa	-97
abh	-98
0¦	-99
idir	-100
íoch	-101
cho	-102
íonn	-103
fé	-104
ní	-105
acht	-106
tr	-107
aon	-108
amh	-109
aidh	-110
ithe	-111
igh	-112
óg	-113
aoine	-114
uil	-115
chun	-116
cás	-117
vír	-118
cu	-119
im	-120
tar	-121
eile	-122
óir	-123
mb	-124
áin	-125
agh	-126
eann	-127
nach	-128
bhfuil	-129
áid	-130
láin	-131
eal	-132
ín	-133
eacht	-134
ail	-135
▁(	-136
ph	-137
arth	-138
acha	-139
sé	-140
mó	-141
am	-142
stá	-143
rai	-144
áir	-145
▁)	-146
re	-147
isc	-148
atá	-149
éir	-150
ath	-151
íodh	-152
fao	-153
eamh	-154
níos	-155
st	-156
comh	-157
sp	-158
án	-159
ru	-160
thu	-161
oi	-162
ean	-163
ic	-164
taí	-165
oir	-166
iad	-167
víreas	-168
aith	-169
rú	-170
tu	-171
ró	-172
thar	-173
daoine	-174
dú	-175
ús	-176
on	-177
cl	-178
tha	-179
sin	-180
eith	-181
féidir	-182
sláin	-183
saí	-184
iom	-185
bhí	-186
éim	-187
▁¦20	-188
déan	-189
faoi	-190
eidh	-191
gc	-192
dt	-193
aghaidh	-194
aint	-195
rá	-196
se	-197
ist	-198
uairisc	-199
ol	-200
duine	-201
éadf	-202
vac	-203
imh	-204
tástá	-205
leis	-206
lean	-207
vacsaí	-208
sláinte	-209
2¦	-210
cú	-211
anta	-212
éis	-213
úsáid	-214
oib	-215
chur	-216
dhéan	-217
aid	-218
lea	-219
fhabh	-220
ionfhabh	-221
eagmh	-222
airt	-223
taithe	-224
5¦	-225
bás	-226
tear	-227
to	-228
ón	-229
ars	-230
lu	-231
aip	-232
iún	-233
sco	-234
4¦	-235
dó	-236
chomh	-237
ile	-238
ál	-239
raibh	-240
rial	-241
me	-242
ála	-243
un	-244
raí	-245
roinn	-246
3¦	-247
ort	-248
sars	-249
ur	-250
sú	-251
rio	-252
▁:	-253
éar	-254
tuairisc	-255
ith	-256
arthaí	-257
vacsaín	-258
ial	-259
ibh	-260
iar	-261
cuir	-262
bheith	-263
ina	-264
gach	-265
ill	-266
éadfadh	-267
▁¦202	-268
dhéanamh	-269
rud	-270
ba	-271
lú	-272
íocht	-273
ghl	-274
mu	-275
tuairiscíodh	-276
tais	-277
dear	-278
féin	-279
éal	-280
gur	-281
1¦	-282
och	-283
ras	-284
inne	-285
thair	-286
ian	-287
chóir	-288
su	-289
rta	-290
dá	-291
ard	-292
comharthaí	-293
sín	-294
8¦	-295
san	-296
áis	-297
duit	-298
▁¦2020¦	-299
ma	-300
ne	-301
mha	-302
eola	-303
ógra	-304
cásanna	-305
▁¦3	-306
eall	-307
rian	-308
roinnt	-309
dhaoine	-310
reis	-311
thug	-312
den	-313
don	-314
idh	-315
líon	-316
siad	-317
tug	-318
chú	-319
▁¦4	-320
gal	-321
nuair	-322
fan	-323
trí	-324
eabh	-325
rtha	-326
ia	-327
orthu	-328
lagh	-329
6¦	-330
aile	-331
son	-332
tástáil	-333
fu	-334
ce	-335
cé	-336
▁%	-337
fhéadfadh	-338
iúil	-339
nu	-340
eachta	-341
at	-342
7¦	-343
ob	-344
dí	-345
ráig	-346
chuir	-347
vir	-348
éig	-349
lena	-350
eagmháil	-351
fo	-352
márta	-353
radh	-354
lí	-355
int	-356
roimh	-357
eachtaí	-358
tach	-359
úd	-360
amach	-361
río	-362
aine	-363
gl	-364
eacha	-365
ítear	-366
fr	-367
scaip	-368
lán	-369
neamh	-370
eart	-371
00¦	-372
isteach	-373
có	-374
mo	-375
bun	-376
dóibh	-377
eaghl	-378
ae	-379
gco	-380
déim	-381
pla	-382
túir	-383
coro	-384
nadh	-385
freis	-386
freisin	-387
isiún	-388
aindéim	-389
navir	-390
-2¦	-391
spr	-392
domh	-393
da	-394
mí	-395
víris	-396
scoile	-397
leat	-398
▁-	-399
fáil	-400
coronavir	-401
amháin	-402
chás	-403
sonraí	-404
¦	-405
▁	-406
a	-407
i	-408
h	-409
n	-410
r	-411
e	-412
t	-413
s	-414
o	-415
c	-416
l	-417
d	-418
g	-419
m	-420
á	-421
u	-422
í	-423
b	-424
f	-425
é	-426
𐋇	-427
ú	-428
ó	-429
.	-430
,	-431
p	-432
v	-433
-	-434
1	-435
2	-436
0	-437
9	-438
’	-439
3	-440
4	-441
5	-442
)	-443
(	-444
6	-445
8	-446
7	-447
w	-448
:	-449
y	-450
%	-451
"	-452
/	-453
k	-454
z	-455
“	-456
;	-457
”	-458
'	-459
–	-460
j	-461
x	-462
?	-463
q	-464
‘	-465
$	-466
[	-467
]	-468
&	-469
€	-470
+	-471
≥	-472
#	-473
~	-474
×	-475
@	-476
α	-477
β	-478
|	-479
£	-480
°	-481
ã	-482
ç	-483
γ	-484
—	-485
武	-486
肺	-487
=	-488
_	-489
­	-490
à	-491
å	-492
′	-493
汉	-494
漢	-495
炎	-496
