<pad>	0
</s>	0
<unk>	0
¦	-1.8204
▁¦	-2.32165
ˈ	-2.53696
▁	-2.69372
̈	-3.67131
𐋇	-3.86078
,	-3.90526
.	-4.22828
▁Comam	-4.39177
k	-4.55205
▁̈	-4.58995
▁naj	-4.7239
▁,	-4.81527
an	-4.8436
▁tu	-4.91252
▁ebnaj	-4.91528
▁yin	-4.98062
a	-5.03117
comam	-5.08221
▁.	-5.23388
naj	-5.27341
e	-5.29492
▁xin	-5.33149
tu	-5.42018
▁yul	-5.47981
ebnaj	-5.49266
▁caw	-5.49389
yin	-5.52449
▁Dios	-5.61535
▁hune	-5.63841
ti	-5.67812
▁yu	-5.70074
▁tet	-5.72489
▁ti	-5.74112
▁anma	-5.75106
▁yeb	-5.78377
ul	-5.78856
c	-5.80906
caw	-5.86181
xin	-5.89778
▁ha	-5.91816
▁tzet	-5.92576
▁mach	-6.04239
yul	-6.05433
▁―	-6.09916
yet	-6.12917
ha	-6.13707
▁ẍi	-6.15275
hune	-6.15426
▁yet	-6.16448
:	-6.19055
yu	-6.21002
ek	-6.23154
▁ay	-6.23531
▁isc	-6.26364
▁haca	-6.27993
dios	-6.28802
tet	-6.31029
en	-6.3194
anma	-6.32079
ay	-6.32414
tzet	-6.32535
ob	-6.32975
ˈ,	-6.3362
o	-6.33921
yeb	-6.33956
ab	-6.37628
n	-6.44783
▁mac	-6.45604
ni	-6.45755
to	-6.46105
j	-6.49141
ch	-6.50756
▁Ha	-6.51146
mach	-6.53476
yiban	-6.56253
▁isk	-6.57376
▁tato	-6.58145
▁ch	-6.59663
▁ta	-6.60374
▁yuto	-6.61613
i	-6.62448
▁con	-6.6407
ulal	-6.65987
▁sunil	-6.67639
isc	-6.69089
on	-6.70725
▁cat	-6.70854
▁c	-6.71441
▁isba	-6.71483
tic	-6.72521
▁ix	-6.7266
ẍi	-6.74191
▁sat	-6.76154
▁:	-6.77587
haca	-6.7763
wal	-6.7849
▁hunt	-6.79359
ta	-6.80288
al	-6.81579
inal	-6.82036
▁bey	-6.84266
▁Wal	-6.84861
watx	-6.84929
▁tx	-6.8942
▁hunu	-6.89989
mac	-6.90703
▁yalni	-6.92745
▁Jesús	-6.93693
▁tz	-6.93947
tzoti	-6.96319
▁bay	-6.96716
▁ya	-6.96786
▁¿	-6.98262
yuto	-6.99485
isk	-7.00112
yaj	-7.00573
xa	-7.03871
tato	-7.04076
▁chu	-7.04585
no	-7.04601
paxo	-7.05186
▁te	-7.06061
▁yaj	-7.06091
yalni	-7.07794
▁ye	-7.09229
▁Jesucristo	-7.0986
▁chi	-7.09918
?	-7.1027
▁Caw	-7.10816
tz	-7.11766
sunil	-7.13561
in	-7.13975
con	-7.15229
▁yuxin	-7.16872
ix	-7.18981
▁Yaj	-7.19205
ya	-7.19692
yuxin	-7.20932
▁“	-7.21651
tx	-7.21819
sat	-7.23333
”	-7.24336
▁teyet	-7.25223
▁ayco	-7.25633
tinan	-7.25678
otx	-7.26487
bal	-7.27927
cat	-7.28147
▁Hac	-7.28907
isba	-7.29387
hac	-7.297
▁hac	-7.30275
▁machi	-7.30362
▁xol	-7.30658
ojal	-7.30873
hunt	-7.30891
▁chal	-7.325
ˈ:	-7.32569
lax	-7.33019
ic	-7.34486
bey	-7.35492
▁no	-7.35723
▁Yuxin	-7.36162
▁yanma	-7.36641
oj	-7.37157
ayic	-7.38138
atan	-7.3937
tajil	-7.40045
iswatx	-7.42465
te	-7.42777
▁Lahwi	-7.43548
▁wal	-7.45148
bay	-7.47422
wi	-7.47614
hunu	-7.48453
▁Is	-7.48746
▁hex	-7.50421
chi	-7.51651
p	-7.52544
ec	-7.53217
▁yun	-7.55012
ye	-7.55136
▁yip	-7.5525
▁ischejab	-7.55564
hayet	-7.56013
satcan	-7.5694
▁Israel	-7.57194
▁Yalni	-7.60057
ca	-7.60303
chu	-7.60455
▁istx	-7.61697
yalan	-7.62055
▁Yet	-7.62115
jesús	-7.62685
▁yoc	-7.63182
;	-7.64269
hex	-7.68061
chon	-7.68564
▁―¿	-7.71754
ibn	-7.71792
▁he	-7.73485
oc	-7.74702
lahwi	-7.75162
‐	-7.75678
▁isya	-7.77545
machi	-7.776
▁iswi	-7.78094
ahol	-7.78464
we	-7.79019
esucristo	-7.79209
co	-7.80294
il	-7.80652
han	-7.81521
ayco	-7.8186
▁matxa	-7.81885
xol	-7.82597
▁yal	-7.83316
chal	-7.8345
teyet	-7.83502
ayxaco	-7.83809
▁niman	-7.85406
▁yatut	-7.86347
▁Pablo	-7.86966
nich	-7.87441
▁han	-7.87692
▁heyanma	-7.87742
▁ton	-7.88903
▁heba	-7.88905
▁ebix	-7.8924
▁?	-7.89928
▁ec	-7.92026
anil	-7.93298
yanma	-7.9421
▁cha	-7.94514
ap	-7.94694
▁Ay	-7.94833
bil	-7.9515
▁lan	-7.9529
cano	-7.95774
istan	-7.95898
is	-7.961
can	-7.96705
▁texol	-7.99168
▁ixim	-7.99772
m	-8.00496
▁in	-8.01538
▁yilal	-8.0277
▁¡	-8.03671
▁yilni	-8.048
ojan	-8.04873
▁yelapno	-8.05167
▁sata	-8.05261
▁yehi	-8.05878
waxan	-8.07387
▁yapni	-8.07967
yoc	-8.0839
▁Yuto	-8.0845
▁chiwalan	-8.09941
▁maca	-8.10169
yun	-8.10605
▁iscuywom	-8.11864
amben	-8.1299
israel	-8.13054
haxinwal	-8.1333
ischejab	-8.13848
▁maẍto	-8.13937
▁co	-8.14414
▁Ta	-8.14598
▁Espíritu	-8.15064
yip	-8.15335
istx	-8.15349
he	-8.16296
isley	-8.16757
▁isto	-8.16792
▁Haxa	-8.17068
anxa	-8.17443
▁Pedro	-8.18281
▁Moisés	-8.18691
tan	-8.19352
▁isbi	-8.19731
!	-8.20472
▁hunun	-8.20615
▁is	-8.21136
▁Ista	-8.22076
▁juẍta	-8.22299
▁yaben	-8.22346
▁cuybanile	-8.22389
▁matzwalil	-8.2278
▁yahawil	-8.2323
▁win	-8.23254
▁wetan	-8.23904
▁icham	-8.2393
▁teyin	-8.241
lan	-8.24568
yanico	-8.24774
▁choche	-8.25361
s	-8.25712
cha	-8.25825
ah	-8.26745
▁jet	-8.27425
▁yinta	-8.27625
▁ismajul	-8.29599
Tzet	-8.2997
yuxinto	-8.29972
matxa	-8.30115
ojab	-8.30611
yal	-8.31332
isya	-8.31886
▁Santo	-8.32293
▁istz	-8.32304
▁chia	-8.32384
b	-8.32631
▁ismul	-8.33435
▁Juan	-8.34191
niman	-8.34227
el	-8.3575
iswi	-8.36146
ton	-8.3687
tom	-8.40068
ayical	-8.40115
tzettaj	-8.40808
ej	-8.40965
▁Yin	-8.41451
▁yeli	-8.41492
ule	-8.41582
yatut	-8.42969
▁jin	-8.43921
la	-8.44829
haxa	-8.44983
▁hec	-8.45537
ebix	-8.45888
▁yebpaxo	-8.4609
anc	-8.46367
heyanma	-8.46478
heba	-8.46566
▁Hune	-8.47771
ayon	-8.48406
▁chin	-8.4878
▁ah	-8.48818
ba	-8.4955
▁janma	-8.49678
▁Yalnipaxo	-8.50011
▁ángel	-8.51172
▁A	-8.51436
lo	-8.51496
mam	-8.52049
▁Jerusalén	-8.52543
ablo	-8.52998
inan	-8.5415
▁xahan	-8.543
▁C	-8.54422
yilal	-8.55099
▁anmahil	-8.55627
aypaxo	-8.55739
apni	-8.56136
yapni	-8.56175
▁oc	-8.5624
oji	-8.57101
ixim	-8.57162
▁chiswatx	-8.57335
texol	-8.57592
yelapno	-8.57644
yilni	-8.57664
xan	-8.57724
chiwalan	-8.58
▁babel	-8.58034
hanic	-8.58422
▁ismunil	-8.59218
▁isnimanil	-8.59736
wa	-8.59904
sata	-8.59996
▁tiempo	-8.60599
▁to	-8.61182
pax	-8.61747
▁yechel	-8.61937
chitan	-8.61941
▁macta	-8.62057
▁heyu	-8.62789
matzet	-8.63037
le	-8.63108
espíritu	-8.63137
t	-8.63431
isto	-8.63448
yehi	-8.63499
▁Yu	-8.63668
▁isnabal	-8.63999
▁Cristo	-8.64118
h	-8.64372
Ha	-8.64473
maca	-8.64608
▁;	-8.64636
▁Hanin	-8.64923
▁xil	-8.65056
▁tawet	-8.65289
▁maẍt	-8.65441
▁isti	-8.6549
▁yec	-8.65846
▁sacerdote	-8.66007
ehal	-8.6631
▁hunelxa	-8.6662
Mamin	-8.66631
▁yel	-8.66803
ista	-8.67029
▁hach	-8.67465
u	-8.67632
▁wa	-8.67752
▁lahan	-8.67783
▁Yum	-8.6879
▁inc	-8.69481
Caw	-8.69511
▁yahaw	-8.69531
mi	-8.69541
▁cheyute	-8.69774
▁Hex	-8.69801
maẍto	-8.69864
ebilcano	-8.7011
yahawil	-8.70373
iscuywom	-8.70611
sunilbal	-8.70636
▁chiyu	-8.71155
Tom	-8.71504
▁yuninal	-8.7177
▁rey	-8.71825
aban	-8.72159
▁wuhan	-8.72597
yaben	-8.73899
aybal	-8.73932
ilo	-8.74564
▁chito	-8.74743
▁Isc	-8.75033
hanin	-8.75169
▁chiyij	-8.75558
hunun	-8.756
▁chiwa	-8.76104
▁isyelal	-8.76611
▁maẍtaj	-8.77162
▁Jahawil	-8.77223
icham	-8.77306
isbi	-8.77734
ˈ?	-8.7826
▁Inmaman	-8.78837
▁ja	-8.7912
hach	-8.79622
ma	-8.79774
win	-8.80452
▁Sunil	-8.80541
walxinto	-8.80698
wan	-8.80744
cuybanile	-8.80768
wetan	-8.81284
istz	-8.81321
matzwalil	-8.81537
▁camical	-8.81644
▁camom	-8.81652
juẍta	-8.8175
▁chioc	-8.82177
teyin	-8.82308
choche	-8.82835
edro	-8.82906
▁payat	-8.83137
▁che	-8.83306
▁howal	-8.83594
hec	-8.83725
om	-8.84513
▁chala	-8.84648
yebpaxo	-8.84657
▁ismam	-8.84989
▁chalni	-8.85114
hantan	-8.85249
▁ley	-8.85305
yinta	-8.85765
▁winaj	-8.86174
▁ẍiayoj	-8.86228
tocanoj	-8.86353
nipaxo	-8.87202
inalo	-8.87228
obal	-8.87428
▁ma	-8.87713
chin	-8.87751
ayo	-8.87804
oisés	-8.88105
elo	-8.88327
ismajul	-8.88362
▁n	-8.88376
bilintijan	-8.88518
jet	-8.88942
ulan	-8.89148
▁colbanile	-8.89353
eb	-8.90049
▁Mach	-8.90983
itz	-8.91056
chia	-8.91233
▁chihul	-8.92182
▁el	-8.92382
ehan	-8.92854
▁coc	-8.93076
▁cuywawom	-8.93147
ismul	-8.93258
xahan	-8.94632
K	-8.94904
▁chiec	-8.9551
▁cheyil	-8.95581
juan	-8.9669
▁ishowal	-8.96859
ja	-8.96873
yalnipaxo	-8.97243
▁wanab	-8.97815
jin	-8.97824
▁istzotel	-8.97999
yeli	-8.98031
▁chute	-8.98218
▁coba	-8.98228
ohtan	-8.98353
▁Abraham	-8.98494
▁fariseo	-8.98583
▁tiempohal	-8.98758
▁lahwi	-8.99655
paxoj	-8.99975
▁wanmahan	-9.00357
▁apni	-9.00567
▁cheya	-9.00828
santo	-9.01594
yel	-9.01767
potx	-9.01858
▁barco	-9.02166
▁wuẍtaj	-9.02449
▁chex	-9.02456
ano	-9.02603
▁!	-9.0281
ayto	-9.02823
▁hunuxa	-9.02896
ech	-9.0296
▁xa	-9.03144
▁nan	-9.03314
▁chaco	-9.03366
masanto	-9.03581
▁preso	-9.03998
am	-9.04168
yohtan	-9.04278
▁yoj	-9.04473
▁chitit	-9.04791
▁Na	-9.04813
yec	-9.05165
cablahon	-9.05592
l	-9.05709
na	-9.05727
▁Tzot	-9.06163
▁yeco	-9.06281
andiosal	-9.07796
▁ismi	-9.07824
▁camo	-9.08192
lahan	-9.08378
babel	-9.09363
Wal	-9.09446
▁yah	-9.09676
yayto	-9.09765
ángel	-9.09949
aycano	-9.10075
cawan	-9.10114
aco	-9.10179
▁lin	-9.10416
▁chic	-9.1066
▁heyalni	-9.10681
xil	-9.11099
janma	-9.11281
▁T	-9.11702
▁culus	-9.11829
tiempo	-9.1217
balto	-9.13117
▁chico	-9.13746
ib	-9.13749
▁me	-9.13981
anico	-9.14037
▁munil	-9.14122
chiswatx	-9.14148
▁hunxa	-9.14343
chiwa	-9.14352
anmahil	-9.1442
maẍt	-9.14451
inc	-9.14778
▁Ya	-9.1527
Mac	-9.15452
yechel	-9.15641
▁lek	-9.15663
▁t	-9.16115
ismunil	-9.16197
macta	-9.16654
▁chul	-9.17665
▁conimanil	-9.17921
▁chihalni	-9.17932
▁yay	-9.18235
maẍtaj	-9.18513
isnimanil	-9.18535
canoj	-9.18975
ebil	-9.19006
▁yi	-9.19108
▁heya	-9.19412
as	-9.19776
▁istoholal	-9.20187
▁juẍtaj	-9.20482
Mach	-9.20662
em	-9.20944
sacerdote	-9.2097
▁chischah	-9.21009
▁unin	-9.21271
heyu	-9.21337
yinito	-9.21507
anni	-9.21834
erusalén	-9.22001
▁ip	-9.22353
▁bis	-9.22612
▁quin	-9.22752
isnabal	-9.22804
w	-9.22973
yahaw	-9.2335
▁yute	-9.23534
▁ayex	-9.23637
▁―¡	-9.23745
yocto	-9.23938
tawet	-9.24114
▁tzalahilal	-9.24117
huneln	-9.24134
isti	-9.24327
▁jichmam	-9.24535
hunelxa	-9.24795
▁yixal	-9.25684
yuninal	-9.25704
ico	-9.25767
hiq	-9.25772
▁Israeloj	-9.25941
ayilo	-9.26011
▁haba	-9.26373
▁hun	-9.26499
▁soldado	-9.26842
ulo	-9.26926
wuhan	-9.27182
▁chisje	-9.2729
cristo	-9.27328
▁haxa	-9.27424
inale	-9.27695
r	-9.27714
ley	-9.27856
▁ayicto	-9.28195
sa	-9.28199
cheyute	-9.28587
rey	-9.28592
▁niẍte	-9.29199
▁beh	-9.29206
uil	-9.29535
Ta	-9.29555
▁Yoc	-9.29638
machoj	-9.30054
chalni	-9.30132
d	-9.30797
howal	-9.3122
ayc	-9.31631
▁inti	-9.31696
chiyu	-9.31748
g	-9.32215
quex	-9.32551
alomal	-9.33066
▁istiempohal	-9.33299
jetan	-9.33319
anto	-9.3369
▁Chi	-9.33714
▁Waxa	-9.33774
yah	-9.34013
wuẍtaj	-9.34081
etojan	-9.34171
▁Galilea	-9.34249
jahawil	-9.34299
chito	-9.34397
▁machojab	-9.35138
isyelal	-9.35326
cuywawom	-9.35401
▁María	-9.35562
▁cam	-9.35625
ismam	-9.36204
at	-9.36665
▁xahanbalil	-9.36668
chiyij	-9.36985
ambe	-9.37034
ban	-9.37132
camom	-9.37245
▁yuch	-9.37459
ahan	-9.37629
▁inbahan	-9.37929
▁ishelanil	-9.37929
▁mule	-9.37931
eni	-9.38162
▁Simón	-9.38236
yum	-9.38378
▁yaw	-9.38826
inmaman	-9.3905
apno	-9.39083
etaj	-9.39231
cobahan	-9.39557
Mam	-9.39591
▁David	-9.39601
nihan	-9.39652
▁wet	-9.39749
camical	-9.40409
che	-9.40552
▁tzujno	-9.40568
lin	-9.40744
▁tawin	-9.40814
jiban	-9.40995
▁yaco	-9.41074
nimeta	-9.41399
▁ispaj	-9.41895
▁janab	-9.41917
payat	-9.41972
yo	-9.42011
▁hanin	-9.42079
ach	-9.42174
▁sic	-9.42852
chioc	-9.42856
ayayto	-9.4287
me	-9.43655
▁pan	-9.43709
chala	-9.43759
▁Herodes	-9.43814
▁Machi	-9.43972
yinilo	-9.44536
hununon	-9.44566
▁nino	-9.44814
▁chiapni	-9.45023
ho	-9.4506
ẍiayoj	-9.45069
cam	-9.45084
▁chiwochehan	-9.45157
ejholo	-9.45251
juhan	-9.45573
haywan	-9.45987
▁ixnam	-9.46069
▁wehan	-9.46071
hunxan	-9.46175
▁walnihan	-9.46464
anayo	-9.46581
▁Pilato	-9.46722
cheyil	-9.46751
▁chiwal	-9.47137
▁mar	-9.47264
aycan	-9.47292
Hex	-9.47401
Machoj	-9.47432
▁yulaj	-9.47479
▁wintajan	-9.47493
▁chejbanile	-9.47556
machojab	-9.47914
C	-9.48037
colbanile	-9.48253
wej	-9.48844
▁xewilal	-9.48936
▁cheyaco	-9.49069
heyanico	-9.49086
winaj	-9.49094
▁tzujan	-9.49094
▁chitzala	-9.49674
▁huno	-9.49898
chihul	-9.50205
▁jilni	-9.50247
chiitzitzbican	-9.50432
hacpax	-9.50726
sic	-9.5092
▁mil	-9.51104
▁yijem	-9.51125
▁melyu	-9.51296
elico	-9.5222
chex	-9.52493
ip	-9.52844
yoj	-9.52851
tiempohal	-9.53079
▁chil	-9.5312
▁nahat	-9.53298
cancano	-9.53524
chiec	-9.5355
▁Han	-9.53572
lah	-9.53586
chico	-9.53773
▁Hunt	-9.53821
camo	-9.5413
▁lah	-9.54265
coc	-9.54367
umal	-9.54468
wanab	-9.54504
lek	-9.55063
yi	-9.55169
yipo	-9.55196
cheya	-9.55584
ishowal	-9.55746
ui	-9.55807
teyiban	-9.5587
▁cheyala	-9.55927
maẍn	-9.55995
chute	-9.56083
hun	-9.56312
▁Eb	-9.56337
▁chielico	-9.56425
istzotel	-9.56429
▁hununex	-9.56487
▁ismay	-9.56492
heya	-9.56713
iscapilla	-9.56897
fariseo	-9.57448
coba	-9.57601
iloj	-9.57657
▁hawu	-9.57709
▁hawanma	-9.58069
▁hanta	-9.58219
▁yetxa	-9.58873
▁heyet	-9.58984
wanmahan	-9.59225
▁chip	-9.59731
▁iscam	-9.59947
▁chiya	-9.60173
chitit	-9.6018
yay	-9.60269
alom	-9.60342
beh	-9.60595
▁habil	-9.6063
barco	-9.60967
Yin	-9.61064
tojan	-9.61136
paxojan	-9.61261
▁ac	-9.61364
▁halni	-9.61414
▁yichico	-9.61419
anch	-9.61443
quin	-9.61495
▁isn	-9.61642
hunuxa	-9.61772
chaco	-9.62463
▁yelapnoj	-9.62597
▁ayc	-9.62829
Ay	-9.62863
preso	-9.62874
cachann	-9.62943
▁trigo	-9.62967
munil	-9.63035
q	-9.63057
ayojab	-9.63558
▁cheyal	-9.63569
yilaxto	-9.63586
tzalahilal	-9.63802
inti	-9.63884
y	-9.64249
▁José	-9.64439
▁Roma	-9.64439
heyalni	-9.64541
wican	-9.64844
▁isbeybal	-9.6487
▁yabe	-9.65071
yeco	-9.65201
iscon	-9.65303
wiban	-9.65741
▁ischuquil	-9.66173
▁istohol	-9.66189
▁Judea	-9.66216
▁yunin	-9.66376
▁ba	-9.6674
ismi	-9.66759
chic	-9.66918
chul	-9.6695
▁wohtajan	-9.67116
▁issaj	-9.67158
culus	-9.6734
▁tit	-9.67409
braham	-9.68006
ac	-9.68112
▁quexchi	-9.68171
▁Y	-9.68278
ajan	-9.68405
▁carta	-9.68571
▁coxol	-9.68782
hacojab	-9.68945
▁hawalni	-9.69069
janico	-9.69365
itzitzbican	-9.69462
▁yijni	-9.69626
▁Ch	-9.69657
▁titna	-9.69792
yute	-9.69822
nan	-9.70133
enilo	-9.70574
▁quex	-9.7078
▁yoche	-9.70977
johtan	-9.71345
yaco	-9.71464
▁chisyije	-9.71612
▁chitz	-9.71617
encano	-9.71674
▁yetbi	-9.7202
heyohtan	-9.72311
atil	-9.72617
eintijan	-9.727
▁chislo	-9.72797
▁yohta	-9.73075
▁ayayo	-9.73351
▁comul	-9.73552
imón	-9.73662
ulla	-9.73812
ayex	-9.74152
haba	-9.74282
▁je	-9.74326
hunxa	-9.74751
▁yalno	-9.7485
taxca	-9.74996
▁machoj	-9.75002
chisje	-9.75304
bilxa	-9.75307
▁jahno	-9.75415
▁henabal	-9.75428
unin	-9.7561
tit	-9.75721
▁ju	-9.75993
▁hunel	-9.76174
toxan	-9.76374
▁islahobal	-9.76746
conimanil	-9.76828
chihalni	-9.76849
ilni	-9.76898
ayoco	-9.76998
▁L	-9.77002
janmahan	-9.7711
anex	-9.77444
▁Machojab	-9.77681
eloj	-9.77727
oya	-9.77824
▁ayxa	-9.77837
mar	-9.77873
xaco	-9.77911
istoholal	-9.77972
▁halbilcano	-9.78008
txon	-9.78327
▁iscab	-9.78653
yanayto	-9.78723
▁majan	-9.78869
▁chejab	-9.79047
chischah	-9.7928
juẍtaj	-9.79393
occano	-9.79567
▁chitzotel	-9.79697
▁chihallax	-9.80223
▁ischahni	-9.80556
yabe	-9.80617
yaw	-9.8102
tzujan	-9.81201
yichico	-9.81522
ichico	-9.81618
Hach	-9.81673
umel	-9.81729
▁yala	-9.82126
taj	-9.82255
eho	-9.82471
▁chiyal	-9.8257
lahon	-9.82724
ishitzico	-9.82976
▁yabil	-9.83041
▁ischejbanil	-9.83324
▁E	-9.83404
jichmam	-9.83459
▁Yeb	-9.83557
▁hujeb	-9.83624
ispaxto	-9.84071
▁selel	-9.84136
▁hum	-9.84428
▁haninan	-9.84468
yixal	-9.84528
▁yichamil	-9.84881
chicuywi	-9.85063
yanayo	-9.854
uxan	-9.8542
▁witz	-9.85565
um	-9.8558
soldado	-9.85703
f	-9.85985
▁Bernabé	-9.85985
▁isyijen	-9.85986
melyu	-9.86357
▁yila	-9.86664
nicano	-9.86715
elax	-9.86905
yoccano	-9.87165
▁isch	-9.87229
ocnico	-9.87332
wabenan	-9.87334
▁wipan	-9.87504
ayicto	-9.87607
▁man	-9.8778
▁abxubal	-9.87988
▁hesat	-9.8812
niẍte	-9.88137
▁tzotelo	-9.88269
▁Jacobo	-9.88297
wocan	-9.88313
▁cosunil	-9.88354
▁chaẍ	-9.88692
▁heyehi	-9.88734
yayilo	-9.8884
toj	-9.88986
▁ispi	-9.89773
▁cay	-9.90207
canojan	-9.90378
▁machiswalil	-9.90923
▁johtaj	-9.91067
wet	-9.91137
▁chicam	-9.91536
▁chabe	-9.91637
mil	-9.91669
▁Yul	-9.91707
chiwochehan	-9.91847
▁iscamical	-9.9192
bilcano	-9.92012
▁cheyabe	-9.92035
▁Israelo	-9.92148
ena	-9.92399
▁sa	-9.92565
▁Sa	-9.92578
▁Felipe	-9.92767
▁Judas	-9.92767
▁Saulo	-9.92777
▁Yespíritu	-9.92791
aweco	-9.92896
▁isyenilo	-9.92952
istiempohal	-9.93053
balil	-9.93156
ahto	-9.93624
yuch	-9.93625
chianico	-9.93729
▁jehi	-9.94141
▁chicolwa	-9.94175
hal	-9.94223
▁chiocnico	-9.94235
▁ispotx	-9.94305
hujwan	-9.94826
yanito	-9.94916
lebil	-9.95292
▁mulum	-9.95299
▁chiay	-9.9536
jehan	-9.95406
▁Yebpaxo	-9.95431
▁yintaj	-9.9558
xahanbalil	-9.95643
▁Yal	-9.96155
▁ist	-9.96408
ocan	-9.96475
▁chija	-9.9671
walnihan	-9.96828
inbahan	-9.96891
ishelanil	-9.96907
mule	-9.97369
im	-9.97392
aría	-9.97574
chiyijen	-9.97857
T	-9.98002
len	-9.98045
▁chiel	-9.9806
▁itzitz	-9.98171
▁chicawxi	-9.98223
▁Walex	-9.9823
enan	-9.98638
▁payxa	-9.98994
▁xahanbal	-9.99221
iln	-9.99275
masanta	-9.99317
▁saj	-9.99321
ux	-9.99337
tzujno	-9.99538
▁yuẍta	-9.99543
chiapni	-9.99768
cheyayto	-9.99851
uh	-9.99887
tawin	-9.99903
?”	-9.99956
apax	-10.0004
ato	-10.0019
▁wilnihan	-10.0032
chejab	-10.0056
▁chawa	-10.0066
pan	-10.0066
paxto	-10.0069
ispaj	-10.0097
janab	-10.0107
▁isyeni	-10.0112
▁lago	-10.0124
istzabnico	-10.0131
▁ayto	-10.0131
▁tzalaho	-10.0135
▁chintohan	-10.0142
▁circuncisión	-10.0149
hawu	-10.0161
▁helan	-10.0164
▁Mac	-10.0197
bi	-10.0224
▁chawil	-10.0226
▁Chiwal	-10.0233
yoche	-10.0252
itzitzbocan	-10.0259
unub	-10.026
xahanbal	-10.0265
utz	-10.0289
ispotx	-10.0291
yulajla	-10.0298
▁chexoc	-10.034
chiwal	-10.0345
▁istit	-10.0349
li	-10.0369
▁nabil	-10.0386
haninan	-10.0387
▁ewan	-10.0387
alilea	-10.0389
▁heyoc	-10.04
▁cawxo	-10.0404
▁cheyoche	-10.0406
▁iscawilal	-10.0413
chil	-10.0419
▁oxeb	-10.0419
ixnam	-10.0506
wehan	-10.0547
asi	-10.0552
cheyala	-10.0578
▁subchaho	-10.0612
jilni	-10.0625
wintajan	-10.0648
▁“¿	-10.0654
chitecha	-10.0654
▁islo	-10.0668
yulaj	-10.0669
nino	-10.0669
lobal	-10.069
won	-10.069
un	-10.0695
chitxumchalo	-10.0715
yelapnoj	-10.0716
hanta	-10.0719
wohtajan	-10.0725
wanoj	-10.0734
Hune	-10.0743
chejbanile	-10.0763
▁Pascua	-10.0789
▁Xol	-10.0789
▁Egipto	-10.0789
▁isma	-10.079
xewilal	-10.0793
▁isye	-10.0805
▁ayinan	-10.0809
cheyaco	-10.0814
macn	-10.0819
▁chijil	-10.0859
▁chawal	-10.0864
▁yich	-10.0865
▁No	-10.0871
▁ilwebal	-10.0889
▁chichahni	-10.0893
man	-10.0895
▁chalilo	-10.0901
▁heye	-10.0902
chitzala	-10.0913
avid	-10.0926
yijem	-10.0928
ilaxto	-10.0941
ischahni	-10.0942
Hanin	-10.0964
ahi	-10.1017
▁Isto	-10.1026
halni	-10.1028
yila	-10.1037
ˈ!	-10.1078
ape	-10.1087
▁ischejabo	-10.109
▁chixiw	-10.1104
▁meẍa	-10.1106
huno	-10.1108
▁chimunla	-10.1119
iscancano	-10.1145
▁isbel	-10.1154
▁yángel	-10.1158
jacob	-10.1206
nabn	-10.1213
yulbal	-10.1215
habil	-10.1222
yichamil	-10.1253
nahat	-10.1256
▁wu	-10.1283
▁mato	-10.1288
yalno	-10.1296
▁can	-10.1303
tzen	-10.132
paxico	-10.1321
alaxico	-10.1334
erodes	-10.1348
▁tioẍ	-10.1356
yetbi	-10.1362
Ho	-10.1381
▁naba	-10.1381
▁desierto	-10.1433
▁ayexxaco	-10.1434
▁chawute	-10.1435
▁istxahli	-10.1438
hawalni	-10.1447
▁yelti	-10.1454
▁pulta	-10.1493
mame	-10.1508
▁munlawom	-10.151
▁H	-10.1514
wom	-10.1524
▁hesunil	-10.1533
▁yalnicano	-10.1539
chielico	-10.1546
hununex	-10.1551
ismay	-10.1552
carta	-10.1587
▁chilahwi	-10.1609
cheyal	-10.1616
chip	-10.1639
pila	-10.1643
hum	-10.1672
hawanma	-10.171
▁cutxanico	-10.1716
▁hemul	-10.1717
anab	-10.1718
laxi	-10.1733
▁hawa	-10.1757
ayahto	-10.1758
▁yeto	-10.1762
▁yil	-10.1773
▁baytet	-10.1776
uilo	-10.1784
▁hul	-10.179
▁chawala	-10.1795
▁oro	-10.1796
▁hewi	-10.1797
▁Matxa	-10.1809
▁machim	-10.1817
chiya	-10.1818
ayayo	-10.1822
▁comon	-10.1847
yetxa	-10.1867
▁yilalo	-10.1873
heyet	-10.188
yala	-10.1883
lena	-10.1892
meẍa	-10.1897
baytet	-10.1907
▁hawet	-10.1927
▁chintz	-10.1928
axep	-10.1932
ju	-10.1934
oxwan	-10.1941
mujan	-10.1942
ulojab	-10.1959
ixobal	-10.197
hitzico	-10.1975
▁Mame	-10.1978
▁hunujex	-10.2009
▁moyan	-10.2009
▁conabal	-10.2011
machiswalil	-10.2035
yunin	-10.2039
isn	-10.2044
iscam	-10.2051
▁intohan	-10.2068
eto	-10.2088
acti	-10.21
▁vino	-10.2103
▁nu	-10.2118
▁yahawilo	-10.2132
bel	-10.2134
chiocto	-10.2185
trigo	-10.2201
hul	-10.2227
meltzo	-10.223
octo	-10.2239
▁Cocolomal	-10.2243
z	-10.2245
▁Elías	-10.2251
▁chij	-10.2258
▁hata	-10.2279
isyenilo	-10.2298
▁isbisil	-10.2309
alo	-10.2312
coxahann	-10.2321
ilcha	-10.2342
▁chiyute	-10.2363
chawoche	-10.241
yitzitzbican	-10.2416
nico	-10.2428
wilnihan	-10.2439
▁istxumni	-10.2441
aben	-10.2469
yalcano	-10.2471
▁Ma	-10.2508
elicoj	-10.2511
diosal	-10.2531
istohol	-10.2535
isbeybal	-10.2538
ischuquil	-10.2543
selel	-10.2558
lahanex	-10.2586
yalaxico	-10.2587
lolo	-10.2599
▁anciano	-10.2614
israelo	-10.2615
▁ispultahil	-10.262
isma	-10.2629
uxni	-10.2642
▁chach	-10.2646
▁cab	-10.2663
ebilxa	-10.2665
▁yettax	-10.2667
ayxa	-10.2671
chiyal	-10.2687
▁haban	-10.2692
▁mame	-10.2695
walex	-10.2702
issaj	-10.2713
cheyohtan	-10.272
quexchi	-10.2733
▁yan	-10.2734
cuarto	-10.2735
japnihan	-10.2741
yespíritu	-10.2743
titna	-10.2767
▁aya	-10.2823
icojan	-10.2841
▁Cha	-10.2844
yijni	-10.2845
tioẍ	-10.2859
▁xe	-10.2866
tzotel	-10.2871
chayto	-10.2876
wec	-10.2885
ehojab	-10.2885
wu	-10.2888
islahobal	-10.2894
osé	-10.2902
▁Antioquía	-10.2903
tzijxan	-10.2903
nahul	-10.2904
omilo	-10.2909
oco	-10.2917
hamanil	-10.2926
nican	-10.2936
Hacoj	-10.294
▁uva	-10.294
▁insatan	-10.294
▁jahaw	-10.2945
chitz	-10.2947
▁chiaben	-10.2951
alil	-10.2975
▁walnic	-10.2979
▁chaliloj	-10.2985
yohta	-10.299
ojtam	-10.2998
▁cach	-10.3009
▁tzeh	-10.3015
uc	-10.306
yahwano	-10.3077
inito	-10.3082
▁hin	-10.3091
▁wec	-10.3091
▁ichamta	-10.3099
ibcan	-10.3133
chisyije	-10.316
▁howeb	-10.3173
▁hasat	-10.3196
ham	-10.32
▁jalni	-10.3209
je	-10.3227
chislo	-10.3239
ispeto	-10.3244
▁Nazaret	-10.3244
▁Esteban	-10.3244
halbilcano	-10.3261
comul	-10.3265
▁hetxumni	-10.327
▁henimanil	-10.327
▁istxiquin	-10.327
chijalan	-10.3279
hunel	-10.3287
▁tohol	-10.3308
▁caj	-10.3334
xiw	-10.3342
▁ismeltzo	-10.3346
nilto	-10.3356
▁sam	-10.336
▁yayc	-10.3372
aholan	-10.3382
▁joc	-10.3392
Ma	-10.3404
roma	-10.3411
isxahanil	-10.3419
nitam	-10.342
▁tohlabal	-10.3435
abxubal	-10.3451
hujeb	-10.3452
henabal	-10.3453
jahno	-10.3453
coxol	-10.3462
istit	-10.3474
eniloj	-10.3501
iscuyni	-10.3521
chiyeniloj	-10.3531
ahole	-10.3541
▁heyijen	-10.3553
▁hinan	-10.3553
▁Yahawil	-10.3577
tzotelo	-10.3578
bawe	-10.3582
▁chijaco	-10.3596
▁Timoteo	-10.3598
udea	-10.3598
A	-10.3601
▁chiyo	-10.362
tocano	-10.3642
▁coyijen	-10.3646
chitzotel	-10.3683
▁capilla	-10.3685
belwi	-10.3714
yabil	-10.3725
▁chijute	-10.3751
anojab	-10.3754
ist	-10.3767
machipaxo	-10.3782
▁ayach	-10.3795
▁heyohtaj	-10.3811
majan	-10.3847
alaxicto	-10.3872
yije	-10.3919
jalnihan	-10.3923
iscab	-10.393
▁yalnic	-10.3935
▁chis	-10.3939
▁binaho	-10.3951
▁nimanile	-10.3961
isyijen	-10.3968
chijilico	-10.3979
chiyiyo	-10.3997
▁Chal	-10.4003
▁trato	-10.4007
▁camnaxa	-10.4008
▁chinhulan	-10.4009
weco	-10.402
▁chiyoche	-10.4022
alc	-10.4028
▁Maẍtaj	-10.4039
ulmi	-10.4053
▁Mamin	-10.4055
▁camoj	-10.4058
chiilni	-10.4129
laxic	-10.4134
istopaxo	-10.4134
witz	-10.4135
isch	-10.4142
sunilej	-10.4167
chihallax	-10.4183
yil	-10.4184
isyeni	-10.4188
▁chiwaltojan	-10.4208
ancan	-10.4225
▁islah	-10.4241
▁chicolo	-10.4243
ischejbanil	-10.4247
wayan	-10.4254
▁pi	-10.4254
▁Maẍ	-10.4261
▁cuybanil	-10.4266
▁xaj	-10.4288
▁Jacob	-10.4328
▁hawehi	-10.4334
▁chintzalahan	-10.4335
▁wahil	-10.434
▁Macedonia	-10.4346
▁Isaías	-10.4346
▁y	-10.4353
ishajlo	-10.4356
▁yuc	-10.4359
▁haltebilcano	-10.4361
eojab	-10.438
▁yehico	-10.4405
▁Yah	-10.4409
▁yetbiho	-10.4423
▁chijal	-10.4433
hawil	-10.4448
alxa	-10.4468
walpaxo	-10.4474
▁hon	-10.4488
colchahi	-10.4491
▁nime	-10.45
isbejtzo	-10.4518
aj	-10.4528
Na	-10.4546
chijochehan	-10.4587
chianayto	-10.4594
abayo	-10.4602
yalnicano	-10.462
johtaj	-10.4633
ayinan	-10.465
tohol	-10.4662
▁chisc	-10.4664
▁yohtajo	-10.4665
ilwe	-10.4666
ispi	-10.4674
chabe	-10.4675
wipan	-10.4676
beyc	-10.4679
bitn	-10.4685
ayn	-10.4709
▁comandante	-10.4714
▁ixahaw	-10.4714
▁insatajan	-10.4714
xacon	-10.4715
▁iscuyni	-10.4716
paxocan	-10.4722
walan	-10.4722
▁cabeb	-10.4734
hesat	-10.4739
▁Yapni	-10.4747
▁etza	-10.4756
▁isbejnicano	-10.4758
▁capitán	-10.4758
▁cheyije	-10.4761
▁hechahni	-10.4799
chicawxi	-10.4813
chiyaco	-10.4826
hawa	-10.4842
▁chican	-10.4856
munlahan	-10.4872
▁xaya	-10.4878
▁cochahni	-10.488
▁yallax	-10.4885
cawxo	-10.4886
▁heyilni	-10.4888
heyehi	-10.4897
udas	-10.4946
▁hawoc	-10.4951
▁anican	-10.4951
iscutxbanico	-10.4962
cotohan	-10.4972
mato	-10.4972
▁awtebil	-10.4976
wo	-10.4981
▁nananta	-10.4986
tze	-10.4998
hexahann	-10.5001
yocpaxo	-10.5002
heyohtaj	-10.5006
awi	-10.501
chawaco	-10.5015
laxo	-10.5023
▁iscuywa	-10.5028
heye	-10.503
▁chijala	-10.5032
▁Tz	-10.5033
munlawom	-10.5096
▁gobernador	-10.5099
chicam	-10.5111
▁chinapnihan	-10.5111
▁chiwalcanojan	-10.5112
chiwaltojan	-10.5116
iscamical	-10.5116
▁isnu	-10.5117
ewe	-10.5118
▁ayinicojan	-10.5119
▁toxa	-10.5126
helan	-10.5136
▁hunix	-10.5137
colwahan	-10.5149
aymi	-10.515
▁Samaria	-10.5154
▁Lázaro	-10.5155
▁iscuyu	-10.5157
Asi	-10.5157
eq	-10.5158
cosunil	-10.5179
▁wacax	-10.5193
chawil	-10.5221
tzettaxca	-10.5227
noj	-10.527
cheyabe	-10.5275
▁nanxa	-10.5283
tohlabal	-10.5285
naba	-10.5295
ixwi	-10.5306
acan	-10.5314
jehi	-10.5333
iscawilal	-10.5335
circuncisión	-10.5337
chicolwa	-10.5338
payxa	-10.534
yecheln	-10.5344
chiocnico	-10.5344
▁heyila	-10.5348
isye	-10.5359
yawten	-10.5363
ambeno	-10.5378
chija	-10.5381
▁Hach	-10.5389
nipaxojan	-10.5391
iscolni	-10.5407
chiay	-10.5413
ulalo	-10.5413
Yet	-10.5415
chilahwi	-10.542
hato	-10.5428
chintz	-10.5431
▁iscolwa	-10.5431
ibo	-10.5456
yintaj	-10.5482
▁quinchiyan	-10.5523
ecano	-10.5523
▁selelo	-10.5541
▁cosat	-10.5543
oxeb	-10.5547
nojan	-10.5559
mulum	-10.5561
▁chilo	-10.5564
▁ayexico	-10.5567
▁yox	-10.5567
cheyoche	-10.5573
vino	-10.5574
▁Xa	-10.558
▁xu	-10.5585
ernabé	-10.5585
▁Silas	-10.5585
elipe	-10.5585
nann	-10.5598
▁xiw	-10.5604
▁yahcano	-10.5638
▁iswa	-10.5639
▁heyohtajo	-10.5656
nu	-10.5657
ilojan	-10.5669
istxumni	-10.5679
munla	-10.5714
tzalaho	-10.5716
oro	-10.5759
laxcano	-10.5778
ehayo	-10.5803
chicuyni	-10.5807
pulta	-10.5808
sahab	-10.5808
uy	-10.5811
chintohan	-10.5818
hawabe	-10.5818
chiel	-10.5829
chalniloj	-10.5847
cach	-10.5859
saj	-10.5865
yijnicano	-10.59
chinocan	-10.5904
ebilcanoj	-10.5912
yan	-10.5916
paxilo	-10.5927
▁yalte	-10.5946
▁chichiwa	-10.5946
▁wohtajojan	-10.5953
▁Inmam	-10.5956
chawal	-10.5987
▁istzoteli	-10.6017
yuẍta	-10.6019
itzitz	-10.6024
chexoc	-10.6033
▁Efeso	-10.6034
heyoc	-10.6036
▁Asia	-10.6039
istzabnayo	-10.6044
lago	-10.6047
chawa	-10.6058
▁ista	-10.6093
txumchalo	-10.6132
▁chejn	-10.6132
elti	-10.6146
Ah	-10.6158
colwa	-10.6162
camoj	-10.6179
islin	-10.6205
ilchalo	-10.622
▁ayojab	-10.6239
▁yuninalo	-10.6246
▁hayeb	-10.6251
canilo	-10.6285
Sunil	-10.63
▁cheyila	-10.6315
acojan	-10.6319
hata	-10.6358
▁nohna	-10.6365
ajo	-10.6376
▁chijoche	-10.6383
nabil	-10.6397
▁iscawxican	-10.6401
▁lemna	-10.6402
▁buchwal	-10.6402
▁istrato	-10.6404
▁yen	-10.6405
▁chicochah	-10.6405
cami	-10.6414
▁chechah	-10.642
aytoj	-10.6422
▁heyohtaxa	-10.6426
▁chicami	-10.6437
hin	-10.6446
▁Halwe	-10.6462
isyelo	-10.6485
▁yuẍtaj	-10.6486
bilo	-10.6494
axpon	-10.6503
▁Tzujan	-10.6505
▁Isaac	-10.6505
camnajilo	-10.6505
▁Cesarea	-10.6506
▁Wilni	-10.6506
▁Lahan	-10.6507
intohan	-10.6527
ebxa	-10.6531
subchaho	-10.6537
maquex	-10.654
xico	-10.6543
ajna	-10.6555
nilo	-10.6564
atz	-10.6565
▁ẍicano	-10.6573
ub	-10.6578
ewan	-10.6595
chiwacojan	-10.6596
tzala	-10.6612
▁uc	-10.6616
ambenpaxo	-10.6617
xolaj	-10.6619
uloj	-10.665
▁walan	-10.6651
wacojan	-10.6662
▁yo	-10.6672
yahawilo	-10.6674
▁jec	-10.6679
iscawan	-10.6683
johtajan	-10.6691
ebilico	-10.6697
ixtan	-10.6718
chahni	-10.6742
tzalahan	-10.6752
ispa	-10.6754
▁chicancano	-10.6764
▁chitxumcha	-10.6766
capil	-10.6776
▁yij	-10.6785
halwe	-10.6786
▁isyije	-10.6792
annihan	-10.6807
chichahni	-10.6821
ilwebal	-10.6824
yich	-10.6825
islo	-10.683
chalilo	-10.6837
ochen	-10.6848
▁inmulan	-10.6873
▁itah	-10.6873
▁vaso	-10.6875
▁tawintaj	-10.6875
ischejnito	-10.6883
inaloj	-10.6889
▁chiwabehan	-10.6894
▁yohtaxa	-10.6896
▁istxam	-10.6899
▁chiwilan	-10.6901
▁quexwil	-10.6902
heyila	-10.6911
▁yitz	-10.6912
chahnicano	-10.6918
Chim	-10.6921
tijan	-10.6922
Wa	-10.693
wilan	-10.6932
nito	-10.6933
isbej	-10.6962
cay	-10.6965
way	-10.6971
▁wah	-10.6978
lom	-10.6985
cuarenta	-10.7004
ahni	-10.7009
ischejabo	-10.7022
enico	-10.7033
▁hawi	-10.7042
chixiw	-10.7058
▁tac	-10.7074
▁yawten	-10.708
isbel	-10.7086
yángel	-10.7089
chimunla	-10.709
▁W	-10.7107
sam	-10.7128
hon	-10.7175
hesunil	-10.7189
▁aycan	-10.7196
▁heyabe	-10.7203
▁yebi	-10.7236
opo	-10.7251
nimajal	-10.7255
sábana	-10.7255
ishel	-10.7263
▁way	-10.7264
bililo	-10.7266
▁hallax	-10.7267
▁intz	-10.7275
iswayan	-10.7299
omal	-10.7303
▁I	-10.7341
ew	-10.7343
yettax	-10.7363
etza	-10.7363
desierto	-10.7364
ayexxaco	-10.7365
howeb	-10.7365
chawute	-10.7365
istxahli	-10.7371
▁hawip	-10.7373
▁ciento	-10.7379
▁yichmam	-10.7392
hechahni	-10.7397
▁chiah	-10.7403
▁echmabil	-10.7405
yalpaxo	-10.7408
▁isbey	-10.7408
eti	-10.7425
▁issayni	-10.7445
chijil	-10.7456
machim	-10.7462
▁babelal	-10.7463
▁how	-10.7471
elan	-10.7478
▁laba	-10.7483
isman	-10.7483
hawet	-10.7486
▁hecawil	-10.7486
islah	-10.7488
▁colwal	-10.7491
yelti	-10.7491
eno	-10.7496
▁In	-10.7502
▁Be	-10.7515
▁Zacarías	-10.7518
▁Capernaum	-10.7519
itzitzon	-10.7527
▁Chin	-10.7584
capilla	-10.7632
hemul	-10.7649
cutxanico	-10.765
▁cheyu	-10.7676
hewi	-10.7745
chawala	-10.7745
ajano	-10.7752
tohan	-10.776
ut	-10.7762
gipto	-10.7788
ascua	-10.7788
chejbanil	-10.78
elto	-10.7805
ocpaxo	-10.7812
▁yeh	-10.7816
yilalo	-10.7818
isnaniti	-10.7824
anwe	-10.7828
▁chiwute	-10.7853
yanipaxico	-10.7855
▁heyip	-10.7858
▁heyaben	-10.7872
▁yinican	-10.7876
▁griego	-10.7887
▁saduceo	-10.7887
▁xiwquilal	-10.7887
▁ismachiswalilal	-10.7887
▁romano	-10.7887
▁espada	-10.7887
▁mohyilal	-10.7888
▁yehobal	-10.7888
▁issajbilo	-10.7889
▁chexxiwi	-10.7895
▁ayinic	-10.7895
hacojtam	-10.7907
iscol	-10.7911
▁iscami	-10.7916
▁yictabal	-10.792
walnic	-10.7939
hunujex	-10.7943
moyan	-10.7943
conabal	-10.7946
▁isnani	-10.7946
▁aldea	-10.7948
wah	-10.7948
▁yilno	-10.7948
wuten	-10.7953
istxum	-10.7981
elcanico	-10.7984
chiyute	-10.7986
Yaj	-10.7989
wepaxo	-10.8006
▁chisye	-10.8007
▁mayu	-10.8022
ahti	-10.803
▁Festo	-10.8066
ijbalom	-10.8066
▁Leví	-10.8067
▁iscan	-10.8067
istecha	-10.8067
beybale	-10.8086
anabi	-10.8102
yayc	-10.8106
heyijen	-10.8108
▁ischejni	-10.8121
heyayto	-10.8125
Chi	-10.8126
▁Tx	-10.813
▁yalten	-10.8137
ahil	-10.8152
icoj	-10.8164
▁M	-10.8194
▁masan	-10.8198
chilni	-10.8203
ishunba	-10.8211
comon	-10.8228
yetbiho	-10.8243
isbisil	-10.8246
▁alaxcan	-10.8246
ayoj	-10.825
nimej	-10.8297
ilwal	-10.8298
xam	-10.8322
heyanayto	-10.8347
▁cheh	-10.8354
▁chiway	-10.8355
yalnic	-10.8356
ten	-10.8359
▁chicabcon	-10.8369
cab	-10.8387
▁wala	-10.8405
yelilo	-10.8407
▁jila	-10.8414
awten	-10.8418
▁ham	-10.842
yito	-10.8425
xinto	-10.8427
▁cadena	-10.8435
▁querubín	-10.8435
▁txitam	-10.8435
▁inchejaban	-10.8435
▁inmunilan	-10.8435
chach	-10.8438
▁ismelyu	-10.8442
hatx	-10.8442
heyohtajo	-10.8449
yawtenti	-10.8458
▁yicta	-10.847
▁chibe	-10.8474
▁tec	-10.8486
▁chiahilo	-10.85
siq	-10.8501
yahawiloj	-10.8509
tzabni	-10.8521
yinayo	-10.8528
yeto	-10.8528
jahaw	-10.8531
▁ishajni	-10.8543
balo	-10.8546
anciano	-10.8558
ispultahil	-10.8558
chij	-10.8565
chaliloj	-10.8591
haban	-10.86
tajo	-10.8604
ojon	-10.8613
jalni	-10.8643
▁Ix	-10.8646
▁Melquisedec	-10.8646
chejn	-10.868
▁chelo	-10.8686
coyijen	-10.8696
heyilni	-10.8697
caj	-10.8834
anican	-10.8849
trato	-10.8873
mujlax	-10.8874
▁wilan	-10.8875
uva	-10.8877
insatan	-10.8883
chinhulan	-10.8884
camnaxa	-10.8885
▁isbelwi	-10.8891
wacax	-10.8893
chiaben	-10.8894
▁colwa	-10.8897
xaj	-10.8911
ischejni	-10.8918
anno	-10.8942
▁iscawxi	-10.8944
sajhopon	-10.8949
treinta	-10.8949
hunmajanxa	-10.8949
istzilnilo	-10.8949
saywal	-10.8949
istzalanil	-10.895
iswahni	-10.895
chahwe	-10.8951
atna	-10.8955
yanahto	-10.8959
chijaltojan	-10.896
▁hunelo	-10.8963
yehayto	-10.8964
tzenilo	-10.8964
ambehan	-10.8968
jabehan	-10.8984
janayto	-10.8998
chiinilo	-10.8998
chis	-10.901
▁orahil	-10.9015
bilxalo	-10.9019
▁ewantajil	-10.9029
▁chabilxa	-10.9031
▁Yi	-10.9036
▁inbihan	-10.9037
ahilo	-10.9042
▁lahano	-10.9043
ichamta	-10.9052
tetej	-10.9056
▁innimanilan	-10.9057
chiwatojan	-10.906
▁inmunilt	-10.9061
chiyo	-10.9067
xayaco	-10.9081
ayach	-10.9082
▁chuman	-10.9094
▁yechman	-10.9097
▁Mam	-10.9161
▁yuninaloj	-10.9168
chahi	-10.917
alaxcan	-10.9193
ismeltzo	-10.9206
istxiquin	-10.9214
henimanil	-10.9214
hetxumni	-10.9214
hinan	-10.9221
▁istzala	-10.9236
▁yecoj	-10.9251
isxan	-10.9254
cocolomal	-10.9261
▁Damasco	-10.9262
▁Jordán	-10.9262
▁isje	-10.9263
▁Adán	-10.9263
▁Ananías	-10.9263
elías	-10.9264
nime	-10.9274
ento	-10.9284
chiwalpaxojan	-10.9285
tzeh	-10.9304
xawalan	-10.931
issajn	-10.9334
mactaxca	-10.934
hulic	-10.9349
▁walinan	-10.9358
▁yilcha	-10.9363
chebeybaln	-10.9396
jocan	-10.9408
hasat	-10.9413
yawte	-10.9466
▁ilni	-10.9482
awe	-10.9502
▁hato	-10.9519
chijaco	-10.9545
Hac	-10.9545
toxa	-10.9549
capitán	-10.9558
▁hal	-10.9567
bejwecano	-10.9585
txahlan	-10.9587
▁chebej	-10.9591
hoyanico	-10.9596
▁issay	-10.9597
isbejnicano	-10.9601
chiyoche	-10.9602
▁cotxumni	-10.9604
yuc	-10.9621
▁circuncidar	-10.963
▁dragón	-10.963
▁innabalan	-10.963
▁iscolni	-10.9632
▁heyofrenda	-10.9632
▁hetxahli	-10.9634
▁chimohyi	-10.9635
▁chicolchahi	-10.9644
▁hawohtaj	-10.9646
▁wetojan	-10.9646
nicto	-10.9654
yallax	-10.9666
hayeb	-10.9672
▁chisyelo	-10.9676
walinan	-10.9686
jabe	-10.9691
▁tzabno	-10.9704
alto	-10.9716
chijute	-10.9721
▁chati	-10.9755
Han	-10.9775
xiwcan	-10.9815
malto	-10.9819
walnitojan	-10.9829
hallax	-10.983
tajca	-10.9844
utelax	-10.9856
yalte	-10.9868
▁chitx	-10.9886
sabehal	-10.9887
▁isDiosal	-10.9892
binaho	-10.9899
chahlax	-10.9907
wanitojan	-10.991
ntioquía	-10.9915
nimanile	-10.9916
ojex	-10.9916
iscuyu	-10.9917
mohyom	-10.9918
xiwquilta	-10.9918
▁Babilonia	-10.9918
▁Jope	-10.9918
hacuywom	-10.9918
xewbal	-10.9918
xulno	-10.9918
yictajo	-10.9919
axponayo	-10.992
yacanico	-10.9921
wanicojan	-10.9923
uwan	-10.9933
yilaxilo	-10.9934
epaxo	-10.9937
wahi	-10.994
hulan	-10.9942
▁tajca	-10.9944
▁yahto	-10.9945
chinachalo	-10.9952
heyichmam	-10.9953
ixwican	-10.9953
istxumchalo	-10.9961
▁yalnipaxo	-10.9975
mal	-10.9976
najil	-10.9992
ubal	-11.0005
incaman	-11.0007
chisbalico	-11.001
ijbali	-11.001
yahilo	-11.0037
elcan	-11.0046
▁chiyi	-11.005
▁yawte	-11.0051
▁N	-11.0058
chiilchalo	-11.006
abico	-11.0084
chayo	-11.0092
isbejcano	-11.0099
chisbejcano	-11.0104
uba	-11.0108
▁Chalni	-11.0113
▁octo	-11.0123
▁techaho	-11.0127
awtebilon	-11.0131
▁haltebil	-11.0144
▁chexa	-11.016
▁chicoyije	-11.0167
echman	-11.0168
sajxa	-11.0169
cuybanil	-11.0183
wipaxo	-11.0208
▁chucano	-11.0208
etx	-11.0211
▁comunil	-11.0211
selelo	-11.0226
ismeltzoto	-11.0233
▁istxum	-11.0244
▁chisbej	-11.0244
wecano	-11.025
▁?”	-11.0259
steban	-11.0262
azaret	-11.0262
▁chio	-11.0265
chicolo	-11.0271
▁chijabe	-11.0278
▁israelita	-11.0286
▁ixloj	-11.0286
▁ispatrón	-11.0287
hawehi	-11.0287
▁cocolbanil	-11.0288
chintzalahan	-11.0288
▁yillax	-11.0288
cabeb	-11.029
▁hawatut	-11.0294
wahil	-11.0298
yij	-11.0301
▁aycoj	-11.0304
laxayo	-11.0306
istoholban	-11.0306
elaxi	-11.0308
ías	-11.0309
yehico	-11.0311
▁chuhi	-11.0312
aytoco	-11.0313
haltebilcano	-11.0314
▁ismohyi	-11.0314
ayojan	-11.0329
heyil	-11.0335
comono	-11.0337
▁istxah	-11.0358
▁sac	-11.0381
yahcano	-11.0382
xaya	-11.0392
▁hecal	-11.0414
▁ischah	-11.0423
yohtajo	-11.0435
nanxa	-11.044
▁aben	-11.0442
isje	-11.0445
▁hemam	-11.0446
▁sucal	-11.0446
▁yuho	-11.0448
anayto	-11.0451
banil	-11.0453
iscutxba	-11.0457
Haninan	-11.0494
colni	-11.0498
hami	-11.0531
▁yuninalxa	-11.0535
chican	-11.054
▁cheyi	-11.0543
cosat	-11.0562
laxpaxo	-11.0569
txah	-11.0575
enpaxo	-11.058
sunilal	-11.058
colwal	-11.0581
istocano	-11.0586
yebej	-11.0589
munlahi	-11.0598
hebeybaln	-11.0605
▁camojan	-11.0616
moteo	-11.0619
▁Marta	-11.0619
▁Noé	-11.0619
▁Salomón	-11.0619
▁Tito	-11.062
▁Agripa	-11.0621
▁Andrés	-11.0621
▁Corinto	-11.0621
▁Magdala	-11.0623
▁Yahawiloj	-11.0638
nananta	-11.0659
awtebil	-11.0664
comandante	-11.067
ixahaw	-11.067
insatajan	-11.067
▁chim	-11.07
Cam	-11.0706
Yu	-11.0709
intoc	-11.0726
▁Ischejni	-11.0756
cuywa	-11.0757
▁hulic	-11.0768
cachwa	-11.0802
▁ayico	-11.0805
▁Anma	-11.0823
▁capil	-11.0823
Ham	-11.0839
▁xiwcan	-11.0851
ishelni	-11.0855
wacanojan	-11.0857
▁hetx	-11.0864
To	-11.0869
▁chihuli	-11.0877
quexpax	-11.0897
paxic	-11.0897
yeh	-11.0906
▁chitxahli	-11.0906
▁ismunla	-11.0917
yeniloj	-11.0942
cochahni	-11.0943
txahli	-11.0949
▁heyi	-11.0951
issi	-11.0954
tzelax	-11.0957
O	-11.0963
▁iscolcha	-11.097
▁isxe	-11.0978
wiloj	-11.0984
ohcha	-11.0986
▁chixcab	-11.0988
▁titnajinan	-11.0988
▁alcal	-11.0988
▁chextxahli	-11.0989
ázaro	-11.0989
hc	-11.099
tzujtzun	-11.099
xito	-11.099
ebilcanayo	-11.099
jintajan	-11.0991
ojlaxayto	-11.0991
jop	-11.0991
▁chinchahnihan	-11.0993
witzitzbican	-11.0994
tzalahi	-11.0996
▁yilnito	-11.0997
uq	-11.0997
▁hawuẍta	-11.1001
iscachni	-11.1001
▁wuẍta	-11.1003
yilweno	-11.1008
cheyiyo	-11.1009
laxilo	-11.1015
yuẍtaj	-11.1018
laxilto	-11.1019
walach	-11.102
▁tzotel	-11.1024
checach	-11.1024
ispalan	-11.1028
ambebal	-11.103
apaxo	-11.1032
aycanocan	-11.1034
hecolni	-11.104
unni	-11.1046
comunlahan	-11.1054
gobernador	-11.1058
▁isyijeni	-11.1059
▁motx	-11.1061
olivo	-11.1062
hawoc	-11.1063
ene	-11.1064
iscuywa	-11.1068
yexn	-11.107
chinapnihan	-11.1071
chiwalcanojan	-11.1071
jala	-11.1071
isnu	-11.108
▁chielicoj	-11.108
ayinicojan	-11.1083
As	-11.1084
nipaxico	-11.1085
matxam	-11.1089
▁ilno	-11.1092
▁hununtajil	-11.1102
▁Ayojab	-11.1103
yijemojab	-11.1105
hunix	-11.1105
wanico	-11.1106
I	-11.1112
heyeniloj	-11.1129
chijala	-11.1139
cheyije	-11.1139
▁ischahnicano	-11.1147
ishe	-11.1164
chijal	-11.1164
yijcano	-11.1184
ispoh	-11.1195
isbiho	-11.12
▁chachoc	-11.1202
joc	-11.1202
yiniti	-11.1207
▁chiscutxba	-11.1239
▁yahawo	-11.1241
lahaninan	-11.1241
isyenipaxo	-11.1241
helin	-11.1244
tzoteli	-11.1255
quexbey	-11.1284
▁Maca	-11.1285
▁wuẍtajan	-11.1292
xahanojab	-11.1296
xilo	-11.1311
yinican	-11.1327
elaxo	-11.1341
chilo	-11.1343
chisc	-11.1345
ismulo	-11.1353
iscach	-11.1355
edonia	-11.1374
▁Belén	-11.1374
▁Betania	-11.1374
▁Félix	-11.1374
▁hunex	-11.1374
▁Hunun	-11.1375
▁Yawten	-11.1375
▁Apolos	-11.1375
aya	-11.1382
▁Yilni	-11.1383
chiwican	-11.1394
isyecan	-11.1403
▁Chalnipaxo	-11.1413
▁Inc	-11.142
oq	-11.1434
cheh	-11.1437
iscutxbaco	-11.1442
laxcan	-11.1447
asón	-11.1455
chinyehan	-11.1468
quinchiyan	-11.1486
iscolwa	-11.1489
istin	-11.1513
ayexico	-11.1535
halno	-11.1535
saías	-11.1548
▁hajlo	-11.1552
▁ispohni	-11.1574
▁chiyenilo	-11.1587
ulxa	-11.1587
eco	-11.1593
▁Yun	-11.1599
ischej	-11.1604
tawiban	-11.162
Tz	-11.1643
iswa	-11.1649
heyahawil	-11.1666
▁ohtabil	-11.1672
▁halwe	-11.1678
ischah	-11.1699
elna	-11.1713
naxa	-11.172
chechah	-11.172
▁halbil	-11.1725
▁txahlo	-11.1727
wano	-11.1731
bilti	-11.1734
▁iscutxban	-11.1739
chutepaxo	-11.174
▁yichebanil	-11.1742
▁hehelanil	-11.1743
▁higuera	-11.1743
▁inchuquilan	-11.1743
▁welapnojan	-11.1743
▁bihe	-11.1743
▁yorahil	-11.1743
▁pom	-11.1743
▁yofrenda	-11.1743
▁yabxubal	-11.1744
▁isvaso	-11.1745
▁presowom	-11.1746
yen	-11.1748
▁ismunlawom	-11.1749
▁ispixan	-11.175
▁hetxumniloj	-11.1755
yilwen	-11.1757
enayo	-11.176
▁isme	-11.1764
▁yelcan	-11.1766
▁heyoj	-11.1766
wohtapaxojan	-11.1774
▁hamul	-11.178
islahnico	-11.1781
▁intzotelan	-11.1784
▁isbili	-11.1785
▁heto	-11.1785
▁telaj	-11.179
▁chitzoteli	-11.1805
iscolnilo	-11.1807
▁istxumnilo	-11.1841
chejniti	-11.1849
isyije	-11.1859
heyaben	-11.1864
inmam	-11.1864
▁chicotz	-11.1869
ican	-11.1869
cawxican	-11.1881
wabe	-11.189
chesay	-11.1907
wohtajojan	-11.1909
ishajni	-11.1917
chiyijpaxo	-11.1922
heyohtaxa	-11.1926
yuhi	-11.1929
chichiwa	-11.1961
▁yanab	-11.1962
bilico	-11.1963
▁chiillax	-11.199
istzoteli	-11.1991
ehalo	-11.2013
▁yilo	-11.2025
▁yic	-11.2076
jila	-11.2108
▁olivo	-11.211
▁sunilo	-11.2128
initi	-11.2134
yanican	-11.2135
subcha	-11.216
uslax	-11.2161
▁Chis	-11.2163
▁chisna	-11.2166
topaxo	-11.2168
ilaxcan	-11.2177
▁walex	-11.2182
ulalan	-11.2185
ejbiyal	-11.2187
pujnac	-11.2191
caẍa	-11.2191
ixwilal	-11.2191
’	-11.2191
▁Barrabás	-11.2191
▁Olivo	-11.2191
▁Sidón	-11.2191
▁Tiro	-11.2191
colbilon	-11.2191
yiximal	-11.2191
bulna	-11.2191
altar	-11.2191
▁Acaya	-11.2191
▁Marcos	-11.2191
amaria	-11.2191
▁Wuẍtaj	-11.2191
isteyele	-11.2191
cocachni	-11.2191
chinanicojan	-11.2192
▁Yilal	-11.2192
▁Tomás	-11.2192
unepixto	-11.2192
uxantaxca	-11.2193
heyabe	-11.2195
iscuyno	-11.22
yilaxilti	-11.2201
uslaxto	-11.2207
▁xolbal	-11.221
uluj	-11.2219
uico	-11.2225
nanantaxan	-11.2233
yuninalo	-11.2239
tzoc	-11.225
tzotelan	-11.2253
intz	-11.2258
hawanico	-11.2258
lehan	-11.2258
tzebo	-11.2265
hacuyni	-11.2267
tzelaxilo	-11.2278
entojan	-11.228
▁Co	-11.2291
ilom	-11.23
yawtelax	-11.231
chetxumu	-11.2313
chijoche	-11.2313
haxan	-11.2314
laxtoj	-11.2318
yaniti	-11.2343
iscuy	-11.2345
cheyila	-11.2355
henani	-11.2361
mo	-11.2365
techahoj	-11.2372
aldea	-11.2373
echmabil	-11.2374
lemna	-11.2375
buchwal	-11.2375
chiwabehan	-11.2377
chicochah	-11.2378
iscawxican	-11.2381
lahann	-11.2382
Comam	-11.2383
chiwilan	-11.2384
istrato	-11.2384
inxahan	-11.2388
nohna	-11.2392
xiwan	-11.2398
chicancano	-11.2402
watojan	-11.2407
chicami	-11.2411
▁mahul	-11.2415
ẍixan	-11.2427
▁ach	-11.2433
▁chiyil	-11.2436
hunon	-11.2437
▁cobeybal	-11.2448
tzalacan	-11.2451
▁isnoh	-11.2451
unu	-11.2472
haquin	-11.2477
nimanojab	-11.2479
txumni	-11.2489
yohtajoj	-11.2495
toco	-11.2502
cojan	-11.2503
ulu	-11.2514
▁xayu	-11.2524
oxa	-11.255
▁iscayel	-11.255
▁ishuj	-11.2558
▁denario	-11.256
▁semana	-11.256
▁burro	-11.256
▁lepra	-11.256
▁plata	-11.256
▁ichamile	-11.256
▁iscolbanil	-11.2562
▁iscuybanil	-11.2563
▁chietanto	-11.2565
▁ixale	-11.2566
▁sacerdotehal	-11.2566
▁wulan	-11.2569
▁heyuẍta	-11.2575
▁gobernadoral	-11.2583
elojan	-11.2591
▁testigo	-11.2592
heyehico	-11.2594
chihallaxpaxo	-11.2598
▁txahul	-11.2604
ojlaxto	-11.2612
heyaco	-11.262
txumwe	-11.2633
▁cantil	-11.2643
chewchotan	-11.2649
▁sello	-11.2658
ilas	-11.2659
yijatz	-11.266
▁yillaxi	-11.2664
▁xilxa	-11.2681
ẍicano	-11.2685
issaya	-11.2689
apnihan	-11.2691
colin	-11.271
abil	-11.271
▁habi	-11.2713
hunoxa	-11.272
chinchejtojan	-11.2724
▁jalnic	-11.2735
jca	-11.2737
▁yanican	-11.2738
▁yama	-11.274
chicabcon	-11.2769
how	-11.2777
vaso	-11.2792
yichmam	-11.2804
▁cac	-11.2804
laba	-11.2806
▁yalnilo	-11.2809
sucal	-11.2811
enilojan	-11.2819
Oc	-11.2827
▁xahano	-11.2836
▁wejna	-11.2837
peyab	-11.2844
chitxumcha	-11.2849
inmulan	-11.285
itah	-11.2851
tawintaj	-11.2852
▁yohtaj	-11.2855
▁peyab	-11.2858
yohtaxa	-11.2866
▁chalte	-11.2875
istxam	-11.2879
istxon	-11.2892
issayni	-11.2897
yitz	-11.2904
yuninalxa	-11.2916
▁cachwa	-11.2942
baln	-11.2942
Hal	-11.2944
wawte	-11.2951
ilal	-11.2952
▁chispoh	-11.2953
quexwil	-11.2955
chioccano	-11.2957
▁heyil	-11.2978
▁halno	-11.2996
camojan	-11.3008
ayi	-11.3016
chiohtan	-11.3019
howan	-11.3028
chibe	-11.3029
ojo	-11.3037
jec	-11.3041
ich	-11.3046
▁yuli	-11.305
aho	-11.3051
Baytet	-11.308
estam	-11.308
quinyanicojan	-11.308
▁Jairo	-11.308
▁Jonás	-11.308
▁Iscariote	-11.3081
▁Caifás	-11.3082
▁Chipre	-11.3082
niẍtejal	-11.3082
▁Waben	-11.3082
▁coDiosal	-11.3082
▁Istzabni	-11.3089
quinhulan	-11.3095
feso	-11.3095
yabenilo	-11.3095
mataxca	-11.3097
istzujcha	-11.3099
H	-11.3114
epaxojan	-11.3126
isnani	-11.3132
isloni	-11.3159
tzujanxa	-11.3163
xaitzitzbican	-11.3182
canocan	-11.3194
wohtan	-11.3233
checutxban	-11.3248
cawina	-11.3267
▁chicolcha	-11.3271
yechman	-11.3283
yebi	-11.33
yecoj	-11.3302
bili	-11.3303
▁hebeybal	-11.3312
maapni	-11.3312
yochen	-11.3315
laxilti	-11.3326
▁chii	-11.3335
hajxam	-11.334
yilo	-11.3347
hawip	-11.3355
L	-11.3357
ayinic	-11.3361
yictabal	-11.3362
ciento	-11.3362
ayal	-11.3399
▁chexxiw	-11.34
▁ispa	-11.3407
Yuxin	-11.3413
▁chahni	-11.3418
▁yichi	-11.3419
yuninaloj	-11.3424
chisye	-11.3428
▁chietaxto	-11.3437
▁islow	-11.3441
▁wetbi	-11.3446
▁ishoyanil	-11.3449
▁iswayic	-11.3449
▁inyijenan	-11.3449
▁cuywal	-11.3449
▁maxawal	-11.3449
▁quexwilnojan	-11.345
▁ismotx	-11.3451
▁hanabal	-11.3451
▁isxiwcan	-11.3453
▁hawoj	-11.3454
▁chiilcha	-11.3455
babelal	-11.3456
▁chiilaxilo	-11.3461
hawi	-11.3464
▁Chiwa	-11.3466
isbey	-11.3469
▁hemunil	-11.3474
Machi	-11.3482
colcha	-11.3484
▁hulnajinan	-11.3485
▁chiuc	-11.3485
▁munlawomal	-11.3488
▁chiichico	-11.3489
▁cosataj	-11.349
hecawil	-11.3491
▁Con	-11.3495
▁subchahoj	-11.3506
licano	-11.3536
uban	-11.3546
isxahann	-11.355
ohchacan	-11.3554
▁metx	-11.3554
esarea	-11.3555
unn	-11.3557
isxu	-11.3557
candelero	-11.3557
cincuenta	-11.3557
ejholilo	-11.3557
hechuquil	-11.3557
hoyno	-11.3557
isxumaquil	-11.3557
mantiado	-11.3557
maxawaco	-11.3557
panteón	-11.3557
pohlebahil	-11.3557
somchacan	-11.3557
veinticuatro	-11.3557
yijemex	-11.3557
hawichamil	-11.3557
hetxiquin	-11.3557
helanex	-11.3557
chinyijehan	-11.3557
chejbilti	-11.3557
juez	-11.3557
quinhawohtajojan	-11.3557
patzab	-11.3557
sajsatil	-11.3557
haltelax	-11.3557
iscawxobal	-11.3557
chiixli	-11.3557
chiwahlax	-11.3557
▁ijatz	-11.3557
chinchahan	-11.3557
ochebil	-11.3557
titnajach	-11.3557
wamigo	-11.3557
albalax	-11.3557
wapnihan	-11.3558
tesataj	-11.3559
chiwilojan	-11.356
colchahan	-11.3561
yihti	-11.3565
machijinan	-11.3565
yanicanico	-11.3566
yalaxicto	-11.3567
wajeb	-11.3567
▁ilcha	-11.357
aynatoj	-11.357
xatzujcha	-11.357
tzehtaj	-11.3574
hunujon	-11.3574
sajn	-11.3579
iscutxbanayo	-11.3582
ojnito	-11.3583
axepxa	-11.3585
cajlax	-11.3586
issucal	-11.359
xaheyayto	-11.3593
yalten	-11.3593
chimujli	-11.3595
hunlahon	-11.3598
▁yochen	-11.3604
▁chielti	-11.3604
hetzoteli	-11.3615
istzabayo	-11.3621
hecolwal	-11.3622
Haquin	-11.3623
hawohtaj	-11.3627
cocolwa	-11.3627
▁cowi	-11.3631
cheyalpaxoj	-11.3633
chisbeybaln	-11.3634
yican	-11.3637
▁jaben	-11.3637
hecolwa	-11.3649
▁chiw	-11.3651
ismeltzoco	-11.366
elcano	-11.3661
▁aceite	-11.3665
tijab	-11.367
hecuyni	-11.3671
hamataj	-11.3683
chinmunlahan	-11.3684
chichiwaco	-11.3685
yahto	-11.3686
saac	-11.3688
▁Ilwe	-11.3704
johtajojan	-11.3705
ilno	-11.3706
▁hawe	-11.3723
chiixtan	-11.3735
haninn	-11.3745
yelcan	-11.3768
heyuten	-11.3773
illax	-11.3808
chijalnihan	-11.3812
enal	-11.3822
▁jala	-11.3825
cocon	-11.3834
mohyilal	-11.3842
ulaln	-11.3849
wute	-11.3857
heyip	-11.3873
espada	-11.3875
tzabno	-11.3875
griego	-11.3876
saduceo	-11.3876
xiwquilal	-11.3876
ismachiswalilal	-11.3876
yehobal	-11.3878
issajbilo	-11.3879
chiwute	-11.3879
chexxiwi	-11.3884
▁yuhi	-11.3886
▁chiwalic	-11.3894
romano	-11.3901
yilno	-11.3905
cheyu	-11.3914
▁xacam	-11.3925
hemam	-11.3925
iscami	-11.3929
tac	-11.3942
chiah	-11.3951
ahab	-11.3952
hoc	-11.3989
chisman	-11.3993
colchalo	-11.4002
jalan	-11.4008
▁haquin	-11.4013
chelo	-11.403
▁Yahaw	-11.4041
Tohol	-11.4057
▁Judá	-11.4057
▁Zebedeo	-11.4057
▁Elizabet	-11.4057
▁Cornelio	-11.4058
▁Hum	-11.4059
▁isla	-11.4066
chijanico	-11.4078
▁mu	-11.4079
Tzalah	-11.4081
balxa	-11.4082
yanab	-11.4092
chimyu	-11.4099
aycanilo	-11.4107
▁haco	-11.411
hechah	-11.4115
ini	-11.4144
mayu	-11.4155
chianayo	-11.4155
▁Ismam	-11.416
hachcachann	-11.4161
incon	-11.4169
chicobej	-11.4177
iscamilo	-11.4182
▁Txah	-11.4194
itzitzn	-11.422
ohtajan	-11.4221
▁issa	-11.4224
jilan	-11.4226
hulcan	-11.4227
uilan	-11.4229
xiwi	-11.4234
chma	-11.4238
oxebo	-11.4262
▁chiwi	-11.4268
▁Ist	-11.4275
encanilo	-11.4277
▁chejabo	-11.4302
▁cheyilni	-11.4306
elilo	-11.4307
yilnito	-11.4341
halbilcanoj	-11.4353
▁chiji	-11.4356
▁joccano	-11.436
▁Etza	-11.4366
nocan	-11.4369
bancano	-11.4382
taca	-11.4389
mohyi	-11.4396
▁cien	-11.4404
Iwe	-11.4405
▁hetxumnilo	-11.4418
mas	-11.4419
yicta	-11.4419
naban	-11.442
heyinilo	-11.4421
▁subuta	-11.4425
▁ischibehal	-11.4425
▁jetbiho	-11.4425
▁istxolal	-11.4425
▁cohelanil	-11.4425
▁watutan	-11.4425
▁calle	-11.4426
▁uninale	-11.4426
▁tzujnojan	-11.4426
▁inchahnihan	-11.4427
▁iscuywahi	-11.4427
▁hecolbanil	-11.4429
inbihan	-11.443
cadena	-11.4431
querubín	-11.4431
txitam	-11.4431
inchejaban	-11.4431
inmunilan	-11.4431
▁chicuywa	-11.4437
elaxcano	-11.4445
isbelwi	-11.4446
▁chexapni	-11.4447
ismelyu	-11.4448
▁hawilni	-11.445
▁pet	-11.4451
ijban	-11.4457
ambenilo	-11.446
▁hehowal	-11.4463
Hunt	-11.4465
Chiwal	-11.4465
▁heyuninal	-11.4466
▁heyijeni	-11.4466
▁yamigo	-11.4467
▁chexcolwa	-11.4468
▁binahoj	-11.447
encan	-11.4478
▁yabeni	-11.4488
nohcan	-11.4491
chiway	-11.4493
cobeybalan	-11.4497
Ilwe	-11.4498
chiahilo	-11.4498
▁Ec	-11.4498
masan	-11.45
▁chuco	-11.45
▁chiwalnihan	-11.4508
▁incartat	-11.4512
▁ohtabilo	-11.4518
chuman	-11.452
▁maẍtajinan	-11.4535
abewe	-11.4539
▁tzujanilxa	-11.4545
▁wute	-11.4553
balon	-11.4558
apernaum	-11.4581
acarías	-11.4583
chepuhilo	-11.4595
cawilxa	-11.4597
isbajil	-11.4599
chiwuc	-11.4603
▁yito	-11.4639
yijen	-11.4649
▁xahul	-11.4655
▁heyohtajoj	-11.4686
chawayto	-11.4688
▁chihallaxic	-11.4688
lahico	-11.4695
nanías	-11.4714
▁chejaboj	-11.4717
maẍtajach	-11.472
aypaxico	-11.4726
coln	-11.4737
▁El	-11.4742
▁mohyi	-11.4751
▁chexwa	-11.4775
tec	-11.4778
ro	-11.4799
bit	-11.4801
▁hajxam	-11.4829
▁yub	-11.4835
hamelyu	-11.4845
heyi	-11.4864
paxan	-11.4883
▁jute	-11.4883
▁Oc	-11.4904
▁hatzotel	-11.493
▁isyenican	-11.4947
mawa	-11.495
yilcha	-11.4953
cocolcha	-11.4965
▁tzalacan	-11.4967
hajlo	-11.4974
isbalico	-11.4986
▁cawxican	-11.5002
incolnihan	-11.5009
iscawxi	-11.5011
hetxumu	-11.5015
orahil	-11.5017
jecoj	-11.5018
▁juten	-11.502
aceite	-11.502
hunelo	-11.5024
ewantajil	-11.5034
camna	-11.5034
▁incaman	-11.504
chahnayto	-11.5049
cabconcan	-11.5051
chabilxa	-11.5054
chisyelo	-11.5057
▁hatz	-11.5059
innimanilan	-11.5061
cuywi	-11.5069
▁xab	-11.507
▁mi	-11.5085
buchwa	-11.5093
etalax	-11.5094
▁Yini	-11.5094
bejnicano	-11.5116
isreyal	-11.512
fes	-11.5121
awtelax	-11.5122
ispujnacan	-11.5123
munlabal	-11.5126
omex	-11.5127
ahla	-11.5131
istucle	-11.5132
chicotxum	-11.5137
eví	-11.5138
)	-11.5139
aqueo	-11.5139
aẍno	-11.5139
comajul	-11.5139
inhelanilan	-11.5139
isyahbetajil	-11.5139
majwahan	-11.5139
pujanto	-11.5139
setenta	-11.5139
tiopía	-11.5139
txutxwi	-11.5139
yaxcamic	-11.5139
yaxn	-11.5139
yoqui	-11.5139
▁Iscolomal	-11.5139
▁Prisc	-11.5139
▁Simeón	-11.5139
▁Siria	-11.5139
▁Sodoma	-11.5139
istioẍli	-11.5139
▁Ayex	-11.5139
wiyom	-11.5139
▁Sara	-11.5139
inmayan	-11.5139
camello	-11.5139
isyawub	-11.5139
incartahan	-11.5139
chenahuln	-11.5139
cambehal	-11.5139
▁Naweti	-11.5139
hihellax	-11.5139
▁Apni	-11.5139
▁Herodías	-11.5139
matxahojab	-11.5139
bajxan	-11.5139
alnayo	-11.5139
chinischahan	-11.5139
winitojan	-11.5139
isdiezmohal	-11.5139
winajloj	-11.5139
▁Tesalónica	-11.5139
alibe	-11.5139
ichmame	-11.5139
inchejbanilan	-11.5139
istohi	-11.5139
▁Heyohta	-11.514
wehicojan	-11.514
cheyetato	-11.514
▁Aquila	-11.514
yetaxto	-11.514
eojabtaj	-11.514
comatan	-11.5141
hapaxtoj	-11.5141
hunepixto	-11.5141
ohni	-11.5141
inhowalan	-11.5142
iscolilo	-11.5142
oxelxa	-11.5144
chiyeni	-11.5144
ejbiyalil	-11.5144
camnajon	-11.5145
▁Isyeni	-11.5145
ismajchen	-11.5148
chiuten	-11.5149
ispohnilo	-11.515
alomex	-11.515
chisayni	-11.5153
▁Yaben	-11.5154
nimanilehal	-11.5155
wenico	-11.5156
etajinan	-11.5156
wewanoj	-11.5157
▁Chintz	-11.5157
chaẍhul	-11.5158
chexmunlahi	-11.5159
ojoch	-11.5159
chiyahni	-11.5161
▁lahanxa	-11.5164
yahbalo	-11.5164
mahul	-11.5165
▁chinta	-11.5167
yahawo	-11.5178
▁yelcano	-11.5179
ischejto	-11.5186
Cata	-11.5187
chijayto	-11.5188
tzencanilo	-11.5189
Abewe	-11.5195
ayalil	-11.5202
chati	-11.5202
chexilni	-11.5213
lahano	-11.522
cawxicanocan	-11.5221
munlaho	-11.5222
inmunilt	-11.5226
chibili	-11.5246
aynato	-11.5247
alem	-11.5247
chexapno	-11.5249
cotioẍ	-11.5254
cajni	-11.5256
▁hachejab	-11.527
isyayil	-11.5274
chimujlax	-11.5279
inilo	-11.5281
motx	-11.5283
▁islahwi	-11.5286
yanicto	-11.5288
quinchin	-11.5289
chiutelax	-11.5289
chiwalnitojan	-11.529
xolbal	-11.5299
chicabconcan	-11.5304
wila	-11.5321
enicojan	-11.5323
moc	-11.5332
heyohtapaxo	-11.5341
ehon	-11.5346
ebto	-11.5353
▁Walinan	-11.5362
▁inwi	-11.5364
hawala	-11.5364
istzala	-11.5384
hechahnipaxo	-11.54
chitx	-11.5425
▁innimanil	-11.5427
▁chisma	-11.5447
yocxa	-11.5453
▁anmaho	-11.5457
▁chec	-11.5459
Mato	-11.5465
▁cotxahli	-11.5469
yiyo	-11.5482
▁Cheya	-11.5492
▁iscawil	-11.5497
▁bejbilcano	-11.5507
▁mostaza	-11.5507
▁perla	-11.5507
▁sesenta	-11.5507
▁yichitax	-11.5507
▁hawuninal	-11.5507
▁chiabelax	-11.5508
▁istrompeta	-11.5509
▁chiwinajli	-11.5512
▁chilolax	-11.5512
▁chucanico	-11.5513
▁yoxel	-11.5514
▁hecuybanil	-11.5515
▁itzitzinan	-11.5517
ojlax	-11.5519
▁isxahanbal	-11.552
▁challax	-11.5522
▁issoldado	-11.5522
▁isbarco	-11.5526
▁inmunlahan	-11.5533
▁chitaj	-11.5538
ayna	-11.5544
▁teyintaj	-11.5548
▁jip	-11.5563
▁chintzotelan	-11.5567
▁matanil	-11.5578
comonal	-11.5582
▁itzitzto	-11.5585
chiloni	-11.5588
yiptzen	-11.5604
hajloho	-11.5606
lenan	-11.5609
inyehan	-11.5616
ojni	-11.5619
Matzet	-11.5621
Aco	-11.5635
▁chiwalto	-11.5637
chebej	-11.564
▁heyeco	-11.564
▁chetz	-11.5641
chuhi	-11.5642
circuncidar	-11.5643
dragón	-11.5643
innabalan	-11.5643
heyofrenda	-11.5645
ismohyi	-11.5646
istxumnilo	-11.5647
hetxahli	-11.5648
chimohyi	-11.5649
Matxa	-11.5649
chijabe	-11.5651
Ayojab	-11.5659
chicolchahi	-11.566
▁cheja	-11.5665
▁inpaxojan	-11.5665
▁ismajilo	-11.5667
chejaboj	-11.5675
ẍicanoj	-11.5681
anpaxojan	-11.5691
toholn	-11.571
▁chintx	-11.5715
▁cheyito	-11.5718
elquisedec	-11.5727
hanintonan	-11.5728
yilaxti	-11.573
ispichnico	-11.5733
nawetij	-11.574
▁hamam	-11.5742
istzablaxayo	-11.5743
wetojan	-11.5745
obojan	-11.5755
comonn	-11.5774
iscachwa	-11.5775
▁heyohta	-11.5783
▁yijewe	-11.5788
camtoj	-11.5799
heto	-11.5817
telaj	-11.5819
chalico	-11.5821
yabelo	-11.5829
▁mas	-11.5834
▁johtaxa	-11.5836
ohan	-11.5837
cabo	-11.5841
▁wila	-11.5867
sunilojab	-11.588
bilon	-11.5885
tzeniloj	-11.5904
▁abewe	-11.5908
jipan	-11.5909
ilaxilo	-11.5913
▁cheta	-11.5937
ancanoj	-11.5948
chabeto	-11.5961
emi	-11.5988
coxolan	-11.5988
chinhesay	-11.602
ahojab	-11.6083
chielto	-11.6091
cotxumni	-11.6102
▁walca	-11.6104
▁cachi	-11.6108
chiahti	-11.6125
heyohtajoj	-11.6139
cutxbanico	-11.6145
yabelax	-11.6166
elaxilo	-11.6169
chiyi	-11.6178
chexa	-11.6189
chacano	-11.6197
inchejtojan	-11.6206
issay	-11.6209
cocawil	-11.6212
wuẍta	-11.6239
haltebil	-11.6254
chucano	-11.6267
acto	-11.627
ojaln	-11.6282
▁yalaxcan	-11.6287
techaho	-11.6302
sello	-11.6305
chicoyije	-11.6307
ixloj	-11.6309
israelita	-11.6309
ispatrón	-11.631
cocolbanil	-11.6312
yillax	-11.6318
hawatut	-11.6321
tzabnayo	-11.6323
pac	-11.6331
chisbej	-11.6331
Jala	-11.6339
▁Txumwe	-11.6348
ornelio	-11.635
dán	-11.635
ordán	-11.6352
▁heDiosal	-11.6352
amasco	-11.6352
tolab	-11.6353
▁Creta	-11.6353
ayico	-11.6353
Hanintonan	-11.6355
Bejwe	-11.636
▁Yahawoj	-11.6361
chicotz	-11.6373
xaheyabe	-11.6382
isyenicanilo	-11.6383
▁cheyalni	-11.6383
istxah	-11.6391
▁Yec	-11.6394
aycoj	-11.6394
cantil	-11.6404
jalnic	-11.6415
▁Toxa	-11.6449
ismajil	-11.6458
▁xap	-11.6463
yijewe	-11.647
helanojab	-11.6479
yuho	-11.6488
hecal	-11.6496
chio	-11.65
chijilan	-11.6514
yc	-11.6548
coloni	-11.6549
macxan	-11.655
hawohta	-11.6559
▁heyenilo	-11.6564
▁chuli	-11.6574
▁chiillaxi	-11.6581
▁istel	-11.6586
▁yechelo	-11.6609
yacano	-11.6613
yillaxi	-11.6623
sac	-11.6624
Maẍto	-11.6639
ambewe	-11.6644
hetx	-11.6697
icano	-11.6697
▁chimeltzo	-11.6714
hawuẍta	-11.6717
▁chitzejla	-11.6721
▁istzejla	-11.6721
▁tzujanex	-11.6721
▁arena	-11.6721
▁cuartel	-11.6721
▁harina	-11.6721
▁inbeybalan	-11.6721
▁islahwilal	-11.6721
▁legua	-11.6721
▁palamuch	-11.6721
▁hunpilan	-11.6721
▁chinelicojan	-11.6721
▁trompeta	-11.6721
▁chixew	-11.6721
▁testigohal	-11.6721
▁corona	-11.6722
▁ismujli	-11.6722
▁patrón	-11.6723
▁yespada	-11.6723
▁iscantil	-11.6723
▁isyox	-11.6726
▁culto	-11.6728
▁chintxahlihan	-11.673
▁chibuchwa	-11.6731
▁ispujbani	-11.6735
▁hecolchahi	-11.6736
▁chilolaxi	-11.6737
▁iscayelal	-11.6738
▁chisyah	-11.6742
▁hawetbi	-11.6744
▁txahloj	-11.6746
▁hemelyu	-11.6748
cheyah	-11.6749
▁heyixal	-11.6749
▁chietaxtoj	-11.6749
▁hajan	-11.676
hacawil	-11.6764
▁anmahilinan	-11.6767
▁ischejlaxto	-11.6783
▁halbilxa	-11.6787
▁ischahno	-11.6792
uninto	-11.6793
chiscaj	-11.6799
▁chiwaco	-11.6802
intzotelan	-11.6809
Ya	-11.681
▁yahwi	-11.6835
▁chexto	-11.6835
Hun	-11.6841
▁chiyala	-11.6849
lahanon	-11.6863
beybaln	-11.6865
▁chexel	-11.6887
yalnilo	-11.6887
chixan	-11.6898
chihuli	-11.692
▁hebreo	-11.6923
▁toholojab	-11.6933
islahico	-11.6938
cochah	-11.6947
colbanil	-11.6947
xican	-11.6947
lanza	-11.6987
partido	-11.6988
etanto	-11.6995
walca	-11.7001
txumcha	-11.7003
hawunin	-11.701
mun	-11.7011
▁ispujba	-11.7014
babito	-11.7014
ijatz	-11.7017
irla	-11.7017
omás	-11.7017
cawex	-11.7018
chepohle	-11.7018
cochuquil	-11.7018
esponja	-11.7018
holbil	-11.7018
hujel	-11.7018
incuywoman	-11.7018
ishatelax	-11.7018
isholanil	-11.7018
magdal	-11.7018
nueve	-11.7018
ohchahi	-11.7018
oncio	-11.7018
quetzal	-11.7018
reina	-11.7018
tzujnu	-11.7018
vidrio	-11.7018
yetexxa	-11.7018
chepajtze	-11.7018
chibejtzolax	-11.7018
ispaxayti	-11.7018
istzabnoyo	-11.7018
ispeyabil	-11.7018
mayor	-11.7018
pahaw	-11.7018
quiniscolnihan	-11.7018
sur	-11.7018
wuninalan	-11.7018
chexixli	-11.7018
hora	-11.7018
incuywomojan	-11.7018
wetbihojan	-11.7018
chinyelojan	-11.7019
inmelyuhan	-11.7019
ismalil	-11.7019
heyetbihoj	-11.7019
intxumnihan	-11.7019
plato	-11.7019
pojoj	-11.7019
abilonia	-11.7019
hahelanil	-11.7019
inchejabojan	-11.7019
iscolwahi	-11.7019
seis	-11.7019
piso	-11.7019
isnimanbal	-11.7019
isbahwa	-11.7019
yintalto	-11.7019
inmeltzohan	-11.7019
chexchahlaxi	-11.702
comunil	-11.702
upnican	-11.7021
hesaynilo	-11.7021
jalno	-11.7021
yelawiloj	-11.7021
isxe	-11.7021
chiwitijan	-11.7022
chialaxto	-11.7022
chixcab	-11.7022
titnajinan	-11.7022
chextxahli	-11.7023
▁Te	-11.7023
chitzejtzoni	-11.7024
omati	-11.7024
cheyi	-11.7024
tasataj	-11.7024
ishi	-11.7024
maxawil	-11.7026
chincanan	-11.7026
chitxahli	-11.7028
ebtaj	-11.7028
chexwayi	-11.7028
inlohan	-11.7029
yixtan	-11.7029
istohlan	-11.7029
ismunla	-11.7029
iwelo	-11.7031
isyenipaxilo	-11.7031
chinchahnihan	-11.7033
yijlen	-11.7033
▁chawalic	-11.7034
chicoyelo	-11.7034
chielcanicoj	-11.7034
chialaxicoj	-11.7034
isbili	-11.7035
ayinictojan	-11.7036
quintzotelan	-11.7036
isjepla	-11.7036
ebilayo	-11.7037
xacochah	-11.704
ispujba	-11.704
ocheni	-11.7045
xahechah	-11.7046
belwito	-11.7049
ispartido	-11.7049
yinolo	-11.705
xajalan	-11.7051
isbuchwa	-11.7055
ismalen	-11.7056
chijatojan	-11.7058
yanoco	-11.706
yochenico	-11.7062
▁chissay	-11.7065
yohtapaxo	-11.7065
xajayto	-11.7066
chinnatijan	-11.7069
anajon	-11.7071
iscawxicanocan	-11.7074
howla	-11.7079
telajil	-11.7079
iscolcha	-11.708
▁bit	-11.7081
ẍicoj	-11.7088
heyechman	-11.7088
cotxahlihan	-11.709
aniti	-11.7093
hatelaxo	-11.7093
inicojan	-11.7099
isyijeni	-11.71
iscamiloj	-11.7102
matolo	-11.7102
ayachico	-11.7103
hinaninan	-11.7103
▁chinoc	-11.7108
▁yanicano	-11.7108
chibeybaln	-11.7109
comunla	-11.7119
chielicoj	-11.712
iswinajil	-11.7122
iscolchahi	-11.7126
chichahnayto	-11.7128
alcal	-11.7133
hesayni	-11.7135
nipaxcano	-11.714
wochehan	-11.7143
hununtajil	-11.7144
wihan	-11.7151
chexcancano	-11.7158
hetxah	-11.7161
yama	-11.7163
incolwahan	-11.7163
hawohtajoj	-11.7163
di	-11.7164
xecan	-11.7167
lwepaxo	-11.7173
ischuquilxan	-11.7175
chitac	-11.7178
chislahico	-11.718
inilti	-11.7181
chinitzitzbican	-11.7186
chimunlahi	-11.7187
hewayan	-11.719
▁chextzala	-11.7192
haltebilxa	-11.7205
▁walno	-11.721
cheman	-11.7212
chielcanico	-11.7223
yelto	-11.7224
chiillax	-11.7227
istiempohalxa	-11.7227
eweco	-11.7227
Haxa	-11.7228
ischahnicano	-11.7235
isculus	-11.725
chachoc	-11.7253
haquexpax	-11.7256
yocnico	-11.7267
▁Hul	-11.7281
camto	-11.7314
balcano	-11.7317
heyala	-11.7324
chianican	-11.7337
ebo	-11.7343
hawohtan	-11.7388
laxiloj	-11.7416
chialaxico	-11.7426
yuteco	-11.745
chiyilo	-11.7494
chipaxto	-11.7504
abeno	-11.7511
nocano	-11.7538
chexahann	-11.7542
istzotelcan	-11.7599
chiscutxba	-11.7609
▁chinto	-11.7613
chistzab	-11.7636
▁hetz	-11.7665
tzujcha	-11.7683
▁pa	-11.7685
í	-11.7685
ambeni	-11.7691
ohtabil	-11.771
iscabil	-11.7716
naweti	-11.7718
gripa	-11.7731
ndrés	-11.7731
orinto	-11.7731
amigo	-11.7731
Hallaxojab	-11.7733
alomón	-11.7733
▁Betsaida	-11.7733
▁Galacia	-11.7733
▁Johta	-11.7733
▁Sión	-11.7733
▁Hajxam	-11.7733
▁Natanael	-11.7733
▁Iconio	-11.7733
▁Listra	-11.7733
iptzewe	-11.7733
▁Cilicia	-11.7734
▁Cirene	-11.7734
cancanojan	-11.7735
sar	-11.7743
▁Cristohal	-11.7744
▁Yabe	-11.7747
isjobnayo	-11.7748
isyelaln	-11.7749
Y	-11.7756
txahul	-11.7758
▁Isnani	-11.7763
Hanta	-11.7766
▁aytoc	-11.7767
Iwel	-11.7774
ilnoj	-11.7776
txahlo	-11.7778
yofrenda	-11.7783
tzujanilxa	-11.7786
chijni	-11.7786
chiyenilo	-11.7786
testigo	-11.7788
hehelanil	-11.779
higuera	-11.779
inchuquilan	-11.779
welapnojan	-11.779
yorahil	-11.7791
yichebanil	-11.7791
yabxubal	-11.7793
presowom	-11.7793
machojabtaj	-11.7794
isvaso	-11.7796
ispixan	-11.7797
halbil	-11.78
hetxumniloj	-11.7802
ismunlawom	-11.7803
bihe	-11.7807
hantaxa	-11.7809
▁batx	-11.781
heyoj	-11.7818
alwi	-11.7822
▁chawu	-11.783
isme	-11.7841
Canan	-11.7845
chitzoteli	-11.7857
pom	-11.7895
▁Me	-11.7898
chitxon	-11.7899
iq	-11.7901
iscutxban	-11.7903
yumal	-11.7915
chistxon	-11.7923
hamul	-11.7926
heje	-11.7952
nohilo	-11.7956
▁cabe	-11.797
campaxo	-11.7974
pujbani	-11.798
chiahto	-11.7982
▁Chul	-11.7997
▁Yay	-11.8019
wejna	-11.8022
ispohni	-11.8032
cachlax	-11.8045
hawayto	-11.8078
▁chub	-11.8078
▁hawuẍtaj	-11.8104
yetbin	-11.8212
▁johta	-11.823
▁yelo	-11.8236
▁yetanto	-11.8272
cosunilan	-11.828
uninal	-11.8306
▁ji	-11.8325
chiyil	-11.8348
ˈ?:	-11.8355
etzan	-11.8432
awtebilex	-11.846
Waxa	-11.8473
cawilal	-11.8485
polos	-11.85
chinalaxicojan	-11.8502
cuatro	-11.8502
elén	-11.8502
maẍtajex	-11.8502
élix	-11.8502
saybilxa	-11.8502
etania	-11.8502
mago	-11.8502
tolto	-11.8503
yanipaxto	-11.8503
wahawan	-11.8503
ber	-11.8505
yinipaxocan	-11.8506
chanayo	-11.851
▁jeto	-11.8522
caniloj	-11.8575
chacto	-11.8576
tzujanico	-11.8607
cheja	-11.8612
chisna	-11.8612
iscayel	-11.8613
yichi	-11.8614
hebreo	-11.8615
hisje	-11.8617
hulnajinan	-11.8621
burro	-11.8622
lepra	-11.8622
semana	-11.8622
denario	-11.8622
ichamile	-11.8623
toholojab	-11.8624
iscolbanil	-11.8627
plata	-11.8628
chietanto	-11.8629
sacerdotehal	-11.8629
ixale	-11.863
iscuybanil	-11.8631
chetxum	-11.8632
gobernadoral	-11.8647
maẍtajinan	-11.8649
ishuj	-11.8656
wulan	-11.8656
lino	-11.8663
nimanxa	-11.8664
chilin	-11.867
yecheloj	-11.8679
inpaxojan	-11.8697
yilnico	-11.8706
metx	-11.8717
▁cop	-11.8732
welo	-11.8742
ischahlax	-11.8753
inyenilo	-11.8755
ijbani	-11.8758
yacoj	-11.8761
xilxa	-11.8765
yallen	-11.8766
jelan	-11.8775
iscolwapaxo	-11.8817
chiocpaxo	-11.8848
ismeltzopaxo	-11.8887
habi	-11.8893
heyuẍta	-11.8899
isnoh	-11.8901
hiwaltojan	-11.8904
Macta	-11.8955
waltojan	-11.8966
xahano	-11.897
chalte	-11.8978
ipaxilo	-11.8983
yayo	-11.9015
alaxti	-11.9016
camojab	-11.9045
tzelo	-11.9048
diosalo	-11.9097
hiwochehan	-11.9119
checuy	-11.9139
chiawi	-11.9156
nachalo	-11.9215
halniloj	-11.9233
chispoh	-11.9264
▁quexya	-11.9277
ismajilo	-11.9282
ispohcan	-11.9287
yalaxto	-11.9303
caret	-11.9303
tuclenoj	-11.9306
ishin	-11.9306
mulumon	-11.9317
monten	-11.9317
▁matan	-11.9321
▁yalil	-11.9323
chejlaxto	-11.9329
yohtaj	-11.933
cuywahi	-11.9331
hucan	-11.9333
etaxtoj	-11.9333
iscampaxo	-11.9334
ofrenda	-11.9334
maxawute	-11.9335
ahwobal	-11.9335
alión	-11.9335
arrabás	-11.9335
azufre	-11.9335
chabejtzo	-11.9335
chaẍtohi	-11.9335
chexcuyni	-11.9335
chiluylun	-11.9335
chinbejtzohan	-11.9335
cotxumuloj	-11.9335
hehelbal	-11.9335
hierro	-11.9335
higo	-11.9335
hulnajojinan	-11.9335
idón	-11.9335
inbejtzonan	-11.9335
inchejnihan	-11.9335
iria	-11.9335
isbutni	-11.9335
iscawxenico	-11.9335
ismeẍahil	-11.9335
ispuhnilo	-11.9335
isreligión	-11.9335
issomni	-11.9335
jaspe	-11.9335
jijlenan	-11.9335
jxamex	-11.9335
libra	-11.9335
mirra	-11.9335
noventa	-11.9335
numnahi	-11.9335
ohchahilal	-11.9335
pafras	-11.9335
palacio	-11.9335
quinanitijan	-11.9335
quinyinitojan	-11.9335
txumweloj	-11.9335
uplaxcan	-11.9335
értulo	-11.9335
▁Berea	-11.9335
▁Diana	-11.9335
▁Jericó	-11.9335
▁Sinaí	-11.9335
ejbixa	-11.9335
hilanto	-11.9335
istzumbenilti	-11.9335
lasu	-11.9335
inlahnihan	-11.9335
▁Lot	-11.9335
chextohi	-11.9335
chiiptzen	-11.9335
chitibayo	-11.9335
lembil	-11.9335
sajbat	-11.9335
chicajwa	-11.9335
echmawe	-11.9335
epaxtojan	-11.9335
hatohi	-11.9335
▁Nicodemo	-11.9335
yilwelax	-11.9335
etanoto	-11.9335
chinsayan	-11.9335
molino	-11.9335
ooz	-11.9335
chiinahti	-11.9336
diáconohal	-11.9336
coseleloj	-11.9336
▁Laodicea	-11.9336
uixto	-11.9336
ẍiaytij	-11.9336
heseleloj	-11.9336
chijaytojan	-11.9336
chahbilxa	-11.9336
otzba	-11.9336
quinelicojan	-11.9336
soman	-11.9336
chinheyilan	-11.9336
▁Troas	-11.9336
▁wojan	-11.9336
isnahuln	-11.9336
aypaxicto	-11.9336
chawabeto	-11.9336
incapilan	-11.9336
helanile	-11.9336
chejbilintijan	-11.9337
hawanayo	-11.9337
▁Aarón	-11.9337
hawinilti	-11.9337
heloni	-11.9338
usni	-11.9338
txihom	-11.9338
yitzitzbipaxocan	-11.9338
ispaxti	-11.9338
cocuyni	-11.9338
somchahoto	-11.9339
ucas	-11.9341
yiptzencano	-11.9341
chiyeno	-11.9342
chayelo	-11.9343
ajban	-11.9343
islahabico	-11.9344
cawxojan	-11.9344
tzalacanocan	-11.9345
satnom	-11.9345
chishatx	-11.9346
palan	-11.9346
hawinilo	-11.9346
chalpaxtoj	-11.9346
jahnojan	-11.9347
cheyipaxto	-11.9347
chijiyo	-11.9349
isdiezmo	-11.935
quexwohtajojan	-11.935
chisatni	-11.9351
▁Xahan	-11.9352
yabelaxilo	-11.9354
xawabehan	-11.9355
ojlaxcan	-11.9355
chexcolcha	-11.9356
elaxojab	-11.9357
chachhul	-11.9357
chijechmahan	-11.9357
malbal	-11.9358
ispujnacanto	-11.936
wejla	-11.9361
chelahico	-11.9362
ajanojab	-11.9362
quexcolwa	-11.9362
ixwihan	-11.9363
arcos	-11.9363
ancianohal	-11.9364
allaxayo	-11.9364
chechma	-11.9364
ismajni	-11.937
lencano	-11.9372
chicolcha	-11.9377
▁bin	-11.9377
chiwalnicanojan	-11.9379
xaischah	-11.9381
heyamigo	-11.9383
xaisje	-11.9385
isnanilo	-11.9388
ispajtzen	-11.9391
chimeltzoco	-11.9393
xajaco	-11.9393
ehobal	-11.9395
hacachni	-11.9397
issubcha	-11.9398
iscolo	-11.9402
chialaxayo	-11.9402
hawoj	-11.9404
xachahni	-11.9409
chinpaxtojan	-11.9412
hamunil	-11.9412
xaisyelo	-11.9412
issabehal	-11.9415
chicobeybaln	-11.9415
cocolni	-11.9419
bililoj	-11.9428
mahalni	-11.9435
apehal	-11.9437
chebejcano	-11.9442
emal	-11.9442
chicoyijehan	-11.9446
heyinican	-11.9452
▁chechahni	-11.9452
onbayo	-11.9455
tohal	-11.9455
ischejlaxtopaxo	-11.9457
ojihan	-11.9459
iscawxico	-11.946
▁chiwuhan	-11.9464
▁isyeniloj	-11.9466
isyecanilo	-11.9467
chicosayi	-11.947
yamigo	-11.9478
wetbi	-11.9478
chischilba	-11.9479
yalnolo	-11.9481
▁Isyel	-11.9482
chachah	-11.9487
cobeybal	-11.9493
▁heyatut	-11.9494
ih	-11.9497
helom	-11.9502
▁Isba	-11.9508
uyal	-11.9509
islow	-11.9512
awecano	-11.9516
iscarta	-11.9517
chietaxto	-11.9518
chexxiw	-11.9518
hebeybal	-11.9522
ishoyanil	-11.953
iswayic	-11.953
inyijenan	-11.953
maxawal	-11.953
codiosal	-11.953
quexwilnojan	-11.9531
chexcolwa	-11.9531
cuywal	-11.9533
hanabal	-11.9534
chicolohan	-11.9535
chacanoj	-11.9535
ismotx	-11.9535
chiilaxilo	-11.9539
isxiwcan	-11.954
ischejlaxto	-11.954
chijcano	-11.9548
hallaxan	-11.9549
ismunlabal	-11.9557
hemunil	-11.956
chiilcha	-11.9561
halilo	-11.9566
cosataj	-11.9568
machojabpaxo	-11.9571
chiuc	-11.9575
chiwalnihan	-11.9575
▁cuywawomal	-11.9578
chiichico	-11.9578
munlawomal	-11.9579
nawal	-11.9582
hehunban	-11.9588
subchahoj	-11.9589
▁Yel	-11.9589
babelico	-11.9636
cuybanilehal	-11.9637
johtaxa	-11.9649
anoto	-11.9687
Il	-11.9692
chielti	-11.9693
▁ichamxa	-11.9722
▁tajin	-11.9725
tzehan	-11.9759
chitzalacano	-11.976
tojab	-11.9766
cabconocan	-11.9771
ulach	-11.9784
habilxa	-11.9791
Chin	-11.9795
lahanmi	-11.9808
chiw	-11.9809
chiwilnihan	-11.9825
chihitzico	-11.9846
octoj	-11.9846
copa	-11.987
cosatan	-11.9871
xahanmi	-11.9874
▁chexay	-11.9887
lahanojab	-11.9898
▁heb	-11.9903
pet	-11.991
▁chiyoc	-11.9913
ispan	-11.9922
chiwayi	-11.9955
chislin	-11.9964
istila	-11.9964
cowi	-11.9996
chiwalic	-11.9997
chiyub	-12
uyw	-12.0039
hamunlahi	-12.0044
eloco	-12.0059
hawilni	-12.0064
▁Chalpax	-12.0076
chexcam	-12.0079
ischilba	-12.0099
lahanxan	-12.0114
yuẍtan	-12.0132
chalnipaxo	-12.0156
ischahnipaxo	-12.0163
utxbacan	-12.0167
islahobalxa	-12.0167
wutehan	-12.0193
wabehan	-12.0205
chexyil	-12.0212
oxel	-12.0234
yecanocan	-12.0235
aifás	-12.0242
reta	-12.0243
scariote	-12.0244
onás	-12.0244
wahawilan	-12.0245
airo	-12.0247
majaltam	-12.0249
hipre	-12.0253
▁cosata	-12.0261
ira	-12.0263
chicocutxba	-12.027
yubojab	-12.0284
txumu	-12.0293
intan	-12.0321
yabilal	-12.0326
M	-12.0336
chilpaxo	-12.0369
chiyuni	-12.039
chinilo	-12.0449
isla	-12.0453
walexpaxo	-12.0457
chiji	-12.048
issa	-12.0481
chejabo	-12.0493
inchahnihan	-12.0497
machmi	-12.0503
yahawoj	-12.0512
cien	-12.0517
hetxumnilo	-12.0522
ischibehal	-12.0528
jetbiho	-12.0528
istxolal	-12.0528
subuta	-12.0528
cohelanil	-12.0528
tzujnojan	-12.0529
calle	-12.0529
hecolbanil	-12.0532
iscuywahi	-12.0533
ablahon	-12.0537
yelmi	-12.0539
chicuywa	-12.0542
chintzotelan	-12.0552
chexapni	-12.0553
binahoj	-12.0574
hehowal	-12.0575
heyijeni	-12.0576
heyuninal	-12.0578
watutan	-12.0599
joccano	-12.0601
uninale	-12.0603
chisma	-12.0619
ohtabilo	-12.0635
yijemal	-12.0644
▁Chalnipax	-12.0675
hunpaxo	-12.0682
satapaxo	-12.0691
hachn	-12.0692
chintx	-12.0713
cocutxban	-12.0755
chihallaxic	-12.0797
bilcan	-12.0798
ahnilo	-12.0825
chiayilo	-12.0827
xaapni	-12.0855
chiyayto	-12.0868
isbeybaln	-12.0882
chexwa	-12.0903
incartat	-12.0924
El	-12.0928
lit	-12.0944
▁Chu	-12.0952
yacto	-12.0987
wetoj	-12.1006
nanpaxo	-12.1023
jute	-12.1027
Yul	-12.1034
machojabn	-12.1038
Wohta	-12.1042
yapnicano	-12.1067
▁Yeli	-12.1081
▁Yilaxt	-12.1081
▁xawa	-12.1085
iscamto	-12.11
icaniloj	-12.1108
quexyil	-12.1137
juten	-12.1137
isyenican	-12.1137
isyijeno	-12.1207
▁colo	-12.1214
tzablaxayo	-12.1218
toholban	-12.1221
jobnayo	-12.1223
poho	-12.124
▁Isaí	-12.1243
lizabet	-12.1244
Oxel	-12.1244
anás	-12.1244
ebedeo	-12.1244
isholnito	-12.1244
udá	-12.1244
▁Atenas	-12.1244
▁Beelzebú	-12.1244
▁Dorcas	-12.1244
▁Gadara	-12.1244
▁Italia	-12.1244
▁Panfilia	-12.1244
▁Wahawilan	-12.1244
Yechel	-12.1244
chintxuman	-12.1244
▁Mateo	-12.1244
quinyacojan	-12.1245
▁Tol	-12.1245
▁Cachan	-12.1245
hitzan	-12.1245
▁Tarso	-12.1245
▁Tíquico	-12.1245
paraíso	-12.1245
▁Alfeo	-12.1245
▁Alejandro	-12.1245
▁Aristarco	-12.1245
▁Filipos	-12.1245
▁Salmos	-12.1245
▁Yijem	-12.1245
Mi	-12.1255
▁Abel	-12.1259
chawiti	-12.1261
yichenico	-12.1262
chiwaytojan	-12.1267
chiwacanicojan	-12.1268
miyay	-12.1275
▁inDiosalan	-12.1275
yalaxcan	-12.1281
▁isDiosalo	-12.1286
▁Yoche	-12.1295
chinxiwan	-12.1296
wanican	-12.1296
xaisbejcano	-12.1306
ischejnilo	-12.1319
yawtenilo	-12.1322
chexalaxico	-12.1331
chexilaxto	-12.1334
▁Yahawilo	-12.1342
▁Ischejnito	-12.1387
Chej	-12.1404
▁Wi	-12.1409
yelcano	-12.141
txann	-12.1479
comunilan	-12.1485
chiwutehan	-12.1489
inmunlahan	-12.1491
cololo	-12.1508
txumnilo	-12.1509
hallaxpaxo	-12.1511
cosaya	-12.1532
istohla	-12.1545
innimanil	-12.1556
iscawil	-12.1627
mostaza	-12.1637
perla	-12.1637
sesenta	-12.1637
yichitax	-12.1637
bejbilcano	-12.1637
chiabelax	-12.1638
yoxel	-12.1638
istrompeta	-12.164
chiwinajli	-12.1642
matanil	-12.1643
chilolax	-12.1643
hecuybanil	-12.1647
itzitzinan	-12.1647
cotxahli	-12.1648
halbilxa	-12.1654
hawuninal	-12.1656
chucanico	-12.1658
isxahanbal	-12.1668
issoldado	-12.1674
isbarco	-12.1684
teyintaj	-12.1686
chextzotel	-12.1697
chitaj	-12.1698
haxapaxo	-12.17
itzitzto	-12.1716
nahatil	-12.1746
chiwalto	-12.1777
chetz	-12.1783
hesaya	-12.1801
cheyito	-12.1848
iswaj	-12.1963
cuyu	-12.1967
▁abebil	-12.1978
hallaxo	-12.1985
heyeco	-12.1997
xahul	-12.1999
istxihni	-12.2014
yahwi	-12.2041
lecan	-12.2063
mataj	-12.2076
chawte	-12.2092
yanicano	-12.2107
cuylax	-12.2147
hacuynipaxo	-12.215
saynic	-12.2157
chiayto	-12.2184
watut	-12.2225
chiyilni	-12.2236
ichiti	-12.2244
pujba	-12.2255
mujli	-12.2258
hujuy	-12.2269
alaxayto	-12.2274
txahlihan	-12.2288
anexpaxo	-12.2293
etaxto	-12.2322
limeta	-12.2323
txihnayo	-12.2324
hobnican	-12.2324
jepla	-12.2325
santa	-12.2347
conanitijan	-12.2348
E	-12.235
arpa	-12.2352
chejnitijan	-12.2352
itzitzbipaxocan	-12.2352
arón	-12.2353
quila	-12.2353
esalónica	-12.2354
txiho	-12.2355
erodías	-12.2355
bilexxa	-12.2355
tán	-12.2355
ainán	-12.2355
alabastro	-12.2355
amaliel	-12.2355
aynajext	-12.2355
bronce	-12.2355
camposanto	-12.2355
cawxeco	-12.2355
cebada	-12.2355
centavo	-12.2355
chahobcan	-12.2355
chaẍwacanicojan	-12.2355
chicotzujbanico	-12.2355
chintohlahan	-12.2355
chitzicobtan	-12.2355
copohnilo	-12.2355
cutxanxaco	-12.2355
ebilpaxcanayo	-12.2355
ebilpaxcano	-12.2355
ecápolis	-12.2355
emetrio	-12.2355
entecostés	-12.2355
ergio	-12.2355
espejo	-12.2355
etfagé	-12.2355
hecamiẍ	-12.2355
hepajtzen	-12.2355
horno	-12.2355
imeón	-12.2355
inchejnitojan	-12.2355
inchejtijan	-12.2355
inmajulan	-12.2355
inpatronan	-12.2355
inxewan	-12.2355
inxewninojan	-12.2355
irlahi	-12.2355
iscallehal	-12.2355
ismujlubal	-12.2355
ismujni	-12.2355
isnumerohal	-12.2355
issellohal	-12.2355
issuni	-12.2355
levita	-12.2355
liaquim	-12.2355
locohal	-12.2355
maxawayto	-12.2355
maxeyabe	-12.2355
maxeyil	-12.2355
maxeyiti	-12.2355
metro	-12.2355
minadab	-12.2355
mohi	-12.2355
nazareno	-12.2355
odoma	-12.2355
ohbaco	-12.2355
pujnato	-12.2355
quexjilnojan	-12.2355
quinhetzabayojan	-12.2355
rabia	-12.2355
rigia	-12.2355
sajbes	-12.2355
saybilon	-12.2355
siquihan	-12.2355
veneno	-12.2355
vinagre	-12.2355
wichmaman	-12.2355
úpiter	-12.2355
ẍalu	-12.2355
chinanocojan	-12.2356
coronahil	-12.2356
ishucbaco	-12.2356
ismasnico	-12.2356
chiwalpaxtojan	-12.2356
yuxlax	-12.2356
inwinajilan	-12.2356
istzilbanil	-12.2356
japnicanojan	-12.2356
sombil	-12.2356
chihajlax	-12.2356
chistenico	-12.2356
colahban	-12.2356
isxecnican	-12.2356
nawn	-12.2356
yojtabanil	-12.2356
chílo	-12.2356
numero	-12.2356
hawixal	-12.2356
encaniltojan	-12.2356
usno	-12.2356
iscajlen	-12.2356
iweyo	-12.2356
innanihan	-12.2356
wanaytojan	-12.2356
walaxicojan	-12.2356
ichicanti	-12.2356
allaxico	-12.2356
winitijan	-12.2356
chinilnihan	-12.2356
ishabilal	-12.2356
chijucano	-12.2356
hawetbihoj	-12.2356
hewahni	-12.2356
ilaxayoj	-12.2356
istzabloco	-12.2356
uxewal	-12.2356
chinmujlaxan	-12.2356
cotopaxojan	-12.2356
helanilehal	-12.2356
chinochenan	-12.2356
ecanilto	-12.2357
hecachni	-12.2357
hayenilo	-12.2357
iscolomal	-12.2357
cawbolo	-12.2357
isyahni	-12.2357
intzanojan	-12.2357
chiyabeto	-12.2357
intoholan	-12.2357
hematan	-12.2358
upom	-12.2358
eweloj	-12.2358
batxn	-12.2358
quinyintan	-12.2359
mohyinaxa	-12.2359
unlaxi	-12.2359
ominan	-12.2359
quinchejnitijan	-12.236
coleyan	-12.2361
isbujilo	-12.2361
upni	-12.2361
ismilalxa	-12.2362
ibpaxocan	-12.2362
chiyucanico	-12.2363
chiwahni	-12.2363
meltzoho	-12.2364
chenati	-12.2364
ejholohal	-12.2364
ehoyo	-12.2365
ispitnilto	-12.2365
iscutxico	-12.2365
idia	-12.2365
hebejtzo	-12.2365
hayeboxa	-12.2365
hajcha	-12.2365
ayinictijan	-12.2366
sajbilo	-12.2366
tzabchati	-12.2366
chahwal	-12.2367
istxumabilo	-12.2367
ubabil	-12.2369
intxahlihan	-12.2369
yapaxayto	-12.2369
hunlahanxan	-12.2369
awtebilexxa	-12.2369
chachyawte	-12.237
chiscajpaxo	-12.2371
yicheco	-12.2372
hecolwabal	-12.2373
chipohchacan	-12.2374
ohnipaxo	-12.2374
mawabehan	-12.2375
isyijelaxi	-12.2376
yinoyo	-12.2377
chexetanto	-12.2378
tzelojan	-12.2379
N	-12.238
ojlaxayo	-12.2381
henanitij	-12.2382
chexawtelax	-12.2383
chilann	-12.2384
iscorona	-12.2385
ayextoco	-12.2386
istxihnayo	-12.2387
ishobnican	-12.2387
aptzen	-12.2388
ambele	-12.2389
coyahni	-12.2391
chexilaxcan	-12.2392
isreyalo	-12.2394
uslaxi	-12.2394
quexyawten	-12.2395
alemal	-12.2395
emilo	-12.2396
chinchejan	-12.2396
lenilo	-12.2397
nicamojan	-12.2399
chexcolni	-12.2399
yilaxcan	-12.24
inbeyan	-12.24
aweyto	-12.2401
heyinoti	-12.2401
chexhallax	-12.2402
heyespada	-12.2402
isyijemal	-12.2402
ismujno	-12.2403
quexiscuyni	-12.2403
quintohan	-12.2404
machijex	-12.2405
ispohto	-12.2405
illaxi	-12.2406
techahojab	-12.2406
chispohle	-12.2406
tzelaxcanilo	-12.2408
quexistucle	-12.2409
ochenta	-12.2411
cocampaxo	-12.2411
isbabito	-12.2411
chexelcanico	-12.2411
webilxa	-12.2415
ayolo	-12.2415
winajli	-12.2417
quinmunlahan	-12.2419
yawtenico	-12.2422
heyalaxto	-12.2424
hunepn	-12.2424
hecalxan	-12.2426
epta	-12.2431
halnicano	-12.2433
emcan	-12.2434
habeh	-12.2435
cachwilan	-12.2437
jahawilojan	-12.2437
innanitijan	-12.2438
enpaxojan	-12.244
iscawxilo	-12.2445
yehayo	-12.2447
chaẍapno	-12.2447
heyintan	-12.2448
chialaxayto	-12.2448
chiichiti	-12.2449
yulicto	-12.2452
isbejtzoto	-12.2453
chexhul	-12.2456
ayxayo	-12.246
isselelo	-12.2461
jinican	-12.2461
ischejti	-12.2461
chishajba	-12.2462
chisnacan	-12.2464
mamehal	-12.2472
ehojabn	-12.2473
hesajn	-12.2473
cocuybanil	-12.2473
jinilojan	-12.2479
hevaso	-12.2482
yocheco	-12.2483
uxanta	-12.2485
uxanxa	-12.2485
iscolchalo	-12.2495
heman	-12.2495
ayinn	-12.2503
winilojan	-12.2507
hetxumilo	-12.2518
winican	-12.2522
zalajon	-12.2523
cheyican	-12.2523
isia	-12.2526
bacan	-12.2526
yinilti	-12.2531
chahloyo	-12.2539
aycanico	-12.254
matxon	-12.2543
hunach	-12.2554
chinman	-12.2566
abchalo	-12.2567
cowayan	-12.257
yilayo	-12.2574
chisajn	-12.2577
iscolwal	-12.2579
heyehilo	-12.258
chishin	-12.2589
xayabe	-12.2599
heyuẍtaxa	-12.2612
chiwohtan	-12.2618
wecojan	-12.2629
Chal	-12.264
jochebal	-12.2642
sunilopaxo	-12.2646
chitxahlipaxo	-12.265
yochento	-12.2654
hawacano	-12.2662
▁Yij	-12.2663
cachoc	-12.27
ishujwan	-12.2708
intopaxojan	-12.2714
yicanilo	-12.2717
chiawten	-12.2721
hawanican	-12.2726
chimunlaco	-12.2729
chiniti	-12.2744
chiillaxi	-12.2759
heyohta	-12.2774
istitico	-12.2777
cobeybaln	-12.2787
mayayto	-12.2788
iscuywabal	-12.2788
huninan	-12.2796
chitxumchapaxo	-12.2801
patrón	-12.2824
ayxacan	-12.2831
istel	-12.2834
yespada	-12.2834
corona	-12.2851
ispohnito	-12.2855
chijabehan	-12.2857
chishelni	-12.2863
majanil	-12.2877
trompeta	-12.2878
heyenilo	-12.288
Halwe	-12.2881
chitzejla	-12.2885
cuartel	-12.2885
harina	-12.2885
islahwilal	-12.2885
legua	-12.2885
palamuch	-12.2885
tzujanex	-12.2885
hunpilan	-12.2885
inbeybalan	-12.2885
istzejla	-12.2885
arena	-12.2885
chinelicojan	-12.2885
testigohal	-12.2885
chixew	-12.2886
Yel	-12.2888
ismujli	-12.2889
chiwaco	-12.2891
iscantil	-12.2891
Anma	-12.2895
chibuchwa	-12.2897
isyox	-12.2897
chilolaxi	-12.2902
iscayelal	-12.2902
chintxahlihan	-12.2903
hecolchahi	-12.2904
Walex	-12.2904
txahloj	-12.2911
chietaxtoj	-12.2915
culto	-12.2917
hemelyu	-12.2918
hawetbi	-12.2919
heyixal	-12.292
No	-12.292
chisyah	-12.2922
Etza	-12.2923
ispujbani	-12.2923
Ec	-12.2924
chimeltzo	-12.2928
chielcano	-12.293
anmahilinan	-12.2934
chialaxicto	-12.2939
hajan	-12.297
ischahno	-12.3004
chicoxahann	-12.3038
jilnihan	-12.3047
hacuyu	-12.305
ischayto	-12.3053
habanxa	-12.3058
hexiwi	-12.3062
isbelwito	-12.3069
juẍtaxa	-12.3082
cabxa	-12.3088
ispohilo	-12.3122
cajin	-12.3127
wohtami	-12.3129
heyijento	-12.3134
chiscutxban	-12.3138
Tzi	-12.3139
istzano	-12.3146
chextz	-12.3147
chexel	-12.3158
chiyati	-12.3164
noho	-12.317
nahatto	-12.3223
howo	-12.3234
chawalic	-12.3237
chicancanoj	-12.3246
Yal	-12.3252
yinoti	-12.3261
chititcano	-12.3267
yinayti	-12.3318
hawocto	-12.3331
hatxumu	-12.3351
sajin	-12.3355
heyinito	-12.336
unlahan	-12.339
chextzala	-12.3407
yalilo	-12.3454
chissay	-12.3472
heyocpaxo	-12.3481
txumiloj	-12.3512
chisnati	-12.3512
chejto	-12.3523
chahpaxico	-12.3524
▁Cat	-12.3543
yetbixa	-12.3558
hawalnipaxo	-12.3565
cheyiti	-12.358
chiwejcha	-12.3596
elpaxico	-12.3597
bajil	-12.3599
ebreo	-12.3604
riscila	-12.3605
Hujeb	-12.3605
chimisje	-12.3605
puerto	-12.3605
▁Anás	-12.3605
▁Balaam	-12.3605
▁Bartolomé	-12.3605
▁Benjamín	-12.3605
▁Chicawxi	-12.3605
▁César	-12.3605
▁Derbe	-12.3605
▁Faraón	-12.3605
▁Genesaret	-12.3605
▁Gomorra	-12.3605
▁Gólgota	-12.3605
▁Hecolomal	-12.3605
▁Jeremías	-12.3605
▁Obed	-12.3605
▁Onésimo	-12.3605
▁Siloé	-12.3605
▁Silvano	-12.3605
ishajlax	-12.3606
wilnipaxojan	-12.3606
▁Nínive	-12.3606
▁Niman	-12.3606
▁Hemam	-12.3606
▁Estéfanas	-12.3606
▁Enoc	-12.3606
wochebalan	-12.3606
▁Lida	-12.3606
▁Tiatira	-12.3606
▁Yanicanic	-12.3606
▁Agar	-12.3606
▁Arimatea	-12.3606
▁Alejandría	-12.3607
▁Augusto	-12.3607
▁Caín	-12.3607
Catawej	-12.3607
▁Heyahawil	-12.3608
cananista	-12.3608
tzalahojab	-12.361
iweti	-12.361
chaben	-12.3631
Tet	-12.3634
▁isDiosaloj	-12.3653
▁Mal	-12.3674
ismalto	-12.3703
howebo	-12.3707
▁Chico	-12.371
icanilo	-12.3711
Chawil	-12.3715
chitopaxo	-12.3768
jacojan	-12.3777
chachay	-12.3799
chalnipaxoj	-12.3819
yabenpaxo	-12.3829
xahancano	-12.3869
taho	-12.3883
chalpaxto	-12.3892
chawato	-12.3944
▁Chistx	-12.3944
awteti	-12.4031
chaẍtzotel	-12.4086
nilti	-12.413
cheyabeni	-12.4132
▁Matat	-12.4206
chalpaxoj	-12.4219
camilo	-12.4245
jabenan	-12.4285
oxebxa	-12.4336
camomon	-12.4383
nanantan	-12.4446
awteni	-12.4504
ujbanic	-12.4553
yichamilo	-12.4563
xawil	-12.4572
lancha	-12.4625
heyanipaxico	-12.4648
chihallaxo	-12.4687
chiwaben	-12.471
són	-12.4724
jutehan	-12.4766
▁Quin	-12.4845
heyija	-12.4997
incuynihan	-12.501
istra	-12.5018
ilicia	-12.5032
irene	-12.5032
bejwe	-12.5032
hecolomal	-12.5034
alacia	-12.5034
alaxojabico	-12.5034
etsaida	-12.5034
filipo	-12.5034
ishitzilo	-12.5034
sión	-12.5034
waxajebxa	-12.5034
salmo	-12.5034
semanahil	-12.5034
mawitijan	-12.5034
yablen	-12.5034
cachanxan	-12.5036
atanael	-12.5037
hallaxojab	-12.5046
chaẍwatojan	-12.5051
istzublico	-12.5053
ispitni	-12.5054
aytam	-12.5055
tzettam	-12.5062
lahweco	-12.5077
mayijcano	-12.5094
cocancanojan	-12.51
aín	-12.5104
hajba	-12.5112
heyahaw	-12.5112
chiwatijan	-12.5129
iscachlax	-12.5231
heyalnipaxo	-12.5273
jalnipaxojan	-12.5329
isli	-12.5338
ida	-12.5394
chialaxcan	-12.5515
himhawayto	-12.5588
yocpaxto	-12.5602
conio	-12.5641
W	-12.5955
Eb	-12.6005
Maẍtaj	-12.6015
Yohta	-12.6089
majabe	-12.6097
chehunba	-12.6194
Awte	-12.6334
istxumilo	-12.647
ijab	-12.6479
ilaxti	-12.6509
yilico	-12.6533
ischahlo	-12.6534
inpaxtojan	-12.6544
chimheyal	-12.6545
checutxba	-12.6567
olwahan	-12.6569
hinnatijan	-12.6571
ishajba	-12.6578
wilti	-12.6598
isnati	-12.6606
jochehan	-12.6613
walnicanojan	-12.6616
weyto	-12.6632
utxban	-12.6653
hucanico	-12.6659
iswalil	-12.6665
vara	-12.6669
diezmo	-12.667
majchen	-12.6671
wehic	-12.6682
lahwo	-12.6683
chitzejtzon	-12.6687
inbejcanojan	-12.6687
zijxan	-12.6692
cobeja	-12.6693
ismilal	-12.6693
yelawil	-12.6694
wilnojan	-12.6695
chicutxi	-12.6696
chijechma	-12.6697
chiwoche	-12.6697
iswejcha	-12.6697
ilaxoti	-12.6697
chaojabilo	-12.6699
inhatzumbe	-12.67
aodicea	-12.67
diácono	-12.67
icodemo	-12.6701
salón	-12.6701
▁Jor	-12.6701
ismuju	-12.6701
muji	-12.6701
▁Bar	-12.6701
chixecnito	-12.6701
etaxoto	-12.6701
iscajpon	-12.6701
libro	-12.6701
xibte	-12.6701
yiẍtan	-12.6701
Eneas	-12.6701
abonohal	-12.6701
abriel	-12.6701
acuẍa	-12.6701
ahnolojan	-12.6701
apadocia	-12.6701
arcángel	-12.6701
arsabás	-12.6701
bahlaxan	-12.6701
biud	-12.6701
cawxencan	-12.6701
chatohla	-12.6701
chejbilinan	-12.6701
chexintohlahan	-12.6701
chexiptzeni	-12.6701
chexmeltzohi	-12.6701
chicawxenico	-12.6701
chichemlipaxo	-12.6701
chihowbican	-12.6701
chimujni	-12.6701
chinbabitojan	-12.6701
chinhechaytojan	-12.6701
chinhenatijan	-12.6701
chinálaxicojan	-12.6701
chiquechmoto	-12.6701
chisjahba	-12.6701
chitirlaxtoj	-12.6701
chiwechmahan	-12.6701
chixunilo	-12.6701
circuncidado	-12.6701
colbilexxa	-12.6701
comujlubal	-12.6701
cornalina	-12.6701
cosaynihan	-12.6701
coyenicanojan	-12.6701
cutxantoco	-12.6701
cuwis	-12.6701
diablohal	-12.6701
doscientos	-12.6701
egión	-12.6701
ericó	-12.6701
esmeralda	-12.6701
esopotamia	-12.6701
etaxnato	-12.6701
etsemaní	-12.6701
freno	-12.6701
hechumpa	-12.6701
hecuychahi	-12.6701
hehunicanico	-12.6701
hepuholo	-12.6701
hetzabnoyojan	-12.6701
hetzicnicanilo	-12.6701
hetzumbe	-12.6701
heyanabxapaxo	-12.6701
hisopo	-12.6701
hoybilon	-12.6701
huncuentan	-12.6701
iladelfia	-12.6701
imeneo	-12.6701
incuynicantojan	-12.6701
inlahbanan	-12.6701
inmulojan	-12.6701
inpajtzenan	-12.6701
inpuhnilojan	-12.6701
inpuhnolojan	-12.6701
intxumnilojan	-12.6701
intzotelninojan	-12.6701
intzujnayojan	-12.6701
isbujni	-12.6701
isholnican	-12.6701
ismohonal	-12.6701
ispaxcanto	-12.6701
ispebani	-12.6701
issincho	-12.6701
issomchato	-12.6701
istirlaxto	-12.6701
istubtento	-12.6701
istzilmocanto	-12.6701
istzilmoyo	-12.6701
istzumbelaxilti	-12.6701
isventanahil	-12.6701
jelapnojan	-12.6701
lampara	-12.6701
leazar	-12.6701
leofas	-12.6701
licenciado	-12.6701
locohojinan	-12.6701
maquinpitnihan	-12.6701
maxetxum	-12.6701
meltzojabico	-12.6701
montebal	-12.6701
morado	-12.6701
mperador	-12.6701
nicolaíta	-12.6701
ochebilex	-12.6701
orazín	-12.6701
osafat	-12.6701
pafrodito	-12.6701
pichlaxico	-12.6701
pohbilayo	-12.6701
quexinsayilojan	-12.6701
quexwawtecojan	-12.6701
quexwiptzenan	-12.6701
quinheyalnilojan	-12.6701
rispo	-12.6701
ristianohal	-12.6701
rquipo	-12.6701
sabactani	-12.6701
sajbipaxiloj	-12.6701
smirna	-12.6701
sutsun	-12.6701
testamento	-12.6701
tzablaxoyo	-12.6701
tzublipaxico	-12.6701
ublio	-12.6701
uenos	-12.6701
usmij	-12.6701
wanipaxtojan	-12.6701
wayique	-12.6701
wehayojan	-12.6701
wichamilan	-12.6701
xainyelojan	-12.6701
yaẍniloj	-12.6701
yitzitzibican	-12.6701
zequías	-12.6701
érgamo	-12.6701
óstenes	-12.6701
▁Abías	-12.6701
▁Agabo	-12.6701
▁Berenice	-12.6701
▁Demas	-12.6701
▁Erasto	-12.6701
▁Esaú	-12.6701
▁Fares	-12.6701
▁Fenicia	-12.6701
▁Iptze	-12.6701
▁Josué	-12.6701
▁Justo	-12.6701
▁Lisias	-12.6701
▁Manasés	-12.6701
▁Mileto	-12.6701
▁Nawepaxti	-12.6701
▁Onesíforo	-12.6701
▁Pisidia	-12.6701
▁Ponto	-12.6701
▁Rebeca	-12.6701
▁Salmón	-12.6701
▁Samuel	-12.6701
▁Sardis	-12.6701
▁Zabulón	-12.6701
▁Zorobabel	-12.6701
ajtzewe	-12.6701
antorcha	-12.6701
cabwihalxa	-12.6701
chexmeltzopaxto	-12.6701
chinetlihan	-12.6701
chinheyacojan	-12.6701
chitxihni	-12.6701
chiwilicojan	-12.6701
colayti	-12.6701
cotxuman	-12.6701
cotzalapaxojan	-12.6701
cowahnihan	-12.6701
encanilto	-12.6701
hecutxbancan	-12.6701
hiwalnipaxtojan	-12.6701
iscajlecan	-12.6701
ishowayo	-12.6701
islabanayto	-12.6701
istzicobtan	-12.6701
quincuywahan	-12.6701
txihlaxayo	-12.6701
usnicanto	-12.6701
wabenpaxojan	-12.6701
xaquexhitzico	-12.6701
xulna	-12.6701
yahbeta	-12.6701
yetaxcanto	-12.6701
yichtax	-12.6701
yinipaxayo	-12.6701
alawena	-12.6701
chiehpaxo	-12.6701
chinhulpaxojan	-12.6701
intzabayojan	-12.6701
islahbanayto	-12.6701
mujuj	-12.6701
pichbilico	-12.6701
quinissaynihan	-12.6701
▁Aram	-12.6701
cachchejni	-12.6701
chetzabayoj	-12.6701
colahnico	-12.6701
colwahojab	-12.6701
inpaxtijan	-12.6701
ishojo	-12.6701
ojbilcanilo	-12.6701
ojnayti	-12.6701
wijlenan	-12.6701
yiptzeli	-12.6701
Yeltoni	-12.6701
chachixli	-12.6701
chexetani	-12.6701
chexyiptze	-12.6701
chijapaxicto	-12.6701
hatohlan	-12.6701
isjebla	-12.6701
issaynoyo	-12.6701
isxecnito	-12.6701
jalnilojan	-12.6701
manyijehan	-12.6701
ufo	-12.6701
waxajlan	-12.6701
▁Esta	-12.6701
ahbelom	-12.6701
lemla	-12.6701
almuh	-12.6701
chihayeni	-12.6701
hajlohi	-12.6701
maxawutecoj	-12.6701
chabilxayto	-12.6701
chibuchwahi	-12.6701
cohunban	-12.6701
maxawabe	-12.6701
▁Choche	-12.6701
manlahanojan	-12.6701
efas	-12.6701
ijbilico	-12.6701
ispenayo	-12.6701
ispojojal	-12.6701
lehno	-12.6701
mabelwican	-12.6701
nohnayto	-12.6701
▁Neftalí	-12.6701
eunuco	-12.6701
hawespada	-12.6701
inbejan	-12.6701
uybe	-12.6701
chexutelaxi	-12.6701
chinilchahan	-12.6701
intratohan	-12.6701
▁Miguel	-12.6701
bacbilico	-12.6701
heyilwenan	-12.6701
ischilnilo	-12.6701
inaí	-12.6701
numna	-12.6701
bilachilo	-12.6701
chicolahicojan	-12.6701
dos	-12.6701
chiwucanojan	-12.6701
wichicojan	-12.6701
hawictaj	-12.6701
heyilwelaxi	-12.6701
jetbihan	-12.6701
cocartahan	-12.6701
aynaxato	-12.6701
chexabenico	-12.6701
chulbilayo	-12.6701
hepahni	-12.6701
japnipaxojan	-12.6701
chiconahuln	-12.6701
inpaxicojan	-12.6701
mujbil	-12.6701
lobehal	-12.6701
ojlaxayti	-12.6701
upbal	-12.6701
upu	-12.6701
▁Wajeb	-12.6701
chishoj	-12.6701
wángelan	-12.6701
yichipaxti	-12.6701
▁Esrom	-12.6701
chicawxocan	-12.6701
lesen	-12.6701
insoldadohan	-12.6701
iswahno	-12.6701
onnacan	-12.6701
chewla	-12.6701
chisubchapaxo	-12.6701
isdiosaloj	-12.6701
juninalan	-12.6701
inchahnipaxojan	-12.6701
jetbipaxo	-12.6701
jetbixa	-12.6701
chicolwahi	-12.6701
hayebtam	-12.6701
cheyeloj	-12.6701
isbalnico	-12.6701
chenaloj	-12.6701
chietalaxto	-12.6701
yalnahti	-12.6701
jalnojan	-12.6701
iscajwa	-12.6701
nohayto	-12.6701
chancanocan	-12.6701
▁Teófilo	-12.6701
▁Trófimo	-12.6701
quexyilnoj	-12.6701
chexalaxto	-12.6701
yilchaloj	-12.6701
xajaytojan	-12.6701
jinitojan	-12.6701
yamahto	-12.6701
hewayi	-12.6701
chawiyo	-12.6701
ispohlaxcan	-12.6701
tzimi	-12.6701
chinhawalan	-12.6702
chextecha	-12.6702
alaxayoj	-12.6702
insaya	-12.6702
▁Tiberias	-12.6702
chexxahann	-12.6702
chitzebi	-12.6702
▁Areópago	-12.6702
▁Claudio	-12.6702
yahnato	-12.6702
yutecanayo	-12.6702
yalaxoco	-12.6702
majwan	-12.6702
ischejtijan	-12.6702
oboam	-12.6702
chicoyehan	-12.6702
olotx	-12.6702
heyichicoj	-12.6702
nachaojabilo	-12.6702
uyayojan	-12.6702
ambale	-12.6702
iquem	-12.6702
istxohal	-12.6702
checayen	-12.6702
chincachan	-12.6702
aypaxayto	-12.6702
liseo	-12.6702
inyahnihan	-12.6702
chicachni	-12.6703
quexintucle	-12.6703
inwacaxan	-12.6703
chexcolchacanoj	-12.6703
ultopaxoj	-12.6703
cuywe	-12.6703
macachanico	-12.6703
isẍila	-12.6703
roas	-12.6703
istxow	-12.6704
chiehi	-12.6704
Elí	-12.6704
hawapni	-12.6704
icanilti	-12.6704
himhawoche	-12.6704
intxahan	-12.6704
olwelo	-12.6704
elojabico	-12.6704
irlapaxoj	-12.6704
yawtenilti	-12.6705
iswejchacan	-12.6705
yelpaxti	-12.6705
cachwilnojan	-12.6705
leyanilto	-12.6705
isbisni	-12.6705
xayetato	-12.6705
cutxbalaxico	-12.6705
bahwahi	-12.6705
opotaj	-12.6705
yilaxoti	-12.6705
cuywina	-12.6705
isbatxobal	-12.6705
chahtoj	-12.6705
▁Nahat	-12.6705
chiwijan	-12.6706
hawiniti	-12.6706
quintitan	-12.6706
upno	-12.6706
acantoj	-12.6706
cobelan	-12.6706
cotxahan	-12.6706
ojexcanoj	-12.6707
cocachan	-12.6707
yarpa	-12.6707
ahcanocan	-12.6707
yilaxahto	-12.6707
chistxumu	-12.6707
hajlocanocan	-12.6707
chischab	-12.6707
xahto	-12.6707
hialaxpaxico	-12.6708
▁wepaxojan	-12.6708
himheyoche	-12.6708
encanayo	-12.6708
pixe	-12.6708
ebabil	-12.6708
hewojab	-12.6708
anbiloj	-12.6708
chichichon	-12.6708
imeto	-12.6709
chepohilo	-12.6709
licanojan	-12.6709
iblom	-12.6709
ambalo	-12.6709
ibtijan	-12.6709
yalaxayto	-12.671
hawawten	-12.671
istzumben	-12.671
yichecan	-12.6711
chalnati	-12.6711
yalaxpaxico	-12.6712
yawtemal	-12.6712
yebalaxilo	-12.6712
hintxumilojan	-12.6712
chimistxum	-12.6712
chiahwano	-12.6712
quexconanitijan	-12.6712
cachbilon	-12.6713
chimisbej	-12.6713
chiyahnican	-12.6713
chibilican	-12.6713
mayati	-12.6714
chalaxto	-12.6714
chexinbejcanojan	-12.6714
issayomal	-12.6714
chachxiwi	-12.6715
aycantoj	-12.6715
ishucub	-12.6715
chawito	-12.6716
yinipaxto	-12.6716
chaẍinchejtojan	-12.6716
▁pat	-12.6716
cachissayni	-12.6717
ibli	-12.6717
cachwohtajojan	-12.6718
quinbeyan	-12.6719
ujaniloxa	-12.6719
titnajon	-12.672
ubacano	-12.672
chachcachwa	-12.6721
chelahweco	-12.6721
yuva	-12.6724
chijayojan	-12.6725
nchejan	-12.6726
conanihan	-12.6727
cinco	-12.6727
isjo	-12.6728
quexisxahann	-12.6728
cochn	-12.6729
chicotxumu	-12.6729
ismonten	-12.6731
Nananta	-12.6732
isvara	-12.6733
wetbiho	-12.6733
isyebalo	-12.6733
cachwayi	-12.6735
▁Jalawe	-12.6736
insayic	-12.6739
yilomal	-12.6741
quexwanitojan	-12.6741
chicolahico	-12.6742
chaẍcolwa	-12.6743
majayto	-12.6745
yachno	-12.6746
iscawni	-12.6747
etli	-12.6749
isxew	-12.6749
chicutxico	-12.6749
quinxiwan	-12.6749
yanocto	-12.675
islimeta	-12.6751
cabexan	-12.6751
ismeltzopaxto	-12.6753
iswinajli	-12.6754
isnahatil	-12.6754
issayilo	-12.6755
macamna	-12.6755
yilaxilto	-12.6758
quexislin	-12.6759
chachejto	-12.6759
hexewi	-12.6759
chaẍelicoj	-12.6762
jalnicanojan	-12.6763
cawbo	-12.6763
islotzen	-12.6763
▁Howeb	-12.6764
wuman	-12.6767
iscaret	-12.6768
isnachalo	-12.6769
manhul	-12.6771
Oche	-12.6774
hepatrón	-12.6774
cheyucanoj	-12.6776
mayij	-12.6783
islanza	-12.6786
chachocnico	-12.6786
chitajilo	-12.6789
chinanon	-12.6791
chilahwo	-12.6796
quinisbejtzo	-12.6799
cheyawte	-12.68
walaxcan	-12.68
chexchahni	-12.68
chinilaxcan	-12.6803
heyochecoj	-12.6806
chabeybaln	-12.6814
cuywacanto	-12.6814
chewah	-12.6815
ismohyilal	-12.6817
winajlom	-12.6818
heyetbin	-12.682
ayexoco	-12.6825
yoxeb	-12.6826
cheyijepaxoj	-12.6827
matxumchalo	-12.683
ayexocto	-12.683
chiyilico	-12.6843
istzabico	-12.685
chicuylax	-12.685
quexwilnihan	-12.6854
chitij	-12.6856
chitxumnilo	-12.6865
chehel	-12.6873
cheyapaxico	-12.6873
chicoman	-12.6882
chinelan	-12.6886
hajon	-12.6886
quinocan	-12.6887
chechayto	-12.6892
awtebilinan	-12.6901
inhama	-12.6902
wetpaxojan	-12.6902
chinwayan	-12.6927
chexxiwcan	-12.6927
tacojab	-12.6939
occanto	-12.694
heyetanto	-12.6957
tzehla	-12.6961
chexwalan	-12.6963
chiahcano	-12.6971
chexyute	-12.6972
yinilto	-12.6975
hawul	-12.7023
nohnaco	-12.7051
Abe	-12.7053
yalilto	-12.7059
cawxolo	-12.7116
▁mahuli	-12.7135
aynajinxa	-12.7213
yintajilo	-12.7251
Halilo	-12.727
hiscajle	-12.7338
tzotelilti	-12.7596
cutxbanayo	-12.761
johta	-12.7643
lbilcano	-12.7733
isaí	-12.7879
bisbil	-12.7907
ilaxolo	-12.8133
bejcano	-12.8162
Yije	-12.8487
hehinc	-12.8548
tzublico	-12.8673
pitni	-12.8673
itna	-12.8698
lejandro	-12.8699
ristarco	-12.8699
lfeo	-12.8699
íquico	-12.87
arso	-12.8701
adara	-12.8701
anfilia	-12.8701
eelzebú	-12.8701
orcas	-12.8701
hitzojon	-12.8701
ochewe	-12.8702
anuel	-12.8702
chawiptze	-12.8703
chimtxumchalo	-12.8711
jabenpaxoj	-12.8741
wtebilexpaxo	-12.8793
Quinya	-12.8979
ohtapaxoj	-12.9151
▁Hachcachan	-12.9913
tatías	-13.0038
ochebalan	-13.0543
Txah	-13.0695
Hajlojab	-13.0731
hewchotan	-13.1057
wohtaj	-13.1069
▁inDiosal	-13.1118
pichnico	-13.1174
jaltam	-13.1187
▁coDios	-13.1189
ispahni	-13.1195
▁Filipo	-13.1198
▁Salmo	-13.1198
▁Aqui	-13.1199
lejandría	-13.1199
rimatea	-13.1199
ugusto	-13.1199
gar	-13.1199
Wuẍta	-13.12
stéfanas	-13.12
ínive	-13.1201
▁Claud	-13.1201
nésimo	-13.1201
araón	-13.1201
artolomé	-13.1201
conabawetij	-13.1201
enesaret	-13.1201
enjamín	-13.1201
erbe	-13.1201
eremías	-13.1201
ishowbican	-13.1201
isjahbanayo	-13.1201
nardo	-13.1201
omorra	-13.1201
wohtaxahan	-13.1201
ólgota	-13.1201
▁Amón	-13.1201
▁Aser	-13.1201
▁Azor	-13.1201
▁Bitinia	-13.1201
▁Canaán	-13.1201
▁Chawiptzenpaxo	-13.1201
▁Daniel	-13.1201
▁Emanuel	-13.1201
▁Josías	-13.1201
▁Lucio	-13.1201
▁Madián	-13.1201
▁Matías	-13.1201
▁Melqui	-13.1201
▁Mesías	-13.1201
▁Pafos	-13.1201
▁Puertos	-13.1201
▁Tadeo	-13.1201
meltzan	-13.1201
rabí	-13.1201
saywelo	-13.1201
isyebabilo	-13.1201
▁Acaz	-13.1201
▁Echmabil	-13.1201
▁Sadoc	-13.1201
▁Ishajlax	-13.1201
saywej	-13.1201
▁Lahanex	-13.1201
istzabnipaxico	-13.1201
macachcawxican	-13.1201
▁Cananista	-13.1201
yanicanicto	-13.1201
▁Saywe	-13.1202
▁Ishajni	-13.1202
▁Heyahaw	-13.1202
aypaxayo	-13.1203
yuhojab	-13.1209
▁Cheyalnipax	-13.1214
▁How	-13.1251
iatira	-13.1258
Isyije	-13.1896
awtelo	-13.39
bed	-13.4301
mujnocano	-13.4376
cutxico	-13.4409
pohilo	-13.444
jechmahan	-13.4444
hucub	-13.4502
pitnilto	-13.4503
isbujil	-13.4515
tzumbeni	-13.4516
somchaho	-13.4518
chiitzitzbi	-13.4531
laudio	-13.4532
reópago	-13.4532
eófilo	-13.4533
rófimo	-13.4533
iberias	-13.4533
srom	-13.4533
cuywomoj	-13.4534
iguel	-13.4534
eftalí	-13.4534
chejlaxtij	-13.4534
usalén	-13.4534
hopquiẍtan	-13.4534
nesíforo	-13.4534
acaniltijan	-13.4534
aceituna	-13.4534
agau	-13.4534
aguila	-13.4534
alavera	-13.4534
almanuta	-13.4534
alombican	-13.4534
ambepaxtojan	-13.4534
ambres	-13.4534
amotracia	-13.4534
annolojan	-13.4534
aquel	-13.4534
arciso	-13.4534
armenas	-13.4534
arroba	-13.4534
asufre	-13.4534
atallón	-13.4534
atmos	-13.4534
atrobas	-13.4534
ayinxacojan	-13.4534
aynahotoj	-13.4534
aynamicanto	-13.4534
aytzenolo	-13.4534
balboni	-13.4534
barril	-13.4534
bejtzobilxa	-13.4534
bejtzolaxan	-13.4534
bejtzolaxto	-13.4534
bejtzonico	-13.4534
bejtzonilo	-13.4534
bejwepaxcano	-13.4534
belwojon	-13.4534
biatar	-13.4534
buchwawompaxo	-13.4534
bulbon	-13.4534
buyna	-13.4534
cachintuclenojan	-13.4534
cachjilnojan	-13.4534
cachwawtenojan	-13.4534
cachyabilnipaxoj	-13.4534
cajlebahil	-13.4534
cajohexpaxoj	-13.4534
cajyolyon	-13.4534
camnajexilo	-13.4534
camnajexxa	-13.4534
camnajinxalojan	-13.4534
capitulo	-13.4534
caẍistzabnoyoj	-13.4534
chachcuyni	-13.4534
chachmeltzohi	-13.4534
chachtohi	-13.4534
chachtzotelnato	-13.4534
chacolcanilti	-13.4534
chacuycanoj	-13.4534
chacuycanto	-13.4534
chasayiloj	-13.4534
chawebato	-13.4534
chawinipaxocan	-13.4534
chaẍinnatijan	-13.4534
chaẍmaynoj	-13.4534
chebuch	-13.4534
checuylecanto	-13.4534
chejbilojinan	-13.4534
chenapaxtij	-13.4534
chewbo	-13.4534
chexbahlaxi	-13.4534
chexbuchlax	-13.4534
chexcamcantoj	-13.4534
chexchahlaxictoj	-13.4534
chexcotuclehan	-13.4534
chexcuychahi	-13.4534
chexehpaxoj	-13.4534
chexhatxlaxto	-13.4534
chexhowbi	-13.4534
chexibtzeni	-13.4534
chexinbejtzohan	-13.4534
chexinchahan	-13.4534
chexincolan	-13.4534
chexincolilojan	-13.4534
chexinnahuln	-13.4534
chexinnatijan	-13.4534
chexisabilo	-13.4534
chexistzumbenilo	-13.4534
chexmalenpaxo	-13.4534
chexpohli	-13.4534
chexpohnicanilo	-13.4534
chexsiquilo	-13.4534
chextocanicoj	-13.4534
chextzejla	-13.4534
chextzumbelaxilo	-13.4534
chexálaxico	-13.4534
cheyechmale	-13.4534
cheẍyeni	-13.4534
chibahwapaxo	-13.4534
chibejlaxayto	-13.4534
chibejlaxcanoj	-13.4534
chibuchlax	-13.4534
chibutnitan	-13.4534
chicachnacan	-13.4534
chicawxento	-13.4534
chichahlaxicto	-13.4534
chichahlo	-13.4534
chicobuj	-13.4534
chicocolle	-13.4534
chicolnilti	-13.4534
chiechmali	-13.4534
chihitzto	-13.4534
chihoyxipaxico	-13.4534
chiichambiloj	-13.4534
chiiptzelipaxo	-13.4534
chiitzitzibican	-13.4534
chijebatoj	-13.4534
chimajicano	-13.4534
chimajwahi	-13.4534
chimchabepaxocan	-13.4534
chimheyapaxayto	-13.4534
chimmajwa	-13.4534
chimquextzala	-13.4534
chimwabetojan	-13.4534
chinalaxictojan	-13.4534
chincawxecojan	-13.4534
chinchahnaytojan	-13.4534
chinchahpaxojan	-13.4534
chinchejpaxojan	-13.4534
chincolilojan	-13.4534
chinehayojan	-13.4534
chinhabejcanojan	-13.4534
chinhanahuln	-13.4534
chinhatzaban	-13.4534
chinheyochehan	-13.4534
chinheyutehan	-13.4534
chinhullemnahan	-13.4534
chinilchahojan	-13.4534
chinisyahpaxojan	-13.4534
chinluyluncan	-13.4534
chinnapaxtijan	-13.4534
chinpebaltijan	-13.4534
chinsiquilojan	-13.4534
chipajtzeno	-13.4534
chipebalax	-13.4534
chipohli	-13.4534
chipuhlaxpaxo	-13.4534
chisajbicano	-13.4534
chisajbinaloj	-13.4534
chisbatxilti	-13.4534
chishitzto	-13.4534
chisholicto	-13.4534
chislabayto	-13.4534
chisomchaocan	-13.4534
chisomchato	-13.4534
chispeban	-13.4534
chispole	-13.4534
chispolto	-13.4534
chispulnipaxocan	-13.4534
chissomchahocan	-13.4534
chistzujba	-13.4534
chisxecleto	-13.4534
chitejlaxcamo	-13.4534
chitenxi	-13.4534
chitohlalax	-13.4534
chitohlano	-13.4534
chitohlawi	-13.4534
chitoholbico	-13.4534
chitxihlaxico	-13.4534
chitxumli	-13.4534
chitzantelaxi	-13.4534
chitzilmoto	-13.4534
chixobxonoj	-13.4534
chiyaxbilo	-13.4534
chíjato	-13.4534
circuncisíon	-13.4534
cobejnicanojan	-13.4534
cobejtzon	-13.4534
cocamleloj	-13.4534
cochahnayojan	-13.4534
cocuychahi	-13.4534
cohoyanil	-13.4534
coreligión	-13.4534
cosaynilojan	-13.4534
cosomnito	-13.4534
cotohlan	-13.4534
cotzabayojan	-13.4534
crisoprasa	-13.4534
cristal	-13.4534
crisólito	-13.4534
cunlum	-13.4534
cutxbaweti	-13.4534
cáwxeweco	-13.4534
céldama	-13.4534
cólohi	-13.4534
cótxquiltan	-13.4534
diaconisa	-13.4534
doctor	-13.4534
domingo	-13.4534
dramitio	-13.4534
driático	-13.4534
dumea	-13.4534
edeón	-13.4534
editerráneo	-13.4534
edrón	-13.4534
efté	-13.4534
egio	-13.4534
egundo	-13.4534
elaxcaniltojan	-13.4534
elefante	-13.4534
eleucia	-13.4534
epicúrio	-13.4534
ercurio	-13.4534
ermes	-13.4534
ermógenes	-13.4534
erodión	-13.4534
erug	-13.4534
estoico	-13.4534
estro	-13.4534
etaxcantoj	-13.4534
etaxnalo	-13.4534
etloco	-13.4534
ezabel	-13.4534
eápolis	-13.4534
fenicia	-13.4534
fraín	-13.4534
frica	-13.4534
habuchlaxi	-13.4534
hajexxampaxoj	-13.4534
halaleel	-13.4534
hamujlobal	-13.4534
hapahnito	-13.4534
hapajtzen	-13.4534
hapajtzoyo	-13.4534
hapohnican	-13.4534
hapohnilo	-13.4534
hasaynito	-13.4534
hatxihayoj	-13.4534
hawanipaxicto	-13.4534
hawanoyto	-13.4534
hayébaloj	-13.4534
haẍincolan	-13.4534
hebejnicanojan	-13.4534
hebuchwahi	-13.4534
hecajtzacan	-13.4534
hecawxenocano	-13.4534
hechejnito	-13.4534
hecollaxcanoj	-13.4534
hecuycano	-13.4534
hehelnicano	-13.4534
hemajalo	-13.4534
hemujlubal	-13.4534
hepohlencano	-13.4534
hepohli	-13.4534
hepohnilo	-13.4534
hesajbicano	-13.4534
heteyelen	-13.4534
hetzantencan	-13.4534
hetzantenpaxo	-13.4534
hetzujico	-13.4534
hexpujnahocantoj	-13.4534
hexxataxcapaxo	-13.4534
heyallenati	-13.4534
heyebantojan	-13.4534
hicoyepaxilojan	-13.4534
hihoylaxayo	-13.4534
hilanayto	-13.4534
hilanejayo	-13.4534
himnos	-13.4534
hipexcano	-13.4534
hitzanojexico	-13.4534
hitznajexico	-13.4534
hitznicoj	-13.4534
hobomcan	-13.4534
holquiẍtaxan	-13.4534
hopchabil	-13.4534
hopchan	-13.4534
hoyanxaco	-13.4534
hucbanico	-13.4534
hucxi	-13.4534
hulujabto	-13.4534
hunbitax	-13.4534
ichencanocan	-13.4534
icolás	-13.4534
icoyenipaxilojan	-13.4534
icópolis	-13.4534
ierápolis	-13.4534
iglesia	-13.4534
ijbalomex	-13.4534
ijmoto	-13.4534
ijnicanocan	-13.4534
ijtzom	-13.4534
ilólogo	-13.4534
incawxenicojan	-13.4534
inchuquilojan	-13.4534
incolnolojan	-13.4534
inhacxicojan	-13.4534
inhacxitojan	-13.4534
inlonitojan	-13.4534
inluylunpaxocan	-13.4534
inmujcano	-13.4534
inmujcanto	-13.4534
inmujlubalan	-13.4534
inoltojan	-13.4534
inpixanan	-13.4534
inpohnihan	-13.4534
inpohniltojan	-13.4534
inpohnitojan	-13.4534
insaynayojan	-13.4534
insaynihan	-13.4534
insaynilojan	-13.4534
intohlanan	-13.4534
intxumulojan	-13.4534
intzablaxayojan	-13.4534
inxactijan	-13.4534
inxequiltijan	-13.4534
inyenicanojan	-13.4534
ionisio	-13.4534
irenio	-13.4534
isbejmicano	-13.4534
isbilxalto	-13.4534
isbosnilo	-13.4534
isbuchlax	-13.4534
isbuchlen	-13.4534
iscampamento	-13.4534
ischahnaytojan	-13.4534
ischejlaxayti	-13.4534
ischejlaxcanto	-13.4534
ischembanil	-13.4534
iscolabayti	-13.4534
ishatxacanilto	-13.4534
ishatxlaxto	-13.4534
ishatxnilti	-13.4534
ishilbanayto	-13.4534
ishitzaco	-13.4534
ishitznico	-13.4534
ishoblaxcan	-13.4534
ishojayo	-13.4534
isholayo	-13.4534
ishosnilo	-13.4534
ishuccha	-13.4534
ishunicanico	-13.4534
isjahbanoyo	-13.4534
isjobnoyo	-13.4534
islebayo	-13.4534
islohnoto	-13.4534
isluyluncan	-13.4534
ismajipaxo	-13.4534
ismalcanto	-13.4534
ismelyaẍil	-13.4534
ñ	-14.0434
U	-14.0435
Q	-14.0436
(	-14.0437
‘	-14.0438
Z	-14.0439
X	-14.044
R	-14.0441
F	-14.0442
G	-14.0443
B	-14.0444
¡	-14.0445
v	-14.0446
ó	-14.0447
á	-14.0448
“	-14.0449
S	-14.045
P	-14.0451
é	-14.0452
¿	-14.0453
ú	-14.0454
―	-14.0455
J	-14.0456
D	-14.0457
ẍ	-14.0458
x	-14.0459
