<pad>	0
</s>	0
<unk>	0
▁t	-0
▁th	-1
▁a	-2
in	-3
▁the	-4
on	-5
re	-6
at	-7
en	-8
is	-9
▁o	-10
er	-11
▁w	-12
▁s	-13
▁c	-14
it	-15
ion	-16
or	-17
an	-18
▁p	-19
es	-20
▁of	-21
▁in	-22
▁to	-23
▁an	-24
▁f	-25
▁b	-26
ro	-27
al	-28
▁and	-29
ed	-30
ing	-31
ar	-32
▁m	-33
ou	-34
ent	-35
ic	-36
▁re	-37
▁h	-38
▁d	-39
le	-40
om	-41
ve	-42
▁n	-43
st	-44
▁be	-45
▁I	-46
▁is	-47
ct	-48
▁that	-49
▁e	-50
il	-51
ation	-52
pe	-53
ly	-54
as	-55
▁E	-56
▁on	-57
ment	-58
▁for	-59
ot	-60
▁T	-61
im	-62
▁wh	-63
ut	-64
▁l	-65
▁we	-66
id	-67
se	-68
ur	-69
▁pro	-70
▁M	-71
ort	-72
▁C	-73
▁Th	-74
ol	-75
▁g	-76
uro	-77
▁con	-78
ce	-79
▁al	-80
▁it	-81
▁Euro	-82
▁Europe	-83
res	-84
un	-85
et	-86
ul	-87
ver	-88
▁this	-89
port	-90
▁are	-91
ra	-92
ld	-93
ig	-94
▁P	-95
▁de	-96
▁as	-97
▁ha	-98
ow	-99
ith	-100
omm	-101
ies	-102
▁S	-103
▁st	-104
ate	-105
▁with	-106
ill	-107
ch	-108
ould	-109
▁European	-110
ir	-111
▁ne	-112
▁not	-113
▁The	-114
▁have	-115
em	-116
▁su	-117
sion	-118
op	-119
ity	-120
oun	-121
ad	-122
ive	-123
ay	-124
us	-125
ke	-126
ble	-127
th	-128
ers	-129
▁A	-130
ore	-131
▁v	-132
ci	-133
▁ex	-134
os	-135
ter	-136
ich	-137
▁im	-138
ant	-139
▁will	-140
ust	-141
ess	-142
ia	-143
▁which	-144
▁y	-145
▁Comm	-146
▁by	-147
igh	-148
▁en	-149
ect	-150
▁sh	-151
ain	-152
▁W	-153
▁r	-154
if	-155
qu	-156
ge	-157
▁-	-158
ission	-159
ber	-160
tr	-161
▁ag	-162
ere	-163
iv	-164
▁res	-165
▁has	-166
est	-167
art	-168
um	-169
am	-170
our	-171
▁com	-172
so	-173
▁at	-174
▁le	-175
▁U	-176
▁Commission	-177
ions	-178
▁all	-179
ight	-180
ure	-181
▁or	-182
▁se	-183
resid	-184
und	-185
▁wor	-186
▁also	-187
▁Mr	-188
pp	-189
▁Presid	-190
ud	-191
▁would	-192
rom	-193
ff	-194
od	-195
▁so	-196
ie	-197
ates	-198
and	-199
▁EU	-200
▁pol	-201
el	-202
ist	-203
▁(	-204
end	-205
▁Un	-206
ard	-207
▁reg	-208
▁Mem	-209
▁int	-210
pport	-211
cial	-212
▁our	-213
▁St	-214
ac	-215
▁me	-216
ations	-217
very	-218
▁part	-219
con	-220
▁coun	-221
▁from	-222
▁F	-223
▁can	-224
▁President	-225
▁should	-226
▁there	-227
up	-228
▁do	-229
ree	-230
▁ad	-231
▁We	-232
▁2	-233
ult	-234
▁ta	-235
▁ch	-236
use	-237
▁countr	-238
vel	-239
▁In	-240
▁G	-241
ue	-242
▁am	-243
arl	-244
▁must	-245
▁Member	-246
▁but	-247
▁B	-248
▁Union	-249
▁H	-250
▁need	-251
▁go	-252
arlia	-253
arliament	-254
ally	-255
▁ab	-256
ans	-257
lo	-258
du	-259
▁inc	-260
all	-261
▁fa	-262
▁li	-263
ous	-264
▁R	-265
▁you	-266
ren	-267
▁report	-268
reat	-269
▁It	-270
▁States	-271
cc	-272
▁been	-273
ome	-274
▁imp	-275
▁ma	-276
ance	-277
ther	-278
ire	-279
ish	-280
ary	-281
ments	-282
▁more	-283
ab	-284
▁co	-285
out	-286
▁Parliament	-287
▁tr	-288
king	-289
▁import	-290
▁dis	-291
▁fin	-292
▁us	-293
gh	-294
▁like	-295
▁their	-296
▁cont	-297
oc	-298
▁j	-299
able	-300
▁right	-301
▁its	-302
▁comm	-303
ast	-304
ens	-305
▁20	-306
▁L	-307
▁was	-308
▁un	-309
▁who	-310
▁prop	-311
conom	-312
ical	-313
ime	-314
ial	-315
▁polic	-316
gy	-317
▁very	-318
ction	-319
▁these	-320
▁qu	-321
tern	-322
▁This	-323
ib	-324
▁comp	-325
▁app	-326
ational	-327
▁pl	-328
▁cons	-329
▁pe	-330
fore	-331
cy	-332
ress	-333
▁cr	-334
▁D	-335
ong	-336
▁bec	-337
▁support	-338
▁econom	-339
iti	-340
▁countries	-341
▁pr	-342
ition	-343
▁he	-344
pt	-345
ities	-346
▁work	-347
▁conc	-348
ark	-349
ution	-350
▁1	-351
ause	-352
age	-353
▁pos	-354
itt	-355
ople	-356
▁bet	-357
▁str	-358
▁man	-359
get	-360
▁one	-361
▁important	-362
velop	-363
▁O	-364
her	-365
▁eff	-366
▁they	-367
▁po	-368
lic	-369
cil	-370
orm	-371
ll	-372
ise	-373
▁ind	-374
ear	-375
▁pre	-376
▁other	-377
▁new	-378
▁propos	-379
▁than	-380
ces	-381
▁people	-382
ose	-383
▁out	-384
ject	-385
▁Coun	-386
pect	-387
ign	-388
▁vot	-389
▁agree	-390
▁Council	-391
ence	-392
▁acc	-393
ility	-394
ated	-395
▁spe	-396
▁time	-397
▁about	-398
ide	-399
ever	-400
▁und	-401
▁policy	-402
▁exp	-403
one	-404
▁mo	-405
▁act	-406
▁my	-407
ord	-408
arket	-409
▁ra	-410
ice	-411
▁tra	-412
▁develop	-413
int	-414
▁partic	-415
▁only	-416
ag	-417
▁dec	-418
ip	-419
ible	-420
▁N	-421
ular	-422
▁again	-423
▁because	-424
ep	-425
▁year	-426
▁under	-427
og	-428
cess	-429
ced	-430
▁ob	-431
▁leg	-432
ap	-433
ms	-434
ack	-435
form	-436
▁iss	-437
▁rec	-438
▁prov	-439
▁trans	-440
▁up	-441
▁market	-442
are	-443
▁sa	-444
ase	-445
owever	-446
ern	-447
we	-448
ures	-449
▁what	-450
ub	-451
ach	-452
erv	-453
ative	-454
▁economic	-455
lear	-456
▁em	-457
ugh	-458
▁finan	-459
fic	-460
ious	-461
▁dem	-462
str	-463
ieve	-464
▁cl	-465
ons	-466
lud	-467
▁rel	-468
ine	-469
▁op	-470
ink	-471
ating	-472
▁ev	-473
ian	-474
ween	-475
ention	-476
▁particular	-477
▁k	-478
▁between	-479
▁rights	-480
irst	-481
▁them	-482
▁proposal	-483
▁gro	-484
uman	-485
act	-486
▁produ	-487
resent	-488
▁take	-489
▁now	-490
eren	-491
irect	-492
▁into	-493
ues	-494
▁no	-495
ee	-496
me	-497
itiz	-498
ame	-499
▁such	-500
xt	-501
ert	-502
▁citiz	-503
▁polit	-504
▁fund	-505
eration	-506
rough	-507
▁those	-508
▁intern	-509
▁inv	-510
▁make	-511
der	-512
day	-513
▁if	-514
▁some	-515
ergy	-516
ural	-517
▁deb	-518
▁therefore	-519
▁bel	-520
tect	-521
ency	-522
▁200	-523
▁proble	-524
ace	-525
▁ter	-526
▁per	-527
▁resp	-528
ak	-529
▁ro	-530
yst	-531
▁clear	-532
▁when	-533
feren	-534
ade	-535
ors	-536
ives	-537
▁say	-538
▁see	-539
▁citizens	-540
▁financial	-541
ri	-542
stit	-543
ystem	-544
▁'	-545
▁concern	-546
▁sit	-547
▁human	-548
ific	-549
▁any	-550
▁energy	-551
ards	-552
▁dif	-553
▁fact	-554
ple	-555
▁over	-556
▁disc	-557
▁includ	-558
▁te	-559
ks	-560
now	-561
▁protect	-562
▁think	-563
▁social	-564
▁against	-565
ublic	-566
▁situ	-567
▁incre	-568
vern	-569
▁prog	-570
de	-571
iew	-572
ual	-573
▁chan	-574
▁As	-575
▁being	-576
▁many	-577
▁want	-578
▁first	-579
ised	-580
ving	-581
▁good	-582
low	-583
lement	-584
▁ens	-585
▁just	-586
▁political	-587
▁cris	-588
▁meas	-589
sel	-590
olution	-591
▁were	-592
▁country	-593
▁point	-594
unity	-595
▁system	-596
▁sub	-597
▁requ	-598
pl	-599
▁bas	-600
lect	-601
▁add	-602
▁appro	-603
▁believe	-604
rat	-605
rit	-606
ision	-607
ulation	-608
▁through	-609
opt	-610
▁rem	-611
ric	-612
▁la	-613
▁way	-614
▁effect	-615
▁However	-616
▁made	-617
rent	-618
▁adopt	-619
▁well	-620
▁order	-621
mental	-622
▁crisis	-623
eg	-624
▁J	-625
read	-626
▁quest	-627
udget	-628
wn	-629
▁poss	-630
▁know	-631
▁situation	-632
ved	-633
▁high	-634
▁today	-635
▁Wh	-636
ind	-637
ices	-638
▁use	-639
ild	-640
▁great	-641
▁development	-642
▁att	-643
▁mat	-644
▁result	-645
▁coop	-646
▁most	-647
▁Commissioner	-648
▁level	-649
▁direct	-650
ful	-651
not	-652
▁sp	-653
▁neg	-654
▁contin	-655
▁national	-656
▁jo	-657
ry	-658
▁There	-659
ough	-660
stru	-661
▁debate	-662
ality	-663
cept	-664
ict	-665
oth	-666
bers	-667
▁ass	-668
ety	-669
▁sec	-670
red	-671
ittee	-672
utions	-673
▁measures	-674
ied	-675
▁Mad	-676
▁ent	-677
▁issue	-678
isation	-679
▁budget	-680
imate	-681
uch	-682
iron	-683
▁cur	-684
▁ext	-685
▁That	-686
▁call	-687
▁even	-688
▁every	-689
▁regard	-690
▁rep	-691
ite	-692
viron	-693
▁years	-694
▁cannot	-695
pet	-696
uss	-697
▁world	-698
▁inform	-699
wo	-700
erest	-701
▁sect	-702
▁fut	-703
ov	-704
ready	-705
▁Madam	-706
isl	-707
▁future	-708
uth	-709
▁sign	-710
▁agreement	-711
▁view	-712
▁public	-713
▁already	-714
▁ach	-715
▁implement	-716
▁cooperation	-717
ood	-718
▁emp	-719
bal	-720
▁ar	-721
omen	-722
▁here	-723
▁legisl	-724
▁where	-725
▁vote	-726
▁area	-727
▁within	-728
▁interest	-729
wor	-730
▁ac	-731
▁international	-732
reed	-733
▁too	-734
arm	-735
loy	-736
▁ensure	-737
▁ful	-738
▁gen	-739
▁hel	-740
▁common	-741
▁two	-742
ass	-743
reaty	-744
▁same	-745
orities	-746
ism	-747
ount	-748
uring	-749
▁compet	-750
ibility	-751
ute	-752
▁dra	-753
▁end	-754
ertain	-755
▁impro	-756
▁democ	-757
▁Ch	-758
iven	-759
▁consid	-760
▁environ	-761
abl	-762
hip	-763
ings	-764
▁law	-765
urity	-766
bon	-767
ope	-768
oti	-769
▁exam	-770
▁help	-771
▁prev	-772
ential	-773
ited	-774
trib	-775
▁both	-776
▁cour	-777
▁respons	-778
▁def	-779
▁num	-780
▁serv	-781
▁strate	-782
▁K	-783
▁negoti	-784
20	-785
eur	-786
▁own	-787
uc	-788
ory	-789
▁fe	-790
▁mon	-791
▁sol	-792
lobal	-793
▁long	-794
▁redu	-795
▁respect	-796
▁question	-797
itions	-798
▁does	-799
▁beh	-800
▁current	-801
ail	-802
▁had	-803
ile	-804
ince	-805
ges	-806
alth	-807
cond	-808
▁how	-809
▁much	-810
▁lo	-811
▁fav	-812
▁protection	-813
▁possible	-814
▁resolution	-815
▁min	-816
ene	-817
cing	-818
▁set	-819
▁Committee	-820
▁put	-821
▁ref	-822
▁amend	-823
▁could	-824
men	-825
▁On	-826
▁Gro	-827
▁des	-828
ority	-829
▁Treaty	-830
pporteur	-831
eral	-832
ract	-833
ient	-834
▁certain	-835
lu	-836
▁gu	-837
▁govern	-838
▁rapporteur	-839
▁Se	-840
▁last	-841
alf	-842
▁your	-843
illion	-844
▁change	-845
▁state	-846
▁instit	-847
▁case	-848
▁reas	-849
▁why	-850
▁auth	-851
▁cond	-852
▁prom	-853
▁writ	-854
▁necess	-855
inci	-856
▁main	-857
▁said	-858
▁region	-859
▁sector	-860
▁wel	-861
▁still	-862
work	-863
ination	-864
▁global	-865
▁princi	-866
▁process	-867
ram	-868
▁tak	-869
urther	-870
▁ke	-871
▁product	-872
▁fra	-873
itive	-874
▁women	-875
▁writing	-876
▁particularly	-877
▁inter	-878
▁voted	-879
▁consum	-880
▁car	-881
te	-882
▁favour	-883
▁security	-884
▁est	-885
way	-886
▁course	-887
▁opport	-888
come	-889
▁hope	-890
▁stand	-891
▁object	-892
gan	-893
▁br	-894
oura	-895
▁saf	-896
▁able	-897
▁real	-898
▁Group	-899
ty	-900
arge	-901
▁lead	-902
▁group	-903
ft	-904
▁col	-905
▁represent	-906
isbon	-907
ricult	-908
▁information	-909
▁allow	-910
▁Lisbon	-911
▁number	-912
▁require	-913
▁differen	-914
▁V	-915
▁conf	-916
▁areas	-917
▁trade	-918
▁issues	-919
▁maj	-920
▁role	-921
▁since	-922
▁climate	-923
▁increas	-924
ules	-925
▁sim	-926
▁provid	-927
▁	-928
e	-929
t	-930
o	-931
i	-932
a	-933
n	-934
s	-935
r	-936
h	-937
l	-938
d	-939
c	-940
u	-941
m	-942
p	-943
f	-944
g	-945
w	-946
y	-947
b	-948
v	-949
,	-950
.	-951
k	-952
I	-953
E	-954
T	-955
C	-956
M	-957
P	-958
-	-959
S	-960
x	-961
U	-962
A	-963
0	-964
'	-965
j	-966
W	-967
q	-968
2	-969
F	-970
R	-971
(	-972
)	-973
1	-974
G	-975
B	-976
L	-977
H	-978
D	-979
z	-980
O	-981
N	-982
:	-983
9	-984
5	-985
?	-986
3	-987
J	-988
;	-989
K	-990
4	-991
8	-992
7	-993
6	-994
V	-995
%	-996
