<pad>	0
</s>	0
<unk>	0
▁t	-0
▁th	-1
▁a	-2
in	-3
▁the	-4
re	-5
on	-6
at	-7
en	-8
is	-9
▁o	-10
er	-11
▁w	-12
▁s	-13
it	-14
▁c	-15
ion	-16
or	-17
an	-18
▁p	-19
es	-20
▁of	-21
▁in	-22
▁to	-23
▁an	-24
▁f	-25
▁b	-26
ro	-27
al	-28
▁and	-29
ed	-30
ing	-31
▁m	-32
ar	-33
ent	-34
ou	-35
ic	-36
▁h	-37
▁re	-38
▁d	-39
le	-40
om	-41
ve	-42
▁n	-43
st	-44
▁be	-45
▁I	-46
▁is	-47
ct	-48
▁that	-49
il	-50
▁e	-51
ation	-52
pe	-53
as	-54
ly	-55
▁E	-56
ment	-57
▁for	-58
▁on	-59
ot	-60
▁T	-61
im	-62
▁wh	-63
ut	-64
▁we	-65
id	-66
▁l	-67
▁pro	-68
ur	-69
se	-70
ort	-71
▁C	-72
▁g	-73
▁M	-74
▁Th	-75
ol	-76
ce	-77
uro	-78
▁con	-79
▁al	-80
▁Euro	-81
un	-82
et	-83
▁it	-84
▁Europe	-85
ver	-86
port	-87
res	-88
▁this	-89
ul	-90
ra	-91
▁are	-92
ig	-93
▁as	-94
ld	-95
▁P	-96
▁ha	-97
▁de	-98
ith	-99
ow	-100
omm	-101
ch	-102
▁st	-103
ies	-104
▁with	-105
ate	-106
▁S	-107
ill	-108
▁European	-109
ould	-110
▁have	-111
▁su	-112
▁not	-113
ir	-114
▁The	-115
▁ne	-116
em	-117
ity	-118
sion	-119
op	-120
oun	-121
ive	-122
ay	-123
th	-124
ad	-125
us	-126
ers	-127
ble	-128
ke	-129
▁A	-130
ci	-131
ich	-132
ore	-133
▁im	-134
▁ex	-135
▁will	-136
ant	-137
os	-138
ust	-139
▁which	-140
ect	-141
ess	-142
▁v	-143
ter	-144
▁y	-145
▁Comm	-146
ia	-147
▁en	-148
igh	-149
▁by	-150
ain	-151
▁sh	-152
▁W	-153
▁r	-154
if	-155
qu	-156
ission	-157
▁ag	-158
est	-159
ge	-160
ber	-161
ere	-162
iv	-163
▁res	-164
▁has	-165
am	-166
▁-	-167
▁at	-168
our	-169
tr	-170
▁com	-171
ure	-172
art	-173
um	-174
▁U	-175
▁Commission	-176
▁le	-177
so	-178
▁all	-179
ions	-180
ight	-181
▁or	-182
und	-183
ident	-184
▁se	-185
▁Mr	-186
pp	-187
▁also	-188
ff	-189
▁wor	-190
rom	-191
od	-192
▁so	-193
▁Pres	-194
▁(	-195
ie	-196
ist	-197
el	-198
cial	-199
▁EU	-200
▁int	-201
▁Un	-202
ard	-203
and	-204
ates	-205
▁would	-206
▁reg	-207
▁me	-208
▁pol	-209
end	-210
▁do	-211
pport	-212
ud	-213
▁Mem	-214
▁St	-215
▁our	-216
▁from	-217
▁part	-218
▁fa	-219
▁can	-220
up	-221
very	-222
▁there	-223
▁ta	-224
▁President	-225
▁ad	-226
▁F	-227
▁should	-228
con	-229
▁We	-230
vel	-231
ree	-232
ations	-233
▁ch	-234
▁coun	-235
▁2	-236
▁must	-237
▁In	-238
use	-239
ult	-240
arl	-241
▁G	-242
ans	-243
▁H	-244
▁but	-245
▁am	-246
▁need	-247
▁Member	-248
cc	-249
▁B	-250
▁countr	-251
▁Union	-252
arlia	-253
arliament	-254
du	-255
▁go	-256
▁ab	-257
ue	-258
reat	-259
ally	-260
▁It	-261
ments	-262
ren	-263
all	-264
▁ma	-265
▁R	-266
▁inc	-267
ous	-268
pl	-269
out	-270
oc	-271
ome	-272
▁been	-273
▁report	-274
ance	-275
▁States	-276
ab	-277
ire	-278
ish	-279
▁import	-280
▁imp	-281
▁li	-282
▁tr	-283
▁Parliament	-284
▁co	-285
▁you	-286
king	-287
▁more	-288
ther	-289
▁dis	-290
▁j	-291
▁their	-292
ary	-293
▁fin	-294
ac	-295
▁right	-296
▁us	-297
si	-298
ast	-299
able	-300
▁cont	-301
▁un	-302
▁comm	-303
▁its	-304
gh	-305
▁like	-306
▁was	-307
ction	-308
▁20	-309
ical	-310
ose	-311
▁L	-312
ens	-313
conom	-314
ime	-315
▁This	-316
gy	-317
▁very	-318
cil	-319
▁cr	-320
▁pl	-321
▁prop	-322
ong	-323
▁app	-324
▁qu	-325
iti	-326
▁pr	-327
▁cons	-328
▁bec	-329
ational	-330
cy	-331
▁polic	-332
ear	-333
▁who	-334
▁pe	-335
tern	-336
▁D	-337
▁these	-338
fore	-339
▁econom	-340
pt	-341
ition	-342
▁support	-343
ial	-344
▁important	-345
ities	-346
ause	-347
ark	-348
▁pos	-349
ress	-350
▁eff	-351
▁1	-352
▁they	-353
velop	-354
▁O	-355
▁str	-356
▁countries	-357
ution	-358
▁comp	-359
▁man	-360
ated	-361
▁bet	-362
her	-363
▁work	-364
▁Coun	-365
▁conc	-366
ople	-367
▁acc	-368
▁Council	-369
for	-370
▁one	-371
ise	-372
get	-373
ces	-374
itt	-375
ence	-376
ll	-377
▁pre	-378
age	-379
ject	-380
▁new	-381
▁than	-382
pect	-383
▁out	-384
▁he	-385
▁about	-386
ide	-387
▁po	-388
▁cl	-389
ign	-390
bl	-391
▁vot	-392
▁other	-393
▁ind	-394
▁people	-395
▁develop	-396
ob	-397
▁propos	-398
ility	-399
ms	-400
ced	-401
int	-402
▁agree	-403
▁my	-404
ever	-405
▁und	-406
▁N	-407
▁spe	-408
▁sa	-409
ice	-410
are	-411
▁partic	-412
ag	-413
▁act	-414
▁year	-415
▁ra	-416
▁because	-417
one	-418
ep	-419
▁time	-420
▁tra	-421
ular	-422
▁up	-423
▁again	-424
arket	-425
ase	-426
cess	-427
▁policy	-428
▁only	-429
ieve	-430
▁leg	-431
▁what	-432
▁trans	-433
▁dec	-434
▁iss	-435
▁rec	-436
▁prov	-437
ern	-438
ord	-439
▁em	-440
▁under	-441
owever	-442
str	-443
ative	-444
ures	-445
ious	-446
ost	-447
ap	-448
ach	-449
og	-450
we	-451
▁ev	-452
fic	-453
▁market	-454
▁rights	-455
lear	-456
ip	-457
ib	-458
▁economic	-459
▁k	-460
▁dem	-461
▁rel	-462
me	-463
▁finan	-464
▁op	-465
erv	-466
form	-467
▁inv	-468
▁gro	-469
ine	-470
▁particular	-471
ention	-472
▁such	-473
ween	-474
▁produ	-475
▁between	-476
ame	-477
▁prot	-478
▁them	-479
ating	-480
▁bel	-481
pon	-482
ack	-483
ert	-484
uman	-485
▁into	-486
ink	-487
resent	-488
eren	-489
▁no	-490
▁now	-491
itiz	-492
lud	-493
▁if	-494
▁exp	-495
▁polit	-496
▁proposal	-497
irect	-498
▁fund	-499
ues	-500
▁sy	-501
ugh	-502
ian	-503
▁ob	-504
irst	-505
▁citiz	-506
xt	-507
ubl	-508
▁make	-509
sible	-510
act	-511
▁200	-512
▁ter	-513
▁take	-514
▁dif	-515
▁some	-516
▁ro	-517
ergy	-518
der	-519
▁protect	-520
ives	-521
ency	-522
▁respon	-523
eration	-524
ee	-525
▁those	-526
▁'	-527
▁any	-528
▁per	-529
stem	-530
▁citizens	-531
ace	-532
ards	-533
ade	-534
ict	-535
▁deb	-536
feren	-537
▁intern	-538
▁when	-539
ri	-540
▁proble	-541
vern	-542
lement	-543
▁therefore	-544
ural	-545
▁financial	-546
now	-547
▁fact	-548
stit	-549
▁human	-550
ov	-551
▁sub	-552
▁say	-553
▁ens	-554
eg	-555
day	-556
ks	-557
▁just	-558
▁clear	-559
ors	-560
▁concern	-561
ublic	-562
▁te	-563
▁sit	-564
▁appro	-565
▁incre	-566
▁over	-567
▁social	-568
ple	-569
▁meas	-570
▁being	-571
▁system	-572
▁against	-573
▁believe	-574
▁prog	-575
rent	-576
▁way	-577
▁cris	-578
▁energy	-579
rit	-580
▁point	-581
uation	-582
▁chan	-583
▁As	-584
unity	-585
rough	-586
▁political	-587
olution	-588
▁see	-589
ific	-590
▁bas	-591
de	-592
▁want	-593
ak	-594
ric	-595
▁many	-596
▁add	-597
▁rem	-598
▁disc	-599
rat	-600
sel	-601
▁crisis	-602
oy	-603
▁think	-604
▁were	-605
▁effect	-606
ual	-607
▁well	-608
▁requ	-609
▁However	-610
▁made	-611
▁know	-612
▁good	-613
▁quest	-614
▁great	-615
▁level	-616
▁There	-617
▁first	-618
▁la	-619
stru	-620
ision	-621
low	-622
iew	-623
▁includ	-624
mental	-625
ind	-626
▁att	-627
▁development	-628
lect	-629
ulation	-630
ices	-631
ised	-632
ful	-633
opt	-634
▁country	-635
▁Commissioner	-636
▁ent	-637
▁high	-638
ving	-639
▁order	-640
▁situation	-641
▁measures	-642
▁adopt	-643
isation	-644
▁ass	-645
udget	-646
▁cur	-647
ough	-648
▁use	-649
pet	-650
▁Wh	-651
ved	-652
uch	-653
ild	-654
▁Ch	-655
ism	-656
▁years	-657
uture	-658
uc	-659
▁implement	-660
ood	-661
▁sec	-662
▁direct	-663
▁ext	-664
▁mat	-665
▁future	-666
▁where	-667
iven	-668
▁national	-669
▁contin	-670
▁issue	-671
▁aut	-672
ety	-673
cept	-674
not	-675
▁coop	-676
wn	-677
read	-678
▁ensure	-679
utions	-680
ied	-681
▁J	-682
ry	-683
▁agreement	-684
▁through	-685
▁cre	-686
oth	-687
▁regard	-688
▁most	-689
▁debate	-690
▁sect	-691
▁result	-692
isl	-693
▁fe	-694
▁even	-695
ite	-696
▁today	-697
▁ac	-698
imate	-699
▁budget	-700
▁public	-701
▁same	-702
ittee	-703
ount	-704
ploy	-705
▁Mad	-706
ality	-707
▁every	-708
▁inform	-709
bers	-710
▁world	-711
wor	-712
iron	-713
urity	-714
▁rep	-715
▁compet	-716
ings	-717
▁tw	-718
ove	-719
arm	-720
▁here	-721
ertain	-722
ory	-723
uring	-724
▁legisl	-725
eur	-726
▁ach	-727
▁Madam	-728
alth	-729
ope	-730
viron	-731
cing	-732
▁call	-733
ram	-734
ass	-735
▁sign	-736
▁gen	-737
▁current	-738
▁neg	-739
▁strate	-740
▁possible	-741
reaty	-742
▁cannot	-743
▁sp	-744
▁impro	-745
▁hel	-746
▁area	-747
▁That	-748
▁exam	-749
▁long	-750
abl	-751
▁too	-752
▁consid	-753
erest	-754
▁govern	-755
▁respect	-756
▁democ	-757
▁protection	-758
men	-759
▁help	-760
ici	-761
ile	-762
▁ar	-763
▁could	-764
▁cooperation	-765
▁two	-766
▁beh	-767
▁cour	-768
omen	-769
▁end	-770
▁question	-771
orities	-772
ited	-773
reed	-774
▁law	-775
▁much	-776
▁does	-777
hip	-778
▁ful	-779
▁interest	-780
pporteur	-781
sib	-782
▁international	-783
ph	-784
▁how	-785
uss	-786
▁common	-787
ute	-788
▁fav	-789
ority	-790
▁vote	-791
▁prom	-792
▁gl	-793
▁rapporteur	-794
ready	-795
▁environ	-796
▁mon	-797
▁already	-798
▁auth	-799
▁set	-800
ail	-801
▁gu	-802
▁serv	-803
▁process	-804
ract	-805
▁voted	-806
trib	-807
▁said	-808
bon	-809
▁instit	-810
▁had	-811
▁certain	-812
▁both	-813
▁prev	-814
▁num	-815
▁redu	-816
▁your	-817
work	-818
▁view	-819
eral	-820
▁sol	-821
▁within	-822
itions	-823
▁tak	-824
▁put	-825
▁still	-826
▁On	-827
▁Treaty	-828
ges	-829
obal	-830
▁favour	-831
▁Gro	-832
▁own	-833
▁resolution	-834
▁writ	-835
▁consum	-836
ays	-837
come	-838
▁def	-839
▁conf	-840
▁region	-841
00	-842
ince	-843
▁necess	-844
▁ref	-845
▁car	-846
▁stand	-847
▁off	-848
▁saf	-849
▁security	-850
▁state	-851
ason	-852
▁sim	-853
▁change	-854
▁col	-855
▁K	-856
alf	-857
▁wel	-858
▁fra	-859
▁est	-860
▁differen	-861
▁invest	-862
▁writing	-863
▁cond	-864
▁amend	-865
▁main	-866
▁Committee	-867
▁dra	-868
▁hope	-869
▁health	-870
▁ser	-871
inci	-872
▁why	-873
cond	-874
▁sector	-875
oti	-876
▁course	-877
▁princi	-878
ene	-879
ential	-880
lu	-881
▁maj	-882
▁able	-883
▁reason	-884
▁opport	-885
entle	-886
▁min	-887
gan	-888
▁gentle	-889
urther	-890
▁information	-891
▁allow	-892
▁object	-893
▁case	-894
adies	-895
illion	-896
▁gentlemen	-897
▁negoti	-898
▁ke	-899
▁place	-900
ination	-901
oo	-902
te	-903
▁product	-904
arge	-905
▁group	-906
eth	-907
▁br	-908
▁last	-909
▁inter	-910
ec	-911
▁pers	-912
▁increas	-913
ration	-914
▁program	-915
▁Group	-916
ability	-917
▁Con	-918
▁women	-919
▁initi	-920
ty	-921
▁particularly	-922
itive	-923
▁V	-924
▁present	-925
▁global	-926
chn	-927
▁	-928
e	-929
t	-930
o	-931
i	-932
a	-933
n	-934
s	-935
r	-936
h	-937
l	-938
d	-939
c	-940
u	-941
m	-942
p	-943
f	-944
g	-945
w	-946
y	-947
b	-948
v	-949
,	-950
.	-951
k	-952
I	-953
E	-954
T	-955
C	-956
M	-957
P	-958
-	-959
S	-960
x	-961
U	-962
A	-963
0	-964
'	-965
j	-966
W	-967
q	-968
2	-969
F	-970
R	-971
(	-972
)	-973
1	-974
G	-975
B	-976
H	-977
L	-978
D	-979
z	-980
O	-981
N	-982
:	-983
9	-984
?	-985
5	-986
3	-987
;	-988
7	-989
8	-990
4	-991
J	-992
K	-993
%	-994
V	-995
6	-996
