<pad>	0
</s>	0
<unk>	0
▁¦	-0
ال	-1
▁.	-2
ان	-3
وا	-4
لا	-5
ين	-6
من	-7
في	-8
ون	-9
ما	-10
ار	-11
عل	-12
رب	-13
لك	-14
هم	-15
ها	-16
را	-17
كل	-18
يا	-19
الم	-20
اب	-21
ذا	-22
ول	-23
نا	-24
الى	-25
لي	-26
اس	-27
الرب	-28
بي	-29
ام	-30
قد	-31
مع	-32
له	-33
وت	-34
بن	-35
وال	-36
كم	-37
على	-38
ير	-39
يل	-40
هو	-41
قال	-42
الذ	-43
وم	-44
لان	-45
يع	-46
ور	-47
وس	-48
يد	-49
كان	-50
رج	-51
يم	-52
وب	-53
عن	-54
يس	-55
ائ	-56
تي	-57
الس	-58
لم	-59
وع	-60
عد	-61
وي	-62
الي	-63
اخ	-64
ئيل	-65
ود	-66
اء	-67
الش	-68
الذي	-69
اي	-70
عب	-71
ارض	-72
يق	-73
وج	-74
حد	-75
ولا	-76
الا	-77
ته	-78
رائيل	-79
ذه	-80
ية	-81
تم	-82
اسرائيل	-83
فا	-84
وق	-85
كن	-86
لل	-87
مل	-88
بر	-89
بع	-90
الج	-91
بل	-92
دا	-93
الح	-94
كون	-95
وح	-96
به	-97
الله	-98
با	-99
فر	-100
فت	-101
الك	-102
يت	-103
بيت	-104
انا	-105
شر	-106
فس	-107
هذا	-108
قل	-109
علي	-110
اله	-111
ميع	-112
ضا	-113
وه	-114
يح	-115
لام	-116
اد	-117
صر	-118
اما	-119
فقال	-120
الارض	-121
مس	-122
مر	-123
التي	-124
اع	-125
ملك	-126
الع	-127
كلم	-128
كر	-129
اج	-130
سب	-131
ني	-132
طر	-133
بني	-134
حت	-135
جميع	-136
قائ	-137
اه	-138
ثم	-139
ايضا	-140
ذلك	-141
نة	-142
واحد	-143
سل	-144
بح	-145
وقال	-146
اني	-147
ات	-148
نع	-149
وان	-150
الملك	-151
خل	-152
يب	-153
رأ	-154
اق	-155
هوذا	-156
بال	-157
كث	-158
الذين	-159
وص	-160
تر	-161
عند	-162
وك	-163
وكان	-164
ايا	-165
هر	-166
اف	-167
مت	-168
يف	-169
اح	-170
ابن	-171
الخ	-172
لانه	-173
مة	-174
فل	-175
ليم	-176
جل	-177
دين	-178
امام	-179
طل	-180
ذهب	-181
الن	-182
جد	-183
شي	-184
وخ	-185
ماء	-186
انه	-187
فع	-188
ست	-189
داود	-190
آب	-191
كذا	-192
دي	-193
هي	-194
ضع	-195
خر	-196
لهم	-197
نفس	-198
الق	-199
هنا	-200
الب	-201
المس	-202
كما	-203
لكن	-204
موس	-205
انت	-206
هكذا	-207
اليوم	-208
سان	-209
ومن	-210
دم	-211
يه	-212
ليس	-213
الر	-214
وكل	-215
او	-216
يش	-217
رجل	-218
تع	-219
وش	-220
خذ	-221
الشعب	-222
تق	-223
رف	-224
هذه	-225
اذ	-226
رة	-227
يسوع	-228
بت	-229
اص	-230
نح	-231
تح	-232
بين	-233
الص	-234
بعد	-235
ظر	-236
قائلا	-237
الام	-238
اسم	-239
خرج	-240
حتى	-241
ورش	-242
كت	-243
عين	-244
لكم	-245
تل	-246
اش	-247
آن	-248
قط	-249
علم	-250
بنو	-251
يكون	-252
وفي	-253
دينة	-254
سمع	-255
قر	-256
الف	-257
ورشليم	-258
بيد	-259
تك	-260
شا	-261
حم	-262
يهوذا	-263
واما	-264
وف	-265
يقول	-266
انسان	-267
لت	-268
الث	-269
طي	-270
ماذا	-271
موسى	-272
هناك	-273
اورشليم	-274
عشر	-275
الت	-276
قدس	-277
ولكن	-278
صنع	-279
رق	-280
بك	-281
الغ	-282
مد	-283
حسب	-284
ولم	-285
يين	-286
باب	-287
يمة	-288
تن	-289
جعل	-290
لكي	-291
بها	-292
ورا	-293
مح	-294
لاث	-295
حين	-296
يرة	-297
سر	-298
عظ	-299
حي	-300
عة	-301
ضرب	-302
ئة	-303
عا	-304
أت	-305
عون	-306
يدي	-307
خط	-308
وات	-309
زل	-310
مي	-311
عليه	-312
ساء	-313
فعل	-314
مصر	-315
عمل	-316
جر	-317
فان	-318
شعب	-319
طريق	-320
ذبح	-321
جاء	-322
ثلاث	-323
راس	-324
ايام	-325
اث	-326
بة	-327
ولد	-328
جس	-329
ارج	-330
الشر	-331
يام	-332
النا	-333
وار	-334
اذا	-335
مث	-336
احد	-337
المدينة	-338
حق	-339
عم	-340
وجه	-341
فن	-342
تد	-343
واق	-344
بس	-345
غض	-346
يون	-347
تخ	-348
المسيح	-349
وسط	-350
وضع	-351
ينا	-352
بار	-353
الآن	-354
هد	-355
صعد	-356
لين	-357
وز	-358
صوت	-359
بعة	-360
تها	-361
رؤ	-362
هما	-363
اجل	-364
يوم	-365
عبد	-366
يك	-367
رع	-368
ضة	-369
ياء	-370
للرب	-371
شع	-372
رأة	-373
الاب	-374
وة	-375
فيه	-376
لاء	-377
سم	-378
قدم	-379
فلا	-380
ارسل	-381
كلام	-382
سن	-383
سنة	-384
مئة	-385
الد	-386
بق	-387
فق	-388
وجد	-389
آخر	-390
اعد	-391
حة	-392
هل	-393
مات	-394
وعلى	-395
ولما	-396
بز	-397
طين	-398
از	-399
السماء	-400
أل	-401
طلب	-402
عط	-403
لاني	-404
اهن	-405
ايها	-406
مو	-407
معه	-408
الار	-409
تكلم	-410
غن	-411
والم	-412
يأ	-413
تهم	-414
فظ	-415
دن	-416
صار	-417
البر	-418
الجن	-419
رجال	-420
حل	-421
قوب	-422
بحر	-423
يخ	-424
انب	-425
غير	-426
الامم	-427
ليل	-428
هنة	-429
الانسان	-430
قدام	-431
¦	-432
▁	-433
ا	-434
ل	-435
ي	-436
و	-437
م	-438
ن	-439
ر	-440
ب	-441
ه	-442
ع	-443
ت	-444
ك	-445
ف	-446
س	-447
د	-448
.	-449
ق	-450
ح	-451
ج	-452
ة	-453
ذ	-454
ش	-455
خ	-456
ى	-457
ص	-458
ط	-459
ض	-460
ئ	-461
ث	-462
ّ	-463
ز	-464
أ	-465
ء	-466
غ	-467
آ	-468
ظ	-469
ؤ	-470
إ	-471
*	-472
ـ	-473
-	-474
ً	-475
i	-476
(	-477
)	-478
:	-479
𐋇	-480
1	-481
2	-482
[	-483
]	-484
h	-485
o	-486
t	-487
5	-488
6	-489
j	-490
m	-491
n	-492
y	-493
ٍ	-494
𐊣	-495
𐊼	-496
