<pad>	0
</s>	0
<unk>	0
▁	-3.16122
ा	-3.25937
े	-3.66191
.	-3.86882
ी	-3.88957
त	-4.02398
र	-4.03652
ं	-4.05772
न	-4.11565
क	-4.19878
ल	-4.26155
ो	-4.28669
स	-4.4025
्	-4.40419
व	-4.41245
ि	-4.42951
,	-4.45208
म	-4.52784
प	-4.54527
य	-4.724
ग	-4.72411
ु	-4.78095
ड	-4.81107
ण	-4.82311
▁आ	-4.82374
ात	-4.87057
द	-4.91187
्या	-4.92663
ला	-4.9441
▁आहे	-4.95644
ज	-4.99726
च	-5.01582
ध	-5.01756
▁क	-5.03286
च्या	-5.04591
्य	-5.05793
▁अ	-5.08413
ट	-5.09881
ू	-5.1256
र्	-5.1368
▁आणि	-5.13803
चा	-5.15581
▁स	-5.18582
ह	-5.18879
श	-5.20187
ळ	-5.20372
ची	-5.24433
▁म	-5.29727
्र	-5.30841
▁ज	-5.31113
▁या	-5.31181
▁प्र	-5.3259
ब	-5.33899
▁प	-5.4054
ल्या	-5.41415
ने	-5.42944
▁ब	-5.48829
वा	-5.53679
ित	-5.53892
▁अस	-5.53957
▁द	-5.54107
ना	-5.54491
िक	-5.54525
ून	-5.5513
ले	-5.57465
चे	-5.59811
ष	-5.61885
▁त	-5.62062
ली	-5.62759
▁व	-5.66504
ख	-5.71543
ता	-5.73581
▁त्या	-5.73782
मध्ये	-5.73974
ाय	-5.77165
ही	-5.8093
थ	-5.81602
▁न	-5.81867
▁श	-5.83186
ठ	-5.84166
▁उ	-5.86413
-	-5.87599
▁होत	-5.89162
▁सा	-5.89838
▁वि	-5.90541
रा	-5.91211
▁सं	-5.92223
व्ह	-5.94007
▁कोरोना	-5.94137
▁ह	-5.95446
घ	-5.95657
ार	-5.95845
साठी	-5.96496
▁ग	-5.97368
री	-5.9785
त्र	-6.02334
▁ला	-6.05562
वर	-6.05984
▁र	-6.12039
ास	-6.12241
▁एक	-6.16848
▁आहेत	-6.18283
▁नाही	-6.19524
भ	-6.2263
▁मा	-6.23758
ॅ	-6.24008
ांना	-6.27113
▁नि	-6.27843
ती	-6.28468
▁पा	-6.28864
शी	-6.30463
का	-6.3123
चं	-6.32142
▁फ	-6.33395
▁ट	-6.33551
रो	-6.35371
0	-6.36209
मुळे	-6.38858
वि	-6.39297
लं	-6.4026
▁का	-6.4207
▁लस	-6.4351
ई	-6.45646
फ	-6.47455
▁1	-6.4795
▁हे	-6.48281
णे	-6.48341
िस	-6.52311
▁इ	-6.52986
▁तर	-6.53166
)	-6.53726
▁ते	-6.56644
▁राज्य	-6.56871
झ	-6.57492
▁ख	-6.57619
▁रुग्ण	-6.58441
्स	-6.5943
कार	-6.59788
▁करत	-6.60373
स्थ	-6.60402
'	-6.60478
ेश	-6.61345
▁को	-6.62393
ील	-6.62751
▁आरोग्य	-6.65084
▁शकत	-6.65272
▁सरकार	-6.65585
ढ	-6.66014
▁(	-6.66488
▁हा	-6.66542
क्त	-6.67205
ाच्या	-6.67263
ते	-6.67562
्व	-6.68199
▁किंवा	-6.69148
दा	-6.69322
ष्ट	-6.70156
ातील	-6.70324
नंतर	-6.71387
▁भ	-6.73441
▁सर्व	-6.73812
▁काही	-6.74528
स्ट	-6.7486
▁2	-6.75345
▁च	-6.75448
हा	-6.75556
5	-6.76158
?	-6.77622
ांनी	-6.78119
▁यांनी	-6.78401
▁संसर्ग	-6.79575
टी	-6.80069
▁वाढ	-6.80192
▁"	-6.80317
्ट	-6.80381
ंग	-6.80939
णी	-6.81874
णाऱ्या	-6.82627
▁करण्यात	-6.83357
▁कमी	-6.84529
मान	-6.8474
2	-6.8488
▁आले	-6.86147
ंड	-6.86349
द्ध	-6.87648
▁देश	-6.87808
ंचा	-6.88665
▁झाले	-6.89234
स्त	-6.89554
▁केले	-6.8993
िया	-6.90296
ेट	-6.90423
▁करण्या	-6.91644
▁लशी	-6.91652
1	-6.92275
3	-6.92279
ंद	-6.93003
▁सु	-6.93103
4	-6.93568
पर्यंत	-6.93785
▁ए	-6.93979
िन	-6.94001
▁जात	-6.94435
-19	-6.94436
▁विषाणू	-6.94545
▁केली	-6.95165
करण	-6.96191
ांमध्ये	-6.9718
▁वापर	-6.9747
▁की	-6.97476
णार	-6.97658
C	-6.98099
ांच्या	-6.99403
वी	-6.99429
▁असं	-7.00667
▁वा	-7.02213
ए	-7.0225
ऊ	-7.02841
▁लक्ष	-7.02983
तील	-7.03335
▁अधिक	-7.03821
▁पण	-7.04648
मिळ	-7.04743
▁भारत	-7.04899
पासून	-7.05301
9	-7.06221
▁दु	-7.067
ंट	-7.07137
ण्यात	-7.08191
▁केंद्र	-7.09082
▁पर	-7.09759
▁मो	-7.10023
कडे	-7.10475
ै	-7.10607
▁करोना	-7.10873
ावर	-7.11625
▁माहिती	-7.12027
ीय	-7.13007
▁सम	-7.14031
:	-7.15196
▁घेत	-7.15207
▁ज्या	-7.154
▁काम	-7.15414
क्षण	-7.1572
▁महा	-7.15723
▁करा	-7.15811
▁दिवस	-7.1614
▁ही	-7.16788
▁येत	-7.18008
▁सुरू	-7.18205
▁असल्याच	-7.18448
▁स्व	-7.18564
पूर	-7.18651
ांची	-7.18689
▁आजार	-7.19897
िट	-7.20668
१	-7.2071
▁लोकां	-7.20717
8	-7.21564
ँ	-7.21564
▁डॉ	-7.21994
▁प्रमाण	-7.22171
"	-7.22445
7	-7.2257
ृ	-7.22584
र्स	-7.23567
6	-7.23732
२	-7.24171
ऑ	-7.24613
▁होते	-7.24615
▁कोव्हिड	-7.2476
▁लोक	-7.25066
▁देण्या	-7.25616
ांत	-7.25661
ण्यासाठी	-7.26757
भाव	-7.27996
▁बंद	-7.28312
▁लसीकरण	-7.29448
०	-7.30376
ालय	-7.30747
▁ऑक्सिजन	-7.31475
▁इतर	-7.31709
▁वर्ष	-7.31805
▁जास्त	-7.32618
▁झाल्या	-7.32748
अ	-7.33042
▁रुग्णालय	-7.3321
▁दोन	-7.33372
िंग	-7.34075
▁अनेक	-7.34918
त्त	-7.37616
ओ	-7.37829
बाबत	-7.3786
न्स	-7.39254
▁असलेल्या	-7.39709
▁केला	-7.39931
R	-7.4004
I	-7.41425
पेक्षा	-7.416
ृत	-7.41934
क्रम	-7.42053
▁ना	-7.42833
▁करण्यासाठी	-7.43273
▁मृत्यू	-7.44614
ांवर	-7.44803
वार	-7.45208
आ	-7.46229
नुसार	-7.4625
▁प्रति	-7.46696
▁उपचार	-7.47724
▁कार्य	-7.47997
छ	-7.48281
संख्य	-7.48394
▁तयार	-7.50385
मधील	-7.50422
▁यु	-7.50725
▁झाला	-7.50933
▁झाली	-7.52283
▁चाचणी	-7.53455
▁परिणाम	-7.53651
मुख	-7.56415
▁व्यक्ती	-7.56652
00	-7.58797
▁त्यांच्या	-7.59612
कडून	-7.61176
▁औषध	-7.61222
▁व्हायरस	-7.61647
▁म्हण	-7.6186
e	-7.62075
▁म्हणून	-7.62259
▁लॉकडाऊन	-7.6229
▁COVID	-7.64023
▁असेल	-7.64109
▁भाग	-7.64112
a	-7.65565
ण्याची	-7.66704
▁गरज	-7.67432
▁अशा	-7.67443
▁घर	-7.6757
S	-7.68037
▁संख्या	-7.68043
▁मार्च	-7.6897
▁यांच्या	-7.69377
▁दिली	-7.69687
▁केल्या	-7.69824
E	-7.70806
▁कारण	-7.70925
o	-7.71745
▁पुर	-7.7191
P	-7.72219
▁जाण	-7.7248
▁परिस्थिती	-7.72695
▁होऊ	-7.72703
▁उपलब्ध	-7.73412
▁पुढ	-7.73665
▁गेल्या	-7.74216
▁होण्या	-7.74589
A	-7.75352
▁टक्के	-7.75352
▁नोंद	-7.76103
▁म्हटलं	-7.76832
▁म्हणजे	-7.76852
▁आपल्या	-7.76924
▁रुग्णांच	-7.78235
▁मुंबई	-7.78333
▁राज	-7.78793
सीओव्ही	-7.78839
▁म्हणाले	-7.79112
इ	-7.80051
▁डॉक्टर	-7.80115
▁केलं	-7.80199
▁वेळ	-7.80849
▁हजार	-7.80906
▁घेण्या	-7.81988
▁करणे	-7.82759
▁आम्ही	-7.83776
▁महिन्या	-7.84042
▁शहर	-7.84478
i	-7.84577
▁2020	-7.84846
▁एप्रिल	-7.85116
▁त्यांनी	-7.85399
%	-7.86474
▁चाचण्या	-7.86475
मंत्री	-7.87033
▁रूग्ण	-7.87575
▁डोस	-7.88423
▁मोठ्या	-7.88973
ञ	-7.89249
४	-7.9038
▁महाराष्ट्रात	-7.90665
▁सांगतात	-7.92392
t	-7.93853
▁शाळा	-7.94652
▁दिले	-7.95099
▁सध्या	-7.95127
पैकी	-7.95339
३	-7.95937
▁निर्णय	-7.96844
r	-7.97758
▁वैद्यकीय	-7.98681
▁येईल	-7.98681
▁मुलां	-7.99354
५	-7.99613
▁प्रसार	-7.99993
▁आवश्यक	-8.00239
▁सांगितलं	-8.00553
सोबत	-8.00885
▁कोविड	-8.02468
n	-8.02783
▁गंभीर	-8.04406
▁नवीन	-8.04429
▁जिल्ह्य	-8.05063
ॅक्स	-8.05738
ः	-8.06724
९	-8.0706
▁दुसऱ्या	-8.07396
क्षम	-8.07412
H	-8.07734
बाहेर	-8.08075
▁होणार	-8.08426
M	-8.08755
▁समावेश	-8.09097
▁स्थिती	-8.10481
▁मास्क	-8.10481
s	-8.11527
पूर्वी	-8.12599
▁संपर्क	-8.12945
बद्दल	-8.15106
▁ठाकरे	-8.15837
दरम्यान	-8.1844
वेळी	-8.19849
▁सुरुवात	-8.19958
▁शक्यता	-8.19958
N	-8.20341
▁ठिकाण	-8.20341
O	-8.21111
द्वारे	-8.21115
/	-8.21498
▁अभ्यास	-8.21889
▁जाहीर	-8.21892
;	-8.22279
CoV	-8.22671
६	-8.22671
निर्माण	-8.22671
▁येथ	-8.23471
▁जागतिक	-8.23857
▁निर्बंध	-8.23857
▁परवानगी	-8.25057
▁महत्त्वाच	-8.25865
▁येणार	-8.26683
▁हॉस्पिटल	-8.27089
D	-8.27089
▁तुम्हाला	-8.27501
८	-8.28329
T	-8.29584
▁बोलताना	-8.3043
▁अमेरिक	-8.31283
तज्ज्ञ	-8.31712
▁प्रयत्न	-8.31712
▁प्रश्न	-8.31716
▁रोजी	-8.32583
▁दाखल	-8.33017
▁जाईल	-8.33888
▁नमुन	-8.33901
▁नागरिकां	-8.34327
▁पहिल्या	-8.34327
▁SARS	-8.3566
l	-8.43088
c	-8.49557
७	-8.56475
W	-8.58142
h	-8.58704
d	-8.66919
U	-8.70658
G	-8.73231
“	-8.77898
m	-8.90232
़	-8.91008
’	-8.91008
p	-8.9337
V	-8.94977
उ	-8.96491
!	-9.07008
u	-9.07925
B	-9.13614
g	-9.15585
(	-9.16427
v	-9.283
L	-9.29437
ऐ	-9.31699
‘	-9.31709
ौ	-9.31719
औ	-9.31729
ऱ	-9.31739
ॉ	-9.31749
”	-9.31749
