<pad>	0
</s>	0
<unk>	0
▁¦	-0
▁a	-1
ch	-2
ai	-3
ea	-4
th	-5
in	-6
na	-7
ar	-8
▁d	-9
bh	-10
▁s	-11
ir	-12
mh	-13
an	-14
dh	-15
il	-16
is	-17
ío	-18
▁c	-19
▁l	-20
ta	-21
gu	-22
▁t	-23
▁f	-24
▁g	-25
gus	-26
id	-27
▁an	-28
gh	-29
air	-30
▁m	-31
la	-32
▁ch	-33
ra	-34
▁n	-35
on	-36
each	-37
▁agus	-38
▁𐋇	-39
▁ar	-40
▁i	-41
eo	-42
▁r	-43
éa	-44
ás	-45
ach	-46
co	-47
nn	-48
▁le	-49
ao	-50
▁bh	-51
the	-52
tá	-53
▁.	-54
iú	-55
▁,	-56
▁co	-57
▁na	-58
▁b	-59
ain	-60
le	-61
inn	-62
▁go	-63
ine	-64
ear	-65
ia	-66
eas	-67
ei	-68
lá	-69
áil	-70
or	-71
▁do	-72
tha	-73
te	-74
agus	-75
os	-76
ais	-77
19	-78
ean	-79
ín	-80
ig	-81
▁-	-82
▁p	-83
vid	-84
un	-85
it	-86
uair	-87
cht	-88
fh	-89
as	-90
ír	-91
im	-92
▁th	-93
▁ag	-94
aithe	-95
ile	-96
éad	-97
▁’	-98
eadh	-99
▁dh	-100
▁fh	-101
igh	-102
aigh	-103
▁h	-104
eag	-105
anna	-106
sa	-107
ro	-108
idir	-109
go	-110
íonn	-111
ithe	-112
adh	-113
20	-114
al	-115
eann	-116
aidh	-117
▁de	-118
io	-119
óg	-120
▁bhf	-121
aoine	-122
uil	-123
áin	-124
óir	-125
▁T	-126
vír	-127
do	-128
eile	-129
▁é	-130
▁covid	-131
íos	-132
▁nó	-133
-19	-134
áid	-135
láin	-136
oi	-137
ac	-138
abh	-139
eacht	-140
▁(	-141
ag	-142
ail	-143
aith	-144
íodh	-145
de	-146
áir	-147
▁in	-148
▁ó	-149
ian	-150
ion	-151
isc	-152
cha	-153
ad	-154
eal	-155
ur	-156
ic	-157
uir	-158
ann	-159
eamh	-160
re	-161
án	-162
ug	-163
▁seo	-164
ála	-165
▁C	-166
ús	-167
▁is	-168
éir	-169
íoch	-170
▁du	-171
▁1	-172
ith	-173
▁D	-174
éidir	-175
nach	-176
taí	-177
▁gh	-178
▁mar	-179
▁mh	-180
cov	-181
sc	-182
ial	-183
ástá	-184
víreas	-185
nó	-186
▁gc	-187
artha	-188
▁sh	-189
rú	-190
éana	-191
tar	-192
aoi	-193
▁tú	-194
áis	-195
▁chun	-196
▁lá	-197
▁A	-198
▁eile	-199
ró	-200
eith	-201
▁I	-202
▁sa	-203
éim	-204
tú	-205
▁M	-206
mp	-207
sh	-208
eidh	-209
▁bhfuil	-210
lú	-211
láinte	-212
ud	-213
tr	-214
aint	-215
ol	-216
ghaidh	-217
omh	-218
▁mb	-219
▁or	-220
uairisc	-221
eanna	-222
éin	-223
tach	-224
▁2	-225
éadf	-226
aid	-227
ár	-228
saín	-229
aí	-230
▁tá	-231
acsaín	-232
éan	-233
▁cás	-234
▁sé	-235
mar	-236
19¦	-237
covid	-238
vacsaín	-239
bhf	-240
▁atá	-241
oib	-242
aon	-243
fhabh	-244
taithe	-245
▁níos	-246
▁mó	-247
oinn	-248
eagmh	-249
ná	-250
aibh	-251
íon	-252
airt	-253
ios	-254
tear	-255
úsáid	-256
iún	-257
thar	-258
ars	-259
▁¦19¦	-260
▁aon	-261
se	-262
oir	-263
▁N	-264
▁tr	-265
▁dt	-266
ua	-267
▁B	-268
ca	-269
dú	-270
raí	-271
imh	-272
seo	-273
▁20	-274
▁ph	-275
iad	-276
eor	-277
▁comh	-278
uid	-279
teach	-280
éar	-281
ástáil	-282
▁Tá	-283
▁lea	-284
du	-285
arthaí	-286
íomh	-287
éanamh	-288
mach	-289
ill	-290
ibh	-291
▁féidir	-292
▁¦1	-293
▁ion	-294
eoir	-295
íocht	-296
ph	-297
▁¦2	-298
▁sc	-299
éadfadh	-300
thair	-301
aip	-302
▁daoine	-303
thu	-304
uairiscíodh	-305
▁io	-306
ásanna	-307
ís	-308
íor	-309
▁o	-310
éal	-311
gur	-312
ras	-313
er	-314
idh	-315
eola	-316
▁faoi	-317
▁leis	-318
▁duine	-319
▁sláinte	-320
iom	-321
ainn	-322
▁Is	-323
▁sin	-324
ialta	-325
▁á	-326
ní	-327
lach	-328
rian	-329
árta	-330
mb	-331
mó	-332
chun	-333
sú	-334
ógra	-335
▁vacsaín	-336
▁ná	-337
st	-338
gc	-339
eir	-340
ghl	-341
▁víreas	-342
ma	-343
reis	-344
pr	-345
eabh	-346
aist	-347
aghaidh	-348
▁tar	-349
nadh	-350
úir	-351
if	-352
▁S	-353
íne	-354
eall	-355
▁raibh	-356
da	-357
lea	-358
coil	-359
ip	-360
▁bás	-361
at	-362
bhfuil	-363
▁u	-364
aile	-365
▁cú	-366
comh	-367
nacht	-368
00	-369
eis	-370
pid	-371
aim	-372
éis	-373
áig	-374
radh	-375
▁air	-376
eachta	-377
int	-378
vir	-379
▁ionfhabh	-380
iúil	-381
eagmháil	-382
▁chomh	-383
us	-384
eart	-385
▁dó	-386
▁F	-387
ítear	-388
chur	-389
▁roinn	-390
▁4	-391
acht	-392
má	-393
▁má	-394
▁ort	-395
▁sars	-396
lí	-397
▁ach	-398
atá	-399
ob	-400
▁3	-401
onraí	-402
eachtaí	-403
daoine	-404
ón	-405
eidhm	-406
▁)	-407
▁ta	-408
aine	-409
▁bheith	-410
eáil	-411
ástála	-412
sé	-413
▁dhéanamh	-414
sin	-415
en	-416
iar	-417
▁úsáid	-418
níos	-419
dach	-420
eacha	-421
▁idir	-422
naí	-423
▁aghaidh	-424
▁rud	-425
ru	-426
eic	-427
▁amh	-428
▁Má	-429
reisin	-430
déim	-431
lán	-432
aindéim	-433
▁iad	-434
rach	-435
navir	-436
▁An	-437
▁éis	-438
cu	-439
olá	-440
víris	-441
san	-442
▁gach	-443
uig	-444
▁as	-445
▁gur	-446
dt	-447
fach	-448
chtúir	-449
eá	-450
▁féin	-451
ronavir	-452
inic	-453
▁im	-454
▁meas	-455
▁chóir	-456
nas	-457
▁¦20	-458
aoin	-459
anacht	-460
▁nach	-461
0¦	-462
aol	-463
osc	-464
▁st	-465
▁chur	-466
▁2020	-467
▁duit	-468
mha	-469
ib	-470
▁la	-471
alar	-472
▁ann	-473
ath	-474
▁/	-475
4¦	-476
▁ní	-477
▁bhí	-478
ór	-479
rom	-480
▁Ní	-481
mpla	-482
oradh	-483
▁comharthaí	-484
uas	-485
▁dhaoine	-486
íochta	-487
▁L	-488
▁roinnt	-489
▁cl	-490
▁siad	-491
oibr	-492
chú	-493
bhairt	-494
▁den	-495
cú	-496
amh	-497
ram	-498
▁5	-499
▁don	-500
▁ina	-501
mu	-502
cás	-503
ois	-504
nad	-505
aidir	-506
ionfhabh	-507
eaghl	-508
eaghlaigh	-509
féidir	-510
eabhra	-511
▁fr	-512
▁san	-513
▁orthu	-514
íortha	-515
aig	-516
áisiún	-517
▁ón	-518
áirítear	-519
ead	-520
acha	-521
inne	-522
faoi	-523
▁G	-524
▁w	-525
ard	-526
dáil	-527
earbh	-528
eoirí	-529
▁trí	-530
▁fhéadfadh	-531
níomh	-532
áiste	-533
bhí	-534
pa	-535
▁¦3	-536
▁líon	-537
▁thug	-538
oiblí	-539
éil	-540
aipeadh	-541
duine	-542
ronavirus	-543
lu	-544
ábh	-545
igean	-546
eagmhála	-547
ospid	-548
ugadh	-549
aire	-550
óis	-551
ho	-552
easta	-553
▁márta	-554
▁¦2¦	-555
arr	-556
innt	-557
oimh	-558
-2	-559
sín	-560
▁ráig	-561
▁tástáil	-562
5¦	-563
▁lena	-564
lo	-565
leis	-566
airle	-567
déan	-568
áide	-569
▁rios	-570
dó	-571
ait	-572
sláinte	-573
iúla	-574
lúdach	-575
▁roimh	-576
áisiúnta	-577
thú	-578
▁ath	-579
▁thar	-580
fr	-581
ós	-582
aitheamh	-583
chomh	-584
tu	-585
▁tha	-586
coileanna	-587
▁amach	-588
aineann	-589
achta	-590
ál	-591
eac	-592
eanáir	-593
illiún	-594
eachas	-595
áirithe	-596
aic	-597
oc	-598
ort	-599
iomláin	-600
▁freisin	-601
▁isteach	-602
éile	-603
práide	-604
▁dóibh	-605
earfach	-606
uireadh	-607
tí	-608
tas	-609
tóg	-610
gach	-611
náth	-612
▁neamh	-613
sars	-614
éid	-615
asc	-616
▁domh	-617
▁leat	-618
li	-619
alair	-620
▁fáil	-621
am	-622
ola	-623
▁”	-624
▁amháin	-625
▁	-626
a	-627
¦	-628
i	-629
h	-630
n	-631
r	-632
e	-633
t	-634
s	-635
o	-636
c	-637
l	-638
d	-639
g	-640
á	-641
m	-642
u	-643
í	-644
b	-645
f	-646
é	-647
ú	-648
ó	-649
.	-650
,	-651
p	-652
v	-653
-	-654
1	-655
𐋇	-656
2	-657
0	-658
9	-659
’	-660
3	-661
4	-662
T	-663
5	-664
)	-665
(	-666
C	-667
D	-668
6	-669
8	-670
A	-671
7	-672
I	-673
M	-674
N	-675
B	-676
w	-677
:	-678
y	-679
S	-680
%	-681
F	-682
"	-683
/	-684
L	-685
k	-686
G	-687
z	-688
“	-689
;	-690
”	-691
'	-692
R	-693
–	-694
j	-695
x	-696
?	-697
O	-698
P	-699
Ú	-700
Ó	-701
q	-702
‘	-703
V	-704
$	-705
[	-706
]	-707
&	-708
U	-709
E	-710
Á	-711
€	-712
+	-713
≥	-714
H	-715
Í	-716
É	-717
#	-718
~	-719
×	-720
W	-721
@	-722
α	-723
β	-724
|	-725
£	-726
°	-727
ã	-728
ç	-729
γ	-730
—	-731
武	-732
肺	-733
K	-734
=	-735
_	-736
­	-737
à	-738
å	-739
′	-740
汉	-741
漢	-742
炎	-743
J	-744
X	-745
Y	-746
