<pad>	0
</s>	0
<unk>	0
्य	-0
्या	-1
▁क	-2
▁आ	-3
▁स	-4
▁प	-5
्र	-6
ार	-7
▁म	-8
▁अ	-9
▁व	-10
ां	-11
ना	-12
▁त	-13
ात	-14
▁ह	-15
र्	-16
ला	-17
▁द	-18
▁य	-19
हे	-20
च्या	-21
▁ज	-22
क्	-23
▁र	-24
▁आहे	-25
ले	-26
्ह	-27
ण्या	-28
ल्या	-29
▁न	-30
▁कर	-31
चा	-32
▁ल	-33
▁प्र	-34
ची	-35
ती	-36
िक	-37
▁अस	-38
वा	-39
ही	-40
▁आण	-41
ली	-42
ून	-43
▁ब	-44
▁आणि	-45
▁श	-46
सा	-47
ने	-48
स्	-49
रो	-50
▁को	-51
ंत	-52
▁हो	-53
▁सं	-54
ता	-55
▁के	-56
्ये	-57
णा	-58
मध	-59
▁का	-60
▁या	-61
▁उ	-62
ित	-63
▁ग	-64
▁त्या	-65
चे	-66
ठी	-67
क्ष	-68
ाव	-69
नी	-70
मध्ये	-71
▁वि	-72
साठी	-73
▁ए	-74
ाण	-75
▁घ	-76
▁झ	-77
ाय	-78
ान	-79
ंद	-80
व्ह	-81
वर	-82
▁ना	-83
ग्	-84
▁वा	-85
ील	-86
लं	-87
▁दि	-88
▁झा	-89
्ट	-90
▁रा	-91
ते	-92
▁नि	-93
ास	-94
शी	-95
▁ड	-96
रोना	-97
▁दे	-98
▁ट	-99
▁भ	-100
▁करण्या	-101
ुर	-102
▁रु	-103
▁कोरोना	-104
▁ला	-105
▁पर	-106
कार	-107
▁रुग्	-108
ेत	-109
का	-110
हि	-111
मु	-112
▁इ	-113
चं	-114
िं	-115
त्	-116
▁म्ह	-117
्यां	-118
कर	-119
▁स्	-120
▁लस	-121
▁जा	-122
लेल्या	-123
तात	-124
▁मा	-125
ळे	-126
▁आहेत	-127
री	-128
णे	-129
▁यां	-130
▁फ	-131
कड	-132
पर	-133
▁नाही	-134
▁सा	-135
ारी	-136
ष्ट	-137
द्	-138
ोक	-139
वि	-140
▁शक	-141
ार्	-142
▁राज	-143
ांना	-144
मी	-145
▁उप	-146
▁मु	-147
या	-148
ऱ्या	-149
▁त्यां	-150
▁रुग्ण	-151
सि	-152
▁ठ	-153
▁पा	-154
ारा	-155
वी	-156
मुळे	-157
▁2	-158
णी	-159
▁हे	-160
ंत्र	-161
▁1	-162
ेश	-163
▁ते	-164
▁मह	-165
▁ये	-166
स्थ	-167
की	-168
▁ख	-169
▁सुर	-170
जन	-171
ंतर	-172
र्ग	-173
ग्य	-174
ेल	-175
▁चा	-176
▁लोक	-177
ुस	-178
ण्यात	-179
▁एक	-180
▁च	-181
तो	-182
िल	-183
स्त	-184
्यात	-185
▁सर	-186
▁आरो	-187
तील	-188
ांग	-189
प्र	-190
्स	-191
▁ऑ	-192
▁म्हण	-193
िती	-194
▁किं	-195
▁सर्	-196
िट	-197
ळा	-198
▁लाग	-199
▁सरकार	-200
▁(	-201
▁मो	-202
▁किंवा	-203
णार	-204
▁तर	-205
बा	-206
▁पु	-207
मा	-208
▁आरोग्य	-209
सर्ग	-210
सी	-211
▁काही	-212
तर	-213
▁परि	-214
▁सांग	-215
धी	-216
पास	-217
▁कार	-218
धिक	-219
▁डॉ	-220
▁"	-221
रा	-222
▁निर्	-223
▁यांनी	-224
ंद्र	-225
से	-226
ंट	-227
▁संसर्ग	-228
▁ध	-229
जे	-230
▁वाढ	-231
ातील	-232
ळी	-233
▁असल्या	-234
▁तु	-235
19	-236
वे	-237
▁करण्यात	-238
ाल	-239
▁विष	-240
क्र	-241
्यंत	-242
माण	-243
सं	-244
▁की	-245
▁कमी	-246
ति	-247
ेट	-248
ोन	-249
ाग	-250
ूर्	-251
▁व्य	-252
स्ट	-253
▁आप	-254
▁होत	-255
▁वे	-256
▁आज	-257
ांच्या	-258
▁देश	-259
ाणू	-260
ल्	-261
नंतर	-262
ष्ट्र	-263
म्ह	-264
▁सर्व	-265
▁जात	-266
▁असं	-267
▁सम	-268
▁लशी	-269
्यू	-270
ोग	-271
टी	-272
जी	-273
▁मि	-274
क्षा	-275
द्ध	-276
णाऱ्या	-277
ांची	-278
णं	-279
ऊन	-280
-19	-281
व्हि	-282
क्त	-283
वस	-284
▁केली	-285
▁विषाणू	-286
ाप	-287
ण्यासाठी	-288
ंध	-289
ांमध्ये	-290
▁ही	-291
लय	-292
ंब	-293
▁लसी	-294
▁वापर	-295
ृत	-296
चार	-297
▁घे	-298
▁चाच	-299
ांनी	-300
ताना	-301
करण	-302
▁गे	-303
▁हा	-304
ेव	-305
▁पण	-306
दी	-307
र्ष	-308
▁लक्ष	-309
▁भार	-310
क्सि	-311
बत	-312
▁व्ह	-313
ख्या	-314
▁बा	-315
▁अधिक	-316
ोना	-317
▁20	-318
ंड	-319
ज्	-320
शा	-321
ईल	-322
▁केंद्र	-323
न्	-324
हिती	-325
▁करोना	-326
के	-327
पे	-328
त्र	-329
▁आले	-330
▁माहिती	-331
ोल	-332
पर्यंत	-333
क्ट	-334
वार	-335
▁कोव्हि	-336
नि	-337
द्या	-338
▁क्	-339
▁होते	-340
▁रुग्णा	-341
बंध	-342
ायर	-343
पासून	-344
▁सुरू	-345
ाला	-346
मे	-347
▁शि	-348
▁केले	-349
▁मृत	-350
श्	-351
▁मार्	-352
र्थ	-353
गी	-354
ाराष्ट्र	-355
पा	-356
िया	-357
▁स्थ	-358
डी	-359
िय	-360
▁निय	-361
ण्याची	-362
रात	-363
कडा	-364
▁मध	-365
▁कोव्हिड	-366
▁C	-367
▁महाराष्ट्र	-368
▁काम	-369
▁बंद	-370
▁घेत	-371
क्ती	-372
▁ऑक्सि	-373
ेड	-374
▁लॉ	-375
▁सु	-376
ावर	-377
▁दिवस	-378
▁उत्	-379
▁इतर	-380
▁ऑक्सिजन	-381
▁वर्ष	-382
वड	-383
्यु	-384
ांचा	-385
▁पुर	-386
नेक	-387
ात्र	-388
▁झाल्या	-389
▁दोन	-390
▁कु	-391
दा	-392
▁ज्या	-393
र्म	-394
ब्	-395
▁अनेक	-396
कडे	-397
▁आली	-398
▁हात	-399
्यम	-400
सार	-401
▁आढ	-402
वारी	-403
▁'	-404
रे	-405
म्ही	-406
िंग	-407
▁ती	-408
▁दिस	-409
▁दुस	-410
▁लॉकडा	-411
▁केला	-412
▁होती	-413
▁असलेल्या	-414
रिक	-415
ायरस	-416
▁महि	-417
▁प्रति	-418
▁जे	-419
ंत्री	-420
▁जास्त	-421
भाव	-422
▁एका	-423
▁प्रमाण	-424
दल	-425
्रे	-426
▁करण्यासाठी	-427
द्य	-428
र्स	-429
को	-430
ूर	-431
▁से	-432
▁काय	-433
▁येत	-434
▁संप	-435
▁नस	-436
▁काळ	-437
▁मोठ	-438
ीय	-439
▁मृत्यू	-440
त्या	-441
ुसार	-442
▁नो	-443
▁पो	-444
▁थ	-445
▁आता	-446
▁औ	-447
▁शा	-448
कीय	-449
मान	-450
च्	-451
तिक	-452
▁मान	-453
ऱ्यां	-454
▁दु	-455
डे	-456
▁यु	-457
क्षण	-458
▁तय	-459
▁आढळ	-460
▁करत	-461
▁झाला	-462
स्थिती	-463
▁सो	-464
▁राह	-465
▁च्या	-466
शन	-467
िन	-468
िल्ह	-469
्यक	-470
▁रुग्णालय	-471
▁झाली	-472
▁झाले	-473
ज्ञ	-474
▁रो	-475
बाबत	-476
▁होता	-477
्रा	-478
▁चाचणी	-479
▁परिणा	-480
देश	-481
ूर्ण	-482
प्	-483
▁टक्	-484
VI	-485
ांवर	-486
जार	-487
OVI	-488
▁स्व	-489
ांत	-490
▁विक	-491
OVID	-492
ाच्या	-493
▁व्यक्ती	-494
▁जिल्ह	-495
ंभ	-496
ोध	-497
▁सांगित	-498
▁3	-499
▁दा	-500
▁वै	-501
▁असे	-502
▁त्यांच्या	-503
▁म्हट	-504
20	-505
▁कोण	-506
वश	-507
▁औष	-508
▁गर	-509
व्ही	-510
▁म्हणून	-511
▁व्हायरस	-512
▁ने	-513
▁नाग	-514
▁लॉकडाऊन	-515
वश्यक	-516
▁माग	-517
▁असेल	-518
▁COVID	-519
▁म्हणा	-520
टे	-521
▁औषध	-522
▁परिणाम	-523
▁सह	-524
▁भाग	-525
▁झालेल्या	-526
स्क	-527
नुसार	-528
शि	-529
▁ची	-530
व्हा	-531
ाणी	-532
▁मुख	-533
▁वेग	-534
▁मिळ	-535
भाग	-536
▁क्ष	-537
▁ठेव	-538
▁आय	-539
कडून	-540
▁संख्या	-541
▁करून	-542
ाने	-543
ध्या	-544
▁लसीकरण	-545
▁मार्च	-546
रम	-547
▁यांच्या	-548
खी	-549
▁दिली	-550
▁केल्या	-551
्हे	-552
▁टा	-553
▁5	-554
▁प्रवा	-555
मधील	-556
▁तयार	-557
▁प्रा	-558
▁उपचार	-559
▁अन	-560
ंग	-561
ोर	-562
र्क	-563
लब्	-564
▁डो	-565
क्रम	-566
▁परिस्थिती	-567
▁रू	-568
लब्ध	-569
▁उपलब्ध	-570
▁देण्यात	-571
ंप	-572
▁पुढ	-573
ंबई	-574
पेक्षा	-575
▁गेल्या	-576
▁अशा	-577
▁त्यांना	-578
▁गो	-579
▁आजार	-580
ांसाठी	-581
धार	-582
▁नोंद	-583
थे	-584
ष्	-585
▁आपल्या	-586
▁म्हटलं	-587
वळ	-588
▁१	-589
▁म्हणजे	-590
तं	-591
सर	-592
▁आला	-593
▁मात्र	-594
▁मुंबई	-595
ओव्ही	-596
▁शक्य	-597
▁म्हणाले	-598
्ल	-599
▁डॉक्ट	-600
▁केलं	-601
▁राज्य	-602
ण्याचा	-603
▁त्यामुळे	-604
पी	-605
▁ति	-606
वात	-607
▁सार्	-608
▁राज्या	-609
▁पहि	-610
▁टक्के	-611
▁तो	-612
▁शह	-613
▁करणे	-614
▁सू	-615
▁रोग	-616
▁स्प	-617
नं	-618
▁अशी	-619
▁हजार	-620
▁तरी	-621
▁जाग	-622
▁आम्ही	-623
▁राज्यात	-624
▁यो	-625
प्रिल	-626
▁महिन	-627
▁सुरु	-628
RS	-629
हो	-630
▁जो	-631
▁रे	-632
खा	-633
▁2020	-634
▁प्रय	-635
00	-636
▁महत्	-637
▁एप्रिल	-638
▁त्यांनी	-639
▁4	-640
▁हॉ	-641
ीर	-642
ष्टी	-643
▁विद्या	-644
ावा	-645
▁बोल	-646
▁अभ	-647
सो	-648
धान	-649
▁जग	-650
▁चाचण्या	-651
िका	-652
▁पड	-653
▁असून	-654
▁रूग्	-655
▁जाण	-656
ावी	-657
▁कोवि	-658
ठा	-659
▁समाव	-660
स्प	-661
▁-	-662
▁मुल	-663
म्हाला	-664
▁शकतो	-665
▁भारतात	-666
▁मोठ्या	-667
▁असल्याचं	-668
▁होतं	-669
▁:	-670
▁कार्य	-671
."	-672
▁सि	-673
▁कंप	-674
▁सांगतात	-675
▁डि	-676
ांचे	-677
▁नवी	-678
▁दाख	-679
ण्यास	-680
▁पुरव	-681
▁पे	-682
्यांना	-683
बी	-684
न्स	-685
वाय	-686
ातून	-687
▁लाख	-688
▁ओ	-689
▁कर्म	-690
पणे	-691
ैकी	-692
▁स्ट	-693
सीओव्ही	-694
ये	-695
िम	-696
▁डॉक्टर	-697
▁आठ	-698
▁साथ	-699
द्यकीय	-700
▁सरकारने	-701
मक	-702
▁निर्ण	-703
▁मध्ये	-704
▁शकतात	-705
▁सध्या	-706
र्श	-707
▁होऊ	-708
▁डोस	-709
▁जी	-710
▁श्	-711
▁येईल	-712
▁वैद्यकीय	-713
वस्थ	-714
र्भ	-715
▁आलं	-716
▁ठर	-717
▁धु	-718
▁होतो	-719
▁आवश्यक	-720
▁सांगितलं	-721
▁ठा	-722
▁सी	-723
▁आल्या	-724
ाज	-725
ंभीर	-726
गळ	-727
ख्ये	-728
▁पाल	-729
▁कोविड	-730
▁लोकांना	-731
िव्ह	-732
▁नागरिक	-733
▁प्रकार	-734
करणा	-735
▁गरज	-736
▁नवीन	-737
▁गंभीर	-738
मच्या	-739
▁निर्णय	-740
सेस	-741
▁प्रभाव	-742
वान	-743
ूक	-744
▁S	-745
▁मद	-746
▁कारण	-747
▁२	-748
▁अॅ	-749
हेर	-750
▁बी	-751
▁महाराष्ट्रात	-752
विध	-753
▁मी	-754
▁दुसऱ्या	-755
ात्	-756
▁मिळा	-757
▁समावेश	-758
पाद	-759
▁असा	-760
▁चीन	-761
▁असले	-762
▁विद्यार्थ	-763
▁अँ	-764
▁स्थिती	-765
हान	-766
▁शाळा	-767
▁ह्या	-768
र्ड	-769
▁बदल	-770
▁वाट	-771
▁शकते	-772
▁गु	-773
▁मास्क	-774
ण्याच्या	-775
▁करू	-776
▁महत्त्	-777
ूर्वी	-778
▁मुख्यम	-779
ुक	-780
िटल	-781
▁घट	-782
्याय	-783
▁नाहीत	-784
▁6	-785
शास	-786
▁देख	-787
▁संश	-788
करे	-789
द्दल	-790
क्स	-791
्यान	-792
▁ठाकरे	-793
ईन	-794
बर	-795
ावे	-796
▁पुन	-797
▁उत्पाद	-798
▁रि	-799
▁व्या	-800
ॉल	-801
▁7	-802
मडे	-803
ॅन	-804
▁दर	-805
वारे	-806
रम्यान	-807
▁पूर्ण	-808
शे	-809
▁रूग्ण	-810
▁विभाग	-811
Co	-812
च्छ	-813
▁चे	-814
ायला	-815
▁नियम	-816
हीर	-817
पैकी	-818
▁आठवड	-819
▁शक्यता	-820
▁संपर्क	-821
▁सुरुवात	-822
धित	-823
▁संबंध	-824
दर	-825
▁अभ्या	-826
▁आलेल्या	-827
टा	-828
ंना	-829
▁विचार	-830
▁आपण	-831
मडेसि	-832
▁जाहीर	-833
▁परवान	-834
▁नियंत्र	-835
्हा	-836
▁सूच	-837
विष	-838
▁फे	-839
▁बेड	-840
▁संसर्गा	-841
▁चाल	-842
▁पाहि	-843
सह	-844
भरात	-845
क्षित	-846
▁जागतिक	-847
▁निर्बंध	-848
▁महत्त्वा	-849
▁जन	-850
▁मू	-851
बद्दल	-852
▁पसर	-853
ंचा	-854
▁क्षेत	-855
▁परवानगी	-856
▁मे	-857
▁ठिक	-858
▁म्हणतात	-859
▁8	-860
▁असते	-861
ल्यानंतर	-862
▁भर	-863
▁पुढे	-864
▁केलेल्या	-865
▁छ	-866
▁प्रसार	-867
▁करण्याची	-868
ARS	-869
▁प्रत	-870
▁हॉस्प	-871
पूर	-872
▁टे	-873
▁तुम्हाला	-874
ग्र	-875
णारे	-876
▁अमे	-877
▁व्हे	-878
▁प्रशास	-879
▁हॉस्पिटल	-880
ंबर	-881
▁मदत	-882
▁लाव	-883
▁काळात	-884
▁लक्षणे	-885
प्प	-886
ोट	-887
▁निर्माण	-888
दे	-889
र्ट	-890
व्या	-891
▁परी	-892
▁शोध	-893
ज्ज्ञ	-894
▁उपाय	-895
▁दिसून	-896
▁बोलताना	-897
CoV	-898
▁लागू	-899
्यांनी	-900
▁अमेरिक	-901
▁रुग्णालयात	-902
ोका	-903
▁जाते	-904
▁प्रश्	-905
▁प्रयत्	-906
▁रेमडेसि	-907
च्च	-908
▁अज	-909
▁नमु	-910
▁प्रमाणात	-911
ठव	-912
ांचं	-913
▁रोजी	-914
लो	-915
▁काढ	-916
▁कोटी	-917
▁पत्र	-918
▁मंत्र	-919
▁ट्र	-920
▁पाह	-921
्रु	-922
▁जाईल	-923
▁मार्ग	-924
रण	-925
▁ऑफ	-926
सोबत	-927
▁पहिल्या	-928
▁10	-929
▁संस्थ	-930
मिक	-931
रोध	-932
▁SARS	-933
▁दाखल	-934
▁देशात	-935
▁9	-936
▁रुग्णांची	-937
▁मागणी	-938
▁कोणत्या	-939
लया	-940
▁जर	-941
ीच्या	-942
▁अर्थ	-943
▁तपास	-944
▁प्रयत्न	-945
मुख	-946
▁उद	-947
▁व्यवस्थ	-948
साय	-949
▁कंपनी	-950
ोज	-951
लाव	-952
▁पॉ	-953
▁संक	-954
डा	-955
म्	-956
▁शरी	-957
▁श्वस	-958
रि	-959
▁अति	-960
▁वेळ	-961
▁याचा	-962
▁देखील	-963
▁योग्य	-964
▁असताना	-965
▁धोका	-966
मंत्री	-967
▁प्रश्न	-968
ंच्या	-969
▁उद्ध	-970
▁आजारा	-971
▁काळजी	-972
▁कोरोनाची	-973
▁लाट	-974
▁संक्रम	-975
▁तीन	-976
▁संघ	-977
▁ग्रा	-978
▁विकस	-979
▁पुरवठा	-980
▁क्षेत्र	-981
▁लसीकरणा	-982
िव	-983
िकल	-984
ेशन	-985
रातील	-986
▁मुख्यमंत्री	-987
अर	-988
▁इन्	-989
▁पद्ध	-990
▁पुन्हा	-991
ावं	-992
▁दिले	-993
द्वारे	-994
▁यांना	-995
ूप	-996
ंटर	-997
▁कुठ	-998
▁रुग्णसं	-999
बीसी	-1000
▁ताप	-1001
▁उद्धव	-1002
तः	-1003
भू	-1004
िस	-1005
ोष	-1006
ल्ली	-1007
▁पात	-1008
▁उत्तर	-1009
्यक्ष	-1010
प्रधान	-1011
▁तेव्हा	-1012
▁नसल्या	-1013
▁बीबीसी	-1014
ंतप्रधान	-1015
▁करणाऱ्या	-1016
चित	-1017
नात	-1018
▁बै	-1019
दान	-1020
▁मोदी	-1021
प्रमाण	-1022
▁उद्रे	-1023
▁टेस्ट	-1024
▁बाहेर	-1025
मार	-1026
ांब	-1027
▁क्र	-1028
▁तसं	-1029
▁करता	-1030
पूर्वी	-1031
▁कर्मचा	-1032
▁पंतप्रधान	-1033
यी	-1034
िर	-1035
शेष	-1036
▁अव	-1037
▁असू	-1038
▁संबंधित	-1039
▁कोरोनाचा	-1040
टर	-1041
▁इं	-1042
मधून	-1043
▁वाह	-1044
▁साध	-1045
मान्य	-1046
▁दिला	-1047
▁I	-1048
▁चर्	-1049
▁जवळ	-1050
▁भारत	-1051
▁संशोध	-1052
▁राष्ट्र	-1053
▁डेट	-1054
▁किती	-1055
▁सार्स	-1056
▁दिल्ली	-1057
▁येणार	-1058
▁अभ्यास	-1059
▁विकसित	-1060
▁प्रत्ये	-1061
-2	-1062
दार	-1063
▁बैठ	-1064
▁सार्व	-1065
्यांच्या	-1066
▁टो	-1067
जनिक	-1068
व्हॅ	-1069
▁खास	-1070
ंची	-1071
िके	-1072
वेळी	-1073
▁तास	-1074
▁दिव	-1075
▁विशेष	-1076
प्रमाणे	-1077
▁जाने	-1078
▁नव्ह	-1079
▁तुम्ही	-1080
▁असल्याचे	-1081
▁जानेवारी	-1082
शल	-1083
ित्	-1084
▁जाऊ	-1085
▁ठिकाणी	-1086
▁कर्मचाऱ्यां	-1087
झिट	-1088
▁खा	-1089
▁सेवा	-1090
▁रुग्णांना	-1091
▁R	-1092
▁आधार	-1093
▁घ्या	-1094
▁पातळी	-1095
▁सार्वजनिक	-1096
हु	-1097
▁अनु	-1098
▁घरी	-1099
ात्री	-1100
▁करतात	-1101
▁जण	-1102
▁टप्प	-1103
▁भारता	-1104
▁होणार	-1105
▁शिक्षण	-1106
दाय	-1107
▁बाय	-1108
खे	-1109
हा	-1110
ानिक	-1111
▁वाढव	-1112
▁पॉझिट	-1113
▁अध	-1114
▁वर	-1115
▁आढळून	-1116
▁अड	-1117
▁कि	-1118
ुद्ध	-1119
▁आधी	-1120
ात्मक	-1121
▁महिन्यात	-1122
वाल	-1123
वास	-1124
▁इत	-1125
▁उच्च	-1126
▁नियंत्रण	-1127
▁प्रतिबंध	-1128
जन्य	-1129
▁प्रव	-1130
▁तज्ज्ञ	-1131
ूण	-1132
ृती	-1133
▁होईल	-1134
▁पद्धती	-1135
▁स्पष्ट	-1136
ुन	-1137
▁चि	-1138
▁नये	-1139
▁साम	-1140
▁लक्षणं	-1141
▁करण्यास	-1142
विक	-1143
▁संपूर्ण	-1144
टु	-1145
्ड	-1146
ंतु	-1147
▁सगळ	-1148
▁चर्चा	-1149
▁परीक्षा	-1150
▁प्रभावी	-1151
ळख	-1152
र्भात	-1153
▁तसंच	-1154
▁विविध	-1155
▁याबाबत	-1156
्फ	-1157
ष्ठ	-1158
णारी	-1159
र्या	-1160
▁अंद	-1161
▁उद्	-1162
▁झालं	-1163
▁पोहो	-1164
▁असतात	-1165
▁जिल्हा	-1166
वीर	-1167
▁अह	-1168
▁आम	-1169
ध्यम	-1170
▁तुल	-1171
▁गेले	-1172
वाई	-1173
ोजन	-1174
▁आहो	-1175
▁असतो	-1176
गर	-1177
▁19	-1178
पत्र	-1179
▁घाल	-1180
▁फाय	-1181
▁वर्	-1182
ेवारी	-1183
▁आहोत	-1184
ोम	-1185
ाची	-1186
▁बन	-1187
▁घोष	-1188
▁शिफ	-1189
▁याची	-1190
ण्याचे	-1191
▁दुसरी	-1192
▁प्रक्र	-1193
▁प्रवास	-1194
माज	-1195
व्र	-1196
▁त्र	-1197
▁लहान	-1198
▁ओळख	-1199
ांपासून	-1200
्यांमध्ये	-1201
▁पॉझिटिव्ह	-1202
मता	-1203
▁कुटु	-1204
▁कॉ	-1205
▁फु	-1206
▁बहु	-1207
▁संघट	-1208
▁गोष्टी	-1209
वं	-1210
▁तसे	-1211
▁तीव्र	-1212
ंज	-1213
वरील	-1214
▁प्रशासना	-1215
कारक	-1216
▁सल्	-1217
क्षणा	-1218
▁लागण	-1219
▁अधिका	-1220
▁पोहोच	-1221
्याच्या	-1222
झर	-1223
हून	-1224
▁एखा	-1225
▁मला	-1226
लावधी	-1227
▁घेतला	-1228
▁पर्यंत	-1229
▁करण्याचा	-1230
पो	-1231
तिकार	-1232
▁डेटा	-1233
▁केसेस	-1234
्रुवारी	-1235
▁फेब	-1236
▁कालावधी	-1237
▁राज्यातील	-1238
तीत	-1239
थील	-1240
्री	-1241
▁सात	-1242
ंनी	-1243
िले	-1244
▁शे	-1245
▁फेब्रुवारी	-1246
▁अम	-1247
ार्थ	-1248
ुक्त	-1249
▁एकूण	-1250
वत	-1251
गार	-1252
योग	-1253
ाती	-1254
▁अं	-1255
▁बस	-1256
क्शन	-1257
▁आकड	-1258
▁महाप	-1259
्यातील	-1260
▁शिफार	-1261
▁तुमच्या	-1262
▁दरम्यान	-1263
▁त्यानंतर	-1264
न्ट	-1265
र्ज	-1266
▁तुट	-1267
▁त्यात	-1268
▁माध्यम	-1269
ल्प	-1270
▁खूप	-1271
क्सिन	-1272
स्त्र	-1273
▁कोरोनाच्या	-1274
न्न	-1275
▁माझ	-1276
▁पाठव	-1277
▁फक्त	-1278
▁लाटे	-1279
▁यासाठी	-1280
▁असल्याने	-1281
▁प्रत्येक	-1282
रोग	-1283
्ही	-1284
▁गा	-1285
▁लढ	-1286
रोधी	-1287
▁कार्या	-1288
▁प्रदेश	-1289
लगी	-1290
▁अंतर	-1291
▁सूचना	-1292
▁सरकारी	-1293
▁मंत्राल	-1294
▁केंद्रीय	-1295
▁त्याच्या	-1296
▁बेड्स	-1297
▁भागात	-1298
दर्श	-1299
▁करा	-1300
▁गर्	-1301
▁रोख	-1302
ासाठी	-1303
▁आढळले	-1304
▁यंत्र	-1305
▁सामान्य	-1306
▁“	-1307
्युट	-1308
▁केवळ	-1309
▁पाहिजे	-1310
▁होत्या	-1311
साद	-1312
ूर्व	-1313
▁आदेश	-1314
▁द्या	-1315
▁जेव्हा	-1316
▁संख्ये	-1317
▁स्वच्छ	-1318
फे	-1319
ियन	-1320
▁50	-1321
▁जि	-1322
▁चार	-1323
▁पाच	-1324
▁संर	-1325
▁जातो	-1326
▁तसेच	-1327
▁प्रकरण	-1328
वण्यात	-1329
▁खासगी	-1330
▁तुटवड	-1331
▁श्वसन	-1332
▁रुग्णसंख्या	-1333
ाचे	-1334
स्टिट	-1335
▁दिसत	-1336
▁असतील	-1337
▁गर्दी	-1338
विषयी	-1339
▁व्यक्त	-1340
▁कोणत्याही	-1341
दु	-1342
भव	-1343
लक	-1344
▁कॅ	-1345
णारा	-1346
▁येऊ	-1347
▁कर्मच	-1348
प्ट	-1349
ॅक्ट	-1350
र्थिक	-1351
▁वाढत	-1352
▁विश्	-1353
▁त्रास	-1354
▁लशीच्या	-1355
▁आकडेवारी	-1356
हन	-1357
ाचा	-1358
▁कम	-1359
माणा	-1360
▁जीव	-1361
▁परत	-1362
▁घेऊन	-1363
▁निर्म	-1364
▁मर्या	-1365
▁कुटुंब	-1366
▁गरजे	-1367
▁चांग	-1368
नेत	-1369
▁कड	-1370
ांशी	-1371
▁अजून	-1372
▁प्रयोग	-1373
▁उत्पादन	-1374
▁कर्मचारी	-1375
लिक	-1376
▁अप	-1377
▁आर	-1378
▁एच	-1379
▁ठे	-1380
▁योज	-1381
▁निवड	-1382
▁वाहत	-1383
नाच्या	-1384
▁लागेल	-1385
▁दोन्ही	-1386
▁प्रमाणा	-1387
▁सांगितले	-1388
▁सुरक्षित	-1389
▁४	-1390
निट	-1391
राव	-1392
ांश	-1393
▁इंड	-1394
▁साब	-1395
▁त्याचा	-1396
▁प्रमुख	-1397
▁शिफारस	-1398
फ्फ	-1399
▁टाळ	-1400
▁M	-1401
ृत्	-1402
▁दूर	-1403
बाधित	-1404
▁बायो	-1405
ंमध्ये	-1406
▁राजेश	-1407
▁सेंटर	-1408
▁करताना	-1409
▁प्रवेश	-1410
▁अधिकारी	-1411
लॉ	-1412
▁P	-1413
मीण	-1414
▁टी	-1415
चारा	-1416
व्हे	-1417
्यूट	-1418
▁दिलेल्या	-1419
एस	-1420
गे	-1421
धा	-1422
भा	-1423
▁३	-1424
लीन	-1425
शिवाय	-1426
▁कोव्हॅ	-1427
▁इन्स्टिट	-1428
▁येणाऱ्या	-1429
ंटा	-1430
वले	-1431
▁14	-1432
▁बो	-1433
▁भी	-1434
वाला	-1435
▁घेतली	-1436
▁ग्रामीण	-1437
उन	-1438
ानं	-1439
ुकी	-1440
▁साथी	-1441
▁येथील	-1442
▁लोकसं	-1443
▁आर्थिक	-1444
▁रात्री	-1445
▁‘	-1446
विर	-1447
▁मॉ	-1448
काळी	-1449
्रेन	-1450
▁आणखी	-1451
▁अंदाज	-1452
▁करावी	-1453
▁नव्या	-1454
▁फुफ्फ	-1455
▁आमच्या	-1456
▁महापाल	-1457
▁स्थानिक	-1458
लंब	-1459
▁तिस	-1460
▁ब्र	-1461
▁कंपन	-1462
▁सल्ला	-1463
सारख्या	-1464
▁होण्याची	-1465
▁कार्यक्रम	-1466
घड	-1467
▁A	-1468
व्य	-1469
▁लि	-1470
▁नंतर	-1471
▁जाणार	-1472
शील	-1473
ेल्	-1474
▁ट्	-1475
निरी	-1476
▁चिक	-1477
▁पास	-1478
▁गेली	-1479
▁टोपे	-1480
▁पेशी	-1481
▁प्रो	-1482
▁व्हेंट	-1483
▁W	-1484
000	-1485
टली	-1486
▁मन	-1487
▁बरे	-1488
▁मरा	-1489
शिष्ट	-1490
▁थांब	-1491
▁निष्	-1492
▁पुणे	-1493
लगीकरण	-1494
ँग	-1495
▁15	-1496
▁अत	-1497
वाधिक	-1498
▁पालक	-1499
▁पेक्षा	-1500
▁घेण्यात	-1501
▁राष्ट्रीय	-1502
▁अधिकाऱ्यां	-1503
▁माहितीनुसार	-1504
HO	-1505
बाब	-1506
र्च	-1507
रोबर	-1508
िओ	-1509
▁अन्य	-1510
▁यावर	-1511
ल्याने	-1512
▁परंतु	-1513
▁नागपूर	-1514
▁पर्याय	-1515
▁प्रवाश	-1516
▁यामुळे	-1517
▁संनिरी	-1518
▁प्रतिसाद	-1519
▁ऑक्सिजनची	-1520
ृह	-1521
▁शहर	-1522
▁शास	-1523
▁न्यू	-1524
वारंटा	-1525
▁शहरात	-1526
▁लॉकडाउन	-1527
ूल	-1528
वाद	-1529
▁बि	-1530
क्षे	-1531
▁फार	-1532
▁समज	-1533
▁करणं	-1534
▁मान्य	-1535
▁जगभरात	-1536
▁प्रयोगशा	-1537
▁सर्वाधिक	-1538
▁होणाऱ्या	-1539
▁एचसीओव्ही	-1540
एन	-1541
ळू	-1542
▁रुप	-1543
▁शकत	-1544
▁येथे	-1545
▁घोषणा	-1546
▁त्याच	-1547
▁अमेरिके	-1548
▁पत्रकार	-1549
ाम	-1550
क्सी	-1551
ळ्या	-1552
▁कधी	-1553
कालीन	-1554
▁करतो	-1555
▁जातं	-1556
▁टक्क	-1557
▁सर्वात	-1558
▁आतापर्यंत	-1559
▁जिल्ह्यात	-1560
▁मंत्रालया	-1561
ीन	-1562
▁फो	-1563
पोर्ट	-1564
▁त्याची	-1565
कल	-1566
पड	-1567
बॉ	-1568
षण	-1569
ुल	-1570
नाय	-1571
रिय	-1572
▁फ्ल	-1573
▁साठी	-1574
▁स्वर	-1575
ण्याचं	-1576
▁बाधित	-1577
▁मुख्य	-1578
▁लक्षात	-1579
वारंटाईन	-1580
आर	-1581
ॅट	-1582
००	-1583
द्द	-1584
रोप	-1585
▁दुख	-1586
▁बाल	-1587
▁भीती	-1588
▁असंही	-1589
▁उपचारा	-1590
▁त्यांची	-1591
▁चौ	-1592
▁थो	-1593
▁सौ	-1594
थमिक	-1595
वसाय	-1596
▁अंत	-1597
▁पार	-1598
▁यात	-1599
ग्रस्त	-1600
▁भू	-1601
▁बात	-1602
▁मते	-1603
्याने	-1604
▁करते	-1605
▁करणार	-1606
▁सुविध	-1607
▁प्रमाणावर	-1608
▁झाल्यानंतर	-1609
मल	-1610
▁12	-1611
▁30	-1612
दारी	-1613
बॉडी	-1614
्राझ	-1615
्रेस	-1616
▁प्राण	-1617
▁बैठकी	-1618
ंदर्भात	-1619
व्हायरस	-1620
▁विषाणूच्या	-1621
▁इन्स्टिट्यूट	-1622
काळ	-1623
टेक	-1624
▁भा	-1625
लेले	-1626
▁सोड	-1627
ल्यास	-1628
▁लशीचा	-1629
▁संभाव	-1630
णाऱ्यां	-1631
▁पुष्टी	-1632
▁मुंबईत	-1633
▁असणाऱ्या	-1634
▁आपल्याला	-1635
▁निर्मिती	-1636
▁रुग्णालया	-1637
झा	-1638
वली	-1639
ांक	-1640
▁पी	-1641
▁अल्	-1642
▁वाच	-1643
्यावर	-1644
रेंद्र	-1645
▁वेगवे	-1646
▁तपासणी	-1647
▁त्याला	-1648
▁विषाणूचा	-1649
नला	-1650
▁अश	-1651
▁उभ	-1652
▁लव	-1653
र्गत	-1654
माजिक	-1655
▁इंजे	-1656
▁इटली	-1657
▁चिंत	-1658
▁अत्या	-1659
▁तुटवडा	-1660
ांपेक्षा	-1661
▁म्हटलंय	-1662
ईट	-1663
▁५	-1664
तीय	-1665
दित	-1666
पुर	-1667
बंद	-1668
ीला	-1669
▁कळ	-1670
मेंट	-1671
▁रक्त	-1672
▁कोणती	-1673
▁यांचा	-1674
▁संघटने	-1675
▁प्राथमिक	-1676
▁व्हेंटिले	-1677
▁आरोग्यमंत्री	-1678
ीत	-1679
ुष	-1680
▁सार	-1681
▁अँटी	-1682
▁ठेवा	-1683
▁मोठा	-1684
ांकडून	-1685
▁एकत्र	-1686
दरम्यान	-1687
▁अत्यंत	-1688
▁एखाद्या	-1689
▁नरेंद्र	-1690
▁इंजेक्शन	-1691
▁रेमडेसिवीर	-1692
CE	-1693
पणा	-1694
म्य	-1695
▁ड्र	-1696
▁शेव	-1697
द्योग	-1698
▁क्षमता	-1699
▁अध्यक्ष	-1700
▁असल्यास	-1701
▁उद्रेका	-1702
▁लोकांच्या	-1703
▁क्वारंटाईन	-1704
बल	-1705
ेन	-1706
रोज	-1707
▁मत	-1708
▁सहा	-1709
▁मोठी	-1710
्यांची	-1711
▁करावा	-1712
▁लक्षण	-1713
▁शरीरात	-1714
▁देशातील	-1715
खीम	-1716
▁11	-1717
िष्ट	-1718
▁खोक	-1719
▁पाव	-1720
▁मेड	-1721
▁साय	-1722
▁सॅन	-1723
रिक्त	-1724
ित्या	-1725
ित्सा	-1726
▁चालू	-1727
▁पक्ष	-1728
▁लवकर	-1729
▁वेगाने	-1730
▁आम्हाला	-1731
▁संभाव्य	-1732
▁ज्यामध्ये	-1733
▁सरकारच्या	-1734
एम	-1735
▁शु	-1736
ुहान	-1737
▁थेट	-1738
▁पाळ	-1739
▁बाब	-1740
▁रक्	-1741
▁मध्य	-1742
▁पूर्व	-1743
ंच	-1744
जाव	-1745
दाह	-1746
▁मग	-1747
स्थित	-1748
▁सोशल	-1749
▁जोखीम	-1750
▁असलेले	-1751
▁तुलनेत	-1752
▁नोंदणी	-1753
▁स्पर्श	-1754
▁लोकांनी	-1755
वण्यासाठी	-1756
▁चिकित्सा	-1757
▁अत्यावश्यक	-1758
),	-1759
ंधी	-1760
▁कोर	-1761
▁निक	-1762
▁हाय	-1763
▁समोर	-1764
कोरोना	-1765
▁अवलंब	-1766
▁बऱ्या	-1767
▁सामाजिक	-1768
ंस	-1769
्त	-1770
ंदा	-1771
काश	-1772
ांड	-1773
▁घर	-1774
▁सच	-1775
धारण	-1776
▁WHO	-1777
▁तोंड	-1778
▁नमुन	-1779
▁अहवाल	-1780
▁मराठी	-1781
▁जवळपास	-1782
▁रूग्णा	-1783
▁असल्याची	-1784
▁त्यासाठी	-1785
जय	-1786
्व	-1787
▁ढ	-1788
िटी	-1789
▁फ्र	-1790
बाहेर	-1791
सेंबर	-1792
▁दिलं	-1793
▁स्वतः	-1794
▁उद्रेक	-1795
▁मृत्यु	-1796
▁फुफ्फुस	-1797
▁प्रक्रिया	-1798
▁लोकसंख्ये	-1799
▁रुग्णांच्या	-1800
नो	-1801
ॅब	-1802
क्षक	-1803
▁घात	-1804
▁भाज	-1805
▁तिथे	-1806
▁पार्	-1807
▁प्रक	-1808
▁मधील	-1809
ल्याचं	-1810
्यांचा	-1811
▁तयारी	-1812
▁विरोध	-1813
▁संशोधन	-1814
▁परिणामकारक	-1815
सम	-1816
ड्र	-1817
बाद	-1818
बंधी	-1819
लेली	-1820
वरून	-1821
▁200	-1822
▁समस	-1823
▁जनते	-1824
▁वर्ग	-1825
▁लाटेत	-1826
▁रोगप्र	-1827
).	-1828
लीस	-1829
वून	-1830
▁24	-1831
भूमी	-1832
▁गाव	-1833
▁टाक	-1834
▁मंज	-1835
▁मॉड	-1836
▁अंमल	-1837
▁आरोप	-1838
▁कामा	-1839
▁दक्ष	-1840
▁पालन	-1841
▁रेल्	-1842
▁संकट	-1843
▁होऊन	-1844
▁निवडण	-1845
▁वुहान	-1846
▁डिसेंबर	-1847
▁मुलांना	-1848
▁विलगीकरण	-1849
बो	-1850
लाय	-1851
▁सत	-1852
श्चित	-1853
▁आंतर	-1854
▁उदाह	-1855
▁जबाब	-1856
▁बहुत	-1857
▁आजारी	-1858
▁करावं	-1859
▁सॅनिट	-1860
▁भारतीय	-1861
▁मंत्री	-1862
धन	-1863
भूत	-1864
ित्र	-1865
▁देत	-1866
▁समु	-1867
▁हॉट	-1868
▁पासून	-1869
▁युरोप	-1870
▁विमान	-1871
▁लोकांमध्ये	-1872
▁हॉस्पिटलमध्ये	-1873
निक	-1874
▁गट	-1875
▁दृ	-1876
▁आवा	-1877
▁घटक	-1878
▁प्रस	-1879
▁मोही	-1880
▁जातात	-1881
▁पोलीस	-1882
▁प्रकाश	-1883
ांपर्यंत	-1884
▁यामध्ये	-1885
▁घेण्यासाठी	-1886
▁विद्यार्थी	-1887
टवा	-1888
हित	-1889
▁तुम	-1890
▁2019	-1891
▁ऑनला	-1892
▁नाते	-1893
▁फ्लू	-1894
ांमधील	-1895
▁अद्या	-1896
▁टास्क	-1897
▁रेल्वे	-1898
▁त्यांचे	-1899
▁संक्रमण	-1900
▁सुरक्षा	-1901
जा	-1902
मोन	-1903
▁अग	-1904
▁दी	-1905
टवाघ	-1906
▁क्ल	-1907
▁संद	-1908
▁पवार	-1909
▁युके	-1910
▁घ्याय	-1911
▁नमुने	-1912
▁बाजार	-1913
▁वटवाघ	-1914
▁सकाळी	-1915
▁उपस्थित	-1916
▁प्रॅक्ट	-1917
▁बहुतांश	-1918
▁कार्यालय	-1919
वढ	-1920
िता	-1921
▁18	-1922
▁वॉ	-1923
द्धा	-1924
बंदी	-1925
मार्	-1926
ोजित	-1927
▁खरे	-1928
▁दुक	-1929
▁पोल	-1930
▁वित	-1931
▁खाली	-1932
▁अमराव	-1933
▁आलेली	-1934
▁सौम्य	-1935
▁अद्याप	-1936
▁कामगार	-1937
▁झालेली	-1938
संदर्भात	-1939
▁मार्गदर्श	-1940
▁कोव्हॅक्सिन	-1941
▁कोरोनाग्रस्त	-1942
टक	-1943
ाई	-1944
ट्ट	-1945
वेत	-1946
श्च	-1947
ायल	-1948
▁वय	-1949
लेला	-1950
▁कोड	-1951
▁नका	-1952
▁बंध	-1953
▁संय	-1954
▁रद्द	-1955
▁राहि	-1956
भरातील	-1957
्यांवर	-1958
▁दुसरा	-1959
▁मानवी	-1960
▁लशीची	-1961
▁वाहतूक	-1962
▁तिसऱ्या	-1963
▁प्रवासा	-1964
▁सरकारला	-1965
▁टप्प्यात	-1966
▁व्यवस्थाप	-1967
▁देशांमध्ये	-1968
▁माध्यमातून	-1969
▁रोगप्रतिकार	-1970
..	-1971
पक	-1972
▁६	-1973
र्त	-1974
ावि	-1975
णाली	-1976
ैविक	-1977
▁अनि	-1978
▁जसे	-1979
▁रोज	-1980
रियंट	-1981
▁साठा	-1982
▁स्वत	-1983
संबंधी	-1984
▁तंत्र	-1985
▁दररोज	-1986
▁होतात	-1987
▁करोनाच्या	-1988
21	-1989
CG	-1990
िण	-1991
ाणे	-1992
ान्स	-1993
▁अडच	-1994
▁प्रथ	-1995
▁येते	-1996
▁होणे	-1997
ामध्ये	-1998
▁लशीचे	-1999
▁स्त्र	-2000
▁नियोजन	-2001
▁प्रतिक	-2002
▁सुविधा	-2003
▁नातेवाई	-2004
▁मान्यता	-2005
▁७	-2006
ंचे	-2007
हार	-2008
▁मज	-2009
▁यश	-2010
क्षम	-2011
प्टे	-2012
ोजना	-2013
▁जून	-2014
▁आपत्	-2015
ांमुळे	-2016
▁श्वास	-2017
▁उदाहरण	-2018
▁राहतील	-2019
▁ज्यामुळे	-2020
▁संपर्कात	-2021
▁रुग्णांचा	-2022
▁केल्यानंतर	-2023
▁नागरिकांना	-2024
ाळ	-2025
▁यू	-2026
▁कराय	-2027
ांपैकी	-2028
▁माझ्या	-2029
▁प्रभावित	-2030
▁व्हेरियंट	-2031
जर	-2032
टेड	-2033
लंड	-2034
▁IC	-2035
▁ता	-2036
काने	-2037
खाली	-2038
दायक	-2039
वर्ष	-2040
▁कशी	-2041
▁राख	-2042
▁वया	-2043
▁खर्च	-2044
▁पाळी	-2045
▁उपायय	-2046
▁करावे	-2047
▁डिस्ट	-2048
▁दिवशी	-2049
▁झालेला	-2050
▁झालेले	-2051
▁मिळाली	-2052
▁राजकीय	-2053
▁म्हणजेच	-2054
▁आवश्यकता	-2055
घा	-2056
▁N	-2057
द्र	-2058
▁घड	-2059
▁२०	-2060
,000	-2061
▁कडक	-2062
▁माण	-2063
▁दर्श	-2064
▁वेळा	-2065
द्यालय	-2066
मोनिया	-2067
▁प्रसि	-2068
▁लागली	-2069
▁सुमार	-2070
▁उद्योग	-2071
▁सुद्धा	-2072
▁बायोटेक	-2073
▁सॅनिटाय	-2074
▁नातेवाईक	-2075
▁मर्यादित	-2076
▁करण्याच्या	-2077
▁कोरोनाव्हायरस	-2078
▁पद	-2079
त्ता	-2080
▁शाळ	-2081
▁जिथे	-2082
▁बंदी	-2083
▁व्हॅ	-2084
▁संशय	-2085
▁चिंता	-2086
▁पुढील	-2087
▁ब्रिट	-2088
▁दिवसात	-2089
▁बऱ्याच	-2090
▁आठवड्यात	-2091
▁करण्याचे	-2092
▁झाल्याचं	-2093
▁कर्मचाऱ्यांना	-2094
आय	-2095
दय	-2096
फत	-2097
ॅक	-2098
▁ले	-2099
कर्ष	-2100
▁गृह	-2101
▁धोर	-2102
▁भेट	-2103
ुद्धा	-2104
▁वर्त	-2105
▁वस्त	-2106
▁दिवसा	-2107
▁सहभाग	-2108
प्टेंबर	-2109
▁दक्षिण	-2110
▁पुण्यात	-2111
▁व्यवस्था	-2112
▁क्षेत्रात	-2113
▁परिस्थितीत	-2114
मत	-2115
ंतू	-2116
िये	-2117
▁16	-2118
▁हि	-2119
वायू	-2120
▁इतक	-2121
▁कंट	-2122
▁शिक	-2123
बरोबर	-2124
▁मानव	-2125
सुद्धा	-2126
▁म्युट	-2127
▁योजना	-2128
▁त्यांचा	-2129
▁प्राणवायू	-2130
▁संसर्गाचा	-2131
▁सांगण्यात	-2132
पण	-2133
मि	-2134
ोप	-2135
ंवर	-2136
पीठ	-2137
ल्ड	-2138
▁घेऊ	-2139
▁तात	-2140
▁याच	-2141
स्ट्र	-2142
▁आरोग	-2143
▁नावा	-2144
▁पुरे	-2145
▁युनि	-2146
▁वेळी	-2147
मधल्या	-2148
▁फोर्स	-2149
▁मोहीम	-2150
▁दिल्या	-2151
▁पूर्वी	-2152
▁संस्था	-2153
▁रिपोर्ट	-2154
▁सप्टेंबर	-2155
मन	-2156
मो	-2157
िड	-2158
▁दशल	-2159
▁मूळ	-2160
▁अन्न	-2161
▁कमतर	-2162
▁घरात	-2163
▁खरेदी	-2164
▁यांची	-2165
▁स्थाप	-2166
▁करणारे	-2167
▁केलेली	-2168
▁त्याचे	-2169
▁संस्थे	-2170
कारात्मक	-2171
▁ज्यांना	-2172
▁प्रसारा	-2173
▁महिन्या	-2174
▁पूर्णपणे	-2175
फो	-2176
्ञ	-2177
वीस	-2178
▁सद	-2179
लयीन	-2180
ारंभ	-2181
ॉर्म	-2182
्रिक	-2183
▁अॅप	-2184
गळ्या	-2185
शक्ती	-2186
▁महाम	-2187
▁तरीही	-2188
▁वर्षी	-2189
▁असलेली	-2190
▁दशलक्ष	-2191
▁महत्वा	-2192
▁विरोधी	-2193
▁पातळीवर	-2194
▁महापालिके	-2195
▁संसर्गाची	-2196
▁मार्गदर्शक	-2197
ँड	-2198
पाल	-2199
श्व	-2200
शिया	-2201
▁बां	-2202
ंसिंग	-2203
▁संचा	-2204
▁सापड	-2205
▁साबण	-2206
▁वाटतं	-2207
▁वाढली	-2208
▁इंडिया	-2209
▁संसर्गजन्य	-2210
ra	-2211
गा	-2212
लि	-2213
क्सफ	-2214
णाने	-2215
तीने	-2216
बजाव	-2217
▁ज्ञ	-2218
▁वार	-2219
▁आव्ह	-2220
▁करुन	-2221
▁क्रम	-2222
▁नसेल	-2223
▁बैठक	-2224
बजावणी	-2225
ल्यावर	-2226
▁आवाहन	-2227
▁पहिला	-2228
क्सफर्ड	-2229
▁अजूनही	-2230
▁यावेळी	-2231
▁होण्या	-2232
▁विशिष्ट	-2233
▁असल्याचा	-2234
▁मुख्यमंत्र	-2235
▁चिकित्सालयीन	-2236
बे	-2237
यक	-2238
▁ई	-2239
पात	-2240
ासह	-2241
▁बे	-2242
ाप्त	-2243
ावली	-2244
▁प्ल	-2245
व्हिर	-2246
▁2021	-2247
▁अगदी	-2248
▁आढावा	-2249
▁पोलिस	-2250
▁फायझर	-2251
▁वस्तू	-2252
▁प्रादु	-2253
▁देशांनी	-2254
▁शहरातील	-2255
▁देण्यासाठी	-2256
in	-2257
वलं	-2258
▁1.	-2259
सिटी	-2260
▁100	-2261
▁अँप	-2262
▁उल्	-2263
▁चौक	-2264
▁देऊ	-2265
▁सिं	-2266
▁होम	-2267
▁गर्भ	-2268
▁दावा	-2269
▁परिष	-2270
▁सोबत	-2271
▁अल्को	-2272
▁आधारित	-2273
▁पार्श्व	-2274
▁प्रणाली	-2275
▁नसलेल्या	-2276
▁अंमलबजावणी	-2277
▁करोनाबाधित	-2278
▁वेगवेगळ्या	-2279
▁सुरुवातीला	-2280
डण	-2281
पु	-2282
आधी	-2283
राज	-2284
▁(1	-2285
णाला	-2286
नाची	-2287
▁तत्	-2288
▁फडण	-2289
▁फोन	-2290
▁हवा	-2291
ारावी	-2292
▁काळा	-2293
▁नेते	-2294
▁सीरम	-2295
ांवरील	-2296
▁तातडी	-2297
▁गरजेचं	-2298
▁ट्रायल	-2299
▁फडणवीस	-2300
▁समुदाय	-2301
▁संरक्षण	-2302
▁नसल्याचं	-2303
▁संक्रमित	-2304
▁व्यक्तीला	-2305
▁संनिरीक्षण	-2306
▁रुग्णांमध्ये	-2307
on	-2308
ंक	-2309
जनक	-2310
नीय	-2311
ुरु	-2312
▁कठ	-2313
▁टँ	-2314
▁डे	-2315
▁तथ	-2316
ांतर	-2317
▁अपे	-2318
▁अर्	-2319
▁असो	-2320
▁कसं	-2321
▁गुण	-2322
▁नुक	-2323
▁छाती	-2324
▁ट्वी	-2325
▁महिल	-2326
▁मुळे	-2327
▁सिरम	-2328
नायटेड	-2329
राष्ट्र	-2330
▁करायला	-2331
▁सगळ्या	-2332
▁दिवसांत	-2333
▁विशेषतः	-2334
▁ऑक्सफर्ड	-2335
▁प्रतिकार	-2336
▁प्राण्या	-2337
▁सॅनिटायझर	-2338
NA	-2339
ेर	-2340
कवा	-2341
▁पृ	-2342
▁सग	-2343
िनोम	-2344
▁ACE	-2345
▁सतत	-2346
▁सोन	-2347
▁जागा	-2348
▁बांध	-2349
▁येतो	-2350
▁सचिव	-2351
▁अडचणी	-2352
▁मेडिकल	-2353
▁यंत्रणा	-2354
▁झाल्याचे	-2355
▁झाल्याने	-2356
▁निष्कर्ष	-2357
▁पद्धतीने	-2358
▁प्रकारच्या	-2359
▁संसर्गाच्या	-2360
%)	-2361
चल	-2362
शय	-2363
▁९	-2364
टीन	-2365
तोय	-2366
श्र	-2367
▁हृ	-2368
▁ग्र	-2369
▁चेह	-2370
▁जोड	-2371
▁नेत	-2372
▁पाठ	-2373
▁बाज	-2374
सारखी	-2375
▁अर्ज	-2376
▁आयोग	-2377
▁व्ही	-2378
▁होणं	-2379
भूमीवर	-2380
▁अनुभव	-2381
▁प्रोट	-2382
▁येतील	-2383
▁अल्कोह	-2384
▁म्हणणं	-2385
▁साधारण	-2386
▁सुमारे	-2387
▁निश्चित	-2388
▁शास्त्र	-2389
▁महत्त्वाचं	-2390
▁रोखण्यासाठी	-2391
ुण	-2392
▁८	-2393
मते	-2394
र्न	-2395
िरी	-2396
▁टन	-2397
▁हॅ	-2398
▁उघड	-2399
▁ताल	-2400
▁मार	-2401
▁कठोर	-2402
▁कमीत	-2403
▁गेला	-2404
▁घेता	-2405
▁टीका	-2406
▁तात्	-2407
▁भाजप	-2408
▁शकतं	-2409
ानुसार	-2410
▁आलेला	-2411
▁उपयोग	-2412
▁ज्यात	-2413
▁हॉटेल	-2414
▁बैठकीत	-2415
▁अमरावती	-2416
▁अवलंबून	-2417
▁समाविष्ट	-2418
▁व्यक्तींना	-2419
▁दिवसांपासून	-2420
रल	-2421
लग	-2422
▁17	-2423
▁इथ	-2424
▁कच	-2425
ळाशी	-2426
िल्ड	-2427
▁एवढ	-2428
▁वात	-2429
▁सदस	-2430
▁जर्म	-2431
▁बंधन	-2432
▁मिळे	-2433
▁साठव	-2434
▁हेल्	-2435
▁मिनिट	-2436
▁सहकार	-2437
▁आव्हान	-2438
▁ऑनलाईन	-2439
▁कमतरता	-2440
▁समस्या	-2441
▁सर्वसा	-2442
▁साथरोग	-2443
▁अभ्यासा	-2444
▁अँटीबॉडी	-2445
▁दुसरीकडे	-2446
▁बीबीसीशी	-2447
▁म्युटेशन	-2448
▁युनायटेड	-2449
▁प्रशासनाने	-2450
▁व्हायरसच्या	-2451
इन	-2452
दन	-2453
भर	-2454
१९	-2455
▁60	-2456
▁आत	-2457
▁इम	-2458
ताही	-2459
मिका	-2460
स्ता	-2461
ृत्त	-2462
▁नाव	-2463
▁फिर	-2464
▁विर	-2465
मुक्त	-2466
▁केअर	-2467
▁दुर्	-2468
▁मिळत	-2469
▁चौकशी	-2470
▁ट्वीट	-2471
▁रुपये	-2472
▁हेल्थ	-2473
विण्यात	-2474
▁कारवाई	-2475
▁ब्रिटन	-2476
▁भूमिका	-2477
▁म्हटले	-2478
▁लागणार	-2479
▁संचालक	-2480
▁याविषयी	-2481
▁ऑक्सिजनचा	-2482
▁रुग्णसंख्ये	-2483
ॉर	-2484
एन्	-2485
दीप	-2486
फ्ल	-2487
वर्	-2488
▁31	-2489
▁पॅ	-2490
▁शै	-2491
▁201	-2492
▁नाश	-2493
▁वगळ	-2494
ावरील	-2495
▁आयसो	-2496
▁एकाच	-2497
▁घटना	-2498
▁धुणे	-2499
▁पोशि	-2500
▁वेळे	-2501
वसायिक	-2502
▁निदान	-2503
▁पृष्ठ	-2504
▁सुधार	-2505
▁नव्हती	-2506
▁मूळाशी	-2507
▁महत्त्वाची	-2508
▁रेमडेसिव्हिर	-2509
य़	-2510
खमी	-2511
▁40	-2512
▁उड	-2513
▁खु	-2514
लेशन	-2515
▁घरा	-2516
▁जेव	-2517
▁निग	-2518
र्भाव	-2519
▁अजित	-2520
▁इंटर	-2521
▁वयोग	-2522
▁वारं	-2523
▁किमान	-2524
▁मानवा	-2525
▁वर्षा	-2526
▁रुग्णांवर	-2527
▁विद्यापीठ	-2528
▁घेतल्यानंतर	-2529
at	-2530
जि	-2531
...	-2532
CGP	-2533
तून	-2534
नंद	-2535
ुरी	-2536
क्वे	-2537
टर्स	-2538
▁तिथ	-2539
▁त्व	-2540
▁द्र	-2541
▁आकडा	-2542
▁उत्प	-2543
▁कुंभ	-2544
▁पाणी	-2545
▁समाज	-2546
▁स्वा	-2547
रित्या	-2548
▁चित्र	-2549
▁बोर्ड	-2550
▁सिस्ट	-2551
स्ट्राझ	-2552
▁घ्यावी	-2553
▁दिवसां	-2554
▁आठवड्या	-2555
▁प्रकारे	-2556
▁प्राधान	-2557
▁प्राप्त	-2558
▁मार्चला	-2559
▁वारंवार	-2560
▁सर्वांत	-2561
▁सीओव्ही	-2562
▁प्रादुर्भाव	-2563
DC	-2564
ईड	-2565
रं	-2566
ॉन	-2567
ंचं	-2568
पाट	-2569
ूला	-2570
▁25	-2571
▁घा	-2572
ासिक	-2573
क्रिय	-2574
क्सीन	-2575
ज्ञान	-2576
्याची	-2577
▁काँग	-2578
▁कायम	-2579
▁कुठे	-2580
▁गुंत	-2581
▁जारी	-2582
▁न्यु	-2583
ोक्यात	-2584
▁येतात	-2585
▁शरीरा	-2586
▁वातावर	-2587
्यमंत्री	-2588
▁घेण्यास	-2589
▁चीनच्या	-2590
▁शिक्षणा	-2591
▁चीनमध्ये	-2592
▁नियमावली	-2593
▁राज्याचे	-2594
▁होण्याचा	-2595
▁उदाहरणार्थ	-2596
▁रेमडेसिविर	-2597
ERS	-2598
RSC	-2599
ंगा	-2600
खान	-2601
नाथ	-2602
म्प	-2603
शनल	-2604
▁80	-2605
▁Co	-2606
देशी	-2607
ेट्स	-2608
▁अखे	-2609
▁जरी	-2610
▁नवा	-2611
▁नाक	-2612
कांनी	-2613
िनिकल	-2614
▁असली	-2615
▁धार्	-2616
ातल्या	-2617
▁पहिली	-2618
▁विस्त	-2619
▁धार्मिक	-2620
राष्ट्रीय	-2621
▁प्रसिद्ध	-2622
▁स्वच्छता	-2623
▁विषाणूजन्य	-2624
▁पार्श्वभूमीवर	-2625
दृ	-2626
वू	-2627
ूद	-2628
वेल	-2629
▁आग	-2630
▁इश	-2631
▁खे	-2632
करणे	-2633
स्ती	-2634
ार्ड	-2635
ोकॉल	-2636
्रोल	-2637
▁कसा	-2638
▁मीड	-2639
▁रवि	-2640
पूर्ण	-2641
▁एकदा	-2642
▁जंतू	-2643
▁पश्च	-2644
▁महान	-2645
▁अतिशय	-2646
▁खोकला	-2647
▁पुरवठ	-2648
▁वर्षे	-2649
▁उद्देश	-2650
▁करोनाची	-2651
▁पुढच्या	-2652
▁पृष्ठभाग	-2653
▁प्रकाशित	-2654
▁भारतातील	-2655
▁साथीच्या	-2656
▁प्रयोगशाळ	-2657
▁प्रोटोकॉल	-2658
▁कोरोनाबाधित	-2659
▁महाराष्ट्राला	-2660
er	-2661
एच	-2662
▁(2	-2663
▁जु	-2664
▁दह	-2665
माना	-2666
म्या	-2667
रोक्	-2668
िन्स	-2669
▁RSC	-2670
▁गाय	-2671
▁नगर	-2672
▁पाट	-2673
▁मेट	-2674
▁राय	-2675
▁समू	-2676
▁हळू	-2677
ानंतर	-2678
▁RCGP	-2679
▁आलंय	-2680
▁जाऊन	-2681
णाच्या	-2682
तज्ज्ञ	-2683
्यांचे	-2684
▁उद्भव	-2685
▁मिळेल	-2686
▁स्वरु	-2687
▁आयुक्त	-2688
▁कुंभमे	-2689
▁केलेले	-2690
▁त्यावर	-2691
▁सिक्वे	-2692
▁जिल्ह्य	-2693
▁महामारी	-2694
▁झाल्याची	-2695
▁ठेवण्यात	-2696
▁डॉक्टर्स	-2697
▁विषाणूची	-2698
▁मुलांमध्ये	-2699
▁व्यावसायिक	-2700
▁मंत्रालयाने	-2701
▁लसीकरणासाठी	-2702
▁व्हेंटिलेटर	-2703
▁विद्यार्थ्यांना	-2704
,"	-2705
CR	-2706
ीट	-2707
ट्स	-2708
िंक	-2709
▁आफ	-2710
▁आव	-2711
▁वस	-2712
करून	-2713
स्था	-2714
▁ICU	-2715
▁भाव	-2716
▁रेड	-2717
सारखे	-2718
▁झपाट	-2719
▁ट्वि	-2720
▁मोहि	-2721
▁सेवे	-2722
लोरोक्	-2723
▁जैविक	-2724
▁बातमी	-2725
▁महावि	-2726
▁लागला	-2727
▁संवाद	-2728
▁जर्मनी	-2729
▁दृष्टी	-2730
▁कंपनीने	-2731
▁त्यावेळी	-2732
▁नसल्याने	-2733
▁व्हायरसचा	-2734
नाश	-2735
नेट	-2736
िंड	-2737
▁23	-2738
▁28	-2739
▁कृ	-2740
▁द्	-2741
च्छा	-2742
जाती	-2743
र्ना	-2744
ापूर	-2745
ॅशनल	-2746
▁मूल	-2747
कांना	-2748
▁आधीच	-2749
▁मुद्	-2750
▁वाढू	-2751
▁शेवट	-2752
▁तुलना	-2753
▁पोस्ट	-2754
▁शिवाय	-2755
▁असलेला	-2756
▁क्षमते	-2757
▁दुकाने	-2758
▁पश्चिम	-2759
▁प्रदान	-2760
▁कोणतीही	-2761
▁लोकांची	-2762
▁स्ट्रेन	-2763
▁अतिरिक्त	-2764
▁अपेक्षित	-2765
▁आरोग्यसे	-2766
▁काँग्रेस	-2767
▁देण्याची	-2768
▁राज्यांना	-2769
▁व्हायरसची	-2770
लट	-2771
ैर	-2772
ोस	-2773
र्घ	-2774
सिस	-2775
ापि	-2776
▁70	-2777
▁वृ	-2778
नावर	-2779
ायरल	-2780
▁अडथ	-2781
▁भास	-2782
वर्षी	-2783
विरोध	-2784
व्हर्	-2785
▁असाल	-2786
▁विषय	-2787
नावाला	-2788
▁इशारा	-2789
▁जातील	-2790
▁ज्ञात	-2791
▁प्रशि	-2792
▁महिला	-2793
▁शुक्र	-2794
▁समिती	-2795
▁सर्वे	-2796
व्यवस्थ	-2797
▁संशयित	-2798
▁सहभागी	-2799
▁कोणताही	-2800
▁दिल्लीत	-2801
▁देशभरात	-2802
▁प्रशासन	-2803
▁प्रारंभ	-2804
▁आल्यानंतर	-2805
▁वापरासाठी	-2806
▁शास्त्रज्ञ	-2807
घर	-2808
यं	-2809
गाव	-2810
हात	-2811
▁दू	-2812
▁बु	-2813
जन्स	-2814
नाचा	-2815
वासी	-2816
▁एन्	-2817
▁राब	-2818
ांकडे	-2819
▁असतं	-2820
▁ज्ये	-2821
▁टँकर	-2822
▁तक्र	-2823
▁निरी	-2824
▁लिहि	-2825
▁वरील	-2826
▁वाजे	-2827
▁तथापि	-2828
▁विकास	-2829
▁वेगळे	-2830
▁हाताळ	-2831
▁पुण्या	-2832
▁प्राणी	-2833
▁लागतील	-2834
▁ज्येष्ठ	-2835
▁असण्याची	-2836
▁जबाबदारी	-2837
▁जाणाऱ्या	-2838
▁संख्येने	-2839
▁आपत्कालीन	-2840
▁जिल्हाधिक	-2841
al	-2842
ूत	-2843
एनए	-2844
एशन	-2845
ग्न	-2846
लेख	-2847
वला	-2848
सिक	-2849
▁खो	-2850
▁दो	-2851
▁नम	-2852
द्धी	-2853
निया	-2854
▁जिम	-2855
▁पाय	-2856
▁विद	-2857
▁आपली	-2858
▁चुकी	-2859
▁लागत	-2860
▁रक्ता	-2861
▁वयोगट	-2862
▁सर्दी	-2863
▁सूचित	-2864
▁खात्री	-2865
▁कुठल्या	-2866
▁निर्देश	-2867
▁प्रकल्प	-2868
▁भागातील	-2869
▁वातावरण	-2870
▁आयसोलेशन	-2871
▁क्लिनिकल	-2872
▁जगभरातील	-2873
▁नियंत्रणात	-2874
HE	-2875
ऐव	-2876
बळ	-2877
िश	-2878
▁E	-2879
देख	-2880
माग	-2881
▁90	-2882
▁प्	-2883
▁फर	-2884
ऐवजी	-2885
त्मक	-2886
वर्क	-2887
ॉन्स	-2888
▁गां	-2889
▁दहा	-2890
▁निर	-2891
▁नेम	-2892
▁पॉल	-2893
▁बंग	-2894
▁वाज	-2895
▁वाद	-2896
▁आकडे	-2897
▁उभार	-2898
▁कोणी	-2899
▁तरुण	-2900
▁बाबी	-2901
▁याला	-2902
▁सहाय	-2903
क्षमता	-2904
▁चंद्र	-2905
▁जोखमी	-2906
▁ट्रेन	-2907
▁नाशिक	-2908
▁पाटील	-2909
▁मध्यम	-2910
▁वृत्त	-2911
▁बाबतीत	-2912
▁विश्ले	-2913
▁शिक्षक	-2914
▁झाल्यास	-2915
▁त्यांचं	-2916
▁निवडणूक	-2917
व्हर्सिटी	-2918
▁रूग्णालय	-2919
▁संदर्भात	-2920
▁यांच्याशी	-2921
▁व्यवस्थापन	-2922
▁संनिरीक्षणा	-2923
▁युनिव्हर्सिटी	-2924
णू	-2925
नक	-2926
्म	-2927
विन	-2928
▁21	-2929
▁RT	-2930
▁एन	-2931
▁मॅ	-2932
▁वं	-2933
▁१०	-2934
बाणी	-2935
▁इति	-2936
▁इथे	-2937
▁नेट	-2938
▁वेब	-2939
ांतील	-2940
▁MERS	-2941
▁माजी	-2942
▁येतं	-2943
▁लांब	-2944
▁सादर	-2945
नासाठी	-2946
▁आलेले	-2947
▁गोष्ट	-2948
▁लागते	-2949
▁शक्ती	-2950
्यासाठी	-2951
▁उपक्रम	-2952
▁देताना	-2953
▁देशांत	-2954
▁मानसिक	-2955
▁राहणार	-2956
▁सरकारनं	-2957
▁मृत्यूदर	-2958
▁महापालिका	-2959
▁कोरोनामुळे	-2960
▁राज्याच्या	-2961
▁आंतरराष्ट्रीय	-2962
en	-2963
▁U	-2964
ख्य	-2965
पान	-2966
लेज	-2967
्टी	-2968
▁22	-2969
▁वी	-2970
▁हु	-2971
पारी	-2972
सीआर	-2973
▁ढकल	-2974
▁सां	-2975
देखील	-2976
वार्य	-2977
शिल्ड	-2978
▁आपले	-2979
▁मर्स	-2980
▁हृदय	-2981
विषाणू	-2982
▁मागील	-2983
्यांसाठी	-2984
▁करोनाचा	-2985
▁रविवारी	-2986
▁संयुक्त	-2987
▁सरकारकडून	-2988
▁जिल्ह्यातील	-2989
▁मार्चपर्यंत	-2990
-1	-2991
डि	-2992
लर	-2993
▁.	-2994
करी	-2995
जवळ	-2996
हळू	-2997
▁13	-2998
▁2.	-2999
▁नव	-3000
▁पू	-3001
▁पै	-3002
▁१५	-3003
▁२४	-3004
कारण	-3005
नाने	-3006
ुष्य	-3007
▁वाय	-3008
▁शनि	-3009
सोबतच	-3010
्याचे	-3011
्याया	-3012
▁घेणं	-3013
▁नर्स	-3014
▁यशस्	-3015
▁लोकल	-3016
▁स्थग	-3017
▁हर्ष	-3018
क्षणिक	-3019
▁कोणते	-3020
▁जाणवत	-3021
▁ब्राझ	-3022
▁लागलं	-3023
▁सोसाय	-3024
तिरिक्त	-3025
▁अधिकृत	-3026
▁दुकानं	-3027
▁नाहीये	-3028
▁घ्यायला	-3029
▁चेहऱ्या	-3030
▁व्यवसाय	-3031
▁सुरूवात	-3032
ण्यापूर्वी	-3033
▁घेतलेल्या	-3034
▁त्यामध्ये	-3035
▁प्राधान्य	-3036
▁सकारात्मक	-3037
▁उपचारासाठी	-3038
▁अर्थव्यवस्थ	-3039
▁ठेवण्यासाठी	-3040
▁महाविद्यालय	-3041
▁रुग्णांसाठी	-3042
▁सिक्वेंसिंग	-3043
▁रूग्णांमध्ये	-3044
or	-3045
▁T	-3046
▁०	-3047
PCR	-3048
कृत	-3049
गोल	-3050
त्व	-3051
भार	-3052
ोबर	-3053
▁जल	-3054
दुखी	-3055
समोर	-3056
ायचं	-3057
▁कदा	-3058
▁टप्	-3059
▁ताण	-3060
▁दवा	-3061
▁मंड	-3062
▁शेत	-3063
▁सुच	-3064
▁अद्य	-3065
▁देणे	-3066
▁मांड	-3067
▁रस्त	-3068
▁वाटत	-3069
▁स्वी	-3070
ेटिव्ह	-3071
▁आधारे	-3072
▁खालील	-3073
▁तालुक	-3074
▁द्याय	-3075
▁पाहता	-3076
▁वितरण	-3077
▁शेवटी	-3078
▁सामना	-3079
▁कदाचित	-3080
▁नव्हते	-3081
▁मिळाला	-3082
▁प्रोटीन	-3083
▁फ्रान्स	-3084
▁वयाच्या	-3085
▁साबणाने	-3086
▁अनिवार्य	-3087
▁टक्क्यां	-3088
▁प्रतिक्र	-3089
▁क्षेत्रातील	-3090
es	-3091
इड	-3092
यत	-3093
ुं	-3094
दरा	-3095
परी	-3096
यक्त	-3097
▁किट	-3098
▁गैर	-3099
▁ठरू	-3100
▁मधु	-3101
▁मात	-3102
▁साख	-3103
एन्झा	-3104
व्हिड	-3105
ोट्या	-3106
▁इंग्	-3107
▁कृती	-3108
▁गोळा	-3109
▁जेणे	-3110
▁धोरण	-3111
▁मनात	-3112
▁मुला	-3113
▁रुपय	-3114
▁संकल	-3115
यक्तिक	-3116
▁घेतले	-3117
▁जाणून	-3118
▁जिनोम	-3119
क्टिव्ह	-3120
ांनुसार	-3121
▁अहवाला	-3122
▁प्रचार	-3123
▁महानगर	-3124
▁कंट्रोल	-3125
▁तातडीने	-3126
▁नेटवर्क	-3127
▁याबद्दल	-3128
▁सोसायटी	-3129
▁कोरोनाचे	-3130
▁घराबाहेर	-3131
▁व्हॅक्सिन	-3132
▁असल्यामुळे	-3133
▁महत्त्वाचे	-3134
▁वाजेपर्यंत	-3135
▁तज्ज्ञांच्या	-3136
▁रुग्णालयांमध्ये	-3137
ईक	-3138
टन	-3139
यू	-3140
िज	-3141
चंड	-3142
जरी	-3143
हीत	-3144
िलो	-3145
▁45	-3146
▁आई	-3147
▁धर	-3148
▁नै	-3149
वादी	-3150
ांसह	-3151
▁अंग	-3152
▁काग	-3153
▁केस	-3154
▁कोल	-3155
▁बाळ	-3156
▁साव	-3157
▁हवी	-3158
क्रमा	-3159
णीभूत	-3160
पूर्व	-3161
फेक्ट	-3162
▁अंदा	-3163
▁आयसी	-3164
▁चिनी	-3165
▁नमूद	-3166
▁भरती	-3167
काच्या	-3168
क्टोबर	-3169
प्रकार	-3170
बरदारी	-3171
▁असोसि	-3172
▁दहावी	-3173
▁दीर्घ	-3174
▁निर्ज	-3175
▁परिषद	-3176
▁बंगाल	-3177
▁मधुमे	-3178
▁द्वारे	-3179
▁प्रचंड	-3180
▁बारावी	-3181
▁हळूहळू	-3182
▁होणारा	-3183
्यामध्ये	-3184
▁कंपन्या	-3185
▁प्रवासी	-3186
▁मराठीशी	-3187
▁स्थितीत	-3188
▁अल्कोहोल	-3189
▁कारणीभूत	-3190
▁शैक्षणिक	-3191
▁सर्वांना	-3192
▁प्रत्यक्ष	-3193
▁महत्त्वाच्या	-3194
▁महाराष्ट्रातील	-3195
.5	-3196
कॉ	-3197
ोत	-3198
▁H	-3199
वाढ	-3200
▁पट	-3201
▁बद	-3202
ग्री	-3203
रोधक	-3204
लक्ष	-3205
स्को	-3206
▁अँड	-3207
▁अॅड	-3208
▁आशा	-3209
▁नेह	-3210
▁संच	-3211
जन्सी	-3212
फॉर्म	-3213
ेंद्र	-3214
▁आमची	-3215
▁करेल	-3216
▁जनरल	-3217
▁पेपर	-3218
▁फार्	-3219
▁शकता	-3220
▁सिंग	-3221
▁सूचन	-3222
▁स्तर	-3223
ंतर्गत	-3224
न्सिंग	-3225
▁ठेवणे	-3226
▁नमुना	-3227
▁यांचे	-3228
▁लागले	-3229
▁संचार	-3230
▁सक्षम	-3231
▁सदस्य	-3232
▁होतील	-3233
▁यापैकी	-3234
▁व्याया	-3235
▁संघटना	-3236
▁एकत्रित	-3237
▁ब्राझील	-3238
▁यंत्रणे	-3239
▁जेणेकरून	-3240
▁दिवसांचा	-3241
▁प्रॅक्टि	-3242
▁वैयक्तिक	-3243
▁आजाराच्या	-3244
▁उपाययोजना	-3245
▁निगेटिव्ह	-3246
▁मुलांच्या	-3247
▁सध्याच्या	-3248
▁प्रवाशांना	-3249
▁यासंदर्भात	-3250
▁महिन्याच्या	-3251
▁लॉकडाऊनच्या	-3252
▁रुग्णालयातील	-3253
मह	-3254
रु	-3255
ाध	-3256
टका	-3257
ठिक	-3258
मती	-3259
म्ब	-3260
म्स	-3261
▁कौ	-3262
▁जय	-3263
▁रण	-3264
चानक	-3265
नंती	-3266
▁PHE	-3267
▁अभि	-3268
▁खाज	-3269
▁झोन	-3270
▁पडू	-3271
▁लॅब	-3272
▁सेव	-3273
क्ष्म	-3274
शील्ड	-3275
▁गेलं	-3276
▁जगात	-3277
▁टाळे	-3278
▁निधी	-3279
▁यूके	-3280
▁सद्य	-3281
▁स्टो	-3282
ठिकाणी	-3283
णासाठी	-3284
ल्यांक	-3285
▁अचानक	-3286
▁निकाल	-3287
▁रिक्त	-3288
▁वेळेत	-3289
▁साधला	-3290
विरोधात	-3291
▁अंदाजे	-3292
▁इतक्या	-3293
▁जणांना	-3294
▁नव्हता	-3295
▁नोव्हे	-3296
▁न्याया	-3297
▁पुरावा	-3298
▁पोशिंद	-3299
▁विनंती	-3300
ल्यामुळे	-3301
▁ऑक्टोबर	-3302
▁केल्यास	-3303
▁खबरदारी	-3304
▁सारख्या	-3305
▁संघटनेने	-3306
▁कार्यालया	-3307
▁केंद्राने	-3308
▁झपाट्याने	-3309
▁शुक्रवारी	-3310
मुख्यमंत्री	-3311
▁सामान्यपणे	-3312
▁राज्यांमध्ये	-3313
गत	-3314
गु	-3315
िळ	-3316
ेस	-3317
ठीण	-3318
डेट	-3319
माव	-3320
रेख	-3321
सिन	-3322
▁आट	-3323
▁१८	-3324
कारी	-3325
जरात	-3326
णाचा	-3327
लाही	-3328
लेलं	-3329
लॉजी	-3330
ासरी	-3331
▁रेट	-3332
स्थाप	-3333
ामुळे	-3334
▁असला	-3335
▁एकमे	-3336
▁कठीण	-3337
▁जोशी	-3338
▁पर्य	-3339
▁मोफत	-3340
▁मोबा	-3341
▁याचे	-3342
▁सोनू	-3343
नात्मक	-3344
ांबाबत	-3345
▁कॉलेज	-3346
▁फायदा	-3347
▁मासिक	-3348
▁रशिया	-3349
▁सिद्ध	-3350
▁हजारो	-3351
▁आयोजित	-3352
▁मोहिमे	-3353
▁विक्री	-3354
▁शासकीय	-3355
▁होणारी	-3356
▁उत्पादक	-3357
▁क्रमांक	-3358
▁वाढत्या	-3359
▁संख्येत	-3360
▁असोसिएशन	-3361
▁लावण्यात	-3362
▁अॅस्ट्राझ	-3363
▁प्रक्रिये	-3364
▁प्रॅक्टिस	-3365
▁डॉक्टरांना	-3366
▁भारतामध्ये	-3367
▁वर्षांवरील	-3368
▁त्यांच्यावर	-3369
▁दिवसांपूर्वी	-3370
is	-3371
it	-3372
यु	-3373
वक	-3374
ंका	-3375
ंडर	-3376
जेन	-3377
णीय	-3378
नाव	-3379
नास	-3380
निय	-3381
परि	-3382
बोध	-3383
वणं	-3384
हास	-3385
्यय	-3386
▁पथ	-3387
▁बघ	-3388
कवाड	-3389
साईट	-3390
▁उचल	-3391
▁काल	-3392
▁चेन	-3393
▁शब्	-3394
▁सोम	-3395
ळ्यात	-3396
वर्धन	-3397
▁इतकी	-3398
▁इमार	-3399
▁ठाणे	-3400
▁निया	-3401
▁समान	-3402
▁समूह	-3403
वेंद्र	-3404
▁कारणं	-3405
▁कुमार	-3406
▁दुकान	-3407
▁नेहमी	-3408
▁राहुल	-3409
ज्ञानिक	-3410
स्थितीत	-3411
▁पुरावे	-3412
▁सरासरी	-3413
▁अंतर्गत	-3414
▁इंग्लंड	-3415
▁गायकवाड	-3416
▁मर्यादा	-3417
▁मेट्रिक	-3418
▁सरकारची	-3419
▁होण्यास	-3420
▁निरीक्षण	-3421
▁मुलांसाठी	-3422
▁डॉक्टरांनी	-3423
▁न्यूमोनिया	-3424
▁रुग्णालयाच्या	-3425
MR	-3426
पद	-3427
ळं	-3428
▁ऐ	-3429
गेच	-3430
लेय	-3431
ववि	-3432
वाह	-3433
ापे	-3434
ॉजी	-3435
▁इर	-3436
▁गॅ	-3437
▁शी	-3438
ड्या	-3439
निधी	-3440
म्बो	-3441
वाळी	-3442
▁RNA	-3443
▁कसे	-3444
▁दंड	-3445
▁दोघ	-3446
▁बरा	-3447
▁मंग	-3448
▁सोप	-3449
▁स्क	-3450
▁हवं	-3451
▁आपला	-3452
▁औषधं	-3453
▁जाता	-3454
▁मुले	-3455
▁मोठं	-3456
▁यादी	-3457
▁लगेच	-3458
▁वर्ण	-3459
▁संधी	-3460
▁किंमत	-3461
▁खाजगी	-3462
▁झालाय	-3463
▁प्रथम	-3464
▁मानले	-3465
▁यांचं	-3466
▁विधान	-3467
▁वेगळी	-3468
▁शकतील	-3469
▁स्वयं	-3470
अंतर्गत	-3471
▁अधिकार	-3472
▁ऑस्ट्र	-3473
▁गुजरात	-3474
▁मंजुरी	-3475
▁लशींचा	-3476
▁पाहायला	-3477
▁सूक्ष्म	-3478
▁स्थापित	-3479
▁अमेरिकेत	-3480
▁एप्रिलला	-3481
▁मुंबईतील	-3482
▁नोव्हेंबर	-3483
▁वैज्ञानिक	-3484
▁नागरिकांनी	-3485
▁विभागाच्या	-3486
▁कोव्हिशील्ड	-3487
जो	-3488
हक	-3489
ुट	-3490
ूट	-3491
▁G	-3492
ion	-3493
टीस	-3494
तरी	-3495
दर्	-3496
ब्ल	-3497
भरा	-3498
▁27	-3499
▁डी	-3500
▁बँ	-3501
▁लो	-3502
जिकल	-3503
फोर्	-3504
लाईन	-3505
▁अंश	-3506
▁कॅन	-3507
▁डोक	-3508
▁पॅन	-3509
▁पोट	-3510
▁फेस	-3511
▁मां	-3512
▁माल	-3513
▁मोज	-3514
क्षेप	-3515
ाव्या	-3516
▁असता	-3517
▁किलो	-3518
▁कॅलि	-3519
▁घरीच	-3520
▁घेणे	-3521
▁मिळव	-3522
▁येणं	-3523
▁शकेल	-3524
▁शिंक	-3525
▁संजय	-3526
▁हवेत	-3527
▁काढून	-3528
▁केलंय	-3529
▁कोविन	-3530
▁महिने	-3531
▁लशीचं	-3532
▁वाढते	-3533
▁वाढला	-3534
▁संबोध	-3535
▁उल्लेख	-3536
▁कचऱ्या	-3537
▁कोणाला	-3538
▁जणांचा	-3539
▁नियमित	-3540
▁नियामक	-3541
▁येत्या	-3542
▁व्यापक	-3543
▁साथीचा	-3544
▁सिंड्र	-3545
फोर्निया	-3546
▁उत्पन्न	-3547
▁वाहतुकी	-3548
▁सातत्या	-3549
▁त्यानुसार	-3550
▁महानगरपाल	-3551
▁दिल्यानंतर	-3552
▁अधिकाऱ्यांनी	-3553
▁कॅलिफोर्निया	-3554
था	-3555
वण	-3556
▁0	-3557
माय	-3558
लेट	-3559
ासा	-3560
ुका	-3561
ोत्	-3562
▁एस	-3563
▁कँ	-3564
▁भो	-3565
गिरी	-3566
नाला	-3567
र्जी	-3568
स्तर	-3569
▁अदर	-3570
▁एकी	-3571
▁धोक	-3572
▁नवे	-3573
▁पडत	-3574
▁फॉर	-3575
▁वसई	-3576
▁हवे	-3577
COVID	-3578
निर्म	-3579
स्थान	-3580
ृत्ती	-3581
▁गोंध	-3582
▁टाळा	-3583
▁पैकी	-3584
▁बिघड	-3585
▁मागे	-3586
▁याचं	-3587
▁राही	-3588
विरोधी	-3589
सर्गिक	-3590
ावस्था	-3591
▁आव्हा	-3592
▁पालघर	-3593
▁लशीला	-3594
▁अर्थात	-3595
▁एकीकडे	-3596
▁गरजेचे	-3597
▁ग्रस्त	-3598
▁केंद्रा	-3599
▁मागच्या	-3600
▁लोकांचा	-3601
▁कोरोनावर	-3602
▁तंत्रज्ञ	-3603
▁देवेंद्र	-3604
▁विभागाचे	-3605
▁शरीरातील	-3606
▁म्हणाल्या	-3607
▁होण्यासाठी	-3608
▁कोव्हिडच्या	-3609
▁कोरोनाविषाणू	-3610
▁सुरुवातीच्या	-3611
ed	-3612
ठे	-3613
वय	-3614
सल	-3615
ॉट	-3616
ॉय	-3617
केट	-3618
जेत	-3619
रेज	-3620
ांट	-3621
ेन्	-3622
▁29	-3623
▁पश	-3624
▁हर	-3625
वाणू	-3626
वासा	-3627
▁अना	-3628
▁अली	-3629
▁टोच	-3630
▁तित	-3631
▁तोड	-3632
▁माय	-3633
▁राम	-3634
▁समा	-3635
पत्रक	-3636
मंत्र	-3637
▁इतका	-3638
▁एक्स	-3639
▁डायर	-3640
▁मुखव	-3641
▁राहू	-3642
▁लढाई	-3643
▁वितर	-3644
▁शहरा	-3645
▁हस्त	-3646
ण्याने	-3647
▁आलेलं	-3648
▁करतील	-3649
▁ट्रेस	-3650
▁बहुते	-3651
▁वृद्ध	-3652
▁शोधून	-3653
▁सांगत	-3654
▁साखळी	-3655
कोव्हिड	-3656
ल्यांकन	-3657
ापेक्षा	-3658
▁इतिहास	-3659
▁कार्यक	-3660
▁केलेला	-3661
▁दवाखान	-3662
▁बाजूला	-3663
▁मधुमेह	-3664
▁मिळणार	-3665
▁रोगजनक	-3666
▁वापरून	-3667
▁वेगवेग	-3668
▁अमेरिका	-3669
▁प्रकरणे	-3670
▁विरुद्ध	-3671
▁विरोधात	-3672
▁व्यायाम	-3673
▁रुग्णाला	-3674
▁कोव्हिशिल्ड	-3675
▁रूग्णांच्या	-3676
▁व्यक्तीच्या	-3677
▁व्हेंटिलेटर्स	-3678
पन	-3679
सु	-3680
ौर	-3681
२०	-3682
▁26	-3683
▁35	-3684
▁खर	-3685
▁दै	-3686
▁है	-3687
▁१९	-3688
ंडवे	-3689
काला	-3690
जिटल	-3691
डीला	-3692
मागे	-3693
ायचे	-3694
्येक	-3695
▁CDC	-3696
▁अवय	-3697
▁कशा	-3698
▁गोप	-3699
▁ग्ल	-3700
▁डाय	-3701
▁बनव	-3702
▁योग	-3703
▁रिस	-3704
ंसाठी	-3705
▁कँडी	-3706
▁कक्ष	-3707
▁खोली	-3708
▁गुरु	-3709
▁मंगळ	-3710
▁मागो	-3711
▁शब्द	-3712
▁शाळे	-3713
▁अडथळा	-3714
▁अश्या	-3715
▁असणार	-3716
▁असेही	-3717
▁घोषित	-3718
▁छातीत	-3719
▁ठिकाण	-3720
▁नाहीय	-3721
▁योजने	-3722
ाध्यक्ष	-3723
▁डिजिटल	-3724
▁लागतात	-3725
▁वटवाघळ	-3726
▁शस्त्र	-3727
▁संदर्भ	-3728
▁होताना	-3729
▁अमेरिकन	-3730
▁परिणामी	-3731
▁प्रजाती	-3732
▁वैशिष्ट	-3733
▁आटोक्यात	-3734
▁केंद्रात	-3735
▁जाण्याची	-3736
▁त्यापैकी	-3737
▁नैसर्गिक	-3738
▁बंधनकारक	-3739
▁येण्याची	-3740
▁लशींच्या	-3741
▁त्याशिवाय	-3742
▁पुण्यातील	-3743
▁रुग्णांचे	-3744
▁संचारबंदी	-3745
▁सर्वेक्षण	-3746
▁सातत्याने	-3747
▁उपचारांसाठी	-3748
▁उपमुख्यमंत्री	-3749
ht	-3750
अॅ	-3751
गड	-3752
जण	-3753
दू	-3754
ंडी	-3755
काम	-3756
घात	-3757
पीई	-3758
लोक	-3759
ल्ट	-3760
ुसा	-3761
ूने	-3762
तीची	-3763
दक्ष	-3764
विले	-3765
ेटरी	-3766
▁आखा	-3767
▁आघा	-3768
▁उलट	-3769
▁जलद	-3770
▁जीन	-3771
▁बुध	-3772
▁ह्र	-3773
दिष्ट	-3774
मार्ग	-3775
्याला	-3776
▁आश्र	-3777
▁कागद	-3778
▁धुवा	-3779
▁फटका	-3780
▁भविष	-3781
▁इम्यु	-3782
▁कार्ड	-3783
▁गोंधळ	-3784
▁जम्बो	-3785
▁ठेवून	-3786
▁देणार	-3787
▁नॅशनल	-3788
▁राहील	-3789
▁कोरिया	-3790
▁गोपनीय	-3791
▁भोंडवे	-3792
▁मागोवा	-3793
▁रक्तात	-3794
▁विशेषत	-3795
▁सक्रिय	-3796
▁तात्पुर	-3797
▁याशिवाय	-3798
▁लक्षणीय	-3799
▁लोकांचं	-3800
▁स्टेट्स	-3801
▁स्वीकार	-3802
▁अभ्यासात	-3803
▁घेणाऱ्या	-3804
▁विभागाने	-3805
▁सिंड्रोम	-3806
▁प्रशिक्षण	-3807
▁हर्षवर्धन	-3808
▁आणण्यासाठी	-3809
▁सेंटरमध्ये	-3810
▁प्रतिक्रिया	-3811
खर	-3812
तम	-3813
दि	-3814
नल	-3815
षा	-3816
तंय	-3817
नाट	-3818
ब्र	-3819
राम	-3820
विड	-3821
वीन	-3822
षित	-3823
▁चो	-3824
▁रह	-3825
▁री	-3826
क्की	-3827
ट्टी	-3828
न्हा	-3829
मीटर	-3830
लन्स	-3831
ायिक	-3832
ाविक	-3833
▁उशी	-3834
▁कर्	-3835
▁दार	-3836
▁नको	-3837
▁पोह	-3838
▁बोट	-3839
▁सेल	-3840
▁हाल	-3841
कोसिस	-3842
नंदिन	-3843
मानात	-3844
वल्या	-3845
स्कार	-3846
▁आकार	-3847
▁आलाय	-3848
▁करीत	-3849
▁गाडी	-3850
▁देऊन	-3851
▁विजय	-3852
▁शारी	-3853
▁सगळी	-3854
▁सीमा	-3855
्यांचं	-3856
▁उपकरण	-3857
▁कोरडे	-3858
▁प्राय	-3859
▁मीडिय	-3860
▁	-3861
ा	-3862
्	-3863
र	-3864
य	-3865
त	-3866
े	-3867
क	-3868
ी	-3869
स	-3870
ल	-3871
न	-3872
ं	-3873
ि	-3874
व	-3875
ह	-3876
म	-3877
च	-3878
ण	-3879
प	-3880
ो	-3881
आ	-3882
द	-3883
ग	-3884
ज	-3885
ु	-3886
.	-3887
ट	-3888
श	-3889
अ	-3890
ू	-3891
ध	-3892
ब	-3893
ड	-3894
,	-3895
ष	-3896
ळ	-3897
ठ	-3898
ख	-3899
भ	-3900
थ	-3901
उ	-3902
घ	-3903
ए	-3904
झ	-3905
ॉ	-3906
फ	-3907
-	-3908
0	-3909
1	-3910
ढ	-3911
2	-3912
इ	-3913
ई	-3914
ऱ	-3915
ॅ	-3916
ऊ	-3917
ृ	-3918
"	-3919
9	-3920
ै	-3921
C	-3922
)	-3923
(	-3924
ऑ	-3925
'	-3926
5	-3927
?	-3928
I	-3929
ओ	-3930
3	-3931
4	-3932
S	-3933
V	-3934
R	-3935
:	-3936
O	-3937
१	-3938
D	-3939
8	-3940
ँ	-3941
7	-3942
6	-3943
२	-3944
o	-3945
०	-3946
A	-3947
ञ	-3948
औ	-3949
छ	-3950
ौ	-3951
e	-3952
a	-3953
E	-3954
P	-3955
i	-3956
%	-3957
४	-3958
t	-3959
३	-3960
r	-3961
५	-3962
n	-3963
ः	-3964
९	-3965
H	-3966
M	-3967
s	-3968
N	-3969
/	-3970
;	-3971
६	-3972
८	-3973
T	-3974
l	-3975
c	-3976
७	-3977
W	-3978
h	-3979
d	-3980
U	-3981
G	-3982
“	-3983
‘	-3984
m	-3985
़	-3986
’	-3987
p	-3988
!	-3989
u	-3990
B	-3991
g	-3992
v	-3993
ऐ	-3994
L	-3995
”	-3996
