<pad>	0
</s>	0
<unk>	0
s	-3.22405
▁the	-3.73538
▁	-3.76399
.	-3.80503
,	-3.9496
e	-3.99475
▁of	-4.13069
t	-4.27458
a	-4.4229
▁and	-4.44408
▁to	-4.46864
ed	-4.48702
▁a	-4.50089
d	-4.51867
▁in	-4.53306
ing	-4.53589
r	-4.5696
o	-4.67428
i	-4.68476
n	-4.74175
▁s	-4.75234
y	-4.76521
c	-4.80476
al	-4.87591
p	-4.88498
u	-4.93271
m	-4.94613
er	-4.9704
ar	-5.05796
g	-5.06693
▁is	-5.07593
in	-5.17375
re	-5.26121
b	-5.28939
▁c	-5.34949
f	-5.35404
▁f	-5.3563
▁for	-5.38145
or	-5.38526
▁S	-5.39791
it	-5.43692
▁be	-5.43719
l	-5.45769
k	-5.4649
le	-5.4717
an	-5.47514
h	-5.49415
▁p	-5.5173
▁re	-5.53918
th	-5.54382
▁A	-5.55347
▁-	-5.57741
▁The	-5.6033
▁that	-5.60485
ation	-5.62326
st	-5.62972
ur	-5.64117
es	-5.68247
w	-5.71085
▁you	-5.71578
ri	-5.73223
)	-5.74696
▁de	-5.76615
ly	-5.77746
▁(	-5.78101
on	-5.7819
ic	-5.79726
at	-5.80152
ent	-5.80824
en	-5.84296
▁P	-5.85988
▁with	-5.86486
ra	-5.86618
ion	-5.87443
▁or	-5.87722
v	-5.89504
▁not	-5.90616
ment	-5.90682
▁are	-5.92885
▁w	-5.93414
▁t	-5.95407
▁as	-5.96084
▁on	-5.98405
ter	-5.98571
▁b	-5.98574
▁l	-6.02417
as	-6.03669
▁it	-6.06214
▁B	-6.06461
▁I	-6.08712
ce	-6.09655
:	-6.09785
▁'	-6.10785
ch	-6.12268
▁m	-6.13891
▁C	-6.14069
ut	-6.14273
il	-6.16087
▁by	-6.16119
un	-6.17731
ir	-6.18786
ate	-6.20464
▁who	-6.20508
▁have	-6.20878
▁he	-6.21361
▁M	-6.21642
se	-6.2181
▁was	-6.21984
▁from	-6.23177
am	-6.23467
▁g	-6.23595
ad	-6.24635
▁d	-6.25133
▁will	-6.25725
el	-6.26664
ol	-6.2869
ow	-6.31546
▁this	-6.31659
ul	-6.32591
▁e	-6.3333
et	-6.33429
ect	-6.33674
▁con	-6.34748
li	-6.3516
ve	-6.37591
▁me	-6.38178
▁T	-6.39996
▁ex	-6.40155
▁do	-6.40514
▁which	-6.41034
us	-6.41336
▁them	-6.41479
▁an	-6.42242
A	-6.43124
la	-6.43319
▁they	-6.43761
id	-6.43777
▁has	-6.44912
▁his	-6.46364
▁He	-6.46956
;	-6.47008
ive	-6.48088
▁L	-6.48453
▁h	-6.48546
1	-6.48919
ha	-6.49224
▁In	-6.49402
I	-6.50586
0	-6.50838
▁pro	-6.5086
▁R	-6.51176
x	-6.52094
▁G	-6.53184
is	-6.54524
▁O	-6.54663
ist	-6.54863
E	-6.55102
age	-6.55397
▁F	-6.56121
▁their	-6.56178
▁H	-6.57254
▁all	-6.57517
and	-6.57537
ity	-6.58512
▁n	-6.58756
▁1	-6.5906
▁at	-6.59468
om	-6.59807
end	-6.60123
▁K	-6.60238
▁W	-6.61167
j	-6.62838
our	-6.63193
▁E	-6.63262
ers	-6.6359
▁we	-6.64424
tion	-6.6446
ant	-6.66879
▁co	-6.67094
te	-6.67689
▁no	-6.67699
vi	-6.7016
T	-6.7091
qu	-6.71052
▁D	-6.71205
S	-6.7238
▁so	-6.72997
R	-6.73486
▁We	-6.73535
ance	-6.74525
ak	-6.79362
▁your	-6.79687
▁Allah	-6.79744
▁un	-6.79784
um	-6.80079
ill	-6.80873
?	-6.81749
est	-6.82791
ab	-6.82982
ies	-6.83206
ge	-6.83787
-	-6.84205
▁And	-6.84415
N	-6.84771
lo	-6.8579
able	-6.87574
ru	-6.8955
▁mo	-6.9047
ther	-6.905
if	-6.92897
iv	-6.93046
'	-6.9309
▁India	-6.93407
%	-6.93565
ight	-6.93927
▁can	-6.94229
O	-6.94241
all	-6.94573
ver	-6.9512
▁po	-6.9524
me	-6.95731
▁N	-6.95929
he	-6.96063
▁lo	-6.96161
▁but	-6.96496
ide	-6.96545
de	-6.96765
ever	-6.97647
4	-6.97995
▁one	-6.98091
▁ma	-7
ated	-7.01278
▁us	-7.02274
ard	-7.02422
▁r	-7.02469
▁en	-7.02503
▁been	-7.03646
ell	-7.0385
ud	-7.04444
C	-7.04631
▁any	-7.04651
ne	-7.05594
ure	-7.05629
ous	-7.06359
▁sp	-7.06813
▁were	-7.0682
▁It	-7.06951
em	-7.07652
▁people	-7.07753
8	-7.0828
ish	-7.08594
ti	-7.09106
ast	-7.09222
5	-7.10009
▁when	-7.10696
ig	-7.11723
ence	-7.11987
7	-7.12875
▁other	-7.12902
▁him	-7.12904
▁v	-7.12914
▁there	-7.12979
▁comp	-7.1322
ta	-7.13307
6	-7.1343
ting	-7.13656
▁V	-7.13928
▁2	-7.1393
ful	-7.14492
▁"	-7.14638
2	-7.14656
ho	-7.14692
ain	-7.14953
D	-7.15302
hi	-7.15468
▁what	-7.16263
ach	-7.16647
ff	-7.16869
▁out	-7.16884
▁said	-7.17137
▁those	-7.17403
der	-7.18708
ound	-7.18773
▁Re	-7.18856
▁Ma	-7.19602
▁br	-7.20484
ap	-7.20867
mb	-7.20941
av	-7.21162
mp	-7.21331
9	-7.21397
ted	-7.21542
ary	-7.22575
pe	-7.22761
op	-7.22769
▁pre	-7.23108
▁also	-7.23376
os	-7.23634
port	-7.23975
▁bo	-7.24123
▁had	-7.24512
act	-7.25133
▁/	-7.2523
P	-7.27379
▁man	-7.27608
▁J	-7.27693
di	-7.28215
z	-7.28767
▁tra	-7.29153
▁im	-7.29254
ag	-7.29346
▁shall	-7.29385
ture	-7.29636
▁k	-7.29812
▁vi	-7.30001
M	-7.30366
pp	-7.30652
▁time	-7.31366
one	-7.31431
ness	-7.32594
▁dis	-7.32666
▁Ch	-7.32839
▁up	-7.33869
▁U	-7.34136
▁its	-7.34277
lu	-7.34974
ry	-7.35131
▁go	-7.35473
▁Lord	-7.3684
mo	-7.37043
▁19	-7.37345
lic	-7.37956
ok	-7.38271
▁our	-7.38458
▁see	-7.38478
▁if	-7.39648
"	-7.39927
ise	-7.40841
ally	-7.40966
▁may	-7.41001
ran	-7.41037
▁di	-7.41259
ail	-7.42232
!	-7.42244
3	-7.42941
▁some	-7.42959
ine	-7.43582
H	-7.4367
▁God	-7.43764
ph	-7.43827
for	-7.4443
B	-7.4447
_	-7.44496
▁This	-7.44654
▁j	-7.44761
▁20	-7.44888
ac	-7.45389
▁Sh	-7.46782
tor	-7.47481
oc	-7.48715
▁would	-7.4876
ial	-7.49244
▁per	-7.4948
▁acc	-7.49725
ty	-7.49873
ng	-7.50056
▁under	-7.50131
▁So	-7.50257
▁year	-7.5036
tri	-7.50891
ical	-7.50897
▁part	-7.50899
ite	-7.51769
up	-7.52175
to	-7.52338
▁work	-7.53224
ome	-7.53468
▁say	-7.53801
▁only	-7.53925
▁know	-7.54048
lay	-7.54505
▁“	-7.54795
▁such	-7.54914
old	-7.55458
▁made	-7.55525
▁like	-7.56158
▁3	-7.56211
tic	-7.56416
▁Mo	-7.56649
▁than	-7.56888
▁No	-7.57505
▁De	-7.57836
▁over	-7.58052
ang	-7.58931
per	-7.59192
ma	-7.59214
ition	-7.59818
▁new	-7.60102
▁rec	-7.60371
har	-7.61062
00	-7.61392
▁Pro	-7.61566
co	-7.61761
L	-7.62741
F	-7.64186
▁Th	-7.64304
Y	-7.64544
▁more	-7.64882
ward	-7.65316
▁act	-7.65681
less	-7.65715
ven	-7.65734
▁her	-7.66756
ave	-7.67234
▁ho	-7.67787
ize	-7.67843
ood	-7.67881
▁should	-7.68388
▁take	-7.6898
▁into	-7.70017
ions	-7.70271
▁day	-7.7038
cy	-7.70445
▁about	-7.70827
ugh	-7.71449
▁my	-7.72713
▁believe	-7.73866
▁good	-7.74074
▁life	-7.75384
▁sub	-7.75972
▁Un	-7.76254
▁str	-7.7631
’	-7.76412
▁two	-7.76433
ory	-7.76914
▁op	-7.78521
▁make	-7.79719
▁before	-7.80148
ign	-7.80776
▁They	-7.81203
▁But	-7.81948
▁”	-7.82671
ten	-7.83855
]	-7.84569
▁Na	-7.85078
▁You	-7.85213
▁ro	-7.85376
▁[	-7.85716
▁person	-7.85733
▁these	-7.86219
W	-7.86271
U	-7.87481
▁To	-7.87969
▁world	-7.88028
▁after	-7.88066
G	-7.88084
low	-7.88362
▁form	-7.89484
▁du	-7.89937
▁His	-7.90081
pro	-7.90198
▁through	-7.90402
▁even	-7.90794
ious	-7.90851
▁An	-7.91215
▁right	-7.91318
▁Con	-7.91674
han	-7.91864
▁come	-7.92201
▁If	-7.92774
▁then	-7.92974
▁Indian	-7.93267
ship	-7.93824
▁Act	-7.94341
▁President	-7.94786
ack	-7.96026
▁On	-7.96958
▁set	-7.97838
▁car	-7.98115
▁place	-7.9854
ible	-7.98778
▁cent	-7.99043
▁between	-7.99185
▁where	-7.99191
▁Com	-7.99202
▁used	-7.99703
▁down	-7.99866
▁sign	-8.00364
▁ye	-8.00639
ative	-8.00952
▁country	-8.01171
▁develop	-8.01171
▁For	-8.01213
▁very	-8.01254
ian	-8.01305
▁could	-8.02526
point	-8.03018
▁did	-8.03058
ities	-8.04124
▁state	-8.04691
▁5	-8.04928
▁well	-8.05327
▁disc	-8.06021
▁All	-8.06097
▁Government	-8.06671
▁Di	-8.06847
line	-8.07007
▁great	-8.07399
▁&	-8.07439
▁every	-8.07446
▁way	-8.08179
over	-8.08397
▁follow	-8.08815
▁help	-8.08861
ism	-8.10943
▁most	-8.10993
▁provide	-8.11016
▁many	-8.11522
▁among	-8.11747
▁back	-8.1207
▁give	-8.12787
▁Ex	-8.13167
/	-8.13989
▁gra	-8.14085
▁power	-8.14804
ash	-8.15469
▁turn	-8.15566
▁State	-8.16357
press	-8.17014
▁upon	-8.17843
not	-8.18097
▁open	-8.18351
▁she	-8.18483
▁name	-8.18845
▁first	-8.19486
▁against	-8.19701
▁relat	-8.20868
<	-8.2191
V	-8.22085
▁file	-8.22618
▁just	-8.22762
▁earth	-8.23591
20	-8.24235
mission	-8.24412
▁high	-8.24412
▁given	-8.24534
▁need	-8.24625
▁cha	-8.24905
▁hand	-8.25342
▁get	-8.26178
▁pass	-8.26307
spect	-8.26388
▁because	-8.26974
”	-8.28178
▁service	-8.28721
▁account	-8.29606
▁Him	-8.29657
▁water	-8.29693
▁plan	-8.2994
▁change	-8.31417
▁how	-8.31454
cultur	-8.3225
pati	-8.32439
▁number	-8.34152
▁another	-8.34159
▁When	-8.35111
▁must	-8.35144
ock	-8.35526
▁came	-8.36318
▁return	-8.36983
▁away	-8.36984
▁present	-8.37985
▁Ja	-8.38849
▁show	-8.38955
▁system	-8.39895
▁etc	-8.40152
▁long	-8.40199
▁message	-8.40887
▁clear	-8.41948
▁lead	-8.42038
▁book	-8.4414
▁includ	-8.44947
▁become	-8.44957
▁require	-8.45991
▁sea	-8.47048
▁public	-8.48105
▁free	-8.48171
▁fear	-8.48379
▁direct	-8.49192
▁consider	-8.50268
▁large	-8.50283
▁law	-8.50376
▁heart	-8.50403
▁case	-8.5056
▁human	-8.5137
▁cause	-8.51377
▁Day	-8.51424
ference	-8.52574
▁same	-8.54975
▁issue	-8.55105
▁rule	-8.56469
▁truth	-8.57056
▁matter	-8.57079
▁different	-8.58226
▁author	-8.58227
▁while	-8.58231
▁find	-8.58403
▁process	-8.5942
▁member	-8.59437
▁What	-8.59441
▁word	-8.59489
▁certain	-8.61841
▁period	-8.63075
▁wrong	-8.63075
▁much	-8.63096
▁start	-8.63116
▁grow	-8.64347
position	-8.65255
▁group	-8.65591
▁information	-8.65591
▁except	-8.65592
▁support	-8.65593
▁vari	-8.66513
ification	-8.66879
▁interest	-8.66895
mark	-8.67965
▁women	-8.68185
ization	-8.68193
▁Qu	-8.68257
▁face	-8.68573
▁think	-8.69489
▁receive	-8.69513
▁house	-8.69573
▁pay	-8.69727
▁friend	-8.70834
▁product	-8.71057
either	-8.71198
▁evil	-8.72187
–	-8.73542
▁Gandhi	-8.74932
▁though	-8.74934
uction	-8.7505
▁share	-8.75757
▁establish	-8.76339
▁important	-8.7634
script	-8.76344
▁government	-8.77768
▁amount	-8.77768
▁Book	-8.77777
▁small	-8.77811
▁again	-8.7885
▁New	-8.79255
K	-8.7986
aught	-8.80432
▁disbelieve	-8.80688
▁effect	-8.8069
▁value	-8.80692
▁complete	-8.80742
▁office	-8.80817
▁knowledge	-8.8218
special	-8.82184
▁social	-8.82188
▁education	-8.83695
▁language	-8.83695
▁Bhavan	-8.83695
▁Rashtra	-8.85234
▁increase	-8.85234
Z	-8.86796
▁commit	-8.86797
▁project	-8.86799
▁connect	-8.86817
▁business	-8.88383
▁problem	-8.88384
▁Central	-8.88384
▁left	-8.8839
▁children	-8.8839
▁remain	-8.88412
▁bank	-8.88418
▁elect	-8.88458
▁address	-8.89996
▁Minister	-8.89997
▁heavens	-8.89997
▁type	-8.90027
▁thou	-8.90559
▁control	-8.91636
▁concern	-8.91637
▁contain	-8.91658
▁surely	-8.91658
▁command	-8.93303
▁window	-8.93303
▁Hindu	-8.93304
▁level	-8.93304
▁folder	-8.93342
▁month	-8.93352
▁understand	-8.95
▁learn	-8.95003
{	-8.96721
}	-8.96721
▁faith	-8.96724
▁guide	-8.96741
▁equal	-8.96773
▁employ	-8.98476
▁object	-8.98476
▁character	-8.98476
▁Bengal	-8.98476
▁three	-8.98484
▁along	-8.98487
▁child	-9.00256
▁punishment	-9.00262
▁build	-9.00262
▁common	-9.00262
▁keep	-9.00264
▁function	-9.0208
▁current	-9.0208
▁market	-9.02087
▁family	-9.03932
▁Delhi	-9.03935
ability	-9.03936
cross	-9.03972
▁Muslim	-9.05818
▁result	-9.05827
(	-9.07385
▁Messenger	-9.07741
▁economic	-9.07741
▁Israel	-9.07742
▁achiev	-9.07742
▁already	-9.09702
▁application	-9.09702
▁himself	-9.09703
resident	-9.11432
▁themselves	-9.11702
—	-9.11702
▁belong	-9.11706
▁technolog	-9.13743
▁provision	-9.13744
▁little	-9.13744
X	-9.20128
+	-9.39464
q	-9.41307
“	-9.48422
Q	-9.5991
J	-9.61053
*	-9.74181
&	-11.7397
‘	-13.5747
>	-13.5748
[	-13.5748
