<pad>	0
</s>	0
<unk>	0
्य	-0
्या	-1
▁क	-2
▁आ	-3
▁स	-4
▁प	-5
्र	-6
ार	-7
▁म	-8
▁अ	-9
▁व	-10
ां	-11
ना	-12
▁त	-13
ात	-14
▁ह	-15
र्	-16
ला	-17
▁द	-18
▁य	-19
हे	-20
च्या	-21
▁ज	-22
क्	-23
▁र	-24
▁आहे	-25
ले	-26
्ह	-27
ण्या	-28
ल्या	-29
▁न	-30
▁कर	-31
चा	-32
▁ल	-33
▁प्र	-34
ची	-35
ती	-36
िक	-37
▁अस	-38
वा	-39
ही	-40
▁आण	-41
ली	-42
ून	-43
▁ब	-44
▁आणि	-45
▁श	-46
सा	-47
ने	-48
स्	-49
रो	-50
▁को	-51
ंत	-52
▁हो	-53
▁सं	-54
ता	-55
▁के	-56
्ये	-57
णा	-58
मध	-59
▁का	-60
▁या	-61
▁उ	-62
ित	-63
▁ग	-64
▁त्या	-65
चे	-66
ठी	-67
क्ष	-68
ाव	-69
नी	-70
मध्ये	-71
▁वि	-72
साठी	-73
▁ए	-74
ाण	-75
▁घ	-76
▁झ	-77
ाय	-78
ान	-79
ंद	-80
व्ह	-81
वर	-82
▁ना	-83
ग्	-84
▁वा	-85
ील	-86
लं	-87
▁दि	-88
▁झा	-89
्ट	-90
▁रा	-91
ते	-92
▁नि	-93
ास	-94
शी	-95
▁ड	-96
रोना	-97
▁दे	-98
▁ट	-99
▁भ	-100
▁करण्या	-101
ुर	-102
▁रु	-103
▁कोरोना	-104
▁ला	-105
▁पर	-106
कार	-107
▁रुग्	-108
ेत	-109
का	-110
हि	-111
मु	-112
▁इ	-113
चं	-114
िं	-115
त्	-116
▁म्ह	-117
्यां	-118
कर	-119
▁स्	-120
▁लस	-121
▁जा	-122
लेल्या	-123
तात	-124
▁मा	-125
ळे	-126
▁आहेत	-127
री	-128
णे	-129
▁यां	-130
▁फ	-131
कड	-132
पर	-133
▁नाही	-134
▁सा	-135
ारी	-136
ष्ट	-137
द्	-138
ोक	-139
वि	-140
▁शक	-141
ार्	-142
▁राज	-143
ांना	-144
मी	-145
▁उप	-146
▁मु	-147
या	-148
ऱ्या	-149
▁त्यां	-150
▁रुग्ण	-151
सि	-152
▁ठ	-153
▁पा	-154
ारा	-155
वी	-156
मुळे	-157
▁2	-158
णी	-159
▁हे	-160
ंत्र	-161
▁1	-162
ेश	-163
▁ते	-164
▁मह	-165
▁ये	-166
स्थ	-167
की	-168
▁ख	-169
▁सुर	-170
जन	-171
ंतर	-172
र्ग	-173
ग्य	-174
ेल	-175
▁चा	-176
▁लोक	-177
ुस	-178
ण्यात	-179
▁एक	-180
▁च	-181
तो	-182
िल	-183
स्त	-184
्यात	-185
▁सर	-186
▁आरो	-187
तील	-188
ांग	-189
प्र	-190
्स	-191
▁ऑ	-192
▁म्हण	-193
िती	-194
▁किं	-195
▁सर्	-196
िट	-197
ळा	-198
▁लाग	-199
▁सरकार	-200
▁(	-201
▁मो	-202
▁किंवा	-203
णार	-204
▁तर	-205
बा	-206
▁पु	-207
मा	-208
▁आरोग्य	-209
सर्ग	-210
सी	-211
▁काही	-212
तर	-213
▁परि	-214
▁सांग	-215
धी	-216
पास	-217
▁कार	-218
धिक	-219
▁डॉ	-220
▁"	-221
रा	-222
▁निर्	-223
▁यांनी	-224
ंद्र	-225
से	-226
ंट	-227
▁संसर्ग	-228
▁ध	-229
जे	-230
▁वाढ	-231
ातील	-232
ळी	-233
▁असल्या	-234
▁तु	-235
19	-236
वे	-237
▁करण्यात	-238
ाल	-239
▁विष	-240
क्र	-241
्यंत	-242
माण	-243
सं	-244
▁की	-245
▁कमी	-246
ति	-247
ेट	-248
ोन	-249
ाग	-250
ूर्	-251
▁व्य	-252
स्ट	-253
▁आप	-254
▁होत	-255
▁वे	-256
▁आज	-257
ांच्या	-258
▁देश	-259
ाणू	-260
ल्	-261
नंतर	-262
ष्ट्र	-263
म्ह	-264
▁सर्व	-265
▁जात	-266
▁असं	-267
▁सम	-268
▁लशी	-269
्यू	-270
ोग	-271
टी	-272
जी	-273
▁मि	-274
क्षा	-275
द्ध	-276
णाऱ्या	-277
ांची	-278
णं	-279
ऊन	-280
-19	-281
व्हि	-282
क्त	-283
वस	-284
▁केली	-285
▁विषाणू	-286
ाप	-287
ण्यासाठी	-288
ंध	-289
ांमध्ये	-290
▁ही	-291
लय	-292
ंब	-293
▁लसी	-294
▁वापर	-295
ृत	-296
चार	-297
▁घे	-298
▁चाच	-299
ांनी	-300
ताना	-301
करण	-302
▁गे	-303
▁हा	-304
ेव	-305
▁पण	-306
दी	-307
र्ष	-308
▁लक्ष	-309
▁भार	-310
क्सि	-311
बत	-312
▁व्ह	-313
ख्या	-314
▁बा	-315
▁अधिक	-316
ोना	-317
▁20	-318
ंड	-319
ज्	-320
शा	-321
ईल	-322
▁केंद्र	-323
न्	-324
हिती	-325
▁करोना	-326
के	-327
पे	-328
त्र	-329
▁आले	-330
▁माहिती	-331
ोल	-332
पर्यंत	-333
क्ट	-334
वार	-335
▁कोव्हि	-336
नि	-337
द्या	-338
▁क्	-339
▁होते	-340
▁रुग्णा	-341
बंध	-342
ायर	-343
पासून	-344
▁सुरू	-345
ाला	-346
मे	-347
▁शि	-348
▁केले	-349
▁मृत	-350
श्	-351
▁मार्	-352
र्थ	-353
गी	-354
ाराष्ट्र	-355
पा	-356
िया	-357
▁स्थ	-358
डी	-359
िय	-360
▁निय	-361
ण्याची	-362
रात	-363
कडा	-364
▁मध	-365
▁कोव्हिड	-366
▁C	-367
▁महाराष्ट्र	-368
▁काम	-369
▁बंद	-370
▁घेत	-371
क्ती	-372
▁ऑक्सि	-373
ेड	-374
▁लॉ	-375
▁सु	-376
ावर	-377
▁दिवस	-378
▁उत्	-379
▁इतर	-380
▁ऑक्सिजन	-381
▁वर्ष	-382
वड	-383
्यु	-384
ांचा	-385
▁पुर	-386
नेक	-387
ात्र	-388
▁झाल्या	-389
▁दोन	-390
▁कु	-391
दा	-392
▁ज्या	-393
र्म	-394
ब्	-395
▁अनेक	-396
कडे	-397
▁आली	-398
▁हात	-399
्यम	-400
सार	-401
▁आढ	-402
वारी	-403
▁'	-404
रे	-405
म्ही	-406
िंग	-407
▁ती	-408
▁दिस	-409
▁दुस	-410
▁लॉकडा	-411
▁केला	-412
▁होती	-413
▁असलेल्या	-414
रिक	-415
ायरस	-416
▁महि	-417
▁प्रति	-418
▁जे	-419
ंत्री	-420
▁जास्त	-421
भाव	-422
▁एका	-423
▁प्रमाण	-424
दल	-425
्रे	-426
▁करण्यासाठी	-427
द्य	-428
र्स	-429
को	-430
ूर	-431
▁से	-432
▁काय	-433
▁येत	-434
▁संप	-435
▁नस	-436
▁काळ	-437
▁मोठ	-438
ीय	-439
▁मृत्यू	-440
त्या	-441
ुसार	-442
▁नो	-443
▁पो	-444
▁थ	-445
▁आता	-446
▁औ	-447
▁शा	-448
कीय	-449
मान	-450
च्	-451
तिक	-452
▁मान	-453
ऱ्यां	-454
▁दु	-455
डे	-456
▁यु	-457
क्षण	-458
▁तय	-459
▁आढळ	-460
▁करत	-461
▁झाला	-462
स्थिती	-463
▁सो	-464
▁राह	-465
▁च्या	-466
शन	-467
िन	-468
िल्ह	-469
्यक	-470
▁रुग्णालय	-471
▁झाली	-472
▁झाले	-473
ज्ञ	-474
▁रो	-475
बाबत	-476
▁होता	-477
्रा	-478
▁चाचणी	-479
▁परिणा	-480
देश	-481
ूर्ण	-482
प्	-483
▁टक्	-484
VI	-485
ांवर	-486
जार	-487
OVI	-488
▁स्व	-489
ांत	-490
▁विक	-491
OVID	-492
ाच्या	-493
▁व्यक्ती	-494
▁जिल्ह	-495
ंभ	-496
ोध	-497
▁सांगित	-498
▁3	-499
▁दा	-500
▁वै	-501
▁असे	-502
▁त्यांच्या	-503
▁म्हट	-504
20	-505
▁कोण	-506
वश	-507
▁औष	-508
▁गर	-509
व्ही	-510
▁म्हणून	-511
▁व्हायरस	-512
▁ने	-513
▁नाग	-514
▁लॉकडाऊन	-515
वश्यक	-516
▁माग	-517
▁असेल	-518
▁COVID	-519
▁म्हणा	-520
टे	-521
▁औषध	-522
▁परिणाम	-523
▁सह	-524
▁भाग	-525
▁झालेल्या	-526
स्क	-527
नुसार	-528
शि	-529
▁ची	-530
व्हा	-531
ाणी	-532
▁मुख	-533
▁वेग	-534
▁मिळ	-535
भाग	-536
▁क्ष	-537
▁ठेव	-538
▁आय	-539
कडून	-540
▁संख्या	-541
▁करून	-542
ाने	-543
ध्या	-544
▁लसीकरण	-545
▁मार्च	-546
रम	-547
▁यांच्या	-548
खी	-549
▁दिली	-550
▁केल्या	-551
्हे	-552
▁टा	-553
▁5	-554
▁प्रवा	-555
मधील	-556
▁तयार	-557
▁प्रा	-558
▁उपचार	-559
▁अन	-560
ंग	-561
ोर	-562
र्क	-563
लब्	-564
▁डो	-565
क्रम	-566
▁परिस्थिती	-567
▁रू	-568
लब्ध	-569
▁उपलब्ध	-570
▁देण्यात	-571
ंप	-572
▁पुढ	-573
ंबई	-574
पेक्षा	-575
▁गेल्या	-576
▁अशा	-577
▁त्यांना	-578
▁गो	-579
▁आजार	-580
ांसाठी	-581
धार	-582
▁नोंद	-583
थे	-584
ष्	-585
▁आपल्या	-586
▁म्हटलं	-587
वळ	-588
▁१	-589
▁म्हणजे	-590
तं	-591
सर	-592
▁आला	-593
▁मात्र	-594
▁मुंबई	-595
ओव्ही	-596
▁शक्य	-597
▁म्हणाले	-598
्ल	-599
▁डॉक्ट	-600
▁केलं	-601
▁राज्य	-602
ण्याचा	-603
▁त्यामुळे	-604
पी	-605
▁ति	-606
वात	-607
▁सार्	-608
▁राज्या	-609
▁पहि	-610
▁टक्के	-611
▁तो	-612
▁शह	-613
▁करणे	-614
▁सू	-615
▁रोग	-616
▁स्प	-617
नं	-618
▁अशी	-619
▁हजार	-620
▁तरी	-621
▁जाग	-622
▁आम्ही	-623
▁राज्यात	-624
▁यो	-625
प्रिल	-626
▁महिन	-627
▁सुरु	-628
RS	-629
हो	-630
▁जो	-631
▁रे	-632
खा	-633
▁2020	-634
▁प्रय	-635
00	-636
▁महत्	-637
▁एप्रिल	-638
▁त्यांनी	-639
▁4	-640
▁हॉ	-641
ीर	-642
ष्टी	-643
▁विद्या	-644
ावा	-645
▁बोल	-646
▁अभ	-647
सो	-648
धान	-649
▁जग	-650
▁चाचण्या	-651
िका	-652
▁पड	-653
▁असून	-654
▁रूग्	-655
▁जाण	-656
ावी	-657
▁कोवि	-658
ठा	-659
▁समाव	-660
स्प	-661
▁-	-662
▁मुल	-663
म्हाला	-664
▁शकतो	-665
▁भारतात	-666
▁मोठ्या	-667
▁असल्याचं	-668
▁होतं	-669
▁:	-670
▁कार्य	-671
."	-672
▁सि	-673
▁कंप	-674
▁सांगतात	-675
▁डि	-676
ांचे	-677
▁नवी	-678
▁दाख	-679
ण्यास	-680
▁पुरव	-681
▁पे	-682
्यांना	-683
बी	-684
न्स	-685
वाय	-686
ातून	-687
▁लाख	-688
▁ओ	-689
▁कर्म	-690
पणे	-691
ैकी	-692
▁स्ट	-693
सीओव्ही	-694
ये	-695
िम	-696
▁डॉक्टर	-697
▁आठ	-698
▁साथ	-699
द्यकीय	-700
▁सरकारने	-701
मक	-702
▁निर्ण	-703
▁मध्ये	-704
▁शकतात	-705
▁सध्या	-706
र्श	-707
▁होऊ	-708
▁डोस	-709
▁जी	-710
▁श्	-711
▁येईल	-712
▁वैद्यकीय	-713
वस्थ	-714
र्भ	-715
▁आलं	-716
▁ठर	-717
▁धु	-718
▁होतो	-719
▁आवश्यक	-720
▁सांगितलं	-721
▁ठा	-722
▁सी	-723
▁आल्या	-724
ाज	-725
ंभीर	-726
गळ	-727
ख्ये	-728
▁पाल	-729
▁कोविड	-730
▁लोकांना	-731
िव्ह	-732
▁नागरिक	-733
▁प्रकार	-734
करणा	-735
▁गरज	-736
▁नवीन	-737
▁गंभीर	-738
मच्या	-739
▁निर्णय	-740
सेस	-741
▁प्रभाव	-742
वान	-743
ूक	-744
▁S	-745
▁मद	-746
▁कारण	-747
▁२	-748
▁अॅ	-749
हेर	-750
▁बी	-751
▁महाराष्ट्रात	-752
विध	-753
▁मी	-754
▁दुसऱ्या	-755
ात्	-756
▁मिळा	-757
▁समावेश	-758
पाद	-759
▁असा	-760
▁चीन	-761
▁असले	-762
▁विद्यार्थ	-763
▁अँ	-764
▁स्थिती	-765
हान	-766
▁शाळा	-767
▁ह्या	-768
र्ड	-769
▁बदल	-770
▁वाट	-771
▁शकते	-772
▁गु	-773
▁मास्क	-774
ण्याच्या	-775
▁करू	-776
▁महत्त्	-777
ूर्वी	-778
▁मुख्यम	-779
ुक	-780
िटल	-781
▁घट	-782
्याय	-783
▁नाहीत	-784
▁6	-785
शास	-786
▁देख	-787
▁संश	-788
करे	-789
द्दल	-790
क्स	-791
्यान	-792
▁ठाकरे	-793
ईन	-794
बर	-795
ावे	-796
▁पुन	-797
▁उत्पाद	-798
▁रि	-799
▁व्या	-800
ॉल	-801
▁7	-802
मडे	-803
ॅन	-804
▁दर	-805
वारे	-806
रम्यान	-807
▁पूर्ण	-808
शे	-809
▁रूग्ण	-810
▁विभाग	-811
Co	-812
च्छ	-813
▁चे	-814
ायला	-815
▁नियम	-816
हीर	-817
पैकी	-818
▁आठवड	-819
▁शक्यता	-820
▁संपर्क	-821
▁सुरुवात	-822
धित	-823
▁संबंध	-824
दर	-825
▁अभ्या	-826
▁आलेल्या	-827
टा	-828
ंना	-829
▁विचार	-830
▁आपण	-831
मडेसि	-832
▁जाहीर	-833
▁परवान	-834
▁नियंत्र	-835
्हा	-836
▁सूच	-837
विष	-838
▁फे	-839
▁बेड	-840
▁संसर्गा	-841
▁चाल	-842
▁पाहि	-843
सह	-844
भरात	-845
क्षित	-846
▁जागतिक	-847
▁निर्बंध	-848
▁महत्त्वा	-849
▁जन	-850
▁मू	-851
बद्दल	-852
▁पसर	-853
ंचा	-854
▁क्षेत	-855
▁परवानगी	-856
▁मे	-857
▁ठिक	-858
▁म्हणतात	-859
▁8	-860
▁असते	-861
ल्यानंतर	-862
▁भर	-863
▁पुढे	-864
▁केलेल्या	-865
▁छ	-866
▁प्रसार	-867
▁करण्याची	-868
ARS	-869
▁प्रत	-870
▁हॉस्प	-871
पूर	-872
▁टे	-873
▁तुम्हाला	-874
ग्र	-875
णारे	-876
▁अमे	-877
▁व्हे	-878
▁प्रशास	-879
▁हॉस्पिटल	-880
ंबर	-881
▁मदत	-882
▁लाव	-883
▁काळात	-884
▁लक्षणे	-885
प्प	-886
ोट	-887
▁निर्माण	-888
दे	-889
र्ट	-890
व्या	-891
▁परी	-892
▁शोध	-893
ज्ज्ञ	-894
▁उपाय	-895
▁दिसून	-896
▁बोलताना	-897
CoV	-898
▁लागू	-899
्यांनी	-900
▁अमेरिक	-901
▁रुग्णालयात	-902
ोका	-903
▁जाते	-904
▁प्रश्	-905
▁प्रयत्	-906
▁रेमडेसि	-907
च्च	-908
▁अज	-909
▁नमु	-910
▁प्रमाणात	-911
ठव	-912
ांचं	-913
▁रोजी	-914
लो	-915
▁काढ	-916
▁कोटी	-917
▁पत्र	-918
▁मंत्र	-919
▁ट्र	-920
▁पाह	-921
्रु	-922
▁जाईल	-923
▁मार्ग	-924
रण	-925
▁ऑफ	-926
सोबत	-927
▁पहिल्या	-928
▁10	-929
▁संस्थ	-930
मिक	-931
रोध	-932
▁SARS	-933
▁दाखल	-934
▁देशात	-935
▁9	-936
▁रुग्णांची	-937
▁मागणी	-938
▁कोणत्या	-939
लया	-940
▁जर	-941
ीच्या	-942
▁अर्थ	-943
▁तपास	-944
▁प्रयत्न	-945
मुख	-946
▁उद	-947
▁व्यवस्थ	-948
साय	-949
▁कंपनी	-950
ोज	-951
लाव	-952
▁पॉ	-953
▁संक	-954
डा	-955
म्	-956
▁शरी	-957
▁श्वस	-958
रि	-959
▁अति	-960
▁वेळ	-961
▁याचा	-962
▁देखील	-963
▁योग्य	-964
▁असताना	-965
▁धोका	-966
मंत्री	-967
▁प्रश्न	-968
ंच्या	-969
▁उद्ध	-970
▁आजारा	-971
▁काळजी	-972
▁कोरोनाची	-973
▁लाट	-974
▁संक्रम	-975
▁तीन	-976
▁संघ	-977
▁ग्रा	-978
▁विकस	-979
▁पुरवठा	-980
▁क्षेत्र	-981
▁लसीकरणा	-982
िव	-983
िकल	-984
ेशन	-985
रातील	-986
▁मुख्यमंत्री	-987
अर	-988
▁इन्	-989
▁पद्ध	-990
▁पुन्हा	-991
ावं	-992
▁दिले	-993
द्वारे	-994
▁यांना	-995
ूप	-996
ंटर	-997
▁कुठ	-998
▁रुग्णसं	-999
बीसी	-1000
▁ताप	-1001
▁उद्धव	-1002
तः	-1003
भू	-1004
िस	-1005
ोष	-1006
ल्ली	-1007
▁पात	-1008
▁उत्तर	-1009
्यक्ष	-1010
प्रधान	-1011
▁तेव्हा	-1012
▁नसल्या	-1013
▁बीबीसी	-1014
ंतप्रधान	-1015
▁करणाऱ्या	-1016
चित	-1017
नात	-1018
▁बै	-1019
दान	-1020
▁मोदी	-1021
प्रमाण	-1022
▁उद्रे	-1023
▁टेस्ट	-1024
▁बाहेर	-1025
मार	-1026
ांब	-1027
▁क्र	-1028
▁तसं	-1029
▁करता	-1030
पूर्वी	-1031
▁कर्मचा	-1032
▁पंतप्रधान	-1033
यी	-1034
िर	-1035
शेष	-1036
▁अव	-1037
▁असू	-1038
▁संबंधित	-1039
▁कोरोनाचा	-1040
टर	-1041
▁इं	-1042
मधून	-1043
▁वाह	-1044
▁साध	-1045
मान्य	-1046
▁दिला	-1047
▁I	-1048
▁चर्	-1049
▁जवळ	-1050
▁भारत	-1051
▁संशोध	-1052
▁राष्ट्र	-1053
▁डेट	-1054
▁किती	-1055
▁सार्स	-1056
▁दिल्ली	-1057
▁येणार	-1058
▁अभ्यास	-1059
▁विकसित	-1060
▁प्रत्ये	-1061
-2	-1062
दार	-1063
▁बैठ	-1064
▁सार्व	-1065
्यांच्या	-1066
▁टो	-1067
जनिक	-1068
व्हॅ	-1069
▁खास	-1070
ंची	-1071
िके	-1072
वेळी	-1073
▁तास	-1074
▁दिव	-1075
▁विशेष	-1076
प्रमाणे	-1077
▁जाने	-1078
▁नव्ह	-1079
▁तुम्ही	-1080
▁असल्याचे	-1081
▁जानेवारी	-1082
शल	-1083
ित्	-1084
▁जाऊ	-1085
▁ठिकाणी	-1086
▁कर्मचाऱ्यां	-1087
झिट	-1088
▁खा	-1089
▁सेवा	-1090
▁रुग्णांना	-1091
▁R	-1092
▁आधार	-1093
▁घ्या	-1094
▁पातळी	-1095
▁सार्वजनिक	-1096
हु	-1097
▁अनु	-1098
▁घरी	-1099
ात्री	-1100
▁करतात	-1101
▁जण	-1102
▁टप्प	-1103
▁भारता	-1104
▁होणार	-1105
▁शिक्षण	-1106
दाय	-1107
▁बाय	-1108
खे	-1109
हा	-1110
ानिक	-1111
▁वाढव	-1112
▁पॉझिट	-1113
▁अध	-1114
▁वर	-1115
▁आढळून	-1116
▁अड	-1117
▁कि	-1118
ुद्ध	-1119
▁आधी	-1120
ात्मक	-1121
▁महिन्यात	-1122
वाल	-1123
वास	-1124
▁इत	-1125
▁उच्च	-1126
▁नियंत्रण	-1127
▁प्रतिबंध	-1128
जन्य	-1129
▁प्रव	-1130
▁तज्ज्ञ	-1131
ूण	-1132
ृती	-1133
▁होईल	-1134
▁पद्धती	-1135
▁स्पष्ट	-1136
ुन	-1137
▁चि	-1138
▁नये	-1139
▁साम	-1140
▁लक्षणं	-1141
▁करण्यास	-1142
विक	-1143
▁संपूर्ण	-1144
टु	-1145
्ड	-1146
ंतु	-1147
▁सगळ	-1148
▁चर्चा	-1149
▁परीक्षा	-1150
▁प्रभावी	-1151
ळख	-1152
र्भात	-1153
▁तसंच	-1154
▁विविध	-1155
▁याबाबत	-1156
्फ	-1157
ष्ठ	-1158
णारी	-1159
र्या	-1160
▁अंद	-1161
▁उद्	-1162
▁झालं	-1163
▁पोहो	-1164
▁असतात	-1165
▁जिल्हा	-1166
वीर	-1167
▁अह	-1168
▁आम	-1169
ध्यम	-1170
▁तुल	-1171
▁गेले	-1172
वाई	-1173
ोजन	-1174
▁आहो	-1175
▁असतो	-1176
गर	-1177
▁19	-1178
पत्र	-1179
▁घाल	-1180
▁फाय	-1181
▁वर्	-1182
ेवारी	-1183
▁आहोत	-1184
ोम	-1185
ाची	-1186
▁बन	-1187
▁घोष	-1188
▁शिफ	-1189
▁याची	-1190
ण्याचे	-1191
▁दुसरी	-1192
▁प्रक्र	-1193
▁प्रवास	-1194
माज	-1195
व्र	-1196
▁त्र	-1197
▁लहान	-1198
▁ओळख	-1199
ांपासून	-1200
्यांमध्ये	-1201
▁पॉझिटिव्ह	-1202
मता	-1203
▁कुटु	-1204
▁कॉ	-1205
▁फु	-1206
▁बहु	-1207
▁संघट	-1208
▁गोष्टी	-1209
वं	-1210
▁तसे	-1211
▁तीव्र	-1212
ंज	-1213
वरील	-1214
▁प्रशासना	-1215
कारक	-1216
▁सल्	-1217
क्षणा	-1218
▁लागण	-1219
▁अधिका	-1220
▁पोहोच	-1221
्याच्या	-1222
झर	-1223
हून	-1224
▁एखा	-1225
▁मला	-1226
लावधी	-1227
▁घेतला	-1228
▁पर्यंत	-1229
▁करण्याचा	-1230
पो	-1231
तिकार	-1232
▁डेटा	-1233
▁केसेस	-1234
्रुवारी	-1235
▁फेब	-1236
▁कालावधी	-1237
▁राज्यातील	-1238
तीत	-1239
थील	-1240
्री	-1241
▁सात	-1242
ंनी	-1243
िले	-1244
▁शे	-1245
▁फेब्रुवारी	-1246
▁अम	-1247
ार्थ	-1248
ुक्त	-1249
▁एकूण	-1250
वत	-1251
गार	-1252
योग	-1253
ाती	-1254
▁अं	-1255
▁बस	-1256
क्शन	-1257
▁आकड	-1258
▁महाप	-1259
्यातील	-1260
▁शिफार	-1261
▁तुमच्या	-1262
▁दरम्यान	-1263
▁त्यानंतर	-1264
न्ट	-1265
र्ज	-1266
▁तुट	-1267
▁त्यात	-1268
▁माध्यम	-1269
ल्प	-1270
▁खूप	-1271
क्सिन	-1272
स्त्र	-1273
▁कोरोनाच्या	-1274
न्न	-1275
▁माझ	-1276
▁पाठव	-1277
▁फक्त	-1278
▁लाटे	-1279
▁यासाठी	-1280
▁असल्याने	-1281
▁प्रत्येक	-1282
रोग	-1283
्ही	-1284
▁गा	-1285
▁लढ	-1286
रोधी	-1287
▁कार्या	-1288
▁प्रदेश	-1289
लगी	-1290
▁अंतर	-1291
▁सूचना	-1292
▁सरकारी	-1293
▁मंत्राल	-1294
▁केंद्रीय	-1295
▁त्याच्या	-1296
▁बेड्स	-1297
▁भागात	-1298
दर्श	-1299
▁करा	-1300
▁गर्	-1301
▁रोख	-1302
ासाठी	-1303
▁आढळले	-1304
▁यंत्र	-1305
▁सामान्य	-1306
▁“	-1307
्युट	-1308
▁केवळ	-1309
▁पाहिजे	-1310
▁होत्या	-1311
साद	-1312
ूर्व	-1313
▁आदेश	-1314
▁द्या	-1315
▁जेव्हा	-1316
▁संख्ये	-1317
▁स्वच्छ	-1318
फे	-1319
ियन	-1320
▁50	-1321
▁जि	-1322
▁चार	-1323
▁पाच	-1324
▁संर	-1325
▁जातो	-1326
▁तसेच	-1327
▁प्रकरण	-1328
वण्यात	-1329
▁खासगी	-1330
▁तुटवड	-1331
▁श्वसन	-1332
▁रुग्णसंख्या	-1333
ाचे	-1334
स्टिट	-1335
▁दिसत	-1336
▁असतील	-1337
▁गर्दी	-1338
विषयी	-1339
▁व्यक्त	-1340
▁कोणत्याही	-1341
दु	-1342
भव	-1343
लक	-1344
▁कॅ	-1345
णारा	-1346
▁येऊ	-1347
▁कर्मच	-1348
प्ट	-1349
ॅक्ट	-1350
र्थिक	-1351
▁वाढत	-1352
▁विश्	-1353
▁त्रास	-1354
▁लशीच्या	-1355
▁आकडेवारी	-1356
हन	-1357
ाचा	-1358
▁कम	-1359
माणा	-1360
▁जीव	-1361
▁परत	-1362
▁घेऊन	-1363
▁निर्म	-1364
▁मर्या	-1365
▁कुटुंब	-1366
▁गरजे	-1367
▁चांग	-1368
नेत	-1369
▁कड	-1370
ांशी	-1371
▁अजून	-1372
▁प्रयोग	-1373
▁उत्पादन	-1374
▁कर्मचारी	-1375
लिक	-1376
▁अप	-1377
▁आर	-1378
▁एच	-1379
▁ठे	-1380
▁योज	-1381
▁निवड	-1382
▁वाहत	-1383
नाच्या	-1384
▁लागेल	-1385
▁दोन्ही	-1386
▁प्रमाणा	-1387
▁सांगितले	-1388
▁सुरक्षित	-1389
▁४	-1390
निट	-1391
राव	-1392
ांश	-1393
▁इंड	-1394
▁साब	-1395
▁त्याचा	-1396
▁प्रमुख	-1397
▁शिफारस	-1398
फ्फ	-1399
▁टाळ	-1400
▁M	-1401
ृत्	-1402
▁दूर	-1403
बाधित	-1404
▁बायो	-1405
ंमध्ये	-1406
▁राजेश	-1407
▁सेंटर	-1408
▁करताना	-1409
▁प्रवेश	-1410
▁अधिकारी	-1411
लॉ	-1412
▁P	-1413
मीण	-1414
▁टी	-1415
चारा	-1416
व्हे	-1417
्यूट	-1418
▁दिलेल्या	-1419
एस	-1420
गे	-1421
धा	-1422
भा	-1423
▁३	-1424
लीन	-1425
शिवाय	-1426
▁कोव्हॅ	-1427
▁इन्स्टिट	-1428
▁येणाऱ्या	-1429
ंटा	-1430
वले	-1431
▁14	-1432
▁बो	-1433
▁भी	-1434
वाला	-1435
▁घेतली	-1436
▁ग्रामीण	-1437
उन	-1438
ानं	-1439
ुकी	-1440
▁साथी	-1441
▁येथील	-1442
▁लोकसं	-1443
▁आर्थिक	-1444
▁रात्री	-1445
▁‘	-1446
विर	-1447
▁मॉ	-1448
काळी	-1449
्रेन	-1450
▁आणखी	-1451
▁अंदाज	-1452
▁करावी	-1453
▁नव्या	-1454
▁फुफ्फ	-1455
▁आमच्या	-1456
▁महापाल	-1457
▁स्थानिक	-1458
लंब	-1459
▁तिस	-1460
▁ब्र	-1461
▁कंपन	-1462
▁सल्ला	-1463
सारख्या	-1464
▁होण्याची	-1465
▁कार्यक्रम	-1466
घड	-1467
▁A	-1468
व्य	-1469
▁लि	-1470
▁नंतर	-1471
▁जाणार	-1472
शील	-1473
ेल्	-1474
▁ट्	-1475
निरी	-1476
▁चिक	-1477
▁पास	-1478
▁गेली	-1479
▁टोपे	-1480
▁पेशी	-1481
▁प्रो	-1482
▁व्हेंट	-1483
▁W	-1484
000	-1485
टली	-1486
▁मन	-1487
▁बरे	-1488
▁मरा	-1489
शिष्ट	-1490
▁थांब	-1491
▁निष्	-1492
▁पुणे	-1493
लगीकरण	-1494
ँग	-1495
▁15	-1496
▁अत	-1497
वाधिक	-1498
▁पालक	-1499
▁पेक्षा	-1500
▁घेण्यात	-1501
▁राष्ट्रीय	-1502
▁अधिकाऱ्यां	-1503
▁माहितीनुसार	-1504
HO	-1505
बाब	-1506
र्च	-1507
रोबर	-1508
िओ	-1509
▁अन्य	-1510
▁यावर	-1511
ल्याने	-1512
▁परंतु	-1513
▁नागपूर	-1514
▁पर्याय	-1515
▁प्रवाश	-1516
▁यामुळे	-1517
▁संनिरी	-1518
▁प्रतिसाद	-1519
▁ऑक्सिजनची	-1520
ृह	-1521
▁शहर	-1522
▁शास	-1523
▁न्यू	-1524
वारंटा	-1525
▁शहरात	-1526
▁लॉकडाउन	-1527
ूल	-1528
वाद	-1529
▁बि	-1530
क्षे	-1531
▁फार	-1532
▁समज	-1533
▁करणं	-1534
▁मान्य	-1535
▁जगभरात	-1536
▁प्रयोगशा	-1537
▁सर्वाधिक	-1538
▁होणाऱ्या	-1539
▁एचसीओव्ही	-1540
एन	-1541
ळू	-1542
▁रुप	-1543
▁शकत	-1544
▁येथे	-1545
▁घोषणा	-1546
▁त्याच	-1547
▁अमेरिके	-1548
▁पत्रकार	-1549
ाम	-1550
क्सी	-1551
ळ्या	-1552
▁कधी	-1553
कालीन	-1554
▁करतो	-1555
▁जातं	-1556
▁टक्क	-1557
▁सर्वात	-1558
▁आतापर्यंत	-1559
▁जिल्ह्यात	-1560
▁मंत्रालया	-1561
ीन	-1562
▁फो	-1563
पोर्ट	-1564
▁त्याची	-1565
कल	-1566
पड	-1567
बॉ	-1568
षण	-1569
ुल	-1570
नाय	-1571
रिय	-1572
▁फ्ल	-1573
▁साठी	-1574
▁स्वर	-1575
ण्याचं	-1576
▁बाधित	-1577
▁मुख्य	-1578
▁लक्षात	-1579
वारंटाईन	-1580
आर	-1581
ॅट	-1582
००	-1583
द्द	-1584
रोप	-1585
▁दुख	-1586
▁बाल	-1587
▁भीती	-1588
▁असंही	-1589
▁उपचारा	-1590
▁त्यांची	-1591
▁चौ	-1592
▁थो	-1593
▁सौ	-1594
थमिक	-1595
वसाय	-1596
▁अंत	-1597
▁पार	-1598
▁यात	-1599
ग्रस्त	-1600
▁भू	-1601
▁बात	-1602
▁मते	-1603
्याने	-1604
▁करते	-1605
▁करणार	-1606
▁सुविध	-1607
▁प्रमाणावर	-1608
▁झाल्यानंतर	-1609
मल	-1610
▁12	-1611
▁30	-1612
दारी	-1613
बॉडी	-1614
्राझ	-1615
्रेस	-1616
▁प्राण	-1617
▁बैठकी	-1618
ंदर्भात	-1619
व्हायरस	-1620
▁विषाणूच्या	-1621
▁इन्स्टिट्यूट	-1622
काळ	-1623
टेक	-1624
▁भा	-1625
लेले	-1626
▁सोड	-1627
ल्यास	-1628
▁लशीचा	-1629
▁संभाव	-1630
णाऱ्यां	-1631
▁पुष्टी	-1632
▁मुंबईत	-1633
▁असणाऱ्या	-1634
▁आपल्याला	-1635
▁निर्मिती	-1636
▁रुग्णालया	-1637
झा	-1638
वली	-1639
ांक	-1640
▁पी	-1641
▁अल्	-1642
▁वाच	-1643
्यावर	-1644
रेंद्र	-1645
▁वेगवे	-1646
▁तपासणी	-1647
▁त्याला	-1648
▁विषाणूचा	-1649
नला	-1650
▁अश	-1651
▁उभ	-1652
▁लव	-1653
र्गत	-1654
माजिक	-1655
▁इंजे	-1656
▁इटली	-1657
▁चिंत	-1658
▁अत्या	-1659
▁तुटवडा	-1660
ांपेक्षा	-1661
▁म्हटलंय	-1662
ईट	-1663
▁५	-1664
तीय	-1665
दित	-1666
पुर	-1667
बंद	-1668
ीला	-1669
▁कळ	-1670
मेंट	-1671
▁रक्त	-1672
▁कोणती	-1673
▁यांचा	-1674
▁संघटने	-1675
▁प्राथमिक	-1676
▁व्हेंटिले	-1677
▁आरोग्यमंत्री	-1678
ीत	-1679
ुष	-1680
▁सार	-1681
▁अँटी	-1682
▁ठेवा	-1683
▁मोठा	-1684
ांकडून	-1685
▁एकत्र	-1686
दरम्यान	-1687
▁अत्यंत	-1688
▁एखाद्या	-1689
▁नरेंद्र	-1690
▁इंजेक्शन	-1691
▁रेमडेसिवीर	-1692
CE	-1693
पणा	-1694
म्य	-1695
▁ड्र	-1696
▁शेव	-1697
द्योग	-1698
▁क्षमता	-1699
▁अध्यक्ष	-1700
▁असल्यास	-1701
▁उद्रेका	-1702
▁लोकांच्या	-1703
▁क्वारंटाईन	-1704
बल	-1705
ेन	-1706
रोज	-1707
▁मत	-1708
▁सहा	-1709
▁मोठी	-1710
्यांची	-1711
▁करावा	-1712
▁लक्षण	-1713
▁शरीरात	-1714
▁देशातील	-1715
खीम	-1716
▁11	-1717
िष्ट	-1718
▁खोक	-1719
▁पाव	-1720
▁मेड	-1721
▁साय	-1722
▁सॅन	-1723
रिक्त	-1724
ित्या	-1725
ित्सा	-1726
▁चालू	-1727
▁पक्ष	-1728
▁लवकर	-1729
▁वेगाने	-1730
▁आम्हाला	-1731
▁संभाव्य	-1732
▁ज्यामध्ये	-1733
▁सरकारच्या	-1734
एम	-1735
▁शु	-1736
ुहान	-1737
▁थेट	-1738
▁पाळ	-1739
▁बाब	-1740
▁रक्	-1741
▁मध्य	-1742
▁पूर्व	-1743
ंच	-1744
जाव	-1745
दाह	-1746
▁मग	-1747
स्थित	-1748
▁सोशल	-1749
▁जोखीम	-1750
▁असलेले	-1751
▁तुलनेत	-1752
▁नोंदणी	-1753
▁स्पर्श	-1754
▁लोकांनी	-1755
वण्यासाठी	-1756
▁चिकित्सा	-1757
▁अत्यावश्यक	-1758
),	-1759
ंधी	-1760
▁कोर	-1761
▁निक	-1762
▁हाय	-1763
▁समोर	-1764
कोरोना	-1765
▁अवलंब	-1766
▁बऱ्या	-1767
▁सामाजिक	-1768
ंस	-1769
्त	-1770
ंदा	-1771
काश	-1772
ांड	-1773
▁घर	-1774
▁सच	-1775
धारण	-1776
▁WHO	-1777
▁तोंड	-1778
▁नमुन	-1779
▁अहवाल	-1780
▁मराठी	-1781
▁जवळपास	-1782
▁रूग्णा	-1783
▁असल्याची	-1784
▁त्यासाठी	-1785
जय	-1786
्व	-1787
▁ढ	-1788
िटी	-1789
▁फ्र	-1790
बाहेर	-1791
सेंबर	-1792
▁दिलं	-1793
▁स्वतः	-1794
▁उद्रेक	-1795
▁मृत्यु	-1796
▁फुफ्फुस	-1797
▁प्रक्रिया	-1798
▁लोकसंख्ये	-1799
▁रुग्णांच्या	-1800
नो	-1801
ॅब	-1802
क्षक	-1803
▁घात	-1804
▁भाज	-1805
▁तिथे	-1806
▁पार्	-1807
▁प्रक	-1808
▁मधील	-1809
ल्याचं	-1810
्यांचा	-1811
▁तयारी	-1812
▁विरोध	-1813
▁संशोधन	-1814
▁परिणामकारक	-1815
सम	-1816
ड्र	-1817
बाद	-1818
बंधी	-1819
लेली	-1820
वरून	-1821
▁200	-1822
▁समस	-1823
▁जनते	-1824
▁वर्ग	-1825
▁लाटेत	-1826
▁रोगप्र	-1827
).	-1828
लीस	-1829
वून	-1830
▁24	-1831
भूमी	-1832
▁गाव	-1833
▁टाक	-1834
▁मंज	-1835
▁मॉड	-1836
▁अंमल	-1837
▁आरोप	-1838
▁कामा	-1839
▁दक्ष	-1840
▁पालन	-1841
▁रेल्	-1842
▁संकट	-1843
▁होऊन	-1844
▁निवडण	-1845
▁वुहान	-1846
▁डिसेंबर	-1847
▁मुलांना	-1848
▁विलगीकरण	-1849
बो	-1850
लाय	-1851
▁सत	-1852
श्चित	-1853
▁आंतर	-1854
▁उदाह	-1855
▁जबाब	-1856
▁बहुत	-1857
▁आजारी	-1858
▁करावं	-1859
▁सॅनिट	-1860
▁	-1861
ा	-1862
्	-1863
र	-1864
य	-1865
त	-1866
े	-1867
क	-1868
ी	-1869
स	-1870
ल	-1871
न	-1872
ं	-1873
ि	-1874
व	-1875
ह	-1876
म	-1877
च	-1878
ण	-1879
प	-1880
ो	-1881
आ	-1882
द	-1883
ग	-1884
ज	-1885
ु	-1886
.	-1887
ट	-1888
श	-1889
अ	-1890
ू	-1891
ध	-1892
ब	-1893
ड	-1894
,	-1895
ष	-1896
ळ	-1897
ठ	-1898
ख	-1899
भ	-1900
थ	-1901
उ	-1902
घ	-1903
ए	-1904
झ	-1905
ॉ	-1906
फ	-1907
-	-1908
0	-1909
1	-1910
ढ	-1911
2	-1912
इ	-1913
ई	-1914
ऱ	-1915
ॅ	-1916
ऊ	-1917
ृ	-1918
"	-1919
9	-1920
ै	-1921
C	-1922
)	-1923
(	-1924
ऑ	-1925
'	-1926
5	-1927
?	-1928
I	-1929
ओ	-1930
3	-1931
4	-1932
S	-1933
V	-1934
R	-1935
:	-1936
O	-1937
१	-1938
D	-1939
8	-1940
ँ	-1941
7	-1942
6	-1943
२	-1944
o	-1945
०	-1946
A	-1947
ञ	-1948
औ	-1949
छ	-1950
ौ	-1951
e	-1952
a	-1953
E	-1954
P	-1955
i	-1956
%	-1957
४	-1958
t	-1959
३	-1960
r	-1961
५	-1962
n	-1963
ः	-1964
९	-1965
H	-1966
M	-1967
s	-1968
N	-1969
/	-1970
;	-1971
६	-1972
८	-1973
T	-1974
l	-1975
c	-1976
७	-1977
W	-1978
h	-1979
d	-1980
U	-1981
G	-1982
“	-1983
‘	-1984
m	-1985
़	-1986
’	-1987
p	-1988
!	-1989
u	-1990
B	-1991
g	-1992
v	-1993
ऐ	-1994
L	-1995
”	-1996
