<pad>	0
</s>	0
<unk>	0
¦	-1.17416
▁¦	-1.62163
▁	-2.88039
𐋇	-3.26175
▁,	-3.36425
a	-3.76932
i	-4.21206
▁.	-4.34097
u	-4.82913
v	-5.2526
se	-5.27919
y	-5.38305
s	-5.49737
na	-5.49803
▁:	-5.63884
ho	-5.70447
z	-5.72431
e	-5.75062
k	-5.75253
o	-5.80538
m	-5.87642
ti	-5.99041
jest	-6.08338
hospodin	-6.10634
jeho	-6.12703
▁;	-6.12955
ch	-6.13811
to	-6.24967
ne	-6.25487
do	-6.26414
pak	-6.28553
í	-6.28856
že	-6.30635
ť	-6.33468
nebo	-6.38432
za	-6.42056
syn	-6.43513
ě	-6.44741
em	-6.51597
jsem	-6.52416
po	-6.53812
od	-6.55701
aby	-6.58051
by	-6.6127
▁?	-6.61868
řekl	-6.67419
ale	-6.72321
když	-6.73187
é	-6.7485
ové	-6.77193
bude	-6.78921
je	-6.8383
byl	-6.84332
tak	-6.87032
kterýž	-6.87579
lid	-6.90744
mi	-6.92907
te	-6.93504
jejich	-6.9654
své	-6.96573
kteříž	-6.9705
jako	-7.00416
před	-7.03076
tedy	-7.0826
mu	-7.11118
ž	-7.12367
já	-7.13508
jsou	-7.13897
ou	-7.14068
mne	-7.17931
král	-7.19547
svého	-7.20059
toho	-7.2246
š	-7.26884
ty	-7.28215
li	-7.30283
kteréž	-7.34956
proti	-7.36432
á	-7.37271
jsi	-7.37555
bůh	-7.38373
ce	-7.38799
vy	-7.39034
jí	-7.39808
vých	-7.40522
jim	-7.40798
země	-7.40804
až	-7.4159
nad	-7.41738
ten	-7.42066
také	-7.42277
protož	-7.43494
měst	-7.4425
pro	-7.44449
ní	-7.44782
tvé	-7.44881
zemi	-7.44962
při	-7.47717
jemu	-7.47741
což	-7.50192
dom	-7.50653
tobě	-7.52067
budou	-7.54429
ů	-7.55672
jej	-7.56188
synů	-7.56812
mé	-7.56975
t	-7.57827
aj	-7.58564
vám	-7.60683
věc	-7.60801
byli	-7.6102
-	-7.61449
on	-7.61941
obě	-7.69381
kdo	-7.69415
tě	-7.69887
jmén	-7.72917
ani	-7.74436
svým	-7.76049
vás	-7.76103
ův	-7.78373
l	-7.78433
té	-7.78662
má	-7.79615
bylo	-7.83376
boha	-7.83448
všeck	-7.84003
ně	-7.84089
obět	-7.84122
ští	-7.85543
ého	-7.85628
ve	-7.86238
mezi	-7.86549
mluvil	-7.86714
míst	-7.87663
pán	-7.88548
praví	-7.89211
ý	-7.89484
jste	-7.90506
ním	-7.9272
svém	-7.92841
všecky	-7.9353
dal	-7.93564
boží	-7.93769
svo	-7.93802
ji	-7.94109
dne	-7.94579
těch	-7.94721
ruk	-7.95341
den	-7.95554
můj	-7.96133
co	-7.96425
hospodinov	-7.96464
všickni	-7.97726
en	-7.99377
všech	-8.01412
ech	-8.02329
david	-8.02748
aniž	-8.03061
kteráž	-8.03318
mně	-8.04023
řk	-8.0408
ých	-8.06711
jeden	-8.0703
kdož	-8.07738
tu	-8.07877
všecko	-8.07967
jsme	-8.09381
skrz	-8.09796
izraelský	-8.10215
krále	-8.11413
jeruzalém	-8.11463
srdce	-8.12771
jisté	-8.13055
vod	-8.13486
není	-8.14007
služebník	-8.14439
koli	-8.14517
ích	-8.14521
podl	-8.15224
dí	-8.15456
potom	-8.15663
vše	-8.16545
byla	-8.18724
ježíš	-8.19309
tam	-8.20035
slov	-8.20106
(	-8.2052
ze	-8.20689
učinil	-8.20806
však	-8.21144
ům	-8.21969
jakž	-8.22115
tvůj	-8.22751
b	-8.24941
cest	-8.25632
ta	-8.26075
me	-8.26294
nás	-8.2714
izrael	-8.27558
budu	-8.28236
čas	-8.28281
stalo	-8.2877
tebe	-8.28967
každý	-8.29125
abys	-8.29576
kterouž	-8.32371
nyní	-8.32381
již	-8.32409
ke	-8.32566
oči	-8.3274
národ	-8.33494
nich	-8.33816
otce	-8.33839
více	-8.35499
odpověděl	-8.35772
ó	-8.3842
ku	-8.38556
něm	-8.39169
život	-8.39243
hlas	-8.39532
měl	-8.39679
vou	-8.39794
budeš	-8.40905
její	-8.4104
jich	-8.41088
něho	-8.42783
proto	-8.43145
nám	-8.43248
let	-8.43507
ať	-8.4394
naše	-8.44
ma	-8.44087
jakož	-8.44375
pokolení	-8.44813
tomu	-8.45038
jestliže	-8.4541
vaše	-8.45415
bohu	-8.46175
žen	-8.46192
sedm	-8.46487
toto	-8.47179
sti	-8.47281
aneb	-8.47353
jenž	-8.4784
ek	-8.50337
zákon	-8.50721
zlé	-8.50794
abych	-8.51126
přišel	-8.51415
hřích	-8.51733
ještě	-8.51794
budete	-8.51925
člověk	-8.52235
muži	-8.52424
moc	-8.52678
takto	-8.53001
neb	-8.54113
ovi	-8.54352
dům	-8.54448
oni	-8.55454
íti	-8.55922
bý	-8.56016
tvář	-8.56433
slovo	-8.56736
vel	-8.5684
němu	-8.57602
soud	-8.58348
pod	-8.58502
hor	-8.59144
stran	-8.60688
ách	-8.61395
tebou	-8.61859
knížat	-8.62513
nic	-8.63183
úst	-8.63369
hospodine	-8.63548
bratří	-8.63643
vůj	-8.64129
mojžíš	-8.64484
mnou	-8.64785
království	-8.65145
tom	-8.65845
poslal	-8.65892
nebude	-8.66186
muž	-8.66442
pravím	-8.66701
vší	-8.67076
zdaliž	-8.67658
prostřed	-8.68475
tvá	-8.68882
živ	-8.6891
my	-8.69002
duch	-8.69044
řekli	-8.69201
cí	-8.69402
bez	-8.69796
žádné	-8.7027
bratr	-8.70477
ci	-8.70553
než	-8.70654
vedl	-8.70669
nimi	-8.7177
hlav	-8.72615
dcer	-8.72897
izraelské	-8.73182
ruc	-8.73627
vaši	-8.74452
každé	-8.756
otc	-8.76453
šel	-8.76815
zase	-8.77048
veliké	-8.77647
tři	-8.79068
sláv	-8.79454
roz	-8.79649
sám	-8.80196
věky	-8.81033
člověka	-8.81102
muže	-8.81654
druhé	-8.81836
spravedlnost	-8.82292
dva	-8.82388
kněz	-8.82399
noc	-8.82646
viděl	-8.83359
vojsk	-8.83452
tento	-8.83685
né	-8.85074
přikázal	-8.85235
duše	-8.85612
h	-8.8566
davidov	-8.85842
pře	-8.86611
tím	-8.8684
egypt	-8.87759
dn	-8.88257
mojžíšov	-8.88679
eň	-8.89332
sebe	-8.89544
ný	-8.89618
jednoho	-8.89702
ni	-8.90134
mužů	-8.9043
vůkol	-8.91006
otec	-8.91321
poněvadž	-8.91952
smlouv	-8.9227
měsíc	-8.9269
dá	-8.92699
mých	-8.93137
dědictví	-8.93228
přišli	-8.94134
činil	-8.94414
kdež	-8.9461
díl	-8.95075
kněží	-8.95097
buď	-8.95276
nechť	-8.95524
dvě	-8.95815
pročež	-8.95834
tisíc	-8.96176
vzal	-8.9653
zástupů	-8.96742
nim	-8.97337
nepřátel	-8.97573
pět	-8.98027
řkouc	-8.9889
proč	-8.99912
chom	-9.00417
n	-9.00676
stál	-9.01044
bych	-9.01051
ste	-9.01451
bys	-9.01588
an	-9.02004
egyptské	-9.02152
těm	-9.02198
panovník	-9.02681
množství	-9.03
rán	-9.03665
ode	-9.04091
anděl	-9.04991
iti	-9.05564
jiné	-9.06164
milosrdenství	-9.06238
něj	-9.06386
umřel	-9.06532
nebe	-9.07253
hned	-9.07341
jedn	-9.07716
oltář	-9.07875
vámi	-9.08303
izraele	-9.08339
dnů	-9.08549
opět	-9.09167
ova	-9.09174
ře	-9.10395
meč	-9.10593
pa	-9.10602
žádný	-9.11094
tiž	-9.11399
r	-9.11922
hněv	-9.11967
jehož	-9.12014
otců	-9.12039
mou	-9.12419
noh	-9.12661
moře	-9.13439
pane	-9.13636
zlat	-9.13731
dobré	-9.13805
léta	-9.13843
pakli	-9.13852
bydlil	-9.14227
kteréhož	-9.14237
měli	-9.14475
prv	-9.15303
oh	-9.1584
dar	-9.16155
izraelským	-9.16173
zdali	-9.16345
stříbr	-9.16566
padl	-9.16628
duš	-9.16935
še	-9.17039
jedno	-9.17067
bože	-9.17077
hospodinovo	-9.17156
saul	-9.17317
el	-9.17398
matk	-9.17467
p	-9.17607
čeled	-9.17728
první	-9.17774
mnoho	-9.17859
mohl	-9.18462
chleb	-9.18694
brán	-9.18977
nežli	-9.19215
nou	-9.19543
dnes	-9.19679
svá	-9.19775
toliko	-9.2008
byly	-9.20382
ruko	-9.20611
tvoji	-9.20773
et	-9.20827
lo	-9.20863
kristu	-9.21168
sto	-9.21494
všem	-9.2225
šli	-9.22609
ná	-9.22745
tělo	-9.22873
nebylo	-9.23032
ano	-9.23627
ových	-9.23931
boh	-9.24002
ská	-9.24043
činí	-9.24077
krv	-9.24359
ým	-9.24681
svatý	-9.24747
ob	-9.24754
národů	-9.24847
bou	-9.25318
joz	-9.25575
ducha	-9.25683
c	-9.25806
obyvatel	-9.25861
této	-9.25937
spolu	-9.25981
pokoj	-9.26009
služebníc	-9.26052
zplodil	-9.26171
stánk	-9.27247
shromáždění	-9.27407
přijde	-9.27456
bývá	-9.27528
la	-9.27605
nepravost	-9.27647
postavil	-9.28257
liž	-9.28261
prchlivost	-9.28689
všechněm	-9.28772
no	-9.28781
dám	-9.289
ješto	-9.2915
veliký	-9.29403
jak	-9.2959
svědectví	-9.29609
šest	-9.29781
mluvit	-9.29822
přes	-9.30867
moudrost	-9.31749
srdc	-9.31852
set	-9.31925
tato	-9.32056
chrám	-9.321
jákob	-9.32456
d	-9.32824
lí	-9.33072
svaté	-9.33641
hoře	-9.33715
dobře	-9.33855
silný	-9.34051
obětoval	-9.34057
ky	-9.34065
tvým	-9.34336
truhl	-9.34824
smrti	-9.35078
všeliké	-9.35181
kterak	-9.35311
těla	-9.35633
jedl	-9.36056
řeč	-9.36141
příčin	-9.36295
kraloval	-9.36789
▁),	-9.36789
ra	-9.37443
prosím	-9.3748
náš	-9.3749
ohně	-9.37675
žena	-9.38478
navrátil	-9.38575
svatyn	-9.38832
šalomoun	-9.39048
počal	-9.39305
aron	-9.39626
kníže	-9.40135
br	-9.40166
váš	-9.4023
rci	-9.40608
nádob	-9.40731
j	-9.40939
vín	-9.40994
milost	-9.4142
tí	-9.41567
kudž	-9.41889
vyšel	-9.4208
jdi	-9.42136
jiný	-9.42822
udělal	-9.43205
tud	-9.43384
třetí	-9.43526
lok	-9.43563
ovati	-9.43675
ježíše	-9.44034
nichž	-9.44236
js	-9.44353
přikázaní	-9.44527
krev	-9.45064
naši	-9.45343
hovad	-9.45725
mám	-9.4597
lot	-9.4598
jordán	-9.4614
ami	-9.46199
manželk	-9.4714
poušt	-9.47171
pole	-9.47231
zástup	-9.47377
vyvedl	-9.47633
boj	-9.47839
meče	-9.48234
judské	-9.4835
jazyk	-9.4835
ustanovení	-9.48756
čtyři	-9.48908
le	-9.48959
mají	-9.49078
obětova	-9.49122
žid	-9.49142
mým	-9.49386
amen	-9.49725
němž	-9.50284
skutk	-9.50554
chodil	-9.51214
ačkoli	-9.51298
přední	-9.51403
pravil	-9.5178
us	-9.51793
řkoucí	-9.52141
oznámil	-9.52311
mluví	-9.52536
moj	-9.52605
levít	-9.52612
ň	-9.52733
dní	-9.52771
krajin	-9.52867
položil	-9.52915
stane	-9.53207
psáno	-9.53335
nebes	-9.53643
ď	-9.53879
slunce	-9.54078
řek	-9.54232
služebníků	-9.55019
přivedl	-9.55203
slyšel	-9.55233
přede	-9.55404
nebudeš	-9.55446
ue	-9.55677
vždy	-9.56471
nu	-9.56898
tvém	-9.56996
judský	-9.57706
krist	-9.58018
dříví	-9.58333
činit	-9.5836
nemohl	-9.58659
kamení	-9.58709
iž	-9.58782
spasení	-9.58999
potok	-9.59599
námi	-9.59613
hrob	-9.59767
služb	-9.59811
tisíců	-9.60025
hejtman	-9.60163
ohavnost	-9.60183
abraham	-9.60321
nebyl	-9.60448
sta	-9.60524
zápaln	-9.60568
zabil	-9.60673
mluv	-9.60814
učiněn	-9.60881
▁.)	-9.60935
starší	-9.6097
vrch	-9.61891
učiním	-9.61987
údolí	-9.62088
ukázal	-9.62571
učinili	-9.62614
ovoce	-9.62794
deset	-9.63315
ení	-9.63397
jozef	-9.63492
kteří	-9.63915
ám	-9.63971
jistě	-9.64043
mě	-9.64588
tuto	-9.64937
vydal	-9.65097
stád	-9.65517
▁)	-9.65968
mém	-9.66123
necha	-9.66379
chlé	-9.66486
pravé	-9.66531
ský	-9.66642
roucho	-9.66782
všemu	-9.66935
cestou	-9.66979
spravedlivý	-9.67626
tito	-9.67795
ví	-9.67959
uzřel	-9.67985
roucha	-9.6824
vír	-9.68426
č	-9.68469
obrátil	-9.68474
úmluv	-9.68667
pokrm	-9.69
vz	-9.69059
jákobov	-9.69128
oltáře	-9.69185
nejvyšší	-9.6919
izraeli	-9.6928
nepravosti	-9.69549
uvedl	-9.69807
faraonov	-9.70078
petr	-9.70258
večer	-9.70502
vá	-9.71352
řeči	-9.71438
odšel	-9.71677
sami	-9.71895
dává	-9.71928
znamení	-9.72138
éž	-9.7226
páně	-9.7244
všel	-9.72586
dědičn	-9.72847
řekla	-9.73394
ím	-9.7345
vol	-9.73603
stolic	-9.73604
aronov	-9.7362
efraim	-9.73656
ro	-9.73743
čtyřidceti	-9.74281
ské	-9.74666
ny	-9.74903
mnozí	-9.75005
sloup	-9.75476
vyšl	-9.75548
babylon	-9.75695
tváří	-9.76079
psal	-9.76106
ují	-9.76351
mnohé	-9.76475
vůl	-9.76652
tyto	-9.77324
sion	-9.77425
mrtvý	-9.77839
il	-9.7794
moři	-9.77941
hlad	-9.77956
očí	-9.78368
příbytk	-9.78556
vaší	-9.78717
dej	-9.78878
tří	-9.79225
dali	-9.79289
chtěl	-9.79372
níž	-9.79441
izraelov	-9.79516
prorok	-9.7969
jde	-9.79796
budeme	-9.79808
bohů	-9.79918
hle	-9.79959
rž	-9.79985
umře	-9.80038
dílo	-9.80209
činili	-9.80222
výsost	-9.80231
rozkázal	-9.80242
těmi	-9.80796
chodí	-9.8082
královské	-9.81177
věk	-9.81304
síl	-9.81335
něhož	-9.81355
da	-9.81643
judov	-9.817
porodil	-9.81798
poznal	-9.8197
veliko	-9.82183
východ	-9.82507
kost	-9.82571
ímě	-9.82953
um	-9.83146
kterýchž	-9.83344
budi	-9.83506
bratřím	-9.83557
skál	-9.83827
božím	-9.84255
ému	-9.84367
jedna	-9.84483
jud	-9.84797
velikým	-9.84873
ování	-9.8491
radost	-9.8504
uši	-9.85214
tého	-9.85218
jemuž	-9.85363
prostředk	-9.85439
poli	-9.85696
seděl	-9.85838
oleje	-9.86095
mnohý	-9.86202
uje	-9.86205
sestr	-9.86884
dveří	-9.8695
věčné	-9.87122
zemí	-9.87267
tehdáž	-9.87376
třidcet	-9.87377
žalm	-9.87528
knih	-9.87572
sem	-9.87734
všelik	-9.87782
silné	-9.87929
učedlníc	-9.88203
pouš	-9.88347
utekl	-9.88583
hledal	-9.88731
pl	-9.89032
dvadcet	-9.89037
neměl	-9.89151
saulov	-9.89699
pověděl	-9.89882
padesát	-9.90065
nebudou	-9.90204
al	-9.90315
sloužil	-9.9042
tolik	-9.9043
nikoli	-9.90807
nalezl	-9.90853
stě	-9.90924
pomezí	-9.90934
maje	-9.9096
počt	-9.91102
viděli	-9.91198
zápal	-9.91369
větší	-9.91574
spravedlivé	-9.91851
běd	-9.92161
vzav	-9.92173
galád	-9.92265
kr	-9.92344
druhý	-9.9237
světlo	-9.9243
kterémž	-9.92441
ustanovil	-9.92443
naplnil	-9.92667
ona	-9.9292
oblak	-9.9306
bydliti	-9.9331
svět	-9.93429
pil	-9.93482
nebeské	-9.93536
shromáždil	-9.93557
pr	-9.93763
zlato	-9.93933
hu	-9.93952
nadto	-9.93976
volk	-9.9401
lidí	-9.94085
nej	-9.94168
f	-9.94245
juda	-9.94928
vyvolil	-9.95072
studnic	-9.95073
stá	-9.9534
oval	-9.95565
tež	-9.95569
ej	-9.95911
vidění	-9.96382
joáb	-9.96455
sobot	-9.96547
okol	-9.96759
dan	-9.97093
hospodinovým	-9.97099
lé	-9.97175
vstal	-9.97313
voz	-9.97339
modl	-9.9734
pohan	-9.97675
tehdy	-9.97775
nazval	-9.9778
kde	-9.97809
čehož	-9.97898
vstav	-9.98055
pravic	-9.98207
nemá	-9.986
nešlechetnost	-9.98693
prác	-9.987
vstoupil	-9.98863
osm	-9.98929
čí	-9.98979
dni	-9.9919
tomto	-9.99452
pokoje	-9.99515
proroka	-9.99639
buďte	-10.0003
podobenství	-10.0055
dvou	-10.006
prach	-10.0061
tr	-10.0075
mas	-10.0097
jiní	-10.0104
světa	-10.0126
romě	-10.013
kněze	-10.0131
říká	-10.0144
cky	-10.0153
vedu	-10.0165
chvál	-10.0169
ovce	-10.0172
nebudete	-10.0179
lodí	-10.019
králov	-10.0195
jděte	-10.0202
stojí	-10.0213
ha	-10.0225
val	-10.023
ec	-10.0236
ven	-10.0242
modlil	-10.0247
tisíce	-10.0262
máš	-10.027
vytáhl	-10.0292
bojoval	-10.0308
bral	-10.0312
dvanácte	-10.0315
vezmi	-10.0331
mládenc	-10.0341
dcera	-10.0361
požehnání	-10.037
cizí	-10.0373
los	-10.042
táhl	-10.0421
ezechiáš	-10.0425
náramn	-10.0439
div	-10.0452
beránk	-10.046
ač	-10.0465
ejte	-10.0486
samuel	-10.0509
jezukrist	-10.0512
vzali	-10.0533
krát	-10.0535
vid	-10.0536
izraelském	-10.0536
slyše	-10.0555
takž	-10.0571
šalomounov	-10.0585
▁,)	-10.0597
modlitb	-10.0615
anob	-10.0626
umění	-10.063
slyšeli	-10.0632
hodin	-10.0648
pít	-10.065
pomst	-10.0667
hod	-10.0671
skutků	-10.069
uslyšel	-10.0717
ba	-10.0718
udělá	-10.0721
evangeli	-10.0735
slyšte	-10.074
přichází	-10.074
kázal	-10.0748
přísah	-10.0754
če	-10.0757
učiní	-10.0762
dáno	-10.0798
člověčí	-10.0838
ezau	-10.0847
ostříha	-10.0858
povolal	-10.0922
dobrého	-10.0923
houf	-10.0939
nalezen	-10.094
stráž	-10.0944
bezbožný	-10.0951
slouži	-10.0953
levítů	-10.0979
pí	-10.0991
ání	-10.1047
přijdou	-10.1052
samař	-10.1059
slyš	-10.1062
oko	-10.1094
čil	-10.1114
rychle	-10.1145
g	-10.1146
ost	-10.1146
ustavičně	-10.1147
ry	-10.1156
blahoslaven	-10.1171
něco	-10.1179
pomoc	-10.1181
učedlníků	-10.1185
jednom	-10.1226
bližní	-10.124
nenávist	-10.1251
zabit	-10.126
kni	-10.1264
edle	-10.1278
izák	-10.1332
ruka	-10.1343
poledn	-10.1346
odpovídaj	-10.1358
vati	-10.1368
pří	-10.1369
čím	-10.1382
děti	-10.1387
ící	-10.1414
dvanáct	-10.1432
může	-10.1435
nes	-10.1445
poškvrn	-10.1459
ství	-10.1459
přišla	-10.1459
porazil	-10.1469
bohy	-10.1471
miluje	-10.1478
dobrý	-10.149
ků	-10.1502
svat	-10.1519
beniamin	-10.1522
vidí	-10.1558
bál	-10.1558
poklad	-10.1558
[	-10.1573
přisáhl	-10.1573
polovic	-10.1574
filistin	-10.1605
ru	-10.1612
nechtěl	-10.1613
bráně	-10.1616
strom	-10.1634
lásk	-10.1657
vezme	-10.1666
ly	-10.1678
marnost	-10.1684
navrátí	-10.1689
snad	-10.1696
list	-10.1708
mojžíše	-10.1709
dvé	-10.1711
plakal	-10.1719
strach	-10.1725
kdyby	-10.1761
jen	-10.177
lokt	-10.1773
peníze	-10.1798
dobytk	-10.1817
mor	-10.1837
nové	-10.1872
trůn	-10.1907
troub	-10.191
lů	-10.1916
konce	-10.1937
miloval	-10.194
ostříhal	-10.1968
vidě	-10.1979
obraz	-10.1981
živé	-10.1985
vešl	-10.1991
jozefov	-10.1995
tuk	-10.2005
cherubín	-10.2021
prut	-10.2024
smrt	-10.2044
máme	-10.2085
způsob	-10.21
eš	-10.214
ssoužení	-10.2156
dítě	-10.216
pokoji	-10.2172
vola	-10.2173
ři	-10.2173
vím	-10.2201
přinesl	-10.2201
ovali	-10.2203
pošli	-10.2214
radě	-10.2214
abrahamov	-10.2222
ámen	-10.2247
sstoupil	-10.2252
trápení	-10.2258
farao	-10.2263
zem	-10.228
přistoupil	-10.2294
ými	-10.2344
slyší	-10.2348
naplněn	-10.2369
nabuchodonozor	-10.2369
filistinský	-10.2372
odpověděv	-10.2374
počet	-10.2377
králů	-10.2379
křídl	-10.2388
spravedliv	-10.2395
jím	-10.2399
stín	-10.2413
přijí	-10.2421
půlno	-10.2445
manassesov	-10.2453
odpočinutí	-10.2488
íš	-10.2488
pravdě	-10.2501
sucho	-10.2506
máte	-10.2523
zná	-10.2535
kananejské	-10.2542
ja	-10.2571
proroků	-10.2579
zhřešil	-10.2589
živi	-10.2591
úrod	-10.2591
lev	-10.2592
kralovati	-10.2609
naději	-10.2609
hledá	-10.2609
zvuk	-10.2609
polní	-10.261
semene	-10.2614
opustil	-10.2621
sen	-10.2629
hleda	-10.2636
nemoc	-10.2712
dřev	-10.2714
síla	-10.2717
rt	-10.2717
přestoupení	-10.2731
půlnoční	-10.2731
olej	-10.2736
zdi	-10.2739
rovn	-10.2742
eliáš	-10.2742
mim	-10.2748
oblíčeje	-10.2756
ar	-10.2824
žádost	-10.2827
vyhlazen	-10.2854
vysvobodil	-10.2854
nenávidí	-10.2854
víte	-10.2855
hl	-10.2894
ítr	-10.2897
prvorozené	-10.2904
některé	-10.2911
nečistý	-10.2934
kozl	-10.2963
proroc	-10.2968
odešl	-10.2973
obrácen	-10.2979
hledají	-10.2984
ad	-10.3003
jan	-10.3006
tá	-10.3013
jdou	-10.304
vycházel	-10.3045
či	-10.3075
dával	-10.3085
babylonské	-10.3092
dělá	-10.3093
nečisté	-10.31
judstv	-10.3106
hůr	-10.3106
séla	-10.3106
slib	-10.3112
vně	-10.3145
bet	-10.3159
polední	-10.3172
mzd	-10.3179
býval	-10.3189
děla	-10.3194
milosti	-10.3202
přebývá	-10.3238
re	-10.3243
absolon	-10.3252
ště	-10.3256
přitáhl	-10.3262
čisté	-10.3289
podobné	-10.3298
bydlí	-10.33
dáš	-10.3303
hebron	-10.3364
béře	-10.3364
dokonal	-10.338
volal	-10.3389
ější	-10.3399
učinit	-10.3411
končin	-10.3413
pilně	-10.3424
cizím	-10.3457
přišed	-10.3478
věděl	-10.3488
kterýmž	-10.3495
vystavěl	-10.3507
jimž	-10.3538
jichž	-10.3542
vyjde	-10.3544
obrátí	-10.3601
bývají	-10.361
mr	-10.3626
otevřel	-10.363
slavnost	-10.363
požehnaný	-10.3637
nemůže	-10.3648
loupež	-10.3657
ot	-10.3669
vzdělal	-10.367
podstavk	-10.368
ber	-10.3684
léví	-10.3687
čeledí	-10.3691
nohá	-10.3705
str	-10.3742
čelede	-10.3744
eli	-10.3761
ratolest	-10.3764
roh	-10.3764
očištěn	-10.3766
přikázání	-10.3771
uvěřil	-10.3781
íce	-10.3792
lepší	-10.3816
ran	-10.3824
spole	-10.3867
jeroboám	-10.3869
větr	-10.3901
padne	-10.3938
mající	-10.394
čiňte	-10.3962
poslední	-10.3964
nejsou	-10.3979
nádobí	-10.3986
stan	-10.3991
pís	-10.3995
nebyli	-10.3996
skopce	-10.4012
samé	-10.4019
bojí	-10.4028
těle	-10.4037
kání	-10.4037
přestal	-10.4038
pohostin	-10.404
ptactv	-10.404
kněžím	-10.4073
činíš	-10.4086
práv	-10.4091
kamž	-10.4123
meze	-10.4127
pustin	-10.4139
každému	-10.4141
ován	-10.4141
zahanben	-10.415
oblíčej	-10.4152
myšlení	-10.4181
příbyt	-10.4191
svatost	-10.4197
děvk	-10.4198
připravil	-10.4201
učení	-10.4202
ulic	-10.4206
znám	-10.421
všeliký	-10.4212
moáb	-10.4227
soudil	-10.4235
osob	-10.4251
nesou	-10.426
rod	-10.4262
proroky	-10.4267
které	-10.4267
chodi	-10.4271
plod	-10.4298
nez	-10.4299
známost	-10.4312
bran	-10.4314
eliká	-10.4318
velice	-10.4332
škol	-10.4334
křik	-10.4341
druh	-10.4342
moudrý	-10.4359
zlaté	-10.4365
farize	-10.4375
východní	-10.4391
ší	-10.4427
říkají	-10.4454
skou	-10.4458
pás	-10.448
svatým	-10.4494
postav	-10.4501
dobyt	-10.4503
svrch	-10.4519
ramen	-10.454
vlas	-10.4543
předním	-10.4557
přišlo	-10.46
pobil	-10.4602
díš	-10.4602
vin	-10.4603
západ	-10.4609
víš	-10.4612
úzkost	-10.4615
shromáždí	-10.4615
báz	-10.4655
čtyř	-10.4684
vypravoval	-10.4685
věčný	-10.4704
jozafat	-10.4733
zlý	-10.4749
zed	-10.475
mrtvé	-10.4755
hvězd	-10.476
bethel	-10.4765
slíbil	-10.4773
rodin	-10.478
zle	-10.4784
každ	-10.479
mír	-10.4794
nadělal	-10.4805
mysli	-10.4819
rá	-10.4839
ono	-10.4855
učedlník	-10.486
půjde	-10.4892
kamen	-10.4903
rozum	-10.4907
bí	-10.4938
učiň	-10.4939
nebudu	-10.4948
naděje	-10.495
nejprv	-10.4964
vašim	-10.4968
jonata	-10.497
šimon	-10.497
klaněl	-10.4982
musí	-10.4982
jitra	-10.501
učil	-10.5013
písm	-10.5019
lidi	-10.5021
střel	-10.506
jaké	-10.5065
počátk	-10.507
zůstává	-10.507
maličko	-10.507
složil	-10.5072
poškvrnil	-10.5076
kořen	-10.5078
dělal	-10.5107
lu	-10.5108
propustil	-10.5112
sečten	-10.5119
nepo	-10.515
filistinské	-10.5168
vinic	-10.5198
odvrátil	-10.5212
vysvobodí	-10.5219
pravd	-10.5225
dnešní	-10.5226
pozdvihl	-10.5238
přivedu	-10.5242
žádal	-10.5254
moábské	-10.5257
smrtí	-10.5269
beniaminov	-10.5275
předměstí	-10.5278
jediné	-10.5279
dalek	-10.5299
vidouc	-10.5301
jeremiášov	-10.5308
zboží	-10.531
takové	-10.5322
právě	-10.533
hotov	-10.5333
kristov	-10.5337
vstaň	-10.5342
světl	-10.5364
ostate	-10.5371
gaba	-10.5374
st	-10.538
požehnal	-10.5385
roční	-10.5388
babylonský	-10.5393
otázal	-10.5394
pohanů	-10.5402
hříchů	-10.5418
svědk	-10.5432
neboj	-10.5433
pojal	-10.5436
pochoval	-10.5443
pozůstal	-10.5458
židů	-10.548
rách	-10.5494
věří	-10.5497
jiným	-10.5503
blázn	-10.5505
šla	-10.5531
egyptský	-10.5533
vůn	-10.5538
chudé	-10.5544
pověst	-10.5546
vážil	-10.5547
stol	-10.5547
pohanění	-10.5548
pokojné	-10.5551
kdy	-10.5586
posly	-10.5597
des	-10.5626
mat	-10.5647
volů	-10.5709
bohatství	-10.571
blízko	-10.571
rozhněval	-10.571
honil	-10.5715
oděv	-10.5718
kůž	-10.5718
jeremiáš	-10.5724
někd	-10.5731
pastýř	-10.5739
vinice	-10.5748
oba	-10.5753
apoštol	-10.5763
ostříhá	-10.5768
pln	-10.5769
saule	-10.5774
komu	-10.5811
zůstane	-10.5824
kus	-10.5834
de	-10.5835
íně	-10.5876
pamět	-10.5876
peněz	-10.5877
dítk	-10.5878
bázan	-10.5879
zlost	-10.588
zbit	-10.5881
padnou	-10.5884
zde	-10.5887
pouště	-10.5896
eleazar	-10.5903
dále	-10.5903
vají	-10.5937
job	-10.5944
chceš	-10.5945
stavěl	-10.5969
sam	-10.597
čině	-10.5986
vnitř	-10.6006
posvěcen	-10.6041
jdu	-10.6042
lučiště	-10.6046
základ	-10.6046
konec	-10.6047
vložil	-10.6047
dvakrát	-10.6049
sedmdesáte	-10.6053
nečistot	-10.6053
semen	-10.6061
bedr	-10.6091
er	-10.6094
skopc	-10.6095
pe	-10.6105
přicházel	-10.6132
pravdu	-10.6135
rouch	-10.6138
rok	-10.6175
níci	-10.6182
zaje	-10.619
veselí	-10.621
příchozí	-10.6215
želez	-10.6218
nasycen	-10.6219
všemohoucí	-10.6219
jistot	-10.6219
nikdy	-10.622
fa	-10.6232
spal	-10.6236
měla	-10.6239
jaký	-10.624
kon	-10.6258
bu	-10.6259
nemají	-10.6265
čeho	-10.6267
málo	-10.6267
syrské	-10.6269
zlatý	-10.6275
naší	-10.6277
prosil	-10.6278
báli	-10.628
vyšed	-10.6288
našim	-10.632
tekl	-10.6321
mluvím	-10.6326
vš	-10.6334
který	-10.6382
uzří	-10.6387
zbil	-10.6394
odpuštěn	-10.6394
jerich	-10.6394
širokost	-10.6395
hojnost	-10.6396
posvětil	-10.6397
bezbožní	-10.6401
jeruzalémské	-10.6401
ostatk	-10.6411
přijal	-10.6415
suché	-10.6419
dsk	-10.642
ryb	-10.6443
uj	-10.6454
bát	-10.6462
svatém	-10.647
noé	-10.6472
ležel	-10.6477
ženě	-10.6483
mouk	-10.6493
stán	-10.6537
dáva	-10.6545
bil	-10.6546
pěti	-10.6548
koho	-10.6551
jejím	-10.6561
skryl	-10.6573
zpuštěn	-10.6573
hůl	-10.6573
uložil	-10.6573
kořist	-10.6573
obličejem	-10.6574
bezbožné	-10.6576
jaká	-10.6589
rad	-10.6594
šedesát	-10.6601
díla	-10.6603
kam	-10.6605
hel	-10.6606
sín	-10.6611
ovým	-10.6612
posloucha	-10.6619
ježíšov	-10.6623
vý	-10.6628
joas	-10.6629
udatn	-10.6647
zůstal	-10.668
zjeven	-10.6681
rou	-10.6727
jez	-10.6734
plat	-10.6753
očistí	-10.6765
bar	-10.6766
zahrad	-10.677
abner	-10.6777
všelijaké	-10.6795
čist	-10.6805
ujte	-10.6834
ří	-10.6836
ř	-10.6858
věrný	-10.6871
jejího	-10.6899
stanů	-10.6911
čin	-10.6912
nevy	-10.6927
pec	-10.6929
pann	-10.6932
břeh	-10.694
di	-10.6946
mar	-10.6948
vytrhl	-10.695
char	-10.6964
prvorozený	-10.6974
děl	-10.6976
dejte	-10.698
nepřítel	-10.6982
chudý	-10.6992
iáš	-10.6998
říkajíc	-10.7006
prorokoval	-10.7011
navrať	-10.7021
udy	-10.7034
rady	-10.7068
všelijak	-10.7085
leč	-10.7088
děje	-10.711
fík	-10.7118
rozumnost	-10.7129
lépe	-10.7129
kmen	-10.7131
klá	-10.7133
stezk	-10.7137
bitv	-10.7143
zázrak	-10.7151
káz	-10.7157
předce	-10.7186
boje	-10.7186
odkudž	-10.7187
podobný	-10.7195
íci	-10.72
takový	-10.7209
gád	-10.7215
mnohým	-10.7226
vezm	-10.7237
dél	-10.7238
slove	-10.7252
neviděl	-10.7258
druhém	-10.7262
bo	-10.728
řekne	-10.7284
domů	-10.7285
víře	-10.729
kou	-10.7293
jejichž	-10.7303
zda	-10.7304
víra	-10.7306
utíkal	-10.7309
enství	-10.7313
oděn	-10.7316
výše	-10.732
líbilo	-10.7321
milý	-10.7322
pomazal	-10.7323
libán	-10.7325
líbí	-10.7328
vysoké	-10.7337
posadil	-10.7338
tý	-10.7345
berou	-10.7348
postaví	-10.7361
osti	-10.7368
obyvatelů	-10.7373
žaláře	-10.7378
radil	-10.7379
bílé	-10.7381
lež	-10.7383
činím	-10.7391
ží	-10.7394
nalezli	-10.74
manželka	-10.7404
pravo	-10.7407
nejsem	-10.7423
stře	-10.7451
obil	-10.7454
pozoruj	-10.7464
tře	-10.7472
had	-10.7476
jed	-10.7477
spasen	-10.7491
zlořečen	-10.7493
malomoc	-10.7514
déšť	-10.7517
přikazuji	-10.7517
zkažen	-10.7517
ester	-10.7517
tráv	-10.7519
hromad	-10.752
vali	-10.7523
vůdc	-10.7532
zavrhl	-10.7537
há	-10.7549
daniel	-10.7551
obou	-10.757
vé	-10.7584
izaiáš	-10.7591
jdeš	-10.7601
obrátím	-10.7601
dokud	-10.7602
pas	-10.7603
sedmi	-10.7613
prst	-10.7621
stu	-10.7624
pahrbk	-10.7629
každém	-10.7644
pořád	-10.7654
zd	-10.7682
zim	-10.7686
éh	-10.7694
osídl	-10.7717
stříc	-10.7717
otcovský	-10.7718
mladost	-10.7721
uzřev	-10.7722
jezdc	-10.7725
rytin	-10.7734
drží	-10.7745
hrozn	-10.7752
trní	-10.7759
dl	-10.7785
abimelech	-10.7804
mysl	-10.7812
vozů	-10.7815
itsk	-10.782
hn	-10.7831
dávali	-10.7832
sedí	-10.784
kopí	-10.7853
učí	-10.7857
ri	-10.7872
posl	-10.7877
stů	-10.7878
nepřítele	-10.788
vzavš	-10.7886
roze	-10.7895
zahynul	-10.7913
zaslíbení	-10.7921
čtrnáct	-10.7921
dosti	-10.7923
zmordoval	-10.793
les	-10.793
zub	-10.794
přijali	-10.7941
stříbrný	-10.7947
přišedš	-10.795
zej	-10.7959
ms	-10.7963
klaně	-10.7971
cesta	-10.7975
assyrské	-10.799
manasses	-10.7995
půl	-10.7997
udatný	-10.8017
šarlat	-10.8019
královský	-10.8026
bíd	-10.8028
pál	-10.8036
přítel	-10.8041
hnu	-10.8046
čtvrté	-10.8047
galile	-10.8063
achab	-10.8095
ros	-10.811
ammon	-10.8129
prvotin	-10.8129
dán	-10.813
zítra	-10.8131
vztáhl	-10.8132
způsobil	-10.8132
hanb	-10.814
divil	-10.8142
narodil	-10.8146
zabije	-10.8158
dr	-10.8159
tou	-10.8167
soudi	-10.8201
volali	-10.8203
provaz	-10.8207
mrtv	-10.8215
dě	-10.8219
vdov	-10.8224
vizte	-10.8228
cel	-10.8228
bit	-10.8229
ohniv	-10.8255
zá	-10.8262
med	-10.8292
pravda	-10.8292
joiad	-10.8293
celé	-10.8307
stal	-10.831
dána	-10.8327
stanu	-10.8333
nazván	-10.8342
páchal	-10.8342
dobrovoln	-10.8342
pohlaví	-10.8342
kahat	-10.8342
vězení	-10.8343
vzat	-10.8349
podobně	-10.8351
nebyla	-10.8362
daleko	-10.8365
nesli	-10.8367
lidské	-10.8372
pád	-10.8378
vchází	-10.839
přijd	-10.84
korun	-10.8407
ga	-10.8414
such	-10.8421
stala	-10.8424
.	-10.8431
sichem	-10.8446
zdá	-10.848
aman	-10.8507
zavolal	-10.8507
ničeho	-10.8543
moudré	-10.8551
šťastně	-10.8551
ozdob	-10.8557
bláznovství	-10.8559
usnul	-10.8559
půjdu	-10.856
mnohem	-10.856
pekl	-10.856
odjal	-10.856
metal	-10.8561
pochován	-10.8565
zahyne	-10.857
elize	-10.8571
abé	-10.8573
jímž	-10.8575
potrav	-10.8576
masf	-10.8584
vylil	-10.8588
rubenov	-10.8588
soudů	-10.8591
poslali	-10.8591
nevěděl	-10.8592
rám	-10.8596
hrad	-10.86
sedl	-10.8606
uvrhl	-10.8609
zemřel	-10.8611
du	-10.863
plné	-10.8643
smilství	-10.8652
pilát	-10.866
pavéz	-10.8663
nese	-10.8666
nedal	-10.8666
jejích	-10.8673
zvědí	-10.8692
něž	-10.8698
stavě	-10.8707
mělo	-10.8714
manžel	-10.8728
moábský	-10.8732
vlastní	-10.8746
ruben	-10.8753
našem	-10.8764
opuštěn	-10.8781
mrákot	-10.8782
přisluhování	-10.8782
dotkl	-10.8782
amorejské	-10.8782
obyčej	-10.8782
jeskyn	-10.8783
roku	-10.8786
ráchel	-10.8786
způsobím	-10.8792
tče	-10.8796
pých	-10.8799
vychází	-10.88
vyhladil	-10.8805
zpíva	-10.881
táhne	-10.8815
ěte	-10.8816
hledění	-10.8817
síňc	-10.8818
zachoval	-10.8824
knížete	-10.8832
poďte	-10.8836
římě	-10.8845
ukáže	-10.8857
rozumí	-10.8869
žoldnéř	-10.8885
rek	-10.8888
žádostiv	-10.8943
hřeš	-10.895
odšed	-10.8953
faraon	-10.8974
tvrd	-10.8982
lás	-10.8983
hedbáv	-10.9009
centnéř	-10.9009
poručil	-10.9009
mužské	-10.9015
drahé	-10.9017
přiblížil	-10.9028
rcete	-10.9028
jiná	-10.903
popel	-10.903
osla	-10.903
ským	-10.9036
poslav	-10.9039
nesl	-10.9042
veselil	-10.9043
milé	-10.9054
beránků	-10.9058
stěn	-10.9059
musil	-10.9061
obilí	-10.9063
kem	-10.9069
vejde	-10.9085
běln	-10.9088
slavi	-10.9092
váh	-10.9103
chází	-10.9115
uší	-10.9131
maria	-10.9134
potřeb	-10.9144
myslí	-10.9171
starším	-10.9176
ostříhej	-10.9179
pustím	-10.9184
mistř	-10.9207
vyslyšel	-10.9208
prosili	-10.921
ající	-10.9211
přebýval	-10.9213
potup	-10.9214
radu	-10.9215
víme	-10.9217
izmael	-10.9231
cedr	-10.9237
všelikém	-10.9239
zšíří	-10.9241
poražen	-10.9242
vezměte	-10.9242
kalich	-10.9242
propast	-10.9243
položí	-10.9243
sil	-10.9245
řeknou	-10.9245
dlouhost	-10.9249
lidský	-10.925
mokr	-10.9259
veseli	-10.9263
myslil	-10.9266
bližním	-10.9266
mardoche	-10.9282
achabov	-10.9282
úhl	-10.9308
nevěst	-10.932
dy	-10.9324
ú	-10.9327
malé	-10.9343
dcero	-10.935
hledí	-10.9356
abram	-10.9378
satan	-10.939
ovšem	-10.9412
slituj	-10.9424
čistý	-10.9435
efraimov	-10.9448
vstan	-10.9454
káže	-10.9459
znáš	-10.946
statk	-10.9463
jezreel	-10.9479
harf	-10.948
třidcíti	-10.948
uzdraven	-10.948
nejmenší	-10.948
mlék	-10.948
zlořečil	-10.9481
starý	-10.9482
achas	-10.9483
vezmou	-10.949
řkuc	-10.9496
smiluj	-10.95
roztrhl	-10.9505
jimiž	-10.9508
nebojte	-10.9508
zlořečení	-10.9515
dál	-10.9527
pu	-10.9535
ující	-10.955
damašk	-10.9571
shromažď	-10.9581
leže	-10.9583
odpor	-10.959
sešli	-10.9592
nách	-10.9604
patří	-10.9625
rovin	-10.9627
ohni	-10.964
vládařst	-10.9643
čemž	-10.9645
hledej	-10.965
mořské	-10.965
seir	-10.9653
ovy	-10.966
dím	-10.9663
pust	-10.9665
ným	-10.9682
izai	-10.9697
desátk	-10.9698
odkud	-10.9715
vrz	-10.9718
ony	-10.9721
poď	-10.9723
koflík	-10.9724
kralování	-10.9724
vyplénil	-10.9724
líbost	-10.9724
nátisk	-10.9724
galgal	-10.9724
rozdělil	-10.9725
kadidlnic	-10.9725
bezbožnost	-10.9726
kohož	-10.9738
bezpečně	-10.974
nadarmo	-10.9744
světě	-10.9747
potěšení	-10.9751
spálil	-10.9757
lában	-10.9759
viz	-10.9759
bezbožník	-10.9763
pobral	-10.977
obdržel	-10.978
ucha	-10.9786
ram	-10.979
vů	-10.979
rim	-10.9793
ucho	-10.9798
azi	-10.98
přijímá	-10.9805
stí	-10.9808
bláz	-10.9811
rozkazu	-10.9812
prorokuj	-10.9813
cím	-10.9828
zvěděl	-10.984
majíc	-10.9842
přijdu	-10.9845
judským	-10.9866
věz	-10.9869
balám	-10.9872
milova	-10.9881
vědě	-10.9889
všed	-10.9906
jdouc	-10.9922
assyrský	-10.9923
sádoch	-10.9925
zvěř	-10.9933
hubil	-10.9935
žť	-10.9937
trub	-10.9937
šíj	-10.9944
soudí	-10.9952
podobn	-10.9954
dávám	-10.9957
řečí	-10.9965
vidím	-10.9967
vcháze	-10.9971
památk	-10.9974
merari	-10.9974
pominul	-10.9974
modré	-10.9974
pětmecítm	-10.9974
osmdesát	-10.9974
písař	-10.9977
vyvýšen	-10.9982
úd	-10.9984
přikryl	-10.999
zkazil	-10.9995
vrat	-11
koš	-11.0008
pyšn	-11.0017
tázal	-11.0024
sluší	-11.0039
věr	-11.0046
oliv	-11.0048
bán	-11.0053
voj	-11.0086
koní	-11.01
nechal	-11.0112
vývod	-11.0118
výborné	-11.0121
vytrhn	-11.0152
bolesti	-11.017
padesáti	-11.0173
měj	-11.0184
pověz	-11.0187
jte	-11.0195
bolest	-11.0198
uposlechl	-11.0211
postaven	-11.0214
dejž	-11.0218
jmen	-11.0221
ranil	-11.0224
chce	-11.0229
betlém	-11.0229
kvílení	-11.023
opravoval	-11.023
úřad	-11.023
vypléní	-11.023
potřín	-11.0231
pozdvižen	-11.0232
přivodí	-11.0236
kolen	-11.0237
slep	-11.0237
západní	-11.0242
nástroj	-11.0242
dopustil	-11.0243
neposlouchal	-11.0245
skryt	-11.0262
milují	-11.0276
asser	-11.0278
pronárod	-11.0283
nedo	-11.0285
povede	-11.029
ostrov	-11.0301
půjdeš	-11.031
jat	-11.0318
tel	-11.0324
obrace	-11.0334
hai	-11.0335
drže	-11.0344
silo	-11.0346
rukam	-11.0382
vydá	-11.0391
nevěstk	-11.0405
jakou	-11.0407
uslyší	-11.0418
nenalezl	-11.0425
vcházel	-11.0426
kol	-11.0446
běh	-11.045
prav	-11.0451
emat	-11.0469
pusť	-11.0473
sodom	-11.048
sina	-11.0493
ezebon	-11.0493
patnáct	-11.0493
rozmnoží	-11.0493
moudř	-11.0493
vražedlník	-11.0493
oznámen	-11.0493
okras	-11.0494
těl	-11.0495
pomazán	-11.0495
kterémuž	-11.05
pouští	-11.05
kadidl	-11.05
cti	-11.0503
staven	-11.0512
gabaon	-11.0513
filistinským	-11.0513
potkal	-11.052
zavřel	-11.0524
velbloud	-11.0526
říkal	-11.0526
panova	-11.0528
pohrdá	-11.0529
síle	-11.0552
volám	-11.0556
izákov	-11.0556
slyšán	-11.0559
sloul	-11.0569
znáte	-11.0573
zajaté	-11.0574
efi	-11.0579
vydám	-11.0579
zhřešili	-11.0584
sobotní	-11.0588
ženin	-11.0589
hr	-11.0625
vedli	-11.0627
povstal	-11.0638
díle	-11.0644
napsal	-11.0645
měd	-11.065
filip	-11.0651
slouží	-11.0658
jda	-11.0659
přinese	-11.0684
bal	-11.0691
čten	-11.0693
vede	-11.0709
zjevn	-11.071
řad	-11.0711
raduj	-11.0719
druhým	-11.0724
řád	-11.0745
jina	-11.0751
pokorn	-11.0752
dvadcíti	-11.0761
tele	-11.0763
silnější	-11.0763
devět	-11.0763
zavázal	-11.077
mladé	-11.0772
pevnost	-11.0773
syrský	-11.0773
rozmnožil	-11.0774
městečk	-11.0775
ovcí	-11.0777
ostříhají	-11.0778
sochor	-11.0782
sílo	-11.0784
správce	-11.0785
bálov	-11.0792
navštíví	-11.0798
pokojný	-11.0811
sirotk	-11.0825
ráma	-11.0831
nepoznal	-11.0832
přijel	-11.0843
uješ	-11.0844
miluj	-11.0851
bers	-11.0851
zamordoval	-11.086
plný	-11.0876
žádá	-11.0884
pije	-11.0889
rada	-11.089
jeruzalémský	-11.0903
přivede	-11.0905
čet	-11.0906
rodí	-11.0909
okn	-11.0909
blázni	-11.091
palác	-11.091
odstup	-11.091
pustil	-11.0914
nátan	-11.0917
gádov	-11.0919
roboám	-11.092
vesel	-11.0941
svobod	-11.0952
vstup	-11.0966
masa	-11.0976
vydává	-11.0996
nečinil	-11.0997
spí	-11.1022
hynou	-11.1024
kal	-11.1028
mladší	-11.1041
sstoupí	-11.1041
stvořen	-11.1041
kantor	-11.1041
nuzné	-11.1041
přísloví	-11.1041
zloděj	-11.1041
vnitřnost	-11.1041
hořkost	-11.1042
zemské	-11.1043
staré	-11.1043
důstojnost	-11.1044
plamen	-11.1044
ložc	-11.1045
zadělan	-11.1046
jednostejn	-11.105
postavce	-11.1053
vejdou	-11.1059
neuposlechl	-11.1062
zplozen	-11.1066
jesu	-11.1067
spatřil	-11.1069
měděné	-11.1073
vysvobození	-11.1073
braná	-11.1078
nějaký	-11.108
odstoupil	-11.108
zahladil	-11.1085
kadil	-11.1088
lsti	-11.1094
uvodí	-11.1099
uchýlil	-11.1102
takového	-11.1104
zabulon	-11.1104
sít	-11.1134
nepři	-11.1141
věže	-11.1142
roviná	-11.1146
změřil	-11.1173
paláce	-11.1174
přišl	-11.1176
áš	-11.1202
otevř	-11.1205
spo	-11.1207
služ	-11.1208
mladý	-11.1217
vec	-11.1223
upřímé	-11.1225
mal	-11.1243
kup	-11.1246
pohleď	-11.1246
nemluvil	-11.1249
nevím	-11.125
svár	-11.1254
čel	-11.1258
hoden	-11.1276
dome	-11.1286
páli	-11.1294
soudc	-11.1295
královn	-11.1305
obrátiv	-11.1309
vyhnal	-11.131
elí	-11.1319
žádnému	-11.1322
slou	-11.1323
vinný	-11.1326
zbroj	-11.1326
pšenic	-11.1327
vzkříšení	-11.1327
korouh	-11.1327
kádes	-11.1327
ďábel	-11.1327
květ	-11.1327
zpívej	-11.1328
zahynutí	-11.1328
gát	-11.1329
běžel	-11.133
pojav	-11.1336
hluk	-11.134
án	-11.1343
vylit	-11.1345
zanechal	-11.1348
neftalím	-11.1357
poslouchejte	-11.136
čemuž	-11.1362
naplní	-11.1364
dnem	-11.1368
semei	-11.1379
nevíte	-11.138
idumejské	-11.1381
celý	-11.1383
mějte	-11.1388
ben	-11.1392
šlo	-11.1396
povol	-11.1396
činíte	-11.1399
nější	-11.1405
uslyšev	-11.1405
vstavš	-11.1405
mocný	-11.1412
naučení	-11.1413
pevn	-11.1413
roste	-11.1439
koni	-11.144
ráti	-11.1441
nebývá	-11.1454
vydali	-11.1465
oznámí	-11.1474
ponese	-11.1475
nosil	-11.1477
živý	-11.1482
štít	-11.1484
sebral	-11.1484
dokonán	-11.1498
kraji	-11.1511
divné	-11.152
věřil	-11.1524
stavení	-11.1531
prs	-11.1533
desát	-11.1558
neučinil	-11.157
rozptýlen	-11.1576
působí	-11.1577
outi	-11.1582
hubí	-11.1587
palm	-11.1591
rozkoš	-11.1593
kupc	-11.16
prodal	-11.1603
stvoři	-11.1611
dlouho	-11.1611
choval	-11.1617
užite	-11.1621
vladař	-11.1621
vzkřísi	-11.1621
zvířat	-11.1621
zvěstoval	-11.1621
služebnic	-11.1621
břich	-11.1621
kaldejské	-11.1621
ďábelství	-11.1621
udeřil	-11.1622
naříkání	-11.1623
útočiště	-11.1623
slz	-11.1631
odsouzen	-11.1635
částk	-11.1636
cedrové	-11.1636
fá	-11.1642
koupil	-11.1644
potřebí	-11.1645
posvěcení	-11.1664
gedeon	-11.1666
pláče	-11.1668
leží	-11.1679
jana	-11.1679
nečist	-11.1681
vnitřní	-11.1684
povolav	-11.1684
rot	-11.1712
trvá	-11.1718
slepý	-11.1719
židovský	-11.173
jž	-11.1733
kvíli	-11.1749
prosb	-11.1755
joábov	-11.1758
amaziáš	-11.176
oznam	-11.1767
dým	-11.1773
bohatý	-11.1783
ujete	-11.1784
jho	-11.1785
nemám	-11.179
syr	-11.1794
vyšedš	-11.1807
propustí	-11.1813
zůstali	-11.1818
padá	-11.1831
morduj	-11.1835
trpí	-11.1838
díte	-11.1849
dět	-11.187
pláč	-11.1876
odvrátí	-11.1905
nost	-11.1912
neš	-11.1917
zkazí	-11.1917
pastv	-11.1923
osmnáct	-11.1924
tajemství	-11.1924
jochanan	-11.1924
rozpomenul	-11.1925
uhlí	-11.1925
nešlechetný	-11.1925
docela	-11.1925
obzvláštn	-11.1926
blesk	-11.1927
přítomnost	-11.193
vykoupil	-11.1931
přednější	-11.1932
jeft	-11.1935
chvalte	-11.194
pohleděl	-11.194
chanan	-11.1943
adam	-11.1944
ele	-11.1944
vládnou	-11.1949
soužení	-11.195
ček	-11.1968
veselé	-11.1972
obloži	-11.1982
plésa	-11.1982
mocen	-11.1993
zachován	-11.2003
sic	-11.2011
zapsán	-11.202
doufání	-11.2026
uslyšeli	-11.2026
olati	-11.2042
vinu	-11.2049
starc	-11.205
hrdl	-11.2052
vyšlo	-11.2065
veden	-11.2098
fi	-11.2145
opon	-11.2148
rozdělen	-11.2148
jakub	-11.2157
herodes	-11.2158
nebeském	-11.2165
ohnivé	-11.2169
loupeže	-11.2171
hrazen	-11.2175
levo	-11.2203
vonný	-11.2206
nepřišel	-11.221
navrátím	-11.2211
souzen	-11.2222
obyčeje	-11.2236
krupobití	-11.2237
náramenník	-11.2237
uzdravil	-11.2237
utvrdil	-11.2237
výklad	-11.2237
pečet	-11.2237
poslán	-11.2239
konal	-11.2239
čest	-11.224
přiveď	-11.2242
svědomí	-11.2242
veď	-11.2246
vyplnil	-11.225
vyslyš	-11.2254
vysokost	-11.2255
neznal	-11.2255
egyptským	-11.2269
pit	-11.2297
vodil	-11.2301
vykonal	-11.2302
mot	-11.2306
děvečk	-11.2307
sváte	-11.2315
tví	-11.2317
chod	-11.2326
niž	-11.2332
vidíš	-11.2335
šesti	-11.2337
vydán	-11.2342
pozná	-11.2345
judo	-11.235
páté	-11.2369
měděný	-11.2395
smysl	-11.2422
hříš	-11.2422
lis	-11.2439
číš	-11.2443
kraje	-11.2449
dadí	-11.2454
červ	-11.246
tský	-11.2474
modlit	-11.2494
stává	-11.2495
kor	-11.2503
pojď	-11.2508
ctí	-11.2512
pravě	-11.2513
sionsk	-11.2513
absolonov	-11.2513
ložení	-11.2538
hřešili	-11.254
čem	-11.2555
1	-11.2559
4	-11.2559
stupňů	-11.2559
vládl	-11.2559
vypléněn	-11.2559
zpéře	-11.2559
koráb	-11.2559
makovic	-11.2559
obrací	-11.2559
rozhněvání	-11.2559
kterýmiž	-11.2559
lamp	-11.2559
joram	-11.2559
upřímnost	-11.2559
pomaže	-11.256
obdrží	-11.2561
snížen	-11.2561
prah	-11.2563
horší	-11.2564
utíka	-11.2573
zhynul	-11.2575
zžíře	-11.258
svícen	-11.2596
chtěj	-11.2596
sedechiáš	-11.2599
strážný	-11.26
počten	-11.2601
ezechiášov	-11.2602
noham	-11.2605
kananejský	-11.2615
simeon	-11.2624
kona	-11.2634
ostříhejte	-11.2646
síň	-11.2656
trpě	-11.2658
hlava	-11.2669
svrchk	-11.267
ovu	-11.2671
královském	-11.2675
ór	-11.2682
sadí	-11.2695
bydlen	-11.271
sar	-11.2714
ušel	-11.2718
rtů	-11.2726
malý	-11.273
dobro	-11.2741
vycháze	-11.2741
úředník	-11.2743
odejm	-11.2754
navraťte	-11.2758
pá	-11.2761
semaiáš	-11.2783
setník	-11.2784
vrátil	-11.2785
pát	-11.2787
samson	-11.2792
korunu	-11.28
dobrým	-11.2819
chci	-11.2824
krá	-11.2828
padn	-11.2835
balák	-11.284
volá	-11.2845
učiněno	-11.2846
budoucí	-11.2851
skal	-11.2856
egyptsk	-11.2858
lože	-11.2861
psán	-11.2866
krásné	-11.2874
sidon	-11.2876
poškvrněn	-11.2881
škod	-11.2889
třech	-11.2889
plavil	-11.2891
3	-11.2892
horlivost	-11.2892
hřmot	-11.2892
odpočinul	-11.2892
očišťován	-11.2892
rozsívá	-11.2892
kobylk	-11.2893
řetěz	-11.2893
zeměplaz	-11.2893
dobrořečil	-11.2894
trpělivost	-11.2897
nun	-11.2899
sedmkrát	-11.29
tajně	-11.2901
milostiv	-11.2904
zmužil	-11.2904
stříbrné	-11.2904
úpě	-11.2906
kříž	-11.2908
povstane	-11.291
vzbudil	-11.2911
svěde	-11.2911
vad	-11.2917
čímž	-11.2919
povědíno	-11.2923
vyjdou	-11.2929
slavil	-11.2931
mích	-11.2947
jel	-11.2949
opustí	-11.2959
aba	-11.2963
přisluhoval	-11.2967
temnost	-11.2973
církve	-11.2979
zachariáš	-11.3007
oslavova	-11.3012
pálil	-11.3014
trpěl	-11.3029
koz	-11.304
rohů	-11.304
vloží	-11.3047
odplat	-11.3061
aim	-11.3063
žádosti	-11.3067
stem	-11.3067
navráti	-11.3075
sky	-11.3083
nečiní	-11.3098
rostl	-11.3118
odpoví	-11.3121
předměstím	-11.3127
zajatý	-11.3134
dce	-11.3136
bráti	-11.314
berán	-11.3141
izachar	-11.3145
hodné	-11.3158
doufá	-11.317
vynesl	-11.3184
achi	-11.3192
zůsta	-11.3195
nech	-11.3202
střev	-11.3222
uzřevš	-11.3228
následov	-11.3231
klas	-11.3237
barnabáš	-11.3237
ospravedlněn	-11.3237
rozptýlí	-11.3237
banaiáš	-11.3237
vzbudí	-11.3237
milování	-11.3237
předěšen	-11.3237
otvírá	-11.3237
taková	-11.3237
pavlov	-11.3237
amalech	-11.3237
takovou	-11.3238
obklíčil	-11.3238
amorejský	-11.3239
silní	-11.3241
bojovati	-11.3242
vyzdvihl	-11.3242
staních	-11.3245
spadl	-11.3246
zevnitřní	-11.3246
zastřen	-11.3256
zdělal	-11.3261
plén	-11.3269
váží	-11.327
bázn	-11.328
vyjdi	-11.3281
hnul	-11.3286
přenesl	-11.3287
odejme	-11.329
lidským	-11.3296
často	-11.3298
celým	-11.33
odejde	-11.3305
bok	-11.3318
odplatu	-11.332
state	-11.3325
třásl	-11.333
ptá	-11.3332
íte	-11.3342
razil	-11.3344
pošle	-11.3345
protivník	-11.3355
odplatí	-11.3359
ložím	-11.3359
chcete	-11.3367
nezná	-11.337
dědic	-11.3374
pohledí	-11.3376
dobyl	-11.3378
ýž	-11.3387
dějí	-11.3389
sedící	-11.3391
tma	-11.3393
zapomenul	-11.3406
zůstalo	-11.341
andělů	-11.3422
přebýva	-11.3429
polám	-11.345
pozdvih	-11.3454
následuj	-11.3455
přinášel	-11.3456
neví	-11.3459
kterého	-11.3471
měsíců	-11.348
věž	-11.35
kudy	-11.3504
čiň	-11.3504
záloh	-11.352
krásn	-11.3525
mast	-11.3531
vlož	-11.3537
přátel	-11.3539
nevejde	-11.3539
odešla	-11.3543
odjat	-11.3546
pastýře	-11.3552
vysvobozen	-11.3553
pojí	-11.3556
uvede	-11.357
hyne	-11.3575
obětován	-11.3583
brav	-11.359
menší	-11.3594
karmel	-11.3594
posměvač	-11.3594
slitovnic	-11.3594
zvýší	-11.3594
tábor	-11.3594
protivenství	-11.3594
čtyřmecítm	-11.3594
barvené	-11.3595
dobrá	-11.3595
nuzný	-11.3595
proroctví	-11.3595
svícn	-11.3595
poklonil	-11.3596
jezer	-11.3597
kvas	-11.3599
rozkošn	-11.3605
skotů	-11.3609
létě	-11.3612
poslouchal	-11.3615
ženich	-11.3619
hřeší	-11.3621
rebek	-11.3622
odpustil	-11.3623
amnon	-11.3629
učit	-11.363
můžeš	-11.3635
věřící	-11.3637
uziáš	-11.3642
srdcí	-11.3643
vysoký	-11.3645
připadl	-11.3646
přestane	-11.3651
trápil	-11.3671
vln	-11.3673
dobrému	-11.3674
ničem	-11.3679
nejvyšším	-11.368
čemu	-11.3682
hrozný	-11.3689
judském	-11.3693
vítěz	-11.3695
naučil	-11.3695
tar	-11.3696
dveř	-11.3697
jeroboámov	-11.37
konc	-11.3708
hleděl	-11.3713
nechodil	-11.3719
zvolal	-11.3722
oblečen	-11.3739
vejdi	-11.3749
živočich	-11.3755
vývoda	-11.3761
jejíž	-11.3762
zpurn	-11.3762
říc	-11.3769
zhoub	-11.3772
pamatuj	-11.3776
promluvil	-11.3793
smilstv	-11.3808
činění	-11.381
krok	-11.3816
zapomenu	-11.3819
dělej	-11.382
nebeský	-11.3828
rozkaz	-11.3831
pavla	-11.3838
držel	-11.3839
patř	-11.3871
daleké	-11.3871
upřím	-11.3873
poddán	-11.3881
cizozemc	-11.3887
ustal	-11.3888
jonáš	-11.3889
beran	-11.389
bývalo	-11.389
šelm	-11.3929
tudy	-11.3937
ponížen	-11.3942
roztrh	-11.3944
děvečka	-11.3951
kterou	-11.3956
zpěv	-11.3958
bloudí	-11.3963
poslechn	-11.3964
mluven	-11.3964
plní	-11.3964
dvadcát	-11.3965
halelu	-11.3965
oblékl	-11.3965
trestat	-11.3965
závor	-11.3965
rozmnožen	-11.3965
utvrzen	-11.3965
adoniáš	-11.3965
duchovní	-11.3965
heber	-11.3965
timote	-11.3965
sára	-11.3965
půjdou	-11.3965
navštívil	-11.3965
stanou	-11.3965
oklamá	-11.3965
otevřín	-11.3966
uvržen	-11.3966
pláště	-11.3966
vědouc	-11.3966
převrácenost	-11.3967
zisk	-11.3967
mateř	-11.3967
obuv	-11.397
pramen	-11.3971
odsud	-11.3971
sallum	-11.3971
začal	-11.3972
červce	-11.3972
oddělil	-11.3974
čtvrtý	-11.3976
zjevil	-11.3977
nižádný	-11.3978
blud	-11.3979
pis	-11.398
ukáži	-11.3982
pohrdl	-11.3983
odpusť	-11.3985
nemohou	-11.3986
janov	-11.3995
týru	-11.3996
zač	-11.3997
královsk	-11.4004
zpěvák	-11.4008
pásl	-11.4014
panuje	-11.4014
hledě	-11.4026
ge	-11.4026
půjdeme	-11.4028
bylin	-11.4033
nevidí	-11.4041
per	-11.4043
azariáš	-11.4048
jistý	-11.4051
říka	-11.4055
vězte	-11.4056
mohou	-11.4058
jo	-11.407
hojně	-11.4075
hrůz	-11.4077
humn	-11.4081
zlým	-11.4091
joakim	-11.4096
modlitba	-11.4103
go	-11.4108
jeremiáše	-11.4116
znal	-11.4117
pomáhal	-11.4123
jídal	-11.4124
tř	-11.4127
samo	-11.4127
přistoupiv	-11.4131
beř	-11.4143
oznámím	-11.4145
prázdn	-11.4145
zhoubc	-11.4165
vši	-11.4167
zámutk	-11.4177
chová	-11.4186
křičel	-11.4198
obětuje	-11.42
oznamuj	-11.4201
přistoupivš	-11.4208
odpověd	-11.4219
apoštolů	-11.4226
žalář	-11.4235
uslyšavš	-11.4237
proroku	-11.4239
hrozné	-11.4244
obořil	-11.4246
propusti	-11.4255
kladl	-11.4255
vál	-11.4277
čení	-11.4277
veleb	-11.4281
knězem	-11.4283
krás	-11.4286
zachová	-11.4295
světle	-11.4301
orli	-11.4303
líbi	-11.4308
ammonitský	-11.4309
panovní	-11.4312
povolán	-11.4312
sp	-11.4315
ožil	-11.4315
cházející	-11.4318
nějaké	-11.433
tých	-11.4331
pozůstali	-11.4338
ostatků	-11.4339
posled	-11.434
která	-11.4341
lebn	-11.4341
báruch	-11.4349
dosáhl	-11.4349
kněžský	-11.4349
nakloň	-11.4349
plésání	-11.4349
pokušení	-11.4349
porušen	-11.4349
vysvoboď	-11.4349
loutn	-11.4349
benadad	-11.4349
prozpěvova	-11.435
pohleděv	-11.435
zevnitř	-11.435
bóz	-11.435
sarvi	-11.435
kněžstv	-11.435
železné	-11.4353
opatrnost	-11.4356
oslaven	-11.4361
maach	-11.4363
neznají	-11.4365
uzříte	-11.4366
vytáh	-11.4367
sežral	-11.4369
nemocné	-11.437
enoch	-11.437
změnil	-11.4376
trestání	-11.4377
stydí	-11.4378
zadu	-11.4381
zmocnil	-11.4384
vzýval	-11.4384
jah	-11.4387
správ	-11.4388
komorník	-11.439
ječmene	-11.439
pohnul	-11.4391
zabí	-11.4392
očekával	-11.4406
naklonil	-11.4409
věd	-11.4412
sedmdesáti	-11.4419
vykoná	-11.4421
slýchali	-11.4422
vstupuje	-11.4423
smut	-11.4429
přitáhne	-11.4434
okršl	-11.4437
vynáše	-11.4444
chtí	-11.4446
díme	-11.4449
bili	-11.4458
stoje	-11.4459
ukydaným	-11.4473
vojn	-11.4486
takových	-11.4487
nejedl	-11.4506
vidíte	-11.4526
nezůstal	-11.453
míra	-11.4533
vypravova	-11.4562
věř	-11.4571
nezemře	-11.4572
boří	-11.4572
plodil	-11.458
způsobu	-11.4581
obrať	-11.4582
brz	-11.4613
hrdlo	-11.4615
etí	-11.4618
doufají	-11.4622
samuelov	-11.4627
rádc	-11.4628
hříšník	-11.4631
hanbu	-11.4641
vyzná	-11.4643
idumejský	-11.4646
skoná	-11.4659
prorokují	-11.4666
dělají	-11.4667
řkou	-11.4678
nesnadn	-11.468
neseš	-11.4682
jedin	-11.4685
prac	-11.4696
pokrytc	-11.4698
příbuzn	-11.47
stup	-11.4707
časem	-11.4713
achis	-11.4737
for	-11.4747
fínes	-11.4749
mesullam	-11.4749
čtver	-11.4749
provinění	-11.4749
šestnáct	-11.4749
blát	-11.4749
pomazané	-11.4749
ponížil	-11.4749
remmon	-11.4749
dokavad	-11.4749
vyprahl	-11.475
prozpěvuj	-11.475
připojen	-11.475
úklad	-11.475
vzdálen	-11.475
dvamecítm	-11.475
obecné	-11.475
deště	-11.475
nejlepší	-11.4751
zkřikl	-11.4751
assur	-11.4752
pokřtěn	-11.4753
šetřil	-11.4753
posel	-11.4753
abel	-11.4755
provodí	-11.4755
arno	-11.4758
pravá	-11.4759
ner	-11.4768
desetin	-11.4772
zahynou	-11.4775
abizai	-11.4778
nemohu	-11.4779
vztáhn	-11.479
bravů	-11.4793
volání	-11.4801
vyhladím	-11.4804
rodu	-11.4806
rozuměl	-11.4813
pozdvihn	-11.4819
pozdrav	-11.4823
potupu	-11.4824
cizozemců	-11.4834
chválí	-11.4853
tent	-11.4856
přítele	-11.4866
pozdravte	-11.4869
polí	-11.4885
náleží	-11.4889
známé	-11.4894
obživ	-11.4897
hojné	-11.49
ps	-11.4903
zvlášt	-11.4908
drž	-11.4934
pravý	-11.4953
popouzel	-11.4955
nepřijde	-11.4967
čtyře	-11.4971
upřímý	-11.4973
jal	-11.4998
vyhledáva	-11.4999
břemen	-11.4999
chválil	-11.5016
alo	-11.5019
velik	-11.503
avad	-11.5042
chíram	-11.5043
osl	-11.5047
holí	-11.5047
ela	-11.5053
kraj	-11.5064
kálef	-11.5072
podobni	-11.5072
měr	-11.5074
or	-11.5082
asver	-11.5083
cíl	-11.5095
přiveden	-11.5106
kým	-11.5111
skut	-11.512
naplň	-11.5126
soba	-11.5139
řečeno	-11.5159
kázán	-11.5161
ptal	-11.5163
pachole	-11.5164
devadesát	-11.5166
holubic	-11.5166
jábes	-11.5166
nejmilejší	-11.5166
slitování	-11.5166
třináct	-11.5166
ukřižován	-11.5166
zvěstovat	-11.5166
náprsník	-11.5166
užitk	-11.5166
čaloun	-11.5166
zkusil	-11.5166
příliš	-11.5166
výplat	-11.5167
očistil	-11.5167
večeř	-11.5167
sukni	-11.5167
abiáš	-11.5167
ptej	-11.5168
umyje	-11.5168
jotam	-11.5169
vykoupen	-11.517
rozumný	-11.517
třesení	-11.5171
azot	-11.5174
veřeje	-11.5176
přebývající	-11.5179
bije	-11.5179
joachaz	-11.518
právo	-11.5184
kají	-11.5184
levic	-11.5188
vyjděte	-11.5195
dávejte	-11.5196
zrodil	-11.5198
nedopustil	-11.5198
sur	-11.5205
deváté	-11.5205
zvěstuje	-11.5207
stojící	-11.5213
svíce	-11.5219
povst	-11.5224
velikém	-11.5227
lži	-11.5227
ochoziáš	-11.5229
jezte	-11.525
abiatar	-11.5256
pode	-11.5265
rád	-11.5267
noha	-11.5267
dveře	-11.5268
věčno	-11.527
novo	-11.5273
teprv	-11.5274
gad	-11.53
jdoucí	-11.53
drželi	-11.5303
bolestí	-11.5318
výborný	-11.5319
spokojuj	-11.5324
balámov	-11.534
hrom	-11.5345
zanechá	-11.535
kudyž	-11.5352
příjemn	-11.5353
vyved	-11.5354
zámut	-11.5357
umř	-11.536
přicháze	-11.537
slavné	-11.5376
ustanovením	-11.5387
yč	-11.5393
lest	-11.5394
ska	-11.5397
háje	-11.5405
sadil	-11.5418
válka	-11.5427
neumřel	-11.5427
spod	-11.5433
stavil	-11.5439
nedostatk	-11.5442
položen	-11.5451
jali	-11.5457
spasitele	-11.5458
azafov	-11.5463
chudým	-11.5464
pusté	-11.5467
pěkn	-11.5468
spálen	-11.5469
oznámi	-11.5471
říti	-11.5472
choď	-11.5482
přidá	-11.5484
vrátn	-11.5484
svad	-11.5485
našel	-11.5491
živou	-11.5495
vstoupí	-11.5499
lítosti	-11.5516
šat	-11.5517
drak	-11.552
žil	-11.5527
běží	-11.5528
rouhán	-11.5534
vyhladí	-11.5544
pošlapá	-11.5548
učitel	-11.556
svobodn	-11.5561
ďábl	-11.5575
bič	-11.5579
válk	-11.56
ábel	-11.56
děsí	-11.5601
čtyřidc	-11.5601
mládene	-11.5601
efez	-11.5601
plášť	-11.5601
rozpomeň	-11.5601
mrzkost	-11.5601
odvrácen	-11.5601
dávno	-11.5601
cýr	-11.5601
příklad	-11.5601
ostrost	-11.5601
rozkázaní	-11.5601
příchod	-11.5602
azor	-11.5602
starost	-11.5602
zrušil	-11.5603
největší	-11.5603
přebývají	-11.5604
ssoužen	-11.5604
dání	-11.5604
směle	-11.5604
dvadcítilet	-11.5604
nařízení	-11.5605
akaron	-11.5607
přivodil	-11.5609
píši	-11.5609
provodil	-11.5609
dobrotivost	-11.561
vyveď	-11.561
varuj	-11.5611
hodil	-11.5614
náhle	-11.5615
summ	-11.5621
plev	-11.5622
umírá	-11.5624
betsem	-11.5625
čte	-11.5627
přestoupil	-11.5631
házel	-11.5637
zůstával	-11.564
rozkáže	-11.5645
útržk	-11.5649
babylonském	-11.5652
věčnost	-11.5653
dostal	-11.5653
sečtl	-11.5656
rozdělí	-11.5657
kain	-11.5657
zdvihl	-11.566
pracoval	-11.5662
dávají	-11.5664
potřel	-11.5668
cizoloží	-11.5673
vrže	-11.5674
mluvící	-11.5675
nápoj	-11.5679
připrav	-11.5684
gáz	-11.5685
učiníme	-11.5685
učiníte	-11.5691
pustí	-11.5699
potření	-11.5703
vedeš	-11.5706
edom	-11.5712
kdybys	-11.5713
hetejské	-11.5726
desáté	-11.5733
požehná	-11.5742
azaf	-11.5752
věčn	-11.5758
kozel	-11.5765
jakého	-11.5768
zpod	-11.577
přikryj	-11.5774
staví	-11.5778
zjevení	-11.5781
jonat	-11.5793
mořský	-11.5794
prvním	-11.5798
šedš	-11.5806
zavřín	-11.5812
ohrad	-11.5819
mudrc	-11.586
chusa	-11.5862
polož	-11.5874
vyslyší	-11.5878
uveden	-11.5888
farizeů	-11.5892
hák	-11.5897
ležící	-11.5903
lva	-11.5934
háj	-11.5939
líbila	-11.594
půs	-11.5941
chananiáš	-11.5942
královským	-11.5954
helkiáš	-11.5971
nejsi	-11.5976
achiáš	-11.5977
stupní	-11.5978
slož	-11.5981
veselím	-11.5984
lživ	-11.5987
chus	-11.5989
upadl	-11.5991
čtl	-11.6
velbloudů	-11.6
ulice	-11.6001
vzdělá	-11.6008
dská	-11.6011
protivil	-11.6015
strachu	-11.6015
ujal	-11.6019
učiňte	-11.6028
požehnan	-11.6028
kadidlo	-11.604
radoval	-11.6049
vinen	-11.6051
bojovní	-11.6055
ohlašuj	-11.6055
bojovný	-11.6055
eufrate	-11.6055
micheáš	-11.6055
nebezpečenství	-11.6055
starodávní	-11.6055
vyhlásí	-11.6055
chvíle	-11.6055
lačně	-11.6055
popléněn	-11.6055
robot	-11.6055
rozpálen	-11.6055
jitřní	-11.6055
výmluvnost	-11.6055
sekal	-11.6055
těhotn	-11.6056
hnízd	-11.6056
snop	-11.6056
uteče	-11.6056
oblehl	-11.6056
křtil	-11.6057
sbíral	-11.6057
kamene	-11.6057
zahladí	-11.6058
zdraví	-11.6058
radovati	-11.6058
pokojík	-11.6059
spálí	-11.6059
susan	-11.606
modlá	-11.6063
jidáš	-11.6069
nosí	-11.6069
přešli	-11.6071
sstupují	-11.6072
rybník	-11.6074
jakýž	-11.6079
uráž	-11.6079
komuž	-11.608
rámo	-11.6082
svolav	-11.6082
ledv	-11.6082
poslušn	-11.6083
poč	-11.6084
dobrořečte	-11.6085
posílal	-11.6085
mistr	-11.6087
přepásaní	-11.6094
roce	-11.6095
vstanou	-11.6097
dítěte	-11.6099
mlč	-11.61
zajat	-11.6108
odín	-11.611
bydlící	-11.6111
rouhal	-11.6144
kment	-11.6149
sprav	-11.6157
klad	-11.6166
děsil	-11.6172
hin	-11.6178
povězte	-11.6179
nenáviděl	-11.6185
nemáme	-11.62
tovaryš	-11.6202
nutí	-11.6202
toul	-11.6203
uslyšav	-11.6208
ruší	-11.6209
nimiž	-11.6217
nedostat	-11.6228
vezmu	-11.6255
křiče	-11.6275
ustavěl	-11.628
postavím	-11.6281
chud	-11.6299
skrýš	-11.63
nechte	-11.6305
hat	-11.6306
dokonalý	-11.6309
odporn	-11.6314
lachi	-11.6316
loži	-11.6316
úh	-11.6317
bera	-11.6319
končiná	-11.635
doufa	-11.6356
posilň	-11.6363
nádoba	-11.6366
zdál	-11.6373
běl	-11.6374
petrov	-11.638
kaldejský	-11.6383
křtí	-11.6384
nů	-11.6385
slepé	-11.6389
volej	-11.6389
mlče	-11.6401
stydě	-11.6407
mluvte	-11.6414
píse	-11.6423
zlořeč	-11.6424
přísahu	-11.644
simeonov	-11.6441
dají	-11.6443
lůn	-11.6447
:	-11.6447
kola	-11.645
uče	-11.6461
boz	-11.6471
nový	-11.6477
obětují	-11.6483
odpovída	-11.6484
nemůž	-11.6484
neznám	-11.6487
brad	-11.6489
piš	-11.6492
žalost	-11.6492
činitel	-11.6495
trestán	-11.6497
vydáva	-11.6498
dávej	-11.6501
lámal	-11.6527
drah	-11.6528
madian	-11.653
noční	-11.6531
hřbet	-11.6532
jablk	-11.6532
obcování	-11.6532
sformoval	-11.6532
sváteční	-11.6532
vyslýchej	-11.6532
výpověd	-11.6532
zachovej	-11.6532
kvílí	-11.6532
kormoutí	-11.6532
upevněn	-11.6532
čistern	-11.6532
rkev	-11.6532
panování	-11.6532
kruh	-11.6532
hlubokost	-11.6532
madianské	-11.6532
perské	-11.6532
manue	-11.6532
lehkost	-11.6532
zlořečenství	-11.6533
svátk	-11.6533
pošl	-11.6533
pres	-11.6534
sstupující	-11.6534
příval	-11.6534
tíží	-11.6534
jsuc	-11.6536
kopyt	-11.6536
rozumné	-11.6537
neduh	-11.6537
roztáhl	-11.6539
vypustil	-11.6543
příchozím	-11.6543
mocné	-11.6546
pokut	-11.6549
jednostejné	-11.6549
jímal	-11.655
kupec	-11.655
uzříš	-11.6551
mrtvá	-11.6553
pasou	-11.6553
metl	-11.6559
mann	-11.6562
shromažďuje	-11.6567
sarai	-11.657
chodíval	-11.6574
čež	-11.6574
volají	-11.6575
slyším	-11.6578
obydlí	-11.6578
křivd	-11.6579
štípen	-11.6579
vejdu	-11.6589
pokryt	-11.6593
oslavujte	-11.6596
slyšení	-11.6596
pohubil	-11.6599
těžc	-11.6609
vstavil	-11.6613
ohléd	-11.6617
spojen	-11.662
stupuje	-11.6633
jozafatov	-11.6634
vstaňte	-11.6636
vzdělám	-11.6637
udělej	-11.6641
novu	-11.6645
utisk	-11.6645
nechá	-11.6658
spustil	-11.6662
předešl	-11.6662
chlubí	-11.6663
táhnou	-11.6665
jdeme	-11.6665
odšedš	-11.6668
starců	-11.6671
církv	-11.6674
vejdete	-11.6677
odejdi	-11.6678
pojedl	-11.668
neslyšel	-11.6681
vycházejí	-11.6687
pravi	-11.6688
rozmohla	-11.6688
opil	-11.6688
pohleďte	-11.6692
hněviv	-11.6704
ammonit	-11.6708
některý	-11.6724
tvrdím	-11.6724
stavějí	-11.674
zpěvá	-11.674
šetří	-11.6743
beze	-11.675
mari	-11.677
hada	-11.677
elam	-11.6776
radí	-11.6793
němuž	-11.6798
přesto	-11.68
drobn	-11.6802
pozna	-11.6815
vrchní	-11.6829
níků	-11.6837
přistupova	-11.6846
cis	-11.6847
slyšíte	-11.6851
skute	-11.6855
chat	-11.6855
musím	-11.6858
svědčí	-11.686
svolal	-11.686
darů	-11.6867
nalezne	-11.6869
plaka	-11.687
zrostl	-11.6874
zvuč	-11.6879
klam	-11.688
hrůza	-11.6881
shledal	-11.6889
úřední	-11.6891
ochotně	-11.69
troubil	-11.6909
mol	-11.6912
chváli	-11.6915
okršlk	-11.6918
gal	-11.6921
ťal	-11.6928
stával	-11.6934
noém	-11.6936
umí	-11.6943
nápoje	-11.6943
zemský	-11.6961
odpočíva	-11.6961
potře	-11.6964
poklon	-11.6979
přátelé	-11.698
skryté	-11.6991
darmo	-11.6991
maaseiáš	-11.7
žíře	-11.7001
san	-11.7007
obřízk	-11.7012
vinné	-11.7017
nalézá	-11.7022
navra	-11.7026
big	-11.7029
vyšší	-11.7031
grunt	-11.7032
natanael	-11.7032
nádab	-11.7032
poslušenství	-11.7032
písničk	-11.7032
tresci	-11.7032
zdráv	-11.7032
počáte	-11.7032
ostatní	-11.7032
trestal	-11.7032
založil	-11.7032
ezron	-11.7032
nebatov	-11.7032
stromoví	-11.7032
vonné	-11.7032
nejsilnější	-11.7032
novměsíc	-11.7033
zůstanou	-11.7033
strýc	-11.7033
pozval	-11.7033
zpronevěřil	-11.7033
rozpálil	-11.7034
abdiáš	-11.7034
maličký	-11.7035
přikrývá	-11.7038
vzešl	-11.7039
potěšil	-11.704
posílám	-11.7041
neplodn	-11.7043
naleznete	-11.7043
propusť	-11.7043
navracoval	-11.7043
odepřel	-11.7044
umyl	-11.7047
skop	-11.7048
ulekl	-11.7051
vztažen	-11.7051
ukaž	-11.7051
prsten	-11.7052
přesnic	-11.7052
zastavil	-11.7054
setření	-11.7056
pověděv	-11.7058
shlédl	-11.7058
bloudil	-11.7059
ustavično	-11.706
gor	-11.7061
zatvrdil	-11.7064
nevěřil	-11.7065
osadil	-11.7067
modlte	-11.7068
zradoval	-11.7069
hospod	-11.7069
mluvíval	-11.707
ukazuje	-11.707
het	-11.7077
milostivé	-11.708
vzdělán	-11.7081
otevřené	-11.7083
zdržel	-11.709
vdově	-11.7095
)	-11.7098
spravedlivě	-11.7103
hlin	-11.7104
sama	-11.7104
činíval	-11.7105
nevíš	-11.711
zamiloval	-11.7111
vězně	-11.7114
sšikoval	-11.712
mouřenín	-11.7126
vysoko	-11.7126
safanov	-11.7129
oddělen	-11.7132
políbil	-11.7133
zákoníků	-11.7142
píše	-11.7145
přikrytí	-11.7163
šetř	-11.7166
nevěřící	-11.7169
bída	-11.7171
ptác	-11.7185
přídržel	-11.7191
ammonitským	-11.7195
znají	-11.7197
syrským	-11.7201
vezmete	-11.7202
porodí	-11.7202
spasitel	-11.7204
vyj	-11.7205
agar	-11.7209
ustanoví	-11.7214
vedou	-11.7217
užíval	-11.722
čtvrt	-11.722
hřiv	-11.7222
svázal	-11.7226
hojný	-11.7242
opatrný	-11.7248
vzděla	-11.7251
bíl	-11.7263
církví	-11.7267
amaz	-11.7276
obětuj	-11.7276
jeli	-11.7292
sstup	-11.7293
trva	-11.7294
bláznů	-11.7301
pomáha	-11.7336
psa	-11.7351
her	-11.7351
pahrb	-11.7355
hur	-11.7357
joziáš	-11.7359
chlubi	-11.737
vidín	-11.7391
modlí	-11.74
ejší	-11.7407
pohr	-11.7412
poznán	-11.7426
ezdráš	-11.7434
zrnat	-11.7436
mel	-11.7437
uslyševš	-11.7441
obřezán	-11.7451
časů	-11.7464
loupí	-11.7464
shromážděn	-11.7468
zkaz	-11.7471
tovaryši	-11.7471
rodil	-11.7471
vodá	-11.7472
vnesl	-11.748
doufám	-11.7485
vynes	-11.7488
seď	-11.75
přímé	-11.7504
vystaven	-11.7508
ití	-11.7511
povstali	-11.7517
zdvih	-11.752
plň	-11.7521
dobrořeč	-11.753
stání	-11.7533
huben	-11.7534
rostlo	-11.7537
smilnil	-11.7544
židovské	-11.7545
ohavn	-11.7548
dobrotiv	-11.7554
rozpomen	-11.7557
braň	-11.7557
2	-11.7558
5	-11.7558
cizozeme	-11.7558
pokropí	-11.7558
ukřižova	-11.7558
obtížen	-11.7558
porážk	-11.7558
opojn	-11.7558
vyleji	-11.7558
přihodilo	-11.7558
uložené	-11.7558
koláč	-11.7558
nazývá	-11.7558
zarmoutil	-11.7558
nazýva	-11.7558
plece	-11.7558
chvíli	-11.7558
efod	-11.7558
vyzdvihne	-11.7558
vyučující	-11.7558
neučiní	-11.7558
obležen	-11.7558
vzdálí	-11.7559
páší	-11.7559
nešlechetné	-11.7559
macedoni	-11.7559
podměstí	-11.7559
klesl	-11.7559
libánské	-11.756
přicházejí	-11.756
posvětí	-11.7561
hospodář	-11.7561
musejí	-11.7561
blízký	-11.7562
viduc	-11.7562
rouše	-11.7563
vydával	-11.7564
vyvodí	-11.7564
neodpustí	-11.7565
narození	-11.7566
potop	-11.7569
danielov	-11.7576
lstivě	-11.7577
oupě	-11.7579
zapálil	-11.7586
výborn	-11.7592
zlou	-11.7596
oslice	-11.76
svodí	-11.7601
řemesln	-11.7602
miluješ	-11.7607
osly	-11.7608
nezahynul	-11.7609
rozbil	-11.7616
ssužoval	-11.7626
spravoval	-11.7627
oblakové	-11.7631
kop	-11.7635
podobno	-11.7637
všedš	-11.7649
vozu	-11.7652
nosi	-11.766
sin	-11.7664
jíž	-11.7665
zemře	-11.7676
střech	-11.7682
cele	-11.77
trval	-11.7711
mrtvým	-11.7719
převrácený	-11.7728
vyuč	-11.7731
pů	-11.7732
opustivš	-11.7736
psání	-11.7749
očekávám	-11.775
běž	-11.7751
plnit	-11.7752
tajné	-11.7761
břemene	-11.7774
činící	-11.7775
povím	-11.7777
díž	-11.7778
učini	-11.7781
uriáš	-11.7793
nabral	-11.7797
cházení	-11.7799
troubi	-11.7804
podíl	-11.781
pokrmů	-11.7842
zbořen	-11.7843
takovým	-11.7847
lat	-11.7848
nesen	-11.7861
neuzří	-11.7861
amon	-11.7867
joziášov	-11.7869
ujme	-11.7872
lili	-11.7872
samuele	-11.7875
dav	-11.7886
navrátíš	-11.7889
jejími	-11.7891
užíva	-11.7899
stůj	-11.7995
slav	-11.7998
zorobábel	-11.8009
zajal	-11.8024
touž	-11.8026
slavn	-11.8029
židovsk	-11.8035
pouštěl	-11.8039
říkaj	-11.8047
oron	-11.8048
činěn	-11.8049
potěšen	-11.8053
neftalímov	-11.8054
pojm	-11.8071
oslic	-11.8071
jší	-11.8072
trápen	-11.8077
nasytí	-11.8094
amri	-11.8096
smilní	-11.8098
příbuzný	-11.8102
melch	-11.8107
ters	-11.8108
pochyb	-11.8108
šlechetn	-11.811
kopal	-11.8111
smýšle	-11.8112
kaldej	-11.8113
svegruš	-11.8113
třidcát	-11.8113
antiochi	-11.8113
bedliv	-11.8113
blýskání	-11.8113
dlouhé	-11.8113
dvojnásobn	-11.8113
hlubin	-11.8113
pohoršení	-11.8113
rozptýlil	-11.8113
kariatjeharim	-11.8113
nesčísln	-11.8113
pancíř	-11.8113
tresce	-11.8113
kadění	-11.8113
ocas	-11.8113
přítrž	-11.8114
oplývající	-11.8114
dobrodin	-11.8114
posmívá	-11.8114
chloub	-11.8114
lakomství	-11.8114
násilník	-11.8114
otevr	-11.8114
jalovic	-11.8114
koží	-11.8114
sníh	-11.8114
reptal	-11.8114
zapálí	-11.8114
ryzí	-11.8115
přikrýval	-11.8115
propuštěn	-11.8115
bél	-11.8116
jednomyslně	-11.812
hořící	-11.8121
vstoupiv	-11.8122
koupí	-11.8122
následoval	-11.8123
vnuk	-11.8123
vysvoboditel	-11.8125
rabb	-11.8127
telat	-11.8127
přicházející	-11.8136
zůstala	-11.8138
štípil	-11.814
nerozuměl	-11.814
hořel	-11.814
seker	-11.8144
vůdcové	-11.8147
nechci	-11.8151
okolní	-11.8152
vykonám	-11.8152
vezl	-11.8154
íkol	-11.8154
zemdlen	-11.8155
vyplní	-11.8155
zahubil	-11.8155
nesluší	-11.8158
sypal	-11.8162
jehoram	-11.8163
zprotivil	-11.8165
vstupoval	-11.8167
předpověděl	-11.8175
těžkost	-11.8177
posvěcuj	-11.8179
sochot	-11.818
přítelkyn	-11.818
prosí	-11.8182
vsadil	-11.8184
zachováva	-11.8191
žádej	-11.8194
můžete	-11.8196
odděl	-11.8197
onen	-11.82
odcházel	-11.82
svítil	-11.8202
raněn	-11.8211
neostříhal	-11.8215
táhni	-11.8222
postí	-11.8225
věřit	-11.8234
dělán	-11.8234
dla	-11.8234
obýval	-11.8239
hrst	-11.8245
vykonáva	-11.8256
patrn	-11.8258
počínal	-11.8259
desk	-11.8268
vracel	-11.8274
měřil	-11.8278
neobrátil	-11.8279
vytrhne	-11.8281
křt	-11.83
užitečné	-11.8306
zpurný	-11.8316
pokoušel	-11.8323
nebudeme	-11.8326
převrácené	-11.8348
sále	-11.8355
abramov	-11.8359
gerson	-11.8364
jitr	-11.8366
opanoval	-11.8374
viděv	-11.8388
nenavrátí	-11.8402
pada	-11.8409
chován	-11.8412
hleďte	-11.8412
stý	-11.8422
učen	-11.8423
rce	-11.8424
ostá	-11.8444
sedechiáše	-11.8455
čern	-11.846
zápalů	-11.8463
ejský	-11.8469
lovi	-11.847
přistup	-11.8478
lai	-11.8491
přikryt	-11.8493
vyvolen	-11.8494
stávali	-11.8496
řemeslník	-11.8496
svítí	-11.8527
sklad	-11.8533
víc	-11.8534
užívá	-11.8542
upřímě	-11.8553
rozdíln	-11.8553
chlub	-11.8558
žně	-11.8564
skláně	-11.857
rozumějí	-11.8577
mlčel	-11.858
rozdíl	-11.8585
joziáše	-11.8588
zdvihn	-11.8593
fáres	-11.8599
prudk	-11.86
šedesáti	-11.8609
bláznivý	-11.8614
správc	-11.8617
snáše	-11.8624
spá	-11.8626
děvka	-11.8632
panoval	-11.8632
obnov	-11.8645
eliášov	-11.8649
ostí	-11.865
lehl	-11.8653
kazil	-11.8655
ďáblů	-11.8657
nství	-11.8669
nský	-11.8683
nevzal	-11.8683
žízni	-11.8688
zlá	-11.869
vyjí	-11.8693
sáb	-11.8694
enan	-11.8696
skon	-11.8696
čerstv	-11.8698
patřil	-11.8701
oréb	-11.8701
duchů	-11.8701
udeř	-11.8701
jebuzejské	-11.8702
odvrať	-11.8702
pomazaný	-11.8702
pospíšil	-11.8702
publikán	-11.8702
vykupitel	-11.8702
vymítá	-11.8702
ohyzdn	-11.8702
prospěch	-11.8702
koňů	-11.8702
kované	-11.8702
lhář	-11.8702
pospěš	-11.8702
aroer	-11.8702
svlak	-11.8702
prokletí	-11.8702
uziel	-11.8702
galilejské	-11.8702
kotlík	-11.8702
vtipn	-11.8702
předložil	-11.8702
vojensk	-11.8702
vykládá	-11.8702
nevinno	-11.8702
vřed	-11.8703
hustý	-11.8703
azariáše	-11.8703
přikaž	-11.8703
prospěj	-11.8703
panství	-11.8703
mirr	-11.8703
žízní	-11.8703
hliněn	-11.8704
ošklivost	-11.8704
rut	-11.8704
slitin	-11.8704
třtin	-11.8705
mocnost	-11.8706
jděme	-11.8706
vylévá	-11.8706
zkormoucen	-11.8707
reptá	-11.8709
atali	-11.8709
eliab	-11.871
strážné	-11.8711
řvá	-11.8711
množ	-11.8711
nemůžeme	-11.8714
odejmeš	-11.8715
tloukl	-11.8715
elisam	-11.8717
sbor	-11.8718
neostojí	-11.872
zsilil	-11.8721
plnost	-11.8724
neobřízk	-11.8725
svázán	-11.8727
vída	-11.8729
tým	-11.873
farna	-11.8734
vycházející	-11.8735
proklaté	-11.8737
rozmnožuje	-11.8742
jist	-11.8743
přines	-11.8743
neuzříte	-11.8743
strd	-11.8748
otevřev	-11.8749
tmě	-11.8752
povstanou	-11.8754
očekávání	-11.8754
komůrk	-11.8754
kropil	-11.8754
spatří	-11.876
koř	-11.8764
běhl	-11.8765
pokojně	-11.8766
nezabije	-11.8766
popatřil	-11.8767
lituj	-11.877
azael	-11.8778
loupil	-11.8779
navrátiv	-11.8781
udělán	-11.88
neumře	-11.8811
chytil	-11.8818
naprost	-11.8828
zahanbení	-11.8833
chudob	-11.8835
adad	-11.8838
zkazím	-11.8844
davidovým	-11.8846
nesloužil	-11.8846
jákobe	-11.8853
pozor	-11.8855
stavíš	-11.8855
vrátný	-11.8863
kopá	-11.8867
srn	-11.8868
třel	-11.8897
pozdvihuj	-11.8899
posmíval	-11.8901
neoznámil	-11.8908
veřejí	-11.8923
berl	-11.8924
strojen	-11.8932
oslů	-11.8941
viděly	-11.8946
křiv	-11.8974
známo	-11.8974
dub	-11.8984
nábot	-11.8988
řeza	-11.9005
strojí	-11.9005
syri	-11.901
prsí	-11.902
pijí	-11.9036
vidoucí	-11.9037
marn	-11.9051
abimelechov	-11.9054
žeň	-11.9066
dělník	-11.9068
ctít	-11.907
bojuje	-11.9071
lvov	-11.9088
nešlechetní	-11.909
par	-11.9092
chor	-11.9097
velic	-11.9106
hřešil	-11.9112
otcov	-11.9122
kterému	-11.9123
křič	-11.9124
všelikým	-11.9125
tajn	-11.9127
císař	-11.9128
přináše	-11.913
aronový	-11.9131
zlí	-11.9134
přídrže	-11.9143
bedrá	-11.9159
oga	-11.9177
něko	-11.9185
daniele	-11.9194
stráže	-11.9199
připraven	-11.9203
žáda	-11.921
náman	-11.9214
mardocheov	-11.9217
složí	-11.9218
kříd	-11.9229
panovali	-11.9238
ref	-11.924
samém	-11.925
zkušen	-11.9251
joel	-11.9255
porod	-11.9257
palc	-11.9284
podal	-11.9284
rati	-11.9284
manasse	-11.9285
prázdné	-11.9288
mokrý	-11.9292
dřív	-11.9292
pastýřů	-11.9292
věříte	-11.9303
hrnčíř	-11.9305
razí	-11.9314
vystaví	-11.9315
hlubo	-11.9319
pohřb	-11.9323
zastav	-11.9323
nalož	-11.9323
sladk	-11.9324
aree	-11.9324
zachvát	-11.9325
čistot	-11.9326
svitá	-11.9327
eliasib	-11.9327
kancléř	-11.9327
nařídil	-11.9327
nájemník	-11.9327
soukrom	-11.9327
starodávna	-11.9327
vražd	-11.9327
žádná	-11.9327
aminadab	-11.9327
laskav	-11.9327
potká	-11.9327
vysvobozuje	-11.9327
zřízen	-11.9327
špehéř	-11.9327
hermon	-11.9327
mládenče	-11.9327
vzdálil	-11.9327
zatmí	-11.9327
astarot	-11.9327
barvený	-11.9327
navracuje	-11.9327
odkryt	-11.9327
získal	-11.9327
jmění	-11.9327
velebnost	-11.9327
hřeb	-11.9327
takoví	-11.9327
amariáš	-11.9327
vynáší	-11.9327
neodkryje	-11.9327
postižen	-11.9327
jair	-11.9327
počíta	-11.9327
koltr	-11.9328
násilí	-11.9328
náklad	-11.9328
zachvátil	-11.9328
tesař	-11.9329
uposlechne	-11.9329
proměnil	-11.9329
odplatil	-11.933
vrátí	-11.9331
popudil	-11.9332
třetin	-11.9333
kamenné	-11.9333
padají	-11.9333
přinášejí	-11.9333
vykopal	-11.9334
umru	-11.9334
podnož	-11.9334
šlapa	-11.9336
kraluje	-11.9338
přistoupí	-11.9342
přepravil	-11.9343
utec	-11.9343
kananejsk	-11.9344
lysin	-11.9344
stvořitel	-11.9348
představen	-11.9349
záva	-11.9351
zkormoutil	-11.9352
opouští	-11.9352
přilož	-11.9355
obrát	-11.9359
přešel	-11.9361
tár	-11.9368
svobodné	-11.9373
bránil	-11.9376
put	-11.9379
arab	-11.938
napiš	-11.9383
odtrhl	-11.9384
zavedl	-11.9385
zabijí	-11.9386
čistým	-11.9388
machir	-11.9395
věřte	-11.9397
vyznáva	-11.9397
suďte	-11.9398
zdržuje	-11.9399
zachova	-11.94
nění	-11.9407
tekou	-11.9407
oblibuj	-11.9413
slouže	-11.9414
zjímal	-11.942
pokladů	-11.9422
bezbožným	-11.9429
jonatan	-11.9435
vrací	-11.9437
šelma	-11.9438
dobýval	-11.9441
hříšní	-11.9443
of	-11.9447
hetejský	-11.9448
nalezn	-11.9459
protiví	-11.946
vytrhnou	-11.9464
dopouští	-11.9469
bezbožníků	-11.9475
otevřen	-11.9477
mdlé	-11.9478
rodičk	-11.9479
vodí	-11.9484
chopil	-11.9484
odejd	-11.9492
jitře	-11.9494
žni	-11.9498
popatř	-11.9507
cizoložn	-11.9519
síb	-11.9519
vdova	-11.9521
hněvá	-11.9525
nahot	-11.9527
kaldejským	-11.9528
dokoná	-11.9533
domníval	-11.9534
judsk	-11.9536
ostojí	-11.9537
azova	-11.9542
ziáš	-11.9543
pavlač	-11.9546
nepravil	-11.9549
přítomn	-11.9561
pořádk	-11.957
uzřím	-11.9572
roboámov	-11.9573
jedenáct	-11.958
mez	-11.9593
ctil	-11.9597
oddělí	-11.9598
ustav	-11.96
marné	-11.9614
smilnila	-11.9616
hleď	-11.962
azar	-11.9621
smrteln	-11.9626
sed	-11.9633
iášov	-11.9633
stávají	-11.9638
hnal	-11.9641
panna	-11.9645
chvále	-11.9651
rode	-11.9664
vázal	-11.9668
riáš	-11.9676
hroz	-11.9688
najal	-11.9705
fer	-11.9717
písk	-11.9717
střela	-11.9723
obleče	-11.9724
drabant	-11.9728
zdrav	-11.9736
rali	-11.9751
pytl	-11.9755
lejn	-11.9763
služební	-11.9767
vinař	-11.9769
pij	-11.977
rozepř	-11.9773
vědí	-11.9789
dřevěn	-11.9794
obé	-11.9807
itamar	-11.9822
pozdvihš	-11.9828
modle	-11.9829
přijíma	-11.9835
zabulonov	-11.9841
přináleže	-11.9848
slušn	-11.9849
neposlal	-11.9856
vstoupi	-11.9857
zelen	-11.9862
přistoupi	-11.9862
oslavuj	-11.9868
síní	-11.9872
nepřijal	-11.9876
očekávají	-11.9877
povědě	-11.988
dad	-11.9882
saraiáš	-11.9889
hazael	-11.9891
shromáždiv	-11.9895
falešn	-11.9896
neučiním	-11.9897
hledám	-11.99
vcházejí	-11.9903
zpíval	-11.9907
kázání	-11.9914
nesnáz	-11.9914
niniv	-11.9917
slýcha	-11.9921
litoval	-11.9924
radují	-11.9928
vládn	-11.9937
netaniáš	-11.9948
těžké	-11.9948
mordován	-11.9959
řeku	-11.9961
přejde	-11.997
možné	-11.9973
bojte	-11.9975
filistinsk	-11.9982
vytrh	-11.9984
ukně	-11.9986
dělil	-11.9989
vydej	-11.9992
trpěliv	-11.9992
užasn	-11.9993
podoben	-11.9993
chvacuj	-11.9993
porušiteln	-11.9993
rozptyl	-11.9993
sicelech	-11.9993
achimaas	-11.9993
artaxerx	-11.9993
chasabiáš	-11.9993
chytrost	-11.9993
gessur	-11.9993
jonadab	-11.9993
kanán	-11.9993
mifibozet	-11.9993
navrácen	-11.9993
nebuzardan	-11.9993
očkovat	-11.9993
prozpěvování	-11.9993
přemyšlování	-11.9993
sidrach	-11.9993
cymbál	-11.9993
kněžské	-11.9993
sedmnáct	-11.9993
úraz	-11.9993
elifaz	-11.9993
malkiáš	-11.9993
náležit	-11.9993
jechiel	-11.9993
škřip	-11.9993
milovní	-11.9993
oslátk	-11.9993
tchán	-11.9993
jefon	-11.9993
odměřen	-11.9993
olivetsk	-11.9994
znamenan	-11.9994
eliezer	-11.9994
žernov	-11.9994
zapřel	-11.9994
zveleben	-11.9994
ostrý	-11.9994
gázer	-11.9994
oráč	-11.9994
přestěhoval	-11.9994
velikonoční	-11.9994
větří	-11.9994
pominou	-11.9994
třimecítm	-11.9994
výstřel	-11.9994
cejl	-11.9995
abiu	-11.9995
oblac	-11.9995
mahan	-11.9995
zavržen	-11.9997
zůstávající	-11.9997
vyťat	-11.9997
téměř	-11.9997
nošen	-11.9998
mizach	-12
žádají	-12
jordánské	-12.0001
podvrátil	-12.0002
vydávají	-12.0002
oct	-12.0004
hal	-12.0004
povýšil	-12.0004
přímo	-12.0005
pták	-12.0006
vypálil	-12.0007
zbořil	-12.0009
vyžene	-12.001
rozuměj	-12.0011
kvělte	-12.0012
mladic	-12.0013
povýšen	-12.0016
dých	-12.0016
přirození	-12.0016
pomocník	-12.0016
gál	-12.0016
polámal	-12.0017
nevinné	-12.002
naplni	-12.0021
zavolav	-12.0022
zvelebil	-12.0023
ztratil	-12.003
válečn	-12.003
spomocník	-12.0036
vyry	-12.0036
odchází	-12.0036
srozumě	-12.0037
skrývá	-12.0042
milosrdný	-12.0042
jícím	-12.0045
cvičení	-12.0048
hanbě	-12.0048
přineste	-12.0048
přisaha	-12.005
oblíbil	-12.005
krmil	-12.0052
obnaž	-12.0055
achikamov	-12.0058
zůstaňte	-12.0059
dopouštěj	-12.006
betan	-12.0065
sváza	-12.007
bets	-12.0074
fat	-12.0074
zruš	-12.0079
zbitým	-12.0091
soudců	-12.0092
počne	-12.0099
hojn	-12.0105
hrazené	-12.0108
umělý	-12.0111
jin	-12.0114
podolk	-12.0114
lotr	-12.0114
sádochov	-12.0127
dor	-12.0131
drob	-12.0141
ochotn	-12.0148
strašil	-12.0149
choďte	-12.0161
císaři	-12.0161
počítá	-12.0164
nenalez	-12.0167
siln	-12.0175
izacharov	-12.0179
zpívání	-12.0179
rodič	-12.0185
pokudž	-12.019
lněný	-12.0194
učinitel	-12.0194
sedechiášov	-12.0196
vzácný	-12.0197
lze	-12.0198
vstane	-12.0199
vzdělává	-12.0203
obveseluj	-12.0209
moábov	-12.0214
soused	-12.0215
poct	-12.0238
jezdí	-12.0247
azy	-12.0252
psané	-12.0263
slavný	-12.0274
přestá	-12.0277
nebeským	-12.0287
pyt	-12.0292
spoj	-12.0294
dobrot	-12.0295
lud	-12.0297
temnosti	-12.0309
zavře	-12.031
neopouštěj	-12.0318
zpěváků	-12.0329
napil	-12.0331
popouze	-12.0344
tříd	-12.0344
nemluví	-12.0351
slovoutn	-12.0352
drobt	-12.0355
chtít	-12.036
madianský	-12.0369
jeruzalémským	-12.0381
klek	-12.0382
voze	-12.0386
lil	-12.0394
obracel	-12.0398
rat	-12.04
potřebuje	-12.0413
posvěcené	-12.0414
ičk	-12.0415
zvěstuj	-12.042
zanechán	-12.0422
přijm	-12.0423
zvěři	-12.0427
založen	-12.0461
smí	-12.0462
měř	-12.0493
stavěj	-12.0496
vítězí	-12.0507
křiku	-12.0515
třás	-12.0516
čuj	-12.0522
počína	-12.0523
přecháze	-12.0538
straši	-12.0541
trápi	-12.0553
oltářů	-12.056
způsobí	-12.0561
mag	-12.0567
elon	-12.0576
gar	-12.0577
čepi	-12.0587
eleazarov	-12.0595
lábanov	-12.0603
dvoje	-12.0614
neslyší	-12.0614
áře	-12.0614
posměch	-12.0624
tobiáš	-12.063
suď	-12.0636
přikáž	-12.0652
zdech	-12.0668
skryto	-12.0676
jdete	-12.0682
vlastním	-12.0689
vysvobodit	-12.0693
poslouchá	-12.0697
dobytče	-12.0698
hled	-12.0701
koupen	-12.0701
praveno	-12.0702
izar	-12.0705
poskvrn	-12.0705
anatot	-12.0707
8	-12.0707
joppe	-12.0708
přemyšluj	-12.0708
selemiáš	-12.0708
dlouhý	-12.0708
klénot	-12.0708
kroužk	-12.0708
ledvink	-12.0708
láhvic	-12.0708
poblouzení	-12.0708
požehnej	-12.0708
rozsíval	-12.0708
sstaral	-12.0708
vlnobití	-12.0708
vyplacen	-12.0708
zošklivil	-12.0708
řetízk	-12.0708
bdění	-12.0708
sklonil	-12.0708
pekach	-12.0708
pečuje	-12.0708
moholi	-12.0708
srp	-12.0708
přioděl	-12.0708
jozabad	-12.0708
paschur	-12.0708
zvolil	-12.0708
olivoví	-12.0708
zilla	-12.0708
prvorozenství	-12.0708
barák	-12.0708
efron	-12.0708
medenic	-12.0708
kazatel	-12.0708
skládal	-12.0708
zmíta	-12.0708
odeslal	-12.0708
názon	-12.0709
zavírá	-12.0709
sežrán	-12.0709
nižší	-12.0709
domácí	-12.0709
hladovit	-12.0709
pomíj	-12.0709
zžírají	-12.0709
bratř	-12.0709
strhl	-12.0709
vrchnost	-12.0709
uschl	-12.071
předěsil	-12.0711
volající	-12.0712
rozmáhal	-12.0713
zbožnost	-12.0713
melech	-12.0713
lazar	-12.0713
malomocný	-12.0713
rohob	-12.0713
bouří	-12.0714
hebrejský	-12.0715
kadíval	-12.0716
ulam	-12.0716
úrodné	-12.0717
způsobný	-12.0717
odebral	-12.0717
zif	-12.0718
mizí	-12.0719
samma	-12.0719
povědí	-12.0719
utíkají	-12.072
zmocní	-12.072
nevcházej	-12.0722
oklamal	-12.0723
postil	-12.0723
vyčten	-12.0726
neobřezanc	-12.073
povinen	-12.0732
amos	-12.0732
prostrann	-12.0733
přemohl	-12.0733
přisahá	-12.0733
silnic	-12.0735
silným	-12.0735
přijme	-12.0735
nenalézá	-12.0736
domlouval	-12.0737
nenechá	-12.0738
pevné	-12.0739
nesoucí	-12.074
zmordován	-12.0744
nepravý	-12.0745
vichřice	-12.0746
žín	-12.0749
teman	-12.075
vyhubil	-12.0751
zbořenin	-12.0755
různice	-12.0755
jakéž	-12.0758
zpustn	-12.0758
nevyhnal	-12.0759
dotýkal	-12.0761
příhodný	-12.0762
hání	-12.0763
utrhal	-12.0766
kristovo	-12.0768
pánů	-12.0776
umyvadl	-12.0776
vonným	-12.0779
posilnil	-12.0781
věrné	-12.0786
posměchu	-12.0791
hrne	-12.0797
slitoval	-12.0802
dochází	-12.0805
statečn	-12.0807
pojďte	-12.0816
zemským	-12.0817
klín	-12.0821
sab	-12.0825
závisti	-12.083
ved	-12.0831
míchov	-12.0831
uzdraví	-12.0842
žíně	-12.0844
lživé	-12.0845
jedutunov	-12.0845
zlořečí	-12.0849
záre	-12.0856
obřezání	-12.0856
hoří	-12.086
zvláštní	-12.0868
lichv	-12.0873
zapomíná	-12.0887
pracuje	-12.0903
odpovědí	-12.0905
mlčeli	-12.0912
bezbožn	-12.0912
vrace	-12.0923
dávna	-12.093
mrska	-12.0931
chlubil	-12.094
svadb	-12.0956
bydlím	-12.0959
stez	-12.0967
posilňte	-12.0969
vyvyšuj	-12.097
činíme	-12.0973
styděl	-12.098
mlad	-12.099
ustanov	-12.0993
vzývají	-12.1012
kvašené	-12.1014
obraťte	-12.1019
nemoudrost	-12.1021
střelc	-12.1025
stupte	-12.1033
est	-12.104
rozličným	-12.1045
stromů	-12.1048
dobrořečí	-12.1065
potr	-12.1078
proměnn	-12.1084
nechodí	-12.1093
připraví	-12.11
dim	-12.1102
říman	-12.1112
rameno	-12.1131
zubů	-12.1132
jedenácté	-12.1132
pout	-12.1148
vadl	-12.1153
mohu	-12.1154
zejde	-12.1157
dáván	-12.1162
poslouchají	-12.1165
tvrdé	-12.1166
nevyjde	-12.1175
napsan	-12.1186
přítom	-12.1193
žádám	-12.1193
přísně	-12.1196
bezpečn	-12.1198
jobov	-12.1199
jable	-12.1201
jízd	-12.1204
píte	-12.1205
východním	-12.1207
svaz	-12.1212
prosíme	-12.1213
hadač	-12.1215
hrá	-12.1225
vyvrh	-12.1238
nenávidě	-12.1261
zabij	-12.1275
zelený	-12.1282
rozděl	-12.1294
uvrh	-12.13
velikost	-12.1305
rudém	-12.1307
zboř	-12.1311
učiniv	-12.1317
krajiná	-12.1321
vstávaj	-12.1326
držící	-12.133
krav	-12.1332
misa	-12.1352
účastní	-12.1357
nečistým	-12.1359
ochoziášov	-12.136
vyměř	-12.1382
náchor	-12.1385
šlak	-12.1386
elkán	-12.1389
táza	-12.1394
nábal	-12.1404
vložen	-12.1405
krývá	-12.1411
přepásan	-12.1412
přitáhn	-12.1417
hasne	-12.142
zacháze	-12.1428
daří	-12.1438
přitáh	-12.1441
vadil	-12.1442
kazí	-12.1444
dotkn	-12.1444
elizeov	-12.1451
trám	-12.1453
hýba	-12.1455
velebil	-12.1455
libuje	-12.1457
zachariášov	-12.146
sprostn	-12.1462
zůřiv	-12.1469
sečte	-12.1473
házejí	-12.1476
vražedln	-12.1477
0	-12.1477
6	-12.1477
aškalon	-12.1477
chřípí	-12.1477
dabir	-12.1477
eglon	-12.1477
hovádk	-12.1477
jehiel	-12.1477
jezevčí	-12.1477
jmín	-12.1477
lvíčat	-12.1477
mageddo	-12.1477
možnost	-12.1477
mřežování	-12.1477
nejsvětější	-12.1477
nejvýbornější	-12.1477
oblec	-12.1477
ondřej	-12.1477
přestěhován	-12.1477
rozhojnil	-12.1477
salatiel	-12.1477
senacherib	-12.1477
snažnost	-12.1477
utrpení	-12.1477
vystříhej	-12.1477
zesnul	-12.1477
ztratí	-12.1477
řeřavé	-12.1477
bárk	-12.1477
nejčistší	-12.1477
poskvrňuj	-12.1477
připojil	-12.1477
směsic	-12.1477
zapečetěn	-12.1477
očišťuje	-12.1477
zapomněl	-12.1477
lvíče	-12.1477
pochodně	-12.1477
povědom	-12.1477
přepaš	-12.1477
vytržen	-12.1477
trápí	-12.1477
uložený	-12.1477
benaiáš	-12.1477
třesou	-12.1477
rozhněvav	-12.1477
refaim	-12.1477
hrdličk	-12.1477
pečen	-12.1477
pohrdají	-12.1477
přibližuje	-12.1477
agag	-12.1477
slám	-12.1477
lékařství	-12.1477
bděte	-12.1477
horlení	-12.1477
úmysl	-12.1478
užasnutí	-12.1478
kolík	-12.1478
zjevuj	-12.1478
vyvržen	-12.1478
sytost	-12.1478
almužn	-12.1478
tesané	-12.1478
nejpřednější	-12.1478
uzdravuj	-12.1478
šedin	-12.1478
pokládá	-12.1478
napomenut	-12.1478
fest	-12.1479
poručení	-12.1479
zemrou	-12.1479
péč	-12.1479
přibližoval	-12.1479
rafi	-12.1479
gin	-12.148
vyvýšil	-12.148
vybraný	-12.1481
iddo	-12.1482
kohout	-12.1482
nemluvňátk	-12.1482
škodliv	-12.1483
nébo	-12.1484
pamětné	-12.1484
stihají	-12.1484
ohar	-12.1484
oněch	-12.1485
slonov	-12.1486
jeter	-12.1486
užívají	-12.1486
suše	-12.1487
átk	-12.1488
obéd	-12.1489
zrůst	-12.1489
hledající	-12.149
skrej	-12.149
berot	-12.149
čekal	-12.1491
probuď	-12.1492
porazí	-12.1496
pozdravují	-12.1496
tichost	-12.1496
vztažené	-12.1497
vytrhuje	-12.1497
vyschl	-12.1498
vyvýšenost	-12.1498
hřímání	-12.1499
pohuben	-12.1499
vyvede	-12.15
sime	-12.15
slané	-12.1502
jídl	-12.1502
samým	-12.1504
hrudí	-12.1504
chodící	-12.1505
zatroubil	-12.1505
vyvolený	-12.1506
sbírat	-12.1506
slušné	-12.1509
zavolej	-12.1509
přitáhnou	-12.1509
cizoložstv	-12.151
potlačen	-12.1511
přesný	-12.1511
jakáž	-12.1514
jedenácte	-12.1517
cenez	-12.1519
říkával	-12.1519
perský	-12.152
sehltil	-12.152
samařský	-12.1521
zár	-12.1522
vztahuj	-12.1526
požehnám	-12.1528
sstupoval	-12.1529
mocně	-12.153
vybral	-12.1532
uzdravoval	-12.1532
spomoz	-12.1533
snědl	-12.1533
příští	-12.1533
stojím	-12.1537
seonov	-12.1542
dokonalost	-12.1542
široké	-12.1544
utrhá	-12.1547
hral	-12.1559
dýl	-12.1563
potomků	-12.1565
vrabce	-12.1565
bojuj	-12.1568
řezb	-12.1573
povrhl	-12.1573
odpovídal	-12.1577
patři	-12.1584
hloup	-12.1587
lesní	-12.1599
nemající	-12.1601
rmouti	-12.1601
oznamte	-12.1608
pravte	-12.1613
zvíře	-12.1618
veselte	-12.1619
vztáh	-12.1621
milujte	-12.1621
mordoval	-12.1623
nevešl	-12.1625
bojící	-12.1627
kládej	-12.1627
drahým	-12.1628
vztáhnu	-12.1641
připravte	-12.1644
hinn	-12.1651
nehřešil	-12.1654
kálefov	-12.1657
bydlejí	-12.1662
nebuďte	-12.1663
poškvrňoval	-12.1668
nevěd	-12.1669
schází	-12.1674
vesnice	-12.1677
šetřte	-12.1679
nimž	-12.1681
vzrostl	-12.1685
ibla	-12.1686
štípí	-12.1691
zrnatý	-12.1692
oceliv	-12.1702
přijmi	-12.1717
vyvolené	-12.173
přistupují	-12.1734
nač	-12.1747
jonatov	-12.175
vysokým	-12.1751
zběhl	-12.1772
sot	-12.1778
nešlechetník	-12.178
odtrhn	-12.1794
prodával	-12.18
rozváza	-12.1804
sirob	-12.1805
letěl	-12.1812
dostane	-12.1833
nedám	-12.1838
vyznával	-12.1853
madianským	-12.1858
valil	-12.1861
sud	-12.1867
jh	-12.1872
některém	-12.1872
těžk	-12.1879
bij	-12.1881
ježíšovo	-12.1882
vzýva	-12.1891
patro	-12.1893
prorokuje	-12.1893
falešné	-12.1898
uriáše	-12.1903
opatrn	-12.1907
nalez	-12.1922
válečný	-12.1926
bojím	-12.1931
kvílil	-12.1947
sedícím	-12.1949
zavří	-12.1976
far	-12.1984
damaš	-12.1988
znamenité	-12.1988
dědi	-12.1988
věřícím	-12.1995
šimonov	-12.201
konává	-12.2026
assyrském	-12.2029
doufal	-12.2035
zamordova	-12.2047
odívá	-12.2048
strachuj	-12.2048
stiha	-12.2059
mordova	-12.206
svědků	-12.2061
idumej	-12.2064
léha	-12.2068
honiti	-12.2073
smilni	-12.208
soužen	-12.2083
odpovídá	-12.2085
převráceně	-12.2092
říma	-12.2094
prostřední	-12.2097
pozdvihne	-12.2112
oboř	-12.2112
pozůstane	-12.2115
užitečn	-12.2122
sedmdesát	-12.2134
sešl	-12.2151
lítost	-12.2158
chutn	-12.2167
znamenit	-12.2174
povstav	-12.2175
vyleje	-12.2184
rej	-12.2186
čistí	-12.2193
plnil	-12.2196
shromáždi	-12.2199
povrh	-12.2207
efrat	-12.2207
zdržuj	-12.2216
devát	-12.2232
slýchal	-12.2236
zizar	-12.2245
achitofel	-12.2247
jednostejný	-12.2251
zlehč	-12.226
nevezme	-12.226
spě	-12.2265
kormoutil	-12.2276
bouře	-12.2287
ananiáš	-12.2289
cké	-12.2291
přívětiv	-12.23
radou	-12.2302
blíz	-12.2303
vejd	-12.2304
napsán	-12.2307
hlédal	-12.2307
lékař	-12.231
oplýv	-12.231
bodlák	-12.231
cizozemk	-12.231
jazer	-12.231
magdalén	-12.231
přisáhn	-12.231
salmon	-12.231
slunečn	-12.231
čtverhran	-12.231
agripp	-12.231
eliakim	-12.231
gomer	-12.231
hýbe	-12.231
mataniáš	-12.231
nazarét	-12.231
nejposlednější	-12.231
pečliv	-12.231
postoupil	-12.231
povinnost	-12.231
schovej	-12.231
ssouží	-12.231
sstoupiv	-12.231
tvrď	-12.231
vysvobozoval	-12.231
vzdychá	-12.231
obřezal	-12.231
osvědčuji	-12.231
hrnul	-12.231
umínil	-12.231
vypálen	-12.231
pekař	-12.231
salmun	-12.231
zbohatl	-12.231
zebah	-12.231
rytíř	-12.231
tělesné	-12.231
amalechitský	-12.231
svěřen	-12.231
frejíř	-12.231
prodlil	-12.231
ponižuje	-12.231
neposlechl	-12.231
zacpá	-12.231
blízké	-12.231
maličké	-12.231
pošlapal	-12.231
ofir	-12.231
tyrský	-12.231
lotřík	-12.231
tělesný	-12.2311
zafir	-12.2311
arbe	-12.2311
domlouvání	-12.2311
pytlík	-12.2311
cháran	-12.2311
vyplatí	-12.2311
haněl	-12.2311
štěpuj	-12.2311
barev	-12.2311
prokřikuj	-12.2311
šafář	-12.2311
popouzejíc	-12.2312
zpustl	-12.2312
povstávající	-12.2312
dedan	-12.2313
mdlý	-12.2313
obloží	-12.2313
agge	-12.2313
fet	-12.2313
pravidl	-12.2313
vzdejte	-12.2314
vykonáván	-12.2315
hříšný	-12.2315
samařské	-12.2315
ornan	-12.2316
galádské	-12.2316
povolil	-12.2317
divok	-12.2317
tluče	-12.2318
zůřivost	-12.2319
poďme	-12.232
stihá	-12.232
bezpráv	-12.2321
tažené	-12.2321
neštěstí	-12.2321
pohádk	-12.2323
vykláda	-12.2323
vyslýchá	-12.2324
srozuměli	-12.2324
dobytčete	-12.2325
pobořil	-12.2325
přiblíží	-12.2326
nahý	-12.2326
pěší	-12.2326
pravdomluvný	-12.2329
lámech	-12.233
pracuj	-12.233
horlil	-12.2331
navštívení	-12.2332
zahnal	-12.2333
obětované	-12.2334
plno	-12.2334
zvýšen	-12.2336
ženské	-12.2337
odejdou	-12.2338
úsil	-12.2338
mouřenínské	-12.2339
ýše	-12.2339
sklo	-12.2342
zjeví	-12.2343
trpící	-12.2344
zrn	-12.2345
šťastn	-12.2345
poznají	-12.2347
achai	-12.2347
pohrdal	-12.2347
obživuje	-12.2348
spasi	-12.235
posilní	-12.2351
dopouštěl	-12.2354
váze	-12.2354
pobloudil	-12.2355
přijav	-12.2357
addai	-12.2361
bubn	-12.2364
zaplet	-12.2364
lvů	-12.2365
godoliášov	-12.2365
ukazoval	-12.2365
nazov	-12.2366
nezapomínej	-12.2369
rovině	-12.2369
zamri	-12.2372
rozkoše	-12.2373
okusil	-12.2381
nepatří	-12.2382
nepřijímá	-12.2383
nahé	-12.2384
lněné	-12.2388
věde	-12.239
nedopustí	-12.2392
povstaň	-12.2393
nevztáhl	-12.2393
bále	-12.2398
učitele	-12.2399
zpát	-12.2401
rozvod	-12.2407
levítský	-12.2409
divný	-12.2412
pár	-12.2412
střeš	-12.2414
nezůstane	-12.2414
assyri	-12.2415
příbytků	-12.2428
posvěťte	-12.2432
dole	-12.2439
osel	-12.244
kdybych	-12.244
vyučuje	-12.2443
kadí	-12.2444
beniaminský	-12.2446
chválení	-12.2453
hefer	-12.2462
chval	-12.2469
klaněj	-12.2472
usadil	-12.2476
chtějí	-12.2477
dluž	-12.2477
chodím	-12.2481
galádský	-12.2483
pozdvihlo	-12.2489
popatři	-12.2493
udělají	-12.2494
vykonán	-12.2495
rudé	-12.2499
tomáš	-12.2512
herodesov	-12.2529
neužitečn	-12.2531
moudrým	-12.2546
prosi	-12.2567
nepravé	-12.2576
baan	-12.2583
snášel	-12.2592
požehnán	-12.2594
plané	-12.2599
večerní	-12.2605
svobodný	-12.2607
ohnivý	-12.2608
vztáhne	-12.2609
kupova	-12.2614
falešný	-12.2627
pozdravuj	-12.2629
dané	-12.2631
ezer	-12.2632
chuz	-12.2632
kopím	-12.2634
kamenova	-12.2634
lítostivý	-12.2636
opatrně	-12.2637
obededom	-12.2638
bin	-12.2654
mořském	-12.2657
zvláš	-12.266
válečné	-12.2662
satanov	-12.2665
godoliáše	-12.2667
sešlo	-12.2669
dřevě	-12.2689
raní	-12.273
abdenágo	-12.2731
opi	-12.2744
naříka	-12.2763
chválím	-12.2779
vážnost	-12.278
divů	-12.2784
bílý	-12.279
modlím	-12.2791
táhně	-12.2803
očekává	-12.2811
horko	-12.2818
potomní	-12.2831
prázdný	-12.2832
pouh	-12.2843
vepř	-12.2845
utvrdí	-12.2859
podstav	-12.2865
rozený	-12.2866
vídal	-12.2868
res	-12.2882
opouštějí	-12.2883
přidal	-12.2889
nasyti	-12.2913
bdí	-12.2913
brod	-12.2919
zachariáše	-12.2923
pokouše	-12.2927
připomínán	-12.2928
domníva	-12.2939
dutí	-12.2946
rozmohl	-12.2955
úředníků	-12.2956
zpívá	-12.2968
ložte	-12.297
áno	-12.2973
vzkláda	-12.298
spatřují	-12.2983
pomezím	-12.2987
mdlí	-12.2988
vypravuj	-12.2988
osmý	-12.2992
plačte	-12.3005
děve	-12.3009
mart	-12.301
prodán	-12.3018
plésal	-12.303
safan	-12.3041
socho	-12.3046
pyšné	-12.3056
zemdl	-12.3059
závist	-12.3064
červeno	-12.3071
spravedlivým	-12.3083
elaiáš	-12.3103
utíká	-12.3103
povyš	-12.3106
osvěcuje	-12.311
poslouchej	-12.3111
skládá	-12.3111
procháze	-12.3123
napomína	-12.3123
slyšíš	-12.3129
stupoval	-12.313
utěšen	-12.313
zapomen	-12.3139
odpouště	-12.314
řemesl	-12.3142
tažení	-12.3152
uchyl	-12.3156
rozmnožuj	-12.3157
vyvýšené	-12.3168
vichřic	-12.317
joach	-12.3175
poznej	-12.3179
směn	-12.3182
svědčil	-12.3188
skot	-12.3188
člověč	-12.3198
pěš	-12.3202
tučn	-12.3208
společn	-12.3216
nutil	-12.3219
kariat	-12.3219
7	-12.3219
melchisedech	-12.3219
belzebub	-12.3219
iškariotsk	-12.3219
yzop	-12.3219
zachvácen	-12.3219
dibon	-12.3219
ferezejské	-12.3219
haklík	-12.3219
holoubát	-12.3219
jebuzejský	-12.3219
konečně	-12.3219
odpočívá	-12.3219
ošemetn	-12.3219
poctivost	-12.3219
rozšířil	-12.3219
samaritán	-12.3219
tvárnost	-12.3219
vystoupil	-12.3219
vzýván	-12.3219
zabad	-12.3219
zatracen	-12.3219
zřídil	-12.3219
navracují	-12.3219
posvátn	-12.3219
chýlí	-12.3219
lačné	-12.3219
trefil	-12.3219
vlekou	-12.3219
onychin	-12.3219
ukrutní	-12.3219
upevnil	-12.3219
zbaven	-12.3219
hluboké	-12.3219
moloch	-12.3219
zpolehl	-12.3219
vyprázdní	-12.3219
rezin	-12.3219
utrhač	-12.3219
vznášel	-12.322
ebed	-12.322
skutečn	-12.322
moudřejší	-12.322
zichr	-12.322
vypravován	-12.322
spatřuje	-12.322
tvor	-12.322
žehrání	-12.322
výstup	-12.322
padš	-12.322
ukryt	-12.322
několik	-12.322
povstanu	-12.322
poselství	-12.322
padesátník	-12.322
zpořádan	-12.322
neduživ	-12.322
leniv	-12.322
nahradí	-12.3221
chanun	-12.3221
spuntoval	-12.3221
pamatoval	-12.3221
pilnost	-12.3221
zachovávej	-12.3221
probodn	-12.3221
hořejší	-12.3221
nepozůstavil	-12.3222
médský	-12.3222
přežív	-12.3222
usvadl	-12.3222
křest	-12.3222
jebuze	-12.3222
prudc	-12.3222
procítí	-12.3222
páše	-12.3223
zlatník	-12.3223
rozprostřel	-12.3223
enakov	-12.3223
alon	-12.3224
žíznivé	-12.3224
pokoušín	-12.3224
spomohl	-12.3225
rozpustil	-12.3225
pohřben	-12.3225
přinutil	-12.3225
machat	-12.3227
čelist	-12.3227
mdlob	-12.3227
věští	-12.3227
netinejský	-12.3227
rozmlouval	-12.3228
stará	-12.3228
jáfet	-12.3228
střelil	-12.323
škodil	-12.323
vrš	-12.3231
pomíjej	-12.3231
řeknu	-12.3231
réví	-12.3232
roztáhn	-12.3232
tínal	-12.3233
odpíral	-12.3233
pozdvihněte	-12.3233
osvědčuje	-12.3233
joachin	-12.3234
zabít	-12.3236
neříkej	-12.3237
odjímá	-12.3239
nakládá	-12.324
nevěrně	-12.3241
povíte	-12.3242
zadk	-12.3243
obracejí	-12.3243
rozrážel	-12.3243
jelen	-12.3244
milující	-12.3248
):	-12.325
postavuj	-12.325
osvědčil	-12.3252
upřímost	-12.3252
panují	-12.3253
eres	-12.3254
nastrojil	-12.3257
pohnou	-12.3258
přísný	-12.3259
get	-12.3262
vysvobodíš	-12.3264
sodomský	-12.3265
nechce	-12.3272
vydadí	-12.3273
píšťalk	-12.3275
odpouští	-12.3278
ammonitské	-12.3278
gog	-12.3281
jaté	-12.3283
vyučoval	-12.3287
kár	-12.329
bázně	-12.3292
zkušuje	-12.3296
kamenný	-12.3296
másl	-12.3297
osvícen	-12.3306
obrátivš	-12.3306
sbírá	-12.3307
procházel	-12.3316
líst	-12.3325
ger	-12.3328
snáze	-12.333
plačíc	-12.333
zkušení	-12.3331
utíkání	-12.3337
vydejte	-12.3338
smích	-12.3341
nastroj	-12.3341
vypravuje	-12.3347
potěšuj	-12.3349
povolání	-12.3349
potěší	-12.3353
vztáhnou	-12.3363
iknutí	-12.3364
zvěstujte	-12.3367
rozešl	-12.3367
přisahají	-12.3368
balákov	-12.3368
poseká	-12.3376
schoval	-12.3376
hádal	-12.338
dělí	-12.3384
mešká	-12.3385
začátk	-12.3387
pozdvihují	-12.3392
helkiášov	-12.3394
točí	-12.3399
křivé	-12.3399
draků	-12.34
přidám	-12.3407
podobní	-12.3416
spěšně	-12.3417
měří	-12.3421
ostříhán	-12.3425
šíř	-12.344
jmou	-12.3442
dopustí	-12.3446
michm	-12.3456
scházel	-12.3462
nebral	-12.3471
vypravují	-12.3474
faleš	-12.3477
neobřezané	-12.3479
vzácné	-12.3481
ukydan	-12.3483
bezpečné	-12.3483
žaloval	-12.3488
umělé	-12.3491
hrobů	-12.3501
raduje	-12.3504
vyda	-12.3514
nazarejs	-12.3521
lnu	-12.3526
semaiášov	-12.3533
bydle	-12.3533
dokonalé	-12.3533
pela	-12.354
zjevné	-12.3546
jímají	-12.3553
ladan	-12.3555
volává	-12.3561
kananej	-12.3563
provedl	-12.3566
jací	-12.3567
oddané	-12.3573
vyvyšova	-12.3575
násiln	-12.3575
hrnce	-12.3583
kryje	-12.3595
raim	-12.3595
mstí	-12.3599
vyhledával	-12.3605
nižádné	-12.3612
dělníků	-12.3614
štěd	-12.3629
touží	-12.3635
věrným	-12.3639
vzácn	-12.3643
ostříhám	-12.365
svárliv	-12.3652
příjemno	-12.3666
pracova	-12.3674
bijí	-12.3686
rodičů	-12.3699
zůstanete	-12.3712
vzděláva	-12.3715
kyj	-12.3721
předložen	-12.373
scháze	-12.3733
znamenitý	-12.374
vládař	-12.3745
chut	-12.375
smrtelné	-12.3751
amram	-12.376
láme	-12.3764
rlivý	-12.3767
dvanácter	-12.3776
donesl	-12.3781
sáti	-12.3826
trhá	-12.3826
hrnc	-12.3832
prorokova	-12.3834
opustiv	-12.3837
přirozen	-12.3842
kozelc	-12.3844
rodů	-12.3859
joakimov	-12.3864
protivníků	-12.3875
jakým	-12.3882
leká	-12.389
joasov	-12.3899
žal	-12.3903
strn	-12.3908
nepůjde	-12.3926
snáší	-12.3927
pan	-12.3937
dvojí	-12.3939
nevycházej	-12.394
tlačí	-12.394
hlédl	-12.3943
chudém	-12.3944
bří	-12.3954
rozpomína	-12.3971
ustanoven	-12.3979
sbír	-12.3985
mlouvá	-12.3996
živil	-12.402
drahý	-12.4022
kažte	-12.4022
odpír	-12.4025
gá	-12.4029
uchýli	-12.4033
hnou	-12.4041
vymíta	-12.4042
tovaryšů	-12.4061
gedeonov	-12.4062
nebývej	-12.4064
zahladi	-12.4069
hubi	-12.4077
navštěv	-12.4098
přiběh	-12.4103
umlk	-12.4104
achimelech	-12.4111
zavrh	-12.4115
posilni	-12.4118
ukradl	-12.4118
siro	-12.4119
koupi	-12.4121
vypůjč	-12.413
nevěr	-12.4133
milosrdn	-12.4145
rechab	-12.4156
pomoz	-12.4177
vázán	-12.4177
poslavš	-12.4183
rovné	-12.4183
chvátání	-12.4186
pytle	-12.4187
peníz	-12.4187
silil	-12.4195
nedvěd	-12.4201
slýchá	-12.4202
podol	-12.4203
říkej	-12.4204
hádk	-12.4204
těšil	-12.4205
odpovídajíc	-12.4208
obec	-12.4208
vystavě	-12.4214
shlédn	-12.4215
věrně	-12.4216
povstávají	-12.4217
plazí	-12.4218
maced	-12.4218
tessaloni	-12.4219
vzezře	-12.4219
napomínám	-12.4219
abiron	-12.4219
alžbět	-12.4219
arfaxad	-12.4219
dosáhne	-12.4219
dštil	-12.4219
elifele	-12.4219
fanuel	-12.4219
hevejské	-12.4219
nakloněn	-12.4219
netofatský	-12.4219
obláčí	-12.4219
odpočine	-12.4219
ospravedlňuje	-12.4219
pekelné	-12.4219
pohybuj	-12.4219
posluhoval	-12.4219
požřel	-12.4219
prokřikování	-12.4219
přisluhující	-12.4219
saduce	-12.4219
salfad	-12.4219
sanballat	-12.4219
ukrutnost	-12.4219
ukřižuj	-12.4219
vystoupí	-12.4219
věšťc	-12.4219
zvěstován	-12.4219
zůstávej	-12.4219
berechiáš	-12.4219
debor	-12.4219
immer	-12.4219
napomínej	-12.4219
natahují	-12.4219
odkryl	-12.4219
placu	-12.4219
procítil	-12.4219
překážk	-12.4219
rychlý	-12.4219
sevřín	-12.4219
stavitel	-12.4219
vyňal	-12.4219
beor	-12.4219
nepohne	-12.4219
vyčistil	-12.4219
jerocham	-12.4219
potvrzuj	-12.4219
slitováv	-12.4219
strakat	-12.4219
amalechitské	-12.4219
otvíral	-12.4219
spikl	-12.4219
užasl	-12.4219
michael	-12.4219
rozhlá	-12.4219
nazaretský	-12.4219
peřest	-12.4219
shladil	-12.4219
postihl	-12.4219
rozeslal	-12.4219
vařil	-12.4219
vyplněn	-12.4219
úsud	-12.4219
pozvan	-12.422
nejznamenitější	-12.422
áčk	-12.422
gerar	-12.422
vápn	-12.422
fíkoví	-12.422
vyložil	-12.422
zlostníků	-12.422
zahnan	-12.422
afek	-12.422
libost	-12.422
lebk	-12.422
híra	-12.422
usiloval	-12.422
hází	-12.422
uloženo	-12.422
povstává	-12.422
úheln	-12.4221
záplat	-12.4221
zpomen	-12.4221
heve	-12.4221
hlídal	-12.4221
uzdravován	-12.4221
sidonské	-12.4221
převrací	-12.4221
vichr	-12.4222
panenství	-12.4222
vyřkl	-12.4222
amiud	-12.4222
hnát	-12.4222
polehč	-12.4222
slité	-12.4222
želel	-12.4222
spojil	-12.4223
tekoucí	-12.4223
přenesen	-12.4223
nedostává	-12.4223
výmluv	-12.4223
rouhají	-12.4224
tesal	-12.4225
zhrozi	-12.4225
eremot	-12.4225
živnost	-12.4226
prohlédl	-12.4226
poběhn	-12.4226
dátan	-12.4226
pomstil	-12.4226
předešlé	-12.4226
slunc	-12.4227
rozveselil	-12.4227
vystupoval	-12.4227
pučí	-12.4227
přivstávaj	-12.4227
pozdravil	-12.4228
zabíjel	-12.4229
zimnic	-12.423
osnov	-12.423
kladiv	-12.423
přivezl	-12.423
chomer	-12.423
liter	-12.4231
obilnic	-12.4231
tubal	-12.4232
přivedou	-12.4232
vsát	-12.4233
odejděte	-12.4234
poruč	-12.4235
neumí	-12.4235
obmýšl	-12.4238
pomordoval	-12.4239
libé	-12.4241
hrud	-12.4241
modlář	-12.4244
doplnil	-12.4244
poškvrňuje	-12.4245
potěš	-12.4246
neposlouchají	-12.4247
nestrachuj	-12.4247
příjemné	-12.425
nechoďte	-12.425
žral	-12.4251
štěpán	-12.4252
lekej	-12.4256
krmn	-12.4257
přiď	-12.4257
náušnice	-12.4258
obcoval	-12.4259
eliel	-12.4262
dotkne	-12.4264
sloužím	-12.4265
vejděte	-12.4267
věj	-12.4267
věříš	-12.4268
lišk	-12.4268
přemyšloval	-12.4274
zrušen	-12.4279
okrouhlé	-12.4281
sidonský	-12.4284
odsoudí	-12.4286
posíla	-12.4287
přiďte	-12.4287
ofr	-12.4289
nevinný	-12.4292
daroval	-12.4295
sběhl	-12.4295
ozdobě	-12.4297
lakom	-12.4298
převedl	-12.4315
následuje	-12.4318
bojujíc	-12.4319
neuvěří	-12.4325
napomínal	-12.4326
odsoudil	-12.4331
čeká	-12.4332
skládám	-12.434
obcházel	-12.4341
padal	-12.4344
ustavičné	-12.4345
novin	-12.4345
obloh	-12.4347
hněval	-12.4353
neodvrátil	-12.4354
dlí	-12.4357
zahubí	-12.4365
azel	-12.4367
odcházejí	-12.4368
nalézají	-12.437
sbírají	-12.4372
neuvěřil	-12.4376
gel	-12.4376
nebývají	-12.4378
trubo	-12.4385
sichemsk	-12.4409
nemocný	-12.4411
zhřeší	-12.4412
spravuje	-12.4414
smilník	-12.4422
uriášov	-12.443
vyjel	-12.443
lítý	-12.4437
trhal	-12.4437
assyrským	-12.444
plésající	-12.4441
stůjte	-12.4447
neobřezaný	-12.4451
lapá	-12.4458
joiadov	-12.4461
raha	-12.4462
kulhav	-12.4462
vstoupím	-12.4464
prospíva	-12.4464
strčil	-12.4467
nechtě	-12.4476
jakubov	-12.4489
vytlač	-12.4506
smýk	-12.4527
následujíc	-12.4533
lode	-12.4533
silí	-12.4534
pěkný	-12.4541
vyvrhl	-12.4542
temnoste	-12.4553
vyhledává	-12.4557
doufejte	-12.4559
pustiná	-12.4577
rybář	-12.4581
svazk	-12.4584
ches	-12.4587
musi	-12.4592
strojil	-12.4598
idumejsk	-12.4599
sloužíc	-12.4599
stihal	-12.4601
budoucím	-12.4604
hroznů	-12.4615
zrozený	-12.4633
etan	-12.4639
přistupte	-12.464
kulhavé	-12.4644
čku	-12.4658
povstavš	-12.4667
díra	-12.4676
hej	-12.4707
povoluj	-12.471
poddal	-12.4723
diáš	-12.4737
skrýší	-12.4738
nemoudrý	-12.4747
nechej	-12.4765
slyšíme	-12.4774
převrácen	-12.4794
nobe	-12.4794
pilátov	-12.4809
soudím	-12.4811
komor	-12.4814
posledním	-12.4832
lévá	-12.4834
spravova	-12.4838
hojněj	-12.484
posadiv	-12.4855
nepotřebuj	-12.486
táří	-12.4874
bálů	-12.4885
vyrostl	-12.4898
izaiášov	-12.4903
bd	-12.4905
hřivn	-12.491
sál	-12.4924
test	-12.4938
doufej	-12.4964
sousedů	-12.4966
pohledím	-12.497
pustý	-12.4976
stupují	-12.4982
nepovstal	-12.4988
došl	-12.4989
opatrné	-12.5018
pohnu	-12.5022
ustavičn	-12.5028
vesnic	-12.5044
ujav	-12.5057
očekáva	-12.506
bab	-12.5069
zákoník	-12.5096
pahrbků	-12.5119
adamov	-12.5143
beránkov	-12.515
nakloni	-12.5154
rzí	-12.516
nabyt	-12.5172
statečně	-12.5175
přejd	-12.5186
těžký	-12.5195
vykona	-12.5207
gersonový	-12.5217
širok	-12.5231
přistupoval	-12.5239
krásný	-12.5244
vídá	-12.525
slaven	-12.5251
těžko	-12.5251
teko	-12.5254
hynul	-12.5256
odměn	-12.5258
zdravé	-12.5261
kareach	-12.5274
troji	-12.5278
ožené	-12.5279
znamená	-12.5282
rozšiř	-12.5283
achitob	-12.5284
jasn	-12.5286
konej	-12.5287
oděný	-12.529
lovu	-12.5292
ittai	-12.5304
otazuj	-12.531
zdvihněte	-12.5316
skrýva	-12.5318
mecítm	-12.5322
gomor	-12.5323
míval	-12.5328
znikl	-12.5329
9	-12.533
kaifáš	-12.533
korint	-12.533
lehčej	-12.533
pochovej	-12.533
potáhnu	-12.533
prašiv	-12.533
rozchváta	-12.533
ušlechtil	-12.533
zasnouben	-12.533
šupin	-12.533
azmavet	-12.533
bathuel	-12.533
biskup	-12.533
bodláčí	-12.533
cypru	-12.533
dchnutí	-12.533
děkuji	-12.533
felix	-12.533
jerimot	-12.533
nazaretské	-12.533
nejdalší	-12.533
peleší	-12.533
přepásal	-12.533
příjmí	-12.533
rabsace	-12.533
rozličné	-12.533
rozplýv	-12.533
služebnost	-12.533
soumrak	-12.533
usmrcen	-12.533
vyhlásil	-12.533
zahlazen	-12.533
zahlaď	-12.533
zbouřil	-12.533
zebadiáš	-12.533
zebedeov	-12.533
útočišťn	-12.533
šibenic	-12.533
dvořan	-12.533
kortýn	-12.533
modrý	-12.533
odloučil	-12.533
ohlásil	-12.533
podroben	-12.533
ponukl	-12.533
prostěradl	-12.533
strašliv	-12.533
židovstv	-12.533
kvapn	-12.533
povinni	-12.533
přilnul	-12.533
ukamenován	-12.533
vzbuzuj	-12.533
zahanbil	-12.533
díkčinění	-12.533
modliteb	-12.533
napájel	-12.533
těžší	-12.533
udávené	-12.533
vyměřený	-12.533
pacholátk	-12.533
spatřoval	-12.533
sáron	-12.533
zmařen	-12.533
dokazuj	-12.533
vyléval	-12.533
vyhnán	-12.533
odvrátiv	-12.533
zdržoval	-12.533
jachin	-12.5331
přepásán	-12.5331
sesák	-12.5331
ségor	-12.5331
udělaný	-12.5331
ovčinc	-12.5331
pelyn	-12.5331
posvěcován	-12.5331
mladistv	-12.5331
ryšav	-12.5331
pacholík	-12.5331
stkvěl	-12.5331
obrub	-12.5331
procítiv	-12.5331
kovář	-12.5331
rynk	-12.5331
přispěj	-12.5331
snažně	-12.5331
obdařil	-12.5331
vláč	-12.5331
jiskr	-12.5331
šaf	-12.5331
proklíná	-12.5331
cizoložil	-12.5331
zakur	-12.5331
ochran	-12.5331
čár	-12.5331
obtížil	-12.5331
javan	-12.5331
hádání	-12.5331
svržen	-12.5331
lůžk	-12.5331
lační	-12.5332
vážit	-12.5332
oblek	-12.5332
ukládal	-12.5332
cedul	-12.5332
závazk	-12.5332
poslaný	-12.5332
nejhorší	-12.5332
sevřen	-12.5332
médské	-12.5332
bojovníků	-12.5332
ostré	-12.5332
nejmladší	-12.5333
dlouhoček	-12.5333
lopat	-12.5333
mezky	-12.5333
rozbroj	-12.5333
spustl	-12.5333
kozí	-12.5333
vyčištěn	-12.5333
jízdný	-12.5333
betsan	-12.5333
rozšíří	-12.5333
vysyp	-12.5334
povolaný	-12.5334
vyzdvižen	-12.5334
spravedlivější	-12.5334
přestan	-12.5334
rechum	-12.5335
prší	-12.5335
štěpova	-12.5335
usilují	-12.5335
věrná	-12.5335
obchází	-12.5335
hádají	-12.5335
vařen	-12.5335
aravn	-12.5336
sehltí	-12.5336
galilejský	-12.5336
povržen	-12.5337
klíč	-12.5337
prodlí	-12.5338
gomorský	-12.5339
desetkrát	-12.5339
zeptal	-12.5339
hyneme	-12.5339
roztrhal	-12.534
dívají	-12.5341
pozdvihoval	-12.5341
zmordovan	-12.5342
přijmeš	-12.5343
ptával	-12.5343
chlubím	-12.5343
přívětivost	-12.5344
přátelsk	-12.5344
srst	-12.5344
posloucháte	-12.5347
rozplynou	-12.5348
troubení	-12.5348
vystavil	-12.5348
vydané	-12.5349
jídají	-12.535
zámk	-12.5351
vybeř	-12.5351
neuchyluj	-12.5351
sprostnost	-12.5352
jemin	-12.5357
připojí	-12.5358
vsazen	-12.536
pacholete	-12.5361
nalezneš	-12.5364
hvězdář	-12.5365
nemožné	-12.5365
svlékl	-12.5366
jetro	-12.5367
kolikrát	-12.5367
udic	-12.5368
lněn	-12.5369
rozumíš	-12.5371
plot	-12.5374
chráni	-12.5377
moudrému	-12.5378
gese	-12.5379
hanbou	-12.5379
ozdoben	-12.5381
tekut	-12.5383
rostou	-12.5383
svadne	-12.5384
posadí	-12.5385
splnil	-12.539
rozmlouv	-12.539
vlk	-12.5391
poškvrněné	-12.5394
plésejte	-12.5397
úrok	-12.5399
vznesl	-12.5399
vážen	-12.5401
šťuj	-12.5403
charmi	-12.5403
fíkové	-12.5406
voláš	-12.5409
spomo	-12.5411
ponížené	-12.5412
ustavičný	-12.5416
točen	-12.5419
trha	-12.5425
nová	-12.5427
náleže	-12.5436
utěšení	-12.5442
netaj	-12.5443
prorocký	-12.5444
bídný	-12.5452
nábalov	-12.5452
poznám	-12.5459
křičte	-12.546
prostředník	-12.5462
vyjdu	-12.5465
rozžen	-12.5466
jasné	-12.5466
nepohnul	-12.5467
koukol	-12.5467
přimlouval	-12.5469
sefatiáš	-12.5471
tlačil	-12.5475
podvedl	-12.548
roztažen	-12.5496
účastník	-12.5509
knížecí	-12.5515
vězňů	-12.553
šířk	-12.5548
nepřistupuj	-12.5555
zpurné	-12.5557
křičíc	-12.5571
nevyslyší	-12.5573
zachovával	-12.5577
sobal	-12.5579
nesnadné	-12.5585
připraveno	-12.5589
štíp	-12.5594
posvěceno	-12.5621
městeč	-12.5636
stezká	-12.5637
očekávajíc	-12.5638
zapuz	-12.5639
lehne	-12.5642
přídrží	-12.5646
pouštěj	-12.5655
vyvyš	-12.5669
snáším	-12.5676
červené	-12.5676
chíramov	-12.5677
příš	-12.5678
spáleno	-12.5678
samsonov	-12.5688
hémanov	-12.5692
přijímal	-12.5704
prošed	-12.571
setníků	-12.5719
sytil	-12.5723
tratil	-12.5728
řemeslníků	-12.5742
rmut	-12.5756
pocháze	-12.5792
postavte	-12.5798
zrost	-12.5799
vinul	-12.5804
rozdvoj	-12.5813
černé	-12.582
hlíd	-12.5823
odíval	-12.5831
odjel	-12.5847
mudrců	-12.5847
žíní	-12.5848
hnut	-12.5862
tvrdý	-12.5888
důstojn	-12.589
zelené	-12.5891
hrd	-12.5912
plan	-12.5927
pamatujte	-12.5945
přikry	-12.5949
rozehna	-12.5984
síňcí	-12.599
ejské	-12.5997
rozličný	-12.6001
amonov	-12.6003
rozměř	-12.6012
kamenuje	-12.6016
skočil	-12.6018
stavoval	-12.6021
jerobál	-12.6093
obededomov	-12.6098
některým	-12.6103
zachovává	-12.6116
oblo	-12.6149
zrozen	-12.615
posmíva	-12.615
koná	-12.6158
nebud	-12.6163
závidě	-12.6167
učinivš	-12.6171
achan	-12.6181
pochova	-12.6184
héman	-12.6186
přijímají	-12.6189
prvnější	-12.6194
trka	-12.6195
někom	-12.6218
jonato	-12.6224
absa	-12.6244
díval	-12.6272
proklatý	-12.6276
děsi	-12.628
izraelsk	-12.6308
židov	-12.6314
připomína	-12.6318
přeběh	-12.6329
pochyti	-12.633
amanov	-12.635
marij	-12.6357
vězň	-12.6363
tučný	-12.6392
železný	-12.6393
navštív	-12.6406
sirot	-12.6412
abnerov	-12.6418
správců	-12.6429
assyr	-12.643
zůstáva	-12.6456
zůstaň	-12.6458
uloží	-12.6461
zmocni	-12.6468
kropi	-12.6468
kazoval	-12.6481
nepohnu	-12.6503
plésej	-12.6506
abinadab	-12.651
apollo	-12.652
izbozet	-12.6524
dobytý	-12.6535
křtitele	-12.654
zjevi	-12.6542
přikázán	-12.6544
bírají	-12.6548
včer	-12.6548
půjčova	-12.6559
vybír	-12.656
vzbudi	-12.6562
vysokomysln	-12.6562
abba	-12.6564
slal	-12.6574
sáru	-12.6577
nestydat	-12.6577
obklíč	-12.6577
mlát	-12.6578
víčk	-12.6578
hlubší	-12.658
krývej	-12.658
nedbá	-12.658
sechaniáš	-12.658
chámos	-12.658
hadadezer	-12.658
kadmiel	-12.658
nepoškvrňujte	-12.658
špižírn	-12.658
šňůr	-12.658
dráždil	-12.658
estaol	-12.658
hevejský	-12.658
manahem	-12.658
napomínání	-12.658
nazůveš	-12.658
nehemiáš	-12.658
ospravedlni	-12.658
očekávej	-12.658
pochytí	-12.658
potýkal	-12.658
prozřetelnost	-12.658
přikazuje	-12.658
rozsevač	-12.658
selomit	-12.658
serebiáš	-12.658
skropen	-12.658
spuštěn	-12.658
svrhl	-12.658
tarsis	-12.658
ublíži	-12.658
uctivost	-12.658
ukrutný	-12.658
vinobraní	-12.658
vrchoviště	-12.658
vyhlášen	-12.658
vykořeněn	-12.658
vysušil	-12.658
vyvýší	-12.658
vzteklost	-12.658
zamítá	-12.658
zhoršil	-12.658
zmínk	-12.658
čarodějníc	-12.658
čarodějník	-12.658
šlepějí	-12.658
elamitské	-12.658
horlivě	-12.658
mandlov	-12.658
olibam	-12.658
podmaněn	-12.658
políbení	-12.658
přikrývající	-12.658
pšeničn	-12.658
sunamitsk	-12.658
trvánliv	-12.658
ukrutné	-12.658
utvrzuj	-12.658
vyhlaď	-12.658
zběř	-12.658
řvoucí	-12.658
akkub	-12.658
bezeleel	-12.658
pléše	-12.658
vtrhl	-12.658
podrobil	-12.658
polékl	-12.658
roznícen	-12.658
uvázl	-12.658
korneli	-12.658
pobělav	-12.658
stižiteln	-12.658
očišťova	-12.658
utrhají	-12.658
dráč	-12.658
obával	-12.658
knížatstv	-12.658
trůsk	-12.6581
poručeno	-12.6581
průduch	-12.6581
abdon	-12.6581
mošn	-12.6581
sňal	-12.6581
acován	-12.6581
důvod	-12.6581
sukní	-12.6581
jabín	-12.6581
hnoje	-12.6581
protivníci	-12.6581
zabdi	-12.6581
poškvrňují	-12.6581
prohlédn	-12.6581
pomíjející	-12.6581
prociť	-12.6581
věrnost	-12.6581
klínot	-12.6581
edre	-12.6581
plavc	-12.6581
heg	-12.6581
zmítá	-12.6581
zpour	-12.6581
uposlechnou	-12.6581
zůstávají	-12.6581
vyvolí	-12.6581
zahanbí	-12.6581
damašské	-12.6581
jachat	-12.6581
zláman	-12.6581
tmavé	-12.6581
opilství	-12.6582
dolní	-12.6582
zpoléh	-12.6582
safat	-12.6582
rozvázán	-12.6582
rozchvátání	-12.6582
svázané	-12.6583
panující	-12.6584
husté	-12.6584
vyplati	-12.6584
spřízn	-12.6584
vzhlédl	-12.6584
neprospívá	-12.6584
nápis	-12.6584
adaiáš	-12.6584
mazal	-12.6584
jedenmecítm	-12.6584
solí	-12.6584
kocha	-12.6585
kotl	-12.6586
stodol	-12.6586
samotn	-12.6586
zemdlív	-12.6586
přeplavil	-12.6586
přiložil	-12.6587
polapen	-12.6588
citar	-12.6588
setřín	-12.6588
držán	-12.6588
středmost	-12.6589
ostříhající	-12.6589
tlesk	-12.6589
klesnou	-12.659
roznesl	-12.659
umírají	-12.659
kouzl	-12.6591
vyslýchal	-12.6591
barabbáše	-12.6592
pojďme	-12.6592
vyhání	-12.6592
neobtěžoval	-12.6593
nalézal	-12.6593
kadi	-12.6594
levítské	-12.6594
pálenin	-12.6595
postel	-12.6595
rozbit	-12.6595
pohanský	-12.6596
vykoupí	-12.6596
nepomine	-12.6596
zachovávají	-12.6597
velryb	-12.6597
strán	-12.6597
bezpečnost	-12.6597
přikazoval	-12.6597
nof	-12.6597
abib	-12.6599
chamov	-12.66
jobab	-12.66
nepohnuteln	-12.66
zkvetne	-12.6601
potřeboval	-12.6601
pozoroval	-12.6602
věříme	-12.6604
haze	-12.6604
pokladnic	-12.6606
těší	-12.6607
připodobněn	-12.6608
oběsil	-12.6608
bich	-12.6608
soli	-12.6609
zlámán	-12.6609
řve	-12.661
zvěše	-12.6612
lživým	-12.6612
oznámíš	-12.6614
vyvrz	-12.6617
vyhledej	-12.6618
kainan	-12.662
roztržen	-12.662
chvátá	-12.6621
vytyl	-12.6622
potáhnou	-12.6622
ďáblové	-12.6625
promění	-12.6625
nenasytí	-12.6628
ochotnost	-12.6628
panen	-12.6629
tajil	-12.663
sedmer	-12.6632
oškliví	-12.6632
štok	-12.6635
slavení	-12.6636
světil	-12.6636
posvěceným	-12.6637
připadne	-12.6639
izmaelov	-12.6639
mares	-12.664
skláněj	-12.664
zpytuje	-12.6641
dém	-12.6642
rozpomínám	-12.6644
předcházel	-12.6645
zpytov	-12.6647
dlážen	-12.6649
nenašl	-12.6652
zlehčen	-12.6656
hubící	-12.6658
zpozdilý	-12.6673
strhn	-12.6674
zžíral	-12.6676
děveč	-12.6678
achitofelov	-12.6678
slouh	-12.6682
rozvodnilý	-12.6695
hodný	-12.6701
převracel	-12.6701
pokloniv	-12.6713
ničemný	-12.6727
zanítí	-12.6727
osvědčoval	-12.6729
psá	-12.6729
týr	-12.6741
osvědčen	-12.6753
odkryj	-12.6757
úrodný	-12.6765
odpočíval	-12.6765
ptáků	-12.6769
rozděluj	-12.6774
rozveselí	-12.6775
nebývejte	-12.678
tučné	-12.678
okř	-12.6784
vyvrátil	-12.6785
hazaelov	-12.6785
železným	-12.6785
pater	-12.6785
dásní	-12.6788
červen	-12.6791
ívejte	-12.6795
vymítal	-12.681
sklánějí	-12.6815
čep	-12.6819
proklat	-12.6823
předivn	-12.6825
lomí	-12.684
udělav	-12.6845
povolej	-12.6849
oslaví	-12.688
jedlov	-12.6887
rozpomínal	-12.6903
vyučuj	-12.6914
vypustí	-12.6925
ustanovuj	-12.6929
mlčení	-12.6969
zapřáh	-12.7002
hledíc	-12.7007
obkličují	-12.7028
tichý	-12.7034
lovat	-12.7046
slab	-12.7054
vinařů	-12.7057
del	-12.7058
chceme	-12.7062
poslů	-12.7073
jedaiáš	-12.7101
moábsk	-12.7106
pozůstalé	-12.7109
zdravý	-12.7119
rozdělené	-12.712
příhodné	-12.7121
zatop	-12.7125
měděn	-12.7133
bořen	-12.7134
plaví	-12.7136
filipov	-12.7144
zvučn	-12.715
ukydaný	-12.7153
bozra	-12.7177
matský	-12.7179
trp	-12.7185
hadačů	-12.721
projd	-12.722
vládaře	-12.7222
proměn	-12.7228
příh	-12.723
ostří	-12.7249
nesměl	-12.73
hříšníků	-12.7309
příhodn	-12.732
žalob	-12.7324
obejd	-12.7327
obvesel	-12.7328
žoldnéřů	-12.7333
živočichů	-12.736
baal	-12.7442
oslavoval	-12.7496
anan	-12.7513
rouha	-12.7586
ocelivý	-12.7592
abim	-12.7597
čiňme	-12.7599
ostrovů	-12.7599
obložen	-12.7601
tirs	-12.7608
oznamova	-12.7609
atén	-12.7629
shromáždě	-12.7632
blahoslav	-12.7637
přisluhova	-12.7677
štír	-12.7689
ble	-12.7705
halž	-12.7712
ron	-12.7712
atero	-12.7712
sšikova	-12.7747
asserov	-12.7752
kede	-12.7754
odpouštějí	-12.778
obdrže	-12.7783
nesmysln	-12.7789
posvěť	-12.7804
plačí	-12.7833
taženým	-12.7844
machirov	-12.7848
hradb	-12.7853
děr	-12.7854
vyhladi	-12.7856
předlož	-12.7861
potka	-12.787
zplozený	-12.7873
poškvrňova	-12.7878
převrace	-12.7878
dágon	-12.7903
předcháze	-12.7903
střih	-12.7912
oděnc	-12.7914
énka	-12.7927
lehn	-12.7949
náušnic	-12.7953
jozadak	-12.7969
půjčuj	-12.7969
pachol	-12.7975
pravdomluvn	-12.7976
navštíven	-12.7977
výšil	-12.7978
telný	-12.7978
chlup	-12.7979
posílá	-12.7983
rozplyn	-12.7987
lezl	-12.7989
štěstí	-12.7991
rév	-12.7992
hebrej	-12.7993
jednomysln	-12.7994
doufanliv	-12.7994
klamal	-12.7995
loup	-12.7996
netinej	-12.7997
hanění	-12.7997
staň	-12.7998
pobožn	-12.7998
zbožn	-12.7999
amorej	-12.8001
rošt	-12.8002
kázaní	-12.8003
zpronevěř	-12.8003
přibliž	-12.8004
napomen	-12.8006
stěhoval	-12.8008
dražší	-12.8008
niko	-12.8009
alexand	-12.8009
jarmar	-12.8009
meraiot	-12.8009
rozprostíra	-12.8009
balsazar	-12.8009
baltazar	-12.8009
chvalitebn	-12.8009
chřípě	-12.8009
cinejské	-12.8009
drážděn	-12.8009
gamaliel	-12.8009
klobouk	-12.8009
krkavc	-12.8009
mahalaleel	-12.8009
mattitiáš	-12.8009
matuzalém	-12.8009
měšťan	-12.8009
náboženství	-12.8009
posiloval	-12.8009
pospíchal	-12.8009
pozván	-12.8009
prodlévá	-12.8009
průchod	-12.8009
rozhojňuj	-12.8009
rozprchl	-12.8009
sebaniáš	-12.8009
sefarvaim	-12.8009
shlazen	-12.8009
snášelivost	-12.8009
ssoužil	-12.8009
střílel	-12.8009
střízliv	-12.8009
uchvátil	-12.8009
umývání	-12.8009
vděčn	-12.8009
vzložil	-12.8009
zapečeť	-12.8009
zavěsil	-12.8009
břitv	-12.8009
ceneret	-12.8009
devatenáct	-12.8009
dosáhnou	-12.8009
neokusí	-12.8009
peleg	-12.8009
plátn	-12.8009
pohrůžk	-12.8009
požehnav	-12.8009
předkládám	-12.8009
roznítil	-12.8009
rozprostírá	-12.8009
simron	-12.8009
x	-12.8009
zděšen	-12.8009
arioch	-12.8009
betfe	-12.8009
nedotýkej	-12.8009
otázk	-12.8009
povýší	-12.8009
prýští	-12.8009
převyšuje	-12.8009
přijď	-12.8009
rozsedlin	-12.8009
seboim	-12.8009
taflov	-12.8009
vymýšle	-12.8009
zaplatím	-12.8009
jamin	-12.8009
neuchyloval	-12.8009
odplacuje	-12.8009
opatroval	-12.8009
přivázan	-12.8009
rahuel	-12.8009
sinear	-12.8009
znamenaj	-12.8009
ztracen	-12.8009
šeňkýř	-12.8009
otoniel	-12.8009
stébl	-12.8009
ukrácen	-12.8009
elfe	-12.8009
elnatan	-12.8009
gittejské	-12.8009
sehlcen	-12.8009
nepršel	-12.8009
osazen	-12.8009
zstaral	-12.8009
odpůrc	-12.8009
krmičk	-12.8009
náhas	-12.8009
odsuzuj	-12.8009
poznáváme	-12.8009
osedlal	-12.8009
9:	-12.8009
kadeř	-12.8009
rozkázav	-12.8009
znamenitější	-12.8009
gabaonitský	-12.8009
straší	-12.8009
utištěn	-12.8009
udělané	-12.8009
betaven	-12.8009
úlisn	-12.8009
evila	-12.8009
utíkej	-12.8009
vyhnan	-12.8009
kariataim	-12.8009
járed	-12.8009
neuchýlí	-12.8009
vzebral	-12.8009
romeliáš	-12.8009
kochá	-12.8009
raďte	-12.8009
hmyz	-12.8009
vystupující	-12.8009
provázel	-12.8009
žížal	-12.8009
umrtven	-12.8009
atarot	-12.8009
krádež	-12.8009
proklína	-12.8009
lištování	-12.8009
hřebík	-12.8009
rmoutí	-12.8009
pecník	-12.8009
sefon	-12.801
postranní	-12.801
zelf	-12.801
slušelo	-12.801
promluviv	-12.801
přemýšlí	-12.801
posvětit	-12.801
jehus	-12.801
jedovat	-12.801
tuhý	-12.801
pánvic	-12.801
jaspi	-12.801
goréb	-12.801
sardi	-12.801
tabul	-12.801
dávající	-12.801
cedroví	-12.801
zavři	-12.801
snižuje	-12.801
přináší	-12.801
anatotský	-12.801
přestaň	-12.801
betsaid	-12.801
otcovské	-12.801
jabok	-12.8011
dluh	-12.8011
uschne	-12.8011
přemáha	-12.8011
proměněn	-12.8011
omočí	-12.8011
jmenován	-12.8011
případn	-12.8011
styď	-12.8011
háran	-12.8011
neriášov	-12.8011
pokoušejíc	-12.8011
hranic	-12.8011
žluč	-12.8011
beba	-12.8012
božsk	-12.8012
podťat	-12.8012
malič	-12.8012
hrdin	-12.8012
nynější	-12.8012
vzkazuj	-12.8012
klatb	-12.8012
poskvrněn	-12.8012
vznáší	-12.8012
jasnost	-12.8012
rozpáliv	-12.8013
betlémské	-12.8013
rozrazí	-12.8013
jezreelské	-12.8013
sklidí	-12.8013
vysoc	-12.8013
betlémský	-12.8013
zápon	-12.8013
abisu	-12.8014
zemdlel	-12.8014
předěsí	-12.8014
přijměte	-12.8015
ozdobil	-12.8015
postihn	-12.8016
zhojen	-12.8016
požívající	-12.8017
společnost	-12.8017
posmívají	-12.8017
čtou	-12.8017
zatají	-12.8018
mizael	-12.8018
tychik	-12.8018
tachpan	-12.802
přivozuj	-12.802
podrobova	-12.8021
pastvišt	-12.8021
kořil	-12.8021
lhal	-12.8021
vyčistí	-12.8021
malomocné	-12.8021
čko	-12.8022
utiskal	-12.8022
slechl	-12.8024
pochybil	-12.8024
cizoložník	-12.8025
skalnat	-12.8027
spokojil	-12.8028
veselící	-12.8028
upokojil	-12.803
šanova	-12.8031
blíže	-12.8032
jedouc	-12.8034
husl	-12.8034
žíznil	-12.8036
kladou	-12.8038
tučnost	-12.8038
obecný	-12.804
vyvodil	-12.8042
gitt	-12.8043
obmyt	-12.8046
ňad	-12.8049
vydávající	-12.805
křtitel	-12.8055
adoni	-12.806
hrnčířov	-12.8061
užive	-12.8063
skrývají	-12.8063
postači	-12.8065
háněl	-12.8068
osvědčova	-12.8074
tížil	-12.8077
oblehn	-12.8078
připravuj	-12.8083
podobnost	-12.8087
ozdoboval	-12.8087
znejte	-12.8096
rechabov	-12.81
porob	-12.81
žalova	-12.8103
maaseiášov	-12.8104
všelijakým	-12.8104
shromažďoval	-12.8105
prodléval	-12.8108
vzkládání	-12.8116
počavš	-12.8118
amosov	-12.812
předkládal	-12.8126
lámán	-12.813
smíšené	-12.8135
uvozuj	-12.8147
střihl	-12.8153
vejc	-12.816
achimelechov	-12.8169
těžuj	-12.8172
elkánov	-12.8181
ruzí	-12.8184
navštěvuje	-12.8189
ovc	-12.8193
chino	-12.8196
zizarov	-12.8198
půjčil	-12.8206
udatnost	-12.8207
umýval	-12.8208
odcházej	-12.8216
příbuzné	-12.8229
zvěstujíc	-12.8231
saulovým	-12.8232
klanějíc	-12.8234
nepřišl	-12.8236
naplňuje	-12.8243
rozkázán	-12.8256
nakládal	-12.8261
prudký	-12.8271
geb	-12.8276
zorobábelov	-12.8294
sabej	-12.8295
roztahuj	-12.8305
rozkaž	-12.8308
zřeteln	-12.8312
asverov	-12.8313
přeběhl	-12.8319
obětující	-12.8326
obcháze	-12.8342
áležející	-12.8354
světlost	-12.8365
nécho	-12.8373
shromážděný	-12.8383
pracujíc	-12.842
hadarezerov	-12.8424
užívání	-12.843
syrsk	-12.8434
chananiášov	-12.8435
podívá	-12.8444
předivný	-12.8454
chatt	-12.8455
krajů	-12.8455
lahodn	-12.8455
zelin	-12.8492
jnější	-12.8495
galilej	-12.8496
nakrm	-12.8507
osidl	-12.8533
stupn	-12.8539
sichemov	-12.8548
ozval	-12.8559
komorní	-12.8559
jableč	-12.8562
hloží	-12.8585
nebojuj	-12.859
hloupý	-12.8595
kulhavý	-12.8604
nezví	-12.8612
tiskl	-12.862
drabantů	-12.8627
prvorozen	-12.8664
přísn	-12.8671
gedo	-12.8688
zavřen	-12.8699
nátanov	-12.872
pere	-12.8744
žalobní	-12.876
přímý	-12.8784
rozdílný	-12.8788
střevíc	-12.8835
zástav	-12.8837
svírá	-12.8842
vyučova	-12.8848
sněd	-12.8849
bázov	-12.8853
amaziášov	-12.8873
boc	-12.8915
bratrstv	-12.8944
přistroj	-12.8992
skryj	-12.9001
přestává	-12.9012
neužitečný	-12.9033
provazc	-12.9044
cká	-12.9079
odcháze	-12.9082
zofa	-12.9106
vyhledáván	-12.9121
nezapomín	-12.9134
oddech	-12.9156
káži	-12.9176
hadarezer	-12.9207
prokl	-12.922
puzen	-12.9221
modlíva	-12.9262
abiatarov	-12.9303
prospěšn	-12.931
enga	-12.9327
dělával	-12.9336
pochováva	-12.9343
nemoh	-12.9373
nakláda	-12.9386
ozdobn	-12.9393
pochop	-12.9409
odstoupi	-12.9427
umýva	-12.9448
zázra	-12.946
háda	-12.9499
dotíra	-12.9504
obláče	-12.951
komůr	-12.9521
vycvičen	-12.9534
ukazuj	-12.954
plete	-12.9566
roč	-12.9568
počav	-12.9577
ponižova	-12.9587
meška	-12.9587
kradl	-12.9594
změni	-12.96
vylož	-12.9608
můž	-12.9612
rozvažuj	-12.9618
domlouva	-12.962
roztrž	-12.9622
rozkáž	-12.9622
kvěl	-12.9627
odpusti	-12.9633
vracoval	-12.9634
vsaz	-12.9638
mívá	-12.9639
vypros	-12.964
zbudil	-12.9641
blíží	-12.9642
kraluj	-12.9644
náhl	-12.9658
zahub	-12.966
pudil	-12.9661
křtěn	-12.9661
pokouší	-12.9666
racuje	-12.9668
mlouvej	-12.9668
pomine	-12.9668
nazare	-12.967
nepozůstav	-12.9672
opováž	-12.9675
různ	-12.9675
2:1	-12.9676
abiezer	-12.9676
azrikam	-12.9676
chlipnost	-12.9676
karbunkul	-12.9676
neprodlévej	-12.9676
pospíchá	-12.9676
rozvlaž	-12.9676
rytěř	-12.9676
abichail	-12.9676
becher	-12.9676
chrastin	-12.9676
ctnost	-12.9676
domníváte	-12.9676
farizejské	-12.9676
ferezejský	-12.9676
goliáš	-12.9676
hudebné	-12.9676
jachaziel	-12.9676
jazaniáš	-12.9676
jediael	-12.9676
jednorozené	-12.9676
jektan	-12.9676
krumpovan	-12.9676
kupčíval	-12.9676
malluch	-12.9676
mandát	-12.9676
merib	-12.9676
nejbližší	-12.9676
nejšpatnější	-12.9676
nezatvrzujte	-12.9676
obřízce	-12.9676
ochránce	-12.9676
ohlašoval	-12.9676
opatruj	-12.9676
ploďte	-12.9676
pohybova	-12.9676
pohřížen	-12.9676
pokropen	-12.9676
potvrzoval	-12.9676
pozčernal	-12.9676
prodavač	-12.9676
proměňuje	-12.9676
protrhl	-12.9676
přikvačil	-12.9676
rozsuzuj	-12.9676
smaragd	-12.9676
stroskotal	-12.9676
tiglatfalazar	-12.9676
troskotán	-12.9676
tvrdošijn	-12.9676
ukrutenství	-12.9676
ustoupil	-12.9676
vzbuzoval	-12.9676
zaklinač	-12.9676
zarmoucen	-12.9676
zatvrzuje	-12.9676
zločinc	-12.9676
zmocňoval	-12.9676
šeredn	-12.9676
5:1	-12.9676
abiam	-12.9676
brázd	-12.9676
knížetství	-12.9676
poroučím	-12.9676
potvrdil	-12.9676
srdečn	-12.9676
svlažuj	-12.9676
ukládají	-12.9676
vystříha	-12.9676
krumpéřsk	-12.9676
poctivé	-12.9676
probodl	-12.9676
tolmai	-12.9676
tyrské	-12.9676
vynikl	-12.9676
všetečn	-12.9676
provinil	-12.9676
usilování	-12.9676
zžírá	-12.9676
bazemat	-12.9676
jehň	-12.9676
předpovídá	-12.9676
svleče	-12.9676
vratidl	-12.9676
vyprostil	-12.9676
gihon	-12.9676
oslepil	-12.9676
zakryl	-12.9676
zrazen	-12.9676
ozeáš	-12.9676
příhradk	-12.9676
vypudí	-12.9676
břevn	-12.9676
kouzedln	-12.9676
chvilk	-12.9676
hluchý	-12.9676
žráč	-12.9676
daremné	-12.9676
faraton	-12.9676
klaď	-12.9676
přenáší	-12.9676
ukládá	-12.9676
ohlásí	-12.9676
vzácnější	-12.9676
ebedmelech	-12.9676
vydře	-12.9676
troad	-12.9676
podivení	-12.9676
7:	-12.9676
zkvetl	-12.9676
vylévej	-12.9676
dison	-12.9676
zebul	-12.9676
pocestný	-12.9676
čáp	-12.9676
káží	-12.9676
brával	-12.9676
akvil	-12.9676
tkanic	-12.9676
vystihn	-12.9676
chasub	-12.9676
vzkřísí	-12.9676
bukki	-12.9676
pečova	-12.9676
ahira	-12.9676
snažuj	-12.9676
gidd	-12.9676
smísil	-12.9676
oholen	-12.9676
nejvzácnější	-12.9676
pronikn	-12.9676
stěhují	-12.9676
nejdražší	-12.9676
změněn	-12.9676
oteklin	-12.9676
jarní	-12.9676
nejhlubší	-12.9676
hebrejské	-12.9676
ještěrk	-12.9676
smířen	-12.9676
zohav	-12.9676
napomenul	-12.9676
přečištěn	-12.9677
frej	-12.9677
chytře	-12.9677
jekoniáše	-12.9677
podmani	-12.9677
rogel	-12.9677
doeg	-12.9677
plást	-12.9677
umějí	-12.9677
eliazaf	-12.9677
řezoval	-12.9677
chroust	-12.9677
obvinul	-12.9677
slýcháno	-12.9677
azarsu	-12.9677
spustne	-12.9677
osličí	-12.9677
loupiti	-12.9677
přístojící	-12.9677
rozplynul	-12.9678
kanane	-12.9678
charimov	-12.9678
vznikla	-12.9678
přiodíl	-12.9678
peří	-12.9678
poníží	-12.9678
koniáš	-12.9679
dychtí	-12.9679
zdárn	-12.9679
rozbořil	-12.9679
brouc	-12.9679
opovážil	-12.9679
vymize	-12.968
přestrašil	-12.968
zlehčil	-12.968
poběhlc	-12.968
smutná	-12.968
usych	-12.9681
směje	-12.9681
smělost	-12.9681
řečené	-12.9681
přestupuje	-12.9681
utíkající	-12.9681
jozes	-12.9682
usiluje	-12.9682
odložen	-12.9682
zadržuj	-12.9682
motyk	-12.9682
líbal	-12.9682
padající	-12.9683
pražm	-12.9683
smutný	-12.9683
zjednal	-12.9683
fereze	-12.9683
záhon	-12.9684
bahn	-12.9684
sladkost	-12.9684
skákal	-12.9684
provozuj	-12.9684
přepasuj	-12.9685
hůř	-12.9686
beniaminské	-12.9686
zraněný	-12.9687
ariel	-12.9687
rychlé	-12.9688
aholib	-12.9688
pobožnost	-12.9688
řezán	-12.9689
zatměl	-12.969
sednou	-12.9691
zdřím	-12.9691
šíp	-12.9691
rozmec	-12.9691
pomstím	-12.9693
ofel	-12.9693
podpor	-12.9694
dopusti	-12.9694
přehrozn	-12.9696
zéb	-12.9696
svatosvat	-12.9697
bigva	-12.9697
hluboký	-12.97
pokláda	-12.9702
nosič	-12.9704
roztrhán	-12.9704
potěšoval	-12.9705
temanský	-12.9706
zakláda	-12.9706
arabský	-12.9712
naplňoval	-12.9715
zmořil	-12.9718
jozadakov	-12.9723
šanc	-12.9728
připravoval	-12.9729
hrazeným	-12.973
tahuje	-12.9734
dariov	-12.9736
panuj	-12.9737
jmenoval	-12.974
volával	-12.9743
osvědč	-12.9747
achitobov	-12.9747
tvrdost	-12.9752
znamenán	-12.9753
churav	-12.9753
vzhlédni	-12.9756
ortel	-12.9758
pokorným	-12.9767
ponižoval	-12.9768
cházejte	-12.9771
podlah	-12.9773
oslavujíc	-12.9777
orličí	-12.9792
složiv	-12.9807
neuhas	-12.9807
trhne	-12.981
spusti	-12.9813
obmýšlej	-12.9818
ostýchal	-12.982
suchým	-12.9827
žalostný	-12.9838
obláčel	-12.9844
eret	-12.9851
obnažen	-12.9852
dotíral	-12.9852
samic	-12.986
umlkni	-12.9879
gogov	-12.9885
silonsk	-12.9886
dobýván	-12.9891
náchorov	-12.9892
obdař	-12.9895
pošlapán	-12.9896
duh	-12.9897
chované	-12.9898
obnovuje	-12.9907
oblakový	-12.9955
rozptýlený	-12.9956
nesmyslný	-12.9972
jetra	-12.998
leješ	-12.9981
utiskují	-12.9986
achiášov	-12.9995
děluje	-13.0004
pochovával	-13.0021
chřadn	-13.0036
kap	-13.004
jonášov	-13.0052
zálohá	-13.0057
tření	-13.0061
zastavuj	-13.0081
spatřín	-13.0086
kladen	-13.0092
ezdrášov	-13.0101
bořil	-13.0107
pouč	-13.0127
odtrh	-13.0131
rejský	-13.0132
stupování	-13.014
itamarov	-13.0143
přistav	-13.0161
ptáč	-13.0164
nábožný	-13.0189
kadíc	-13.0193
mordujíc	-13.0222
chur	-13.0248
olovo	-13.0266
vládařů	-13.0279
puči	-13.0293
chtíc	-13.0326
smet	-13.0346
vzloží	-13.0368
ohlédn	-13.0373
jerobálov	-13.0381
připojuje	-13.0468
tlustý	-13.0484
ohništ	-13.0495
shromažďují	-13.0525
amramov	-13.0526
připomíná	-13.0529
mořsk	-13.0575
hlédají	-13.0583
připravován	-13.0652
jměte	-13.0692
godoliáš	-13.0694
nábotov	-13.0694
strčen	-13.0697
dobrořečen	-13.0749
činiv	-13.0795
nekvašen	-13.0814
těšit	-13.0815
krmí	-13.0833
zatrati	-13.086
polepš	-13.086
jedaiášov	-13.0866
nemešk	-13.0877
měnil	-13.0888
vlastně	-13.0915
přetěžk	-13.0931
gersonov	-13.0957
odcházejíc	-13.1051
narozen	-13.1075
vystupuj	-13.1075
jerachmeel	-13.1079
nábožn	-13.1082
přistoup	-13.1092
émž	-13.1126
odplace	-13.1137
zaměstkná	-13.1149
čítán	-13.115
azariášov	-13.1202
zřetel	-13.1256
elasa	-13.1259
poškvrň	-13.1294
začát	-13.1297
vypravujíc	-13.1347
nadut	-13.1355
arah	-13.136
ovoc	-13.1371
ssužova	-13.14
pustivš	-13.1414
tlači	-13.1429
útrž	-13.1437
ječmen	-13.145
achikam	-13.1474
naléz	-13.149
přiblíži	-13.1494
smíšen	-13.1498
ostýcha	-13.1504
rebe	-13.151
bub	-13.1514
abiza	-13.1524
uzdravova	-13.1532
prodléva	-13.1534
různic	-13.1535
zatvrdi	-13.1538
rozráží	-13.1542
okrouhl	-13.1548
sehlti	-13.1559
lišt	-13.1575
zpytuj	-13.1577
oškliv	-13.1581
rostouc	-13.1582
obydl	-13.1582
teskl	-13.1593
chýlil	-13.1594
sofoniáš	-13.1594
údol	-13.1605
zříte	-13.1606
vlékl	-13.1609
rozráže	-13.1615
vědomí	-13.1634
čisťte	-13.1636
růst	-13.1646
zdvižen	-13.1654
obtěžoval	-13.1655
obličej	-13.1661
mívají	-13.1665
rozmáh	-13.1668
nepromluv	-13.1674
zpomenul	-13.1675
zůstavil	-13.1676
6:1	-13.1676
aristarch	-13.1676
fallu	-13.1676
špehuj	-13.1676
8:1	-13.1676
brunátn	-13.1676
cyrenensk	-13.1676
dvoře	-13.1676
gergeze	-13.1676
herodiad	-13.1676
joiarib	-13.1676
nejzadnější	-13.1676
obviňova	-13.1676
zarputil	-13.1676
ahiezer	-13.1676
argob	-13.1676
bakbuk	-13.1676
bouřlivý	-13.1676
centurio	-13.1676
chaterný	-13.1676
chedorlaomer	-13.1676
choulostiv	-13.1676
dosahuje	-13.1676
důchod	-13.1676
elizafan	-13.1676
fadasur	-13.1676
fegiel	-13.1676
gemariáš	-13.1676
jasub	-13.1676
kleštěn	-13.1676
laodici	-13.1676
mezopotami	-13.1676
mlácen	-13.1676
mordéř	-13.1676
nabajot	-13.1676
nejtajnější	-13.1676
nepečujte	-13.1676
neuškodí	-13.1676
obstoupil	-13.1676
obětovával	-13.1676
odplacova	-13.1676
pamfyli	-13.1676
pedaiáš	-13.1676
pečování	-13.1676
posečk	-13.1676
posluchač	-13.1676
pospíší	-13.1676
potřásají	-13.1676
potůčk	-13.1676
pronikl	-13.1676
předstoupil	-13.1676
přetrubování	-13.1676
rozprchnou	-13.1676
rozstoupil	-13.1676
rozsívají	-13.1676
rozvažoval	-13.1676
salamiel	-13.1676
sedeur	-13.1676
ssužující	-13.1676
stkvoucí	-13.1676
svlažován	-13.1676
sžírající	-13.1676
talmon	-13.1676
vyproštěn	-13.1676
vysušuj	-13.1676
vyvrácen	-13.1676
větvoví	-13.1676
zasmušil	-13.1676
zavazuji	-13.1676
zhlupěl	-13.1676
zpěčova	-13.1676
zsinalost	-13.1676
zápověd	-13.1676
účastni	-13.1676
𐊣	-13.1676
𐊼	-13.1676
břečtan	-13.1676
dotýká	-13.1676
groš	-13.1676
horčičné	-13.1676
nedochůdče	-13.1676
nedomnívej	-13.1676
obloupen	-13.1676
odvracují	-13.1676
oklamavateln	-13.1676
osiřel	-13.1676
pohlcen	-13.1676
priscill	-13.1676
protrhuj	-13.1676
pulerovan	-13.1676
pěstoun	-13.1676
přemáhá	-13.1676
rozhlašoval	-13.1676
rytířstv	-13.1676
sformován	-13.1676
shovívaj	-13.1676
smáčín	-13.1676
střepin	-13.1676
svlažen	-13.1676
tkadlcovské	-13.1676
truchliv	-13.1676
vydavatel	-13.1676
vymstívajíc	-13.1676
vyprázdnil	-13.1676
vyrážel	-13.1676
vyšpehov	-13.1676
zapaluj	-13.1676
zapečetil	-13.1676
zrcadl	-13.1676
▁¦39:3	-13.1676
abidan	-13.1676
neodola	-13.1676
nesmrtelnost	-13.1676
nezbraňuj	-13.1676
otíži	-13.1676
přebývej	-13.1676
schovává	-13.1676
vznešen	-13.1676
zavěsí	-13.1676
útisk	-13.1676
alfe	-13.1676
kloub	-13.1676
odplacují	-13.1676
potírá	-13.1676
praporc	-13.1676
provysk	-13.1676
ptačí	-13.1676
zapírá	-13.1676
zproštěn	-13.1676
účasten	-13.1676
macedonský	-13.1676
nezamítej	-13.1676
poddanost	-13.1676
přenášej	-13.1676
zahálejí	-13.1676
ctné	-13.1676
kouřící	-13.1676
kuřát	-13.1676
plejtv	-13.1676
počínej	-13.1676
počíná	-13.1676
rozšířen	-13.1676
sšikuj	-13.1676
tluc	-13.1676
uhlédá	-13.1676
vzývej	-13.1676
zanedbává	-13.1676
zaplatil	-13.1676
zpěvakyn	-13.1676
špatn	-13.1676
zerachiáš	-13.1676
létající	-13.1676
neporušitelnost	-13.1676
aholiab	-13.1676
nehněvej	-13.1676
přinuc	-13.1676
snažoval	-13.1676
svíží	-13.1676
zloupen	-13.1676
člun	-13.1676
doupat	-13.1676
uhasit	-13.1676
vývratk	-13.1676
zřejm	-13.1676
elamitský	-13.1676
mstitel	-13.1676
utěšitel	-13.1676
zavěšov	-13.1676
haggit	-13.1676
architsk	-13.1676
pomštěn	-13.1676
vroucí	-13.1676
antikrist	-13.1676
košilk	-13.1676
odtržen	-13.1676
dešťov	-13.1676
připomen	-13.1676
spřežení	-13.1676
udidl	-13.1676
zuřiv	-13.1676
falti	-13.1676
izmaelitský	-13.1676
nakloní	-13.1676
potáce	-13.1676
nerozumíte	-13.1676
simri	-13.1676
posilněn	-13.1676
sázel	-13.1676
koňsk	-13.1676
připodobním	-13.1676
spokojím	-13.1676
vysuší	-13.1676
dolejší	-13.1676
plinu	-13.1676
těradl	-13.1676
dešti	-13.1676
zkušova	-13.1676
křep	-13.1676
obíral	-13.1676
rozseká	-13.1676
špic	-13.1676
mrzký	-13.1676
mezník	-13.1676
18	-13.1676
zastíra	-13.1676
bíhají	-13.1676
bozor	-13.1676
chromé	-13.1676
popudí	-13.1676
hodovník	-13.1676
pomazuj	-13.1676
kráčej	-13.1676
pelikán	-13.1676
útok	-13.1676
vznášej	-13.1676
osvědčování	-13.1676
lodič	-13.1676
zachvacuje	-13.1676
klesnutí	-13.1677
spanil	-13.1677
výšk	-13.1677
zbělel	-13.1677
přikázav	-13.1677
trpký	-13.1677
sazoval	-13.1677
nechápá	-13.1677
osaměl	-13.1677
pověsi	-13.1677
haléř	-13.1677
dízan	-13.1677
kráčel	-13.1677
prchne	-13.1677
divadl	-13.1677
sází	-13.1677
lahodí	-13.1677
spolk	-13.1677
kárání	-13.1677
žalují	-13.1677
potěšitel	-13.1677
beer	-13.1677
mračn	-13.1677
sluch	-13.1677
krup	-13.1677
tluk	-13.1677
odvrzte	-13.1677
neposkvrněné	-13.1677
vystřelí	-13.1677
elisur	-13.1677
poradím	-13.1677
schran	-13.1677
vítal	-13.1678
gib	-13.1678
cedrovým	-13.1678
zahál	-13.1678
nepoddan	-13.1678
rozsvěcov	-13.1678
jesle	-13.1678
poličk	-13.1678
zohavil	-13.1678
asaiáš	-13.1678
jafi	-13.1679
rechabiáš	-13.1679
chelez	-13.1679
proud	-13.1679
nebraňte	-13.1679
ponesu	-13.1679
válčí	-13.1679
vážk	-13.1679
příprav	-13.1679
matouš	-13.1679
mlátil	-13.1679
skloniv	-13.168
vidlič	-13.168
tekoitsk	-13.168
zůstanu	-13.1681
bér	-13.1682
vysedlo	-13.1682
nestydatost	-13.1682
vyschn	-13.1682
zažžen	-13.1682
sárug	-13.1683
oholil	-13.1683
skakují	-13.1683
gozan	-13.1683
shlédnut	-13.1684
pér	-13.1684
nevracuj	-13.1684
šeňk	-13.1684
raménk	-13.1685
židovin	-13.1686
obešl	-13.1686
rozpustiv	-13.1686
trvajíc	-13.1686
zpořádá	-13.1687
očerstvuj	-13.1688
pochlebuj	-13.1688
dián	-13.1688
sebravš	-13.1688
kvítí	-13.1689
bělost	-13.1691
rozděloval	-13.1692
rozněcov	-13.1692
formuj	-13.1692
klesají	-13.1692
začíná	-13.1694
krátké	-13.1695
doufanlivost	-13.1697
rozlit	-13.1702
vysokomyslnost	-13.1706
hanebn	-13.171
mazán	-13.1713
lvic	-13.1716
nepokojí	-13.1716
umrl	-13.1716
básn	-13.1717
měřic	-13.1717
slušnost	-13.1718
chlupat	-13.1719
krét	-13.1725
emorov	-13.1728
amář	-13.1731
liboval	-13.1745
obestře	-13.1745
chylují	-13.1747
hrub	-13.1748
spatřiv	-13.175
mříž	-13.1757
sofoniášov	-13.1758
rozdír	-13.1763
rozšiřuje	-13.1765
izbozetov	-13.177
všelija	-13.1774
zpouz	-13.1782
kareachov	-13.1782
ceněn	-13.1786
povyšuje	-13.1786
dravý	-13.1788
desater	-13.179
zbouřen	-13.1794
abinadabov	-13.1794
veleslav	-13.1795
#	-13.7509
]	-14.3652
!	-14.3653
?	-14.3654
;	-14.3655
,	-14.3656
