<pad>	0
</s>	0
<unk>	0
▁क	-0
▁स	-1
▁ह	-2
▁प	-3
▁म	-4
्र	-5
ार	-6
▁है	-7
ें	-8
▁ज	-9
▁अ	-10
▁के	-11
▁व	-12
या	-13
▁न	-14
▁ब	-15
▁उ	-16
▁त	-17
ों	-18
▁द	-19
▁ल	-20
▁औ	-21
ने	-22
▁और	-23
▁में	-24
र्	-25
▁र	-26
ता	-27
्य	-28
▁की	-29
▁कर	-30
ान	-31
▁कि	-32
▁प्र	-33
▁आ	-34
▁को	-35
िक	-36
▁से	-37
्त	-38
▁भ	-39
▁का	-40
ना	-41
▁इ	-42
▁ग	-43
ित	-44
▁(	-45
▁पर	-46
▁य	-47
ाल	-48
▁हो	-49
▁ए	-50
्व	-51
▁च	-52
ही	-53
न्	-54
▁लि	-55
▁श	-56
ते	-57
▁वि	-58
▁सं	-59
▁जा	-60
▁हैं	-61
▁इस	-62
▁उस	-63
के	-64
ला	-65
▁ख	-66
ोग	-67
था	-68
्ष	-69
ति	-70
ड़	-71
▁एक	-72
स्	-73
ुम	-74
िय	-75
▁लिए	-76
हा	-77
▁सम	-78
हीं	-79
्या	-80
ती	-81
▁फ	-82
्ट	-83
▁अप	-84
▁उन	-85
▁जो	-86
▁तो	-87
▁सा	-88
▁नहीं	-89
वा	-90
▁दे	-91
▁तुम	-92
▁नि	-93
▁हम	-94
रा	-95
से	-96
दा	-97
िया	-98
▁भी	-99
▁ने	-100
त्र	-101
का	-102
ल्	-103
सी	-104
▁रा	-105
▁जि	-106
▁या	-107
▁बा	-108
री	-109
कार	-110
गा	-111
नी	-112
क्ष	-113
▁किया	-114
ज़	-115
▁अन	-116
ास	-117
▁यह	-118
▁ही	-119
ले	-120
सा	-121
ष्ट	-122
की	-123
ेश	-124
ारा	-125
कर	-126
मा	-127
▁करने	-128
▁थ	-129
ंग	-130
▁अध	-131
▁मु	-132
त्	-133
▁लोग	-134
▁वह	-135
िर	-136
▁स्	-137
▁हु	-138
क्त	-139
▁कु	-140
कि	-141
▁दि	-142
▁कार	-143
▁रह	-144
ाम	-145
▁ड	-146
▁उप	-147
ारे	-148
ाह	-149
न्ह	-150
▁सक	-151
द्	-152
▁अपने	-153
ियों	-154
ारी	-155
▁वे	-156
मान	-157
▁था	-158
▁ले	-159
▁ऐ	-160
▁1	-161
िल	-162
स्त	-163
▁ध	-164
रे	-165
वि	-166
ूप	-167
्च	-168
गे	-169
▁पू	-170
▁सु	-171
्री	-172
▁भार	-173
भा	-174
▁जिस	-175
ंत	-176
▁आप	-177
में	-178
▁गया	-179
▁पह	-180
▁उन्ह	-181
ैं	-182
ओं	-183
ंध	-184
▁तथा	-185
▁वाल	-186
दि	-187
्ह	-188
▁कुछ	-189
ली	-190
▁छ	-191
▁किसी	-192
▁ख़	-193
▁द्व	-194
ीन	-195
▁तुम्ह	-196
ूल	-197
▁दो	-198
▁अनु	-199
▁स्व	-200
▁साथ	-201
ाप	-202
ुदा	-203
▁मे	-204
▁जब	-205
को	-206
देश	-207
▁घ	-208
म्	-209
▁रूप	-210
खा	-211
ोज	-212
▁चाह	-213
▁अधिक	-214
▁कोई	-215
▁निर्	-216
ंद	-217
ंड	-218
ाय	-219
ुर	-220
द्ध	-221
▁उनके	-222
▁विश	-223
गी	-224
▁ला	-225
ार्	-226
▁थे	-227
▁ट	-228
▁तक	-229
भी	-230
▁द्वारा	-231
न्द	-232
ढ़	-233
▁करें	-234
▁करते	-235
▁पा	-236
▁व्य	-237
▁राज	-238
▁प्रति	-239
गर	-240
▁लोगों	-241
▁भा	-242
ाना	-243
र्व	-244
▁बना	-245
▁दिया	-246
नों	-247
▁क्ष	-248
▁परि	-249
▁2	-250
क़	-251
▁वर्	-252
योग	-253
त्त	-254
▁जाए	-255
▁बह	-256
लाह	-257
ंत्र	-258
ुत	-259
▁कह	-260
▁भारत	-261
धार	-262
▁मा	-263
▁फिर	-264
जी	-265
ये	-266
ाद	-267
िए	-268
▁राष्ट	-269
▁तर	-270
▁अल्	-271
▁सि	-272
▁कार्य	-273
क्	-274
▁ये	-275
रण	-276
▁मैं	-277
्ञ	-278
ुन	-279
▁अव	-280
▁कहा	-281
क्र	-282
▁स्थ	-283
▁जाता	-284
बंध	-285
्छ	-286
▁रहे	-287
▁उसके	-288
क्ति	-289
▁क्या	-290
फ़	-291
▁"	-292
▁रख	-293
▁इन	-294
▁सब	-295
▁ई	-296
ूर	-297
ष्	-298
▁करना	-299
▁अल्लाह	-300
▁ज़	-301
ड़ा	-302
नि	-303
▁ख़ुदा	-304
▁अपनी	-305
▁थी	-306
द्य	-307
▁सर	-308
ंच	-309
ानी	-310
ब्	-311
जा	-312
न्न	-313
▁फ़	-314
▁मह	-315
च्छ	-316
त्य	-317
र्ण	-318
▁जी	-319
स्थ	-320
▁बात	-321
▁हुए	-322
मी	-323
्यों	-324
दी	-325
पर	-326
▁सू	-327
▁विक	-328
▁उन्हें	-329
▁करता	-330
▁सी	-331
्रे	-332
▁होता	-333
िन	-334
वाल	-335
श्च	-336
▁क़	-337
ेत्र	-338
▁ओ	-339
ोंने	-340
▁रहा	-341
ड़े	-342
▁सकता	-343
कृ	-344
िका	-345
▁उसे	-346
ाइ	-347
ाप्त	-348
चार	-349
▁हि	-350
▁दी	-351
▁बी	-352
र्थ	-353
▁जान	-354
बर	-355
च्च	-356
▁गु	-357
मे	-358
वर्	-359
ूस	-360
▁क्षेत्र	-361
▁मान	-362
▁देख	-363
टा	-364
▁बहुत	-365
▁समय	-366
▁राष्ट्र	-367
ड़ी	-368
ज्ञ	-369
▁मि	-370
दान	-371
पू	-372
हर	-373
▁पु	-374
▁जै	-375
र्म	-376
▁बाद	-377
भि	-378
ोल	-379
▁पै	-380
शन	-381
वन	-382
▁आय	-383
ियम	-384
कों	-385
टी	-386
पति	-387
वे	-388
▁तरह	-389
▁सह	-390
▁बे	-391
▁वाले	-392
▁उन्होंने	-393
▁हुआ	-394
▁काम	-395
▁पास	-396
वी	-397
▁देश	-398
▁पहले	-399
▁अंत	-400
ोक	-401
प्र	-402
▁हमने	-403
ेष	-404
चना	-405
▁उत्	-406
स्था	-407
्रीय	-408
▁ना	-409
▁होगा	-410
▁जिन	-411
ुल	-412
▁उनकी	-413
क्षा	-414
▁यदि	-415
▁तुम्हारे	-416
ौर	-417
▁गई	-418
झे	-419
▁बि	-420
▁गए	-421
ख़	-422
▁प्राप्त	-423
्रा	-424
धान	-425
▁सरकार	-426
▁अन्य	-427
▁संबंध	-428
▁दिन	-429
▁होने	-430
▁ओर	-431
▁हू	-432
न्त	-433
▁वर्ष	-434
▁पी	-435
▁सम्	-436
धि	-437
यों	-438
▁सभी	-439
▁कम	-440
एँ	-441
▁छो	-442
▁विश्व	-443
हां	-444
▁चु	-445
▁19	-446
▁ऐसे	-447
▁करो	-448
िक्ष	-449
00	-450
▁हमारे	-451
गत	-452
लि	-453
▁राष्ट्रपति	-454
स्ता	-455
करण	-456
वं	-457
▁नाम	-458
▁प्रा	-459
दार	-460
▁झ	-461
▁निक	-462
श्य	-463
▁प्रकार	-464
▁बद	-465
ंक	-466
▁सकते	-467
एं	-468
टे	-469
▁साम	-470
▁ता	-471
भाव	-472
▁चाहिए	-473
सर	-474
िश	-475
ीय	-476
तीय	-477
▁s	-478
▁मिल	-479
▁इसके	-480
ग्र	-481
▁बु	-482
▁ऊ	-483
तर	-484
▁बढ़	-485
स्ट	-486
वर	-487
्स	-488
▁किए	-489
िप	-490
▁उसकी	-491
चा	-492
▁हर	-493
त्व	-494
▁जाने	-495
▁होती	-496
बा	-497
हाँ	-498
ंप	-499
जन	-500
▁अच्छ	-501
शा	-502
ोजना	-503
तिक	-504
ूम	-505
दर्	-506
▁ची	-507
▁नी	-508
▁'	-509
▁दूस	-510
▁रस	-511
माण	-512
▁ईमान	-513
रो	-514
▁ठ	-515
शी	-516
▁अगर	-517
▁करे	-518
पूर्ण	-519
यी	-520
बी	-521
मत	-522
िति	-523
▁ऐसा	-524
▁एवं	-525
▁हों	-526
गार	-527
ास्त	-528
▁राज्य	-529
द्योग	-530
▁समझ	-531
▁पहु	-532
▁कारण	-533
▁विकास	-534
सार	-535
पाद	-536
▁अब	-537
▁व्यक्ति	-538
▁लग	-539
▁भारतीय	-540
ची	-541
ात	-542
▁कृ	-543
्यू	-544
▁मो	-545
ेंगे	-546
ध्य	-547
▁मुझे	-548
वल	-549
त्म	-550
▁रसूल	-551
▁हुई	-552
ाली	-553
▁(_	-554
▁हा	-555
ुक्त	-556
ाइल	-557
द्र	-558
▁स्त	-559
वार	-560
टर	-561
ेज	-562
▁जन	-563
किन	-564
▁पूर्व	-565
धा	-566
यन	-567
▁व्या	-568
01	-569
ष्ठ	-570
ेल	-571
▁लगा	-572
ज़ा	-573
मु	-574
▁मूल	-575
तन	-576
▁दु	-577
▁क्यों	-578
▁उसने	-579
पी	-580
▁लेकिन	-581
▁दिखा	-582
▁लिया	-583
▁बन	-584
क्रम	-585
▁वा	-586
तः	-587
▁दोनों	-588
▁जाती	-589
on	-590
िम	-591
▁प्रश	-592
▁तुम्हें	-593
लों	-594
▁मौ	-595
▁सद	-596
▁क्र	-597
दे	-598
ोर	-599
▁वै	-600
लय	-601
▁अस	-602
▁अपना	-603
ाला	-604
▁उपयोग	-605
▁ऐसी	-606
वाद	-607
लग	-608
▁खा	-609
्ड	-610
▁आव	-611
▁जीवन	-612
▁विशेष	-613
▁चल	-614
▁होते	-615
▁3	-616
▁अभि	-617
हाय	-618
चे	-619
▁à	-620
▁ग्र	-621
▁प्रदान	-622
िंग	-623
धिक	-624
तों	-625
▁बारे	-626
▁रही	-627
▁बीच	-628
▁ढ	-629
▁बै	-630
व्य	-631
▁रु	-632
▁वाला	-633
▁मुख	-634
▁मन	-635
कारी	-636
▁बार	-637
फल	-638
▁भाग	-639
▁यु	-640
▁उत्त	-641
।"	-642
▁समा	-643
चित	-644
काश	-645
▁खु	-646
▁श्री	-647
▁शिक्ष	-648
me	-649
▁निय	-650
▁जैसे	-651
ेक	-652
▁सहाय	-653
▁वास्त	-654
▁स्था	-655
▁उसका	-656
ंभ	-657
▁ऑ	-658
तना	-659
▁आधार	-660
ठा	-661
ख्या	-662
डी	-663
िस	-664
वेश	-665
▁आज	-666
▁सेवा	-667
ti	-668
षण	-669
िला	-670
▁कै	-671
▁न्या	-672
कता	-673
▁जाएगा	-674
▁देने	-675
्ल	-676
हित	-677
षा	-678
▁केवल	-679
▁चीज़	-680
..	-681
धन	-682
▁उनका	-683
▁दृ	-684
▁गा	-685
▁माल	-686
ल्प	-687
▁हमें	-688
▁प्रयोग	-689
▁मेरे	-690
ून	-691
▁रब	-692
ग़	-693
ार्थ	-694
▁आवश्य	-695
▁सो	-696
▁जिसमें	-697
ूद	-698
ज्ञान	-699
क्षण	-700
▁हूँ	-701
▁दर	-702
▁बो	-703
▁वही	-704
▁विचार	-705
▁सर्व	-706
रिक	-707
▁निश्च	-708
▁मार्	-709
▁स्थान	-710
ियां	-711
णी	-712
▁ताकि	-713
र्य	-714
▁स्प	-715
▁पैदा	-716
ित्र	-717
▁मै	-718
पित	-719
ुट	-720
▁वाली	-721
▁प्रत्य	-722
्न	-723
न्तु	-724
▁n	-725
▁सबसे	-726
▁इसे	-727
in	-728
▁बड़ा	-729
▁उसी	-730
िता	-731
रों	-732
▁जाना	-733
ंस	-734
त्ता	-735
▁निर्धार	-736
िनियम	-737
यास	-738
▁माम	-739
▁हमारी	-740
तु	-741
▁अथ	-742
▁विष	-743
▁पार	-744
लब्	-745
▁अधिनियम	-746
र्क	-747
र्ष	-748
▁रो	-749
▁धारा	-750
हार	-751
▁देता	-752
▁तब	-753
▁जाते	-754
▁अधिकार	-755
▁शु	-756
▁इसमें	-757
▁दा	-758
ेर	-759
▁राष्ट्रीय	-760
▁आर	-761
लिए	-762
ूत	-763
▁कंप	-764
भाग	-765
▁आस	-766
▁डि	-767
▁उपलब्	-768
▁योजना	-769
▁उत्पाद	-770
ियाँ	-771
ब्द	-772
पा	-773
▁जिसे	-774
▁व्यव	-775
ुनिया	-776
▁बस	-777
▁लिख	-778
▁अथवा	-779
द्योगिक	-780
an	-781
▁हे	-782
बे	-783
▁संदेश	-784
▁पश्च	-785
▁फ़ाइल	-786
▁सामान	-787
कृत	-788
ूह	-789
ताओं	-790
▁परवर	-791
वरण	-792
▁बल्	-793
▁शाम	-794
▁उससे	-795
्यान	-796
ंज	-797
दिगार	-798
मिक	-799
▁शुर	-800
▁सूचना	-801
▁क्योंकि	-802
▁दर्	-803
वान	-804
▁उनसे	-805
सं	-806
▁परवरदिगार	-807
भव	-808
क्रिया	-809
▁मार्ग	-810
▁ज्ञ	-811
▁पुर	-812
काल	-813
▁महत्व	-814
िट	-815
▁तै	-816
▁स्ट	-817
त्या	-818
tion	-819
श्व	-820
▁सकती	-821
▁लो	-822
▁बैं	-823
त्रा	-824
▁दौर	-825
▁	-826
ा	-827
क	-828
र	-829
े	-830
्	-831
न	-832
ि	-833
स	-834
त	-835
ह	-836
ं	-837
ी	-838
म	-839
ो	-840
य	-841
प	-842
ल	-843
व	-844
द	-845
ज	-846
ु	-847
ग	-848
ब	-849
ै	-850
अ	-851
श	-852
ए	-853
उ	-854
च	-855
़	-856
भ	-857
ू	-858
।	-859
ट	-860
औ	-861
,	-862
ध	-863
थ	-864
ख	-865
ष	-866
आ	-867
ड	-868
इ	-869
ण	-870
फ	-871
(	-872
)	-873
.	-874
ई	-875
-	-876
छ	-877
ँ	-878
1	-879
ृ	-880
ौ	-881
0	-882
ओ	-883
ठ	-884
e	-885
2	-886
ऐ	-887
a	-888
घ	-889
झ	-890
i	-891
à	-892
t	-893
ढ	-894
n	-895
"	-896
o	-897
ः	-898
ॉ	-899
s	-900
¤	-901
4	-902
r	-903
9	-904
3	-905
/	-906
5	-907
'	-908
ञ	-909
l	-910
?	-911
m	-912
;	-913
%	-914
8	-915
:	-916
6	-917
ऊ	-918
p	-919
7	-920
d	-921
h	-922
c	-923
_	-924
‍	-925
u	-926
!	-927
b	-928
g	-929
¥	-930
ऋ	-931
ऑ	-932
C	-933
y	-934
S	-935
A	-936
०	-937
१	-938
N	-939
k	-940
I	-941
f	-942
w	-943
T	-944
M	-945
#	-946
‘	-947
”	-948
R	-949
P	-950
E	-951
’	-952
v	-953
D	-954
L	-955
२	-956
>	-957
O	-958
&	-959
“	-960
⁄	-961
x	-962
९	-963
F	-964
	-965
B	-966
–	-967
°	-968
<	-969
U	-970
	-971
	-972
५	-973
G	-974
३	-975
८	-976
H	-977
@	-978
	-979
६	-980
४	-981
{	-982
}	-983
७	-984
̧	-985
j	-986
]	-987
¿	-988
̈	-989
\	-990
ॅ	-991
[	-992
V	-993
ङ	-994
W	-995
Y	-996
