<pad>	0
</s>	0
<unk>	0
¦	-1.28845
▁¦	-1.48284
▁,	-3.48883
▁	-3.68599
𐊣	-4.06698
𐊼	-4.06698
ꭲ	-4.12603
ꭰꮄ	-4.17442
▁.	-4.21144
ꮎꮝꭹ	-4.42185
ꮓ	-4.58912
▁;	-4.60594
ꭹ	-4.82178
ꭿꭰ	-5.10788
ꭸꮢ	-5.18363
ᏹ	-5.28771
ꭿ	-5.44164
ꭽ	-5.54132
ꮧ	-5.58447
ꭵꮭ	-5.70351
ꭸꮢꭲ	-5.71513
ᏸꮓ	-5.73541
ꮎ	-5.78478
ꭴꮑꮃꮕꭿ	-5.87252
ꮫ	-6.03132
ꭰ	-6.09565
ꭶ	-6.18682
▁?	-6.21841
ꭸꮞꮝꮧ	-6.22617
ꮙ	-6.29602
ꭰꮞ	-6.32602
ꮵꮜ	-6.34358
ᏼꮻ	-6.36001
ꮎꮝꮙ	-6.36205
ꭹꮆ	-6.36627
ꮵ	-6.37093
ꭰᏼ	-6.40211
ꭴ	-6.40253
ꮎꮝꭹꮿ	-6.40423
ꮏꮙ	-6.43595
-	-6.48127
ꮒꭿ	-6.49828
ꮵꭹ	-6.5101
ꮒꭸꮢꮎ	-6.51133
ꭴꭼꮻᏻꭿ	-6.52591
ꮝꭹꮒ	-6.53001
ꮧᏹ	-6.5471
ꭲᏻꮝꮧ	-6.54904
ꮒ	-6.61183
ꮎꮏ	-6.66635
ꮝꮧ	-6.67478
ꮣ	-6.69084
ᏻ	-6.69356
ꭶꮆꮑꮫ	-6.70236
ᏹꭹ	-6.75777
ꭺꮁꮝꮧ	-6.81531
ꮒꭶꮫ	-6.87895
ꭳꮝꮫ	-6.91215
ꭲᏻꮓ	-6.96974
ꮷ	-6.97564
ꭲꭶ	-7.00638
ꭲᏻ	-7.05921
ꮎꮝꭹꮓ	-7.06533
ꭶꮩ	-7.06641
ꮿ	-7.07854
ꮮꮝꮧ	-7.09393
ꭴꮺꮵ	-7.11055
ꮟ	-7.11097
ꭾꮝꮧ	-7.11485
ꮕ	-7.11746
ꭱꮆꭿ	-7.11787
ꮳ	-7.13064
ꮝꭹ	-7.22271
ꭴꮳꮨ	-7.23782
ꮅ	-7.24974
ꮻ	-7.26021
ꮒꭶꭵ	-7.26187
ꭸꮝꮧ	-7.2692
ꭸ	-7.28795
ꭰꮒ	-7.28943
ꭴᏺ	-7.29661
ꮔꮝꮫ	-7.31729
ꭼꮒꭸꮢ	-7.33043
ꭼ	-7.33399
ꭷꮓꭾꮫ	-7.33681
ꭴꮹꮢ	-7.3528
ꭶꮈꮙꮧᏻ	-7.36895
ꭰꮣꮕꮩ	-7.36911
ꭸꮞ	-7.39004
ꭶꮈꮃꮧ	-7.39787
ꮔꮺꮞ	-7.41015
ꭿꭰꮓ	-7.41473
ꮧꭷꮏꮹꮫꮝꮧ	-7.41576
ꭳꮟᏻ	-7.41581
ꮈꭿ	-7.41658
ꭲᏼꮫ	-7.43076
ꭴꮒ	-7.43681
ꭰꮵꮈ	-7.43788
ꭺꭿ	-7.46796
ꮎꭿᏻ	-7.47444
ꭱꭿ	-7.48531
ꭴꮯ	-7.48978
ꭰꮝꭶꮿ	-7.50211
ꭲᏻꮅꮝꮩꮧ	-7.5058
ꮥ	-7.52438
ꮤꮕꭿ	-7.55454
ꭴꮴꮅꭶ	-7.56845
ꮝꭺ	-7.57256
ꮈꭹ	-7.58579
ꮝꭸꮝꮧ	-7.5887
ꮞ	-7.59817
ꭼꮹ	-7.61287
ᏸꮅ	-7.61872
ꮕꭹ	-7.62025
ꭴꮴꮅ	-7.62262
ꭼꮒᏻꮙ	-7.62598
ꮎꮒꭵ	-7.64203
ꮪ	-7.64241
ꮔꮺꮢ	-7.66985
ꮵꮜꮓ	-7.69125
ꮈ	-7.70046
ꮪᏻꭺꮫ	-7.70878
ꭱ	-7.71398
ꮜꮙ	-7.72035
ꮝꮧᏹ	-7.72915
[	-7.73798
ꮔ	-7.73952
ꭴꮒꮳꮨ	-7.76304
ꮨ	-7.8008
ꭰꮑꭿ	-7.80512
ꭲꮵ	-7.81234
ꮒꮪꮺꮞꮄ	-7.81748
ꮔꮺꮞꮄ	-7.82001
ꮤꮅꮑ	-7.83196
ꮙꮃ	-7.8386
ꭰꮒꮷꮟ	-7.8421
ꭺ	-7.85349
ꮷꮣꮄꮕꮫ	-7.85891
ꭼꮹꮝꮣꮹꮧꮩꭿ	-7.8643
ꮢ	-7.8713
ꮩꮧᏹ	-7.87139
ꮄꭲ	-7.87181
ꮕꭿ	-7.8724
ꭺꭲ	-7.87564
ꭾ	-7.88565
ꭴꭼꮹꮅ	-7.89255
ꮤ	-7.90257
ᏼ	-7.92532
ꮑ	-7.92766
ꮘꮣ	-7.93672
ꮢꭹ	-7.94628
ꮴ	-7.9792
ꮳꮒ	-7.98352
ꮂ	-8.00287
ꮄ	-8.01049
ꭴꮩꭿᏻꭿꮿ	-8.02873
ꮕꮧꭶꮅꮝꮩꮧꭽ	-8.03217
ꮭꮝꭺ	-8.05445
ꭺꭿᏻꮧ	-8.06476
ꭵ	-8.06782
ꮧꭶꮃꮻꭲꮝꮧᏹ	-8.06855
ꮒꮪꮺꮞꮈ	-8.07402
ꭲꮷꮃꭽ	-8.07652
ꭶꭺ	-8.08167
ꮵꮇꮟꮅꮋ	-8.09644
ꭲꭼᏹ	-8.09927
ꮒꭺꭿꮈ	-8.09953
ꭰꮉ	-8.12039
ꭼꮒꮫ	-8.12741
ꭰꮟ	-8.13659
ꮳꭼꮻᏻꭿ	-8.13981
▁]	-8.13986
ꭶꮪꮂ	-8.14462
ꮩ	-8.14994
ꭴꮑꮸ	-8.15019
ꮧꭽ	-8.15348
ꭰꭸᏼ	-8.155
ꮀ	-8.15518
ꮑꭲ	-8.15761
ꭶꮪ	-8.16431
ꭼꮧ	-8.16766
ꮕꮹꮣꮄ	-8.16972
ꭼꮒ	-8.1732
ꭰᏸꮅ	-8.18389
ꭲꮿꮒ	-8.18909
ꮤꮅ	-8.19012
ꮔꮅꮝꮤꮕ	-8.19324
ꮩꮧ	-8.19348
ꭱꮝꭶ	-8.20736
ꭲꭶꮫ	-8.21883
ꭴꮕꮢ	-8.22394
ꭰꮥꮈ	-8.22436
ꭴꮣꮩꮅꮝꮧ	-8.22446
ꮒꭶꮧᏻ	-8.23249
ꮔꮺꮞꮈ	-8.23346
ᏺ	-8.23964
ꮷꮺꮵ	-8.2491
ꮵꭺ	-8.25121
ꮷꮎꮣꮄꮕꮫ	-8.25715
ꮂꭲ	-8.25831
ꮎꭵ	-8.31636
ꭳ	-8.31789
ꭰꭹ	-8.33213
ᏹꭸꮞ	-8.35991
ꭲᏻꮹꮒꮜ	-8.36233
ꭰꮑꮂ	-8.36429
ꭿꮝꮧᏹ	-8.37225
ꭳꭹ	-8.37547
ꮀꭲ	-8.3787
ꭼꮹꭶꮨꮿ	-8.38074
ꭴꮩꭿᏻꭿ	-8.39015
ꭹꮃꮙ	-8.39066
ꮪꮒ	-8.39715
ꭴꮝꮧ	-8.40318
ꮝꭼꭲ	-8.40324
ꭰꮟꮙ	-8.41159
ꮸ	-8.41239
ꭰꮖ	-8.4174
ꮒꮸꮺꮞ	-8.41824
ꮷꮎꮑꮆꮧ	-8.4189
ꭰꮟᏼꮻ	-8.41917
ꮵꭶꮤꭽ	-8.42984
ꮷꮴꮅ	-8.43867
ꮹ	-8.44359
ꮷꮩ	-8.44758
ꭲꭶꭲ	-8.44917
ꭼꭹ	-8.45189
ꮙꮝꭹꮒ	-8.4546
ꮓꮕ	-8.45663
ꭲꮴ	-8.45768
ꭲꮸ	-8.45787
ꮧꭷꮏꮹꮧꮩꭿ	-8.45866
ꮔꭼꮻᏻꮢ	-8.45867
ꮷꮒ	-8.45877
ꭴꮎ	-8.46093
ꮷꮎ	-8.46178
ꮧꮝꭸꮝꮧ	-8.4641
ꮔꮒꮺꮞ	-8.46554
ꮔꮒꮺꮢ	-8.46948
ꭼꭲ	-8.47307
ꮢꭿ	-8.47689
ꭴꮇꮸ	-8.47985
ꮂꭹ	-8.49752
ꭲꮣꮅꮕꮯ	-8.50091
ꮕꮿ	-8.52084
ꭹꮆꮓ	-8.52314
ꭰᏸꮈ	-8.52391
ꭰꮻ	-8.53198
ꭴꮗꮣꮅ	-8.53417
ꮧꮒ	-8.54216
ꭴꮅꮒꭹꮫ	-8.54278
ꭲꭶꮴꮅ	-8.54349
ꮶ	-8.54791
ꮧꭶꮈꮻꮝꮣꮑꮧ	-8.54906
ꭴꮪꭹ	-8.57209
ꭷ	-8.57432
ꭲꮫ	-8.57514
ꮶꭲ	-8.58485
ꮝꮫ	-8.58804
ꭴꮥꮅꮫ	-8.58858
ꮕꮹꮩꭿꮿꮫ	-8.5886
ꮷꭼꮹꮆꮧ	-8.58869
ꭱꮩꮣ	-8.58896
ꭲꮧꮲ	-8.5911
ꭺꮺꮅ	-8.59633
ꮭ	-8.60548
ꭳꮒ	-8.60775
ꭰꮒꮝꭶꮿ	-8.61238
ꮞꮝꮧ	-8.61573
ꭰꮣ	-8.61724
ꮼ	-8.61868
ꭲꮳ	-8.62667
ᏸꮅꮙ	-8.62835
ꮃ	-8.62882
ꮔꮅꮝꮤꮑ	-8.63408
ꭴꮎꮣꮕꮨ	-8.64815
ꭰꮎꮩꮄꮀꮝꭹ	-8.64827
ꮪꮩꭵ	-8.64842
ꭲꭼᏹᏹ	-8.6569
ꮝꭶ	-8.65826
ꭻ	-8.66654
ꭶꮅꮙꭹ	-8.67161
ꮤꮃꮪ	-8.67306
ꮕꮣᏻꮣꮄꮕ	-8.67805
ꮕꮧꭶꮅꮝꮩꮧꮝꭸ	-8.68032
ꭲꮈꭿᏻ	-8.6857
ꭴꮑꮃꭹ	-8.68775
ꮸꭿ	-8.69532
ꮔꮝꮧ	-8.69999
ꭺꮺꮃ	-8.70939
ꭰꮒꮤꮅ	-8.71259
ꮠꭲ	-8.71396
ꮵꭸꮞ	-8.7153
ꭶꮣꭽ	-8.72194
ꭱꮖꭽꮋ	-8.72459
ꮜꮹꮒ	-8.7246
ꭱꮃꮧ	-8.72556
ᏹꮀꮹ	-8.72731
ꮑꮧᏹ	-8.72797
ꮜ	-8.72801
ꭲꮟꮅ	-8.73539
ꮔꮒꭼꮻᏻꮢ	-8.73794
ꭸꭲ	-8.74055
ꮽ	-8.74089
ꭸꮠꭲ	-8.7423
ꮤꮕ	-8.74453
ꭸꮅꮅ	-8.75155
ꭰꮝꭶꮒ	-8.75177
ꭰꭶꮤꮂ	-8.75402
ꭴꮝꮖꮒꭺꮧ	-8.7644
ꮌꮟ	-8.76554
ꭴꮎꮴꮅꭶ	-8.76797
ꮫꮎ	-8.76822
ꭰꮑꮆ	-8.77457
ꮩꭿ	-8.77673
ꭰꮒꮖꮅꮟ	-8.77915
ꭸꮆꭿ	-8.77931
ꭴꮎꮣꮱꭼ	-8.77932
ꮤꮕꭹ	-8.78474
ꮧꮒꭷꮏꮹꮧꮩꭿ	-8.7931
ꭰꮩꮄꮀꮝꭹ	-8.7932
ꮥꮝꮧ	-8.80043
ꮵꭸꮠ	-8.80441
ꭴꮺ	-8.80606
ꭶꮩꭿ	-8.80765
ᏸ	-8.80851
ꮲ	-8.814
ꭱꮵ	-8.82228
ꮒꭼꮕ	-8.82418
ꭰꮞꮙ	-8.82437
ꭶꮑꮈ	-8.83556
ꭰᏺꮁꭿꮝꮧ	-8.83667
ꭴꭺꮂ	-8.84109
ꮧꮝꭹ	-8.84495
ꭴꮣ	-8.8482
ꭹꭼ	-8.84872
ꮥᏺꮂꮝꭹ	-8.85092
ꮖ	-8.85363
ꮵꭸꮢ	-8.85377
ꮆ	-8.85507
ꭲꭹ	-8.85809
ꮠ	-8.86027
ꭰꮣꮑꮈ	-8.86552
ꭰꭶᏼꮅꭸ	-8.86595
ꭲꮸꮢ	-8.86643
ꭴᏺꮁꮢ	-8.87776
"	-8.88256
ꮑꮈꭿ	-8.89312
ꮩꮣ	-8.89542
ꭲꮿꭶᏼꮅ	-8.89767
ꮤꮒ	-8.89825
ꮥꮻ	-8.9005
ꮂꭶ	-8.90675
ꭰꮝꭹꮎ	-8.9136
ꭷꮑꭼ	-8.92148
ꭴꮵ	-8.92257
ꭺꮺꮈ	-8.92313
ꭴꮫꮕ	-8.92475
ꮂꮎ	-8.92518
ꭶᏻꮃ	-8.92968
ꭰꮣꭸᏻꮧ	-8.92991
ꮨꮒꮩ	-8.93255
ꮢꮎ	-8.93324
ꮒꭼꮎꮫ	-8.94608
ꭲᏻꮎꮝꮧ	-8.9461
ꭴꮅꮒꭹꮧᏻ	-8.94621
ꭴꮩꮣ	-8.94802
ꭲꮴꮂ	-8.94981
ꭶꮨ	-8.9561
ꮒꭼ	-8.9573
ꭰꮝꮣꮿ	-8.96303
ꭰꭶᏼꮅꭸꭲ	-8.96382
ꮊꮅ	-8.96557
ꮕꮟꮣꮝꮧ	-8.96986
ꭴꮕ	-8.9729
ꭰꮎꮅꮕꮯ	-8.97969
ꭰꮖꮴꮅ	-8.97973
ꮑꮃꮕꭿ	-8.9798
ꭶꮆꭿꮝꮧᏹ	-8.98105
ꭸꮳ	-8.99376
ꭰꮒꮝꭹꮎ	-8.99694
ꭴꮰᏹ	-8.99874
ꭼꮧꮝꭼ	-9.00547
ꭿᏻ	-9.01326
ꮣꮒ	-9.01399
ꮒꮵꭵ	-9.01466
ꭸꮵꮕꮟꮫ	-9.01487
ꭲꮎꭸ	-9.03178
ꭰꮓꭿᏻꮂꮝꭹ	-9.03283
ꮖꮄꮧ	-9.03348
ꭹꭶꭸ	-9.03848
ꮒꭶꮺꮝꭼ	-9.04109
ꮧꭶ	-9.0426
ꮕꮣ	-9.04395
ꮕꮹꮎꮣꮄ	-9.05051
ꮷꮒᏺꮁꮢꭿ	-9.05053
ꮸꮢ	-9.05147
ꮎꮝꭹꮝꭹꮒ	-9.05466
ꭵꭹ	-9.06314
ꭶᏸꭺꭹ	-9.06927
ꭰꮒꭸᏼ	-9.06931
ꭰꮵꮈꮙꮧ	-9.07913
ꭲᏻꮝꭹꮒ	-9.08068
ꮝꮩꮧ	-9.08108
ꮧꮓꮺꮅꮝꭹ	-9.0879
ꭲꭼᏹꮧꮲ	-9.08799
ꮤꮑ	-9.08825
ꮢꮓᏹ	-9.0886
ꭱꮂ	-9.08902
ꭰꭹꮎ	-9.08943
ꭴꮎꮫꭶꮕ	-9.09408
ꮧꮎ	-9.09572
ꭶꮈꮆꭲ	-9.09659
ꭲꮿ	-9.10101
ꮔꮣꮄꮢ	-9.10728
ꭰꮒꭶꮤꮂ	-9.10732
ꮧꮳ	-9.10834
ꭰꮵ	-9.11133
ꮯ	-9.12004
ꮢꭲ	-9.12115
ꮝꭶꮿ	-9.12639
ꭼꮎ	-9.12678
ꭴꮣꮕꮨ	-9.1268
ꭵꭵ	-9.12765
ꭴꮴꮅꭺꭿ	-9.1317
ꭴꮑ	-9.13436
ꮵᏻ	-9.13741
ꮕꮩ	-9.13767
ꭰꮫ	-9.1379
ꮂꮟ	-9.14286
ꭴꮎꮴꮅ	-9.14288
ꭰꮊꮙꭿ	-9.14674
ꭴꮣꮅꭲ	-9.14676
ꭴꮎꮩꮣꮖꮝꭼ	-9.14679
ꭱꮆꮫ	-9.14696
ꭴꮒꭼꮻᏻꭿ	-9.14706
ꮶꭲꮑ	-9.14918
ꭴᏺꭲᏻ	-9.15266
ꮑꭾꮝꮧ	-9.15605
ꮥꭹ	-9.16325
ᏹꭶ	-9.16535
ꭱꮊ	-9.16718
ꭰᏺꮅ	-9.16763
ꭴᏸꮈꮫ	-9.16769
ꮱꭼ	-9.16879
ꮡ	-9.16909
ꭶꮅ	-9.17113
ꭿꮝꭹ	-9.17566
ꮣꮑꮧ	-9.17843
ꮑꭽ	-9.18155
ꮵᏻꭿ	-9.18192
ꮈꭽ	-9.18296
(	-9.18798
ꭴꮑꮴ	-9.18814
ꮪꮎꮣꮕꮫ	-9.18834
ꮕꮧꭶꮅꮝꮩꮧꮝꭼ	-9.18911
ꮕꮫ	-9.18919
ꮥꮵ	-9.18978
ꮑꮅ	-9.20865
ꭴꮫꭶꮕ	-9.20946
ꭴꮠꮕ	-9.21015
ꭰꮧꮤꮝꮧ	-9.2129
ꮝꮣ	-9.21293
ꮈꭲ	-9.21809
ꮘ	-9.21987
ꭰꮧ	-9.22553
ꭲꮈꭿꮲ	-9.23101
ꮕꮣꭶꮅꮝꮩꮧꮝꭼ	-9.23111
ꭴꮒꮝꭶꮕꮸ	-9.23124
ꮝꮣꮹꮧꮩꭿ	-9.23186
ꮯꮆꮫ	-9.23257
ꭸꮠ	-9.23709
ꮳꮑ	-9.2379
ꮕꮣꭼꮹꮣꮄꮕ	-9.23996
ꮫꭹ	-9.24357
ꮧꭶꮕ	-9.24399
ꮴꭲ	-9.24456
ꮷꮧᏹ	-9.24522
ꮜꮧ	-9.24784
ꮺ	-9.24886
ꮝꮩꮧᏹ	-9.25212
ꭶꮝꭹꮈ	-9.25269
ꮷꮒꮈꮻꮝꮣꮑꭿ	-9.25354
ꭰꮒꮠꭲ	-9.25442
ꮄꮝꮧ	-9.26299
ꭱꭽ	-9.27448
ꭴꮒᏺ	-9.27476
ꭲꮳꮅꮝꮣꮑꮧ	-9.27605
ꮝꭸꭲ	-9.2793
ꮪꮎ	-9.28325
ꮥꭿ	-9.28728
ꮇ	-9.28743
ꮒꭶꮺ	-9.29941
ꭰꭶꮩꭵꭿꮝꮧ	-9.29955
ꮣꮝꮧᏹ	-9.3027
ꭶꮈꮙꮧ	-9.30433
ꭲꭺꭿ	-9.30792
ꮣꮕꮩ	-9.30972
ꮝꭼ	-9.31003
ꮕꮟꮫ	-9.3156
ꭼꮕ	-9.31814
ꮣꮄꮕꮫ	-9.32181
ꭰꮝꭺꭿꮷꮘ	-9.32311
ꭰꮗꮵ	-9.32393
ꮎꮝꮙꮝꭹꮒ	-9.32751
ꭲꭼꮑ	-9.3288
ꮝꭼꮎ	-9.33455
ꮀꮹ	-9.34304
ꮥꭶ	-9.34383
ꭶꮅꮝꮩꮣ	-9.34554
ꭴꮑꮃꮕꭿꮝꭹꮒ	-9.34577
ꭴꮅꮝꮖꮈꮧ	-9.3474
ꮘꮅꭹ	-9.34941
ꮝꭸ	-9.35014
ꭹꮆꮝꭹꮒ	-9.35189
ꮎꮒꮺꮝꭸ	-9.353
ꮳꮴꮅꭶ	-9.35982
ꮜꮙꮙ	-9.36398
ꭴꮇꮴ	-9.3652
ꭴꮒꮇꮴ	-9.36962
ꭲꮷꮃ	-9.37081
ꮧꮣꮝꮪꮧᏹ	-9.3724
ꮥꮳꮣꮕꮫ	-9.37257
ꭰꮒꮿꮻꮝꭹ	-9.37292
ꮵꮋ	-9.37338
ꮕꭿꮫ	-9.37411
ꮥꮳ	-9.37946
ꭱꮳ	-9.38041
ꮅꮝꮥꮈꮩꮧ	-9.38844
ꭼꮻᏻꮜꮥꭹ	-9.38877
ꮧꮣ	-9.38945
ꮧꮵ	-9.39115
ꮻꮎꮝꮫꮎ	-9.39804
ꭺꮲꮤꮕꭿ	-9.40772
ꮧꭻꭺꮩꮧ	-9.40774
ꭴꮇꭿꮝꮧ	-9.41071
ꭾꮎ	-9.41284
ꭶꮣ	-9.41729
ꮪꮈꮻꮝꮣꮑꮂ	-9.42172
ꮝꭼꭹ	-9.4238
ꮰꭸꮟ	-9.42436
ꭴᏸꮈꮧ	-9.42792
ꮑꮈ	-9.4304
ꭲᏻꮎꮫꮑꮧ	-9.43054
ꭽꮲ	-9.43166
ꮹꮫ	-9.43463
ꭰꮎ	-9.44518
ꭲꮈꮝꭹ	-9.44931
ꮔꮼ	-9.44944
▁."	-9.45048
ᏹꮧ	-9.45118
ꮦꮈꮃꮧ	-9.45138
ꭴꮓꮥꮎ	-9.45149
ꭴꮣꮕꮩ	-9.4536
ꭹꮃ	-9.45403
ꭴꮥꮑꮄ	-9.45597
ꮑꭿ	-9.46517
ꮒꭶ	-9.46682
ꮸꭹ	-9.46841
ꭰꮛꮢ	-9.46973
ꮔꮫꮑꮈ	-9.47538
ꮧꮒᏺꮅ	-9.47701
ꮷꮒꮎꮻ	-9.47924
ꭴꮩꮄꮀꮢ	-9.47956
ꭽꮻꮒꮧꮲ	-9.4798
ꮧꮎꮣꮕꮯ	-9.48101
ꮩꮅ	-9.48165
ꮤꮄ	-9.48274
ꭲꮶꭿᏻꮢ	-9.48697
ꭱꮅ	-9.48914
ꮎꮭꭲ	-9.49036
ꮒꭶꮅꮝꮧ	-9.49083
ꮗ	-9.50578
ꭰꮴꮅꮝꮫ	-9.50773
ꮒꮪᏻꭺꮫꮎ	-9.50776
ꭴꮒꮇꮸ	-9.5079
ꭴꮳꮤꮕꭿ	-9.50794
ꮶꮹ	-9.50829
ᏹꮵ	-9.50856
ꭴꮝꭶꮕꮸ	-9.50864
ꭶꮤꭽ	-9.50888
ᏸꮒ	-9.50893
ꭲꮎꮫ	-9.50936
ꭴꮪꮅꮝꭼ	-9.50966
ꭴꮅ	-9.51053
ꮑꮄ	-9.51206
ꭴᏺꮁꮢꭿ	-9.51608
ꮷꮣ	-9.519
ꮧꭼꮹ	-9.52601
ꭰꮂ	-9.52903
ꭶꮫꭶ	-9.53101
ꮒꭶꮅꮝꮣ	-9.53111
ꭰꮅꮝꮣᏼꮧ	-9.53174
ꮒꮧ	-9.53276
ꮦ	-9.53636
ꭴꮒꮝꮖꮒꭺꮞ	-9.53714
ꭲꮸꭸᏻꭲ	-9.53716
ꭰꮒꮝꭶꮎ	-9.53764
ꮞꮣꮒ	-9.53802
ꭼꮹꮒ	-9.54037
ꮵꮒꭼꮕ	-9.54076
ꭼꭶ	-9.54377
ꭱꮝꮧ	-9.54542
ꮷꮟ	-9.54996
ꮔꮝꮥ	-9.55676
ꭲᏻꮹꮑ	-9.55815
ꭰꭶ	-9.55819
ꭼꮓ	-9.55824
ꭰꮝꭶꮎ	-9.56055
ꭶᏸ	-9.56221
ꮒꮵ	-9.56592
ꮣꮆꮒꭸ	-9.56715
ꮕꭼꮹꮺꮞꮈ	-9.56745
ꭴꭹꮸꮫ	-9.56756
ꮉ	-9.56838
ꮧꮅꮝꮣᏼꮧᏹ	-9.56838
ꭵꮣ	-9.56884
ꭲᏻꮎꮅꮝꮣꮑꮧ	-9.57071
ᏼꮻꮙ	-9.57544
ꮅꮟ	-9.5795
ꭰᏸꮈꭲ	-9.58323
ꮎꮓ	-9.5833
ꭲꮕ	-9.58608
ꭴꮹꮢꮙ	-9.58922
ꭴꮳꮨꮒ	-9.59122
ꭴꮒꮳꮦ	-9.59735
ꮒꮳ	-9.59802
ꮣꮑꮹꮧꮢ	-9.5987
ꭲꮳꮫꮑꮧᏹ	-9.59898
ꮥꭲ	-9.59923
ꭰꮀꮅ	-9.59926
ꮪꮄꮕ	-9.5997
ꮷꮣꮟ	-9.59979
ꭴꭷꮅꮸꭿ	-9.59984
ꭸꮵꮈꮙ	-9.60032
ꭰꮔꮼ	-9.60139
ꭴꮒꮑꮸ	-9.60148
ꭱꭾ	-9.60204
ꮒꮩ	-9.60424
ꭴꮫꮎ	-9.60473
ꭹꮩꮣ	-9.60568
ꭿꮫ	-9.61024
ꮒꭼꮹꮺꮞꮄ	-9.61389
ꮵꮪ	-9.61627
ꭳꭶ	-9.62945
𐋇	-9.63095
ꮥꭴꮩꭵ	-9.63096
ꭴꮄꮕꭾ	-9.63115
ꮧꭼ	-9.63138
ꮧꮵꮎꮻ	-9.63151
▁,]	-9.63157
ꭶꮇꮸꭽ	-9.63281
ꭶꮈꮙꮩꮧ	-9.6332
ꮵꮔꮝꮧ	-9.63534
ꭼꮩꮧ	-9.63885
ꭴꭶꮤ	-9.64681
ꭸꮃꮝꮧ	-9.65333
ꭸꮵ	-9.65578
ꮃꮻꭹ	-9.65754
ꭴꮒꭺꮂ	-9.6617
ꮆꭿ	-9.66281
ꮴꭾ	-9.66301
ꭰᏸꮃꮝꮧ	-9.66429
ꮧꮖꮴꮅ	-9.66429
ꭴꮅꮟꭼ	-9.6643
ꮓꮘꮟ	-9.6643
ꭲꮃꮿ	-9.66432
ꭴꮤꮃꮼꭿꮝꮧ	-9.66461
ꮣꮣꮕꮯ	-9.66476
ꭰꮒꮟᏼꮻꭽ	-9.66491
ꭴꮎꮔꭺꮻꮢ	-9.66494
ꭴꮯꭿᏻ	-9.66543
ꭰꮣꮑ	-9.66963
ꭼꮹꮇꮴꮈ	-9.67036
ꮟꮜ	-9.67947
ꭺꮹꮫꮧᏹ	-9.68085
ꭰꮣꮕꮦꮝꭼ	-9.68199
ꮝ	-9.68254
ꮧꮝꭼ	-9.68385
ꭲꮵꭶꮤꭽ	-9.68926
ꭰꮝꭺꭿ	-9.68957
ꭶꮨꮿ	-9.69726
ꮣꮣꮏꮹꮝꮫ	-9.69877
ꮩᏹꮧꮲ	-9.69878
ꭴꭶꮅꮝꮧ	-9.6988
ꮎꭹꮺꮞꮈ	-9.6988
ꮕꮣᏻꮆꮢ	-9.69881
ꭰꮳꮧ	-9.69888
ꭴꮔꭺꮸ	-9.69907
ꮔꮅꮝꮤꮒꮩꮈ	-9.69912
ꮎꮝꭶꮕꮎ	-9.69917
ꭳꮣꮈ	-9.69926
ꭲᏻꮹꮒꮠꮧ	-9.69986
ꭶꮼꮒꭿꮝꮧ	-9.70169
ꮳꮵ	-9.70276
ꭴꭹꭼ	-9.70285
ꭶꮼꮒꮝꭼ	-9.70291
ꭲꭼꮹ	-9.70293
ꭴꮲ	-9.70703
ꭺꮺꮅꭿ	-9.71206
ꮩꮫ	-9.7154
ꮕꮣᏻ	-9.71695
ꭽꮻꮒ	-9.71757
ꭶꮈꮆ	-9.71857
ꮒꭸ	-9.72503
ꮿꮒ	-9.72656
ꭱꮖ	-9.73404
ꮧꭹꭶᏼꮅꭸ	-9.73449
ꮷꮒꮲꭹ	-9.73449
ꮧꮕꮓꮫ	-9.7345
ꮖꮒꮖ	-9.73452
ꭴꮅꮝꮖꮧꮝꮧ	-9.73495
ꮔꮓꭿᏻ	-9.73698
ꮎꮝꭹꮙ	-9.73743
ꮧꭸꭶꮑꮆ	-9.73926
ꭴꮺꮕ	-9.7409
ꮎꮫꮏꮥ	-9.74141
ꭶꮫꭼ	-9.74279
ꮒꮵꮺ	-9.74615
ꮔꮎ	-9.7477
ꭶꮤꮂꮎ	-9.74936
ꭰꮓ	-9.75213
ꮒꭶꭵꮙ	-9.75303
ꭼꮹꮝꮣꮹꮫ	-9.75384
ꮫꮑꮧ	-9.76243
ꮎꮝꭹꮿꮙ	-9.7656
ꮟᏼꮻꭽ	-9.77111
ꮪꮎꮣꮱꮹꮧꮢ	-9.77153
ꮣꮖꮩꭵ	-9.77153
ꭲꮿꮫꮑꭿ	-9.77155
ꭲꮴꮿꮤ	-9.77157
ꮠꮘꮅ	-9.77157
ꭴꮅꮝꮘꮧ	-9.77162
ᏸꭽ	-9.77175
ꮠꮃ	-9.77227
ꮎꮞꮅꮧ	-9.77231
ꮪꮑꮴꮄ	-9.77242
ꮔꮎꮝꮫ	-9.77244
ꭲꮿꮫꮑꮧ	-9.77291
ꭰꮵꮕꮟꮣꮝꮧ	-9.7732
ꭲꮸᏺꮞꭽ	-9.77398
ꮪꮈꮻꮝꮣꮑꮈ	-9.77506
ꮎꮎꮫꮑꮂ	-9.77533
ꮪᏻꭺꮧ	-9.77839
ꭴꮢ	-9.78273
ꭲᏻꮺ	-9.78853
ꮎꮒꭵꮙ	-9.79132
ꭷꮒ	-9.79475
ꮕꮓ	-9.79613
ꮴꭶꮘ	-9.80998
ꭴꮥꮿꮩꮧ	-9.80999
ꭴꮎꮩꮄꮀꮢ	-9.81003
ꮽꮆꮞ	-9.81004
ꭺꮳꮄ	-9.81017
ꮣꮅ	-9.81043
ꮧꭸꮻ	-9.81046
ꭲꮵꮘᏹ	-9.81049
ꮫꭿ	-9.81058
ꮕᏺꭿ	-9.81071
ꮹꮝꮫ	-9.81089
ꮷꮈꮻꮝꮣꮑꭿ	-9.81112
ꮣꮎ	-9.81123
ꭰꮖꮫꭶꮕꭹ	-9.81209
ꭲᏻꮅꮝꮣꮑꮧ	-9.81268
ꭲꭶꭶꮫ	-9.8133
ꭲꮵꮩꮣ	-9.81363
ꮵꭸᏻꭲ	-9.81389
ꭰꮒꭺꭲ	-9.81495
ᏺꮞꭽ	-9.81523
ꮣꭶ	-9.81683
ꭰꭲꮢ	-9.81811
ꮕꮣᏻꮅꮝꮩꮤꮕ	-9.81837
ꮒꮪ	-9.81859
ꭴꮓꮄ	-9.81949
ꮃꮝꮣꮈ	-9.8215
ꭶꮇꮵ	-9.82319
ꭴꮹ	-9.82381
ꮝꮥꮝꮧ	-9.8257
ꭱꭿꮝꮧ	-9.82614
ꮕꮅ	-9.82717
ꮠꮕ	-9.82783
ꮝꭹꮿ	-9.82853
ꮧꭼꮹꮒ	-9.82944
ꮵꮒꭶꮺ	-9.83005
ꮿꭹ	-9.83025
ꮑꮈꭹ	-9.83107
ꮳꮴꮅ	-9.83353
ꮷꮓ	-9.83356
ꮰ	-9.8345
ꭿꮝꮧ	-9.84087
ꭴꮼ	-9.84121
ꭳꮵ	-9.84254
ᏹꮣ	-9.84309
ꮫꭶ	-9.84496
ꮥꮅ	-9.84727
ꭸꮃ	-9.84802
ꮕꮫꭹꮕꮟꮫ	-9.85003
ꭴꮼᏸꮒ	-9.85006
ꭷꮓꭿᏸꭹ	-9.8505
ꭴꮒꮼꮒꭿꮝꮧ	-9.8505
ꭵꭶ	-9.8508
ꮕꮧꭶꮅꮝꮩꮧꮝꭺ	-9.85355
ꭰᏺꭹ	-9.85379
ꭴꮕꮟꮣꮝꮧ	-9.85403
ꮱ	-9.855
ꭰꮅꮝꮖꮧꮝ	-9.85528
ꭿꭰꮝꭹꮒ	-9.85805
ꮽꮒ	-9.86538
ꭴꮣꮕꮢ	-9.87136
ꮵᏸꮈ	-9.87239
ꭵꮟ	-9.87594
ꮄꭿꮠꮧ	-9.87875
ꭴꮩꭿᏻ	-9.88135
ꮵꮑꭼ	-9.88428
ꮕꮎ	-9.88435
ꮵꮿ	-9.89
ꮻꮵ	-9.89063
ꮝꮤꮕ	-9.89111
ꭴꮺꮏꭲ	-9.89176
ꮧꮣꮄꮒꮝꭼ	-9.89245
ꮪꮒꮈꮻꮝꮣꮑꮂ	-9.89344
ꮽꮆꮢ	-9.89372
ꭴꮑꭼ	-9.89419
ꮅꮝꮣ	-9.90248
ꮣꮃ	-9.90276
ꮏ	-9.90397
ꮝꭶꮕꭲꮝꮧ	-9.90691
ꭴꮣꮕꮦꮈ	-9.9075
ꮥꮨᏼꮫ	-9.91006
ꭲꮝꮧᏹ	-9.9109
ꮴꮂ	-9.91679
ꮋ	-9.91717
ꭲᏻꮎꮅꮝ	-9.92897
ꭼꮒꮧᏻ	-9.93331
ꭴꮎꮣ	-9.93335
ꮣꮥᏺꮂꮝꭼ	-9.93513
ꮉꮟꮩꮒ	-9.93513
ꭴꮳꮄꮝꮧ	-9.93515
ꮕꭶꮝꭺꭿ	-9.93516
ꭼꮹꮪꮻꮫ	-9.93521
ꭰꭶꮨꮟꮧꮲ	-9.93541
ꭸꮵꮕꮟꮣꮝꮧ	-9.93579
ꭴꮩꭿᏻꮢ	-9.93586
ꮷꮎꮴꮅ	-9.93595
ꮧꮥᏺꮧ	-9.93621
ꮷꮄ	-9.93622
ꮪꮅ	-9.93656
ꮵꮝꮖ	-9.93773
ꭴꮣꮕꮦ	-9.93887
ꮧꮉꮧ	-9.93897
ꭴꮑꮸꭹ	-9.93979
ꭱꮧ	-9.94026
ꮝꭶꭲꭾꮝꮧ	-9.94079
ꭰꭷꮅꭲ	-9.94201
ꮒꮧᏻ	-9.94352
ꭲꮳꮴꮅ	-9.9471
ꭰꮅ	-9.9503
ꮃꮕꭿ	-9.9523
ꭰꮵꮈᏹ	-9.95298
ꮣꮵ	-9.95299
ꮝꮥꮈꮧᏹ	-9.95354
ꮥꮸ	-9.95614
ꭶꮩꭼ	-9.9577
ꮔꮣ	-9.95819
ꮎꮒꮺꮝꭼ	-9.95915
ꮑꮧ	-9.96507
ꭶꮩꭸ	-9.96714
ᏼꭼ	-9.96752
ꮷꮒꮈꮻꮝꮣꮑꮧ	-9.9688
ꭰꮝꮣᏹ	-9.96917
ꭺꭹ	-9.96919
ꮧꭸꮵ	-9.97156
ꮕꭲ	-9.97163
ꮹꭶ	-9.97341
ꮴꮵ	-9.97483
ꭰꮎꮣ	-9.97532
ꮒꭶꮺꮝꭸ	-9.97674
ꭲꮳꮣꮩꮅꮝꮧ	-9.97736
ꭸᏼ	-9.9787
ꮑꮆꮧ	-9.98048
ꮒꮪꭹꮸꮒꮢ	-9.98058
ꭴꮆꭹꮈ	-9.98061
ꮽꮇꮸ	-9.98065
ꭰꮒꭹꮟ	-9.98071
ꭴᏺꮁꮞ	-9.98085
ꮜꮊꮅ	-9.98105
ꭰꮣꮕꮣꮧꮝꮧ	-9.9815
▁--	-9.98189
ꭴꮎꮴꮅꭺꭿ	-9.98194
ꭴꮣꮕꮫ	-9.98275
ꭶꮹꮢ	-9.98346
ᏺꭿ	-9.98438
ꮫꮑꮅ	-9.98495
ꮧꮝꭺ	-9.98565
ꮧꭶꮩꮅ	-9.9865
ᏹꮧꮵ	-9.98917
ᏹꮳ	-9.98917
ꮈꮙꮧᏻ	-9.99198
ꮒꮣ	-9.99247
ꭴᏸꮈꮕ	-9.99477
ꭸꮫ	-9.99575
ꮝꮥ	-9.99631
ꮞꮈꭿ	-9.99639
ꮣꮖ	-10.0009
ꮹꮫꮂ	-10.0041
ꭲᏻꮣꮄ	-10.0052
ꭴꮈ	-10.008
ꭶꮫ	-10.0117
ꮕꮯ	-10.0151
ꮽꮇꮴ	-10.0159
ꮎꮒ	-10.016
ꮜꮒ	-10.0191
ꭼꮹꮎ	-10.0215
ꮔꮎꮣ	-10.0258
ꮷꮑ	-10.0264
ꮷꮈꮻꮝꮣꮑꮧ	-10.0266
ꭶꮩꮅ	-10.0273
ꮥꭸꮜꮧꮢ	-10.0282
ꭳꮳꮅꮕꮯ	-10.0282
ꮥꮳꮩꭵ	-10.0282
ꭴꭷꮫ	-10.0282
ꭷꮃꮹꮧꮢ	-10.0282
ꭲꮜꮿ	-10.0283
ꭷꮓꭾ	-10.0283
ꭲꮧꭶꮤꭽ	-10.0283
ꮸꮧꮣꮄꮂꮝ	-10.0284
ꮸꮝꭹꮓ	-10.0284
ꮣꮰꭿꮝꮫ	-10.0284
ꮧᏸꮈ	-10.0285
ꮥꮵꮈꮻꮝꮣꮑꮂ	-10.0289
ꮝꮧꮝꭸꮝꮧ	-10.0293
ꭰꮦꮅꮩ	-10.0295
ꭰꮵꭶꮨꮧꮝꮧ	-10.0296
ꭴꮅꭾꮅꮝꮧ	-10.0297
ꭱꮩꮂ	-10.0306
ꭱꮘꮜ	-10.033
ᏻꮒ	-10.0339
ꮥꭼ	-10.0348
ꮫꮒ	-10.0361
ꮝꮩ	-10.0377
ꭲꮵᏸꮈ	-10.039
ꮧꮳꮣ	-10.0394
ꭺꭿꮝꭹꮒ	-10.0418
ꮎꭹ	-10.0434
ꭶꮑ	-10.0436
ꭵꮭꮝꭹꮒ	-10.0439
ꭴꮓꭿᏻꮕ	-10.044
ꮅꮝꭺꮈꮤꮕꭿ	-10.0474
ꭴꮎꮅꮝꮣᏼꮧ	-10.0474
ꮵꮥ	-10.0491
ꮷꮎꮝꮧ	-10.0493
ꭴꮪꮅꮝꭸ	-10.0504
ꮎꭿᏻꮙ	-10.0527
ꮝꭶꭹ	-10.0536
ꮒꭼꮹꮺꮞ	-10.0545
ꮕꮢꭹ	-10.0578
ꮵꮩ	-10.0643
ꭴꮥ	-10.0659
ᏸꭿ	-10.0662
ꮰꮎꮝꮧ	-10.0672
ꭰꮖꮣꮕꮩ	-10.07
ꮷꮺ	-10.0702
ꭰꮖꮪꮅ	-10.0738
ꮥꮳꮣ	-10.0756
ꭴꮅꮟꭹ	-10.0782
ꭴᏺꮁꭿꮝꮧ	-10.0783
ꮔꮒꭼꮻᏻꮜꮥꭹ	-10.0783
ꭴꮅꮑꮸ	-10.0784
ꮡꮎꮣꮱꭹ	-10.0784
ꮒꮧꭵ	-10.0788
ꭴꮺꮕꮞ	-10.0792
ꭺꭿᏻꮂꮝꭹ	-10.0792
ꭰꮝꭺꮅ	-10.0796
ꭴꮺꮨ	-10.0797
ꮪꮒꮈꮻꮝꮣꮑꮈ	-10.0797
ꮧꮸ	-10.0799
ꭴꮹꮢꭿᏻ	-10.0802
ꮒꮳꮫꮑ	-10.0817
ꭴꮒꭹꮢ	-10.0817
ꭴᏸꭿ	-10.082
ꭰꮅꮝꮥꮈꮩꮧ	-10.0829
ꮣᏺ	-10.0836
ꭰꭹꮟ	-10.0839
ꮧꮝꮧᏹ	-10.0874
ꭲꭶꮺ	-10.0889
ꭴꮼꮈ	-10.0894
ꮣꮿꭲ	-10.0901
ꮆꮋ	-10.092
ꭴꮒᏸꮈ	-10.092
ꮹꮫꭾ	-10.0939
ꮻꮒ	-10.0957
ꮎꮫꮑꭾ	-10.0966
ꮞꭽ	-10.097
ꮕꮝꮧᏹ	-10.1
ꭳꮒᏹ	-10.1009
ꮝꭺꭿ	-10.1011
ꭶꮈ	-10.1043
ꭲᏻꮕꮑꮧ	-10.1044
ꮮꭶ	-10.1052
ꭴꮥꮕ	-10.1075
ꮻꮪ	-10.1082
ꮅꮝꮩꮧ	-10.1096
ꮿꮝꮧ	-10.1134
ꮅꭾꮅꮝꮧ	-10.1167
ꭴꮫ	-10.1198
ꭲꮝꮧ	-10.1241
ꮩꭾꮝꮧ	-10.125
ꭺꮲꮕꭿ	-10.1286
ꮅꮒꭹꮫ	-10.1293
ꮃꭸꮿꮫ	-10.1308
ꭴꮝꮖꮈꮂ	-10.1308
ꭴꮪꮈꮧ	-10.1308
ꮔꮎꮫꮕ	-10.1308
ꭴꮎꮣꮴꮅꮫ	-10.1309
ꮔꮹꮑꮈ	-10.131
ꭶꮅꮶꮥ	-10.131
ꮧꭶꮪꮂ	-10.1311
ꭴꮑꮲꮤꮕ	-10.1313
ꭴꮆꮠꮕ	-10.1313
ꭺꭿꮧᏻ	-10.1318
ꮔꮫꮑꮄ	-10.1327
ꭱꮟᏹ	-10.1328
ꭱꮟꭹ	-10.1334
ꭴꮎꮑꮃꭹ	-10.1347
ꮝꮤꮒ	-10.1355
ꭴꮒꮳꮫꭹ	-10.1356
ꮒꮳꮫꮑꮈ	-10.1356
ꭴꮒꮳꮤ	-10.1356
ꭿꮿ	-10.1371
ꮧꭸꮢ	-10.1403
ꮒꮳꮫꮑꮂ	-10.1466
ꮇꭶ	-10.1468
ꭰꮝꭶ	-10.1472
ꮥꮎ	-10.1499
ꮳꮨ	-10.1507
ꭸꮒ	-10.1513
ꮴꮳ	-10.1527
ꮟꮖ	-10.1529
ꭴꮎꮫꮑ	-10.1538
ᏼꭸ	-10.1594
ꮮ	-10.1595
ꮂꮝꭶ	-10.1613
ꮦꮝꮧ	-10.1665
ꮳꮒꮓ	-10.1675
ꭱꭲ	-10.174
ꭶꮕꮕ	-10.1753
ꮕꮢ	-10.1761
ꮪꮣꮄꮝꮩꮧ	-10.1795
ꮝꮧꮝꭹ	-10.1805
ꭷꮑ	-10.1824
ꭲꮳꮪꮅ	-10.185
ꭴꮗꮣꮈ	-10.1864
ꮕꮷꮅꮝꮩꮤꮕ	-10.1864
ꮧꮯꮆꮝꮤꮕꭿ	-10.1864
ꮪꮃꮝꭼ	-10.1864
ꮔꮎꮫꮑꮈ	-10.1864
ꭲꮳꮅꮕꮯ	-10.1864
ꮫꮧ	-10.1865
ꮷꮃꮟꮥꮒ	-10.1866
ꮽꮒꮆꮞ	-10.1866
ꭼꮹꮯꮝꮧ	-10.1867
ꭴꮒꮓꮥꮎ	-10.187
ꮪꮑꮴꮈ	-10.1873
ꮩꮄꮫ	-10.1874
ᏹꮸ	-10.1877
ꮣꮡꮿ	-10.1881
ꭼꮹꮇꮴꮄ	-10.1881
ꭰꭹꮑꮸ	-10.1882
ꮪꮕꮞ	-10.1884
ꭳꮟ	-10.1891
ꮧꮳꮣꮕꮩ	-10.1891
ꭶꮣꮕꮦꮝꭼ	-10.1909
ꭰꭹᏸꮈ	-10.1921
ꮅꮝꮧ	-10.1927
ꮣꮒꮈ	-10.193
ꮵꮔꮺꮞ	-10.1934
ꮒꮻ	-10.1937
ꮗꮅ	-10.197
ꮝꮖꮒꭺꮩꮧᏹ	-10.1976
ꭰꭻᏼꮩ	-10.1977
ꮷꮳ	-10.2026
ꭴꮒᏼꮝꮧ	-10.2044
ꮒꮸ	-10.2047
ꮧᏻ	-10.2055
ꮎꮣꮕꮯ	-10.2074
ꮵꭺꭵ	-10.2085
ꮪꮣ	-10.2086
ꮔꮒ	-10.2123
ꮣꮏꮹ	-10.2136
ꭴꮺꮇꮕ	-10.2178
ꮅꮝꮩꮧᏹ	-10.2179
ꭶꮵꮿ	-10.2181
ꮴꮃꮧꮩꭾꮝꮧ	-10.2185
ꮥꭴ	-10.2189
ꮎꮙ	-10.2194
ꮩꭲ	-10.2202
ꮴꭿ	-10.2217
ꭺꮩꮧ	-10.2242
ꭺꮲ	-10.2291
ꭴꮕꮢꮙ	-10.2303
ꭲꭼ	-10.2304
ꮡꮎꮄ	-10.2312
ᏹꭼ	-10.2335
ꮣᏻ	-10.2336
ꮧꮝꭸꭲ	-10.2337
ꮅꮩꭿ	-10.2337
ꭱꮧᏹ	-10.2347
ꮩꭹ	-10.2348
ꭴꮿ	-10.235
ꮵꭶ	-10.2365
ꮪꭹ	-10.2416
ꭰꮰꮑꮧ	-10.2452
ꭴꮔꭺꮴ	-10.2452
ꮧꮒꭸꮻ	-10.2452
ꭰꮎꮣꮕꮦꮝꭼ	-10.2452
ꭴꮑꮇꮕ	-10.2452
ꮎꭼꮑꮈ	-10.2453
ꮡꮣꮄꭹ	-10.2453
ꭰꮪꭲꮝꮫ	-10.2454
ꮧꮒꮟꮧ	-10.2455
ꮧꮒꭶꮩꮅ	-10.2455
ꭲꮵꮝꭶꮕꮸ	-10.2456
▁.]	-10.2458
ꭲꮿꮎꮫꮑ	-10.2458
ꭴꮫꮫꮑ	-10.2459
ꮅᏸꭲꮆꭿꮝꮧ	-10.2464
ꭰꭹꮅᏺꭲꮝꮧ	-10.2467
ꭴꮎꮻᏹ	-10.247
ꮪꮄꮑ	-10.2474
ꮷꮑꮵ	-10.2479
ꭰꮒꮩꮎꭵ	-10.2488
ꭰꮒꮑꭼ	-10.249
ꮔꮹ	-10.2499
ꮷꮢ	-10.2504
ꮧꮵᏸꮈ	-10.2512
ꮒꭼꮑ	-10.2515
ꮽᏼꮄ	-10.2516
ꮑꭻꮵꮫ	-10.252
ꮧꭶꮈꮙꮧ	-10.2522
ꮕꮣꭶꮅꮝꮩ	-10.2525
ꭰꮑꮩꮂ	-10.2527
ꭵꮮꮝꮧ	-10.253
ꮝꮖ	-10.2531
ꭴꮎꮰꮎꮝ	-10.2545
ꭰꭺꮞ	-10.2549
ꭲꭼꮢ	-10.256
ꭶꮑꮃ	-10.2568
ꮻꭼ	-10.2573
ꮩꭶ	-10.2573
ꮵꮑꭶ	-10.2611
ꮇꭹ	-10.2612
ꭴꭼꮻᏻ	-10.2632
ꮝꮖꮒꭺꮧ	-10.2637
ꮾ	-10.2646
ꮝꭹꮓ	-10.2647
ꮝꮤꮕꭿ	-10.2678
ꮉꮧ	-10.2685
ꮕꮧꭶꮅꮝꮩꮧ	-10.2697
ꮸꮑꮅ	-10.27
ꭲꮳꮅ	-10.2701
ꮵꮕꮟꮣꮝꮧ	-10.2713
ꭴꮕꮞ	-10.2725
ꮪꮺ	-10.2729
ꭴꮫꮑ	-10.2762
ꮷꮅ	-10.2763
ᏹꮪ	-10.2786
ꮑꮆꭿ	-10.2832
ꮕꭶꮈ	-10.2876
ꮈꮙꮩꮧ	-10.2885
ꭴꮄꮕ	-10.2906
ꮵꮵ	-10.2918
ꮷꮕ	-10.2951
ꮕꭶ	-10.2951
ꮫꮏꮥ	-10.2977
ꭴꮼꮲꮕ	-10.2991
ꮑꮂꮎ	-10.3003
ꮎꮅ	-10.3063
ꭴꮥꮀꭿꮝꮧ	-10.3063
ꭰꮁꮝꮥꮝꮧ	-10.3077
ꮔꮣꮅꮣꮝꮫꮎ	-10.3077
ꮥꮉꮝꭶ	-10.3077
ꮟꮜꮅᏹ	-10.3077
ꮤꮇꭹꮝ	-10.3078
ꮷꮎꮫꮠꮕꭿ	-10.3078
ꮻꮪꮿꮕꮂ	-10.3079
ꭰꭺꮔ	-10.3079
▁;]	-10.3081
ꭴꮎᏸꭿꮝꮧ	-10.3082
ꭸꮖꮒ	-10.3084
ꭰꮕꮧꮝꭼ	-10.3084
ꮒꮪꮹꮑꮈ	-10.3087
ꮟꮣꮑꮈ	-10.3091
ꮧꮵᏺꮅ	-10.3092
ꭰꮒꮼꮒꮝꭼ	-10.3093
ꭴꮑꭻꮵꮫ	-10.3095
ꭰꭹꮅ	-10.3098
ꮵꭺꭸ	-10.3102
ꭲꮃꭺ	-10.3109
ꮥꭼꮹ	-10.3115
ꭵꮨ	-10.3117
ꮽꮒꮇꮴ	-10.312
ꭲꭹꮝꮥꮅꮝ	-10.3123
ꭼꮹꭺꮂ	-10.3127
ꭸꮵꮝꮥꮈꮧ	-10.313
ꭰꮵꮓꭾꮝꭼ	-10.3132
ꮹꮫꮧᏹ	-10.3143
ꮮꭹ	-10.3154
ꮄꭿꮜꮕ	-10.3159
ꭰꭼꮧꮝꭼ	-10.3167
ꭰꮑꭽ	-10.319
ꮟᏹ	-10.3201
ꮑꭼ	-10.3213
ꭰꮑꭾ	-10.3214
ꮪꮓ	-10.3218
ꮽᏼꮈ	-10.3237
ꮥꮕ	-10.3252
ᏹꮕꭶ	-10.3261
ꮶꭿᏻꮢ	-10.3266
ꮿꮕꮂ	-10.3268
ꭺꮲꮢ	-10.3294
ꮴꮈ	-10.33
ꭱꮩꭾ	-10.3317
ꮩꭿᏹ	-10.3322
ꮧꭸ	-10.3338
ᏺꮟ	-10.3339
ꭴꮆꮢ	-10.3349
ꮻꭼꮹ	-10.3357
ꮝꮥꮈꮧ	-10.3365
ꭶꮆ	-10.3456
ꮡᏸꮫ	-10.3457
ꮒꭺꭿꮈꮎ	-10.3458
ꮅꮿ	-10.3461
ꭶꮤꮂ	-10.3464
ꮼꭿ	-10.3532
ꮞꮈꭹ	-10.3561
ꮒꮈ	-10.3564
ꮝꮤꮑ	-10.3591
ꮧꮲ	-10.3594
ꮵꭺꮹꮫ	-10.3599
ꭲꭹꮑꮈ	-10.361
ꭺꮃ	-10.3621
ꭴꮂ	-10.3637
ꭴꮎꮅ	-10.3667
ꮣꮄꮕ	-10.3678
ꭲꭼꮹꮅꮝ	-10.3701
ꭵꮝꭹ	-10.3703
ꭰꮑ	-10.3737
ꮔꮬꮟꮫꮢꮎ	-10.3744
ꮥꭶꮪꮹꮧꮢ	-10.3744
ꮧꮝꮣꮣꮕꮯ	-10.3744
ꭱꮙꭿᏻ	-10.3744
ꮜᏹꮃ	-10.3744
ꮫꮝꮖꮈꭿ	-10.3744
ꭴꮎꮄꮕꭾ	-10.3744
ꭴꮺꮩꮈ	-10.3745
ꮣꮯꮆꮝꮫ	-10.3745
ꮪꭷꮏꮕ	-10.3745
ꮔꮢꮈ	-10.3745
ꮃꮟꮃ	-10.3747
ꭰꮤꮄꮢ	-10.3748
ꮕꮣᏻꮒꮆ	-10.3749
ꭴꮑꮕꮞ	-10.3749
ꮷꮑꮴ	-10.375
ꭴꮝꮪꭲꮢ	-10.375
ꭰꮅꮝꮪꮆ	-10.3751
ꮶꮣꮒ	-10.3752
ꭶꮎᏸꭿꮝꮧ	-10.3756
ꮧꭸꮵꭴꮝꮥꮞꮈꭿ	-10.3758
ꭴꮺꮅꭿꮝꮧ	-10.3762
ꮥꮱꭼ	-10.3762
ꮡꮆ	-10.3765
ꮑꮃ	-10.3765
ꮣꮑꭿ	-10.3769
ꭰꮅꮝꭺꮈꮤꮕꭿ	-10.3776
ꭰꮑꮩꭿ	-10.3779
ꮣꮣꮑꮈ	-10.3781
ꮷꮒᏺ	-10.3782
ꭴꮳꮫ	-10.3782
ꭰꮝꭶꮕꮸ	-10.3783
ꭴꮼꮅ	-10.379
ᏸꮈ	-10.3791
ꭲꭼꮑꮧ	-10.3797
ꮕꮧ	-10.3808
ꭴꮝꮖꮒꭺꮧᏻ	-10.3812
ꭲꮳꮣ	-10.3813
ꮧꮴꮵ	-10.3814
ꭲꮿꮖꮫꮑꮧ	-10.382
ꮿꮖ	-10.3822
ꮝꮥꮅꮝꭹ	-10.3859
ꮆꮧ	-10.3864
ꮩꭽ	-10.3867
ꭰꮎꮫꭹꮝ	-10.387
ꮣꮕ	-10.3874
ꮂꮝꭹ	-10.3879
ꮧꮣꮼꮝ	-10.3887
ꭰᏺꮁꮝ	-10.3941
ꮵᏸ	-10.3946
ꭰꮛꮢꮙ	-10.3978
ꭴꮆ	-10.3979
ꭸꮵꮑꮈ	-10.3994
ꮝꮣꮹꮥ	-10.4019
ꮝꮪ	-10.4019
ꮎꭵꮒ	-10.4019
ꭸꭶ	-10.4025
ꮻꮧ	-10.4029
ꭴᏼꮈ	-10.4042
ꭰꮣꮕꮩꮝꭹꮒ	-10.4054
ꮿꮕꮩ	-10.4069
ꮝꭶꮕꮸ	-10.408
ꮷꮘ	-10.41
ꭶᏸꮵ	-10.4112
ꭴꮑꮸꭿ	-10.4115
ꭲꮝ	-10.4122
ꭸᏻꭽ	-10.4133
ꮻꮣ	-10.4172
ꮵꮳ	-10.4187
ꮣꭹꮈꮻꮝꮣꮑ	-10.4211
ꮕꮣᏻꮎꮅꮝꭺꮈꮤ	-10.4218
ꮽꮎ	-10.4237
ꭲᏻꮫꮑ	-10.4238
ᏺꭹ	-10.426
ꮅꭶ	-10.4266
ꭼꮕꭲ	-10.4276
ꭴꮓꭾꮈ	-10.4277
ꭰꮿ	-10.428
ꮪꮑ	-10.4282
ꮧꮳꮴꮅ	-10.4325
ᏻꭺꮧ	-10.4332
ꮔꮅ	-10.434
ꮑꮂ	-10.4349
ꮷꮎꮣ	-10.4351
ꭲꮳꮕ	-10.4372
ꮔꭺꭲ	-10.4381
ꭱꮃꮺ	-10.4383
ꭰꮑꮩꭾ	-10.4387
ꮔꭶ	-10.4432
ꮪꭺꮂ	-10.4435
ꮡꮣꮅ	-10.4442
ꭰꮒꭶꮤꭿ	-10.4448
ꭰꮒꮜꮪꮟ	-10.4458
ꭴꮜꭿꮈ	-10.4458
ꭴꮒꮗꮣꮈ	-10.4458
ꮳꮤꭶ	-10.4458
ꮪꮎꮩꭵ	-10.4458
ꮼꭹꮇꮸ	-10.4459
ꮷꮓꮡꮆ	-10.4459
ꮻꮸꮇꮴꮧ	-10.4459
ꮫᏻꭸꮧ	-10.4459
ꮶꭿᏻꮞꮝꮧ	-10.4459
ꮧꮒᏸꮈ	-10.446
ꭰꮒꮻꮕ	-10.4461
ꭴꮎꮃꮕꭿ	-10.4462
ꮣꮻꮢ	-10.4466
ꮷꮣꮕꮫ	-10.4466
ꭴꮎꮪꮅꮝꭼ	-10.4466
ꭰꮣᏸꮝꭹ	-10.4467
ꭷꮓꭾꮝꭹ	-10.4471
ꮱꮤꮒ	-10.4471
ꭴꮕꮟꮩꭿ	-10.4472
ꭰꮣᏺꮑ	-10.4473
ꮖꮅꮟ	-10.4473
ꮵꮒꮳꮫꮕ	-10.4473
ꭰꮸꮝꮩꮧ	-10.4475
ꭲꮸꮤ	-10.4477
ꭳꮵꭶꮤꭽ	-10.4478
ꮆꮟ	-10.4478
ꮧꮑꮂ	-10.4502
ꭶꮎꮔꭺꮻꮝꭺ	-10.4503
ꭲꭹꮝꭶꮕꮸ	-10.4509
ꭲꮷꮹꮑ	-10.451
ꮎᏸꮝꭼꮎ	-10.4527
ꭰꮖꮪꮅꮝꭼ	-10.4532
ꭴᏼꮝꮧ	-10.4547
ꭿꭶꮤꭽ	-10.4565
ꭴꮑꮴꮄ	-10.4569
ᏺꮂꮝꭹ	-10.458
ꭰꮣꮩꮅꮝꮧ	-10.4592
ꮝꭶꭲꮂꮎ	-10.4606
ꭷꮓꭾꮝꭼ	-10.4607
ꮣꭹꮈꮻꮝꮣꮑꮂ	-10.4614
ꭴꮎꮫꭶꮕꭿ	-10.4632
ꮶꭹ	-10.4636
ꮞꭾ	-10.4652
ꭲꮵꭶꮤ	-10.4666
ꭲꮵꭺꮹꮨ	-10.4668
ꭴꮎꮅꭺ	-10.4669
ꮶꮎ	-10.4671
ꭱꭹ	-10.4674
ꮵꮑ	-10.4678
ꮩꮅꮝꮧ	-10.4704
ꮪꮑꮄ	-10.4718
ꭷꮑꭲꮝꮧ	-10.4742
ꮒꮖꮨ	-10.4776
ꮑꮝꮧ	-10.4803
ꭲꮴꮅ	-10.4806
ꭴꮎꮫꮕ	-10.4827
ꮥꭺ	-10.4837
ꭰꮎꮫ	-10.4853
ꭰꭶꮤ	-10.4861
ꮜꮫ	-10.493
ꭹꮅ	-10.4936
ꮪꭶ	-10.4945
ꭲᏻꮫꮑꮧ	-10.4949
ꭺꮅ	-10.4964
ꮙꮧ	-10.498
ꮹꭻꮧ	-10.4999
ꭼꮖ	-10.5015
ꮻꮳ	-10.5034
ꭲᏻꭲ	-10.5035
ꮥꭸ	-10.5056
ꮴꮘ	-10.5068
ꭼꮹꮫꮫꮑ	-10.5075
ꮯꮆꮝꮧ	-10.5077
ꭰꮑꮲ	-10.5084
ꭱꭾꮝꮧ	-10.5085
ꭶꭸ	-10.5115
ᏼꭹ	-10.5164
ꭰꮒꮩꮎ	-10.5169
ꭲꮳꮰꮎꮝ	-10.5193
ꮅꮝꮖꮧꮝ	-10.5205
ꮝꮧꭽ	-10.521
ꮵꮎꮭꭵꮎ	-10.5211
ꮝꮧꮙ	-10.5213
ꮤᏺꮞꮄ	-10.5217
ꮧꮣꮄꮂꮝ	-10.5221
ꭰꭶꮨꮟ	-10.5227
ꭴꮬꮕꮫ	-10.5227
ꮥꭶꮃꮻꭵ	-10.5227
ꭰꮯꮝꮫ	-10.5227
ꮥꭴꮄꮤꮕ	-10.5227
ꭴꮹꭸꮻ	-10.5227
ꮕꮣꭶꮅꮝꮤꮒ	-10.5227
ꭴꮺꮝꭹꮈ	-10.5228
ꮪꮣꮨꮎꭵ	-10.5228
ꮜꮩꮒ	-10.5228
ꭰꮒꭶꮤꮏꭲ	-10.5228
ꮎꭶꭵ	-10.5228
ꭶꮓꮝꭹꮝꭹ	-10.5228
ꮧꮒꮀꮅ	-10.5229
ꮷꮒꮃꮻꭲꮝꮧᏹ	-10.5229
ꭴꮪꭲꮝꮤꮕ	-10.523
ꭰꮎꭲꮢ	-10.523
ꮗꮝꮣ	-10.523
ꮽꮒꮇꮸ	-10.5231
ꭴꮅꮒꭼꭼ	-10.5234
ꭴꮎꮅꮝꮥꮈꮩꮧ	-10.5234
ꮥꭸꮵᏸꮈ	-10.5234
ꭰꮧꮢꮝꮧ	-10.5236
ꮻꮵꭶꮫ	-10.5238
ꭴꭺꭾ	-10.5238
ꭰꮹꮎꭶꮃ	-10.524
ꭰꮵꮎꮭꭲ	-10.524
ꭱꮒꮧ	-10.5241
ꮣꮣꮟ	-10.5242
ꭶꮕꭼ	-10.5242
ꭴꭸᏻꭿ	-10.5248
ꭰꮣᏸ	-10.5249
ꭰꮖꮅꮟ	-10.5263
ꭴꮎꮭꭲ	-10.5276
ꭷꮅꭲ	-10.5279
ꮥꭶꮪꮂ	-10.5289
ꮪꮯꮆꮝꮣꮑꮄ	-10.5299
ꭴꮎꮥ	-10.5301
ꮧꮵꮈꮻꮝꮣꮑ	-10.5305
ꮧꮴꮂ	-10.5322
ꮧꭶꮅꮝꮩꮧꭽ	-10.5335
ꭰꮒꮕ	-10.5335
ꮤꮑꮝꮧ	-10.5337
ꮅᏻ	-10.5339
ꭴꮺꮇꮑ	-10.534
ᏸꮈꭽ	-10.5343
ꭰꮵꮝꮥꮈꮧ	-10.535
ꮒꭼꮺꮞ	-10.5356
ꭵꭿꮝꮧ	-10.5365
ꮁ	-10.5365
ꮕꭲꮝꮧ	-10.5376
ꮧꮎꮣ	-10.538
ꮧꮫ	-10.5391
ꭵꮣꮈ	-10.5398
ꭸꮵᏸꮈ	-10.5398
ꮒꮩꮣ	-10.5421
ꮬ	-10.5434
ꮣꮞꭺꭹꮝ	-10.5451
ꭲᏻꮅꮝ	-10.5456
ꮣᏸ	-10.5461
ꮷꮎꮄꭿꮠ	-10.5468
ꭴꮄꮕꮂ	-10.5492
ꭰꮗ	-10.5506
ꭶꮅꮝꮤꮕ	-10.5515
ꭴꮼꮄ	-10.5527
ꮣꮒꮈꮸꭿ	-10.554
ꮪꮈ	-10.5542
ꭸꮅ	-10.5547
ꭲꮴꮎ	-10.556
ꮣꮳ	-10.5575
ꭴꮹꮢꮝꭹꮒ	-10.5596
ꮧꭷꮓꭹꮝꮧ	-10.5599
ꮏꮹꮫ	-10.5625
ꭸꮵꮝꭶ	-10.5638
ꭿᏸ	-10.5642
ꮒꮥ	-10.5643
ꭸᏻꮧ	-10.5657
ꭼꮼꭿᏻꮕ	-10.5671
ꭴꮩ	-10.5676
ꮔꮺ	-10.5688
ꮑꮆ	-10.5691
ꭼꭺꮹꮫꮧ	-10.5694
ꮵꮝ	-10.5723
ꮒꮟꮂꮝ	-10.5737
ꭴꮝꭺ	-10.5738
ꮣꮑꮈ	-10.5783
ꮔꮫꮕ	-10.5799
ꮵꮑꮈ	-10.5802
ᏺꭿꮞꮈ	-10.5807
ꭰꮉᏹ	-10.5826
ꮎꭹꮺꮢ	-10.5844
ꮓꮑꮄ	-10.5853
ꭴꮺꮇ	-10.5891
ꭶꮈꮙ	-10.5891
ꮒꮳꮫꮕ	-10.5897
ꭲꮵꮿꮻꮝ	-10.5901
ꮃꮟ	-10.591
ᏹꮩ	-10.5951
ꮕꮼꮧ	-10.5954
ꮝꮖꮫ	-10.5963
ꭰꮑꮃ	-10.5979
ꮧꭺ	-10.5989
ꮺꮃ	-10.6012
ꭴꮅꭾꮅꮸ	-10.6014
ꭼꮒꭸꮢꭲᏻ	-10.6017
ᏼꭶ	-10.6023
ꮞꭾꮝꮧ	-10.6032
ꭿꮟ	-10.6032
ꮵꮿꭵ	-10.6032
ꮦꮅꮩ	-10.6033
ꮷꮫ	-10.6048
ꮣꮣ	-10.6055
ꮻꮝꮧ	-10.6056
ꮖꮃꮖ	-10.6061
ꮧꮡꮲꮫ	-10.6061
ꮷꮣꮥꮢꮫ	-10.6061
ꭶꭻꮝꮫꮧ	-10.6061
ꮧꮎꮣꮒᏹꮝꭹ	-10.6061
ꮩꮷꮎꮣꮕꮫ	-10.6061
ꭰꮥꮢꮂꮝ	-10.6061
ꭰꮵꭴꮝꮥꮞꮈꭿ	-10.6061
ꮷꮼᏸꮒ	-10.6061
ꭶꮆꮔꭾ	-10.6061
ꮿꮓꭹᏻ	-10.6061
ꭰꮎꮅꮵꮩꮂꮝ	-10.6061
ꮣꮒꮃꮻꭵ	-10.6062
ꭸꭶꮡᏸꮫ	-10.6062
ꭴꮑꮙꮸ	-10.6062
ꭳꮣꮕꮫ	-10.6063
ꭴꮒꮔꭺꮸ	-10.6063
ꭴꮆꮢꮝꮤꮕꭿ	-10.6064
ꮳꭶꮯꮆꮝ	-10.6064
ꮪꮒꮲꭼ	-10.6064
ꮻꮪꮿꮕꭾ	-10.6064
ꮪꮈꮜꮫ	-10.6065
ꭴꮣꮕꮞ	-10.6066
ꮪꮄꭿꮜꮕ	-10.6067
ꭵꭹꮕꮟꮫ	-10.6068
ꭴꮎꮩꮄꮀꭿꮝ	-10.6068
ꮒꮵꭶꮤꮂꮎ	-10.6069
ꭴꮹꮤꮕ	-10.6069
ꭷꮑꮸꭿ	-10.6069
ꭰᏺꮁꮢ	-10.6069
ꭴꮏꭵ	-10.6072
ꮹꮧꮢ	-10.6074
ꭴꮳꮦ	-10.6075
ꭱꮩꭽ	-10.6077
ꭴꮓꭿᏻꮢ	-10.6078
ꭲꮳꮫꭶꮕꭿ	-10.6078
ꭴꮎꮔꭺꭲꮝꮧ	-10.608
ꭴꮎꮫꭺꮧ	-10.6081
ꭱꮃꮒꭼ	-10.6081
ꮣꮋ	-10.6082
ꭲꮵꮿ	-10.6087
ꭳꭼꮢ	-10.6087
ꭹꭸᏻꭿᏻ	-10.6087
ꭴꮒꮓꭾꮈꭿ	-10.6088
ꮥꮵᏺꮅ	-10.6089
ꮾꮣ	-10.6092
ꭰᏸꮂ	-10.6092
ꮪꮓꮈ	-10.6096
ꭰꭹꭺꮂꭹ	-10.6102
ꭲꮳꮣꮕꮨ	-10.6114
ꮳꮩꮣ	-10.6114
ꭴꮹꮫꮂ	-10.6117
ꭱꮎ	-10.6119
ᏹꭸꮠ	-10.6129
ꮒꮸꮑꮈ	-10.6131
ꮩꮣᏻ	-10.6131
ꭴꮫꭺꮧ	-10.6134
ꮥꮳꮈꮻꮝꮣꮑꮂ	-10.6137
ꭶꮿ	-10.6139
ꮺꮞꮈ	-10.6141
ꮕꮞ	-10.615
ꮫꮒꮟ	-10.6151
ꭴꮒꮎᏸ	-10.6157
ꭴꮕꮑ	-10.6163
ꭴᏸꮈꮑ	-10.6168
ꮳꭲꮢ	-10.6172
ᏹꮩꭶ	-10.6188
ꭴꭹꮢ	-10.6194
ꮟꮃ	-10.6196
ꭰꮅꮵꮩꮂꮝꭸ	-10.62
ꭿꮞꮧᏹ	-10.6203
ꭹꮝꭸꮝꮧ	-10.6231
ꭰꮒꮒ	-10.6244
ꭶꮤꮀ	-10.6249
ꭴꮔꮼꮝ	-10.6254
ꮳꮣ	-10.6268
ᏺꭿꮞꮄ	-10.6269
ꭲꭼꮹꮑꮧ	-10.6286
ꮞꮅ	-10.6292
ꮔꭺ	-10.6339
ꮈꮙꮩꮧᏹ	-10.6351
ꮣꮕꭶꮈꮫ	-10.6357
ꮽꮆꭿꮝꮧ	-10.6369
ꮕꮤ	-10.6399
ꭵꮵꭺ	-10.6407
ꮧꮝꭼꮎ	-10.6426
ᏹꭸ	-10.644
ꮺꭽ	-10.6454
ᏸꭲ	-10.6454
ꮻꮸᏺꮺꮃ	-10.6466
ꮵꭼ	-10.6483
ꭲꮵᏼ	-10.6487
ꭴꮿꮕ	-10.6497
ꮅꮝꭼꮎ	-10.6498
ꮫꮑꮧᏹ	-10.6554
ꭴꮄ	-10.6603
ꭶꮤ	-10.6618
ꭴꮑꮃꮕꭿᏹ	-10.6622
ꮿꮕ	-10.6636
ꮈꮻꮝꮣ	-10.6643
ꭴꮺꮕꮝꮧ	-10.6656
ꭺꭿᏻꮧꮝꭹ	-10.6658
ꭹꮕꮟꮫ	-10.669
ꮔꮰꮎꮝꮫ	-10.6693
ꮇꮴ	-10.6694
ꭷꮅ	-10.6695
ꭶꮃꮧ	-10.67
ꮧꮸꮒꮧ	-10.6705
ꮒꮟ	-10.6715
ꮈꮙꮧ	-10.6731
ꮣꮸ	-10.6735
ꭴᏸꮈ	-10.6742
ꭴꮒᏸꮈꮢ	-10.6744
ꮨꮿ	-10.6751
ꮝꭹᏺ	-10.6754
ᏺꮝꮫ	-10.6773
ꮅꮝꭺꮈꮣꮑꮈ	-10.6775
ꭱꭶ	-10.6775
ꮆꮫ	-10.6784
ꭲꭶꮨ	-10.6788
ꭰꮻꮢ	-10.6789
ꮥꭽ	-10.6793
ꮵᏺꮟ	-10.6804
ꮎꮔꭺꮻꮢ	-10.6804
ꮏꮥ	-10.6808
ᏺꮺꮃ	-10.6848
ꭷꮕ	-10.6849
ꭶꮅꭱꮅ	-10.6863
ꭸꮃꮝꮩꮧ	-10.689
ꭴꮒꮳꮫ	-10.6892
ꭶꮆꮑꮫᏸꮓ	-10.6904
ꭶꮅꮶꮫꭲ	-10.6923
ꮣꭼꮑꮅ	-10.6934
ꮶꮵ	-10.6936
ꭼꮻᏻꭿ	-10.6949
ꮆꮠꮒ	-10.695
ꮴꮅ	-10.6953
ꭴꮳꮤ	-10.6968
ꭰꮻꮝꭹ	-10.6969
ꮅꮝꮩꮤꮕ	-10.697
ꭱꭹꮅꮘ	-10.697
ꭱꮒꮎꮿ	-10.697
ꭶꮓꮈꭵꮝꭼ	-10.697
ꭰꭸᏻꮳ	-10.697
ꭰꮟꮎꮜꮒ	-10.697
ꭰꮴꮇꭹ	-10.697
ꮥꭸꭶꮸꮝꮧꮝꭼ	-10.697
ꮷꮹꭻꮤꮕꮢ	-10.697
ꮤꮇꮳ	-10.697
ꭲꮸꮝꮧᏸ	-10.697
ꭴꮈꮣꮈꭵꮝ	-10.697
ꭴꮒꮝꮖꮒꭺꮢ	-10.697
ꭴꭶꮤꮂꮢ	-10.697
ꭴꮥꮅꮢ	-10.697
ꮷꮺꮕꮢ	-10.697
ꮔꮹꮑꮄ	-10.6971
ꭵᏻꭹ	-10.6971
ꮔꮎꮣꮄꮢ	-10.6971
ꭰꭹꭼꮻᏻꭿ	-10.6972
ꭴꭼꮻᏻꮞꮝꮧ	-10.6973
ꭰꭶꮤꮏꭲ	-10.6973
ꭲꮵꭶꮩꭵꭿꮝꮧᏹ	-10.6973
ꮢꭶꮤ	-10.6974
ꭴꭹꮸꮕ	-10.6974
ꭰꮒꮝꭶꭲꭾ	-10.6974
ꭸꮳꮝꮣꮹꮧꮩꭿ	-10.6975
ꭴꮒꮑ	-10.6977
ꮷꮎꮔꮼ	-10.6978
ꮶꮘ	-10.6979
ꭰꮎꮣꮩꮅꮝꮣꮑ	-10.6979
ꭴꮫꭶꮑ	-10.6983
ꭼꮹꮆꮧ	-10.6983
ꮣꮥᏺꮂꮝꭸ	-10.6985
ꮎꮒꭶꮤꮂꮎ	-10.6985
ꭰꮝꭺꭿꮑ	-10.6986
ꮶꭰꮝꭺꭿ	-10.6987
ꭰꮣꮕꮦꮧ	-10.6989
ꭶᏺꮅ	-10.7001
ꮻꮿ	-10.7001
ꮜꮎ	-10.7005
ꭲꮳꮣꮱꭼ	-10.7007
ꭴꮕꮯ	-10.701
ꮒꮸꮑ	-10.7015
ꮒꮳꮫꮏꮥꭼ	-10.7018
ꭴꮩꮄꮀꭿꮝꮧ	-10.7019
ꭴꮇꮴꮈ	-10.7019
ꮵꮿꮅꭱꮅꮴ	-10.7025
ꮣꮒꮈꭸꮝꮧ	-10.7027
ꮎꮫꮑꮂ	-10.7032
ꭲꮶꭿᏻ	-10.7038
ꭶꮣꮩꮅꮝꮧꮝꭼ	-10.704
ꭵꮝꭸꮝꮧ	-10.7043
ꭰꮣꮩꮅꮝꮩꮧ	-10.7046
ꭴꮴ	-10.7048
ꭰꮫꮕꭲꮝ	-10.705
ꭴꮣꮕꮑ	-10.7051
ꭲꮵꮺꮝ	-10.7053
ꭰꮝꮪꮂ	-10.7056
ꭿᏸꮈ	-10.7067
ꭴꮺꮧᏹ	-10.7071
ꮑꮴꮈ	-10.7074
ꮳꮣꮕꮩ	-10.7074
ꭲꮿꭼꮑ	-10.7082
ꭰꮑꭹ	-10.7088
ꮒꭺꮂ	-10.7093
ꮧꮒꮕ	-10.7093
ꭰꭶꮤꭽ	-10.71
ꮣꭼ	-10.7105
ꮕꮟꮩꭿ	-10.7107
ꮒꮪꮎꮣꮺꮞꮄ	-10.7117
ꮵꮓꭾꮝꭼ	-10.7123
ꭰꮕ	-10.7135
ꮣꮎꮣ	-10.7147
ꮵꮒꮵꮺ	-10.7153
ꮆꭿꮝꮧᏹ	-10.7154
ꮎꮔꭺꮻꮟ	-10.7155
ꮵꮣ	-10.7161
ꭴꮣꭸᏻ	-10.7172
ꮎꮝꮫ	-10.718
ꮥꭸꮝꮧ	-10.7184
ꮝꮨ	-10.7201
ꭱꮵꮑꮈ	-10.7213
ꭴꭼ	-10.7222
ꭴꮝꮫ	-10.7223
ꮧꮣꮼꮝꮧ	-10.7231
ꮧꭼꮹꮎ	-10.724
ꭺꮹꮨꮝꭺ	-10.7244
ᏹꮝꭹ	-10.725
ꮥꭶꮆ	-10.7266
ꮧꮶ	-10.7267
ꭲᏻꮝꭹꮒꮓ	-10.7273
ꮵꮣꮒ	-10.7282
ꭶꮑꮂ	-10.7283
ꮅꮻ	-10.7284
ꭴꮎꮫꭶꮑ	-10.7289
ꮣꮘ	-10.7291
ꮕꮹ	-10.7296
ꮏꭲ	-10.7298
ꮤꮃ	-10.7299
ꮣꮣꮒꮈꭸꮝꮧ	-10.7313
ꭸᏻꭿᏻ	-10.7315
ꮵꭸ	-10.732
ꭴꮇꮴꮄ	-10.7323
ꭵꮎ	-10.7324
ꮈꮎ	-10.7338
ꮝꭹꮑ	-10.7343
ꮵꮇꮵ	-10.7358
ꮷꮥꮨᏼ	-10.7366
ꭰꮵꮑꮧ	-10.7381
ꭴꮪꮅ	-10.7403
ꮣꮑꮂ	-10.7411
ꭲꮵꮝꮖꮒꭺ	-10.7419
ꮒꮲ	-10.7432
ꮎꮟ	-10.7432
ꮷꮹ	-10.7451
ꭺꮧᏹ	-10.7458
ꭰꭼ	-10.7464
ꮻꭶ	-10.7471
ꮪᏺ	-10.7487
ꭲꮳꮥ	-10.7504
ꮒꭼꮑꮂ	-10.7516
ꮝꮥꮅꮝꭼ	-10.753
ꮘꮅ	-10.7549
ꭴꮑꮃ	-10.7552
ꭸꮵꮫ	-10.7573
ꭲꮝꮥ	-10.7585
ꮞꮧ	-10.7612
ꮑꮓ	-10.7629
ꮄꮓ	-10.7648
ꮕꮣᏻꮅꮝꮩ	-10.7657
ꮒꭺꭿ	-10.767
ꮎꭶꮫ	-10.7672
ꮅꮝꭺꮈꮣ	-10.769
ꭳꮢ	-10.77
ꮪꮈꮻꮝꮣꮑ	-10.7713
ꮔꮕ	-10.7723
ᏼꮫ	-10.7723
ꮻꮝꭺ	-10.7731
ꭴꮒꮇꮴꮧ	-10.7734
ꭻᏼ	-10.7736
ꮳꮪꮅ	-10.774
ꭲꮵꮂ	-10.7756
ꮧꭷꮓ	-10.7757
ꮷꮣꮄꮕ	-10.7786
ꮝꮣꮹꮥꭹ	-10.7805
ꭶꮨᏸ	-10.7807
ꮻꮝꭹ	-10.7816
ꭰꮧꮤꮝ	-10.7826
ꭶꮅꮶꮫ	-10.783
ꮼꮃ	-10.7833
ꮴꮅꭿꮝ	-10.7837
ꮅꮇ	-10.7859
ꭲꮸᏺꮺꮃꮑ	-10.7871
ꮈꮙꮣ	-10.7877
ꮣꮒꮈꭲꮝꮧ	-10.7902
ꭴꮅꮰꮿꮝ	-10.7907
ꭸꮄ	-10.7922
ꭲꮿꮝ	-10.7932
ꮒꮼꮒꮝ	-10.7944
ꭼꭽꮇᏼ	-10.7945
ꭿꭸᏻ	-10.7947
ꮴꮺ	-10.7949
ꮑꮸ	-10.7954
ꭼꮼꭿᏻꮂꮝ	-10.7954
ꮴꮝꮩ	-10.7956
ꮎꮑꮂꮎ	-10.7958
ꮑꮆꮩꮧ	-10.7963
ꮝꭺꮅ	-10.7968
ꮎꮅꮝꮖꮧꮝꭼꮎ	-10.797
ꮠꮅꮉꮕ	-10.797
ꮴꭶꮃꮿ	-10.797
ꭴꮎꮒꭹꮢ	-10.797
ꮧꭹꮎꮻ	-10.797
ꮶꭹꮈꮻꮝꮣꮑ	-10.797
ꭼꮹᏺꮁꭿꮝꮧ	-10.797
ꭶꮝꭹꮆ	-10.797
ꭱꮙꮒ	-10.797
ꭰꮪꮈꮧ	-10.7971
ꭷꮒꮅꮿ	-10.7971
ꭳꭶꮴꮅ	-10.7971
ꭰꮒꮑ	-10.7971
ꭳꭶꮳꮕ	-10.7971
ꭰꮒꮓꮝꭹꮝꭹ	-10.7971
ꮧꮒꮹꮎꭶꮃ	-10.7971
ꭰꭹꮇꮵꮈ	-10.7971
ꭴꮓꮝꮫ	-10.7971
ꭰꮩꮄꮀ	-10.7971
ꮻꭸꮵᏺꮅ	-10.7972
ꮷꮩꮲꮕ	-10.7972
ꭼꭸᏻꭲ	-10.7972
ꮔꮒꮂꮎ	-10.7972
ꭴꮒꮓꭾꮄ	-10.7972
ꭳꮒꮧꮲ	-10.7973
ꮷꮒꮑꮯᏼꮝꮧ	-10.7973
ꭰꮔꭶꮈ	-10.7973
ꮣꮣꮆ	-10.7973
ꮝꭹꮝꮣꮹꮪꭶ	-10.7973
ꭴꮼꭿꮸ	-10.7974
ꭲꭼꮺꮕꮫ	-10.7974
ꮤꮅꮷꮘ	-10.7974
ꭰꮒꭶᏼꮅꭸ	-10.7975
ꭺꮝꮪ	-10.7975
ꮪꭺꭾ	-10.7975
ꭴꮼꮪꭿᏻ	-10.7976
ꮒꮳꮅꮝꮤꮕ	-10.7977
ꭰꮓꮝꮫ	-10.7977
ꮪꮒꮕꮞ	-10.7978
ꮽꮿꮕꮂ	-10.7979
ꮧꭼꮹꮈꮜꮫ	-10.7979
ꭱꮓᏹ	-10.7982
ꮷꮑꮸ	-10.7985
ᏻꮆꮧ	-10.7987
ꭼꮹꮤᏺꮞꮄ	-10.7987
ꭴꮼꭿᏻꮢ	-10.7988
ꮒꮥꭶꮺꮞꮂ	-10.799
ꭰꭶꮫꮕ	-10.7995
ꭰꮿꭵ	-10.7997
ᏺꮵꭶꮤꭽ	-10.7999
ꭰꮬ	-10.8
ꭰꮿꮻꮝ	-10.8002
ꮥꮵꮒᏼ	-10.8007
ꮪꮎꮣ	-10.8009
ꭰꭹꮎꮻ	-10.8011
ꮎꮵꮎꮭꭵꮎ	-10.8012
ꮷꮽꭺꮩꮧ	-10.8013
ꮵꮹꮫꮂ	-10.8021
ꮣꮒꮑꮈ	-10.8024
ꮵꮅꭵꮒ	-10.8025
ꭰꮒꭶꮣꭽ	-10.8027
ꭴꮧꮹꮢ	-10.8037
ꮒꮅ	-10.8037
ꭰꮎꮅꮝꮣᏼꮂꮝꭼ	-10.804
ᏺꮞ	-10.8044
ꮝꮧꮝꭺ	-10.8044
ꮇꮸꭽ	-10.8045
ꮣꮄꭹ	-10.8045
ꮳꮎ	-10.8049
ꮪꮎꮅ	-10.8054
ꮴꮩꮂ	-10.8057
ꮎꮔꭺꮻꮞꮅ	-10.8076
ꭱꮈ	-10.8088
ꭰꮑꮅꮝꭼ	-10.8106
ꮣꮄ	-10.8115
ꮣꮴꮈ	-10.8123
ꮇꮸ	-10.8125
ꭲꮝꮣ	-10.8126
ꭲꮶꭿᏻꭿ	-10.8126
ꭲꭶꮑꮃꮕꭿ	-10.8134
ꭶꮤꭾ	-10.8152
ꮧꮕ	-10.8164
ꮕꮣꭼꮹ	-10.8175
ꮑꮢ	-10.8175
ꭶꮓꮩꮧ	-10.8187
ꮵꮪꮈꮻꮝꮣꮑ	-10.8195
ꮝꮫꮙ	-10.8199
ꮽꮒꮆꮢ	-10.8231
ꭲꮳꮫ	-10.8233
ꮿꮫ	-10.8236
ꭴꮒꮇꭿꮝꮧ	-10.8258
ꭸꮵꮑꮧ	-10.826
ꭲꭸꭼꮑ	-10.8265
ꭷꮅꮸꭿ	-10.8266
ᏸꮈꮧ	-10.8268
ꮥꭸꮵ	-10.8269
ᏹꮒꭼꮑ	-10.8281
ꭱꮵꮎᏸꮝ	-10.8284
ꮥꭶꮕ	-10.8288
ꭴꮎꮣꮕꮦ	-10.829
ꭲꮷꮥꮨᏼ	-10.8298
ꮒꭸꮞ	-10.8303
ꮟꮅᏹ	-10.8318
ꮿꭵ	-10.8319
ꮒꮶꭿᏻ	-10.832
ꭴꮣꮕ	-10.8326
ꮷꮎꮃꮟꮥ	-10.8326
ᏼꮃ	-10.8336
ꭴꮎꮅꭲ	-10.8343
ꭶꮩꭵ	-10.8364
ꮣꮑꮧᏹ	-10.8378
ꮧꮟ	-10.8401
ꭲꮣꮅ	-10.8428
ꭲꮝꮫ	-10.8444
ꭴꮲꭼ	-10.8444
ꭸꮵꮿꮕ	-10.845
ꭴꭶ	-10.8462
ꮣꮰ	-10.8493
ꭲꮳꮣꮕꮦ	-10.85
ꭶꮜ	-10.85
ꭰꮣꮕꮦꮝꭼꭲ	-10.8501
ꮰᏹ	-10.8506
ꮒꮠꮧᏹ	-10.8514
ꮵꮴ	-10.8517
ꭼꮹꮣ	-10.8517
ꮓꭾꮝꭹ	-10.8518
ꭼꮢ	-10.8523
ꭰꭶꮤꭾ	-10.8524
ꮸꮝꮩꮧ	-10.8536
ꮆꭲ	-10.8555
ꮪꮩ	-10.8557
ꭶꮕ	-10.858
ꮃꮑ	-10.858
ꭱꮘ	-10.8589
ꮧꮴ	-10.8621
ꭴꮇ	-10.863
ꮫꮫꮕꭹ	-10.8652
ꮝꮪꭲꮝꮧ	-10.8659
ꭰꮒꭹꮅᏺ	-10.8678
ꮨꮓꭾꮈꭹ	-10.8686
ꭰꮵꮑꮈ	-10.8686
ꭵꭿ	-10.8686
ꮎꮔꭺꭲꮝꮧ	-10.8687
ꮥꮝꭹ	-10.8694
ꮨᏸ	-10.8695
ꮒꮩꮣᏻ	-10.8702
ꭴᏸ	-10.8713
ꭺꭿᏻ	-10.874
ꮒꮺ	-10.8747
ꮣꮑꭽ	-10.8759
ꮻꮪꮎ	-10.8762
ꮩꮣꭶ	-10.8774
ꭲꭸꭼꮑꮧ	-10.8777
ꮳꮎꮧ	-10.8799
ꭲꮸꮑ	-10.8806
ꮅꮣꮝꮧ	-10.8809
ꮳꮣꮕꮦ	-10.8814
ꮷꮣꮄ	-10.8825
.	-10.8826
ꮷꭶᏼꮅꭸ	-10.8827
ꭴꮺꮑ	-10.8828
ꮵꮻ	-10.8845
ꭴꮔꮼ	-10.8864
ꮻꮞ	-10.887
ꮼꭹ	-10.8899
ꭲꮳꮅꮝ	-10.8906
ꮵꮑꮝꮧ	-10.8907
ꮶꭶ	-10.8914
ꮔꮪ	-10.8918
ꮲꮘꮝ	-10.893
ꮄꮕꮫ	-10.894
ꮎꮒꭵꭹ	-10.8945
ꮑꮯᏼꮝꮧ	-10.8947
ꭲᏻꮹ	-10.8955
ꮩꮕ	-10.896
ꮩꮳ	-10.8962
ꮿꮕꮧ	-10.8967
ꭹꮅᏺꭲꮝꮧ	-10.8969
ꭺꮩ	-10.897
ꮎꮖ	-10.897
ꮝꮥꮅ	-10.8974
ꭲꮵꮤᏺ	-10.8975
ꮑꮈꭲ	-10.898
ꭴꭹꮈ	-10.8997
ꮅꮝꭺꮈꮩꮧ	-10.8997
ꮤᏺꮞꮈꭹ	-10.9
ꮁꮝꮧ	-10.9028
ꭸꮩꮂ	-10.9031
ꭰꮙꭿᏻ	-10.9033
ꭴꭺ	-10.9035
ꭴꮎꮑꮃ	-10.9037
ꭳꮅꮹ	-10.9041
ꭴꮑꮈ	-10.9041
ꮫꮩꮧ	-10.9054
ꭰꮢ	-10.9054
ꭺꮈꮎ	-10.9063
ᏼꮣ	-10.9065
ꮑꮀ	-10.9066
ꭲꮿꮛꮑ	-10.9081
ꮠꭳꮑꮃ	-10.9081
ꮣꮎꮥᏺꮂꮝꭼ	-10.9081
ꭼꮝꭶꭲꮝꮣꭹ	-10.9081
ᏹꮵꭺꮅᏸꭳ	-10.9081
ꮪꮺᏺꮑ	-10.9081
ꮥꭺꮲꮹꮧꮢ	-10.9081
ꮧꭷꮈꭼ	-10.9081
ꮷꮼꮈ	-10.9081
ꭰꮩꮄꮀꭿꮝꮩꮧ	-10.9081
ꮽꮒᏼꮄ	-10.9081
ꮒꭶꮵᏼꮑꮈ	-10.9081
ꮧꮗꮵ	-10.9081
ꭰꮲ	-10.9081
ꮧꭶꮅꭰꮕ	-10.9081
ꮷꮑꮏꭲ	-10.9081
ꭰꮅꮟꮎꭿꮝꮩꮧ	-10.9082
ꭵꮳᏹ	-10.9082
ꮣꮺꮃꭹꮝ	-10.9082
ꮥꮵꭷꮏꮹꮧꮩ	-10.9082
ꮶꮣꮈ	-10.9082
ꭴꮑꮩꮈ	-10.9082
ꭴꮼꮒꮢ	-10.9082
ꭱꮵᏺꮅꮈ	-10.9083
ꮠꮣꮋ	-10.9083
ꭴꮑꭲꮝꮤꮕ	-10.9083
ꮩꮫꮎꮄ	-10.9083
ꮩꮧꮳꮣꮕꮫ	-10.9083
ꮪꮎꮑꮆꮫ	-10.9084
ꮧꮤꮂ	-10.9084
ꭰꮣꭿꭿ	-10.9084
ꮲꮣꮵ	-10.9085
ꭰꭼꭽꮈꮫ	-10.9085
ꭴꮒꭶꮩꭵꮢ	-10.9086
ꭴꮣꮩꮅꮝꮤꮑ	-10.9086
ꮧꮵꭶᏼꮅꭸ	-10.9086
ꭲꮳꮅꭾꮅꭸꮝꮧ	-10.9087
ꮣꮎꮅꮝꮣᏼꮂꮝꭼ	-10.9088
ꮈꮙꮤꮒ	-10.9089
ꭴꮓꭿᏻꮧᏹ	-10.909
ꮧꭼꮹꮣꮒꮈꭲꮝꮧ	-10.909
ꮧꭷꮏꮹ	-10.909
ꮳꮓꮞꮀꭲ	-10.9092
ꮘꮅꮟ	-10.9095
ꭰꮒꮓꭾꮝꭹ	-10.9096
ꮔꮅꮝꮣꮑꮈ	-10.9096
ꮗꮧꮒᏹ	-10.9097
ꮥꮳꮣꮒꮈꮸ	-10.9098
ꭰꮒꮓꭿ	-10.9098
ꭴᏸꮈꮞ	-10.9098
ꭰꭶꮤꭿᏻ	-10.91
ꭽꮣꮕꮦꮝꭼ	-10.9101
ꭴꮱꮧꮝꭹ	-10.9102
ꭰꮵꮈꭸꮃꮝꮧ	-10.9104
ꭰꮅꮝꭺꮈꮩꮧ	-10.9105
ꭴꭹꮅᏺꭲꮝꮧ	-10.9109
ꮳꮑꭾ	-10.9109
ꭴꭹꮅᏺꮸ	-10.9109
ꮥꭶꮝꭹꮈ	-10.9111
ꭰꮖꮣꮕꮫ	-10.9111
ꭴꮾꮤꮕ	-10.9112
ꮴꮃ	-10.9113
ꮥꭶꮔꭺꮻꮝ	-10.9114
ꭴꮺꮅꮞ	-10.9118
ꭴꭸᏻꭿᏻ	-10.9122
ꮵꮕ	-10.9122
ꭳꮅꮹᏺ	-10.9124
ꭴꮣꮤꮕꭿ	-10.9124
ꮩꮣꮵ	-10.9127
ꮹꮫꮧ	-10.9133
ꮜꮅ	-10.914
ꮧꮤꮝꮧ	-10.915
ꮺꮢ	-10.915
ꮥꮝꮧꮝꭹ	-10.915
ꭶꮎꮔꭺ	-10.9152
ꭲꮧꭼꮑ	-10.9153
ꭰꮣꮻ	-10.9155
ꮉꭶ	-10.9163
ꭲꮳꮣꮩꮅꮝꮧꮝꭼ	-10.9165
ꭴꮎꮥꮕ	-10.9168
ꭲꮳꮧꮤꮝ	-10.9172
ꮈꮝꮧᏹ	-10.9175
ꭿꮧᏻ	-10.9183
ꮥꮵꮑꮴ	-10.9187
ꭴꮄꮑ	-10.9198
ꮣꭼꮎ	-10.92
ꭹꮞ	-10.9207
ꭸꭶꭻᏼꭱ	-10.9208
ꮄꮕꮂ	-10.9209
ꭶꮅꮙꭹꮑ	-10.9211
ꮲꮕ	-10.9225
ꭴꮤꮕ	-10.9234
ꮳꮪꮅꮝꭺ	-10.9236
ꭴꮅꮝꮪꭲ	-10.9244
ꭶꮒ	-10.9253
ꭲꮿꮵꮈꮙ	-10.9255
ꮵꮸ	-10.9256
ꮹꮎ	-10.9258
ꭴᏼ	-10.9278
ꮎꮕ	-10.9279
ᏻꮞꮝꮧ	-10.9286
ꮯꮆꮝꮩꮧ	-10.9288
ꭱꮝꭶꮒ	-10.9293
ꮝꮥꮈꭿ	-10.9304
ꭶꮑꮅ	-10.9326
ꭲꮧꮝꮣ	-10.9328
ꭿꭰꮙ	-10.9333
ꮒꭶꮅꮝꮧꮝꭺ	-10.9338
ꮖꮟ	-10.9347
ꮥꮿꮩ	-10.9354
ꭲꮵꭶꮤꮂ	-10.9378
ꮑꭶ	-10.9383
ꮣꮕꮦꮧ	-10.9385
ꭻᏼꭱꮧ	-10.9385
ꮫꮣꮄꮂꮝ	-10.9391
ꮷꮣꮄꮕꮂ	-10.9395
ꮑꮯᏼꮫ	-10.9396
ꮜꮃ	-10.9397
ꮺꮞꮅ	-10.9399
ꮤꮕꮎ	-10.9403
ꮡꮎ	-10.941
ꮅꮢ	-10.9418
ꮄꮒ	-10.9427
ꭰꮑꮩ	-10.9429
ꭷꮑꮙ	-10.9429
ꭷꮈ	-10.9433
ꮧꭸꮳ	-10.9435
ꮕꮣꭼ	-10.9439
ꭱꮅꭹ	-10.9441
ꭰꮎꮅ	-10.9452
ꮧꭶꮣꭽ	-10.946
ꮒꮩꮈ	-10.9464
ꭴꮑꮕ	-10.947
ꮇꮆ	-10.9473
ꭰꮒꮓꭾ	-10.9489
ꭴꮹꮫꮧ	-10.9489
ꮳᏸꮈꮕ	-10.9497
ꮣꮕꮼꮧ	-10.9511
ꭴꮒᏺꮄ	-10.952
ꮣꮕꮣꮧꮝꮧ	-10.9529
ꭴꮎꮣꮫ	-10.9531
ꭼꮼꭿᏻ	-10.9552
ꭴꮒᏸꮈꮕ	-10.9562
ꭲᏻꮣ	-10.9568
ꭶꮨꮄ	-10.9579
ꮿꮕꮫ	-10.9603
ꭰꮝꮣᏹꮧꮝ	-10.9603
ꮕꭹꮑ	-10.9605
ꮃꮋ	-10.9605
ꮹꮒ	-10.9613
ꮣꮑꮀ	-10.9614
ꭴꮎꮫꭶꮕꭹ	-10.9617
ꭹꮿ	-10.9618
ꭺꮂ	-10.963
ꭶᏺꭶ	-10.9636
ꮒꮧꮳ	-10.9639
ꮈꮙꮥꮝꮧ	-10.965
ꭰᏼꮙ	-10.9669
ꮵᏼꭹ	-10.9681
ꮳꮕ	-10.9684
ꭴꮒꮓꭾꮧ	-10.9722
ꮷꮎꮔꭺꮻꮞꮧ	-10.9725
ꮇꮴꮧ	-10.973
ꮸꭶ	-10.973
ꭰꮣꮩꮅꮝꮣꮑ	-10.9732
ꮉꮅ	-10.9733
ꭲꮸꮓꮑꮈ	-10.975
ꭱꮵꮿꮕ	-10.9764
ꮓꮑꮅ	-10.9771
ꮧꭻꭺ	-10.9776
ꮣꮝꮥꮈꮧ	-10.978
ꮩꮄꮀꭿꮝꮧ	-10.9795
ꮑꮯᏼ	-10.9795
ᏸꮳ	-10.9818
ᏺꮅꮈ	-10.9826
ꮅꮝꮣᏼꮧᏹ	-10.9902
ꮵꮥꮳ	-10.9915
ꭶꮪꭲ	-10.9916
ꭰꮣꮫ	-10.9924
ꮬꮟꮫꭱ	-10.9926
ꭲꮸᏸꮃꮧꮩ	-10.9932
ꮧꮒᏹ	-10.9952
ꭶꮩꭵꭿꮝꮧᏹ	-10.9991
ꮃꮝꮣ	-10.9994
ꭴꮒꮓꮑ	-11
ᏺꮅ	-11.0006
ꭴꮕꮟ	-11.0015
ꭴꮝꮖꮈꭿꮧ	-11.0016
ꭱꮳꭻᏼ	-11.0031
ꭺꮂꭹ	-11.0033
ꮝꮣᏼ	-11.0046
ꭴꮎꮕ	-11.0053
ꭺꮅᏸꮧ	-11.0056
ꮉꮣ	-11.0064
ꮧꮳꮅ	-11.0076
ꮳꮣꮕꮫ	-11.0079
ꮝꭶꮈ	-11.0099
ꮧꮄ	-11.0115
ꭴꮒꭺꮹꮫꮧ	-11.0116
ꮻꮢ	-11.012
ꮎꮔꭺꮻꮞ	-11.0133
ꭿᏻꮂꮝꭼꮎ	-11.014
ꭱꮵꮑꮧ	-11.0165
ꮑꭾ	-11.0176
ꭱꮀ	-11.018
ꭲꮿꭼꮑꮧ	-11.0188
ꮩꮄꮀꮝꭶ	-11.0196
ꭰꭷꮅ	-11.0199
ꮴꮿꮩꮴ	-11.0208
ꮸꮣ	-11.021
ꮇꮴꮈ	-11.0219
ꮎꮩꮣꮖꮝ	-11.0231
ꭰꮅꮝꮣᏼꮂꮝ	-11.0249
ꭼꮹꭺꮹꮫ	-11.0251
ꭶꮆꭿꮝꮧ	-11.0251
ꭺꮧ	-11.0251
ꭰꮅꮵꮩ	-11.0253
ꭰꮒꮿ	-11.0259
ꮝꮣꮿ	-11.0269
ꭽꮣꮕ	-11.0272
ꭳꭶꮪꮅ	-11.0275
ꭼꮹꮃ	-11.0287
ꮏꭵ	-11.0287
ꭼꮤᏺꮞ	-11.0291
ꮩꮃꮕꮝꮧ	-11.0294
ꮀꮅ	-11.0295
ꮥꮳꮈꮻꮝꮣꮑ	-11.0299
ꭴꮒꭼꭵꮝ	-11.0302
ꮂꮝꭼꮎ	-11.0312
ᏺꮁꭿ	-11.0315
ꮳꮎꮻ	-11.0316
ꭶꮜꮿꮝꮧꮥꭹ	-11.0316
ꭷꮏꮹꮧꮩꭾ	-11.0317
ꮑꮩꮂ	-11.0323
ꮱꮧꮝꭹ	-11.0325
ꮦꮈꮧ	-11.0327
ꮈꮻꮝꮣꮑꮧ	-11.0327
ꮴꮅꭺ	-11.0329
ꮣꮅꮝꮧꮃꮑꭼ	-11.0331
ꮥꮟꮆꮒꭶ	-11.0331
ꮪꮣꮨꮏꭵ	-11.0331
ꮷꭶꮢꮝꮧ	-11.0331
ꮷꮼꮪꭿ	-11.0331
'	-11.0331
ꮷꮑꮲꮤꮕ	-11.0331
ꭰꮒꭺꮧᏻ	-11.0331
ꮧꮶꮺꮅꮝꭹ	-11.0331
ꮪꮼꮑꮤꮕ	-11.0331
ꮳꭶꮡ	-11.0331
ꮎꭼꮑꮄ	-11.0331
ꭴꮑꮇꭼ	-11.0331
ꭴꮔꮹꭵ	-11.0331
ꮥꭶꮼꮑꮧꮝꭼ	-11.0331
ꮧꭸꭻꭺꮣꮑꮧ	-11.0331
ꮔꮼꭿᏻꮢꮎ	-11.0331
ꭼꮣꭸꮒ	-11.0331
ꮧꮵꭷꮏꮹꮫꮝꮧ	-11.0331
ꭰꮵꮕꮹꮕ	-11.0332
ꭸꮵꮕꮢꭿ	-11.0332
ꮪꮹꮒꭶꮈ	-11.0332
ꮳꮣᏺꮑꮈ	-11.0332
ꭰꮝꮖꮈꮂ	-11.0332
ꭴꮎꮣꮩꮅꮝꮣꮑꮈ	-11.0333
ꭴꮺꮩꮄ	-11.0333
ꭲꮳꮫꮕꭲꮝ	-11.0333
ꮷꮒꭶᏼꮅꭸ	-11.0333
ꭴꮝꮧꭹꮫ	-11.0334
ꭴꮣꮩꮅꮳꮫ	-11.0334
ꭴꮺꭷꮕ	-11.0334
ꮻꮵᏺꮅ	-11.0335
ꭴꮒꮈꮙꮤꮑ	-11.0335
ꭰꭹꮗꮣꮈ	-11.0336
ꮻꭶꮇꭹ	-11.0336
ꭰꮒꮝꭶꭲꮂ	-11.0336
ꮩꮫꮎꮣ	-11.0336
ꭴꮎꮔꭺꮵꮈ	-11.0337
ꭰꮗꮅꮢ	-11.0338
ꭴꮒꮪꮂ	-11.0338
ꭺꮅꮒꮧ	-11.0338
ꭼꮹꭺꭾ	-11.0339
ꭸꭵ	-11.034
ꮣꮒꮔꮩꭼ	-11.034
ꭲꮸꮧꮝꭼ	-11.0342
ꭼꮑꮝꮧ	-11.0343
ꮎꮖꮝꮫ	-11.0343
ꮸꮇꮴꮅ	-11.0345
ꮦꮃ	-11.0346
ꭷꮓꮧ	-11.0347
ꮳꮝꭶꮕꮸ	-11.0347
ꮫꮑꮂ	-11.0348
ꭰꮙꭿᏻꮂꮝ	-11.0351
ꭲꮫꮧꮝꭼ	-11.0351
ᏺꮁꮟ	-11.0351
ꭴꮆꮞ	-11.0352
ꮷꮎꮣꮅ	-11.0352
ꭴꮝꮖꮒꭺꮞ	-11.0352
ꭰꮵꮕꮟꮫ	-11.0353
ꭺꮹꮫꮧ	-11.0353
ꭴꮝꮖꮒꭺꮫ	-11.0359
ꭲꭶꮅꮝꮩꮧᏹ	-11.0362
ꮎꮫꭶ	-11.0362
ꮝꭹꭸᏻ	-11.0366
ꭶꮪꭲꮧꮲ	-11.0366
ꭴꮎꮅꭾꮅꮴ	-11.0367
ꭰꮒꭺꮹꮨꮝꭼ	-11.037
ꮥꮵꭸᏻ	-11.037
ꭴꮪꮣꮄ	-11.0371
ꮥꭴꮈꮻꮝꮣꮑꮂ	-11.0373
ꮰꭰꮟ	-11.0375
ꮔꮳ	-11.0376
ꮥꭼꮧꮝꭼ	-11.0377
ꭴꮒꮂ	-11.0379
ꭲꮳꮣꮕꮫ	-11.0379
ꮷꮔꮼ	-11.0379
ꭴꮎꮔꭺꮸ	-11.0382
ꭲꮳꮅꭾꮅꭼ	-11.0385
ꭴꮒꮳꮦꮝꮧ	-11.0388
ꮎꮝꭶꭲꮂꮎ	-11.0389
ꭶꮈꮃꮧꮲ	-11.039
ꭴꮒꮤꮃꮼ	-11.0394
ꮣꮿ	-11.0395
ꭰꮒꮓꭾꮝꭼ	-11.0396
ꮵꭹꮅᏺꭼ	-11.0399
ꭲꮳꮫꮣꮝꮣ	-11.0401
ꭴꮝꮣꮹꮫꮞ	-11.0409
ꭶꮑꮯᏼꮝꮧ	-11.0412
ꭰꮒꮶꭲ	-11.0417
ꭴꮳꮕ	-11.0419
ꭴꮎꮣꮯꮜꮕ	-11.042
ꭷꮑꭲꮝꮧꮝꭸ	-11.0423
ꭾꭿ	-11.0426
ꭲꮳꮫꭺꮧ	-11.0427
ꮵꭺꮹꮨ	-11.0427
ꮎꮛꮑꮈ	-11.044
ꭲꮳꮯꮒꭼꮑ	-11.0448
ꭲꭹᏸꮈ	-11.0456
ꮧꮝꭸ	-11.0461
ꮔꮕꮑꮄ	-11.0471
ꮾꮫ	-11.0471
ꮷꮣꮄꮑ	-11.0474
ꮃꮝꮤꮑ	-11.0479
ꮷꮺᏺ	-11.0482
ꭹᏺꮁꮢꭿ	-11.0483
ꮻꮵꮇꮸ	-11.0486
ꮎꮖꮅꮝꮣꮑꮈ	-11.0493
ꭱꮳꮩ	-11.0502
ꮎꮕꮑ	-11.0504
ꭲꮵꮇꮴꮈ	-11.0514
ꭴꮒꭺꮂꭿ	-11.0514
ꮧꮑꭿ	-11.0526
ꮖꮣꮄꮕ	-11.0534
ꮒꭺꭾ	-11.0539
ꮟᏻ	-11.0551
ꮣꮕꮫ	-11.0553
ꮹꭶꮫ	-11.0557
ᏼꮅ	-11.0557
ꭴꮒᏼꮈ	-11.0558
ꮧꭹꮈꮻꮝꮣꮑꮧ	-11.056
ꭲꮳꮪꮅꮝꭼ	-11.057
ꮰꮸ	-11.0572
ꮩꮫꮒ	-11.0589
ꭲꭸ	-11.0589
ꮟꮧ	-11.0603
ꮂꮝꭺ	-11.0606
ꭰꭻᏼꮧ	-11.0609
ꮒꭼꮹ	-11.0617
ꭼꮝꭶ	-11.0618
ꭴꮓꭾ	-11.0637
ꭰꮝꮫ	-11.0647
ꮩꮣꮈ	-11.0656
ꮏꮫꮑ	-11.0658
ꭴꮑꮕꮢꭹ	-11.0658
ꭲꮳꮅꮝꮣᏼꮧ	-11.0663
ꮷꮝꮧ	-11.0679
ꮕꮫꮎ	-11.0683
ꭶꮄꮒ	-11.0691
ꭴꮼꭿᏻꮕ	-11.0711
ꮴꮅꮞ	-11.0711
ꮳꭲꮞ	-11.0713
ꮝꮖꮒꭺꮤꮕ	-11.0718
ꮅᏹꮆꭿꮝꮧ	-11.0735
ꭰꮝꭺꭿꮓ	-11.0738
ꭴꮑꭲꮝꮧ	-11.0775
ꭾꮈ	-11.0788
ꭰꮱꮧꮝ	-11.0806
ᏹꮖ	-11.0809
ꮒꭺ	-11.0815
ꭴꭸᏻ	-11.0823
ꮪꮒꮈꮻꮝꮣꮑꭾ	-11.0826
ꭶꮅꮝꮩꮧꭽ	-11.0837
ꭶꮤꭿ	-11.0848
ꭺꮞ	-11.0851
ꮈꮩꮧ	-11.0854
ꭰꮎꮅꭾꮅꭸ	-11.0855
ꭴꭼꮻᏻꮜꮥ	-11.086
ꮎꮣꮃ	-11.0869
ꮪꮼ	-11.0887
ꭴꮣꮡ	-11.0889
ꮝꮣꮑꮈ	-11.0899
ꭰᏺ	-11.0902
ꮳꮕꮣꮧꮝ	-11.0912
ꮪꮑꮈ	-11.0918
ꮧꮳꭷ	-11.093
ꭺꮹꮫ	-11.0948
ꮳꮇ	-11.095
ꭸꮸ	-11.0953
ꭴꮎꮣꮕꮦꮈ	-11.0973
ꭶꮕꭸ	-11.0973
ꮳꭶꮜꮿꮝ	-11.0977
ꮧꮵꮑꮯᏼ	-11.0978
ꮶꮟ	-11.0984
ꮨꮒ	-11.0992
ꮕꮩꮧ	-11.0993
ꮤꮈ	-11.1004
ꮫꮤꮒ	-11.1024
ꭴꮣꮅꮣꮝ	-11.1025
ꮵꮇ	-11.1032
ꮒꮧꭸ	-11.1049
ꮵᏻꭿꮓ	-11.1051
ᏻꮑ	-11.1055
ꭶꮼꮒꮝ	-11.106
ꭲꮸꮓꮑ	-11.107
ꭴꮥꮑ	-11.1081
ꮲꮧ	-11.1082
ꮕꮣᏸ	-11.1093
ꭰꮝꮖ	-11.1098
ꭷꮑꮝ	-11.11
ꮃꮧꮣꮝꮧᏹ	-11.1114
ꭶꮫꭲ	-11.1114
ꭲꮵꮇꮴꮧ	-11.1121
ꮝꮙ	-11.1126
ꮧꭷꮓꭹꮝ	-11.113
ꮠꮧᏹ	-11.1133
ꮜꮄ	-11.114
ᏹꭼꮹ	-11.1161
ꭰꮎꮅꭾꮅ	-11.1162
ꮳꮣꮈ	-11.118
ꮆꮤꮕꭿ	-11.1201
ꮝꮖꮒꭺꮫ	-11.1205
ꮣꮣᏹ	-11.1238
ꭴꮅꭾꮅꮴ	-11.1255
ꮣꮒᏼꭸ	-11.1257
ꮴꮩ	-11.1258
ꭶꮿꮇ	-11.1276
ꭶꮵᏺ	-11.1278
ꮥꮀ	-11.1285
ꭲꮵꮑꮧ	-11.129
ꭶᏸꮵꮠꮲ	-11.1306
ꭲꮸᏺꮺꮃ	-11.1309
ꭺꮅꮝꮧ	-11.1334
ꭼꮺ	-11.1335
ꭸꮵꮑ	-11.1338
ꭱꮵꮈꮙ	-11.1343
ꮧꮒꭷꮏꮹ	-11.136
ꭲꭶꮈꮙꮧ	-11.1368
ꮃꮒ	-11.1373
ꭰꮙᏸ	-11.1375
ꮡꮅ	-11.138
ꮵꮳꮫꭹ	-11.1383
ꮒꮈꭹ	-11.1387
ꭱꮵꮝꮥꮈꮧ	-11.1389
ꮹꭹ	-11.1406
ꭴꮎꮫ	-11.1408
ꮥꮵꮩ	-11.1411
ꮕꮣꮣ	-11.1412
ꭴꮕꮕ	-11.1426
ꮶꮸ	-11.1431
ꮪꭹꮢ	-11.1431
ꮝꮥꮈ	-11.1458
ꮴꮏ	-11.1461
ꭴᏺꮄ	-11.1475
ꮎꮔꭺꮻꮞꮈ	-11.1476
ꮒꮜꮑ	-11.1478
ꭲꮵꮑ	-11.1478
ꮪꮔꮹꭵ	-11.1498
ꭲꮸꮿ	-11.1517
ꭴꮗꮣꮅꮙ	-11.1517
ꮳꮣꮄꮕ	-11.1525
ꭲꮳꮩꮄꮀꭿ	-11.1525
ꮒꮪꮎꮣꮺꮞ	-11.1527
ꮖꮅ	-11.1527
ꮅꮝꮥꮈ	-11.1531
ꭴꮅꮝꮣᏼꮧ	-11.1543
ꮵꮒꭶꮅꮝꮧ	-11.1555
ꮝꭹꭺꮹꮨꮝ	-11.1556
ꮶꭿᏻ	-11.1558
ꮻꮩ	-11.1567
ꭱꮃꮺᏹ	-11.157
ꭰꮹꮫ	-11.1578
ꮵꮑꮅ	-11.1592
ꮃꮻꮞ	-11.1594
ꭿꭿ	-11.1594
ꮅꮓꭾ	-11.16
ꭱꮈꭹ	-11.1605
ꮖꮒ	-11.1608
ꮆꮢ	-11.1622
ꭴꮒꮓꭾꮈ	-11.1629
ꮼꮒꭿꮝꮧ	-11.163
ꮅꭺ	-11.1631
ꭺꮤꮕ	-11.1633
ꮞꮄ	-11.1652
ꭷꮏ	-11.1655
ꮑꮵ	-11.1679
ꭰꮖꮫꭶꮕ	-11.168
ꭶꮼꮒ	-11.168
ꭶꭻᏼꮣꮑꮧ	-11.1684
ꮻꮔ	-11.1689
ꭱꮃ	-11.1694
ꮒꮵꮺꮝ	-11.1705
ꭶᏼꮅꭸ	-11.1711
ꭳꭶꮫꭶꮕ	-11.1711
ꮎꮫꮑꮀ	-11.1715
ꭰꮝꭻꮥꮝꮧ	-11.1722
ꮫꮑꮅꮣꮝꮧ	-11.1722
ꭺꮺꮄ	-11.173
ꮧꭸꮵᏸ	-11.1737
ꮅꮣꮝꮤꮕ	-11.1741
ꭶꮇꭺ	-11.1742
ꭲꮵᏺ	-11.1745
ꮑꭲꮝꮤꮑ	-11.1752
ꮥꭷꮑꮴ	-11.1756
ꮆꮑꮫ	-11.1758
ꭴꮤᏺꮄ	-11.1759
ꮣꮣꮑꮃꮧꮢ	-11.1759
ꮥꭶꮈꮻꮝꮣꮑꮈ	-11.1759
ꮥꭶꮓꮳꮈ	-11.1759
ꭰꮒꭶꮤꮎꭲ	-11.1759
ꭰꮛꮤꮕ	-11.1759
ꭷꮕꮡꮈ	-11.1759
ꮄꭳꮧꮟ	-11.1759
ꮒꮶꮅꭼꮎ	-11.1759
ꮧꮖꮃꮟꮥꮒ	-11.1759
ꮪꮟꮤꮫ	-11.1759
ꮷꭶꮎꮾ	-11.1759
ꭴꮎꮸꮞ	-11.1759
ꮧꮔꭺꮧꮝꭹ	-11.1759
ꮪꮫꮫꮑ	-11.1759
ꭴꮧꮫꭾ	-11.1759
ꭴꮴꮇꭿ	-11.1759
ꭴꮺꮠꮕᏼ	-11.1759
ꭴꮑꮇꮑ	-11.176
ꭴꮧꮧꮲ	-11.176
ꭷꭿꮿꮝꮧ	-11.176
ꮀꮺꮈ	-11.176
ꭰꮠᏼ	-11.176
ꭴꮼꮿꮑꮢ	-11.176
ꮵꮝꭺᏼ	-11.176
ꮥꮕꮩꭵ	-11.176
ꮷꮑꮅꮑ	-11.176
ꭴꮣꮩꮅꮳꮨ	-11.176
ꮷꮎꭹꮈ	-11.176
ꮷꮒꭷꮏꮹꮫꮝꮧ	-11.176
ꭴꮒꮝꭶꮄ	-11.1761
ꭴꮎꮣꮡᏸꮫ	-11.1761
ꭱꮩꮩᏹ	-11.1761
ꮧꮣꮒꮠꮧᏹ	-11.1761
ꭲꮸꮓꭾꭾꮈ	-11.1761
ꮪꮒᏺꮁꮢ	-11.1761
ꭴꮢꮒꮄ	-11.1761
ꭴꮎꮔꭺꮻꮝꮧ	-11.1761
ꮪꮏꮝꮥꮲ	-11.1761
ꭴꮣꮰꮝ	-11.1761
ꮥꮿꮩꮤꮕꭹ	-11.1761
ꭳꮹꮢ	-11.1762
ꮔꮺꮂꮎ	-11.1762
ꮔꮣꮡᏼ	-11.1762
ꭴꮒꮕꮕ	-11.1763
ꮡꮥꮨᏼꮫ	-11.1763
ꭴꮒꮅꮕꮸ	-11.1764
ꭰꭹꮕꮟꮩꭿ	-11.1764
ꭴꮏꮈ	-11.1764
ꮪꮒꮒᏼꭾ	-11.1764
ꮣꮈꮫ	-11.1765
ꮪꮎꮄꮕ	-11.1765
ꭴꮎꮣꮕꮞ	-11.1765
ꮒꮳꮣꭸᏻꮢ	-11.1765
ꭶꮎꮔꭺꮵꮈ	-11.1765
ꭰᏸꮩꮃꮫ	-11.1765
ꭰꭶꮝꭶꮒ	-11.1765
ꭴꮎꮮ	-11.1766
ꮑꮝꭸꮂ	-11.1766
ꭰꮳꮺꮠꮈꮝꮩꮧ	-11.1766
ᏻꮓꮅꮴ	-11.1766
ꮵꮸᏸꮃꮧꮩ	-11.1767
ꭲꮸꮑꭲꮝꮧꮝꭼ	-11.1767
ꮜꮿꮒ	-11.1767
ꭴꮎꮳꮕ	-11.1767
ꮧꮝꭹꭷꮑ	-11.1768
ꮝꭹꮿꮕꮣꮧꮝ	-11.1768
ꮪꮒꭷꮑ	-11.1769
ꮔꮎꮅꮝꮣꮑꮈ	-11.1769
ꮪꮎꮣꮕ	-11.177
ꭴꮒꭹꮞ	-11.177
ꮻꭸꮵꮿꮕ	-11.177
ᏹꮒꭼꮹ	-11.177
ꭴꮣꮕꮝꮧᏹ	-11.1771
ꮧꮳꮨꮒꮩ	-11.1771
ꭰꮣꭸꮧ	-11.1772
ꮣꮝꭻꮣꮫ	-11.1772
ꭰꮊ	-11.1773
ꭰꮔꭿꮝꮧꮝꭼ	-11.1774
ꮎꮒꮝꭶꮕꮎ	-11.1778
ꭴꮥꮧ	-11.1778
ꮜꮪ	-11.1778
ꭴꮒꮹꮫꭾ	-11.1778
ꮿꮫꮕ	-11.1778
ꭰꭹꮝꮫꮧꮝꭼ	-11.1778
ꭴꮺꮕꮢꭹ	-11.1781
ꮧꮳꮃꮟꮥꮒ	-11.1782
ꭲꮳꮔꮼꮝ	-11.1782
ꭴꮧꮤꮝꮧ	-11.1782
ꭰꮝꮖꮒꭺꮧꮝ	-11.1783
ꮷꮈꮻꮝꮣꮑ	-11.1784
ꮷꮥᏺ	-11.1785
ꭴꮝꭶꮴ	-11.1787
ꮣᏸꮵ	-11.1787
ꭰꭹꭹꭼ	-11.1789
ꭰꮒꮩꮎꭱ	-11.1789
ꮧꮿ	-11.1789
ꭰꮒꭶꮤꭾ	-11.1789
ꭴꮎꮅꮦꮈꮕ	-11.179
ꮧꭶꮫꭿ	-11.1792
ꭴꮓᏼꭼ	-11.1794
ꮡꮣꮅꮑ	-11.1795
ꭰꮴꮝꮩ	-11.1795
ꮪꮣꮄꮝ	-11.1796
ꭳꭹꮩꮣ	-11.1797
ꮑꮸꮑꮈ	-11.1799
ꮧꮶꮈ	-11.1799
ꭴꭹꮅ	-11.1799
ꭰꮣꮺꮅꭹꮝꭼ	-11.1799
ꮧꮹꮎꭶꮃ	-11.1799
ꮯᏼ	-11.1801
ꮳꮪꮅꮝꭼ	-11.1803
ꭰꮎꮣꮩꮅꮝꮧꮝꭼ	-11.1807
ꭰꮅꮵꮩꮂꮝꭼ	-11.1808
ꭴꮑꮙꮴ	-11.181
ꭰꮒꮘ	-11.1811
ꮵꮑꭲꮝꮧꮝꭼ	-11.1817
ꮥꭺꮲꮢ	-11.1819
ꮹꮎꭶꮃ	-11.1819
ꭴꮣꮕꮣꮫ	-11.1822
ꭷꮑꮙꭸ	-11.1826
ꭶꮑꮵ	-11.184
ꮒꮪꮒꮺꮞꮄ	-11.1842
ꮒꮸꮑꮂ	-11.1845
ꭲꮳꮣꮕꮦꮝꭼ	-11.1845
ꭲꮥꮂ	-11.1847
ꮕꮹꮝꮧ	-11.1848
ꭲꭸꮳꮫꮑꮧ	-11.1848
ꮥꮸꮕ	-11.1849
ꮪꮣꮒꮈꮴ	-11.1851
ꮩꮨ	-11.1855
ꭼꮹꮤᏺꮞꮈꭹ	-11.1857
ꮹꮝꮧ	-11.1858
ꭸꭺꮞ	-11.1858
ꮝꭹᏸꮅꮞ	-11.1859
ꮳꮑꮲꮤꮕ	-11.1862
ꭰꮎꮫꭹꮝꭼ	-11.1863
ꮵꮖ	-11.1863
ꭴᏸꮈꭽ	-11.1865
ꭰꮅꮝꮣᏼꮂꮝꭼ	-11.1866
ꮳꭶꮈ	-11.1867
ꭱꮆꮧ	-11.1874
ꮇꮴꮅ	-11.1878
ꮔꮕꮑ	-11.1884
ꭴꮒꮑꭲꮝꮧ	-11.1885
ꭰꮒꮈꮙꮧꮝꭸ	-11.1889
ꮽᏼ	-11.1894
ᏹꮩꭼ	-11.1896
ꭵꮭꮝꮧ	-11.1912
ꮒꭼꮑꮈ	-11.1915
ꮴꮟ	-11.1917
ꭲꮸᏸꮃꮧꮩꮂ	-11.1918
ꭱꮣ	-11.1919
ꮧꮉ	-11.192
ꮘꮅᏹ	-11.192
ꭴꮑꮢ	-11.1921
ꮘꮒ	-11.1921
ꭳꭹꭺꮂ	-11.1921
ꮽꮒꮆ	-11.1926
ꮑꮝꭸꭾ	-11.1932
ꮟꮝꭹ	-11.1933
ꭶꮅꮶ	-11.1936
ꮧꭸꮵꮎꮭ	-11.1942
ꭴꮎꮅꭺꮢ	-11.1944
ꭼꮏ	-11.1957
ꮥꭼꮹꮰ	-11.1962
ꭰꮒꮼꮒꮝ	-11.1965
ꮀꮂꮝꮧ	-11.1967
ꭴꮩꭿᏻꮑ	-11.1967
ꮷᏺ	-11.1982
ꭰꮖꮅ	-11.1983
ꭰꮅᏸꭲꮆ	-11.1988
ꭴꮼꮞ	-11.1993
ꭶꮫꮑꮅ	-11.2017
ꮕꮫꮕ	-11.2023
ꭸᏻꭿ	-11.2031
ꮷꭼꮹ	-11.2031
ꭸꮟ	-11.2047
ꭰꮙ	-11.2051
ꮈꮙꮩ	-11.2064
ꮝꮣꮹꮧꮢ	-11.2071
ꮣᏺꮳ	-11.2073
ꮩꮄ	-11.208
ꮸꮧ	-11.2081
ꮼꮑꮩꮧ	-11.2087
ꭰꮝ	-11.2088
ꮧꭼꮹꮑꮆ	-11.2091
ꮒꮄ	-11.2097
ꭶꮅꭽ	-11.21
ꭴꮫꮓ	-11.2106
ꭸꭶꮅꮝꭺꮈꮣꮑꮈ	-11.2106
ꮝꮘ	-11.2107
ꭺꮅᏸꮝ	-11.212
ꭰꮖꮣ	-11.2122
ꮷꮎꮔꭺꮻ	-11.2123
ꮣꮫꭹ	-11.2133
ꮷᏺꭿꮞꮧ	-11.2136
ꭹꮑꮴꮈ	-11.2149
ꮕꮝꮣꮥ	-11.2183
ꭼꭹꮇꮴ	-11.2199
ꭱꮵᏺ	-11.2202
ꭴꮑꮃꮕ	-11.2224
ꮪᏻ	-11.2227
ꭷꮂꮝ	-11.223
ᏼꮂ	-11.2255
ꭸꮵꮫꮩꮧ	-11.2276
ꭿꭶꮤꮂ	-11.2279
ꭿꮝꮧꮝꭹ	-11.228
ꮪꭺ	-11.2297
ꮒꮵꮝꭶꮕ	-11.2298
ꭽꮄ	-11.2298
ꮕꮣꮧꮝꮧ	-11.2305
ꮖꮫꮑꮧ	-11.2309
ꮅꮝꮤꮑ	-11.2314
ꮻꭶꮎꮔꭺ	-11.2331
ꮫꮕꭲꮝ	-11.2332
ꮝꮧꮻ	-11.2333
ꭴᏺꮙ	-11.2334
ꭼꮹꮫꮧ	-11.2335
ꭿꮿꮫ	-11.2339
ꮿꮓ	-11.234
ꭱꮳꮈꮙꮧ	-11.2364
ꮣꮟ	-11.2366
ᏹꮒꮳꮫꮑ	-11.2367
ꮿꭳ	-11.2369
ꮵꮝꮥꮈ	-11.2382
ꮣꮣꮫ	-11.2383
ꮣꮒꮩ	-11.2383
ꮅꮵꮩꮑ	-11.2383
ᏺꮝꮧ	-11.2385
ꮝꭹꮝꮣꮹꮥ	-11.2386
ꮕꮣᏻꮎ	-11.2394
ꭼꮹꮒꭺꮹꮫꮧ	-11.2405
ꮟꮠꮧ	-11.2417
ꮪꮕ	-11.2421
ꭷꮎ	-11.2428
ᏺꮂ	-11.244
ꭰꮞꮅ	-11.2442
ꮸꮫ	-11.2444
ꮣꮒᏼ	-11.2447
ꮵꮺ	-11.2455
ꭴꮼꮲ	-11.2469
ꭺꭾ	-11.2471
ᏹꮕꮧꭶꮅꮝꮩꮧꮝꭸ	-11.2473
ꮸꮧꮝꭺ	-11.2485
ꭶꮦꮓ	-11.2493
ꮝꮧꮝꭸꭲ	-11.2518
ꮳᏺ	-11.252
ꮒꮿ	-11.2538
ꮟꮅ	-11.254
ᏹꮒꭶꮫꮑ	-11.2541
ꮳꮅꮝꮣᏼ	-11.2547
ꮳꮅ	-11.2555
ᏸꮅꭶ	-11.2559
ꭰꮵᏸ	-11.256
ꭼꮹꮝꮣꮹꮧ	-11.2569
ꭴꮥꮢ	-11.257
ꮔꭺꮻꮢ	-11.2581
ꭸꮵꭸᏻ	-11.2587
ꮳꮣꮡꮿ	-11.2589
ꮥꭿꮑ	-11.2595
ꭺꮅᏸꮧᏹ	-11.2595
ꮵꮒᏼ	-11.2596
ᏻꭿ	-11.2601
ꮯꮝꮧ	-11.2601
ꮧꮳꮣꮄꮕ	-11.2627
ᏹꮅꮩ	-11.2632
ꮵꮫ	-11.2642
ꭴꮒꮵ	-11.2645
ꭵꭹꮑꮈ	-11.2652
ꭶꮵꭺꭵ	-11.2666
ꮧꭸꭶ	-11.2666
ꮳꮩ	-11.2706
ꮵꮝꮣꮹꮥꭹ	-11.2707
ꮪꮒꮈꮻꮝꮣꮑ	-11.2727
ꭳꭼ	-11.2727
ꭲꮳꮩꮄꮀ	-11.2735
ꭰꭺ	-11.2738
ꮇꮟ	-11.2747
ꭶꮑꮆꮧ	-11.2755
ᏺꭿꮝꮧ	-11.2756
ꮪꮅꮝꭸ	-11.2767
ꭲꮳꮅꭾꮅ	-11.2768
ꮓꮝꭹꮢ	-11.2781
ꮰꭰ	-11.2791
ꭴꮎꮲ	-11.2794
ꮵꭶꮤꮂ	-11.2799
ꮣᏺꮑ	-11.2819
ꮌ	-11.2825
ꭴꮆꮢꮝ	-11.2831
ꭴꮺꮂ	-11.2832
ꭺꭿᏻꮂꮝꭸ	-11.2857
ꮸꭽ	-11.2867
ꮣꮝꮪꮂ	-11.287
ꮩꮄꮀꮢ	-11.2881
ꮰꮿꮝꮧ	-11.2885
ꭴꮣꮄꮕ	-11.2889
ᏺꮁꮝ	-11.2902
ꭶꮎꮝ	-11.2908
ꮒꮡꮺꮞ	-11.2919
ꮧꮝꮣᏹ	-11.2921
ꭴꮣᏼ	-11.2932
ꮔꭺꮻꮝ	-11.2937
ꮎꮣꮫꮑ	-11.2939
ᏻꮎꮣ	-11.2944
ꭲᏸꮸꮑꮈ	-11.2948
ꭰꭹꮕ	-11.2952
ꭴꭺꮹꮫꮧ	-11.2955
ꭺꮹꮨꮝꭸ	-11.2959
ꭲᏻꮕ	-11.2961
ꮪꮅꮝ	-11.2962
ꭰꮣꮕ	-11.298
ꮟꭶ	-11.2993
ꮩꮵ	-11.2998
ꭲꮸᏼ	-11.3005
ꮺꮞ	-11.3015
ꭷꮑꭸ	-11.3021
ꭰᏸꮈꮢ	-11.3035
ꮣꭶꮨꮄ	-11.3047
ꮒꮜ	-11.3051
ꭴꭷꮅ	-11.3056
ꭽꮔ	-11.3059
ꮵꮑꭲꮝꮧ	-11.3064
ꮻꮣꮒ	-11.3077
ꮎꮞꮅ	-11.3091
ꮧꮸᏺ	-11.3101
ꮢꮒꮈ	-11.3114
ꭼꮹꮣꮩꮅꮝꮣꮑ	-11.3117
ꭾꮅ	-11.3118
ꮃꮕꭹ	-11.3131
ꭰꮎꮅꮝꮣᏼꮂꮝ	-11.3133
ᏹꮵᏸꮈ	-11.3137
ꭺꮫ	-11.3148
ꮧꮳꮣꭸᏻ	-11.3152
ꮷꮃ	-11.3152
ꭷꮿ	-11.3153
ꭴꮎꮣꮕ	-11.3157
ꭲꭶꮅ	-11.3171
,	-11.3172
ꮝꭹꮝꮥꮈ	-11.3184
ꭼꮑꮅ	-11.3185
ꭴꮒꮑꭻ	-11.3186
ꭴꮅᏸ	-11.3189
ꭿꮝꮩꮧ	-11.3195
ꭰꭺꭲ	-11.3197
ꮸꮝꮫ	-11.3199
ꮧꮕꮧ	-11.3201
ꭼꮼꮞ	-11.3218
ꮪꮂ	-11.3223
ꮃꮧ	-11.3228
ᏺꮁꮞꮈ	-11.3234
ꮒᏼꮧ	-11.3235
ꮎꮣꮩꮅꮝꮣꮑ	-11.3239
ꮝꭺꮒꮧꮲ	-11.3241
ꮵꮵꮿ	-11.3242
ꭲꮿꮖꮅꮝ	-11.3244
ꭶꮕꭶ	-11.3251
ꮩꮣꭸ	-11.326
ꮒꮆꮢ	-11.3266
ꮪꮯꮆꮝꮣꮑ	-11.3267
ꮣꮑꭾꮝꮧ	-11.327
ꭰꮑꮅꮝ	-11.3282
ꭶꮅꮵꮩꮂꮝ	-11.3292
ꭰꮵᏸꮈꮎꮑ	-11.3299
ꭶꮑꮃꮕꭿ	-11.3305
ꮿꮣꮕꮦ	-11.3315
ꮣꮕꮟ	-11.3316
ꮝꮣꮑꮧ	-11.3318
ꮑꮳ	-11.332
ꭱꮟ	-11.3323
ꮒꭶꮫꮙ	-11.3327
ꮩꮣᏸ	-11.3363
ꮕꮷꮅꮝꮩꮤꮑ	-11.3366
ꮩꭿᏻ	-11.3367
ꮢꮙ	-11.3379
ꭰꮣꮺꮅꭹꮝ	-11.3379
ꭶꭼꮹꮠꮲ	-11.3383
ꮒᏼꭿ	-11.3386
ꮻꮒꮧꮲ	-11.3391
ꮇꮵꮈ	-11.3393
ꮹꮫꭿ	-11.3395
ꮣꮕꮕ	-11.3399
ꮤꮃꮼꭿꮝꮧ	-11.3399
ꮽꮣꭺꮎꮫ	-11.34
ᏻꮺ	-11.3403
ꮤᏺꮝꮧ	-11.3411
ᏹꮟ	-11.3418
ꭰꮒᏼꭿ	-11.3419
ꭴꮣꮩꮅꮝꮤꮕ	-11.342
ꮒꮸᏼꮑ	-11.3421
ꭻꮄ	-11.3421
ꮈꮙꮤꮑ	-11.3425
ꮪꮈꮕꮧ	-11.3425
ꮹꮅᏸꭲꮆꭿ	-11.3425
ꮒꮥꮳꮫꮑ	-11.3426
ꮅꮦꮈꮒ	-11.3426
ꮣꮎꮥꮢꮂꮝ	-11.3426
ꮥꮳꮑꮆꮫ	-11.3426
ꮪꮒꮃꮻꮸ	-11.3426
ꮪꮥᏺꮑ	-11.3426
ꭰꮯꮆꭵ	-11.3426
ꭲꮳꭶꮤꮕꮞ	-11.3426
ꭴꮨᏼꭿ	-11.3426
ꭵꮖꮈꭲꮫ	-11.3426
ꮔꮎꮫꮑꮄ	-11.3426
ꮣꮗꭺꮤꮕ	-11.3426
ꮣꮴꮅꮝꮫ	-11.3426
ꮩꮷꮑꮕꮢ	-11.3426
ꭲꮃꭹᏻ	-11.3426
ꭸꮋꮅ	-11.3426
ꭴꮎꮅꮟꮎꭿꮝꮧ	-11.3426
ꭴꮑꮃꮻꮞꮈ	-11.3426
ꮪꮎꭷꮫ	-11.3426
ꮵꮿꮫꭶꮑꮈ	-11.3426
ꮕꭹꮶꮑ	-11.3426
ꮶꭹꮎꮻ	-11.3426
ꭲꭺꮒꮿ	-11.3426
ꮒꮤᏺꮄ	-11.3426
ꮥꮳꮒᏼ	-11.3426
ꮪꮅꮵꮩꮑꮄ	-11.3426
ꭴꮟꮩꮅ	-11.3426
ꮪꮕꮹꮑ	-11.3426
ꮪꮎꮄꮑ	-11.3426
ꮪꮈꮕꭵꮝꭼ	-11.3426
ꮪꮺꭷ	-11.3426
ꮧꮠᏼ	-11.3426
ꮵꭶꮇꭿꮝꮧ	-11.3426
ꭴꮪꮈꮂ	-11.3426
ꭽꮯꮒꭼꮑ	-11.3426
ꮎꭺꮤꮕꮎ	-11.3426
ꭴꮣꮩꮅꮝꮣꮑꮄ	-11.3426
ꭴꮧꮄꭹ	-11.3426
ꮷꮒᏼꮝꮥꮝ	-11.3426
ꮔꮹꮒꮜꮕ	-11.3426
ꮒꭺꭿᏻꮂꮝꭼꮎ	-11.3426
ꭴꮎꮑꮆꮤꮕ	-11.3426
ꭶꮆꮠꮂꮝ	-11.3426
ꮶꮝꮣꮣꮕꮯ	-11.3426
ꮔꮎꮫꮑꮅꮩꮈ	-11.3426
ꭴꮜꮃꮣꮕ	-11.3426
ꮧꮵᏺꮁꮢꭿ	-11.3426
ꭼꮹꮝꮫꮧꮝ	-11.3426
ꭲꮣꮅꭾꮅ	-11.3427
ꮕꮓꮁꮆꮧ	-11.3427
ꮣꮎꮰᏹꮂ	-11.3427
ꮣꮎꮣꮕꮦꮝꭼ	-11.3427
ꭺꭲᏻꮂꮝꭶ	-11.3427
ꭲꮳꮄꮒꮩꮂ	-11.3427
ꮔꮎꮅꮝꮤꮕ	-11.3427
ꮽꮒᏼꮈ	-11.3427
ꭳꭸꮩꮈ	-11.3427
ꭰꮖꮫꮕꭲꮝꮧ	-11.3427
ꭴꮎꮣꮡᏼ	-11.3427
ꮣꮄꮒꮩ	-11.3427
ꮧꮒᏺꭴꮅ	-11.3427
ꭼꮹꮓꭿᏻ	-11.3428
ꮥꮵꮈꮙꮥꮝꮧ	-11.3428
ꭴꮝꮧꭹᏻ	-11.3428
ꮧꭻꭺꮧꮝꭹ	-11.3428
ꭲꮵꮑꭻ	-11.3428
ꮥꭼꮹꮨꮓꭾꮄ	-11.3429
ꮣꮒꭷꮕ	-11.3429
ꮕꮹꮩꭿ	-11.3429
ꮣꮅꮑꭿ	-11.3429
ꮵꭹꮅᏺ	-11.3429
ꭰꭶꮅꮝꭺꮈꮣꮑꮈ	-11.3429
ꮧꮴꮕꮢ	-11.3429
ꮪꮨꮕꮞ	-11.3429
ꮥꮶꮥꮝꮧ	-11.343
ꭴꮎꮒꮲ	-11.3431
ꭴꭶꮫꮄ	-11.3431
ꮎꮧꮕꮞ	-11.3431
ꭰꮒꮑꭲꮝꮧꮝ	-11.3431
ꮧꮤꭿ	-11.3432
ꭰꮉᏻꮆꮧ	-11.3432
ꮥꭶꮃꮕꮫ	-11.3432
ꮪꮒꭷꮅ	-11.3432
ꮝꮖꮅꮝꭸ	-11.3432
ꮕꮣᏻꮔꭺꮸ	-11.3432
ꭰꮪꭲꮝꮤꮕ	-11.3433
ꮽꮳꮕ	-11.3433
ꮧꮣꮩꮥ	-11.3433
ꮳꮧꮻꮝ	-11.3434
ꮣꮄꮎꮝꮧ	-11.3435
ꮵꮃꮻꮞꮂ	-11.3436
ꮦꮖꮆ	-11.3436
ꭰꮖꮣꮕꮦꮫ	-11.3436
ꭰꭶꮤꮎꭲ	-11.3437
ꮼꭹꮆꮢ	-11.3437
ꭴꮅꮝꮧᏻ	-11.3437
ꮧꮒꭶꮨꮿ	-11.3437
ꭱꮅꮝꭸ	-11.3438
ꭼꮹꮓꮑꮄ	-11.3438
ꮧꭺꮺꮆꮧ	-11.3438
ꭿᏺꮝꮧꮝ	-11.3438
ꭰꭶꭻᏼꭱꮧ	-11.3439
ꭴꮒꮝꮖꮫ	-11.3439
ꭿꮼꮒꮝꭼ	-11.3439
ꮕꮅꮜꮅꮙ	-11.344
ꭴꮣꮡᏸꮫ	-11.344
ꮷꮽꮣꮄ	-11.344
ꭴꮎꮅꮞ	-11.344
ꮽꮥꮅꭼ	-11.3442
ꭸꮶꮞ	-11.3442
ꭴꮑꭻ	-11.3443
ꭶꮃꮕꮫ	-11.3443
ꭰꮥꮈꮣꮆꮒꭸ	-11.3443
ꮷꮣꮒꮈꭲꮝꮧ	-11.3444
ᏹꮕꮹꮝꮧ	-11.3446
ꮪꮻꮮꮻꮢ	-11.3447
ꭱꮳꭻᏼꭱꮧ	-11.3447
ꭴꮒꮹꮫꮧ	-11.3448
ꭾꮣ	-11.3448
ꮵꭹꮅᏺꭶ	-11.3449
ꮩꮣꮖꮫ	-11.3449
ꮪꮔꭺꮻꮢ	-11.3449
ꭴꭼꭵꮝ	-11.3451
ꮒꭶꮅꮝꮤꮒꮩꮂ	-11.3451
ꭴꭼꮹꮈ	-11.3452
ꮵꮺꮞꮈ	-11.3452
ꭰꮒꮆꮋ	-11.3452
ꮽꮣꭺꮎꮫꮫ	-11.3452
ꭴꮒꮆꮢ	-11.3453
ꭴꮅꮝꭺꮈꮩꮧ	-11.3454
ꮔꮫ	-11.3454
ꮢꮒꭶ	-11.3454
ꭶꮝꮫ	-11.3455
ꭷꮃ	-11.3457
ꮋꮃ	-11.3458
ꮥꮵꮓꭹꮝ	-11.3459
ꭰꭶꮕꭹ	-11.3459
ꭴꭹꮞ	-11.346
ꮳꮑꮸ	-11.3461
ꭰꭹꮅᏺꭼ	-11.3462
ꭺꮲꮕ	-11.3462
ꮟᏼ	-11.3463
ꮝꮖꮧꮝꮧᏹ	-11.3463
ꮔꮈꮧ	-11.3464
ꭰꮒꭶꮨꮿ	-11.3465
ꭶꭺꮅꮝꮧ	-11.3465
ꭴꮆꭿꮝꮧᏹ	-11.3466
ꭴꮎꮔꭺꮻꮞ	-11.3466
ꮷꮣꮕꮣꮧꮝ	-11.3468
ꮧꮳꮔꮼ	-11.3468
ꭴꮓꭿᏻꭿ	-11.3468
ꮈꮓꮨ	-11.3469
ꭴꮒꭼꭵꮝꭼ	-11.3469
ꮷꮄꭿꮠꮧ	-11.3471
ꮥꭸꮵᏺ	-11.3472
ꮔꮣꮄ	-11.3472
ꭶꭲꮢ	-11.3472
ꮧꭶꭺꮩꮧ	-11.3472
ꭴꮺᏼ	-11.3474
ꮩꮀ	-11.3476
ꭶꮨꮧꮝꮧᏹ	-11.3477
ꮔꮺꭱ	-11.3478
ꮵꮹꮎꭶ	-11.3478
ꭳꮝꭶ	-11.348
ᏼꭸꮵ	-11.348
ꭴꮅꮝꮖꮥ	-11.3483
ꮒꭼꮒꮟ	-11.349
ꭶꮰꮿꮝꮤꮕ	-11.3493
ꭲꮣꮩꮄꮀꭿꮝꮧ	-11.3494
ꭰꮠꮲꭲꮝꮧꮝꭼ	-11.3494
ꭲꭶꮪꭹ	-11.3494
ꮎꮒꭱ	-11.35
ꭹꮎꮅꭲ	-11.3507
ꮝꮪꮂ	-11.3507
ꮧꮒꮝꭺ	-11.3512
ꭴꮎꮻ	-11.3513
ꮎꮔꭺꮸ	-11.3514
ꭴꮓꭿᏻꮑ	-11.3517
ꮁꮝꮥꮞ	-11.3517
ꭴꮅꭾꮅꮸꭿ	-11.3525
ꭰꮅꮝꮖ	-11.3525
ꮶꮢ	-11.3527
ꭰꮎꮧꮝꭼ	-11.353
ꭼꮙꮞ	-11.353
ꭴꮑꮴꮈꭹ	-11.3531
ꭶꮑꮝꭸ	-11.3533
ꭼᏼ	-11.3535
ᏹꮶꭿᏻꮂ	-11.3536
ꮵꮔꮝꮥ	-11.3537
ꮪꮹ	-11.3538
ꭼꮹꮫꮫꮕꭹ	-11.3539
ᏸꭺꭹ	-11.3541
ꭲꮳꮣꮕꮯ	-11.3542
ꮅꮼꮸ	-11.3542
ꭲꮸᏸꮅꮞ	-11.3542
ꮔꭺꮸ	-11.3543
ᏹꮳꮮ	-11.3544
ꮨꮕꮝꮤꮕ	-11.3544
ꭰꭹꮝꮣꮹꮥ	-11.3552
ꮟꮠꭲ	-11.3552
ꭺꮟꮟꮝ	-11.3552
ꮝꮧꮝꭼ	-11.3553
ꮧꮵꭸ	-11.3555
ꮵꮼꮒꮝꭼ	-11.3558
ꮪꭲꮝꮣꮑꮄ	-11.3567
ꮧꭺꮲꮕꭿ	-11.3568
ꮹꮢ	-11.357
ꭴꮒꮑꮴ	-11.3572
ꮣᏻꮒ	-11.3576
ꮔꮼꭱ	-11.3577
ꭲꮸᏺ	-11.3578
ꮧꮧᏸꮈ	-11.3579
ꭴꭼꮻᏻꭿꮝꭹꮒ	-11.358
ꮝꮖꮣᏹ	-11.3584
ꮧꮳꮄ	-11.3589
ꮒꭶꮅꮝꮧꮝꭸ	-11.359
ꮗꮕ	-11.3596
ꭴꮣᏼꮝꮧ	-11.3602
ꭴꮨꮓ	-11.3604
ꭲꮸꮿꮅꮵꮩꮑꮈ	-11.3613
ꭸꮵꮑꮴꮈ	-11.3617
ꭰꮒᏼ	-11.3619
ꭶꭺꭸ	-11.3623
ꭶꭼꮹ	-11.3624
ꮵꭺꮅᏸ	-11.3627
ꭶꮫꮕ	-11.3629
ꮜꮑ	-11.3633
ꮝꮥꮈꭿꮩ	-11.3636
ꭼꮣ	-11.3637
ꮩꮣꭼ	-11.3641
ꮝꮪꭲꭱꮈ	-11.3642
ꮪᏸꮅ	-11.3648
ꮣꮵꮹꮫꭿ	-11.3649
ꮳꭺꮞ	-11.365
ꭲꭶꮪꮣꮄꮝ	-11.3654
ꭰꮅꭾꮅꮴꮧ	-11.3671
ꮵꮒꭼꮑ	-11.3672
ꭲꮳꮣꮴꮅ	-11.368
ꮺꮝꭹ	-11.3681
ꭴꮒꭹꮝꮧ	-11.3688
ᏹꮧꭶ	-11.369
ꮅꭾꮅ	-11.3691
ᏻᏺ	-11.3691
ꮒꮜꮫ	-11.3698
ꮅꮝꮣᏼꮎꮑ	-11.3704
ꮪꮅꮝꮪꭲ	-11.3716
ꭴꮝꭶ	-11.3719
ꮋꮒ	-11.372
ᏹꮒꭶ	-11.3727
ꭰꮣꭺꮅᏸꮝ	-11.3729
ꭽꮣꮕꮣ	-11.373
ꮒꭸꭼꮑꮈ	-11.373
ꭰꭹꭺꮂ	-11.3731
ꮕꮣꭼꮹꮝꮣꮹ	-11.3733
ꮔꮕꮑꮈ	-11.3737
ꭲꮵꮤᏺꭿ	-11.3744
ꭰꮖꮣꮕꮩꭹ	-11.3744
ꭴꮎꮪꮅꮝꭸ	-11.3748
ꭶꮵᏼꮑ	-11.3752
ꭼꮹꭶꮧ	-11.3752
ꮶꭲꮙ	-11.3752
ꮣꮕꭶꮈ	-11.3757
ꭼꮹᏺ	-11.3757
ꭳꮝꮧ	-11.3764
ꭴᏸꮈꮢ	-11.3765
ᏹꮔꮝꮥ	-11.3773
ꮪꮼꮥ	-11.3777
ꮻꮵꮆ	-11.3781
ꭲꮸꮑꮴꮈ	-11.3787
ꭴꮳ	-11.3788
ꮵᏺꮝꮩꮣꮑ	-11.3793
ꭲꭶꮫꮝꭹꮒ	-11.38
ꮣᏸꮳ	-11.3806
ꮫꮒꮧꮝꮧ	-11.3807
ꮒꭶꮺꮞ	-11.3813
ꮅꮈ	-11.3825
ꮹꭹꮆ	-11.3826
ꭰꮟᏼꮻꮙ	-11.3826
ꭼꮹꮒᏼꮂ	-11.3832
ꭴꮆꮧ	-11.3837
ꮝꮩꭲ	-11.3841
ꭰꮒꮕꭲ	-11.386
ꮣꭼꮹ	-11.3861
ꮵꭸꮵ	-11.3861
ꮦꮢ	-11.3863
ꭹꮝꭺ	-11.3868
ꮷꮒᏺꮁꭿꮝꮧ	-11.387
ꭴꮼꭿᏻ	-11.387
ꮑꮕ	-11.3879
ꭼꮹꮣꮩꮅꮝ	-11.3905
ꭰꭺꮹꮨꮝ	-11.3908
ꮝꮥꮈꭿꮣꮝꮧ	-11.3912
ꮵꮀꮅ	-11.3912
ꭰꮵꮿꮕ	-11.3913
ᏸꮈꮞ	-11.3915
ꭴꮾꮩꮧ	-11.3915
ꭳꮵꮓꭾꮝ	-11.3919
ꮎꮝ	-11.3919
ꮝꮣꮹꮫꮞ	-11.3925
ꮿꭹᏸꮈ	-11.3943
ꮎꮎꮫꮑ	-11.3946
ꭵꮝꭶ	-11.3947
ᏹꮪꮎ	-11.3949
ꭼꮹꮅꭵꮒ	-11.3958
ꮕꮣꭶ	-11.3959
ꭺꮹꮨꮝꭼꮎ	-11.3964
ꭲᏸꮸꮑ	-11.3975
ꮰꮎꮝꮫꮎ	-11.3975
ꭵꮝꭸꭲ	-11.3979
ꭲᏻꮕꮑ	-11.3984
ꮢꮓ	-11.3988
ꮅꮝꮤꮕ	-11.3989
ꮧꭶꮑꮈ	-11.3993
ꮳꮥ	-11.4002
ꮵꮎꮭꭲ	-11.4006
ꭰꮵꭲꮝꮧ	-11.4009
ꭲꭶꮥ	-11.4011
ꮧꮵᏺꭿ	-11.4011
ꮒꭶꮅꮝꮧꮝꭼ	-11.4012
ꭴꮧꭶꮅꮝꮩꮧꮝꭸ	-11.4016
ꮷꮼꮲ	-11.4029
ꭶꭷꮂ	-11.4035
ꭿᏻꮂꮝꭶ	-11.4039
ꮼꮕ	-11.4045
ꮣꭸᏻꮧ	-11.4068
ꮔꮒꮺꮞꮄ	-11.4072
ꮣꮵᏼ	-11.4072
ꮒꮢ	-11.408
ꮣꭶꮅꮝꮣꮧꮝ	-11.408
ꮻꮕ	-11.4084
ꭴꮒꮇꮴꮈ	-11.4085
ꮵꮝꮣ	-11.4095
ꮝꮖꮈ	-11.4111
ꮂꭿ	-11.412
ꮑꮂꭹ	-11.4121
ꮧꮷꭺꮣ	-11.4126
ꮵꮼꮒ	-11.4151
ꮔꮈ	-11.4154
ꮣꮿꮒꮝꭺ	-11.4155
ꭶꮕꭲ	-11.4159
ꭹꮑꮈ	-11.4185
ꮺꮝꭼ	-11.4193
ꮩꭾ	-11.4198
ꮵꭶꮤꭿ	-11.4201
ꭴꮅꮝꭺꮈꮣꮑ	-11.4209
ꮕꭶꮈꮫ	-11.421
ꭰꮥ	-11.4227
ꮩꮅꮸ	-11.4228
ꮠꭲᏹ	-11.4228
ꮜꮥ	-11.4232
ꭺꭶ	-11.4244
ꭼꮙ	-11.425
ꮣꮩꮅꮝꮧꮝꭼ	-11.4255
ꮣꮱꮧ	-11.4258
ꮕꮣꭶꮺ	-11.4263
ꮟꮩ	-11.4265
ꮇꮵ	-11.4272
ꮎꮫꮑꮧ	-11.428
ꮳꮅꭾꮅ	-11.4281
ꭴꮕꮧ	-11.4283
ꭲᏻꮒ	-11.4301
ꮫꭹꮝꭼ	-11.431
ᏻᏸꮈ	-11.4317
ꮒꮼꮒꭿꮝꮧ	-11.4325
ꭶꮅꮝꭺ	-11.4328
ꭴᏺꭲꮝꮧ	-11.4331
ꮩꮫꭰꮄ	-11.4336
ꭴꮑꮣꮝꮧ	-11.4343
ꭰꭹꮑ	-11.4349
ꮧꭶꮈꮻꮝꮣꮑꮧᏹ	-11.4368
ꭶꮔꭺꭼ	-11.4383
ꮒᏼꮂꭹ	-11.4387
ꭰꮝꭺ	-11.4399
ꭲꮵꮑꮙ	-11.4404
ꮅꮝꮥꮅꮝꭼ	-11.441
ꭶꮅꮝꮩ	-11.4412
ꮩꭿꮙ	-11.4413
ꮢꭶꮈ	-11.4414
ꮅꮝꮣᏼꮂ	-11.4418
ꭴꮎꮕꮕ	-11.4429
ꮝꮣᏹ	-11.4429
ꮕꮣꮥ	-11.4436
ꮧꮥꮆꮖꮝ	-11.4443
ꭴꭶꮎ	-11.4448
ꭶꮇꭹ	-11.4452
ꭻꮣꮄ	-11.4453
ꮣꭹꭷ	-11.4454
ꮣꭷꮑ	-11.4466
ꮣꮕꮤ	-11.4481
ꮕꮧꭶꮅꮝꮩ	-11.4484
ꮵꭸᏻ	-11.4504
ꭴꮒꮕꮑ	-11.4517
ꭰꮤᏺꭿ	-11.4522
ꮒꭶꮫꮑꮀ	-11.4528
ꮝꮣꮑꭿ	-11.4529
ꭴꮓꭿᏻ	-11.4534
ᏻꭺꮣꮑ	-11.4537
ꮩꮷ	-11.4549
ꭰꭹᏺ	-11.4551
ꮣꮅꮣꮝꮧ	-11.4553
ꮺꭿ	-11.4557
ꮤᏺꮞꮈ	-11.4558
ꭴꮝꮖ	-11.4564
ꮵꭶꮤꮂꮎ	-11.4567
ꭰᏸ	-11.457
ꮆꮈ	-11.4574
ꮣꮈ	-11.4576
ꮵꮕꮝꮣꮥꮈꭹ	-11.458
ꭴꮆꭸꮢ	-11.4583
ꮥꭶꮅ	-11.4588
ꭳꮣ	-11.4593
ꮆꮠꮕ	-11.4594
ꭶꮺ	-11.4605
ꭴꮒꭿ	-11.461
ꭼꭹꮑꮙꮴꮧ	-11.4617
ꮣꮸꮿ	-11.4632
ꮪꮒᏺ	-11.4635
ꭸᏻꮢ	-11.4666
ꮑꮴꮄ	-11.4671
ꭶꮅꮝꮣꮧꮝ	-11.468
ꮎꮎꮫꮑꭾ	-11.4685
ꭶꮝꭺ	-11.4685
ꮅꮝꭶꮝꮩꮧ	-11.469
ꭼꮤꮒ	-11.4693
ꮵꮒꭸ	-11.4697
ꮵꮕꮟꮫ	-11.47
ꭸꮵꮓꭾꮝ	-11.4704
ꮅꭹ	-11.4717
ꮫꭹꭽ	-11.4743
ꮣꮒꮈꮴ	-11.4749
ꮯꮧ	-11.4779
ꮺꮳ	-11.4799
ꮩᏹ	-11.4804
ꮒꭶꮅꮝꮤꮒ	-11.4805
ꮣꮵᏺ	-11.4805
ꮎꮄꮕ	-11.4814
ꮵꭺꮹꮫꮧᏹ	-11.4815
ꮓꭾꮈꭹ	-11.4821
ꮧꭶꮓ	-11.4822
ꮅꮝꮤꮒ	-11.4822
ꮣꮫꮑ	-11.4825
ꮫꭶꮕ	-11.4829
ꮧꭺꮲ	-11.4833
ꭲꮵꮿꮕ	-11.4845
ꮻꮒꮪꮺꮞ	-11.4882
ꮜꮆ	-11.4895
ꮸꮑꮀ	-11.49
ꭼᏺꮞ	-11.4907
ꮒꭸᏻꭿ	-11.4917
ꭺꮅᏸꭵ	-11.4933
ꮸᏼꮑ	-11.496
ꮽꮕ	-11.4968
ꭲꮶꭿᏻꮂꮝ	-11.4971
ꮑꭲꮝꮧ	-11.4973
ꮳꮼꮝꮤ	-11.498
ᏹꮣꭹ	-11.4983
ꮅꮒꭼꭼ	-11.4991
ꭴꮒꮹ	-11.4998
ꭼᏸꮈ	-11.4998
ꮷꮪꭺ	-11.5006
ꭲꮳꮣꮑ	-11.5011
ꭼꮹꮓꭾꮝ	-11.5014
ᏹꮩꭸ	-11.5025
ꮒꭼꮞꮂ	-11.5031
ꭰꮵꮓꭾ	-11.5046
ꭳꮵꮑ	-11.5055
ꮧꭹꮈꮻꮝꮣꮑ	-11.5057
ꮽꮇꮴꮈ	-11.5067
ꮑꮲ	-11.5075
ᏹꮒꭺ	-11.5077
ꮣꮼ	-11.5078
ꮴᏺꮂꮝ	-11.5082
ꮎꮰᏹ	-11.5083
ꮣꮑꮄ	-11.5084
ꮊꮅꭹ	-11.5085
ꭰꭹꮂ	-11.5088
ꮩꮒ	-11.5092
ꮕꮑꮈ	-11.5101
ꭼꮑꮴ	-11.511
ꮴꮧᏹ	-11.5118
ꭴꮑꮅ	-11.5123
ꭴꮸ	-11.5125
ꮓꭾꮧ	-11.5142
ꭶꮎꮔꭺꮻꮝ	-11.5148
ꮣꮩꮅꮝꮣꮑꮧ	-11.515
ꭶꭸꮵꮑ	-11.5153
ꮫꭶꮑ	-11.5154
ꮣꮜ	-11.5159
ꮎꮥꮨᏼ	-11.5164
ꮅꮩꮂ	-11.5169
ꮩꭵꭿꮝꮧ	-11.5181
ꮝꮪꭲꮢ	-11.5193
ꭳꮅ	-11.5197
ꭰꮎꮣꮩꮅꮝꮧꮝꭸ	-11.5213
ꮝꮣꮹꮧꮩ	-11.522
ꮹꮵꮿꮕ	-11.5221
ᏹꮪꮈꮻꮝꮣꮑ	-11.5225
ꮕꮣꮵ	-11.5236
ꮵꮝꭶꮎ	-11.5246
ꮎꮛꮑ	-11.5247
ꭸꮶꭿᏻ	-11.5249
ꭰꮝꮪ	-11.5252
ꮣꮣꮈ	-11.5253
ꮡᏸꮢ	-11.5256
ꮸꮿ	-11.5256
ꭶꮜꮿꮝꮩ	-11.5258
ꮑꮺꮞ	-11.5262
ꭼꮹꮫꮫꮧ	-11.5269
ꮩꭵ	-11.5269
ꮣꮅꮕꮯ	-11.5277
ꮼꮵ	-11.5293
ꮅꮉ	-11.5293
ꭹꮢ	-11.5295
ꮝꮫꮎ	-11.5296
ꭴᏺꭲ	-11.5297
ᏼꮣꭶ	-11.5304
ꮅꮜꮃꮣꮕ	-11.5314
ꮫꮕꭹ	-11.5319
ꮵꭿꮝꮧ	-11.5323
ꮳꮫꮎ	-11.5325
ꮝꭹᏺꭲᏻꮂ	-11.5332
ꭰꮪꮣꮄꮝꮧ	-11.5335
ꮑꮈꮎ	-11.5338
ꮖꮄ	-11.5343
ꮷꮎꮒꮟ	-11.5351
ꮪꭷꮏ	-11.5365
ꮔꮹꮑꮀ	-11.537
ꮵꮝꭶꮕ	-11.5374
ꮳꮅꮝꭶꮝꮩꮧ	-11.5374
ꮥꮨᏼ	-11.5377
ꮵꭶꮨꮧꮝꮧ	-11.5378
ꮣꮒꮼꮒ	-11.5379
ꮅꮒꭺꭿꮝꮧ	-11.5382
ꮵꮔꭺꮻꮝꮧ	-11.5385
ꮷꭻᏼ	-11.5385
ꭴꮎꮣꮱ	-11.5386
ꮣꮄꮒꮝꭼ	-11.5389
ꭶꮒꮃ	-11.5393
ꭱꮴ	-11.5395
ꭿꭶꮨꮟ	-11.5397
ꮎꮅꮝꮣᏼꮂꮝꭼ	-11.5398
ꮣꭼꮹꮅ	-11.54
ꮣꮵꮿ	-11.5401
ꮅꮝꮪꮆ	-11.5403
ꮵꭶꮤꭾ	-11.5408
ꮅꮝꮣᏼꮩꮧ	-11.541
ꮆꮞ	-11.5411
ꭴꮼꮪꭿ	-11.5413
ꮈꮙꮫ	-11.5414
ꭴꮅꮒꭹꮧ	-11.5414
ꭲꮳꮅꭺ	-11.5414
ꮝꮣꮹꮪꭶ	-11.5418
ꮞꭺꭹꮢ	-11.5419
ꭼꭽꮇᏸ	-11.542
ꮨꮏꮻꮫ	-11.5421
ꮫꮑꭿ	-11.5424
ꭴꮒꮆꮞ	-11.5425
ꮪꭺꮣꮑꮧ	-11.5425
ꭴꮤꮃꮼ	-11.5425
ꮫꮠꮕꭿ	-11.5426
ꮵꭶꮨꮟ	-11.5426
ꭴꮎꮧꭶꮄᏺꮸꭿ	-11.5426
ꭶꮣꮇꮿꮫ	-11.5426
ꭽᏸꮃꮝꮧ	-11.5426
ᏺꮣꮭꮂ	-11.5426
ꭰꮫꮒꮧꮝꮩꮧ	-11.5426
ꭴꮏꮇꮞ	-11.5426
ꭴꮑꭲꮈꮧ	-11.5426
ꭶꮅꮖꮝꭺꭿ	-11.5426
ꮒꭶꮧꮉꮟ	-11.5426
ꮒꮣꮥꮨᏼꭿꮢ	-11.5426
ꮣꮧꮆꮒ	-11.5426
ꮥꭴꮩꮝꮫ	-11.5426
ꮪꮒꮃꮻꮴ	-11.5426
ꮪꮝꮖꮈꮤꮑ	-11.5426
ꭴꮑꮙꭲꮝꮧᏹ	-11.5426
ꮗꮳᏹꮧ	-11.5426
ꮣꮖꮄꮇ	-11.5426
ꮥꭴꮄꮤꮑ	-11.5426
ꮪꮒꮟꮒꮩꮈ	-11.5426
ꭰᏻꮎꭶ	-11.5426
ꭴꮒꭷꮅꮴ	-11.5426
ꭼꮹꮫꮣꮝꮣꮑ	-11.5426
ꮳꭻꭺꮣꮑꮧ	-11.5426
ᏺꮸꮧꮝꭸ	-11.5426
ꭰꭸᏺꮕ	-11.5426
ꮔꮑꭹᏼ	-11.5426
ꮪꮕꮝꮣꮥꮄ	-11.5426
ꭴꮒꮒᏼꮧᏹ	-11.5426
ꭼꮗꭿꮝꮧ	-11.5426
ꭴꮒꮎꮻ	-11.5426
ꭴꮺꮿꮈ	-11.5426
ꮪꮓꮺꮈ	-11.5426
ꮎꮖꮫꮑꮈ	-11.5426
ꭰꮝꮩꮝꭹ	-11.5426
ꭱꮳꮅꭱꮅꮴ	-11.5426
ꭼꮹꮝꮧᏸꮤ	-11.5426
ꮪꮜꮃꮣꮕ	-11.5426
ꮣꮣꮒꮜꮂ	-11.5426
ꭾꮿꮤ	-11.5426
ꭿꮝꭶꮝꭺꭿ	-11.5426
ꮕꮷꮺꮞ	-11.5426
ꮳꮫꭹꮝꭺ	-11.5426
ꮻꮳᏼꮈ	-11.5426
ꮤꮻꭲꮝꮧᏹ	-11.5426
ꭲᏸꭼꮑ	-11.5426
ꮥꮵꭷꮏꮹꮧꮢ	-11.5426
ꭰꮅꭾꮅꭼ	-11.5426
ꮥꭽꮣꮕꭱꭾꮝꮧ	-11.5426
ꮧꮖꮣꮕꮫ	-11.5426
ꭵꮖꮼꮝ	-11.5426
ꭰꮖꮅꮝꭶꮝꮩꮫ	-11.5427
ꮳꭶꮸꮝ	-11.5427
ꮓꭾꭾꮄ	-11.5427
ꮽꮿꮕꭾ	-11.5427
ꭴꮒᏺꭲꮞꮈꭿ	-11.5427
ꮧꮎꮣꮎꮜꮂꮝꭹ	-11.5427
ꭰꮖꮲꮘꮝꮧ	-11.5427
ꭴꮎꮃꮝꮣꭱ	-11.5427
ꭰꮗꮕꮢꭹ	-11.5427
ꭰꮖꮅꮵꮩꮧᏹ	-11.5427
ꮒꮳꮺꮢ	-11.5428
ꮝꭹꮿꮫꭶꮑ	-11.5428
ꭲᏻꮒꮺꮝꮧ	-11.5428
ꭴꮎꮰꮴ	-11.5428
ꮧꭺꮺꮅꮝꭹ	-11.5428
ꮒꭼꮹꮒꮺꮞ	-11.5428
ꭲꭸꮸꮑꮧ	-11.5428
ꮥꮵꭷꮏ	-11.5428
ꭴꮧꮹꮞ	-11.5428
ꭶꮤꮂꮝꮤꮕ	-11.5428
ꮣᏸꮵꮑꮅ	-11.5428
ꭹꮕꮝꮤꮕ	-11.5428
ꮑꮣꮒꮅ	-11.5428
ꮴꮃꮧꮝꮧ	-11.5428
ꭸꮵꮩꮅꮝꮧ	-11.5428
ꭰꮒꮝꮖꮒꭺꮧꮝ	-11.5428
ꮵꮕꮢ	-11.5428
ꭲᏻꮅꮝꮤꮒꮣꮝꮧ	-11.5428
ꮽꭺꭾ	-11.5428
ꭱꭽꭶꮤ	-11.5429
ꭲꮳꮫꭹꮝꭸꮝꮧ	-11.5429
ꭴꭶꮡ	-11.5429
ꭴꮒꮔꭺꮴ	-11.5429
ꮧꮅꮢꮝꮧ	-11.5429
ꭰꮒꮠꮲꭲꮝꮧꮝ	-11.5429
ꮧꮳꮃꮟ	-11.5429
ꭴꮎꮅꮓꭾꮄ	-11.5429
ꮪꭶꮢꮝꮫ	-11.543
ꮷꮕꭸꮻ	-11.543
ꭿꮿꮣꮩꮅꮝꮣ	-11.543
ꮤꮺꮩ	-11.543
ꮿꮖꮪꮅ	-11.543
ꮪꮩꮝꮫ	-11.543
ꮣꮒꮆꮔꭾꮝ	-11.5431
ꭴꮎꮪꮈ	-11.5431
ꭴꮎꮪꮅꮝꭹ	-11.5431
ꭲꮳꮫꭹꮝꭼ	-11.5431
ꭴꮒꮝꮖꮒꭺꮝꭸ	-11.5431
ꮝꮖꮈꭾ	-11.5431
ꮧꭸꮵᏺꭿꮞꮈ	-11.5432
ꭴꮄꮻꮝ	-11.5432
ꭼꮹꮝꮥꮈꭿꮩ	-11.5433
ꮎꮕꮑꮂ	-11.5433
ꭲꮵꭶᏼꮅꭸ	-11.5433
ꮅꭼꮪ	-11.5434
ꭰꭹꭺꮑꮈ	-11.5435
ꭴꮎꮧꮢ	-11.5435
ꮜꮋ	-11.5435
ꭳꭶꮣꮕꮤꮹꮥ	-11.5435
ꭰꮅᏹꮆꮈ	-11.5436
ꭳꮳꮅꭱꮅꮴ	-11.5436
ꮅᏹꮅꮥ	-11.5437
ꮓꭾꮈ	-11.5437
ꭲꮵꭹꮅᏺꭲꮝꮧ	-11.5437
ꭱꮶꭲᏻꮢ	-11.5437
ꭰꮎꭶꮅꮝꭹ	-11.5437
ꮎꮖꮅꮝꮤꮕ	-11.5437
ꮧꮝꮗ	-11.5438
ꭺꭿꮓ	-11.5438
ꭴꮺᏸꮒ	-11.5439
ᏹꮒꭼ	-11.5439
ꭰꮒꭷꮈ	-11.5439
ꮧꮻꮞꮈ	-11.544
ꭿꮑꭹ	-11.544
ꭴꮩꮲꮢ	-11.544
ꮧꭼꮹꭹꮸꮧ	-11.544
ꭴꭷꮅꮸ	-11.544
ꮵꮓꮝꮫ	-11.5441
ꮧꮳꮅꮒꭹꮧᏻ	-11.5441
ꮷꮆꮞ	-11.5441
ꮣꮕꮹ	-11.5441
ꭰꮑꮿꮤꭿ	-11.5441
ꮥꮫꮕ	-11.5441
ꭰꮟꮎꮜꮕ	-11.5441
ꮧꮝꭹꮿꮣꮒꮈ	-11.5441
ꮻᏼꭸꮵ	-11.5442
ꭴꮎꮣꮩꮅꮝꮤꮕ	-11.5442
ꭼꭹꮑꮴꮈ	-11.5442
ꮹꮪꮅ	-11.5442
ꭴꮣᏹꮄ	-11.5442
ꮿꮺꭲꮝ	-11.5442
ꭴꮒꮒꭼꮞꮂ	-11.5442
ꭰꮒꮟꮎꮜꮕ	-11.5442
ꮺꮞꭽ	-11.5443
ꭴꮆꮔꭾ	-11.5443
ꮪꮒꭺꮂ	-11.5443
ꮴꮜꮒ	-11.5444
ꮧꮨᏺ	-11.5445
ꭰꮠꮲꭲꮝꮩꮧ	-11.5445
ꭲꮳꮫꭶꮕ	-11.5445
ᏹꮵꮹꮨ	-11.5445
ꮒꮳꮤ	-11.5446
ꮑꮅꮝꭼꮎ	-11.5446
ꮻꮪꮒꮿꮕꮂ	-11.5446
ꭴꮝꮙꮅᏹ	-11.5447
ꮒꮳꮝꮫ	-11.5448
ꭱꭶꮤ	-11.5448
ꮳꮝꭶꮈ	-11.5449
ꭴꭼꮹꮄ	-11.5449
ꮪꮡᏸꮢ	-11.5449
ꭴꮅꮦꮈꮑ	-11.545
ꮥꮵꮑꮈ	-11.5451
ꮒꮸᏼꮑꮈ	-11.5451
ꮑꭶꮈ	-11.5452
ꭲꮵꭺꮂ	-11.5452
ꮎꮵꮈꮙ	-11.5452
ꭶꮇꮆ	-11.5452
ꮣꮑꮆꮫ	-11.5453
ᏸꮅꭶꮿ	-11.5454
ꭴꮢꭶꮈ	-11.5454
ꭸꮵꮪꭲꮝꮣꮑꮈ	-11.5454
ꮪꮒᏺꮞ	-11.5456
ꭰꮅꮝꮥꮅꮝꭼ	-11.5456
ꮝꮣꭶꮈ	-11.5456
ꮩꮣꮶ	-11.5456
ꭴꭶꮜꮿꮝꮧꮥꭹ	-11.5457
ꮵꮵꭺꮹꮨ	-11.5457
ꮷꮎꮔ	-11.5458
ꮵꮎᏸꮝꭶ	-11.5458
ꮩꭹꮈꮻꮝꮣꮑꮂ	-11.5459
ꮝꮣꮑꭾꮝꮧ	-11.546
ꭱꮅꮝꮣ	-11.546
ꮣꭷꮕ	-11.5461
ꭰꭹꮝꮖꮒꭺ	-11.5461
ꮪꮈꮻꮝꮣꮑꭾꮝꮧ	-11.5462
ꮣꮑ	-11.5462
ꭳꮴꭿ	-11.5463
ꭶꮨꮧꮝ	-11.5463
ꮭꮼ	-11.5464
ꭴꮣꮡᏼ	-11.5464
ꮒꭶꮫꮑꮂ	-11.5465
ꮥꭼꮹꮒ	-11.5465
ꮷꮑꮃ	-11.5469
ꮎꭿꮝꮩꮧ	-11.547
ꮹꮎꭶꮆ	-11.5472
ꮿꮓꮙ	-11.5473
ꭴꮥꮀꭿꮝꮧᏻ	-11.5473
ꮥꭸꭶꮈ	-11.5477
ꭰꭹꮼꮒ	-11.5477
ꮖꮋ	-11.5478
ꭶꭼꮹꮠꮲꮥ	-11.548
ꮷꮎꮣꮄ	-11.5481
ꮧꭸꮵꭴꮝꮥꮞꮈ	-11.5481
ꮿꮻꮝꭸꮝꮧ	-11.5483
ꮒꭶꮤꮂꮎ	-11.5483
ꭰꮒꭶꮤꭽ	-11.5484
ꮳꮻꮞ	-11.5484
ꭴꮑꮝꭸꮂ	-11.5484
ꮪꮒꭹꮢ	-11.5484
ꭴꮒꮝꮣꮹꮫ	-11.5485
ꮪꮔꭺꮤꮕ	-11.5485
ꭳꭺꭿᏻ	-11.549
ꮎꮎꮫꮑꮀ	-11.5491
ꮜꮙꭿᏻ	-11.5491
ꮧꮖꮣꮄꮕ	-11.5494
ꭴᏺꮸ	-11.5496
ꭶꮃ	-11.5496
ꭳꮶꭿᏻ	-11.5497
ꮒꮷꮘꮝ	-11.5497
ꮣꮯꮆꮝꮧꮝꭼ	-11.5499
ꮣꭶꮎꮔꭺ	-11.55
ꭴꮅꮦꮈꮕ	-11.55
ꮧꭷꮏ	-11.55
ꮧꭶꮣꭸᏻꭿ	-11.5501
ꮵꮿꮫꮑ	-11.5502
ꭰꭶꮫꮧ	-11.5503
ꮵꮔꮹꮑꮈ	-11.5503
ꮎꮵꮺꮞꮈ	-11.5504
ꮒꭸꮵꮺꮞꮈ	-11.5506
ꮪꮎꮣꮒꮈꮸ	-11.551
ꮸꮣꮈ	-11.5511
ꭾꮈꭹ	-11.5511
ꭴꮅꮝꭺꮈꮣꮑꮈꭹ	-11.5513
ꮉꮪ	-11.5514
ꭴꮼꮺꮃꮕꭹ	-11.5515
ꮳꮎꮻᏹ	-11.5519
ꭴꮧꮄꮂꮝꭼ	-11.552
ꮪꮼꭱ	-11.552
ꮩꭼ	-11.5524
ꭸꮖ	-11.5524
ᏹꮝꭹᏺꭲᏻ	-11.5525
ꭰꮎꮅꭾꮅꭼ	-11.5525
ᏼꮅꮈ	-11.5527
ꮵꮜꮃꮩꮧ	-11.5528
ꭲᏺꭶꮫꮑꮧ	-11.5531
ꮅꮝꮣᏼꮕ	-11.5534
ꭴꮎꮴ	-11.5537
ꮆꮔꭾ	-11.5538
ꮑꮙꭱꮧ	-11.5538
ꭰꭺꮹꮨꮝꭼ	-11.5538
ꭴꭺꮧ	-11.554
ꭴꮒꮹꮢ	-11.5545
ꮯꮟꮝꭺ	-11.5546
ꮏꮫꮑꮂ	-11.5548
ꮎꮝꮖ	-11.5549
ꮈꮜꮫ	-11.5549
ꭸꮵꭹꮅᏺꭲꮝꮩꮧ	-11.555
ꭰᏼꮣꮖꮆ	-11.5553
ꮪꮣꮕꭱꮈ	-11.5553
ꭼꮹꮒᏼꮧ	-11.5554
ꭴꮎꮅꮝꮣᏼꮕ	-11.5557
ꭲꮵꮝꭶꮎ	-11.5557
ꮒꮑꮯᏼꮝ	-11.5561
ꮳꮫꮕꭲꮝꮣꮑ	-11.5563
ꮡᏼ	-11.5564
ꮎꮅꭾꮅ	-11.5565
ꭼꮹꮫꮫ	-11.5567
ꭸꮎꮒ	-11.5577
ꭳꭶꮅꮝꮣᏼꮧ	-11.5582
ꮴꮵᏺ	-11.5586
ꭴꮅꮝꮧ	-11.5591
ꮄꮩꮧ	-11.5592
ꮪꮹꮫꮂ	-11.5593
ꭰꭶꮤꭿ	-11.5594
ꮵꮎꮻ	-11.5597
ꮧꮳꮅꮒꭺꭿꮝꮩꮧ	-11.5604
ꭶꮼꭵ	-11.5609
ꮷꮑꮴꮄ	-11.5611
ᏻꮎꮪꮅ	-11.5612
ꮝꮙꮞ	-11.5614
ꭴꮅꮒꭹꮫꮿ	-11.5615
ꭰꮕꮧꮝ	-11.5615
ꮝꮣꮹꮧꮞ	-11.5617
ꭼꮹᏼ	-11.5618
ꭿꮝꮧᏻ	-11.562
ꮰꮝꭼ	-11.5625
ꮕꮣᏻꮺ	-11.5626
ꭴꭶꮫꮎꮸ	-11.5629
ꮔꮒꭺꮈ	-11.563
ꮩꮵꮹꮫꮂ	-11.5633
ꮪᏺꮅꮈ	-11.5633
ꭴꮞꮅꮤꮕ	-11.5635
ꭲꮶꮅꮝ	-11.5637
ꮥꭸꭶꮼꮝ	-11.564
ꭰꭹꮝꭹ	-11.564
ꮣꮕꭱꭾꮝꮧ	-11.5647
ꮑꮺꮞꮄ	-11.5649
ꭴꮪꮅꮝ	-11.5651
ꮣꮣꮒꮈꭺ	-11.5652
ꭴᏼꮄ	-11.5652
ꮵꮝꭶꮸ	-11.5653
ꮪꮔꭺꮻꮞ	-11.5655
ꮽꮑ	-11.5655
ꮒꭶꮤꭾ	-11.5655
ꮒꮺꮝꭼ	-11.5656
ꭹꭷꮏꮹꮫꮝꮧ	-11.5658
ꭶꮓꭺ	-11.5658
ꮉꮎ	-11.566
ꭴꮒꭷꮅꮸ	-11.566
ꮪꮒꭼ	-11.5665
ꮲꮙꮩꮧ	-11.567
ꮵꮥꭽ	-11.567
ꮧꮝꭹᏺ	-11.5671
ꮕꮣᏻꮆꭿꮝꮧ	-11.5675
ꭱꮵꮿ	-11.5683
ꮒꮵᏺ	-11.5684
ꭱꮧꮈꮙ	-11.5686
ꮆꭲꮝꮧᏹ	-11.5692
ᏼꮤꮒꮈ	-11.5695
ꮴꮈꭹ	-11.5695
ꮳᏸꮈꮑ	-11.5703
ꮎꮻꮫꮂ	-11.5705
ꭾꮆ	-11.5707
ꭲꮳꭶꮜꮿꮝ	-11.5717
ꭴꮼꮺꮃꮕ	-11.5718
ꮅᏸꭲꮈꮝ	-11.5733
ꮵꮑꮴ	-11.5734
ꭲꭹꮑ	-11.5736
ꮅꮝꮨ	-11.5737
ꮳꮣᏹꮈ	-11.5738
ꭰꮖꮱꮧꮝ	-11.5739
ᏹꮝꮖ	-11.5744
ꮪꮈꮻꮝꮣꮑꭾ	-11.5748
ꮳꮄꮒꮣꮝꮧ	-11.5754
ꮿꮨ	-11.5762
ꭰꮖꮅꮝꮣᏼꮧ	-11.5766
ꮻꮞꮄ	-11.5771
ꭿꮝꭹꮑ	-11.5786
ꮧꭶꮆꮧ	-11.5801
ꭴꭷꮅꮈ	-11.5802
ꮩꮄꮀꮞ	-11.5805
ꮡꮣꭸ	-11.5811
ꭲꮿꮕ	-11.5812
ꮵꮔꮅꮝꮤꮑ	-11.582
ꮳꭶꮄ	-11.5822
ꮒꭶꮅ	-11.583
ꭳꭹꮑ	-11.5831
ꮒꮵꮺꮝꭼ	-11.5831
ꭶꮈꮝꮧ	-11.5838
ꭰꭺꮂ	-11.5842
ꭸᏻꮕꮎ	-11.5851
ᏹꮒꮩ	-11.5851
ꮝꮖꮒꭺ	-11.5851
ꮵꮈꮙꮧ	-11.5851
ꭲꮸꭺꮹꮫꮧ	-11.5858
ꭼꮹꭺꮅᏸ	-11.5858
ꮵᏹꮅꮩ	-11.5863
ꮵꮒꭼꮞꮂ	-11.5869
ꮹꮿ	-11.587
ꮧꭶꮃꮻ	-11.587
ꮏꮫ	-11.5874
ꭱꮃꮺᏹꮙ	-11.5874
ꭻꮫ	-11.5887
ꮴꮅꮫ	-11.5889
ꭴꮝꮪ	-11.589
ꭰꮅꮝꮣᏼꮧᏹ	-11.5897
ꮣꭲꮕ	-11.5903
ꮒꭶꮪ	-11.5912
ꭴꭷꮅꭲꮝ	-11.5915
ꮎᏸꭿꮝꮧ	-11.5921
ᏹꮆꮄ	-11.5936
ꭰꮖꮣꮕ	-11.5938
ꭷꮑꭲꮝꮣꮑ	-11.5939
ꮷꮎꮫ	-11.5941
ꮎꮳꮺꮠꮈꮝꮩꮧ	-11.5941
ꭺꮅᏸꮝꭼ	-11.5951
ꮅꮣ	-11.5957
ꭴꮒᏸꮈꮑ	-11.5964
ꭰꮧꮢ	-11.5969
ꭴꮝꮖꮈꭿꮧꮢ	-11.5972
ꮹꮖ	-11.5974
ꮣꮫꮑꮈ	-11.5996
ꮵꮒꮸꮺꮞ	-11.6003
ꮓꭾꮝꭼ	-11.6005
ꮣꮕꮢ	-11.601
ꭶꭺꮧᏹ	-11.6013
ꮧꭷꮎ	-11.6023
ꮧꭶꭸ	-11.6024
ꭳꭶꮣ	-11.6026
ꭿꮝꮧꮝꭸꮝꮧ	-11.6037
ꮣꮣꮒꮈ	-11.6042
ꭱꭹꮑꮈ	-11.6047
ꭲꮝꮣꮫ	-11.6049
ꮯꮜꮒ	-11.6054
ꭶꮔꭺꮻꮝ	-11.6057
ꭹꮝꮣꮹꮥ	-11.6059
ꮡꮎꮄꭲᏻ	-11.6065
ꮵꮒꭼ	-11.6076
ꮳᏸꮈ	-11.6079
ꭴꮎꮣꮕꮣ	-11.6082
ꮝꮣꮑꮧᏹ	-11.6096
ꮟꮟꮝ	-11.6098
ꭲꮵꮒꮖꮨ	-11.6111
ꮕᏼ	-11.6124
ꭰᏺꮝꮧꮝ	-11.6165
ꭴꮎꮣꮕꮢ	-11.6184
ꮩꮄꮀꭿ	-11.6186
ꭿꮝꮧꮝꭼꮎ	-11.6215
ꮧꭺꮝꮣ	-11.6221
ꭰꮿꭱ	-11.623
ꮳᏹꮅ	-11.6237
ꮳꮫꭹꭽ	-11.6239
ꮒꮳꮣꮕ	-11.6248
ꭴꮼꭿᏻꭿꮝ	-11.6248
ꮒꮝꭶꭹ	-11.625
ꮤᏺꮞꭾ	-11.6258
ꭶꮠ	-11.6262
ꭸꮎ	-11.6267
ꮔꭺꮹ	-11.627
ꮻꭼᏺꮺꮃ	-11.6271
ꭶꮈꭲ	-11.6289
ꭼꮹꮇꮴꭾ	-11.6314
ꭲꮞꮈꭿ	-11.6327
ꮓꭿꮝꮣ	-11.633
ꭶꮫꮑꮈ	-11.6346
ꮦꮈꮂꮝ	-11.6349
ꭼꮹꮆ	-11.6353
ꮕꮝꮩ	-11.6357
ꭻꮣꮄꮝ	-11.6362
ꮅꮵꮩꮑꮈ	-11.6367
ꮎꮩꮄꮀ	-11.6375
ꭴꮒᏺꮀ	-11.638
ꮥꭴᏺ	-11.6381
ꮣꮝꮣ	-11.6382
ꮣꮕꮦꮝꭼ	-11.6384
ꭴꮒᏸꮈꮞ	-11.6395
ꮣꮒꮈꭲꮝꮧᏹ	-11.6398
ꮞꮧᏹ	-11.6406
ꮣꮕꮦꮝꭸ	-11.6406
ꮸꮹ	-11.6412
ꭰꭶꮅ	-11.6412
ꭴꭶꮤꮤꮕ	-11.6413
ꭴꮪ	-11.6429
ꮞꮃ	-11.6429
ꭳꮴꮅ	-11.6433
ꮹꮨ	-11.6433
ꮣꮕꮦꮝꭺ	-11.6435
ꮕꮣꮝꭹ	-11.6452
ꭰꮒꮓꭾꮝꭸ	-11.6456
ꭶꮰꮿꮝꮧ	-11.6456
ꭶᏺ	-11.6466
ꮧꭶꮣ	-11.6486
ꮒꮵꮺꮞ	-11.649
ꭼꮹꭶꮨ	-11.6518
ꭶꮅꭾ	-11.6522
ꭴꮹꮫ	-11.6524
ꭰꮣᏹ	-11.6529
ꮫꮤꮕ	-11.6536
ꮩꮣꭶꮕ	-11.6548
ꭶꮈꮙꮧᏻꮝꭹꮒ	-11.6549
ꮴꭺ	-11.6554
ꭾꮫ	-11.6569
ꮡᏸꮝꮧ	-11.6577
ꭱꮳꮡᏸ	-11.6585
ꮎꮣꮫꮑꮂ	-11.6593
ꭴꮣᏸ	-11.6595
ꭼꮹꮈꮙꮩꮧ	-11.6612
ꮒꭶꮨꮄ	-11.6626
ꭹꮝꮥꮈꮧᏹ	-11.6628
ꮵꮑꮄ	-11.6628
ꭴᏺꮝꭹꮒ	-11.6639
ꮥᏺꮧ	-11.6644
ꭺꮅᏸꮝꭸꮝꮧ	-11.6665
ꮝꮪꮂꮝ	-11.6667
ꮣꭶꮯꮆꮝ	-11.6675
ꭶꮜꮿꮝꮥ	-11.6676
ꮒꮪꮕ	-11.6683
ꭰꮒꮇ	-11.6689
ᏹꮳꮣ	-11.67
ꮲꮕꭿ	-11.6705
ꭴꮑꮄ	-11.6715
ꮳꮩꮄꮀ	-11.6739
ꭴꮒꮈ	-11.674
ꭰꮝꮪꭲ	-11.6746
ꮥꮆꮖꭵ	-11.6748
ꭰꭹꭸᏻꭿ	-11.6767
ꮄꭽ	-11.6785
ꮵꮇꭹ	-11.6788
ꮥꮈꭹ	-11.6796
ꮣꮸꮿꮝꮧ	-11.681
ꭲꮲ	-11.6816
ꮎꮒꭶꮤ	-11.6817
ꮝꭹꭺꮹꮫ	-11.6823
ꮧꮝꮫ	-11.6824
ꭽꮅꭾꮅ	-11.6833
ꮈꮫ	-11.6839
ꭴꮅꮝꭺꮈꮣꮑꮈ	-11.6844
ꮤꮒꮣꮝꮧ	-11.6849
ꮅꮟꮎꭿꮝ	-11.6862
ꮕꮹꮕ	-11.6863
ꮴꮕ	-11.6882
ᏸꮈꮕ	-11.6885
ꭲꮳꮫꮑ	-11.6886
ꮅꮋ	-11.6894
ꭴꮎꮳꭲ	-11.6898
ꭿꮠꮧ	-11.6903
ꮵꮓꭾ	-11.692
ꭼꮹꮇꮴ	-11.692
ꭼꮹꮒꮿ	-11.6921
ꮎꮪꮅ	-11.6948
ꮨꮕꮢꭹ	-11.6948
ꮣᏻꮑ	-11.6949
ꭰꮵꮈꮙ	-11.6968
ꮧꭶꮅꮝꮩꮧ	-11.6974
ꭳꮝ	-11.6985
ᏼꮧᏹ	-11.7002
ꭵꮝꭼ	-11.7003
ꭺꮅᏸꭵꭿ	-11.7006
ꮒꮑꮵ	-11.7007
ꮣꮡᏸ	-11.7022
ꮕꮣᏻꮣꮄ	-11.7025
ꭹꮝꭶꮕꮸ	-11.7035
ꭴꮾ	-11.7052
ꮒꮜꮕ	-11.7059
ꭰꮒꮅ	-11.7078
ꭼꮝꭺꮈꭵꮝꭸꮝꮧ	-11.7081
ꮵꮎᏸꮝꭼ	-11.7083
ꮫꭹꮝꭸꮝꮧ	-11.7087
ꭴꮔꮺ	-11.7096
ꭰꮎꮣꮫ	-11.7104
ꮣꮒꮕ	-11.7108
ꭰꭹꮇꮴ	-11.7129
ꮻꮔꮺꮞ	-11.7134
ꮵꮩꮣ	-11.7141
ꮂꮝꮧ	-11.7142
ꭱꮳꮈ	-11.7142
ꮒꮟꮕꭿ	-11.7157
ꮣꮥᏺ	-11.7164
ꮒꮎꮥ	-11.7182
ꭼꮹꮫꮑ	-11.7193
ꮣꮑꭾ	-11.7208
ᏺꭶꮫ	-11.7213
ꮧꭹꭶ	-11.7214
ꮹꭶꮨ	-11.7229
ꮞꭺꭹꮝꮧ	-11.7242
ꭰꮖꮫ	-11.7261
ᏺꮝꮩꮣꮑ	-11.7265
ꭿꭺꮹꮨ	-11.7266
ꮵꮝꭶꮕꮴꮈ	-11.7269
ꮕꭲꮝꮤꮕ	-11.7279
ꮫꮫꮂꮝ	-11.7279
ꮤꮂꭲ	-11.7291
ꮻꮧꭶꮨ	-11.7291
ꮴꮄ	-11.7301
ꮸꮑꮈ	-11.7309
ꭸꮵᏺꭿꮞ	-11.7311
ꮈꮞ	-11.7344
ꮳꮝꮣ	-11.7345
ꮃꮻꭲꮝꮧᏹ	-11.7347
ꮵꮒꭶ	-11.7351
ꮆꮤꮕ	-11.7366
ꮧꮳꮰᏹ	-11.7373
ꭲꮸꮑꮴ	-11.7373
ꭹᏼꭹ	-11.7374
ꮔꮃ	-11.738
ꭰꭺꮹꮫꮧ	-11.7382
ꭲᏻꮺꮝꮧ	-11.7383
ꭼꮹꮝꭶ	-11.7407
ꮒꮥꭼꮑ	-11.7412
ꭶꮤꮎꭵ	-11.7413
ꭶꮯꮒꭼꮑ	-11.7436
ꮝꭶꮕꭸꮝꮧ	-11.7438
ꮳꮺꮠꮈꮝ	-11.7441
ꮣꭷꮏꮹꮥ	-11.746
ꭴꮞꮅ	-11.7463
ꭳꮵꮓꭾ	-11.7463
ꮔꭸᏻ	-11.7465
ꮻꮩꮵ	-11.7468
ꮑꮅꮞ	-11.7473
ꮧꭶꮄ	-11.7482
ꭴꮺꮩꮅ	-11.749
ꮳꮝꮖꮒꭺ	-11.751
ꭴꮝꮣꮹꮧ	-11.7517
ꭾꭾꮈ	-11.7518
ꭼꮼꮅ	-11.7523
ꭼꮹꮒꭺꮹꮫ	-11.7525
ꭲꮸꭺ	-11.7528
ꭰꭹᏸꮈꮕ	-11.7533
ꮥꮶ	-11.754
ꮥꮴ	-11.7542
ꮰꭲ	-11.7547
ꮿꮝꭶꮕ	-11.7561
ꭰꮅꮵꮩꮂꮝ	-11.7569
ꭼꮹꮝꮣ	-11.7581
ꮔꮫꮑ	-11.7611
ꮵꮒꭸꭼꮑ	-11.763
ꭰꮒꮤᏺꭿꭾ	-11.763
ꮝꮥꮈꮂ	-11.7637
ꮯꮟ	-11.7642
ꮞꮀꭲ	-11.7648
ꭴꮒᏺꭾ	-11.7657
ꮝꭶꮕꮎ	-11.7662
ꮪꭷꮏꮑ	-11.7667
ꮣꮧꮝꮧ	-11.7676
ꮧꭶꮔꭺ	-11.7678
ꭴꮝꮖꮒꭺ	-11.7679
ꭴꮑꮃꮧꮝꮧ	-11.7683
ꭴꮑꮃꭹꮙ	-11.769
ꮉꮒ	-11.7695
ꮎꮪꭶ	-11.7696
ꭼꮝꭺꮈ	-11.7697
ꮫꮕꭲꮝꮤꮑ	-11.7705
ꭴꮧꭶꮅꮝꮩ	-11.7705
ꮄꮕ	-11.7712
ꮣꭲꮕꮞ	-11.7713
ꭰꮎꮱꮧꮝ	-11.7714
ꮤᏺꮞꮧ	-11.7723
ꮹꮧꮩꭿ	-11.7724
ꭹꮇꮸ	-11.7734
ꮗꮣ	-11.7738
ꮒꭹꮫ	-11.7743
ꭲꮴᏺ	-11.7746
ꮩꮳꮣ	-11.7747
ꮅꮝꭺꮈꮧꮝꭼ	-11.7747
ꭴꮒᏼ	-11.7748
ꮳꮣꮕꮯ	-11.7753
ꮳꮣꮕꮨ	-11.7759
ꭶꮩꭵꮞ	-11.776
ꮪꮎꮔꭺꮻꮞ	-11.7763
ꭼꮹꮫꮕ	-11.7765
ꮣꮒꭷꮏꮹꮥ	-11.7767
ꮝꮪꮧ	-11.7768
ꮎᏸꮝꭼ	-11.7769
ᏺꮁꮢ	-11.7776
ꮯꮠꮧ	-11.7782
ꭳꭹꮓꭾ	-11.7783
ꮒꮪꮒꮺꮞ	-11.7783
ꮒꮯ	-11.7791
ꮵꮟ	-11.7797
ꮸᏸꮅꮞ	-11.7813
ꮒꮳꮫꮏꮥ	-11.7815
ꮀꭿᏻꮂꮝꭶ	-11.7815
ꮼꮑꮧꮝ	-11.7818
ꮞꭾꮅ	-11.7822
ꭰꮹꮨꮝ	-11.7822
ꭳꭸꮕ	-11.7823
ꭿꮝꮤꮒ	-11.7825
ꮰᏹꭽ	-11.7825
ꮊ	-11.7834
ꭽꮅꮝꮣᏼꮂ	-11.7838
ꭰꮠꮲꭲꮝꮧ	-11.7839
ꮅᏸꮧ	-11.7842
ꮣꭹꭺꮂ	-11.7844
ꮵꮿꮣꮩꮅꮝꮣꮑ	-11.7849
ꮣꮩꮅꮝꮤꮒ	-11.7849
ꮒꭶꮦ	-11.7853
ꭿꮝꮤꮑ	-11.7858
ꮥꮆꮖ	-11.7859
ꭰꮡ	-11.7866
ꭱꭹꮝꮥꮈꮧ	-11.7868
ᏼꭶᏸ	-11.787
ꮳꮝꮖ	-11.787
ꮥꮳꮣꭸᏻ	-11.7874
ꭰᏺꮁꮝꭸ	-11.7874
ꭲꮳꮣꮕꮦꮝ	-11.7875
ꭰꭶꮩꭵꭿꮝ	-11.7888
ꮅꮇꭼ	-11.789
ꮣꮕꭱꮈ	-11.7893
ꮵꭷꮓꭾ	-11.7898
ꮳꮫꮫꮂ	-11.7898
ꭴꮅꮝꮖ	-11.7899
ꮳꮅꮝꭶꮝꮩꮫ	-11.7899
ꮎꮑꮝꭸꮝ	-11.7899
ꮝꮙꮅᏹ	-11.79
ꮧꭼꮹꮈꮜ	-11.7901
ꭱꮃꮒ	-11.7901
ꭰꭹꮓꭾ	-11.7902
ꮪꮣꮥꮻꮢ	-11.7903
ꮝꮥꮩꮂ	-11.7904
ꭰꮅꮝꭶꮑꮫ	-11.7904
ꮪꮻꮝꮤ	-11.7906
ꭴꮎꮣꮕꭶꮈ	-11.7906
ꮕꮅꮜꮅ	-11.7908
ꮺꮞꮂ	-11.7908
ꮿꮅꭱꮅꮴ	-11.7908
ꮒꮝꭶꮕꮎ	-11.7909
ꮥꭴꮈꮻꮝꮣꮑ	-11.791
ꭰꮒꮟꮎꮜ	-11.7911
ꮒꮝꭼ	-11.7911
ꮣᏻꮣꮄꮕ	-11.7911
ꮝꭶꮞꮧ	-11.7913
ꭰꮵꮝꮪ	-11.7914
ꮣᏻꮔꭺꮸ	-11.7918
ꮣꮖꭷꮎꮕꭹ	-11.7918
ꮹꮨꮝ	-11.7918
ꮫꮏ	-11.792
ꮳꮃꮟꮥꮒ	-11.792
ꮳꭷꮫ	-11.792
ꭶꮤꭿᏻ	-11.7922
ꭴꮎꮅꭾꮅ	-11.7923
ꮃꮡꮆ	-11.7924
ꭰꮅᏸꭲ	-11.7924
ꮰꭿꮝꮫ	-11.7924
ꮓꮳꮫꮑ	-11.7925
ꮅꮝꮣꮑꮧ	-11.7925
ꭴꮎꮄꮎ	-11.7925
ꮷꮒꮃꮻ	-11.7926
ꭴꮎꮣꮕꮤꮹꮥ	-11.7926
ꭴꮞꭶꮸꭿ	-11.7926
ꮳꮝꭶꮕꭺ	-11.7926
ꮪꮼꮡꮄ	-11.7926
ᏻꮼꮅꮴ	-11.7926
ꭴꭷᏺꮫ	-11.7926
ꭴꮑꮃꮧꮩꮂ	-11.7926
ꭴꮒᏺꮰꭿꮞꮈ	-11.7926
ꭴꮤᏺꮈ	-11.7926
ꭴꮥꮨᏼꮜꮧꮢ	-11.7926
ꭴꮺᏺꮣꮫ	-11.7926
ꮏꮈꮝꮧꮝꭸꮝꮧ	-11.7926
ꮒꮣꮩꮣꮘꮢ	-11.7926
ꮒꮪꮎꮡꮄꮂꮎ	-11.7926
ꮕꮛꮑꮈ	-11.7926
ꮟꮋꮿꮒ	-11.7926
ꮥꭶꮥᏺꮂꮝꭼ	-11.7926
ꮧꮣꮩꮺꮩꭵ	-11.7926
ꮫꮒꮎꮔꭺꮵ	-11.7926
ꮵꮣꮎꮥᏺꮂꮝ	-11.7926
ꮵꮪꮣᏺꮞ	-11.7926
ꮻꮸᏺꮅ	-11.7926
ꭲꮵꮗꮣꮈ	-11.7926
ꭳꭶꮫꮕꭲꮝꮧ	-11.7926
ꭴꮝꮧᏸꮤꮑ	-11.7926
ꭴꮣꮒꮅꭸ	-11.7926
ꭴꮹꮎꮣꮄ	-11.7926
ꭵꮦꭳꭹ	-11.7926
ꮣꭶꮦꮩꭲ	-11.7926
ꮣꮎꮅꮝꮣᏼꮂꮝꭸ	-11.7926
ꭶꮃꮝꮲ	-11.7926
ꮣꮎꮥꮝꭺ	-11.7926
ꮧꮣꮒᏹꮝꭹ	-11.7926
ꭲꮳꮅꮟꮎꭿꮝꮧ	-11.7926
ꭱꮣꮅꮝꭶꮝꮩꮫ	-11.7926
ꭴꮼꮒꮞ	-11.7926
ꮆꮔꭱ	-11.7926
ꮣꮎꮧꮤꮝꭸ	-11.7926
ꭴꮒꮠꮲꭲꮝꮤꮕ	-11.7926
ꮝꮗꮅꮞ	-11.7926
ꮻꭸꮳᏺꮅ	-11.7926
ꭰꮖꮅꭾꮅꮸ	-11.7926
ꭲꮶꮅꭹ	-11.7926
ꮥꮷꭺꮧꮝ	-11.7926
ꮻꮸꮇꮴꮈ	-11.7926
ꭴꮒᏼꮤꮒꭿꮝꮧ	-11.7926
ꭴꮧꮜꮣꮫ	-11.7926
ꮣꮣꮼꮝꮧ	-11.7926
ꮷꮅꮟꭼ	-11.7926
ꭱꮴᏺꮕ	-11.7926
ꭴꮒꮖꮨꮝꮧ	-11.7926
ꭵꮗꮅꮞꮈ	-11.7926
ꮣꮒꭷꮏꮹꮧ	-11.7926
ꭰꮎꮧꮢꭿ	-11.7926
ꭴꮎꮅꮵꮩꮕ	-11.7926
ꭴꮕꮒꮝꮧᏹ	-11.7926
ꭴꮣꮹꮧꮝꮩꮫ	-11.7926
ꮹꮠꮎ	-11.7926
ꭰꮖꭷꮫ	-11.7926
ꭿꭹꮅᏺꭼ	-11.7926
ꮒꭶꮵᏼꮑꮂ	-11.7926
ꭴꮓꮁꭶ	-11.7926
ꮩꮧꭷꮒꮝꭼ	-11.7926
ꭼꮝꮧᏸ	-11.7926
ꮪᏸꮅꮟꮩ	-11.7926
ꭴꮵꮈꮢ	-11.7926
ꭴꮅꮟꮎꭿꮝꮧ	-11.7926
ꮎꮣꮧꮝꭺ	-11.7926
ꮥꭴꮇꭼ	-11.7926
ꭱꮣꮣꮩꮅꮝꮣꮑ	-11.7926
ꮒꮪꮫꮑꮈ	-11.7926
ꮽꮨꮕꮝꮤꮑ	-11.7926
ꮅꮝꮧᏸꮣꮑ	-11.7926
ꭰꮅꭾꮅꭺ	-11.7927
ꮒꭴꮺꮞ	-11.7927
ꮶꮵꮹꮎꭶꮃ	-11.7927
ꭷꮓꮝꭶ	-11.7927
ᏼꭶꭶꮧ	-11.7927
ᏹꮎꭶꮺ	-11.7927
ꮁꮆꮧ	-11.7927
ᏹꮪꮣꮜ	-11.7927
ꮣᏹꮣꮅ	-11.7927
ꭸꮳꮣꮡᏼ	-11.7927
ꮩꮲꮎ	-11.7927
ꭶꮵꮕꮼꮧ	-11.7927
ꮎꮮꭼ	-11.7927
ꮪꮒꮓꭹꮢ	-11.7927
ꮵꮕꭺꭵꮧ	-11.7927
ꭴꮶꮝꮧ	-11.7927
ꮪꮺꮯꮜꮕ	-11.7927
ꭴꮎꮣꮩꮅꮝꮩ	-11.7927
ꭳꭹꮎꮅꭺ	-11.7927
ꭲꮸꮼꮑꮤꮕ	-11.7927
ꭴꮺꮃꮧꮝ	-11.7927
ꮃꮡꮈ	-11.7927
ꭰꮎꭲꮞ	-11.7927
ꭰꮒꮕꮬ	-11.7927
ꭴꮎꮅꮓꭿᏼꭿ	-11.7927
ꭴꮕꮹꮑ	-11.7927
ꮩꮧꭶꮆ	-11.7927
ꭰꮫꭹꮝꭹ	-11.7927
ꭳꭶꮒꭹꮢ	-11.7927
ꮻꭼꮹᏼꮤꮑ	-11.7927
ꮪꮇꭼ	-11.7927
ꭱꮵꭶꮩꭵꮢ	-11.7927
ꮎꮻꮫꭾ	-11.7927
ꮒꮣꮫꮑꮂ	-11.7927
ꮷꮜꮄꮕ	-11.7927
ꭰꮵꮒꮜꮕ	-11.7927
ꭼꮹꮫꭶꮑꮈ	-11.7928
ꭴꮎꮅꮝꮣᏼꮓꮕ	-11.7928
ꭰꮒꭶᏺꮅ	-11.7928
ꭶꮵꮿꮅꮵꮩꮑ	-11.7928
ꭴꮼꮑꮤꮕ	-11.7928
ꮽꮒᏼꮝꮧ	-11.7928
ꭴꮔꭺꭲꮝꮧ	-11.7928
ꮷꮔꭺꮩꮧ	-11.7928
ꮣᏻꮒꮔꭺꮸ	-11.7928
ꭴꮫꮒꮧꮝ	-11.7928
ꭲꮵꭶꮤꮎꭲ	-11.7928
ꮔꮅꮝꮪꮈ	-11.7928
ꭰꮴꮇꭿ	-11.7928
ꭾꮩꮂ	-11.7928
ꮪᏸꮅꭿꮝꮤꮕ	-11.7928
ꮪꮪꭺꮤꮕ	-11.7928
ꮅꮝꮣꮑꮅꮥꭼ	-11.7929
ꮷꮎꮣꮒꮈꭲꮝꮧᏹ	-11.7929
ꭰꭹꮑꭻ	-11.7929
ꭱꮵꮩꮅꮸ	-11.7929
ꮣꮎꮄꭿꮜꮕ	-11.7929
ꮕꮹꮫꮑ	-11.7929
ꭴꮝꭶꮞꮧ	-11.7929
ꮣꮰᏹꮂ	-11.7929
ꮷꮎꮪꭺꮣꮑꮧ	-11.7929
ꮷꮨᏺ	-11.7929
ꭱꮶꭿᏻꮂꮝ	-11.7929
ꮧꭹꮕꮢ	-11.7929
ꭳꭹꮝꮫꮧꮝ	-11.7929
ꮪꮒꮿꮩ	-11.7929
ꭴᏼꮝꮥꮝ	-11.7929
ꭴꮒꮑꭲꮝꮤꮕ	-11.7929
ꮧꭸꮷꭺ	-11.7929
ꭲꭼꮹꮝꮧꭽ	-11.7929
ꮒꭶꮎᏸꮝꭼꮎ	-11.793
ꭴꮎꮣꮩꮅꮝꮧ	-11.793
ꮪꮡᏸꮞ	-11.793
ꭰꭹꮒꭼꮞꮂ	-11.793
ꮧꮒꮩꭼ	-11.793
ꮩꮧꮎꮅꮝꮣᏼꮂꮝꭼ	-11.793
ꭴꮣꮕꮩꭹꭿ	-11.793
ꮪꮅꮒꮖꮕꮑ	-11.793
ꮳꮣꮱꮧꮝꭺ	-11.793
ꮧꭴꮸꮞ	-11.793
ꮧꭶꮄᏼ	-11.793
ꮹꮒꮆꮢ	-11.793
ꭴꮎꮪꮅꮝꭺ	-11.7931
ꮥꭹꮒᏼ	-11.7931
ꮒꮕꭺꭰ	-11.7931
ꮪꮒꮪꮂ	-11.7931
ꭲꮵꮯꮜ	-11.7931
ꮔᏺꮁꮢ	-11.7931
ꮃꮹꮧꮢ	-11.7931
ꮷꮒꭶꮠꭰ	-11.7932
ꮥꭼꮹꮒꭾ	-11.7932
ꮧꮒꮄꮒ	-11.7932
ꮼꭿꮅᏼꮝꮣꮑ	-11.7932
ꭰꮣꮼꮝꮧ	-11.7932
ꭶꮅꮶꮩꮧ	-11.7932
ꮣꮒꮈꭼꮎ	-11.7932
ꭳꮵꭹꮅᏺꭼ	-11.7932
ꮪꮓꭿᏻ	-11.7932
ꮽꮎꮨꮕꮝꮤ	-11.7932
ꭶᏼꮣꮧ	-11.7932
ꮣꮒꮝꭶꭲꭾ	-11.7933
ꭱꮵꮩꮅꮝꮧ	-11.7933
ꭰꮲꮘꮝꮧ	-11.7933
ꭼꮹꮓꮅꮝ	-11.7933
ꭸꮅꮜꮥ	-11.7933
ꮵꮿꮅꮝꭶꮝꮩ	-11.7933
ꮥꮳꮣꮕꮦꮝ	-11.7934
ᏹꮵꮹꮨꮝꭺ	-11.7934
ꮳꭶꮈꭾ	-11.7934
ꮻꮣꮖꭷꮎꮕꭹ	-11.7934
ꭰꮯꮝꮥ	-11.7934
ꭴᏸꮆꭲꮝꮤ	-11.7934
ꭴꮫꮣꮝ	-11.7935
ꮵꮔꮝꮩ	-11.7935
ꭰꭹꮻꮿ	-11.7935
ꭴꮣꮩꮅꮝꮤꮕꮞ	-11.7935
ꭰꭹꮝꮖꮫ	-11.7935
ꮩꮧꭷꮕ	-11.7935
ꭶꮩꮄꭳꮝꭶ	-11.7936
ꭰꮒꮎꮔꭺꮻꮝ	-11.7936
ꮎꮖꮫꮕ	-11.7936
ꭼꮹꮔꭿ	-11.7936
ꮨꮕꮞ	-11.7936
ꮪᏺꮞ	-11.7936
ᏹꮶꮅꭶ	-11.7936
ꮻꭴꮒꮆꮞ	-11.7936
ꮪꮻꮫ	-11.7937
ꭰꮒᏺꮝꮧꮝ	-11.7937
ꭰꮝꭹꮣꮝꭼ	-11.7937
ꮷꮃꮡꮆ	-11.7937
ꮳᏸ	-11.7938
ꭰꭶꮼꭱ	-11.7938
ꭰꮖꮄꮒꮩꮈ	-11.7938
ꭼꮹꮒᏼꭾ	-11.7938
ꭱꮶꭲᏻꮧᏹ	-11.7938
ꮔꮝꮧꮥꭼ	-11.7938
ꮿꮫꮣꮝꮣ	-11.7938
ꮥꮳꮣᏺꮅ	-11.7939
ꭴꮣꮕꭱꮄ	-11.7939
ꮣꮎꮜꮂꮝꭹ	-11.794
ꮒꭶꮇꮆ	-11.794
ꮎꭹꮂꮎ	-11.794
ꭰꮖꮅꭾꮅꮝꮧ	-11.794
ꮝꮣꮹꮫꮢ	-11.794
ꮷꮹꮤꮑ	-11.794
ꮅᏸꭲꮆ	-11.7941
ꮎꮙꭿᏻ	-11.7941
ꮡꮯꮆꮫꮙ	-11.7941
ꮣꭹᏺꭿꮞꮈ	-11.7941
ꭰꮖꮩꮄꮀꭿꮝ	-11.7942
ꮶꮵᏸꮈ	-11.7942
ꭶᏸꭼꮝ	-11.7942
ꭰꭹꮹꮫꮂ	-11.7944
ꮩꭹᏺ	-11.7944
ꮪᏺꭿꮞꮈ	-11.7944
ꮓꭿᏼ	-11.7945
ꭶꮤꮂꮝꮧᏹ	-11.7945
ꭴꮪꮣꮥꮻꮢ	-11.7945
ꭴꭼꮝꭺꮈꮑ	-11.7945
ꭲꮷꮦ	-11.7945
ꭰꮵꮫꮩꮧ	-11.7946
ꭴꮝꮖꮒꭺꮤꮑ	-11.7946
ꮨꮒꮢ	-11.7947
ꭲꭶꮅꮝꮣꮑꮧ	-11.7947
ꭴꮣᏻꮣꮄꮕ	-11.7948
ꭰꮞꮅꮫꮝ	-11.7948
ꮿꮕꭿꮈ	-11.7949
ꮧꮒꮑꭿ	-11.795
ᏹꮩꭼꮹ	-11.795
ꮿꮻꮞ	-11.7951
ꮣꮝꮧᏸꮧꮝꭼ	-11.7952
ꮥꭹꮈꮻꮝꮣꮑꮈ	-11.7953
ꮖꮪꮅꮝꭼ	-11.7953
ꭴꮝꮨᏸꭼ	-11.7953
ꭰꭹꮿꭵ	-11.7953
ꮟꮧꮢ	-11.7954
ꮷꮻꮞ	-11.7954
ᏹꮒꮸ	-11.7954
ꮝꭹꭸᏻꭿᏻ	-11.7955
ꭴꮝꮖꮧꮝꮧᏹ	-11.7956
ꮧꭸꭶꮈ	-11.7956
ᏻꮒꭺꭾ	-11.7957
ꮷꮒꮝꮣ	-11.7957
ꮥꮵᏺ	-11.7957
ꮻꮨꮿ	-11.7958
ꮪꮼꮑꮤꮑ	-11.7959
ꮥꭹꮈꮻꮝꮣꮑꮂ	-11.7959
ꭴꮑꮕꮝꮧ	-11.796
ꭳꮵꮼꮒꮝꭼ	-11.796
ꭰꭶꮨꮕ	-11.796
ᏹꭶꭷꮂꮝ	-11.796
ꮳꭷꮅꭲ	-11.796
ꭶꮆꮠꮕ	-11.7961
ꭲꮧꮝꭶꮎ	-11.7961
ꭺꮡꮄ	-11.7961
ꭸꮳꮱꮧꮝꭼ	-11.7961
ꮒꮵꮺꮢ	-11.7961
ꮵꭶꮇꭺ	-11.7962
ꭰꮎꮅꮝꮣᏼꮧꮝꭼ	-11.7962
ꭲꮳꮅꮝꮣᏼꮂꮝ	-11.7965
ꭼꮝꭺꮈꮑ	-11.7965
ꮣꮝꮥꮅꮝꭼ	-11.7966
ꮩꮣꮵꮿ	-11.7966
ꮪꮕꮹꮕꭹ	-11.7966
ꮷꭸᏻꭿᏻ	-11.7967
ꭰꮒꮅꮎ	-11.7967
ᏼꮧꮣꮄꮂꮝ	-11.7967
ꭳꮎꮻᏹ	-11.7967
ꭷꮓꭸ	-11.7968
ꮧꮳꮣꮅ	-11.7968
ꮔꮅꮒꭼꭼ	-11.7969
ꭱꮵꭸᏻꭲ	-11.7969
ꭼꮹꮱꮧꮝꭼ	-11.7969
ꭵꭹꮩ	-11.7969
ꭴꮒꮆꮠꮕ	-11.797
ꮪꮑꮢ	-11.797
ꭴꮪꮣꮈ	-11.7971
ꭴꮼꮒꭿꮝꮧ	-11.7971
ꮥꭽꮥᏺꮂꮝ	-11.7972
ꮝꮖꮒꭺꮤꮑ	-11.7975
ꭻᏼꭱ	-11.7975
ꭰꮣꮕꮦꮝꭸ	-11.7975
ꮷꮾꮤ	-11.7975
ꮥꮑꮄ	-11.7976
ꮟꮒꮩ	-11.7976
ꭰꮵꮈꮙꮩꮧᏹ	-11.7977
ꭴꭼꭽꮇᏼ	-11.7977
ꭰꭻꭲꮝꮧꮝꭼ	-11.7978
ꮣꮒꮈꮸꭹ	-11.7981
ꭶꮱꮧꮝꭼ	-11.7981
ꭴᏹꮈ	-11.7982
ꮧꮒꮆ	-11.7982
ꭴꮎꮔꭺꮻꮟ	-11.7982
ꭶꮃꭸᏼ	-11.7983
ꮹꮤꮑ	-11.7984
ᏹꮒꮳꮅꮝꮣꮑ	-11.7984
ꭼꮼꮅꮴ	-11.7984
ꮧꭸꭶꮼꮝ	-11.7984
ꮻꮵꮇꮴ	-11.7985
ꮵꮝꭺꮈ	-11.7987
ꮵꮒꭸꮞ	-11.7987
ꭰꮒꭶꮤꭿᏻ	-11.7988
ꭴꮹꮕ	-11.7988
ꭴꮥꮿꮤꮑꮄ	-11.7988
ꭴꮎꮶ	-11.7989
ꮅꮓꭾꮤꮕ	-11.7989
ꮥꭶꭷꮂ	-11.7989
ꭰꭹꮇꮸ	-11.7989
ꮣꮒꮩꭸ	-11.7989
ꮪꮅꮝꮪ	-11.799
ꭴꮎꮅꮝꮣᏼꮕꭿ	-11.7991
ꭴꮅꮝꮖꮫ	-11.7991
ꭴᏺꮟꮜ	-11.7991
ꮧꭺꮺꮃꮕ	-11.7992
ꭲꮿꮣꮫꮑ	-11.7993
ꮒꮳꮅꮝꮣꮑ	-11.7996
ꮧꭼꮹꮒꮠꮲ	-11.7996
ꮧꭹꮒᏼ	-11.7996
ꮦꮅ	-11.7997
ꮪꮼꮲ	-11.7997
ꮝꮖꮒꭺꮧᏻ	-11.7998
ᏹꮔꮹꮑꮀ	-11.8
ꭴꮳꮧ	-11.8
ꮥꮵꮃꮻꭹ	-11.8002
ᏻꮹꮫꭾ	-11.8002
ꭰꮵꮿꮕꮂ	-11.8006
ꮁꭶ	-11.8006
ꭲꮸᏺꭲᏻ	-11.8007
ꭱꮃꮺꮙ	-11.8007
ꭲꮵꮎꮔꭺꮻ	-11.8007
ꭲꮸᏺꮞ	-11.8008
ꮕꮣꭸ	-11.8008
ꭴꮥꮿꮤꮑꮈ	-11.8008
ꮷꮒꮔꭺꮻ	-11.8009
ꮵꮆꮢꮝ	-11.801
ꮜꮃꮣꮑ	-11.8012
ꮥꮳꮈꮻꮝꮣꮑꮈ	-11.8013
ꮣꮅꮒꭺꭿꮝꮧꮝꭺ	-11.8015
ꭳꭶꮫꭶꮕꭿ	-11.8018
ꮣꮯꮆꮝꮧ	-11.8018
ᏺꭹꮒ	-11.8018
ꮧꭼꮺ	-11.8019
ꭴꮒᏼꮂꭹ	-11.8022
ꮻꭼꮹꮨꮕꮝꮤ	-11.8022
ꭰꮙꮈ	-11.8023
ꭶꮲꮖ	-11.8027
ꭼꮹꮨꮓꮈ	-11.803
ꭳꮴꮂ	-11.8031
ꮈꭱꮧᏹ	-11.8033
ꭴꮒꮝꮫꮧꮝ	-11.8033
ꮄꮟ	-11.8034
ꮸꭸꮻ	-11.8034
ꭴꮆꮟ	-11.8037
ꭴꮎꮕꮣ	-11.8039
ꭶꮵꮿꮣꮩꮅꮝꮣꮑ	-11.8044
ꮥꭽꮥᏺꮂꮝꭼ	-11.8044
ꮽꮎꮧꮕ	-11.805
ꮵꭺꭵꮝꭶ	-11.8051
ꮒᏺꭿꮞ	-11.8052
ꮒꮥꭼꮑꮂ	-11.8054
ꭳꭶꮪꮅꮝꭼ	-11.8054
ꭴꮎꮰꮎꮝꮫ	-11.8054
ꮝꭹꭸᏻꭽ	-11.8055
ᏻꮣꮄ	-11.8055
ꭶꮜꮿꮝꮤꮕ	-11.8057
ꭼꮓꮜ	-11.8057
ꮣꮕꮨꮠ	-11.8057
ꮷꮎꮫꮎ	-11.8058
ꭹᏺꭿꮞꮈ	-11.8058
ꭰꮮ	-11.8059
ꭰꮅꮝꭺꮈꮣꮑ	-11.8065
ꭼꮹꮒꮇꮴ	-11.8065
ꮎꮖꮝꮧ	-11.8066
ꭹꮺꮝꮧ	-11.8066
ꮯꮜ	-11.8066
ꭰꮵꮩꮅꮝꮧ	-11.8066
ꭲꮸꮿꮕꮣꮧꮝꮧ	-11.8067
ꭰꮹꮨꮝꭺ	-11.8067
ꮨꮑ	-11.8067
ꭲꮷꮕꮑ	-11.8074
ꭰꭹꮎꭵ	-11.8074
ꮻꮲ	-11.8075
ꮧꭼꮹꮒᏺꮁꭿ	-11.8079
ꭰꭺꮂꮝꮩꮧ	-11.8079
ꮧꭷꮅꭲ	-11.808
ꭴꮑꮴꮈ	-11.808
ꮒꮪꮺ	-11.8084
ꭴꮺꮅ	-11.8085
ꮪꮣꮒꮈꮸ	-11.8087
ꮒꮵꮺꮞꮈ	-11.8088
ꮫꮫꮒ	-11.8088
ꮒꮖꮨꭽ	-11.8089
ꭰꮗꮕꮝꮧ	-11.809
ꮧꮹꮫꭿ	-11.8092
ꮧꭻꭺꮣꮑ	-11.8092
ꭴꮎꮄꮕꮂ	-11.8094
ꭰꭹᏺꮁꭿꮝꮧ	-11.8097
ᏻᏸꮈꮑ	-11.8097
ᏹꮒꮳ	-11.8098
ꮑꭲꮝꮣꮑꮧ	-11.8101
ꮎꮵꮺꮞꮄ	-11.8104
ꮣꮨꮑꮂ	-11.8105
ꭴꮤꮥꭹꮝ	-11.8107
ꮷꮎꮩ	-11.811
ꮂꮝꭼ	-11.8111
ꭴꮒꮓꭾꮈꭹ	-11.8114
ꭰᏸꮈꮞ	-11.8117
ꮽꮓꮑ	-11.8117
ꭴꮒꮫꮧꮝ	-11.812
ꭴꮣꮵ	-11.8121
ꮪꮎꮫ	-11.8125
ꭿᏼꭹ	-11.8126
ꮳꮝꭶꮕꮴ	-11.8128
ꮧꭺꮹꮨ	-11.8129
ᏹꮲꮧ	-11.8129
ꭰꮎꮣꮩꮅꮝꮧꮝ	-11.813
ꭶᏸꮜꮫ	-11.8138
ꭳꮵꮓꭾꮝꭼ	-11.814
ꭺꮂꮝꮩꮧ	-11.8144
ꭿꮑꭼ	-11.8145
ꮺꮩ	-11.8145
ꮻꭶꮆꭿ	-11.815
ꭶꮅꮵꮩꮂꮝꭼ	-11.8154
ꮧꮝꮖ	-11.8154
ꭰꮵᏸꮈꮎꮑꮄ	-11.8157
ꮒꮳꮅꮝꮣꮑꮂ	-11.8159
ꮣꮫꮕꭲꮝꮣ	-11.8161
ꭲꮵꮇꭹ	-11.8163
ꮈꭲꮝꮧ	-11.8164
ꮹꮫꮤꮑ	-11.8164
ꮵꮿꮩꮅ	-11.8165
ꭰꭹꮓꭾꮝꭼ	-11.8167
ꭷꮓꭾꮝꭸ	-11.8169
ᏹꮳꮪꮅ	-11.817
ꭰꮎꮣꮎ	-11.817
ꭰꮓꭿᏻꮂꮝ	-11.817
ꮧꮢꮒ	-11.817
ꮅꮝꭶꮝꮩꮤꮕ	-11.8173
ꭿꮜꮒ	-11.8175
ꮪꭺꮣꮑꭿ	-11.8182
ꮑꮅꮩꮈ	-11.8182
ꮷꭼꮹꮄ	-11.8185
ꭴꮺꮩꮅꮝꮧ	-11.8197
ꮳꮰꮿꮝꮧꮝ	-11.8199
ꮹꭶꮣꭲꮕ	-11.8202
ᏺꮝꮤꮒ	-11.8213
ꭲꮸꮿꮫꮑ	-11.8215
ꭴꮒꮸ	-11.8217
ꮝꭶꮆꮧ	-11.822
ꭼꮝꭶꮈ	-11.822
ꭾꮈꭿ	-11.8221
ꭰꮝꭻꮥꮝ	-11.8223
ꭲꮝꭺꮒꮧꮲ	-11.8223
ꭺꭺ	-11.8228
ꭶꮫꭹ	-11.8228
ꭴꮝꮣꮹꮫ	-11.8232
ꮥꮵꮈꮻꮝꮣꮑ	-11.8234
ꮽꮝꮧ	-11.8235
ꮧꮧᏺ	-11.8236
ꭶᏸꮵꮝꮥꮈ	-11.8239
ꭼꮹꮕꮑꮧ	-11.8243
ꮎꮿ	-11.8244
ꮣᏼꮝꮥꮝꮧ	-11.8251
ꮠꮲꭲꮝꮩꮧ	-11.8254
ꭲꭼᏼ	-11.8254
ꮷꮓꮈ	-11.8257
ᏻꮹ	-11.8257
ꮓꮅꮴ	-11.8257
ᏼꭶꭼ	-11.8258
ꮳꭻᏼ	-11.826
ꭲꮎꭸꮙ	-11.8262
ꭼꮹꮣꮱꮻꮝꮤ	-11.8268
ꮣꭶꮅꮝꮩꮧꮝꭼ	-11.8268
ꭼꮼꮞꮄ	-11.8271
ꮥꮛꭿꮝꮧ	-11.8272
ꭰꮵꮕꮑ	-11.828
ᏹꮥꭼ	-11.828
ꭸꭼ	-11.8281
ꭰꮄꮒꮣꮝꮧ	-11.8281
ꮶꮴ	-11.8281
ꮲꮖꮝꮩꮧ	-11.8284
ꮅꮰꮿꮝꮧ	-11.8294
ꭴꮝꮣᏹ	-11.83
ꮤꮝꮧ	-11.8301
ꮣꮵꮑ	-11.8302
ꮒꮪꮎ	-11.8303
ꮷꮒꭼ	-11.8303
ꭻꭲꮝ	-11.8305
ꮷꮵ	-11.8307
ꭹꮝꮖꮒꭺꮤꮕ	-11.8311
ꭶꮦꮓꮂ	-11.8312
ꭲꮿꮖꮅꮝꮣꮑ	-11.8315
ꮪꮰᏹ	-11.8322
ꭴꮣꭺꮅᏸꮧ	-11.8325
ꮸꮈꮙꮧ	-11.8326
ꮈꮟ	-11.8327
ꮶꭼ	-11.8329
ꭼꮇꮴꮅ	-11.833
ꭶꮅꮝꮣꮫ	-11.8331
ꮭꮝꭹꮒ	-11.8334
ꭶᏸꮧ	-11.8335
ꮓꭹꮺ	-11.8335
ꮝꮖꮒꭺꮩ	-11.8335
ꭴꮹꮒ	-11.8336
ꭰꭶꮈ	-11.8337
ꭳꮒꮝꭹꮒ	-11.8338
ꮕꮻꮝꮧ	-11.8343
ꮒꮇꮵ	-11.8343
ꮒꮳꮅꮝꮧ	-11.8347
ꭼꮻᏻꮜꮥ	-11.8348
ꭰꭹꮓꭾꮝ	-11.8352
ᏼꮑꮈ	-11.8352
ꭴꭻᏼ	-11.8353
ꭴꮳꮑ	-11.8354
ꭳꭶꮢ	-11.8356
ꮾꭹ	-11.8358
ꮖꭷꮏꮕ	-11.836
ꭶꭷꭾ	-11.836
ꮣᏺꮴ	-11.8363
ꮵꭶꮿꮇ	-11.8369
ꭹꮿꮕꮫ	-11.837
ꮣꮥꮅꮞ	-11.8374
ꭲꭴꮑꮕ	-11.8376
ꮒᏼꮫ	-11.8379
ꮲꮻ	-11.8387
ꮧꮵᏺ	-11.8396
ꮵꮻꮕ	-11.8398
ꮣꮎꮣꮕ	-11.8399
ꮠꮕꭲꮝꮤꮕ	-11.8402
ᏻꮑꮴ	-11.8404
ꮎꮎꮣꮫ	-11.8405
ꮧꮄꭼ	-11.8405
ꭲᏻꮎꮅꮝꮤꮕ	-11.8405
ᏹꭶꮕ	-11.8412
ꭼꮹꮈꮙꮧ	-11.8413
ᏹꮒꮵꮺ	-11.8416
ꭴꮺꭷꮂ	-11.8425
ꭸꭱ	-11.8426
ꮪꮅꮟꮂ	-11.843
ꮳꭺ	-11.8443
ꮭꮙ	-11.8445
ꭴꮅꮝꭺꮈꮤꮕ	-11.8446
ꮕꮂ	-11.845
ꮝꮣꮃ	-11.8457
ꭴꮑꮅꮢ	-11.8457
ꭶꮄꮕꮤ	-11.8465
ꭰꮒꮝ	-11.8467
ꮒꮧꭶ	-11.8467
ꭲꮳꮣꮕꮣ	-11.8469
ꭰꮣꮝꮥꮅꮝ	-11.8474
ᏹꮒꭶꮅꮝꮧ	-11.8482
ꮔꮫꮑꮈꮎ	-11.8486
ꮑꮯᏼꮞ	-11.8486
ꭳꮳꮅꮝꭶꮝꮩ	-11.8488
ꮪꮒꮑꮄ	-11.8505
ꮧꮳꮰᏹꮈ	-11.8516
ꮳꭷꮂ	-11.8516
ᏺꭴꮅ	-11.8522
ꭰꭹꮇ	-11.8524
ꮒꭶꮄ	-11.8528
ꮧꮙᏸ	-11.8529
ꮳꮝꮥꮅ	-11.8531
ꮒꮳꮫꮕꭲ	-11.8532
ꮖꮑꮆ	-11.8536
ꭲꭻꮣꮄ	-11.8538
ꮓꮝꭹꮝꮧᏹ	-11.8539
ꮥꮳꮼꮝ	-11.8545
ꮵꭹꮑꮈ	-11.8545
ꮰꮞ	-11.8545
ꭼꮹᏺꮝꮩ	-11.8553
ꭰꮼ	-11.856
ᏻꮨ	-11.8572
ꮱꭹ	-11.8573
ꮥꭺꭶ	-11.8577
ꭵꮄ	-11.8578
ᏻꮆꮢ	-11.8582
ꮸꮓꭾꭾ	-11.8585
ꭹꭱꮈ	-11.8585
ꮷꭶᏼꮅꭸꭲ	-11.8587
ꮣꮕꮦꮄ	-11.8591
ꮧꭶꮵꮿ	-11.8596
ꮵꮪꮒ	-11.8598
ꭰꮖꮣꮕꮤꮹꮥ	-11.86
ꮥꮳꮨꮓ	-11.8611
ꭲꭼꮹꮫꮫꮑ	-11.8616
ꮷꮆ	-11.8617
ꮧꮴꮇ	-11.8619
ꭳꭶꮅ	-11.8624
ꮒꮳꮫꮑꮀ	-11.8635
ꭰꮝꮖꮈ	-11.8636
ꭺꮅꭼ	-11.8638
ꮧꭼꮹᏺꭿ	-11.8645
ꮕꮧꭶ	-11.8646
ꭶᏼ	-11.8652
ꮥꮆꮖꭱꮈ	-11.8654
ᏼꮤꮑ	-11.8663
ꮕꮧꮝꭺ	-11.8669
ꮪꮑꮆ	-11.8673
ꭰꮒꮑꮈ	-11.8674
ꭼꮽꭿꮝꮧꮝ	-11.8676
ꮢꭶꮃ	-11.8677
ꭳꭶꮕ	-11.8677
ꮕꮝꮣꮥꮈꭹ	-11.8685
ꮣꮒꮃꮻ	-11.8688
ꮵꮎꮔꭺꮻꮞꮈ	-11.8701
ꮧꭷꮑꭼ	-11.8709
ꭲꭶꮫꮙ	-11.8711
ꭲꮸᏸꮃꮧꮩꮈ	-11.8727
ꭶꮑꮯᏼ	-11.8737
ꭳꮳ	-11.875
ꮺꮞꮄ	-11.875
ꭲꮶꭿᏻꮕ	-11.8757
ꭴꮦꮈ	-11.8761
ꮄꮒꮣꮝꮧ	-11.8767
ꮧꮷꭺ	-11.8767
ꭴꮼꭽ	-11.8772
ꭶꮅᏼ	-11.878
ꮵꮕꮧꭶꮅꮝꮩꮧ	-11.8787
ꮧꭹꭷꮑ	-11.8805
ꮆꭵ	-11.8822
ꮄꮫ	-11.8825
ꭰᏺꮁ	-11.8826
ꮣꭼꭹ	-11.8829
ꮜꮃꮣ	-11.8835
ꮅꭺꮑꮈ	-11.8843
ꮣꮫꭿ	-11.8872
ꮷꮒᏸꮈ	-11.8887
ꮔꮎꮣꮑꮯᏼ	-11.8893
ꭹᏼꮝꮧ	-11.8896
ꮥꭻꭺ	-11.8902
ꮒꮧꭹ	-11.8929
ꮵᏺꮝꮣ	-11.8942
ꭲꮸᏸ	-11.8949
ᏹꮒꭶꮺ	-11.8952
ꮔꮫꮕꭲ	-11.8965
ꮴꮕꭲꮝ	-11.8971
ꭼꮝꭶꮃꮕ	-11.8976
ꮷꮎꮣꮕ	-11.8982
ꮣꮒᏸ	-11.8985
ꮣꮨꮑ	-11.8986
ꭰꮒꭺꮹꮨꮝꭸ	-11.8987
ᏺꭲꮞꮄ	-11.8996
ꭴꮎꮣꮔᏼ	-11.9007
ꮵꭺꮅᏸꮝꭸꮝꮧ	-11.9014
ꭸᏻꭲ	-11.903
ꭸꮶꭿᏻꮂ	-11.9032
ꮝꭶꮕꮴ	-11.9041
ꮎꮨꮑ	-11.9044
ꮒꭷꮑ	-11.9047
ꮩꭾꭿ	-11.9054
ꮪꭶꮤꮂ	-11.9061
ꮶꮲꮕ	-11.9083
ꮧꮡ	-11.9083
ꭶꮼꮒꮝꭸ	-11.9092
ꮵꭷꮑ	-11.9099
ꮽꮒꮓꮑ	-11.9115
ꮿꮫꮑꮅ	-11.9116
ꭺꮅᏸ	-11.9121
ꭼꮹꮤᏺꮞ	-11.9124
ꭲꭹꮝꮥꮅ	-11.9133
ꮧꭸꮵꮕ	-11.9136
ᏼꮞ	-11.9141
ꮥꮳꮅ	-11.9143
ꭶꮔꭺ	-11.9182
ꮽꮇꮴꮄ	-11.9204
ꮞꮅꮩꮧ	-11.9209
ꭴꮅꮶ	-11.9217
ꮵꭺꮅᏸꭵ	-11.9236
ꭰꭹꮝꮥꮅꮝ	-11.9243
ꮖꮥ	-11.9245
ꮸꮑꭽ	-11.9248
ꮈꮙꮤꮕ	-11.9255
ꭰꮒꮎᏸꮝ	-11.9265
ꭼꮹꮅꮓꭾ	-11.9297
ꭴꮒꮓꭾ	-11.9299
ꭲꮳꮥꮆꮖ	-11.93
ꮬꮧꮝ	-11.9307
ꮒꮺꮞ	-11.9309
ꮵꭶꮩꭵꭿꮝꮧ	-11.9318
ꭶꮅꮂ	-11.9324
ꮅꮶꮫ	-11.9331
ꮥꮆꮖꮝꮧ	-11.934
ꮣꮩꮅꮝꮣꮑ	-11.9351
ꭸꮴꮃꮧꮩ	-11.9359
ꭰꮖꭻᏼ	-11.9373
ꭰꮒꭺꮹꮨꮝ	-11.9378
ꭸꭶꮫꮕ	-11.9378
ꮣꭶꮕ	-11.9379
ꮧꮴᏺꮂ	-11.9382
ꮑꮝꭸꮝꮧ	-11.9389
ꮵᏺꮅ	-11.939
ꮥꮢ	-11.9393
ꮵꮺꮞꮅ	-11.9405
ᏺꮮꮢ	-11.9422
ꭹꮪꭲꮝꮣꮑꮈ	-11.9422
ꭲꮵᏸꮈꮢ	-11.9425
ꮟꮈ	-11.9451
ꮰꭰꮢ	-11.946
ꮧꭼꮹꮑ	-11.9462
ꮑꮅꮢ	-11.9466
ꭹꮒᏼ	-11.9476
ꮑꮸꮑ	-11.9478
ꮣꮨꮑꮧ	-11.9482
ꮳᏼ	-11.9483
ꮹꮏ	-11.9484
ꭹꮒꮖꮨ	-11.9489
ꭱꮩ	-11.949
ꭶꮪꮅꮝꭼ	-11.949
ꭴꮅꮝꮥꮈꮩ	-11.9491
ꮮꭶꮙ	-11.9515
ꮫꮫꮂ	-11.9533
ꮣꮼꮝꮩꮧ	-11.9541
ꭸꭶꮅꮵꮩꮑ	-11.9576
ꮷꮽꭺꮣꮑꮧ	-11.9602
ꭲꮵꭸᏻꭿ	-11.9613
ꮎꮓꭿᏻꮂꮝ	-11.9626
ꮒꮺꮝꭸ	-11.9632
ꮵꮎꮒꮺ	-11.9637
ꭻꮣ	-11.9638
ꭲꮳꮣꮕꭶꮈ	-11.9639
ꭴꮲꮸ	-11.964
ᏹꮵꮑ	-11.9643
ꭴꮫꮫ	-11.9644
ꭴꮹꮞ	-11.9676
ꭶᏸꮳ	-11.9704
ꮧꭼꮩꮧ	-11.9719
ꭼꮹꭸᏻꭿ	-11.9724
ꭰꭹꮔ	-11.9732
ꮝꮫꮧꮝꭸ	-11.9735
ꮳꮅꮓꭾ	-11.975
ꮨꭺ	-11.9751
ꮧꮋ	-11.9752
ᏼꮃꮢ	-11.9771
ꮒꮪꮹꮑꮄ	-11.9771
ꮥꮵꮕ	-11.9783
ꮓꭿꭾ	-11.9783
ꭷꮑꭺ	-11.9787
ꮳꭶꮤ	-11.9801
ꮉᏹ	-11.9809
ꮵꮑꮳꮫꮑ	-11.9809
ꮦꮈꮕ	-11.9824
ꮠꭿ	-11.9831
ꮈꮙꮧꮝꭼ	-11.9831
ꮿꭶꮅ	-11.9836
ꮷꮒꮕ	-11.9849
ꮝꮖꮧꮝ	-11.9873
ꮕꮣꮧꮝꮩꮧ	-11.9878
ᏺꮮꭿ	-11.9903
ꭼꮹꮅꭺꮑ	-11.9906
ꭼꮝꭶꮃ	-11.9913
ꮕꮹꮝꮧꮧ	-11.9931
ꮕꮣꮧꮝꭼ	-11.9937
ꭰꭹꮝꮥꮈ	-11.9943
ꮒꮝꭸꮝꮧ	-11.9944
ꭸꭿꮩ	-11.9953
ꮦꮈꮂ	-11.9958
ꮣꭷꮏꮹꮧꮩ	-11.9966
ꮃꮟꮥꮒ	-11.997
ꭰꭹᏸꮈꮢ	-11.9977
ꮵꮤᏺꮞ	-11.9983
ꮑꭲꮝꮩꮧᏹ	-11.9984
ꭶꮵᏼ	-11.9987
ᏸꮕꭱ	-11.9992
ꮒꭸꮸꮑ	-12.0003
ꭼꮻᏻ	-12.0003
ꭰꮎꮩ	-12.0007
ꮥꮳꮣꮒꮈ	-12.0017
ꭰꮝꭶꮕ	-12.0019
ꭰꭹꮿ	-12.0036
ꮣꮄꮂꮝꭼ	-12.0042
ꭴꮎꮫꭶꮑꮈ	-12.0045
ꭴꮼꮲꮕꮕ	-12.0048
ꮳꮣꮕꭶꮈ	-12.0058
ᏼꭼꮣ	-12.0059
ꭹᏼꭹꮕ	-12.0074
ꮵꮃꮕꮣꮥ	-12.0082
ꭼꭹꮈꮙꮧ	-12.0084
ᏺꭿꮞꮧ	-12.009
ᏻꮹꮑꮅ	-12.0097
ꭴꮳꮨꮒꮙ	-12.0097
ꮣᏻꮎ	-12.0101
ᏻꮢꮎ	-12.012
ꮵꮶꭿᏻ	-12.0128
ꮵꮝꮧᏸ	-12.0135
ꭼꮹꮈꮝ	-12.0137
ꮳꮣꮩꮅꮝꮣꮑ	-12.0139
ꮒꭼꮑꭾ	-12.0143
ꭲꮳꮕꮣ	-12.0145
ꮲꮤꮕꭿ	-12.0152
ꭼꮹꮓꭾ	-12.0155
ꮨꮓꮈ	-12.0158
ꭸꮳᏺ	-12.0167
ꮝꮣᏹꮧꮝꮧ	-12.0185
ꮑꮲꮩꮧ	-12.0186
ꮣꮒꮃꮝꮣ	-12.0192
ꮃꮑꮈ	-12.02
ꮇꮈꭵꮝ	-12.0204
ꮣᏸꮟ	-12.0207
ꭹꭺꮂꭿ	-12.0244
ꮵꮔꮺꮞꮄ	-12.0257
ꭰꮠꮲ	-12.0279
ꮵꮵꮇ	-12.0301
ꭴꮲꮘꮝ	-12.0302
ꮵꮝꮪꭲꭱ	-12.0304
ꮧꭺꭶ	-12.0306
ꮎꮎꮅꮝꮧ	-12.0344
ꮳꮣꮑꮧ	-12.0346
ꮸᏺꮞꭽ	-12.0347
ꮪꮒꮈ	-12.0348
ꭴꮎꮥꮆꮖ	-12.036
ꮒꮳꮫ	-12.0366
ꮃꭺ	-12.037
ꭶꮩꮄꭳ	-12.0381
ꭰꭺꮅᏸꮝ	-12.0387
ꮪꮃꮧꮝ	-12.0405
ꭴꮒꭺꮑ	-12.0407
ꭲꮵꭷꮅꭲ	-12.041
ꭴꮤᏺꮞꮈ	-12.0427
ꮎꮒꮺ	-12.0438
ꮵꭺꮹꮨꮝꭼ	-12.0469
ꮏꭵꮎ	-12.0472
ꭴꮫꮢ	-12.0487
ꭶꮎᏸꮝ	-12.0487
ꮑꮴꮅ	-12.0516
ꮎꮣꮸꮿꮝ	-12.052
ꮪꮄꮤꮑ	-12.0533
ꭲꮵꮔꭺ	-12.054
ꮳꮔꮼ	-12.0555
ꮔꮎꮅꮝꮣꮑꮀ	-12.0563
ꭶꮩꭵꮢ	-12.0568
ꮒꭶꮺꮝ	-12.0573
ꭳꮑ	-12.0582
ꭴꮒꭷ	-12.0583
ꭴꮎꮪꮅ	-12.0591
ꮅꮒꭺꭿꮝꮤ	-12.0593
ꭸꮵꮕ	-12.0595
ꭻꮲ	-12.0596
ꮳꮣᏼ	-12.0604
ꮅꭾꮅꭸꮝꮧ	-12.0606
ꭲꮳꮣꮕꮣꮧꮝꮧ	-12.0607
ꮧꭶꮄꮿꮝ	-12.0613
ꮔꮒꭼꮻᏻ	-12.0619
ᏹꮳᏸꮈ	-12.0637
ᏻꮤᏺꮞ	-12.0654
ꭴꮎꮅꭺꮞ	-12.0658
ꭲꮵꮇꮸ	-12.0668
ꮽꮹ	-12.0674
ꭴꮎꮫꮣꮝ	-12.0681
ꮓꮳꮅ	-12.0684
ꮵꭶꭷ	-12.0699
ꮎꮑꮃꮧꮝ	-12.0699
ꮎᏸꭿꮝ	-12.0718
ꮜꮫꭵꮝ	-12.072
ꮕꮑꭾ	-12.073
ꭴꮺꭺ	-12.0733
ꮹꮫꭱꮂ	-12.0738
ꮅᏸꭲꮆꮈ	-12.074
ꮟꮤꮧꮝ	-12.0745
ꮣꮑꮈꭹ	-12.0746
ꮶꭺ	-12.0747
ꭰꮅꭾꮅꮴ	-12.075
ꭺꭿᏻꮂꮝꭺ	-12.0751
ꮵꮥꮩ	-12.0762
ꮝꭶꮃꮑꮈ	-12.0763
ꮵꮹꮫꭱ	-12.0764
ꮓꮯꮝ	-12.077
ꭸꮹ	-12.0774
ꭰꮲꮖꮝ	-12.08
ꮄꭿꮜ	-12.0805
ꭵꭹꮈꮙꮧ	-12.081
ꮯꮝꮩꮧ	-12.0811
ꭷꮏꮹꮫꮝꮧ	-12.0818
ꮩꮣꭷ	-12.0823
ꮧꭶꮆ	-12.0826
ꭺꮑꮆꮝꭸ	-12.0835
ꭷꮑꭲꮝ	-12.0859
ꮒꮸꮺꮞꮈ	-12.086
ꮢꮒꮝꮧ	-12.0869
ꮵᏼꮤꮒ	-12.087
ꮔꮈꮙ	-12.0888
ꮹꭲ	-12.0895
ꭶꮄꮧ	-12.0898
ꮎꮖꮅꮝꮣꮑ	-12.0906
ꭴꭶꮫꮎ	-12.0915
ꮥꭿᏺ	-12.0919
ꭱꮳꮅ	-12.0919
ꮧꮻꮞꮧ	-12.0922
ꮥꭼꮥ	-12.0922
ꮶꭿᏻꮕ	-12.093
ꮞꮢ	-12.0931
ꭳꮸꮧ	-12.0934
ꮧꮝꭶꭹ	-12.094
ꮎꮔꭺꮻꮝ	-12.0944
ꮳꮅꮝꮣꮑ	-12.0945
ꮑꮴꮂ	-12.0947
ꮅᏺꮴ	-12.0959
ꮿꮨꮓꭿ	-12.0969
ꮫꮑꮅꮩꮈ	-12.0975
ꮔꮎꮅꮝꮣ	-12.099
ꮅꮆꮂꮝꭶ	-12.0991
ꮷꮽꭺ	-12.0991
ꮔꭺꮻꮞ	-12.0992
ᏺꭲᏻ	-12.0995
ꭶꮯꮟꮝ	-12.0997
ꮎꮵꮺꮞ	-12.0999
ꮣꮕꮫꮅ	-12.1003
ꮒꮫꮑ	-12.1004
ꮵꮿꮅꭺ	-12.1012
ꮣꮫꮝꭼ	-12.1015
ꮖꮣꮔᏼ	-12.1025
ꮻꮝꭶ	-12.1029
ꭴꮤꮥ	-12.103
ꮔꮅꮝꮣꮑ	-12.1035
ᏼꮣꮖꮆꮝ	-12.1037
ꮵꭴꮝꮥꮞꮈ	-12.1037
ꮧꮳꮈꮻꮝꮣ	-12.1039
ꭰꮎꮧꮝ	-12.1043
ꭰꭹꮑꮴ	-12.1045
ꭰꮅꮝꭶ	-12.1054
ꭵꮝꭺ	-12.1057
ꮤᏺꭿ	-12.1058
ꭱꮆ	-12.1064
ᏹꮒꮳꮫ	-12.1066
ꭴꮒꮑꮙ	-12.1068
ꮸᏸꮃꮧꮩ	-12.107
ꮸᏺꮺꮃꮑ	-12.1071
ꭴꮎꮄꮕ	-12.1079
ꭰꮑꮇꮂꮝ	-12.1082
ꮩꮣꭻ	-12.1082
ꭼꮿꭻᏼꭱ	-12.1084
ꮒꮥꭶꮺꮞ	-12.109
ꮝꮖꮥ	-12.1094
ꮝꮪꭲꮟ	-12.1098
ꮧꮣꮕ	-12.1099
ꮗꮣꮄ	-12.1099
ꮳꮫꭺꮧ	-12.1105
ꭴꮧꮄꮂꮝ	-12.1105
ꭶꮱ	-12.1105
ꭼꭹꮹꮫ	-12.1106
ꭴꮺꭷꮑ	-12.1114
ꭲꮣꮩꮄꮀꭿ	-12.1114
ꮣꮴꮅꭶ	-12.1116
ꭰꮵꮕ	-12.1117
ᏺꭶꮫꮑꮧ	-12.1117
ꮷꮆꮔꭾ	-12.1119
ꭺꮂꮝꭼ	-12.1133
ꭰꮒꮿꮩꭿ	-12.1133
ꮼꭵ	-12.1139
ꭱꮶꭲᏻ	-12.114
ꮷꮫꮕꭲꮝ	-12.114
ꮝꭻꮣꮫ	-12.114
ꮹꮒᏼꭿ	-12.1145
ꮥꭸꮵꮒ	-12.1147
ꮪꮒꮒᏼ	-12.1148
ꮒꮸꮺ	-12.1148
ꮮꮴ	-12.1159
ꮝꭶꭲꮝꮧ	-12.116
ꭴꭺꮅᏸꮝ	-12.1161
ꮵꭴꮝꮥꮞ	-12.1166
ꭲꮵꮎᏸꮝ	-12.1168
ꮾꮣꭶ	-12.1168
ꮥꮵꮃꮻ	-12.1168
ꮷꮎꮣꮱ	-12.117
ꮵꮝꮥ	-12.1171
ꭰꮩꮒꮝ	-12.1173
ᏹꭱꮶꭲᏻ	-12.1175
ꭷꮏꮹꮧꮣ	-12.1179
ꭳꮳꮅ	-12.118
ꮿꮝꮫꮎ	-12.1184
ꮕꮹꮝꮥ	-12.1187
ꭴꮰ	-12.1189
ꭲᏻꮎꮫꮑ	-12.1189
ꮺꮅꮞ	-12.1191
ꭴꮒᏼꮂ	-12.1191
ꮣꮄꮂꮝ	-12.1192
ꮷꮺꮯ	-12.1194
ꭴꮲꭸ	-12.1198
ꮎꮭꭵꮎ	-12.12
ꭰꮒꮿꮻꮝ	-12.1202
ꮼꮝꮤꮕꭿ	-12.1203
ꭳꮎꮻ	-12.1204
ꮏꮹꮧꮢ	-12.1205
ᏻꮅꮝꮩꮧ	-12.1205
ꮹꭿꮝꮤꮕ	-12.1206
ꮎᏸꮝꭶ	-12.1208
ꭹꮇꭿꮝꮧ	-12.1214
ꭴꮓᏼ	-12.1216
ꭰꮵꮈꮙꮩꮧ	-12.1216
ꮼꮑꮤꮑ	-12.1219
ꮯꮆꮝꮣꮑ	-12.1221
ꮡꮅꭺꭼꮎ	-12.1223
ꭳꮵꮼꮒ	-12.1228
ꮵꭶꮃ	-12.123
ꭼꮹꮣꮄ	-12.1232
ꭸᏻꮠ	-12.1233
ꮥꮀꭿꮝ	-12.1233
ꮈꮻꮝꮣꮑꮄ	-12.1233
ꮵꮜꮃꮣꮕ	-12.1235
ꮒᏼꭾ	-12.1238
ꮗꮧꮒ	-12.1239
ꮼꮑꮧꭽ	-12.1239
ᏻꭼꮻᏻ	-12.1242
ꮹꮧꮩ	-12.1242
ꮪꮿꮕꭾ	-12.1242
ꮪꮎꮅꮒꭼꭼ	-12.1244
ꭵꭼꮹ	-12.1245
ꮣꮩꮅꮝꮣꮑꮈ	-12.1245
ꮅꮒꮖꮕꮑ	-12.1245
ꮹꭶꮦ	-12.1245
ꮤꮃꮼꭿ	-12.1246
ꮵᏼꮑ	-12.1246
ꮣᏸꮝ	-12.1246
ꮅꮝꭶꮝꮩꮩ	-12.125
ꮹꮩꭿꮿꮫ	-12.1252
ꭰꭶᏼꮅ	-12.1252
ꭼꮹꮨꮓꭾꮄ	-12.1254
ꮵꮆꮔꭱꮈ	-12.1254
ꮖꮔꮼ	-12.1254
ꮣꭺꮔꮆ	-12.1255
ꮩꮣꭸꮵ	-12.1255
ꭰꮎꮫꮑ	-12.1255
ꮒꮈꮻꮝꮣꮑꭿ	-12.1256
ꮳꮅꭱꮅꮴꮧ	-12.1256
ꮏꮝꮥꮲ	-12.1256
ꮅꭺꮑꮄ	-12.1256
ꮣꮅꮝꭺꮈꮧ	-12.1256
ꮷꮽꮣ	-12.1257
ꮤᏺꭿꮀ	-12.1257
ꮶꮿ	-12.1259
ꮎꮪꮣꮄꮝꮧ	-12.1259
ᏹꮧꮵꮝꮣᏺ	-12.1259
ꭰꮎꮅꮝꮣᏼꮒꮩꭾ	-12.1259
ꭴꮏꮝꭼꮴ	-12.1259
ꭴꮔꮦꮞ	-12.1259
ꭴꮝꭶꮕꮵꮩꮈ	-12.1259
ꮒꭶꮵꮺꮞꭽ	-12.1259
ꮔꮎꮩꮣꮘꮢ	-12.1259
ꮥꮣꭷꮒꮝꭼ	-12.1259
ꮪꮕꮒꭶꮈ	-12.1259
ꮳꮣꮺꮅꭹꮝ	-12.1259
ꮵꮝꭻꮥꮢ	-12.1259
~	-12.1259
ᏹꮕꮞꭶꭹ	-12.1259
ᏻꮅꮝꭺꮈꮣꮑꮄ	-12.1259
ꭰꮎꮅꮕꮲ	-12.1259
ꭰꮎꮅꮦꮈꮂꮝꭼ	-12.1259
ꭰꮒꮑꮔꮃꮝꮧꮝꭺ	-12.1259
ꭰꮖꮑꮃꮻꮞ	-12.1259
ꭰꮖꮯꮒꭼꮑꮈ	-12.1259
ꭲꮅꭱꮜ	-12.1259
ꭲꮳꮧꭶꮄᏺ	-12.1259
ꭴꮅꮝꭺꮈꮤꮑ	-12.1259
ꭴꮎꮣꮑꮯᏼꮢꮢ	-12.1259
ꭴꮎꮨꮓꭾꮄ	-12.1259
ꭴꮒꮠꮕꮴꮄ	-12.1259
ꭴꮒꮼꮒꮢ	-12.1259
ꭴꮝꭻꮥ	-12.1259
ꭴꮩꮄꮁ	-12.1259
ꭵꮖꮈꭵ	-12.1259
ꭶꮓꮄꮝꭼ	-12.1259
ꭸꮝꭹꭵꮟꮙ	-12.1259
ꭼꮹᏸꮝꮤꮑ	-12.1259
ꭿꮮꮻꮢ	-12.1259
ꮝꭻꮥꮞ	-12.1259
ꮠꭳꮑꮅꮑ	-12.1259
ꮣᏸꮅꭿꮝꮧꮝꭼ	-12.1259
ꮥꮵꭶꮏꮹꮥ	-12.1259
ꮥꮵꭶꮏꮹꮧꮢ	-12.1259
ꮥꮸꮿꮼꮝ	-12.1259
ꮧꭶꮈꮜꮣꮧꮝ	-12.1259
ꮪꮎꮧꮹꮝꭸ	-12.1259
ꮪꮒꮃꮻꮫ	-12.1259
ꮪꮕꮒꮝꮤꮑ	-12.1259
ꮰꮖꮉ	-12.1259
ꮳꮝꮥꮕꮸ	-12.1259
ꮵꮝꮪꮒꭹꮝꮧ	-12.1259
ꮵꮸꮿꮅꮵꮩꮑ	-12.1259
ꮵꮻꮧꭸꭶꮨꮕꮝꮤꮑ	-12.1259
ꮷꭶꮏꮑ	-12.1259
ꮷꮼꭿᏻꮑ	-12.1259
ꮻꮎᏼꭿ	-12.1259
ꭴꮎꮒꭹꮞ	-12.1259
ꮎꮒᏼꭼꮎ	-12.1259
ꮞꭺꭹꮞ	-12.1259
ꮥꭼꮹꮃꮻ	-12.1259
ꮥꮶꮲꭿꮟ	-12.1259
ꮧꮣꭺꮧꮝꭹ	-12.1259
ꮿꮞꭶꭹ	-12.1259
ꭼꮹꮔꭺꮴ	-12.1259
ꮣꭽꮼꭲ	-12.1259
ꮣꮎꮴꭸꮝꮧ	-12.1259
ꮧꭼꮹꮎꮫꭺꮩꮧ	-12.1259
ꮧꮤꮃꮧꮝꮧᏹ	-12.1259
ꮪꮒꮠꮸ	-12.1259
ꮪꮝꮥꮈꭿꮈ	-12.1259
ꮵꮃꮗꮅ	-12.1259
ꮿꮵꮿꮭ	-12.1259
ꭰꮯꮒꭼꮑ	-12.1259
ꭴꮑꮃꮻꮞꮂ	-12.1259
ꭴꮝꮖꮇꭺ	-12.1259
ꭶꮣꮔᏼꮫ	-12.1259
ꮒꮪꮫꮑꮄ	-12.1259
ꮒꮴꮅꮝꭼꮎ	-12.1259
ꮥꭶꮵꮿꮰꭲꮝꮣꮑꮈ	-12.1259
ꮥꭽꮇꭸ	-12.1259
ꮞꭺꭹꮟ	-12.1259
ꮣꮙꮩꭵ	-12.1259
ꭶꮵꮿꮰꭲꮝꮣꮑ	-12.1259
ꭿꮠꮲ	-12.1259
ꭰꮝꮖꮒꭺꮝꭸ	-12.1259
ꭴꭶꮤꮂꮞ	-12.1259
ꭴꮒꮈꮙꮤꮕꭹ	-12.1259
ꮪꮝꮖꮈꮤꮕ	-12.1259
ꮻꭼꮹꮒᏼ	-12.1259
ꭰꮖꮪꮈꮂ	-12.1259
ꭰꮙꮺꮃꮕ	-12.1259
ꮪꮽꭺꮣꮑꮄ	-12.1259
ꭰꭺꮲꮎꮑ	-12.126
ꭴꮎꮣꮘꭼ	-12.126
ꭰꮝꮖꮅꮝꭼ	-12.126
ꭰꮣꮕꮼꭿꮝꮧꮝꭹ	-12.126
ꮒꭶꮈꮙꮧꮝꭼꮎ	-12.126
ꮒꭺꮅꭼꮎ	-12.126
ꮧꮒꮑꮅꮫ	-12.126
ꮻᏸꮳꮣꭲ	-12.126
ꮣꮠᏼ	-12.126
ꮫꮎꮫꭶꮒ	-12.126
ꭰꮜꮝꮫ	-12.126
ꮔꮫꮏꮥꭼ	-12.126
ꮵꮼꮑꮤꮕ	-12.126
ꮒꭶꮕꭿꮢ	-12.126
ꮔꮣꮫꮑꮄ	-12.126
ꮷꮎꮔꭺꮴ	-12.126
ꭰꮫꮕꭲꮝꮤꮓ	-12.126
ᏹꮎꮵꮈꮙꮩ	-12.126
ᏻꮼꭿᏻ	-12.126
ꭴꮼꭿꮴ	-12.126
ꮷꮰꭰꮞ	-12.126
ꭴꮒꮝꮥᏺ	-12.126
ꭵꮖꮈꮝꮧ	-12.126
ꮜꮃꮣᏹꮅ	-12.126
ꭴꮣꮩꮅꮝꮣꮑꮈꭹ	-12.126
ꭶꮜꮿꮝꮫꮎ	-12.126
ꭹᏺꮁꭿꮞꮄ	-12.126
ꭽꮑꮝꭸ	-12.126
ꮧꮗꮕꮢ	-12.126
ꮪꮒꮑꮯᏼꮢ	-12.126
ꭰꮒꭶꮨᏼ	-12.126
ꮣꮒꮒꮣꮫ	-12.126
ꮎꮖꮅꮝꮣꮑꮅꮥꭼ	-12.126
ᏹꮳꮥꮿꮤꮑ	-12.126
ꭴꮝꮖꮈꭿꮥ	-12.126
ꮒꭼꮹꮎꮫꮑ	-12.126
ꭰꮵꮠꮕꮕ	-12.126
ꮎꮒꭶꮤꮏꭵꮎ	-12.126
ꭲꮳꭻᏹꮝ	-12.126
ꭰꭹᏺꮟꮝꭼ	-12.126
ꮻᏹꮳᏼ	-12.126
ꮝꭹꮝꮣꮹꮫ	-12.126
ꮒꮪꮏꮝꮥꮲꮎ	-12.126
ꭲꮟꮃꮋ	-12.126
ꭴꮎꭺꮈ	-12.126
ꮧꮹꮎꭸ	-12.126
ꭰꭹꮤꮥꭹꮝꭼ	-12.126
ꭴꮎꮫꮒꮫ	-12.126
ꮎꮝꮖꮆꮝ	-12.126
ꮳꮲꮖ	-12.126
ꭶꮜꮼꮈ	-12.126
ꭴꮎꮳꭱ	-12.126
ꮒꮣꮣꮒꮈꭼꮎ	-12.126
ꮪꮺꮩꮅꮸ	-12.126
ꭼꮖꮫꭶꮑ	-12.126
ꮪᏻꭺꮥ	-12.126
ꮳꮣꭸᏻꮢ	-12.126
ᏹꭿꭶꮤꭾ	-12.126
ᏹꮧꮵᏻꭺꮣꮑ	-12.126
ᏻꮬꮕ	-12.126
ꮣꮑꮳꮝꮪꮆ	-12.126
ꭻꮨꮆ	-12.126
ꭴꮎꮨꮕꮝꮧ	-12.126
ꮻꮪꮒᏺꭿꮞ	-12.126
ꭰꮣꮫꮒꮧꮝ	-12.126
ꮣꮫᏻꮴ	-12.126
ꭰꮵꮪꭲꮝꮣꮑꮈ	-12.126
ꭼꮹꮿꮻꮝ	-12.126
ᏹꮕꭸꮳ	-12.126
ꮵꮒꮵ	-12.126
ꮥꭻꭺꮧꮝꭼ	-12.1261
ꭴꮣꮕꮨꮜꮕ	-12.1261
ꮎꮠꮒ	-12.1261
ꮧꭶᏺꮵꮑ	-12.1261
ꮳꭶꮤꮂꮫ	-12.1261
ꮡꮯꮆꮫ	-12.1261
ꭰꮒꮒꮬ	-12.1261
ꮥꭶꮪꮣꮥꮻꮢ	-12.1261
ꮅꮝꮩꮤꮑ	-12.1261
ꭴꮎꮑꮆꮤꮑ	-12.1261
ꭼꮹꮒꮓꭾꮧ	-12.1261
ꭸꮵꮠꮕꭲꮝꮤꮕ	-12.1261
ꮔꮎꮅꮝꮤꮑ	-12.1261
ꮟꮎꮜꮕ	-12.1261
ꮪꮒꮝꮖꮈꮤ	-12.1261
ꭲꭶꮰꮿꮝꮩꮧ	-12.1261
ꮿꮧꮤꮝꭸ	-12.1261
ꮪꮒꮕꮸ	-12.1261
ꭴꮄꮒꮄ	-12.1261
ꮘꮵᏹ	-12.1261
ꮧꭼꮹꮣꮒꮈꮴ	-12.1261
ꭴꮕꮣꮫ	-12.1261
ꮵꮪꮓꮁ	-12.1261
ᏹꭶꮒꮖꮨꭽ	-12.1261
ꮻꮪꮇꮴꮄ	-12.1261
ꭴꮹᏼꮢ	-12.1261
ꮰꮧꮿ	-12.1261
ꭲꮳꮣꮡᏼ	-12.1261
ꮆꭵꮤꮒ	-12.1261
ꮽꮅᏸꭲꮆꮈ	-12.1262
ꮴꮳꮯᏼ	-12.1262
ꮝꮪꮮ	-12.1262
ꮵꮿꮼꭵ	-12.1262
ꮪꮓꮳꮆꮴ	-12.1262
ꮒꮣꭶꮤꮀ	-12.1262
ꭲꮳꮰꮿꮝꮩꮧ	-12.1262
ꮨᏸꮅꭿꮝ	-12.1262
ꮒꮪꮺꮞꮅ	-12.1262
ꭴꮹꮣꮄ	-12.1262
ꮽꮒꭶꮠꭰ	-12.1262
ꭴꮰꮿꮝ	-12.1262
ꮣꮎꮳꮕ	-12.1262
ꮡꮣꮅꮝꭺꭿ	-12.1262
ꮔꮺꮅꮝ	-12.1262
ꭴꮶꭿ	-12.1262
ꮏꮝꮥ	-12.1262
ꮴꮵᏺꭿꮞꮈ	-12.1263
ꭴꮅᏸꮤꮑ	-12.1263
ꮣᏻꮧꮹꮟ	-12.1263
ꮪꮇꮖꮧꮕ	-12.1263
ꮶꮳꮅꮵꮩ	-12.1263
ꮹꮎꭲꮢ	-12.1263
ꮇꮆꮴꮂ	-12.1263
ꮃꮎꮆ	-12.1263
ᏻꮓꭿᏻ	-12.1263
ꭴꮢꭿᏸ	-12.1263
ꮥꮳꮰᏹ	-12.1263
ꮥꭸꮵᏸ	-12.1263
ꮪꮥᏺꮕ	-12.1263
ꭰꮿꮰ	-12.1263
ꭰꭹꮎꮔꭺꮻꮞꮈꭹ	-12.1263
ꮥꭶꭻꮝꮣꭵ	-12.1263
ꮷꮔꭺꮤꮕ	-12.1263
ꮧꭸꭺꮝ	-12.1263
ꭰꮖꮅꮓꭾꮤꮕ	-12.1263
ꮽꮨꮕꮝꮤꮕ	-12.1263
ꭼꮑꮂ	-12.1264
ꭴꮅꮝꮪꮈꭹ	-12.1264
ꮝꭻꮥꮝꭼ	-12.1264
ꮧꮧꮠ	-12.1264
ꭴꮒꮔꮈꮕ	-12.1264
ꭴꮯꮆꭵꭹ	-12.1264
ꮣꮿꮩꭾ	-12.1264
ꭴꮑꮩꮄ	-12.1264
ꭸꮵꮒꮖꮨ	-12.1264
ꭲꮸꭸᏻꮢ	-12.1264
ꭴꮝꮖꮃ	-12.1264
ꮪꮎꮣꮱꭼ	-12.1264
ꭴꮎꮫꮕꭲꮝꮧ	-12.1264
ꭸꮵᏺꮅ	-12.1264
ꭰꮒꭶꮿꮇꭵꮝꭹ	-12.1264
ꭰꮒꭺꮹꮧꮝꭼ	-12.1264
ꭰꭶꮨꮎꮻꮫ	-12.1264
ꮪꮒꮠꭿꮝ	-12.1264
ꭲꭺꭿᏻꮢ	-12.1264
ꭻꭲꮝꮩꮧ	-12.1265
ꭴꮎꮣꮕꮦꮤꮑ	-12.1265
ꭰꮎꮩꮄꮀꮝꭸꮝꮧ	-12.1265
ꭴꮝꮖꮈꮧ	-12.1265
ꮣꮕꮧꮝꭼ	-12.1265
ꮷꮅᏸ	-12.1265
ꭰꮥꮀꭿꮝꮧ	-12.1265
ꭴꮅꮟꮂꮞ	-12.1265
ꮥꭸꮵꮕꮹ	-12.1265
ꮪꮟꮤꮥ	-12.1265
ꮪꮎꮪꮣ	-12.1265
ꭰꮖꮩꮄꮀꮢ	-12.1265
ꭴꮻꮢꮞ	-12.1265
ꭱꮳꮣꮕꮫꮅ	-12.1265
ꮷᏼꮄ	-12.1265
ꮊꮜꮿ	-12.1265
ꮥꮵꮝꮪ	-12.1265
ꮷꮎꮸꮝꮧ	-12.1265
ꮥꮸᏺꭿꮞꮈ	-12.1266
ꮷᏺꮟꮝꭸ	-12.1266
ꮼꮆꮢ	-12.1266
ꮜꮅꮉ	-12.1266
ꭰꮗᏺꮕ	-12.1266
ꮧꭶꮴꮅ	-12.1266
ꭱꮶꮞ	-12.1266
ꭴꮎꮰꮿꮝꮧ	-12.1266
ꭴꮣꮑꮯᏼꮞ	-12.1266
ꮷꮅꮒꭹꮧᏻ	-12.1266
ꭱꮵꮈꮙꮧꮝꭸꮝꮧ	-12.1266
ꭴꮎꭶꮤꮕ	-12.1266
ꭴꮒꮒᏼꭾ	-12.1266
ꭶꮣꮇꭹ	-12.1267
ꮧꮅᏸꭲꮈꮝꮧ	-12.1267
ꮒꮣꮕꮑ	-12.1267
ꭽꮅꮵꮩꮂꮝ	-12.1267
ꮵꮣꭹꮒᏼ	-12.1267
ꮪꮒꮦꮈꮑ	-12.1267
ꮪꮜꮃꮣꮑ	-12.1267
ꭴꮎꮪꮈꮕꮧ	-12.1267
ᏹꮕꭼ	-12.1267
ꭰꮵꭷꮕ	-12.1267
ꭲꮵꮆꮑ	-12.1268
ꭳꮘ	-12.1268
ꭰꭹꮑꮙꮴ	-12.1268
ꮲꮻꮞꮂ	-12.1268
ꮪꮒꮕꮕ	-12.1268
ꭰꮖꮣꮕꮨ	-12.1268
ꭳꭹꮇꮴꮈ	-12.1268
ꮪꮨꮕꮢꭹ	-12.1268
ꮣᏺꮅꮝꮧ	-12.1268
ꮝꮥꮞꮈꭿ	-12.1268
ꮥꮳꭷꮫ	-12.1268
ꮪꮒᏼꮝꮥ	-12.1269
ꮝꮣᏹꮥꮈ	-12.1269
ꭶꮨꮟꮧꮲ	-12.1269
ꮜꭹꮿ	-12.1269
ꭰꮒꮓꮂꮝꭸ	-12.1269
ꮔꮒꮷꮘꮝ	-12.1269
ꮑꮵꮺꮞꮈ	-12.1269
ꭴꮒꮜꮃꮣꮑ	-12.127
ꭲꮴꮃꮧꮩꭽ	-12.127
ꭰꮿꮩꭿ	-12.127
ꭳꮴꮩꮂ	-12.127
ꭴꮒꭶꮎ	-12.1271
ꭴᏺꭿꮝꮤꮑ	-12.1271
ꭲꮵꭶꮅꮝꮣꮧꮝ	-12.1271
ꭰꮖꮅꮜꮃ	-12.1271
ꭿꭺꭵ	-12.1271
ꭴᏺꮁꮟꮥꮎ	-12.1271
ꭴꮏꮇꮢ	-12.1271
ꮳꮝꮥꮈ	-12.1271
ꮧꮎꮣꮩ	-12.1271
ꭲꮸꮿꮣꮕꮦ	-12.1272
ꮵꮣꮣꮼꮝꭼ	-12.1272
ꮵꭸꮃꮧꮩꭾ	-12.1272
ꮷꭸᏻꭿ	-12.1272
ꮪꮝꮣꮹꮫꮞ	-12.1272
ꮈꮻꮝꮣꮑꮅ	-12.1272
ꮪꮒᏺꭿꮞꮈ	-12.1272
ꮹꭹᏼ	-12.1272
ꮥꭶꮔꭺꭼ	-12.1272
ꮑꮵꮺ	-12.1272
ꮪᏻꭿꮫ	-12.1273
ꮒꮥꭶꮅꮝ	-12.1273
ꭴꮒꮓꮄ	-12.1273
ꭵꮮ	-12.1273
ꮷꮥꮑ	-12.1273
ꮿꮥꮀꮝ	-12.1273
ꮝꮖꮓᏼꭺ	-12.1273
ꭰꮝꮪꭲꮝꭹ	-12.1273
ꮻꮪꮨꮕꮝꮤ	-12.1274
ꭱꭹꮹ	-12.1274
ꮅꭶꮅᏼꮢ	-12.1274
ᏹꮵꮅꮣꮝ	-12.1274
ꭱꮴꮅꮞ	-12.1274
ꭸꮅᏺ	-12.1274
ꮭꮻꮝꮧ	-12.1274
ꮷꮎꮥᏺ	-12.1274
ꮥꮸᏸ	-12.1274
ꭴꮒꮠꮲꭲꮝꮩꮧ	-12.1275
ꭶꮓꭿꮅ	-12.1275
ꮢꮑꮀ	-12.1275
ꮒꭶꮇ	-12.1275
ꮷᏺꮁꮢ	-12.1275
ꭰꮒꮑꮙꭸ	-12.1275
ꭲꮵꭶꮤꭿᏻ	-12.1275
ꮔꮒᏸꮈ	-12.1275
ꮔꮬꮟꮫꭱ	-12.1275
ꭴꮪꭲꮝꮣꮑꮈ	-12.1275
ꮳꮇꮴ	-12.1275
ꮒꭼꮹꮑꮈ	-12.1276
ꭺꮹꮦ	-12.1276
ꮰꮔꭾ	-12.1276
ꮪꮺꮅꮞꮄ	-12.1276
ꭱꮅꮋ	-12.1276
ꭱꮳꮣꮩꮅꮝꮣ	-12.1277
ꮫꮅꮫꮤꮒ	-12.1277
ꭴᏺꭿꮝꮤꮕ	-12.1277
ꮻꮿᏼ	-12.1277
ꮎꮻꮝꭸ	-12.1278
ꮻꮣꮧꮑ	-12.1278
ꮷꮲꮻ	-12.1278
ꭲꮧꭶꮨ	-12.1278
ꭰꮵꮿꮒꮝ	-12.1278
ꮥꮵꭷꮕ	-12.1278
ꮻꮪꮒᏼ	-12.1279
ꭳꭹꭶꮅꮝꮣꮧꮝ	-12.1279
ꭺꮅꭶꮣ	-12.1279
ꮥꭺꮲꮎ	-12.1279
ꭰꮒꮝꮣꮹꮧꮢ	-12.1279
ꮷꮒꮳꮤ	-12.1279
ꮳꮅꮵꮩꮂ	-12.128
ꮣꭶꮵᏼ	-12.128
ꮪꮒꮹꮫꭾ	-12.128
ꮪꮻꮢ	-12.128
ꮵꮸᏺꮺꮃꮑ	-12.128
ꭴꮎꮣꮩꮅꮝꮤꮑ	-12.128
ꭱꮳꮅꮝꭺꮈꮣꮑ	-12.128
ꮵꭶꮨꮟꮧꮲ	-12.128
ꭶꮣꮩꮅꮝꮧ	-12.1281
ꭰꮒꮆꮝꭹ	-12.1281
ꮸᏸꮿꮤ	-12.1281
ꮻꮩꮣꭸ	-12.1282
ꭴꮩꮿꮕꭿꮫ	-12.1282
ꮵꮕꮟ	-12.1282
ꮣꮒꮃꮻꭱ	-12.1282
ꭴꭷꮅꮶꮕ	-12.1282
ꭴꮎꮧꮤꮂ	-12.1282
ꭴꭶꮩꭵꮢ	-12.1283
ꭰꭹꮝꭶꭹ	-12.1283
ꭶꮩꭰꮝꭺ	-12.1283
ꭴꮎꮯꮆꭵ	-12.1283
ꮳꮃꮑ	-12.1284
ꮥꭷꮕ	-12.1284
ꭲꮵᏺꭾꮝꮧ	-12.1285
ꮖꮣꮎᏸꮝ	-12.1285
ꭴᏼꮲ	-12.1285
ᏻᏼꮅꮈ	-12.1285
ꮺꮹꮢꭲꮝ	-12.1286
ꭴꮒᏼꭾ	-12.1286
ꮪꮕꮅᏸꭵ	-12.1286
ꮥꮳꮥᏺ	-12.1286
ꮔꮎꮪꮅ	-12.1286
ꭲꮵꮑꮸ	-12.1286
ꭰꮵꮜꮃꮣꮕ	-12.1287
ꮧꮒꮝꭺꮅ	-12.1287
ꭴꮣꮩ	-12.1287
ꭴꮝꮥꮈꮂ	-12.1288
ꮅꮰꮿꮝ	-12.1289
ꮣᏻꮺ	-12.1289
ꭱꮵꮝꮖꮒꭺ	-12.129
ꭰꮅꮝꭶꮑꮫꮙ	-12.129
ꭰꮒꭶᏺꮅꮙ	-12.129
ꮵꮪᏺꮞ	-12.129
ꭰꭶꮞꮝꮧ	-12.1291
ꮎꮈꮝꮤ	-12.1291
ꭿꭶꮝꭶꮒ	-12.1291
ᏹꮧꮷꭺꮧ	-12.1291
ꮿꮣꮩꮅꮝ	-12.1291
ꭶꮵꮿꮯꮆꮝ	-12.1292
ꮓꭼꮑꮈ	-12.1292
ꮒꮝꮛꮑꮈ	-12.1292
ꮷꮎꮪꮅ	-12.1292
ꮒꭼꮒꮜ	-12.1292
ꭶꮓꮁꭹꮝꭼ	-12.1293
ꭸꭻꮣꮄ	-12.1293
ꭰꮎꮣꮯꮟꮝ	-12.1294
ꭴꮒᏹꮅꮩ	-12.1294
ꭴꮅꮝꮣᏼꮕ	-12.1294
ꭴꮒꮤᏺꮞꮄ	-12.1294
ꮥꭻꭺꮣꮑꮀ	-12.1294
ꭴꮅꮝꮣᏼꮩꮧ	-12.1295
ꭰꮴꮈꮝ	-12.1295
ꭰꮝꭶꮕꮴ	-12.1295
ꭳꮳꮅꮵꮩꮂꮝꭼ	-12.1295
ꭳꮳꮣꮩꮅꮝꮧꮝꭼ	-12.1296
ꮎꮡꮅꭺꭼꮎ	-12.1296
ᏹꮩꭹꮈꮻꮝꮣꮑ	-12.1296
ꭰꮖꮥꮕ	-12.1296
ꭴꮒꭶꮿꮇ	-12.1297
ꮩꮡꮄ	-12.1297
ꭰꮎꮑꮝꭸꮝ	-12.1297
ꮝꮣꮑꮀ	-12.1298
ꮻꭼꮹᏼ	-12.1298
ꭰꮅꮟꮎꭿꮝ	-12.1298
ꭴꮈꮙꮤꮕ	-12.1298
ꮣꮒꮆ	-12.1299
ꮵꮒꭹ	-12.1299
ꮵꭶꮦꮓꭽ	-12.1299
ꭰꭲꮞ	-12.13
ꮝꭹꮿꮕꮫ	-12.13
ꭲꮵꭶꮤꮀ	-12.13
ꭴꮕꮹꮕ	-12.13
ꭲꭶꮅꭺ	-12.1301
ꭰꮝꮪꮯꮝ	-12.1301
ꮩꮫꮑꮅ	-12.1302
ꭲꮵꮘ	-12.1303
ꮒꭶꮵꮺꮞꮈ	-12.1303
ꮿꮥꮂ	-12.1303
ꭴꭺꮅᏸꮧᏹ	-12.1304
ꮽꮺ	-12.1304
ꮳꭻᏼꭱꮧ	-12.1304
ꭲꮴꮩꮈ	-12.1304
ꮥꭴꮈꮻꮝꮣꮑꮈ	-12.1304
ꮿꮑꮢ	-12.1305
ꭲꮝꮫꮿ	-12.1306
ꮥꭸꭶꮫ	-12.1308
ꮔꮎꮅꮝꮣꮑꮂ	-12.1309
ꮵꮔꮎꮝ	-12.1309
ꭰꭶꮼꭵ	-12.131
ꭴꮑꭲꮝꮤꮑ	-12.131
ꭶꮇꮸ	-12.131
ꭶꮆꮢꮝꮧ	-12.1311
ꭴꮎꮣꮕꭶꮈꮫ	-12.1312
ꭴꮻꮢ	-12.1313
ꭴꮎꮧꮤ	-12.1313
ꭸꭶꮫꮕꭲꮝꮣꮑꮈ	-12.1313
ꭼꮹꮎꮥ	-12.1314
ꭲꭺꭿᏻꮕ	-12.1315
ꭰꭹꮇꮴꮈꭹ	-12.1316
ꮻꭼꮹꮇꮴꮄ	-12.1318
ꭼꮒꮝꮣ	-12.1318
ꮻꭶꮕꮕ	-12.1318
ꭱꮵꮭ	-12.1318
ꭴꮎꮸꮢ	-12.1318
ꭴꮒꮹꮫꮂ	-12.1319
ꭶꮜꮫꮝ	-12.1319
ꮥꮳꮄ	-12.132
ꭴꮣꭲꮕ	-12.132
ꭸꮵꮝꭹꮕꮧꮝ	-12.132
ꮅꮝꮣᏼꮧ	-12.132
ꮿꮅꭶ	-12.1321
ꭴꭶꮎꮼꮝꭼ	-12.1321
ᏹꮎꮎꮫꮑ	-12.1321
ꭰꮄꮒꮩꮂ	-12.1321
ꭴꮫꮧꮥꭸ	-12.1323
ꭰꮒꮿꮻꮝꭼ	-12.1325
ꭹꮎꮣ	-12.1325
ꮵꮔꮎꮅꮝꮣꮑꮄ	-12.1325
ꮪꮺꮠ	-12.1326
ꭻꮃ	-12.1326
ꭿꮝꭹꭶꮪ	-12.1327
ꭴꮣᏹꮈ	-12.1327
ꭴꮎꮅꮝꮣᏼꮑ	-12.1329
ꭴꮩꮲ	-12.133
ꮿꮣᏹ	-12.1331
ꮒꭸꭿꮩꮄ	-12.1333
ꭳꭸ	-12.1334
ꭳꮖ	-12.1335
ᏼꮝꮥꮝꭼ	-12.1336
ꭴꮴꮝꮩ	-12.1336
ꭸꮆꮀ	-12.1336
ꮒꮃꮥ	-12.1337
ꮎꮣꮑꮯᏼꭱꮧ	-12.1337
ꭼꮹꭺꮅᏸꮝꭼ	-12.1337
ꮗꮅꮟ	-12.1338
ꭰꭹꮅᏺ	-12.1338
ꮑꮙꮵ	-12.1338
ꮒꮪꮒꭸᏻꮢ	-12.1339
ꮴꮳꮫꮕ	-12.134
ꮠꭰꮢ	-12.134
ꮧꭹꮿꮝ	-12.1341
ꭰꭹꮲ	-12.1341
ꭰꮒꮝꮩ	-12.1341
ꮧꭶꮆꮝꭼ	-12.1341
ᏻꮬꮟꮫ	-12.1341
ꭰꭶꮑꮃꮕꭿ	-12.1341
ꭼꮹꮎꮭꭲ	-12.1341
ꭴꮆꮠꮒ	-12.1342
ꭱꮳꮫꮑ	-12.1342
ꭴꭶꮤꮤ	-12.1342
ꮳꮣꮅꮑꭿꮥ	-12.1343
ꭶꮃꮠꮻ	-12.1343
ꮕꮹꮝꮥꮝꮧ	-12.1343
ꭰꮖꮣꮴꮅꭶ	-12.1344
ꮧꭳꮘ	-12.1344
ꭶꮜꮼꭲꮂ	-12.1344
ꮪꮩꮲ	-12.1345
ꮟꮎꭿ	-12.1346
ꮣꮯ	-12.1347
ꭴꮒꮝꮫ	-12.1347
ꮥꮵꮅꮇ	-12.1347
ꭸꭶꭸ	-12.1349
ꭴᏺꮝꮤꮕ	-12.1349
ꮔꭾꮅ	-12.135
ꮥꮳꮣꭸᏻꮢ	-12.135
ꭰꮒꮓꮧꮝ	-12.135
ꮢꮯ	-12.1351
ꮵꮒꮺ	-12.1352
ꭼꮹꮒꮎꮔꭺꮻꮢ	-12.1352
ꮝꮪꭲꭱꮄ	-12.1352
ꮓꮳꮄ	-12.1353
ꮝꭹꮇꮴ	-12.1354
ꮷꮎꮴ	-12.1354
ꭴꮓꮑꮄ	-12.1355
ꭱꭹꮝꮥꮈꮧᏹ	-12.1355
ꭲꮳꮫꮑꮂ	-12.1356
ꮥꮵꭸᏻꮢ	-12.1356
ꮣᏻꮰ	-12.1356
ꮪꮽꮣ	-12.1356
ꭽꮣꮩꮅꮝꮧꮝꭼ	-12.1356
ꭶꮅꮀ	-12.1358
ꭸꭶꮞ	-12.1359
ꮣꮒꮼꮒꮝꭼ	-12.136
ꮵᏺꮥꮝ	-12.1361
ꭻᏼꭿ	-12.1361
ꮥꭶꭷ	-12.1363
ꭲꮸꮑꮴꮂ	-12.1364
ꮧᏺꮁꮝ	-12.1365
ꮣᏸꮵꮔꭺꮻ	-12.1365
ꭲꮳꮣꮕꮣꮫ	-12.1366
ꭶꮵꮼꮑꮧ	-12.1366
ꮴꮖ	-12.1366
ꭳꮝꮥ	-12.1367
ꭱꮝꮣ	-12.1367
ꭰꮙꭿᏻꮢ	-12.1367
ꭱꮯ	-12.1368
ᏼꮲ	-12.1368
ꮅꮝꮣꮑꮈꭹ	-12.1369
ꮷꮼꮞ	-12.1369
ꭰꮞꭺꭹꮝ	-12.137
ꭰꮒꮝꭶꭹ	-12.1371
ꮨꮕꮟꮣꮝꮧ	-12.1372
ꮒꮪꮅꮝꮤꮕ	-12.1374
ꭹꮅᏺꮵꮩꮂ	-12.1375
ꭲꭶꮅꮝꭺꮈꮣꮑ	-12.1375
ᏺꮵꮣꮝꮧ	-12.1376
ꮣꮒꮔꭺꮻꮝ	-12.1377
ꭴꮒꮎꮔꭺꮴ	-12.1377
ꭲꭱꮝꮥꮅꮜꮥ	-12.1378
ꮪꮒꮃꮻꮶꮄ	-12.1379
ꭴꮑꮞ	-12.1381
ꭼꮹꮥꮀꭿꮝ	-12.1381
ꮔꭺꮈ	-12.1381
ꭴꮒꭷꮅꭲꮝ	-12.1384
ꭴꮒꮔꭺꮻꮢ	-12.1385
ꭴꮎꮥꮿꮤꮑ	-12.1387
ꭲꮸꮤꮕ	-12.1387
ꭳꮸꮧꮝꭼ	-12.1388
ꭴꮼꭿᏻꭿ	-12.1389
ꮵꮔꭶ	-12.1389
ꮻꮥꮳ	-12.1389
ꮡᏼꮑ	-12.1391
ᏹꮕꮷꮅꮝꮩꮤꮑ	-12.1391
ᏻᏺꮀ	-12.1392
ꭴꮒꮝꭻꮥꮢ	-12.1393
ꮝꮧᏸꭼ	-12.1393
ꮽꮧꮕ	-12.1393
ꭰꮒꮿꮩꭿꮂ	-12.1393
ꭴꮣꮕꮦꮄ	-12.1394
ꮕꮣꭼꮒ	-12.1394
ꭺꮅꭶ	-12.1394
ꮔᏼ	-12.1394
ꮪꮼꮞ	-12.1395
ꮣꭹꭺꮂꭹ	-12.1395
ꭿꮓꭾꮝꭼ	-12.1395
ꭺꮻꮢ	-12.1396
ꮒꭶꮫꮕꭲ	-12.1397
ꭴꭼꭵꮝꭼ	-12.14
ꮶꮕꭿ	-12.1401
ꮳꮥꮀꭿꮝꮧ	-12.1403
ꭴꮝꮪꮑ	-12.1404
ꮢꮝꭶ	-12.1404
ꭶᏸꮷ	-12.1404
ꭴꮎꮅꮝꭶꮝꮩ	-12.1405
ꮳꮥꮀ	-12.1405
ᏹꮩꭸꮵ	-12.1406
ꮣꮝꭹꮿ	-12.1407
ꮎꮅꮝꮣꮑꮧ	-12.1407
ꭸꭼꮎꮥ	-12.1409
ꮵꮹꮫꭾ	-12.1409
ꮪꮎꮟꮤ	-12.141
ꮒꮣꮎꮴ	-12.1411
ꮻꮩꮫ	-12.1412
ꮣꮣꮄꮧꮝ	-12.1412
ꮝꮣꮹꮥꭶ	-12.1413
ꮷᏺꮀ	-12.1413
ꮣꭺꮺꮃꮒ	-12.1414
ꮣꭷꮏꮹꮧ	-12.1415
ꭳꮵꮒ	-12.1418
ꮡꮄꮧ	-12.142
ꭾꮅꮴꮧ	-12.1421
ꮡꮅꮝꭼ	-12.1421
ꭳꭹꮓꭾꮝꭼ	-12.1422
ꮥꮵꭴꮝꮥꮞꮈ	-12.1422
ꮣꮩꮅꮝꮤꮑ	-12.1422
ꮩꮣꮸꮿ	-12.1423
ᏹꮕꮹꮝꮧꮧ	-12.1425
ꮟꮤꮥ	-12.1426
ꮳꮱꮧꮝꭹ	-12.1427
ꭰꮣꭹꭱ	-12.1427
ᏹꮎꮎꮫꮑꮀ	-12.1427
ᏸꭲꮆ	-12.1428
ꭼꮹꮓꮑꮈ	-12.1428
ꭱꮖꮿ	-12.1428
ꮻꮵꮎꮔꭺ	-12.1431
ꭺꮎꮫꮤꮕ	-12.1432
ꮒꮵᏸꮈ	-12.1433
ꮎꮕꮑꮀ	-12.1433
ꮩꮡꮅ	-12.1434
ꮻꭸꮩꮂ	-12.1436
ꭱꮶꭲᏻꮂꮝ	-12.1438
ꭳꭼꮤꮕ	-12.1438
ꮢꮝꮫ	-12.1438
ꭰꮵꭹꭱ	-12.1439
ꮽꮥ	-12.144
ꮿꭷꮕ	-12.1441
ꮜꮧꮟ	-12.1441
ꭴꮑꮕꭲꮝꮧ	-12.1442
ꭶꮵꮝꭶꮕꮴ	-12.1442
ꮒꮝꮛꮑ	-12.1443
ꮅꮵꮩꮧᏹ	-12.1443
ꮣꮣꮕꮣꮧꮝꮧꮝ	-12.1443
ꭳꭹᏸꮈꮢ	-12.1443
ꭰꮵꭺꮅᏸꭵ	-12.1446
ꭰꮝꭻꮥꮝꮧᏹ	-12.1447
ꭸꮳꮥꮿꮩ	-12.1449
ꮪꮕꮟ	-12.145
ꭰꮖꮄꮒ	-12.145
ᏺꭺ	-12.1451
ꮵꮻꭶ	-12.1453
ꭲꮵꮆꮔꭾ	-12.1455
ᏹꭶꮎꮔꭺ	-12.1456
ꮔꮅꮝꮣꮑꮄ	-12.1457
ꮰꮵ	-12.1459
ꭶꮅꭵꮒ	-12.146
ꮜꮫꭵꮝꭼ	-12.146
ꮵꮻꮸᏺꮺꮃꮑ	-12.1461
ꭿꮝꮣꮑꮈ	-12.1461
ᏼꮫꭶ	-12.1464
ꭸꮵꮓꭾꭾ	-12.1464
ꭴꮒᏸ	-12.1469
ꮶꮝ	-12.147
ꭴꮝꭶꮄ	-12.1473
ꮣꮑꮂꮎ	-12.1473
ꭰꮒꮿꭵ	-12.1475
ꭴꮮꭹ	-12.1475
ꭵꭹꮩꮅ	-12.1477
ꮕꮝꮣ	-12.1481
ꮫꮔꮼꮝ	-12.1481
ꭱꮵꮿꮕꮂ	-12.1483
ꮓꭿᏻꮂ	-12.1483
ꭴꮺꮲꮕ	-12.1484
ꭲꮝꮣꮑꮄ	-12.1485
ꭼꮹꮝꭺꮒ	-12.1485
ꭼꮹꮅꭺꮑꮄ	-12.1487
ᏻꮅꮜꮃꮣꮕ	-12.1488
ꭱꮵꮤᏺ	-12.1488
ᏻꮗ	-12.1489
ꭲꭽꮫꮑ	-12.1489
ꭶꮓꮈꮧꮝ	-12.149
ꮥꮵꮝꮥꮅꮝ	-12.1493
ᏼꮬ	-12.1496
ꭳꭶꮑꮃ	-12.1496
ꭶꮵꮝꮥꮈ	-12.1496
ꮵꮆꮔꭾ	-12.1498
ꮹꭹꮇ	-12.1499
ꮵꮝꮫꮧꮝꮩꮧ	-12.15
ꮝꮪꭹꭱ	-12.1502
ꭰꮋ	-12.1506
ꮷꮪ	-12.1506
ꮾꮥꮸ	-12.1507
ꭰꭼꮒꮧᏻ	-12.1507
ꭰꮝꮖꮧꮝ	-12.1509
ꮻꮧꮵ	-12.1515
ꮥꭶꮣꮼ	-12.1518
ꮵꮤᏺꭿ	-12.1519
ꮒꮳꮺꮞ	-12.1522
ꮝꭹꮤᏺ	-12.1522
ꮣꮒꮑꮂ	-12.1524
ꮣꮠꭾ	-12.1525
ꭶꮵꮿꮩꮅ	-12.1527
ᏸꮝꮧ	-12.1532
ꮧꮥᏺ	-12.1534
ᏹꮒꮺ	-12.1534
ꮫꮣꮝꮣꮑꭾ	-12.154
ꮎꮩꮣꮖ	-12.1542
ꮥꭼꮹꮎ	-12.1544
ꭸꮳꭶꮩꭵꭿꮝꮧ	-12.1545
ꭴꮒꮑꮙꮴ	-12.1546
ꭴꮅꮆꮂꮝ	-12.1546
ꭴꮅꮰꮿꮝꮫ	-12.1546
ᏻꮓᏼ	-12.1547
ꮻꮪꭷꮏꮕ	-12.1547
ꭰꮎꮅꮵꮩꮒꮩ	-12.1547
ꭴꮺꮩꮅꮸ	-12.1548
ꮩꭿᏻꮂꮝꭶ	-12.1549
ꮷꮎꮑꮃ	-12.1553
ꭴꮒꮝꮣᏹ	-12.1555
ꭶꮲꮘ	-12.1556
ꭹᏺꮈ	-12.1557
ꮎꭶꮈꮂ	-12.156
ꭳꮴ	-12.1567
ꭴꮼꭿᏻꮑ	-12.1568
ꭴꮮ	-12.157
ꭺꮩꭿ	-12.1573
ꮧꮒᏺꮅꮙ	-12.1573
ꭴꭶꮎꮟ	-12.1577
ꮷꮟꮤ	-12.1578
ꮕꭱꮈ	-12.158
ꭲꮈꮝꭹꮙ	-12.1582
ꮵꮕꭶꮈꭱ	-12.1584
ꮧꮳꮝꮧ	-12.1585
ꭶꮎꮔꭺꭼ	-12.1585
ᏹꮳꮩꮄꮀꮝ	-12.1586
ꮧꮒꮓꭹꮝꮧꮝ	-12.1588
ꮓꮺꮃꮕ	-12.1591
ꭼꮼꭿᏻꮂꮝꭸ	-12.1593
ᏹꮺꮳ	-12.1594
ꭱꮳꮫꭶꮑꮈ	-12.1606
ꮦꮫ	-12.1606
ꭷꮅꭲꮝꮤꮕ	-12.1607
ꭸꮵꮓꭾꮝꭼ	-12.161
ꮪꮎꮪꮻꮝꮤ	-12.1613
ꭰꮝꮥ	-12.1616
ᏼꭼꮒ	-12.1622
ꭰꮎꮅꮝꭶꮝꮩꮧꮝ	-12.1625
ꮪꮎꮔꭺꮻꮞꮈ	-12.1626
ꭰꭹꮝꮪ	-12.1627
ꭼꮹꮝꮖꮧꮝ	-12.1628
ꮎꮦꮙꮆ	-12.1629
ꭲꮝꮤꮕꮎ	-12.163
ꭰꭹꮑꮴꮈ	-12.1637
ꮣꮝꮖꮒꭺꮧ	-12.1638
ꮹꮵꮿꮕꮂ	-12.1638
ꮪꮒꮅꮼ	-12.164
ꭱꮢ	-12.164
ꭲꮵꮅꮣꮝ	-12.1643
ꭹᏺꮁꮞ	-12.1643
ꮞꮅꮤꮑ	-12.1644
ꭹꮝꮥꮈꭿꮩꮈ	-12.1646
ꮣꮴꮅꮫ	-12.1646
ᏹꮾ	-12.1647
ꮅꮝꮣᏼꮒ	-12.1649
ꭺꮪꭲꮝ	-12.1652
ꭴꭶꮨ	-12.1653
ꮴꮶ	-12.1654
ꮵꮈꮙꮤꮕ	-12.1654
ꮤꮄꮢ	-12.1655
ꮵꮺꮞꮄ	-12.1659
ꮣꮔꮼꮝ	-12.1661
ꮪꮒᏺꮢ	-12.1661
ꮣꮆꮔꭾ	-12.1663
ꮸꮣꮳ	-12.1664
ꭰꮎꮧꮤꮝ	-12.1665
ꮵꮕꮹꮝ	-12.1668
ꮹꭶꮨꮕꮝ	-12.1669
ꭺꭿꮩ	-12.167
ꮵꮅꮶ	-12.1671
ꭸꮅꮝꭼ	-12.1678
ꮷꮅꮝꮤꮕ	-12.1684
ꮻꮪꭷꮏ	-12.1685
ꮵꮴꮎ	-12.1686
ꭸꮵꮕꮟꮩ	-12.1694
ᏹꮝꮧꭶꮤ	-12.1694
ꮨꮝꭺ	-12.1702
ꭸꮵꮫꭼ	-12.1704
ꮧꮴꮃꮝ	-12.1705
ꭰꮎꮅꮝꮣᏼꮂꮝꭺ	-12.1706
ꮒꮪꮕꮑꮈ	-12.171
ꮳꮎꭵ	-12.1713
ꮷꮸ	-12.1713
ꭰꮵꭺꮧ	-12.1714
ꮳꮣꮕꮤ	-12.1714
ꮷꮒꮕꭲꮝ	-12.1716
ꮥꭺꭹ	-12.1717
ꭼꮖꮣꮕꮣꮧꮝ	-12.1721
ꮪꭺꮣꮑꮈ	-12.1727
ꭶꮅꭱꮅꭼ	-12.1733
ꭰꭻᏼ	-12.1737
ᏹꮧꮵꮈꮻꮝꮣꮑ	-12.1742
ꮽꭺꮂ	-12.1747
ᏹꮒꮸꮑ	-12.1748
ꮅᏹꮅ	-12.1757
ꭼꮎꮙ	-12.1761
ꮹꮒꭶꮫ	-12.1762
ꭼꮼꮅꮝꮧ	-12.1763
ꭴꮒꮓꮥ	-12.1766
ꮳꮣꮈꮙꮧ	-12.177
ꮝꮣꮈ	-12.1774
ꮽꮲ	-12.1775
ꮵꮥꮂ	-12.1785
ꮵꭵꭱꮈ	-12.1792
ꭸꮿꮤ	-12.1793
ꭰꮒꮤᏺꭿ	-12.18
ꮤᏺꭿꮂ	-12.1802
ꮥꮵᏺꮢ	-12.1808
ꮣꮒꮈꭺ	-12.1809
ꮳꮅꮒꭹ	-12.1812
ꭴꮎꮕꮑ	-12.1819
ꮅꮑꮜꮈ	-12.1833
ꮪꮕꮝꮣꮥꮈ	-12.1849
ꮎꮳꭵ	-12.1852
ꭴꮒꮝꮣꮹ	-12.186
ꮅꮝꭶꮝꮩꮩꮧ	-12.1862
ꮉꮉ	-12.1864
ꭰᏺꭺ	-12.1865
ꭴꮺꮳꮔ	-12.1877
ꭴꮓꮢ	-12.1881
ꭴꮎꭶꮜꮿꮝꮩ	-12.1882
ꮲꮘ	-12.1885
ꮝꮪꭲꭱ	-12.1887
ꮿꭹꮝꮖꮈꭱ	-12.1889
ꮃꮝꮣꭱ	-12.1893
ꮒꮎꮻ	-12.1894
ꭼꮹꮒꮠꮲ	-12.1912
ꭴꮣꮕꮣ	-12.1916
ꮒꮥꭴ	-12.192
ꮒꭶꮿꮇ	-12.1922
ꮣꮎꮔꭺꮻꮝ	-12.1927
ꭴꮒꮜꮫ	-12.1928
ꭴꮣꮑꮯᏼꮝ	-12.1931
ꭳꭶꮕꮕ	-12.1932
ꮎꮧꮕꮧ	-12.1933
ᏹꮩꭸꮳ	-12.1934
ꮒꮴꮇꭿꮝ	-12.1935
ꮳꮣᏸ	-12.1937
ꮵꮿꮻꮝꭼ	-12.1939
ꮻꮧꮝꭹꮿ	-12.194
ꭳꭼꮩꮧ	-12.1949
ꭰꮒꮓꭾꮅꮩ	-12.1949
ꮪꮆꮑꮤ	-12.195
ꭰꮿꮒ	-12.1951
ꮔꮹꭵꮎ	-12.1967
ꭴꮒꮑꮢ	-12.1969
ꮧꮣꮣ	-12.1971
ꭼꮹꮥꮀ	-12.1975
ꭲꮣꮧꮤ	-12.1976
ꮯꮒꭼꮑꮀ	-12.1995
ꭰꮣꮿꮕ	-12.2004
ꭰꮖꮣꮕꮢ	-12.2005
ꭰꮩ	-12.2009
ꮷꮓꭿᏻꮧ	-12.201
ꮣꮒꮅ	-12.2012
ꭴꮑꮃꮧꮝ	-12.2018
ꭰꮓꭿꮝꮧꮝ	-12.202
ꮼꭱ	-12.2021
ꮣᏻꮎꮔꭺꮸ	-12.2022
ꮥꭹꮈꮻꮝꮣꮑ	-12.2038
ꭰꮒꭷꮅ	-12.2041
ꮝꮖꮫꭶꮑꮈ	-12.2042
ꭰꮑꮀ	-12.2045
ꭷꮑꭲꮝꮧꮝꭼ	-12.2048
ᏹꮵꮹꮫ	-12.2048
ꮵꮪꮄꮤ	-12.2052
ꭼꮹꮬ	-12.2053
ꭰꮎꮣꮓꭾ	-12.2065
ꮝꭹꮿꮥꮆꮖꭱ	-12.2066
ꭱꮵꮝꭶꮕꮴ	-12.2066
ꭺꮴ	-12.2066
ꮧꭸꮵꭲꮝꮧ	-12.2075
ᏺꮝꮣ	-12.209
ꭴꮣꮼ	-12.2092
ꮳꮣꮕꮫꮅ	-12.2096
ꮣꮑꮃꮑꮈ	-12.2102
ꮧꮳꮈꮻꮝꮣꮑꮧ	-12.2103
ꭲꭹꮹꮫ	-12.2108
ꮥꭶꮈ	-12.2108
ꮳꮲ	-12.2108
ꭴꮹꮒꮈ	-12.211
ꭱꮳꮪ	-12.2119
ꮅꮩꮈ	-12.2122
ꮪꮿꮕꮂ	-12.2128
ꮷꮒꮒᏼ	-12.2129
ꮵꮝꮧᏸꮧ	-12.2132
ꮶꮥꮝꮧ	-12.2138
ꮒꮝꭼꭲ	-12.2151
ꭹꮿꭵ	-12.216
ꮵꭷꮂ	-12.216
ꮈꭺ	-12.2166
ꮳꮣꮱꭼ	-12.2167
ꮪꮽꭺꮤ	-12.2167
ꮵꮩꭼ	-12.2169
ꭶꮈꮙꮧꮝꭼ	-12.2176
ꮇꭿꮝꮧ	-12.2187
ꮗꮣꮅ	-12.2187
ꭱꮳꭻᏼꭱ	-12.2191
ꮣꮄꮢ	-12.2195
ꭷꮏꮕ	-12.2203
ꮣꮅꭺꮑ	-12.2204
ꮩꭿᏻꮂ	-12.2204
ꭰꮖꮣꮕꮦꮈ	-12.2205
ꭻᏼꮂ	-12.2216
ꭶꮯꮆꭱꮈ	-12.2219
ꮎꮕꮎ	-12.2219
ꭷꮎꮹꮧ	-12.2231
ꭴꮎꮫꮕꭲꮝꮤ	-12.2235
ꭰꮒꮒꮢ	-12.2238
ꮧꮣꮄꮂꮝꭺ	-12.2239
ꭸꮳꭺꮹꮫꮧ	-12.2254
ꭴꮒꭺꮑꮆꭿ	-12.2256
ꮵꭺꮹꮧꭽ	-12.2267
ꮳꮅꮒꭼꭼ	-12.227
ꭰꮒꮔꭺ	-12.2284
ꭽꮩꮄꮀ	-12.229
ꮧꭷꮓꭸ	-12.2291
ꮷꮒꮈꮻꮝꮣꮑ	-12.2309
ꮥꮝꭹꮿ	-12.2315
ꭴꮒꭼꮻᏻ	-12.2318
ꮠꮲꮩꮧ	-12.2325
ꮣꮕꭱꮄ	-12.2328
ꮒꮳꮫꮑꮄ	-12.2341
ꮷꮒꮿ	-12.2351
ꮣꮒꮿꮫ	-12.2358
ꮳꮕꮤ	-12.2361
ꮣꮅꮒꭺꭿꮝꮩꮧ	-12.2367
ꮣꮕꮣꮧꮝꮩꮧ	-12.2378
ꮷꮅꮑ	-12.2391
ꮈꮻꮝꮣꮑ	-12.2392
ꭴꮎꮑꮇꭹ	-12.2406
ꮒꭶꮅꮝꮤꮒꮩ	-12.2414
ꭴꮎꮣꮯꮜ	-12.2415
ꭲꭹꭸᏻ	-12.2426
ꭶꮔꭺꮹ	-12.2429
ꭱꮵꮝꭶ	-12.2441
ꮦꮝꭸꮝꮧ	-12.2446
ꮧꭹꭷ	-12.2454
ꮵᏸꮅꮞ	-12.246
ꮩꭹꮿ	-12.2461
ꮒꮡꮺꮞꮈ	-12.2462
ꭴꮅꮝꭶꮝꮩ	-12.2468
ꭴꮥꮢꮕ	-12.2472
ꭰꮖꮫꮕ	-12.2479
ꮣꮫꮑꮧ	-12.2481
ꭴꮝꭶꮈ	-12.2482
ꭸꮵꮓꭾ	-12.2485
ꭰꭶꭻᏼꮣꮑ	-12.2493
ꮻꮸᏺꮺꮃꮑꮈ	-12.2499
ꮳꮣꮑꮃꮕ	-12.2512
ꮧꮴꮅ	-12.2513
ꮅꭺꮕ	-12.2533
ꭺꮂꮝꮤ	-12.2537
ᏺꮝꮤꮕ	-12.2541
ꮪꮺꮃꮧꮩ	-12.2545
ꭿꮿꮅꮝꭺꮈꮣꮑ	-12.2546
ꭴꮕꮴ	-12.2551
ꭶꮣꮓꭾ	-12.2553
ꭰꭹꭺꮅᏸ	-12.2568
ꭶꮨꮄꮕ	-12.257
ꮅꮌ	-12.2573
ꮝꭶꮕꭼ	-12.2573
ꮥꭸᏺꮂꮝꭸ	-12.2573
ꭴꮎꮅꮝ	-12.2579
ꮔꭼꮻ	-12.2579
ꭲꮵꮇꮴ	-12.2583
ꭲꮳꮣꮕꮣꮧꮝ	-12.2596
ꮪꮎꮅꭺ	-12.2602
ꮥꮕꮎ	-12.2603
ꮯᏼꭱ	-12.2619
ꮣꮏꮝꮖꮆꮝꮧꮝ	-12.2629
ꮹꮫꮂꮎ	-12.2631
ꮹꮎꮕ	-12.2636
ꮣꮎꮫꮣꮝꮣ	-12.2637
ꭹꮃꮻ	-12.2648
ꭶꮵᏸᏺ	-12.2655
ꮵᏸꮈꮕ	-12.2659
ꮝꭶꮝꭺ	-12.2662
ꮇꮕ	-12.2668
ꮟꮩꮀ	-12.2669
ꮣᏹꮅꮣ	-12.2673
ꭰꭸꮃꮝ	-12.2676
ꭼꮹꮅꭺꮑꮈ	-12.2681
ꭶᏸꮵꮠꮲꮤ	-12.2684
ꭴꮅꭾꮅꮴꮈ	-12.2686
ꮃꮝꮧꮝꭼ	-12.2691
ᏺꮁꮢꭿ	-12.2692
ꮿꭹᏺ	-12.2692
ꮎꮜꮝ	-12.2699
ꭶꮣꮒꮈꮴ	-12.2713
ꮪꮄ	-12.2722
ꭹꮅᏺꮵꮩ	-12.2724
ꭲꭼꮹꮅꮝꮣꮑ	-12.2749
ꮣꭿꮝꮧ	-12.2756
ꮧꮵꮑꮈ	-12.2756
ꮳꮝꮖꮒꭺꮥ	-12.2765
ᏼꭼꮹ	-12.2772
ꭴꮓꮅ	-12.2774
ꮥꭺꮺ	-12.2776
ꭰꭶꮨꮓꭾ	-12.2814
ꭼꮻᏻꮢ	-12.2839
ꭴꮒꭺꮅᏸ	-12.2859
ꭿꮓꭾꮝ	-12.2875
ꮙꮡꮄ	-12.2876
ꮵꮸᏺꮞ	-12.2878
ꮎᏸꮝꭸꮝꮧ	-12.2885
ꮶꭿᏻꮂꮝ	-12.2886
ꮽꮒꮕ	-12.2887
ꭼꭹꮑꮙꮴ	-12.2889
ꭶꮤꮂꮝꭼ	-12.2939
ꭰꮎꮑꮇꭹ	-12.294
ꮵꮕꮹꮝꮧ	-12.2942
ꮝꮖꮒꭺꮤ	-12.2944
ꮎꮅꮟꮎꭿꮝ	-12.2944
ꮒᏸꮈꮑ	-12.2946
ꮪꮩꭱ	-12.295
ꮥꮷꭺꮣ	-12.2959
ꮺꮕꮞ	-12.2967
ꭲꮳꮣꮕ	-12.2972
ꭺꭿᏻꮂꮝ	-12.2974
ꮵꮫꭶ	-12.2981
ꭱꮧꭸᏻꭲ	-12.299
ꮒꭼᏼ	-12.2999
ꮪꮓꮈꮢ	-12.3002
ᏸꮈꮝꭼ	-12.3023
ꭺꮞꮧ	-12.3037
ꮅꮒꭺꭿꮝ	-12.3039
ꭲꮳꮣꮩꮅꮝꮣ	-12.3044
ꭸꭶꮅꮵꮩꮑꮈ	-12.3057
ꭼꭹᏸꮈ	-12.3084
ꮣꮓᏼꮅꮝ	-12.3085
ᏺꮝꭸ	-12.3086
ꭰꮖꮣꮕꮦ	-12.3086
ꭲꮳꮅꭾꮅꮝꮧ	-12.3091
ꮎꮔꮻ	-12.3098
ꮣꮅꮒꭺꭿꮝꮧꮝ	-12.3108
ꮵꮑꮯᏼꮢ	-12.3114
ꮑꭲꮝꮣꮑ	-12.312
ꮎꮱꮧꮝꭸ	-12.3121
ꮓꮳꮅꮝ	-12.3144
ꮴꮵꭴꮝꮥꮞꮧ	-12.3172
ꭺꮣꮑꮅ	-12.3174
ꮿꮫꭵ	-12.3174
ꭰꭺꮅᏸꮝꭸ	-12.318
ꭰꮸꮝ	-12.3193
ꭲꮵꭷꮅ	-12.3234
ꭴꮒꮝꮖꮒꭺꮩꮧ	-12.3262
ꮒꮵꭶꮤ	-12.3269
ꮅꮤꮧ	-12.327
ꮆꮤꮑ	-12.3292
ꮿꮝꮪ	-12.3292
ꮩꮿꮕꭿꮫ	-12.3299
ꮵꭶꮤꮎꭵ	-12.3332
ꭴꮎꮅꮢ	-12.3336
ꭲꭶꮺꮝꮧ	-12.336
ꮝꮥꮅꮝꭺ	-12.337
ꭴᏺꮟꮝꭸ	-12.3374
ꮷꮽꭺꮣꮑ	-12.338
ꭼꮝꭶꮃꮑꮈ	-12.3393
ꮪꭲꮝꮣꮑꮈ	-12.3401
ꮣꮕꭱꮈꭹ	-12.3406
ꮷꮎꮔꭺꮻꮞ	-12.341
ꭳꮵꮤᏺꭿ	-12.3436
ꭰꮎꮧꮝꭸ	-12.3443
ꮈꮻꮝꮣꮑꭾꮝꮧ	-12.3484
ꭺꮹꮧꭽ	-12.3499
ꮔꮑꮈ	-12.3504
ꮸꮓꮑꮈ	-12.3518
ꮣꭶꮔꭺꭼ	-12.355
ꭻꭺꮣ	-12.355
ꮋꮿ	-12.355
ꮡꮄꭵ	-12.3554
ꭱꮵꮔꭺ	-12.356
ꭹꮢꮧ	-12.359
ꮺꮵ	-12.3592
ꮲꮧꮝꭺ	-12.3604
ꭶꮨꮑ	-12.3619
ꮵꮝꮣᏹ	-12.3636
ꮑꮤꮑ	-12.3643
ꭱꮵꭷ	-12.3659
ꮒꮸꮓꮑ	-12.3665
ꭴꮣꮑꮯᏼ	-12.3671
ꭸꮳꮩꮄꮀꭿ	-12.3672
ꭴꮥꮤ	-12.3688
ᏺꮵꮹꮫ	-12.3689
ꮑꭲꮝꮣꮑꮈ	-12.3698
ꮳꮅꮝꭺꮈꮣꮑꮈ	-12.3702
ꭽꮕꮣꮧꮝ	-12.3709
ꭰꮣꮩꮅꮝꮧꮝꭸ	-12.3741
ꮻꮒᏼ	-12.3749
ꭴꮒꮝꮪ	-12.3755
ꮒꭸꭼꮑꮄ	-12.376
ꮵꮇꮴꮈ	-12.3765
ꮯꮆꮝꮤ	-12.3769
ꭶꮵꮓꮑ	-12.3783
ꭴꮒꮑꮯᏼ	-12.3785
ꮴꮵꭴꮝꮥꮞ	-12.3787
ꮵꮹꮨ	-12.3788
ꮨꮒꮩꮂ	-12.3817
ꮃꮧꮝꮧᏹ	-12.3868
ꮅꮝꮩ	-12.3873
ꭴꮣꮡᏸ	-12.3873
ꭴꮎꮈ	-12.3894
ꮣꮩꮅꮝꮧ	-12.3932
ꮣᏹꮅ	-12.3952
ꭲꮵꮝꮖꮒꭺꮩꮧ	-12.3956
ꮖꮰ	-12.3968
ꮳꮒꭹꮝ	-12.3969
ꮒꮣꮅꮝ	-12.3972
ꮷꭺꮣꮟ	-12.3978
ꮅꭹꮟ	-12.4009
ꭰꮎꮑꮇꭹꮝ	-12.4014
ꮳꮴꮈ	-12.4016
ꮣꮒꭶꮤꮂ	-12.4024
ꮵᏺꭲᏻꮣꮑꭽ	-12.4026
ꮋꮎ	-12.403
ꮷꮒᏺꮁ	-12.4032
ꮧꮥꭼ	-12.4038
ꭼꮹꮃꮑ	-12.4039
ꮧꮑꮝꭸꮝ	-12.4047
ꮣꮯꮜꮑ	-12.4054
ꮕꮏꮥ	-12.4068
ꭴꮺꮠ	-12.408
ꮵꮥꮵ	-12.4118
ꮔꮑꮴ	-12.4122
ꭰꮣꮫꮝ	-12.4131
ꭸꭼꮝꭶꮃꮑ	-12.4136
ꮧꮤꮝ	-12.4139
ꮳᏺꮁ	-12.4157
ꮷꮝꮥꮈ	-12.4162
ꮵꮓꮑꮧᏹ	-12.4171
ꮵꮆꮎꮝ	-12.4198
ꮷꮺᏸ	-12.4201
ꭱꮵꮝꮥꮈ	-12.4205
ꮳꭺꮹꮨ	-12.4212
ꭴꮎꮰ	-12.4236
ᏹꮝꭹꭶꮤ	-12.4237
ꭴꮒꭶꮩꭵꭿꮝꮧ	-12.4246
ꭸꭶꭻᏼ	-12.4271
ꮅᏸꮝ	-12.4282
ꮓꭿᏻꮂꮝꭸ	-12.4297
ꭻꮲꮧ	-12.4305
ꭴꮎꮅꮝꮣᏼ	-12.4307
ꭺꮃꮧᏼꮧ	-12.4322
ꮪꮽꭺ	-12.4352
ꮳꮣꭸᏻ	-12.4358
ꮳꮨꮑ	-12.436
ꮨꮕꮝꮣ	-12.4375
ꮼꭿꮝꮧꮝꭹ	-12.4436
ꮧꮿꭵ	-12.444
ꮒꭶꮅꮝꮩ	-12.448
ꭰꮵꮥ	-12.4482
ꮹꮒꭶꮈ	-12.4496
ꭰᏺꮝꮩꮧꮝ	-12.4498
ꮓᏼꮅꮝ	-12.4514
ꮵꮒꮖꮨꮂ	-12.4527
ꮳꭷꮕ	-12.4527
ꭲꮣꮣꮕ	-12.4543
ꭲꮳꮅꮒꭼꮑ	-12.459
ꭶꮣꮕꮦ	-12.4591
ꮣꭶꮎꮔꭺꮻ	-12.4611
ꮑꮇꭹꭱ	-12.4612
ᏻꮺꮅꮞ	-12.4644
ꮅꭵꮒꮝꮧᏹ	-12.4647
ꮿꮖꮫꮑꮈ	-12.4655
ꮡᏸꮞ	-12.4666
ꭲꮵꮕꮟꮩ	-12.4671
ꭰꮣꮩꮅꮝ	-12.4672
ꮧꮰꭿꮝ	-12.4686
ꭷꮂꮢ	-12.469
ꮫꮕꮒ	-12.4704
ꮎꮣꮔᏼꮫ	-12.4709
ꮷꮎꮣꮑꮃ	-12.4715
ꮑꮩꭾ	-12.4723
ꮥꭸᏺꮂꮝ	-12.4726
ꭰꮎꮱꮧ	-12.4743
ꭶꮵꮑꮴꮈ	-12.4744
ꭻꮝꮩ	-12.4748
ꮖꮅꭺꮑ	-12.4782
ꮣᏼꮩꮧ	-12.4788
ꮵꭶꮦꮓ	-12.4796
ꮿꮩꮴ	-12.4799
ꭴꮝꮖꮈꭱ	-12.4807
ꮵꮑꭲꮝꮣ	-12.4831
ꮆꭿꮞꮄ	-12.4861
ꮯꮆꭱꮈ	-12.4864
ꮿꮡᏸꮫ	-12.487
ꮿꮕꮣꮧꮝꭺ	-12.4881
ꭴꮫꮕꭲꮝ	-12.4888
ꮳꮎꮅꮝꮣᏼ	-12.4891
ꮔꭺꮻꮟ	-12.4893
ꮖꮢꮒꮈ	-12.492
ꭸꭶꮅꮝꭺꮈꮣꮑ	-12.4923
ꮣꮑꮃꮑ	-12.4933
ꮩꭴꮑꮕ	-12.4945
ꭴᏹꮆ	-12.4954
ꭴꮝꮲꮒꮝ	-12.4963
ꮅꭺꮑꮂ	-12.4984
ꮣꮪꭺꮣꮑ	-12.5026
ꮩꭰꮢ	-12.5031
ꮿꮒꭶꮤ	-12.504
ꮪꮣꮃꭱ	-12.5049
ꮠꮑ	-12.5053
ꭴꮓꮲ	-12.5055
ꮅꮩꭾ	-12.5062
ꮝꭹꮿꮥꮆꮖ	-12.5067
ꭶꮜꮿꮝꮧ	-12.5068
ꭴꭹꮈꮤ	-12.5069
ꮧꭹᏺ	-12.5092
ꮹꮥꭹ	-12.5094
ꮨꮏꮻꮫꭾ	-12.5115
ꮶꮺꮃ	-12.512
ꮒꮠꮲꮧ	-12.5126
ꮝꭶꮕꮴꮂ	-12.5128
ꮅᏹꮆꮈ	-12.5162
ꭰꮒꮑꭸ	-12.5164
ꮷꮓꭿᏻ	-12.517
ꮻꮪꮒꮑ	-12.5181
ꮝꮖꮫꭶꮑ	-12.5185
ꮒꮝꭶꮕꮸ	-12.5212
ꮧꮵꮈꮻꮝꮣ	-12.5221
ꭴꮼꮺꮃ	-12.5223
ꭰꮖꮥꮀ	-12.525
ꮳꮫꮕꭲꮝꮣ	-12.5264
ᏻꮒᏸꮈ	-12.5269
ꮒꮳꮅꮝꮣ	-12.5278
ꮕꮣꮵꮺ	-12.5283
ꮒꭸꮵꮺꮞ	-12.5306
ꮥꮣꮣ	-12.5315
ꭱꮧꭸᏻ	-12.5321
ꭹꮝꮣꮹꮫ	-12.534
ꮫꮕꭲꮝꮣꮑ	-12.535
ꮒꮝꭶꭲꮂ	-12.5358
ꮧꮳꮈꮻꮝꮣꮑ	-12.5374
ꮑꮿꮤꮂ	-12.5397
ꮼꮞꮄ	-12.5401
ꭴꮅꮝꮪ	-12.5409
ꮷᏺꭿꮞ	-12.5434
ꭰꮒꮼꮒꮝꭸꮝ	-12.5437
ꮫꮕꭲꮝꮣꮑꮈ	-12.5438
ꭸꮵꮿꮕꭱ	-12.5472
ꮵꭵꭱ	-12.548
ꭲꮶꭿᏻꮂ	-12.5493
ꭰꮣꮩꮅ	-12.5506
ꭶꮅꮝꮩꮧꮝꭼ	-12.5507
ꭴꮑꮝꭸ	-12.5517
ꮥᏺꮕ	-12.5522
ꭶꭸꮵꮠꮲ	-12.5525
ꮳꮓꮑꮅ	-12.5527
ꮿꮺꮠꮈꮝ	-12.5528
ꭴꮒꮕꮝ	-12.5537
ꭼꮙꭿᏻꮂꮝ	-12.5539
ꮕꮣꮧꮝꮤꮕ	-12.5544
ꮝꭹᏼꮑꮈ	-12.5546
ᏹꮵꮝꭶ	-12.5559
ꮳꮣꮥꮅꮞ	-12.5602
ꮷꮟꮥ	-12.5605
ꭰꭹᏸ	-12.5609
ꮳꮨꮓꭶ	-12.5617
ꮅꮒꭺꭿꮝꮤꮕ	-12.5618
ꮣꮱꮧꮝꭺ	-12.562
ꭲꮸꮿꮅꮵꮩꮑ	-12.5623
ꮪꮎꮣᏺ	-12.5624
ꮽꮆ	-12.5627
ꮩꮣꮝ	-12.5629
ꮎꮧꮤꮝꭼ	-12.5633
ꭸᏺꮂꮝ	-12.5649
ꭶꮜꮼꭲ	-12.5652
ꮒꭼꭼ	-12.5653
ꮠꮲꮤ	-12.5656
ꭸꮵꮑꮴ	-12.5664
ꭶꮓꮝꭹ	-12.5671
ꮪꮳꮃꮑ	-12.5687
ꭰꮎꮅꮝꭶꮝꮩꮧꮝꭸ	-12.569
ꭴꮎꭶꮜꮿꮝ	-12.5694
ꭱꮩꭲᏻ	-12.5696
ꮎꮩꮄꮀꭿꮝꮧ	-12.5706
ꭰꭹꭷꮅ	-12.5708
ꮷꮎꮅꮒ	-12.5709
ꮽꮎꭶꮤꮂꮝꮤ	-12.5717
ꭴꮟꮤ	-12.5719
ꮥꮵꭷ	-12.5724
ꭱꮳꮫꭶꮑ	-12.5726
ꮝꭻꮥꮝꭺ	-12.573
ꮧꮒꮓꭹꮝ	-12.5751
ꮵꮝꭺꮒ	-12.5755
ꮴꮅꭶꮿ	-12.5757
ꮣꮔᏼꮧ	-12.5762
ꮵꮪꮔꭺ	-12.5765
ꭴꮔꮲ	-12.5774
ꮷꮪꭲꮝꮣꮑ	-12.5783
ꮺꮞꭾ	-12.5784
ꮵꮔꮅꮝꮤ	-12.5798
ꮇꭿꮝꮣꮑ	-12.5801
ꮝꭹꮿꮨꮕꮝ	-12.5812
ꮣꮅꮜꮃꮧ	-12.5814
ꮦꮓꭿ	-12.5814
ꮄꮒꮩꮈ	-12.5814
ꮣꮑꮯᏼꮢ	-12.5833
ꮥꭼꮹꮣꮒꮈ	-12.5833
ꭴꮎꮩꮄ	-12.5842
ꮧꮳꮅꮒꭺꭿꮝ	-12.5843
ꮎꮒꮺꮝ	-12.5844
ꭶꮣꮕꮣ	-12.5845
ꮕꮣꭼꮹꮣꮄ	-12.5846
ꮹꮣꮑꮯᏼꮝ	-12.5851
ꭴꮧꮹ	-12.5856
ꮡꮅꭺꮸ	-12.5861
ꮒꮪꮕꮑ	-12.5866
ꭲꮣꮅꮝꮣᏼ	-12.5881
ꮪꮺꭷꮑ	-12.5885
ꮨꮓꮄ	-12.5889
ꭴᏺꮮ	-12.5898
ꮔꮓꭿ	-12.59
ꮵꮥꭶꮣ	-12.5902
ꮳꮺꮠꮈꮝꮩꮧ	-12.5905
ꮪꭲꮝꮫ	-12.5906
ᏺꮁꮞ	-12.5907
ꭶꮎꮥ	-12.5912
ꮒᏺꮁꭿꮝꮧ	-12.5917
ꮎꮣꮅꮑꭿꮥ	-12.5917
ᏸꮜꮫ	-12.5919
ꮅꮑꮸ	-12.5929
ꭲᏻꮅꮝꮣꮑ	-12.593
ꮒꮝꮛ	-12.593
ꮳꮫꮣꮝꮣꮑ	-12.5936
ꮁꮝꮥ	-12.5947
ꭴꮪꮣꮃ	-12.5955
ꭴꮎꮔꭺ	-12.5955
ꭴꮥꮿꮤꮑ	-12.5958
ꮳꮥꮿꮩꮧꮝ	-12.5972
ꮝꭶꭲꭾ	-12.5974
ꮺꮳꮣ	-12.5974
ꭲꮸꮿꮕꮣꮧꮝ	-12.5981
ꮿꮅꮓꭾ	-12.5997
ꭴꭹꮅᏺ	-12.6007
;	-12.6009
ꭸꭺꮺꮆ	-12.6011
ꮪꮒꮝꮪ	-12.6012
ᏸꮅꮞꮧ	-12.6012
ꭰꭹꮅᏺꭸ	-12.6016
ꭰꮎꮩꮄꮀꮝ	-12.6018
ꭺꮺꮆꮧ	-12.6018
ᏹꮸꮓꮑ	-12.6021
ꮥꭴꮈꮻꮝꮣ	-12.6025
ꮧꮵꭷ	-12.6028
ꮣꮎꮴꮂ	-12.6029
ꭴꮑꮯ	-12.603
ꮅꮒꭺꭿꮝꮩꮧ	-12.6039
ꮪꮎꮔꭺ	-12.6041
ꭰꮵꮩꮅ	-12.6047
ꮳꮝꮪ	-12.6048
ꭰꮕꮝ	-12.6049
ꮑꮙꮴꮄ	-12.6054
ꮪꮒꮃꮻꮶ	-12.6068
ꭱꮝꮥꮅꮜꮥ	-12.6068
ꮎꮣꮒꮈꮸ	-12.6074
ꮪꮳꮃꮕ	-12.6079
ꮒꭸꭼꮑ	-12.6079
ꭴꮺꮅꭿꮝ	-12.6091
ꮿꮣꮕꮣꮧꮝꮤꮕ	-12.6094
ꭲꮸꮓꭾ	-12.6095
ꮷꮣꮕꮦ	-12.6101
ꮩꭹꮈꮻꮝꮣꮑ	-12.6102
ꮹᏺꭿ	-12.6104
ꮧꮵꮝꭺ	-12.6107
ꮎꮔꭺꭼ	-12.6113
ꮬꮕꮣꮥ	-12.6113
ꮪꮔꭺꮤ	-12.6119
ꮳꮫꭶꮕ	-12.612
ꮵꮿꮅꭱꮅ	-12.6121
ꭰꮵꮝꮫꮧꮝ	-12.6126
ꭱꮧꮤᏺ	-12.6128
ꮶꮡ	-12.6129
ꭴꮅꮝꮥꮝꮤ	-12.6139
ꮒᏹꮅꮩꮂ	-12.614
ꭰꭻꭲꮝꮧꮝ	-12.6143
ꭽꭶꮜꮿꮝ	-12.6145
ꭶꮣꭲꮕꮢ	-12.6149
ꭼꮑꭲꮝ	-12.615
ꮼꮒꮝꭼ	-12.6153
ᏹꮵᏺꮝ	-12.6154
ꮿꮺꮠ	-12.6154
ꭹꮅᏺꭲꮝꮩꮧᏹ	-12.6159
ꭸꮵꮆ	-12.6161
ꮿꮣꮒꮈꮸ	-12.6163
ꮝꮨᏸ	-12.6163
ꮒꭹꮅᏺꭲꮝ	-12.6164
ꮥꮳꮣꮰ	-12.6166
ꭴꮒꮔꭺꮻ	-12.6166
ꮳꮣꭶꮜ	-12.6169
ꮝꮖꮒꭺꮞꮄ	-12.6171
ꮥꮵꮔꭺꮻꮝ	-12.6172
ꮧꭸꮵꭴꮝꮥꮞ	-12.6172
ꮀꭿᏻꮂꮝ	-12.6172
ꮆꮝꭼ	-12.6173
ᏸꮳꮣꮕ	-12.6174
ꮅᏺꭲꮝꮧ	-12.6177
ꭸꮳꮱꮧ	-12.6182
ꮻꮮꮻꮢ	-12.6184
ꭲꮵꭺꮅᏸꮝ	-12.6184
ꮔꮝꮩ	-12.6185
ꮪꮕꮹꮕ	-12.6185
ꮽꮥꮅ	-12.6185
ꭰꭹꮝꮫꮧ	-12.6187
ꮇꭿꮝꮤꮕ	-12.6188
ꭷꮓꭿᏸ	-12.6189
ꮝꮣꮑꮂ	-12.6189
ꮒꮥꮸꮑ	-12.6192
ꮣᏻꮸ	-12.6193
ꭶꮣꭸᏻ	-12.6195
ꮎꮖꮅꮝꮣ	-12.6196
ꭻꮣꮄꮢ	-12.6196
ꮔꮅꮝꮤꮒꮩ	-12.6197
ꮽꮒꮇ	-12.6197
ꭰꭺꮺ	-12.6198
ꮔꮅꮒꭼ	-12.6199
ꭰꮒꮝꭶꮕ	-12.62
ꮻꮪꮒꮿꮕ	-12.62
ꮨꮎꮻꮧꮝ	-12.6201
ꭳꮳꮣꮩꮅꮝꮧꮝ	-12.6201
ꭳꮳꮅꮵꮩꮂꮝ	-12.6201
ꭶꮝꭶꮒ	-12.6204
ꮅᏺꭼ	-12.6204
ꮎꮨꮓꭾꮈ	-12.6204
ꮪꭲꮝꮤꮕ	-12.6207
ꮳꮑꮝꭸ	-12.6207
ꮣꮝꮧᏸꮧ	-12.6207
ꮖꮧꮝꮧ	-12.6208
ꭹꮅᏺꮴꮄ	-12.6208
ꮅꮝꮪꮈ	-12.6211
ꮪꮕꭶꮈ	-12.6212
ꮪꭺꮤꮕ	-12.6212
ꮧꭶꮈꮻꮝꮣꮑ	-12.6212
ꮳꮅꮒꭺꭿꮝꮧ	-12.6213
ꮟꮩꮒ	-12.6216
ꭴꭹꮸ	-12.6217
ꮅꮝꮩᏸꮧ	-12.6217
ꭼꮹꭹꮸꮧ	-12.6219
ꮄꮒꮩꮂ	-12.6221
ꮅꮒꭹꮧᏻ	-12.6221
ꮒꮈꮻꮝꮣꮑꮈ	-12.6221
ꭰꭶꭻᏼꭱ	-12.6222
ꮎꮔꭺꮵꮈ	-12.6223
ꭰꭶꮨꮓ	-12.6226
ꮵꭹꮅᏺꭲꮝꮧꮝꭼ	-12.6227
ꭶꮈꮃ	-12.6228
ꭿꮩꮈ	-12.6229
ꮳꮅꮒꭹꮧᏻ	-12.623
ꭴꮫꮧꮥ	-12.6231
ꭹꮗꮣꮈ	-12.6233
ꮥꮿꮤꮑ	-12.6233
ꮅꮝꮧꮝꭼ	-12.6234
ꭱꭶꭻᏼ	-12.6235
ꮵꮠꮲꮧ	-12.6235
ꭴꮧꮢ	-12.6235
ꮔꭿꮝꮧꮝꭼ	-12.6235
ꮠꮲꭲꮝꮧꮝꭼ	-12.6235
ᏸꮩꮃꮫ	-12.6236
ꭼꭽꮈꮫ	-12.6236
ꮣꭶꮄꮤ	-12.6237
ꮣꭺꮎꮫ	-12.6237
ꮣꭺꮹꮨ	-12.6237
ꭲꭹꮝꮥꮈ	-12.6237
ꭴꮝꮨᏸ	-12.6237
ꭹꮅᏺꮸ	-12.6237
ꮎꮩꮲ	-12.6238
ꮒꮅꭵꮒꮈ	-12.6238
ꮽꮣꮄꮝ	-12.6239
ᏹꮶꮅ	-12.6239
ꮩꮸꮑ	-12.6239
ꭸꮃꮧꮩꭾ	-12.624
ꮏꮇꮢ	-12.624
ꮣꮣꮼꮝꭼ	-12.624
ꮕꮧꭶꮅꮝ	-12.6241
ᏸꮆꭲꮝꮤ	-12.6241
ꮔꮎꮅꮝꮣꮑꮄ	-12.6241
ꮇꮟꮅꮋ	-12.6243
ꮑꮣꮝꮧ	-12.6244
ꮝꮛꮑ	-12.6244
ꮤꮥꭹꮝꭸ	-12.6244
ꭹꮃꮎꮃ	-12.6244
ꮎꮣꮩꮅꮝꮧꮝ	-12.6245
ꮒꮥꭼꮑꮀ	-12.6247
ꮝꭺꭿꮷꮘ	-12.6247
ꭴꮨꮝꮫ	-12.6248
ꮖꮣꮕꮦ	-12.625
ꮒꮅꮕꮸ	-12.625
ꮧꮳꮲꮻ	-12.625
ꮅꮝꮘꮧ	-12.625
ꮃꮕꮫ	-12.625
ᏺꮁꮟꮥꮎ	-12.6251
ꮧꮖꮣ	-12.6251
ᏼꮣꮖꮆꭵ	-12.6252
ꭿꮝꭻ	-12.6253
ꭺꮹꮧꮝꭼ	-12.6253
ꭰꮿꮩꮅ	-12.6253
ꭶꭻꮝꮣꭵ	-12.6253
ꭶꮿꮇꭵꮝꭹ	-12.6253
ꮅꮤꮧꮕꮞ	-12.6254
ꭼꮖꮣꮕ	-12.6254
ꮊꮜ	-12.6254
ᏸꮅꭿꮝꮤꮕ	-12.6254
ꭹꮝꮫꮧꮝꮧ	-12.6255
ꮪꮓꮳꮆ	-12.6255
ꮶꭹᏺꮁ	-12.6256
ꮪꮈꮜꮣ	-12.6257
ꭼꮹꭺꮑꮆꭿꮞ	-12.6257
ꮹꮅᏹꮆꭿ	-12.6258
ꮪꭲꮝꮩꮧ	-12.6259
ꮣꮑꮳꮝꮪ	-12.6259
ꮝꭹꮕꮧꮝꮧ	-12.6259
ꭲꭼꮹꮩꮲꮤꮑ	-12.6259
ᏻꮒꮇꮴꭾ	-12.6259
ꭼꮛꮒꮝ	-12.6259
ꮒꭸꮸꮏꮥ	-12.6259
ꮖꮨꮎꮻꮫꮂꭹ	-12.6259
ꮣꮣꮺꮅꭹꮝ	-12.6259
ꮴꮿꮤꮂꮝ	-12.6259
ꮵꮹᏼꭿ	-12.6259
ꮷꮼꭺꮣꮑ	-12.6259
ꮹꮅꮝꮖꮧꭿꮂ	-12.6259
ꮻꮸꮆꭲꮝꮣ	-12.6259
ꭰꮎꮝꭹꮣꮢꭵꮝ	-12.6259
ꭰꮒꭸꮥꮃ	-12.6259
ꭰꮒꮝꭻꮥꮝꭹ	-12.6259
ꭰꮒꮡꮅꭺ	-12.6259
ꭰꮕᏻꮴꮂ	-12.6259
ꭰꮫꮢꭵꮝꭹ	-12.6259
ꭰꮶꮃꮕ	-12.6259
ꭰꮿꮝꮬꮧꮝꭹ	-12.6259
ꭱꮳꮁꮝꮥꮞꮈꭿ	-12.6259
ꭱꮳꮯꮆꭱ	-12.6259
ꭲꭼꮹꮒꭹꮝꮤꮑ	-12.6259
ꭴꮃꮝꮪꮢ	-12.6259
ꭴꮎꮣꭹꮈꮧ	-12.6259
ꭴꮎꮥꮀꭿꮝꮧꮝꭹ	-12.6259
ꭴꮎꮨꮏꮻꮫꮂꭹ	-12.6259
ꭴꮑꮙꮵꮥꭼ	-12.6259
ꭴꮝꮥꮕꮸ	-12.6259
ꭴꮣꮜꭷ	-12.6259
ꭴꮣꮝꮫꮧꮝꮧ	-12.6259
ꭶᏺꭹꮠꮲ	-12.6259
ꭶꮵᏸꮃꮧꮩ	-12.6259
ꭸꮳꮅꮝꮪ	-12.6259
ꭸꮳꮑꮔꮃꮝꮧ	-12.6259
ꭼꮛꮑꮧ	-12.6259
ꭼꮹꮎꮣꮠꮲ	-12.6259
ꭼꮹꮝꮣꮹꮩꭿ	-12.6259
ꮎꮎꮣꮑꮯᏼꮟꮢ	-12.6259
ꮒꮣꮯꮆꮝꮣꮑꮂꮎ	-12.6259
ꮒꮸꮿꮫꮑꮈ	-12.6259
ꮔꮝꮖꮈꮂꮎ	-12.6259
ꮕꮷꮫꮏꮧꮞ	-12.6259
ꮘꮅꮥꮅꮘ	-12.6259
ꮣꮥꮨᏼꭾꭼ	-12.6259
ꮩꮣꮳꮰꮟ	-12.6259
ꮩꮧꭸꭶꮸꮝꮤꮒꮢ	-12.6259
ꮪꮃꮻꮫ	-12.6259
ꮪꮎꮧꮻꮝꮧꮝꭸ	-12.6259
ꮪꮏꮇꮤ	-12.6259
ꮪꮝꮪꭲꮞ	-12.6259
ꮪꮯꮆꮝꮤꮑꮄ	-12.6259
ꮪꮿꮩꭾꮄ	-12.6259
ꮵꭼꮹꮒꮫꮤꮑ	-12.6259
ꮶꮝꮣꮡ	-12.6259
ᏹꮧꮣꮣꮪꭺꮣꮑ	-12.6259
ꭰꭹꮤꮃꮼꮝꭼ	-12.6259
ꭰꮎꮅꮝꭺꮈꮧꮝꭹ	-12.6259
ꭰꮒꭶꮤꮏꭵ	-12.6259
ꭰꮒꭶꮿꮇꭵꮝꭸꭲ	-12.6259
ꭰꮒꮻꮕꭸꮜꮒ	-12.6259
ꭰꮬꮹꮝꮧꮝꭸꮝꮧ	-12.6259
ꭰꮹꮒꭶꮃ	-12.6259
ꭰꮿꮦꮒ	-12.6259
ꭱꮣꮅꭱꮅ	-12.6259
ꭲꭱꮳꮥꮿꮩꮧ	-12.6259
ꭲꭹᏺꮁꭿꮞꮈ	-12.6259
ꭲꮸꭹꮅᏺꮴꮂ	-12.6259
ꭳꭶꮣꮕꮨᏻ	-12.6259
ꭴꮅꮵꮝꮛ	-12.6259
ꭴꮒꭽꮇꭼ	-12.6259
ꭴꮣꮵꮓꭿꮝꮤꮕ	-12.6259
ꭴꮦꮈꮃꮫ	-12.6259
ꭵꮖꭸꮕꮫ	-12.6259
ꭸꮝꭹꮠꮲ	-12.6259
ꭼꮖꮪꮈꮧ	-12.6259
ꭼꮝꮣꮹꮫꮝꮧ	-12.6259
ꮍ	-12.6259
ꮣꮎꮅꮓꭾꮅꮩꮂ	-12.6259
ꮣꮎꮣꮫꮫꮂꮝꭸ	-12.6259
ꮣꮎꮥᏺꮂꮝꭸ	-12.6259
ꮣꮕꮅᏸꭵ	-12.6259
ꮣꮗꮇꭼ	-12.6259
ꮣꮝꮫꮧꮝꮩꮧ	-12.6259
ꮥꭸꭶꮣꮒꮈꮸ	-12.6259
ꮥꮳꮣꮼꮑꮧꮝꭸꮝꮧ	-12.6259
ꮥꮵꭺꮎꮫ	-12.6259
ꮪꮅꮝꭺꮈꮣꮑꮄ	-12.6259
ꮪꮎꭶꮄꮕꮂ	-12.6259
ꮪꮎꮣꮄꮏ	-12.6259
ꮪꮎꮣꮫꮫꮑ	-12.6259
ꮪꮑꭿꮝꮣꮑꮂ	-12.6259
ꮪꮜꭿꮈ	-12.6259
ꮪꮣꮈꮝꮫ	-12.6259
ꮪꮿꮝꮬꮫ	-12.6259
ꮪꮿꮩꭾꮈ	-12.6259
ꮫꮅꮝꮖꮧ	-12.6259
ꮳꮙꮺꮃꮕ	-12.6259
ꮵꮟꮎꮜꮒ	-12.6259
ꮵꮹꮒꮆꮝꭺ	-12.6259
ꮵꮾꮧꭶꮆꮟ	-12.6259
ꮷꮈꮜꮣ	-12.6259
ᏻꮪꮣꮄꮝꮤꮑ	-12.6259
ᏼꭼꭹꮇꮵ	-12.6259
ꭰꮒꮭꮂꮝꭺ	-12.6259
ꭰꮵꭶꮨꮧꮝꮫ	-12.6259
ꮣꮖꮩꮝꮫ	-12.6259
ꮣꮹꮧꮝꮩ	-12.6259
ꭴꭼꮻꮹ	-12.6259
ꭴꮇꮵꮧꮢ	-12.6259
ꭴꮒꮭꮧꮴ	-12.6259
ꭴꮒꮿꮩꮄ	-12.6259
ꭴꮝꭹꮕꮥ	-12.6259
ꭵꮖꮣꮣꮄ	-12.6259
ꭼꮹꮒᏺꮵꮩꮈ	-12.6259
ꭿꮝꮧᏸꮧꮝꭸꮝꮧ	-12.6259
ꮎꮖꮫꮏꮥꭼ	-12.6259
ꮕꮧꭶꮅꮝꮧꮩꮧꮝ	-12.6259
ꮣꮎꮣᏹꮅꮩꮂ	-12.6259
ꮧꮒꮝꮖꮒꭺꮧꮝꭹ	-12.6259
ꮪꭷꮏꮹꮧꮩꮂ	-12.6259
ꮪꮯꮆꮝꮤꮕ	-12.6259
ꮯꮆꮢꮈ	-12.6259
ꮵꮣꮅꮦꮈꮂ	-12.6259
ꮵꮥꭿᏻꭺꮣꮑ	-12.6259
ꮽꮒꮓꭾꮄ	-12.6259
ꮿꮟꮤꮫ	-12.6259
ᏻꮒꮓꭾꮄ	-12.6259
ᏼꭶᏺꮳ	-12.6259
ꭰꮅꮦꮈꮂꮝꭼ	-12.6259
ꭳꭶꮲꮖꮢ	-12.6259
ꭴꮔꮆꮈ	-12.6259
ꭶꮅꮵꮩꮒꮩ	-12.6259
ꭹꮝꮧᏸꮧꮝꭼ	-12.6259
ꭺꮈꮝꮤꮑ	-12.6259
ꭼꮹꮅꮝꮪ	-12.6259
ꮒꮝꭹꮿꮫꮑ	-12.6259
ꮒꮪꮡᏸꮠ	-12.6259
ꮧꭸꮵꮝꮪꭿ	-12.6259
ꮴꮷꭺꮣꮑ	-12.6259
ꮵꮥꭶꮥᏺ	-12.6259
ꮷꮎꮧꭶꮄᏺꮴ	-12.6259
ꮸꮖꮈ	-12.6259
ꮽꮧꮲꮝꮤꮕ	-12.6259
ᏹꮔꮅꮝꮣꮑꭾ	-12.6259
ꭰꮅꮓꭾꮧꮝꭼ	-12.6259
ꭱꮷꮣꮄꮝꮧ	-12.6259
ꭲꭸꮃꮧꮩ	-12.6259
ꭲꮵꮝꮣꮹꮥꭸꮝꮧ	-12.6259
ꭳꭹꮎꮦꮖꮆ	-12.6259
ꭴꮅꮒꭺꮝꭼ	-12.6259
ꭴꮣꮈꮝꮫ	-12.6259
ꭴꮺꭷꭿᏼ	-12.6259
ꮒꭶꮪꮟꮑ	-12.6259
ꮒꮧꮵꮑꮂꮎ	-12.6259
ꮵꮣꮎꮅꮝꭺꮈꮧꮝꭸ	-12.6259
ꮷꭹꮵꮝꭺ	-12.6259
ꮷꮼꭺꮩꮧ	-12.6259
ꮒꮳꮫꭹꮝꭼꮎ	-12.6259
ꮣꮣꮎꮹꮝꮫ	-12.6259
ᏹꮧꭼꮥꭺ	-12.6259
ꭰꮀꮁ	-12.6259
ꭲꮵꮎꮔꭺꮹ	-12.6259
ꭴꮅꮝꭸꮫ	-12.6259
ꭴꮎꮭꭵ	-12.6259
ꭴꮒꮴꮦ	-12.6259
ꭾꮟꭶꮿ	-12.6259
ꮒꮪꮼꮪ	-12.6259
ꮣꮫꮫꭾꮈꭵꮝꭸ	-12.6259
ꮥꭸꮵꮎꮭ	-12.6259
ꭴꮒꮠꮕꮴꮈ	-12.6259
ꭵꭴꮎꮸ	-12.6259
ꭶꮩꮜꮧꮝꮫ	-12.6259
ꮆꮙꮉ	-12.6259
ꮠᏹꮑꮃ	-12.6259
ꮣꮎꮅꮝꮫ	-12.6259
ꮥꭶꮯꮆꮝꮧꮝꭼ	-12.6259
ꮥꮳꮣꮫꮧꮝꭼ	-12.6259
ꮧꭸꮵꮝꮪꮑꮧ	-12.6259
ꮻꮪꭷꮎꮕ	-12.6259
ꭴꮅꭵꮒꮈ	-12.6259
ꭴꮅꮫꮤꮑ	-12.6259
ꭶꮅꮝꮣꮥ	-12.6259
ꮒꮣꮫꮣꮝꮣꮑꮂꮎ	-12.6259
ꮪꮺꮅꮞꮈ	-12.6259
ꮵꮪꮎꮪꮣꮩ	-12.6259
ꮵꮿꮪꮈꭱ	-12.6259
ꭰꭶꮫꮎꮸ	-12.6259
ꭴꮒꮒꮖꮨꮝꮧ	-12.6259
ꭰꮒꮓꮤꮕꭵ	-12.6259
ꭱꮧꭶꮤꮂꭲ	-12.6259
ꭲꮃꮿꭹꮋ	-12.6259
ꮩꮣᏺꭹꮈꮻꮝꮣꮑ	-12.6259
ꮪꮎꮔꮹꭵ	-12.6259
ꮷꮓꮈꮤꮒꮩꮀ	-12.6259
ꮻꭼꮺꭷ	-12.6259
ꭰꮎꮰꮎꮝꮧꮝꭼ	-12.626
ꭴꮎꭹꮃꮻꮞ	-12.626
ꭴꮒꮏꮈꮸ	-12.626
ꭶꮵᏺꮺꮃꮑ	-12.626
ꮒꮳꮫꮣꮝꮣꮑꮂꮎ	-12.626
ꮥꮵꭶꮨᏼ	-12.626
ꮪꮝꭶꮴ	-12.626
ꭴꮅꮿꮝꮪꮑ	-12.626
ꮴꮼꮴ	-12.626
ꮷꮼꮺ	-12.626
ᏹꮳꮫꮣꮝ	-12.626
ꭰꮎꮄꮒꮩ	-12.626
ꮣꮵꮿꮣꮩꮅꮝꮣꮑꮅ	-12.626
ꭰꮌꮒ	-12.626
ꮻꭶꮇꭼ	-12.626
ꭰꮒꮧꮲꮙ	-12.626
ꭲꮧꮿꮩꭿ	-12.626
ꭴꮎꮣꮣꮄꮣꮑ	-12.626
ꭻꮟᏺ	-12.626
ꮵꭶꮤꮹꮥ	-12.626
ꮷꭹꮅᏺꮴ	-12.626
ꮷꮒꮢꮝꮧᏹ	-12.626
ꭴꮎꮞꮈ	-12.626
ꭶꮵꮤᏺꮞꮈ	-12.626
ꭼꮹꮎꮅꭺꮑ	-12.626
ꮧꮵꭶꮅꮝꮣꮥꮧ	-12.626
ꮶꮜꮿ	-12.626
ꮻꮪꮰꮢ	-12.626
ꭱꮠꮟ	-12.626
ꭳꭶꮥꮿꮩꮧ	-12.626
ꮧꭴꮰꭰꮞ	-12.626
ꮪꮅꮓꭾꮤꮑ	-12.626
ꮷꮃꮟꮧᏹ	-12.626
ꮷꮅꮿꮟ	-12.626
ꮒꮪꮒꮈꮙ	-12.626
ꮵꮃꮻꮴ	-12.626
ꮵꮤꮃꮼꮝ	-12.626
ꭰꮖꮞꮅꮤꮕ	-12.626
ꭱꮷꭲꮝꮧ	-12.626
ꮥꭼꮹᏺꮢ	-12.626
ꮪꮒꮼꮒ	-12.626
ꭰꮖꮞꭾꮂ	-12.626
ꭴꮎꮅꮵꮩꮒ	-12.626
ꮝꭹꮎꮫꮒꮟ	-12.626
ꮪꮎꮣꮰꮂ	-12.626
ꮪꮒꮯꮜꮕ	-12.626
ᏹꭼꮹᏺꮁꮞ	-12.626
ꭴꮅꮓꭿᏸ	-12.626
ꮜꭹꮋ	-12.626
ꮧꮸᏻꭺꮣꮑꮧ	-12.626
ꮪᏸꮈꮢ	-12.626
ꭳꮜꮿ	-12.626
ꮣꮎꮣᏸꭲꮅꮩ	-12.626
ꮷꭸꮕꮫ	-12.626
ꭰꮖꮒꭹꮢ	-12.626
ꭰꮣꮰꮝꮧ	-12.626
ꭴꮔꮈꮕ	-12.626
ꭸꮳꮨꮓꭿ	-12.626
ᏹꮳꮅꮝꭹ	-12.626
ꭳꮗꮧ	-12.626
ꭸꮳꮜꮃꮩ	-12.626
ꭲꮳꮣꮕꮤꮹꮥ	-12.626
ꭴꮅꮜꮃꮑ	-12.626
ꭴꮺꮗᏼ	-12.626
ꮪꮑᏺꮑ	-12.626
ꮪꮬꮜ	-12.626
ꭶꮕꭶꮅꮝꭼ	-12.626
ꮷꮔꭺꮴ	-12.626
ᏺꭶꮪꮅ	-12.626
ꮒꭹᏼꮑꮈ	-12.626
ꮎꮩꭿᏻꮎꮑꮧ	-12.626
ꮻꮥꭸꭶꮣꭲ	-12.626
ꮣꮱꮹꮧꮢ	-12.626
ꮴꮙꭿᏻ	-12.626
ᏹꭼꮏꮧꮝ	-12.626
ꭰꮗꮃꮧꮝ	-12.626
ꮷꮨꮓꭿꮝꮧ	-12.626
ꭿꮝꮣꮹꮥꭸꮝꮧ	-12.626
ꮥꭻꭺꮣꮟ	-12.626
ꮪᏸꮅꭿꮝꮤꮑ	-12.626
ꭰꭸꮃꮧꮝ	-12.626
ꭶꮵꮿꮥꮿꮩꮤ	-12.626
ꮨꭷꮏꮹ	-12.626
ꭵꮖꭻᏼꭱ	-12.626
ꮣꭼꮕꮟ	-12.626
ꮪꮪꮣꮥꮻ	-12.626
ꮣᏺꮳꮧꮢꮒ	-12.626
ꮪꮎꮔꮹꭱ	-12.626
ꮵᏺꭲᏻꮂꮝ	-12.626
ꭰꮕᏻꭼ	-12.626
ꭶꭼꮹꮒꮠꮲꮤꮕ	-12.626
ꮒꭸꮳꮫꮑ	-12.626
ꮣᏺꮵꮒ	-12.626
ꮥꮳꮅꮒꭺ	-12.626
ꮧꮝꮣꮪꮣ	-12.626
ꮪᏺꮝꮩꮣꮑꮈ	-12.626
ᏺꭲꮞꭾꮝꮧ	-12.626
ꭲꮳꮣꮩꮅꮳ	-12.626
ꮪꮹꮝꭶꮃ	-12.626
ꭱꮋꮒꮣꮘ	-12.626
ꮎꮧꭶꮄᏺ	-12.626
ꮝꮣꮅꮝꮣᏼꮂꮝ	-12.626
ꭼꮹꮬꮻꮝꮧ	-12.626
ꮝꮖꮫꮕꭲꮝꮣꮑꮈ	-12.626
ꮷꮼꮡꮄ	-12.626
ꮜꭸꭲᏻ	-12.626
ꭴꮒꮜꮃꮣꮕ	-12.626
ꭿꮄᏼꮝ	-12.626
ꮑꮳꮑꮈꮎ	-12.626
ꭰꮵꮑꭲꮝꮤꮕ	-12.626
ꭲꮳꮫꭹꮝꭹ	-12.626
ꭳꮳꮲꮘꮝ	-12.626
ꭴꮩꮅꮝꮩ	-12.626
ꮣꮕꮅᏸꭱ	-12.626
ꭰꮖꭶꮤꮂꮢ	-12.626
ꮵꮒꮥꮳꮫꮑꮀ	-12.626
ꮥꭸꭶꮄꮧ	-12.626
ꭰꭹꮿꭳꮕ	-12.626
ꭰꮝꮫꮧꮝꮧꮝ	-12.626
ꮪꮣꮄꮕꮤꮕ	-12.626
ꮺꮆꮤ	-12.626
ꮄᏺꭱꮈ	-12.626
ꮓꮈꮤꮒꮩ	-12.626
ꭼꮑꮃꭹ	-12.626
ꮡꭶꮈꮩꮧ	-12.626
ꮎꭶꮤꮫ	-12.626
ꭷꮑꮙꮵꮞ	-12.626
ꮣꭸꮵꮔꭺꮻ	-12.626
ꮥꭴꭷꮏꮕ	-12.626
ꭴꮎꮑꮲꮤꮕ	-12.626
ꮧꮖꮣꮼꮝ	-12.626
ꭴꭹꮃꮻꮞ	-12.626
ꮵꮣꭶꮄꮤꮑ	-12.626
ꭲᏻꮣꮅꮝꮣꮑꮧ	-12.626
ꭴꮢꭿᏼ	-12.626
ꭰꭹꮝꮖꮈꭱ	-12.626
ꮖꮅꮵꮩꮕ	-12.626
ꮔꮩꭿᏻꮢ	-12.626
ꭴꮅꮝꮣꮫ	-12.626
ꮪꭹꮈꮸ	-12.626
ᏻꮎꮫꭶꮑ	-12.626
ꭴꮣꮅꮑꭿꮥ	-12.626
ꭸꮵꮝꭶꮕꮴꮂ	-12.626
ꮼꭹᏼꮈ	-12.626
ꮅꮜꮥꮞ	-12.626
ꭲꮳꮣꮯꮜ	-12.626
ꮸꮧꭶꮎꮔꭺ	-12.626
ꭰꮎꮥꮆꮖꮝ	-12.626
ꮓꭶꮰꮎꮝꮫꮎ	-12.626
ꮵꮝꮲꮝ	-12.626
ᏸꮝꮣꮼꮝ	-12.626
ꮪꮎꮒꮟꮒꮩꮈ	-12.626
ᏸꮈꮎꮑꮈ	-12.626
ꭴꮎꮣꮩꮅꮝꮣꮑꮄ	-12.626
ꮷꮓᏼꭺ	-12.626
ꮣꮝꮪꮫ	-12.626
ꭲꮳꮧꮢ	-12.6261
ꮷꮓꭾꮄ	-12.6261
ꭴꮔꮨ	-12.6261
ꮪꮣꮼꭵ	-12.6261
ꮿꮝꭶꭶ	-12.6261
ꭲꮸꮿꮅꮝꭺꮈꮣ	-12.6261
ꭴꮒꮏꮈꭿ	-12.6261
ꮥꭿꮼꮑꮧꮝꭼ	-12.6261
ꮿꮖꮣꮕꮤ	-12.6261
ꭰꮎꮩꭹꮿꮝ	-12.6261
ꭸꭶꮡᏼ	-12.6261
ꮝꭹꭺꭱꮈ	-12.6261
ꭰꮖꮄꮑꮈ	-12.6261
ꮥꭻꭺꮧꮝꭺ	-12.6261
ꮣꮎꮟꮤꮧꮝ	-12.6261
ꭳꭸꮅꮢ	-12.6261
ꮪꮃꮥ	-12.6261
ꮪꮓꭾꭾꮈ	-12.6261
ꭴꭿꮃꮕꭿ	-12.6261
ꭴꮎꮫꮫꮑ	-12.6261
ꮩꭹꮿꮺ	-12.6261
ꭽꮫꭹꮝꭺ	-12.6261
ꭴꮔꮾ	-12.6261
ꮝꭹᏸꮃꮝꮤ	-12.6261
ᏼꭶꮳꭶꮈ	-12.6261
ꭰꮖꮪꮣꮈ	-12.6261
ꮣꭶꮣꮒꮈꭺ	-12.6261
ᏸꮡꮝꮩ	-12.6261
ꭲꮵꭶꮃꭽ	-12.6261
ꭸꮵꮕꭶꮅꮝ	-12.6261
ꭱꭹꮩꮅꮸ	-12.6261
ꭰꮎꮯꮒꭼꮑ	-12.6261
ꭴꮎꮣꮯꮠꮧ	-12.6261
ꮣꮣꮼꮝꭸ	-12.6261
ꮪꮒꮝꮧᏸꮤꮑ	-12.6261
ꭵꮗᏺꮕ	-12.6261
ꮵꮝꭶꭲꭽ	-12.6261
ꮖꮩꮤꮕ	-12.6261
ꮷꮔꭺꮣꮑ	-12.6261
ꮥꭼꮹꮪꮻꮝ	-12.6261
ꮥꮵꭹꮃꮎꮃꮧꮝ	-12.6261
ꭰꭹꮎꮔꭺꮻꮝꮧ	-12.6261
ꮣꮎꮣꮒꮈꭺ	-12.6261
ꮶꭹꭶᏼꮅꭸ	-12.6261
ꮷꮒꮈꮜꮣꮥꮧ	-12.6261
ꮪꮨꮓꭾ	-12.6261
ꮵꭼꭹꭺꮅᏸ	-12.6261
ꮕꮧꭰꮵꮺꮞ	-12.6261
ꮣꭹꭷꮏꮹ	-12.6261
ꮵꮣꮥᏺꮂꮝ	-12.6261
ꭼꮹꮨꮎꮻꮫꭾ	-12.6261
ꮿꭹᏺꮁꮢ	-12.6261
ꭲᏺꭼꮑ	-12.6261
ꭶꭷꭿꮿꮝ	-12.6261
ꭴꮺᏺꮂꮝꭼ	-12.6261
ꮣꭼꮎꮔꭺꮻꮞꮅ	-12.6261
ꮵꮧꭶꮤꭽ	-12.6261
ꮣꮒꮓꭾ	-12.6261
ꮕꮣꮹꮣꮄꮕ	-12.6261
ꮧꭼꮹꮎꮑꮆꮩꮧ	-12.6261
ꮪꮒꮲꮑ	-12.6261
ꭱꮵᏺꭲꮞꮈ	-12.6261
ꮲꭿꮟꮝ	-12.6261
ꮵꭸꮵꮝꮥꮈ	-12.6261
ꭴᏼꮅꮄ	-12.6261
ꭷᏻꭶ	-12.6261
ꮒꮥꮂꮑ	-12.6261
ꮣꭶꮅꮝꭸ	-12.6261
ꮿꮗꮅꮞ	-12.6261
ꭳꮪꮣꮄꮝꮧ	-12.6261
ꮥꭷꮕꮻꮝ	-12.6261
ꭳꭶꮪꮣꮥꮻꮢ	-12.6261
ꮕꭺꭳꮢ	-12.6261
ꭶꮵᏼꮧꮝꭼ	-12.6261
ꭼꮹꮎꮫꭺ	-12.6261
ꮧꮳꮿꮺ	-12.6261
ᏻꮒꮎꮧꮕꮞ	-12.6262
ꭲꮳꮩꭹꮿꮝ	-12.6262
ꮪꮎꮨꮓꮈ	-12.6262
ꭰꮎꮅꮝꮥꮅꮝꭹ	-12.6262
ꮥꭸꮵꮅꭵꮒ	-12.6262
ꭴꮎꮣꮔꮈꮧ	-12.6262
ꮪꮒꭶꮨꮈꮢ	-12.6262
ꭲꮧꮿꮻꮝꭸꮝꮧ	-12.6262
ꮪꮒꮀꮑ	-12.6262
ꭶꮔꮈꮢ	-12.6262
ꮪꭺꮔꮆꮞ	-12.6262
ꭲꮳꮲꮖꮝꭼ	-12.6262
ꮷᏺꮁꭿꮞ	-12.6262
ꮪꮅꮒꮖꮕꮕ	-12.6262
ꮪꮢꮑꮈ	-12.6262
ꮥꭶꮒᏹ	-12.6262
ꮪꮒꭶꮅꮢ	-12.6262
ꮸꭺꭵ	-12.6262
ꭰꮝꮣᏺ	-12.6262
ꭳꭶꮅꮝꮣᏼꮕ	-12.6262
ꮒꮵꮤᏺꭿꮂ	-12.6262
ꮩꮡꮄꭵꭹ	-12.6262
ꮤꮨꮝꮣꮑ	-12.6262
ꮩꮵᏼꭼ	-12.6262
ꭲꮳꮥꮿꮤꮑ	-12.6262
ꮧꭷꮑꮴ	-12.6262
ꮪꮎꮰꮢ	-12.6262
ꭴꮎꭶꮜꮿꮝꮤꮑ	-12.6262
ꮥꭸꭻꭺꮣꮑ	-12.6262
ꮣᏻꮝꮥꮈꭿ	-12.6262
ꮻꮪꮇꮴꮈ	-12.6262
ꭲꮳꮄꮒꮩꮈ	-12.6262
ᏹꮷꮲ	-12.6262
ꭰꮖꮿꮧ	-12.6262
ꭴꮆꮠꮑ	-12.6262
ꮒꮪꮈꮻꮝꮣꮑꮂꮎ	-12.6262
ꮅꮓꭿᏼꭿ	-12.6262
ꭼꮹꮎᏸꮝ	-12.6262
ꮓꭶꮫꮏꮥ	-12.6262
ꭴꮎꮨꮓꮄ	-12.6262
ꮪꮣꮥꮻꮝꮫ	-12.6262
ꮻꮨꭶꮤꮂꮝ	-12.6262
ꭿꮿꮥꮿꮩ	-12.6262
ꭰꮖꮲꮘꮝꮩꮧ	-12.6262
ꭳꭹꭷꮩᏼ	-12.6262
ꭶꮤꮒꮄ	-12.6262
ꭼꮹꮅꮦꮈ	-12.6262
ꮥꮵꮝꮖꮒꭺꮩ	-12.6262
ꮝꭹꮿꮅꭺ	-12.6262
ꮽꮒꮒꮜꮑ	-12.6262
ꭲꮵꮝꭶꮓ	-12.6262
ꭴꭹꮠꮕ	-12.6262
ꭱꮧꮎꮔꭺꮻꮞ	-12.6262
ꭴꮈꮥꮝꮤ	-12.6262
ꭰꮒꭶꮎꭶ	-12.6262
ꮧꭶꮇꮵꮢ	-12.6262
ꭰꭶꮣꭲꮕ	-12.6263
ꮣᏸꮵꮜꮃ	-12.6263
ꭰꮅꮓꭿꮿ	-12.6263
ꭳꭹꮗꮣꮈ	-12.6263
ꮡꮉꮒ	-12.6263
ꭸꭶꮣꮕꮦꮝꭸ	-12.6263
ꭰꮒꭼꭽꮇꮿꮝ	-12.6263
ꮎꮅꮝꮣꮑꮅ	-12.6263
ꮪꮎꮅꭺꮑꮄ	-12.6263
ꭴꮎꮰꭵꮤ	-12.6263
ꭿᏺꭲᏻꮂ	-12.6263
ꮧꮣꮅꮞ	-12.6263
ꮥꭴꮑꮆ	-12.6263
ꭴꮒꮿꮕꭾ	-12.6263
ꮥꮁꭺ	-12.6263
ꮵꮓꭿꮝꮩꮧ	-12.6263
ꭴꮎꮄꮎꮻꮝ	-12.6263
ꭴꮎꮨꮝꮣꮑ	-12.6263
ꭴꮾꮤꮑ	-12.6263
ꮔꮼꮪꮢ	-12.6263
ꭼꮻᏻꮤꮕ	-12.6263
ꮒꮝꮣꮹꮧꮩꭾ	-12.6263
ꮧꮜꮣ	-12.6263
ꮒꮪꮺꭽꮈ	-12.6263
ꭹꮒꮝꮫꮧ	-12.6263
ꭲꮸꮼꮑꮧꮝꭼ	-12.6263
ꭰꮣꮕꮦꮅꮩꮂ	-12.6263
ꮥꭷꮓ	-12.6263
ꮳꮫꮕꭲꮝꮧ	-12.6263
ᏼꭱꮄ	-12.6264
ꭴꮫꮒꮫ	-12.6264
ꭸꮵꮤᏺꮞꮧ	-12.6264
ꮧꭹꮎꮲ	-12.6264
ꭱꮵꭹꮅᏺꭲꮝꮧꮝ	-12.6264
ꮧꮎꮅꮝꮣᏼꮒ	-12.6264
ꮿꭹꮝꮥꮅ	-12.6264
ꭴꮒꮔꭿ	-12.6264
ꮧꮎꮣꮝꭶꭹ	-12.6264
ꭰꮨꮝꮣꮑ	-12.6264
ᏼꭸꮳꮫ	-12.6264
ꮸᏹꮲꮕ	-12.6264
ꮽꮇꭿꮝꮧ	-12.6264
ꭶꮧꮩꭿ	-12.6264
ꮜꮎꮻꮫꭾ	-12.6264
ꮡꮩꮣꮖꮫ	-12.6264
ꭲꮵꮩꮎꭵ	-12.6264
ꭸꮳꮘꮧ	-12.6264
ꮪꮅꮵꮝ	-12.6264
ꭵꮣꮧꮝꮥꮈꮧ	-12.6264
ꭰꮪꭲꮝꮧ	-12.6264
ꭴꮒꮈꮠ	-12.6264
ꮣꮣꮅꮑꭿꮥ	-12.6264
ꮧꮿꮦ	-12.6264
ꭲꮸꮿꮡᏸꮫ	-12.6265
ꮷꮺꮩꮅꮝꮧ	-12.6265
ꮵꮓꭾꭾ	-12.6265
ꭼꮹꮝꮣꮹꮧꮩꭾ	-12.6265
ꭼꮹꮑꮔꮃꮝꮧꮝꭸ	-12.6265
ꮥꮳꮣꭶꮅꮝꮣꮧꮝ	-12.6265
ꮩꭶꮪꮣ	-12.6265
ꭰꮵꭺꮅᏸꮝꭼ	-12.6265
ꮥꭶꮎꮔꭺꮻꮞ	-12.6265
ꭰꮖꮣꮩꮅꮝꮧ	-12.6265
ꭱꮵꮞꭺꭹꮢ	-12.6265
ᏸꮵꭶꮤꭾ	-12.6265
ꮫꮒꮝꮖꮒꭺ	-12.6265
ꮳꭶꮣꮒꮈꭲꮝꮧ	-12.6265
ꮕꮤꮹꮧꮢ	-12.6265
ꮧꮝꭹᏻꭺꮣꮑ	-12.6265
ꮵᏺꭲᏻꮧ	-12.6265
ꭲꮵꮩꮎ	-12.6265
ꮡꮄꮝꭺ	-12.6265
ꭱꭹꮋ	-12.6265
ꮩꭹꮈꮻꮝꮣꮑꮈ	-12.6265
ꮼꮃꮥꮝ	-12.6265
ꭱꮵꭹꮟ	-12.6265
ꭰꮎꮴꮈꮝ	-12.6265
ꭹꮆꮑꭵ	-12.6265
ꭺꭹꮒꮔꭺ	-12.6265
ꭴꮒꮝꭹꮈ	-12.6265
ꮵꮻꭼꮹꮒ	-12.6265
ꮩꮵꮝꮧᏸꮧ	-12.6265
ꮒꮙꮨ	-12.6266
ꭸꮳꮤᏺꮞ	-12.6266
ꮪꮅꮤꮧꮕꮞ	-12.6266
ꭽꮣꮓꭾ	-12.6266
ꮪꮒꮑꮯᏼꮞ	-12.6266
ꭼꮎꮔꭺꮻꮞꮧ	-12.6266
ꭳꮵꮝꮥꮅꮝꭹ	-12.6266
ꮷꮝꭶꮓ	-12.6266
ꮪꮫꮕꭲꮝꮣꮑꮈ	-12.6266
ꮵꭶꮩꭵꮝꭼ	-12.6266
ꮦꮈꮎ	-12.6266
ꮥꮵꮕꭶꮅꮝ	-12.6266
ꭲꮣꮄꮒꮩꮂ	-12.6266
ꭰꮖꮪꮣꮥꮻꮢ	-12.6266
ꭰꮅꮫꮧꮝ	-12.6266
ꭼꮹꭺꮑꮆꭿꮞꮈꭹ	-12.6266
ꮎꮄꮒꮄ	-12.6266
ꭼꮹꮒꮔꭺ	-12.6266
ꮪꮒꭼꮝꭺꮈꮑ	-12.6266
ꮶꭶꮣꮕꮩ	-12.6266
ꮔꮺꭽꮄ	-12.6266
ꮺꮆꮧ	-12.6266
ꭲꮳꮣꮃꮻꮞꮈ	-12.6266
ꮿꮣꮫ	-12.6266
ꮩᏹꮲ	-12.6266
ꭲꮧꭶᏺ	-12.6266
ꭰꮎꮩꮄ	-12.6267
ꮳꮪꮣꮈ	-12.6267
ꮒꮜꮂ	-12.6267
ꮎꮣꮕꭶꮈꭾ	-12.6267
ꮒꭶꭶꮫꮑ	-12.6267
ꮫꮸꮿꮫ	-12.6267
ꮋꮟᏹ	-12.6267
ꭴꮎꮅꮠꮲꭲꮝ	-12.6267
ꮷꮣꮕꮞ	-12.6267
ᏸꭲꮅꮣꮝ	-12.6267
ꭴꮒᏼꮣꮖꮆꭵ	-12.6267
ꭱꮵꮕꮑ	-12.6267
ꮿꮖꮣꮕꮣꮧꮝ	-12.6267
ꭶꮎꮝꮩꭿ	-12.6267
ꮒꮟꮎꮢ	-12.6267
ꭴꮹꮭꭵ	-12.6267
ꭴꮅꮝꭶꮒꮝꮫ	-12.6267
ꭴꮎꮄᏺꭵ	-12.6267
ꭴꮅꭹᏻꮝ	-12.6267
ꭴꮎꮥꮿꮩꮧꮝꭼ	-12.6267
ꭱꮵꮃꮻꮞ	-12.6267
ꭿꮿꮩꮅꭸꮝꮧ	-12.6267
ꭳꮳꮣꮩꮅꮝꮣꮑ	-12.6268
ꮧꭶꮄꮕꮧ	-12.6268
ꮷꮼꮥꮝꮧ	-12.6268
ꭰꮖꮫꮠꮕꭿ	-12.6268
ꮨꮎꮔꭺꮻꮝ	-12.6268
ꭸꮳꮫꭶꮑꮈ	-12.6268
ꭸꮵꮓꮑꮈ	-12.6268
ꮿꮺꮠꮅ	-12.6269
ꭷꮓꭿᏼ	-12.6269
ꮵꮪꮝꮖꮒꭺꮧ	-12.6269
ᏹꭶꮇꮴ	-12.6269
ꮹꮒꭶꮆ	-12.6269
ꮕꮫꭹꮕ	-12.6269
ꭳꭹꮕꮝꮤꮕ	-12.6269
ꭲꮳꮦꮖꮆ	-12.6269
ꮔꮕꮏꮥ	-12.6269
ꭶꮟꮑ	-12.6269
ꭳꭹꮆꮠꮕ	-12.6269
ꮓꮺꮃꮑ	-12.6269
ꭴꮺꮪꮂ	-12.6269
ꭰꮫꭺꮧᏹ	-12.6269
ꭴꮅꮝꭻꮻꮞꮈ	-12.6269
ꭷꮅꮟꮟ	-12.6269
ꮪꮒᏸꮅꮢ	-12.6269
ꮩꮵꮑꮴ	-12.6269
ꭴꮎꮔꭺꮵ	-12.6269
ꭳꭹꮩꮅꮸ	-12.6269
ꮿꭳꮂꮝ	-12.6269
ꭱꮵꮆꮔꭱꮈ	-12.6269
ꭴꮒᏼꮻꮫ	-12.6269
ꮒꮪꮣꮄ	-12.6269
ꮣꮱꮹꮝꮧꮥ	-12.6269
ꮵꭹᏺꭲꮝꮧ	-12.627
ꭴꮹꮕꮴ	-12.627
ꮥꮵᏺꭿꮞꮈ	-12.627
ᏼꮅꮞ	-12.627
ꭶꮎꮔꭺꮻꮝꭼ	-12.627
ꭰꭹꭶꮅꮝꮣꮧꮝ	-12.627
ꭴꮓꮤꮕ	-12.627
ꭼꮿꮕꮣꮧꮝ	-12.627
ꭵꮖꮅꮝꭺꮈꮣꮑ	-12.627
ꭲꮵꭶꮩꭵꮢ	-12.627
ꭰꭼꭽꮇꮿꮝ	-12.627
ꭰꮵꮑꮀ	-12.627
ꮿꮅꮝꮣᏼꮂꮝ	-12.627
ꭰꮅꮓꭾꮧꮝꭸ	-12.6271
ꮷꮎꮪꮅꮝꭺ	-12.6271
ꮹꮰꭰ	-12.6271
ꮾꮣꮵꮿ	-12.6271
ꮳꭶꭸꮕ	-12.6271
ᏺꭹꮎꮅ	-12.6271
ꭴꮣꮹꮧꮝꮫ	-12.6271
ꭲꮵꮒꭼꭼ	-12.6271
ꮫꮫꭾꮈꮑ	-12.6271
ꭶꮼꮒꮢꭿ	-12.6271
ꮷꮒꮔꭺꮸ	-12.6271
ᏸꮶꭲᏻ	-12.6271
ꮣꮣꮪꭺꮣꮑꮂ	-12.6271
ꮣꮶꮃ	-12.6271
ᏺꮵꮆꮢꮝ	-12.6272
ꭲꭶꭴꮨꮝꮫ	-12.6272
ꮿꮎꮣ	-12.6272
ꮷᏺꮁꮞ	-12.6272
ꭲꮸꮎꮔꭺꮻꮞꮈ	-12.6272
ꮪꭲꮝꮤꮑ	-12.6272
ꭴꮒꮿꮈ	-12.6272
ꭴꮩꮿꮕꭿꮥ	-12.6272
ꭴꮎꮪꭹꮢ	-12.6272
ꮳꮣꮞꭺꭹꮝꮧ	-12.6272
ꭴꮎꮣꮅꮣꮝꮧ	-12.6272
ꮶꮃꮋ	-12.6273
ꭼꭵꮝꭼ	-12.6273
ꮪꮒꮝꮪꭲꮢ	-12.6273
ꭺꭿᏻꮂꮝꭼ	-12.6273
ꮒꮣꮝꮖ	-12.6273
ꮽꮎꮨꮓ	-12.6273
ꭹꮃꮎꮃꮧꮝ	-12.6273
ꮪꮓꮥꭿ	-12.6273
ꭶꮵᏺꮝꮩꮣꮑꮧ	-12.6273
ꭳꭶꮲꮘ	-12.6273
ꭴꮎꮬꮟꮫꭱ	-12.6273
ꭴꮎꮔꮼꮝ	-12.6273
ꮣꮎꮅꮒꮖꮕ	-12.6274
ꭴꮒꮦꮈꮕ	-12.6274
ꮪꮻꮲ	-12.6274
ꭼꭸꮻ	-12.6274
ꭴꮣꮕꭶꮈꮧ	-12.6274
ꭼꮹꭼꮝꭺꮈꮑ	-12.6274
ꮯꮝꮖ	-12.6274
ꭱꮳꮅꮵꮩꮑ	-12.6274
ꮇꮿꮝꮧ	-12.6274
ꮪᏺꮠ	-12.6274
ꮣꮎꮣꮝꭶ	-12.6275
ꭲꮝꮩꭿᏻꮂꮝ	-12.6275
ꭴꮎꮅꮝꭺꮈꮩꮧ	-12.6275
ꭱꮵꭷꮅꭲ	-12.6275
ꭴꮺꮕꭱꭾ	-12.6275
ꮩꮅꭼꮎ	-12.6275
ꭰꮿꮩꮅᏻ	-12.6275
ꮒꮏꮈ	-12.6275
ꮅꮂᏺꮅ	-12.6276
ꭴꮎꮦ	-12.6276
ꮪꮎꮳꮕ	-12.6276
ꭷꮓꮂꮝ	-12.6276
ꭲꭹꮎꮔꭺꮻꮞꮈ	-12.6276
ꭴꮒꮒᏼꮫ	-12.6276
ꭼꮹꭶꮜꮿꮝꮥ	-12.6276
ᏹꭸꮵꮞꭺꭹ	-12.6276
ꮳꮣꮓꭾ	-12.6276
ꮣꮎꮰᏹꭾ	-12.6276
ꮽꮺꮩ	-12.6277
ꭲꮵᏸꮳꮝ	-12.6277
ꭴꮒꮝꮙꮅᏹ	-12.6277
ꭶꮣꮑꭲꮝ	-12.6277
ꭴꮝꮖꮓᏼ	-12.6277
ꭴꮝꮧᏹꮫ	-12.6277
ꮧꭶꭻꮝ	-12.6277
ꮳꮿꮒꮝꭸꮝꮧ	-12.6277
ꭼꮼꮞꭾ	-12.6277
ꭴꮎꭻᏼ	-12.6277
ꮪꮅꮵꮩꮑꮈ	-12.6277
ꭰꭶꮅꮝꭺꮈ	-12.6278
ꮧꭶᏺꭹ	-12.6278
ꮪꭼꭽꮇᏸ	-12.6278
ꮼꮑꮤ	-12.6278
ꮶꮣꮋ	-12.6278
ꭴꮴꮈꮕ	-12.6278
ꭶꮒꭹꮢ	-12.6278
ꮃᏺꮞ	-12.6278
ꮪꮥꮃꮝꮤ	-12.6278
ꭴꮒꮔꭺꮻꮞ	-12.6279
ꮪꮒꮑꮴꮈ	-12.6279
ꮪꮒꭷꮕ	-12.6279
ꭰꮣꮕꭶꮈꮧ	-12.6279
ꭸꮵꭺꮅᏸꮝꭸ	-12.6279
ꮎꮫꭶꮑꮄ	-12.6279
ꮷꮝꮖꮓᏼꭺ	-12.6279
ꮷᏼꮲ	-12.6279
ꮥꮵꮎꮻꮝ	-12.628
ꭲꮵꭹꮅᏺꮸ	-12.628
ꭴꮓᏼꮅ	-12.628
ꮼꮿꮑ	-12.628
ꭲꭼꮺꮕ	-12.628
ꮓꭾꮅꮩ	-12.628
ꮥꭷꮑꮴꭾ	-12.628
ꭶꮇꮆꮵꮩꮂ	-12.628
ꭴꮎꮣꮩꮅꮝꮣꮑꮧ	-12.628
ꭺꭿᏻꮩꮧ	-12.6281
ꭳꮳꮣꮑꮯᏼꮝ	-12.6281
ꭴꮒꮅꭵꮒꮈ	-12.6281
ꭴᏼꮅꮞ	-12.6281
ꭼꮼᏹ	-12.6281
ᏹꮩꭶᏸ	-12.6281
ꭿᏻꭿꮿ	-12.6281
ꮒꮣꮒꮺ	-12.6281
ꮵꭸꮀꭲ	-12.6281
ꭴꮬꮕꮣꮥ	-12.6281
ꭴꮎꮅꮹꮫꭱ	-12.6281
ꮵꮵᏺꭲꮞ	-12.6281
ꭺꮖꮅ	-12.6281
ꭳꭶꮅꮝꮥꮈꮩꮧ	-12.6281
ꮨꮈꮙꮩ	-12.6281
ꮽꮑꮩ	-12.6281
ꮒꮳꮔꮃ	-12.6281
ꭹꮝꮖꮈꮤꮕ	-12.6281
ꭴꮡꮅꭺꮸ	-12.6281
ꭰꮵꮓꭾꮈ	-12.6281
ꭰꭶꮼ	-12.6281
ꭴꮒꮯꮜ	-12.6282
ꮵꮒꮥꭼꮑꮀ	-12.6282
ꭴꭶꮜꮿꮝꮧ	-12.6282
ꭴꮅꮒꭺꭿꮝꮧꮝ	-12.6282
ꭲꮳꮅꮹꮫꭱ	-12.6282
ᏼꭶꭶꮅ	-12.6283
ꮧꮵꮿꮺ	-12.6283
ꮳꮫꭶꮑꮈ	-12.6283
ꭰꭹꮈꮙꮧ	-12.6283
ꭴꮕꮥꮸ	-12.6283
ꭺꮁ	-12.6283
ꭷꮩᏼ	-12.6283
ꭲꮸꮼꮑ	-12.6284
ꭴꮄꮒꮩꮈ	-12.6284
ꮵꭼꮙꭿᏻꮂꮝ	-12.6284
ꮥꮨᏹ	-12.6284
ꮳꮪꮣꮃꭱꮧ	-12.6284
ꮪꮒꮑꮢ	-12.6284
ꮎꭶꮩꮝꮥ	-12.6284
ꮪꮒꮒꮖꮨ	-12.6284
ꮉꮅꮤ	-12.6284
ꭲꮵꭷꮅꮳ	-12.6285
ꭼꮹꮑꮑ	-12.6285
ꮹꮫꭿꮈꭹ	-12.6285
ꮵꮥꭶꮆꮔꭾ	-12.6286
ꭶꮅꮝꮣᏼꮂꮝꭼ	-12.6286
ꮣᏻꮼ	-12.6286
ꮎꮩꮣꮖꮝꭼ	-12.6286
ꮣꮤꮄꮢ	-12.6286
ꮝꮥꮈꮩꮧꮝꭸ	-12.6287
ꭴꮒꮝꮥꮈꭿꮩ	-12.6287
ꭼꮿꮫꮑ	-12.6287
ꭴꮒꮇꮵꮈ	-12.6287
ꭼꮹꮧꮭ	-12.6287
ꮿꮒꮎꮔꭺ	-12.6288
ꭲꮿꭶꮫꮑ	-12.6288
ꭶꭸꮳꮥꮆ	-12.6288
ꮒꮪꮎꮅꮒꭼꭼ	-12.6288
ꮃꮫꮕ	-12.6288
ᏹꭸꮵꭺ	-12.6288
ꮪꮆꭸꮢ	-12.6288
ꮥꮈꮂ	-12.6289
ꮩꮷꮒꮕ	-12.6289
ꭴꮒꮝꮪꭲꮢ	-12.6289
ꮜꮩᏸ	-12.6289
ꭴꮓꮈ	-12.6289
ꭰꮎꮣꮩꮅꮝꮣꮑꮂ	-12.6289
ꭴꮺꮿꮤꮕ	-12.6289
ꮒꮅꮩꮈ	-12.6289
ꮻꭶᏺꭹ	-12.6289
ꮵꮵᏺ	-12.6289
ꭰꮄꮘᏹ	-12.629
ꭳꭹꮓꮑꮈ	-12.629
ꮷꮹꮫꮤꮕ	-12.629
ꮩꮣᏺꭶ	-12.629
ꮵꮩꮅꭼꮎ	-12.6291
ꭳꭶꮣꮩꮅꮝ	-12.6291
ꮜꮖꮄꮈ	-12.6291
ꭹꭶꮨᏼ	-12.6291
ꭰꭶꮕꮩ	-12.6291
ꮒꮩꮎꭱ	-12.6291
ꭰꮒꮑꭺ	-12.6291
ꭲꮳꮨꮝꮧꮝ	-12.6292
ꭴꮽꮲ	-12.6292
ꭴꮎꮪꮣꮄꮝꮩꮧ	-12.6292
ꮧꮵꮼꮑ	-12.6292
ꭰꮝꮪꮕ	-12.6292
ꮻꮪꮒꮓꮑ	-12.6293
ꮥꭶꮆꮔꭾ	-12.6293
ꮧꮢꮂꮝꮧ	-12.6293
ꮷꮩꮄꮀꮞ	-12.6293
ꭰꭹꮤꮥ	-12.6293
ꮒꮳꮣꮫꮑ	-12.6293
ꭴꮣꭺꮎꮫ	-12.6293
ꮒꭸꮥꮅ	-12.6293
ꭴꮓꮺꮃꮕ	-12.6294
ꭶꮩꭹꮿꮝꭼ	-12.6294
ꭴꮹꮒꭶꮈ	-12.6294
ꭳꮳꮫꮑ	-12.6294
ꭰꮒꭷꮂꮝ	-12.6294
ꭼꮩꭼ	-12.6295
ꭴꮿꮕꭾ	-12.6295
ꭴꮺꭷꭾ	-12.6295
ꭴꮝꮧᏸꭼ	-12.6295
ꮹꮝꮥꮝꮧ	-12.6295
ꭴꮔꭺꮻꮞ	-12.6296
ꭴꮒꮆꮔꭾ	-12.6296
ꭼꮹꮣꮕꮼꮧ	-12.6296
ꮔꮼꭵꭹ	-12.6296
ꭼᏺꮺꮃꮑ	-12.6296
ꮧꮳꮅꭺ	-12.6296
ꭴꮎꮪꮣꮄꮝꮧ	-12.6296
ꭴꮝꭶꮞꮧᏻ	-12.6296
ꭴꮒꮝꮖꮒꭺꮤꮕ	-12.6296
ꮢꮞꮅ	-12.6296
ꮉꮎꮟ	-12.6296
ꮗꮅꮢ	-12.6296
ꮳꮈꮓꮨ	-12.6297
ꮧᏺꮁꭿꮞ	-12.6297
ꭱꮳꮔꮼ	-12.6297
ꮪꮒꮕꮢꭹ	-12.6297
ꭳꮵꭺꭵ	-12.6297
ꮔꮼꭿᏻ	-12.6298
ꮡꮺ	-12.6298
ꮳꮑꭻ	-12.6298
ꭴꮝꭶꭲꮝꮧ	-12.6298
ꮶꮟꮖ	-12.6298
ꮔᏼꮈ	-12.6298
ꮪꭼꭽꮇᏼ	-12.6299
ᏻꮓꮞ	-12.6299
ꭹᏺꮁꮞꮅ	-12.6299
ꮻꮧꭸꭶ	-12.6299
ꮵᏺꮁ	-12.6299
ꮷꮔꭺꮸ	-12.6299
ꮒꮪꮓꭿᏻ	-12.63
ꭹꮃꭿᏻ	-12.63
ᏹꮳꮞꮅ	-12.6301
ꭰꭹꭺꮹꮨꮝ	-12.6301
ꮥꭴꮒꮈꮻꮝꮣꮑ	-12.6301
ꮥꮳꮅꮝꮣᏼꮂ	-12.6301
ꮧꭸꮵᏺ	-12.6301
ꮥꭸꭶꮼꭵ	-12.6301
ꭿꮝꭶꭸꮝꮧ	-12.6302
ꭼꮹꮑꮴꮈ	-12.6302
ꮅꮫꮤꮒ	-12.6302
ꮣꮪꮣꮤ	-12.6302
ꮂꮝꮤꮕ	-12.6302
ꮳꮣꮃꮻꮞ	-12.6303
ꭼꮞꮈ	-12.6303
ꮥꭽꮥ	-12.6303
ꮝꭹꮫꮤꮒ	-12.6304
ꭼꮹꮝꮣꮹꮧꮞ	-12.6304
ꮖꮩꮃ	-12.6304
ꮔꮬ	-12.6304
ꮹꮥꭶ	-12.6304
ꮣꮡᏼ	-12.6304
ꮻꭸꭵ	-12.6305
ꭴꮎꮔꭺꮴ	-12.6305
ꮪꮎꮪꮻꮝꮫ	-12.6305
ꭰꮒꮆꮝꭼ	-12.6305
ꭲꮳꮣꮑꮈ	-12.6307
ꭴꮣꮅꮝꭺꮈꮣꮑ	-12.6307
ꭴꮒꮤꮃ	-12.6307
ꭴᏺꮝꮩꮣꮑ	-12.6307
ꭰꭹꮅᏼ	-12.6307
ᏺꭹꭺ	-12.6307
ꮿꮡꮅ	-12.6308
ᏼꮣꮸ	-12.6308
ꭳꮳꮫꭶ	-12.631
ꭴꮒꮝꭶꮈ	-12.631
ꮔꮎꮣꮄ	-12.6311
ꭺꮔꮆꭿꮝꮧ	-12.6311
ꮷꮑꭲꮝꮤꮑ	-12.6311
ꭱꭶꭻᏼꮣꮑꮧ	-12.6311
ꭰꮎꮅꮓꭾꮝꭼ	-12.6311
ꮒꭼꮹꮫꮑ	-12.6312
ꭴᏼꮤꮑ	-12.6312
ꭴꮒꭶꮅꮝꮣꮧꮝ	-12.6313
ꭲꮵꮩꮅꮝꮧ	-12.6313
ꮥꭴᏺꭿꮞꮄ	-12.6313
ꭹꮎꮅꮓꭾꮧ	-12.6313
ꭰꮝꭶꭲꮂ	-12.6313
ꮳꮑꮙꮴ	-12.6314
ꮥꮧꭺ	-12.6316
ꮵᏺꭿꮝꮧꮝ	-12.6316
ꮪꮓᏼꭼ	-12.6316
ꮣꮹꮫꭿ	-12.6317
ꮳꮯᏼꮧ	-12.6318
ꭴꮺꮯꮜ	-12.6318
ꮳꭹꮅᏺꭲꮝꮧ	-12.6318
ꮧꭼꮹꮺꮞ	-12.6318
ꭴꮎꮅꮝꮥ	-12.6318
ꮸꮿꮅꭺꮑ	-12.6319
ꭹꮿꮕꭱ	-12.632
ꭰꮒꮑꮙꮝ	-12.632
ꭲꮳꮣꮃ	-12.632
ꭶꮨꮎꮻ	-12.632
ꮖꮯ	-12.6321
ꮖꮅꮓꭾꮧꮝ	-12.6321
ꮧꮳꮆ	-12.6321
ꮹꮧꮤ	-12.6322
ꮩꭶꮣꮒꮈꮸ	-12.6322
ꮄꮋ	-12.6322
ꭴꮎꮢꮒ	-12.6323
ꮓꮯꮝꮤꮕ	-12.6323
ꭲꭼꮅꮝ	-12.6323
ꭰꭹꮎꮔꭺꮻꮞ	-12.6323
ꭴꮎꭹꮈꮤ	-12.6325
ꮷꮒꮑꮴ	-12.6326
ꮪꮎꮯᏼ	-12.6326
ꮽꮥꮅꮸ	-12.6326
ꭰꮎꮣꮫꭵꮝ	-12.6327
ꭱꮵꭺꭵ	-12.6327
ꭰꮎꮅꮝꮣᏼꮧꮝꭺ	-12.6327
ᏹꮩꭸꮸ	-12.6327
ꮖꮣꮒ	-12.6327
ꭴꮈꭾ	-12.6327
ꮒꭶꮹ	-12.6328
ꮷꮹꮕ	-12.6328
ꮒꭽꮇꭹꮝ	-12.6328
ꭴꮈꮢ	-12.6328
ꮥꮵꮝꮣꮹꮧꮢ	-12.633
ꭸꭶꮫꮕꭲꮝ	-12.633
ꮣꮈꭵꮝ	-12.633
ꮷꭶꮄꮕ	-12.6331
ꮝꭹꮣꮝꭼ	-12.6331
ꭲꮵꮝꭶꭹ	-12.6332
ꭼᏸꮅꮞ	-12.6332
ꭳꭶꮳꭲ	-12.6332
ꭲꭹꭹꮅᏺꮴ	-12.6332
ꮞꮩꭹ	-12.6333
ꮑꮕꮢꭹ	-12.6333
ꮣꮳꮣꮕ	-12.6334
ꮝꮨᏸꭼ	-12.6334
ꮪꮒꮦꮈ	-12.6334
ꭲꮸꮑꭲꮝꮣ	-12.6335
ꭲꮸꮿꮣꮕꮣꮧꮝ	-12.6335
ꭸꭶꮞꮈ	-12.6335
ꭵꭹꮓꮑꮈ	-12.6335
ꭴꮝꮣᏹꮥ	-12.6337
ꭴꮔꭺꮻꮢ	-12.6338
ꭴꮎꮅꮓꭾꮈ	-12.6339
ꮪꮒꮕꮑ	-12.634
ꭱꮝꮥ	-12.634
ꭰꭼꮣꮑ	-12.6341
ꮵꭼꮿ	-12.6341
ᏹꭶꭿꮝ	-12.6343
ꮩꮩᏹ	-12.6343
ꭴꮳꭱ	-12.6344
ꮥꮵꮿꮑꮆ	-12.6345
ꮳꭹᏸꮈ	-12.6345
ꮣꭷꮒꮝꭸ	-12.6345
ꮪꮒꮝꮧᏸ	-12.6347
ꭱꮵꮓꮑ	-12.6347
ꭼꮹꮈꮈ	-12.6348
ꮥꭿꭶꮤꭽ	-12.6348
ꭴꭹꮵ	-12.6349
ꭲꮿꮙꮅꮝ	-12.635
ꮥꮵꮔꭺꮻꮝꭼ	-12.6353
ꭲꭹꭹꮅᏺꭲꮝꮧ	-12.6354
ꮿꮎꭶꮤꮂ	-12.6356
ꭼꮹꮎꮫꮣ	-12.6356
ꮒꮅᏸꮧꮝꭼ	-12.6356
ꮝꭹꮿꮅꭱꮅꮝ	-12.6356
ᏸꮶ	-12.6358
ꮖꮧꮕ	-12.6358
ꮭꮧꮝꮤꮒꮩ	-12.6358
ꮑꮆꮤꮑ	-12.636
ꮣꮨꮎꭵ	-12.636
ꮣꮒꮯꮟꮝ	-12.636
ꮳꮡᏸꮢ	-12.6362
ꮥꮵꮈꮻꮝꮣꮑꮈ	-12.6362
ꮑꮯᏼꮝꮣ	-12.6363
ꭰꮒꮹꮫꮧ	-12.6363
ꭴꮣꮩꮅꮝꮩꮧ	-12.6364
ꮵᏼꮧꮝꭸ	-12.6364
ꮩꭹꮿꮺꮵꮩ	-12.6365
ꮷꮅꭺꮑ	-12.6365
ꭴꮇꭿꮝꮣꮑ	-12.6366
ꭰꮒꮝꭶꮕꭼ	-12.6366
ꮹꮞꮕ	-12.6367
ꮣꭹꮅᏺꭲꮝ	-12.6367
ꮵꮥꮵᏼ	-12.6368
ꮥꮳꮣꮰꮂ	-12.6369
ꮥꮵꭶꮨꮈꮢ	-12.637
ꮅꮅꮈ	-12.637
ꮻꭹᏼ	-12.6373
ꮣꭶꮈꮝ	-12.6375
ꭳꭹꮓꭾꮈ	-12.6376
ꭲꮳꮦ	-12.6377
ꭰꮖꮔꮼ	-12.6377
ꮒꭸꮵꮺꮞꮂ	-12.6377
ꭱꮩꭿᏻ	-12.6378
ꭳꭶꮩꮄꮀꮢ	-12.6379
ꭳꭶꮧꮤ	-12.6379
ꭰꮎꮪꮣ	-12.638
ꭴꭺꮅᏸꮝꭸ	-12.638
ꭴꮅꮝꮥꮝꮤꮑ	-12.6381
ꭳꭶꮪꮣ	-12.6382
ꮣꮣꮄꮤꮕ	-12.6383
ꮥꮵꭹꮅᏺꭲꮝꮧꮝ	-12.6389
ꮵꭷꮏꮹꮧꮣꮝꮧ	-12.6391
ꭶꮤꮒꮈ	-12.6392
ꭶꮄꮒꮩꮂ	-12.6392
ꭴꮑꮅꮴ	-12.6393
ꭴꭶꮓꮧ	-12.6395
ꭴꮓꮲꮑ	-12.6396
ꮻꮥꮣ	-12.6396
ꭲꮵꮝꮖꮧ	-12.6398
ꮥꭶꮎᏸ	-12.6401
ꮣꮒꮝꭻꮣꮫ	-12.6402
ꮷꮒᏸꮈꮠ	-12.6402
ꮵꮿꮣꮕꮦꮝ	-12.6402
ꭺꭿꮝꮣꮑꭿ	-12.6402
ꮪꮅꮝꮣᏹꮧꮝ	-12.6405
ꮪꮎꮫꮑ	-12.6406
ꮳꮲꭼ	-12.6407
ꮳꮬꮕꮣꮥ	-12.6407
ꮸꮧꭷ	-12.6409
ꮒꮤꮻ	-12.6411
ᏼꭶꮕ	-12.6412
ꭵꭹꮓꭾ	-12.6412
ꭰꮒꮓꮧꮝꭼ	-12.6413
ꭴꮎꭶꮩꮝꮤꮕ	-12.6413
ꮪꮕꮻꮝꮤꮕ	-12.6414
ꮢꮝꮤꮕ	-12.6415
ꭹꭹꮅᏺꭲꮝꮧꮝ	-12.6415
ꮩꮴꮅꮞ	-12.6415
ꭰꮩꮒꮝꭼ	-12.6418
ꮵꮝꭶꮎꭿᏻ	-12.6419
ꭸꮵꮪꭲꮝꮣꮑꮄ	-12.6419
ꭴꮣꭼꮹꮣꮄ	-12.642
ꮲꮤꮝ	-12.642
ꮒꮥꭶꮺꮞꮀ	-12.6421
ꮷꮆꮢ	-12.6423
ᏼꭸꮸ	-12.6423
ꭲꮳꮡꮅꮝ	-12.6423
ꮪꮣꮣꮄ	-12.6423
ꮷꮎꮣꮱꭼ	-12.6426
ꮇꮂꮝ	-12.6426
ꮎꭺꮂꮝꮧꮝ	-12.6426
ꮒꮪꮕꮑꮄ	-12.6426
ꮥꭻꭺꮣꮑꮈ	-12.6427
ꭸꭶꮣꭲꮕ	-12.6428
ꭴꮒꮓꭾꮅꮩ	-12.6429
ꮪꮎꮥᏺ	-12.6429
ꭲᏻꮎꮅꮝꮣꮑ	-12.643
ꭲꮵꮇꮴꮂ	-12.6431
ꮧꮄꮂꮝꭼ	-12.6434
ꮒꮥꮸꮑꮈ	-12.6436
ꭰꮒꮂꮝꭸ	-12.6437
ꭼꮽꭿꮝꮧꮝꭸ	-12.6437
ꭴꮎꮣꮕꮣꮧꮝꮧ	-12.6438
ꭴꮩꮃꮕꮝ	-12.6438
ꭴꭺꮈ	-12.644
ꮪꮒꮒᏼꮂ	-12.6441
ꭴꮇꭿꮝ	-12.6441
ꭰꮎꮩꮄꮀꮝꭼ	-12.6442
ꭳꮳꮩꮄꮀ	-12.6445
ꮧꮥꮒ	-12.6446
ꮪꮕꭶꮈꭱ	-12.6446
ꮷꮣꮕꮦꮄ	-12.6446
ꭴꮔꮼꭵ	-12.6447
ꮇꮵꮜꮑ	-12.645
ꮕꮫꮒꮺ	-12.6453
ꭶꮵᏻꭺꮣꮑ	-12.6453
ꮵᏸꮜꮫ	-12.6456
ꮥꭴꮒꮈ	-12.6457
ꮥꮳꭷꮒꮝ	-12.6458
ꭰꮒꮇꭸ	-12.6459
ꮑꮯᏼꭱꮧ	-12.646
ꭰꭹꮓꮑꮈ	-12.6461
ꭴꮑꮃꮧꮝꮧꮝꭼ	-12.6463
ꮵꮿꮲꮘ	-12.6463
ꭼꮹꮒᏹꮅꮩ	-12.6464
ᏹꮪꮓꮥ	-12.6465
ꮼꮑꮧꮝꭼ	-12.6466
ꭴꮣꮕꮤꮹꮥ	-12.6466
ꮕꭸꮻ	-12.6468
ꭼꮿꮨꮓ	-12.6471
ꮪꮒᏼꮤ	-12.6473
ꭱꮩꮀ	-12.6474
ꭰꮵꮔꭺꮻꮢ	-12.6476
ꭹꭺꮑꮈ	-12.6482
ꭲꮵꮝꮣꮹꮧ	-12.6486
ꮣꮅꮑꭿꮥꭾ	-12.6488
ꮻꮴꮅꭿꮝ	-12.6489
ꭲꮣꮣꮕꮦꮝ	-12.6491
ꮪᏺꮝꮤ	-12.6493
ꮜꮃꮑꮈ	-12.6498
ꮥꭸꮵꭲꮝ	-12.65
ꮣꮪꮣꮃꭱ	-12.6503
ꮳꮅꮝꮥꮈꮧ	-12.6504
ꭹꮔꮈꮕ	-12.6504
ꮒꭼꮹꮝꮥ	-12.6506
ꭻᏼꭱꮂ	-12.6512
ꮬꮕꮣꮧꮝꭸ	-12.6512
ꮸꮠꮘꮈ	-12.6513
ꮣꮣꮯꮜꮑ	-12.6513
ꭷꮑꮸ	-12.6515
ꮧꮣꮺꮝ	-12.6515
ꮟꮒꮩꮂ	-12.6515
ꮳꮣꮕꮦꮈ	-12.6515
ꭳꭹꭺꮑ	-12.6521
]	-13.5469
?	-13.6024
\	-13.6259
ꮚ	-14.5599
:	-14.56
)	-14.5601
!	-14.5602
ꮛ	-14.5603
