<pad>	0
</s>	0
<unk>	0
,	-2.90771
▁och	-3.43533
.	-3.68635
s	-3.98316
▁	-4.28499
▁till	-4.28532
▁i	-4.29946
▁som	-4.47119
▁att	-4.60031
▁han	-4.6042
a	-4.61003
▁de	-4.64918
t	-4.65014
▁för	-4.68793
;	-4.69606
h	-4.76154
▁så	-4.76795
:	-4.85079
r	-4.86763
en	-4.89796
▁skall	-4.90923
▁jag	-4.92594
▁det	-4.93528
▁en	-4.93562
▁Oc	-4.9418
▁på	-4.97602
▁icke	-4.9949
▁av	-5.03885
▁är	-5.04155
▁den	-5.0735
▁med	-5.08438
▁har	-5.1619
▁dem	-5.19468
n	-5.20146
▁honom	-5.20395
▁»	-5.21511
▁du	-5.21713
de	-5.34679
er	-5.43033
▁HERREN	-5.43602
▁I	-5.44555
▁mig	-5.47614
▁var	-5.53657
▁dig	-5.53719
d	-5.53754
▁sig	-5.53871
e	-5.5753
▁sade	-5.58377
.»	-5.6231
▁hade	-5.64784
▁eder	-5.65333
▁upp	-5.6575
som	-5.70293
▁om	-5.71546
▁hans	-5.76004
▁då	-5.78196
na	-5.79401
g	-5.81832
▁sin	-5.87308
▁Men	-5.87433
▁över	-5.88143
▁Gud	-5.89234
▁alla	-5.90795
ar	-5.93664
▁åt	-5.9412
▁ut	-5.97348
▁ett	-5.99213
▁från	-5.99425
▁din	-6.01003
l	-6.02244
▁min	-6.03673
▁nu	-6.04427
et	-6.05859
▁man	-6.074
▁efter	-6.10083
k	-6.10843
▁när	-6.11924
o	-6.13124
▁vi	-6.15829
▁Då	-6.16405
v	-6.17254
▁skola	-6.18435
▁vad	-6.19041
▁där	-6.19334
▁ty	-6.22307
▁hava	-6.23824
m	-6.26932
▁men	-6.28835
▁mot	-6.31406
▁son	-6.31772
▁barn	-6.35361
▁deras	-6.35362
▁sina	-6.36153
▁allt	-6.3807
?	-6.38501
▁vid	-6.39604
▁detta	-6.40754
▁HERRENS	-6.44324
i	-6.46786
▁oss	-6.48086
▁hus	-6.48357
▁in	-6.51146
▁ock	-6.53172
f	-6.53945
▁eller	-6.55268
▁Israels	-6.55358
or	-6.55719
▁vara	-6.56709
b	-6.56972
▁folk	-6.57701
▁fram	-6.57771
▁Ty	-6.5791
▁säger	-6.59436
▁mitt	-6.61963
▁Så	-6.62159
▁sitt	-6.63056
▁må	-6.65278
▁vill	-6.65281
▁göra	-6.65565
▁skulle	-6.66539
▁äro	-6.66904
st	-6.67064
▁land	-6.67211
▁komma	-6.67303
it	-6.68156
▁genom	-6.69213
▁bliva	-6.69509
▁dina	-6.70203
▁se	-6.71545
▁under	-6.72315
▁någon	-6.74276
an	-6.74463
▁konung	-6.75065
▁ned	-6.7513
▁utan	-6.78253
å	-6.78536
da	-6.78669
▁voro	-6.79106
▁få	-6.79309
tt	-6.80362
y	-6.81082
▁gå	-6.81995
▁dess	-6.82078
▁bort	-6.83079
▁konungen	-6.84539
▁ord	-6.84543
as	-6.86074
än	-6.87859
▁s	-6.87949
ra	-6.89088
▁hand	-6.89176
▁hon	-6.89512
▁be	-6.89917
▁folket	-6.90309
▁kom	-6.9053
▁ur	-6.90798
ta	-6.90962
▁Han	-6.91272
▁hela	-6.91989
p	-6.92261
▁skolen	-6.92933
▁dag	-6.9373
▁ditt	-6.9376
▁inför	-6.94168
el	-6.9515
▁andra	-6.97173
▁blev	-6.97752
▁ifrån	-6.97905
▁Israel	-6.98237
ade	-6.98322
▁svarade	-6.99691
▁Guds	-6.99767
▁När	-7.01
u	-7.02229
▁mina	-7.0237
▁tjänare	-7.024
▁jorden	-7.02903
▁söner	-7.03058
▁ingen	-7.03665
j	-7.04215
▁än	-7.05799
▁ju	-7.05918
re	-7.05926
▁dessa	-7.06386
▁bland	-7.07598
▁David	-7.08581
▁giva	-7.0895
▁k	-7.09123
▁Jag	-7.09176
▁något	-7.10235
▁gick	-7.10781
▁här	-7.11211
▁Juda	-7.11387
▁låt	-7.12397
?»	-7.12502
▁sedan	-7.12717
▁--	-7.13258
▁De	-7.13525
▁Ja	-7.13551
het	-7.14207
▁'	-7.14755
es	-7.15303
▁gjorde	-7.15645
ja	-7.15807
la	-7.16795
▁kan	-7.1787
▁blivit	-7.18852
▁män	-7.18947
▁Jerusalem	-7.18963
▁kommer	-7.19062
▁g	-7.19113
▁namn	-7.19218
▁Jesus	-7.19631
▁tid	-7.20017
▁henne	-7.20382
-	-7.20725
▁t	-7.209
▁lät	-7.24239
▁S	-7.24465
▁mer	-7.24698
edra	-7.26103
▁säga	-7.26211
ka	-7.26232
at	-7.27633
▁ej	-7.27983
▁Mose	-7.28022
▁Se	-7.2826
sk	-7.28906
are	-7.29143
▁får	-7.3028
▁Herren	-7.30303
▁därför	-7.30325
▁två	-7.3089
arna	-7.30969
▁h	-7.31465
▁f	-7.31925
▁själv	-7.32412
▁gjort	-7.32521
▁vår	-7.32659
▁väl	-7.32899
▁A	-7.33484
!	-7.33696
▁ögon	-7.35941
am	-7.36068
on	-7.37293
▁denna	-7.37953
om	-7.39267
▁landet	-7.3992
▁fader	-7.40477
▁hos	-7.41001
▁tillbaka	-7.42045
▁åter	-7.42575
▁b	-7.43511
▁gav	-7.44337
us	-7.44949
▁år	-7.45473
▁låta	-7.45595
ga	-7.45598
▁tog	-7.4563
▁himmelen	-7.47171
▁Om	-7.47286
▁huru	-7.47377
▁Egypten	-7.47877
▁hundra	-7.48553
▁ja	-7.48657
▁dagen	-7.49041
al	-7.4919
▁taga	-7.49672
ing	-7.49789
▁haven	-7.49968
▁hjärta	-7.49986
▁denne	-7.50799
▁ansikte	-7.5231
den	-7.52391
▁bo	-7.52481
▁gör	-7.52652
▁väg	-7.5267
▁ännu	-7.52836
lä	-7.52854
▁intet	-7.539
ri	-7.55023
▁kommit	-7.55547
'	-7.56313
▁ända	-7.56625
▁liv	-7.57657
▁bröder	-7.57754
te	-7.58136
▁höra	-7.5816
▁o	-7.58509
öd	-7.58861
▁rätt	-7.59007
▁tusen	-7.60483
▁bliver	-7.61127
▁sju	-7.61304
▁stor	-7.61785
▁åstad	-7.62972
ning	-7.6299
ande	-7.63233
▁Den	-7.63269
äck	-7.63743
un	-7.64098
▁Du	-7.64413
▁kunna	-7.64734
▁stå	-7.66231
▁an	-7.67518
▁emot	-7.67961
▁många	-7.68382
else	-7.68501
▁skull	-7.68698
▁äta	-7.69274
▁staden	-7.69275
▁fick	-7.69398
▁sk	-7.70209
▁också	-7.70427
för	-7.70442
▁talade	-7.71009
▁H	-7.71015
▁omkring	-7.7126
ad	-7.71542
in	-7.72443
liga	-7.72921
ens	-7.73111
erna	-7.73601
▁tro	-7.73696
▁kommo	-7.73822
▁hålla	-7.74205
▁st	-7.74417
▁kvar	-7.75399
▁dagar	-7.75472
▁lika	-7.75647
▁tre	-7.76652
Jag	-7.76854
▁går	-7.76923
va	-7.78023
▁hustru	-7.78349
▁vatten	-7.78922
▁mycket	-7.7915
ut	-7.79572
▁tala	-7.7958
li	-7.79939
der	-7.80265
▁måste	-7.81131
▁sände	-7.81222
ma	-7.81271
▁T	-7.81789
▁vilken	-7.8216
▁p	-7.82635
▁all	-7.83062
▁människor	-7.83388
▁l	-7.84109
▁guld	-7.84538
▁såg	-7.84921
▁döda	-7.85099
▁sagt	-7.85505
▁B	-7.85555
▁sp	-7.85876
▁hög	-7.86381
▁G	-7.8679
▁givit	-7.87856
im	-7.88459
ur	-7.89126
▁förde	-7.89471
is	-7.9046
▁hörde	-7.90508
▁Sedan	-7.90803
▁herre	-7.91258
▁nåd	-7.91399
▁stad	-7.9163
rän	-7.91652
▁synd	-7.91955
▁E	-7.92037
ns	-7.92239
ken	-7.92346
▁vare	-7.92411
os	-7.93045
nen	-7.93543
▁broder	-7.93695
▁Därför	-7.93895
▁dö	-7.93906
▁För	-7.93974
sta	-7.94608
▁hennes	-7.94852
▁eld	-7.94923
ig	-7.94996
▁stod	-7.95992
▁Därefter	-7.96005
▁hör	-7.9624
▁allenast	-7.96306
▁stora	-7.96594
ligt	-7.96984
▁dit	-7.9704
▁HERRE	-7.97156
▁heller	-7.97908
pp	-7.98464
ll	-7.98537
▁städer	-7.9856
▁fäder	-7.99374
▁v	-7.99549
▁vilka	-7.99574
be	-7.99756
▁ville	-7.99785
▁vände	-7.9991
▁samma	-8.00628
▁både	-8.00982
▁prästen	-8.0116
gen	-8.01384
▁vilja	-8.01837
nde	-8.0184
▁födde	-8.02016
▁finnes	-8.02129
▁Aron	-8.02143
▁våra	-8.0239
▁råd	-8.02699
▁blod	-8.02748
▁dock	-8.03278
▁mun	-8.0387
des	-8.04013
▁sätt	-8.0519
▁m	-8.05319
▁röst	-8.05626
▁kunde	-8.05627
▁Det	-8.05752
▁gott	-8.05925
▁vin	-8.06219
▁huvud	-8.06219
▁plats	-8.06555
▁P	-8.06671
▁själ	-8.07175
▁ande	-8.07984
ste	-8.08037
ot	-8.08111
▁R	-8.0817
▁Saul	-8.08297
.'	-8.08346
▁själva	-8.08366
iga	-8.08588
▁frukt	-8.08743
▁moder	-8.08761
▁bud	-8.08953
▁fast	-8.09124
▁svärd	-8.09334
▁händer	-8.09424
▁tron	-8.09633
dan	-8.10126
▁Kristus	-8.10498
▁vet	-8.10515
▁varit	-8.11226
▁bröd	-8.11318
▁En	-8.1144
▁lag	-8.11498
jämte	-8.11754
▁blevo	-8.118
▁gingo	-8.12071
▁nämligen	-8.12388
▁hem	-8.13046
▁satte	-8.13145
ul	-8.13475
▁stam	-8.14086
▁framför	-8.14206
▁heliga	-8.14297
▁Detta	-8.14417
▁lik	-8.1447
ne	-8.15651
ter	-8.15897
▁Jakob	-8.16393
▁havet	-8.16673
▁veta	-8.16768
▁tag	-8.17267
▁Salomo	-8.17275
▁for	-8.17848
▁rättfärdighet	-8.17977
▁annan	-8.18286
ng	-8.19393
ten	-8.19497
uk	-8.19878
▁fly	-8.19975
▁giver	-8.20264
ol	-8.20648
▁dotter	-8.20671
▁båda	-8.21017
▁makt	-8.21023
▁ont	-8.21058
▁sidan	-8.21227
▁bära	-8.22173
▁fått	-8.22561
▁förbund	-8.22765
▁vrede	-8.22993
▁tiden	-8.23015
▁draga	-8.23025
▁K	-8.23597
▁silver	-8.23749
▁rike	-8.24091
▁konungens	-8.25914
▁hit	-8.2601
▁undan	-8.26017
▁frågade	-8.26786
▁onda	-8.27743
▁mannen	-8.27798
▁rädda	-8.27829
▁På	-8.27969
▁kläder	-8.28228
em	-8.28325
var	-8.28445
▁leva	-8.28572
▁Sebaot	-8.28574
▁före	-8.28934
▁kraft	-8.28949
▁varandra	-8.2895
lig	-8.29352
▁offra	-8.29579
▁drog	-8.29852
▁Ma	-8.30497
▁arvedel	-8.30843
▁verk	-8.31032
▁berg	-8.31102
▁fem	-8.31253
igt	-8.31277
▁hjälp	-8.3131
▁människa	-8.31453
▁fyra	-8.31867
▁Där	-8.31946
▁slag	-8.32048
▁drag	-8.32889
lag	-8.33208
▁därefter	-8.33605
år	-8.33733
▁lade	-8.33858
nas	-8.33991
▁gärningar	-8.3403
▁Si	-8.34272
▁Be	-8.34698
▁strid	-8.34719
»,	-8.34749
ren	-8.3492
▁föra	-8.35077
▁tjugu	-8.3514
▁sådant	-8.35254
▁vägen	-8.3528
▁Var	-8.35334
▁konungar	-8.3553
▁öknen	-8.3554
ni	-8.35839
Vad	-8.36219
▁talat	-8.36892
▁fråga	-8.3718
▁kött	-8.37289
»	-8.37502
▁Josef	-8.37565
▁förkunna	-8.37565
man	-8.3761
▁vidare	-8.37665
dom	-8.37891
▁djur	-8.38055
od	-8.38083
▁prästerna	-8.38571
▁vem	-8.38841
▁fötter	-8.39297
▁vända	-8.39315
▁tjäna	-8.39322
▁fiender	-8.39528
▁filistéerna	-8.40057
▁dom	-8.40085
▁marken	-8.40422
▁Abraham	-8.40469
▁döttrar	-8.40469
▁huset	-8.40654
▁L	-8.40802
lar	-8.40901
um	-8.40928
▁kalla	-8.41063
▁sådan	-8.41362
ab	-8.41495
Du	-8.41677
len	-8.41678
▁tillsammans	-8.41741
▁sätta	-8.41828
tag	-8.42063
▁några	-8.42168
▁runt	-8.42171
▁härlighet	-8.42241
▁står	-8.42579
mma	-8.42839
▁hämta	-8.43028
▁säd	-8.43028
▁glädje	-8.43031
▁alnar	-8.431
▁död	-8.43364
▁mellan	-8.43461
▁sönder	-8.43461
▁full	-8.4376
▁Babel	-8.43896
▁bjudit	-8.43926
▁hjärtan	-8.44108
▁länge	-8.44771
▁brännoffer	-8.45212
dra	-8.45484
▁sten	-8.45541
▁släkte	-8.45546
▁bodde	-8.4566
V	-8.45681
▁F	-8.45776
▁Davids	-8.45909
▁döden	-8.45955
▁kallade	-8.45989
▁sak	-8.46192
▁helig	-8.46469
▁tio	-8.4661
▁lägga	-8.46624
▁mån	-8.46732
Se	-8.46801
▁gudar	-8.46903
▁skaffa	-8.47444
▁visa	-8.47499
▁oren	-8.47562
S	-8.47921
▁satt	-8.47987
▁altaret	-8.48117
▁barns	-8.48119
▁igen	-8.48187
!»	-8.48504
yck	-8.48731
▁Josua	-8.49266
▁världen	-8.49266
▁ro	-8.49457
▁Herre	-8.49481
▁Dessa	-8.49728
▁leviterna	-8.50655
▁kor	-8.50759
▁ropade	-8.50938
▁släkt	-8.51146
▁gång	-8.5115
▁god	-8.51174
▁äldste	-8.51592
▁kvinna	-8.5166
äll	-8.5174
▁tjänst	-8.51824
▁del	-8.51827
le	-8.52165
▁le	-8.52219
Så	-8.52222
▁fört	-8.52296
orna	-8.52303
▁kvinnor	-8.52538
ud	-8.5261
▁O	-8.52611
▁dricka	-8.52923
▁ske	-8.53005
▁natten	-8.53022
▁kärlek	-8.53503
▁tal	-8.5351
▁offer	-8.53899
ligen	-8.54492
▁gått	-8.54959
▁folken	-8.55071
▁Jo	-8.55298
▁Vad	-8.55637
▁kropp	-8.56134
▁syn	-8.56225
▁fingo	-8.56413
▁därav	-8.56564
▁led	-8.56686
mar	-8.56785
ord	-8.5688
▁alltså	-8.56926
▁arbete	-8.57053
låt	-8.57057
▁fri	-8.57137
▁Farao	-8.57527
▁Bet	-8.57559
▁Vi	-8.57615
▁träd	-8.58004
▁Jordan	-8.58407
▁medan	-8.58467
▁arm	-8.58819
▁låg	-8.59439
▁evig	-8.59475
▁redan	-8.59502
▁därpå	-8.59534
▁månaden	-8.59629
kor	-8.59738
▁ed	-8.60147
ställ	-8.60199
fall	-8.60619
▁bön	-8.60958
c	-8.61049
träd	-8.61081
▁vän	-8.61638
M	-8.61861
▁furstar	-8.61997
▁första	-8.62169
▁därtill	-8.62183
▁skam	-8.62237
▁hört	-8.62281
stod	-8.62435
▁Je	-8.62508
▁goda	-8.62649
bland	-8.62741
▁våld	-8.63047
▁frid	-8.64481
I	-8.64877
▁sett	-8.6495
▁ären	-8.64955
iten	-8.65007
vis	-8.65026
▁giv	-8.65136
▁olycka	-8.65181
kar	-8.65215
▁akta	-8.65285
gå	-8.65379
▁togo	-8.65521
▁ära	-8.66074
▁ligger	-8.66265
▁tolv	-8.66265
▁alltid	-8.6629
bar	-8.66437
▁därifrån	-8.66457
håller	-8.66804
▁förut	-8.6685
▁falla	-8.66953
▁slog	-8.67101
▁Nej	-8.6773
▁faders	-8.67943
▁vandra	-8.68025
▁föll	-8.6818
▁frukta	-8.68311
ets	-8.68608
▁Jesu	-8.68844
▁säg	-8.68967
▁gammal	-8.69027
▁lever	-8.69028
▁annat	-8.69037
▁lagen	-8.6918
ba	-8.69376
stånd	-8.69538
▁känna	-8.69591
väl	-8.69661
▁besittning	-8.70154
▁vore	-8.70268
▁bet	-8.70391
▁olja	-8.70725
▁helga	-8.70756
▁hop	-8.71178
▁bor	-8.71257
inna	-8.71276
▁evinnerligen	-8.71294
▁ligga	-8.71295
▁tagit	-8.71515
▁morgon	-8.71582
▁talar	-8.7183
▁sänt	-8.71876
till	-8.71906
▁missgärning	-8.72171
Det	-8.72184
▁stodo	-8.72337
▁förstånd	-8.7241
▁behag	-8.72447
▁levande	-8.72505
▁sex	-8.72569
ifrån	-8.72604
▁lämna	-8.72679
▁boskap	-8.73082
▁förstå	-8.73379
skap	-8.73809
gång	-8.73928
▁skriv	-8.73965
▁vägar	-8.74468
▁männen	-8.7454
▁begynte	-8.74906
ningen	-8.75038
▁ogudaktiga	-8.7509
▁stadgar	-8.75101
▁ser	-8.75154
opp	-8.75314
▁vishet	-8.75409
ack	-8.75526
▁drogo	-8.75748
▁Min	-8.75791
▁tecken	-8.75986
▁befallning	-8.75987
▁uppfyll	-8.75987
▁fara	-8.76472
▁Sion	-8.76689
▁Paulus	-8.77195
▁kasta	-8.77253
gav	-8.7748
▁slut	-8.77615
lade	-8.77655
▁högr	-8.77689
▁synder	-8.77816
sten	-8.77851
▁släkter	-8.77923
▁bygga	-8.77932
▁trettio	-8.78135
▁Ande	-8.78341
med	-8.78431
rätt	-8.78607
men	-8.78745
▁ljus	-8.79319
▁lär	-8.79508
▁ren	-8.79615
▁bör	-8.79647
▁vart	-8.79654
▁övriga	-8.79664
bo	-8.79933
▁Av	-8.80033
▁utrota	-8.80282
▁egen	-8.80294
▁frälsning	-8.80319
▁hår	-8.80415
▁köp	-8.8091
▁Petrus	-8.80911
▁koppar	-8.80911
▁lärjungar	-8.81148
▁judarna	-8.81151
▁höj	-8.81483
▁uppstå	-8.81534
▁berget	-8.81977
▁räkna	-8.8218
▁andre	-8.82182
▁följde	-8.82359
▁fanns	-8.8251
▁rör	-8.82821
▁steg	-8.82838
▁slå	-8.82886
▁lös	-8.82961
▁bär	-8.83261
▁fyrtio	-8.83445
▁uppenbara	-8.83467
▁gud	-8.84045
▁tempel	-8.84116
lighet	-8.84127
▁först	-8.84372
▁sådana	-8.84431
▁Nu	-8.84463
x	-8.84606
▁nöd	-8.84715
▁Kristi	-8.8477
▁Manasse	-8.8477
▁rik	-8.84879
▁hedningarna	-8.84888
▁edert	-8.85157
▁länder	-8.85655
▁Må	-8.85831
▁finnas	-8.86515
▁tredje	-8.86736
▁Di	-8.86742
▁förnimma	-8.86757
▁Ab	-8.86771
▁stället	-8.86981
▁Jeremia	-8.87428
▁vattnet	-8.87428
▁lejon	-8.87428
▁lov	-8.87498
Vi	-8.87691
▁svara	-8.88017
▁profeten	-8.88129
▁fördärva	-8.8833
▁boning	-8.88457
▁krig	-8.88526
▁Re	-8.88551
▁högtid	-8.88594
▁söka	-8.88783
▁däri	-8.88844
▁Har	-8.89114
ek	-8.89358
▁femtio	-8.89449
enbarelsetältet	-8.89468
▁aldrig	-8.89471
nar	-8.89696
ika	-8.89815
▁begär	-8.90111
▁lägra	-8.90158
samma	-8.9021
▁altare	-8.90411
▁Me	-8.90433
Om	-8.90931
▁Huru	-8.90962
▁far	-8.91017
▁ena	-8.91377
▁lära	-8.91497
▁lamm	-8.91553
▁ängel	-8.91564
▁hopp	-8.91664
▁fot	-8.91723
▁tillhör	-8.91783
ai	-8.92167
▁varda	-8.92176
▁Samuel	-8.92256
▁djup	-8.92256
▁fullborda	-8.92256
▁tält	-8.92256
▁sända	-8.92257
▁Joab	-8.9229
▁höll	-8.92321
▁finna	-8.92597
▁fatta	-8.92969
ske	-8.92989
intill	-8.93106
▁mat	-8.93266
▁bad	-8.93363
▁fördärv	-8.9344
▁vila	-8.93441
▁Låt	-8.93511
▁vakt	-8.9368
▁stark	-8.94142
▁ställe	-8.94416
▁El	-8.94606
▁trädde	-8.9466
▁lott	-8.94701
ras	-8.94716
▁helgedomen	-8.94881
▁sång	-8.94982
▁ny	-8.95045
▁förbi	-8.95254
▁hette	-8.95859
iel	-8.95871
▁sky	-8.96253
▁He	-8.96346
hål	-8.96404
▁grund	-8.96588
▁Gilead	-8.96589
▁bred	-8.97054
▁stort	-8.97301
män	-8.97331
▁Mi	-8.9779
▁behöv	-8.98076
▁löfte	-8.98076
Gå	-8.9813
▁Fader	-8.98134
▁tänkte	-8.98135
▁hata	-8.9817
B	-8.98198
Varför	-8.98232
▁människorna	-8.98274
▁därmed	-8.98326
▁dal	-8.98487
▁församling	-8.98685
▁kvinnan	-8.98719
▁område	-8.98828
éerna	-8.9886
▁vittnesbörd	-8.98921
'»	-8.99255
▁byggde	-8.99826
▁Isak	-8.9985
▁välsigna	-8.99867
▁slakta	-8.99959
▁inne	-9.00317
▁Hiskia	-9.00349
▁nog	-9.0035
▁solen	-9.00352
▁U	-9.00523
▁sinne	-9.00897
▁given	-9.00954
▁öster	-9.01118
▁allasammans	-9.01118
▁förgås	-9.01143
▁sl	-9.01335
▁D	-9.01407
▁kommen	-9.01486
rna	-9.0149
▁församlade	-9.01535
▁stannade	-9.0155
▁portar	-9.01801
▁Varför	-9.0186
▁förgöra	-9.01911
▁enda	-9.01955
▁sons	-9.02457
▁bjöd	-9.02674
▁Baal	-9.02676
▁åker	-9.02681
▁långt	-9.02843
Låt	-9.02863
H	-9.02891
kri	-9.0297
av	-9.03038
▁bord	-9.03082
▁Vid	-9.03366
▁krossa	-9.03462
▁lång	-9.03469
▁Eli	-9.03604
Herre	-9.03668
▁Herrens	-9.03825
▁Johannes	-9.04255
▁penningar	-9.04256
▁norr	-9.04258
▁Alla	-9.04258
jor	-9.04285
▁Hon	-9.04499
▁profet	-9.04535
▁jord	-9.04652
▁red	-9.04676
▁samla	-9.04782
▁sågo	-9.05024
▁läger	-9.05055
▁dog	-9.05056
▁öppna	-9.05082
del	-9.05365
les	-9.05615
▁fall	-9.05626
▁Ad	-9.05801
▁utgjorde	-9.05862
▁ställde	-9.05875
▁kär	-9.05969
E	-9.06087
▁ting	-9.06294
red	-9.06462
▁Jonatan	-9.06675
▁skörd	-9.06675
▁Dock	-9.06682
dag	-9.06832
ram	-9.06893
▁håll	-9.0709
▁akt	-9.07342
▁rena	-9.07368
▁namnet	-9.0746
▁strax	-9.07495
▁ringa	-9.07527
▁profeter	-9.07721
fat	-9.07865
▁spisoffer	-9.08321
▁sant	-9.08334
▁stammar	-9.08385
▁hustrur	-9.08761
▁profeterna	-9.0878
▁svar	-9.08835
▁porten	-9.08873
ick	-9.08986
ningar	-9.09101
▁stenar	-9.09111
▁känner	-9.09154
▁eget	-9.09155
▁natt	-9.09186
▁öde	-9.09444
lå	-9.09726
▁Fadern	-9.09932
▁skåda	-9.09995
▁nästa	-9.10022
▁livet	-9.10127
▁sjunde	-9.10156
▁gören	-9.10255
▁fruktan	-9.10484
▁färd	-9.1069
ir	-9.10769
pen	-9.10801
▁gråt	-9.10842
▁föda	-9.10847
kså	-9.10884
Ha	-9.10889
▁Ne	-9.11334
▁gåvo	-9.11366
ölj	-9.11536
▁högt	-9.11592
▁syster	-9.11697
▁likväl	-9.11741
▁N	-9.1186
▁rättfärdig	-9.11892
▁Son	-9.12037
je	-9.12352
▁gånger	-9.12557
▁hästar	-9.12559
▁regera	-9.12559
▁följ	-9.12712
▁Na	-9.1283
▁bar	-9.1289
abb	-9.12944
Var	-9.13011
of	-9.13225
▁Är	-9.13428
▁byte	-9.13429
▁undervisa	-9.13454
ret	-9.13498
▁Ahi	-9.13573
▁ände	-9.1377
A	-9.13779
val	-9.1415
▁älska	-9.14299
▁bevara	-9.14342
▁väldig	-9.14362
▁skrivet	-9.14663
▁mått	-9.14697
▁vårt	-9.14927
ägg	-9.14965
▁Elia	-9.15078
▁läppar	-9.15191
▁lön	-9.15191
▁tillhopa	-9.15191
▁floden	-9.15364
▁ark	-9.15406
iska	-9.15533
▁rätta	-9.15562
▁främmande	-9.16083
▁egna	-9.16084
▁regn	-9.16085
▁levde	-9.16086
▁funnit	-9.16119
verk	-9.16584
▁ru	-9.16673
vänd	-9.16922
▁kastade	-9.16974
▁regeringsår	-9.16984
▁flydde	-9.1699
▁klippa	-9.17033
▁nära	-9.17094
▁sida	-9.17345
▁Vem	-9.17463
▁skapa	-9.17517
▁frälsa	-9.17822
▁bringa	-9.17894
▁tunga	-9.18334
iterna	-9.18429
▁trä	-9.18465
▁Moses	-9.18508
▁döma	-9.18545
eser	-9.18592
▁lägret	-9.18811
▁lyssna	-9.18811
▁utmarker	-9.18811
▁hjord	-9.18813
på	-9.1894
Min	-9.19369
▁Jakobs	-9.19415
sökte	-9.19476
kall	-9.19696
▁Absalom	-9.19737
▁större	-9.19737
▁styr	-9.1975
▁bevisa	-9.19756
ikt	-9.19819
▁invånare	-9.1991
▁rättfärdiga	-9.19939
',	-9.20286
▁allde	-9.20294
▁Asa	-9.20461
▁inom	-9.207
▁orätt	-9.20754
▁älskade	-9.21418
▁siklar	-9.21615
▁finner	-9.21646
ub	-9.21716
▁bröto	-9.21865
▁träl	-9.21866
▁ben	-9.22031
kam	-9.22094
▁platsen	-9.22169
▁lägg	-9.22205
▁bergen	-9.2226
▁människobarn	-9.22567
▁arbeta	-9.22567
▁Ke	-9.22571
▁lust	-9.22574
▁sen	-9.22586
▁Ar	-9.22657
▁vagnar	-9.22663
▁bak	-9.22677
▁fasta	-9.23008
▁församla	-9.23009
slut	-9.23031
▁morgonen	-9.23045
▁unga	-9.23077
rop	-9.23237
▁profetera	-9.2332
▁stycke	-9.23503
▁Ammon	-9.23529
▁dröm	-9.23529
▁predika	-9.23529
▁ytterligare	-9.23529
▁straff	-9.23529
iternas	-9.23545
▁grav	-9.23732
▁prisa	-9.23892
F	-9.24084
För	-9.2409
isk	-9.24118
▁hugg	-9.24298
▁begrav	-9.245
▁lögn	-9.245
▁kunskap	-9.245
▁försoning	-9.245
▁fåglar	-9.24522
▁höllo	-9.25006
▁sitta	-9.25114
▁familjer	-9.2518
▁hast	-9.25563
Stå	-9.25847
▁stanna	-9.25918
mon	-9.26182
▁Jerobeam	-9.2647
▁förgät	-9.2647
▁jämväl	-9.2647
▁styggelse	-9.26471
▁Esau	-9.26471
▁sorg	-9.26474
▁barmhärtighet	-9.26497
D	-9.26549
▁Man	-9.26793
▁rättfärdige	-9.2693
▁viss	-9.27092
▁rätter	-9.2714
▁slagna	-9.2734
▁orena	-9.27364
▁drabba	-9.2747
▁fångenskap	-9.2747
▁skuld	-9.27471
▁vittne	-9.27548
▁frälst	-9.27798
mak	-9.28214
▁Ve	-9.2839
▁präster	-9.28414
▁bättre	-9.2848
▁rökelse	-9.28504
▁älskar	-9.28575
▁innan	-9.28618
▁domare	-9.28806
▁främling	-9.28807
▁aftonen	-9.28916
Din	-9.28927
gör	-9.29113
räckte	-9.2947
▁fäkreatur	-9.295
▁göm	-9.295
▁otukt	-9.295
▁evangelium	-9.29504
▁bered	-9.29707
▁So	-9.29993
▁lovat	-9.30163
▁köttet	-9.30194
Vem	-9.3024
▁vingård	-9.30297
▁ropa	-9.30466
offret	-9.30529
▁berömm	-9.30531
▁fjärran	-9.30531
▁mätta	-9.30531
▁vilket	-9.30531
▁fröjd	-9.30964
jud	-9.31028
▁bok	-9.31324
▁mäktig	-9.31573
▁öron	-9.31573
▁gamla	-9.31574
▁syndoffer	-9.31597
▁likna	-9.3165
▁egyptierna	-9.31712
▁församlingen	-9.31771
▁kärl	-9.32038
▁avgudar	-9.32121
▁Sela	-9.32199
▁vind	-9.3223
ban	-9.32424
▁stiga	-9.32439
▁döm	-9.32602
▁svår	-9.32626
▁järn	-9.32633
▁bryta	-9.32661
▁funnos	-9.32668
▁lyfte	-9.32729
▁sal	-9.32899
helst	-9.32967
De	-9.33401
▁Med	-9.33437
▁fött	-9.33477
▁förstör	-9.33689
▁Samaria	-9.3369
▁uppteckna	-9.3369
▁ingången	-9.33692
▁stäng	-9.33695
▁seger	-9.33708
▁ljud	-9.33733
▁Edom	-9.33785
▁Mika	-9.3381
▁pris	-9.34366
▁sanning	-9.34612
▁basun	-9.34765
▁Kanaan	-9.34766
▁Ahab	-9.34766
▁brunn	-9.34767
▁ändå	-9.34769
▁träda	-9.34919
▁därom	-9.35134
▁döds	-9.35155
▁rop	-9.35217
rat	-9.35473
▁året	-9.35851
▁tacka	-9.35871
▁överlämna	-9.35934
▁Till	-9.36152
▁Efraims	-9.36503
lösa	-9.36773
é	-9.36904
▁bäva	-9.36951
▁grip	-9.36952
▁falsk	-9.36952
▁litet	-9.36952
▁stilla	-9.36965
▁änglar	-9.36977
Giv	-9.37002
▁strö	-9.37021
▁Elisa	-9.37023
▁därvid	-9.3712
▁Has	-9.37641
männen	-9.37673
HERREN	-9.37799
far	-9.37808
väg	-9.37978
tal	-9.37984
▁lämnade	-9.3803
▁hälft	-9.38062
▁eljest	-9.38062
▁fängelse	-9.38062
▁inbyggare	-9.38062
▁tabernaklet	-9.38062
▁ställa	-9.38105
▁lagt	-9.38168
▁mur	-9.38198
▁Sauls	-9.38213
▁stav	-9.38316
▁bliv	-9.38358
▁Moab	-9.38443
▁slogo	-9.3859
tid	-9.38958
▁åkalla	-9.39187
▁hov	-9.39196
▁horn	-9.39205
▁rikedom	-9.39259
▁följande	-9.39283
▁elden	-9.39294
torka	-9.39389
▁skett	-9.39488
▁starka	-9.39596
▁ung	-9.39726
▁bi	-9.40021
▁Josafat	-9.40322
▁fäste	-9.40322
▁plåga	-9.40322
▁bedja	-9.40326
▁mantel	-9.40423
▁omtala	-9.40488
▁ogudaktige	-9.40507
▁varder	-9.40585
let	-9.40841
▁Icke	-9.40877
gjorda	-9.41071
▁mod	-9.41131
▁dör	-9.41228
djur	-9.41246
▁allena	-9.41369
▁förtrösta	-9.41471
▁skön	-9.41471
▁kunnen	-9.41471
▁förtryck	-9.41472
▁stund	-9.41478
Ack	-9.41483
▁stycken	-9.4156
▁förkasta	-9.41573
▁vädur	-9.4164
▁fiende	-9.41756
▁striden	-9.41864
▁trolös	-9.41978
▁bröt	-9.42326
▁sjuk	-9.42437
skrift	-9.4261
▁böj	-9.42634
▁Levi	-9.42637
».	-9.42813
ker	-9.42832
▁visste	-9.42909
▁syndat	-9.42921
▁dräpa	-9.42982
▁Frå	-9.43023
hålla	-9.4303
▁sägen	-9.43039
▁Efraim	-9.4311
▁tänka	-9.43259
▁menigheten	-9.43341
larna	-9.43427
▁hören	-9.43553
▁överträdelse	-9.43811
▁ondska	-9.43813
▁snart	-9.43813
▁bäcken	-9.43813
▁jubel	-9.43814
▁Aser	-9.43879
▁hölj	-9.43919
▁förakta	-9.43979
▁port	-9.44046
▁handen	-9.44314
Huru	-9.44813
▁hövdingar	-9.44844
gåvo	-9.44968
▁bergsbygd	-9.45001
▁förgården	-9.45001
▁öga	-9.45001
▁viljen	-9.45001
▁skynda	-9.45002
▁resa	-9.45027
▁upprätta	-9.45054
▁tionde	-9.451
fi	-9.45336
▁å	-9.45375
▁vredes	-9.45423
▁gräns	-9.45456
▁ute	-9.45669
K	-9.4599
▁förtär	-9.46185
▁Assyrien	-9.46206
▁sköld	-9.46206
▁välbehaglig	-9.46206
▁Ingen	-9.46228
▁ät	-9.46262
▁andar	-9.46426
▁fäders	-9.4707
▁vagn	-9.47303
jär	-9.47416
▁fjärde	-9.47426
▁förbanna	-9.47435
▁beslut	-9.47556
▁mörker	-9.47603
▁följa	-9.47664
▁sabbat	-9.4786
▁utför	-9.47867
▁Anden	-9.47896
▁hövding	-9.47941
▁Benjamin	-9.48018
▁fann	-9.48029
▁Benjamins	-9.48064
▁Sal	-9.48331
▁arken	-9.48487
R	-9.4852
▁lida	-9.48611
▁amoréerna	-9.4866
▁längre	-9.4866
▁förvisso	-9.4866
▁tåga	-9.48817
▁samman	-9.48966
tiden	-9.49025
sak	-9.49249
▁förlossa	-9.4991
▁smäda	-9.4991
▁vedergäll	-9.4991
▁väsende	-9.4991
▁öva	-9.4991
▁sörj	-9.4991
▁mörkret	-9.49916
▁bock	-9.49969
▁träng	-9.49979
▁föllo	-9.50407
▁vänta	-9.50516
▁utom	-9.50579
▁Ell	-9.50613
▁faller	-9.50619
▁främlingar	-9.50766
▁dräpte	-9.51026
▁präst	-9.51158
▁haft	-9.51176
▁gjut	-9.51176
yllen	-9.51178
▁blygd	-9.5118
▁blind	-9.51181
emot	-9.51244
▁Lik	-9.51286
▁borg	-9.5173
▁sidor	-9.51995
▁utanför	-9.52033
Seba	-9.52149
Tag	-9.52379
▁nät	-9.52458
▁smälek	-9.52458
▁plantera	-9.52458
▁Alltså	-9.5246
▁utvalt	-9.52461
▁fint	-9.52462
▁Daniel	-9.5247
Den	-9.52672
▁slår	-9.5276
▁sjuttio	-9.52786
▁stöt	-9.52857
▁offrade	-9.52879
giva	-9.53191
▁gåvor	-9.53202
▁lärjungarna	-9.53266
syn	-9.53314
▁blodet	-9.53531
▁förstfödde	-9.53756
▁tillbedja	-9.53756
▁tankar	-9.53757
▁ihåg	-9.53757
▁buro	-9.53757
▁vittna	-9.53785
vil	-9.53808
▁sanningen	-9.53943
▁Gad	-9.5402
▁murar	-9.54209
▁Ki	-9.54778
▁graven	-9.54821
folk	-9.5502
Gör	-9.55072
▁hälsa	-9.55072
▁berättade	-9.55072
Frukt	-9.55074
stycke	-9.55155
▁nytt	-9.55298
▁vandrade	-9.55414
▁veten	-9.55634
▁Eftersom	-9.55789
▁Allt	-9.55849
nvid	-9.56015
vid	-9.56048
▁evärdlig	-9.56406
▁jungfru	-9.56406
▁upphör	-9.56406
▁pläga	-9.56406
▁svärdet	-9.56411
▁förbarma	-9.5642
▁fett	-9.56433
Gån	-9.56596
igenom	-9.5684
▁fursten	-9.56938
▁strida	-9.57094
▁rent	-9.57199
▁övergiv	-9.57308
▁Moabs	-9.57312
▁öppnade	-9.57711
▁Eleasar	-9.57757
▁beständigt	-9.57757
▁förbannelse	-9.57757
▁söker	-9.57757
▁välsignelse	-9.57757
▁förbliver	-9.5776
▁skicka	-9.57768
▁ved	-9.57874
▁redo	-9.58133
gående	-9.58155
Kom	-9.58539
▁bränna	-9.58727
▁Faraos	-9.5879
▁sjön	-9.59072
▁Ruben	-9.59128
▁slaktoffer	-9.59128
▁ofta	-9.59131
▁söder	-9.59131
▁förskräckt	-9.59148
▁förtära	-9.5915
▁illa	-9.59243
▁Människosonen	-9.59272
▁vikt	-9.59295
▁Tag	-9.59334
▁skatt	-9.5962
▁äter	-9.59633
▁fisk	-9.59731
▁ljuset	-9.59879
ighet	-9.60056
▁hände	-9.60061
T	-9.60513
▁bestämd	-9.60516
▁förtörna	-9.60516
▁gensträvig	-9.60516
▁förskräckelse	-9.60516
▁ovänner	-9.60518
gift	-9.60523
▁Simon	-9.6055
▁vingar	-9.60565
▁Gen	-9.60615
▁Aram	-9.60732
Han	-9.60741
▁Dan	-9.60746
▁fulla	-9.60954
eln	-9.60954
▁människan	-9.61089
▁bestå	-9.61266
▁tillhöra	-9.61649
▁evigt	-9.6177
ock	-9.61884
▁förråd	-9.61924
▁gräs	-9.61924
▁Libanon	-9.61924
▁förtörnelse	-9.61924
▁ostrafflig	-9.61924
▁skyldig	-9.61924
▁tillflykt	-9.61924
▁ödmjuka	-9.61924
▁ditupp	-9.61924
▁moln	-9.61926
▁undfå	-9.61929
▁skedde	-9.6193
▁svag	-9.61942
▁Betel	-9.62205
kast	-9.62401
▁fruktade	-9.62464
▁huvuden	-9.62703
▁ok	-9.62842
▁ordet	-9.62904
▁lyd	-9.62932
▁mjöl	-9.63026
▁utföra	-9.63161
▁Job	-9.63263
▁Hebron	-9.63353
▁föröka	-9.63353
▁hals	-9.63366
▁trodde	-9.63396
▁myckenhet	-9.63415
▁skara	-9.63517
▁stig	-9.64087
▁gränsen	-9.64259
▁samt	-9.64597
▁styggelser	-9.64801
märke	-9.64802
▁hjältar	-9.64802
▁brev	-9.64804
▁miss	-9.64824
▁tagen	-9.6523
▁Hören	-9.65509
▁träffa	-9.65572
▁klädd	-9.65638
▁hörn	-9.65796
▁förståndig	-9.65845
▁helige	-9.66055
▁dödsriket	-9.66273
▁synagog	-9.66273
▁öken	-9.66273
▁spjut	-9.66273
▁förfölja	-9.66273
▁därinne	-9.66273
bud	-9.66282
▁mark	-9.66458
▁städerna	-9.66558
▁tänker	-9.66625
▁oför	-9.66658
Detta	-9.66662
▁visade	-9.66805
▁fröjda	-9.67141
▁blotta	-9.67227
▁storm	-9.6735
▁kläd	-9.67445
▁havande	-9.67448
få	-9.6761
)	-9.67765
▁begynnelse	-9.67765
▁hunger	-9.67765
▁störta	-9.67765
▁öra	-9.67765
▁Sikem	-9.67765
▁ödemark	-9.67766
▁gäller	-9.67766
▁ax	-9.67797
▁finge	-9.68027
mannen	-9.68047
▁Joas	-9.68149
landet	-9.68192
▁välsignade	-9.68717
▁skatter	-9.68759
▁Denne	-9.68768
pi	-9.68953
▁Abimelek	-9.6928
▁kaldéerna	-9.6928
▁skriftlärde	-9.6928
▁väster	-9.6928
▁ropar	-9.69285
▁drickoffer	-9.69285
▁åsyn	-9.69291
▁glädja	-9.69323
▁torr	-9.69367
▁vinträd	-9.69377
▁herde	-9.69387
▁helgedom	-9.69791
▁rov	-9.69981
▁Här	-9.69981
▁Hav	-9.70091
▁tjurar	-9.70189
▁Et	-9.70263
▁häng	-9.70349
▁stadga	-9.70495
städes	-9.70819
▁driva	-9.70819
▁hungersnöd	-9.70819
▁vilse	-9.7082
▁fariséerna	-9.70841
▁byar	-9.70858
▁sändebud	-9.70862
▁skada	-9.70873
▁därigenom	-9.71056
tåg	-9.71283
▁född	-9.71419
?'	-9.71937
▁glada	-9.72198
▁hållen	-9.72283
näst	-9.7233
▁Galileen	-9.72381
▁Jeriko	-9.72381
▁araméerna	-9.72381
▁sköt	-9.72381
▁särskild	-9.72381
▁bedriv	-9.72381
▁dyrbar	-9.72381
▁frimodig	-9.72381
▁ålder	-9.72381
▁betryck	-9.72382
▁eldsoffer	-9.72382
▁lycka	-9.72386
▁Jehu	-9.72404
▁vred	-9.72463
föll	-9.72577
P	-9.72578
▁Hör	-9.72808
▁frambära	-9.73015
bredvid	-9.73116
▁vandrar	-9.73237
▁furste	-9.73338
▁bild	-9.73742
▁lågo	-9.73933
▁tom	-9.73945
hållit	-9.73966
▁angrip	-9.73968
▁person	-9.73968
▁tungomål	-9.73968
▁intog	-9.73969
▁honung	-9.73974
▁skepp	-9.74087
▁Sara	-9.74121
▁inga	-9.74155
▁vika	-9.74176
▁kände	-9.74311
▁små	-9.7459
▁träffade	-9.74732
▁judar	-9.75006
▁fånga	-9.75509
▁Sidkia	-9.75581
▁beskär	-9.75581
▁psalm	-9.75581
▁vilddjur	-9.75581
▁dryck	-9.75582
▁heter	-9.75681
▁fångar	-9.75721
offer	-9.75775
bild	-9.75824
▁ti	-9.75878
▁begå	-9.75975
utom	-9.75993
▁tjur	-9.76246
▁ond	-9.76646
efter	-9.772
▁bedrövelse	-9.77221
▁tackoffer	-9.77221
skilja	-9.77221
▁Abner	-9.77227
▁möda	-9.77239
▁förrätta	-9.77421
▁konungarna	-9.77791
▁översteprästen	-9.77868
▁skänker	-9.77985
▁Säg	-9.78027
▁gången	-9.78276
▁svär	-9.78466
▁vädurar	-9.78642
▁dödade	-9.78874
▁Bileam	-9.78887
▁Damaskus	-9.78887
▁förvandla	-9.78887
▁smorde	-9.78887
▁strömmar	-9.78888
▁Basan	-9.78888
▁pass	-9.78904
▁garn	-9.7891
▁förbliva	-9.78911
▁Abram	-9.78919
▁talrik	-9.7892
▁ungdom	-9.78922
▁sov	-9.78955
G	-9.79087
▁begått	-9.79092
färd	-9.79133
▁hel	-9.79276
▁inre	-9.79572
▁människo	-9.79798
▁dräpt	-9.80197
▁sluta	-9.8025
▁vittnesbördet	-9.8037
land	-9.80491
unnit	-9.80506
▁Mordokai	-9.80582
▁belägra	-9.80582
▁sannerligen	-9.80582
▁fält	-9.80582
▁alltsammans	-9.80582
▁efa	-9.80584
▁lukt	-9.80586
▁Noa	-9.80594
▁vänner	-9.806
▁trofasthet	-9.80607
▁kroppen	-9.80804
▁Medan	-9.8086
▁Sannerligen	-9.81441
▁byggt	-9.81523
▁Efter	-9.81969
▁sextio	-9.82261
▁ångest	-9.82306
▁bruka	-9.82307
▁hemsökelse	-9.82335
▁skog	-9.82339
översteprästerna	-9.82407
▁nödga	-9.82522
▁övergivit	-9.82586
▁himmel	-9.82733
▁frisk	-9.82768
▁beder	-9.83174
▁menighet	-9.83239
satt	-9.83284
▁bygg	-9.83464
▁muren	-9.8349
▁nå	-9.83867
▁Nebukadnessar	-9.84061
▁sutto	-9.84061
▁växa	-9.84061
▁oförnuft	-9.84061
▁törst	-9.84061
▁gossen	-9.84061
▁Jojada	-9.84061
▁gudsmannen	-9.84061
anhända	-9.84072
▁pest	-9.84084
kammare	-9.8409
▁stänk	-9.84093
▁Mo	-9.84313
▁femte	-9.84314
▁räck	-9.84699
▁lovade	-9.84788
▁kroppar	-9.84836
▁syndare	-9.84938
kol	-9.85019
▁höjden	-9.85019
▁helt	-9.85093
▁huvudmän	-9.85143
min	-9.85322
handa	-9.85581
▁funno	-9.85774
▁fattiga	-9.8579
▁Allsmäktige	-9.85847
▁babyloni	-9.85847
▁försmäkta	-9.85847
▁hämnd	-9.85847
▁mätte	-9.85847
▁pröva	-9.85847
▁röva	-9.85847
▁sångmästaren	-9.85847
▁rycka	-9.85848
▁spillo	-9.85848
▁herdar	-9.85849
▁våg	-9.85857
▁fåfänglighet	-9.85861
▁händerna	-9.85886
skild	-9.85914
▁larm	-9.85915
▁dörrar	-9.85985
▁arv	-9.86006
▁vise	-9.86084
▁ditin	-9.86144
▁drick	-9.86182
▁bosatt	-9.86339
▁vinning	-9.86367
▁slagit	-9.86446
▁månader	-9.86547
▁nådig	-9.86983
▁sabbaten	-9.87019
▁foro	-9.87031
satte	-9.87044
▁und	-9.87054
Vilk	-9.87314
▁härlig	-9.87359
▁lova	-9.87386
dräkt	-9.87655
▁småboskap	-9.87665
▁Pilatus	-9.87665
▁Sadok	-9.87665
▁gästabud	-9.87665
▁nitälska	-9.87665
▁palats	-9.87665
▁väv	-9.87665
▁skjut	-9.87665
▁Josia	-9.87665
▁Laban	-9.87665
▁grep	-9.87666
▁glöd	-9.87667
▁Ussi	-9.87668
▁Ester	-9.87675
▁flykt	-9.87693
ryta	-9.87699
▁klaga	-9.87746
▁lidande	-9.87752
▁gälla	-9.87805
▁liten	-9.87823
▁begiv	-9.88018
▁Skulle	-9.88067
N	-9.88113
Hör	-9.88118
lägga	-9.88141
▁komme	-9.88221
▁orter	-9.88295
▁omvänd	-9.88349
▁tung	-9.88625
▁gåva	-9.88692
▁befästa	-9.88745
▁bjud	-9.89051
▁huvudet	-9.89246
▁hav	-9.89435
▁fåfäng	-9.89502
▁högmod	-9.89517
▁slipp	-9.89517
▁vackla	-9.89518
▁brud	-9.89518
▁Maria	-9.8952
▁kring	-9.89525
▁övertäck	-9.89542
▁upptändes	-9.89563
▁bund	-9.89567
▁hemlighet	-9.89602
Drag	-9.897
▁glad	-9.89745
▁tänk	-9.89829
porten	-9.89951
sätta	-9.90013
▁häpnad	-9.9015
▁månad	-9.90158
ledes	-9.90182
▁Kan	-9.90326
tjänar	-9.90475
lys	-9.90477
▁mycken	-9.91322
▁ängeln	-9.91376
▁Messias	-9.91403
▁uppbygg	-9.91403
▁yngling	-9.91403
▁apostlar	-9.91403
▁bittida	-9.91403
▁felfri	-9.91403
▁hednafolk	-9.91403
▁prov	-9.91403
▁ryttare	-9.91403
▁brännoffret	-9.91408
▁brist	-9.91411
▁ovanpå	-9.91412
▁timme	-9.91416
▁Tyrus	-9.91416
▁kalk	-9.91424
Hadad	-9.91425
▁linne	-9.9144
▁ofärd	-9.91465
sju	-9.91499
Gud	-9.91961
hörande	-9.91995
▁samlade	-9.92068
▁sido	-9.92091
▁hemsöka	-9.92203
▁spetälska	-9.92466
▁afton	-9.92499
▁trösta	-9.92572
▁otro	-9.92743
Upp	-9.93222
▁främst	-9.93326
▁östra	-9.93326
▁överflöd	-9.93326
▁kananéerna	-9.93327
▁klok	-9.93327
▁båge	-9.93344
▁avdelning	-9.93367
pelare	-9.93398
▁Haman	-9.93456
▁förlåta	-9.93652
▁värde	-9.94107
lyft	-9.94744
▁rök	-9.9524
▁Rehabeam	-9.95287
▁bästa	-9.95287
▁drottning	-9.95287
▁därutöver	-9.95287
▁grät	-9.95287
▁rygg	-9.95287
▁stjärnor	-9.95287
▁åsnor	-9.95287
▁betyder	-9.95287
▁Helige	-9.95288
▁gagn	-9.95293
▁reste	-9.95296
▁säng	-9.95329
▁tak	-9.95703
▁rum	-9.95759
▁bjuder	-9.95763
plats	-9.95898
▁Ham	-9.95913
▁Högste	-9.97287
▁Naftali	-9.97287
▁Simeon	-9.97287
▁begrov	-9.97287
▁brutit	-9.97287
▁bättring	-9.97287
▁eländig	-9.97287
▁föremål	-9.97287
▁ihjäl	-9.97287
▁ohelga	-9.97287
▁skugga	-9.97287
▁tjänstgöring	-9.97287
▁förskingra	-9.97287
▁offereld	-9.97289
▁nej	-9.97295
▁förmår	-9.97297
▁åsna	-9.973
Lova	-9.97313
▁Joram	-9.97338
▁oxe	-9.97365
▁avkomlingar	-9.97506
▁munnen	-9.97571
▁ort	-9.9774
▁fattige	-9.98055
▁missgärningar	-9.98251
▁stött	-9.98692
▁orm	-9.98721
▁besvär	-9.99328
▁dröj	-9.99328
▁fjorton	-9.99328
▁mankön	-9.99328
▁rykte	-9.99328
▁Åter	-9.99328
▁kvarleva	-9.99328
▁flera	-9.99329
▁tjänarinna	-9.99329
▁fotstycken	-9.99329
▁Asarja	-9.99329
▁liknelse	-9.9933
▁sista	-9.99331
▁plundra	-9.99332
▁strå	-9.99337
▁halv	-9.9934
▁klädnad	-9.99341
▁kalv	-9.99373
▁Sodom	-9.99376
▁dörren	-9.99385
inner	-9.99392
▁snara	-9.99419
▁budskap	-9.99437
▁Lot	-9.99498
▁upplyft	-9.99698
▁trälar	-9.99728
O	-9.9983
bliv	-9.99988
fyra	-10.0002
anför	-10.0003
samt	-10.0038
▁fattig	-10.0068
gick	-10.0092
följde	-10.0134
▁bespotta	-10.0141
▁bröst	-10.0141
▁iakttaga	-10.0141
▁ljuvlig	-10.0141
▁offergåva	-10.0141
▁trampa	-10.0141
▁Ismael	-10.0141
▁kameler	-10.0141
▁konst	-10.0141
▁Natan	-10.0143
Kommen	-10.0144
▁begärelse	-10.0155
Skall	-10.0159
▁anställ	-10.0161
▁Asaf	-10.0174
huset	-10.0217
▁avgud	-10.0243
gått	-10.0253
tiotvå	-10.0261
▁antal	-10.034
▁Gibea	-10.0354
▁Rakel	-10.0354
▁korsfäst	-10.0354
▁oskyldig	-10.0354
▁skär	-10.0354
▁ståndaktig	-10.0354
▁särskilt	-10.0354
▁drive	-10.0354
▁skändlig	-10.0354
▁ihop	-10.0354
▁utvalda	-10.0354
▁övermod	-10.0354
▁evigheter	-10.0354
▁gator	-10.0359
▁vek	-10.0367
▁antalet	-10.0378
lydande	-10.0387
▁Mitt	-10.0389
▁orenhet	-10.0393
▁skål	-10.0458
▁stoft	-10.0547
▁aln	-10.0548
▁gärna	-10.0571
▁hövdingdöme	-10.0571
▁israeliterna	-10.0571
▁utgjuta	-10.0571
▁ljusstaken	-10.0571
▁vålla	-10.0571
▁bitter	-10.0572
▁oxar	-10.0572
▁vederfar	-10.0572
▁rev	-10.0577
▁döpa	-10.0578
▁närmast	-10.0582
▁fred	-10.059
▁stoftet	-10.0595
▁fäll	-10.0603
▁fallit	-10.0607
▁hin	-10.0654
▁blott	-10.0654
▁befäst	-10.0663
▁kerub	-10.0789
▁Gideon	-10.0794
▁Sebulon	-10.0794
▁förvärva	-10.0794
▁hydda	-10.0794
▁krönika	-10.0794
▁sjätte	-10.0794
▁äger	-10.0794
▁trakt	-10.0794
▁övermåttan	-10.0794
▁blick	-10.0794
▁höjderna	-10.0794
▁Tänk	-10.0795
▁sjukdom	-10.0798
▁förströ	-10.0805
▁verkligen	-10.0805
▁di	-10.0819
▁vingårdar	-10.0845
▁mjölk	-10.0845
höll	-10.0882
Må	-10.0931
▁värdig	-10.1
Konung	-10.1019
▁Herodes	-10.1021
▁Isaskar	-10.1021
▁hövitsman	-10.1021
▁templet	-10.1021
▁Simei	-10.1021
▁förbundsark	-10.1021
▁förstling	-10.1021
▁velat	-10.1021
▁herrar	-10.1021
▁konungshuset	-10.1021
▁berett	-10.1021
falt	-10.1023
▁mindre	-10.1023
▁blås	-10.1024
▁band	-10.1029
▁ovan	-10.1029
▁Dag	-10.103
▁täcke	-10.1044
▁bind	-10.1084
▁ordning	-10.1103
kärl	-10.1114
▁länd	-10.1184
▁snö	-10.1253
▁underdånig	-10.1253
Mästare	-10.1253
▁Balak	-10.1253
▁Judeen	-10.1253
▁Sakarja	-10.1253
▁bedrövad	-10.1253
▁förbränna	-10.1253
▁förhärliga	-10.1253
▁mötes	-10.1253
▁offergärd	-10.1253
▁åminnelse	-10.1253
▁tjugufem	-10.1253
▁tillfälle	-10.1253
▁utbred	-10.1253
▁strand	-10.1254
▁folkslag	-10.1255
▁keruberna	-10.1258
▁bedrag	-10.1259
▁orättfärdighet	-10.126
▁judisk	-10.1261
▁riv	-10.129
farit	-10.1295
▁hoppas	-10.1295
Bort	-10.1308
▁pilar	-10.131
▁dårar	-10.1428
klipp	-10.148
▁druv	-10.1491
Lehem	-10.1491
▁Jisreel	-10.1491
▁alltjämt	-10.1491
▁bestämt	-10.1491
▁mörkblått	-10.1491
▁offerhöjder	-10.1491
▁Över	-10.1491
▁ångra	-10.1491
▁Benaja	-10.1492
▁fastmer	-10.1492
▁sträng	-10.1492
▁kyss	-10.1493
▁tvist	-10.1494
samme	-10.1494
▁Isai	-10.1497
undrade	-10.1499
▁skona	-10.1501
brett	-10.1506
▁tjän	-10.1565
▁slöt	-10.1569
▁tröst	-10.1586
Nej	-10.1596
▁invånar	-10.169
▁Ahas	-10.1729
llenast	-10.1734
▁Amasja	-10.1735
▁Jojakim	-10.1735
▁förgjorde	-10.1735
▁tillbehör	-10.1735
▁törne	-10.1735
▁Kirjat	-10.1735
▁Mispa	-10.1735
▁vakna	-10.1735
▁Semaja	-10.1735
▁uppståndelse	-10.1735
▁vänstra	-10.1735
▁undervisning	-10.1735
▁tända	-10.1736
▁Silo	-10.1736
▁någonsin	-10.1738
▁Kora	-10.174
▁fog	-10.1741
▁utskifta	-10.1744
▁jubla	-10.1748
▁förmana	-10.1822
städer	-10.1846
lek	-10.1895
▁ris	-10.1919
ämne	-10.1939
▁filisté	-10.1981
▁Gilgal	-10.1985
▁drabanterna	-10.1985
▁hyddor	-10.1985
▁myndighet	-10.1985
▁släppa	-10.1985
▁sucka	-10.1985
▁sömn	-10.1985
▁utplåna	-10.1985
▁önska	-10.1985
▁tappra	-10.1985
▁krona	-10.1985
▁brände	-10.1986
▁fikonträd	-10.1986
▁grenar	-10.1989
▁överdrag	-10.199
▁Seir	-10.2009
▁ätit	-10.2012
Allt	-10.2106
drevo	-10.2182
▁förakt	-10.2208
Amen	-10.2227
▁hund	-10.2232
luktande	-10.2242
▁Midjan	-10.2242
▁Simson	-10.2242
▁föreskrivet	-10.2242
▁lovsång	-10.2242
▁Jesaja	-10.2242
▁burit	-10.2242
▁svek	-10.2242
▁talenter	-10.2242
▁Under	-10.2242
▁fläck	-10.2242
▁skrev	-10.2242
▁Uria	-10.2242
▁härskaror	-10.2242
▁Stor	-10.2245
▁tiondedel	-10.2245
▁förlåten	-10.2246
▁härskara	-10.2252
▁förvara	-10.23
▁jebusé	-10.2505
▁Hesbon	-10.2505
▁begjut	-10.2505
▁bihustru	-10.2505
▁bådo	-10.2505
▁ungtjur	-10.2505
▁anklaga	-10.2505
▁gudstjänst	-10.2505
▁ädla	-10.2505
▁överallt	-10.2505
▁Vår	-10.2505
▁Konungen	-10.2507
▁känt	-10.2507
▁Tala	-10.2508
▁ogudaktighet	-10.2508
▁källa	-10.2508
skurna	-10.2509
▁skriften	-10.251
▁aska	-10.2511
▁tredjedel	-10.2513
▁härefter	-10.2518
▁röd	-10.252
▁besinn	-10.2543
▁ovän	-10.2583
▁efterfölj	-10.2606
▁hedningar	-10.2726
mått	-10.2743
▁övr	-10.2772
väpnade	-10.2775
▁Kaleb	-10.2775
▁gärd	-10.2775
▁konungadöme	-10.2775
▁kungör	-10.2775
▁upphöjd	-10.2775
▁äktenskapsbrott	-10.2775
▁även	-10.2775
▁betyga	-10.2775
▁anförare	-10.2775
▁Satan	-10.2775
▁vapen	-10.2776
▁femton	-10.2776
▁skräck	-10.2776
▁anslag	-10.2776
▁krets	-10.2776
▁Sinai	-10.2777
▁trygghet	-10.2783
▁Ahasja	-10.2784
▁Hamat	-10.2786
▁växte	-10.2791
▁dy	-10.2792
▁uttala	-10.2793
mmel	-10.2811
byggnad	-10.2848
▁drev	-10.2859
innes	-10.2873
Sannerligen	-10.2913
gjort	-10.2915
Denne	-10.292
▁besatt	-10.2999
▁löv	-10.3053
▁Gibeon	-10.3053
▁efoden	-10.3053
▁förskräcka	-10.3053
▁livklädnad	-10.3053
▁lustgård	-10.3053
▁plötslig	-10.3053
▁svärdsegg	-10.3053
▁tjuv	-10.3053
▁tjänstekvinna	-10.3053
▁värn	-10.3053
▁övermäktig	-10.3053
▁längd	-10.3053
▁Assur	-10.3053
▁Merari	-10.3053
▁blygas	-10.3053
▁buga	-10.3053
▁lemmar	-10.3053
▁himlar	-10.3054
▁vänster	-10.3054
▁utgöra	-10.3054
▁framgent	-10.3054
▁skaror	-10.3055
▁våd	-10.3057
hövitsmännen	-10.3068
▁lysa	-10.307
stående	-10.3126
▁läst	-10.313
▁bese	-10.3175
Säg	-10.3199
Icke	-10.3199
När	-10.32
▁kunnig	-10.3208
såg	-10.3221
▁häpna	-10.3241
jungen	-10.3291
▁hemsök	-10.3295
▁grön	-10.3335
▁Sydlandet	-10.3339
▁flickan	-10.3339
▁fromma	-10.3339
▁gräv	-10.3339
▁märkt	-10.3339
▁ryckte	-10.3339
▁tabernakel	-10.3339
▁trött	-10.3339
▁utkräv	-10.3339
▁yttre	-10.3339
▁åttonde	-10.3339
▁förklara	-10.3339
veck	-10.3339
▁Sihon	-10.3339
▁utvalde	-10.3339
▁famn	-10.3342
▁visdom	-10.3342
▁brinnande	-10.3342
▁förneka	-10.3343
▁fågel	-10.3344
▁gläd	-10.3344
▁cederträ	-10.3346
▁skria	-10.3378
▁trygg	-10.3625
▁orättfärdig	-10.3625
▁åttio	-10.3633
Välsigna	-10.3633
▁Filippus	-10.3633
▁Hilkia	-10.3633
▁förhäv	-10.3633
▁molnskyn	-10.3633
▁oomskurna	-10.3633
▁osyrade	-10.3633
▁rosenrö	-10.3633
▁stolpar	-10.3633
▁uttydning	-10.3633
▁vrång	-10.3633
▁ägodelar	-10.3633
▁årsgam	-10.3633
▁vandel	-10.3633
▁ådrag	-10.3633
▁tårar	-10.3633
▁bran	-10.3636
▁Abia	-10.3637
▁torn	-10.3637
▁Lea	-10.3639
▁ogärningsmän	-10.364
▁lyste	-10.3641
▁avund	-10.3642
▁teg	-10.3645
brot	-10.3659
Här	-10.3796
▁mörk	-10.389
▁barmhärtig	-10.3928
▁bly	-10.3935
▁Johanan	-10.3936
▁Nebukadressar	-10.3936
▁efterkommande	-10.3936
▁förnämsta	-10.3936
▁förstfött	-10.3936
▁grotta	-10.3936
▁gräshoppor	-10.3936
▁moderlivet	-10.3936
▁nalkas	-10.3936
▁nionde	-10.3936
▁teckna	-10.3936
▁uppenbarelse	-10.3936
▁väktar	-10.3936
▁ägde	-10.3936
▁bedjen	-10.3936
▁visserligen	-10.3936
bryter	-10.3936
▁hjul	-10.3936
▁fresta	-10.3936
▁frivillig	-10.3936
▁Kehat	-10.3936
▁befallde	-10.3936
▁ugn	-10.3936
▁brus	-10.3937
▁måltid	-10.3938
▁baner	-10.3939
▁hindra	-10.3939
▁grek	-10.3939
▁stadsport	-10.3946
▁altar	-10.3983
▁stridsmän	-10.4001
▁krigsmän	-10.4024
▁fånge	-10.4035
▁härska	-10.4066
▁överstepräst	-10.4107
höjden	-10.4108
▁fräls	-10.4151
▁uträckt	-10.4157
▁farisé	-10.4244
▁ljungeld	-10.4248
▁Gedalja	-10.4248
▁Rebecka	-10.4248
▁bräder	-10.4248
▁djävulen	-10.4248
▁fylla	-10.4248
▁fästa	-10.4248
▁kämpa	-10.4248
▁möta	-10.4248
▁örn	-10.4248
▁lampor	-10.4248
▁släppt	-10.4248
▁gröda	-10.4248
▁motståndare	-10.4248
▁ditned	-10.4248
▁stridbara	-10.4248
▁sorgdräkt	-10.425
▁fira	-10.4252
▁skäl	-10.426
▁värd	-10.4287
▁älsk	-10.4287
girig	-10.4311
▁riklig	-10.4508
▁pryd	-10.4531
▁Ahasveros	-10.4571
▁Ytterligare	-10.4571
▁aderton	-10.4571
▁avfällighet	-10.4571
▁avkomma	-10.4571
▁bägare	-10.4571
▁fruktansvärd	-10.4571
▁fullkomlig	-10.4571
▁längta	-10.4571
▁purpurrött	-10.4571
▁påskhögtid	-10.4571
▁sköka	-10.4571
▁svurit	-10.4571
▁sälja	-10.4571
▁tillbådo	-10.4571
▁tillsyningsmän	-10.4571
▁utväljer	-10.4571
▁västra	-10.4571
▁ständig	-10.4571
▁beståndande	-10.4571
▁stötesten	-10.4571
▁moabit	-10.4571
▁krigsfolk	-10.4571
▁grann	-10.4571
▁täckelse	-10.4571
▁Sidon	-10.4571
▁darra	-10.4571
▁försynda	-10.4571
▁dyrka	-10.4571
▁sjunga	-10.4572
▁likaså	-10.4574
▁arter	-10.4575
▁gap	-10.4576
▁betala	-10.4577
▁raka	-10.4579
▁invig	-10.4582
▁sjö	-10.4584
▁Andr	-10.4587
▁last	-10.4613
▁anse	-10.4669
▁lärjunge	-10.4703
lott	-10.4784
Välan	-10.4877
▁trumpet	-10.4904
▁Ebjatar	-10.4904
▁Safan	-10.4904
▁bekymmer	-10.4904
▁bönhör	-10.4904
▁dåraktig	-10.4904
▁dödsklagan	-10.4904
▁föräldrar	-10.4904
▁lögnaktig	-10.4904
▁sabbatsdagen	-10.4904
▁samvete	-10.4904
▁yngre	-10.4904
▁hungrig	-10.4904
▁ståthållare	-10.4904
▁vattna	-10.4904
▁tillstadde	-10.4904
▁fostr	-10.4904
▁Obed	-10.4904
▁betyda	-10.4904
▁Jefta	-10.4904
▁befallt	-10.4905
▁insikt	-10.4905
▁skuldoffer	-10.4906
▁lån	-10.4908
▁vanlig	-10.4909
▁utropa	-10.4913
Följ	-10.4941
vikit	-10.5021
▁upptänd	-10.5241
▁Lammet	-10.5249
▁brokig	-10.5249
▁nymånad	-10.5249
▁räddning	-10.5249
▁räkning	-10.5249
▁skilje	-10.5249
▁säker	-10.5249
▁tacksägelse	-10.5249
▁åstunda	-10.5249
▁ömka	-10.5249
▁öppet	-10.5249
▁----	-10.5249
▁Hananja	-10.5249
▁dårskap	-10.5251
▁förjaga	-10.5251
▁locka	-10.5252
▁funne	-10.5253
allel	-10.5254
▁pant	-10.5255
▁tanke	-10.5257
▁döpt	-10.526
drivna	-10.5261
▁spåmän	-10.5272
▁vaka	-10.5272
given	-10.5277
summa	-10.5386
▁gärning	-10.5532
▁besök	-10.5605
▁Barnabas	-10.5606
▁akacieträ	-10.5606
▁assyrisk	-10.5606
▁bespeja	-10.5606
▁delaktig	-10.5606
▁dubbel	-10.5606
▁faderlöse	-10.5606
▁förblev	-10.5606
▁förfärad	-10.5606
▁förskjut	-10.5606
▁himmelriket	-10.5606
▁jämra	-10.5606
▁kryddor	-10.5606
▁lyckosam	-10.5606
▁plågor	-10.5606
▁uppsluka	-10.5606
▁växer	-10.5606
▁äkta	-10.5606
▁Tarsis	-10.5606
▁knorra	-10.5606
▁Baesa	-10.5606
▁elände	-10.5606
▁gamle	-10.5606
▁betänk	-10.5608
▁Kades	-10.5608
▁grönska	-10.5611
▁mängd	-10.5617
▁fördrag	-10.5619
▁Väl	-10.5636
▁bränn	-10.5638
lämna	-10.5811
kommer	-10.5826
tiofem	-10.5842
slöto	-10.5856
▁känd	-10.5905
▁utstå	-10.5953
ldrig	-10.5975
▁Amalek	-10.5977
▁Amnon	-10.5977
▁Häls	-10.5977
▁begynna	-10.5977
▁fyrfotadjur	-10.5977
▁hämna	-10.5977
▁härhövitsman	-10.5977
▁omstörta	-10.5977
▁psaltare	-10.5977
▁upphöjt	-10.5977
▁ögonblick	-10.5977
▁befäl	-10.5977
▁kedjor	-10.5977
▁upphöja	-10.5977
▁Sallum	-10.5977
▁nasir	-10.5977
sinnig	-10.5977
▁anseende	-10.5977
▁fångna	-10.5977
▁panna	-10.5977
▁pund	-10.5978
▁skänk	-10.6185
broder	-10.6222
Saliga	-10.6222
▁pil	-10.6277
▁Bättre	-10.6361
▁Karmel	-10.6361
▁betjäna	-10.6361
▁budbärare	-10.6361
▁drucko	-10.6361
▁fördenskull	-10.6361
▁förmörka	-10.6361
▁jämn	-10.6361
▁lovsjunga	-10.6361
▁njurar	-10.6361
▁njuta	-10.6361
▁nådastolen	-10.6361
▁ofruktsam	-10.6361
▁ordspråk	-10.6361
▁stormvind	-10.6361
▁svärfader	-10.6361
▁vattnen	-10.6361
▁vederkvick	-10.6361
Skaff	-10.6361
▁hagel	-10.6361
▁handfyllning	-10.6361
▁hellre	-10.6361
▁Baruk	-10.6361
▁innersta	-10.6361
▁förstocka	-10.6362
▁Tamar	-10.6362
▁legat	-10.6362
▁försåt	-10.6362
▁fördold	-10.6362
▁syntes	-10.6363
Ammi	-10.6364
▁förvilla	-10.6366
▁förlita	-10.6373
Intet	-10.6377
▁brinn	-10.6385
Sua	-10.6386
▁frambär	-10.6599
Eftersom	-10.6622
▁helgedomssik	-10.6761
▁Mesullam	-10.6761
▁Pinehas	-10.6761
▁Samarien	-10.6761
▁bälte	-10.6761
▁hjälte	-10.6761
▁kejsaren	-10.6761
▁misskund	-10.6761
▁plundring	-10.6761
▁äventyr	-10.6761
syssla	-10.6761
▁spisoffret	-10.6761
▁Malki	-10.6761
▁Nasaret	-10.6761
▁skipa	-10.6761
▁berättelse	-10.6761
▁uträcka	-10.6761
▁stolta	-10.6761
▁Nebat	-10.6761
▁Arnon	-10.6761
▁pelarna	-10.6761
stift	-10.6761
▁Seraja	-10.6761
▁betalning	-10.6762
▁Boas	-10.6762
▁heder	-10.6762
▁damm	-10.6762
▁förödelse	-10.6762
▁Nåd	-10.6764
▁föreståndar	-10.6765
▁hetiterna	-10.6775
▁bortförd	-10.6816
▁ikläd	-10.7032
Frå	-10.7039
▁bedrev	-10.7147
ngalunda	-10.7178
▁Darejaves	-10.7178
▁Lakis	-10.7178
▁Serujas	-10.7178
▁Timoteus	-10.7178
▁etiopier	-10.7178
▁förgrymmelse	-10.7178
▁förgäves	-10.7178
▁smädelse	-10.7178
▁stjäl	-10.7178
▁tecknet	-10.7178
▁terebint	-10.7178
▁tillräkna	-10.7178
▁tjugutvå	-10.7178
▁trångmål	-10.7178
▁upphäva	-10.7178
▁vandren	-10.7178
▁åkrar	-10.7178
▁örter	-10.7178
Folket	-10.7178
▁Joahas	-10.7178
▁betesmark	-10.7178
▁bröllop	-10.7178
▁tavlor	-10.7178
▁viftoffer	-10.7178
▁mild	-10.7178
▁drack	-10.7178
▁försvinna	-10.7178
▁Kores	-10.7178
▁tretton	-10.7178
▁längs	-10.7178
▁sexton	-10.7178
▁himmelska	-10.7178
▁Jotam	-10.7179
▁siare	-10.7181
▁kränk	-10.7181
Håll	-10.7182
▁försvara	-10.7182
Frid	-10.7193
givit	-10.7214
▁familj	-10.7308
▁fikon	-10.7611
2	-10.7613
▁hebré	-10.7613
▁tillspillogiv	-10.7613
▁Ekron	-10.7613
▁Frälsare	-10.7613
▁Gomorra	-10.7613
▁Maaseja	-10.7613
▁dörrvaktarna	-10.7613
▁egyptisk	-10.7613
▁förhärja	-10.7613
▁granatäpple	-10.7613
▁hebreisk	-10.7613
▁killing	-10.7613
▁osyrat	-10.7613
▁saktmod	-10.7613
▁sammalunda	-10.7613
▁tolfte	-10.7613
▁tröskel	-10.7613
▁utgjutit	-10.7613
▁utseende	-10.7613
▁värre	-10.7613
▁ägare	-10.7613
▁ämbete	-10.7613
▁öppning	-10.7613
Träd	-10.7613
▁pelarhuvud	-10.7613
▁arbets	-10.7613
▁tjock	-10.7613
▁flöda	-10.7613
▁förfärdiga	-10.7613
▁spetsen	-10.7613
▁framsida	-10.7613
▁Hasael	-10.7613
▁grym	-10.7613
▁Kain	-10.7613
▁kungjor	-10.7614
Semes	-10.7622
▁dräp	-10.7633
▁skinn	-10.7685
▁slakt	-10.7841
▁perisséerna	-10.8067
skaffen	-10.8067
▁Esaias	-10.8067
▁Macedonien	-10.8067
▁allraheligaste	-10.8067
▁anskaffa	-10.8067
▁antända	-10.8067
▁begrunda	-10.8067
▁blodskuld	-10.8067
▁bokrulle	-10.8067
▁ersättning	-10.8067
▁hungra	-10.8067
▁klagorop	-10.8067
▁näsa	-10.8067
▁omkull	-10.8067
▁silvret	-10.8067
▁smörjelseolja	-10.8067
▁sysslor	-10.8067
▁sålunda	-10.8067
▁tjänarinnor	-10.8067
▁Likaledes	-10.8067
▁Makir	-10.8067
▁bakhåll	-10.8067
▁Nabal	-10.8067
▁natur	-10.8067
▁glans	-10.8067
▁ammonit	-10.8067
▁Amos	-10.8067
▁Susan	-10.8067
▁grundvalar	-10.8068
▁miste	-10.8069
▁dold	-10.8072
spill	-10.8073
▁bördig	-10.8075
klädd	-10.8092
▁olik	-10.8105
lydnad	-10.8142
arbete	-10.8165
hövding	-10.8404
▁flod	-10.8449
▁egyptier	-10.8479
0	-10.8543
▁cypress	-10.8543
▁klöv	-10.8543
▁purpur	-10.8543
▁Isebel	-10.8543
▁Persien	-10.8543
▁Serubbabel	-10.8543
▁amalekiterna	-10.8543
▁apostel	-10.8543
▁arvslott	-10.8543
▁frågen	-10.8543
▁förvirring	-10.8543
▁havsländer	-10.8543
▁häftig	-10.8543
▁häravdelning	-10.8543
▁middag	-10.8543
▁oomskure	-10.8543
▁orättrådig	-10.8543
▁ouppsåtlig	-10.8543
▁publikan	-10.8543
▁påskalammet	-10.8543
▁rämna	-10.8543
▁sammankomst	-10.8543
▁spärra	-10.8543
▁vanära	-10.8543
▁vapendragare	-10.8543
▁vånda	-10.8543
▁yngste	-10.8543
▁ypperst	-10.8543
▁äldre	-10.8543
▁genomborra	-10.8543
▁Gerson	-10.8543
▁smort	-10.8543
▁kunglig	-10.8543
▁årsgammal	-10.8543
▁Hiram	-10.8543
▁Amasa	-10.8543
▁Nabot	-10.8543
▁åligg	-10.8544
▁Geba	-10.8544
▁Elkana	-10.8544
▁Sisera	-10.8544
▁omringa	-10.8544
▁ödelagd	-10.8545
▁kuva	-10.8546
▁rycke	-10.8548
▁nittio	-10.8586
▁undkomm	-10.8594
▁nedgjord	-10.8715
kunniga	-10.8767
▁gudlös	-10.8794
Till	-10.8904
HERRE	-10.8904
▁ceder	-10.903
▁hedmark	-10.9043
▁tröskplats	-10.9043
▁äktenskapsbryt	-10.9043
ammansvärjning	-10.9043
▁Ahitofel	-10.9043
▁Netanja	-10.9043
▁Nilfloden	-10.9043
▁Noomi	-10.9043
▁Obadja	-10.9043
▁Själv	-10.9043
▁drucken	-10.9043
▁druckit	-10.9043
▁druckna	-10.9043
▁fönster	-10.9043
▁hivéerna	-10.9043
▁jämmer	-10.9043
▁levitisk	-10.9043
▁märka	-10.9043
▁plocka	-10.9043
▁surdeg	-10.9043
▁tidsålder	-10.9043
▁tillkommelse	-10.9043
▁vedermöda	-10.9043
▁åsninna	-10.9043
▁elfte	-10.9043
▁fängsla	-10.9043
▁stappla	-10.9043
▁mutor	-10.9043
▁Nadab	-10.9044
▁omsorg	-10.9044
▁lagbok	-10.9044
▁skicklig	-10.9045
seglade	-10.9051
▁spetälsk	-10.9274
kommit	-10.9392
▁benjaminit	-10.957
▁fyrfat	-10.957
▁välsigne	-10.957
saltaret	-10.957
▁Abisai	-10.957
▁Antiokia	-10.957
▁Sammalunda	-10.957
▁Suckot	-10.957
▁förfäran	-10.957
▁jordbävning	-10.957
▁klagosång	-10.957
▁kraftgärningar	-10.957
▁livsfrukt	-10.957
▁omskära	-10.957
▁orygglig	-10.957
▁ostraffad	-10.957
▁palmer	-10.957
▁smörjelse	-10.957
▁systrar	-10.957
▁sälje	-10.957
▁tempelkamrar	-10.957
▁tålamod	-10.957
▁Asdod	-10.957
▁cedrar	-10.957
▁lampa	-10.957
▁lugn	-10.957
▁strömmen	-10.957
▁trädgård	-10.957
▁hårdnacka	-10.957
▁lidit	-10.957
▁angrep	-10.957
▁släppe	-10.957
▁kruka	-10.957
▁befria	-10.957
▁Asien	-10.957
▁förvissna	-10.957
▁förrådshus	-10.9572
Stann	-10.9592
U	-11.3348
6	-11.8592
1	-12.0021
9	-12.1687
Y	-12.1687
ó	-12.1687
5	-12.3687
3	-12.3687
7	-12.3687
í	-12.6187
]	-13.4521
8	-14.4511
4	-14.4512
C	-14.4513
(	-14.4514
Ö	-14.4515
Å	-14.4516
Ä	-14.4517
L	-14.4518
J	-14.4519
ö	-14.452
á	-14.4521
ä	-14.4521
