<pad>	0
</s>	0
<unk>	0
▁¦	-0
an	-1
ma	-2
ch	-3
▁y	-4
in	-5
aj	-6
is	-7
▁t	-8
al	-9
naj	-10
▁𐋇	-11
▁h	-12
et	-13
eb	-14
mam	-15
il	-16
co	-17
un	-18
ca	-19
▁ch	-20
▁is	-21
to	-22
ay	-23
ul	-24
▁C	-25
ˈ¦	-26
ni	-27
▁Co	-28
▁Comam	-29
▁̈	-30
ebnaj	-31
xin	-32
ah	-33
▁,	-34
▁naj	-35
ey	-36
ab	-37
el	-38
ax	-39
at	-40
▁ma	-41
tz	-42
▁tu	-43
▁yin	-44
caw	-45
▁ebnaj	-46
anma	-47
ti	-48
▁hun	-49
▁chi	-50
oj	-51
▁ha	-52
▁.	-53
comam	-54
▁yu	-55
can	-56
io	-57
ios	-58
ak	-59
chi	-60
en	-61
▁xin	-62
wal	-63
▁tz	-64
aw	-65
tu	-66
▁yul	-67
▁caw	-68
te	-69
yu	-70
▁ay	-71
▁s	-72
▁Y	-73
tx	-74
ha	-75
ta	-76
yin	-77
pax	-78
▁ti	-79
es	-80
hun	-81
ix	-82
▁D	-83
ex	-84
▁hune	-85
alni	-86
▁Dios	-87
ẍi	-88
▁anma	-89
▁H	-90
▁yeb	-91
▁tet	-92
xa	-93
ˈ,	-94
ol	-95
on	-96
▁co	-97
wi	-98
unil	-99
ban	-100
ic	-101
▁b	-102
han	-103
▁tzet	-104
▁w	-105
▁ta	-106
▁J	-107
no	-108
▁―	-109
▁j	-110
▁mach	-111
ej	-112
taj	-113
paxo	-114
▁yet	-115
▁ca	-116
oc	-117
bal	-118
▁isc	-119
▁ẍi	-120
ap	-121
yul	-122
ba	-123
oh	-124
ico	-125
▁yi	-126
▁c	-127
▁I	-128
am	-129
cano	-130
ec	-131
atx	-132
dios	-133
yi	-134
hune	-135
▁haca	-136
ilo	-137
tzet	-138
ob	-139
▁sat	-140
ahan	-141
▁Is	-142
tek	-143
▁x	-144
om	-145
▁mac	-146
isto	-147
tet	-148
▁Jes	-149
inal	-150
yeb	-151
▁hey	-152
watx	-153
▁ix	-154
uy	-155
man	-156
ˈ.	-157
eh	-158
jan	-159
aja	-160
isc	-161
mach	-162
▁Ha	-163
yet	-164
▁l	-165
risto	-166
tan	-167
lax	-168
uc	-169
ojan	-170
▁sunil	-171
qu	-172
▁isk	-173
ús	-174
▁tato	-175
▁in	-176
chej	-177
inan	-178
▁yuto	-179
▁con	-180
tzo	-181
ulal	-182
ra	-183
▁W	-184
ahaw	-185
▁Yu	-186
▁:	-187
sat	-188
▁cat	-189
niman	-190
ucristo	-191
▁ye	-192
▁tx	-193
ahwi	-194
▁hunu	-195
▁isba	-196
eyet	-197
lo	-198
▁huntek	-199
ayet	-200
ilal	-201
er	-202
▁M	-203
▁yalni	-204
▁bey	-205
itz	-206
em	-207
apni	-208
▁Wal	-209
▁chu	-210
che	-211
chah	-212
ya	-213
haca	-214
bil	-215
mac	-216
banil	-217
▁yal	-218
ilni	-219
bi	-220
▁bay	-221
rael	-222
▁chey	-223
▁wal	-224
▁A	-225
con	-226
chejab	-227
▁chal	-228
▁Jesús	-229
▁yuxin	-230
aco	-231
▁chis	-232
ye	-233
hey	-234
yalni	-235
otx	-236
tic	-237
um	-238
ojab	-239
▁yiban	-240
▁¿	-241
oche	-242
▁yel	-243
ayic	-244
uẍ	-245
sunil	-246
jes	-247
▁te	-248
ac	-249
▁m	-250
yel	-251
▁han	-252
bey	-253
▁yun	-254
yuto	-255
uyw	-256
ar	-257
▁P	-258
im	-259
▁n	-260
cam	-261
ayo	-262
yij	-263
▁Caw	-264
ayto	-265
▁Jesucristo	-266
isk	-267
ˈ:	-268
axa	-269
▁k	-270
col	-271
yuxin	-272
tato	-273
▁T	-274
ri	-275
▁ism	-276
ahawil	-277
▁S	-278
▁“	-279
▁machi	-280
ach	-281
we	-282
▁p	-283
▁hac	-284
▁L	-285
banile	-286
▁ayco	-287
▁istx	-288
▁no	-289
▁chin	-290
ut	-291
ich	-292
▁teyet	-293
▁xol	-294
chu	-295
▁yak	-296
▁maẍ	-297
as	-298
aben	-299
▁Yalni	-300
tel	-301
yal	-302
wan	-303
ojal	-304
tzoti	-305
hac	-306
chal	-307
eba	-308
la	-309
xol	-310
ehi	-311
▁cam	-312
anil	-313
ro	-314
uj	-315
ib	-316
▁Israel	-317
tajil	-318
▁yanma	-319
anto	-320
anico	-321
do	-322
emp	-323
atan	-324
cat	-325
▁Yuxin	-326
ebil	-327
wa	-328
atut	-329
▁E	-330
▁yoc	-331
▁ak	-332
huntek	-333
txa	-334
▁hex	-335
abal	-336
apno	-337
isba	-338
nimanil	-339
▁yip	-340
walan	-341
ebix	-342
▁Hayet	-343
ablo	-344
▁Lahwi	-345
▁ischejab	-346
na	-347
hunu	-348
▁yaja	-349
etan	-350
cha	-351
pí	-352
bay	-353
ho	-354
us	-355
píri	-356
ohtaj	-357
píritu	-358
yaja	-359
▁qu	-360
xaco	-361
abe	-362
▁win	-363
yak	-364
▁isto	-365
▁Hac	-366
chey	-367
▁he	-368
icham	-369
tak	-370
maj	-371
án	-372
▁Yaja	-373
lah	-374
uywom	-375
amb	-376
▁ni	-377
walil	-378
tzotel	-379
ed	-380
ute	-381
▁Yet	-382
xan	-383
jesús	-384
chis	-385
inti	-386
xi	-387
▁haw	-388
▁chex	-389
ahol	-390
ila	-391
uẍta	-392
▁Ch	-393
yiban	-394
és	-395
axan	-396
▁chij	-397
yun	-398
ón	-399
hol	-400
▁?	-401
ala	-402
ibn	-403
▁―¿	-404
▁tinan	-405
mal	-406
ip	-407
▁isp	-408
eyin	-409
ulch	-410
ohtan	-411
machi	-412
hul	-413
▁istz	-414
hex	-415
▁isya	-416
▁chiw	-417
▁iswi	-418
edro	-419
▁hunun	-420
oti	-421
chin	-422
uybanile	-423
ois	-424
ohal	-425
oisés	-426
▁niman	-427
jesucristo	-428
uẍtaj	-429
tzwalil	-430
li	-431
abel	-432
iloj	-433
majul	-434
,”	-435
ism	-436
tojan	-437
etic	-438
▁ec	-439
istx	-440
chahni	-441
▁matxa	-442
maẍ	-443
▁heyanma	-444
▁ton	-445
▁yatut	-446
lahwi	-447
▁heba	-448
▁ebix	-449
nico	-450
ek	-451
gel	-452
ayco	-453
hayet	-454
ani	-455
ángel	-456
▁Ay	-457
▁Pablo	-458
da	-459
abil	-460
hal	-461
▁yilal	-462
je	-463
▁lan	-464
▁iswatx	-465
ley	-466
▁xahan	-467
teyet	-468
yoc	-469
uan	-470
haw	-471
chel	-472
chico	-473
▁yaj	-474
canoj	-475
▁to	-476
amben	-477
▁yilni	-478
ule	-479
exol	-480
▁texol	-481
▁ixim	-482
tit	-483
▁yalan	-484
▁satcan	-485
itzitz	-486
▁Es	-487
empohal	-488
uhan	-489
obal	-490
israel	-491
xahan	-492
▁maca	-493
▁sata	-494
anxa	-495
ea	-496
nihan	-497
▁yelapno	-498
▁isn	-499
▁icham	-500
yanma	-501
▁yapni	-502
én	-503
▁hunel	-504
▁¡	-505
hil	-506
▁Hun	-507
anab	-508
▁chiwalan	-509
win	-510
eo	-511
▁yehi	-512
ehan	-513
awet	-514
▁chon	-515
awom	-516
yip	-517
▁Yuto	-518
▁iscuywom	-519
yaj	-520
ical	-521
ik	-522
go	-523
▁maẍto	-524
anc	-525
▁isti	-526
alén	-527
ehal	-528
usalén	-529
erusalén	-530
▁isb	-531
xinwal	-532
acer	-533
dote	-534
▁chak	-535
acerdote	-536
ano	-537
ischejab	-538
utx	-539
empo	-540
▁isbi	-541
▁yaben	-542
▁Espíritu	-543
▁Ta	-544
▁teyin	-545
elo	-546
▁Haxa	-547
▁oc	-548
▁yahawil	-549
lan	-550
howal	-551
▁Pedro	-552
▁Moisés	-553
▁cuybanile	-554
▁Istzoti	-555
▁juẍta	-556
ayoj	-557
▁N	-558
▁wetan	-559
▁matzwalil	-560
he	-561
▁hec	-562
▁jet	-563
▁ho	-564
▁yinta	-565
rey	-566
▁Han	-567
ub	-568
hel	-569
▁Istak	-570
ij	-571
elico	-572
yelal	-573
▁choche	-574
Tz	-575
quin	-576
ilax	-577
tinan	-578
yo	-579
▁chico	-580
▁lahan	-581
▁ayxaco	-582
espíritu	-583
ujan	-584
alah	-585
isp	-586
▁ismajul	-587
cab	-588
▁ismul	-589
mi	-590
▁chaw	-591
maman	-592
lahan	-593
▁nich	-594
▁tzoti	-595
▁col	-596
▁chiak	-597
aban	-598
▁janma	-599
eso	-600
▁ya	-601
▁quin	-602
chex	-603
▁Yaj	-604
santo	-605
▁jin	-606
paxojan	-607
aba	-608
▁Santo	-609
istz	-610
▁ah	-611
▁iss	-612
▁chej	-613
▁chioc	-614
rah	-615
alax	-616
Tzet	-617
▁hal	-618
mun	-619
Mam	-620
▁Yin	-621
▁Juan	-622
▁quex	-623
etx	-624
chiw	-625
elax	-626
ˈ?	-627
yilal	-628
▁yuninal	-629
ten	-630
icto	-631
ton	-632
▁yahaw	-633
chij	-634
▁yij	-635
bican	-636
▁istan	-637
txum	-638
ayat	-639
ulan	-640
ati	-641
itzc	-642
▁yeli	-643
ayical	-644
iswatx	-645
▁yebpaxo	-646
quex	-647
▁babel	-648
le	-649
▁Hune	-650
ech	-651
enilo	-652
hunun	-653
▁chiyu	-654
matxa	-655
alo	-656
tom	-657
▁yechel	-658
ías	-659
bahan	-660
▁In	-661
▁cha	-662
tax	-663
ilan	-664
iswi	-665
isya	-666
cach	-667
uywawom	-668
ew	-669
▁B	-670
ocan	-671
yijen	-672
▁,”	-673
▁wi	-674
▁xa	-675
anmahan	-676
toj	-677
▁ángel	-678
ebilcano	-679
▁;	-680
▁an	-681
▁yah	-682
▁Mach	-683
▁anmahil	-684
reso	-685
ud	-686
ahli	-687
intijan	-688
bej	-689
▁Ma	-690
nilo	-691
haxa	-692
▁Yalnipaxo	-693
halni	-694
▁chiwal	-695
▁o	-696
▁el	-697
yan	-698
aris	-699
yije	-700
colwa	-701
▁Jerusalén	-702
ino	-703
▁chiswatx	-704
oji	-705
heyanma	-706
yatut	-707
yilni	-708
▁hach	-709
beybal	-710
faris	-711
▁haxinwal	-712
heba	-713
▁xil	-714
▁chic	-715
▁sacerdote	-716
atz	-717
ito	-718
fariseo	-719
▁ismunil	-720
eto	-721
ía	-722
pablo	-723
tohan	-724
▁isnimanil	-725
▁Tz	-726
▁tiempo	-727
elyu	-728
paxoj	-729
id	-730
nipaxo	-731
▁isley	-732
▁macta	-733
yah	-734
▁che	-735
raham	-736
iban	-737
▁chitz	-738
▁cawan	-739
▁Cristo	-740
▁maẍtaj	-741
os	-742
coj	-743
▁isnabal	-744
des	-745
balil	-746
▁istohol	-747
ixal	-748
ulus	-749
▁tawet	-750
canojan	-751
▁maẍtic	-752
alil	-753
▁inc	-754
▁ayex	-755
▁chito	-756
ochehan	-757
anan	-758
xinto	-759
yapni	-760
ixim	-761
yalan	-762
▁hunelxa	-763
unin	-764
texol	-765
▁Haca	-766
chiwalan	-767
tam	-768
▁yay	-769
▁waxan	-770
sata	-771
cawxi	-772
isn	-773
▁heyu	-774
satcan	-775
▁cheyute	-776
ohta	-777
ulo	-778
▁Hex	-779
chon	-780
▁cab	-781
aybal	-782
ok	-783
▁rey	-784
▁yec	-785
icojan	-786
▁chiyij	-787
ia	-788
ajil	-789
atic	-790
ichmam	-791
▁Yum	-792
▁wuhan	-793
dado	-794
quil	-795
yelapno	-796
awin	-797
maca	-798
▁isyelal	-799
Tom	-800
len	-801
pil	-802
▁Isc	-803
▁yaw	-804
lahon	-805
oldado	-806
▁hayet	-807
▁iscam	-808
helanil	-809
alahilal	-810
yahawil	-811
xiw	-812
▁istzotel	-813
diosal	-814
hec	-815
Mach	-816
chalo	-817
Mamin	-818
yehi	-819
noj	-820
isti	-821
eltzo	-822
itzitzbican	-823
munil	-824
uk	-825
ẍte	-826
▁tit	-827
canico	-828
nicano	-829
chak	-830
Caw	-831
▁camom	-832
▁chihul	-833
ero	-834
ahil	-835
hach	-836
paxto	-837
hallax	-838
maẍto	-839
cancano	-840
▁Jahawil	-841
hunel	-842
inalo	-843
iscuywom	-844
▁ink	-845
▁ayon	-846
aybalc	-847
▁chala	-848
▁winaj	-849
▁camical	-850
▁ley	-851
▁yanico	-852
▁Inmaman	-853
mul	-854
istzoti	-855
▁jak	-856
yaben	-857
▁Sunil	-858
▁payat	-859
▁chalni	-860
eta	-861
iss	-862
▁lahwi	-863
iw	-864
etz	-865
▁watx	-866
▁howal	-867
▁ismam	-868
▁tzettaj	-869
bilcano	-870
ohtajan	-871
istak	-872
▁chil	-873
Ha	-874
▁coc	-875
▁ẍiayoj	-876
mak	-877
isbi	-878
it	-879
▁ish	-880
▁yuxinto	-881
bilintijan	-882
teyin	-883
walni	-884
ir	-885
▁G	-886
▁colbanile	-887
pedro	-888
imón	-889
▁yil	-890
▁wuẍtaj	-891
tocanoj	-892
▁ik	-893
chio	-894
▁chik	-895
▁yich	-896
▁chute	-897
cuybanile	-898
▁Ab	-899
arco	-900
wetan	-901
moisés	-902
yanico	-903
▁!	-904
ubal	-905
tajan	-906
juẍta	-907
▁preso	-908
▁cuywawom	-909
ann	-910
waxan	-911
matzwalil	-912
▁‐	-913
ujno	-914
etxum	-915
ilojan	-916
yinta	-917
pa	-918
jet	-919
chaw	-920
choche	-921
yebpaxo	-922
ayc	-923
car	-924
▁apni	-925
▁chiec	-926
vid	-927
ayxaco	-928
pan	-929
▁ishowal	-930
oht	-931
tzen	-932
yeni	-933
alilea	-934
▁wanab	-935
eni	-936
uyni	-937
▁coba	-938
chuquil	-939
▁tiempohal	-940
yahaw	-941
ismajul	-942
may	-943
web	-944
▁wet	-945
▁fariseo	-946
yaw	-947
nich	-948
▁cheyil	-949
▁wanmahan	-950
chiak	-951
ato	-952
awe	-953
▁Ak	-954
ahat	-955
ajan	-956
▁yoj	-957
paxico	-958
▁Hanin	-959
uch	-960
▁barco	-961
▁chaco	-962
▁Abraham	-963
▁Jud	-964
▁yan	-965
▁chiy	-966
▁hunuxa	-967
▁ischej	-968
nam	-969
jin	-970
ismul	-971
pilla	-972
▁chul	-973
▁islah	-974
▁chiwak	-975
juan	-976
ayilo	-977
istan	-978
ahi	-979
acob	-980
ahto	-981
chioc	-982
▁wa	-983
▁hes	-984
▁camo	-985
▁yeco	-986
▁chitan	-987
hi	-988
▁F	-989
▁il	-990
▁lah	-991
erodes	-992
ilnihan	-993
▁cheyak	-994
isb	-995
▁ismi	-996
▁itzitz	-997
ilti	-998
tebil	-999
ewilal	-1000
yalnipaxo	-1001
inc	-1002
▁Chi	-1003
cawan	-1004
▁hanic	-1005
▁chitit	-1006
▁matzet	-1007
▁heyalni	-1008
otel	-1009
taxca	-1010
ilato	-1011
inale	-1012
nojan	-1013
alan	-1014
yeli	-1015
▁lin	-1016
▁nan	-1017
babel	-1018
pitzc	-1019
▁Tzoti	-1020
▁sunilbal	-1021
aypaxo	-1022
andiosal	-1023
laxi	-1024
▁culus	-1025
yuxinto	-1026
ilaxto	-1027
ena	-1028
anni	-1029
chahi	-1030
yuninal	-1031
▁tzujan	-1032
ican	-1033
▁hay	-1034
yechel	-1035
▁munil	-1036
mon	-1037
ajilk	-1038
apnoj	-1039
▁lek	-1040
chiyu	-1041
▁haxa	-1042
me	-1043
Wal	-1044
balto	-1045
▁cach	-1046
chiwal	-1047
maẍtaj	-1048
txahli	-1049
▁hunxa	-1050
▁tawin	-1051
▁yulaj	-1052
▁ip	-1053
▁Isk	-1054
▁Tato	-1055
▁unin	-1056
▁conimanil	-1057
abx	-1058
▁me	-1059
alom	-1060
elel	-1061
chaho	-1062
▁yute	-1063
utxban	-1064
abxubal	-1065
cun	-1066
xil	-1067
janma	-1068
ahul	-1069
▁bisc	-1070
▁juẍtaj	-1071
▁istoholal	-1072
ión	-1073
lin	-1074
mar	-1075
cunc	-1076
tijan	-1077
ircunc	-1078
▁Mam	-1079
▁Mar	-1080
▁niẍte	-1081
anmahil	-1082
▁chihalni	-1083
▁machojab	-1084
ewan	-1085
olo	-1086
rigo	-1087
▁yeh	-1088
itzico	-1089
ohtajo	-1090
apnihan	-1091
camical	-1092
▁chischah	-1093
▁K	-1094
▁Da	-1095
chic	-1096
▁Yeb	-1097
mamin	-1098
etojan	-1099
▁nimanc	-1100
▁tzalahilal	-1101
zar	-1102
winaj	-1103
eniloj	-1104
chiswatx	-1105
ayxa	-1106
ayan	-1107
chil	-1108
cu	-1109
osé	-1110
wican	-1111
maẍtic	-1112
jerusalén	-1113
macta	-1114
haxinwal	-1115
oco	-1116
▁Naj	-1117
▁hel	-1118
▁huj	-1119
ismunil	-1120
ás	-1121
ana	-1122
nab	-1123
xeb	-1124
▁―¡	-1125
▁ist	-1126
yenilo	-1127
▁yixal	-1128
▁ayicto	-1129
▁chisje	-1130
▁soldado	-1131
sacerdote	-1132
▁istiempohal	-1133
Mac	-1134
amil	-1135
chiq	-1136
erna	-1137
nito	-1138
potx	-1139
ejhol	-1140
▁inti	-1141
isnimanil	-1142
▁Israeloj	-1143
och	-1144
unl	-1145
ahno	-1146
tiempo	-1147
▁An	-1148
ayex	-1149
▁can	-1150
isley	-1151
chalni	-1152
▁hantan	-1153
colo	-1154
chitz	-1155
anican	-1156
uybanil	-1157
tio	-1158
yaco	-1159
▁beh	-1160
▁hek	-1161
▁yuch	-1162
▁aypaxo	-1163
istohol	-1164
▁R	-1165
wej	-1166
yec	-1167
yil	-1168
etaj	-1169
▁Yoc	-1170
▁haba	-1171
cristo	-1172
▁yijem	-1173
▁jichmam	-1174
▁walxinto	-1175
isnabal	-1176
▁Sa	-1177
▁pan	-1178
aycan	-1179
▁yetbi	-1180
▁chawal	-1181
poh	-1182
tawet	-1183
enabal	-1184
ohtaxa	-1185
▁ac	-1186
cawx	-1187
▁chaẍ	-1188
▁yaco	-1189
▁ispaj	-1190
capilla	-1191
hanin	-1192
ẍa	-1193
▁toh	-1194
chito	-1195
alomal	-1196
ichico	-1197
▁chielico	-1198
▁xahanbalil	-1199
haj	-1200
hunelxa	-1201
▁Mac	-1202
▁yik	-1203
▁Waxan	-1204
▁heyak	-1205
▁Galilea	-1206
▁inbahan	-1207
▁ishelanil	-1208
ink	-1209
rco	-1210
heyu	-1211
▁sic	-1212
▁tan	-1213
anayo	-1214
▁María	-1215
▁heyet	-1216
cheyute	-1217
▁istxum	-1218
ilto	-1219
munla	-1220
machoj	-1221
▁v	-1222
jak	-1223
rato	-1224
▁wak	-1225
▁huno	-1226
▁tzujno	-1227
chiyij	-1228
yum	-1229
wuhan	-1230
▁Simón	-1231
▁iscol	-1232
▁janab	-1233
isyelal	-1234
ux	-1235
ina	-1236
uil	-1237
ambe	-1238
cojab	-1239
iscol	-1240
eyiban	-1241
canocan	-1242
ije	-1243
▁saj	-1244
▁mule	-1245
▁David	-1246
▁chiel	-1247
▁Aypaxo	-1248
▁chewatx	-1249
jahawil	-1250
mo	-1251
meta	-1252
nican	-1253
abehan	-1254
cawilal	-1255
▁chejab	-1256
▁cowatx	-1257
istzotel	-1258
▁chiapni	-1259
▁chitzala	-1260
▁chiwochehan	-1261
ep	-1262
machojab	-1263
▁hul	-1264
▁mar	-1265
▁Jacob	-1266
▁Machi	-1267
▁ixnam	-1268
▁wehan	-1269
▁Yuxinto	-1270
▁walnihan	-1271
san	-1272
bilxa	-1273
camom	-1274
ismam	-1275
acojan	-1276
alahan	-1277
▁X	-1278
ischej	-1279
▁Herodes	-1280
▁masanto	-1281
▁wintajan	-1282
▁chihallax	-1283
aho	-1284
hulan	-1285
inmaman	-1286
iswalil	-1287
uh	-1288
eho	-1289
eno	-1290
▁ej	-1291
anch	-1292
nabé	-1293
uxan	-1294
▁hem	-1295
▁chim	-1296
chihul	-1297
ejholo	-1298
ernabé	-1299
colomal	-1300
▁chicam	-1301
▁cheyaco	-1302
▁xewilal	-1303
ohtajojan	-1304
▁chejbanile	-1305
enan	-1306
wuẍtaj	-1307
awtebil	-1308
▁yo	-1309
ayon	-1310
▁mil	-1311
▁xiw	-1312
chiwa	-1313
▁nino	-1314
▁chach	-1315
▁jilni	-1316
▁melyu	-1317
▁nahat	-1318
▁Pilato	-1319
enta	-1320
ento	-1321
chala	-1322
ist	-1323
eloj	-1324
▁yuẍ	-1325
▁ayto	-1326
▁habil	-1327
▁aycano	-1328
▁hewatx	-1329
▁tzotel	-1330
▁ischahni	-1331
payat	-1332
ipe	-1333
nia	-1334
mame	-1335
umal	-1336
▁ayc	-1337
▁bak	-1338
elipe	-1339
▁chah	-1340
▁yabe	-1341
tzettaj	-1342
▁cheyal	-1343
▁chiwalti	-1344
coc	-1345
hes	-1346
wet	-1347
yay	-1348
anayto	-1349
sa	-1350
▁ohtan	-1351
▁cheyala	-1352
▁cablahon	-1353
oma	-1354
nayo	-1355
ẍiayoj	-1356
ircuncis	-1357
pon	-1358
▁man	-1359
laxto	-1360
▁ayin	-1361
▁halni	-1362
▁ismay	-1363
▁hununex	-1364
▁chitzotel	-1365
yelo	-1366
munlahan	-1367
fr	-1368
Han	-1369
Hex	-1370
anex	-1371
ohyi	-1372
▁sub	-1373
niloj	-1374
▁isbej	-1375
▁jalni	-1376
▁jetan	-1377
haninti	-1378
▁Hacpax	-1379
▁chintz	-1380
▁istzab	-1381
▁hawanma	-1382
▁ischuquil	-1383
ircuncisión	-1384
chik	-1385
chim	-1386
chute	-1387
nimanc	-1388
colbanile	-1389
nic	-1390
say	-1391
▁Eb	-1392
▁je	-1393
yich	-1394
▁yoche	-1395
▁yohtan	-1396
▁yichico	-1397
▁isbeybal	-1398
nan	-1399
camo	-1400
elwi	-1401
naxa	-1402
uywa	-1403
alaho	-1404
dor	-1405
▁Yak	-1406
▁car	-1407
▁xay	-1408
cawil	-1409
canilo	-1410
▁coxol	-1411
▁yayto	-1412
▁hetxum	-1413
▁haninti	-1414
▁yelapnoj	-1415
hay	-1416
chul	-1417
hanic	-1418
preso	-1419
cuywawom	-1420
bak	-1421
yik	-1422
erto	-1423
tzujan	-1424
▁trigo	-1425
▁chiwatx	-1426
va	-1427
chiec	-1428
melyu	-1429
techa	-1430
colchahi	-1431
tiempohal	-1432
▁cok	-1433
▁witz	-1434
Machoj	-1435
chiwak	-1436
▁insat	-1437
op	-1438
rom	-1439
uywi	-1440
abenan	-1441
unlawom	-1442
▁al	-1443
▁yani	-1444
▁Ebnaj	-1445
▁Tinan	-1446
▁chisc	-1447
▁yetxa	-1448
▁yohta	-1449
▁yunin	-1450
ishowal	-1451
▁Huntek	-1452
▁chiyal	-1453
▁machoj	-1454
▁wohtajan	-1455
lek	-1456
canto	-1457
islah	-1458
xatic	-1459
yoj	-1460
bilo	-1461
coba	-1462
omal	-1463
ulta	-1464
▁yic	-1465
webal	-1466
▁José	-1467
▁Roma	-1468
▁ewan	-1469
▁hawu	-1470
encano	-1471
▁carta	-1472
▁yocto	-1473
▁huneln	-1474
▁inwatx	-1475
▁quexchi	-1476
tze	-1477
tzab	-1478
yute	-1479
wanab	-1480
xahann	-1481
Ay	-1482
Ch	-1483
▁g	-1484
▁Maẍ	-1485
cheyil	-1486
matzet	-1487
▁Judea	-1488
▁iscab	-1489
▁yijni	-1490
▁isyeni	-1491
wanmahan	-1492
▁chitxum	-1493
▁hawalni	-1494
▁islahobal	-1495
ui	-1496
aso	-1497
cua	-1498
gip	-1499
ascua	-1500
gipto	-1501
labal	-1502
oberna	-1503
obernador	-1504
or	-1505
ˈ!	-1506
Yin	-1507
jud	-1508
barco	-1509
chaco	-1510
▁comon	-1511
▁majan	-1512
abraham	-1513
▁chicowatx	-1514
ayti	-1515
cheyak	-1516
chitan	-1517
hunuxa	-1518
ˈ,”	-1519
anci	-1520
desi	-1521
ijen	-1522
▁Isa	-1523
utxba	-1524
▁alax	-1525
ayojab	-1526
▁ayayo	-1527
▁yalno	-1528
desierto	-1529
▁issajilk	-1530
chitit	-1531
heyalni	-1532
hitzico	-1533
Dios	-1534
yeco	-1535
▁nok	-1536
isbej	-1537
▁isch	-1538
▁isye	-1539
▁comul	-1540
▁hanta	-1541
▁chiyak	-1542
▁henabal	-1543
huj	-1544
wak	-1545
atil	-1546
ulla	-1547
eybal	-1548
ayojan	-1549
eintijan	-1550
utxanico	-1551
re	-1552
wec	-1553
ahni	-1554
ismi	-1555
yoche	-1556
▁jahno	-1557
▁chislo	-1558
sunilbal	-1559
tzotelan	-1560
iti	-1561
iscam	-1562
ria	-1563
▁ju	-1564
fren	-1565
▁mul	-1566
echma	-1567
▁iscon	-1568
▁selel	-1569
▁titna	-1570
▁yalax	-1571
▁isyijen	-1572
▁chisyije	-1573
▁halbilcano	-1574
xaw	-1575
walxinto	-1576
si	-1577
aya	-1578
culus	-1579
▁cawx	-1580
▁yala	-1581
▁yinito	-1582
cawxican	-1583
▁cosunil	-1584
▁haninan	-1585
▁Machojab	-1586
ín	-1587
oya	-1588
teb	-1589
ult	-1590
xam	-1591
isil	-1592
frenda	-1593
tzalahilal	-1594
bisc	-1595
espa	-1596
▁aya	-1597
▁hak	-1598
▁heb	-1599
▁hum	-1600
▁isw	-1601
▁hawi	-1602
uninal	-1603
▁hujeb	-1604
▁yabil	-1605
▁ayayto	-1606
▁yinilo	-1607
▁cobahan	-1608
pit	-1609
octo	-1610
paxocan	-1611
ˈ;	-1612
▁O	-1613
dán	-1614
utz	-1615
wom	-1616
etax	-1617
olax	-1618
umel	-1619
hunxa	-1620
iquin	-1621
tawin	-1622
yulaj	-1623
▁oxeb	-1624
▁yila	-1625
espada	-1626
▁jiban	-1627
anciano	-1628
ultahil	-1629
▁nimeta	-1630
▁hununon	-1631
▁teyiban	-1632
▁ismeltzo	-1633
▁yichamil	-1634
▁ischejbanil	-1635
saj	-1636
uyu	-1637
Hun	-1638
▁cu	-1639
▁Mat	-1640
heyak	-1641
▁yipo	-1642
▁yitz	-1643
chisje	-1644
▁chiah	-1645
▁hesat	-1646
▁wipan	-1647
▁chijil	-1648
▁ischiq	-1649
▁abxubal	-1650
conimanil	-1651
ami	-1652
ata	-1653
mas	-1654
uva	-1655
lahi	-1656
uten	-1657
chahan	-1658
chahnihan	-1659
istoholal	-1660
niẍte	-1661
juẍtaj	-1662
▁juhan	-1663
▁yintaj	-1664
▁Bernabé	-1665
▁tzotelo	-1666
jab	-1667
nok	-1668
soldado	-1669
chihalni	-1670
chischah	-1671
▁Z	-1672
hoj	-1673
noh	-1674
sic	-1675
yeh	-1676
Hach	-1677
apax	-1678
quía	-1679
▁cay	-1680
▁sak	-1681
rahil	-1682
wahan	-1683
wanoj	-1684
chejni	-1685
▁hawet	-1686
▁isbak	-1687
▁masan	-1688
tioquía	-1689
▁Jacobo	-1690
▁haywan	-1691
▁heyehi	-1692
▁hunxan	-1693
▁ispotx	-1694
▁awtebil	-1695
▁heyanico	-1696
▁isyenilo	-1697
▁iscamical	-1698
be	-1699
teo	-1700
wano	-1701
aweco	-1702
colbanil	-1703
▁Yul	-1704
▁xaj	-1705
majan	-1706
▁islo	-1707
▁meba	-1708
istxum	-1709
▁chiil	-1710
▁chink	-1711
▁hunuj	-1712
▁Israelo	-1713
▁cheyabe	-1714
▁chicolwa	-1715
▁chiocnico	-1716
▁machiswalil	-1717
▁chiitzitzbican	-1718
vo	-1719
atr	-1720
loj	-1721
axep	-1722
ayni	-1723
inaho	-1724
lebil	-1725
teban	-1726
zaret	-1727
colcha	-1728
ocnico	-1729
alaxico	-1730
itzbican	-1731
▁la	-1732
awten	-1733
yijem	-1734
▁apno	-1735
hacpax	-1736
hantan	-1737
▁Judas	-1738
▁Saulo	-1739
▁ishaj	-1740
▁mulum	-1741
▁Felipe	-1742
▁ispitzc	-1743
▁xahanbal	-1744
▁Yespíritu	-1745
istiempohal	-1746
beh	-1747
hek	-1748
xiwi	-1749
yixal	-1750
xahanbal	-1751
▁El	-1752
yuch	-1753
▁isx	-1754
telax	-1755
▁ayxa	-1756
▁heye	-1757
cabcon	-1758
chawal	-1759
istzab	-1760
occano	-1761
▁cosat	-1762
▁payxa	-1763
▁tohol	-1764
yichico	-1765
israeloj	-1766
nimanile	-1767
▁chinwatx	-1768
▁wilnihan	-1769
za	-1770
awi	-1771
eti	-1772
acan	-1773
weco	-1774
yani	-1775
Ta	-1776
▁d	-1777
iln	-1778
ioẍ	-1779
chaẍ	-1780
▁Hal	-1781
▁haj	-1782
simón	-1783
▁Isto	-1784
▁cuar	-1785
▁jehi	-1786
▁lago	-1787
▁mato	-1788
▁Walex	-1789
▁chabe	-1790
▁chiwa	-1791
▁quexw	-1792
▁Yahawil	-1793
▁Yebpaxo	-1794
▁tzalaho	-1795
▁chintohan	-1796
▁iscapilla	-1797
▁circuncisión	-1798
ih	-1799
cax	-1800
ante	-1801
haba	-1802
txon	-1803
pitán	-1804
yetbi	-1805
atatic	-1806
jichmam	-1807
walilal	-1808
chiwochehan	-1809
yabe	-1810
heyet	-1811
yohtan	-1812
▁iscan	-1813
▁istit	-1814
▁nabil	-1815
▁Haninti	-1816
▁cheyoche	-1817
▁iscawilal	-1818
ispaj	-1819
edo	-1820
etza	-1821
mand	-1822
unub	-1823
▁Yal	-1824
bocan	-1825
elelo	-1826
lobal	-1827
maría	-1828
▁chek	-1829
▁yeto	-1830
Diosal	-1831
ananta	-1832
ayicto	-1833
edonia	-1834
laxayo	-1835
paxilo	-1836
▁tzetc	-1837
▁yuẍta	-1838
najinan	-1839
▁ayinan	-1840
▁chijak	-1841
chielico	-1842
mandante	-1843
walnihan	-1844
▁chicawxi	-1845
▁heyohtaj	-1846
▁subchaho	-1847
xahanbalil	-1848
alc	-1849
imo	-1850
sak	-1851
chiyan	-1852
galilea	-1853
inbahan	-1854
ishelanil	-1855
yila	-1856
▁noh	-1857
inilo	-1858
tzala	-1859
▁meẍa	-1860
▁tzeh	-1861
aycano	-1862
▁helan	-1863
▁baytet	-1864
▁chexoc	-1865
▁chalilo	-1866
▁ilwebal	-1867
▁chichahni	-1868
▁ischejabo	-1869
gu	-1870
ape	-1871
▁“¿	-1872
esar	-1873
huno	-1874
ixan	-1875
wahi	-1876
zaro	-1877
amigo	-1878
atrón	-1879
ázaro	-1880
cowatx	-1881
tzujno	-1882
wepaxo	-1883
chiapni	-1884
ilaxilo	-1885
ischahni	-1886
iswalilal	-1887
tebilcano	-1888
elan	-1889
▁Xol	-1890
▁caj	-1891
abilo	-1892
chiel	-1893
janab	-1894
nahat	-1895
wehan	-1896
yayto	-1897
▁isca	-1898
▁maẍn	-1899
▁tioẍ	-1900
▁Mamin	-1901
▁cawxo	-1902
▁heyoc	-1903
▁isbel	-1904
▁ispoh	-1905
▁wiban	-1906
haninan	-1907
▁Egipto	-1908
▁Pascua	-1909
▁johtaj	-1910
▁yawten	-1911
▁yángel	-1912
cablahon	-1913
▁cachann	-1914
▁chipitzc	-1915
▁gobernador	-1916
ebej	-1917
mule	-1918
david	-1919
tohol	-1920
hewatx	-1921
chewatx	-1922
up	-1923
atu	-1924
ayi	-1925
▁Tx	-1926
▁mo	-1927
ahey	-1928
▁taj	-1929
carta	-1930
colni	-1931
eojab	-1932
maria	-1933
▁hetx	-1934
▁matx	-1935
cachni	-1936
chintz	-1937
wecano	-1938
yinito	-1939
▁chiay	-1940
▁chisk	-1941
▁pulta	-1942
aytojan	-1943
▁chijal	-1944
▁chixiw	-1945
▁isyije	-1946
▁janico	-1947
chitzala	-1948
▁chawute	-1949
▁hesunil	-1950
▁ayexxaco	-1951
▁chimunla	-1952
▁desierto	-1953
▁istxahli	-1954
▁munlawom	-1955
▁yalnicano	-1956
mil	-1957
buch	-1958
chach	-1959
ixnam	-1960
jacob	-1961
jilni	-1962
cheyala	-1963
machiswalilal	-1964
Ma	-1965
▁Na	-1966
yala	-1967
▁Nok	-1968
▁moh	-1969
itojan	-1970
yawten	-1971
▁hinan	-1972
▁yelti	-1973
herodes	-1974
masanto	-1975
▁chawak	-1976
▁machim	-1977
▁yilalo	-1978
wintajan	-1979
▁chawala	-1980
▁inmunil	-1981
chihallax	-1982
▁chilahwi	-1983
▁cutxanico	-1984
hem	-1985
umb	-1986
xel	-1987
bili	-1988
ilas	-1989
ucal	-1990
vaso	-1991
aniti	-1992
balax	-1993
iento	-1994
mamtu	-1995
wayan	-1996
ehojab	-1997
eybaln	-1998
meltzo	-1999
cheyaco	-2000
xewilal	-2001
chejbanile	-2002
elk	-2003
Hune	-2004
cami	-2005
isye	-2006
nino	-2007
▁nuk	-2008
▁oro	-2009
▁potx	-2010
▁txah	-2011
cheyal	-2012
pilato	-2013
ulojab	-2014
▁ayoco	-2015
▁hemul	-2016
▁moyan	-2017
▁ischah	-2018
wohtajan	-2019
▁conabal	-2020
▁hunujex	-2021
▁intohan	-2022
▁yilaxto	-2023
▁hechahni	-2024
▁heyohtan	-2025
▁janmahan	-2026
▁yahawilo	-2027
▁iscutxban	-2028
caj	-2029
uti	-2030
yuẍ	-2031
habil	-2032
hetxum	-2033
beybaln	-2034
hacojab	-2035
Bay	-2036
ene	-2037
noc	-2038
sub	-2039
toh	-2040
▁ij	-2041
acti	-2042
ayin	-2043
beyc	-2044
feso	-2045
icoj	-2046
itah	-2047
xwan	-2048
▁elk	-2049
▁isl	-2050
▁yuc	-2051
ancan	-2052
ijxan	-2053
mulan	-2054
ojlax	-2055
selel	-2056
▁Chin	-2057
▁Mame	-2058
▁hatz	-2059
▁mame	-2060
▁naba	-2061
acojab	-2062
ixobal	-2063
tzelax	-2064
▁hanin	-2065
▁howeb	-2066
ilnojan	-2067
▁Chalni	-2068
▁johtan	-2069
▁yulbal	-2070
chiwalti	-2071
▁cancano	-2072
▁chiyute	-2073
▁isbisil	-2074
ahann	-2075
ebilxa	-2076
isyeni	-2077
laxpaxo	-2078
chitzotel	-2079
ez	-2080
til	-2081
▁tak	-2082
▁tes	-2083
ismay	-2084
jalni	-2085
▁Chal	-2086
▁hewi	-2087
▁txon	-2088
abelax	-2089
baytet	-2090
▁Elías	-2091
▁hasat	-2092
▁hayeb	-2093
Hacojab	-2094
cachann	-2095
hununex	-2096
▁yettax	-2097
▁anciano	-2098
▁yanayto	-2099
▁istxumni	-2100
▁Cocolomal	-2101
▁ispultahil	-2102
ita	-2103
xay	-2104
ahab	-2105
ehel	-2106
lena	-2107
munl	-2108
uilo	-2109
bihan	-2110
enico	-2111
jetan	-2112
manil	-2113
ochen	-2114
paxti	-2115
yocto	-2116
aholan	-2117
axepic	-2118
elicoj	-2119
esarea	-2120
hawanma	-2121
nilojan	-2122
ischuquil	-2123
?”	-2124
Ho	-2125
cok	-2126
iro	-2127
▁xe	-2128
isch	-2129
isje	-2130
witz	-2131
▁Lan	-2132
▁hab	-2133
▁hin	-2134
▁say	-2135
▁uva	-2136
▁wec	-2137
ilcha	-2138
walex	-2139
▁Hach	-2140
▁txum	-2141
▁ismaj	-2142
▁jahaw	-2143
▁pitzc	-2144
▁toxan	-2145
hawalni	-2146
▁yalnic	-2147
▁chicolo	-2148
▁insatan	-2149
▁ispaxto	-2150
▁chaliloj	-2151
▁chicuywi	-2152
▁cuybanil	-2153
dr	-2154
gri	-2155
awte	-2156
yiyo	-2157
baytu	-2158
chman	-2159
coxol	-2160
yohta	-2161
etanto	-2162
ispotx	-2163
yelapnoj	-2164
cay	-2165
dea	-2166
isa	-2167
▁As	-2168
Tato	-2169
ahti	-2170
exxa	-2171
ujna	-2172
▁sam	-2173
abeto	-2174
ahole	-2175
axpon	-2176
ayayo	-2177
bilon	-2178
caman	-2179
chisc	-2180
matan	-2181
ojtam	-2182
omilo	-2183
tabal	-2184
trigo	-2185
ujcha	-2186
▁tzab	-2187
▁vino	-2188
▁yayc	-2189
abilxa	-2190
xiwcan	-2191
▁Matxa	-2192
▁chilo	-2193
▁haban	-2194
▁issaj	-2195
chiwatx	-2196
▁walnic	-2197
▁yayilo	-2198
paxtojan	-2199
wilnihan	-2200
▁chisbej	-2201
▁yoccano	-2202
islahobal	-2203
▁tohlabal	-2204
▁Antioquía	-2205
▁henimanil	-2206
▁istxiquin	-2207
eco	-2208
hum	-2209
hawu	-2210
tajo	-2211
tioẍ	-2212
insat	-2213
yetxa	-2214
yijni	-2215
ischah	-2216
yic	-2217
ixto	-2218
josé	-2219
▁lem	-2220
comon	-2221
yunin	-2222
huneln	-2223
▁chiyo	-2224
▁chican	-2225
isbeybal	-2226
▁Esteban	-2227
▁Nazaret	-2228
▁capilla	-2229
▁chiaben	-2230
▁chijaco	-2231
▁chijute	-2232
▁heyijen	-2233
▁chianico	-2234
▁chiyijen	-2235
▁hetxumni	-2236
▁itzitzbican	-2237
ev	-2238
asi	-2239
duc	-2240
ego	-2241
qui	-2242
balo	-2243
cart	-2244
ello	-2245
esto	-2246
ilxa	-2247
itam	-2248
ixwi	-2249
laxo	-2250
roma	-2251
txah	-2252
uloj	-2253
duceo	-2254
hanta	-2255
ibcan	-2256
yehan	-2257
anojab	-2258
atijan	-2259
carías	-2260
ernaum	-2261
inwatx	-2262
janico	-2263
quilal	-2264
txumni	-2265
yinilo	-2266
quexchi	-2267
xahanil	-2268
txahlihan	-2269
ebxa	-2270
ejla	-2271
ulmi	-2272
unla	-2273
iscab	-2274
judea	-2275
▁Timo	-2276
▁hetz	-2277
▁macn	-2278
▁camoj	-2279
▁ismak	-2280
▁jehan	-2281
▁wocan	-2282
ofrenda	-2283
▁binaho	-2284
▁camnaj	-2285
▁chawil	-2286
▁hujwan	-2287
echmabil	-2288
▁Timoteo	-2289
▁camnaxa	-2290
▁ichamta	-2291
▁iscolwa	-2292
chicowatx	-2293
▁chiyoche	-2294
▁nimanile	-2295
▁chinhulan	-2296
▁chiwaltojan	-2297
xe	-2298
hoy	-2299
canayo	-2300
di	-2301
hak	-2302
lom	-2303
oli	-2304
tuc	-2305
Chim	-2306
alto	-2307
dena	-2308
erub	-2309
into	-2310
oxeb	-2311
quis	-2312
taxa	-2313
uxni	-2314
▁bej	-2315
▁hon	-2316
▁maj	-2317
behal	-2318
elaxi	-2319
ixtan	-2320
ujban	-2321
yalax	-2322
awomal	-2323
chacan	-2324
erubín	-2325
romano	-2326
▁ayach	-2327
▁maxaw	-2328
▁trato	-2329
▁walan	-2330
▁yilax	-2331
antotic	-2332
▁Maẍtaj	-2333
▁ayinic	-2334
▁occano	-2335
chejaban	-2336
issajilk	-2337
▁masanta	-2338
▁cheyayto	-2339
halbilcano	-2340
▁ishitzico	-2341
▁chintzalahan	-2342
ur	-2343
abn	-2344
era	-2345
muj	-2346
pol	-2347
ron	-2348
eman	-2349
mato	-2350
ahlax	-2351
comul	-2352
chiyak	-2353
henabal	-2354
ismeltzo	-2355
txumchalo	-2356
▁how	-2357
▁inn	-2358
▁joc	-2359
hujeb	-2360
jahno	-2361
titna	-2362
▁buch	-2363
▁intz	-2364
▁nime	-2365
▁xilk	-2366
chislo	-2367
hunban	-2368
▁cabeb	-2369
▁lahon	-2370
▁wahil	-2371
cosunil	-2372
iscuyni	-2373
munlahi	-2374
tzotelo	-2375
yeniloj	-2376
▁Isaías	-2377
▁ayojab	-2378
▁chicok	-2379
▁ixahaw	-2380
▁yanayo	-2381
▁capitán	-2382
▁cheyije	-2383
▁coyijen	-2384
▁heyilni	-2385
▁yohtajo	-2386
▁yulajla	-2387
▁cochahni	-2388
▁Macedonia	-2389
▁innimanil	-2390
▁insatajan	-2391
▁comandante	-2392
ju	-2393
ale	-2394
ite	-2395
opo	-2396
amte	-2397
bawe	-2398
edec	-2399
peta	-2400
isbak	-2401
iscon	-2402
nayto	-2403
olivo	-2404
ulalo	-2405
abalan	-2406
chiyal	-2407
elquis	-2408
isyijen	-2409
rompeta	-2410
chisyije	-2411
heyanico	-2412
elquisedec	-2413
heb	-2414
hin	-2415
▁Za	-2416
maẍn	-2417
▁Cor	-2418
chink	-2419
ispoh	-2420
istit	-2421
▁chec	-2422
▁chix	-2423
▁hato	-2424
▁toxa	-2425
hunxan	-2426
▁Yapni	-2427
▁aycan	-2428
▁hawak	-2429
▁isnuk	-2430
▁nanxa	-2431
▁wacax	-2432
Haninti	-2433
▁hawehi	-2434
▁heyila	-2435
▁iscuyu	-2436
▁yanito	-2437
▁iscuywa	-2438
▁nananta	-2439
▁wabenan	-2440
▁Chiwalan	-2441
▁chitecha	-2442
▁ayinicojan	-2443
▁chinapnihan	-2444
▁isbejnicano	-2445
▁chitxumchalo	-2446
▁haltebilcano	-2447
▁chiwalcanojan	-2448
rag	-2449
acto	-2450
chen	-2451
hato	-2452
hatz	-2453
ixli	-2454
ojon	-2455
palc	-2456
yabil	-2457
ayayto	-2458
cobahan	-2459
hununon	-2460
teyiban	-2461
heyohtaj	-2462
isyenilo	-2463
yespíritu	-2464
bel	-2465
eli	-2466
ham	-2467
how	-2468
iyo	-2469
wah	-2470
yom	-2471
alxa	-2472
ayna	-2473
idar	-2474
▁ayn	-2475
▁oht	-2476
▁won	-2477
▁yok	-2478
abayo	-2479
abeni	-2480
ahuln	-2481
biloj	-2482
ecano	-2483
ishaj	-2484
jiban	-2485
masco	-2486
ordán	-2487
paxtu	-2488
ragón	-2489
wilal	-2490
▁Chiw	-2491
▁tzuj	-2492
▁yebi	-2493
achalo	-2494
ambeno	-2495
ayinan	-2496
balico	-2497
nimeta	-2498
▁Yahaw	-2499
▁hunix	-2500
▁istak	-2501
▁xayak	-2502
apnojan	-2503
▁Lázaro	-2504
▁anican	-2505
▁yehico	-2506
yichamil	-2507
▁Samaria	-2508
▁chijala	-2509
▁hatatic	-2510
▁iscuyni	-2511
ircuncidar	-2512
▁chicabcon	-2513
▁heyohtajo	-2514
ischejbanil	-2515
▁chitxumcha	-2516
▁quinchiyan	-2517
▁itzitzbocan	-2518
eq	-2519
ebo	-2520
rab	-2521
tac	-2522
atax	-2523
hatx	-2524
yipo	-2525
yitz	-2526
chabe	-2527
hesat	-2528
wipan	-2529
yalno	-2530
chijil	-2531
colwal	-2532
haywan	-2533
ischiq	-2534
machiswalil	-2535
hetz	-2536
macn	-2537
ujli	-2538
▁Yah	-2539
▁tac	-2540
▁xuk	-2541
▁yen	-2542
▁yox	-2543
belwi	-2544
ismak	-2545
juhan	-2546
saulo	-2547
▁etza	-2548
chicam	-2549
yintaj	-2550
▁Lahan	-2551
▁Silas	-2552
▁hawoc	-2553
▁xahey	-2554
▁yichi	-2555
bernabé	-2556
▁hacpax	-2557
▁halbil	-2558
▁cheyila	-2559
▁chiocto	-2560
▁istzoti	-2561
▁yahcano	-2562
tzettaxca	-2563
yalnicano	-2564
▁chichiwa	-2565
▁iscancano	-2566
▁istzoteli	-2567
▁yalnipaxo	-2568
▁istzabnico	-2569
▁wohtajojan	-2570
gd	-2571
ewe	-2572
ope	-2573
oro	-2574
anno	-2575
ejbi	-2576
eyab	-2577
islo	-2578
tzon	-2579
welo	-2580
bilti	-2581
ehayo	-2582
majal	-2583
masan	-2584
quexw	-2585
tzetc	-2586
bililo	-2587
ebanil	-2588
heyehi	-2589
inaloj	-2590
jacobo	-2591
laxcano	-2592
paxcano	-2593
ujbanic	-2594
abilonia	-2595
beybalan	-2596
chejtojan	-2597
ebilcanoj	-2598
elapnojan	-2599
iscamical	-2600
chiwaltojan	-2601
moh	-2602
xaj	-2603
yox	-2604
▁hi	-2605
meba	-2606
▁mam	-2607
cojan	-2608
hawet	-2609
hunuj	-2610
judas	-2611
mulum	-2612
▁Asia	-2613
▁aben	-2614
▁cheh	-2615
▁nabn	-2616
felipe	-2617
▁Efeso	-2618
▁oxwan	-2619
▁tzala	-2620
▁yalte	-2621
ispitzc	-2622
israelo	-2623
▁chisye	-2624
▁selelo	-2625
▁ẍicano	-2626
chicolwa	-2627
▁Inmamtu	-2628
▁Walpaxo	-2629
▁Yichico	-2630
▁ayexico	-2631
▁buchwal	-2632
▁chechah	-2633
▁chicami	-2634
▁chiwute	-2635
▁hacojab	-2636
▁iscawxi	-2637
▁istrato	-2638
chiocnico	-2639
iscawilal	-2640
▁haltebil	-2641
▁yuninalo	-2642
▁iscawxican	-2643
circuncisión	-2644
chiitzitzbican	-2645
ayn	-2646
ini	-2647
alam	-2648
cuar	-2649
chiti	-2650
payxa	-2651
wilan	-2652
yawte	-2653
cheyoche	-2654
chicawxi	-2655
chilahwi	-2656
él	-2657
Yet	-2658
bin	-2659
bit	-2660
ibo	-2661
txk	-2662
▁uc	-2663
drés	-2664
ebal	-2665
exin	-2666
wala	-2667
▁Cap	-2668
▁Sak	-2669
▁wah	-2670
abico	-2671
chati	-2672
chuqu	-2673
cosat	-2674
gdala	-2675
gripa	-2676
inito	-2677
laxan	-2678
pixto	-2679
▁inan	-2680
▁itah	-2681
▁vaso	-2682
▁wala	-2683
abehal	-2684
alomón	-2685
bilico	-2686
cachwa	-2687
etaxto	-2688
johtaj	-2689
ulalan	-2690
uywahi	-2691
▁Isaac	-2692
▁baytu	-2693
▁chitx	-2694
▁lahti	-2695
▁mujan	-2696
annihan	-2697
canicoj	-2698
ejbiyal	-2699
ilaxcan	-2700
yijehan	-2701
▁Chiwal	-2702
▁Tzujan	-2703
▁ayahto	-2704
▁chebej	-2705
▁hawatx	-2706
▁istxam	-2707
▁yuẍtaj	-2708
chinwatx	-2709
elicojan	-2710
▁Cesarea	-2711
▁inmulan	-2712
▁yalcano	-2713
▁yetbiho	-2714
▁yohtaxa	-2715
chintohan	-2716
chuquilan	-2717
quinpaxtu	-2718
▁chawoche	-2719
▁chijalan	-2720
▁chiwilan	-2721
▁coxahann	-2722
▁tawintaj	-2723
▁cheyohtan	-2724
▁chicancano	-2725
▁chiwabehan	-2726
hab	-2727
jal	-2728
paj	-2729
jehi	-2730
lago	-2731
ahilo	-2732
epaxo	-2733
nabil	-2734
echman	-2735
isyije	-2736
yulbal	-2737
cheyabe	-2738
ilchalo	-2739
intohan	-2740
tzalaho	-2741
yilaxto	-2742
colwahan	-2743
chejbanil	-2744
iscapilla	-2745
iscutxban	-2746
Asi	-2747
ajn	-2748
oto	-2749
▁mi	-2750
▁on	-2751
Ahan	-2752
chek	-2753
isca	-2754
▁Bar	-2755
▁het	-2756
▁tec	-2757
Sunil	-2758
camoj	-2759
cawxo	-2760
iscan	-2761
▁isje	-2762
▁iswa	-2763
▁wuti	-2764
chijak	-2765
▁chejn	-2766
▁hawip	-2767
▁heyip	-2768
▁nahul	-2769
▁testi	-2770
iscolni	-2771
▁ciento	-2772
▁colwal	-2773
▁cuarto	-2774
▁hallax	-2775
▁yalten	-2776
▁babelal	-2777
▁isbelwi	-2778
▁islahti	-2779
▁lahanex	-2780
▁yichmam	-2781
▁Walxinto	-2782
▁japnihan	-2783
▁heyohtaxa	-2784
▁machipaxo	-2785
▁yitzitzbican	-2786
ile	-2787
anwe	-2788
atro	-2789
bana	-2790
eite	-2791
eltz	-2792
vino	-2793
xalo	-2794
yeto	-2795
élix	-2796
aweti	-2797
aytoj	-2798
guera	-2799
helni	-2800
hinan	-2801
howeb	-2802
nilto	-2803
toxan	-2804
yuẍta	-2805
ábana	-2806
chican	-2807
cojtam	-2808
etania	-2809
tzolax	-2810
utelax	-2811
ehelanil	-2812
munlawom	-2813
subchaho	-2814
yahawilo	-2815
ambenpaxo	-2816
so	-2817
Naj	-2818
cho	-2819
sam	-2820
▁ok	-2821
▁sa	-2822
elto	-2823
meẍa	-2824
tzeh	-2825
▁cuy	-2826
▁gri	-2827
▁mak	-2828
canan	-2829
chisk	-2830
ujlax	-2831
▁chew	-2832
▁ilni	-2833
▁laba	-2834
▁mayu	-2835
▁yilw	-2836
chexoc	-2837
▁aldea	-2838
▁anico	-2839
▁aytic	-2840
▁nitam	-2841
chalilo	-2842
ilwebal	-2843
nitojan	-2844
▁chayto	-2845
▁espada	-2846
▁griego	-2847
▁iscami	-2848
▁ispeto	-2849
chipitzc	-2850
▁issayni	-2851
▁saduceo	-2852
▁sunilej	-2853
▁tzijxan	-2854
▁yahwano	-2855
▁yehobal	-2856
▁yinican	-2857
chichahni	-2858
ischejabo	-2859
ishitzico	-2860
nipaxojan	-2861
▁Zacarías	-2862
▁chexxiwi	-2863
▁chijoche	-2864
▁hawohtaj	-2865
▁isDiosal	-2866
▁mohyilal	-2867
▁quexwila	-2868
▁yictabal	-2869
▁Capernaum	-2870
▁chicochah	-2871
▁isxahanil	-2872
▁xiwquilal	-2873
▁chiyeniloj	-2874
▁ismachiswalilal	-2875
cal	-2876
cap	-2877
elti	-2878
heye	-2879
chiay	-2880
helan	-2881
heyoc	-2882
isbel	-2883
wiban	-2884
yelax	-2885
egipto	-2886
pascua	-2887
tocano	-2888
yángel	-2889
hesunil	-2890
yijenan	-2891
gobernador	-2892
Yu	-2893
ein	-2894
eví	-2895
inn	-2896
mej	-2897
nel	-2898
reo	-2899
tar	-2900
▁Ca	-2901
ario	-2902
bayo	-2903
caya	-2904
chma	-2905
ecan	-2906
hetx	-2907
idón	-2908
inta	-2909
lwec	-2910
ojex	-2911
urro	-2912
▁poh	-2913
▁xan	-2914
ajano	-2915
anabi	-2916
atxte	-2917
emana	-2918
encan	-2919
lenan	-2920
nelio	-2921
oteli	-2922
pulta	-2923
rabás	-2924
▁Leví	-2925
▁munl	-2926
▁yije	-2927
alaxto	-2928
andios	-2929
chawak	-2930
chijal	-2931
elojan	-2932
enario	-2933
enpaxo	-2934
ilnilo	-2935
laxcan	-2936
machim	-2937
yalnic	-2938
yettax	-2939
▁Festo	-2940
▁chibe	-2941
▁chiti	-2942
▁colwa	-2943
▁hecal	-2944
▁issay	-2945
▁wilan	-2946
▁yawte	-2947
chawute	-2948
ebilico	-2949
etaxtoj	-2950
hoyanil	-2951
quexpax	-2952
ujnacan	-2953
wabenan	-2954
▁cadena	-2955
▁iscawx	-2956
▁romano	-2957
▁txitam	-2958
▁yallax	-2959
ayexxaco	-2960
chimunla	-2961
ebeybaln	-2962
istxahli	-2963
tohlabal	-2964
▁chawatx	-2965
▁chiilni	-2966
▁chiyiyo	-2967
▁comunil	-2968
▁hecawil	-2969
▁ismelyu	-2970
▁echmabil	-2971
▁jalnihan	-2972
▁querubín	-2973
▁yalaxico	-2974
▁chijilico	-2975
▁inmunilan	-2976
ohtapaxojan	-2977
▁inchejaban	-2978
cuy	-2979
ida	-2980
lem	-2981
oxa	-2982
▁?”	-2983
alac	-2984
ijbal	-2985
xican	-2986
xiwan	-2987
yelti	-2988
buchwa	-2989
chixiw	-2990
yanayo	-2991
yilalo	-2992
chawala	-2993
inmunil	-2994
walpaxo	-2995
istxumni	-2996
cutxanico	-2997
po	-2998
ele	-2999
isw	-3000
nuk	-3001
puh	-3002
wik	-3003
xew	-3004
▁Ix	-3005
matx	-3006
▁Bey	-3007
▁Eli	-3008
▁Sal	-3009
▁ach	-3010
▁max	-3011
▁tel	-3012
ayoco	-3013
ejtzo	-3014
hemul	-3015
moyan	-3016
▁isme	-3017
▁jila	-3018
▁octo	-3019
heyila	-3020
▁chati	-3021
▁chelo	-3022
▁jetbi	-3023
▁nohna	-3024
▁walex	-3025
▁wetbi	-3026
▁xacon	-3027
▁yecoj	-3028
▁yilno	-3029
chiyute	-3030
hunujex	-3031
majanxa	-3032
yanayto	-3033
▁beybal	-3034
▁chexec	-3035
▁hactic	-3036
▁hunelo	-3037
▁isnani	-3038
▁istzal	-3039
▁lahano	-3040
▁orahil	-3041
▁sunilo	-3042
hechahni	-3043
heyohtan	-3044
janmahan	-3045
▁Haninan	-3046
▁chiyaco	-3047
▁heyaben	-3048
▁inbihan	-3049
▁ishajlo	-3050
▁walinan	-3051
▁yecheln	-3052
▁yechman	-3053
▁yocpaxo	-3054
▁chabilxa	-3055
▁chilolax	-3056
▁espíritu	-3057
▁ischejni	-3058
▁istopaxo	-3059
▁chianayto	-3060
▁chitxahli	-3061
▁ewantajil	-3062
▁yuninaloj	-3063
▁Chiwaltojan	-3064
▁Melquisedec	-3065
▁chijochehan	-3066
▁innimanilan	-3067
if	-3068
ahw	-3069
ajo	-3070
eck	-3071
etu	-3072
exn	-3073
eyo	-3074
isl	-3075
ixa	-3076
job	-3077
tes	-3078
uma	-3079
uni	-3080
yuc	-3081
zab	-3082
airo	-3083
ajna	-3084
arti	-3085
atna	-3086
axaj	-3087
diez	-3088
ifás	-3089
iote	-3090
lata	-3091
naba	-3092
onás	-3093
uban	-3094
ulto	-3095
abewe	-3096
apaxo	-3097
hopon	-3098
ijeni	-3099
illax	-3100
tonan	-3101
ultic	-3102
yahni	-3103
atelax	-3104
atutan	-3105
chahoj	-3106
johtan	-3107
reinta	-3108
ambehan	-3109
cariote	-3110
isbisil	-3111
tzenilo	-3112
anitijan	-3113
chibehal	-3114
istzabnico	-3115
Chi	-3116
xuk	-3117
▁Ar	-3118
▁No	-3119
▁Xa	-3120
▁es	-3121
ataj	-3122
hewi	-3123
xilk	-3124
▁atz	-3125
▁ham	-3126
▁jec	-3127
▁jip	-3128
▁wej	-3129
▁yax	-3130
Tinan	-3131
anías	-3132
elías	-3133
halwe	-3134
hasat	-3135
heyil	-3136
jahaw	-3137
▁Adán	-3138
▁yuli	-3139
chawil	-3140
isyelo	-3141
yanito	-3142
▁aweco	-3143
▁aycoj	-3144
▁cheyu	-3145
▁chiok	-3146
▁hawan	-3147
▁iscuy	-3148
▁islok	-3149
▁lemna	-3150
▁mahul	-3151
▁tajca	-3152
ispaxto	-3153
txumcha	-3154
yoccano	-3155
▁Jordán	-3156
▁chinan	-3157
▁dragón	-3158
▁incart	-3159
▁tzabno	-3160
chaliloj	-3161
▁Ananías	-3162
▁Damasco	-3163
▁alaxcan	-3164
▁chawaco	-3165
▁chispoh	-3166
▁cotohan	-3167
▁iscolni	-3168
▁ishajni	-3169
▁wetojan	-3170
cocolomal	-3171
▁Wilnihan	-3172
▁alaxicto	-3173
▁chiahilo	-3174
▁chimohyi	-3175
▁hetxahli	-3176
▁johtajan	-3177
ispultahil	-3178
▁inmunilti	-3179
▁innabalan	-3180
▁heyofrenda	-3181
▁chicolchahi	-3182
▁circuncidar	-3183
hen	-3184
ish	-3185
chan	-3186
cono	-3187
enal	-3188
toxa	-3189
uchc	-3190
yayc	-3191
chilo	-3192
ismaj	-3193
mataj	-3194
wacax	-3195
hujwan	-3196
alaxcan	-3197
camnaxa	-3198
chicolo	-3199
conabal	-3200
insatan	-3201
winajil	-3202
alaxicto	-3203
chicuywi	-3204
cuybanil	-3205
elcanico	-3206
chinhulan	-3207
oẍ	-3208
cor	-3209
eón	-3210
hon	-3211
ien	-3212
ixi	-3213
ohi	-3214
rio	-3215
toc	-3216
yen	-3217
▁ar	-3218
ebed	-3219
erod	-3220
nime	-3221
olal	-3222
rona	-3223
toco	-3224
toti	-3225
ulna	-3226
ulno	-3227
ulxa	-3228
unni	-3229
uwan	-3230
▁Hey	-3231
▁bin	-3232
▁pax	-3233
▁sac	-3234
alahi	-3235
enayo	-3236
haban	-3237
hayeb	-3238
ijban	-3239
issic	-3240
lahti	-3241
lehan	-3242
taxan	-3243
trato	-3244
ubcha	-3245
zabet	-3246
ẍixan	-3247
▁Ayco	-3248
▁Jope	-3249
▁hatx	-3250
▁nann	-3251
▁yilo	-3252
▁yuho	-3253
aholti	-3254
artido	-3255
biltic	-3256
chicok	-3257
ebedeo	-3258
ehowal	-3259
paxtoj	-3260
quilta	-3261
walnic	-3262
yayilo	-3263
▁Halwe	-3264
▁capil	-3265
▁chuhi	-3266
▁hemam	-3267
▁ishuj	-3268
▁ismal	-3269
▁ixloj	-3270
▁matan	-3271
▁sahab	-3272
▁yahto	-3273
camojan	-3274
chisbej	-3275
ixwican	-3276
raelita	-3277
uninale	-3278
▁Istzab	-3279
▁Maẍtic	-3280
▁chihal	-3281
▁chiway	-3282
▁istxah	-3283
▁titnaj	-3284
▁yohtaj	-3285
axponayo	-3286
ischejni	-3287
mactaxca	-3288
tzalahan	-3289
▁camojan	-3290
▁chetxum	-3291
▁chicotz	-3292
▁chijabe	-3293
▁hamanil	-3294
▁hawatut	-3295
▁quinhaw	-3296
▁techaho	-3297
antioquía	-3298
henimanil	-3299
istxiquin	-3300
▁chicuyni	-3301
▁chinocan	-3302
▁hexahann	-3303
▁ispatrón	-3304
▁Babilonia	-3305
▁chalniloj	-3306
▁israelita	-3307
▁issajbilo	-3308
▁yettaxtic	-3309
▁yijnicano	-3310
▁yuninalxa	-3311
itzitzbocan	-3312
▁chiscutxba	-3313
▁cocolbanil	-3314
bet	-3315
nin	-3316
yax	-3317
ayal	-3318
tzuj	-3319
wayi	-3320
yilo	-3321
yito	-3322
yuni	-3323
ayach	-3324
chiyo	-3325
icano	-3326
atojan	-3327
utehan	-3328
chiaben	-3329
chijaco	-3330
chiwaco	-3331
esteban	-3332
heyijen	-3333
heyilni	-3334
iscolwa	-3335
nazaret	-3336
walinan	-3337
chianico	-3338
chiyijen	-3339
chiyoche	-3340
hetxumni	-3341
wohtajojan	-3342
iq	-3343
Hal	-3344
ojo	-3345
tal	-3346
▁Al	-3347
▁bi	-3348
aymi	-3349
ilno	-3350
noyo	-3351
timo	-3352
▁Noé	-3353
▁mas	-3354
▁yeq	-3355
Hayet	-3356
jehan	-3357
tajca	-3358
wocan	-3359
▁Anma	-3360
▁Tito	-3361
▁heto	-3362
▁ilno	-3363
▁motx	-3364
▁yuni	-3365
ayinic	-3366
binaho	-3367
cachan	-3368
camnaj	-3369
hactic	-3370
iscuyu	-3371
▁Marta	-3372
▁ayico	-3373
▁hajlo	-3374
▁hamul	-3375
▁heyil	-3376
▁heyin	-3377
▁hulic	-3378
▁ijbal	-3379
▁islin	-3380
▁isnoh	-3381
▁ixtan	-3382
▁sucal	-3383
▁tetej	-3384
▁xolaj	-3385
ichamta	-3386
timoteo	-3387
▁Agripa	-3388
▁Andrés	-3389
▁Ayojab	-3390
▁chexak	-3391
▁chisna	-3392
▁chuman	-3393
▁heyabe	-3394
▁macach	-3395
▁wanico	-3396
▁xiwcan	-3397
▁yahawo	-3398
▁yillax	-3399
▁Corinto	-3400
▁Magdala	-3401
▁Salomón	-3402
▁chihuli	-3403
▁chipotx	-3404
▁chixcab	-3405
▁chucano	-3406
▁hawuẍta	-3407
▁heyohta	-3408
▁iscawan	-3409
▁ismohyi	-3410
▁ismunla	-3411
▁sunilal	-3412
▁yilnito	-3413
▁chisyelo	-3414
▁iscutxba	-3415
▁isyijeni	-3416
▁matxatic	-3417
▁wuẍtajan	-3418
▁Yahawiloj	-3419
▁camnajilo	-3420
▁chielicoj	-3421
▁chextxahli	-3422
▁hununtajil	-3423
▁istzabnayo	-3424
▁titnajinan	-3425
▁iscutxbanico	-3426
▁chinchahnihan	-3427
uq	-3428
aló	-3429
ara	-3430
cas	-3431
del	-3432
joc	-3433
mos	-3434
otz	-3435
uba	-3436
uta	-3437
abti	-3438
axto	-3439
baco	-3440
bixa	-3441
chec	-3442
doma	-3443
ejan	-3444
enic	-3445
erla	-3446
nahi	-3447
nica	-3448
oban	-3449
taza	-3450
tohi	-3451
tzun	-3452
weti	-3453
xico	-3454
aynaj	-3455
gohal	-3456
imeón	-3457
issay	-3458
maxaw	-3459
nahan	-3460
quila	-3461
tzewe	-3462
xawal	-3463
xayak	-3464
yilax	-3465
awetij	-3466
awiban	-3467
ayahto	-3468
chayto	-3469
chotan	-3470
esenta	-3471
hawatx	-3472
inalax	-3473
alónica	-3474
awtelax	-3475
bilxalo	-3476
chijute	-3477
erodías	-3478
hatatic	-3479
masanta	-3480
chahojan	-3481
cheyayto	-3482
epaxojan	-3483
aycanocan	-3484
chicabcon	-3485
nicanojan	-3486
ojlaxayto	-3487
chintzalahan	-3488
bo	-3489
Ham	-3490
cto	-3491
heq	-3492
het	-3493
▁Ap	-3494
▁Cr	-3495
▁Si	-3496
asón	-3497
elén	-3498
intz	-3499
ohol	-3500
yilw	-3501
▁Inc	-3502
▁hen	-3503
▁pom	-3504
▁som	-3505
▁tom	-3506
▁xah	-3507
▁xaw	-3508
▁xew	-3509
▁yub	-3510
Baytu	-3511
ahico	-3512
bihoj	-3513
cabeb	-3514
hawak	-3515
polos	-3516
sataj	-3517
wahil	-3518
▁Chak	-3519
▁Chip	-3520
▁Maca	-3521
▁Yani	-3522
▁bihe	-3523
▁chay	-3524
▁cotx	-3525
▁cutx	-3526
▁cuyw	-3527
▁nene	-3528
▁wani	-3529
ciento	-3530
isaías	-3531
ixahaw	-3532
laxico	-3533
maquex	-3534
tuclen	-3535
▁Belén	-3536
▁Félix	-3537
▁Hunun	-3538
▁Walon	-3539
▁Yilni	-3540
▁alcal	-3541
▁chetz	-3542
▁ehayo	-3543
▁halwe	-3544
▁heyeh	-3545
▁heyoj	-3546
▁hunex	-3547
▁ishol	-3548
▁isman	-3549
▁ispax	-3550
▁issom	-3551
▁olivo	-3552
▁telaj	-3553
▁yanab	-3554
▁yebej	-3555
▁yicta	-3556
capitán	-3557
chahlax	-3558
cheyije	-3559
nananta	-3560
yohtajo	-3561
yulajla	-3562
▁Apolos	-3563
▁chilni	-3564
▁chinec	-3565
▁ichico	-3566
▁isvaso	-3567
▁maquin	-3568
▁quexin	-3569
▁sábana	-3570
▁txahlo	-3571
▁xolbal	-3572
▁yelcan	-3573
▁yinayo	-3574
cochahni	-3575
▁Betania	-3576
▁ayxatic	-3577
▁chachoc	-3578
▁higuera	-3579
▁ispixan	-3580
▁iswayan	-3581
▁nimajal	-3582
▁yanican	-3583
▁yorahil	-3584
innimanil	-3585
insatajan	-3586
iscancano	-3587
macedonia	-3588
▁Ischejni	-3589
▁chiillax	-3590
▁cotxumni	-3591
▁cuarenta	-3592
▁iscolcha	-3593
▁itzitzon	-3594
▁presowom	-3595
▁yabxubal	-3596
▁yofrenda	-3597
comandante	-3598
▁chicoyije	-3599
▁chihalnic	-3600
▁chiyenilo	-3601
▁hehelanil	-3602
▁txumchalo	-3603
▁chitzoteli	-3604
▁chiwacojan	-3605
▁intzotelan	-3606
▁ismunlawom	-3607
▁welapnojan	-3608
▁yichebanil	-3609
▁hetxumniloj	-3610
▁inchuquilan	-3611
▁ischahnicano	-3612
fil	-3613
leb	-3614
som	-3615
yok	-3616
cheh	-3617
chix	-3618
ista	-3619
chiah	-3620
elcan	-3621
hulic	-3622
isnuk	-3623
nanxa	-3624
ojabn	-3625
hawehi	-3626
lázaro	-3627
quintu	-3628
selelo	-3629
alnihan	-3630
coyijen	-3631
iscuywa	-3632
laxojab	-3633
chitecha	-3634
chahnayto	-3635
ayinicojan	-3636
chinapnihan	-3637
isbejnicano	-3638
chitxumchalo	-3639
haltebilcano	-3640
chiwalcanojan	-3641
aẍ	-3642
od	-3643
▁‘	-3644
Ton	-3645
bab	-3646
gua	-3647
oyo	-3648
tia	-3649
tza	-3650
ulu	-3651
unu	-3652
uxu	-3653
won	-3654
▁To	-3655
▁le	-3656
▁“¡	-3657
ajca	-3658
ajon	-3659
baln	-3660
epra	-3661
hitz	-3662
icia	-3663
ilom	-3664
ispa	-3665
livo	-3666
lolo	-3667
nabn	-3668
omás	-3669
rina	-3670
risc	-3671
uico	-3672
uman	-3673
xito	-3674
yebi	-3675
▁Yun	-3676
▁och	-3677
acano	-3678
ajxan	-3679
arcos	-3680
capil	-3681
ehalo	-3682
hunix	-3683
mujan	-3684
nilti	-3685
paxic	-3686
pilan	-3687
satil	-3688
tatic	-3689
ulaln	-3690
uslax	-3691
wahni	-3692
xahey	-3693
xelxa	-3694
▁Tiro	-3695
▁aymi	-3696
▁beyc	-3697
▁chac	-3698
▁habi	-3699
▁haco	-3700
▁hami	-3701
▁isxe	-3702
▁lolo	-3703
▁tona	-3704
anpaxo	-3705
chisye	-3706
ebalan	-3707
eintic	-3708
halbil	-3709
itijan	-3710
iximal	-3711
licano	-3712
olojan	-3713
paxayo	-3714
wipaxo	-3715
yehico	-3716
▁Acaya	-3717
▁Olivo	-3718
▁Sidón	-3719
▁Tomás	-3720
▁Yilal	-3721
▁burro	-3722
▁chexk	-3723
▁elico	-3724
▁ilwal	-3725
▁isbey	-3726
▁ixale	-3727
▁jocan	-3728
▁lepra	-3729
▁nimej	-3730
▁peyab	-3731
▁sello	-3732
▁wulan	-3733
▁xilxa	-3734
▁yamak	-3735
▁yeton	-3736
alamuch	-3737
balaxic	-3738
chijala	-3739
entojan	-3740
ichamil	-3741
ixwilal	-3742
jobnayo	-3743
lebahil	-3744
natijan	-3745
nicojan	-3746
riscila	-3747
samaria	-3748
uslaxto	-3749
yinican	-3750
▁Marcos	-3751
▁Wuẍtaj	-3752
▁Yawten	-3753
▁baytic	-3754
▁cantil	-3755
▁chalte	-3756
▁cheyik	-3757
▁chintx	-3758
▁chiyik	-3759
▁hajxam	-3760
▁ilaxto	-3761
▁isbili	-3762
▁jalnic	-3763
▁semana	-3764
▁xahano	-3765
colnihan	-3766
▁beybale	-3767
▁denario	-3768
▁iscayel	-3769
▁istecha	-3770
▁ohtabil	-3771
▁testigo	-3772
▁yalpaxo	-3773
▁yillaxi	-3774
anantaxan	-3775
helanilan	-3776
heyohtajo	-3777
machipaxo	-3778
uxantaxca	-3779
yanicojan	-3780
▁Barrabás	-3781
▁hacojtam	-3782
▁ichamile	-3783
chitxumcha	-3784
ebilcanayo	-3785
quinchiyan	-3786
▁Hunepixto	-3787
▁chietanto	-3788
▁chimeltzo	-3789
▁ischejnito	-3790
▁iscolbanil	-3791
▁iscuybanil	-3792
▁gobernadoral	-3793
▁sacerdotehal	-3794
nu	-3795
jah	-3796
pla	-3797
tij	-3798
xic	-3799
cham	-3800
hawoc	-3801
heyal	-3802
issaj	-3803
silas	-3804
uatro	-3805
yalte	-3806
ahojab	-3807
hajxam	-3808
cheyila	-3809
chiocto	-3810
inmamtu	-3811
yahcano	-3812
yalcano	-3813
ahawilan	-3814
chichiwa	-3815
istopaxo	-3816
isbejcano	-3817
istzoteli	-3818
Co	-3819
cr	-3820
Hac	-3821
Sak	-3822
cos	-3823
▁as	-3824
▁xi	-3825
Ocan	-3826
asia	-3827
mutz	-3828
naco	-3829
▁Bet	-3830
▁Can	-3831
▁Haj	-3832
▁Ton	-3833
▁bit	-3834
▁cac	-3835
▁mun	-3836
▁xab	-3837
Comam	-3838
Hanin	-3839
chitx	-3840
efeso	-3841
mayan	-3842
oxwan	-3843
reyal	-3844
yichi	-3845
▁Macn	-3846
▁Maẍn	-3847
▁ahan	-3848
▁chen	-3849
▁elan	-3850
▁jala	-3851
▁metx	-3852
▁xayu	-3853
▁yuhi	-3854
Baytet	-3855
Chimyu	-3856
inilti	-3857
yohtaj	-3858
ẍicano	-3859
▁Jairo	-3860
▁Jonás	-3861
▁chich	-3862
▁hawoj	-3863
▁haxan	-3864
▁ijatz	-3865
▁ilcha	-3866
▁iscaj	-3867
▁istoh	-3868
▁isxan	-3869
▁japni	-3870
▁maxey	-3871
▁plata	-3872
▁wayan	-3873
▁wuẍta	-3874
▁xahul	-3875
▁yulic	-3876
ayexico	-3877
buchwal	-3878
chechah	-3879
chicami	-3880
iscawxi	-3881
islahti	-3882
issayni	-3883
istrato	-3884
lahanex	-3885
tzijxan	-3886
witijan	-3887
▁Caifás	-3888
▁Chipre	-3889
▁Hactic	-3890
▁Maquex	-3891
▁Yanico	-3892
▁aceite	-3893
▁chahni	-3894
▁chicol	-3895
▁chitaj	-3896
▁chiyil	-3897
▁cuywal	-3898
▁ismotx	-3899
▁ismulo	-3900
▁isyelo	-3901
▁machij	-3902
▁sajilk	-3903
▁saywal	-3904
▁txahul	-3905
▁xayaco	-3906
▁yelilo	-3907
▁yilcha	-3908
▁yochen	-3909
chiwilan	-3910
haltebil	-3911
yuninalo	-3912
▁chexxiw	-3913
▁chielti	-3914
▁chipalc	-3915
▁hanabal	-3916
▁hemunil	-3917
▁heyayto	-3918
▁ispohni	-3919
▁istzala	-3920
▁istzumb	-3921
▁iswayic	-3922
▁treinta	-3923
▁walpaxo	-3924
▁yalnilo	-3925
▁yehayto	-3926
▁chiinilo	-3927
▁chijalic	-3928
▁cobeybal	-3929
▁colwahan	-3930
▁hebeybal	-3931
▁isnaniti	-3932
▁sajhopon	-3933
▁yawtenti	-3934
chicancano	-3935
chiwabehan	-3936
iscawxican	-3937
▁Halwepaxo	-3938
▁Iscariote	-3939
▁Ishitzico	-3940
▁chicolcha	-3941
▁chietaxto	-3942
▁chiichico	-3943
▁heyanayto	-3944
▁inyijenan	-3945
▁ishoyanil	-3946
▁hulnajinan	-3947
▁hunmajanxa	-3948
▁istxumnilo	-3949
▁istzalanil	-3950
▁munlawomal	-3951
▁chijaltojan	-3952
▁ischejlaxto	-3953
▁quexwilnojan	-3954
ef	-3955
ér	-3956
ól	-3957
ael	-3958
bar	-3959
cio	-3960
dem	-3961
emi	-3962
erg	-3963
hti	-3964
lev	-3965
lok	-3966
lun	-3967
nio	-3968
oho	-3969
ubl	-3970
xac	-3971
achi	-3972
ahoj	-3973
arón	-3974
awej	-3975
chew	-3976
ebto	-3977
gión	-3978
inaj	-3979
incu	-3980
irla	-3981
iswa	-3982
nato	-3983
teón	-3984
ucan	-3985
ulon	-3986
uluj	-3987
usto	-3988
abelo	-3989
aldea	-3990
atzab	-3991
belan	-3992
beyan	-3993
hojan	-3994
irene	-3995
isaac	-3996
islin	-3997
istra	-3998
lubal	-3999
polis	-4000
saida	-4001
sayic	-4002
testi	-4003
tiado	-4004
txumu	-4005
uilan	-4006
uylun	-4007
wiloj	-4008
alacia	-4009
anilto	-4010
anmati	-4011
anohal	-4012
chebej	-4013
cuarto	-4014
delero	-4015
ijbali	-4016
ilicia	-4017
ipaxto	-4018
istxam	-4019
ojnito	-4020
tzenan	-4021
uẍtaxa	-4022
xiquin	-4023
yallax	-4024
yalten	-4025
yuẍtaj	-4026
albalax	-4027
atanael	-4028
aynatoj	-4029
cesarea	-4030
hamanil	-4031
ichnico	-4032
inmulan	-4033
isbelwi	-4034
ojlaxto	-4035
paxicto	-4036
tzalahi	-4037
umaquil	-4038
watojan	-4039
yahwano	-4040
yelojan	-4041
yetbiho	-4042
yichmam	-4043
yocpaxo	-4044
yohtaxa	-4045
atzujcha	-4046
chawoche	-4047
chijalan	-4048
coxahann	-4049
ehicojan	-4050
enilojan	-4051
hawohtaj	-4052
ichmaman	-4053
incuenta	-4054
ischahan	-4055
japnihan	-4056
tawintaj	-4057
uninalan	-4058
bipaxocan	-4059
canicojan	-4060
cheyohtan	-4061
colchahan	-4062
heyohtaxa	-4063
tzelaxilo	-4064
ujbalaxic	-4065
yuninalxa	-4066
cancanojan	-4067
chejbanilan	-4068
einticuatro	-4069
Ak	-4070
As	-4071
Maẍ	-4072
Yaj	-4073
icó	-4074
paf	-4075
tec	-4076
▁Ec	-4077
▁Ga	-4078
▁iw	-4079
alle	-4080
bitn	-4081
cuyw	-4082
sajn	-4083
weto	-4084
wuti	-4085
▁Ber	-4086
▁Fil	-4087
▁Hum	-4088
▁Jer	-4089
▁Tes	-4090
▁asi	-4091
▁hoy	-4092
▁jal	-4093
▁mal	-4094
▁yac	-4095
Machi	-4096
ahlan	-4097
ayico	-4098
chejn	-4099
hawip	-4100
heyip	-4101
ijatz	-4102
malto	-4103
nahul	-4104
▁Istz	-4105
▁Judá	-4106
▁ayic	-4107
▁ches	-4108
▁cien	-4109
▁coto	-4110
▁cowi	-4111
▁elti	-4112
▁hech	-4113
▁jute	-4114
▁mutz	-4115
▁wute	-4116
▁yelk	-4117
▁yito	-4118
ataxca	-4119
ispeto	-4120
istxon	-4121
lahico	-4122
ulpaxo	-4123
▁Ismam	-4124
▁calle	-4125
▁halno	-4126
▁ismuj	-4127
▁issak	-4128
▁issic	-4129
▁istaj	-4130
▁sajxa	-4131
▁xulno	-4132
▁ẍixan	-4133
babelal	-4134
mataxca	-4135
sunilej	-4136
winajli	-4137
yechman	-4138
▁aytoco	-4139
▁chexin	-4140
▁chinto	-4141
▁comono	-4142
▁isdiez	-4143
▁istioẍ	-4144
▁istxon	-4145
▁meltzo	-4146
▁mohyom	-4147
▁ocpaxo	-4148
▁xewbal	-4149
▁yabeni	-4150
▁yahilo	-4151
▁yamigo	-4152
chijoche	-4153
tzalacan	-4154
yalaxico	-4155
yictabal	-4156
▁Intzoti	-4157
▁Zebedeo	-4158
▁alaxico	-4159
▁chejabo	-4160
▁chinhey	-4161
▁ewantic	-4162
▁hawilni	-4163
▁hehowal	-4164
▁incaman	-4165
▁islahwi	-4166
▁janayto	-4167
▁joccano	-4168
▁uninale	-4169
▁watutan	-4170
▁xawalan	-4171
▁yanahto	-4172
▁yictajo	-4173
yahawiloj	-4174
yuninaloj	-4175
▁Cornelio	-4176
▁Elizabet	-4177
▁Wohtajan	-4178
▁cawxican	-4179
▁chejaboj	-4180
▁chexapni	-4181
▁cheyalni	-4182
▁cheyilni	-4183
▁chicuywa	-4184
▁chiilcha	-4185
▁chiwalic	-4186
▁hacuywom	-4187
▁heyijeni	-4188
▁hoyanico	-4189
▁istocano	-4190
▁istxolal	-4191
▁isxiwcan	-4192
▁yilaxilo	-4193
▁Yalnicano	-4194
▁awtebilon	-4195
▁chexcolwa	-4196
▁heyichmam	-4197
▁heyuninal	-4198
▁iscuywahi	-4199
▁tzujnojan	-4200
▁wanitojan	-4201
▁xiwquilta	-4202
▁Istzabnico	-4203
▁chahnicano	-4204
▁chebeybaln	-4205
▁chialaxico	-4206
▁chiilaxilo	-4207
▁chiilchalo	-4208
▁chinachalo	-4209
▁chisbalico	-4210
▁chiwatojan	-4211
▁hecolbanil	-4212
▁hetxumnilo	-4213
▁heyohtajoj	-4214
▁ischibehal	-4215
▁ismeltzoto	-4216
▁istzilnilo	-4217
▁maẍtajinan	-4218
▁tzujanilxa	-4219
▁walnitojan	-4220
yitzitzbican	-4221
▁chisbejcano	-4222
▁chiwalnihan	-4223
▁inchahnihan	-4224
▁istxumchalo	-4225
isx	-4226
jec	-4227
jip	-4228
sal	-4229
ahel	-4230
alon	-4231
atxa	-4232
laba	-4233
mayu	-4234
aytic	-4235
hajlo	-4236
hemam	-4237
ilwec	-4238
initi	-4239
iscaj	-4240
nitam	-4241
xacon	-4242
yican	-4243
bejtzo	-4244
griego	-4245
hetzab	-4246
iscami	-4247
iscawx	-4248
isnani	-4249
puhilo	-4250
chiwute	-4251
heyaben	-4252
howalan	-4253
intzoti	-4254
ojabico	-4255
saduceo	-4256
wacojan	-4257
yanican	-4258
yehobal	-4259
aycanilo	-4260
chexxiwi	-4261
mohyilal	-4262
pujbanic	-4263
quexwila	-4264
zacarías	-4265
capernaum	-4266
chicochah	-4267
isxahanil	-4268
xiwquilal	-4269
chiyeniloj	-4270
ismachiswalilal	-4271
!”	-4272
.”	-4273
Qu	-4274
ag	-4275
ug	-4276
óf	-4277
▁(	-4278
Cam	-4279
aha	-4280
ias	-4281
ibe	-4282
iso	-4283
obo	-4284
pía	-4285
ras	-4286
tro	-4287
uel	-4288
ufr	-4289
uln	-4290
▁So	-4291
▁ab	-4292
▁di	-4293
▁et	-4294
▁na	-4295
ahla	-4296
aloj	-4297
anas	-4298
apan	-4299
demo	-4300
ehon	-4301
enoj	-4302
ente	-4303
etak	-4304
icea	-4305
inaí	-4306
jala	-4307
jila	-4308
leví	-4309
nann	-4310
nolo	-4311
noto	-4312
ojni	-4313
ojoj	-4314
onan	-4315
queo	-4316
saya	-4317
tico	-4318
wilo	-4319
xayo	-4320
yati	-4321
▁Cha	-4322
▁Haw	-4323
▁Ist	-4324
▁lok	-4325
▁mos	-4326
▁pet	-4327
▁ten	-4328
▁wik	-4329
Ilwec	-4330
Yuxin	-4331
anilo	-4332
atzet	-4333
balxa	-4334
camic	-4335
chayo	-4336
chibe	-4337
elaxo	-4338
eyele	-4339
festo	-4340
hecal	-4341
hunba	-4342
mohal	-4343
ojaln	-4344
ojoch	-4345
tucle	-4346
utxwi	-4347
weloj	-4348
yawub	-4349
yayil	-4350
ácono	-4351
▁Ayex	-4352
▁Sara	-4353
▁Taca	-4354
▁Txum	-4355
▁chel	-4356
▁dios	-4357
▁hati	-4358
▁hawe	-4359
▁inmi	-4360
▁inwi	-4361
▁txih	-4362
▁wila	-4363
Huntek	-4364
abilal	-4365
ahnico	-4366
alnayo	-4367
ayalil	-4368
bilayo	-4369
cadena	-4370
chilba	-4371
chimyu	-4372
elapno	-4373
ichiti	-4374
inajli	-4375
iptzen	-4376
laxilo	-4377
laxtoj	-4378
obojan	-4379
odicea	-4380
txitam	-4381
ujanto	-4382
unlahi	-4383
wenico	-4384
yahbet	-4385
▁Ilwec	-4386
▁Siria	-4387
▁Tajca	-4388
▁Yaben	-4389
▁abewe	-4390
▁cachi	-4391
▁cheja	-4392
▁chuco	-4393
▁cocon	-4394
▁hamam	-4395
▁helin	-4396
▁heyik	-4397
▁ishac	-4398
▁ishec	-4399
▁islow	-4400
▁issat	-4401
▁istel	-4402
▁juten	-4403
▁perla	-4404
▁walca	-4405
▁wejna	-4406
▁yoxel	-4407
ambebal	-4408
ancanoj	-4409
bancano	-4410
bejtzon	-4411
bilinan	-4412
chawatx	-4413
chiilni	-4414
chiyiyo	-4415
comunil	-4416
ejtzoni	-4417
elaxilo	-4418
eyetato	-4419
hecawil	-4420
ichmame	-4421
iltojan	-4422
inbihan	-4423
ishajlo	-4424
ismelyu	-4425
nolojan	-4426
obnican	-4427
ojabilo	-4428
wewanoj	-4429
yecheln	-4430
yilnito	-4431
▁Alejan	-4432
▁Aquila	-4433
▁Chintz	-4434
▁Ischej	-4435
▁Simeón	-4436
▁Sodoma	-4437
▁cachwa	-4438
▁chabil	-4439
▁chexto	-4440
▁chiayc	-4441
▁chicon	-4442
▁elicoj	-4443
▁isbeyc	-4444
▁iscutx	-4445
▁matxam	-4446
▁xaquex	-4447
ambenilo	-4448
ejholilo	-4449
encanilo	-4450
eojabtaj	-4451
etajinan	-4452
hexahann	-4453
isbejtzo	-4454
jalnihan	-4455
nicanilo	-4456
ohchacan	-4457
querubín	-4458
▁Txahlan	-4459
▁Walinan	-4460
▁checach	-4461
▁cheyiyo	-4462
▁chintak	-4463
▁chiscaj	-4464
▁cosataj	-4465
▁hecolni	-4466
▁helanil	-4467
▁intzoti	-4468
▁isbarco	-4469
▁iscawil	-4470
▁ishelni	-4471
▁ispalan	-4472
▁jabehan	-4473
▁lahanxa	-4474
▁maxawal	-4475
▁mostaza	-4476
▁ochebil	-4477
▁quexbey	-4478
▁sabehal	-4479
▁sesenta	-4480
▁tawiban	-4481
▁yabelax	-4482
▁yelcano	-4483
Tzettaxca	-4484
anpaxojan	-4485
chijilico	-4486
ejbiyalil	-4487
inmunilan	-4488
meltzohan	-4489
paxilojan	-4490
▁Herodías	-4491
▁Israelan	-4492
▁chiwican	-4493
▁coDiosal	-4494
▁cotxahli	-4495
▁hachejab	-4496
▁incuywom	-4497
▁iscachni	-4498
▁itzitzto	-4499
▁jintajan	-4500
▁teyintaj	-4501
▁tzujtzun	-4502
▁yacanico	-4503
▁yichitax	-4504
inchejaban	-4505
yahbetajil	-4506
▁Iscolomal	-4507
▁bejwecano	-4508
▁chiabelax	-4509
▁chutepaxo	-4510
▁hawuninal	-4511
▁heyahawil	-4512
▁heyeniloj	-4513
▁inpaxojan	-4514
▁issoldado	-4515
▁isyenican	-4516
▁lahaninan	-4517
abenpaxojan	-4518
chejnitijan	-4519
ilnipaxojan	-4520
nimanilehal	-4521
▁Chalnipaxo	-4522
▁Tesalónica	-4523
▁chiwaltoti	-4524
▁chiwinajli	-4525
▁chiyijpaxo	-4526
▁comunlahan	-4527
▁hecuybanil	-4528
▁inmunlahan	-4529
▁istoholban	-4530
▁istrompeta	-4531
▁isxahanbal	-4532
▁itzitzinan	-4533
inalaxicojan	-4534
iscutxbanico	-4535
▁Chiwochehan	-4536
▁chihallaxic	-4537
▁innimanilti	-4538
▁chintzotelan	-4539
▁witzitzbican	-4540
abo	-4541
ela	-4542
max	-4543
món	-4544
unn	-4545
chab	-4546
isme	-4547
motx	-4548
nati	-4549
chelo	-4550
echah	-4551
meltz	-4552
nohna	-4553
walon	-4554
wetbi	-4555
yahto	-4556
yecoj	-4557
yilno	-4558
chexec	-4559
elcano	-4560
hunelo	-4561
illaxi	-4562
istzal	-4563
lahano	-4564
macach	-4565
ocpaxo	-4566
orahil	-4567
sunilo	-4568
yahawo	-4569
yinayo	-4570
ananías	-4571
campaxo	-4572
chawaco	-4573
chicotz	-4574
chiyaco	-4575
cotohan	-4576
ishajni	-4577
sunilal	-4578
txahlan	-4579
yalpaxo	-4580
chabilxa	-4581
chilolax	-4582
iscutxba	-4583
chianayto	-4584
chitxahli	-4585
ewantajil	-4586
utxbanico	-4587
ischejnito	-4588
yanipaxico	-4589
chijochehan	-4590
innimanilan	-4591
melquisedec	-4592
Is	-4593
wo	-4594
▁a	-4595
ewi	-4596
paq	-4597
ujn	-4598
xah	-4599
▁He	-4600
▁Ho	-4601
Cata	-4602
adán	-4603
chac	-4604
cotx	-4605
loco	-4606
niti	-4607
olab	-4608
yuli	-4609
▁Con	-4610
▁Pon	-4611
▁Yec	-4612
▁Yel	-4613
▁Yij	-4614
▁hol	-4615
▁jah	-4616
▁maw	-4617
▁num	-4618
▁suc	-4619
▁waj	-4620
Matxa	-4621
Simón	-4622
Waxan	-4623
aycoj	-4624
chato	-4625
cheyu	-4626
chiok	-4627
chuhi	-4628
etzan	-4629
isbey	-4630
iscuy	-4631
islok	-4632
lemna	-4633
mahul	-4634
mohyi	-4635
najil	-4636
▁Chaw	-4637
▁Chex	-4638
▁Chil	-4639
▁Etza	-4640
▁caẍa	-4641
▁chab	-4642
▁hajl	-4643
▁hawa	-4644
▁ilom	-4645
▁ocan	-4646
▁sajb	-4647
▁xilo	-4648
▁yati	-4649
▁yetc	-4650
▁yexn	-4651
Ayojab	-4652
chinan	-4653
dragón	-4654
incart	-4655
issajn	-4656
jordán	-4657
walach	-4658
▁Creta	-4659
▁altar	-4660
▁arena	-4661
▁bulna	-4662
▁catto	-4663
▁chayo	-4664
▁chieq	-4665
▁chuli	-4666
▁coley	-4667
▁culto	-4668
▁hajan	-4669
▁hawil	-4670
▁howan	-4671
▁hunep	-4672
▁hunon	-4673
▁incon	-4674
▁istin	-4675
▁isxec	-4676
▁jaben	-4677
▁legua	-4678
▁macon	-4679
▁mohyi	-4680
▁walax	-4681
▁waxaj	-4682
▁wojan	-4683
▁xacam	-4684
▁yahwi	-4685
▁yecan	-4686
▁yiche	-4687
▁yocxa	-4688
chispoh	-4689
damasco	-4690
quinhaw	-4691
seleloj	-4692
tzoteli	-4693
wetojan	-4694
yiptzen	-4695
▁Chiwak	-4696
▁Naweti	-4697
▁Yulbal	-4698
▁cabcon	-4699
▁chahwe	-4700
▁chexwa	-4701
▁chibej	-4702
▁chicaj	-4703
▁chipoh	-4704
▁chiwik	-4705
▁corona	-4706
▁cotxum	-4707
▁harina	-4708
▁hebreo	-4709
▁hunoxa	-4710
▁inchiq	-4711
▁issaya	-4712
▁maquex	-4713
▁patrón	-4714
▁quinec	-4715
▁subuta	-4716
▁walnoc	-4717
▁yettic	-4718
▁yiniti	-4719
Mactaxca	-4720
chejaboj	-4721
chejniti	-4722
chiahilo	-4723
chimohyi	-4724
chinocan	-4725
hetxahli	-4726
ipaxocan	-4727
johtajan	-4728
matxatic	-4729
▁Wabenan	-4730
▁Yahawoj	-4731
▁challax	-4732
▁chawabe	-4733
▁chialax	-4734
▁chisyah	-4735
▁chiwaco	-4736
▁chiyala	-4737
▁coxolan	-4738
▁cuartel	-4739
▁hawetbi	-4740
▁hemelyu	-4741
▁heyixal	-4742
▁heyuẍta	-4743
▁inmelyu	-4744
▁isbejni	-4745
▁iscuyno	-4746
▁jahawil	-4747
▁johtaxa	-4748
▁matanil	-4749
▁txahloj	-4750
▁yechelo	-4751
▁yespada	-4752
▁yijcano	-4753
▁yilweno	-4754
▁yiximal	-4755
inmunilti	-4756
innabalan	-4757
wanicojan	-4758
wanitojan	-4759
yettaxtic	-4760
▁Priscila	-4761
▁chetxumu	-4762
▁chiohtan	-4763
▁colbilon	-4764
▁hatzotel	-4765
▁heDiosal	-4766
▁heyenilo	-4767
▁hunpilan	-4768
▁iscantil	-4769
▁ischahno	-4770
▁istzejla	-4771
▁maẍtotic	-4772
▁palamuch	-4773
▁trompeta	-4774
▁tzalacan	-4775
▁tzujanex	-4776
▁yawtelax	-4777
chiwacojan	-4778
heyofrenda	-4779
istzabnayo	-4780
walnitojan	-4781
▁Haquexpax	-4782
▁chejbanil	-4783
▁chibuchwa	-4784
▁chiillaxi	-4785
▁chilolaxi	-4786
▁chinyehan	-4787
▁chioccano	-4788
▁cohelanil	-4789
▁hebeybaln	-4790
▁incartati	-4791
▁isbejcano	-4792
▁iscayelal	-4793
▁nimanojab	-4794
▁xahanojab	-4795
▁yijemojab	-4796
▁yilaxilti	-4797
chicolchahi	-4798
circuncidar	-4799
▁bejbilcano	-4800
▁chietaxtoj	-4801
▁hecolchahi	-4802
▁inbeybalan	-4803
▁islahwilal	-4804
▁ispujbanic	-4805
▁isyenipaxo	-4806
▁nanantaxan	-4807
▁testigohal	-4808
▁yanipaxico	-4809
▁anmahilinan	-4810
chiwalpaxojan	-4811
▁chinanicojan	-4812
▁chinelicojan	-4813
▁chihallaxpaxo	-4814
▁chintxahlihan	-4815
▁chiwalpaxojan	-4816
ja	-4817
ot	-4818
té	-4819
abi	-4820
aln	-4821
ber	-4822
dro	-4823
ebi	-4824
ebú	-4825
eis	-4826
elz	-4827
eve	-4828
feo	-4829
ipc	-4830
ipo	-4831
lab	-4832
sac	-4833
yor	-4834
yub	-4835
íqu	-4836
acha	-4837
ahwa	-4838
alem	-4839
alti	-4840
alwi	-4841
axpo	-4842
btan	-4843
chip	-4844
cutx	-4845
dara	-4846
elen	-4847
eyto	-4848
hech	-4849
ihni	-4850
iloé	-4851
ipos	-4852
jope	-4853
mali	-4854
moto	-4855
nalo	-4856
ohan	-4857
quim	-4858
taca	-4859
ufre	-4860
ulex	-4861
utni	-4862
yuho	-4863
ancla	-4864
anoco	-4865
aytij	-4866
bejan	-4867
cuyni	-4868
ebtaj	-4869
entan	-4870
eweco	-4871
filia	-4872
imeta	-4873
ixloj	-4874
jetbi	-4875
lecan	-4876
lohal	-4877
lohan	-4878
marta	-4879
nacan	-4880
ohcha	-4881
ohtax	-4882
ojabi	-4883
omati	-4884
ponja	-4885
reina	-4886
sahab	-4887
sayan	-4888
talto	-4889
uchwa	-4890
walca	-4891
yacan	-4892
abiloj	-4893
ahawan	-4894
alomex	-4895
alpaxo	-4896
ambeni	-4897
anajon	-4898
anihan	-4899
anxaco	-4900
apnitu	-4901
awiloj	-4902
aynato	-4903
aynilo	-4904
camtoj	-4905
chejan	-4906
chihal	-4907
chiway	-4908
elzebú	-4909
etenta	-4910
eyabil	-4911
hellax	-4912
heyala	-4913
istxah	-4914
lahann	-4915
ocheto	-4916
pajtze	-4917
tenico	-4918
titnaj	-4919
tzabno	-4920
tzehan	-4921
tzetal	-4922
vidrio	-4923
ápolis	-4924
íquico	-4925
ahanbal	-4926
axepxac	-4927
axponic	-4928
balcano	-4929
bilexxa	-4930
canayoj	-4931
chetxum	-4932
chijabe	-4933
ebilayo	-4934
eligión	-4935
hawatut	-4936
heyohta	-4937
icobtan	-4938
ismohyi	-4939
istucle	-4940
laxilti	-4941
lencano	-4942
ninojan	-4943
ochenan	-4944
ohchahi	-4945
pajtzen	-4946
paxayto	-4947
pohnilo	-4948
techaho	-4949
upnican	-4950
yacojan	-4951
yijcano	-4952
ahelanil	-4953
chicuyni	-4954
chisyelo	-4955
elaxcano	-4956
enicojan	-4957
ispatrón	-4958
isxahann	-4959
nimanbal	-4960
xacochah	-4961
babilonia	-4962
bejtzohan	-4963
chalniloj	-4964
inpaxojan	-4965
israelita	-4966
issajbilo	-4967
ochebalan	-4968
txumnihan	-4969
yijnicano	-4970
yinitojan	-4971
chejabojan	-4972
chiscutxba	-4973
cocolbanil	-4974
iscolnihan	-4975
tzencanilo	-4976
itzbipaxocan	-4977
bac	-4978
itn	-4979
noé	-4980
tab	-4981
way	-4982
yeq	-4983
ˈ?:	-4984
ˈ?”	-4985
▁Ag	-4986
▁Di	-4987
▁On	-4988
▁Qu	-4989
▁Te	-4990
▁aw	-4991
▁su	-4992
Haxa	-4993
Macn	-4994
Yaja	-4995
ahwe	-4996
coto	-4997
hajl	-4998
heto	-4999
tito	-5000
ujni	-5001
▁Ico	-5002
▁Jos	-5003
▁bel	-5004
▁elo	-5005
▁way	-5006
▁wuc	-5007
▁wul	-5008
hamul	-5009
ishol	-5010
isnoh	-5011
sucal	-5012
telaj	-5013
tetej	-5014
xahul	-5015
xolaj	-5016
yamak	-5017
▁Ahan	-5018
▁Apni	-5019
▁Nico	-5020
▁Sión	-5021
▁Tzet	-5022
▁ahto	-5023
▁cabe	-5024
▁cami	-5025
▁chib	-5026
▁chub	-5027
▁ican	-5028
▁jeco	-5029
▁jeto	-5030
▁juez	-5031
▁loco	-5032
▁yatu	-5033
Maquex	-5034
aceite	-5035
agripa	-5036
andrés	-5037
chexak	-5038
chintx	-5039
chuman	-5040
corona	-5041
etalax	-5042
heyabe	-5043
ihnayo	-5044
patrón	-5045
quexin	-5046
topaxo	-5047
xolbal	-5048
yelilo	-5049
yillax	-5050
yochen	-5051
▁Aweco	-5052
▁Istit	-5053
▁Macta	-5054
▁Tohol	-5055
▁balam	-5056
▁cawxi	-5057
▁cayel	-5058
▁chiuc	-5059
▁hawal	-5060
▁hawik	-5061
▁heyal	-5062
▁heyuc	-5063
▁hoyno	-5064
▁inlah	-5065
▁ispit	-5066
▁isyox	-5067
▁jalan	-5068
▁meltz	-5069
▁najil	-5070
▁oxebo	-5071
▁tzebo	-5072
▁xatic	-5073
▁yelax	-5074
▁yitxk	-5075
Camojab	-5076
Haninan	-5077
ayxatic	-5078
cachlax	-5079
chihuli	-5080
chipotx	-5081
chixcab	-5082
chmahan	-5083
chucano	-5084
corinto	-5085
hawayto	-5086
hawuẍta	-5087
heyayto	-5088
inxahan	-5089
iscawan	-5090
ismunla	-5091
istzumb	-5092
magdala	-5093
salomón	-5094
▁Cirene	-5095
▁Hajxam	-5096
▁Iconio	-5097
▁Iswatx	-5098
▁Isyeni	-5099
▁Listra	-5100
▁Machoj	-5101
▁Yinito	-5102
▁anmaho	-5103
▁cachan	-5104
▁cawina	-5105
▁chepoh	-5106
▁chextz	-5107
▁chicoc	-5108
▁chilok	-5109
▁chinoc	-5110
▁haninn	-5111
▁hawich	-5112
▁heyaco	-5113
▁iscutz	-5114
▁isloni	-5115
▁issajn	-5116
▁istzil	-5117
▁maapni	-5118
▁patzab	-5119
▁wohtan	-5120
▁yalnoc	-5121
▁yaniti	-5122
▁yijewe	-5123
Diosalan	-5124
chiillax	-5125
cuarenta	-5126
isyijeni	-5127
religión	-5128
wuẍtajan	-5129
yawtenti	-5130
▁Cilicia	-5131
▁Galacia	-5132
▁Hacojab	-5133
▁ayictoj	-5134
▁binahoj	-5135
▁chicawx	-5136
▁chiilax	-5137
▁chiixli	-5138
▁chishel	-5139
▁chisman	-5140
▁cocolwa	-5141
▁hamataj	-5142
▁hamelyu	-5143
▁hecolwa	-5144
▁helanex	-5145
▁hitzico	-5146
▁hunujon	-5147
▁ijbalom	-5148
▁ismujli	-5149
▁issucal	-5150
▁itzitzn	-5151
▁jetbiho	-5152
▁panteón	-5153
▁tesataj	-5154
▁txahlan	-5155
▁tzehtaj	-5156
▁wacojan	-5157
▁wanmati	-5158
▁yetanto	-5159
▁yijemex	-5160
▁yiptzen	-5161
▁ẍicanoj	-5162
camnajilo	-5163
chielicoj	-5164
hunepixto	-5165
ispohnilo	-5166
▁Betsaida	-5167
▁Chilahwi	-5168
▁Heyohtaj	-5169
▁Natanael	-5170
▁chawalic	-5171
▁chianayo	-5172
▁chiixtan	-5173
▁chijilan	-5174
▁chimujli	-5175
▁chistxum	-5176
▁cocachni	-5177
▁hantatic	-5178
▁hawuẍtaj	-5179
▁hecolwal	-5180
▁heyabeni	-5181
▁ismajilo	-5182
▁mantiado	-5183
▁maxawaco	-5184
▁niẍtejal	-5185
▁sajsatil	-5186
▁tzujanxa	-5187
▁wapnihan	-5188
▁yabenilo	-5189
▁yalaxcan	-5190
▁yanicano	-5191
chextxahli	-5192
hununtajil	-5193
istxumnilo	-5194
titnajinan	-5195
▁Cristohal	-5196
▁chejbilti	-5197
▁chextzala	-5198
▁chijanico	-5199
▁chitocano	-5200
▁chitzejla	-5201
▁chiwahlax	-5202
▁chucanico	-5203
▁cincuenta	-5204
▁hechuquil	-5205
▁hetxiquin	-5206
▁hetzoteli	-5207
▁islahnico	-5208
▁istzabayo	-5209
▁istzujcha	-5210
▁jichmaman	-5211
▁quinhulan	-5212
▁toholojab	-5213
▁wanicojan	-5214
▁xaheyayto	-5215
▁xatzujcha	-5216
▁yalaxicto	-5217
haquinpaxtu	-5218
ischejlaxto	-5219
▁checutxban	-5220
▁chewchotan	-5221
▁chichiwaco	-5222
▁chinchahan	-5223
▁chiwilojan	-5224
▁cobeybalan	-5225
▁iscawxobal	-5226
▁iscutxbaco	-5227
▁isxumaquil	-5228
▁johtajojan	-5229
▁machijinan	-5230
▁pohlebahil	-5231
▁cheyalpaxoj	-5232
▁chijalnihan	-5233
▁chinyijehan	-5234
▁chisbeybaln	-5235
▁halbilcanoj	-5236
▁haquinpaxtu	-5237
chinchahnihan	-5238
▁chinmunlahan	-5239
▁iscutxbanayo	-5240
▁veinticuatro	-5241
▁wohtapaxojan	-5242
▁chinchejtojan	-5243
▁quinyanicojan	-5244
▁xaitzitzbican	-5245
ga	-5246
ve	-5247
mat	-5248
pat	-5249
pom	-5250
waj	-5251
apol	-5252
awan	-5253
bihe	-5254
chay	-5255
ehic	-5256
idia	-5257
jeto	-5258
nene	-5259
wute	-5260
abito	-5261
alcal	-5262
anito	-5263
belén	-5264
chetz	-5265
félix	-5266
hawil	-5267
heyoj	-5268
hunex	-5269
ismal	-5270
isman	-5271
ispax	-5272
issom	-5273
tomás	-5274
yanab	-5275
yebej	-5276
yeloj	-5277
yicta	-5278
apolos	-5279
chejto	-5280
chilni	-5281
chinec	-5282
inahti	-5283
isbili	-5284
isvaso	-5285
nocano	-5286
sábana	-5287
tohlan	-5288
txahlo	-5289
xaquex	-5290
yelcan	-5291
yijewe	-5292
yintan	-5293
betania	-5294
chachoc	-5295
higuera	-5296
ispixan	-5297
iswayan	-5298
janayto	-5299
nimajal	-5300
testigo	-5301
yalnilo	-5302
yanahto	-5303
yorahil	-5304
cotxumni	-5305
hacojtam	-5306
iscolcha	-5307
isnaniti	-5308
itzitzon	-5309
lahanxan	-5310
presowom	-5311
yabxubal	-5312
yofrenda	-5313
bejwecano	-5314
chicoyije	-5315
chihalnic	-5316
chiyenilo	-5317
hehelanil	-5318
heyahawil	-5319
chahnicano	-5320
chitzoteli	-5321
chiwatojan	-5322
intzotelan	-5323
ismunlawom	-5324
welapnojan	-5325
yichebanil	-5326
hetxumniloj	-5327
inchuquilan	-5328
ischahnicano	-5329
ce	-5330
oz	-5331
pe	-5332
ós	-5333
Abe	-5334
Bak	-5335
Bej	-5336
Jak	-5337
all	-5338
asu	-5339
doc	-5340
dos	-5341
ebe	-5342
eje	-5343
enj	-5344
eon	-5345
heh	-5346
ilv	-5347
imi	-5348
jil	-5349
lep	-5350
nom	-5351
ojn	-5352
tea	-5353
téf	-5354
uen	-5355
umu	-5356
wip	-5357
yon	-5358
ért	-5359
íni	-5360
íso	-5361
▁La	-5362
▁oj	-5363
Ayan	-5364
Mato	-5365
Watx	-5366
amín	-5367
anon	-5368
aspe	-5369
atni	-5370
aẍno	-5371
chto	-5372
dría	-5373
elna	-5374
emal	-5375
erbe	-5376
erro	-5377
exch	-5378
gota	-5379
habi	-5380
haco	-5381
hami	-5382
htan	-5383
ibra	-5384
isni	-5385
isxe	-5386
iter	-5387
itoj	-5388
laho	-5389
laud	-5390
litx	-5391
lomé	-5392
metx	-5393
obti	-5394
obtu	-5395
ohni	-5396
ojti	-5397
omor	-5398
para	-5399
patr	-5400
roas	-5401
teti	-5402
tiro	-5403
tona	-5404
toni	-5405
ucas	-5406
uyal	-5407
ésar	-5408
▁Isp	-5409
▁Jak	-5410
▁Lot	-5411
▁Tar	-5412
▁chí	-5413
▁jil	-5414
▁moc	-5415
Xahan	-5416
acaya	-5417
aholo	-5418
ajaco	-5419
ajban	-5420
alión	-5421
anoto	-5422
araón	-5423
atira	-5424
bitni	-5425
burro	-5426
camna	-5427
cayen	-5428
cheja	-5429
chexk	-5430
chonc	-5431
einan	-5432
eloco	-5433
eloni	-5434
emías	-5435
enice	-5436
etato	-5437
etzal	-5438
hacon	-5439
hatoc	-5440
haxan	-5441
heyeh	-5442
hunta	-5443
ilwal	-5444
isbil	-5445
ishec	-5446
isheq	-5447
ishuj	-5448
issiq	-5449
ixale	-5450
jocan	-5451
lepra	-5452
matea	-5453
najoj	-5454
nimej	-5455
nocan	-5456
obcan	-5457
olino	-5458
otzba	-5459
peyab	-5460
sello	-5461
sidón	-5462
siqui	-5463
tohal	-5464
tzelo	-5465
uerto	-5466
uixto	-5467
ujbac	-5468
ulach	-5469
unilo	-5470
venta	-5471
wawom	-5472
wihan	-5473
wulan	-5474
wuẍta	-5475
xilxa	-5476
yetan	-5477
yeton	-5478
zufre	-5479
ésimo	-5480
ínive	-5481
ẍahil	-5482
▁Aymi	-5483
▁Chul	-5484
▁Epaf	-5485
▁Etio	-5486
▁cabo	-5487
▁coch	-5488
▁coln	-5489
▁comi	-5490
▁elna	-5491
▁etax	-5492
▁hacn	-5493
▁hayc	-5494
▁hitz	-5495
▁intx	-5496
▁latz	-5497
▁maná	-5498
▁nanc	-5499
▁taca	-5500
▁xain	-5501
▁yato	-5502
▁yaxn	-5503
▁yelo	-5504
ahojan	-5505
alacio	-5506
alnico	-5507
anicto	-5508
aninan	-5509
apehal	-5510
aytzen	-5511
banayo	-5512
baytic	-5513
cantil	-5514
cawxin	-5515
chabil	-5516
chahwe	-5517
chaloj	-5518
chalte	-5519
cheyik	-5520
chiyik	-5521
ecanoj	-5522
ecojan	-5523
ehobal	-5524
ejbixa	-5525
eleloj	-5526
enesar	-5527
enicia	-5528
enilti	-5529
eyelen	-5530
hebreo	-5531
ijbani	-5532
ilvano	-5533
jalnic	-5534
marcos	-5535
ohchah	-5536
ojihan	-5537
omorra	-5538
saynic	-5539
semana	-5540
tolomé	-5541
txahul	-5542
tzabni	-5543
ublico	-5544
ucbaco	-5545
ugusto	-5546
uhnilo	-5547
ulcano	-5548
xahano	-5549
xapaxo	-5550
yilcha	-5551
értulo	-5552
ólgota	-5553
▁Aarón	-5554
▁Berea	-5555
▁Chico	-5556
▁Chink	-5557
▁Diana	-5558
▁Hacon	-5559
▁Hunta	-5560
▁Isbak	-5561
▁Sinaí	-5562
▁Troas	-5563
▁Tzetc	-5564
▁Yocto	-5565
▁Yuton	-5566
▁alibe	-5567
▁aytoc	-5568
▁camna	-5569
▁chalo	-5570
▁chiik	-5571
▁cobej	-5572
▁comam	-5573
▁estam	-5574
▁hacon	-5575
▁hatax	-5576
▁hehel	-5577
▁hexxa	-5578
▁heyaw	-5579
▁hunta	-5580
▁initi	-5581
▁inito	-5582
▁ishel	-5583
▁islob	-5584
▁isxuk	-5585
▁isyeb	-5586
▁jipan	-5587
▁johta	-5588
▁naban	-5589
▁paxan	-5590
▁tijab	-5591
▁wettu	-5592
▁wiyom	-5593
▁wuten	-5594
▁yalil	-5595
▁yetan	-5596
▁yihti	-5597
▁yoqui	-5598
ahwobal	-5599
ambenan	-5600
anantan	-5601
antojan	-5602
atelaxo	-5603
awecano	-5604
beybale	-5605
bililoj	-5606
caniloj	-5607
capilan	-5608
chahoto	-5609
conocan	-5610
denario	-5611
enjamín	-5612
icanico	-5613
ijlenan	-5614
iltijan	-5615
iscayel	-5616
istecha	-5617
ixwihan	-5618
jabehan	-5619
laxilto	-5620
nicanto	-5621
ohtabil	-5622
sabehal	-5623
tabanil	-5624
toholan	-5625
téfanas	-5626
unlabal	-5627
uywahan	-5628
xawalan	-5629
yillaxi	-5630
▁Ayahto	-5631
▁Chisje	-5632
▁Jericó	-5633
▁Walach	-5634
▁anayto	-5635
▁batxte	-5636
▁chalic	-5637
▁chetak	-5638
▁cheyuc	-5639
▁chinak	-5640
▁chinwa	-5641
▁chixan	-5642
▁chixew	-5643
▁chiyah	-5644
▁chiyoc	-5645
▁comonn	-5646
▁cotioẍ	-5647
▁heyeco	-5648
▁ismeck	-5649
▁ismeẍa	-5650
▁istohi	-5651
▁lahann	-5652
▁macxan	-5653
▁toholn	-5654
▁txahli	-5655
▁uninto	-5656
▁walach	-5657
▁wamigo	-5658
▁yacano	-5659
▁yahcan	-5660
▁yehilo	-5661
▁yijatz	-5662
▁yilwen	-5663
ajanojab	-5664
allaxayo	-5665
barrabás	-5666
chahlaxi	-5667
cheyalni	-5668
cornelio	-5669
ehayojan	-5670
elaxojab	-5671
enesaret	-5672
hallaxan	-5673
howbican	-5674
ichamile	-5675
iscachni	-5676
jilnojan	-5677
ojlaxcan	-5678
uplaxcan	-5679
uynipaxo	-5680
yacanico	-5681
áconohal	-5682
▁Etiopía	-5683
▁camello	-5684
▁camomxa	-5685
▁cawilxa	-5686
▁chabeto	-5687
▁chalico	-5688
▁chawila	-5689
▁chaẍhul	-5690
▁chexayc	-5691
▁cheyito	-5692
▁chiahti	-5693
▁chibili	-5694
▁chielto	-5695
▁chiloni	-5696
▁chishaj	-5697
▁chitita	-5698
▁chiyabe	-5699
▁chiyeni	-5700
▁comajul	-5701
▁comatan	-5702
▁comonal	-5703
▁hacuyni	-5704
▁hecuyni	-5705
▁heyatut	-5706
▁heyetbi	-5707
▁heyuten	-5708
▁ichamxa	-5709
▁ichmame	-5710
▁inmayan	-5711
▁iscapil	-5712
▁ischiwa	-5713
▁isreyal	-5714
▁iswahni	-5715
▁isyawub	-5716
▁isyayil	-5717
▁lahanon	-5718
▁maswatx	-5719
▁nimanxa	-5720
▁pujanto	-5721
▁quexyak	-5722
▁xapitzc	-5723
▁yahbalo	-5724
▁yallaxi	-5725
anipaxico	-5726
bejtzonan	-5727
chejnihan	-5728
chejtijan	-5729
chietanto	-5730
chimeltzo	-5731
epaxtojan	-5732
iscolnilo	-5733
najojinan	-5734
nipaxocan	-5735
paxicojan	-5736
ujnacanto	-5737
▁Israelal	-5738
▁Istopaxo	-5739
▁Laodicea	-5740
▁Nicodemo	-5741
▁aypaxico	-5742
▁cambehal	-5743
▁camnajon	-5744
▁chawayto	-5745
▁chexilni	-5746
▁chijayto	-5747
▁chiwuhan	-5748
▁chucanoj	-5749
▁cocolcha	-5750
▁hapaxtoj	-5751
▁heyinilo	-5752
▁hunlahon	-5753
▁isbalico	-5754
▁isbejtzo	-5755
▁iscamilo	-5756
▁ishunban	-5757
▁istioẍli	-5758
▁istzablo	-5759
▁isyelaln	-5760
▁lemnahan	-5761
▁majwahan	-5762
▁maxawute	-5763
▁munlabal	-5764
▁ohtabilo	-5765
▁quinchin	-5766
▁tzalahan	-5767
▁winajloj	-5768
▁yaxcamic	-5769
▁yetbihoj	-5770
▁yetxatic	-5771
▁yilaltic	-5772
ancianohal	-5773
bejcanojan	-5774
chebeybaln	-5775
hulnajinan	-5776
inanitijan	-5777
iscolbanil	-5778
iscuybanil	-5779
maẍtajinan	-5780
ohchahilal	-5781
tuclenojan	-5782
▁candelero	-5783
▁chechahni	-5784
▁chenahuln	-5785
▁chepuhilo	-5786
▁cheyetato	-5787
▁chicotxum	-5788
▁chiijbali	-5789
▁chijechma	-5790
▁chincaman	-5791
▁chisubcha	-5792
▁chiutelax	-5793
▁cosunilan	-5794
▁ijbalomal	-5795
▁inhowalan	-5796
▁isyeniloj	-5797
▁maẍtajach	-5798
▁subchahoj	-5799
▁sunilojab	-5800
▁titnajach	-5801
▁wacanojan	-5802
▁wehicojan	-5803
▁yahawiloj	-5804
▁yespíritu	-5805
achaojabilo	-5806
▁Yanipaxico	-5807
▁cuywawomal	-5808
▁hawichamil	-5809
▁heyichamil	-5810
▁incartahan	-5811
▁ismeltzoco	-5812
▁ispujnacan	-5813
▁matxahojab	-5814
▁quinhetzab	-5815
gobernadoral	-5816
sacerdotehal	-5817
▁chexmunlahi	-5818
▁hachcachann	-5819
▁inhelanilan	-5820
▁isdiezmohal	-5821
▁nimanilehal	-5822
▁chicabconcan	-5823
▁chinischahan	-5824
▁chisyijepaxo	-5825
▁hechahnipaxo	-5826
▁ispujbalaxic	-5827
▁isyahbetajil	-5828
▁chiwalnitojan	-5829
▁inchejbanilan	-5830
af	-5831
cac	-5832
ilw	-5833
xab	-5834
▁?:	-5835
enas	-5836
iche	-5837
siqu	-5838
txak	-5839
xayu	-5840
yuhi	-5841
camiẍ	-5842
camto	-5843
hamam	-5844
hawoj	-5845
heyin	-5846
hunon	-5847
istaj	-5848
istoh	-5849
isxan	-5850
iwelo	-5851
jairo	-5852
japni	-5853
jonás	-5854
lanza	-5855
maxey	-5856
plata	-5857
wojan	-5858
yecan	-5859
yulic	-5860
ahnito	-5861
alahwi	-5862
caifás	-5863
chexin	-5864
chicol	-5865
chipre	-5866
chisna	-5867
chitaj	-5868
chiyil	-5869
cuywal	-5870
expaxo	-5871
hajlax	-5872
ismotx	-5873
ismulo	-5874
machij	-5875
maquin	-5876
matxam	-5877
ocheni	-5878
sajilk	-5879
saywal	-5880
xayaco	-5881
yamigo	-5882
chexxiw	-5883
chielti	-5884
chipalc	-5885
diosalo	-5886
hanabal	-5887
hemunil	-5888
heyoche	-5889
ispohni	-5890
istzala	-5891
iswayic	-5892
treinta	-5893
yabelax	-5894
yehayto	-5895
chiinilo	-5896
chijalic	-5897
cobeybal	-5898
diosaloj	-5899
ecanojan	-5900
hebeybal	-5901
hoyanico	-5902
iscolilo	-5903
sajhopon	-5904
chexcolwa	-5905
chicolcha	-5906
chietaxto	-5907
chiichico	-5908
halwepaxo	-5909
haquexpax	-5910
heyanayto	-5911
inyijenan	-5912
iscariote	-5913
ishoyanil	-5914
toholojab	-5915
xahanojab	-5916
yijemojab	-5917
hanintonan	-5918
hunmajanxa	-5919
istoholban	-5920
istzalanil	-5921
munlawomal	-5922
chijaltojan	-5923
chiwalnihan	-5924
wacanicojan	-5925
quexwilnojan	-5926
wohtapaxojan	-5927
.)	-5928
Mi	-5929
ow	-5930
tn	-5931
▁i	-5932
Ach	-5933
Lan	-5934
jer	-5935
mir	-5936
oni	-5937
sab	-5938
siq	-5939
yab	-5940
yac	-5941
ˈ,’	-5942
▁Am	-5943
▁Be	-5944
▁Bo	-5945
▁Me	-5946
▁Ni	-5947
▁ic	-5948
▁nu	-5949
▁uq	-5950
Chal	-5951
Chin	-5952
Chiw	-5953
anti	-5954
bolo	-5955
ches	-5956
cien	-5957
cowi	-5958
inmi	-5959
iptz	-5960
judá	-5961
jute	-5962
lato	-5963
loni	-5964
olto	-5965
omex	-5966
yelk	-5967
▁Cab	-5968
▁Cam	-5969
▁Cat	-5970
▁Chu	-5971
▁Col	-5972
▁Dor	-5973
▁Heb	-5974
▁Hul	-5975
▁Lah	-5976
▁Pan	-5977
▁Sam	-5978
▁hax	-5979
▁int	-5980
▁jik	-5981
▁jop	-5982
▁juc	-5983
▁muj	-5984
▁sur	-5985
▁woc	-5986
▁xak	-5987
▁xic	-5988
Abewe	-5989
altam	-5990
cajni	-5991
calle	-5992
caret	-5993
chich	-5994
echel	-5995
estam	-5996
halno	-5997
haman	-5998
hawal	-5999
hesay	-6000
hojab	-6001
issak	-6002
istin	-6003
macon	-6004
sajxa	-6005
talia	-6006
tenas	-6007
xulno	-6008
yitxk	-6009
▁Abel	-6010
▁Cach	-6011
▁Chij	-6012
▁Chim	-6013
▁Gayo	-6014
▁Hato	-6015
▁Isaí	-6016
▁Nawe	-6017
▁Oxeb	-6018
▁Quin	-6019
▁Yaco	-6020
▁chit	-6021
▁chuc	-6022
▁coti	-6023
▁heti	-6024
▁heya	-6025
▁hora	-6026
▁ilax	-6027
▁inwa	-6028
▁isho	-6029
▁jabe	-6030
▁juan	-6031
▁lino	-6032
▁pich	-6033
▁piso	-6034
▁seis	-6035
▁tajo	-6036
▁wayo	-6037
▁weti	-6038
▁xaak	-6039
▁yeti	-6040
Matzet	-6041
aytoco	-6042
chinto	-6043
comono	-6044
hepotx	-6045
isdiez	-6046
istioẍ	-6047
machmi	-6048
mohyom	-6049
monten	-6050
naweti	-6051
ocojan	-6052
reyalo	-6053
xewbal	-6054
yabeni	-6055
yacano	-6056
yahilo	-6057
yilwen	-6058
▁Alfeo	-6059
▁Canan	-6060
▁Hanic	-6061
▁Mateo	-6062
▁Tarso	-6063
▁Toxan	-6064
▁Walca	-6065
▁Xahan	-6066
▁Yijem	-6067
▁Yoche	-6068
▁abeno	-6069
▁ancla	-6070
▁awten	-6071
▁balon	-6072
▁belwi	-6073
▁cawex	-6074
▁chiju	-6075
▁chila	-6076
▁chinc	-6077
▁colah	-6078
▁elcan	-6079
▁hachn	-6080
▁heyec	-6081
▁howla	-6082
▁hujel	-6083
▁ilbil	-6084
▁iscaw	-6085
▁ismoh	-6086
▁ispak	-6087
▁istir	-6088
▁isyij	-6089
▁jecoj	-6090
▁jilan	-6091
▁lanza	-6092
▁machn	-6093
▁mawal	-6094
▁mayor	-6095
▁nueve	-6096
▁pahaw	-6097
▁plato	-6098
▁pojoj	-6099
▁reina	-6100
▁wajeb	-6101
▁walic	-6102
▁wawte	-6103
▁wetti	-6104
▁xecan	-6105
▁yacan	-6106
▁yehic	-6107
▁yuchc	-6108
▁yumal	-6109
▁yuten	-6110
▁ẍicoj	-6111
Diosalo	-6112
chejabo	-6113
chialax	-6114
chinhey	-6115
chiscaj	-6116
echmawe	-6117
ewantic	-6118
hawilni	-6119
hehowal	-6120
incaman	-6121
islahwi	-6122
istarco	-6123
joccano	-6124
johtaxa	-6125
masnico	-6126
munlaco	-6127
ochebal	-6128
watutan	-6129
yictajo	-6130
zebedeo	-6131
▁Atenas	-6132
▁Dorcas	-6133
▁Gadara	-6134
▁Johtaj	-6135
▁Poncio	-6136
▁Salmos	-6137
▁Yanayo	-6138
▁Yinilo	-6139
▁Zaqueo	-6140
▁abebil	-6141
▁bajxan	-6142
▁cachis	-6143
▁chacoj	-6144
▁checuy	-6145
▁cheman	-6146
▁chexel	-6147
▁chexok	-6148
▁cheyah	-6149
▁chiawi	-6150
▁chijik	-6151
▁chijni	-6152
▁chilin	-6153
▁chipax	-6154
▁chistz	-6155
▁chisya	-6156
▁chitac	-6157
▁chitoh	-6158
▁chiwej	-6159
▁cochah	-6160
▁coloni	-6161
▁hawala	-6162
▁hechah	-6163
▁helano	-6164
▁henani	-6165
▁hetxah	-6166
▁holbil	-6167
▁hulcan	-6168
▁intzab	-6169
▁isbiho	-6170
▁ishitz	-6171
▁islowi	-6172
▁mohyin	-6173
▁ocnico	-6174
▁oxelxa	-6175
▁tocano	-6176
▁tzujnu	-6177
▁vidrio	-6178
▁yabelo	-6179
▁yecano	-6180
▁yetbin	-6181
▁yijlen	-6182
▁yinolo	-6183
▁yixtan	-6184
▁yulcan	-6185
▁yupaxo	-6186
▁ẍipaxo	-6187
Baytaxca	-6188
Chiwalan	-6189
chacanoj	-6190
chexapni	-6191
cheyilni	-6192
chicuywa	-6193
chiilcha	-6194
chiwalic	-6195
cocachni	-6196
colchalo	-6197
elizabet	-6198
hacuywom	-6199
heyijeni	-6200
istocano	-6201
istxolal	-6202
isxiwcan	-6203
meltzoco	-6204
txumnilo	-6205
yilaxilo	-6206
▁Filipos	-6207
▁Tíquico	-6208
▁Yinican	-6209
▁chacano	-6210
▁chanayo	-6211
▁chayije	-6212
▁chiahto	-6213
▁chicani	-6214
▁chijila	-6215
▁chinhul	-6216
▁chismaj	-6217
▁chismak	-6218
▁chitxon	-6219
▁chitzej	-6220
▁chiyilo	-6221
▁chiyuni	-6222
▁cocawil	-6223
▁comunla	-6224
▁cosatan	-6225
▁esponja	-6226
▁habilxa	-6227
▁hacawil	-6228
▁hamunil	-6229
▁hantaxa	-6230
▁hawunin	-6231
▁hetxumu	-6232
▁hewayan	-6233
▁inbelan	-6234
▁inxahan	-6235
▁isbajil	-6236
▁iscabil	-6237
▁isculus	-6238
▁isjepla	-6239
▁ismajil	-6240
▁ismalil	-6241
▁ismatan	-6242
▁ismilal	-6243
▁iswinaj	-6244
▁isyecan	-6245
▁isyelax	-6246
▁jechman	-6247
▁johtajo	-6248
▁mawalan	-6249
▁maxawil	-6250
▁munilal	-6251
▁nawetij	-6252
▁partido	-6253
▁setenta	-6254
▁tasataj	-6255
▁txumcha	-6256
▁watojan	-6257
▁xajalan	-6258
▁xajayto	-6259
▁yanicto	-6260
▁yetaxto	-6261
▁yetexxa	-6262
▁yilaxti	-6263
▁yilnico	-6264
▁yilniti	-6265
▁yocnico	-6266
awtebilon	-6267
chinyehan	-6268
heyichmam	-6269
heyuninal	-6270
iscuywahi	-6271
tzujnojan	-6272
xiwquilta	-6273
yilnipaxo	-6274
▁Beelzebú	-6275
▁Chistxon	-6276
▁Panfilia	-6277
▁Tzalahan	-6278
▁Yahawilo	-6279
▁ayachico	-6280
▁chexapno	-6281
▁chexixli	-6282
▁chexwayi	-6283
▁cheyalic	-6284
▁chiochen	-6285
▁chipaxto	-6286
▁chisayni	-6287
▁chiyahni	-6288
▁chiyalic	-6289
▁chiyelax	-6290
▁hachahni	-6291
▁halbilxa	-6292
▁hawanico	-6293
▁hawaybal	-6294
▁henimanc	-6295
▁heyehico	-6296
▁isbuchwa	-6297
▁iscachwa	-6298
▁ischejto	-6299
▁islahico	-6300
▁istohlan	-6301
▁matxataj	-6302
▁pujnacan	-6303
▁satapaxo	-6304
▁techahoj	-6305
▁xacochah	-6306
▁xahechah	-6307
▁xaheyabe	-6308
▁yecheloj	-6309
▁yintalto	-6310
chalnipaxo	-6311
chialaxico	-6312
chiilaxilo	-6313
chiilchalo	-6314
chinachalo	-6315
chisbalico	-6316
hecolbanil	-6317
hetxumnilo	-6318
heyohtajoj	-6319
ischibehal	-6320
ismeltzoto	-6321
istzilnilo	-6322
isyenipaxo	-6323
tzujanilxa	-6324
▁Alejandro	-6325
▁Aristarco	-6326
▁Chalpaxto	-6327
▁Isjobnayo	-6328
▁Wahawilan	-6329
▁cabconcan	-6330
▁chepajtze	-6331
▁chexahann	-6332
▁chialaxto	-6333
▁chianican	-6334
▁chiilaxto	-6335
▁chincanan	-6336
▁chiocpaxo	-6337
▁hahelanil	-6338
▁hatzoteli	-6339
▁helanojab	-6340
▁heyechman	-6341
▁hinaninan	-6342
▁isDiosalo	-6343
▁iscamiloj	-6344
▁iscolnilo	-6345
▁iscolwahi	-6346
▁ishatelax	-6347
▁isholanil	-6348
▁ispartido	-6349
▁ispaxayti	-6350
▁ispeyabil	-6351
▁iswinajil	-6352
▁ohtabiloj	-6353
▁winitojan	-6354
▁wuninalan	-6355
▁yelawiloj	-6356
▁yilnipaxo	-6357
▁yochenico	-6358
▁yohtapaxo	-6359
chisbejcano	-6360
inchahnihan	-6361
istxumchalo	-6362
▁Hallaxojab	-6363
▁Ischejnito	-6364
▁chexcolcha	-6365
▁chibeybaln	-6366
▁chihallaxi	-6367
▁chijatojan	-6368
▁chimunlahi	-6369
▁chislahico	-6370
▁chiwitijan	-6371
▁coxahanbal	-6372
▁haltebilxa	-6373
▁hawohtajoj	-6374
▁heyetbihoj	-6375
▁inDiosalan	-6376
▁incolnihan	-6377
▁incolwahan	-6378
▁inmelyuhan	-6379
▁iscolchahi	-6380
▁isnimanbal	-6381
▁ispichnico	-6382
▁istzabnoyo	-6383
▁istzalabal	-6384
▁wetbihojan	-6385
▁yanicanico	-6386
chintzotelan	-6387
walnipaxojan	-6388
▁Chalnipaxoj	-6389
▁Chalnipaxto	-6390
▁ayinictojan	-6391
▁cheyutepaxo	-6392
▁chialaxicoj	-6393
▁chielcanico	-6394
▁chihaltelax	-6395
▁cotxahlihan	-6396
▁heyohtapaxo	-6397
▁isbejtzolax	-6398
▁istzotelcan	-6399
▁subchahojan	-6400
▁Wilnipaxojan	-6401
▁cawxicanocan	-6402
▁chibejtzolax	-6403
▁chichahnayto	-6404
▁chielcanicoj	-6405
▁chischahpaxo	-6406
▁chitzejtzoni	-6407
▁inchejabojan	-6408
▁incuywomojan	-6409
▁ischuquilxan	-6410
▁isyenicanilo	-6411
▁quintzotelan	-6412
▁istiempohalxa	-6413
▁iscawxicanocan	-6414
▁quiniscolnihan	-6415
▁chinitzitzbican	-6416
aú	-6417
de	-6418
oq	-6419
ue	-6420
ué	-6421
íf	-6422
úp	-6423
agé	-6424
alu	-6425
amn	-6426
ard	-6427
awn	-6428
ayu	-6429
cia	-6430
dab	-6431
eas	-6432
ect	-6433
ejo	-6434
equ	-6435
eye	-6436
fas	-6437
gia	-6438
gre	-6439
hoc	-6440
iho	-6441
iwi	-6442
mel	-6443
peb	-6444
pet	-6445
que	-6446
rno	-6447
rán	-6448
róf	-6449
tés	-6450
uxe	-6451
uẍt	-6452
wab	-6453
zor	-6454
ópa	-6455
ẍch	-6456
▁!”	-6457
abas	-6458
anin	-6459
ares	-6460
atak	-6461
atij	-6462
atoj	-6463
awuẍ	-6464
bali	-6465
bano	-6466
chni	-6467
colw	-6468
ejtu	-6469
erge	-6470
esíf	-6471
etoj	-6472
etro	-6473
exan	-6474
fagé	-6475
guel	-6476
hacn	-6477
hati	-6478
hawi	-6479
ibro	-6480
inco	-6481
inia	-6482
inte	-6483
inwi	-6484
inán	-6485
leto	-6486
loyo	-6487
male	-6488
meck	-6489
mohi	-6490
oboj	-6491
obxa	-6492
ojto	-6493
onal	-6494
otoj	-6495
pejo	-6496
quiẍ	-6497
sara	-6498
talí	-6499
tita	-6500
tzoc	-6501
ucub	-6502
ulón	-6503
umer	-6504
umpa	-6505
upom	-6506
usno	-6507
weyo	-6508
wila	-6509
xlax	-6510
yato	-6511
yexn	-6512
ẍalu	-6513
ẍila	-6514
abale	-6515
ahato	-6516
ambal	-6517
amilo	-6518
ardis	-6519
atiel	-6520
ayolo	-6521
aytze	-6522
bacan	-6523
banan	-6524
cachi	-6525
chuco	-6526
cocon	-6527
ebada	-6528
ebeca	-6529
ebilo	-6530
ehoyo	-6531
emcan	-6532
emilo	-6533
eneno	-6534
ergio	-6535
etrio	-6536
exico	-6537
halxa	-6538
helin	-6539
hexxa	-6540
heyik	-6541
howan	-6542
hunep	-6543
ilann	-6544
incho	-6545
intan	-6546
ishac	-6547
isias	-6548
islow	-6549
issat	-6550
isyah	-6551
juten	-6552
naban	-6553
nicoj	-6554
nicto	-6555
nipax	-6556
obtan	-6557
onayo	-6558
oncan	-6559
paxan	-6560
perla	-6561
rigia	-6562
ronce	-6563
seman	-6564
siria	-6565
tajtu	-6566
tebal	-6567
tijab	-6568
ujilo	-6569
umbec	-6570
uteni	-6571
uylax	-6572
waxaj	-6573
wejna	-6574
xayto	-6575
xewan	-6576
yahwi	-6577
yiche	-6578
yilan	-6579
yoxel	-6580
ófilo	-6581
ópago	-6582
abelwi	-6583
ahlaxi	-6584
ahnilo	-6585
alajon	-6586
alejan	-6587
alemal	-6588
alojan	-6589
ambele	-6590
ambewe	-6591
anahto	-6592
ancano	-6593
anojan	-6594
aptzen	-6595
aquila	-6596
araíso	-6597
atutti	-6598
atxnic	-6599
balcan	-6600
bilcan	-6601
cantoj	-6602
chiayc	-6603
chicon	-6604
conías	-6605
costés	-6606
ebixto	-6607
eftalí	-6608
elaxto	-6609
enilto	-6610
enojan	-6611
entavo	-6612
equías	-6613
eweloj	-6614
haninn	-6615
hesaya	-6616
heyilw	-6617
ibican	-6618
icnilo	-6619
ijento	-6620
inadab	-6621
inagre	-6622
inalan	-6623
initoj	-6624
inohal	-6625
irlahi	-6626
isbeyc	-6627
iscach	-6628
iscutx	-6629
isidia	-6630
istzil	-6631
laudio	-6632
lenilo	-6633
maliel	-6634
maltoj	-6635
nopaxo	-6636
obabel	-6637
ohbaco	-6638
ohtami	-6639
ominan	-6640
onbayo	-6641
otojan	-6642
paxtij	-6643
pujbac	-6644
rófimo	-6645
simeón	-6646
sodoma	-6647
ubabil	-6648
unlaxi	-6649
uslaxi	-6650
uxanta	-6651
uxanxa	-6652
uxewal	-6653
wejcha	-6654
yetato	-6655
yijeni	-6656
zareno	-6657
úpiter	-6658
abastro	-6659
acanico	-6660
allehal	-6661
anxacan	-6662
apaxico	-6663
awtehan	-6664
aynajex	-6665
banayto	-6666
camojab	-6667
checach	-6668
cheyiyo	-6669
chilban	-6670
chintak	-6671
chmaman	-6672
cosataj	-6673
ebilpax	-6674
ehojabn	-6675
elapnoj	-6676
ellohal	-6677
esíforo	-6678
etanoto	-6679
hacuyni	-6680
hantato	-6681
hecolni	-6682
hesayic	-6683
ictojan	-6684
ipaxilo	-6685
isbajil	-6686
isbarco	-6687
iscawil	-6688
ishelni	-6689
ispalan	-6690
lahanxa	-6691
laxayoj	-6692
laxiloj	-6693
majulan	-6694
maxawal	-6695
mostaza	-6696
ochebil	-6697
paxiloj	-6698
posanto	-6699
quexbey	-6700
ratohan	-6701
ronahil	-6702
sesenta	-6703
tawiban	-6704
txutxwi	-6705
ulcanoj	-6706
utelaxi	-6707
uychahi	-6708
uywabal	-6709
webilxa	-6710
wilojan	-6711
yahawoj	-6712
yelcano	-6713
alahojab	-6714
allaxico	-6715
annicano	-6716
balaxico	-6717
belwihan	-6718
cajlaxan	-6719
cantojan	-6720
chahojab	-6721
chicanti	-6722
chiwican	-6723
colwabal	-6724
cotxahli	-6725
cuynihan	-6726
ecanilto	-6727
ecápolis	-6728
hachejab	-6729
herodías	-6730
hunlahon	-6731
icaniloj	-6732
ilchahan	-6733
ilicojan	-6734
incuywom	-6735
israelan	-6736
itzitzto	-6737
jintajan	-6738
lemnahan	-6739
maẍtotic	-6740
meltzohi	-6741
mujlaxan	-6742
mujlubal	-6743
nipaxico	-6744
ochenico	-6745
ohnipaxo	-6746
ojlaxayo	-6747
patronan	-6748
paxtijan	-6749
pitnihan	-6750
saynihan	-6751
siquihan	-6752
teyintaj	-6753
tohlahan	-6754
tzelojan	-6755
tzeniloj	-6756
tzujanxa	-6757
tzujtzun	-6758
ujbanico	-6759
umerohal	-6760
utxbacan	-6761
uyluncan	-6762
yawtelax	-6763
yichitax	-6764
yohtajoj	-6765
ambebalan	-6766
awtecojan	-6767
babitojan	-6768
candelero	-6769
chiabelax	-6770
chutepaxo	-6771
ejholohal	-6772
hamanilan	-6773
hawuninal	-6774
henatijan	-6775
heyeniloj	-6776
ibpaxocan	-6777
iscolomal	-6778
issoldado	-6779
isyenican	-6780
lahaninan	-6781
nicamojan	-6782
nimanojab	-6783
nipaxcano	-6784
ohtaxahan	-6785
sunilojab	-6786
wacanojan	-6787
winajilan	-6788
cawxinacan	-6789
chewchotan	-6790
chiwaltoti	-6791
chiwinajli	-6792
chiyijpaxo	-6793
comunlahan	-6794
entecostés	-6795
hecuybanil	-6796
hunicanico	-6797
inmunlahan	-6798
ismeltzoco	-6799
istrompeta	-6800
isxahanbal	-6801
itzitzinan	-6802
saynilojan	-6803
tesalónica	-6804
txumilojan	-6805
xewninojan	-6806
chahlaxicto	-6807
chejnitojan	-6808
chihallaxic	-6809
conanitijan	-6810
ebilpaxcano	-6811
espírituhan	-6812
innimanilti	-6813
yenicanojan	-6814
encaniltojan	-6815
witzitzbican	-6816
chinchejtojan	-6817
?:	-6818
An	-6819
Aw	-6820
Ec	-6821
No	-6822
To	-6823
aq	-6824
▁U	-6825
▁e	-6826
Aco	-6827
Cat	-6828
Hay	-6829
Yul	-6830
bed	-6831
ibi	-6832
les	-6833
maw	-6834
num	-6835
pix	-6836
suc	-6837
▁Aw	-6838
▁En	-6839
▁Il	-6840
▁Ip	-6841
▁Jo	-6842
▁Mi	-6843
▁Oc	-6844
▁Ti	-6845
▁Wi	-6846
▁Ya	-6847
▁ex	-6848
▁ih	-6849
Anma	-6850
Aymi	-6851
Chah	-6852
Elan	-6853
Jala	-6854
aulo	-6855
cata	-6856
caẍa	-6857
chiy	-6858
elok	-6859
ewej	-6860
hawe	-6861
iber	-6862
inoj	-6863
irra	-6864
itni	-6865
omon	-6866
tzan	-6867
vara	-6868
xilo	-6869
yetc	-6870
▁Aco	-6871
▁Ari	-6872
▁Asi	-6873
▁Gab	-6874
▁Hay	-6875
▁Isb	-6876
▁Isn	-6877
▁Mal	-6878
▁aco	-6879
▁awi	-6880
▁dos	-6881
▁hil	-6882
▁isj	-6883
▁may	-6884
▁pac	-6885
▁pek	-6886
▁san	-6887
▁tax	-6888
▁wij	-6889
▁wil	-6890
▁yaẍ	-6891
▁ẍim	-6892
Canan	-6893
Halwe	-6894
Hanic	-6895
Iwelo	-6896
Miyay	-6897
Pedro	-6898
Walex	-6899
alaam	-6900
altar	-6901
antoj	-6902
aquim	-6903
arena	-6904
balam	-6905
balon	-6906
bulna	-6907
catto	-6908
chieq	-6909
chije	-6910
chuli	-6911
coley	-6912
creta	-6913
culto	-6914
hajan	-6915
hatan	-6916
hatax	-6917
ilnoj	-6918
inayo	-6919
incon	-6920
ismuj	-6921
ispak	-6922
istel	-6923
isxec	-6924
jaben	-6925
legua	-6926
onten	-6927
tojab	-6928
tolab	-6929
walax	-6930
walic	-6931
xacam	-6932
xacan	-6933
yocxa	-6934
yuten	-6935
▁Agar	-6936
▁Anás	-6937
▁Booz	-6938
▁Caná	-6939
▁Caín	-6940
▁Chan	-6941
▁Chew	-6942
▁Chey	-6943
▁Chon	-6944
▁Ebix	-6945
▁Elan	-6946
▁Enoc	-6947
▁Hatz	-6948
▁Ixim	-6949
▁Lida	-6950
▁Obed	-6951
▁Yabe	-6952
▁Yeli	-6953
▁choc	-6954
▁elek	-6955
▁elto	-6956
▁hata	-6957
▁heje	-6958
▁hemi	-6959
▁higo	-6960
▁inch	-6961
▁isla	-6962
▁ixal	-6963
▁ixli	-6964
▁jaco	-6965
▁lasu	-6966
▁mago	-6967
▁nano	-6968
▁taco	-6969
▁tzoc	-6970
▁waco	-6971
▁xaec	-6972
▁xale	-6973
▁xato	-6974
▁yach	-6975
▁yayo	-6976
▁yija	-6977
▁yiti	-6978
▁yiyo	-6979
▁yuln	-6980
▁ẍioj	-6981
Chiwal	-6982
Walach	-6983
ahatil	-6984
ahweco	-6985
babito	-6986
bajxan	-6987
cawina	-6988
chexto	-6989
chexwa	-6990
chibej	-6991
chicaj	-6992
chilok	-6993
chipoh	-6994
chiwik	-6995
cochah	-6996
harina	-6997
hayeni	-6998
hunoxa	-6999
ilaxti	-7000
inchiq	-7001
issaya	-7002
maapni	-7003
macxan	-7004
oxelxa	-7005
quinec	-7006
subuta	-7007
tecano	-7008
walnoc	-7009
yettic	-7010
yilnoj	-7011
yiniti	-7012
▁Babel	-7013
▁César	-7014
▁Derbe	-7015
▁Hemam	-7016
▁Icham	-7017
▁Jasón	-7018
▁Lucas	-7019
▁Matat	-7020
▁Niman	-7021
▁Siloé	-7022
▁Tiber	-7023
▁Tolab	-7024
▁Yalan	-7025
▁ahilo	-7026
▁ayilo	-7027
▁ayxac	-7028
▁bulan	-7029
▁caret	-7030
▁cawil	-7031
▁chato	-7032
▁chawu	-7033
▁chech	-7034
▁chian	-7035
▁chiwi	-7036
▁chiwu	-7037
▁colin	-7038
▁cotak	-7039
▁cuywa	-7040
▁elilo	-7041
▁habeh	-7042
▁hawic	-7043
▁hecon	-7044
▁helom	-7045
▁hesay	-7046
▁heyic	-7047
▁hilan	-7048
▁hucan	-7049
▁inilo	-7050
▁inpuh	-7051
▁intan	-7052
▁intoc	-7053
▁ishik	-7054
▁ishin	-7055
▁ispan	-7056
▁issiq	-7057
▁isten	-7058
▁isyax	-7059
▁jaspe	-7060
▁jelan	-7061
▁libra	-7062
▁mayak	-7063
▁mayal	-7064
▁mirra	-7065
▁munla	-7066
▁nawal	-7067
▁ninoj	-7068
▁palan	-7069
▁reyal	-7070
▁sataj	-7071
▁tolab	-7072
▁tolto	-7073
▁wejla	-7074
▁wojti	-7075
▁xawak	-7076
▁yacoj	-7077
▁yawal	-7078
▁yebil	-7079
▁yeloj	-7080
▁yelto	-7081
▁yetax	-7082
▁ẍiayo	-7083
Catawej	-7084
Mataxca	-7085
bilican	-7086
bilpaxo	-7087
chacano	-7088
challax	-7089
chawabe	-7090
chisyah	-7091
chiyala	-7092
coxolan	-7093
cuartel	-7094
hatzoti	-7095
hawetbi	-7096
hemelyu	-7097
hetxumu	-7098
heyixal	-7099
heyuẍta	-7100
ilaxtoj	-7101
inmelyu	-7102
isbejni	-7103
iscuyno	-7104
isyecan	-7105
matanil	-7106
nayojan	-7107
txahloj	-7108
unlahan	-7109
yanicto	-7110
yechelo	-7111
yespada	-7112
yilweno	-7113
yiximal	-7114
▁Balaam	-7115
▁Chahwe	-7116
▁Cheyak	-7117
▁Faraón	-7118
▁Galión	-7119
▁Hebreo	-7120
▁Isyelo	-7121
▁Italia	-7122
▁Lahwin	-7123
▁Macato	-7124
▁Matzet	-7125
▁Nínive	-7126
▁Xaquex	-7127
▁ahcano	-7128
▁azufre	-7129
▁cambal	-7130
▁chaẍto	-7131
▁chibey	-7132
▁chimak	-7133
▁chinha	-7134
▁chisom	-7135
▁chistx	-7136
▁chiwuc	-7137
▁chiyub	-7138
▁copotx	-7139
▁cuatro	-7140
▁ehobal	-7141
▁haquex	-7142
▁hatohi	-7143
▁hawabe	-7144
▁hayebo	-7145
▁heloni	-7146
▁hepotx	-7147
▁hierro	-7148
▁hitzan	-7149
▁isbina	-7150
▁ishatx	-7151
▁ispajo	-7152
▁ispalc	-7153
▁istila	-7154
▁istitc	-7155
▁jalnoc	-7156
▁lahico	-7157
▁lembil	-7158
▁machmi	-7159
▁matolo	-7160
▁molino	-7161
▁mujlax	-7162
▁sajbat	-7163
▁satnom	-7164
▁topaxo	-7165
▁txihom	-7166
▁uninal	-7167
▁utelax	-7168
▁xacami	-7169
▁xaisje	-7170
▁xajaco	-7171
▁xaquin	-7172
▁yahbal	-7173
▁yahbil	-7174
▁yallen	-7175
▁yanoco	-7176
▁yechto	-7177
▁yeltic	-7178
▁yijban	-7179
▁yuteco	-7180
▁yuẍtan	-7181
ahnipaxo	-7182
aypaxico	-7183
chetxumu	-7184
chimisje	-7185
chiohtan	-7186
chistxon	-7187
colbilon	-7188
hantatic	-7189
haquintu	-7190
hatzotel	-7191
heyenilo	-7192
hunpilan	-7193
iscamilo	-7194
iscantil	-7195
isteyele	-7196
istzejla	-7197
niẍtejal	-7198
palamuch	-7199
priscila	-7200
pujnacan	-7201
trompeta	-7202
tzujanex	-7203
wilnojan	-7204
yanicano	-7205
▁Augusto	-7206
▁Epafras	-7207
▁Gomorra	-7208
▁Gólgota	-7209
▁Hatzoti	-7210
▁Isbajil	-7211
▁Onésimo	-7212
▁Silvano	-7213
▁Tiatira	-7214
▁Tértulo	-7215
▁Yilaxto	-7216
▁Yilnito	-7217
▁Yocpaxo	-7218
▁awecano	-7219
▁belwito	-7220
▁chachah	-7221
▁chahlax	-7222
▁chayelo	-7223
▁chechma	-7224
▁chejbil	-7225
▁chepotx	-7226
▁chesaya	-7227
▁chexcam	-7228
▁chexcan	-7229
▁chexyak	-7230
▁cheyilo	-7231
▁chiayto	-7232
▁chicutx	-7233
▁chijiyo	-7234
▁chinilo	-7235
▁chislin	-7236
▁chissay	-7237
▁chitzab	-7238
▁chitzoc	-7239
▁chiuchc	-7240
▁chiuten	-7241
▁chiwayi	-7242
▁chiyati	-7243
▁chiyila	-7244
▁chiyuhi	-7245
▁cocolni	-7246
▁cohowal	-7247
▁hajloho	-7248
▁hatzoti	-7249
▁hawohta	-7250
▁hawuten	-7251
▁hayijen	-7252
▁hesayni	-7253
▁heyanab	-7254
▁heyecoj	-7255
▁hilanto	-7256
▁hunpaxo	-7257
▁ilchalo	-7258
▁inmaman	-7259
▁inyehan	-7260
▁isbahwa	-7261
▁isbelal	-7262
▁isbihoj	-7263
▁iscamto	-7264
▁iscarta	-7265
▁ispaxti	-7266
▁issatni	-7267
▁istohla	-7268
▁ixnamxa	-7269
▁juẍtaxa	-7270
▁lahanmi	-7271
▁mahalni	-7272
▁mulumon	-7273
▁nachalo	-7274
▁nanpaxo	-7275
▁noventa	-7276
▁numnahi	-7277
▁quetzal	-7278
▁quinhey	-7279
▁seleloj	-7280
▁telajil	-7281
▁titnaco	-7282
▁wahawan	-7283
▁wanaban	-7284
▁winajil	-7285
▁xahanmi	-7286
▁yabilal	-7287
▁yalaxto	-7288
▁yijemal	-7289
▁ẍiaytij	-7290
chibuchwa	-7291
chiillaxi	-7292
chilolaxi	-7293
chioccano	-7294
cohelanil	-7295
hebeybaln	-7296
incartati	-7297
iscayelal	-7298
isjobnayo	-7299
islahnico	-7300
istzujcha	-7301
quinhulan	-7302
winitojan	-7303
yilaxilti	-7304
▁Arimatea	-7305
▁Benjamín	-7306
▁Cablahon	-7307
▁Chalpaxo	-7308
▁Chicawxi	-7309
▁Chiswatx	-7310
▁Jeremías	-7311
▁babelico	-7312
▁cawxojan	-7313
▁chachhul	-7314
▁chaẍtohi	-7315
▁chejniti	-7316
▁chepohle	-7317
▁chextohi	-7318
▁chiayilo	-7319
▁chibelwi	-7320
▁chicajwa	-7321
▁chichonc	-7322
▁chicobej	-7323
▁chijcano	-7324
▁chilpaxo	-7325
▁chintotu	-7326
▁chisatni	-7327
▁chiscach	-7328
▁chishatx	-7329
▁chiwacan	-7330
▁chiyayto	-7331
▁chiyilni	-7332
▁codiosal	-7333
▁colchalo	-7334
▁elcanico	-7335
▁habatxte	-7336
▁haquintu	-7337
▁hatelaxo	-7338
▁hawanayo	-7339
▁hawinilo	-7340
▁hawohtan	-7341
▁hehelbal	-7342
▁helanile	-7343
▁heyamigo	-7344
▁heyuẍtaj	-7345
▁inyenilo	-7346
▁isdiezmo	-7347
▁isnimanc	-7348
▁issubcha	-7349
▁isyijeno	-7350
▁jahnojan	-7351
▁jijlenan	-7352
▁lahanxan	-7353
▁maẍtajex	-7354
▁nabiltic	-7355
▁quexyila	-7356
▁saybilxa	-7357
▁tzabnayo	-7358
▁xachahni	-7359
▁xaischah	-7360
▁xaisyelo	-7361
▁yilwelax	-7362
Hanintonan	-7363
alaxpaxico	-7364
bejbilcano	-7365
chexcolcha	-7366
chietaxtoj	-7367
hecolchahi	-7368
inbeybalan	-7369
islahwilal	-7370
ispujbanic	-7371
nanantaxan	-7372
testigohal	-7373
yanicanico	-7374
▁Bartolomé	-7375
▁Estéfanas	-7376
▁Genesaret	-7377
▁Heyahawil	-7378
▁Iscawilal	-7379
▁Machipaxo	-7380
▁Toholojab	-7381
▁awtebilex	-7382
▁aypaxicto	-7383
▁chabejtzo	-7384
▁chahbilxa	-7385
▁chahnayto	-7386
▁chawabeto	-7387
▁chelahico	-7388
▁chexcuyni	-7389
▁chicoyelo	-7390
▁chihellax	-7391
▁chiinahti	-7392
▁chiiptzen	-7393
▁chinlohan	-7394
▁chinsayan	-7395
▁chitibayo	-7396
▁chitxumni	-7397
▁cochuquil	-7398
▁comunilan	-7399
▁comunilti	-7400
▁coseleloj	-7401
▁hamunlahi	-7402
▁hawinilti	-7403
▁helahnico	-7404
▁heseleloj	-7405
▁heyelapno	-7406
▁heyichico	-7407
▁heyinican	-7408
▁hinanojab	-7409
▁incapilan	-7410
▁isbejtzon	-7411
▁isbeybaln	-7412
▁iscampaxo	-7413
▁iscawxico	-7414
▁ischahlax	-7415
▁ismajchen	-7416
▁ismeẍahil	-7417
▁ispajtzen	-7418
▁ispuhnilo	-7419
▁issabehal	-7420
▁quexchimi	-7421
▁quexcolwa	-7422
▁quinismak	-7423
▁tzujanico	-7424
▁xawabehan	-7425
▁yanipaxto	-7426
▁yapnicano	-7427
▁yuninalon	-7428
anmahilinan	-7429
hachcachann	-7430
inchejtojan	-7431
▁Alejandría	-7432
▁Hanintonan	-7433
▁ancianohal	-7434
▁anmahilach	-7435
▁chalpaxtoj	-7436
▁chebejcano	-7437
▁cheyipaxto	-7438
▁chialaxayo	-7439
▁chicolohan	-7440
▁chihitzico	-7441
▁chinapnitu	-7442
▁chisbejtzo	-7443
▁chischilba	-7444
▁cocolchahi	-7445
▁diáconohal	-7446
▁hecuywawom	-7447
▁incuywahan	-7448
▁incuywoman	-7449
▁inlahnihan	-7450
▁isDiosaloj	-7451
▁islahabico	-7452
▁ismunlabal	-7453
▁isreligión	-7454
▁issajbiloj	-7455
▁istoholaln	-7456
▁somchahoto	-7457
▁toholcanoj	-7458
▁yabelaxilo	-7459
▁yallaxpaxo	-7460
chinanicojan	-7461
chinelicojan	-7462
▁Haquinpaxtu	-7463
▁chicawxican	-7464
▁chijaytojan	-7465
▁chimeltzoco	-7466
▁chinheyilan	-7467
▁chinnatijan	-7468
▁chinyelojan	-7469
▁chiwilnihan	-7470
▁intxumnihan	-7471
▁iscawxenico	-7472
▁iscolwapaxo	-7473
▁islahobalxa	-7474
▁machojabtaj	-7475
▁yinipaxocan	-7476
▁yiptzencano	-7477
Chiwalpaxojan	-7478
chihallaxpaxo	-7479
chintxahlihan	-7480
quinyanicojan	-7481
xaitzitzbican	-7482
▁Iscutxbanico	-7483
▁Wohtapaxojan	-7484
▁chexchahlaxi	-7485
▁chicobeybaln	-7486
▁chicoyijehan	-7487
▁chijechmahan	-7488
▁chinpaxtojan	-7489
▁chitzalacano	-7490
▁cuybanilehal	-7491
▁hechahnicano	-7492
▁hulnajojinan	-7493
▁ischahnipaxo	-7494
▁ismeltzopaxo	-7495
▁ispujnacanto	-7496
▁istzablaxayo	-7497
▁istzotelpaxo	-7498
▁isyenipaxilo	-7499
▁machojabpaxo	-7500
▁quinanitijan	-7501
▁quinelicojan	-7502
▁tzalacanocan	-7503
▁walnipaxojan	-7504
▁Chiwalpaxojan	-7505
▁chinbejtzohan	-7506
▁istzumbenilti	-7507
▁quinyinitojan	-7508
▁chejbilintijan	-7509
▁chinalaxicojan	-7510
▁quexwohtajojan	-7511
▁chiwalnicanojan	-7512
▁ischejlaxtopaxo	-7513
jo	-7514
su	-7515
ejn	-7516
ica	-7517
ija	-7518
ili	-7519
jos	-7520
mer	-7521
pac	-7522
pak	-7523
res	-7524
rod	-7525
wil	-7526
woc	-7527
wuc	-7528
wul	-7529
yaẍ	-7530
▁,’	-7531
arpa	-7532
cabe	-7533
chib	-7534
chub	-7535
elek	-7536
elmi	-7537
enoc	-7538
etli	-7539
jaco	-7540
jeco	-7541
juez	-7542
mael	-7543
nawe	-7544
oqui	-7545
sajb	-7546
sate	-7547
sión	-7548
txih	-7549
xato	-7550
yach	-7551
yatu	-7552
yiti	-7553
canti	-7554
cayel	-7555
chiuc	-7556
ehach	-7557
elilo	-7558
hawik	-7559
hebej	-7560
heyuc	-7561
hoyno	-7562
ilbil	-7563
inlah	-7564
isyeb	-7565
isyox	-7566
jalan	-7567
jilan	-7568
oxebo	-7569
titan	-7570
tzebo	-7571
ahcano	-7572
anmaho	-7573
aweyto	-7574
chejti	-7575
chepoh	-7576
chicoc	-7577
chinak	-7578
chinoc	-7579
cirene	-7580
enaloj	-7581
hawabe	-7582
hayebo	-7583
heyaco	-7584
iconio	-7585
iscutz	-7586
isloni	-7587
listra	-7588
matolo	-7589
patzab	-7590
wanico	-7591
wohtan	-7592
yalnoc	-7593
yaniti	-7594
yuteco	-7595
alcanoj	-7596
ayictoj	-7597
binahoj	-7598
camomxa	-7599
cawilxa	-7600
cawxeco	-7601
cawxico	-7602
chiixli	-7603
chishel	-7604
chisman	-7605
cientos	-7606
cilicia	-7607
cocolwa	-7608
galacia	-7609
hamataj	-7610
hamelyu	-7611
hawoche	-7612
hecolwa	-7613
helanex	-7614
hucbaco	-7615
hunujon	-7616
ilchati	-7617
intitan	-7618
ismujli	-7619
issucal	-7620
isyahni	-7621
itzitzn	-7622
jetbiho	-7623
lahanon	-7624
nawetij	-7625
ochento	-7626
pahnito	-7627
panteón	-7628
telajil	-7629
tesataj	-7630
tzehtaj	-7631
wanmati	-7632
yijemex	-7633
yilaxti	-7634
ẍicanoj	-7635
belwican	-7636
betsaida	-7637
chawalic	-7638
chawayto	-7639
chianayo	-7640
chiixtan	-7641
chijilan	-7642
chimujli	-7643
chistxum	-7644
chiwalni	-7645
cuywahan	-7646
diosalan	-7647
hawanico	-7648
hawuẍtaj	-7649
hecolwal	-7650
heyabeni	-7651
ilaxayoj	-7652
iscachwa	-7653
ischahno	-7654
ismajilo	-7655
isnahuln	-7656
mantiado	-7657
maxawaco	-7658
natanael	-7659
sajsatil	-7660
wapnihan	-7661
yabenilo	-7662
yalaxcan	-7663
chejbilti	-7664
chepuhilo	-7665
chextzala	-7666
chijanico	-7667
chitocano	-7668
chitzejla	-7669
chiwahlax	-7670
chucanico	-7671
cincuenta	-7672
cosunilan	-7673
cristohal	-7674
hechuquil	-7675
hetxiquin	-7676
hetzoteli	-7677
istzabayo	-7678
jichmaman	-7679
maẍtajach	-7680
ujnayojan	-7681
wahawilan	-7682
wejchacan	-7683
xaheyayto	-7684
xatzujcha	-7685
yalaxicto	-7686
checutxban	-7687
chichiwaco	-7688
chinchahan	-7689
chiwilojan	-7690
cobeybalan	-7691
iscawxobal	-7692
iscutxbaco	-7693
ispichnico	-7694
isxumaquil	-7695
johtajojan	-7696
machijinan	-7697
pohlebahil	-7698
cheyalpaxoj	-7699
chijalnihan	-7700
chinnatijan	-7701
chinyelojan	-7702
chinyijehan	-7703
chisbeybaln	-7704
halbilcanoj	-7705
meltzopaxto	-7706
txumnilojan	-7707
chinmunlahan	-7708
iscutxbanayo	-7709
veinticuatro	-7710
quinhawohtajojan	-7711
Ab	-7712
Tx	-7713
Ya	-7714
uf	-7715
ña	-7716
▁r	-7717
Haj	-7718
Huj	-7719
Mar	-7720
Yak	-7721
aca	-7722
aje	-7723
amo	-7724
aye	-7725
baw	-7726
bic	-7727
ebn	-7728
goh	-7729
hto	-7730
ilc	-7731
lon	-7732
lot	-7733
meẍ	-7734
moc	-7735
muh	-7736
nal	-7737
noy	-7738
olk	-7739
omc	-7740
owe	-7741
owi	-7742
raz	-7743
rif	-7744
sun	-7745
tem	-7746
tin	-7747
tub	-7748
ufo	-7749
uẍa	-7750
wis	-7751
wun	-7752
xak	-7753
yti	-7754
álo	-7755
áta	-7756
érg	-7757
íta	-7758
▁Ad	-7759
▁De	-7760
▁Je	-7761
▁cr	-7762
▁eb	-7763
▁li	-7764
▁us	-7765
Chej	-7766
Nann	-7767
abto	-7768
afat	-7769
ahwo	-7770
ajba	-7771
ajbi	-7772
alba	-7773
alda	-7774
anás	-7775
ardo	-7776
asan	-7777
astu	-7778
awil	-7779
ayak	-7780
ayej	-7781
aíta	-7782
bani	-7783
beta	-7784
bico	-7785
coch	-7786
coln	-7787
crea	-7788
delf	-7789
dián	-7790
eayo	-7791
ebla	-7792
efas	-7793
ehex	-7794
ehno	-7795
epaf	-7796
epla	-7797
epta	-7798
eten	-7799
osa	-7800
pas	-7801
▁.”	-7802
Cach	-7803
Haca	-7804
asay	-7805
ejxa	-7806
etio	-7807
eyal	-7808
gles	-7809
hata	-7810
holo	-7811
ibom	-7812
ibte	-7813
icen	-7814
icti	-7815
ihti	-7816
ilah	-7817
imen	-7818
imno	-7819
intx	-7820
ispo	-7821
ixic	-7822
lama	-7823
leti	-7824
lico	-7825
lino	-7826
malo	-7827
maná	-7828
moyo	-7829
muji	-7830
nanc	-7831
nina	-7832
noco	-7833
obil	-7834
obom	-7835
obon	-7836
ocom	-7837
olti	-7838
onia	-7839
onte	-7840
oram	-7841
rado	-7842
rcha	-7843
riel	-7844
tani	-7845
telo	-7846
tolo	-7847
tzic	-7848
ucio	-7849
ulio	-7850
usni	-7851
utel	-7852
uxwe	-7853
uyan	-7854
uybe	-7855
uyna	-7856
weno	-7857
xain	-7858
xiti	-7859
xolo	-7860
yaxn	-7861
ẍtan	-7862
▁Abi	-7863
▁Aca	-7864
▁Are	-7865
▁Ayn	-7866
▁Dem	-7867
▁Eva	-7868
▁Jal	-7869
▁Man	-7870
▁Mel	-7871
▁Mil	-7872
▁Rod	-7873
▁Tij	-7874
▁Waj	-7875
▁Yay	-7876
▁Zab	-7877
▁Zor	-7878
▁ani	-7879
▁caẍ	-7880
▁ewi	-7881
▁hep	-7882
▁isa	-7883
▁itz	-7884
▁lak	-7885
▁lev	-7886
▁lut	-7887
▁pak	-7888
▁pat	-7889
▁tuc	-7890
▁wab	-7891
▁wun	-7892
▁wut	-7893
▁yab	-7894
Asiwe	-7895
Hanta	-7896
Hayeb	-7897
Hujeb	-7898
Maẍto	-7899
Eb	-7900
deo	-7901
leo	-7902
mij	-7903
uda	-7904
xon	-7905
cabo	-7906
comi	-7907
huli	-7908
ibli	-7909
tami	-7910
ubli	-7911
xewi	-7912
▁Her	-7913
▁hop	-7914
Ebnaj	-7915
Paxan	-7916
Saulo	-7917
▁	-7918
a	-7919
¦	-7920
n	-7921
i	-7922
t	-7923
c	-7924
e	-7925
o	-7926
h	-7927
y	-7928
l	-7929
ˈ	-7930
m	-7931
u	-7932
j	-7933
s	-7934
b	-7935
x	-7936
̈	-7937
w	-7938
,	-7939
𐋇	-7940
.	-7941
k	-7942
C	-7943
z	-7944
p	-7945
r	-7946
ẍ	-7947
d	-7948
Y	-7949
H	-7950
:	-7951
D	-7952
J	-7953
―	-7954
I	-7955
M	-7956
q	-7957
ú	-7958
W	-7959
?	-7960
¿	-7961
T	-7962
A	-7963
í	-7964
g	-7965
é	-7966
P	-7967
S	-7968
“	-7969
”	-7970
L	-7971
á	-7972
;	-7973
E	-7974
ó	-7975
f	-7976
v	-7977
!	-7978
¡	-7979
‐	-7980
N	-7981
B	-7982
G	-7983
K	-7984
F	-7985
R	-7986
X	-7987
O	-7988
Z	-7989
‘	-7990
’	-7991
(	-7992
)	-7993
Q	-7994
U	-7995
ñ	-7996
