<pad>	0
</s>	0
<unk>	0
.	-3.26586
,	-3.84157
▁	-4.01697
▁आहे	-4.34151
▁आणि	-4.5172
ा	-4.56987
च्या	-4.58456
ी	-4.61452
े	-4.73244
त	-4.74671
चा	-5.02944
ची	-5.03842
▁या	-5.12765
ला	-5.16687
ं	-5.23459
क	-5.31635
न	-5.34733
चे	-5.3579
ही	-5.36669
च	-5.40141
मध्ये	-5.40314
-	-5.47478
स	-5.52936
▁कोरोना	-5.5294
▁आहेत	-5.53188
र	-5.53591
ल	-5.54268
ने	-5.62002
ील	-5.67757
म	-5.70314
▁नाही	-5.75666
य	-5.76627
व	-5.79006
प	-5.79511
ात	-5.80791
▁हे	-5.85843
वर	-5.85933
्या	-5.91568
)	-5.96953
▁लस	-5.97622
साठी	-5.99686
▁ते	-6.00034
ो	-6.02175
▁(	-6.03979
ून	-6.04262
ू	-6.0555
▁किंवा	-6.06877
▁अ	-6.08624
ित	-6.09618
▁काही	-6.11991
▁तर	-6.12859
?	-6.15312
ड	-6.15367
▁आरोग्य	-6.15411
▁"	-6.15786
▁यांनी	-6.16158
▁एक	-6.18313
▁करण्यात	-6.19786
▁की	-6.22499
चं	-6.23256
ट	-6.23472
ली	-6.24207
ले	-6.25126
▁व	-6.26196
ल्या	-6.27443
▁कमी	-6.27921
्	-6.31051
▁असं	-6.31457
-19	-6.32144
▁केली	-6.32807
शी	-6.33588
ण	-6.34269
ु	-6.37776
▁न	-6.38012
▁पण	-6.38087
▁हा	-6.38148
▁ही	-6.38844
िक	-6.40252
ब	-6.41809
ज	-6.42581
ना	-6.44374
मुळे	-6.45593
▁ज्या	-6.47796
▁विषाणू	-6.4785
ाच्या	-6.48362
▁त्या	-6.49416
▁सर्व	-6.50208
▁होते	-6.539
▁संसर्ग	-6.55462
्स	-6.55521
▁स	-6.56274
द	-6.5636
▁क	-6.56477
ि	-6.56681
्र	-6.56937
्य	-6.57402
'	-6.58307
▁का	-6.59402
▁करोना	-6.60152
▁कोव्हिड	-6.62546
▁सुरू	-6.62602
▁वापर	-6.63518
ता	-6.63826
▁डॉ	-6.63909
▁रुग्ण	-6.66261
▁माहिती	-6.66815
▁केले	-6.67972
▁काम	-6.68681
▁इतर	-6.69325
▁जास्त	-6.70286
ग	-6.70642
▁आले	-6.70969
▁अनेक	-6.7254
▁आली	-6.73673
ळ	-6.74938
श	-6.75823
▁लसीकरण	-6.76186
▁बंद	-6.77288
▁करत	-6.77359
▁असलेल्या	-6.77416
▁केला	-6.775
▁'	-6.77672
▁होती	-6.77914
▁केंद्र	-6.78138
वा	-6.79388
▁करण्यासाठी	-6.80742
▁राज्य	-6.81603
पासून	-6.82222
फ	-6.82263
लं	-6.84205
▁हात	-6.85422
▁ब	-6.86542
▁प्र	-6.87325
▁ऑक्सिजन	-6.89343
▁होत	-6.89707
▁झाली	-6.90005
▁होता	-6.90446
▁चाचणी	-6.91145
ांनी	-6.91313
ाचा	-6.91356
ॅ	-6.91729
▁एका	-6.91931
ध	-6.92703
▁करण्या	-6.93177
ांना	-6.93224
▁राज्यात	-6.93307
▁दोन	-6.95166
▁झाला	-6.96192
ाला	-6.96847
▁असे	-6.97214
▁मृत्यू	-6.97562
▁लशी	-6.981
▁अधिक	-6.99262
▁म्हणून	-6.9958
ाची	-6.99989
▁लॉकडाऊन	-7.00061
र्	-7.00205
ह	-7.00352
▁आ	-7.00357
ावर	-7.01058
पर्यंत	-7.01275
▁COVID	-7.01859
▁काय	-7.01996
▁असेल	-7.02105
ंना	-7.02811
▁झालेल्या	-7.03187
▁अशा	-7.03581
ाने	-7.03723
▁संख्या	-7.05277
▁सरकार	-7.05625
▁त्यांच्या	-7.0598
▁करून	-7.0649
ई	-7.06567
▁तयार	-7.06966
▁औषध	-7.07029
▁दिली	-7.07351
▁उपचार	-7.08718
▁च्या	-7.08816
▁आता	-7.09036
▁देण्यात	-7.11282
री	-7.11824
▁परिणाम	-7.123
▁येत	-7.12682
2	-7.12902
▁त्यांना	-7.12968
▁व्हायरस	-7.13037
▁म	-7.13209
ाय	-7.1331
पेक्षा	-7.14322
▁आजार	-7.15958
▁प	-7.1596
▁मात्र	-7.16308
नी	-7.16736
▁म्हणाले	-7.16783
▁त्यामुळे	-7.18633
▁उपलब्ध	-7.18954
:	-7.19124
▁यांच्या	-7.19312
▁गेल्या	-7.19361
▁ग	-7.19529
▁टक्के	-7.1988
▁करणे	-7.20147
तील	-7.20304
मधील	-7.21345
▁अशी	-7.21486
▁आम्ही	-7.2156
कडे	-7.22605
नंतर	-7.22805
▁एप्रिल	-7.22806
▁त्यांनी	-7.23154
ख	-7.23811
▁जे	-7.23945
▁आला	-7.24017
ंग	-7.24676
▁ज	-7.25142
▁श	-7.25244
▁2020	-7.25547
▁असून	-7.25605
▁जात	-7.26449
▁मोठ्या	-7.26732
व्ह	-7.27074
कडून	-7.27551
▁केलं	-7.27788
▁शकतो	-7.27867
▁असल्याचं	-7.28065
1	-7.28785
▁होतं	-7.28852
▁असा	-7.2893
▁झाले	-7.28965
▁हजार	-7.29551
▁कारण	-7.29593
▁परिस्थिती	-7.29972
▁सांगतात	-7.30157
▁महाराष्ट्रात	-7.30576
▁ह्या	-7.30717
▁लाख	-7.30732
िन	-7.3105
▁भारतात	-7.31211
▁:	-7.31219
ासाठी	-7.31279
▁द	-7.31389
ांच्या	-7.31652
▁शाळा	-7.3184
रा	-7.31982
▁गरज	-7.32427
▁सध्या	-7.32847
."	-7.33012
ातील	-7.33118
ते	-7.33283
▁मार्च	-7.34472
▁निर्णय	-7.34534
▁सरकारने	-7.34719
▁शकतात	-7.34755
▁होऊ	-7.34976
▁डोस	-7.35108
▁प्रमाण	-7.35379
ाचे	-7.35689
स्त	-7.36019
का	-7.3633
▁वैद्यकीय	-7.36371
▁सा	-7.36377
▁येईल	-7.36391
▁म्हणजे	-7.36538
ंड	-7.36666
थ	-7.37904
िंग	-7.37958
▁उ	-7.3803
▁सांगितलं	-7.38243
▁होतो	-7.38317
5	-7.38469
▁-	-7.39223
▁देशात	-7.39377
अ	-7.39649
▁कोविड	-7.40284
▁लोकांना	-7.40338
▁वा	-7.40435
▁प्रसार	-7.40474
▁ह	-7.40628
▁केल्या	-7.41118
ांत	-7.41311
▁लोक	-7.42038
▁गंभीर	-7.42147
▁नवीन	-7.42166
▁बदल	-7.43065
4	-7.44082
▁म्हटलं	-7.44791
▁वि	-7.4503
▁दुसऱ्या	-7.45087
▁प्रकार	-7.45343
▁होणार	-7.46105
झ	-7.46238
ेश	-7.46276
▁तरी	-7.46681
%	-7.46873
8	-7.46968
▁मध्ये	-7.4818
या	-7.48209
▁मास्क	-7.48287
▁जर	-7.4855
"	-7.48759
▁करू	-7.49457
बाबत	-7.49516
▁शकते	-7.49587
▁दिले	-7.50498
▁फ	-7.51022
▁रुग्णालयात	-7.5111
णे	-7.51237
▁व्यक्ती	-7.51288
6	-7.51965
7	-7.52613
▁तो	-7.52977
स्	-7.53163
भ	-7.53398
▁लक्ष	-7.53457
▁दिवस	-7.54156
सा	-7.54526
▁आपल्या	-7.54864
नं	-7.55008
▁समावेश	-7.55029
▁ला	-7.55328
▁नाहीत	-7.55363
ांची	-7.55845
▁वाढ	-7.56255
▁मुंबई	-7.5648
टी	-7.56593
▁आलं	-7.56759
▁र	-7.56824
▁आज	-7.57281
▁संसर्गा	-7.57458
▁शक्यता	-7.57719
२	-7.58
3	-7.58661
▁आपण	-7.58846
ष	-7.59159
▁आलेल्या	-7.5933
▁प्रवास	-7.59376
ांमध्ये	-7.59393
▁जाहीर	-7.59579
▁चीन	-7.59825
;	-7.59969
CoV	-7.60363
निर्माण	-7.60372
ार	-7.60383
0	-7.60519
▁करा	-7.60557
▁त	-7.60942
ण्यासाठी	-7.61242
ास	-7.61471
▁जागतिक	-7.61547
▁निर्बंध	-7.61548
▁5	-7.61707
▁होण्या	-7.61715
▁ने	-7.61738
▁मे	-7.62105
▁सं	-7.62153
▁परवानगी	-7.62747
▁वाढत	-7.62857
▁इ	-7.63159
▁म्हणतात	-7.63221
▁विचार	-7.63558
▁असते	-7.63593
▁काळात	-7.64123
▁येणार	-7.6437
▁पुढे	-7.64458
▁केलेल्या	-7.64473
▁स्थिती	-7.64787
▁मदत	-7.64952
ण्यात	-7.65005
▁चाचण्या	-7.65021
ेल	-7.65047
▁दर	-7.65052
▁प्रमाणात	-7.65149
▁तुम्हाला	-7.65191
▁जाऊ	-7.65229
▁ठाकरे	-7.65567
▁लागू	-7.65607
▁करण्याची	-7.65714
ीन	-7.65901
से	-7.65968
▁लक्षणे	-7.66285
▁3	-7.66575
▁4	-7.66934
▁आवश्यक	-7.67369
▁भारत	-7.67899
▁बोलताना	-7.68131
▁दिसून	-7.6823
वरील	-7.68981
▁प्रयत्न	-7.69402
ेट	-7.69894
▁भाग	-7.69935
डी	-7.70036
9	-7.70143
▁10	-7.70275
▁सु	-7.70445
▁रोजी	-7.70509
▁दाखल	-7.70701
▁2	-7.70789
▁जाते	-7.70796
ंच्या	-7.70879
▁ए	-7.70987
इ	-7.71283
▁जाईल	-7.71576
पणे	-7.71664
▁आजारा	-7.72235
ांवर	-7.7234
ै	-7.73276
▁करणाऱ्या	-7.73351
▁SARS	-7.7351
▁कोणत्या	-7.73799
सीओव्ही	-7.74251
▁ट	-7.74322
ती	-7.74479
▁रुग्णांची	-7.74543
▁दिसत	-7.74648
▁मागणी	-7.74724
णं	-7.74739
▁पा	-7.74862
▁शिक्षण	-7.74915
▁अभ्यास	-7.75164
द्वारे	-7.7564
ामध्ये	-7.75962
/	-7.76071
a	-7.76178
e	-7.76594
णार	-7.7661
ठ	-7.76764
स्ट	-7.76936
ेंद्र	-7.77317
१	-7.775
▁असताना	-7.77977
▁योग्य	-7.781
▁देखील	-7.78335
▁1	-7.78841
▁काळजी	-7.78888
लेल्या	-7.78931
▁ख	-7.79029
न्स	-7.7934
सह	-7.7943
▁नोंद	-7.79596
▁ती	-7.79712
वी	-7.79734
▁पुरवठा	-7.79823
▁भागात	-7.80279
R	-7.80297
▁मी	-7.80354
ए	-7.80367
▁मुख्यमंत्री	-7.80788
ांचा	-7.80813
▁तीन	-7.80904
▁पुन्हा	-7.81261
▁सेवा	-7.81277
▁उत्पादन	-7.81422
▁राज	-7.81857
दा	-7.82292
कार	-7.82399
वि	-7.82627
▁उद्धव	-7.82725
▁आल्या	-7.82966
▁यांना	-7.83105
00	-7.83473
ीय	-7.83538
▁तेव्हा	-7.83866
▁महाराष्ट्र	-7.84122
▁बीबीसी	-7.8421
▁पड	-7.84331
▁देश	-7.84797
▁पूर्ण	-7.85154
▁कोटी	-7.85193
▁लसी	-7.85236
▁पहिल्या	-7.8524
▁कोरोनाची	-7.85341
ंचा	-7.85407
कर	-7.85414
▁बाहेर	-7.85434
सोबत	-7.85465
िल	-7.85955
नुसार	-7.86076
▁6	-7.86158
▁प्रश्न	-7.86172
▁पंतप्रधान	-7.86225
▁परीक्षा	-7.86227
▁असू	-7.86415
ंमध्ये	-7.86566
▁संबंधित	-7.87005
प्र	-7.87337
▁झाल्या	-7.87416
▁संपर्क	-7.87441
o	-7.88084
▁याचा	-7.88106
▁किती	-7.88324
▁सार्स	-7.88339
ीत	-7.88446
्व	-7.88717
▁भर	-7.88721
▁देण्या	-7.88726
तून	-7.88764
▁विकसित	-7.88823
▁प्रत्येक	-7.88893
मधून	-7.89092
▁20	-7.89464
णाऱ्या	-7.898
बद्दल	-7.90063
▁7	-7.90155
िया	-7.90341
▁जानेवारी	-7.90913
▁तुम्ही	-7.90913
▁नये	-7.90927
त्र	-7.91031
ंनी	-7.91245
▁उत्तर	-7.91448
▁डेटा	-7.91999
▁ऑफ	-7.92025
▁ठिकाणी	-7.92249
▁रुग्णांना	-7.92331
▁धोका	-7.92521
▁सार्वजनिक	-7.92526
▁सो	-7.92603
-2	-7.92708
▁लागण	-7.9284
टे	-7.92897
▁करता	-7.93026
ंची	-7.93331
▁महिन्यात	-7.9347
▁साथी	-7.93652
▁डॉक्टर	-7.93762
▁दिला	-7.94286
▁चा	-7.945
ंत	-7.9485
ंद	-7.94935
▁आढळून	-7.95274
▁शहरात	-7.95462
णी	-7.95482
▁करतात	-7.95599
▁प्रतिबंध	-7.96399
▁स्ट	-7.96504
ंट	-7.96514
▁वेळ	-7.97079
▁8	-7.9715
▁को	-7.97322
▁स्पष्ट	-7.97501
▁पाहिजे	-7.97527
▁होईल	-7.97527
▁सूचना	-7.97764
लो	-7.9799
▁लहान	-7.98107
जी	-7.98263
▁लक्षणं	-7.98337
घ	-7.98428
▁याबाबत	-7.98496
▁देत	-7.98657
▁संपूर्ण	-7.98692
ढ	-7.98994
▁लोकां	-7.99118
▁टेस्ट	-7.99189
▁चर्चा	-7.99376
५	-7.99767
▁विविध	-7.99833
▁तसंच	-7.99901
०	-8.00283
वे	-8.00456
▁झालं	-8.00472
पा	-8.00794
▁गेले	-8.00828
▁असतात	-8.00962
▁पॉझिटिव्ह	-8.01006
▁ठर	-8.01484
C	-8.01553
▁असतो	-8.01622
▁मोदी	-8.01969
s	-8.02121
▁अंदाज	-8.02193
▁आहोत	-8.02193
▁जगभरात	-8.02193
▁बस	-8.02349
▁ध	-8.02543
▁करण्यास	-8.02632
▁नियंत्रण	-8.03084
▁19	-8.03275
▁उच्च	-8.03417
r	-8.03438
▁जाण	-8.03579
नि	-8.03654
पैकी	-8.03981
▁भ	-8.04174
ातून	-8.04208
▁येऊ	-8.0461
पर	-8.04709
▁कंपनी	-8.04854
▁शोध	-8.04879
▁नि	-8.05003
i	-8.05631
▁आढळले	-8.05841
र्स	-8.05895
▁काढ	-8.06157
ेस	-8.07186
▁साध	-8.07218
ांसाठी	-8.07827
▁ओ	-8.08021
▁करणार	-8.08105
▁घेतला	-8.08142
▁ना	-8.08286
ऱ्या	-8.08353
▁केसेस	-8.0836
c	-8.08561
▁जिल्ह्यात	-8.08632
▁कालावधी	-8.08986
▁मला	-8.09299
ुर	-8.10175
▁ठेवण्या	-8.10668
▁वाढव	-8.10704
▁वर्षा	-8.10806
रे	-8.10877
▁एकूण	-8.10924
सी	-8.10995
मान	-8.11227
▁तुमच्या	-8.11779
तो	-8.11847
▁त्यानंतर	-8.11942
▁मिळत	-8.12384
ायला	-8.12532
▁असल्याच	-8.12635
▁खूप	-8.12896
▁दरम्यान	-8.12934
▁पर्यंत	-8.13057
▁जाणार	-8.13093
▁प्रभावी	-8.13252
▁त्यात	-8.1347
▁अंतर	-8.13564
▁फक्त	-8.13595
▁असल्याने	-8.13776
▁लाटे	-8.13801
त्त	-8.14217
▁धुण्या	-8.14239
▁कार्यक्रम	-8.1424
३	-8.14408
▁पोहोच	-8.14886
सं	-8.14929
▁बेड्स	-8.15013
▁केंद्रीय	-8.15078
ेवळ	-8.15316
▁50	-8.15455
तात	-8.15459
▁सरकारी	-8.15806
▁याची	-8.15888
n	-8.15999
▁त्रास	-8.16275
के	-8.16473
▁सेंटर	-8.1658
▁घरी	-8.16678
▁आदेश	-8.16963
▁“	-8.16983
▁परत	-8.17427
I	-8.1743
▁प्रतिसाद	-8.17658
▁जेव्हा	-8.17719
▁होत्या	-8.17948
ताना	-8.17974
▁पाच	-8.1798
प्रमाणे	-8.18082
▁9	-8.18336
▁संशोधन	-8.18357
▁तसेच	-8.18357
▁यासाठी	-8.18793
▁खासगी	-8.19061
▁रुग्णसंख्या	-8.19062
हून	-8.19078
▁जातो	-8.19239
४	-8.19324
▁रोग	-8.19547
▁ल	-8.1973
▁गर्दी	-8.1977
▁सांगितले	-8.1977
▁असतील	-8.19839
▁चार	-8.20269
▁त्याच्या	-8.20668
▁स्व	-8.207
▁विशेष	-8.20804
T	-8.20862
ेशन	-8.21248
t	-8.21701
▁येथ	-8.21774
▁येणाऱ्या	-8.21929
८	-8.22307
▁व्यक्त	-8.22336
▁ति	-8.22409
▁जो	-8.22688
▁२	-8.22831
▁घेऊन	-8.22921
दार	-8.23231
▁तीव्र	-8.23251
▁शिफारस	-8.23394
▁च	-8.23761
िट	-8.23772
▁विभागा	-8.24025
▁कर्मचारी	-8.24135
▁अजून	-8.24138
▁शरीरात	-8.24837
व्या	-8.24847
▁लागेल	-8.24881
▁रात्री	-8.24885
▁दोन्ही	-8.24885
▁दु	-8.25191
शा	-8.2524
▁वर्षां	-8.25427
▁दिल्ली	-8.25453
▁लशीच्या	-8.25508
भर	-8.25584
▁डि	-8.25609
▁ताप	-8.25653
▁प्रमुख	-8.2566
आ	-8.25693
▁माग	-8.25764
▁सुरुवात	-8.26161
▁वाट	-8.26192
▁शक्य	-8.26251
▁मुंबईत	-8.26705
ण्याची	-8.26864
▁प्रवेश	-8.27155
▁रूग्ण	-8.27215
ीकरण	-8.27219
▁करताना	-8.27396
▁अधिकारी	-8.27514
दर	-8.2752
A	-8.2766
डा	-8.28168
ंचे	-8.2817
मी	-8.28236
ांचे	-8.28294
’	-8.28698
रि	-8.28721
ावी	-8.28913
▁जीव	-8.28915
टा	-8.2922
▁ग्रामीण	-8.29479
▁जी	-8.29537
▁घेतली	-8.29662
▁हॉस्पिटल	-8.29665
▁नाव	-8.29695
▁14	-8.29717
▁वेगान	-8.29731
ामुळे	-8.30008
▁त्याचा	-8.30113
िय	-8.30201
▁मुलां	-8.30382
▁आर्थिक	-8.30419
▁रि	-8.30491
ग्र	-8.3058
हा	-8.30653
िस	-8.30994
E	-8.31044
▁आणखी	-8.3106
▁‘	-8.31061
▁होणाऱ्या	-8.31061
▁प्रति	-8.31082
▁स्थानिक	-8.31115
▁करावी	-8.31148
▁तास	-8.31164
▁कि	-8.31269
▁नव्या	-8.31407
▁आमच्या	-8.31445
▁संस्था	-8.32149
▁विद्यार्थ्यां	-8.32795
▁होण्याची	-8.33193
h	-8.3348
▁टोपे	-8.33481
▁गेली	-8.33487
▁फेब्रुवारी	-8.33717
▁जिल्हा	-8.33787
▁चाचण्यां	-8.33819
िम	-8.34004
▁उपाय	-8.34004
गा	-8.34008
▁आपल	-8.34014
एस	-8.34131
S	-8.34147
▁पाठव	-8.34279
सारख्या	-8.34285
▁पर्याय	-8.34301
▁पुणे	-8.34328
▁असणाऱ्या	-8.34339
▁घर	-8.34374
▁बरे	-8.34449
▁मुख्य	-8.34622
▁आधी	-8.34727
ंवर	-8.34946
▁रुग्णालय	-8.35048
▁अहवाल	-8.35106
▁फार	-8.35321
▁माहितीनुसार	-8.35335
▁यु	-8.3539
ळी	-8.35623
▁लाट	-8.35731
▁घेण्यात	-8.35963
▁शकत	-8.35974
्म	-8.36035
▁राष्ट्रीय	-8.36044
▁अस	-8.36137
▁पसर	-8.36371
▁15	-8.36724
▁नागपूर	-8.368
▁परंतु	-8.368
▁घोषणा	-8.36803
▁क्षेत्रात	-8.36803
▁अन्य	-8.36807
▁प्रदेश	-8.36887
▁लशीं	-8.36973
▁प्रमाणावर	-8.37084
६	-8.37311
िश	-8.37536
▁लॉकडाउन	-8.37733
▁12	-8.37791
▁सहा	-8.38009
▁30	-8.38117
▁नंतर	-8.3817
▁वर्ष	-8.38238
▁अर्थ	-8.38259
▁एचसीओव्ही	-8.38502
▁करणं	-8.38511
▁सर्वाधिक	-8.38564
▁सह	-8.38667
▁घेण्या	-8.38728
▁घेत	-8.38826
व्हा	-8.39023
▁चाल	-8.39213
ात्मक	-8.39593
▁ऑक्सिजनची	-8.39713
▁खा	-8.39726
▁पूर्व	-8.39781
ुक	-8.39812
दरम्यान	-8.40181
▁कधी	-8.4024
▁येथे	-8.40419
▁आतापर्यंत	-8.40571
९	-8.40697
▁यामुळे	-8.40912
▁भारता	-8.4106
▁सामान्य	-8.41066
वरून	-8.41108
▁पेक्षा	-8.41296
्ट	-8.41415
▁करतो	-8.41477
▁उद्रेका	-8.41524
▁गोष्टी	-8.41665
▁ओळख	-8.41715
▁कार्य	-8.41787
ेन	-8.41852
▁सम	-8.41855
▁जातं	-8.4192
▁दाखव	-8.41996
को	-8.4203
▁सुरु	-8.42047
▁चे	-8.42336
र्ट	-8.42423
▁श्वसन	-8.42517
▁पत्र	-8.42723
▁भीती	-8.4289
▁युके	-8.42923
▁प्रक्रिया	-8.42934
▁काळ	-8.42963
▁त्यांची	-8.43167
▁संप	-8.43309
र्ड	-8.43325
▁डॉक्टरां	-8.43887
▁नियम	-8.43937
ोट	-8.43945
▁महिन्या	-8.44096
▁महा	-8.44243
▁जाण्या	-8.4463
!	-8.44699
▁राज्या	-8.44737
▁झाल्यानंतर	-8.44842
▁दिस	-8.44923
▁घट	-8.45026
▁ऑ	-8.4505
स्थ	-8.45119
तः	-8.45476
▁४	-8.45538
जा	-8.45611
▁स्पर्श	-8.45616
▁इन्स्टिट्यूट	-8.45616
P	-8.45643
▁मते	-8.45693
बल	-8.45831
▁मा	-8.45858
▁त्याची	-8.46287
▁पुण्यात	-8.46307
▁आकडेवारी	-8.46503
▁पुष्टी	-8.46543
▁नर	-8.46873
▁विलगीकरण	-8.469
▁नागरिकां	-8.46979
▁पर	-8.47042
▁निर्मिती	-8.47081
▁कु	-8.47169
▁आमच	-8.47204
▁तपासणी	-8.47502
▁महत्त्वाच	-8.4756
▁बेड	-8.47576
▁आपल्याला	-8.47993
अत्यावश्यक	-8.4842
▁तुटवडा	-8.4842
p	-8.4842
▁इटली	-8.48421
ंतर्गत	-8.48458
▁दूर	-8.48467
▁गु	-8.48546
▁वर्षी	-8.49081
रो	-8.49089
▁म्हटलंय	-8.4931
▁अत्यं	-8.49373
▁कोणती	-8.49405
▁प्राथमिक	-8.49469
▁करते	-8.4948
▁लशीचा	-8.49485
▁आरोग्यमंत्री	-8.49547
▁क्षमता	-8.49776
▁घाल	-8.50197
▁के	-8.50276
▁इंजेक्शन	-8.50334
ाऊ	-8.50375
▁रेमडेसिवीर	-8.50431
▁एखाद्या	-8.50481
▁भा	-8.50519
▁मोठा	-8.5055
▁यांचा	-8.50616
▁पो	-8.50826
ावे	-8.51133
थेट	-8.51134
m	-8.51304
▁सुविधा	-8.51305
शल	-8.51327
ावं	-8.51424
▁क्वारंटाईन	-8.51475
▁दुसरी	-8.5154
▁असल्यास	-8.51646
▁साम	-8.5167
▁चालू	-8.51672
▁त्याला	-8.51718
▁टप्प्यात	-8.51935
d	-8.52033
▁सुरक्षित	-8.52142
बरोबर	-8.52271
▁आव्हान	-8.52293
▁संख्ये	-8.52316
▁संक्रमण	-8.52324
▁मोठी	-8.52481
▁करावा	-8.52575
रण	-8.52594
▁पत्रकार	-8.52606
ूर	-8.52813
विक	-8.52854
▁शहर	-8.5294
▁मध्य	-8.5305
जन	-8.53115
राव	-8.53151
▁प्रकरणां	-8.5319
वार	-8.53223
▁लोकांच्या	-8.53244
▁संभाव्य	-8.53275
▁लवकर	-8.53275
▁विषाणूच्या	-8.53342
▁आम्हाला	-8.53394
७	-8.53466
▁नियोजन	-8.53518
▁सी	-8.53661
▁मग	-8.53767
्ह	-8.5394
u	-8.54275
▁अवलंब	-8.54275
▁येण्या	-8.54287
▁11	-8.54428
ालय	-8.5472
▁नागरिक	-8.54832
ानुसार	-8.54886
▁अॅ	-8.55094
ऊ	-8.55138
▁जोखीम	-8.55285
▁तुलनेत	-8.55285
▁नोंदणी	-8.55391
▁असलेले	-8.55429
भाव	-8.55565
▁लोकांनी	-8.55743
▁पातळी	-8.56155
▁सगळ्या	-8.56413
▁सामाजिक	-8.56428
▁मर्याद	-8.56501
(	-8.56569
▁नका	-8.56664
▁सि	-8.56708
▁यावर	-8.56722
▁सोड	-8.57095
र्म	-8.57106
▁मो	-8.57134
एन	-8.57167
▁जवळपास	-8.57337
▁समोर	-8.57471
▁मराठी	-8.57641
▁WHO	-8.5767
▁वय	-8.57791
न्	-8.57848
▁छ	-8.57864
▁सरकारच्या	-8.57894
▁जवळ	-8.58283
▁सुरक्षा	-8.58378
▁लोकसंख्ये	-8.58379
▁पालन	-8.58383
▁टाक	-8.58411
▁स्वतः	-8.58419
▁दिलं	-8.58422
▁परिणामकारक	-8.58423
▁दिल्या	-8.58527
▁वर	-8.58594
▁योजना	-8.58794
▁रुग्णांच्या	-8.58927
▁बाधित	-8.59006
▁देशा	-8.59079
▁गाव	-8.59259
▁त्यासाठी	-8.59367
▁व्यवस्था	-8.59424
▁श्वास	-8.59431
▁असल्याची	-8.59478
▁भारतीय	-8.59541
्यू	-8.59667
क्स	-8.5973
पत्र	-8.59821
जसे	-8.59978
▁तिथे	-8.60007
ृ	-8.60045
िड	-8.60324
▁मु	-8.60441
▁खर्च	-8.60498
▁घ्या	-8.60517
▁जनते	-8.6056
िष्ट	-8.60751
▁करावे	-8.61023
ल्यानंतर	-8.61387
▁लाटेत	-8.61418
▁डिसेंबर	-8.6157
▁रेल्वे	-8.6157
▁वुहान	-8.6157
▁सल्ला	-8.61571
▁आरोप	-8.61578
▁24	-8.61721
वेळी	-8.61739
l	-8.61827
िर	-8.61838
▁मुलांना	-8.61882
▁आग	-8.62052
ाचं	-8.62104
विषयी	-8.62189
डे	-8.62216
संबंधी	-8.62418
▁पुढ	-8.62539
O	-8.62657
▁वाहतूक	-8.62657
▁भाजप	-8.62659
▁ठेवा	-8.62662
▁करावं	-8.62664
्यात	-8.63223
▁होऊन	-8.63256
▁वेगळ	-8.63556
▁बहुतांश	-8.63756
रित्या	-8.63855
▁थ	-8.64103
N	-8.64169
उ	-8.64177
▁मंत्री	-8.64349
▁हॉस्पिटलमध्ये	-8.64396
▁तयारी	-8.64412
▁साठी	-8.64617
▁यात	-8.64665
▁लोकांमध्ये	-8.64792
▁उपस्थित	-8.64822
▁विद्यार्थी	-8.64867
▁पोलीस	-8.64868
▁मोहीम	-8.64869
▁घेण्यासाठी	-8.65193
▁प्रशासना	-8.65636
▁३	-8.65746
००	-8.65873
▁सौम्य	-8.65991
▁फ्लू	-8.66061
▁जातात	-8.66213
▁त्यांचे	-8.66238
क्त	-8.66536
▁बोल	-8.66715
▁तुमच	-8.66799
▁मधील	-8.66879
▁आजारी	-8.67091
▁अध्यक्ष	-8.67127
▁सकाळी	-8.67127
▁सांगण्या	-8.67141
▁एन	-8.67165
▁पवार	-8.6722
▁नमुने	-8.67564
▁कार्यालय	-8.67567
▁लि	-8.6764
मंत्री	-8.6795
िका	-8.67981
▁घा	-8.68101
▁ठ	-8.6826
▁बायोटेक	-8.68276
▁अद्याप	-8.68277
▁अनुभव	-8.6828
▁18	-8.68423
▁अमरावती	-8.68437
▁जा	-8.68505
▁कोव्हॅक्सिन	-8.68533
▁पातळीवर	-8.68671
▁मत	-8.68803
पूर	-8.68818
▁दिवसात	-8.68849
▁दिव	-8.68892
▁असल्या	-8.69063
▁१	-8.69087
▁झालेली	-8.69096
▁घेता	-8.69153
ळा	-8.6917
▁200	-8.69241
▁C	-8.69253
चित	-8.69286
▁संपर्कात	-8.69291
▁मार्ग	-8.69339
”	-8.69439
▁तिसऱ्या	-8.69439
▁राहिल	-8.69439
▁माध्यमातून	-8.69455
▁रद्द	-8.69459
▁लढ	-8.6946
जन्य	-8.6948
▁साठा	-8.69497
पूर्वी	-8.69627
▁कर्मचाऱ्यां	-8.69634
▁साथ	-8.6969
M	-8.69716
▁I	-8.69766
धा	-8.69808
▁देशांमध्ये	-8.69808
▁दुसरा	-8.69829
▁उद्रेक	-8.70063
▁मानवी	-8.70269
▁हि	-8.70598
B	-8.70615
▁दररोज	-8.70616
▁अन्न	-8.70745
▁सांगत	-8.70755
नल	-8.70802
पणा	-8.70837
▁माझ्या	-8.70918
▁सत	-8.71311
▁मान	-8.71444
▁रा	-8.71645
▁जणां	-8.71645
▁नाक	-8.71764
▁होणे	-8.71807
▁मान्यता	-8.71861
▁झा	-8.71927
ुन	-8.72019
▁रूग्णां	-8.72068
▁घड	-8.72128
▁हवा	-8.7223
की	-8.72253
▁सरकारला	-8.72447
▁बन	-8.72889
▁क्षेत्र	-8.72941
▁समज	-8.72959
▁ट्र	-8.72999
▁समस्या	-8.73013
▁बैठक	-8.73054
▁साबण	-8.73085
▁६	-8.73145
▁विमान	-8.73254
▁केल्यानंतर	-8.73308
▁राहतील	-8.73323
ेड	-8.73567
▁नागरिकांना	-8.73581
▁रुग्णांचा	-8.73732
ियन	-8.73778
मधल्या	-8.73864
▁पद्धती	-8.74016
▁थोड	-8.74181
▁व्हेरियंट	-8.7423
▁कडक	-8.7424
ोप	-8.74283
▁प्रभावित	-8.74391
ओ	-8.74481
▁लशीचे	-8.7454
▁तज्ज्ञां	-8.74586
▁लागत	-8.75074
▁आवश्यकता	-8.75185
▁७	-8.75227
ष्ट	-8.75244
▁महिन्यां	-8.75376
▁गृह	-8.7538
D	-8.75413
▁पासून	-8.75427
सारखी	-8.75442
▁मिळाली	-8.75465
▁राजकीय	-8.75466
▁संनिरीक्षण	-8.75529
ः	-8.75605
ण्यास	-8.76028
▁परि	-8.76065
▁पार	-8.76136
▁व्यक्तीं	-8.76144
▁येते	-8.76226
▁झालेले	-8.76337
▁घरात	-8.76498
▁मूळ	-8.76707
▁प्रसिद्ध	-8.76715
▁सुमार	-8.76716
▁लागली	-8.76716
,000	-8.7672
▁उद्योग	-8.76733
▁संरक्षण	-8.76806
▁पाळी	-8.76873
जे	-8.76943
आय	-8.77
▁कोरोनाव्हायरस	-8.77179
▁कशी	-8.77193
▁म्हणजेच	-8.77307
सुद्धा	-8.77443
द्ध	-8.77492
▁आठवड्यात	-8.77656
▁दिवसां	-8.77794
▁मन	-8.77862
्युट	-8.77897
ांचं	-8.77912
▁दक्षिण	-8.77981
▁बऱ्याच	-8.77982
▁उघड	-8.77982
▁जिथे	-8.77991
▁यंत्रणा	-8.7801
▁होतात	-8.78019
▁कर्मचाऱ्यांना	-8.78169
▁जन	-8.78275
▁पुढील	-8.78395
▁जगात	-8.7843
▁झाल्याचं	-8.78486
▁सुद्धा	-8.78522
ापासून	-8.78646
▁मिळव	-8.78988
स्क	-8.79216
▁आवाहन	-8.79263
▁फोर्स	-8.79263
ोर	-8.79374
▁कॅ	-8.79382
कोरोना	-8.79388
▁भेट	-8.79391
▁लागणार	-8.79423
ानंतर	-8.79571
▁ग्र	-8.79715
▁घटना	-8.79953
▁नसल्या	-8.80002
▁असणार	-8.80113
▁प्राणवायू	-8.80562
▁लावण्या	-8.80637
▁16	-8.8072
संदर्भात	-8.8078
▁त्यांचा	-8.80989
दीप	-8.81169
▁शिक	-8.81349
▁घेऊ	-8.81405
▁क्ल	-8.81542
▁महापालिके	-8.81877
▁रिपोर्ट	-8.81877
▁सप्टेंबर	-8.81877
▁आंतर	-8.81878
▁टास्क	-8.81878
▁५	-8.82153
र्ज	-8.82194
िओ	-8.82293
भार	-8.82603
ाल	-8.82663
ठा	-8.8291
▁अॅप	-8.83002
दी	-8.83098
▁खरेदी	-8.83211
▁दशलक्ष	-8.83211
▁आठवड्या	-8.83212
▁मार्गदर्शक	-8.83213
▁राहण्या	-8.83217
▁कुटुंब	-8.8329
▁संसर्गजन्य	-8.83376
▁ठिकाण	-8.83576
▁परिस्थितीत	-8.83736
ळे	-8.83747
▁वापरण्या	-8.83748
▁घ	-8.83979
▁देव	-8.84169
%)	-8.84223
करण	-8.8435
िव	-8.84545
▁चिकित्सालय	-8.84562
▁असलेली	-8.84752
▁बंदी	-8.84756
ल्ड	-8.84773
▁यांची	-8.8488
▁केलेली	-8.84966
एम	-8.85028
▁रक्त	-8.85034
▁करणारे	-8.851
▁ची	-8.85208
मुक्त	-8.85226
H	-8.85494
▁पूर्वी	-8.85513
▁गो	-8.85542
▁राहत	-8.85605
▁विषय	-8.8561
▁तज्ज्ञ	-8.8564
कृत	-8.85813
▁झ	-8.85915
▁सॅनिटायझर	-8.85932
ज्ञात	-8.85932
▁देशभरात	-8.85936
▁निदान	-8.8596
▁केअर	-8.8605
▁विरोधी	-8.86073
▁टाळ	-8.86216
▁वाटतं	-8.86304
टि	-8.86426
▁वेळी	-8.8649
▁तरीही	-8.86538
▁40	-8.86591
▁बे	-8.86612
▁वाढली	-8.86672
▁तोंड	-8.86784
ण्याचा	-8.87141
क्षण	-8.87267
▁विशिष्ट	-8.87321
▁वितरण	-8.87322
▁नसेल	-8.87326
▁गेला	-8.87358
▁करुन	-8.87439
▁S	-8.87577
▁पहिला	-8.87685
▁तपास	-8.87854
▁यावेळी	-8.88098
लक	-8.88146
▁शि	-8.88225
▁प्रच	-8.88245
▁मानवा	-8.8831
बी	-8.88422
▁इंडिया	-8.88445
▁वर्ग	-8.88474
ल्ल	-8.88523
सारखे	-8.88601
▁100	-8.88717
▁आढावा	-8.88729
▁प्रादुर्भाव	-8.88729
▁फायझर	-8.88729
▁दर्शव	-8.88729
▁2021	-8.88729
▁अगदी	-8.88729
▁फोन	-8.88789
▁अँप	-8.88955
▁अर्ज	-8.88984
▁देशांनी	-8.89106
▁त्याचे	-8.89145
▁टप्प्या	-8.89236
▁देण्यासाठी	-8.89417
▁अनु	-8.89537
ँ	-8.89537
▁मंत्रालया	-8.89576
▁जागा	-8.89594
▁देऊ	-8.89681
▁सूच	-8.89688
आधी	-8.89795
▁आय	-8.90112
▁सचिव	-8.9015
▁माल	-8.9015
▁अंमलबजावणी	-8.90158
▁परिषद	-8.90158
▁व्यवस्थापन	-8.90166
▁दावा	-8.9017
▁होम	-8.90218
▁नसलेल्या	-8.90243
▁वर्	-8.9026
▁वेगवेगळ्या	-8.90299
▁असल्याचा	-8.90344
▁प्रणाली	-8.90542
▁सुरुवातीला	-8.90672
▁त्याच	-8.90763
▁बनव	-8.90787
▁आधारित	-8.90817
▁कम	-8.91299
▁महत्वाच	-8.91308
▁निश्चित	-8.91607
▁फडणवीस	-8.91607
▁म्युटेशन	-8.91607
▁वटवाघळ	-8.91607
▁विद्यापीठ	-8.91607
▁संक्रमित	-8.91607
▁सीरम	-8.91609
▁गरजेचं	-8.91616
रोग	-8.91714
▁नसल्याचं	-8.91832
लेले	-8.91872
यु	-8.91894
▁नेते	-8.91927
▁रे	-8.9196
▁दिवसांत	-8.91978
▁बो	-8.92076
▁रुग्णांमध्ये	-8.9209
त्व	-8.92091
ब्	-8.92392
▁कामगार	-8.92455
▁उप	-8.9249
ंपैकी	-8.92769
▁60	-8.92918
▁ऑक्सफर्ड	-8.93078
▁ट्वीट	-8.93078
▁सिरम	-8.9308
▁करायला	-8.93087
▁2019	-8.93098
सोबतच	-8.93277
▁याच	-8.93317
▁कसं	-8.9344
▁पडत	-8.93542
▁कोण	-8.93781
▁व्यक्तीला	-8.93994
बो	-8.94231
काली	-8.94302
▁आत	-8.94474
▁निष्कर्ष	-8.9457
▁मेडिकल	-8.9457
▁वेग	-8.94676
▁संबंध	-8.94699
▁अडचणी	-8.94887
▁रुग्णांवर	-8.95011
▁पद्धतीने	-8.95025
▁अमेरिके	-8.95049
▁ACE	-8.95111
मो	-8.95518
▁झाल्याने	-8.95652
▁रोगा	-8.95701
िटी	-8.95797
▁कंपन्यां	-8.95822
▁टन	-8.95943
▁झाल्याचे	-8.95981
▁येतो	-8.96059
▁युनायटे	-8.96085
▁साधारण	-8.96086
▁होणं	-8.96087
▁धोरण	-8.96091
▁कठोर	-8.96096
▁लागल्या	-8.96113
▁म्हणणं	-8.96123
▁शे	-8.9613
▁पेशी	-8.96134
▁रोखण्यासाठी	-8.9622
ट्र	-8.96228
▁विभाग	-8.96453
▁पूर्णपण	-8.96506
▁महाराष्ट्रा	-8.96717
▁महत्त्वाचं	-8.96939
षण	-8.97133
पूर्ण	-8.97327
▁80	-8.97347
▁बाब	-8.97453
▁फे	-8.97471
कल	-8.97489
▁प्रशासन	-8.9751
▁समाव	-8.97521
▁उपयोग	-8.97624
▁हॉटेल	-8.97624
▁संचालक	-8.97624
▁टीका	-8.97631
▁दिवसांपासून	-8.97792
▁माझ	-8.97838
धार	-8.97867
▁आठ	-8.97921
▁व्यक्तींना	-8.98227
▁डे	-8.9825
▁बैठकीत	-8.98267
▁जण	-8.98331
▁येतील	-8.98332
▁पाळ	-8.98399
▁नव	-8.98437
ांमुळे	-8.98583
▁२०	-8.98587
▁शकतं	-8.98618
▁सात	-8.98662
▁संघटने	-8.98816
स्थिती	-8.98941
सायन	-8.98979
g	-8.99
▁ठरव	-8.99117
L	-8.99186
▁ऑनलाईन	-8.99186
▁कमतरता	-8.99186
▁भूमिका	-8.99186
▁सदस्य	-8.99186
▁एवढ	-8.99187
▁साथरोग	-8.99204
▁९	-8.99236
ँड	-8.99269
▁शरीरा	-8.99297
▁दुसरीकडे	-8.99305
गत	-8.99465
१९	-8.99608
▁बी	-8.99704
▁प्रशासनाने	-8.99818
▁फिर	-8.9995
▁संकट	-8.99959
▁असले	-9.00008
▁याविषयी	-9.0006
▁घटक	-9.00091
▁प्रा	-9.00215
▁17	-9.00409
डो	-9.00524
▁अधिकाऱ्यांन	-9.00587
▁पुण्या	-9.00612
▁पुरव	-9.00634
▁रुग्णालया	-9.00671
▁जि	-9.007
U	-9.00773
▁रुपये	-9.00774
▁हेल्थ	-9.00774
▁कारवाई	-9.00774
▁चिंता	-9.00774
▁चौकशी	-9.00774
▁रुग्णसंख्ये	-9.00775
in	-9.00848
थे	-9.00857
▁ब्रिटन	-9.00922
▁म्हटले	-9.00928
गण	-9.01016
्ज	-9.0103
शे	-9.01209
मिळ	-9.01312
शिवाय	-9.01434
ाशी	-9.01458
▁८	-9.01506
ंसाठी	-9.0162
▁ब्र	-9.01633
▁N	-9.01782
▁नगर	-9.01811
था	-9.02038
समोर	-9.02216
धान	-9.02227
दान	-9.02234
▁घेतल्या	-9.02347
▁युरोप	-9.02369
▁धुणे	-9.02387
▁नव्हती	-9.02387
▁कुठे	-9.02387
▁संवाद	-9.02435
al	-9.02451
▁सादर	-9.02534
▁रेमडेसिव्हिर	-9.02551
▁पद	-9.02565
▁जग	-9.02611
▁शै	-9.02653
▁31	-9.02783
▁पालक	-9.02801
जारी	-9.03162
र्ग	-9.03209
▁आलेला	-9.03356
▁प्रो	-9.0362
▁1.	-9.03713
▁पट	-9.03725
राष्ट्रीय	-9.03876
v	-9.04025
▁पॉल	-9.04026
▁टँकर	-9.04026
▁अजित	-9.04033
▁उपक्रम	-9.04036
▁देणार	-9.04039
▁प्रकल्प	-9.04056
▁समाज	-9.04057
▁नाहीये	-9.041
▁महत्त्वाची	-9.04121
▁घेतल्यानंतर	-9.04135
ोन	-9.04251
▁व्हाय	-9.04255
▁एकत्र	-9.04477
▁मुल	-9.0451
्यावर	-9.04563
गाव	-9.04837
▁M	-9.04913
▁तिथ	-9.04958
▁उभ	-9.0512
▁पु	-9.05163
▁एकाच	-9.05237
▁आठवड	-9.0536
▁गटा	-9.05448
य़ा	-9.05461
▁१०	-9.05514
▁घेतले	-9.05543
▁इन्	-9.05566
▁टक्क्यां	-9.056
▁सुरुवाती	-9.05606
▁महिला	-9.05658
RCGP	-9.05692
▁वारंवार	-9.05692
▁आयोगा	-9.05693
▁प्राधान्य	-9.05693
▁पार्श्वभूमीवर	-9.05693
▁आकडा	-9.05694
च्च	-9.05735
▁आयुक्त	-9.05754
▁घ्यावी	-9.05759
▁दहा	-9.0581
▁प्रवाशां	-9.05817
▁छाती	-9.05821
▁पाणी	-9.05836
संख्य	-9.05941
▁प्राप्त	-9.06063
▁व्हायरसच्या	-9.06082
▁दिल्लीत	-9.06094
▁फुफ्फुसां	-9.06346
▁श्वसना	-9.06389
ल्ट	-9.06393
▁थांब	-9.06458
▁विकास	-9.0651
ुम	-9.06572
नाथ	-9.06764
िज	-9.06803
हो	-9.06911
▁अमेरिकेत	-9.06971
▁अल	-9.07007
▁P	-9.07337
▁वातावरण	-9.07387
▁नियमावली	-9.07387
▁राहणार	-9.07388
▁उद्भव	-9.0739
▁उदाहरणार्थ	-9.07391
▁मूळा	-9.074
▁नेमक	-9.07434
▁ज्यात	-9.07502
▁रेमडेसिविर	-9.07529
▁कंपन्या	-9.07683
▁कोड	-9.08204
मधल	-9.08266
▁एस	-9.08269
▁इं	-9.0837
▁बाल	-9.08408
▁द्या	-9.08483
▁वेळे	-9.08642
ोम	-9.08889
▁जिल्ह्य	-9.08918
▁मार्चला	-9.08942
विरोधात	-9.09049
आर	-9.09066
▁धार्मिक	-9.09111
▁व्यवसाय	-9.09111
▁व्यावसायिक	-9.09111
क्लिनिकल	-9.09112
▁लागला	-9.09116
▁लागले	-9.09135
▁स्वच्छता	-9.09249
▁व्या	-9.09323
▁चीनमध्ये	-9.09406
▁मात	-9.09422
प्त	-9.09428
▁रोख	-9.09543
▁पहिली	-9.09543
▁असली	-9.09555
▁येतात	-9.09583
▁प्रभाव	-9.09824
▁गोळ	-9.0987
▁शेवट	-9.09873
▁जोड	-9.09929
▁कायम	-9.10051
▁त्यावर	-9.10449
ांशी	-9.10462
▁ई	-9.10468
िष	-9.10596
▁जून	-9.10603
V	-9.1071
▁खोकला	-9.10866
▁प्रोटोकॉल	-9.10866
▁स्वरूप	-9.10866
▁उद्देश	-9.10866
▁अतिशय	-9.10866
▁जंतू	-9.10868
▁मार	-9.10883
▁संशयित	-9.10965
▁राहू	-9.10981
▁प्रकाशित	-9.1101
▁पेशीं	-9.11012
▁दिवसा	-9.11414
▁कमीत	-9.11435
जर	-9.11459
▁पाण्या	-9.11566
िव्ह	-9.11607
▁कसा	-9.11633
▁एकदा	-9.11658
▁अप	-9.1168
▁घेण्यास	-9.11693
▁महाराष्ट्राला	-9.11902
रुप	-9.11941
ांमधील	-9.11942
▁वाढू	-9.12047
▁आधीच	-9.12185
▁संच	-9.12413
▁स्वच्छ	-9.12457
वाद	-9.12479
▁पे	-9.12486
▁व्हेंटिलेटर	-9.12506
▁अधिकाऱ्यां	-9.12576
▁मृत्यु	-9.12624
▁सीओव्ही	-9.12642
▁RSC	-9.12652
▁आढळत	-9.12652
▁पश्चिम	-9.12652
▁महामारी	-9.12652
▁किंमत	-9.12652
▁संघटना	-9.12653
▁मिळेल	-9.12653
▁लक्षण	-9.12696
▁वर्षे	-9.12702
▁पुरेस	-9.12718
ेअर	-9.12903
▁जाणवत	-9.12985
▁25	-9.13017
▁विद्यार्थ्यांना	-9.13041
ायक	-9.13115
▁डॉक्टर्स	-9.13125
▁मंत्रालयाने	-9.13154
▁सोप	-9.1317
ॅक्ट	-9.13171
▁नोंदवल	-9.13228
▁लसीकरणासाठी	-9.134
▁म्हण	-9.13521
हे	-9.13539
करून	-9.13581
ाबाबत	-9.13591
▁रोज	-9.13698
ांपेक्षा	-9.13731
▁मुलांमध्ये	-9.13767
ाईन	-9.13879
▁वाच	-9.13959
वून	-9.13983
▁प्राण्यां	-9.14057
▁आलंय	-9.14167
▁एखाद	-9.14191
▁हळू	-9.14241
तिरिक्त	-9.14466
▁ICU	-9.1447
▁प्रक्रिये	-9.1447
▁जैविक	-9.1447
▁जर्मनी	-9.1447
▁बातमी	-9.14471
▁समूह	-9.14471
▁सोनू	-9.14478
िमान	-9.1465
▁महाविद्यालय	-9.1469
▁त्यावेळी	-9.14729
तल्या	-9.14786
्झा	-9.1482
▁नसल्याने	-9.1499
▁70	-9.15152
▁काल	-9.15194
तरी	-9.15273
▁कंपनीने	-9.1558
▁राख	-9.15889
er	-9.16067
▁मानव	-9.16098
ांकडून	-9.16219
G	-9.16321
▁अपेक्षित	-9.16322
▁काँग्रेस	-9.16322
▁तुलना	-9.16322
▁स्ट्रेन	-9.16322
▁पुरवठ्या	-9.16322
▁ट्रेन	-9.16378
▁पक्ष	-9.16386
▁पोस्ट	-9.16406
▁प्रदान	-9.16445
▁23	-9.16546
▁जाव	-9.16569
▁28	-9.16577
▁सर्	-9.1661
▁दुकाने	-9.16789
भूत	-9.16832
▁A	-9.16923
▁सर्वां	-9.16955
▁असलेला	-9.17005
ळ्या	-9.17048
▁आठवड्यां	-9.1718
▁मदती	-9.17425
▁तपासण्या	-9.17476
▁राज्यांना	-9.17537
▁जगा	-9.17726
▁रहा	-9.17845
▁घालण्या	-9.17962
▁वाद	-9.1797
▁उत्पन्न	-9.18208
▁प्रारंभ	-9.18208
▁इशारा	-9.18209
▁रविवार	-9.18209
▁कोणताही	-9.18209
▁समिती	-9.18214
▁खात्री	-9.18216
▁लांब	-9.18224
क्क	-9.18234
▁जाणाऱ्या	-9.18275
▁पॅ	-9.18377
▁शिक्षक	-9.18381
▁शिवाय	-9.18443
▁लक्षणां	-9.18444
▁मृत्यूदर	-9.18457
▁दुर्	-9.18486
▁न्यू	-9.18538
▁भास	-9.18571
ोज	-9.18592
▁सांगा	-9.18628
▁आल्यानंतर	-9.18653
▁सहभागी	-9.18676
▁राहा	-9.18696
▁लोकांची	-9.18765
ट्ट	-9.18785
▁अँ	-9.18954
▁वापरासाठी	-9.19108
▁संकटा	-9.19192
लेली	-9.19403
हर	-9.19476
▁नमुन्यां	-9.19552
ंजय	-9.19586
▁संस्थे	-9.1976
▁संदर्भात	-9.19836
ायचं	-9.19905
वेत	-9.19933
▁आपत्	-9.2008
Co	-9.20084
▁ज्येष्ठ	-9.20131
▁तथापि	-9.20131
▁फ्रान्स	-9.20131
▁बायो	-9.20135
▁असतं	-9.20143
▁तरुण	-9.20143
▁करोनाबाधित	-9.20151
▁चित्र	-9.20164
गृह	-9.2027
▁मांड	-9.20276
▁खुल	-9.20421
▁म्हणत	-9.20471
▁स्वत	-9.20527
▁असण्याची	-9.20542
णारे	-9.20617
▁वेळा	-9.20627
▁लागतील	-9.20688
▁मिळू	-9.20723
▁जबाबदारी	-9.20765
▁प्राणी	-9.20836
▁असाल	-9.20858
▁मिनिट	-9.20984
▁आधार	-9.20992
चिनी	-9.21083
▁दिलेल	-9.21113
▁जातील	-9.21263
शु	-9.21304
मागे	-9.21343
िस्ट	-9.21366
यर	-9.21522
कारक	-9.21571
▁22	-9.21601
▁90	-9.21674
▁वेगळे	-9.21709
▁आयसोलेशन	-9.22092
▁धोक्या	-9.22092
▁कुठल्या	-9.22092
CDC	-9.22093
▁निवडणूक	-9.22096
▁निर्देश	-9.22097
▁बहु	-9.22098
▁गट	-9.221
▁सर्दी	-9.2211
▁उचल	-9.222
जवळ	-9.2228
तंत्रज्ञान	-9.22435
हित	-9.22565
▁अँड	-9.22601
▁रो	-9.22664
▁जिम	-9.22698
▁सोबत	-9.22822
▁नियंत्रणात	-9.23118
▁तासां	-9.23698
20	-9.23834
▁साबणा	-9.23971
▁संकल	-9.24045
ऐवजी	-9.24092
▁युनिव्हर्सिटी	-9.24092
▁व्हॅक्सिन	-9.24092
▁जोखमी	-9.24092
▁नाशिक	-9.24093
▁मिळाल्या	-9.24095
▁पाटील	-9.24096
▁बाबतीत	-9.24098
▁त्यांचं	-9.24109
▁पाहता	-9.24324
▁विरोधात	-9.24354
क्रिया	-9.24539
▁साठव	-9.24608
▁महत्त्व	-9.24693
▁मध्यम	-9.24775
▁आकडे	-9.24775
▁वाटत	-9.24969
▁नातेवाईक	-9.25057
▁गोष्ट	-9.25163
▁फायद	-9.25171
▁कळ	-9.25364
▁बाबी	-9.25389
▁यांच्याशी	-9.25509
ण्याच्या	-9.25555
▁कोणी	-9.2562
▁माज	-9.25654
▁झाल्यास	-9.25681
ाधिक	-9.25692
▁जय	-9.25819
▁गोष्टीं	-9.2584
▁कं	-9.25946
▁मनात	-9.2609
▁इतिहास	-9.26133
▁महापालिका	-9.26133
शास्त्र	-9.26134
▁मानसिक	-9.26134
▁शक्ती	-9.26135
▁प्रोटीन	-9.26135
▁देताना	-9.26141
▁कोरोनाग्रस्तां	-9.26154
▁मॅ	-9.26155
▁जेवण	-9.26155
▁बोर्डा	-9.26159
▁इथे	-9.26201
▁अधिकृत	-9.26208
क्षणिक	-9.26383
देखील	-9.26403
हळू	-9.26406
▁MERS	-9.26419
▁मि	-9.2648
▁सामना	-9.26499
क्शन	-9.26524
,"	-9.26601
▁सरकारनं	-9.26645
▁चुकीच	-9.26645
ासह	-9.26669
▁फि	-9.26692
▁लागते	-9.27607
वाल	-9.2786
▁घोष	-9.28209
▁चौ	-9.28216
पीसीआर	-9.28216
▁अल्कोहोल	-9.28216
▁क्रमांक	-9.28216
▁झपाट्यान	-9.28216
▁सकारात्मक	-9.28217
▁रशिया	-9.28217
मंत	-9.28228
▁संयुक्त	-9.2826
▁गर्भ	-9.28329
ल्स	-9.28409
▁मर्स	-9.28516
▁केस	-9.28638
▁प्रकरण	-9.2868
▁आलेले	-9.28841
▁मार्चपर्यंत	-9.2885
▁सरकारकडून	-9.28868
न्न	-9.29007
▁जिनोम	-9.29094
ीण	-9.29311
न्ट	-9.29418
▁खास	-9.29443
▁उपाययोजना	-9.29457
▁21	-9.29557
▁भो	-9.29805
▁अधिकार	-9.30028
▁राज्याच्या	-9.30341
▁यशस्वी	-9.30344
▁सिक्वेंसिंग	-9.30344
▁स्थगित	-9.30344
▁चेहऱ्या	-9.30344
▁निरीक्षण	-9.30344
▁मोहिमे	-9.30344
▁घेणं	-9.30345
▁लागलं	-9.30345
▁घ्यायला	-9.30348
▁यूके	-9.30374
▁१५	-9.3041
▁२४	-9.30426
▁कोणते	-9.30451
▁सुरूवात	-9.30459
at	-9.30472
▁संघ	-9.30534
▁दुकानं	-9.30669
▁घेतलेल्या	-9.30693
▁बघ	-9.30738
▁येतं	-9.30756
▁पि	-9.30777
▁रुग्णांसाठी	-9.30783
ल्याचं	-9.30829
▁उपचारासाठी	-9.30988
▁कदा	-9.31045
बळ	-9.31157
▁ठेवण्यासाठी	-9.31185
▁आई	-9.31197
▁क्षेत्रा	-9.31247
▁नर्स	-9.31293
▁रूग्णांमध्ये	-9.31324
▁यासंदर्भात	-9.31332
ंसह	-9.31367
▁13	-9.31533
्टर	-9.31553
▁धर	-9.31689
▁पडू	-9.31966
क्रम	-9.32005
▁अनिवार्य	-9.32518
▁नेटवर्क	-9.32518
▁हृदय	-9.32518
▁वृद्ध	-9.32518
▁इतक्या	-9.32518
▁नव्हते	-9.32519
▁सर्वेक्षण	-9.3252
▁मिळाला	-9.32521
▁देणे	-9.32522
▁मिळणार	-9.32522
व्यतिरिक्त	-9.32524
▁योजने	-9.32527
▁यंत्रणे	-9.32531
▁शिंक	-9.32536
करिता	-9.32545
▁ताण	-9.32577
▁सभा	-9.32638
▁अति	-9.32764
▁बंधन	-9.3278
▁संशोधक	-9.32787
▁उत्पादक	-9.32852
▁खालील	-9.32872
तज्ज्ञ	-9.32911
▁H	-9.3322
▁आधारे	-9.33519
▁आव	-9.33577
10	-9.33606
▁लोकल	-9.33619
▁विशेषत	-9.33745
▁शेवटी	-9.33767
▁चालव	-9.33852
▁कोरोनाबाधित	-9.33953
▁टाळा	-9.34131
▁अव	-9.34402
▁आणण्या	-9.34542
च्छ	-9.34713
▁मंजूर	-9.3474
▁विश्लेषण	-9.3474
▁सोसायटी	-9.3474
▁वाजेपर्यंत	-9.3474
▁बंगाल	-9.3474
▁कॉलेज	-9.34741
▁निवड	-9.34746
▁घराबाहेर	-9.34754
मेंट	-9.34767
▁खरं	-9.34768
▁कृती	-9.34797
▁निकाल	-9.34852
or	-9.34883
मूद	-9.34913
▁असल्यामुळे	-9.35052
ॅक्स	-9.35203
▁जेणे	-9.35218
▁रुग्णालयांमध्ये	-9.35396
▁रक्ता	-9.35525
▁किट	-9.35773
दु	-9.35931
▁भरती	-9.36021
▁नमुन्या	-9.36244
▁ट्रायल	-9.36867
▁मधुमेह	-9.37013
▁प्रथिन	-9.37014
▁कारणीभूत	-9.37014
▁सहकार्य	-9.37014
▁बारावी	-9.37036
▁प्रत्यक्ष	-9.37038
▁पेपर	-9.37061
▁दहावी	-9.37071
▁व्ही	-9.37251
▁हवी	-9.3731
▁याबद्दल	-9.3733
▁महिलां	-9.37434
▁कुमार	-9.3746
▁नमुन	-9.37601
कोव्हॅक्सीन	-9.37673
▁द्रव	-9.37691
▁विरोध	-9.377
कोव्ह	-9.37717
▁काळा	-9.37734
▁वयाच	-9.37851
िकल	-9.38162
्ड	-9.38194
ाईड	-9.38237
▁बैठकी	-9.38288
▁रुग्णालयां	-9.38299
पाठ	-9.38378
▁पुर	-9.38399
ज्या	-9.38483
▁45	-9.38538
▁जम	-9.38547
▁यू	-9.38618
▁आयोज	-9.38741
▁सर्वांना	-9.38982
▁सगळ्यां	-9.39093
▁शासना	-9.39305
▁तालुक्यात	-9.39338
▁ठेवणे	-9.39339
▁निगेटिव्ह	-9.39339
▁ब्राझील	-9.39339
▁मंजुरी	-9.39339
▁वैयक्तिक	-9.39339
▁विक्री	-9.39339
▁रुपयां	-9.3934
▁जनरल	-9.39341
▁घेणार	-9.39342
▁खेळ	-9.39347
▁करेल	-9.39349
▁बाजार	-9.39414
▁सक्षम	-9.3946
▁पुरेश	-9.39488
▁मिळाले	-9.39545
▁०	-9.39599
▁प्रवाशांना	-9.39633
▁स्थितीत	-9.39635
▁एकत्रित	-9.39667
राज	-9.39679
▁टोच	-9.39886
ठिकाणी	-9.39906
▁कठ	-9.40097
▁असता	-9.40125
▁वस्तू	-9.4016
▁उपकरण	-9.40187
▁संरक्ष	-9.40237
▁वाढले	-9.40512
▁जाग	-9.40587
▁कार्यालया	-9.4085
▁दिवसांचा	-9.40904
▁थांबव	-9.40924
▁जिल्ह्या	-9.4117
▁ढकल	-9.41292
▁शकल	-9.41399
▁शकता	-9.41416
▁अमेरिक	-9.41484
▁साधला	-9.41532
95	-9.41647
▁संख्येत	-9.41669
▁यापैकी	-9.41689
बे	-9.41695
▁PHE	-9.4172
▁आयुष्य	-9.4172
▁ऑक्टोबर	-9.4172
▁कक्ष	-9.4172
▁खबरदारी	-9.4172
▁निर्जंतुक	-9.4172
▁मॉडर्ना	-9.4172
▁टाळेबंदी	-9.4172
▁ड्राय	-9.4172
▁विनंती	-9.4172
▁अचानक	-9.4172
▁राहु	-9.4172
▁घेणाऱ्या	-9.4172
▁पुरावा	-9.41721
▁नव्हता	-9.41722
▁लॅब	-9.41722
▁सद्य	-9.41723
▁निधी	-9.41724
▁गेलं	-9.41731
▁झोन	-9.41745
▁लेख	-9.41753
▁उलट	-9.41755
▁सुचव	-9.41768
▁स्थळ	-9.41771
▁रिक्त	-9.41774
▁सामान्यपणे	-9.41844
50	-9.41949
▁शुक्रवारी	-9.41973
▁माध्यम	-9.42021
▁जणांना	-9.42212
▁संघटनेने	-9.42289
▁सर	-9.42409
▁राज्यांमध्ये	-9.42512
▁T	-9.42808
पती	-9.42817
क्व	-9.42819
ाबद्दल	-9.42844
▁वेळेत	-9.42978
▁प्रवासी	-9.42989
▁शहरां	-9.43061
▁स्थाप	-9.43498
ांपासून	-9.43772
▁वाढल्या	-9.43833
▁प्रॅक्टिस	-9.44095
▁ट्विट	-9.44129
RNA	-9.44158
▁असोसिएशन	-9.44159
▁न्यूमोनिया	-9.44159
▁कोरिया	-9.4416
▁मासिक	-9.44161
मेट्रिक	-9.44166
▁फटका	-9.44184
▁दिवसांपूर्वी	-9.44192
▁सिद्ध	-9.44196
▁प्रशिक्षण	-9.44208
▁१८	-9.44219
▁मूल	-9.44251
▁ऑफिस	-9.44275
युक्त	-9.44547
▁घ्यायच	-9.44672
ालेय	-9.44695
▁केल्यास	-9.44755
▁जोशी	-9.44776
वान	-9.44971
▁डॉक्टरांना	-9.45061
▁शासकीय	-9.45283
▁पाव	-9.4531
▁खाली	-9.45314
▁स्थान	-9.45337
▁मोज	-9.45433
▁भारतामध्ये	-9.4572
es	-9.45807
▁नवा	-9.45833
▁वाढत्या	-9.45893
▁असला	-9.45986
तोय	-9.46047
▁हजारो	-9.46237
▁फॉर	-9.46322
▁वाचव	-9.46344
▁सेवे	-9.46436
▁द्वारे	-9.46528
▁हवेत	-9.4656
▁इंग्लंड	-9.46659
▁कुंभमेळ्या	-9.46659
▁गायकवाड	-9.46659
▁इमारत	-9.46659
▁एकमेकां	-9.46659
▁देखरेख	-9.46659
▁सरासरी	-9.46659
▁नेहमी	-9.46659
▁शब्द	-9.46659
▁इतकी	-9.4666
▁प्रथम	-9.46661
▁सहाय्य	-9.46662
▁ठाणे	-9.46662
▁पुरावे	-9.46682
▁कोणाला	-9.46833
▁पाहाय	-9.4685
▁रेट	-9.4691
▁मोठं	-9.46934
▁भू	-9.47001
▁सारख्या	-9.47166
ांश	-9.47241
▁समान	-9.47255
▁त्यांच्यावर	-9.47359
▁मुलांसाठी	-9.47528
▁कसे	-9.47653
▁सेल	-9.47869
▁केंद्रात	-9.47878
▁वयोगटात	-9.47998
▁चेन	-9.48389
▁देशांत	-9.48604
▁हाताळ	-9.48718
्शन	-9.4884
▁उभार	-9.48851
▁रुग्णालयाच्या	-9.48872
▁अँटीबॉडी	-9.49053
▁कोव्हिशील्ड	-9.49223
▁खाजगी	-9.49223
▁नोव्हेंबर	-9.49223
▁बातम्या	-9.49223
▁लगेच	-9.49223
▁विश्वास	-9.49223
▁सर्वसामान्य	-9.49223
▁गुजरात	-9.49223
▁सोमवार	-9.49223
▁राजकारण	-9.49224
▁फार्मा	-9.49227
▁इराण	-9.49228
▁संधी	-9.4923
▁व्यापक	-9.49231
▁हवं	-9.49236
▁होण्यास	-9.4925
म्बो	-9.49257
▁यांचं	-9.49318
▁तिसर	-9.49347
▁यश	-9.49365
ीक्ष	-9.49379
▁प्रयोगशाळेत	-9.49393
▁मर्यादा	-9.49419
म्प	-9.49461
▁होतील	-9.49463
▁मानले	-9.4967
▁दंड	-9.49807
▁मिळवण्या	-9.49877
▁आपला	-9.49948
▁कशा	-9.49993
▁तापमान	-9.502
णारा	-9.50216
▁लसींच	-9.50254
▁शकतील	-9.50339
ार्थ	-9.50536
ईन	-9.50569
▁यादी	-9.50583
रेट	-9.50586
▁देशां	-9.50634
▁काढण्या	-9.50959
▁मुले	-9.51033
ायत	-9.51159
▁पसरत	-9.51197
▁इन	-9.51276
▁सापडल	-9.51307
▁पावले	-9.51372
िण्या	-9.51414
▁गावात	-9.51451
▁कारणं	-9.51468
▁संनिरीक्षणा	-9.51716
▁संक्रमणा	-9.51748
▁उल्लेख	-9.51854
▁कॅलिफोर्निया	-9.51854
▁महिने	-9.51854
▁वाहतुकी	-9.51854
▁सिंड्रोम	-9.51854
▁वृत्त	-9.51854
▁संबोध	-9.51854
▁येणं	-9.51855
▁घेणे	-9.51855
▁कोविन	-9.51856
▁कचऱ्या	-9.51857
▁देणाऱ्या	-9.51857
▁शकेल	-9.51858
▁बँक	-9.51859
▁फरक	-9.51871
▁नुकत	-9.51887
▁अंश	-9.51898
▁सीमा	-9.51921
वरुन	-9.5195
▁पसरतो	-9.52051
▁दिल्यानंतर	-9.52059
▁कोरोनाग्रस्त	-9.5212
▁27	-9.52199
भाष	-9.52437
▁नियमित	-9.52533
▁सुधार	-9.5259
▁त्यानुसार	-9.52662
▁आर	-9.52684
COVID	-9.52746
विरोधी	-9.52754
▁बार	-9.53072
▁बोलत	-9.53095
▁झालाय	-9.53281
▁वाढला	-9.53288
▁चि	-9.53314
▁लो	-9.53546
▁घरीच	-9.53658
वती	-9.53738
▁अमेरिका	-9.53792
▁नवी	-9.54177
▁मिळालेल	-9.54321
जण	-9.54356
▁पृष्ठभाग	-9.54449
▁अभ्यासात	-9.54511
▁गोंधळ	-9.54557
▁पालघर	-9.54557
▁बिघड	-9.54557
▁संचारबंदी	-9.54557
मार्फत	-9.54557
▁म्हणाल्या	-9.5456
▁वसई	-9.54566
▁अश्या	-9.54567
▁एकीकडे	-9.54578
▁प्रतिक्रिया	-9.5459
▁गरजेचे	-9.54596
▁कुणा	-9.54636
▁कोरोनाविषाणू	-9.54675
▁केलंय	-9.54877
▁कार्ड	-9.55
▁शोधण्या	-9.55018
▁पक्षा	-9.55363
▁औषधं	-9.55431
▁प्रांत	-9.55512
कोव्हिड	-9.55546
▁अर्थात	-9.55561
▁कार्यक्षमत	-9.55651
▁मागो	-9.55746
▁डी	-9.55764
▁ग्रस्त	-9.56058
▁सातत्यान	-9.56168
र्थ	-9.56219
17	-9.56234
▁तापमाना	-9.56398
जेन	-9.5673
▁धुवा	-9.56895
ृत	-9.5701
▁वेगवेगळ	-9.57058
▁प्रकाश	-9.57107
▁छातीत	-9.57129
▁नियमां	-9.57184
19	-9.57205
▁मुख्यमंत्र्यांन	-9.5721
▁बाजारात	-9.57245
▁उपमुख्यमंत्र	-9.57297
▁उड्डाण	-9.57335
▁कोव्हिशिल्ड	-9.57335
▁मुखवट	-9.57335
▁साखळी	-9.57335
▁प्रजाती	-9.57335
▁रोगजनक	-9.57335
▁रूग्णालयात	-9.57336
▁लढाई	-9.57337
▁इतका	-9.57339
▁पथक	-9.57345
▁जलद	-9.57346
▁इंटर	-9.57353
▁राहील	-9.57355
▁मृत्युदर	-9.57377
▁उपस्थिती	-9.57472
ाइड	-9.57483
▁व्हेंटिलेटर्स	-9.57563
▁बाजूला	-9.5764
▁29	-9.57641
हान	-9.57766
जिकल	-9.57772
▁इंडिय	-9.57929
वाज	-9.58038
मुख	-9.58195
▁समुदाया	-9.58266
वर्षी	-9.58321
▁मागच्या	-9.58384
दिवस	-9.58419
▁शोधून	-9.58449
▁प्रकरणे	-9.58523
प्रकारे	-9.58624
▁विरुद्ध	-9.58673
II	-9.587
▁दि	-9.5874
नगर	-9.58769
▁राबव	-9.59026
▁आलेलं	-9.59292
▁ब्ल	-9.59308
▁क्रम	-9.59731
▁पाठवण्या	-9.59769
▁शाळेत	-9.59826
क्षम	-9.59897
▁बंधनकार	-9.60049
▁योग	-9.60054
▁रूग्णांच्या	-9.60107
ंडवे	-9.60155
▁ठरत	-9.60188
▁अडथळा	-9.60192
▁आटोक्यात	-9.60192
▁आयसीयू	-9.60192
▁डिजिटल	-9.60192
▁तुटवड्या	-9.60192
▁नैसर्गिक	-9.60192
▁कँडीडेट	-9.60192
▁मूल्यांकन	-9.60192
▁बहुतेक	-9.60192
▁व्यापार	-9.60197
▁टो	-9.602
▁विजय	-9.60201
पीपी	-9.6021
▁निर्यात	-9.60213
▁लग्न	-9.60221
▁बरं	-9.60224
▁वाहन	-9.60271
▁थंड	-9.60405
पूर्व	-9.60438
▁त्याशिवाय	-9.60468
▁26	-9.6057
▁प्ल	-9.60578
▁वापरले	-9.60625
▁हवे	-9.60707
▁उपचारांसाठी	-9.60751
▁अखेर	-9.60754
▁तातडीन	-9.60826
▁लागतात	-9.60921
▁त्यापैकी	-9.60925
▁सुर	-9.61535
▁मार्गा	-9.61627
▁प्रकरणा	-9.61738
▁राय	-9.61952
▁प्राण	-9.62103
▁नॅश	-9.62457
▁तातडी	-9.62489
▁प्रतिकार	-9.62667
▁होताना	-9.62713
बंध	-9.62926
ंदा	-9.63044
ांपर्यंत	-9.63073
कर्त्या	-9.63127
W	-9.63133
दृष्टीने	-9.63133
▁तात्पुरत	-9.63133
▁पूनावाला	-9.63133
▁वैशिष्ट्य	-9.63133
▁व्यवस्थे	-9.63133
▁सक्रिय	-9.63133
▁गुणकार	-9.63133
PCR	-9.63133
▁परिसरात	-9.63133
▁विस्तार	-9.63133
सारखा	-9.63133
▁स्टेट्स	-9.63133
▁हर्षवर्धन	-9.63134
▁स्वीकार	-9.63135
▁गाडी	-9.63142
▁कायद्या	-9.63147
▁लक्षणीय	-9.63207
▁ठेवून	-9.63255
वणार	-9.63338
▁विकत	-9.63345
▁पोलिसांन	-9.6343
▁आणण्यासाठी	-9.63473
▁मरण	-9.63473
▁पहा	-9.63477
▁१९	-9.63644
माहीत	-9.63781
ed	-9.63899
▁उपायां	-9.64008
▁35	-9.64023
▁याशिवाय	-9.64255
▁लोकांचं	-9.64313
संसर्ग	-9.64408
गल	-9.64414
▁नातेवाईकां	-9.64712
ाखाली	-9.64757
▁विभागाने	-9.64821
त्मक	-9.64891
▁समुदाय	-9.65157
▁जबाबदार	-9.65168
▁स्थापन	-9.65502
▁पालकां	-9.65738
▁पोट	-9.65876
▁वेबसाईट	-9.66163
दैनंदिन	-9.66163
▁न्युमोनिया	-9.66163
▁प्रतिकारशक्ती	-9.66163
▁प्रतिनिधी	-9.66163
▁मार्गदर्शन	-9.66163
▁मोबाईल	-9.66163
▁छोट्या	-9.66164
▁शारीर	-9.66164
▁व्यायाम	-9.66164
▁स्वतंत्र	-9.66164
▁सगळी	-9.66164
▁कॅनडा	-9.66164
▁स्तरावर	-9.66164
▁एअर	-9.6617
▁अॅक्टिव्ह	-9.66173
▁गाठ	-9.6618
▁करीत	-9.6619
▁द्यावी	-9.66241
▁दुखत	-9.66268
ांनुसार	-9.66378
▁मान्य	-9.66395
▁नियमांचं	-9.6644
विषय	-9.6651
▁रोगप्रतिकारक	-9.66553
▁शहरा	-9.66588
़	-9.66588
▁इफेक्ट	-9.66592
▁लिह	-9.66726
▁आकार	-9.66742
▁कोरडे	-9.6676
▁लागतो	-9.66768
▁नको	-9.66815
▁अभाव	-9.6686
▁रुग्णालयांना	-9.66931
▁फुफ्फुसा	-9.67039
▁व्हायरल	-9.67169
▁देऊन	-9.67193
निर्मिती	-9.67471
रुग्ण	-9.67483
▁व्हि	-9.67516
▁दुसर	-9.67532
▁झाल्यावर	-9.67922
मंड	-9.6795
▁मुख्यमंत्र्यां	-9.68136
ायिक	-9.6833
▁फेब्रुवारीला	-9.68373
रोधक	-9.68695
▁आल्यास	-9.68717
▁कुटुंबा	-9.68774
खोल	-9.68853
▁रुग्णांच	-9.68889
▁उदाहरण	-9.69281
मंत्र्यांनी	-9.69288
▁ग्राहक	-9.69288
▁आघाडी	-9.69288
▁आढळला	-9.69288
▁आणीबाणी	-9.69288
▁आपात्काल	-9.69288
▁गोपनीयत	-9.69288
▁प्रस्ताव	-9.69288
▁गमाव	-9.69288
▁प्रावस्था	-9.69288
▁फोटो	-9.69289
▁सिस्टम	-9.6929
▁पोहच	-9.6929
▁आरोग्यसेवा	-9.69291
▁बाळा	-9.69296
सारखं	-9.69299
▁लावला	-9.69307
▁उतर	-9.69323
▁माध्यमां	-9.69348
विरार	-9.69409
▁कुणी	-9.69418
▁घसा	-9.69429
▁आदी	-9.69526
▁पोशिंद्या	-9.69554
▁सुरक्षितता	-9.69751
▁आलाय	-9.69837
▁सरकारकडे	-9.70328
▁फुफ्फुस	-9.70339
पक्षी	-9.70814
▁यापूर्वी	-9.70962
▁संदर्भ	-9.7098
▁लोकांसाठी	-9.70993
▁उपलब्धता	-9.71053
▁पद्धत	-9.71077
▁मीडियावर	-9.71248
▁विषाणूरोध	-9.7129
▁नियामक	-9.71415
▁पसरला	-9.71518
▁लशीमुळे	-9.71699
▁वैज्ञानिक	-9.71755
▁आशा	-9.72022
▁शिर	-9.72287
▁गुंतागुंत	-9.72514
▁प्रतिजैविक	-9.72514
▁अतिदक्षत	-9.72514
▁उद्दिष्ट	-9.72514
▁एजन्सी	-9.72514
▁गुरुवारी	-9.72514
▁जनुकीय	-9.72514
▁प्लॅटफॉर्म	-9.72514
▁मॉडेल	-9.72514
▁सगळं	-9.72514
▁हायड्र	-9.72514
▁राहणाऱ्या	-9.72514
▁अंतिम	-9.72515
▁प्लांट	-9.72515
▁लिहिलं	-9.72515
▁वर्तमान	-9.72515
▁दिवाळी	-9.72515
▁केरळ	-9.72516
▁गैर	-9.72516
▁नक्की	-9.72517
▁निधन	-9.72517
▁सूद	-9.72522
▁वर्णन	-9.72527
▁करायची	-9.72532
▁श्री	-9.72538
▁देशमुख	-9.7256
▁त्याचप्रमाणे	-9.72581
▁ओळखपत्र	-9.72584
▁आरटी	-9.72588
▁डाय	-9.72591
▁ताब	-9.72598
▁आपत्ती	-9.72602
▁ठाकरेंनी	-9.72813
▁घ्यावा	-9.72873
▁डोसेस	-9.72897
▁कोटीं	-9.72967
▁तक्रारी	-9.73192
प्पी	-9.73217
is	-9.73331
▁अग्र	-9.73472
▁हॅ	-9.73517
▁विभागात	-9.73717
▁मोदींन	-9.73805
भाग	-9.73955
▁फायदे	-9.7409
कोरोन	-9.74102
ाइट	-9.74179
▁वापरता	-9.74228
▁वाटते	-9.74292
द्द	-9.74655
▁११	-9.74726
▁शास्त्रज्ञ	-9.74732
▁अनि	-9.75044
▁प्रदेशात	-9.75499
▁पोलिसां	-9.75512
43	-9.75663
विल्हेवाट	-9.75847
▁आढळल्या	-9.75847
▁जिल्हाधिकारी	-9.75847
▁नुकसान	-9.75847
▁प्रतिपिंड	-9.75847
▁लूकस	-9.75847
▁स्थलांतर	-9.75847
▁हैदराबाद	-9.75847
▁मिळालं	-9.75848
▁रेस्पिरेटर	-9.75848
▁इतकं	-9.75848
▁दबाव	-9.75848
▁अचूक	-9.75848
▁रेड्डी	-9.75848
▁पैसे	-9.75848
▁रोजगार	-9.75848
▁साहित्य	-9.75848
▁रुग्णवाढ	-9.75848
▁संकेत	-9.7585
▁चांगला	-9.75851
▁स्वयं	-9.75855
▁घाबर	-9.75857
▁नेत्यां	-9.75859
▁शकणार	-9.75861
▁कागद	-9.75863
▁त्वचे	-9.7587
▁त्वचा	-9.75878
▁धोकादायक	-9.75883
▁अडक	-9.75891
▁प्रॅक्टिसेस	-9.75934
▁गेल्यावर्षी	-9.75938
▁अटक	-9.7595
मिशन	-9.7597
▁शंका	-9.7598
▁स्वच्छते	-9.75988
▁आकडेवारीनुसार	-9.75991
it	-9.75996
▁धर्म	-9.76003
▁उड	-9.76095
▁काढले	-9.76098
▁निर्म	-9.76163
▁प्रयोगशाळा	-9.76322
राज्यात	-9.76408
▁मोठे	-9.76461
▁रूग्णांना	-9.76789
ग्ल	-9.77188
ांबाबत	-9.77289
स्थान	-9.7737
महाराष्ट्र	-9.77494
▁देतात	-9.77697
▁जमा	-9.77965
▁वस्तूं	-9.78088
प्रमाणेच	-9.78152
▁डब	-9.78172
ग्न	-9.78328
▁हानी	-9.78419
दायक	-9.78578
▁पोशिंद	-9.79003
▁पाळत	-9.79038
▁आफ्रिक	-9.79187
ञ	-9.79294
रोगप्रतिकारशक्ती	-9.79296
▁किराणा	-9.79296
▁दवाखान्यात	-9.79296
▁प्रौढ	-9.79296
▁लॉकडॉऊन	-9.79296
▁वॉर्ड	-9.79296
▁हस्तक्षेप	-9.79296
▁आश्रय	-9.79296
▁ट्रेसिंग	-9.79296
▁तब्येत	-9.79296
▁वेळापत्रक	-9.79296
▁स्वॅब	-9.79296
▁तात्काळ	-9.79297
▁लोकसंख्या	-9.79297
▁नियंत्रित	-9.79299
▁जपान	-9.79299
▁ठोस	-9.793
▁देणं	-9.79301
▁युरोपिय	-9.79304
▁शेतक	-9.79312
▁विद्यमान	-9.79318
▁ट्रम्प	-9.79318
▁अमित	-9.79327
विनाश	-9.79336
▁राजस्थान	-9.79338
▁विज्ञान	-9.79348
▁कोडिंग	-9.79426
▁शेती	-9.79435
▁१२	-9.79463
▁बालकां	-9.79574
▁प्राण्या	-9.79612
पदार्थ	-9.79725
▁मिळण्या	-9.79802
▁द्यावे	-9.79871
▁शनिवारी	-9.79916
▁डॉलर	-9.79961
▁दुकान	-9.80062
स्थाप	-9.80102
▁आयात	-9.80136
▁अमेरिकेमध्ये	-9.80369
▁झाल्यामुळे	-9.80391
▁तासांत	-9.80405
▁गेलेल्या	-9.80445
▁आख	-9.80474
▁पडली	-9.80718
▁उपाययोजनां	-9.80762
छ	-9.81025
ऑ	-9.8105
▁वाढवण्याच	-9.8131
▁फेस	-9.81678
व्याप	-9.8182
le	-9.81864
▁क्रि	-9.82353
▁पालकमंत्र	-9.82593
▁यांसारख	-9.82602
▁लक्ष्य	-9.8275
▁कॉल	-9.82866
▁कॉन्ट	-9.82867
▁बांध	-9.82867
▁आंदोलन	-9.82867
▁औरंगाबाद	-9.82867
▁जुलै	-9.82867
▁तज्ञ	-9.82867
▁तृतीय	-9.82867
▁शिथिल	-9.82867
▁स्पुटनिक	-9.82867
▁ऑगस्ट	-9.82867
▁दुपारी	-9.82867
▁नव्हतं	-9.82867
▁पालिके	-9.82867
▁बांधकाम	-9.82867
▁पेशंट	-9.82868
▁टप्पा	-9.82868
▁युनिट	-9.82868
▁अतिसार	-9.82868
▁वक्तव्य	-9.82868
▁आमदार	-9.82869
▁इथं	-9.8287
▁हु	-9.82886
सेप्ट	-9.82888
▁डिस्टन्सिंग	-9.82891
▁पहिल्यांदा	-9.82921
▁मित्र	-9.82944
▁न्यु	-9.83328
▁असलं	-9.83379
▁तसा	-9.83526
▁संस्थेने	-9.83569
CM	-9.83698
▁परदेश	-9.83915
▁वाढलं	-9.83937
▁देशांना	-9.8414
▁विसर	-9.84208
▁वापरणे	-9.84279
▁कामगारां	-9.84415
▁आल्याचं	-9.84529
▁मंत्र्यां	-9.8456
ग्रस्त	-9.84627
▁असण्या	-9.85593
▁खाटा	-9.85779
▁प्रवाश	-9.85957
▁क्षमते	-9.86199
▁फ्ल	-9.86459
▁घटकां	-9.86512
▁चंद्र	-9.86554
ोलॉजी	-9.8657
WIN	-9.86571
▁अनावश्यक	-9.86571
▁पाहिलं	-9.86571
▁प्रोत्साहन	-9.86571
▁वगळता	-9.86571
▁वरिष्ठ	-9.86571
म्युकरमायकोसिस	-9.86571
▁दुर्लक्ष	-9.86571
▁व्यवहार	-9.86571
▁स्टोअर	-9.86571
▁तणाव	-9.86571
▁संसाधन	-9.86571
▁डायरिया	-9.86571
▁मजुरां	-9.86571
▁बाळग	-9.86571
▁इच्छा	-9.86572
▁राजधानी	-9.86572
▁चांगली	-9.86572
▁मुंडे	-9.86573
▁टक्केवारी	-9.86575
▁बाकी	-9.86575
▁बुधवारी	-9.86579
▁बालरोग	-9.86601
▁कोर्टा	-9.86609
सिटी	-9.86614
▁उद्या	-9.86646
▁बीटा	-9.86654
▁दिवसभरा	-9.86666
▁कोल्ड	-9.86669
▁अद्यतन	-9.86673
▁नोंदवण्या	-9.86714
िअर	-9.86728
▁लढण्यासाठी	-9.86728
▁टाळणे	-9.8673
▁तब्	-9.86735
▁घालणे	-9.86794
▁व्यक्ति	-9.8681
▁क्षमतेने	-9.86946
ge	-9.87018
▁शाळे	-9.87053
▁घेतलं	-9.87058
घातक	-9.87188
▁फंड	-9.87291
▁कळव	-9.87317
▁पाठवले	-9.87322
▁आपल्याकडे	-9.87328
ाबाहेर	-9.87333
▁३०	-9.87679
▁पद्धतीं	-9.87768
▁रस्त्यावर	-9.87986
▁विकासा	-9.88552
विरुद्ध	-9.88583
किंवा	-9.88607
▁मनो	-9.89325
▁ठेवता	-9.89529
▁रक्तात	-9.89709
▁ऑस्ट्रेलिया	-9.89841
▁दिसण्या	-9.89916
▁रोगप्रतिकार	-9.89922
▁५०	-9.89923
मिल	-9.90138
मागच	-9.90296
▁तसं	-9.90363
▁फ्रंटला	-9.90417
▁आरएनए	-9.90417
▁उत्परिवर्तन	-9.90417
▁उल्लंघन	-9.90417
▁दुप्पट	-9.90417
▁निवडणुकी	-9.90417
▁पुनावाला	-9.90417
▁पॅनगोलिन्स	-9.90417
▁भविष्यात	-9.90417
▁महापौर	-9.90417
▁विश्वविद्यालये	-9.90417
▁सुरक्षे	-9.90417
ॉवेल	-9.90417
▁सिलिंडर	-9.90417
▁सिलेंडर	-9.90417
▁कुठली	-9.90417
▁सगळे	-9.90418
▁दोघां	-9.90418
▁चांगलं	-9.90418
▁चांगले	-9.90418
▁चांगल्या	-9.90418
▁वर्षभरात	-9.9042
▁आनंद	-9.90423
▁मीटर	-9.90424
▁कचरा	-9.90427
▁फूट	-9.90428
▁मलिक	-9.90428
▁कार्यरत	-9.90432
▁नव्हे	-9.9044
▁सर्व्हे	-9.90442
▁दीड	-9.90457
▁झोप	-9.9047
▁किलो	-9.90598
▁सांगू	-9.90625
78	-9.90627
▁कच्च	-9.90821
▁प्रश्नांची	-9.90825
▁टेस्टिंग	-9.90848
▁कर्ज	-9.90892
▁हॉस्पिटल्स	-9.9115
▁तीव्रता	-9.91184
▁500	-9.91216
▁ठेवत	-9.91314
▁केंद्राकड	-9.91316
▁गती	-9.91436
▁मृत्यूंच	-9.91465
▁आयोजन	-9.9153
▁ओळखण्या	-9.91581
▁रेड	-9.91698
▁१३	-9.91998
▁मुलं	-9.92045
▁उद्	-9.92065
▁पहिल	-9.92093
ाईक	-9.92109
▁निघाल	-9.92249
ँग	-9.92573
शासकीय	-9.92586
▁प्रतिरोध	-9.92837
नियम	-9.92891
▁वर्षांवर	-9.9316
▁मराठ	-9.93241
▁सुधारण	-9.93423
▁सहभाग	-9.93453
▁निर्	-9.93715
ष्क	-9.94009
ज्ञान	-9.94148
▁संशय	-9.94199
▁न्यायालय	-9.94374
▁चिकित्सा	-9.94416
▁सूक्ष्म	-9.94417
दृष्ट्या	-9.94417
▁अर्थव्यवस्थे	-9.94417
▁ऑनलाइन	-9.94417
▁कित्येक	-9.94417
▁गांधी	-9.94417
▁निदर्शना	-9.94417
▁प्रयोग	-9.94417
▁फैलाव	-9.94417
▁महिले	-9.94417
▁सिंगापूर	-9.94417
▁हुबेई	-9.94417
▁ह्रदय	-9.94417
▁२०२०	-9.94417
▁दृष्टीकोन	-9.94417
▁सर्वसाधारण	-9.94417
▁सविस्तर	-9.94417
▁स्पेन	-9.94417
▁मुद्दा	-9.94417
PPE	-9.94418
▁डोळे	-9.94418
▁शुद्ध	-9.94418
▁जेसिका	-9.94418
▁अब्ज	-9.9442
▁जहाज	-9.9442
▁रुग्णांपैकी	-9.94421
▁ठेवावं	-9.94423
शांक	-9.94424
▁अल्प	-9.94424
▁आहात	-9.94426
▁यंदा	-9.94428
▁रूप	-9.94429
▁स्वरुपाच	-9.94431
▁वाजता	-9.94431
▁स्थिर	-9.94433
ांहून	-9.9445
आकृती	-9.94451
▁न्याय	-9.94479
सिंह	-9.94489
▁युद्ध	-9.94495
▁दूरस्थ	-9.94511
▁अँटी	-9.94528
▁आफ्रिकेत	-9.94543
▁टाळण्यासाठी	-9.94563
▁विधान	-9.94573
▁धाव	-9.94602
▁जिल्ह्यांमध्ये	-9.94608
▁जूनपर्यंत	-9.94633
शोक	-9.94638
▁ट्रायल्स	-9.94678
▁अँटीबॉडीज	-9.94684
▁पाहून	-9.94685
▁वाढवण्यासाठी	-9.94724
▁करण्यापूर्वी	-9.94771
▁कळवि	-9.94802
▁33	-9.94931
हाळ	-9.9494
ियो	-9.94959
▁बोलाव	-9.9508
▁रंग	-9.95309
▁माणसां	-9.95441
द्वा	-9.95816
बाहेर	-9.95864
ांकडे	-9.96165
13	-9.96727
▁तोंडा	-9.9676
राज्य	-9.96761
प्रति	-9.96789
▁निघ	-9.96863
वेळ	-9.97079
▁रोखण्या	-9.97331
▁परदेशात	-9.97373
25	-9.97493
भव	-9.97936
▁प्रयोगशाळां	-9.97991
▁थांबवण्या	-9.98067
▁राष्ट्र	-9.98206
गुत	-9.98223
▁मुला	-9.98306
▁तंत्र	-9.98369
ण्यापूर्वी	-9.98537
▁नावाच	-9.98544
▁ICMR	-9.98584
▁अनलॉक	-9.98584
▁अॅस्ट्राझेनका	-9.98584
▁कर्फ्यू	-9.98584
▁कृष्ण	-9.98584
▁डिस्टंसिंग	-9.98584
▁पाहिले	-9.98584
▁महानगरपालिका	-9.98584
▁रिसर्च	-9.98584
▁मार्केट	-9.98584
▁विस्तृत	-9.98584
▁व्हीडिओ	-9.98584
▁परीक्षे	-9.98584
▁जिवंत	-9.98584
▁नकारात्मक	-9.98584
▁सेरोलॉज	-9.98584
▁पालिका	-9.98585
▁शकणाऱ्या	-9.98587
▁ग्लो	-9.9859
▁जुना	-9.98591
▁सुरवात	-9.98604
ग्राफ	-9.98643
▁पक्षनेत	-9.98649
▁टीम	-9.98687
▁आधारावर	-9.9879
▁शेख	-9.98805
▁कुटुंबातील	-9.98896
▁कर्मचाऱ्यांनी	-9.98907
▁कंट्रोलर	-9.9893
ब्रेक	-9.98935
IV	-9.98936
▁उंट	-9.99107
▁प्रतिमा	-9.9927
क्षमता	-9.99576
▁निती	-9.9998
▁मीडिया	-10.0025
▁मृत	-10.0038
▁मोह	-10.0071
ब्लि	-10.0073
जिनोम	-10.011
पुढे	-10.0112
कोविड	-10.0112
सरकार	-10.0113
रात्र	-10.0138
▁नियोज	-10.0188
▁लागण्याच	-10.0192
टिंग	-10.0229
द्योग	-10.0287
▁विलग	-10.0291
▁पसरण्याच	-10.0291
▁अध्ययना	-10.0293
▁आवृत्ती	-10.0293
▁उमेदवार	-10.0293
▁केजरीवाल	-10.0293
▁कोल्हापूर	-10.0293
▁जॉन्सन	-10.0293
▁तारीख	-10.0293
▁दुष्परिणाम	-10.0293
▁प्राध्यापक	-10.0293
▁रामदेव	-10.0293
▁समन्वय	-10.0293
▁स्नायू	-10.0293
▁स्त्रिया	-10.0293
▁हॉटस्पॉट	-10.0293
▁आम्ल	-10.0293
▁रक्तदाब	-10.0293
▁शेकडो	-10.0293
▁कार्यस्थळ	-10.0293
▁धक्का	-10.0293
▁कुठला	-10.0293
▁EU	-10.0293
▁अंमल	-10.0293
▁सल्ल्या	-10.0293
▁थकवा	-10.0293
रविंद	-10.0293
▁वंचित	-10.0294
▁द्यावं	-10.0294
▁द्यायला	-10.0294
▁अखेरीस	-10.0294
▁गेलो	-10.0294
▁हंगाम	-10.0294
▁चंद्रपूर	-10.0295
▁भूषण	-10.0295
▁मतदान	-10.0298
दोष	-10.0298
▁राज्यभरात	-10.0299
्युल	-10.0301
▁१६	-10.0303
▁अनुसर	-10.0303
▁मध्यस्थ	-10.0303
▁समावेशासह	-10.0305
▁पोहोचवण्या	-10.0308
▁लावून	-10.031
▁सेवेत	-10.0335
णूक	-10.0343
रेख	-10.0349
▁द्यायच	-10.0352
▁शास्त्रज्ञां	-10.0441
▁वर्गा	-10.0478
▁कृ	-10.0523
मुद	-10.0526
▁शासन	-10.0534
▁उपचारां	-10.0547
मार्ग	-10.0566
सध्या	-10.0569
▁चुक	-10.0653
▁बनवण्या	-10.0664
▁कोरड	-10.0668
▁करोनाबाधितांच	-10.0743
DCGI	-10.0748
२२९ई	-10.0748
▁अर्थव्यवस्था	-10.0748
▁अल्कोहल	-10.0748
▁खवखव	-10.0748
▁जनजागृती	-10.0748
▁जिल्हाधिकाऱ्यां	-10.0748
▁देखभाल	-10.0748
▁पाकिस्तान	-10.0748
▁युनेस्को	-10.0748
▁सर्वप्रथम	-10.0748
▁सिस्टिम	-10.0748
▁सेकंद	-10.0748
▁अवघड	-10.0748
▁पाहणी	-10.0748
▁मजूर	-10.0748
▁खोलीत	-10.0748
▁आपापल	-10.0748
▁कल्पना	-10.0748
▁दुखण्या	-10.0748
▁राऊत	-10.0748
▁परवड	-10.0748
▁राष्ट्राध्यक्ष	-10.0748
▁स्वरुपात	-10.0748
▁चोळ	-10.0748
▁पुनर्	-10.0748
▁बराच	-10.0749
▁श्वसनमार्गा	-10.0749
▁मोकळ	-10.0754
▁बचाव	-10.0755
▁सामोर	-10.0758
▁अपुर	-10.0759
▁प्रभावीपणा	-10.076
▁स्पष्टीकरण	-10.0769
▁टक्क्यांपर्यंत	-10.0773
प्प	-10.0774
▁असणं	-10.0775
▁असणे	-10.0782
▁ठरेल	-10.0788
खाली	-10.0796
▁मंत्रालय	-10.0807
श्च	-10.0853
▁निर	-10.0867
ॅशन	-10.0867
म्युनिटी	-10.0867
▁राखण्या	-10.0874
कूल	-10.0891
▁दुकानां	-10.0928
▁शिल्	-10.0957
योजन	-10.0966
▁वयोगटा	-10.0971
▁सलग	-10.0972
93	-10.0989
▁शिक्षणमंत्र	-10.1016
▁मानवां	-10.1029
विलगीकरण	-10.1041
जिल्हा	-10.1042
संबंधित	-10.1043
लॉकडाऊन	-10.1043
बंदी	-10.1045
▁४०	-10.1054
हजर	-10.1087
▁तज्ज्ञांन	-10.11
▁माणसा	-10.1103
▁तक्रार	-10.1124
▁चर्च	-10.1145
▁रोगां	-10.1154
▁कंट्रोल	-10.1184
शंक	-10.1186
नियंत्र	-10.1222
▁ड्रग	-10.1223
क्षेप	-10.1224
चिंचवड	-10.1224
▁डोकेदुखी	-10.1224
▁दूतावास	-10.1224
▁दौर	-10.1224
▁पिंपरी	-10.1224
▁फेटाळ	-10.1224
▁भाजीपाला	-10.1224
▁मृतदेह	-10.1224
▁संध्याकाळी	-10.1224
▁हाँगकाँग	-10.1224
▁हॅण्ड	-10.1224
▁राष्ट्रवादी	-10.1224
▁सीडीसी	-10.1224
▁2019-20	-10.1224
▁तत्त्व	-10.1224
▁दुखणे	-10.1224
▁माणसं	-10.1224
▁सुरळीत	-10.1224
▁आरंभ	-10.1224
▁वर्कर्स	-10.1224
▁मेसेज	-10.1224
▁आशिया	-10.1224
▁सुट्टी	-10.1224
▁स्कूल	-10.1224
▁जिल्ह्य़ात	-10.1224
▁इंटरनेट	-10.1224
▁संदेश	-10.1224
▁नेपाळ	-10.1224
▁लंडन	-10.1224
▁अंगावर	-10.1224
▁चक्र	-10.1224
▁नाईट	-10.1225
▁घातली	-10.1225
▁दाह	-10.1227
▁कुटुंबीयां	-10.1228
▁घसर	-10.1229
रुस्त	-10.1229
▁अद्य	-10.1231
▁नर्सेस	-10.1232
▁अहवालानुसार	-10.1236
▁१४	-10.1236
▁पावलं	-10.1246
▁२२	-10.1259
▁साजर	-10.1263
▁चायन	-10.1266
▁पाहा	-10.1285
▁अधिकाऱ्या	-10.1302
गामी	-10.1311
64	-10.1361
नवाब	-10.1362
▁मोठ	-10.1366
क्लो	-10.1381
क्षि	-10.1431
▁संवेदनशील	-10.1434
क्षेत्र	-10.1539
ACE	-10.1542
SARS	-10.1543
आम्ही	-10.1543
आणि	-10.1543
▁ह्यांन	-10.1669
▁पाहत	-10.1671
http	-10.1724
://	-10.1724
दीर्घ	-10.1724
▁रोगनिदान	-10.1724
▁वृत्तसंस्थे	-10.1724
▁सहकाऱ्यां	-10.1724
सायटोक	-10.1724
▁RTPCR	-10.1724
▁अजिबात	-10.1724
▁आश्वास	-10.1724
▁एन्टीबॉडी	-10.1724
▁घरोघर	-10.1724
▁जिवाणू	-10.1724
▁डब्लूएचओ	-10.1724
▁दृष्टिकोन	-10.1724
▁निष्क्रिय	-10.1724
▁बिहार	-10.1724
▁समर्थन	-10.1724
▁विधानसभ	-10.1724
▁कुठले	-10.1724
▁कृषी	-10.1724
▁प्रवक्त	-10.1724
▁गुन्ह	-10.1724
▁वाईट	-10.1724
प्ताह	-10.1724
▁विवेक	-10.1724
▁विमानतळ	-10.1725
▁रिकाम	-10.1725
▁बरीच	-10.1725
▁उपयुक्त	-10.1727
▁अग्नि	-10.1728
▁घडीला	-10.1728
▁ट्रॅकिंग	-10.1728
▁आवरण	-10.173
▁त्याचबरोबर	-10.1731
▁अपयश	-10.1733
नशील	-10.1738
▁राखणे	-10.174
गॅस	-10.174
▁पृष्ठभागावर	-10.1744
▁संस्थांनी	-10.1748
पांडे	-10.175
▁ब्रिट	-10.1768
▁वाढण्या	-10.1781
▁सापडलेल	-10.1833
३६	-10.186
▁खाटांच	-10.1875
शहरांमध्ये	-10.1909
▁आळ	-10.1956
कडील	-10.1986
▁नागरिकांन	-10.1989
▁रस्त्या	-10.2052
आधारित	-10.2068
मुंबई	-10.2068
▁माहित	-10.2155
▁बाजू	-10.2192
▁आखाड्या	-10.225
▁खोकताना	-10.225
▁ठेवणं	-10.225
▁तालुका	-10.225
▁प्राधिकरणा	-10.225
▁प्रामुख्यान	-10.225
▁रिकव्हरी	-10.225
▁व्हॅक्सीन	-10.225
▁सुश्रुष	-10.225
▁सॅनिटा	-10.225
▁हाफकिन	-10.225
्फ्ल्युए	-10.225
▁दुखणं	-10.225
▁पॅकेज	-10.225
▁स्रोत	-10.225
स्पाईक	-10.225
▁पशूजन्	-10.225
▁चिंताजनक	-10.225
▁डिसीज	-10.225
▁टप्पे	-10.225
▁येणे	-10.225
▁नागरी	-10.225
▁सोलापूर	-10.225
▁सल्लागार	-10.225
▁चिंते	-10.225
▁अॅडव्ह	-10.225
▁सिनेमा	-10.225
्फ्लुए	-10.225
▁मंडळा	-10.225
▁उर्वर	-10.2251
▁बॅट	-10.2251
▁निकष	-10.2251
▁तेवढ	-10.2251
▁अलिकड	-10.2252
▁कल्याण	-10.2252
▁नसते	-10.2252
▁दर्जा	-10.2252
ेश्वर	-10.2253
▁निवास	-10.2253
▁मांस	-10.2253
▁अपवाद	-10.2254
▁कलम	-10.2261
ED	-10.2261
DA	-10.2262
▁CT	-10.2264
▁चेहर	-10.2264
▁जाताना	-10.2268
▁मनपा	-10.2271
▁बोटां	-10.2274
र्फे	-10.2275
▁लावले	-10.2277
▁घातल्या	-10.229
ंकन	-10.2321
▁डोन	-10.2349
▁महत्व	-10.2362
गरम	-10.2405
्षिक	-10.2445
▁ठराव	-10.2467
▁समजाव	-10.2499
ांमधून	-10.2499
▁मृतांच	-10.2586
व्हायरल	-10.2622
WHO	-10.2624
योग्य	-10.2624
कोरोनाव्हायरस	-10.2625
मास्क	-10.2626
माझ	-10.2626
ानंद	-10.2658
▁शनिवार	-10.2706
कोरोनामुक्त	-10.2723
▁करु	-10.2765
▁नसलेल	-10.2794
▁विकस	-10.2795
▁शरीर	-10.28
EEA	-10.2806
दृश्य	-10.2806
▁अस्तित्व	-10.2806
▁आढळली	-10.2806
▁कामगिरी	-10.2806
▁कार्यकर्ते	-10.2806
▁कौतुक	-10.2806
▁गुठळ्या	-10.2806
▁ठेवलं	-10.2806
▁तारखे	-10.2806
▁थायलंड	-10.2806
▁बाजारपेठा	-10.2806
▁बायडन	-10.2806
▁भौगोलिक	-10.2806
▁महिना	-10.2806
▁मुद्द्यां	-10.2806
▁व्यवस्थित	-10.2806
▁सामुदायिक	-10.2806
▁हरिद्वार	-10.2806
▁हायकोर्टा	-10.2806
▁हृदयविकार	-10.2806
▁अनिश्चित	-10.2806
▁आदिवासी	-10.2806
▁गरोदर	-10.2806
▁जीनसंच	-10.2806
▁मेडिसिन	-10.2806
▁साताऱ्यात	-10.2806
▁संमेलन	-10.2806
▁चिन्ह	-10.2806
▁आत्तापर्यं	-10.2806
▁GP	-10.2806
▁परवाना	-10.2806
▁किमती	-10.2806
▁अलीकडेच	-10.2806
▁कार्यवाही	-10.2806
▁गरीब	-10.2806
▁ड्रग्ज	-10.2807
▁नसतील	-10.2807
▁सूज	-10.2807
▁अनुकूल	-10.2807
द्राव	-10.2808
ation	-10.2808
▁पाऊल	-10.281
सारणी	-10.282
▁पुरुषां	-10.2825
▁विद्य	-10.2825
▁लावल्या	-10.2839
कल्प	-10.2846
▁पुरवण्या	-10.2964
▁पडण्या	-10.2991
▁बाधितांच	-10.3058
▁शाह	-10.3093
कुव	-10.3111
नवजात	-10.3115
▁सेंट	-10.3131
▁कडू	-10.3167
मोहन	-10.3222
नोव	-10.3234
▁इम्युन	-10.324
▁अडचण	-10.3267
▁वाचवण्या	-10.3284
▁महिलांन	-10.3296
▁प्रयोगशाळे	-10.3354
▁येई	-10.3355
निमित्त	-10.3376
ाध्यक्ष	-10.3394
म्ब्युलन्स	-10.3394
▁अहमदनगर	-10.3394
▁आसपास	-10.3394
▁औपचारिक	-10.3394
▁कर्नाटक	-10.3394
▁जागरूक	-10.3394
▁जावडेकर	-10.3394
▁डेन्मार्क	-10.3394
▁दूषित	-10.3394
▁रेस्टॉरंट	-10.3394
▁विदर्भात	-10.3394
▁शिफारशी	-10.3394
▁श्रेणी	-10.3394
▁हायपॉक्सिया	-10.3394
▁अंत्यसंस्कार	-10.3394
▁टिश्यू	-10.3394
▁व्हेंटीलेटर	-10.3394
बिंदू	-10.3394
▁आढळणाऱ्या	-10.3394
▁इलेक्ट्रॉन	-10.3394
▁विभाज	-10.3394
ह्यूमन	-10.3394
▁उच्चांक	-10.3394
▁वगळण्या	-10.3394
▁रुमाल	-10.3394
▁स्कॅन	-10.3394
▁टॅक्सी	-10.3394
▁स्वागत	-10.3394
▁US	-10.3394
▁इथल्या	-10.3394
▁वर्तवल	-10.3394
▁हल्ला	-10.3394
▁पीएम	-10.3394
▁मागितली	-10.3394
▁सूत्र	-10.3394
▁प्रकृती	-10.3394
साहेब	-10.3395
▁नसतो	-10.3395
▁बजाव	-10.3395
▁निगड	-10.3395
▁लावली	-10.3395
अॅस्ट्र	-10.3395
शिवाजी	-10.3396
इंजिन	-10.3396
▁यकृत	-10.3396
▁निकट	-10.3397
▁दाब	-10.3401
लिव्हर	-10.3406
ममता	-10.3445
▁शिक्ष	-10.3446
▁सत्रा	-10.3496
▁आणू	-10.3527
वडील	-10.3575
वर्धन	-10.3632
▁अवयवां	-10.3637
▁राबवण्या	-10.3648
▁सातत्य	-10.3651
▁आणत	-10.3709
नाकारण	-10.372
▁अवयव	-10.3767
▁उपकरणां	-10.3797
▁कोव्हॅक्स	-10.3829
▁साठवण्या	-10.3858
▁तंत्रज्ञ	-10.3941
▁क्ष	-10.3961
▁एरोसोल	-10.4019
क्लोरोक्विन	-10.4019
▁अधिवेशन	-10.4019
▁उत्तराखंड	-10.4019
▁काळाबाजार	-10.4019
▁कुंभमेळा	-10.4019
▁जंतुनाशक	-10.4019
▁दीर्घकाळ	-10.4019
▁ध्येय	-10.4019
▁निवेदन	-10.4019
▁पंढरप	-10.4019
▁पत्नी	-10.4019
▁प्रवृत्त	-10.4019
▁रहिवासी	-10.4019
▁रिस्पॉन्स	-10.4019
▁सहव्याधी	-10.4019
प्लिकेशन	-10.4019
▁ठेवला	-10.4019
▁निवडणुका	-10.4019
▁मुलाखती	-10.4019
▁हॅन्ड	-10.4019
▁समुद्र	-10.4019
▁जीनोम	-10.4019
▁रायगड	-10.4019
▁समाधान	-10.4019
▁खोकल्या	-10.4019
▁मंडळी	-10.4019
▁दीर्घकाल	-10.4019
▁विलंब	-10.4019
▁सहकारी	-10.4019
▁भागीदार	-10.4019
▁पार्सल	-10.4019
▁राज्यपाल	-10.402
▁कामकाज	-10.402
▁क्रिये	-10.402
▁हिवाळ	-10.402
▁रूम	-10.4021
▁सीमे	-10.4021
▁उठव	-10.4022
▁विचारणा	-10.4022
▁भाविकां	-10.4024
▁न्यायालयान	-10.4029
▁लावता	-10.4058
▁अकरा	-10.4068
रोधी	-10.4103
फॉर्म	-10.4105
क्टिव्ह	-10.4142
▁हाताळण्या	-10.4151
▁बाध	-10.4486
प्रणाली	-10.4503
आरोग्य	-10.4505
मर्याद	-10.4506
▁संयोज	-10.4656
▁सायकल	-10.4682
वैद्यक	-10.4686
एचकेयु	-10.4686
स्पेशालिटी	-10.4686
▁अध्यक्षतेखाली	-10.4686
▁अभिनेत	-10.4686
▁आंतरप्रजाती	-10.4686
▁एन्फ्ल्युएन्झ	-10.4686
▁एफडीए	-10.4686
▁किलोमीटर	-10.4686
▁गुंतवणूक	-10.4686
▁जिल्हे	-10.4686
▁झोपडपट्ट	-10.4686
▁डाऊनलोड	-10.4686
▁डॅशबोर्ड	-10.4686
▁द्रुत	-10.4686
▁न्यूयॉर्क	-10.4686
▁पर्यटन	-10.4686
▁प्लाझ्मा	-10.4686
▁मनुष्यबळ	-10.4686
▁महासंचालक	-10.4686
▁मूल्यमापन	-10.4686
▁मॉड्यूल	-10.4686
▁रहिवाशांन	-10.4686
▁विषारी	-10.4686
▁व्यापाऱ्यां	-10.4686
▁शस्त्रक्रिया	-10.4686
▁सांस्कृतिक	-10.4686
▁सुनावणी	-10.4686
▁स्फोट	-10.4686
ent	-10.4686
मूर्ती	-10.4686
▁आश्चर्य	-10.4686
▁कॅडिला	-10.4686
▁झायडस	-10.4686
▁स्टोरेज	-10.4686
▁नोकरी	-10.4686
▁राहणं	-10.4686
▁सूक्ष्मजीव	-10.4686
▁ठेवले	-10.4686
▁संयुग	-10.4686
▁हालचाली	-10.4686
▁अपघात	-10.4686
▁चव्हाण	-10.4686
▁समजातीय	-10.4686
▁अवस्था	-10.4686
▁प्रतिकृती	-10.4686
▁नाराजी	-10.4686
▁शिंदे	-10.4686
▁तिकीट	-10.4686
▁चित्रपट	-10.4686
▁ट्रान्स	-10.4686
▁सतर्क	-10.4686
▁पांढ	-10.4686
▁मिळणाऱ्या	-10.4686
▁लावणे	-10.4686
▁गर्भपात	-10.4686
▁दखल	-10.4686
▁पगार	-10.4686
ायटीस	-10.4687
▁अँटीजेन	-10.4687
▁वाहक	-10.4687
▁आराम	-10.4687
▁एम्स	-10.4688
▁तरूण	-10.4689
▁वर्तन	-10.4689
▁वायू	-10.4689
▁जखम	-10.4689
वडिलां	-10.469
पूर्त	-10.469
▁दारू	-10.469
रितीने	-10.4692
खाद्य	-10.4692
ांत्रिक	-10.4697
▁आणले	-10.4699
गुरू	-10.4702
▁लावाव	-10.4714
▁मंत्रिमंडळाच	-10.4723
▁अलीकड	-10.4732
▁सूचनांच	-10.4752
रचनात्मक	-10.4796
▁उभारण्या	-10.4846
▁शेजार	-10.5018
▁ट्रॅक	-10.505
ावाटे	-10.507
आमच	-10.5102
सागर	-10.5139
▁पत्रकारां	-10.5195
संपर्क	-10.5218
करोना	-10.5223
▁पकड	-10.5252
▁मंत्रिमंडळ	-10.5361
▁पुरुष	-10.5376
com	-10.54
▁दक्ष	-10.54
▁अर्थसंकल्प	-10.54
▁गैरसमज	-10.54
▁नेतृत्व	-10.54
▁रणनीती	-10.54
▁वॉशिंग्टन	-10.54
aharashtra	-10.54
अँजिओटेनसीन	-10.54
कायदेशीर	-10.54
ॅण्टीबॉडी	-10.54
ॉक्सीक्लोरोक्विन	-10.54
▁अल्फा	-10.54
▁आदित्य	-10.54
▁इन्स्टिट्युट	-10.54
▁कन्टेनमेंट	-10.54
▁केंब्रिज	-10.54
▁कौशल्य	-10.54
▁गाईडलाईन्स	-10.54
▁तैवान	-10.54
▁दुर्दैवी	-10.54
▁पंजाब	-10.54
▁पंधरा	-10.54
▁प्रायोगिक	-10.54
▁फटाक्यां	-10.54
▁महानगरपालिके	-10.54
▁माणूस	-10.54
▁मुद्द्यावर	-10.54
▁लर्निंग	-10.54
▁वटवाघूळ	-10.54
▁साळुं	-10.54
▁स्मशानभूमी	-10.54
▁तुपे	-10.54
▁थेंब	-10.54
बुद्धी	-10.54
▁कागदपत्रं	-10.54
▁इच्छित	-10.54
▁2012	-10.54
▁रक्कम	-10.54
ILI	-10.54
▁इमर्ज	-10.54
▁एजंट	-10.54
▁ठेऊ	-10.54
▁आक्रमक	-10.54
▁मिश्र	-10.54
अन्वेष	-10.54
▁आस्थापना	-10.54
▁शत्रू	-10.54
▁पातळ्या	-10.54
▁धुतल्या	-10.54
▁पोषक	-10.54
▁ऑर्डर	-10.54
▁जुळ	-10.5401
▁दूध	-10.5401
▁राहावं	-10.5401
▁रॅप	-10.5401
▁नसतात	-10.5401
▁सातारा	-10.5401
▁सक्ती	-10.5401
▁कार्यकर्त्यां	-10.5401
▁बाजी	-10.5401
▁वर्षांखाल	-10.5404
▁नोंदविण्या	-10.5404
▁सचिवालया	-10.5404
मावेश	-10.5405
▁ट्विटरवर	-10.5409
▁पाहण्या	-10.5412
▁भरण्या	-10.5461
विधी	-10.548
▁धुव	-10.5524
▁कळवण्या	-10.5705
▁उत्पाद	-10.5845
▁पर्यटक	-10.5863
▁विद्यार्थ्या	-10.5875
िअल	-10.59
कॅन	-10.5922
▁बोलण्या	-10.5971
त्काळ	-10.6169
▁हर्ष	-10.6169
ool	-10.6169
▁प्रचारसभा	-10.6169
▁विशाखा	-10.6169
स्ट्राझेनेका	-10.6169
स्प्रेडर	-10.6169
▁आढळलं	-10.6169
▁उस्मानाबाद	-10.6169
▁एंझाइम	-10.6169
▁कारखाने	-10.6169
▁चिकित्सक	-10.6169
▁टास्कफोर्स	-10.6169
▁टेड्रोस	-10.6169
▁तुलनेन	-10.6169
▁तुषार	-10.6169
▁थेरपी	-10.6169
▁दिलासादायक	-10.6169
▁फोर्टिस	-10.6169
▁व्हेंटिलेशन	-10.6169
▁सक्रीय	-10.6169
▁सपोर्ट	-10.6169
▁सल्लामसलत	-10.6169
▁सावधगिरी	-10.6169
▁सोलापुरात	-10.6169
▁स्टॉर्म	-10.6169
▁स्वयंसेवकां	-10.6169
▁हायपोक्सिया	-10.6169
▁आयएमए	-10.6169
▁इंडस्ट्री	-10.6169
▁क्लासेस	-10.6169
▁देईल	-10.6169
▁पुनःसंयोज	-10.6169
▁पॅटर्न	-10.6169
▁फेडरल	-10.6169
▁शिफ्ट	-10.6169
▁संक्राम	-10.6169
▁तपशील	-10.6169
▁नोटीस	-10.6169
▁लोकप्रिय	-10.6169
▁आणिबाणी	-10.6169
▁तरतूद	-10.6169
▁निरंजन	-10.6169
▁कंटेनमे	-10.6169
▁टीव्ही	-10.6169
▁थोरात	-10.6169
▁मुद्दे	-10.6169
▁राहणे	-10.6169
▁अंकित	-10.6169
▁व्याप्ती	-10.6169
▁किशोर	-10.6169
श्लेष	-10.6169
▁मांजर	-10.6169
MIS	-10.6169
▁स्त्री	-10.6169
▁mRNA	-10.6169
▁सज्ज	-10.6169
▁नसतं	-10.6169
▁सवलत	-10.6169
▁मुभा	-10.617
▁प्रगती	-10.617
▁मजब	-10.617
▁आरक्षणा	-10.617
▁गार्ड	-10.617
▁परजीव	-10.617
▁दिशेन	-10.617
▁नाकारता	-10.6171
▁संकल्पन	-10.6171
▁पर्वा	-10.6173
भोवत	-10.618
▁धुता	-10.6181
▁निमित्तान	-10.6193
्फ्ल	-10.6217
▁पुसू	-10.624
▁बदलण्या	-10.6246
▁ढकलण्या	-10.6313
उष्	-10.6336
ste	-10.6338
▁मारण्या	-10.6414
▁कोरोनाबाधितांच	-10.6454
शासनाने	-10.6557
▁मिनिटां	-10.663
प्रमाण	-10.6738
व्हायरस	-10.6779
▁सोडण्या	-10.6804
प्राप्त	-10.682
कोव्हॅक्सिन	-10.6821
मोठ्या	-10.6821
▁प्रशिक्ष	-10.6985
बुधवार	-10.7001
दर्शक	-10.7001
▁उपाध्य	-10.7002
▁नक्षलवाद	-10.7002
▁आकड्यां	-10.7003
▁इत्यादी	-10.7003
▁द्राक्ष	-10.7003
▁पतंजली	-10.7003
▁भेदभाव	-10.7003
▁यवतमाळ	-10.7003
▁विष्ठे	-10.7003
▁स्वास्थ्य	-10.7003
ओसी४३	-10.7003
क्रिप्शन	-10.7003
लॉजिस्ट	-10.7003
▁MPSC	-10.7003
▁उत्तेजन	-10.7003
▁उन्हाळ्या	-10.7003
▁उशिरा	-10.7003
▁काटेकोर	-10.7003
▁किंग्डम	-10.7003
▁कोलमड	-10.7003
▁क्लोरोक्वीन	-10.7003
▁तडजोड	-10.7003
▁तामिळनाडू	-10.7003
▁देणगी	-10.7003
▁धूम्रपान	-10.7003
▁पेट्रोल	-10.7003
▁फेसबुक	-10.7003
▁भोजनालय	-10.7003
▁रक्तवाहिन्या	-10.7003
▁श्वसनयंत्र	-10.7003
▁डोळ्यां	-10.7003
▁निम्न	-10.7003
▁पुरस्कार	-10.7003
▁सफाई	-10.7003
▁सांगितल्या	-10.7003
▁श्रेय	-10.7003
▁प्रार्थना	-10.7003
▁रशियन	-10.7003
NHS	-10.7003
▁लेव्हल	-10.7003
▁विमानसेवा	-10.7003
▁पाहणं	-10.7003
▁वयस्कर	-10.7003
▁निसर्ग	-10.7003
▁मंदाव	-10.7003
पंचायत	-10.7003
▁जर्नल	-10.7003
▁परीक्षण	-10.7003
▁स्विकार	-10.7003
▁अखिल	-10.7003
▁प्रदर्श	-10.7003
▁पुराव्या	-10.7003
अभूतपूर्व	-10.7003
▁कपडे	-10.7003
▁सांगली	-10.7003
▁1201	-10.7005
▁धोरणां	-10.701
▁कुटुंबियां	-10.7022
▁पटींन	-10.7034
▁सर्वोत्	-10.7053
▁पाळण्या	-10.7147
भाजी	-10.7157
समायोज	-10.7174
▁आशादाय	-10.7249
tion	-10.7294
▁पर्यटकां	-10.7346
▁रक्तद्रव	-10.7483
▁देशांमध	-10.749
विषाणू	-10.769
अखेर	-10.7728
कुमार	-10.7729
पातळीवर	-10.773
आर्थिक	-10.773
▁म्हटल	-10.7768
▁शुक्रवार	-10.7812
▁यंत्र	-10.7884
त्यक्ष	-10.7904
▁डिस्टन्स	-10.7905
▁नेदरलँड	-10.7912
▁भौतिक	-10.7912
▁विश्वसनीय	-10.7912
▁हरियाणा	-10.7912
India	-10.7912
एनएल६३	-10.7912
ावस्थेत	-10.7912
▁अवस्थेत	-10.7912
▁असुरक्षित	-10.7912
▁अॅडमिट	-10.7912
▁आजूबाजू	-10.7912
▁ऑक्सिमीटर	-10.7912
▁कंटेन्मेंट	-10.7912
▁कमतरते	-10.7912
▁कार्यपद्धती	-10.7912
▁खेळाडू	-10.7912
▁गडचिरोली	-10.7912
▁छाननी	-10.7912
▁डुकराच	-10.7912
▁त्सुनामी	-10.7912
▁निम्म्या	-10.7912
▁निरनिराळ	-10.7912
▁निशाणा	-10.7912
▁पेडणेकर	-10.7912
▁बांधिलकी	-10.7912
▁रणनिती	-10.7912
▁रणनीति	-10.7912
▁रिक्षा	-10.7912
▁व्यत्यय	-10.7912
▁व्हिडीओ	-10.7912
▁शेंझेन	-10.7912
▁समस्ये	-10.7912
▁सीताराम	-10.7912
▁स्त्रीरोगतज्ज्ञ	-10.7912
ऐ	-12.7017
‘	-12.7018
ौ	-12.7019
औ	-12.702
ऱ	-12.7021
ॉ	-12.7022
“	-12.7022
