<pad>	0
</s>	0
<unk>	0
▁	-1.38538
¦	-2.02461
▁¦	-2.69123
ም	-3.62729
ን	-3.77259
፥	-4.25523
ት	-4.35993
።	-4.43548
በ	-4.45539
ው	-4.55187
ና	-4.56163
ለ	-4.56213
ል	-4.60826
፤	-4.82889
የ	-4.84658
▁የ	-4.87985
▁በ	-4.9527
አ	-5.06952
ተ	-5.14274
ስ	-5.15514
መ	-5.21669
▁።	-5.22166
ያ	-5.30725
ከ	-5.31368
ር	-5.32128
ች	-5.37508
ንም	-5.5307
ህ	-5.53327
ይ	-5.5924
ድ	-5.59548
▁አ	-5.62631
ላ	-5.63736
▁፥	-5.64714
▁ከ	-5.66237
ረ	-5.75436
ቸ	-5.75872
ብ	-5.77937
ዋ	-5.83995
ሰ	-5.8619
ባ	-5.87291
▁ወደ	-5.89203
ማ	-5.91652
ገ	-5.96306
ደ	-6.01562
?	-6.02067
▁ሁሉ	-6.03314
ወደ	-6.05462
ጠ	-6.09229
ሁሉ	-6.09244
ሁ	-6.10194
▁፤	-6.10264
ራ	-6.15754
ችሁ	-6.1656
ጥ	-6.17377
▁እንደ	-6.21505
ግ	-6.36639
ሳ	-6.37664
ፍ	-6.4264
ነው	-6.43165
እንደ	-6.45099
ቱ	-6.46252
▁ላይ	-6.46475
▁ይ	-6.47868
▁ዘንድ	-6.4901
እን	-6.51377
ላይ	-6.60922
ዘንድ	-6.62691
▁እግዚአብሔር	-6.64423
እ	-6.6491
እግዚአብሔር	-6.67663
▁ግን	-6.68141
ሉ	-6.72489
▁እ	-6.7406
ግን	-6.78127
▁ጊዜ	-6.82476
▁ስለ	-6.87844
▁ነገር	-6.88072
▁ጋር	-6.94933
ቢ	-6.95303
ቃ	-6.95425
ጣ	-6.99724
ነገር	-7.0163
ኑ	-7.03719
ሰው	-7.0713
▁ልጅ	-7.08766
▁ልጆች	-7.09589
ልጆች	-7.10922
ካ	-7.11592
ጋር	-7.12168
ስለ	-7.12535
ልጅ	-7.1436
ልና	-7.16246
ፋ	-7.18915
ም።	-7.22999
▁ሰው	-7.23726
ሲ	-7.25796
▁ሆይ፥	-7.279
ኛ	-7.2862
▁እኔ	-7.30515
እኔ	-7.32844
▁እንዲህ	-7.35184
አለ	-7.35436
▁ቀን	-7.41015
ዱ	-7.42245
▁ቤት	-7.43214
ቀን	-7.43831
ቤት	-7.45244
▁ፊት	-7.46972
ቃል	-7.48776
ነበር	-7.49076
ፊት	-7.50377
እንዲ	-7.5115
▁አለው።	-7.57438
እንዲህ	-7.59116
▁ደግሞ	-7.6089
▁ነው።	-7.60942
▁ጌታ	-7.63272
▁ሰዎች	-7.63398
ሰዎች	-7.63596
ነበረ	-7.63699
ገባ	-7.64453
▁ነበር።	-7.66091
ንጉሥ	-7.66272
▁ቃል	-7.6778
▁አለ።	-7.67832
ወጣ	-7.68761
አንድ	-7.69347
ሆነ	-7.69949
መጣ	-7.69973
▁ድረስ	-7.729
▁ምድር	-7.72902
▁እርሱ	-7.73502
▁እስከ	-7.73857
ምድር	-7.74334
▁አንድ	-7.74625
▁ንጉሥ	-7.75131
እርሱም	-7.77184
ሱ	-7.78583
▁አንተ	-7.78679
▁አይ	-7.78872
እርሱ	-7.79934
አንተ	-7.80186
▁ይህ	-7.81413
ወር	-7.81726
▁ውስጥ	-7.81917
▁እነሆ፥	-7.81921
▁በእግዚአብሔር	-7.83482
ድረስ	-7.84857
ደግሞ	-7.85257
ሆይ	-7.86128
ዬ	-7.88624
▁ብሎ	-7.90672
▁እግዚአብሔርም	-7.93853
ሆ	-7.95347
ውስጥ	-7.9555
እስከ	-7.97349
▁ነው፤	-7.97886
▁በኋላ	-7.98412
እነሆ	-7.98499
እግዚአብሔርም	-7.98761
ናቸው	-8.0112
አለው	-8.02484
ይህ	-8.02693
▁ይህን	-8.0313
▁አምላክ	-8.04032
▁እናንተ	-8.04553
እንዳይ	-8.04658
ብሎ	-8.05404
ሁለት	-8.05481
ይላል	-8.05548
ደስ	-8.05617
▁ወይም	-8.06401
▁እጅ	-8.07054
እጅ	-8.07496
▁መካከል	-8.07793
አይ	-8.0834
ሥራ	-8.093
▁ዓመት	-8.09805
መካከል	-8.10402
እናንተ	-8.10923
ሕዝብ	-8.11389
አምላክ	-8.114
ከፍ	-8.11448
ማን	-8.12138
▁እርሱም	-8.12382
በኋላ	-8.14644
በእግዚአብሔር	-8.14901
▁የእግዚአብሔር	-8.15613
▁መቶ	-8.15764
ያን	-8.16118
ሠራ	-8.17634
ብዙ	-8.18389
▁ስለዚህ	-8.18878
ባል	-8.19557
ተው	-8.2271
▁ሕዝብ	-8.23141
▁አላቸው።	-8.23366
ዓመት	-8.23816
ማል	-8.24364
▁ሁለት	-8.2558
ማለ	-8.25873
▁ነበረ።	-8.26383
▁ደስ	-8.27358
ሰማ	-8.28122
ኢየሱስ	-8.28693
ኃጢአት	-8.28905
ሄ	-8.29379
ና።	-8.29565
ወይም	-8.29895
ይሆናል	-8.30472
ፈራ	-8.30874
▁እንጂ	-8.31324
▁በዚያ	-8.31519
▁ነበር፤	-8.31635
ነበሩ	-8.31799
▁ለእግዚአብሔር	-8.32725
ይህን	-8.32917
▁እግዚአብሔርን	-8.34736
ሆኑ	-8.37034
ከተማ	-8.37413
▁ምን	-8.37998
ሰብ	-8.38272
▁መሥዋዕት	-8.38331
▁ስፍራ	-8.4008
▁ይላል።	-8.40596
▁እንዲሁ	-8.40768
ጠፋ	-8.41482
ስለዚህ	-8.41539
እነዚህ	-8.41883
ኢየሩሳሌም	-8.4219
አሕዛብ	-8.42804
ያለ	-8.42827
ገቡ	-8.43061
▁በዚያም	-8.4472
▁እኔም	-8.45204
▁ጊዜ፥	-8.4602
ገና	-8.46558
እነርሱም	-8.46896
ገዛ	-8.47059
▁የእግዚአብሔርን	-8.47114
▁የእስራኤል	-8.47704
የእግዚአብሔር	-8.48009
መልካም	-8.48577
▁እጅግ	-8.48994
▁እነርሱም	-8.49408
▁ውኃ	-8.49991
ስም	-8.50513
በር	-8.51333
እግዚአብሔርን	-8.51787
▁ከእርሱ	-8.52185
እኔም	-8.52297
▁ሺህ	-8.53197
▁አቤቱ	-8.53937
▁ብዙ	-8.53976
▁ሁሉ፥	-8.54773
እንጂ	-8.54821
መሥዋዕት	-8.54931
በዚያ	-8.55045
ኔ	-8.55219
▁በምድር	-8.56392
ሦስት	-8.56395
ስፍራ	-8.56442
▁ከፍ	-8.56869
ወንድ	-8.57273
!	-8.57643
ክብር	-8.57878
▁መልካም	-8.5813
ከዚያም	-8.58148
ሄደ	-8.58565
▁በዚህ	-8.58583
▁እርሱም።	-8.588
▁ጀምሮ	-8.59318
ሰጠ	-8.60056
▁ከተማ	-8.60141
▁ዘመን	-8.60154
▁መንገድ	-8.60352
▁ያለ	-8.61347
መንገድ	-8.62431
▁ነበረ፤	-8.62479
▁በእስራኤል	-8.62575
▁ነበሩ።	-8.62615
አላቸው	-8.62804
ጆ	-8.63694
በዚህ	-8.6452
ሺህ	-8.64529
እንዲሁ	-8.65037
▁ማን	-8.65097
ላለ	-8.65421
ጅ	-8.65439
ዔ	-8.65601
▁ሥራ	-8.66915
ለእግዚአብሔር	-8.67115
ክርስቶስ	-8.67225
ተኛ	-8.67856
▁አገር	-8.67888
በላ	-8.68209
በዚያም	-8.68212
የእስራኤልም	-8.6829
ከእርሱም	-8.68347
▁አለቆች	-8.6835
ዲ	-8.69255
አገር	-8.69719
▁ነው፥	-8.69907
ጠላ	-8.69988
▁ታላቅ	-8.70706
እነርሱ	-8.70753
ያዕቆብ	-8.70887
▁ሆነ	-8.71662
ዘመን	-8.71844
ሰላም	-8.73767
▁አለቃ	-8.73803
▁እነዚህ	-8.73852
ባለ	-8.74012
ሴቶች	-8.74184
በል	-8.74579
ጠራ	-8.74635
▁ሴት	-8.75048
ልብ	-8.75187
▁ዘንድ፥	-8.76057
የእግዚአብሔርን	-8.76329
እጅግ	-8.76368
አለቆች	-8.76372
▁ይላል	-8.76419
▁እንዲህም	-8.76719
▁ለዘላለም	-8.7689
▁ሌላ	-8.76914
አቤቱ	-8.77441
ሰልፍ	-8.77541
ሆነው	-8.77813
የእስራኤል	-8.78719
ፍርድ	-8.78962
▁በእርሱ	-8.7971
ናችሁ	-8.80643
በሉ	-8.80716
ች።	-8.81064
ግብጽ	-8.81297
▁እንግዲህ	-8.81386
የእግዚአብሔርም	-8.81576
ቃሉ	-8.82203
ታላቅ	-8.82443
▁ንጉሡ	-8.83086
▁ድምፅ	-8.8309
▁ይሆናል።	-8.83122
ከእርሱ	-8.83263
አብርሃም	-8.84029
ንጉሡም	-8.84339
ጠብ	-8.84595
ሰባት	-8.84595
አደረገ	-8.84692
▁አሁን	-8.84822
▁አሉት።	-8.85122
ያው	-8.85239
▁ሰባት	-8.85616
ሌዋውያን	-8.85796
አባቴ	-8.86817
ጠጣ	-8.87289
ይሁን	-8.87538
▁ዳዊት	-8.87975
በምድር	-8.88129
መከራ	-8.88164
ማንም	-8.88181
▁ወገን	-8.88389
ገር	-8.8857
አንቺ	-8.88612
ወገን	-8.88834
ቸውንም	-8.88935
እኛ	-8.88954
መንፈስ	-8.89196
▁እነሆም	-8.89229
ነውና	-8.89513
▁እንጀራ	-8.90332
▁ከእኔ	-8.9072
▁ይልቅ	-8.90964
እንጀራ	-8.91154
▁ንጉሡም	-8.91264
▁መንፈስ	-8.91481
▁ኢየሱስ	-8.91571
አለቃ	-8.91673
ካህናት	-8.92
እውነት	-8.9207
▁አጠገብ	-8.92085
▁ሕግ	-8.92557
በእስራኤል	-8.92609
ተስፋ	-8.93189
▁ክንድ	-8.93201
ሕዝቡም	-8.93472
▁ሙሴን	-8.93722
አሥራ	-8.93728
▁ክርስቶስ	-8.93826
ራሱ	-8.94136
▁እነርሱ	-8.94233
▁ያለውን	-8.94461
▁ናቸው።	-8.95206
▁እኛ	-8.9537
▁ሆኖ	-8.95527
የለም	-8.95535
▁እስኪ	-8.95757
ሳኦል	-8.96262
ማር	-8.96339
ስማ	-8.96992
አሳ	-8.97289
አሮን	-8.97552
ከእነርሱም	-8.97735
አብ	-8.97759
▁በኩል	-8.97763
▁አሁንም	-8.9785
አሁን	-8.97856
አይሁድ	-8.97917
▁የሰው	-8.97924
▁ኃጢአት	-8.98079
በራ	-8.98099
ዳዊትም	-8.98462
ላሉ	-8.98636
ተራራ	-8.98643
መቅደሱ	-8.98799
እህል	-8.98942
▁ሦስት	-8.98959
▁ብለው	-8.99134
እምነት	-8.99379
ደም	-8.99461
አንዱ	-8.99613
▁ዕቃ	-8.9972
▁አሳ	-9.00068
እንዲህም	-9.00121
▁በታች	-9.00321
ይሁዳ	-9.0042
አምላክህ	-9.00647
▁እንዴት	-9.01164
▁ከተሞች	-9.01527
ግባ	-9.01885
▁ዳዊትም	-9.01963
▁የተነሣ	-9.02133
ጣል	-9.02229
▁አምስት	-9.02615
እንግዲህ	-9.0262
ሕይወት	-9.02766
ሁለተኛው	-9.02768
አለሁ	-9.03062
▁እግዚአብሔር።	-9.03137
▁ሴቶች	-9.03312
▁ሙሴም	-9.03336
▁ከእግዚአብሔር	-9.03403
ተናገረ	-9.03485
▁ከአንተ	-9.03596
በታች	-9.03754
ነገሠ	-9.04057
▁ብቻ	-9.0488
ዮሴፍ	-9.04948
ግራ	-9.0513
ሁለቱ	-9.0516
▁ስም	-9.05265
▁ቍርባን	-9.05468
ተነሣ	-9.05537
▁ማንም	-9.05606
ድምፅ	-9.05621
ተቀመጡ	-9.057
ባሕር	-9.05804
▁ነበር፥	-9.05811
ብለው	-9.05928
ለዘላለም	-9.06121
በምድረ	-9.06671
ክንድ	-9.06924
▁ሀያ	-9.07036
ለምን	-9.07111
አሉ	-9.07114
▁የሆነ	-9.07551
አምስት	-9.07595
ያደርግ	-9.07725
▁ከእናንተ	-9.08037
▁ዘር	-9.08218
ላከ	-9.08225
▁አሉ።	-9.0824
እያንዳንዱ	-9.08445
ነገሥታት	-9.08471
አሳልፎ	-9.08513
▁ፍሬ	-9.09041
አውራ	-9.09192
መቅደስ	-9.0948
▁ኢየሱስም	-9.09645
ጌታዬ	-9.09652
እንዲያ	-9.09881
ነቢያት	-9.1
ልባቸው	-9.10037
በደ	-9.10167
▁አሥራ	-9.10405
መለከት	-9.10446
አምላካችን	-9.10636
ፌ	-9.10668
▁ተራራ	-9.10817
ድንጋይ	-9.11362
መለሰ	-9.11522
በእርሱ	-9.11749
▁ኪዳን	-9.11753
ዓለም	-9.11794
ብር	-9.11811
▁ስሙ	-9.1224
ሄዱ	-9.12299
አጠገብ	-9.12415
ጥፋት	-9.12429
ነበሩት	-9.13024
ሰማያት	-9.13141
▁ነገድ	-9.13337
ቅዱስ	-9.1366
ቅዱሳን	-9.13749
ከተሞች	-9.13987
▁ልብ	-9.14276
ነበርና	-9.14397
ምስጋና	-9.14423
▁ይሆናል፤	-9.14429
ይልቅ	-9.1448
ራስ	-9.1478
አባቱ	-9.14878
▁ከእነርሱ	-9.15308
ነቢዩ	-9.15785
▁እስራኤል	-9.15984
ስብ	-9.16122
ኤፍሬም	-9.16219
ወለደ	-9.16421
አፍ	-9.1645
ዋንም	-9.17033
ያወጣ	-9.1704
ጣሉ	-9.17145
ኢዮአብ	-9.17166
ርያ	-9.17795
ሳሙኤል	-9.17863
ባሪያ	-9.17991
ፍራ	-9.18012
ያለውን	-9.18034
ቍርባን	-9.1846
ባቢሎን	-9.1875
ጥበብ	-9.18766
▁ናቸው፤	-9.19209
▁ደግሞም	-9.19229
አሁንም	-9.19301
▁ሕዝቡን	-9.19511
እስኪ	-9.19557
ዘይት	-9.19693
እሳት	-9.20049
▁አሕዛብ	-9.20122
የሰው	-9.20227
▁በኢየሩሳሌም	-9.20239
ምድረ	-9.20434
ተራሮች	-9.20704
▁ያለው	-9.20736
ከእኔ	-9.21175
የሆነ	-9.21223
በኩል	-9.21281
አራት	-9.21492
እነሆም	-9.21494
ባሪያህ	-9.21768
አይደለም	-9.21964
▁የሠራዊት	-9.2204
ኢየሱስም	-9.22121
ወረደ	-9.22155
ጥላ	-9.2221
▁ሆነ፤	-9.2222
ሳሉ	-9.22802
▁ደቀ	-9.22888
ነገድ	-9.22923
መንግሥት	-9.23134
ጥል	-9.23225
ሰጠው	-9.2332
የተነሣ	-9.23505
ሰንበት	-9.23637
▁አራት	-9.23836
ባለው	-9.23956
ድር	-9.24028
▁ለእስራኤል	-9.24051
▁በዚያን	-9.24103
ካህኑ	-9.24363
ዘረጋ	-9.24364
ደረሰ	-9.24738
እንዴት	-9.24907
▁ወንድ	-9.24996
ፈርዖን	-9.25004
ደቡብ	-9.25122
ሰይፍ	-9.25535
ሰጣቸው	-9.25637
ያደርጉ	-9.25822
ቢሆን	-9.25987
▁ልጆች፥	-9.25989
▁ወይስ	-9.26029
ብላ	-9.26469
ተናገረው	-9.26601
▁ነገሥታት	-9.26689
▁ክብር	-9.26935
እርስዋም	-9.27036
ሰባ	-9.27376
▁ከእስራኤል	-9.27646
ራብ	-9.27673
▁እውነት	-9.27818
አይደለምን	-9.27972
▁በይሁዳ	-9.28023
▁ነበርና	-9.2803
▁ቅዱስ	-9.28282
ትሆን	-9.28323
ትእዛዝ	-9.28646
ጠል	-9.28794
ሕያው	-9.29414
እንስሳ	-9.29762
መጀመሪያ	-9.29864
▁አፍ	-9.3002
ጣለ	-9.30265
▁እንኳ	-9.30536
ልጆቹ	-9.30565
ከእግዚአብሔር	-9.30989
መልሶ	-9.30991
መለስ	-9.31168
ሺ	-9.3129
እስክ	-9.31705
መቱ	-9.31822
ከተማይቱ	-9.31848
ሰሎሞን	-9.31974
ድንኳን	-9.32142
እስራኤል	-9.322
▁መጣ።	-9.32555
ከእናንተ	-9.32587
▁እሳት	-9.32593
ነበረች	-9.32787
ምድሪቱ	-9.3308
መካ	-9.33187
▁ዳርቻ	-9.3322
▁ቍጣ	-9.33527
ዚ	-9.33591
ኢያሱ	-9.33751
ሆንሁ	-9.33803
▁ከዚህ	-9.33804
ከአንተ	-9.33837
ልብስ	-9.33927
ባላ	-9.34288
መገናኛው	-9.3438
▁በእውነት	-9.34623
▁ሕዝቡም	-9.34653
አምላካችሁ	-9.34741
ሠላሳ	-9.34797
ግድ	-9.35248
ስምዖን	-9.35421
አደረጉ	-9.35488
በጎች	-9.35506
▁ልብስ	-9.35825
በደል	-9.35836
▁በእኔ	-9.35965
▁ነበሩ፤	-9.35978
▁ይህች	-9.36172
ሌላው	-9.36213
▁ነበረ፥	-9.36258
መልክ	-9.36259
▁እርስዋም	-9.36287
ጥቂት	-9.36395
ካህናቱ	-9.36556
▁ባለ	-9.3725
መልስ	-9.37315
ይህንም	-9.37449
▁ነገ	-9.37515
ጠብቁ	-9.37585
ተራ	-9.37967
▁ገና	-9.38125
ወይን	-9.38179
▁ትእዛዝ	-9.38216
ርግ	-9.38313
ደግሞም	-9.38562
▁ምንድር	-9.38884
ብረት	-9.38966
ታቸውን	-9.39031
ባሉ	-9.39292
▁አንተም	-9.39297
▁ወር	-9.39606
ሰማይ	-9.39688
አንበሳ	-9.39691
በረታ	-9.39699
▁ከዚያ	-9.39734
ክፋት	-9.39837
▁ዛፍ	-9.39974
ማደሪያ	-9.4041
ጕድጓድ	-9.40558
ደመና	-9.40681
መጽሐፍ	-9.41544
እንጨት	-9.41616
▁ምንም	-9.41665
▁ቤቶች	-9.41736
▁ሰላም	-9.41918
አሉት	-9.41928
እግር	-9.41971
ኃይል	-9.42376
ገል	-9.42396
▁አድርጎ	-9.42512
ቀረበ	-9.42518
ምንድር	-9.42572
ምሕረት	-9.42831
ስድስት	-9.42865
▁ደም	-9.42869
▁የይሁዳ	-9.42992
▁በቀር	-9.43103
▁በእሳት	-9.43152
ዮርዳኖስ	-9.43166
▁ድንኳን	-9.43224
ያዕቆብም	-9.43828
ወንድሞቹ	-9.43901
ያለው	-9.44046
ሁላችሁ	-9.44053
ቆመው	-9.44135
አቤሴሎም	-9.44135
▁በሕይወት	-9.44178
▁በፊቱ	-9.4429
▁ወርቅ	-9.44595
ተቀመጠ	-9.44611
እርሻ	-9.44674
አማልክት	-9.44678
▁ሚስት	-9.45066
በኢየሩሳሌም	-9.45211
ረሱ	-9.45397
የሠራዊት	-9.45737
አምላኬ	-9.45822
▁አውራ	-9.46199
▁በእናንተ	-9.46322
ብንያም	-9.46337
ስምህ	-9.46343
ከእነርሱ	-9.46434
▁ባሪያ	-9.46497
አንተም	-9.46682
ኃያላን	-9.46904
ምርኮ	-9.47546
በዚያን	-9.47645
▁አብ	-9.47658
▁በውኑ	-9.47828
▁ሲል	-9.47944
አምሳ	-9.48207
▁ርስት	-9.4832
ኃጢአተኞች	-9.48794
መቃብር	-9.48795
ርስት	-9.48804
ሠራው	-9.48856
ሦስተኛው	-9.48996
▁ይህም	-9.49088
ያጠፋ	-9.49351
ወይስ	-9.49561
ይሰማ	-9.49575
በኣል	-9.49753
ኤልያስ	-9.49753
▁እርስ	-9.49824
መልሰው	-9.49841
ፍቅር	-9.50131
▁አምላክህ	-9.50165
ሠራዊት	-9.50337
▁ሌሊት	-9.50397
ሰማርያ	-9.50471
ውጣ	-9.50741
▁የእስራኤልን	-9.50857
ይሠራ	-9.50943
በግ	-9.51108
ይሆን	-9.51247
የሚቃጠለውን	-9.51369
▁መንግሥት	-9.51472
ኢዮርብዓም	-9.51698
▁ተስፋ	-9.51705
ብርሃን	-9.51777
▁የወይን	-9.5182
አራተኛው	-9.51864
ነፍስ	-9.51981
መሠዊያ	-9.52188
ሳለሁ	-9.52337
▁ኢየሩሳሌም	-9.52473
አስታ	-9.52684
▁ይሁን።	-9.52916
▁በአንተ	-9.53088
ጣት	-9.53136
ወንዶች	-9.5319
▁በግ	-9.53327
ይመጣል	-9.53467
ሳለ	-9.53485
አልዓዛር	-9.53681
▁ስለዚህም	-9.53685
ጠብቅ	-9.54209
▁በአንድ	-9.54285
▁ስድስት	-9.54304
▁ለአንተ	-9.5431
ከዚህም	-9.54463
ዔሳው	-9.54692
ገደለ	-9.54745
▁ራስ	-9.54761
▁ባሪያዎች	-9.54795
ውሰድ	-9.54848
ለእስራኤል	-9.5509
በእርሱም	-9.55128
▁ሆነ፥	-9.55174
አባትህ	-9.55527
እርስዋ	-9.55702
መሬት	-9.55705
▁ታቦት	-9.55705
ሰደደ	-9.55729
አባት	-9.55843
አድርጉ	-9.5619
አንዱም	-9.56291
ሆነች	-9.56756
ሰባቱ	-9.57106
▁ጠጅ	-9.57342
ደጅ	-9.57519
ዙፋን	-9.5777
ከእስራኤል	-9.58211
ዓይን	-9.58251
▁አለኝ።	-9.58468
ባሪያዎችህ	-9.58732
ሰባተኛው	-9.58737
ነቢይ	-9.58819
ከነዓን	-9.58819
ፍልስጥኤማውያን	-9.58839
በይሁዳ	-9.59289
በእውነት	-9.59301
ወንድሞች	-9.59548
ሽማግሌዎች	-9.59574
ነፋስ	-9.5985
መንግሥቱ	-9.59879
አራቱ	-9.59934
ይህች	-9.59943
▁ቢሆን	-9.60317
የባቢሎን	-9.60484
ሚስት	-9.60558
▁እንዲሆን	-9.60662
ግፍ	-9.60841
ጠጅ	-9.60909
መጋረጃ	-9.60951
በፍጹም	-9.60951
ጻድቃን	-9.60951
▁ሰይፍ	-9.60955
አርባ	-9.61003
▁ባሕር	-9.61303
▁አባት	-9.615
ራሱን	-9.6151
ይሆናሉ	-9.61543
▁ልጅ፥	-9.61581
▁ጽድቅ	-9.61602
ባይ	-9.61605
▁መልሶ።	-9.61706
ኤርምያስ	-9.62345
▁ወንድሞች	-9.62462
ወርድ	-9.62518
አደባባይ	-9.62725
ጳውሎስ	-9.62732
ጠላት	-9.6277
በእግዚአብሔርም	-9.62792
አራዊት	-9.63129
ድል	-9.63146
መንገዱ	-9.63269
▁በሰይፍ	-9.63326
ያልፍ	-9.63461
▁ዙሪያ	-9.63496
ዮሴፍም	-9.63893
▁ሁለቱ	-9.6405
▁ለእኔ	-9.64136
ሞገስ	-9.64236
ቸርነት	-9.64236
ከዚህ	-9.64406
▁ነፍስ	-9.64779
ፍየል	-9.64808
▁ወስዶ	-9.64981
ይኖራል	-9.65063
ምሳሌ	-9.65192
ያደረገ	-9.65289
ደኅንነት	-9.65327
ባሪያዎች	-9.65329
ድንኳኑ	-9.65355
ፍርሃት	-9.65355
በረከት	-9.65364
ተናገሩ	-9.65433
ይህም	-9.6547
ዮሐንስ	-9.65808
እነዚያ	-9.66055
አድርጎ	-9.66127
▁ዕጣ	-9.66149
▁ፍርድ	-9.66345
▁ባለው	-9.66375
▁አደረገ።	-9.6639
መጨረሻ	-9.66487
ምዕራብ	-9.66487
እግሩ	-9.66487
ጀመረ	-9.66487
ራሳችሁ	-9.66504
▁በፊትህ	-9.66508
ካሉ	-9.66556
ልካ	-9.666
ራእይ	-9.66635
በቀር	-9.66645
▁አሥር	-9.66661
▁እንዲሁም	-9.66779
▁አምሳ	-9.66908
ሰለ	-9.67155
ብርቱ	-9.67211
ሰሎሞንም	-9.67245
▁አንዱ	-9.67266
▁ይሆን	-9.67401
በፊቱ	-9.67437
▁ትንቢት	-9.67514
▁በጎች	-9.67515
ሰፈር	-9.67632
ኤዶምያስ	-9.67632
ጨለማ	-9.67934
▁አማልክት	-9.681
▁ድንጋይ	-9.68112
እንዳለ	-9.68235
አፌ	-9.68389
በእሳት	-9.68414
▁ከሰማይ	-9.68619
የአባቶቻቸው	-9.68672
▁ነውና	-9.6874
ፈሪሳውያን	-9.68791
▁የለም።	-9.68791
በሕይወት	-9.68799
አዲስ	-9.68814
▁ወለደ፤	-9.69124
ተራራው	-9.69198
ቅጥር	-9.69386
አመጡ	-9.69778
▁መጽሐፍ	-9.69824
በእኔ	-9.6985
▁በንጉሡ	-9.69858
▁ብርሃን	-9.69867
ናቡከደነፆር	-9.69962
በሬዎች	-9.69963
ሕዝቅያስ	-9.70332
ሆናችሁ	-9.70341
▁ጻድቅ	-9.70356
ከዚያ	-9.70645
መጠን	-9.70807
ጥራ	-9.71107
ደግ	-9.71134
አገሩ	-9.71139
አባቶቻችሁ	-9.71148
እርስ	-9.71308
በውኑ	-9.71457
▁መልአክ	-9.7152
እርሱን	-9.71903
ቤትህ	-9.71957
▁ወዲህ	-9.72005
እውቀት	-9.7215
ልብህ	-9.72218
ዳንኤል	-9.72348
የነበረው	-9.72835
▁ፋንታ	-9.72874
ወደደ	-9.7292
ካህኑም	-9.7311
አሥር	-9.73171
በምድርም	-9.73328
ታመን	-9.73563
አውቃለሁ	-9.73563
ፈረሶች	-9.73563
እህሉ	-9.73576
እናንተም	-9.73608
የይሁዳ	-9.73711
በእናንተ	-9.73935
▁ወራት	-9.74047
▁ሆነ።	-9.74262
▁ኃይል	-9.74285
▁ጉባኤ	-9.74325
ነገረ	-9.74354
▁ለምን	-9.74433
ከንቱ	-9.74593
ታደርጉ	-9.74716
ዘወትር	-9.74792
መግቢያ	-9.74794
መዛሙርቱ	-9.75125
▁መሠዊያ	-9.75189
▁እንዳለ	-9.75281
ይስሐቅ	-9.75582
የወይን	-9.75624
▁አለ፤	-9.7566
ጌታችን	-9.75665
▁ወጥቶ	-9.75991
የሚሆን	-9.76037
ፈልግ	-9.76037
ራሳቸው	-9.76076
ርሱ	-9.76108
ትንቢት	-9.76173
▁በላይ	-9.76337
▁ሽማግሌዎች	-9.76398
ዮናታን	-9.76433
▁ለእናንተ	-9.76559
አሮንም	-9.76599
ስለዚህም	-9.76637
ተመለሰ	-9.77273
ማስተዋል	-9.77298
ሦስቱ	-9.77298
በፍታ	-9.77298
▁ይሁን፤	-9.77361
ሥርዓት	-9.7738
▁ሳለ	-9.77388
▁ምልክት	-9.77625
ከእርስዋ	-9.77702
▁ወዲያ	-9.78079
ሳኦልም	-9.78283
▁ሥርዓት	-9.78411
የእስራኤልን	-9.78486
አደርጋለሁ	-9.78509
▁ሁልጊዜ	-9.78547
መድኃኒት	-9.78574
ሰነፍ	-9.78574
አባቶቻችን	-9.78574
ኢዮሣፍጥ	-9.78574
አመጣ	-9.7858
ባለች	-9.78636
ቃልህ	-9.78919
▁በውኃ	-9.78994
▁ነፍሴ	-9.79038
▁ሆንሁ	-9.79165
▁ከእኛ	-9.79214
አባቱን	-9.79229
▁ጆሮ	-9.79261
▁ሄደ።	-9.79549
ማናቸውም	-9.79705
▁ከእንግዲህ	-9.79762
▁አስቀድሞ	-9.7977
ይሉ	-9.79844
ምሕረቱ	-9.79867
ሰረገሎች	-9.79867
ከለዳውያን	-9.79867
ፋሲካ	-9.79869
ወንዶችና	-9.79915
ስፍራው	-9.79936
▁በሰማይ	-9.80378
▁ሕያው	-9.80414
ጠርቶ	-9.80445
ወንድምህ	-9.80491
የሰማይ	-9.80552
ልጆቹን	-9.80557
ወሰደ	-9.80584
ሲል	-9.80584
ምልክት	-9.80838
▁የምድር	-9.8087
▁በታላቅ	-9.80925
▁እናንተም	-9.81093
ዘላለም	-9.81109
▁ርኩስ	-9.81151
ማኅበሩ	-9.81178
▁እላችኋለሁ	-9.81233
ልጆቹም	-9.81753
▁ነውና።	-9.81785
አሕዛብም	-9.81813
▁ካህኑም	-9.82126
ነፍሱ	-9.82133
▁ምድረ	-9.82162
ያደርጋል	-9.82459
በአንድ	-9.82478
ያገለግሉ	-9.82505
▁ነፋስ	-9.82542
በአንተ	-9.82559
▁ነገሠ።	-9.82701
▁አወጣ	-9.82937
▁ግን።	-9.82965
▁አላት።	-9.83176
ገለዓድ	-9.83415
ሚስቱ	-9.836
ትውልድ	-9.83683
▁እስራኤልም	-9.83756
ከሆነ	-9.83768
ያመጡ	-9.8385
ጣፋጭ	-9.8385
ከግብጽ	-9.83928
▁ከንቱ	-9.8394
▁በግብፅ	-9.8403
ባሪያዬ	-9.84043
ትሆናለች	-9.84148
እንዲሆን	-9.84223
ወዲህ	-9.84237
ሰውም	-9.84385
ጽድቅን	-9.84391
▁ቢሆን፥	-9.84473
ሁለቱም	-9.84514
ሥራቸው	-9.84531
▁ይሁዳ	-9.84551
▁እንደዚህ	-9.8499
ቤቱን	-9.85003
▁ብዛት	-9.85136
አድርጌ	-9.85202
ልጆቻችሁ	-9.85214
መላእክት	-9.85214
ደጃፍ	-9.85214
ዳግመኛ	-9.85214
አሳልፌ	-9.85215
ስድሳ	-9.85283
ያመጣ	-9.85365
ላለች	-9.85516
▁በእጁ	-9.8575
አህያ	-9.85843
▁ለእርሱ	-9.85993
ወራት	-9.86048
አልነበረም	-9.86106
▁ብለህ	-9.86124
ጠሉ	-9.86237
ረብ	-9.86249
▁አንዳች	-9.86341
▁አንቺ	-9.86404
ፈርዖንም	-9.86492
ግንብ	-9.86514
ሠራዊቱ	-9.86593
ሊባኖስ	-9.86596
አገልግሎት	-9.86596
አግኝ	-9.86596
አፈር	-9.86596
ኬብሮን	-9.86596
▁ስንኳ	-9.86596
ብዛት	-9.86676
ተገለጠ	-9.86738
ስተው	-9.86751
▁አርባ	-9.86791
▁የወርቅ	-9.86848
▁ብር	-9.86988
▁ጳውሎስ	-9.871
▁ከምድር	-9.87146
▁የነበረውን	-9.87153
ይበላ	-9.87251
▁ሠላሳ	-9.87646
▁ዳዊትን	-9.8767
ለት።	-9.87696
ማርያም	-9.8771
እንዲሁም	-9.87733
አምላኩ	-9.87998
እባክህ	-9.87998
ዮአስ	-9.87998
አምላካቸው	-9.88006
▁ተናገረው።	-9.88083
▁ምክንያት	-9.88094
እንድን	-9.88265
ሆንህ	-9.88371
በሰይፍ	-9.88414
ሳለች	-9.88627
መለሱ	-9.88669
እልል	-9.88725
ፍልስጥኤማውያንም	-9.88794
ተናገር	-9.88797
▁ያህል	-9.88938
ሆድ	-9.89114
ራስህ	-9.89308
ተደረገ	-9.89391
ለሚቃጠል	-9.8942
ማኅበር	-9.8942
ሲኦል	-9.8942
▁ብዬ	-9.89499
▁መጥተው	-9.89705
ነፍስህ	-9.89743
እንዳዘዘው	-9.8975
በፊትህ	-9.90078
ለአንተ	-9.90272
▁የሚል	-9.90379
መልአክ	-9.90411
ታደርግ	-9.90552
▁ለንጉሡ	-9.90624
▁ጥቂት	-9.90629
ሥራው	-9.90714
▁የንጉሡ	-9.90816
በሮች	-9.90862
ተነሥተው	-9.90862
አሞራውያን	-9.90862
ወስደው	-9.90862
ምስክር	-9.9108
▁ጊዜም	-9.91091
ወንጌል	-9.91155
ናቸውና	-9.91233
እጅህን	-9.91277
ሳን	-9.91329
ባልዋ	-9.91531
ካህናቱም	-9.91587
ፋንታ	-9.91655
▁ሰማይ	-9.91756
ለዚህ	-9.91759
አየሁ	-9.91836
▁ጥበብ	-9.91948
የበግ	-9.92232
▁ተቀምጦ	-9.92292
ተሰበሰቡ	-9.92324
እንዳደረገ	-9.92326
እውነተኛ	-9.92326
ምናልባት	-9.92326
ርኩስ	-9.92356
ድንበር	-9.92379
ገደሉ	-9.92508
ከሰማይ	-9.92528
አንዳች	-9.92597
በመካከላቸው	-9.92716
ይኖር	-9.92826
▁አደረገ፤	-9.92907
ላባ	-9.92961
እናት	-9.92977
ሰቅል	-9.93025
▁ክፍል	-9.93074
▁ሰቅል	-9.93107
ሁኑ	-9.93119
▁እኔን	-9.93196
▁ራሱን	-9.9323
በት።	-9.93332
▁ነውር	-9.93352
▁መጠን	-9.93398
እስራኤልም	-9.93595
ብሩን	-9.93806
ሽማግሌ	-9.93811
ኃጢአቱ	-9.93811
የሚያደርግ	-9.93811
ፈረሰ	-9.93811
ድሆች	-9.93824
ይሆኑ	-9.9406
▁ከግብፅ	-9.94111
▁ሳኦልም	-9.94194
ወዲያ	-9.94274
▁ነበርና።	-9.94349
ብዙዎች	-9.94398
ገንዘብ	-9.94415
ብለህ	-9.94588
ብዬ	-9.94648
ያህል	-9.94727
▁በመንገድ	-9.94759
ቍጥር	-9.95043
ብል	-9.95187
ኮረብታ	-9.95257
ዱር	-9.95274
መልካሙን	-9.95319
መሐላ	-9.95319
ሰማያዊ	-9.95319
በምሥራቅ	-9.95319
እንስሶች	-9.95319
ወጥተው	-9.95319
የአገሩ	-9.9533
ጠቢብ	-9.95333
ሆኖአል	-9.95444
እያለ	-9.9546
እያንዳንዱም	-9.95481
ተመለሱ	-9.95602
▁ሕይወት	-9.95657
በሉት	-9.95668
ተናገርሁ	-9.95752
ተባት	-9.95763
ንቃ	-9.95831
▁ወጣ።	-9.96082
ወለደች	-9.96657
▁የሆነውን	-9.96681
▁ምሳሌ	-9.96696
አንደኛው	-9.96849
እሰጣለሁ	-9.96849
ወንድሞቻቸው	-9.96849
የሚሆነውን	-9.96849
ያይ	-9.96949
አይሆንም	-9.96969
መጥቶ	-9.97052
ከእስራኤልም	-9.97178
ኃጢአተኛ	-9.97339
ስድብ	-9.97377
▁እስራኤልን	-9.97469
▁መከራ	-9.97546
አንዲት	-9.97749
▁ይቅር	-9.97811
በእስራኤልም	-9.97882
ዓይንህ	-9.97943
ይሁኑ	-9.98043
▁ለዳዊት	-9.98223
ቅርብ	-9.98399
ርዝመቱ	-9.98404
ሴዴቅያስ	-9.98404
በሰሜን	-9.98404
አእምሮ	-9.98404
ክፉዎች	-9.98404
ወጥመድ	-9.98404
▁ዓለም	-9.98429
ያደረገውን	-9.98448
አደርግ	-9.98516
አምስተኛው	-9.98585
▁ትውልድ	-9.98608
▁በክርስቶስ	-9.98938
አድርግ	-9.99076
ፈቃድ	-9.99127
ማለት	-9.99179
▁መዛሙርቱ	-9.9929
▁ሰዓት	-9.99454
እነዚህም	-9.99467
▁ባየ	-9.99621
▁ምስክር	-9.99659
አባቱም	-9.99802
እሄዳለሁ	-9.99983
እንግዳ	-9.99983
እንግዶች	-9.99983
የሚችል	-9.99983
ፈጠረ	-9.99983
የሚለው	-9.99983
አበኔር	-9.99991
ተራራማው	-9.99996
በመጀመሪያው	-10.0005
▁ለሕዝቡ	-10.0006
▁ባድማ	-10.0008
▁በመሠዊያው	-10.0049
ሕዝብህ	-10.0051
ይዘው	-10.0052
የከበረ	-10.0057
ተማረ	-10.0062
▁በአንድነት	-10.0065
አልሁ	-10.0073
ዋይ	-10.0076
ግብፅ	-10.0087
መሠዊያው	-10.0108
▁በር	-10.0112
ወገኖች	-10.0123
ታውቃላችሁ	-10.0129
▁በኢየሩሳሌምም	-10.0153
ተገኘ	-10.0159
በቀል	-10.0159
ቀርበው	-10.0159
ትዕቢት	-10.0159
ክርስቲያን	-10.0159
ደማስቆ	-10.0159
ግብፃውያን	-10.0159
ጠቦቶች	-10.0159
▁አምላኬ	-10.0185
መብል	-10.0197
ራራ	-10.0209
a	-10.0213
▁ተብሎ	-10.0225
▁አይደለም።	-10.0228
▁የዳዊት	-10.0228
ይወድ	-10.0232
በላቸው	-10.0234
▁የዘላለም	-10.0256
▁እጁን	-10.0258
▁በልቡ	-10.0267
▁በፊት	-10.0271
ተመልሶ	-10.0277
▁በአሕዛብ	-10.0279
እናቱ	-10.0288
▁አለው፤	-10.0309
▁እርስዋ	-10.0319
በየወገናቸው	-10.0322
አጋንንት	-10.0322
ወረዱ	-10.0322
ውኆች	-10.0322
የሚቃጠል	-10.0322
ደብዳቤ	-10.0322
ዘመኑ	-10.0322
ጠላቶቻቸው	-10.0322
መጠጥ	-10.0328
መልከ	-10.0331
አስቀድሞ	-10.0334
አባቶች	-10.0346
▁አደባባይ	-10.0382
▁ንጉሡን	-10.0388
ከእኛ	-10.0388
ከእንግዲህ	-10.04
▁መስፈሪያ	-10.041
▁ፈቃድ	-10.0411
አደረ	-10.0413
ራሳቸውን	-10.0414
አይተው	-10.0437
▁በሰማ	-10.046
ልጆቻቸው	-10.0469
▁እነዚህን	-10.0476
እላችኋለሁ	-10.048
አካዝ	-10.0487
መቅሠፍት	-10.0487
በእርግጥ	-10.0487
ወልድ	-10.0487
ዕረፍት	-10.0487
የአሦር	-10.0487
መታሰቢያ	-10.0487
በላያቸው	-10.0488
ሰጣችሁ	-10.0489
ኖረው	-10.0491
በሰማይ	-10.0491
ትቢያ	-10.0505
ገሊላ	-10.0511
ቤቱም	-10.0512
▁ወጣ፥	-10.052
ማድረግ	-10.054
በዙሪያው	-10.0557
በትር	-10.0563
ያምኑ	-10.0565
በለው	-10.0567
ብላችሁ	-10.0584
እድል	-10.0598
▁አይደለም	-10.0604
▁አሳብ	-10.061
▁በሌሊት	-10.062
▁አድርገው	-10.0621
▁እንጨት	-10.0622
▁ዓይን	-10.0628
▁ኃጢአትን	-10.0631
▁አይሁድ	-10.0635
በታላቅ	-10.0649
መርዶክዮስ	-10.0656
ማኅፀን	-10.0656
ዓይኔ	-10.0656
ጸልይ	-10.0656
ተአምራት	-10.0656
ትምህርት	-10.0656
▁ናት፤	-10.0661
የተሠራ	-10.0672
ጠላቶችህ	-10.0684
የሰጠ	-10.0686
አምባ	-10.0704
ሐዋርያት	-10.0715
ፊተኛው	-10.0717
በእርስዋ	-10.072
ሁለተኛ	-10.0721
ላቸው።	-10.0727
ያሉ	-10.0731
ጣለች	-10.0736
እጃቸው	-10.0741
▁እርሱን	-10.0747
▁ኤርምያስ	-10.0778
ካለ	-10.0787
አቀረበ	-10.0791
▁ያሉትን	-10.08
ተቀመጥ	-10.0805
በረዶ	-10.0827
ተቀበሉ	-10.0827
አባታችን	-10.0827
▁ሂዱ	-10.0827
▁ምክር	-10.0827
ይችላል	-10.0828
ይመጣሉ	-10.083
በግብፅ	-10.0834
ሶርያውያን	-10.0835
ርስቱ	-10.0841
▁አለችው።	-10.0847
እንደዚህ	-10.0856
ሳይሆን	-10.0857
▁በቤቱ	-10.087
ሁልጊዜ	-10.0877
▁ምርኮ	-10.0881
አክዓብ	-10.0886
ብላቴና	-10.0895
▁ወደዚህ	-10.0909
በእርስዋም	-10.0924
በእጁ	-10.0934
▁ይዘው	-10.0943
▁በዓል	-10.0943
▁ካህኑ	-10.0945
▁አለች።	-10.098
▁አድርግ	-10.0984
ለእኔ	-10.0998
ኤልሳዕ	-10.1002
ወንድሙን	-10.1002
ይጠፋል	-10.1009
▁ከይሁዳ	-10.1009
▁በባሕር	-10.1012
ሳኦልን	-10.1027
እነዚህን	-10.103
ለእናንተ	-10.1031
▁ለሰው	-10.1047
ወሰዱ	-10.105
የወርቅ	-10.1065
ክፍል	-10.1089
ያንን	-10.1107
በእጃቸው	-10.114
የእሳት	-10.115
▁ሰሎሞን	-10.1167
ምክንያት	-10.1167
ባድማ	-10.1175
የእግዚአብሔርንም	-10.1176
ማዕዘን	-10.1179
ተቀምጠው	-10.1179
አስቴር	-10.1179
ኢዮስያስ	-10.1179
እግሮች	-10.1179
ይናገራል	-10.1179
ጲላጦስ	-10.1179
▁ዕለት	-10.1179
አጠፋለሁ	-10.1179
መርከብ	-10.118
ሰይጣን	-10.118
ተከተለ	-10.118
መምህር	-10.118
ምድያም	-10.1183
መልሱ	-10.1185
▁የነበሩትን	-10.1193
አላት	-10.1196
ድካም	-10.1199
▁ጴጥሮስ	-10.1206
▁እያሉ	-10.122
ስንፍና	-10.1221
ይቅር	-10.1248
በላይ	-10.1277
ሰማሁ	-10.1279
በጨለማ	-10.1291
▁ፍጻሜ	-10.13
▁ልጆች፤	-10.1306
ትሰማ	-10.1307
አስብ	-10.132
ሰጡት	-10.1323
መጥተው	-10.1325
ገደሉት	-10.134
ወርዱ	-10.1344
ትተው	-10.1349
ዙፋኑ	-10.1352
ይናገሩ	-10.1352
መስገጃዎች	-10.136
መንግሥታት	-10.136
መዝሙር	-10.136
ተግሣጽ	-10.136
ታመኑ	-10.136
ታውቃለህ	-10.136
ታደርጋለህ	-10.136
አይደለሁም	-10.136
የአሞን	-10.136
ድንጋጤ	-10.136
በርሳችሁ	-10.1361
ደጆች	-10.1361
አትፍራ	-10.1366
▁ወንድም	-10.1373
እልፍ	-10.1375
ጴጥሮስም	-10.1388
ይሰጣል	-10.1392
የለውም	-10.1395
▁ወገኖች	-10.14
የምድር	-10.1414
ላላችሁ	-10.1428
የነበረውን	-10.1433
▁አይደለም፤	-10.1435
አሳብ	-10.1437
ምሕረትህ	-10.1441
▁ያሉት	-10.1444
▁ቅጥር	-10.145
▁አልሁ።	-10.1455
▁መጥቶ	-10.1482
▁አደረጉ።	-10.1486
▁አንተን	-10.1509
ተቈጠሩ	-10.1541
ተቀበለ	-10.1544
አቤሜሌክ	-10.1544
ከዋክብት	-10.1544
ኮረብቶች	-10.1544
ይሄዳል	-10.1544
▁ልጁን	-10.1544
አይችልም	-10.1545
አባታቸው	-10.1549
ያድር	-10.155
▁በምን	-10.1564
ለካ	-10.1572
የዚህ	-10.1572
▁ካህናት	-10.1574
ርኵሰት	-10.1576
▁ቍጥር	-10.1578
ከተማይቱም	-10.1595
▁በብዙ	-10.1608
▁ልብሱን	-10.162
▁አንዲት	-10.1623
▁ነውና፤	-10.1628
▁ጌታዬ	-10.1632
እጅግም	-10.1637
▁በኢየሱስ	-10.1652
ልብሱን	-10.1657
ይጠራ	-10.1666
ከፋ	-10.172
▁በሰው	-10.1725
እርሻው	-10.1729
መጻተኛ	-10.1732
መኖሪያ	-10.1732
ቸነፈር	-10.1732
ንፍታሌም	-10.1732
ድንጋዮች	-10.1732
ምድራቸው	-10.1732
ጠማማ	-10.1736
▁ያሉ	-10.1736
ያላችሁ	-10.1741
ብሉ	-10.1743
ይገባል	-10.1748
ያውቃል	-10.1762
▁ናት።	-10.1771
▁ወጣ፤	-10.1777
▁በሆነ	-10.1779
ምናምን	-10.1782
ከግብፅ	-10.1793
▁ቃሌን	-10.1795
▁ብላ	-10.1805
▁እርሻ	-10.1813
መስፈሪያ	-10.1819
▁እኛም	-10.1836
የሆነውን	-10.1844
ተለየ	-10.1857
ካህን	-10.1858
▁የለም፤	-10.1868
ይቀር	-10.1874
▁ሠራዊት	-10.1886
መሠረት	-10.1923
ያገኙ	-10.1923
ምናሴም	-10.1923
ተፈጸመ	-10.1923
አትፍሩ	-10.1923
ኢሳይያስ	-10.1923
አንዲቱ	-10.1923
ሰምተው	-10.193
ትሆኑ	-10.1945
ሁላቸው	-10.1948
ተከለ	-10.1969
በሰው	-10.1973
ከምድር	-10.1973
ምድሪቱም	-10.1976
ይበሉ	-10.1981
▁ፍርድን	-10.1986
ይስሐቅም	-10.1993
▁በእነርሱ	-10.204
▁በርሳቸው	-10.2045
ከአንቺ	-10.2053
▁የነበሩ	-10.2072
▁በአሥራ	-10.208
▁አምላካችሁ	-10.2082
ትሁን	-10.2101
ባቸው።	-10.2108
በመንገድ	-10.2116
መንገዳቸው	-10.2118
ሮብዓም	-10.2118
ተቈጣ	-10.2118
አትክልት	-10.2118
እሾህ	-10.2118
እኅት	-10.2118
ከአባቶቹ	-10.2118
ክርክር	-10.2118
ይናገራሉ	-10.2118
ጕልማሳ	-10.2118
ጠይቅ	-10.2118
ፈጽመው	-10.2118
ፍርዴ	-10.2118
ፍየሎች	-10.2118
▁ጊዜ።	-10.2118
አምስቱ	-10.2119
ገመድ	-10.2132
ብቻውን	-10.2144
▁በእጅህ	-10.2154
▁በዚህም	-10.2164
▁ሰባ	-10.2165
▁የተቀደሰ	-10.2166
ይሄዱ	-10.2176
▁ጠቦት	-10.2183
▁ምድርን	-10.2191
ያድን	-10.2198
▁የነበሩት	-10.2198
▁ዘይት	-10.2199
▁መቅደስ	-10.2215
ስራ	-10.2216
▁አምላካችን	-10.2221
አለች	-10.2231
አባቶቻቸው	-10.2232
ተመለስ	-10.2263
የይሁዳም	-10.2264
▁በከንቱ	-10.2266
ዓይኖች	-10.2276
እናቱም	-10.2287
ይመለስ	-10.2296
እጁን	-10.23
መዛሙርት	-10.2316
በሐሰት	-10.2316
ታላላቆች	-10.2316
አሴር	-10.2316
እለምንሃለሁ	-10.2316
እግሮቹ	-10.2316
ዘካርያስ	-10.2316
ፈረሰኞች	-10.2316
ፍላጻ	-10.2316
አይደሉም	-10.2316
▁መብል	-10.2328
▁በደል	-10.2328
አፍህ	-10.2336
ደመናው	-10.2358
▁ኢያሱም	-10.2369
ስምንት	-10.2372
መልኩ	-10.2372
▁ናቸው፥	-10.2373
እኛም	-10.2373
ጠራው	-10.2389
ገድል	-10.2393
መታው	-10.2415
▁በፊታቸው	-10.242
በአንድነት	-10.2434
ተባለ	-10.2435
ወይኑ	-10.2441
የአሮን	-10.2442
መልሳ	-10.2448
▁መጡ።	-10.2451
▁ጭፍራ	-10.2451
▁በእኛ	-10.2455
ጴጥሮስ	-10.2457
መሥዋዕትና	-10.2465
ናቸውን	-10.2471
ያዋን	-10.2477
በመሠዊያው	-10.2485
▁ወደዚያ	-10.2488
በኢየሩሳሌምም	-10.2502
መዝገብ	-10.2519
ትእዛዙ	-10.2519
ኢዮራም	-10.2519
እያንዳንዳቸው	-10.2519
መፍራት	-10.2521
አፋቸው	-10.2521
ድንገት	-10.2524
በክርስቶስ	-10.253
ወዲያውም	-10.2535
▁ሄዱ።	-10.2541
ስስ	-10.2544
ያደረ	-10.256
እስራኤልን	-10.257
▁ነውና፥	-10.2584
▁አንዱን	-10.2602
ውያንም	-10.2612
▁ካህን	-10.2623
የዘላለም	-10.2638
ከበረ	-10.2642
▁ይሆናሉ።	-10.2643
▁ብዙዎች	-10.2644
ይላሉ	-10.2648
▁በራሱ	-10.2649
▁በመንፈስ	-10.2651
አለቃው	-10.2691
▁ለፊት	-10.2716
ሰጥቶ	-10.2723
ሐሰተኛ	-10.2726
ምስክሩ	-10.2726
ተቀበል	-10.2726
ነፍሳቸው	-10.2726
አንጻር	-10.2726
ከነዓናውያን	-10.2726
ዛብሎን	-10.2726
ያጸና	-10.2726
ትሆናለህ	-10.2726
እፍረት	-10.2726
ለእርሱ	-10.274
አሮንና	-10.2746
መንደሮችዋ	-10.2755
ከአሕዛብ	-10.2761
▁ነፍሴን	-10.2771
ርግብ	-10.2778
▁ባሪያህ	-10.2795
ይጠብቁ	-10.2817
▁ተቀመጡ።	-10.2825
▁ተናገር	-10.2829
▁የዚያን	-10.2839
▁ሕዝቅያስ	-10.2871
▁ከሰው	-10.2871
አበባ	-10.2873
ሰጠሁ	-10.2894
ተሰጠ	-10.2919
▁ወይን	-10.2926
አለቆችና	-10.293
መሰምርያ	-10.2936
ምድሩን	-10.2937
ራሔል	-10.2937
ተመለከተ	-10.2937
አቀረቡ	-10.2937
አድርገህ	-10.2937
የሚመስል	-10.2937
ፈረስ	-10.2937
ነገራቸው	-10.2937
ተመልከት	-10.2938
▁የብር	-10.2942
እባብ	-10.2947
▁ይወጣል	-10.2952
▁ቢኖር	-10.2957
ለዚያ	-10.2958
ገለባ	-10.2959
ሚስቱን	-10.2977
አድርገው	-10.2981
▁ድረስ፥	-10.2984
▁በዮርዳኖስ	-10.301
ጠየቀ	-10.3011
ወርዱም	-10.3041
▁ክፋት	-10.3048
በእነርሱ	-10.3053
ናትና	-10.3055
ጥና	-10.31
▁በዳዊት	-10.3113
ይለዋል	-10.3114
▁ሥልጣን	-10.3131
ተብሎ	-10.3135
ሂድ፥	-10.3153
ሄሮድስ	-10.3153
ሚስቶች	-10.3153
ቁርበት	-10.3153
ነገዶች	-10.3153
ኢትዮጵያ	-10.3153
እሴይ	-10.3153
ወይራ	-10.3153
ያቀርቡ	-10.3153
ይቀመጡ	-10.3153
ግልሙትና	-10.3153
ጠቢባን	-10.3153
ይደረግ	-10.3153
ሰበሰበ	-10.3153
ያሉትን	-10.3161
ይበላል	-10.3162
ቍጣዬ	-10.3171
ሥልጣን	-10.3175
አባቶችህ	-10.3179
እላለሁ	-10.3197
▁ካለው	-10.32
ጠራቸው	-10.3213
እጁንም	-10.3255
ለይ	-10.3268
ወደዚህ	-10.327
ግብር	-10.3272
▁የሠራ	-10.3339
▁ስምንት	-10.3356
በኛ	-10.3364
መናፍስት	-10.3374
መንገሥ	-10.3374
በኵራት	-10.3374
ተጕዘው	-10.3374
አርጤክስስ	-10.3374
እስማኤል	-10.3374
የሚናገር	-10.3374
ይሻላል	-10.3374
ጨረቃ	-10.3374
አደረግሁ	-10.3374
ሁላችን	-10.3374
ይጠፋሉ	-10.3374
ውሰዱ	-10.3379
ርስታቸው	-10.3382
▁ሆነው	-10.3388
▁ጨለማ	-10.3401
እውቀትን	-10.341
መከር	-10.3414
ይቀመጥ	-10.3433
በደሉ	-10.3434
ብላቴናው	-10.3437
▁በቤት	-10.3451
ከይሁዳ	-10.3455
መጣሁ	-10.3462
▁በስተ	-10.3468
ረከሰ	-10.3472
▁ኢየሱስን	-10.3472
▁ለእነርሱ	-10.3479
ሰረገላ	-10.3493
ደረሱ	-10.3504
▁ገንዘብ	-10.3508
▁ዮሐንስ	-10.3508
ሰጠን	-10.3512
▁ዮናታን	-10.3527
ይመልስ	-10.3547
የነበሩትን	-10.3554
▁ርኵሰት	-10.3561
▁በትር	-10.3578
በባሕር	-10.3581
በፊት	-10.3582
እያሉ	-10.3586
ያስነሣ	-10.3599
ልጆቼ	-10.3599
ሰነፎች	-10.3599
ቤርሳቤህ	-10.3599
ተጠንቀቁ	-10.3599
እናውቃለን	-10.3599
እናገራለሁ	-10.3599
ከወሩም	-10.3599
ዓመፀኞች	-10.3599
ይሳኮር	-10.3599
ጠበቁ	-10.3599
ጣዖት	-10.3599
ጽኑዓን	-10.3599
▁ሌሎችን	-10.3599
▁ሰፈሩ።	-10.3599
በስውር	-10.3602
መስማት	-10.3602
ልጆቻቸውን	-10.3624
ይገዛ	-10.3627
ነገረው	-10.3627
በአሕዛብ	-10.3638
ዓይኖችህ	-10.3645
▁ነፍሱን	-10.3663
በለስ	-10.367
ሰጣት	-10.3676
ማየት	-10.3685
▁በመጣ	-10.3708
ሌዋውያኑም	-10.3724
ይበል	-10.3725
ፊትህን	-10.3728
ያለበት	-10.3731
ለማድረግ	-10.3757
▁ወንጌል	-10.3783
ጀመር	-10.3801
▁መጣ፥	-10.3803
▁ያዕቆብ	-10.3817
ይላቸዋል	-10.3826
ያለች	-10.3829
መሰንቆ	-10.383
ቀለበቶች	-10.383
አንቀላፋ	-10.383
አድነኝ	-10.383
እሆናለሁ	-10.383
እረኞች	-10.383
ዓመፀኛ	-10.383
ገባዖን	-10.383
ጌልገላ	-10.383
ጠባቂ	-10.383
ጥበበኞች	-10.383
ተመልከቱ	-10.383
ሌላቸው	-10.383
እሳቱ	-10.3832
መናገር	-10.3833
በናያስ	-10.3833
እረኛ	-10.3833
ያገባ	-10.3846
ኢያሱም	-10.3851
ጥዋት	-10.3855
አንዱን	-10.386
መሆን	-10.387
አካል	-10.3873
ያሉት	-10.3878
መራራ	-10.3917
ሳለህ	-10.3934
ተከተሉት	-10.3945
ኃጢአታቸው	-10.3952
▁ይሁዳም	-10.3955
ይሰሙ	-10.3957
▁ተናገረ።	-10.3972
ከብት	-10.3983
▁ነቢያት	-10.3991
▁ነበረች።	-10.4002
የግብፅ	-10.4007
ጠላቶች	-10.4026
▁እግዚአብሔር፤	-10.4036
ቀበሩት	-10.4066
ቀንዶች	-10.4066
ባሪያዎቹን	-10.4066
ተንኰል	-10.4066
እሰጥሃለሁ	-10.4066
▁በሰሙ	-10.4066
▁ወይፈን	-10.4066
ትእዛዜ	-10.4066
ወዳጆች	-10.4066
ይወጣሉ	-10.4068
ገባችሁ	-10.4076
ገደለው	-10.4077
ግርማ	-10.408
▁እንዳዘዘ	-10.4091
▁እግዚአብሔርንም	-10.4107
አውድማ	-10.4123
▁ሄደ፥	-10.4123
ትጠብቅ	-10.4134
ኑ፥	-10.416
ድብ	-10.419
ከብንያም	-10.4196
▁መክሊት	-10.4227
▁ፍጹም	-10.4227
ፍርድን	-10.4262
▁ተቀመጠ።	-10.4305
መንፈሱ	-10.4308
መጋረጆች	-10.4308
ተቀበረ	-10.4308
ተነሥተህ	-10.4308
ነገሩን	-10.4308
ነገሮች	-10.4308
ነፍሰ	-10.4308
አባታችሁ	-10.4308
የሌለበት	-10.4308
የተለወሰ	-10.4308
ይነሣል	-10.4308
ምኵራብ	-10.4308
ሰውዮው	-10.4308
አጥንት	-10.4311
ትሄድ	-10.4312
አብረው	-10.4313
የተቈጠሩት	-10.4313
ሥራውን	-10.4315
ይወድቃል	-10.4317
ይናገር	-10.4318
መጥቶአል	-10.4318
ያላቸው	-10.433
የተናገረውን	-10.4336
የሆኑት	-10.4337
በላዬ	-10.4343
ይበላችሁ	-10.4347
▁ሄደ፤	-10.4352
ያድርግ	-10.4359
በርሳቸው	-10.44
ነፍሴን	-10.4413
ብሎአልና	-10.4418
▁ይላሉ።	-10.4426
ውኃውም	-10.4427
ኃጢአታቸውን	-10.4427
ባሉት	-10.4438
ሆና	-10.4447
▁ፍቅር	-10.4458
መጣች	-10.4465
▁እርሱንም	-10.4468
ርቃ	-10.4471
የቀረውም	-10.4498
በብዙ	-10.4504
በኢየሱስ	-10.4506
ከበር	-10.4507
በእጅህ	-10.4518
ቀንደ	-10.4524
ተጽፎአል	-10.4527
በይሁዳም	-10.4527
ያውቃሉ	-10.4537
መልእክ	-10.4554
መልአኩ	-10.4556
መቀመጫ	-10.4556
ራእዩ	-10.4556
ሴይር	-10.4556
ቃዴስ	-10.4556
በመካከላችሁ	-10.4556
ተሰወረ	-10.4556
ነደደ	-10.4556
አህዮች	-10.4556
አሜስያስ	-10.4556
አታድርጉ	-10.4556
አገሮች	-10.4556
ከደቀ	-10.4556
ዓረባ	-10.4556
የሚሰማ	-10.4556
ይሄዳሉ	-10.4556
ደርሶአል	-10.4556
▁አገኘ	-10.4556
አካዝያስ	-10.4557
እንዳይሆን	-10.4557
ልብሳቸው	-10.4559
ይሄድ	-10.456
በፈርዖን	-10.4569
የተቀደሰ	-10.458
የነበሩ	-10.4586
ሳላችሁ	-10.4593
▁መዛሙርቱም	-10.4598
ተሰማ	-10.4619
የነበሩት	-10.4627
▁ለእኛ	-10.4637
እናቱን	-10.4662
ይገደል	-10.467
በልብህ	-10.4678
ከብር	-10.4703
ይጠጣ	-10.4714
በአሥራ	-10.4714
ገደል	-10.4721
በላው	-10.4731
▁የሆነው	-10.4738
በከንቱ	-10.475
ቀንበር	-10.475
ከፈተ	-10.4751
ወሰደው	-10.4761
ባልንጀራ	-10.4761
ልባችሁ	-10.4771
ይወድቃሉ	-10.4783
መወርወሪያ	-10.481
መያዣ	-10.481
ታላቂቱ	-10.481
ነበልባል	-10.481
አልቻሉም	-10.481
አቢሜሌክ	-10.481
አንዳንዶች	-10.481
እናቴ	-10.481
ዓመታት	-10.481
ዓዛርያስ	-10.481
የሚሄድ	-10.481
የሚበላ	-10.481
ይመለሳል	-10.481
አስተዋይ	-10.481
ስእለት	-10.4811
መከተል	-10.4811
መርገም	-10.4811
እጥፍ	-10.4816
▁ያዕቆብም	-10.482
ተሰብስበው	-10.4827
ጥራቸው	-10.4828
▁ሰውም	-10.4828
▁ወለደ።	-10.4833
ይበላሉ	-10.4837
▁ሠራ።	-10.4845
በፊታቸው	-10.4847
ባልንጀራህ	-10.485
ወደዚያ	-10.485
ውረድ	-10.4855
ነበረበት	-10.4882
ወርቅና	-10.4883
ለምኑ	-10.4905
ይልቁን	-10.4907
ሠራ፥	-10.4922
እግርህ	-10.4925
ሰረገላው	-10.4932
አለችው	-10.4933
▁በመልካም	-10.494
ተከተሉ	-10.4942
▁አልነበረም።	-10.4952
▁የክርስቶስ	-10.4963
ስማቸው	-10.4985
አሰበ	-10.4995
ወሰዱት	-10.4999
▁ሰዎችም	-10.5004
ጠራሁ	-10.5011
▁ነበረና	-10.5013
ኋላቸው	-10.5019
አባትዋ	-10.5044
ይመጡ	-10.5065
መጐናጸፊያ	-10.5071
መንገዴ	-10.5071
ማዕድ	-10.5071
ምስክሮች	-10.5071
ሰልፈኞች	-10.5071
ስድስተኛው	-10.5071
ሸማያ	-10.5071
ቅድስና	-10.5071
አለቀሰ	-10.5071
አርነት	-10.5071
አይደለችም	-10.5071
አድርጋችሁ	-10.5071
እመልሳለሁ	-10.5071
ወንድሞቻችሁ	-10.5071
ያደርጋሉ	-10.5071
ግብዣ	-10.5071
ፈቃዱ	-10.5071
ፊልጶስ	-10.5071
▁ፊቱን	-10.5071
መብራት	-10.5071
ሲናገር	-10.5072
ባለጠግነት	-10.5073
አንገት	-10.5075
ባልንጀራውን	-10.5076
▁ከእነዚህ	-10.5089
ጥርስ	-10.5095
ይሰጥ	-10.5105
ተቀደሱ	-10.5107
የተወለደ	-10.5123
የተቀደሰውን	-10.5125
እናትህ	-10.5143
መሠዊያውን	-10.5162
▁ተናገረ	-10.5167
በኤፍሬም	-10.5169
ከፀሐይ	-10.5202
በእኛ	-10.5206
▁መጣ፤	-10.5227
በዙሪያውም	-10.5228
የእስራኤልንም	-10.5238
▁ግምጃ	-10.5249
ኢያሱን	-10.525
እርም	-10.5272
በራሱ	-10.5283
ይውጣ	-10.5306
በመንፈስ	-10.5311
ልመና	-10.5313
ቢኖር	-10.5314
ኃይልህ	-10.5336
▁አሕዛብን	-10.5337
ይወጣል	-10.5338
ሐናንያ	-10.5339
ሥርዓቱ	-10.5339
ቅዱሳኑ	-10.5339
ኪዳኔን	-10.5339
ካሌብ	-10.5339
የሚበልጥ	-10.5339
የሚኖሩትን	-10.5339
ጠይቁ	-10.5339
▁ይመጣል፥	-10.5344
መረጠው	-10.5359
ዋልና፥	-10.5368
አድርጎአል	-10.537
ይሰጡ	-10.537
ድስት	-10.5383
▁ለማን	-10.5405
ተሰጠው	-10.5426
▁ከሙታን	-10.543
▁በወርቅ	-10.5434
እነዚያም	-10.5443
ያልሆነ	-10.5447
የብር	-10.5451
ፈሰሰ	-10.5453
▁አለን	-10.5453
በስተ	-10.5461
በስብ	-10.5465
ማመን	-10.5465
ተጠራ	-10.5466
አመስግኑ	-10.5485
የዚያን	-10.5503
▁እነዚህም	-10.5521
ሁለቱንም	-10.553
▁አሉ፤	-10.5537
በዮርዳኖስ	-10.5539
▁እነርሱን	-10.5566
▁ላከ።	-10.5575
ሰማችሁ	-10.5576
ከእኔም	-10.5577
▁የአንድ	-10.5591
አኖረው	-10.5609
ያጠፉ	-10.5614
ላሞች	-10.5614
መሣሪያ	-10.5614
ምስሎች	-10.5614
አንዳንዶቹ	-10.5614
አይሁዳዊ	-10.5614
አይገኝም	-10.5614
ከተሞቻቸው	-10.5614
የሚሉት	-10.5614
ያገኝ	-10.5614
ፈልገው	-10.5614
ራሳችን	-10.5615
ይለኛል	-10.5615
ገብተው	-10.5615
እጆች	-10.5616
መግባት	-10.5618
ለእስራኤልም	-10.5618
ረጅም	-10.562
የምድርም	-10.5621
አደራ	-10.5646
▁በኋላ፥	-10.5649
▁ለልጅ	-10.5654
እንዲሆኑ	-10.5663
የፈርዖን	-10.5664
ተናገራቸው	-10.5678
ግልጥ	-10.568
አመድ	-10.5714
ለበጠ	-10.572
▁ባቢሎን	-10.5737
ካለው	-10.5768
ሥራህ	-10.5789
መረጠ	-10.5805
ፊታቸው	-10.5851
ገባች	-10.5865
መታቸው	-10.5897
መዝጊያ	-10.5897
ብልሃት	-10.5897
ተገረዙ	-10.5897
ታቀርባላችሁ	-10.5897
ትዕግሥት	-10.5897
ኃጢአታችሁ	-10.5897
አሳልፈው	-10.5897
አደርገዋለሁ	-10.5897
እጆቹ	-10.5897
ይወስዳል	-10.5897
ይፈልጉ	-10.5897
ደረቀ	-10.5897
ድምፃቸው	-10.5897
ድንጋዩ	-10.5897
በደለኛ	-10.5898
ሰገደ	-10.5901
ቃላችሁ	-10.5901
ድንግል	-10.5901
ትላለህ	-10.5902
አንበጣ	-10.5915
መስለው	-10.5917
ከዘላለም	-10.592
ሠራተኛ	-10.5939
ምግብ	-10.5953
▁ተነሣ፥	-10.5965
ከፍልስጥኤማውያን	-10.6014
በእኔና	-10.6018
▁ስምህን	-10.6018
መጣህ	-10.6021
ጥሉ	-10.6022
▁አብርሃምም	-10.6038
ፀሐይም	-10.6044
ባሪያዎቹም	-10.6068
እይ	-10.611
እስራኤልንም	-10.6112
▁ለኃጢአት	-10.6127
ሰበሰቡ	-10.613
ብርና	-10.6134
ወንድሞችህ	-10.6165
ይገዙ	-10.6175
የሶርያ	-10.6175
▁ሰምቶ	-10.6183
ሄዳችሁ	-10.6189
ቀርቦአል	-10.6189
ቍርባናቸው	-10.6189
ታላቁን	-10.6189
ኃፍረተ	-10.6189
አሸዋ	-10.6189
እንቅልፍ	-10.6189
ከሰሜን	-10.6189
ኪዳኑን	-10.6189
ወስደህ	-10.6189
የሚነካ	-10.6189
ያሳድዱ	-10.6189
ያስተምር	-10.6189
▁መጡ፥	-10.6189
▁ኃያል	-10.6189
እንባ	-10.6189
መልእክተኛ	-10.6191
ትበላላችሁ	-10.6191
▁አደረገ፥	-10.6198
▁ወገን፥	-10.6209
▁በላቸው።	-10.6217
▁እርስዋን	-10.6222
ወጣች	-10.6226
አላችሁ	-10.6238
▁ታውቃላችሁ።	-10.6243
አብያተ	-10.6244
ሳንቃ	-10.6257
▁አደረጉ፤	-10.6259
ውኃውን	-10.6268
ወጣሁ	-10.6274
ያያል	-10.6309
አሳፍ	-10.6322
ውበት	-10.6365
▁በእነርሱም	-10.6373
አክዓብም	-10.6386
▁መጡ፤	-10.6388
▁ከንጉሡ	-10.6404
ችግረኛ	-10.6483
በድን	-10.6483
ይጨምር	-10.6489
ርዝመት	-10.6489
ሽንገላ	-10.6489
ቅርንጫፎች	-10.6489
ቅዱሱ	-10.6489
ብርታት	-10.6489
ኢይዝራኤል	-10.6489
እንዳሉ	-10.6489
ዕውሮች	-10.6489
የሌለው	-10.6489
የሚባል	-10.6489
የተዘጋ	-10.6489
ያመሰግኑ	-10.6489
ይኖራሉ	-10.6489
ጣዖታት	-10.6489
ይዋጋ	-10.6489
ፍጥረት	-10.6489
እናገር	-10.6492
የተባረከ	-10.6493
ስፍራቸው	-10.6494
ፋርስ	-10.6502
መሆኑን	-10.6506
▁ሰጠው።	-10.651
በሰባተኛውም	-10.6512
ሰማንያ	-10.6513
ወለደችለት	-10.6518
ካህናቱን	-10.6535
ማሰማርያ	-10.6574
ብላቴናውን	-10.6588
መሄድ	-10.6591
▁ከጥሩ	-10.6591
▁ሄደው	-10.6594
የሰማ	-10.6614
▁መሰምርያዋን፥	-10.6626
ያጠፋል	-10.6628
▁ይላልና።	-10.6629
ይመታ	-10.6639
መሰምርያዋን	-10.666
ምድሪቱንም	-10.6662
የሰሎሞን	-10.6676
ልከው	-10.6686
አቅርቡ	-10.6694
ያመልኩ	-10.6711
በመካከላቸውም	-10.6715
ምላስ	-10.674
▁መንገዱን	-10.6758
ከአንተም	-10.6783
ያቀርብ	-10.6791
▁የለምና	-10.6794
መርከቦች	-10.6798
መቅረዙ	-10.6798
መንደሮቻቸው	-10.6798
መንግሥተ	-10.6798
ሥጋቸው	-10.6798
ባለጠጋ	-10.6798
ቤታቸው	-10.6798
ተለይቶ	-10.6798
አዕማድ	-10.6798
ክርስቲያናት	-10.6798
ዘመናት	-10.6798
የሚመጣው	-10.6798
የማምለኪያ	-10.6798
ያዘዘውን	-10.6798
ድምፁን	-10.6798
ጎዶልያስ	-10.6798
ፈጽመህ	-10.6798
እርግማን	-10.6798
ብላቴናይቱ	-10.6798
አቃጠለ	-10.6798
ለመለመ	-10.6799
ከጥንት	-10.6802
የፍልስጥኤማውያን	-10.6803
ፍረድ	-10.681
አቢሳ	-10.6812
አይሁን	-10.684
በሁለተኛውም	-10.6841
ብለዋል	-10.6841
ከአሥር	-10.6851
ልጆችዋ	-10.6865
▁አየሁ፥	-10.6874
▁በኃይል	-10.6915
ወደዱ	-10.6915
አምላክህም	-10.6939
ማናቸው	-10.6981
ባለበት	-10.699
▁ሞተ።	-10.701
▁ሰዎቹም	-10.701
▁በእጄ	-10.701
▁አዘዘ።	-10.701
▁ከወዴት	-10.701
ኃጢአተኛው	-10.7015
▁እጃቸውን	-10.7027
▁ስሙንም	-10.7028
ሁልጊዜም	-10.7031
ቍጣህ	-10.7035
▁በሉ።	-10.7051
ተባለው	-10.7079
ሰገዱ	-10.71
ስምንተኛው	-10.7109
ይመለሱ	-10.711
ይቀበላል	-10.7117
መንጎች	-10.7117
መዛግብት	-10.7117
ሰይፉ	-10.7117
ቀድሞው	-10.7117
በየወገኖቻቸው	-10.7117
በግዞት	-10.7117
ተሻገሩ	-10.7117
ታንኳይቱ	-10.7117
ታያለህ	-10.7117
ኃጢአታችን	-10.7117
ነፍሳችሁ	-10.7117
አለቀሱ	-10.7117
እናደርጋለን	-10.7117
ከንፈር	-10.7117
ኬልቅያስ	-10.7117
ውስጠኛው	-10.7117
ዕቃዎች	-10.7117
የሌለባቸው	-10.7117
የሚሄዱ	-10.7117
የሚጠብቅ	-10.7117
ያለቅሱ	-10.7117
ይቀመጣል	-10.7117
ደረቅ	-10.7117
ግመሎች	-10.7117
ጭፍሮች	-10.7117
ሰጡአቸው	-10.7117
ይገባዋል	-10.7117
ፈራጆች	-10.7117
ያልፋል	-10.7117
ይላቸው	-10.7118
ካለችው	-10.7118
ስርየት	-10.7118
አድርጌአለሁ	-10.712
ይደርስ	-10.712
አዋጅ	-10.7121
ርብቃ	-10.7124
አውጣ	-10.7133
ለብሰው	-10.7133
ያማረ	-10.7136
በሦስተኛውም	-10.7145
ባደረገ	-10.7148
ማደሪያውን	-10.7151
ደከመ	-10.7152
ቢሆኑ	-10.7218
▁ዓይነት	-10.7226
አሕዛብንም	-10.7257
በጌታችን	-10.7258
ደሴቶች	-10.7316
▁በል።	-10.7319
አማት	-10.7331
በእጃችሁ	-10.7344
የተባለ	-10.7347
ኔር	-10.7358
አንተና	-10.7358
የአባቶች	-10.7359
ዕቃውን	-10.7405
የዚያ	-10.7407
ባደረ	-10.7426
ቢወድ	-10.7434
ዕጣንም	-10.7435
ተሳለ	-10.7437
መጠጊያ	-10.7443
ወገኑ	-10.7444
ከተሞችና	-10.7445
ቡቃያ	-10.7447
አዘጋጅ	-10.7447
መሎጊያዎቹ	-10.7447
በኢያሪኮ	-10.7447
አልሰሙም	-10.7447
አማሌቅ	-10.7447
አኖራለሁ	-10.7447
አያውቅም	-10.7447
እርሾ	-10.7447
እያንዳንዳችሁ	-10.7447
ከምሥራቅ	-10.7447
ዕድሜው	-10.7447
ይኸውም	-10.7447
መለከቱን	-10.7447
የላቸውም	-10.7447
አደረግህ	-10.7447
መቃብሩ	-10.7448
በደላቸው	-10.7449
ፍርዱ	-10.7449
ትናገር	-10.7456
ወጥቶአል	-10.7459
ሳፋን	-10.7475
አብያ	-10.7482
ባሪያውን	-10.7488
አጥብ	-10.7495
አሥረኛው	-10.7504
▁በድንጋይ	-10.7507
በልባችሁ	-10.7512
በነበረው	-10.752
ወንድሞቹን	-10.7522
በገለዓድ	-10.7531
▁ይኖራል።	-10.7534
▁ክፋትን	-10.755
ያያሉ	-10.7559
▁ኢየሩሳሌምን	-10.7566
ሞላበት	-10.7598
በቤቱም	-10.7612
ሐሰትን	-10.7628
ያየው	-10.7637
አፈሰሰ	-10.7645
መልእክተኞችን	-10.767
▁ነህና	-10.7673
ትላላችሁ	-10.7682
▁ተናገራቸው።	-10.7709
▁በዓለም	-10.7733
መንደሮች	-10.7739
ንስር	-10.775
ትሄዱ	-10.7755
የለበሰ	-10.7757
ተወለዱ	-10.7779
መስገጃ	-10.7788
መክደኛ	-10.7788
ተናግሬአለሁ	-10.7788
የሚሰጥ	-10.7788
መታጠቂያ	-10.7788
መገረዝ	-10.7788
ቅድስተ	-10.7788
በነጋውም	-10.7788
ባርነት	-10.7788
አሚናዳብ	-10.7788
አብያታር	-10.7788
አይደላችሁም	-10.7788
ኤልያብ	-10.7788
ወዮላቸው	-10.7788
የሚቀመጥ	-10.7788
ድንበሩም	-10.7788
ጠየቁት	-10.7788
ጥቂቶች	-10.7788
በርናባስ	-10.7788
ብድራት	-10.7788
ምድራችሁ	-10.7788
እንደዚሁ	-10.7788
ገደላቸው	-10.779
የተወደደ	-10.7793
የቀረው	-10.7802
ከፊትህ	-10.7803
ልባችሁን	-10.7804
▁እንዳለው	-10.7817
▁ከዳዊት	-10.7828
ለመነው	-10.7832
ረከሱ	-10.7834
▁ስሙ፤	-10.7859
ይለው	-10.7887
መልእክተኞች	-10.7907
በረቱ	-10.7966
▁ያደርጋል።	-10.7981
▁ጠርቶ።	-10.7983
ነገሩት	-10.7992
የፊተኛው	-10.8013
ይብላ	-10.8019
▁የአይሁድ	-10.802
ሦስተኛ	-10.8035
ሆነዋል	-10.8037
▁ስማ፤	-10.8044
ከመጀመሪያ	-10.8072
▁ነበሩ፥	-10.8088
በማደሪያው	-10.8093
ብልህ	-10.8094
ለዘላለምም	-10.8114
ተናግሮ	-10.8141
መሳፍንት	-10.8141
መድኃኒቴ	-10.8141
ሜሱላም	-10.8141
ሰገነት	-10.8141
ቁርበቱ	-10.8141
ተጠንቀቅ	-10.8141
አላውቅም	-10.8141
አምኖን	-10.8141
አውሬው	-10.8141
አደረጋቸው	-10.8141
አድርገሃል	-10.8141
ኢያቢስ	-10.8141
እስትንፋስ	-10.8141
ወገኔ	-10.8141
የሚያስፈራ	-10.8141
ያቀርባል	-10.8141
ያደርገው	-10.8141
ይቀመጣሉ	-10.8141
ዲያብሎስ	-10.8141
ተከትለው	-10.8141
ይገድሉ	-10.8141
መሰከረ	-10.8141
በላያችን	-10.8141
ያስተውሉ	-10.8141
አመጣለሁ	-10.8141
ሰደዱ	-10.8143
ተደፋ	-10.8146
መምጣት	-10.8147
ይሰጠዋል	-10.8149
ለወንድሞቹም	-10.8152
የገለዓድ	-10.8167
ገብስ	-10.8168
አትበል	-10.817
▁ያውቃሉ።	-10.8183
ልማድ	-10.819
▁ይሁኑ።	-10.8209
ይስማ	-10.8214
ለእርሱም	-10.8229
የተነገረ	-10.8242
በራሳቸው	-10.8291
እሆን	-10.8328
▁ገባ።	-10.8354
ሕዝብህን	-10.8355
ከአሥራ	-10.8356
ባረከ	-10.8375
ሐዋርያ	-10.8378
▁ነህ፤	-10.8383
ከባቢሎን	-10.8409
ለመኑ	-10.8416
ሆንን	-10.8417
▁ይሆናልና	-10.8419
▁አየሁ፤	-10.8433
ሥራችሁ	-10.845
▁ይሆናሉ፤	-10.8451
▁ተመለሱ።	-10.8455
በሌሊትም	-10.8462
ብሎአል	-10.8471
ይባላል	-10.8482
ሰበረ	-10.8501
ልጆቻችን	-10.8507
መሥዋዕቱ	-10.8507
መቄዶንያ	-10.8507
መጻሕፍት	-10.8507
ሚክያስ	-10.8507
ምርኮኞች	-10.8507
ሠራተኞች	-10.8507
በየዓመቱ	-10.8507
ተርሴስ	-10.8507
ተቀበላችሁ	-10.8507
ተነሥቶም	-10.8507
ንግሥቲቱ	-10.8507
አመሰግንሃለሁ	-10.8507
አቁማዳ	-10.8507
እምነታችሁ	-10.8507
እንግዲያስ	-10.8507
የሚያህል	-10.8507
ይባርክ	-10.8507
ጕድጓዱ	-10.8507
ፈሳሾች	-10.8507
ፍልስጥኤም	-10.8507
ይመለሳሉ	-10.8507
አዲሱ	-10.8507
አንገቱ	-10.8507
ጆሮአቸው	-10.8509
ከመስፈሪያው	-10.851
መከራቸው	-10.851
መብላት	-10.851
ላደርግ	-10.8511
ልመናዬ	-10.8512
ወደድሁ	-10.8536
የተጠራ	-10.8555
ውደድ	-10.8556
ይስጥ	-10.857
የከተማይቱ	-10.8574
ከከተማይቱ	-10.8631
የአምላክህን	-10.8632
ትርፍ	-10.8655
የተመረጡ	-10.8678
ተቀደሰው	-10.8752
በከተማይቱም	-10.8781
ግቢ	-10.8859
ምድርንም	-10.8868
▁ራስህን	-10.8884
ማኅተም	-10.8886
ሰረገሎቹ	-10.8886
ሳንቆች	-10.8886
ቀርሜሎስ	-10.8886
ቀደመው	-10.8886
ቈነጃጅት	-10.8886
አለቆቹም	-10.8886
አማካሪ	-10.8886
አሳልፈህ	-10.8886
አንበሶች	-10.8886
አይደለህም	-10.8886
አድምጡ	-10.8886
አዶንያስ	-10.8886
አገልጋይ	-10.8886
እንኪያስ	-10.8886
እንደሚሆን	-10.8886
እንደሚገባ	-10.8886
ወይፈኖች	-10.8886
ወዳለበት	-10.8886
የሚጠሉ	-10.8886
ይሞታሉ	-10.8886
ፀነሰች	-10.8886
አብራምም	-10.8887
ይሁንላችሁ	-10.8888
እግራቸው	-10.8888
ልባችን	-10.8889
▁በብር	-10.8891
ሲሄዱ	-10.8928
ተድላ	-10.8928
▁ጀመር።	-10.8935
▁መጥቶ።	-10.8952
ይኑር	-10.8958
ይጠብቅ	-10.8961
▁አለው፥	-10.9006
ከምድርም	-10.9016
ለብሳ	-10.9028
አደባባዩ	-10.9028
የወይኑ	-10.9036
▁ሰጣቸው።	-10.9038
በንጉሡም	-10.9078
ይግባ	-10.9114
▁አዘዛቸው።	-10.9171
ሁለተኛውንም	-10.9185
አድን	-10.9222
በሕዝብህ	-10.926
ይገቡ	-10.926
▁ሄዱ፤	-10.9267
የምትኖሩ	-10.9281
ይፈርድ	-10.9281
መልክተኞች	-10.9281
መንፈሳዊ	-10.9281
መጥመቂያ	-10.9281
ቀድሱ	-10.9281
በቅንነት	-10.9281
በውስጡ	-10.9281
በዙሪያዋ	-10.9281
አስጨናቂ	-10.9281
አንዳንድ	-10.9281
አውጥቶ	-10.9281
አገልጋዮች	-10.9281
ኢዮአታም	-10.9281
እሰጣቸዋለሁ	-10.9281
ዕብራውያን	-10.9281
ዘሩባቤል	-10.9281
የዝግባ	-10.9281
ይቈጠር	-10.9281
ይበሉታል	-10.9281
ጠላቶቻችሁ	-10.9281
ጽላቶች	-10.9281
ሰንሰለት	-10.9281
ራፋይም	-10.9281
ይመስል	-10.9284
ጠራችው	-10.9286
መበለት	-10.9286
ሰምቶአል	-10.9289
ታችኛው	-10.9294
ማለላቸው	-10.9297
ይተዋል	-10.9298
በውስጥዋ	-10.9299
ናባጥ	-10.9316
ሰማይንና	-10.9326
የተባለች	-10.9346
▁የቀረውን	-10.9358
ማደሪያውም	-10.9361
ሳውል	-10.9382
ባይሆን	-10.9398
▁በሁለቱ	-10.9436
ስጠን	-10.9449
አመስግኑት	-10.9471
▁ያደርጋል፤	-10.9477
ጥለው	-10.9478
ለአባቶቻቸው	-10.9495
▁ተቀመጠ፤	-10.9505
በአሕዛብም	-10.9508
▁ተናገሩ።	-10.9523
ራስዋን	-10.9528
የአደባባዩ	-10.9541
▁አላቸው፤	-10.9619
ተቀመጠች	-10.9638
▁አድርግ፤	-10.9657
ትእዛዛት	-10.9689
የሚቀመጡ	-10.9689
መቀመጥ	-10.9692
መናወጥ	-10.9692
መኳንንት	-10.9692
ማስተስረያ	-10.9692
ምስጉን	-10.9692
ሰምቻለሁ	-10.9692
ሳያውቅ	-10.9692
በሌለበት	-10.9692
በረኞች	-10.9692
በግምባሩ	-10.9692
ብላቴኖች	-10.9692
ተደነቁ	-10.9692
ታላላቅ	-10.9692
ታደርጋላችሁ	-10.9692
ትዕቢተኞች	-10.9692
ችግረኞች	-10.9692
አንዳንዱ	-10.9692
አዛሄል	-10.9692
አደርግሃለሁ	-10.9692
እሰጣችኋለሁ	-10.9692
እጆቼ	-10.9692
ከሰፈሩ	-10.9692
ዓይኑን	-10.9692
የሚጠብቁ	-10.9692
የቀሩትም	-10.9692
ይሆንላችኋል	-10.9692
ይፈርዳል	-10.9692
ጣዖቶቻቸው	-10.9692
ፈጥነህ	-10.9692
ይመስላል	-10.9692
ያቃጥለዋል	-10.9692
መረጥሁ	-10.9692
መግደል	-10.9692
ተበተኑ	-10.9692
ተዋቸው	-10.9693
ይገለጥ	-10.9693
ከግራር	-10.9697
አያለሁ	-10.9698
የከተማው	-10.9724
ትሰጥ	-10.9736
ተከፈተ	-10.9789
ባረከው	-10.981
በሲና	-10.9825
ለኃጢአትም	-10.9879
መረብ	-10.9894
ቀለበት	-10.9933
ገለጠ	-10.995
▁ይሁን፥	-10.9982
የንጉሡንም	-11.0045
▁ሰማሁ።	-11.0047
ከተማይቱንም	-11.0056
ቀደሱ	-11.0062
▁ተመለሰ።	-11.0078
▁ወሰደ፥	-11.0093
በጣም	-11.0106
ላደረገ	-11.0112
ሰውነቱ	-11.0121
ሰውነትህ	-11.0121
በለዓምም	-11.0121
በታቦቱ	-11.0121
በዙሪያቸው	-11.0121
ትሆናላችሁ	-11.0121
ትኖራለች	-11.0121
አላወቁም	-11.0121
አልኋቸው	-11.0121
አታድርግ	-11.0121
አኖራቸው	-11.0121
አያውቁም	-11.0121
ኤፍራጥስ	-11.0121
እወዳለሁ	-11.0121
የሚናገሩ	-11.0121
የሚያምን	-11.0121
የሚያውቅ	-11.0121
የሚገባውን	-11.0121
የበኵር	-11.0121
ይባረክ	-11.0121
ይወርዳል	-11.0121
ደመወዝ	-11.0121
ጕልማሶች	-11.0121
ጠባቂዎች	-11.0121
ትዕማር	-11.0121
አርኖን	-11.0121
የላከኝ	-11.0121
የሚበሉ	-11.0121
የሚያደርገው	-11.0121
ያከብሩ	-11.0121
ይሸከሙ	-11.0121
ትችላለህ	-11.0121
ተቃጠለ	-11.0121
ሁለተኛይቱ	-11.0121
እንድትሆን	-11.0121
አልወደደም	-11.0121
ይጠብቃል	-11.0121
መስጠት	-11.0121
አቅርብ	-11.0122
ይበልጣል	-11.0124
በተቀደሰው	-11.0128
ይጥፋ	-11.0128
ደማቸው	-11.0131
በአገርህ	-11.0133
የተጠላ	-11.0139
ለማገልገል	-11.0167
▁አየ፤	-11.0171
አትበሉ	-11.018
▁ለአሥራ	-11.0184
መጣበት	-11.0211
እንዴትስ	-11.0229
የተመረጠ	-11.0255
እጃችሁ	-11.0257
ጣላቸው	-11.026
▁በአልጋ	-11.0268
▁ብፁዓን	-11.0268
ፍሬውን	-11.0276
▁ነገሩት።	-11.0305
▁ሠራ፤	-11.0313
▁ጠራው።	-11.0336
▁አየሁ።	-11.0358
እሺ	-11.0367
▁አደርጋለሁ።	-11.037
▁ያለበትን	-11.04
በለጠ	-11.0405
ተናገርህ	-11.042
▁የዚህን	-11.0505
እስኪመጣ	-11.0537
▁ናት፥	-11.0561
ይወስድ	-11.0566
ለብቻው	-11.0569
መላእክቱ	-11.0569
መንገዳችሁ	-11.0569
መጽናናት	-11.0569
ምሰሶች	-11.0569
በለዓምን	-11.0569
በሕይወቱ	-11.0569
በምድሩ	-11.0569
ተማከሩ	-11.0569
ተሰለፉ	-11.0569
ኀጥእ	-11.0569
ነፍሳት	-11.0569
አመሰግናለሁ	-11.0569
አማልክቶቻቸው	-11.0569
አስቀድመው	-11.0569
እጃችን	-11.0569
የሚያውቁ	-11.0569
ይጮኻሉ	-11.0569
ደነገጠ	-11.0569
ከንፈሮች	-11.0569
ይቀበል	-11.0569
በአጠገቡ	-11.0569
ተናግሮአልና	-11.0569
የማይገባ	-11.0569
እናድርግ	-11.0569
ያገኛል	-11.0569
ብልጥግና	-11.0569
የሠራዊቱ	-11.057
እስራት	-11.057
ብቻዬን	-11.057
ይድናል	-11.0571
አወጣቸው	-11.0572
ደካማ	-11.0572
ይገባሉ	-11.0573
ወርደው	-11.0577
አላደረገም	-11.0577
የኮረብታው	-11.0577
የተደረገው	-11.0578
ላይኛው	-11.059
ፈራጅ	-11.0596
▁መለሰለት።	-11.0596
ደርብ	-11.0597
የዓለም	-11.0605
ትእዛዝህን	-11.0614
አስመጣ	-11.0629
አመኑ	-11.0631
መለሱለት	-11.0646
የናሱ	-11.0647
ለመሥራት	-11.0651
የአምላካችንን	-11.0652
ለበሱ	-11.0661
ሄድሁ	-11.0685
▁ይመጣል።	-11.0704
ሠራበት	-11.0729
አምጣ	-11.075
ወንዶችንም	-11.0779
ፍሬዋን	-11.0794
የተሞላ	-11.0825
▁ለወንድ	-11.0839
የሚያደርጉ	-11.1033
ለማዳን	-11.1037
ለብቻቸው	-11.1037
መልካሚቱ	-11.1037
መጻተኞች	-11.1037
ሰጠኋቸው	-11.1037
ሲሣራ	-11.1037
ስሕተት	-11.1037
ቍርባኑ	-11.1037
በሕያዋን	-11.1037
በኃይሉ	-11.1037
ነበራችሁ	-11.1037
ነቢያቱ	-11.1037
ነገርኋችሁ	-11.1037
ናትናኤል	-11.1037
አልቅሱ	-11.1037
አልቻለም	-11.1037
አእላፋት	-11.1037
አኪጦፌል	-11.1037
እሰድዳለሁ	-11.1037
ከአሦር	-11.1037
ክንፎቻቸው	-11.1037
ወዮላችሁ	-11.1037
የሚገዛ	-11.1037
የወርቁን	-11.1037
ይሆንልሃል	-11.1037
ይነሣሉ	-11.1037
ይወድዳል	-11.1037
ጕልበት	-11.1037
ፈጽማችሁ	-11.1037
መተላለፍ	-11.1037
መዘምራኑ	-11.1037
ነበራቸው	-11.1037
አመንዝራ	-11.1037
አስጸያፊ	-11.1037
አንኩስ	-11.1037
ዘይቱን	-11.1037
ያስተምሩ	-11.1037
ያገኘው	-11.1037
ገደሉአቸው	-11.1037
አትችሉም	-11.1038
አድርገዋል	-11.1038
ስጣቸው	-11.1038
ስድስቱ	-11.1038
መጥተህ	-11.1038
አይገባውም	-11.1038
ያመልጥ	-11.1038
የተቀመጡትን	-11.1038
በየትውልዳቸው	-11.1039
አድምጥ	-11.104
ያስባል	-11.1044
አይጠፋም	-11.1047
ብላችኋል	-11.1047
በባሳን	-11.1048
በፋንታው	-11.1048
ተወለዱለት	-11.1049
አይቀርም	-11.1052
ብሆን	-11.1054
ወድደው	-11.1055
እስያ	-11.1068
ቍጣውን	-11.1099
ተሰበረ	-11.1114
የሠራውን	-11.1115
እንስት	-11.1116
ከለከለ	-11.1123
ሁከት	-11.1131
ጠበቃ	-11.114
መንገድህን	-11.1141
ባለቤቱ	-11.1142
የሳኦልም	-11.1169
ሚስትህ	-11.1205
▁ንገራቸው።	-11.1224
ሌዋውያኑ	-11.1259
▁ነገረው።	-11.1263
▁በለው።	-11.1293
▁ወሰደ።	-11.1309
▁ነበረች፤	-11.1322
በዳዊትም	-11.1404
በተቀደሰ	-11.1423
ከገሊላ	-11.1458
መለሰለት	-11.151
ተለወጠ	-11.1529
ሕልቃና	-11.1529
መማፀኛ	-11.1529
መሸፈኛ	-11.1529
መብረቅ	-11.1529
መድኃኒታችን	-11.1529
ማቅረብ	-11.1529
ረዳቸው	-11.1529
ሰውነታችሁ	-11.1529
ቤትሳሚስ	-11.1529
ብልቶች	-11.1529
ብርሃኑ	-11.1529
ተከትሎ	-11.1529
ተገረሙ	-11.1529
ትሄዳለህ	-11.1529
ኃያላኑ	-11.1529
ኃይለኛ	-11.1529
ነጐድጓድ	-11.1529
ንገረኝ	-11.1529
አላወቀም	-11.1529
አኪቃም	-11.1529
አዳራሾች	-11.1529
አገኙት	-11.1529
ኤፌሶን	-11.1529
እሰጠዋለሁ	-11.1529
እስኪፈጸም	-11.1529
እንሄዳለን	-11.1529
ክፋታቸው	-11.1529
ወተትና	-11.1529
ወዳለችው	-11.1529
ዓይኖቻቸው	-11.1529
ዕንቅፋት	-11.1529
የሚፈርድ	-11.1529
የተሠሩትን	-11.1529
የተቀረጸውን	-11.1529
የዮዳሄ	-11.1529
ያስተሰርይለታል	-11.1529
ያደርገዋል	-11.1529
ይጸናል	-11.1529
ግልገሎች	-11.1529
ጠነከረ	-11.1529
ጥምቀት	-11.1529
ወንድማማች	-11.1529
መቱአቸው	-11.1529
በሉአቸው	-11.153
ያጥባል	-11.1532
እንደዚያ	-11.1535
ማልደው	-11.1535
ሰጥቶአል	-11.1536
ያስተሰርይ	-11.1537
በዚች	-11.1538
ካልሆነ	-11.154
ከእጅህ	-11.1542
▁አሉአቸው።	-11.1554
ይሰጠው	-11.1585
▁ተጽፎአል።	-11.1589
የአባትህን	-11.1593
ሕግህን	-11.1596
▁ወሰደ፤	-11.1606
ገባበት	-11.1621
▁ዕቃውንም	-11.1635
ብታደርግ	-11.1638
መለሰላቸው	-11.1647
አገኘሁ	-11.1651
የመገናኛውን	-11.1658
አዘዛቸው	-11.1669
ተዋት	-11.1683
ከፊታቸው	-11.1787
ተመረጡት	-11.1807
▁ተመለሱ፤	-11.194
▁እላለሁ።	-11.1942
▁ይሰጣል።	-11.1956
ንግሥት	-11.1992
እሠራ	-11.1994
ውድማ	-11.1999
▁ሰጣቸው፤	-11.2009
ፍልስጥኤማዊ	-11.2038
ትቀመጥ	-11.2039
ሊገናኘው	-11.2047
መስኮቶች	-11.2047
መጠበቅ	-11.2047
ሰጥቼሃለሁ	-11.2047
ስፍራዎች	-11.2047
ቂርያትይዓሪም	-11.2047
ቅርንጫፍ	-11.2047
በዓይኑ	-11.2047
በግምባራቸው	-11.2047
ትወስዳለህ	-11.2047
ኅብስት	-11.2047
አምጡልኝ	-11.2047
አስቀሎና	-11.2047
አስቀድሜ	-11.2047
አናውቅም	-11.2047
አንጾኪያ	-11.2047
አግብቶ	-11.2047
አጸናለሁ	-11.2047
ኢያቡሳውያን	-11.2047
እንዳደረግሁ	-11.2047
ከመንጋ	-11.2047
የምሥራቅ	-11.2047
የተጻፈውን	-11.2047
የጭፍራ	-11.2047
ይቆማል	-11.2047
ይነጋገር	-11.2047
ይወስዳሉ	-11.2047
ጃንደረቦች	-11.2047
ግብዞች	-11.2047
ግብጻውያን	-11.2047
ጠሩአቸው	-11.2047
ጠበቅሁ	-11.2047
ሃይማኖት	-11.2047
ሊገድሉ	-11.2047
ሰውነታቸው	-11.2047
ባረካቸው	-11.2047
አታውቅም	-11.2047
እግሮቼ	-11.2047
የኋለኛው	-11.2047
ያደረጉት	-11.2047
ይወስዱ	-11.2047
ጠላቶቻችን	-11.2047
አገራቸው	-11.2047
ያቃጥሉ	-11.2047
ያፍራሉ	-11.2047
አቃጠሉ	-11.2047
ወንድማችሁ	-11.2049
ያስተውል	-11.2049
ፍረዱ	-11.2049
በስምንተኛውም	-11.206
የተቀመጠው	-11.2064
ይሁዳንና	-11.2069
አይገባም	-11.2074
ሠራቸው	-11.2079
የምታደርጉ	-11.208
ከነበረው	-11.2101
ተቀመጥሁ	-11.2117
ጥላቸው	-11.2136
ከባድ	-11.215
ይመለከቱ	-11.2269
አደን	-11.2289
▁አደርጋለሁ፤	-11.2309
ይምጣ	-11.2317
▁አድርጉ፤	-11.233
▁ወለደች።	-11.2333
▁ተመለሱ፥	-11.2352
ጥለዋል	-11.2374
▁ይልቁንም	-11.2386
መልስለት	-11.243
የዳዊትም	-11.2513
ባየች	-11.2553
ረባት	-11.2558
ጠግነት	-11.2588
k	-11.2592
ሐሰተኞች	-11.2592
መሥዋዕታችሁ	-11.2592
መንኰራኵር	-11.2592
መንጋውን	-11.2592
መዘምራን	-11.2592
ምልክቶች	-11.2592
ሞዓባውያን	-11.2592
ሰደዳቸው	-11.2592
ቀርቶአል	-11.2592
በኤርትራ	-11.2592
በጊዜው	-11.2592
ብልጣሶር	-11.2592
ብርቱዎች	-11.2592
ተሻገረ	-11.2592
ተንቀሳቃሾች	-11.2592
ታስተውሉ	-11.2592
ትሞታለህ	-11.2592
ትፈርድ	-11.2592
ነግረው	-11.2592
ነፋሳት	-11.2592
አለቆቻቸው	-11.2592
አሣሄል	-11.2592
አስተማሪ	-11.2592
አቃሮን	-11.2592
አቅራቢያ	-11.2592
አብድዩ	-11.2592
አይቻለሁ	-11.2592
አጥንቶቼ	-11.2592
እዘምራለሁ	-11.2592
እፈልጋለሁ	-11.2592
የመጡት	-11.2592
የሚቀበል	-11.2592
የሚያድን	-11.2592
የተሞሉ	-11.2592
የተቀባ	-11.2592
የዘበኞቹም	-11.2592
ይነግሣል	-11.2592
ጃንደረባ	-11.2592
ገልጦአል	-11.2592
ጠፍቶአል	-11.2592
ጽዋውን	-11.2592
ፈጥናችሁ	-11.2592
ፍጹማን	-11.2592
ማሳደድ	-11.2592
አሳባቸው	-11.2592
ተዋረደ	-11.2592
እንድትሆኑ	-11.2592
ድፍረት	-11.2592
አልችልም	-11.2593
ይወርሳሉ	-11.2593
አይችሉም	-11.2593
አንካሳ	-11.2593
ማኑሄ	-11.2593
ሲሄድ	-11.2593
ስላደረገው	-11.2593
ተመለከትሁ	-11.2593
ተግባር	-11.2595
ግደሉ	-11.2596
ትበላለች	-11.2599
ያለችውን	-11.2599
አሰብሁ	-11.2599
ዲናር	-11.2599
አትብሉ	-11.2599
ስገዱ	-11.2599
በባልንጀራው	-11.2599
ገላውን	-11.26
የባሳን	-11.26
መውጣት	-11.26
አትሁኑ	-11.26
ስካር	-11.261
ዔድን	-11.2612
የኢየሩሳሌምንም	-11.2614
አይኖርም	-11.2618
ሥርዓትህን	-11.2627
ስገድ	-11.2635
አያይም	-11.2636
▁ይባላል።	-11.2637
▁ይወድቃሉ።	-11.2657
ዘርህን	-11.2666
ቢያደርግ	-11.2678
▁ተሰበሰቡ።	-11.2705
የሐሰት	-11.2856
ንገራቸው	-11.2944
▁አለች፤	-11.3039
ሆናለች	-11.3042
መጣለት	-11.3048
▁አልነበረም፤	-11.3057
መሥራት	-11.3081
አሉአቸው	-11.314
ተቀምጣ	-11.3169
መሠዊያዎች	-11.3169
መርከቡ	-11.3169
መስኮት	-11.3169
መካከለኛ	-11.3169
ማዕዘኑ	-11.3169
ሞላባቸው	-11.3169
ሠርተዋል	-11.3169
ራፋስቂስ	-11.3169
ርቆአል	-11.3169
በመካከላችን	-11.3169
በሚመጣው	-11.3169
በደለኞች	-11.3169
ተቈጠረ	-11.3169
ተኣምራት	-11.3169
ትኵሳት	-11.3169
ትወርሱአት	-11.3169
ትወድድ	-11.3169
አውቄአለሁ	-11.3169
አድርገኝ	-11.3169
አገልግሎታቸው	-11.3169
እልሃለሁ	-11.3169
እሰብራለሁ	-11.3169
እንናገራለን	-11.3169
እኖራለሁ	-11.3169
እጆቻቸው	-11.3169
ከሚቃጠለው	-11.3169
ከረጢት	-11.3169
ወለድሁ	-11.3169
የሚያመጣ	-11.3169
የማንሣት	-11.3169
የተሸከሙ	-11.3169
ያቀርበዋል	-11.3169
ያገለግል	-11.3169
ይፈጸማል	-11.3169
መልካቸው	-11.3169
ነበሩአቸው	-11.3169
አቢግያ	-11.317
በርሳችን	-11.317
በደላችን	-11.317
አልሰማችሁም	-11.317
ያደረግህ	-11.317
ይገኛል	-11.317
አልተገኘም	-11.317
አትግለጥ	-11.3171
በላያችሁ	-11.3172
ይወርሱ	-11.3173
የተልባ	-11.3173
ብዔል	-11.3174
ከብበው	-11.3174
ሲሆን	-11.3174
የሚያደርጉትን	-11.3174
የምታደርገው	-11.3176
ብረቱ	-11.3182
ተቀምጦአል	-11.3183
በሱሳ	-11.3187
ደብረ	-11.3197
ችግር	-11.3201
ልበሱ	-11.3209
እንዲያደርጉ	-11.3213
አህያውን	-11.3213
ጥበብንና	-11.3215
የብንያምም	-11.3218
በሰማርያም	-11.3224
ግምቱ	-11.3228
በዚያችም	-11.3257
አመጡለት	-11.3263
የባሪያህን	-11.3282
የመጣው	-11.3283
▁አልሁት።	-11.3371
▁ይለዋል፤	-11.3425
አሥረኛ	-11.3675
አራተኛ	-11.3681
ላካቸው	-11.3779
ትውልዳቸው	-11.3779
g	-11.3782
መንግሥቴ	-11.3782
መዓትህ	-11.3782
መደነቂያ	-11.3782
ሰጠሃቸው	-11.3782
ቃርሚያ	-11.3782
ቅፍርናሆም	-11.3782
በየዕለቱ	-11.3782
ተመልሰህ	-11.3782
ተከፈቱ	-11.3782
ተዘልለው	-11.3782
ትኖራላችሁ	-11.3782
አላገኙም	-11.3782
አልቀረም	-11.3782
አመለኩ	-11.3782
አማሌቃውያን	-11.3782
አሜሳይ	-11.3782
አምጥቶ	-11.3782
አርማቴም	-11.3782
አደርጋታለሁ	-11.3782
አድርጌሃለሁ	-11.3782
ኤልያሴብ	-11.3782
እንግድነት	-11.3782
እጠብቃለሁ	-11.3782
ከብቶች	-11.3782
ኬጢያውያን	-11.3782
ወይፈኑን	-11.3782
የሚያህሉ	-11.3782
የሚያስተው	-11.3782
የማደርገው	-11.3782
ይታጠባል	-11.3782
ይፈርዱ	-11.3782
ጠየቃቸው	-11.3782
▁ተባባሉ።	-11.3782
እጠራለሁ	-11.3782
የሚመስሉ	-11.3782
ያመስግኑ	-11.3782
ይመስገን	-11.3782
ይቃጠላል	-11.3782
ይገለጣል	-11.3782
እገባለሁ	-11.3782
ያልፋሉ	-11.3782
ትወርሳት	-11.3782
አንደበት	-11.3782
ወንድማችን	-11.3782
አምጥተው	-11.3782
ይከተሉ	-11.3782
ጥፋታቸው	-11.3782
በደላችሁ	-11.3783
አልበላም	-11.3783
መንደር	-11.3783
ንገረው	-11.3784
ለማጥፋት	-11.3784
ይመልሳል	-11.3785
ንገረን	-11.3786
ስብራት	-11.3787
መጠጊያዬ	-11.3789
የተባለውን	-11.38
አትብላ	-11.3801
ቃላቸው	-11.3804
ገረድ	-11.3808
በዙፋኑም	-11.381
ሰልሉ	-11.3812
ግለጥ	-11.3812
ትናንት	-11.3817
ያድነው	-11.3821
ብትሉ	-11.3824
ጆሮውን	-11.3839
ሰጠችው	-11.3852
እምቢ	-11.3869
ተመለከቱ	-11.3931
ምሳሌውን	-11.3937
ነበሩበት	-11.4023
በባሪያዎቹ	-11.4045
ተሰቀለ	-11.4059
ባየሁ	-11.4072
w	-11.4212
▁አደረገው።	-11.4216
ታደርገው	-11.4427
ለዘርህ	-11.4434
መስዋዕት	-11.4434
መታመኛ	-11.4434
መንቀጥቀጥ	-11.4434
መንኰራኵሮቹ	-11.4434
መደረቢያ	-11.4434
መድረክ	-11.4434
መጠምጠሚያ	-11.4434
ማሰናከያ	-11.4434
ምታፈስሰው	-11.4434
ሰገነቱ	-11.4434
ሸመገለ	-11.4434
ሽማግሎች	-11.4434
በነገውም	-11.4434
በአጠገባቸውም	-11.4434
በዓይናቸው	-11.4434
ተሰነጠቀ	-11.4434
ተባበሩ	-11.4434
ተናገራችሁ	-11.4434
ትኖራለህ	-11.4434
ትወዳለህ	-11.4434
ናቡዘረዳን	-11.4434
አስወገደ	-11.4434
አብደናጎ	-11.4434
አትደንግጡ	-11.4434
አገልጋዮቹ	-11.4434
እለምናችኋለሁ	-11.4434
እቀጣለሁ	-11.4434
እንሞታለን	-11.4434
እንዳደረጉ	-11.4434
እግሬን	-11.4434
እግሮቻቸው	-11.4434
ከተፈተለ	-11.4434
ከነዓናዊው	-11.4434
ኵርንችት	-11.4434
ወሰድሁ	-11.4434
ወንድሞቻችን	-11.4434
ዘጠኝኛው	-11.4434
የሚወድዱ	-11.4434
የሚወድድ	-11.4434
የሚወጣው	-11.4434
የሞቱት	-11.4434
ያረክሱ	-11.4434
ያሰኘው	-11.4434
ይሆንላቸዋል	-11.4434
ይሰግዳሉ	-11.4434
ይሸከማሉ	-11.4434
ደካሞች	-11.4434
ጕልበቱ	-11.4434
ጠንቋዮች	-11.4434
አስገባሪ	-11.4434
እዘረጋለሁ	-11.4434
ገዙአቸው	-11.4434
ትመስላለች	-11.4434
ተዋረዱ	-11.4434
ድንበራቸው	-11.4434
ማፍሰስ	-11.4434
ሰምተናል	-11.4434
አጠፋቸው	-11.4434
ጠፍተዋል	-11.4434
እሠራለሁ	-11.4434
መራቸው	-11.4435
ተመልሳችሁ	-11.4435
እንዲሄድ	-11.4435
ሰጥተዋል	-11.4435
ያቃጥል	-11.4435
አብራምን	-11.4435
አሳደዱ	-11.4435
አልመለስም	-11.4435
በመከራዬ	-11.4436
ተከተል	-11.4436
ደረስን	-11.4436
ላድርግ	-11.4436
ያደረግሁትን	-11.4436
ፍሬያማ	-11.4436
መከራዬን	-11.4441
እንላለን	-11.4441
ያጥኑ	-11.4444
ያድኑ	-11.4449
ረገጠ	-11.4452
እስከዚህ	-11.4453
አሠራር	-11.4455
ጉባኤውም	-11.4465
በከተማው	-11.4504
ወደድህ	-11.4508
አደገ	-11.4525
ያለህን	-11.4525
መጣባቸው	-11.4543
አደረገለት	-11.4658
ላላቸው	-11.4709
አማርያ	-11.4736
r	-11.5132
መሃናይም	-11.5132
መንገዶች	-11.5132
መጥተዋል	-11.5132
ምክራቸው	-11.5132
ሰዱቃውያን	-11.5132
ሲዶናውያን	-11.5132
ቢታንያ	-11.5132
ባትሰሙ	-11.5132
ብልሃተኛ	-11.5132
ተነሥቶአል	-11.5132
ተደርጎ	-11.5132
ታናሺቱ	-11.5132
ትወዳላችሁ	-11.5132
ነገሥታቶቻቸው	-11.5132
ነፍሳችን	-11.5132
አርሞንዔም	-11.5132
አስነሣው	-11.5132
አኪማአስ	-11.5132
አይጸናም	-11.5132
እነሣለሁ	-11.5132
እንዳላችሁ	-11.5132
እንዳልሆነ	-11.5132
ከመካከላቸው	-11.5132
ዓይናችን	-11.5132
የሚናገረው	-11.5132
የምትኖር	-11.5132
የናዝሬቱ	-11.5132
የደኅንነቱን	-11.5132
ያልተገረዘ	-11.5132
ይሆንበታል	-11.5132
ይሸከማል	-11.5132
ይታያል	-11.5132
ይደርሳል	-11.5132
ጠራቢዎች	-11.5132
ፌዘኛ	-11.5132
▁አለቻት።	-11.5132
ማገልገያ	-11.5132
ምላሳቸው	-11.5132
የተረገመ	-11.5132
ሰፈራቸው	-11.5132
አስባለሁ	-11.5132
ይሰግዱ	-11.5132
እመጣለሁ	-11.5132
የምስራች	-11.5132
አይደለንም	-11.5132
ትበላለህ	-11.5132
የተገኘውን	-11.5132
ንግግር	-11.5132
ብንሆን	-11.5133
ነገራችሁ	-11.5133
አንችልም	-11.5133
ጥበበኛ	-11.5133
ሰይፌ	-11.5133
ውርደት	-11.5134
አልሰማም	-11.5134
ስደተኛ	-11.5135
አልመጣም	-11.5135
ለመንሁ	-11.5135
መባውም	-11.5136
መምሰል	-11.5138
ይራራል	-11.5144
ውደዱ	-11.5148
በኮረብታው	-11.5148
ለአብርሃምና	-11.5148
ሰውዬው	-11.5149
ለደኅንነትም	-11.515
የተሠራውን	-11.5153
ጆሮህን	-11.5159
ተቀመጠበት	-11.5159
ተገለጠለት	-11.5161
አይመለስም	-11.5165
ከከተማው	-11.5167
የቤቱንም	-11.5172
አገኘው	-11.5199
ልሄድ	-11.5224
እጅዋን	-11.5406
በተሠራ	-11.5436
▁አደሰ።	-11.5626
▁ጠየቀው።	-11.5627
መታጠቢያ	-11.5882
ተአምራቱ	-11.5882
አንጥረኛ	-11.5882
እንስሶቻቸው	-11.5882
የሚያስጨንቁ	-11.5882
የታሰረ	-11.5882
ለበጣቸው	-11.5882
ልኮኛል	-11.5882
መሠረቱ	-11.5882
መሥዋዕታቸው	-11.5882
መንኰራኵሮች	-11.5882
መውጫውም	-11.5882
ሠራዊታቸው	-11.5882
ሠራዊቶቻቸው	-11.5882
ሠርቶአል	-11.5882
ሰላትያል	-11.5882
ሲናገሩ	-11.5882
ሹማምቶች	-11.5882
በሕይወታቸው	-11.5882
በማግሥቱ	-11.5882
በዕብራይስጥ	-11.5882
በፈቃዳቸው	-11.5882
ተሞልታለች	-11.5882
ተቀምጠዋል	-11.5882
ታደርጋለች	-11.5882
ትሰጣላችሁ	-11.5882
ቸርነቱ	-11.5882
አልፎአል	-11.5882
አመጣቸዋለሁ	-11.5882
አሞራዊው	-11.5882
አስቀድማችሁ	-11.5882
አስተምረኝ	-11.5882
አንደበቴ	-11.5882
አዝዣለሁ	-11.5882
አደርጋቸዋለሁ	-11.5882
አገሪቱ	-11.5882
ኤዊያውያን	-11.5882
እሆናቸዋለሁ	-11.5882
እምቦሳ	-11.5882
እሞታለሁ	-11.5882
ከሐምራዊም	-11.5882
ዝንጕርጕር	-11.5882
የሚያሰኘውን	-11.5882
የሚያቀርበው	-11.5882
የሻለቃው	-11.5882
የተረፈውን	-11.5882
የተናገርኸው	-11.5882
የኀጥኣን	-11.5882
የናታንያ	-11.5882
ያስተምራቸው	-11.5882
ያቀርቡላችኋል	-11.5882
ይሰበሰባሉ	-11.5882
ይሰጣችኋል	-11.5882
ይነግዱ	-11.5882
ይገረዝ	-11.5882
ገበታውን	-11.5882
ፌርዛውያን	-11.5882
ተቃዋሚ	-11.5882
አድርገናል	-11.5882
እንድርያስ	-11.5882
ጥፍጥፍ	-11.5882
እመለሳለሁ	-11.5882
እባካችሁ	-11.5882
እጥላለሁ	-11.5882
እወጣለሁ	-11.5882
እምላለሁ	-11.5882
በድያለሁ	-11.5882
ይወርሳል	-11.5882
ሰይፋቸው	-11.5882
ትከተሉ	-11.5883
ፍርምባ	-11.5883
ውሰደው	-11.5883
ባሪያይቱ	-11.5883
ወደምትባል	-11.5884
ያየሁት	-11.5884
አካሄዱ	-11.5884
እንበረም	-11.5884
ስልማና	-11.5884
ይሰጣሉ	-11.5885
ያጠፋቸው	-11.5885
ሳይመጣ	-11.5886
ለባልንጀራው	-11.5886
ነውረኛ	-11.5886
አወጣለሁ	-11.5886
የሚቀመጡትን	-11.5888
መለየት	-11.5889
በየስማቸው	-11.589
ማርከው	-11.589
ይዘረጋል	-11.5891
የምትቀመጥ	-11.5894
ፍልስጥኤማዊውን	-11.5895
የምትሉ	-11.5895
ይለናል	-11.5897
ችግረኛውን	-11.5898
አደሱ	-11.59
ከመካከልህ	-11.5901
በመካከልህ	-11.5922
ምስክርህን	-11.5925
ሰገዱለት	-11.5929
አያደርግም	-11.596
▁ሉያ።	-11.6165
አድርግለት	-11.6203
ከተማቸው	-11.6424
አትመልስ	-11.6608
ለማግኘት	-11.6694
መቅሠፍቱ	-11.6694
መበለቶች	-11.6694
መግደላዊት	-11.6694
ሰፋጥያስ	-11.6694
ስንዴውን	-11.6694
ቀስተኞች	-11.6694
በሚሰጥህ	-11.6694
በሚኖሩበት	-11.6694
በዓይናችሁ	-11.6694
ብልሃተኞች	-11.6694
ተመላለሱ	-11.6694
ተቀመጣችሁ	-11.6694
ተናወጠች	-11.6694
ተንቀሳቃሽ	-11.6694
ተዉአቸው	-11.6694
ተገናኘው	-11.6694
ታቀርባለህ	-11.6694
ትዕቢተኛ	-11.6694
አልራቀም	-11.6694
አስቀመጠ	-11.6694
አትደንግጥ	-11.6694
አንካሶች	-11.6694
አዋቂዎች	-11.6694
አይተሃል	-11.6694
አይታችኋል	-11.6694
አጥንቶች	-11.6694
እኅታቸው	-11.6694
እንኖራለን	-11.6694
እንዳላቸው	-11.6694
እንዳዘዛቸው	-11.6694
እዘዛቸው	-11.6694
እያንዳንዳችን	-11.6694
ከብቶቻቸው	-11.6694
የሚሸፍነውን	-11.6694
የተመሰገነ	-11.6694
የኖረበት	-11.6694
ይመሰክር	-11.6694
ይመስላችኋል	-11.6694
ይረጨዋል	-11.6694
ይደነግጣሉ	-11.6694
ድንኳኖቻቸው	-11.6694
ድንግሊቱ	-11.6694
ፊተኛይቱ	-11.6694
ፕ	-11.6694
አድናለሁ	-11.6694
እልካለሁ	-11.6694
አሳያቸው	-11.6694
ይገልጣል	-11.6694
ተለይተው	-11.6694
አላየውም	-11.6694
አፍርሰዋል	-11.6694
ተከማቸ	-11.6694
በድለናል	-11.6694
አትችልም	-11.6694
ተጣጣሉ	-11.6694
መቃጠል	-11.6694
ያመለጠ	-11.6694
የላከውን	-11.6695
መርበብ	-11.6695
እንደየስማቸው	-11.6695
መረግድ	-11.6696
ያይደለ	-11.6696
ጠርተው	-11.6698
አመለከ	-11.6699
ምዋርት	-11.6699
በየወገኑ	-11.67
መልሰን	-11.67
እስኪሆን	-11.67
ከብቱን	-11.6701
ማንኛው	-11.6705
እናንት	-11.6708
በየስፍራው	-11.671
ብሎኛል	-11.6714
ሰደድሁ	-11.672
ሄድህ	-11.6968
𐋇	-11.7273
አምስተኛ	-11.7471
ሰብስበው	-11.7518
እየሰበከ	-11.7568
ለመርዳት	-11.7576
ለመዋጋት	-11.7576
ለመውጋት	-11.7576
ለመገናኘት	-11.7576
መሰደቢያ	-11.7576
መቅረዞች	-11.7576
d	-11.8212
*	-12.0819
1	-12.0819
v	-12.2184
𐊼	-12.3766
l	-12.3766
"	-12.3766
𐊣	-12.3766
2	-12.5646
s	-12.5646
o	-13.0983
3	-13.0983
]	-13.0983
D	-13.2233
e	-13.5328
)	-13.5328
-	-13.5328
5	-13.5328
A	-13.9828
ፏ	-14.2965
ጧ	-14.2966
ጒ	-14.2967
ኼ	-14.2968
ኲ	-14.2969
ኟ	-14.297
ኗ	-14.2971
ቿ	-14.2972
ቷ	-14.2973
ሏ	-14.2974
4	-14.2975
0	-14.2976
ፂ	-14.2977
ዷ	-14.2978
ቊ	-14.2979
(	-14.298
ፒ	-14.2981
ፑ	-14.2982
[	-14.2983
t	-14.2984
ፓ	-14.2985
ፐ	-14.2986
ሷ	-14.2987
T	-14.2988
ኺ	-14.2989
ፔ	-14.299
ቧ	-14.2991
K	-14.2992
ጱ	-14.2993
ጰ	-14.2994
ኾ	-14.2995
ኄ	-14.2996
ፄ	-14.2997
ዡ	-14.2998
ሓ	-14.2999
ቾ	-14.3
ሢ	-14.3001
ዤ	-14.3002
ዦ	-14.3003
W	-14.3004
ጬ	-14.3005
ጺ	-14.3006
ጼ	-14.3007
ኚ	-14.3008
ኡ	-14.3009
ዢ	-14.301
ጶ	-14.3011
ዠ	-14.3012
ሼ	-14.3013
ሒ	-14.3014
ዒ	-14.3015
ዪ	-14.3016
ኆ	-14.3017
ሑ	-14.3018
ጲ	-14.3019
ጪ	-14.302
ኻ	-14.3021
ኜ	-14.3022
ፆ	-14.3023
ኽ	-14.3024
ጵ	-14.3025
ዥ	-14.3026
ሖ	-14.3027
ዣ	-14.3028
ጾ	-14.3029
ኹ	-14.303
ሤ	-14.3031
ፁ	-14.3032
ዑ	-14.3033
ዉ	-14.3034
ኀ	-14.3035
ዌ	-14.3036
ጴ	-14.3037
ጤ	-14.3038
ጩ	-14.3039
ኣ	-14.304
ዐ	-14.3041
ኰ	-14.3042
ጳ	-14.3043
ቋ	-14.3044
ኙ	-14.3045
ቺ	-14.3046
ኒ	-14.3047
ሂ	-14.3048
ፃ	-14.3049
ቲ	-14.305
ቄ	-14.3051
ሾ	-14.3052
ሹ	-14.3053
ጓ	-14.3054
ጄ	-14.3055
ጮ	-14.3056
ጹ	-14.3057
ፀ	-14.3058
ኬ	-14.3059
ዞ	-14.306
ኘ	-14.3061
ጐ	-14.3062
ሀ	-14.3063
ኦ	-14.3064
ጂ	-14.3065
ጫ	-14.3066
ኵ	-14.3067
ዖ	-14.3068
ኸ	-14.3069
ኅ	-14.307
ኳ	-14.3071
ጕ	-14.3072
ጦ	-14.3073
ፅ	-14.3074
ቂ	-14.3075
ፎ	-14.3076
ቼ	-14.3077
ጁ	-14.3078
ሦ	-14.3079
ቈ	-14.308
ጃ	-14.3081
ኮ	-14.3082
ዴ	-14.3083
ኞ	-14.3084
ጭ	-14.3085
ቦ	-14.3086
ኩ	-14.3087
ቍ	-14.3088
ጻ	-14.3089
ኪ	-14.309
ጎ	-14.3091
ዩ	-14.3092
ጨ	-14.3093
ሻ	-14.3094
ሡ	-14.3095
ሜ	-14.3096
ጢ	-14.3097
ሶ	-14.3098
ጸ	-14.3099
ሣ	-14.31
ጀ	-14.3101
ፉ	-14.3102
ቴ	-14.3103
ሸ	-14.3104
ሐ	-14.3105
ዶ	-14.3106
ሊ	-14.3107
ሃ	-14.3108
ቁ	-14.3109
ዙ	-14.311
ሬ	-14.3111
ጌ	-14.3112
ኋ	-14.3113
ቹ	-14.3114
ጽ	-14.3115
ኃ	-14.3116
ዮ	-14.3117
ጡ	-14.3118
ሽ	-14.3119
ቆ	-14.312
ዊ	-14.3121
ቻ	-14.3122
ዕ	-14.3123
ቡ	-14.3124
ዜ	-14.3125
ሪ	-14.3126
ሠ	-14.3127
ፊ	-14.3128
ኖ	-14.3129
ኢ	-14.313
ሴ	-14.3131
ጊ	-14.3132
ሮ	-14.3133
ሙ	-14.3134
ሎ	-14.3135
ሌ	-14.3136
ዎ	-14.3137
ኝ	-14.3138
ዛ	-14.3139
ጉ	-14.314
ቤ	-14.3141
ዓ	-14.3142
ዝ	-14.3143
ኤ	-14.3144
ሕ	-14.3145
ሞ	-14.3146
ቶ	-14.3147
ሥ	-14.3148
ጋ	-14.3149
ሩ	-14.315
ፈ	-14.3151
ሚ	-14.3152
ክ	-14.3153
ቅ	-14.3154
ሔ	-14.3155
ዳ	-14.3156
ዘ	-14.3157
ቀ	-14.3158
ታ	-14.3159
ወ	-14.316
u	-14.3161
@	-14.3161
b	-14.3161
m	-14.3161
ነ	-14.3161
