<pad>	0
</s>	0
<unk>	0
¦	-1.47731
▁¦	-1.47755
ا	-3.68125
ال	-3.74024
▁.	-3.91019
ي	-3.96561
و	-4.07444
ت	-4.24084
ة	-4.30403
ه	-4.3867
ب	-4.43703
ع	-4.54847
ف	-4.60666
م	-4.67548
ك	-4.69583
ل	-4.74624
وا	-4.79114
في	-4.96717
من	-4.96775
ن	-5.04883
ون	-5.18156
ان	-5.22774
ى	-5.26009
د	-5.26474
س	-5.26621
ر	-5.27265
ش	-5.45578
ح	-5.45724
ق	-5.5236
ّ	-5.52527
لى	-5.52704
خ	-5.55491
ين	-5.59236
ج	-5.63487
هم	-5.68697
لا	-5.69782
الرب	-5.72938
ص	-5.74258
كل	-5.76092
ط	-5.79794
ها	-5.87449
ز	-5.90727
نا	-5.99609
ار	-6.07906
ما	-6.09236
ث	-6.13453
كم	-6.16391
قد	-6.17683
يا	-6.22225
أ	-6.22421
الذي	-6.22968
الم	-6.28041
لم	-6.3325
وال	-6.34643
ور	-6.3516
ض	-6.367
لي	-6.38398
لل	-6.40955
ام	-6.41341
اء	-6.44754
ير	-6.475
رب	-6.47985
مع	-6.52815
له	-6.54166
آ	-6.55494
اسرائيل	-6.59944
غ	-6.60159
ئ	-6.60514
وي	-6.60552
بر	-6.63282
يد	-6.64666
ذا	-6.64954
كان	-6.68195
وت	-6.69397
بيت	-6.69612
عن	-6.70559
بن	-6.73252
هذا	-6.74244
هو	-6.75624
ولا	-6.75677
ول	-6.76966
ذ	-6.78222
الله	-6.78661
ملك	-6.80135
اد	-6.8057
اب	-6.80956
وب	-6.82162
لان	-6.82634
لك	-6.85382
جميع	-6.86184
ته	-6.89782
مر	-6.90559
وع	-6.9079
ني	-6.91635
فا	-6.92036
وم	-6.92748
ات	-6.93797
الارض	-6.93858
فقال	-6.97033
التي	-6.97485
بني	-6.98102
فر	-7.0065
ثم	-7.007
فت	-7.03643
وس	-7.05102
به	-7.05359
بال	-7.05781
يضا	-7.08892
يم	-7.099
وق	-7.09952
كر	-7.10622
ابن	-7.11986
يل	-7.14251
عمل	-7.14961
بل	-7.15058
ذلك	-7.17289
سمع	-7.18159
مس	-7.1887
واحد	-7.19517
وه	-7.19753
اس	-7.20986
انا	-7.22145
وقال	-7.23064
عد	-7.2328
را	-7.24753
اذا	-7.25128
ذهب	-7.25626
قر	-7.25796
الملك	-7.26481
رجل	-7.26513
ود	-7.26705
قل	-7.27988
عند	-7.29716
يكون	-7.30568
تم	-7.32516
هنا	-7.3334
لانه	-7.3337
ظ	-7.33678
امام	-7.34016
ليس	-7.34272
اني	-7.34472
وكان	-7.34474
خرج	-7.34489
يت	-7.36341
يهو	-7.36616
قال	-7.36919
اسم	-7.38178
تر	-7.38761
ذه	-7.39372
جد	-7.4048
مت	-7.40967
خر	-7.41618
حت	-7.41737
حي	-7.4192
قي	-7.42171
وح	-7.4249
ست	-7.42671
اود	-7.42755
ارض	-7.42852
صر	-7.42963
اق	-7.43123
يس	-7.44098
لهم	-7.44187
انت	-7.45105
سن	-7.45529
هي	-7.45592
يق	-7.45646
كذا	-7.45828
شي	-7.46586
سب	-7.46885
بعد	-7.49883
عل	-7.51277
سر	-7.5135
بي	-7.5153
شر	-7.52271
ضع	-7.52478
تك	-7.52571
بين	-7.53413
عشر	-7.53668
حا	-7.54499
انه	-7.54596
جر	-7.54766
جعل	-7.56031
اليوم	-7.56597
فعل	-7.5701
سا	-7.59243
يسو	-7.59392
ايام	-7.60197
ؤ	-7.60359
حسب	-7.6083
الشعب	-7.61087
وكل	-7.61473
بنو	-7.6152
دخل	-7.6155
اذ	-7.6274
دم	-7.64374
كلم	-7.6464
موس	-7.65208
صنع	-7.65896
وان	-7.65934
كما	-7.65954
حر	-7.66647
تي	-7.6687
ء	-7.6747
اح	-7.67662
يقول	-7.6831
مدين	-7.6843
علم	-7.68697
ذين	-7.68699
لت	-7.6871
مل	-7.68903
قائلا	-7.69744
شعب	-7.7155
كلام	-7.73187
عليه	-7.73991
كثير	-7.74025
حل	-7.74594
جل	-7.74679
ابي	-7.74699
رد	-7.74936
جاء	-7.75133
شليم	-7.75864
اعط	-7.76026
قول	-7.77201
رأ	-7.78544
شا	-7.78791
سل	-7.79126
عرف	-7.7921
قلب	-7.79927
اور	-7.80034
سيد	-7.80272
ولكن	-7.81162
خذ	-7.81517
تكلم	-7.81968
أت	-7.8205
صعد	-7.82409
نظر	-7.85656
مصر	-7.85752
وج	-7.85894
الآن	-7.86214
فض	-7.86455
ومن	-7.87028
عبد	-7.87192
واما	-7.87661
قدس	-7.87911
فان	-7.88651
حين	-7.89686
لكم	-7.8993
ولم	-7.90544
وش	-7.91287
نفس	-7.91884
وص	-7.92205
لكي	-7.92585
جن	-7.93348
ثلاث	-7.93967
علي	-7.95011
الق	-7.95577
روح	-7.96617
اص	-7.96621
وجه	-7.96748
ارسل	-7.9711
مئ	-7.97825
بط	-7.97958
يها	-7.98051
ضرب	-7.98662
رجع	-7.98968
غن	-7.99234
قام	-8.00092
طي	-8.00644
حق	-8.00658
تكون	-8.00852
يين	-8.01214
وفي	-8.01389
ذبح	-8.01478
عظيم	-8.02086
اخذ	-8.02106
الشر	-8.02945
جب	-8.03719
احد	-8.04923
غر	-8.05181
مسيح	-8.05194
اجل	-8.05665
طريق	-8.06159
قو	-8.0647
تهم	-8.06834
امر	-8.06918
قتل	-8.07108
يوم	-8.0721
سكن	-8.08202
كن	-8.08353
سبع	-8.0873
قبل	-8.08979
اط	-8.09173
مثل	-8.09314
حد	-8.09551
ولد	-8.0956
صوت	-8.09978
يدي	-8.11932
است	-8.12515
تها	-8.12941
راس	-8.1326
عين	-8.13482
از	-8.13483
عز	-8.13848
صل	-8.13901
باب	-8.14337
عر	-8.14573
طلب	-8.15131
اليه	-8.15985
موت	-8.1608
خمس	-8.163
وسط	-8.16788
وك	-8.17698
سماء	-8.1783
الحق	-8.18158
هما	-8.18854
نفسه	-8.19582
كثر	-8.19711
رجال	-8.19808
مد	-8.20402
فن	-8.21305
رج	-8.22337
انتم	-8.22617
بها	-8.22939
غير	-8.23425
اربع	-8.23894
قائل	-8.2418
معه	-8.25481
اما	-8.25967
حكم	-8.2621
صار	-8.26539
امم	-8.27284
الهك	-8.28514
عيني	-8.29688
انسان	-8.30298
نزل	-8.3048
جمع	-8.30804
آخر	-8.31306
غل	-8.32821
امرأ	-8.3313
وجد	-8.33288
تقدم	-8.33713
ولما	-8.33906
مجد	-8.34463
عبيد	-8.35127
جبل	-8.36016
اخو	-8.36157
كنت	-8.36886
فلا	-8.37865
نار	-8.38501
لاجل	-8.39945
تحت	-8.40358
حيا	-8.4077
ئيل	-8.41006
سيف	-8.41086
حص	-8.41714
الانسان	-8.41939
حفظ	-8.42217
يعقوب	-8.42432
ؤل	-8.43238
قض	-8.4333
رؤساء	-8.43632
قدام	-8.43766
بيد	-8.44318
ائم	-8.44407
فلما	-8.4455
لاني	-8.4583
خير	-8.461
فرح	-8.46129
قطع	-8.46244
مدن	-8.46309
سلام	-8.46311
عليك	-8.4647
وهو	-8.4896
الكاهن	-8.49612
رئيس	-8.49615
نحو	-8.50377
خطي	-8.50632
عبر	-8.51452
رفع	-8.52769
بد	-8.52891
غضب	-8.53416
ذكر	-8.53805
ماء	-8.53872
اخي	-8.53945
وقت	-8.54363
الابد	-8.54814
هرون	-8.54999
بارك	-8.5515
خبز	-8.56583
لحم	-8.57189
نحن	-8.57392
ترك	-8.58092
بعض	-8.58318
خارج	-8.58496
مض	-8.59051
سقط	-8.5972
خدم	-8.59977
البحر	-8.5998
الكهن	-8.60179
شد	-8.60934
نعم	-8.61791
وراء	-8.62896
يكن	-8.63396
رحم	-8.63522
اليك	-8.64026
احب	-8.64052
قوم	-8.64202
آبائ	-8.64261
رام	-8.65049
ابرا	-8.65204
حسن	-8.65457
قط	-8.65516
حمل	-8.65913
لانهم	-8.66731
جسد	-8.67003
نجس	-8.67822
ملوك	-8.6906
بابل	-8.70038
شهر	-8.70559
دعو	-8.70757
مكان	-8.71053
الناس	-8.7131
كتب	-8.72071
محرق	-8.72987
عليهم	-8.73141
سليمان	-8.73578
عهد	-8.73864
خيم	-8.74581
سأل	-8.7522
عظم	-8.77093
نفسك	-8.77541
رسل	-8.77596
شعوب	-8.78636
شاو	-8.79716
لجنود	-8.79821
فاجاب	-8.8033
ئذ	-8.80624
دفع	-8.80998
ساكن	-8.8132
اليهود	-8.82663
طلق	-8.8371
مياه	-8.83729
الفلسطيني	-8.83877
سموات	-8.85339
أمر	-8.86062
ظلم	-8.86964
ايمان	-8.89003
اللاوي	-8.90204
ذبيح	-8.90225
جانب	-8.90668
ريح	-8.92124
ذراع	-8.92176
ثياب	-8.93566
اهل	-8.93673
جماع	-8.94644
اعمال	-8.96391
الاول	-8.97776
خاف	-8.98519
تلاميذ	-8.98661
يأتي	-8.98849
ائه	-8.99169
قسم	-9.0051
رأيت	-9.00844
يعطي	-9.01992
ائر	-9.02979
ملاك	-9.03153
مكتوب	-9.06511
ظهر	-9.06911
إ	-9.24876
▁	-10.8495
-	-12.4453
ً	-12.5882
i	-12.9549
(	-13.2049
)	-13.2049
𐋇	-13.5382
:	-13.5382
[	-14.0382
]	-14.0382
h	-14.0382
o	-14.0382
t	-14.0382
2	-14.0382
1	-14.0382
ـ	-15.0381
.	-15.0382
5	-15.0382
j	-15.0382
n	-15.0382
y	-15.0382
ٍ	-15.0382
𐊣	-15.0382
𐊼	-15.0382
*	-15.0382
6	-15.0382
m	-15.0382
