<pad>	0
</s>	0
<unk>	0
▁¦	-0
▁क	-1
▁्	-2
▁स	-3
▁ह	-4
ार	-5
ें	-6
▁प	-7
या	-8
▁म	-9
ने	-10
ों	-11
्र	-12
▁है	-13
▁ज	-14
ता	-15
और	-16
▁अ	-17
▁के	-18
▁व	-19
के	-20
ना	-21
▁ब	-22
▁उ	-23
िक	-24
▁द	-25
▁त	-26
▁ल	-27
ान	-28
▁न	-29
▁में	-30
से	-31
▁र	-32
▁और	-33
र्	-34
है	-35
ित	-36
▁की	-37
्य	-38
▁कर	-39
▁(	-40
कर	-41
ाल	-42
▁कि	-43
में	-44
ही	-45
▁आ	-46
▁प्र	-47
की	-48
▁को	-49
ति	-50
▁से	-51
का	-52
कि	-53
ते	-54
▁भ	-55
रा	-56
िए	-57
▁़	-58
ोग	-59
▁का	-60
▁।	-61
ला	-62
▁इ	-63
▁ग	-64
वा	-65
▁,	-66
को	-67
था	-68
एक	-69
स्	-70
ती	-71
हा	-72
▁पर	-73
िय	-74
▁य	-75
ुम	-76
न्	-77
क्	-78
सी	-79
हीं	-80
वि	-81
सा	-82
▁च	-83
पर	-84
▁हो	-85
मा	-86
दा	-87
कार	-88
िया	-89
री	-90
▁जा	-91
▁श	-92
▁वि	-93
▁सं	-94
दे	-95
▁हैं	-96
ले	-97
जा	-98
नी	-99
▁एक	-100
▁ख	-101
िर	-102
्व	-103
ड़	-104
सं	-105
▁लिए	-106
▁इस	-107
ंत	-108
िन	-109
▁)	-110
भी	-111
हो	-112
्या	-113
ंग	-114
▁जो	-115
▁अप	-116
▁फ	-117
िल	-118
िस	-119
ाह	-120
▁तो	-121
ारा	-122
▁उस	-123
्ट	-124
रे	-125
▁उन	-126
▁दे	-127
▁नहीं	-128
▁सा	-129
▁भी	-130
▁सम	-131
▁तुम	-132
भा	-133
▁.	-134
हु	-135
▁नि	-136
गा	-137
उन	-138
त्	-139
▁ने	-140
▁हम	-141
मान	-142
पा	-143
▁स्	-144
लिए	-145
▁-	-146
ारे	-147
वर	-148
▁या	-149
ारी	-150
▁रा	-151
ुर	-152
हैं	-153
ल्	-154
इस	-155
दि	-156
धिक	-157
▁किया	-158
वे	-159
क्ष	-160
बा	-161
▁यह	-162
ूप	-163
हें	-164
ष्ट	-165
खा	-166
गे	-167
▁बा	-168
त्र	-169
▁ही	-170
जो	-171
नि	-172
ओं	-173
ियों	-174
ज़	-175
सम	-176
ली	-177
अप	-178
नु	-179
देश	-180
▁करने	-181
ूर	-182
तो	-183
ैं	-184
ुछ	-185
उस	-186
दी	-187
रह	-188
ास	-189
जी	-190
▁वह	-191
▁लोग	-192
हम	-193
▁थ	-194
▁मु	-195
▁हु	-196
तुम	-197
ूल	-198
योग	-199
ये	-200
नहीं	-201
वाल	-202
▁कार	-203
▁ड	-204
ंध	-205
ोज	-206
मी	-207
ारत	-208
ुदा	-209
मु	-210
तर	-211
मे	-212
यों	-213
तु	-214
गर	-215
द्	-216
▁सक	-217
धार	-218
ंड	-219
्री	-220
▁अपने	-221
श्	-222
▁ए	-223
▁वे	-224
्ष	-225
▁1	-226
▁उप	-227
▁था	-228
▁ले	-229
▁ऐ	-230
चा	-231
ुन	-232
वह	-233
सर	-234
च्	-235
हों	-236
▁उन्	-237
किया	-238
▁रह	-239
यह	-240
नों	-241
लाह	-242
▁पू	-243
गी	-244
▁तथा	-245
वी	-246
चार	-247
▁गया	-248
्त	-249
ंद	-250
▁जिस	-251
बर	-252
▁मा	-253
▁आप	-254
20	-255
यु	-256
▁दो	-257
▁कुछ	-258
▁वाल	-259
▁"	-260
बंध	-261
िका	-262
यक	-263
टा	-264
▁ध	-265
ृत	-266
▁किसी	-267
लोग	-268
▁मे	-269
▁छ	-270
करने	-271
टी	-272
शा	-273
धि	-274
▁तुम्	-275
ुल	-276
▁ला	-277
▁साथ	-278
▁अधिक	-279
म्	-280
▁द्व	-281
▁¦1	-282
▁जब	-283
पू	-284
▁घ	-285
▁ख़	-286
▁प्रा	-287
हर	-288
▁चाह	-289
▁रूप	-290
चे	-291
शन	-292
ीन	-293
▁कोई	-294
▁ना	-295
तक	-296
होंने	-297
▁निर्	-298
▁पा	-299
इन	-300
▁वा	-301
सक	-302
ोक	-303
▁अनु	-304
▁करें	-305
ानी	-306
ार्	-307
▁भा	-308
▁द्वारा	-309
▁बना	-310
▁तक	-311
एँ	-312
ोल	-313
ढ़	-314
दान	-315
▁करते	-316
षा	-317
पति	-318
वन	-319
अपने	-320
ूस	-321
जन	-322
टे	-323
▁प्रति	-324
▁थे	-325
ियम	-326
▁अन	-327
ूच	-328
▁उनके	-329
पी	-330
▁क्ष	-331
▁व्य	-332
तों	-333
▁भारत	-334
▁लोगों	-335
▁परि	-336
▁वर्	-337
हुत	-338
क्ति	-339
▁जाता	-340
क्त	-341
▁सु	-342
उप	-343
थित	-344
धान	-345
िन्	-346
बी	-347
▁विश	-348
▁फिर	-349
रण	-350
▁कार्य	-351
▁स्व	-352
रो	-353
्रा	-354
▁राष्ट	-355
तीय	-356
▁कहा	-357
▁पह	-358
ंक	-359
लि	-360
िला	-361
जब	-362
▁दिया	-363
कों	-364
▁इन	-365
टर	-366
द्य	-367
हारे	-368
दो	-369
क़	-370
▁करना	-371
दर	-372
जिस	-373
गत	-374
▁मैं	-375
ौर	-376
▁राज	-377
▁अध	-378
बे	-379
ब्	-380
शी	-381
▁ई	-382
ेष	-383
▁सि	-384
ूँ	-385
▁अल्	-386
▁क्या	-387
▁रख	-388
यी	-389
वास	-390
द्ध	-391
▁ये	-392
फ़	-393
रकार	-394
▁दि	-395
▁कह	-396
प्त	-397
▁अव	-398
आप	-399
▁उसके	-400
च्छ	-401
▁ज़	-402
थान	-403
▁सब	-404
▁¤	-405
तथा	-406
भाव	-407
चित	-408
स्त	-409
ंत्र	-410
▁उत्	-411
▁रहे	-412
निर	-413
कुछ	-414
▁हुए	-415
ोगा	-416
गया	-417
मिल	-418
एं	-419
अल	-420
▁अपनी	-421
्यों	-422
क्र	-423
राज	-424
करण	-425
रि	-426
र्ण	-427
ैसे	-428
▁अल्लाह	-429
ओर	-430
ष्	-431
झे	-432
▁𐋇	-433
मि	-434
▁'	-435
्ञ	-436
दार	-437
▁थी	-438
हां	-439
र्व	-440
अन	-441
साथ	-442
किसी	-443
▁ट	-444
रूप	-445
वं	-446
ड़ा	-447
▁जी	-448
हत	-449
▁सी	-450
वार	-451
▁फ़	-452
पूर	-453
हाँ	-454
ेत्र	-455
सि	-456
विश	-457
▁जाए	-458
▁उसे	-459
तन	-460
▁करता	-461
दन	-462
▁उन्हें	-463
ंच	-464
▁सकता	-465
▁ख़ुदा	-466
षण	-467
धा	-468
▁रहा	-469
ड़े	-470
िम	-471
▁होता	-472
▁क़	-473
अधिक	-474
टि	-475
ोजना	-476
ोड	-477
मत	-478
माण	-479
सूल	-480
ड़ी	-481
▁क्षेत्र	-482
सु	-483
सार	-484
▁समय	-485
गार	-486
थी	-487
अनु	-488
▁जान	-489
▁मान	-490
फिर	-491
वर्	-492
▁गु	-493
ोर	-494
201	-495
▁विक	-496
किन	-497
▁पै	-498
चाह	-499
▁राष्ट्र	-500
कृ	-501
कोई	-502
परि	-503
यता	-504
थे	-505
यन	-506
इल	-507
▁देख	-508
▁ता	-509
▁दी	-510
मक	-511
ारतीय	-512
न्द	-513
वल	-514
शक	-515
भारत	-516
वारा	-517
▁बी	-518
ंप	-519
बना	-520
▁बात	-521
ठा	-522
करें	-523
र्थ	-524
▁बे	-525
वाले	-526
वश	-527
िये	-528
▁बाद	-529
▁बहुत	-530
प्र	-531
वाद	-532
फल	-533
राष	-534
करते	-535
लोगों	-536
निक	-537
भाग	-538
तः	-539
भू	-540
ेज	-541
रति	-542
यर	-543
उनके	-544
स्था	-545
रक	-546
विक	-547
हित	-548
▁तरह	-549
क्षा	-550
on	-551
▁काम	-552
▁दिन	-553
▁पास	-554
पु	-555
ंतर	-556
▁वाले	-557
मैं	-558
त्य	-559
ज्ञ	-560
ाली	-561
▁उन्होंने	-562
पह	-563
लग	-564
▁2	-565
▁पु	-566
▁हुआ	-567
भि	-568
काश	-569
सब	-570
कृत	-571
दिया	-572
डी	-573
र्म	-574
ोध	-575
गु	-576
शि	-577
जाता	-578
▁झ	-579
▁गए	-580
▁होने	-581
ूं	-582
उत	-583
▁शा	-584
ाला	-585
0¦	-586
पन	-587
▁प्राप्त	-588
रों	-589
▁मिल	-590
▁सरकार	-591
वस	-592
▁राष्ट्रपति	-593
जि	-594
रु	-595
लय	-596
▁निक	-597
ची	-598
▁सम्	-599
मुख	-600
कारी	-601
▁कम	-602
अपनी	-603
्रीय	-604
▁अन्य	-605
▁हमारे	-606
स्ता	-607
ून	-608
बाद	-609
▁जिन	-610
..	-611
▁देश	-612
अध	-613
षे	-614
▁/	-615
▁?	-616
▁हमने	-617
रख	-618
▁चु	-619
▁तुम्हारे	-620
▁करो	-621
तिक	-622
▁पी	-623
ताओं	-624
उसके	-625
▁यदि	-626
करना	-627
ख़	-628
लो	-629
▁सभी	-630
▁होगा	-631
तम	-632
बार	-633
कह	-634
कहा	-635
▁गई	-636
▁उनकी	-637
णा	-638
ाइल	-639
ेगा	-640
ti	-641
वाला	-642
me	-643
्रे	-644
्स	-645
▁19	-646
▁ओर	-647
▁पहले	-648
पि	-649
▁ऐसे	-650
▁समा	-651
▁प्रकार	-652
कम	-653
दस	-654
पे	-655
▁सूच	-656
िनियम	-657
पै	-658
ूसरे	-659
ुद	-660
▁सकते	-661
रम	-662
जिन	-663
ग्र	-664
▁मह	-665
णी	-666
बन	-667
▁साम	-668
पास	-669
▁छो	-670
▁वर्ष	-671
▁संबंध	-672
▁ऊ	-673
यार	-674
▁नी	-675
▁कारण	-676
▁व्यक्ति	-677
बल	-678
हुए	-679
▁कु	-680
िक्ष	-681
काम	-682
▁खा	-683
तियों	-684
रिक	-685
▁लि	-686
जू	-687
▁अच्छ	-688
ेंद	-689
▁:	-690
थवा	-691
▁चाहिए	-692
▁बु	-693
▁समझ	-694
धारित	-695
▁अगर	-696
थिति	-697
in	-698
▁जाने	-699
दल	-700
दों	-701
यास	-702
रहे	-703
▁होती	-704
श्च	-705
▁हा	-706
पूर्ण	-707
यात	-708
समय	-709
▁नाम	-710
पत	-711
पार	-712
▁सह	-713
▁(_	-714
▁किए	-715
जाए	-716
ताब	-717
रिया	-718
ेल	-719
विद	-720
▁आय	-721
▁इसके	-722
ुक	-723
मार	-724
▁;	-725
▁हि	-726
पित	-727
उसे	-728
▁ऐसा	-729
जान	-730
ंभ	-731
▁मि	-732
ध्य	-733
वाह	-734
▁लग	-735
▁जि	-736
हायता	-737
सूच	-738
षेत	-739
सकता	-740
▁ईमान	-741
ठी	-742
करता	-743
आई	-744
जर	-745
देख	-746
ोह	-747
▁ची	-748
▁रसूल	-749
धी	-750
▁जन	-751
▁बि	-752
दू	-753
दिन	-754
मन	-755
रीय	-756
दर्	-757
ुरु	-758
▁राज्य	-759
▁दिखा	-760
भव	-761
वित	-762
मिक	-763
▁पहु	-764
कल	-765
▁बढ़	-766
ंस	-767
ra	-768
द्योग	-769
पक	-770
▁¦2	-771
▁हों	-772
डा	-773
ेंगे	-774
वेश	-775
यू	-776
200	-777
चना	-778
बात	-779
▁क्र	-780
डर	-781
लों	-782
tion	-783
होता	-784
▁उसकी	-785
छे	-786
्यू	-787
आर	-788
रहा	-789
जे	-790
▁भारतीय	-791
न्न	-792
स्तु	-793
▁क्यों	-794
धन	-795
िकी	-796
अर	-797
▁एवं	-798
स्ट	-799
▁s	-800
ुरू	-801
बड	-802
छा	-803
कु	-804
▁3	-805
च्च	-806
षित	-807
▁विश्व	-808
एस	-809
ोगी	-810
फी	-811
तान	-812
व्य	-813
संस	-814
▁अब	-815
मह	-816
ैठ	-817
▁लगा	-818
▁मुझे	-819
▁व्या	-820
ंजी	-821
ुनिया	-822
अव	-823
पना	-824
▁हर	-825
▁भाग	-826
कट	-827
ेक	-828
षि	-829
▁गा	-830
▁जाती	-831
▁उपयोग	-832
▁%	-833
वरण	-834
▁विकास	-835
▁à	-836
राप	-837
ियाँ	-838
▁प्रदान	-839
वान	-840
बहुत	-841
होने	-842
रती	-843
▁बार	-844
वरदि	-845
▁यु	-846
▁कृ	-847
टन	-848
हि	-849
ज़ा	-850
माल	-851
▁तुम्ह	-852
पो	-853
▁हुई	-854
▁अपना	-855
▁होते	-856
तना	-857
वरदिगार	-858
प्	-859
चल	-860
शास	-861
er	-862
पाल	-863
▁दोनों	-864
▁दा	-865
▁जैसे	-866
▁सेवा	-867
▁स्था	-868
▁मौ	-869
ूह	-870
विष	-871
डे	-872
राम	-873
▁जीवन	-874
▁तुम्हें	-875
सत	-876
▁श्री	-877
टना	-878
यदि	-879
लेख	-880
▁दु	-881
5¦	-882
ैर	-883
काल	-884
▁वै	-885
▁अंत	-886
तरह	-887
▁लिया	-888
ियां	-889
▁¦19	-890
रस	-891
▁निय	-892
▁मुख	-893
उद	-894
▁भू	-895
उनकी	-896
निश	-897
▁रही	-898
00	-899
हुआ	-900
▁रब	-901
▁उसने	-902
▁पूर्व	-903
दद	-904
माज	-905
ालय	-906
na	-907
चि	-908
बू	-909
यं	-910
यान	-911
हास	-912
▁पे	-913
भर	-914
ंति	-915
4¦	-916
ंश	-917
▁बीच	-918
▁मूल	-919
युक्त	-920
नेक	-921
मंत	-922
▁बारे	-923
िल्	-924
ैयार	-925
हमारे	-926
▁लेकिन	-927
▁विशेष	-928
यत	-929
धारण	-930
गए	-931
कृति	-932
नाम	-933
▁अभि	-934
चु	-935
▁न्या	-936
पाद	-937
ाहर	-938
गम	-939
▁ढ	-940
्यक	-941
हमने	-942
▁शिक्ष	-943
साम	-944
▁बन	-945
वालों	-946
▁वाला	-947
▁ऑ	-948
पहले	-949
▁देने	-950
▁रु	-951
क्रम	-952
▁ऐसी	-953
re	-954
ोट	-955
पुर	-956
हरा	-957
हार	-958
िन्न	-959
▁संस्	-960
▁पैदा	-961
_¦	-962
वत	-963
ंचा	-964
▁¦_¦	-965
बि	-966
रत	-967
लब	-968
▁चल	-969
यालय	-970
ग़	-971
शत	-972
जार	-973
दु	-974
रपति	-975
▁‘	-976
हे	-977
ैन	-978
।"	-979
▁मो	-980
▁अधिनियम	-981
▁विचार	-982
▁स्थान	-983
अच	-984
ोजन	-985
ीय	-986
▁मेरे	-987
ंतु	-988
दृ	-989
हन	-990
धारा	-991
ौरान	-992
सान	-993
▁बो	-994
होगा	-995
▁आवश	-996
मो	-997
वृ	-998
▁औ	-999
ऐसे	-1000
▁डा	-1001
▁हमारी	-1002
शिक	-1003
▁स्वा	-1004
मित	-1005
▁तर	-1006
▁दृ	-1007
ख्या	-1008
▁लोक	-1009
▁डि	-1010
▁जाएगा	-1011
la	-1012
ँच	-1013
सभी	-1014
ियो	-1015
▁शु	-1016
गई	-1017
घा	-1018
वै	-1019
रित	-1020
▁इसे	-1021
▁हे	-1022
▁उसी	-1023
▁मार्	-1024
डि	-1025
▁¦3	-1026
▁माल	-1027
▁हूँ	-1028
▁ताकि	-1029
▁प्रयोग	-1030
सो	-1031
⁄4	-1032
मीन	-1033
ईमान	-1034
मू	-1035
▁पि	-1036
▁केवल	-1037
अब	-1038
जाने	-1039
संबंध	-1040
▁उसका	-1041
त्या	-1042
ज्ञान	-1043
ic	-1044
▁आज	-1045
त्ता	-1046
▁अथवा	-1047
▁आवश्यक	-1048
ष्ठ	-1049
रू	-1050
रूर	-1051
समझ	-1052
ंट	-1053
यम	-1054
▁सो	-1055
▁जाना	-1056
फा	-1057
बु	-1058
सल	-1059
सरकार	-1060
संग	-1061
▁योजना	-1062
इट	-1063
लब्	-1064
▁खु	-1065
▁मै	-1066
न्तु	-1067
▁विष	-1068
अगर	-1069
▁जै	-1070
▁जिन्	-1071
▁इसमें	-1072
शु	-1073
कारण	-1074
▁जिसमें	-1075
▁क्योंकि	-1076
लक	-1077
सकते	-1078
▁¦1¦	-1079
सह	-1080
निय	-1081
▁पार	-1082
▁हमें	-1083
पड	-1084
▁अधिकार	-1085
लिख	-1086
▁करती	-1087
▁प्रे	-1088
बढ	-1089
ूट	-1090
त्व	-1091
▁तब	-1092
▁उद्	-1093
▁इसलिए	-1094
गो	-1095
ण्	-1096
ठीक	-1097
▁रि	-1098
ार्थ	-1099
▁सबसे	-1100
▁सहायता	-1101
ट्ट	-1102
क्षण	-1103
▁उनका	-1104
▁उपलब्	-1105
देह	-1106
मेल	-1107
▁जिसे	-1108
विध	-1109
दम	-1110
भग	-1111
उसकी	-1112
इसके	-1113
सन	-1114
▁चीज़	-1115
ऐसा	-1116
णाम	-1117
▁स्प	-1118
चाहिए	-1119
मुझे	-1120
▁मेरी	-1121
▁प्रत्य	-1122
▁आर	-1123
लिया	-1124
किए	-1125
होती	-1126
▁”	-1127
▁अर्थ	-1128
1¦	-1129
ञान	-1130
तार	-1131
विधा	-1132
जूद	-1133
ंगा	-1134
▁वही	-1135
दूसरे	-1136
▁आधार	-1137
▁सकती	-1138
▁शक्ति	-1139
al	-1140
रब	-1141
रसूल	-1142
▁अन्	-1143
▁विभ	-1144
▁जाते	-1145
▁देता	-1146
▁संदेश	-1147
▁उपलब्ध	-1148
▁राष्ट्रीय	-1149
ंह	-1150
भु	-1151
करो	-1152
ैंक	-1153
स्ते	-1154
▁बल्	-1155
▁उससे	-1156
it	-1157
जल	-1158
स्थ	-1159
त्रा	-1160
समान	-1161
▁माम	-1162
▁स्थ	-1163
3⁄4	-1164
वादी	-1165
कुल	-1166
दारी	-1167
पादन	-1168
▁सर्	-1169
▁5	-1170
मूल	-1171
मान्य	-1172
▁उनसे	-1173
▁वाली	-1174
भारतीय	-1175
युक	-1176
क्रिया	-1177
हत्व	-1178
तिहास	-1179
ैक	-1180
लोक	-1181
▁बस	-1182
दिखा	-1183
▁&	-1184
कर्	-1185
ियन	-1186
▁सुर	-1187
▁मू	-1188
▁पता	-1189
▁4	-1190
आत	-1191
ैस	-1192
▁#	-1193
▁𐊣	-1194
र्क	-1195
▁करे	-1196
▁होना	-1197
ॉल	-1198
वाली	-1199
▁महत्व	-1200
6¦	-1201
चाल	-1202
र्ट	-1203
▁कंप	-1204
फे	-1205
लू	-1206
▁ठ	-1207
पहु	-1208
ित्	-1209
राह	-1210
▁जु	-1211
ित्र	-1212
▁¦201	-1213
आय	-1214
टक	-1215
गति	-1216
माजिक	-1217
▁वृ	-1218
ष्टि	-1219
▁लिख	-1220
एम	-1221
बद	-1222
▁डाल	-1223
▁छोड़	-1224
▁दूसरे	-1225
ऋण	-1226
जीवन	-1227
▁बड़ी	-1228
▁“	-1229
मता	-1230
रदान	-1231
▁201	-1232
▁स्ट	-1233
तंत्र	-1234
▁शिक्षा	-1235
र्य	-1236
ियोजना	-1237
गू	-1238
...	-1239
रता	-1240
लगा	-1241
▁सदस	-1242
▁धारा	-1243
▁सूची	-1244
▁परिवर्	-1245
▁बद	-1246
जैसे	-1247
▁दर्	-1248
▁पुन	-1249
▁	-1250
¦	-1251
ा	-1252
क	-1253
र	-1254
े	-1255
्	-1256
न	-1257
ि	-1258
स	-1259
त	-1260
ह	-1261
ं	-1262
ी	-1263
म	-1264
ो	-1265
य	-1266
प	-1267
ल	-1268
व	-1269
द	-1270
ज	-1271
ु	-1272
ग	-1273
ब	-1274
ै	-1275
अ	-1276
श	-1277
ए	-1278
च	-1279
उ	-1280
भ	-1281
ू	-1282
़	-1283
।	-1284
ट	-1285
,	-1286
थ	-1287
औ	-1288
ध	-1289
ख	-1290
आ	-1291
ष	-1292
ड	-1293
इ	-1294
ण	-1295
फ	-1296
(	-1297
)	-1298
.	-1299
ई	-1300
-	-1301
छ	-1302
ँ	-1303
1	-1304
ौ	-1305
ृ	-1306
0	-1307
ओ	-1308
ठ	-1309
2	-1310
a	-1311
e	-1312
घ	-1313
झ	-1314
ऐ	-1315
i	-1316
à	-1317
t	-1318
n	-1319
o	-1320
ढ	-1321
¤	-1322
s	-1323
ॉ	-1324
ः	-1325
"	-1326
r	-1327
4	-1328
9	-1329
3	-1330
/	-1331
5	-1332
l	-1333
?	-1334
m	-1335
ञ	-1336
'	-1337
p	-1338
;	-1339
%	-1340
c	-1341
6	-1342
8	-1343
d	-1344
:	-1345
ऊ	-1346
7	-1347
𐋇	-1348
h	-1349
_	-1350
u	-1351
b	-1352
ऑ	-1353
¥	-1354
!	-1355
‍	-1356
g	-1357
y	-1358
ऋ	-1359
०	-1360
k	-1361
१	-1362
f	-1363
w	-1364
C	-1365
#	-1366
‘	-1367
”	-1368
v	-1369
>	-1370
’	-1371
A	-1372
S	-1373
I	-1374
⁄	-1375
N	-1376
&	-1377
२	-1378
𐊣	-1379
𐊼	-1380
T	-1381
P	-1382
“	-1383
R	-1384
E	-1385
M	-1386
O	-1387
<	-1388
	-1389
D	-1390
x	-1391
९	-1392
३	-1393
५	-1394
°	-1395
	-1396
L	-1397
–	-1398
	-1399
	-1400
६	-1401
८	-1402
¿	-1403
U	-1404
B	-1405
@	-1406
४	-1407
ॅ	-1408
+	-1409
j	-1410
{	-1411
̧	-1412
}	-1413
̈	-1414
F	-1415
\	-1416
७	-1417
G	-1418
H	-1419
̄	-1420
]	-1421
[	-1422
z	-1423
q	-1424
®	-1425
॰	-1426
ङ	-1427
V	-1428
Z	-1429
W	-1430
μ	-1431
	-1432
K	-1433
$	-1434
«	-1435
	-1436
Y	-1437
	-1438
¶	-1439
¡	-1440
—	-1441
X	-1442
	-1443
¬	-1444
=	-1445
	-1446
	-1447
ऍ	-1448
	-1449
Q	-1450
ऱ	-1451
ॆ	-1452
J	-1453
ॊ	-1454
	-1455
ळ	-1456
|	-1457
~	-1458
·	-1459
	-1460
	-1461
©	-1462
*	-1463
	-1464
£	-1465
॥	-1466
§	-1467
	-1468
É	-1469
ऎ	-1470
ऩ	-1471
¢	-1472
`	-1473
é	-1474
	-1475
	-1476
	-1477
	-1478
	-1479
×	-1480
ò	-1481
þ	-1482
ą	-1483
ĺ	-1484
॓	-1485
‐	-1486
₹	-1487
	-1488
	-1489
Î	-1490
ñ	-1491
Ş	-1492
̃	-1493
ॄ	-1494
î	-1495
ş	-1496
