<pad>	0
</s>	0
<unk>	0
,	-2.87868
.	-3.88497
ni	-4.26242
▁	-4.35918
▁u	-4.40738
a	-4.57748
:	-4.59591
▁e	-4.61242
;	-4.6234
▁“	-4.68895
▁i	-4.7176
yo	-4.74885
zi	-4.75884
la	-4.80654
▁na	-4.81561
ba	-4.86069
▁ku	-4.91303
si	-4.91953
▁ba	-4.9569
▁o	-4.95748
ka	-4.96908
nga	-4.98291
n	-5.02064
li	-5.05484
na	-5.05647
ku	-5.06972
le	-5.0817
▁wa	-5.09039
▁a	-5.09963
m	-5.12604
se	-5.24571
e	-5.28463
o	-5.29834
.”	-5.30497
u	-5.33765
▁uku	-5.35309
ke	-5.38942
-	-5.39014
▁ukuba	-5.39275
lo	-5.39402
sa	-5.40014
▁be	-5.42888
thi	-5.43056
▁ngi	-5.47368
yi	-5.49437
▁aba	-5.50506
▁si	-5.5355
▁no	-5.536
be	-5.53778
ne	-5.55493
za	-5.57421
▁ukuthi	-5.57662
▁ni	-5.57749
▁nga	-5.59943
▁ngokuba	-5.60852
wa	-5.6552
bu	-5.70421
ya	-5.709
ze	-5.72767
▁Kepha	-5.72819
i	-5.73189
bo	-5.7323
mi	-5.74033
▁wathi	-5.74061
▁kepha	-5.77215
kho	-5.78655
ma	-5.79538
we	-5.83447
▁kuye	-5.88734
▁ne	-5.89188
▁ka	-5.89879
▁ya	-5.90908
hla	-5.91275
▁U	-5.93412
bi	-5.9476
▁kwa	-5.94853
so	-5.96531
ye	-5.9664
?	-5.97006
▁oku	-5.97223
▁Ngokuba	-5.99588
▁ngo	-6.05637
ngi	-6.08276
the	-6.08517
nye	-6.14443
nge	-6.14557
▁nge	-6.16801
wo	-6.20153
▁kubo	-6.21589
phi	-6.22306
▁yi	-6.23548
▁li	-6.24237
▁uJesu	-6.24924
lu	-6.24969
▁ngoku	-6.25461
▁ng	-6.273
▁uma	-6.27725
▁uNkulunkulu	-6.27992
kwa	-6.29554
thu	-6.30296
me	-6.30315
tha	-6.30473
▁noku	-6.31779
lwa	-6.34464
mu	-6.36127
▁ezi	-6.36476
ngu	-6.38171
bona	-6.38676
▁bonke	-6.39039
▁esi	-6.3908
ngo	-6.39178
▁khona	-6.39652
▁sa	-6.40166
ki	-6.4102
▁zi	-6.41657
zwa	-6.41953
▁kini	-6.42244
▁kwe	-6.42677
Jesu	-6.44889
▁‘	-6.44984
▁isi	-6.45288
▁kodwa	-6.46382
yaku	-6.49297
vu	-6.4945
▁izi	-6.49778
▁ye	-6.50617
ko	-6.50836
kha	-6.51335
▁konke	-6.53602
?”	-6.54792
zo	-6.56103
▁ukuze	-6.56462
ngena	-6.58004
▁Ba	-6.5837
▁um	-6.58557
pha	-6.58586
khulu	-6.61066
wu	-6.62423
khu	-6.62427
▁ama	-6.63022
khuluma	-6.63219
phe	-6.63382
fa	-6.64053
▁la	-6.65089
▁lokho	-6.65837
hle	-6.66052
▁noma	-6.66497
f	-6.66616
nza	-6.67468
kholwa	-6.68077
▁naba	-6.69478
A	-6.69563
U	-6.69755
leyo	-6.69963
▁za	-6.70083
du	-6.70216
thanda	-6.70437
enxa	-6.71277
su	-6.71636
tho	-6.71954
▁kaNkulunkulu	-6.74325
▁bathi	-6.74762
zwe	-6.77258
sh	-6.77691
▁we	-6.79183
khona	-6.79645
Nkosi	-6.80667
fika	-6.81459
vela	-6.83097
▁lapho	-6.8398
▁se	-6.84118
▁kwaba	-6.84739
▁eli	-6.85005
hl	-6.85028
de	-6.85596
▁kanye	-6.86047
lwe	-6.87719
▁Ngakho	-6.89782
mbe	-6.89959
zaku	-6.90132
▁lokhu	-6.90259
▁yakhe	-6.9057
dla	-6.90599
▁ngu	-6.91303
tshe	-6.91416
▁kube	-6.91593
sho	-6.92355
▁Wa	-6.92489
▁ko	-6.92707
swa	-6.93009
▁yena	-6.93061
hamba	-6.93529
weni	-6.94746
▁le	-6.95715
▁umuntu	-6.95796
▁owa	-6.96095
kwe	-6.98705
▁ma	-7.00087
▁ese	-7.00347
nze	-7.00995
▁futhi	-7.01446
dwa	-7.01892
▁nina	-7.02568
▁n	-7.02641
▁phambi	-7.02646
.’	-7.02828
nya	-7.03745
▁lo	-7.03806
▁nezi	-7.03832
ningi	-7.03869
nda	-7.04879
▁Kwathi	-7.05094
▁em	-7.05413
▁eku	-7.06218
N	-7.06738
▁nase	-7.07295
▁izwi	-7.07415
▁mina	-7.0826
sha	-7.08357
▁phakathi	-7.09195
▁A	-7.10572
▁bakhe	-7.10877
▁abe	-7.11467
▁I	-7.11613
▁waba	-7.11867
▁ninga	-7.1309
d	-7.13996
▁kwakhe	-7.14139
▁phezu	-7.14402
▁naye	-7.15482
mbi	-7.16032
qa	-7.16102
c	-7.1623
▁kakhulu	-7.16631
pho	-7.16753
lela	-7.17154
kile	-7.18625
▁kwenu	-7.18803
lele	-7.191
M	-7.19313
▁waye	-7.19784
▁iNkosi	-7.20671
▁enga	-7.21461
▁uya	-7.2176
▁yini	-7.23186
ndle	-7.2404
khe	-7.24312
phuma	-7.24826
r	-7.2492
▁zonke	-7.25123
▁ngithi	-7.25318
▁uyaku	-7.27345
▁engi	-7.27782
funa	-7.27976
hlu	-7.28205
▁Khona	-7.2825
▁aku	-7.28701
▁imi	-7.29051
nyama	-7.29142
mba	-7.2942
▁kimi	-7.2999
g	-7.30062
▁angi	-7.30225
fanele	-7.32526
njalo	-7.32876
▁lu	-7.3311
▁kwabo	-7.33143
zwi	-7.33343
▁babe	-7.33482
di	-7.33758
kwenza	-7.34243
gu	-7.35559
▁wam	-7.35828
▁muntu	-7.36181
kwazi	-7.36647
z	-7.36957
ile	-7.38402
▁kuNkulunkulu	-7.39027
nde	-7.39206
K	-7.40109
hlala	-7.40111
da	-7.40469
▁nalowo	-7.41084
▁ze	-7.4132
▁nxa	-7.41903
phendula	-7.42052
▁Uma	-7.43809
▁O	-7.43928
Ngi	-7.44276
▁Kristu	-7.44517
▁Ku	-7.44781
▁njengalokh	-7.45798
Kristu	-7.46159
▁phansi	-7.46531
moya	-7.46671
Si	-7.47167
mvu	-7.47725
mva	-7.47776
vi	-7.49151
nhliziyo	-7.49151
▁E	-7.49411
▁wena	-7.4973
mthetho	-7.50985
muntu	-7.51199
▁bam	-7.51367
▁nami	-7.51649
ga	-7.51992
▁omunye	-7.5212
leni	-7.53048
ndi	-7.53526
khuleka	-7.53725
nje	-7.53966
▁asi	-7.54297
▁ngakho	-7.54363
▁njalo	-7.54562
J	-7.54578
I	-7.54827
buye	-7.54884
▁lakhe	-7.5557
▁nabo	-7.55785
ta	-7.55963
▁ezulwini	-7.56185
nike	-7.56244
q	-7.56379
j	-7.56415
munye	-7.56588
nika	-7.57273
Ni	-7.57352
x	-7.57594
▁abanye	-7.57923
busi	-7.57967
▁nani	-7.57979
▁abafundi	-7.584
nceku	-7.58685
▁kuwe	-7.58756
▁eni	-7.58922
Nkulunkulu	-7.58961
ngcwele	-7.58986
qh	-7.58991
▁kuze	-7.59001
▁Kwa	-7.59124
khonza	-7.59553
hlezi	-7.59697
swe	-7.59872
ela	-7.60063
▁wo	-7.60111
▁lowo	-7.60122
▁Wathi	-7.60328
▁loku	-7.60681
▁abantu	-7.61438
tsha	-7.61813
kela	-7.62197
▁yami	-7.62378
S	-7.62491
▁kuphela	-7.62516
▁N	-7.62659
▁ngiya	-7.62826
iwe	-7.6336
▁in	-7.64299
ce	-7.64496
▁kunge	-7.64629
▁ani	-7.65137
lokhu	-7.65413
k	-7.65646
Lo	-7.65952
▁yo	-7.66257
▁aka	-7.66388
lile	-7.66561
fi	-7.66577
▁ngaye	-7.66678
ng	-7.67138
ny	-7.67479
ph	-7.68329
▁naku	-7.68651
▁yoku	-7.68692
yakuba	-7.68768
beka	-7.69266
▁Na	-7.69299
▁zakhe	-7.69337
lisa	-7.69635
qala	-7.70031
▁koku	-7.70419
▁Wayese	-7.71508
▁iNdodana	-7.71619
▁masinyane	-7.71938
▁omkhulu	-7.71951
mukela	-7.72145
▁yethu	-7.73529
eni	-7.7418
abantu	-7.7423
kh	-7.74807
▁kwami	-7.74846
lowo	-7.74886
▁soku	-7.74974
▁yilowo	-7.75031
▁ngokuthi	-7.75798
thando	-7.75803
▁manje	-7.7592
▁lutho	-7.76212
▁njengokuba	-7.76219
▁uKristu	-7.76451
▁ubu	-7.76493
▁esa	-7.76579
▁emi	-7.76608
▁Ni	-7.7676
▁lwa	-7.76859
Baba	-7.77365
thatha	-7.77594
▁siya	-7.77721
▁anga	-7.77739
▁kulo	-7.77779
L	-7.77817
▁ababe	-7.77822
t	-7.77987
gazi	-7.77995
▁ayi	-7.78164
▁nguye	-7.78423
qo	-7.79338
kuphila	-7.79354
P	-7.79791
thiwa	-7.79813
themba	-7.80211
▁eJerusalema	-7.80265
▁Kodwa	-7.80855
▁sebe	-7.80899
thile	-7.81242
▁lwe	-7.81547
leli	-7.81694
namandla	-7.81909
gama	-7.82113
▁oNgcwele	-7.82949
sebenzi	-7.83269
zela	-7.83394
▁so	-7.83467
▁thina	-7.84103
tu	-7.84396
▁uMoya	-7.8493
▁bazalwane	-7.85052
qonda	-7.85182
kwenze	-7.85232
▁ngama	-7.85606
fundisa	-7.85654
musa	-7.85914
,”	-7.86003
▁en	-7.86453
baJuda	-7.86681
▁bheka	-7.86749
▁yakho	-7.8677
▁ethi	-7.86836
▁Ngi	-7.87301
▁ezweni	-7.87318
▁wakhe	-7.87336
▁yomuntu	-7.87358
Yi	-7.87534
kaNkulunkulu	-7.87685
▁ngiyaku	-7.87695
▁uzaku	-7.87702
nto	-7.87799
ri	-7.88064
▁Jesu	-7.88127
▁kanjani	-7.88502
s	-7.88576
▁Nga	-7.88747
ndlu	-7.88821
kuqala	-7.89185
muzi	-7.89471
▁uPawulu	-7.89509
▁Ngalokho	-7.8951
tsh	-7.89858
biza	-7.90124
ti	-7.90421
▁onga	-7.90504
thokoza	-7.90647
cala	-7.90663
manzi	-7.90672
▁likaNkulunkulu	-7.90857
gcina	-7.90892
melwe	-7.91025
▁labo	-7.91389
▁nesi	-7.91533
mo	-7.91577
fike	-7.91632
baFarisi	-7.91795
fumana	-7.91795
▁yonke	-7.91815
▁kuyo	-7.91891
ngaba	-7.92062
▁Wayesethi	-7.92328
zulu	-7.9248
Ku	-7.92486
phila	-7.92492
▁olu	-7.92656
awu	-7.93315
zwile	-7.9338
bantwana	-7.93511
siwe	-7.93835
▁waphendula	-7.93996
lunga	-7.94095
file	-7.941
▁seku	-7.94409
sile	-7.9448
▁sakhe	-7.94484
misa	-7.94702
yala	-7.951
memeza	-7.95328
mandla	-7.95622
▁wami	-7.95799
yise	-7.95881
fun	-7.96223
▁Bheka	-7.96405
▁kwaku	-7.96428
E	-7.96466
dle	-7.96575
▁m	-7.96623
fikile	-7.96632
▁kanjalo	-7.97067
▁izwe	-7.97071
▁igama	-7.97575
W	-7.97729
Israyeli	-7.97749
bapristi	-7.97749
▁endlini	-7.97749
shumayela	-7.98032
▁ngaphandle	-7.98155
▁kwakho	-7.98485
▁yathi	-7.98769
▁abaningi	-7.98841
▁eNkosini	-7.99029
▁baba	-7.99038
nkazimulo	-7.99324
nkosi	-7.99389
khulek	-7.99449
muke	-7.99623
thela	-7.99653
,’	-7.99678
▁ngaba	-7.99762
▁uyi	-7.99996
▁bayaku	-8.0015
Mose	-8.00239
▁yenu	-8.00265
bulala	-8.00305
lweni	-8.00368
khanda	-8.00627
manga	-8.0087
langa	-8.00996
▁Aba	-8.01128
▁nambili	-8.01512
▁kukhona	-8.01964
▁wethu	-8.02144
isa	-8.0218
▁izin	-8.02373
ra	-8.02431
▁lonke	-8.02804
▁Ma	-8.03072
vuka	-8.03398
▁zabo	-8.03403
▁munye	-8.03516
▁wayese	-8.03589
p	-8.03596
▁nom	-8.03666
dli	-8.03752
▁okukhulu	-8.04053
ho	-8.04125
bazalwane	-8.04235
hambe	-8.04307
zinsuku	-8.04499
▁umthetho	-8.04868
Juda	-8.04939
▁y	-8.05243
ncwadi	-8.05396
▁kwabafileyo	-8.05397
w	-8.05745
thathu	-8.05935
phela	-8.06579
mashumi	-8.06729
▁zenu	-8.06748
▁zo	-8.06763
▁okuhle	-8.06895
yazi	-8.07106
▁ivangeli	-8.07273
Ndodana	-8.07513
thwa	-8.0808
Abrahama	-8.0808
Simoni	-8.08081
ndoda	-8.08541
▁woku	-8.08783
muka	-8.08784
▁Ese	-8.09047
hlaka	-8.09263
phakathi	-8.09574
kuthula	-8.09704
▁kuyi	-8.09954
▁kukaNkulunkulu	-8.1039
▁abaJuda	-8.10677
▁nokuthi	-8.10682
▁emhlabeni	-8.10839
▁awu	-8.10911
▁njengo	-8.10932
nj	-8.11185
bani	-8.11261
Th	-8.11288
▁njenge	-8.11543
bhe	-8.11544
thuma	-8.11646
mise	-8.11763
▁okwa	-8.12052
qinisile	-8.12187
Bheka	-8.12393
O	-8.12396
▁ngalo	-8.1255
▁waya	-8.1257
B	-8.12578
▁amandla	-8.12993
Moya	-8.13429
mprofethi	-8.13676
mpristi	-8.13676
mpela	-8.13715
▁lami	-8.13779
cela	-8.13817
dumo	-8.13845
▁abakhulu	-8.14184
phezu	-8.14209
▁abo	-8.14324
ngeni	-8.14473
▁ngezwi	-8.15605
▁kun	-8.1574
ndlela	-8.15783
▁lapha	-8.158
▁No	-8.15994
ge	-8.16116
▁bu	-8.16357
▁kunga	-8.165
▁ethempelini	-8.16608
▁kithi	-8.16628
▁nama	-8.17061
▁nokuba	-8.17153
▁maka	-8.17468
▁baya	-8.17511
▁uPetru	-8.17648
beni	-8.18055
thele	-8.1808
Sathane	-8.18089
▁uqobo	-8.18094
busuku	-8.18127
sela	-8.1814
▁imisebenzi	-8.1819
▁Yi	-8.18336
bamba	-8.18552
mazi	-8.18637
▁isikhathi	-8.18697
▁zoku	-8.18796
amazwi	-8.19069
▁umbuso	-8.1929
lelwa	-8.19521
sezulwini	-8.19604
G	-8.19604
Ngiqinisile	-8.19668
▁wazi	-8.20002
nkulu	-8.20212
▁ungu	-8.20693
▁niyaku	-8.2075
re	-8.20932
suka	-8.2111
mbuso	-8.21521
▁isixuku	-8.21658
wini	-8.21685
Ba	-8.21831
Y	-8.22052
butha	-8.22377
bhubh	-8.22705
▁kuKristu	-8.22711
bonile	-8.22916
▁banga	-8.22929
kubo	-8.23009
kusho	-8.23047
go	-8.23321
qiniso	-8.23385
khulume	-8.23684
▁abanga	-8.23928
!	-8.24278
zizwe	-8.24345
sabatha	-8.24359
minyaka	-8.24415
kuzwa	-8.24425
ngabe	-8.24566
▁njenga	-8.24617
Kepha	-8.2463
bela	-8.24775
▁K	-8.24794
▁laba	-8.25123
▁bethi	-8.25166
▁nangoku	-8.25266
zalwa	-8.253
▁am	-8.25446
khanya	-8.25922
kubona	-8.26496
▁nange	-8.27075
yisa	-8.27188
lelo	-8.27238
▁yabo	-8.27483
mfanekiso	-8.27544
thumela	-8.27558
▁wonke	-8.27565
phume	-8.27589
Uma	-8.27748
▁umusa	-8.27814
leka	-8.2782
zile	-8.27953
fakaza	-8.27964
sinkwa	-8.28259
mangala	-8.28782
▁l	-8.28892
▁ngezi	-8.29096
▁elikhulu	-8.29244
qondi	-8.29301
▁nonke	-8.29331
▁sesi	-8.29813
vuma	-8.29972
▁ukuphila	-8.30284
▁ngesi	-8.30298
▁ngokwe	-8.30485
▁wakho	-8.30503
bafundi	-8.30529
bha	-8.30687
thempeli	-8.30892
bufakazi	-8.30898
gcwalis	-8.30902
H	-8.30905
chith	-8.30906
hlobo	-8.30913
▁sonke	-8.3093
fana	-8.30946
Johane	-8.30979
babhali	-8.31087
limi	-8.3111
▁ukudla	-8.31184
faka	-8.31288
thandi	-8.31313
khala	-8.31441
▁nguku	-8.31487
▁”	-8.3162
▁abayi	-8.31851
▁unga	-8.32365
▁s	-8.32382
▁ngani	-8.32524
F	-8.3263
▁ngosuku	-8.32637
busweni	-8.3264
▁niya	-8.32812
▁nguNkulunkulu	-8.32845
Petru	-8.32871
lezo	-8.33164
ngabi	-8.33168
ngwa	-8.33326
lungileyo	-8.33379
▁izinsuku	-8.33822
hlale	-8.33855
▁kwethu	-8.33881
▁nibe	-8.33887
▁kahle	-8.34153
▁kuqala	-8.34247
ngene	-8.34367
busisiwe	-8.34474
▁indoda	-8.3464
▁zinto	-8.34664
▁uBaba	-8.34808
▁indodana	-8.3504
▁owaye	-8.35441
▁kungabi	-8.35536
▁ngase	-8.35728
bele	-8.36125
Pilatu	-8.3617
▁kubantu	-8.3617
sindiswa	-8.36172
Mina	-8.36177
▁Be	-8.36182
hlanganyel	-8.36191
ngelosi	-8.36387
▁okunga	-8.36449
phakade	-8.36461
▁nathi	-8.36767
phenduka	-8.36775
▁sikhathi	-8.37212
▁onke	-8.37253
kileyo	-8.37854
thwe	-8.37988
hlwanyel	-8.37993
!”	-8.38004
lungis	-8.38116
gcwele	-8.38144
ngathi	-8.38219
▁Kuthe	-8.38578
abezizwe	-8.38766
▁Bathi	-8.38784
▁ukukholwa	-8.38823
▁ingelosi	-8.389
▁kuwo	-8.38956
▁bayi	-8.39144
▁eza	-8.39186
baprofethi	-8.39207
▁kukho	-8.39458
siye	-8.39642
khipha	-8.39841
shiya	-8.39845
▁bona	-8.40035
▁benga	-8.40048
bonga	-8.40253
boni	-8.40572
lelwe	-8.41084
▁aye	-8.41312
▁Se	-8.41349
hlela	-8.41406
ngakholwa	-8.41426
▁base	-8.41582
Mariya	-8.41727
dlula	-8.41733
ci	-8.41952
▁babo	-8.42158
mbuza	-8.42429
phathi	-8.42542
▁ngiku	-8.42613
fund	-8.42728
bandla	-8.42806
mbona	-8.43052
leso	-8.43197
▁wabo	-8.43573
▁ena	-8.43611
nikela	-8.43622
mntwana	-8.4365
Ng	-8.44061
▁njengoku	-8.44098
▁amadoda	-8.44271
▁enye	-8.44409
▁eziningi	-8.44412
▁z	-8.44484
▁lakho	-8.447
▁bami	-8.44835
madoda	-8.44981
▁phakade	-8.45013
▁esikhulu	-8.45371
▁namandla	-8.45432
▁sobukhosi	-8.45619
▁amabili	-8.45621
hora	-8.45662
▁emzini	-8.45663
▁uthi	-8.45783
hlupheka	-8.45976
qin	-8.46531
nziwe	-8.46561
lutho	-8.46682
lotshiwe	-8.46862
nakho	-8.46979
phum	-8.47059
baphostoli	-8.47307
▁kungathi	-8.47474
landela	-8.47537
▁amehlo	-8.47611
▁eziyishumi	-8.47611
khombisa	-8.47615
sebenza	-8.47634
sokunene	-8.47681
▁nanga	-8.47696
▁enda	-8.47908
▁ngalokho	-8.48075
khwe	-8.48222
▁eya	-8.48411
▁kinina	-8.48626
lalela	-8.48801
▁inkosi	-8.49086
▁othile	-8.49129
▁nemi	-8.49231
mp	-8.49569
▁w	-8.4982
nduna	-8.49841
▁nginga	-8.49964
buza	-8.50585
▁ukufa	-8.50682
iyu	-8.51193
demoni	-8.51602
lungile	-8.51646
▁mhla	-8.51681
Z	-8.5173
Kesari	-8.51735
mpumputhe	-8.51735
thandekayo	-8.51735
kwahlulela	-8.51743
▁funa	-8.51961
▁okuphakade	-8.52038
▁abantwana	-8.52866
▁ngokukholwa	-8.52978
shaya	-8.53169
▁nango	-8.53637
nqa	-8.53724
buthakathaka	-8.53862
ncane	-8.53863
Pho	-8.53931
▁egam	-8.54009
Li	-8.54865
▁iqiniso	-8.55095
njeng	-8.55206
mbethe	-8.55352
▁ema	-8.55411
▁nawe	-8.55431
fakazi	-8.55453
▁indlu	-8.55608
▁eziyisikhombisa	-8.56036
▁ngaphambili	-8.56039
sondela	-8.56045
▁kwalokho	-8.56056
▁ababili	-8.56072
▁ngizaku	-8.56149
’	-8.56909
labo	-8.56927
vangeli	-8.57371
▁ezinga	-8.57441
▁Ngiya	-8.57536
wesifazane	-8.57539
▁umoya	-8.57556
omlilo	-8.57742
Herode	-8.58059
sikhathi	-8.58197
Yebo	-8.58261
phuza	-8.58263
Angi	-8.58379
▁weNkosi	-8.58947
▁owesifazane	-8.58983
▁kulotshiwe	-8.59098
l	-8.60577
▁wayi	-8.60619
▁ngoMoya	-8.60915
▁kw	-8.60984
kwesaba	-8.61223
▁Nkosi	-8.61286
▁lona	-8.61565
zelwe	-8.61719
▁yimi	-8.61795
Jerusalema	-8.61851
letha	-8.6189
▁sami	-8.62094
phambi	-8.6228
thole	-8.62308
onke	-8.62408
R	-8.62854
zinkulungwane	-8.62857
▁esiphambanweni	-8.62857
mhlophe	-8.62857
▁umzimba	-8.62862
▁lezo	-8.63041
▁yebo	-8.63238
▁leNkosi	-8.63486
▁izono	-8.6373
makhosi	-8.63798
▁sibe	-8.63803
▁Ngase	-8.63982
amukele	-8.64287
▁uJohane	-8.64572
▁Kanjalo	-8.65239
▁izingubo	-8.65243
bonakala	-8.65344
mlandela	-8.6536
▁wangena	-8.65425
lukhuni	-8.65459
▁amane	-8.65839
ezinyawo	-8.66194
iswe	-8.66243
zono	-8.66796
T	-8.66886
gq	-8.66931
bheka	-8.67614
▁sasi	-8.67619
sithembiso	-8.67677
golide	-8.67678
Wena	-8.67684
shilo	-8.67687
qonde	-8.67831
▁wezulu	-8.67918
▁akakho	-8.68614
▁ibandla	-8.68844
phatha	-8.69191
▁nang	-8.69409
enu	-8.70018
▁izandla	-8.70177
▁umzalwane	-8.70178
▁akhe	-8.7036
kusukela	-8.70397
▁int	-8.70515
ngweni	-8.70537
▁Sebe	-8.70708
xa	-8.70896
▁sikaNkulunkulu	-8.71128
▁wazal	-8.72171
hlambalaza	-8.72741
D	-8.72741
▁omuhle	-8.72751
phonsa	-8.72755
▁Ya	-8.7276
Mfundisi	-8.72795
▁Bon	-8.72812
ngomuso	-8.72825
▁naseku	-8.72858
?’	-8.73045
nguKristu	-8.73423
▁kalokhu	-8.73593
▁akusi	-8.73783
▁akukho	-8.74132
phansi	-8.74134
▁yona	-8.75102
▁njengaba	-8.75293
besifazane	-8.75373
▁Futhi	-8.75373
khubeki	-8.75378
▁uYise	-8.75388
bekezela	-8.75396
ando	-8.75708
omzimba	-8.7613
▁zami	-8.764
▁sengi	-8.77059
▁nje	-8.77069
sixuku	-8.77171
fundiso	-8.77697
ngekho	-8.77703
njani	-8.77821
seGalile	-8.78075
sibonakaliso	-8.78075
ngcebo	-8.7808
omhlaba	-8.78092
ndaba	-8.78162
▁ukulunga	-8.79259
▁kubafundi	-8.79285
▁lokuthi	-8.7952
▁ngubani	-8.79714
▁inkazimulo	-8.80085
zibonga	-8.80142
ngubani	-8.8027
▁zakho	-8.80678
▁wahlala	-8.80691
▁izixuku	-8.80853
Hamba	-8.80854
▁izithelo	-8.80864
lahlwa	-8.80874
mbhalo	-8.80916
nkemba	-8.80963
khaphela	-8.81183
▁Aku	-8.81611
▁kaKristu	-8.81948
dabul	-8.82042
yiNdodana	-8.83005
Filiphu	-8.8371
Josefa	-8.8371
▁emkhunjini	-8.8371
qinise	-8.83715
▁ehlane	-8.83784
▁namalunga	-8.83789
▁weza	-8.83856
dukis	-8.84411
▁zethu	-8.84539
mfundi	-8.84541
▁isizwe	-8.85043
funda	-8.85471
▁enkulu	-8.85639
hambi	-8.86307
ngcolileyo	-8.86651
khumbula	-8.86652
▁ekudleni	-8.86655
khiphe	-8.86664
thokozi	-8.86701
▁yayisi	-8.8671
hluleli	-8.86874
esono	-8.86912
▁izinto	-8.87086
▁ezint	-8.87223
▁nokuthula	-8.87541
zonda	-8.87548
ezingelosi	-8.87602
▁wayesethi	-8.87675
▁abangcwele	-8.88166
▁nabafundi	-8.89292
ntand	-8.895
”	-8.89618
zibonakalis	-8.89645
ngcwelis	-8.89682
phulukisa	-8.89682
▁umfowabo	-8.89682
ngqondo	-8.89682
sikhashana	-8.89682
▁ezintathu	-8.89684
Eliya	-8.89687
▁bodwa	-8.89709
vunyelw	-8.9017
mpi	-8.90187
dalwa	-8.90481
phenduk	-8.90543
▁abaprofethi	-8.90733
gcine	-8.91123
▁wamuka	-8.91179
owenza	-8.9163
▁makub	-8.92042
gubani	-8.92051
Davide	-8.92518
khathaz	-8.92796
nxusa	-8.92807
▁isandla	-8.92807
▁isono	-8.92807
guqu	-8.92808
▁Kwakukhona	-8.92809
▁elwandle	-8.92816
hlukanis	-8.92847
▁kwabantu	-8.9287
nitshela	-8.92951
khohli	-8.92976
phind	-8.93285
phostoli	-8.93286
▁unina	-8.93656
▁ngamandla	-8.93834
Ngo	-8.94886
bhapathiza	-8.96032
sizukulwane	-8.96032
▁eGalile	-8.96032
▁enhliziyweni	-8.96032
▁Yena	-8.96033
▁umyalo	-8.9605
yihlo	-8.96104
mvelo	-8.99366
profetha	-8.99366
sivumelwano	-8.99366
▁okungukuthi	-8.99366
Wundlu	-8.99366
▁ethuneni	-8.99367
▁Yayisi	-8.9937
▁ezimbili	-8.99373
thembekile	-8.99386
mnene	-8.9952
▁lwakhe	-8.99628
▁izingelosi	-8.99669
▁abayishumi	-8.99744
kaMoya	-8.99891
▁UPetru	-8.99894
▁noJohane	-9.00163
Maye	-9.02149
nilobel	-9.02378
Barnaba	-9.02814
Madoda	-9.02814
mphefumulo	-9.02814
▁ngesandla	-9.02814
▁ekukholweni	-9.02815
▁esihlalweni	-9.02815
▁kanti	-9.0282
nqoba	-9.02832
sukuma	-9.02834
nyiswa	-9.02838
▁kwabezizwe	-9.02852
qinisa	-9.02877
ngalaleli	-9.02903
▁ngemisebenzi	-9.02969
▁amademoni	-9.03041
mncenga	-9.03199
▁La	-9.03199
ngayiku	-9.03233
▁umsebenzi	-9.03304
▁emihle	-9.03321
mfazi	-9.03417
▁kunguku	-9.0357
sekel	-9.05665
▁emhlabathini	-9.06385
▁ngezandla	-9.06385
▁entabeni	-9.06386
Kanti	-9.06386
mafutha	-9.06386
Yihlo	-9.06387
kwenzile	-9.06389
▁izinyawo	-9.0639
nembeza	-9.06399
seduze	-9.06437
ngenzi	-9.06582
▁kaDavide	-9.06717
ezikhathi	-9.07525
mkhosi	-9.07566
bulale	-9.08253
fundisi	-9.08688
gcin	-9.09118
Makedoniya	-9.10089
▁etilongweni	-9.10089
phikisana	-9.10089
nsindiso	-9.10089
phuze	-9.10099
▁Lokho	-9.10106
zikhonzi	-9.10112
ngesabi	-9.10112
mesaba	-9.1015
▁wenu	-9.10157
qhube	-9.10158
▁abampofu	-9.104
bonwa	-9.10454
mangalela	-9.10474
phonsw	-9.10543
▁mazwi	-9.10655
okuhlakanipha	-9.12392
ngaphandle	-9.12674
nte	-9.12742
altare	-9.13935
ngcono	-9.13935
seJudiya	-9.13935
veza	-9.13935
▁ezinhliziyweni	-9.13935
khethiweyo	-9.13936
▁ayisikhombisa	-9.13936
thethelelwa	-9.13938
thethelela	-9.13944
sondele	-9.13945
▁Amen	-9.13945
boshwa	-9.13948
bekezele	-9.13951
▁indawo	-9.13951
INkosi	-9.14069
funga	-9.14154
▁ngesikhathi	-9.14316
mabutho	-9.14318
▁enhle	-9.14477
ndodakazi	-9.1452
olwandle	-9.14699
Ngakho	-9.16739
enyukel	-9.16812
ncenga	-9.16819
ncinyane	-9.17935
nkanuko	-9.17935
kwahlulelwa	-9.17936
khuthazela	-9.17936
▁esinagogeni	-9.17947
phuzi	-9.17958
▁uphawu	-9.17959
▁imali	-9.1811
ezindlebe	-9.20307
thelisi	-9.21828
Thimothewu	-9.22102
bhapathizwa	-9.22102
mfihlakalo	-9.22102
▁ndawonye	-9.22102
jabula	-9.22102
▁enyameni	-9.22102
▁komhlaba	-9.22103
▁iwayini	-9.22104
▁ingubo	-9.22153
▁nakanye	-9.22229
▁nomhlaba	-9.22268
▁lukaNkulunkulu	-9.22373
sayiku	-9.22465
khululekile	-9.22704
Msindisi	-9.2645
siliva	-9.2645
▁Khonza	-9.2645
▁ngomkhumbi	-9.2645
Sawulu	-9.26453
cindezel	-9.26453
mpahla	-9.26456
nhlanzi	-9.26456
phambene	-9.26456
boshiwe	-9.26466
▁namuhla	-9.26492
Isaya	-9.26502
abagulayo	-9.26516
okwesithathu	-9.26548
▁benu	-9.266
▁ngokwenyama	-9.26634
andleni	-9.26682
shumayel	-9.27517
emisebenzi	-9.27811
esibili	-9.29877
▁ungow	-9.30147
▁ngemihla	-9.30972
bafowabo	-9.30995
gcwala	-9.30995
▁Qha	-9.30995
▁emthethweni	-9.30995
▁kwasekuqaleni	-9.30995
▁emasinagogeni	-9.30996
▁emoyeni	-9.30996
▁eziyisihlanu	-9.30996
▁endleleni	-9.31
mvubelo	-9.31007
▁umvuzo	-9.3101
dabuka	-9.31011
▁ophilayo	-9.31022
memezel	-9.31123
▁ano	-9.31226
▁kungok	-9.32895
ndulela	-9.32949
Ngokuba	-9.34488
ahlulela	-9.35201
sinagoge	-9.35742
ngithumile	-9.35754
shunyaye	-9.35757
Efesu	-9.35757
lungisiswa	-9.35758
▁isibindi	-9.3576
Isaka	-9.35777
phonse	-9.35789
lungele	-9.35825
▁Sa	-9.35828
▁ngezilimi	-9.35843
omlomo	-9.35877
cebile	-9.35887
▁nalokho	-9.35891
nquma	-9.3612
sobala	-9.36388
vumela	-9.37059
amukeli	-9.40226
mpofu	-9.40337
▁UPawulu	-9.40757
lahlekelwa	-9.40757
mpande	-9.40759
zenzisi	-9.40759
▁waseNazaretha	-9.40759
▁umkhumbi	-9.40759
▁izithombe	-9.4076
▁umlomo	-9.4076
phakamisa	-9.40762
▁izibonakaliso	-9.40765
▁likaKristu	-9.40767
▁kugcwalisek	-9.40767
▁kungesikho	-9.40771
landisa	-9.40782
sindise	-9.40783
▁ayisihlanu	-9.40784
Asiya	-9.40794
buthene	-9.40794
▁umhlaba	-9.40795
▁yalokho	-9.40804
dabuki	-9.40832
ntaba	-9.41576
Akakho	-9.41814
buyisel	-9.42236
dlule	-9.45104
shelwa	-9.45139
jengokuba	-9.45924
Antiyokiya	-9.4602
sishiyagalolunye	-9.4602
yingcosana	-9.4602
▁Ngokukholwa	-9.4602
▁noJakobe	-9.4602
▁ukuhlakanipha	-9.4602
▁emzimbeni	-9.46021
nxenye	-9.46021
hlushwa	-9.46024
Woza	-9.46029
kusindisa	-9.4603
▁umkakhe	-9.4603
▁Lowo	-9.46036
nesibindi	-9.46038
▁ezinhle	-9.4604
▁kwesihla	-9.46063
zinyanga	-9.4835
bayishumi	-9.50942
hluphek	-9.51118
2	-9.51576
hawukela	-9.51576
sishiyagalombili	-9.51576
▁ngasezinyaweni	-9.51576
▁yenkulungwane	-9.51576
tombazana	-9.51576
shisekel	-9.51578
Thina	-9.51585
▁esizweni	-9.51617
sebenze	-9.51633
obuso	-9.51643
feze	-9.51728
hlanganis	-9.51828
ngegama	-9.52059
▁ngent	-9.52305
bonakaliswa	-9.53427
fowethu	-9.57458
gijimela	-9.57458
kwamukeliswa	-9.57458
miphefumulo	-9.57458
▁Njalo	-9.57458
▁ebumnyameni	-9.57458
▁kaJakobe	-9.57458
hawukele	-9.57458
semhlabeni	-9.57458
▁ngesibindi	-9.57459
ntokozo	-9.5746
zimangaliso	-9.5746
zinhlupheko	-9.57463
kafiki	-9.57466
▁Zi	-9.5747
hlukene	-9.57477
mukisa	-9.57478
sendleleni	-9.57481
hloniph	-9.57486
thukulul	-9.57492
lungisele	-9.57492
thengisa	-9.57493
▁Siya	-9.58009
mhlambi	-9.59652
thokoze	-9.60055
nishumaye	-9.60729
▁imiyal	-9.61532
Khona	-9.62431
Lapho	-9.63091
Damaseku	-9.63708
denariyu	-9.63708
mkhiwane	-9.63708
▁uJakobe	-9.63708
esihawu	-9.63708
sigqila	-9.63709
oPawulu	-9.63709
zinkanyezi	-9.6371
kwambulwa	-9.6371
qeda	-9.63711
▁makezwe	-9.63716
sindiswe	-9.63716
▁ongithumileyo	-9.63717
thandwa	-9.63725
kwenziwa	-9.63726
okwakhulunywa	-9.6373
▁akayiku	-9.63816
obukhosi	-9.63949
phendukel	-9.66246
khuphukel	-9.66408
lindel	-9.67932
valel	-9.69187
Lazaru	-9.70375
amaGreki	-9.70375
bafelokazi	-9.70375
dadewabo	-9.70375
mfowenu	-9.70375
talenta	-9.70375
▁eJudiya	-9.70375
Ngumuphi	-9.70375
▁isidumbu	-9.70375
fumani	-9.70375
khumbule	-9.70375
▁ngaselwandle	-9.70375
▁kunalokho	-9.70376
makhelwane	-9.70376
namahloni	-9.70376
cilongo	-9.70378
▁emlilweni	-9.70378
ziphendulela	-9.70381
thukuthela	-9.70382
Rabi	-9.70383
phuc	-9.7043
mihlatshelo	-9.70441
khuthalel	-9.7083
khulunyw	-9.71411
kwemisebenzi	-9.71552
Abant	-9.72507
ngukukhanya	-9.72526
amanyala	-9.72865
esithupha	-9.75618
isikhonzi	-9.77463
indlalifa	-9.77502
fumene	-9.77518
funyanwa	-9.77518
seGibithe	-9.77518
▁emabandleni	-9.77518
▁ngemifanekiso	-9.77518
▁uMbhapathizi	-9.77518
1	-9.77518
Sukuma	-9.77518
buqili	-9.77518
fumane	-9.77518
nzuzo	-9.77518
▁ekukhanyeni	-9.77518
zamazama	-9.77518
▁ukungalungi	-9.77518
ziphambeko	-9.77518
▁lwesithathu	-9.7752
ngamesabi	-9.7752
lungiselwe	-9.7752
▁abakhile	-9.77521
siswini	-9.7754
zinwele	-9.77714
finyelel	-9.77765
izuze	-9.77873
phendul	-9.80968
lwi	-9.81183
inyoka	-9.82249
5	-10.2375
6	-10.5053
4	-10.872
7	-11.4553
9	-11.4553
8	-11.9541
C	-11.9542
3	-11.9543
X	-11.9544
V	-11.9545
Q	-11.9546
—	-11.9547
‘	-11.9548
v	-11.9549
“	-11.955
y	-11.9551
b	-11.9552
'	-11.9553
0	-11.9553
h	-11.9553
