<pad>	0
</s>	0
<unk>	0
▁	-2.87306
၊	-3.6985
ကို	-3.88125
သည်	-4.19486
သော	-4.32996
နှင့်	-4.72353
၍	-4.72447
၌	-5.11877
မ	-5.18011
၍၊	-5.20964
တို့ကို	-5.32315
ကြ၏။	-5.39693
၏	-5.42469
တို့သည်	-5.43166
▁ငါ	-5.44687
▁မ	-5.51741
်	-5.54937
ရ	-5.55519
၏။	-5.65663
▁အ	-5.68898
လေ၏။	-5.84096
▁ထို	-5.85605
▁ထာဝရဘုရား	-5.8823
အ	-5.89942
သား	-5.94192
တော်	-6.03016
သို့	-6.05617
ခြင်း	-6.07915
▁သူတို့	-6.10235
▁သင်တို့	-6.11113
ကြ	-6.11836
လျက်	-6.19871
▁မိမိ	-6.20502
တော်မူ၏။	-6.2169
▁ငါသည်	-6.21845
လျက်၊	-6.22551
▁သင်သည်	-6.24159
က	-6.27581
▁ငါ့	-6.2862
မှ	-6.29979
ရာ	-6.30105
▁သင်တို့သည်	-6.30275
လည်း	-6.32127
▁ဘုရားသခင်	-6.34766
▁သူတို့သည်	-6.35151
တို့	-6.3555
အား	-6.35702
▁လူ	-6.35821
း	-6.36179
လျှင်၊	-6.36328
သောသူ	-6.38434
တ	-6.41307
ကြလော့။	-6.41405
▁အကျွန်ုပ်	-6.41596
▁ထာဝရဘုရားသည်	-6.42507
▁ကိုယ်	-6.43785
စေ	-6.4492
လ	-6.45316
▁သင်၏	-6.46221
။	-6.46324
ရမည်။	-6.49067
သဖြင့်၊	-6.49205
ဖြစ်	-6.49929
မည်။	-6.51925
▁သူ၏	-6.52441
ကဲ့သို့	-6.52865
▁သူ	-6.54097
များ	-6.54401
ရှိ	-6.55065
လိမ့်မည်။	-6.55778
က၊	-6.56515
တော်မူ	-6.59457
လော့။	-6.60468
သ	-6.60973
▁ပြု	-6.61406
▁ထာဝရဘုရား၏	-6.62403
▁ထိုအခါ	-6.62896
▁ထိုသို့	-6.64075
▁တဖန်	-6.64106
ပြု	-6.64425
များကို	-6.64672
ကြလိမ့်မည်။	-6.64715
လျှင်	-6.65966
▁နေ	-6.67165
ခြင်းငှါ	-6.6819
သောအခါ၊	-6.69882
ခြင်းကို	-6.70448
အားဖြင့်	-6.71347
▁မိန့်တော်မူ၏။	-6.72474
တွင်	-6.72879
▁အကြောင်းမူကား၊	-6.7521
နေ	-6.75304
ကလည်း၊	-6.78273
▁ငါ့ကို	-6.79357
▁သူသည်	-6.81819
စေခြင်းငှါ	-6.82243
ပြီ။	-6.82525
▁ဘုရားသခင်၏	-6.83316
ကို၎င်း၊	-6.83657
▁ဤ	-6.83667
တတ်၏။	-6.85009
ဖြစ်၏။	-6.85188
ရ။	-6.85249
ဟု	-6.8574
▁မိန့်တော်မူ	-6.87179
▁ငါတို့	-6.87595
သောကြောင့်၊	-6.87672
သွား	-6.87922
▁သင်	-6.8816
ပါ	-6.88535
▁သည်	-6.89657
▁ရောက်	-6.89687
ခြင်း၊	-6.9193
▁သော	-6.92863
မြို့	-6.94023
ရသော	-6.94101
တော်မူသော	-6.94305
▁ဘုရား	-6.94932
သောသူသည်	-6.9595
စား	-6.96398
ထား	-6.9646
နိုင်	-7.00865
ကား၊	-7.01227
ဘဲ	-7.01835
ထဲက	-7.01957
▁ယဇ်ပုရောဟိတ်	-7.02528
ာ	-7.027
▁သင့်	-7.02703
တို့အား	-7.03482
▁သူတို့ကို	-7.04328
ကိုလည်း	-7.04425
▁သား	-7.04855
▁တ	-7.05211
သာ	-7.05308
▁ဣသရေလအမျိုးသား	-7.06312
▁ရှင်ဘုရင်	-7.06387
သောအခါ	-7.06545
၎င်း၊	-7.07004
ဗ	-7.07842
ပြီးမှ၊	-7.07919
ရှိ၏။	-7.07964
တတ်	-7.08873
▁ကိုယ်တော်	-7.10072
သည်လည်း	-7.11036
့	-7.11274
သည်ကား၊	-7.11488
▁သေ	-7.11516
ပြီးလျှင်၊	-7.11796
ပေး	-7.13471
▁ပေး	-7.13802
▁သင့်ကို	-7.1409
▁အဘယ်သို့	-7.14197
အမျိုး	-7.1464
▁အပြစ်	-7.15287
ပါ၏။	-7.15558
ရှ	-7.16118
▁ထာဝရ	-7.16392
▁အလွန်	-7.17744
▁ငါတို့သည်	-7.17953
လာ	-7.18969
ု	-7.19114
ုတ်	-7.19513
သော်လည်း၊	-7.19812
ကြီး	-7.19951
ကား	-7.19955
ံ	-7.20275
မှစ၍	-7.20949
မည်	-7.21471
▁အို	-7.21886
လူ	-7.22396
▁ကိုယ်တော်သည်	-7.22602
▁ဣသရေလ	-7.2296
မည်ဟု	-7.23203
တို့၌	-7.23535
တည်းဟူသော	-7.23659
န	-7.24273
တော်မူပါ။	-7.24884
ပေါ်မှာ	-7.2547
တော်ကို	-7.25687
▁ငါ၏	-7.25705
ယ	-7.25836
ိ	-7.26852
မူကား၊	-7.26939
▁သွား	-7.27453
▁ရှိ	-7.27492
▁မြို့	-7.27612
နာ	-7.28016
ပင်	-7.28582
ရှိသော	-7.28934
သေ	-7.29772
သိ	-7.29811
▁ယေရုရှလင်မြို့	-7.2993
မှာ	-7.30399
က်	-7.30724
ပ	-7.30944
ရောက်	-7.32323
ထံသို့	-7.32783
ဇ	-7.33228
ဖြင့်	-7.33237
အဘို့	-7.33384
▁သတ်	-7.33552
င်	-7.33712
▁ကောင်းကင်	-7.3374
တတ်သော	-7.34289
မျှ	-7.34376
▁ရေ	-7.34915
ချ	-7.355
နှစ်	-7.35875
တို့၏	-7.35878
▁ပြော	-7.36058
သူ	-7.36658
မင်း	-7.36841
▁မိမိတို့	-7.3712
လက်	-7.3775
သည်အတိုင်း၊	-7.38291
သောသူ၊	-7.38315
ရ၏။	-7.38606
ငါ	-7.3866
▁သိ	-7.39173
ခ	-7.39644
▁အသက်	-7.39699
▁စီရင်	-7.40218
မိ	-7.40352
▁အဘယ်	-7.4045
ပြည်	-7.40462
သည်ဟု	-7.40468
ဒ	-7.41258
တောင်	-7.41326
ဘို့	-7.41794
သဖြင့်	-7.41903
ထဲသို့	-7.41905
ဘ	-7.42873
▁မိန်းမ	-7.42877
သောကြောင့်	-7.42942
▁ကိုယ်တော်ကို	-7.42997
ဝင်	-7.43095
ရှေ့မှာ	-7.43551
တည်း။	-7.4417
ခံ	-7.44318
ကြောင့်	-7.44581
▁ဘုရားသခင်သည်	-7.44861
▁သင်တို့ကို	-7.45077
▁ဆို	-7.45212
ကြပြီ။	-7.4549
▁သူ့	-7.46849
န်	-7.4697
▁ကောင်း	-7.47464
စရာ	-7.47544
အပေါင်းတို့သည်	-7.48624
ဖ	-7.49074
စေခြင်းငှါ၊	-7.49388
▁အဘယ်ကြောင့်	-7.49547
ထ	-7.498
စွာ	-7.49814
စကားကို	-7.50367
▁ဖြစ်	-7.5038
တိုင်အောင်	-7.50444
▁အမှု	-7.50916
▁ပရောဖက်	-7.51483
▁ပ	-7.52025
▁ခံ	-7.52244
မြင်	-7.52602
ဝ	-7.52739
ဆို	-7.53069
▁ယခု	-7.53335
တို့နှင့်	-7.53549
▁အကျွန်ုပ်တို့	-7.54443
၎င်း	-7.55447
▁သူ့ကို	-7.55686
▁မြေ	-7.56024
မ်း	-7.56355
▁ထာဝရဘုရားကို	-7.56444
▁တည်	-7.56997
လော့ဟု	-7.5749
ို	-7.58089
ပြီးမှ	-7.58236
ပြ	-7.5844
တို့တွင်	-7.59128
ုန်	-7.59327
▁ခံရ	-7.59422
ပါ။	-7.59446
နှင့်တကွ	-7.59542
ဆောင်	-7.59879
ပ်	-7.60229
ဘုရား	-7.60232
▁စိတ်	-7.60307
▁ထား	-7.60657
▁ကျောက်	-7.61044
▁ကိုယ်တော်၏	-7.61176
▁နောက်တဖန်	-7.61544
မှီ	-7.62068
ကို၎င်း	-7.62544
▁ဣသရေလအမျိုး	-7.62736
သတည်း။	-7.63335
မရှိ။	-7.63624
၏သား	-7.63859
သည်အတိုင်း	-7.63988
သနည်း။	-7.64266
ကြောင်းကို	-7.64335
▁လိုက်	-7.64463
▁စား	-7.64704
တရား	-7.65281
လေ	-7.6598
ရှင်ဘုရင်	-7.6602
▁အကျွန်ုပ်သည်	-7.6657
▁တရား	-7.66573
ရှာ	-7.66845
▁နားထောင်	-7.67158
ရေ	-7.67195
များ၊	-7.6749
အမှုကို	-7.67504
ေ	-7.67546
▁မြင်	-7.67563
င်း	-7.68001
▁အကျွန်ုပ်ကို	-7.68117
အဘ	-7.68308
▁အဘ	-7.68396
ထက်	-7.68756
▁သခင်	-7.68865
တည်	-7.70126
▁ကျွန်	-7.70193
ကျွန်	-7.70396
ယူ	-7.70542
▁အမျိုး	-7.70748
▁ထိုသူသည်	-7.71053
ကြ။	-7.71215
▁မည်။	-7.7134
▁သင်တို့၏	-7.71442
စ	-7.71457
စောင့်	-7.71912
သောသူတို့သည်	-7.72269
လိုက်	-7.72681
သလော။	-7.73532
မြို့၊	-7.73556
ကျ	-7.7377
ကြား	-7.73868
ဲ	-7.74269
နေရာ	-7.74309
တည်း	-7.74566
အတွက်	-7.74646
လုပ်	-7.74814
▁လာ	-7.75211
ပြော	-7.75397
အတိုင်း	-7.75869
သကဲ့သို့	-7.7588
မရှိ	-7.75904
ပြန်	-7.75913
▁ထိုသူ	-7.76217
▁ထိုသူတို့သည်	-7.76291
တော်မူပြီ။	-7.76372
တ်	-7.76741
စီရင်	-7.76824
တွေ့	-7.77545
▁သန့်ရှင်းသော	-7.77668
▁အဘယ်သူ	-7.77769
▁ဝင်	-7.77827
အပေါ်မှာ	-7.78256
▁လက်	-7.78505
▁အခြားသော	-7.78692
▁လူမျိုး	-7.78791
ရက်	-7.79484
ဖြစ်သော	-7.79674
အမျိုးသား	-7.79888
မည်အကြောင်း၊	-7.80196
▁ကြား	-7.80329
▁သူတို့၏	-7.80484
သည်ကို	-7.80576
သနည်းဟု	-7.80872
နှင့်အတူ	-7.81015
ထာဝရဘုရား	-7.81085
▁မြေကြီး	-7.82015
ငယ်	-7.82435
ကြပါ၏။	-7.82522
▁ထိုကြောင့်	-7.83242
ချက်	-7.8354
နှုတ်	-7.83578
တိုင်	-7.84049
ရိ	-7.84413
▁ဖျက်ဆီး	-7.84495
▁ကျွန်တော်	-7.84909
▁သို့ဖြစ်၍	-7.85363
စကား	-7.85521
▁စကား	-7.85638
သည်ဖြစ်၍၊	-7.85649
လွန်	-7.85733
▁ပြည့်စုံ	-7.85865
လို	-7.86041
သခင်	-7.8635
လုံး	-7.86573
အပေါင်း	-7.87121
ဂ	-7.87407
သုံး	-7.87565
ရလိမ့်မည်။	-7.87684
▁စောင့်	-7.87979
▁ဟု	-7.88
▁အသက်ရှင်	-7.88262
ညီ	-7.88436
▁တောင်	-7.88452
မှတ်	-7.88566
▁ဟောပြော	-7.88947
▁မီး	-7.89007
▁ရှာ	-7.89028
သော်လည်း	-7.89099
▁ယနေ့	-7.89377
▁ဆောင်ခဲ့	-7.89397
▁ထွက်	-7.89609
▁မိ	-7.89925
ဦး	-7.90785
နိ	-7.909
▁မူ	-7.90914
လိ	-7.91052
ရော	-7.91076
▁တပါးအမျိုးသား	-7.9116
ရကြမည်။	-7.91191
▁တဲတော်	-7.91349
ခြင်းသို့	-7.91874
လိမ့်မည်ဟု	-7.91907
လှ	-7.9232
နှင့်။	-7.92443
▁အား	-7.92488
▁ပြ	-7.93003
▁ပညာ	-7.93144
ဘုရားသခင်	-7.93168
ဟူမူကား၊	-7.93303
▁အာ	-7.93352
▁နွား	-7.93393
ရှေ့တော်၌	-7.93596
အပြစ်	-7.93631
▁တိုက်	-7.93709
သားတို့သည်	-7.94674
▁ရွှေ	-7.9476
▁လူများ	-7.94806
▁ပူဇော်	-7.9487
တံခါး	-7.95297
တပ်	-7.95716
အမှု	-7.9573
ပေါ်	-7.95734
တဘက်၌	-7.9586
▁အိမ်	-7.95905
▁ဘုရားသခင်ကို	-7.9616
▁စိတ်နှလုံး	-7.96187
တိုက်	-7.96304
သမီး	-7.96315
▁ယုဒ	-7.96366
ပြီဟု	-7.96398
တင်	-7.9648
▁ဒါဝိဒ်	-7.96579
▁အကြောင်း	-7.96843
လေး	-7.96904
ဖြစ်စေ၊	-7.97192
▁သို့ရာတွင်	-7.97379
▁သူတပါး	-7.97486
သကဲ့သို့၊	-7.97728
ထွက်	-7.98175
သမျှသော	-7.98246
ိတ်	-7.9826
▁ရှေ့တော်၌	-7.98411
▁စစ်တိုက်	-7.98536
▁အဘယ်သူမျှ	-7.98716
အပေါင်းတို့	-7.98786
အုပ်	-7.98815
▁ထ	-7.98834
▁မောရှေ	-7.98888
သတ်	-7.99121
▁သိုး	-7.99341
▁ဝမ်းမြောက်	-7.99508
မြို့သို့	-7.99713
ရမည်	-7.9977
ကောင်း	-8.00304
တိုင်း	-8.00335
ိမ်	-8.00469
ခံရ	-8.00496
အသက်	-8.00887
▁ထာဝရဘုရားအား	-8.00891
အိမ်	-8.0115
▁သို့သော်လည်း	-8.01212
▁ယာကုပ်	-8.01256
▁ဆုတောင်း	-8.01305
သင့်	-8.01474
▁ချီးမွမ်း	-8.01518
ကာလ	-8.01524
▁သန့်ရှင်း	-8.0155
ပါပြီ။	-8.01873
ွ	-8.01941
ုံ	-8.02014
▁ကြည့်ရှု	-8.02321
ကိုယ်	-8.02349
ဆ	-8.03357
ည်	-8.03372
တတ်ကြ၏။	-8.03569
▁အစဉ်	-8.037
အရာ၌	-8.03756
ထဲမှာ	-8.04084
▁စကားကို	-8.0436
နားမှာ	-8.0443
ချစ်	-8.04528
▁နှုတ်	-8.04809
အာ	-8.04975
▁ငွေ	-8.05256
စီ	-8.05272
▁တော	-8.05368
ရကြ၏။	-8.05502
လမ်း	-8.05699
အပ်	-8.05829
ပြီး	-8.05924
မိန်းမ	-8.05996
မင်းကြီး	-8.06015
▁ကောင်းကင်တမန်	-8.0603
လျက်နေ	-8.06323
လက်မှ	-8.06614
▁ယေရှုသည်	-8.07003
▁သူငယ်	-8.07051
အရပ်	-8.07314
မည်အကြောင်း	-8.07577
▁ပြည်	-8.07596
ခြင်းငှါ၊	-8.08051
ဘူး	-8.08504
သမျှ	-8.08587
နေသော	-8.08797
▁ရ	-8.08868
▁လျှောက်	-8.08994
ပါမည်။	-8.09093
▁ကာလ	-8.09396
▁ယဇ်	-8.09694
သွား၍	-8.09738
▁စေလွှတ်	-8.10123
▁ရန်သူ	-8.10245
▁၏။	-8.10466
▁တွေ့	-8.10493
ဖြစ်၍၊	-8.10594
▁မီးရှို့	-8.10833
ောင်	-8.11021
▁အရာ	-8.11154
▁ကိုယ်ကို	-8.11246
လည်း၊	-8.1134
ဟူ၍	-8.11575
▁ရှောလု	-8.12027
▁အောက်မေ့	-8.12325
အရာ	-8.12758
▁ထင်ရှား	-8.12867
▁မင်း	-8.12894
▁ဒါဝိဒ်သည်	-8.13337
ပြုသော	-8.13446
▁ကြောက်ရွံ့	-8.13902
အပေါင်းတို့ကို	-8.13991
အံ့သောငှါ	-8.14047
ပါဟု	-8.14065
လျှောက်	-8.14091
ခြေ	-8.14153
▁ဟော	-8.14252
ဟော	-8.14413
▁တိရစ္ဆာန်	-8.14668
▁ဘ	-8.15077
ခေါ်	-8.15083
မ္မ	-8.15091
ဘက်၌	-8.15121
▁တော်	-8.15184
▁နား	-8.15397
▁ပင်လယ်	-8.15448
၌ရှိသော	-8.15462
▁အကျွန်ုပ်၏	-8.15642
▁မူ၏။	-8.15937
▁အဲဂုတ္တုပြည်	-8.16066
ဖြစ်ကြ၏။	-8.16091
▁ကျင့်	-8.16152
▁လွှတ်	-8.16297
သောသူတို့	-8.16591
မြတ်	-8.16674
▁ကိုယ်တိုင်	-8.1691
▁အာဗြဟံ	-8.16965
▁ကျွန်ုပ်	-8.17439
ဆို၏။	-8.17699
▁မိုဃ်းကောင်းကင်	-8.17794
ရှေ့၌	-8.17906
▁ခ	-8.17936
▁ဆောင်	-8.17942
▁ဗိမာန်တော်	-8.18059
▁ယောက်ျား	-8.18369
▁ထွက်သွား	-8.18429
သောအရာ	-8.18455
ကျင့်	-8.186
ကြနှင့်။	-8.18628
▁အိုထာဝရဘုရား၊	-8.18918
▁အရှင်ထာဝရဘုရား	-8.18931
▁ပြေး	-8.19035
▁လိမ့်မည်။	-8.19058
▁အိမ်တော်	-8.19523
▁ဣသရေလအမျိုး၏	-8.19555
▁ချစ်	-8.19634
တိ	-8.19671
နည်း	-8.19863
ည	-8.19907
တွင်၊	-8.19916
ကြလော့ဟု	-8.19958
▁ငါ့အား	-8.20126
နေ့	-8.20322
▁ယဇ်ပလ္လင်	-8.2033
ဖွင့်	-8.2042
ချင်း	-8.20451
ပြင်	-8.20625
▁ပူဇော်သက္ကာ	-8.2064
စု	-8.20651
အောင်	-8.20685
ူး	-8.20778
▁အကယ်စင်စစ်	-8.20929
▁ထိုကြောင့်၊	-8.21663
ော်	-8.21788
တော်မမူ	-8.21792
မသိ	-8.21892
▁အပ်	-8.22466
မပြု	-8.22722
၌၎င်း၊	-8.22763
စိတ်	-8.22987
ပယ်	-8.23215
စီး	-8.23314
ပိုင်	-8.23351
ရှိသမျှတို့ကို	-8.23396
လျက်ရှိ၏။	-8.23442
▁လုပ်	-8.2374
▁သင်၏ဘုရားသခင်	-8.23815
စရာဘို့	-8.24214
▁ခပ်သိမ်းသော	-8.24235
▁သို့မဟုတ်	-8.24254
ဆက်	-8.24268
▁ညှဉ်းဆဲ	-8.24331
ဘဲနေ	-8.24386
▁ဧ	-8.24525
ဝေး	-8.24892
သံ	-8.25114
နိုင်သော	-8.25131
စေမည်။	-8.25185
▁အရင်	-8.25199
▁သာ၍	-8.25414
▁ကယ်တင်	-8.25523
သောသူတို့ကို	-8.25628
မျိုး	-8.25705
ပြည်သို့	-8.2577
ဆုံး	-8.25942
ယ်	-8.25968
ဏ္	-8.25968
▁မျက်နှာ	-8.26055
ရမည်ဟု	-8.26072
မျက်နှာ	-8.26603
ပျို	-8.26656
ဥစ္စာ	-8.2678
▁မယား	-8.27287
ဟ	-8.27462
▁ပြန်	-8.27541
ကောင်	-8.27552
စွဲ	-8.27576
▁မတရားသော	-8.27662
▁ခေါ်	-8.27687
▁သင်၌	-8.27885
▁ငါတို့ကို	-8.28408
ခံရသော	-8.2849
ကျောက်	-8.28565
လေပြီ။	-8.28655
မယား	-8.28668
နယ်	-8.28922
▁တံခါး	-8.29021
သော်၊	-8.29116
ဇာ	-8.29195
ကာ	-8.29423
သည်လည်း၊	-8.29473
▁ထိုနောက်	-8.295
စေလွှတ်	-8.2951
မြို့၌	-8.29745
▁အတိုင်း	-8.29866
▁တက်	-8.29876
ောက်	-8.30018
▁ယောသပ်	-8.30054
▁လည်း	-8.30494
တော်မူမည်။	-8.30597
ခြင်းနှင့်	-8.30676
ေလ	-8.30866
တခု	-8.31154
▁လေး	-8.31163
လျက်ရှိ	-8.31235
အပြစ်ကို	-8.31301
▁ကျွန်မ	-8.31536
▁ခန့်ထား	-8.31594
စာ	-8.31682
မာ	-8.31746
ရှိသမျှ	-8.31776
တို့ကို၎င်း၊	-8.32339
တော်မူ၍၊	-8.32531
တပါး	-8.32696
လက်သို့	-8.32832
▁နှစ်	-8.32945
▁မီးရှို့ရာယဇ်	-8.33037
ဘဲ၊	-8.33066
ယော	-8.33118
▁ခမည်းတော်	-8.33255
တန်ဆာ	-8.33275
▁အရပ်	-8.33302
▁သင်တို့အား	-8.33389
ဖျက်ဆီး	-8.33579
လိမ့်	-8.3396
ကင်ဗိုလ်ခြေအရှင်	-8.34063
▁သားတော်	-8.34087
ဘက်	-8.34159
▁ထိုင်	-8.34162
အံ့	-8.34524
▁မင်းကြီး	-8.34639
လာ၍	-8.34855
▁ကျ	-8.34879
▁နာ	-8.34898
မရှိ၊	-8.34934
နိုင်ငံ	-8.35046
▁ပြင်ဆင်	-8.35391
ကြည့်	-8.35514
သောသူကို	-8.35708
▁ဗာဗုလုန်	-8.3578
▁ပြောဆို	-8.35847
ွန်	-8.35859
ပုံ	-8.36211
▁ရှောလမုန်	-8.3647
▁လုပ်ကြံ	-8.36534
▁ယုံကြည်ခြင်း	-8.36551
▁လေဝိသား	-8.36592
ဒါဝိဒ်	-8.36691
ဖြတ်	-8.36704
ကုန်	-8.36811
သွင်း	-8.36842
▁ထိုသို့သော	-8.36882
▁ယုဒရှင်ဘုရင်	-8.36969
▁အချင်းချင်း	-8.3697
▁လမ်း	-8.3704
မြေ	-8.37108
▁သုံး	-8.37159
ယူ၍	-8.37512
အချိန်	-8.37732
မိန့်တော်မူ	-8.37766
▁ပရိသတ်	-8.37982
ချိန်	-8.38369
▁ပညတ်တရား	-8.38485
▁ကောင်းကြီးပေး	-8.38575
စည်း	-8.3862
မူကား	-8.38631
မြ	-8.38643
▁ဥစ္စာ	-8.38916
ဝန်	-8.39474
▁များစွာသော	-8.39493
▁တင်	-8.39813
ဧ	-8.39913
▁ဆီ	-8.39973
ပါစေ။	-8.39975
▁ယေ	-8.401
ရှင်	-8.40109
ပါသည်ဟု	-8.40146
▁မောရှေသည်	-8.40278
▁သို့	-8.40445
ပျက်	-8.40704
ရန်	-8.40748
တော	-8.40876
▁ထိုမြို့	-8.40966
▁သူတို့အား	-8.40985
▁သစ္စာ	-8.41502
▁သွား၍	-8.41556
ရကြ။	-8.41561
နား	-8.41621
တောင်း	-8.41703
▁ဝန်ခံ	-8.41711
▁သို့သော်လည်း၊	-8.41891
▁တပ်	-8.41978
သလောဟု	-8.4198
▁မသိ	-8.42002
▁ခရစ်တော်	-8.42277
ဘွယ်	-8.42286
ဆယ်	-8.42335
ကဲ့သို့၎င်း၊	-8.42662
အပေါ်သို့	-8.42803
▁အဝတ်	-8.4299
▁ချီးမြှောက်	-8.43002
▁နန်းတော်	-8.43246
▁မောရှေအား	-8.43271
ထင်	-8.4365
▁မြည်း	-8.4375
ပူဇော်	-8.439
▁ဖြစ်၏။	-8.44045
▁မပြု	-8.44197
▁သံ	-8.44219
▁မျက်စိ	-8.44281
▁ထိုသူကို	-8.44374
▁သောက်	-8.44399
င	-8.44736
အလယ်၌	-8.44763
▁ပြစ်မှား	-8.44777
လု	-8.44823
စေ။	-8.44873
တို့၊	-8.45075
▁ညီအစ်ကို	-8.45168
▁တယောက်	-8.45299
ရှိသမျှကို	-8.45379
နှစ်ယောက်	-8.45422
မိန့်တော်မူ၏။	-8.45443
▁အမျိုးသား	-8.45493
ရွက်	-8.45547
▁ယုဒပြည်	-8.45585
▁ကြွေးကြော်	-8.45723
ရဟု	-8.45896
သင်	-8.45966
▁သိမ်းယူ	-8.46038
▁အာရုန်	-8.46158
နိုင်။	-8.4621
ပြီးလျှင်	-8.46215
ဖြစ်စေ	-8.46221
စဉ်	-8.46329
ုပ်	-8.4642
▁ဆောင်ရွက်	-8.46448
ခြင်းရှိ	-8.46453
ထိုင်	-8.46464
သည်မဟုတ်။	-8.46489
▁ချ	-8.46587
▁နောက်	-8.46761
တရားကို	-8.4709
▁လေ	-8.47291
▁အုပ်စိုး	-8.47293
▁တပည့်တော်တို့	-8.47383
▁စ	-8.47583
▁ပြန်ပြော	-8.47667
▁ထာဝရဘုရားမိန့်	-8.47752
လူအပေါင်းတို့သည်	-8.47758
တရာ	-8.48353
▁သိုးသငယ်	-8.48604
▁သို့ဖြစ်၍၊	-8.48978
ပြု၍	-8.48998
▁ပြန်လာ	-8.4915
ရကြလိမ့်မည်။	-8.49206
မျက်စိ	-8.49445
ညီအစ်ကို	-8.49607
နောက်	-8.4961
▁အသံ	-8.49832
▁ယောရှု	-8.4988
▁အသီးအသီး	-8.49928
ရှိရာသို့	-8.49961
များနှင့်	-8.50001
▁သင်တို့၌	-8.50093
အရပ်သို့	-8.50387
လူတို့သည်	-8.50477
▁ထုတ်	-8.50542
▁မြော်လင့်	-8.50548
▁ကိုးကွယ်	-8.50641
လက်၌	-8.50667
▁စောင့်ရှောက်	-8.50685
▁အဲဂုတ္တုပြည်မှ	-8.50837
▁ရှိသော	-8.50875
္	-8.50985
ဒိ	-8.51
▁အကျိုး	-8.5112
စ်	-8.51202
▁သခင်ဘုရား	-8.51385
ပတ်လုံး	-8.51401
အိမ်၌	-8.51435
အလို	-8.51622
▁နှုတ်ကပတ်တော်	-8.51683
သားကား	-8.51873
ဆိုး	-8.51878
▁ယုံကြည်	-8.51965
▁အတူ	-8.51976
အမည်ရှိသော	-8.51984
တော်သည်	-8.51989
မခံ	-8.52072
ီ	-8.52256
ဖြစ်သတည်း။	-8.52301
▁သင်တို့တွင်	-8.52577
▁ဒုစရိုက်	-8.52585
ချုပ်	-8.52703
▁အောင်	-8.52723
▁လောကီ	-8.52738
▁နားမထောင်	-8.52796
အရပ်၌	-8.52811
ချင်	-8.52865
တို့သည်လည်း	-8.52952
သောသူဖြစ်	-8.53054
ပြည်၌	-8.53097
တော်မမူ။	-8.53275
▁ထ၍	-8.53467
▁ယာ	-8.53616
ဟိ	-8.53681
မှတပါး	-8.53806
▁မြစ်	-8.53836
▁လုယူ	-8.53952
▁ရှိ၏။	-8.54084
▁ကျေးဇူးတော်	-8.54084
နှစ်ဆယ်	-8.54127
လဲ	-8.54173
▁မြင်း	-8.54178
ထ၍	-8.54441
တဘက်	-8.54446
ခွက်	-8.54462
ပေါက်	-8.54632
စိတ်နှလုံး	-8.54685
ရှိ၍၊	-8.54686
▁အော်ဟစ်	-8.54753
▁အဲဂုတ္တု	-8.54851
ူ	-8.54876
▁ရောက်လာ	-8.55164
မြောက်	-8.55232
ရွာ	-8.55276
ပျောက်	-8.55376
▁ပေါလု	-8.55451
▁တောင်း	-8.55519
▁အမှုကို	-8.55579
ပြည်ကို	-8.55947
▁ကြီးစွာသော	-8.5597
▁ကိုယ်တော်ကျွန်	-8.56104
▁နှစ်သက်	-8.56206
အချို့	-8.56365
▁မှတ်	-8.56504
▁ကြေးဝါ	-8.5657
ထက်သာ၍	-8.56755
▁မခံ	-8.56816
မြင့်	-8.56828
▁မှောင်မိုက်	-8.56872
တော်မူသဖြင့်၊	-8.56963
▁ဟေ	-8.56989
▁?????????	-8.57072
▁အစဉ်အမြဲ	-8.57351
▁က	-8.57386
▁နေရာ	-8.57396
တို့ကိုလည်း	-8.57403
စေ၍၊	-8.5753
သေး	-8.57618
ငါး	-8.57878
စဉ်တွင်၊	-8.57918
စစ်	-8.5797
▁သ	-8.58072
▁ငိုကြွေး	-8.58138
တ္တ	-8.5818
ဝိညာဉ်	-8.58214
▁လွတ်	-8.58474
▁လော့။	-8.58502
လွတ်	-8.58518
မှန်	-8.58578
▁ဆို၏။	-8.58684
▁စပျစ်ရည်	-8.5869
▁စည်းဝေး	-8.58736
▁ထိုမိန်းမ	-8.58803
▁ကျေးဇူး	-8.58827
ခုနစ်	-8.58877
▁ကဲ့ရဲ့	-8.58981
▁ကြောက်	-8.5926
အရာကို	-8.59278
▁န	-8.59446
▁ညီအစ်ကိုတို့	-8.59488
▁ဘုရားသခင့်	-8.5962
▁သဘော	-8.59667
သားတို့	-8.59879
ရိုး	-8.59917
▁ကြ	-8.60007
▁တော၌	-8.60166
▁မုန့်	-8.60301
▁ထောင်	-8.60342
▁ဘေး	-8.60374
▁အထက်က	-8.60427
▁မှာထား	-8.60481
သုံးဆယ်	-8.60786
▁ဣသရေလရှင်ဘုရင်	-8.60797
အိမ်သို့	-8.60883
▁အိပ်	-8.61087
▁နိုင်ငံတော်	-8.61193
ဒေါ	-8.61497
ခရိုင်	-8.61591
▁တောင်းပန်	-8.61632
အကြောင်းကို	-8.61645
အကြောင်း	-8.61664
▁ဆယ်	-8.61686
ဟာ	-8.61916
ဖြစ်၍	-8.61969
▁ယေရှုကလည်း၊	-8.61985
တကောင်	-8.62112
▁ဝတ်	-8.62202
တယောက်	-8.62216
ော	-8.62316
ီး	-8.62382
▁ထိုအရပ်၌	-8.62418
သိုး	-8.62437
▁ငါ့စကားကို	-8.62498
အပေါ်၌	-8.62651
ကာလ၌	-8.62697
သစ်	-8.62756
▁ကျေးဇူးပြု	-8.62761
အနားမှာ	-8.628
▁ထမြောက်	-8.628
▁နေကြ၏။	-8.62907
▁နှလုံး	-8.62928
▁ရုပ်တု	-8.63023
၏ဟု	-8.63194
ပြေး	-8.63233
သော်၎င်း၊	-8.63346
▁ဆင်းရဲ	-8.63352
မဟုတ်	-8.63407
▁ယဇ်ပူဇော်	-8.6344
လာ၍၊	-8.6349
အဆွေအမျိုး	-8.63499
ဝတ်	-8.63531
▁ဖြောင့်မတ်သောသူ	-8.63624
လွှတ်	-8.63626
▁ယေရုရှလင်မြို့၌	-8.63656
တော်မူပါဟု	-8.637
လူတို့	-8.63869
▁ဝိညာဉ်တော်	-8.64011
▁ငါ့သား	-8.64019
စေတော်မူ၏။	-8.64079
ထဲ၌	-8.64129
ပွင့်	-8.64166
မရှိဘဲ	-8.64279
ရာအရပ်	-8.64287
ကွာ	-8.64427
▁ဟာ	-8.64431
▁အသွေး	-8.646
အမျိုးသား၊	-8.64651
ဟူ၍၎င်း၊	-8.6475
▁ငါမ	-8.64883
▁ဖြောင့်မတ်ခြင်း	-8.64894
ပြည့်စုံ	-8.64949
▁ဘိုးဘေးတို့	-8.65002
စေနှင့်။	-8.65038
ပေ	-8.65313
နီး	-8.65345
တို့က၊	-8.65374
မီး	-8.65442
တူ	-8.65753
ဖုံး	-8.65762
ရကြ	-8.65897
န်း	-8.66016
နောက်သို့	-8.66053
▁ငါ၌	-8.66137
▁အလျင်အမြန်	-8.66213
▁လူသည်	-8.66341
အရှင်	-8.66368
▁ရထား	-8.66416
▁သက်သေခံ	-8.6644
တန်	-8.6649
ဖြစ်သည်ဟု	-8.66745
▁နှင်ထုတ်	-8.66881
သီး	-8.66971
▁ထိုသူတို့	-8.6701
လော	-8.67055
▁ဣ	-8.67066
တော်မူလျှင်၊	-8.67139
ပေါင်း	-8.67216
▁ကြားပြော	-8.67342
အကြီး	-8.67372
ယဇ်	-8.67467
ပါစေသော။	-8.6749
▁မေး	-8.67546
▁ထိုမှတပါး၊	-8.67763
ပါး	-8.6778
မေး	-8.67947
▁အလင်း	-8.68
မဟုတ်၊	-8.68114
အခွင့်	-8.68116
များတို့သည်	-8.68121
▁ကြောင့်၊	-8.68234
▁လူများတို့သည်	-8.68239
ပြီ	-8.68312
တော်မူသည်ကား၊	-8.68457
စေ၏။	-8.68467
ခတ်	-8.68504
▁နေရ	-8.68608
သာ၍	-8.68793
▁ပညတ်	-8.68865
▁လက်တော်	-8.68885
ဝေ	-8.68916
▁သမီး	-8.68968
စေ့	-8.69185
သောသူ၏	-8.69223
▁မြေပေါ်မှာ	-8.6923
သင်တို့	-8.6933
ကြလိမ့်မည်ဟု	-8.69565
ရှိကြ၏။	-8.69567
ကြောင်း	-8.69583
နှင့်၎င်း၊	-8.6962
ငါ့	-8.69847
▁ခြင်္သေ့	-8.6988
▁အရှင်	-8.69882
အမည်ဖြင့်	-8.69884
▁ပြည်သား	-8.69923
▁ဖိလိတ္တိလူတို့	-8.6994
ပူဇော်သက္ကာ	-8.70091
ိညာဉ်	-8.70154
▁မှာ	-8.70156
ခဲ	-8.70182
▁မိုဃ်း	-8.70307
▁ဆင့်ဆို	-8.70359
အမျိုးသားတို့သည်	-8.70441
စေခြင်းငှါ၎င်း၊	-8.70456
နှင့်အညီ	-8.70457
▁ပညာရှိ	-8.70484
▁ကျိန်ဆို	-8.70527
▁ဘော်ပြ	-8.70648
သားတို့ကို	-8.70667
▁မစင်ကြယ်	-8.70674
▁ဆောင်သွား	-8.70682
သူအပေါင်းတို့သည်	-8.70721
လောက်	-8.7116
▁အထံတော်သို့	-8.71169
▁ကောင်းသော	-8.71189
တော်၌	-8.71219
▁ဥာဏ်	-8.71223
ခဲ့	-8.71286
ခြောက်	-8.71305
▁မိုဃ်းတိမ်	-8.71333
ခု	-8.71451
▁ခေါင်း	-8.71486
▁ကြောင့်	-8.71537
အောက်၌	-8.71621
တဆယ်	-8.71655
ပတ်လည်၌	-8.71708
▁ခြေ	-8.71774
ှ	-8.71814
▁ဆိုကြ၏။	-8.71841
ကြဟု	-8.71852
ချောင်း	-8.71893
▁မင်္ဂလာရှိ	-8.71927
▁လဲ	-8.72128
▁ဧဖရိမ်	-8.72208
▁ဆုံးမ	-8.72219
▁ဖြစ်၍၊	-8.72302
▁ကြည့်	-8.72377
ရှိရာ	-8.72466
▁မြေကြီးပေါ်မှာ	-8.72529
ပိ	-8.7256
▁ထာဝရဘုရားကလည်း၊	-8.72624
တက်	-8.72704
▁အကြောင်း၊	-8.72716
ဖျက်	-8.72778
ဘိုးဘေး	-8.72839
ထံတော်သို့	-8.72851
▁ယော	-8.7287
အမျိုးမျိုး	-8.72922
▁ကျေးဇူးတော်ကို	-8.7295
ဆိုသော်၊	-8.72999
▁ပရိသတ်စည်းဝေးရာ	-8.73215
▁အကျင့်	-8.73249
ိုင်း	-8.73401
လင်း	-8.73405
မွေး	-8.73498
တန်ခိုး	-8.73675
▁ပယ်ရှင်း	-8.73702
▁ပျက်စီး	-8.7377
▁ထိုသခင်	-8.73893
ဖွဲ့	-8.73951
▁ယူ၍	-8.73975
▁ထာဝရဘုရားက၊	-8.74035
လမ်းသို့	-8.74114
ကိုယူ၍	-8.74165
▁ယေရှု	-8.74341
????????????????	-8.74352
▁သီချင်းဆို	-8.7436
▁တော်ကို	-8.74555
ဒန်	-8.74592
အသက်ကို	-8.74683
▁စီး	-8.74685
ဖြစ်ကြောင်းကို	-8.74922
▁ယေရမိ	-8.74933
▁အသီး	-8.7499
▁အချိန်	-8.75008
ပြစ်မှား	-8.75014
▁ဘွားမြင်	-8.75247
▁နာမတော်	-8.75253
▁စစ်	-8.75314
ပြည်၊	-8.7549
နှလုံး	-8.75504
ရစ်	-8.75507
▁ဣသရေလအမျိုးကို	-8.75552
▁ထမ်း	-8.75571
ရှစ်	-8.75605
▁မဟုတ်လော။	-8.75855
ထင်ရှား	-8.75993
▁မုသာ	-8.76059
▁ပြန်သွား	-8.76097
▁ထိုနောက်မှ	-8.7611
▁ခံရသော	-8.76233
ရှေ့	-8.76323
▁ဘောဇဉ်	-8.76367
ဆောင်ခဲ့	-8.76367
ချီးမွမ်း	-8.76444
ဖြစ်တော်မူ၏။	-8.76629
▁စစ်သူရဲ	-8.76849
နက်	-8.76887
မဟုတ်။	-8.76913
▁ဝိညာဉ်	-8.76982
▁သားသမီး	-8.77196
▁အချင်း	-8.77299
▁မေးမြန်း	-8.77312
▁ဘုရား၏	-8.77353
▁ပြင်	-8.77401
ဆွဲ	-8.77433
ွယ်	-8.77553
စရာအကြောင်း	-8.77594
▁သွင်း	-8.7765
သောက်	-8.77779
▁ပေတရု	-8.7793
▁ဝတ်ပြု	-8.77982
▁အသရေ	-8.78057
▁အထက်	-8.78159
▁??????????	-8.78189
စင်	-8.78261
▁ဒုစရိုက်ကို	-8.78336
ဘေး	-8.78411
▁ဗင်္ယာမိန်	-8.78507
နှင့်ဆိုင်သော	-8.78614
▁ရေးထား	-8.78789
▁ယူ	-8.78877
ကဲ့သို့၎င်း	-8.78893
▁ဗာ	-8.78976
တထောင်	-8.79024
တော်မူလိမ့်မည်။	-8.79117
▁သင်္ဘော	-8.79176
ဘွယ်သော	-8.79295
▁ဗျာဒိတ်တော်	-8.79312
မည်နည်း။	-8.79353
▁ဒုတိယ	-8.79403
ဟူသော	-8.79491
ထံ၌	-8.79516
▁ဘုရားသည်	-8.7963
ဲ့	-8.79887
တံ	-8.79917
သော်	-8.79926
ရင်း	-8.7993
▁တည်ဆောက်	-8.80001
▁လူတို့သည်	-8.80086
အလုံးစုံ	-8.80118
ဂါ	-8.80147
စေဟု	-8.80314
▁ကယ်တင်တော်မူ	-8.80474
▁ဝါကြွား	-8.80518
?????????	-8.80569
▁အခွင့်	-8.80644
▁အနာ	-8.80742
စဉ်တွင်	-8.8075
ွဲ	-8.80803
▁ဆက်	-8.80804
▁ဤသို့	-8.80828
ပါမည်ဟု	-8.80862
▁နှိမ့်ချ	-8.81121
ေး	-8.81154
▁နေ့ရက်	-8.81193
နေ့၌	-8.81209
ပြန်၍	-8.81216
▁ညီ	-8.81222
▁အလိုရှိ	-8.8125
▁ချက်ခြင်း	-8.81311
ခြင်းအားဖြင့်	-8.81354
▁ကင်းလွတ်	-8.81536
▁မြို့ရိုး	-8.81627
▁ဗိုလ်	-8.81718
▁အခါ၊	-8.81721
▁ဗာဗုလုန်မြို့	-8.81769
သောအမှု	-8.81799
▁ဖြစ်ကြ၏။	-8.81805
▁ရှင်ဘုရင်သည်	-8.81929
နေ့ရက်	-8.81931
▁ထိုကာလ၌	-8.81996
▁ဧလိယ	-8.82054
▁ဗေ	-8.822
▁နှိုးဆော်	-8.82218
နွား	-8.82256
ရှိသမျှတို့သည်	-8.82329
ခက်	-8.82376
ပြည့်	-8.82519
သူတို့	-8.82567
အဝတ်	-8.82574
ပေ၏။	-8.82597
ရှု	-8.82631
▁ယေရှုခရစ်	-8.8268
ဒ်	-8.82776
▁မောဘ	-8.82889
▁ဖြောင့်မတ်	-8.82897
▁ယော်ဒန်မြစ်	-8.83007
▁အမိ	-8.83113
ရှိသမျှတို့	-8.83173
သည်မဟုတ်လော။	-8.83212
အစရှိသော	-8.83271
▁လူအပေါင်းတို့	-8.83352
▁မာ	-8.8337
ဟေ	-8.8357
ဆိုလျက်၊	-8.83573
▁ရပ်နေ	-8.83662
ရပ်	-8.83785
▁နာမတော်ကို	-8.83802
တရှောက်လုံး	-8.84077
▁ငါ့ထံသို့	-8.84157
ပစ်	-8.84246
ပေါ်၌	-8.8439
သနား	-8.84444
ယေ	-8.84481
စေတော်မူ	-8.84589
သန်	-8.84658
မိမိ	-8.84716
ကပ်	-8.84814
ဆန်	-8.8494
▁ယုဒလူ	-8.85071
ခေါင်း	-8.85229
▁ရှိကြ၏။	-8.85317
ဖာ	-8.85411
▁မြောက်	-8.85552
▁တရားစီရင်	-8.85678
▁ယုဒအမျိုး	-8.85808
ပညတ်	-8.85862
▁ယ	-8.85931
▁ကရုဏာ	-8.8601
▁ရှမွေလ	-8.86013
▁ကရုဏာတော်	-8.86044
ပေါ်သို့	-8.86142
ငှက်	-8.86316
ရန်သူ	-8.86445
ဘူးသော	-8.86521
င့်	-8.86612
▁သူရဲ	-8.86636
တဲ	-8.86648
ခြင်းအမှု	-8.86651
▁တန်ခိုး	-8.86679
မက်	-8.86694
▁သန့်ရှင်းစေ	-8.86781
ရမည်အကြောင်း၊	-8.86782
▁မကောင်းသော	-8.86897
ကြလိမ့်	-8.8691
ဖြူ	-8.86915
ဏ	-8.86937
တတ်။	-8.86937
ဝိုင်း	-8.86976
အစဉ်	-8.87106
▁ခရီးသွား	-8.87133
▁သန့်ရှင်းရာဌာန	-8.8714
ဥစ္စာကို	-8.87163
▁သို့ရာတွင်၊	-8.87186
▁ကြီး	-8.87242
သောအရာကို	-8.87484
▁အဘယ်သူသည်	-8.87617
ပတ်	-8.87659
မင်းကြီးသည်	-8.87902
ကျေးဇူး	-8.88038
မြို့သား	-8.88076
ခါ	-8.88328
စာကို	-8.8838
ဆင်းရဲ	-8.88395
မော	-8.88408
ထွက်၍	-8.88439
ခေါ်၍	-8.885
▁ကား၊	-8.88685
▁အတောင်	-8.88731
ကြိုး	-8.88765
ထားသော	-8.8877
▁????????????	-8.88872
တယောက်ကို	-8.88932
မြို့နှင့်	-8.88954
▁စာ	-8.89052
လင်	-8.89059
▁မစ	-8.89111
မှီတိုင်အောင်	-8.89219
သံကို	-8.89271
မပြော	-8.89304
ဒဏ်	-8.89383
▁ပါ	-8.89424
ကြောက်	-8.89436
ရုပ်တု	-8.89472
ကိုးကွယ်	-8.89477
ြ	-8.89537
▁ငါး	-8.89592
ပညာ	-8.89669
▁ခရစ်တော်၏	-8.89697
ဘုရား၊	-8.89775
▁မိန့်တော်မူသည်	-8.89958
တို့ကို၎င်း	-8.90052
ကြောင့်၊	-8.90053
▁မိန့်တော်	-8.90163
အမျက်	-8.9025
တယောက်သည်	-8.90286
ကွယ်	-8.90297
ရှိသည်ဟု	-8.9036
ကြွ	-8.90439
စေသော	-8.90518
ကြသနည်း။	-8.90563
▁အကြင်သူသည်	-8.90594
သည်တိုင်အောင်	-8.90631
ရေး	-8.90723
▁ယောဟန်	-8.90743
▁တိုင်အောင်	-8.90799
မရှိသော	-8.9115
▁ဆိတ်	-8.91169
ငြိမ်း	-8.91182
ပြေ	-8.91193
ပြတ်	-8.91265
▁သိမ်းသွား	-8.91315
ရဲ	-8.91576
▁အမိန့်တော်ကို	-8.9177
▁စုဝေး	-8.91998
သည်နှင့်အညီ၊	-8.92146
အသံ	-8.92293
▁ပြုပြင်	-8.92366
အကျင့်	-8.92465
သဘော	-8.92474
▁မှာထားတော်မူ	-8.92615
ွင်း	-8.92671
▁ဘုန်း	-8.9278
လည်	-8.92846
▁ဤအမှု	-8.92915
▁တော်မူ၏။	-8.92952
▁၎င်း၊	-8.93061
▁လက်ျာ	-8.93069
ကြည့်ရှု	-8.93183
▁အဘိုး	-8.93195
လိမ့်မည်	-8.93245
ကြာ	-8.93248
▁ပေးတော်မူ	-8.93294
ဆိုင်	-8.933
၏ဘုရားသခင်	-8.93469
▁ယွာဘ	-8.93802
အကျွန်ုပ်	-8.93845
ဟုဆို	-8.93854
▁ပယ်	-8.93856
မြစ်	-8.93907
▁မိဘ	-8.93989
▁လာ၍	-8.94029
▁???????????	-8.94029
▁အခြား	-8.94036
ထဲ	-8.94093
နားထောင်	-8.94107
▁မှားယွင်း	-8.94113
▁တပြည်လုံး	-8.94136
▁ကယ်နှုတ်	-8.94138
ဇိ	-8.94182
▁နားလည်	-8.94268
▁တရားသဖြင့်	-8.94364
လူ၊	-8.9437
▁အဆွေအမျိုး	-8.94451
▁တပါး	-8.9452
တို	-8.94766
ွေ	-8.94823
စဉ်၊	-8.9487
ကိုသာ	-8.94872
▁သွန်သင်	-8.94873
ကြလျှင်၊	-8.9495
▁ဆီးတား	-8.94988
▁အမှုတော်ကို	-8.95051
အလုံးစုံတို့ကို	-8.95085
▁သိတင်း	-8.95095
ကျွေး	-8.95153
▁စင်ကြယ်	-8.95164
လျှာ	-8.95199
▁ငှါ	-8.95256
နီ	-8.95295
▁ဣသ	-8.95325
▁ယခုမှာ	-8.9548
လာသော	-8.95519
တံခါးဝ	-8.95619
ပါ၏ဟု	-8.9569
▁ရွေး	-8.95731
▁သူ၌	-8.95774
စုံ	-8.95877
ယောက်ျား	-8.9605
တို့နှင့်အတူ	-8.96065
ဘာသာ	-8.96181
ရှောင်	-8.96215
▁စပါး	-8.9622
ခြင်းငှါ၎င်း၊	-8.96225
ပု	-8.96244
▁သင်နှင့်	-8.96348
ကြစေ။	-8.96557
▁ရာ	-8.96585
ပြုစု	-8.96595
သောသူတို့၏	-8.96624
ရှေ	-8.9671
▁တိုင်	-8.96755
တို့မှ	-8.96787
ဘွား	-8.96881
▁သင်္ဂြိုဟ်	-8.96887
ခြင်းငှာ	-8.96889
မှု	-8.96909
▁ချမ်းသာ	-8.96918
နှမ	-8.96928
ယာ	-8.96933
ထံ	-8.97013
နှင့်ပြည့်စုံ	-8.97036
နံ	-8.97039
▁ဧလိ	-8.97092
မြို့မှ	-8.97171
▁အချည်းနှီး	-8.97204
တေ	-8.9722
အပေါ်	-8.97247
ဖြစ်လိမ့်မည်။	-8.97287
▁အစဉ်မပြတ်	-8.9729
လိုက်၍	-8.97409
ပေတည်း။	-8.97442
စာရင်း	-8.97542
အဝတ်ကို	-8.97609
ား	-8.97664
သောစိတ်နှင့်	-8.97706
▁ထောက်	-8.97729
အကျိုး	-8.97784
▁ဣဇာက်	-8.97788
လ၊	-8.97793
လုံးကို	-8.97889
တော်မူခြင်း	-8.97991
▁ဆုံး	-8.97995
နိုင်အောင်	-8.98049
▁အခွင့်ကို	-8.98075
▁ယဇ်ပုရောဟိတ်သည်	-8.98159
▁သင့်အား	-8.98307
တတ်သောသူ	-8.98407
▁ဝမ်း	-8.985
▁စုံစမ်း	-8.98503
▁ဤလူမျိုး	-8.98562
▁ရောင်း	-8.98592
▁ရှုရိ	-8.98622
သား၊	-8.98703
▁အဲဂုတ္တုပြည်၌	-8.98787
မနေ	-8.98806
သွား၍၊	-8.98806
အမျိုး၊	-8.98808
▁ဥယျာဉ်	-8.9883
▁မရှိ	-8.98927
▁ပုန်ကန်	-8.99023
ညှဉ်းဆဲ	-8.99106
▁မုန်း	-8.99165
▁ဂိလဒ်ပြည်	-8.99231
▁တပည့်တော်	-8.99369
လတံ့သော	-8.99642
▁ဤသူ	-8.99805
နှစ်ပါး	-8.99857
ဘော်	-8.99875
▁နှုတ်ဆက်	-8.99948
သို့ရောက်	-9.00048
ငါးဆယ်	-9.00205
▁မေ	-9.00207
▁ကျွန်ခံ	-9.00216
▁အရှေ့	-9.0025
သမျှတို့ကို	-9.0027
▁စွန့်ပစ်	-9.00289
အောက်	-9.00352
မြဲ	-9.00424
အမည်	-9.00441
▁ပဌမ	-9.00444
ဆီ	-9.00471
တဦး	-9.00495
▁အကြံ	-9.00532
အကျိုးကို	-9.00541
▁ဖန်ဆင်း	-9.00566
၌နေသော	-9.00636
▁ဧလ	-9.00675
ဆီဥ	-9.00797
▁တန်ဆာ	-9.00853
ရှိ၍	-9.00893
ပြု၍၊	-9.00896
ဒေ	-9.00939
န့်	-9.00977
ပါပြီဟု	-9.01117
▁လုလင်	-9.01172
ထပ်	-9.01178
▁မြေမှုန့်	-9.01265
▁အကုန်အစင်	-9.01265
▁ငါပြော	-9.01323
ရမည်အကြောင်း	-9.01408
လွှဲ	-9.01421
▁မင်္ဂလာ	-9.01456
လှူ	-9.01531
▁အရေဖျားလှီး	-9.01636
မည်ကို	-9.01642
▁သနား	-9.01745
နည်းဟူမူကား၊	-9.01806
လျော့	-9.01807
▁အချင်းလူသား၊	-9.01831
ကလည်း	-9.01904
▁ပညတ်တော်	-9.01905
ုန်မြို့	-9.01974
▁လူအသက်ကို	-9.02079
▁သူတို့၌	-9.02131
ဟောပြော	-9.02232
လူများ	-9.02336
▁အမျက်တော်	-9.02342
ရှက်	-9.02342
သို့သွား၍	-9.02406
▁ဖျက်	-9.02413
▁စည်းစိမ်	-9.02539
▁သခင်၊	-9.02586
▁ဖ	-9.02606
ဣ	-9.02778
လုပ်သော	-9.02788
အပြစ်ကြောင့်	-9.02827
▁ရှောက်သွား	-9.02951
ထိန်း	-9.02962
▁လ	-9.03011
မည်နည်းဟု	-9.03055
ပြီးသော	-9.03138
အသက်ရှင်	-9.032
▁ပြုစု	-9.0347
ကျိုး	-9.03479
ကျင်	-9.03547
▁လည်း၊	-9.03609
▁အုပ်	-9.03639
ဘုန်း	-9.03712
တာ	-9.03777
▁စုဝေးစေ	-9.03804
▁ငါနှင့်	-9.03824
▁အမိန့်တော်	-9.03947
ပြည်မှ	-9.03952
▁ရှောလုသည်	-9.03977
ထုတ်	-9.0402
▁မေတ္တာ	-9.04052
▁ဤသူတို့သည်	-9.04099
▁တူ	-9.04102
တည်းဟူသော၊	-9.04135
▁ကျန်ကြွင်းသော	-9.0422
တို့နှင့်တကွ	-9.04223
တွင်း	-9.04307
နှင့်တကွ၊	-9.04313
▁အရှင်မင်းကြီး	-9.04357
ယေရှု	-9.04399
တိရစ္ဆာန်	-9.04445
လူတို့ကို	-9.04553
▁နံနက်	-9.04643
▁ဒါဝိဒ်၏	-9.04748
▁အာဇ	-9.04826
လူမျိုး	-9.04872
များတို့ကို	-9.04876
▁ငှက်	-9.04955
ဖြစ်သည်ကို	-9.05032
▁အပေါင်းတို့	-9.05054
တော်မူသည်ကို	-9.05118
အိမ်တော်	-9.05169
▁ဤသူသည်	-9.05174
အမျိုးအနွယ်	-9.05333
▁စားသောက်	-9.05386
▁ဝေး	-9.05404
▁တဲ	-9.0553
သက်သေ	-9.05548
ရွေး	-9.05645
အသံကို	-9.05755
လျက်ရှိသော	-9.05825
▁ယေရောဗောင်	-9.05847
တမျိုး	-9.06024
တပည့်	-9.06028
သမျှအတိုင်း	-9.06137
▁နေ့	-9.06169
▁ပျောက်	-9.06204
ကိုမျှ	-9.06256
ရှိသောသူ	-9.06329
ခန်း	-9.06382
▁အပြစ်တင်	-9.06433
သုံးယောက်	-9.06437
▁အတိုင်း၊	-9.06478
ဘို့ရာ	-9.06481
လည်ပင်း	-9.06511
▁ယောနသန်	-9.06515
▁ယနေ့တိုင်အောင်	-9.06689
▁ဟ	-9.06742
▁ရွှင်လန်း	-9.06798
ပြောဆို	-9.06832
ခြင်းအရာ	-9.06947
မုန်း	-9.0696
နှစ်ကောင်	-9.07024
လမ်းကို	-9.07035
အဘယ်သို့	-9.07109
သောစကားကို	-9.07377
ထောက်	-9.07387
ခိုး	-9.07459
သက်	-9.07542
ဝင်၍	-9.07681
တဘက်တချက်	-9.07715
▁သို့ပြုလျှင်	-9.07726
▁သိုးထိန်း	-9.07752
▁ယေရှုက	-9.07774
ခြင်းသို့ရောက်	-9.07779
အတွင်း	-9.07801
ကြဲ	-9.08002
▁?????????????	-9.08126
ဦးမည်။	-9.08194
▁အတွင်း	-9.08324
များပြား	-9.08344
▁ပယ်ရှား	-9.08477
▁အမှန်	-9.08538
ငွေ	-9.0867
နည်းတူ	-9.08688
ကူး	-9.0878
▁ယုဒအမျိုးသား	-9.08822
▁ထိုအရာ	-9.08885
ကြကုန်အံ့။	-9.08934
▁ဆင့်ဆိုရမည်မှာ၊	-9.08943
အိမ်ကို	-9.08947
▁လယ်	-9.09221
▁အသင်းတော်	-9.09246
▁ထာဝရဘုရားအဘို့	-9.09274
▁ဥ	-9.09285
ဗိုလ်ခြေ	-9.09308
လေ့	-9.09322
▁ရှေ	-9.09432
▁လူအမျိုးမျိုး	-9.09478
အိုး	-9.09481
▁ပြန်၍	-9.095
▁ဆင်ခြင်	-9.0953
တို့အဘို့	-9.09595
မှာထား	-9.09607
ထိုက်	-9.0966
လက်ကို	-9.09801
▁အရပ်ရပ်	-9.09814
▁မာန	-9.09859
၌လည်း	-9.09868
▁မရောက်	-9.09908
မုန့်	-9.09922
သူရဲ	-9.09938
▁စားပွဲ	-9.10086
▁သတိ	-9.10148
▁အခြားတပါးသော	-9.10171
▁နို့	-9.10179
တော်မမူပါနှင့်။	-9.10183
ည်း	-9.102
ကြသောအခါ၊	-9.10225
ဆုံးမ	-9.10231
ဖြစ်ကြ	-9.10279
မှစ၍၊	-9.10421
▁ဖြစ်သတည်း။	-9.10438
ါ	-9.1048
ပရောဖက်	-9.10551
▁ကိုယ်ကိုကိုယ်	-9.10601
▁မိုက်သောသူ	-9.10758
▁သိမြင်	-9.10771
နေ၏။	-9.10809
▁ထိုအ	-9.10906
ဝယ်	-9.10965
အမိ	-9.11045
နင်း	-9.11102
ခြင်းအကြောင်း	-9.11218
▁သားရဲ	-9.1124
သားတော်	-9.11271
▁ထို့ကြောင့်	-9.11424
▁ဧလိရှဲ	-9.11424
▁ရှ	-9.11448
▁ကြီးမြတ်	-9.11467
▁သူ၏သား	-9.11493
▁ထားဘေး	-9.11497
စွန့်	-9.11503
ဆရာ	-9.11546
▁ငြိမ်သက်ခြင်း	-9.11563
▁အိပ်မက်	-9.11637
ဘိ	-9.11732
▁လျှောက်ဆို	-9.11748
▁ဗာလ	-9.11753
ထို	-9.11853
ကြိုးစား	-9.11895
▁တိုင်ပင်	-9.11918
▁သူအပေါင်းတို့	-9.11977
▁အမျက်ထွက်	-9.11981
ထိ	-9.12003
မတ်	-9.12054
▁ထိုနေ့၌	-9.12063
▁လင်	-9.1209
▁ပစ်	-9.1212
▁သိမ်း	-9.12162
▁ကုလားကာ	-9.12211
နှင်ထုတ်	-9.12225
▁လမ်း၌	-9.12237
နှစ်သက်	-9.12255
▁အမျိုးအနွယ်	-9.12321
ရိုက်	-9.12376
▁ဖြစ်စေ	-9.12409
မြည်	-9.12447
▁ရှင်ဘုရင်၏	-9.12503
▁ပေါင်း	-9.12518
ရိတ်	-9.12548
မြင်လျှင်၊	-9.12634
သတို့သမီး	-9.12637
သမား	-9.1264
▁ကောက်	-9.12661
▁ရှုတ်ချ	-9.12661
လှုပ်	-9.12755
ေါ	-9.12788
▁လူတို့ကို	-9.12901
ကြပါ	-9.12915
အလင်း	-9.12963
ပလ္လင်	-9.13006
▁ဆင်း	-9.13048
မျိုးစေ့	-9.13071
ဘက်သို့	-9.13223
▁ပို့ဆောင်	-9.13283
နေ၍	-9.133
▁မတွေ့	-9.13311
ခွဲ	-9.13426
▁စိုက်	-9.13496
▁လျှောက်လေ၏။	-9.1356
▁ချိုး	-9.13697
မည်လော။	-9.13734
▁အနံ	-9.13804
သူငယ်	-9.13806
▁ထိုပြည်	-9.13884
▁ညည်းတွား	-9.13943
ရှိသည်အတိုင်း	-9.14058
▁ချိုင့်	-9.14195
▁မထီမဲ့မြင်ပြု	-9.14199
ဖြစ်ပါ၏။	-9.14238
ပါသော	-9.14248
▁စုံလင်	-9.14325
▁မောဘပြည်	-9.14342
လာ၏။	-9.14497
▁ချဉ်းကပ်	-9.14515
▁ပုံ	-9.14625
▁ဧသော	-9.14786
ရွှေ	-9.14866
▁စွန့်	-9.14919
ကိုယ်တော်	-9.14922
ဇေ	-9.14923
မရှိရ။	-9.14984
ရှိတော်မူ	-9.15012
လျက်နေ၏။	-9.15062
▁သတိပြု	-9.15092
▁ခွန်အား	-9.15094
ထူး	-9.15213
▁ထိုမင်း	-9.15237
အရှိန်	-9.15279
မိုး	-9.1529
▁သမုတ်	-9.15314
နိုင်ငံတော်	-9.15328
ခန္	-9.15344
က္က	-9.15397
မျက်နှာကို	-9.15425
▁ကျိန်ဆဲ	-9.15468
ဖြစ်စေခြင်းငှါ	-9.15493
ထွန်း	-9.15523
▁ရှောင်	-9.15551
▁ရိုက်	-9.15578
▁သစ်ပင်	-9.15679
▁ပြောဆို၏။	-9.15803
ဖန်	-9.15853
▁ဂတိတော်	-9.15867
▁စီရင်တော်မူ	-9.15909
▁ငါသည်လည်း	-9.16023
သမျှကို	-9.16024
▁နိုင်ငံ	-9.16064
▁ချည်နှောင်	-9.16092
▁ပြင်းစွာ	-9.16131
▁အိပ်ပျော်	-9.16173
▁အနှစ်	-9.16205
▁အမွေ	-9.16244
တစုံတခု	-9.16294
ထိုက်သော	-9.16307
▁မှန်	-9.16434
သောစိတ်	-9.16455
နှင်	-9.16462
ရေကို	-9.16484
နည်းဟု	-9.16505
▁ဖြောင့်မတ်သော	-9.16582
▁ထိုအမှု	-9.16714
မျှော်	-9.16783
▁ဤအရပ်၌	-9.16835
▁????????	-9.169
သောအမှုကို	-9.17066
▁သူကို	-9.17094
▁မိန့်	-9.17203
▁များပြား	-9.17379
▁မှာလိုက်	-9.1738
▁အပေါင်းတို့သည်	-9.17429
ပူ	-9.17441
ချင်သော	-9.1745
▁ဘုရားကို	-9.17559
အကျင့်ကို	-9.17602
▁အမှုတော်	-9.17622
ကြသလော။	-9.17641
ဆင်း	-9.17779
ခြင်းကိုခံရ	-9.17804
▁သင်္ချိုင်း	-9.17866
နု	-9.17899
▁ဤမြို့	-9.17964
▁လူသား	-9.18024
မည်လောဟု	-9.18251
▁အမြဲ	-9.1834
▁ကယ်လွှတ်	-9.18378
ဟန်	-9.18388
▁မောရှေနှင့်	-9.1842
▁အမွေခံ	-9.18427
▁ပွဲ	-9.18529
ဘုရားသခင်၏	-9.18534
ရွေးကောက်	-9.1862
သောအရာတို့ကို	-9.1873
သည်ကို၎င်း၊	-9.18764
ဖျား	-9.18792
▁မြည်တမ်း	-9.1884
▁အာန	-9.18929
လှန်	-9.19011
ဆေး	-9.19046
▁ရပ်	-9.1905
▁အမှီပြု၍	-9.19051
သို့၎င်း၊	-9.19083
▁ဝန်	-9.19089
ထံမှာ	-9.1914
ချီ	-9.19142
▁ကြံစည်	-9.19247
▁ရှေ့ဦးစွာ	-9.19266
▁သမုဒ္ဒရာ	-9.19266
သည်ဖြစ်၍	-9.19279
▁အသေသတ်ခြင်းကို	-9.19285
လတံ့။	-9.19373
ချေ	-9.19373
▁တစုံတခု	-9.19376
▁ယူသွား	-9.19417
သောအားဖြင့်	-9.19441
▁ရွေးနှုတ်	-9.19527
နှ	-9.19646
▁ဆိုလေ၏။	-9.1967
သို့သွား	-9.19721
အမိန့်တော်	-9.19779
▁ပြုတော်မူ	-9.19906
▁စိုးရိမ်	-9.20043
▁မဟာ	-9.20098
အသွေး	-9.2014
▁သည်းခံ	-9.20144
ပေးသော	-9.20152
▁ငြိမ်ဝပ်စွာ	-9.20155
▁ရေကို	-9.20177
▁ငါ့ရှေ့မှာ	-9.20364
▁ကျွန်တော်တို့	-9.20409
တော်နှင့်	-9.20446
ဤ	-9.20584
▁ရှင်းရှင်း	-9.20636
▁ထိုအရပ်	-9.20681
▁ဆုံးရှုံး	-9.20697
ဖိ	-9.20735
မြေကြီး	-9.20759
▁ဆေး	-9.20801
ဝမ်း	-9.20833
နာမ	-9.20851
▁ရှောက်	-9.21013
▁လိုက်၍	-9.21023
လောင်	-9.21024
ရှိသည်ကို	-9.21075
▁အဝတ်ကို	-9.21177
▁ယုဒလူတို့	-9.21194
▁အပြစ်ကို	-9.21258
ပေါင်းကား	-9.21349
▁ခရစ်တော်သည်	-9.214
ပွဲ	-9.21457
▁လေဝိ	-9.21613
▁နတ်ဆိုး	-9.21635
ခါး	-9.21649
▁အသေခံ	-9.21677
သောနေ့၌	-9.21959
▁သုတ်သင်ပယ်ရှင်း	-9.21996
▁ထိုသူတို့ကို	-9.22036
ဒုစရိုက်	-9.22052
ဗာ	-9.22105
လျက်ရှိကြ၏။	-9.22109
ထိုး	-9.22124
နှစ်ရာ	-9.22175
▁ထွက်၍	-9.22221
ထောင့်	-9.22262
သိမ်း	-9.22304
အရေအတွက်	-9.22353
▁ခုနစ်	-9.22426
ပိုက်	-9.2244
▁ဝင်စား	-9.22461
ယုဒ	-9.22611
▁သွန်း	-9.22654
▁တုန်လှုပ်	-9.22663
တပါးတည်း	-9.22807
▁အဗရှလုံ	-9.22815
▁မုတ်ဆိုးမ	-9.22815
▁ကိုင်	-9.22816
▁ဆင်းသက်သော	-9.22828
▁စားစရာ	-9.22959
လက်ထက်	-9.22983
ခြင်းအမှုကို	-9.23083
မြို့ကို	-9.23111
သွားလော့။	-9.23303
▁ရောက်သောအခါ၊	-9.2332
တဝက်	-9.23339
အပေါင်းအဘော်	-9.23433
▁အာဗြံ	-9.23434
▁ထိုအတူ	-9.23454
▁ဟေဇကိ	-9.23458
နှုတ်ကပတ်တော်သည်	-9.23473
ချီးမြှောက်	-9.23546
▁ကြွ	-9.23571
▁အရာကို	-9.23619
လောဟု	-9.23803
▁ဘုန်းကြီး	-9.23804
ကျပ်	-9.23811
လက်နက်	-9.23822
▁ကာ	-9.23865
▁မှူးမတ်	-9.23912
▁အမိန့်တော်ရှိ	-9.23925
▁ငါပေး	-9.23999
▁ခိုလှုံ	-9.24101
▁ဘုန်းတော်	-9.24148
ကလေး	-9.24158
ခြင်းရှိ၏။	-9.24161
▁မြင်ရ	-9.24162
အကြံ	-9.24264
ပျက်စီးခြင်းသို့	-9.24541
တော်မူသည်	-9.24559
ခေါ	-9.24597
▁ခြောက်	-9.2462
▁မည်ဟု	-9.24653
▁ငါပြု	-9.24683
▁ထိုအမှုကို	-9.24696
▁ထိုသူ၏	-9.24774
▁ငြိမ်ဝပ်	-9.24806
ပတ်လည်	-9.24835
ပျက်စီး	-9.24843
▁ဤလောက	-9.24862
▁မီးလောင်	-9.24902
ပြား	-9.24943
▁မေးလျှောက်	-9.24972
▁အိုဘုရားသခင်	-9.25002
စွန်း	-9.25025
နန်းစံ	-9.25033
အလုံးအရင်း	-9.25043
▁လွန်ကျူး	-9.25048
▁သက်ရောက်	-9.25119
ပေး၏။	-9.25136
▁သေတ္တာတော်	-9.25255
သည်ဖြစ်စေ၊	-9.25334
ပန်း	-9.25346
မဆို	-9.25379
▁တန်ခိုးတော်	-9.25389
▁ဝ	-9.25408
▁လူတို့	-9.25436
▁အာသ	-9.25536
ထား၍	-9.25644
မသွား	-9.25681
▁ဣသရေလအမျိုး၌	-9.25729
▁ငါတို့၏	-9.25741
သောသူတို့အား	-9.25761
ဗိ	-9.25812
အသီး	-9.2591
အခွင့်နှင့်	-9.26178
▁စပျစ်ဥယျာဉ်	-9.26196
▁ဒဏ်ခတ်	-9.26219
▁လောင်	-9.26245
အင်တုံ	-9.26311
ခြုံ	-9.26337
စက်	-9.26381
▁ပြန်လျှောက်	-9.26398
ဘက်မှာ	-9.26406
▁ထိုသို့ပြု	-9.26439
▁အစိုးရ	-9.26464
စပျစ်သီး	-9.26472
ကျယ်	-9.26484
▁ဟူသော	-9.26533
လေးဆယ်	-9.26611
ကျန်	-9.26619
အဝင်	-9.26669
တို့ရှေ့မှာ	-9.26728
မှူး	-9.26807
▁ဥပုသ်နေ့	-9.26901
▁အားဖြင့်	-9.26942
▁ဒုစရိုက်အပြစ်	-9.26956
ဖြစ်သည်	-9.26983
ဒေါသ	-9.26985
▁အမှုအရာ	-9.26996
▁ကောင်းကြီး	-9.27014
▁စေ	-9.27072
▁ထွက်လာ	-9.27216
▁ဂုဏ်အသရေ	-9.27235
အချိန်၌	-9.27443
လယ်	-9.27451
▁တရားကို	-9.27453
▁ယေရုရှလင်	-9.27586
▁အမျိုးသားချင်း	-9.27588
တ္တိ	-9.27648
▁ကယ်	-9.27648
ပိုင်သော	-9.2775
ကြပါစေသော။	-9.2782
အစ်ကို	-9.27825
▁ဆောက်	-9.27874
▁မြွက်ဆို	-9.27888
▁အသေကောင်	-9.27894
▁ကြီးသော	-9.27951
အောက်မှာ	-9.28076
ဖလား	-9.28134
ပေးတော်မူ	-9.28261
အချို့တို့သည်	-9.28327
▁တမန်	-9.28404
ိညာဉ်တရား	-9.2853
▁ပြန်ပြော၏။	-9.28589
ကြသည်	-9.28615
▁အရပ်၌	-9.28617
▁ခေါ်၍၊	-9.28657
▁ပေးတော်မူ၏။	-9.28681
▁လွှမ်းမိုး	-9.28721
▁ထားနှင့်	-9.28726
နှစ်တွင်	-9.28757
ခြင်းကိုခံ	-9.28872
ကြွလာ	-9.28909
▁ဗိမာန်တော်၌	-9.28915
အားကြီး	-9.28946
အရိုး	-9.29033
▁ချီသွား	-9.29057
▁ပိတ်	-9.29112
▁သူတို့နှင့်	-9.29216
▁ဖါရောဘုရင်	-9.29274
▁အဆင်း	-9.29275
ထိပ်	-9.29293
ဇော	-9.29317
▁ပြည်သူပြည်သား	-9.2935
ပြေး၍	-9.29379
▁ရန်သူတို့	-9.29591
▁ချီ	-9.29626
▁ဂေ	-9.29644
ချိုး	-9.29666
ကြပါပြီ။	-9.29682
ယဇ်ပလ္လင်ပေါ်မှာ	-9.29692
ဥာဏ်	-9.29745
နိုင်သနည်း။	-9.29747
ယာကုပ်	-9.29752
ကယ်တင်	-9.29781
မထား	-9.29808
▁သီချင်း	-9.29823
သောအပြစ်	-9.29825
မျက်မှောက်၌	-9.29847
▁မြတ်	-9.2985
▁စေလွှတ်တော်မူ	-9.29859
ဆိတ်	-9.29871
▁ဆင်းရဲသောသူ	-9.29876
▁အစိုးရသော	-9.29886
▁ထိုမြို့၌	-9.29966
ရာ၌	-9.29969
ဟူ၍၎င်း	-9.29979
မလာ	-9.30019
▁ညဉ့်	-9.30051
▁ထိုနည်းတူ	-9.30145
▁အသွေးကို	-9.30192
▁၎င်း	-9.30205
▁သမ္မာတရား	-9.30267
▁ဖြစ်လိမ့်မည်။	-9.30445
သေးသော	-9.30452
ောင်း	-9.30454
▁ကြားရ	-9.30459
ပြောင်း	-9.30513
▁ယောရှုသည်	-9.30582
ဝတ်ကို	-9.30726
▁လွှတ်လိုက်	-9.30752
▁မိဒျန်	-9.30789
▁များ	-9.308
▁အမျက်	-9.30801
▁ခါး	-9.30803
▁တွင်	-9.30846
▁ဒဏ်	-9.30874
▁မိန်းမသည်	-9.30888
သန္	-9.30937
▁အလျှင်းမ	-9.31045
မင်းသည်	-9.31047
▁ရှု	-9.31065
ကိုခေါ်၍၊	-9.31068
▁မော	-9.31081
ရွေ့	-9.31196
▁စေလွှတ်၍၊	-9.31241
ဖြေ	-9.31246
▁ပေးလိုက်	-9.31288
▁အားကြီးသော	-9.31356
▁နေကြ	-9.31476
တောင်းပန်	-9.31514
စိုက်	-9.31604
▁အသက်ကို	-9.3161
ပြု၏။	-9.31649
သန့်ရှင်း	-9.31693
▁ဖြေ	-9.31771
ဣသရေလ	-9.31804
ပြန်လျှင်၊	-9.31817
▁သတ္တဝါ	-9.3185
စည်းစိမ်	-9.31859
ကြသည်ကို	-9.31881
တော်မူသည်ဟု	-9.31893
▁နံ့သာပေါင်းကို	-9.31915
▁တပ်ချ	-9.32069
သွား၏။	-9.32095
▁ဆင်းရဲသား	-9.32119
▁သက်သေ	-9.32223
▁ထိုလူ	-9.32225
ပါစေ	-9.3223
၌၎င်း	-9.32233
တင့်တယ်	-9.32328
အကြွင်းမဲ့	-9.32328
▁ထိုမျှမက	-9.32328
နှင့်စပ်ဆိုင်	-9.32331
ဝမ်းမြောက်	-9.32346
▁ပြင်းစွာသော	-9.3237
စွဲလမ်း	-9.32419
▁မသွား	-9.32474
▁ကင်း	-9.3257
ခုနစ်ဆယ်	-9.32583
ပိုင်း	-9.32605
▁ထိုမင်းသည်	-9.32627
ထမ်း	-9.32638
ဆင်	-9.32729
အခန်း	-9.32895
▁အာဟပ်	-9.32957
လျက်ပင်	-9.32959
▁လူတိုင်း	-9.32998
▁ယုံ	-9.3301
ကု	-9.33015
တမန်	-9.33057
ဟောင်း	-9.33124
▁ကိုးစား	-9.33127
ကိုယ်တိုင်	-9.33199
မန်	-9.33232
▁မြို့သား	-9.33252
▁အလျား	-9.33383
▁တွင်း	-9.33407
▁မီးရှို့ရာ	-9.33479
▁ကာလပတ်လုံး	-9.33482
▁သားဦး	-9.33511
▁လှည့်စား	-9.33576
▁ယာကုပ်အမျိုး	-9.33703
ဖြစ်လေ၏။	-9.33708
ရှင်း	-9.33768
ချိုင့်	-9.338
သားမြေး	-9.33815
များတို့	-9.33827
ဝံ့	-9.33891
▁သုံးရက်	-9.33999
▁ယေရှုကို	-9.34006
လက်ထက်၌	-9.34019
အဆွေအမျိုးအလိုက်	-9.34024
ျာ	-9.34066
အခ	-9.34222
ဖူး	-9.34264
ဗေလ	-9.34297
န္	-9.34369
အမွေ	-9.34383
သူ၏	-9.34405
▁အိမ်နီးချင်း	-9.34416
ချမ်းသာ	-9.34594
ရှုံး	-9.34594
လိုက်သော	-9.34601
ရှိလျှင်၊	-9.34626
သိတင်း	-9.34653
သွေးဆောင်	-9.34682
ခေါင်းပေါ်မှာ	-9.34708
သောစိတ်ရှိ	-9.34762
နည်း။	-9.34918
▁ဤအရပ်	-9.34974
▁အပင်	-9.3501
▁အလိုတော်	-9.35087
▁ဆန့်	-9.35093
ရှိသည်	-9.35166
▁ပျက်	-9.35392
▁ကူး	-9.35395
▁အမျိုးသားတို့	-9.35428
▁လက်နက်	-9.35431
ငြင်း	-9.35468
▁မုန့်ညက်	-9.35478
▁တတိယ	-9.35478
အကြံအစည်	-9.35478
▁အဘိမလက်	-9.35478
▁မြင်းစီးသူရဲ	-9.35481
ရှိသော်	-9.35525
▁ကျွေးမွေး	-9.35538
▁ဧဝံဂေလိတရားကို	-9.35563
▁ငါ၏လူ	-9.35669
ပါစေနှင့်။	-9.35678
ထွေး	-9.3571
▁ကျေးဇူးကို	-9.35726
မယူ	-9.35736
▁အဲဂုတ္တုလူတို့	-9.35781
▁နှုတ်ဆောင်	-9.35787
▁စစ်ကြော	-9.35801
ဆီသို့	-9.35812
▁လည်	-9.35914
▁နိမိတ်လက္ခဏာ	-9.36015
နှင့်၎င်း	-9.36051
▁ဝိညာဉ်တော်သည်	-9.36081
▁အပ်နှံ	-9.36108
▁ငါတို့၌	-9.36137
▁ဗာလမ်	-9.36156
ဆင်ခြင်	-9.36226
▁မနာရှေ	-9.36237
▁ရောက်ကြ၏။	-9.3624
အခါ	-9.36321
အသီးအသီး	-9.36325
ပြင်ဆင်	-9.36392
▁နေသော	-9.36411
ရင်	-9.36418
လုပ်ကြံ	-9.36458
ရထား	-9.36476
ငါ့ကို	-9.36503
သူ့	-9.36505
မရောက်မှီ	-9.36506
▁သခင်သည်	-9.36526
ခိုင်မာ	-9.36565
သေး၏။	-9.36672
ပေးတော်မူသော	-9.36818
ငှါး	-9.36869
အာရှုရိရှင်ဘုရင်	-9.36966
ရာ၊	-9.36975
နှုတ်ကပတ်	-9.36997
▁ကြွင်းသော	-9.37036
▁လောက	-9.37075
▁လူကို	-9.37099
ရသောအခွင့်ကို	-9.37124
အထဲ၌	-9.37145
စမ်း	-9.37247
▁လှေ	-9.37266
နှင့်တူ၏။	-9.37319
လိမ့်မည်နည်း။	-9.37327
ရှေ့တော်	-9.37357
လုလင်	-9.37374
အနား	-9.37374
သေး။	-9.37446
▁အစ်ကို	-9.37479
ထွက်သွား	-9.3749
▁မိမိလက်	-9.375
အများ	-9.37501
▁ငါမြင်	-9.37611
ချေး	-9.37639
ရှာ၍	-9.37647
ပြင်သို့	-9.37688
▁မဟုတ်	-9.37707
အမျိုးသားတို့	-9.37735
▁ဇိ	-9.37777
▁ကွပ်မျက်	-9.37829
မင်္ဂလာ	-9.37842
▁အသက်ကြီး	-9.37852
▁ရွာ	-9.37984
▁နေရာကျ	-9.3799
ပြန်၏။	-9.38005
▁ဖြောင့်	-9.38014
▁နားထောင်ကြလော့။	-9.38016
စစ်ကြော	-9.38056
မဖြစ်	-9.38062
▁ခေါ်တော်မူ	-9.38062
အော်ဟစ်	-9.38085
ဆုတောင်း	-9.3809
▁မိမိကျွန်	-9.38171
တန်း	-9.38199
▁ရှေး	-9.38244
ကြားလျှင်၊	-9.38286
အမှု၌	-9.38326
▁သစ်	-9.38406
▁ဘမ်းဆီး	-9.38416
ကျိပ်	-9.38475
တစု	-9.38502
▁သေခြင်း	-9.38503
▁အစရှိသော	-9.38567
▁ဤအမှုကို	-9.38588
သင်၏	-9.38612
ယဇ်ပလ္လင်	-9.38691
▁မြေကြီးကို	-9.38698
▁ဘုန်းအသရေ	-9.38704
သွေ့ခြောက်	-9.3873
ဥပမာ	-9.3873
▁ကုလားအုပ်	-9.3873
▁မဝင်	-9.38739
▁ညဉ့်အခါ	-9.3874
▁တပ်မှူး	-9.38758
▁အကျိုးကို	-9.38846
▁နောင်တရ	-9.38859
▁တည်း။	-9.39168
▁ငါနှင့်အတူ	-9.39199
▁အာရုန်နှင့်	-9.39219
▁ငါသိ၏။	-9.39228
သားအပေါင်းတို့	-9.39284
အောက်မေ့	-9.39376
▁ပူဇော်ရမည်။	-9.39404
▁ဖန်ဆင်းတော်မူ	-9.39426
▁ယခုမူကား	-9.39457
အထဲက	-9.39475
ဆိတ်ညံ	-9.39583
▁ပြုရမည်။	-9.3968
▁မေ့လျော့	-9.39682
ခန့်ထား	-9.39719
လျှင်၎င်း၊	-9.39754
▁ကြွယ်ဝ	-9.39767
လော့	-9.3983
ရာတွင်	-9.3997
၌ပါသော	-9.40105
▁တံပိုးမှုတ်	-9.4012
သောစကား	-9.40131
▁ဝှက်ထား	-9.40162
▁အလုံးအရင်း	-9.40185
▁ထိုစကားကို	-9.40214
▁သာ	-9.4024
▁လူသားသည်	-9.40261
ရှိရမည်။	-9.40353
အင်္ကျီ	-9.40396
▁ပိတ်ချော	-9.40396
▁မော်ဒကဲ	-9.40396
အပိုင်းအခြား	-9.40397
▁တဆယ်	-9.40402
အရွယ်	-9.40415
စကားဟူမူကား၊	-9.40496
▁အဘယ်မှာ	-9.40511
တကာတို့	-9.4052
မြွက်ဆို	-9.40663
ငိုကြွေးမြည်တမ်း	-9.4068
ကြည့်၍	-9.40725
▁အရိုး	-9.40726
▁ခံရမည်။	-9.40732
တော်မူသောအခါ၊	-9.4074
▁သို့ဖြစ်လျှင်	-9.40751
▁မပြော	-9.40914
ကြပြီဟု	-9.40962
ွန်း	-9.40997
ထု	-9.41144
▁အာမောရိ	-9.41152
▁ဒါဝိဒ်ကို	-9.41156
ရာသို့	-9.41288
ရောက်သောအခါ၊	-9.41344
▁မြို့ကို	-9.41392
▁ငါ့ကျွန်	-9.41429
အိပ်	-9.41484
ထံမှ	-9.41541
သည်ထက်	-9.41573
▁ပေါက်	-9.41619
ကဲ့ရဲ့	-9.41623
မြော်လင့်	-9.41625
သစ္စာ	-9.41627
ပေါလု	-9.41643
ဌာန	-9.4166
▁သေတ္တာ	-9.41782
အလိုငှါ	-9.41803
▁ငါတို့အား	-9.41837
▁အောက်	-9.41868
▁တိတ်ဆိတ်စွာ	-9.41927
စကားသည်	-9.42036
ဝါ	-9.42042
▁အံ့ဩ	-9.42122
▁နေ့တိုင်း	-9.42147
▁ဝစွာ	-9.42181
▁ခံယူ	-9.42241
▁??????????????	-9.4231
▁နားထောင်၍	-9.42337
▁ထမ်းဘိုး	-9.4236
သင်တို့သည်	-9.42457
▁ဗိုလ်ခြေ	-9.42573
▁မြင့်သောအရပ်	-9.42654
▁အလုံးစုံတို့ကို	-9.42657
▁သတည်း။	-9.42658
▁ကြည့်ရှုလော့။	-9.4266
သောသူဖြစ်၏။	-9.42698
▁အစာ	-9.42746
မလိုက်	-9.42778
ထာဝရ	-9.42815
▁အာရ	-9.42838
မြေကို	-9.42852
▁အိုး	-9.42861
ဝပ်	-9.4287
သောအားဖြင့်၊	-9.42977
▁ယခုတွင်	-9.43012
▁အကျွန်ုပ်တို့၏	-9.43168
▁ကောင်းကင်ဘုံ၌	-9.43173
▁စကားတော်ကို	-9.43348
ထည့်	-9.43417
တော်မူပြီဟု	-9.43436
▁ငါစေလွှတ်	-9.43458
မည်သည်ကား	-9.43515
ရပ်နေ	-9.4355
ဆောင်ရွက်	-9.43578
နေ့တွင်	-9.43609
▁ပြုကြ၏။	-9.43609
▁ပြည့်	-9.43623
လှည့်	-9.43672
အတောင်	-9.43681
မိုက်	-9.43683
▁ရိုသေ	-9.43688
လက္ခဏာ	-9.43812
▁တကွ	-9.43816
▁အလို	-9.43818
▁ဂိ	-9.4382
▁ယေရု	-9.4385
ပါလော့။	-9.43864
မတတ်နိုင်	-9.43908
ကြပါ။	-9.43926
ပြန်ပြော	-9.43978
ကြသည်ဟု	-9.44016
▁အဘို့	-9.442
▁ဖြစ်တော်မူ၏။	-9.4421
လှည့်၍	-9.44296
အကြောင်းကြောင့်	-9.44523
လမ်းဖြင့်	-9.44553
ရှိပါ၏။	-9.44556
▁ယေဟု	-9.44586
▁ဝယ်	-9.44658
မြင်သော	-9.44699
????????	-9.44708
▁ယာကုပ်သည်	-9.4473
▁ရိတ်	-9.44736
▁တမန်တော်	-9.44814
▁အရှက်ကွဲ	-9.44906
ရိမ်	-9.44912
▁သခင်ဘုရား၏	-9.44943
▁မိမိသား	-9.44961
စေတော်မူပါ။	-9.45053
▁ဧလာဇာ	-9.45093
ဖြစ်တော်မူ	-9.45099
▁တောင်ပေါ်မှာ	-9.45143
▁ဖလား	-9.45147
▁အခါ	-9.45163
အစာ	-9.45196
▁စပျစ်ရည်ကို	-9.45264
မပေး	-9.45318
▁မစား	-9.4534
▁ဂေါ	-9.45367
ျ	-9.45382
ငြိမ်	-9.45384
ယုံကြည်ခြင်း	-9.45457
ပတ်ဝန်းကျင်	-9.4557
ပိုင်းခြား	-9.4557
▁အမဲသား	-9.4557
ဟာယဖွဲ့	-9.45585
ဟာယယဇ်	-9.45586
ဆိုလျှင်၊	-9.45601
▁ရဲတိုက်	-9.45649
▁အသက်ရှင်တော်မူ	-9.45722
▁သွန်းလောင်း	-9.4577
▁ကုန်း	-9.45825
▁ဒံယေလ	-9.45848
▁သူသည်လည်း	-9.45933
▁သိုထား	-9.45954
▁မြို့ရွာ	-9.46103
ပါလျက်	-9.46113
▁ယုဒလူတို့သည်	-9.46118
▁ကုန်	-9.46138
▁လူများတို့အား	-9.4615
▁မတည်	-9.46199
မဝင်	-9.46242
စေခြင်းငှာ	-9.46252
▁ကောင်းကင်ဘုံ	-9.46262
▁ပူဇော်သက္ကာကို	-9.46347
▁မိန်းမောတွေဝေ	-9.46362
သောသဘော	-9.46469
သားဖြစ်သော	-9.46497
▁ဧဒုံ	-9.46537
▁ဆရာ	-9.46576
လွ	-9.466
ဖတ်	-9.46604
▁စိတ်ရှိ	-9.46614
မပြတ်	-9.46644
▁ဘေးဥပဒ်	-9.4668
▁အားကြီး	-9.46692
▁တမန်တော်တို့	-9.46725
ပြုသောအမှု	-9.4675
▁တည်းခို	-9.46861
သားတို့တွင်	-9.46904
အလောင်း	-9.46963
▁နေ၏။	-9.47098
▁ကျမ်းစာ	-9.47124
တော၌	-9.47129
ကွဲပြား	-9.47163
▁မလိုက်	-9.47193
▁?????	-9.47214
တကောင်၊	-9.47262
▁လက်ဝါးကပ်တိုင်	-9.47318
တိုးပွါး	-9.47356
▁မိက္ခာ	-9.47356
▁ကျင်လည်	-9.47357
▁လမ်းခရီး	-9.47376
▁ထိုပြည်၌	-9.47394
ညစ်ညူး	-9.4741
သည်ရှိသော်၊	-9.47434
ကိုယ်ကို	-9.4747
▁တတ်နိုင်	-9.4748
▁အသက်ကြီးသူ	-9.47491
▁ယောဘ	-9.47492
▁နေရာချ	-9.47538
လှဲ	-9.47583
အရပ်ရပ်တို့	-9.47601
အမြစ်	-9.47618
ခြောက်ဆယ်	-9.47705
▁သစ်သား	-9.47741
▁ထောက်၍	-9.4778
▁ထားဖြင့်	-9.47833
ကျိန်	-9.47843
တော်မူသည်အတိုင်း	-9.47947
ရှင်ဘုရင်သည်	-9.47951
ရောင်း	-9.47991
များစွာ	-9.48034
ခွ	-9.48061
လုပ်၍	-9.48118
ဝိညာဉ်တော်	-9.48129
ရကြလိမ့်မည်ဟု	-9.48143
▁ဧဒုံပြည်	-9.48175
ဟူ	-9.48206
▁လူများတို့	-9.48298
ကျွမ်း	-9.48309
အလိုသို့	-9.48339
▁ယူခဲ့	-9.48341
ယုံကြည်	-9.48467
အသားကို	-9.48575
▁လှည့်	-9.48596
နှစ်ခု	-9.4864
▁ပူဇော်သော	-9.48646
ထား၏။	-9.48654
ကြော	-9.48672
▁ကျန်ကြွင်း	-9.48713
▁ကြွလာ	-9.48725
ခံထိုက်	-9.48769
ရွှင်လန်း	-9.4909
ဆောက်	-9.49093
နှိုးဆော်	-9.491
ကေ	-9.4913
ပို့	-9.49133
▁အသီးသီး	-9.49146
▁ချို	-9.49155
နှမြော	-9.49172
▁ပိလတ်မင်း	-9.49174
သရဖူ	-9.49174
သောနောက်၊	-9.49208
▁မတရားသဖြင့်	-9.49215
▁ဗက်	-9.49216
▁မေးလျှင်၊	-9.49235
စိတ်ကို	-9.49236
▁ထပ်၍	-9.49257
ပေါ	-9.49285
▁သခင်၏	-9.49298
▁ငါ့ခမည်းတော်	-9.49308
▁ရောက်လိမ့်မည်။	-9.49329
ရောက်လာ	-9.49336
ပြုပြင်	-9.49356
▁ပလ္လင်	-9.49376
နှင့်သူ၏	-9.49389
▁စိတ်ပျက်	-9.49587
▁တန်ခိုးကြီး	-9.49639
▁ယောရှဖတ်	-9.49687
▁???????	-9.49689
အိပ်ရာ	-9.49787
ဲ၊	-9.49884
▁အရေ	-9.49896
▁အမှုတို့ကို	-9.4991
▁ပဌနာပြု	-9.49926
▁ပြည်တော်	-9.50141
မျက်မှောက်	-9.50319
ရှေ့သို့	-9.5033
ဖန်ဆင်း	-9.50396
တော်မူကြောင်းကို	-9.50433
▁ခံရလိမ့်မည်။	-9.50469
မြင်း	-9.50499
သားကား၊	-9.50525
ရမည်နည်း။	-9.50545
▁ဖြိုဖျက်	-9.50548
ခြ	-9.50562
▁စိုးစံ	-9.50572
ယဇ်ပုရောဟိတ်မင်း	-9.50664
▁တံပိုး	-9.50766
မှီတိုင်အောင်၊	-9.50783
▁လှည့်လည်	-9.50793
ဖြစ်၏ဟု	-9.50841
▁ခါနာန်ပြည်	-9.50872
နိုင်ကြ။	-9.50947
▁ရဲရင့်	-9.50969
မဲ့	-9.51024
ဖြန်း	-9.51026
ချိုးဖဲ့	-9.51026
ယောယဒ	-9.51027
▁ငြင်းပယ်	-9.51027
▁အပြည်ပြည်	-9.51049
ကြံစည်	-9.51052
ယဇ်ပုရောဟိတ်	-9.51062
နိုင်ရာ။	-9.51093
▁နေဗုခဒ်နေဇာ	-9.51098
▁ကွဲပြား	-9.51124
▁ပြည်တန်ဆာ	-9.51139
▁ဧည့်သည်	-9.5114
▁ထိုမှတပါး	-9.51157
ခြင်းအလိုငှါ	-9.5119
ဖါ	-9.51196
လဲ၍	-9.51241
ကြ၍၊	-9.51244
ဟာယ	-9.51257
▁ကိုက်စား	-9.51315
စောင်	-9.51356
အဘယ်သူ	-9.51371
ပြင်မှာ	-9.51387
သူတို့သည်	-9.51397
ကြွင်း	-9.51437
မြို့ရွာ	-9.51449
▁ဖာရောဘုရင်	-9.51575
ကွဲ	-9.51608
▁အဘ၏	-9.51617
▁တစုံတယောက်	-9.51624
▁မိုက်	-9.51631
▁မှန်သော	-9.51708
▁စက်ဆုပ်ရွံရှာ	-9.51864
▁ဇေ	-9.51938
▁ရန်သူတို့ကို	-9.51942
မြွက်	-9.51988
▁ပြုကြ	-9.52064
ရမည်လော။	-9.5207
▁အသက်ကြီးသူတို့	-9.52092
▁မတရားသောသူ	-9.52312
▁မြင့်သော	-9.52332
▁ငွေကို	-9.52428
အလွန်	-9.52522
▁ခေါ်၍	-9.52542
အစဉ်အဆက်	-9.526
ွား	-9.5271
▁များစွာ	-9.52712
အခြား	-9.5273
▁ပေါလုသည်	-9.5274
ဘော်ပြ	-9.52786
တသောင်း	-9.52818
မစား	-9.52845
တော်အားဖြင့်	-9.52871
ရွံရှာ	-9.52874
▁ကျက်စား	-9.52874
▁ဗျာဒိတ်	-9.52886
▁ပေါ်ထွန်း	-9.52887
▁အမြင့်ဆုံးသော	-9.52913
▁ခဏ	-9.52972
လ္လ	-9.52998
မ္မလူ	-9.53028
သောသူအပေါင်းတို့	-9.53052
ဦးချို	-9.53085
ကြောင်းကို၎င်း၊	-9.53113
နွယ်	-9.53145
▁လေဝိသားတို့သည်	-9.53172
▁မီးဖြင့်	-9.53232
▁သင်၏သား	-9.5324
များကိုလည်း	-9.5329
ပါလော့ဟု	-9.53356
▁ရွှေငွေ	-9.5336
▁ယောသပ်သည်	-9.53391
▁နှောင့်ရှက်	-9.53407
တကားဟု	-9.53485
▁ယဇ်ပလ္လင်ကို	-9.53492
▁ငါပေးသော	-9.53529
▁ငါ၏နာမ	-9.53579
▁ရှင်	-9.53592
▁တယောက်မျှ	-9.53607
▁ဂတိ	-9.53686
▁နက်ဖြန်နေ့၌	-9.53702
▁ပြုသော	-9.53788
▁ယေရှုခရစ်၏	-9.53814
သောသူအား	-9.53869
ရလိမ့်မည်ဟု	-9.53924
သောသူနှင့်	-9.53928
အသွေးကို	-9.5393
တပါး၊	-9.53954
▁ဗိမာန်	-9.53966
ကန်	-9.54062
▁ခေါ်ဝေါ်	-9.54122
▁မမြင်	-9.54178
ခြင်းသည်	-9.54222
စုဝေး	-9.54223
ခုံ	-9.5436
▁ပြောင်းလဲ	-9.54454
ဘုရားသခင်သည်	-9.54586
အနီးသို့	-9.54595
▁အခွင့်ရှိ	-9.54604
▁အခန်း	-9.54609
▁ရေတွက်	-9.54732
အရပ်တို့၌	-9.54767
ပွါး	-9.54836
▁သစ္စာဂတိ	-9.54836
ကျော်စော	-9.54836
▁တရားသူကြီး	-9.54836
▁စပ်ဆိုင်	-9.54847
▁နောဧ	-9.54849
▁ရန်ဘက်ပြု	-9.54856
▁ငါမှာထား	-9.5487
▁ထင်မှတ်	-9.54877
▁ဆုတ်	-9.54965
▁ဆွဲ	-9.55005
▁ဟာမ	-9.55009
ဖောက်ပြန်	-9.55051
နှိမ့်ချ	-9.55057
ဒု	-9.55103
မီးရှို့	-9.55123
စဉ်အခါ၊	-9.55135
တန်တိုင်း	-9.55154
ငွေကို	-9.55166
▁မကြား	-9.55315
ပေးလိုက်	-9.55354
▁အခွင့်ပေး	-9.55434
▁ချမ်းသာပေး	-9.55478
▁ပျော်မွေ့	-9.5549
သမီးတို့	-9.55616
▁ဆက်ဆံ	-9.55617
▁အဘယ်သို့ပြု	-9.55682
တ်မြို့	-9.55705
▁အာဏာ	-9.55711
▁လက်ခံ	-9.55735
▁စစ်ချီ	-9.55846
▁ခိုင်ခံ့	-9.55908
ပြန်လာ	-9.55946
▁???????????????	-9.55968
▁လူစု	-9.56028
▁အနာရောဂါ	-9.56058
▁ထိုဘုရား	-9.56072
န္န	-9.5608
▁ဆ	-9.56114
▁တာ	-9.5614
ငါ၏	-9.56254
ဖြောင့်မတ်	-9.56396
ပါလိမ့်မည်။	-9.56434
တခါ	-9.56448
▁အမွေခံရ	-9.56483
မုန့်ကို	-9.56539
မလုပ်	-9.56549
▁အနောက်	-9.56644
▁ငါအပ်	-9.56656
▁အဦး	-9.56657
▁ကြွင်း	-9.56731
အဘယ်	-9.5676
အမျိုးသားချင်း	-9.56768
ဖုံးလွှမ်း	-9.56796
ကြကုန်အံ့ဟု	-9.56796
ရောနှော	-9.56796
▁စားခန်းချကြ၏။	-9.56796
▁ရည်မှတ်၍	-9.56796
▁အနိုင်အထက်	-9.56797
ထရံ	-9.56807
တက်၍	-9.56811
မျိုးကို	-9.56836
▁အိုဣသရေလအမျိုး	-9.5685
▁အရာတို့ကို	-9.56871
▁ဆိုင်	-9.56891
သုံးရာ	-9.56909
▁ဖြောင့်မတ်စွာ	-9.56935
▁လျှောက်ကြ၏။	-9.56938
▁ငါကြား	-9.57106
သွားရာလမ်း	-9.57108
မသေ	-9.5716
ကျန်ကြွင်း	-9.57175
အရိပ်	-9.57292
▁ကျမ်းစာလာ	-9.57297
▁သားကို	-9.57323
စပ်	-9.57385
စေသတည်းဟု	-9.57464
▁ပေါင်းဘော်	-9.57468
လက်ဖြင့်	-9.57523
ချက်တို့ကို	-9.57568
▁ဣသရေလလူတို့သည်	-9.57591
▁ဟူမူကား၊	-9.57591
မေးလျှင်၊	-9.57601
▁လျှောက်လျှင်၊	-9.57618
▁ဆိုလို	-9.57625
ခဲ့ပြီ။	-9.57646
▁ဝမ်းမြောက်ခြင်း	-9.57651
စေခြင်းငှာ၊	-9.57771
▁သွေးဆောင်	-9.5784
ဆူ	-9.57945
မည့်	-9.57969
ရာမှ	-9.58026
▁စီရင်ထုံးဖွဲ့	-9.58069
▁တိုင်း	-9.58073
ဒ္ဒ	-9.58078
ိညာဉ်ကို	-9.5811
သွေး	-9.58124
▁သင်တို့သိ	-9.58126
ဆိုသည်အတိုင်း၊	-9.58148
အမ္မုန်အမျိုးသား	-9.58248
▁ရှိသတည်း။	-9.58348
▁ထူးဆန်းသော	-9.58368
▁ဝင်၍	-9.58414
▁နောက်မှ	-9.58464
▁ဘွား	-9.58605
▁ဣသရေလလူတို့	-9.58634
လက်ရုံး	-9.58652
▁မြက်ပင်	-9.58669
▁ရှက်	-9.58683
▁ခင်ပွန်း	-9.58788
▁ဆူးပင်	-9.58796
▁တကျွန်းတနိုင်ငံ	-9.58796
▁စင်စစ်	-9.58799
▁ရှိမုန်	-9.588
▁တိုင်းနိုင်ငံ	-9.58827
သားတို့အား	-9.58852
▁ရွှေစင်	-9.58878
ဗ္ဗ	-9.58945
▁ဖာရိရှဲတို့	-9.58978
▁နားမလည်	-9.59046
▁မူပါ။	-9.59074
ရှိလျှင်	-9.59075
မှတပါး၊	-9.59145
▁အကျွန်ုပ်၌	-9.59154
▁မိမိအဝတ်ကို	-9.59178
စိုးစံ	-9.59228
▁ဆိုးသော	-9.59257
ရှောလမုန်	-9.59315
နေကြ၏။	-9.59346
တင်၍	-9.59363
▁လာကြ	-9.59384
ဝန်ခံ	-9.59519
ဆန့်	-9.59523
▁အရှင်ဘုရား	-9.59559
မြို့မှာ	-9.59573
မထွက်	-9.59612
ရသောအခွင့်	-9.59635
▁အလိုတော်ရှိ	-9.59642
ရှိသနည်း။	-9.59645
▁ငါတို့ဘုရားသခင်	-9.59656
ကျော်	-9.59687
▁လက်ဝဲ	-9.59701
အဆင်း	-9.59721
▁မင်းသား	-9.60011
ဂဒ်	-9.60031
ကိုင်လျက်	-9.60092
▁မြို့တံခါး	-9.60102
▁အစွမ်းသတ္တိ	-9.60325
▁အပေါင်းတို့ကို	-9.60368
▁အာရှုရိ	-9.60383
သခင်ယေရှုခရစ်	-9.60387
▁အမျက်ထွက်၍	-9.60413
စာရေး	-9.60427
▁ပေးတော်မူသော	-9.60555
အဆွေ	-9.60629
▁ယူ၍၊	-9.6063
လေးရာ	-9.6065
အပြစ်ဖြေခြင်းကို	-9.60679
▁သီး	-9.60695
▁တော်မူ	-9.60714
ဟာန	-9.60721
ပေါင်	-9.60737
▁ဆင်းရဲခြင်း	-9.60823
▁ဖါရောမင်း	-9.60837
▁ရောဗောင်	-9.60837
▁အနတ္တ	-9.60838
နှုတ်ခမ်း	-9.60839
▁တယောက်ကိုတယောက်	-9.6084
▁ဦးခေါင်း	-9.60842
ငြင်းခုံ	-9.60847
▁ခုနစ်ရက်	-9.60864
▁တရားစရပ်	-9.60879
▁ကြယ်	-9.60888
▁သိုးနွား	-9.60899
▁အရာ၌	-9.60905
▁နောက်ဆုံး	-9.60924
▁ကယ်တင်ခြင်း	-9.60952
ရောက်စေ	-9.60968
▁စတုတ္ထ	-9.61107
စေသဖြင့်၊	-9.61139
ပို	-9.61143
▁စကားတော်	-9.61162
▁မှည့်	-9.61229
▁ဣသရေလပြည်	-9.6125
▁ပလ္လင်တော်	-9.61279
▁ထည့်	-9.61312
ပါမည်	-9.61371
ကူ	-9.6143
သွန်သင်	-9.61483
မေးမြန်း	-9.61486
▁ကိုယ်တော်က	-9.61494
ကြောက်ရွံ့	-9.61495
မောရှေ	-9.61515
▁နာမ	-9.61537
ကာလပတ်လုံး	-9.61547
▁ခြင်းငှါ	-9.61567
▁အာရုန်၏	-9.61611
သဘောကို	-9.61719
ထာဝရဘုရား၏	-9.61737
▁ရှမာရိ	-9.61761
▁အပ်ပေး	-9.61774
▁မြဲမြံ	-9.6178
▁ပေတရုသည်	-9.61784
▁သွား၍၊	-9.61806
မင်း၏	-9.61843
ကျမ်းစာ	-9.61874
▁ဖိလိတ္တိ	-9.61901
တဖန်	-9.62
▁ဇာခရိ	-9.62009
▁အသား	-9.62022
▁ဖြန့်	-9.62153
▁ယု	-9.62163
▁??????	-9.62241
▁ထိုမိန်းမသည်	-9.62299
▁စင်ကြယ်စေ	-9.62342
▁အစာကို	-9.62355
▁ကြွတော်မူ	-9.62434
သန့်ရှင်းသော	-9.62486
ပြောဆို၏။	-9.6251
▁ပြောဆိုကြ၏။	-9.6256
မြင်၍	-9.62684
▁ခေရုဗိမ်	-9.62781
အပေါင်းတို့အား	-9.62786
▁မြင်၍	-9.62913
နေ့၊	-9.6292
▁ရှလင်မြို့	-9.62922
တော်မူစေသတည်း။	-9.62945
ပြစ်	-9.62972
သနည်း	-9.63004
▁လိုက်ကြ၏။	-9.63014
ဖြစ်စေမည်။	-9.63059
အမြတ်	-9.63064
▁သစ္စာစောင့်	-9.63074
▁သနည်း။	-9.63077
▁ငယ်	-9.63078
▁တောင်ပေါ်	-9.63161
▁သေတ္တာတော်ကို	-9.63195
▁ခွဲ	-9.6322
ွေ့	-9.63247
အနွှယ်	-9.63249
တည်၏။	-9.6327
တော်မူသနည်း။	-9.63293
▁ထင်း	-9.63388
ကောင်းသော	-9.63578
▁အကြင်	-9.63683
▁မုန့်ကို	-9.63685
စပျစ်ရည်	-9.63709
စွန့်ပစ်	-9.63728
ဗိုလ်	-9.63742
▁အခြားသောသူ	-9.6376
အနက်ကို	-9.63813
နောက်၌	-9.63835
▁ဂဒ်အမျိုး	-9.63838
မရှိဟု	-9.63905
အရှင်ဘုရားသခင်	-9.63956
တစုံ	-9.64018
▁သူတို့က၊	-9.64119
▁တင်ထား	-9.64171
ဆင့်ဆို	-9.64201
စေတတ်၏။	-9.64204
▁လုပ်လေ၏။	-9.64225
နန်း	-9.64226
▁ကိုယ်အဘို့	-9.64308
အဘ၏	-9.64418
▁မနေ	-9.6443
တော်မူထသော၊	-9.64438
▁သင်တို့နှင့်အတူ	-9.64529
▁ထင်	-9.64569
▁မပေး	-9.64725
▁ဇိအုန်မြို့	-9.64731
အရပ်ရပ်၌	-9.64756
▁ငါ့နာမ	-9.64822
▁စိတ်တော်	-9.64856
▁ဤမည်သော	-9.64876
ခင်	-9.64882
▁အချို့တို့သည်	-9.64892
▁သင်တို့အဘို့	-9.64905
အရောင်	-9.6496
▁ဒုက္ခ	-9.65009
တံဆိပ်	-9.65047
▁ရှံဆုန်	-9.65048
အိမ်သူအိမ်သား	-9.65048
မှီခို	-9.65049
ပခုံး	-9.65049
စွမ်း	-9.65051
▁ဖုံးအုပ်	-9.65053
▁ရှိသမျှ	-9.65061
▁ခုနစ်ရက်ပတ်လုံး	-9.65069
▁အသက်ချမ်းသာ	-9.65135
မပျက်	-9.65229
အမည်ရှိ၏။	-9.65229
ကျောင်း	-9.65263
ရပြီ။	-9.65268
▁လုပ်ဆောင်	-9.65275
နှစ်နှစ်	-9.65311
▁ထင်ရှားစွာ	-9.65399
နိ၊	-9.65437
သားတို့၊	-9.65448
▁မမူ	-9.65463
▁ဥစ္စာကို	-9.65471
စင်ကြယ်	-9.65534
▁မြွက်ဆို၏။	-9.65591
▁ယခုပင်	-9.6563
မောင်	-9.65659
▁ခွန်အားကြီးသော	-9.6567
အထက်	-9.65674
တော်မူသည်ဖြစ်၍၊	-9.65709
▁ပင်ပန်း	-9.65717
▁ရောက်၍၊	-9.65782
▁ထက်	-9.65828
ကြ၏ဟု	-9.65891
စိုးရိမ်	-9.65941
စေတော်မူမည်။	-9.65959
ပယ်ရှင်း	-9.66013
ကြွတော်မူ	-9.66016
▁ဘုရင်	-9.66034
အုပ်စိုး	-9.66046
▁ရွေးကောက်တော်မူ	-9.66079
စပါး	-9.66095
မသိ။	-9.6614
အပ်သော	-9.6614
▁အပ်တော်မူ	-9.66149
▁ပရိသတ်အပေါင်း	-9.66288
▁သူတို့သည်လည်း	-9.66462
▁အသီးကို	-9.66465
▁ည	-9.66472
အရပ်မှ	-9.6653
ပွဲကို	-9.66599
အလယ်	-9.66652
▁မွေ့လျော်	-9.6666
ရေး၍	-9.66687
▁ပြုမိ	-9.66743
အတွင်း၌	-9.66893
▁ဘိသိက်	-9.66911
▁ငါဆို	-9.66941
▁သူနှင့်	-9.67006
▁တည်စေ	-9.67064
ပြုမူသော	-9.67129
ရုံ	-9.67163
▁ဆိုလျှင်၊	-9.67172
တောင့်တ	-9.67178
လိုသော	-9.67191
စပ်ကြား	-9.67203
ပျဉ်ပြား	-9.67222
အမှန်ဆိုသည်ကား၊	-9.67222
▁ရုပ်တုဆင်းတု	-9.67222
▁ရာခေလ	-9.67222
▁အာမလက်	-9.67224
▁အစာရှောင်	-9.67239
▁ရှိမောင်	-9.67305
အရပ်၊	-9.6732
▁မီးခွက်	-9.67343
▁ကင်	-9.67358
▁ကဲ့ရဲ့ခြင်း	-9.67404
▁ဟေဗြုန်မြို့	-9.67434
▁နိုး	-9.67459
▁ဟစ်ကြော်	-9.67499
အကြောင်းအရာ	-9.67539
▁မသောက်	-9.6755
▁ချွတ်	-9.67565
▁မြစ်ရေ	-9.67589
▁မေးသော်၊	-9.67643
ျေလ	-9.67658
▁ဗိမာန်တော်သို့	-9.67778
ညဉ့်	-9.67821
နိုင်သလော။	-9.67853
▁ကျိန်းဝပ်တော်မူ	-9.67999
▁စိတ်နှင့်	-9.68063
▁အထွ	-9.68094
▁အာရုန်သည်	-9.68094
ရပါ၏။	-9.68126
▁အကြောင်းအရာ	-9.68129
▁ဖိလိတ္တိလူ	-9.68186
▁လောင်း	-9.68188
▁ယောက်	-9.6823
▁ယေရိခေါမြို့	-9.68233
▁မျက်	-9.68248
မှန်လျှင်	-9.6825
အသရေ	-9.68268
▁ဆင်းသက်	-9.68278
သူတို့ကို	-9.68282
ရှိသည်အတိုင်း၊	-9.68306
မြေတွင်း	-9.68325
ကြသနည်းဟု	-9.68425
တောင်ပေါ်မှာ	-9.68467
▁အာဗနာ	-9.68473
ကြသော်၊	-9.68513
ကိုးစား	-9.68524
ကြီးသော	-9.68586
▁မယုံ	-9.68669
▁မယ်တော်	-9.687
▁ပရောဖက်ပြု	-9.68704
▁လော။	-9.68738
၏သမီး	-9.68807
▁သားဘွား	-9.68843
▁ပဌနာ	-9.68859
▁နှ	-9.68881
▁အလုပ်	-9.68962
နှစ်ယောက်တို့သည်	-9.69008
ရှိသတည်း။	-9.69032
ိမ်မြို့	-9.69112
ထံတော်၌	-9.69125
▁သိမ်းသွားခြင်း	-9.69128
▁သူတို့တွင်	-9.69157
▁နန်းစံ	-9.69177
စည်းဝေးရာ	-9.69244
နာမကို	-9.69288
▁စပျစ်	-9.69329
▁ရောက်လာ၍၊	-9.69364
▁နှုတ်ယူ	-9.69438
ခြင်းကို၎င်း၊	-9.69442
▁ဂိဒေါင်	-9.69444
▁ဣရှမေလ	-9.69444
▁အထပ်ထပ်	-9.69444
▁အများ	-9.69444
▁ဧသတာ	-9.69444
နဲ	-9.69447
▁ငြိမ်းစေ	-9.69457
စိတ်နှင့်	-9.69483
ပျံ	-9.69492
▁အလိုလို	-9.69503
သူသည်	-9.69558
ကြားရ	-9.69564
တို့သည်လည်း၊	-9.69573
ရှိသည်ဖြစ်၍၊	-9.69596
တွင်းထဲသို့	-9.69664
▁ဗာလဘုရား	-9.6967
ပါသနည်း။	-9.69977
▁အပြစ်ဖြေရာယဇ်	-9.6998
▁ကျမ်း	-9.70001
အသီးကို	-9.7001
▁သင်တိုင်း	-9.70016
တော်မူမည်	-9.7005
▁ဆိုင်သော	-9.70081
▁သိုးစု	-9.70089
သောအရပ်၌	-9.70212
▁ဒမာသက်မြို့	-9.70222
နှောင့်ရှက်	-9.70265
▁အဆုံး	-9.70268
ဇေဒကိ	-9.70296
▁ရှင်ဘုရင်ကို	-9.70347
တော်မူခြင်းကို	-9.70438
▁ဤအရာ	-9.70446
▁ဒဏ်ပေး	-9.70464
တော်မူပါစေသော။	-9.705
ဘွားသော	-9.70535
လေသမျှ	-9.70567
▁နောင်	-9.70568
သားများ	-9.70585
▁သွားကြ၏။	-9.70597
▁အထံတော်၌	-9.70663
တုန်လှုပ်	-9.70676
▁အမျက်တော်ကို	-9.70746
ခရီး	-9.70767
သည်နည်းတူ၊	-9.7078
▁ချောင်း	-9.70784
ထံတော်မှ	-9.70881
▁သေခြင်းမှ	-9.70905
▁ထိုနည်းတူ၊	-9.70938
ရှေ့မှ	-9.70991
▁ဘမ်း	-9.71005
▁ဂိလဒ်	-9.71012
▁နည်း	-9.71024
သိမြင်	-9.71078
နေ့ရက်ကာလ	-9.71194
▁အပြစ်ဖြေရာ	-9.71215
▁ငါ့အဘို့	-9.71367
▁ခြားနား	-9.71402
မူ	-9.71419
▁တကျိပ်	-9.7142
▁စမ်းရေ	-9.71432
▁ခပ်သိမ်းသောအရာ	-9.71511
▁လှံ	-9.71518
ခုတ်	-9.71543
▁ဆိုးသောသူ	-9.71572
အလျှင်း	-9.71592
▁တယောက်တည်း	-9.7169
ဩဝါဒ	-9.71699
▁အထူးသဖြင့်	-9.71717
▁လာဗန်	-9.71719
▁ဇိဒုန်	-9.7172
တွေ့ကြုံ	-9.71722
▁မီးခုံ	-9.71764
▁မြေကြီးစွန်း	-9.71783
▁ဟိတ်	-9.718
▁ဟာမန်	-9.71815
အနန္တတန်ခိုးရှင်	-9.71824
အမျိုးသားတို့ကို	-9.71837
ရက်မြောက်သောနေ့၌	-9.71861
▁ကြိုး	-9.71922
လေးပါး	-9.71933
ပင်၊	-9.71952
▁လူအစုအဝေး	-9.72018
▁ဇ	-9.72019
▁ကြံ	-9.72107
▁ချုပ်ထား	-9.72205
▁မကြောက်	-9.72245
▁စိတ်ဝိညာဉ်	-9.7226
▁မေထုန်	-9.7227
▁တရားတော်	-9.72274
▁ငါ့ဝိညာဉ်	-9.72308
▁အားထုတ်	-9.72334
▁ရှိသမျှတို့ကို	-9.72412
▁သင်နှင့်အတူ	-9.72428
▁ဣသရေလလူ	-9.72479
ဂုဏ်တော်ကို	-9.72483
▁မြှား	-9.72497
အလိုတော်	-9.72503
▁အဘိ	-9.72522
မြို့တိုင်အောင်	-9.72628
▁ဆောင်း	-9.72639
ာန်	-9.72702
▁လှုပ်ရှား	-9.72772
▁ပေါ်လာ	-9.72782
▁ကျော့ကွင်း	-9.72888
ပြည်သားတို့	-9.72929
ငါးနှစ်	-9.72945
▁ငါဆိုသည်ကား	-9.72973
ဆက်ဆံ	-9.73104
▁ခိုင်ခံ့သော	-9.73126
ပရိသတ်	-9.73127
ကောင်းကင်တမန်	-9.73143
▁ဤရွေ့ကား၊	-9.73237
မလွတ်	-9.73292
ပြန်၍၊	-9.73352
ပါနှင့်။	-9.73392
ဆိုကြ၏။	-9.73466
▁အကြံရှိ	-9.73524
▁သူတို့နှင့်အတူ	-9.73584
အလိုအလျောက်	-9.73585
▁ဂါလိလဲပြည်	-9.73592
▁ဇိအုန်တောင်	-9.73659
▁နက်ဖြန်နေ့	-9.73667
▁သက်သေခံတော်မူ	-9.73675
တံခါးဝ၌	-9.73681
▁အာရှ	-9.73709
သက်သက်	-9.73743
▁အမိန့်	-9.7393
▁အခွန်	-9.73984
▁အနက်	-9.74
▁နွားထီး	-9.74019
▁ဤမျှလောက်	-9.74043
▁ဂိဗာမြို့	-9.74043
ဖြောင့်မတ်ခြင်း	-9.74068
▁သံတမန်	-9.74078
ငါသည်	-9.74099
လိုက်ကြ၏။	-9.74125
အားဖြင့်၎င်း၊	-9.74137
▁သက်သေခံချက်	-9.74163
ဆီး	-9.74195
မင်္ဂလာကို	-9.74244
မှပြောင်း၍	-9.74244
သိမ်းယူ	-9.74248
▁အသက်ရှင်သော	-9.74253
လေသော်၊	-9.74268
▁တိုင်တည်၍	-9.74273
ကျေးဇူးတော်ကို	-9.74281
▁ရန်သူတို့သည်	-9.74298
▁ကြွလာတော်မူ	-9.7433
▁ယဇ်ကောင်	-9.74407
▁နောက်တော်သို့	-9.74422
▁သတိပေး	-9.74427
▁ငါစီရင်	-9.74457
▁ရေတွင်း	-9.74564
▁မယုံကြည်	-9.74612
အမျိုးမျိုးတို့	-9.74614
▁တဖန်တုံ	-9.74637
▁စုံဘက်	-9.74681
▁ဒါဝိဒ်နှင့်	-9.74774
▁ခမည်းတော်သည်	-9.7478
▁ကြားသိ	-9.74791
▁တွေ့မြင်	-9.74831
▁ရှက်ကြောက်	-9.74864
▁အစဉ်အမြဲတည်	-9.74956
▁တိတ်ဆိတ်စွာနေ	-9.75056
ာတော်	-9.75081
▁လွင်ပြင်	-9.75096
စိမ်း	-9.75153
▁တဘက်၌	-9.75159
တတ်ပါ၏။	-9.75173
အရင်	-9.75231
တော့ဟု	-9.75314
လွင်ပြင်	-9.75595
▁ရှက်ကြောက်ခြင်း	-9.75607
ဥယျာဉ်	-9.75614
▁သက်	-9.75619
▁ဘတ်	-9.75624
မှူးမတ်	-9.75633
▁ထိုနေ့ရက်	-9.75635
အမှုအရာ	-9.75722
▁ဖြစ်ရမည်။	-9.75744
ထဲသို့ဝင်၍	-9.75751
▁ရှိသမျှသော	-9.75754
ပြည်သား၊	-9.75807
ပညတ်တရား	-9.7583
တကျိပ်	-9.75836
ယခု	-9.75843
▁ဒါဝိဒ်မင်းကြီး	-9.75853
▁လုပ်၍	-9.75905
▁မူကား၊	-9.75908
▁ကိုယ်တော်၏လူ	-9.75939
ပါစေဟု	-9.75965
▁ရှမာရိမြို့	-9.75994
ရှေ့၊	-9.76098
▁အိုင်	-9.76099
▁နှစ်ဆယ်	-9.76149
ရေးထား	-9.7617
ကြွ၍	-9.76171
▁ဖာရိရှဲ	-9.76207
ပေါင်းဘော်	-9.76228
ခန့်	-9.7623
▁ဤစကား	-9.76237
▁ဆုံးမဩဝါဒပေး	-9.76244
▁ကိုယ်တော်အား	-9.76314
တို့လည်း	-9.76385
ပမာဏ	-9.76391
▁ကြိုးစားအားထုတ်	-9.76424
▁ဟေဗြဲ	-9.76424
▁ဩဇိ	-9.76424
ရှာဖွေ	-9.76424
▁အသေသတ်	-9.76425
ဗောဇ	-9.76426
▁ကွယ်ကာ	-9.76427
▁ဆက်ဆက်	-9.765
▁မှီ	-9.76578
▁သူတို့အဘို့	-9.76609
ညှိ	-9.76614
▁မတရားသောသူတို့	-9.76635
▁အားနည်း	-9.76648
ပေါက်ဘော်	-9.76649
▁မြို့နယ်	-9.76652
ံ၊	-9.76662
▁သွန်းလောင်းရာ	-9.76682
မြို့ရိုး	-9.7669
လက်ျာ	-9.76809
ခဲ့ပြီးသော	-9.7684
ရကြမည်ဟု	-9.7694
▁ကိုယ်တော်တိုင်	-9.77002
စားစရာဘို့	-9.77023
▁ရေကန်	-9.77038
စကားသံကို	-9.77058
▁အမ္မုန်	-9.77062
▁ငါးဆယ်	-9.77101
စေတော်	-9.77112
▁ကိုယ်တော်နှင့်	-9.77124
များ၌	-9.77154
▁သိုး၊	-9.77176
▁သက်သာ	-9.77359
ရပ်လျက်၊	-9.77367
မှာထားတော်မူ	-9.77444
အစ	-9.77546
▁အဆွေ	-9.77595
စကားအားဖြင့်	-9.77631
▁အနည်းငယ်	-9.77677
ချီးမွမ်းကြလော့။	-9.77701
▁ရှုံး	-9.7771
တို့ထံသို့	-9.77737
စေခြင်း	-9.77758
▁အသံကို	-9.77804
▁ကိုယ်တော်၌	-9.77808
▁ရှိသမျှတို့သည်	-9.77901
▁တည်ကြည်	-9.77943
ဥ	-9.77948
ဗေရ	-9.77991
လောင်း	-9.78032
▁အကြောင်းကို	-9.78112
▁အံ့ဘွယ်သော	-9.78118
▁မျက်နှာကို	-9.78124
▁ပြစ်မှားသော	-9.7815
စုံလင်	-9.78213
အသံနှင့်	-9.78278
သင်္ချိုင်းတွင်း	-9.78318
▁ထိုပြည်ကို	-9.78358
နှုတ်ဆက်	-9.7837
ကြသည်ဖြစ်၍၊	-9.78482
▁တန်တိုင်း	-9.78564
စေ၍	-9.78564
ခဲ့သော	-9.78568
လုယူ	-9.78608
လုံ	-9.78731
စွာသော	-9.78734
ကြောက်မက်ဘွယ်သော	-9.78789
လက်ခံ	-9.78824
ပညတ္တိကျမ်း	-9.78862
▁ရွေးချယ်	-9.78862
လျှို	-9.78863
▁ယဇ်ပုရော	-9.78863
▁ထိမိ၍	-9.78863
အာခဇိ	-9.78863
▁ဇာတိပကတိ	-9.78865
▁ကွယ်ပျောက်	-9.78865
ဘုံဗိမာန်	-9.78868
▁မူသော	-9.78882
▁ရှော	-9.7895
▁မြို့နယ်၊	-9.78969
▁ခမည်းတော်အရာ၌	-9.79007
▁ကြိုးစား၍	-9.79019
▁မေးတော်မူလျှင်၊	-9.79021
▁မုသာစကားကို	-9.79021
အကောင်	-9.79023
▁မစားရ။	-9.7903
▁အပြစ်ဒဏ်	-9.79062
▁ရေလ	-9.79072
▁ကြားလျှောက်	-9.79091
▁သိမှတ်	-9.7914
▁ထိုင်နေ	-9.79146
▁ထိုအကြောင်းအရာ	-9.7919
▁ဝိုင်း၍	-9.79212
▁ထိုကာလ	-9.79221
တယောက်မျှ	-9.79229
▁မိမိလူ	-9.79269
▁အိမ်တော်ကို	-9.79293
စရပ်	-9.79295
ပေးမည်။	-9.79299
ပြုသကဲ့သို့	-9.79359
▁ဆန့်ကျင်ဘက်ပြု	-9.79401
▁ငါမြင်၏။	-9.79414
ရှေမာယ	-9.79459
▁ဒ	-9.79503
▁ဖြတ်	-9.796
▁မီးရှို့ရမည်။	-9.79705
▁လယ်ပြင်	-9.79744
သဏ္	-9.79764
▁ယုဒပြည်၌	-9.79787
ပြန်လေ၏။	-9.79842
▁မြေ၌	-9.79845
▁ယခုမှစ၍	-9.79894
သောကြောင့်၎င်း၊	-9.79906
စေမည်အကြောင်း	-9.79944
▁အမြစ်	-9.79951
▁ရုဗင်	-9.79962
▁ရှောလမုန်သည်	-9.80005
▁လက်ကို	-9.8004
▁အမြင့်	-9.80086
▁အမျက်တော်ထွက်	-9.80112
▁ဆည်းကပ်	-9.80147
▁ဥပုသ်နေ့၌	-9.80161
ိုက်	-9.80226
▁ရုဗင်အမျိုး	-9.80248
▁နှံ့ပြား	-9.8027
▁ဗေသလမြို့	-9.80287
▁မဖြစ်	-9.80357
▁လုပ်သော	-9.80384
သင်သည်	-9.80398
▁ပေါ်မှာ	-9.80437
▁ကုရှ	-9.8051
နှောင်	-9.80522
▁ဗတ္တိဇံကို	-9.80536
▁ဇာဒုတ်	-9.80569
သို့၎င်း	-9.80682
▁အသေ	-9.80734
ဆံပင်	-9.8078
ငိုကြွေး	-9.80798
သေတ္တာ	-9.80803
ရေတွက်	-9.8082
ဝါကြွား	-9.8082
အများတို့သည်	-9.80969
ဘဲနေ၏။	-9.80989
▁ပကတိ	-9.81041
ငါးယောက်	-9.81042
များကို၎င်း၊	-9.81052
▁ခံရကြ၏။	-9.81053
ချိုင့်၌	-9.81079
▁ရှေခင်မြို့	-9.81166
▁ယောရှ	-9.81178
လှ၏။	-9.81183
မျို	-9.81193
▁မှီဝဲ	-9.81199
▁နှစ်ယောက်	-9.81216
သင့်ကို	-9.81229
▁လက်နှင့်	-9.81236
လျှော	-9.81272
▁ပြု၍	-9.81274
▁ဆု	-9.81307
ဧဝံဂေလိတရား	-9.81321
ရမည်မှာ၊	-9.81356
ပျားရည်	-9.81362
ဆွေးနွေး	-9.81363
▁စာရင်းဝင်	-9.81375
▁ခါလဒဲ	-9.81378
ရှို့	-9.81474
▁ရွံရှာဘွယ်	-9.81498
အမျက်ထွက်	-9.81504
▁စားရ	-9.81608
▁မောရှေ၏	-9.81623
▁တောင်မျက်နှာ	-9.81657
သားတို့၏	-9.8167
▁ဣသရေလနိုင်ငံ	-9.81682
မရှိပါ။	-9.81699
အမှန်	-9.81765
▁မကောင်း	-9.81782
စွန့်၍	-9.81789
မျိုး၊	-9.81828
ပါသည်တကား။	-9.81843
▁ကျိန်ခြင်း	-9.81845
▁တစုံတယောက်သောသူ	-9.81847
ကြားမှာ	-9.81894
▁ထိုအရပ်မှ	-9.819
အလိုက်	-9.8192
ဆိုင်သော	-9.81927
မ္မအမှုကို	-9.81959
▁အဘယ်အရာ	-9.81995
ရပ်၍	-9.8201
▁ငါ၏လူတို့	-9.82038
ရာအရပ်၌	-9.82038
▁အနှံ့အပြား	-9.82045
▁ငါပေးမည်။	-9.82085
ရှိကြ	-9.82131
▁သစ္စာတော်	-9.8214
ပြပ်ဝပ်	-9.8224
▁သင်တို့အဘ	-9.82254
နှစ်လုံး	-9.82258
ကျိန်းဝပ်	-9.82266
ပါမည်အကြောင်း	-9.82316
▁ခံရသောသူ	-9.82349
လှသော	-9.82383
စေမည်ဟု	-9.82584
ခံရ၏။	-9.82588
သိ၏။	-9.82614
တော်မူမည်ဟု	-9.8272
▁အဘယ်မျှ	-9.8272
▁နင်း	-9.82735
▁ကြာမြင့်စွာ	-9.82807
▁မြေကြီးသား	-9.82833
ရွှေ့	-9.83008
▁ရောက်၍	-9.8309
▁တိုက်တွန်း	-9.83113
▁ကျင့်သောသူ	-9.83194
▁မာရိ	-9.83252
စဉ်အခါ	-9.83259
ခမည်းတော်	-9.8333
▁ယစ်မူး	-9.8342
ခိုင်ခံ့	-9.83497
▁လက်မှ	-9.835
ရှိတော်မူ၏။	-9.83511
စစ်သူရဲ	-9.83563
ထမြောက်	-9.83563
စိတ်ဝိညာဉ်	-9.83587
စေတော်မူပြီ။	-9.83735
▁အကြီးအကဲ	-9.83753
အစေခံ	-9.838
အမှုတို့ကို	-9.83805
▁မသေ	-9.83842
▁ညဦး	-9.83927
သားစဉ်မြေးဆက်	-9.83927
ကြီးပွား	-9.83927
▁ဟုတ်မှန်	-9.83928
ရေတွင်း	-9.8393
▁ကြားလျှင်၊	-9.83936
▁ဣသခါ	-9.83961
▁ညဦးတိုင်အောင်	-9.83982
▁နှင်း	-9.84006
▁မြင်လျှင်၊	-9.84007
▁မီးခိုး	-9.84011
စပ်ကြားမှာ	-9.84015
▁ကျွန်ုပ်သည်	-9.84062
ငါတို့	-9.84101
▁သူတို့ရှေ့မှာ	-9.84105
လျက်နေကြ၏။	-9.84117
▁အဘယ်သူမျှမ	-9.84117
အဘို့အလိုငှါ	-9.84137
▁တံခါးစောင့်	-9.84155
ကြသော်လည်း၊	-9.84233
▁အမင်္ဂလာရှိကြ၏။	-9.84243
ညှဉ်းဆဲခြင်း	-9.84295
အရှေ့ဘက်	-9.84314
▁နားမထောင်ဘဲ	-9.84388
▁ဘိုးဘေးများ	-9.84389
တုရ	-9.84393
ဘွားမြင်	-9.8446
▁ကြည့်ရှု၍	-9.84463
▁စစ်ကြောစီရင်	-9.84472
ဝေဒနာကို	-9.84488
▁ယခုတိုင်အောင်	-9.84491
▁ဗိုလ်ခြေအရှင်	-9.84553
▁တရားတော်ကို	-9.84679
တို့အပေါ်မှာ	-9.84705
နှစ်ဘက်	-9.84744
▁တော်သည်	-9.84777
များစွာသော	-9.84904
▁သင့်ရှေ့မှာ	-9.84947
ကြပါလိမ့်မည်။	-9.85026
▁ပြပ်ဝပ်လျက်	-9.85033
▁ညစ်ညူးစေ	-9.8504
▁မနာရှေအမျိုး	-9.85094
▁စစ်ချီ၍	-9.85231
▁မီးဖို	-9.85252
▁ယေရှု၏	-9.85328
ရေလ	-9.85488
▁သွားလေ၏။	-9.85527
မလွှတ်	-9.85565
ပညာရှိ	-9.85577
▁ဖြင့်	-9.85586
▁ခုနစ်နှစ်	-9.85625
တို့ရှိရာသို့	-9.85649
ကောင်း၏။	-9.85712
▁မြို့ထဲသို့	-9.85835
ရုပ်	-9.85876
ရှိသမျှသည်	-9.86016
▁ပြည်၌	-9.86046
▁ကောရ	-9.86086
▁အစ	-9.86106
အချို့တို့ကို	-9.86116
ရလိမ့်	-9.86162
ကိုင်သော	-9.86189
▁ထိခိုက်	-9.86197
ရာ။	-9.86243
နိုး	-9.86274
▁အရိပ်	-9.86317
▁ဒါဝိဒ်အား	-9.86341
လျော	-9.86353
နားလည်	-9.86356
ငါတို့သည်	-9.86368
▁ပြန်ပေး	-9.86436
စပျစ်နွယ်ပင်	-9.86558
္ဌမ	-9.86558
▁ပုရောဟိတ်	-9.86558
▁မရဏာနိုင်ငံ	-9.86558
▁တုရုမြို့	-9.86558
အဆွေအမျိုးသူကြီး	-9.8656
▁တကား။	-9.8656
▁ခုတ်လှဲ	-9.86566
ခွါ	-9.86575
အဲဂုတ္တုပြည်သို့	-9.86577
▁ဆက်ကပ်	-9.86605
သည်မှန်လျှင်၊	-9.86628
ပင်လယ်	-9.86632
▁အကျွန်ုပ်အား	-9.86676
▁မြောက်မျက်နှာ	-9.86678
▁လှံတံ	-9.86716
မြည်း	-9.86726
▁ဘာသာစကား	-9.86791
▁အသီးအနှံ	-9.86889
▁စကားပြော	-9.86901
မပြုဘဲ	-9.86916
▁မှည့်လေ၏။	-9.8695
ကြနှင့်ဟု	-9.86961
ဆိုသတည်း။	-9.86978
တပည့်တော်တို့အား	-9.86983
ခြင်	-9.87005
အပြစ်တင်	-9.87099
ခြောက်ရာ	-9.87158
▁ဘိုးဘေးတို့၏	-9.87182
ကြီးစွာသော	-9.872
▁မအောက်မေ့	-9.87267
▁တညီတညွတ်တည်း	-9.87278
▁ရာဇပလ္လင်	-9.87281
▁မြွေ	-9.87285
ထံသို့သွား၍	-9.87299
▁ဒါဝိဒ်ကလည်း၊	-9.87387
▁ထိုကျောက်	-9.87393
တစုံတယောက်မျှ	-9.87546
ဟံ	-9.8767
ပါလျက်၊	-9.87728
▁ပွဲခံ	-9.87738
▁ခေါ်ခဲ့	-9.87792
▁မင်းပြု	-9.87911
အမည်ကား	-9.87994
▁နွားသငယ်	-9.8808
▁ထိတ်လန့်	-9.88081
▁မိမိအိမ်	-9.88177
▁နည်း။	-9.88195
▁အဘသည်	-9.88198
▁ခုတ်	-9.8821
▁သန့်ရှင်းခြင်း	-9.88219
ထွာ	-9.88234
နှင့်တူ	-9.88257
ရှိပါ	-9.88273
▁သူတပါးတို့သည်	-9.88345
ထုံးစံ	-9.88385
ို့	-9.88415
▁ဖြစ်ပါ၏။	-9.88477
▁မိမိနေရာ	-9.8886
မဟုတ်လော။	-9.88901
▁တိုးပွား	-9.88919
▁ဗိမာန်တော်ကို	-9.88924
▁အရှင်ထာဝရဘုရား၏	-9.88953
ကဲ့သို့ဖြစ်၏။	-9.88955
နေရာသို့	-9.89009
အရေ	-9.8901
ငတ်မွတ်	-9.89022
▁အဆွေခင်ပွန်း	-9.89059
အိမ်ထောင်	-9.89102
လှံတံ	-9.89118
အသေကောင်	-9.89149
ကရုဏာ	-9.89156
ခရစ်တော်	-9.89158
စုံစမ်း	-9.89176
စီရင်တော်မူ	-9.89211
ရဲတိုက်	-9.89233
ငါးရာ	-9.8924
▁လွှင့်	-9.89244
တွေ့လျှင်၊	-9.89251
အဘယ်ကြောင့်	-9.89255
လှိုင်းတံပိုး	-9.89261
▁ဖိလိပ္ပု	-9.89261
မိဇပါမြို့	-9.89261
▁မေရာရိ	-9.89261
▁အပြစ်မပါသော	-9.89262
▁ခွေး	-9.89262
▁စိရ	-9.89265
▁ခါးပန်း	-9.8928
▁ပယ်ဖြတ်	-9.89329
မြို့သားတို့သည်	-9.8933
▁အဘယ်သူကိုမျှ	-9.89371
▁မြင်လေ၏။	-9.89414
▁ပို့	-9.8943
▁မိဖုရား	-9.89511
ခုနစ်ယောက်	-9.89549
▁ကောင်းမြတ်	-9.89595
▁ယုတ်	-9.89595
▁ကြက်	-9.89686
▁အင်္ဂါ	-9.89705
လေရာရာ၌	-9.89717
ဖောက်	-9.89734
ပေးတော်မူ၏။	-9.89739
ကိုယ်အလိုအလျောက်	-9.89797
▁လယ်လုပ်	-9.89866
▁ဆံပင်	-9.89896
▁လောတ	-9.89902
အလုပ်ကို	-9.89963
ကုန်း	-9.89983
သောသူမူကား	-9.89987
▁ငါ့လက်	-9.90294
အတတ်ကို	-9.90322
ခွဲထား	-9.90362
ဖြစ်သောကြောင့်၊	-9.90362
ကြည့်ရှု၍	-9.90396
▁ခန့်ထားတော်မူ	-9.90544
တော်မူ၏ဟု	-9.9063
အလိုမရှိ	-9.90727
▁သုတ်သင်	-9.9082
▁အာဒ	-9.90828
▁ပြည့်စုံသော	-9.90836
လတံ့	-9.90973
သာလျှင်	-9.90985
▁ထင်ရှားစေ	-9.91009
▁စပါးကို	-9.91017
ဣသရေလအမျိုး	-9.9103
▁သတ္တမ	-9.91071
နှင့်လွတ်	-9.9121
▁လာ၍၊	-9.91293
▁ချည်	-9.91383
▁ရေလအမျိုး	-9.91392
▁ခံရ၏။	-9.91447
ရသောအချိန်	-9.91465
▁မျက်နှာပြု	-9.91511
နား၌	-9.91517
▁နှိပ်စက်	-9.91522
▁မတ်	-9.91564
ဆင့်	-9.91609
▁သမ္မာ	-9.91609
အကြံကို	-9.91625
ခင်ပွန်း	-9.91665
▁ညှိုးငယ်	-9.91689
▁မကျင့်	-9.91722
▁ရူပါရုံ	-9.91834
ညွတ်	-9.92039
▁မြေတပြင်လုံး	-9.92039
▁သက္ကာ	-9.92039
ဥရိယ	-9.9204
မြစ်တား	-9.9204
လူဆိုး	-9.92041
▁ပြီးစီး	-9.92048
▁လျှော်	-9.92063
ဒုက္ခ	-9.92065
လွှင့်	-9.92065
▁ခါနနိလူ	-9.92065
နှင့်အမျှ	-9.92071
▁ဝတ်ဆင်	-9.92074
▁ချီလွှဲ	-9.9209
ညည်းတွား	-9.9209
ရှုတ်ချ	-9.92091
မှားယွင်း	-9.92096
▁အရာရာ၌	-9.92106
▁လိုက်သွား	-9.92118
ပေါ်ထွန်း	-9.92153
▁သခင်ယေရှု	-9.92155
စို့	-9.9218
▁ကျွန်တို့သည်	-9.92193
▁ရှုရိရှင်ဘုရင်	-9.92269
▁မသတ်	-9.92269
တစုံတခုကိုမျှ	-9.92311
ကပင်	-9.92324
▁တိုက်ယူ	-9.92369
နိမ်	-9.92392
▁သန့်ရှင်းသူ	-9.92393
▁ရှေ့မှာ	-9.92396
▁ငါ၏လူမျိုး	-9.92425
▁တပ်မက်	-9.92451
နှစ်သောင်း	-9.92502
တို့၌၎င်း၊	-9.92537
▁ထာဝရဘုရားဖြစ်၏။	-9.92563
▁ယုဒမြို့	-9.92565
▁မစင်ကြယ်။	-9.92574
▁မတရား	-9.92591
▁ထိုစကား	-9.92604
▁ဘုရားသခင်အား	-9.92607
မှထွက်၍	-9.92667
▁ရောက်လေ၏။	-9.92718
စေရမည်။	-9.92719
မစီရင်	-9.92801
ကျော	-9.92846
ဗိမာန်တော်	-9.92858
တယောက်တည်း	-9.92886
▁မြေကို	-9.92929
စေကြ၏။	-9.92955
▁ရှိတော်မူ၏။	-9.92956
▁တူး	-9.93047
▁ဣသရေလအမျိုးသည်	-9.93127
▁ကျမ်းစာ၌	-9.9314
▁စောင်း	-9.932
ကြယ်	-9.93248
▁ဘုရား၊	-9.9325
ဆိုသော်လည်း၊	-9.93255
▁သူနှင့်အတူ	-9.93285
ကြိုးကို	-9.93335
မိုဃ်းရွာ	-9.93357
ဆပ်	-9.9343
လမ်းမှ	-9.93531
▁အကောင်	-9.93633
▁သက်သေဖြစ်	-9.93655
အတွက်ကြောင့်	-9.93762
သင်တို့ရှိရာသို့	-9.93838
▁ဇေရ	-9.93896
▁သူတယောက်	-9.93925
▁ရှိပါ၏။	-9.93958
ကြစဉ်၊	-9.94002
နောက်မှာ	-9.94029
အပင်	-9.94086
▁ငါသိ	-9.94174
ဘယ်မျှကာလပတ်လုံး	-9.94176
ဖြစ်ရလိမ့်မည်။	-9.94176
▁ဟေဇကိမင်း	-9.94265
ဖြစ်ပါ	-9.94321
▁လှည့်ဖြား	-9.94333
▁ယောက္ခမ	-9.94334
▁နက်နဲ	-9.9434
တိုင်အောင်၎င်း၊	-9.94503
ရသနည်း။	-9.94521
▁စင်ကြယ်သော	-9.94565
လျောက်	-9.94656
စေတနာစိတ်	-9.94664
▁ပေးသနားတော်မူ	-9.94668
သုံးဆောင်	-9.94692
▁ကောဟတ်	-9.94704
▁အံ့ဩဘွယ်	-9.94706
မြည်တမ်း	-9.94741
▁လျောင်း	-9.94856
▁အရပ်ရပ်သို့	-9.94895
မြေကြီးတပြင်လုံး	-9.94896
▁ကမ္ဘာအဆက်ဆက်	-9.94896
▁ကျန်းမာ	-9.94896
▁မာရ်နတ်	-9.94896
▁အာမင်။	-9.94896
ငြူစူ	-9.94896
▁စောစော	-9.94896
▁ရေငတ်	-9.94896
▁လျောက်ပတ်	-9.94897
ချစ်ခြင်းမေတ္တာ	-9.94897
▁ဟေလသ	-9.94897
▁တံဆိပ်ခတ်	-9.94897
▁ထိုသိတင်းကို	-9.94907
▁နှုတ်ကပတ်တရား	-9.94918
ဆွတ်	-9.94926
ရှင်းလင်း	-9.94927
▁ကြွေး	-9.94929
မှီဝဲ	-9.94941
▁နက်နဲသော	-9.94957
ဗျာဒိတ်	-9.94962
အစ်မ	-9.94974
အလံ	-9.95001
လတံ့ဟု	-9.95007
▁လျှောက်သော်၊	-9.95072
အကြီးအကဲ	-9.9509
ရိုသေ	-9.95113
လွန်ကျူး	-9.95117
မေတ္တာ	-9.95122
ခွန်အား	-9.95122
ရှောလု	-9.95131
▁နတ်	-9.95142
▁မျက်နှာတော်ကို	-9.95143
ထိုသူ	-9.95156
သည်နောက်၊	-9.95196
▁ပြာ	-9.95205
▁အမင်္ဂလာရှိ၏။	-9.9524
▁နံ့သာပေါင်း	-9.9528
ဆဲ	-9.95321
ချက်ဟူမူကား၊	-9.95328
ကယ်	-9.95367
▁ရိုက်ထား	-9.95401
ရှိကြောင်းကို	-9.95437
▁ချဉ်းကပ်၍	-9.95473
▁မီးလျှံ	-9.95506
ဥပုသ်နေ့	-9.95518
▁အခါမလည်သော	-9.95544
▁ငါ့နောက်သို့	-9.95583
▁ငါခန့်ထား	-9.95665
ဗတ်	-9.95668
▁ရှောလု၏	-9.95678
▁ယောဟန်သည်	-9.95692
▁ပစ်ထား	-9.95732
▁ထိုလူမျိုး	-9.9578
ခြင်းတွင်	-9.95872
ပြာ	-9.95874
▁ခရီးဦးကြိုပြု	-9.95917
ရှိပါစေသော။	-9.95951
မပေး။	-9.95987
▁သွားလာ	-9.96001
▁ငြိမ်ဝပ်စွာနေ	-9.96028
▁ဗက်လင်မြို့	-9.96029
လိုသောငှါ၊	-9.96138
အနံ့	-9.96222
လိုလျှင်၊	-9.96346
▁မထင်ရှား	-9.96355
▁ငါဆောင်ခဲ့	-9.96377
▁သင်းဖွဲ့	-9.96537
▁ချမ်းသာရ	-9.96625
▁အမင်္ဂလာ	-9.96709
မစ	-9.96736
▁????	-9.96773
▁ကယ်တင်ခြင်းသို့	-9.9684
▁စ၍	-9.96843
ကျမ်းပြုဆရာ	-9.96952
▁မိမိတို့နေရာ	-9.96994
ကြပြီ	-9.97008
ကိုင်၍	-9.97089
သလော	-9.97107
သားဦး	-9.97125
ချွတ်	-9.97236
▁မြို့တော်	-9.97326
သစ်ကို	-9.97402
ထောက်၍	-9.97499
လျင်	-9.97546
▁သိုးထီး	-9.97604
တော်မူရာ	-9.97604
ဗင်္ယာမိန်အမျိုး	-9.97656
လျက်ရှိသည်ကို	-9.97719
ကြလတံ့။	-9.97772
သကဲ့သို့၎င်း၊	-9.97776
မျက်ရည်	-9.97837
သည်သာမက၊	-9.97837
▁ကယ်မသနား	-9.97837
မှဆင်းသက်သော	-9.97838
▁ဗေနာယ	-9.97838
▁မုယော	-9.97839
ရေခပ်	-9.97842
▁နံ့သာမျိုး	-9.97844
▁စစ်မှု	-9.97885
▁ဆပ်ပေး	-9.979
▁အရာရှိ	-9.97938
▁ထောင်ထဲမှာ	-9.97966
▁တပ်သား	-9.9809
အားဖြင့်သာ	-9.98094
▁အမျိုးမျိုးသော	-9.98098
▁ဤသူတို့	-9.98152
▁ယုဒပြည်သူ	-9.98177
ညှိုးငယ်	-9.98209
တိုးပွား	-9.98211
ပကတိ	-9.98216
ကောင်းကင်	-9.98229
လှည့်လည်	-9.98255
ကောင်းကြီးပေး	-9.9827
▁ဆွဲထား	-9.9828
▁ထိုသို့နှင့်အညီ	-9.98315
▁ထိုသူတို့၏	-9.98318
▁အပြစ်တရား	-9.98358
▁နန်းထိုင်၍	-9.98364
▁ငါပေးမည်ဟု	-9.98372
ဖြောင့်မတ်ရာသို့	-9.98382
▁ညစ်ညူးသော	-9.98401
တရက်	-9.98476
မြောက်ဘက်	-9.98517
ကောင်တို့ကို	-9.98517
ပစပ်	-9.98554
▁နန်းတော်၌	-9.98562
▁ဟစ်	-9.98623
ချဉ်းကပ်	-9.98689
ကြသည်တကား။	-9.98721
အာရုန်	-9.9877
▁အလှူ	-9.98779
▁ငါ့ထံမှ	-9.98786
တစုံတယောက်	-9.98807
▁လုပ်ရမည်။	-9.98807
▁ရှေဘ	-9.98865
▁သေမင်း	-9.98888
▁ညှိုးနွမ်း	-9.99004
တပည့်တော်	-9.99095
အနောက်ဘက်	-9.99287
▁နံနက်အချိန်	-9.99422
▁ညစ်ညူးခြင်း	-9.99548
▁စိတ်သဘော	-9.99579
▁ဆောင်ခဲ့၍၊	-9.99595
တို့ဖြင့်	-9.99776
ဗေဒ	-9.99783
ကြားပြော	-9.99917
ပြီတကားဟု	-9.99945
အမှုမှာ	-10.0001
ခြင်းနှင့်တကွ	-10.0028
ွေလ	-10.0032
၏မယား	-10.0052
▁ပသခါပွဲကို	-10.0063
ဗတ္တိဇံ	-10.0066
အိမ်တော်၌	-10.0077
▁ငါ၏ဘုရားသခင်	-10.0077
ရှောက်	-10.008
▁လျင်မြန်	-10.0087
▁ကြောက်လန့်	-10.0087
အကြီးအငယ်	-10.0087
▁သင်္ဘောသဖန်းပင်	-10.0087
▁ရှာကြံ	-10.0087
ဖျ	-10.0089
ဝိညာဉ်တော်သည်	-10.0089
▁ချဉ်း	-10.009
▁မိုဃ်းသီး	-10.0093
▁ငွေရတတ်	-10.0094
▁လုပ်ကျွေး	-10.0095
▁ရေချိုး	-10.0101
▁ယောက်ျားမိန်းမ	-10.0107
စေနှင့်ဟု	-10.011
ရှိသလော။	-10.0112
▁သေဘေး	-10.0116
စာတန်	-10.0117
▁နန်းထိုင်၏။	-10.0117
▁လူမိုက်	-10.0119
▁ငါပြ	-10.0122
▁ဧဖရိမ်အမျိုး	-10.0138
နှိပ်စက်	-10.0143
▁တနည်း	-10.0147
ဘမ်းဆီး	-10.0147
ဆီးတား	-10.0148
ပူပန်ခြင်း	-10.0148
▁ထုတ်၍	-10.0153
မခံရ။	-10.0159
နှင့်တူသော	-10.0163
▁ထိုသားကို	-10.0168
▁ကိ	-10.0169
▁ဤသို့ပြု	-10.0176
▁ယော်ဒန်မြစ်တဘက်	-10.0184
▁ထိုအမှုအရာ	-10.0195
ပြောင်းလဲ	-10.0199
▁မိမိမယား	-10.0202
▁အဝတ်တန်ဆာ	-10.0204
ရှေ့တွင်	-10.0206
▁ဒုစရိုက်ကိုပြု	-10.0209
ရွံ့ရှာဘွယ်	-10.0211
သို့ရောက်၍	-10.0211
▁တဆယ်နှစ်	-10.0217
စားပွဲ	-10.0229
ပါစေသောဟု	-10.0236
အပေါင်းတို့၏	-10.024
ဟုတ်	-10.0251
နောင်တ	-10.0251
သိမ်းသွား	-10.0251
ငှာ	-10.026
စားစရာ	-10.0262
ထံတော်က	-10.0267
▁သိတင်းကြား	-10.0271
▁မိုက်သော	-10.0273
အမွေဥစ္စာ	-10.0278
▁အဘယ်သူ၏	-10.029
သောအခွင့်ကို	-10.0298
ဆိုးညစ်	-10.0306
▁ဒါဝိဒ်မင်း	-10.0312
ဆောင်ယူ	-10.0317
လူစု	-10.032
▁အမှုရောက်	-10.032
အရပ်က	-10.0329
တန်ဆာရှိသမျှ	-10.0343
မလွှဲ	-10.0344
▁မိမိအိမ်သို့	-10.0352
▁စေ့စေ့	-10.0363
▁လွင်ပြင်၌	-10.0368
▁သနားခြင်း	-10.0371
▁ငါ့အဘ	-10.0373
▁ခုနှစ်	-10.0374
▁ထိုသို့ပြုလျှင်	-10.038
▁ထိုမြေ	-10.0391
▁ယေဇရေလမြို့	-10.0399
▁ချိန်းချက်သော	-10.0399
လေ့ကျက်	-10.0399
▁ပေရသိ	-10.0399
▁ပြာသောအထည်	-10.0399
▁အကယ်၍	-10.04
▁အစာခေါင်းပါး	-10.04
ကောင်းမွန်	-10.0401
▁အနှစ်လေးဆယ်	-10.0402
▁တာရှု	-10.0402
▁ဥာဏ်ပညာ	-10.0405
▁ဘေးလွတ်	-10.0408
▁တောင်ထိပ်	-10.0408
▁ရှေမ	-10.0412
ခြံ	-10.0412
▁ဘီး	-10.0413
▁အသက်ပျိုသော	-10.0413
သားရဲ	-10.0415
▁အဲဂုတ္တုလူ	-10.042
▁မောရှေကလည်း	-10.0424
သင်္ဘော	-10.0426
▁ရွှေတန်ဆာ	-10.043
သို့ရောက်၍၊	-10.043
လေပြီဟု	-10.0438
▁တရားတွေ့	-10.0448
▁မြို့ထဲမှာ	-10.0456
▁လူတို့၏	-10.0458
▁ခါနာန်	-10.046
အစွမ်းသတ္တိ	-10.0479
သင်္ချိုင်း	-10.0481
နေရာအရပ်	-10.0488
▁ငါတို့သခင်	-10.0493
▁သားငယ်	-10.0495
လှည့်စား	-10.0497
▁အသီးအနှံကို	-10.0505
ကျိန်ဆို	-10.0505
▁ငါတို့အဘ	-10.0505
သုံးထောင်	-10.0505
▁လုပ်၍၊	-10.0509
▁မစောင့်	-10.0514
အတွင်းတွင်	-10.052
▁အမိန့်ရှိ	-10.0528
▁မှတ်သား	-10.053
မနေရ။	-10.0532
▁သုံးနှစ်	-10.0533
ကြောင့်၎င်း၊	-10.054
မိလျှင်၊	-10.0541
▁မြင်သောအခါ၊	-10.0545
ဖြစ်လျှင်၊	-10.0563
ခံတွင်း	-10.0575
ခိုလှုံရာ	-10.0581
နှစ်ပတ်လုံး	-10.0585
▁ရှေးကာလ၌	-10.059
▁ဖြစ်ကြလိမ့်မည်။	-10.0599
▁စားရမည်။	-10.061
လူအပေါင်းတို့ကို	-10.0612
မ္မအမှု	-10.0615
▁ဖာရောဘုရင်၏	-10.0626
▁ပြန်ပြောကြ၏။	-10.0627
သက်သေခံ	-10.0643
▁တောင်ဘက်	-10.0644
▁နက်ဖြန်	-10.0646
▁ပျက်စီးခြင်း	-10.0656
လိမ့်မည်လော။	-10.0659
▁ရှိလိမ့်မည်။	-10.066
▁ဒါ	-10.0674
မြေ၌	-10.068
တရု	-10.0683
ပြုမိသော	-10.0686
သည်နှင့်၊	-10.071
▁ဘိုးဘ	-10.0715
▁နူနာ	-10.0719
နံ့သာ	-10.072
ယေရှဲ	-10.0722
မွှေ	-10.0722
▁ပဥ္စမ	-10.0722
အညစ်အကြေး	-10.0722
▁နေ့ညဉ့်မပြတ်	-10.0722
▁လက်စသတ်	-10.0722
ဗာနဗ	-10.0722
ဆုတောင်းပဌနာပြု	-10.0722
▁သူ့မယားကို	-10.0723
▁အဘယ်မျှလောက်	-10.0724
သူမည်သည်ကား၊	-10.0725
▁စပါးရိတ်	-10.0725
▁ခြေနင်း	-10.0727
▁ဝိုင်းထား	-10.0728
▁အသစ်သော	-10.0728
▁ငါ့ဆီသို့	-10.0734
▁အားလျော့	-10.0735
▁အာခတ်	-10.0737
▁အဘယ်သို့နည်း။	-10.0739
▁ယောန	-10.0751
▁သိရကြလိမ့်မည်။	-10.0755
▁ကမ်း	-10.0759
▁မျက်နှာတော်	-10.0761
ိရှဲ	-10.0764
သုံးပါး	-10.0771
▁ထိုအပင်	-10.0775
ဦးမည်ဟု	-10.0787
လက်ျာဘက်၌	-10.0791
မည်အကြံ	-10.0792
အမွေခံ	-10.0797
▁မွှေးကြိုင်သော	-10.08
မိဘ	-10.0803
သတ္တဝါ	-10.0806
အနား၌	-10.081
စပြု	-10.0811
မိုဃ်းလင်း	-10.0812
ကိုယ်စား	-10.0814
ဟုဆိုလျှင်၊	-10.0816
▁ဝမ်းနည်းခြင်း	-10.0816
▁အပြစ်ပေး	-10.0817
▁အံ့ဘွယ်သောအမှု	-10.0823
ပြင်းစွာ	-10.0825
ယွာဘ	-10.0826
အိပ်ပျော်	-10.0826
မာန	-10.083
ကျိန်ဆိုခြင်းကို	-10.0831
▁နေထွက်	-10.0832
▁ရှိမိ	-10.0837
ပါလိမ့်မည်ဟု	-10.0841
မာရိ	-10.0844
တိုက်မြစ်	-10.085
▁သင့်ကိုငါ	-10.0862
ခံယူ	-10.0874
▁မင်္ဂလာရှိ၏။	-10.0888
ကြလိမ့်မည်	-10.0894
▁ကာလက်	-10.0896
▁ကော	-10.0912
ှက်	-10.0913
▁ခံရကြလိမ့်မည်။	-10.0917
ခုတင်	-10.0919
လော။	-10.0948
▁ညှဉ်းဆဲခြင်းကို	-10.0955
▁ကျိန်ဆိုတော်မူ	-10.0956
ကဲ့သို့ဖြစ်၍၊	-10.0971
ပ္ပ	-10.0973
▁မင်းများ	-10.0973
▁ခွန်အားကြီး	-10.0976
▁တနေ့	-10.0984
▁ယောယကိမ်	-10.1003
▁မတရားသောသူသည်	-10.1006
အိမ်မှ	-10.1009
သောသူသည်လည်း	-10.1024
ပြန်သွား	-10.1027
ဖြစ်လိမ့်မည်ဟု	-10.1044
ပသခါ	-10.1049
▁သူ၏သားတို့သည်	-10.1049
ထောင်လွှား	-10.1054
ရင်ခွင်	-10.1055
▁စူးစမ်း	-10.1055
▁ဧကန်အမှန်	-10.1055
▁တွားတတ်သော	-10.1055
▁တသက်လုံး	-10.1055
▁အာရှရပင်	-10.1055
▁အာမဇိ	-10.1055
ကိုအမှီပြု၍	-10.1055
▁ဗာလက်မင်း	-10.1055
▁တနှစ်	-10.1055
▁လင်ပန်း	-10.1058
နှင့်ကင်းလွတ်	-10.1058
မင်းကြီးတပါး၊	-10.1061
▁ငါထာဝရဘုရားသည်	-10.1062
ကြီးမား	-10.1063
▁ရေးထားလျက်ရှိ၏။	-10.1066
▁သစ္စာပျက်	-10.1068
ဝါး	-10.1071
▁ကျောက်ကပ်	-10.1074
▁ဒဏ်ခတ်တော်မူ	-10.1081
▁ငါ့ဆီသို့ရောက်	-10.1083
မှစသော	-10.1087
သက်သာခြင်း	-10.1093
ဖြည့်	-10.1097
▁အလုပ်လုပ်	-10.1097
▁နေရစ်	-10.1117
သည်းခံ	-10.1119
▁ဆုံးမတော်မူ	-10.1119
▁အကျိန်	-10.1123
ဘမ်း	-10.1125
▁ရှင်ဘုရင်အရာ၌	-10.1128
▁ဘုရားအား	-10.1129
အရပ်ဌာန	-10.1144
▁မိုဃ်းရေ	-10.1144
လည်းရှိ၏။	-10.1152
▁လေဗနုန်တောင်	-10.1166
တပိုင်း	-10.1172
ဖြန့်	-10.1173
သီချင်း	-10.1174
လွှမ်းမိုး	-10.1175
ခေါ်ဝေါ်	-10.1181
ချည်နှောင်	-10.1182
ပယ်ရှား	-10.1183
▁ပြုတော်မူသော	-10.1183
ကုလားကာ	-10.1184
ကြေး	-10.1185
လတွင်	-10.1185
သဖြင့်၎င်း၊	-10.1185
ဂုဏ်အသရေ	-10.1186
သည်မှာ၊	-10.1189
တည်ဆောက်	-10.1192
▁ဤလူတို့	-10.1195
မသောက်	-10.1199
နှစ်ဦး	-10.1204
စီရင်ထုံးဖွဲ့	-10.121
အတွင်းသို့	-10.1219
မေရ	-10.1222
ကျေးဇူးပြု	-10.1228
များနှင့်တကွ	-10.1235
တဲတော်	-10.1236
လား	-10.1252
▁သူ့အား	-10.1257
▁စောင့်နေ	-10.1258
▁နော	-10.128
မရှိလျှင်၊	-10.1291
▁မိမိလူတို့ကို	-10.1292
▁အသက်ရှင်ခြင်း	-10.1298
ခပ်သိမ်းတို့	-10.1298
စစ်တိုက်ခြင်းငှါ	-10.131
အလုံး	-10.1314
▁လူတို့တွင်	-10.1314
ထသော၊	-10.1329
▁ရွံ့	-10.1351
သိန်း	-10.1353
ဆိုသည်အတိုင်း	-10.1354
ပြသ	-10.136
▁ထိုသူနှစ်ယောက်	-10.1372
ကိုထောက်၍	-10.1373
သားသမီးတို့သည်	-10.138
ကြားလျှင်	-10.1381
▁ပြေးကြ၏။	-10.1389
▁သွန်	-10.1396
▁များပြားစေ	-10.1397
ပရိယာယ်	-10.1399
ပျင်းရိ	-10.14
ပါတကား။	-10.14
ဟိလခိ	-10.14
အာမနုန်	-10.14
▁ကာဣန	-10.14
မွန်းတည့်	-10.14
▁တညဉ့်လုံး	-10.14
ပါလေစေ။	-10.14
▁ရွှေလင်းတ	-10.14
တော့။	-10.1402
နှင့်ယှဉ်သော	-10.1403
▁စာရင်းယူ	-10.1406
▁မီးဖြင့်ပြုသော	-10.1406
▁အဘယ်သူနည်း။	-10.141
စဖူး	-10.141
ပေးမည်ဟု	-10.1411
▁ပြေးသွား	-10.1411
ဖို့	-10.1414
ဇိအုန်သတို့သမီး	-10.1415
▁ညီအစ်ကိုချင်း	-10.1416
▁အချုပ်ခံ	-10.1417
▁ရွှင်လန်းစွာ	-10.1417
▁လျှောက်ထား	-10.142
ကြလော့	-10.1421
မွတ်သိပ်ခြင်းဘေး	-10.1424
▁မိမိအဘ	-10.1426
ရှိပါ၏ဟု	-10.1427
▁လမ်းပြ	-10.1433
ဘူးသလော။	-10.1435
နိုင်မည်နည်း။	-10.1435
▁အစဉ်အတိုင်း	-10.1436
▁ဘေးရောက်	-10.144
ပါနှင့်ဟု	-10.1441
▁ရှင်ဘုရင်အား	-10.1442
▁အလျောက်	-10.1444
▁သင်၏အမျိုးအနွယ်	-10.1447
အနာကို	-10.1452
▁ငို	-10.1453
▁ထိုနေ့	-10.1453
▁ထာဝရအရှင်	-10.1454
▁အောင်မြင်	-10.1464
▁ဧလာ	-10.1486
ရှေ့တော်မှာ	-10.1487
▁ဇိအုန်	-10.1493
တသိန်း	-10.1494
▁တောင်ပေါ်သို့	-10.1515
ရုသ	-10.1518
▁သတိရ	-10.1522
▁လေဝိအမျိုး	-10.1527
ချဉ်းကပ်၍၊	-10.1529
ခိုလှုံ	-10.1531
နှောင့်ရှက်ခြင်း	-10.1533
▁ငါဟောပြော	-10.1536
ပဌနာ	-10.1549
ဖြောင့်	-10.1551
မေ့လျော့	-10.1552
▁သင့်အဘို့	-10.1554
▁တိရစ္ဆာန်များ	-10.1555
နားသို့	-10.1568
ပျ	-10.157
စောင့်ရှောက်	-10.1577
▁ဧဖရိမ်တောင်	-10.1578
ကျောက်ပြား	-10.1581
▁ဂုဏ်	-10.1597
ဘတ်	-10.1617
ယို	-10.1622
ပါသနည်းဟု	-10.1632
▁လေဗနုန်	-10.1639
ပွဲခံ	-10.165
▁နန်းထိုင်	-10.1658
ထုတ်၍	-10.1662
▁ခပ်သိမ်း	-10.169
လိပ်	-10.1699
အပ်ပေး	-10.1704
▁ထိုသို့ငါ	-10.171
▁ဖြည်	-10.1713
ကြီးမင်္ဂလာကို	-10.173
မယုံ	-10.1732
▁ရောက်သောအခါ	-10.1742
မိုဃ်းသက်မုန်	-10.1757
ရောင်ခြည်	-10.1757
▁ကာမဂုဏ်	-10.1757
▁မောင်းသောအထည်	-10.1757
ကျော့မိ	-10.1757
▁မွမ်းမံ	-10.1757
ရာမုတ်မြို့	-10.1757
နှင့်အလျောက်	-10.1757
▁ကောင်းမွန်စွာ	-10.1757
▁လှည်း	-10.1758
အမှိုက်	-10.1759
▁ဒုက္ခဆင်းရဲ	-10.176
▁နေ့အချိန်၌	-10.1761
စုံမက်	-10.1761
▁လျော်	-10.1762
▁လျှောက်ကြသော်၊	-10.1763
▁ထုလုပ်	-10.1763
လေပြီတကား။	-10.1764
ခန့်မျှ	-10.1767
▁နာသန်	-10.1768
▁ဒါဝိဒ်က	-10.1768
▁ရာမမြို့	-10.1769
အရည်	-10.1773
▁အကြင်သူ	-10.1775
ယေရုရှလင်မြို့	-10.1778
▁တဖန်ထာဝရဘုရား၏	-10.1781
လေ့ရှိ၏။	-10.1783
▁သိုးထီးတကောင်	-10.1786
နန်းတော်	-10.1787
▁ဧလံ	-10.1793
▁ထိုတရား	-10.1795
▁ငါပြုမည်။	-10.1798
နှစ်ထောင်	-10.1804
▁သင့်လက်၌	-10.1807
▁အလွန်သန့်ရှင်း	-10.1816
ခုနစ်ရာ	-10.1819
▁လာသတည်း။	-10.1819
▁ငါကြား၏။	-10.1824
▁အဘယ်မည်သော	-10.184
လွှဲ၍	-10.1848
▁ရေတွက်၍	-10.1863
ဦးလော့။	-10.1892
▁မွတ်သိပ်	-10.1898
▁ဆင်းရဲခံရ	-10.1902
▁ငါ့စကား	-10.1925
အထွ	-10.1926
ဆည်းကပ်	-10.1934
အနည်းငယ်	-10.1935
အိုင်	-10.1935
အစိုးရ	-10.1937
ပုန်ကန်	-10.1938
▁ဗာရှန်ပြည်	-10.1938
နားမထောင်	-10.1939
သိုးသငယ်	-10.1939
မွေလ	-10.194
▁ပညတ်တော်တို့	-10.1942
တပြား	-10.1942
▁မပြစ်မှား	-10.1943
▁စောင့်မတော်မူ	-10.1966
▁အလွန်ကြီး	-10.1979
အကျွန်ုပ်အသက်ကို	-10.1982
▁ဂိလဂါလမြို့	-10.2017
ပြစ်ဖြေရာယဇ်ဘို့	-10.2041
မြို့သူမြို့သား	-10.2044
မပေးဘဲ	-10.2049
မသိကြ။	-10.2049
▁တယောက်သောသူ	-10.2053
▁သူကြီး	-10.2055
▁ပူဇော်သက္ကာပြု	-10.2059
▁သင်္ဂြိုဟ်ခြင်း	-10.2062
▁ငယ်သား	-10.2062
▁တဆေး	-10.2064
▁ရှေးကာလ	-10.2078
ာတိုက်	-10.2082
▁သားမြေးတို့	-10.2094
▁စာရေးတံ	-10.2116
▁သန့်ရှင်းသူတို့	-10.2127
▁ချောင်းမြောင်း	-10.2127
▁ချော့မော့	-10.2127
▁ရက်ကန်း	-10.2127
▁လုယက်	-10.2127
အခက်အလက်	-10.2127
▁လျှော်တေအဝတ်ကို	-10.2127
ကျယ်ဝန်း	-10.2128
▁စစ်သူကြီး	-10.2128
▁နဂါး	-10.2128
ကုန်သွယ်	-10.2128
▁ဂါသမြို့	-10.2128
ဗာရုတ်	-10.2129
▁ရှိလောမြို့	-10.213
▁မဟုတ်လောဟု	-10.213
သည့်အတိုင်း	-10.213
ကျေးလက်	-10.2131
▁ကန့်လန့်ကျင်	-10.2131
▁ကြောက်မက်ဘွယ်	-10.2139
▁အကျိုးအပြစ်ကို	-10.2144
အပြစ်များကို	-10.2148
ပြုရသော	-10.2149
ပြိုလဲ	-10.215
သွားသောလမ်း	-10.2153
လမြို့၊	-10.2154
▁ပြို	-10.2159
ဆစ်	-10.2167
▁သူခိုး	-10.2175
ခြင်းကျေးဇူးကို	-10.2176
ခုနစ်ပါး	-10.2177
▁ထိုညဉ့်	-10.2177
မာခါ	-10.2179
▁ခံရကြမည်။	-10.2187
▁မမြင်ရ	-10.2189
▁ကာလအချိန်	-10.2195
▁စောင့်ရသော	-10.2197
▁လူတယောက်သည်	-10.2198
▁ထိုသူအပေါင်း	-10.22
▁ခါလဒဲလူတို့	-10.2202
မြေး	-10.2204
▁ကိုယ်အသက်ကို	-10.2208
▁ချထား	-10.2219
ပြီလော။	-10.2221
▁နှစ်သိမ့်စေ	-10.2221
▁အဘိယ	-10.2228
နေသည်ကို	-10.2237
လေဝိသားတို့	-10.2245
▁ဤရွေ့ကား	-10.2258
▁အာဣမြို့	-10.2259
▁မေးတော်မူ၏။	-10.226
▁ပြန်ကြား	-10.2265
ပြောသောစကား	-10.2268
မျက်	-10.227
▁လူအများ	-10.2271
▁ထိုသို့ဆိုသော်	-10.2272
▁ကိုယ်တော်ထံသို့	-10.2281
ရှိပါသည်ဟု	-10.2289
များကြောင့်	-10.2298
▁စီရင်တော်မူချက်	-10.2299
▁လူဆိုးတို့	-10.2308
▁အကြံပေး	-10.2328
ဘုရင်	-10.233
ကြောင်းကို၎င်း	-10.2333
▁ဂိဗောင်မြို့	-10.2335
လှုပ်ရှား	-10.2335
မြဲမြံ	-10.2335
အာဏာ	-10.2336
ကွပ်မျက်	-10.2337
မမြင်ရ။	-10.2347
ပို့ဆောင်	-10.2348
▁သူ၏စကားကို	-10.236
▁တပါးအမျိုး	-10.2363
▁ထားတော်မူသော	-10.2369
ဝတ်လျက်	-10.2397
▁ရှမာရိမြို့၌	-10.241
▁စက်ဆုပ်ရွံ့ရှာ	-10.241
ရှိသေး၏။	-10.2413
အချိန်ရှိသော	-10.2418
ခြင်းဘေး	-10.2423
▁လေအာ	-10.2432
ယူပြီးလျှင်	-10.2435
▁ပရောဖက်ပြု၍	-10.2437
▁ငါတို့အဘို့	-10.2439
ပွဲသို့	-10.2443
ရာလမ်း	-10.2443
ခုနစ်လုံး	-10.2455
တပ်မက်ခြင်း	-10.2466
▁ခါနာန်ပြည်၌	-10.2469
ဝမ်းမြောက်ခြင်း	-10.2469
▁လွှတ်တော်မူ	-10.2473
▁သံလွင်	-10.2474
▁ဟေဗြုန်	-10.2474
▁အကြည့်အရှု	-10.2475
အရှေ့	-10.2481
ခွာ	-10.2481
ငြိမ်းစေ	-10.2483
▁ဆိတ်သငယ်	-10.2494
▁အကြောင်းမူ	-10.2502
ရိပ်	-10.2505
မြှောက်	-10.2511
ချွေးမ	-10.2512
စိမ့်သောငှါ	-10.2512
မိတ်ဆွေ	-10.2512
ရိက္ခာ	-10.2512
▁ကိုယ်ရံတော်မှူး	-10.2512
▁အဗျာသာ	-10.2512
▁အရှက်ခွဲ	-10.2512
▁ဒိုင်းလွှား	-10.2512
▁ငါအမှန်အကန်ဆို	-10.2512
▁လမ်းလွဲ	-10.2512
▁နီသောအထည်	-10.2512
▁လွင့်	-10.2512
ရပါမည်နည်း။	-10.2513
▁တဆေးမဲ့	-10.2513
▁သားယောက်ျားကို	-10.2514
ပါသည်တကားဟု	-10.2514
▁ဆား	-10.2515
သောသူမည်သည်ကား	-10.2521
ချွတ်၍	-10.253
▁မိမိခင်ပွန်း	-10.2541
▁ထားပြ	-10.2544
▁ဂုဏ်ကျေးဇူးတော်	-10.2545
ာတ်	-10.2552
လိမ့်မည်နည်းဟု	-10.2563
အမှုကြောင့်	-10.2571
▁ဤပြည်၌	-10.2575
▁ဘုရားရှင်	-10.2577
▁တနိုင်ငံ	-10.2578
▁အသေခံရ	-10.2584
▁ရှေလ	-10.2587
သခင်ယေရှုခရစ်၏	-10.2598
▁ဖြစ်လတံ့သော	-10.2599
▁အထံတော်	-10.2601
လွှတ်လိုက်	-10.2601
▁ဤမိန်းမ	-10.2611
ကြပါလော့။	-10.2613
▁ယော်ဒန်မြစ်နား	-10.2613
ကိုမြင်လျှင်	-10.2615
အရေဖျားလှီးခြင်း	-10.2617
▁ခြေတော်	-10.2622
▁အခွင့်ရှိ၏။	-10.2624
▁ငါ့ညီ	-10.2648
ခြင်းအခွင့်ကို	-10.2651
▁ထိုသူငယ်	-10.2651
▁ကြားသောအခါ၊	-10.2671
မြို့တည်း။	-10.2679
ဥစ္စာရှိသမျှကို	-10.2683
▁အမင်္ဂလာရှိ	-10.2685
▁နားထောင်လော့။	-10.2699
▁ထိုသူတို့အား	-10.271
▁တည်နေ	-10.2714
▁နှစ်ပေါင်း	-10.273
ခုနစ်ထောင်	-10.2733
▁အမွေး	-10.2734
စီရင်ချက်	-10.2734
န်မြို့၊	-10.2749
အပ်နှံ	-10.2753
သင်္ဂြိုဟ်	-10.2754
ဣဇာက်	-10.2754
ယောသပ်	-10.2756
လူအပေါင်းတို့အား	-10.2759
သက်သက်ဖြစ်	-10.2761
စစ်တိုက်	-10.2775
တန်ဆာများကို	-10.2778
သွန်း	-10.2786
▁ရှာလ	-10.2792
▁သင့်နေရာ	-10.2804
နာမတော်ကို	-10.2805
ဘုန်းအာနုဘော်	-10.2819
တော့	-10.2829
ပူပန်	-10.2832
သန့်ရှင်းစေ	-10.2834
စောင်း	-10.2834
ရှောက်သွား	-10.2868
▁ဖိလိတ္တိမင်း	-10.2886
ဌ	-10.2889
▁မျက်စိကန်း	-10.2889
ရွံ	-10.2896
ဗင်္ဟာဒဒ်	-10.2912
ကောက်နယ်တလင်း	-10.2912
▁ကဲသာဘုရင်	-10.2912
▁အပြစ်တင်ခွင့်	-10.2912
နှာခေါင်း	-10.2912
▁မစိုးရိမ်နှင့်။	-10.2912
▁ကိရယ	-10.2912
▁မိုက်မဲ	-10.2912
▁ယေဖသ	-10.2912
▁ဆန်စပါး	-10.2912
▁ငြင်းဆန်	-10.2912
▁အငယ်ဆုံးသော	-10.2912
မာသေယ	-10.2912
▁လက်ျာလက်တော်	-10.2913
ပျော်	-10.2913
▁ဗျာဒိတ်ရူပါရုံ	-10.2913
သာသနာ	-10.2913
▁တခါမျှ	-10.2913
▁ရှိဟုန်	-10.2913
▁လိဗန	-10.2914
သာယာ	-10.2914
▁လောဘ	-10.2914
▁နောင်ကာလ၌	-10.2915
▁လယ်ယာ	-10.2917
▁လူဆိတ်ညံရာ	-10.292
▁စိတ်မပျက်	-10.2922
▁အခွန်ခံ	-10.2923
▁ချပစ်	-10.2923
▁ပင်ပန်းစွာ	-10.2923
မှတ်မိ	-10.2927
▁လွှဲသွား	-10.2927
▁အရှေ့မျက်နှာ	-10.293
▁အိမ်ရှင်	-10.2937
▁အပြစ်ဖြေ	-10.2947
ဗာလ	-10.2952
▁အပြစ်လွှတ်	-10.2955
▁အလျင်	-10.2962
▁ယောရှိမင်း	-10.2966
▁သင်တို့ဆီသို့	-10.2971
▁သွင်းထား	-10.2985
▁ခိုင်မာစေ	-10.2988
▁ယောက်ျားပေါင်း	-10.2989
ချစ်တော်မူ	-10.2991
ခိုက်	-10.2995
အောက်သို့	-10.2995
▁ကိုင်လျက်၊	-10.3001
ယုံ	-10.3001
▁ထိုပရောဖက်	-10.3008
▁ဆုံးမခြင်းကို	-10.301
▁မှား	-10.3024
ယုဒလူ	-10.3025
ရွာသို့	-10.3026
▁ဆိုးညစ်သော	-10.3033
▁ကျမ်းပြုဆရာတို့	-10.3034
ဖြစ်သတည်းဟု	-10.3038
▁သင်ပြုသော	-10.304
▁သတ္တမလ	-10.3052
ခြေရင်း၌	-10.306
▁အိုအရှင်	-10.3065
ချီ၍	-10.3076
ထံသို့လာ၍	-10.3087
▁ကောင်းသောအကျင့်	-10.3095
▁ဗာရှန်	-10.3121
တော်မူပါစေသောဟု	-10.3126
ကြပါဟု	-10.3128
▁အဝေးက	-10.3133
မှာလိုက်	-10.3139
ရာအရပ်သို့	-10.314
ပြစ်မှားပါပြီ။	-10.3142
ပါပြီ	-10.3142
▁အစ်ကိုတို့	-10.3143
ဆွ	-10.3168
▁ဇေဒကိမင်း	-10.317
မြှား	-10.3186
မှည့်	-10.3187
ပျော်မွေ့	-10.3187
နိမိတ်လက္ခဏာ	-10.3188
အိမ်နီးချင်း	-10.3188
မှောင်မိုက်	-10.319
ကယ်လွှတ်	-10.3191
ဖန်ဆင်းတော်မူသော	-10.3199
ပင်ပန်း	-10.3207
▁ဝမ်းနည်း	-10.3219
လှေ	-10.3224
▁လွန်ကျူးခြင်း	-10.3242
▁ကျယ်သော	-10.3243
▁တည်လုပ်	-10.3253
▁ချီးမွမ်းခြင်း	-10.3268
တိုင်ပင်	-10.3272
ာယ၊	-10.3314
▁ငွေအခွက်	-10.3315
ျဉ်း	-10.3322
ထောမနာ	-10.3328
မိန်းမစိုး	-10.3329
တီးမှုတ်	-10.3329
မြှုပ်	-10.3329
သပိတ်ပင်	-10.3329
▁ကြည်ညိုသော	-10.3329
▁ဖိနဟတ်	-10.3329
▁ဗေရရှေဘ	-10.3329
▁သောငှါ	-10.3329
▁လိမ္မာသော	-10.3329
▁လောဗန်	-10.3329
▁ဟာဇေလ	-10.3329
ဧလျာဘ	-10.3329
▁လွတ်လပ်	-10.3329
သူဌေး	-10.3329
▁ပြတင်းပေါက်	-10.3329
▁အဟိယ	-10.3329
▁ငါအလိုရှိ၏။	-10.3329
▁မျက်ရည်ကျ	-10.3329
▁မိဘမရှိသောသူ	-10.333
▁ဧဒုံပင်လယ်	-10.333
▁ထိုကာလအခါ	-10.333
ပေါ်လာ	-10.333
▁စွန်ပလွံပင်	-10.3332
▁လိမ်း	-10.3332
▁တောသားရဲ	-10.3333
▁အာရဇ်ပင်	-10.3335
စ္စ	-10.3336
▁အပိုင်ပေး	-10.3336
ပုံသဏ္ဌာန်	-10.3338
လောက်အောင်	-10.3343
▁အာသပ်	-10.3344
▁တောင်းလျှောက်	-10.3348
▁နံနက်တိုင်အောင်	-10.3349
▁ဘမ်းမိ	-10.336
▁ဒေါသအမျက်	-10.3362
ပါသတည်း။	-10.3363
▁ထာဝရအသက်ကို	-10.3377
ဘဲနေလျှင်	-10.3388
▁တယော	-10.3395
ခြင်းကိုပြု	-10.3399
အမျိုးအစဉ်အဆက်	-10.3399
ဟူမူ	-10.3407
▁လူတထောင်	-10.3414
▁ဟေရုဒ်	-10.3414
▁စာရာ	-10.3417
မပါဘဲ	-10.3417
ကင်းလွတ်	-10.3421
▁ပဌမလ	-10.3424
ဆိုင်သနည်း။	-10.3436
သံလွင်ပင်	-10.3438
▁ဘုရားရှေ့တော်၌	-10.3441
နှစ်ကြိမ်	-10.3452
နှင့်ပြည့်စုံ၍	-10.3458
▁လွန်စေ	-10.3465
တည်းဟူ	-10.3469
တော်မူမည်လော။	-10.3474
▁သင်တို့ရှိသမျှ	-10.3477
ဒက်	-10.3486
▁တိမ်	-10.3499
ညံ့	-10.3525
သို့မရောက်	-10.3527
ောနိ	-10.355
သည်တကား။	-10.3551
▁မေးတော်မူ	-10.3554
▁မွတ်သိပ်ခြင်း	-10.3565
ခဲ့ပြီး	-10.3565
▁ဝမ်းမြောက်စရာ	-10.3566
အားဆိုလျှင်၊	-10.3577
ဆုကျေးဇူး	-10.359
ခြင်းရှိကြလော့။	-10.3593
▁မြော်လင့်ခြင်း	-10.3636
ယောရှဖတ်	-10.3642
▁အမှီပြု	-10.367
▁ဝတ်လုံ	-10.3673
ပြီတကား။	-10.368
▁ပညာရှိသောသူ	-10.3685
သစ်ပင်	-10.3696
▁ဟိတ္တိ	-10.37
လေးထောင်	-10.3711
▁ဆင်းသွား	-10.3719
▁ဦးချ	-10.3726
မြွေ	-10.3729
ပြောစရာ	-10.3743
▁ပုန်း	-10.3748
ယုဒရှကာရုတ်	-10.3764
▁မေရှုလံ	-10.3764
တိုင်းအပြည်ပြည်	-10.3764
▁ဂေရရှုံ	-10.3764
▁အက္ခရာတင်	-10.3764
▁အမှတ်တမဲ့	-10.3764
▁အာရွှေရု	-10.3764
ကြော်ငြာ	-10.3764
ပြညွှန်	-10.3764
▁တရားဆုံးဖြတ်	-10.3764
▁မြေခွေး	-10.3764
▁အပိုင်းပိုင်း	-10.3764
▁အဦးသီးသော	-10.3764
ရပါမည်နည်းဟု	-10.3764
▁ယောရံ	-10.3764
▁ကျပ်ကျပ်	-10.3764
ပါရစေဟု	-10.3764
▁ခန်းခြောက်	-10.3764
ကြိမ်လုံး	-10.3764
▁ဟာဂရ	-10.3764
▁တနေ့ခြင်းတွင်	-10.3764
နာဗုတ်	-10.3764
အပေါင်းအသင်း	-10.3765
▁မာနထောင်လွှား	-10.3765
▁သနားစုံမက်	-10.3765
ရင်ပတ်	-10.3768
အရာတို့သည်	-10.377
▁သိသရ	-10.3772
▁သောဒုံမြို့	-10.3772
▁အခွင့်တောင်း	-10.3775
▁စိတ်နှိမ့်ချ	-10.3776
▁ရဲရင့်စွာ	-10.3777
▁သူ့နောက်မှ	-10.3778
▁စိတ်အားကြီး	-10.3779
▁မီးခဲ	-10.3785
ခေါင်းပါး	-10.3786
▁လူသတ္တဝါ	-10.3788
▁ဝက်	-10.3792
▁ဖြူသော	-10.3797
▁သိုးတကောင်	-10.3799
ယှဉ်	-10.38
▁ယေဗုသိလူ	-10.3803
▁ကျင့်စောင့်	-10.3807
မည်ဟူ၍၎င်း၊	-10.3816
▁ငါကျိန်ဆို	-10.3827
▁သု	-10.3828
▁စားရကြမည်။	-10.3828
▁ညဦးယံ၌	-10.3833
စေ့သောအခါ၊	-10.3833
မြည်တမ်းခြင်းကို	-10.384
▁မြော်လင့်စရာ	-10.3848
ရှိစေသတည်း။	-10.386
လာကြ။	-10.3864
▁စုဝေး၍	-10.3864
▁မိမိလူမျိုး	-10.3864
▁ပြပ်ဝပ်၍	-10.3867
အရာမှာ၊	-10.3891
စာလိပ်	-10.3897
▁သစ္စာရှိ	-10.3906
မျက်စိမြင်	-10.3909
▁မယ်တော်ကား	-10.3916
▁လျ	-10.3921
▁ဗေသလ	-10.3955
မင်္ဂလာရှိ	-10.3992
▁အကြောင်းမူကား	-10.4003
မြင်ရသော	-10.4021
ကြီးမြင့်	-10.403
ယောက်တည်း။	-10.4032
ဖြစ်ဘူးသော	-10.4039
▁ကူးသွား	-10.4068
မည်အကြောင်းတည်း။	-10.407
အစဉ်အမြဲ	-10.4097
▁ကောင်းသောအမှု	-10.4102
ဟစ်ခေါ်	-10.4106
သွန်းလောင်း	-10.4119
သိုထား	-10.4122
ရေကန်	-10.4128
ယောရှု	-10.4133
သိုးစု	-10.4134
သောင်းငါးထောင်	-10.4162
စကားတော်ကို	-10.4162
▁အမ္မုန်ပြည်	-10.4173
တွေ့မြင်	-10.4175
ပြုလေရာရာ၌	-10.4187
▁ကျောက်ခဲနှင့်	-10.4193
တယောက်က၊	-10.4194
သဘောရှိ၏။	-10.4198
လွှ	-10.4212
▁မြက်	-10.4214
ပြင်းထန်	-10.4217
▁တစုံတခုမျှ	-10.4218
ယဟောရံ	-10.4218
ကျင့်ကြံပြုမူ	-10.4218
တိမောသေ	-10.4218
ဝေငှ	-10.4218
▁ထူထပ်သော	-10.4218
▁လာဇရု	-10.4218
▁ဂေဒလိ	-10.4218
▁တတ်စွမ်းနိုင်	-10.4218
ရည်ဆောင်၍	-10.4218
▁အကဲအမှူး	-10.4218
▁ကိုယ်ဝန်ဆောင်	-10.4218
▁အမှန်ခံရမည်။	-10.4218
▁အထီး	-10.4218
▁ကျော်နင်း	-10.4218
▁မြို့ဝန်မင်း	-10.4218
ကာလနာဘေး	-10.4218
တခွန်း	-10.4218
▁သင်းအုပ်	-10.4218
▁ကျန်ရစ်	-10.4218
▁ဝေဖန်	-10.4218
▁အထုံးအဖွဲ့တော်	-10.4219
▁ဇာတိ	-10.4219
ကြိမ်မြောက်အောင်	-10.4219
▁ဇိဖ	-10.422
▁အမှုတော်ထမ်း	-10.4221
ခိုင်ခံ့သောမြို့	-10.4222
▁သင်နှင့်သင်၏	-10.4222
▁လူဆိတ်ညံလျက်	-10.4224
▁ငါချစ်သော	-10.4224
▁မေးလျှောက်သော်၊	-10.4227
▁စေတနာစိတ်နှင့်	-10.4227
▁မမှန်သော	-10.4227
▁မိုဃ်းပွင့်	-10.4228
တရာနှစ်ဆယ်	-10.4233
▁အဘယ်သူနည်းဟု	-10.4234
▁ဝပြော	-10.4237
▁ကျွန်ယောက်ျား	-10.4239
▁သူ့ဥစ္စာကို	-10.4247
▁သိမှတ်ကြလော့။	-10.425
▁ဖက်	-10.4254
▁ရန်တွေ့	-10.4259
▁အလွန်ဝမ်းမြောက်	-10.426
▁အလျားအတောင်	-10.4272
▁ခိုင်မာသော	-10.4283
▁အရှင်ထာဝရ	-10.4288
▁ရွေးယူ	-10.4292
▁ကိုယ်တော်၏ကျွန်	-10.4295
ဝတ်လုံကို	-10.4298
▁အချိန်ကာလ	-10.4306
နောမိ	-10.431
ရသောအခွင့်ရှိ	-10.4315
ပြစ်မှားခြင်း	-10.4317
▁စိမ်းသော	-10.432
▁ပြည့်စေ	-10.4324
▁ငါ့မျက်နှာကို	-10.4335
ထားခဲ့	-10.4336
▁ပိတ်ထား	-10.4338
ငါးရက်	-10.4344
ဆုကို	-10.4366
▁ဤပညတ်	-10.438
ရာဇပလ္လင်ပေါ်မှာ	-10.4386
▁ယုံကြည်သောသူ	-10.4386
ချုပ်ထား	-10.4406
▁ပြစ်မှားမိ	-10.4414
မှတ်တိုင်	-10.4414
ဆီမီး	-10.4423
ချစ်သူတို့	-10.4453
မတွေ့။	-10.4492
တယောက်ရှိ၏။	-10.4496
▁အသက်နှစ်ဆယ်	-10.4508
▁မင်္ဂလာဆောင်	-10.4513
ကြားရသော	-10.4535
▁အိုထာဝရ	-10.4535
▁မချဉ်း	-10.4566
▁ဆည်းဖူး	-10.4596
▁မထီမဲ့မြင်	-10.4607
အင်္ဂါ	-10.4616
နောက်တော်သို့	-10.4617
ဒံယေလ	-10.4618
ထမ်းဘိုး	-10.4618
ကျိန်ဆဲ	-10.4621
သန့်ရှင်းရာဌာန	-10.4621
ကြွေးကြော်	-10.4621
အိပ်မက်	-10.4624
မေးသော်၊	-10.4633
ရွေးနှုတ်	-10.4636
အစဉ်အမြဲတည်	-10.4641
နိုင်မည်အကြောင်း	-10.4644
ိဖုရား	-10.465
ကိုက်စား	-10.4653
အလျှင်းမရှိ	-10.4664
▁ချီလာ	-10.4685
▁တရားသောအမှု	-10.469
တတ်သကဲ့သို့	-10.4693
နံနက်စောစော	-10.4694
▁ကြဉ်ရှောင်	-10.4694
▁နိစ္စထာဝရ	-10.4694
▁အငြိုး	-10.4694
ဖေါက်ပြန်	-10.4694
လျှက်	-10.4694
▁ကျပ်တည်းစွာ	-10.4694
▁ထိုခဏခြင်းတွင်	-10.4694
▁ယုဘိလနှစ်	-10.4694
▁အကျပ်တော်အလိုက်	-10.4694
▁အာမင်ဟု	-10.4694
▁ဥဖရတ်မြစ်	-10.4694
မိစ္ဆာ	-10.4694
▁ခေါ်ဘိတ်	-10.4694
▁ရှေးဦးစွာ	-10.4694
▁ဧလကာန	-10.4694
▁နုန်၏သား	-10.4694
▁အိုဘုရားရှင်	-10.4694
▁မင်းအရာရှိ	-10.4694
▁နံနက်စောစောထ၍	-10.4694
▁နာဗလ	-10.4694
အရာကြွင်းလေသမျှ	-10.4695
▁ဂျုံစပါး	-10.4695
▁အာမုတ်	-10.4695
▁ထိုနေ့ခြင်းတွင်	-10.4695
▁လက်ကိုဆန့်	-10.4696
▁ကိုယ်လက်နှင့်	-10.4698
▁ညဉ့်အချိန်၌	-10.4698
▁နူနာစွဲ	-10.4698
နည်းဥပဒေသ	-10.4699
လွှဲရှောင်	-10.47
▁စေသော။	-10.47
▁ဗိုလ်ချုပ်မင်း	-10.47
စိုးရိမ်ကြနှင့်။	-10.4701
▁ပမာဏမပြု	-10.4701
ထုံးစံအတိုင်း	-10.4702
ဥတု	-10.4702
▁သိတင်းကြားပြော	-10.4703
▁မေဒိ	-10.4703
▁ရေလွှမ်းမိုး	-10.4704
မှောက်လှန်	-10.4704
▁ငွေဖလား	-10.4705
▁အာဗေလ	-10.4706
အချို့တို့က၊	-10.4707
▁မြင်းစီး	-10.4712
▁မျက်နှာပျက်	-10.4716
▁အကြောင်းမရှိဘဲ	-10.4717
▁ဗာရှာ	-10.4721
▁စေတနာ	-10.4724
▁မေ့	-10.473
▁ခြေဖြင့်	-10.4737
▁မြို့ပြင်သို့	-10.4744
▁အသက်ဆုံး	-10.4753
တံခါးခုံ	-10.4754
စိတ်ပျက်	-10.4781
မရှိကြနှင့်။	-10.4795
ခရီးသွား	-10.4822
▁တိရ	-10.4835
ခေါ်ခဲ့	-10.4839
ဗင်္ယာမိန်ခရိုင်	-10.4859
အမှီပြုလျက်	-10.4878
▁ဘုန်းတန်ခိုး	-10.4952
▁လင်းစေ	-10.4976
မိန့်တော်အတိုင်း	-10.4998
▁နားမထောင်ဘဲနေ	-10.5045
နှင့်စုံဘက်	-10.5049
အမွေခံရာ	-10.5051
နှစ်သိမ့်	-10.5069
▁ဝေဒနာ	-10.5084
ညစ်ညူးစေ	-10.5086
▁ဟေရုဒ်မင်း	-10.5093
သောင်းလေးထောင်	-10.51
▁???	-10.5122
ပြုမူ	-10.5128
နားမလည်	-10.5144
အသင်းတော်	-10.5146
အဲဂုတ္တု	-10.5147
ခြင်္သေ့	-10.5147
မတရားသော	-10.5147
အချင်းချင်း	-10.5147
▁ရန်တွေ့ခြင်း	-10.5152
အဆုံး၌	-10.5156
▁အခြားသူ	-10.5162
▁ဣသရေ	-10.5173
တိုင်တည်၍	-10.5185
▁နိမိတ်	-10.5194
ထိမ်းမြား	-10.5194
ရွှံ့	-10.5194
အနီးအပါး	-10.5194
္ဌာန်	-10.5194
▁သာသနာပလူတို့	-10.5194
ငံ့လင့်	-10.5194
ပုဆိန်	-10.5194
▁ခြေစွပ်	-10.5194
▁ငါချစ်ရာသခင်	-10.5194
▁မာကေဒေါနိ	-10.5194
▁သက္ကရာဇ်	-10.5194
▁အိုးကင်း	-10.5194
မြိန်	-10.5194
▁ရုပ်သိမ်း	-10.5194
ကြစို့။	-10.5194
ယောင်ဆောင်	-10.5194
▁အထည်	-10.5195
▁ဒသမ	-10.5195
တညီတည်း	-10.5195
အမြီး	-10.5195
▁မလုပ်ရ။	-10.5197
▁အာဏာစက်	-10.5197
▁ဟာနနိ	-10.5197
▁ပုန်းရှောင်၍	-10.5199
▁တကျိပ်နှစ်ယောက်	-10.52
▁တနေ့လုံး	-10.52
▁မကြောက်ကြနှင့်။	-10.5201
▁ဟေဗာ	-10.5202
▁ကာရန်	-10.5204
▁တယောက်ကိုမျှ	-10.5207
ပုန်းရှောင်	-10.5208
အလယ်မှာ	-10.5211
▁ထူးခြားသော	-10.5212
▁လက်သမား	-10.5213
▁တောဘိ	-10.5217
▁ဆိတ်သငယ်တကောင်	-10.5218
▁ဌာနတော်	-10.5219
▁ပစ်ချ	-10.5223
▁အာမခံ	-10.5224
▁ကိုယ်ခင်ပွန်း	-10.5225
▁ကွဲပြားစေ	-10.5225
အကြီးတို့နှင့်	-10.5231
▁လက်ရုံးတော်	-10.5231
တခုတည်း	-10.5235
▁ရှေခင်	-10.5237
▁ရှောလုက	-10.5244
▁မြေအသီးအနှံ	-10.5244
မြည်သံ	-10.5247
ငါးထောင်	-10.5259
သို့ရောက်သောအခါ	-10.5267
▁ဟိတ္တိလူ	-10.5268
▁ကြွင်းသောသူတို့	-10.5271
▁သာယာသော	-10.5275
ခေါင်းပေါ်သို့	-10.5278
ကြပြီတကား။	-10.5281
မကြောက်နှင့်။	-10.5295
▁မကောင်းသောအကြံ	-10.5297
ဆယ်ဘို့တဘို့ကို	-10.5303
မကယ်မ	-10.5306
▁အာဟပ်မင်း	-10.5307
ဆယ်ခြောက်	-10.5313
တသောင်းနှစ်ထောင်	-10.5332
နတ်ဆိုးစွဲ	-10.5342
ဧဖာ	-10.5348
သီချင်းဆို	-10.5371
▁ငါမှာထားသမျှ	-10.5382
ဒါန	-10.5397
ဗတ္တိဇံကိုခံ	-10.5398
အမှုထမ်း	-10.5405
▁ထိုစကားကိုကြား	-10.5422
သိကျွမ်း	-10.544
▁အဘယ်မှာရှိသနည်း	-10.5442
သည်ကိုမြင်လျှင်၊	-10.5457
ဆယ်ရှစ်နှစ်	-10.5468
▁သက်သာစေ	-10.5478
ကိုသတ်၍	-10.5486
အာဗြဟံ	-10.5494
▁ခပ်သိမ်းသောသူ	-10.5526
▁ဂါလိလဲ	-10.5571
ပြည်သူပြည်သား	-10.5571
▁ဣသရေလလူအပေါင်း	-10.5584
တုံး	-10.5587
▁ရွှင်လန်းခြင်း	-10.559
တွက်	-10.5609
▁ထိုသူက	-10.5616
▁ကိရှ	-10.5618
မြို့ရွာတို့၌	-10.5625
နေဗုခဒ်နေဇာ	-10.57
ဇုရ	-10.57
အသက်ကြီးသူ	-10.5701
ဆင်းသက်	-10.5703
သမုတ်	-10.5703
ကျွေးမွေး	-10.5709
ဆုံးရှုံး	-10.571
ခင်းကျင်း	-10.5719
▁သုံးကြိမ်	-10.572
ကွပ်	-10.5721
ဘတ်ရွတ်	-10.5721
လယ်ကွက်	-10.5721
သုံးစုတစု	-10.5721
▁တံစိုး	-10.5721
▁မရဏနိုင်ငံ	-10.5721
▁ရောင့်ရဲ	-10.5721
▁လဆန်းနေ့	-10.5721
▁လုံခြုံစွာ	-10.5721
▁အာရဇ်သစ်သား	-10.5721
အကွက်	-10.5721
အသုံးအဆောင်	-10.5721
▁ကိလေသာ	-10.5721
▁စေခိုင်း	-10.5721
▁ပရိတ်သတ်	-10.5721
▁စီရင်ဆုံးဖြတ်	-10.5721
▁အမြတ်ဆုံးသော	-10.5721
▁ဆင်းတု	-10.5721
▁အထက်ဆိုခဲ့ပြီး	-10.5721
▁ဂါဇမြို့	-10.5721
ပညတ္တိကျမ်းစာ၌	-10.5721
▁တမြို့လုံး	-10.5721
▁စုသိမ်း	-10.5721
ယာဗက်မြို့	-10.5721
▁အအူ	-10.5721
ဆိတ်ကွယ်ရာအရပ်	-10.5722
▁ရောဂါ	-10.5722
▁ကြီးသောအသံနှင့်	-10.5723
▁အဆင်းအရောင်	-10.5723
တကြိမ်	-10.5723
▁ပတ်သာ	-10.5723
▁စာစောင်	-10.5725
▁စွန့်ကြဲ	-10.5726
▁ကင်းစင်	-10.5726
▁ဗိုလ်ချုပ်	-10.5726
▁သာ၍ကောင်း၏။	-10.5726
တေမန်	-10.5727
▁မေရှက်	-10.5727
ငါးတောင်ရှိ	-10.5727
▁သို့သော်	-10.5729
အရှင်မင်းကြီး	-10.5729
▁လျှောက်ကြလျှင်၊	-10.5738
▁ယောသံ	-10.5739
စေ့အောင်	-10.5739
▁လုယူဖျက်ဆီး	-10.574
▁သိုးမွေး	-10.5743
▁အသင့်ရှိ	-10.5743
▁ပလ္လင်ပေါ်မှာ	-10.5744
▁ခြေထောက်	-10.5748
▁နာခေါ်	-10.5753
ဖြိုချ	-10.5759
▁အာရပ်	-10.5759
▁အာမသ	-10.5763
▁ရန်သူလက်သို့	-10.5785
ဂေါဂ	-10.5788
▁ဗေရိ	-10.5811
▁ပေတရုက	-10.5812
အစေကို	-10.5813
နေရင်းပြည်	-10.582
▁ထွက်ပြေး	-10.5829
▁နွားတကောင်	-10.5841
ကိုးနှစ်	-10.5845
▁လမ်းလွှဲ	-10.5845
နာဟတ်	-10.5847
▁လျှို့ဝှက်သော	-10.5858
▁ညအချိန်	-10.5861
▁တောအရပ်	-10.5869
▁ထုံးစံရှိ	-10.5887
သောင်းနှစ်ထောင်	-10.5902
▁ငြိမ်သက်	-10.5923
ပဌနာစကားကို	-10.5955
▁ဧည့်သည်ဖြစ်	-10.5996
ခိုလှုံရာဖြစ်	-10.6045
တန်ခိုးအာနုဘော်	-10.6075
▁ဆုံးမဩဝါဒ	-10.6077
▁မိန့်မြွက်	-10.6085
▁ဤအမှုအရာ	-10.6087
ဘုရားမိန့်တော်မူ	-10.6121
▁မွှေးကြိုင်	-10.6142
ဆပ်ပေး	-10.6143
▁ဆယ်ဘို့တဘို့	-10.6157
▁ညဦးယံ	-10.6173
▁အစာအာဟာရ	-10.6213
ထုံးဖွဲ့	-10.6224
▁ယှဉ်သော	-10.6226
▁ဟေရှဘုန်	-10.6243
မ္မပွဲ	-10.6249
ရန်ဘက်	-10.6253
▁ဖိလိတ္တိပြည်	-10.6266
▁ကြောက်ရွံ	-10.6271
▁မှောက်	-10.6275
▁ဂျုံ	-10.6276
ကမ္ဘာ	-10.6276
အတည့်အလင်း	-10.6276
ာစိုး	-10.6276
▁ဩဇေလ	-10.6276
ကဲသရိ	-10.6276
ချို့တဲ့	-10.6276
တခြားစီ	-10.6276
မ္မစည်းဝေးခြင်း	-10.6276
အလို့ငှါ	-10.6276
ဩဗဒေဒုံ	-10.6276
▁ဇေရုဗဗေလ	-10.6276
▁တရံရောအခါ	-10.6276
▁ဟိဝိလူ	-10.6276
▁အန္တိအုတ်မြို့	-10.6276
▁အဝတ်အချည်းစည်း	-10.6276
▁ဩဗဒိ	-10.6276
▁အဟိမလက်	-10.6276
▁သုကုတ်	-10.6276
▁ဟာဇော်	-10.6276
▁ဧကြုန်မြို့	-10.6276
ိညာဉ်သေတ္တာတော်	-10.6276
▁မိုဃ်းမရွာ	-10.6276
ပွားများ	-10.6276
▁အမြန်	-10.6276
တောင်းပန်ပါ၏။	-10.6276
▁အတိုး	-10.6277
▁ခါရန်	-10.6277
▁လက်ရဥစ္စာ	-10.6277
▁ဟာနန်	-10.6277
ဆင်းရဲဒုက္ခကို	-10.6277
▁လူကိုစေလွှတ်၍	-10.6278
▁ဖွင့်ပြ	-10.6278
မုရန်	-10.6279
▁အဘယ်အရာကိုမျှ	-10.6279
▁ချယ်လှယ်သော	-10.628
▁အကောင်းဆုံးသော	-10.6281
ရွေ့လျော့	-10.6281
▁တန်ဆာဆင်	-10.6282
▁ဒိုင်း	-10.6282
▁အာရှာအမျိုး	-10.6283
▁စစ်ဆေး	-10.6283
▁မခံမယူ	-10.6284
▁မုန့်ပြား	-10.6284
▁စာရေးတံပြု၍	-10.6284
▁လက်ဝါး	-10.6284
▁လျှောက်လေသော်၊	-10.6284
▁မိုဃ်းကြိုး	-10.6286
▁စာရေးတံချ	-10.6286
လက်ဝါးကပ်တိုင်	-10.6288
ကျက်စား	-10.6288
သုတ်သင်ပယ်ရှင်း	-10.6289
မ္မဆရာ	-10.629
▁ဣသမာ	-10.629
▁ဆိုလေသော်၊	-10.6291
ဘုန်းအသရေ	-10.6292
▁သမက်	-10.6292
▁ခြင်္သေ့ပျို	-10.6295
▁ပြအိုး	-10.6295
▁အာဒံ	-10.6295
လျောင်း	-10.6295
ပါတော့။	-10.6296
▁လောကီနိုင်ငံ	-10.6296
ကယ်နှုတ်	-10.6298
▁ပြစ်မှားစေသော	-10.6302
ကျောက်ခဲနှင့်ပစ်	-10.6307
▁မျက်စိကန်းသောသူ	-10.6309
▁ဟေရှဘုန်မြို့	-10.631
နှင့်ကင်း	-10.6337
မည်မဟုတ်။	-10.635
▁ဘိသိက်ခံသော	-10.6358
ဦးညွှတ်ချ	-10.6358
▁အနာဂတ္တိ	-10.6368
▁စာတန်သည်	-10.637
နှင့်ဆိုင်၍	-10.6391
▁အမွေမြေ	-10.6394
ထောမနာသီချင်းဆို	-10.6395
၏အမိန့်တော်ကို	-10.644
▁အာရှုရိပြည်	-10.6451
▁အားယူ	-10.6489
တဖန်ထာဝရဘုရားသည်	-10.6543
လက်ဝဲဘက်	-10.6598
လိုသောငှါ	-10.661
၏ဘုန်းကို	-10.6619
ငါတို့၏ဘုရားသခင်	-10.6639
▁ဇာဗုလုန်အမျိုး	-10.6669
ခြောက်ထောင်	-10.6684
ပြစ်မှားသောအပြစ်	-10.6729
▁အခါမလည်	-10.673
▁ဆန့်ကျင်ဘက်	-10.6733
▁ရှုရိပြည်	-10.6744
သုံးသောင်း	-10.6801
ွှတ်	-10.6847
ဥမင်	-10.6849
▁အာရဇ်	-10.6855
ကုလား	-10.6863
ဒုစရိုက်ဖြေရာယဇ်	-10.6864
▁ခြေဆွံ့	-10.6864
▁ဆူဖြိုး	-10.6864
▁ပရောဖက်ယေရမိ	-10.6864
▁ဧဖက်မြို့	-10.6864
ခြင်းပါရမီ	-10.6864
မိုဃ်းချုန်း	-10.6864
ဟာဒဒေဇာ	-10.6864
အလိုဆန္ဒ	-10.6864
▁ကာဒေရှ	-10.6864
▁ကြမ်းတမ်းစွာ	-10.6864
▁တုံးလုံးနေ	-10.6864
▁ဗက်ရှေမက်မြို့	-10.6864
▁ယုဒရာဇဝင်၌	-10.6864
▁ယေခေါနိ	-10.6864
▁သိပ္ပံအတတ်	-10.6864
▁အကျဉ်းခံ	-10.6864
▁အသင့်အတင့်	-10.6864
နူးညံ့သိမ်မွေ့	-10.6864
နူးညွတ်	-10.6864
▁လေဘွေ	-10.6864
ဘိသိတ်	-10.6864
▁မျောက်မထား	-10.6864
▁ဧဒင်	-10.6864
ကြည်လင်	-10.6864
ဆီမွှေး	-10.6864
ပျားရည်စီးသော	-10.6864
နွမ်း	-10.6864
▁နွေကာလ	-10.6865
ပဲ့ပြင်	-10.6865
ကုရု	-10.6865
▁ကိုယ်ကာယ	-10.6865
▁စစ်ကဲ	-10.6865
ကျူလုံး	-10.6865
ရည်းစား	-10.6865
ပါရစေ။	-10.6865
နွေး	-10.6865
ထင်းရူး	-10.6865
▁သင်္ဘောသဖန်းသီး	-10.6865
▁အစေခံကျွန်	-10.6865
▁ကူညီ	-10.6865
▁အမိဝမ်းထဲ	-10.6866
▁မြင့်မြတ်	-10.6866
▁ချုပ်တည်း	-10.6867
ပြိုပျက်ရာ	-10.6867
▁စေ့စေ့နားထောင်	-10.6867
▁အာဇုတ်မြို့	-10.6867
အုတ်ရိုး	-10.6867
▁သဘောဖြောင့်	-10.6868
တံစို့	-10.6868
▁သတ္တမနေ့၌	-10.6868
▁ကိလမြို့	-10.6868
▁ဆင်းရဲငတ်မွတ်	-10.6869
▁ကျဉ်း	-10.6869
▁အနိစ္စရောက်	-10.6869
▁အာမောရိလူ၊	-10.687
▁တာမာ	-10.6873
▁အဘိရှဲ	-10.6874
အံ့နည်းဟု	-10.6876
ိညာဉ်ဖွဲ့	-10.6876
▁အဦးဘွားသော	-10.6876
ရူပါရုံ	-10.688
နှစ်စိုးစံလေ၏။	-10.6882
▁ဖေရဇိလူ	-10.6892
▁စေ့စေ့ကြည့်ရှု	-10.6893
ရှိစေလော့။	-10.691
အဆွေခင်ပွန်း	-10.6912
မြက်ပင်	-10.6912
▁ငတ်မွတ်သောသူ	-10.6913
စပျစ်ဥယျာဉ်	-10.6914
အစဉ်မပြတ်	-10.692
ဘွားမြင်သောနောက်	-10.692
ကောက်သိမ်း	-10.6921
▁ပသခါပွဲ	-10.6923
ကြေးဝါ	-10.6944
နေ့ညမှာ	-10.6944
▁ခါလဒဲပြည်	-10.6977
အဘအာဗြဟံ	-10.7091
▁ဝေးသောအရပ်	-10.7139
▁ထိုသူတို့ကလည်း	-10.7151
တကျိပ်နှစ်ပါးသော	-10.7182
လျှို့ဝှက်	-10.7327
ပေးသနားတော်မူသော	-10.738
ဥပုသ်	-10.74
▁မတရားသောမေထုန်	-10.7467
သဏ္ဌာန်	-10.7476
▁ခုနစ်ကြိမ်	-10.7489
ချက်တီးအချိန်	-10.7489
ချီးမြှင့်	-10.7489
တည့်တည့်	-10.7489
ဖြားယောင်း	-10.7489
လျှပ်စစ်	-10.7489
အစည်းအဝေး	-10.7489
▁ကဲ့ရဲ့ပြစ်တင်	-10.7489
▁ကြိတ်ဆုံ	-10.7489
▁ဂေဟာဇိ	-10.7489
▁တောခွေး	-10.7489
▁နိနေဝေမြို့	-10.7489
▁မှူးတော်မတ်တော်	-10.7489
▁သေချာစွာ	-10.7489
▁သေရည်သေရက်	-10.7489
▁ဟဂ္ဂ	-10.7489
▁ဟေဇရုံ	-10.7489
▁အဇုမပွဲ	-10.7489
ညှစ်	-10.7489
ပုပ္ပနိမိတ်	-10.7489
မဘော်မပြ	-10.7489
▁ယေဇဗေလ	-10.7489
▁အဘိဂဲလ	-10.7489
နာသနေလ	-10.7489
▁စော်ကား	-10.7489
ရုံမျှသာ	-10.7489
သတို့သမီးကညာ	-10.7489
▁ကျိုင်းကောင်	-10.7489
▁ကြားလိုက်ပါ၏။	-10.7489
▁ယုံမှား	-10.7489
ပျိုးပင်	-10.749
သည်မဟုတ်လောဟု	-10.749
▁မျိုးစေ့ကြဲ	-10.749
▁မထောင်	-10.749
▁ဘုရားဝတ်၌	-10.749
▁သူတော်ကောင်း	-10.749
ကြင်နာ	-10.749
▁စိတ်ရှည်	-10.7491
ကျင့်သောအကျင့်	-10.7491
▁ချီမြှောက်	-10.7491
▁စစ်ခင်းကျင်း	-10.7491
မသိမမှတ်	-10.7492
လေဝိ	-10.7492
▁မွေးဘွား	-10.7492
▁ဝန်စာရေး	-10.7493
▁တိမန	-10.7494
▁ဟန္န	-10.7494
▁မြစ်အနောက်ဘက်	-10.7494
▁ငါသည်သင်တို့ကို	-10.7494
▁နာဇရက်မြို့သား	-10.7494
▁မြွေဆိုး	-10.7495
▁မိမိအဘော်	-10.7495
အပြောက်	-10.7496
▁မနာရှေခရိုင်	-10.7497
သူတယောက်မျှမရှိ။	-10.7519
နှင့်ပြည့်၍	-10.7521
အရသာ	-10.7549
ခြားနား	-10.7578
ထိခိုက်	-10.7579
တံပိုး	-10.758
ဝှက်ထား	-10.758
နံ့သာပေါင်း	-10.758
ဂတိတော်	-10.7582
ဣသရေလအမျိုးအနွယ်	-10.7585
▁ထိသောသူ	-10.7613
▁အချို့သောသူတို့	-10.7629
▁တဆေးမပါ	-10.7644
သူရှိသမျှတို့သည်	-10.7653
▁လူအစုအဝေးတို့	-10.7656
အနာစွဲ	-10.7722
သတည်းဟု	-10.7724
ယောက်တို့သည်	-10.7789
တော်မူသည်နည်းတူ	-10.7792
▁အပြစ်ကင်း	-10.7803
၌ရှိသမျှသော	-10.784
အဖြစ်သို့	-10.789
သန့်ရှင်းသူတို့၏	-10.793
ငါတို့ရှိသမျှသည်	-10.7974
ဗေန	-10.7998
ငါတည်စေမည်	-10.8009
▁အရေဖျား	-10.8095
အဘိုးကို	-10.812
ကြကုန်အံ့၊	-10.8156
ညှင်းဆဲ	-10.8156
ယေရုဗ္ဗာလ	-10.8156
▁ကိရယတ်ယာရိမ်	-10.8156
▁ခြိုးခြံစွာ	-10.8156
▁ခြေဘဝါး	-10.8156
▁ဂေရရှုန်	-10.8156
▁တပြိုင်နက်	-10.8156
▁ဒေသနာ	-10.8156
▁ပုပ်စပ်	-10.8156
▁ရှိမုန်ပေတရု	-10.8156
▁သတေဖန်	-10.8156
▁သလဲသီး	-10.8156
▁အရည်ကျို	-10.8156
▁အာနုန်မြစ်	-10.8156
နှိပ်နင်း	-10.8156
ရက်လေးဆယ်ပတ်လုံး	-10.8156
အဆိပ်	-10.8156
ိပ္ပါယ်	-10.8156
▁ကျဉ်းမြောင်း	-10.8156
▁ညစ်ညူးသောနတ်	-10.8156
▁ယေဖုန္န	-10.8156
▁အညွန့်	-10.8156
▁အဟိကံ	-10.8156
▁အာခိတ်မင်း	-10.8156
▁အာသဟေလ	-10.8156
ကေနတ်	-10.8156
▁စောင်းတီး	-10.8156
▁မာလခိ	-10.8156
▁အသက်ကြီးရင့်	-10.8156
ပေတည်းဟု	-10.8156
▁မဟုတ်မမှန်	-10.8156
▁ကခုန်	-10.8156
▁ခေါ်ပင့်	-10.8156
▁တဖန်မောရှေအား	-10.8156
ဟာရှဘိ	-10.8156
▁နားပင်း	-10.8156
▁တကျွန်း	-10.8156
ပါလေစေဟု	-10.8156
▁ရင်ဖုံး	-10.8157
▁ကောင်းမကောင်း	-10.8157
ကျုံး	-10.8157
▁ငါတို့သိကြ၏။	-10.8158
▁ဇာဗုလုန်ခရိုင်	-10.8158
ပြတင်း	-10.8158
▁မမူပါနှင့်။	-10.8158
အသက်နှစ်ဆယ်လွန်၍	-10.8158
▁ရှေ့တော်မုန့်	-10.8159
▁ကျိန်အပ်	-10.8159
အမည်သစ်ကို	-10.816
▁သေလွန်သောသူတို့	-10.816
▁အာရှိပြည်	-10.8167
နာမတော်အဘို့	-10.8169
ကျယ်သောအသံနှင့်	-10.817
မင်းသေ၍	-10.8179
ဇေရုယာသား	-10.8185
ဗျာဒိတ်ထားတော်မူ	-10.8185
ရှည်သော	-10.8188
▁ဧဇရ	-10.8232
ငြိမ်သက်စွာ	-10.8251
▁ပင်လယ်အလယ်	-10.8268
လက်ျာတော်ဘက်	-10.8271
မေထုန်ကိုပြု	-10.8277
ယောက္ခမ	-10.8291
လှည့်ဖြား	-10.8291
ကောရ	-10.8292
ယစ်မူး	-10.8292
အရပ်ရပ်သို့	-10.8294
ဟေဇကိ	-10.8296
ဧလိယ	-10.8296
မိုဃ်းတိမ်	-10.8296
ဆီးကြို	-10.8302
စည်းဝေးကြ	-10.8319
ိယ၊	-10.8371
တပည့်တော်တို့	-10.8388
မိန့်မြွက်တော်မူ	-10.8395
င်္ဂလာဆောင်လုလင်	-10.8451
ထောင်ငါးရာ	-10.8459
▁ဂိဗောင်	-10.8476
▁ယေရိခေါ	-10.8537
▁ထူးဆန်း	-10.8578
အဘယ်မှာရှိသနည်း။	-10.86
▁တောင်ခြေရင်း	-10.8609
▁မှိုင်တွေ	-10.8678
လေးသောင်း	-10.8765
▁ဦးညွှတ်	-10.8765
▁ရုန်းရင်းခတ်	-10.8835
ဗိမာန်	-10.8863
မထီမဲ့	-10.887
ကပေရနောင်မြို့	-10.887
ဒ္ဒုကဲ	-10.887
မမေ့မလျော့	-10.887
▁ငြိုငြင်	-10.887
▁ဆဌမ	-10.887
▁ဘွဲ့နာမရှိ	-10.887
▁မုန့်ကိုဖဲ့	-10.887
▁ရာဗရှာခ	-10.887
▁သုစရိုက်	-10.887
▁အာမရံ	-10.887
ကြမ်းကြုတ်	-10.887
▁ဇိကလတ်မြို့	-10.887
▁တိတု	-10.887
▁နီမောင်းသော	-10.887
▁မိရိအံ	-10.887
▁လျှပ်စစ်ပြက်	-10.887
▁ဣဇဟာ	-10.887
▁ဩမရိ	-10.887
စကားတခွန်းကိုမျှ	-10.887
▁ရွှေဇွန်း	-10.887
▁သင်းဝင်သူ	-10.887
▁အစအဦး	-10.887
ထွန်းတောက်	-10.887
အံ့သောငှာ	-10.887
ခြောက်ရက်ပတ်လုံး	-10.887
ဆွဲငင်	-10.887
▁နှုတ်တော်ထွက်	-10.887
ပြိုင်၍	-10.8871
တစပ်တည်း	-10.8871
▁ထိုမျှလောက်	-10.8871
▁သူနှင့်သူ၏သား	-10.8871
အနာဂတ်	-10.8871
▁ပြပ်ဝပ်ကိုးကွယ်	-10.8871
▁မတ်တတ်နေ	-10.8871
▁ကမ္ဘာဦး	-10.8871
▁လက္ခဏာသက်သေ	-10.8871
▁အာမရိ	-10.8871
▁ငါနှုတ်ဆောင်	-10.8871
မရိပ်မိ	-10.8871
▁ဒါရိမင်းကြီး	-10.8871
▁ယေရှဲ၏သား	-10.8871
▁နောင်တမရ	-10.8871
▁ပရိယာယ်အားဖြင့်	-10.8872
ကနားပြင်	-10.8872
▁အာရော်မြို့	-10.8873
▁အရှေ့ဘက်မှ	-10.8873
ရတနာ	-10.8874
▁ဧဂလ	-10.8874
အသက်မရှင်	-10.8877
အစရှိသည်တို့	-10.8878
စုံဘက်ခြင်းကို	-10.8882
နှိုး	-10.8886
မှန်းကို	-10.8894
▁လူအသီးအသီးတို့	-10.8898
ယောရှိသား	-10.8901
သေခြင်းမှထမြောက်	-10.8901
မနာရှေအမျိုးတဝက်	-10.8922
အချိန်ရောက်မှ	-10.8956
မွေ့လျော်	-10.9062
ဖြိုဖျက်	-10.9063
ဧလာဇာ	-10.9063
မီးရှို့ရာယဇ်	-10.9066
မိုဃ်းကောင်းကင်	-10.9067
အပြစ်ဖြေရာ	-10.9069
▁ဇာဗုလုန်	-10.9112
▁ဆိုးယုတ်	-10.9125
▁သားဦးအပေါင်း	-10.9171
ာဒရက်	-10.9199
အချည်းနှီးသက်သက်	-10.9269
မျက်နှာကြက်	-10.9278
စိုးရိမ်စရာရှိ၏။	-10.9378
▁အသင်း	-10.9429
လှီးခြင်းကို	-10.9564
ရှစ်သောင်း	-10.9568
▁အနန္တတန်ခိုး	-10.9602
လေရာရာ	-10.9606
ကန့်လန့်	-10.9632
▁ခြိမ်း	-10.964
ဗတ္တိဇံဆရာယောဟန်	-10.964
ဗာသရှေဘ	-10.964
ရန်ငြိုးဖွဲ့	-10.964
ရှစ်ယောက်၊	-10.964
အတိုင်းအရှည်	-10.964
ဧလျာကိမ်	-10.964
▁နံနက်ယံ၌	-10.964
▁ပုလွေ	-10.964
▁ယောဟနန်	-10.964
▁လှိမ့်	-10.964
▁ဟာလေလုယ	-10.964
▁အဟိသောဖေလ	-10.964
ရဗ္ဗာမြို့	-10.964
▁ကုန်းနှီး	-10.964
▁ဆိတ်ထီး	-10.964
▁ဒွါဒသမ	-10.964
▁ရိမ္မုန်	-10.964
▁လျှံ	-10.964
▁ဥပဒေသ	-10.964
▁ဩဖိရ	-10.964
ခြိမ်းချောက်	-10.964
▁ရိုက်ပုတ်	-10.964
▁သီလ	-10.964
ယောနဒပ်	-10.964
▁သားရေဘူး	-10.964
▁နေဗော	-10.964
▁လွှား	-10.964
အဟောလိဗ	-10.964
▁တနေ့သ၌	-10.964
▁ဆဲရေး	-10.964
လက်ချည်း	-10.964
▁နဝမ	-10.964
▁နီးစပ်	-10.964
▁လူကန်း	-10.964
ရောက်လုနီး	-10.964
▁ကေနိ	-10.9641
▁ပြင်းထန်စွာ	-10.9641
ျက်နှာချင်းဆိုင်	-10.9641
▁စုန်း	-10.9641
ချန်ထား	-10.9642
ထူးခြား	-10.9643
▁အဘယ်ကျေးဇူးရှိ	-10.9645
တံခါးမုတ်	-10.9646
သောက်ကြူး	-10.9646
အရောန	-10.9647
ခြင်းငှါအလိုရှိ	-10.9649
ကင်ဗိုလ်ခြေသခင်	-10.9666
▁ပြင်သို့ထွက်	-10.9667
ဇ္ဇ	-10.9699
ရွှေနှင့်မွမ်းမံ	-10.9703
သေသောနောက်	-10.9763
ဘုံ၌ရှိတော်မူသော	-10.9848
တိုက်တွန်း	-10.9894
ဇာဒုတ်	-10.9895
တည်းခို	-10.9897
အလျား	-10.9897
သတိပေး	-10.9897
ဗာဗုလုန်	-10.9899
တံဖျာ	-10.9921
မမြင်ရကြ။	-10.9966
သောအချိန်ကာလ	-11.0015
ဂါလိလဲပြည်သို့	-11.0024
တာရှည်စွာ	-11.0073
▁အသက်တာရှည်	-11.0075
အာနုဘော်တော်	-11.0118
▁ထူးတော်မူ	-11.0224
ောရှေနှင့်အာရုန်	-11.0333
အနာဂတ္တိကျမ်း	-11.0335
ဆယ်တနှစ်	-11.0413
▁အနိစ္စ	-11.0466
အာဗြ	-11.0472
▁လွှမ်း	-11.0472
သမီးကညာ	-11.0473
▁ဟိန္နုံ	-11.0473
▁အစိုးပိုင်	-11.0473
အကျန်အကြွင်း	-11.0473
▁ထူထောင်	-11.0473
▁ယေဒါယ	-11.0473
▁အစေအပါး	-11.0473
▁ဧည့်သည်အာဂန္တု	-11.0473
ငြီးငွေ့	-11.0473
ဉာဏ်	-11.0473
နှစ်ဩမဲ	-11.0473
သဲလုံးနှင့်အမျှ	-11.0473
အန္ဒြေ	-11.0473
▁ချိန်ခွင်	-11.0473
▁ခွက်ကွင်း	-11.0473
▁စာရေးတော်ကြီး	-11.0473
▁တဟာရှသားရေ	-11.0473
▁ထပ်ဆင့်၍	-11.0473
▁မေဖိဗောရှက်	-11.0473
▁ဟေရမုန်တောင်	-11.0473
▁အပြည့်ထည့်သော	-11.0473
▁အမိနဒပ်	-11.0473
▁အံသွားခဲကြိတ်	-11.0473
▁ဆိတ်ငါးကောင်	-11.0473
▁နေဗတ်၏သား	-11.0473
▁ဗျာဒိတ်ဌာနတော်	-11.0473
စုရုံး	-11.0473
▁ကုန်အံ့။	-11.0473
ပွင့်လန်း	-11.0473
▁မာဂု	-11.0473
▁ကညာ	-11.0473
▁ပင်လယ်ကမ်းနား	-11.0473
▁အစေကျွန်ခံ	-11.0473
▁အဟိမတ်	-11.0473
▁ယာဖက်	-11.0473
▁ပါရှုရ	-11.0473
ပြွတ်	-11.0473
▁ဇိမရိ	-11.0473
▁အမူအရာ	-11.0473
▁မရိတ်ရ။	-11.0473
နံရံ	-11.0473
▁စေ့စပ်	-11.0473
နောက်ဖြစ်လတံ့သော	-11.0473
▁အကျွန်ုပ်သိပါ၏။	-11.0473
ကြစို့ဟု	-11.0474
▁အချို့သောအ	-11.0474
▁ပတ်ရစ်	-11.0474
▁မနှမြောဘဲ	-11.0474
နဖူး၌	-11.0474
အချည်း	-11.0475
▁အမွေမခံရ	-11.0475
▁ဂေရှုရ	-11.0475
▁ရိပ်မိ	-11.0476
▁ဥပဒ	-11.0478
၏ဦးခေါင်း	-11.0483
▁ဟောရတောင်	-11.0485
▁ယာဟတ်	-11.0486
ငါ၏လူဣသရေလအမျိုး	-11.0535
ိအဆွေအမျိုး၊	-11.0565
အသက်ငယ်စဉ်	-11.0576
စေ့စေ့ကြည့်	-11.065
ပေးသနားတော်မူပါ။	-11.0714
ယောက်တို့ကို	-11.0752
ရာဇပလ္လင်	-11.0801
မကုန်မှီ	-11.0802
အနာရောဂါ	-11.0804
ဘောဇဉ်	-11.0804
တည်ကြည်	-11.0806
ဘေးဥပဒ်	-11.0806
အရှက်ကွဲ	-11.0806
အာဟပ်	-11.0806
သတိပြု	-11.0808
ငြိမ်သက်ခြင်း	-11.0813
ရှေဗန	-11.0821
▁အိုယေရုရှလင်	-11.0839
▁အာခိ	-11.084
▁စက်ဆုပ်	-11.0857
နက်နဲသောအရာကို	-11.0968
ဂေဗ	-11.1113
ပြုတော်မူသောအမှု	-11.1243
ဟစ်ကြော်ကြ၏။	-11.1263
ဧဇရသည်	-11.1279
တို့အထဲမှ	-11.1313
ြောင့်	-11.1323
▁ရွှေအခွက်	-11.137
ကြွယ်ဝခြင်း	-11.137
အကောင်းဆုံး	-11.1377
ယိုယွင်း	-11.138
▁ဆွေးမြေ့	-11.138
▁ယော်ဒန်	-11.1381
သောအထည်	-11.1381
▁ဧဖရတ်	-11.1382
ညစ်ညှုး	-11.1382
တင်းကုပ်	-11.1382
နူကွက်	-11.1382
ဘေးအန္တရာယ်	-11.1382
မေလခိဇေဒက်	-11.1382
ယောဇဗဒ်	-11.1382
အထူးထူးအပြားပြား	-11.1382
▁ကရမေလတောင်	-11.1382
▁ဇာလမုန္န	-11.1382
▁ညက်ညက်	-11.1382
▁တုရိယာမျိုး	-11.1382
▁တေကော	-11.1382
▁ဒါဂုန်	-11.1382
▁ပါရမီ	-11.1382
▁ဗေသနိရွာ	-11.1382
▁မထိမခိုက်	-11.1382
▁မိက္ခေလ	-11.1382
▁အကွယ်အကာ	-11.1382
▁အခြံအရံ	-11.1382
▁အဒုလံ	-11.1382
ကေဒေရှမြို့	-11.1382
ခဲယဉ်း	-11.1382
စီးပွားကို	-11.1382
ဆိုင်းလင့်	-11.1382
ဆွေတော်မျိုးတော်	-11.1382
နေဗုဇာရဒန်	-11.1382
မြွတ်ဆို	-11.1382
ရွှေနှစ်ကွင်း	-11.1382
အချုပ်အခြာ	-11.1382
အနည်းအများအလိုက်	-11.1382
▁ကရမေလမြို့	-11.1382
▁စမ်းသပ်	-11.1382
▁ဆင်စွယ်	-11.1382
▁ထိမ်းမြားပေးစား	-11.1382
▁နာကျင်စွာ	-11.1382
▁ဖေတ္တုမင်း	-11.1382
▁ဗင်္ယာ	-11.1382
▁မာဂဒလမာရိ	-11.1382
▁မိဖုရားဧသတာ	-11.1382
▁မီးညှပ်	-11.1382
▁အချည်းစည်းရှိ	-11.1382
▁အာနသုတ်မြို့	-11.1382
▁အိုးထိန်းသမား	-11.1382
▁အေ့ဟေ	-11.1382
ယေရှုရှလင်မြို့	-11.1382
▁ဇိခရိ	-11.1382
▁အလှည့်လှည့်	-11.1382
▁မသိမ်းမယူ	-11.1382
▁အသနားတော်ခံ	-11.1382
▁တံခါးထုပ်	-11.1382
▁အာဂတ်	-11.1382
▁မွှေးသော	-11.1382
ဗေသွေလ	-11.1382
▁ဒရယ်	-11.1382
▁ဟောင်းနွမ်း	-11.1382
▁အဆင်သင့်	-11.1382
▁အသံကိုလွှင့်၍	-11.1382
▁အဘယ်အမှုကိုမျှ	-11.1382
▁အဘိရံ	-11.1382
မျိုးစေ့ကိုကြဲ	-11.1382
▁နံ့သာဆီ	-11.1382
▁ထရံအခန်း	-11.1382
▁ဂေဇာမြို့	-11.1382
▁အဘယ်ကာလမှ	-11.1382
▁ဂေါရှင်ပြည်	-11.1382
ထောင်ဝင်းထဲ	-11.1383
အမှတ်ပြု၍	-11.1384
▁ဥာဏ်ကောင်းသောသူ	-11.1385
အဝတ်ကိုဆုတ်	-11.1385
▁ဘားတို့	-11.1389
▁သတ်မိသောသူ	-11.139
▁တဲတော်တံခါးနား	-11.1402
▁ဗိုလ်လုပ်ရ	-11.1418
ဩ	-12.5667
ဃ	-12.5668
ဦ	-12.5669
ဉ	-12.567
၎	-12.5671
?	-12.5672
