<pad>	0
</s>	0
<unk>	0
▁¦	-0
▁क	-1
▁्	-2
▁स	-3
▁ह	-4
ार	-5
ें	-6
▁प	-7
या	-8
▁म	-9
ने	-10
ों	-11
्र	-12
▁है	-13
▁ज	-14
ता	-15
और	-16
▁अ	-17
▁के	-18
▁व	-19
के	-20
ना	-21
▁ब	-22
▁उ	-23
िक	-24
▁द	-25
▁त	-26
▁ल	-27
ान	-28
▁न	-29
▁में	-30
से	-31
▁र	-32
▁और	-33
र्	-34
है	-35
ित	-36
▁की	-37
्य	-38
▁कर	-39
▁(	-40
कर	-41
ाल	-42
▁कि	-43
में	-44
ही	-45
▁आ	-46
▁प्र	-47
की	-48
▁को	-49
ति	-50
▁से	-51
का	-52
कि	-53
ते	-54
▁भ	-55
रा	-56
िए	-57
▁़	-58
ोग	-59
▁का	-60
▁।	-61
ला	-62
▁इ	-63
▁ग	-64
वा	-65
▁,	-66
को	-67
था	-68
एक	-69
स्	-70
ती	-71
हा	-72
▁पर	-73
िय	-74
▁य	-75
ुम	-76
न्	-77
क्	-78
सी	-79
हीं	-80
वि	-81
सा	-82
▁च	-83
पर	-84
▁हो	-85
मा	-86
दा	-87
कार	-88
िया	-89
री	-90
▁जा	-91
▁श	-92
▁वि	-93
▁सं	-94
दे	-95
▁हैं	-96
ले	-97
जा	-98
नी	-99
▁एक	-100
▁ख	-101
िर	-102
्व	-103
ड़	-104
सं	-105
▁लिए	-106
▁इस	-107
ंत	-108
िन	-109
▁)	-110
भी	-111
हो	-112
्या	-113
ंग	-114
▁जो	-115
▁अप	-116
▁फ	-117
िल	-118
िस	-119
ाह	-120
▁तो	-121
ारा	-122
▁उस	-123
्ट	-124
रे	-125
▁उन	-126
▁दे	-127
▁नहीं	-128
▁सा	-129
▁भी	-130
▁सम	-131
▁तुम	-132
भा	-133
▁.	-134
हु	-135
▁नि	-136
गा	-137
उन	-138
त्	-139
▁ने	-140
▁हम	-141
मान	-142
पा	-143
▁स्	-144
लिए	-145
▁-	-146
ारे	-147
वर	-148
▁या	-149
ारी	-150
▁रा	-151
ुर	-152
हैं	-153
ल्	-154
इस	-155
दि	-156
धिक	-157
▁किया	-158
वे	-159
क्ष	-160
बा	-161
▁यह	-162
ूप	-163
हें	-164
ष्ट	-165
खा	-166
गे	-167
▁बा	-168
त्र	-169
▁ही	-170
जो	-171
नि	-172
ओं	-173
ियों	-174
ज़	-175
सम	-176
ली	-177
अप	-178
नु	-179
देश	-180
▁करने	-181
ूर	-182
तो	-183
ैं	-184
ुछ	-185
उस	-186
दी	-187
रह	-188
ास	-189
जी	-190
▁वह	-191
▁लोग	-192
हम	-193
▁थ	-194
▁मु	-195
▁हु	-196
तुम	-197
ूल	-198
योग	-199
ये	-200
नहीं	-201
वाल	-202
▁कार	-203
▁ड	-204
ंध	-205
ोज	-206
मी	-207
ारत	-208
ुदा	-209
मु	-210
तर	-211
मे	-212
यों	-213
तु	-214
गर	-215
द्	-216
▁सक	-217
धार	-218
ंड	-219
्री	-220
▁अपने	-221
श्	-222
▁ए	-223
▁वे	-224
्ष	-225
▁1	-226
▁उप	-227
▁था	-228
▁ले	-229
▁ऐ	-230
चा	-231
ुन	-232
वह	-233
सर	-234
च्	-235
हों	-236
▁उन्	-237
किया	-238
▁रह	-239
यह	-240
नों	-241
लाह	-242
▁पू	-243
गी	-244
▁तथा	-245
वी	-246
चार	-247
▁गया	-248
्त	-249
ंद	-250
▁जिस	-251
बर	-252
▁मा	-253
▁आप	-254
20	-255
यु	-256
▁दो	-257
▁कुछ	-258
▁वाल	-259
▁"	-260
बंध	-261
िका	-262
यक	-263
टा	-264
▁ध	-265
ृत	-266
▁किसी	-267
लोग	-268
▁मे	-269
▁छ	-270
करने	-271
टी	-272
शा	-273
धि	-274
▁तुम्	-275
ुल	-276
▁ला	-277
▁साथ	-278
▁अधिक	-279
म्	-280
▁द्व	-281
▁¦1	-282
▁जब	-283
पू	-284
▁घ	-285
▁ख़	-286
▁प्रा	-287
हर	-288
▁चाह	-289
▁रूप	-290
चे	-291
शन	-292
ीन	-293
▁कोई	-294
▁ना	-295
तक	-296
होंने	-297
▁निर्	-298
▁पा	-299
इन	-300
▁वा	-301
सक	-302
ोक	-303
▁अनु	-304
▁करें	-305
ानी	-306
ार्	-307
▁भा	-308
▁द्वारा	-309
▁बना	-310
▁तक	-311
एँ	-312
ोल	-313
ढ़	-314
दान	-315
▁करते	-316
षा	-317
पति	-318
वन	-319
अपने	-320
ूस	-321
जन	-322
टे	-323
▁प्रति	-324
▁थे	-325
ियम	-326
▁अन	-327
ूच	-328
▁उनके	-329
पी	-330
▁क्ष	-331
▁व्य	-332
तों	-333
▁भारत	-334
▁लोगों	-335
▁परि	-336
▁वर्	-337
हुत	-338
क्ति	-339
▁जाता	-340
क्त	-341
▁सु	-342
उप	-343
थित	-344
धान	-345
िन्	-346
बी	-347
▁विश	-348
▁फिर	-349
रण	-350
▁कार्य	-351
▁स्व	-352
रो	-353
्रा	-354
▁राष्ट	-355
तीय	-356
▁कहा	-357
▁पह	-358
ंक	-359
लि	-360
िला	-361
जब	-362
▁दिया	-363
कों	-364
▁इन	-365
टर	-366
द्य	-367
हारे	-368
दो	-369
क़	-370
▁करना	-371
दर	-372
जिस	-373
गत	-374
▁मैं	-375
ौर	-376
▁राज	-377
▁अध	-378
बे	-379
ब्	-380
शी	-381
▁ई	-382
ेष	-383
▁सि	-384
ूँ	-385
▁अल्	-386
▁क्या	-387
▁रख	-388
यी	-389
वास	-390
द्ध	-391
▁ये	-392
फ़	-393
रकार	-394
▁दि	-395
▁कह	-396
प्त	-397
▁अव	-398
आप	-399
▁उसके	-400
च्छ	-401
▁ज़	-402
थान	-403
▁सब	-404
▁¤	-405
तथा	-406
भाव	-407
चित	-408
स्त	-409
ंत्र	-410
▁उत्	-411
▁रहे	-412
निर	-413
कुछ	-414
▁हुए	-415
ोगा	-416
गया	-417
मिल	-418
एं	-419
अल	-420
▁अपनी	-421
्यों	-422
क्र	-423
राज	-424
करण	-425
रि	-426
र्ण	-427
ैसे	-428
▁अल्लाह	-429
ओर	-430
ष्	-431
झे	-432
▁𐋇	-433
मि	-434
▁'	-435
्ञ	-436
दार	-437
▁थी	-438
हां	-439
र्व	-440
अन	-441
साथ	-442
किसी	-443
▁ट	-444
रूप	-445
वं	-446
ड़ा	-447
▁जी	-448
हत	-449
▁सी	-450
वार	-451
▁फ़	-452
पूर	-453
हाँ	-454
ेत्र	-455
सि	-456
विश	-457
▁जाए	-458
▁उसे	-459
तन	-460
▁करता	-461
दन	-462
▁उन्हें	-463
ंच	-464
▁सकता	-465
▁ख़ुदा	-466
षण	-467
धा	-468
▁रहा	-469
ड़े	-470
िम	-471
▁होता	-472
▁क़	-473
अधिक	-474
टि	-475
ोजना	-476
ोड	-477
मत	-478
माण	-479
सूल	-480
ड़ी	-481
▁क्षेत्र	-482
सु	-483
सार	-484
▁समय	-485
गार	-486
थी	-487
अनु	-488
▁जान	-489
▁मान	-490
फिर	-491
वर्	-492
▁गु	-493
ोर	-494
201	-495
▁विक	-496
किन	-497
▁पै	-498
चाह	-499
▁	-500
¦	-501
ा	-502
क	-503
र	-504
े	-505
्	-506
न	-507
ि	-508
स	-509
त	-510
ह	-511
ं	-512
ी	-513
म	-514
ो	-515
य	-516
प	-517
ल	-518
व	-519
द	-520
ज	-521
ु	-522
ग	-523
ब	-524
ै	-525
अ	-526
श	-527
ए	-528
च	-529
उ	-530
भ	-531
ू	-532
़	-533
।	-534
ट	-535
,	-536
थ	-537
औ	-538
ध	-539
ख	-540
आ	-541
ष	-542
ड	-543
इ	-544
ण	-545
फ	-546
(	-547
)	-548
.	-549
ई	-550
-	-551
छ	-552
ँ	-553
1	-554
ौ	-555
ृ	-556
0	-557
ओ	-558
ठ	-559
2	-560
a	-561
e	-562
घ	-563
झ	-564
ऐ	-565
i	-566
à	-567
t	-568
n	-569
o	-570
ढ	-571
¤	-572
s	-573
ॉ	-574
ः	-575
"	-576
r	-577
4	-578
9	-579
3	-580
/	-581
5	-582
l	-583
?	-584
m	-585
ञ	-586
'	-587
p	-588
;	-589
%	-590
c	-591
6	-592
8	-593
d	-594
:	-595
ऊ	-596
7	-597
𐋇	-598
h	-599
_	-600
u	-601
b	-602
ऑ	-603
¥	-604
!	-605
‍	-606
g	-607
y	-608
ऋ	-609
०	-610
k	-611
१	-612
f	-613
w	-614
C	-615
#	-616
‘	-617
”	-618
v	-619
>	-620
’	-621
A	-622
S	-623
I	-624
⁄	-625
N	-626
&	-627
२	-628
𐊣	-629
𐊼	-630
T	-631
P	-632
“	-633
R	-634
E	-635
M	-636
O	-637
<	-638
	-639
D	-640
x	-641
९	-642
३	-643
५	-644
°	-645
	-646
L	-647
–	-648
	-649
	-650
६	-651
८	-652
¿	-653
U	-654
B	-655
@	-656
४	-657
ॅ	-658
+	-659
j	-660
{	-661
̧	-662
}	-663
̈	-664
F	-665
\	-666
७	-667
G	-668
H	-669
̄	-670
]	-671
[	-672
z	-673
q	-674
®	-675
॰	-676
ङ	-677
V	-678
Z	-679
W	-680
μ	-681
	-682
K	-683
$	-684
«	-685
	-686
Y	-687
	-688
¶	-689
¡	-690
—	-691
X	-692
	-693
¬	-694
=	-695
	-696
	-697
ऍ	-698
	-699
Q	-700
ऱ	-701
ॆ	-702
J	-703
ॊ	-704
	-705
ळ	-706
|	-707
~	-708
·	-709
	-710
	-711
©	-712
*	-713
	-714
£	-715
॥	-716
§	-717
	-718
É	-719
ऎ	-720
ऩ	-721
¢	-722
`	-723
é	-724
	-725
	-726
	-727
	-728
	-729
×	-730
ò	-731
þ	-732
ą	-733
ĺ	-734
॓	-735
‐	-736
₹	-737
	-738
	-739
Î	-740
ñ	-741
Ş	-742
̃	-743
ॄ	-744
î	-745
ş	-746
