<pad>	0
</s>	0
<unk>	0
▁¦	-0
▁s	-1
st	-2
▁p	-3
▁𐋇	-4
▁j	-5
▁v	-6
ch	-7
▁,	-8
li	-9
▁n	-10
▁a	-11
ho	-12
te	-13
ov	-14
od	-15
▁k	-16
ou	-17
▁t	-18
▁m	-19
▁z	-20
by	-21
em	-22
ní	-23
ra	-24
ro	-25
ak	-26
ed	-27
▁d	-28
al	-29
ti	-30
ne	-31
▁je	-32
in	-33
na	-34
to	-35
še	-36
je	-37
ře	-38
il	-39
▁.	-40
že	-41
le	-42
▁o	-43
ce	-44
ud	-45
▁ne	-46
la	-47
▁po	-48
ři	-49
▁na	-50
rá	-51
ří	-52
▁se	-53
▁b	-54
ni	-55
▁A	-56
sp	-57
sk	-58
ně	-59
ého	-60
▁sv	-61
po	-62
no	-63
bo	-64
spod	-65
ko	-66
spodin	-67
se	-68
ví	-69
▁by	-70
mu	-71
ob	-72
ých	-73
▁u	-74
ji	-75
lo	-76
ter	-77
jí	-78
▁J	-79
en	-80
▁H	-81
dy	-82
do	-83
▁js	-84
lu	-85
▁I	-86
ám	-87
ru	-88
ka	-89
va	-90
el	-91
▁Ho	-92
za	-93
▁B	-94
yn	-95
▁i	-96
ude	-97
▁do	-98
▁P	-99
▁Hospodin	-100
sta	-101
ží	-102
dě	-103
sv	-104
▁za	-105
ým	-106
ci	-107
▁to	-108
lov	-109
ta	-110
▁vy	-111
▁pro	-112
vi	-113
▁od	-114
▁při	-115
▁jest	-116
ze	-117
vá	-118
řek	-119
▁jeho	-120
řed	-121
tě	-122
tí	-123
me	-124
ma	-125
da	-126
▁N	-127
ky	-128
▁S	-129
▁h	-130
ná	-131
vy	-132
ku	-133
▁kter	-134
▁č	-135
ova	-136
▁že	-137
sti	-138
cí	-139
vo	-140
mě	-141
vě	-142
▁pak	-143
▁T	-144
ha	-145
pro	-146
mi	-147
▁vše	-148
ší	-149
▁:	-150
dyž	-151
roz	-152
▁aby	-153
de	-154
js	-155
lé	-156
zra	-157
be	-158
sl	-159
řekl	-160
ve	-161
ové	-162
ako	-163
ži	-164
▁tak	-165
lid	-166
ovi	-167
né	-168
či	-169
ši	-170
▁K	-171
▁te	-172
ýž	-173
jich	-174
▁ob	-175
▁ji	-176
▁syn	-177
▁bude	-178
teří	-179
obě	-180
mo	-181
▁jsem	-182
▁M	-183
při	-184
pra	-185
če	-186
▁krá	-187
zrael	-188
▁Ne	-189
teříž	-190
▁st	-191
áš	-192
ím	-193
ůj	-194
hospodin	-195
▁zem	-196
vše	-197
ům	-198
▁ho	-199
nu	-200
▁Je	-201
éž	-202
ste	-203
▁své	-204
vé	-205
zal	-206
ká	-207
rd	-208
▁ně	-209
lí	-210
jest	-211
at	-212
kter	-213
▁ve	-214
čin	-215
bude	-216
lá	-217
co	-218
▁tě	-219
ny	-220
▁Bo	-221
sa	-222
ved	-223
▁mě	-224
▁před	-225
jeho	-226
ili	-227
▁vě	-228
rod	-229
▁D	-230
emu	-231
aby	-232
ské	-233
ství	-234
▁řekl	-235
▁;	-236
▁lid	-237
sí	-238
ný	-239
ale	-240
▁byl	-241
kr	-242
▁V	-243
šel	-244
▁jako	-245
nou	-246
ět	-247
▁všec	-248
tak	-249
▁E	-250
stu	-251
hl	-252
pak	-253
▁ch	-254
▁pra	-255
▁když	-256
cha	-257
▁jejich	-258
pa	-259
mé	-260
▁Z	-261
▁ná	-262
▁Izrael	-263
děl	-264
di	-265
ty	-266
ůh	-267
nebo	-268
žíš	-269
▁jed	-270
▁O	-271
▁roz	-272
tá	-273
vil	-274
▁ni	-275
▁mu	-276
udou	-277
du	-278
zi	-279
pov	-280
lik	-281
▁nebo	-282
ly	-283
syn	-284
▁kterýž	-285
alo	-286
lou	-287
▁kteříž	-288
žd	-289
tož	-290
ry	-291
krá	-292
▁ko	-293
pu	-294
dí	-295
an	-296
hu	-297
tr	-298
ník	-299
ště	-300
ád	-301
▁pod	-302
ri	-303
zem	-304
▁jsou	-305
ští	-306
▁tv	-307
jsem	-308
▁mne	-309
▁Nebo	-310
mí	-311
▁svého	-312
sto	-313
ním	-314
kou	-315
▁Pro	-316
luže	-317
lužeb	-318
což	-319
▁ka	-320
tv	-321
má	-322
ej	-323
án	-324
▁toho	-325
ských	-326
▁mo	-327
tu	-328
vu	-329
ného	-330
▁ale	-331
zd	-332
▁ani	-333
as	-334
oval	-335
▁ru	-336
sá	-337
ými	-338
bra	-339
▁?	-340
chá	-341
oj	-342
vid	-343
zá	-344
▁ten	-345
▁zá	-346
své	-347
byl	-348
bi	-349
▁Jo	-350
ck	-351
ův	-352
pe	-353
zí	-354
stí	-355
před	-356
ský	-357
▁jsi	-358
on	-359
▁me	-360
▁Bůh	-361
▁proti	-362
am	-363
▁kteréž	-364
▁jim	-365
▁země	-366
bu	-367
cho	-368
ského	-369
tom	-370
šli	-371
▁Po	-372
▁já	-373
když	-374
lově	-375
ilo	-376
hla	-377
ráž	-378
▁vám	-379
▁jemu	-380
stou	-381
dá	-382
▁ř	-383
▁zemi	-384
▁ty	-385
▁ú	-386
▁mlu	-387
▁pře	-388
val	-389
▁Da	-390
pl	-391
jed	-392
▁až	-393
▁také	-394
jako	-395
nám	-396
rou	-397
▁C	-398
ba	-399
▁	-400
¦	-401
o	-402
e	-403
a	-404
i	-405
n	-406
t	-407
s	-408
l	-409
v	-410
d	-411
m	-412
k	-413
u	-414
,	-415
p	-416
h	-417
r	-418
j	-419
í	-420
b	-421
c	-422
y	-423
á	-424
z	-425
ž	-426
ě	-427
ř	-428
é	-429
š	-430
.	-431
𐋇	-432
ý	-433
č	-434
ů	-435
:	-436
A	-437
ť	-438
J	-439
H	-440
;	-441
I	-442
B	-443
P	-444
N	-445
S	-446
?	-447
T	-448
K	-449
f	-450
M	-451
D	-452
g	-453
V	-454
E	-455
Z	-456
O	-457
ň	-458
ú	-459
ď	-460
-	-461
C	-462
L	-463
G	-464
(	-465
)	-466
R	-467
F	-468
Ž	-469
ó	-470
U	-471
Š	-472
Ř	-473
!	-474
Č	-475
Ó	-476
[	-477
]	-478
1	-479
x	-480
3	-481
2	-482
4	-483
5	-484
8	-485
0	-486
9	-487
6	-488
Ú	-489
7	-490
Ď	-491
#	-492
𐊣	-493
𐊼	-494
Í	-495
Ý	-496
