<pad>	0
</s>	0
<unk>	0
¦	-1.2477
▁¦	-1.26376
के	-4.37871
है	-4.72948
▁़	-4.82936
▁।	-4.88626
में	-4.8892
▁,	-4.95072
और	-4.98034
की	-5.00492
से	-5.1559
को	-5.18012
ी	-5.18274
का	-5.32047
ों	-5.41423
े	-5.47284
ा	-5.50099
▁(	-5.57484
कि	-5.59638
▁)	-5.63236
ने	-5.63763
न	-5.72224
पर	-5.87896
क	-5.92074
हैं	-5.94458
कर	-5.96456
-	-5.97537
लिए	-5.99213
▁.	-6.00207
उस	-6.0257
एक	-6.0299
इस	-6.06407
या	-6.14147
ता	-6.14229
तो	-6.20722
जो	-6.2394
हो	-6.24501
ित	-6.25978
नहीं	-6.26013
भी	-6.27247
उन	-6.29179
▁	-6.32003
अ	-6.45627
यह	-6.51263
ज	-6.51544
किया	-6.51998
ं	-6.54402
ई	-6.54549
ही	-6.55308
तुम	-6.61405
वह	-6.63989
करने	-6.67132
ना	-6.67488
ख	-6.73492
हम	-6.78088
त	-6.7832
ल	-6.82676
स	-6.83339
फ	-6.8429
à	-6.85441
𐋇	-6.87535
म	-6.88667
था	-6.89352
अपने	-6.89996
वे	-6.95716
जिस	-6.99149
र	-7.01003
ये	-7.02151
ते	-7.04439
तथा	-7.07621
गया	-7.09565
कुछ	-7.12794
व	-7.13214
ओं	-7.15504
किसी	-7.16576
रूप	-7.17868
ए	-7.18751
साथ	-7.21936
आ	-7.22379
जब	-7.24347
ग	-7.25752
िक	-7.31661
जा	-7.33108
थे	-7.34988
आप	-7.36186
द्वारा	-7.363
्हें	-7.36802
भारत	-7.36898
करते	-7.37266
लोग	-7.38029
ले	-7.39545
दे	-7.40872
लोगों	-7.41222
ियों	-7.43487
तक	-7.4385
इन	-7.43994
s	-7.44602
जाता	-7.46066
द	-7.46565
▁¤	-7.47174
हमार	-7.47366
फिर	-7.49037
मैं	-7.4933
्	-7.50722
▁"	-7.50928
क्या	-7.51154
करें	-7.51897
दिया	-7.52208
ड	-7.53087
करना	-7.55617
वि	-7.56785
▁्	-7.57092
कहा	-7.57417
ुदा	-7.58046
अपनी	-7.60229
/	-7.60841
ल्लाह	-7.61025
दो	-7.61105
ला	-7.61124
ें	-7.63403
▁?	-7.63671
य	-7.63754
ब	-7.63763
हुए	-7.64504
थी	-7.64511
ण	-7.66999
ि	-7.68494
बात	-7.68596
ः	-7.69223
रहे	-7.69243
ह	-7.71097
▁;	-7.73176
समय	-7.74148
ती	-7.74787
करता	-7.7522
सकता	-7.76157
कार्य	-7.77951
बड	-7.78614
अधिक	-7.78753
श	-7.7917
होता	-7.80252
ो	-7.80312
रहा	-7.80417
वाले	-7.80577
सी	-7.83413
ऐ	-7.83609
सा	-7.83942
बना	-7.86376
पास	-7.86728
बाद	-7.8795
बहुत	-7.89306
ीय	-7.90132
दी	-7.91793
उ	-7.91997
प	-7.932
तरह	-7.95209
उन्होंन	-7.97397
प्र	-7.98351
हुआ	-7.98566
गए	-7.99301
क्षेत्र	-8.0077
तुम्हारे	-8.0114
ट	-8.01253
काम	-8.0223
▁¦_¦	-8.03212
दिन	-8.03327
▁'	-8.03349
यदि	-8.04594
राष्ट्रपति	-8.05198
होने	-8.05837
सब	-8.05947
a	-8.06142
वर्ष	-8.0672
मान	-8.06822
अन्य	-8.07061
प्राप्त	-8.07093
उनकी	-8.08091
कार	-8.08526
होगा	-8.08773
पहले	-8.08885
जिन	-8.09168
ओर	-8.11167
नाम	-8.1122
गई	-8.11981
ऐसे	-8.11982
वाला	-8.12106
सभी	-8.12323
▁%	-8.13736
प्रकार	-8.15307
हर	-8.15745
संबंध	-8.16763
सरकार	-8.1691
राज्य	-8.17065
सकते	-8.17465
प्रति	-8.17494
कम	-8.17547
करो	-8.18019
जी	-8.18494
जाने	-8.18753
कारण	-8.19261
अगर	-8.1963
बढ	-8.20357
𐊣	-8.2069
𐊼	-8.2069
देश	-8.21284
बार	-8.22081
.	-8.22249
व्यक्ति	-8.22324
पड	-8.22777
चाहिए	-8.22936
एव	-8.23639
2	-8.23842
कह	-8.23857
होती	-8.24346
▁:	-8.25297
एं	-8.26719
ऐसा	-8.27032
सं	-8.27248
भाग	-8.28111
क्यों	-8.28133
रसूल	-8.28649
नी	-8.29265
भारतीय	-8.29538
पूर्व	-8.30696
भ	-8.32064
मुझे	-8.32363
च	-8.32804
रह	-8.33154
रा	-8.3469
प्रदान	-8.35606
अब	-8.36015
लिया	-8.36191
ली	-8.37933
दोनो	-8.38016
नि	-8.38195
्य	-8.38553
जाती	-8.40333
पूर्ण	-8.40524
छ	-8.40934
री	-8.41545
ाई	-8.42229
मे	-8.42233
अपना	-8.4266
विकास	-8.43051
जीवन	-8.43171
होते	-8.43366
जैसे	-8.44515
पी	-8.45787
पा	-8.46448
हुई	-8.47279
इ	-8.47621
ां	-8.47681
‍	-8.48191
रब	-8.48995
ध	-8.4912
सु	-8.49402
रही	-8.49473
अनु	-8.49566
उपयोग	-8.49645
यों	-8.50462
देख	-8.50473
मत	-8.50779
श्री	-8.52163
माल	-8.522
ईमान	-8.52698
बारे	-8.53193
जान	-8.54083
बीच	-8.5416
चीज	-8.54205
सेवा	-8.54961
मा	-8.55039
स्थान	-8.55732
मेरे	-8.55739
लगा	-8.56578
पैदा	-8.5672
ओ	-8.56947
आज	-8.5767
▁!	-8.57749
ेकिन	-8.58448
हां	-8.59348
विचार	-8.59619
हूँ	-8.60438
देने	-8.61313
दूसरे	-8.61397
अधिनियम	-8.61528
e	-8.62495
▁-	-8.62688
▁।"	-8.62703
आग	-8.62931
▁¦1¦	-8.6304
्स	-8.64141
बन	-8.64665
उप	-8.65417
छोड	-8.65429
िंग	-8.65431
जाएगा	-8.65451
बाहर	-8.65527
चल	-8.65656
जाना	-8.65961
जाए	-8.66382
रे	-8.66759
वाली	-8.67031
थवा	-8.67155
ऐस	-8.67339
योजना	-8.67904
लो	-8.6848
m	-8.68616
हमें	-8.69468
ू	-8.69954
वही	-8.69999
राज	-8.70008
इसे	-8.70154
रख	-8.70833
केवल	-8.70913
शक्ति	-8.71229
राष्ट्रीय	-8.71297
सहाय	-8.71638
बस	-8.71686
विशेष	-8.72439
स्	-8.73031
ु	-8.73708
गी	-8.73732
दर	-8.74428
भेज	-8.74517
क्ष	-8.74531
वी	-8.74557
मन	-8.748
स्थिति	-8.75232
उसी	-8.75533
सबसे	-8.75685
d	-8.75911
आधार	-8.7609
समझ	-8.76329
प्रयोग	-8.76885
मेरी	-8.76924
▁¥	-8.77524
जन	-8.77906
कभी	-8.78239
धारा	-8.78422
सूचना	-8.79311
िया	-8.79391
तब	-8.79523
ार	-8.79552
घर	-8.80188
याद	-8.80482
उपलब्ध	-8.80789
करती	-8.80879
घ	-8.81095
एँ	-8.8111
टी	-8.81232
ाब	-8.81276
वालों	-8.82096
l	-8.82133
बे	-8.82645
संदेश	-8.8311
जाते	-8.8338
धर	-8.83496
चु	-8.83893
कुल	-8.83966
सकती	-8.84168
c	-8.84349
0¦	-8.84399
बल्	-8.84399
भर	-8.84421
हा	-8.8463
दिखा	-8.84762
सूची	-8.84837
दूर	-8.84876
बा	-8.85028
तर	-8.85166
बी	-8.85274
तरफ	-8.85552
सभा	-8.86287
सर	-8.86833
शिक्षा	-8.87132
अलग	-8.87306
अभि	-8.87361
दूसर	-8.8786
पता	-8.88226
परवरदिगार	-8.88378
ाइल	-8.888
ीकरण	-8.90315
सम	-8.91083
यहाँ	-8.9144
वा	-8.91581
i	-8.92026
निर्माण	-8.92028
अच्छा	-8.92029
स्पष्ट	-8.9203
p	-8.92652
हूं	-8.92788
लोक	-8.92814
जोड	-8.93167
गा	-8.93198
दा	-8.93421
तैयार	-8.93527
पत्र	-8.93678
दि	-8.93727
ंग	-8.9389
गत	-8.94172
विषय	-8.94624
जल	-8.94948
अज	-8.95016
लड	-8.95078
आदि	-8.9513
लिये	-8.95286
हित	-8.95473
name	-8.95817
भाषा	-8.95894
पूरी	-8.95962
%	-8.96023
िल	-8.96118
योग	-8.96196
थ	-8.96369
परि	-8.96915
तौर	-8.97083
अधीन	-8.97375
होंगे	-8.97476
ढ	-8.97528
उच्च	-8.97879
अवसर	-8.98173
करेगा	-8.98397
विभिन्न	-8.98977
b	-8.9949
आई	-8.99587
एस	-8.99787
लगे	-8.99895
विश्व	-8.9997
ियाँ	-9.00089
काल	-9.00101
आय	-9.0011
बता	-9.00221
रंग	-9.0037
शामिल	-9.00567
मुख्य	-9.0058
पूरा	-9.00674
चाहत	-9.00702
खंड	-9.00796
ीन	-9.01088
ै	-9.01105
▁”	-9.01349
निश्चय	-9.01374
मिल	-9.01494
तुम्हार	-9.0185
बर	-9.02498
होगी	-9.02521
मि	-9.02522
यक	-9.02908
किताब	-9.02985
शब्द	-9.03019
वस्तु	-9.0302
यर	-9.03338
t	-9.03342
डाल	-9.03427
ाँ	-9.03653
झ	-9.03675
प्रभाव	-9.03717
चार	-9.03727
▁‘	-9.03887
2¦	-9.04617
बल	-9.05386
राम	-9.05601
्त	-9.0563
पहल	-9.05872
अधिकार	-9.0641
प्रक्रिया	-9.0642
तः	-9.06607
स्तर	-9.06611
लग	-9.0669
अर्थ	-9.07327
करे	-9.08044
उनमें	-9.08078
बदल	-9.09074
दौरा	-9.09474
ंड	-9.09992
परिवर्तन	-9.10023
ोर	-9.10036
ज्ञान	-9.10274
यही	-9.10356
आपको	-9.10437
वर्त	-9.10617
हेतु	-9.10787
हों	-9.10814
भवन	-9.10836
प्रत्ये	-9.10919
अव	-9.11136
▁...	-9.11535
लिख	-9.11558
r	-9.11672
दुनिया	-9.11684
नई	-9.1217
उनको	-9.12441
मंत्री	-9.12649
ेगा	-9.12735
रखा	-9.12827
मूल	-9.12827
ऊपर	-9.12862
चाहता	-9.13144
तम	-9.13476
पढ	-9.1356
दार	-9.13628
मू	-9.13687
रो	-9.13797
शुरू	-9.14436
अनुसार	-9.14455
लाभ	-9.14527
जारी	-9.14651
अभी	-9.15365
माध्यम	-9.15375
धर्म	-9.1538
यू	-9.15397
गयी	-9.15407
इसी	-9.1566
गे	-9.15674
पि	-9.1579
सीमा	-9.15917
अनेक	-9.16471
ति	-9.16708
खा	-9.16825
ऊ	-9.16875
दान	-9.17087
मदद	-9.17283
4¦	-9.17529
दें	-9.17645
रहत	-9.1803
सामन	-9.1807
वर	-9.18604
खुदा	-9.18644
दिल	-9.19053
संख्या	-9.1909
िर	-9.19465
आम	-9.19675
लाल	-9.19977
महत्वपूर्ण	-9.20189
मर	-9.20212
मुख	-9.20315
कु	-9.20348
र्इ	-9.20835
देना	-9.21082
विश्वास	-9.21175
प्रौद्योगिकी	-9.21245
ठीक	-9.2132
सुरक्षा	-9.21344
तीन	-9.21735
सामान्य	-9.21846
आर	-9.22052
निकल	-9.22424
आदेश	-9.22426
मार्ग	-9.22525
0	-9.22738
पक्ष	-9.22779
ियां	-9.23068
परिणाम	-9.23179
उद्देश्य	-9.2318
▁#	-9.23186
पानी	-9.23277
मु	-9.23294
देखा	-9.23321
चित	-9.23831
कर्म	-9.2437
सह	-9.24687
हाल	-9.24703
बैंक	-9.24778
पद	-9.24815
करेंगे	-9.24918
मौजूद	-9.2523
▁&	-9.25246
कार्यक्रम	-9.25267
नीचे	-9.25278
तू	-9.25359
क्षेत्रों	-9.25544
4	-9.25572
जनता	-9.25645
पुर	-9.26015
न्तु	-9.26017
कहत	-9.26157
म्बर	-9.26161
प्रतिशत	-9.26272
निर्धारित	-9.26273
समूह	-9.26318
निकाल	-9.26324
विज्ञान	-9.26335
1¦	-9.26362
खोल	-9.26395
अतः	-9.26475
in	-9.26917
o	-9.2719
▁¦19	-9.27346
महा	-9.27604
बनाने	-9.27753
स्व	-9.28051
तुम्हारी	-9.28057
वार	-9.28064
जमा	-9.28064
स्वयं	-9.28389
al	-9.28593
डी	-9.2883
बच्च	-9.29014
िका	-9.29096
कल	-9.2915
▁¤3⁄4	-9.29464
मगर	-9.29518
ऋण	-9.29523
अधिकारी	-9.30184
मेरा	-9.30539
गू	-9.30575
सिर्	-9.3058
व्यापार	-9.30586
प्रस्तुत	-9.30603
▁>	-9.30611
नया	-9.30677
रुप	-9.30841
मीन	-9.31123
सिवा	-9.31143
चला	-9.31337
प्रयास	-9.31651
स्वतंत्र	-9.31655
ोल्डर	-9.31658
प्रमुख	-9.31688
काफी	-9.31898
आवश्यकता	-9.3262
वर्ग	-9.32684
भाव	-9.3276
कृषि	-9.32761
पश्चिम	-9.32761
▁’	-9.32767
परियोजना	-9.32785
ॉ	-9.33104
संस्थान	-9.33121
मामले	-9.33355
ऋ	-9.33417
सो	-9.33831
ज्यादा	-9.33885
युद्ध	-9.33886
पिछल	-9.33888
किस	-9.33919
सके	-9.34032
खोज	-9.34076
एन	-9.34218
साफ	-9.34276
3¦	-9.34552
6¦	-9.34665
रु	-9.34686
मै	-9.34911
विश्वविद्यालय	-9.35022
▁“	-9.35024
कानून	-9.35036
विंडो	-9.35104
आए	-9.35132
बिना	-9.35283
n	-9.35285
अवधि	-9.36171
न्यायालय	-9.36172
उद्योग	-9.36174
प्रधान	-9.36183
पीछे	-9.36212
जानते	-9.36371
आया	-9.36737
ठ	-9.37074
स्वीकार	-9.37314
सामाजिक	-9.37333
अच्छे	-9.37333
स्ट	-9.37354
u	-9.37574
आकार	-9.37604
डर	-9.37834
हाथ	-9.37838
उठा	-9.37846
स्थाप	-9.37871
केन्द्र	-9.38041
क्रम	-9.38177
निम्न	-9.38509
विवरण	-9.38509
सहयोग	-9.38524
नीति	-9.38543
▁¦44	-9.38657
सन	-9.39155
मूल्य	-9.39305
आख	-9.39367
गो	-9.39423
बन्द	-9.39534
रू	-9.39794
जैसा	-9.39925
सर्व	-9.40016
ेह	-9.40162
राष्ट्र	-9.40225
f	-9.4032
प्रदेश	-9.4041
एम	-9.4044
हार	-9.40619
संस्था	-9.40726
अंत	-9.4077
रात	-9.40897
निर्दिष्ट	-9.40905
जगह	-9.40908
चाहे	-9.40957
1	-9.41045
धन	-9.41196
जे	-9.41648
चा	-9.4174
रोग	-9.41792
ध्यान	-9.42124
समस्या	-9.42124
बेशक	-9.42142
पश्चात	-9.42234
आवश्यक	-9.42305
क्रिया	-9.4242
सारे	-9.42531
चित्र	-9.43092
हत	-9.43146
बराबर	-9.43359
सत्य	-9.43365
वक्त	-9.43386
जुड	-9.43424
चयन	-9.4355
जिन्हें	-9.43631
लाइन	-9.43732
न्	-9.4378
केंद्र	-9.44131
हे	-9.44214
प्रबंध	-9.44265
बि	-9.44326
8	-9.44373
प्रणाली	-9.44609
प्रेम	-9.4462
जानकारी	-9.44625
आर्थ	-9.44673
आने	-9.44725
चि	-9.44835
अगल	-9.44852
क्षमता	-9.451
्व	-9.45322
सुविधा	-9.45876
लगभग	-9.45877
आकाश	-9.45891
मध्य	-9.46085
गण	-9.46135
दृष्टि	-9.46195
हीं	-9.46292
रि	-9.46383
र्	-9.46466
इतन	-9.46783
शन	-9.46992
6	-9.47042
मार	-9.47642
रखते	-9.47694
जाओ	-9.47929
साल	-9.47971
अतिरिक्त	-9.48457
लेने	-9.48466
विधि	-9.48571
▁¦3	-9.48935
निशान	-9.48945
बैठक	-9.49619
अंतर	-9.49765
संसद	-9.49787
सिंह	-9.49798
रखने	-9.49833
बाज	-9.49909
कला	-9.50116
खड	-9.50377
समर्थ	-9.50398
ोन	-9.5042
हक	-9.50639
ात्मक	-9.50777
भू	-9.50797
	-9.51104
निर्णय	-9.51104
200	-9.51191
कहने	-9.51271
ूम	-9.51295
रोक	-9.51346
विदेश	-9.51356
शील	-9.51389
नए	-9.51513
उत्तर	-9.51702
नियम	-9.51749
दल	-9.52141
वास्त	-9.52415
अच्छी	-9.52456
हुक्म	-9.52457
कौन	-9.52516
जि	-9.53367
अप	-9.53434
,	-9.53483
रहने	-9.53505
अधि	-9.53515
लाए	-9.53552
पो	-9.53808
मनुष्य	-9.53826
महिला	-9.5384
संघ	-9.53856
गैर	-9.53896
गुण	-9.53926
मिला	-9.54085
pr	-9.54413
देशों	-9.54565
फल	-9.54926
वाद	-9.54958
संयुक्त	-9.55235
y	-9.5529
सही	-9.55361
स्त	-9.55488
पालन	-9.55581
निवेश	-9.55712
ाव	-9.55747
डियो	-9.5584
बंगाल	-9.56623
परिवार	-9.5664
ाना	-9.57053
सुन	-9.57229
सदस्य	-9.57379
प्रकाश	-9.574
निश्चित	-9.57596
यां	-9.57763
वेब	-9.57773
9¦	-9.57799
आयत	-9.57879
k	-9.58021
ष	-9.58033
जन्म	-9.58034
मानव	-9.58035
अनुसंधान	-9.58052
दक्षिण	-9.58052
सम्बन्ध	-9.58053
राशि	-9.58078
यात्रा	-9.58134
ऑफ	-9.58182
सुधार	-9.58229
विशिष्ट	-9.58381
मी	-9.58748
पन	-9.59137
वित्तीय	-9.59525
जाएगी	-9.59543
भार	-9.59728
▁¦10	-9.59983
करा	-9.59991
क्	-9.60058
▁''	-9.60465
स्थापना	-9.60806
प्रारंभ	-9.60973
कंपनी	-9.60975
रिपोर्ट	-9.60976
यातना	-9.60977
संगठन	-9.61031
ौम	-9.61092
शहर	-9.61166
x	-9.61292
आधारित	-9.6144
जिससे	-9.61554
लाख	-9.61862
वन	-9.62398
संपर्क	-9.62464
सक्रिय	-9.62464
बोर्ड	-9.6247
्म	-9.62512
थोड	-9.62688
टा	-9.62719
पार	-9.62949
पहुँच	-9.63048
अंतर्ग	-9.63056
ंत	-9.6315
डि	-9.63277
समान	-9.63367
एक्स	-9.636
v	-9.63659
तु	-9.63707
▁¦2¦	-9.63772
चुका	-9.63792
लें	-9.63989
स्वरूप	-9.6409
बेट	-9.64182
परन्तु	-9.64392
शक	-9.64945
वै	-9.65042
वृद्धि	-9.65064
नाथ	-9.65173
राह	-9.65459
	-9.65518
त्रुटि	-9.65518
दिल्ली	-9.65518
समाप्त	-9.65519
मंदिर	-9.65531
बाजार	-9.65546
w	-9.65591
हमेश	-9.65601
हिस्स	-9.65633
पहचान	-9.65637
सोच	-9.65883
पे	-9.65903
गड	-9.66278
बाग	-9.66378
डा	-9.66636
पति	-9.66766
नव	-9.66972
बाल	-9.67034
प्रथम	-9.6708
▁¤°	-9.67082
निस्संद	-9.67086
व्यवस्था	-9.67141
भय	-9.67228
एल	-9.67266
कारी	-9.67274
जरूरत	-9.67299
परंतु	-9.67314
नही	-9.67347
हटा	-9.67854
भूमि	-9.68194
लू	-9.68202
समाज	-9.68202
ोड	-9.68458
हु	-9.68465
दु	-9.68601
लक्ष्य	-9.68667
निर्धारण	-9.68669
शासन	-9.68758
खेल	-9.68795
सेट	-9.68956
वहाँ	-9.68991
भूत	-9.69075
न्याय	-9.6912
लौट	-9.69379
वो	-9.69478
बिल	-9.69559
गिर	-9.69758
मंत्रालय	-9.69815
डाक	-9.6985
गु	-9.70014
रत	-9.70109
पेश	-9.70185
अनुभव	-9.70283
बेहतर	-9.70288
वापस	-9.7029
नियंत्रण	-9.70297
साम	-9.70308
ion	-9.70332
चे	-9.70586
फेर	-9.70916
)	-9.71086
सार	-9.71139
9	-9.71451
्ट	-9.71659
प्रश्न	-9.7192
अंग्रेज	-9.7192
ग्रामीण	-9.7192
जांच	-9.71921
पुरुष	-9.71921
पैग	-9.71971
तृत	-9.71977
दिशा	-9.71979
आसमान	-9.72088
उत्पादन	-9.72192
मेल	-9.72271
चर	-9.72345
महान	-9.7237
मज	-9.72378
भला	-9.72432
व्यक्त	-9.72742
जीव	-9.72779
अन	-9.72865
गार	-9.72999
समिति	-9.73095
कृप	-9.73155
रचना	-9.73527
स्वास्थ्य	-9.73586
वास्तव	-9.73618
पथ	-9.73892
िम	-9.7394
मांग	-9.74025
भीतर	-9.74056
भाई	-9.74135
पाठ	-9.74437
h	-9.74655
जिन्ह	-9.74718
स्थ	-9.74922
विभाग	-9.75046
option	-9.75282
इतिहास	-9.75293
पुनर्	-9.75295
कर्ता	-9.7539
सामग्र	-9.75527
छवि	-9.75562
वादी	-9.75961
गुज	-9.76042
शाय	-9.76078
पाया	-9.76095
अलाव	-9.76287
लगत	-9.76363
समझा	-9.76443
मुक	-9.76554
ात	-9.76584
ँ	-9.76651
घटना	-9.77069
साइट	-9.77094
नो	-9.77299
विकल्प	-9.77356
सम्	-9.77551
ीकृत	-9.77932
युक्त	-9.7821
माना	-9.78729
मुँह	-9.7876
शरीर	-9.7876
संभव	-9.78763
दिवस	-9.78764
प्रस्ताव	-9.78765
स्थानीय	-9.78891
जहाँ	-9.789
अमेरिका	-9.78903
फाइल	-9.79127
िए	-9.79289
देग	-9.79447
सुना	-9.79733
र्जी	-9.79881
कितन	-9.79948
म्ब	-9.79988
देखने	-9.80074
वान	-9.80095
रोज	-9.8028
g	-9.8044
पृष्ठ	-9.8054
वैज्ञानिक	-9.80545
स्रोत	-9.80546
मृत्यु	-9.80546
kg	-9.8055
मो	-9.80741
बोल	-9.8076
भिन्न	-9.80842
देखते	-9.80868
विस्	-9.81
▁),	-9.8102
बच्चों	-9.81301
ऑ	-9.81473
ान	-9.81793
रहो	-9.81959
झुठला	-9.81986
्र	-9.8206
लि	-9.82128
पहुंच	-9.82182
दृश्य	-9.82403
कों	-9.82683
मात्रा	-9.8271
खुद	-9.82761
टन	-9.82914
सदस्यों	-9.82942
▁¦1	-9.82944
ंबर	-9.83
स्थित	-9.83159
8¦	-9.83173
पु	-9.83312
निर्	-9.83656
रूर	-9.83711
आत्म	-9.83804
अल	-9.83868
आरंभ	-9.84216
संविधान	-9.84226
ग्	-9.8437
उपस्थित	-9.84433
पुकार	-9.84443
आशा	-9.84508
यी	-9.84699
कैसे	-9.84868
वज	-9.84964
सू	-9.85375
पूर्वक	-9.85384
डॉ	-9.85406
लेख	-9.85524
ेंगे	-9.85525
हाँ	-9.85565
गें	-9.85611
ष्ट	-9.85742
देव	-9.85748
लेखा	-9.85857
िश	-9.85879
गांधी	-9.86073
प्रमाण	-9.86089
३	-9.86092
पसंद	-9.86105
विस्तार	-9.86107
▁¤	-9.86109
प्रवेश	-9.86112
जवाब	-9.86127
प्रकट	-9.86153
ंतु	-9.8618
सर्वर	-9.86264
ाने	-9.86351
▁¦11	-9.86364
जाएँ	-9.86401
फा	-9.86444
भावना	-9.86474
टर	-9.86529
वीं	-9.86593
तरीक	-9.86719
्ष	-9.87073
कड	-9.87398
ैर	-9.8742
जाति	-9.87602
बह	-9.87614
उड	-9.87967
z	-9.88024
चिकित्सा	-9.88025
नागरिक	-9.88026
निर्यात	-9.8803
उपकरण	-9.88041
▁?"	-9.88046
ईमानदार	-9.88068
संसाधन	-9.88083
चर्चा	-9.8811
मना	-9.88246
र्क	-9.88471
ly	-9.88503
शाल	-9.88582
लिखा	-9.88653
बनाए	-9.88659
गोल	-9.88706
डे	-9.88797
सहायक	-9.88897
दिनों	-9.88944
जाएँगे	-9.89149
अग्र	-9.89492
व्यवहार	-9.89962
ण्ड	-9.89978
आवेदन	-9.89986
शुल्क	-9.89987
▁¥	-9.89988
त्पन्न	-9.89992
प्रगति	-9.9002
इस्ते	-9.9003
विकस	-9.90056
चरण	-9.90059
राजा	-9.90317
पुरान	-9.9052
भूमिका	-9.90603
गति	-9.90673
ास	-9.90826
मुक्त	-9.90841
व्य	-9.91133
उत्पाद	-9.91185
प्रदर्श	-9.91417
रेल	-9.91444
दम	-9.91573
टो	-9.91576
ेड	-9.91805
पहुँचा	-9.91956
छोटे	-9.91986
झूठ	-9.91986
स्कूल	-9.91991
अवस्था	-9.92029
पकड	-9.92094
ट्र	-9.92102
युग	-9.92344
पै	-9.92498
निज	-9.9324
सरकारी	-9.93264
नगर	-9.93467
पूछ	-9.93516
बच	-9.93573
आपस	-9.93589
कमी	-9.93643
लंब	-9.93669
सफल	-9.93748
साहित्य	-9.93959
उदाहरण	-9.94027
दृढ	-9.94027
भुगतान	-9.94027
tp	-9.9406
क्षमा	-9.94093
्या	-9.94094
वैध	-9.94101
लागत	-9.94222
आयु	-9.94247
प्रतीक	-9.94517
▁¦18	-9.94683
गुनाह	-9.94762
पाल	-9.9515
पत	-9.95346
सि	-9.95513
बंद	-9.9555
गर	-9.95796
▁¦20	-9.95836
दाय	-9.95838
कृत	-9.95908
त्र	-9.96056
सिद्ध	-9.96099
ht	-9.96108
शेयर	-9.96109
हस्ताक्षर	-9.9611
तंत्र	-9.96119
प्रशिक्षण	-9.96136
चुनें	-9.9623
दिखाएँ	-9.96388
रास्त	-9.96595
ंकि	-9.96661
रस	-9.96748
जिला	-9.96798
०	-9.97131
नाज	-9.9726
्यू	-9.97493
चाहि	-9.97525
वर्ण	-9.97609
पात	-9.97661
२	-9.97807
अंति	-9.97819
राय	-9.97912
महत्व	-9.98218
not	-9.98242
पुनः	-9.9825
प्रमाणपत्र	-9.98253
समुदाय	-9.98254
संगीत	-9.98262
अन्त	-9.98265
आसान	-9.98274
संकेत	-9.98322
गलत	-9.98386
अपेक्षा	-9.98404
रज	-9.98432
पाक	-9.98471
पूरे	-9.98545
तल	-9.98672
शी	-9.98707
र्व	-9.98874
बु	-9.98977
नर	-9.99069
रखना	-9.99162
एफ	-9.99184
इनमें	-9.99329
3	-9.99342
खाते	-9.99543
बने	-9.99548
▁¦15	-10.0017
छा	-10.0034
ंस	-10.0034
करण	-10.0035
city	-10.0041
ऊर्जा	-10.0041
अध्ययन	-10.0041
शख्स	-10.0042
दिनांक	-10.0042
गुरु	-10.0043
राजनीति	-10.0044
खरीद	-10.0044
जैस	-10.0046
खाता	-10.0055
उपधार	-10.0074
निर्देश	-10.0084
ताओं	-10.0087
प्रण	-10.0096
रीब	-10.0097
मोह	-10.0111
गवाह	-10.0111
वास	-10.0156
सीख	-10.0173
सौ	-10.0179
रक्त	-10.0185
प्रो	-10.0185
पंज	-10.02
शि	-10.0203
मात्र	-10.0224
तेज	-10.0241
कठिन	-10.0243
शेष	-10.0257
चले	-10.0262
औद्योगिक	-10.0263
दस्तावेज	-10.0263
▁://	-10.0264
पुलिस	-10.0264
▁@	-10.0264
संपत्ति	-10.0264
htm	-10.0265
संरक्षण	-10.0266
प्रकृति	-10.0266
आतंकवाद	-10.0266
्श्	-10.0269
ग्राम	-10.0271
तत्व	-10.028
बहु	-10.0287
वित्त	-10.0289
तौ	-10.0312
राज्यों	-10.0326
इं	-10.0335
लोड	-10.0335
सका	-10.0354
स्थल	-10.0363
बचा	-10.0372
शा	-10.0379
बर्	-10.0429
नीय	-10.0439
हद	-10.0443
सच्च	-10.0446
आस	-10.0478
लाने	-10.0489
रुद्ध	-10.049
मुसलमान	-10.0491
उल्लेख	-10.0491
पहाड	-10.0491
मजबूत	-10.0491
प्राकृत	-10.0492
हल	-10.0494
प्रशासन	-10.0496
पट	-10.0496
रेखा	-10.051
बाप	-10.051
शिश	-10.0518
जितन	-10.0522
जू	-10.0522
श्	-10.0524
स्थाय	-10.0531
चाह	-10.0536
पक	-10.0537
ंगी	-10.0539
ाम	-10.054
रकम	-10.0551
हाला	-10.0573
गल	-10.0574
न्न	-10.0582
ट्टी	-10.059
अंग	-10.0618
अरब	-10.0624
मिलने	-10.0627
ालिम	-10.0635
वहन	-10.0652
द्वार	-10.0682
अनिवार्य	-10.0723
गुणवत्ता	-10.0723
पूंजी	-10.0723
सम्मेलन	-10.0723
doe	-10.0723
▁+	-10.0723
समाधान	-10.0724
पर्याप्त	-10.0724
पदार्थ	-10.0724
मीटर	-10.0724
विवाह	-10.0726
अनुमति	-10.0727
शास्त्र	-10.0728
केंद्रीय	-10.073
वास्तविक	-10.0733
बो	-10.0737
गीत	-10.074
भली	-10.0742
▁):	-10.0743
रुपये	-10.0743
ियम	-10.0763
न्यू	-10.0765
हि	-10.0801
िन्द	-10.083
इच्छा	-10.0839
मिटा	-10.0858
ैल	-10.0859
translat	-10.0867
मार्गदर्श	-10.0888
कै	-10.0903
वत	-10.0905
महीन	-10.0912
ent	-10.0922
घाट	-10.0924
योग्य	-10.0929
कहो	-10.0931
ार्थ	-10.0931
हिर	-10.0951
पुस्तक	-10.0952
सक्षम	-10.0956
डिस्क	-10.0957
need	-10.0961
obab	-10.0961
आधुनिक	-10.0961
भविष्य	-10.0961
सार्वजनिक	-10.0961
्कार	-10.0961
प्रयोजन	-10.0962
सिर	-10.0963
युवा	-10.0963
गृह	-10.0964
व्यापक	-10.0966
ेंट	-10.097
संशोधन	-10.098
सफलता	-10.0985
िड	-10.1001
दू	-10.1016
आत्मा	-10.1018
हट	-10.102
रखो	-10.1021
गाड	-10.1021
क्स	-10.1027
रक्षा	-10.1072
ल्	-10.1079
सात	-10.1086
परीक्षा	-10.1092
12	-10.1098
संरचना	-10.1099
nic	-10.1107
ावा	-10.1116
ुर	-10.1116
मद	-10.1132
मक	-10.1135
मिली	-10.1138
शीर्ष	-10.1169
लु	-10.1199
नेटवर्क	-10.1205
समारोह	-10.1205
कंप्यूटर	-10.1206
अध्यक्ष	-10.1206
अधिकांश	-10.1206
गर्भ	-10.1207
अर्थात	-10.1207
विजय	-10.1209
सत	-10.1211
समा	-10.1211
सुरक्ष	-10.1212
चढ	-10.1213
सरल	-10.1217
प्रयुक्त	-10.1231
आदमी	-10.1233
बनी	-10.1239
चू	-10.1248
नदी	-10.126
रखे	-10.1281
सेना	-10.1321
कट	-10.133
खो	-10.1333
तरीके	-10.1338
५	-10.134
र्स	-10.1365
आयोज	-10.1369
दास	-10.137
शुक्र	-10.1391
वायद	-10.1398
बीमार	-10.1409
स्वा	-10.1429
पैर	-10.1432
ाया	-10.1441
अति	-10.1448
ईश्वर	-10.1455
परिषद	-10.1455
पर्यावरण	-10.1455
ॅ	-10.1455
खाद्य	-10.1455
नाटक	-10.1456
डेटा	-10.1456
मुद्द	-10.1456
किसान	-10.1458
पात्र	-10.1459
दीन	-10.1461
संभावना	-10.1464
▁–	-10.1466
िता	-10.1467
द्यप	-10.1468
एच	-10.1509
पहुंचा	-10.151
प्रभावित	-10.1514
मिलता	-10.1523
वाक	-10.1545
सद	-10.1547
खास	-10.1552
संग्रह	-10.1566
सच	-10.157
ियन	-10.1586
वात	-10.1588
४	-10.1589
तों	-10.1589
८	-10.1602
पिता	-10.1605
यें	-10.1623
उत्	-10.1647
▁¦4	-10.1654
समुद्र	-10.1659
इस्लाम	-10.1665
तार	-10.1674
विभाज	-10.17
६	-10.171
अवश्य	-10.1712
जहन्नुम	-10.1712
पुरस्कार	-10.1712
शीघ्र	-10.1712
संस्करण	-10.1712
भंडार	-10.1712
कांग्रेस	-10.1712
उद्यम	-10.1712
सत्ता	-10.1712
उपबंध	-10.1713
वायु	-10.1713
निधि	-10.1714
साधारण	-10.1714
मंडल	-10.1716
संसार	-10.1716
आवाज	-10.1716
बुद्धि	-10.1717
उपचार	-10.1717
संचार	-10.172
बुरा	-10.1727
ग्राहक	-10.1729
शर्त	-10.1736
अत्यन	-10.1737
संस्कृत	-10.175
र्च	-10.1778
देती	-10.1781
धिक	-10.1789
लेखक	-10.1804
कथा	-10.1819
ची	-10.1828
आयात	-10.183
ृत	-10.1831
बदला	-10.1831
ग्रहण	-10.187
पोर्ट	-10.1892
रिया	-10.1902
बदले	-10.1918
मल	-10.1938
बैठ	-10.1948
माँ	-10.196
जरूर	-10.1966
शताब्द	-10.1975
संदर्भ	-10.1975
हिन्दी	-10.1975
▁}	-10.1976
बयान	-10.1978
द्द	-10.1978
पीठ	-10.198
व्यय	-10.1981
विशाल	-10.1982
खर्च	-10.1987
▁)।	-10.1992
जीवित	-10.2015
त्व	-10.2038
चाल	-10.208
जाय	-10.211
कविता	-10.2116
सूर	-10.212
नज	-10.2123
आते	-10.2147
खुलत	-10.2178
ब्	-10.2227
सम्मान	-10.223
श्त	-10.2243
यु	-10.2244
छोटा	-10.2245
हृदय	-10.2245
अनुच्छेद	-10.2246
सख्त	-10.2246
समाचार	-10.2248
गिज	-10.2249
दशा	-10.2252
ढंग	-10.2257
वें	-10.2266
भा	-10.2271
गढ	-10.2287
अभिलेख	-10.2291
नियत	-10.234
असफल	-10.2346
चलता	-10.235
बैंकों	-10.2366
ोगे	-10.2381
ूँगा	-10.2399
पट्ट	-10.2413
टे	-10.2416
िट	-10.2422
लिम	-10.2426
निकट	-10.2435
मुझ	-10.2458
प्रत्य	-10.2458
ृ	-10.246
बद	-10.2491
रीख	-10.2518
चिह्न	-10.2523
मोमिन	-10.2523
सिस्टम	-10.2523
अत्याचार	-10.2523
शुद्ध	-10.2523
प्रोग्राम	-10.2523
स्वामी	-10.2524
स्वागत	-10.2524
कूट	-10.2525
भाषण	-10.2526
मामल	-10.253
सलाह	-10.2542
सदन	-10.2566
बिल्	-10.2591
मोड	-10.2593
सिल	-10.2594
रण	-10.2597
उतार	-10.26
मय	-10.2607
सुनिश्च	-10.2613
गाह	-10.2614
पेट	-10.2626
तट	-10.2647
निक	-10.2647
हवा	-10.2649
खान	-10.2658
व्या	-10.2693
ब्र	-10.2703
उन्हे	-10.2705
मानक	-10.2709
ar	-10.2711
अंक	-10.2718
करार	-10.2747
रिक	-10.2754
अर्ज	-10.2791
१	-10.2805
कलकत्त	-10.2809
छोटी	-10.2809
हिदायत	-10.2809
पांच	-10.2809
गुमराह	-10.2809
घोषणा	-10.2809
अंतर्राष्ट्रीय	-10.281
वेतन	-10.281
▁¦26	-10.2818
देखें	-10.2818
गतिविधिय	-10.2824
काफ	-10.2828
छिपा	-10.2828
स्प	-10.2844
रहेंगे	-10.2846
मालिक	-10.2849
बनाएँ	-10.2856
किनार	-10.2859
नंबर	-10.2861
गाय	-10.2862
भि	-10.289
न्स	-10.2898
हालत	-10.2909
ंद	-10.2947
द्र	-10.2963
ुन	-10.2963
निवास	-10.299
डो	-10.2993
कदम	-10.2999
प्रा	-10.3059
िन	-10.3067
कठ	-10.3095
प्रेर	-10.3103
विद्युत	-10.3103
विधेयक	-10.3103
लघु	-10.3103
जाँच	-10.3103
नैतिक	-10.3103
त्त	-10.3107
साधन	-10.3112
पौध	-10.3117
सत्र	-10.3119
मौ	-10.3121
प्रसार	-10.3125
खूब	-10.3138
विशेषता	-10.3139
प्रकाशित	-10.3143
देन	-10.3166
तिहास	-10.3189
...	-10.3195
ेगी	-10.3219
वीर	-10.322
णा	-10.3229
पीड	-10.324
हज	-10.3246
मनो	-10.3246
डाला	-10.3263
er	-10.3266
धान	-10.3283
ॉल	-10.3291
काव्य	-10.3295
यो	-10.3309
प्रदर्शन	-10.3326
खुश	-10.3368
शोध	-10.3371
सीता	-10.3381
माज	-10.3389
सित	-10.3396
यंत्र	-10.3401
बैठे	-10.3401
ेशन	-10.3405
शिकायत	-10.3406
प्रभुत्व	-10.3406
टुकड	-10.3406
बुला	-10.3407
सिद्धांत	-10.3407
अर्थव्यवस्था	-10.3408
धीरे	-10.3413
वरी	-10.3419
न्द	-10.3419
खुला	-10.3429
▁¦30	-10.343
पूर	-10.3454
दर्शा	-10.3457
िरत	-10.3458
तेल	-10.346
बजाय	-10.346
बध	-10.3462
वंश	-10.3463
ऑन	-10.3501
कोड	-10.3501
िस	-10.3504
ब्ल	-10.3536
जून	-10.3554
च्छ	-10.3557
अता	-10.357
रिज	-10.3571
रखें	-10.3585
बाब	-10.3592
लिंग	-10.3607
यन	-10.3626
बस्त	-10.363
गुना	-10.363
धा	-10.3641
31¦	-10.3644
ुरान	-10.3648
मित्र	-10.3655
▁¦14	-10.3658
कुंजी	-10.3669
बद्ध	-10.3718
अपराध	-10.3718
कटौती	-10.3718
पत्थर	-10.3718
बावजूद	-10.3718
बौद्ध	-10.3718
▁[	-10.3719
गैस	-10.3719
सरकश	-10.3719
अनुरोध	-10.3719
स्वच्छ	-10.3719
चंद्र	-10.372
निर्मित	-10.3722
अनुप्रयोग	-10.3729
दशक	-10.3731
ड्र	-10.3745
भूल	-10.3757
िन्दा	-10.3775
▁¦16	-10.3776
प्राथमिकता	-10.3787
त्रि	-10.3814
मिले	-10.3814
वर्णन	-10.3815
मिलकर	-10.382
लर	-10.3822
शांति	-10.3825
मुस्	-10.3829
टि	-10.383
on	-10.3835
सकें	-10.3893
बारा	-10.3929
ईसा	-10.3934
▁¦13	-10.3943
पस	-10.3957
मह	-10.3962
उठ	-10.3974
सुख	-10.3978
जल्द	-10.3984
चौ	-10.4
़	-10.402
>	-10.4023
यूरोप	-10.4037
घोष	-10.404
इजरायल	-10.4041
उपयोक्ता	-10.4041
कल्याण	-10.4041
▁¦25¦	-10.4041
आंदोलन	-10.4041
स्क्रीन	-10.4041
मिश्र	-10.4042
परस्पर	-10.4042
रोजगार	-10.4042
श्रेणीः	-10.4044
उपयुक्त	-10.4044
छात्र	-10.4045
लॉग	-10.4045
भोजन	-10.4051
चुनाव	-10.4052
दोष	-10.4052
▁¤1	-10.4056
us	-10.4057
पेड	-10.4058
प्राधिकारी	-10.4065
शैली	-10.4069
नौ	-10.4072
दस	-10.4076
ज्	-10.4077
कीमत	-10.4079
कर्मचारी	-10.4085
ौर	-10.4086
शीर्षक	-10.4089
ाइड	-10.4105
▁¦201	-10.4115
उन्ही	-10.4129
्ता	-10.4152
स्था	-10.4155
रुर	-10.4187
प्ल	-10.4195
पाने	-10.4205
माँग	-10.4209
नक	-10.4217
ालय	-10.4225
चुने	-10.4234
ैसल	-10.4239
अर	-10.4243
द्वि	-10.4251
वासी	-10.4275
बेह	-10.4283
एशिया	-10.4288
स्ट्र	-10.429
कदा	-10.4303
ूब	-10.4306
जनक	-10.4314
याँ	-10.4327
is	-10.4337
माह	-10.4343
सड	-10.4346
कृति	-10.4349
हरा	-10.435
पना	-10.4364
समृद्ध	-10.4374
हिन्दू	-10.4374
गंभीर	-10.4374
बुनियाद	-10.4374
गिरोह	-10.4374
सचिव	-10.4374
▁¤®	-10.4374
प्राचीन	-10.4374
गुप्त	-10.4374
पाकिस्तान	-10.4374
लोकप्रिय	-10.4375
मौसम	-10.4376
काट	-10.4376
अंतरराष्ट्रीय	-10.4378
▁{	-10.4381
विफल	-10.4387
प्रचार	-10.4388
कुमार	-10.4389
दोस्त	-10.4392
अधिकारियों	-10.4398
▁¦3¦	-10.4399
रहेगा	-10.4404
भोग	-10.4419
वैश्वि	-10.442
रन	-10.4421
कल्पना	-10.4432
जल्दी	-10.4434
गिन	-10.4441
प्राण	-10.4442
हीन	-10.4451
मानते	-10.4463
सहमत	-10.4464
घट	-10.4472
उभर	-10.4486
रिए	-10.4501
वेद	-10.4511
देंग	-10.4511
ana	-10.4529
लेन	-10.4574
मेट	-10.4585
७	-10.4603
ल्स	-10.4634
जाये	-10.4642
घटा	-10.465
संस्कृति	-10.4668
कार्ड	-10.4679
मोट	-10.469
औ	-10.4705
प्राप्ति	-10.4705
नीतिय	-10.4706
क्रो	-10.471
पूर्ति	-10.4712
वल	-10.4712
दर्ज	-10.4715
पाए	-10.4716
कृष्ण	-10.4717
पद्धति	-10.4717
परंपरा	-10.4718
ंगे	-10.4718
सप्ताह	-10.4719
सुंदर	-10.4719
तुलना	-10.4719
महात्मा	-10.4719
स्मृति	-10.4719
शून्य	-10.4719
सीधे	-10.4719
ूर	-10.472
उत्तम	-10.472
मशीन	-10.4721
बोझ	-10.4721
सत्याप	-10.4721
of	-10.4721
मैदान	-10.4722
अध्याय	-10.4722
मिशन	-10.4722
मंच	-10.4724
ाँति	-10.4724
वाद्य	-10.4725
निहित	-10.473
दीवार	-10.4731
दबा	-10.474
आठ	-10.4741
बोध	-10.4745
उद्	-10.4746
मुद्रा	-10.4748
क्ल	-10.4756
तलब	-10.4763
कीट	-10.4767
लों	-10.4768
चलते	-10.4773
तोड	-10.4781
to	-10.4806
हजार	-10.4807
सीम	-10.4812
न्यून	-10.4814
धु	-10.4834
पन्न	-10.4839
िय	-10.485
हाथों	-10.4855
लैंड	-10.4859
िफ	-10.4869
वृत्त	-10.4891
चीत	-10.4893
्ड	-10.4908
पान	-10.4914
दिला	-10.492
हरू	-10.4921
कान	-10.4921
इबर	-10.4946
ारिक	-10.495
विरा	-10.4976
्ल	-10.4981
00¦	-10.5032
सफ	-10.5034
ंट	-10.5047
त्यंत	-10.5048
जाएं	-10.505
ुफ	-10.5055
इब	-10.5059
▁¦199	-10.5063
संकल्प	-10.5063
अनक	-10.5067
विद्वान	-10.5076
व्यवसाय	-10.5076
संघर्ष	-10.5076
हिंदू	-10.5076
ोल्यूशन	-10.5076
दृष्टिकोण	-10.5076
गंगा	-10.5076
उद्घाट	-10.5077
नियमों	-10.5077
साहस	-10.5077
संविदा	-10.5078
उपन्यास	-10.5078
आदर्श	-10.5078
निगम	-10.5078
निर्भर	-10.5078
पशु	-10.5079
जाएंगे	-10.5081
सागर	-10.5082
खिलाफ	-10.5085
अफ्रीका	-10.5086
यम	-10.509
गर्म	-10.5098
दर्शन	-10.51
देय	-10.5107
खेती	-10.5111
बदलें	-10.5119
ुल	-10.512
तकनीकी	-10.5122
र्ड	-10.5127
साद	-10.5141
नियुक्त	-10.5152
मूर्ति	-10.5153
करीब	-10.5156
फर	-10.5156
वाई	-10.5162
नियमित	-10.5164
or	-10.5165
पत्त	-10.5172
देखो	-10.5186
न्दर	-10.5198
बिज	-10.52
10	-10.5217
चेहर	-10.5219
इनका	-10.5223
बै	-10.5242
ट्स	-10.5256
बनाना	-10.5266
हानि	-10.5283
हासि	-10.529
लिब	-10.5302
स्क	-10.5306
अं	-10.5308
ुश	-10.5311
हीम	-10.5315
ाल	-10.5341
नेता	-10.5345
शास	-10.5357
कम्पन	-10.5361
an	-10.5378
भाष	-10.5387
▁/	-10.5388
हान	-10.5407
न्यास	-10.5416
विमान	-10.5432
गठ	-10.5433
क्षेप	-10.5436
शाह	-10.5439
आन	-10.5444
आउट	-10.5446
धार्मिक	-10.5446
सांस्कृतिक	-10.5446
इत्या	-10.5446
जर्मन	-10.5446
नसीहत	-10.5447
इकट्ठ	-10.5447
बख्श	-10.5447
तस्वीर	-10.5447
दयालु	-10.5447
बिक्री	-10.5447
सुझा	-10.5447
हत्या	-10.5448
ावरण	-10.5448
अपील	-10.5448
लोकतंत्र	-10.5449
बान	-10.5452
जायेगा	-10.5463
कहेंगे	-10.5465
नौकर	-10.5477
एड	-10.5482
यूनिट	-10.5487
नेट	-10.5512
स्टा	-10.5521
सरण	-10.5531
उतन	-10.5535
अध्य	-10.5542
तुर	-10.5545
उतर	-10.5551
रेख	-10.5587
विनियम	-10.5592
देवी	-10.56
ुक	-10.5602
पाई	-10.5618
बीमा	-10.563
दौर	-10.5632
▁(%	-10.5637
यथा	-10.5637
ॉक्स	-10.5655
re	-10.5683
अदा	-10.5683
ताल	-10.5701
पू	-10.5702
मां	-10.5721
कपड	-10.5728
पोष	-10.5733
मानसिक	-10.575
स्त्रिय	-10.5751
शो	-10.5759
दुर्	-10.576
रों	-10.5774
स्त्री	-10.5775
विरोध	-10.5775
ठहरा	-10.5786
समझौत	-10.5788
कार्यालय	-10.5789
चेतन	-10.5797
किलो	-10.5802
सज	-10.5814
तिथि	-10.5816
दायित्व	-10.583
अद्यतन	-10.5831
प्रतीक्षा	-10.5831
प्रोत्साहन	-10.5831
शत्रु	-10.5831
कर्तव्य	-10.5831
पवित्र	-10.5831
आंकड	-10.5832
ब्रिटि	-10.5832
इंडिया	-10.5832
अनुकूल	-10.5832
शैक्ष	-10.5833
पंजाब	-10.5834
कुफ्फ	-10.5834
लिंक	-10.5834
प्रतिनिधि	-10.5835
ॉन्ट	-10.5837
▁]	-10.5837
लक्षण	-10.5842
विवाद	-10.5844
खाली	-10.5847
मान्यता	-10.5847
चौड	-10.5847
सारा	-10.5849
लोकन	-10.5855
her	-10.5858
प्रभार	-10.5861
सबके	-10.5864
महल	-10.5865
आं	-10.5866
त्मक	-10.5866
अनुवाद	-10.5867
संलग्न	-10.5871
डाउन	-10.5879
तर्क	-10.5883
कहानी	-10.5887
ii	-10.5889
बुरी	-10.5893
नेवाले	-10.5911
क्त	-10.5922
हिक	-10.5924
संपूर्ण	-10.5929
प्रिय	-10.5944
णी	-10.5948
फैला	-10.5948
उठाने	-10.5954
1.	-10.5973
बुर	-10.5983
कैस	-10.5996
कारा	-10.6005
जुला	-10.6008
तें	-10.6012
लै	-10.6016
ांति	-10.606
ौ	-10.6087
भक्ति	-10.61
अफ	-10.612
पुस्त	-10.6163
यूस	-10.6169
आयोजन	-10.6173
शु	-10.618
दिख	-10.6183
कवि	-10.6187
परिभाष	-10.619
जात	-10.6192
ic	-10.6198
hi	-10.6202
इंटर	-10.6205
ra	-10.6207
अत्य	-10.6223
संत	-10.6225
्यु	-10.6227
कश्मीर	-10.6231
प्रार्थना	-10.6231
संचालन	-10.6231
कनेक्शन	-10.6231
पंक्ति	-10.6231
पुत्र	-10.6232
अनुमोद	-10.6232
पृष्ठभूमि	-10.6233
ोच्च	-10.6233
मिनट	-10.6233
गहर	-10.6234
बिहार	-10.6234
विन्यास	-10.6237
चीन	-10.6238
समन्वय	-10.624
जानवर	-10.624
रीति	-10.624
ग्रह	-10.6241
जहाज	-10.6242
पत्नी	-10.6244
भागीदारी	-10.6244
कोशिका	-10.6254
क्षण	-10.6258
संगम	-10.6268
सामान	-10.6283
दिये	-10.6284
ार्च	-10.6291
रद्द	-10.6291
पारित	-10.6293
▁.)	-10.6294
गवान	-10.6294
ध्व	-10.6299
23	-10.6302
जय	-10.6311
शार	-10.6313
मामला	-10.6324
▁¦192	-10.6325
धारण	-10.6361
आवास	-10.6361
ियर	-10.6369
▁¦100	-10.6369
लम	-10.6372
ुद	-10.6385
नाक	-10.6392
माता	-10.6402
क्यू	-10.6408
बरी	-10.6412
शिव	-10.6413
मेंट	-10.6442
सजद	-10.6447
खाने	-10.6453
रहें	-10.6453
लिखने	-10.6488
हन	-10.6492
स्वर	-10.6509
कू	-10.6516
रिश्ते	-10.6526
गहरा	-10.6528
अप्र	-10.6539
वाज	-10.6544
आफ	-10.6561
ेट	-10.6566
परिवर्त	-10.659
कर्मचार	-10.6595
ज्ञ	-10.6621
मई	-10.6629
–	-10.6629
द्वीप	-10.6647
ख्याल	-10.6648
उम्मीद	-10.6648
ग्रंथ	-10.6648
धैर्य	-10.6648
श्रेष्ठ	-10.6648
स्तंभ	-10.6648
द्वितीय	-10.6648
शुभकामना	-10.6648
महत्त्व	-10.6648
सौंप	-10.6649
comm	-10.6649
अक्सर	-10.6649
सूत्र	-10.6649
ठिकान	-10.6649
निर्देशिका	-10.665
अंदर	-10.665
सहकारी	-10.6651
सम्मिल	-10.6651
प्रवाह	-10.6652
जिम्मेदार	-10.6653
सुबह	-10.6657
अंश	-10.6658
श्रम	-10.6658
ियो	-10.6659
ताकत	-10.6661
तीसर	-10.6663
पार्टी	-10.6674
बेच	-10.6675
संवाद	-10.6677
ing	-10.6685
निभा	-10.6688
शिकार	-10.6689
एकत्र	-10.6703
प्रचल	-10.6717
हेज	-10.6734
ूंगा	-10.6745
चुन	-10.6745
हस्त	-10.6765
सकेग	-10.6765
र्ज	-10.6772
ट्रैक	-10.6778
तय	-10.6782
▁¦198	-10.6784
्रस्त	-10.6799
कागज	-10.68
▁¦12¦	-10.6825
माप	-10.6826
कोष	-10.683
स्वीकृत	-10.6851
मानो	-10.6865
हरे	-10.6868
भूति	-10.6871
शुभ	-10.6882
म्प	-10.6885
लगी	-10.6924
उज	-10.6955
ाकार	-10.6966
साब	-10.6967
बुल	-10.697
आयी	-10.6974
मिलिय	-10.6984
ॉप	-10.6987
:	-10.6997
ट्ट	-10.7002
संपाद	-10.7014
वार्षिक	-10.7023
लय	-10.7051
‘	-10.7064
μ	-10.7083
इंजीनियर	-10.7083
महामहिम	-10.7083
माबूद	-10.7083
रौशन	-10.7083
विद्यमान	-10.7083
ऊंचा	-10.7083
मस्जिद	-10.7083
तकलीफ	-10.7083
परामर्श	-10.7083
आरम्भ	-10.7083
अभियान	-10.7083
साझीदार	-10.7083
भौतिक	-10.7083
जवाहर	-10.7083
कार्रवा	-10.7084
je	-10.7084
जलवायु	-10.7085
गुजरात	-10.7085
▁॰	-10.7086
उम्र	-10.7087
दर्द	-10.7087
प्राप्तकर्ता	-10.7091
अज्ञात	-10.7091
यश	-10.7093
ध्वनि	-10.7095
साहित्यिक	-10.7097
ब्रा	-10.71
चाय	-10.71
सीन	-10.7108
बोले	-10.7108
लकड	-10.711
पंचा	-10.7113
दंड	-10.7115
दादा	-10.7116
खुली	-10.7128
द्ध	-10.7133
देर	-10.7142
नष्ट	-10.7155
रेशन	-10.7164
घटक	-10.717
पूछा	-10.7174
तेरा	-10.7175
मास	-10.7178
लोगो	-10.7192
प्रकाशन	-10.72
क्षित	-10.7203
उद	-10.7206
वाय	-10.7225
र्ट	-10.7241
फरमा	-10.7251
दुख	-10.7264
स्थिर	-10.7268
२००	-10.7268
ायम	-10.7277
नजर	-10.7282
खुले	-10.7296
▁--	-10.7298
ot	-10.7299
प्रशंसा	-10.7313
्ति	-10.7351
इफ	-10.7355
इस्	-10.7364
लिखी	-10.737
ूँ	-10.7379
मस्त	-10.738
▁:-	-10.739
नामक	-10.741
िस्तान	-10.7416
"	-10.7436
जड	-10.7443
फ्ल	-10.7451
रूस	-10.7463
तकनीक	-10.748
;	-10.7481
ed	-10.7481
काफिर	-10.7482
बीज	-10.7486
गांव	-10.7491
नियंत्र	-10.7495
साझ	-10.75
शिक्षक	-10.7501
िल्टर	-10.7527
आकर्ष	-10.7533
अस्तित्व	-10.7537
आध्यात्मिक	-10.7537
निरंतर	-10.7537
निष्क्रिय	-10.7537
मोहम्म	-10.7537
सावधान	-10.7537
दीर्घ	-10.7537
नृत्य	-10.7537
वाणिज्य	-10.7537
अगस्त	-10.7537
आबंट	-10.7537
उत्साह	-10.7537
मौलिक	-10.7537
कमांड	-10.7537
पसन्द	-10.7538
मूल्यांक	-10.7538
ख्यात	-10.7539
डाटा	-10.7539
पूज्य	-10.7539
घंट	-10.754
किस्म	-10.7542
क्रय	-10.7543
पर्वत	-10.7543
आईटी	-10.7545
भरोस	-10.7545
जनसंख्या	-10.7545
पलट	-10.7546
bm	-10.7548
प्रतिक्रिया	-10.7548
विधान	-10.7549
फिल्म	-10.755
2014	-10.7564
मिलेगी	-10.7566
हू	-10.7574
चैन	-10.7574
गठन	-10.7576
दावा	-10.7577
संरक्ष	-10.7583
निदेश	-10.7589
प्रेरणा	-10.7602
जमीन	-10.7602
भागों	-10.7607
भले	-10.7609
तमिल	-10.761
बहा	-10.7613
01	-10.7626
गम	-10.7637
दत्त	-10.7638
अत	-10.7641
असम	-10.7659
sh	-10.7673
ायिक	-10.7692
होम	-10.7695
ग्न	-10.7698
समर्प	-10.77
लेता	-10.7708
मूल्यों	-10.7716
देवता	-10.7717
हल्	-10.7718
अवतर	-10.7722
ख्वाह	-10.773
तुम्हे	-10.7773
कॉल	-10.7784
जीत	-10.7788
आरोप	-10.7788
ाचार	-10.7792
बारी	-10.7797
द्रव	-10.7807
पूज	-10.781
विषयों	-10.7821
्टे	-10.7821
करनेवाले	-10.7821
थित	-10.7825
the	-10.7826
नोट	-10.7835
अंतर्	-10.7858
ताज	-10.786
सम्प	-10.7861
मिट	-10.7874
ल्ल	-10.7876
रार	-10.7896
लेंगे	-10.7902
िक्स	-10.7903
पर्यट	-10.791
कार्	-10.7924
णिक	-10.793
30	-10.7937
उपाय	-10.7939
वादा	-10.7939
्वा	-10.7943
न्हीं	-10.7951
रिश्त	-10.7953
अना	-10.7959
बग	-10.7962
नबी	-10.7981
तरण	-10.8006
श्रेणी	-10.8009
गिरफ्तार	-10.8013
विश्लेषण	-10.8013
विश्वसनीय	-10.8013
वृक्ष	-10.8013
समग्र	-10.8013
हथियार	-10.8013
सिविल	-10.8013
शिखर	-10.8013
सिफारिश	-10.8013
औलाद	-10.8013
उत्कृष्ट	-10.8013
जैव	-10.8013
मेहरबान	-10.8013
पुष्टि	-10.8014
झाड	-10.8014
संक्षिप्त	-10.8014
अल्प	-10.8014
छुट्ट	-10.8014
शेख	-10.8014
प्रभु	-10.8014
सिक्क	-10.8015
▁\	-10.8015
prh	-10.8016
शाखा	-10.8016
uk	-10.8016
दूध	-10.8017
दैव	-10.8018
संकट	-10.8019
जेल	-10.8022
घेर	-10.8022
▁¦29	-10.8022
सराहन	-10.8024
पीढ	-10.8027
मैन	-10.8029
बदलाव	-10.8033
आओ	-10.8034
बनाये	-10.8035
वाह	-10.8042
अनुमान	-10.8046
गेंद	-10.8047
लौ	-10.805
ंदेह	-10.805
अस	-10.8055
th	-10.806
चंद	-10.8073
ष्ठ	-10.8078
सिन	-10.808
वर्षा	-10.8083
खन	-10.809
जिनको	-10.8091
पैमान	-10.8104
कहानिय	-10.8105
योग्यता	-10.811
शोर	-10.8112
जंगल	-10.8113
लाओ	-10.8117
दोहरा	-10.8118
de	-10.8121
जु	-10.8126
प्रबंधक	-10.8137
रमा	-10.8138
उपर	-10.8139
घाटी	-10.814
कुर्	-10.8145
प्रवास	-10.8154
निर	-10.8156
सवाल	-10.8159
ुड	-10.8181
असल	-10.8185
वश	-10.8189
निकलने	-10.8192
le	-10.8199
स्य	-10.8207
शख	-10.8215
जोर	-10.8218
डरा	-10.8231
पं	-10.8234
पाट	-10.8235
पौ	-10.8235
विष	-10.824
ोस	-10.8269
बंध	-10.8278
पेय	-10.8281
घन	-10.8304
वां	-10.8308
टू	-10.8318
न्ट	-10.8324
फैल	-10.8326
सीडी	-10.8329
मं	-10.8345
मारी	-10.8348
रम	-10.8349
ून	-10.8353
जानने	-10.8375
ाता	-10.8376
आज्ञा	-10.8412
विद्यार्थ	-10.8415
दया	-10.8454
मुद्र	-10.8462
अमेरिक	-10.8472
मुं	-10.8473
आदम	-10.8475
रानी	-10.8479
▁¦28	-10.8504
विविध	-10.8505
दह	-10.8511
मस्तिष्क	-10.8513
उपभोक्ता	-10.8513
गाँधी	-10.8513
देखभाल	-10.8513
फिलीस्तीन	-10.8513
बिंदु	-10.8513
मोबाइल	-10.8513
रजिस्ट्र	-10.8513
समीक्षा	-10.8513
सर्वेक्षण	-10.8513
जटिल	-10.8513
उन्होने	-10.8513
ब्याज	-10.8513
शरीक	-10.8514
सफेद	-10.8514
हिमालय	-10.8514
महसू	-10.8514
नियोज	-10.8515
मीडिय	-10.8515
टैब	-10.8516
प्रायः	-10.8516
इकाई	-10.8516
कब्ज	-10.8516
मस	-10.8517
कंपनिय	-10.8517
संबद्ध	-10.8518
संयंत्र	-10.8518
मुंब	-10.8518
जाल	-10.8519
पारि	-10.852
पाठ्य	-10.852
विनष्ट	-10.852
राज्यपाल	-10.852
बोली	-10.8521
क्षति	-10.8522
पहलू	-10.8523
दाखिल	-10.8524
सरदार	-10.8525
चिंता	-10.8526
जादू	-10.8527
प्रारूप	-10.8527
चैनल	-10.8529
इन्सान	-10.8532
सहेज	-10.8534
vi	-10.8534
आहार	-10.8545
ौफ	-10.8549
ऊतक	-10.855
ईमेल	-10.8559
निदेशक	-10.8571
दीक्षा	-10.8574
तोष	-10.8585
हरि	-10.8597
सृजन	-10.8599
बाहम	-10.8601
नेपाल	-10.8606
टूट	-10.861
ज्ञापन	-10.8614
लौटा	-10.8642
ैत	-10.8643
बहुतेर	-10.8656
टेन	-10.8661
त्म	-10.8664
लिक	-10.8681
इतने	-10.8688
कक्ष	-10.8702
अधिसूच	-10.8708
डु	-10.871
शाम	-10.8712
्रि	-10.8717
न्य	-10.8719
झु	-10.8739
iv	-10.8758
वृत्ति	-10.8771
देशी	-10.8775
ौड	-10.8778
शोक	-10.8795
मुक्ति	-10.8821
आये	-10.8821
संगत	-10.8838
02	-10.8843
बेस	-10.8846
ष्	-10.8848
▁¦21	-10.8855
रिक्त	-10.8856
अन्तर्	-10.8878
९	-10.8894
ेरी	-10.8907
फट	-10.8927
ठो	-10.8931
लत	-10.8953
ब्रि	-10.8973
नु	-10.8987
अपेक्ष	-10.9006
अध	-10.9008
उठाए	-10.9016
आश्चर्य	-10.904
इलेक्ट्रॉनिक	-10.904
प्रोत्साहित	-10.904
मुश्किल	-10.904
श्रद्धा	-10.904
स्मारक	-10.904
हिंसा	-10.904
क्रांति	-10.904
इंडियन	-10.904
दैनिक	-10.904
त्याग	-10.904
चोट	-10.904
संध्य	-10.904
साहब	-10.904
संतुल	-10.904
प्रतिनिधित्व	-10.904
▁$	-10.904
qu	-10.904
औसत	-10.904
नेअमत	-10.904
संवर्धन	-10.9041
संक्रमण	-10.9041
अग्रिम	-10.9041
परिस्थितियों	-10.9041
2018¦	-10.9042
▁!"	-10.9042
आर्	-10.9042
विरूद्	-10.9043
मछल	-10.9044
प्रांत	-10.9045
मिसाल	-10.9045
दीजिए	-10.9046
फिरऔन	-10.9046
कमजोर	-10.9049
प्रतिभूति	-10.9051
अपमान	-10.9052
कौशल	-10.9054
पहन	-10.9054
प्रसन्नता	-10.9055
राजस्थान	-10.9058
लम्ब	-10.9058
हॉ	-10.906
अक्षर	-10.9061
आजाद	-10.9061
es	-10.9062
पत्रिका	-10.9065
सल	-10.9069
खतरा	-10.9069
हिसा	-10.907
मिलती	-10.907
खण्ड	-10.9072
लिखे	-10.9076
मित्रता	-10.9077
चारों	-10.9082
कम्प	-10.9085
गांवों	-10.9093
समझौता	-10.91
असमर्थ	-10.9105
ैम	-10.9108
िज	-10.9108
शासक	-10.9113
ाणु	-10.9116
सामान्यत	-10.9125
बचाने	-10.9129
पेज	-10.913
क्ट	-10.9138
चन	-10.9141
लानेवालो	-10.9145
ीजिए	-10.9153
मैने	-10.9154
ान्त	-10.9154
ांतर	-10.916
समुद्री	-10.9161
▁¦193	-10.917
टु	-10.9176
id	-10.9188
जुल	-10.919
हिस्से	-10.9192
तात्	-10.9197
बादशाह	-10.9203
ाधिकार	-10.9206
आएग	-10.9212
माम	-10.924
झोंक	-10.9246
ांत	-10.9253
डेस	-10.9254
प्प	-10.9258
वर्गों	-10.9264
टैग	-10.9264
नेक	-10.9274
टिक	-10.9275
सिखा	-10.9277
चुना	-10.9278
बोस	-10.9296
एगा	-10.9298
कालीन	-10.9304
नोड	-10.9337
सीसी	-10.934
भेजें	-10.9349
प्रतिभा	-10.9351
तत्काल	-10.9368
निकाय	-10.9372
्कट	-10.9374
खुल	-10.9384
चक्र	-10.9391
▁¦80	-10.9397
दिस	-10.9413
09	-10.9414
।	-10.9417
स्त्र	-10.9417
प्ले	-10.9418
कामना	-10.9425
सर्वाधिक	-10.9429
श्र	-10.9431
दुआ	-10.9432
नुपात	-10.9433
निया	-10.9469
वस	-10.9474
po	-10.9484
र्र	-10.9499
गन	-10.9521
क्ति	-10.9541
शर्ते	-10.9549
en	-10.955
हरी	-10.9551
प्रेष	-10.9581
ाधिकरण	-10.9595
चुनौती	-10.9595
चेतावनी	-10.9595
डिजिटल	-10.9595
न्यायाधीश	-10.9595
प्रतियोगिता	-10.9595
आक्रमण	-10.9595
जहन्न	-10.9595
शैतान	-10.9595
तत्वदर्श	-10.9595
इज्ज	-10.9597
बरदस्त	-10.9597
दाहिन	-10.9597
ऑं	-10.9597
कम्प्यूटर	-10.9598
मुगल	-10.9598
दरवाज	-10.9598
तंत्रिका	-10.9598
बजट	-10.9598
सुभाष	-10.9598
प्रतीत	-10.9599
मददगार	-10.9599
आनंद	-10.96
मर्श	-10.96
मक्का	-10.96
2013¦	-10.9602
यूरोपीय	-10.9602
बाबू	-10.9603
चुक	-10.9604
श्रमिक	-10.9604
मकान	-10.9612
फसल	-10.9614
फैसल	-10.9615
उदार	-10.9623
ेरत	-10.9624
जिले	-10.9634
मांस	-10.9641
पल	-10.965
क्लि	-10.9665
34	-10.9667
रेट	-10.9679
गणित	-10.9684
ावस्था	-10.9701
दाम	-10.9703
पुस्तकों	-10.9706
बहन	-10.972
सां	-10.9723
बचे	-10.9737
फूल	-10.9745
यादा	-10.975
बारह	-10.977
iii	-10.9774
रंज	-10.9778
संस्थाप	-10.9783
भक्त	-10.9787
निका	-10.9792
दन	-10.9799
उच्चत	-10.9801
-1	-10.9829
ह्य	-10.9831
वाल	-10.9835
तीसरे	-10.9838
होगे	-10.9863
प्रविष्टि	-10.9878
▁¦194	-10.9885
लगाता	-10.9894
ग्रे	-10.99
दिखाने	-10.9906
ामक	-10.9926
लिन	-10.9939
कब	-10.9962
ादत	-10.9981
तीस	-10.9987
अभिव्यक्ति	-10.9989
ियत	-10.9998
लॉकि	-11.0036
घात	-11.0052
प्राथमिक	-11.0054
सुर	-11.0064
दरा	-11.0076
2015	-11.0099
ूह	-11.0107
चीजों	-11.0124
शाही	-11.0138
मुकदम	-11.0144
खेत	-11.0152
डाले	-11.0176
सब्र	-11.0177
छू	-11.0183
आंध्र	-11.0183
उल्लंघन	-11.0183
जम्मू	-11.0183
ब्राह्मण	-11.0183
www	-11.0183
प्रतिष्ठा	-11.0183
शुरुआत	-11.0183
सर्वोत्त	-11.0183
जोखिम	-11.0183
मेहनत	-11.0183
इजाज	-11.0184
detail	-11.0184
india	-11.0184
जनरल	-11.0184
कार्यान्वयन	-11.0184
पुस्तकालय	-11.0184
दुर्घटना	-11.0184
अकबर	-11.0184
धातु	-11.0185
शिक्षण	-11.0185
विद्रोह	-11.0185
नवान्वेषण	-11.0186
घुस	-11.0186
परीक्षण	-11.0186
संबोध	-11.0188
ल्ड	-11.0189
सलाम	-11.0194
बैक	-11.0199
आना	-11.02
मानवीय	-11.02
रखत	-11.0201
अहमद	-11.0203
छूट	-11.0206
ोबार	-11.0213
उर्	-11.0218
बुराई	-11.0222
बाधा	-11.0224
ठी	-11.0227
सिंच	-11.0228
डराने	-11.0232
संपादक	-11.0233
पंख	-11.0236
डिफ	-11.0237
मंज	-11.0244
कुरान	-11.0246
विविधता	-11.0249
अनाज	-11.0252
तबाह	-11.0264
अभाव	-11.0271
हिमा	-11.0275
un	-11.0277
अमर	-11.0279
सच्चा	-11.0281
डरते	-11.0281
मारे	-11.0285
करवा	-11.0286
आस्था	-11.0289
दावे	-11.029
सहज	-11.0296
उत्तरी	-11.0307
शंकर	-11.0322
भूख	-11.0323
शाला	-11.0329
it	-11.033
घरेल	-11.034
र्जन	-11.0361
भेजे	-11.0375
ंदन	-11.0382
मियान	-11.0383
वॉ	-11.0386
ाईल	-11.0393
लाई	-11.04
co	-11.0433
हाज	-11.0434
दार्	-11.0441
आकर	-11.0441
चलने	-11.0447
पक्षों	-11.0463
भरे	-11.0465
बटन	-11.0478
पोत	-11.0483
सख	-11.0505
भरा	-11.051
पाद	-11.0515
ॉँ	-11.0516
दवा	-11.054
०००	-11.0545
आईसी	-11.0549
सन्	-11.0553
कॉ	-11.0562
मिंग	-11.057
निकास	-11.0577
▁¦196	-11.0579
सोचा	-11.0581
मंद	-11.0594
डाय	-11.0609
माइ	-11.0613
लेखन	-11.0636
ंतरिक	-11.0664
500	-11.0687
युक्ति	-11.0699
पित	-11.072
कारक	-11.0742
11	-11.0744
ीनी	-11.0765
सेल	-11.0768
गरीब	-11.0771
व्याख्या	-11.0773
िला	-11.0774
पाता	-11.0778
अन्तर	-11.0779
प्त	-11.0779
▁¦40¦	-11.0782
एहद	-11.0784
?	-11.079
चना	-11.0796
फ्री	-11.0798
व्यावस	-11.0799
el	-11.0803
ढूंढ	-11.0803
pres	-11.0804
बन्ध	-11.0804
कॉन्फ	-11.0808
ट्यूब	-11.0808
निष्कर्ष	-11.0808
प्रावधान	-11.0808
विपणन	-11.0808
श्रृंखला	-11.0808
सामर्थ्य	-11.0808
▁¦1956¦	-11.0808
#-#-#-#	-11.0808
ऊंचे	-11.0808
खींच	-11.0808
डिजाइन	-11.0808
कार्यवाही	-11.0808
आउटपुट	-11.0808
release	-11.0809
माइक्रो	-11.0809
चरित्र	-11.0809
परेशान	-11.0809
विनय	-11.0809
१५	-11.0809
आत्मनिर्भर	-11.0809
सहेजे	-11.0809
इमारत	-11.0809
ायण	-11.081
शोथ	-11.0811
संभाव	-11.0811
कार्बन	-11.0811
आनन्द	-11.0812
ीर्ण	-11.0813
तुझ	-11.0814
शिशु	-11.0814
प्रतिष्ठि	-11.0814
बाकी	-11.0814
press	-11.0815
2016¦	-11.0815
गौरव	-11.0815
ऊँच	-11.0816
मर्द	-11.0817
वियत	-11.0818
खराब	-11.0818
धारित	-11.0819
वचन	-11.082
परीत	-11.082
परिसर	-11.0821
चाहेंगे	-11.0823
अखिल	-11.0824
बूत	-11.0825
-19	-11.0826
भंग	-11.083
अंध	-11.0839
सांस	-11.0846
बत	-11.0848
▁/-	-11.0855
आदान	-11.086
काश	-11.0863
स्टो	-11.0873
उलट	-11.0881
सशक्त	-11.0887
परवाह	-11.0894
मोद	-11.0902
इंग	-11.0903
सदस्यता	-11.0909
वैस	-11.0923
नेत्र	-11.0923
गोया	-11.0929
मुड	-11.093
विद्यार्थियो	-11.0934
दस्त	-11.0936
▁¦202	-11.0936
कचर	-11.0939
िस्म	-11.0939
माफ	-11.095
at	-11.0954
सतत	-11.0955
ईमानवाल	-11.0967
फिल	-11.0976
्ज	-11.0976
आईडी	-11.0988
खबर	-11.0991
विभागों	-11.0992
ोल	-11.1014
ाइज	-11.102
नदिय	-11.1029
प्रेस	-11.1031
समानता	-11.1054
हड	-11.1059
सिफ	-11.1067
04	-11.1077
टिंग	-11.1077
ॉल्ट	-11.1102
गुल	-11.1105
विदा	-11.1107
निस्	-11.1118
रोपण	-11.112
फेंक	-11.1135
ाबू	-11.1137
विध	-11.1139
िये	-11.1164
खाओ	-11.1172
कमज	-11.1202
चिर	-11.1203
सदा	-11.1211
आस्ति	-11.122
ao	-11.1236
प्रतिवाद	-11.1242
मरने	-11.1251
कहेग	-11.1253
रोड	-11.1256
मेन	-11.1268
अली	-11.1268
रियल	-11.127
िश्त	-11.1302
तं	-11.1308
ti	-11.1312
स्टी	-11.1326
राइट	-11.1378
भौ	-11.1379
माने	-11.1379
पंथ	-11.138
ma	-11.1384
पटल	-11.1385
ba	-11.1387
िगर	-11.1397
फु	-11.141
जिहा	-11.1411
बिन	-11.1416
तथ्य	-11.1428
मार्	-11.1433
शैल	-11.1441
ौल	-11.1442
दिखाये	-11.1445
इक	-11.1446
खिल	-11.1448
ुबूल	-11.145
'	-11.1454
भग	-11.1455
रंपरि	-11.1459
िद	-11.1468
ङ	-11.1468
बूझ	-11.1473
छुट	-11.1474
दाता	-11.1474
विद्या	-11.1475
info	-11.1475
गंतव्य	-11.1475
जागरूक	-11.1475
प्रयत्न	-11.1475
प्रासंगिक	-11.1475
ब्रह्म	-11.1475
वरिष्ठ	-11.1475
विष्णु	-11.1475
सूक्ष्म	-11.1475
स्क्रिप्ट	-11.1475
सन्तान	-11.1475
उद्यान	-11.1475
स्पर्श	-11.1475
सेक्टर	-11.1475
ब्राउज	-11.1475
मंजूर	-11.1475
तलाश	-11.1476
फरवरी	-11.1476
मुकाबल	-11.1476
आबादी	-11.1476
कर्ण	-11.1476
पाइप	-11.1477
पाँच	-11.1477
▁—	-11.1477
रणनीति	-11.1477
दुकान	-11.1477
रंगमंच	-11.1478
विशेषज्ञ	-11.1478
नस्ल	-11.1478
सम्भव	-11.1478
स्नातक	-11.1479
बचत	-11.1479
ोत्तर	-11.1479
दिव्य	-11.148
शस्त्र	-11.148
निवेद	-11.1481
बायो	-11.1481
बांध	-11.1483
जेक्ट	-11.1484
सभ्यता	-11.1486
दलील	-11.1487
आग्रह	-11.1488
प्रतिफल	-11.149
फार्म	-11.149
खून	-11.1493
रेडियो	-11.1495
स्वाद	-11.1497
कहलात	-11.1498
शिक्ष	-11.1501
टिप्पणी	-11.1505
सूर्य	-11.1522
प्ट	-11.1524
सौर	-11.1528
सकेंगे	-11.1529
मध्यम	-11.1532
कर्ज	-11.1532
दरबार	-11.1534
सवार	-11.1548
ँग	-11.1551
अंड	-11.1555
सचेत	-11.1555
डूब	-11.1556
आमंत्र	-11.1562
कोर्ट	-11.1563
जापान	-11.1569
ड्ड	-11.1569
विरोधी	-11.1578
स्थग	-11.1579
नाग	-11.158
आखिर	-11.1581
मानवता	-11.1583
अहल	-11.1583
वरन	-11.1589
मौत	-11.1594
अज्ञान	-11.1601
प्रशिक्ष	-11.1608
ation	-11.1612
सदी	-11.1621
ोक्त	-11.1622
पोस्ट	-11.1639
खुर	-11.1641
sa	-11.1645
अस्था	-11.1667
con	-11.1671
लिफ	-11.1677
पत्ति	-11.1679
कुफ	-11.169
चोर	-11.1695
परमाण	-11.1697
नहरे	-11.1702
चम	-11.1707
आंख	-11.1713
08	-11.1714
बेल	-11.1716
चलाने	-11.1727
एंड	-11.173
पृ	-11.1732
ोरी	-11.1734
बज	-11.1736
लॉक	-11.1747
ठहरे	-11.1748
ग्री	-11.1757
तारा	-11.1762
रचनात्मक	-11.1789
साथियों	-11.179
,000¦	-11.1794
रूरत	-11.1795
कूल	-11.181
se	-11.1816
na	-11.1822
रोकने	-11.1838
तस	-11.1841
आइ	-11.1863
वार्	-11.1871
सिस	-11.1873
डीए	-11.1874
कैल	-11.1893
राट	-11.1895
शान	-11.1899
दायर	-11.1904
प्रोफ	-11.1906
प्स	-11.1907
अनुज्ञा	-11.1907
उधार	-11.1907
सेटिंग	-11.1922
्टर	-11.1922
वती	-11.1942
यार	-11.1943
वेशन	-11.1946
दुखद	-11.1949
छाप	-11.1956
नर्स	-11.1978
पय	-11.2009
गेट	-11.202
ex	-11.203
चन्द	-11.2036
जलि	-11.2066
-20	-11.2091
औषध	-11.2103
पहुंचे	-11.2104
ॉन	-11.2118
टीम	-11.2123
निष्ठ	-11.2145
अक्	-11.2146
ग्राफ	-11.2149
माया	-11.2153
किला	-11.2159
ुदरत	-11.2164
फू	-11.2166
इंच	-11.2166
(	-11.2171
दिखाय	-11.2177
नीम	-11.2177
भेद	-11.2181
q	-11.2185
दीक	-11.2188
िम्मे	-11.2188
ग्रन्थ	-11.2189
अस्पताल	-11.2189
आँकड	-11.2189
क्रियाकलाप	-11.2189
चिकित्सक	-11.2189
पृथ्वी	-11.2189
प्रयोक्ता	-11.2189
मुलाकात	-11.2189
मुसीबत	-11.2189
सीआरए	-11.2189
घुमा	-11.2189
दुःख	-11.2189
कर्नाटक	-11.2189
संतुष्ट	-11.2189
चिन्ह	-11.2189
संभाल	-11.219
पुराण	-11.219
▁).	-11.219
जादूगर	-11.219
वसूल	-11.219
सम्बंध	-11.219
जैन	-11.219
चन्द्र	-11.2191
हार्द	-11.2191
इंग्लै	-11.2191
बाह्य	-11.2191
अनुसूचित	-11.2191
प्रसंग	-11.2192
उपेक्ष	-11.2192
इनपुट	-11.2192
इला	-11.2192
चावल	-11.2193
प्रतिबंध	-11.2194
राजधान	-11.2194
पादप	-11.2194
दाद	-11.2194
स्टेशन	-11.2195
प्रोटोक	-11.2195
वकील	-11.2196
विनिम	-11.2196
प्रतिबद्ध	-11.2196
स्कीम	-11.2197
फोटो	-11.2198
उपज	-11.2199
संचालि	-11.2201
मासिक	-11.2201
शादी	-11.2202
ॉर्	-11.2204
आपूर्ति	-11.2205
अनुदान	-11.2206
प्रवर्तन	-11.2207
वासियों	-11.2208
शिला	-11.2212
चंड	-11.2212
इकाइय	-11.2213
अभिगम	-11.2218
पाओ	-11.2219
पारदर्श	-11.2221
दरिया	-11.2225
सेवाएं	-11.2228
स्विच	-11.2229
सुनने	-11.2231
वंच	-11.2233
वार्ता	-11.2233
ईसाई	-11.2236
कौ	-11.2238
यात्र	-11.2239
बाई	-11.2242
१०	-11.2244
धारक	-11.2248
्री	-11.2248
छुपा	-11.2267
लेट	-11.2269
सोस	-11.2274
मॉडल	-11.2275
समझे	-11.2276
रवी	-11.2283
यूँ	-11.2285
मेहर	-11.2285
सिया	-11.2289
मुफ	-11.2293
मित्रों	-11.2298
सूख	-11.2304
सुनता	-11.2307
चीनी	-11.2307
आमाल	-11.2309
लान	-11.231
बादल	-11.2316
चट	-11.232
रेश	-11.2323
हिल	-11.2325
मती	-11.233
सारण	-11.2335
ट्री	-11.2344
ावधि	-11.2362
जला	-11.2364
़ी	-11.2376
घूम	-11.2377
मार्क	-11.2384
खतरे	-11.2398
बंदी	-11.2399
भर्त	-11.2407
वली	-11.2419
मेज	-11.2432
ुशी	-11.2433
ानु	-11.2441
ाहौल	-11.2444
बालक	-11.2452
प्रभा	-11.2459
प्रथा	-11.246
कहां	-11.2469
ईरान	-11.2479
घिर	-11.2482
चै	-11.2483
न्तर	-11.2491
आड	-11.2494
13	-11.2506
नकद	-11.2508
बंधन	-11.2514
क्र	-11.2522
लाएँगे	-11.2524
बख	-11.2526
प्लेट	-11.2533
सकार	-11.2539
छिप	-11.2541
ीदा	-11.2547
धारणा	-11.2575
प्रविष्ट	-11.2578
ांक	-11.2597
इल्	-11.2606
आश	-11.2645
प्ला	-11.2651
am	-11.2652
लाज	-11.2653
बट	-11.2656
फै	-11.2664
ta	-11.2665
अक्षम	-11.268
पक्	-11.2689
60¦	-11.2689
बां	-11.2732
िपत्र	-11.2755
रें	-11.2761
विड	-11.2768
क्शन	-11.2768
j	-11.2774
अनदेख	-11.2779
रोका	-11.2784
बॉ	-11.2788
सरी	-11.2799
जायें	-11.2799
शर	-11.2855
सूचित	-11.2864
स्टे	-11.2877
चक्	-11.2878
नकल	-11.2883
thi	-11.2888
प्राधिकार	-11.2904
संशोध	-11.2905
पंच	-11.2909
ढांच	-11.2916
साम्राज्य	-11.2916
गतिविधि	-11.292
ेश्वर	-11.2928
प्रसन्न	-11.2937
बुद्ध	-11.2945
न्द्रना	-11.2947
िल्म	-11.2955
बूल	-11.2956
कार्यान्व	-11.2958
¬	-11.2959
निष्पादन	-11.2959
व्युत्पन्न	-11.2959
साझेदार	-11.2959
सॉफ्टवे	-11.2959
निवारण	-11.2959
बल्लेबाज	-11.2959
शिल्प	-11.2959
पासवर्ड	-11.2959
मजबूर	-11.2959
हिंदी	-11.2959
बूढ	-11.2959
टेलीफ	-11.2959
उपाधि	-11.2959
टाइम	-11.2959
क्रिकेट	-11.2959
निर्वाचन	-11.2959
संहिता	-11.2959
एक्सचेंज	-11.2959
अभ्यास	-11.2959
जन्नत	-11.2959
अग्नि	-11.2959
मराठ	-11.2959
पिछड	-11.2959
सम्पाद	-11.296
अक्तू	-11.296
चिन्त	-11.2961
अर्ध	-11.2961
कनेक्ट	-11.2961
गुफा	-11.2961
व्यस्त	-11.2962
कॉपी	-11.2962
उत्सव	-11.2962
अदालत	-11.2962
आचार्य	-11.2963
सैनिक	-11.2963
रहस्य	-11.2963
कालेज	-11.2963
प्रान्त	-11.2964
लिपि	-11.2965
प्रौ	-11.2966
समापन	-11.2967
मुच	-11.2967
उपर्युक	-11.2968
उपयोगकर्ता	-11.2969
सीधा	-11.2969
स्वर्ग	-11.297
समुच	-11.2972
आशु	-11.2975
निगरा	-11.2976
खत्म	-11.2978
संकलन	-11.2979
समावेश	-11.2981
संपद	-11.2982
गुरू	-11.2982
कल्पि	-11.2986
डीपी	-11.2987
ईंट	-11.2992
मादा	-11.2995
फिन	-11.2996
न्ध	-11.2997
गाम	-11.3002
दंत	-11.3008
बाँ	-11.3008
जाओग	-11.3009
निष्ठा	-11.3011
गुजर	-11.3012
शिष्ट	-11.3013
अमल	-11.3014
पूछें	-11.3015
सम्मानित	-11.3017
39	-11.3019
बेड	-11.3023
शहरी	-11.3027
आपदा	-11.3029
दीवान	-11.3029
कलाकार	-11.3034
कठिनाइय	-11.3034
गौ	-11.3035
इसर	-11.3036
टर्न	-11.3037
टाल	-11.3037
चेक	-11.3043
mb	-11.3047
चख	-11.3051
कोलक	-11.3056
अलबत	-11.3056
परिभाषा	-11.3057
तालाब	-11.3057
र्द	-11.3059
परसत	-11.3073
ya	-11.3074
कष्ट	-11.3076
ौलत	-11.3079
निराश	-11.3091
बिट	-11.31
कृत्य	-11.3102
.09.201	-11.3113
इयों	-11.3116
ज्ञात	-11.3119
बिता	-11.3131
me	-11.3131
परस्त	-11.3134
ुष	-11.3135
40	-11.3137
ice	-11.3148
ho	-11.3183
रोध	-11.3199
वृद्ध	-11.3202
ुस	-11.3202
न्ना	-11.3209
os	-11.3212
ाएगा	-11.3217
पूर्णत	-11.3221
१७	-11.3228
बरस	-11.3231
इट	-11.324
पेशी	-11.3254
सहन	-11.3266
ther	-11.3278
ाएँगे	-11.3288
रॉ	-11.329
िस्ट	-11.3313
गिरा	-11.3327
आएँ	-11.3329
वैसे	-11.333
प्रेषित	-11.3341
्द	-11.3345
ूस	-11.3353
तीत	-11.3362
दर्शक	-11.3369
्रा	-11.3397
पाठक	-11.3401
लगाए	-11.3407
दर्जे	-11.3419
नुमा	-11.342
चैत	-11.3421
पुल	-11.3437
ाली	-11.3447
नकदी	-11.3462
दूँ	-11.3465
फ्रांस	-11.3471
पहुँचे	-11.3473
किंग	-11.3479
मारा	-11.35
भूष	-11.353
रुचि	-11.3532
आरक्ष	-11.3533
im	-11.3534
सुल	-11.3547
पैन	-11.3547
वेग	-11.3548
ाइयों	-11.3553
डालें	-11.357
थि	-11.3596
ur	-11.3601
लीन	-11.3605
मूर्त	-11.3607
ाइलें	-11.3614
ज्ज	-11.3625
90¦	-11.363
इंड	-11.3639
परिकल्प	-11.365
खतर	-11.3665
थो	-11.3686
मंत्रण	-11.3699
अवज्ञा	-11.3713
टिन	-11.3716
बुक	-11.372
पिला	-11.3725
यहूद	-11.3733
टेबल	-11.3741
फायद	-11.3751
गज	-11.3768
{	-11.3774
िरऔन	-11.3781
मुनाफ	-11.3785
अंतरि	-11.3786
फोट	-11.3788
पश्च	-11.379
भ्रष्ट	-11.3792
आलोचना	-11.3792
लाइसेंस	-11.3792
	-11.3792
आजीविका	-11.3792
औपचारिक	-11.3792
परिचय	-11.3792
पैरामीटर	-11.3792
प्लगइन	-11.3792
वास्तुकला	-11.3792
वैष्ण	-11.3792
साक्ष्य	-11.3792
स्मरण	-11.3792
हिंदुस्तान	-11.3792
गाँव	-11.3792
पीडीएफ	-11.3792
पंडित	-11.3792
ड्राइव	-11.3792
सर्ग	-11.3792
मुल्क	-11.3792
झुठलाओग	-11.3792
प्यार	-11.3792
साक्षी	-11.3792
पब्लिक	-11.3792
अकादम	-11.3792
सटीक	-11.3792
ट्रांस	-11.3792
बिन्दु	-11.3792
ction	-11.3792
तत्त्व	-11.3793
राब	-11.3793
डिग्री	-11.3793
दुश्मन	-11.3793
▁=	-11.3793
सैन्य	-11.3793
कृतज्ञ	-11.3793
पचास	-11.3793
संग्रहालय	-11.3793
म्मा	-11.3793
पेंशन	-11.3793
विनाश	-11.3793
होटल	-11.3793
नवाचार	-11.3793
त्सव	-11.3793
आदत	-11.3794
प्रेत	-11.3794
व्याकरण	-11.3794
wea	-11.3795
इराद	-11.3795
प्रदूषण	-11.3795
प्रजातिय	-11.3795
िलाफ	-11.3796
जयंत	-11.3796
सुसंगत	-11.3796
बचपन	-11.3796
टिकट	-11.3796
अपवाद	-11.3797
▁¦2008	-11.3797
हार्ड	-11.3798
ङ्	-11.38
▁¦2011	-11.3802
उदय	-11.3802
ाउंड	-11.3803
वर्गीकरण	-11.3803
गंध	-11.3803
क्लब	-11.3804
फूँक	-11.3805
च्छिक	-11.3807
पुन	-11.3807
अधिकरण	-11.3808
कुशलता	-11.3808
खिलाड	-11.381
ेक्ट्र	-11.381
कामगार	-11.381
कमर	-11.3811
उभार	-11.3815
स्वी	-11.3816
पैस	-11.3818
धीम	-11.3818
आइए	-11.382
सच्चाई	-11.3822
कुदरत	-11.3826
आकृति	-11.3826
आगमन	-11.3826
नवीन	-11.3834
अतिथि	-11.3836
सितार	-11.3844
शराब	-11.3846
प्रकाशना	-11.3848
१९९	-11.3849
हवाई	-11.3849
तथ्यों	-11.3851
बन्दे	-11.3851
मारते	-11.3852
आपात	-11.386
बांस	-11.386
जिल	-11.3863
रहेगी	-11.3868
ांश	-11.3868
बंदर	-11.3871
वगै	-11.3883
शरा	-11.3886
निकाले	-11.3888
ंकन	-11.3891
अमरीक	-11.3893
रचित	-11.3894
सरो	-11.3899
गमन	-11.3905
टोप	-11.3907
आध	-11.3909
तत्	-11.3928
ia	-11.3938
िणी	-11.3942
उत	-11.3947
वस्था	-11.3972
कॉम	-11.3977
वालो	-11.3983
टेल	-11.399
परदा	-11.3991
उत्पादक	-11.3992
पूर्ववर्	-11.3994
ढे	-11.3996
प्रद	-11.4002
ट्रै	-11.4023
मीम	-11.4024
र्थ	-11.4025
सहार	-11.4033
मंत्रालयों	-11.4045
किमी	-11.4046
टेक	-11.4053
कराए	-11.4054
हौ	-11.4057
लटक	-11.4059
अन्तर्ग	-11.4069
घा	-11.4073
op	-11.409
सऋ	-11.4106
धो	-11.4106
पहर	-11.4133
समाजवाद	-11.4136
तंग	-11.4143
मश	-11.4159
कलाम	-11.4164
बौ	-11.4164
वाक्य	-11.4168
१८	-11.4168
हाई	-11.4173
त्वर	-11.4179
पार्	-11.4181
नील	-11.419
use	-11.4191
मंत्र	-11.4191
सतह	-11.4206
उल	-11.4206
ारिश	-11.4207
वर्क	-11.4213
मुल	-11.4215
वाण	-11.4222
व्यवस्थ	-11.4235
li	-11.4236
बम	-11.4247
ायत	-11.4253
टें	-11.4255
िक्र	-11.4255
रच	-11.4259
फलक	-11.4293
पुरी	-11.4297
तिर	-11.4299
मॉ	-11.4302
हाथी	-11.4304
हमला	-11.4321
म्य	-11.4344
नै	-11.435
निशानिय	-11.4355
निचल	-11.4357
बीस	-11.4358
हाइ	-11.4367
टॉ	-11.4369
चमक	-11.4377
क्री	-11.4384
हर्	-11.4393
ुल्	-11.4401
प्रशांत	-11.4404
धार	-11.4404
ूति	-11.4423
▁¦33	-11.4436
ोरम	-11.4436
कमल	-11.4443
मुर्द	-11.4448
कल्प	-11.448
एह	-11.4483
ंजर	-11.4498
विकृत	-11.4507
cd	-11.4519
मख	-11.4524
प्रतिमा	-11.4551
अर्	-11.4551
डुब	-11.456
रीक्षण	-11.4561
लभ	-11.4562
संचय	-11.4564
कुफ्	-11.4578
गुं	-11.4581
साई	-11.4592
चाहो	-11.4605
िटी	-11.461
गीता	-11.4617
िमाग	-11.4619
१९	-11.4624
अकेल	-11.4626
कोटि	-11.463
2.	-11.4633
com	-11.4654
स्तन	-11.4658
मृद	-11.4658
कति	-11.4658
चर्च	-11.4669
दांत	-11.4674
ोत्	-11.4675
संगठ	-11.4676
पूछे	-11.4683
यांत्रिक	-11.4691
उन्नत	-11.4696
मूहि	-11.4701
for	-11.4701
पार्श्व	-11.4701
पुरूष	-11.4701
पुष्प	-11.4701
	-11.4701
अब्दुल्ला	-11.4701
कीटनाशक	-11.4701
पृथक	-11.4701
शिष्य	-11.4701
आश्वासन	-11.4701
कार्यकलाप	-11.4701
समायोज	-11.4701
सुपुर्द	-11.4701
आह्वा	-11.4701
परिचालन	-11.4701
एहसान	-11.4701
मंडप	-11.4701
नारायण	-11.4701
इंसान	-11.4701
मौजिज	-11.4701
कॉलेज	-11.4701
फरमाबरदार	-11.4701
डब्लू	-11.4701
वरीयता	-11.4701
सीधी	-11.4701
चुपके	-11.4702
सद्भाव	-11.4702
याचिका	-11.4702
अपीलार्थ	-11.4702
दक्षता	-11.4702
शुरूआत	-11.4702
बाध्य	-11.4702
केडीई	-11.4703
सम्बद्ध	-11.4703
पैकेज	-11.4703
tel	-11.4703
अभिदाता	-11.4703
▁¦1961	-11.4703
रिकार्ड	-11.4703
समकालीन	-11.4703
द्रास	-11.4704
प्रयोगशाला	-11.4704
स्वचाल	-11.4704
उत्तरदाय	-11.4705
फॉर्म	-11.4705
तीव्र	-11.4705
कथन	-11.4706
सुन्दर	-11.4707
संगणन	-11.4708
प्रदाता	-11.4708
मणि	-11.4709
छंद	-11.4709
फौज	-11.4709
सब्ज	-11.4709
cons	-11.4709
सौदा	-11.4711
भत्त	-11.4711
व्यक्तित्व	-11.4711
साइक	-11.4712
2001¦	-11.4713
फ्टवे	-11.4714
सीरिया	-11.4716
इराक	-11.4717
िंदा	-11.4717
उल्ट	-11.4718
are	-11.4718
ेम्स	-11.4719
निधन	-11.472
हँसी	-11.4721
अवधारणा	-11.4721
भटक	-11.4722
विद	-11.4723
इलाज	-11.4724
परिस्थिति	-11.4725
तुर्की	-11.4727
झील	-11.4727
आँखों	-11.4728
गन्द	-11.4729
मोटर	-11.473
रण्य	-11.473
सतर्क	-11.473
टोक	-11.4734
हंस	-11.4736
गन्ना	-11.4737
नाप	-11.4748
गोर	-11.475
पाँ	-11.4753
ग्राह	-11.4756
आकल	-11.4756
मण्ड	-11.4756
गौर	-11.4757
मुहर	-11.476
किताबें	-11.476
श्रोत	-11.4764
यहूदी	-11.4766
वाहन	-11.4771
ह्रा	-11.4776
बेन	-11.4779
38	-11.478
अष्ट	-11.4783
कक्षा	-11.4785
नियंत्रक	-11.4785
याची	-11.4786
गरीबी	-11.4789
पार्ट	-11.4791
आराम	-11.4791
ट्रे	-11.4794
झुका	-11.4798
अन्याय	-11.4799
छड	-11.482
वार्षिकी	-11.4829
रूह	-11.4837
लिखना	-11.4842
राना	-11.4854
ायदा	-11.4867
असामान्य	-11.487
लंग	-11.4877
48¦	-11.4885
ादिर	-11.4887
आज्ञाकार	-11.4891
वर्षीय	-11.4898
ष्टि	-11.491
दुर	-11.4917
शह	-11.4918
खिला	-11.4923
लाएँ	-11.4932
▁()	-11.4935
गुम	-11.4939
कृपा	-11.4949
बोला	-11.4952
मन्द	-11.4953
अनुप	-11.4954
ेंडर	-11.4964
आर्य	-11.4972
तस्	-11.4975
नंद	-11.4982
आयाम	-11.4995
उत्तरा	-11.5009
ाइश	-11.5012
ाबिल	-11.5032
लोह	-11.5041
दाव	-11.5044
्थ	-11.5052
चाप	-11.5058
अभिव्यक्त	-11.5061
केंद्रों	-11.5063
हरित	-11.5064
पच	-11.5069
निपट	-11.5072
केन्द्रों	-11.5086
टिव	-11.5094
नेशन	-11.5096
घि	-11.5106
रिस	-11.5117
मंत्रि	-11.516
व्यक	-11.516
खात	-11.5166
उत्पा	-11.5171
थल	-11.5181
राग	-11.5188
माउस	-11.5193
रवान	-11.5198
यानि	-11.5205
49	-11.5217
ित्र	-11.5222
खनिज	-11.5228
दफ	-11.5228
राहत	-11.5235
लती	-11.5264
रुक	-11.5267
त्तर	-11.5276
we	-11.5281
जंग	-11.5284
ियल	-11.5296
ol	-11.531
मसल	-11.5316
म्यू	-11.5317
वृति	-11.5319
वाट	-11.5349
र्पित	-11.5376
मानता	-11.5381
अस्थि	-11.5404
गोली	-11.5404
एससी	-11.5405
आँखे	-11.5412
dent	-11.5414
लीस	-11.5437
ानिक	-11.5448
ज़	-11.545
िकेट	-11.5452
नेमत	-11.5463
पीएस	-11.5484
नियुक्ति	-11.5503
एजेंस	-11.5503
ेनिस	-11.5504
सृज	-11.5528
बृह	-11.553
पाप	-11.5543
स्पति	-11.5545
सजा	-11.5554
स्टार	-11.559
ca	-11.5599
यावान	-11.5623
पार्क	-11.5625
बनो	-11.5664
वर्ध	-11.5666
भोज	-11.5668
अक्ष	-11.5669
64¦	-11.5669
ायल	-11.5677
ृष्टि	-11.5678
नाइट	-11.5681
पराज	-11.5684
सूचक	-11.5687
si	-11.5691
आकांक्षा	-11.5701
दिलचस्प	-11.5701
प्रतिस्पर्ध	-11.5701
मुहम्मद	-11.5701
विद्वत	-11.5701
व्यावहारिक	-11.5701
विकलांग	-11.5701
परम्परा	-11.5701
भ्रंश	-11.5701
संकीर्ण	-11.5701
सन्देह	-11.5701
generic	-11.5701
डॉक्टर	-11.5701
हफ्त	-11.5701
दरख्त	-11.5701
ड्राफ	-11.5701
हिन्दु	-11.5701
ance	-11.5701
यथार्थ	-11.5701
सौभाग्य	-11.5701
पर्दा	-11.5701
निःशुल्क	-11.5701
आभास	-11.5701
अनन्त	-11.5701
पथभ्रष्ट	-11.5702
सिद्धान्त	-11.5702
अपशिष्ट	-11.5702
ग्लोब	-11.5702
typ	-11.5702
क्रमांक	-11.5702
चाँद	-11.5702
डाक्टर	-11.5702
२०	-11.5703
उत्तरदायित्व	-11.5703
▁¦2006¦	-11.5703
अनुयाय	-11.5704
विशेषाधिकार	-11.5704
मातृ	-11.5704
परिश्रम	-11.5704
चानक	-11.5705
लैंग	-11.5705
खुशहाल	-11.5705
स्पेन	-11.5705
फर्म	-11.5705
परंपरागत	-11.5705
नागरी	-11.5705
कुफ्फार	-11.5705
महाराजा	-11.5706
स्वार्थ	-11.5707
पद्धतियों	-11.5707
विभेद	-11.5709
डेयर	-11.5709
अभ्य	-11.5709
सर्विस	-11.571
निगाह	-11.571
शांत	-11.571
▁¦2019	-11.5711
झेल	-11.5712
प्राय	-11.5712
ग्ध	-11.5713
गान	-11.5714
आघात	-11.5714
जनजाति	-11.5715
कामयाब	-11.5716
भव्य	-11.5716
संवेद	-11.5717
भागवत	-11.5718
स्वदेशी	-11.572
पाबन्द	-11.572
गहन	-11.5721
निर्गम	-11.5723
▁¦191	-11.5723
घाव	-11.5723
पुस्तकें	-11.5724
जॉन	-11.5724
राजभाषा	-11.5725
सघन	-11.5725
टेढ	-11.5728
स्वीकार्य	-11.5728
अनुसूची	-11.5734
बीबी	-11.5734
मान्य	-11.5735
आक्स	-11.5736
वाड	-11.5737
नमून	-11.5741
ॉर्ट	-11.5743
कुबूल	-11.5746
अंतः	-11.5747
चश्म	-11.5753
विवेक	-11.5755
ढांचा	-11.5758
्टिन	-11.5763
अकेले	-11.5765
ढील	-11.5767
मुकदमे	-11.5779
संपादन	-11.5784
किशोर	-11.5785
mi	-11.5785
कार्यनीति	-11.5796
पालि	-11.5799
रथ	-11.58
बदकार	-11.5802
जवान	-11.5811
वारा	-11.5812
हानुभ	-11.5814
ावट	-11.5825
uri	-11.583
आदर	-11.5831
साझी	-11.5835
संग	-11.584
मील	-11.584
पावर	-11.5847
000¦	-11.5854
हिला	-11.5855
ूमत	-11.5866
पट्टे	-11.5872
राजस्व	-11.5875
शिका	-11.588
िरों	-11.5886
सउद	-11.5887
साइन	-11.589
लंबा	-11.5909
शान्त	-11.5919
झुठलाने	-11.592
सिंगा	-11.5933
मुता	-11.5938
पीएम	-11.5943
पर्व	-11.5958
हृ	-11.5965
वेश	-11.5974
निवासियों	-11.598
ोप	-11.5997
इलाक	-11.5998
चुनौतिय	-11.6016
क्षय	-11.6045
संख	-11.6046
वाब	-11.6049
ग्रा	-11.6059
ठहराए	-11.6063
मिलेग	-11.6076
पैसे	-11.6076
मात	-11.6091
फलों	-11.6106
प्रवृत्ति	-11.612
translate	-11.6121
फरिश्त	-11.6128
जरा	-11.6131
समर्थक	-11.6141
ठहर	-11.615
लिस	-11.6157
▁¦189	-11.6176
अर्जन	-11.619
चौपा	-11.6198
शोषण	-11.6207
१४	-11.6214
बनाएं	-11.6219
भु	-11.6221
उठे	-11.6259
राष्ट्रवाद	-11.6271
वानी	-11.6301
100	-11.6323
ter	-11.6326
जनन	-11.6329
मोच	-11.6338
क्रे	-11.6353
19¦	-11.6368
per	-11.6375
एसआई	-11.6402
पेन	-11.644
डिंग	-11.6442
मिस्	-11.6455
कार्यपाल	-11.6456
बस्तिय	-11.6465
डेन	-11.6491
रखनेवाल	-11.6491
di	-11.6498
म्मत	-11.6535
विशिष्टता	-11.6554
ंधन	-11.6561
्ट्रेट	-11.6561
तूर	-11.6567
हरिया	-11.6585
नानक	-11.6618
हुक	-11.6626
र्रा	-11.6634
मोल	-11.6641
टै	-11.6655
फेस	-11.6659
68¦	-11.6659
चिप	-11.6664
ip	-11.668
pi	-11.6691
पहचाने	-11.6722
क्यो	-11.673
जौ	-11.6737
cu	-11.6747
नवीनत	-11.6769
रिहा	-11.6771
मजदूर	-11.6776
▁¦2010	-11.6777
धुर	-11.678
शल्य	-11.6783
mp	-11.6785
कुशल	-11.679
रिट	-11.6794
]	-11.6794
&	-11.6794
िम्मेदार	-11.6799
हिन्दुस्तान	-11.6806
निर्माता	-11.681
च्छेद	-11.6811
ाधीन	-11.6811
तन्त्र	-11.6811
पेट्रोल	-11.6812
एजेन्स	-11.6812
चट्टान	-11.6812
प्राधिकृत	-11.6812
app	-11.6812
ubl	-11.6812
प्रारम्भ	-11.6812
फ्रेम	-11.6812
रेगिस्तान	-11.6812
लॉन्च	-11.6812
वैयक्ति	-11.6812
संवेदनशील	-11.6812
ॆ	-11.6812
वसीयत	-11.6812
सूँघ	-11.6812
धूप	-11.6812
नुकसान	-11.6812
सुल्तान	-11.6812
वर्मा	-11.6812
चिल्ला	-11.6812
श्लेष	-11.6812
भरें	-11.6812
गर्दन	-11.6812
गर्भाशय	-11.6812
शरणार्थ	-11.6812
मेजबान	-11.6813
बूट	-11.6813
पैटर्न	-11.6813
out	-11.6813
अखबार	-11.6813
संकुच	-11.6813
भ्रम	-11.6813
व्यष्टि	-11.6814
तख्त	-11.6814
मोर्च	-11.6815
अनधिक	-11.6815
आईआईटी	-11.6815
जानबूझ	-11.6816
बंब	-11.6816
समेक	-11.6816
गुलाम	-11.6816
इम्त	-11.6816
प्रतिलिपि	-11.6816
अनुबंध	-11.6817
निर्धन	-11.6818
मध्यस्थ	-11.6818
फुट	-11.6818
तीर्थ	-11.6818
नरेन्द्र	-11.6818
अधिकारिता	-11.6819
▁¦2003	-11.6819
सुगम	-11.682
मसीह	-11.682
खुल्लम	-11.682
बंगल	-11.682
न्यवाद	-11.6822
मणिपुर	-11.6822
टेक्स	-11.6822
पॉप	-11.6822
पहलुओ	-11.6823
रात्रि	-11.6823
रूढ	-11.6826
▁’’	-11.6827
नाभिक	-11.6827
केरल	-11.6828
रूचि	-11.6828
बाँध	-11.6829
एप्प	-11.6829
ओडि	-11.6829
वस्त्र	-11.6829
ुँ	-11.683
हर्ष	-11.6833
बाढ	-11.6835
ओवर	-11.6837
कंध	-11.6839
टाइप	-11.6844
धोखे	-11.6845
ड्रग	-11.6848
कस्म	-11.6849
वन्य	-11.6851
कतरा	-11.6852
डरो	-11.6856
दिखाएं	-11.6858
एण्ड	-11.686
मिथ	-11.686
झट	-11.6861
बक्स	-11.6865
अय्य	-11.6867
जायेंगे	-11.6877
असंगत	-11.6877
बरसा	-11.6879
मृतक	-11.688
निपटान	-11.6883
साम्राज्यवाद	-11.6884
वैद	-11.6885
सूद	-11.6887
समझो	-11.6893
शै	-11.6895
घण	-11.69
लेबल	-11.6904
िंग्स	-11.6906
शेर	-11.6909
चलती	-11.6911
चरिता	-11.6929
कहें	-11.6933
थ्र	-11.6936
छः	-11.694
पीछ	-11.6943
शोधन	-11.6946
पठ	-11.6948
कार्यालयों	-11.6955
नीला	-11.697
दाख	-11.6972
टेड	-11.6973
परिवर्ध	-11.6977
फर्ज	-11.6982
खाई	-11.6984
चीख	-11.6995
.04.201	-11.7
कंप	-11.7005
िकरण	-11.7008
नतीज	-11.7013
उपास	-11.7019
विष्ट	-11.7037
परजीव	-11.704
स्टेट	-11.7046
शिप	-11.7053
जायेग	-11.7059
स्ना	-11.7074
पर्यटक	-11.7079
बीर	-11.7081
सोम	-11.7085
निर्वा	-11.7092
बेख	-11.7099
एंगे	-11.7105
लगाना	-11.7132
ch	-11.7132
इंट	-11.7135
लोन	-11.714
फीस	-11.7149
उद्भ	-11.7161
फोर्	-11.7176
बैठा	-11.7176
रूख	-11.7177
छपा	-11.7178
उपदेश	-11.7178
बिक	-11.7191
जिन्हो	-11.7192
गुट	-11.7199
तिरु	-11.7199
आब	-11.721
ेंद्र	-11.7212
षण	-11.7249
समितिय	-11.7256
ct	-11.7258
सेंट	-11.7268
आस्तिय	-11.7277
▁¦42	-11.7299
टाउन	-11.7301
मूर	-11.731
क्रि	-11.7319
ड्यू	-11.7328
मिज	-11.7338
फुल	-11.7338
बनते	-11.7339
स्तान	-11.7356
ाइब्र	-11.737
लिखें	-11.7379
ांत्र	-11.7396
हिम	-11.7412
धारी	-11.7414
चर्म	-11.7417
कैद	-11.7419
सल्	-11.7425
कैश	-11.7439
इच्छ	-11.7442
वाँ	-11.7463
ियॉ	-11.7477
दिसम्ब	-11.7482
ty	-11.7486
▁¦1000	-11.7492
गुर	-11.7499
ुल्ला	-11.7516
ानुसार	-11.7516
ऑपरेट	-11.754
दीप	-11.7548
ओल	-11.7552
ld	-11.7578
कंद	-11.7585
गर्	-11.7615
av	-11.7618
सिटी	-11.7627
गुड	-11.7655
्चय	-11.7662
कैन	-11.7669
सज्ज	-11.7677
प्रलेख	-11.7691
भाज	-11.7697
रोच	-11.7713
िबल	-11.7716
दै	-11.7726
रोह	-11.7729
ख्वा	-11.7754
फॉर	-11.7763
असफलता	-11.7774
घास	-11.7784
भव	-11.7796
रेब	-11.7802
अनिवास	-11.7825
2,	-11.7842
ran	-11.7846
मॉन	-11.7862
र्श	-11.7865
निष्	-11.7878
वर्धन	-11.792
ाइट	-11.7923
नन्द	-11.7941
चौक	-11.7945
ार्म	-11.7956
▁¦32	-11.7969
प्रदूष	-11.7981
प्रिया	-11.7984
ऊँ	-11.7996
पाच	-11.7999
टिप्पण	-11.8004
अम्	-11.8012
▁¦17.	-11.8013
um	-11.8018
संयोज	-11.8027
आवश्य	-11.8034
.06.201	-11.8036
लैण्ड	-11.8044
टूब	-11.8047
आतंक	-11.8048
प्रिंट	-11.8052
बाय	-11.8054
समू	-11.8056
व्रत	-11.8056
नवान्वेष	-11.8057
विद्यालय	-11.806
ञ	-11.806
ुत्फ	-11.8062
gtk	-11.8062
अब्दुल	-11.8062
एकाग्र	-11.8062
छिद्र	-11.8062
ध्रुव	-11.8062
ॊ	-11.8062
color	-11.8062
अद्भु	-11.8062
ख्तियार	-11.8062
ढूँढ	-11.8062
ब्रैसेरो	-11.8062
वाशिंग	-11.8062
सहिष्णु	-11.8062
सौंदर्य	-11.8062
स्मार्ट	-11.8062
पुण्य	-11.8062
मेट्रो	-11.8062
सत्याग्रह	-11.8062
एख्ते	-11.8062
गोविंद	-11.8062
बांग्लादेश	-11.8062
रघु	-11.8062
वाष्प	-11.8062
धरोहर	-11.8062
मुवाफ	-11.8062
साध्य	-11.8062
राजपूत	-11.8062
प्रचालन	-11.8062
सुलेमान	-11.8062
अकादेम	-11.8062
रोशनी	-11.8062
विकिरण	-11.8062
विघटन	-11.8062
ऊंगा	-11.8062
मधुम	-11.8062
सांप्रदायिक	-11.8062
अपडेट	-11.8062
खजूर	-11.8062
दुर्भाग्य	-11.8062
बहादुर	-11.8062
अफगान	-11.8062
वायुयान	-11.8062
मन्त्र	-11.8062
link	-11.8063
पारिस्थितिक	-11.8063
टैक्स	-11.8063
अग्रेष	-11.8063
ब्लॉक	-11.8063
अटल	-11.8063
संकल	-11.8063
सारांश	-11.8063
झलक	-11.8063
फैक्ट	-11.8063
स्वाधीन	-11.8063
गिर्द	-11.8063
net	-11.8063
्सिडी	-11.8063
मंगल	-11.8064
हलाक	-11.8064
ख्वाहिश	-11.8064
अंगूर	-11.8064
स्फी	-11.8064
उलझ	-11.8064
तनाव	-11.8064
घायल	-11.8064
स्कैन	-11.8064
सिलसिल	-11.8064
निर्दोष	-11.8064
हस्तांतरण	-11.8065
डिबग	-11.8065
गोपनीय	-11.8065
सदिश	-11.8065
म्भ	-11.8065
प्लेयर	-11.8065
अधिवक्ता	-11.8066
शुरु	-11.8066
ात्मा	-11.8066
अंधेर	-11.8066
स्ट्रीम	-11.8066
मेनू	-11.8066
रत्न	-11.8066
चेन्न	-11.8066
end	-11.8067
मतदाता	-11.8068
कुत्त	-11.8068
करतूत	-11.8068
जीवंत	-11.8068
संबन्ध	-11.8068
भ्रमण	-11.8068
भुला	-11.8069
उल्लि	-11.8069
संतान	-11.8069
विलोप	-11.8069
उथल	-11.8069
मूत्र	-11.8069
संतोष	-11.8069
केन्या	-11.8069
सोसाइट	-11.8069
रसीद	-11.807
▁¦0.	-11.807
मूर्तिकला	-11.807
द्रव्य	-11.8071
क्लिप	-11.8071
प्रशासक	-11.8071
ko	-11.8071
कवियों	-11.8071
▁¦1999	-11.8072
अवतार	-11.8073
जीलैंड	-11.8073
पम्प	-11.8074
इन्ते	-11.8074
नवीकरण	-11.8075
एनआर	-11.8075
बिस्तर	-11.8075
आकर्षण	-11.8076
फ्फ	-11.8078
ट्ठ	-11.8078
यज्ञ	-11.8078
सांविध	-11.8078
कुंड	-11.8078
फिलीप	-11.8079
शौक	-11.808
विवेकान	-11.808
ओपन	-11.8082
ऊँचाई	-11.8082
उपक्रम	-11.8083
प्रबन्धन	-11.8083
गांधीजी	-11.8083
खिसका	-11.8084
बरदार	-11.8085
वुड	-11.8085
बुराइयों	-11.8086
राजमार्ग	-11.8086
कुलपति	-11.8086
गाढ	-11.8086
कॉफ	-11.8086
संधि	-11.8089
कच्चे	-11.8089
age	-11.809
टूल	-11.8091
शरण	-11.8091
अम्ल	-11.8092
संक्रिया	-11.8092
संहार	-11.8092
बनायी	-11.8093
मरतब	-11.8093
अमानत	-11.8094
उत्पादकता	-11.8097
सहभाग	-11.8097
मृत	-11.8098
प्रोसेस	-11.8098
लाइट	-11.81
त्ल	-11.8101
ॉर्ड	-11.8105
मोर	-11.8105
चूक	-11.8106
मैप	-11.8107
बीविय	-11.8108
ुष्क	-11.8109
अस्वीकृत	-11.8114
चुरा	-11.8116
मजदूरों	-11.8116
लपेट	-11.8117
स्क्र	-11.8117
नमूने	-11.8121
ir	-11.8128
बरबाद	-11.8128
रद्दी	-11.8129
उपहार	-11.8132
आभार	-11.8134
व्याख्यान	-11.8135
ऊँचा	-11.8138
योनि	-11.8143
बामा	-11.8143
भाग्य	-11.8145
फायदा	-11.8145
फिज	-11.8146
स्थितियों	-11.8153
उगा	-11.8153
र्पण	-11.8154
पुस	-11.8168
▁);	-11.8173
लम्बे	-11.8174
खुशख	-11.8177
मचा	-11.8181
ac	-11.8187
बन्दर	-11.8189
दोहर	-11.8193
उपायों	-11.8194
सल्ल	-11.8197
sl	-11.82
आईएस	-11.8208
नूर	-11.821
निः	-11.8211
औषधि	-11.8219
यार्क	-11.8221
14	-11.8223
फैली	-11.8227
प्रीत	-11.823
लोप	-11.8235
पन्ना	-11.8235
चाहें	-11.8242
सिं	-11.8244
मित्त	-11.8273
ग्रेस	-11.8279
पॉल	-11.8289
ाशय	-11.829
ैश	-11.829
वशी	-11.8299
असंख्य	-11.83
धमक	-11.8302
निरूप	-11.8314
होस्ट	-11.8315
कूब	-11.833
य्या	-11.8333
वाहिक	-11.8336
अतिमानस	-11.8344
ग्रि	-11.8347
तलाक	-11.8374
चालक	-11.8384
प्रबल	-11.8386
चित्रकार	-11.8403
66	-11.8419
विधाय	-11.8484
कुट	-11.8486
र्थक	-11.8492
बाण	-11.8529
बुलाने	-11.8533
war	-11.8535
निकालें	-11.8572
सूरत	-11.8577
जुटा	-11.8596
सम्पत्त	-11.86
हेर	-11.8616
एजेंसिय	-11.8617
5,000	-11.8617
_	-11.8642
प्रतिरक्ष	-11.8651
्लू	-11.8663
द्धार	-11.8664
न्दु	-11.8667
िवेश	-11.8668
२५	-11.869
if	-11.8703
ंकृत	-11.8725
ऑपरे	-11.8728
प्रशंस	-11.8733
प्राइ	-11.876
नींद	-11.8764
भुज	-11.8791
प्रोद्	-11.8805
विधा	-11.8807
ोसी	-11.8825
व्याप	-11.8839
साम्	-11.8844
ालिका	-11.8849
संप्रेष	-11.885
ुलर	-11.8859
प्रतिज्ञा	-11.8869
नीच	-11.8889
आईपी	-11.8914
पटना	-11.893
प्रवृत्त	-11.8934
११	-11.8971
रोप	-11.9
निवेशक	-11.9021
eg	-11.9032
89	-11.9038
पीट	-11.9046
चूँ	-11.9053
लिट	-11.9053
ुष्ठ	-11.9054
िचित	-11.9056
म्प्रदाय	-11.9057
दर्श	-11.9101
go	-11.912
जुट	-11.9138
डू	-11.9145
्वचा	-11.9189
१६	-11.9193
हड्ड	-11.92
साधक	-11.9214
डायर	-11.9217
विस्थाप	-11.9266
खाए	-11.9275
रिफ	-11.928
दिरा	-11.9296
तनत	-11.93
ामिन	-11.9304
rs	-11.9353
घू	-11.9367
सिख	-11.9383
लन्द	-11.9399
बताओ	-11.9415
दूँग	-11.9431
राधा	-11.9437
करूँ	-11.944
ोल्ड	-11.9441
सिंध	-11.9457
पुट	-11.9457
बाध	-11.9465
’’	-11.9472
र्षण	-11.9473
मीरा	-11.9477
र्द्ध	-11.9477
हायत	-11.9479
इन्सा	-11.9482
	-11.9485
	-11.9485
	-11.9489
मुशर	-11.949
कृष्ट	-11.949
वृक्क	-11.949
हिंदु	-11.9491
स्वप्न	-11.9491
key	-11.9491
ळ	-11.9491
अन्वेष	-11.9491
2007-	-11.9491
text	-11.9491
whats	-11.9491
उत्कीर्ण	-11.9491
क्रिस्टल	-11.9491
चूर्ण	-11.9491
छत्तीसगढ	-11.9491
ज्योति	-11.9491
पूँजी	-11.9491
मर्यादा	-11.9491
मॉड्यूल	-11.9491
मॉरिशस	-11.9491
यौगिक	-11.9491
विज्ञप्ति	-11.9491
विनम्र	-11.9491
व्यतिक्रम	-11.9491
शिथिल	-11.9491
शृंखला	-11.9491
श्रीलंका	-11.9491
संदिग्ध	-11.9491
सांख्यिकी	-11.9491
साक्षात	-11.9491
स्वामित्व	-11.9491
1947	-11.9491
ऊंची	-11.9491
कप्तान	-11.9491
ब्राजील	-11.9491
वैचारिक	-11.9491
स्वेच्छा	-11.9491
उन्माद	-11.9491
चेष्टा	-11.9491
जर्नल	-11.9491
डेल्टा	-11.9491
बलिदान	-11.9491
बहुदेववाद	-11.9491
लिप्य	-11.9491
स्तूप	-11.9491
स्थूल	-11.9491
स्लाइड	-11.9491
अलंकार	-11.9491
उत्सुक	-11.9491
आवंट	-11.9491
पेशेवर	-11.9491
अवयव	-11.9491
आमदनी	-11.9491
मूत्राशय	-11.9491
राक्षस	-11.9491
इंतजा	-11.9491
16_0	-11.9491
अंदाज	-11.9491
गद्य	-11.9491
रजिस्टर	-11.9491
श्वेत	-11.9491
मामूली	-11.9491
format	-11.9491
युवक	-11.9491
अभियोज	-11.9491
कनाडा	-11.9491
ढाँच	-11.9491
रिकॉर्ड	-11.9491
च्छाद	-11.9491
प्रणालिय	-11.9491
कबूतर	-11.9491
स्नायु	-11.9491
ाह्न	-11.9491
सहभागिता	-11.9491
बंदरगाह	-11.9491
ब्रेक	-11.9491
unit	-11.9491
जॉर्ज	-11.9491
पंचायत	-11.9491
तुल्यकाल	-11.9492
आयुर्वेद	-11.9492
प्रत्यर्थ	-11.9492
१९०	-11.9492
ान्तरण	-11.9492
विधायिका	-11.9492
एसोसि	-11.9492
सेवानिवृत्त	-11.9492
स्वतन्त्र	-11.9492
chin	-11.9492
शोभा	-11.9492
translator	-11.9493
जिन्ना	-11.9493
ड्यूटी	-11.9493
नियन्त्र	-11.9493
उत्पीड	-11.9493
अनन्य	-11.9493
अवरोध	-11.9493
शर्म	-11.9493
dev	-11.9493
ोलियो	-11.9493
रिवाज	-11.9494
संकोच	-11.9494
ढलान	-11.9494
ढोल	-11.9494
अहंकार	-11.9494
सूअर	-11.9494
महाद्वीप	-11.9494
रियासत	-11.9494
ऑक्स	-11.9495
अंशदान	-11.9495
महासागर	-11.9495
निरोध	-11.9495
किराया	-11.9495
गुनाहगार	-11.9495
▁¦2004¦	-11.9495
पुर्ज	-11.9496
बनावट	-11.9496
घुड	-11.9496
dom	-11.9496
ज्वर	-11.9496
बैंड	-11.9496
उर्वरक	-11.9496
rep	-11.9497
▁¤	-11.9497
गणतंत्र	-11.9497
िश्राम	-11.9497
प्रातः	-11.9497
अफ्रीक	-11.9498
उम्मत	-11.9498
पुनरु	-11.9498
अन्ज	-11.9498
उपग्रह	-11.9498
सन्देश	-11.9498
tle	-11.9498
दशम	-11.9498
वारिस	-11.9498
एल्ग	-11.9498
फूट	-11.9498
अत्याध	-11.9499
आत्मविश्वास	-11.95
श्याम	-11.9501
थैल	-11.9502
मानदंड	-11.9502
इंजन	-11.9502
रिसाल	-11.9503
gp	-11.9503
ढूंढें	-11.9503
ट्रेड	-11.9504
भद्र	-11.9504
उपनगर	-11.9505
पल्ल	-11.9506
क्रेड	-11.9507
मुशरिक	-11.9508
परीक्षक	-11.9508
पतंग	-11.9508
सैक	-11.9509
काउंटर	-11.9509
तालिका	-11.9509
थॉ	-11.9509
व्यवहार्य	-11.951
पायी	-11.951
फोक	-11.951
चार्य	-11.9511
भेड	-11.9512
अनुशासन	-11.9512
फारस	-11.9513
अनुष	-11.9516
अभिलाभ	-11.9516
चित्त	-11.9516
1990¦	-11.9519
समझदार	-11.9519
अहं	-11.9519
एफसी	-11.9522
क्रियान्व	-11.9524
एसवी	-11.9525
पोजी	-11.9525
वर्तनी	-11.9526
कैंस	-11.9526
अड्ड	-11.9528
निरा	-11.9529
फिल्टर	-11.9529
पत्य	-11.9531
मोती	-11.9531
लंबाई	-11.9531
संयोजन	-11.9531
बजाएँ	-11.9532
इक्क	-11.9533
जरुरत	-11.9533
ोटो	-11.9537
प्रक्रम	-11.9539
जरिय	-11.9539
परिपूर्ण	-11.954
रुरत	-11.954
क्लास	-11.954
जरुर	-11.9543
▁”.	-11.9545
संयोग	-11.9546
लकीर	-11.9546
उत्तरः	-11.9547
ांतरण	-11.9551
मेघ	-11.9554
तदनु	-11.9555
काउंट	-11.9556
संकल्पना	-11.9561
चिपका	-11.9562
रेखांक	-11.9563
दूष	-11.9564
ग्रीन	-11.9567
मौज	-11.9573
कारखान	-11.9573
पांड	-11.9574
एक्ज	-11.9575
ट्रेन	-11.9575
समेत	-11.9578
सींग	-11.9579
केशव	-11.9585
ट्रॉ	-11.9588
आकड	-11.9596
मीठ	-11.96
साहा	-11.961
जुआ	-11.9615
उल्ल	-11.9616
जन्य	-11.9643
विचल	-11.9645
दिखला	-11.9645
भाड	-11.9651
नीलाम	-11.9655
हम्द	-11.968
बाड	-11.9681
र्ती	-11.9681
कुन्	-11.9693
वार्ड	-11.9697
हूर	-11.9733
बुध	-11.9736
0,000¦	-11.9739
संसाध	-11.9743
मुदाय	-11.9755
इस्लामवाद	-11.9771
▁¦190	-11.9772
क्रै	-11.9776
पेक्ष	-11.9789
मैट	-11.9798
६०	-11.9802
दुर्ग	-11.9823
कूद	-11.9825
उज्	-11.9855
cc	-11.9864
dit	-11.9868
ग्रो	-11.988
आँख	-11.9882
मुर्दा	-11.9917
हिम्म	-11.9934
धोख	-11.9937
रेंद्र	-11.9949
बुत	-11.9959
सज्जन	-11.9982
▁¦43	-11.9992
दूरदर्श	-12.0007
निकटता	-12.0013
111	-12.0027
ese	-12.0041
कोयल	-12.0069
लौटाए	-12.0077
lar	-12.0112
िल्ल	-12.013
ध्याय	-12.0133
800¦	-12.0137
खुल्ल	-12.0169
डीएम	-12.0171
int	-12.0188
रेटर	-12.0201
men	-12.0208
िथ्	-12.0225
थोप	-12.0238
रूट	-12.0239
छिपे	-12.0243
नुक	-12.0278
बैल	-12.0281
पाइ	-12.0318
सूज	-12.032
................	-12.0335
वाच	-12.0341
अवशोष	-12.0342
मापन	-12.037
षाण	-12.037
शिर	-12.0384
प्रत्याश	-12.0389
रलैंड	-12.0389
मल्ल	-12.0403
हिज	-12.0413
उपाध्य	-12.0432
पेरि	-12.0442
मुहा	-12.0487
इन्ह	-12.0532
मुहल	-12.0556
डेल	-12.0583
बहर	-12.0588
mm	-12.0626
आक्र	-12.0631
३०	-12.0657
ोर्ड	-12.0681
ब्रो	-12.0689
मध्यवर्	-12.0709
गूग	-12.0738
बगल	-12.0747
स्वि	-12.077
रोवर	-12.0841
ंशिक	-12.0864
आंखे	-12.0881
ैति	-12.0962
छुप	-12.097
शंक	-12.0989
रदार	-12.0998
स्वराज	-12.1023
टॉम	-12.1023
lin	-12.1039
बेपरवा	-12.1062
भागीदार	-12.11
पत्न	-12.1104
परेश	-12.1111
स्थानांतर	-12.1118
सदृश	-12.1119
dis	-12.1122
चिंत	-12.1126
!	-12.1139
ope	-12.1144
उपहा	-12.1148
षेध	-12.1155
यन्त्र	-12.1155
थु	-12.1157
é	-12.1157
अंटार्कटिक	-12.1157
हाइड्रोज	-12.1157
cri	-12.1157
मलेशिया	-12.1157
chrom	-12.1157
view	-12.1157
|	-12.1157
	-12.1157
	-12.1157
·	-12.1157
आविष्कार	-12.1157
आस्ट्रेलिया	-12.1157
उपनिषद	-12.1157
काश्मीर	-12.1157
कौंसिल	-12.1157
गुनेहगार	-12.1157
चतुर्थ	-12.1157
चार्ल्स	-12.1157
थिएटर	-12.1157
निश्चिन्त	-12.1157
प्रतिबिम्ब	-12.1157
यूनिकोड	-12.1157
रासायनिक	-12.1157
स्वयंसेवक	-12.1157
स्वायत्त	-12.1157
head	-12.1157
अलंकरण	-12.1157
घुटन	-12.1157
झिल्ली	-12.1157
धुंध	-12.1157
शौहर	-12.1157
श्रेणिय	-12.1157
कंपोज	-12.1157
जुर्मान	-12.1157
त्रिपुरा	-12.1157
पूंछ	-12.1157
मैत्री	-12.1157
यूनियन	-12.1157
रसायन	-12.1157
count	-12.1157
अनुष्ठान	-12.1157
राजदूत	-12.1157
गांठ	-12.1157
फ्रें	-12.1157
निश्चल	-12.1157
आश्रय	-12.1157
हकीकत	-12.1157
विभिन	-12.1157
आसियान	-12.1157
प्रचुर	-12.1157
कार्मिक	-12.1157
मच्छर	-12.1157
मुर्ग	-12.1157
अटकल	-12.1157
शूल	-12.1157
त्रिकोण	-12.1158
मेहमान	-12.1158
सॉफ	-12.1158
अस्थिरता	-12.1158
आशंका	-12.1158
कुशाद	-12.1158
निरपेक्ष	-12.1158
विक्रेता	-12.1158
वितरित	-12.1158
निरीक्षक	-12.1158
स्थापत्य	-12.1158
यतीम	-12.1158
संशय	-12.1158
प्रताप	-12.1158
मलाशय	-12.1158
रापन	-12.1158
ज्यादत	-12.1158
वयस्क	-12.1158
dition	-12.1158
मिथ्या	-12.1158
email	-12.1158
दुविधा	-12.1158
मालदीव	-12.1158
स्तम्भ	-12.1158
भूकंप	-12.1159
शेयरधारक	-12.1159
धूल	-12.1159
बॉम्ब	-12.1159
महाविद्यालय	-12.1159
ctr	-12.1159
शुक्ल	-12.1159
अडिग	-12.1159
पिघल	-12.1159
इतरा	-12.1159
रियायत	-12.1159
न्यायाधिकरण	-12.1159
jo	-12.116
भेदभाव	-12.116
पॉव	-12.116
लाभांश	-12.116
cap	-12.116
एजेंट	-12.116
शब्दावल	-12.116
afr	-12.116
उत्तराधिकार	-12.116
fit	-12.116
cla	-12.116
च्युत	-12.116
कार्यवाहिय	-12.116
डॉलर	-12.1161
ill	-12.1161
दुश्	-12.1161
उत्तेज	-12.1161
पहेल	-12.1161
गवर्नर	-12.1162
आईओए	-12.1162
भालू	-12.1162
ican	-12.1162
बन्धु	-12.1162
ark	-12.1162
कारस्तान	-12.1162
see	-12.1162
दुहरा	-12.1162
तमाश	-12.1163
fore	-12.1163
बर्तन	-12.1163
मतभेद	-12.1163
vir	-12.1163
ऊंट	-12.1163
डिब्ब	-12.1163
सम्भावना	-12.1163
विधानसभा	-12.1163
मुन्त	-12.1163
हरिजन	-12.1164
छांट	-12.1164
अपलोड	-12.1164
mac	-12.1164
टेस्ट	-12.1164
प्रतिरोध	-12.1164
जमाअत	-12.1164
देहात	-12.1164
ब्रॉ	-12.1164
स्नेह	-12.1165
जिंदगी	-12.1165
गोपन	-12.1165
ast	-12.1165
ऊँट	-12.1165
qa	-12.1166
लम्बाई	-12.1166
अनंत	-12.1166
and	-12.1166
विरल	-12.1166
बहुमुख	-12.1166
पर्ण	-12.1166
प्रतिपाद	-12.1166
क्रूर	-12.1167
उन्नति	-12.1167
अर्थशास्त्र	-12.1167
राधिक	-12.1167
बायाँ	-12.1168
टर्मिनल	-12.1168
जमाकर्ता	-12.1168
बांटन	-12.1168
धनराशि	-12.1169
बागान	-12.1169
सम्मुख	-12.1169
द्रु	-12.1169
सांप	-12.117
प्रिंटर	-12.1171
गुच्छ	-12.1171
मकबर	-12.1171
मुनाफिक	-12.1173
इद्द	-12.1173
अभियुक्त	-12.1173
हकदार	-12.1174
सेंटर	-12.1174
मेमोर	-12.1174
गन्ध	-12.1175
प्रक्षेप	-12.1175
▁¦1996	-12.1175
वक्र	-12.1175
चांद	-12.1176
अपंग	-12.1176
सांसद	-12.1177
घराने	-12.1178
अर्द्ध	-12.1178
जमानत	-12.1178
ठंड	-12.1179
शिविर	-12.1179
चार्ट	-12.118
01.	-12.118
अमृत	-12.1181
मार्केट	-12.1181
शौर	-12.1182
फिक्र	-12.1182
बलराम	-12.1185
डेवि	-12.1185
ढाल	-12.1186
ीक्षक	-12.1186
ब्रोकर	-12.1187
प्यू	-12.1188
ललित	-12.1189
झंड	-12.1189
डिवाइ	-12.119
अनुक्रिया	-12.119
अनुक्रम	-12.1192
विहीन	-12.1192
व्यप	-12.1193
आक्षेप	-12.1196
संक्रम	-12.1196
गुमान	-12.1197
शीश	-12.1197
िंघा	-12.1198
मैच	-12.1199
सर्द	-12.12
मरोड	-12.12
राजपत्र	-12.1201
अपरिच	-12.1201
जन्मदिन	-12.1202
बाधित	-12.1203
रवैय	-12.1206
पर्च	-12.1207
तृतीय	-12.1207
1948¦	-12.1209
लखन	-12.121
सिंधु	-12.1211
कबीर	-12.1212
यकीन	-12.1212
टैंक	-12.1213
लेरिया	-12.1215
इधर	-12.1217
िब्ब	-12.1221
ट्राइ	-12.1222
कराती	-12.1228
बर्ग	-12.1229
जूते	-12.1232
चबा	-12.1235
रेशम	-12.1237
गिनत	-12.1238
मैथ	-12.1239
व्ह	-12.1243
चूर	-12.1243
निर्म	-12.1251
मायन	-12.1254
अमीर	-12.1265
नासिक	-12.1265
प्रदूषक	-12.1266
लिवर	-12.1266
cal	-12.1272
मुब	-12.1272
धीर	-12.1273
कन्या	-12.1287
रिप	-12.1288
लौह	-12.1294
स्तीन	-12.1295
तिलक	-12.1297
शेल	-12.1303
स्क्व	-12.1304
ग्राफिक	-12.1312
str	-12.1313
स्याह	-12.1318
आधिक	-12.1336
comp	-12.1365
gu	-12.1394
माईल	-12.1401
सल्फ	-12.1414
eng	-12.1416
श्रृंग	-12.143
धिष्ठ	-12.1431
ंजाम	-12.1437
दन्त	-12.1437
बरसात	-12.1473
महत्त	-12.1494
ge	-12.1506
मरिय	-12.1513
ऍं	-12.1517
हड्डिय	-12.1526
विमानक्षेत्र	-12.1535
ग्रेट	-12.1543
बॉल	-12.1545
ल्लु	-12.1564
ica	-12.1575
मुंड	-12.158
ja	-12.1582
ठान	-12.1591
घमं	-12.1666
tra	-12.1673
सुलझा	-12.1705
करेगे	-12.1706
lat	-12.1711
फौ	-12.1725
ber	-12.1758
रिश्	-12.1759
र्तन	-12.1765
ite	-12.1802
नुसार	-12.1859
चौथा	-12.1863
og	-12.1864
बिल्ल	-12.1874
मेजर	-12.1878
पॉलि	-12.1907
अनुपस्थित	-12.1929
99	-12.1931
ग्रीव	-12.196
उठत	-12.199
चखो	-12.205
...............	-12.2054
ैंप	-12.2113
▁¦46	-12.2131
न्यायप	-12.2158
प्रौद्योगिकिय	-12.2178
शैव	-12.2195
१२	-12.2201
टेप	-12.226
भ्र	-12.2339
vers	-12.2349
मास्टर्	-12.2366
द्योत	-12.2367
निरस्त	-12.2435
नजरिय	-12.2444
लगेग	-12.2449
बनेग	-12.248
▁¦120	-12.2545
69	-12.256
रावण	-12.2563
्यर्थ	-12.2694
तिमाह	-12.2704
रस्पर	-12.2719
ऍ	-12.2735
दहल	-12.2776
आरडी	-12.286
वैश्व	-12.286
्बिया	-12.2869
विनिय	-12.2907
लग्नक	-12.2933
श्चात्	-12.2965
ुअल	-12.2972
आधि	-12.3038
मॉड	-12.3055
rate	-12.3091
काउं	-12.3098
तुर्क	-12.3107
कच्च	-12.3112
अवधारण	-12.3121
अनजान	-12.3134
ानून	-12.3134
प्रबन्ध	-12.3135
उम्	-12.3136
॰	-12.3139
अशक्त	-12.314
समन्व	-12.3141
सैन	-12.3144
माध्य	-12.3147
ome	-12.3153
द्रोह	-12.3156
ुर्वेद	-12.3156
उपयुक	-12.3156
औजार	-12.3157
विकिपीडिया	-12.3157
▁¦2006-	-12.3157
.11.201	-12.3157
भिक्षु	-12.3157
साइरिलिक	-12.3157
bject	-12.3157
with	-12.3157
एमएसएम	-12.3157
खिंच	-12.3157
पांडुलिपि	-12.3157
प्रिंसिपल	-12.3157
भण्डार	-12.3157
सूत्रकृमि	-12.3157
*	-12.3157
.05.201	-12.3157
3.5	-12.3157
atla	-12.3157
png	-12.3157
window	-12.3157
	-12.3157
£	-12.3157
©	-12.3157
अँधेर	-12.3157
अधूरा	-12.3157
इष्टतम	-12.3157
उन्नयन	-12.3157
कृषक	-12.3157
ज्येष्ठ	-12.3157
टेलीविज	-12.3157
ठेकेदार	-12.3157
दुरुस्त	-12.3157
धूम्र	-12.3157
परात्पर	-12.3157
परिपक्व	-12.3157
फ्लैग	-12.3157
बाइंडिंग	-12.3157
भगवद	-12.3157
वर्ल्ड	-12.3157
संगोष्ठ	-12.3157
॥	-12.3157
▁¦1953¦	-12.3157
.07.201	-12.3157
character	-12.3157
बिछौन	-12.3157
महोदय	-12.3157
मुआवज	-12.3157
मुट्ठी	-12.3157
वातानुकूल	-12.3157
व्यंग्य	-12.3157
श्रुति	-12.3157
सरस्वती	-12.3157
इन्द्र	-12.3157
क्षेञ	-12.3157
वफादार	-12.3157
सिक्ख	-12.3157
lab	-12.3157
आरोग्य	-12.3157
खामोश	-12.3157
फिटकार	-12.3157
जनजातीय	-12.3157
पर्वतमाला	-12.3157
बूंद	-12.3157
मल्टी	-12.3157
हिमनद	-12.3157
अथारिट	-12.3157
करुणा	-12.3157
साउथ	-12.3157
मुखौट	-12.3157
संस्कार	-12.3157
ताबेदार	-12.3157
निगेह	-12.3157
ग्यारह	-12.3157
सन्धि	-12.3157
सिंहासन	-12.3157
बांग्ल	-12.3157
ऑर्ग	-12.3157
तुलसी	-12.3157
तंबू	-12.3157
आवरण	-12.3157
ऊष्म	-12.3157
बकवास	-12.3157
रूपान्तर	-12.3157
सिनेमा	-12.3157
अल्पसंख्यक	-12.3157
डिजायन	-12.3157
अभिभावक	-12.3158
तत्परता	-12.3158
.03.201	-12.3158
फोलो	-12.3158
उषा	-12.3158
पुनरावृत्त	-12.3158
ब्बत	-12.3158
able	-12.3158
घबरा	-12.3158
मक्ख	-12.3158
तूफान	-12.3158
you	-12.3158
ठाकुर	-12.3158
रसोई	-12.3158
इन्जी	-12.3158
बुझा	-12.3158
cket	-12.3158
पोशीद	-12.3158
आवेदक	-12.3158
साम्यवाद	-12.3158
राधाकृष्ण	-12.3158
प्रायद्वीप	-12.3158
नर्तक	-12.3158
tool	-12.3158
सतीश	-12.3158
खूबसूरत	-12.3158
समीप	-12.3158
मैट्रिक	-12.3158
low	-12.3158
दाँत	-12.3158
डाटाबेस	-12.3158
सजावट	-12.3158
चमत्कार	-12.3158
जीवद्रव्य	-12.3158
मस्ज	-12.3158
सिस्को	-12.3159
गोखले	-12.3159
िबाह	-12.3159
सौहार्द	-12.3159
संकाय	-12.3159
निर्देशांक	-12.3159
स्कोप	-12.3159
किराए	-12.3159
तिब्बत	-12.3159
राजकीय	-12.3159
गणमान्य	-12.3159
iff	-12.3159
मुअय्य	-12.3159
मीट्रि	-12.3159
मुहावर	-12.3159
एल्ब	-12.3159
श्रव्य	-12.3159
पौत्र	-12.316
वल्क	-12.316
बुर्द	-12.316
प्रेमचन्द	-12.316
सुथर	-12.316
तिहाई	-12.316
मरीज	-12.3161
स्टैं	-12.3161
तमन्ना	-12.3161
▁¤	-12.3161
बुर्ज	-12.3161
गोदाम	-12.3161
पारम्प	-12.3161
विजेता	-12.3161
तालमेल	-12.3162
अंकुर	-12.3162
त्यौ	-12.3162
url	-12.3162
ंपिंग	-12.3162
१३	-12.3162
महानिदेशक	-12.3162
tur	-12.3162
टूल्स	-12.3162
झुलस	-12.3162
इसराइल	-12.3162
कंट्र	-12.3163
▁¦0.0	-12.3163
घोल	-12.3163
ऑफिस	-12.3163
हरकत	-12.3163
झूल	-12.3163
off	-12.3163
दिशानिर्देश	-12.3164
सोलर	-12.3164
खाँच	-12.3164
टेशिय	-12.3165
महाकाव्य	-12.3165
पैगंबर	-12.3165
वारंट	-12.3165
चुंब	-12.3166
पाएंगे	-12.3166
ऋषि	-12.3166
बाकू	-12.3166
▁¦188	-12.3166
pop	-12.3167
बिछा	-12.3167
निकटवर्त	-12.3167
इत्म	-12.3167
2-13	-12.3168
विनिर्माता	-12.3168
सोर्स	-12.3168
जवाबदेह	-12.3169
ग्रुप	-12.3169
पिल्ल	-12.3169
अवशेष	-12.317
हिन्दुस्तानियों	-12.317
बुढ	-12.317
क्लोन	-12.317
श्रीकृष्ण	-12.3171
टकाएँ	-12.3171
श्लोक	-12.3171
सूझ	-12.3173
प्रतिध्वनि	-12.3173
▁\\	-12.3173
लश्कर	-12.3173
मोटाई	-12.3173
2-2	-12.3176
मदिरा	-12.3177
गोपुर	-12.3177
14.	-12.3177
नामांक	-12.3178
दोलन	-12.3178
wp	-12.3178
उपलब	-12.3179
कैमर	-12.3179
प्रतिवेद	-12.3181
बालिका	-12.3181
पीएफ	-12.3182
सुन्न	-12.3184
पहरण	-12.3184
संवत	-12.3184
गूढ	-12.3186
रफ्तार	-12.3188
स्टेड	-12.3189
बुलेट	-12.3189
रुवा	-12.319
दुसर	-12.319
परिरक्ष	-12.3193
फकीर	-12.3193
झारख	-12.3194
चिकन	-12.3194
मिल्क	-12.3202
धक्क	-12.3204
ट्ज	-12.3204
बियर	-12.3209
▁¦300	-12.3218
ज्जु	-12.3224
विलास	-12.3224
कश्तिय	-12.3236
अंगार	-12.3242
118	-12.3247
ुंडी	-12.3262
नागालै	-12.3275
रांत	-12.3314
▁¦1.0	-12.3357
अवज्ञाकार	-12.3361
समूच	-12.3407
टंक	-12.3426
लाभकार	-12.3428
किंव	-12.3432
स्केल	-12.3438
हानिकार	-12.349
र्लो	-12.3509
ाइए	-12.3562
कुंजीपट	-12.3566
कुंज	-12.3594
ंधी	-12.3629
कूप	-12.3666
186	-12.3714
गुवा	-12.372
खीर	-12.3737
स्राव	-12.3789
मिन्	-12.3792
प्रदायिक	-12.382
ग्वाल	-12.3839
.12.201	-12.3914
िफ्ट	-12.3917
क्रोएशि	-12.3953
ंथन	-12.3953
रिक्ति	-12.3965
जाएँग	-12.4015
मास्टर	-12.4019
hn	-12.4066
द्यो	-12.4085
ore	-12.4115
चुनत	-12.4234
लेखापरीक्ष	-12.4242
.10.201	-12.4242
अप्रत्य	-12.4365
चौथ	-12.4404
ेंशन	-12.4407
छिन्न	-12.4423
रहनेवाल	-12.4424
बॉय	-12.4609
ब्रु	-12.4744
ृंगार	-12.4789
मरय	-12.4814
सुलझ	-12.486
ुक्का	-12.4864
बरकत	-12.4952
दृष्ट	-12.4983
िस्सा	-12.4996
द्घ	-12.5015
२१	-12.505
चाब	-12.5053
एजें	-12.5064
टिप्	-12.5087
िश्च	-12.5187
उत्प्रेर	-12.5284
दूंग	-12.5313
150	-12.5362
परिसीम	-12.5419
९०	-12.5476
प्रस्तु	-12.5523
ंपिक	-12.553
िस्ता	-12.5537
एक्सेस	-12.5582
जेन्ट	-12.5592
हँस	-12.5601
बुराइय	-12.5616
#	-12.5636
\\	-12.5637
’	-12.5638
¥	-12.5639
कम्प्यूट	-12.5645
.01.201	-12.5647
ईआईए	-12.5649
हस्तांतर	-12.5654
ारंभ	-12.5654
ुलाम	-12.5654
error	-12.5656
तुल्य	-12.5656
ption	-12.5656
पुतली	-12.5657
श्रोणि	-12.5657
but	-12.5657
gnome	-12.5657
ound	-12.5657
ukrain	-12.5657
नींबू	-12.5657
author	-12.5657
bilit	-12.5657
group	-12.5657
php	-12.5657
state	-12.5657
अहिल्या	-12.5657
क्षुद्र	-12.5657
्रैंड	-12.5657
1975¦	-12.5657
card	-12.5657
gnu	-12.5657
product	-12.5657
	-12.5657
§	-12.5657
अभियंता	-12.5657
अस्पृश्य	-12.5657
अहसास	-12.5657
आनुवंशिक	-12.5657
ऑस्ट्रेलिया	-12.5657
कण्ठ	-12.5657
करूणाकर	-12.5657
ज्वालामुख	-12.5657
डीवीडी	-12.5657
तफसील	-12.5657
त्योहार	-12.5657
नामिबिया	-12.5657
नियोक्ता	-12.5657
पंद्रह	-12.5657
परिप्रेक्ष्य	-12.5657
प्रलोभन	-12.5657
प्रामाणिक	-12.5657
रिफाइनर	-12.5657
वास्तुशिल्प	-12.5657
वृंदावन	-12.5657
व्यवधान	-12.5657
षडयंत्र	-12.5657
संबंद्ध	-12.5657
हरिश्चन्द्र	-12.5657
▁¦1700¦	-12.5657
star	-12.5657
अंतराफलक	-12.5657
इख्ते	-12.5657
ऎ	-12.5657
एट्रिब्यूट	-12.5657
जिज्ञास	-12.5657
द्वेष	-12.5657
प्रेसिडें	-12.5657
बेलारूस	-12.5657
सार्वभौम	-12.5657
ऐंठन	-12.5657
ओस्लो	-12.5657
तैनात	-12.5657
दहशत	-12.5657
प्राक्सी	-12.5657
रिएक्टर	-12.5657
रुधिर	-12.5657
रेकॉर्ड	-12.5657
वाहिनी	-12.5657
विषाक्त	-12.5657
सर्जरी	-12.5657
जाग्रत	-12.5657
माउंट	-12.5657
एटीएम	-12.5657
चप्पल	-12.5657
ब्लैक	-12.5657
वांछित	-12.5657
मोहिनी	-12.5657
ल्कोहल	-12.5657
अयस्क	-12.5657
उछाल	-12.5657
चींटी	-12.5657
मूर्ख	-12.5657
फेफड	-12.5657
गारंटी	-12.5657
स्वीडन	-12.5657
अनुपलब्ध	-12.5657
गरिमा	-12.5657
माधव	-12.5657
बिचौलिय	-12.5657
अविलंब	-12.5657
श्रेय	-12.5657
कुंभ	-12.5657
ज्ञेय	-12.5657
भीष्म	-12.5657
कट्टरपंथ	-12.5657
ठुकरा	-12.5658
नश्वर	-12.5658
बिंब	-12.5658
विलयन	-12.5658
इक्वि	-12.5658
निखार	-12.5658
रोमांच	-12.5658
पूर्णिमा	-12.5658
मुबारक	-12.5658
लोकायुक्त	-12.5658
अन्धा	-12.5658
}	-12.8973
”	-12.8973
	-12.8984
°	-12.8985
¢	-12.8991
\	-13.3972
—	-13.3972
“	-13.3973
	-13.3991
	-13.3991
̃	-13.3991
	-13.3991
=	-14.3973
$	-14.3974
`	-14.3974
[	-14.3974
+	-14.3974
@	-14.3974
~	-14.3975
	-14.3976
¶	-14.3977
¡	-14.3978
	-14.3979
	-14.398
«	-14.3981
	-14.3982
̄	-14.3983
̈	-14.3984
̧	-14.3985
®	-14.3985
¿	-14.3986
<	-14.3987
⁄	-14.3988
7	-14.3989
5	-14.399
ş	-14.3991
	-14.3991
	-14.3991
	-14.3991
	-14.3991
¤	-14.3991
×	-14.3991
î	-14.3991
ò	-14.3991
þ	-14.3991
ą	-14.3991
ĺ	-14.3991
ॄ	-14.3991
॓	-14.3991
‐	-14.3991
₹	-14.3991
