<pad>	0
</s>	0
<unk>	0
¦	-1.28011
▁¦	-1.31133
▁.	-4.04077
▁,	-4.60807
आहे	-5.07574
े	-5.10663
ी	-5.19137
च्या	-5.20447
आणि	-5.24469
त	-5.54415
ा	-5.5487
ची	-5.7017
▁	-5.71158
चा	-5.77331
ही	-5.77907
ला	-5.8607
या	-5.92565
ं	-5.93144
मध्ये	-5.96568
ील	-6.08142
चे	-6.14728
न	-6.2011
च	-6.2214
कोरोना	-6.2396
आहेत	-6.24506
ल	-6.24916
वा	-6.34193
-	-6.34513
ने	-6.35713
𐊣	-6.40389
𐊼	-6.40389
क	-6.42052
नाही	-6.46224
स	-6.53268
हे	-6.54974
ते	-6.55091
य	-6.5533
्या	-6.6182
व	-6.62737
ात	-6.63153
ून	-6.63865
ित	-6.66598
साठी	-6.69964
▁"	-6.69996
▁(	-6.70108
लस	-6.70522
वर	-6.71765
𐋇	-6.74266
किं	-6.76185
▁)	-6.80011
▁'	-6.80371
पण	-6.80666
तर	-6.81998
काही	-6.84203
आरोग्य	-6.85722
ना	-6.87092
की	-6.8803
यांनी	-6.88089
▁?	-6.90127
करण्यात	-6.92259
एक	-6.9683
कमी	-6.98846
हा	-7.04228
असं	-7.04239
-19	-7.06528
केली	-7.07538
अ	-7.09361
होत	-7.10184
ो	-7.10492
शी	-7.11884
का	-7.1393
त्या	-7.15991
र	-7.18234
चं	-7.20623
मुळे	-7.21514
माहिती	-7.21947
विषाणू	-7.25322
होते	-7.26892
▁:	-7.27651
ली	-7.27883
शकत	-7.28785
सर्व	-7.2953
कोव्हिड	-7.30137
करोना	-7.31529
संसर्ग	-7.34984
सुरू	-7.35461
डॉ	-7.3635
पर्यंत	-7.40105
ज्या	-7.40979
अनेक	-7.43621
काम	-7.44523
ले	-7.44584
केले	-7.44914
ऑक्सिजन	-7.45496
म	-7.45734
इतर	-7.46059
पासून	-7.47247
होती	-7.48492
केला	-7.49509
जास्त	-7.4966
आली	-7.50611
असलेल्या	-7.50683
बंद	-7.5106
ता	-7.51474
ल्या	-7.5177
ज	-7.51805
आले	-7.52515
होता	-7.53289
रुग्ण	-7.53377
करण्यासाठी	-7.53463
राज्यात	-7.56841
हात	-7.56898
करत	-7.58218
▁-	-7.59802
ट	-7.5984
लसीकरण	-7.61045
ड	-7.61108
झाला	-7.61535
एका	-7.6189
वापर	-7.61902
झाली	-7.62652
ाच्या	-7.64536
covid	-7.64996
प	-7.65902
राज्य	-7.66363
दोन	-7.66605
ू	-7.66785
करून	-7.67383
पेक्षा	-7.67777
येत	-7.67957
लॉकडाऊन	-7.68431
केंद्र	-7.68469
चाचणी	-7.68511
असे	-7.70189
म्हणून	-7.70935
आ	-7.7095
अधिक	-7.71135
मृत्यू	-7.71738
्स	-7.73013
मधील	-7.74145
काय	-7.74501
असेल	-7.74779
संख्या	-7.75449
नंतर	-7.75783
आजार	-7.75878
फ	-7.76071
झालेल्या	-7.76251
तो	-7.77059
जे	-7.78882
दिली	-7.80203
तयार	-7.80271
आता	-7.80284
तरी	-7.82285
देण्यात	-7.83792
त्यांना	-7.84209
ब	-7.84741
अशा	-7.84777
िक	-7.84905
श	-7.85641
परिणाम	-7.86268
त्यांच्या	-7.86463
म्हणजे	-7.86644
व्हायरस	-7.87278
म्हटलं	-7.87385
नुसार	-7.88345
आला	-7.88472
आम्ही	-7.8914
म्हणाले	-7.89713
त्यामुळे	-7.90313
केलं	-7.90683
त्यांनी	-7.91587
गेल्या	-7.91757
उपलब्ध	-7.92165
टक्के	-7.92239
करणे	-7.92875
मात्र	-7.9322
उपचार	-7.93676
सरकार	-7.93741
अशी	-7.93987
एप्रिल	-7.94329
करण्या	-7.95298
ु	-7.96257
मोठ्या	-7.96269
महाराष्ट्रात	-7.9733
.	-7.97749
नी	-7.97897
v	-7.98097
▁¦2020	-7.98129
असून	-7.98259
असा	-7.98884
सध्या	-7.99241
भारतात	-7.99439
असल्याचं	-8.00854
लशी	-8.0117
ांना	-8.01417
होतं	-8.01605
ाचा	-8.01714
कडून	-8.0187
करण्याच	-8.01953
परिस्थिती	-8.02217
जात	-8.02799
▁."	-8.03006
ाने	-8.03021
ांनी	-8.03154
औषध	-8.04466
ती	-8.04549
सांगता	-8.0473
सरकारने	-8.05789
देशात	-8.06019
मार्च	-8.06774
कोविड	-8.06792
वैद्यकीय	-8.07094
डोस	-8.07099
निर्णय	-8.07399
यांच्या	-8.07405
शाळा	-8.07687
सह	-8.0782
होऊ	-8.08067
प्र	-8.0813
लक्षण	-8.08361
कारण	-8.08552
ह्या	-8.09067
केल्या	-8.09261
आलं	-8.1052
हजार	-8.10952
होतो	-8.11029
सांगितलं	-8.11117
द	-8.11318
लोकांना	-8.11761
ह	-8.12033
गंभीर	-8.12056
co	-8.12521
चीन	-8.12669
नवीन	-8.1304
प्रमाण	-8.13499
दर	-8.14193
,	-8.14371
गरज	-8.14692
प्रकार	-8.14943
मी	-8.15114
मास्क	-8.15289
ाची	-8.15768
जर	-8.15988
झाले	-8.16991
होणार	-8.17334
ंना	-8.17597
दुसऱ्या	-8.17613
लं	-8.177
रुग्णां	-8.18234
लोक	-8.19096
समावेश	-8.19322
▁%	-8.19992
रुग्णालयात	-8.20339
करू	-8.21557
ग	-8.22292
ळ	-8.23139
सा	-8.232
लक्ष	-8.23527
शकते	-8.24088
ासाठी	-8.24302
ई	-8.24406
तील	-8.24871
व्यक्ती	-8.24895
सीओव्ही	-8.24931
द्वार	-8.2534
आपल्या	-8.25426
s	-8.25555
दिवस	-8.2561
मुंबई	-8.25677
आढळ	-8.26617
मे	-8.26718
नाहीत	-8.26785
कडे	-8.27257
लाख	-8.27328
आपण	-8.27341
ाला	-8.27364
ेल	-8.27727
पुढे	-8.2787
ण	-8.28032
आज	-8.28179
ावर	-8.28296
री	-8.28436
काळात	-8.28536
स्थिती	-8.28714
दरम्यान	-8.28993
बदल	-8.2936
देख	-8.29369
प्रवास	-8.29943
शक्यता	-8.30542
जागतिक	-8.31279
आलेल्या	-8.31859
जाहीर	-8.32442
निर्माण	-8.33225
येथ	-8.34112
पूर्ण	-8.34675
परवानगी	-8.34809
नं	-8.3517
प्रमाणात	-8.35399
बाबत	-8.35792
होण्या	-8.35806
येणार	-8.36035
म्हणतात	-8.36066
असल्याच	-8.36274
असते	-8.36453
वि	-8.36718
केलेल्या	-8.37029
तुम्हाला	-8.37233
sars	-8.37234
महत्त्वाच	-8.37567
निर्बंध	-8.37646
मदत	-8.37851
ठाकरे	-8.38334
लागू	-8.38496
जाऊ	-8.38509
्	-8.38831
२	-8.39198
सं	-8.3972
प्रसार	-8.39742
चाचण्या	-8.39885
तीन	-8.39914
आवश्यक	-8.40445
▁¦10	-8.40487
रा	-8.40773
ांच्या	-8.40815
भर	-8.40907
विचार	-8.40968
दिसून	-8.41026
ए	-8.4119
दाखल	-8.4141
असलेल	-8.41652
बाहेर	-8.417
संसर्गा	-8.41758
राज	-8.41917
बोलता	-8.42079
प्रयत्न	-8.42266
सोबत	-8.42695
योग्य	-8.42701
जाई	-8.4271
जाते	-8.43261
रोजी	-8.43285
ठिकाणी	-8.45066
कोणत्या	-8.45357
दिले	-8.46514
देश	-8.47043
मागणी	-8.47117
▁;	-8.48073
भागात	-8.48085
वाढ	-8.48349
भारत	-8.48528
करणाऱ्या	-8.48948
धोका	-8.49396
संबंधित	-8.49437
यांना	-8.49576
कोरोनाची	-8.49777
काळजी	-8.49872
विकस	-8.49894
झालेल	-8.50106
सेवा	-8.5033
याचा	-8.50456
मुख्यमंत्र	-8.50557
असताना	-8.51618
आधार	-8.51737
इ	-8.52021
पुन्हा	-8.52206
/	-8.52347
येई	-8.52596
संच	-8.54414
पहिल्या	-8.54623
ाचे	-8.54834
संपर्क	-8.55062
उद्धव	-8.55103
जी	-8.5512
रोग	-8.55852
p	-8.56043
4¦	-8.56422
बीबीसी	-8.56576
ांमध्ये	-8.56989
सार्स	-8.57592
उत्पादन	-8.57604
करता	-8.57742
पूर्वी	-8.58373
मंत्री	-8.58388
वरील	-8.58419
कोटी	-8.59275
प्रश्न	-8.59579
असू	-8.59942
ेश	-8.60088
ीन	-8.60275
तुम्ही	-8.60627
किती	-8.6065
महाराष्ट्र	-8.61023
्य	-8.614
पुरवठा	-8.62181
होई	-8.622
शोध	-8.62477
शकता	-8.62519
पंतप्रधान	-8.62538
तेव्हा	-8.62706
सार्वजनिक	-8.62716
मधून	-8.63181
डेटा	-8.63454
ंनी	-8.6349
नव्हत	-8.63793
रुग्णांना	-8.63965
शहरात	-8.64029
के	-8.64759
ऑफ	-8.6487
मला	-8.64885
राज्या	-8.65596
परीक्षा	-8.65608
-2	-8.65749
महिन्यात	-8.65826
सु	-8.65871
नि	-8.65904
ेंद्र	-8.65919
ांची	-8.66152
प्रत्येक	-8.66452
दिसत	-8.66469
क्त	-8.66905
करतात	-8.67455
स्पष्ट	-8.67578
राष्ट्रीय	-8.67584
लहान	-8.67598
उत्तर	-8.676
1	-8.67603
वेळ	-8.67652
नये	-8.67948
पैकी	-8.68162
१	-8.68321
र्	-8.68656
प्रमाणे	-8.69001
टेस्ट	-8.69268
सी	-8.69399
रि	-8.69715
झाल्या	-8.70072
नोंद	-8.70206
लक्षणं	-8.70344
आल्या	-8.70665
पा	-8.70901
याची	-8.71096
साथी	-8.71218
कर	-8.71614
लसी	-8.71679
णे	-8.71948
संपूर्ण	-8.72053
पॉझिटिव्ह	-8.72115
चर्चा	-8.72149
करा	-8.73011
याबाबत	-8.73073
लागण	-8.73148
जानेवारी	-8.73223
विविध	-8.73281
झालं	-8.73294
गेल	-8.73296
▁¦1¦	-8.73346
n	-8.73622
असतात	-8.73717
2¦	-8.73768
नियंत्रण	-8.73908
तून	-8.74302
उच्च	-8.74462
असतो	-8.74476
गेले	-8.74518
ण्यासाठी	-8.74548
जगभरात	-8.74687
करण्यास	-8.74788
अंदाज	-8.75057
जिल्ह्यात	-8.75283
सामान्य	-8.75517
ांवर	-8.75818
आजारा	-8.75867
णाऱ्या	-8.761
दिला	-8.76136
e	-8.76155
आधी	-8.76389
3	-8.7644
चार	-8.765
वेळी	-8.76595
शिक्षण	-8.76628
डॉक्टर	-8.76656
कंपनी	-8.77297
त्यात	-8.77489
करणार	-8.77639
ंग	-8.78306
रुग्णांच	-8.79322
केसेस	-8.79328
दा	-8.79689
सारख्या	-8.79718
डी	-8.79957
को	-8.79986
50¦	-8.80397
लोकां	-8.80575
समोर	-8.80579
घेतला	-8.80751
थ	-8.80755
प्रभावी	-8.80758
भाग	-8.80807
ातील	-8.80889
ंड	-8.80925
ुद्धा	-8.81038
3¦	-8.81315
उ	-8.81686
मोदी	-8.818
मोठ	-8.82597
ि	-8.83086
फेब्रुवारी	-8.83135
ओ	-8.8323
त्यानंतर	-8.83366
प्रतिबंध	-8.83675
एकूण	-8.83785
i	-8.83828
सरकारी	-8.83881
ख	-8.83984
७	-8.8412
शक	-8.84127
बद्दल	-8.84178
8¦	-8.84184
पाच	-8.84353
5¦	-8.84434
तुमच्या	-8.84525
ेईल	-8.84568
झ	-8.84591
काळ	-8.84594
तात	-8.85113
केंद्रीय	-8.85142
वाढत	-8.85165
जाणार	-8.85216
सूचना	-8.85584
a	-8.85592
ताप	-8.85686
िंग	-8.85743
खूप	-8.85759
7¦	-8.86109
शिवाय	-8.86445
असल्याने	-8.86488
c	-8.86642
बेड्स	-8.87128
त्याच्या	-8.87695
यासाठी	-8.88049
ांचा	-8.88543
4	-8.88627
▁¦20	-8.89064
त्रास	-8.8914
जेव्हा	-8.89155
m	-8.89238
आढळले	-8.8928
घरी	-8.89415
पाहिजे	-8.89428
▁“	-8.8983
शक्य	-8.90485
रुग्णसंख्या	-8.90692
ेवळ	-8.91074
अंतर	-8.9119
खासगी	-8.91221
जवळ	-8.91237
जातो	-8.91457
णं	-8.91474
जिल्हा	-8.9166
अभ्यास	-8.91806
r	-8.919
सांगितले	-8.91977
रात्री	-8.91987
शरीरात	-8.925
ीय	-8.92533
लो	-8.92625
गर्दी	-8.92634
असतील	-8.92663
9¦	-8.92916
विशेष	-8.93239
आकडेवारी	-8.93348
येऊ	-8.93863
राहत	-8.93988
नर	-8.94372
आर्थिक	-8.94792
दोन्ही	-8.94792
व्यक्त	-8.94828
ातून	-8.95526
येणाऱ्या	-8.95527
अजून	-8.95578
घेऊन	-8.95634
o	-8.96013
लशीच्या	-8.96215
लेल्या	-8.96233
शिफारस	-8.96258
कर्मचारी	-8.96276
लि	-8.96449
ायला	-8.96544
ठेवण्या	-8.96752
प्रमुख	-8.97011
दिल्ली	-8.9707
रे	-8.97645
स्थानिक	-8.97761
५	-8.98446
कार्य	-8.99013
जन	-8.99039
त्याचा	-8.99253
ण्यात	-8.99264
▁¦14	-8.99372
सुरुवात	-8.99443
अधिकारी	-8.99469
सेंटर	-8.99981
परत	-9.00074
करताना	-9.00194
सेच	-9.00267
वेगान	-9.0049
▁¦2¦	-9.00499
स्ट	-9.0059
कालावधी	-9.0067
ग्रामीण	-9.00787
ंच्या	-9.00857
वर्षा	-9.01152
देत	-9.01353
क्षमता	-9.01412
तीव्र	-9.01465
क्षेत्रात	-9.015
करावी	-9.01603
अर्थ	-9.02209
घेतली	-9.02394
से	-9.02399
हॉस्पिटल	-9.02827
निर्मिती	-9.03044
पुणे	-9.03156
▁¦15	-9.03166
नव्या	-9.03275
४	-9.03296
क्	-9.03456
मुंबईत	-9.03819
आणखी	-9.03924
▁‘	-9.03944
ताना	-9.04202
ठर	-9.04289
ंची	-9.04528
होण्याची	-9.04586
▁’	-9.04733
णार	-9.04908
विद्यार्थ्यां	-9.05095
गरजेच	-9.05422
टोपे	-9.05517
लॉकडाउन	-9.0553
मो	-9.05978
8	-9.06128
ंमध्ये	-9.06321
कधी	-9.06344
सहा	-9.06555
आपल	-9.06605
वर्षी	-9.07023
पर्याय	-9.07213
जो	-9.07238
गेली	-9.07275
बस	-9.07812
आदेश	-9.07845
होणाऱ्या	-9.07999
अन्य	-9.08016
परंत	-9.0803
घेण्यात	-9.0819
असल	-9.08271
जा	-9.08505
उपाय	-9.08788
घर	-9.08819
जीव	-9.08845
▁¦12	-9.08854
प्रमाणावर	-9.08897
प्रतिसाद	-9.0905
यामुळे	-9.09324
ामुळे	-9.09411
मते	-9.09606
नागपूर	-9.09663
घोषणा	-9.09665
वाट	-9.09667
असणाऱ्या	-9.09671
हून	-9.09738
लाट	-9.09777
आमच्या	-9.09827
ीत	-9.0994
काढ	-9.10168
करणं	-9.10178
प्रवेश	-9.10487
एचसीओव्ही	-9.10516
उद्रेका	-9.10523
त्यांची	-9.11176
वर्ष	-9.11234
संदर्भात	-9.11354
पूर्व	-9.11373
बे	-9.11465
ीम	-9.11521
ामध्ये	-9.11552
मान	-9.11749
कार्यक्रम	-9.11873
नाव	-9.1201
who	-9.12227
तुलने	-9.12228
6	-9.12456
आतापर्यंत	-9.12457
टे	-9.12585
प्रदेश	-9.12601
▁¦30	-9.12654
यु	-9.12784
आमच	-9.12899
देशा	-9.13228
करतो	-9.13553
ष	-9.13876
जातं	-9.13895
रुग्णालया	-9.13949
सुरु	-9.13979
तास	-9.14519
भारता	-9.14738
ांसाठी	-9.14829
क्वारंटाईन	-9.14859
डे	-9.1488
दुसरी	-9.15173
दूर	-9.15221
माग	-9.15226
▁¦19	-9.15319
ॅ	-9.15724
पुण्यात	-9.15747
भीती	-9.15759
प्रक्रिया	-9.15761
h	-9.159
चाचण्यां	-9.15933
गोष्टी	-9.16371
नियम	-9.16408
गाव	-9.16445
लशीं	-9.16454
आपल्याला	-9.16458
प्राथमिक	-9.16653
पुष्टी	-9.16653
2	-9.16738
लशीचा	-9.1674
विरोधी	-9.16859
त्याची	-9.16924
यांचा	-9.17076
मुख्य	-9.17115
दिलेल	-9.17232
रेमडेसिवीर	-9.17562
ध	-9.17603
झाल्यानंतर	-9.17637
व्ह	-9.17646
भूत	-9.17876
विषाणूच्या	-9.17881
विरोधात	-9.18048
सुरक्षित	-9.18081
इन्स्टिट्यूट	-9.1848
बेड	-9.18498
यात	-9.18835
l	-9.18948
अत्या	-9.19144
ात्मक	-9.19383
आम्हाला	-9.19405
तपासणी	-9.1941
फार	-9.19971
घ्या	-9.20245
संभाव्य	-9.2034
जोख	-9.20367
अत्यं	-9.20556
स्	-9.20589
त्याला	-9.20604
३	-9.20786
करते	-9.20889
प्रति	-9.2091
घा	-9.20959
टी	-9.21064
ांत	-9.21189
वश्यक	-9.21228
तुटवडा	-9.21283
ंतर्गत	-9.21285
कोणती	-9.21294
णी	-9.21391
मग	-9.21675
थेट	-9.21819
वर्षां	-9.21826
मोठा	-9.21876
स्पर्श	-9.21889
9	-9.22049
लाटे	-9.22063
सामाजिक	-9.22236
▁!	-9.2225
पर	-9.22456
मत	-9.22842
संशोधन	-9.22868
टप्प्यात	-9.22906
मर्याद	-9.22961
द्द	-9.23072
इंजेक्शन	-9.23197
शेवट	-9.23198
एखाद्या	-9.23273
चालू	-9.23309
बरे	-9.23401
▁¦24	-9.24193
असल्यास	-9.24246
नियोजन	-9.24552
श्वसन	-9.24586
तज्ज्ञ	-9.24611
सुविधा	-9.24865
सेल	-9.24919
सुरक्षा	-9.24932
यावर	-9.24999
लोकांच्या	-9.25088
शे	-9.25119
हळू	-9.25149
आव्हान	-9.2515
सि	-9.25272
लोकांनी	-9.253
प्रकरणां	-9.25336
करावा	-9.25522
तः	-9.25636
एस	-9.25882
पत्र	-9.26052
जवळपास	-9.26144
पालन	-9.26173
मा	-9.26377
रो	-9.26385
ंचा	-9.26385
0¦	-9.26684
संस्था	-9.26823
भ	-9.26827
वुहान	-9.27139
सोश	-9.27139
खर्च	-9.27139
नोंदणी	-9.27162
b	-9.27218
शा	-9.27453
देता	-9.28025
ति	-9.28109
कोव्हॅक्सिन	-9.28158
जसे	-9.28213
सरकारच्या	-9.2823
केलेल	-9.28278
लोकसंख्ये	-9.28309
ठ	-9.28351
त्याच	-9.28501
पातळीवर	-9.28519
पत्रकार	-9.28526
धुण्या	-9.28615
कि	-9.28773
पातळी	-9.28796
्यात	-9.28809
सोड	-9.28968
श्वास	-9.29147
वाहतूक	-9.29169
जण	-9.29459
पे	-9.29466
बोल	-9.29582
गृह	-9.2985
अवलंब	-9.30201
फ्लू	-9.30206
त्यासाठी	-9.30229
भारतीय	-9.30342
तिथे	-9.3035
मराठी	-9.30389
बंदी	-9.30529
बाधित	-9.30579
वरून	-9.30723
देण्याच	-9.30799
ण्याची	-9.31128
डिसेंबर	-9.31242
दिलं	-9.31253
दिल्या	-9.31431
प्रशासना	-9.31526
घेत	-9.31581
▁¦5	-9.31612
अमेरिके	-9.31621
मन	-9.3169
कोरोनाव्हायरस	-9.31765
मु	-9.31802
ंवर	-9.3186
असल्याची	-9.31887
तयारी	-9.31964
संक्रमण	-9.32268
महिन्या	-9.32287
लाटेत	-9.32643
विलगीकरण	-9.32734
▁¦11	-9.33171
00	-9.33174
सर्वाधि	-9.33256
बहुतांश	-9.33358
सौम्य	-9.33358
सल्ला	-9.33439
डि	-9.33463
युके	-9.33505
करावे	-9.33583
मुलांना	-9.33814
कल	-9.33868
नगर	-9.33883
दिव	-9.34282
रेल्वे	-9.34433
आरोप	-9.34434
उदाहरण	-9.34434
दार	-9.34493
जनते	-9.34642
ace	-9.3505
टन	-9.35093
८	-9.35114
मिळत	-9.35174
जून	-9.35261
डा	-9.35303
नागरिक	-9.35305
होऊन	-9.35306
पोलीस	-9.35521
करावं	-9.3553
विषय	-9.35604
पद्धती	-9.35779
लागत	-9.35802
▁¦6¦	-9.35806
बी	-9.35861
हॉस्पिटलमध्ये	-9.35879
विभागा	-9.35999
7	-9.36176
टा	-9.36287
▁¦5¦	-9.36299
0	-9.36384
वय	-9.36474
पी	-9.36501
सांगत	-9.36521
▁¦18	-9.3668
त्यांचे	-9.36938
एन	-9.3713
लोकांमध्ये	-9.37134
व्या	-9.3741
मुलां	-9.37471
कार	-9.37579
जातात	-9.37749
दररोज	-9.3775
विद्यार्थी	-9.37772
घेण्यासाठी	-9.37814
माझ्या	-9.37872
मध्य	-9.38352
६	-9.38479
उपस्थित	-9.38544
रित्या	-9.3856
t	-9.38579
सकाळी	-9.38855
संपर्कात	-9.38937
दिवसात	-9.39027
गा	-9.39207
सगळ्या	-9.39433
घ	-9.39684
स्त	-9.39808
अध्यक्ष	-9.3999
अद्याप	-9.39991
पवार	-9.40027
सांगण्या	-9.40212
नमुने	-9.40295
ानुसार	-9.4037
मानवी	-9.40534
देशांमध्ये	-9.40598
१९	-9.40639
ार्थ	-9.40657
दुकान	-9.40795
अनुभव	-9.4114
मान्यता	-9.41175
तज्ज्ञां	-9.41218
अहवाल	-9.41269
दुसरा	-9.41306
डॉक्टरां	-9.41366
यामध्ये	-9.41444
d	-9.4154
कर्मचाऱ्यां	-9.41601
मार्ग	-9.42027
इटली	-9.4204
परिणामकारक	-9.422
व्यवस्था	-9.42287
तिसऱ्या	-9.42303
माध्यमातून	-9.4231
सरकारला	-9.42393
योजना	-9.42429
साठा	-9.42443
▁).	-9.42779
साथ	-9.42823
प्रणाली	-9.43479
राजकीय	-9.4348
व्यक्तीं	-9.43575
रुपय	-9.43742
नका	-9.44122
▁¦200	-9.44159
गो	-9.44183
लशीचे	-9.44378
म्हणण	-9.44493
पुढील	-9.4467
बायोटेक	-9.4467
1¦	-9.44774
जणां	-9.45081
केंद्रा	-9.45128
बरोबर	-9.45223
प्रकरण	-9.45376
जाण	-9.45455
टास्क	-9.45876
सुमार	-9.45888
यंत्रणा	-9.46022
केल्यानंतर	-9.46062
जन्य	-9.46114
९	-9.46148
बैठक	-9.4616
आवश्यकता	-9.46263
मधल्या	-9.46272
यांची	-9.46344
होण	-9.46384
दाखव	-9.46492
नागरिकांना	-9.46941
उद्रेक	-9.47076
कडक	-9.47096
समस्या	-9.47096
साम	-9.47152
प्रभावित	-9.47176
रुग्णालय	-9.47421
जगात	-9.47482
वून	-9.47688
करायच	-9.47896
रुग्णांचा	-9.479
खा	-9.48201
मि	-9.48241
मिळाली	-9.48329
येते	-9.48411
घट	-9.48699
झा	-9.48948
पार	-9.49028
दाय	-9.49112
ंट	-9.49136
▁¦60	-9.49154
ल्यानंतर	-9.49218
फत	-9.4937
०	-9.49456
दक्षिण	-9.49578
लागली	-9.4958
रिपोर्ट	-9.49581
संरक्षण	-9.49586
gp	-9.49591
वापरा	-9.49599
आठवड्यात	-9.49674
म्	-9.49676
असणार	-9.49793
कशी	-9.5009
दु	-9.50112
मूळ	-9.50135
पूर्णपण	-9.50137
नागरिकां	-9.50189
वी	-9.50331
‍	-9.50844
विशिष्ट	-9.50857
अन्न	-9.50866
झाल्याचं	-9.51015
बल	-9.51031
महा	-9.5111
पूर	-9.51123
क्ष	-9.51151
ेस	-9.51302
बा	-9.51412
ांचे	-9.51497
कर्मचाऱ्यांना	-9.5188
साबण	-9.51933
निदान	-9.52114
सप्टेंबर	-9.52126
जिथे	-9.52129
फोन	-9.52131
आवाहन	-9.52143
लागणार	-9.52145
संसर्गजन्य	-9.52195
संनिरीक्षण	-9.52313
ज्यांना	-9.52347
सर्वां	-9.52724
परिस्थितीत	-9.52816
▁¦16	-9.53022
महाराष्ट्रा	-9.53246
र्स	-9.53309
हो	-9.53371
मुक्त	-9.53378
प्राणवायू	-9.53426
त्यांचा	-9.53541
दीप	-9.53551
होम	-9.53609
ट्र	-9.53814
नस	-9.53854
लावण्या	-9.5402
घेऊ	-9.54538
पड	-9.54624
निश्चित	-9.54655
f	-9.54716
सचिव	-9.5474
सॅनिटायझर	-9.54741
चिकित्सालय	-9.54741
मार्गदर्शक	-9.5475
शि	-9.55096
संप	-9.55161
त्याचे	-9.55234
सारखी	-9.55269
ै	-9.55649
देव	-9.55727
दशलक्ष	-9.56074
बऱ्याच	-9.56074
खरेदी	-9.56075
आढाव	-9.56079
▁%)	-9.56081
कमतरत	-9.56083
हि	-9.5616
िष्ट	-9.56357
▁¦100	-9.56402
देशभरात	-9.56482
हवा	-9.56583
न्स	-9.56639
गु	-9.56712
5	-9.56767
ठिकाण	-9.56856
स्व	-9.56864
सूच	-9.57079
गेला	-9.57192
इंडिया	-9.57215
फायझर	-9.57428
करणारे	-9.57445
करुन	-9.57472
रूग्ण	-9.57508
कुटुंब	-9.57687
आठवड्या	-9.57805
मानवा	-9.5794
मोहीम	-9.5816
देण	-9.58652
y	-9.58786
अगदी	-9.58795
त्र	-9.588
कृती	-9.58933
द्या	-9.58992
वाढली	-9.59002
वाटतं	-9.59063
ढ	-9.59278
देशांनी	-9.59676
ओळख	-9.59861
जागा	-9.60153
ऑक्सफर्ड	-9.60184
▁¦2021	-9.60184
सिरम	-9.60184
प्राप्त	-9.60185
साधारण	-9.60249
पहिला	-9.60322
सुरुवातीला	-9.60385
जि	-9.60389
पोहोच	-9.60512
यावेळी	-9.60654
रेट	-9.60686
,000	-9.60699
स्वतः	-9.60981
घरात	-9.6101
मागे	-9.61158
वाटत	-9.61254
व्यक्तीला	-9.613
विकास	-9.61315
रक्त	-9.61447
जिनोम	-9.61593
ज्ञात	-9.61593
संक्रमित	-9.61593
सीरम	-9.61593
वेगवेगळ्या	-9.61664
महत्वाच	-9.61723
आय	-9.62118
▁¦17	-9.62129
रुग्णा	-9.62225
िन	-9.62478
u	-9.62591
क्स	-9.62778
देऊ	-9.62818
धुण	-9.62855
व्हेरियंट	-9.62976
तोंड	-9.62983
अंमलबजावणी	-9.63021
ट्वीट	-9.63021
प्रादुर्भाव	-9.63021
म्युटेशन	-9.63022
नसलेल्या	-9.63071
सत	-9.63077
वाड	-9.6309
देण्यासाठी	-9.63141
विषयी	-9.63148
ज्यात	-9.63197
आरोग्यमंत्र	-9.6323
पि	-9.63385
दावा	-9.63403
दिवसांत	-9.63618
संबंध	-9.63694
ास	-9.6396
ब्	-9.64133
पेशी	-9.64285
पट	-9.64346
मेडिकल	-9.64471
अर्ज	-9.64478
फे	-9.64497
नसल्याचं	-9.64532
भाजप	-9.64541
पद्धतीने	-9.64706
rc	-9.64805
अमरावती	-9.64882
र्ड	-9.64922
नेते	-9.64936
घटना	-9.65292
आंतर	-9.6539
आलेल	-9.65479
ऑ	-9.65631
नल	-9.65634
क्षेत्र	-9.6564
ानंतर	-9.65661
▁्	-9.65674
रुग्णांमध्ये	-9.65695
दिन	-9.65728
लवकर	-9.65764
सात	-9.65877
रेमडेसिव्हिर	-9.65941
युनायटे	-9.65941
करायला	-9.65976
कसं	-9.6615
संबंधी	-9.66459
देण्या	-9.6648
ः	-9.66677
फोर्स	-9.67214
पाठव	-9.67217
वाढव	-9.67259
संचालक	-9.67426
महिन्यां	-9.67454
अडचणी	-9.6762
सर्	-9.67743
झाल्याने	-9.67902
झाल्याचे	-9.68003
येतो	-9.68071
संख्ये	-9.68123
मिळ	-9.68148
बाबतीत	-9.6817
दिवसा	-9.6832
पु	-9.68326
प्रसारा	-9.68742
वार	-9.68756
कठोर	-9.68949
कोणता	-9.68978
लागल्या	-9.68992
रोखण्यासाठी	-9.69006
▁¦31	-9.69011
होणं	-9.69307
कोड	-9.69573
जंतू	-9.696
ासह	-9.69742
सारखे	-9.69944
फडणवीस	-9.69949
रुग्णांवर	-9.70424
घेण्या	-9.7044
समाव	-9.70487
ऑनलाईन	-9.70487
उपयोग	-9.70491
आधीच	-9.70497
केअर	-9.70525
दिवसांपासून	-9.70548
उघड	-9.7067
व्हा	-9.70679
येतील	-9.70687
व्यक्तींना	-9.70748
बैठकीत	-9.70767
प्रशासनाने	-9.70786
बो	-9.70797
घड	-9.70802
काली	-9.71208
आर	-9.71221
व्ही	-9.71226
ेशन	-9.71319
प्रदा	-9.71462
शासकीय	-9.71523
▁¦19¦	-9.71578
याविषयी	-9.71647
शरीरा	-9.71723
सर	-9.71765
घेता	-9.71958
क्लिनिक	-9.72038
भूमिका	-9.7205
रेमडेसिविर	-9.7205
शै	-9.72095
संवाद	-9.72159
वेग	-9.72161
टीका	-9.72348
कार्यालय	-9.72493
जरी	-9.7259
पुण्या	-9.72605
मर्स	-9.72713
व्हायरसच्या	-9.72766
िया	-9.72812
al	-9.72823
मार	-9.72915
▁¦2019	-9.73093
वेळा	-9.73216
ठेवण	-9.7323
टाक	-9.73336
आलेला	-9.73495
माल	-9.73497
राहण्या	-9.73558
चिंता	-9.73637
म्हटले	-9.73637
कारवाई	-9.73639
चौकशी	-9.73651
वर्ग	-9.74012
मुल	-9.74094
ाधिक	-9.7428
ाचं	-9.74399
दुख	-9.74488
प्रवाशां	-9.74576
शहर	-9.74587
तुमच	-9.74654
मिळव	-9.7486
▁¦40	-9.75046
ग्रस्त	-9.7506
बर	-9.75085
प्रथम	-9.7525
विरुद्ध	-9.7525
अजित	-9.75282
संशयित	-9.75301
अधिकाऱ्यांन	-9.75318
जारी	-9.75331
कुठे	-9.75377
देणार	-9.75385
विभाग	-9.75476
नाक	-9.75575
ंत	-9.75709
एकाच	-9.75978
संकट	-9.76257
वे	-9.76553
कमीत	-9.76641
दिल्लीत	-9.76729
आण	-9.76738
चित्र	-9.76861
एकत्र	-9.76874
खोकला	-9.76889
icu	-9.76891
पाणी	-9.76918
6¦	-9.7693
घेतल्यानंतर	-9.76938
घटक	-9.76973
पाण्या	-9.7718
त्यावर	-9.77328
दहा	-9.77336
महाराष्ट्राला	-9.7734
घेतले	-9.77477
हर	-9.77693
रुग्णसंख्ये	-9.77799
प्रसिद्ध	-9.7781
मूळा	-9.77817
येण्या	-9.77853
ंद	-9.77926
भेट	-9.77958
उद्योग	-9.78219
रोज	-9.78358
अमेरिकेत	-9.78377
प्	-9.78478
मृत्यु	-9.78529
आकडा	-9.78556
पार्श्वभूमीवर	-9.78556
टक्क्यां	-9.7856
घ्यावी	-9.78571
▁¦28	-9.78584
दुसरीकड	-9.7868
नेमक	-9.78727
प्रा	-9.78765
▁¦22	-9.78774
उभ	-9.7879
अस	-9.7881
ीण	-9.78906
वाद	-9.79081
ावी	-9.79157
छाती	-9.79292
काल	-9.79723
सदस्य	-9.79734
राव	-9.79841
मार्चला	-9.80163
शन	-9.80202
धर	-9.80248
अतिशय	-9.80251
नियमावली	-9.80251
वारंवार	-9.80251
राहणार	-9.80253
स्ट्रेन	-9.80259
संघटने	-9.80268
पुढच्या	-9.803
असल्या	-9.80322
▁”	-9.80403
पहिली	-9.80493
▁¦23	-9.80619
कायम	-9.80705
अॅप	-9.81086
प्रशासन	-9.81214
जगा	-9.81239
मुख	-9.81375
विमान	-9.81429
निष्कर्ष	-9.81538
कसा	-9.81594
्र	-9.81625
संस्थे	-9.81796
स्थान	-9.81851
आग	-9.8192
शक्ती	-9.81971
rsc	-9.81975
धार्मिक	-9.81975
रविवार	-9.81975
वृद्ध	-9.81975
व्यवसाय	-9.81975
व्यावसायिक	-9.81975
लागला	-9.8198
उद्देश	-9.81981
बाजू	-9.81982
िमान	-9.8201
लागले	-9.82023
स्वच्छता	-9.82029
संसर्गाच	-9.82102
घेण्यास	-9.82131
महिला	-9.82561
गाय	-9.82898
आठवड्यां	-9.83224
पुर	-9.83235
सोबतच	-9.83462
एखाद	-9.83591
स्प	-9.83673
जैविक	-9.83725
पश्चिम	-9.83729
प्रोटोकॉल	-9.83729
mers	-9.83733
र्ट	-9.83736
सोनू	-9.83797
आठ	-9.83804
प्रकाशित	-9.83813
जर्मनी	-9.83848
मंत्रालयाने	-9.83917
मंत्रालया	-9.83974
लसीकरणासाठी	-9.83978
वाढवण्या	-9.84085
वाढू	-9.84169
थांब	-9.84195
अधिकाऱ्यां	-9.84236
खालील	-9.844
एकदा	-9.84442
▁...	-9.8452
अभ्यासा	-9.84598
्यु	-9.8482
▁¦25	-9.84889
खाली	-9.84928
अप	-9.85077
ौ	-9.85147
दिवसां	-9.85237
स्वच्छ	-9.85316
तु	-9.85387
महिन	-9.85443
व्हेंटिलेटर	-9.8547
केस	-9.85498
काँग्रेस	-9.85515
पुरवठ्या	-9.85515
महामारी	-9.85515
जाणवत	-9.85526
टाळ	-9.85545
मिळेल	-9.85547
पोस्ट	-9.856
संघटना	-9.85623
डॉक्टर्स	-9.85647
ापासून	-9.85695
त्यावेळी	-9.85756
मुलांमध्ये	-9.8596
ियन	-9.85981
येण	-9.86022
१०	-9.8606
कामगार	-9.86441
पडत	-9.867
विद्यार्थ्यांना	-9.86722
पुरेस	-9.86818
मानल	-9.87127
िल	-9.87172
पाळी	-9.87173
न्	-9.87228
हॉटेल	-9.87287
बातमी	-9.87334
rna	-9.87337
कुमार	-9.8734
बहु	-9.87366
गोळ	-9.87371
▁¦80	-9.87381
नसल्याने	-9.87509
▁,"	-9.87553
साबणा	-9.87608
वापरासाठी	-9.87772
कंपनीने	-9.87862
आत	-9.87869
याच	-9.87959
नमुन्यां	-9.87963
२०	-9.88017
g	-9.88127
ाय	-9.88192
मदती	-9.88245
लोकांची	-9.88403
नसल्या	-9.88957
महापालिके	-9.89011
असले	-9.89084
व्हॅक्सिन	-9.8917
हेल्थ	-9.89179
अपेक्षित	-9.89185
इशारा	-9.89185
शुक्रवार	-9.89185
निवडणूक	-9.89186
पडू	-9.8927
व्यवस्थापन	-9.89314
तल्या	-9.89406
प्राणी	-9.89558
राज्यांना	-9.89637
स्वत	-9.89905
पालक	-9.90141
मानव	-9.90209
राख	-9.90303
दी	-9.9034
तासां	-9.90358
याला	-9.90571
२४	-9.9061
ंचे	-9.90624
टि	-9.90971
आपत्	-9.9103
१५	-9.91048
आयसोलेशन	-9.91072
अडथळ	-9.91072
प्रारंभ	-9.91072
द्रव	-9.91073
खात्री	-9.91073
उलट	-9.91074
cdc	-9.9108
इथे	-9.91084
पेशीं	-9.91137
वळ	-9.91139
आल्यानंतर	-9.91285
इं	-9.91327
मृत्यूदर	-9.91337
सहभागी	-9.91352
प्रभाव	-9.91555
महाविद्यालय	-9.91561
घेतल्या	-9.91757
योग	-9.91791
पो	-9.92028
परि	-9.92402
वितरण	-9.92453
समज	-9.92476
उप	-9.92549
भो	-9.92569
जातील	-9.9268
ण्याच	-9.92751
उपक्रम	-9.92832
टँकर	-9.92958
वेगळे	-9.92982
ज्येष्ठ	-9.92995
असतं	-9.92997
सर्दी	-9.93002
कुठल्या	-9.93008
जाणाऱ्या	-9.93032
पुरव	-9.9304
मिळणार	-9.93148
असण्याची	-9.93188
एम	-9.93382
जबाबदारी	-9.93405
लागतील	-9.93412
थापि	-9.93443
चिन	-9.93574
बाब	-9.9381
स्थाप	-9.93938
्व	-9.93971
तिरिक्त	-9.93985
धोरण	-9.94138
▁¦13	-9.94146
ऊ	-9.94226
ग्र	-9.94259
बन	-9.94378
माझ	-9.94748
लेले	-9.9481
धोक्या	-9.94956
अधिकृत	-9.94972
▁¦21	-9.94978
बि	-9.95013
व्हायरल	-9.95015
नाशिक	-9.95058
मध्यम	-9.95058
सादर	-9.95131
करोनाबाधित	-9.95321
पोट	-9.95387
्यावर	-9.95394
मिनिट	-9.95803
कंपन्या	-9.95926
िश	-9.96028
तपास	-9.96051
वापरण्या	-9.96065
आयुक्त	-9.96314
सेवे	-9.96328
श्वसना	-9.96333
वगळ	-9.96347
भू	-9.96704
कु	-9.96749
cr	-9.96839
हर्ष	-9.96956
युनिव्हर्सिटी	-9.96956
यशस्वी	-9.96956
पाटील	-9.96956
प्रोटीन	-9.96961
मिळाल्या	-9.96985
जोड	-9.9699
त्यांचं	-9.96996
माज	-9.97007
लेख	-9.97079
भा	-9.97154
पाहता	-9.97183
आकडे	-9.972
चुकीच	-9.97278
यांच्याशी	-9.97362
कोणी	-9.97387
▁¦90	-9.97389
्ट	-9.97401
भार	-9.9741
टिक	-9.97449
हॅ	-9.97457
झाल्यास	-9.97486
जिम	-9.97549
नाहीये	-9.97679
वेगळ	-9.97856
शिक	-9.98013
लांब	-9.98047
कार्यालया	-9.98065
सुरुवाती	-9.98135
गोष्ट	-9.98185
मनात	-9.9825
रक्ता	-9.98349
फायद	-9.98371
ंजय	-9.9859
स्थळ	-9.98768
रुग्णालयां	-9.98791
अल्कोहोल	-9.98997
ऐवजी	-9.98997
सकारात्मक	-9.98997
मानसिक	-9.98997
महापालिका	-9.99001
फुफ्फुसां	-9.99009
मूल	-9.99016
क्षणिक	-9.99029
१८	-9.99079
कोणते	-9.991
सरकारनं	-9.99186
सामना	-9.99193
सरकारकडून	-9.99256
ीकरण	-9.99321
▁¦27	-9.99585
गटा	-9.99592
काळा	-9.99687
मधल	-9.99728
लागते	-10.0018
लोकल	-10.0019
अति	-10.0021
खास	-10.0022
रूग्णां	-10.0048
ावं	-10.0056
अधिकार	-10.0057
आलेले	-10.0069
पाठ	-10.0073
वेळे	-10.0079
निरीक्षण	-10.0106
फ्रान्स	-10.0108
phe	-10.0108
अनिवार्य	-10.0108
पीसीआर	-10.0108
इतकी	-10.0108
रशिया	-10.0108
बारावी	-10.0108
झपाट्यान	-10.0109
शनिवार	-10.0109
संयुक्त	-10.0109
मासिक	-10.0109
हु	-10.0125
नियंत्रणा	-10.0132
ंपैकी	-10.0133
आई	-10.0135
यूके	-10.0143
खुल	-10.0151
मार्चपर्यंत	-10.0151
यासंदर्भात	-10.0151
मर्यादा	-10.016
ाशी	-10.0164
रोगा	-10.0175
येतं	-10.0178
इन	-10.0188
भरती	-10.0212
देशां	-10.0222
धर्म	-10.0233
भाव	-10.0243
▁/	-10.0257
w	-10.0261
माध्यम	-10.0281
कंपन्यां	-10.0287
ब्रिटन	-10.0303
सोप	-10.0307
वाच	-10.0307
नियंत्र	-10.0312
गर्भ	-10.0321
इतक्या	-10.0321
बातम्या	-10.0321
सिक्वेंसिंग	-10.0321
निवड	-10.0321
घ्यायला	-10.0321
पुरावा	-10.0321
लागलं	-10.0321
कॉलेज	-10.0322
करण	-10.0325
संक्रमणा	-10.0326
अभाव	-10.0329
घेतलेल्या	-10.0334
मोहिमे	-10.0336
संख्येत	-10.0343
घेणं	-10.0343
रूग्णांमध्ये	-10.035
उपचारासाठी	-10.0353
विशेषत	-10.0354
उत्पन्न	-10.0355
ठेवण्यासाठी	-10.0358
य़ा	-10.0359
महिलां	-10.0368
दुकानं	-10.0372
मार्	-10.0388
ावे	-10.0402
त्	-10.0425
स्थितीत	-10.0433
जाण्या	-10.0435
यर	-10.044
वरुन	-10.0449
छ	-10.0478
कदाच	-10.0484
शिक्षणा	-10.0501
ार	-10.0511
याचे	-10.0515
ग्	-10.0519
टप्प्या	-10.0525
ृ	-10.0538
नेटवर्क	-10.0538
बंगाल	-10.0538
सर्वेक्षण	-10.0538
वाजेपर्यंत	-10.0538
व्यतिरिक्त	-10.0538
दहावी	-10.0539
उपाययोजना	-10.054
ठेवा	-10.054
मिळाला	-10.0542
हवी	-10.0544
अर	-10.0545
प्रच	-10.055
खरं	-10.0551
अँड	-10.0552
करित	-10.0552
बोर्डा	-10.0555
अॅ	-10.0564
नियमित	-10.057
ताण	-10.0571
प्रकल्प	-10.0587
गत	-10.0594
मिळालेल	-10.0601
समान	-10.0613
जग	-10.0648
रिक्त	-10.0654
गण	-10.0655
टो	-10.0659
राय	-10.0666
प्राण्यां	-10.0671
मॅ	-10.0672
आणण्या	-10.069
याच्या	-10.0694
pe	-10.0724
दम	-10.0727
ंसाठी	-10.0741
उत्पादक	-10.0742
क्षेत्रा	-10.0749
सोसायटी	-10.076
घराबाहेर	-10.0761
मूद	-10.0765
याबद्दल	-10.0766
असल्यामुळे	-10.0769
जेणे	-10.0779
केंद्रात	-10.0791
रुग्णालयांमध्ये	-10.0794
़्	-10.0831
यांचे	-10.0838
कॅ	-10.084
बाजार	-10.0843
निर्देश	-10.0848
धा	-10.0852
सू	-10.0854
असता	-10.0891
सम	-10.0896
95	-10.0914
कोरोनाबाधित	-10.0931
बळ	-10.0954
कक्ष	-10.0968
ट्रायल	-10.0983
निधी	-10.0987
ऑक्टोबर	-10.0988
खबरदारी	-10.0988
मधुमेह	-10.0988
विक्री	-10.0988
सहाय्य	-10.0988
लग्न	-10.0988
कोव्हॅक्सीन	-10.0989
पेपर	-10.099
क्रमांक	-10.0995
झोन	-10.1001
एकत्रित	-10.1006
टोच	-10.1008
काढण्या	-10.1013
जणांना	-10.1015
घेण्याच	-10.1024
सहकार्य	-10.1043
तसं	-10.1043
यश	-10.1044
सर्वांना	-10.1062
ांकडून	-10.1064
त्व	-10.1069
▁¦45	-10.1073
तपासण्या	-10.1088
णा	-10.109
नमुन	-10.1095
बैठकी	-10.1123
ष्ट	-10.115
मरण	-10.1151
अन	-10.1157
ांशी	-10.1159
म्हणाल	-10.1166
आयोज	-10.1182
संनिरीक्षणा	-10.1189
कारणी	-10.1193
तुलना	-10.122
ब्राझील	-10.122
निगेटिव्ह	-10.122
मंजुरी	-10.122
वैयक्तिक	-10.122
टाळेबंदी	-10.122
सक्षम	-10.122
जनरल	-10.122
घेणार	-10.1221
संकटा	-10.1222
प्रांत	-10.1229
असण	-10.1232
वर्धन	-10.1243
मिळवण्या	-10.1243
साधला	-10.1248
साधन	-10.1251
लसीकरणाच	-10.1256
तालुक्यात	-10.127
दिवसांचा	-10.1272
यापैकी	-10.1291
वटवाघळ	-10.1292
70¦	-10.1295
ल्ड	-10.1301
कठ	-10.1307
वाढत्या	-10.1311
विक	-10.1337
गट	-10.1357
मात	-10.1359
दि	-10.1373
वेल	-10.1422
पुरेश	-10.1436
शिक्षक	-10.145
गावात	-10.1452
जेवण	-10.1452
पॉल	-10.1455
ट्रेन	-10.1457
मॉडर्ना	-10.1458
अचानक	-10.1458
विनंती	-10.1458
घेणाऱ्या	-10.1458
न्यू	-10.1459
शिंक	-10.1459
ठाणे	-10.146
राहु	-10.1461
ेट्रिक	-10.1464
तरुण	-10.148
राज्यांमध्ये	-10.1488
संघटनेने	-10.1494
वाढल्या	-10.1497
आयुष्य	-10.1499
स्ट्र	-10.15
ॅक्ट	-10.15
गोष्टीं	-10.15
वेळेत	-10.1505
निकाल	-10.1507
जाव	-10.1512
in	-10.1521
▁¦29	-10.1524
प्राधान्य	-10.1527
जिल्ह्या	-10.1542
प्रवाशांना	-10.1546
अमेरिक	-10.1556
वस्तू	-10.1566
आव	-10.1573
गेलं	-10.1573
ठा	-10.1591
प्रक्रिये	-10.1604
रोख	-10.1641
देशांत	-10.1643
पास	-10.1658
वयोगटात	-10.1661
मुख्यमंत्र्यां	-10.1672
ाईन	-10.1676
नसत	-10.1681
उद्भव	-10.1693
फॉर	-10.1702
असोसिएशन	-10.1702
इफेक्ट	-10.1702
कोव्हिशिल्ड	-10.1702
सरासरी	-10.1702
नेहमी	-10.1702
न्यूमोनिया	-10.1702
हवेत	-10.1702
ऑफिस	-10.1704
प्रॅक्टिस	-10.1705
दिवसांपूर्वी	-10.1705
व्यापक	-10.1707
मेंट	-10.1709
कार्ड	-10.1719
था	-10.1723
जोशी	-10.1727
घ्यायच	-10.1727
ईन	-10.1738
मान्य	-10.1746
भास	-10.1746
नर्स	-10.1755
व्हि	-10.1757
रु	-10.176
भारतामध्ये	-10.1781
तातडीन	-10.1783
ांचं	-10.1794
मुले	-10.1813
त्यांच्यावर	-10.1826
लसीं	-10.1826
डिज	-10.1827
कं	-10.1841
मागच्या	-10.1856
as	-10.1859
किंमत	-10.1876
यांचं	-10.1887
विषाणूं	-10.189
डॉक्टरांना	-10.1893
पसरत	-10.19
ीकडे	-10.192
पाठवण्या	-10.1928
अँप	-10.1931
सभा	-10.1933
कोरिया	-10.1933
rt	-10.1937
साध	-10.1939
घालण्या	-10.1941
इंग्लंड	-10.1952
कोव्हिशील्ड	-10.1952
खाजगी	-10.1952
छोट्या	-10.1952
नोव्हेंबर	-10.1952
पुरावे	-10.1953
एकमेकां	-10.1953
देखरेख	-10.1954
▁¦26	-10.1954
कोणाला	-10.1967
विरोध	-10.1976
शाळेत	-10.1977
मुलांसाठी	-10.1983
स्तरावर	-10.1983
कण	-10.1985
नाथ	-10.1999
महत्त्व	-10.1999
कसे	-10.2007
क्षण	-10.201
होण्यास	-10.2046
साठव	-10.2046
राजकारण	-10.2049
मोठं	-10.206
शोधण्या	-10.2061
कोरोनावर	-10.2068
आपला	-10.2077
ct	-10.2093
प्रयोगशाळेत	-10.21
झोप	-10.2114
ण्यास	-10.2119
अखेर	-10.215
नॅश	-10.216
लक	-10.2166
यादी	-10.2172
कारणं	-10.2182
औषधं	-10.2187
योजने	-10.219
अँटीबॉडी	-10.2203
गुजरात	-10.2209
बुधवार	-10.2209
लगेच	-10.2209
संधी	-10.2209
हवं	-10.2209
प्रतिक्रिया	-10.2209
इराण	-10.221
कोविन	-10.221
बंधन	-10.2211
अंश	-10.2212
पसरतो	-10.222
दंड	-10.2221
३०	-10.2224
re	-10.2225
सुधार	-10.2228
धु	-10.2241
युरोप	-10.2252
नवी	-10.2259
नवे	-10.2262
प्रशिक्षण	-10.2269
वाढते	-10.2277
फि	-10.2284
घरीच	-10.2285
सूचनां	-10.2295
वापरले	-10.2303
प्रथिन	-10.2305
संख्य	-10.2321
पक्षी	-10.2321
पाहाय	-10.2333
ँ	-10.2334
हजारो	-10.2339
कशा	-10.2346
मांड	-10.2355
पडल्या	-10.2362
जोखमी	-10.2368
वाढला	-10.2372
बाजारात	-10.2374
अभ्यासात	-10.2377
उपकरण	-10.2378
साथरोग	-10.2378
ट्स	-10.2386
बाल	-10.241
िका	-10.2415
कोरोनाग्रस्त	-10.2424
घेण	-10.243
मिळू	-10.244
याचं	-10.2466
संख्येन	-10.2467
घोष	-10.247
कॅलिफोर्निया	-10.2472
साखळी	-10.2472
•	-10.2472
संबोध	-10.2472
रोगजनक	-10.2472
सिंड्रोम	-10.2472
लॅब	-10.2472
बँक	-10.2472
आटोक	-10.2473
नुकत	-10.2474
ाबद्दल	-10.2475
दिल्यानंतर	-10.2484
फरक	-10.2485
शहरा	-10.2485
निक	-10.2489
टाळा	-10.2493
मागो	-10.2499
सीमा	-10.2516
किट	-10.2529
उपचारा	-10.2535
श्री	-10.2536
लक्षणां	-10.2553
त्यानुसार	-10.2556
अमेरिका	-10.2563
तसे	-10.2569
यंत्रणे	-10.2604
फुफ्फुसा	-10.2605
हाताळ	-10.2606
तत्	-10.2641
वातावरण	-10.2646
िओ	-10.2649
बार	-10.2671
सातत्यान	-10.2684
जबाबदार	-10.2685
अहवाला	-10.2697
राहू	-10.2721
जाता	-10.2725
प्रकाश	-10.2729
कारक	-10.2738
व्यवस्थे	-10.2741
संचारबंदी	-10.2742
वसई	-10.2742
पालघर	-10.2743
प्रतिनिधी	-10.2743
देणाऱ्या	-10.2743
म्बो	-10.2744
पट्ट	-10.2746
लशीला	-10.2746
व्हेंटिलेटर्स	-10.2749
स्वीकार	-10.2749
बिघड	-10.2756
प्रचार	-10.2765
अर्थात	-10.2789
राम	-10.2808
यू	-10.2814
वयाच	-10.2818
धन	-10.2818
रूग्णांच्या	-10.2826
उपमुख्यमंत्र	-10.2858
सगळ्यां	-10.2861
दुसर	-10.2862
जय	-10.2863
कम	-10.2866
उपस्थिती	-10.2866
वाचव	-10.2872
िटी	-10.288
दिस	-10.2883
चेन	-10.289
छातीत	-10.2898
रूप	-10.2907
मध	-10.2914
ठरत	-10.2945
्ड	-10.2971
;	-10.2987
शासना	-10.301
प्रजाती	-10.3019
नैसर्गिक	-10.302
मूल्यांकन	-10.302
इतके	-10.302
नको	-10.302
बहुतेक	-10.302
अॅक्टिव्ह	-10.302
इतका	-10.302
प्रावस्था	-10.302
मुखवट	-10.302
राहील	-10.3021
आरटी	-10.3022
फार्मा	-10.3023
विजय	-10.3023
मृत्युदर	-10.3025
युनिट	-10.3048
इंडिय	-10.3064
ायक	-10.3066
माध्यमां	-10.3067
सायन	-10.3071
सार	-10.3073
वेगवेगळ	-10.3097
रूग्णालयात	-10.3109
ंचं	-10.3111
ायचं	-10.3143
आढळत	-10.3144
राहिल	-10.3166
िड	-10.3175
रंग	-10.322
शहरां	-10.3222
रण	-10.3248
बंधनकार	-10.3252
डाय	-10.3274
समिती	-10.3288
तुटवड्या	-10.3306
कँडीडेट	-10.3306
दैनं	-10.3306
स्वॅब	-10.3306
अश्या	-10.3306
तोड	-10.3306
जलद	-10.3308
पीपी	-10.3308
ंडवे	-10.3309
गाडी	-10.331
िटल	-10.3316
उपायां	-10.3322
उपचारांसाठी	-10.3328
कोण	-10.3343
ma	-10.3346
त्यापैकी	-10.3347
बरं	-10.3353
मार्गा	-10.3362
नवा	-10.3363
विभागात	-10.3375
संकल	-10.338
ेट	-10.3394
आयोगा	-10.3404
नातेवाईक	-10.3407
क्रम	-10.3469
पत्रक	-10.3491
बायो	-10.3499
मिळाले	-10.3518
प्राण	-10.3521
हाल	-10.3522
वृत्त	-10.3536
प्रि	-10.3549
प्रत्यक्ष	-10.3587
याशिवाय	-10.3591
सिद्ध	-10.3596
विल्	-10.3598
फटका	-10.3599
विस्तार	-10.36
दिवाळी	-10.36
गुरुवार	-10.36
तात्पुरत	-10.36
पूनावाला	-10.36
फोटो	-10.36
वैशिष्ट्य	-10.36
सक्रिय	-10.36
इतकं	-10.36
शारीर	-10.36
माहीत	-10.36
भाजी	-10.3603
स्टेट्स	-10.3604
पती	-10.3608
कायद्या	-10.361
हवे	-10.361
दृष्टीने	-10.361
मृत्यूंच	-10.361
ठेवून	-10.3611
िज	-10.3612
रोगप्रतिकारक	-10.3613
लक्षणीय	-10.3614
पोहोचल	-10.3614
पोलिसांन	-10.3616
आणण्यासाठी	-10.3619
तोंडा	-10.3628
शहरांमध्ये	-10.3631
लोकांचं	-10.3639
स्क	-10.3645
आशा	-10.3646
विभागाने	-10.3652
परिसरात	-10.366
पक्षा	-10.3666
णारे	-10.3669
मर	-10.3678
वर्षांवर	-10.3704
५०	-10.3705
ंदा	-10.3725
विकत	-10.3726
समूह	-10.3729
सन	-10.373
पाठवल	-10.3751
होताना	-10.3752
क्रिया	-10.3773
चेहऱ्या	-10.3788
ांमुळे	-10.3806
कोटीं	-10.3818
पद्धत	-10.382
तापमान	-10.3837
नियामक	-10.3839
क्षमते	-10.3854
वेत	-10.3858
जम	-10.386
जाण्याच	-10.3866
कृत	-10.3873
विषाणूरोध	-10.3882
युरोपिय	-10.3899
व्यायाम	-10.3899
प्रतिकारशक्ती	-10.3901
गोपनीयत	-10.3903
आघाडी	-10.3903
आणीबाणी	-10.3903
मोबाईल	-10.3903
रोजगार	-10.3903
न्युमोनिया	-10.3903
सिस्टम	-10.3903
कॅनडा	-10.3903
स्वतंत्र	-10.3903
मीटर	-10.3906
मार्गदर्शन	-10.3908
विश्वास	-10.391
ायिक	-10.391
करीत	-10.391
वाढले	-10.3913
पोशिंद्या	-10.3916
स्वरूप	-10.3916
नियमांचं	-10.3919
१३	-10.3923
लागतो	-10.3926
म्हणत	-10.3935
सूद	-10.3938
सांगा	-10.394
कोरडे	-10.3944
देऊन	-10.3947
कोरोनाविषाणू	-10.3951
द्यावी	-10.3968
झाल्यावर	-10.3969
वाढता	-10.3974
कार्यक्षमत	-10.3982
आल्यास	-10.3987
वती	-10.4014
डोक	-10.4039
निर	-10.4048
प्रदेशात	-10.4057
ायत	-10.4064
नावाच	-10.4065
रुग्णालयांना	-10.4067
विद्यापीठ	-10.4087
इतिहास	-10.4124
सर्वसामान्य	-10.4147
पणा	-10.4152
.5	-10.416
भागा	-10.417
अनु	-10.4171
वापरता	-10.4199
बोलत	-10.4205
ट्विट	-10.4207
गोंधळ	-10.4215
लूकस	-10.4215
प्रस्ताव	-10.4215
[	-10.4215
आपात्काल	-10.4215
मंगळवार	-10.4215
उल्लेख	-10.4215
विरार	-10.4216
कुणी	-10.4217
ओळखपत्र	-10.4217
एअर	-10.4218
उंट	-10.422
तंत्रज्ञान	-10.4222
आपत्ती	-10.4222
जिकल	-10.4222
घसा	-10.4223
आदी	-10.4223
गेल्यावर्षी	-10.423
मंत्र्यांनी	-10.423
दान	-10.4232
लावला	-10.4246
सरकारकडे	-10.4246
्काळ	-10.4253
आकार	-10.4255
43	-10.4268
पसरला	-10.4275
ल्याचं	-10.4281
उड्डाण	-10.4284
उपलब्धता	-10.4284
आरोग्यसेवा	-10.4288
लोकांसाठी	-10.4289
लशीमुळे	-10.4299
हानी	-10.4317
अल	-10.4319
यापूर्वी	-10.4319
चू	-10.4321
बनव	-10.4321
क्ल	-10.4343
मीडियावर	-10.4363
बाबी	-10.4368
्युट	-10.4368
ांपेक्षा	-10.441
यांच्यावर	-10.4426
पाय	-10.4432
४०	-10.4449
ालेय	-10.4451
टिंग	-10.4459
िस	-10.4459
संदर्भ	-10.4462
वर्गा	-10.4464
वैज्ञानिक	-10.4464
सुरूवात	-10.4466
कोरोनाग्रस्तां	-10.4469
अँ	-10.4471
दर्शव	-10.4473
क्यु	-10.4475
ाबाबत	-10.448
मोदींन	-10.4498
पावले	-10.4532
उद्दिष्ट	-10.4538
प्लॅटफॉर्म	-10.4538
मॉडेल	-10.4538
स्थलांतर	-10.4538
अंतिम	-10.4538
एजन्सी	-10.4538
प्लांट	-10.4538
राहणाऱ्या	-10.4538
लिहिलं	-10.4538
लॉकडॉऊन	-10.4538
वर्तमान	-10.4538
सगळं	-10.4538
सामग्री	-10.4538
केरळ	-10.4538
इथं	-10.4538
डायरिया	-10.4538
नक्की	-10.4538
अतिदक्षत	-10.4538
जपान	-10.4538
वर्णन	-10.4538
जनुकीय	-10.4538
▁]	-10.4538
विज्ञान	-10.4539
प्रतिजैविक	-10.454
निधन	-10.454
कोडिंग	-10.4541
ंमधील	-10.4542
सुपर	-10.4544
▁–	-10.4546
डोसेस	-10.4547
मुख्यमंत्र्यांनी	-10.4548
ठी	-10.4552
अग्र	-10.4552
िस्ट	-10.4558
द्याव	-10.456
स्वच्छते	-10.4565
प्पी	-10.4572
तक्रारी	-10.4577
रुग्णवाढ	-10.4577
सारखा	-10.4592
es	-10.4597
२५	-10.46
रूग्णा	-10.4616
win	-10.4627
निर्	-10.4648
ऑक्सिजनच्या	-10.4673
नमुन्या	-10.4677
र्म	-10.4695
कुटुंबा	-10.4699
नागरिकांन	-10.4714
ठेवाव	-10.4716
डो	-10.4718
वाहतुकी	-10.4718
रक्तात	-10.4724
पाहिजेत	-10.4729
दिसण्या	-10.4735
औषधाच	-10.474
ँड	-10.4753
ed	-10.4774
पाळत	-10.4789
आगी	-10.4811
स्थगित	-10.4813
१६	-10.4819
ॅक्स	-10.483
संसर्गित	-10.4832
डोळ	-10.487
पोशिंद	-10.487
आरएनए	-10.4871
ऑगस्ट	-10.4871
औरंगाबाद	-10.4871
नुकसान	-10.4871
प्रोत्साह	-10.4871
रेस्पिरेटर	-10.4871
हैदराबाद	-10.4871
विश्वविद्यालय	-10.4871
अचूक	-10.4871
दबाव	-10.4871
मिळालं	-10.4871
ठोस	-10.4871
संकेत	-10.4871
शुद्ध	-10.4871
आश्रय	-10.4871
अडक	-10.4871
चांगला	-10.4872
पैसे	-10.4872
साहित्य	-10.4872
उपाययोजनां	-10.4873
अटक	-10.4873
किराण	-10.4875
शंका	-10.4876
प्रॅक्टिसेस	-10.4878
▁¦70	-10.4886
शब्द	-10.4892
त्वचे	-10.4903
त्वचा	-10.4917
करार	-10.4921
घटकां	-10.4924
णारी	-10.4935
शेती	-10.4941
अखेरी	-10.4948
थे	-10.4951
दुखत	-10.4959
विश्लेषण	-10.4964
युद्ध	-10.4967
शकणार	-10.497
श्र	-10.4971
यानंतर	-10.4974
प्रमाणेच	-10.4995
दे	-10.4996
्च	-10.5003
ांपैकी	-10.501
रत	-10.5013
सावं	-10.5046
रूग्णांना	-10.5049
खे	-10.5058
सिन	-10.5064
उचल	-10.5094
फिर	-10.5096
ये	-10.5097
पडल	-10.5101
वापरल्या	-10.5106
्लिक	-10.5114
बाळा	-10.5117
तासांत	-10.5119
अव	-10.5122
ेअर	-10.5136
न्य	-10.5144
आठवड	-10.5151
20	-10.5155
डॉक्टरांन	-10.5156
नोंदवल	-10.5172
विकार	-10.5177
याकडे	-10.5186
ओळखण्या	-10.5192
पल्	-10.5201
गल	-10.5209
आफ्रिक	-10.5211
पालिके	-10.5215
पालिका	-10.5216
स्पुटनिक	-10.5216
#	-10.5216
आंदोलन	-10.5216
ट्रम्प	-10.5216
ट्रेसिंग	-10.5216
वॉर्ड	-10.5216
व्यवहार	-10.5216
अॅस्ट्राझेनका	-10.5216
विद्यमान	-10.5216
अमित	-10.5216
कचरा	-10.5216
दवाखान्यात	-10.5217
ल्यास	-10.5217
रोगप्रतिकारशक्ती	-10.5219
राजस्थान	-10.522
हित	-10.5222
खंड	-10.5225
चंद्र	-10.5226
तब्येत	-10.5233
.7	-10.5242
मनो	-10.5245
बाकी	-10.5246
गेलेल्या	-10.525
मालक	-10.5252
gi	-10.5258
झाल्यामुळे	-10.5262
पक्ष	-10.5263
कालावधीत	-10.5269
क्षमतेने	-10.5271
सद्यस्थिती	-10.5272
आयात	-10.5274
विकासा	-10.5284
प्रतिबंधक	-10.5306
टप्पा	-10.5307
इन्	-10.5313
विनाश	-10.5325
दिलासा	-10.5328
द्यावे	-10.5329
िव्ह	-10.5329
बसला	-10.534
राहाव	-10.5347
असण्या	-10.5352
er	-10.5357
सर्वच	-10.5368
संस्थां	-10.5377
टर	-10.5402
पद्धतीं	-10.5404
ाईक	-10.5406
हाय	-10.5414
यांसारख	-10.5423
वान	-10.5424
फुफ्फुस	-10.5439
प्राण्या	-10.5441
ोम	-10.5444
मिळते	-10.5453
थोड	-10.546
तातडी	-10.5464
प्रयोगशाळा	-10.5469
११	-10.5469
नियोज	-10.5472
लक्ष्य	-10.5478
विन	-10.5495
कॉल	-10.5499
ीज	-10.5507
नियमां	-10.5514
१४	-10.5515
वाहन	-10.5518
मृत	-10.5519
वाज	-10.5529
गे	-10.553
संस्थेने	-10.5535
पाठवले	-10.5546
भाष	-10.5557
सूक्ष्म	-10.5572
च्छ	-10.5572
तंत्र	-10.5572
आमदार	-10.5573
ऑनलाइन	-10.5573
जुलै	-10.5573
दुपारी	-10.5573
शिथिल	-10.5573
पेशंट	-10.5573
वक्तव्य	-10.5573
मार्केट	-10.5573
डिस्टन्सिंग	-10.5574
अतिसार	-10.5574
स्टेट	-10.5575
पहिल्यांदा	-10.5576
स्थिर	-10.5576
dc	-10.5576
eu	-10.5576
बांधकाम	-10.5578
संसाधन	-10.5581
अध	-10.5592
वाढलं	-10.5595
उद्या	-10.5598
आपल्याकडे	-10.5599
समाज	-10.5602
रस्त्यावर	-10.5611
लिंग	-10.5613
लोकसंख्या	-10.562
पळ	-10.5621
आल्याचं	-10.5626
▁.'	-10.5631
सरकारचा	-10.5641
नोंदवले	-10.5644
ांपर्यंत	-10.5672
वर्षभरात	-10.5684
आल्याने	-10.5691
यावी	-10.5692
हृदय	-10.5696
मना	-10.5701
बालकां	-10.5702
पॅ	-10.5723
अपेक्षा	-10.5725
शास्त्र	-10.5731
तसा	-10.5736
पद	-10.5741
ांपासून	-10.5744
संयोज	-10.5745
राखण	-10.5755
रड	-10.5756
मीडिया	-10.5771
यातील	-10.5782
ऑस्ट्रेलिया	-10.5782
वापरण्यात	-10.5788
मुद	-10.5789
वर्षांच्या	-10.5805
पू	-10.5807
समुदाया	-10.5812
तज्ञ	-10.5816
पालकां	-10.5831
त्मक	-10.584
रब	-10.5845
आख	-10.5846
क्शन	-10.585
मराठ	-10.5876
अनि	-10.5881
त्याचं	-10.5902
्यू	-10.5903
”	-10.591
गैर	-10.5924
कॉन्ट	-10.5929
परदेश	-10.593
केंद्रावर	-10.5931
अनलॉक	-10.5943
उत्परिवर्तन	-10.5943
निवडणुकी	-10.5943
महापौर	-10.5943
म्युकरमायकोसिस	-10.5943
राजधानी	-10.5943
स्टोअर	-10.5943
इच्छा	-10.5943
वरिष्ठ	-10.5943
माझा	-10.5943
मुंडे	-10.5943
टक्केवारी	-10.5944
चांगली	-10.5944
तणाव	-10.5944
घातक	-10.5944
हायड्र	-10.5944
कोर्टा	-10.5944
icmr	-10.5944
रक्तदाब	-10.5944
उपचारां	-10.5944
नकारात्मक	-10.5944
थांबवण्या	-10.5945
कर्ज	-10.5945
कोल्ड	-10.5946
दुर्लक्ष	-10.5946
अद्यतन	-10.5946
नोंदवण्या	-10.5947
बीटा	-10.5947
गुण	-10.5947
लढण्यासाठी	-10.5949
घेतलं	-10.5954
दीड	-10.5954
पाहिलं	-10.596
ब्यात	-10.5963
फंड	-10.5971
तापमाना	-10.5973
आळ	-10.5991
''	-10.5998
टाळण	-10.6015
व्हायच	-10.6023
तब्	-10.6026
धुवा	-10.6026
तुमचा	-10.6038
चालव	-10.6043
गतीन	-10.6056
मुला	-10.6058
मुलांची	-10.6063
प्रयोगशाळां	-10.6064
सेवेत	-10.6067
लाटेचा	-10.607
सिटी	-10.6077
न्याय	-10.608
मंत	-10.608
ॅक	-10.6101
वास	-10.6102
पसर	-10.6107
कट	-10.6111
फेस	-10.6113
जमा	-10.6113
बाय	-10.6114
▁".	-10.6116
कुंभमेळ्यात	-10.6135
वाढती	-10.6136
संघा	-10.6151
पालकमंत्र	-10.6165
पदार्थ	-10.6174
चाचणीसाठी	-10.6177
हायला	-10.618
ठेवता	-10.6187
सारखं	-10.6193
न्ट	-10.6197
णारा	-10.6204
कोव्ह	-10.6207
अमरावतीत	-10.6218
एवढ	-10.6225
िम	-10.6235
येण्याच	-10.6238
संशोधना	-10.6244
78	-10.6245
एन्	-10.6248
खाटा	-10.6254
समुदाय	-10.6255
परिषद	-10.6265
ांमधील	-10.6276
शाळे	-10.6292
सहभाग	-10.6303
सुरक्षे	-10.631
रोगप्रतिकार	-10.6313
शेख	-10.6318
राष्ट्र	-10.6324
स्पेन	-10.6324
वास्तव	-10.6325
फ्रंटला	-10.6328
कृष्ण	-10.6328
उल्लंघन	-10.6328
घालणे	-10.6328
दुप्पट	-10.6328
पुनावाला	-10.6328
पॅनगोलिन्स	-10.6328
मजूर	-10.6328
सिलेंडर	-10.6328
हुबेई	-10.6328
सिलिंडर	-10.6328
अनावश्यक	-10.6328
चांगलं	-10.6328
चांगल्या	-10.6328
चांगले	-10.6328
मलिक	-10.6328
भूषण	-10.6328
दोघां	-10.6328
नव्हे	-10.6329
आनंद	-10.633
फूट	-10.633
सगळे	-10.6331
कुठली	-10.6331
सांगू	-10.6333
धाव	-10.6334
माणसां	-10.6334
मागितल	-10.6335
टेस्टिंग	-10.6338
कच्च	-10.6339
ाखाली	-10.6341
प्रश्नांची	-10.6342
संशोधकांन	-10.6342
परवान	-10.6343
गी	-10.6344
तिथं	-10.6347
यंदा	-10.6349
हॉस्पिटल्स	-10.635
तीव्रता	-10.6357
जुना	-10.6361
देण्यास	-10.6365
नऊ	-10.6369
प्रवाश	-10.637
सोयी	-10.6375
६०	-10.6382
बघ	-10.6385
विना	-10.6391
कार्यक्रमा	-10.6407
इतरांना	-10.641
कुटुंबात	-10.6413
विलगीकरणात	-10.6417
सुचव	-10.642
आयोजन	-10.6423
जाणं	-10.6424
जास्ती	-10.6441
गॅ	-10.6444
नागरिकांच	-10.6449
टीम	-10.6452
पडता	-10.6463
स्थ	-10.6471
लशींच	-10.6474
भविष्यात	-10.6475
फेक	-10.6486
स्वतःच	-10.6504
लशीसाठी	-10.6504
घडी	-10.6509
बांध	-10.6535
बाळग	-10.6542
सेट	-10.6556
मंडळा	-10.6566
ऐ	-10.6574
37¦	-10.6581
टाळण्यासाठी	-10.6591
ra	-10.6594
बरा	-10.6595
पहिल	-10.6618
व्हाव	-10.662
रोखण्या	-10.6633
पडले	-10.6645
विधान	-10.6665
चुक	-10.6673
डॅ	-10.6684
tra	-10.6688
एक्स	-10.669
२००	-10.6697
सुधारण	-10.6701
भाजपा	-10.6709
दुर्	-10.671
पक	-10.671
प्रतिकार	-10.6712
संशय	-10.6716
ल्याने	-10.6717
ड्र	-10.6717
बोट	-10.6719
ंकर	-10.6723
चिकित्सा	-10.6728
कित्येक	-10.6728
क्लोरोक्वीन	-10.6728
गांधी	-10.6728
दृष्टीकोन	-10.6728
दृष्ट्या	-10.6728
प्राध्याप	-10.6728
महिले	-10.6728
शुल्क	-10.6728
संवेदनशील	-10.6728
समारंभ	-10.6728
सिंगापूर	-10.6728
सविस्तर	-10.6728
अब्ज	-10.6728
जेसिका	-10.6728
फैलाव	-10.6728
व्याधी	-10.6728
निदर्शना	-10.6728
शांक	-10.6728
कळवि	-10.6729
दूरस्थ	-10.6729
२०२०	-10.6729
अर्थव्यवस्थे	-10.673
शोक	-10.673
सिंह	-10.673
जिल्ह्यांमध्ये	-10.6732
आफ्रिकेत	-10.6734
us	-10.6736
ट्रायल्स	-10.6736
अँटीबॉडीज	-10.6737
सर्वसाधारण	-10.6748
मानवां	-10.675
वाजता	-10.6752
पाहून	-10.6753
मुद्दा	-10.6754
घटने	-10.676
वाढवण्यासाठी	-10.6761
ठाकरेंन	-10.6763
सोमवारी	-10.6767
एच	-10.6772
बंध	-10.6772
थकव	-10.6773
▁¦2.	-10.6776
मंजूरी	-10.6777
बनवण्या	-10.6778
अल्प	-10.6788
उभार	-10.6807
परदेशात	-10.6807
at	-10.6817
आलीय	-10.6819
ूर	-10.6824
कल्पना	-10.6828
ड्राय	-10.6839
येऊन	-10.6845
▁¦33	-10.685
सर्वोच	-10.6854
सुरक्षितत	-10.6861
ाहून	-10.6865
दू	-10.6884
▁¦0.	-10.6886
धार	-10.6888
प्रौढ	-10.6894
बोलाव	-10.6899
चर	-10.6912
आजाराचे	-10.6913
करतं	-10.6927
मंत्र्यां	-10.6931
दिसतं	-10.6934
आजारां	-10.6951
मंत्रालय	-10.6953
जायच	-10.6954
▁¦500	-10.6958
नकार	-10.699
ल्प	-10.701
ब्ल	-10.7028
प्रतिसादा	-10.7031
वर्षात	-10.7033
अभि	-10.7076
महानगरपालिक	-10.7081
परिषदे	-10.7084
४३	-10.709
ठेवत	-10.7091
स्टे	-10.7094
ज्याचा	-10.7098
फॅ	-10.7101
पक्षनेत	-10.711
गावा	-10.7129
दिसू	-10.713
चक्र	-10.7131
जोर	-10.7136
मायक्रो	-10.7145
परीक्षे	-10.7145
आपापल	-10.7145
कर्फ्यू	-10.7145
जिवंत	-10.7145
रिसर्च	-10.7145
विस्तृत	-10.7145
व्हीडिओ	-10.7145
सीडीसी	-10.7145
ब्रेक	-10.7145
डिस्टंसिंग	-10.7145
कागदपत्र	-10.7146
पीएम	-10.7147
नाईट	-10.7147
स्त्राव	-10.715
कंट्रोलर	-10.7151
शकणाऱ्या	-10.7155
न्यायालय	-10.7156
कर्मचाऱ्यांनी	-10.7158
प्रतिमा	-10.7165
अर्धा	-10.7165
ट्ट	-10.7165
राज्यांत	-10.7182
तिसरी	-10.7183
शहरी	-10.7186
पाहिले	-10.719
नवाब	-10.7197
उतर	-10.72
न्यु	-10.7202
लावण	-10.7221
वापरण	-10.7238
निघ	-10.725
लागतं	-10.7252
बळी	-10.7253
तिला	-10.727
शास्त्रज्ञ	-10.7273
फायदे	-10.7273
ांबाबत	-10.7283
▁¦48	-10.7284
लागण्याच	-10.7298
प्रतिपिंड	-10.7299
92	-10.7302
शासन	-10.7309
आलेख	-10.7315
ेड	-10.7322
जिल्हाधिका	-10.7332
रू	-10.7359
आढळल्या	-10.7361
पोहच	-10.7372
लोकांवर	-10.7387
स्वरुपाच	-10.7388
समूहा	-10.739
इम	-10.7401
पोलिसां	-10.743
आं	-10.7436
नसल	-10.7438
स्थापन	-10.7442
भावना	-10.7444
पाला	-10.7486
स्वरूपाच	-10.749
ड्रग	-10.7497
75	-10.7504
लढ	-10.7504
थंड	-10.7521
करोनाबाधितांच	-10.7532
बाबा	-10.7533
इंटर	-10.7548
आयसीयू	-10.7553
रूग्णांच	-10.7558
लाखो	-10.7569
विलग	-10.7579
पाड	-10.7579
धक्का	-10.7579
पाकिस्तान	-10.7579
ऍ	-10.7579
केजरीवाल	-10.7579
कोल्हापूर	-10.7579
जनजागृती	-10.7579
जॉन्सन	-10.7579
तारीख	-10.7579
वंचित	-10.7579
शेकडो	-10.7579
संध्याकाळ	-10.7579
समन्वय	-10.7579
सिस्टिम	-10.7579
हॉटस्पॉट	-10.7579
आवृत्ती	-10.758
आम्ल	-10.758
घालून	-10.758
द्यायला	-10.758
निर्जंतुकीकरण	-10.758
अंमल	-10.758
विभागाच	-10.758
स्कूल	-10.758
दोष	-10.758
चंद्रपूर	-10.758
मध्यस्थ	-10.758
रामदेव	-10.7581
मतदान	-10.7581
राज्यभरात	-10.7581
काढले	-10.7582
भ्र	-10.7582
रविंद	-10.7583
अँटी	-10.7584
किलो	-10.7585
जल	-10.7586
सळ	-10.7586
ण्याच्या	-10.7588
पोहोचवण्या	-10.7589
कुठला	-10.7596
विद्यापीठा	-10.7606
द्यायच	-10.7611
जाण्यासाठी	-10.7612
नसल्यास	-10.7616
रेख	-10.7632
अथ	-10.7639
जावे	-10.7647
१२	-10.7652
जास्तीत	-10.766
वेगळा	-10.7664
अंग	-10.7666
निवास	-10.7677
वाढतो	-10.7679
इटलीमध्ये	-10.768
रुग्णालयं	-10.7681
कांत	-10.7686
93	-10.7714
परिषदेत	-10.7716
सापडल	-10.7719
जित	-10.7726
साठ	-10.7728
खर	-10.7736
र्ण	-10.7737
पथक	-10.774
ज्	-10.7744
पृष्ठभाग	-10.7744
प्रकरणा	-10.7763
सरकारवर	-10.7789
्ज	-10.7797
ांनुसार	-10.7816
टप्प्यां	-10.7829
se	-10.784
धुण्याच	-10.7843
तिथ	-10.7847
वाढण्या	-10.7848
नाका	-10.7851
तज्ज्ञांन	-10.786
बू	-10.7865
ch	-10.7866
शिल्	-10.7886
हस्तक्षेप	-10.7914
अशाच	-10.7919
300	-10.7953
da	-10.7955
लिह	-10.7956
रुपयांच	-10.796
युरोपात	-10.7963
२१	-10.7964
राहून	-10.7965
कोरड	-10.7974
खोल	-10.7979
स्थित	-10.799
बिल	-10.7995
ँग	-10.8024
२२	-10.8026
म्हणता	-10.8031
ज्ञान	-10.8031
ंसह	-10.8034
अल्कोहल	-10.8034
पर्यटन	-10.8034
युनेस्को	-10.8034
दूषित	-10.8034
पिंपरी	-10.8034
हाँगकाँग	-10.8034
२२९ई	-10.8034
औ	-10.8034
राऊत	-10.8034
मोकळ	-10.8034
दर्जा	-10.8034
कल्याण	-10.8034
राष्ट्राध्यक्ष	-10.8034
सर्व्हे	-10.8034
आशिया	-10.8034
सामोर	-10.8035
अवघड	-10.8035
ायटीस	-10.8035
बिहार	-10.8035
भि	-10.8035
rtpc	-10.8035
देखभाल	-10.8035
नर्सेस	-10.8036
श्वसनमार्गा	-10.8037
बचाव	-10.8037
अनुसर	-10.8037
निर्यात	-10.8038
स्पष्टीकरण	-10.8038
वाईट	-10.8038
घसर	-10.8039
अर्थव्यवस्था	-10.8039
अॅडव्ह	-10.804
प्रभावीपणा	-10.804
ii	-10.8042
कामगारां	-10.8045
विर	-10.8049
र्जी	-10.805
संरक्षक	-10.8051
टक्क्यांपर्यंत	-10.8051
बराच	-10.8058
खोलीत	-10.806
वेगळ्या	-10.8066
प्रवासावर	-10.807
महापालिकेने	-10.8079
शस्त्रक्रिय	-10.8089
पाहणी	-10.8095
उड	-10.8097
शेतक	-10.8104
वादा	-10.8105
वर्क	-10.8109
कार्यालयं	-10.8116
िय	-10.8121
मात्रा	-10.8125
ीकृत	-10.8127
ro	-10.8127
थील	-10.813
कामावर	-10.8133
स्वरुपात	-10.8142
ुरेश	-10.8151
झाक	-10.816
वितरणा	-10.8167
वाल	-10.8182
रेड	-10.8203
पत्रात	-10.8223
पक्षां	-10.8226
दुखण्या	-10.8227
ti	-10.824
गुत	-10.8244
चायन	-10.8257
सुट	-10.8274
अपुर	-10.8292
स्को	-10.8306
एसी	-10.8327
चि	-10.8332
प्रकारचा	-10.8352
64	-10.839
न्न	-10.8394
तू	-10.8399
दास	-10.8405
राहा	-10.8421
रेन	-10.8427
त्ता	-10.8432
मंजूर	-10.8452
तक्रार	-10.8452
सोय	-10.8453
भागांत	-10.8462
गटात	-10.8471
कांनी	-10.8481
कुणा	-10.8482
दिवसभरा	-10.849
संरक्ष	-10.849
राखण्या	-10.8492
पुढच	-10.8497
कंट्रोल	-10.8502
k	-10.8508
निर्जंतुक	-10.851
चिंचवड	-10.851
$	-10.851
जिल्ह्य़ात	-10.851
डब्लूएचओ	-10.851
दूतावास	-10.851
वॉक	-10.851
सुरळीत	-10.851
सुट्टी	-10.851
पावलं	-10.851
मेसेज	-10.851
स्रोत	-10.851
▁¦2019-20	-10.851
स्वयं	-10.851
आरंभ	-10.851
मृतदेह	-10.851
विभाज	-10.851
घातली	-10.851
बॅट	-10.851
राष्ट्रवादी	-10.851
इंटरनेट	-10.8511
सलग	-10.8511
दौर	-10.8511
लंडन	-10.8511
वर्कर्स	-10.8511
हॅण्ड	-10.8511
युक्त	-10.8513
अंगावर	-10.8513
ब्रिट	-10.8515
सांगायच	-10.8518
अर्ध्या	-10.8519
शिक्ष	-10.8522
हेच	-10.8528
४५	-10.8534
घालण्यासाठी	-10.8535
शासनाने	-10.8542
त्तर	-10.8546
अलीकडे	-10.8547
औषधांचा	-10.8547
कुटुंबीयां	-10.8552
ग्राहक	-10.8554
अटी	-10.8555
गामी	-10.8558
माणसं	-10.8559
दुखणे	-10.8568
देतो	-10.857
पाळ	-10.8571
सिंग	-10.8578
लसीकरणाला	-10.8582
थोडी	-10.8589
खाल	-10.8602
ेकर	-10.8607
खाटांच	-10.861
भय	-10.8633
बदलत	-10.8642
सपोर्ट	-10.8649
सीई	-10.8681
फेटाळ	-10.8682
वातावरणात	-10.8683
आदेशा	-10.8722
धड	-10.8729
पाया	-10.8741
मिल	-10.8744
पडण्या	-10.8765
ठरवल	-10.8765
पुरवठादार	-10.8775
संदेश	-10.8781
)	-10.8791
प्ले	-10.8814
ig	-10.8823
िअर	-10.8825
स्टिक	-10.8835
युकेत	-10.884
रन	-10.884
शांत	-10.884
१००	-10.8842
अधिकाऱ्या	-10.8844
परतले	-10.8847
प्रयोग	-10.8851
िकल	-10.8866
कचऱ्याच	-10.8873
अग्नि	-10.8875
्यांवर	-10.8877
ोलॉजी	-10.8881
बाळ	-10.889
भासत	-10.8891
दुर्ग	-10.8906
लढाई	-10.8909
िरो	-10.8929
तम	-10.8954
जिल्ह्य	-10.8955
पाहत	-10.8955
लढा	-10.8956
गाठ	-10.8978
ओळखले	-10.898
क्टर	-10.8994
रेड्डी	-10.9003
माणसा	-10.9006
डॉलर	-10.9006
रिटी	-10.9009
खाद्य	-10.901
ऋ	-10.901
सुश्रुष	-10.901
सोलापूर	-10.901
http	-10.901
अस्तित्व	-10.901
कृषी	-10.901
चिंताजनक	-10.901
दृष्टिकोन	-10.901
सहकाऱ्यां	-10.901
अजिबात	-10.901
z	-10.901
निष्क्रिय	-10.901
जंतु	-10.901
प्ताह	-10.901
विवेक	-10.901
मोहन	-10.901
पांडे	-10.901
अनुकूल	-10.9011
मांजर	-10.9011
गुन्ह	-10.9011
बरीच	-10.9011
उपयुक्त	-10.9011
आवरण	-10.9011
कागद	-10.9011
स्कॅन	-10.9011
ट्रॅकिंग	-10.9011
घरोघर	-10.9012
मांस	-10.9012
अपवाद	-10.9012
नशील	-10.9013
स्वस्त	-10.9014
कुठले	-10.9014
हँड	-10.9015
अपयश	-10.9015
स्टेशन	-10.9015
रोगनिदान	-10.9018
श्व	-10.9019
अँप्स	-10.9019
नोंदी	-10.902
समर्थन	-10.9023
संस्थांनी	-10.9025
साडे	-10.9027
अनाथ	-10.9028
कोळ	-10.9032
त्याचबरोबर	-10.9036
बायड	-10.904
झेन	-10.9041
२८	-10.9042
गुंतागुंती	-10.9044
व्यापारी	-10.9057
लवकरात	-10.9057
६३	-10.9064
नातेवाईकांना	-10.9065
रिकाम	-10.9066
प्रवक्त	-10.9068
व्हिड	-10.9069
फळ	-10.9073
पृष्ठभागावर	-10.9079
ठरणार	-10.9096
विधानसभ	-10.9096
वयोगटा	-10.9098
लाखां	-10.91
वृत्तसंस्थे	-10.9118
निका	-10.9118
माती	-10.9128
पुरवण्या	-10.9152
कलम	-10.9153
me	-10.9153
घातल्या	-10.9153
ांसह	-10.916
नातेवाईकां	-10.9161
दर्शवल	-10.9179
बाधितांच	-10.9191
▁.)	-10.9196
शिर	-10.9226
नाशक	-10.9229
पडला	-10.9234
नेपाळ	-10.9238
कर्त्या	-10.9248
मांडल	-10.9248
साईड	-10.9251
खेळ	-10.9272
कोरोनाग्रस्तांच	-10.9277
साधू	-10.9281
कारी	-10.9282
तिच्या	-10.9292
टप्प	-10.93
साजर	-10.9312
जें	-10.9323
90	-10.9338
पोहोचला	-10.9344
गेट	-10.9348
एल	-10.9352
हृदया	-10.9357
फिरत	-10.936
दिसल	-10.9362
सहकार	-10.9367
ियो	-10.938
कुल	-10.9383
पाळण	-10.9391
ड्रायर	-10.9392
वस्तूं	-10.9392
▁़	-10.9397
शास	-10.9414
जिल्ह्यत	-10.9425
गाड्यां	-10.9443
tc	-10.9451
अध्ययना	-10.9469
शस्त्र	-10.9475
साऊ	-10.9476
डिसी	-10.9476
अद्य	-10.9477
माहित	-10.9479
दीर्घ	-10.949
बोर्ड	-10.9496
गू	-10.9497
सापडले	-10.951
सोन	-10.9513
ज्यांचा	-10.9516
पसरण्याच	-10.9522
ढकलल	-10.9522
तंत्रज्ञाना	-10.9526
व्हॅक्सीन	-10.9535
आखाड्या	-10.9537
उन्हाळ	-10.9537
प्राधिकरणा	-10.9537
बायोएनटेक	-10.9537
खोकताना	-10.9537
तालुका	-10.9537
पशूजन्	-10.9537
रिकव्हरी	-10.9537
सल्लागार	-10.9537
हरिद्वार	-10.9537
हाफकिन	-10.9537
उर्वर	-10.9537
पॅकेज	-10.9537
स्त्रोत	-10.9537
नागरी	-10.9537
प्रामुख्यान	-10.9537
सेप्ट	-10.9537
अलिकड	-10.9537
सिनेमा	-10.9537
तेवढ	-10.9538
ेश्वर	-10.9539
भौ	-10.9539
बद्ध	-10.9539
ग्राम	-10.954
कारणांमुळे	-10.9542
गरम	-10.9542
औषधी	-10.9545
दुर्दैव	-10.9545
आभार	-10.9549
लावल्या	-10.9552
असावी	-10.9555
53	-10.9556
क्लो	-10.9562
असो	-10.9563
प्रत्येकाला	-10.9564
सिस	-10.9567
मनपा	-10.9567
मंडळी	-10.9569
समितीने	-10.957
मानक	-10.9574
कळल	-10.9578
वेळेस	-10.9583
जानेवारीपासून	-10.959
वाटप	-10.9593
दिवसभर	-10.9594
ठराव	-10.9598
आठवडा	-10.96
क्लब	-10.9611
शु	-10.9612
समजाव	-10.9618
मृतांच	-10.9623
चेहर	-10.9627
अॅपवर	-10.9628
बरेच	-10.9651
लावले	-10.9656
िन्स	-10.9664
पुरुषां	-10.967
टाळाव	-10.9673
दुष्परिणाम	-10.9674
72	-10.9682
भारताने	-10.9687
साली	-10.9695
शें	-10.9695
हाळ	-10.9696
्षिक	-10.9707
नोव	-10.9709
नाहीय	-10.9709
मंत्रालयाच्या	-10.9713
जाणवल	-10.9714
आजारासाठी	-10.9717
संकटात	-10.9745
96	-10.9749
ुती	-10.9759
चाचण्यांची	-10.9759
९०	-10.9764
झो	-10.9777
-1	-10.9781
शिक्षणमंत्र	-10.9796
बरोबरच	-10.9804
डॉक्टरांच	-10.9806
ाऊन	-10.9811
खाण्या	-10.9815
प्रधान	-10.9817
मॅट	-10.9817
ालय	-10.982
जाग	-10.9822
राबवण्या	-10.9824
चौ	-10.9833
करण्यावर	-10.9834
काढू	-10.9842
वर्	-10.9848
समा	-10.9853
फर	-10.9855
र्थ	-10.9858
परीक्षां	-10.9865
जिल्ह	-10.987
शास्त्रज्ञांन	-10.9872
ाळे	-10.9881
घालत	-10.9885
बदलू	-10.9895
भी	-10.9908
ज्यांच्या	-10.9949
विमानात	-10.9977
वाई	-10.9981
66	-10.9983
क्व	-10.9985
ह्रदय	-10.9994
व्यात	-10.9994
दल	-11.0011
क्रिये	-11.0028
समाजा	-11.0037
ियम	-11.0064
सल्ल्या	-11.0064
मिशन	-11.0078
पसरू	-11.0081
सगळी	-11.0089
कूल	-11.0092
थायलंड	-11.0092
eea	-11.0092
कार्यकर्ते	-11.0092
कौतुक	-11.0092
तारखे	-11.0092
दृश्य	-11.0092
प्रदूषण	-11.0092
फोर्ट	-11.0092
बाजारपेठा	-11.0092
व्यवस्थित	-11.0092
संमेलन	-11.0092
साताऱ्यात	-11.0092
सामुदायिक	-11.0092
स्फोट	-11.0092
हायपॉक्सिया	-11.0092
एरोसोल	-11.0092
खोकल्या	-11.0092
जीनोम	-11.0092
श्रेणी	-11.0092
गरोदर	-11.0092
मेडिसिन	-11.0092
सज्ज	-11.0092
किमती	-11.0092
जीनसंच	-11.0092
पाऊल	-11.0092
गरीब	-11.0092
पगार	-11.0092
कार्यवाही	-11.0093
हायकोर्टा	-11.0093
गुप्त	-11.0093
मिश्र	-11.0093
gen	-11.0094
हल्ला	-11.0094
सारणी	-11.0094
ठेवलं	-11.0095
कामगिरी	-11.0095
गुठळ्या	-11.0097
रुमाल	-11.0098
युएस	-11.0099
व्हायला	-11.01
व्यक्ति	-11.0101
बाजी	-11.0101
चालना	-11.0102
पार्ट	-11.0102
fe	-11.0103
चिन्ह	-11.0107
ंस्कृत	-11.0108
वाटलं	-11.0111
दरवर्षी	-11.0113
कुव	-11.0113
गोलि	-11.0121
अहवालात	-11.0123
कुणाला	-11.0126
विचारलं	-11.013
दुकानां	-11.0138
विदर्भात	-11.0141
वीज	-11.0141
ओसी	-11.0145
दिवसांसाठी	-11.0152
त्यांच्याकडे	-11.0153
ढा	-11.0154
थोडा	-11.0154
पूर्वक	-11.0164
गांभीर्य	-11.0167
साथीमुळे	-11.0168
लसींचा	-11.0172
फोर्सचे	-11.0175
ce	-11.0183
हातावर	-11.0189
धारण	-11.0206
वेबसाईटवर	-11.0208
ड्रग्	-11.0209
ठेवण्यास	-11.0209
उद्योगा	-11.0209
दिसते	-11.0209
टेड	-11.0215
दाब	-11.0219
बाबीं	-11.0219
संघ	-11.0224
सिं	-11.0236
स्नायू	-11.0237
कचऱ्या	-11.0248
३६	-11.025
नसलेल	-11.0255
दो	-11.0256
इतिहासा	-11.0258
आजारावर	-11.027
ar	-11.0274
०००	-11.0277
विद्यापीठात	-11.0292
प्प	-11.0293
भेटी	-11.03
सहज	-11.0322
िर	-11.0353
ींग	-11.0359
वादी	-11.0365
कोणा	-11.0385
ृत	-11.0388
डोन	-11.0391
त्यांच्यासाठी	-11.0391
मजुरां	-11.0397
हाताळण्या	-11.0397
आत्तापर्यं	-11.0398
मोड	-11.04
राण	-11.0404
शीर	-11.0406
रहा	-11.0409
फारस	-11.041
मंत्रिमंडळाच	-11.041
गर	-11.0422
मित्र	-11.0423
खान	-11.0433
अवयवां	-11.0435
पत्रकारां	-11.0464
जुन	-11.047
परा	-11.048
िट	-11.0483
pa	-11.049
ज्यांच	-11.0491
यावं	-11.0493
दुखण	-11.0496
विश्लेषणा	-11.0517
▁¦400	-11.0522
स्थापना	-11.0526
साय	-11.0539
तत्त्व	-11.0557
साद	-11.056
सद्य	-11.0584
याआधी	-11.0585
अडचण	-11.0606
वटवाघळा	-11.0614
मुळ	-11.062
सोमवार	-11.0622
महत्व	-11.0625
उपकरणां	-11.0629
र्फे	-11.0638
करु	-11.0641
कडू	-11.066
न्यायालयान	-11.0665
ation	-11.0668
इमारत	-11.0677
दवाखान	-11.0679
अंत्यसंस्कार	-11.068
औपचारिक	-11.068
कर्नाटक	-11.068
जावडेकर	-11.068
टिश्यू	-11.068
डेन्मार्क	-11.068
तृतीय	-11.068
प्लाझ्मा	-11.068
बिंदू	-11.068
रेस्टॉरंट	-11.068
व्हेंटीलेटर	-11.068
शिफारशी	-11.068
स्टोरेज	-11.068
स्वागत	-11.068
आसपास	-11.068
शिवाजी	-11.068
उच्चांक	-11.068
टॅक्सी	-11.068
भागीदार	-11.068
पार्सल	-11.068
निगड	-11.068
साहेब	-11.068
अहमदनगर	-11.068
ग्लोब	-11.0681
अँटीजेन	-11.0681
ह्यूम	-11.0681
तिकीट	-11.0681
the	-11.0681
खोट	-11.0681
अऩ्	-11.0681
app	-11.0681
एनएल	-11.0681
वडील	-11.0682
ox	-11.0682
सूत्र	-11.0682
लिव्हर	-11.0682
छत्र	-11.0682
प्रेर	-11.0683
दीर्घकाळ	-11.0683
वाहक	-11.0683
इथल्या	-11.0684
३१	-11.0685
फोड	-11.0686
nb	-11.069
सायन्स	-11.0691
ांमधून	-11.0691
गुणकारित	-11.0694
प्रकृती	-11.0694
सेकंद	-11.0697
णूक	-11.0698
ंकन	-11.0701
आढळणाऱ्या	-11.0707
ममता	-11.0707
सत्रा	-11.0707
केलीय	-11.0708
तेथे	-11.0708
डबल	-11.0713
निकट	-11.0714
सगळ्यांना	-11.0719
सायटो	-11.072
गुणकार	-11.0721
नसतो	-11.0722
ge	-11.0722
बालरोग	-11.0725
पदं	-11.0726
किर	-11.073
ili	-11.0731
ओढ	-11.0732
लागणाऱ	-11.0734
शास्त्रज्ञां	-11.0735
सेंट	-11.0738
एवढा	-11.0744
कळवल	-11.075
राहतो	-11.0752
ब्रिटनमध्ये	-11.0755
श्रम	-11.0757
गन	-11.0778
लावता	-11.0781
्यापी	-11.0781
थंडी	-11.0784
स्थगिती	-11.0786
वै	-11.0788
खवखवण	-11.0795
न्सी	-11.082
९९	-11.0824
्यांमध्ये	-11.0826
तासात	-11.0827
विभागां	-11.0832
योजनां	-11.0832
रुप	-11.0836
लावल	-11.0839
छान	-11.0845
ठरले	-11.0869
सीए	-11.0876
वर्षं	-11.0877
▁¦800	-11.0884
mis	-11.0892
ॅशन	-11.0898
योज	-11.0903
सेरोलॉजी	-11.0915
रहात	-11.0919
अशाप्रकार	-11.0928
संसर्गाचं	-11.0931
शिव	-11.0931
वाढणार	-11.0932
प्रयोगशाळे	-11.094
कुं	-11.094
किंमती	-11.0942
महिलांन	-11.0954
लाभ	-11.0955
केंद्राकड	-11.0955
२६	-11.0959
७०	-11.0961
मोहीमे	-11.0964
पेट	-11.0968
जीवन	-11.0969
80	-11.0973
व्हायरसवर	-11.0989
.3	-11.1027
लाटेच्या	-11.1049
na	-11.1054
बाध	-11.1061
स्तर	-11.1062
असावे	-11.1079
वाढवण	-11.1085
नसताना	-11.1086
साल	-11.1087
बोटां	-11.1102
पाहिल	-11.112
पॅक	-11.1125
़	-11.1155
रियल	-11.1159
ठेव	-11.1164
सुचवले	-11.1169
रोह	-11.1172
पाहण	-11.1183
उभारण्या	-11.1188
निघाल	-11.1193
मुद्द	-11.121
माला	-11.1219
च्च	-11.1232
कुंभमेळ	-11.124
राहण	-11.125
व्यापार	-11.1252
तिसर	-11.1258
व्यवस्थापना	-11.1261
यंत्र	-11.1263
व्हायर	-11.1275
पेड	-11.1277
कारखान	-11.1277
प्रतिरोध	-11.1282
तपासल	-11.129
चोळ	-11.1291
वर्तवल	-11.1301
x	-11.1302
कोव्हॅक्स	-11.1303
द्योग	-11.1304
ऩ	-11.1304
रहिवा	-11.1305
सुरवात	-11.1305
जहाज	-11.1305
सायकल	-11.1305
अधिवेशन	-11.1305
अलगीकरण	-11.1305
क्लोरोक्विन	-11.1305
गुंतवणूक	-11.1305
ध्येय	-11.1305
निवडणुका	-11.1305
पत्नी	-11.1305
मुलाखती	-11.1305
रायगड	-11.1305
रिस्पॉन्स	-11.1305
समाधान	-11.1305
समुद्र	-11.1305
हॅन्ड	-11.1305
उत्तराखंड	-11.1305
कॅडिला	-11.1305
पुनः	-11.1305
हिवाळ	-11.1305
q	-11.1305
आणिबाणी	-11.1305
विलंब	-11.1305
लेव्हल	-11.1305
उत्क्रांती	-11.1305
अनुदान	-11.1306
फॉर्म	-11.1306
जीवाणू	-11.1306
उठव	-11.1306
काळाबाजार	-11.1307
जन्म	-11.1308
गोल्ड	-11.1308
जयंत	-11.1308
्रिम	-11.1308
भाविकां	-11.1308
महाविकास	-11.1309
वर्ती	-11.131
कामकाज	-11.1311
राज्यपाल	-11.1311
किरण	-11.1312
रॅप	-11.1312
विचारणा	-11.1312
स्टॅ	-11.1315
नंबर	-11.1316
समजू	-11.1316
निशा	-11.1317
रिझ	-11.1318
मिळण्यासाठी	-11.1321
वेळापत्रका	-11.1323
लवकरच	-11.1324
भु	-11.1328
79	-11.1329
कॉन्	-11.133
थोड्या	-11.1331
ठेवला	-11.1335
दारू	-11.1337
गैरसमज	-11.1339
आयोगाने	-11.1344
मोज	-11.1345
निवेदन	-11.1351
घाई	-11.1351
हजारांच्या	-11.1353
क्षेत्रां	-11.1356
दीर्घकाल	-11.1358
करण्याबाबत	-11.1359
साथरोगाच्या	-11.136
लशीबाबत	-11.1361
हेतू	-11.1362
हातांवर	-11.1363
धडा	-11.1365
औषधांची	-11.1371
झाल्यापासून	-11.1372
०१	-11.1378
आढळलेल्या	-11.138
गाठी	-11.1381
त्याबद्दल	-11.1386
कपड	-11.1387
सोप्या	-11.1391
तापमानात	-11.1404
संकलन	-11.1413
ठाण्यात	-11.1426
डिस	-11.1426
ांकडे	-11.1429
लढाईत	-11.1437
मोदीं	-11.1438
बदलण्या	-11.145
सुरूवाती	-11.1452
सातत्य	-11.1453
उपाध्य	-11.1454
धोरणा	-11.1455
टीव्ही	-11.1465
महिन्यांत	-11.1485
ेन्शन	-11.1485
सरकारचं	-11.1493
४४	-11.1506
बाहेरून	-11.1512
ठेवावी	-11.1525
वगळण्या	-11.1533
यावरून	-11.154
रोगाच्या	-11.154
जु	-11.1562
शरीर	-11.1564
अवयव	-11.1573
धू	-11.1582
संसद	-11.1587
क्रो	-11.1589
खु	-11.1595
लढ्या	-11.1597
संपत	-11.1605
ट्रॅक	-11.161
ूज	-11.1616
▁¦85	-11.1633
रोखू	-11.1638
समुदायात	-11.1658
जोडले	-11.166
डर	-11.1667
स्तरी	-11.1675
कुंभमेळ्या	-11.17
साधा	-11.1706
दला	-11.1721
रोधी	-11.173
nt	-11.1744
नसता	-11.1746
tr	-11.1746
ंद्र	-11.1756
वर्षभरा	-11.1781
पब	-11.1784
2000	-11.1799
३८	-11.1805
उत्त	-11.1833
वेबसाईट	-11.1835
कृ	-11.1837
कॅन	-11.1854
आणल	-11.1864
उदा	-11.1866
िकट	-11.1877
उद	-11.189
तथा	-11.1918
वर्तन	-11.1924
मंत्र	-11.193
कडील	-11.1933
पत्त	-11.194
-5	-11.1942
चर्च	-11.1944
शिंदे	-11.1945
सामान	-11.1951
पाहू	-11.1951
एचकेयु	-11.1972
आश्चर्य	-11.1972
एफडीए	-11.1972
झायडस	-11.1972
डाऊनलोड	-11.1972
डॅशबोर्ड	-11.1972
द्रुत	-11.1972
पावसाळ	-11.1972
मनुष्यबळ	-11.1972
मूर्ती	-11.1972
मूल्यमापन	-11.1972
मॉड्यूल	-11.1972
समजातीय	-11.1972
सुनावणी	-11.1972
स्पेशालिटी	-11.1972
अल्फा	-11.1972
पांढ	-11.1972
विषारी	-11.1972
अवस्था	-11.1972
चव्हाण	-11.1972
नोकरी	-11.1972
ब्रुक	-11.1972
अपघात	-11.1972
वडिलां	-11.1972
गर्भपात	-11.1972
दखल	-11.1972
पोषक	-11.1972
आश्वासन	-11.1972
फटाक्यां	-11.1972
तरूण	-11.1972
न्यूयॉर्क	-11.1972
रितीने	-11.1972
अध्यक्षतेखाली	-11.1972
रहिवाशांन	-11.1972
किलोमीटर	-11.1973
पुनर्	-11.1973
ांत्रिक	-11.1973
प्रतीक्ष	-11.1973
नाराजी	-11.1973
गुरू	-11.1973
इम्युनिटी	-11.1973
आंतरप्रजाती	-11.1974
जखम	-11.1974
चित्रपट	-11.1975
सगळीकडे	-11.1975
चालली	-11.1975
महासंचालक	-11.1976
har	-11.1976
सागर	-11.1976
प्रतिकृती	-11.1977
वेध	-11.1977
पशु	-11.1978
मतदार	-11.1979
सतर्क	-11.1979
प्रवृत्त	-11.1979
केव्हा	-11.198
पात्र	-11.1981
आराम	-11.1985
थांबवल	-11.1986
एम्स	-11.1988
सातार	-11.199
ाणूस	-11.1993
व्हेरियंट्स	-11.1994
ह्यांचा	-11.1995
यांच्याकडे	-11.1997
टाकले	-11.1997
आस्थापना	-11.1998
मुलग	-11.1998
सवाल	-11.1998
राहणं	-11.2002
बध	-11.2002
ह्यांच्या	-11.2004
वाढवली	-11.2004
चौथ	-11.2006
करोनामुक्त	-11.2008
महिन्यापासून	-11.201
पदवी	-11.2011
सेंटर्स	-11.2014
रूग्णांसाठी	-11.2018
वायू	-11.2019
एन्फ्ल्युएन्झ	-11.202
इंटरन	-11.2023
गॅस	-11.2029
मुंबईतल्या	-11.2031
मिळतो	-11.2046
cov	-11.2049
ाइक	-11.2068
लेट	-11.2071
अभिनेत	-11.2071
भरण्या	-11.2079
स्ट्रो	-11.2081
स्वरूपात	-11.2084
गेल्यानंतर	-11.2093
पायी	-11.2099
आमच्याकड	-11.2101
समाजात	-11.2106
खेळत	-11.2121
२९	-11.2131
दर्शन	-11.2144
केल्याचं	-11.2148
एकमे	-11.2155
il	-11.2166
कळवण्या	-11.2168
्यूट	-11.2171
ठेवले	-11.2174
रचनात्मक	-11.2177
५००	-11.2207
कंपन्यांना	-11.2226
घालता	-11.2233
ंगण	-11.2236
पाळल	-11.2237
51	-11.2238
घेतात	-11.2243
४८	-11.2249
पदार्थांच	-11.225
प्रक्रियेत	-11.2255
पाल	-11.2259
मित्रा	-11.2277
नियमन	-11.2285
प्रसिद्धी	-11.2291
ठरला	-11.2295
कोरोनाबाधितांच	-11.2305
यावे	-11.2305
पृष्ठभागा	-11.2323
li	-11.2325
लावाव	-11.2328
लढत	-11.233
प्त	-11.2348
प्रकरणात	-11.236
ाविषयी	-11.2362
आरोग्याच्या	-11.2376
मिनिटां	-11.2376
इज	-11.2378
ावाटे	-11.238
स्त्रियां	-11.2391
उशीर	-11.2405
पथका	-11.2425
de	-11.2435
रहाव	-11.2448
सीटी	-11.2477
पोर्ट	-11.2482
िन्ह	-11.2483
अत्य	-11.2495
ट्रि	-11.2503
fi	-11.2505
घरा	-11.2527
दाखवल	-11.2536
ठरल	-11.2563
२३	-11.2565
सेर	-11.2574
शिक्षणात	-11.2585
आणले	-11.2595
बघत	-11.2604
42	-11.2632
शाही	-11.2634
98	-11.2643
अनुम	-11.2646
:	-11.2653
कार्यक्षम	-11.2665
गृहमंत्र	-11.2668
द्ध	-11.2676
असती	-11.2682
इमर्ज	-11.2686
अँजिओटेनसीन	-11.2686
बुद्धी	-11.2686
साळुं	-11.2686
अर्थसंकल्प	-11.2686
केंब्रिज	-11.2686
कौशल्य	-11.2686
थेरपी	-11.2686
नेतृत्व	-11.2686
पंजाब	-11.2686
पंधरा	-11.2686
रणनीती	-11.2686
लर्निंग	-11.2686
वॉशिंग्टन	-11.2686
स्मशानभूमी	-11.2686
आदित्य	-11.2686
इच्छित	-11.2686
एजंट	-11.2686
कन्टेनमेंट	-11.2686
चिकित्सक	-11.2686
टेक्नॉलॉजी	-11.2686
तैवान	-11.2686
पातळ्या	-11.2686
प्रायोगिक	-11.2686
रक्कम	-11.2686
रॉय	-11.2686
व्यापाऱ्यां	-11.2686
व्याप्ती	-11.2686
शत्रू	-11.2686
सफाई	-11.2686
ॅण्टीबॉडी	-11.2686
ॉक्सीक्लोरोक्विन	-11.2686
्रॉम	-11.2686
▁¦2012	-11.2686
ठेऊ	-11.2686
आक्रमक	-11.2686
ऑर्डर	-11.2686
विधी	-11.2686
इन्स्टिट्युट	-11.2686
कार्यकर्त्यां	-11.2686
थेंब	-11.2686
फायर	-11.2687
टूथ	-11.2687
सचिवालया	-11.2687
चालणार	-11.2687
पोषण	-11.2687
uk	-11.2687
सक्ती	-11.2688
नोंदविण्या	-11.2688
osh	-11.2688
उपचाराध	-11.2689
उघडण्या	-11.2689
इन्फेक्शन	-11.269
कपात	-11.2691
स्राव	-11.2691
गार्ड	-11.2691
ठरवण्या	-11.2691
iii	-11.2691
सादरीकरण	-11.2693
िण्यासाठी	-11.2693
प्रकट	-11.2693
असायला	-11.2693
कायदेशीर	-11.2694
फ्लो	-11.2697
mh	-11.2698
लसीकरणाबाबत	-11.2698
धुतल्या	-11.2699
पै	-11.2701
no	-11.2703
न्यूज	-11.2704
रसायन	-11.2707
षण	-11.2708
समजले	-11.2709
कारणांसाठी	-11.2713
विपर	-11.2713
16	-11.2714
प्रतिरोधक	-11.2714
थर्म	-11.2717
मै	-11.2719
राहिल्या	-11.2724
पॅन	-11.2729
माफ	-11.2734
वाढलेल	-11.2734
खोली	-11.274
प्रसारण	-11.2744
घेतो	-11.2747
बोलण्या	-11.2749
दावर	-11.275
ent	-11.2751
▁,'	-11.2754
मार्गाने	-11.2754
मुद्द्यावर	-11.2755
यासंबंधी	-11.276
बच्	-11.2761
▁¦62	-11.2775
यासोबतच	-11.2775
धुण्यासाठी	-11.278
पडणार	-11.2781
घ्यावे	-11.2782
ाऊंड	-11.2782
पाहण्या	-11.2785
वितर	-11.2787
निम	-11.279
धुण्यास	-11.2793
आदर	-11.2794
ग्ला	-11.2794
ऑन	-11.2796
प्रती	-11.2796
वस्थ	-11.2797
महानगरपालिके	-11.2798
खरी	-11.281
करताय	-11.2818
व्य	-11.2831
जुळ	-11.2836
बीड	-11.2837
पसरलेल	-11.2841
सोडण्या	-11.2849
तिथल	-11.2849
कराव्या	-11.2856
राहिला	-11.2857
लसीसाठी	-11.2861
हंगाम	-11.2866
केल्यामुळे	-11.2871
मिळतं	-11.2877
पाळीव	-11.2899
to	-11.29
कंपन्यांन	-11.2915
ठेवावे	-11.2933
प्रव	-11.2937
चेहऱ्यावर	-11.2967
बिग	-11.2969
हिरा	-11.2976
उशीरा	-11.2978
विष	-11.2986
ha	-11.2991
जोखमीवर	-11.3004
साईट	-11.3019
ter	-11.3021
लॉजी	-11.3029
मेड	-11.3039
11	-11.3039
पाळीत	-11.3073
व्हॅक	-11.3074
निमित्तान	-11.3081
मारण्या	-11.31
rh	-11.3101
६६	-11.3103
संशोधनात	-11.3107
शास्त्री	-11.3118
पालकांना	-11.3125
हव्या	-11.3131
पसरल	-11.3138
उमेदवार	-11.3141
थर	-11.3173
साधण्या	-11.3183
संशोधक	-11.3185
उत्पाद	-11.3199
84	-11.3224
कोट	-11.3226
पूर्त	-11.3226
रद	-11.324
जोडण्या	-11.3244
ing	-11.3245
कमल	-11.3252
रूम	-11.3255
देशभर	-11.3256
पुरुष	-11.3261
४१	-11.3268
मास	-11.327
टीन	-11.3272
ाध्यक्ष	-11.3274
वीस	-11.3281
गमावल	-11.3297
ic	-11.3303
रूग्णालया	-11.3309
फ्ल	-11.3316
कुठ	-11.3347
रूग्णालय	-11.3358
विद्यार्थ्या	-11.3385
वेदना	-11.34
नवजात	-11.3406
्लम	-11.3415
कालिक	-11.342
(	-11.3422
त्रि	-11.3424
नेत्यां	-11.3427
प्रचारा	-11.3431
वेळापत्रक	-11.3435
2,6	-11.3451
ोगी	-11.3454
रचना	-11.3455
इम्युन	-11.3455
ट्रान्स	-11.3455
कंटेनमे	-11.3456
कोरोनील	-11.3456
तुषार	-11.3456
निष्	-11.3456
फिल्टर	-11.3456
स्टॉर्म	-11.3456
अंकित	-11.3456
आयएमए	-11.3456
उस्मानाबाद	-11.3456
एंझाइम	-11.3456
एंटेर	-11.3456
काऊंट	-11.3456
क्लासेस	-11.3456
टेड्रोस	-11.3456
तपशील	-11.3456
नोटीस	-11.3456
पॅटर्न	-11.3456
लॉग	-11.3456
व्हेंटिलेशन	-11.3456
शिफ्ट	-11.3456
सक्रीय	-11.3456
सल्लामसलत	-11.3456
सोलापुरात	-11.3456
स्प्रेडर	-11.3456
हायपोक्सिया	-11.3456
इंडस्ट्री	-11.3456
किशोर	-11.3456
निरंजन	-11.3456
फेडरल	-11.3456
लोकप्रिय	-11.3456
तरतूद	-11.3456
सांगली	-11.3456
j	-11.3456
जेनेटिक	-11.3456
सावधगिरी	-11.3456
श्ले	-11.3456
सवलत	-11.3456
प्रगती	-11.3456
गंगा	-11.3456
ट्रीट	-11.3456
समाप्त	-11.3456
ool	-11.3456
आठवण	-11.3456
पर्वा	-11.3456
दिशेन	-11.3456
नाकारता	-11.3456
सावध	-11.3456
एन्झा	-11.3457
व्यवस्थापक	-11.3457
श्वसनासंबंधी	-11.3458
नियुक्त	-11.3458
देशव	-11.3459
लाखांहून	-11.346
ट्रेनिंग	-11.346
रमेश	-11.3462
वास्तविक	-11.3464
परजीव	-11.3466
ओसर	-11.3466
मजब	-11.3467
वाचवण्यासाठी	-11.3468
साठवण्यासाठी	-11.3468
पटींन	-11.3468
किट्स	-11.3472
▁¦34	-11.3474
यांच्यासोबत	-11.3484
्विक	-11.3485
घरातल्या	-11.3488
ज्यांत	-11.3488
अनिश्चित	-11.349
प्रत्यक्षात	-11.3492
पुसू	-11.3494
निळ	-11.3495
▁¦55	-11.35
नाईक	-11.3504
भव	-11.3504
तपासण्यासाठी	-11.3506
स्त्री	-11.3507
रोधक	-11.351
घेताना	-11.3512
वर्धा	-11.3512
सायं	-11.3512
यलेट	-11.3518
आढळलं	-11.3518
वयो	-11.3519
वंश	-11.3521
वेब	-11.3527
वापरण्यास	-11.353
सेने	-11.3539
पोच	-11.3542
एकटे	-11.3547
नसतं	-11.3552
अकरा	-11.3553
ट्रक	-11.3559
कोम	-11.3572
बनला	-11.3579
ca	-11.358
खरे	-11.358
दिसले	-11.3581
लसनिर्मिती	-11.3586
ers	-11.3588
्टर	-11.3588
धोरणां	-11.3604
धारावीत	-11.3609
di	-11.3613
स्वरुप	-11.362
नोंदविल	-11.3621
काहींनी	-11.3625
सेना	-11.3626
जिल्हाधिकाऱ्यां	-11.3634
साध्य	-11.3667
कन्	-11.3669
दळ	-11.3704
ट्विटरवर	-11.3705
घटनां	-11.3706
जागे	-11.3709
पर्यटकां	-11.3717
अॅड	-11.3735
उद्	-11.3736
क्रमा	-11.3746
शेत	-11.377
६५	-11.3785
प्रवासाच	-11.3803
नोव्ह	-11.3804
सापडलेल	-11.3807
क्रू	-11.3811
यंत्रणेवर	-11.3813
मिळाव	-11.3813
पसरव	-11.382
िस्त	-11.3826
कामगारांन	-11.3835
मुलांवर	-11.3859
जिवाणू	-11.3866
काढलेल	-11.3869
ुनिक	-11.3895
बसल्या	-11.3914
ॅप	-11.3929
ूट	-11.3958
"	-11.3963
प्रथिनां	-11.3972
रीड	-11.3983
्मा	-11.399
पिल	-11.3995
स्वयंसेवकां	-11.4003
३३	-11.4003
पर्यटक	-11.4013
साई	-11.4017
com	-11.4058
39	-11.4061
राबव	-11.4068
शेजारी	-11.4071
पाळा	-11.4077
63¦	-11.4095
sa	-11.4095
सांगितल	-11.4118
टाकण्या	-11.4137
संकल्पन	-11.4141
बाह	-11.4144
संयुग	-11.4157
स्टर	-11.4169
फुफ्फुसांत	-11.4177
वेस्ट	-11.4192
वर्षांखाल	-11.4193
टक्क	-11.4202
ग्राहकां	-11.4212
ानंद	-11.4221
अलीकड	-11.4229
अर्ध	-11.4233
पसरण्या	-11.4244
३५	-11.4251
परवड	-11.4255
भरल्या	-11.4257
69¦	-11.4272
व्हेल	-11.4273
द्राव	-11.4284
ांहून	-11.4287
णेकर	-11.4288
प्रार्थना	-11.4288
कोलमड	-11.4289
आकड्यां	-11.4289
एऩ्फ्ल्युएऩ्झा	-11.4289
किंग्डम	-11.4289
कोरोनिल	-11.4289
द्राक्ष	-11.4289
पतंजली	-11.4289
यवतमाळ	-11.4289
रक्तवाहिन्या	-11.4289
विश्वसनीय	-11.4289
विष्ठे	-11.4289
mpsc	-11.4289
nhs	-11.4289
अखिल	-11.4289
आच्छाद	-11.4289
उत्तेजन	-11.4289
तामिळनाडू	-11.4289
तृतीयांश	-11.4289
पुरस्कार	-11.4289
पेट्रोल	-11.4289
प्रोनिंग	-11.4289
भोजनालय	-11.4289
मॉल्स	-11.4289
युनियन	-11.4289
रूपांतर	-11.4289
वयस्कर	-11.4289
ायझेशन	-11.4289
अगोदर	-11.4289
काटेकोर	-11.4289
मल्टि	-11.4289
रशियन	-11.4289
संघर्ष	-11.4289
निम्न	-11.4289
परीक्षण	-11.4289
सर्वोत्	-11.4289
जर्नल	-11.4289
धूम्रपान	-11.4289
पुराव्या	-11.4289
मंदाव	-11.4289
निसर्ग	-11.4289
हक्क	-11.4289
उशिरा	-11.4289
इंजिन	-11.4289
निर्यातीवर	-11.4289
स्टाफ	-11.4289
समायोज	-11.4289
फेसबुक	-11.4289
भेदभाव	-11.4289
लातूर	-11.4289
शौचालय	-11.4289
जाणीव	-11.4289
फ्री	-11.429
abc	-11.429
पुढा	-11.429
गाईडलाईन्स	-11.429
एन्फ्लुएन्झा	-11.429
आठवडय़ा	-11.429
रेषा	-11.429
देणगी	-11.429
भाऊ	-11.4291
आशादाय	-11.4291
वर्गीकरण	-11.4292
इमारतीत	-11.4292
कॅप्	-11.4292
सॅनिटा	-11.4292
आक्षेप	-11.4292
यूएस	-11.4292
रिक्षा	-11.4292
एन्टीबॉडीज	-11.4293
डिग्र	-11.4293
अधीन	-11.4294
सुरत	-11.4294
नर्सिंग	-11.4294
घोषणे	-11.4294
बुक	-11.4294
ध्र	-11.4294
लिंक	-11.4298
डोळ्यां	-11.4298
थै	-11.4299
विमानसेवा	-11.4299
याचिका	-11.43
दाहक	-11.4302
लशीकरण	-11.4303
लाखांपेक्षा	-11.4303
कुटुंबियां	-11.4303
pd	-11.4304
विकृती	-11.4304
श्रेय	-11.4306
उचलली	-11.4307
शाळांमध्ये	-11.4307
स्वास्थ्य	-11.431
आध	-11.4314
१७	-11.4314
सुरुवातीपासून	-11.4314
कमिशन	-11.4315
प्रपत्र	-11.4317
पाठवि	-11.4317
प्रवेशासाठी	-11.4317
दुरुस्ती	-11.4317
कुम	-11.4323
मिथ	-11.4325
नुक्रम	-11.4328
अंतरावर	-11.4329
धुव	-11.4331
▁¦68	-11.4333
सॅन	-11.434
आयसीयूमध्ये	-11.4341
सूक्ष्मजीव	-11.4344
नीट	-11.4346
आरक्षणा	-11.4346
आलो	-11.4347
जाण्यास	-11.4351
मुद्द्यांवर	-11.4352
ाणू	-11.4354
र्नि	-11.4356
झि	-11.4357
सचिन	-11.4358
नसाव	-11.4359
सरस	-11.4359
येण्यास	-11.4361
अँपल	-11.4362
एवढ्या	-11.4365
सांगितल्या	-11.437
राहिलं	-11.4374
योजनेत	-11.4377
धुता	-11.4383
तेव्हापासून	-11.4387
प्रीत	-11.4392
विकेंद्र	-11.4397
उग	-11.4403
▁¦32	-11.4404
यकृत	-11.4405
भाल	-11.4422
हजारपेक्षा	-11.4423
जमाव	-11.4433
वाहत	-11.4441
पेशींना	-11.4444
प्रशिक्ष	-11.4457
प्रदर्श	-11.4462
टोक	-11.4472
कार्यस्थळ	-11.4496
स्क्	-11.4503
पंच	-11.4541
साथरोगा	-11.4546
प्राण्यांवर	-11.4555
▁¦1201	-11.4556
संशोधकां	-11.4559
भाड	-11.456
पुरे	-11.4573
ut	-11.4575
mo	-11.4582
मिळण्या	-11.462
नवाल	-11.463
चिंते	-11.4659
▁¦47	-11.4681
मंत्रिमंडळ	-11.469
थांबल	-11.4724
धान्य	-11.4725
क्टिव्ह	-11.473
लोड	-11.4746
बनत	-11.475
देशांमध	-11.4779
पोलिस	-11.478
नमुन्यात	-11.4781
धिकारी	-11.4787
ाईड	-11.4799
संपल्या	-11.4824
पसरल्या	-11.4826
ci	-11.483
दाखवाव	-11.4916
म्हण	-11.4918
डेट	-11.4929
प्राधान्यान	-11.4931
बनवत	-11.4986
82	-11.4989
पडलेल्या	-11.5005
बालका	-11.5024
मंत्र्यांना	-11.5027
वस्तूंच	-11.5031
रात्र	-11.5053
जागरूकत	-11.5057
pt	-11.5063
सत्य	-11.5071
कूर	-11.5077
माण	-11.5105
कारणासाठी	-11.5109
विमा	-11.5119
मोनो	-11.513
स्त्र	-11.5133
गुंतागुंत	-11.5136
शब्दा	-11.514
प्रोट	-11.5142
्यम	-11.5149
73¦	-11.5155
माई	-11.5159
समर्थ	-11.5175
गिल	-11.5177
धाप	-11.519
रहाण	-11.5191
45	-11.5196
डिस्टन्स	-11.5197
टर्मिन	-11.5198
निरनिराळ	-11.5198
अॅडमिट	-11.5198
आजूबाजू	-11.5198
कंटेन्मेंट	-11.5198
खेळाडू	-11.5198
नांदेड	-11.5198
नेदरलँड	-11.5198
प्रायव्ह	-11.5198
बांधिलकी	-11.5198
यादृच्छिक	-11.5198
रणनिती	-11.5198
हरियाणा	-11.5198
अवस्थेत	-11.5198
ऑक्सिमीटर	-11.5198
ऑडिट	-11.5198
केईएम	-11.5198
खेडकर	-11.5198
गडचिरोली	-11.5198
छोटे	-11.5198
जागरुक	-11.5198
टेंडर	-11.5198
डब्ल्यू	-11.5198
तन्मय	-11.5198
थ्रू	-11.5198
निम्म्या	-11.5198
पाठिंब	-11.5198
पारंपरिक	-11.5198
रणनीति	-11.5198
विरूद्ध	-11.5198
व्यत्यय	-11.5198
सीताराम	-11.5198
स्त्रीरोगतज्ज्ञ	-11.5198
ावस्थेत	-11.5198
india	-11.5198
इत्यादी	-11.5198
बर्ग	-11.5198
रेणू	-11.5198
व्हिडीओ	-11.5198
आखाडा	-11.5198
पंडीत	-11.5198
मृत्युमुखी	-11.5198
हजेरी	-11.5198
डुकराच	-11.5198
▁¦2020-21	-11.5198
समस्ये	-11.5198
पंढरपूर	-11.5198
फूड	-11.5198
gov	-11.5198
गुणवत्त	-11.5198
ओपन	-11.5198
याचिके	-11.5198
वार्ता	-11.5198
सस्तन	-11.5198
अकोला	-11.5198
घ्यावं	-11.5198
आहार	-11.5198
सायटोकीन	-11.5199
इबोला	-11.5199
एकट्या	-11.5199
ग्राही	-11.5199
ह्युम	-11.5199
दुखापत	-11.5199
तुर्क	-11.5199
तुलनात्मक	-11.5199
अफवा	-11.5199
शतका	-11.52
दशकां	-11.52
ठरविण्या	-11.52
इलेक्ट्रॉनिक	-11.52
आग्रह	-11.5201
दक्षत	-11.5201
वापरकर्त्यां	-11.5201
कुठलं	-11.5201
इमारतीं	-11.5201
सभागृह	-11.5202
वर्षभर	-11.5202
फ्रेम	-11.5203
घातलेल्या	-11.5203
चॅन	-11.5205
झटक	-11.5205
सौर	-11.5206
बीपी	-11.5206
भांड	-11.5206
कळत	-11.5209
संगत	-11.5211
▁¦41	-11.5211
देह	-11.5211
ष्क	-11.5212
वैश	-11.5214
गेम	-11.5215
फेरी	-11.5216
अभ्यासांत	-11.522
दिवसांनंतर	-11.5222
हॉटेल्स	-11.5222
▁¦44	-11.5222
ढकलल्या	-11.5224
विषयावर	-11.5226
प्रमाणपत्र	-11.5227
तुट	-11.523
लशीसंदर्भात	-11.5237
प्रतिकारक	-11.5239
10-1	-11.5241
रांग	-11.5242
ह्याबद्दल	-11.5245
मध्यभाग	-11.5245
तीव्रतेन	-11.5247
मुलीं	-11.5249
वाढविण्या	-11.5258
शिकवण्या	-11.5261
पक्ष्यां	-11.5262
ृष्ट	-11.5265
एवढं	-11.5267
ल्ला	-11.5269
सौ	-11.5271
पूर्वज	-11.5273
वापरावे	-11.5281
राहण्यास	-11.5289
राहिलेल	-11.5302
रिप	-11.5302
असुरक्षित	-11.5304
25	-11.5308
पूर्वप	-11.531
चरण	-11.5321
lr	-11.5328
वाढवणार	-11.5338
८०	-11.5345
वाढीव	-11.5353
श्च	-11.5362
उत्तम	-11.5364
गाड्या	-11.5364
प्रवाह	-11.537
रुण	-11.5371
oc	-11.5381
गमाव	-11.5389
उत्पादनाच	-11.54
सूर	-11.5411
गटां	-11.5411
पडण	-11.542
fr	-11.5435
फुल	-11.5438
टर्स	-11.5446
क्षेत्रांत	-11.5446
निकष	-11.5457
हृदयविकार	-11.5468
पंतप्रधानांन	-11.5524
मंडळ	-11.5527
कार्यपद्धती	-11.5527
ठेवल्या	-11.5546
ad	-11.5557
ल्व्ह	-11.556
आणल्या	-11.5603
भागावर	-11.5613
आणाव	-11.5644
मिळण	-11.5651
व्हर्	-11.5656
मजुरांन	-11.566
ni	-11.5661
निमित्त	-11.5663
ओळखता	-11.5665
आत्ता	-11.5669
▁¦6.	-11.5707
९८	-11.5714
गोष्टींवर	-11.5722
...	-11.5743
संभव	-11.5762
टाकण	-11.5795
मिळवण	-11.5827
वाजल्या	-11.5876
उडाल	-11.5893
संरचना	-11.5896
८८	-11.5903
ट्विटर	-11.5905
प्रकल्पां	-11.5957
साइड	-11.598
९५	-11.5981
ल्हा	-11.5988
मंद	-11.5998
चालवत	-11.604
ल्ल	-11.6042
वाटण	-11.605
थोरा	-11.6068
87	-11.6084
ib	-11.6095
शिवसेन	-11.6119
बालरोगतज्ज्ञ	-11.6129
सल्ल	-11.6135
वर्ध	-11.6135
ळणी	-11.6164
निर्मात	-11.6189
ाइल	-11.6191
विमानतळ	-11.6195
ग्राफ	-11.6197
म्हटल्या	-11.6198
अपेक्षे	-11.6198
नोकऱ्या	-11.6198
फॉलो	-11.6198
व्हॅन्टिलेटर	-11.6198
<	-11.6198
अरेबिया	-11.6198
अहमदाबाद	-11.6198
एरवी	-11.6198
छोटा	-11.6198
डिझाइन	-11.6198
डिस्चार्ज	-11.6198
नागपुरात	-11.6198
नोवाव्हॅक्स	-11.6198
प्रॅक्टिशनर्स	-11.6198
फेलुदा	-11.6198
बास्केटबॉल	-11.6198
भाईंदर	-11.6198
मल्टी	-11.6198
महसूल	-11.6198
मॉनिटर	-11.6198
रिव्हर्स	-11.6198
वडेट्टीवार	-11.6198
वीकेंड	-11.6198
वॉशरूम	-11.6198
सांख्यिकी	-11.6198
सेल्सिअस	-11.6198
सेल्सियस	-11.6198
≥	-11.6198
▁¦7,162	-11.6198
for	-11.6198
जंगलात	-11.6198
इम्यून	-11.6198
क्रीडा	-11.6198
टंचाई	-11.6198
डोमेन	-11.6198
ब्राँक	-11.6198
व्याख्या	-11.6198
संभ्रम	-11.6198
हिंदू	-11.6198
▁¦2018	-11.6198
ition	-11.6198
प्रचारसभां	-11.6198
भौतिक	-11.6198
समांतर	-11.6198
उंदरा	-11.6198
ष्टाचार	-11.6198
सशक्त	-11.6198
फॉर्म्युल	-11.6198
उमट	-11.6198
ज्वल	-11.6198
तितकं	-11.6198
मेळाव	-11.6198
स्नान	-11.6199
प्रार्थनास्थळ	-11.6199
नुषंग	-11.6199
पार्टमेंट	-11.6199
ग्रुप	-11.6199
तांडव	-11.6199
भागवत	-11.6199
मशीन	-11.6199
ww	-11.6199
हाऊस	-11.6199
घातला	-11.62
रस्त्यांवर	-11.62
अन्वेषण	-11.62
यंत्रमाग	-11.62
अभियान	-11.62
ठेवायला	-11.62
परराष्ट्र	-11.6201
विमानतळावर	-11.6201
घाबरू	-11.6201
घशात	-11.6201
पूजा	-11.6201
वहन	-11.6202
प्रश्नचिन्ह	-11.6202
टाईम्स	-11.6202
वृत्तपत्र	-11.6202
कोसळल	-11.6203
२०१९	-11.6203
जमिनी	-11.6203
घासण्या	-11.6204
संक्रामक	-11.6204
ty	-11.6205
विक्रम	-11.6207
ब्लु	-11.6207
▁?'	-11.6208
एसीई	-11.6209
व्यायामशाळा	-11.6209
ठेवली	-11.621
हातमोज	-11.6211
▁?"	-11.6211
टप्या	-11.6212
▁¦2,	-11.6212
रेड्डीज	-11.6213
धीर	-11.6214
hc	-11.6215
ाईव्ह	-11.6217
क्कर	-11.6222
संघराज्य	-11.6222
मुळात	-11.6222
मेडीक	-11.6223
शोधकार्य	-11.6224
निघालेल	-11.6224
गरजूं	-11.6225
लिंड	-11.6227
राहात	-11.6228
केअर्स	-11.6229
विभागाकडून	-11.623
िधान	-11.6233
पोहोचवल	-11.6233
ज्यु	-11.6233
नियमांच	-11.6234
परवडणार	-11.624
खळ	-11.6242
नखां	-11.6244
घेतल्याचं	-11.6244
कारखान्यां	-11.6245
घटली	-11.626
प्रेश	-11.6274
परिणामकारकतेच	-11.6306
हलक	-11.6313
id	-11.6318
शिंग	-11.632
दर्शवत	-11.6321
पाहिल्या	-11.6353
मनसे	-11.6354
दाव्या	-11.6359
धुवावे	-11.6366
उण	-11.6366
आयसी	-11.6367
उद्भवणार	-11.6368
कवच	-11.6371
०२	-11.638
सापडत	-11.6387
ांबद्दल	-11.6395
पदव	-11.6398
77¦	-11.64
चालत	-11.64
ard	-11.6415
पुरवणार	-11.6426
सेवक	-11.6444
आदिवासीं	-11.646
जाणवू	-11.647
मागण्या	-11.6476
३२	-11.6479
घडव	-11.6526
▁¦38	-11.6545
मोजाव	-11.6554
स्वयंसेवक	-11.6556
कव्हर	-11.6556
2019-	-11.6563
उचलण्या	-11.6577
000	-11.6583
पकड	-11.6588
व्याप	-11.6592
खड	-11.6593
बाग	-11.6596
▁¦3.	-11.6604
िअल	-11.6611
उमेदवारां	-11.6627
▁¦36	-11.6635
फुट	-11.6684
वाहतुकीवर	-11.6688
तंत्रज्ञ	-11.6708
चालवण्या	-11.671
चौक	-11.6753
dp	-11.6781
'	-11.681
प्लिकेशन	-11.6824
एक्सप	-11.6832
आयोगाच	-11.6854
निर्देशां	-11.6875
isc	-11.6913
कळव	-11.6931
जोरा	-11.694
ाईज	-11.6941
महाविद्यालयात	-11.7013
हंगामा	-11.7032
▁¦11.	-11.7034
कार्यस्थळा	-11.7043
ूपर	-11.7047
जिल्हाधिकाऱ्यांन	-11.7053
परिसर	-11.7081
वटवाघळां	-11.7084
सांगण	-11.7091
भाषण	-11.71
बनवलेल	-11.7153
श्वसनयंत्र	-11.7162
बनवल	-11.717
रस्त्या	-11.7186
ste	-11.7208
रोगांच	-11.7229
जर्मन	-11.723
निर्मित	-11.7247
ोडल	-11.7252
लॅट	-11.7277
ठरल्याच	-11.7281
शाह	-11.7283
ठेवू	-11.7298
मावेश	-11.7301
कार्यान	-11.7303
घातले	-11.7304
टाईम	-11.7304
जैव	-11.7305
घडले	-11.7307
जनुक	-11.7308
मोनिया	-11.7309
म्ब्युलन्स	-11.7309
यॉर्क	-11.7309
पार्श्वभूम	-11.7309
विशाखा	-11.7309
अधिग्रह	-11.7309
शवविच्छेदन	-11.7309
आदर्श	-11.7309
ओपीडी	-11.7309
कसोटी	-11.7309
कॅबिनेट	-11.7309
कॉकेटल	-11.7309
घेब्रेयेस	-11.7309
डिलीव्हरी	-11.7309
थुंकी	-11.7309
दुःख	-11.7309
नारळीकर	-11.7309
पुनरावलोकन	-11.7309
फाउंडेशन	-11.7309
बिघाड	-11.7309
भुजबळ	-11.7309
मजल्यावर	-11.7309
शिवजयंती	-11.7309
शुभेच्छा	-11.7309
श्वसननलिके	-11.7309
सुविधे	-11.7309
सैनिक	-11.7309
स्वित्झर्लंड	-11.7309
>	-11.7309
lock	-11.7309
news	-11.7309
अमिनो	-11.7309
अॅस्ट्राझेनेका	-11.7309
इंटेन्सिव्ह	-11.7309
एसओपी	-11.7309
ऑपरेशन	-11.7309
कॅन्सर	-11.7309
ग्रामपंचायत	-11.7309
टोनावीर	-11.7309
थोपव	-11.7309
नपुंसक	-11.7309
पर्यावरण	-11.7309
प्रत्यारोप	-11.7309
फिटनेस	-11.7309
भंडार	-11.7309
मूत्रपिंड	-11.7309
रुग्णवाहिक	-11.7309
व्हेन्टिलेटर	-11.7309
शल्यचिकित्सक	-11.7309
सत्ताधा	-11.7309
सव्वा	-11.7309
स्क्रीन	-11.7309
स्पर्धा	-11.7309
कॅम्प	-11.7309
बाटली	-11.7309
▁¦2015	-11.7309
श्मी	-11.7309
टॅग	-11.7309
सुलभ	-11.7309
स्पेशल	-11.7309
डायरेक्ट	-11.7309
अक्षर	-11.7309
पॉलीमर	-11.7309
मेडिसीन	-11.7309
coronavirus	-11.7309
कोलकात	-11.7309
स्वामी	-11.7309
लिक्वि	-11.7309
ईमेल	-11.7309
रिसेप्टर	-11.7309
ट्यूब	-11.7309
अडीच	-11.7309
कोंडी	-11.7309
प्रोटीज	-11.7309
टप्प्याटप्प्यान	-11.731
कॅनेड	-11.731
अनुप्रयोग	-11.731
लिहिलेल	-11.731
सरपंच	-11.731
mit	-11.731
राष्ट्रपती	-11.731
जेवढ	-11.731
ावधी	-11.731
नववर्षाच	-11.7311
lle	-11.7311
कमिटी	-11.7311
यावह	-11.7311
प्रतिक्रिये	-11.7311
बुड	-11.7311
वैध	-11.7311
सूर्य	-11.7311
bat	-11.7312
इटाल	-11.7312
सोमा	-11.7312
ोग्राफी	-11.7312
epi	-11.7312
कारखान्यात	-11.7312
मापन	-11.7312
रायबो	-11.7312
भेद	-11.7313
हेल्थकेअर	-11.7313
सिद्धांत	-11.7313
अँड्र	-11.7313
सायकलींच	-11.7313
डिस्ट्र	-11.7314
iti	-11.7314
ॅम	-11.7314
मोहिम	-11.7314
विसरू	-11.7315
अधान	-11.7315
कुपी	-11.7315
लावायच	-11.7316
मायन	-11.7316
med	-11.7316
जहाजावर	-11.7316
द्रावणा	-11.7316
रोगकारक	-11.7318
we	-11.7318
डॉलर्स	-11.732
नंदान	-11.732
▁¦71	-11.7321
जीवनावश्य	-11.7322
मिळणाऱ्या	-11.7322
प्रसारमाध्यमां	-11.7323
पडणाऱ्या	-11.7323
कल्पि	-11.7323
अभ्यासक्रम	-11.7324
▁¦74	-11.7324
दुध	-11.7325
कायदे	-11.7326
विचित्र	-11.7326
आरोग्यसेवक	-11.7328
मोजण	-11.7328
पावलेल्या	-11.733
टँकर्स	-11.7338
ठाम	-11.7339
तरुणांना	-11.734
जाहिर	-11.7342
स्तान	-11.7345
नाकारल	-11.7347
लिटर	-11.7348
▁¦56	-11.7353
तत्वां	-11.7364
13	-11.7367
मागवल	-11.7382
परिवर्त	-11.7392
कोरिय	-11.7401
मिनी	-11.7417
उपक्रमात	-11.7422
आजारपणा	-11.7428
थोर	-11.7457
पसरणार	-11.7464
अवरोध	-11.7466
ांविषयी	-11.7469
म्हणाव	-11.748
स्टेज	-11.748
स्पॅ	-11.7528
दिसल्या	-11.7537
महाग	-11.7537
hi	-11.7545
टाळत	-11.7558
कार्यक्रमांच	-11.7565
वैज्ञानिकांन	-11.7577
भाषणात	-11.7578
सातव	-11.7579
निष्कर्षां	-11.7609
नातेवाईकांन	-11.761
अग्निसुरक्ष	-11.7627
धडपड	-11.7648
सुविधांच	-11.7654
मंज	-11.7677
म्युनिटी	-11.7684
गृहविलगीकरण	-11.774
ऐकल	-11.7766
आंतरक्रिय	-11.7788
काढण	-11.7794
प्रेस	-11.7797
स्त्रिया	-11.7798
पोहचल	-11.788
लढण्या	-11.7885
जीवघेण	-11.7943
-10	-11.7948
ढकलण्या	-11.7966
साधनांच	-11.7973
राबवल	-11.8079
विमानां	-11.8188
निकषां	-11.8213
आदिवासी	-11.8237
अल्	-11.8237
कर्मचाऱ्या	-11.8246
९४	-11.8256
शिक्षकांच	-11.8357
क्षेप	-11.8374
आणता	-11.8396
उद्भवलेल	-11.8398
धरल	-11.8436
प्रवर्ध	-11.8449
हिमा	-11.8468
आरक्षण	-11.8476
ावटी	-11.8479
पार्क	-11.8494
शिकवण	-11.8502
–	-11.8525
‘	-11.8526
वाचवण्या	-11.8533
व्हेक्टर्	-11.8541
म्हणू	-11.8546
उद्ध	-11.855
निर्बंधांच	-11.8551
फ्रे	-11.8553
गिरी	-11.8553
एन्टीबॉडी	-11.8553
ँटी	-11.8556
cmr	-11.8558
वैद्यक	-11.8558
ञ	-11.8559
ड्रोमेड	-11.8559
रेकॉर्ड	-11.8559
अनुवांशिक	-11.8559
अभियांत्रिकी	-11.8559
असोशिएशन	-11.8559
इनहिबिटर	-11.8559
इन्फ़्लुएन्झा	-11.8559
उत्सव	-11.8559
काउंसिल	-11.8559
जीएसटी	-11.8559
टिप्पणी	-11.8559
त्रिसूत्री	-11.8559
दुष्काळ	-11.8559
दौऱ्या	-11.8559
नाट्यगृह	-11.8559
नियतकालिका	-11.8559
निष्पत्ती	-11.8559
पन्नास	-11.8559
फुप्फुस	-11.8559
माणुसकी	-11.8559
मॅन्युफॅक्चर	-11.8559
मोबाइल	-11.8559
रिसॉर्ट	-11.8559
लिमिटेड	-11.8559
वर्णद्वेष	-11.8559
व्हिटॅमिन	-11.8559
संरचने	-11.8559
सर्टिफिकेट	-11.8559
सांभाळ	-11.8559
ह्रदयवाहिक	-11.8559
+	-11.8559
corona	-11.8559
down	-11.8559
अस्वस्थ	-11.8559
अॅस्ट्राझेनिका	-11.8559
आपोआप	-11.8559
आरोग्यसेविका	-11.8559
आशिष	-11.8559
इकॉनॉम	-11.8559
एक्स्प्रेस	-11.8559
एपिडेमि	-11.8559
ऑपरेटि	-11.8559
औषधोपचार	-11.8559
कोंबड्या	-11.8559
क्रिटिकल	-11.8559
खिडकी	-11.8559
ग्रंथालय	-11.8559
ग्रंथी	-11.8559
छत्तीसगड	-11.8559
जीवनसत्व	-11.8559
टॉवेल्स	-11.8559
ट्रान्सक्रिप्	-11.8559
निविदा	-11.8559
नोकरदार	-11.8559
न्युक्लिओ	-11.8559
पारंपारिक	-11.8559
फार्मास्युटिकल	-11.8559
बदनाम	-11.8559
मलेशिया	-11.8559
मल्टिमिडीय	-11.8559
मानसोपचार	-11.8559
लायब्ररी	-11.8559
लॅन्सेट	-11.8559
सगळा	-11.8559
सॅम्पल	-11.8559
आरबीडी	-11.8559
कंत्राट	-11.8559
कन्टेन्	-11.8559
फिजिशि	-11.8559
ब्रायन	-11.8559
रक्तद्रव्य	-11.8559
शिबिर	-11.8559
ोल्युशन	-11.8559
अग्नी	-11.8559
आतड्यां	-11.8559
घोळ	-11.8559
टाईप	-11.8559
सिव्हेट	-11.8559
vaccin	-11.8559
मेंदू	-11.8559
bio	-11.8559
पोलाद	-11.8559
1.4	-11.8559
अंत्यविधी	-11.8559
इराक	-11.8559
जैन	-11.8559
रुपांतर	-11.8559
ड्युटी	-11.8559
मंदिरा	-11.8559
सोर्स	-11.8559
निर्वाण	-11.8559
गुंतलेल	-11.8559
ओलसर	-11.8559
फ्युज	-11.8559
वगैरे	-11.8559
अंतः	-11.8559
गव्हर्न	-11.8559
संमती	-11.8559
प्रसंग	-11.8559
अॅसिड	-11.856
कोणतं	-11.856
अॅम्ब्युलन्स	-11.856
सर्व्हिसेस	-11.856
सुरवातीला	-11.856
फ्ल्यु	-11.856
निर्धार	-11.856
ट्रीक	-11.856
बॅग	-11.856
यंका	-11.856
म्युटे	-11.856
बॅच	-11.856
पंप	-11.856
न्यूक्लि	-11.856
ग्लोव्	-11.8561
पोखर	-11.8561
गमावलेल्या	-11.8561
▁¦2013	-11.8561
टास्कफोर्सचे	-11.8561
फिल्ड	-11.8561
योगदान	-11.8561
50,000	-11.8561
चाललं	-11.8561
दुर्बल	-11.8562
सांगणार	-11.8562
विक्रेत्यां	-11.8562
महाराजांच	-11.8562
प्राधान्यक्रम	-11.8562
पसंत	-11.8562
सुनावल	-11.8562
बालपणात	-11.8562
६००	-11.8562
राबवि	-11.8563
अभिमान	-11.8563
hiv	-11.8563
आणायच	-11.8563
ससून	-11.8563
टाइड	-11.8564
तिकिट	-11.8564
वंशप्रकार	-11.8564
विश्व	-11.8564
एचओ	-11.8564
ck	-11.8564
ठोक	-11.8565
आयव्ही	-11.8565
फिरणाऱ्या	-11.8565
थोडासा	-11.8566
भाषेत	-11.8566
ima	-11.8566
her	-11.8567
प्रशांत	-11.8568
६८	-11.857
एमडी	-11.857
प्रतिक्ष	-11.857
धुतले	-11.857
संवर्धन	-11.8573
िशिष्ट	-11.8573
ांजल	-11.8573
उपजिल्हा	-11.8574
घेण्यापूर्वी	-11.8575
बोरि	-11.8575
पीडि	-11.8579
सिव्हि	-11.8579
डिस्प	-11.858
म्हणायच	-11.8583
ऑक्	-11.8583
ion	-11.859
बनावटीच	-11.8594
उतरले	-11.8621
निवार	-11.863
बजावल	-11.8637
ठरवाव	-11.8647
▁¦2.4	-11.8653
ेनिया	-11.866
साठवण्या	-11.8661
जणीं	-11.867
बातच	-11.8679
पिट	-11.8683
नवरा	-11.8686
pti	-11.8728
उत्पादकांन	-11.8741
रुम	-11.8756
्बर	-11.8758
पाळण्याच	-11.877
व्हेन	-11.8836
थांबवू	-11.8861
ाइड	-11.8869
िपल	-11.8966
घालव	-11.9012
76	-11.9015
तज्ञां	-11.9022
जिल्ह्यांच	-11.9037
▁¦4000	-11.9118
खेळाच	-11.9126
▁¦58	-11.9164
गण्य	-11.9197
फिरण्या	-11.9235
जिवाणूंच	-11.9244
एमआय	-11.9325
्टाईन	-11.9332
जंतूनाश	-11.9355
चिंतेच	-11.9366
प्रौढां	-11.9385
वटवाघूळ	-11.9395
सेरोलॉज	-11.9417
जगभरा	-11.9421
खाऊ	-11.943
भविष्या	-11.9431
वापरकर्त	-11.9505
हृदयविकाराच	-11.9568
द्वि	-11.9594
उभारल	-11.9688
ग्रॅ	-11.9702
धारावी	-11.9702
संघटनेन	-11.9759
गांभीर्यान	-11.9788
ओळखण	-11.9794
विद्यार्थ	-11.9871
त्सुनामी	-11.9875
काढाव	-11.9906
प्रॅक्टि	-11.9943
टँक	-11.9979
ायदेशीर	-11.998
झपाट	-11.9984
ॅण्ड	-11.9985
त्यक्ष	-11.9985
शौचा	-11.9987
ाधिकाऱ्यां	-11.9987
लॉजिस्ट	-11.9988
ऑब्झ	-11.9988
ऊर्जा	-11.9988
कॉन्फरन्सिंग	-11.9988
खंडपीठा	-11.9988
ख्रिसमस	-11.9988
जबाबदाऱ्या	-11.9988
डायग्नोस्टिक	-11.9988
प्रतिज्ञापत्र	-11.9988
भूमिके	-11.9988
मॅनेजमेंट	-11.9988
रेमडेसिव्हीर	-11.9988
लखनौ	-11.9988
लोपिनावीर	-11.9988
हस्तांतर	-11.9988
hku	-11.9988
ssc	-11.9988
अँटिजेन	-11.9988
अॅस्ट्राजेनिका	-11.9988
अॅस्ट्राझेन्का	-11.9988
आरएटीजी	-11.9988
इंटरफेरॉन	-11.9988
इस्लाम	-11.9988
उत्पत्ती	-11.9988
उद्घाटन	-11.9988
उद्दीष्ट	-11.9988
ओआरएफ	-11.9988
कावासाकी	-11.9988
कॉकटेल	-11.9988
कोट्यवधी	-11.9988
क्रॉन	-11.9988
गडकरी	-11.9988
गणेशोत्सव	-11.9988
गावकऱ्यां	-11.9988
गॉगल	-11.9988
ड्राइव्ह	-11.9988
तेलंगणा	-11.9988
थिएटर	-11.9988
दुरूस्त	-11.9988
निषेध	-11.9988
निष्काळजीपणा	-11.9988
निष्पन्न	-11.9988
परिचारिका	-11.9988
पवित्र	-11.9988
पुनर्वसन	-11.9988
पॉझिटीव्ह	-11.9988
बंदोबस्त	-11.9988
बिनधास्त	-11.9988
बॉक्सिंग	-11.9988
मॉर्बिड	-11.9988
युमिफेनोवीर	-11.9988
लिम्फोसाइट	-11.9988
वंशेतिहासिक	-11.9988
वूहान	-11.9988
व्हेरिएंट	-11.9988
शेतकऱ्यांन	-11.9988
श्वासोच्छवास	-11.9988
साशंक	-11.9988
स्मशाना	-11.9988
स्लॉट	-11.9988
स्वातंत्र्य	-11.9988
हटवण्या	-11.9988
अऩु	-11.9988
आंबेडकर	-11.9988
इंडोनेशिया	-11.9988
उपाहारगृह	-11.9988
गतिशील	-11.9988
ज्योत	-11.9988
ठ्ठ	-11.9988
प्लास्टिक	-11.9988
फायजर	-11.9988
रेमडेसीव	-11.9988
आव्हाड	-11.9988
ईशान्य	-11.9988
तितक्या	-11.9988
बाटल्या	-11.9988
भरपाई	-11.9988
संचलनालय	-11.9988
▁¦2017	-11.9988
सेल्फ	-11.9988
चळवळ	-11.9988
नामकरण	-11.9988
बेरोजगारी	-11.9988
व्हॅल	-11.9988
लष्कर	-11.9988
ब्रश	-11.9988
orth	-11.9988
घाबरण्याच	-11.9988
जिल्हय़ात	-11.9988
खरोखर	-11.9988
लघु	-11.9988
रॅली	-11.9988
संगणक	-11.9988
सीमेवर	-11.9988
डिव्हाई	-11.9988
▁¦1.2	-11.9988
प्रजनन	-11.9988
प्रोफे	-11.9988
medic	-11.9988
कोठे	-11.9988
सुट्ट्या	-11.9988
2-3	-11.9988
आत्मविश्वास	-11.9988
परस्परक्रिया	-11.9988
बक्षी	-11.9988
एंटी	-11.9988
ट्रान्सपोर्ट	-11.9988
पुस्तक	-11.9988
एक्सप्रेस	-11.9988
अभिप्राय	-11.9988
जिंक	-11.9988
इलाज	-11.9988
भिन्न	-11.9988
प्रसिद्धीपत्रक	-11.9988
छाया	-11.9988
एकटेपणा	-11.9989
आपात	-11.9989
विळख	-11.9989
एक्झ	-11.9989
व्यक्तिगत	-11.9989
arg	-11.9989
नेशन्स	-11.9989
सीबीए	-11.9989
उष्ण	-11.999
शिथील	-11.999
नक्षलवाद्यां	-11.999
भक्तां	-11.9992
ex	-11.9992
डोकान	-11.9992
फटकारल	-11.9992
डझन	-11.9993
कुत्र	-11.9993
पटवण्या	-11.9997
तर्क	-11.9998
पहाव	-11.9998
बसवण्या	-11.9998
युवक	-11.9998
ठरवता	-12
जिल्ह्यांत	-12.0001
ढेर	-12.0006
व्हेक्टर	-12.0009
पॉलिस	-12.0009
घशाच	-12.0016
पोहोचवण	-12.0023
जेवणाच	-12.003
आकर्षण	-12.0051
जगण्या	-12.0063
लादले	-12.007
प्रोटिन	-12.0082
ूर्ता	-12.0089
िल्ल	-12.01
औषधांच	-12.0113
निरुप	-12.0126
शिवसेनेच	-12.0181
अध्ययन	-12.0182
वापरायच	-12.0215
ह्रदयाच	-12.0257
वाहनां	-12.0264
उल्	-12.0302
नियामकांकड	-12.0314
गंध	-12.0357
दुर्घटन	-12.036
वर्षाखाल	-12.0378
हस्तक्षेपां	-12.0395
टाळण्याच	-12.0409
ॅक्शन	-12.0413
ani	-12.0421
कोरोनाबाबतच	-12.0436
भोवत	-12.0456
प्रयोगशा	-12.0459
शिकण्या	-12.0472
सर्वसामान्यां	-12.0506
वटवाघूळां	-12.0617
ॅप्लिकेशन	-12.0661
▁¦5000	-12.071
िरवी	-12.0763
तंत्रज्ञां	-12.0831
1,00	-12.1011
प्रतिपिंडांच	-12.102
2014	-12.1118
तिकड	-12.1137
बनलेल	-12.1142
राज्यांकड	-12.1154
पोलिसांकड	-12.118
स्नायूंच	-12.1208
प्रिव्हे	-12.1222
पालकांन	-12.1251
1,6	-12.1251
▁¦5-1	-12.1289
आयुष	-12.1356
उत्पन्नाच	-12.1372
विद्य	-12.1385
वर्तव	-12.1408
द्वा	-12.1442
छाप	-12.1454
रकाव	-12.1519
मुद्द्यां	-12.1527
750	-12.1546
गळे	-12.1588
दुरुस्त	-12.1595
स्वास्थ	-12.161
नक्षम	-12.1612
गुठळ	-12.1639
ँपल	-12.1646
म्युनिस	-12.1649
इलेक्ट्रॉन	-12.165
विक्रेत	-12.1651
उष्	-12.1652
न्फ्लुएन्झा	-12.1652
पृष्ठ	-12.1652
लंबित	-12.1652
रक्षक	-12.1653
स्टिट्युट	-12.1654
इन्स्टिट्य	-12.1654
orf	-12.1654
्रोमाय	-12.1654
फिजीशि	-12.1654
सेल्शिय	-12.1654
with	-12.1654
अॅम्बुलन्स	-12.1654
अॅलर्जी	-12.1654
ऑर्गनायझेशन	-12.1654
कॉर्नेल	-12.1654
झारखंड	-12.1654
डिटर्जंट	-12.1654
तंत्रिकातंतु	-12.1654
तिनिधि	-12.1654
दोघं	-12.1654
पध्दती	-12.1654
पॅसिफिक	-12.1654
फॉल्	-12.1654
फ्रान्सिस्को	-12.1654
बहिणी	-12.1654
युनिसेफ	-12.1654
यूपीएससी	-12.1654
रॅमडेसिवीर	-12.1654
विकिमिडिया	-12.1654
विद्राव्य	-12.1654
वेन्टिलेशन	-12.1654
व्हॉट्सअप	-12.1654
श्वसनशोथ	-12.1654
सारांश	-12.1654
साहजिक	-12.1654
हल्ल्या	-12.1654
हाईड्र	-12.1654
हैद्राबाद	-12.1654
हॉंगकॉंग	-12.1654
*	-12.1654
nyu	-12.1654
wiv	-12.1654
अन्ननलिके	-12.1654
आकस्मिक	-12.1654
आयसीएमआर	-12.1654
आयसोलेट	-12.1654
आर्द्रत	-12.1654
इंग्रजी	-12.1654
इक्विपमेंट	-12.1654
उत्तरार्धा	-12.1654
एकंदरीत	-12.1654
ऑस्ट्रिया	-12.1654
किनाऱ्या	-12.1654
कोविशिल्ड	-12.1654
गर्भनिरोधक	-12.1654
गर्भारपण	-12.1654
गौरव	-12.1654
चक्रीवादळा	-12.1654
टाइम्स	-12.1654
ढोबळ	-12.1654
तहसीलदार	-12.1654
ताबडतो	-12.1654
दोघे	-12.1654
धैर्य	-12.1654
पीटीआय	-12.1654
पॉलिमरे	-12.1654
प्रतिद्रव्य	-12.1654
प्रॉडक्ट	-12.1654
फॉर्मुलेशन	-12.1654
बांगलादेश	-12.1654
मजुरी	-12.1654
मनोरंजन	-12.1654
मुनगंटीव	-12.1654
मुस्लिम	-12.1654
रत्नागिरी	-12.1654
वसाहती	-12.1654
विशेषज्ञ	-12.1654
विश्वासार्ह	-12.1654
वॅक्सिन	-12.1654
वेबसाइट	-12.1654
संप्रेषण	-12.1654
सिक्वेन्स	-12.1654
सिम्प्ट	-12.1654
सेरेब्र	-12.1654
स्वीडन	-12.1654
हिंगोली	-12.1654
ेष्ठ	-12.1654
illa	-12.1654
अभिवादन	-12.1654
आऊट	-12.1654
उद्योगधंद	-12.1654
जबरदस्त	-12.1654
टेक्नि	-12.1654
पुरूषां	-12.1654
फर्स्ट	-12.1654
मलेरिया	-12.1654
वाईप्स	-12.1654
वेन्टिलेटर	-12.1654
सर्व्हेलन्स	-12.1654
हंगेर	-12.1654
ॅमिनो	-12.1654
ॲ	-12.1654
उपायुक्त	-12.1654
क्राळ	-12.1654
डीएनए	-12.1654
दर्शविले	-12.1654
लोकसत्ता	-12.1654
हरयाणा	-12.1654
हिंदु	-12.1654
ड्ब्ल	-12.1654
हद्दीत	-12.1654
उल्लेखनीय	-12.1654
क्रायो	-12.1654
गर्ग	-12.1654
गळती	-12.1654
लक्ष्मी	-12.1654
हलवण्या	-12.1654
खाल्ल्या	-12.1654
मुख्यत्वे	-12.1654
इन्व्हेस	-12.1654
जुलाब	-12.1654
ट्रान्समेम्ब्रेन	-12.1654
पोर्टलवर	-12.1654
पिढी	-12.1654
क्वचित	-12.1654
चंद्रपुरात	-12.1654
झूम	-12.1654
विकेंड	-12.1654
कोचिंग	-12.1654
पहाटे	-12.1654
▁¦1.8	-12.1654
समीक्ष	-12.1654
उषा	-12.1654
धमकी	-12.1654
सेशन्स	-12.1654
तारखा	-12.1654
टर्की	-12.1654
आस्थापने	-12.1655
बालनिग	-12.1655
कन्व्हर्	-12.1655
सत्ते	-12.1655
कामानिमित्त	-12.1655
कहाणी	-12.1655
घातलं	-12.1655
दडपण	-12.1655
बोटीवर	-12.1655
क्लोराई	-12.1655
प्रायम	-12.1655
मंगल	-12.1655
इंस्टीट्युट	-12.1655
जालना	-12.1655
शंभर	-12.1655
बुल	-12.1655
गरिब	-12.1655
ator	-12.1655
,500	-12.1655
दरवाजा	-12.1655
नुसत	-12.1655
कोरीया	-12.1655
भांडवल	-12.1655
कसरत	-12.1656
जाणवणार	-12.1656
पावला	-12.1656
जाणकारांच	-12.1656
प्रोफा	-12.1656
वाटचाल	-12.1656
बैद	-12.1656
साखरेच	-12.1656
विपणन	-12.1657
ॅॅब	-12.1657
जळगाव	-12.1657
ायटिस	-12.1657
ास्पद	-12.1659
पोहोचवता	-12.1659
समर्प	-12.1659
टोपणना	-12.166
क्लीनि	-12.166
तितके	-12.1661
भोवताल	-12.1662
सिएट	-12.1663
मशिन	-12.1665
पत्कर	-12.1666
प्रीक्लिन	-12.1668
शिकवत	-12.1672
लिलाव	-12.1681
शून्य	-12.1687
चोळण्या	-12.1695
्वेलर	-12.1713
अभियंत	-12.1714
संतुल	-12.1728
चर्चेच	-12.1733
्मल	-12.1751
वासीयां	-12.1758
प्रत्य	-12.184
िहार	-12.1862
अनुयाय	-12.1912
जागरूक	-12.1929
अंध	-12.1973
दगावल	-12.1988
पावत	-12.2019
तत्त्वां	-12.2035
617	-12.2093
लाखोंच	-12.2126
िकृति	-12.2137
शेजार	-12.2137
आयुक्तांन	-12.2267
प्रशासक	-12.2281
प्रभावाच	-12.2403
ऑस्ट्रेलिय	-12.2466
ठरवू	-12.2497
ढकलण्याच	-12.2523
लांबीच	-12.2565
पुरवठादारांन	-12.2568
पाश्	-12.2601
देशांकड	-12.2652
फुटांच	-12.2703
घालवण्या	-12.2947
कम्युनि	-12.2986
्ल्यू	-12.3091
खवखव	-12.3247
ठाण्या	-12.3335
विदर्भ	-12.3467
यकृताच	-12.3478
tur	-12.3537
दृष्टीन	-12.3577
सेकंदां	-12.3595
बनावट	-12.3597
कर्मचार	-12.3597
बंधनां	-12.3614
दैवान	-12.3619
!	-12.3621
इथल	-12.3648
नक्षलवाद	-12.365
ंड्रोम	-12.3653
सर्व्हिस	-12.3653
परस्पर	-12.3654
आत्म	-12.3654
पंढरप	-12.3654
facebook	-12.3654
अंत्य	-12.3654
पॉझिटिव	-12.3654
syndrom	-12.3654
इम्युनोसप्रे	-12.3654
पॉईंट	-12.3654
’	-12.6121
×	-12.6154
_	-12.6154
α	-12.9488
“	-13.4455
=	-13.4488
β	-13.4488
ऎ	-13.4488
—	-13.4488
]	-14.4456
?	-14.4457
%	-14.4486
ऱ	-14.4487
~	-14.4488
ß	-14.4488
å	-14.4488
γ	-14.4488
ॉ	-14.4488
