<pad>	0
</s>	0
<unk>	0
¦	-1.15669
▁¦	-1.64629
▁	-2.8001
𐋇	-3.23903
s	-3.92498
the	-3.93661
▁.	-4.27758
▁,	-4.42586
of	-4.76196
in	-4.80216
ed	-4.81012
a	-4.82907
to	-4.87452
ing	-5.17864
and	-5.20094
is	-5.20371
th	-5.43627
be	-5.4747
at	-5.64057
y	-5.70889
𐊣	-5.7255
𐊼	-5.7255
on	-5.81961
for	-5.92952
t	-6.02885
are	-6.10771
-	-6.10887
ly	-6.11069
corona	-6.16695
en	-6.21688
d	-6.22275
has	-6.22362
▁'	-6.28314
have	-6.31308
with	-6.3515
it	-6.44561
vaccine	-6.48291
as	-6.4951
will	-6.50541
e	-6.5273
from	-6.53137
not	-6.58696
n	-6.58732
patient	-6.58799
w	-6.60672
was	-6.64387
by	-6.66204
or	-6.6666
state	-6.7563
an	-6.79438
pe	-6.81636
▁"	-6.85366
government	-6.87941
said	-6.90239
covid	-6.90847
ople	-6.91376
there	-6.92262
al	-6.92468
day	-6.94924
i	-6.9671
health	-6.9786
▁(	-7.0022
se	-7.01768
lso	-7.05224
number	-7.14585
but	-7.15133
he	-7.15451
virus	-7.1612
were	-7.17852
we	-7.19762
▁?	-7.20265
can	-7.24722
if	-7.25721
other	-7.2576
c	-7.26041
one	-7.27259
-19¦	-7.28194
after	-7.28505
v	-7.28983
hospital	-7.29339
minister	-7.30827
ies	-7.33465
r	-7.33934
who	-7.3412
should	-7.3804
had	-7.40608
us	-7.40834
test	-7.42009
how	-7.42019
co	-7.4475
all	-7.45774
you	-7.4895
oxygen	-7.49457
ir	-7.49928
▁)	-7.51002
some	-7.51715
es	-7.53672
maha	-7.53865
no	-7.54167
er	-7.54895
rashtr	-7.56389
india	-7.56667
more	-7.57099
▁:	-7.57183
infection	-7.58126
so	-7.5873
out	-7.62045
abou	-7.63068
case	-7.63562
lockdown	-7.63837
vaccination	-7.64447
say	-7.65656
time	-7.65858
many	-7.67742
dr	-7.67795
may	-7.68225
m	-7.71413
than	-7.7167
year	-7.71724
disease	-7.73324
new	-7.73354
work	-7.77877
district	-7.78726
what	-7.79464
do	-7.826
per	-7.85112
according	-7.86253
take	-7.86394
ity	-7.86545
country	-7.86806
center	-7.88465
being	-7.89085
high	-7.89241
use	-7.89257
hich	-7.91006
hile	-7.92493
first	-7.93777
last	-7.94776
re	-7.94806
up	-7.96899
increase	-7.97246
spread	-7.97503
two	-7.97663
second	-7.97871
under	-7.97992
found	-7.985
.	-7.98728
world	-8.00411
such	-8.00842
b	-8.01017
ever	-8.01225
go	-8.01422
when	-8.01863
o	-8.02996
symptom	-8.04123
due	-8.04178
march	-8.05243
sars	-8.0535
school	-8.05913
g	-8.06458
over	-8.06515
like	-8.07512
hand	-8.07636
sh	-8.07869
any	-8.08594
l	-8.0906
need	-8.09212
mumbai	-8.09846
start	-8.09846
cause	-8.10223
dur	-8.10636
children	-8.11031
home	-8.11744
chief	-8.1223
death	-8.12232
ion	-8.12519
medical	-8.12801
st	-8.13608
coronavirus	-8.14247
doctor	-8.14425
infect	-8.15209
now	-8.16323
situation	-8.16922
april	-8.18708
▁¦2020¦	-8.19044
his	-8.19647
dose	-8.19844
treatment	-8.20078
wave	-8.20789
di	-8.21178
p	-8.21835
ill	-8.21949
every	-8.2287
public	-8.22913
care	-8.24921
ce	-8.25025
even	-8.2529
wh	-8.25992
countries	-8.26188
system	-8.26293
give	-8.27303
ose	-8.27383
your	-8.2746
get	-8.2908
available	-8.29289
person	-8.29993
most	-8.31025
risk	-8.31603
mask	-8.33698
rate	-8.34354
agains	-8.34954
come	-8.36792
ay	-8.37144
develop	-8.37831
hav	-8.38222
cent	-8.39052
vaccinat	-8.39667
our	-8.39835
pune	-8.39845
▁¦10	-8.39943
chin	-8.40096
,	-8.40375
current	-8.40797
through	-8.41119
ment	-8.41607
age	-8.42082
restriction	-8.42091
ation	-8.42331
where	-8.42769
includ	-8.42874
▁."	-8.43477
tak	-8.43517
worker	-8.44618
formation	-8.45361
place	-8.4557
effective	-8.45742
made	-8.45743
acker	-8.46657
human	-8.46756
way	-8.46875
reported	-8.47839
large	-8.48122
-2	-8.49059
well	-8.50227
outbreak	-8.50934
area	-8.51968
able	-8.52319
contact	-8.52716
beds	-8.52808
▁;	-8.53388
central	-8.54533
k	-8.54726
control	-8.55015
report	-8.5573
bas	-8.56192
follow	-8.564
de	-8.5656
ould	-8.57061
them	-8.57079
lakh	-8.57912
,000	-8.57983
drug	-8.58223
know	-8.58555
announc	-8.58693
issue	-8.59048
level	-8.59835
student	-8.59835
et	-8.60764
important	-8.61008
u	-8.61126
call	-8.61802
month	-8.62595
un	-8.62725
unit	-8.63359
municipal	-8.63393
long	-8.63415
its	-8.64254
administration	-8.64632
did	-8.64852
ether	-8.64987
service	-8.65016
allow	-8.65506
testing	-8.66247
rs	-8.66603
affect	-8.66665
ous	-8.66819
ve	-8.67448
▁).	-8.67785
ic	-8.67851
hour	-8.68432
part	-8.68561
same	-8.68796
help	-8.69048
travel	-8.69097
demand	-8.69192
education	-8.69192
positive	-8.69211
round	-8.69587
am	-8.69686
body	-8.70473
data	-8.70514
citizens	-8.71428
mean	-8.71488
prevent	-8.71678
respirator	-8.71783
ive	-8.71916
ry	-8.72077
le	-8.72208
▁-	-8.72412
decision	-8.72662
supply	-8.72662
increasing	-8.73105
few	-8.7311
does	-8.74136
million	-8.74444
present	-8.74505
before	-8.74786
▁¦1¦	-8.75327
question	-8.75347
meeting	-8.75436
twee	-8.75785
udd	-8.76379
crore	-8.76717
rule	-8.76952
me	-8.76962
line	-8.77134
set	-8.77197
hands	-8.7792
three	-8.78107
jan	-8.78345
department	-8.78573
order	-8.79004
f	-8.79463
modi	-8.79499
washing	-8.79734
uk	-8.79752
provide	-8.80343
less	-8.80426
social	-8.80465
▁),	-8.80546
very	-8.80867
clos	-8.8154
show	-8.81664
could	-8.81998
na	-8.82443
giv	-8.82459
prim	-8.8297
delhi	-8.8337
thousand	-8.83373
then	-8.838
ten	-8.84262
speak	-8.85224
severe	-8.85477
app	-8.85677
period	-8.86871
private	-8.86871
since	-8.86901
emergenc	-8.86985
institute	-8.87381
trial	-8.87423
organization	-8.87897
week	-8.87957
expert	-8.88409
uary	-8.88707
local	-8.88928
campaign	-8.89448
possibl	-8.89855
/	-8.90155
different	-8.90498
bb	-8.90703
la	-8.90861
include	-8.91879
make	-8.92276
sample	-8.92327
ask	-8.92697
open	-8.93487
study	-8.93715
don	-8.93828
office	-8.9394
▁¦6	-8.94169
research	-8.94186
though	-8.94235
low	-8.94347
tion	-8.94434
shortage	-8.94832
endra	-8.94839
police	-8.95436
2¦	-8.9562
wide	-8.95925
national	-8.96055
far	-8.9626
effect	-8.96462
phase	-8.97072
ers	-8.97143
man	-8.97937
9¦	-8.98071
fore	-8.98528
est	-8.9882
rapid	-8.99319
thing	-8.99521
clinical	-8.99911
company	-9.00795
general	-9.01107
both	-9.0143
ness	-9.01472
direct	-9.01525
grow	-9.01655
ld	-9.01765
ma	-9.01891
ministr	-9.02248
▁¦12	-9.02821
lance	-9.03079
four	-9.03465
reach	-9.03678
february	-9.0404
universit	-9.0404
change	-9.04158
reason	-9.04647
union	-9.04691
ar	-9.04736
air	-9.049
wom	-9.05317
blood	-9.05869
end	-9.06762
j	-9.06869
measures	-9.06918
quarantine	-9.07264
continue	-9.07886
ural	-9.079
cit	-9.07987
recommend	-9.08339
among	-9.08995
sever	-9.096
pandemic	-9.09631
village	-9.10272
regard	-9.10917
reduce	-9.10923
total	-9.10941
ance	-9.11033
back	-9.11565
market	-9.11571
ventilator	-9.11595
▁¦11	-9.12129
avoid	-9.1222
il	-9.12246
h	-9.12264
try	-9.123
4¦	-9.12316
my	-9.12733
surveil	-9.12879
third	-9.12883
contain	-9.14208
came	-9.1427
complete	-9.14713
kar	-9.14802
response	-9.14878
▁¦2¦	-9.15043
media	-9.15178
she	-9.15505
old	-9.15528
▁¦50	-9.15549
transmission	-9.15554
done	-9.15735
heart	-9.16287
▁¦30	-9.16366
here	-9.16382
become	-9.16484
him	-9.16554
ary	-9.16733
pur	-9.17063
down	-9.1774
much	-9.18306
result	-9.18412
close	-9.18753
face	-9.18974
treat	-9.18984
essential	-9.19003
keep	-9.19005
coming	-9.19103
again	-9.19605
▁¦5¦	-9.19625
population	-9.19708
indian	-9.1972
producti	-9.2032
problem	-9.20416
process	-9.20441
1¦	-9.20484
approv	-9.21031
kovid	-9.2115
force	-9.21214
raje	-9.21231
impos	-9.2151
rum	-9.21667
conduct	-9.21863
percent	-9.21874
five	-9.21876
family	-9.21996
▁¦15¦	-9.22209
corporation	-9.22574
soap	-9.22576
early	-9.22744
limit	-9.23282
stay	-9.23393
further	-9.2404
relative	-9.24055
fever	-9.2409
▁¦8	-9.24169
hc	-9.24185
vari	-9.24202
type	-9.24312
ke	-9.24451
li	-9.24453
nex	-9.24506
▁¦18	-9.24701
nagpur	-9.25527
group	-9.25786
pm	-9.2586
fa	-9.26265
confirm	-9.26279
water	-9.26291
bat	-9.26802
difficult	-9.27036
medicine	-9.27036
fight	-9.27046
shop	-9.27131
▁¦7	-9.27253
her	-9.27261
serious	-9.278
support	-9.278
crisi	-9.27988
development	-9.28089
officer	-9.28258
relat	-9.28526
similar	-9.28569
fire	-9.28593
global	-9.29344
acros	-9.29599
pain	-9.2961
ches	-9.29916
register	-9.30125
passenger	-9.30125
chinese	-9.30126
ro	-9.3023
release	-9.30286
tory	-9.30496
president	-9.3092
free	-9.30925
conditions	-9.31162
each	-9.31504
nar	-9.31528
6	-9.31573
immediate	-9.31706
half	-9.31709
remain	-9.31729
learn	-9.31852
good	-9.3252
ical	-9.32776
small	-9.32824
parent	-9.33073
action	-9.33138
lung	-9.33317
sent	-9.33594
7¦	-9.3368
distance	-9.3387
exam	-9.34092
ra	-9.34473
con	-9.34821
facilit	-9.34837
lack	-9.34912
transport	-9.34946
▁¦20¦	-9.35199
strain	-9.35736
concern	-9.35772
protect	-9.36124
cell	-9.36484
staff	-9.36605
animal	-9.36606
want	-9.37182
pr	-9.37328
▁¦24¦	-9.37356
strict	-9.37385
house	-9.37424
practice	-9.37445
sure	-9.37959
admitted	-9.38293
addition	-9.384
six	-9.38535
non	-9.38632
condition	-9.38878
ok	-9.3888
into	-9.3912
z	-9.39123
common	-9.39157
touch	-9.39159
proper	-9.39168
wear	-9.39255
see	-9.39296
▁¦3	-9.39661
tope	-9.39795
self	-9.39828
college	-9.4001
5¦	-9.40219
5	-9.40436
war	-9.40703
leas	-9.40734
▁¦19¦	-9.40876
critical	-9.40879
uhan	-9.40969
night	-9.40989
class	-9.41105
00¦	-9.41127
epidemic	-9.41756
claim	-9.41831
pass	-9.41839
hel	-9.41934
inform	-9.42088
dai	-9.42283
major	-9.42641
young	-9.42642
te	-9.42966
task	-9.43044
4	-9.43252
injection	-9.43539
safety	-9.4354
post	-9.43554
jun	-9.4425
vs	-9.44377
monitor	-9.44435
host	-9.44568
closures	-9.45179
gett	-9.45301
implement	-9.45322
▁¦16	-9.4535
head	-9.4536
community	-9.45463
id	-9.45557
ning	-9.45842
remedesivir	-9.46262
mers	-9.46307
put	-9.46618
term	-9.4719
covac	-9.47201
cough	-9.47248
▁¦3¦	-9.47267
um	-9.4758
plan	-9.4802
examination	-9.48125
food	-9.4813
flu	-9.48178
clear	-9.48417
gan	-9.4878
requir	-9.48812
crowd	-9.48968
active	-9.49036
immune	-9.4908
happen	-9.49154
shield	-9.49164
consider	-9.49175
plann	-9.49196
receiv	-9.49252
bo	-9.49406
name	-9.49595
hi	-9.49913
ace	-9.50095
cold	-9.50528
weeks	-9.50839
look	-9.50983
icu	-9.51153
factor	-9.51192
▁¦14¦	-9.51204
ch	-9.51324
side	-9.51614
prade	-9.51645
form	-9.51779
capacit	-9.51951
election	-9.51971
▁¦100	-9.52007
estimate	-9.52131
companie	-9.52665
antibod	-9.52673
marath	-9.52819
evidence	-9.52931
return	-9.52946
3¦	-9.5308
director	-9.53176
mutation	-9.53927
south	-9.53927
board	-9.53932
kill	-9.53993
right	-9.54031
cost	-9.54194
project	-9.54921
bjp	-9.54921
guideline	-9.54922
talk	-9.5493
big	-9.54931
bharat	-9.54953
▁¦1	-9.55021
▁!	-9.55338
tic	-9.55653
ex	-9.56355
results	-9.56791
breath	-9.56849
amravati	-9.56951
protein	-9.56951
viral	-9.5702
expected	-9.5708
stage	-9.57893
discuss	-9.57952
variant	-9.5799
tweet	-9.58067
cities	-9.58111
special	-9.58269
ka	-9.58506
own	-9.58783
dis	-9.59019
biotech	-9.59022
december	-9.59024
court	-9.59025
studie	-9.59025
▁¦200	-9.59205
ne	-9.59222
ally	-9.59383
train	-9.59927
produce	-9.59969
safe	-9.60074
check	-9.60077
europe	-9.60077
genome	-9.60077
statistic	-9.60077
deliver	-9.60082
letter	-9.60089
outside	-9.6013
provid	-9.611
room	-9.61138
cute	-9.61141
express	-9.61145
1	-9.61444
lives	-9.61537
8¦	-9.61949
fear	-9.62219
seem	-9.62473
pawa	-9.62495
mort	-9.6283
clean	-9.6287
visit	-9.63323
italy	-9.63354
decid	-9.63376
ough	-9.63647
▁¦4	-9.63864
lot	-9.64027
▁¦4¦	-9.64328
appear	-9.64393
authorit	-9.64401
ture	-9.65261
ially	-9.65271
lead	-9.65452
suggest	-9.65482
taluka	-9.65513
detect	-9.65513
anti	-9.65532
think	-9.65555
pra	-9.65758
times	-9.65841
cur	-9.6602
▁¦2019	-9.66561
add	-9.66578
diagnos	-9.66629
bio	-9.6665
begin	-9.66654
0¦	-9.66703
diseases	-9.66788
▁,"	-9.66868
recover	-9.67263
ight	-9.67365
store	-9.67413
unti	-9.67627
polic	-9.67628
survey	-9.67773
sector	-9.67773
figure	-9.67773
front	-9.67773
recent	-9.67899
rna	-9.6804
news	-9.68079
leader	-9.68138
officials	-9.68147
challenge	-9.68154
find	-9.68355
kit	-9.6836
let	-9.6847
considered	-9.6876
fund	-9.68927
mild	-9.68928
specific	-9.68929
international	-9.68933
enter	-9.68964
require	-9.69209
olation	-9.69248
declin	-9.69484
espec	-9.69922
necessar	-9.70066
industr	-9.70079
record	-9.70085
full	-9.70535
others	-9.71243
alcohol	-9.71261
negative	-9.71261
pneumonia	-9.71261
life	-9.71267
review	-9.71289
vaccinate	-9.71793
▁¦60	-9.71805
experience	-9.71842
needs	-9.71851
“	-9.72452
economic	-9.7247
short	-9.72483
run	-9.72577
dry	-9.72927
fu	-9.73156
tri	-9.73319
stock	-9.73656
▁¦25	-9.73668
later	-9.73706
aid	-9.73723
political	-9.73731
gp	-9.738
ia	-9.74349
stop	-9.74608
ty	-9.74609
wash	-9.74672
pfizer	-9.74876
secretary	-9.74879
step	-9.749
illness	-9.74932
event	-9.75216
initial	-9.7522
pre	-9.75298
jit	-9.75854
effort	-9.76111
suspect	-9.76111
business	-9.76111
senior	-9.76111
child	-9.76114
ish	-9.76343
chain	-9.76602
influenza	-9.77361
▁%)	-9.77361
sanitizer	-9.77405
drugs	-9.77592
raj	-9.78067
im	-9.7808
ab	-9.78216
produc	-9.78319
stor	-9.78485
manda	-9.7855
bh	-9.78803
▁¦22	-9.78835
▁¦2	-9.78932
drop	-9.78977
undergo	-9.79117
rt	-9.7918
publish	-9.79908
september	-9.79909
▁¦2021¦	-9.79909
extend	-9.79994
great	-9.80094
nagar	-9.80286
healthcare	-9.80354
creat	-9.80482
vi	-9.80834
just	-9.81203
suffer	-9.81207
answer	-9.81208
impact	-9.81208
employee	-9.8121
infectious	-9.81215
flight	-9.81221
uttar	-9.81259
waste	-9.82116
cdc	-9.82558
commissioner	-9.82639
soon	-9.82723
fill	-9.82767
once	-9.83353
collect	-9.83577
inter	-9.83599
date	-9.83709
oxford	-9.83856
spite	-9.83857
stress	-9.83857
team	-9.83883
▁¦17	-9.84305
abo	-9.84436
rise	-9.84457
manage	-9.84819
main	-9.849
additional	-9.85036
commission	-9.85089
member	-9.85172
gi	-9.85175
societ	-9.85208
▁'.	-9.86424
tter	-9.86444
ship	-9.86468
earlie	-9.86578
example	-9.86578
application	-9.86579
syndrome	-9.86582
instruction	-9.86589
financial	-9.86604
astra	-9.86639
individuals	-9.87153
ri	-9.8758
ur	-9.876
car	-9.87617
▁”	-9.88526
mo	-9.88833
off	-9.88881
temperature	-9.89375
maintain	-9.89376
sick	-9.89376
hotel	-9.89376
technolog	-9.8938
act	-9.8966
sign	-9.89773
statement	-9.8989
supplie	-9.90098
ct	-9.90249
pal	-9.9044
navi	-9.905
significant	-9.90812
already	-9.90877
laboratory	-9.91008
ja	-9.9112
pay	-9.91176
ent	-9.91315
ram	-9.91325
slow	-9.9172
chang	-9.91977
rais	-9.92027
live	-9.922
genetic	-9.92254
▁¦40¦	-9.92266
scientist	-9.92275
association	-9.92279
single	-9.9229
cy	-9.92455
rc	-9.92478
mor	-9.92647
toll	-9.92727
real	-9.92887
caus	-9.92924
compar	-9.93283
abilit	-9.93292
ant	-9.93343
near	-9.93385
▁¦28	-9.9344
ppe	-9.93655
view	-9.93683
previous	-9.93723
zeneca	-9.93723
symptomatic	-9.93724
minute	-9.93725
appeal	-9.93728
curfew	-9.93745
perform	-9.93776
past	-9.93794
dep	-9.94183
manufactur	-9.94184
deep	-9.94438
leaders	-9.94826
official	-9.94917
committee	-9.95216
pcr	-9.95221
kumar	-9.95235
▁¦45	-9.95336
option	-9.95446
stopp	-9.95637
nurse	-9.95638
po	-9.96286
victim	-9.96731
region	-9.96731
permission	-9.96749
must	-9.96758
trac	-9.96771
attend	-9.96923
lab	-9.96949
west	-9.97235
east	-9.97359
read	-9.97375
card	-9.97379
land	-9.97467
uty	-9.97474
too	-9.97829
x	-9.97949
lower	-9.98249
virolog	-9.98268
benefit	-9.98269
discussion	-9.98314
went	-9.98432
nation	-9.98595
ac	-9.98731
rsc	-9.98746
▁".	-9.99052
writ	-9.99178
gav	-9.99208
▁/	-9.99281
▁¦23	-9.99502
primar	-9.99575
protocol	-9.99832
solution	-9.99832
hygien	-9.99832
journalist	-9.99832
exposure	-9.99833
point	-9.99835
identifi	-9.99915
role	-9.99935
collector	-9.99989
0	-10.0011
save	-10.0014
mmunity	-10.0021
ful	-10.0086
led	-10.0086
feel	-10.0087
▁¦31¦	-10.0125
reduc	-10.0139
video	-10.0142
usual	-10.0142
sunday	-10.0148
lef	-10.0148
tanker	-10.0149
ting	-10.0154
create	-10.0173
phe	-10.0173
german	-10.0212
par	-10.023
fast	-10.0244
8	-10.0258
mela	-10.0261
inciden	-10.0279
code	-10.0305
agenc	-10.0306
ovel	-10.031
opposi	-10.0315
9	-10.0334
antibody	-10.0361
walk	-10.0375
ttle	-10.0386
hind	-10.0413
50¦	-10.0416
personal	-10.0425
covi	-10.0434
famil	-10.0434
potential	-10.0445
3	-10.0446
pro	-10.0451
late	-10.0454
got	-10.0464
associat	-10.0464
friday	-10.0467
equipment	-10.0467
contract	-10.0468
wait	-10.0472
▁¦80	-10.0475
tention	-10.0506
ivir	-10.0518
▁¦13	-10.052
die	-10.0525
ash	-10.0576
ban	-10.06
ilit	-10.0619
declar	-10.0627
entire	-10.0634
chandra	-10.0634
standard	-10.0634
surface	-10.0634
kumbh	-10.0635
bank	-10.0636
observ	-10.069
thane	-10.0702
han	-10.0706
controll	-10.0755
men	-10.0759
–	-10.0776
ial	-10.0793
break	-10.0798
ward	-10.0801
access	-10.0803
congress	-10.0803
matter	-10.0805
paper	-10.0806
researcher	-10.0829
nose	-10.0837
light	-10.087
product	-10.0925
▁¦26	-10.0928
tog	-10.0953
import	-10.0976
method	-10.0976
pressure	-10.0976
diarrhea	-10.0978
shik	-10.0979
ate	-10.0981
leave	-10.0981
former	-10.0995
track	-10.1002
finding	-10.1062
table	-10.1064
hu	-10.1127
occasion	-10.1151
scale	-10.1151
exist	-10.1152
job	-10.1152
press	-10.1162
sequenc	-10.1168
iz	-10.1191
7	-10.1225
quin	-10.1286
fee	-10.1311
danger	-10.1312
fac	-10.1316
decide	-10.1318
ble	-10.1318
address	-10.133
location	-10.133
chloro	-10.133
exact	-10.1331
▁¦20	-10.1341
tell	-10.1347
ber	-10.1356
sha	-10.1359
eight	-10.1375
2	-10.1384
ood	-10.1406
advis	-10.1446
hit	-10.1451
prevalen	-10.1487
launch	-10.1512
patil	-10.1514
pat	-10.152
▁¦90	-10.1525
ago	-10.1529
remedivi	-10.1534
ut	-10.157
bed	-10.1629
onu	-10.1649
njay	-10.1653
om	-10.1665
certain	-10.1695
material	-10.1697
particular	-10.1697
menstrua	-10.1697
power	-10.1697
micro	-10.1697
responsibilit	-10.1697
antiviral	-10.1698
remedic	-10.1699
modern	-10.1706
final	-10.1707
liqu	-10.1708
cross	-10.1711
teacher	-10.1724
win	-10.174
twi	-10.1754
notice	-10.1755
ather	-10.1861
religio	-10.1871
hug	-10.1882
establish	-10.1883
availab	-10.1884
diabetes	-10.1886
list	-10.1892
statu	-10.1894
amount	-10.1896
building	-10.1906
bring	-10.1917
preventi	-10.1933
mr	-10.1937
operation	-10.1947
▁¦21¦	-10.1972
recovered	-10.2024
occur	-10.205
criticiz	-10.2078
foreign	-10.2078
difference	-10.2078
cylinder	-10.2078
separate	-10.2078
average	-10.2078
account	-10.2078
railway	-10.2078
securit	-10.208
ba	-10.2098
el	-10.2103
ready	-10.211
tru	-10.2137
super	-10.2152
groups	-10.2205
fic	-10.2206
lo	-10.2214
econom	-10.2271
source	-10.2272
mind	-10.2272
program	-10.2272
multi	-10.2274
schedule	-10.2274
network	-10.2274
ca	-10.232
ted	-10.2324
send	-10.2328
95¦	-10.2366
priorit	-10.2394
ho	-10.2405
seven	-10.2443
43	-10.2453
ig	-10.2454
ities	-10.2458
ond	-10.2471
science	-10.2474
scheme	-10.2474
vehicle	-10.2474
ghar	-10.2477
ji	-10.2477
franc	-10.2504
met	-10.2509
prepared	-10.2527
plant	-10.2547
mu	-10.2554
hard	-10.2594
advi	-10.2598
mak	-10.2598
door	-10.262
vira	-10.2644
▁¦70	-10.266
season	-10.2669
depend	-10.2677
possibilit	-10.2678
regular	-10.2678
stead	-10.2678
vasai	-10.2678
gym	-10.268
ily	-10.2702
ages	-10.2707
da	-10.2713
sub	-10.272
mp	-10.2725
su	-10.2736
ol	-10.2768
tract	-10.2821
luc	-10.2845
kon	-10.2852
decreas	-10.2868
play	-10.287
distribut	-10.2883
bengal	-10.2886
adult	-10.2886
living	-10.2886
cabin	-10.2886
awareness	-10.2887
swab	-10.2888
origin	-10.2888
distribution	-10.2889
oc	-10.289
law	-10.2894
dev	-10.2947
bacteria	-10.2967
adar	-10.2968
manufacturer	-10.2973
protecti	-10.3008
skin	-10.3014
apart	-10.3082
happ	-10.3084
mi	-10.3089
tu	-10.3098
tensive	-10.3098
mobile	-10.3099
procedure	-10.3099
regulator	-10.3099
target	-10.3099
bird	-10.3099
throat	-10.3099
saturday	-10.3101
natural	-10.3105
update	-10.3126
ni	-10.3131
em	-10.3134
count	-10.3139
tric	-10.3148
vas	-10.3189
design	-10.321
training	-10.3216
mental	-10.3217
cha	-10.3236
cancel	-10.329
scienti	-10.3313
field	-10.3316
announcement	-10.3318
lost	-10.332
hospitaliz	-10.3323
normal	-10.3328
mla	-10.3336
runn	-10.3345
singh	-10.3348
incident	-10.335
eat	-10.3356
fact	-10.3381
bar	-10.3472
histor	-10.3519
▁¦19	-10.3522
jum	-10.3528
detail	-10.3539
mouth	-10.3539
discover	-10.354
desh	-10.3548
brit	-10.3552
whole	-10.3576
organ	-10.3584
ase	-10.364
eu	-10.3691
arsha	-10.3727
gue	-10.3728
jos	-10.373
isolat	-10.3754
turn	-10.3763
adapt	-10.3766
adequate	-10.3766
regulation	-10.3766
vegetable	-10.3766
pharma	-10.3766
rtpcr	-10.3767
rahu	-10.3767
physical	-10.3771
therap	-10.3774
conference	-10.3783
.5	-10.3784
decrease	-10.3786
abad	-10.3875
urs	-10.3885
speci	-10.3908
harsh	-10.393
tara	-10.3932
pu	-10.3938
via	-10.3942
san	-10.3948
shar	-10.395
miss	-10.395
laborator	-10.3965
korea	-10.3984
environment	-10.3998
hundred	-10.3998
platform	-10.3998
adhya	-10.3998
focus	-10.3998
relax	-10.3998
strategi	-10.3998
buy	-10.3998
course	-10.3999
successful	-10.3999
arrest	-10.4
urang	-10.4
price	-10.4
allegation	-10.4
rush	-10.4001
urban	-10.4002
resource	-10.4003
digit	-10.4003
phone	-10.4004
reaction	-10.4009
har	-10.4054
distanc	-10.4074
ul	-10.408
octo	-10.4085
carri	-10.4091
ge	-10.4125
den	-10.4125
ll	-10.4127
ei	-10.4145
shank	-10.4169
ak	-10.4188
hra	-10.4199
ern	-10.4212
africa	-10.4222
russia	-10.4222
kept	-10.4222
sell	-10.4224
request	-10.4237
function	-10.4237
guardian	-10.4237
middle	-10.4237
privacy	-10.4237
receptor	-10.4237
antigen	-10.4237
monday	-10.4237
frequent	-10.4238
black	-10.4246
model	-10.4256
zone	-10.4257
▁¦29	-10.4257
station	-10.4266
ice	-10.4274
closure	-10.4281
participat	-10.4288
aim	-10.4318
move	-10.4338
xi	-10.4355
fil	-10.4375
road	-10.4425
pa	-10.4432
gai	-10.4459
q	-10.4477
attack	-10.448
gujarat	-10.448
november	-10.448
pharmaceutical	-10.448
picture	-10.448
admission	-10.4481
sudden	-10.4483
careful	-10.4487
confus	-10.4502
generat	-10.4522
cod	-10.453
bann	-10.4536
bodie	-10.4617
never	-10.4643
ednes	-10.4651
mal	-10.4653
ali	-10.4667
cov	-10.4697
rought	-10.4703
sola	-10.4711
fl	-10.4714
▁¦27¦	-10.4729
respond	-10.473
appropriate	-10.473
friend	-10.473
vardhan	-10.4731
website	-10.4731
export	-10.4731
delay	-10.4732
dead	-10.4732
contagious	-10.4732
sale	-10.4739
johns	-10.4744
rest	-10.4747
explain	-10.4749
mention	-10.4756
approval	-10.4766
double	-10.477
share	-10.4809
pregnan	-10.4815
kwa	-10.4832
nce	-10.4832
approach	-10.4847
mid	-10.4855
iran	-10.4858
experienc	-10.4861
cil	-10.4881
wal	-10.4885
.7	-10.4893
pan	-10.4917
aster	-10.4933
guid	-10.4941
ha	-10.4943
mother	-10.4943
remov	-10.4954
responsib	-10.4986
accept	-10.4987
constant	-10.4987
serolog	-10.4987
ambulance	-10.4987
brazil	-10.4987
multiple	-10.4987
damage	-10.4987
mukh	-10.4989
inquir	-10.4989
engl	-10.4994
nown	-10.5021
29	-10.5025
cover	-10.5047
ail	-10.508
raw	-10.5081
shut	-10.5083
reli	-10.5117
germ	-10.5141
port	-10.5146
older	-10.5182
rao	-10.5217
presen	-10.5219
ied	-10.5221
agricultur	-10.5235
california	-10.525
subject	-10.525
elder	-10.525
session	-10.525
photo	-10.525
va	-10.525
acid	-10.5252
ud	-10.5289
meter	-10.5295
baba	-10.5297
peak	-10.5345
ves	-10.5355
sistance	-10.5368
operat	-10.5375
cap	-10.5415
cri	-10.5431
thus	-10.545
exercise	-10.5487
coun	-10.549
drive	-10.5505
progress	-10.5518
grocer	-10.552
exclud	-10.552
hyderabad	-10.552
obtain	-10.552
▁%.	-10.552
approximate	-10.552
chron	-10.552
nnes	-10.5521
strong	-10.5523
interest	-10.5523
mis	-10.5524
loss	-10.5527
hypox	-10.5528
border	-10.554
arriv	-10.5543
percentage	-10.5545
poor	-10.5545
fall	-10.5554
rising	-10.5557
outcome	-10.5565
overall	-10.5567
arise	-10.557
link	-10.5589
space	-10.5591
involv	-10.5607
mone	-10.5642
thought	-10.5687
hope	-10.5694
clot	-10.5697
involve	-10.571
du	-10.5727
ip	-10.5738
vit	-10.5763
bi	-10.5766
log	-10.5778
interact	-10.5796
assess	-10.5796
poonawala	-10.5798
spike	-10.5798
hong	-10.5798
dispos	-10.5798
word	-10.5799
believe	-10.58
ident	-10.5808
nath	-10.5808
politic	-10.5847
ought	-10.5847
measure	-10.5884
elimina	-10.5937
analysi	-10.5978
farmer	-10.5994
nc	-10.6004
investigat	-10.6013
meet	-10.6039
combination	-10.608
except	-10.6081
adverse	-10.6084
australia	-10.6084
sufficient	-10.6084
restaurant	-10.6084
capital	-10.6084
failure	-10.6084
medication	-10.6084
suspend	-10.6084
preparation	-10.6086
investigation	-10.6087
section	-10.609
activity	-10.6109
desivir	-10.611
esh	-10.6123
complet	-10.6155
speed	-10.6156
tan	-10.6163
enforce	-10.6168
intend	-10.6169
lon	-10.6174
tend	-10.6218
ver	-10.6231
amit	-10.6259
sur	-10.6331
vid	-10.6333
ai	-10.6345
dom	-10.6351
ventilat	-10.6365
fr	-10.6368
resident	-10.6375
harm	-10.6377
expos	-10.6378
[	-10.6378
introduc	-10.6378
krishna	-10.6378
vijay	-10.6378
inflamma	-10.6378
simple	-10.6378
hydr	-10.6378
toilet	-10.6378
▁...	-10.6379
efficacy	-10.638
spend	-10.6387
message	-10.639
organiz	-10.6392
agent	-10.6403
offer	-10.6406
gathering	-10.6406
sore	-10.6417
fine	-10.642
key	-10.6422
king	-10.6422
mass	-10.6423
broad	-10.6446
gra	-10.6469
amp	-10.6479
ros	-10.6501
raja	-10.6501
ee	-10.6528
▁¦500	-10.6531
gad	-10.6537
bide	-10.6562
▁¦48	-10.6564
pi	-10.6576
receive	-10.6621
mode	-10.6661
cm	-10.6671
&	-10.6681
engineer	-10.6681
enzyme	-10.6681
sputnik	-10.6681
degree	-10.6681
wedding	-10.6681
territori	-10.6681
intermedia	-10.6683
ongo	-10.6686
▁]	-10.6692
fda	-10.6718
closing	-10.6725
etc	-10.6739
ii	-10.6742
unk	-10.6748
understand	-10.6749
ran	-10.6797
clarifi	-10.6814
sun	-10.6829
rem	-10.6833
bc	-10.6836
candidates	-10.6849
44	-10.688
serve	-10.6891
rain	-10.6891
item	-10.6941
gradua	-10.6971
cho	-10.698
warn	-10.6988
employ	-10.6991
profess	-10.6993
domestic	-10.6993
pangolin	-10.6993
typical	-10.6993
device	-10.6995
pathogenic	-10.6995
billion	-10.6995
establishment	-10.6997
chance	-10.7016
transmitt	-10.7031
remove	-10.7041
agar	-10.7043
hear	-10.7049
position	-10.7057
eyes	-10.7085
trum	-10.7105
elief	-10.7124
supplier	-10.7151
decline	-10.7158
bad	-10.7168
covin	-10.7177
med	-10.7178
pai	-10.7187
bal	-10.7188
▁¦35	-10.7188
original	-10.7199
▁¦37	-10.7205
lik	-10.7235
ph	-10.7238
oxy	-10.7249
gas	-10.7268
postpon	-10.7288
kan	-10.7291
exten	-10.7302
ru	-10.7314
controvers	-10.7316
august	-10.7316
organisms	-10.7316
shift	-10.7316
communication	-10.7316
promis	-10.7316
japan	-10.7317
towel	-10.7317
industrial	-10.7318
kera	-10.7318
carry	-10.732
complaint	-10.7325
joint	-10.7329
;	-10.7357
lly	-10.7365
red	-10.7376
vacanc	-10.7376
meal	-10.7391
slam	-10.7392
toward	-10.7466
handle	-10.7487
ep	-10.7493
nel	-10.7509
ari	-10.7543
quarantin	-10.7565
institution	-10.7605
range	-10.7617
▁¦14	-10.7636
riwal	-10.7644
gregation	-10.7648
assembl	-10.7649
extreme	-10.7649
$	-10.7649
alternative	-10.7649
singapore	-10.7649
husband	-10.7649
colleague	-10.7649
hotspot	-10.7649
mission	-10.7649
plasm	-10.765
finger	-10.765
▁¦41	-10.7652
implementation	-10.7658
feder	-10.7658
tourist	-10.7661
north	-10.7671
ther	-10.7683
centre	-10.7688
reserve	-10.7711
programmes	-10.7716
ani	-10.7742
deal	-10.7745
temporar	-10.7754
ecut	-10.7759
mar	-10.776
ale	-10.7763
tool	-10.7783
handl	-10.7785
des	-10.7802
impose	-10.7812
pand	-10.783
jai	-10.7847
300	-10.7905
continu	-10.7906
70¦	-10.7937
arrive	-10.7952
arm	-10.7955
mark	-10.7964
threat	-10.7976
load	-10.799
br	-10.7992
surg	-10.7994
aerosol	-10.7994
acquir	-10.7994
#	-10.7994
funeral	-10.7994
describ	-10.7994
reddy	-10.7994
initiative	-10.7995
actual	-10.7995
july	-10.8001
ism	-10.8015
crowds	-10.803
beta	-10.8035
sense	-10.8061
shiv	-10.8076
orrow	-10.8106
gre	-10.8114
cre	-10.8159
stand	-10.8184
tissue	-10.8221
kin	-10.8223
jam	-10.8224
gaon	-10.8252
nawa	-10.8252
▁¦24	-10.8278
che	-10.8291
▁¦15	-10.8298
sitt	-10.8306
sequence	-10.8316
pt	-10.8329
instruct	-10.8348
purpose	-10.8351
pediatrician	-10.8351
shock	-10.8351
division	-10.8351
intervention	-10.8351
arbha	-10.8351
gandhi	-10.8351
kovac	-10.8352
paul	-10.8352
registration	-10.8352
specimen	-10.8352
karona	-10.8353
unlock	-10.8353
empt	-10.8353
located	-10.8354
reduction	-10.8354
hospitalization	-10.8355
rong	-10.8355
▁¦65	-10.8411
ling	-10.8411
les	-10.8415
dha	-10.8419
,5	-10.8428
communit	-10.8462
78	-10.8467
boy	-10.848
yog	-10.8492
mann	-10.8509
youth	-10.8519
determine	-10.8519
candidate	-10.8519
rit	-10.8526
bhus	-10.8529
tom	-10.8545
hal	-10.8552
fel	-10.8566
cure	-10.8577
iwal	-10.859
92	-10.8593
sneez	-10.8598
disinfect	-10.8598
ped	-10.86
vax	-10.864
coron	-10.8643
learner	-10.8653
hold	-10.8663
purchase	-10.8668
worse	-10.8675
operate	-10.8679
graph	-10.8688
fatalit	-10.8701
inspect	-10.8718
violat	-10.8719
activist	-10.8722
angiotensin	-10.8722
chemical	-10.8722
cluster	-10.8722
kolhapur	-10.8722
membrane	-10.8722
remote	-10.8722
reservoir	-10.8722
munde	-10.8722
resort	-10.8722
reveal	-10.8722
hazard	-10.8722
street	-10.8722
probabl	-10.8722
devot	-10.8724
alleg	-10.8725
moment	-10.8728
harya	-10.8729
khada	-10.8731
comment	-10.8733
easi	-10.8735
itali	-10.8746
household	-10.8749
select	-10.8757
ko	-10.8773
potentially	-10.8774
extra	-10.8781
nine	-10.8782
bind	-10.879
86	-10.8792
teach	-10.8793
fit	-10.88
circulat	-10.8833
precautions	-10.8835
lt	-10.8837
75	-10.8852
constructi	-10.8863
wi	-10.8894
10	-10.8903
cry	-10.8905
13¦	-10.8942
base	-10.8954
ius	-10.8965
hr	-10.9015
30	-10.9029
ang	-10.9065
activit	-10.9073
mps	-10.909
.8	-10.9091
qualit	-10.9094
lock	-10.9097
province	-10.9106
convert	-10.9106
false	-10.9106
attempt	-10.9106
complication	-10.9106
injur	-10.9107
yester	-10.9107
ticket	-10.9107
respective	-10.9107
machine	-10.9107
british	-10.9107
surance	-10.9108
tech	-10.9109
worth	-10.911
zhan	-10.9112
arter	-10.9117
recommendation	-10.912
zoono	-10.9122
agriculture	-10.9128
ground	-10.9135
postpone	-10.914
facilitate	-10.9159
▁¦33	-10.9164
wad	-10.9168
dc	-10.9199
ure	-10.9228
user	-10.9231
coronation	-10.9263
prior	-10.9264
seat	-10.9273
sena	-10.9275
apply	-10.9284
21	-10.9295
cut	-10.93
com	-10.9324
tra	-10.9347
referr	-10.9356
cr	-10.9406
sides	-10.9433
organi	-10.9459
bor	-10.9481
search	-10.9504
▁¦42	-10.9505
trouble	-10.9506
deploy	-10.9506
holiday	-10.9506
feature	-10.9506
identify	-10.9506
predict	-10.9506
grant	-10.9507
connection	-10.9509
festival	-10.9509
msel	-10.9512
bigge	-10.9513
born	-10.9514
proposal	-10.9515
amil	-10.9516
▁¦400	-10.9517
note	-10.9521
best	-10.9521
camel	-10.9532
bra	-10.9535
arvin	-10.9538
63¦	-10.9541
screening	-10.9543
anjal	-10.9548
minim	-10.9563
occurr	-10.9566
camp	-10.9567
cop	-10.9576
ries	-10.958
ues	-10.9585
36	-10.9592
rub	-10.9593
owner	-10.9598
lok	-10.9599
seek	-10.96
35	-10.9625
settings	-10.9637
que	-10.9646
biha	-10.9707
cal	-10.9712
hot	-10.9736
ili	-10.9762
conv	-10.9773
72	-10.9787
cl	-10.9794
nature	-10.981
makes	-10.983
sometime	-10.983
66	-10.9855
ims	-10.9872
saw	-10.9876
appli	-10.9897
cular	-10.9917
ku	-10.9919
success	-10.9922
document	-10.9923
prompt	-10.9923
boost	-10.9923
customer	-10.9923
jessica	-10.9923
pakistan	-10.9923
pimpri	-10.9923
representative	-10.9923
venue	-10.9923
hku	-10.9924
airport	-10.9925
▁¦1.5	-10.9925
book	-10.9926
interaction	-10.993
surger	-10.9935
useful	-10.9935
wipe	-10.9937
mov	-10.994
prove	-10.9956
khand	-10.9968
coroner	-10.9981
rele	-11.0008
harid	-11.003
basic	-11.0036
rare	-11.0062
comfort	-11.0081
gram	-11.0083
adu	-11.0089
york	-11.0101
spokes	-11.0113
charge	-11.0137
cies	-11.0151
wif	-11.0178
bacteri	-11.0189
lesson	-11.0198
para	-11.0201
)	-11.0206
prepar	-11.0218
indicat	-11.0218
96	-11.0239
lu	-11.0246
agha	-11.0284
olar	-11.0304
38	-11.0309
vac	-11.032
emerg	-11.0337
positiv	-11.0337
consult	-11.0355
accu	-11.0355
compound	-11.0358
cocktail	-11.0358
therapeutic	-11.0358
—	-11.0358
deteriorat	-11.0358
commerc	-11.0358
sleep	-11.0358
bicycle	-11.0358
headache	-11.0358
chairman	-11.0358
birth	-11.0358
nucleo	-11.0359
chi	-11.0364
weekend	-11.0368
brother	-11.038
trace	-11.0386
kind	-11.0389
tender	-11.0392
ramde	-11.0402
recogniz	-11.0403
uck	-11.0419
lay	-11.0421
forward	-11.0428
trader	-11.0431
ket	-11.0466
feed	-11.0477
afr	-11.048
trans	-11.055
cloth	-11.0557
thank	-11.0562
spoke	-11.061
plane	-11.0629
pregnanc	-11.0659
sport	-11.0666
khar	-11.0696
avir	-11.0702
bl	-11.0719
98	-11.0725
dependent	-11.0728
image	-11.0754
62¦	-11.0756
avin	-11.077
leav	-11.0774
announce	-11.079
arti	-11.0807
opportunit	-11.0812
professional	-11.0812
activat	-11.0812
annual	-11.0812
demonstrat	-11.0812
muscle	-11.0812
quick	-11.0812
doubt	-11.0812
milk	-11.0812
polymer	-11.0812
stream	-11.0812
mechanism	-11.0812
numer	-11.0812
sensitiv	-11.0812
trend	-11.0812
consistent	-11.0813
lift	-11.0813
install	-11.0813
urgent	-11.0813
battle	-11.0813
discharge	-11.0814
nawala	-11.0814
reverse	-11.0815
raut	-11.0815
performance	-11.0816
cremat	-11.0816
cemeter	-11.0817
journal	-11.0818
fi	-11.0821
fail	-11.0822
aware	-11.0825
weaken	-11.0826
coward	-11.0828
restrict	-11.0829
storm	-11.0829
lescent	-11.0831
else	-11.0834
vant	-11.0835
canad	-11.0835
ction	-11.0837
dhar	-11.0865
karna	-11.0868
bill	-11.0869
suit	-11.0895
une	-11.093
box	-11.0935
alve	-11.0965
str	-11.0979
gun	-11.0991
heav	-11.0995
gy	-11.1004
path	-11.1028
nl	-11.1058
sar	-11.1076
summ	-11.1077
individual	-11.1088
tax	-11.1091
94	-11.1133
aged	-11.1142
morbidit	-11.119
zer	-11.1202
rely	-11.1223
hall	-11.1236
administrati	-11.1259
god	-11.127
pack	-11.1274
propos	-11.1279
pathogen	-11.1287
ahmed	-11.1288
petition	-11.1288
strategy	-11.1288
homolog	-11.1288
envelope	-11.1288
traffic	-11.1288
accident	-11.1288
ceremon	-11.1288
physician	-11.1288
subsequent	-11.1288
volunteer	-11.1288
quantit	-11.1288
enhance	-11.1289
suppress	-11.1289
unfortunate	-11.1289
cardio	-11.1289
broke	-11.1289
pollut	-11.1289
budget	-11.1289
hung	-11.1289
girl	-11.1291
alert	-11.1291
nepal	-11.1291
sam	-11.1292
intern	-11.1292
jayant	-11.1292
fati	-11.1293
movement	-11.1293
worri	-11.1294
parcel	-11.1294
lockout	-11.1295
compli	-11.1296
sharp	-11.1298
kant	-11.1299
relation	-11.1308
secret	-11.1314
ekar	-11.1315
kash	-11.1315
cancelled	-11.1328
duration	-11.1335
game	-11.1336
audit	-11.1337
crete	-11.1343
myco	-11.1343
serv	-11.1347
osp	-11.1359
mant	-11.1373
90	-11.1375
wada	-11.1396
blow	-11.1406
hub	-11.1448
97	-11.1476
▁¦55	-11.1477
elf	-11.1477
hwad	-11.1507
kha	-11.1536
pl	-11.154
sampl	-11.157
akol	-11.1575
site	-11.1614
kol	-11.1631
rubb	-11.1649
treatments	-11.1658
connect	-11.1693
mer	-11.1701
pad	-11.1723
shopp	-11.1725
idea	-11.1736
knowledge	-11.1744
-1	-11.1755
vot	-11.1775
mall	-11.1777
pti	-11.1779
inject	-11.1785
mutat	-11.1786
teria	-11.1787
▁¦0.	-11.1788
pulmon	-11.1788
google	-11.1788
certificate	-11.1788
complex	-11.1788
component	-11.1788
cytokine	-11.1788
http	-11.1788
proportion	-11.1788
routine	-11.1788
recruit	-11.1788
dharavi	-11.1789
hyper	-11.1789
worry	-11.1789
bound	-11.1789
ignor	-11.1789
mahavikas	-11.179
liter	-11.179
extensive	-11.179
interview	-11.179
▁¦5,000	-11.1791
panic	-11.1792
invest	-11.1793
governor	-11.1793
java	-11.1795
disorder	-11.1798
remember	-11.1802
package	-11.1803
alarm	-11.1804
ordin	-11.181
liver	-11.1812
▁¦150	-11.1816
prepare	-11.1817
encourag	-11.1825
53	-11.183
cultur	-11.1846
vary	-11.1846
workplace	-11.1854
prevalent	-11.1858
ard	-11.188
upper	-11.1888
actor	-11.1895
improv	-11.1918
ious	-11.1919
ikh	-11.1958
sneeze	-11.1959
feeling	-11.1977
atm	-11.1988
osh	-11.2017
02	-11.2018
formal	-11.202
nova	-11.2038
adhan	-11.2066
dium	-11.2072
preserv	-11.2131
pande	-11.2133
won	-11.2157
ration	-11.2172
improve	-11.2178
bus	-11.2179
.6	-11.2201
ative	-11.2204
generate	-11.2241
jana	-11.226
audi	-11.2263
build	-11.2273
refer	-11.2285
▁¦31	-11.229
america	-11.23
buse	-11.2309
cycle	-11.2315
correct	-11.2315
affair	-11.2315
canadian	-11.2315
club	-11.2315
comprehensi	-11.2315
pattern	-11.2315
transcript	-11.2315
orphan	-11.2315
gloves	-11.2315
worship	-11.2315
legislat	-11.2315
quarter	-11.2315
partner	-11.2315
repurpos	-11.2315
particle	-11.2316
color	-11.2316
facebook	-11.2316
wake	-11.2316
download	-11.2316
mucor	-11.2318
fema	-11.2318
blam	-11.232
covax	-11.2324
bottle	-11.2325
airline	-11.2329
fe	-11.233
88¦	-11.2331
bag	-11.2338
anxi	-11.2341
draw	-11.2344
dp	-11.2351
wate	-11.2355
laborer	-11.2356
kg	-11.2361
aman	-11.2365
cam	-11.2366
breathe	-11.2369
strand	-11.2381
maratha	-11.2382
harad	-11.2382
rai	-11.2386
imag	-11.2406
driver	-11.2418
reference	-11.2418
kani	-11.242
rul	-11.2426
dropp	-11.2431
eel	-11.2463
ze	-11.2473
provider	-11.2475
sites	-11.2492
reservation	-11.2528
gar	-11.2546
eal	-11.2546
87	-11.2551
baj	-11.2594
yo	-11.2598
▁¦32	-11.2603
▁¦600	-11.2633
mainl	-11.264
cyto	-11.2644
license	-11.2658
▁¦800	-11.266
dar	-11.2666
rh	-11.2691
.2	-11.2704
seal	-11.2706
isolate	-11.2749
trade	-11.278
expect	-11.2788
iro	-11.2825
km	-11.2837
contaminated	-11.2849
covering	-11.285
clinic	-11.2857
manag	-11.2858
consist	-11.287
evacuat	-11.287
tension	-11.287
agitation	-11.287
cruise	-11.287
definite	-11.287
efficient	-11.287
evolution	-11.287
technique	-11.287
traditional	-11.287
‘	-11.287
afford	-11.287
methodolog	-11.287
retail	-11.287
firecracker	-11.287
vomit	-11.287
cambridge	-11.287
electric	-11.287
cuba	-11.287
smoke	-11.2871
migrant	-11.2871
comparison	-11.2871
ganga	-11.2871
academic	-11.2871
contrast	-11.2871
tribal	-11.2871
abdom	-11.2872
garh	-11.2872
background	-11.2872
realiz	-11.2872
mohan	-11.2873
hood	-11.2874
mach	-11.2874
alter	-11.2876
generation	-11.2879
unnecessar	-11.2879
drink	-11.2881
counter	-11.2883
imply	-11.2888
tap	-11.2896
easy	-11.2898
loan	-11.2902
threaten	-11.2904
russian	-11.2905
ghat	-11.2908
soph	-11.2915
interspe	-11.2917
fish	-11.2927
heb	-11.294
purchas	-11.2953
flow	-11.297
80	-11.2974
warning	-11.2981
swing	-11.2996
dryer	-11.3002
tel	-11.302
iya	-11.3038
vir	-11.3057
paris	-11.3073
prohibit	-11.3089
roy	-11.3117
solida	-11.3131
award	-11.3146
"	-11.3166
igad	-11.3173
81	-11.3183
variet	-11.3204
emi	-11.3208
60	-11.3219
chu	-11.3228
oxi	-11.3239
nts	-11.3248
observe	-11.3252
challeng	-11.3259
gh	-11.339
fix	-11.339
25	-11.3404
gather	-11.3411
standing	-11.3433
combin	-11.3454
jee	-11.3456
agreement	-11.3459
brook	-11.3459
burden	-11.3459
immunization	-11.3459
pandharpur	-11.3459
parliament	-11.3459
behavior	-11.3459
collapse	-11.3459
criticism	-11.3459
opinion	-11.3459
circumstance	-11.3459
repeated	-11.3459
cinema	-11.3459
window	-11.3459
aditya	-11.3459
vitamin	-11.3459
naik	-11.3459
fruit	-11.3459
alpha	-11.3459
aryng	-11.3459
shivaji	-11.3459
tide	-11.3459
white	-11.3459
agreed	-11.346
cancellation	-11.346
justice	-11.346
newspaper	-11.3461
accurate	-11.3462
consumer	-11.3463
exception	-11.3465
bei	-11.3466
induc	-11.3467
rote	-11.3469
23¦	-11.347
pati	-11.3475
celebrat	-11.3481
▁¦59	-11.3488
-5	-11.3492
rank	-11.3493
20¦	-11.3498
join	-11.3512
hou	-11.3513
warm	-11.3515
gate	-11.3517
hane	-11.3519
gold	-11.3524
evening	-11.3528
asia	-11.3542
duty	-11.3544
vive	-11.357
independent	-11.357
mam	-11.3579
iii	-11.3584
qu	-11.3584
chava	-11.3584
48	-11.3594
sai	-11.3606
shri	-11.3609
17	-11.3615
rall	-11.3622
indicate	-11.3648
ima	-11.3664
ham	-11.3672
ible	-11.3678
79	-11.3696
discriminati	-11.3702
dates	-11.3727
cardia	-11.3736
promote	-11.3769
partial	-11.3775
cation	-11.3817
ents	-11.3817
ki	-11.3836
dna	-11.3884
setting	-11.3888
01	-11.3931
tain	-11.3941
rine	-11.3956
ification	-11.3966
ray	-11.4023
screen	-11.4027
roll	-11.4065
cels	-11.407
farm	-11.408
cumulati	-11.4082
hopk	-11.4083
geographical	-11.4084
influence	-11.4084
click	-11.4084
integrat	-11.4084
vector	-11.4084
quot	-11.4084
israel	-11.4084
librar	-11.4084
zhen	-11.4084
civet	-11.4084
maxim	-11.4084
watch	-11.4084
surgeon	-11.4084
specialist	-11.4084
size	-11.4085
pool	-11.4085
kamal	-11.4086
immuno	-11.4086
amino	-11.4086
disruption	-11.4086
acetam	-11.4087
define	-11.4089
fluid	-11.4089
requirement	-11.4097
angli	-11.41
petrol	-11.4101
withdraw	-11.4105
33	-11.412
acknowledg	-11.414
khan	-11.4143
dire	-11.4151
financ	-11.4152
collecti	-11.4154
highway	-11.4157
hok	-11.4159
persisten	-11.4162
attach	-11.4172
urg	-11.4195
shen	-11.4197
jo	-11.4211
ball	-11.4272
45	-11.4278
advise	-11.4279
refus	-11.4289
remedi	-11.4298
gam	-11.4346
evaluat	-11.4348
taxi	-11.4353
coordinat	-11.4359
bath	-11.4382
ener	-11.4399
biologic	-11.4406
dhana	-11.4426
hindu	-11.4436
77¦	-11.4468
04	-11.4471
scar	-11.4477
trip	-11.4483
nail	-11.4503
51	-11.4511
precaution	-11.4547
ole	-11.4557
row	-11.459
spreader	-11.4591
gur	-11.4617
sawan	-11.4628
ficial	-11.4656
gene	-11.4663
dhu	-11.4673
expens	-11.4673
hinde	-11.4678
disrupt	-11.4747
precedent	-11.475
reject	-11.475
collaborati	-11.475
genomic	-11.475
infrastructure	-11.475
module	-11.475
protease	-11.475
secretariat	-11.475
•	-11.475
≥	-11.475
dashboard	-11.475
▁¦2012	-11.475
implications	-11.475
interval	-11.475
gestion	-11.475
leng	-11.4751
vigilan	-11.4751
garden	-11.4751
khed	-11.4751
kilo	-11.4751
disadvantage	-11.4751
defen	-11.4751
asthma	-11.4751
disinfectant	-11.4751
fifth	-11.4752
grand	-11.4752
weak	-11.4753
wild	-11.4753
towns	-11.4754
blue	-11.4756
steril	-11.4756
american	-11.4769
roli	-11.4769
limitation	-11.4772
erupt	-11.4772
domain	-11.4773
touris	-11.4773
milita	-11.4775
arrival	-11.4776
diff	-11.4776
compromised	-11.4777
fortis	-11.4786
confiden	-11.4791
gla	-11.4793
bol	-11.4797
religion	-11.4803
yava	-11.4805
unlike	-11.4806
submitt	-11.481
wadi	-11.483
replicati	-11.4838
spen	-11.4849
gul	-11.4855
corresponden	-11.488
ium	-11.4889
extract	-11.4939
unte	-11.4944
mel	-11.4958
ix	-11.4968
readi	-11.501
kat	-11.5025
osis	-11.503
nda	-11.5035
dona	-11.504
nik	-11.504
▁¦82	-11.508
eye	-11.5081
tired	-11.5082
gage	-11.5085
avi	-11.5092
eliminate	-11.5108
coach	-11.5158
formula	-11.5206
remed	-11.527
07	-11.5309
rti	-11.5314
hiv	-11.5315
cra	-11.5316
gain	-11.5324
meat	-11.5339
adopt	-11.5352
conf	-11.5398
emy	-11.5433
aki	-11.5435
buil	-11.5443
river	-11.5445
chand	-11.5461
appoint	-11.5462
lopinavir	-11.5464
christ	-11.5465
authoriz	-11.5465
punjab	-11.5465
constituen	-11.5465
dynamic	-11.5465
foot	-11.5465
occupational	-11.5465
provision	-11.5465
structural	-11.5465
taiwan	-11.5465
antibiotic	-11.5465
barrier	-11.5465
floor	-11.5465
gynecologist	-11.5465
transmissib	-11.5465
abortion	-11.5465
dispute	-11.5465
bronchitis	-11.5465
exceed	-11.5465
antimicrobial	-11.5465
frame	-11.5465
smell	-11.5465
volu	-11.5465
conclusion	-11.5465
witness	-11.5465
instance	-11.5465
filter	-11.5465
popular	-11.5465
prioritize	-11.5465
ramesh	-11.5466
nutrition	-11.5466
arrangement	-11.5466
lethal	-11.5467
route	-11.5467
consultation	-11.5468
shah	-11.5469
ards	-11.5471
achal	-11.5471
block	-11.5471
inhibitor	-11.5473
bhagwa	-11.5474
memor	-11.5475
administer	-11.5476
trust	-11.5479
raise	-11.548
decentrali	-11.548
megh	-11.5481
▁¦47	-11.5482
suggestion	-11.5485
convenien	-11.5489
11	-11.5495
▁¦99	-11.5495
tube	-11.5498
bach	-11.5498
african	-11.5509
oul	-11.5513
raji	-11.5515
teen	-11.5521
noph	-11.5537
poll	-11.5538
absen	-11.555
rmal	-11.5552
gov	-11.5556
gir	-11.5557
?	-11.5606
traveler	-11.5629
page	-11.5629
orf	-11.5665
ient	-11.5695
imm	-11.5703
maharaj	-11.5711
umb	-11.5712
ami	-11.574
abha	-11.5745
erti	-11.5762
lic	-11.5763
odi	-11.577
kale	-11.5782
compare	-11.5799
lov	-11.5823
imp	-11.5848
ety	-11.5858
prasa	-11.5874
determin	-11.5875
lash	-11.5878
solid	-11.588
enable	-11.5896
qui	-11.5921
gel	-11.5951
24¦	-11.5991
atta	-11.6002
premi	-11.6004
pace	-11.6064
latur	-11.6112
sari	-11.6133
conferenc	-11.6176
ryan	-11.6206
bhal	-11.6214
onavir	-11.6222
2-	-11.6222
journ	-11.6225
aught	-11.6228
emphasi	-11.6232
adjust	-11.6232
valu	-11.6233
patholog	-11.6234
anticipat	-11.6234
concept	-11.6234
diploma	-11.6234
kishor	-11.6234
panchayat	-11.6234
reflect	-11.6234
temple	-11.6234
zydus	-11.6234
arabia	-11.6234
osmanabad	-11.6234
structure	-11.6234
pulse	-11.6234
steroid	-11.6234
truck	-11.6234
repair	-11.6234
drastic	-11.6234
burn	-11.6234
mammal	-11.6234
thorough	-11.6234
infant	-11.6234
speech	-11.6234
fortnight	-11.6234
fresh	-11.6234
slum	-11.6234
salunk	-11.6234
virologist	-11.6235
epidemiological	-11.6235
mitigation	-11.6235
▁¦2020-2	-11.6235
loud	-11.6235
electronic	-11.6236
pilot	-11.6236
principal	-11.6236
continuous	-11.6238
formulation	-11.6238
disabilit	-11.6238
valid	-11.6239
diagnostic	-11.6239
edition	-11.6239
stabiliz	-11.6239
cott	-11.624
uncertain	-11.6242
survive	-11.6244
observation	-11.6245
bul	-11.6245
oea	-11.6246
cepi	-11.6246
remind	-11.6249
marg	-11.625
experimental	-11.6252
nitin	-11.6256
sudh	-11.6259
match	-11.6261
iram	-11.6264
shiva	-11.6269
rail	-11.6269
eshwar	-11.6289
examin	-11.6299
thora	-11.6304
ankit	-11.6317
▁¦56	-11.6333
worsen	-11.6334
throw	-11.6351
carrier	-11.6354
–20	-11.6361
connected	-11.6379
investigate	-11.6424
spark	-11.6437
:	-11.6447
pv	-11.6447
ivity	-11.6449
kovi	-11.6456
park	-11.646
varie	-11.6463
soil	-11.6497
lank	-11.6499
ika	-11.6503
16	-11.6509
rid	-11.6533
solve	-11.6586
write	-11.6604
goal	-11.6617
labor	-11.6621
ken	-11.6621
ox	-11.6625
▁¦58	-11.6648
serie	-11.6681
huj	-11.6688
tant	-11.6694
64¦	-11.6698
beneficia	-11.6725
theater	-11.6727
galo	-11.6731
reporter	-11.6745
web	-11.6781
22	-11.68
mail	-11.6806
donate	-11.6823
urge	-11.6841
oil	-11.6846
kari	-11.6875
nurs	-11.6882
intestin	-11.6895
citizen	-11.6907
umab	-11.6926
repli	-11.6959
stick	-11.7003
struggl	-11.7006
oppos	-11.7022
complain	-11.7043
chha	-11.7044
ratio	-11.7052
surviv	-11.7057
▁¦1201	-11.7057
epidemiolog	-11.7066
civil	-11.7067
analyz	-11.7067
consulate	-11.7067
efficienc	-11.7067
categor	-11.7067
depriv	-11.7067
eradicat	-11.7067
inaugurat	-11.7067
interrupt	-11.7067
naxal	-11.7067
niranjan	-11.7067
technician	-11.7067
weapon	-11.7067
fertilizer	-11.7067
welcome	-11.7067
jack	-11.7067
recip	-11.7067
▁¦2.4	-11.7067
reply	-11.7067
tighten	-11.7067
antiseptic	-11.7067
twenty	-11.7068
gupt	-11.7068
context	-11.7068
sugar	-11.7068
honor	-11.7068
traveller	-11.7068
anonym	-11.7068
objective	-11.7069
transaction	-11.7069
displeas	-11.7069
consequence	-11.7069
arrange	-11.707
appointment	-11.707
technic	-11.707
yush	-11.707
nhs	-11.7071
lrti	-11.7071
ulkar	-11.7072
washroom	-11.7072
smok	-11.7073
indication	-11.7073
assessment	-11.7074
concentrator	-11.7076
panch	-11.7077
autopsy	-11.7078
▁?"	-11.7079
conven	-11.7079
strengthen	-11.7079
▁¦2019-20	-11.7079
strange	-11.7079
▁¦144	-11.708
nucle	-11.7081
payment	-11.7081
mistake	-11.7081
nile	-11.7084
centur	-11.7084
recogni	-11.7091
chhat	-11.7091
nekar	-11.7094
gown	-11.7095
desire	-11.7095
visibl	-11.7096
chair	-11.71
declare	-11.7102
tele	-11.7107
seasonal	-11.711
tub	-11.7119
korean	-11.7121
debate	-11.7126
struggle	-11.7129
graduate	-11.713
omani	-11.7149
holder	-11.7163
iness	-11.7167
endanger	-11.7168
bench	-11.717
sah	-11.7187
▁¦93	-11.7187
rang	-11.7196
fift	-11.7212
bhi	-11.7263
gap	-11.7275
'	-11.734
phu	-11.7346
abc	-11.7353
misin	-11.737
65	-11.7371
tul	-11.7382
modifi	-11.7407
cleaner	-11.7418
scrub	-11.7442
19¦	-11.7445
manager	-11.7475
sad	-11.7482
ebo	-11.7496
emerge	-11.751
sop	-11.7539
leg	-11.755
42	-11.7554
wiv	-11.7554
salar	-11.7557
jha	-11.7652
version	-11.7654
deb	-11.7656
oja	-11.7708
mini	-11.7746
protest	-11.7752
producer	-11.7753
arg	-11.7767
preme	-11.7775
gener	-11.7777
tank	-11.7782
lak	-11.7785
rent	-11.7803
pol	-11.7823
doubl	-11.783
tim	-11.7861
recognize	-11.7882
roh	-11.7931
bah	-11.7932
transfer	-11.7954
object	-11.7971
psychiatri	-11.7973
please	-11.7974
initiat	-11.7975
clusive	-11.7975
eparation	-11.7976
automatic	-11.7976
gastro	-11.7976
practical	-11.7976
smooth	-11.7976
succeed	-11.7976
affidavit	-11.7976
bangladesh	-11.7976
cheetah	-11.7976
conclude	-11.7976
misconception	-11.7976
munganti	-11.7976
muslim	-11.7976
practitioner	-11.7976
rickshaw	-11.7976
accommodat	-11.7976
bluetooth	-11.7976
▁¦7,1	-11.7976
plastic	-11.7976
soldier	-11.7976
decade	-11.7976
guard	-11.7976
turkey	-11.7976
computer	-11.7976
habit	-11.7976
attraction	-11.7976
phylogenetic	-11.7976
modify	-11.7976
vendor	-11.7976
philip	-11.7976
squad	-11.7976
credit	-11.7977
couple	-11.7977
stagger	-11.7977
worst	-11.7977
minimiz	-11.7977
chhatra	-11.7978
harass	-11.7978
peptid	-11.7978
extension	-11.7978
fung	-11.7978
capture	-11.7979
abnormal	-11.7979
objection	-11.7979
cellul	-11.798
▁¦3.5	-11.7981
assum	-11.7982
▁):	-11.7983
divid	-11.7986
lug	-11.7987
violation	-11.7989
toxicit	-11.799
hanu	-11.799
spira	-11.799
film	-11.7994
metre	-11.7994
elevated	-11.7997
bber	-11.7997
asian	-11.8002
cool	-11.8008
1.1	-11.8016
escape	-11.8021
enroll	-11.8026
lashi	-11.8026
▁¦71	-11.8027
cleave	-11.8028
catch	-11.8029
nba	-11.8033
reopen	-11.804
▁¦15-	-11.8045
adam	-11.8049
dad	-11.806
resistan	-11.8082
sanit	-11.8092
vipi	-11.8095
assure	-11.8097
adviser	-11.8102
kap	-11.812
atya	-11.8121
diverge	-11.8126
mira	-11.8128
▁¦64	-11.8135
hom	-11.8153
rumor	-11.8156
liva	-11.8163
oak	-11.8172
bai	-11.8194
alasa	-11.8203
rib	-11.8207
manufacture	-11.8245
waiv	-11.8253
mod	-11.829
▁¦0.2	-11.8308
formulat	-11.8316
pp	-11.8328
pse	-11.8339
love	-11.8384
odal	-11.839
vice	-11.8402
18	-11.8448
hum	-11.8451
designat	-11.8463
▁¦73	-11.8528
contribute	-11.8541
achieve	-11.8542
kshi	-11.8554
dig	-11.8568
khil	-11.8575
sara	-11.8576
systemati	-11.8587
iliz	-11.8601
refuse	-11.8651
immun	-11.8681
classifi	-11.871
cul	-11.8725
hyl	-11.8732
programme	-11.8782
zil	-11.8817
myo	-11.8829
swit	-11.8829
denie	-11.8847
erial	-11.8892
cance	-11.8901
opd	-11.8905
67	-11.8913
rp	-11.8915
sanitiz	-11.8939
700	-11.8944
examine	-11.8951
advantage	-11.8975
wiki	-11.8975
admit	-11.8976
vadetti	-11.8976
ghebreyes	-11.8976
visakha	-11.8976
amplify	-11.8976
attitude	-11.8976
behaviour	-11.8976
characteristic	-11.8976
climate	-11.8976
corrupt	-11.8976
dattatr	-11.8976
diminish	-11.8976
intelligence	-11.8976
interferon	-11.8976
kidney	-11.8976
necessit	-11.8976
negligen	-11.8976
substance	-11.8976
substantial	-11.8976
tehsildar	-11.8976
unique	-11.8976
▁¦2015	-11.8976
neck	-11.8976
warrior	-11.8976
austria	-11.8976
channel	-11.8976
mechani	-11.8976
pork	-11.8976
obia	-11.8976
rhino	-11.8976
embass	-11.8976
fecal	-11.8977
hotelier	-11.8977
▁¦2018	-11.8977
molecular	-11.8977
lawyer	-11.8977
residenc	-11.8977
ahmedabad	-11.8977
rbd	-11.8977
topic	-11.8977
malaria	-11.8977
swami	-11.8977
eventual	-11.8977
church	-11.8978
bhandar	-11.8978
mangal	-11.8978
loom	-11.8978
priya	-11.8978
reliev	-11.8978
▁¦1.8	-11.8979
communica	-11.8979
racis	-11.8979
prison	-11.8979
hurt	-11.898
psychiatrist	-11.898
pathway	-11.8981
ganesh	-11.8981
print	-11.8982
unemploy	-11.8982
ots	-11.8983
melli	-11.8983
minor	-11.8983
91	-11.8984
haila	-11.8984
revise	-11.8984
devastat	-11.8985
fell	-11.8986
procure	-11.8991
fig	-11.8992
ilip	-11.8994
orium	-11.8996
191	-11.8997
▁¦122	-11.8999
rench	-11.9005
pump	-11.9008
algaon	-11.9009
equal	-11.901
push	-11.9012
grape	-11.9017
monoc	-11.9034
mitted	-11.9035
karan	-11.9037
yada	-11.9045
dece	-11.9053
donation	-11.9054
urba	-11.9055
advance	-11.9058
player	-11.907
ograph	-11.9072
drome	-11.9073
azi	-11.9074
rbi	-11.9084
minu	-11.9089
listen	-11.9093
tree	-11.9097
chau	-11.9103
xe	-11.9131
cancell	-11.9176
uter	-11.9178
52¦	-11.9187
reassur	-11.9203
vya	-11.923
chlori	-11.9232
durg	-11.9233
ef	-11.9241
sangh	-11.9247
expense	-11.9271
gil	-11.9292
▁¦74	-11.9298
cooper	-11.9332
hiran	-11.9348
originate	-11.9351
subha	-11.9367
▁¦69	-11.9401
assist	-11.9461
tite	-11.9485
grade	-11.9492
bam	-11.9498
promot	-11.9509
▁¦27	-11.955
approache	-11.9562
bhar	-11.9565
05	-11.9601
map	-11.9632
hant	-11.9661
▁¦52	-11.9715
inhibit	-11.9716
tempora	-11.9733
mur	-11.9736
elbo	-11.9737
accompan	-11.9777
gli	-11.9789
correspond	-11.9871
edicat	-11.9871
93¦	-11.9875
ashi	-11.9883
pensi	-11.9945
encourage	-12.0013
parab	-12.0013
accord	-12.0031
zoo	-12.0043
cession	-12.0046
expla	-12.0048
hypo	-12.0054
diarrh	-12.0071
niv	-12.0073
article	-12.0085
enovir	-12.0086
firm	-12.0087
caution	-12.0087
pediatric	-12.0087
▁¦2,6	-12.0087
breastfeed	-12.0087
commitment	-12.0087
cyclone	-12.0087
destination	-12.0087
destroy	-12.0087
exacerbat	-12.0087
guarantee	-12.0087
neglect	-12.0087
neighbor	-12.0087
prognosis	-12.0087
▁¦40,000	-12.0087
alpaca	-12.0087
circle	-12.0087
defeat	-12.0087
pillow	-12.0087
ultimate	-12.0087
jalna	-12.0087
surrounding	-12.0087
dramatic	-12.0087
fault	-12.0087
vessel	-12.0087
expir	-12.0087
bhayand	-12.0087
karjat	-12.0087
favor	-12.0087
organisation	-12.0087
properties	-12.0088
avati	-12.0088
sound	-12.0088
▁¦1,3	-12.0088
1,6	-12.0088
eviate	-12.0088
ratna	-12.0088
▁¦2017	-12.0088
economist	-12.0088
scene	-12.0088
susceptible	-12.0088
afterwards	-12.0088
cadilla	-12.0088
error	-12.0088
saving	-12.0089
reception	-12.0089
shaile	-12.0089
adeno	-12.009
bronchi	-12.009
▁¦1,5	-12.009
resume	-12.009
runwal	-12.009
emphasize	-12.009
chicken	-12.009
promotion	-12.009
-12	-12.0091
trop	-12.0091
,65	-12.0092
innovati	-12.0092
lunch	-12.0092
burg	-12.0095
dismissal	-12.0095
legal	-12.01
accelerate	-12.0105
texti	-12.0105
▁¦900	-12.0106
valve	-12.0106
taneous	-12.0107
committ	-12.0107
kum	-12.0108
zz	-12.0109
jj	-12.011
recombin	-12.011
1,1	-12.0112
oliti	-12.0113
highlight	-12.0114
sentenc	-12.0115
mine	-12.0124
exo	-12.0128
encounter	-12.013
reput	-12.0136
impoten	-12.0141
nala	-12.0145
lymphocyte	-12.0146
fatal	-12.0152
kid	-12.0155
scarc	-12.0155
skeptic	-12.016
homeless	-12.0166
vara	-12.0172
epi	-12.0176
bott	-12.0192
tava	-12.0204
rich	-12.0219
institutional	-12.0241
gst	-12.0271
aft	-12.0272
-3	-12.0273
internal	-12.0282
guide	-12.0296
satisf	-12.0319
comorbid	-12.0328
preferabl	-12.0348
mich	-12.0483
comp	-12.0491
prav	-12.0493
achiev	-12.0596
contribut	-12.0597
obstructi	-12.0652
charg	-12.0694
06	-12.0705
migrati	-12.0724
prescribe	-12.0766
balance	-12.0779
explore	-12.0839
comfortabl	-12.086
hibition	-12.0909
reh	-12.0962
5.8	-12.099
clarif	-12.1014
nak	-12.1014
politici	-12.103
expen	-12.1122
▁¦120	-12.1128
prem	-12.1162
permit	-12.1172
transmit	-12.1198
clar	-12.1219
rgent	-12.1225
advanc	-12.1235
aditi	-12.1238
norm	-12.1274
text	-12.1318
concentrat	-12.1325
verge	-12.1326
contagio	-12.1331
educat	-12.1334
registr	-12.1335
terri	-12.1335
academ	-12.1336
satur	-12.1337
eligi	-12.1337
dermat	-12.1337
physiotherap	-12.1337
+	-12.1337
aggressive	-12.1337
circuit	-12.1337
constitute	-12.1337
descript	-12.1337
excess	-12.1337
exhaust	-12.1337
explosion	-12.1337
malaysia	-12.1337
overwhelm	-12.1337
pacific	-12.1337
permanent	-12.1337
stimulate	-12.1337
symbolic	-12.1337
vulnerab	-12.1337
°	-12.1337
administrator	-12.1337
affix	-12.1337
concert	-12.1337
detergent	-12.1337
dollar	-12.1337
jurisdiction	-12.1337
language	-12.1337
nigeria	-12.1337
obligation	-12.1337
ogenic	-12.1337
pneumocyte	-12.1337
robust	-12.1337
tremendous	-12.1337
capsule	-12.1337
ingredient	-12.1337
manifestation	-12.1337
replicate	-12.1337
suppose	-12.1337
calculat	-12.1337
pick	-12.1337
compuls	-12.1337
voice	-12.1337
wonder	-12.1337
lagg	-12.1337
▁¦99.9	-12.1337
aspect	-12.1337
compensat	-12.1337
stockpil	-12.1337
foam	-12.1337
ggle	-12.1338
iraq	-12.1338
counsel	-12.1338
sustain	-12.1338
buri	-12.1338
chemist	-12.1338
virulen	-12.1338
pathologist	-12.1338
prince	-12.1338
devanand	-12.1338
buddhi	-12.1338
nzal	-12.1338
assistant	-12.1338
ravind	-12.1338
taste	-12.1338
palms	-12.1338
aadhaar	-12.1338
sister	-12.1338
juda	-12.1339
wikimedia	-12.1339
intrav	-12.1339
azar	-12.1339
convention	-12.1339
accura	-12.134
plent	-12.134
pines	-12.134
▁¦1.2	-12.134
exempt	-12.134
brief	-12.134
combat	-12.1341
▁¦2013	-12.1341
onymi	-12.1342
improvement	-12.1343
gear	-12.1344
pursu	-12.1345
healing	-12.1346
nirvan	-12.1347
reproductiv	-12.1347
akle	-12.1348
subunit	-12.135
newborn	-12.1353
chart	-12.1358
stem	-12.1359
queue	-12.1361
transferr	-12.1368
▁?;	-12.1369
pig	-12.1371
▁”.	-12.1372
voter	-12.1374
preschool	-12.1374
muco	-12.1375
subsidi	-12.1376
delet	-12.1376
satisfy	-12.1377
▁¦2002	-12.1385
kov	-12.1391
chip	-12.1403
misc	-12.1407
cash	-12.142
overlap	-12.1428
sticker	-12.1438
kak	-12.1443
commo	-12.1447
angr	-12.1448
kala	-12.1456
pipe	-12.1458
applica	-12.1468
strik	-12.1479
worksite	-12.1482
trick	-12.1505
irrita	-12.1512
sheet	-12.1515
kanj	-12.1522
ideal	-12.1534
egg	-12.1611
,49	-12.162
▁¦9.	-12.1633
latin	-12.1696
rogen	-12.1706
prefer	-12.1709
vacan	-12.1777
emergen	-12.1777
eya	-12.1783
moti	-12.1787
lineage	-12.1808
licens	-12.1852
replac	-12.1854
remark	-12.1859
beneficiar	-12.1906
bodi	-12.1914
rekh	-12.1931
bilit	-12.196
28	-12.2095
resolv	-12.2125
”	-12.2134
!	-12.2148
participa	-12.2153
).	-12.2155
commun	-12.2169
macro	-12.2172
jet	-12.2186
remarkabl	-12.2211
▁¦14.	-12.2292
tik	-12.2411
▁¦76	-12.2509
ramp	-12.2581
bud	-12.2609
24,	-12.2651
submit	-12.2693
experiment	-12.2731
2000	-12.2735
accelerat	-12.2743
strength	-12.2745
bhag	-12.2751
govern	-12.2752
anger	-12.2758
char	-12.2758
dismiss	-12.2761
festiv	-12.2762
popul	-12.2762
rief	-12.2763
equip	-12.2764
fortunate	-12.2764
respect	-12.2765
parallel	-12.2765
septic	-12.2766
fertili	-12.2766
affiliat	-12.2766
companion	-12.2766
contraceptive	-12.2766
explode	-12.2766
hashtag	-12.2766
jyoti	-12.2766
optimal	-12.2766
prophyla	-12.2766
proxim	-12.2766
refrigerat	-12.2766
supplement	-12.2766
appreciat	-12.2766
deficien	-12.2766
definition	-12.2766
mobilize	-12.2766
narlikar	-12.2766
prescription	-12.2766
scenario	-12.2766
spillover	-12.2766
suspicion	-12.2766
universal	-12.2766
virtual	-12.2766
calendar	-12.2766
chimpanzee	-12.2766
plaza	-12.2766
substitut	-12.2766
polyprotein	-12.2766
19.	-12.2766
corpse	-12.2766
cruci	-12.2766
wool	-12.2766
brazilian	-12.2766
surprise	-12.2766
sentiment	-12.2766
speculat	-12.2766
iranian	-12.2766
microscop	-12.2766
dozen	-12.2766
allergi	-12.2766
limb	-12.2766
psycholog	-12.2766
epidemiologist	-12.2766
utiliz	-12.2766
corne	-12.2767
caregiver	-12.2767
exclusive	-12.2767
ferret	-12.2768
cyano	-12.2768
balram	-12.2768
square	-12.2769
▁¦2.2	-12.2769
diabet	-12.2769
bidde	-12.2769
accumulat	-12.277
congregation	-12.277
▁¦5-1	-12.2771
discontinu	-12.2772
cellphone	-12.2772
spot	-12.2772
idol	-12.2772
fellow	-12.2773
coast	-12.2774
greet	-12.2775
charter	-12.2775
certifi	-12.2775
mond	-12.2776
hamper	-12.2777
aughter	-12.2777
olvi	-12.2778
artist	-12.2778
disappear	-12.2778
max	-12.2779
inspection	-12.2779
zha	-12.2779
▁?'	-12.278
8,9	-12.278
mix	-12.278
3,2	-12.2781
garg	-12.2781
upload	-12.2782
2,3	-12.2782
quar	-12.2785
jeev	-12.2785
vard	-12.2787
cze	-12.279
waj	-12.279
plate	-12.2794
unexpected	-12.2795
exu	-12.2796
ukh	-12.28
consideration	-12.2804
pne	-12.2809
auto	-12.2811
chole	-12.2814
lonel	-12.2829
jump	-12.2869
darsh	-12.2876
angha	-12.2891
triple	-12.2933
exercis	-12.2954
cheap	-12.2962
shipp	-12.298
1,4	-12.3003
hole	-12.301
jag	-12.3042
olli	-12.3048
cbs	-12.3063
switch	-12.3085
aadha	-12.3144
intestine	-12.3171
08	-12.3201
manj	-12.3283
▁¦197	-12.3287
convers	-12.3315
mboli	-12.3348
contaminati	-12.3433
joe	-12.351
▁¦5,	-12.3538
tolera	-12.356
biolog	-12.3583
verifi	-12.36
movie	-12.3688
ruti	-12.3697
coordinati	-12.3699
inhale	-12.3783
▁¦240	-12.3811
uncle	-12.4067
underestimat	-12.4103
▁¦130	-12.4195
persist	-12.4216
elect	-12.4227
03	-12.4287
ferr	-12.4306
ovine	-12.4307
potent	-12.435
jul	-12.4411
140	-12.4425
electron	-12.4429
crop	-12.4431
cadil	-12.4431
vivo	-12.4432
neutral	-12.4432
psycho	-12.4432
bridge	-12.4432
veterinar	-12.4433
broadcast	-12.4433
glycer	-12.4433
socio	-12.4433
yield	-12.4433
*	-12.4433
abundan	-12.4433
argument	-12.4433
arogya	-12.4433
cerebr	-12.4433
civic	-12.4433
civilian	-12.4433
competent	-12.4433
conscious	-12.4433
corporate	-12.4433
corticosteroid	-12.4433
doorknob	-12.4433
episode	-12.4433
evolv	-12.4433
frustrat	-12.4433
judge	-12.4433
neurologic	-12.4433
parbhani	-12.4433
retrospective	-12.4433
umbrella	-12.4433
ा	-12.4433
▁¦2014	-12.4433
fragment	-12.4433
harbour	-12.4433
hydrogen	-12.4433
neuro	-12.4433
privilege	-12.4433
thrombo	-12.4433
vikram	-12.4433
bilateral	-12.4433
christian	-12.4433
dinner	-12.4433
piece	-12.4433
wheeler	-12.4433
profile	-12.4433
fibro	-12.4433
simul	-12.4433
android	-12.4433
bomb	-12.4433
tipp	-12.4433
turk	-12.4433
televis	-12.4433
coagul	-12.4433
radiograph	-12.4433
distinct	-12.4433
element	-12.4433
monsoon	-12.4433
proceed	-12.4433
inspire	-12.4433
sanitiser	-12.4433
itinerar	-12.4433
shirk	-12.4433
kalyan	-12.4433
amaz	-12.4433
contra	-12.4433
colum	-12.4434
naval	-12.4434
trapp	-12.4434
enteritis	-12.4434
cafe	-12.4434
illegal	-12.4434
▁¦2010	-12.4434
shahid	-12.4435
premium	-12.4435
competition	-12.4435
consultant	-12.4435
▁!"	-12.4435
ngoli	-12.4435
navratri	-12.4435
pitt	-12.4436
solub	-12.4436
odor	-12.4436
dgc	-12.4436
tique	-12.4437
hurr	-12.4437
akur	-12.4437
fauc	-12.4438
adjustment	-12.4438
surpass	-12.4438
fuel	-12.4439
2,7	-12.444
virion	-12.4443
celebration	-12.4444
ellow	-12.4444
progressive	-12.4444
crime	-12.4444
mahamand	-12.4445
deplet	-12.4446
pleur	-12.4446
nasi	-12.4447
ribo	-12.4448
leak	-12.4449
2.3	-12.445
shedd	-12.445
dependenc	-12.4452
▁¦290	-12.4453
elicit	-12.4457
dock	-12.4462
dark	-12.4469
haz	-12.4483
specif	-12.4541
mont	-12.4577
▁¦89	-12.4614
▁¦1000	-12.4625
2008	-12.4643
2-3	-12.4676
▁¦196	-12.4713
presum	-12.4747
horrifi	-12.4749
eeti	-12.477
medica	-12.4786
bou	-12.4815
rinse	-12.4821
exhibit	-12.4918
monk	-12.5008
blu	-12.5034
salarie	-12.5055
distan	-12.5123
▁¦2020	-12.5147
rega	-12.522
weigh	-12.5261
prescrib	-12.5267
imbal	-12.5273
mortuar	-12.5287
8.7	-12.5292
migrat	-12.5352
summar	-12.5368
obstruct	-12.5449
cardi	-12.5457
transparen	-12.5475
subsid	-12.5489
evaluati	-12.5579
allagh	-12.5581
2.5	-12.5627
erior	-12.5691
circula	-12.5836
chlor	-12.5911
arriage	-12.5913
content	-12.5983
satisfact	-12.6008
nalize	-12.6009
8,3	-12.608
武	-12.8932
肺	-12.8932
_	-12.8933
×	-12.8933
á	-13.2266
í	-13.2266
α	-13.2266
β	-13.2266
स	-13.2266
े	-13.2266
्	-13.2266
~	-13.2266
炎	-13.7266
ं	-13.7266
क	-13.7266
=	-13.7266
ò	-13.7266
ü	-13.7266
č	-13.7266
ş	-13.7266
γ	-13.7266
ब	-13.7266
र	-13.7266
汉	-13.7266
漢	-13.7266
]	-14.6677
च	-14.7266
£	-14.7266
å	-14.7266
é	-14.7266
ई	-14.7266
ओ	-14.7266
त	-14.7266
द	-14.7266
प	-14.7266
ल	-14.7266
व	-14.7266
श	-14.7266
ो	-14.7266
′	-14.7266
火	-14.7266
眼	-14.7266
ळ	-14.7266
ó	-14.7266
’	-15.1346
%	-15.1347
(	-15.1348
