<pad>	0
</s>	0
<unk>	0
▁¦	-0
▁𐋇	-1
▁,	-2
st	-3
ho	-4
▁.	-5
je	-6
po	-7
ne	-8
li	-9
ch	-10
te	-11
na	-12
se	-13
ro	-14
ov	-15
ní	-16
by	-17
ou	-18
ra	-19
to	-20
al	-21
ak	-22
ře	-23
ti	-24
ni	-25
sv	-26
de	-27
še	-28
do	-29
le	-30
di	-31
že	-32
ně	-33
ce	-34
bo	-35
la	-36
mu	-37
ři	-38
ji	-39
sk	-40
mi	-41
za	-42
kte	-43
rá	-44
ří	-45
▁:	-46
pro	-47
ze	-48
bu	-49
ve	-50
ko	-51
ého	-52
no	-53
od	-54
vy	-55
spo	-56
ví	-57
lo	-58
me	-59
hospo	-60
hospodi	-61
ná	-62
vi	-63
sl	-64
mě	-65
vá	-66
ka	-67
dy	-68
při	-69
jí	-70
vě	-71
jest	-72
dě	-73
či	-74
sy	-75
vše	-76
va	-77
ých	-78
hospodin	-79
ob	-80
ma	-81
jeho	-82
tě	-83
da	-84
▁;	-85
ru	-86
sta	-87
kter	-88
mo	-89
aby	-90
tak	-91
pak	-92
pře	-93
du	-94
be	-95
bude	-96
js	-97
vo	-98
ží	-99
pra	-100
ci	-101
syn	-102
nebo	-103
ta	-104
jak	-105
sti	-106
sem	-107
če	-108
řek	-109
ku	-110
krá	-111
tí	-112
lu	-113
pa	-114
ži	-115
tv	-116
jsem	-117
dí	-118
ova	-119
ky	-120
ale	-121
▁?	-122
el	-123
kdy	-124
cí	-125
své	-126
ha	-127
né	-128
lé	-129
nu	-130
ým	-131
jich	-132
byl	-133
řekl	-134
ši	-135
ší	-136
iz	-137
dá	-138
když	-139
ty	-140
sa	-141
ovi	-142
ny	-143
ové	-144
cho	-145
roz	-146
jako	-147
před	-148
izra	-149
obě	-150
který	-151
všec	-152
má	-153
kterýž	-154
sí	-155
kteří	-156
ný	-157
mí	-158
mé	-159
já	-160
lá	-161
lov	-162
ká	-163
jejich	-164
ste	-165
kteříž	-166
co	-167
lí	-168
dou	-169
zá	-170
ůj	-171
ům	-172
izrael	-173
zal	-174
il	-175
tu	-176
éž	-177
den	-178
tedy	-179
jsou	-180
bě	-181
proto	-182
pá	-183
nou	-184
mlu	-185
dl	-186
bra	-187
kdo	-188
ten	-189
slu	-190
mne	-191
uči	-192
ani	-193
ské	-194
ke	-195
dce	-196
svého	-197
ství	-198
stu	-199
toho	-200
děl	-201
cha	-202
ry	-203
tá	-204
ním	-205
hla	-206
tr	-207
pe	-208
šel	-209
proti	-210
bů	-211
pří	-212
rou	-213
zi	-214
sto	-215
pu	-216
sá	-217
jo	-218
ri	-219
on	-220
dob	-221
kteréž	-222
jsi	-223
jim	-224
nad	-225
bi	-226
pod	-227
bůh	-228
ot	-229
jemu	-230
země	-231
kou	-232
mno	-233
žíš	-234
také	-235
budou	-236
až	-237
re	-238
zemi	-239
stá	-240
hu	-241
dne	-242
jed	-243
vil	-244
lid	-245
protož	-246
áš	-247
nil	-248
ště	-249
byli	-250
ného	-251
praví	-252
což	-253
dal	-254
sly	-255
sr	-256
svě	-257
tobě	-258
té	-259
pr	-260
su	-261
si	-262
mou	-263
tom	-264
vám	-265
alo	-266
jej	-267
ští	-268
pě	-269
kaž	-270
tvé	-271
izraelsk	-272
lik	-273
vý	-274
král	-275
stí	-276
aj	-277
ník	-278
zí	-279
bylo	-280
dli	-281
ba	-282
sou	-283
žeb	-284
he	-285
služeb	-286
odpo	-287
vu	-288
poko	-289
pí	-290
davi	-291
nov	-292
svou	-293
chá	-294
bý	-295
domu	-296
hl	-297
my	-298
každ	-299
žá	-300
kni	-301
boha	-302
zd	-303
hle	-304
val	-305
jmé	-306
svých	-307
ju	-308
boží	-309
jte	-310
čí	-311
sva	-312
něm	-313
tvá	-314
dali	-315
vás	-316
všech	-317
ja	-318
vé	-319
koli	-320
dil	-321
synové	-322
kně	-323
vz	-324
david	-325
ovo	-326
šli	-327
synů	-328
sobě	-329
sm	-330
lově	-331
obět	-332
ův	-333
ráž	-334
člově	-335
vši	-336
stou	-337
vod	-338
stě	-339
so	-340
ných	-341
pl	-342
mezi	-343
zu	-344
lou	-345
nem	-346
vedl	-347
stře	-348
fa	-349
lidu	-350
muž	-351
mně	-352
ly	-353
jste	-354
spra	-355
tří	-356
oval	-357
všecky	-358
che	-359
pů	-360
zná	-361
stří	-362
pi	-363
neb	-364
náro	-365
těch	-366
moj	-367
syna	-368
bez	-369
jící	-370
zalé	-371
můj	-372
vr	-373
nej	-374
sté	-375
jeru	-376
jeruzalé	-377
chu	-378
ckni	-379
všickni	-380
ovati	-381
eg	-382
mluvil	-383
ča	-384
hro	-385
ct	-386
ými	-387
skr	-388
hospodinu	-389
králov	-390
sil	-391
dva	-392
krále	-393
bá	-394
ských	-395
oči	-396
vrá	-397
um	-398
byla	-399
nich	-400
kteráž	-401
sed	-402
aniž	-403
bou	-404
yp	-405
hy	-406
žád	-407
ského	-408
sla	-409
kra	-410
egyp	-411
slou	-412
řka	-413
její	-414
kdož	-415
všecko	-416
jeden	-417
velik	-418
mojžíš	-419
lení	-420
jsme	-421
tři	-422
nost	-423
skrze	-424
jud	-425
stra	-426
nás	-427
bí	-428
nebude	-429
jde	-430
srdce	-431
vš	-432
potom	-433
kní	-434
ruh	-435
jedno	-436
není	-437
kla	-438
jisté	-439
kázal	-440
odpově	-441
proro	-442
vů	-443
zů	-444
zna	-445
hospodina	-446
služební	-447
zajisté	-448
hří	-449
budu	-450
tam	-451
ků	-452
nebe	-453
kr	-454
něho	-455
stalo	-456
zdali	-457
▁(	-458
eli	-459
pou	-460
však	-461
jakž	-462
ježíš	-463
než	-464
tvůj	-465
nech	-466
učinil	-467
sedm	-468
nosti	-469
an	-470
dž	-471
jen	-472
ský	-473
milo	-474
chi	-475
cháze	-476
tel	-477
tek	-478
věci	-479
ode	-480
dům	-481
men	-482
nám	-483
kterou	-484
ovali	-485
pět	-486
měl	-487
tebe	-488
svým	-489
kri	-490
jíce	-491
usta	-492
tře	-493
tý	-494
jméno	-495
há	-496
svému	-497
nepo	-498
živo	-499
ctví	-500
otce	-501
více	-502
již	-503
města	-504
druh	-505
nyní	-506
kterouž	-507
ať	-508
zla	-509
tisí	-510
každý	-511
ová	-512
hospodinov	-513
prostře	-514
řá	-515
sli	-516
ců	-517
hně	-518
naše	-519
prav	-520
vali	-521
ele	-522
králi	-523
něj	-524
bratří	-525
prostřed	-526
pal	-527
shro	-528
mod	-529
ote	-530
vedli	-531
budeš	-532
nili	-533
zo	-534
pil	-535
pla	-536
vaše	-537
mého	-538
tím	-539
vol	-540
dr	-541
til	-542
lil	-543
žil	-544
ol	-545
tomu	-546
jestli	-547
jakož	-548
vel	-549
vati	-550
novi	-551
záko	-552
přišel	-553
zl	-554
hne	-555
aneb	-556
dobr	-557
toto	-558
egypt	-559
jestliže	-560
muži	-561
bohu	-562
desá	-563
pusti	-564
dní	-565
pokolení	-566
ská	-567
moc	-568
dědi	-569
řkou	-570
stal	-571
jenž	-572
fi	-573
nů	-574
vsta	-575
ža	-576
uje	-577
abych	-578
bil	-579
oni	-580
zástu	-581
svo	-582
ještě	-583
hou	-584
posl	-585
budete	-586
tvých	-587
takto	-588
máž	-589
sku	-590
čty	-591
shromáž	-592
řel	-593
posta	-594
man	-595
podlé	-596
ným	-597
živ	-598
prá	-599
spa	-600
němu	-601
slovo	-602
tra	-603
vili	-604
nic	-605
ken	-606
vaši	-607
řekli	-608
buď	-609
kem	-610
hr	-611
vra	-612
děla	-613
obrá	-614
tého	-615
všecken	-616
sau	-617
svá	-618
mnou	-619
kníža	-620
poč	-621
oltá	-622
býti	-623
hli	-624
mil	-625
pos	-626
tebou	-627
tku	-628
odpověděl	-629
zem	-630
kde	-631
nale	-632
ruku	-633
navrá	-634
voj	-635
služebník	-636
uče	-637
dění	-638
set	-639
svůj	-640
br	-641
hospodinova	-642
děli	-643
hřích	-644
nepra	-645
nimi	-646
ostří	-647
království	-648
vez	-649
kol	-650
slova	-651
svobo	-652
vší	-653
syny	-654
poš	-655
též	-656
místo	-657
pravím	-658
neu	-659
zdaliž	-660
spravedl	-661
smr	-662
čele	-663
národ	-664
liž	-665
poslal	-666
aro	-667
hospodine	-668
svém	-669
tvého	-670
slá	-671
žel	-672
dili	-673
ruce	-674
bož	-675
pově	-676
tky	-677
spravedli	-678
ješ	-679
zase	-680
zy	-681
brá	-682
cích	-683
vost	-684
pole	-685
abyste	-686
sty	-687
synu	-688
neči	-689
oby	-690
mr	-691
kněží	-692
abys	-693
ga	-694
zdvi	-695
jáko	-696
bydli	-697
let	-698
přá	-699
všecka	-700
izraelský	-701
šť	-702
dceti	-703
skému	-704
muže	-705
měsí	-706
vní	-707
viděl	-708
člověka	-709
áb	-710
▁)	-711
člověk	-712
uz	-713
žeh	-714
panov	-715
synům	-716
oh	-717
sám	-718
tvr	-719
věky	-720
chle	-721
roze	-722
činí	-723
kři	-724
niti	-725
oběti	-726
dem	-727
slyše	-728
tento	-729
dro	-730
áše	-731
slov	-732
žení	-733
pán	-734
čně	-735
fili	-736
zp	-737
lon	-738
neboť	-739
čtyři	-740
vyš	-741
svými	-742
všelik	-743
vadž	-744
duše	-745
star	-746
veli	-747
bezbož	-748
velmi	-749
stro	-750
nice	-751
alá	-752
dej	-753
dlé	-754
jem	-755
požeh	-756
mž	-757
dám	-758
čas	-759
přikázal	-760
izraelských	-761
mých	-762
izraele	-763
sebe	-764
viti	-765
ským	-766
tř	-767
vza	-768
vosti	-769
as	-770
sob	-771
čež	-772
sko	-773
dělal	-774
jednoho	-775
ano	-776
saul	-777
nství	-778
poně	-779
chvá	-780
pome	-781
vají	-782
měli	-783
ozná	-784
které	-785
rukou	-786
im	-787
loval	-788
dvě	-789
šed	-790
jdou	-791
množ	-792
otec	-793
veliké	-794
bývá	-795
vidí	-796
vysvobo	-797
poněvadž	-798
pení	-799
smlou	-800
šle	-801
pokoj	-802
vůkol	-803
mnoh	-804
dědictví	-805
pána	-806
přišli	-807
jíti	-808
níci	-809
vzal	-810
zvě	-811
dělá	-812
izraelští	-813
kdež	-814
stech	-815
vou	-816
abra	-817
baby	-818
domě	-819
žádného	-820
rodi	-821
vody	-822
ložil	-823
nechť	-824
nepřá	-825
stane	-826
doby	-827
ových	-828
pročež	-829
tů	-830
nemo	-831
žíše	-832
stoupi	-833
slyš	-834
jísti	-835
očima	-836
tohoto	-837
slyšel	-838
nác	-839
zlo	-840
bych	-841
stin	-842
sal	-843
šalo	-844
milosr	-845
šalomou	-846
ruky	-847
svět	-848
nce	-849
nim	-850
řkouce	-851
vese	-852
ženy	-853
přiká	-854
kterého	-855
filistin	-856
mor	-857
stý	-858
chom	-859
podob	-860
zápal	-861
hře	-862
leví	-863
napl	-864
proč	-865
chází	-866
zástupů	-867
mojžíšovi	-868
vámi	-869
tru	-870
vím	-871
fara	-872
žena	-873
činil	-874
jdi	-875
těm	-876
tele	-877
nější	-878
učedl	-879
množství	-880
kudž	-881
chli	-882
dobré	-883
vedlé	-884
obyva	-885
brž	-886
nevě	-887
otc	-888
pane	-889
denství	-890
milosrdenství	-891
abi	-892
psá	-893
zlé	-894
mužů	-895
nevy	-896
tiž	-897
ef	-898
plé	-899
syr	-900
hned	-901
noci	-902
ování	-903
hospodinem	-904
ami	-905
dov	-906
iáš	-907
vola	-908
jákob	-909
zdra	-910
žádný	-911
knížata	-912
opět	-913
zplo	-914
tež	-915
hlas	-916
město	-917
posvě	-918
manžel	-919
hor	-920
soud	-921
tisíc	-922
aza	-923
dím	-924
mení	-925
jehož	-926
ab	-927
nal	-928
mar	-929
žili	-930
každého	-931
dnů	-932
kněz	-933
moci	-934
nému	-935
panovník	-936
byly	-937
léta	-938
pakli	-939
umřel	-940
han	-941
moře	-942
ních	-943
rozu	-944
kníže	-945
dé	-946
mů	-947
míti	-948
am	-949
půj	-950
bože	-951
milu	-952
kteréhož	-953
ač	-954
váš	-955
věč	-956
duch	-957
jeruzaléma	-958
kvr	-959
chem	-960
joze	-961
první	-962
přijde	-963
rak	-964
tvo	-965
posle	-966
ustanov	-967
nes	-968
tma	-969
svěde	-970
bys	-971
šla	-972
děti	-973
abraha	-974
blá	-975
všeho	-976
děv	-977
měsíce	-978
života	-979
meče	-980
naši	-981
vání	-982
působ	-983
ge	-984
py	-985
hů	-986
kro	-987
liko	-988
nežli	-989
jeruzalémě	-990
naz	-991
sím	-992
vla	-993
žen	-994
kové	-995
totiž	-996
všeli	-997
obra	-998
řeči	-999
každé	-1000
kristu	-1001
toliko	-1002
tých	-1003
trá	-1004
ven	-1005
vlá	-1006
diti	-1007
dnes	-1008
stán	-1009
zabi	-1010
mnoho	-1011
tvoji	-1012
boj	-1013
nách	-1014
kal	-1015
ska	-1016
tili	-1017
táhl	-1018
ducha	-1019
jeruzalém	-1020
kry	-1021
teh	-1022
řil	-1023
beni	-1024
tělo	-1025
nebylo	-1026
egyptské	-1027
bro	-1028
jal	-1029
lem	-1030
slyší	-1031
ona	-1032
vej	-1033
času	-1034
nul	-1035
srd	-1036
chrá	-1037
hoře	-1038
volal	-1039
hospodinovo	-1040
dla	-1041
hra	-1042
mluví	-1043
dech	-1044
našeho	-1045
pozdvi	-1046
šti	-1047
nové	-1048
mám	-1049
vět	-1050
této	-1051
stavě	-1052
bet	-1053
věc	-1054
otci	-1055
moudro	-1056
prchli	-1057
podle	-1058
spolu	-1059
tváři	-1060
čer	-1061
mají	-1062
vašich	-1063
hej	-1064
lej	-1065
zaní	-1066
tou	-1067
nená	-1068
druhé	-1069
zue	-1070
řeč	-1071
jozue	-1072
stoupil	-1073
eze	-1074
ďte	-1075
slav	-1076
kraji	-1077
krista	-1078
hem	-1079
ješto	-1080
desáte	-1081
služebníci	-1082
dra	-1083
chet	-1084
jozef	-1085
pustil	-1086
mluviti	-1087
svědectví	-1088
příby	-1089
náš	-1090
půl	-1091
šil	-1092
přes	-1093
těla	-1094
us	-1095
čeho	-1096
spase	-1097
dokudž	-1098
poškvr	-1099
kří	-1100
tato	-1101
věcí	-1102
výcho	-1103
ustanove	-1104
vede	-1105
dří	-1106
tem	-1107
tvář	-1108
šení	-1109
díl	-1110
mla	-1111
ního	-1112
rovi	-1113
tvou	-1114
zení	-1115
dcery	-1116
šlechet	-1117
řekla	-1118
hospodinův	-1119
mat	-1120
dobře	-1121
pohle	-1122
zplodil	-1123
shromáždění	-1124
ké	-1125
nese	-1126
prorok	-1127
babylon	-1128
davidovi	-1129
nutí	-1130
otev	-1131
prvo	-1132
všechněm	-1133
cen	-1134
dni	-1135
šest	-1136
smrti	-1137
izraelského	-1138
místě	-1139
příči	-1140
zlého	-1141
▁),	-1142
poha	-1143
pomí	-1144
kterak	-1145
starší	-1146
em	-1147
dar	-1148
acha	-1149
telé	-1150
ježíše	-1151
způsob	-1152
heň	-1153
jor	-1154
lak	-1155
oheň	-1156
seme	-1157
dobro	-1158
přede	-1159
učiní	-1160
poušti	-1161
prosím	-1162
chy	-1163
chová	-1164
jordá	-1165
nepři	-1166
nácte	-1167
efra	-1168
sebou	-1169
svaty	-1170
nešlechet	-1171
izraelským	-1172
zje	-1173
zko	-1174
jménu	-1175
učině	-1176
kre	-1177
ýma	-1178
modli	-1179
národy	-1180
abraham	-1181
kraloval	-1182
ovu	-1183
sky	-1184
táh	-1185
říka	-1186
chiáš	-1187
abychom	-1188
dlo	-1189
klá	-1190
odí	-1191
pánu	-1192
dosti	-1193
vyšší	-1194
nepravost	-1195
měst	-1196
polo	-1197
pol	-1198
služ	-1199
srdci	-1200
obětovati	-1201
nedo	-1202
odě	-1203
duši	-1204
hova	-1205
nání	-1206
veliký	-1207
blí	-1208
rci	-1209
dává	-1210
umře	-1211
anděl	-1212
oha	-1213
vni	-1214
poto	-1215
lidem	-1216
nichž	-1217
puště	-1218
silný	-1219
gá	-1220
dle	-1221
jsa	-1222
nade	-1223
život	-1224
stánku	-1225
hoj	-1226
mal	-1227
zka	-1228
přední	-1229
oko	-1230
zen	-1231
berá	-1232
hory	-1233
mana	-1234
moáb	-1235
otců	-1236
vyšel	-1237
zákona	-1238
ostříha	-1239
všeliké	-1240
doko	-1241
dlí	-1242
tud	-1243
osta	-1244
chodí	-1245
vnitř	-1246
vyhla	-1247
ovy	-1248
bliž	-1249
neza	-1250
vedu	-1251
psáno	-1252
osm	-1253
sví	-1254
cizí	-1255
jazy	-1256
krev	-1257
vého	-1258
hlasu	-1259
třetí	-1260
slí	-1261
prvé	-1262
pustí	-1263
těl	-1264
nými	-1265
pora	-1266
stup	-1267
lek	-1268
němž	-1269
oblí	-1270
robo	-1271
brány	-1272
svaté	-1273
odpoví	-1274
dve	-1275
vně	-1276
amen	-1277
poma	-1278
vyvo	-1279
ústa	-1280
ar	-1281
meč	-1282
ohav	-1283
svěd	-1284
přikázaní	-1285
hal	-1286
ket	-1287
ují	-1288
níků	-1289
nění	-1290
cesty	-1291
loket	-1292
beniami	-1293
nejvyšší	-1294
spravedlnost	-1295
rej	-1296
moji	-1297
nýbrž	-1298
božího	-1299
učinili	-1300
klo	-1301
ždy	-1302
řeče	-1303
hlavu	-1304
hleda	-1305
ačkoli	-1306
učiním	-1307
mohl	-1308
mord	-1309
necha	-1310
slunce	-1311
odtud	-1312
národů	-1313
druhého	-1314
or	-1315
dny	-1316
hlu	-1317
žal	-1318
vyso	-1319
milost	-1320
řkoucí	-1321
nebudeš	-1322
lič	-1323
achi	-1324
mluv	-1325
námi	-1326
pokr	-1327
sama	-1328
městě	-1329
bratra	-1330
straně	-1331
dů	-1332
zpě	-1333
ání	-1334
ňte	-1335
tvým	-1336
smlouvu	-1337
ční	-1338
jiné	-1339
vždy	-1340
mlá	-1341
levít	-1342
nouti	-1343
egypta	-1344
spravedlnosti	-1345
str	-1346
úst	-1347
žeť	-1348
skut	-1349
vení	-1350
deset	-1351
navra	-1352
počal	-1353
dom	-1354
lep	-1355
pan	-1356
údo	-1357
psal	-1358
jména	-1359
pozna	-1360
zůsta	-1361
činiti	-1362
sse	-1363
nadě	-1364
stupu	-1365
šalomoun	-1366
služebníka	-1367
iza	-1368
nez	-1369
▁.)	-1370
jere	-1371
vytr	-1372
bratr	-1373
postavil	-1374
diž	-1375
bláz	-1376
nádob	-1377
kterýžto	-1378
liti	-1379
tech	-1380
vyko	-1381
berán	-1382
bohem	-1383
oltáře	-1384
izraelské	-1385
ám	-1386
mon	-1387
chlé	-1388
trou	-1389
potře	-1390
údolí	-1391
tisíců	-1392
bel	-1393
dře	-1394
neod	-1395
cestě	-1396
ovoce	-1397
spasení	-1398
mem	-1399
mým	-1400
aron	-1401
cizo	-1402
tito	-1403
izraeli	-1404
prvoroze	-1405
níka	-1406
tuto	-1407
jistě	-1408
poslou	-1409
jdě	-1410
smil	-1411
říká	-1412
nalez	-1413
oblíče	-1414
hel	-1415
ole	-1416
vin	-1417
kana	-1418
ruka	-1419
byste	-1420
takov	-1421
všemu	-1422
efraim	-1423
vyvedl	-1424
lů	-1425
hnu	-1426
bral	-1427
nemá	-1428
náše	-1429
sami	-1430
zahy	-1431
faraon	-1432
jeremi	-1433
viděli	-1434
ustanovení	-1435
tre	-1436
dnech	-1437
dříví	-1438
nebyl	-1439
oltář	-1440
pravi	-1441
zlata	-1442
cestou	-1443
roucho	-1444
bé	-1445
jme	-1446
kost	-1447
nohy	-1448
sobo	-1449
volá	-1450
roucha	-1451
udělal	-1452
manasse	-1453
nepravosti	-1454
hospodinovy	-1455
neo	-1456
kazu	-1457
krát	-1458
rách	-1459
samu	-1460
místa	-1461
ustavi	-1462
slyšeli	-1463
mému	-1464
podo	-1465
chléb	-1466
kosti	-1467
mluvy	-1468
vycháze	-1469
zil	-1470
šlo	-1471
bili	-1472
skou	-1473
řili	-1474
ženi	-1475
moudr	-1476
úmluvy	-1477
pouště	-1478
strany	-1479
zůstal	-1480
kterých	-1481
nepřátel	-1482
plá	-1483
pom	-1484
stál	-1485
vydal	-1486
národové	-1487
páně	-1488
upří	-1489
vydá	-1490
skými	-1491
stoli	-1492
jícího	-1493
ben	-1494
riáš	-1495
skry	-1496
cestu	-1497
odšel	-1498
davida	-1499
rodila	-1500
řa	-1501
jona	-1502
náct	-1503
nára	-1504
sili	-1505
všel	-1506
zali	-1507
ností	-1508
půjde	-1509
vstal	-1510
vojska	-1511
kananej	-1512
opa	-1513
galá	-1514
oblak	-1515
stojí	-1516
větší	-1517
fe	-1518
jez	-1519
hroz	-1520
nesl	-1521
vodí	-1522
mečem	-1523
zákon	-1524
čtyřidceti	-1525
hospodinovu	-1526
hlé	-1527
nila	-1528
ohni	-1529
tyto	-1530
galád	-1531
mnozí	-1532
odpla	-1533
tváří	-1534
pravil	-1535
výše	-1536
niž	-1537
věz	-1538
zra	-1539
jících	-1540
ukázal	-1541
▁!	-1542
dáš	-1543
čte	-1544
blou	-1545
cení	-1546
lidé	-1547
nici	-1548
těmi	-1549
zání	-1550
uzdra	-1551
služebníky	-1552
kon	-1553
onť	-1554
toť	-1555
cího	-1556
níky	-1557
žiti	-1558
nesli	-1559
znamení	-1560
stoupili	-1561
zpí	-1562
čet	-1563
hodi	-1564
mění	-1565
vaší	-1566
mluvili	-1567
někteří	-1568
izá	-1569
kru	-1570
pru	-1571
dílo	-1572
mecí	-1573
padl	-1574
ráno	-1575
všem	-1576
budeme	-1577
jsouce	-1578
kristus	-1579
cíti	-1580
dlou	-1581
může	-1582
skop	-1583
výso	-1584
jedna	-1585
klaně	-1586
bydlil	-1587
milosti	-1588
jáť	-1589
lož	-1590
klad	-1591
moři	-1592
víte	-1593
budiž	-1594
něhož	-1595
vejte	-1596
modlit	-1597
bla	-1598
kví	-1599
očí	-1600
spá	-1601
utí	-1602
chce	-1603
poli	-1604
mnohé	-1605
přebý	-1606
zůstá	-1607
odpoči	-1608
pomezí	-1609
rozkázal	-1610
div	-1611
símě	-1612
čeká	-1613
chleba	-1614
jaké	-1615
vším	-1616
naproti	-1617
navrátí	-1618
kterýchž	-1619
porodila	-1620
bor	-1621
cel	-1622
dan	-1623
svr	-1624
daje	-1625
potě	-1626
vala	-1627
ziáš	-1628
jemuž	-1629
ohněm	-1630
králem	-1631
povsta	-1632
činili	-1633
oznámil	-1634
manasses	-1635
ím	-1636
níž	-1637
tně	-1638
ssou	-1639
zhře	-1640
ženu	-1641
dejte	-1642
stráž	-1643
kamení	-1644
přišed	-1645
fí	-1646
jdu	-1647
nav	-1648
těž	-1649
boji	-1650
přísa	-1651
vezme	-1652
národu	-1653
vcháze	-1654
bar	-1655
nec	-1656
noc	-1657
osla	-1658
zemí	-1659
dveří	-1660
jděte	-1661
uvedl	-1662
velikým	-1663
obětoval	-1664
sť	-1665
dáž	-1666
víš	-1667
dost	-1668
krve	-1669
lili	-1670
oble	-1671
petr	-1672
svatý	-1673
samuel	-1674
světlo	-1675
tehdáž	-1676
svatyně	-1677
ustanovi	-1678
izraelskému	-1679
tal	-1680
zav	-1681
ško	-1682
chud	-1683
lidí	-1684
uzře	-1685
vých	-1686
dcíti	-1687
mláden	-1688
otcové	-1689
nebudou	-1690
pad	-1691
tka	-1692
joáb	-1693
juda	-1694
nemů	-1695
poru	-1696
utek	-1697
hledá	-1698
všemi	-1699
čehož	-1700
knížat	-1701
jeremiáš	-1702
třidceti	-1703
učedlníci	-1704
díš	-1705
myš	-1706
zej	-1707
joza	-1708
kame	-1709
věří	-1710
žele	-1711
assyr	-1712
dědičně	-1713
go	-1714
amo	-1715
hod	-1716
uda	-1717
zku	-1718
jali	-1719
píti	-1720
uzří	-1721
dnové	-1722
jedli	-1723
loupe	-1724
tvému	-1725
nikoli	-1726
oltáři	-1727
cožkoli	-1728
kl	-1729
čím	-1730
biti	-1731
maje	-1732
tolik	-1733
všecku	-1734
mrtvých	-1735
moudrost	-1736
prostředku	-1737
bře	-1738
tní	-1739
plak	-1740
šili	-1741
kterémž	-1742
rmou	-1743
mysli	-1744
udělá	-1745
nalezl	-1746
bydliti	-1747
dvanácte	-1748
kli	-1749
máš	-1750
úro	-1751
jedl	-1752
jete	-1753
nebi	-1754
stvo	-1755
vzav	-1756
dcera	-1757
matky	-1758
nadto	-1759
nepří	-1760
odvrá	-1761
zabil	-1762
zlořeče	-1763
očeká	-1764
soudu	-1765
zahan	-1766
roboám	-1767
vidění	-1768
velikou	-1769
navrátil	-1770
prchlivost	-1771
rem	-1772
koho	-1773
pohr	-1774
rozp	-1775
stem	-1776
bydlí	-1777
městí	-1778
táhli	-1779
stoupí	-1780
svatých	-1781
ezechiáš	-1782
izraelem	-1783
spravedlivý	-1784
cím	-1785
jší	-1786
zvu	-1787
žím	-1788
krist	-1789
vzali	-1790
letech	-1791
rozhně	-1792
benství	-1793
bydlili	-1794
proroka	-1795
přicháze	-1796
cky	-1797
ria	-1798
čil	-1799
mele	-1800
tvém	-1801
tehdy	-1802
tosti	-1803
mecítma	-1804
smlouvy	-1805
tolikéž	-1806
služebníků	-1807
nek	-1808
van	-1809
abso	-1810
běda	-1811
drže	-1812
dítě	-1813
jaký	-1814
obře	-1815
prve	-1816
ření	-1817
pocho	-1818
počtu	-1819
pravé	-1820
sláva	-1821
světa	-1822
čiště	-1823
nenávi	-1824
stříbr	-1825
dvadceti	-1826
čeledech	-1827
mej	-1828
tan	-1829
tro	-1830
vyh	-1831
gaba	-1832
horu	-1833
pros	-1834
budeť	-1835
stříbra	-1836
ala	-1837
pta	-1838
zda	-1839
cech	-1840
dvou	-1841
dáno	-1842
jiní	-1843
kali	-1844
nasy	-1845
niáš	-1846
radu	-1847
veče	-1848
kněze	-1849
níkům	-1850
tisíce	-1851
proroku	-1852
nebudete	-1853
podobenství	-1854
fat	-1855
poj	-1856
ptá	-1857
uká	-1858
uši	-1859
vce	-1860
bole	-1861
kadi	-1862
mlad	-1863
mysl	-1864
stav	-1865
tomto	-1866
čeled	-1867
pokoje	-1868
rozmno	-1869
vyprav	-1870
kř	-1871
nit	-1872
ově	-1873
balá	-1874
domí	-1875
jezu	-1876
lodí	-1877
čili	-1878
obětí	-1879
pastý	-1880
rozdě	-1881
vezmi	-1882
vyplé	-1883
přikry	-1884
skutky	-1885
městech	-1886
požehna	-1887
manželku	-1888
ama	-1889
mém	-1890
ném	-1891
trů	-1892
▁,)	-1893
dati	-1894
ovce	-1895
tely	-1896
truh	-1897
bezpe	-1898
kromě	-1899
malič	-1900
slých	-1901
uzřel	-1902
vstav	-1903
zaslí	-1904
jiných	-1905
aronovi	-1906
přivedl	-1907
ada	-1908
tej	-1909
věr	-1910
geli	-1911
trpě	-1912
blaho	-1913
pavel	-1914
přisá	-1915
zname	-1916
desáti	-1917
vající	-1918
blahosla	-1919
judského	-1920
douce	-1921
vejde	-1922
zlato	-1923
přícho	-1924
mojžíše	-1925
pověděl	-1926
lím	-1927
božím	-1928
chana	-1929
hlavy	-1930
anobrž	-1931
chodil	-1932
truhlu	-1933
zástup	-1934
vždycky	-1935
fá	-1936
jím	-1937
kle	-1938
zau	-1939
evan	-1940
lidi	-1941
takž	-1942
utvr	-1943
vína	-1944
poušť	-1945
beniamin	-1946
evangeli	-1947
ezau	-1948
síla	-1949
čist	-1950
slávu	-1951
vrchu	-1952
vojsko	-1953
dobrého	-1954
pravili	-1955
judských	-1956
příbytku	-1957
hospodinově	-1958
ms	-1959
uvr	-1960
cuje	-1961
dale	-1962
fari	-1963
konči	-1964
lepší	-1965
roztr	-1966
dělali	-1967
poslech	-1968
východu	-1969
zachová	-1970
člověčí	-1971
izraelovi	-1972
evangelium	-1973
pís	-1974
tné	-1975
izák	-1976
jedi	-1977
rost	-1978
chtěl	-1979
jedné	-1980
bychom	-1981
hejtma	-1982
lování	-1983
nádoby	-1984
pokoji	-1985
přislu	-1986
králové	-1987
odpovídaje	-1988
ram	-1989
tým	-1990
sion	-1991
snad	-1992
druhý	-1993
farao	-1994
nácti	-1995
stupo	-1996
babylo	-1997
nebesa	-1998
rychle	-1999
čeledi	-2000
přijdou	-2001
svatého	-2002
ustavičně	-2003
oz	-2004
kání	-2005
něco	-2006
čtvr	-2007
židé	-2008
hněvu	-2009
násle	-2010
vyšli	-2011
výbor	-2012
vašeho	-2013
vyvolil	-2014
zůstane	-2015
požehnání	-2016
jezukrista	-2017
bál	-2018
dvé	-2019
bohy	-2020
dají	-2021
něni	-2022
buďte	-2023
okolo	-2024
učení	-2025
mnosti	-2026
převrá	-2027
těchto	-2028
davidův	-2029
levítové	-2030
pev	-2031
uli	-2032
sedí	-2033
vele	-2034
knize	-2035
medle	-2036
zacho	-2037
našich	-2038
stavěl	-2039
obrátil	-2040
stolici	-2041
uslyšel	-2042
sloužiti	-2043
předměstí	-2044
hé	-2045
sé	-2046
▁[	-2047
▁]	-2048
obi	-2049
uži	-2050
vze	-2051
zor	-2052
bení	-2053
ceni	-2054
lože	-2055
sprá	-2056
vida	-2057
cheru	-2058
nesou	-2059
nemůže	-2060
polovi	-2061
skutků	-2062
příčiny	-2063
přichází	-2064
nepřátely	-2065
ber	-2066
leč	-2067
obe	-2068
sní	-2069
zle	-2070
vstá	-2071
víry	-2072
zaja	-2073
zápa	-2074
bráně	-2075
někdo	-2076
táhne	-2077
umění	-2078
vyšed	-2079
navští	-2080
nechať	-2081
služebníku	-2082
bal	-2083
cír	-2084
liť	-2085
zdá	-2086
chodo	-2087
sucho	-2088
žádné	-2089
chrámu	-2090
lovati	-2091
peníze	-2092
samaří	-2093
věcech	-2094
položili	-2095
oblíčejem	-2096
bit	-2097
sen	-2098
hněv	-2099
máme	-2100
vodou	-2101
zemře	-2102
dlouho	-2103
farize	-2104
kaldej	-2105
přišla	-2106
chodono	-2107
náramně	-2108
sedmého	-2109
stříbro	-2110
padesáte	-2111
obětovali	-2112
prchlivosti	-2113
spravedlivého	-2114
ký	-2115
uj	-2116
nabu	-2117
pili	-2118
radě	-2119
titi	-2120
konce	-2121
židov	-2122
vzdělá	-2123
cherubí	-2124
chodili	-2125
miloval	-2126
prvního	-2127
ach	-2128
chý	-2129
seč	-2130
apoš	-2131
dani	-2132
posa	-2133
sklá	-2134
tova	-2135
vaje	-2136
řeky	-2137
knězi	-2138
známo	-2139
apošto	-2140
oznámi	-2141
rozptý	-2142
povolal	-2143
sloužili	-2144
ssoužení	-2145
královské	-2146
nabuchodono	-2147
řů	-2148
lam	-2149
drží	-2150
lotů	-2151
měla	-2152
těle	-2153
vzbu	-2154
zavr	-2155
brali	-2156
kámen	-2157
noční	-2158
pošli	-2159
jménem	-2160
kterým	-2161
miluje	-2162
bratřím	-2163
nebeské	-2164
třetího	-2165
moudrosti	-2166
obyvatele	-2167
obyvatelé	-2168
ustanovil	-2169
odpověděli	-2170
idu	-2171
kam	-2172
teď	-2173
zdi	-2174
zte	-2175
ammo	-2176
nali	-2177
ohně	-2178
pusť	-2179
rame	-2180
víno	-2181
mohou	-2182
půlnoci	-2183
ml	-2184
síň	-2185
dále	-2186
jiný	-2187
jtež	-2188
počá	-2189
stud	-2190
teli	-2191
vuje	-2192
živi	-2193
otcům	-2194
věčné	-2195
hříchy	-2196
navrať	-2197
nových	-2198
pravdě	-2199
pustili	-2200
člověku	-2201
lah	-2202
moř	-2203
pot	-2204
sle	-2205
nuli	-2206
ovým	-2207
poho	-2208
smrt	-2209
síti	-2210
zvlá	-2211
čtyř	-2212
bohat	-2213
obětu	-2214
pokla	-2215
naději	-2216
pozdra	-2217
slyšte	-2218
mnohých	-2219
jákobovi	-2220
kralovati	-2221
odpočinutí	-2222
rů	-2223
klí	-2224
tiv	-2225
změ	-2226
chlu	-2227
dneš	-2228
leží	-2229
lích	-2230
vítr	-2231
počet	-2232
téhož	-2233
idumej	-2234
přestou	-2235
přisluho	-2236
ostříhati	-2237
filistinští	-2238
služebníkům	-2239
vl	-2240
des	-2241
hům	-2242
jda	-2243
uvě	-2244
zan	-2245
zdr	-2246
gali	-2247
krví	-2248
obli	-2249
pořá	-2250
desát	-2251
pokrm	-2252
posla	-2253
amorej	-2254
náctého	-2255
podstav	-2256
učiniti	-2257
nenávidí	-2258
převráce	-2259
hř	-2260
uč	-2261
ana	-2262
dné	-2263
prv	-2264
rov	-2265
ývá	-2266
hlad	-2267
máte	-2268
ocho	-2269
zeni	-2270
širo	-2271
ších	-2272
matka	-2273
stáda	-2274
hovada	-2275
otevře	-2276
viděti	-2277
ammonit	-2278
některé	-2279
přisáhl	-2280
trápení	-2281
kteřížto	-2282
kům	-2283
mot	-2284
zky	-2285
zří	-2286
pahr	-2287
valo	-2288
veno	-2289
vrch	-2290
bohům	-2291
eliáš	-2292
kdyby	-2293
vyjde	-2294
zahla	-2295
bývají	-2296
duchem	-2297
hlasem	-2298
modlil	-2299
tomuto	-2300
ostříhá	-2301
přijíti	-2302
bližního	-2303
příchozí	-2304
posloucha	-2305
přestoupení	-2306
job	-2307
maž	-2308
zpu	-2309
chtě	-2310
loží	-2311
rána	-2312
such	-2313
takť	-2314
žalá	-2315
žíši	-2316
seděl	-2317
uvedu	-2318
vzkří	-2319
učiněn	-2320
přísahou	-2321
faraonovi	-2322
odpověděv	-2323
mý	-2324
noé	-2325
opo	-2326
ple	-2327
jimž	-2328
koru	-2329
novu	-2330
ozna	-2331
síně	-2332
hebro	-2333
naklo	-2334
obyče	-2335
opatr	-2336
pozná	-2337
vešli	-2338
jednou	-2339
jordán	-2340
nebyli	-2341
obrátí	-2342
polední	-2343
nenávisti	-2344
hi	-2345
byť	-2346
smě	-2347
vem	-2348
čka	-2349
cové	-2350
mocí	-2351
sede	-2352
tali	-2353
tila	-2354
vodu	-2355
ňuje	-2356
jichž	-2357
judst	-2358
pilně	-2359
posil	-2360
přijí	-2361
rozko	-2362
rozum	-2363
slávy	-2364
stáli	-2365
večer	-2366
řství	-2367
jiného	-2368
vyzdvi	-2369
kterýmž	-2370
příčinou	-2371
přistoupi	-2372
ok	-2373
čá	-2374
bem	-2375
hot	-2376
kud	-2377
liv	-2378
miž	-2379
otá	-2380
ral	-2381
taj	-2382
zel	-2383
děve	-2384
nalé	-2385
rato	-2386
udat	-2387
vyuč	-2388
čení	-2389
cestá	-2390
dával	-2391
staro	-2392
svýma	-2393
čeledí	-2394
jozafat	-2395
rozpome	-2396
shromaž	-2397
žádosti	-2398
mas	-2399
poz	-2400
uží	-2401
dcer	-2402
hříš	-2403
léví	-2404
maso	-2405
tkem	-2406
zuje	-2407
žalm	-2408
králů	-2409
padli	-2410
strom	-2411
eleaza	-2412
hledal	-2413
horách	-2414
jdouce	-2415
majíce	-2416
očiště	-2417
ratole	-2418
suchou	-2419
nečistý	-2420
obyvatel	-2421
vstoupil	-2422
bův	-2423
lok	-2424
neš	-2425
noh	-2426
von	-2427
zví	-2428
houf	-2429
jeri	-2430
libá	-2431
mědě	-2432
pamě	-2433
slit	-2434
tana	-2435
achab	-2436
měsíc	-2437
vlast	-2438
zmord	-2439
ježíši	-2440
nazval	-2441
nejsou	-2442
olejem	-2443
semene	-2444
skopce	-2445
uděláš	-2446
veselí	-2447
přebývá	-2448
zápalné	-2449
poslední	-2450
všelikou	-2451
požehnaný	-2452
gi	-2453
jan	-2454
nai	-2455
béře	-2456
jaká	-2457
kněž	-2458
leže	-2459
malo	-2460
nati	-2461
palá	-2462
stej	-2463
síly	-2464
tiny	-2465
úzko	-2466
chovi	-2467
pahrb	-2468
polní	-2469
nemohl	-2470
pustím	-2471
veliká	-2472
každému	-2473
národům	-2474
půlnoční	-2475
východní	-2476
přikázání	-2477
gád	-2478
rce	-2479
umy	-2480
dílu	-2481
musí	-2482
dceru	-2483
hrobu	-2484
nechá	-2485
pomoc	-2486
sélah	-2487
proroky	-2488
studnice	-2489
velikého	-2490
zápalnou	-2491
filistinských	-2492
ran	-2493
sbí	-2494
mimo	-2495
mělo	-2496
pose	-2497
učiň	-2498
vený	-2499
věků	-2500
čině	-2501
živé	-2502
oleje	-2503
utekl	-2504
velice	-2505
jordánu	-2506
nemohli	-2507
položil	-2508
pozdvih	-2509
zhřešil	-2510
ďá	-2511
krás	-2512
madi	-2513
meze	-2514
píse	-2515
sest	-2516
živť	-2517
duchu	-2518
jazyk	-2519
mohli	-2520
ostro	-2521
prázd	-2522
rozká	-2523
volka	-2524
vypra	-2525
zlaté	-2526
ďábel	-2527
domích	-2528
oznámí	-2529
spolek	-2530
vajíce	-2531
choditi	-2532
hledali	-2533
myšlení	-2534
pravici	-2535
silného	-2536
jednostej	-2537
ša	-2538
něn	-2539
ono	-2540
umí	-2541
čné	-2542
komu	-2543
náší	-2544
ován	-2545
potu	-2546
počí	-2547
ýval	-2548
řečí	-2549
jednu	-2550
nemoc	-2551
vykou	-2552
zvěst	-2553
nádobí	-2554
strach	-2555
poledne	-2556
souditi	-2557
babylona	-2558
neposlou	-2559
ohavnosti	-2560
všelikého	-2561
mel	-2562
dáti	-2563
kati	-2564
luje	-2565
poní	-2566
doufa	-2567
přive	-2568
stinu	-2569
bethel	-2570
hříchu	-2571
judské	-2572
madian	-2573
nebudu	-2574
pouští	-2575
beránka	-2576
jakožto	-2577
nalezli	-2578
protože	-2579
všeliký	-2580
davidova	-2581
nepřátelé	-2582
pohostinu	-2583
joi	-2584
kup	-2585
nuz	-2586
oba	-2587
rim	-2588
zed	-2589
čem	-2590
bojí	-2591
jetí	-2592
vdov	-2593
cesta	-2594
jitra	-2595
neboj	-2596
nepro	-2597
padne	-2598
socho	-2599
stala	-2600
odešli	-2601
psalms	-2602
raději	-2603
samého	-2604
takové	-2605
abimele	-2606
marnost	-2607
posvěce	-2608
puštění	-2609
jeroboám	-2610
kteréžto	-2611
vespolek	-2612
hý	-2613
jel	-2614
rab	-2615
rad	-2616
sam	-2617
zak	-2618
ách	-2619
éhu	-2620
čky	-2621
hati	-2622
hové	-2623
sime	-2624
ujte	-2625
coval	-2626
dobrý	-2627
domem	-2628
hubil	-2629
odšed	-2630
osvěd	-2631
státi	-2632
vláda	-2633
zboží	-2634
bratru	-2635
jonata	-2636
prozpě	-2637
hledati	-2638
nechtěl	-2639
sstoupil	-2640
všelijak	-2641
dot	-2642
nen	-2643
utr	-2644
vak	-2645
vál	-2646
zro	-2647
bohů	-2648
char	-2649
dama	-2650
hada	-2651
křik	-2652
oddě	-2653
pěti	-2654
skrý	-2655
ster	-2656
sích	-2657
vypl	-2658
vojsk	-2659
vstaň	-2660
dělati	-2661
judský	-2662
přišlo	-2663
radost	-2664
soudil	-2665
uslyše	-2666
vytáhl	-2667
cizozem	-2668
porazil	-2669
vystavěl	-2670
vysvobodil	-2671
cti	-2672
ner	-2673
sve	-2674
zar	-2675
zží	-2676
šťa	-2677
bití	-2678
díla	-2679
hejt	-2680
lena	-2681
plod	-2682
pozo	-2683
řeme	-2684
ženě	-2685
dílem	-2686
kamen	-2687
místu	-2688
neměl	-2689
nepře	-2690
nezná	-2691
přepá	-2692
smrtí	-2693
daniel	-2694
naděje	-2695
večera	-2696
zajetí	-2697
cestách	-2698
hejtman	-2699
ostatek	-2700
poznali	-2701
proroci	-2702
saulovi	-2703
svatyni	-2704
vidouce	-2705
vzdělal	-2706
ostříhal	-2707
ad	-2708
mz	-2709
ali	-2710
ban	-2711
báz	-2712
don	-2713
hoř	-2714
nef	-2715
úře	-2716
pové	-2717
slep	-2718
dostí	-2719
menší	-2720
neníť	-2721
ptact	-2722
zoval	-2723
zpěvá	-2724
kdežto	-2725
volali	-2726
maličko	-2727
zůstali	-2728
bezbožných	-2729
izraelskými	-2730
královského	-2731
hospodinovýma	-2732
ir	-2733
ati	-2734
sna	-2735
vet	-2736
vým	-2737
cest	-2738
jede	-2739
kopí	-2740
koře	-2741
koři	-2742
list	-2743
peně	-2744
tisk	-2745
třil	-2746
anebo	-2747
buďto	-2748
cedro	-2749
darmo	-2750
loktů	-2751
sluší	-2752
vostí	-2753
vztáh	-2754
blízko	-2755
levítů	-2756
obliče	-2757
sichem	-2758
trouby	-2759
vinice	-2760
dokonal	-2761
hledají	-2762
přikazu	-2763
přivedu	-2764
pohanění	-2765
bohatství	-2766
kananejské	-2767
čt	-2768
dně	-2769
gal	-2770
hat	-2771
san	-2772
slo	-2773
zbo	-2774
andě	-2775
bilo	-2776
chal	-2777
hvěz	-2778
hůru	-2779
jéhu	-2780
nada	-2781
nami	-2782
nete	-2783
sluš	-2784
učil	-2785
víme	-2786
víra	-2787
vůle	-2788
říti	-2789
ostat	-2790
posly	-2791
právě	-2792
srdcem	-2793
vyvýše	-2794
zapome	-2795
počátku	-2796
velblou	-2797
zemřeli	-2798
zůstává	-2799
dvadcíti	-2800
dvanácti	-2801
án	-2802
dbá	-2803
lát	-2804
nak	-2805
psa	-2806
ssu	-2807
zeň	-2808
hali	-2809
něna	-2810
rady	-2811
siro	-2812
tové	-2813
všed	-2814
bázan	-2815
doche	-2816
dvěma	-2817
elize	-2818
konec	-2819
nezna	-2820
prach	-2821
promě	-2822
vakrá	-2823
zacha	-2824
chrámě	-2825
dávali	-2826
hříchů	-2827
mající	-2828
poznal	-2829
pravdu	-2830
rozumí	-2831
zlatem	-2832
živého	-2833
bojoval	-2834
lučiště	-2835
nečisto	-2836
proroků	-2837
mardoche	-2838
svatosti	-2839
navrátili	-2840
jeruzalému	-2841
sedmdesáte	-2842
kan	-2843
osí	-2844
tuk	-2845
uji	-2846
buje	-2847
círk	-2848
dary	-2849
izai	-2850
izma	-2851
kamž	-2852
naší	-2853
noha	-2854
pomi	-2855
taže	-2856
vila	-2857
zmoc	-2858
zvuk	-2859
chali	-2860
dvéře	-2861
jisto	-2862
nikdy	-2863
pacho	-2864
posti	-2865
sedmi	-2866
uslyš	-2867
šťast	-2868
absolo	-2869
desíti	-2870
dvakrá	-2871
nejsem	-2872
pokání	-2873
službu	-2874
svatým	-2875
říkají	-2876
krajině	-2877
pochová	-2878
pokojné	-2879
požehnal	-2880
všemohou	-2881
říkajíce	-2882
nejvyššího	-2883
šalomounovi	-2884
babylonského	-2885
nešlechetnost	-2886
hni	-2887
per	-2888
poď	-2889
báli	-2890
dala	-2891
douf	-2892
hání	-2893
sema	-2894
tenť	-2895
volů	-2896
vozy	-2897
zati	-2898
zeno	-2899
ženo	-2900
bojov	-2901
jakou	-2902
otcov	-2903
ováni	-2904
poklo	-2905
slávě	-2906
zahra	-2907
kněžím	-2908
pohany	-2909
volati	-2910
dvakrát	-2911
shromáždil	-2912
jž	-2913
hůl	-2914
kým	-2915
osa	-2916
sně	-2917
vsi	-2918
zde	-2919
žíz	-2920
dána	-2921
málo	-2922
neob	-2923
siti	-2924
strá	-2925
damaš	-2926
mouky	-2927
očišť	-2928
posmě	-2929
práce	-2930
¦	-2931
▁	-2932
o	-2933
e	-2934
a	-2935
i	-2936
n	-2937
t	-2938
s	-2939
l	-2940
v	-2941
d	-2942
m	-2943
k	-2944
𐋇	-2945
u	-2946
,	-2947
p	-2948
h	-2949
j	-2950
r	-2951
í	-2952
b	-2953
c	-2954
y	-2955
z	-2956
á	-2957
ž	-2958
ě	-2959
ř	-2960
é	-2961
š	-2962
.	-2963
ý	-2964
č	-2965
ů	-2966
:	-2967
ť	-2968
;	-2969
?	-2970
f	-2971
g	-2972
ú	-2973
ň	-2974
ď	-2975
-	-2976
(	-2977
)	-2978
ó	-2979
!	-2980
[	-2981
]	-2982
1	-2983
x	-2984
3	-2985
2	-2986
4	-2987
5	-2988
8	-2989
0	-2990
9	-2991
6	-2992
7	-2993
𐊣	-2994
𐊼	-2995
#	-2996
