<pad>	0
</s>	0
<unk>	0
ም	-2.95202
፥	-3.57236
ን	-3.69855
።	-3.78571
ና	-4.09987
▁	-4.14714
፤	-4.30752
▁ወደ	-4.65665
▁የ	-4.7038
▁በ	-4.73111
▁ሁሉ	-4.74889
▁እንደ	-5.09029
▁ከ	-5.15575
ው	-5.18788
ት	-5.18995
▁ላይ	-5.2064
▁ዘንድ	-5.21945
ስ	-5.30118
▁እግዚአብሔር	-5.31121
?	-5.36387
▁ግን	-5.3842
ንም	-5.44592
ህ	-5.45316
▁ለ	-5.52037
▁አ	-5.52749
▁ይ	-5.61535
▁ነገር	-5.62
ር	-5.65314
▁ስለ	-5.65992
▁ጊዜ	-5.67004
▁ጋር	-5.69966
ል	-5.75743
▁ልጆች	-5.79985
▁ልጅ	-5.81834
▁ተ	-5.84494
▁ሰው	-5.87331
ለ	-5.9525
▁እኔ	-6.02495
▁ያ	-6.05507
▁የሚ	-6.07482
▁እንዲህ	-6.08745
ብ	-6.1233
ድ	-6.1234
▁ቤት	-6.14034
▁ቀን	-6.15512
ረ	-6.16491
▁ፊት	-6.19445
▁ሆይ፥	-6.21595
▁እ	-6.22118
ዋ	-6.238
▁ት	-6.24371
በት	-6.25183
ደ	-6.2636
ራ	-6.28582
ግ	-6.31501
▁ሰዎች	-6.33959
▁ደግሞ	-6.35136
▁ቃል	-6.35206
ሰ	-6.35223
ሽ	-6.36893
በ	-6.37363
ታ	-6.37545
ባ	-6.39952
መ	-6.40164
▁መ	-6.42869
▁እርሱ	-6.43034
ላ	-6.43194
▁ምድር	-6.44645
ጥ	-6.44999
▁አይ	-6.45094
▁ንጉሥ	-6.45212
ቅ	-6.45474
ውን	-6.45496
▁ድረስ	-6.45525
▁ነው	-6.45555
▁አንድ	-6.45788
ተ	-6.45903
ች	-6.46538
ሳ	-6.46665
▁አንተ	-6.467
ቀ	-6.48597
ገ	-6.49031
▁በእግዚአብሔር	-6.49547
▁እስከ	-6.49923
ነ	-6.49971
▁አለው።	-6.51162
ፍ	-6.52766
▁ይህ	-6.53253
▁አል	-6.54082
▁ነው።	-6.56313
▁ውስጥ	-6.56324
▁ጌታ	-6.56975
ማ	-6.59639
▁ነበር።	-6.59846
ያ	-6.6173
▁አለ።	-6.61887
▁ብሎ	-6.62605
▁የእግዚአብሔር	-6.63711
ጠ	-6.64557
▁የተ	-6.67598
ክ	-6.69273
▁ይህን	-6.69412
▁በኋላ	-6.69673
▁አት	-6.7061
ከ	-6.71336
ንና	-6.74942
▁ቢ	-6.75799
▁እነሆ፥	-6.75976
▁እግዚአብሔርም	-6.76377
ፈ	-6.76511
▁አምላክ	-6.76981
ዳ	-6.78888
▁እርሱም	-6.79044
▁እናንተ	-6.79162
▁መካከል	-6.80194
▁እጅ	-6.80873
▁ወይም	-6.82658
▁ዓመት	-6.84332
ዎች	-6.85426
ይ	-6.85849
▁የእስራኤል	-6.86186
ጋ	-6.86295
▁ሊ	-6.88601
ዝ	-6.88755
ኝ	-6.89085
▁ከእርሱ	-6.89795
ጣ	-6.90091
ቃ	-6.92084
▁እንዲ	-6.92123
ውም	-6.92223
▁ሕዝብ	-6.92454
▁ነው፤	-6.92932
▁ሁለት	-6.94216
ህን	-6.96095
▁ስለዚህ	-6.97395
▁ምን	-6.97459
ሁ	-6.99633
▁ሲ	-7.01618
▁ታ	-7.02165
ወ	-7.02758
▁ስፍራ	-7.05297
▁መሥዋዕት	-7.05989
▁አስ	-7.06328
▁እንጂ	-7.07412
ቱ	-7.07985
▁ለእግዚአብሔር	-7.08233
ሮ	-7.08277
ትን	-7.08395
▁እግዚአብሔርን	-7.09016
▁መቶ	-7.09692
ሩ	-7.10035
ፋ	-7.12345
▁ደስ	-7.14299
▁እንዲሁ	-7.14361
▁የእግዚአብሔርን	-7.16518
▁አላቸው።	-7.17155
▁እን	-7.17286
▁በምድር	-7.17448
▁እጅግ	-7.17518
▁ሆነ	-7.17776
▁በዚያ	-7.18056
▁ብዙ	-7.18079
ሙ	-7.18197
ዘ	-7.19266
ካ	-7.19927
ሉ	-7.20011
▁ነበረ።	-7.20159
▁ከፍ	-7.20535
▁ሥራ	-7.2118
▁እነርሱም	-7.2159
▁ያለ	-7.21632
▁በዚያም	-7.23169
▁እኔም	-7.25155
▁ማን	-7.25193
▁ነበር፤	-7.25354
▁በእስራኤል	-7.26781
▁ከተማ	-7.26829
▁ሺህ	-7.27184
ህም	-7.27683
▁መልካም	-7.282
▁አላ	-7.28665
▁ይላል	-7.28987
▁በእርሱ	-7.2962
ሪ	-7.29682
▁አቤቱ	-7.30031
▁የሚያ	-7.30699
▁ክፉ	-7.31301
ቸው	-7.31635
ኑ	-7.31961
ችሁ	-7.31968
ዓ	-7.32178
ሬ	-7.32469
▁መንገድ	-7.32519
▁አለቆች	-7.32754
ጡ	-7.33652
ሱ	-7.33815
▁ዘመን	-7.34248
▁ይላል።	-7.35587
ዛ	-7.3583
▁ከዚያ	-7.35882
▁ለመ	-7.36197
▁እነዚህ	-7.36754
ቁ	-7.36757
ቶ	-7.37711
▁ባ	-7.37927
▁እንዳይ	-7.38509
▁የምት	-7.38655
ቡ	-7.3878
▁ሰ	-7.38859
▁አገር	-7.39868
▁በመ	-7.40406
ና።	-7.40737
▁ከእነርሱ	-7.40922
▁በዚህ	-7.41477
▁በተ	-7.41877
▁አሳ	-7.42735
ሎ	-7.42951
▁ዛሬ	-7.43017
ቤ	-7.43681
ቆ	-7.44322
▁ውኃ	-7.46008
ላቸው	-7.47912
▁ለዘላለም	-7.48077
ላችሁ	-7.48252
▁ስም	-7.48383
▁ታላቅ	-7.48793
▁ጊዜ፥	-7.49121
ሞ	-7.51414
▁ኢየሱስ	-7.51789
▁ጀምሮ	-7.53156
ዱ	-7.5322
ፉ	-7.54762
▁እርሱም።	-7.54928
ለት	-7.55044
▁በአ	-7.55369
ዬ	-7.55443
ውንም	-7.5556
ኖ	-7.55669
▁ኃጢአት	-7.56007
▁ነበረ፤	-7.56218
ጨ	-7.56235
▁ከእኔ	-7.56325
▁አሁን	-7.56459
▁ነበሩ።	-7.56605
▁እንግዲህ	-7.57127
▁ሰባት	-7.57134
▁አለቃ	-7.5764
▁በዳ	-7.57953
▁ሌላ	-7.58258
ሸ	-7.58724
▁እንዳ	-7.58985
▁ድምፅ	-7.5904
▁ወገን	-7.59314
▁የአ	-7.59927
ጽ	-7.6016
▁እየ	-7.60361
▁አሕዛብ	-7.61248
ገባ	-7.61465
▁ሦስት	-7.62201
▁እንጀራ	-7.62406
▁እነርሱ	-7.6252
▁መንፈስ	-7.62979
▁እኛ	-7.63075
▁በሚ	-7.63274
▁ንጉሡም	-7.63773
ባት	-7.63913
▁እንደሚ	-7.64113
▁እንዲህም	-7.64843
▁ከተሞች	-7.67084
▁አለ	-7.67148
▁ይልቅ	-7.67181
▁አጠገብ	-7.67678
▁ክንድ	-7.6768
▁እነሆም	-7.6787
▁ክርስቶስ	-7.68022
▁ሴት	-7.69098
ዩ	-7.69597
▁ነው፥	-7.69826
▁ከአንተ	-7.70117
ጭ	-7.70209
▁ልብ	-7.70332
▁እንዴት	-7.70422
▁ያለውን	-7.70788
▁በታች	-7.71048
▁ስ	-7.71135
▁ማ	-7.71384
▁ብለው	-7.72405
▁ከእግዚአብሔር	-7.73244
▁በኩል	-7.73884
አ	-7.7392
▁ሁሉ፥	-7.74318
▁ከዚህ	-7.74525
▁አምስት	-7.75583
▁ብት	-7.75587
ጉ	-7.75761
ዶ	-7.75988
▁የሆነ	-7.76209
▁ማንም	-7.76353
ሌ	-7.76456
▁ሴቶች	-7.76459
ሜ	-7.76514
▁ለሚ	-7.76594
▁አሁንም	-7.76656
▁ል	-7.76663
▁የተነሣ	-7.77229
▁ይሆናል።	-7.77667
▁ንጉሡ	-7.77692
ቴ	-7.77868
▁ወር	-7.78243
ወጣ	-7.78479
▁አሉት።	-7.78816
▁ተራራ	-7.79291
▁ዳዊት	-7.79575
▁የሰው	-7.79789
▁ቍርባን	-7.7986
ጫ	-7.8073
▁ከእስራኤል	-7.80838
▁ገና	-7.81089
ጸ	-7.81266
ተው	-7.82146
▁ሥጋ	-7.82453
ሻ	-7.82812
▁ቀ	-7.8288
አቸው	-7.82988
▁ባለ	-7.83291
ዋን	-7.8447
ነት	-7.84494
▁ኢየሱስም	-7.84839
መጣ	-7.85637
▁የመ	-7.86511
▁ዳዊትም	-7.86752
▁አይደለም	-7.86861
▁ነገድ	-7.86945
▁እስራኤል	-7.87004
ለው	-7.87604
▁አሥራ	-7.87644
▁ለእስራኤል	-7.88315
▁ጠ	-7.8853
▁ሆኖ	-7.88747
▁ዘንድ፥	-7.89045
▁ናቸው።	-7.89118
▁ከአ	-7.89148
▁ክብር	-7.89342
ጕ	-7.89386
ባቸው	-7.89621
የ	-7.89727
ኮ	-7.89744
▁በይሁዳ	-7.89805
▁በእኔ	-7.90571
ገቡ	-7.92025
▁ከእናንተ	-7.92079
!	-7.92082
▁በኢየሩሳሌም	-7.92187
ቶች	-7.92716
▁ዕቃ	-7.93226
ኩ	-7.94297
▁በር	-7.94726
▁ነገሥታት	-7.95013
▁አራት	-7.95581
ቦ	-7.95742
ጎ	-7.96472
▁ወ	-7.96482
▁ያለው	-7.96488
▁ደም	-7.96636
▁ቅዱስ	-7.97201
▁አያ	-7.97358
▁የማይ	-7.97403
ኛ	-7.97416
▁የሠራዊት	-7.97606
▁ከሚ	-7.9824
▁ሳይ	-7.98242
ዕ	-7.98421
▁ብቻ	-7.9925
▁ነበር፥	-7.99553
▁ሕግ	-7.99584
▁በዚያን	-7.99931
ታችሁ	-8.00151
ሕ	-8.00891
ሣ	-8.00944
▁ሀያ	-8.0103
▁እስኪ	-8.01056
▁የማ	-8.01192
ሠራ	-8.0145
ቼ	-8.01464
▁ሙሴም	-8.01561
▁ደ	-8.0211
▁አታ	-8.02222
▁ወይስ	-8.02228
▁እሳት	-8.02236
▁ሕዝቡም	-8.02243
▁አፍ	-8.02359
▁ፍሬ	-8.0278
▁አሉ።	-8.02922
ልኝ	-8.03107
ቢ	-8.03364
ፊ	-8.03549
▁ካ	-8.03734
▁ደግሞም	-8.04742
ሆን	-8.04887
▁ሙሴን	-8.05189
▁ኪዳን	-8.05627
ጦ	-8.05819
ልህ	-8.05827
▁ያስ	-8.06034
▁እውነት	-8.06538
▁ነ	-8.06968
ነሣ	-8.07014
ነው	-8.07087
▁ልብስ	-8.07227
▁እርስዋም	-8.07363
▁ነበርና	-8.07737
▁ትእዛዝ	-8.08057
ሰማ	-8.08156
▁ብ	-8.08388
▁ራስ	-8.08524
▁ይሆናል፤	-8.08818
ሶ	-8.08921
▁ተስፋ	-8.09212
▁በእውነት	-8.09664
▁ዘር	-8.09749
ሄድ	-8.09824
▁ኢየሩሳሌም	-8.09862
▁አድርጎ	-8.10021
ሴ	-8.10044
ኖር	-8.10283
ጐ	-8.10336
▁በግ	-8.10509
ላት	-8.11129
ሉ።	-8.11228
▁ሚስት	-8.11514
▁ምንድር	-8.11547
ለን	-8.11759
▁ድንኳን	-8.12919
▁ናቸው፤	-8.13049
ችን	-8.14231
ፈራ	-8.14776
▁ፍርድ	-8.15395
▁እግዚአብሔር።	-8.15547
▁ገ	-8.15793
▁ከመ	-8.16548
▁የእስራኤልን	-8.16588
▁ምንም	-8.1659
▁አውራ	-8.16761
▁መንግሥት	-8.17365
ሉ፥	-8.17365
ዙ	-8.17435
▁ሆነ፤	-8.17484
▁ከተ	-8.17702
▁ሙሴ	-8.17773
▁ደቀ	-8.17831
ህንም	-8.18243
▁በእናንተ	-8.18261
▁አምላክህ	-8.1831
ጠራ	-8.18378
▁አልተ	-8.18606
▁በእሳት	-8.18769
▁ጥ	-8.18963
ሚ	-8.19158
▁በሕይወት	-8.19264
ቻ	-8.19694
በላ	-8.19739
ተኛ	-8.1989
▁በቀር	-8.19941
▁ለማ	-8.20005
▁ባሕር	-8.20276
▁ርስት	-8.20282
ሰሙ	-8.20546
ጃ	-8.20745
ቍ	-8.20752
▁ሳ	-8.20795
ጅ	-8.20865
▁በየ	-8.21056
ት፥	-8.21198
▁ነውና	-8.21254
ው።	-8.21513
ሠ	-8.21613
ምድረ	-8.22005
ቱን	-8.22196
ት።	-8.224
▁አንዱ	-8.22789
▁እያ	-8.22826
▁በአንተ	-8.22861
▁ቢሆን	-8.233
▁ብር	-8.23409
▁ወንድሞች	-8.23619
▁ሁለቱ	-8.23783
▁በውኑ	-8.23916
▁ስድስት	-8.24075
ጠፋ	-8.24162
▁እንኳ	-8.24461
ዋም	-8.24731
▁ሰይፍ	-8.24964
ሉ፤	-8.25088
ሞት	-8.25698
ች።	-8.25868
▁አንተም	-8.25878
▁በአንድ	-8.26007
▁እርስ	-8.26007
ቻቸው	-8.26131
ሥ	-8.2638
▁እንድት	-8.26471
▁ድንጋይ	-8.26577
▁መጣ።	-8.26792
▁ይሆን	-8.26798
ቈ	-8.27109
▁የወይን	-8.27122
▁የይሁዳ	-8.27136
ኤል	-8.27145
▁ባሪያ	-8.27319
▁ለምን	-8.27467
ት፤	-8.27715
▁ዳርቻ	-8.27828
▁ወርቅ	-8.27949
▁ባሪያዎች	-8.28236
ጀ	-8.28707
ባል	-8.28719
ሐ	-8.29366
ገድ	-8.29611
▁ለአንተ	-8.29886
▁ጠጅ	-8.29926
▁ነበሩ፤	-8.30012
▁ነበረ፥	-8.30103
▁ባለው	-8.30433
▁ቍጣ	-8.30658
▁ቤተ	-8.30843
ጌ	-8.30857
ወጡ	-8.30857
▁ሳለ	-8.30859
▁እንዲያ	-8.31252
▁ሕዝቡ	-8.319
ቋ	-8.32149
▁አንቺ	-8.32152
▁በላይ	-8.32387
▁አባት	-8.32418
ገረ	-8.32442
አት	-8.32837
ሃ	-8.33201
▁ዓ	-8.33292
▁ዘ	-8.33296
▁የሰ	-8.33363
ኸው	-8.33413
ቂ	-8.33429
▁እና	-8.3368
▁ወንድ	-8.3372
ኋቸው	-8.33754
▁ዛፍ	-8.3389
ጻ	-8.34008
▁ነፍስ	-8.34185
▁አምሳ	-8.34726
ሰው	-8.34871
መረ	-8.34916
▁አማልክት	-8.35057
ሰጥ	-8.3515
ልፎ	-8.35407
ራት	-8.35578
▁መጽሐፍ	-8.35648
▁ቤቶች	-8.3565
ኝ።	-8.3619
ገዛ	-8.36403
▁ሰማ	-8.36465
▁ያል	-8.36575
▁ቅ	-8.36838
▁ሁልጊዜ	-8.36842
ታቸው	-8.36848
▁በፊቱ	-8.36902
▁እንዲሆን	-8.3698
▁ልጁ	-8.37098
እ	-8.37122
▁ልጆች፥	-8.37384
ኒ	-8.37445
ዴ	-8.38013
▁ለእኔ	-8.38051
▁ብርሃን	-8.38052
▁እነሆ	-8.38099
ኝ፥	-8.38472
▁በሰይፍ	-8.38661
▁በማ	-8.38731
ሽን	-8.38877
▁ስለዚህም	-8.38926
▁ይዞ	-8.39265
ናገር	-8.39576
ችው	-8.39741
ቸውም	-8.39813
▁አሥር	-8.39893
▁እንዳት	-8.39916
▁ሲል	-8.40009
▁ይህም	-8.40501
▁ሕያው	-8.40512
ገኝ	-8.40685
▁አብ	-8.40821
▁ሆንሁ	-8.40878
▁ለእርሱ	-8.41138
▁ትንቢት	-8.41138
▁ሂድ	-8.41138
ኔ	-8.4122
ሆ	-8.41387
ሆኑ	-8.41526
▁ልት	-8.41748
ፈሩ	-8.41796
▁ይሆናል	-8.42024
ቹ	-8.42396
▁በፊትህ	-8.4283
ላል	-8.4289
▁ሕይወት	-8.4304
▁ምድረ	-8.43048
▁እንድ	-8.43066
▁በእ	-8.43493
▁በንጉሡ	-8.43677
▁ሕዝቡን	-8.43694
ቸውን	-8.43941
ዲ	-8.43963
▁ወንዶች	-8.4397
▁ይሁዳ	-8.44086
ሮች	-8.44173
▁ከሰማይ	-8.44328
ባችሁ	-8.44403
▁መሠዊያ	-8.4443
▁ሌሊት	-8.44431
ሹ	-8.4484
▁ከምድር	-8.44987
▁ላ	-8.45599
▁ሽማግሌዎች	-8.45648
▁ወዲህ	-8.46284
ሉት	-8.46593
▁መልአክ	-8.46946
▁ሠላሳ	-8.46946
▁አይሁድ	-8.46948
▁ዓለም	-8.46996
▁ፈ	-8.47104
▁በደ	-8.47346
ሊ	-8.47351
▁እጁን	-8.47516
▁የምድር	-8.47592
ኛው	-8.47707
▁ሰማይ	-8.47747
ረው	-8.47807
▁ይሁን።	-8.47878
ሁት	-8.47907
ቀመጥ	-8.48107
ዞ	-8.48199
▁ፋንታ	-8.48285
▁ወራት	-8.48409
ደር	-8.48439
▁ሊያ	-8.48473
▁ልጄ	-8.48633
▁ስሙ	-8.48641
▁ታቦት	-8.4964
▁ነፋስ	-8.49643
ጠጣ	-8.49853
▁ሥርዓት	-8.50075
▁ምሳሌ	-8.50325
▁ምልክት	-8.50325
ራችሁ	-8.5047
▁ለአ	-8.50678
▁ሰላም	-8.5084
▁መጣ	-8.50859
▁ካህናት	-8.51014
ኸኝ	-8.51122
ቸ	-8.51139
▁ጆሮ	-8.51296
በትን	-8.51486
ልን	-8.51554
▁ሐ	-8.51561
ጣል	-8.51679
ጓ	-8.51692
ፌ	-8.51913
▁ጥቂት	-8.51982
▁እንዳለ	-8.52087
ል፥	-8.5232
▁ለእናንተ	-8.52408
▁እንዲሁም	-8.52421
ቱም	-8.53105
▁እስራኤልን	-8.53235
▁እንዳል	-8.53317
▁አለኝ።	-8.53383
▁ኃይል	-8.53464
▁አርባ	-8.53472
▁ከእኛ	-8.53847
▁ከንቱ	-8.53958
ል።	-8.53964
▁ሆነ፥	-8.54206
▁ሆነው	-8.54499
▁ካህኑም	-8.54513
መለስ	-8.5466
▁እያንዳንዱ	-8.55255
▁ከእንግዲህ	-8.55255
▁ርኩስ	-8.55301
▁በታላቅ	-8.55324
▁በሰማይ	-8.55342
▁አን	-8.55589
ዖ	-8.55971
▁አስቀድሞ	-8.55979
በር	-8.56238
▁በወ	-8.565
መሰ	-8.56566
▁መልሶ።	-8.56573
▁በአሕዛብ	-8.56709
▁የበ	-8.56765
ዊ	-8.56892
▁መከራ	-8.56903
▁ነበር	-8.56903
▁ንጹሕ	-8.57445
▁ዙሪያ	-8.57445
▁ብዛት	-8.57445
▁እላችኋለሁ	-8.57528
▁ጌታዬ	-8.5756
ኪ	-8.57651
▁ራሱን	-8.57964
ጢ	-8.58156
▁ካህኑ	-8.5821
▁ፈጽሞ	-8.58932
▁ወስዶ	-8.58932
▁ሰጠ	-8.58938
ሰብ	-8.59285
ራቸው	-8.59629
ኖሩ	-8.59636
▁ምስክር	-8.59684
▁በግብፅ	-8.59736
▁አንዳች	-8.59796
▁ብለህ	-8.5987
▁የእ	-8.59871
▁ስላ	-8.60172
ዋንም	-8.6031
▁ምርኮ	-8.60433
▁መጠን	-8.6047
ውያን	-8.60821
ለሁ	-8.60869
▁አምላኬ	-8.60896
▁አደረገ።	-8.60947
ሁ፥	-8.61086
አቸው።	-8.61199
▁እንደዚህ	-8.61207
ታል።	-8.61496
ደው	-8.61577
▁ፍ	-8.61606
▁ባይ	-8.61967
▁መቅደስ	-8.61974
▁እንጨት	-8.61976
▁የወርቅ	-8.61988
▁በእጁ	-8.61992
▁ያህል	-8.61992
▁ይህች	-8.62023
ብኝ	-8.62041
▁ብዬ	-8.62074
ደረግ	-8.62488
ዊው	-8.62616
▁ባል	-8.62703
▁ወለደ፤	-8.62749
ቀው	-8.62804
▁እርስዋ	-8.62926
▁አድርግ	-8.62935
▁እስራኤልም	-8.63056
▁ኢያሱ	-8.63126
ዮ	-8.634
▁ወዴት	-8.6353
▁ውጭ	-8.63589
ል፤	-8.63898
▁እናንተም	-8.63909
▁የለም።	-8.63931
▁ብላ	-8.64223
ሁ፤	-8.64311
▁ምክንያት	-8.64318
▁አምላካችን	-8.64318
▁ጻድቅ	-8.64464
ሃለሁ	-8.64625
▁እርሻ	-8.64705
▁መዛሙርቱ	-8.6471
▁ዝም	-8.64719
▁የነበረውን	-8.64957
▁ሰሎሞን	-8.64973
▁ሳኦልም	-8.65056
▁ሰቅል	-8.65113
ረዱ	-8.65137
ቶቻቸው	-8.65376
ፈር	-8.65484
ኝ፤	-8.65709
▁መጥተው	-8.6592
▁ሸ	-8.66087
▁ሰባ	-8.66457
ሽም	-8.66475
▁አወጣ	-8.66502
▁አደባባይ	-8.66735
▁ዘይት	-8.66786
▁ከቶ	-8.67199
▁ቤቱ	-8.67389
በዛ	-8.67444
ዋል።	-8.67464
▁ይሰ	-8.67465
▁በእርስዋ	-8.67531
መጡ	-8.67629
▁ግ	-8.67632
ፈረ	-8.6771
▁ትውልድ	-8.67719
▁ዓይን	-8.67902
▁ክፍል	-8.68351
ወድ	-8.68352
▁በመንገድ	-8.68353
ኋችሁ	-8.68793
▁ያን	-8.69138
▁ወጥቶ	-8.69169
ሄዱ	-8.69289
▁የምታ	-8.69355
▁ኤርምያስ	-8.69558
አልና	-8.69638
▁ከግብፅ	-8.70048
▁በሰው	-8.70223
▁በፊት	-8.70291
▁ነበረ	-8.70472
▁አለ፤	-8.70539
▁ቢያ	-8.70607
ሺ	-8.70632
▁ባሪያህ	-8.70699
▁ደስታ	-8.70704
▁በጎች	-8.70857
ፍር	-8.70879
ኖች	-8.71227
ርያ	-8.71318
በሩ	-8.71353
▁ድ	-8.71472
▁ሸለቆ	-8.71698
ድን	-8.7176
ለት።	-8.71798
ቶቹ	-8.71958
ማል	-8.72053
▁ይሁን፤	-8.72061
▁በክርስቶስ	-8.72553
▁ይቅር	-8.72695
▁ተናገረ	-8.73002
▁ሆነ።	-8.73035
▁ተነሥቶ	-8.73094
▁የሆነውን	-8.73142
▁ጥበብ	-8.73277
▁በደል	-8.734
▁ሞ	-8.73408
▁ሠራዊት	-8.73415
▁በቤቱ	-8.73421
ብህ	-8.73582
ተዋል	-8.73668
▁ሄደ።	-8.7378
ው፤	-8.73944
▁ነፍሴ	-8.73981
ለሁ።	-8.74209
▁ባድማ	-8.74286
▁ወንዝ	-8.7429
▁ተብሎ	-8.7429
ዋል፤	-8.74387
ኞች	-8.74964
▁ፈቃድ	-8.75162
▁አመጣ	-8.75231
▁በሌሊት	-8.75246
▁እነዚህን	-8.75643
▁ጽድቅ	-8.75682
▁የወ	-8.7572
▁ክ	-8.75854
▁ነኝ	-8.75889
ሰጠ	-8.75927
▁ጳውሎስ	-8.75929
ኰ	-8.76036
▁ቅጥር	-8.76064
ላቸው።	-8.76143
▁በመሠዊያው	-8.76161
▁ሞት	-8.76259
▁በጎ	-8.76514
▁ጉባኤ	-8.76847
▁ወይን	-8.76891
ጩ	-8.76939
▁ጸጋ	-8.76943
▁በአንድነት	-8.77007
▁ስት	-8.77038
▁አላት።	-8.7713
ለህ	-8.7717
ነገ	-8.7718
▁ነገሠ።	-8.7742
በሉ	-8.77433
▁ቅን	-8.77649
ታል	-8.7775
▁የዘላለም	-8.7784
▁ክፋት	-8.77867
▁እርሱን	-8.77987
▁ሆኑ	-8.7818
▁ነውና።	-8.78362
ፎ	-8.78462
▁ተናገር	-8.78677
▁መስፈሪያ	-8.78749
▁በፊቴ	-8.7875
ቀር	-8.78912
ጠው	-8.78947
ሲ	-8.7904
ኝም	-8.79408
ለሁ፤	-8.79431
▁መጥቶ	-8.79517
▁እር	-8.79879
ሪያ	-8.80084
▁አሳብ	-8.802
ሳቸው	-8.80425
▁በጌታ	-8.80508
ኬ	-8.80542
▁ስንኳ	-8.80599
▁ይዘው	-8.8061
ደርግ	-8.80704
▁ልጅ፥	-8.80735
ማት	-8.80885
▁ቢሆን፥	-8.80983
ሁ።	-8.81153
ነቱ	-8.81201
ቦች	-8.81281
▁ለንጉሡ	-8.81527
▁ከብ	-8.81579
▁ዳር	-8.81579
▁ማዶ	-8.81665
▁ይጠ	-8.81969
መልስ	-8.82032
▁የለም	-8.82102
▁የቀ	-8.82107
ሩት	-8.82177
ፈታ	-8.82254
▁ፀሐይ	-8.82471
ቀድ	-8.82477
▁መታ	-8.82491
▁ተናገረው።	-8.82609
▁ይሁን	-8.82695
▁ዳዊትን	-8.82697
ጁ	-8.82744
ርቅ	-8.82746
▁አድርገው	-8.82821
ሃልና	-8.82995
▁ከእ	-8.83082
▁ተነሣ	-8.83142
ደቀ	-8.83377
▁ቍጥር	-8.83423
▁ወገኖች	-8.83431
▁ሰልፍ	-8.83463
ጠጡ	-8.83571
ዬን	-8.83635
▁ቀኝ	-8.83697
ኤ	-8.83727
▁ቆ	-8.83748
ዘው	-8.83749
▁አባቱ	-8.83778
▁በል	-8.83934
▁ከማ	-8.84085
▁በኢየሩሳሌምም	-8.84119
ረግ	-8.84227
▁ባየ	-8.84239
▁በብዙ	-8.84264
▁ያሉትን	-8.84322
▁በባሕር	-8.84384
ነበ	-8.84458
▁መለሰ	-8.84565
▁አንዲት	-8.84593
▁አሰ	-8.84648
ነጻ	-8.84873
ቀበል	-8.84986
መታ	-8.84986
▁ረ	-8.85322
▁በሕዝቡ	-8.85355
▁ከይሁዳ	-8.85355
▁ወደዚህ	-8.85359
▁የሚቃጠለውን	-8.85365
▁ተቀምጦ	-8.85474
ሻል	-8.85512
▁ጌ	-8.85569
ይቱ	-8.85603
▁በውኃ	-8.86033
ልክ	-8.86306
▁በኢየሱስ	-8.86336
▁በሰማ	-8.86352
▁ቆሞ	-8.86424
ላችሁ።	-8.86434
ሳል	-8.86489
ሳችሁ	-8.86538
▁ያሉ	-8.86603
ቄ	-8.86706
ራራ	-8.86872
▁ይቀ	-8.87007
▁ነውር	-8.87224
ለች።	-8.87265
ቴን	-8.87298
▁አደረገ፤	-8.87317
▁አባቴ	-8.87332
ሞላ	-8.87408
አል፤	-8.87445
▁ጭ	-8.87855
ፈው	-8.88015
▁በእነርሱ	-8.88038
▁የነበሩትን	-8.88186
▁በመካከላቸው	-8.88326
▁ፈቀቅ	-8.88326
▁ልብሱን	-8.88336
▁ቦታ	-8.88352
▁ው	-8.88483
ጠላ	-8.88503
▁ያላ	-8.88507
▁እያሉ	-8.88549
ቹን	-8.88573
▁የብር	-8.88943
ጣሉ	-8.88982
▁ወረደ	-8.89034
▁ወጣ።	-8.89035
▁ጎ	-8.89194
▁በቀ	-8.89232
▁ለሕዝቡ	-8.89336
▁ጨለማ	-8.89336
▁እግር	-8.89345
▁የነበሩ	-8.89605
አል።	-8.89665
ናገሩ	-8.89848
▁ዮሐንስ	-8.89874
▁ይመ	-8.89966
ጆ	-8.9012
▁ለዳዊት	-8.90356
▁ምስጋና	-8.90356
▁ፍቅር	-8.90366
▁መብል	-8.90449
▁ነበርና።	-8.90559
▁ሁለቱን	-8.9059
▁ጣ	-8.9066
▁ያሉት	-8.90694
▁ጠራ	-8.90697
ዔ	-8.90783
ኞቹ	-8.91165
ነሡ	-8.91265
▁አምላካችሁ	-8.9129
▁የባቢሎን	-8.91387
ታው	-8.91595
ገኙ	-8.91717
▁አደ	-8.9178
▁በዙሪያው	-8.9201
▁ዕጣ	-8.92115
▁ብዙዎች	-8.92173
▁ሠራ	-8.92231
▁ተሰ	-8.92239
ናቸው	-8.92252
▁የሚል	-8.92282
ጊ	-8.92294
ኃ	-8.92392
▁ጋሻ	-8.92455
ማር	-8.92759
▁መቼ	-8.92834
▁ወዲያው	-8.92882
▁ታስ	-8.92994
▁ወዲያ	-8.93026
በራ	-8.93138
መካ	-8.9315
▁በሬ	-8.93197
ሄ	-8.93233
ገር	-8.93233
▁የያዕቆብ	-8.93482
▁ሰዓት	-8.93483
ዳቸው	-8.93562
▁በሰ	-8.93864
▁ነኝ፤	-8.94098
▁ሳኦል	-8.94128
▁ለሰው	-8.94254
ዎቹ	-8.94504
▁ቃሉን	-8.94559
ብረ	-8.94582
▁ነበሩ	-8.94666
መለከት	-8.94702
▁ያዕቆብም	-8.94705
ች፤	-8.94706
▁ልቤ	-8.94763
ተኞች	-8.94784
▁ዳ	-8.94799
▁በአሥራ	-8.94838
▁ነገ	-8.94984
ሃቸው	-8.95207
▁ያደርግ	-8.95267
▁ነቢያት	-8.95433
▁እኔን	-8.95451
▁በምን	-8.95472
▁የነበሩት	-8.95489
ፀ	-8.95621
▁በዳዊት	-8.95621
▁አስተ	-8.95658
▁የተቀደሰ	-8.96136
▁ናቸው	-8.96214
▁ተወ	-8.96268
ጠፉ	-8.96451
▁አለው፤	-8.96495
▁ይወ	-8.96575
▁በፍጹም	-8.96708
▁ከእርስዋ	-8.96708
▁በርሳቸው	-8.96755
▁በእኛ	-8.96767
▁በልቡ	-8.96792
አችሁ	-8.96825
▁ኃጢአትን	-8.96883
ድል	-8.96966
ቀርብ	-8.96989
▁ካህን	-8.97016
▁ራሱ	-8.971
▁ፍርድን	-8.97116
ሻለሁ	-8.97116
▁እየተ	-8.97402
▁ነኝ።	-8.97418
▁ተከ	-8.97486
ረዳ	-8.97491
አቸውም	-8.97556
ች፥	-8.97785
▁በከንቱ	-8.97807
▁ዋጋ	-8.97848
▁ወጣ፥	-8.97925
ጠብ	-8.9795
▁ወሬ	-8.97997
▁በእጅህ	-8.98064
▁ገንዘብ	-8.98146
ቹም	-8.98258
▁በሆነ	-8.98265
▁ቈ	-8.98313
ቆም	-8.98445
ሽንም	-8.98551
ለኝ	-8.98651
▁ጨ	-8.98665
▁ሞተ	-8.98761
▁የዳዊት	-8.98763
▁አንዱን	-8.99062
ዋለሁ	-8.99095
▁ኤ	-8.99097
▁በትር	-8.99183
አል	-8.99414
ዳን	-8.99617
ቃቸው	-8.99742
ቀመጡ	-8.99762
ሰጠው	-8.99842
▁አድ	-8.99973
ባቸውን	-9.00017
▁በመንፈስ	-9.00041
▁ጕድጓድ	-9.00041
▁በፊታቸው	-9.00042
▁ስጦታ	-9.00043
▁በራሱ	-9.00102
ዘዝ	-9.00236
ኛልና	-9.00478
ሃል።	-9.00495
▁ሴ	-9.00796
▁በመጣ	-9.01009
▁ናት፤	-9.01051
መው	-9.01133
▁ቅዱሳን	-9.01178
▁ባቢሎን	-9.01178
▁ነቢዩ	-9.01178
▁ተራሮች	-9.01191
▁እኛም	-9.01354
▁አይደለም።	-9.01464
▁ነፍሴን	-9.01775
ዎ	-9.01878
ሾ	-9.01976
ኛለህ	-9.02122
ወርድ	-9.02311
▁ሂዱ	-9.02327
▁አለችው።	-9.02362
▁ምክር	-9.0241
ሃል	-9.0258
ታል፤	-9.02702
▁ሲያ	-9.02734
ታችን	-9.0302
▁ተመ	-9.03134
ዜ	-9.03455
▁ይህችን	-9.03461
ሖ	-9.0349
▁ርኵሰት	-9.0349
▁እንስሳ	-9.03498
ደርስ	-9.03547
▁ስምንት	-9.0358
▁ልዩ	-9.03677
ናችሁ	-9.03678
▁ሥልጣን	-9.0376
▁ተቀ	-9.03802
ባትም	-9.0399
ክር	-9.03992
▁ምድርን	-9.04071
▁ኢያሱም	-9.04096
▁ከሰው	-9.04118
▁አንበሳ	-9.04194
በት።	-9.04306
ሶች	-9.04344
ዘረጋ	-9.04551
ያዩ	-9.04574
▁በዮርዳኖስ	-9.04666
▁አለች።	-9.04712
▁ደረሰ	-9.04782
▁ያዘ	-9.04798
▁በዓል	-9.04847
▁ኃያላን	-9.04965
▁ማደሪያ	-9.05087
ፍራ	-9.05123
▁አዳ	-9.054
▁የዚያን	-9.05557
▁ወደዚያ	-9.0564
ላችሁ፥	-9.05813
▁ዕለት	-9.05903
ፍረ	-9.05985
▁ይፈ	-9.06111
ለሁ፥	-9.06219
▁ይወጣል	-9.06262
▁ቢኖር	-9.06553
▁አሉ	-9.0661
ዶች	-9.06993
▁ሌዋውያን	-9.07024
ጠቅ	-9.07027
▁ከሕዝቡ	-9.07062
▁ነቢይ	-9.07063
ገለጥ	-9.07098
ታልና	-9.07185
▁አራዊት	-9.07207
▁ፍጻሜ	-9.07245
ቀበሉ	-9.07399
▁የጌታ	-9.076
▁በምት	-9.07643
▁ወንድም	-9.07837
ቲ	-9.07937
▁አውቃለሁ	-9.08282
▁ድሀ	-9.08293
▁ደጅ	-9.08368
▁አልሁ።	-9.08501
▁ብታ	-9.08505
▁ካለው	-9.08636
በረታ	-9.08639
▁አረ	-9.08672
▁የነበረው	-9.08777
▁ያወጣ	-9.08843
▁ምድሪቱን	-9.08866
▁ዙፋን	-9.09516
▁ግብጽ	-9.09516
▁ወፎች	-9.09535
ቸው።	-9.09548
▁በስተ	-9.09577
▁በሰባተኛው	-9.09589
ዘጋ	-9.09629
▁ነኝና	-9.09637
▁አደረጉ።	-9.09694
▁ጥሩ	-9.10059
▁መባ	-9.10083
በቃ	-9.10083
▁የኤ	-9.10087
ሁህ	-9.10594
▁ጐ	-9.10651
▁አንተን	-9.1073
▁ወጣ፤	-9.10783
▁አየ	-9.10784
▁ወዳለው	-9.10792
▁የሚያስ	-9.10863
ዳችሁ	-9.10907
▁መልሶ	-9.11002
▁ፈንታ	-9.11016
ላቸውም	-9.11256
▁ያዕቆብ	-9.11466
▁ማር	-9.11555
▁አይደለም፤	-9.11676
▁አሮን	-9.1168
▁የሚሆን	-9.11735
▁አይቶ	-9.11772
ያልፍ	-9.11919
▁ነውና፤	-9.11922
▁አብርሃም	-9.11989
ዘራ	-9.12006
▁መቅደሱ	-9.12031
▁እህል	-9.12074
▁እምነት	-9.12079
ታይ	-9.12328
▁ይከ	-9.12609
▁ናት።	-9.1263
▁ምድሪቱ	-9.12703
▁ልባቸው	-9.1273
▁የሠራ	-9.13111
▁ቃሌን	-9.13124
▁ሽ	-9.13177
ኛል	-9.13209
▁ኑ	-9.13233
ሁትን	-9.13409
ማቸው	-9.13474
▁ባዩ	-9.13595
▁መጋረጃ	-9.13901
▁የለም፤	-9.13955
▁ሰሎሞንም	-9.13971
▁ከሆነ	-9.13971
ልቅ	-9.14159
▁ከደ	-9.14196
▁ሆነች	-9.14381
▁ካህናቱ	-9.14517
▁ከግብጽ	-9.14612
▁የኢየሱስ	-9.14612
▁በከተማይቱ	-9.14623
ድር	-9.14631
▁ቸርነት	-9.14651
▁ማናቸው	-9.14714
▁ዳሩ	-9.14729
ዋልና	-9.14843
ችኋለሁ	-9.15009
ብን	-9.15046
▁የሚኖሩ	-9.15088
በዙ	-9.15164
ሞቱ	-9.15232
በታ	-9.15299
▁ሌሎች	-9.15325
▁ነገሩ	-9.15355
▁ነህ	-9.15484
ሰጣቸው	-9.15749
▁ጥላ	-9.15853
▁አልዓዛር	-9.15928
▁ጠቦት	-9.1593
▁ሕዝቤ	-9.16211
▁ይኖራል	-9.16315
▁ወጥ	-9.16369
ኙ	-9.16393
▁አደርግ	-9.1641
ጋት	-9.16565
ባቸው።	-9.1658
▁ወደሚ	-9.16582
▁በረከት	-9.16634
ነቀ	-9.16693
▁የንጉሡ	-9.16703
▁አደረገ	-9.16912
▁ልቡ	-9.16938
▁ልጁን	-9.17042
▁አገባ	-9.17074
ሚችል	-9.17092
▁ይዘ	-9.1711
▁ለኃጢአት	-9.17261
▁መቃብር	-9.17261
▁መጀመሪያ	-9.17261
▁ስምዖን	-9.17266
▁ለፊት	-9.17269
▁ፈርዖን	-9.17507
ግባ	-9.17666
▁ናቸው፥	-9.18162
▁ወደቀ	-9.18248
▁በገባ	-9.18351
▁ጥፋት	-9.1845
ጤ	-9.18586
▁በጥ	-9.18608
▁ራእይ	-9.18613
▁ጭፍራ	-9.1863
▁ሄዱ።	-9.18672
▁ጽኑ	-9.18672
▁በሁለተኛው	-9.18719
ቃችሁ	-9.18727
ሎች	-9.18796
▁ዮሴፍም	-9.18954
ጣት	-9.19009
ለህ።	-9.19076
▁ደመና	-9.19109
▁ይበሉ	-9.19443
▁ቆመው	-9.19614
ትንም	-9.19717
ገደ	-9.19793
ጥር	-9.19803
▁መጡ።	-9.19858
▁አድርጌ	-9.19884
▁ጴጥሮስ	-9.19901
▁ግንብ	-9.19965
▁አሳልፌ	-9.19983
▁በደቡብ	-9.19985
▁በሙሴ	-9.19985
▁ገብቶ	-9.20024
ላቸውን	-9.20208
ወደ	-9.20308
▁ነበሩት	-9.20752
ሁም	-9.20753
▁ይሆናሉ።	-9.20919
ጆች	-9.21349
▁ዳግመኛ	-9.21371
▁ናቸውና	-9.21592
ጠሩ	-9.21728
▁የበግ	-9.21735
▁አጠፋ	-9.2181
▁ወዮ	-9.21874
▁የለ	-9.21874
▁መግቢያ	-9.21948
ፈልግ	-9.22051
▁ያሳ	-9.22079
ርስ	-9.2237
▁ያደርጉ	-9.22373
▁የተሠራ	-9.22475
▁ተቀመጡ።	-9.22674
▁እባክህ	-9.2278
▁የታመነ	-9.2278
▁ደጃፍ	-9.2278
▁በግብጽ	-9.2278
▁ጠጕር	-9.22781
▁ውሰድ	-9.22781
ተህ	-9.22868
▁ምሕረቱ	-9.22905
▁እንዳዘዘው	-9.23287
▁ተጠ	-9.23341
ማል።	-9.23526
▁ሁላችሁ	-9.23624
▁ልጆች፤	-9.23844
▁አገኘ	-9.23865
▁ሳሙኤልም	-9.23956
▁ታላቁ	-9.23983
▁በአንቺ	-9.24209
▁ቅሬታ	-9.24212
▁አዲስ	-9.24213
▁በእምነት	-9.24213
መለከቱ	-9.24282
▁ነውና፥	-9.24328
▁አሕዛብን	-9.24329
▁ዝናብ	-9.2436
ማይ	-9.24397
▁መር	-9.24582
▁በቤት	-9.24763
▁ወጣ	-9.25039
▁ልጆቹን	-9.25236
▁ኢየሱስን	-9.25403
ሳት	-9.25409
▁ስብ	-9.25415
▁ሰማያት	-9.25653
▁ልቅሶ	-9.25659
▁ስድሳ	-9.2566
▁ሜዳ	-9.25667
▁ተነሥተው	-9.25684
▁ንጉሡን	-9.25939
▁አሮንን	-9.25986
▁የምን	-9.26103
ቸዋል።	-9.2634
ያ፥	-9.26433
ወድድ	-9.26554
ዋለህ	-9.26606
ቻችሁ	-9.26805
ናል።	-9.26854
▁ሚ	-9.26979
▁እነዚያ	-9.27042
▁የይሁዳን	-9.27086
▁ምናልባት	-9.27128
▁እንዳደረገ	-9.27128
ሠሩ	-9.27225
ልሃል	-9.27226
▁በጽድቅ	-9.27245
▁መድኃኒት	-9.27353
ኛል።	-9.2746
▁ገደሉ	-9.27481
ናልና	-9.27559
▁እንዳያ	-9.27577
▁በሥጋ	-9.27643
ገኛ	-9.27655
ጠመ	-9.27721
▁ነገሠ	-9.27859
ደርገው	-9.27993
መር	-9.28193
ዘጋጀ	-9.28249
ታዩ	-9.28279
ዪ	-9.28621
ነበረው	-9.28623
▁ከሁሉ	-9.28626
▁በሁሉ	-9.28631
▁እንድን	-9.28633
▁የአሮን	-9.28645
አል፥	-9.28703
ቻችን	-9.28775
▁በሬዎች	-9.28781
▁የሚያደርግ	-9.28824
▁ኋላ	-9.28869
ጠር	-9.28873
ቻለሁ	-9.28973
▁አይሆን	-9.29082
▁ይተ	-9.29109
▁ከተማይቱ	-9.29208
▁ሕዝቅያስ	-9.29356
ሃል፤	-9.29419
▁ይሆኑ	-9.29503
ፈረሰ	-9.29508
▁ራብ	-9.29814
ለህ፤	-9.29832
ታቸውን	-9.29862
ነፋ	-9.29868
▁በዚህም	-9.30015
ኳ	-9.30036
▁በምሥራቅ	-9.30136
▁ከኢየሩሳሌም	-9.30136
▁ዱቄት	-9.30136
▁መልካሙን	-9.30136
▁ፍርሃት	-9.30136
▁ለሚቃጠል	-9.30173
▁ወጥተው	-9.30184
▁በሦስተኛው	-9.30241
▁ስን	-9.30246
ትም።	-9.30323
▁በመገናኛው	-9.30325
ጠረ	-9.30397
▁ዳንኤል	-9.30537
ወቀ	-9.30855
▁ነፍሱን	-9.30997
ጠብቅ	-9.3105
ጣችሁ	-9.31091
ታል፥	-9.31179
▁ስላል	-9.31308
▁መንጋ	-9.31393
▁ሰፈሩ።	-9.31674
▁በባቢሎን	-9.31674
▁ኃጢአተኞች	-9.31674
▁እሰጣለሁ	-9.31675
▁በደስታ	-9.31686
▁የሚሆነውን	-9.31698
ያቸው	-9.31759
▁አንዱም	-9.31862
▁ተጻፈ	-9.31864
▁ጣፋጭ	-9.31885
ከር	-9.32038
▁የሰማ	-9.32076
▁ወጡ	-9.32239
▁በቅ	-9.32318
▁ይገ	-9.32379
ዮች	-9.32506
ሞች	-9.32588
ህ፤	-9.32601
ዚ	-9.327
▁ወርዱ	-9.32868
▁በሚያ	-9.33029
▁እነዚህም	-9.33225
▁በሰሜን	-9.3324
▁ከክፉ	-9.33241
▁በሰንበት	-9.33245
▁ምስል	-9.33255
▁በሉ	-9.33345
▁እንደሚያ	-9.33357
▁ጠላት	-9.33395
▁ሁለተኛው	-9.3345
ብሩ	-9.33516
ዎቹን	-9.33531
▁መጣ፥	-9.33539
ህና	-9.33542
▁ነውን	-9.33556
በት፥	-9.33564
ማለ	-9.33593
▁ሰላምታ	-9.33621
ጽናና	-9.33679
ባብ	-9.33748
▁ጽድቅን	-9.33984
ታመን	-9.34026
▁ኤል	-9.34171
ድያ	-9.34192
▁ስለሚ	-9.34194
▁በላ	-9.34337
ልፍ	-9.34433
ዋል፥	-9.34469
▁ልብህ	-9.34518
▁ርዝመቱ	-9.34824
▁እሄዳለሁ	-9.34824
▁ዛፎች	-9.34825
▁ወይፈን	-9.34826
▁በሜዳ	-9.34829
▁ከእነዚህ	-9.34829
▁ድንበር	-9.34837
▁ተባት	-9.34853
▁የአንድ	-9.34856
▁አሜን	-9.34872
ላሉ	-9.34872
ሰጠኝ	-9.34879
▁እውነተኛ	-9.3494
▁በልብ	-9.34988
ላው	-9.34996
▁እንቢ	-9.3513
▁ያደረገውን	-9.35208
▁ነበረች።	-9.35314
▁በመጀመሪያው	-9.35344
▁የሚገባ	-9.35363
ከፍ	-9.35392
▁ዕጣን	-9.35403
▁የሆነው	-9.35419
▁ቆመ	-9.35512
ብር	-9.35518
▁ሌሎችን	-9.35559
የው	-9.35604
ወር	-9.35607
▁የከበረ	-9.35654
▁ይነ	-9.35744
▁ሊቀ	-9.35784
▁ተናገረ።	-9.35841
▁አር	-9.35878
ቈጣ	-9.35957
ስቱ	-9.36043
▁ሄደ፥	-9.36057
▁ዮሴፍ	-9.36097
መልካ	-9.36142
▁ገደለ	-9.36235
ኪያ	-9.36258
ነቅ	-9.36291
▁ሳሉ	-9.36323
ጾ	-9.36352
በደ	-9.36397
ሔ	-9.36428
▁መክሊት	-9.36437
▁መጨረሻ	-9.36437
▁ማኅበር	-9.36437
▁አገልግሎት	-9.36437
▁ኤፍሬም	-9.36437
▁ተመልሶ	-9.36437
▁ፍጹም	-9.36438
▁ፍየል	-9.36438
▁ለዚህ	-9.3644
▁ከሰ	-9.36441
▁በመልካም	-9.36484
▁ጦር	-9.36584
ድኑ	-9.36601
▁በልባቸው	-9.36656
▁ኢዮሣፍጥ	-9.36841
▁ሦስቱ	-9.36867
ላቸው፥	-9.37001
ውም።	-9.3706
▁ጉ	-9.37066
▁የንጉሡን	-9.37117
▁መለከት	-9.37202
▁ሄደ	-9.37276
ደቡ	-9.37356
ጥን	-9.37397
▁መልክ	-9.37496
▁እንዳዘዘ	-9.37537
▁ሦስተኛው	-9.37591
ማሩ	-9.37594
▁ሰደደ	-9.37722
▁በሰሙ	-9.37752
▁ሄደ፤	-9.37825
▁ተቀመጠ።	-9.37837
▁አነሣ	-9.37893
▁ሞላ	-9.37904
ችኋልና	-9.38034
▁በየወገናቸው	-9.38077
▁ክርስቲያን	-9.38077
▁የክርስቶስ	-9.38077
▁ለእኛ	-9.38077
▁ናት	-9.38103
▁በላዩ	-9.38136
▁ሰፈር	-9.38211
▁የሚቃጠል	-9.3829
▁ስሜ	-9.38304
▁ይሁዳም	-9.3836
▁አራተኛው	-9.38561
ዎቹንም	-9.38674
ለዋል	-9.38693
▁ናቡከደነፆር	-9.38699
▁ቀድሞ	-9.39192
▁ይላሉ።	-9.39194
▁እስክ	-9.39293
▁ተገ	-9.39307
ለች፥	-9.39485
▁ልኮ	-9.39507
▁ይስ	-9.39514
ሃት	-9.39609
ናል፤	-9.39616
▁አይተው	-9.39657
▁የሐ	-9.3973
ለህ፥	-9.3973
▁ጽዋ	-9.39741
ፃ	-9.39742
▁በእርግጥ	-9.39743
▁የሳኦል	-9.39743
▁የአሦር	-9.39743
▁በዚያች	-9.39748
ለጠ	-9.39748
▁መሬት	-9.39752
▁በላያቸው	-9.39755
▁የእሳት	-9.39767
▁በወርቅ	-9.3978
▁ሙሉ	-9.39843
▁የነበረ	-9.39862
ብላ	-9.39879
▁አቀረበ	-9.39885
▁ጩኸት	-9.39945
▁ሠሩ	-9.39986
ወልድ	-9.40017
▁ካል	-9.40052
▁ነኝ፥	-9.40205
▁በኵር	-9.4043
ቀል	-9.40515
▁ሰብ	-9.40523
▁ባሪያዬ	-9.40695
▁እጅህን	-9.4075
▁አኖረ	-9.40823
▁አደርጋለሁ	-9.4115
ማል፤	-9.41257
ሳን	-9.41418
▁ፈሪሳውያን	-9.41438
▁ወለደ።	-9.41438
▁ጠቦቶች	-9.41438
ጸልይ	-9.4144
▁ኖሮ	-9.41447
▁ማርያም	-9.41453
▁በፍታ	-9.41465
▁ዘወር	-9.41467
ሰጣችሁ	-9.41565
ቸዋለህ	-9.41701
▁አሮንም	-9.41732
ቻለ	-9.41783
ቀረቡ	-9.41788
ኤል፥	-9.41798
ክራ	-9.41849
▁ዔ	-9.41891
▁ፋሲካ	-9.41929
▁ሁለተኛ	-9.41939
በት፤	-9.42046
▁ወንጌል	-9.42065
ደድ	-9.4207
ታላችሁ	-9.42092
መለሱ	-9.4216
▁ተቀመጥ	-9.42187
ለት፤	-9.42259
▁አበዛ	-9.42274
ችሁን	-9.42348
ለበ	-9.42399
▁የቀረው	-9.42554
▁ነበረና	-9.42567
በው	-9.42955
ወድቅ	-9.43079
ጮኽ	-9.43149
▁ሰረገሎች	-9.43162
▁በኃይል	-9.43162
▁በጨለማ	-9.43162
▁ዘላለም	-9.43162
▁በእጃቸው	-9.43162
▁ፈረሶች	-9.43163
▁ይችላል	-9.43164
▁ለልጅ	-9.43167
▁በእነዚህ	-9.43171
በታል።	-9.43189
▁በሰማርያ	-9.43194
ገዙ	-9.43232
▁ሳይሆን	-9.43302
▁የዓ	-9.43377
▁ፈራ	-9.43403
▁ጽ	-9.43504
▁ኤልያስ	-9.43515
▁ልጆቹ	-9.43527
▁የሰማይ	-9.4355
▁ያመጡ	-9.43672
▁ሠራ።	-9.43689
▁ምንጭ	-9.43711
ኛል፤	-9.43747
▁ይመጣሉ	-9.43748
▁ዕድሜ	-9.43795
▁ጠል	-9.43799
▁የአሕዛብ	-9.4391
ላለች	-9.44008
▁መዛሙርቱም	-9.44084
▁ያልተ	-9.44213
ባቸው፥	-9.44303
▁በመከራ	-9.4431
▁ትተ	-9.44315
ድሩ	-9.44363
▁በቀን	-9.44375
ነቴ	-9.44416
▁ዕ	-9.44479
▁ነበረች	-9.44524
▁ብርቱ	-9.44557
▁ራሳቸውን	-9.44741
ጥል	-9.44744
▁ነገረ	-9.44789
ችንን	-9.44816
▁አዘዘ	-9.44834
▁ከአሕዛብ	-9.44917
▁ልጆቻችሁ	-9.44917
▁ሞዓብ	-9.44917
▁ሚዛን	-9.44919
ከበረ	-9.4492
▁ይጠፋል	-9.44932
▁ሄዶ	-9.44939
▁የእኔ	-9.4497
▁አልነበረም።	-9.44985
▁ከጌታ	-9.44986
ላክ	-9.45007
▁ሬሳ	-9.45043
ሉም	-9.45065
ኦ	-9.45106
▁ይበ	-9.45173
▁ትሰ	-9.45298
▁ነበረው	-9.45382
▁በፍርድ	-9.45459
▁እስክት	-9.45511
▁እርሱንም	-9.45551
▁ሆይ	-9.45665
▁አለኝ	-9.45682
ዘዘ	-9.45723
▁ተገለጠ	-9.45728
▁የዘ	-9.45854
አታል	-9.4624
▁ግፍ	-9.46243
ላችኋለሁ	-9.46341
▁ይሻ	-9.46377
ልያ	-9.46389
▁ባት	-9.46411
ቃጠል	-9.46435
▁ራ	-9.46521
▁ምሕረት	-9.46575
▁ፊቱን	-9.46598
▁በከተማ	-9.46688
▁ለአሕዛብ	-9.46702
▁ይናገራል	-9.46702
▁ሐሤት	-9.46703
▁ታሪክ	-9.46703
▁መምህር	-9.46704
▁ግምጃ	-9.46706
▁መጣ፤	-9.46747
ጥፋት	-9.46755
▁ለጌታ	-9.46767
መልሱ	-9.46828
▁ተቀምጠው	-9.4686
▁ኢዮአብ	-9.46993
▁እውቀት	-9.47003
ሰለ	-9.47016
▁ሳሙኤል	-9.47036
▁የሴ	-9.47164
አቸው፤	-9.47178
▁እጁ	-9.47344
▁የከ	-9.47408
አልና፥	-9.4746
▁አጠፋለሁ	-9.47565
▁ማታ	-9.47632
በል	-9.47804
▁ከብዙ	-9.47836
▁አለው	-9.48155
ፈልጉ	-9.4841
ዑ	-9.48518
ሑ	-9.4852
▁ለያዕቆብ	-9.48521
▁ታደርጋለህ	-9.48521
▁የካህናት	-9.48521
▁አይደለሁም	-9.48521
▁ከሙታን	-9.48521
▁ዘጠኝ	-9.48521
▁ሙታን	-9.48522
▁የአገሩ	-9.48522
▁ታውቃለህ	-9.48523
▁የአሞን	-9.48588
▁በርሳችሁ	-9.48595
ቁም	-9.4861
▁ብላቴና	-9.48639
▁አባትህ	-9.48647
▁ትቢያ	-9.48705
ሠራው	-9.48741
ልሃለሁ	-9.48759
▁አትፍራ	-9.48792
▁ጠቢብ	-9.4883
▁የማያ	-9.48837
▁የሆኑ	-9.48859
ታመኑ	-9.4889
ቀኝ	-9.48956
ገኘ	-9.48986
▁ወዳ	-9.49065
▁ዮናታን	-9.49091
▁የለውም	-9.49152
▁አወ	-9.49265
▁ይመጣል፥	-9.493
▁በገ	-9.4935
▁በድን	-9.49353
ዝን	-9.49377
▁ውኃው	-9.494
ማል፥	-9.49669
▁በዚህች	-9.49775
ዎቹም	-9.49822
▁አልፎ	-9.4986
▁ገባ	-9.49903
▁ደዌ	-9.49912
▁ጠርቶ	-9.49928
▁ዮ	-9.49974
ፈጸመ	-9.50021
▁ይበላ	-9.50054
▁ጴጥሮስም	-9.50068
ሰበሰቡ	-9.50081
ቸውንም	-9.50251
▁ሰምቶ	-9.50289
a	-9.50372
▁ይሄዳል	-9.50372
▁ከአንቺ	-9.50373
▁መልእክተኞች	-9.50373
▁ጽዮን	-9.50379
▁አይችልም	-9.50379
▁በክፉ	-9.5038
▁ለራሱ	-9.50382
▁ሣር	-9.50399
▁ያዙ	-9.50415
▁ኢዩ	-9.50418
▁መስገጃዎች	-9.50429
▁ስማ	-9.50499
▁ባሉ	-9.50513
▁አለን	-9.50529
▁ላከ።	-9.50555
▁ሽቱ	-9.50558
▁ጥበብን	-9.50673
▁የሚመ	-9.50726
▁አጋ	-9.50743
ራስ	-9.50803
ወቅ	-9.50872
በቱ	-9.50972
ወለድ	-9.50976
▁እመ	-9.50991
ረሳ	-9.51129
▁ወሰዱ	-9.51219
▁እንድታ	-9.51238
ታውቁ	-9.51409
ጠበቅ	-9.51431
▁ወጡ።	-9.51441
▁ድረስ፥	-9.51649
▁የተጻፈ	-9.51851
ላችሁ፤	-9.51855
▁ጠብቁ	-9.51865
▁አማ	-9.51894
▁ፈርዖንም	-9.51912
ረጥ	-9.51949
▁አሉ፤	-9.52021
ሮስ	-9.52166
▁ምሥራቅ	-9.52259
▁ተአምራት	-9.52259
▁ከንጉሡ	-9.52259
▁ጻድቃን	-9.52259
▁ያውቃል	-9.5226
▁በአባቱ	-9.52262
▁መውጫ	-9.52265
▁የሕይወት	-9.52268
▁በውጭ	-9.52291
መሰክር	-9.52298
▁ታናሽ	-9.52299
▁ውጣ	-9.52573
ናውያን	-9.52607
▁ላሉት	-9.52616
ባቸውም	-9.52712
ጣለች	-9.52747
▁ትሆናለች	-9.52809
ቃጥ	-9.5288
ኋት	-9.52899
ዋለሁ።	-9.52909
▁ዝ	-9.52949
ራቱ	-9.5297
ውንና	-9.52997
▁ሸሹ	-9.53028
▁ተሸ	-9.5308
ለች፤	-9.53083
▁ሰጥቶ	-9.53163
▁ይገባል	-9.53264
▁እናት	-9.53401
▁ማለት	-9.53413
▁ከተማይቱን	-9.53625
▁ኖረ	-9.53628
ፈስስ	-9.53675
መልከ	-9.5385
ጥራ	-9.5391
ልሽ	-9.54023
▁ፈር	-9.54026
ፅ	-9.54181
▁ለእያንዳንዱ	-9.54182
▁መላእክት	-9.54182
▁አለቆቹ	-9.54183
▁መሐላ	-9.54184
ራል።	-9.54208
▁ካህናቱም	-9.54264
▁ሰንበት	-9.54266
▁ድንቅ	-9.54309
▁አትፍሩ	-9.54316
ጮ	-9.54318
ላቸዋል	-9.54376
▁በለዓም	-9.54482
▁ትመ	-9.54489
▁ባዶ	-9.54568
▁እንስሶች	-9.54603
ዋል	-9.54649
▁ስጡ	-9.54653
▁ብላችሁ	-9.54663
ሚያ	-9.5467
▁በእነርሱም	-9.54741
▁ያዕቆብን	-9.54759
▁አዩ	-9.5479
▁ወፍ	-9.55056
▁ዘወትር	-9.5506
▁በራ	-9.5513
▁ያመጣ	-9.55139
ረብ	-9.55173
▁ወገ	-9.55233
▁አለፈ	-9.55296
▁እርስዋን	-9.55407
ሄደ	-9.55429
ታውቅ	-9.55457
ኢ	-9.55611
▁አቤሴሎም	-9.55619
▁ኢ	-9.55669
ችውን	-9.55691
▁ልጁም	-9.55727
ወስድ	-9.5583
ያምኑ	-9.55841
ዘጋጅ	-9.55844
▁ስምህን	-9.5587
ሒ	-9.56143
▁ኃያል	-9.56143
▁ይናገራሉ	-9.56143
▁ንስሐ	-9.56144
▁እግሮች	-9.56144
▁ዔሳው	-9.56148
▁አንሥቶ	-9.56162
ጠይቅ	-9.5618
▁በላቸው።	-9.56324
አቸውን	-9.56357
▁ግብፅ	-9.56387
▁በወጣ	-9.56392
▁ከአባቶቹ	-9.56406
ከተል	-9.56452
▁ወጥመድ	-9.56541
ቻቸውም	-9.56543
ፋት	-9.56566
ጐበ	-9.56632
ራሴ	-9.56687
▁የኢ	-9.56844
ኸውን	-9.56976
ወጋ	-9.57015
ጋድ	-9.57027
▁እጄን	-9.57061
ቶቻችሁ	-9.57099
▁ደብዳቤ	-9.57102
ወራ	-9.57149
▁ብቻውን	-9.5717
▁በብር	-9.5724
▁ሆናችሁ	-9.57241
▁የደ	-9.57376
▁አባቱን	-9.57421
▁አደረጉ፤	-9.57503
ባሉ	-9.57609
▁ጠብ	-9.57636
▁ይመጣል	-9.57916
ሀ	-9.57982
▁ይቈ	-9.58026
▁አደረጉ	-9.58031
▁ይገባ	-9.58068
▁ተነሣ፥	-9.58076
▁ሰጡ	-9.58109
▁ሴዴቅያስ	-9.58143
▁ትምህርት	-9.58143
▁ኢዮርብዓም	-9.58143
▁ድንጋዮች	-9.58143
▁ጕልማሳ	-9.58143
▁እለምንሃለሁ	-9.58143
▁በጽዮን	-9.58143
▁በሐሰት	-9.58144
▁ፈሳሽ	-9.58144
▁አይደሉም	-9.58152
▁ይሠራ	-9.58156
▁ይሞታል	-9.58159
▁ፊቴን	-9.5816
▁ሸክም	-9.5816
▁ሰምተው	-9.58163
▁ብረት	-9.58181
▁ታውቃላችሁ።	-9.58193
▁አብርሃምም	-9.58211
▁ሽታ	-9.58224
▁ስምህ	-9.58225
▁አደረገ፥	-9.58257
▁መዛሙርት	-9.58296
▁ሰጠው።	-9.58316
ኑን	-9.58317
▁ጠብቅ	-9.58352
▁መጡ፥	-9.58406
▁ተራ	-9.58445
▁ባሪያዎችህ	-9.58464
▁ቤቱን	-9.58528
▁ትልቅ	-9.58558
ፍሩ	-9.58561
ዋጋ	-9.58615
▁ያደርጋል	-9.58621
▁ኢዮብ	-9.58622
▁ሕዝቡንም	-9.58629
▁ዕረፍት	-9.58681
ሱም	-9.58788
▁ያጠፋ	-9.58802
ዳል	-9.58811
ሰቡ	-9.58815
ፈረሱ	-9.58844
ላቸው፤	-9.58897
▁ፍልስጥኤማውያንም	-9.58902
▁ለእነርሱ	-9.58914
ሸከም	-9.5895
መጣው	-9.58953
▁ደሙን	-9.59061
▁ቀረ	-9.59064
▁በዛ	-9.59081
▁ሄደው	-9.59233
▁የናስ	-9.59238
▁መጡ፤	-9.59245
▁እያለ	-9.59391
ፈቱ	-9.59419
ሳለች	-9.59483
▁አድርጉ	-9.59613
ናገረው	-9.59613
ለን፤	-9.59615
▁ኢዮአብም	-9.59853
▁አስነሣ	-9.59854
ከሱ	-9.59934
▁ላከ	-9.60065
▁ፊ	-9.60091
▁ድል	-9.60097
ለውን	-9.60171
▁ለአብርሃም	-9.60184
▁አእምሮ	-9.60184
▁ሕጉ	-9.60187
▁ስድብ	-9.60189
▁ከጥሩ	-9.60195
▁በሰላም	-9.60202
▁ኤሊ	-9.60214
▁መሰምርያዋን፥	-9.60221
ሾመ	-9.6025
▁መንገዱን	-9.60259
ባትን	-9.6041
ጠብቁ	-9.60664
ልና	-9.60776
▁ዓይኖች	-9.60811
▁ዮርዳኖስን	-9.60863
▁ዘረጋ	-9.60878
ባቸው፤	-9.60975
▁እንደምት	-9.61083
ቢያ	-9.61084
ኛላችሁ	-9.61105
ሞን	-9.61107
▁ነን	-9.61139
▁ይደ	-9.61172
▁ይላልና።	-9.61185
ለችና	-9.61249
▁ገብ	-9.6158
ዘን	-9.61858
ሁበት	-9.61884
▁ተናገረው	-9.61951
▁በመቅደስ	-9.62267
▁አክዓብ	-9.62267
▁ከዳዊት	-9.62267
▁የአብርሃም	-9.62267
▁መዝሙር	-9.62267
▁ትሆናለህ	-9.62267
▁አንጻር	-9.62268
መላለስ	-9.62268
▁የእህል	-9.62273
ስቡ	-9.62284
▁ሥራው	-9.62302
▁ትቀ	-9.62351
▁መቅሠፍት	-9.62354
▁ዓሣ	-9.62395
ጠበ	-9.62404
ማሉ	-9.62512
ለይ	-9.62548
ብል	-9.62705
ችሁም	-9.62748
▁አበኔር	-9.62757
ወለዱ	-9.62878
▁ሞገስ	-9.62892
ኑም	-9.62962
▁ሐማ	-9.63015
ደሉ	-9.6304
ነታቸው	-9.63071
▁ሞቱ	-9.6308
▁ምሕረትን	-9.63184
▁አራቱ	-9.63218
ስተውል	-9.63275
ወለ	-9.63556
ነገር	-9.63566
ላችሁን	-9.63661
▁እጃቸውን	-9.63736
ሩን	-9.63771
▁ይሸ	-9.63813
ወንድሙ	-9.63856
▁አየሁ፥	-9.63978
▁የኢየሩሳሌም	-9.64114
▁ኢየሩሳሌምን	-9.64172
አችኋል	-9.64188
ታችሁን	-9.6436
▁በዙሪያ	-9.64375
ጳ	-9.64395
▁መሠረት	-9.64395
▁ቋንቋ	-9.64395
▁በፈርዖን	-9.64395
▁ከወዴት	-9.64395
▁በድንጋይ	-9.64395
▁እንግዶች	-9.64395
ጸልዩ	-9.64396
▁ሕልም	-9.64396
▁ተመልከት	-9.64401
▁ከወሩ	-9.64401
▁በእጄ	-9.64413
▁አዎን	-9.64415
▁ወንድሙን	-9.64423
▁እስ	-9.64469
▁ሴቲቱ	-9.64521
▁እንዳላ	-9.64549
ይዙ	-9.64556
▁የሚመስል	-9.64558
▁ወንድሞቼ	-9.64585
▁ውጡ	-9.64626
▁አድርገህ	-9.64717
▁አምባ	-9.64773
ሃል፥	-9.64791
▁ተናገሩ	-9.64821
▁የለምና	-9.64887
▁አቀረቡ	-9.64896
▁ሰረገላ	-9.64929
▁እንግዳ	-9.64933
በኣል	-9.64939
ፈርድ	-9.64946
ገኘው	-9.6504
▁ዲ	-9.65141
▁ከነ	-9.65238
▁ጸሎት	-9.65334
ጠማ	-9.65336
▁ያደረገ	-9.65363
ዋለሁ፤	-9.65399
▁የሠራው	-9.65774
▁ይበላል	-9.65804
▁መልስ	-9.65817
ዎቻቸው	-9.65827
ሠራዊቱ	-9.65868
▁ቀረበ	-9.65897
▁የቀሩት	-9.65966
▁ኦ	-9.66075
ጸኑ	-9.6625
▁ቀርቦ	-9.66294
ታለች	-9.66374
ታቸውም	-9.66391
ራቸውን	-9.66428
▁ይሰጣል	-9.66502
ልሁ	-9.66502
ረሱ	-9.6653
▁ለይሁዳ	-9.66569
▁እኵሌታ	-9.66569
▁ውኆች	-9.66569
▁የሞዓብ	-9.66569
▁የግብጽ	-9.66569
▁የፈርዖን	-9.66569
▁ያገለግሉ	-9.66569
▁በዘይት	-9.66569
▁ዓይነት	-9.66569
▁ለሰልፍ	-9.6657
▁በዓለም	-9.6657
ገድል	-9.66571
▁በእርሻ	-9.66571
▁ስንፍና	-9.66574
▁ምናሴ	-9.66575
▁ጫማ	-9.66582
▁አበባ	-9.66586
▁ሥር	-9.6659
ፋችሁ	-9.66604
▁አምስቱ	-9.66607
▁መኖሪያ	-9.66798
አቸው፥	-9.66857
▁ተመልሰው	-9.66888
ያደርጉ	-9.66896
▁በነ	-9.67046
▁አጋንንት	-9.67088
▁አዘዘ።	-9.67143
▁አልነበረም	-9.6732
▁ሴቲቱም	-9.67413
▁ወገን፥	-9.67494
▁ይሄዱ	-9.67542
▁ግራ	-9.67565
ምነው	-9.6769
▁ፍልስጥኤማውያን	-9.67739
▁አባቶች	-9.67744
▁ቸር	-9.67927
▁ጋ	-9.68063
ለፈ	-9.68165
▁ስሙንም	-9.68248
▁ናችሁ	-9.68253
▁ጮኸ።	-9.68269
▁ሕዝቤን	-9.68312
▁ፈሩ	-9.68369
▁ተዋ	-9.68388
ለት፥	-9.68506
▁ወንድምህ	-9.6855
▁ሰውን	-9.68649
▁ታውቃላችሁ	-9.68739
▁ክፋትን	-9.68747
ዌ	-9.68753
▁የአይሁድ	-9.68791
▁የዮሴፍ	-9.68791
▁ሰይጣን	-9.68791
▁ልሔም	-9.68794
▁አደረግሁ	-9.68805
▁የእርሱ	-9.68809
▁ይጠፋሉ	-9.68811
▁እያንዳንዳቸው	-9.6882
▁ይሻላል	-9.68821
▁አይተ	-9.6883
▁ሞተ።	-9.68843
▁እግሮቹ	-9.68954
▁በበሩ	-9.68965
▁በል።	-9.69021
▁ለካ	-9.69083
▁ሕፃኑ	-9.69101
ቤተ	-9.69103
▁የሕዝቡን	-9.69154
▁ልጆቻቸውን	-9.6919
ፈጽም	-9.69191
▁ይጠብቁ	-9.69191
▁ሰዎቹም	-9.69287
ርፍ	-9.69354
▁አልሰማ	-9.69512
ችኋል፤	-9.69554
▁ሆኖአል	-9.69617
▁የሚናገር	-9.69646
ባችኋል	-9.6977
▁አመጡ	-9.6977
ወረደ	-9.69776
ኸን	-9.69849
▁ወግ	-9.69854
▁በሉ።	-9.69855
▁ሚስቱን	-9.6995
▁እግዚአብሔርንም	-9.69964
ልኝ።	-9.69973
▁በገዛ	-9.70006
ሰኝ	-9.70032
▁ተዉ	-9.70264
▁ባላ	-9.70294
▁በቀኝ	-9.70327
▁ተባለ	-9.70373
▁ተፈ	-9.70716
▁አውሬ	-9.70787
▁ምሕረትህ	-9.7087
▁እንዳለው	-9.70953
▁እይ	-9.70989
▁ልመና	-9.7101
መሩ	-9.71063
▁መንገሥ	-9.71064
▁በሞዓብ	-9.71064
▁ተጠንቀቁ	-9.71064
▁እናውቃለን	-9.71064
▁እናገራለሁ	-9.71064
▁ከፍልስጥኤማውያን	-9.71064
▁በሁለቱ	-9.71064
▁ፍላጻ	-9.71064
ይሳኮር	-9.71064
▁ሚስቶች	-9.71064
▁በስውር	-9.71065
▁ተናገራቸው።	-9.71066
▁ማዕዘን	-9.71067
▁ከሩቅ	-9.71076
▁አምላካቸው	-9.71078
▁ግብር	-9.71096
▁ደጆች	-9.71124
ቈረጠ	-9.71125
▁ቁርበት	-9.71141
▁ማለዳ	-9.71209
▁የግብፅ	-9.71228
▁ታላላቆች	-9.71267
ማየት	-9.71273
▁ሰፈሩ	-9.71302
▁ክፈ	-9.71394
▁ከዋክብት	-9.71414
▁ይጠራ	-9.71432
አት።	-9.71441
ቅረብ	-9.71471
ኖረው	-9.71535
በቡ	-9.717
መስማት	-9.71722
▁ላባ	-9.71735
ባችኋለሁ	-9.71929
▁ሎሌ	-9.71932
ታወቅ	-9.71952
▁ሰዎቹ	-9.71989
▁በሮች	-9.71995
ወደው	-9.72053
▁ሚስቱ	-9.72207
▁ብል	-9.72301
▁የዚህ	-9.72351
▁ብን	-9.72459
ያውቁ	-9.72542
▁ለሚያ	-9.72674
▁ይኖራል።	-9.72707
▁መስ	-9.72768
ለምን	-9.72822
▁ተነ	-9.72842
ችል	-9.72889
ብኛል	-9.7295
ላቸውም።	-9.73047
ቅርብ	-9.73097
▁ባልንጀራ	-9.7311
▁ያደ	-9.73165
▁በሥራ	-9.73228
▁ሸሸ	-9.73284
▁ተነሥ	-9.73308
▁ስሙ፤	-9.73368
▁ከከተማ	-9.73375
ኜ	-9.73389
▁መናፍስት	-9.73389
▁እሆናለሁ	-9.73389
▁የከተማይቱ	-9.73389
▁የብንያም	-9.7339
▁የአባቶቻቸው	-9.7339
▁ሲኦል	-9.7339
▁ተመልከቱ	-9.7339
▁ከብንያም	-9.7339
▁አድነኝ	-9.73392
▁ጽኑዓን	-9.73393
ሠዉ	-9.73393
▁የምናሴ	-9.73393
▁እውቀትን	-9.73397
▁ቀርበው	-9.734
ግሪክ	-9.73403
▁በሰልፍ	-9.73412
ሸክላ	-9.73418
▁ለማድረግ	-9.73524
▁በነበረ	-9.73536
▁አትክልት	-9.73673
▁የኃጢአት	-9.738
▁በሐ	-9.73938
በቅ	-9.74052
ባታል	-9.74088
▁ሠር	-9.74101
▁ገባ።	-9.74113
▁አንደኛው	-9.74192
▁በመጡ	-9.74315
▁በጎቹ	-9.74472
ረጋ	-9.74476
▁ይደረግ	-9.7452
▁ብለ	-9.74575
▁ማቅ	-9.74631
በሰ	-9.74638
▁አህያ	-9.74742
▁ነህና	-9.7475
▁ማለ	-9.74993
▁በጆሮ	-9.75021
▁የተባለው	-9.7504
▁ስማ፤	-9.75111
ሶን	-9.75136
ሠሩት	-9.75244
ሃለሁ።	-9.75356
ሚሆነው	-9.75432
ህበት	-9.75473
▁ወጡ፤	-9.75613
▁ባልዋ	-9.75622
▁ቀለበቶች	-9.7577
▁በመቅደሱ	-9.7577
▁በኤፍሬም	-9.7577
▁የፍልስጥኤማውያን	-9.7577
▁ሐሰተኛ	-9.7577
▁ሚዛኑ	-9.7577
▁ክርክር	-9.75771
▁እሰጥሃለሁ	-9.75771
▁ወድቆ	-9.75774
▁ወተት	-9.75778
▁ብንያም	-9.75779
▁በደመና	-9.75781
ያችሁ	-9.75808
▁ስንዴ	-9.75812
▁የቃል	-9.75884
ዘር	-9.75888
▁አንቀላፋ	-9.7592
▁ነፍ	-9.75941
▁ያደርጋል።	-9.76021
ነትን	-9.76033
ብሽ	-9.76035
▁ነጭ	-9.76036
▁ፈጽመው	-9.76099
ትም፥	-9.76123
ፎች	-9.76176
ቀመ	-9.76188
▁ቀንዶች	-9.76205
▁በሁለት	-9.76243
ማረ	-9.76329
▁ጠርቶ።	-9.7635
▁ሊሆን	-9.76353
▁በነጋው	-9.7639
▁ይወጣሉ	-9.76395
▁የሰውን	-9.76415
ችኋ	-9.7649
መለከ	-9.76573
ዳሉ	-9.76675
ወለደች	-9.76884
▁እልል	-9.76888
ሰጣት	-9.76917
▁አፈር	-9.77018
▁አቆመ	-9.77053
▁በልብህ	-9.77074
▁ነበሩ፥	-9.7708
▁ከቀ	-9.77102
▁አፌ	-9.77149
▁ይሁኑ።	-9.77195
▁ያውቃሉ።	-9.77199
ራቸውም	-9.7721
ብኝ፤	-9.77286
ቴም	-9.77419
ይቱን	-9.77445
▁የሰጠ	-9.77482
ደረጉ	-9.77543
▁ፋ	-9.77668
ሴቶች	-9.77802
▁ኃጢአተኛ	-9.77818
ቅር	-9.77827
▁ፊትህን	-9.77872
▁ነበርሁ	-9.77941
▁ናስ	-9.78028
▁አለቃው	-9.78133
ቀደሱ	-9.78139
ሦ	-9.78185
▁ልጆቼ	-9.78209
▁ምኞት	-9.78209
▁ሮብዓም	-9.78209
▁ትዕቢት	-9.78209
▁እኩሌታ	-9.78209
▁የተለወሰ	-9.78209
▁ይወድቃል	-9.78209
▁የሌለበት	-9.78209
▁ጻፎች	-9.7821
▁በጀመረ	-9.7821
▁ጠማማ	-9.78213
▁በሕግ	-9.78219
▁ተነሥተህ	-9.7822
▁ለአሮን	-9.78228
▁ይነሣል	-9.78231
▁ተመለሱ።	-9.7824
ባረክ	-9.78247
▁ፈጥኖ	-9.78252
▁ነገሮች	-9.78261
▁ሠርቶ	-9.78275
▁አብረው	-9.7831
ድህ	-9.78316
▁ባላቅ	-9.78386
▁ልጆቹም	-9.78408
ብያ	-9.78521
ዳይ	-9.78578
▁የልብ	-9.78637
▁የተቈጠሩት	-9.78639
▁የመቶ	-9.78657
▁ተቈጣ	-9.78665
▁መንግሥታት	-9.78749
▁መገናኛው	-9.78751
▁አምስተኛው	-9.78766
ደግ	-9.78771
▁አስቴር	-9.78788
▁ባሪያዎቹ	-9.78979
▁ወስደው	-9.79048
▁ይቀመጡ	-9.79064
▁ያደረገው	-9.79115
መስሉ	-9.79124
ርሱ	-9.79165
▁ይመልስ	-9.79169
▁አየሁ፤	-9.79189
▁ይሆናሉ፤	-9.79212
▁በቤተ	-9.79213
▁ተመለስ	-9.79228
▁በኋላ፥	-9.79406
▁ናትና	-9.79415
▁ተቀመጡ	-9.79452
ነበረ	-9.7949
▁ሐዋርያት	-9.79499
ዋልና፥	-9.79569
▁የገዛ	-9.79618
▁ሰነፍ	-9.79651
ተዉ	-9.79667
ገደል	-9.79729
ቆሙት	-9.79929
▁አራ	-9.80022
ባቸዋለሁ	-9.80064
ፉት	-9.80308
▁ክፉን	-9.80463
▁የተናገረውን	-9.80557
▁ጠባቂ	-9.80601
ኚ	-9.80709
▁በየአባቶቻቸው	-9.80709
▁አክሊል	-9.80709
▁ከፀሐይ	-9.80709
▁ዓይኖቹ	-9.80709
▁አታድርጉ	-9.80709
▁ይሄዳሉ	-9.80709
▁አቤሜሌክ	-9.80709
▁ወንድሞቻቸው	-9.8071
▁መዝገብ	-9.8071
▁አሦር	-9.80712
▁በማለዳ	-9.80712
▁ኀዘን	-9.80715
▁እረኛ	-9.80715
▁ጻፈ	-9.8074
ችው።	-9.80768
▁ጠላቶች	-9.80786
▁በላዬ	-9.80811
▁ነህ፤	-9.80896
▁በመካከላችሁ	-9.80954
▁ለባሪያህ	-9.8096
▁ሰባተኛው	-9.80978
▁እፍረት	-9.81019
▁እንዳይሆን	-9.8108
▁ዘካርያስ	-9.81096
ያለሁ	-9.81159
▁ሳለሁ	-9.8116
▁አዝ	-9.81313
▁ተሰበሰቡ	-9.8132
▁የሆኑት	-9.81361
ቱንም	-9.81484
▁ድንኳኑ	-9.81494
▁ራስህን	-9.81632
ተደረገ	-9.81662
ለዩ	-9.81666
▁ደርሶአል	-9.81828
▁ሳኦልን	-9.81883
መለሰ	-9.81907
▁አልፈ	-9.81942
አብራም	-9.82028
ቃት	-9.8211
▁አለው፥	-9.82151
▁እዩ	-9.82416
ላችኋል	-9.82424
▁ነፍሱ	-9.82478
▁ይፈሩ	-9.82556
▁ወንድሙ	-9.82581
▁በእጅ	-9.82782
▁ከሚያ	-9.8284
ነካ	-9.82854
▁ይሆናልና	-9.82858
▁ቀር	-9.82973
▁እውነትን	-9.83118
▁የሚሰማ	-9.83125
መወርወሪያ	-9.83273
▁መታሰቢያ	-9.83273
▁መጋረጆች	-9.83273
▁ማኅበሩ	-9.83273
▁ተሰብስበው	-9.83273
▁ትእዛዙን	-9.83273
▁ኖኅ	-9.83273
▁አባቶቻችን	-9.83273
▁ኢሳይያስ	-9.83273
▁ድንጋጤ	-9.83273
▁ገለዓድ	-9.83273
▁ሆኜ	-9.83274
▁አልቻሉም	-9.83274
▁ይመለሳል	-9.83274
▁ያድርግ	-9.83274
▁ሁላችን	-9.83274
▁በናያስ	-9.83275
▁አባቶቻቸው	-9.83276
ቤዠ	-9.83277
▁እንደሆነ	-9.83277
▁ደቡብ	-9.8328
▁እጥፍ	-9.83282
▁ሶርያውያን	-9.83284
▁ክንፍ	-9.83286
▁በረዶ	-9.83288
▁በደረሰ	-9.83291
▁ነገዶች	-9.83303
▁ሆንህ	-9.83316
ጠራቸው	-9.83327
ገልጥ	-9.83333
▁ሰላምን	-9.83395
▁ነገራቸው	-9.83405
▁ይስሐቅ	-9.83432
▁በልቤ	-9.83466
ችኋል።	-9.83477
▁በከነዓን	-9.83527
ቈጠር	-9.83538
▁የገ	-9.83539
▁እንዲሆኑ	-9.83688
▁በሦስት	-9.83694
▁ተነሡ	-9.83727
▁በቃል	-9.83733
▁የሰሎሞን	-9.83779
▁ቍጣው	-9.83815
▁ሥራውን	-9.83881
▁ትጠ	-9.83887
▁ሙሽራ	-9.83944
ለየ	-9.83983
▁ይበላችሁ	-9.8411
▁የሌዊ	-9.8415
አምላኬ	-9.84329
ለታል	-9.84373
ችኋቸው	-9.84458
▁ይበላሉ	-9.84469
▁በራብ	-9.84521
▁የሚሄድ	-9.84566
▁ጀመር።	-9.84789
ዋለህ።	-9.84803
ገባቸው	-9.84856
▁እናቱም	-9.84955
▁መጥቶአል	-9.85034
ጄ	-9.85042
▁በመጀመሪያ	-9.85045
▁ዘሩ	-9.85054
ዳት	-9.85097
ወርሱ	-9.85142
▁ይለዋል	-9.85238
▁ሰጣቸው።	-9.85407
▁ልጆቻቸው	-9.85434
በቀል	-9.85565
▁ዮናታንም	-9.85616
▁በሲ	-9.85836
ላይ	-9.85882
▁ምሥጢር	-9.85905
▁በምዕራብ	-9.85905
▁በኵራት	-9.85905
▁በዙፋኑ	-9.85905
▁እመልሳለሁ	-9.85905
▁ያደርጋሉ	-9.85905
▁ሰበሰበ	-9.85905
▁አይደለችም	-9.85905
▁ተቀበረ	-9.85906
▁የሶርያ	-9.85906
▁በተራራማው	-9.85906
▁በፍቅር	-9.85907
▁ጀመረ	-9.85907
▁አለቀሰ	-9.85907
▁ገመድ	-9.85907
▁ቀበሩት	-9.85908
▁ቃሎች	-9.85908
▁አዘዛቸው።	-9.85911
▁ገዥ	-9.85917
▁ወዳጆች	-9.85919
▁በሰማያት	-9.8592
▁ጫፍ	-9.85923
▁አውቆ	-9.8593
▁አጥብ	-9.85931
▁የእህሉን	-9.85937
▁በስሜ	-9.85941
▁ርጉ	-9.85949
ከለክ	-9.85952
ባርክ	-9.8596
▁ሄዱ፤	-9.85974
▁አይሁን	-9.85975
▁ሰማርያ	-9.85984
ፈለገ	-9.86005
▁ያዝ	-9.86007
▁ከነበሩት	-9.86064
▁ዝና	-9.86069
ቸዋል፤	-9.86074
▁ብሩን	-9.86123
ሕይወቱ	-9.86157
▁አላቸው	-9.86248
▁እባብ	-9.86269
▁ተመለከተ	-9.86271
ድርጋችሁ	-9.86291
▁ሲናገር	-9.86302
▁ይገደል	-9.86319
▁ኃጢአታቸውን	-9.86331
▁መተ	-9.86337
▁የሚኖር	-9.86352
▁ይላቸዋል	-9.86442
▁ተቀመጠ	-9.86657
▁ዐውሎ	-9.867
▁ከኤ	-9.86715
▁ቀንበር	-9.86729
▁ቀይ	-9.86772
▁ሹ	-9.86832
▁ይናገሩ	-9.8685
ሆንሁ	-9.86876
▁ጻፍ	-9.86962
ቸዋለሁ	-9.87021
ሰነፍ	-9.87102
▁ትሆን	-9.87183
▁መጥቶ።	-9.87269
▁ክፉዎች	-9.87273
ከስ	-9.87284
▁የተቀደሰውን	-9.87314
▁ነፍስህ	-9.87335
▁በሌላ	-9.87488
ንቁ	-9.87531
▁ትወ	-9.87589
▁ይሉ	-9.87604
ወርዱ	-9.87671
▁የመጣ	-9.87687
ራብ	-9.87687
▁ጀም	-9.87704
ሰፋ	-9.87721
ፈጸም	-9.87753
▁የወጡ	-9.87756
ሌዊ	-9.8785
▁አጸና	-9.88051
▁ያለችው	-9.88278
ራለህ	-9.88292
ዱን	-9.88353
▁የሚበላ	-9.8837
▁ሌላውን	-9.88397
▁ቅድስ	-9.88452
ጂ	-9.88526
ቃጠለ	-9.88584
▁ሕፃን	-9.88608
▁በሕዝቤ	-9.88608
▁በደኅና	-9.88608
▁ከኢየሱስ	-9.88608
▁ኮረብታ	-9.88608
▁የሮቤል	-9.88608
▁መጻተኛ	-9.88608
▁የአባቶች	-9.88608
▁ሞልቶ	-9.88608
▁በፊታችሁ	-9.8861
▁ገለባ	-9.8861
ከማቹ	-9.88624
ካሌብ	-9.88629
▁ሰሜን	-9.88634
ጠይቁ	-9.88636
▁አታውቁም	-9.88638
▁ዓምድ	-9.88665
▁ወረዱ	-9.88733
ሁላችሁ	-9.88751
▁ላኩ	-9.88781
▁የሚበልጥ	-9.88781
▁የሚኖሩትን	-9.88826
▁አሰበ	-9.88833
▁መጡ	-9.88853
▁ያልሆነ	-9.88858
▁ለራሳቸው	-9.8887
ታት	-9.88975
▁ስእለት	-9.89025
▁ራሔል	-9.89027
▁የተወለደ	-9.8907
▁እላለሁ	-9.89071
▁በኤ	-9.89142
ፋቱ	-9.89168
▁ይሰማ	-9.89177
▁ፍየሎች	-9.89203
▁አንዲቱ	-9.89248
▁ይሰጡ	-9.89266
ቀበለው	-9.89281
▁አመስግኑ	-9.89452
▁እንዳታ	-9.89474
▁እነርሱን	-9.89518
ሁም።	-9.89633
▁በጎች፥	-9.89725
▁ሙሴን።	-9.89767
▁ያየ	-9.89796
ቆች	-9.89798
አልና።	-9.89857
▁ተቀበሉ	-9.89909
▁ኪዳኔን	-9.89969
▁ተቀመጠ፤	-9.90017
▁ክፉውን	-9.90105
ነፉ	-9.90115
ወደድ	-9.90131
▁ክብሩ	-9.90166
▁ሳያ	-9.90259
▁ቄ	-9.90282
▁ይታ	-9.90307
▁ልን	-9.90357
ማመን	-9.90369
▁ስሙን	-9.90392
▁ያደርጋል፤	-9.90431
ሳር	-9.90527
▁ተኛ	-9.90594
▁ዳዊትም።	-9.90623
▁አላቸው፤	-9.90693
▁ፍርዴን	-9.90705
▁ገዛ	-9.90724
▁የሚሠራ	-9.90809
ሻው	-9.90978
ፈልገው	-9.90996
▁ባሪያዎቹን	-9.91238
▁ዋይ	-9.91265
ኛል፥	-9.91314
ዒ	-9.91334
ጵ	-9.91385
▁ሶምሶን	-9.91385
▁በአምላካችን	-9.91385
▁በአምላክህ	-9.91385
▁ከዘላለም	-9.91385
▁ኪሩቤል	-9.91385
▁ዓመፅ	-9.91386
▁የንጉሥ	-9.91386
▁የጽዮን	-9.91386
▁ምስሎች	-9.91386
ጨነቁ	-9.91386
▁እወቁ	-9.91388
ከተሞቻቸው	-9.91391
▁የአባትህ	-9.91399
▁የተስፋ	-9.91401
▁እልፍ	-9.91406
▁አይገኝም	-9.91424
▁ለምድር	-9.91434
▁ምስክሮች	-9.9144
▁ተመለሰ	-9.91441
▁ገብተው	-9.91442
▁ዱር	-9.91444
▁ከፈ	-9.91453
ነግር	-9.91455
▁ይለኛል	-9.91455
▁ሰገደ	-9.91523
▁ተናገሩ።	-9.91574
▁ባለችው	-9.91587
ወሰድ	-9.91591
▁የጽድቅ	-9.91613
▁ለሰሎሞን	-9.91631
▁ይበል	-9.91673
▁ዝቅ	-9.91686
▁እስካ	-9.91692
▁ጌታችን	-9.91702
▁ወዳጅ	-9.91721
▁ደግ	-9.9173
▁ከሁለት	-9.91747
▁ሥራቸው	-9.91828
ዱት	-9.91869
▁ታጠፋ	-9.91887
▁በመስ	-9.91917
▁ፈረሰኞች	-9.91998
በቁ	-9.92094
▁ሰባቱ	-9.92118
ራውያን	-9.92189
ላቸዋለሁ	-9.9226
▁የጌታን	-9.92288
▁አደረ	-9.92325
▁ድን	-9.92352
▁ርስቱ	-9.92356
▁ወንዞች	-9.92378
▁ታጥ	-9.9239
▁መርዶክዮስ	-9.92408
▁ዓይኔ	-9.92408
መናችሁ	-9.92409
▁ጠላቶቼ	-9.92546
ጠሉ	-9.92588
▁ሕዝቅያስም	-9.92841
▁ይመለስ	-9.92843
▁ይመጡ	-9.92859
ክብሩ	-9.92884
▁ስለዚህ፥	-9.92907
ፍርድ	-9.93173
▁እስኪያ	-9.93351
▁በሕዝብ	-9.93397
ብኝ።	-9.93464
ቸዋለሁ።	-9.93479
▁አድርግ፤	-9.93557
▁ለሞት	-9.93582
▁ይሄድ	-9.93611
▁መቱ	-9.9363
▁በሚኖሩ	-9.93651
▁አድርገ	-9.93659
ከፋ	-9.93791
▁አጠ	-9.93996
▁ትቶ	-9.93997
ማረኩ	-9.94033
ንግሥ	-9.94033
መከተል	-9.94066
ጮኹ	-9.94088
▁የሞተ	-9.94089
ቅሁ	-9.94189
▁እቀ	-9.94235
▁ምዕራብ	-9.94243
▁ነበልባል	-9.94243
▁አደርገዋለሁ	-9.94243
▁ከኤፍሬም	-9.94243
▁ሀብት	-9.94243
▁ቁመቱ	-9.94243
▁ይወስዳል	-9.94243
▁በንጉሥ	-9.94243
▁ኃፍረ	-9.94243
▁በክብር	-9.94245
▁የክብር	-9.94245
▁ያወጣል	-9.94247
▁አካዝ	-9.9425
▁ቂጣ	-9.9425
▁ምግብ	-9.94252
▁አጥንት	-9.94255
▁ንገሩ	-9.94258
▁ድካም	-9.94259
▁ትላለህ	-9.94261
▁ጢስ	-9.94273
▁ክምር	-9.94311
▁ዋሻ	-9.94319
▁ትሁን	-9.94339
▁አርነት	-9.94346
▁የቀረውን	-9.94346
▁ያጸና	-9.94375
▁ማዳን	-9.94401
ከማች	-9.94411
▁ዓይኖቼ	-9.94453
▁አልጋ	-9.9453
▁ለአሥራ	-9.94609
▁ካሉት	-9.94707
▁አደራ	-9.94767
ሰብክ	-9.94792
ገደሉ	-9.94817
▁በተራራው	-9.94824
▁አሳልፈው	-9.9483
▁ሳት	-9.94862
▁መፍራት	-9.94876
ጉት	-9.94884
ሚባለው	-9.9489
▁መራራ	-9.94926
▁ሰዎችን	-9.94988
▁አዘጋጀ	-9.95014
▁ታው	-9.95143
▁ሳዶቅ	-9.95155
ያዙ	-9.95162
ሸሽ	-9.95162
መስለው	-9.95195
ርቁ	-9.95347
▁አባቶቻችሁ	-9.95382
ሩ፥	-9.95417
▁ባሉት	-9.95424
▁ወሰደ፥	-9.95483
ሳቱ	-9.95506
▁ታደርግ	-9.95551
ቆሙ።	-9.95571
▁እንደማይ	-9.95573
ዮሐንስ	-9.95618
ነገሥታት	-9.95629
ሆናችሁ	-9.95674
ከፈተ	-9.95691
▁ሕግን	-9.9575
▁ሰማሁ።	-9.95998
ንፍታሌም	-9.96266
ኸ	-9.9628
▁ዓይኖችህ	-9.96284
▁ሞገስን	-9.96307
ባይ	-9.96338
▁ይል	-9.96558
▁ተመለሰ።	-9.96659
▁ቃላ	-9.96705
▁ረዳ	-9.96772
ጪ	-9.96801
▁ሰጣቸው	-9.96826
ዮስ	-9.97003
▁አሳድ	-9.97029
▁ልክ	-9.97065
▁የሚሉት	-9.97066
▁ሕዝብህ	-9.97081
ትም፤	-9.97082
▁ልጅህ	-9.97184
▁ሄሮድስ	-9.97184
▁ለእህል	-9.97184
▁ለፈርዖን	-9.97184
▁ራእዩ	-9.97184
▁ብፁዓን	-9.97184
▁አንዳንዶቹ	-9.97184
▁ኬብሮን	-9.97184
▁የኤፍሬም	-9.97184
▁ለሌሎች	-9.97184
▁በተራሮች	-9.97184
▁ድሆች	-9.97184
▁በነገሠ	-9.97185
▁ከሰሜን	-9.97187
▁በአልጋ	-9.9719
▁ሾ	-9.97201
▁ከከተማይቱ	-9.97202
▁ከአንድ	-9.97227
▁ሌዋውያኑም	-9.97257
▁ነገሩት።	-9.97274
▁ቀስት	-9.97281
▁ጥርስ	-9.97282
▁ጠራው።	-9.97307
በደል	-9.97343
▁ወስደህ	-9.97374
▁በለስ	-9.97426
▁አየ፤	-9.97437
ቲቱ	-9.97453
▁ብትሆን	-9.97487
▁ትበላላችሁ	-9.97516
▁ከሀያ	-9.97519
ማለች	-9.97542
▁እኅት	-9.97556
▁ዓመፀኛ	-9.97593
▁ጥበበኞች	-9.97593
በተኑ	-9.97611
▁ይሠራል	-9.97644
▁ወንድሜ	-9.97663
▁የደኅንነት	-9.9768
▁ከነዓናውያን	-9.97834
▁እናቱን	-9.97859
▁ሁኑ	-9.9788
▁ሽማግሌ	-9.98143
▁በግራ	-9.98227
▁ታድ	-9.98272
▁ሠራ፤	-9.98314
▁ልታ	-9.98566
ጹ	-9.98582
▁ጮኸ	-9.98606
ላከኝ	-9.98623
ልከው	-9.98629
ለፍ	-9.98666
▁መከራን	-9.9877
▁ያጠፋል	-9.98939
▁ባያ	-9.99069
ቸዋል	-9.9908
▁አየሁ።	-9.99155
▁ዮርዳኖስ	-9.9921
▁መራ	-9.99302
ግፍ	-9.99312
▁ከፍታ	-9.9938
▁ይጐ	-9.99381
▁የሞት	-9.99406
ቼአለሁ	-9.99415
▁ብሎአልና	-9.99454
▁የሚነካ	-9.99471
ልኝ፤	-9.99482
▁ወዳሉ	-9.99499
▁ግድ	-9.99517
ዮን	-9.9959
▁አሳልፈ	-9.99601
ሩአቸው	-9.9961
ሕይወ	-9.99834
ቈጠረ	-9.99889
▁ይብ	-9.99915
▁አጽና	-9.99923
ጌጥ	-9.99993
▁ያለበትን	-10.001
▁ገበታ	-10.0018
▁ይሁን፥	-10.0019
ሼ	-10.0021
ኢይዝራኤል	-10.0021
ኻ	-10.0021
▁መልእክተኛ	-10.0021
▁መጐናጸፊያ	-10.0021
▁በነቢዩ	-10.0021
▁የተባረከ	-10.0021
▁ግብዣ	-10.0021
▁እንሂድ	-10.0021
▁ይኖራሉ	-10.0021
▁መሣሪያ	-10.0021
▁በስፍራው	-10.0021
▁ቍስል	-10.0021
▁ፊተኛው	-10.0021
▁ከአሥር	-10.0021
▁ዕንቍ	-10.0022
▁በጥበብ	-10.0022
ሽንገላ	-10.0022
▁ውሰዱ	-10.0022
▁ሰጥቼ	-10.0022
▁ምስጉ	-10.0022
ጭንቀት	-10.0022
▁ዕውር	-10.0022
▁ለሰማይ	-10.0022
▁ልብሳቸውን	-10.0022
ያመልኩ	-10.0023
▁መሆኑን	-10.0024
▁ናታን	-10.0026
▁መለሰለት።	-10.0027
▁የአንተ	-10.0027
▁አታስ	-10.0028
▁የማምለ	-10.0032
▁አውጣ	-10.0032
▁በጌታችን	-10.0033
ዶን	-10.0037
ጠሙ	-10.0039
▁ትታ	-10.0041
▁ሱ	-10.0042
▁ያስነሣ	-10.0044
▁አንዳንዶች	-10.0049
▁አስተዋይ	-10.0049
ገድለው	-10.0052
▁ጌዴዎን	-10.0059
▁ቀርቦአል	-10.0064
▁ካለ	-10.007
▁አካል	-10.0071
▁የሌለው	-10.0071
▁በመሸ	-10.0071
▁በሀያ	-10.0074
▁እስማኤል	-10.0079
▁ይፈልጉ	-10.0084
▁ፈጥ	-10.0089
ለታል።	-10.0099
▁ጥል	-10.0109
▁አይታ	-10.0111
▁ደረ	-10.0114
▁የተቀመጡ	-10.0125
▁እናገር	-10.0131
▁አደርጋለሁ።	-10.0132
▁ተከተሉት	-10.0141
▁የዚህን	-10.016
▁የጋድ	-10.0165
▁አዳነ	-10.0171
ግብፃውያን	-10.0177
▁ኪዳኑን	-10.0181
▁ያነሣ	-10.019
▁የሚባል	-10.0191
▁ነገሩን	-10.0227
ነውን	-10.0239
ልጄ	-10.0243
ችኋለሁ።	-10.0244
▁በጉ	-10.0245
▁አገኙ	-10.0265
▁ወሰዱት	-10.027
▁ናት፥	-10.0278
ማላችሁ	-10.0287
▁ታመ	-10.0287
መስል	-10.0288
ቀሩ	-10.0289
ታለሁ	-10.0299
ረዋል	-10.0299
▁ትተው	-10.0309
ናወጥ	-10.0323
ነታችሁ	-10.0328
▁ርዝመት	-10.0334
▁በገለዓድ	-10.0334
▁አዕማድ	-10.0334
▁ክርስቲያናት	-10.0334
▁ፈጽመህ	-10.0334
መቅረዙ	-10.0334
▁አዘጋጁ	-10.0334
መንደሮቻቸው	-10.0334
▁ዓመታት	-10.0334
▁ተለይቶ	-10.0334
ድጓድ	-10.0334
▁መዝጊያ	-10.0334
▁አህዮች	-10.0334
▁ምድራቸው	-10.0334
▁ታናሹ	-10.0335
ሰበስብ	-10.0335
▁ከጥንት	-10.0335
ኤፉዱ	-10.0335
▁ሆድ	-10.0336
▁ለሁሉ	-10.0336
▁ሣራ	-10.0336
▁ድንበሩ	-10.0336
▁ጸጥ	-10.0336
▁በሩቅ	-10.0338
▁ስሜን	-10.0341
▁መረጠ	-10.0347
ያስተውሉ	-10.0348
▁አምጡ	-10.0353
▁ለሌላ	-10.0356
▁የኢፍ	-10.0358
▁ዕዳ	-10.0359
▁ሰልፈኞች	-10.0362
▁ባለጠግነት	-10.0362
▁ፊልጶስ	-10.0362
ሻገር	-10.0363
▁አያሌ	-10.0369
ከበሩ	-10.0378
ቸዋለሁ፤	-10.0378
ደለው	-10.0384
▁ይመጣል።	-10.0385
▁ይዋጋ	-10.0394
▁ቢሆኑ	-10.0394
▁ነህ፥	-10.0397
▁ርስታቸው	-10.0399
▁ኢዮራም	-10.0419
▁የተናገረው	-10.043
ያት	-10.0462
ሳለሁ	-10.0469
▁ብላቴናው	-10.0485
▁የሥጋ	-10.0496
▁ሔ	-10.0497
▁ያዘዘውን	-10.051
ስት	-10.051
▁ያደረ	-10.0512
ቀማ	-10.0524
▁ይናገር	-10.0527
▁እጄ	-10.0531
▁ልባችሁ	-10.0531
▁ሰጠሁ	-10.0531
ኃጢአተኛ	-10.0538
▁አለቃ፥	-10.0542
▁ዓይንህ	-10.0555
▁እንዳሉ	-10.0562
ለትም።	-10.0565
▁በኣል	-10.0567
ባቸዋል	-10.057
ቃለሁ	-10.0571
ሰጡት	-10.0583
▁የሚለው	-10.0593
▁ከብት	-10.0594
▁ዓመፃ	-10.0594
ጨው	-10.0604
አሥራ	-10.061
ሁም፤	-10.0618
መኝ	-10.0618
▁የሚወጣ	-10.0624
ብላቴናይቱ	-10.0629
▁ወንጌልን	-10.0648
▁የሚለውን	-10.0651
ረፈ	-10.0652
▁ሰሙ	-10.0653
▁ችግረኛ	-10.0656
▁መዛግብት	-10.0656
▁ማኅፀን	-10.0656
▁በማደሪያው	-10.0656
▁በሸለቆው	-10.0656
▁በየወገኖቻቸው	-10.0656
▁ባደረገ	-10.0656
▁ትእዛዜን	-10.0656
▁ቸነፈር	-10.0656
▁ኃጢአቱ	-10.0656
▁ንገራቸው።	-10.0656
▁ኤዶምያስ	-10.0656
▁እናደርጋለን	-10.0656
▁ደኅና	-10.0656
ነጋገሩ	-10.0656
▁በእጃችሁ	-10.0656
መላለሱ	-10.0657
▁የእናንተ	-10.0657
ስርየት	-10.0657
▁ርግብ	-10.0657
▁አድርጌአለሁ	-10.0657
▁ጨረቃ	-10.0657
▁ጸለየ	-10.0657
▁አለቀሱ	-10.0657
▁አንበጣ	-10.0657
▁ይቀበላል	-10.0657
▁ይቀመጣል	-10.0657
መንፈሴ	-10.0657
▁አላወቁ	-10.0657
▁ያልፋል	-10.0657
▁ታያለህ	-10.0657
▁ለአንዱ	-10.0657
▁በዕጣ	-10.0657
▁ስጠኝ	-10.0658
▁በአንዱ	-10.0658
▁ሳንቃ	-10.0659
▁ዝግባ	-10.0659
▁ቸል	-10.0659
ጠግብ	-10.0659
▁ዘምሩ	-10.066
ያለቅሱ	-10.0662
▁ዞረ	-10.0663
▁ነገረው።	-10.0664
▁ለአንድ	-10.0664
▁ያያል	-10.0665
▁በልባችሁ	-10.0665
▁የሚመጣው	-10.0669
ሰግድ	-10.067
ሉትን	-10.0671
መልክ	-10.0673
▁በለው።	-10.0677
▁የምድርን	-10.0679
▁አይሁዳዊ	-10.068
▁በግዞት	-10.0682
ሾች	-10.0686
▁ያማረ	-10.0693
▁ፊታቸው	-10.0694
▁ወርዶ	-10.0702
▁ወሰደው	-10.0706
▁የሚጠብቅ	-10.0706
▁ግዛት	-10.071
▁ጠፋ	-10.071
▁እረኞች	-10.0718
▁ያለበት	-10.0721
ፈርስ	-10.0723
ብሃለሁ	-10.0725
ጫወ	-10.0742
▁ደዌው	-10.0743
▁የሚሄዱ	-10.0749
▁ይገባዋል	-10.0751
ብሻል	-10.0753
▁ጠጋ	-10.0754
ኝን	-10.0754
▁ይወድቃሉ	-10.0755
▁ባስ	-10.0758
▁ወሰደ።	-10.077
▁ወንድሞቹን	-10.0776
▁ሆነህ	-10.0781
▁መሆን	-10.0782
▁ሆና	-10.0788
▁ያነ	-10.0792
▁እናቱ	-10.0794
▁ሥጋውን	-10.0812
▁እንደሌለ	-10.0817
ልጦ	-10.0817
ረቡ	-10.0821
▁ሞተ፥	-10.0822
▁ቀኑ	-10.0823
አቤሴሎም	-10.0831
▁ወንድሞቹም	-10.0843
▁የአሕዛብን	-10.0846
▁ተደረገ	-10.0859
▁ለእነርሱም	-10.0862
ሻል፤	-10.0863
▁ማስተዋል	-10.0865
▁ቍጣዬ	-10.0866
▁ጀምረ	-10.0881
▁ተጽፎአል	-10.089
▁ቃልህ	-10.0895
በቀለ	-10.0907
▁ነበረች፤	-10.0915
▁ብላቴናውን	-10.0915
▁ይሰጥ	-10.0932
ጠላቶችህ	-10.0941
▁ግርማ	-10.0948
▁በፊቱም	-10.0957
▁ብሉ	-10.0966
▁ይስሐቅም	-10.0969
ባቸዋል።	-10.0972
ዱ፥	-10.0976
▁ማታም	-10.098
▁እጅህ	-10.0981
ሌዋውያኑ	-10.0982
▁አጠጣ	-10.0987
▁ለሌዋውያን	-10.099
▁ሥርዓቴን	-10.099
▁በኢያሪኮ	-10.099
▁ከለዳውያን	-10.099
▁ከመጀመሪያ	-10.099
▁ከምሥራቅ	-10.099
▁የገለዓድ	-10.099
▁ድምፁን	-10.099
▁አኖራለሁ	-10.099
▁አፈሰሰ	-10.099
▁የፊተኛው	-10.099
▁ገሊላ	-10.099
▁ባሕሩ	-10.099
▁እጆቹ	-10.099
▁ቅንዓት	-10.099
▁አገሮች	-10.099
▁የሙሴ	-10.099
▁ምድሩን	-10.0991
▁አባታችሁ	-10.0991
▁አደረግህ	-10.0991
ላካቸው	-10.0992
▁ምናምንቴ	-10.0992
▁አያውቅም	-10.0992
▁ትላላችሁ	-10.0993
ረክስ	-10.0993
▁የለበሰ	-10.0994
▁ሠሪ	-10.0994
▁የሰላም	-10.0995
▁አልሰሙም	-10.0995
▁ላሞች	-10.0995
▁አሉአቸው።	-10.0995
▁ያጠ	-10.1001
▁ይኸውም	-10.1001
▁ይውጣ	-10.1006
▁ቀንድ	-10.1007
▁በልዩ	-10.101
▁በጥሩ	-10.1013
▁ይሆናሉ	-10.1014
▁ትእዛዛት	-10.1015
▁ወንድሞቹ	-10.1015
ፈርዱ	-10.1023
ዞሩ	-10.1025
▁ጭቃ	-10.1025
▁ቤቴል	-10.1026
▁ተነሡ፥	-10.1027
▁ባልንጀራውን	-10.103
▁የኢየሩሳሌምን	-10.1034
▁አቢሜሌክ	-10.1036
ነዋል	-10.1038
▁ነደደ	-10.1042
▁ይከፍ	-10.1046
ደል	-10.1051
▁ይሁዳን	-10.1057
▁አዘጋጅ	-10.1058
▁ወሰደ፤	-10.1059
▁በራሳቸው	-10.1064
ሳፋን	-10.1077
▁ሁን	-10.1077
▁ጋለሞታ	-10.1081
ደርሱ	-10.1085
▁የተጻፈው	-10.1087
▁ተቀበል	-10.1097
ዳድ	-10.11
▁ሳል	-10.1109
ማለህ	-10.1113
▁ንጉሡንም	-10.1114
▁ሁለተኛውን	-10.1126
▁ይኖር	-10.113
ቀባው	-10.1147
▁ለልጆቹም	-10.1158
▁ግብፃውያን	-10.116
ተልባ	-10.1162
ኤርምያስ	-10.1175
ዘወትር	-10.1178
ተገለጠ	-10.1182
▁በቍጣ	-10.1194
▁ይላሉ	-10.1195
ቻችሁን	-10.1198
አባታቸው	-10.1198
ብሃል	-10.1204
▁መሰ	-10.1207
▁ተጽፎአል።	-10.1222
ይዝ	-10.1228
ወንድምህ	-10.123
▁የሚመጣ	-10.1254
ደረቀ	-10.1264
▁አዘነ	-10.1264
▁መንግሥቱ	-10.1267
▁የውኃ	-10.1269
ወንድሞች	-10.1269
▁አየ።	-10.1271
ቸዋለሁ፥	-10.1272
▁ተናገርሁ	-10.1272
ገሣ	-10.1274
▁የዮ	-10.1276
ሙኤል	-10.1292
▁ልጆችህ	-10.1296
▁መሠዊያውን	-10.1303
ወዝ	-10.1307
ሳደድ	-10.1309
▁ሰገዱ	-10.1317
▁የጦር	-10.1322
ገናኘ	-10.1324
▁መስገጃ	-10.1324
ንጹ	-10.1327
ራል፥	-10.133
ኣ	-10.1334
▁የኮረብታ	-10.1335
▁መሎጊያዎቹ	-10.1335
▁ርኵስ	-10.1335
▁ቅርንጫፎች	-10.1335
▁በሳኦል	-10.1335
▁በአራተኛው	-10.1335
▁በአይሁድ	-10.1335
▁ቡቃያ	-10.1335
▁ተናግሬአለሁ	-10.1335
▁ኃይሉ	-10.1335
▁ከባቢሎን	-10.1335
▁ጠቢባን	-10.1335
▁አይደላችሁም	-10.1335
▁በብንያም	-10.1335
▁ያድርጉ	-10.1335
▁የራሱን	-10.1335
▁ታደርጉ	-10.1335
▁ለድሀ	-10.1335
▁በአገሩ	-10.1335
▁ዘመኑ	-10.1335
▁መብራት	-10.1335
▁ሴኬም	-10.1335
▁እንደዚሁ	-10.1335
▁የመጠጥ	-10.1335
▁በእግር	-10.1335
▁አዋጅ	-10.1335
▁ከሕግ	-10.1336
▁በወንዝ	-10.1336
▁አሸዋ	-10.1336
▁ሥሩ	-10.1337
▁ፈራጆች	-10.1337
▁ተመለሱ፤	-10.1337
ባርነት	-10.1338
▁ወርቁን	-10.1339
ረባ	-10.1345
▁ሲሉ	-10.135
▁የተለየ	-10.1353
▁አዝዞ	-10.1355
▁ትከ	-10.1358
▁ኑሮ	-10.1361
▁ጥልቅ	-10.1362
ታለህ	-10.1364
▁በቤቴል	-10.1372
▁እወቅ	-10.1374
▁ወዮላቸው	-10.1376
▁ከፊትህ	-10.1378
▁ሕፃናት	-10.1383
▁ሸማያ	-10.1383
መከሩ	-10.1383
ጨምር	-10.1383
▁በማን	-10.1384
ታችንን	-10.139
▁አሜስያስ	-10.1394
▁በስምንተኛው	-10.14
ዮናስ	-10.1402
በረቱ	-10.1403
ቶቼ	-10.1403
▁ጨው	-10.1406
▁ዕቃውንም	-10.1415
▁ይገዙ	-10.1417
▁ጣዖት	-10.1417
ቸዋል፥	-10.1419
▁ይሠሩ	-10.1423
▁ሲመጣ	-10.1423
መጣሁ	-10.1428
▁ዕቃዎች	-10.1432
ሮቻቸው	-10.1438
ኋ	-10.144
በድል	-10.1452
▁ስሙ።	-10.1454
ቸዋልና	-10.1457
▁ነበርና፥	-10.146
ይ፥	-10.1463
▁ሻ	-10.1464
ጠበቁ	-10.1464
▁የሚሰጥ	-10.1476
ያውቅ	-10.148
ቶችዋ	-10.1485
▁ኢዮስያስ	-10.1486
▁በነገር	-10.1488
▁አኪ	-10.1493
▁ሁለተኛውም	-10.1496
▁ሰጣቸው፤	-10.1506
▁የሚወድ	-10.1512
▁ለልጆቹ	-10.1514
▁በዚያው	-10.1519
▁ራሳችሁን	-10.1521
▁ይቀመጥ	-10.1529
ጸሎት	-10.1535
▁ይመጣ	-10.1553
▁ከፈተ	-10.1559
ብኝ፥	-10.1562
▁ያውቁ	-10.158
▁በመካከል	-10.1584
▁መጣች	-10.1589
▁አቤሴሎምም	-10.1597
▁ትሸ	-10.1605
▁እናንተን	-10.162
ያለሽ	-10.1626
▁እላለሁ።	-10.1635
ከብር	-10.1635
▁ፈልጉ	-10.1642
▁ማንንም	-10.1663
▁መለሱ	-10.1666
▁ልበ	-10.167
▁አምላክህን	-10.1675
▁ዮሴፍን	-10.1677
▁ተናግሮ	-10.1679
ጦርነት	-10.168
ወደዱ	-10.1683
▁መጠጊያ	-10.1686
ኢያቢስ	-10.1692
ዲያብሎስ	-10.1692
▁ሊባኖስ	-10.1692
▁በኃጢአት	-10.1692
▁ተጠንቀቅ	-10.1692
▁ትንሣኤ	-10.1692
▁እስትንፋስ	-10.1692
▁ኮረብቶች	-10.1692
▁ዮዳሄ	-10.1692
▁መርከቦች	-10.1692
▁በላያችን	-10.1692
▁በነቢያት	-10.1692
▁የደረ	-10.1692
▁ብዝበዛ	-10.1692
▁ዕውሮች	-10.1692
▁ያቀርባል	-10.1692
▁ለካህኑ	-10.1692
▁ተከትለው	-10.1692
▁ራሳችን	-10.1692
▁አላውቅም	-10.1692
▁በአባቴ	-10.1692
▁ድንገት	-10.1692
▁ይቀመጣሉ	-10.1692
▁ከፊቴ	-10.1692
▁ከምናሴ	-10.1692
▁ተኝቶ	-10.1692
▁እሾህ	-10.1692
▁የተነገረ	-10.1693
▁የልጅ	-10.1694
▁ሰማንያ	-10.1694
▁አገሩ	-10.1694
መሰከረ	-10.1694
▁ይሰጠዋል	-10.1695
ሰገነት	-10.1696
▁ጮኹ።	-10.1696
▁ብርታት	-10.1697
▁ወለደች።	-10.1697
▁ተመለሱ፥	-10.1697
ጠየቀ	-10.1698
በታል፤	-10.1698
ዋረድ	-10.17
▁መስሎ	-10.1703
▁በበጎ	-10.1707
▁ወስዳ	-10.1707
ተቀመጡት	-10.1708
▁ሄዱ፥	-10.1712
▁ወጥቶአል	-10.1712
▁ይሰጣል።	-10.1713
▁አየሁ	-10.1713
▁ላለው	-10.1718
▁ኤልያስም	-10.172
ሰደዱ	-10.1725
▁አትበል	-10.1725
▁የሚያስፈራ	-10.1728
▁ለማንም	-10.1729
▁ከሞት	-10.1731
▁ከሦስት	-10.1731
▁ሞተም።	-10.1731
▁እርሾ	-10.1734
በልጥ	-10.1739
▁ሐናንያ	-10.1742
ሉአት	-10.1742
▁ገደለው	-10.1742
▁እጆች	-10.1745
▁መርከብ	-10.1748
▁ታላቂቱ	-10.1754
▁ሄ	-10.176
▁ሕያዋን	-10.176
ማረከ	-10.177
ላውያን	-10.177
▁ይመለሱ	-10.1771
▁ማድረግ	-10.1772
▁አድርገሃል	-10.1773
▁ከላይ	-10.1775
ደዋል	-10.1776
▁በድንኳኑ	-10.1784
ርድ	-10.1789
ጠበቀ	-10.1796
ወገኔ	-10.1798
▁የቀሩትን	-10.1799
▁አሥራት	-10.1801
▁ይሠዋ	-10.1807
▁ጲላጦስም	-10.1811
▁ግባ	-10.1816
ኑትን	-10.182
ነፍስ	-10.1822
▁ራቁ	-10.1822
▁ለወንድሞቹም	-10.1826
ደበ	-10.1829
▁መለሰ።	-10.1837
▁መሠዊያው	-10.1843
▁ሦስተኛ	-10.1844
▁አወቀ	-10.1845
▁ድር	-10.1848
▁የአባቱን	-10.186
▁አላችሁ	-10.1861
▁ወይ	-10.1862
መምጣት	-10.1863
▁እሆን	-10.1864
▁ጳውሎስን	-10.1866
ይደለ	-10.1874
ችበት	-10.188
▁ይልቁንም	-10.189
ያደርግ	-10.1901
ኢዮስያስ	-10.1902
ረውን	-10.1907
▁ገባ፥	-10.1917
ሴቲቱ	-10.193
▁አመጣለሁ	-10.1931
▁ኢየሩሳሌምም	-10.1939
▁አድርጉ፤	-10.1939
ቂያ	-10.195
ጥሉ	-10.1966
ቃላችሁ	-10.1976
▁መሳ	-10.1985
ቈጠሩ	-10.1985
▁አደርጋለሁ፤	-10.1991
▁ክርስቶስን	-10.2008
▁በብርቱ	-10.2023
▁በቤቴ	-10.2023
▁በደም	-10.2026
▁ኢዮ	-10.204
▁ሲል።	-10.2041
▁ታደ	-10.2049
ቀኑ	-10.2049
▁ተራራው	-10.2054
▁አቅርቡ	-10.2061
መቄዶንያ	-10.2062
▁አመሰግንሃለሁ	-10.2062
▁እንግዲያስ	-10.2062
▁ከመስፈሪያው	-10.2062
▁የድንጋይ	-10.2062
▁ይመለሳሉ	-10.2062
▁ከኃጢአት	-10.2062
▁የዔሳው	-10.2062
▁ፈጽሜ	-10.2062
▁በፍልስጥኤማውያን	-10.2062
ኤርትራ	-10.2062
▁ከአባቴ	-10.2062
▁የወይኑ	-10.2062
▁ለአባቱ	-10.2062
▁የእውነት	-10.2063
▁ልማድ	-10.2063
▁በግልጥ	-10.2063
▁ረጅም	-10.2063
▁አዴር	-10.2063
▁አቢሳ	-10.2063
▁በጽኑ	-10.2063
▁በሙሉ	-10.2064
▁ምላስ	-10.2064
▁በየዓመቱ	-10.2064
▁አወቅሁ	-10.2064
▁ከእጄ	-10.2064
▁የሚያህል	-10.2065
▁ከእናንተም	-10.2065
▁ይገድሉ	-10.2066
ተቀበላችሁ	-10.2068
▁ደሴቶች	-10.2068
ገለጡ	-10.2069
▁ቅጣት	-10.207
▁ያያሉ	-10.2072
ዋረደ	-10.2073
▁በአራቱ	-10.2073
▁ወዳለበ	-10.2081
▁ተሻገሩ	-10.2084
▁ከሌላ	-10.2086
▁እርግማን	-10.209
▁የአምላክህን	-10.209
▁ለደኅንነት	-10.209
▁ጣዖታት	-10.2096
ታየው	-10.2102
▁ጠጣ	-10.2113
▁ነህን	-10.2113
▁ይፈጸም	-10.2114
▁ዓዛርያስ	-10.2132
ሆነው	-10.2158
▁መንግሥቱን	-10.2162
▁ኢዮአስ	-10.2169
▁ጸሐፊው	-10.217
▁በሕዝብህ	-10.2173
▁ግልሙትና	-10.2175
▁ሄደህ	-10.2176
▁የማት	-10.2183
ፈጠር	-10.2184
▁ትሆኑ	-10.2187
▁የቤቱን	-10.2197
▁አምላኩ	-10.2206
▁ኤላ	-10.2207
▁ያውቃሉ	-10.2219
▁ይባላል።	-10.222
▁ነሽ	-10.2221
▁አደረጉ፥	-10.2228
ድናቸው	-10.2231
▁ሞትን	-10.2238
▁ሚካ	-10.2251
▁ታየ	-10.2256
▁ድብ	-10.2266
▁ያገባ	-10.2273
▁ስላላ	-10.2276
ከማቸ	-10.2283
በኵር	-10.2288
ጠላቶቼ	-10.2289
▁ደመናው	-10.2308
▁ላከ፤	-10.2314
ዘሩ	-10.2315
▁ትል	-10.2316
▁እኔንም	-10.2318
ዳስ	-10.2318
▁ሐሰትን	-10.232
ላታል	-10.233
▁ይወድቃሉ።	-10.233
ከፍት	-10.2341
▁ደሙ	-10.235
▁ትሰማ	-10.2363
▁መቀመጫ	-10.237
ሡ	-10.2378
▁የሚሠሩ	-10.2382
▁የሕዝቡ	-10.2384
▁እግሩን	-10.2389
▁ጸሐፊ	-10.2391
▁ታውቁ	-10.2392
▁የተቈጠሩ	-10.2392
▁በተራራ	-10.2394
▁ሥጋዬ	-10.2398
▁ጣለ	-10.2412
▁ተሰበሰቡ።	-10.2414
ሎን	-10.2418
▁ሰጠ።	-10.2421
▁እነርሱንም	-10.2422
▁የሚቀመጥ	-10.2435
ታምኑ	-10.2443
▁ለሳኦል	-10.2447
▁ለአምላክህ	-10.2447
▁ቍጥራቸው	-10.2447
▁በኮረብታ	-10.2447
▁ቤርሳቤህ	-10.2447
▁ቦዔዝ	-10.2447
▁ነጋዴዎች	-10.2447
▁አገልጋይ	-10.2447
▁ከሁለቱ	-10.2447
▁ከሌዋውያን	-10.2447
▁ከፈርዖን	-10.2447
▁ኵሬ	-10.2447
▁የመቅደሱ	-10.2447
▁ለሕዝብ	-10.2447
▁መሳፍንት	-10.2447
▁ከወንድሞቹ	-10.2447
▁የባሕር	-10.2447
▁የነቢያት	-10.2447
▁ጥቂቶች	-10.2447
▁በሕያው	-10.2447
▁አውድማ	-10.2447
▁ይሞታሉ	-10.2447
▁ሕሊና	-10.2447
▁አሞራውያን	-10.2447
መሰገኑ	-10.2447
▁አይደለህም	-10.2447
▁ፈቃዱ	-10.2447
▁እንኪያስ	-10.2447
ሌሎቹ	-10.2447
▁ባለጠጋ	-10.2447
▁ቅጥሩ	-10.2447
▁ሃሌ	-10.2447
▁ማልዶ	-10.2447
አንበሶች	-10.2447
▁በተስፋ	-10.2447
▁ወንዙ	-10.2448
▁የዕጣ	-10.2448
▁አድምጡ	-10.2448
ቀረጹ	-10.2449
▁መርገም	-10.2449
ገረዙ	-10.245
▁ከሞተ	-10.2451
▁ኪስ	-10.2451
▁ያንን	-10.2452
የስማቸው	-10.2453
▁ሄዳችሁ	-10.2454
▁መንሻ	-10.2456
▁መሰምርያዋ	-10.2458
▁ምር	-10.2458
▁መልኩ	-10.2459
▁ካህናቱን	-10.2459
▁ሰባቱን	-10.2459
ጨነቅ	-10.2461
ልባችን	-10.2466
▁ሰጠው፤	-10.2466
▁ከቀይ	-10.2467
▁የዓለም	-10.247
▁ይሁኑ	-10.2471
▁የዘበኞቹ	-10.2474
ባት።	-10.2475
▁ናችሁ።	-10.2478
ኖርበት	-10.2482
▁ይጨምር	-10.2488
▁ሲሄዱ	-10.249
▁በሰዎች	-10.2491
▁እንቅልፍ	-10.2494
ካለችው	-10.2495
ጊያ	-10.2495
▁ወልደ	-10.25
▁የሚሻ	-10.2501
▁ከአፉ	-10.2503
▁የማን	-10.2505
ማውያን	-10.2517
▁ቀኑን	-10.2536
▁ተንኰል	-10.2545
ሳየ	-10.2547
ገፋ	-10.2547
▁መንገዴን	-10.2554
▁እንደሚሆን	-10.2554
▁መንደሮችዋ	-10.2559
▁በሰጠ	-10.2563
▁ቀላ	-10.257
▁ለመነ	-10.2579
▁መንግሥ	-10.2596
▁ሰደደ።	-10.26
▁ቃልህን	-10.2603
▁ያወጡ	-10.2611
▁ጀመር	-10.2613
▁ምንስ	-10.2614
ቃወሙ	-10.2622
▁ስትል	-10.2628
▁ልባችሁን	-10.2629
ጥቂት	-10.2632
ዘዛቸው	-10.2635
ዘኑ	-10.2643
ተቀባ	-10.2657
▁አለች፤	-10.2678
▁ያው	-10.2682
ከበር	-10.2686
▁አልነበረም፤	-10.2695
▁ከሚኖሩ	-10.2695
▁ተከለ	-10.2695
ላችን	-10.2702
▁የተወደደ	-10.2708
▁ጲላጦስ	-10.2715
▁የሚሉ	-10.2718
▁ይወጡ	-10.2725
▁እንደሚገባ	-10.2734
አርጤክስስ	-10.2757
▁ገባ፤	-10.2758
▁በረከ	-10.2762
▁አመጡት	-10.2764
አባቶቻችሁ	-10.2768
አርባ	-10.2781
▁ይሆናሉ፥	-10.2785
▁ራሴ	-10.2789
ጻፍ	-10.279
▁ሆነዋል	-10.2803
ጣቱ	-10.2807
ሰዶም	-10.2811
▁ድንግል	-10.2816
▁የአምላክ	-10.2817
ዋለች	-10.282
▁መጥ	-10.2822
▁መንገዱ	-10.2832
ታለል	-10.2833
▁ላሉ	-10.2842
ዚች	-10.2844
▁ያሳድ	-10.2846
ሚያገለግሉ	-10.2847
▁ለንጉሥ	-10.2847
▁ሕልሙ	-10.2847
▁ሚክያስ	-10.2847
▁ማኅተ	-10.2847
▁በመንገዱ	-10.2847
▁በኬብሮን	-10.2847
▁በዘመኑ	-10.2847
▁አቁማዳ	-10.2847
▁አገልጋዮች	-10.2847
▁እሰጣቸዋለሁ	-10.2847
▁ከሳኦል	-10.2847
▁ከያዕቆብ	-10.2847
▁የሕዝብ	-10.2847
▁የዘንባባ	-10.2847
▁ጻድቁ	-10.2847
▁በዕድሜ	-10.2847
▁አውጥቶ	-10.2847
አስጨናቂ	-10.2847
ኢዮአታም	-10.2847
▁ለአባቶቻቸው	-10.2847
▁መንፈሱ	-10.2847
ዕብራውያን	-10.2847
▁በውስጡ	-10.2847
▁ኦርዮ	-10.2847
▁ብድራት	-10.2847
ራፋይም	-10.2847
▁አትሥሩ	-10.2847
▁አካዝያስ	-10.2847
▁ጕልላ	-10.2847
ሰንሰለት	-10.2847
▁ለሙሴ	-10.2847
▁የዝግባ	-10.2847
▁በቅንነት	-10.2847
ሰሜኢ	-10.2847
▁አዋቂ	-10.2847
▁የአባቴ	-10.2847
▁ለብሰው	-10.2847
▁ፍርዱ	-10.2848
▁አሳደዱ	-10.2848
▁ተደፋ	-10.2848
▁አምኖን	-10.2848
▁ቤዛ	-10.2849
▁አልሁት።	-10.2849
ጠላቶቻችሁ	-10.285
▁መዓት	-10.285
▁ጮኽሁ	-10.285
ካፈሉ	-10.2851
▁ዘንግ	-10.2851
ፈወስ	-10.2852
▁ከእጁ	-10.2853
▁የላቸውም	-10.2855
▁ሌዋውያንን	-10.2859
▁ድርሻ	-10.286
ናባጥ	-10.2861
ራችን	-10.2863
ማወቅ	-10.2864
▁ባይሆን	-10.2864
▁የለኝም	-10.2872
▁እስኪሞት	-10.2873
▁ስላለ	-10.2874
▁ሹም	-10.2879
▁በገና	-10.288
▁የምትኖሩ	-10.2881
▁በውስጥዋ	-10.2882
ቀድሱ	-10.2883
▁በጎነት	-10.2887
▁ትርፍ	-10.2888
▁ጎዶልያስ	-10.289
ታለች፤	-10.289
▁የጌታችን	-10.2891
ስቶ	-10.2891
▁መከር	-10.2893
▁በዳም	-10.29
▁ሰጡ።	-10.2904
▁ሆኑ፥	-10.2906
▁ከነዓን	-10.2918
▁በዙሪያዋ	-10.2919
▁እንባ	-10.2919
ታለሁ።	-10.2922
▁ተዋጋ	-10.2928
▁ኀ	-10.2934
▁ኤልሳዕም	-10.2935
▁ግዛ	-10.2936
▁የተባለች	-10.2937
ያልፉ	-10.2939
▁ሌሊቱን	-10.2952
ጋባ	-10.2962
▁ወይራ	-10.2965
ርቆ	-10.298
ኛለች	-10.2996
▁ሰማሁ	-10.3004
▁ከሥጋ	-10.3014
ተመለሱ	-10.3014
አምላኩ	-10.3015
▁ውበት	-10.3016
▁ባሳ	-10.3019
▁አላገኘሁ	-10.3024
ሰቀሉ	-10.303
▁ባሪያውን	-10.3038
▁አባታቸው	-10.3039
በተ	-10.3041
ባሪያህ	-10.3059
ሸሸግ	-10.306
▁ይለዋል፤	-10.3064
ስያ	-10.3075
ሚሆን	-10.3075
ረሰ	-10.3075
▁ሰጥተ	-10.3082
▁ስጥ	-10.309
ናቡከደነፆር	-10.3105
▁በወጡ	-10.311
▁እነሆኝ	-10.3112
▁ተገኘ	-10.3119
▁አመስግኑት	-10.3134
▁በሞት	-10.3134
ጣብ	-10.3144
▁ሐዋርያ	-10.3163
▁ነን፤	-10.3166
▁አድን	-10.3168
▁የምድረ	-10.3171
▁ነህ።	-10.3172
▁አለች	-10.3178
ሸሹ	-10.3182
▁ጸና	-10.3195
▁ሥርዓቱን	-10.3201
▁ቤቴ	-10.3221
ቃለች	-10.3222
▁በውስጥ	-10.3227
ተከተሉ	-10.3231
▁ገል	-10.3234
ሤ	-10.3263
ማስተስረያ	-10.3263
ትዕቢተኞች	-10.3263
ንቀጠቀጡ	-10.3263
ዤ	-10.3263
▁ለአምላካችን	-10.3263
▁ቈነጃጅት	-10.3263
▁በባሕሩ	-10.3263
▁በአደባባይ	-10.3263
▁በደማስቆ	-10.3263
▁ተባባሉ።	-10.3263
▁ታደርጋላችሁ	-10.3263
▁ኃጢአታችሁ	-10.3263
▁ንጹሐን	-10.3263
▁እሰጣችኋለሁ	-10.3263
▁ወይፈኖች	-10.3263
▁የስምዖን	-10.3263
▁የይስሐቅ	-10.3263
▁የጻድቃን	-10.3263
▁ያቃጥለዋል	-10.3263
▁ገንዘቡ	-10.3263
▁ፀነሰች	-10.3263
▁ምጽጳ	-10.3263
▁በሌለበት	-10.3263
▁በታንኳ	-10.3263
▁በግምባሩ	-10.3263
▁አሥረኛ	-10.3263
▁ከሕዝብ	-10.3263
▁ድንጋዩ	-10.3263
▁ጸሎቴ	-10.3263
▁አዛዥ	-10.3263
▁ከግራር	-10.3263
▁ይፈርዳል	-10.3263
▁ጽላቶች	-10.3263
▁ጸንቶ	-10.3263
▁ልዑል	-10.3263
▁ይመስላል	-10.3263
▁ኪራም	-10.3264
▁ፈጥነህ	-10.3264
▁ሳንቆች	-10.3264
▁እያንዳንዳችሁ	-10.3264
▁የምድያም	-10.3264
ጸጸት	-10.3264
▁ጀርባ	-10.3264
▁ሰምቻለሁ	-10.3264
▁ወለደችለት	-10.3265
▁ከቤቱ	-10.3266
▁ሠዋ	-10.3266
▁ሳውል	-10.3266
▁ተለይተ	-10.3266
እህሉ	-10.3266
▁ሌባ	-10.3267
▁መልክተኞች	-10.3267
▁ዓረባ	-10.3267
▁የሁሉ	-10.3267
▁ሳያውቅ	-10.3267
▁ማረኝ	-10.3267
ገሞራ	-10.3268
▁አመድ	-10.3269
▁በስምህ	-10.3269
▁ወዳለች	-10.3269
▁ሩቅ	-10.327
▁ከሰፈሩ	-10.327
ለኪሶ	-10.3271
▁በአሮን	-10.3271
▁ከንፈር	-10.3271
▁ምርኮኞች	-10.3273
▁የቤት	-10.3273
▁ነገሥ	-10.3273
▁በስሙ	-10.3274
▁ተዋጉ	-10.3274
▁ሠራተኛ	-10.3275
▁ሊገናኘ	-10.3276
▁አስብ።	-10.3277
▁አብራምም	-10.3278
▁ሮጠ	-10.3278
▁ሠራዊቱም	-10.328
▁ደረሱ	-10.3281
▁ጡት	-10.3289
ጨረሰ	-10.329
▁አደርግሃለሁ	-10.329
▁አፉን	-10.3292
▁ኃጢአታችን	-10.3295
▁ይሆንላችኋል	-10.3295
▁ዲዳ	-10.3295
▁አካሄ	-10.3295
▁አምላካችሁን	-10.3305
▁ወደቁ።	-10.3306
▁ለአባቶቻችሁ	-10.3307
▁ቅንነት	-10.3308
▁ጕን	-10.3308
▁ይስጥ	-10.3314
▁እናትህ	-10.3315
አውሬው	-10.3321
▁ያመሰግኑ	-10.3322
▁ከምት	-10.3325
▁ሥጋቸው	-10.3329
▁ታላቁን	-10.3331
▁አቅርብ	-10.3336
▁አለፉ	-10.3342
▁የሚቀመጡ	-10.3342
▁ተገዙ	-10.3344
▁በተቀደሰው	-10.3344
በቅል	-10.3346
▁መዳን	-10.3349
▁አምጣ	-10.3354
▁አሞን	-10.3372
▁አየች	-10.3376
ምትባል	-10.3381
▁የሚጠብቁ	-10.3383
▁ደኅንነት	-10.3386
▁ነን።	-10.339
▁በውኃው	-10.3397
▁ዓመፀኞች	-10.3399
▁በጣም	-10.3408
▁ኃይልን	-10.3418
▁ላከ፥	-10.3419
▁ራስዋን	-10.3424
▁የተወ	-10.3425
▁የሚሆኑ	-10.3426
▁አይሰማ	-10.3429
▁ፍልስጥኤማዊ	-10.3432
▁ሰዶም	-10.3437
ዘንብ	-10.3443
▁የሠራዊቱ	-10.3444
▁መታው	-10.3446
▁ይመታ	-10.3449
▁ልቡን	-10.3459
▁ድምፃቸውን	-10.3466
ሚወዱ	-10.3466
▁ማደሪያውን	-10.3475
▁ሄደች	-10.3476
▁በረታ	-10.3478
ለታለሁ	-10.3485
ጐዳ	-10.3493
ራሳቸው	-10.3494
▁በአሳ	-10.3517
▁ፈት	-10.353
▁በቤትህ	-10.3538
መርዶክዮስ	-10.3539
ዓይኔ	-10.3539
ሰነፎች	-10.3541
▁ኃጢአተኛው	-10.3542
▁የነበረች	-10.3569
▁ከመከራ	-10.3569
▁ሴቶችንም	-10.3578
▁ኋላው	-10.3579
▁ተግሣጽን	-10.358
▁ሁኑ።	-10.3599
▁ይጋ	-10.3601
▁ኤልሳዕ	-10.3603
ለቅስ	-10.3604
▁በቅድስ	-10.3611
▁በጎችን	-10.3616
▁ተቀበለ	-10.3617
▁የተጠራ	-10.3621
▁መያዣ	-10.3625
▁የሰማይን	-10.3638
ቀላል	-10.3646
ብሃል።	-10.3651
አባቶቹ	-10.3651
▁በማይ	-10.3681
▁ራሴን	-10.3684
▁በማታ	-10.3691
ወንድሞቻችሁ	-10.3692
▁ጋድ	-10.3693
▁የዚያ	-10.3694
▁አመጡ።	-10.3695
ላደረገ	-10.3696
▁ሶርያ	-10.3697
▁ያቀርቡ	-10.3698
ሜሌክ	-10.3698
ኑኃሚን	-10.3698
ኤልዛቤል	-10.3698
ኤፍራጥስ	-10.3698
▁መታጠቂያ	-10.3698
▁በምድሪቱ	-10.3698
▁በኢዮርብዓም	-10.3698
▁በኤዶምያስ	-10.3698
▁ትኖራለች	-10.3698
▁ኃጢአቴ	-10.3698
▁አልወደደም	-10.3698
▁አግኝቶ	-10.3698
▁እወዳለሁ	-10.3698
▁የልጆቹ	-10.3698
▁ይጠብቃል	-10.3698
▁ዮሐናን	-10.3698
▁ጽሕፈት	-10.3698
ጺ	-10.3698
▁ትችላለህ	-10.3698
▁የአምላካችሁን	-10.3698
▁ትሆናላችሁ	-10.3698
▁አታድርግ	-10.3698
▁ይወርዳል	-10.3698
▁አንዳንድ	-10.3698
▁ልጃችሁ	-10.3698
▁ተጓዙ	-10.3698
▁በጠላቶቻቸው	-10.3698
▁በምሳሌ	-10.3698
▁ዘርግቶ	-10.3698
▁ጭልፋ	-10.3698
▁በአገርህ	-10.3698
▁ከዓለም	-10.3698
▁በደለኛ	-10.3698
▁በአፋቸው	-10.3698
▁ሰውዮውም	-10.3699
▁ተሸክመ	-10.3699
▁አውጥተ	-10.3699
ጸድቅ	-10.3699
▁በወንዙ	-10.3699
▁የተመረጠ	-10.3699
▁ከወርቅ	-10.3699
▁የቂጣ	-10.3699
ነግሥ	-10.3699
▁ለብሶ	-10.3699
▁ቃሉ	-10.3699
▁ከፊቱ	-10.3699
▁መግባት	-10.3699
▁ንስር	-10.37
▁በወይን	-10.3701
ፋሬስ	-10.3701
▁ይበልጣል	-10.3702
▁አያውቁም	-10.3702
▁ፈጥነው	-10.3703
ከማቻ	-10.3703
▁ተቀብለ	-10.3704
▁ሠራተኞች	-10.3704
ቂሮስ	-10.3704
ያከብሩ	-10.3705
ገናኙ	-10.3707
▁በሰፈሩ	-10.3709
▁ለጌታዬ	-10.3711
▁አደረገው።	-10.3711
▁ለማገልገል	-10.3716
▁ማልሁ	-10.3716
▁መለከቱን	-10.3719
▁ገቡ፤	-10.3724
▁እንድትሆን	-10.3726
▁የሚያውቅ	-10.373
▁አይሆንም።	-10.3734
▁ትንሽ	-10.3736
▁በታቦቱ	-10.3737
ገናኝ	-10.3737
▁ይጥፋ	-10.3738
▁አኖሩ	-10.3738
▁እስኪመጣ	-10.374
▁በዙሪያቸው	-10.3747
▁ጭፍሮች	-10.3752
▁አድርጉ።	-10.3758
▁የዳዊትን	-10.376
▁ታች	-10.3763
▁አትበሉ	-10.3766
ሞሉ	-10.3767
▁የወንድ	-10.3769
▁ተፈጸመ	-10.3769
ቀረው	-10.3791
▁ቅዱሳኑ	-10.3796
▁የሚገባውን	-10.3798
▁ዔሊ	-10.3801
▁የፈጠረ	-10.3801
▁ይመስል	-10.3804
▁እሺ	-10.3806
▁ይጠብቅ	-10.3806
▁የሰጠው	-10.3819
▁መናገር	-10.3819
▁የተባለ	-10.3823
ሰጡአቸው	-10.3824
▁ብልህ	-10.3827
▁የተጠላ	-10.383
ጥፋ	-10.3837
▁ልያ	-10.3858
▁የሚናገሩ	-10.386
▁ጴጥሮስን	-10.3866
▁በሌላው	-10.3886
▁ስማቸው	-10.3888
▁መልሰው	-10.3917
▁ብለዋል	-10.3921
ሸጥ	-10.3923
▁ያገኙ	-10.3924
▁ስማኝ	-10.3944
▁አያለሁ	-10.3952
▁ነፍሳቸውን	-10.3969
▁ሰማያዊ	-10.3974
ቈጡ	-10.3976
ዳለህ	-10.3977
▁አንሥተ	-10.3983
▁ናችሁ፤	-10.3988
▁ከሆነው	-10.3991
▁በቀል	-10.3991
ልጠው	-10.3992
ጳውሎስ	-10.3994
▁ከዳን	-10.3995
ወንጌል	-10.3996
አንደኛው	-10.3996
ቆመው	-10.4005
▁ይመጣል፤	-10.4012
▁መንደሮች	-10.4021
▁የሚያምን	-10.4022
▁አድርጋ	-10.4044
ታደርግ	-10.4052
ተወለደ	-10.4059
ከተሉ	-10.4064
ርዶ	-10.4066
ሁለተኛይቱ	-10.4086
ላችኋል።	-10.409
ጣለሁ	-10.411
ሚቃጠለው	-10.4117
▁አስረ	-10.4128
ነዚህ	-10.4129
ሐማ	-10.413
ሮጥ	-10.413
▁ለማስ	-10.4135
ዓይናቸው	-10.4141
▁ጓዳ	-10.4143
▁በተናገረ	-10.4145
ሂ	-10.4152
▁ወጣች	-10.4152
ጬ	-10.4153
ጼ	-10.4153
▁ለብቻው	-10.4153
▁ለይስሐቅ	-10.4153
▁ለዮሴፍ	-10.4153
▁መኳንንት	-10.4153
▁ቡሩክ	-10.4153
▁አመሰግናለሁ	-10.4153
▁ከባሕር	-10.4153
▁ከፈሪሳውያን	-10.4153
▁የሌዋውያን	-10.4153
▁የጽሩያ	-10.4153
▁ይጮኻሉ	-10.4153
▁ደማስቆ	-10.4153
ገለግል	-10.4153
▁ለመሥራት	-10.4153
▁ማሰማርያ	-10.4153
▁ሮቤል	-10.4153
▁አንዳንዱ	-10.4153
▁የፍየል	-10.4153
▁ደመወዝ	-10.4153
አማልክቶቻቸው	-10.4153
▁በአጠገባቸው	-10.4153
▁እናድርግ	-10.4153
▁ዝማሬ	-10.4153
▁ርብቃ	-10.4153
▁ቅዱሱ	-10.4153
▁ዕዝራ	-10.4153
▁ደንቆሮ	-10.4153
▁ከወይን	-10.4153
▁በአጠገቡ	-10.4153
▁በማዕድ	-10.4153
▁ጠላቶቻቸው	-10.4153
ኀጥእ	-10.4153
▁እሴይ	-10.4153
▁ባሮክ	-10.4153
▁ለምናሴ	-10.4153
ከንፈሮች	-10.4153
▁ለልጁ	-10.4153
ሰናከሉ	-10.4153
▁መጠጥ	-10.4154
▁ወዳጄ	-10.4154
▁አመኑ	-10.4154
ኛይቱ	-10.4154
▁ዳሰሰ	-10.4154
▁ነፍሳት	-10.4155
▁አላደረገም	-10.4155
▁በቅጥር	-10.4156
▁ሰይፉን	-10.4156
እጃችን	-10.4157
ቤዥ	-10.4157
▁በሚዛን	-10.4157
▁የመከራ	-10.4158
▁ፈረስ	-10.4158
▁ያገኛል	-10.4159
▁ሰማያትን	-10.4159
እግራችሁ	-10.4159
▁የተደረገው	-10.4159
ናቡቴ	-10.416
▁ፈራጅ	-10.4161
▁ይድናል	-10.4161
ፈቅድ	-10.4162
▁በምድሩ	-10.4166
▁ወይኑ	-10.4168
▁ተናግሮአልና	-10.4169
▁በመንግሥቱ	-10.417
▁ይለው	-10.417
▁ብቻዬን	-10.4172
▁ከሥራ	-10.4173
▁ግቢ	-10.4175
▁ቀኖች	-10.4176
▁ጣሉት	-10.4178
▁ተከተሉ	-10.418
▁እነዚያን	-10.418
ችኋለን	-10.4186
▁ስቡን	-10.4191
▁ሰለ	-10.4192
▁አወሩ	-10.4195
▁ፍልስጥኤማውያንን	-10.4198
▁የሚያውቁ	-10.42
ተያዘ	-10.4206
▁ጠላቶችህን	-10.4207
▁ስድስተኛው	-10.4213
▁የተሞላ	-10.4214
ጮች	-10.4215
▁ጽድቁ	-10.4217
▁ቀባ	-10.422
▁አስቀድመው	-10.4221
▁ሰፊ	-10.4224
▁ቃሌ	-10.4224
▁የተሰወረ	-10.4229
▁ገነት	-10.4231
▁በዓይንህ	-10.4232
▁መዝ	-10.4233
▁ነቢያትን	-10.4234
▁ሙላ	-10.4235
▁አባትዋ	-10.4241
ጣላ	-10.4241
▁በቀረበ	-10.4243
▁በአፉ	-10.4247
ዛቸው	-10.4251
▁አወጣቸው	-10.4256
ሁለት	-10.4264
ቀረበ	-10.4264
▁ገብስ	-10.4266
▁ክብርን	-10.4268
▁ሲወጣ	-10.4279
▁የዳን	-10.429
ሚፈሩት	-10.4296
▁የአምላካችንን	-10.4297
▁ትበላ	-10.4298
▁ጥሎ	-10.4302
▁ፍሬውን	-10.4303
▁ጌልገላ	-10.4308
▁ፍሬዋን	-10.4314
▁እሠራ	-10.4318
▁ቆመ።	-10.4333
ሰሎሞን	-10.4334
▁ያድን	-10.4336
▁የቤተ	-10.4349
▁ባረከው	-10.435
▁ያውቅ	-10.4392
▁መልሰው።	-10.4395
ፈረድ	-10.4413
▁ተቀመጡ፤	-10.4416
▁ይሹ	-10.4419
▁ነፍስህን	-10.4429
▁ቍርባናቸውን	-10.4443
▁መንገዳቸውን	-10.4462
▁የቤቱ	-10.4463
▁ይገባሉ	-10.4467
ጌልገላ	-10.4468
ዓመፃ	-10.4469
ስድስት	-10.4472
▁ሠራው	-10.4474
ዓመት	-10.4479
ይቶ	-10.4482
▁ትሆናለች፤	-10.449
▁ስለምት	-10.4503
▁ይሰማል	-10.4507
▁ሸሽ	-10.4512
▁ሌዋዊ	-10.4512
▁አማካሪ	-10.4516
▁ያገኘ	-10.4518
▁እስኪፈጸ	-10.4519
ሃለች	-10.4522
ሰማራ	-10.4534
ስምንተኛው	-10.4539
ርስቱ	-10.4543
▁የተናገረ	-10.4544
▁አሳየ	-10.4574
▁ምጥ	-10.4595
ባለች	-10.4615
▁ጣት	-10.462
ዳላችሁ	-10.4621
ጠላቶቹ	-10.4628
ኅጥኣን	-10.4629
ኢዮቤልዩ	-10.4629
ክንፎቻቸው	-10.4629
▁ለድሆች	-10.4629
▁ሜሱላም	-10.4629
▁በመጽሐፍ	-10.4629
▁በባሪያዎቹ	-10.4629
▁በኃይሉ	-10.4629
▁በየትውልዳቸው	-10.4629
▁በያዕቆብ	-10.4629
▁ተማከሩ	-10.4629
▁ተደነቁ	-10.4629
▁ታላላቅ	-10.4629
▁አስጸያፊ	-10.4629
▁እሰድዳለሁ	-10.4629
▁ከአይሁድ	-10.4629
▁ከካህናት	-10.4629
▁ከገሊላ	-10.4629
▁ዙፋኑ	-10.4629
▁የአደባባዩ	-10.4629
▁የኤዶምያስ	-10.4629
▁ይጮኻል	-10.4629
▁ጕልማሶች	-10.4629
▁ፍጥረት	-10.4629
አመንዝራ	-10.4629
የዕለቱ	-10.4629
▁በፋንታው	-10.4629
▁የምስጋና	-10.4629
▁ፈሳሾች	-10.4629
▁መጻተኞች	-10.4629
▁በብልሃት	-10.4629
▁አለቻት።	-10.4629
▁ይወድዳል	-10.4629
▁ከአሦር	-10.4629
መልካሚቱ	-10.4629
ስሕተት	-10.4629
▁ጢሮስ	-10.4629
▁አትችሉም	-10.4629
▁የወርቁን	-10.4629
▁ለዓለም	-10.4629
▁ቅጠል	-10.4629
ያመልጥ	-10.4629
▁የታወቀ	-10.4629
▁በሴሎ	-10.463
▁ወንበር	-10.463
ዘበኞች	-10.463
▁ለራስህ	-10.463
▁አይገባውም	-10.463
▁በመሬት	-10.463
▁አልቅሱ	-10.463
▁በባሳን	-10.463
▁ለብቻቸው	-10.463
▁ጥዋት	-10.463
▁በአፍህ	-10.463
▁መጥተህ	-10.463
ቍርባኑ	-10.463
▁ጫኑ	-10.463
ተዋቸው	-10.4631
▁የሌለባቸውን	-10.4631
▁ጠየቁት።	-10.4631
▁አልቻለም	-10.4631
▁ፈጽማችሁ	-10.4631
▁ሰበረ	-10.4632
ገልግ	-10.4632
ቸዋለች	-10.4632
ዘረጉ	-10.4632
▁ተድላ	-10.4633
▁አድምጥ	-10.4633
▁ይነሣሉ	-10.4633
▁የአንዱ	-10.4634
▁አይቀርም	-10.4634
▁ደንግ	-10.4635
▁ገዢ	-10.4635
ለወጥ	-10.4636
ሲሣራ	-10.4637
▁አይጠፋም	-10.4637
▁ጤና	-10.4638
▁ይሆንልሃል	-10.4639
▁በነገው	-10.4639
▁ምንጮች	-10.4639
ባለቤቱ	-10.4639
▁አኖረው።	-10.4643
ፈለግ	-10.4644
ዘዛችሁ	-10.4645
▁ለማዳን	-10.4645
▁ሁላቸው	-10.4646
▁ጢሞቴዎስ	-10.4649
▁የተቀመጡትን	-10.465
ተወለዱለት	-10.465
ተገረዙት	-10.4651
▁እንስት	-10.4652
▁አድኖ	-10.4654
▁ሊያደርግ	-10.4654
▁መናወጥ	-10.4655
▁ሳሚ	-10.4658
▁ፍቺውን	-10.4659
▁ያስባል	-10.4661
▁መካን	-10.4662
▁አዶንያስ	-10.4665
ታዘዝ	-10.4665
በዓሉ	-10.4667
▁ብሆን	-10.4669
▁የሚያደርጉ	-10.467
▁መጻሕፍት	-10.4673
▁ጉባኤው	-10.4679
▁ፈለጉ	-10.4681
▁በሕያዋን	-10.4681
▁አስመጣ	-10.4684
▁መጥታ	-10.4685
ኦርና	-10.4686
▁ኃይልህ	-10.4698
▁መንጎች	-10.4704
እቶን	-10.4714
ታዊው	-10.4732
▁እንዲኖር	-10.4737
ራይ	-10.4738
ነጹ	-10.4739
▁ቢሞት	-10.474
▁ታወጣ	-10.4767
▁ውረድ	-10.4769
▁የአሥራ	-10.4769
▁አደረገች	-10.4772
▁በቍጣው	-10.4773
ጠብቀው	-10.4782
ሰናክ	-10.4783
ዱአቸው	-10.4783
▁ታቀርባላችሁ።	-10.4788
▁ወዮላችሁ	-10.4798
▁ሰነፎች	-10.4805
▁ማስተዋልን	-10.4811
▁የሚገዛ	-10.4823
▁ሥራቸውን	-10.483
ታውቀው	-10.4844
▁ያዘዘው	-10.4859
▁ራሳቸው	-10.4865
▁ለሚኖሩ	-10.4871
▁ባወጣ	-10.4871
▁የጥፋት	-10.4881
ወርደው	-10.4883
▁አግኝቼ	-10.4884
▁ዓመፃን	-10.4886
▁ትእዛዝህን	-10.4895
▁ወራ	-10.4902
ቦቹ	-10.4904
▁ባረከ	-10.4919
▁ይወጣ	-10.4931
▁ትጉ	-10.4942
▁ዕቃውን	-10.4956
ረካ	-10.496
▁ላከኝ	-10.4967
ዓመፀኞች	-10.4969
ሳዶቅ	-10.497
ገንዘብ	-10.4973
ወድደው	-10.4994
▁ብሎአል	-10.5006
▁እንዳየ	-10.5012
▁በተቀደሰ	-10.5033
▁በሆነው	-10.5041
▁የሚጠሉ	-10.5062
ነጋገር	-10.5092
ወጣችሁ	-10.5096
ሻገሩ	-10.5101
ሚኖሩት	-10.5101
ተላለፍ	-10.5113
▁አሮጌ	-10.5116
▁አደባባ	-10.5118
▁ተነሥታ	-10.512
ዣ	-10.5123
ርኤል	-10.5128
ሕይወቴ	-10.5129
መድኃኒታችን	-10.5129
▁ልጆቻችን	-10.5129
▁በሠላሳ	-10.5129
▁በቅዱሳን	-10.5129
▁በአምስተኛው	-10.5129
▁በአሥረኛው	-10.5129
▁ትሄዳለህ	-10.5129
▁ኃይሌ	-10.5129
▁እኅቴ	-10.5129
▁እንሄዳለን	-10.5129
▁እኵሌቶቹ	-10.5129
▁ከሐምራዊ	-10.5129
▁ኪሩብ	-10.5129
▁ኬልቅያስ	-10.5129
▁የሕዝቤ	-10.5129
▁የከለዳውያን	-10.5129
▁የዮዳሄ	-10.5129
▁ያደርገዋል	-10.5129
ወንድማማች	-10.5129
▁በሴኬም	-10.5129
▁በገሊላ	-10.5129
ጠነከረ	-10.5129
▁የካህኑ	-10.5129
▁በመሰንቆ	-10.5129
▁ትዕማር	-10.5129
▁ያስተሰርይለታል	-10.5129
▁ጠየቀው።	-10.5129
▁በቅዱስ	-10.5129
▁ከእጅህ	-10.5129
▁በእግሩ	-10.5129
▁ተሰለፉ	-10.5129
▁መብረቅ	-10.5129
▁ንገረኝ	-10.5129
▁ኤልያብ	-10.5129
ትክክል	-10.5129
▁በሶርያ	-10.5129
▁እሰጠዋለሁ	-10.5129
▁ዘለፋ	-10.5129
▁እንደዚያ	-10.5129
▁የነዌ	-10.5129
▁ከፊታቸው	-10.5129
▁ያጥባል	-10.5129
▁ለራሳችሁ	-10.5129
▁ማድጋ	-10.5129
አዛጦን	-10.5129
▁የተቀረጸውን	-10.5129
▁ወድዶ	-10.513
ያስተሰርይ	-10.513
▁ተቀብሎ	-10.513
▁የሐሰት	-10.513
▁ቀለበት	-10.513
▁አላወቀም	-10.513
▁ይጸናል	-10.5131
▁አደሰ።	-10.5131
▁ተኩል	-10.5131
ታገሥ	-10.5132
▁ተከትሎ	-10.5132
ደክሙ	-10.5132
▁ከራሱ	-10.5132
▁የመገናኛውን	-10.5133
▁ዘውድ	-10.5133
▁የብረት	-10.5133
▁ፈተና	-10.5134
ወርሱአት	-10.5134
▁ተራራማው	-10.5134
ጠግቡ	-10.5134
▁ሰውነትህ	-10.5135
አቸዋልና	-10.5136
▁ቍር	-10.5136
▁ቀልጦ	-10.5136
▁ገዳይ	-10.5136
▁ሸሽቶ	-10.5136
▁ጸንተ	-10.5137
▁ብልቶች	-10.5138
▁ሕዝብህን	-10.5138
▁ካልሆነ	-10.5139
▁ብታደርግ	-10.5139
▁ጓዳዎች	-10.5141
ዓመቱ	-10.5143
አኪቃም	-10.5144
▁ምሰሶች	-10.5144
▁የተሠሩትን	-10.5145
▁ሥራችሁ	-10.5145
▁በማናቸው	-10.5148
▁ውዴ	-10.5149
▁አደጉ	-10.5151
▁ጠባቂዎች	-10.5151
▁ይጠጣ	-10.5152
▁ሎሌዎች	-10.5153
▁አመነ	-10.5155
ልዳ	-10.5156
▁የተቀደሱ	-10.5156
ጠመቁ	-10.516
▁በመካከልሽ	-10.5164
▁በአፌ	-10.5169
▁ለምጽ	-10.5169
▁እሳቱ	-10.5171
ወርስ	-10.5176
ወድቁ	-10.5178
▁መንገድህን	-10.5181
▁የከነዓን	-10.5181
▁ያቅርብ	-10.5181
▁ከአባታችን	-10.5184
▁የሚፈርድ	-10.5186
▁በርናባስ	-10.52
▁አብያታር	-10.52
▁ሰልፉ	-10.52
▁ከእህሉ	-10.5201
▁በተነሣ	-10.5202
▁አብሮ	-10.5203
ኸዋል	-10.5219
▁ዘመናት	-10.5225
▁እናቴ	-10.5233
▁ለነፍ	-10.5236
▁በአምላኩ	-10.524
▁በአርጤክስስ	-10.5243
▁በዚች	-10.5245
መካከልህ	-10.5248
▁ወገኑ	-10.5251
▁ከሴቶች	-10.5255
▁እያዩ	-10.5258
▁ፊቱ	-10.526
▁ተግሣጽ	-10.5267
▁ኢዮአቄም	-10.5267
▁አባታችን	-10.5277
▁የቀረበ	-10.5282
▁መስክ	-10.5288
ችኋል፥	-10.53
▁የበደል	-10.53
▁በመንግሥ	-10.531
▁ይዘጋ	-10.5311
▁ይሁኑ፤	-10.5312
▁ይብላ	-10.5318
▁የሌላ	-10.5331
▁አብያ	-10.5358
▁አኖሩት	-10.5359
▁ይጠጡ	-10.5366
▁ቀጥ	-10.537
▁ሆኖአልና	-10.5372
ራቁ	-10.5376
ሀያ	-10.538
▁ራሳችሁ	-10.5381
▁አሥሩን	-10.5399
ኃያላኑ	-10.5416
▁ዓይኑን	-10.5437
ከራከር	-10.5439
ሐት	-10.5441
▁አገኙት	-10.5441
ነካው	-10.545
ከለከለ	-10.5454
ችም፤	-10.5458
▁የተመረጡ	-10.5462
▁ሕግህን	-10.5474
▁ካላ	-10.5485
▁ተው	-10.5487
ግልሙትና	-10.5495
ዐውሎ	-10.5496
▁አገኘሁ	-10.5512
ረዳቸው	-10.5521
▁የቀረ	-10.5523
▁ከወለደ	-10.5533
▁ከሌለ	-10.5539
ፎአል	-10.5545
▁ኢትዮጵያ	-10.5552
ፍልስጥኤም	-10.5568
▁ስእለ	-10.5574
ጠራችሁ	-10.5587
▁ከፊት	-10.5593
▁ለነበሩ	-10.5593
▁ለብዙ	-10.5615
▁መጥቼ	-10.5622
▁ሠራሁ	-10.5623
▁ጌት	-10.5628
ተቀበለ	-10.5629
ቃጠሉ	-10.5645
▁ተቈጥ	-10.565
ሃይማኖት	-10.5655
ቂርያትይዓሪም	-10.5655
ብላቴኖቹ	-10.5655
ግብጻውያን	-10.5655
▁ለባቢሎን	-10.5655
▁ለካህናቱ	-10.5655
▁መሸፈኛ	-10.5655
▁መንገዳችሁ	-10.5655
▁መንፈሳዊ	-10.5655
▁ቅርንጫፍ	-10.5655
▁በኮረብቶች	-10.5655
▁በዓይኑ	-10.5655
▁በጊብዓ	-10.5655
▁በግምባራቸው	-10.5655
▁ትወስዳለህ	-10.5655
▁ኅብስት	-10.5655
▁አግብቶ	-10.5655
▁ከሰማያዊ	-10.5655
▁ዐር	-10.5655
▁ዘገለዓድ	-10.5655
▁የምሥራቅ	-10.5655
▁የተመሸጉ	-10.5655
▁የካህናቱ	-10.5655
▁ጃግሬው	-10.5655
▁ጊብዓ	-10.5655
▁ሂጂ	-10.5655
▁በእንጨት	-10.5655
▁ንግሥቲቱ	-10.5655
▁ኮከብ	-10.5655
▁የአሞራውያን	-10.5655
▁በካህኑ	-10.5655
▁አስቀድሜ	-10.5655
▁የእሴይ	-10.5655
▁ይወስዳሉ	-10.5655
አንጾኪያ	-10.5655
▁ከእጃቸው	-10.5655
▁ወስጄ	-10.5655
▁የጥበብ	-10.5655
▁ደነገጠ	-10.5655
▁የምታደርጉ	-10.5655
▁ሰብስቦ	-10.5655
▁ከሰይፍ	-10.5655
▁ፈጣሪ	-10.5655
▁ገዳዩ	-10.5655
▁የመንግሥት	-10.5655
ልተፈቀደ	-10.5655
▁ሉያ።	-10.5655
▁ደካማ	-10.5655
▁ጠጎች	-10.5655
▁ተሰጥቶ	-10.5655
▁ዓላማ	-10.5655
▁መገረዝ	-10.5656
▁ከፊታችሁ	-10.5656
መሰክሩ	-10.5656
▁ውድማ	-10.5656
ሰናከል	-10.5656
▁ናዳብ	-10.5656
▁እንዳደረግሁ	-10.5656
አስቀሎና	-10.5656
ጠባበቅ	-10.5656
▁መበለት	-10.5656
▁ተሻግ	-10.5656
▁በረኞች	-10.5656
▁ያፍራሉ	-10.5657
▁አናውቅም	-10.5657
▁ንግሥት	-10.5657
ፈጽሙ	-10.5657
ሱኮት	-10.5658
▁ይቆማል	-10.5658
▁ወለል	-10.5658
▁የሆድ	-10.5659
▁በብረት	-10.5659
▁በቃሉ	-10.5659
▁ወለደች፤	-10.566
▁ደረጃ	-10.566
▁ሮማ	-10.5661
▁አውጡ	-10.5661
▁አታውቅም	-10.5661
▁ገደላቸው	-10.5662
▁አፋቸው	-10.5664
አቸዋል፤	-10.5664
ታጠቡ	-10.5664
▁የራቀ	-10.5665
▁ሰማይን	-10.5667
ታመልኩ	-10.5668
▁አይገባም	-10.5672
▁የሚያሰኝ	-10.5672
ሰድድ	-10.5673
▁ጥራ	-10.5675
▁አምጡልኝ	-10.5675
▁መኝታ	-10.5676
▁ቅኔ	-10.5678
ዶር	-10.5678
▁ናትናኤል	-10.5682
▁ይልቁንስ	-10.5683
ማለሁ፥	-10.5684
▁የኋለኛው	-10.5693
▁ካሉ	-10.5694
▁ይነጋገር	-10.5695
▁አቃጠሉ	-10.5696
▁ታስሮ	-10.5701
▁ያኖራ	-10.5703
▁ባሪያዎቼ	-10.5704
▁መረብ	-10.5709
▁ኑሩ	-10.5712
▁ኋላቸው	-10.5713
ቈረጥ	-10.5715
▁የወጣው	-10.5716
▁ዓለት	-10.5722
▁ከልብ	-10.5729
▁ከጥቂት	-10.5736
▁ይፈርድ	-10.5752
ለቀቀ	-10.5763
▁ከብር	-10.5763
▁አድርጎአልና	-10.5774
▁አስቦ	-10.5778
▁ለወንድ	-10.5778
▁አጸናለሁ	-10.5778
ቃለህ	-10.5785
▁አብያተ	-10.5801
▁የንፍታሌም	-10.5824
▁የተቀመጠው	-10.5844
▁ተቀመጠች	-10.5849
▁ጣለው	-10.5862
▁የተሠሩ	-10.5875
ፈጸሙ	-10.5903
ሦስት	-10.5903
▁አባቶችህ	-10.5913
ደኅንነት	-10.5914
▁የሚፈራ	-10.5928
▁በሥጋው	-10.5934
ቁጣ	-10.5935
ውጪ	-10.5954
▁ባየች	-10.5957
▁ደርሶ	-10.5963
ነድድ	-10.597
▁ይባላል	-10.5976
ሸሸጉ	-10.5984
▁ገበሬ	-10.5985
ሚጠብቁ	-10.5999
አባታችን	-10.6004
▁ዕድሜው	-10.6006
ፋሲካ	-10.6049
ሐዋርያት	-10.6052
ምሕረት	-10.6053
ኤልያስ	-10.6054
ውረድ	-10.6061
ኢዮአስ	-10.607
▁ዋጋው	-10.6077
▁መታቸው	-10.608
▁የወለደ	-10.6118
ተሰወረ	-10.612
▁ኃጢአታቸው	-10.612
ኸኛልና	-10.6128
▁አስቀድመ	-10.6128
▁ይጠሩ	-10.6145
▁ያፈስ	-10.6154
ተባለ	-10.6156
ካፍ	-10.6161
አቸዋል።	-10.621
እያንዳንዳች	-10.6211
ሞዓባውያን	-10.6211
ተንቀሳቃሾች	-10.6211
እኅቱ	-10.6211
▁መልእክት	-10.6211
▁በመንደሮች	-10.6211
▁በምኵራብ	-10.6211
▁በቸነፈር	-10.6211
▁በወኅኒ	-10.6211
▁አእላፋት	-10.6211
▁ኢያሪኮ	-10.6211
▁እዘምራለሁ	-10.6211
▁እፈልጋለሁ	-10.6211
▁ከባልንጀራ	-10.6211
▁ከክርስቶስ	-10.6211
▁የሊባኖስ	-10.6211
▁የአክዓብ	-10.6211
▁ይነግሣል	-10.6211
▁ግልገሎች	-10.6211
መበለቲቱ	-10.6211
▁ከነቢያት	-10.6211
▁ከንጉሥ	-10.6211
▁ይወርሳሉ	-10.6211
▁ትሞታለህ	-10.6211
▁ይሸከሙ	-10.6211
▁ባረካቸው	-10.6211
▁ስላደረገው	-10.6211
▁ሁከት	-10.6211
▁ነፋሳት	-10.6211
▁ከእግሩ	-10.6211
▁አይችሉም	-10.6211
ኃይላቸው	-10.6211
▁ጠግነት	-10.6211
መዘምራን	-10.6211
ምሥራቁ	-10.6211
▁ከአገሩ	-10.6211
▁ከተራራው	-10.6211
▁አንኩስ	-10.6211
▁ፍለጋ	-10.6211
▁ቀሚስ	-10.6211
▁ወንድማችሁ	-10.6211
▁በድንገት	-10.6211
▁ሴዎን	-10.6211
▁አትሁኑ	-10.6211
▁ማልደው	-10.6211
ቅዒላ	-10.6211
ገሥጸ	-10.6211
▁የቀዓት	-10.6211
▁የባሳን	-10.6212
▁ከዛሬ	-10.6212
▁በመዓት	-10.6212
▁ዘንዶ	-10.6212
▁አልችልም	-10.6213
▁ከአንዱ	-10.6213
▁ዶሮ	-10.6213
▁ዘጠና	-10.6213
▁ፈጥናችሁ	-10.6213
አቃሮን	-10.6214
▁ይኑር	-10.6214
▁ነፍሳችሁ	-10.6214
አባቶቼ	-10.6215
▁ታንኳይቱ	-10.6215
▁ደርብ	-10.6215
▁አሰብሁ	-10.6215
▁የተናገርሁ	-10.6217
▁ቀጥሎ	-10.6218
እግሬ	-10.6218
▁እስራት	-10.6219
▁አያይም	-10.6219
▁የደስታ	-10.622
▁አይኖርም	-10.6221
▁የመጡት	-10.6222
▁ድስት	-10.6223
▁አትብሉ	-10.6225
ታጠቁ	-10.6225
ናገራቸው	-10.6226
▁በዕቃ	-10.6227
▁አንገት	-10.6228
▁ደማቸው	-10.6229
▁በተፈጸመ	-10.623
▁አኑሩ	-10.623
▁የተመረጡትን	-10.6231
▁የተሞሉ	-10.6232
▁እንድትሆኑ	-10.6235
አለሽ	-10.6237
ልኩ	-10.6239
▁ቢያደርግ	-10.624
▁ቆይ	-10.624
▁መላእክቱ	-10.6244
▁በሉት።	-10.6244
▁በባልንጀራው	-10.6245
▁ጥጃ	-10.6246
▁ጋይ	-10.6247
▁ጽዋዎች	-10.6248
▁በኋለኛው	-10.625
▁የሌላቸው	-10.6253
▁ከሰዎች	-10.6253
▁ጽድቅህ	-10.6255
▁ተቈጠሩ	-10.6256
ሰወር	-10.6257
▁የሁለተኛው	-10.6258
▁ከበጎ	-10.6261
▁በመርከብ	-10.6262
▁ብላቴኖች	-10.6262
ዚፍ	-10.6265
▁በእውቀት	-10.6267
▁መጥመቂያ	-10.6272
▁ፊንሐስ	-10.6272
▁ለዘሩ	-10.6274
▁የጻድቅ	-10.6274
▁አይቻለሁ	-10.6275
▁በጊዜው	-10.6275
▁ትበላለች	-10.6277
▁ራቅ	-10.6278
▁የዮናታን	-10.6279
▁ዮአስ	-10.6281
▁በማድረግ	-10.6283
▁የሚያድን	-10.6287
▁ትጠብቅ	-10.6289
ደክም	-10.629
ጨመር	-10.6291
▁ሽባ	-10.6297
ግዛ	-10.6302
▁የረከሰ	-10.631
▁የጌታዬ	-10.6316
▁ይምጣ	-10.6316
▁ቀርቶአል	-10.632
▁ሲሄድ	-10.6324
▁ባልተ	-10.633
▁የሚቀበል	-10.6351
▁ይግባ	-10.6366
ጠፉአቸው	-10.6367
ዔድን	-10.6373
መከራዬ	-10.638
▁አኪያ	-10.639
▁ጠፍቶአል	-10.639
▁ሐሰት	-10.6399
▁ባገኘ	-10.6416
ሉአችሁ	-10.6431
ዝዘው	-10.6433
ሰናዳ	-10.6449
ነግረው	-10.6452
▁አለህ	-10.6488
▁ወደቀች	-10.649
▁ወንዶችን	-10.6528
▁ሽማግሌው	-10.6533
▁ነበረበት	-10.6562
▁ነዶ	-10.6567
ታስቡ	-10.6568
▁የጸና	-10.6578
▁ያመጣል	-10.6578
▁እርሻውን	-10.659
ዛፉ	-10.6616
▁የብዙ	-10.6625
ኢዮአቄም	-10.6638
ጋለሞታ	-10.6638
ኢዮራም	-10.664
መሥዋዕት	-10.6642
ሦስቱ	-10.6643
ሌለው	-10.6659
▁የተገኘው	-10.672
አምስት	-10.6746
▁በነበሩ	-10.6748
▁መድረ	-10.6773
ዳንኤል	-10.6777
▁በመካከላች	-10.6787
አገልግሎታቸው	-10.6799
ጲ	-10.6799
ጴ	-10.6799
▁ለአባቶቻችን	-10.6799
▁መዕሤያ	-10.6799
▁መድኃኒቴ	-10.6799
▁በኵሩ	-10.6799
▁ብልጣሶር	-10.6799
▁ተኣምራት	-10.6799
▁ትዕግሥት	-10.6799
▁ኃይለኛ	-10.6799
▁አሚናዳብ	-10.6799
▁አትግለጥ	-10.6799
▁እሰብራለሁ	-10.6799
▁እንናገራለን	-10.6799
▁እኖራለሁ	-10.6799
▁ከልጆቹ	-10.6799
▁ከመሠዊያው	-10.6799
▁ከመቅደሱ	-10.6799
▁ከሞዓብ	-10.6799
▁ከኢያሱ	-10.6799
▁ከዮርዳኖስ	-10.6799
▁ከጨለማ	-10.6799
▁ዓይኖቻቸው	-10.6799
▁ዕንቅፋት	-10.6799
▁የሜራሪ	-10.6799
▁የተሸከሙ	-10.6799
▁የከተማው	-10.6799
▁ያቀርበዋል	-10.6799
▁ጃንደረባ	-10.6799
▁ግብዞች	-10.6799
▁ፍጹማን	-10.6799
▁ልሂድ	-10.6799
▁ሚዳቋ	-10.6799
▁በአሞራውያን	-10.6799
▁በጉባኤ	-10.6799
▁የባሪያዎች	-10.6799
▁የእነርሱ	-10.6799
▁ለሁለቱ	-10.6799
▁አውቄአለሁ	-10.6799
▁ግመሎች	-10.6799
▁ይፈጸማል	-10.6799
ከራከሩ	-10.6799
▁መቃብሩ	-10.6799
▁አስተማሪ	-10.6799
▁ከጽዮን	-10.6799
▁ጥምቀት	-10.6799
▁በርሳችን	-10.6799
▁ለምርኮ	-10.6799
▁በተቀመጠ	-10.6799
▁በሕልም	-10.6799
▁ከተሞቹ	-10.6799
▁ጋኔን	-10.6799
▁የጭፍራ	-10.6799
▁የበፍታ	-10.6799
▁ያቃጥሉ	-10.6799
ጨካኞች	-10.6799
▁በገባዖን	-10.68
▁አልተገኘም	-10.68
ታገሡ	-10.68
▁ሸንጎ	-10.68
▁ይዛችሁ	-10.68
ገሥጽ	-10.68
መርከቡ	-10.68
▁መጽናናት	-10.68
▁ካስማ	-10.68
▁የምድሩን	-10.68
▁አዳራሾች	-10.68
▁ታያላችሁ	-10.68
በደለኞች	-10.6801
▁የሚወጡት	-10.6801
ናገራችሁ	-10.6801
▁ክንዱ	-10.6801
▁የናሱን	-10.6802
▁በላያችሁ	-10.6802
▁አልሰማችሁም	-10.6802
▁መለሱለት።	-10.6802
▁እጆቼን	-10.6802
▁አልኋቸው።	-10.6803
ባዕድ	-10.6803
▁ለወጠ	-10.6803
▁ሕመ	-10.6803
▁ጠራችው።	-10.6803
▁በሱሳ	-10.6803
ችግር	-10.6803
▁ውሾች	-10.6803
▁ሠርተዋል	-10.6804
▁ቅረቡ	-10.6804
▁የባሪያህን	-10.6804
▁ታቦቱን	-10.6805
ሰበሰብ	-10.6805
▁ከብበው	-10.6806
▁የገደለ	-10.6806
▁በቈላ	-10.6806
▁ተቈጥቶ	-10.6806
▁በዱር	-10.6806
▁ስጠን	-10.6808
▁ውደድ	-10.6808
▁ሰሎም	-10.6808
▁ከባድ	-10.6808
▁የምታደርገው	-10.6809
ማዕዘኑ	-10.681
▁ሄዳ	-10.681
▁ይገዛል	-10.6811
▁አውሩ	-10.6811
▁ገለጠ	-10.6811
▁አትሁን	-10.6812
ከብድ	-10.6812
▁የሚያደርጉትን	-10.6813
▁ዘለላ	-10.6813
ገናኛ	-10.6813
▁አውቅ	-10.6815
▁በሚመጣው	-10.6815
ዚያች	-10.6817
ሚስቶቻቸው	-10.6819
መረምር	-10.6821
▁በጎቼ	-10.6823
▁ጠጁ	-10.6825
▁ይሸሻል	-10.6825
▁እንዲያደርጉ	-10.6827
▁ደረቅ	-10.6833
▁ይወስዱ	-10.6836
▁የያዘ	-10.6839
▁የማንሣት	-10.6848
ያገኙ	-10.6849
▁ባርያ	-10.6849
▁የኔር	-10.6849
▁ግቡ	-10.6855
መዋጋት	-10.6856
▁እፈርድ	-10.6857
በታል፥	-10.6867
▁እልሃለሁ	-10.6868
▁ሆናለች	-10.6869
▁ለነበሩት	-10.687
▁ከሚቃጠለው	-10.6878
▁አላጠፋ	-10.6883
▁መሠዊያዎች	-10.6901
▁ሳላ	-10.6901
ወቃችሁ	-10.6903
▁ያደረጉ	-10.6906
▁ይወስድ	-10.6915
▁ተከተለው	-10.6918
▁የልጆች	-10.6923
▁መንጋውን	-10.6928
▁ሲሆን	-10.693
▁ያጠፉ	-10.6948
▁ይገኛል	-10.6956
ሻቸው	-10.6964
▁አመጡለት	-10.6972
▁እጃቸው	-10.6988
▁የሚጠላ	-10.6999
▁ቀድሞው	-10.7001
▁አድርገኝ	-10.7008
ሰጠኋት	-10.702
ከፈት	-10.7025
ቃወም	-10.7046
▁ተሳለ	-10.7065
ጎቹ	-10.7082
ሥጋዬ	-10.7089
▁አድርጉት	-10.709
▁ይመራ	-10.7093
ራዊው	-10.7125
ወደዳችሁ	-10.7132
▁መክደኛው	-10.7142
▁አላገኘ	-10.7175
▁የተቀመጠ	-10.7204
ወስደው	-10.7206
▁ለዚያ	-10.7252
ጠግባ	-10.7263
ተንኰል	-10.7264
እንግዳ	-10.7266
ኢዮሣፍጥ	-10.7266
ብራችሁ	-10.7299
ረከሰች	-10.7315
▁ተቀምጦአል	-10.7347
ወሰዱ	-10.7354
ማይጠፋ	-10.7383
ጃለሁ	-10.7384
ንቀላፋ	-10.7385
ወስዱ	-10.7393
ዮፍታሔ	-10.7416
ቺ	-10.7419
ዢ	-10.742
ቀደመው	-10.7422
▁ቍራ	-10.7423
ርኵሳን	-10.7424
ኃጥኣን	-10.7424
አማሌቃውያን	-10.7424
ኢያቡስቴ	-10.7424
ኢዮአካዝ	-10.7424
ኤልያሴብ	-10.7424
ኬጢያውያን	-10.7424
ዘጠነኛው	-10.7424
▁ለማደሪያው	-10.7424
▁ለቅዱሳን	-10.7424
▁ለአይሁድ	-10.7424
▁ለእርስዋ	-10.7424
▁መስኮቶች	-10.7424
▁መጽሐፉን	-10.7424
▁ሜልኮል	-10.7424
▁ቀርሜሎስ	-10.7424
▁በማኅበሩ	-10.7424
▁በምስክሩ	-10.7424
▁በሠራዊት	-10.7424
▁በትእዛዝ	-10.7424
▁ብፁዕ	-10.7424
▁ተዘልለው	-10.7424
▁ችግረኞች	-10.7424
▁አመለኩ	-10.7424
▁አቅራቢያ	-10.7424
▁አደርጋታለሁ	-10.7424
▁እግሮቼ	-10.7424
▁ከሊባኖስ	-10.7424
▁ከኃጢአተኞች	-10.7424
▁ከወይኑ	-10.7424
▁ውስጠኛው	-10.7424
▁ዐመፁ	-10.7424
▁ዐፀድ	-10.7424
▁ዛብሎን	-10.7424
▁ያመስግኑ	-10.7424
▁ይቃጠላል	-10.7424
▁ድምፄን	-10.7424
▁ጕስቍልና	-10.7424
▁ቃዴስ	-10.7424
▁በታላቁ	-10.7424
▁በውስጤ	-10.7424
▁ትኖራላችሁ	-10.7424
▁አነገሡ	-10.7424
▁አዲሱን	-10.7424
▁አጥንቶቼ	-10.7424
▁እጠብቃለሁ	-10.7424
▁ይመስገን	-10.7424
▁ይታጠባል	-10.7424
▁ጽድቄ	-10.7424
▁አማሌቅ	-10.7424
▁ይገለጣል	-10.7424
እንግድነት	-10.7424
▁ይመልሳል	-10.7424
▁ገሠጸ	-10.7424
▁ሕጌን	-10.7424
▁ተመልክቶ	-10.7424
▁በፍርሃት	-10.7424
▁አምጥተው	-10.7424
▁ጨካኝ	-10.7424
አሜሳይ	-10.7424
▁ለመኑት።	-10.7424
▁አብዝቶ	-10.7424
▁በማስተዋል	-10.7424
ሻለቆች	-10.7424
ተሾሙት	-10.7424
▁አምጥቶ	-10.7424
▁ባኦስ	-10.7424
▁አልቀረም	-10.7424
ተላለፉ	-10.7424
▁አንካሳ	-10.7424
ያስጨንቅ	-10.7424
▁ቃየን	-10.7424
ፈቃዳቸው	-10.7424
▁ክቡር	-10.7424
አርማቴም	-10.7424
▁ደቦል	-10.7424
▁በአምላካችሁ	-10.7424
▁እስኪነጋ	-10.7424
▁የአሴር	-10.7424
▁ግማሽ	-10.7424
▁ፈቀደ	-10.7424
▁ሐምራዊ	-10.7424
▁በድካም	-10.7424
▁ባርኩ	-10.7424
▁ፈሰሰ	-10.7425
▁ከመንገድ	-10.7425
▁ለቀሩት	-10.7425
ሚመለከተው	-10.7425
▁ሞተች	-10.7425
▁ንገረን	-10.7425
▁ምሽግ	-10.7425
▁አነበበ	-10.7425
▁አቅርቡልኝ።	-10.7425
▁ያልፋሉ	-10.7425
▁ጎዳና	-10.7425
▁ይነግሩ	-10.7425
▁እጠራለሁ	-10.7426
▁ዲናር	-10.7426
▁በረሃ	-10.7426
▁እምነታችሁ	-10.7426
▁አላገኙም	-10.7426
▁ተመለከትሁ	-10.7426
▁አሰናብ	-10.7427
▁ለቤቱ	-10.7427
▁የሕግ	-10.7427
▁የእነዚህ	-10.7427
▁ጭንቅ	-10.7427
ኤሊሳማ	-10.7427
ዘገየ	-10.7427
▁ቁሙ	-10.7428
▁እገባለሁ	-10.7428
ታቀርቡ	-10.7428
▁ቤታቸው	-10.7429
▁አብዝተ	-10.7429
▁መልአኩም	-10.7431
▁በቀኙ	-10.7431
▁የነገሩ	-10.7431
ስቈጡኝ	-10.7432
▁የሰማርያ	-10.7432
▁ኬጢያዊው	-10.7432
ፈተኑ	-10.7432
▁ፈውስ	-10.7432
▁ግደሉ	-10.7432
አቸዋል፥	-10.7432
▁መሥዋዕታችሁ	-10.7433
▁የነገረ	-10.7433
▁ያዛት	-10.7433
▁መጠጊያዬ	-10.7434
▁የሚያህሉ	-10.7434
▁ለማጥፋት	-10.7434
▁አልበላም	-10.7434
▁አዳናቸው	-10.7435
▁ወረሱ	-10.7435
▁ተናገሩት።	-10.7436
▁ጥቅም	-10.7436
▁በልጁ	-10.7436
ውደቅ	-10.7436
ተሰቀለ	-10.7437
ቍጠር	-10.7437
▁የማደርገው	-10.7439
▁ከጌታዬ	-10.7444
▁መተላለፍ	-10.7445
ሰልሉ	-10.7447
▁ማዕ	-10.7447
▁እሰድድ	-10.7449
▁ጋዛ	-10.7449
ጥፋታቸው	-10.7449
ዘመኔ	-10.7454
ራሾች	-10.7454
▁ጾም	-10.7458
▁በወገቡ	-10.7458
▁ሴሎ	-10.746
▁ተከተለኝ	-10.746
▁አልመለሰ	-10.7462
▁ዋይታ	-10.7466
▁አድርጌሃለሁ	-10.747
▁ተመልሰህ	-10.7472
▁ቆሬ	-10.7473
▁አግባ	-10.7478
▁አትብላ	-10.7479
▁የሚያመጣ	-10.7479
▁በነበሩት	-10.7486
▁የሞተውን	-10.7493
▁የተሰጠው	-10.7502
▁ወደድሁ	-10.7504
▁ኤሎ	-10.7507
▁ተለየ	-10.7507
▁የሚያጠፋ	-10.751
▁ከመቶ	-10.7511
ተረፉ	-10.7551
ተኸኛል	-10.7558
ሆዱ	-10.7565
ጸናች	-10.7569
▁ትርጓሜው	-10.7574
▁ሠራያ	-10.7583
ሸፍን	-10.7592
▁ተሰጠው	-10.7606
▁ታላቅነት	-10.761
▁ታድነ	-10.761
▁ያየው	-10.7616
▁ሥርዓትህን	-10.7661
ተቀረጸ	-10.7666
ሌለባቸው	-10.7681
▁አንሥ	-10.7696
ተዋት	-10.7764
▁በሰረገላ	-10.777
▁ሰጥቶአል	-10.7772
ጮኸ	-10.7775
▁ባየሁ	-10.7794
ጠጪ	-10.7807
አማርያ	-10.7812
▁ተጽፎ	-10.7831
▁ወሰደ	-10.7842
ብርቱዎች	-10.7851
ትማል	-10.7855
ልናል	-10.7892
▁አራተኛ	-10.7902
ሚኖረው	-10.7917
አጋንንት	-10.793
▁ተቀምጣ	-10.7931
ብላቴናው	-10.7931
ጣዖት	-10.7931
አንዲቱ	-10.7932
አስቴር	-10.7932
አበኔር	-10.7932
አብያተ	-10.7932
ትውልድ	-10.7933
▁ዕራቁ	-10.7943
▁ብልጥግና	-10.7943
ሚገኝ	-10.7944
▁ሊያጠፋ	-10.7949
▁በመሠዊያ	-10.7957
▁ከሠራዊ	-10.7961
ሰበሰባ	-10.7968
▁ወስደ	-10.7989
▁በዓይን	-10.8029
ደረቱ	-10.803
▁ትምክህ	-10.8035
▁የአንበሳ	-10.8042
▁እስካለ	-10.8062
ዥ	-10.8082
መንኰራኵሮቹ	-10.8091
ማሰናከያ	-10.8091
ሜምፊቦስቴ	-10.8091
ሽማግሎች	-10.8091
ተሰነጠቀ	-10.8091
አገልጋዮቹ	-10.8091
▁ለአባቶችህ	-10.8091
▁ለክርስቶስ	-10.8091
▁መስዋዕት	-10.8091
▁መሸሸጊያ	-10.8091
▁መደረቢያ	-10.8091
▁በሴይር	-10.8091
▁በስድስተኛው	-10.8091
▁በትዕቢት	-10.8091
▁በትዕግሥት	-10.8091
▁በአደባባዩ	-10.8091
▁በእነዚያ	-10.8091
▁ተለወጠ	-10.8091
▁ናቡዘረዳን	-10.8091
▁አትደንግጡ	-10.8091
▁አኖራቸው።	-10.8091
▁አዛሄል	-10.8091
▁ኢያቡሳውያን	-10.8091
▁እለምናችኋለሁ	-10.8091
▁እንሞታለን	-10.8091
▁ከማኅፀን	-10.8091
▁ከተፈተለ	-10.8091
▁ከአብርሃም	-10.8091
▁ከካህናቱ	-10.8091
▁ዐረፈ	-10.8091
▁ዖዝያን	-10.8091
▁የልዑል	-10.8091
▁የመሠዊያው	-10.8091
▁የቅዱሳን	-10.8091
▁ይሸከማሉ	-10.8091
ምታፈስሰው	-10.8091
አዕማዱ	-10.8091
ዘላለሙ	-10.8091
▁ሐውልት	-10.8091
▁በምጽጳ	-10.8091
▁የተዘጋጁ	-10.8091
▁ይሰግዳሉ	-10.8091
▁ዮዛባት	-10.8091
▁ማኑሄ	-10.8091
▁ትመስላለች	-10.8091
ማግሥቱ	-10.8091
▁ላድርግ	-10.8091
▁መታመኛ	-10.8091
▁ትኖራለህ	-10.8091
▁አስወገደ	-10.8091
▁እንጎቻ	-10.8091
ኢዮናዳብ	-10.8091
ጕልበቱ	-10.8091
▁መሥራት	-10.8091
▁ሚስቶቹ	-10.8091
▁ጠፍተዋል	-10.8091
▁በቅጥሩ	-10.8091
▁አግኝተ	-10.8091
▁ሃዳድ	-10.8091
▁በጕድጓድ	-10.8091
▁በፈረሶች	-10.8091
▁አለቆቻቸው	-10.8091
▁ኤፉድ	-10.8091
▁ክፋታቸው	-10.8091
ፌጎር	-10.8091
▁ሰምተናል	-10.8091
▁አብድዩ	-10.8091
▁ተሻገረ	-10.8091
ያረክሱ	-10.8091
▁በበገና	-10.8091
▁ጦሩን	-10.8091
ወንድሞቻችን	-10.8091
▁ዝሙት	-10.8091
▁ረዓብ	-10.8091
▁እዘረጋለሁ	-10.8091
▁ታወከ	-10.8091
▁ተሰበረ	-10.8091
▁እስከዚህ	-10.8091
ቀራጮች	-10.8091
ምዋገት	-10.8091
▁ስጣቸው	-10.8091
▁ሞቶአል	-10.8091
▁በጥዋት	-10.8091
▁እንላለን	-10.8091
▁ከሙሴ	-10.8091
▁የድሀ	-10.8091
▁ለበጠው	-10.8091
▁ንገረው	-10.8091
ኛለሽ	-10.8092
▁ሬማት	-10.8092
▁ነቀፋ	-10.8092
▁ትወዳለህ	-10.8092
▁ለዘርህ	-10.8092
ኤስሮም	-10.8092
▁ቀደደ	-10.8092
▁እቀጣለሁ	-10.8092
▁ለአውራ	-10.8092
▁ወጭት	-10.8092
▁የሚያደርገውን	-10.8092
ፈቃዴ	-10.8092
▁የደቡብ	-10.8092
▁ሸፈነ	-10.8092
▁ከእናቱ	-10.8092
ነግራቸው	-10.8092
▁በጫንቃ	-10.8092
▁ያደረግህ	-10.8093
▁በጸጋ	-10.8093
▁አንገቱ	-10.8093
▁አሴር	-10.8093
▁ጻፉ	-10.8093
▁አሠራር	-10.8093
▁እንውጣ	-10.8093
▁በግንቡ	-10.8093
ኤልፋዝ	-10.8093
▁በአውራ	-10.8093
▁ገላውን	-10.8094
▁መትቶ	-10.8094
ሰገነቱ	-10.8094
▁ሰውነታቸውን	-10.8094
▁ለሰዎች	-10.8095
▁ለበጎ	-10.8095
▁በራስህ	-10.8095
▁መንደር	-10.8095
▁ዘምሪ	-10.8095
መንግሥቴ	-10.8096
▁መረገ	-10.8096
▁አንሡ	-10.8096
▁ተመልሳችሁ	-10.8097
▁ከርቤ	-10.8097
▁ያደረግሁትን	-10.8097
▁አልመለስም	-10.8098
ቤዣ	-10.8099
▁የሞቱት	-10.81
▁ክብሬን	-10.81
▁ለመነው።	-10.81
▁ይሆንላቸዋል	-10.8101
ማይቻል	-10.8101
▁ተነሥቼ	-10.8101
▁ወንድሞቻችሁን	-10.8101
ስራሽ	-10.8102
ተባበሩ	-10.8103
▁ስብራት	-10.8103
▁ታመንሁ	-10.8103
▁ለሚያደርጉ	-10.8104
▁እንዳደረጉ	-10.8105
▁በደላቸውን	-10.8105
▁አዘዘው።	-10.8106
▁ፈርተው	-10.8107
▁መርጦ	-10.8108
መረመር	-10.8108
ሰበክ	-10.8109
▁ከአሞን	-10.811
▁ስሙኝ፤	-10.811
▁የሚወድዱ	-10.8111
▁የሰሙት	-10.8111
▁ፈርቶ	-10.8115
▁በአሞን	-10.8115
መጥምቁ	-10.8116
▁ቀበሮ	-10.8118
▁መከራዬን	-10.812
▁ልኬ	-10.8127
▁በልተው	-10.8128
ስቈጡት	-10.8129
▁ማዕድ	-10.813
▁አውራጃ	-10.813
▁በጌታዬ	-10.8131
▁በመጨረሻው	-10.8134
ረገጠ	-10.8136
ያቃጥል	-10.8141
▁ጅራ	-10.8142
▁ፈትል	-10.8144
▁እሠራለሁ	-10.8145
ግመል	-10.8145
ለብስ	-10.8145
▁ይከተሉ	-10.8147
▁ተጠበቁ	-10.8152
▁ታመመ	-10.8162
▁አቅና	-10.8165
ጐድል	-10.8167
▁ፈፋ	-10.8183
ያውቀው	-10.8189
▁አመጣኝ	-10.8201
▁ቢኖሩ	-10.8202
▁ሲወጡ	-10.8203
▁ከተናገረ	-10.8219
▁አይልም	-10.8222
▁የውኃውን	-10.8225
ገዙአቸው	-10.8226
▁መቱአቸው	-10.8231
አማትዋ	-10.8236
ባሮቹ	-10.8237
▁አሳየኝ	-10.824
▁ወዮለት	-10.825
▁ጽዋውን	-10.8251
▁የተገኘ	-10.8273
መሥዋዕቱ	-10.8279
▁ከወንድ	-10.8286
▁አህያውን	-10.8287
▁ባልሆነ	-10.8294
ፈተን	-10.8316
▁ገደሉአቸው	-10.8332
▁መሰምርያ	-10.8351
▁መጋቢ	-10.8382
አለቃ	-10.8392
▁ጭኖ	-10.8435
ሚናገሩ	-10.8446
▁አደረገለት	-10.8447
ወገብህ	-10.8457
▁ይሠራሉ	-10.8465
ሎሌዎቹ	-10.8499
▁የዘመ	-10.851
ማድረግ	-10.8514
▁ተቀምጠ	-10.8559
መገናኛው	-10.856
▁ታቀርባላችሁ	-10.8569
ቀጠቀጠ	-10.8602
ናውቅ	-10.863
ቅዱሳኑ	-10.8644
ከነዓናውያን	-10.8646
ኀ	-10.8646
እንስሶች	-10.8646
ፍየሎች	-10.8647
ባሪያዬ	-10.8647
አንዲት	-10.8648
▁አሳባቸው	-10.8649
ፈረሰኞች	-10.8654
ዔሊ	-10.866
▁በነጋ	-10.866
በታለሁ	-10.8674
መንግሥታት	-10.8674
ተራበ	-10.8676
መፍራት	-10.8681
ተወደደ	-10.8724
ቍጣዬ	-10.8728
ሰረገላው	-10.8745
ድረስ	-10.8754
▁በአህያ	-10.8772
ኬጢያዊ	-10.8796
▁ቍጥቋ	-10.8804
ዘገይ	-10.8805
▁ሥቃይ	-10.8805
▁ቃርሚያ	-10.8805
▁ዐመፀ	-10.8805
መሃናይም	-10.8805
ሰዱቃውያን	-10.8805
ባልንጀሮቹ	-10.8805
ንቀሳቀስ	-10.8805
▁ለመታሰቢያ	-10.8805
▁ለሰይፍ	-10.8805
▁ሕልቃና	-10.8805
▁ምስክሩን	-10.8805
▁ምኵራብ	-10.8805
▁ምጽዋት	-10.8805
▁በሕዝቅያስ	-10.8805
▁በሲኦል	-10.8805
▁በእያንዳንዱ	-10.8805
▁በዘላለም	-10.8805
▁ናታኒም	-10.8805
▁አደረጋቸው።	-10.8805
▁ኤልያቄም	-10.8805
▁ከመካከላቸው	-10.8805
▁ከሮቤል	-10.8805
▁ከዛብሎን	-10.8805
▁የተረገመ	-10.8805
▁የኢዮርብዓም	-10.8805
▁የኢዮአብ	-10.8805
▁የደኅንነቱን	-10.8805
▁ጠንቋዮች	-10.8805
▁ፌዘኛ	-10.8805
ኋለኞች	-10.8805
▁በራእይ	-10.8805
▁ደነገጡ	-10.8805
▁ለእነዚህ	-10.8805
▁ለእናቱ	-10.8805
▁ምልክቶች	-10.8805
▁ከስፍራው	-10.8805
▁ከወንዙ	-10.8805
ጥንቃቄ	-10.8805
▁ሐሰተኞች	-10.8805
▁የመንፈስ	-10.8805
▁እንዳልሆነ	-10.8805
▁ከጻፎች	-10.8805
▁ያስተምር	-10.8805
▁ከሰማያት	-10.8805
ዓይናችን	-10.8805
▁በሰማያዊ	-10.8805
▁ነቢያቱ	-10.8805
አቆስጣ	-10.8805
▁ለአባቴ	-10.8805
▁ሰደዳቸው	-10.8805
▁ይደርሳል	-10.8805
▁በእሾህ	-10.8805
▁ተደርጎ	-10.8805
▁የምስራች	-10.8805
▁ጫንቃ	-10.8805
▁በቍጥር	-10.8805
▁ምልክቱ	-10.8805
▁አስገባሪ	-10.8805
▁በፊታችን	-10.8805
▁ይሸከማል	-10.8805
▁ምድራችሁ	-10.8805
▁እንሥራ	-10.8805
▁ከአሴር	-10.8805
▁ከምርኮ	-10.8805
▁ሸቀጥ	-10.8805
ነግራችሁ	-10.8805
▁ከክፋት	-10.8805
▁አይጸናም	-10.8805
▁ወንድማችን	-10.8805
▁በምድራቸው	-10.8805
▁ነበራችሁ	-10.8805
ንዕማን	-10.8805
▁ወድቀው	-10.8805
▁ከበርቴ	-10.8805
▁እንዳዘዝሁ	-10.8805
▁የቀድሞ	-10.8806
▁በዝግባ	-10.8806
▁ዘመድ	-10.8806
▁የፋርስ	-10.8806
▁ይታያል	-10.8806
▁አንችልም	-10.8806
ውርደት	-10.8806
▁ቁርበቱ	-10.8806
▁መሰንቆ	-10.8806
▁ትወዳላችሁ	-10.8806
▁አይዞህ	-10.8806
▁ሄጄ	-10.8806
ቢታንያ	-10.8806
▁በምናሴ	-10.8806
▁በጎዳና	-10.8807
▁ያልተገረዘ	-10.8807
▁በዓለት	-10.8807
ፋረድ	-10.8807
▁እነማ	-10.8807
▁አዛውን	-10.8807
ስማሙ	-10.8808
▁ፈረደ	-10.8808
▁መጥተዋል	-10.8809
▁ፍረድ	-10.8809
▁እመጣለሁ	-10.8809
▁እሸት	-10.8809
▁በደላችን	-10.881
▁ለስሜ	-10.881
▁አጠፋቸው	-10.881
ፍየሉ	-10.881
ዓለሙ	-10.8811
▁ተነሺ	-10.8811
▁አስባለሁ	-10.8812
▁አቤል	-10.8812
▁ለባሽ	-10.8812
ኤሞር	-10.8812
▁በደረሱ	-10.8813
ታበዩ	-10.8814
▁አይመለስም	-10.8814
▁ከሰፈር	-10.8814
▁ይፈራሉ	-10.8815
ኤፍራታ	-10.8815
▁ጮኹ፥	-10.8817
ቍረጥ	-10.8817
▁ተነገረ	-10.8817
▁ያደረጉትን	-10.8818
▁ብንሆን	-10.8818
▁ሰጠሃቸው	-10.8818
▁እየጮኹ	-10.8818
▁የበኣልን	-10.882
▁አልመጣም	-10.8821
▁መልካቸው	-10.8823
▁ሄድሁ	-10.8824
መምሰል	-10.8824
▁የግድ	-10.8825
▁ከመጠጡ	-10.8828
▁እስኪጠፉ	-10.8829
▁ሰጠኋቸው	-10.8829
▁ገበታዎች	-10.8831
ሰፈራቸው	-10.8832
▁ንገር	-10.8834
▁ከአፌ	-10.8846
▁ከደሙ	-10.8852
ሲዶናውያን	-10.8862
ሚበርር	-10.8862
▁ትበላለህ	-10.8876
ይቆሙ	-10.8886
▁በቀይ	-10.8887
▁የተሳለ	-10.8887
▁በዙሪያሽ	-10.8899
አሶር	-10.8903
ሰቀል	-10.8916
▁እግሩ	-10.8916
ሌለባት	-10.8917
▁ያኖረ	-10.8933
▁አዘነበ	-10.8958
አህያይቱ	-10.8964
ፈትኑ	-10.8968
▁መልሳ	-10.8979
▁ይጠጣሉ	-10.9001
▁ተመለሰች	-10.9008
መሄድ	-10.9009
▁ይሆንበታል	-10.9051
ካፈል	-10.9059
▁መንገዳቸው	-10.9065
ጠራሁህ	-10.9067
ነፍሱ	-10.907
▁ይሰማሉ	-10.9082
▁ተነሥቶአል	-10.9104
▁ነፍሳቸው	-10.9109
ወግሩ	-10.911
ሎአልና	-10.9133
ወደደችውን	-10.9159
ስማማ	-10.9168
እንባ	-10.9176
ሔሬ	-10.9176
ማይታዘዙ	-10.9194
▁እልልታ	-10.9222
ሚካኤል	-10.9237
▁ርኩ	-10.9243
▁የኃጢአ	-10.9304
ሚበላው	-10.9305
▁አስታውቀ	-10.9306
ዮናታን	-10.9321
ኖረበት	-10.9352
ፈጠረው	-10.9397
ወጥመድ	-10.9416
በረከት	-10.9416
ወገኑ	-10.9421
▁ቀርቶ	-10.9444
ርስታቸው	-10.9449
▁ሲዶና	-10.9518
መልአኩ	-10.9562
▁ቁር	-10.9566
ክብሬ	-10.957
ላካችሁ	-10.9574
ኆ	-10.9574
መንኰራኵሮች	-10.9574
መዛነቢያዎቹ	-10.9574
ሚንቀሳቀሱ	-10.9574
ኢያዜር	-10.9574
ኤዊያውያን	-10.9574
ኵላሊቶች	-10.9574
ዓይኖቻችሁ	-10.9574
ገለግለው	-10.9574
▁ለሠራዊት	-10.9574
▁ለባልንጀራው	-10.9574
▁ሐሴቦን	-10.9574
▁መንኰራኵር	-10.9574
▁መዘምራኑ	-10.9574
▁ራፋስቂስ	-10.9574
▁ቅፍርናሆም	-10.9574
▁በሐሴቦን	-10.9574
▁በመንገዳቸው	-10.9574
▁በኃጢአቱ	-10.9574
▁በኪሩቤል	-10.9574
▁በወንድሞቹ	-10.9574
▁በዕብራይስጥ	-10.9574
▁በፀሐይ	-10.9574
▁በፊተኛው	-10.9574
▁ብልሃተኛ	-10.9574
▁ታደርጋለች	-10.9574
▁ትኵሳት	-10.9574
▁ኀጥኣን	-10.9574
▁ንግግር	-10.9574
▁አስቀድማችሁ	-10.9574
▁አኪማአስ	-10.9574
▁አኪጦፌል	-10.9574
▁አደርጋቸዋለሁ	-10.9574
▁እመለሳለሁ	-10.9574
▁እባካችሁ	-10.9574
▁ከመንገዱ	-10.9574
▁ከምዕራብ	-10.9574
▁ከሠላሳ	-10.9574
▁ከተቀደሰው	-10.9574
▁ወይፈኑን	-10.9574
▁ዜቡል	-10.9574
▁የለመለመ	-10.9574
▁የመታጠቢያ	-10.9574
▁የሚያሰኘውን	-10.9574
▁የሚያስጨንቁ	-10.9574
▁የማደሪያው	-10.9574
▁የምድሪቱ	-10.9574
▁የቃሬያ	-10.9574
▁የኀጥኣን	-10.9574
▁የናታንያ	-10.9574
▁የኢትዮጵያ	-10.9574
▁ያስተምራቸው	-10.9574
▁ጕድጓዱ	-10.9574
▁ጥበበኛ	-10.9574
▁ጮኾ	-10.9574
ምዕራቡ	-10.9574
እንስሶቻቸው	-10.9574
ጩኸታቸው	-10.9574
▁ለዔሳው	-10.9574
▁በቃዴስ	-10.9574
▁ተሞልታለች	-10.9574
▁አዝዣለሁ	-10.9574
▁እሆናቸዋለሁ	-10.9574
▁የባሕሩ	-10.9574
▁ጕድፍ	-10.9574
▁በምስጋና	-10.9574
▁በኀዘን	-10.9574
▁ተርሴስ	-10.9574
▁እጥላለሁ	-10.9574
▁የሚያቀርበው	-10.9574
▁የባዶስ	-10.9574
▁የገባዖን	-10.9574
▁ጕልበት	-10.9574
▁ለካህናት	-10.9574
▁ብታደርጉ	-10.9574
▁በመቃብር	-10.9574
▁የአምላካቸውን	-10.9574
ዮፎኒ	-10.9574
ገለገለ	-10.9574
▁ቁመት	-10.9574
▁ተወግተው	-10.9574
▁የሕያው	-10.9574
▁ይነግዱ	-10.9574
▁ድንበራቸው	-10.9574
ቀደሙት	-10.9574
▁ይወርሳል	-10.9574
▁እግሮቻቸው	-10.9574
▁የጢሮስ	-10.9574
▁በእንስሳ	-10.9574
▁ብርሃኑ	-10.9574
▁አስተምረኝ	-10.9574
▁ጠጕሩ	-10.9574
▁የታሰረ	-10.9574
መሠረቱ	-10.9574
ጾርዓ	-10.9574
▁በሕይወታቸው	-10.9574
▁መልሼ	-10.9574
▁ክንፎች	-10.9574
▁ያስተምሩ	-10.9574
▁እሞታለሁ	-10.9574
▁በዝቶአል	-10.9574
▁ፍሪዳ	-10.9574
▁እምላለሁ	-10.9574
▁በመዓቴ	-10.9574
▁የተናገርኸው	-10.9574
▁ይሰጣችኋል	-10.9574
ጠቦቶቹ	-10.9574
አንጥረኛ	-10.9575
ቸዋለን	-10.9575
▁በብርሃን	-10.9575
▁ትሰጣላችሁ	-10.9575
▁ክህነት	-10.9575
▁ሎጥም	-10.9575
ታረደው	-10.9575
▁ይሰበሰባሉ	-10.9575
▁ከአባቱ	-10.9575
ሰናክሬም	-10.9575
▁ያቀርቡላችኋል።	-10.9575
▁ከመሬት	-10.9575
▁አቅርበ	-10.9575
ሬካብ	-10.9575
▁አትፍሪ	-10.9575
▁ውሸት	-10.9575
▁እነሣለሁ	-10.9575
▁አንደበት	-10.9575
ስልማና	-10.9575
▁መብላት	-10.9575
ትሕትና	-10.9575
▁ታካች	-10.9576
▁እርምጃ	-10.9576
▁የኃጢአተኞች	-10.9576
▁ለምጻም	-10.9576
▁በቀትር	-10.9576
▁ከእምነት	-10.9576
▁ይስማ።	-10.9576
▁የቆሬ	-10.9576
ሚቀርበው	-10.9577
▁አውቀው	-10.9577
▁ሮማኖች	-10.9577
▁በነፋስ	-10.9577
▁ታዳጊ	-10.9577
▁አቃጠለ።	-10.9577
ተፈወሰ	-10.9577
▁ይዘረጋል	-10.9577
▁እወጣለሁ	-10.9577
▁በስማቸው	-10.9577
እንበረም	-10.9577
▁የአውራ	-10.9577
▁ጉዳይ	-10.9577
▁ትናንት	-10.9577
▁ገባች	-10.9577
▁በድያለሁ	-10.9578
▁የሜዳ	-10.9578
▁ሰውነታችሁን	-10.9578
▁ዳርዮስ	-10.9578
▁ጠበቅሁ	-10.9579
▁በፈረስ	-10.9579
▁ቢገኝ፥	-10.9579
▁ከሆንህ	-10.9579
▁ጠላቱ	-10.958
▁የተረፈውን	-10.958
▁በጋይ	-10.958
▁ከሴት	-10.958
▁የጋይ	-10.958
▁ቍራጭ	-10.958
▁አያደርግም	-10.958
▁ለሴት	-10.9581
▁ጐዳና	-10.9581
▁ጫነ	-10.9581
▁ተጋደ	-10.9581
▁መሰምርያዋን፤	-10.9581
▁አላስቀረ	-10.9582
ተባበር	-10.9582
▁ሸሽተው	-10.9582
▁ለስምህ	-10.9582
▁አድራጊዎች	-10.9583
ስጦስ	-10.9583
ስቀረ	-10.9583
▁ዮፍታሔም	-10.9585
▁እግሬን	-10.9586
▁ጆሮአቸውን	-10.9586
▁ደንዳ	-10.9587
ማርከው	-10.9588
▁ሕይወቴን	-10.9589
▁መለሰላቸው።	-10.9589
▁የእናቱ	-10.959
▁ታምሞ	-10.959
ሰድቡ	-10.959
▁ይሰጣሉ	-10.959
▁ጠላሁ	-10.9591
ቾች	-10.9592
ሰከሩ	-10.9592
▁ጠራው፤	-10.9593
▁ከሚስቱ	-10.9593
▁የሚቀመጡትን	-10.9594
▁አፍስሰ	-10.9594
▁በሞተ	-10.9594
▁እምቢ	-10.9594
▁ይበለው	-10.9595
▁ይለናል	-10.9596
▁ቀረቡ፥	-10.9597
▁ይሙት	-10.9597
▁ሊያድን	-10.9602
▁የገቡት	-10.9602
▁ቂር	-10.9603
▁ያየሁት	-10.9604
▁በበትር	-10.961
አጥንቴ	-10.9614
ታሰር	-10.9616
▁ማለላቸው	-10.9623
ተረፈው	-10.9635
▁በሥራቸው	-10.9645
▁አድርገናል	-10.9648
▁ዳኛ	-10.9657
▁አኑረ	-10.9669
ካሪም	-10.9679
▁የሚያስፈልገ	-10.9686
▁ሰገዱለት	-10.9713
ጊዜው	-10.9714
ልካቸው	-10.9728
ቀርባለ	-10.9733
▁አመጣቸዋለሁ	-10.9765
▁ወሰደች	-10.9769
▁ፍርዴ	-10.9771
ቀናች	-10.9773
▁ተቀምጠዋል	-10.9781
▁ልኮኛል	-10.9792
ተቀጠቀጠ	-10.9798
ሬሞን	-10.9828
ቸርነቱ	-10.987
▁ይበላቸው	-10.9883
ሚባል	-10.9893
ኤማን	-10.99
ያሚን	-10.9907
ሆናቸው	-10.9918
▁ስለሌለ	-10.9922
በሮቹ	-10.9933
ተቀበሉ	-10.9947
ሠራሁት	-10.9973
▁ነበሩአቸው	-11.0013
መጋረጃው	-11.0021
ሠርተው	-11.0129
▁አወጣለሁ	-11.0137
ሕያዋን	-11.0155
ጻድቅ	-11.0155
▁ተከተለ	-11.0239
ዓዛርያስ	-11.0248
እስማኤል	-11.0248
እረኞች	-11.0253
▁ሰምቼ	-11.0255
ዘመናት	-11.0289
እናትዋ	-11.0338
▁ፍቺ	-11.0357
▁አቆሙ	-11.039
▁ጠየቁ	-11.0404
ሢ	-11.0408
ሓ	-11.0408
ፕ	-11.0408
▁ሁለንተና	-11.0408
▁ሹማምቶች	-11.0408
▁ተሠርቶ	-11.0408
▁ተአምራቱ	-11.0408
▁አትደንግጥ	-11.0408
▁እኅታቸው	-11.0408
▁የተመሰገነ	-11.0408
▁የፀሐይ	-11.0408
▁ጽሕፈቱ	-11.0408
ሰንፔር	-11.0408
ሰፋጥያስ	-11.0408
ቤርዜሊ	-11.0408
ቧ	-11.0408
ትዕቢተኛ	-11.0408
ንጉሣቸው	-11.0408
ኢኮንያን	-11.0408
ኢዮሴዴቅ	-11.0408
ጭፍሮቹ	-11.0408
▁ለልጆቻችሁ	-11.0408
▁ለልጆችህ	-11.0408
▁ለባሪያዎችህ	-11.0408
▁ለኢየሩሳሌም	-11.0408
▁ሰንበታቴን	-11.0408
▁በልጆቹ	-11.0408
▁በቁርበቱ	-11.0408
▁በቸርነት	-11.0408
▁በአክዓብ	-11.0408
▁በከለዳውያን	-11.0408
▁በካህናቱ	-11.0408
▁በክህነት	-11.0408
▁በውስጠኛው	-11.0408
▁በዓይናችሁ	-11.0408
▁በየስፍራው	-11.0408
▁ተንቀሳቃሽ	-11.0408
▁ንጥቂያ	-11.0408
▁አብደናጎ	-11.0408
▁አግሪጳ	-11.0408
▁እንኖራለን	-11.0408
▁እየሰበከ	-11.0408
▁እጆቻቸውን	-11.0408
▁ከመቅደስ	-11.0408
▁ከንፈሮቼ	-11.0408
▁ወታደሮች	-11.0408
▁ወኅኒ	-11.0408
▁ውርንጫ	-11.0408
▁ዘሩባቤል	-11.0408
▁ዝንጕርጕር	-11.0408
▁የሚሸፍነውን	-11.0408
▁የተርሴስ	-11.0408
▁የታላቁ	-11.0408
▁የዛብሎን	-11.0408
▁የጨለማ	-11.0408
▁ይፈልጋል	-11.0408
▁ጕልበቴ	-11.0408
▁መኳንንቶ	-11.0408
▁ታናሺቱ	-11.0408
▁አንካሶች	-11.0408
▁እልካለሁ	-11.0408
▁ከታላቁ	-11.0408
▁ከነቢዩ	-11.0408
▁ትወርሳት	-11.0408
▁የላከውን	-11.0408
▁ይመስላችኋል	-11.0408
▁ይረጨዋል	-11.0408
▁በአርኖን	-11.0408
▁እምቦሳ	-11.0408
▁ከእንስሳ	-11.0408
ቄድሮን	-11.0408
▁እንጐቻ	-11.0408
▁ይገልጣል	-11.0408
ብልሃተኞች	-11.0408
ሚያቀርቡት	-11.0408
▁ታቀርባለህ	-11.0408
ጫፎቹ	-11.0408
▁በአሦር	-11.0408
▁አፍርሰዋል	-11.0408
▁በንጹሕ	-11.0408
▁በዙፋን	-11.0408
▁የርግብ	-11.0408
መበለቶች	-11.0408
▁ሰይፌ	-11.0408
▁ከተቀመጠ	-11.0408
ሞሖሊ	-11.0408
ደነደነ	-11.0408
▁በትውልዳ	-11.0408
▁በድለናል	-11.0408
▁አልራቀም	-11.0408
▁ሚሳቅ	-11.0408
▁ከሌሎች	-11.0408
▁በዓረባ	-11.0408
ፊተኛይቱ	-11.0408
▁ይቀርባል	-11.0408
▁ፍርምባ	-11.0408
▁እንጨቱን	-11.0408
▁በልቅሶ	-11.0408
▁ተሸክሞ	-11.0408
▁የተጻፉ	-11.0408
▁ያመለጠ	-11.0408
ደርጋቸው	-11.0408
▁የተግባር	-11.0408
▁መርበብ	-11.0408
▁አክብር	-11.0408
▁ለክብር	-11.0408
ኤፍሮን	-11.0408
▁ሀብታ	-11.0408
▁ቍጠሩ	-11.0408
▁ቆንጆ	-11.0408
▁አስቀመጠ	-11.0408
▁ለአባትህ	-11.0408
▁በመረጠው	-11.0408
▁ይደነግጣሉ	-11.0408
▁ጠጉር	-11.0408
▁ስገዱ	-11.0408
ሕዝባቸው	-11.0408
▁ነበራቸው	-11.0408
▁ዋነኛ	-11.0408
▁መዓካ	-11.0408
▁ሊዋጉ	-11.0408
▁ከረጢት	-11.0408
ነጋገራ	-11.0408
▁የእግር	-11.0408
▁የሚሠዋ	-11.0408
▁የሕጉ	-11.0408
▁ሎጥን	-11.0409
▁ሙሾ	-11.0409
▁ሦራ	-11.0409
▁ታማኝ	-11.0409
▁ማዕበል	-11.0409
ተቀመጣችሁ	-11.0409
▁የደመና	-11.0409
▁ነውረኛ	-11.0409
ይሩበኣል	-11.041
▁አላየውም	-11.041
▁የጸጋ	-11.041
ገዳደር	-11.041
▁አትችልም	-11.041
▁ክርታ	-11.041
▁ከውኃ	-11.041
▁በቃሌ	-11.041
▁የሞላበት	-11.0411
▁ብልሃት	-11.0411
▁የሰሜን	-11.0411
ዎቻችሁን	-11.0411
▁ጨምሮ	-11.0411
▁ሰብስቡ	-11.0412
▁በሆድ	-11.0413
▁የኃጢአቱን	-11.0413
▁በእስያ	-11.0414
▁ፊተኞች	-11.0414
▁ይራራል	-11.0414
▁ይገዛሉ	-11.0415
▁በየቀኑ	-11.0415
▁ዓለሙን	-11.0415
▁አሉአት።	-11.0415
▁የሰጠኸኝ	-11.0415
▁አድናለሁ	-11.0415
ታወክ	-11.0416
▁የሚበሉት	-11.0416
▁በራሳችሁ	-11.0416
▁ይውጡ	-11.0416
▁ጠየቀ።	-11.0416
▁ላክሁ	-11.0417
▁ከአሮን	-11.0417
መኰንን	-11.0417
ሚበልጠው	-11.0417
▁ምናምን	-11.0417
▁ከታች	-11.0417
▁ሰኮና	-11.0418
▁አደረገው፥	-11.0418
▁ያዳነ	-11.0418
▁ዘይቱን	-11.0418
▁ያሳድዱ	-11.0418
▁እንዳዘዛቸው	-11.0419
▁ከበግ	-11.0419
▁የበለጠ	-11.042
▁ብረቱ	-11.042
ጭንጫ	-11.042
▁ብላችኋል።	-11.0421
▁ረዳቴ	-11.0421
▁የሳባ	-11.0422
▁ይበዛል	-11.0424
▁ጠላቶቹን	-11.0425
▁መሥዋዕቱን	-11.0426
ታሰሩ	-11.0428
▁ጉቦ	-11.0429
▁ማቅረብ	-11.0429
▁ምሰሶቹ	-11.0431
▁አድርገዋልና	-11.0431
ታቦር	-11.0435
▁ሰጡት።	-11.0435
ቀደዱ	-11.0435
▁አወቁ	-11.0438
▁ለሥራ	-11.044
መረግድ	-11.0441
▁በዳርቻ	-11.0444
ሰደድሁ	-11.0446
ፋራን	-11.0466
ወላድ	-11.0468
▁አይተሃል	-11.0469
▁ጠጥተ	-11.0479
ሚወስደው	-11.0497
ያሳፍር	-11.0503
ወረስ	-11.0508
ልመናዬ	-11.0513
▁አይታችኋል	-11.0519
▁ሰጠችው	-11.0533
ብናል	-11.0533
▁ይቀራል	-11.055
▁የዛራ	-11.0571
ተላከ	-11.0577
▁ብለሃል	-11.0622
ሚጠሉኝ	-11.0643
ለምጹ	-11.0693
ተዋለ	-11.0697
▁ከለከ	-11.0734
▁ቍርባናቸው	-11.0747
ታደርገው	-11.0749
▁ዓይኑ	-11.0769
▁በየጊዜ	-11.0827
▁ለሆነ	-11.0829
ይቀጣ	-11.0839
▁የአባቱ	-11.089
ከነዓን	-11.0969
ፈላለ	-11.0991
ብዙዎች	-11.1062
እውቀት	-11.1067
ሌሊት	-11.1069
ታላቅ	-11.1072
▁ለሥጋ	-11.1098
▁ተመልሰ	-11.1111
መቅሠፍቱ	-11.112
ታላቂቱ	-11.1157
አሜስያስ	-11.1157
ጠቢብ	-11.1159
ኢዮብ	-11.1159
ሚወጣው	-11.12
ቸውማለሁ	-11.1223
ጆሮአችሁ	-11.1229
▁ከነበሩ	-11.1269
ከተለኝ	-11.1289
▁ቆሞአል	-11.1289
▁መንገዶች	-11.1317
▁መጠምጠሚያ	-11.1317
▁ርኅራኄ	-11.1317
▁ተላላፊ	-11.1317
መርከቢቱ	-11.1317
ተመሠረተ	-11.1317
አመንዝሮች	-11.1317
አስቆሮቱ	-11.1317
ዖቤድኤዶም	-11.1317
ድንጋዮቹ	-11.1317
ጶ	-11.1317
▁ለልጆቻቸው	-11.1317
▁ለሕዝቤ	-11.1317
▁መቅረዞች	-11.1317
▁መንቀጥቀጥ	-11.1317
▁መግደላዊት	-11.1317
▁በሌዋውያን	-11.1317
▁በማኅፀን	-11.1317
▁በበረሀ	-11.1317
▁በኃጢአታቸው	-11.1317
▁በኢያሱ	-11.1317
▁በዮሴፍ	-11.1317
▁ተደፍቶ	-11.1317
▁ትላቸዋለህ።	-11.1317
▁ትናገራለህ	-11.1317
▁ትፈልጋላችሁ	-11.1317
▁ኅብረት	-11.1317
▁አላስተዋሉም	-11.1317
▁አልደረሰም	-11.1317
▁አመሰገነ	-11.1317
▁እልከኛ	-11.1317
▁እመልሳቸዋለሁ	-11.1317
▁እሰበስባቸዋለሁ	-11.1317
▁እነግራችኋለሁ	-11.1317
▁እወስዳለሁ	-11.1317
▁ከሜራሪ	-11.1317
▁ከባሪያዎችህ	-11.1317
▁ከኢዮርብዓም	-11.1317
▁ከእነዚያ	-11.1317
▁ከየነገዱ	-11.1317
▁ከዮሴፍ	-11.1317
▁ከገለዓድ	-11.1317
▁ዘንበሪ	-11.1317
▁የማዝዝህን	-11.1317
▁የራጉኤል	-11.1317
▁የቀደሰውን	-11.1317
▁የኃይል	-11.1317
▁የአልዓዛር	-11.1317
▁የአማልክት	-11.1317
▁የአራተኛው	-11.1317
▁ያዘዝሁህን	-11.1317
▁ያድነናል	-11.1317
▁ይመለከታሉ	-11.1317
▁ይዋረዳል	-11.1317
▁ይፈልጋሉ	-11.1317
▁ድንኳኖች	-11.1317
▁ድንግሊቱ	-11.1317
▁ገዦች	-11.1317
▁ጠላቶቻችን	-11.1317
▁ጼዴቅ	-11.1317
▁ለምስጋና	-11.1317
▁ሞግዚ	-11.1317
▁በአፍንጫ	-11.1317
▁አልፈቀደም	-11.1317
▁ከስምዖን	-11.1317
▁የዓመፅ	-11.1317
▁ያለቅሳሉ	-11.1317
▁ይጠብቃሉ	-11.1317
▁ጸያፍ	-11.1317
ቀጠቀጥ	-11.1317
▁በአንገቱ	-11.1317
▁ነነዌ	-11.1317
▁አፈለሰ	-11.1317
▁ኢታምር	-11.1317
▁ከታናሹ	-11.1317
▁የእንጨት	-11.1317
▁ሰብስበው	-11.1317
▁በልሳኖች	-11.1317
▁አንገታቸውን	-11.1317
▁አደረጋችሁ	-11.1317
▁ዓሦች	-11.1317
▁የእንስሳ	-11.1317
▁ያቃጥላል	-11.1317
▁ጠራቢዎች	-11.1317
▁አለዚያ	-11.1317
▁ከታናሽነ	-11.1317
▁ይወርዳሉ	-11.1317
ገለገሉ	-11.1317
▁ሢሶ	-11.1317
▁በአለቆች	-11.1317
▁ቶማስ	-11.1317
▁እያለቀሱ	-11.1317
▁እጃችሁን	-11.1317
▁ሞኝነት	-11.1317
▁በዳርዮስ	-11.1317
▁ትሞታላችሁ	-11.1317
▁ያለዚያ	-11.1317
ዘመዶቼ	-11.1317
▁ወገኖቹ	-11.1317
▁አድርጊ	-11.1317
▁የቍጣው	-11.1317
▁የልጁን	-11.1317
▁ከጠላቶቻቸው	-11.1317
▁ዕብራዊ	-11.1317
▁ድፍረት	-11.1317
▁ለመርዳት	-11.1317
▁በጭንቅ	-11.1317
▁ንገሥ	-11.1317
ፋቁሔ	-11.1317
▁አነገሠ	-11.1317
▁የሁለቱ	-11.1317
▁አጥንቶች	-11.1317
▁እድናለሁ	-11.1317
▁ኰብል	-11.1317
▁ይቆማሉ	-11.1317
▁ሚልካ	-11.1317
ማክማስ	-11.1317
ቅርጫት	-11.1317
▁ትሰጣለህ	-11.1317
▁ስደተኛ	-11.1317
▁አቆማቸው	-11.1317
▁የሴይር	-11.1317
▁ጦብያ	-11.1317
▁አብዩድ	-11.1317
▁የልቅሶ	-11.1317
▁በገመድ	-11.1317
▁ሠርተናል	-11.1317
▁አግብተ	-11.1317
▁ደከሙ	-11.1317
▁ተለውጦ	-11.1317
▁ይሸሻሉ	-11.1317
▁ይለምኑ	-11.1317
▁ለክፋት	-11.1317
▁ተጣጣሉ	-11.1317
▁ጊደር	-11.1317
▁ግያዝ	-11.1317
▁ይቀበላሉ	-11.1317
▁በጭፍራ	-11.1317
▁ማጭድ	-11.1317
▁አይጠቅምም	-11.1317
▁ያደረግኸው	-11.1317
▁ይሰጣቸዋል	-11.1317
አስተዋዮች	-11.1317
አድባር	-11.1317
▁ለመብላት	-11.1317
አሽክላ	-11.1317
▁በትከሻ	-11.1317
▁ኩሲ	-11.1317
▁መስጠት	-11.1317
▁መዓዛ	-11.1317
▁ይባርክህ	-11.1317
▁ሚስቴ	-11.1317
▁ብትጠብቅ፥	-11.1317
▁የአሳፍ	-11.1317
▁አስተዋልሁ	-11.1318
▁ፊስጦስ	-11.1318
▁ስካር	-11.1318
▁ቀንዶቹ	-11.1318
▁ከአምላክ	-11.1318
▁በበታቹ	-11.1318
▁ተካፋ	-11.1318
▁ባለቤት	-11.1318
▁ይጣላል	-11.1318
▁ፈወሰ	-11.1319
▁አለቻቸው።	-11.1319
▁አፈርሳለሁ	-11.1319
▁ርስቴ	-11.1319
▁አውቄ	-11.1319
▁አያፍርም	-11.1319
▁አቃጠለው	-11.1319
ቈርጠው	-11.1319
ተፈተነ	-11.1319
ጫለሽ	-11.1319
አቤሮን	-11.1319
▁መጥቻለሁ	-11.1319
▁በጭቃ	-11.1319
▁ደክመ	-11.132
ዔቦር	-11.132
ወሰዳቸው	-11.132
▁በከፍታ	-11.132
▁መከታ	-11.132
▁እሰይ	-11.1321
▁ይጨል	-11.1321
▁ይሞላል	-11.1321
▁ቀደሰ	-11.1321
▁ጉዳት	-11.1321
▁አድነን	-11.1321
▁ትሰጣለች	-11.1321
▁መልአኩን	-11.1321
▁ወሰድሁ	-11.1322
▁ሲላስ	-11.1322
ጠበቃችሁ	-11.1322
▁ተረከ	-11.1322
▁ታችኛው	-11.1322
ፈወሱ	-11.1322
▁ይታጠብ	-11.1322
▁ይረዝ	-11.1322
▁ጽናት	-11.1323
▁ከሰልፍ	-11.1323
▁የፍሬ	-11.1323
▁የተናገሩት	-11.1323
▁ተከፈቱ	-11.1323
▁በትጋት	-11.1323
▁ፈለግሁ	-11.1324
▁ጮኹ፤	-11.1324
▁ይወዳል	-11.1324
▁በእሳቱ	-11.1325
▁ይሁንላችሁ፤	-11.1325
▁በጌት	-11.1325
▁አልሄዱም	-11.1326
▁ከአሁን	-11.1326
መግዛት	-11.1327
ደከምሁ	-11.1327
▁አልሰማቸውም	-11.1328
▁የልቤ	-11.1328
▁የዱር	-11.1329
▁ቂስ	-11.133
ጠነቀቅ	-11.1331
▁ሙግ	-11.1332
▁ከዳር	-11.1333
▁አይሞትም	-11.1333
ይዒኤል	-11.1333
▁ገረድ	-11.1333
ሳደዳቸው	-11.1334
▁ረስተ	-11.1334
ጠገበ	-11.1335
ሰኛቸው	-11.1336
▁የጌት	-11.1337
▁የባሰ	-11.1338
▁ያበራል	-11.134
▁ልባሞ	-11.134
ምትሄድበት	-11.1341
▁ዓይናቸውን	-11.1342
▁ግምቱ	-11.1343
▁መቅሠፍቴ	-11.1343
ታደጋ	-11.1344
▁አብረን	-11.1345
▁ገድሎ	-11.135
▁ገድለ	-11.1358
▁ቀድደ	-11.1361
▁እንዳይደለ	-11.1365
▁ሰምቶአልና	-11.1374
▁ይገባኛል	-11.1399
ሰደደ	-11.1403
ተማረኩት	-11.141
ሰውነታችን	-11.1412
▁ያጠፋቸዋል	-11.1429
ሠራዊታቸው	-11.1432
ቀረባችሁ	-11.1438
ላየሁ	-11.144
አገሬ	-11.1446
መካከለኛው	-11.1465
ቅድስናው	-11.1466
▁ተበትነ	-11.1492
ተኙ	-11.1494
ራቁትነት	-11.1527
ታናናሾች	-11.1528
ህማለሁ	-11.1592
ነፍሴ	-11.1635
▁አስነሣለሁ	-11.1665
ያድግ	-11.1697
እናንት	-11.1715
ያፈስሱ	-11.1715
▁ይልቁን	-11.1716
መታንያ	-11.1724
አፈር	-11.1734
በሬዎቹ	-11.1751
ሚነድድ	-11.1768
ማደሪያህ	-11.1769
▁ኪዳኑ	-11.179
▁ተጣለ	-11.1857
አንገትህ	-11.1969
▁በወንዞች	-11.1987
▁ጠፍቶ	-11.1995
▁ከአባቶቻች	-11.201
መርከብ	-11.2064
▁አምስተኛ	-11.2083
በባችሁም	-11.2099
ጀምር	-11.2107
ያጠፋቸው	-11.2112
ኢያቡሳዊው	-11.215
መንጎች	-11.2157
በለዓም	-11.2157
ዘካርያስ	-11.2158
ከዋክብት	-11.2158
ራሔል	-11.2158
ዕረፍት	-11.2158
ጴጥሮስ	-11.2158
መድኃኒት	-11.2158
ፍጻሜ	-11.2159
ሚነጻው	-11.2193
▁ዕረፍ	-11.2198
አረጀ	-11.2214
ታቦቱ	-11.223
ያወጣው	-11.2239
▁ምሰሶ	-11.2258
አካል	-11.2259
ማገልገል	-11.2275
▁ለዘመ	-11.2282
▁በሽማግሌ	-11.2292
▁አድራጊ	-11.2306
▁ተመልሳ	-11.2308
▁ታንኳ	-11.2311
ሬአለሁ።	-11.2311
ትሰግዱ	-11.2312
▁ያደረግሁ	-11.2314
▁ከሶርያ	-11.2315
▁ዛብሄል	-11.2317
▁የመጀመሪያ	-11.2317
ሰለጰዓድ	-11.2317
ሶፎንያስ	-11.2317
ትእዛዛቱ	-11.2317
አቸዋላችሁ	-11.2317
ያስፈልጋችሁ	-11.2317
ጃንደረቦቹ	-11.2317
ጌድሶናውያን	-11.2317
▁ለማፍሰስ	-11.2317
▁ለሞዓብ	-11.2317
▁ለሮቤል	-11.2317
▁ለነቢያት	-11.2317
▁ለኤፍሬም	-11.2317
▁መለያየት	-11.2317
▁መማፀኛ	-11.2317
▁መሠረቶች	-11.2317
▁ሻኵራ	-11.2317
▁ቅርንጫፎቹ	-11.2317
▁ቅርፊት	-11.2317
▁በሊባኖስ	-11.2317
▁በመካከሉ	-11.2317
▁በሥርዓት	-11.2317
▁በኣሊምን	-11.2317
▁በከተሞች	-11.2317
▁በዓመፅ	-11.2317
▁በጣዖቶቻቸው	-11.2317
▁በፈቃዱ	-11.2317
▁ተሞልቶ	-11.2317
▁ታላላቆቹ	-11.2317
▁ንጹሑን	-11.2317
▁አመንዝረ	-11.2317
▁አስወግዱ	-11.2317
▁አንጐራጐሩ	-11.2317
▁አደረጋቸው፤	-11.2317
▁እጮኻለሁ	-11.2317
▁ከሕዝቤ	-11.2317
▁ከቅዱሳን	-11.2317
▁ከወንድሞቻቸው	-11.2317
▁ከይስሐቅ	-11.2317
▁ከፊተኛው	-11.2317
▁የሚሸከሙ	-11.2317
▁የማኅበሩ	-11.2317
▁የአባቶቻችን	-11.2317
▁የዮርዳኖስ	-11.2317
▁ይባረካሉ	-11.2317
▁ይንቀጠቀጣሉ	-11.2317
▁ይገለብጣ	-11.2317
▁ዮአኪን	-11.2317
▁ግብዝነት	-11.2317
▁ጐበዛዝት	-11.2317
▁ጕብጕብ	-11.2317
▁ጥፍጥፍ	-11.2317
ዓሚሁድ	-11.2317
▁መስቀሉን	-11.2317
▁በግምባሬ	-11.2317
▁ተገኝቶአል	-11.2317
▁አንቀላፍ	-11.2317
▁እችላለሁ	-11.2317
▁እንሆናለን	-11.2317
▁ዘንጎች	-11.2317
▁የማዕዘን	-11.2317
▁ይደርቃል	-11.2317
መኳንንቱ	-11.2317
ቅብዓት	-11.2317
ተጸየፉ	-11.2317
ቴቁሔ	-11.2317
▁ሀብቱ	-11.2317
▁ማለፊያ	-11.2317
▁በጸጥታ	-11.2317
▁ነአሶን	-11.2317
▁አጽንቶ	-11.2317
▁እባርካ	-11.2317
▁ከእንጨት	-11.2317
▁የተዋበች	-11.2317
▁ይነድዳል	-11.2317
ተመላለሰ	-11.2317
▁ለመጻተኛ	-11.2317
▁መማለጃ	-11.2317
▁ተሰምቶአል	-11.2317
▁አትሂዱ	-11.2317
▁አይዞአችሁ	-11.2317
▁እለምናለሁ	-11.2317
▁ከመንፈስ	-11.2317
▁ውሸተኛ	-11.2317
▁ያቀርባሉ	-11.2317
ሴኬንያ	-11.2317
ድቅድቅ	-11.2317
▁ላሜሕ	-11.2317
▁ሹማምት	-11.2317
▁ንጽሕ	-11.2317
▁ዘመዶች	-11.2317
▁ደናግል	-11.2317
ሚደረገው	-11.2317
▁አጥፊው	-11.2317
▁እውነቱን	-11.2317
▁ይሸፍኑ	-11.2317
▁ለመግደል	-11.2317
▁ምዋርት	-11.2317
▁ነጣቂ	-11.2317
▁አላወቅሁም	-11.2317
▁ከጢሮስ	-11.2317
▁ይበቅላል	-11.2317
አህዮቻቸው	-11.2317
▁ሰላዮች	-11.2317
▁አድምጠኝ	-11.2317
ፈረሶቹ	-11.2317
▁ተገልጦአል	-11.2317
▁ናዕማ	-11.2317
▁አቅንቶ	-11.2317
▁አደጎች	-11.2317
▁ከጕድጓድ	-11.2317
▁ለአንቺ	-11.2317
▁የበጎች	-11.2317
ኔዎስ	-11.2317
▁ስደተኞች	-11.2317
▁በውሸት	-11.2317
▁ብዔል	-11.2317
▁አትግደል	-11.2317
▁እነግርሃለሁ	-11.2317
▁መግደል	-11.2317
▁ተበቃዩ	-11.2317
▁ናዖድ	-11.2317
▁ፈርሶአል	-11.2317
ያረክሰው	-11.2317
▁ሰምታችኋል	-11.2317
▁አጥፍተ	-11.2317
▁አሰናበተ	-11.2317
▁ምላሳቸው	-11.2317
▁ምግባቸውን	-11.2317
▁ተቀምጬ	-11.2317
▁ከአባቶች	-11.2317
▁የሚቀርቡ	-11.2317
▁አቆማለሁ	-11.2317
▁መሐሪ	-11.2317
▁መቃኖች	-11.2317
▁አሳላፊ	-11.2317
▁ከእውነት	-11.2317
ሐሸብያ	-11.2317
አሦራውያን	-11.2317
▁ተከፈለ	-11.2317
▁እንዳደረግህ	-11.2317
▁የነገሠ	-11.2317
ሞሎክ	-11.2317
ዮዳኤ	-11.2317
ጽፍላችሁ	-11.2317
ሸምበቆ	-11.2317
▁ሰጥቻለሁ	-11.2317
▁ሴይር	-11.2317
▁ሹመት	-11.2317
▁ታገኛለህ	-11.2317
▁ለወርቁ	-11.2317
▁መለየት	-11.2317
▁ውደዱ	-11.2317
▁ተደነቀ	-11.2317
▁ታስባላችሁ	-11.2317
▁ቁርባን	-11.2317
▁አይገባህም	-11.2317
▁በደረቅ	-11.2317
▁ሽመል	-11.2317
▁በቀድሞ	-11.2317
▁ታለቅሳለች	-11.2317
▁ቅርጽ	-11.2317
▁ተናገራቸው፤	-11.2317
▁ሰብስብ	-11.2317
▁መሶብ	-11.2318
▁ለመግባት	-11.2318
▁ጠርተው	-11.2318
▁አዘንብል	-11.2318
▁በሕጉ	-11.2318
▁ተኝተው	-11.2318
▁ተራፊም	-11.2318
▁ዝገት	-11.2318
▁በረሀ	-11.2318
ነደደ	-11.2318
ታወቁ	-11.2318
▁ይጥላል	-11.2318
▁ይጠቅማል	-11.2318
▁ይመለከታል	-11.2318
▁በዜማ	-11.2318
▁ተገናኘው	-11.2318
ሰሌምያ	-11.2318
▁ቤቶቻቸው	-11.2318
▁ቆሙ፤	-11.2318
▁የተጠቃ	-11.2318
▁የሰባቱ	-11.2318
▁በዓላት	-11.2318
▁ቀናተኛ	-11.2318
▁በአመድ	-11.2318
▁ንግድ	-11.2318
▁አደሱ።	-11.2318
ሸንፈው	-11.2318
▁ትገዛለህ	-11.2318
▁አላደረጉም	-11.2318
ሸማኔ	-11.2318
▁ቀስቱን	-11.2318
▁ከሶርያውያን	-11.2319
▁ይሰማራሉ	-11.2319
ጥቂቱ	-11.2319
▁በቤታቸው	-11.2319
▁ኢዮኤል፥	-11.2319
▁አልመጣሁም	-11.232
▁ለባልዋ	-11.232
▁ከእርሻ	-11.232
▁አካሉ	-11.232
▁የልመናዬን	-11.232
ምትገቡባት	-11.232
▁ነገሬን	-11.2321
ባቱኤል	-11.2321
▁ይጭናል	-11.2321
ያደርጋት	-11.2322
▁ከጠላት	-11.2322
▁እብቅ	-11.2322
▁ወዳዘጋጀ	-11.2322
ኢሜር	-11.2322
▁አቅንተ	-11.2323
▁ቀትር	-11.2323
▁በትሩን	-11.2323
▁ያድራል	-11.2323
▁ይበዛሉ	-11.2323
▁መዓቱ	-11.2323
▁ሆንሽ	-11.2324
▁ግሩም	-11.2324
▁አይውጣ	-11.2324
▁የጠፋውን	-11.2324
▁የቀደመውን	-11.2324
▁ያፈራል	-11.2325
▁የመንጋ	-11.2325
ሸፈኑ	-11.2326
ረገፈ	-11.2326
▁መለስሁ	-11.2328
▁ይተኛሉ	-11.2329
ያድነን	-11.233
▁እመታለሁ	-11.233
▁በትሮች	-11.233
ዋደዱ	-11.233
ቅልል	-11.2331
▁አልተናገረ	-11.2334
ቈርጥ	-11.2342
ከብባ	-11.2347
▁ጸንታ	-11.2354
አታክል	-11.2356
▁ይከተላ	-11.2363
ካፈለ	-11.2369
▁ከድንኳኑ	-11.2378
ጣዖቶቻችሁ	-11.2406
▁የሥራ	-11.2407
አሞራዊ	-11.2413
ተወለዱት	-11.2424
አሁኑ	-11.2426
▁ይቻል	-11.2452
▁ሥርዓቱ	-11.2474
▁የሚቃወ	-11.2517
▁ደከመ	-11.2597
ወዳጁ	-11.269
ርኩሱ	-11.2717
▁መክደኛ	-11.2794
ፍራለች	-11.2806
▁አሥሩ	-11.2835
▁ተቃዋሚ	-11.2854
▁የቆመ	-11.288
ጸሐፊው	-11.2937
▁ታለቅ	-11.3024
አደጋ	-11.3066
ሁለተኛው	-11.3082
ጽድቅ	-11.3086
▁የዘይት	-11.3102
ይገባችሁ	-11.3109
▁ሥልጣ	-11.316
እኅትዋ	-11.3174
ዓይንህ	-11.3177
ያሳዩ	-11.3264
አብያታር	-11.3267
በርናባስ	-11.3267
ሕፃኑ	-11.3267
ጽድቁ	-11.3268
ያመሰግኑ	-11.3268
ጥበበኞች	-11.3268
ሕፃናት	-11.3268
ዓመፀኛ	-11.3268
አቢሜሌክ	-11.3269
ሸማያ	-11.3269
ፈጽመው	-11.3269
ጣፋጭ	-11.327
ቍርባን	-11.327
ሐናንያ	-11.3272
▁በመልእክ	-11.3273
በዓል	-11.3281
ተመለከተ	-11.3283
ሰልፉ	-11.3298
ፈለጉት	-11.3305
መካከላችሁ	-11.3338
ግዞት	-11.3342
▁በየሠራዊ	-11.3351
ማንሣት	-11.3361
▁አጽንተ	-11.3364
ቾ	-11.3402
ሚያሳድዱኝ	-11.3428
▁ሆምጣጤ	-11.3428
▁ሕፃናቶች	-11.3428
▁መጎናጸፊያ	-11.3428
▁ግብፃዊ	-11.3428
አምላኮቻቸው	-11.3428
ኢይዝራኤላዊው	-11.3428
ኢዮሳፍጥ	-11.3428
ወንበዴዎች	-11.3428
ያስፈልጋቸው	-11.3428
▁ለመቅደሱ	-11.3428
▁ለአገልግሎት	-11.3428
▁ለኢየሱስ	-11.3428
▁ለእውነት	-11.3428
▁መሳፍንቱ	-11.3428
▁መደነቂያ	-11.3428
▁ማረፊያ	-11.3428
▁ረጃጅ	-11.3428
▁ሰንባላጥ	-11.3428
▁ሰይፋቸውን	-11.3428
▁ሴሰኝነት	-11.3428
▁በመዝገብ	-11.3428
▁በሰረገሎች	-11.3428
▁በትእዛዜ	-11.3428
▁በአማልክት	-11.3428
▁በኢዮአብ	-11.3428
▁በእልልታ	-11.3428
▁በውኆች	-11.3428
▁በዘጠኝ	-11.3428
▁በየሰሞናቸው	-11.3428
▁በጌሤም	-11.3428
▁በጻድቃን	-11.3428
▁ቤትሖሮን	-11.3428
▁ቤትሳሚስ	-11.3428
▁ተመልከቺ	-11.3428
▁ተዘልሎ	-11.3428
▁ታደርገዋለህ	-11.3428
▁ታደርጋቸዋለህ	-11.3428
▁አልተመለሰችም	-11.3428
▁አርፋክስድ	-11.3428
▁አሸነፈ	-11.3428
▁አታመንዝር	-11.3428
▁አጥማጆች	-11.3428
▁እግረኞች	-11.3428
▁እጸልያለሁ	-11.3428
▁እፈጽማለሁ	-11.3428
▁ከሽማግሌዎች	-11.3428
▁ከኃጢአቱ	-11.3428
▁ከአምላካችን	-11.3428
▁ከኢዮአብ	-11.3428
▁ከእያንዳንዱ	-11.3428
▁ከከለዳውያን	-11.3428
▁ከድንጋይ	-11.3428
▁ኩብኩባ	-11.3428
▁ዑዝኤል	-11.3428
▁የሕዝቅያስ	-11.3428
▁የመቅደስ	-11.3428
▁የምስክሩን	-11.3428
▁የቄሣር	-11.3428
▁የቢዖር	-11.3428
▁የኃያላን	-11.3428
▁የነቢዩ	-11.3428
▁የአሚናዳብ	-11.3428
▁የአካዝያስ	-11.3428
▁የኢያሪኮ	-11.3428
▁የእያንዳንዱ	-11.3428
▁የኪሩቤል	-11.3428
▁የኬልቅያስ	-11.3428
▁ያደርጋቸዋል	-11.3428
▁ይረግፋል	-11.3428
▁ይሰናከላሉ	-11.3428
▁ይታወቃል	-11.3428
▁ጺቅላግ	-11.3428
▁ፌርዛውያን	-11.3428
ግመሎቻቸው	-11.3428
▁መርከበኞ	-11.3428
▁ሱባዔ	-11.3428
▁ከቃዴስ	-11.3428
ኪልቅያ	-11.3428
▁ሄኖክ	-11.3428
▁መሓሪ	-11.3428
▁በባሪያው	-11.3428
▁ተመልሼ	-11.3428
▁ተቀመጪ	-11.3428
▁ትችላላችሁ	-11.3428
▁አልነበሩም	-11.3428
▁ከመቃብር	-11.3428
▁ከአንበሳ	-11.3428
▁የእንጀራ	-11.3428
▁ይባርካ	-11.3428
▁ይታመናሉ	-11.3428
▁ጩኹ	-11.3428
ተሰሎንቄ	-11.3428
▁ለበጣቸው	-11.3428
▁ልታደርጉ	-11.3428
▁ምስኪን	-11.3428
▁ከዝሙት	-11.3428
▁ይውሰዱ	-11.3428
▁ይያዛል	-11.3428
▁ገለበጠ	-11.3428
▁ፈወሳቸው	-11.3428
▁ፈጣኖች	-11.3428
ዓይበታቸው	-11.3428
▁በግመሎች	-11.3428
▁ተሰብሰቡ	-11.3428
▁አላውቀውም	-11.3428
▁አንጀቴ	-11.3428
▁እመለከታለሁ	-11.3428
▁ይሂዱ	-11.3428
▁ይክፈል	-11.3428
በዘበዘ	-11.3428
አቢዳራ	-11.3428
▁ከአጐዛ	-11.3428
▁ያርፋል	-11.3428
▁ጸናጽል	-11.3428
▁ባስልኤል	-11.3428
መጠየቅ	-11.3428
▁ይፈስሳል	-11.3428
▁በእርሳቸው	-11.3428
▁ነፍሳችን	-11.3428
▁ማሰሪያ	-11.3428
▁በየወገኑ፥	-11.3428
▁በጢሮስ	-11.3428
▁ይዘምራሉ	-11.3428
ንከባለ	-11.3428
ወዳጆቼ	-11.3428
ትሑታን	-11.3428
▁ድሪዎች	-11.3428
ያነግሡ	-11.3428
▁በእግራቸው	-11.3428
▁በወይኑ	-11.3428
▁ተጨነቀ	-11.3428
▁ዋርሳ	-11.3428
▁ፀዳል	-11.3428
▁ሸክሙ	-11.3428
▁ዮቶር	-11.3428
▁ለአምላካችሁ	-11.3428
▁በተገደሉት	-11.3428
▁በገበያ	-11.3428
▁እስከዚያ	-11.3428
▁ያድናቸዋል	-11.3428
ገሠጹ	-11.3428
▁ቴማን	-11.3428
▁ናፍቆ	-11.3428
▁እመቤት	-11.3428
▁ይሂድ	-11.3428
▁ጀመሩ	-11.3428
▁ያድነዋል	-11.3428
▁ውካታ	-11.3428
▁የሙታን	-11.3428
▁በዘፈን	-11.3428
▁ከሰባቱ	-11.3428
▁ሰጥቼአለሁ	-11.3428
መንፈሳችሁ	-11.3428
▁ይቀጠቅጣ	-11.3428
▁በአካዝ	-11.3428
▁ተጠርቶ	-11.3428
▁ማርቆስ	-11.3428
ሰናበታቸው	-11.3428
▁የእናትህ	-11.3428
▁ባልቴት	-11.3428
▁ይሮጣሉ	-11.3428
▁ከቀድሞ	-11.3428
▁በአዲስ	-11.3428
▁የልቡን	-11.3428
ወንዶቹ	-11.3428
▁አሞናዊ	-11.3428
▁የለበሱ	-11.3428
▁የሴኬም	-11.3428
ኦፌር	-11.3428
▁ምክሬ	-11.3428
▁ጥቁር	-11.3428
▁በሙታን	-11.3428
ገሠጽ	-11.3428
▁አዘዙ	-11.3429
▁ባርኮ	-11.3429
▁ጠርቼ	-11.3429
▁አመነዘሩ	-11.3429
ሸነፍ	-11.3429
▁ምረጡ	-11.3429
▁ነቅቶ	-11.3429
▁ተሰውሮ	-11.3429
▁ተወሰደ	-11.3429
▁ይጠግባል	-11.3429
▁መውጣት	-11.3429
▁ሳምናስ	-11.3429
▁ሰበከ	-11.3429
▁ቀድዶ	-11.3429
▁ያብባል	-11.3429
▁ሐሴት	-11.3429
ታስተምር	-11.3429
▁መሠውያ	-11.3429
▁ዓምዶች	-11.3429
▁አይዘገይም	-11.3429
▁እዘዛቸው።	-11.3429
ጠይቀው	-11.3429
▁አትተወ	-11.3429
ሰይፉ	-11.343
ልዑሉ	-11.343
▁እፈራለሁ	-11.343
▁ቀለብ	-11.343
ከንፈሬ	-11.343
▁ምንደኛ	-11.343
▁ያጥኑ	-11.343
▁ኮቴ	-11.343
▁የተጠሩት	-11.343
▁ይቤዠው	-11.343
▁መረጥሁ	-11.343
ድካሙ	-11.343
▁ያግቡ	-11.343
▁ቀርባለች	-11.343
▁ይጥፉ	-11.343
ዓዝሞት	-11.3431
▁አፍንጫ	-11.3431
▁በዘርህ	-11.3431
▁መገዛት	-11.3431
▁በልቶአል	-11.3431
▁ተመልክተ	-11.3431
▁አቅኑ	-11.3431
ረገጡ	-11.3431
▁ከባልዋ	-11.3432
▁እሠዋ	-11.3432
ዋኖስ	-11.3432
▁ዓለቱ	-11.3432
ላሞቻቸው	-11.3432
ቶፌት	-11.3432
▁ይበረታል	-11.3433
ባሶራ	-11.3433
▁ንቀት	-11.3435
▁የተገደለ	-11.3435
▁ይሞላሉ	-11.3435
ክረምት	-11.3435
ይስዓር	-11.3435
ተጠለፈ	-11.3437
ረድቶ	-11.3439
ዘኩር	-11.3441
▁ቀዩን	-11.3441
ማንጻት	-11.3443
▁ያድናል	-11.3443
በቀሉ	-11.3445
ማጽናናት	-11.3447
መቄዳ	-11.3447
ተገረዘ	-11.3447
▁የማይችሉ	-11.3447
ያዋርድ	-11.3448
ማፍረስ	-11.3452
ያሰኙ	-11.3456
መለካ	-11.3457
አሮጌው	-11.3458
ረገጥ	-11.3458
▁አጣሁ	-11.3459
ተማራችሁ	-11.346
አዜብ	-11.3461
ያገኛቸው	-11.3495
ታረቅ	-11.3497
▁አለቆቻች	-11.3498
▁በመኝታ	-11.3551
▁ሆናችኋል	-11.3571
▁ይዘራል	-11.3587
▁ኢያቡሳዊ	-11.3618
ልጆችዋ	-11.3625
ለመታዘዝ	-11.3658
▁ኃያላ	-11.3662
ወልደ	-11.3672
ሚጠሩት	-11.3677
ሌዋዊው	-11.3715
ተመረጡት	-11.3819
▁ኪዳኔ	-11.4041
ደብዳቤው	-11.4056
▁ድምፃቸው	-11.407
▁መሥዋዕ	-11.4084
ውማለሁ	-11.4087
ያስፈልግ	-11.4095
መሰምርያቸው	-11.4125
▁ፍሬያማ	-11.4141
መግቢያው	-11.4145
ፍልስጥኤማዊው	-11.4168
▁ይነግረ	-11.4182
ግብፅ	-11.4274
▁የአምላካችን	-11.4276
ተጠጋ	-11.4301
▁ታዘዙ	-11.4302
ደከመች	-11.4334
ሦስተኛው	-11.4429
ዮአስ	-11.4475
ኋለኛው	-11.4517
ጭፍሮች	-11.4517
እንቅልፍ	-11.4518
ጌዴዎን	-11.4518
አትክልት	-11.4519
ጩኸት	-11.4519
አራዊት	-11.452
ሰገዱ	-11.4531
እፍረት	-11.4533
▁መዛሙር	-11.4547
ተጻፈ	-11.4577
ዘበኞቹ	-11.4586
▁በመጨረሻ	-11.4594
ሚያስፈራ	-11.4599
▁በባልንጀራ	-11.4599
ሚታዘዙ	-11.4604
▁ምስክሮ	-11.4652
ከተለው	-11.4656
ገዢው	-11.4669
ደነግጣ	-11.4677
*	-11.4678
ፆ	-11.4678
▁ያገለግላ	-11.4678
1	-11.4678
ላውዴዎ	-11.4678
ስደነግጥ	-11.4678
ነጦፋዊው	-11.4678
ንጸባረቀ	-11.4678
አህሊባማ	-11.4678
ወይፈኖቹ	-11.4678
ዓይኖቻችን	-11.4678
ያመነዝሩ	-11.4678
ይረሕምኤል	-11.4678
ገለዓዳዊው	-11.4678
▁ለመሠዊያ	-11.4678
▁ለተቀመጠው	-11.4678
▁መሳለቂያ	-11.4678
▁መበስበስን	-11.4678
▁መክፈቻ	-11.4678
▁ምዋርተኞች	-11.4678
▁ረድኤት	-11.4678
▁ሰሎሚት	-11.4678
▁ሸምግሎ	-11.4678
▁ሽምግልና	-11.4678
▁ቆርኔሌዎስ	-11.4678
▁ቈረቈሩ	-11.4678
▁ቋቁቻ	-11.4678
▁በለመለመ	-11.4678
▁በማኅበር	-11.4678
▁በቀርሜሎስ	-11.4678
▁በባሪያዎችህ	-11.4678
▁በቤርሳቤህ	-11.4678
▁በአብርሃም	-11.4678
▁በኢሳይያስ	-11.4678
▁በኤፌሶን	-11.4678
▁በእንጨቱ	-11.4678
▁በኮረብቶቹ	-11.4678
▁በወንድሞቻቸው	-11.4678
▁በዓይኖችህ	-11.4678
▁በዙፋኔ	-11.4678
▁በየአገሩ	-11.4678
▁በጸናጽል	-11.4678
▁ተጸጸተ	-11.4678
▁ታምኛለሁና	-11.4678
▁ታኖረዋለህ	-11.4678
▁ትወርሳላችሁ	-11.4678
▁ናዝሬት	-11.4678
▁አልከለከ	-11.4678
▁አሻቅቦ	-11.4678
▁አነድዳለሁ	-11.4678
▁አውቃችኋልና	-11.4678
▁አጥፍቶ	-11.4678
▁ኢያሪሙት	-11.4678
▁እሰባብራለሁ፤	-11.4678
▁እሰጣታለሁ	-11.4678
▁እቈርጣለሁ	-11.4678
▁እበቀላለሁ	-11.4678
▁እንዲያገለግሉ	-11.4678
▁እገልጣለሁ	-11.4678
▁እገድላለሁ	-11.4678
▁እጨምራለሁ	-11.4678
▁ከልጆቻቸው	-11.4678
▁ከሲኦል	-11.4678
▁ከባሪያዎቹ	-11.4678
▁ከአለቆቹ	-11.4678
▁ከአሮዔር	-11.4678
▁ከኢታምር	-11.4678
▁ከደማስቆ	-11.4678
▁ከጠላቶቻችን	-11.4678
▁ኩላቦች	-11.4678
▁ወላጆቹ	-11.4678
▁የመጽሐፍ	-11.4678
▁የምትቀመጪ	-11.4678
▁የቅብዓቱን	-11.4678
▁የቅንዓት	-11.4678
▁የቢክሪ	-11.4678
▁የባልንጀራውን	-11.4678
▁የባሪያይቱ	-11.4678
▁የአኪጦብ	-11.4678
▁የኢያዕር	-11.4678
▁የእርሻውን	-11.4678
▁የኬብሮን	-11.4678
▁የዘንበሪ	-11.4678
▁የጌድሶን	-11.4678
▁ያሰረችበት	-11.4678
▁ይመሰክራል	-11.4678
▁ይጠቅመዋል	-11.4678
▁ደመወዙ	-11.4678
▁ጐበዛዝቱ	-11.4678
▁ጠብቄአለሁ	-11.4678
አላዋቂዎች	-11.4678
▁መሰደቢያ	-11.4678
▁በድንጋጤ	-11.4678
▁ትሰጣቸዋለህ	-11.4678
▁ትወልዳለች	-11.4678
▁ትጠብቃለህ	-11.4678
▁አኖራቸው፤	-11.4678
▁ዝባድያ	-11.4678
▁የሠላሳ	-11.4678
▁የቤቴል	-11.4678
▁ድስቶቹን	-11.4678
▁ቀሠፈው	-11.4678
▁በቴርሳ	-11.4678
▁ተገረሙና	-11.4678
▁አትውሰድ	-11.4678
▁ኤሊፋላት	-11.4678
▁የምሥራች	-11.4678
▁የወፍጮ	-11.4678
▁ይወሰዳል	-11.4678
▁ይፈርሳሉ	-11.4678
▁ፍቀድልኝ	-11.4678
▁በሄኖም	-11.4678
▁ባልቴቶች	-11.4678
▁ነግሦ	-11.4678
▁አይቻለኝም	-11.4678
▁የመሰንቆ	-11.4678
▁የበረሀ	-11.4678
▁ይታገሣል	-11.4678
▁ይንገሥ	-11.4678
▁ይደረጋል	-11.4678
▁አስጠንቅ	-11.4678
▁ከአለቆች	-11.4678
▁ከእጃችሁ	-11.4678
▁ዓብዶን	-11.4678
▁የኤልያብ	-11.4678
▁ይበተናሉ	-11.4678
▁ዲቦራ	-11.4678
▁ለብንያም	-11.4678
▁ወሰዳት	-11.4678
▁የምነግርህን	-11.4678
▁የገሊላ	-11.4678
▁ፊልክስ	-11.4678
▁ይልበሱ	-11.4678
▁ይውሰድ	-11.4678
▁መሣርያ	-11.4678
▁ተሸሽጎ	-11.4678
▁አሳዳጆ	-11.4678
▁ደጆቹ	-11.4678
▁ለከንቱ	-11.4678
▁ቃይንም	-11.4678
▁ተሰረየ	-11.4678
▁ትቀበላላችሁ	-11.4678
▁ከተገደሉት	-11.4678
▁ወድቀዋል	-11.4678
▁እበትናቸዋለሁ	-11.4678
▁ለሚወድዱ	-11.4678
ኤዶማውያን	-11.4678
▁ግድግዳ	-11.4678
ተራቈተ	-11.4678
▁ይርቃል	-11.4678
▁ይንገሩ	-11.4678
▁ናዝራዊ	-11.4678
ምድያማውያን	-11.4678
▁ቈረጡ	-11.4678
▁ትካዜ	-11.4678
▁አልረሳሁም	-11.4678
▁እያለቀሰ	-11.4678
እንቈቅል	-11.4678
▁ለማነጽ	-11.4678
▁በምድራችሁ	-11.4678
▁ሰልሞን	-11.4678
▁ሰራብያ	-11.4678
▁በብብት	-11.4678
▁አዋርደ	-11.4678
ሰናዖር	-11.4678
ኃያሉ	-11.4678
▁የስንዴ	-11.4678
▁ከቀዓት	-11.4678
▁ይገድላል	-11.4678
▁በመባቻ	-11.4678
▁ዘግቶ	-11.4678
▁ይጭናሉ	-11.4678
▁መልእክተኞቹ	-11.4678
▁ስቀለው	-11.4678
▁መለከቶች	-11.4678
▁መስኮት	-11.4678
▁አጥፋቸው	-11.4678
▁ከሰማርያ	-11.4678
▁ሕማም	-11.4678
▁የተገደሉት	-11.4678
▁ገባዖን	-11.4678
▁መውጊያ	-11.4678
▁በሌሎች	-11.4678
ወረቀት	-11.4678
ንቀላፉ	-11.4678
ኤድራይ	-11.4678
▁የወንዶች	-11.4678
▁ያዝዛል	-11.4678
▁በተዘረጋች	-11.4678
▁ምድጃ	-11.4678
▁ያርደዋል	-11.4678
▁አሳይሃለሁ	-11.4678
▁አፍስሶ	-11.4678
▁የስድብ	-11.4678
▁የማይገባውን	-11.4678
▁የተራሮች	-11.4678
▁በርባንን	-11.4678
▁አመለጠ	-11.4678
▁ይልካል	-11.4678
▁ሰድዶ	-11.4678
▁በመልካሙ	-11.4678
መግለጥ	-11.4678
▁ተሰጥታለች	-11.4678
▁የእግሩ	-11.4678
▁በተናገርሁ	-11.4678
▁ቀለጡ	-11.4678
▁አገኛቸው	-11.4679
▁ድህነት	-11.4679
▁ገልጦአል	-11.4679
▁አለበሱ	-11.4679
ያመልጡ	-11.4679
▁ዕውሩ	-11.4679
▁ሰላሙ	-11.4679
እስረኞች	-11.4679
▁አልተመለሰም	-11.4679
▁ከአሳፍ	-11.4679
▁በፋርስ	-11.4679
▁ይሰበራል	-11.4679
▁እኩሉ	-11.4679
▁ፍዳቸውን	-11.4679
▁ገዓል	-11.4679
▁ይጠግባሉ	-11.4679
▁የወንዙ	-11.4679
▁ይድናሉ	-11.4679
ማረካቸው	-11.4679
▁ስደዱ	-11.4679
ትውልዱ	-11.4679
▁አሞራዊውን	-11.4679
▁ዝንጉ	-11.4679
ቍጥቋጦው	-11.468
▁ትሠራለህ	-11.468
▁አያታልል	-11.468
▁አስቀመጡት	-11.468
▁ትጠፋለች	-11.468
▁በአባትህ	-11.468
ያሸንፍ	-11.468
ወልዱ	-11.4681
▁ትጠፋላችሁ	-11.4681
▁ያልቃሉ	-11.4681
▁ከበቡኝ	-11.4681
▁እሰማለሁ	-11.4682
ረዘሙ	-11.4682
▁ርቆአል	-11.4683
ሞገዱ	-11.4684
ቆማችሁ	-11.4684
የዓይነ	-11.4684
አጫጆች	-11.4684
መልሳት	-11.4685
▁ተማምለ	-11.4686
ቀሠፍ	-11.4686
ተጠረበ	-11.4689
መብራቱ	-11.4694
▁ምራኝ	-11.4694
ዓቁብ	-11.4697
▁ማሰሮ	-11.4698
ያገኛችሁ	-11.4704
▁ዘርግተ	-11.4704
ለብሳቸዋለ	-11.471
▁ካሳተ	-11.4712
ሚያጠቡ	-11.4713
ከረጢ	-11.4714
▁ተለይታ	-11.4716
ስተሰር	-11.4732
▁አድርጋችኋል	-11.4801
ሽማግሌዎቹም	-11.4831
እልፍኙ	-11.4844
ሰበንያ	-11.4855
ክፈፉ	-11.4903
ሚዋጉ	-11.4907
ያስቀሩ	-11.504
ሰማያዊውን	-11.5209
▁ታስወግ	-11.539
መቀመጫው	-11.5541
▁ለወንድሞቹ	-11.5559
▁መቅሰፍ	-11.5644
▁ጣዖቶ	-11.5694
ተናገርኋችሁ	-11.5712
ወጣኋችሁ	-11.5736
ሚከተሉ	-11.5746
▁የሚሰግዱ	-11.5799
ታዘዙት	-11.5846
ሰባተኛው	-11.5857
▁የዘበኛ	-11.5914
መጥመቂያ	-11.5945
ፊንሐስ	-11.5945
ጎዶልያስ	-11.5946
ወዳጅ	-11.5953
መኖሪያ	-11.5955
ያንዳንዳቸው	-11.6086
▁ፈጽማ	-11.6099
እጆቼ	-11.6103
ኽ	-11.6106
v	-11.6106
ሂሶጵ	-11.6106
ሕፃንነትሽ	-11.6106
መዛግብቱ	-11.6106
ሞዓባዊቱ	-11.6106
ሴፈርዋይም	-11.6106
ቀርሜሎሳዊ	-11.6106
ተኵላዎች	-11.6106
ኃጥአን	-11.6106
ኤሽታኦል	-11.6106
እስራኤላውያን	-11.6106
ዔጽዮንጋብር	-11.6106
ያገለግለኝ	-11.6106
ደነግጡ	-11.6106
ጎቶንያል	-11.6106
ፈሊታውያን	-11.6106
▁KWTa	-11.6106
▁ለመደነቂያ	-11.6106
▁ለባሪያዎቹ	-11.6106
▁ለችግረኛ	-11.6106
▁ለኢዮአብ	-11.6106
▁ለእንግዶች	-11.6106
▁ሐውልቶች	-11.6106
▁ሕፃናቶቻ	-11.6106
▁መስኮቶቹ	-11.6106
▁መቅደሴን	-11.6106
▁ማንደጃዎቹን	-11.6106
▁ምሕረቴ	-11.6106
▁ምስሎቻቸው	-11.6106
▁ሲያስተምር	-11.6106
▁ቂርያትአርባቅ	-11.6106
▁በሆሴዕ	-11.6106
▁በመላእክት	-11.6106
▁በመጽሐፉ	-11.6106
▁በቅንዓቴ	-11.6106
▁በተመሸጉ	-11.6106
▁በችኰላ	-11.6106
▁በኃጢአተኞች	-11.6106
▁በኃጢአታችሁ	-11.6106
▁በዓናቶት	-11.6106
▁በዓይኖቹ	-11.6106
▁በይስሐቅ	-11.6106
▁በጕድጓዱ	-11.6106
▁ብታሰናክልህ	-11.6106
▁ተረድቼአለሁ	-11.6106
▁ተባባሪዎ	-11.6106
▁ተተክሎ	-11.6106
▁ተከናወነ	-11.6106
▁ተወልዶአል	-11.6106
▁ተዘግቶ	-11.6106
▁ተደፍተው	-11.6106
▁ተፈቅዶአልን	-11.6106
▁ታቃጥላለህ	-11.6106
▁ኃጢያ	-11.6106
▁ኒካዑ	-11.6106
▁አርሞንዔም	-11.6106
▁አትመስክር	-11.6106
▁አትዘግይ	-11.6106
▁አከብራለሁ	-11.6106
▁አድርአዛር	-11.6106
▁ኤዊያዊውን	-11.6106
▁ኤፌሶን	-11.6106
▁እሆነዋለሁ	-11.6106
▁እልከኝነት	-11.6106
▁እሰበስባችኋለሁ	-11.6106
▁እንስሶቹ	-11.6106
▁እውነተኞች	-11.6106
▁እደክማለሁ	-11.6106
▁እግዚአ	-11.6106
▁እፈርዳለሁ	-11.6106
▁ከመላእክት	-11.6106
▁ከምድሪቱ	-11.6106
▁ከቤርሳቤህ	-11.6106
▁ከኃጢአቴ	-11.6106
▁ከአክዓብ	-11.6106
▁ከእንጀራው	-11.6106
▁ከኪሩቤል	-11.6106
▁ከወይፈኑ	-11.6106
▁ከጊብዓ	-11.6106
▁ኮረጆ	-11.6106
▁ኰበለሉ	-11.6106
▁ዐፀዶቹን	-11.6106
▁ዓይናችሁን	-11.6106
▁የመማፀኛ	-11.6106
▁የመታሰቢያ	-11.6106
▁የሰላትያል	-11.6106
▁የተሸሸገ	-11.6106
▁የታመመውን	-11.6106
▁የእልልታ	-11.6106
▁የእፉኝት	-11.6106
▁የይሮሐም	-11.6106
▁የደማስቆ	-11.6106
▁የድሆችን	-11.6106
▁ያመሰግናሉ	-11.6106
▁ያመነዝራል	-11.6106
▁ያሰኘው	-11.6106
▁ያዋርዳል	-11.6106
▁ይሰበካል	-11.6106
▁ይደነቃሉ	-11.6106
▁ይደነቃል	-11.6106
▁ደኅነኛው	-11.6106
▁ድንኳኖቻ	-11.6106
▁ግልገል	-11.6106
▁ግብጻዊ	-11.6106
▁ጎቶሊያ	-11.6106
▁ጕብጕቦቹ	-11.6106
▁ጣፋጩን	-11.6106
▁ጫጩቶች	-11.6106
▁ጳስኮር	-11.6106
▁ጸሎታቸውን	-11.6106
▁ፌርዛዊው	-11.6106
ቂርያታይም	-11.6106
ንጉሣችሁ	-11.6106
ንጉሣችን	-11.6106
ውሽሞችሽ	-11.6106
▁ሆሴዕ	-11.6106
▁ለመታረድ	-11.6106
▁መጥረቢያ	-11.6106
▁ሸመገለ	-11.6106
▁በበረሃ	-11.6106
▁ተማከረ	-11.6106
▁ትመለከታለህ	-11.6106
▁ትመልሳለህ	-11.6106
▁ትውልዳቸው	-11.6106
▁ትፈርዳለህ	-11.6106
▁ንጉሤ	-11.6106
▁አፈስሳለሁ	-11.6106
▁እንዳታደርጉ	-11.6106
▁ወረወረ	-11.6106
▁ይመስለኛል	-11.6106
▁ይደክማሉ	-11.6106
▁ድውዮችን	-11.6106
▁ጩኺ	-11.6106
ባለጠጎች	-11.6106
ጕብዝና	-11.6106
▁ለመቅደስ	-11.6106
▁ለወንዶች	-11.6106
▁ልምላሜ	-11.6106
▁መታጠቢያ	-11.6106
▁ቁመታቸው	-11.6106
▁ቁባቶች	-11.6106
▁በብዔል	-11.6106
▁በከበሮ	-11.6106
▁በፍጥነት	-11.6106
▁ተገረሙ።	-11.6106
▁አትስረቅ	-11.6106
▁እፍረታቸውን	-11.6106
▁ከሴኬም	-11.6106
▁ከስፍራቸው	-11.6106
▁ከካህኑ	-11.6106
▁የኀዘን	-11.6106
▁የግንቡን	-11.6106
▁ያስተምራል	-11.6106
▁ይደርቃሉ	-11.6106
ያብረቀርቅ	-11.6106
▁በመጽናት	-11.6106
▁ተዘርግታ	-11.6106
▁አስቀራለሁ	-11.6106
▁አንደበቴ	-11.6106
▁ከተፈጠረ	-11.6106
▁የመንግሥቱን	-11.6106
▁ያረክሳ	-11.6106
▁ጋኔኑ	-11.6106
ልተመለሳችሁ	-11.6106
▁ለሰባቱ	-11.6106
▁ሳቤዔ	-11.6106
▁በነቢይ	-11.6106
▁ካደረገ	-11.6106
▁የመረጥሁት	-11.6106
▁ይሰድዳል	-11.6106
▁ጩኽ	-11.6106
▁ለመስጠት	-11.6106
▁ለብጣቸው	-11.6106
▁ለአሦር	-11.6106
▁አልታየም	-11.6106
▁የሚያስተምር	-11.6106
▁ገዳዮች	-11.6106
▁ጠባቆች	-11.6106
▁እከፍታለሁ	-11.6106
▁ፋሌቅ	-11.6106
▁በመቃብሩ	-11.6106
▁በቅዱሱ	-11.6106
ዉ	-11.735
ዠ	-11.7767
ኹ	-11.7772
ጱ	-11.7773
ፐ	-11.7773
"	-11.7773
ፓ	-11.7773
l	-11.7773
2	-11.9773
s	-11.9773
D	-12.2273
ኺ	-12.5606
ጰ	-12.5606
3	-12.5606
]	-12.5606
o	-12.5606
ፄ	-12.5606
ፂ	-13.0606
)	-13.0606
-	-13.0606
5	-13.0606
A	-13.0606
e	-13.0606
ቊ	-13.0606
ዷ	-13.0606
(	-14.0583
ፒ	-14.0584
ፑ	-14.0585
[	-14.0586
ሷ	-14.0587
d	-14.0588
T	-14.0589
ፔ	-14.059
k	-14.0591
ኾ	-14.0592
r	-14.0593
ኄ	-14.0594
g	-14.0595
K	-14.0596
ዡ	-14.0597
ዦ	-14.0598
ኡ	-14.0599
W	-14.06
ፁ	-14.0601
ዐ	-14.0602
ኘ	-14.0603
ኵ	-14.0604
ኅ	-14.0605
0	-14.0606
4	-14.0606
@	-14.0606
b	-14.0606
m	-14.0606
u	-14.0606
ቷ	-14.0606
ቿ	-14.0606
ኗ	-14.0606
ኲ	-14.0606
ኼ	-14.0606
ጒ	-14.0606
ጧ	-14.0606
ፏ	-14.0606
ሏ	-14.0606
ኞ	-14.0606
ኟ	-14.0606
