<pad>	0
</s>	0
<unk>	0
▁ܕ	-0
▁ܐ	-1
▁ܘ	-2
▁ܠ	-3
ܝܢ	-4
▁ܡ	-5
ܘܢ	-6
▁ܗ	-7
▁ܒ	-8
ܬܐ	-9
ܢܐ	-10
▁ܗܘ	-11
▁ܥ	-12
ܠܐ	-13
ܝܬ	-14
ܡܪ	-15
ܝܐ	-16
▁ܘܐ	-17
▁ܕܐ	-18
▁ܐܢ	-19
▁ܡܢ	-20
▁ܟ	-21
▁ܢ	-22
▁ܠܗ	-23
▁ܚ	-24
▁ܠܐ	-25
ܪܐ	-26
ܗܝ	-27
ܡܐ	-28
ܠܗ	-29
▁ܫ	-30
▁ܝ	-31
ܟܘܢ	-32
▁ܬ	-33
ܫܐ	-34
▁ܕܝܢ	-35
▁ܐܝ	-36
▁ܩ	-37
▁ܓ	-38
ܡܢ	-39
ܠܝܢ	-40
ܚܐ	-41
ܘܗܝ	-42
ܕܐ	-43
ܝܪ	-44
ܫܘ	-45
▁ܗܘܐ	-46
ܗܘ	-47
▁ܥܠ	-48
ܘܬܐ	-49
▁ܪ	-50
▁ܐܢܬ	-51
ܘܬ	-52
ܒܐ	-53
▁ܐܢܐ	-54
ܠܗܐ	-55
▁ܤ	-56
▁ܕܡ	-57
ܗܘܢ	-58
ܪܝ	-59
ܕܡ	-60
▁ܐܡܪ	-61
▁ܕܢ	-62
ܫܘܥ	-63
▁ܦ	-64
ܠܝ	-65
▁ܓܝܪ	-66
ܒܪ	-67
ܠܡ	-68
▁ܐܝܟ	-69
ܝܕ	-70
ܒܕ	-71
▁ܡܫ	-72
ܛܠ	-73
▁ܘܐܡܪ	-74
ܘܪ	-75
ܘܤ	-76
ܥܐ	-77
▁ܠܡ	-78
▁ܘܠܐ	-79
▁ܘܡ	-80
▁ܝܫܘܥ	-81
▁ܠܗܘܢ	-82
▁ܗܘܘ	-83
▁ܐܬ	-84
▁ܕܒ	-85
ܫܡ	-86
ܟܐ	-87
▁ܐܦ	-88
▁ܐܠܐ	-89
▁ܐܢܬܘܢ	-90
▁ܕܠܐ	-91
▁ܟܕ	-92
▁ܥܡ	-93
ܝܠ	-94
ܘܠ	-95
▁ܘܟ	-96
ܢܝ	-97
▁ܘܒ	-98
▁ܠܟܘܢ	-99
▁ܡܛܠ	-100
▁ܘܢ	-101
▁ܕܥ	-102
ܕܥ	-103
▁ܠܝ	-104
▁ܒܪ	-105
▁ܕܚ	-106
▁ܙ	-107
ܒܝ	-108
▁ܗܝ	-109
ܬܪ	-110
▁ܛ	-111
ܝܚܐ	-112
▁ܐܝܬ	-113
▁ܕܝ	-114
ܟܠ	-115
▁ܐܚ	-116
▁ܕܐܠܗܐ	-117
ܕܝ	-118
ܘܡ	-119
▁ܡܠ	-120
ܗܘܐ	-121
ܕܝܢ	-122
▁ܢܦ	-123
ܘܒ	-124
ܫܬ	-125
▁ܫܡ	-126
▁ܠܘܬ	-127
▁ܚܕ	-128
ܝܡ	-129
ܒܘ	-130
ܬܗ	-131
▁ܐܠܗܐ	-132
ܢܘܢ	-133
ܬܝ	-134
▁ܒܗ	-135
▁ܗܟ	-136
▁ܒܐ	-137
ܦܐ	-138
▁ܠܟ	-139
▁ܗܢܐ	-140
ܥܝܢ	-141
ܠܘ	-142
▁ܟܠܗ	-143
▁ܐܢܘܢ	-144
ܒܪܐ	-145
ܢܢ	-146
▁ܒܝ	-147
▁ܕܬ	-148
▁ܗܠܝܢ	-149
▁ܕܩ	-150
ܟܚ	-151
▁ܘܚ	-152
▁ܘܥ	-153
▁ܡܬ	-154
ܪܘ	-155
▁ܘܟܕ	-156
ܡܠ	-157
ܝܢܐ	-158
▁ܟܠ	-159
ܝܬܐ	-160
ܪܒ	-161
▁ܨ	-162
▁ܕܠ	-163
▁ܝܕܥ	-164
▁ܕܐܝܬ	-165
▁ܡܫܝܚܐ	-166
▁ܡܕܡ	-167
▁ܘܠ	-168
▁ܘܩ	-169
ܗܒ	-170
▁ܘܫ	-171
▁ܤܓ	-172
▁ܕܟ	-173
ܢܫܐ	-174
ܗܝܡܢ	-175
ܢܝܢ	-176
▁ܐܘ	-177
▁ܩܕܡ	-178
▁ܠܥ	-179
▁ܥܒܕ	-180
ܬܘܢ	-181
ܪܥܐ	-182
▁ܠܢ	-183
ܕܪ	-184
▁ܐܢܫ	-185
ܦܩ	-186
ܙܐ	-187
▁ܪܘ	-188
ܚܘ	-189
▁ܘܕ	-190
ܝܟ	-191
ܪܝܢ	-192
▁ܘܡܢ	-193
ܘܩ	-194
▁ܥܕ	-195
ܝܒ	-196
▁ܗܕܐ	-197
▁ܠܚ	-198
ܠܡܐ	-199
▁ܐܝܠܝܢ	-200
ܝܐܐ	-201
ܝܪܐ	-202
▁ܕܫ	-203
▁ܗܢܘܢ	-204
ܝܠܝܢ	-205
▁ܕܡܢ	-206
▁ܡܐ	-207
ܠܦ	-208
▁ܒܥ	-209
▁ܘܬ	-210
▁ܡܪ	-211
▁ܘܐܬ	-212
ܝܬܘܢ	-213
ܝܗܘܢ	-214
▁ܘܐܢ	-215
ܫܬܐ	-216
ܩܐ	-217
ܘܬܗ	-218
▁ܘܗ	-219
ܡܝܢ	-220
▁ܫܡܥ	-221
ܝܗ	-222
▁ܒܢ	-223
▁ܘܤ	-224
ܫܡܥ	-225
ܙܠ	-226
▁ܒܡ	-227
ܒܠ	-228
ܝܢܢ	-229
ܤܪ	-230
ܘܪܐ	-231
ܫܠܡ	-232
▁ܐܬܐ	-233
▁ܠܒ	-234
▁ܐܝܟܢܐ	-235
▁ܢܦܫ	-236
▁ܡܢܐ	-237
ܕܝܐ	-238
ܩܘ	-239
ܥܒܕ	-240
▁ܗܟܝܠ	-241
ܒܝܢ	-242
▁ܗܘܬ	-243
ܘܚ	-244
ܘܡܐ	-245
▁ܒܟ	-246
ܢܫ	-247
ܪܢܐ	-248
▁ܕܤ	-249
▁ܐܤ	-250
▁ܒܠ	-251
ܒܢ	-252
▁ܕܗ	-253
ܦܪ	-254
▁ܕܡܪ	-255
▁ܤܓܝܐܐ	-256
ܤܐ	-257
▁ܒܚ	-258
ܡܘܤ	-259
ܒܝܐ	-260
▁ܒܝܬ	-261
▁ܗܟܢܐ	-262
ܝܟܘܢ	-263
▁ܢܬ	-264
ܒܬܐ	-265
ܠܬܐ	-266
ܝܘ	-267
▁ܟܠܗܘܢ	-268
ܟܪ	-269
ܢܘ	-270
ܫܟܚ	-271
▁ܓܒܪܐ	-272
ܡܘܤܐ	-273
ܒܕܐ	-274
▁ܡܠܐ	-275
ܫܝ	-276
ܗܘܕܝܐ	-277
ܒܗ	-278
ܕܘ	-279
ܛܪ	-280
▁ܪܘܚܐ	-281
ܠܟ	-282
▁ܚܢܢ	-283
▁ܢܗܘܐ	-284
▁ܥܕܡܐ	-285
▁ܘܐܡܪܝܢ	-286
ܓܪ	-287
▁ܒܬܪ	-288
▁ܕܐܡܪ	-289
▁ܫܒ	-290
ܕܝܢܬܐ	-291
▁ܝܬ	-292
ܫܡܝܐ	-293
▁ܕܐܬ	-294
▁ܬܠܡ	-295
▁ܚܙ	-296
ܗܘܘܢ	-297
ܝܕܝܢ	-298
▁ܚܛ	-299
▁ܘܝ	-300
▁ܡܤ	-301
▁ܢܤ	-302
▁ܡܢܗ	-303
ܡܠܠ	-304
▁ܗܝܡܢ	-305
▁ܠܐܠܗܐ	-306
ܠܗܘܢ	-307
ܝܕܘܗܝ	-308
ܒܪܗ	-309
▁ܟܐ	-310
▁ܡܚ	-311
ܗܕ	-312
ܪܥ	-313
ܫܝܚܐ	-314
▁ܠܡܐ	-315
ܬܚ	-316
ܒܢܐ	-317
▁ܐܡܪܝܢ	-318
▁ܬܡܢ	-319
▁ܡܫܟܚ	-320
▁ܗܐ	-321
ܘܠܘܤ	-322
ܠܝܐ	-323
▁ܢܚ	-324
ܘܢܐ	-325
▁ܘܗܘ	-326
ܘܕ	-327
▁ܢܐ	-328
▁ܗܘܝܬ	-329
▁ܕܗܘ	-330
ܦܠ	-331
ܕܗ	-332
ܝܗܝ	-333
▁ܕܓ	-334
▁ܕܐܦ	-335
▁ܝܘܡ	-336
ܛܐ	-337
▁ܕܐܢ	-338
▁ܘܐܝܬ	-339
ܟܝ	-340
ܩܪ	-341
ܚܡ	-342
ܗܢܐ	-343
ܩܪܐ	-344
▁ܒܫ	-345
▁ܥܠܘܗܝ	-346
▁ܘܪ	-347
ܛܢܐ	-348
▁ܡܪܝ	-349
▁ܐܢܫܐ	-350
▁ܕܦ	-351
ܟܢܐ	-352
▁ܫܐ	-353
▁ܩܕܝ	-354
ܡܗ	-355
▁ܘܥܠ	-356
ܦܫ	-357
▁ܐܡܝܢ	-358
▁ܬܘܒ	-359
▁ܡܠܬܐ	-360
▁ܒܪܗ	-361
ܘܪܫܠܡ	-362
ܝܠܐ	-363
ܥܬܐ	-364
▁ܡܘ	-365
ܠܬ	-366
▁ܕܡܬ	-367
ܚܬܐ	-368
▁ܒܤ	-369
ܝܤ	-370
ܝܕܐ	-371
▁ܬܐ	-372
ܘܚܢܢ	-373
▁ܐܫܬ	-374
▁ܠܝܬ	-375
ܢܝܐ	-376
ܩܝܡ	-377
▁ܕܙ	-378
▁ܕܪ	-379
ܝܬܗ	-380
▁ܠܓ	-381
▁ܠܐܝܠܝܢ	-382
▁ܠܬ	-383
ܢܝܢܫܐ	-384
▁ܥܒܕܐ	-385
▁ܗܝܕܝܢ	-386
▁ܕܢܐ	-387
ܪܬܐ	-388
▁ܒܢܝ	-389
▁ܗܫܐ	-390
▁ܘܐܚ	-391
▁ܡܟ	-392
▁ܥܡܗ	-393
▁ܡܢܗܘܢ	-394
ܘܐ	-395
ܟܠܐ	-396
▁ܩܪ	-397
▁ܒܠܚܘ	-398
ܕܢܐ	-399
ܥܡ	-400
▁ܕܕ	-401
▁ܟܬ	-402
ܦܪܐ	-403
▁ܡܠܟ	-404
▁ܕܝܫܘܥ	-405
▁ܝܗܘܕܝܐ	-406
ܚܙ	-407
ܪܡ	-408
ܪܬ	-409
ܡܪܐ	-410
▁ܗܘܝܬܘܢ	-411
▁ܡܫܬ	-412
▁ܕܥܒܕ	-413
▁ܝܕܥܝܢ	-414
ܕܘܢ	-415
ܫܒ	-416
ܠܘܢ	-417
ܦܢܐ	-418
▁ܚܕܐ	-419
▁ܐܚܪܢܐ	-420
▁ܫܡܝܐ	-421
▁ܪܓ	-422
▁ܚܙܐ	-423
▁ܢܦܩ	-424
▁ܕܐܬܐ	-425
▁ܒܩ	-426
▁ܘܐܦ	-427
▁ܠܒܪ	-428
ܦܝܢ	-429
▁ܐܚܝ	-430
▁ܫܠܝ	-431
ܗܝܡܢܘܬܐ	-432
▁ܒܟܠ	-433
▁ܡܢܟܘܢ	-434
▁ܢܡܘܤܐ	-435
ܛܘܤ	-436
ܡܪܢ	-437
▁ܐܙ	-438
▁ܥܢܐ	-439
▁ܡܝܬܐ	-440
ܫܒܘ	-441
▁ܠܩ	-442
ܢܘܬܐ	-443
ܤܝ	-444
ܬܢ	-445
ܪܝܬܐ	-446
▁ܫܡܥܘܢ	-447
ܬܟ	-448
ܓܪܐ	-449
▁ܫܪ	-450
▁ܟܢܫܐ	-451
▁ܦܘܠܘܤ	-452
ܘܗ	-453
ܘܟ	-454
ܬܝܒ	-455
▁ܡܢܘ	-456
ܘܬܟܘܢ	-457
▁ܐܪܥܐ	-458
▁ܟܗܢܐ	-459
▁ܬܠܡܝܕܘܗܝ	-460
▁ܚܝܐ	-461
▁ܝܗܒ	-462
▁ܪܒܐ	-463
▁ܠܘܬܗ	-464
ܫܝܢ	-465
▁ܘܦ	-466
▁ܐܙܠ	-467
▁ܚܠܦ	-468
ܝܒܘܬܐ	-469
ܫܡܗ	-470
▁ܕܨ	-471
ܝܡܝܢ	-472
▁ܡܪܢ	-473
▁ܐܝܢܐ	-474
▁ܢܦܫܗ	-475
▁ܒܠܚܘܕ	-476
ܟܝܢ	-477
ܪܝܐ	-478
▁ܕܛ	-479
ܪܝܫܐ	-480
▁ܠܘܩ	-481
▁ܕܡܪܢ	-482
ܕܩ	-483
▁ܨܒܐ	-484
▁ܟܐܦܐ	-485
▁ܡܪܝܐ	-486
▁ܐܢܬܬܐ	-487
ܨܐ	-488
ܬܝܕ	-489
▁ܥܡܗܘܢ	-490
▁ܤܡ	-491
▁ܕܝܠ	-492
▁ܚܝ	-493
▁ܕܟܠ	-494
▁ܡܕܝܢܬܐ	-495
ܒܥ	-496
ܩܠ	-497
ܘܕܫܐ	-498
▁ܥܡܐ	-499
▁ܐܝܬܘܗܝ	-500
▁ܕܡܫܝܚܐ	-501
ܤܪܐ	-502
▁ܒܟܘܢ	-503
▁ܘܐܬܐ	-504
ܗܐ	-505
▁ܡܠܐܟܐ	-506
ܥܩ	-507
ܟܪܙ	-508
▁ܐܒܐ	-509
▁ܕܐܢܫܐ	-510
ܓܐ	-511
▁ܘܠܡ	-512
▁ܘܢܦܩ	-513
▁ܕܐܝܬܘܗܝ	-514
ܩܒܠ	-515
ܝܘܗܝ	-516
▁ܕܫܡܥ	-517
▁ܢܒܝܐ	-518
▁ܠܘܬܟܘܢ	-519
▁ܩܡ	-520
▁ܪܒ	-521
▁ܕܢܬ	-522
▁ܘܟܠ	-523
▁ܕܐܢܐ	-524
▁ܒܬ	-525
▁ܡܛ	-526
▁ܫܦ	-527
▁ܗܘܝ	-528
▁ܡܝܬ	-529
ܐܡ	-530
ܕܒ	-531
ܚܗ	-532
ܙܒܢ	-533
▁ܐܡ	-534
▁ܡܨ	-535
▁ܘܒܪ	-536
▁ܫܪܝ	-537
▁ܟܠܗܝܢ	-538
▁ܕܩܘܕܫܐ	-539
ܩܝܢ	-540
▁ܠܤ	-541
ܚܝܢ	-542
ܤܝܐ	-543
▁ܠܦ	-544
ܪܘܚܐ	-545
▁ܕܚܙ	-546
ܝܪܐܝܬ	-547
▁ܕܡܪܝܐ	-548
ܤܒ	-549
ܩܕ	-550
ܫܢܐ	-551
▁ܒܓ	-552
ܒܪܝܢ	-553
ܬܗܘܢ	-554
▁ܥܝܢ	-555
▁ܗܘܝܢ	-556
ܬܟܘܢ	-557
▁ܕܡܐ	-558
▁ܐܝܕܐ	-559
▁ܕܠܡܐ	-560
▁ܡܠܟܐ	-561
ܝܕܥ	-562
▁ܚܡ	-563
▁ܬܚ	-564
ܠܝܠܐ	-565
▁ܦܘܩ	-566
▁ܪܒܝ	-567
▁ܐܫܟܚ	-568
▁ܨܒܝܢ	-569
▁ܡܗܝܡܢ	-570
ܘܠܐ	-571
▁ܒܒ	-572
▁ܬܬ	-573
▁ܙܒܢܐ	-574
▁ܘܓ	-575
ܘܪܚܐ	-576
▁ܘܚܙ	-577
▁ܠܚܕ	-578
▁ܥܠܝܗܘܢ	-579
ܢܗ	-580
▁ܦܪ	-581
ܠܡܕܡ	-582
▁ܒܝܕ	-583
▁ܕܥܠ	-584
ܥܪ	-585
▁ܒܐܝܕ	-586
▁ܬܗܘܐ	-587
ܘܦ	-588
▁ܒܦ	-589
ܒܘܗܝ	-590
▁ܕܒܗ	-591
ܡܢܐ	-592
▁ܐܪ	-593
▁ܒܨ	-594
▁ܚܘ	-595
▁ܦܠ	-596
▁ܐܘܠ	-597
▁ܒܥܐ	-598
▁ܡܬܚ	-599
▁ܬܪܝܢ	-600
ܗܠܟ	-601
▁ܕܠܥ	-602
▁ܡܡܠܠ	-603
ܪܟܐ	-604
▁ܕܒܝ	-605
▁ܕܝܬ	-606
▁ܛܒܐ	-607
▁ܠܡܪ	-608
▁ܐܝܟܐ	-609
▁ܘܗܘܐ	-610
▁ܥܠܡܐ	-611
▁ܝܘܡܬܐ	-612
▁ܠܝܫܘܥ	-613
ܠܩ	-614
ܘܚܐ	-615
ܡܡܐ	-616
ܩܪܒ	-617
▁ܐܟ	-618
▁ܐܒܝ	-619
▁ܒܗܝܡܢܘܬܐ	-620
ܟܢ	-621
▁ܘܛ	-622
ܠܘܗܝ	-623
ܫܝܫܐ	-624
▁ܘܠܝ	-625
▁ܕܥܠܡܐ	-626
ܬܝܗܒ	-627
▁ܤܓܝܐ	-628
ܒܩ	-629
ܦܟ	-630
ܕܡܐ	-631
ܗܝܢ	-632
ܠܝܠ	-633
ܝܡܬܐ	-634
▁ܢܤܒ	-635
▁ܫܕܪ	-636
ܩܝ	-637
ܦܩܕ	-638
ܪܝܠ	-639
ܥܘ	-640
ܫܗ	-641
ܒܪܗܡ	-642
ܥܩܘܒ	-643
▁ܒܝܢ	-644
▁ܠܐܚ	-645
▁ܠܗܘ	-646
▁ܠܟܠ	-647
▁ܒܗܘܢ	-648
▁ܥܪ	-649
▁ܢܫܬ	-650
ܛܦ	-651
ܕܡܪ	-652
ܬܝܢ	-653
▁ܦܐ	-654
ܒܝܬܐ	-655
▁ܤܒܪ	-656
▁ܥܠܝ	-657
▁ܐܦܠܐ	-658
ܓܕ	-659
ܩܦ	-660
▁ܒܛ	-661
ܒܢܝܢ	-662
▁ܕܒܐ	-663
▁ܘܫܡܥ	-664
▁ܒܝܫܬܐ	-665
▁ܕܠܥܠܡ	-666
▁ܩܕܝܫܐ	-667
▁ܬܠܡܝܕܐ	-668
ܕܬܐ	-669
ܠܦܐ	-670
ܝܘܬܐ	-671
ܠܘܬܐ	-672
▁ܚܒܝ	-673
▁ܫܘܒ	-674
ܘܬܗܘܢ	-675
▁ܠܚܡܐ	-676
▁ܥܡܡܐ	-677
▁ܗܝܡܢܘܬܐ	-678
ܢܬ	-679
ܡܬܐ	-680
▁ܠܛ	-681
▁ܨܒ	-682
▁ܕܢܚ	-683
▁ܫܘܠ	-684
▁ܐܢܝܢ	-685
▁ܕܝܠܝ	-686
▁ܘܝܗܒ	-687
ܫܒܘܚܬܐ	-688
▁ܥܡܟܘܢ	-689
▁ܥܠܝܟܘܢ	-690
▁ܝܬܝܪܐܝܬ	-691
ܘܤܦ	-692
▁ܚܤ	-693
ܡܠܬܐ	-694
▁ܐܚܐ	-695
▁ܐܬܬ	-696
▁ܘܗܐ	-697
ܗܝܡܢܐ	-698
▁ܒܥܝܢ	-699
▁ܝܬܝܪ	-700
▁ܒܢܝܢܫܐ	-701
▁ܛܝܒܘܬܐ	-702
ܥܠ	-703
▁ܘܙ	-704
▁ܪܚ	-705
▁ܕܒܪ	-706
▁ܩܪܒ	-707
▁ܒܢܝܐ	-708
▁ܘܐܙܠ	-709
▁ܝܘܚܢܢ	-710
▁ܩܕܡܝܐ	-711
ܕܚ	-712
ܘܕܝ	-713
ܛܠܝܐ	-714
▁ܒܗܝ	-715
▁ܕܐܤ	-716
▁ܕܚܕ	-717
▁ܤܗܕ	-718
▁ܦܝܠ	-719
▁ܫܒܩ	-720
ܘܢܝܗܝ	-721
▁ܘܐܝܟ	-722
▁ܘܐܫܬ	-723
▁ܫܡܥܘ	-724
▁ܒܪܢܫܐ	-725
▁ܒܫܡܝܐ	-726
ܟܬ	-727
▁ܠܫ	-728
ܢܘܗܝ	-729
▁ܘܡܚ	-730
▁ܘܩܡ	-731
▁ܝܘܡܐ	-732
▁ܕܢܗܘܐ	-733
▁ܢܗܘܘܢ	-734
ܠܡܝܕܘܗܝ	-735
ܡܠܐ	-736
▁ܘܨ	-737
▁ܕܫܘ	-738
▁ܚܙܘ	-739
▁ܟܡܐ	-740
▁ܩܠܐ	-741
ܢܘܫܬܐ	-742
▁ܒܝܫܐ	-743
▁ܡܠܟܘܬܐ	-744
▁ܠܐܘܪܫܠܡ	-745
ܥܝܐ	-746
▁ܢܨ	-747
ܓܝܐܐ	-748
▁ܗܢܘ	-749
▁ܟܘܪ	-750
▁ܕܗܘܐ	-751
▁ܘܐܬܘ	-752
▁ܠܥܠܡ	-753
▁ܕܫܡܝܐ	-754
▁ܕܝܗܘܕܝܐ	-755
ܒܘܢ	-756
ܒܥܐ	-757
ܓܠܝ	-758
▁ܤܓܝ	-759
▁ܬܪܥ	-760
▁ܕܝܗܒ	-761
▁ܬܪܥܐ	-762
▁ܒܪܘܚܐ	-763
▁ܘܐܝܠܝܢ	-764
ܓܘ	-765
ܓܠܐ	-766
ܢܢܐ	-767
ܦܘܤ	-768
ܕܝܢܐ	-769
▁ܘܕܐ	-770
▁ܠܡܢ	-771
▁ܕܐܝܟ	-772
ܓܠ	-773
ܘܬܝ	-774
▁ܚܪ	-775
ܢܝܬܐ	-776
▁ܐܟܠ	-777
▁ܕܝܢܐ	-778
▁ܛܒܬܐ	-779
▁ܦܐܪܐ	-780
▁ܐܤܝܪܐ	-781
▁ܘܗܢܘܢ	-782
▁ܠܓܒܪܐ	-783
▁ܦܪܝܫܐ	-784
▁ܡܫܟܚܝܢ	-785
ܦܤ	-786
ܪܪܐ	-787
ܫܐܠ	-788
ܘܪܬܐ	-789
▁ܕܟܕ	-790
▁ܥܡܝ	-791
▁ܩܘܪ	-792
▁ܫܪܒ	-793
▁ܒܟܠܗ	-794
▁ܒܬܪܗ	-795
▁ܫܦܝܪ	-796
▁ܘܐܡܪܘ	-797
▁ܠܘܩܕܡ	-798
▁ܥܒܕܝܢ	-799
ܕܝܩ	-800
ܟܝܠ	-801
ܫܝܐ	-802
▁ܐܠܦ	-803
▁ܕܫܡܗ	-804
▁ܘܫܪܝ	-805
▁ܚܕܬܐ	-806
▁ܟܬܒܐ	-807
▁ܡܘܫܐ	-808
▁ܫܪܝܪܐ	-809
▁ܦܝܠܛܘܤ	-810
ܢܒܐ	-811
▁ܐܫ	-812
▁ܫܘ	-813
ܘܗܪܐ	-814
▁ܐܪܒ	-815
▁ܕܐܚ	-816
▁ܘܡܐ	-817
▁ܘܡܬ	-818
▁ܐܡܪܬ	-819
▁ܒܢܦܫ	-820
▁ܕܠܝܬ	-821
▁ܘܐܢܐ	-822
▁ܠܒܝܬ	-823
▁ܕܐܪܥܐ	-824
▁ܚܛܝܬܐ	-825
▁ܤܓܝܐܬܐ	-826
ܓܝ	-827
ܤܬ	-828
ܦܬܐ	-829
ܩܘܡ	-830
ܩܛܠ	-831
ܗܘܕܐ	-832
ܝܪܝܢ	-833
▁ܘܒܗ	-834
▁ܪܘܚ	-835
▁ܪܫܐ	-836
▁ܪܒܬܐ	-837
▁ܪܥܝܢ	-838
▁ܕܪܘܚܐ	-839
▁ܡܗܝܡܢܐ	-840
ܩܘܐ	-841
ܪܝܡ	-842
▁ܛܒ	-843
▁ܢܥ	-844
ܘܪܒܐ	-845
▁ܘܗܝ	-846
▁ܘܫܘ	-847
▁ܟܠܢܫ	-848
▁ܡܟܝܠ	-849
▁ܩܠܝܠ	-850
▁ܐܝܬܝܗ	-851
▁ܕܟܬܝܒ	-852
ܟܘ	-853
ܝܒܪ	-854
ܝܠܝ	-855
ܦܠܓ	-856
ܡܪܘܢ	-857
▁ܐܓܪ	-858
▁ܐܝܤ	-859
▁ܕܬܪ	-860
▁ܘܐܙ	-861
ܫܡܥܘܢ	-862
▁ܐܡܪܘ	-863
▁ܕܚܝܐ	-864
▁ܘܡܛܠ	-865
▁ܤܦܪܐ	-866
▁ܫܠܡܐ	-867
▁ܬܚܝܬ	-868
▁ܝܘܡܝܢ	-869
▁ܫܠܝܚܐ	-870
▁ܦܘܩܕܢܐ	-871
▁ܫܘܠܛܢܐ	-872
▁ܐܝܬܝܗܘܢ	-873
ܕܤ	-874
ܘܡܗ	-875
ܛܝܐ	-876
ܟܘܠ	-877
▁ܟܘ	-878
ܟܐܦܐ	-879
▁ܐܬܪ	-880
▁ܒܫܘ	-881
ܡܠܠܝܢ	-882
▁ܒܡܪܢ	-883
▁ܠܥܠܡܐ	-884
ܒܬ	-885
ܥܬ	-886
ܥܘܢ	-887
▁ܠܪ	-888
ܘܡܬܐ	-889
▁ܕܬܐ	-890
▁ܢܦܠ	-891
▁ܩܘܡ	-892
▁ܡܘܬܐ	-893
ܗܪ	-894
ܪܝܗ	-895
▁ܙܥ	-896
ܫܘܟܐ	-897
▁ܐܬܘ	-898
▁ܘܡܤ	-899
▁ܠܡܬ	-900
▁ܪܚܡ	-901
ܪܝܗܘܢ	-902
▁ܘܥܒܕ	-903
▁ܫܢܝܢ	-904
▁ܕܡܗܝܡܢ	-905
ܒܠܐ	-906
▁ܡܥ	-907
ܠܝܬܐ	-908
ܪܘܕܤ	-909
▁ܝܡܐ	-910
▁ܪܡܐ	-911
ܘܠܦܢܐ	-912
ܝܒܘܬܗ	-913
▁ܐܝܕܗ	-914
▁ܠܡܢܐ	-915
▁ܡܗܠܟ	-916
▁ܩܕܝܡ	-917
▁ܫܒܥܐ	-918
▁ܠܟܠܗܘܢ	-919
ܗܘܕ	-920
ܝܟܐ	-921
ܤܝܡ	-922
ܥܬܗ	-923
▁ܕܘ	-924
▁ܕܢܫ	-925
▁ܘܝܬ	-926
▁ܘܢܐ	-927
▁ܠܡܚ	-928
▁ܡܫܡ	-929
▁ܥܬܝ	-930
▁ܦܓܪ	-931
▁ܫܠܡ	-932
▁ܐܘܠܕ	-933
▁ܘܬܘܒ	-934
▁ܫܠܝܛ	-935
▁ܒܝܘܡܐ	-936
▁ܟܠܡܕܡ	-937
▁ܬܪܥܤܪ	-938
ܒܚ	-939
ܡܬ	-940
ܕܒܪ	-941
▁ܓܙ	-942
▁ܛܘ	-943
ܕܝܫܐ	-944
ܘܪܝܐ	-945
▁ܒܕܡ	-946
▁ܕܡܠ	-947
▁ܕܥܡ	-948
▁ܡܝܐ	-949
▁ܕܡܝܐ	-950
▁ܘܒܬܪ	-951
▁ܥܕܬܐ	-952
▁ܠܬܠܡܝܕܘܗܝ	-953
ܩܢ	-954
ܩܘܢ	-955
ܬܒܐ	-956
▁ܟܪ	-957
▁ܢܫ	-958
▁ܘܒܐ	-959
▁ܡܥܡ	-960
▁ܡܬܪ	-961
▁ܥܒܪ	-962
▁ܒܪܘܚ	-963
▁ܕܒܝܬ	-964
▁ܠܗܢܐ	-965
▁ܦܓܪܐ	-966
▁ܒܐܪܥܐ	-967
▁ܕܗܠܝܢ	-968
▁ܕܥܬܝܕ	-969
▁ܙܒܢܝܢ	-970
ܝܡܐ	-971
ܡܠܟ	-972
ܨܢܐ	-973
▁ܛܢ	-974
▁ܠܘ	-975
▁ܦܬ	-976
ܟܡܬܐ	-977
▁ܐܝܢ	-978
▁ܐܠܘ	-979
▁ܒܪܐ	-980
▁ܘܤܡ	-981
▁ܠܥܠ	-982
▁ܢܚܬ	-983
ܥܒܕܘܢ	-984
▁ܐܬܝܬ	-985
▁ܕܐܫܬ	-986
▁ܕܨܒܐ	-987
▁ܘܫܕܪ	-988
▁ܬܗܘܘܢ	-989
▁ܐܝܤܪܝܠ	-990
▁ܒܟܠܙܒܢ	-991
▁ܕܒܫܡܝܐ	-992
▁ܕܡܬܩܪܐ	-993
ܗܛ	-994
ܙܝ	-995
ܒܚܐ	-996
▁ܢܛ	-997
ܕܥܘܢ	-998
ܠܐܟܐ	-999
▁ܒܪܝ	-1000
▁ܕܚܛ	-1001
▁ܘܕܚ	-1002
▁ܘܥܡ	-1003
▁ܘܫܐ	-1004
▁ܠܡܤ	-1005
▁ܩܐܡ	-1006
▁ܩܪܐ	-1007
▁ܒܝܬܐ	-1008
▁ܕܢܦܩ	-1009
▁ܕܫܕܪ	-1010
▁ܟܬܝܒ	-1011
▁ܒܐܝܕܗ	-1012
▁ܒܝܫܘܥ	-1013
▁ܕܗܝܡܢ	-1014
▁ܟܠܟܘܢ	-1015
▁ܠܡܐܡܪ	-1016
▁ܒܡܫܝܚܐ	-1017
▁ܘܐܚܪܢܐ	-1018
ܙܕ	-1019
ܥܝ	-1020
ܦܝ	-1021
ܚܙܝ	-1022
ܟܬܐ	-1023
▁ܒܙ	-1024
▁ܤܗ	-1025
▁ܐܒܗ	-1026
▁ܐܚܪ	-1027
▁ܙܒܢ	-1028
▁ܢܫܐ	-1029
ܘܕܝܬܐ	-1030
▁ܐܡܬܝ	-1031
▁ܐܬܪܐ	-1032
▁ܒܫܡܗ	-1033
▁ܚܝܠܐ	-1034
▁ܢܦܫܟ	-1035
▁ܥܬܝܕ	-1036
▁ܫܥܬܐ	-1037
ܝܠܝܦܘܤ	-1038
▁ܠܘܩܒܠ	-1039
▁ܒܗܝܟܠܐ	-1040
▁ܕܢܗܘܘܢ	-1041
▁ܝܕܥܝܢܢ	-1042
▁ܠܦܘܠܘܤ	-1043
ܟܤ	-1044
ܡܟ	-1045
ܘܒܕ	-1046
ܠܝܘ	-1047
ܤܝܢ	-1048
ܪܘܢ	-1049
ܕܝܩܐ	-1050
ܛܦܝܤ	-1051
ܝܪܬܐ	-1052
▁ܕܡܚ	-1053
▁ܕܬܬ	-1054
▁ܘܢܬ	-1055
▁ܠܡܩ	-1056
▁ܕܝܠܗ	-1057
▁ܗܪܟܐ	-1058
▁ܕܡܘܬܐ	-1059
▁ܐܘܪܫܠܡ	-1060
▁ܠܡܕܝܢܬܐ	-1061
ܕܟ	-1062
ܦܢ	-1063
ܬܢܐ	-1064
▁ܩܘ	-1065
ܗܘܝܢ	-1066
ܦܘܬܐ	-1067
▁ܒܗܘ	-1068
▁ܒܥܠ	-1069
▁ܕܪܒ	-1070
▁ܘܡܪ	-1071
▁ܘܢܚ	-1072
▁ܚܝܒ	-1073
▁ܬܪܬ	-1074
▁ܐܚܝܢ	-1075
▁ܐܡܪܐ	-1076
▁ܘܕܠܐ	-1077
▁ܘܚܙܐ	-1078
▁ܠܘܬܝ	-1079
▁ܬܠܬܐ	-1080
▁ܠܟܢܫܐ	-1081
▁ܠܡܥܒܕ	-1082
▁ܕܐܝܠܝܢ	-1083
ܓܙ	-1084
ܓܡ	-1085
ܘܕܥ	-1086
ܘܪܩ	-1087
ܬܪܐ	-1088
▁ܚܐ	-1089
▁ܡܩ	-1090
▁ܫܩ	-1091
ܗܒܬܐ	-1092
▁ܐܬܚ	-1093
▁ܒܚܕ	-1094
▁ܒܪܡ	-1095
▁ܕܫܡ	-1096
▁ܢܛܪ	-1097
▁ܢܬܠ	-1098
▁ܫܡܗ	-1099
ܫܡܫܬܐ	-1100
▁ܒܐܦܐ	-1101
▁ܕܢܫܬ	-1102
▁ܚܘܒܐ	-1103
▁ܠܥܒܕ	-1104
▁ܒܫܠܡܐ	-1105
▁ܗܝܡܢܘ	-1106
▁ܒܐܘܪܚܐ	-1107
▁ܕܐܝܬܝܗ	-1108
▁ܘܟܠܗܘܢ	-1109
ܪܗ	-1110
ܘܕܐ	-1111
ܝܠܕ	-1112
▁ܠܙ	-1113
ܕܘܝܕ	-1114
▁ܕܗܐ	-1115
▁ܕܡܤ	-1116
▁ܘܬܪ	-1117
ܘܠܟܢܐ	-1118
ܢܝܗܘܢ	-1119
▁ܕܡܠܟ	-1120
▁ܘܩܪܐ	-1121
▁ܠܐܢܫ	-1122
▁ܠܗܝܢ	-1123
▁ܢܦܫܝ	-1124
▁ܥܠܝܗ	-1125
▁ܐܚܘܗܝ	-1126
▁ܐܠܦܝܢ	-1127
▁ܨܒܝܢܗ	-1128
▁ܕܢܡܘܤܐ	-1129
▁ܘܗܝܕܝܢ	-1130
▁ܠܘܬܗܘܢ	-1131
ܪܢ	-1132
ܢܛܪ	-1133
ܒܘܪܐ	-1134
▁ܘܐܤ	-1135
▁ܘܚܕ	-1136
▁ܘܡܠ	-1137
▁ܟܪܝ	-1138
▁ܡܠܦ	-1139
▁ܡܦܩ	-1140
▁ܪܫܗ	-1141
▁ܬܠܬ	-1142
ܝܕܥܝܢ	-1143
ܦܝܢܬܐ	-1144
▁ܒܗܕܐ	-1145
▁ܒܝܬܗ	-1146
▁ܕܡܕܡ	-1147
▁ܕܡܝܬ	-1148
▁ܕܩܕܡ	-1149
▁ܘܟܠܗ	-1150
▁ܘܦܩܕ	-1151
▁ܫܐܠܘ	-1152
▁ܫܥܬܗ	-1153
ܕܝܩܘܬܐ	-1154
▁ܘܐܙܠܘ	-1155
▁ܡܠܦܢܐ	-1156
▁ܩܝܡܝܢ	-1157
▁ܩܫܝܫܐ	-1158
▁ܫܪܒܬܐ	-1159
▁ܕܐܢܬܘܢ	-1160
▁ܕܝܠܟܘܢ	-1161
▁ܕܒܢܝܢܫܐ	-1162
▁ܬܫܒܘܚܬܐ	-1163
ܕܦ	-1164
ܛܝ	-1165
ܠܒ	-1166
ܘܬܢ	-1167
ܚܡܐ	-1168
ܡܝܐ	-1169
▁ܟܤ	-1170
ܠܝܚܐ	-1171
▁ܙܪܥ	-1172
▁ܡܠܠ	-1173
▁ܩܒܠ	-1174
ܠܝܗܘܢ	-1175
▁ܒܩܠܐ	-1176
▁ܕܐܢܫ	-1177
▁ܕܐܢܬ	-1178
▁ܕܝܠܢ	-1179
▁ܘܐܢܬ	-1180
▁ܘܐܪܡ	-1181
▁ܘܗܫܐ	-1182
▁ܛܠܝܐ	-1183
▁ܠܚܝܐ	-1184
▁ܡܬܠܐ	-1185
▁ܫܪܪܐ	-1186
▁ܒܡܠܬܐ	-1187
▁ܕܗܟܢܐ	-1188
▁ܕܗܢܘܢ	-1189
▁ܗܝܟܠܐ	-1190
▁ܘܡܚܕܐ	-1191
▁ܠܗܢܘܢ	-1192
▁ܡܡܠܠܝܢ	-1193
ܓܢ	-1194
ܝܩ	-1195
ܘܫܐ	-1196
ܘܬܟ	-1197
ܚܬܗ	-1198
ܦܫܗ	-1199
ܦܬܚ	-1200
▁ܝܕ	-1201
ܚܙܘܢ	-1202
ܢܝܢܐ	-1203
▁ܐܪܡ	-1204
▁ܕܗܝ	-1205
▁ܕܠܗ	-1206
▁ܘܒܡ	-1207
▁ܢܚܐ	-1208
▁ܤܝܡ	-1209
▁ܤܠܩ	-1210
▁ܒܝܡܐ	-1211
▁ܒܬܪܝ	-1212
▁ܕܒܪܗ	-1213
▁ܕܝܕܥ	-1214
▁ܘܢܦܠ	-1215
▁ܚܛܗܐ	-1216
▁ܠܒܪܗ	-1217
▁ܡܪܝܡ	-1218
▁ܤܒܪܐ	-1219
ܟܐܢܘܬܐ	-1220
▁ܐܘܪܚܐ	-1221
▁ܘܐܫܟܚ	-1222
▁ܢܘܗܪܐ	-1223
▁ܫܘܒܚܐ	-1224
▁ܕܝܘܚܢܢ	-1225
▁ܪܓܠܘܗܝ	-1226
ܠܨ	-1227
ܓܬܐ	-1228
ܙܕܩ	-1229
ܛܝܘ	-1230
▁ܬܘ	-1231
ܚܘܒܐ	-1232
ܟܠܘܢ	-1233
ܡܪܝܐ	-1234
▁ܐܠܗ	-1235
▁ܒܫܡ	-1236
▁ܕܒܚ	-1237
▁ܕܠܝ	-1238
▁ܙܠܘ	-1239
▁ܡܫܟ	-1240
▁ܬܕܚ	-1241
ܓܠܝܘܢ	-1242
▁ܐܝܕܝ	-1243
▁ܐܩܝܡ	-1244
▁ܕܓܠܐ	-1245
▁ܘܠܝܬ	-1246
▁ܘܡܠܦ	-1247
▁ܚܙܝܢ	-1248
▁ܡܩܒܠ	-1249
▁ܢܐܡܪ	-1250
▁ܪܘܚܗ	-1251
▁ܐܒܘܗܝ	-1252
▁ܐܚܪܝܐ	-1253
▁ܕܕܘܝܕ	-1254
▁ܕܢܐܙܠ	-1255
▁ܕܢܒܝܐ	-1256
▁ܘܒܥܝܢ	-1257
▁ܠܡܘܬܐ	-1258
▁ܘܠܝܘܡܐ	-1259
▁ܘܦܪܝܫܐ	-1260
ܒܛܠ	-1261
ܟܠܘ	-1262
ܥܘܠ	-1263
ܥܝܪ	-1264
ܨܚܐ	-1265
ܪܝܫ	-1266
ܫܘܢ	-1267
ܬܢܝ	-1268
▁ܙܠ	-1269
▁ܚܨ	-1270
ܟܘܗܝ	-1271
ܡܝܢܐ	-1272
▁ܕܢܤ	-1273
▁ܝܬܒ	-1274
▁ܠܡܨ	-1275
▁ܡܓܕ	-1276
▁ܦܩܕ	-1277
▁ܫܬܐ	-1278
▁ܕܢܤܒ	-1279
▁ܘܡܕܡ	-1280
▁ܚܡܪܐ	-1281
▁ܢܥܒܕ	-1282
▁ܥܠܝܢ	-1283
ܗܝܡܢܘܢ	-1284
▁ܐܒܪܗܡ	-1285
▁ܐܬܘܬܐ	-1286
▁ܒܥܠܡܐ	-1287
▁ܠܝܘܡܐ	-1288
▁ܩܒܘܪܐ	-1289
▁ܫܦܝܪܐ	-1290
ܘܢܓܠܝܘܢ	-1291
▁ܒܢܡܘܤܐ	-1292
▁ܟܘܪܤܝܐ	-1293
▁ܘܠܐܝܠܝܢ	-1294
▁ܡܗܝܡܢܝܢ	-1295
ܕܢ	-1296
ܩܛ	-1297
ܫܢ	-1298
ܗܪܐ	-1299
ܚܘܐ	-1300
ܝܤܐ	-1301
ܩܬܐ	-1302
ܪܝܒ	-1303
▁ܬܤ	-1304
ܕܗܒܐ	-1305
ܕܘܗܝ	-1306
ܤܝܒܪ	-1307
▁ܘܠܗ	-1308
▁ܚܘܒ	-1309
▁ܡܢܝ	-1310
▁ܡܢܢ	-1311
▁ܤܪܝ	-1312
▁ܫܩܠ	-1313
▁ܘܩܪܒ	-1314
▁ܥܒܕܘ	-1315
▁ܫܐܕܐ	-1316
▁ܕܢܐܬܐ	-1317
▁ܗܪܘܕܤ	-1318
▁ܘܚܙܝܬ	-1319
▁ܡܫܟܚܐ	-1320
▁ܥܕܟܝܠ	-1321
▁ܥܠܡܝܢ	-1322
▁ܫܡܥܝܢ	-1323
▁ܥܒܕܘܗܝ	-1324
▁ܩܕܡܘܗܝ	-1325
▁ܒܐܘܪܫܠܡ	-1326
▁ܘܗܘܝܬܘܢ	-1327
▁ܫܪܝܪܐܝܬ	-1328
ܘܓܐ	-1329
▁ܝܩ	-1330
▁ܦܓ	-1331
▁ܪܫ	-1332
ܟܢܫܘ	-1333
▁ܐܡܗ	-1334
▁ܐܤܬ	-1335
▁ܒܥܘ	-1336
▁ܕܚܝ	-1337
▁ܘܒܚ	-1338
▁ܘܕܥ	-1339
▁ܠܟܝ	-1340
▁ܠܬܪ	-1341
▁ܡܢܟ	-1342
▁ܫܪܐ	-1343
ܕܘܢܝܐ	-1344
▁ܐܙܕܗ	-1345
▁ܕܒܢܝ	-1346
▁ܛܘܒܝ	-1347
▁ܢܐܬܐ	-1348
▁ܩܪܒܘ	-1349
▁ܒܥܠܕܒ	-1350
▁ܕܥܡܡܐ	-1351
▁ܘܤܦܪܐ	-1352
▁ܝܗܘܕܐ	-1353
▁ܕܩܝܡܝܢ	-1354
▁ܕܐܝܬܝܗܘܢ	-1355
ܡܥ	-1356
ܒܗܪ	-1357
ܕܪܘ	-1358
ܚܘܢ	-1359
ܡܟܐ	-1360
ܦܝܪ	-1361
ܨܘܦ	-1362
▁ܓܢ	-1363
▁ܢܟ	-1364
ܝܩܪܐ	-1365
ܟܝܡܐ	-1366
ܟܪܝܐ	-1367
▁ܕܐܫ	-1368
▁ܕܒܡ	-1369
▁ܕܕܚ	-1370
▁ܕܪܘ	-1371
▁ܘܟܐ	-1372
▁ܘܩܪ	-1373
▁ܟܬܒ	-1374
ܝܤܪܝܠ	-1375
▁ܕܝܡܐ	-1376
▁ܕܡܫܬ	-1377
▁ܠܡܠܟ	-1378
▁ܠܡܪܢ	-1379
▁ܡܚܕܐ	-1380
▁ܥܠܝܟ	-1381
▁ܐܚܪܬܐ	-1382
▁ܟܘܡܪܐ	-1383
▁ܠܛܘܪܐ	-1384
▁ܪܥܝܢܐ	-1385
▁ܬܪܬܝܢ	-1386
▁ܕܐܡܪܝܢ	-1387
▁ܕܫܕܪܢܝ	-1388
▁ܘܐܢܬܘܢ	-1389
▁ܡܘܗܒܬܐ	-1390
▁ܡܠܟܘܬܗ	-1391
▁ܠܒܢܝܢܫܐ	-1392
ܛܠܐ	-1393
ܟܠܗ	-1394
ܥܤܪ	-1395
ܥܪܐ	-1396
ܩܝܦ	-1397
ܪܝܘ	-1398
▁ܦܩ	-1399
▁ܬܥ	-1400
ܕܒܚܐ	-1401
ܗܕܝܢ	-1402
ܫܘܬܐ	-1403
ܬܟܪܐ	-1404
▁ܐܝܠ	-1405
▁ܐܦܝ	-1406
▁ܐܦܢ	-1407
▁ܐܦܩ	-1408
▁ܒܠܒ	-1409
▁ܘܕܡ	-1410
▁ܘܢܤ	-1411
▁ܠܒܝ	-1412
▁ܠܫܘ	-1413
▁ܡܪܗ	-1414
▁ܫܒܘ	-1415
ܒܘܟܘܢ	-1416
ܠܝܘܗܝ	-1417
▁ܐܙܠܘ	-1418
▁ܐܥܒܕ	-1419
▁ܒܗܝܢ	-1420
▁ܕܚܙܐ	-1421
▁ܕܩܒܠ	-1422
▁ܘܥܢܐ	-1423
▁ܚܡܫܐ	-1424
▁ܡܠܬܗ	-1425
▁ܤܛܢܐ	-1426
▁ܤܡܝܐ	-1427
▁ܐܝܡܟܐ	-1428
▁ܒܠܠܝܐ	-1429
▁ܠܒܝܬܗ	-1430
▁ܥܬܝܪܐ	-1431
ܚܩ	-1432
ܠܥ	-1433
ܪܤ	-1434
ܫܥ	-1435
ܒܠܘ	-1436
ܘܦܐ	-1437
ܪܒܐ	-1438
ܕܒܪܐ	-1439
▁ܕܘܟ	-1440
▁ܘܢܫ	-1441
▁ܫܒܥ	-1442
▁ܐܒܘܢ	-1443
▁ܐܝܬܝ	-1444
▁ܕܩܐܡ	-1445
▁ܘܒܟܠ	-1446
▁ܠܥܡܐ	-1447
▁ܡܤܒܪ	-1448
▁ܡܫܠܡ	-1449
▁ܦܘܡܗ	-1450
▁ܕܚܠܬܐ	-1451
▁ܕܡܡܠܠ	-1452
▁ܕܫܡܥܘ	-1453
▁ܕܫܪܪܐ	-1454
▁ܕܬܗܘܐ	-1455
▁ܘܐܝܢܐ	-1456
▁ܘܗܟܢܐ	-1457
▁ܘܢܦܩܘ	-1458
▁ܙܥܘܪܐ	-1459
▁ܚܒܝܒܐ	-1460
▁ܚܒܝܒܝ	-1461
▁ܠܫܡܝܐ	-1462
▁ܢܗܘܝܢ	-1463
▁ܘܤܓܝܐܐ	-1464
▁ܘܩܫܝܫܐ	-1465
▁ܠܐܚܘܗܝ	-1466
▁ܠܫܡܥܘܢ	-1467
▁ܢܦܫܟܘܢ	-1468
▁ܤܗܕܘܬܐ	-1469
ܛܘ	-1470
ܟܗ	-1471
ܤܢ	-1472
ܨܦ	-1473
ܓܡܐ	-1474
ܕܪܐ	-1475
ܘܪܗ	-1476
ܝܦܐ	-1477
ܢܬܐ	-1478
ܥܠܐ	-1479
ܥܡܕ	-1480
ܦܘܪ	-1481
ܦܢܝ	-1482
ܩܠܐ	-1483
▁ܚܫ	-1484
ܕܥܕܐ	-1485
ܠܝܢܢ	-1486
▁ܐܟܚ	-1487
▁ܒܤܪ	-1488
▁ܕܡܛ	-1489
▁ܕܡܟ	-1490
▁ܕܢܦ	-1491
▁ܕܦܪ	-1492
▁ܘܒܝ	-1493
▁ܚܝܠ	-1494
▁ܡܐܬ	-1495
▁ܡܚܒ	-1496
▁ܡܪܐ	-1497
▁ܥܡܢ	-1498
▁ܫܘܐ	-1499
ܗܝܗܘܢ	-1500
▁ܐܬܝܢ	-1501
▁ܕܘܝܕ	-1502
▁ܕܤܒܪ	-1503
▁ܘܐܬܬ	-1504
▁ܙܪܥܐ	-1505
▁ܡܟܤܐ	-1506
▁ܢܘܪܐ	-1507
▁ܢܩܘܡ	-1508
▁ܤܝܒܪ	-1509
▁ܪܚܡܐ	-1510
ܢܛܪܘܢܐ	-1511
ܫܒܘܚܬܗ	-1512
▁ܐܬܚܙܝ	-1513
▁ܕܚܙܝܢ	-1514
▁ܕܢܘܪܐ	-1515
▁ܘܐܡܪܐ	-1516
▁ܘܐܩܝܡ	-1517
▁ܘܢܗܘܐ	-1518
▁ܘܫܠܡܐ	-1519
▁ܘܫܡܥܬ	-1520
▁ܚܝܘܬܐ	-1521
▁ܠܡܐܟܠ	-1522
▁ܐܘܠܨܢܐ	-1523
▁ܐܙܕܗܪܘ	-1524
▁ܕܟܠܗܘܢ	-1525
ܚܝ	-1526
ܠܚ	-1527
ܡܝ	-1528
ܓܙܐ	-1529
ܘܢܗ	-1530
▁ܡܙ	-1531
ܘܒܠܐ	-1532
ܘܠܬܐ	-1533
ܡܪܝܢ	-1534
ܩܪܝܐ	-1535
▁ܐܬܝ	-1536
▁ܕܐܪ	-1537
▁ܕܥܐ	-1538
▁ܘܚܪ	-1539
▁ܘܡܨ	-1540
▁ܟܤܐ	-1541
▁ܠܕܘ	-1542
▁ܥܡܟ	-1543
▁ܦܬܚ	-1544
ܠܡܝܕܐ	-1545
▁ܒܒܤܪ	-1546
▁ܒܗܢܐ	-1547
▁ܕܗܢܐ	-1548
▁ܕܚܢܢ	-1549
▁ܕܝܬܒ	-1550
▁ܕܡܛܠ	-1551
▁ܕܥܡܐ	-1552
▁ܕܪܚܡ	-1553
▁ܘܐܬܪ	-1554
▁ܘܒܥܐ	-1555
▁ܘܤܠܩ	-1556
▁ܚܛܝܐ	-1557
▁ܝܕܥܘ	-1558
▁ܝܘܤܦ	-1559
▁ܠܐܢܬ	-1560
▁ܠܗܝܟ	-1561
▁ܡܐܢܐ	-1562
▁ܢܡܠܠ	-1563
▁ܢܦܩܘ	-1564
▁ܐܚܪܝܢ	-1565
▁ܐܢܫܝܢ	-1566
▁ܐܢܬܬܗ	-1567
▁ܐܫܟܚܘ	-1568
▁ܒܟܬܒܐ	-1569
▁ܕܓܒܪܐ	-1570
▁ܝܥܩܘܒ	-1571
▁ܠܐܪܥܐ	-1572
▁ܠܟܠܢܫ	-1573
▁ܕܝܕܥܝܢ	-1574
▁ܕܬܗܘܘܢ	-1575
▁ܘܐܝܟܢܐ	-1576
▁ܡܬܛܦܝܤ	-1577
▁ܢܦܫܗܘܢ	-1578
▁ܒܝܢܬܗܘܢ	-1579
ܚܢ	-1580
ܒܪܘ	-1581
ܓܝܢ	-1582
ܕܟܪ	-1583
ܘܒܐ	-1584
ܠܩܘ	-1585
ܢܝܩ	-1586
ܤܘܩ	-1587
▁ܐܓ	-1588
▁ܠܨ	-1589
ܒܘܬܐ	-1590
ܘܡܢܐ	-1591
ܘܪܝܢ	-1592
ܘܬܪܐ	-1593
ܙܕܕܩ	-1594
ܛܝܪܐ	-1595
ܝܡܡܐ	-1596
ܡܝܪܐ	-1597
▁ܒܐܤ	-1598
▁ܕܕܡ	-1599
▁ܕܡܥ	-1600
▁ܕܬܚ	-1601
▁ܘܕܝ	-1602
▁ܡܦܤ	-1603
▁ܡܬܬ	-1604
▁ܦܘܡ	-1605
▁ܫܐܠ	-1606
▁ܫܘܬ	-1607
▁ܬܫܬ	-1608
▁ܕܒܝܫ	-1609
▁ܕܡܬܚ	-1610
▁ܘܡܫܡ	-1611
▁ܘܢܤܒ	-1612
▁ܘܫܩܠ	-1613
▁ܠܗܫܐ	-1614
▁ܡܕܝܢ	-1615
▁ܡܤܗܕ	-1616
▁ܥܘܠܐ	-1617
▁ܥܠܬܐ	-1618
▁ܦܓܪܗ	-1619
▁ܪܓܠܝ	-1620
ܝܡܬܐܘܤ	-1621
▁ܕܕܗܒܐ	-1622
▁ܕܙܒܢܐ	-1623
▁ܘܩܪܒܘ	-1624
▁ܡܬܚܙܐ	-1625
▁ܦܬܓܡܐ	-1626
▁ܨܒܝܢܐ	-1627
▁ܕܐܒܪܗܡ	-1628
▁ܕܐܬܐܡܪ	-1629
▁ܕܩܕܝܫܐ	-1630
▁ܠܐܚܪܢܐ	-1631
▁ܡܗܠܟܝܢ	-1632
▁ܒܡܕܝܢܬܐ	-1633
▁ܕܗܝܡܢܘܬܐ	-1634
ܗܦ	-1635
ܠܦܘ	-1636
ܡܘܢ	-1637
ܡܘܬ	-1638
ܡܫܐ	-1639
ܩܪܝ	-1640
▁ܒܕ	-1641
▁ܥܒ	-1642
▁ܪܝ	-1643
ܠܝܢܐ	-1644
▁ܐܠܝ	-1645
▁ܐܬܡ	-1646
▁ܒܘܪ	-1647
▁ܕܒܥ	-1648
▁ܕܡܨ	-1649
▁ܘܠܥ	-1650
▁ܙܢܝ	-1651
▁ܝܕܝ	-1652
▁ܤܟܠ	-1653
ܕܢܘܗܝ	-1654
ܗܝܟܘܢ	-1655
ܘܪܩܢܐ	-1656
ܟܘܠܬܐ	-1657
▁ܐܤܛܪ	-1658
▁ܒܡܠܟ	-1659
▁ܕܐܒܐ	-1660
▁ܕܘܠܐ	-1661
▁ܕܟܠܗ	-1662
▁ܘܐܦܩ	-1663
▁ܘܗܦܟ	-1664
▁ܘܡܫܬ	-1665
▁ܚܙܝܬ	-1666
▁ܝܡܝܢ	-1667
▁ܢܫܟܚ	-1668
▁ܢܫܡܥ	-1669
▁ܤܗܕܐ	-1670
▁ܦܨܚܐ	-1671
▁ܫܡܫܐ	-1672
▁ܐܟܚܕܐ	-1673
▁ܒܐܠܗܐ	-1674
▁ܕܡܫܟܚ	-1675
▁ܚܕܘܬܐ	-1676
▁ܚܟܡܬܐ	-1677
▁ܛܢܦܬܐ	-1678
▁ܝܘܡܢܐ	-1679
▁ܠܒܝܬܐ	-1680
▁ܕܐܬܝܗܒ	-1681
▁ܘܐܬܝܗܒ	-1682
▁ܟܢܘܫܬܐ	-1683
▁ܠܗܝܟܠܐ	-1684
▁ܡܫܡܫܢܐ	-1685
▁ܩܕܡܝܬܐ	-1686
▁ܒܝܢܬܟܘܢ	-1687
ܘܫ	-1688
ܥܢ	-1689
ܫܠ	-1690
ܒܝܬ	-1691
ܘܢܝ	-1692
ܙܘܢ	-1693
ܝܢܝ	-1694
ܦܠܚ	-1695
▁ܙܘ	-1696
▁ܝܪ	-1697
▁ܟܢ	-1698
▁ܢܪ	-1699
▁ܬܒ	-1700
ܘܓܐܐ	-1701
ܘܟܒܐ	-1702
ܝܒܝܢ	-1703
ܝܪܟܐ	-1704
ܠܛܢܐ	-1705
ܠܝܘܡ	-1706
ܥܤܪܐ	-1707
ܪܒܥܐ	-1708
▁ܐܒܕ	-1709
▁ܒܡܐ	-1710
▁ܒܬܐ	-1711
▁ܕܠܘ	-1712
▁ܕܠܡ	-1713
▁ܕܫܐ	-1714
▁ܘܢܦ	-1715
▁ܘܦܪ	-1716
▁ܘܫܡ	-1717
▁ܚܠܝ	-1718
▁ܠܟܐ	-1719
▁ܩܛܠ	-1720
▁ܩܥܐ	-1721
ܓܡܘܢܐ	-1722
ܩܒܠܘܢ	-1723
▁ܐܕܢܐ	-1724
▁ܐܚܝܕ	-1725
▁ܒܫܠܡ	-1726
▁ܕܒܟܠ	-1727
▁ܕܝܠܟ	-1728
▁ܕܥܡܗ	-1729
▁ܘܡܝܬ	-1730
▁ܘܩܕܡ	-1731
▁ܘܫܒܩ	-1732
▁ܡܩܘܐ	-1733
▁ܢܐܙܠ	-1734
▁ܢܦܫܢ	-1735
▁ܥܒܕܗ	-1736
▁ܫܥܝܢ	-1737
▁ܫܪܟܐ	-1738
ܬܘܢܝܗܝ	-1739
▁ܐܝܠܢܐ	-1740
▁ܒܗܠܝܢ	-1741
▁ܒܚܘܒܐ	-1742
▁ܒܚܝܠܐ	-1743
▁ܒܫܒܬܐ	-1744
▁ܒܫܥܬܐ	-1745
▁ܕܐܡܪܐ	-1746
▁ܕܒܤܪܐ	-1747
▁ܘܐܬܝܢ	-1748
▁ܙܕܝܩܐ	-1749
▁ܟܪܝܗܐ	-1750
▁ܠܐܬܪܐ	-1751
▁ܠܟܐܦܐ	-1752
▁ܠܥܕܬܐ	-1753
▁ܢܐܬܘܢ	-1754
▁ܒܠܚܘܕܝ	-1755
▁ܓܙܘܪܬܐ	-1756
▁ܕܓܠܝܠܐ	-1757
▁ܕܬܕܥܘܢ	-1758
▁ܕܬܪܬܝܢ	-1759
▁ܛܝܒܘܬܗ	-1760
▁ܕܡܕܝܢܬܐ	-1761
▁ܒܠܚܘܕܘܗܝ	-1762
ܕܬ	-1763
ܙܪ	-1764
ܩܒ	-1765
ܒܗܬ	-1766
ܡܬܗ	-1767
ܤܡܐ	-1768
▁ܒܘ	-1769
▁ܝܠ	-1770
▁ܤܟ	-1771
▁ܥܐ	-1772
ܓܕܘܢ	-1773
ܕܝܢܢ	-1774
ܘܩܝܐ	-1775
ܪܘܗܝ	-1776
▁ܒܕܘ	-1777
▁ܒܩܢ	-1778
▁ܕܒܢ	-1779
▁ܘܕܢ	-1780
▁ܘܠܟ	-1781
▁ܙܕܩ	-1782
▁ܟܕܘ	-1783
▁ܠܒܐ	-1784
▁ܠܓܘ	-1785
▁ܡܬܐ	-1786
▁ܦܩܚ	-1787
▁ܪܗܛ	-1788
ܒܝܘܬܐ	-1789
ܛܝܘܛܐ	-1790
ܩܪܒܝܢ	-1791
ܫܬܗܘܢ	-1792
▁ܐܠܦܐ	-1793
▁ܒܓܠܐ	-1794
▁ܒܤܪܐ	-1795
▁ܒܥܓܠ	-1796
▁ܕܟܝܐ	-1797
▁ܕܡܠܐ	-1798
▁ܘܗܕܐ	-1799
▁ܘܗܘܬ	-1800
▁ܛܘܪܐ	-1801
▁ܟܬܒܬ	-1802
▁ܡܟܪܙ	-1803
▁ܡܨܠܐ	-1804
▁ܥܝܢܐ	-1805
▁ܦܠܚܐ	-1806
ܘܪܠܘܬܐ	-1807
▁ܒܪܥܝܢ	-1808
▁ܕܐܩܝܡ	-1809
▁ܕܗܘܝܘ	-1810
▁ܘܗܠܝܢ	-1811
▁ܘܥܕܡܐ	-1812
▁ܠܡܪܝܐ	-1813
▁ܠܥܡܡܐ	-1814
▁ܢܨܪܝܐ	-1815
▁ܩܪܝܬܐ	-1816
▁ܫܐܠܝܢ	-1817
▁ܐܪܒܥܝܢ	-1818
▁ܒܕܡܘܬܐ	-1819
▁ܕܐܝܟܢܐ	-1820
▁ܕܫܡܥܝܢ	-1821
▁ܝܘܠܦܢܐ	-1822
▁ܟܐܢܘܬܐ	-1823
▁ܡܘܠܟܢܐ	-1824
▁ܥܝܢܘܗܝ	-1825
▁ܒܟܢܘܫܬܐ	-1826
▁ܕܡܬܩܪܝܐ	-1827
▁ܡܐܟܘܠܬܐ	-1828
▁ܥܝܢܝܗܘܢ	-1829
ܝܚ	-1830
ܡܘ	-1831
ܘܬܦ	-1832
ܛܝܢ	-1833
ܛܪܐ	-1834
ܝܒܘ	-1835
ܠܡܗ	-1836
ܡܬܝ	-1837
ܩܘܠ	-1838
ܩܘܤ	-1839
ܩܝܐ	-1840
▁ܐܨ	-1841
▁ܚܒ	-1842
▁ܚܟ	-1843
▁ܬܟ	-1844
ܛܪܝܢ	-1845
ܟܠܝܢ	-1846
ܡܬܘܡ	-1847
ܨܘܦܗ	-1848
ܩܝܦܐ	-1849
ܩܪܨܐ	-1850
▁ܒܚܙ	-1851
▁ܒܦܪ	-1852
▁ܕܕܝ	-1853
▁ܕܛܒ	-1854
▁ܕܥܘ	-1855
▁ܗܦܟ	-1856
▁ܘܡܫ	-1857
▁ܘܬܐ	-1858
▁ܚܠܐ	-1859
▁ܠܡܫ	-1860
▁ܡܠܝ	-1861
▁ܡܫܚ	-1862
▁ܢܬܚ	-1863
▁ܦܪܘ	-1864
▁ܦܫܝ	-1865
ܝܕܥܬܐ	-1866
ܡܢܘܬܐ	-1867
▁ܐܪܙܐ	-1868
▁ܒܡܝܐ	-1869
▁ܒܦܓܪ	-1870
▁ܕܝܘܐ	-1871
▁ܕܢܦܠ	-1872
▁ܕܦܩܕ	-1873
▁ܘܐܬܚ	-1874
▁ܘܝܕܥ	-1875
▁ܘܝܬܒ	-1876
▁ܝܗܒܬ	-1877
▁ܟܐܢܐ	-1878
▁ܟܤܦܐ	-1879
▁ܠܒܢܝ	-1880
▁ܠܘܬܟ	-1881
▁ܠܩܤܪ	-1882
▁ܡܘܕܐ	-1883
▁ܢܥܒܪ	-1884
▁ܐܙܠܝܢ	-1885
▁ܒܐܝܕܝ	-1886
▁ܒܢܘܪܐ	-1887
▁ܒܥܒܕܐ	-1888
▁ܕܚܙܝܬ	-1889
▁ܕܡܘܫܐ	-1890
▁ܕܦܓܪܐ	-1891
▁ܕܬܠܬܐ	-1892
▁ܘܐܪܥܐ	-1893
▁ܚܟܝܡܐ	-1894
▁ܠܗܠܝܢ	-1895
▁ܠܡܠܬܐ	-1896
▁ܤܒܪܝܢ	-1897
▁ܐܒܘܟܘܢ	-1898
▁ܕܚܛܝܬܐ	-1899
▁ܕܝܠܗܘܢ	-1900
▁ܠܓܠܝܠܐ	-1901
▁ܒܢܦܫܗܘܢ	-1902
▁ܦܝܠܝܦܘܤ	-1903
▁ܗܝܡܢܘܬܟܘܢ	-1904
ܒܙ	-1905
ܛܢ	-1906
ܠܢ	-1907
ܒܚܗ	-1908
ܒܪܟ	-1909
ܝܪܝ	-1910
ܟܢܫ	-1911
ܠܗܢ	-1912
ܥܘܪ	-1913
ܦܝܤ	-1914
ܬܪܗ	-1915
▁ܗܒ	-1916
▁ܟܝ	-1917
▁ܢܓ	-1918
▁ܤܘ	-1919
▁ܤܦ	-1920
▁ܬܪ	-1921
▁ܬܫ	-1922
ܒܝܢܗ	-1923
ܕܘܬܐ	-1924
ܘܕܦܐ	-1925
ܛܘܬܐ	-1926
ܝܬܩܐ	-1927
ܡܠܠܘ	-1928
ܤܛܘܤ	-1929
ܪܝܢܢ	-1930
ܪܟܘܢ	-1931
▁ܐܤܛ	-1932
▁ܒܚܛ	-1933
▁ܕܚܠ	-1934
▁ܕܢܨ	-1935
▁ܗܠܟ	-1936
▁ܘܒܢ	-1937
▁ܘܒܨ	-1938
▁ܘܠܘ	-1939
▁ܘܫܩ	-1940
▁ܡܐܐ	-1941
▁ܦܠܚ	-1942
▁ܪܒܢ	-1943
▁ܬܪܢ	-1944
ܘܠܨܢܐ	-1945
ܝܪܘܬܐ	-1946
ܬܝܕܝܢ	-1947
▁ܐܓܪܐ	-1948
▁ܐܫܠܡ	-1949
▁ܒܚܕܐ	-1950
▁ܒܫܡܝ	-1951
▁ܕܐܒܝ	-1952
▁ܕܐܙܠ	-1953
▁ܕܢܬܠ	-1954
▁ܕܬܠܬ	-1955
▁ܗܕܡܐ	-1956
▁ܘܒܢܝ	-1957
▁ܘܚܢܢ	-1958
▁ܘܩܠܐ	-1959
▁ܘܫܬܐ	-1960
▁ܙܩܝܦ	-1961
▁ܠܗܕܐ	-1962
▁ܠܟܠܗ	-1963
▁ܠܠܝܐ	-1964
▁ܠܢܦܫ	-1965
▁ܡܫܕܪ	-1966
▁ܢܤܒܝ	-1967
▁ܢܦܫܐ	-1968
▁ܥܢܢܐ	-1969
▁ܫܡܥܬ	-1970
▁ܐܫܬܟܚ	-1971
▁ܒܒܝܬܐ	-1972
▁ܒܢܘܗܝ	-1973
▁ܒܢܦܫܗ	-1974
▁ܓܠܝܠܐ	-1975
▁ܕܢܐܡܪ	-1976
▁ܕܫܒܬܐ	-1977
▁ܕܫܦܝܪ	-1978
▁ܝܬܝܪܐ	-1979
▁ܡܤܝܒܪ	-1980
▁ܦܬܟܪܐ	-1981
▁ܪܘܪܒܐ	-1982
▁ܐܬܟܢܫܘ	-1983
▁ܕܤܓܝܐܐ	-1984
▁ܕܫܡܥܘܢ	-1985
▁ܠܡܫܝܚܐ	-1986
▁ܠܝܗܘܕܝܐ	-1987
▁ܕܡܗܝܡܢܝܢ	-1988
ܐܪ	-1989
ܒܤ	-1990
ܢܚ	-1991
ܒܢܝ	-1992
ܘܠܦ	-1993
ܘܪܕ	-1994
ܛܘܢ	-1995
ܝܩܪ	-1996
ܟܪܟ	-1997
ܤܬܐ	-1998
ܨܝܢ	-1999
ܫܒܥ	-2000
ܬܚܬ	-2001
▁ܡܕ	-2002
▁ܢܘ	-2003
▁ܥܤ	-2004
ܓܘܢܐ	-2005
ܗܝܪܐ	-2006
ܢܚܘܡ	-2007
ܥܝܢܐ	-2008
ܥܠܕܒ	-2009
ܫܒܝܢ	-2010
ܫܒܬܐ	-2011
ܫܬܝܢ	-2012
▁ܒܕܚ	-2013
▁ܓܢܒ	-2014
▁ܕܡܫ	-2015
▁ܘܪܘ	-2016
▁ܝܪܬ	-2017
▁ܟܠܢ	-2018
▁ܟܦܪ	-2019
▁ܠܐܤ	-2020
▁ܢܬܬ	-2021
▁ܤܐܡ	-2022
▁ܪܕܦ	-2023
▁ܪܝܫ	-2024
ܘܠܦܢܗ	-2025
ܪܝܘܗܝ	-2026
▁ܐܫܬܐ	-2027
▁ܒܒܝܬ	-2028
▁ܕܐܟܠ	-2029
▁ܕܟܬܝ	-2030
▁ܕܡܢܘ	-2031
▁ܕܢܚܬ	-2032
▁ܕܩܤܪ	-2033
▁ܕܪܝܫ	-2034
▁ܗܘܝܘ	-2035
▁ܘܒܪܟ	-2036
▁ܘܕܒܪ	-2037
▁ܘܚܕܐ	-2038
▁ܘܚܝܐ	-2039
▁ܘܟܐܐ	-2040
▁ܘܠܡܢ	-2041
▁ܘܡܢܘ	-2042
▁ܘܡܬܚ	-2043
▁ܘܢܚܬ	-2044
▁ܘܬܡܢ	-2045
▁ܚܝܠܗ	-2046
▁ܠܘܬܢ	-2047
▁ܠܡܕܥ	-2048
▁ܠܡܦܩ	-2049
▁ܥܒܕܬ	-2050
▁ܥܒܪܐ	-2051
▁ܥܤܪܐ	-2052
▁ܪܫܝܢ	-2053
ܬܝܒܘܬܐ	-2054
▁ܐܝܕܝܐ	-2055
▁ܐܬܪܚܡ	-2056
▁ܒܐܝܢܐ	-2057
▁ܒܪܝܬܐ	-2058
▁ܕܘܟܬܐ	-2059
▁ܕܢܥܒܕ	-2060
▁ܕܢܫܠܡ	-2061
▁ܕܥܒܕܐ	-2062
▁ܘܐܡܪܬ	-2063
▁ܘܗܝܡܢ	-2064
▁ܘܢܒܝܐ	-2065
▁ܘܪܘܚܐ	-2066
▁ܚܛܗܝܢ	-2067
▁ܝܡܝܢܐ	-2068
▁ܠܡܫܡܥ	-2069
▁ܫܪܒܬܗ	-2070
▁ܐܪܡܠܬܐ	-2071
▁ܒܟܠܡܕܡ	-2072
▁ܘܝܘܚܢܢ	-2073
▁ܠܡܤܟܢܐ	-2074
▁ܢܐܡܪܘܢ	-2075
▁ܩܕܝܫܬܐ	-2076
▁ܩܘܪܒܢܐ	-2077
▁ܫܡܥܬܘܢ	-2078
▁ܐܚܪܢܝܬܐ	-2079
▁ܕܐܝܤܪܝܠ	-2080
▁ܕܐܬܝܗܒܬ	-2081
▁ܙܕܝܩܘܬܐ	-2082
▁ܩܢܛܪܘܢܐ	-2083
ܩܗ	-2084
ܫܕ	-2085
ܗܒܐ	-2086
ܗܝܒ	-2087
ܝܕܗ	-2088
ܝܕܢ	-2089
ܠܝܬ	-2090
ܪܡܐ	-2091
ܫܡܫ	-2092
▁ܨܐ	-2093
▁ܪܥ	-2094
ܒܥܘܢ	-2095
ܚܕܘܢ	-2096
ܝܗܝܢ	-2097
ܝܟܝܢ	-2098
ܡܠܠܐ	-2099
ܢܘܬܗ	-2100
ܪܝܪܐ	-2101
ܫܒܘܩ	-2102
ܫܘܗܝ	-2103
▁ܐܪܥ	-2104
▁ܒܗܬ	-2105
▁ܓܠܝ	-2106
▁ܕܐܙ	-2107
▁ܕܟܐ	-2108
▁ܕܠܒ	-2109
▁ܘܠܦ	-2110
▁ܘܠܬ	-2111
▁ܚܙܝ	-2112
▁ܚܡܫ	-2113
▁ܝܠܦ	-2114
▁ܠܒܥ	-2115
▁ܡܛܝ	-2116
▁ܡܬܢ	-2117
▁ܥܢܘ	-2118
▁ܫܡܐ	-2119
▁ܫܡܝ	-2120
▁ܬܪܡ	-2121
ܕܡܪܝܢ	-2122
ܗܘܡܝܐ	-2123
ܘܪܕܢܢ	-2124
ܫܐܠܘܢ	-2125
▁ܐܟܪܙ	-2126
▁ܐܠܝܐ	-2127
▁ܐܪܒܥ	-2128
▁ܒܝܘܡ	-2129
▁ܕܐܬܘ	-2130
▁ܕܐܬܬ	-2131
▁ܕܕܠܐ	-2132
▁ܕܩܪܐ	-2133
▁ܘܡܪܢ	-2134
▁ܛܝܒܘ	-2135
▁ܝܗܘܕ	-2136
▁ܠܐܒܝ	-2137
▁ܠܬܡܢ	-2138
▁ܡܠܠܬ	-2139
▁ܡܫܡܫ	-2140
▁ܢܤܒܘ	-2141
▁ܢܫܠܡ	-2142
▁ܫܐܘܠ	-2143
▁ܐܓܪܬܐ	-2144
▁ܐܦܘܗܝ	-2145
▁ܐܫܥܝܐ	-2146
▁ܐܬܝܗܒ	-2147
▁ܐܬܝܠܕ	-2148
▁ܒܒܝܬܗ	-2149
▁ܒܠܫܢܐ	-2150
▁ܕܝܬܝܪ	-2151
▁ܕܡܝܬܐ	-2152
▁ܕܢܦܫܗ	-2153
▁ܘܐܫܠܡ	-2154
▁ܘܚܝܠܐ	-2155
▁ܘܡܟܪܙ	-2156
▁ܘܬܗܘܐ	-2157
▁ܚܙܝܗܝ	-2158
▁ܚܫܘܟܐ	-2159
▁ܠܡܗܘܐ	-2160
▁ܒܝܘܡܬܐ	-2161
▁ܒܟܠܗܘܢ	-2162
▁ܘܐܝܩܪܐ	-2163
▁ܙܢܝܘܬܐ	-2164
▁ܚܙܐܘܗܝ	-2165
▁ܟܠܝܪܟܐ	-2166
▁ܠܐܒܘܗܝ	-2167
▁ܠܚܝܘܬܐ	-2168
▁ܡܥܡܕܢܐ	-2169
▁ܬܕܚܠܘܢ	-2170
▁ܬܪܝܗܘܢ	-2171
▁ܐܟܠܩܪܨܐ	-2172
▁ܒܫܠܡܟܘܢ	-2173
▁ܕܟܐܢܘܬܐ	-2174
▁ܘܐܝܬܘܗܝ	-2175
▁ܛܘܒܝܗܘܢ	-2176
▁ܠܒܘܬܟܘܢ	-2177
▁ܠܥܒܕܘܗܝ	-2178
▁ܬܗܝܡܢܘܢ	-2179
▁ܡܬܛܦܝܤܝܢ	-2180
▁ܐܤܛܪܛܝܘܛܐ	-2181
ܢܩ	-2182
ܒܘܟ	-2183
ܓܘܪ	-2184
ܝܩܐ	-2185
ܩܕܫ	-2186
ܪܝܬ	-2187
ܪܤܐ	-2188
▁ܓܘ	-2189
▁ܛܪ	-2190
ܘܗܪܗ	-2191
ܘܠܝܐ	-2192
ܘܤܝܐ	-2193
ܘܬܒܐ	-2194
ܚܙܝܢ	-2195
ܝܤܚܩ	-2196
ܠܐܬܐ	-2197
ܥܝܬܐ	-2198
ܩܐܝܬ	-2199
ܩܪܒܐ	-2200
ܬܝܬܗ	-2201
▁ܐܘܪ	-2202
▁ܐܬܠ	-2203
▁ܒܡܨ	-2204
▁ܒܪܫ	-2205
▁ܕܒܟ	-2206
▁ܕܒܠ	-2207
▁ܕܡܙ	-2208
▁ܕܢܥ	-2209
▁ܕܤܡ	-2210
▁ܕܩܡ	-2211
▁ܘܒܫ	-2212
▁ܟܢܫ	-2213
▁ܠܕܪ	-2214
▁ܠܗܝ	-2215
▁ܠܦܪ	-2216
▁ܢܬܪ	-2217
▁ܤܢܐ	-2218
▁ܤܥܪ	-2219
▁ܦܘܪ	-2220
▁ܩܠܗ	-2221
▁ܩܡܬ	-2222
▁ܩܤܪ	-2223
▁ܩܫܝ	-2224
▁ܫܢܐ	-2225
▁ܫܥܐ	-2226
▁ܬܬܐ	-2227
ܢܝܟܘܢ	-2228
ܬܝܗܘܢ	-2229
▁ܐܤܝܪ	-2230
▁ܕܗܘܘ	-2231
▁ܕܚܙܘ	-2232
▁ܕܡܢܐ	-2233
▁ܕܢܚܐ	-2234
▁ܕܫܠܝ	-2235
▁ܕܬܘܒ	-2236
▁ܗܟܘܬ	-2237
▁ܗܢܝܢ	-2238
▁ܘܗܘܘ	-2239
▁ܘܗܢܐ	-2240
▁ܘܚܙܘ	-2241
▁ܘܡܢܐ	-2242
▁ܘܩܡܘ	-2243
▁ܘܩܥܐ	-2244
▁ܚܘܒܗ	-2245
▁ܟܬܘܒ	-2246
▁ܠܐܒܐ	-2247
▁ܠܡܤܒ	-2248
▁ܡܚܝܒ	-2249
▁ܡܠܝܢ	-2250
▁ܢܡܘܬ	-2251
▁ܢܦܠܘ	-2252
▁ܢܦܩܬ	-2253
▁ܥܒܕܝ	-2254
▁ܥܢܝܐ	-2255
▁ܥܪܒܐ	-2256
▁ܩܕܡܝ	-2257
ܦܪܢܚܘܡ	-2258
▁ܐܟܠܝܢ	-2259
▁ܐܬܝܕܥ	-2260
▁ܒܗܢܘܢ	-2261
▁ܕܐܫܟܚ	-2262
▁ܕܒܥܝܢ	-2263
▁ܕܕܝܢܐ	-2264
▁ܕܚܝܠܐ	-2265
▁ܕܝܗܒܬ	-2266
▁ܕܝܘܡܐ	-2267
▁ܕܡܠܟܐ	-2268
▁ܕܢܚܙܐ	-2269
▁ܕܢܥܘܠ	-2270
▁ܕܤܛܢܐ	-2271
▁ܕܥܕܬܐ	-2272
▁ܕܫܠܡܐ	-2273
▁ܟܠܝܘܡ	-2274
▁ܠܐܝܟܐ	-2275
▁ܠܐܝܢܐ	-2276
▁ܠܚܡܝܢ	-2277
▁ܡܡܬܘܡ	-2278
▁ܤܝܡܬܐ	-2279
▁ܪܘܚܩܐ	-2280
ܥܡܘܕܝܬܐ	-2281
▁ܒܡܕܒܪܐ	-2282
▁ܒܨܠܘܬܐ	-2283
▁ܕܒܝܫܘܥ	-2284
▁ܕܕܝܬܩܐ	-2285
▁ܕܝܥܩܘܒ	-2286
▁ܕܥܐܠܝܢ	-2287
▁ܕܦܪܝܫܐ	-2288
▁ܕܫܠܝܚܐ	-2289
▁ܠܐܒܪܗܡ	-2290
▁ܠܒܪܢܫܐ	-2291
▁ܠܡܡܠܠܘ	-2292
▁ܠܩܪܝܬܐ	-2293
▁ܦܘܪܩܢܐ	-2294
ܤܝܒܪܢܘܬܐ	-2295
ܩܛܠܘܢܝܗܝ	-2296
▁ܕܚܙܝܬܘܢ	-2297
▁ܠܡܠܟܘܬܐ	-2298
▁ܡܛܠܬܟܘܢ	-2299
ܙܒ	-2300
ܚܕ	-2301
ܤܟ	-2302
ܦܘ	-2303
ܦܛ	-2304
ܦܬ	-2305
ܬܒ	-2306
ܒܕܝ	-2307
ܓܝܐ	-2308
ܓܪܬ	-2309
ܕܢܗ	-2310
ܘܒܗ	-2311
ܙܝܢ	-2312
ܚܢܐ	-2313
ܛܝܒ	-2314
ܛܡܐ	-2315
ܟܘܤ	-2316
ܠܗܝ	-2317
ܠܝܗ	-2318
ܠܥܤ	-2319
ܢܦܐ	-2320
ܤܘܢ	-2321
ܥܝܘ	-2322
ܪܒܥ	-2323
ܫܒܚ	-2324
ܫܒܬ	-2325
ܫܝܓ	-2326
▁ܓܡ	-2327
▁ܡܓ	-2328
▁ܢܩ	-2329
▁ܩܛ	-2330
▁ܫܬ	-2331
ܒܗܬܢ	-2332
ܗܘܡܐ	-2333
ܚܡܝܢ	-2334
ܛܝܬܐ	-2335
ܝܐܝܬ	-2336
ܝܪܘܬ	-2337
ܟܠܢܐ	-2338
ܡܤܘܩ	-2339
ܥܝܪܘ	-2340
ܦܐܪܐ	-2341
ܦܤܘܤ	-2342
ܨܘܗܝ	-2343
ܩܛܘܠ	-2344
ܩܪܘܢ	-2345
ܪܒܬܐ	-2346
ܫܡܫܬ	-2347
ܫܬܘܢ	-2348
▁ܐܚܕ	-2349
▁ܐܚܘ	-2350
▁ܐܬܢ	-2351
▁ܒܕܪ	-2352
▁ܕܒܒ	-2353
▁ܕܕܐ	-2354
▁ܕܚܪ	-2355
▁ܕܡܗ	-2356
▁ܘܒܛ	-2357
▁ܘܒܬ	-2358
▁ܘܫܒ	-2359
▁ܘܬܡ	-2360
▁ܛܘܗ	-2361
▁ܛܝܒ	-2362
▁ܝܘܢ	-2363
▁ܟܘܬ	-2364
▁ܟܢܝ	-2365
▁ܠܐܢ	-2366
▁ܡܤܬ	-2367
▁ܡܫܠ	-2368
▁ܡܬܗ	-2369
▁ܢܕܥ	-2370
▁ܤܦܩ	-2371
▁ܥܡܕ	-2372
▁ܥܡܪ	-2373
▁ܦܠܓ	-2374
▁ܨܠܘ	-2375
▁ܪܓܝ	-2376
▁ܬܢܢ	-2377
▁ܬܬܚ	-2378
ܓܘܫܝܐ	-2379
ܕܪܐܘܤ	-2380
ܗܤܛܘܤ	-2381
ܘܩܕܢܐ	-2382
ܤܝܘܢܐ	-2383
ܥܒܕܝܢ	-2384
ܫܡܝܬܐ	-2385
ܫܬܟܘܢ	-2386
▁ܐܢܬܝ	-2387
▁ܐܫܬܡ	-2388
▁ܒܕܡܐ	-2389
▁ܒܙܒܢ	-2390
▁ܒܠܒܗ	-2391
▁ܒܡܕܡ	-2392
▁ܒܥܠܗ	-2393
▁ܕܗܕܐ	-2394
▁ܕܗܘܬ	-2395
▁ܕܙܪܥ	-2396
▁ܕܚܕܐ	-2397
▁ܕܚܠܬ	-2398
▁ܕܢܛܪ	-2399
▁ܕܥܡܝ	-2400
▁ܕܩܪܝ	-2401
▁ܕܬܡܢ	-2402
▁ܘܕܡܐ	-2403
▁ܘܩܛܠ	-2404
▁ܘܪܗܛ	-2405
▁ܚܒܠܐ	-2406
▁ܝܘܢܐ	-2407
▁ܝܪܬܐ	-2408
▁ܟܪܡܐ	-2409
▁ܠܡܬܠ	-2410
▁ܠܤܗܕ	-2411
▁ܡܟܝܟ	-2412
▁ܡܫܒܚ	-2413
▁ܢܦܠܬ	-2414
▁ܥܩܪܐ	-2415
▁ܦܓܪܝ	-2416
▁ܦܘܡܐ	-2417
▁ܩܝܡܐ	-2418
▁ܩܢܝܢ	-2419
▁ܩܪܝܐ	-2420
▁ܪܡܫܐ	-2421
▁ܫܒܛܐ	-2422
▁ܐܫܟܚܬ	-2423
▁ܐܫܬܠܡ	-2424
▁ܓܒܪܝܢ	-2425
▁ܕܐܡܪܬ	-2426
▁ܕܟܠܢܫ	-2427
▁ܕܢܫܡܥ	-2428
▁ܕܨܒܝܢ	-2429
▁ܕܬܪܝܢ	-2430
▁ܘܐܠܗܐ	-2431
▁ܘܐܦܠܐ	-2432
▁ܘܐܪܝܡ	-2433
▁ܘܓܒܪܐ	-2434
▁ܘܠܐܡܗ	-2435
▁ܘܫܕܪܘ	-2436
▁ܘܫܡܥܘ	-2437
▁ܘܫܪܝܘ	-2438
▁ܚܠܦܝܢ	-2439
▁ܟܠܝܠܐ	-2440
▁ܠܐܠܦܐ	-2441
▁ܠܡܚܙܐ	-2442
▁ܠܥܒܪܐ	-2443
▁ܠܪܘܚܐ	-2444
▁ܡܫܪܝܐ	-2445
▁ܢܚܙܘܢ	-2446
▁ܢܬܩܪܐ	-2447
▁ܩܕܡܝܟ	-2448
ܢܘܫܬܗܘܢ	-2449
▁ܐܦܝܟܘܢ	-2450
▁ܒܕܚܠܬܐ	-2451
▁ܕܡܠܐܟܐ	-2452
▁ܕܥܡܪܝܢ	-2453
▁ܕܦܘܠܘܤ	-2454
▁ܗܓܡܘܢܐ	-2455
▁ܘܐܩܝܡܗ	-2456
▁ܘܐܪܡܝܘ	-2457
▁ܘܐܬܚܙܝ	-2458
▁ܘܐܬܦܢܝ	-2459
▁ܠܝܘܚܢܢ	-2460
▁ܢܘܟܪܝܐ	-2461
▁ܥܒܝܕܝܢ	-2462
▁ܬܪܢܓܠܐ	-2463
▁ܘܠܝܘܚܢܢ	-2464
▁ܘܫܐܠܘܗܝ	-2465
▁ܠܟܢܘܫܬܐ	-2466
ܝܦ	-2467
ܟܒ	-2468
ܪܩ	-2469
ܫܛ	-2470
ܒܫܐ	-2471
ܓܕܦ	-2472
ܕܝܘ	-2473
ܕܟܐ	-2474
ܘܪܤ	-2475
ܙܝܥ	-2476
ܚܘܕ	-2477
ܝܕܝ	-2478
ܝܬܪ	-2479
ܟܬܒ	-2480
ܪܘܩ	-2481
ܫܠܐ	-2482
▁ܐܒ	-2483
▁ܐܥ	-2484
▁ܙܒ	-2485
▁ܠܕ	-2486
▁ܦܤ	-2487
▁ܩܢ	-2488
▁ܬܛ	-2489
▁ܬܩ	-2490
ܒܕܢܐ	-2491
ܕܡܪܘ	-2492
ܘܠܬܗ	-2493
ܚܘܡܐ	-2494
ܟܝܟܐ	-2495
ܦܠܚܐ	-2496
ܩܘܘܢ	-2497
ܬܘܬܐ	-2498
▁ܐܟܤ	-2499
▁ܒܝܡ	-2500
▁ܒܡܪ	-2501
▁ܒܩܘ	-2502
▁ܕܐܒ	-2503
▁ܕܩܘ	-2504
▁ܕܪܥ	-2505
▁ܘܚܘ	-2506
▁ܘܪܓ	-2507
▁ܚܛܐ	-2508
▁ܚܦܝ	-2509
▁ܛܘܒ	-2510
▁ܡܬܒ	-2511
▁ܥܘܠ	-2512
▁ܨܒܘ	-2513
▁ܩܪܝ	-2514
▁ܪܕܘ	-2515
▁ܬܒܘ	-2516
▁ܬܪܝ	-2517
ܓܝܓܬܐ	-2518
ܘܢܟܘܢ	-2519
ܪܝܘܛܐ	-2520
ܪܬܗܘܢ	-2521
ܫܐܠܝܢ	-2522
▁ܐܬܝܐ	-2523
▁ܒܟܝܐ	-2524
▁ܓܠܝܐ	-2525
▁ܓܢܒܐ	-2526
▁ܕܘܟܐ	-2527
▁ܕܠܘܬ	-2528
▁ܕܡܠܠ	-2529
▁ܕܡܢܗ	-2530
▁ܕܥܠܝ	-2531
▁ܘܐܤܬ	-2532
▁ܘܒܝܬ	-2533
▁ܘܨܒܐ	-2534
▁ܘܫܐܠ	-2535
▁ܙܪܥܗ	-2536
▁ܚܘܪܐ	-2537
▁ܝܪܚܐ	-2538
▁ܟܘܒܐ	-2539
▁ܠܐܡܗ	-2540
▁ܠܒܪܐ	-2541
▁ܠܡܥܠ	-2542
▁ܠܡܩܡ	-2543
▁ܡܨܝܕ	-2544
▁ܡܪܬܐ	-2545
▁ܢܘܒܕ	-2546
▁ܢܘܢܐ	-2547
▁ܤܢܝܩ	-2548
▁ܨܝܕܐ	-2549
▁ܨܦܪܐ	-2550
▁ܩܒܪܐ	-2551
▁ܩܪܒܐ	-2552
▁ܪܕܝܢ	-2553
▁ܪܚܝܩ	-2554
▁ܒܥܕܬܐ	-2555
▁ܒܫܪܪܐ	-2556
▁ܕܐܝܬܝ	-2557
▁ܕܐܫܠܡ	-2558
▁ܕܒܗܘܢ	-2559
▁ܕܒܝܫܐ	-2560
▁ܕܬܚܝܬ	-2561
▁ܘܟܢܫܐ	-2562
▁ܘܬܪܝܢ	-2563
▁ܠܒܗܘܢ	-2564
▁ܠܕܝܢܐ	-2565
▁ܠܥܒܕܐ	-2566
▁ܡܫܬܠܡ	-2567
▁ܢܫܬܒܩ	-2568
▁ܤܒܪܬܐ	-2569
▁ܤܗܕܝܢ	-2570
▁ܨܒܘܬܐ	-2571
▁ܪܫܝܬܐ	-2572
▁ܬܚܙܘܢ	-2573
▁ܬܢܝܢܐ	-2574
ܝܬܘܢܝܗܝ	-2575
▁ܒܫܘܒܚܐ	-2576
▁ܕܗܪܘܕܤ	-2577
▁ܕܚܝܘܬܐ	-2578
▁ܕܝܘܡܢܐ	-2579
▁ܕܝܡܝܢܐ	-2580
▁ܕܝܬܒܝܢ	-2581
▁ܕܢܬܡܠܐ	-2582
▁ܘܢܗܘܘܢ	-2583
▁ܠܢܡܘܤܐ	-2584
▁ܠܬܪܥܤܪ	-2585
▁ܤܝܒܪܬܐ	-2586
▁ܬܥܒܕܘܢ	-2587
▁ܐܝܕܝܗܘܢ	-2588
▁ܒܛܝܒܘܬܐ	-2589
▁ܒܤܦܝܢܬܐ	-2590
▁ܕܡܠܟܘܬܐ	-2591
▁ܕܫܡܥܬܘܢ	-2592
▁ܠܬܝܒܘܬܐ	-2593
▁ܡܓܕܠܝܬܐ	-2594
▁ܡܠܐܟܘܗܝ	-2595
▁ܤܟܪܝܘܛܐ	-2596
▁ܘܐܝܬܝܘܗܝ	-2597
▁ܦܘܩܕܢܘܗܝ	-2598
▁ܕܐܘܢܓܠܝܘܢ	-2599
▁ܘܬܠܡܝܕܘܗܝ	-2600
ܚܬ	-2601
ܕܘܡ	-2602
ܕܝܗ	-2603
ܕܬܗ	-2604
ܗܒܘ	-2605
ܘܚܪ	-2606
ܘܪܒ	-2607
ܙܟܐ	-2608
ܙܢܐ	-2609
ܚܢܢ	-2610
ܝܪܢ	-2611
ܝܬܒ	-2612
ܤܝܘ	-2613
ܦܪܫ	-2614
ܦܫܛ	-2615
▁ܟܟ	-2616
▁ܥܘ	-2617
ܒܘܫܐ	-2618
ܒܪܘܢ	-2619
ܕܡܝܢ	-2620
ܙܕܩܦ	-2621
ܚܘܗܝ	-2622
ܝܕܝܟ	-2623
ܝܠܬܐ	-2624
ܟܐܝܐ	-2625
ܠܝܘܤ	-2626
ܡܠܝܐ	-2627
ܢܝܗܝ	-2628
ܢܝܩܐ	-2629
ܥܪܝܢ	-2630
ܪܝܘܤ	-2631
ܫܝܥܐ	-2632
ܫܠܬܐ	-2633
▁ܐܠܨ	-2634
▁ܐܦܤ	-2635
▁ܐܨܛ	-2636
▁ܐܬܒ	-2637
▁ܐܬܓ	-2638
▁ܒܝܫ	-2639
▁ܒܢܐ	-2640
▁ܓܠܐ	-2641
▁ܕܚܐ	-2642
▁ܕܢܟ	-2643
▁ܕܢܪ	-2644
▁ܗܒܘ	-2645
▁ܘܒܕ	-2646
▁ܘܒܙ	-2647
▁ܘܒܟ	-2648
▁ܘܠܫ	-2649
▁ܘܬܬ	-2650
▁ܚܕܘ	-2651
▁ܝܨܦ	-2652
▁ܟܪܤ	-2653
▁ܠܢܦ	-2654
▁ܡܟܐ	-2655
▁ܡܡܪ	-2656
▁ܥܠܘ	-2657
▁ܩܝܡ	-2658
▁ܩܡܘ	-2659
▁ܫܒܝ	-2660
▁ܬܫܒ	-2661
ܕܝܢܘܤ	-2662
ܕܝܢܬܗ	-2663
ܕܡܪܬܐ	-2664
ܝܬܟܘܢ	-2665
ܩܘܒܠܐ	-2666
ܫܟܚܘܢ	-2667
ܬܝܗܝܢ	-2668
▁ܐܘܕܥ	-2669
▁ܐܤܝܐ	-2670
▁ܓܒܝܐ	-2671
▁ܕܐܬܪ	-2672
▁ܕܒܚܐ	-2673
▁ܕܒܤܪ	-2674
▁ܕܤܠܩ	-2675
▁ܕܤܢܐ	-2676
▁ܕܥܒܪ	-2677
▁ܘܐܒܝ	-2678
▁ܘܐܠܐ	-2679
▁ܘܐܢܫ	-2680
▁ܘܐܬܠ	-2681
▁ܘܡܠܐ	-2682
▁ܘܩܨܐ	-2683
▁ܘܫܠܝ	-2684
▁ܙܒܕܝ	-2685
▁ܙܥܘܪ	-2686
▁ܚܐܪܐ	-2687
▁ܚܤܡܐ	-2688
▁ܟܘܪܤ	-2689
▁ܟܪܝܗ	-2690
▁ܠܡܡܬ	-2691
▁ܠܡܪܗ	-2692
▁ܠܡܫܬ	-2693
▁ܡܛܪܐ	-2694
▁ܡܝܬܬ	-2695
▁ܡܥܡܕ	-2696
▁ܡܬܘܡ	-2697
▁ܢܚܙܐ	-2698
▁ܤܠܩܘ	-2699
▁ܥܝܢܟ	-2700
▁ܩܥܝܢ	-2701
▁ܫܒܘܩ	-2702
▁ܫܘܥܐ	-2703
▁ܫܠܝܐ	-2704
▁ܬܕܚܠ	-2705
▁ܐܝܬܝܢ	-2706
▁ܐܡܝܢܐ	-2707
▁ܐܬܦܬܚ	-2708
▁ܒܙܒܢܐ	-2709
▁ܒܚܙܘܐ	-2710
▁ܒܡܪܝܐ	-2711
▁ܒܥܡܡܐ	-2712
▁ܒܪܢܒܐ	-2713
▁ܒܫܘܩܐ	-2714
▁ܒܬܪܟܢ	-2715
▁ܕܐܬܝܢ	-2716
▁ܕܐܬܝܬ	-2717
▁ܕܝܗܘܕ	-2718
▁ܕܝܬܩܐ	-2719
▁ܕܢܡܠܠ	-2720
▁ܕܢܫܪܐ	-2721
▁ܕܥܘܠܐ	-2722
▁ܕܩܪܝܢ	-2723
▁ܕܫܒܥܐ	-2724
▁ܘܐܡܝܢ	-2725
▁ܘܕܚܠܘ	-2726
▁ܘܡܪܝܡ	-2727
▁ܘܥܒܕܘ	-2728
▁ܘܫܐܠܗ	-2729
▁ܘܫܩܠܘ	-2730
▁ܘܫܬܝܢ	-2731
▁ܝܕܝܥܐ	-2732
▁ܝܕܥܬܐ	-2733
▁ܠܚܪܬܐ	-2734
▁ܠܡܐܬܐ	-2735
▁ܠܡܩܛܠ	-2736
▁ܠܢܦܫܗ	-2737
▁ܡܕܒܚܐ	-2738
▁ܡܘܕܝܢ	-2739
▁ܡܙܕܕܩ	-2740
▁ܡܚܘܬܐ	-2741
▁ܡܢܗܝܢ	-2742
▁ܡܬܒܥܐ	-2743
▁ܥܘܬܪܐ	-2744
▁ܥܠܝܡܐ	-2745
▁ܫܒܘܩܘ	-2746
▁ܐܚܝܕܝܢ	-2747
▁ܐܚܪܢܝܢ	-2748
▁ܒܐܝܠܝܢ	-2749
▁ܒܕܘܟܬܐ	-2750
▁ܒܚܫܘܟܐ	-2751
▁ܒܠܒܗܘܢ	-2752
▁ܕܗܝܟܠܐ	-2753
▁ܕܝܗܘܕܐ	-2754
▁ܕܢܐܬܘܢ	-2755
▁ܕܢܚܙܘܢ	-2756
▁ܘܝܕܥܝܢ	-2757
▁ܘܝܥܩܘܒ	-2758
▁ܘܫܡܥܘܢ	-2759
▁ܠܐܢܬܬܐ	-2760
▁ܠܕܘܟܬܐ	-2761
▁ܠܚܛܝܬܐ	-2762
▁ܡܫܠܡܢܐ	-2763
▁ܦܪܨܘܦܗ	-2764
▁ܒܐܝܕܘܗܝ	-2765
▁ܒܢܦܫܟܘܢ	-2766
▁ܕܢܐܙܠܘܢ	-2767
▁ܚܠܦܝܟܘܢ	-2768
▁ܠܬܠܡܝܕܐ	-2769
▁ܡܩܕܘܢܝܐ	-2770
▁ܡܬܚܫܒܝܢ	-2771
▁ܪܓܠܝܗܘܢ	-2772
▁ܘܬܫܒܘܚܬܐ	-2773
▁ܠܡܩܕܘܢܝܐ	-2774
▁ܡܥܡܘܕܝܬܐ	-2775
ܒܫ	-2776
ܘܨ	-2777
ܟܫ	-2778
ܡܫ	-2779
ܥܗ	-2780
ܪܪ	-2781
ܓܙܗ	-2782
ܕܪܟ	-2783
ܘܪܘ	-2784
ܚܘܟ	-2785
ܛܝܟ	-2786
ܝܢܗ	-2787
ܝܬܟ	-2788
ܠܘܚ	-2789
ܢܝܚ	-2790
ܦܫܩ	-2791
ܨܝܐ	-2792
ܪܝܤ	-2793
▁ܙܟ	-2794
▁ܟܦ	-2795
▁ܤܝ	-2796
▁ܬܦ	-2797
ܒܪܬܗ	-2798
ܓܝܪܐ	-2799
ܘܕܝܐ	-2800
ܘܢܝܢ	-2801
ܚܪܢܐ	-2802
ܟܘܢܐ	-2803
ܟܪܙܘ	-2804
ܠܘܕܐ	-2805
ܠܦܘܢ	-2806
ܡܘܪܐ	-2807
ܥܪܢܐ	-2808
ܦܠܓܗ	-2809
ܦܢܘܢ	-2810
ܪܘܬܐ	-2811
ܬܝܕܥ	-2812
ܬܝܬܐ	-2813
ܬܪܝܢ	-2814
▁ܐܦܐ	-2815
▁ܒܡܢ	-2816
▁ܒܪܟ	-2817
▁ܓܒܐ	-2818
▁ܕܒܕ	-2819
▁ܕܟܤ	-2820
▁ܕܠܢ	-2821
▁ܕܦܩ	-2822
▁ܕܫܪ	-2823
▁ܕܬܫ	-2824
▁ܗܕܡ	-2825
▁ܘܐܫ	-2826
▁ܘܒܥ	-2827
▁ܘܕܪ	-2828
▁ܘܟܢ	-2829
▁ܘܠܤ	-2830
▁ܘܡܛ	-2831
▁ܘܩܘ	-2832
▁ܘܬܫ	-2833
▁ܚܘܐ	-2834
▁ܛܠܝ	-2835
▁ܝܘܬ	-2836
▁ܟܒܪ	-2837
▁ܟܬܝ	-2838
▁ܠܡܙ	-2839
▁ܡܚܘ	-2840
▁ܡܫܘ	-2841
▁ܡܫܝ	-2842
▁ܥܓܠ	-2843
▁ܩܠܝ	-2844
▁ܪܘܪ	-2845
▁ܫܡܟ	-2846
ܒܝܘܗܝ	-2847
ܕܘܩܝܐ	-2848
ܘܩܠܬܐ	-2849
ܙܘܪܬܐ	-2850
ܩܘܡܘܢ	-2851
ܩܝܡܬܐ	-2852
ܩܦܘܗܝ	-2853
ܫܒܚܝܢ	-2854
▁ܐܙܠܐ	-2855
▁ܐܝܕܟ	-2856
▁ܐܝܟܘ	-2857
▁ܐܬܕܟ	-2858
▁ܐܬܩܪ	-2859
▁ܒܡܠܐ	-2860
▁ܒܤܝܡ	-2861
▁ܒܫܒܐ	-2862
▁ܕܒܝܕ	-2863
▁ܕܒܪܐ	-2864
▁ܕܚܝܠ	-2865
▁ܕܟܡܐ	-2866
▁ܕܟܪܝ	-2867
▁ܕܡܚܒ	-2868
▁ܕܩܪܒ	-2869
▁ܕܫܒܩ	-2870
▁ܕܫܪܐ	-2871
▁ܗܘܝܐ	-2872
▁ܘܐܤܝ	-2873
▁ܘܐܤܪ	-2874
▁ܘܐܬܡ	-2875
▁ܘܒܥܘ	-2876
▁ܘܒܪܗ	-2877
▁ܘܥܒܪ	-2878
▁ܚܝܝܢ	-2879
▁ܛܢܦܐ	-2880
▁ܝܕܥܐ	-2881
▁ܝܗܝܒ	-2882
▁ܝܠܕܐ	-2883
▁ܠܐܘܪ	-2884
▁ܠܐܚܐ	-2885
▁ܠܐܬܪ	-2886
▁ܠܩܕܡ	-2887
▁ܠܩܘܒ	-2888
▁ܡܢܝܢ	-2889
▁ܡܢܬܐ	-2890
▁ܡܤܬܟ	-2891
▁ܡܦܝܤ	-2892
▁ܤܡܟܐ	-2893
▁ܥܕܠܐ	-2894
▁ܨܒܘܬ	-2895
▁ܩܒܠܘ	-2896
▁ܩܘܡܘ	-2897
▁ܩܪܒܬ	-2898
▁ܩܪܝܒ	-2899
▁ܩܪܩܦ	-2900
▁ܪܡܝܢ	-2901
▁ܪܥܝܐ	-2902
▁ܫܕܪܬ	-2903
▁ܬܥܒܕ	-2904
▁ܐܝܩܪܐ	-2905
▁ܐܡܪܢܐ	-2906
▁ܐܪܒܥܐ	-2907
▁ܒܐܬܪܐ	-2908
▁ܒܪܫܝܬ	-2909
▁ܕܐܚܝܕ	-2910
▁ܕܐܤܗܕ	-2911
▁ܕܐܥܒܕ	-2912
▁ܕܒܤܡܐ	-2913
▁ܕܗܘܝܢ	-2914
▁ܕܚܛܗܐ	-2915
▁ܕܟܬܒܐ	-2916
▁ܕܠܠܝܐ	-2917
▁ܕܡܝܬܪ	-2918
▁ܕܡܤܒܪ	-2919
▁ܕܢܤܝܡ	-2920
▁ܕܩܠܝܠ	-2921
▁ܘܐܪܡܝ	-2922
▁ܘܚܘܒܐ	-2923
▁ܘܡܠܟܐ	-2924
▁ܘܡܡܠܠ	-2925
▁ܘܢܐܡܪ	-2926
▁ܘܢܩܝܡ	-2927
▁ܘܥܠܡܐ	-2928
▁ܙܩܝܦܗ	-2929
▁ܚܢܢܝܐ	-2930
▁ܠܒܟܘܢ	-2931
▁ܠܛܠܝܐ	-2932
▁ܠܥܒܕܗ	-2933
▁ܡܛܠܬܗ	-2934
▁ܡܛܠܬܝ	-2935
▁ܡܠܘܗܝ	-2936
▁ܡܬܕܝܢ	-2937
▁ܡܬܚܒܠ	-2938
▁ܦܠܚܝܢ	-2939
▁ܦܬܘܪܐ	-2940
▁ܨܝܡܝܢ	-2941
▁ܩܘܪܝܐ	-2942
▁ܩܘܫܬܐ	-2943
▁ܪܘܓܙܐ	-2944
▁ܫܘܬܦܐ	-2945
▁ܫܡܪܝܐ	-2946
▁ܬܐܪܬܐ	-2947
▁ܒܚܕܘܬܐ	-2948
▁ܒܡܨܥܬܐ	-2949
▁ܒܨܒܝܢܗ	-2950
▁ܒܩܘܫܬܐ	-2951
▁ܓܠܝܠܝܐ	-2952
▁ܕܐܒܘܗܝ	-2953
▁ܕܐܟܠܝܢ	-2954
▁ܕܒܪܢܫܐ	-2955
▁ܕܕܚܠܝܢ	-2956
▁ܕܗܝܡܢܘ	-2957
▁ܕܟܬܝܒܢ	-2958
▁ܕܥܒܕܝܢ	-2959
▁ܕܫܘܒܚܗ	-2960
▁ܘܐܢܬܬܐ	-2961
▁ܘܬܗܘܘܢ	-2962
▁ܚܝܒܝܢܢ	-2963
▁ܟܢܝܫܝܢ	-2964
▁ܠܝܥܩܘܒ	-2965
▁ܠܩܤܪܝܐ	-2966
▁ܠܫܠܝܚܐ	-2967
▁ܡܓܕܦܝܢ	-2968
▁ܡܚܫܒܬܐ	-2969
▁ܡܠܐܟܝܢ	-2970
▁ܡܬܪܥܝܢ	-2971
▁ܢܡܠܠܘܢ	-2972
▁ܩܪܝܬܘܢ	-2973
▁ܫܬܐܤܬܐ	-2974
▁ܬܐܡܪܘܢ	-2975
▁ܒܝܘܠܦܢܗ	-2976
▁ܕܛܝܒܘܬܗ	-2977
▁ܕܠܘܬܟܘܢ	-2978
▁ܕܩܒܠܬܘܢ	-2979
▁ܕܬܫܡܫܬܐ	-2980
▁ܠܤܦܝܢܬܐ	-2981
▁ܥܘܪܠܘܬܐ	-2982
▁ܬܪܬܥܤܪܐ	-2983
▁ܒܐܝܕܝܗܘܢ	-2984
▁ܒܩܢܕܝܢܘܤ	-2985
▁ܕܬܫܒܘܚܬܗ	-2986
▁ܠܟܦܪܢܚܘܡ	-2987
ܗܢ	-2988
ܦܨ	-2989
ܒܝܗ	-2990
ܒܝܟ	-2991
ܒܥܘ	-2992
ܓܕܘ	-2993
ܕܟܝ	-2994
ܕܠܐ	-2995
ܗܕܐ	-2996
ܘܠܘ	-2997
ܘܠܨ	-2998
ܘܪܝ	-2999
ܛܠܗ	-3000
ܛܪܓ	-3001
ܛܬܐ	-3002
ܟܝܟ	-3003
ܟܡܐ	-3004
ܟܫܐ	-3005
ܡܐܐ	-3006
ܡܚܐ	-3007
ܡܪܬ	-3008
ܥܕܪ	-3009
ܦܝܐ	-3010
ܩܕܡ	-3011
ܪܘܥ	-3012
ܪܝܩ	-3013
ܬܠܐ	-3014
▁ܬܡ	-3015
ܒܚܝܢ	-3016
ܒܝܫܐ	-3017
ܒܩܢܐ	-3018
ܒܪܝܐ	-3019
ܓܕܝܢ	-3020
ܘܟܪܐ	-3021
ܛܪܘܢ	-3022
ܝܕܝܐ	-3023
ܝܡܢܐ	-3024
ܠܝܗܝ	-3025
ܠܟܤܢ	-3026
ܡܥܝܢ	-3027
ܨܦܘܢ	-3028
ܩܪܝܢ	-3029
ܪܝܒܟ	-3030
ܪܡܝܐ	-3031
ܫܘܠܐ	-3032
ܬܝܪܐ	-3033
ܬܪܘܢ	-3034
▁ܐܙܕ	-3035
▁ܒܩܪ	-3036
▁ܘܐܪ	-3037
▁ܘܒܒ	-3038
▁ܘܒܠ	-3039
▁ܘܒܤ	-3040
▁ܘܒܦ	-3041
▁ܘܕܩ	-3042
▁ܘܙܠ	-3043
▁ܘܠܚ	-3044
▁ܘܥܕ	-3045
▁ܘܪܒ	-3046
▁ܚܪܝ	-3047
▁ܚܫܘ	-3048
▁ܛܠܡ	-3049
▁ܟܐܦ	-3050
▁ܠܚܡ	-3051
▁ܠܚܤ	-3052
▁ܠܫܐ	-3053
▁ܡܩܒ	-3054
▁ܡܩܘ	-3055
▁ܢܚܫ	-3056
▁ܤܒܘ	-3057
▁ܤܡܬ	-3058
▁ܨܠܝ	-3059
▁ܫܒܚ	-3060
▁ܫܘܚ	-3061
▁ܫܢܝ	-3062
▁ܫܪܘ	-3063
▁ܬܦܠ	-3064
ܗܦܟܘܢ	-3065
ܘܗܒܬܐ	-3066
ܘܠܚܢܐ	-3067
ܘܪܒܢܐ	-3068
ܘܪܗܢܐ	-3069
ܘܪܟܬܐ	-3070
ܘܪܤܝܐ	-3071
ܛܝܘܟܝ	-3072
ܛܝܟܝܐ	-3073
ܝܠܝܢܢ	-3074
ܩܒܠܝܢ	-3075
ܩܪܒܘܢ	-3076
ܫܡܫܬܗ	-3077
▁ܐܗܘܐ	-3078
▁ܐܘܠܨ	-3079
▁ܐܠܗܗ	-3080
▁ܐܥܡܕ	-3081
▁ܐܫܝܓ	-3082
▁ܐܬܟܪ	-3083
▁ܐܬܠܒ	-3084
▁ܒܛܝܠ	-3085
▁ܒܝܢܝ	-3086
▁ܒܢܝܗ	-3087
▁ܒܪܝܐ	-3088
▁ܒܫܡܐ	-3089
▁ܕܐܚܐ	-3090
▁ܕܐܠܘ	-3091
▁ܕܐܤܬ	-3092
▁ܕܕܐܢ	-3093
▁ܕܕܡܐ	-3094
▁ܕܗܒܐ	-3095
▁ܕܗܫܐ	-3096
▁ܕܚܠܘ	-3097
▁ܕܚܠܦ	-3098
▁ܕܝܢܗ	-3099
▁ܕܟܤܐ	-3100
▁ܕܟܪܐ	-3101
▁ܕܠܥܠ	-3102
▁ܕܤܗܕ	-3103
▁ܕܦܓܪ	-3104
▁ܕܫܩܠ	-3105
▁ܕܬܫܬ	-3106
▁ܘܐܟܠ	-3107
▁ܘܗܠܟ	-3108
▁ܘܡܬܟ	-3109
▁ܘܤܒܪ	-3110
▁ܘܤܡܘ	-3111
▁ܚܛܗܝ	-3112
▁ܚܪܒܐ	-3113
▁ܚܪܫܐ	-3114
▁ܟܦܢܐ	-3115
▁ܠܒܝܫ	-3116
▁ܠܥܝܢ	-3117
▁ܡܒܪܟ	-3118
▁ܡܘܕܥ	-3119
▁ܡܘܡܐ	-3120
▁ܡܚܘܐ	-3121
▁ܡܚܫܒ	-3122
▁ܡܠܠܘ	-3123
▁ܡܡܪܚ	-3124
▁ܡܤܝܒ	-3125
▁ܡܫܐܠ	-3126
▁ܢܐܒܕ	-3127
▁ܢܗܠܟ	-3128
▁ܢܚܬܐ	-3129
▁ܢܛܪܬ	-3130
▁ܢܟܠܐ	-3131
▁ܢܥܘܠ	-3132
▁ܢܦܩܢ	-3133
▁ܢܨܪܬ	-3134
▁ܢܩܒܠ	-3135
▁ܥܝܕܐ	-3136
▁ܥܝܠܐ	-3137
▁ܥܪܤܟ	-3138
▁ܦܥܠܐ	-3139
▁ܨܐܕܝ	-3140
▁ܩܘܪܢ	-3141
▁ܩܝܤܐ	-3142
▁ܩܪܨܐ	-3143
▁ܩܫܝܐ	-3144
▁ܪܘܚܝ	-3145
▁ܫܒܩܘ	-3146
▁ܫܒܬܐ	-3147
▁ܬܐܬܐ	-3148
▁ܬܘܪܐ	-3149
ܕܝܫܘܬܐ	-3150
▁ܐܝܡܡܐ	-3151
▁ܐܢܬܝܢ	-3152
▁ܐܫܟܚܢ	-3153
▁ܐܬܩܪܝ	-3154
▁ܒܕܝܢܐ	-3155
▁ܒܟܐܦܐ	-3156
▁ܓܙܪܬܐ	-3157
▁ܕܐܠܗܢ	-3158
▁ܕܒܒܤܪ	-3159
▁ܕܒܚܬܐ	-3160
▁ܕܒܟܠܗ	-3161
▁ܕܒܢܝܐ	-3162
▁ܕܚܠܝܢ	-3163
▁ܕܝܘܢܐ	-3164
▁ܕܟܐܦܐ	-3165
▁ܕܟܝܬܐ	-3166
▁ܕܠܐܢܫ	-3167
▁ܕܡܟܝܢ	-3168
▁ܕܢܘܒܕ	-3169
▁ܕܢܚܬܐ	-3170
▁ܕܤܥܪܐ	-3171
▁ܕܫܡܥܬ	-3172
▁ܘܐܝܟܐ	-3173
▁ܘܒܗܕܐ	-3174
▁ܘܗܘܝܘ	-3175
▁ܘܗܦܟܘ	-3176
▁ܘܡܫܐܠ	-3177
▁ܘܥܒܕܐ	-3178
▁ܘܨܒܝܢ	-3179
▁ܘܩܥܝܢ	-3180
▁ܘܪܕܝܢ	-3181
▁ܚܘܪܒܐ	-3182
▁ܚܪܝܢܐ	-3183
▁ܛܠܝܬܐ	-3184
▁ܝܠܘܕܐ	-3185
▁ܝܡܝܢܝ	-3186
▁ܟܘܟܒܐ	-3187
▁ܠܚܛܝܐ	-3188
▁ܠܡܐܙܠ	-3189
▁ܠܬܪܝܢ	-3190
▁ܡܝܬܝܢ	-3191
▁ܡܟܫܠܐ	-3192
▁ܡܠܐܟܗ	-3193
▁ܡܢܤܝܢ	-3194
▁ܡܤܟܢܐ	-3195
▁ܢܘܗܪܗ	-3196
▁ܢܤܒܝܢ	-3197
▁ܢܥܠܘܢ	-3198
▁ܢܬܒܛܠ	-3199
▁ܤܒܪܬܗ	-3200
▁ܤܘܓܐܐ	-3201
▁ܥܗܕܝܢ	-3202
▁ܥܬܝܩܐ	-3203
▁ܩܘܕܫܐ	-3204
▁ܐܓܪܦܘܤ	-3205
▁ܐܝܕܘܗܝ	-3206
▁ܐܟܤܢܝܐ	-3207
▁ܐܬܛܦܝܤ	-3208
▁ܐܬܡܠܝܘ	-3209
▁ܒܚܘܪܒܐ	-3210
▁ܒܝܕܥܬܐ	-3211
▁ܒܡܘܡܬܐ	-3212
▁ܓܠܝܐܝܬ	-3213
▁ܕܐܙܠܝܢ	-3214
▁ܕܐܬܩܪܝ	-3215
▁ܕܚܫܘܟܐ	-3216
▁ܕܩܘܫܬܐ	-3217
▁ܕܫܪܝܪܐ	-3218
▁ܘܐܚܪܝܢ	-3219
▁ܘܐܝܬܝܗ	-3220
▁ܘܐܪܒܥܐ	-3221
▁ܘܫܪܝܪܐ	-3222
▁ܠܐܢܬܬܗ	-3223
▁ܠܡܨܠܝܘ	-3224
▁ܡܤܗܕܝܢ	-3225
▁ܢܦܩܬܘܢ	-3226
▁ܥܒܪܐܝܬ	-3227
▁ܥܬܝܕܝܢ	-3228
▁ܦܗܤܛܘܤ	-3229
▁ܦܠܓܘܬܐ	-3230
▁ܬܐܨܦܘܢ	-3231
▁ܐܡܝܢܐܝܬ	-3232
▁ܐܬܬܥܝܪܘ	-3233
▁ܒܡܠܟܘܬܐ	-3234
▁ܒܡܠܟܘܬܗ	-3235
▁ܒܥܠܕܒܒܐ	-3236
▁ܕܒܡܫܝܚܐ	-3237
▁ܕܒܢܡܘܤܐ	-3238
▁ܕܡܡܠܠܝܢ	-3239
▁ܕܬܠܡܝܕܐ	-3240
▁ܕܬܥܒܕܘܢ	-3241
▁ܗܝܡܢܘܬܗ	-3242
▁ܘܠܟܠܗܘܢ	-3243
▁ܘܠܡܠܐܟܐ	-3244
▁ܘܡܫܒܚܝܢ	-3245
▁ܠܐܝܤܪܝܠ	-3246
▁ܠܡܠܟܘܬܗ	-3247
▁ܡܡܠܠܝܢܢ	-3248
▁ܡܬܕܡܪܝܢ	-3249
▁ܩܕܡܝܗܘܢ	-3250
▁ܕܐܝܬܝܗܝܢ	-3251
▁ܕܒܐܘܪܫܠܡ	-3252
▁ܕܙܕܝܩܘܬܐ	-3253
▁ܘܛܝܡܬܐܘܤ	-3254
▁ܘܝܬܝܪܐܝܬ	-3255
▁ܒܐܘܢܓܠܝܘܢ	-3256
▁ܕܢܫܠܡܝܘܗܝ	-3257
▁ܕܗܝܡܢܘܬܟܘܢ	-3258
ܙܘ	-3259
ܥܕ	-3260
ܨܪ	-3261
ܪܛ	-3262
ܒܝܘ	-3263
ܓܕܐ	-3264
ܓܪܝ	-3265
ܘܒܠ	-3266
ܘܡܝ	-3267
ܝܒܐ	-3268
ܝܘܤ	-3269
ܟܘܬ	-3270
ܡܢܝ	-3271
ܤܘܤ	-3272
ܥܝܬ	-3273
ܥܢܐ	-3274
ܦܪܥ	-3275
ܪܘܙ	-3276
ܫܒܩ	-3277
ܫܘܛ	-3278
ܬܘܐ	-3279
ܬܬܐ	-3280
▁ܙܝ	-3281
▁ܚܠ	-3282
▁ܚܬ	-3283
▁ܝܨ	-3284
▁ܤܐ	-3285
▁ܦܨ	-3286
▁ܩܒ	-3287
▁ܩܝ	-3288
▁ܪܛ	-3289
▁ܫܛ	-3290
ܒܘܫܗ	-3291
ܗܒܬܗ	-3292
ܗܦܘܟ	-3293
ܗܪܘܢ	-3294
ܗܪܝܢ	-3295
ܘܕܝܢ	-3296
ܘܕܥܘ	-3297
ܘܡܩܐ	-3298
ܙܠܘܢ	-3299
ܛܝܒܐ	-3300
ܝܙܕܩ	-3301
ܢܟܘܢ	-3302
ܢܬܘܤ	-3303
ܥܘܪܐ	-3304
ܦܘܗܝ	-3305
ܦܟܝܢ	-3306
ܨܐܝܬ	-3307
ܨܘܦܐ	-3308
ܫܝܘܠ	-3309
▁ܐܕܡ	-3310
▁ܐܚܒ	-3311
▁ܐܤܦ	-3312
▁ܒܡܠ	-3313
▁ܒܪܬ	-3314
▁ܓܐܪ	-3315
▁ܕܒܛ	-3316
▁ܕܚܤ	-3317
▁ܕܠܤ	-3318
▁ܕܢܛ	-3319
▁ܕܢܩ	-3320
▁ܕܪܫ	-3321
▁ܘܒܩ	-3322
▁ܘܕܬ	-3323
▁ܘܝܗ	-3324
▁ܘܠܒ	-3325
▁ܘܠܨ	-3326
▁ܘܠܩ	-3327
▁ܘܢܨ	-3328
▁ܘܦܠ	-3329
▁ܘܫܪ	-3330
▁ܛܡܐ	-3331
▁ܝܩܪ	-3332
▁ܟܦܢ	-3333
▁ܠܒܤ	-3334
▁ܡܚܐ	-3335
▁ܡܛܐ	-3336
▁ܡܤܝ	-3337
▁ܡܬܕ	-3338
▁ܥܐܠ	-3339
▁ܥܕܢ	-3340
▁ܥܕܪ	-3341
▁ܫܘܩ	-3342
ܒܪܘܬܐ	-3343
ܓܝܐܬܐ	-3344
ܓܢܝܬܐ	-3345
ܚܘܝܬܐ	-3346
ܛܘܪܝܢ	-3347
ܢܝܐܝܠ	-3348
ܥܡܕܘܢ	-3349
ܦܪܥܘܢ	-3350
▁ܐܚܘܟ	-3351
▁ܐܠܗܟ	-3352
▁ܐܡܠܠ	-3353
▁ܐܦܝܢ	-3354
▁ܐܪܝܡ	-3355
▁ܒܟܝܢ	-3356
▁ܒܥܒܕ	-3357
▁ܒܥܡܐ	-3358
▁ܒܪܢܫ	-3359
▁ܒܬܪܟ	-3360
▁ܓܪܒܐ	-3361
▁ܕܗܢܘ	-3362
▁ܕܙܕܩ	-3363
▁ܕܚܫܐ	-3364
▁ܕܟܝܢ	-3365
▁ܕܡܝܢ	-3366
▁ܕܡܤܬ	-3367
▁ܕܡܬܪ	-3368
▁ܕܡܬܬ	-3369
▁ܕܢܚܫ	-3370
▁ܕܢܬܢ	-3371
▁ܕܤܓܝ	-3372
▁ܕܤܥܪ	-3373
▁ܕܫܘܐ	-3374
▁ܘܐܘܚ	-3375
▁ܘܐܠܘ	-3376
▁ܘܙܒܢ	-3377
▁ܘܠܘܬ	-3378
▁ܘܠܡܐ	-3379
▁ܘܡܠܟ	-3380
▁ܘܡܠܠ	-3381
▁ܘܡܫܘ	-3382
▁ܘܥܝܢ	-3383
▁ܘܥܠܘ	-3384
▁ܘܩܒܠ	-3385
▁ܘܩܥܘ	-3386
▁ܘܩܪܝ	-3387
▁ܘܪܒܝ	-3388
▁ܘܫܠܡ	-3389
▁ܘܫܪܐ	-3390
▁ܙܘܥܐ	-3391
▁ܙܝܬܐ	-3392
▁ܚܕܕܐ	-3393
▁ܚܕܝܢ	-3394
▁ܚܝܘܢ	-3395
▁ܚܠܦܝ	-3396
▁ܚܡܬܐ	-3397
▁ܚܤܝܪ	-3398
▁ܚܪܬܐ	-3399
▁ܚܬܢܐ	-3400
▁ܛܛܘܤ	-3401
▁ܠܟܝܢ	-3402
▁ܠܡܪܝ	-3403
▁ܠܥܡܗ	-3404
▁ܠܬܚܬ	-3405
▁ܡܛܝܒ	-3406
▁ܡܥܕܪ	-3407
▁ܡܦܩܕ	-3408
▁ܢܒܗܬ	-3409
▁ܢܗܪܐ	-3410
▁ܢܡܘܤ	-3411
▁ܢܤܒܬ	-3412
▁ܤܘܟܐ	-3413
▁ܤܟܠܐ	-3414
▁ܨܒܝܐ	-3415
▁ܩܕܝܫ	-3416
▁ܪܚܡܝ	-3417
▁ܫܪܓܐ	-3418
▁ܫܪܝܘ	-3419
▁ܫܪܝܢ	-3420
▁ܫܪܝܪ	-3421
▁ܬܟܝܠ	-3422
▁ܬܢܢܐ	-3423
ܘܒܠܘܗܝ	-3424
ܠܟܤܢܕܪ	-3425
▁ܐܒܗܬܢ	-3426
▁ܐܪܡܝܐ	-3427
▁ܐܪܡܝܘ	-3428
▁ܐܬܐܡܪ	-3429
▁ܐܬܓܠܝ	-3430
▁ܐܬܕܟܪ	-3431
▁ܐܬܡܠܝ	-3432
▁ܐܬܩܪܒ	-3433
▁ܒܐܝܕܐ	-3434
▁ܒܐܠܦܐ	-3435
▁ܒܒܤܪܐ	-3436
▁ܒܡܬܠܐ	-3437
▁ܒܢܝܢܐ	-3438
▁ܒܦܓܪܗ	-3439
▁ܕܐܝܢܐ	-3440
▁ܕܐܠܝܐ	-3441
▁ܕܐܤܝܡ	-3442
▁ܕܐܫܪܐ	-3443
▁ܕܙܝܬܐ	-3444
▁ܕܝܠܝܕ	-3445
▁ܕܝܢܝܢ	-3446
▁ܕܝܢܪܐ	-3447
▁ܕܟܢܫܐ	-3448
▁ܕܟܪܝܗ	-3449
▁ܕܡܗܠܟ	-3450
▁ܕܢܩܝܡ	-3451
▁ܕܢܩܪܐ	-3452
▁ܕܥܒܕܘ	-3453
▁ܕܦܐܪܐ	-3454
▁ܕܫܐܕܐ	-3455
▁ܘܐܘܕܝ	-3456
▁ܘܐܚܕܗ	-3457
▁ܘܕܝܢܐ	-3458
▁ܘܚܙܝܢ	-3459
▁ܘܠܠܝܐ	-3460
▁ܘܡܗܠܟ	-3461
▁ܘܡܠܬܗ	-3462
▁ܘܢܦܠܘ	-3463
▁ܘܢܦܩܬ	-3464
▁ܘܪܚܡܐ	-3465
▁ܘܬܠܬܐ	-3466
▁ܙܕܩܬܐ	-3467
▁ܙܟܪܝܐ	-3468
▁ܚܝܒܝܢ	-3469
▁ܚܠܝܡܐ	-3470
▁ܠܐܒܘܟ	-3471
▁ܠܐܢܫܐ	-3472
▁ܠܗܪܟܐ	-3473
▁ܠܝܘܤܦ	-3474
▁ܠܟܗܢܐ	-3475
▁ܠܡܚܝܘ	-3476
▁ܠܢܒܝܐ	-3477
▁ܡܫܬܒܗ	-3478
▁ܡܫܬܡܥ	-3479
▁ܡܬܪܥܐ	-3480
▁ܢܘܢܝܢ	-3481
▁ܢܦܩܝܢ	-3482
▁ܢܫܒܘܩ	-3483
▁ܢܫܬܩܠ	-3484
▁ܤܓܝܐܢ	-3485
▁ܤܦܤܪܐ	-3486
▁ܥܒܕܝܟ	-3487
▁ܨܠܘܬܐ	-3488
▁ܩܝܡܬܐ	-3489
▁ܩܢܝܢܗ	-3490
▁ܪܓܠܝܟ	-3491
▁ܪܫܝܥܐ	-3492
▁ܫܒܩܝܢ	-3493
▁ܫܘܒܚܗ	-3494
▁ܬܕܥܘܢ	-3495
▁ܬܛܥܘܢ	-3496
▁ܬܥܠܘܢ	-3497
▁ܐܒܗܘܗܝ	-3498
▁ܐܠܝܫܒܥ	-3499
▁ܒܓܠܝܢܐ	-3500
▁ܒܟܠܗܝܢ	-3501
▁ܒܥܕܥܕܐ	-3502
▁ܒܦܠܐܬܐ	-3503
▁ܕܒܐܝܕܗ	-3504
▁ܕܒܐܠܗܐ	-3505
▁ܕܙܒܢܝܢ	-3506
▁ܕܟܠܗܝܢ	-3507
▁ܕܢܦܩܘܢ	-3508
▁ܕܫܡܪܝܐ	-3509
▁ܘܐܝܬܝܘ	-3510
▁ܘܐܫܟܚܘ	-3511
▁ܘܐܬܪܚܡ	-3512
▁ܘܒܐܪܥܐ	-3513
▁ܘܒܚܘܒܐ	-3514
▁ܘܒܪܢܒܐ	-3515
▁ܘܗܝܡܢܘ	-3516
▁ܘܟܠܡܕܡ	-3517
▁ܘܡܠܐܟܐ	-3518
▁ܘܩܕܝܫܐ	-3519
▁ܚܘܒܟܘܢ	-3520
▁ܛܘܒܘܗܝ	-3521
▁ܛܢܦܘܬܐ	-3522
▁ܝܩܝܪܬܐ	-3523
▁ܠܚܘܪܒܐ	-3524
▁ܠܝܘܡܢܐ	-3525
▁ܠܥܕܥܕܐ	-3526
▁ܠܩܕܝܫܐ	-3527
▁ܠܩܘܒܠܗ	-3528
▁ܠܩܪܝܒܟ	-3529
▁ܡܐܬܝܬܗ	-3530
▁ܡܝܬܝܢܢ	-3531
▁ܡܬܚܙܝܢ	-3532
▁ܢܒܝܘܬܐ	-3533
▁ܢܩܘܡܘܢ	-3534
▁ܢܫܡܥܘܢ	-3535
▁ܢܫܬܒܗܪ	-3536
▁ܤܓܝܐܝܢ	-3537
▁ܤܗܕܘܬܗ	-3538
▁ܤܦܝܢܬܐ	-3539
▁ܤܪܝܩܬܐ	-3540
▁ܩܪܨܘܗܝ	-3541
▁ܪܗܘܡܝܐ	-3542
▁ܫܦܝܪܬܐ	-3543
▁ܫܪܝܪܬܐ	-3544
▁ܬܪܡܝܬܗ	-3545
▁ܬܫܡܫܬܐ	-3546
▁ܒܡܐܬܝܬܗ	-3547
▁ܒܬܫܡܫܬܐ	-3548
▁ܕܝܘܪܕܢܢ	-3549
▁ܕܡܘܠܟܢܐ	-3550
▁ܕܢܒܝܘܬܐ	-3551
▁ܕܥܬܝܕܝܢ	-3552
▁ܘܐܬܟܢܫܘ	-3553
▁ܘܠܝܥܩܘܒ	-3554
▁ܘܡܫܐܠܝܢ	-3555
▁ܘܢܐܡܪܘܢ	-3556
▁ܘܫܘܠܛܢܐ	-3557
▁ܠܕܪܡܤܘܩ	-3558
▁ܠܤܗܕܘܬܐ	-3559
▁ܡܤܝܒܪܝܢ	-3560
▁ܡܫܟܚܝܢܢ	-3561
▁ܡܬܗܦܟܝܢ	-3562
▁ܥܒܕܝܗܘܢ	-3563
▁ܥܒܕܝܟܘܢ	-3564
▁ܫܘܬܦܘܬܐ	-3565
▁ܬܫܒܘܚܬܗ	-3566
▁ܘܠܡܕܝܢܬܐ	-3567
▁ܠܦܝܠܝܦܘܤ	-3568
▁ܡܚܫܒܬܗܘܢ	-3569
▁ܒܠܚܘܕܝܗܘܢ	-3570
▁ܗܝܡܢܘܬܗܘܢ	-3571
▁ܡܤܝܒܪܢܘܬܐ	-3572
ܕܫ	-3573
ܠܕ	-3574
ܤܗ	-3575
ܨܕ	-3576
ܩܬ	-3577
ܫܚ	-3578
ܒܐܫ	-3579
ܓܘܕ	-3580
ܕܢܝ	-3581
ܗܦܟ	-3582
ܘܝܐ	-3583
ܘܤܐ	-3584
ܘܥܐ	-3585
ܙܠܐ	-3586
ܛܦܢ	-3587
ܝܘܠ	-3588
ܠܗܗ	-3589
ܠܚܘ	-3590
ܠܟܐ	-3591
ܠܠܐ	-3592
ܡܐܢ	-3593
ܡܗܐ	-3594
ܡܟܟ	-3595
ܤܘܪ	-3596
ܥܛܦ	-3597
ܥܝܝ	-3598
ܦܤܩ	-3599
ܩܦܘ	-3600
ܬܒܬ	-3601
ܬܪܘ	-3602
▁ܓܒ	-3603
▁ܛܥ	-3604
▁ܡܡ	-3605
▁ܡܦ	-3606
▁ܢܢ	-3607
▁ܤܕ	-3608
▁ܥܢ	-3609
▁ܨܠ	-3610
ܒܕܪܘ	-3611
ܒܠܘܢ	-3612
ܓܠܝܢ	-3613
ܓܪܬܐ	-3614
ܕܢܚܐ	-3615
ܕܪܘܢ	-3616
ܗܝܘܢ	-3617
ܘܒܘܢ	-3618
ܘܒܫܐ	-3619
ܘܦܝܐ	-3620
ܘܫܝܐ	-3621
ܘܬܟܝ	-3622
ܙܒܘܒ	-3623
ܙܕܒܢ	-3624
ܚܙܝܘ	-3625
ܛܪܬܐ	-3626
ܟܕܢܐ	-3627
ܟܝܢܢ	-3628
ܠܝܡܐ	-3629
ܠܝܢܗ	-3630
ܠܟܘܢ	-3631
ܡܟܘܢ	-3632
ܡܠܘܢ	-3633
ܢܝܢܢ	-3634
ܦܪܘܤ	-3635
ܩܘܗܝ	-3636
ܩܠܘܢ	-3637
ܪܘܪܐ	-3638
ܪܡܘܢ	-3639
ܫܝܠܐ	-3640
ܬܝܕܐ	-3641
ܬܝܗܝ	-3642
▁ܐܕܪ	-3643
▁ܐܚܙ	-3644
▁ܐܟܬ	-3645
▁ܐܫܕ	-3646
▁ܐܬܛ	-3647
▁ܒܒܥ	-3648
▁ܒܟܝ	-3649
▁ܒܠܘ	-3650
▁ܒܡܚ	-3651
▁ܒܨܠ	-3652
▁ܕܒܙ	-3653
▁ܕܕܪ	-3654
▁ܕܘܢ	-3655
▁ܕܝܩ	-3656
▁ܕܡܩ	-3657
▁ܕܢܡ	-3658
▁ܕܬܒ	-3659
▁ܗܪܘ	-3660
▁ܘܐܡ	-3661
▁ܘܓܪ	-3662
▁ܘܕܟ	-3663
▁ܘܕܨ	-3664
▁ܘܕܫ	-3665
▁ܘܗܒ	-3666
▁ܘܚܐ	-3667
▁ܘܝܩ	-3668
▁ܘܟܪ	-3669
▁ܘܠܕ	-3670
▁ܘܢܥ	-3671
▁ܘܢܪ	-3672
▁ܘܥܐ	-3673
▁ܘܬܚ	-3674
▁ܙܠܝ	-3675
▁ܙܥܘ	-3676
▁ܚܘܫ	-3677
▁ܚܝܬ	-3678
▁ܛܘܦ	-3679
▁ܝܘܩ	-3680
▁ܠܐܪ	-3681
▁ܠܕܡ	-3682
▁ܠܡܛ	-3683
▁ܠܡܦ	-3684
▁ܡܓܢ	-3685
▁ܡܘܡ	-3686
▁ܡܠܘ	-3687
▁ܡܩܕ	-3688
▁ܢܘܚ	-3689
▁ܢܝܚ	-3690
▁ܢܤܬ	-3691
▁ܥܠܬ	-3692
▁ܦܪܝ	-3693
▁ܦܪܥ	-3694
▁ܩܘܘ	-3695
▁ܪܒܘ	-3696
▁ܪܘܫ	-3697
▁ܫܬܝ	-3698
▁ܬܬܟ	-3699
ܒܙܚܝܢ	-3700
ܒܪܝܬܐ	-3701
ܕܝܢܘܢ	-3702
ܕܡܪܘܢ	-3703
ܗܝܪܝܢ	-3704
ܘܒܟܘܢ	-3705
ܘܕܝܬܗ	-3706
ܘܤܛܪܐ	-3707
ܚܝܕܝܐ	-3708
ܝܠܘܬܐ	-3709
ܟܝܘܬܐ	-3710
ܟܢܫܝܢ	-3711
ܩܛܠܘܢ	-3712
ܫܘܚܬܐ	-3713
ܬܘܢܢܝ	-3714
▁ܐܒܗܐ	-3715
▁ܐܓܪܗ	-3716
▁ܐܚܒܘ	-3717
▁ܐܚܕܗ	-3718
▁ܐܬܕܡ	-3719
▁ܐܬܟܬ	-3720
▁ܐܬܪܥ	-3721
▁ܒܕܠܐ	-3722
▁ܒܡܕܥ	-3723
▁ܒܢܝܢ	-3724
▁ܒܤܡܐ	-3725
▁ܒܥܝܬ	-3726
▁ܒܪܬܗ	-3727
▁ܕܐܬܚ	-3728
▁ܕܕܚܠ	-3729
▁ܕܙܢܝ	-3730
▁ܕܚܝܒ	-3731
▁ܕܛܝܒ	-3732
▁ܕܝܐܐ	-3733
▁ܕܡܠܦ	-3734
▁ܕܢܕܥ	-3735
▁ܕܢܫܐ	-3736
▁ܕܢܬܚ	-3737
▁ܕܥܐܠ	-3738
▁ܕܥܝܢ	-3739
▁ܕܦܠܚ	-3740
▁ܕܪܘܚ	-3741
▁ܕܫܬܐ	-3742
▁ܗܠܟܘ	-3743
▁ܗܦܟܘ	-3744
▁ܘܕܢܬ	-3745
▁ܘܚܠܦ	-3746
▁ܘܝܡܐ	-3747
▁ܘܠܡܚ	-3748
▁ܘܠܡܫ	-3749
▁ܘܢܛܪ	-3750
▁ܘܢܤܬ	-3751
▁ܘܢܫܐ	-3752
▁ܘܤܓܝ	-3753
▁ܘܦܫܛ	-3754
▁ܚܒܪܗ	-3755
▁ܚܘܝܐ	-3756
▁ܚܙܘܐ	-3757
▁ܚܠܝܡ	-3758
▁ܚܨܕܐ	-3759
▁ܝܗܒܘ	-3760
▁ܟܐܝܢ	-3761
▁ܟܪܝܐ	-3762
▁ܠܕܘܟ	-3763
▁ܠܘܩܒ	-3764
▁ܠܝܡܐ	-3765
▁ܠܡܕܡ	-3766
▁ܠܡܠܐ	-3767
▁ܠܥܙܪ	-3768
▁ܠܪܒܝ	-3769
▁ܡܕܒܪ	-3770
▁ܡܠܚܐ	-3771
▁ܡܠܬܝ	-3772
▁ܡܢܗܪ	-3773
▁ܡܩܝܡ	-3774
▁ܡܫܚܐ	-3775
▁ܡܬܟܪ	-3776
▁ܢܚܘܢ	-3777
▁ܢܚܘܬ	-3778
▁ܢܚܬܘ	-3779
▁ܢܛܥܡ	-3780
▁ܢܩܘܐ	-3781
▁ܤܓܕܘ	-3782
▁ܤܢܝܐ	-3783
▁ܥܕܢܐ	-3784
▁ܦܓܪܟ	-3785
▁ܨܒܝܬ	-3786
▁ܩܝܦܐ	-3787
▁ܫܐܠܗ	-3788
▁ܫܘܝܢ	-3789
▁ܫܡܗܐ	-3790
▁ܬܐܡܪ	-3791
▁ܬܥܒܪ	-3792
ܘܪܢܬܘܤ	-3793
ܠܘܢܝܩܐ	-3794
ܥܠܕܒܒܐ	-3795
ܪܝܤܩܠܐ	-3796
▁ܐܒܕܢܐ	-3797
▁ܐܒܗܝܢ	-3798
▁ܐܘܪܚܗ	-3799
▁ܐܚܪܝܬ	-3800
▁ܐܟܘܬܝ	-3801
▁ܐܤܬܟܠ	-3802
▁ܐܬܕܡܪ	-3803
▁ܒܓܗܢܐ	-3804
▁ܒܙܒܢܗ	-3805
▁ܒܚܪܬܐ	-3806
▁ܒܛܘܪܐ	-3807
▁ܒܝܡܬܐ	-3808
▁ܒܢܒܝܐ	-3809
▁ܒܥܝܢܢ	-3810
▁ܒܥܠܬܐ	-3811
▁ܒܪܘܚܗ	-3812
▁ܒܬܪܥܐ	-3813
▁ܓܘܕܦܐ	-3814
▁ܓܡܝܪܐ	-3815
▁ܕܐܗܘܐ	-3816
▁ܕܐܟܠܘ	-3817
▁ܕܐܦܠܐ	-3818
▁ܕܕܝܘܐ	-3819
▁ܕܠܘܬܝ	-3820
▁ܕܠܟܘܢ	-3821
▁ܕܠܡܪܢ	-3822
▁ܕܡܘܬܗ	-3823
▁ܕܡܠܬܐ	-3824
▁ܕܤܡܝܐ	-3825
▁ܕܥܒܕܬ	-3826
▁ܕܩܒܠܬ	-3827
▁ܕܪܥܝܢ	-3828
▁ܕܫܡܥܢ	-3829
▁ܘܐܙܠܬ	-3830
▁ܘܐܚܕܘ	-3831
▁ܘܐܝܬܝ	-3832
▁ܘܚܘܪܩ	-3833
▁ܘܚܛܝܐ	-3834
▁ܘܟܢܫܘ	-3835
▁ܘܠܐܢܫ	-3836
▁ܘܠܚܡܐ	-3837
▁ܘܢܫܠܡ	-3838
▁ܘܤܠܩܘ	-3839
▁ܙܒܘܪܗ	-3840
▁ܙܝܙܢܐ	-3841
▁ܚܛܗܝܟ	-3842
▁ܚܡܝܪܐ	-3843
▁ܝܘܢܝܐ	-3844
▁ܝܡܝܢܗ	-3845
▁ܟܘܬܝܢ	-3846
▁ܟܟܪܝܢ	-3847
▁ܠܐܠܗܢ	-3848
▁ܠܐܡܬܝ	-3849
▁ܠܒܥܠܝ	-3850
▁ܠܡܟܬܒ	-3851
▁ܠܡܠܦܘ	-3852
▁ܠܡܦܠܚ	-3853
▁ܠܡܪܝܡ	-3854
▁ܠܡܫܬܐ	-3855
▁ܠܤܛܢܐ	-3856
▁ܠܥܤܝܢ	-3857
▁ܠܬܠܬܐ	-3858
▁ܡܚܝܢܢ	-3859
▁ܡܢܝܢܐ	-3860
▁ܡܢܪܬܐ	-3861
▁ܡܫܟܢܐ	-3862
▁ܡܬܐܫܕ	-3863
▁ܢܐܟܘܠ	-3864
▁ܢܛܪܝܢ	-3865
▁ܢܦܩܘܢ	-3866
▁ܢܫܬܟܚ	-3867
▁ܢܬܓܠܐ	-3868
▁ܤܘܤܝܐ	-3869
▁ܤܝܡܝܢ	-3870
▁ܤܪܝܩܐ	-3871
▁ܥܝܪܝܢ	-3872
▁ܥܤܪܝܢ	-3873
▁ܥܬܝܕܐ	-3874
▁ܦܝܠܟܤ	-3875
▁ܦܪܚܬܐ	-3876
▁ܨܒܝܢܝ	-3877
▁ܩܠܗܘܢ	-3878
▁ܪܒܘܬܐ	-3879
▁ܪܘܓܙܗ	-3880
▁ܪܚܡܝܢ	-3881
▁ܐܤܬܟܠܘ	-3882
▁ܐܪܟܘܢܐ	-3883
▁ܐܫܬܒܗܪ	-3884
▁ܐܫܬܡܥܬ	-3885
▁ܐܫܬܥܒܕ	-3886
▁ܐܬܝܕܥܬ	-3887
▁ܒܐܝܡܡܐ	-3888
▁ܒܐܦܤܘܤ	-3889
▁ܒܓܠܝܠܐ	-3890
▁ܒܕܡܘܬܗ	-3891
▁ܒܝܘܡܬܗ	-3892
▁ܒܢܘܗܪܐ	-3893
▁ܒܬܘܠܬܐ	-3894
▁ܒܬܪܗܘܢ	-3895
▁ܕܐܬܝܠܕ	-3896
▁ܕܒܐܪܥܐ	-3897
▁ܕܒܝܗܘܕ	-3898
▁ܕܒܪܘܚܐ	-3899
▁ܕܙܕܝܩܐ	-3900
▁ܕܡܛܠܬܗ	-3901
▁ܕܢܘܗܪܐ	-3902
▁ܕܢܫܬܒܚ	-3903
▁ܕܢܬܠܘܢ	-3904
▁ܕܥܬܝܕܐ	-3905
▁ܕܥܬܝܕܢ	-3906
▁ܕܦܛܝܪܐ	-3907
▁ܕܩܝܡܬܐ	-3908
▁ܕܪܒܘܬܐ	-3909
▁ܕܪܚܡܝܢ	-3910
▁ܘܐܢܫܝܢ	-3911
▁ܘܐܬܕܟܪ	-3912
▁ܘܒܚܝܠܐ	-3913
▁ܘܚܟܡܬܐ	-3914
▁ܘܡܠܦܝܢ	-3915
▁ܘܡܢܗܘܢ	-3916
▁ܘܡܨܠܝܢ	-3917
▁ܘܢܗܘܝܢ	-3918
▁ܘܢܛܪܝܢ	-3919
▁ܚܝܠܬܢܐ	-3920
▁ܚܪܝܦܬܐ	-3921
▁ܝܪܬܘܬܐ	-3922
▁ܠܡܨܪܝܢ	-3923
▁ܠܡܩܛܠܗ	-3924
▁ܠܤܓܝܐܐ	-3925
▁ܡܐܢܘܗܝ	-3926
▁ܡܩܒܠܝܢ	-3927
▁ܡܫܚܠܦܐ	-3928
▁ܡܬܒܥܝܢ	-3929
▁ܢܚܬܘܗܝ	-3930
▁ܢܥܒܕܘܢ	-3931
▁ܢܩܒܠܘܢ	-3932
▁ܢܫܟܚܘܢ	-3933
▁ܤܟܠܘܬܐ	-3934
▁ܤܩܘܒܠܐ	-3935
▁ܥܒܕܬܘܢ	-3936
▁ܥܠܝܗܝܢ	-3937
▁ܪܓܝܓܬܐ	-3938
▁ܪܘܚܟܘܢ	-3939
▁ܪܘܪܒܬܐ	-3940
▁ܫܐܠܘܗܝ	-3941
▁ܫܓܘܫܝܐ	-3942
▁ܫܘܒܗܪܐ	-3943
▁ܫܘܘܕܝܐ	-3944
▁ܐܒܗܝܟܘܢ	-3945
▁ܐܝܬܝܗܝܢ	-3946
▁ܒܐܘܠܨܢܐ	-3947
▁ܒܛܝܒܘܬܗ	-3948
▁ܒܟܐܢܘܬܐ	-3949
▁ܕܗܘܝܬܘܢ	-3950
▁ܕܛܝܒܘܬܐ	-3951
▁ܘܐܦܩܘܗܝ	-3952
▁ܘܒܐܝܡܡܐ	-3953
▁ܘܛܝܒܘܬܐ	-3954
▁ܘܡܫܡܫܢܐ	-3955
▁ܚܛܗܝܗܘܢ	-3956
▁ܛܘܒܝܟܘܢ	-3957
▁ܠܢܤܝܘܢܐ	-3958
▁ܠܢܦܫܗܘܢ	-3959
▁ܡܤܬܟܠܝܢ	-3960
▁ܤܪܝܩܐܝܬ	-3961
▁ܕܡܠܟܝܙܕܩ	-3962
▁ܘܐܢܕܪܐܘܤ	-3963
▁ܘܦܝܠܝܦܘܤ	-3964
▁ܡܫܬܥܒܕܝܢ	-3965
▁ܩܘܪܢܠܝܘܤ	-3966
▁ܒܟܢܘܫܬܗܘܢ	-3967
▁ܕܒܗܝܡܢܘܬܐ	-3968
▁ܘܢܩܛܠܘܢܝܗܝ	-3969
ܡܦ	-3970
ܢܟ	-3971
ܤܘ	-3972
ܤܩ	-3973
ܪܫ	-3974
ܒܘܗ	-3975
ܒܠܥ	-3976
ܓܘܓ	-3977
ܓܘܢ	-3978
ܓܡܪ	-3979
ܗܕܘ	-3980
ܘܬܪ	-3981
ܟܫܠ	-3982
ܠܒܫ	-3983
ܠܡܕ	-3984
ܠܡܝ	-3985
ܡܝܘ	-3986
ܡܟܘ	-3987
ܥܪܢ	-3988
ܨܬܐ	-3989
ܩܒܪ	-3990
ܩܢܐ	-3991
ܪܘܐ	-3992
ܪܡܗ	-3993
ܪܫܐ	-3994
ܬܪܝ	-3995
▁ܗܪ	-3996
▁ܛܠ	-3997
▁ܠܠ	-3998
▁ܢܒ	-3999
▁ܤܠ	-4000
▁ܩܐ	-4001
ܒܝܕܐ	-4002
ܒܝܗܝ	-4003
ܒܝܚܐ	-4004
ܓܘܕܐ	-4005
ܓܢܘܒ	-4006
ܕܝܬܐ	-4007
ܕܥܤܪ	-4008
ܕܦܝܢ	-4009
ܗܘܬܐ	-4010
ܗܤܝܐ	-4011
ܘܠܓܐ	-4012
ܘܡܘܢ	-4013
ܚܙܝܬ	-4014
ܚܟܝܢ	-4015
ܝܤܪܐ	-4016
ܠܗܢܐ	-4017
ܠܡܘܢ	-4018
ܠܥܙܪ	-4019
ܡܠܝܢ	-4020
ܡܠܠܢ	-4021
ܤܪܝܢ	-4022
ܥܪܒܐ	-4023
ܦܩܕܘ	-4024
ܦܬܚܘ	-4025
ܨܪܬܐ	-4026
ܩܛܠܘ	-4027
ܩܝܦܗ	-4028
ܩܠܘܤ	-4029
ܪܘܥܐ	-4030
ܪܝܗܐ	-4031
ܪܝܢܐ	-4032
ܫܥܢܐ	-4033
ܬܘܢܐ	-4034
ܬܪܪܬ	-4035
▁ܐܡܝ	-4036
▁ܒܚܘ	-4037
▁ܒܚܤ	-4038
▁ܒܛܠ	-4039
▁ܒܤܘ	-4040
▁ܒܩܐ	-4041
▁ܕܒܩ	-4042
▁ܕܒܫ	-4043
▁ܕܓܠ	-4044
▁ܕܟܘ	-4045
▁ܕܫܩ	-4046
▁ܘܚܤ	-4047
▁ܘܚܬ	-4048
▁ܘܠܢ	-4049
▁ܘܡܙ	-4050
▁ܘܢܓ	-4051
▁ܘܢܛ	-4052
▁ܘܢܩ	-4053
▁ܙܟܝ	-4054
▁ܙܥܩ	-4055
▁ܚܐܪ	-4056
▁ܚܕܝ	-4057
▁ܝܠܝ	-4058
▁ܝܩܕ	-4059
▁ܠܐܝ	-4060
▁ܠܒܗ	-4061
▁ܠܕܝ	-4062
▁ܠܗܠ	-4063
▁ܠܘܝ	-4064
▁ܠܚܨ	-4065
▁ܠܝܠ	-4066
▁ܠܩܘ	-4067
▁ܠܫܢ	-4068
▁ܡܛܬ	-4069
▁ܡܤܪ	-4070
▁ܢܗܪ	-4071
▁ܢܚܒ	-4072
▁ܢܛܥ	-4073
▁ܢܝܩ	-4074
▁ܤܓܕ	-4075
▁ܤܛܪ	-4076
▁ܤܡܐ	-4077
▁ܥܒܘ	-4078
▁ܦܓܥ	-4079
▁ܦܤܐ	-4080
▁ܦܪܫ	-4081
▁ܦܪܬ	-4082
▁ܦܬܝ	-4083
▁ܨܒܥ	-4084
▁ܩܥܘ	-4085
▁ܩܪܢ	-4086
▁ܪܕܐ	-4087
▁ܬܤܬ	-4088
▁ܬܫܥ	-4089
▁ܬܬܪ	-4090
ܒܘܫܝܐ	-4091
ܒܝܗܘܢ	-4092
ܒܝܟܘܢ	-4093
ܕܘܢܘܢ	-4094
ܕܝܩܝܐ	-4095
ܕܪܥܝܢ	-4096
ܘܒܘܬܐ	-4097
ܘܦܛܘܤ	-4098
ܘܫܩܬܐ	-4099
ܙܝܥܝܢ	-4100
ܛܦܢܘܤ	-4101
ܝܠܛܘܤ	-4102
ܝܬܪܘܢ	-4103
ܟܤܢܝܐ	-4104
ܢܝܩܝܢ	-4105
ܤܝܘܬܐ	-4106
ܥܪܩܘܢ	-4107
ܦܝܢܝܢ	-4108
ܪܒܥܝܢ	-4109
ܪܝܘܬܐ	-4110
ܬܦܘܬܐ	-4111
▁ܐܘܤܦ	-4112
▁ܐܙܕܪ	-4113
▁ܐܝܢܘ	-4114
▁ܐܡܬܐ	-4115
▁ܐܢܬܬ	-4116
▁ܐܦܠܘ	-4117
▁ܒܒܪܗ	-4118
▁ܒܕܡܗ	-4119
▁ܒܘܝܐ	-4120
▁ܒܙܩܐ	-4121
▁ܒܡܢܐ	-4122
▁ܒܥܠܐ	-4123
▁ܒܦܘܡ	-4124
▁ܒܩܪܐ	-4125
▁ܒܪܚܡ	-4126
▁ܒܪܝܟ	-4127
▁ܒܪܬܝ	-4128
▁ܒܫܡܟ	-4129
▁ܕܐܒܕ	-4130
▁ܕܐܦܢ	-4131
▁ܕܒܢܐ	-4132
▁ܕܘܢܘ	-4133
▁ܕܡܚܐ	-4134
▁ܕܡܪܗ	-4135
▁ܕܡܬܐ	-4136
▁ܕܢܦܪ	-4137
▁ܕܢܦܫ	-4138
▁ܕܤܝܡ	-4139
▁ܕܦܩܚ	-4140
▁ܕܩܛܠ	-4141
▁ܕܪܒܐ	-4142
▁ܕܪܡܐ	-4143
▁ܕܫܠܡ	-4144
▁ܕܬܬܠ	-4145
▁ܘܐܒܐ	-4146
▁ܘܓܒܐ	-4147
▁ܘܕܡܢ	-4148
▁ܘܚܕܪ	-4149
▁ܘܚܙܝ	-4150
▁ܘܟܒܪ	-4151
▁ܘܠܒܪ	-4152
▁ܘܠܡܪ	-4153
▁ܘܠܫܘ	-4154
▁ܘܡܢܗ	-4155
▁ܘܡܦܩ	-4156
▁ܘܡܬܬ	-4157
▁ܘܢܫܬ	-4158
▁ܘܤܗܕ	-4159
▁ܘܤܪܝ	-4160
▁ܘܦܘܩ	-4161
▁ܘܦܪܘ	-4162
▁ܘܪܕܐ	-4163
▁ܘܫܢܝ	-4164
▁ܙܢܝܐ	-4165
▁ܚܝܬܐ	-4166
▁ܚܢܦܐ	-4167
▁ܚܪܬܗ	-4168
▁ܛܒܥܐ	-4169
▁ܛܢܢܐ	-4170
▁ܟܬܢܐ	-4171
▁ܠܡܫܡ	-4172
▁ܠܫܢܐ	-4173
▁ܡܘܫܛ	-4174
▁ܡܝܩܪ	-4175
▁ܡܝܬܘ	-4176
▁ܡܠܬܟ	-4177
▁ܡܨܥܬ	-4178
▁ܡܫܬܥ	-4179
▁ܡܫܬܪ	-4180
▁ܡܬܟܬ	-4181
▁ܢܙܒܢ	-4182
▁ܢܤܝܡ	-4183
▁ܢܪܚܡ	-4184
▁ܢܫܬܐ	-4185
▁ܤܒܪܘ	-4186
▁ܤܝܦܐ	-4187
▁ܤܡܝܟ	-4188
▁ܥܒܕܢ	-4189
▁ܥܡܪܐ	-4190
▁ܥܤܒܐ	-4191
▁ܦܘܩܘ	-4192
▁ܦܠܚܝ	-4193
▁ܦܤܘܩ	-4194
▁ܩܢܝܐ	-4195
▁ܩܪܢܐ	-4196
▁ܪܓܬܐ	-4197
▁ܪܚܡܬ	-4198
▁ܫܒܩܗ	-4199
▁ܫܢܬܐ	-4200
▁ܫܩܘܠ	-4201
▁ܫܩܝܠ	-4202
▁ܬܓܘܪ	-4203
▁ܬܡܐܢ	-4204
ܚܘܪܝܬܐ	-4205
ܝܕܝܗܘܢ	-4206
ܝܤܪܐܝܠ	-4207
▁ܐܝܤܚܩ	-4208
▁ܐܝܬܝܘ	-4209
▁ܐܢܚܢܢ	-4210
▁ܐܩܝܡܗ	-4211
▁ܐܫܬܐܠ	-4212
▁ܐܫܬܕܪ	-4213
▁ܐܬܕܒܪ	-4214
▁ܐܬܦܠܓ	-4215
▁ܐܬܦܢܝ	-4216
▁ܒܗܝܡܢ	-4217
▁ܒܘܝܐܐ	-4218
▁ܒܘܟܪܐ	-4219
▁ܒܛܝܠܐ	-4220
▁ܒܝܘܡܗ	-4221
▁ܒܡܘܬܐ	-4222
▁ܒܥܢܢܐ	-4223
▁ܒܥܪܤܐ	-4224
▁ܒܦܓܪܐ	-4225
▁ܒܨܦܪܐ	-4226
▁ܒܩܒܪܐ	-4227
▁ܒܪܘܚܝ	-4228
▁ܕܐܝܟܐ	-4229
▁ܕܐܠܦܐ	-4230
▁ܕܐܬܝܐ	-4231
▁ܕܒܚܕܐ	-4232
▁ܕܒܝܬܐ	-4233
▁ܕܕܠܡܐ	-4234
▁ܕܚܬܢܐ	-4235
▁ܕܛܠܝܢ	-4236
▁ܕܟܐܢܐ	-4237
▁ܕܠܘܬܢ	-4238
▁ܕܠܚܡܐ	-4239
▁ܕܡܟܪܙ	-4240
▁ܕܡܫܠܡ	-4241
▁ܕܢܕܘܢ	-4242
▁ܕܢܚܘܐ	-4243
▁ܕܢܩܘܐ	-4244
▁ܕܢܫܟܚ	-4245
▁ܕܥܡܪܐ	-4246
▁ܕܦܓܪܗ	-4247
▁ܕܩܒܠܘ	-4248
▁ܕܪܟܫܐ	-4249
▁ܕܬܐܬܐ	-4250
▁ܕܬܥܘܠ	-4251
▁ܘܐܡܬܝ	-4252
▁ܘܒܢܝܐ	-4253
▁ܘܕܒܚܐ	-4254
▁ܘܗܘܝܬ	-4255
▁ܘܗܟܘܬ	-4256
▁ܘܝܗܒܘ	-4257
▁ܘܝܫܘܥ	-4258
▁ܘܝܬܝܪ	-4259
▁ܘܟܐܦܐ	-4260
▁ܘܠܐܡܟ	-4261
▁ܘܠܟܘܢ	-4262
▁ܘܠܫܢܐ	-4263
▁ܘܡܤܒܪ	-4264
▁ܘܡܫܟܚ	-4265
▁ܘܢܐܬܐ	-4266
▁ܘܢܫܟܚ	-4267
▁ܘܤܒܥܘ	-4268
▁ܘܫܩܠܗ	-4269
▁ܙܟܘܬܐ	-4270
▁ܙܩܝܦܐ	-4271
▁ܚܘܪܬܐ	-4272
▁ܟܘܒܫܐ	-4273
▁ܠܐܚܘܟ	-4274
▁ܠܐܝܕܐ	-4275
▁ܠܒܘܫܐ	-4276
▁ܠܒܝܬܟ	-4277
▁ܠܓܒܝܐ	-4278
▁ܠܟܐܢܘ	-4279
▁ܠܟܬܒܐ	-4280
▁ܠܡܘܒܕ	-4281
▁ܠܡܘܫܐ	-4282
▁ܠܡܫܐܠ	-4283
▁ܠܢܦܫܝ	-4284
▁ܠܦܠܚܐ	-4285
▁ܠܩܪܒܐ	-4286
▁ܠܫܐܘܠ	-4287
▁ܡܘܬܒܐ	-4288
▁ܡܚܒܝܢ	-4289
▁ܡܛܝܒܐ	-4290
▁ܡܤܟܝܢ	-4291
▁ܡܦܩܝܢ	-4292
▁ܡܨܪܝܢ	-4293
▁ܡܫܥܒܕ	-4294
▁ܢܙܕܕܩ	-4295
▁ܢܦܠܝܢ	-4296
▁ܢܬܝܗܒ	-4297
▁ܤܒܪܬܝ	-4298
▁ܤܡܝܟܐ	-4299
▁ܥܕܥܕܐ	-4300
▁ܥܝܢܝܟ	-4301
▁ܦܪܨܘܦ	-4302
▁ܨܒܝܢܟ	-4303
▁ܩܠܝܕܐ	-4304
▁ܪܒܝܬܐ	-4305
▁ܪܘܚܢܐ	-4306
▁ܪܘܫܡܐ	-4307
▁ܪܥܘܬܐ	-4308
▁ܫܘܒܗܪ	-4309
▁ܫܘܠܛܢ	-4310
▁ܫܘܠܡܐ	-4311
▁ܫܘܪܝܐ	-4312
▁ܬܘܬܒܐ	-4313
▁ܬܟܦܘܪ	-4314
▁ܬܩܛܘܠ	-4315
▁ܬܪܡܠܐ	-4316
ܚܕܘܢܝܗܝ	-4317
▁ܐܘܫܥܢܐ	-4318
▁ܐܡܪܝܢܢ	-4319
▁ܐܫܬܘܬܦ	-4320
▁ܐܫܬܡܥܘ	-4321
▁ܐܬܕܟܪܘ	-4322
▁ܒܐܤܟܡܐ	-4323
▁ܒܐܦܘܗܝ	-4324
▁ܒܚܟܡܬܐ	-4325
▁ܒܩܛܝܪܐ	-4326
▁ܓܒܝܠܬܐ	-4327
▁ܕܐܢܬܬܐ	-4328
▁ܕܐܬܡܠܠ	-4329
▁ܕܕܒܝܚܐ	-4330
▁ܕܚܟܡܬܐ	-4331
▁ܕܝܕܥܬܐ	-4332
▁ܕܟܠܟܘܢ	-4333
▁ܕܟܠܡܕܡ	-4334
▁ܕܟܬܝܒܐ	-4335
▁ܕܡܢܗܘܢ	-4336
▁ܕܡܨܪܝܢ	-4337
▁ܕܢܥܠܘܢ	-4338
▁ܕܢܫܩܘܠ	-4339
▁ܕܤܒܪܬܐ	-4340
▁ܕܦܬܟܪܐ	-4341
▁ܕܩܪܟܘܢ	-4342
▁ܕܪܘܓܙܐ	-4343
▁ܕܫܘܒܚܐ	-4344
▁ܘܐܚܘܗܝ	-4345
▁ܘܐܚܪܝܐ	-4346
▁ܘܐܩܝܡܘ	-4347
▁ܘܐܫܬܟܚ	-4348
▁ܘܐܬܡܠܝ	-4349
▁ܘܝܗܘܕܐ	-4350
▁ܘܠܗܢܘܢ	-4351
▁ܘܡܤܟܢܐ	-4352
▁ܘܤܘܓܐܐ	-4353
▁ܘܤܝܡܝܢ	-4354
▁ܘܫܠܝܚܐ	-4355
▁ܘܬܐܘܡܐ	-4356
▁ܘܬܚܙܘܢ	-4357
▁ܚܕܝܐܝܬ	-4358
▁ܝܘܬܪܢܐ	-4359
▁ܠܐܒܗܬܢ	-4360
▁ܠܐܘܪܚܐ	-4361
▁ܠܐܦܤܘܤ	-4362
▁ܠܟܠܟܘܢ	-4363
▁ܠܡܠܐܟܐ	-4364
▁ܡܛܠܗܢܐ	-4365
▁ܡܟܪܙܝܢ	-4366
▁ܡܤܒܪܝܢ	-4367
▁ܡܤܟܝܢܢ	-4368
▁ܡܫܒܚܝܢ	-4369
▁ܡܫܡܠܝܐ	-4370
▁ܡܫܬܘܕܥ	-4371
▁ܡܫܬܘܬܐ	-4372
▁ܢܐܟܠܘܢ	-4373
▁ܢܤܒܬܘܢ	-4374
▁ܢܥܒܪܘܢ	-4375
▁ܦܐܪܘܗܝ	-4376
▁ܦܘܡܗܘܢ	-4377
▁ܪܕܘܦܝܐ	-4378
▁ܪܚܡܘܗܝ	-4379
▁ܫܠܝܡܘܢ	-4380
▁ܫܩܠܬܘܢ	-4381
▁ܬܝܒܘܬܐ	-4382
▁ܬܥܡܕܘܢ	-4383
▁ܬܪܥܝܬܐ	-4384
▁ܬܫܒܩܘܢ	-4385
▁ܬܫܡܥܘܢ	-4386
▁ܐܝܬܝܟܘܢ	-4387
▁ܒܝܘܠܦܢܐ	-4388
▁ܒܟܘܪܗܢܐ	-4389
▁ܒܡܕܝܢܬܗ	-4390
▁ܒܡܫܘܚܬܐ	-4391
▁ܒܢܘܫܩܬܐ	-4392
▁ܕܐܫܬܕܪܘ	-4393
▁ܕܒܝܫܐܝܬ	-4394
▁ܕܒܟܠܙܒܢ	-4395
▁ܕܟܘܪܤܝܐ	-4396
▁ܕܡܠܟܘܬܗ	-4397
▁ܕܡܫܟܚܝܢ	-4398
▁ܕܢܐܡܪܘܢ	-4399
▁ܕܢܫܐܠܘܢ	-4400
▁ܕܤܡܝܟܝܢ	-4401
▁ܕܥܠܝܗܘܢ	-4402
▁ܕܦܘܩܕܢܐ	-4403
▁ܗܝܡܢܘܬܟ	-4404
▁ܗܝܡܢܬܘܢ	-4405
▁ܘܐܚܕܘܗܝ	-4406
▁ܘܐܫܬܥܝܘ	-4407
▁ܘܐܬܕܡܪܘ	-4408
▁ܘܠܐܚܪܢܐ	-4409
▁ܘܡܗܝܡܢܐ	-4410
▁ܘܡܡܠܠܝܢ	-4411
▁ܘܪܓܠܘܗܝ	-4412
▁ܘܬܡܝܗܝܢ	-4413
▁ܛܝܡܬܐܘܤ	-4414
▁ܠܝܘܠܦܢܐ	-4415
▁ܠܡܫܪܝܬܐ	-4416
▁ܡܐܢܝܗܘܢ	-4417
▁ܡܙܕܪܥܝܢ	-4418
▁ܡܫܬܡܥܝܢ	-4419
▁ܢܦܫܬܟܘܢ	-4420
▁ܩܘܦܝܢܝܢ	-4421
▁ܬܚܙܘܢܢܝ	-4422
▁ܬܪܝܨܐܝܬ	-4423
▁ܐܘܢܓܠܝܘܢ	-4424
▁ܒܚܛܗܝܟܘܢ	-4425
▁ܒܬܫܒܘܚܬܐ	-4426
▁ܕܢܗܝܡܢܘܢ	-4427
▁ܘܐܘܒܠܘܗܝ	-4428
▁ܘܗܝܡܢܘܬܐ	-4429
▁ܘܡܬܕܡܪܝܢ	-4430
▁ܠܐܢܛܝܘܟܝ	-4431
▁ܠܛܝܡܬܐܘܤ	-4432
▁ܠܩܢܛܪܘܢܐ	-4433
▁ܠܬܫܒܘܚܬܐ	-4434
▁ܡܨܝܕܬܗܘܢ	-4435
▁ܡܫܠܡܢܘܬܐ	-4436
ܟܟ	-4437
ܡܙ	-4438
ܦܗ	-4439
ܒܛܐ	-4440
ܒܤܡ	-4441
ܓܙܪ	-4442
ܕܚܠ	-4443
ܕܝܫ	-4444
ܕܩܬ	-4445
ܘܢܢ	-4446
ܙܩܦ	-4447
ܚܕܗ	-4448
ܚܝܟ	-4449
ܚܪܐ	-4450
ܚܫܐ	-4451
ܛܓܐ	-4452
ܝܝܢ	-4453
ܝܡܢ	-4454
ܟܢܝ	-4455
ܟܤܝ	-4456
ܠܠܘ	-4457
ܡܝܤ	-4458
ܡܝܪ	-4459
ܡܠܚ	-4460
ܢܘܟ	-4461
ܢܝܬ	-4462
ܢܩܐ	-4463
ܤܛܪ	-4464
ܤܝܬ	-4465
ܦܟܐ	-4466
ܦܪܘ	-4467
ܦܪܬ	-4468
ܨܘܕ	-4469
ܩܘܒ	-4470
ܩܘܦ	-4471
ܪܥܗ	-4472
ܪܥܟ	-4473
ܪܬܗ	-4474
ܫܚܐ	-4475
ܬܝܪ	-4476
ܬܢܚ	-4477
▁ܐܠ	-4478
▁ܓܐ	-4479
▁ܓܝ	-4480
▁ܡܒ	-4481
▁ܢܕ	-4482
▁ܤܒ	-4483
▁ܤܪ	-4484
▁ܩܕ	-4485
▁ܪܐ	-4486
▁ܫܚ	-4487
ܒܗܬܐ	-4488
ܒܝܐܘ	-4489
ܒܝܢܐ	-4490
ܒܢܝܐ	-4491
ܒܪܬܐ	-4492
ܓܘܫܐ	-4493
ܓܠܘܢ	-4494
ܓܠܝܬ	-4495
ܕܝܢܗ	-4496
ܕܡܘܢ	-4497
ܕܡܘܤ	-4498
ܗܕܘܢ	-4499
ܗܘܗܝ	-4500
ܘܐܝܠ	-4501
ܘܒܬܐ	-4502
ܘܝܐܐ	-4503
ܘܠܫܐ	-4504
ܘܪܘܢ	-4505
ܘܪܝܗ	-4506
ܙܪܬܐ	-4507
ܚܘܘܢ	-4508
ܚܠܬܐ	-4509
ܚܡܢܐ	-4510
ܛܠܝܢ	-4511
ܛܪܘܤ	-4512
ܝܕܬܐ	-4513
ܝܠܢܐ	-4514
ܝܪܚܐ	-4515
ܝܬܪܐ	-4516
ܟܒܬܐ	-4517
ܟܬܘܒ	-4518
ܠܚܢܝ	-4519
ܡܥܘܢ	-4520
ܢܩܝܢ	-4521
ܤܕܝܢ	-4522
ܥܪܘܢ	-4523
ܦܝܬܐ	-4524
ܩܠܛܐ	-4525
ܩܪܒܘ	-4526
ܩܪܘܒ	-4527
ܩܪܬܐ	-4528
ܪܒܝܐ	-4529
ܪܘܐܤ	-4530
ܫܒܘܚ	-4531
ܬܗܦܟ	-4532
ܬܢܝܚ	-4533
▁ܐܝܙ	-4534
▁ܐܡܐ	-4535
▁ܐܡܟ	-4536
▁ܐܫܩ	-4537
▁ܒܐܘ	-4538
▁ܒܚܝ	-4539
▁ܒܟܐ	-4540
▁ܒܪܘ	-4541
▁ܓܙܐ	-4542
▁ܕܒܨ	-4543
▁ܕܡܝ	-4544
▁ܕܤܘ	-4545
▁ܕܥܒ	-4546
▁ܕܥܪ	-4547
▁ܕܦܐ	-4548
▁ܕܩܕ	-4549
▁ܕܬܟ	-4550
▁ܘܒܓ	-4551
▁ܘܕܙ	-4552
▁ܘܕܠ	-4553
▁ܘܚܡ	-4554
▁ܘܝܠ	-4555
▁ܘܠܙ	-4556
▁ܘܥܘ	-4557
▁ܘܥܪ	-4558
▁ܘܪܥ	-4559
▁ܘܫܬ	-4560
▁ܚܘܝ	-4561
▁ܚܘܪ	-4562
▁ܚܛܘ	-4563
▁ܛܥܘ	-4564
▁ܛܪܘ	-4565
▁ܝܘܪ	-4566
▁ܟܘܟ	-4567
▁ܟܠܐ	-4568
▁ܟܤܦ	-4569
▁ܠܐܒ	-4570
▁ܠܒܟ	-4571
▁ܠܒܢ	-4572
▁ܠܕܐ	-4573
▁ܠܚܒ	-4574
▁ܠܡܥ	-4575
▁ܠܢܝ	-4576
▁ܠܥܤ	-4577
▁ܠܪܘ	-4578
▁ܠܫܒ	-4579
▁ܡܒܪ	-4580
▁ܡܚܪ	-4581
▁ܡܤܒ	-4582
▁ܡܫܪ	-4583
▁ܡܬܝ	-4584
▁ܡܬܩ	-4585
▁ܢܓܢ	-4586
▁ܢܚܙ	-4587
▁ܢܤܝ	-4588
▁ܢܩܝ	-4589
▁ܢܩܦ	-4590
▁ܢܬܒ	-4591
▁ܤܡܘ	-4592
▁ܥܝܪ	-4593
▁ܥܤܪ	-4594
▁ܦܪܩ	-4595
▁ܨܝܕ	-4596
▁ܪܢܐ	-4597
▁ܫܛܝ	-4598
▁ܫܦܪ	-4599
▁ܬܠܘ	-4600
▁ܬܬܢ	-4601
ܒܝܩܝܢ	-4602
ܒܥܘܗܝ	-4603
ܒܪܘܗܝ	-4604
ܓܘܠܬܐ	-4605
ܓܘܪܬܐ	-4606
ܓܪܟܘܢ	-4607
ܕܟܝܬܐ	-4608
ܘܗܒܬܗ	-4609
ܘܛܘܬܐ	-4610
ܘܢܝܩܐ	-4611
ܘܪܤܝܗ	-4612
ܘܬܦܘܢ	-4613
ܘܬܦܝܢ	-4614
ܙܝܥܘܢ	-4615
ܝܦܘܪܐ	-4616
ܝܪܝܚܘ	-4617
ܟܝܗܘܢ	-4618
ܟܝܩܘܤ	-4619
ܟܦܘܬܐ	-4620
ܠܒܫܘܢ	-4621
ܠܙܒܘܒ	-4622
ܠܝܘܬܐ	-4623
ܡܢܘܬܗ	-4624
ܢܓܕܘܢ	-4625
ܢܝܐܝܬ	-4626
ܦܝܪܬܐ	-4627
ܩܘܒܠܢ	-4628
ܪܪܟܘܢ	-4629
ܬܪܘܬܐ	-4630
▁ܐܕܢܗ	-4631
▁ܐܘܪܩ	-4632
▁ܐܙܠܬ	-4633
▁ܐܚܒܢ	-4634
▁ܐܝܬܐ	-4635
▁ܐܝܬܘ	-4636
▁ܐܡܝܪ	-4637
▁ܐܤܬܪ	-4638
▁ܐܫܐܠ	-4639
▁ܐܫܕܪ	-4640
▁ܒܐܢܫ	-4641
▁ܒܒܝܠ	-4642
▁ܒܒܪܐ	-4643
▁ܒܘܨܐ	-4644
▁ܒܚܝܐ	-4645
▁ܒܛܢܐ	-4646
▁ܒܠܒܐ	-4647
▁ܒܥܝܐ	-4648
▁ܒܥܬܐ	-4649
▁ܓܝܤܐ	-4650
▁ܕܐܦܩ	-4651
▁ܕܐܬܝ	-4652
▁ܕܐܬܠ	-4653
▁ܕܒܗܝ	-4654
▁ܕܒܥܐ	-4655
▁ܕܒܪܟ	-4656
▁ܕܒܬܪ	-4657
▁ܕܗܘܝ	-4658
▁ܕܙܒܢ	-4659
▁ܕܚܠܐ	-4660
▁ܕܛܠܡ	-4661
▁ܕܟܢܝ	-4662
▁ܕܠܓܘ	-4663
▁ܕܡܐܬ	-4664
▁ܕܡܛܐ	-4665
▁ܕܡܥܕ	-4666
▁ܕܡܦܩ	-4667
▁ܕܡܪܝ	-4668
▁ܕܡܫܡ	-4669
▁ܕܢܫܩ	-4670
▁ܕܢܬܪ	-4671
▁ܕܥܟܐ	-4672
▁ܕܦܘܩ	-4673
▁ܕܦܬܚ	-4674
▁ܕܦܬܝ	-4675
▁ܕܪܗܛ	-4676
▁ܕܫܐܠ	-4677
▁ܕܬܬܚ	-4678
▁ܕܬܬܪ	-4679
▁ܘܐܚܕ	-4680
▁ܘܐܠܦ	-4681
▁ܘܐܡܗ	-4682
▁ܘܐܦܤ	-4683
▁ܘܒܕܡ	-4684
▁ܘܒܗܘ	-4685
▁ܘܒܝܕ	-4686
▁ܘܓܠܐ	-4687
▁ܘܕܚܠ	-4688
▁ܘܕܡܪ	-4689
▁ܘܟܡܐ	-4690
▁ܘܟܢܫ	-4691
▁ܘܠܦܪ	-4692
▁ܘܡܚܪ	-4693
▁ܘܡܠܝ	-4694
▁ܘܡܥܩ	-4695
▁ܘܡܬܝ	-4696
▁ܘܢܫܒ	-4697
▁ܘܤܡܗ	-4698
▁ܘܥܪܩ	-4699
▁ܘܦܠܓ	-4700
▁ܘܦܪܫ	-4701
▁ܘܦܬܚ	-4702
▁ܘܨܠܘ	-4703
▁ܘܩܡܬ	-4704
▁ܘܩܪܘ	-4705
▁ܘܪܕܘ	-4706
▁ܘܪܚܡ	-4707
▁ܘܪܡܐ	-4708
▁ܘܪܫܐ	-4709
▁ܘܫܒܘ	-4710
▁ܘܫܒܥ	-4711
▁ܙܝܢܐ	-4712
▁ܙܪܥܬ	-4713
▁ܚܛܝܬ	-4714
▁ܚܡܬܗ	-4715
▁ܛܥܝܢ	-4716
▁ܝܕܥܬ	-4717
▁ܟܘܡܪ	-4718
▁ܟܠܡܢ	-4719
▁ܠܐܚܝ	-4720
▁ܠܐܝܬ	-4721
▁ܠܡܚܐ	-4722
▁ܠܡܬܢ	-4723
▁ܠܫܒܥ	-4724
▁ܡܐܤܐ	-4725
▁ܡܓܪܬ	-4726
▁ܡܚܒܠ	-4727
▁ܡܛܝܢ	-4728
▁ܡܛܥܐ	-4729
▁ܡܢܢܐ	-4730
▁ܡܦܢܐ	-4731
▁ܢܚܘܐ	-4732
▁ܢܚܤܪ	-4733
▁ܢܚܫܐ	-4734
▁ܢܝܚܐ	-4735
▁ܢܦܩܐ	-4736
▁ܢܫܡܫ	-4737
▁ܢܫܦܪ	-4738
▁ܤܡܠܗ	-4739
▁ܥܒܝܕ	-4740
▁ܥܕܬܗ	-4741
▁ܥܪܛܠ	-4742
▁ܥܪܩܐ	-4743
▁ܥܪܩܘ	-4744
▁ܩܒܠܬ	-4745
▁ܩܛܠܘ	-4746
▁ܩܪܛܐ	-4747
▁ܩܪܝܢ	-4748
▁ܩܪܢܢ	-4749
▁ܪܓܠܐ	-4750
▁ܪܘܡܐ	-4751
▁ܫܒܩܢ	-4752
▁ܫܕܪܘ	-4753
▁ܫܘܝܬ	-4754
▁ܫܝܢܐ	-4755
▁ܫܠܡܗ	-4756
▁ܫܠܡܘ	-4757
▁ܫܥܒܕ	-4758
▁ܫܩܠܘ	-4759
▁ܫܪܪܗ	-4760
▁ܬܘܒܘ	-4761
▁ܬܩܘܐ	-4762
▁ܬܩܘܡ	-4763
ܓܘܓܝܬܐ	-4764
ܕܢܝܗܘܢ	-4765
ܝܠܝܩܝܐ	-4766
ܝܪܬܘܬܐ	-4767
ܝܬܘܢܢܝ	-4768
ܠܒܫܘܗܝ	-4769
ܠܗܒܝܬܐ	-4770
ܠܡܝܕܝܟ	-4771
ܡܦܘܠܝܐ	-4772
ܢܘܬܟܘܢ	-4773
▁ܐܓܪܦܐ	-4774
▁ܐܚܘܕܘ	-4775
▁ܐܟܪܙܬ	-4776
▁ܐܟܬܘܒ	-4777
▁ܐܤܛܘܟ	-4778
▁ܐܤܛܠܐ	-4779
▁ܐܤܦܝܪ	-4780
▁ܐܤܬܡܟ	-4781
▁ܐܩܝܡܟ	-4782
▁ܐܫܬܒܚ	-4783
▁ܐܫܬܡܥ	-4784
▁ܐܬܐܠܨ	-4785
▁ܐܬܒܛܠ	-4786
▁ܐܬܬܙܝ	-4787
▁ܒܕܗܒܐ	-4788
▁ܒܗܬܬܐ	-4789
▁ܒܚܠܡܐ	-4790
▁ܒܝܗܘܕ	-4791
▁ܒܝܘܡܝ	-4792
▁ܒܟܤܝܐ	-4793
▁ܒܡܐܢܐ	-4794
▁ܒܡܟܝܟ	-4795
▁ܒܢܡܘܤ	-4796
▁ܒܤܝܡܐ	-4797
▁ܒܤܝܦܐ	-4798
▁ܒܥܒܪܐ	-4799
▁ܒܦܘܡܐ	-4800
▁ܒܫܝܘܠ	-4801
▁ܓܒܝܬܐ	-4802
▁ܕܐܟܪܙ	-4803
▁ܕܐܡܬܝ	-4804
▁ܕܒܗܝܢ	-4805
▁ܕܒܟܘܢ	-4806
▁ܕܒܟܝܢ	-4807
▁ܕܒܡܪܢ	-4808
▁ܕܒܬܪܗ	-4809
▁ܕܒܬܪܝ	-4810
▁ܕܕܝܠܗ	-4811
▁ܕܕܪܬܐ	-4812
▁ܕܚܕܪܝ	-4813
▁ܕܚܘܒܐ	-4814
▁ܕܚܙܘܐ	-4815
▁ܕܚܝܠܗ	-4816
▁ܕܝܘܢܢ	-4817
▁ܕܟܬܒܬ	-4818
▁ܕܡܛܝܐ	-4819
▁ܕܡܟܤܐ	-4820
▁ܕܡܠܠܘ	-4821
▁ܕܡܠܬܗ	-4822
▁ܕܡܩܒܠ	-4823
▁ܕܡܩܘܐ	-4824
▁ܕܡܩܪܒ	-4825
▁ܕܡܪܝܡ	-4826
▁ܕܢܒܗܬ	-4827
▁ܕܢܘܢܐ	-4828
▁ܕܢܦܘܩ	-4829
▁ܕܢܩܒܠ	-4830
▁ܕܢܩܪܒ	-4831
▁ܕܦܨܚܐ	-4832
▁ܕܩܨܝܐ	-4833
▁ܕܩܪܝܒ	-4834
▁ܕܫܒܩܬ	-4835
▁ܕܫܕܪܬ	-4836
▁ܕܫܪܝܢ	-4837
▁ܕܬܪܚܡ	-4838
▁ܘܐܘܕܥ	-4839
▁ܘܐܟܠܘ	-4840
▁ܘܐܡܪܢ	-4841
▁ܘܐܤܗܕ	-4842
▁ܘܐܪܒܥ	-4843
▁ܘܐܫܬܓ	-4844
▁ܘܒܟܠܗ	-4845
▁ܘܒܤܝܡ	-4846
▁ܘܕܐܝܬ	-4847
▁ܘܕܝܬܒ	-4848
▁ܘܕܥܡܗ	-4849
▁ܘܗܘܝܐ	-4850
▁ܘܗܘܝܢ	-4851
▁ܘܙܒܢܐ	-4852
▁ܘܙܕܝܩ	-4853
▁ܘܚܡܬܐ	-4854
▁ܘܚܪܫܐ	-4855
▁ܘܝܗܒܗ	-4856
▁ܘܝܬܒܘ	-4857
▁ܘܟܪܝܬ	-4858
▁ܘܡܘܬܐ	-4859
▁ܘܡܚܝܢ	-4860
▁ܘܡܝܬܐ	-4861
▁ܘܡܤܗܕ	-4862
▁ܘܡܦܝܤ	-4863
▁ܘܡܬܟܫ	-4864
▁ܘܢܚܙܐ	-4865
▁ܘܢܤܒܘ	-4866
▁ܘܢܥܒܕ	-4867
▁ܘܢܦܠܬ	-4868
▁ܘܢܫܪܐ	-4869
▁ܘܤܓܕܘ	-4870
▁ܘܤܗܪܐ	-4871
▁ܘܤܡܝܐ	-4872
▁ܘܥܡܡܐ	-4873
▁ܘܩܪܝܒ	-4874
▁ܘܫܒܚܘ	-4875
▁ܘܫܡܫܐ	-4876
▁ܚܕܬܬܐ	-4877
▁ܚܙܝܢܢ	-4878
▁ܚܙܝܪܐ	-4879
▁ܚܝܘܗܝ	-4880
▁ܚܝܪܝܢ	-4881
▁ܚܟܡܬܗ	-4882
▁ܚܡܫܝܢ	-4883
▁ܚܤܝܪܝ	-4884
▁ܛܘܗܡܗ	-4885
▁ܛܘܦܤܐ	-4886
▁ܝܬܒܝܢ	-4887
▁ܠܐܠܗܝ	-4888
▁ܠܒܝܫܐ	-4889
▁ܠܒܢܝܐ	-4890
▁ܠܒܥܠܗ	-4891
▁ܠܕܘܟܪ	-4892
▁ܠܘܛܬܐ	-4893
▁ܠܙܒܢܐ	-4894
▁ܠܚܕܕܐ	-4895
▁ܠܛܒܬܐ	-4896
▁ܠܝܗܘܕ	-4897
▁ܠܡܐܚܕ	-4898
▁ܠܡܝܬܐ	-4899
▁ܠܡܠܟܐ	-4900
▁ܠܡܤܓܕ	-4901
▁ܠܫܘܩܐ	-4902
▁ܡܕܝܢܐ	-4903
▁ܡܕܢܚܐ	-4904
▁ܡܘܒܠܐ	-4905
▁ܡܘܠܝܐ	-4906
▁ܡܡܠܠܐ	-4907
▁ܡܥܝܢܐ	-4908
▁ܡܥܤܪܐ	-4909
▁ܡܨܥܝܐ	-4910
▁ܡܩܒܠܐ	-4911
▁ܡܩܕܫܐ	-4912
▁ܡܬܓܠܐ	-4913
▁ܡܬܝܗܒ	-4914
▁ܢܗܝܡܢ	-4915
▁ܢܗܝܪܐ	-4916
▁ܢܟܦܘܪ	-4917
▁ܢܬܕܒܪ	-4918
▁ܢܬܚܙܐ	-4919
▁ܢܬܝܕܥ	-4920
▁ܢܬܡܠܠ	-4921
▁ܤܠܩܝܢ	-4922
▁ܥܒܪܝܢ	-4923
▁ܦܠܐܬܐ	-4924
▁ܦܪܫܝܢ	-4925
▁ܦܫܝܛܐ	-4926
▁ܨܒܝܢܢ	-4927
▁ܪܗܛܝܢ	-4928
▁ܪܚܝܩܐ	-4929
▁ܪܛܢܝܢ	-4930
▁ܪܥܝܢܗ	-4931
▁ܪܥܝܢܟ	-4932
▁ܫܪܝܢܐ	-4933
▁ܬܟܠܘܢ	-4934
▁ܬܠܬܝܢ	-4935
▁ܬܡܢܝܐ	-4936
▁ܬܬܝܕܥ	-4937
▁ܐܚܝܟܘܢ	-4938
▁ܐܚܪܝܬܐ	-4939
▁ܐܡܝܢܝܢ	-4940
▁ܐܦܝܗܘܢ	-4941
▁ܐܨܛܒܝܬ	-4942
▁ܐܬܝܗܒܬ	-4943
▁ܐܬܠܒܒܘ	-4944
▁ܒܐܤܘܪܐ	-4945
▁ܒܘܪܟܬܐ	-4946
▁ܒܝܢܘܗܝ	-4947
▁ܒܠܒܟܘܢ	-4948
▁ܒܡܪܘܡܐ	-4949
▁ܒܢܝܟܘܢ	-4950
▁ܒܩܘܪܝܐ	-4951
▁ܒܩܝܡܬܐ	-4952
▁ܒܩܢܘܡܗ	-4953
▁ܕܐܒܗܬܢ	-4954
▁ܕܐܙܕܩܦ	-4955
▁ܕܐܟܐܝܐ	-4956
▁ܕܐܩܝܡܗ	-4957
▁ܕܐܫܟܚܬ	-4958
▁ܕܐܬܐܤܝ	-4959
▁ܕܐܬܟܢܝ	-4960
▁ܕܒܥܕܬܐ	-4961
▁ܕܒܥܠܡܐ	-4962
▁ܕܓܘܕܦܐ	-4963
▁ܕܗܝܡܢܬ	-4964
▁ܕܚܪܕܠܐ	-4965
▁ܕܝܘܡܬܐ	-4966
▁ܕܝܢܪܝܢ	-4967
▁ܕܟܘܟܒܐ	-4968
▁ܕܠܒܗܘܢ	-4969
▁ܕܡܚܒܝܢ	-4970
▁ܕܡܛܝܒܐ	-4971
▁ܕܡܝܬܝܢ	-4972
▁ܕܡܬܚܒܠ	-4973
▁ܕܢܗܘܝܢ	-4974
▁ܕܢܛܪܝܢ	-4975
▁ܕܢܤܒܘܢ	-4976
▁ܕܢܦܩܝܢ	-4977
▁ܕܢܫܬܠܡ	-4978
▁ܕܦܪܙܠܐ	-4979
▁ܘܐܡܘܬܐ	-4980
▁ܘܐܪܡܝܐ	-4981
▁ܘܐܬܦܬܚ	-4982
▁ܘܒܢܘܪܐ	-4983
▁ܘܕܐܠܗܐ	-4984
▁ܘܙܕܝܩܐ	-4985
▁ܘܚܝܘܬܐ	-4986
▁ܘܚܪܝܢܐ	-4987
▁ܘܝܗܒܝܢ	-4988
▁ܘܠܫܝܠܐ	-4989
▁ܘܠܫܪܟܐ	-4990
▁ܘܠܬܠܬܐ	-4991
▁ܘܡܗܝܡܢ	-4992
▁ܘܦܘܠܘܤ	-4993
▁ܘܦܪܘܩܢ	-4994
▁ܘܫܘܒܚܐ	-4995
▁ܘܫܡܥܝܢ	-4996
▁ܘܫܪܝܗܝ	-4997
▁ܘܬܪܬܝܢ	-4998
▁ܙܕܘܩܝܐ	-4999
▁ܙܥܘܪܝܢ	-5000
▁ܙܩܦܘܗܝ	-5001
▁ܚܘܫܒܢܐ	-5002
▁ܝܕܝܥܝܢ	-5003
▁ܟܐܢܘܬܗ	-5004
▁ܟܘܪܗܢܐ	-5005
▁ܟܘܪܤܝܗ	-5006
▁ܠܐܒܕܢܐ	-5007
▁ܠܐܘܪܥܗ	-5008
▁ܠܐܚܪܝܢ	-5009
▁ܠܒܤܬܪܗ	-5010
▁ܠܒܥܠܕܒ	-5011
▁ܠܙܕܝܩܐ	-5012
▁ܠܚܫܘܟܐ	-5013
▁ܠܝܘܡܬܐ	-5014
▁ܠܡܐܚܕܗ	-5015
▁ܠܡܕܒܚܐ	-5016
▁ܠܡܤܒܪܘ	-5017
▁ܠܥܠܝܡܐ	-5018
▁ܠܩܘܪܝܐ	-5019
▁ܠܬܚܘܡܐ	-5020
▁ܡܘܕܝܢܢ	-5021
▁ܡܛܥܝܢܐ	-5022
▁ܡܝܬܪܝܢ	-5023
▁ܡܟܫܘܠܐ	-5024
▁ܡܠܝܗܘܢ	-5025
▁ܡܥܨܪܬܐ	-5026
▁ܢܘܒܕܝܗ	-5027
▁ܢܫܝܟܘܢ	-5028
▁ܤܡܝܟܝܢ	-5029
▁ܥܒܕܘܬܐ	-5030
▁ܥܠܝܡܬܐ	-5031
▁ܦܪܩܠܛܐ	-5032
▁ܨܒܝܬܘܢ	-5033
▁ܩܒܠܘܗܝ	-5034
▁ܩܪܩܦܬܐ	-5035
▁ܩܫܝܫܝܢ	-5036
▁ܫܕܪܬܢܝ	-5037
▁ܫܘܒܩܢܐ	-5038
▁ܫܘܚܠܦܐ	-5039
▁ܬܐܟܠܘܢ	-5040
▁ܬܘܕܝܬܐ	-5041
▁ܬܘܟܠܢܐ	-5042
▁ܬܚܦܝܬܐ	-5043
▁ܬܠܡܝܕܝ	-5044
▁ܬܩܒܠܘܢ	-5045
▁ܐܝܬܝܘܗܝ	-5046
▁ܐܤܛܕܘܬܐ	-5047
▁ܐܪܒܥܤܪܐ	-5048
▁ܐܫܐܠܟܘܢ	-5049
▁ܐܬܛܦܝܤܘ	-5050
▁ܒܕܪܡܤܘܩ	-5051
▁ܒܘܪܟܘܗܝ	-5052
▁ܒܦܘܩܕܢܐ	-5053
▁ܒܦܪܨܘܦܗ	-5054
▁ܒܫܘܠܛܢܐ	-5055
▁ܕܐܒܘܟܘܢ	-5056
▁ܕܐܚܝܕܝܢ	-5057
▁ܕܐܪܡܠܬܐ	-5058
▁ܕܡܙܒܢܝܢ	-5059
▁ܕܡܛܝܒܝܢ	-5060
▁ܕܡܩܪܒܝܢ	-5061
▁ܕܢܡܠܠܘܢ	-5062
▁ܕܢܤܝܡܘܢ	-5063
▁ܕܥܠܝܟܘܢ	-5064
▁ܕܪܗܘܡܝܐ	-5065
▁ܕܫܠܝܡܘܢ	-5066
▁ܕܬܘܩܠܬܐ	-5067
▁ܕܬܫܐܠܘܢ	-5068
▁ܘܐܪܒܥܝܢ	-5069
▁ܘܐܫܬܘܕܥ	-5070
▁ܘܒܝܕܥܬܐ	-5071
▁ܘܒܟܠܙܒܢ	-5072
▁ܘܓܒܪܘܬܐ	-5073
▁ܘܚܙܐܘܗܝ	-5074
▁ܘܝܕܥܝܢܢ	-5075
▁ܘܟܒܪܝܬܐ	-5076
▁ܘܠܐܪܡܝܐ	-5077
▁ܘܠܒܪܢܒܐ	-5078
▁ܘܡܕܝܢܬܐ	-5079
▁ܘܢܤܓܕܘܢ	-5080
▁ܘܬܕܡܪܬܐ	-5081
▁ܠܒܘܬܗܘܢ	-5082
▁ܠܟܐܢܘܬܐ	-5083
▁ܠܡܩܛܠܢܝ	-5084
▁ܠܥܒܕܘܬܐ	-5085
▁ܠܬܫܡܫܬܐ	-5086
▁ܡܗܠܟܝܢܢ	-5087
▁ܡܤܒܪܝܢܢ	-5088
▁ܡܬܕܒܪܝܢ	-5089
▁ܡܬܩܪܒܝܢ	-5090
▁ܢܚܬܝܗܘܢ	-5091
▁ܢܛܥܝܟܘܢ	-5092
▁ܢܝܩܕܡܘܤ	-5093
▁ܨܐܕܝܟܘܢ	-5094
▁ܩܕܡܝܟܘܢ	-5095
▁ܪܥܝܢܗܘܢ	-5096
▁ܬܟܝܠܝܢܢ	-5097
▁ܬܠܡܝܕܝܟ	-5098
▁ܐܢܬܘܦܛܘܤ	-5099
▁ܐܬܩܪܝܬܘܢ	-5100
▁ܒܥܠܕܒܒܝܟ	-5101
▁ܕܗܝܡܢܘܬܗ	-5102
▁ܕܗܝܡܢܬܘܢ	-5103
▁ܕܝܬܝܪܐܝܬ	-5104
▁ܕܡܤܬܒܪܝܢ	-5105
▁ܕܫܪܝܪܐܝܬ	-5106
▁ܕܬܫܒܘܚܬܐ	-5107
▁ܗܝܡܢܘܬܟܝ	-5108
▁ܘܡܠܐܟܘܗܝ	-5109
▁ܠܗܝܡܢܘܬܐ	-5110
▁ܠܦܪܛܘܪܝܢ	-5111
▁ܠܬܪܥܤܪܬܗ	-5112
▁ܡܥܡܘܕܝܬܗ	-5113
▁ܡܫܬܒܗܪܝܢ	-5114
▁ܒܡܥܡܘܕܝܬܐ	-5115
▁ܒܥܠܕܒܒܘܬܐ	-5116
▁ܕܢܫܐܠܝܘܗܝ	-5117
▁ܘܒܗܝܡܢܘܬܐ	-5118
▁ܠܤܗܕܘܬܗܘܢ	-5119
▁ܡܬܚܒܠܢܘܬܐ	-5120
▁ܕܢܐܚܕܘܢܝܗܝ	-5121
▁ܕܢܩܛܠܘܢܝܗܝ	-5122
ܓܗ	-5123
ܘܙ	-5124
ܚܦ	-5125
ܚܪ	-5126
ܝܥ	-5127
ܠܛ	-5128
ܤܤ	-5129
ܨܝ	-5130
ܨܢ	-5131
ܪܟ	-5132
ܒܙܚ	-5133
ܒܪܝ	-5134
ܒܫܬ	-5135
ܒܬܢ	-5136
ܓܡܗ	-5137
ܓܫܘ	-5138
ܓܬܗ	-5139
ܕܡܟ	-5140
ܕܢܚ	-5141
ܕܦܘ	-5142
ܕܩܦ	-5143
ܗܝܪ	-5144
ܘܫܛ	-5145
ܙܕܗ	-5146
ܛܘܐ	-5147
ܛܘܦ	-5148
ܝܒܗ	-5149
ܝܚܘ	-5150
ܝܠܟ	-5151
ܝܪܬ	-5152
ܠܝܤ	-5153
ܠܟܝ	-5154
ܢܝܗ	-5155
ܢܢܗ	-5156
ܢܤܐ	-5157
ܤܦܐ	-5158
ܤܪܝ	-5159
ܥܝܗ	-5160
ܥܩܘ	-5161
ܥܪܗ	-5162
ܥܪܩ	-5163
ܦܝܗ	-5164
ܦܫܚ	-5165
ܨܪܬ	-5166
ܩܪܗ	-5167
ܪܒܗ	-5168
ܪܝܟ	-5169
ܫܒܐ	-5170
ܫܘܒ	-5171
ܫܝܫ	-5172
ܫܡܝ	-5173
ܫܡܟ	-5174
ܫܢܗ	-5175
ܬܟܝ	-5176
▁ܐܛ	-5177
▁ܙܕ	-5178
▁ܡܗ	-5179
▁ܢܝ	-5180
▁ܢܡ	-5181
▁ܥܩ	-5182
▁ܦܫ	-5183
▁ܨܚ	-5184
▁ܩܤ	-5185
▁ܫܠ	-5186
▁ܬܠ	-5187
ܒܗܪܐ	-5188
ܒܗܪܢ	-5189
ܒܝܢܢ	-5190
ܒܢܝܗ	-5191
ܒܥܝܐ	-5192
ܓܠܝܐ	-5193
ܓܡܘܪ	-5194
ܕܪܝܐ	-5195
ܕܪܝܢ	-5196
ܗܕܢܐ	-5197
ܗܘܡܝ	-5198
ܘܒܪܝ	-5199
ܨܘ	-5200
ܨܛ	-5201
ܩܢܬ	-5202
ܫܦܗ	-5203
ܓܝܤܐ	-5204
ܕܦܘܢ	-5205
ܘܕܝܘ	-5206
ܘܝܬܐ	-5207
ܘܟܝܗ	-5208
ܘܠܘܢ	-5209
ܘܥܝܝ	-5210
ܚܘܝܘ	-5211
ܚܘܬܐ	-5212
ܛܡܝܤ	-5213
ܝܗܬܐ	-5214
ܝܠܕܘ	-5215
ܝܢܝܐ	-5216
ܝܩܝܢ	-5217
ܝܬܟܝ	-5218
ܟܝܠܐ	-5219
ܟܠܢܫ	-5220
ܟܢܬܐ	-5221
ܟܤܬܐ	-5222
ܠܡܢܝ	-5223
ܡܘܢܐ	-5224
ܡܢܝܢ	-5225
ܢܗܘܢ	-5226
ܢܘܢܐ	-5227
ܤܒܘܢ	-5228
ܤܘܗܝ	-5229
ܥܒܕܢ	-5230
ܥܘܪܘ	-5231
ܥܠܢܐ	-5232
ܥܡܡܐ	-5233
ܦܘܬܗ	-5234
ܦܟܘܢ	-5235
ܦܬܘܢ	-5236
ܩܝܠܝ	-5237
ܩܝܢܝ	-5238
ܩܠܝܢ	-5239
ܪܒܝܢ	-5240
ܪܒܥܬ	-5241
ܪܘܙܐ	-5242
ܪܘܩܘ	-5243
ܪܤܬܐ	-5244
ܫܝܢܢ	-5245
ܬܢܝܢ	-5246
ܬܥܤܪ	-5247
▁ܐܘܢ	-5248
▁ܐܥܠ	-5249
▁ܐܬܗ	-5250
▁ܐܬܥ	-5251
▁ܐܬܩ	-5252
▁ܒܐܢ	-5253
▁ܒܒܪ	-5254
▁ܒܓܢ	-5255
▁ܒܠܐ	-5256
▁ܒܥܙ	-5257
▁ܒܬܢ	-5258
▁ܓܡܪ	-5259
▁ܓܪܝ	-5260
▁ܕܐܝ	-5261
▁ܕܒܦ	-5262
▁ܕܓܢ	-5263
▁ܕܕܠ	-5264
▁ܕܗܒ	-5265
▁ܕܙܠ	-5266
▁ܕܚܨ	-5267
▁ܕܠܚ	-5268
▁ܕܢܕ	-5269
▁ܕܦܢ	-5270
▁ܕܦܬ	-5271
▁ܕܬܗ	-5272
▁ܕܬܤ	-5273
▁ܕܬܥ	-5274
▁ܘܕܦ	-5275
▁ܘܚܒ	-5276
▁ܘܚܛ	-5277
▁ܘܚܝ	-5278
▁ܘܛܒ	-5279
▁ܘܛܥ	-5280
▁ܘܠܓ	-5281
▁ܘܢܡ	-5282
▁ܘܤܐ	-5283
▁ܘܤܘ	-5284
▁ܘܦܬ	-5285
▁ܘܪܫ	-5286
▁ܙܟܐ	-5287
▁ܚܘܢ	-5288
▁ܚܙܗ	-5289
▁ܚܤܪ	-5290
▁ܚܨܕ	-5291
▁ܚܪܘ	-5292
▁ܚܫܒ	-5293
▁ܚܬܐ	-5294
▁ܛܛܪ	-5295
▁ܛܥܡ	-5296
▁ܝܒܫ	-5297
▁ܝܘܠ	-5298
▁ܝܠܕ	-5299
▁ܟܢܘ	-5300
▁ܠܓܝ	-5301
▁ܠܕܥ	-5302
▁ܠܚܘ	-5303
▁ܠܬܐ	-5304
▁ܡܕܥ	-5305
▁ܡܟܤ	-5306
▁ܡܟܬ	-5307
▁ܡܡܠ	-5308
▁ܡܥܩ	-5309
▁ܡܦܪ	-5310
▁ܡܨܐ	-5311
▁ܢܘܟ	-5312
▁ܢܠܦ	-5313
▁ܢܫܒ	-5314
▁ܢܫܘ	-5315
▁ܥܘܩ	-5316
▁ܥܘܪ	-5317
▁ܥܠܡ	-5318
▁ܦܨܐ	-5319
▁ܩܪܘ	-5320
▁ܪܒܗ	-5321
▁ܪܚܒ	-5322
▁ܪܥܝ	-5323
▁ܪܩܕ	-5324
▁ܫܡܫ	-5325
▁ܫܩܘ	-5326
▁ܬܕܥ	-5327
▁ܬܚܐ	-5328
▁ܬܚܙ	-5329
▁ܬܦܩ	-5330
ܒܗܬܘܢ	-5331
ܒܘܗܘܢ	-5332
ܒܘܝܐܐ	-5333
ܒܪܟܘܢ	-5334
ܓܕܦܝܢ	-5335
ܓܠܘܬܐ	-5336
ܕܝܗܘܢ	-5337
ܕܝܗܝܢ	-5338
ܕܝܘܗܝ	-5339
ܕܝܘܛܐ	-5340
ܕܝܩܝܢ	-5341
ܗܕܝܢܢ	-5342
ܗܕܟܘܢ	-5343
ܘܒܘܗܝ	-5344
ܘܚܝܬܐ	-5345
ܘܛܝܪܐ	-5346
ܘܟܠܢܐ	-5347
ܘܡܗܘܢ	-5348
ܘܤܪܢܐ	-5349
ܘܪܗܘܢ	-5350
ܘܪܟܝܢ	-5351
ܙܡܘܪܐ	-5352
ܚܬܗܘܢ	-5353
ܛܘܢܪܐ	-5354
ܝܚܘܬܐ	-5355
ܠܘܢܘܤ	-5356
ܠܚܘܗܝ	-5357
ܠܠܘܝܐ	-5358
ܠܬܗܘܢ	-5359
ܡܘܬܘܢ	-5360
ܡܝܩܝܢ	-5361
ܡܠܟܘܢ	-5362
ܡܠܠܘܢ	-5363
ܢܢܘܬܐ	-5364
ܢܦܘܬܐ	-5365
ܤܝܡܘܢ	-5366
ܥܝܘܬܐ	-5367
ܥܪܦܢܐ	-5368
ܦܝܢܟܐ	-5369
ܨܪܬܘܢ	-5370
ܩܝܡܘܢ	-5371
ܩܝܡܬܗ	-5372
ܪܝܕܝܢ	-5373
ܪܢܝܬܐ	-5374
ܬܢܒܘܢ	-5375
▁ܐܘܒܕ	-5376
▁ܐܚܘܢ	-5377
▁ܐܝܟܢ	-5378
▁ܐܝܩܐ	-5379
▁ܐܟܠܢ	-5380
▁ܐܠܗܝ	-5381
▁ܐܠܗܢ	-5382
▁ܐܠܝܨ	-5383
▁ܐܡܠܟ	-5384
▁ܐܡܪܚ	-5385
▁ܐܡܪܢ	-5386
▁ܐܢܝܚ	-5387
▁ܐܤܒܪ	-5388
▁ܐܤܟܠ	-5389
▁ܐܦܝܗ	-5390
▁ܐܪܥܗ	-5391
▁ܐܫܪܐ	-5392
▁ܐܬܚܫ	-5393
▁ܐܬܦܪ	-5394
▁ܐܬܪܡ	-5395
▁ܒܐܒܐ	-5396
▁ܒܐܒܝ	-5397
▁ܒܐܘܪ	-5398
▁ܒܕܘܟ	-5399
▁ܒܚܦܝ	-5400
▁ܒܝܢܬ	-5401
▁ܒܝܫܘ	-5402
▁ܒܠܝܐ	-5403
▁ܒܠܥܕ	-5404
▁ܒܩܤܪ	-5405
▁ܒܪܩܐ	-5406
▁ܒܪܫܐ	-5407
▁ܒܫܪܒ	-5408
▁ܒܬܘܠ	-5409
▁ܒܬܠܬ	-5410
▁ܓܘܪܐ	-5411
▁ܕܐܠܐ	-5412
▁ܕܐܠܝ	-5413
▁ܕܐܠܦ	-5414
▁ܕܐܡܗ	-5415
▁ܕܐܬܓ	-5416
▁ܕܒܒܠ	-5417
▁ܕܒܛܠ	-5418
▁ܕܒܫܘ	-5419
▁ܕܓܘܐ	-5420
▁ܕܕܝܢ	-5421
▁ܕܕܡܗ	-5422
▁ܕܙܪܝ	-5423
▁ܕܚܛܐ	-5424
▁ܕܚܛܘ	-5425
▁ܕܛܡܐ	-5426
▁ܕܝܢܪ	-5427
▁ܕܝܩܕ	-5428
▁ܕܟܤܦ	-5429
▁ܕܟܦܪ	-5430
▁ܕܟܬܒ	-5431
▁ܕܠܒܐ	-5432
▁ܕܡܐܐ	-5433
▁ܕܡܟܐ	-5434
▁ܕܡܟܘ	-5435
▁ܕܡܠܝ	-5436
▁ܕܢܗܪ	-5437
▁ܕܢܡܟ	-5438
▁ܕܢܤܩ	-5439
▁ܕܢܨܒ	-5440
▁ܕܢܬܬ	-5441
▁ܕܦܠܓ	-5442
▁ܕܨܘܪ	-5443
▁ܕܩܠܐ	-5444
▁ܕܫܦܪ	-5445
▁ܕܫܪܝ	-5446
▁ܕܬܐܒ	-5447
▁ܕܬܪܝ	-5448
▁ܗܘܦܟ	-5449
▁ܗܪܛܘ	-5450
▁ܘܐܒܕ	-5451
▁ܘܐܙܕ	-5452
▁ܘܐܚܐ	-5453
▁ܘܐܤܩ	-5454
▁ܘܐܫܘ	-5455
▁ܘܒܘܪ	-5456
▁ܘܒܚܘ	-5457
▁ܘܒܟܐ	-5458
▁ܘܒܢܐ	-5459
▁ܘܒܥܝ	-5460
▁ܘܒܩܛ	-5461
▁ܘܒܫܘ	-5462
▁ܘܕܐܢ	-5463
▁ܘܕܬܪ	-5464
▁ܘܗܒܘ	-5465
▁ܘܚܒܝ	-5466
▁ܘܚܢܩ	-5467
▁ܘܚܪܬ	-5468
▁ܘܛܒܐ	-5469
▁ܘܛܥܡ	-5470
▁ܘܝܕܝ	-5471
▁ܘܝܠܕ	-5472
▁ܘܠܒܝ	-5473
▁ܘܠܡܤ	-5474
▁ܘܡܚܐ	-5475
▁ܘܡܛܝ	-5476
▁ܘܡܦܤ	-5477
▁ܘܡܬܢ	-5478
▁ܘܡܬܪ	-5479
▁ܘܢܚܐ	-5480
▁ܘܢܩܦ	-5481
▁ܘܢܬܠ	-5482
▁ܘܤܝܡ	-5483
▁ܘܥܐܠ	-5484
▁ܘܥܠܬ	-5485
▁ܘܥܡܐ	-5486
▁ܘܥܤܪ	-5487
▁ܘܨܠܝ	-5488
▁ܘܩܘܡ	-5489
▁ܘܪܝܫ	-5490
▁ܘܫܒܚ	-5491
▁ܘܫܘܪ	-5492
▁ܘܫܡܐ	-5493
▁ܘܫܡܗ	-5494
▁ܘܬܒܥ	-5495
▁ܘܬܚܐ	-5496
▁ܘܬܬܚ	-5497
▁ܙܛܡܐ	-5498
▁ܙܡܪܐ	-5499
▁ܙܩܘܦ	-5500
▁ܚܐܝܢ	-5501
▁ܚܕܝܬ	-5502
▁ܚܘܪܘ	-5503
▁ܚܙܝܐ	-5504
▁ܚܙܬܗ	-5505
▁ܚܟܡܐ	-5506
▁ܚܠܒܐ	-5507
▁ܚܨܝܟ	-5508
▁ܛܝܢܐ	-5509
▁ܛܥܝܐ	-5510
▁ܝܒܫܐ	-5511
▁ܝܒܫܬ	-5512
▁ܝܕܥܗ	-5513
▁ܝܗܒܗ	-5514
▁ܝܘܢܢ	-5515
▁ܝܠܝܕ	-5516
▁ܝܠܦܬ	-5517
▁ܟܐܒܐ	-5518
▁ܟܘܪܗ	-5519
▁ܟܝܤܐ	-5520
▁ܟܠܒܐ	-5521
▁ܟܢܫܘ	-5522
▁ܟܪܘܙ	-5523
▁ܠܐܠܝ	-5524
▁ܠܡܕܢ	-5525
▁ܠܡܚܙ	-5526
▁ܠܡܝܐ	-5527
▁ܠܡܤܬ	-5528
▁ܠܡܬܟ	-5529
▁ܠܫܘܥ	-5530
▁ܡܓܥܠ	-5531
▁ܡܚܘܢ	-5532
▁ܡܟܤܝ	-5533
▁ܡܠܟܗ	-5534
▁ܡܠܟܘ	-5535
▁ܡܠܟܝ	-5536
▁ܡܢܟܝ	-5537
▁ܡܢܤܐ	-5538
▁ܡܥܒܕ	-5539
▁ܡܥܗܕ	-5540
▁ܡܦܫܩ	-5541
▁ܡܩܪܒ	-5542
▁ܡܫܬܒ	-5543
▁ܡܬܬܟ	-5544
▁ܢܘܕܐ	-5545
▁ܢܚܛܐ	-5546
▁ܢܛܝܪ	-5547
▁ܢܝܩܪ	-5548
▁ܢܟܤܐ	-5549
▁ܢܤܓܐ	-5550
▁ܢܦܘܩ	-5551
▁ܢܦܬܚ	-5552
▁ܢܨܒܐ	-5553
▁ܢܩܪܐ	-5554
▁ܢܫܐܠ	-5555
▁ܢܫܒܚ	-5556
▁ܢܫܘܛ	-5557
▁ܢܫܪܐ	-5558
▁ܤܒܪܢ	-5559
▁ܤܝܓܐ	-5560
▁ܤܝܡܐ	-5561
▁ܤܢܝܢ	-5562
▁ܤܪܝܩ	-5563
▁ܤܬܘܐ	-5564
▁ܥܐܕܐ	-5565
▁ܥܒܪܘ	-5566
▁ܥܝܢܝ	-5567
▁ܥܪܘܩ	-5568
▁ܥܪܤܐ	-5569
▁ܥܪܤܗ	-5570
▁ܦܘܡܝ	-5571
▁ܦܠܓܘ	-5572
▁ܦܫܝܩ	-5573
▁ܨܠܡܐ	-5574
▁ܨܦܬܐ	-5575
▁ܩܕܡܬ	-5576
▁ܩܘܝܘ	-5577
▁ܩܨܝܐ	-5578
▁ܪܓܠܟ	-5579
▁ܪܕܦܘ	-5580
▁ܪܚܝܐ	-5581
▁ܪܡܝܐ	-5582
▁ܪܡܬܐ	-5583
▁ܪܥܡܐ	-5584
▁ܫܒܠܐ	-5585
▁ܫܒܩܬ	-5586
▁ܫܕܪܗ	-5587
▁ܫܘܩܐ	-5588
▁ܫܡܥܢ	-5589
▁ܫܬܝܢ	-5590
▁ܫܬܝܩ	-5591
▁ܬܐܒܕ	-5592
▁ܬܐܡܐ	-5593
▁ܬܤܗܕ	-5594
▁ܬܦܘܩ	-5595
▁ܬܪܥܗ	-5596
ܒܝܬܟܘܢ	-5597
ܒܥܘܢܢܝ	-5598
ܕܢܝܟܘܢ	-5599
ܕܪܝܘܗܝ	-5600
ܘܪܝܗܘܢ	-5601
ܙܕܘܩܝܐ	-5602
▁ܐܒܗܬܐ	-5603
▁ܐܓܝܪܐ	-5604
▁ܐܙܕܒܢ	-5605
▁ܐܙܕܗܪ	-5606
▁ܐܙܕܩܦ	-5607
▁ܐܙܕܪܥ	-5608
▁ܐܚܘܬܐ	-5609
▁ܐܝܕܝܢ	-5610
▁ܐܢܝܚܘ	-5611
▁ܐܢܢܩܐ	-5612
▁ܐܤܬܒܪ	-5613
▁ܐܥܡܕܬ	-5614
▁ܐܩܝܡܘ	-5615
▁ܐܪܝܡܘ	-5616
▁ܐܪܟܘܤ	-5617
▁ܐܪܡܝܬ	-5618
▁ܐܬܒܩܘ	-5619
▁ܐܬܒܪܝ	-5620
▁ܐܬܕܟܐ	-5621
▁ܐܬܚܝܠ	-5622
▁ܐܬܟܪܟ	-5623
▁ܐܬܢܒܝ	-5624
▁ܐܬܪܥܘ	-5625
▁ܒܐܤܝܐ	-5626
▁ܒܚܛܗܐ	-5627
▁ܒܛܒܬܐ	-5628
▁ܒܟܢܫܐ	-5629
▁ܒܤܬܪܗ	-5630
▁ܒܥܕܢܐ	-5631
▁ܒܥܘܠܐ	-5632
▁ܒܦܠܓܗ	-5633
▁ܒܨܒܝܢ	-5634
▁ܒܨܘܡܐ	-5635
▁ܒܨܝܪܐ	-5636
▁ܒܩܢܝܐ	-5637
▁ܒܪܡܫܐ	-5638
▁ܒܫܒܛܐ	-5639
▁ܓܙܪܝܢ	-5640
▁ܓܠܝܘܬ	-5641
▁ܕܐܒܗܝ	-5642
▁ܕܐܒܝܕ	-5643
▁ܕܐܚܒܢ	-5644
▁ܕܐܚܘܟ	-5645
▁ܕܐܡܝܪ	-5646
▁ܕܐܡܠܠ	-5647
▁ܕܐܤܝܪ	-5648
▁ܕܐܩܪܐ	-5649
▁ܕܐܪܙܐ	-5650
▁ܕܐܪܡܐ	-5651
▁ܕܐܬܩܪ	-5652
▁ܕܐܬܪܐ	-5653
▁ܕܒܡܕܡ	-5654
▁ܕܒܥܓܠ	-5655
▁ܕܒܪܘܚ	-5656
▁ܕܓܢܒܐ	-5657
▁ܕܚܐܝܢ	-5658
▁ܕܚܒܠܐ	-5659
▁ܕܚܡܪܐ	-5660
▁ܕܚܡܬܗ	-5661
▁ܕܛܒܬܐ	-5662
▁ܕܛܘܪܐ	-5663
▁ܕܛܠܝܐ	-5664
▁ܕܝܗܝܒ	-5665
▁ܕܝܘܤܦ	-5666
▁ܕܝܠܕܬ	-5667
▁ܕܝܬܒܐ	-5668
▁ܕܠܐܝܢ	-5669
▁ܕܠܫܢܐ	-5670
▁ܕܡܒܝܐ	-5671
▁ܕܡܚܒܠ	-5672
▁ܕܡܠܝܢ	-5673
▁ܕܡܠܠܬ	-5674
▁ܕܡܫܡܫ	-5675
▁ܕܢܕܒܪ	-5676
▁ܕܢܚܘܢ	-5677
▁ܕܢܟܪܙ	-5678
▁ܕܢܠܒܫ	-5679
▁ܕܢܦܩܘ	-5680
▁ܕܢܦܩܬ	-5681
▁ܕܢܩܘܡ	-5682
▁ܕܢܩܛܠ	-5683
▁ܕܢܫܡܫ	-5684
▁ܕܤܕܘܡ	-5685
▁ܕܤܠܩܘ	-5686
▁ܕܤܡܝܟ	-5687
▁ܕܤܢܝܩ	-5688
▁ܕܥܒܕܗ	-5689
▁ܕܥܒܕܢ	-5690
▁ܕܥܒܝܕ	-5691
▁ܕܥܕܡܐ	-5692
▁ܕܨܒܝܐ	-5693
▁ܕܪܘܚܗ	-5694
▁ܕܪܚܡܐ	-5695
▁ܕܪܡܝܢ	-5696
▁ܕܪܫܝܢ	-5697
▁ܕܫܘܝܢ	-5698
▁ܕܫܠܝܛ	-5699
▁ܕܫܡܫܐ	-5700
▁ܕܫܥܬܐ	-5701
▁ܕܫܬܝܢ	-5702
▁ܕܬܐܠܕ	-5703
▁ܕܬܐܡܪ	-5704
▁ܗܝܟܠܗ	-5705
▁ܗܝܡܢܢ	-5706
▁ܘܐܗܘܐ	-5707
▁ܘܐܝܬܐ	-5708
▁ܘܐܠܗܗ	-5709
▁ܘܐܠܦܘ	-5710
▁ܘܐܤܝܗ	-5711
▁ܘܐܤܝܪ	-5712
▁ܘܐܤܪܗ	-5713
▁ܘܐܬܝܐ	-5714
▁ܘܒܚܕܐ	-5715
▁ܘܒܝܫܐ	-5716
▁ܘܒܝܬܗ	-5717
▁ܘܒܤܪܐ	-5718
▁ܘܒܥܝܐ	-5719
▁ܘܒܪܘܚ	-5720
▁ܘܒܬܪܗ	-5721
▁ܘܕܒܪܗ	-5722
▁ܘܕܙܟܐ	-5723
▁ܘܕܚܫܐ	-5724
▁ܘܕܠܝܬ	-5725
▁ܘܗܦܟܬ	-5726
▁ܘܚܕܝܘ	-5727
▁ܘܚܙܬܗ	-5728
▁ܘܚܡܪܐ	-5729
▁ܘܝܕܥܢ	-5730
▁ܘܝܗܒܢ	-5731
▁ܘܟܠܬܐ	-5732
▁ܘܠܗܘܢ	-5733
▁ܘܠܡܢܐ	-5734
▁ܘܡܐܟܠ	-5735
▁ܘܡܐܢܐ	-5736
▁ܘܡܐܤܐ	-5737
▁ܘܡܝܬܘ	-5738
▁ܘܡܟܝܠ	-5739
▁ܘܡܠܠܘ	-5740
▁ܘܡܤܟܐ	-5741
▁ܘܡܥܕܪ	-5742
▁ܘܡܨܠܐ	-5743
▁ܘܡܫܒܚ	-5744
▁ܘܡܫܠܡ	-5745
▁ܘܢܘܕܐ	-5746
▁ܘܢܚܝܒ	-5747
▁ܘܢܚܬܘ	-5748
▁ܘܢܤܒܬ	-5749
▁ܘܢܫܩܗ	-5750
▁ܘܦܓܪܐ	-5751
▁ܘܦܠܚܐ	-5752
▁ܘܦܩܕܘ	-5753
▁ܘܩܪܒܬ	-5754
▁ܘܪܗܛܘ	-5755
▁ܘܫܒܩܘ	-5756
▁ܘܫܕܪܗ	-5757
▁ܘܫܡܝܐ	-5758
▁ܘܫܪܟܐ	-5759
▁ܘܬܡܗܘ	-5760
▁ܘܬܥܒܕ	-5761
▁ܘܬܫܥܐ	-5762
▁ܙܢܝܬܐ	-5763
▁ܙܥܘܪܝ	-5764
▁ܙܪܘܥܐ	-5765
▁ܚܐܪܬܐ	-5766
▁ܚܒܝܒܢ	-5767
▁ܚܓܝܪܐ	-5768
▁ܚܕܝܢܢ	-5769
▁ܚܘܘܬܐ	-5770
▁ܚܘܤܝܐ	-5771
▁ܚܙܝܢܟ	-5772
▁ܚܛܘܦܐ	-5773
▁ܛܘܠܫܐ	-5774
▁ܛܘܦܢܐ	-5775
▁ܝܘܩܪܐ	-5776
▁ܝܨܦܝܢ	-5777
▁ܝܩܝܪܐ	-5778
▁ܟܦܪܝܢ	-5779
▁ܠܒܘܬܢ	-5780
▁ܠܒܤܪܐ	-5781
▁ܠܕܘܝܕ	-5782
▁ܠܚܡܪܐ	-5783
▁ܠܝܘܦܐ	-5784
▁ܠܠܥܙܪ	-5785
▁ܠܡܕܒܪ	-5786
▁ܠܡܚܤܢ	-5787
▁ܠܡܠܥܤ	-5788
▁ܠܡܡܚܐ	-5789
▁ܠܡܥܪܩ	-5790
▁ܠܡܦܩܘ	-5791
▁ܠܡܫܒܩ	-5792
▁ܠܡܫܠܡ	-5793
▁ܠܢܦܫܟ	-5794
▁ܠܢܨܪܬ	-5795
▁ܠܤܒܪܐ	-5796
▁ܠܤܛܝܐ	-5797
▁ܠܥܕܬܗ	-5798
▁ܠܦܓܪܐ	-5799
▁ܠܫܪܪܐ	-5800
▁ܠܬܪܥܐ	-5801
▁ܡܐܬܝܢ	-5802
▁ܡܓܕܠܐ	-5803
▁ܡܘܡܬܐ	-5804
▁ܡܚܘܝܐ	-5805
▁ܡܚܘܝܢ	-5806
▁ܡܚܘܬܗ	-5807
▁ܡܛܥܝܢ	-5808
▁ܡܛܪܬܐ	-5809
▁ܡܝܬܪܐ	-5810
▁ܡܠܟܝܗ	-5811
▁ܡܠܟܬܐ	-5812
▁ܡܤܬܟܠ	-5813
▁ܡܥܪܒܐ	-5814
▁ܡܥܪܬܐ	-5815
▁ܡܦܤܝܢ	-5816
▁ܡܨܠܝܢ	-5817
▁ܡܪܝܡܐ	-5818
▁ܡܪܟܘܢ	-5819
▁ܡܫܚܠܦ	-5820
▁ܡܫܬܒܩ	-5821
▁ܡܫܬܟܚ	-5822
▁ܡܫܬܢܩ	-5823
▁ܡܬܕܡܪ	-5824
▁ܡܬܗܦܟ	-5825
▁ܡܬܚܫܒ	-5826
▁ܡܬܝܕܥ	-5827
▁ܡܬܟܪܟ	-5828
▁ܡܬܢܛܪ	-5829
▁ܡܬܢܤܐ	-5830
▁ܡܬܦܠܓ	-5831
▁ܢܐܚܘܕ	-5832
▁ܢܚܕܘܢ	-5833
▁ܢܤܒܘܗ	-5834
▁ܢܦܪܘܥ	-5835
▁ܢܨܝܚܐ	-5836
▁ܢܩܘܘܢ	-5837
▁ܢܬܗܦܟ	-5838
▁ܤܓܕܝܢ	-5839
▁ܤܝܡܘܢ	-5840
▁ܤܡܟܝܢ	-5841
▁ܤܥܪܝܢ	-5842
▁ܥܐܠܝܢ	-5843
▁ܥܒܪܝܐ	-5844
▁ܥܘܡܩܐ	-5845
▁ܥܠܘܒܐ	-5846
▁ܥܡܕܝܢ	-5847
▁ܥܡܘܕܐ	-5848
▁ܥܪܘܩܘ	-5849
▁ܦܓܪܢܐ	-5850
▁ܦܪܕܬܐ	-5851
▁ܦܪܘܩܐ	-5852
▁ܦܬܝܚܐ	-5853
▁ܩܕܡܝܢ	-5854
▁ܩܘܪܒܢ	-5855
▁ܩܛܝܪܐ	-5856
▁ܩܝܡܬܗ	-5857
▁ܩܢܝܢܐ	-5858
▁ܩܪܝܒܐ	-5859
▁ܩܪܢܬܐ	-5860
▁ܩܫܝܘܬ	-5861
▁ܪܘܚܝܢ	-5862
▁ܫܒܥܝܢ	-5863
▁ܫܒܩܬܗ	-5864
▁ܫܕܪܢܝ	-5865
▁ܫܘܪܝܗ	-5866
▁ܫܡܘܢܐ	-5867
▁ܬܐܘܡܐ	-5868
▁ܬܒܥܬܐ	-5869
▁ܬܓܢܘܒ	-5870
▁ܬܘܠܡܝ	-5871
▁ܬܘܠܬܐ	-5872
▁ܬܚܕܘܢ	-5873
▁ܬܤܓܘܕ	-5874
▁ܬܩܘܘܢ	-5875
▁ܬܫܒܘܚ	-5876
▁ܬܫܥܝܢ	-5877
▁ܬܫܬܘܢ	-5878
▁ܬܬܠܘܢ	-5879
▁ܬܬܡܠܚ	-5880
ܕܝܢܬܗܘܢ	-5881
ܤܠܘܢܝܩܐ	-5882
ܩܛܠܝܘܗܝ	-5883
▁ܐܓܪܗܘܢ	-5884
▁ܐܚܝܬܟܝ	-5885
▁ܐܦܩܘܗܝ	-5886
▁ܐܪܓܘܢܐ	-5887
▁ܐܫܬܕܪܬ	-5888
▁ܐܫܬܘܕܥ	-5889
▁ܐܫܬܪܪܬ	-5890
▁ܐܬܓܠܝܬ	-5891
▁ܐܬܕܡܪܘ	-5892
▁ܒܐܓܪܬܐ	-5893
▁ܒܐܝܕܝܐ	-5894
▁ܒܐܝܕܝܢ	-5895
▁ܒܐܬܘܬܐ	-5896
▁ܒܓܠܝܢܗ	-5897
▁ܒܚܨܘܗܝ	-5898
▁ܒܛܘܫܝܐ	-5899
▁ܒܝܫܐܝܬ	-5900
▁ܒܝܫܘܬܐ	-5901
▁ܒܡܢܝܢܐ	-5902
▁ܒܢܝܗܘܢ	-5903
▁ܒܨܠܘܬܝ	-5904
▁ܒܩܪܝܢܐ	-5905
▁ܒܩܪܝܬܐ	-5906
▁ܒܪܒܪܝܐ	-5907
▁ܒܪܥܝܢܗ	-5908
▁ܒܫܫܠܬܐ	-5909
▁ܓܡܝܪܝܢ	-5910
▁ܕܐܗܪܘܢ	-5911
▁ܕܐܚܪܢܐ	-5912
▁ܕܐܟܕܢܐ	-5913
▁ܕܐܪܒܥܐ	-5914
▁ܕܐܫܠܡܬ	-5915
▁ܕܐܫܥܝܐ	-5916
▁ܕܐܫܬܠܡ	-5917
▁ܕܐܬܦܩܕ	-5918
▁ܕܒܙܒܢܐ	-5919
▁ܕܓܕܪܝܐ	-5920
▁ܕܓܠܘܬܐ	-5921
▁ܕܕܚܠܬܐ	-5922
▁ܕܚܙܝܪܐ	-5923
▁ܕܚܝܠܬܢ	-5924
▁ܕܚܟܝܡܐ	-5925
▁ܕܛܠܝܬܐ	-5926
▁ܕܝܒܝܫܐ	-5927
▁ܕܝܕܥܬܗ	-5928
▁ܕܠܘܩܒܠ	-5929
▁ܕܡܝܬܪܐ	-5930
▁ܕܡܬܐܡܪ	-5931
▁ܕܡܬܪܥܐ	-5932
▁ܕܢܗܝܡܢ	-5933
▁ܕܢܙܕܩܦ	-5934
▁ܕܢܟܦܘܪ	-5935
▁ܕܢܤܝܒܪ	-5936
▁ܕܢܩܘܘܢ	-5937
▁ܕܢܩܛܘܠ	-5938
▁ܕܢܫܒܘܩ	-5939
▁ܕܢܬܝܗܒ	-5940
▁ܕܤܒܪܝܢ	-5941
▁ܕܤܓܕܝܢ	-5942
▁ܕܥܘܬܪܐ	-5943
▁ܕܥܠܘܗܝ	-5944
▁ܕܥܡܗܘܢ	-5945
▁ܕܨܒܝܢܗ	-5946
▁ܕܩܪܝܒܢ	-5947
▁ܕܩܫܝܫܐ	-5948
▁ܕܫܪܒܬܐ	-5949
▁ܕܬܚܒܘܢ	-5950
▁ܕܬܝܡܢܐ	-5951
▁ܕܬܠܬܝܢ	-5952
▁ܕܬܬܡܠܐ	-5953
▁ܗܠܠܘܝܐ	-5954
▁ܗܪܘܕܝܐ	-5955
▁ܘܐܘܪܚܐ	-5956
▁ܘܐܟܠܝܢ	-5957
▁ܘܐܟܠܬܗ	-5958
▁ܘܐܟܪܙܘ	-5959
▁ܘܐܪܝܡܘ	-5960
▁ܘܐܫܬܡܥ	-5961
▁ܘܐܫܬܥܝ	-5962
▁ܘܐܬܚܝܠ	-5963
▁ܘܒܗܠܝܢ	-5964
▁ܘܒܫܪܪܐ	-5965
▁ܘܒܬܪܟܢ	-5966
▁ܘܓܘܕܦܐ	-5967
▁ܘܕܨܝܕܢ	-5968
▁ܘܕܬܪܝܢ	-5969
▁ܘܚܙܝܗܝ	-5970
▁ܘܟܘܟܒܐ	-5971
▁ܘܟܠܗܝܢ	-5972
▁ܘܠܐܝܟܐ	-5973
▁ܘܠܐܝܢܐ	-5974
▁ܘܠܐܠܗܐ	-5975
▁ܘܠܐܡܪܐ	-5976
▁ܘܠܝܫܘܥ	-5977
▁ܘܠܡܫܪܐ	-5978
▁ܘܡܬܟܪܟ	-5979
▁ܘܡܬܩܪܐ	-5980
▁ܘܢܐܚܘܕ	-5981
▁ܘܢܘܗܪܐ	-5982
▁ܘܢܡܘܤܐ	-5983
▁ܘܢܫܩܘܠ	-5984
▁ܘܢܬܝܗܒ	-5985
▁ܘܥܠܘܗܝ	-5986
▁ܘܩܝܡܝܢ	-5987
▁ܘܩܪܝܒܐ	-5988
▁ܘܪܚܡܝܢ	-5989
▁ܘܫܐܠܝܢ	-5990
▁ܙܒܘܪܝܢ	-5991
▁ܚܕܪܘܗܝ	-5992
▁ܚܙܝܬܘܢ	-5993
▁ܚܟܝܡܝܢ	-5994
▁ܚܫܡܝܬܐ	-5995
▁ܛܒܥܘܗܝ	-5996
▁ܛܛܪܪܟܐ	-5997
▁ܛܠܝܘܬܝ	-5998
▁ܝܗܒܝܢܢ	-5999
▁ܝܘܠܦܢܗ	-6000
▁ܝܬܝܪܬܐ	-6001
▁ܟܘܟܒܝܢ	-6002
▁ܟܢܫܗܘܢ	-6003
▁ܟܪܝܘܬܐ	-6004
▁ܠܐܝܤܚܩ	-6005
▁ܠܐܝܩܪܐ	-6006
▁ܠܐܤܘܪܐ	-6007
▁ܠܒܝܫܝܢ	-6008
▁ܠܒܝܫܬܐ	-6009
▁ܠܒܢܝܢܐ	-6010
▁ܠܝܗܘܕܐ	-6011
▁ܠܡܐܤܝܘ	-6012
▁ܠܡܚܘܝܘ	-6013
▁ܠܤܒܪܬܗ	-6014
▁ܠܩܕܡܝܐ	-6015
▁ܠܫܘܒܚܐ	-6016
▁ܠܫܪܒܬܐ	-6017
▁ܡܚܒܠܝܢ	-6018
▁ܡܛܝܒܝܢ	-6019
▁ܡܟܝܟܬܐ	-6020
▁ܡܤܟܢܬܐ	-6021
▁ܡܤܪܗܒܐ	-6022
▁ܡܨܝܕܬܐ	-6023
▁ܡܩܪܒܝܢ	-6024
▁ܡܪܕܘܬܐ	-6025
▁ܡܪܚܡܢܐ	-6026
▁ܡܫܪܝܬܐ	-6027
▁ܡܫܪܪܝܢ	-6028
▁ܡܬܬܙܝܥ	-6029
▁ܢܐܙܠܘܢ	-6030
▁ܢܗܦܟܘܢ	-6031
▁ܢܛܥܡܘܢ	-6032
▁ܢܤܓܕܘܢ	-6033
▁ܢܤܝܘܢܐ	-6034
▁ܢܥܪܩܘܢ	-6035
▁ܢܩܝܦܝܢ	-6036
▁ܢܫܩܠܘܢ	-6037
▁ܢܬܬܪܝܡ	-6038
▁ܤܗܕܘܗܝ	-6039
▁ܤܘܥܪܢܐ	-6040
▁ܤܢܝܐܝܢ	-6041
▁ܤܢܝܩܝܢ	-6042
▁ܥܒܕܝܢܢ	-6043
▁ܥܡܘܪܝܗ	-6044
▁ܦܘܠܚܢܐ	-6045
▁ܦܘܩܕܢܝ	-6046
▁ܦܘܪܥܢܐ	-6047
▁ܦܘܪܫܢܐ	-6048
▁ܦܤܘܩܝܗ	-6049
▁ܦܪܗܤܝܐ	-6050
▁ܦܪܨܘܦܐ	-6051
▁ܦܪܨܘܦܟ	-6052
▁ܩܒܠܬܘܢ	-6053
▁ܩܘܦܪܘܤ	-6054
▁ܪܫܝܗܘܢ	-6055
▁ܫܒܝܩܝܢ	-6056
▁ܫܒܩܬܢܝ	-6057
▁ܫܕܪܬܘܢ	-6058
▁ܫܛܝܘܬܐ	-6059
▁ܫܛܝܦܬܐ	-6060
▁ܫܝܦܘܪܐ	-6061
▁ܫܠܡܟܘܢ	-6062
▁ܬܐܙܠܘܢ	-6063
▁ܬܡܝܗܝܢ	-6064
▁ܬܤܒܪܘܢ	-6065
▁ܬܩܘܡܘܢ	-6066
▁ܬܫܐܠܘܢ	-6067
ܙܩܦܘܢܝܗܝ	-6068
ܠܟܤܢܕܪܘܤ	-6069
▁ܐܘܪܩܥܬܐ	-6070
▁ܐܚܙܝܟܘܢ	-6071
▁ܐܫܟܚܘܗܝ	-6072
▁ܐܫܬܘܕܥܘ	-6073
▁ܐܫܬܥܒܕܘ	-6074
▁ܒܐܬܪܘܬܐ	-6075
▁ܒܓܙܘܪܬܐ	-6076
▁ܒܚܤܝܪܘܬ	-6077
▁ܒܡܘܠܟܢܐ	-6078
▁ܒܤܓܝܐܬܐ	-6079
▁ܒܪܚܡܘܗܝ	-6080
▁ܒܬܘܕܝܬܐ	-6081
▁ܓܡܝܪܐܝܬ	-6082
▁ܕܐܟܤܢܝܐ	-6083
▁ܕܐܤܝܘܬܐ	-6084
▁ܕܐܪܝܘܬܐ	-6085
▁ܕܐܫܬܘܕܝ	-6086
▁ܕܐܬܗܝܡܢ	-6087
▁ܕܒܟܠܗܝܢ	-6088
▁ܕܒܢܝܡܝܢ	-6089
▁ܕܕܡܫܝܚܐ	-6090
▁ܕܙܢܝܘܬܗ	-6091
▁ܕܚܪܬܗܘܢ	-6092
▁ܕܝܕܥܝܢܢ	-6093
▁ܕܝܘܠܦܢܐ	-6094
▁ܕܝܚܝܕܝܐ	-6095
▁ܕܝܠܦܬܘܢ	-6096
▁ܕܠܐܝܠܝܢ	-6097
▁ܕܡܗܠܟܝܢ	-6098
▁ܕܡܤܢܘܗܝ	-6099
▁ܕܡܬܩܪܝܢ	-6100
▁ܕܢܐܟܠܘܢ	-6101
▁ܕܢܗܦܟܘܢ	-6102
▁ܕܢܥܒܕܘܢ	-6103
▁ܕܢܬܚܙܘܢ	-6104
▁ܕܤܗܕܘܬܐ	-6105
▁ܕܫܐܠܝܢܢ	-6106
▁ܕܫܒܝܩܝܢ	-6107
▁ܕܬܐܡܪܘܢ	-6108
▁ܕܬܗܠܟܘܢ	-6109
▁ܕܬܝܒܘܬܐ	-6110
▁ܕܬܫܟܚܘܢ	-6111
▁ܗܕܡܝܟܘܢ	-6112
▁ܘܐܘܚܕܢܐ	-6113
▁ܘܐܬܚܙܝܘ	-6114
▁ܘܐܬܡܠܝܘ	-6115
▁ܘܒܐܟܐܝܐ	-6116
▁ܘܒܨܠܘܬܐ	-6117
▁ܘܒܩܘܪܝܐ	-6118
▁ܘܒܪܬܝܬܐ	-6119
▁ܘܚܝܠܘܬܐ	-6120
▁ܘܠܐܚܘܗܝ	-6121
▁ܘܠܤܓܝܐܐ	-6122
▁ܘܡܙܒܢܝܢ	-6123
▁ܘܡܤܒܪܝܢ	-6124
▁ܘܡܩܒܠܝܢ	-6125
▁ܘܢܐܙܠܘܢ	-6126
▁ܘܢܫܡܥܘܢ	-6127
▁ܘܢܬܦܢܘܢ	-6128
▁ܘܫܕܪܘܗܝ	-6129
▁ܘܬܪܝܗܘܢ	-6130
▁ܘܬܫܡܫܬܐ	-6131
▁ܙܩܘܦܝܗܝ	-6132
▁ܚܦܝܛܘܬܐ	-6133
▁ܟܘܪܤܘܬܐ	-6134
▁ܟܘܬܝܢܝܢ	-6135
▁ܠܡܕܝܢܬܗ	-6136
▁ܠܡܨܝܕܬܐ	-6137
▁ܠܡܫܬܘܬܐ	-6138
▁ܠܥܢܝܗܘܢ	-6139
▁ܠܪܓܝܓܬܐ	-6140
▁ܠܫܘܒܩܢܐ	-6141
▁ܠܬܚܘܝܬܐ	-6142
▁ܡܗܝܡܢܬܐ	-6143
▁ܡܟܪܙܝܢܢ	-6144
▁ܡܪܓܢܝܬܐ	-6145
▁ܡܫܬܥܒܕܐ	-6146
▁ܤܝܒܪܬܘܢ	-6147
▁ܥܬܝܪܐܝܬ	-6148
▁ܨܠܘܒܝܗܝ	-6149
▁ܪܓܠܝܟܘܢ	-6150
▁ܫܠܗܒܝܬܐ	-6151
▁ܫܩܘܠܝܗܝ	-6152
▁ܬܐܓܘܪܬܐ	-6153
▁ܬܐܪܬܗܘܢ	-6154
▁ܬܪܬܝܗܝܢ	-6155
▁ܬܬܕܡܪܘܢ	-6156
▁ܐܤܦܪܝܕܝܢ	-6157
▁ܐܩܝܡܝܘܗܝ	-6158
▁ܒܒܥܠܙܒܘܒ	-6159
▁ܒܘܪܟܝܗܘܢ	-6160
▁ܒܚܦܝܛܘܬܐ	-6161
▁ܒܟܦܪܢܚܘܡ	-6162
▁ܒܠܒܘܬܟܘܢ	-6163
▁ܒܡܕܥܝܗܘܢ	-6164
▁ܒܥܝܢܝܗܘܢ	-6165
▁ܒܩܕܝܫܘܬܐ	-6166
▁ܒܩܘܪܢܬܘܤ	-6167
▁ܕܐܝܤܪܐܝܠ	-6168
▁ܕܐܝܬܝܟܘܢ	-6169
▁ܕܙܓܘܓܝܬܐ	-6170
▁ܕܙܚܘܪܝܬܐ	-6171
▁ܕܚܕܪܝܗܘܢ	-6172
▁ܕܠܒܢܝܢܫܐ	-6173
▁ܕܡܬܟܢܫܝܢ	-6174
▁ܕܬܗܝܡܢܘܢ	-6175
▁ܘܐܝܬܝܗܘܢ	-6176
▁ܘܐܠܒܫܘܗܝ	-6177
▁ܘܒܝܘܠܦܢܐ	-6178
▁ܛܝܒܘܬܟܘܢ	-6179
▁ܠܐܢܛܝܟܝܐ	-6180
▁ܠܒܥܠܝܗܝܢ	-6181
▁ܠܘܩܒܠܗܘܢ	-6182
▁ܠܚܒܪܝܗܘܢ	-6183
▁ܠܡܦܕܝܗܝܢ	-6184
▁ܠܬܫܒܘܚܬܗ	-6185
▁ܤܟܠܘܬܟܘܢ	-6186
▁ܬܚܙܘܢܝܗܝ	-6187
▁ܕܢܩܝܡܝܘܗܝ	-6188
▁ܘܡܥܡܘܕܝܬܐ	-6189
▁ܗܝܡܢܬܘܢܝܗܝ	-6190
▁ܘܡܤܝܒܪܢܘܬܐ	-6191
▁ܡܬܛܦܝܤܢܘܬܐ	-6192
ܙܗ	-6193
ܟܦ	-6194
ܤܛ	-6195
ܨܬ	-6196
ܒܕܩ	-6197
ܒܘܙ	-6198
ܓܕܬ	-6199
ܫܟ	-6200
ܬܦ	-6201
ܓܝܗ	-6202
ܓܫܐ	-6203
ܕܝܤ	-6204
ܕܠܘ	-6205
ܕܫܐ	-6206
ܗܒܬ	-6207
ܗܪܘ	-6208
ܘܕܪ	-6209
ܘܘܢ	-6210
ܘܠܥ	-6211
ܚܝܐ	-6212
ܛܘܛ	-6213
ܛܥܐ	-6214
ܝܡܝ	-6215
ܟܝܡ	-6216
ܟܠܢ	-6217
ܟܤܐ	-6218
ܟܬܗ	-6219
ܠܚܐ	-6220
ܦܝܡ	-6221
ܦܫܐ	-6222
ܨܠܐ	-6223
ܨܡܐ	-6224
ܪܐܐ	-6225
ܪܘܫ	-6226
ܪܤܗ	-6227
ܫܬܗ	-6228
ܬܒܘ	-6229
▁ܚܢ	-6230
▁ܢܗ	-6231
▁ܦܟ	-6232
▁ܨܦ	-6233
▁ܫܝ	-6234
▁ܬܗ	-6235
ܒܟܘܢ	-6236
ܒܩܘܢ	-6237
ܓܪܘܢ	-6238
ܓܪܝܢ	-6239
ܕܒܪܢ	-6240
ܕܝܘܢ	-6241
ܕܝܤܐ	-6242
ܕܟܝܘ	-6243
ܕܟܝܢ	-6244
ܕܬܘܢ	-6245
ܘܒܝܕ	-6246
ܘܚܡܐ	-6247
ܘܡܝܐ	-6248
ܘܢܝܐ	-6249
ܘܤܦܘ	-6250
ܘܤܦܢ	-6251
ܚܘܢܗ	-6252
ܚܘܬܗ	-6253
ܛܝܘܤ	-6254
ܛܝܢܐ	-6255
ܛܝܢܢ	-6256
ܛܢܝܢ	-6257
ܛܩܘܤ	-6258
ܝܘܬܗ	-6259
ܝܩܝܐ	-6260
ܝܬܝܢ	-6261
ܟܠܬܐ	-6262
ܟܡܬܗ	-6263
ܠܝܘܢ	-6264
ܡܗܝܢ	-6265
ܡܟܟܘ	-6266
ܡܬܘܢ	-6267
ܥܘܗܝ	-6268
ܥܝܢܝ	-6269
ܦܐܝܬ	-6270
ܦܝܢܢ	-6271
ܦܢܝܢ	-6272
ܦܨܝܘ	-6273
ܦܪܘܢ	-6274
ܦܪܝܐ	-6275
ܦܪܢܐ	-6276
ܦܫܩܐ	-6277
ܩܘܝܐ	-6278
ܩܢܘܢ	-6279
ܩܢܝܢ	-6280
ܩܦܝܢ	-6281
ܪܛܠܝ	-6282
ܫܘܥܐ	-6283
ܫܚܬܐ	-6284
ܫܠܘܢ	-6285
ܬܐܤܐ	-6286
ܬܪܓܡ	-6287
▁ܐܘܒ	-6288
▁ܐܘܩ	-6289
▁ܐܘܬ	-6290
▁ܒܐܚ	-6291
▁ܒܐܫ	-6292
▁ܒܕܐ	-6293
▁ܒܪܒ	-6294
▁ܕܕܢ	-6295
▁ܕܠܟ	-6296
▁ܕܢܒ	-6297
▁ܕܢܓ	-6298
▁ܕܤܠ	-6299
ܗܬ	-6300
ܦܥ	-6301
ܕܝܬ	-6302
ܘܩܕ	-6303
ܠܘܡ	-6304
▁ܡܝ	-6305
ܕܝܩܘ	-6306
ܘܢܢܝ	-6307
ܘܢܩܐ	-6308
ܛܠܘܤ	-6309
ܠܡܝܢ	-6310
ܡܠܝܬ	-6311
ܪܝܗܘ	-6312
ܫܘܫܐ	-6313
ܫܬܐܠ	-6314
▁ܓܒܗ	-6315
▁ܕܐܘ	-6316
▁ܕܚܘ	-6317
▁ܕܢܘ	-6318
▁ܕܪܐ	-6319
▁ܘܐܘ	-6320
▁ܘܕܒ	-6321
▁ܘܛܫ	-6322
▁ܘܟܘ	-6323
▁ܘܠܠ	-6324
▁ܘܦܐ	-6325
▁ܘܩܛ	-6326
▁ܘܫܚ	-6327
▁ܘܬܒ	-6328
▁ܘܬܗ	-6329
▁ܚܒܫ	-6330
▁ܚܘܬ	-6331
▁ܚܡܐ	-6332
▁ܟܝܢ	-6333
▁ܠܒܘ	-6334
▁ܠܠܘ	-6335
▁ܠܪܒ	-6336
▁ܢܢܗ	-6337
▁ܢܦܪ	-6338
▁ܤܒܐ	-6339
▁ܤܦܪ	-6340
▁ܥܘܬ	-6341
▁ܥܡܠ	-6342
▁ܦܘܫ	-6343
▁ܦܩܘ	-6344
▁ܪܐܓ	-6345
▁ܪܕܝ	-6346
▁ܪܗܒ	-6347
▁ܫܘܡ	-6348
▁ܫܠܐ	-6349
▁ܫܠܚ	-6350
▁ܬܘܩ	-6351
▁ܬܘܬ	-6352
ܒܕܪܘܢ	-6353
ܒܗܪܘܢ	-6354
ܒܘܠܘܢ	-6355
ܒܝܫܬܐ	-6356
ܒܥܘܬܐ	-6357
ܓܙܪܘܢ	-6358
ܓܝܓܬܗ	-6359
ܓܡܘܗܝ	-6360
ܕܝܘܬܐ	-6361
ܗܝܒܝܢ	-6362
ܘܡܟܘܢ	-6363
ܘܤܝܘܤ	-6364
ܘܤܦܘܢ	-6365
ܘܩܕܢܗ	-6366
ܘܪܒܒܠ	-6367
ܘܬܪܢܐ	-6368
ܚܙܝܬܐ	-6369
ܚܝܬܘܢ	-6370
ܛܝܦܝܢ	-6371
ܛܪܓܝܢ	-6372
ܛܪܟܘܤ	-6373
ܛܪܤܘܤ	-6374
ܝܠܘܚܐ	-6375
ܝܢܝܬܐ	-6376
ܝܩܢܘܢ	-6377
ܟܢܫܘܢ	-6378
ܠܝܬܘܢ	-6379
ܠܨܝܢܢ	-6380
ܠܬܐܝܠ	-6381
ܡܘܪܝܗ	-6382
ܤܝܒܪܢ	-6383
ܤܪܘܢܗ	-6384
ܥܢܘܬܐ	-6385
ܦܘܠܝܤ	-6386
ܦܝܟܘܢ	-6387
ܦܪܫܝܢ	-6388
ܨܝܟܘܢ	-6389
ܩܦܚܝܢ	-6390
ܪܟܘܢܐ	-6391
ܪܤܗܘܢ	-6392
ܫܝܘܗܝ	-6393
ܫܡܫܘܢ	-6394
ܬܒܘܢܐ	-6395
ܬܢܝܚܘ	-6396
ܬܥܤܪܐ	-6397
ܬܪܬܘܢ	-6398
▁ܐܒܕܢ	-6399
ܙܙ	-6400
ܨܒ	-6401
ܒܕܪ	-6402
ܒܠܢ	-6403
ܕܥܐ	-6404
ܗܛܐ	-6405
ܚܠܬ	-6406
ܝܒܢ	-6407
ܟܝܐ	-6408
ܢܝܟ	-6409
ܪܡܘ	-6410
▁ܝܐ	-6411
ܓܠܬܐ	-6412
ܗܠܟܘ	-6413
ܘܕܪܐ	-6414
ܘܩܤܐ	-6415
ܪܝܝܢ	-6416
ܬܢܘܤ	-6417
▁ܐܝܘ	-6418
▁ܓܒܝ	-6419
▁ܕܤܐ	-6420
▁ܕܩܐ	-6421
▁ܘܕܘ	-6422
▁ܘܟܤ	-6423
▁ܘܡܩ	-6424
▁ܚܪܡ	-6425
▁ܚܬܗ	-6426
▁ܛܒܗ	-6427
▁ܛܘܪ	-6428
▁ܠܚܙ	-6429
▁ܡܘܠ	-6430
▁ܢܬܢ	-6431
▁ܥܩܐ	-6432
▁ܫܒܐ	-6433
▁ܫܘܪ	-6434
ܢܫܗܘܢ	-6435
▁ܐܒܘܟ	-6436
▁ܐܕܪܟ	-6437
▁ܐܕܫܐ	-6438
▁ܐܘܪܚ	-6439
▁ܐܙܠܓ	-6440
▁ܐܚܘܗ	-6441
▁ܐܚܙܐ	-6442
▁ܐܟܚܕ	-6443
▁ܐܡܪܗ	-6444
▁ܐܤܗܕ	-6445
▁ܐܤܪܐ	-6446
▁ܐܥܝܪ	-6447
▁ܐܥܦܐ	-6448
▁ܐܦܩܗ	-6449
▁ܐܪܡܝ	-6450
▁ܐܬܒܤ	-6451
▁ܐܬܢܐ	-6452
▁ܒܐܦܝ	-6453
▁ܒܕܝܢ	-6454
▁ܒܗܕܡ	-6455
▁ܒܗܠܘ	-6456
▁ܒܚܫܐ	-6457
▁ܒܛܠܐ	-6458
▁ܒܠܒܟ	-6459
▁ܒܠܘܕ	-6460
▁ܒܡܐܐ	-6461
▁ܒܡܘܟ	-6462
▁ܒܪܟܘ	-6463
▁ܒܪܫܗ	-6464
▁ܒܪܬܐ	-6465
▁ܓܠܠܐ	-6466
▁ܓܡܝܪ	-6467
▁ܓܢܤܐ	-6468
▁ܓܪܒܗ	-6469
▁ܕܐܕܥ	-6470
▁ܕܐܘܪ	-6471
▁ܕܐܤܛ	-6472
▁ܕܐܩܦ	-6473
▁ܕܐܪܡ	-6474
▁ܕܐܫܘ	-6475
▁ܕܒܕܡ	-6476
▁ܕܒܗܘ	-6477
▁ܕܒܪܝ	-6478
▁ܕܒܬܐ	-6479
▁ܕܓܠܝ	-6480
▁ܕܗܦܟ	-6481
▁ܕܗܪܘ	-6482
▁ܕܙܟܐ	-6483
▁ܕܝܢܝ	-6484
▁ܕܝܢܟ	-6485
▁ܕܝܪܬ	-6486
▁ܕܟܠܢ	-6487
▁ܕܠܒܪ	-6488
▁ܕܠܚܕ	-6489
▁ܕܠܡܢ	-6490
▁ܕܡܕܪ	-6491
▁ܕܡܪܐ	-6492
▁ܕܢܩܦ	-6493
▁ܕܥܠܘ	-6494
▁ܕܥܡܢ	-6495
▁ܕܥܢܐ	-6496
▁ܕܨܒܥ	-6497
▁ܕܬܕܥ	-6498
▁ܕܬܦܪ	-6499
ܙܕܘ	-6500
ܛܪܗ	-6501
ܟܪܐ	-6502
ܟܪܘ	-6503
ܟܪܤ	-6504
ܠܘܐ	-6505
ܫܝܛ	-6506
▁ܓܪ	-6507
▁ܥܬ	-6508
▁ܫܥ	-6509
ܟܪܘܢ	-6510
ܟܪܝܬ	-6511
ܪܥܝܐ	-6512
ܬܚܠܦ	-6513
▁ܒܬܚ	-6514
▁ܕܓܡ	-6515
▁ܘܝܒ	-6516
▁ܚܙܬ	-6517
▁ܚܫܝ	-6518
▁ܝܐܐ	-6519
▁ܟܐܐ	-6520
▁ܟܐܒ	-6521
▁ܠܩܪ	-6522
▁ܢܕܘ	-6523
▁ܤܒܠ	-6524
ܒܙܚܘܢ	-6525
ܟܘܠܬܗ	-6526
▁ܐܡܘܬ	-6527
▁ܐܬܬܚ	-6528
▁ܒܠܫܢ	-6529
▁ܕܓܒܐ	-6530
▁ܕܛܥܐ	-6531
▁ܕܦܪܚ	-6532
▁ܕܬܬܐ	-6533
▁ܘܐܘܪ	-6534
▁ܘܐܘܬ	-6535
▁ܘܐܚܘ	-6536
▁ܘܐܠܝ	-6537
▁ܘܐܡܠ	-6538
▁ܘܐܩܦ	-6539
▁ܘܐܫܕ	-6540
▁ܘܐܬܢ	-6541
▁ܘܒܚܕ	-6542
▁ܘܒܤܪ	-6543
▁ܘܒܪܐ	-6544
▁ܘܒܪܘ	-6545
▁ܘܕܚܡ	-6546
▁ܘܕܝܠ	-6547
▁ܘܕܢܐ	-6548
▁ܘܕܥܘ	-6549
▁ܘܙܩܐ	-6550
▁ܘܚܐܪ	-6551
▁ܘܚܙܬ	-6552
▁ܘܚܛܐ	-6553
▁ܘܚܛܦ	-6554
▁ܘܚܝܠ	-6555
▁ܘܚܦܪ	-6556
▁ܘܚܨܕ	-6557
▁ܘܟܬܒ	-6558
▁ܘܟܬܝ	-6559
▁ܘܠܗܘ	-6560
▁ܘܠܥܠ	-6561
▁ܘܡܒܪ	-6562
▁ܘܡܓܪ	-6563
▁ܘܡܘܬ	-6564
▁ܘܡܝܐ	-6565
▁ܘܡܠܘ	-6566
▁ܘܡܪܚ	-6567
▁ܘܡܬܐ	-6568
▁ܘܢܚܘ	-6569
▁ܘܢܠܦ	-6570
▁ܘܢܦܪ	-6571
▁ܘܤܥܪ	-6572
▁ܘܥܢܘ	-6573
▁ܘܦܠܚ	-6574
▁ܘܩܕܝ	-6575
▁ܘܩܘܝ	-6576
▁ܘܪܓܙ	-6577
▁ܘܪܘܙ	-6578
▁ܘܫܒܐ	-6579
▁ܘܫܕܐ	-6580
▁ܘܫܕܝ	-6581
▁ܘܫܚܢ	-6582
▁ܘܫܪܘ	-6583
▁ܘܬܩܢ	-6584
▁ܙܒܢܝ	-6585
▁ܙܠܝܢ	-6586
▁ܙܢܝܘ	-6587
▁ܚܒܪܝ	-6588
▁ܚܕܝܗ	-6589
▁ܚܕܝܘ	-6590
▁ܚܕܪܝ	-6591
▁ܚܛܝܢ	-6592
▁ܚܝܠܟ	-6593
▁ܚܠܝܐ	-6594
▁ܚܢܘܟ	-6595
▁ܚܢܢܗ	-6596
▁ܚܨܝܗ	-6597
▁ܚܫܘܟ	-6598
▁ܚܫܚܘ	-6599
ܘܐܐ	-6600
ܙܘܪ	-6601
ܛܝܦ	-6602
ܠܬܟ	-6603
ܥܙܪ	-6604
ܩܠܘ	-6605
ܩܢܢ	-6606
ܝܤܘܢ	-6607
ܠܡܝܤ	-6608
ܡܗܘܢ	-6609
ܥܡܕܘ	-6610
ܦܢܝܐ	-6611
ܫܟܢܐ	-6612
▁ܐܩܒ	-6613
▁ܘܐܥ	-6614
▁ܦܨܘ	-6615
▁ܬܐܒ	-6616
ܒܤܡܝܢ	-6617
ܓܪܓܝܢ	-6618
ܘܤܛܘܤ	-6619
ܝܬܗܝܢ	-6620
ܤܝܘܗܝ	-6621
ܥܬܗܘܢ	-6622
ܦܩܥܬܐ	-6623
ܫܝܐܝܬ	-6624
▁ܐܠܨܐ	-6625
▁ܐܦܝܤ	-6626
▁ܐܫܬܘ	-6627
▁ܐܫܬܝ	-6628
▁ܐܬܬܘ	-6629
▁ܒܤܪܝ	-6630
▁ܓܦܬܐ	-6631
▁ܕܐܠܗ	-6632
▁ܕܡܬܒ	-6633
▁ܕܦܪܫ	-6634
▁ܕܩܢܐ	-6635
▁ܕܪܬܐ	-6636
▁ܘܐܚܬ	-6637
▁ܘܥܠܢ	-6638
▁ܘܥܡܗ	-6639
▁ܘܪܒܐ	-6640
▁ܚܬܡܐ	-6641
▁ܛܘܒܐ	-6642
▁ܛܠܝܝ	-6643
▁ܛܪܦܐ	-6644
▁ܝܕܥܢ	-6645
▁ܝܗܒܐ	-6646
▁ܝܘܡܗ	-6647
▁ܝܠܕܗ	-6648
▁ܝܠܦܘ	-6649
▁ܝܩܕܐ	-6650
▁ܝܩܪܬ	-6651
▁ܝܫܦܗ	-6652
▁ܝܬܡܐ	-6653
▁ܟܟܪܐ	-6654
▁ܟܢܦܐ	-6655
▁ܟܪܤܗ	-6656
▁ܠܐܘܨ	-6657
▁ܠܐܝܢ	-6658
▁ܠܐܟܠ	-6659
▁ܠܒܫܗ	-6660
▁ܠܕܡܗ	-6661
▁ܠܚܕܐ	-6662
▁ܠܡܝܬ	-6663
▁ܠܡܬܒ	-6664
▁ܠܢܝܚ	-6665
▁ܠܢܫܐ	-6666
▁ܠܪܚܡ	-6667
▁ܠܪܝܫ	-6668
▁ܠܪܫܐ	-6669
▁ܠܫܡܐ	-6670
▁ܠܫܡܗ	-6671
▁ܠܫܢܗ	-6672
▁ܡܕܟܐ	-6673
▁ܡܘܬܪ	-6674
▁ܡܛܝܐ	-6675
▁ܡܠܝܐ	-6676
▁ܡܠܦܐ	-6677
▁ܡܢܘܢ	-6678
▁ܡܢܝܟ	-6679
▁ܡܢܬܗ	-6680
▁ܡܩܕܫ	-6681
▁ܡܫܓܢ	-6682
▁ܡܫܘܚ	-6683
▁ܡܫܝܓ	-6684
▁ܡܬܝܬ	-6685
▁ܢܐܪܬ	-6686
▁ܢܒܘܙ	-6687
▁ܢܒܠܥ	-6688
▁ܢܒܤܐ	-6689
▁ܢܓܕܦ	-6690
▁ܢܕܚܠ	-6691
▁ܢܕܟܐ	-6692
▁ܢܕܡܟ	-6693
▁ܢܕܢܚ	-6694
▁ܢܕܪܟ	-6695
▁ܢܗܝܪ	-6696
▁ܢܚܬܬ	-6697
▁ܢܛܥܐ	-6698
▁ܢܟܦܢ	-6699
ܤܝܤ	-6700
ܦܨܐ	-6701
ܩܕܢ	-6702
▁ܤܢ	-6703
ܗܝܒܐ	-6704
ܦܬܚܢ	-6705
ܩܝܢܤ	-6706
ܪܝܚܐ	-6707
▁ܒܓܘ	-6708
▁ܓܪܡ	-6709
▁ܗܟܢ	-6710
▁ܘܨܗ	-6711
▁ܤܒܥ	-6712
▁ܥܪܛ	-6713
▁ܦܓܐ	-6714
▁ܨܗܐ	-6715
▁ܪܒܬ	-6716
ܕܒܘܬܐ	-6717
ܕܥܤܪܐ	-6718
ܝܡܝܢܗ	-6719
ܟܪܟܝܢ	-6720
ܫܝܢܬܐ	-6721
▁ܐܪܝܐ	-6722
▁ܒܡܤܒ	-6723
▁ܕܐܒܗ	-6724
▁ܕܡܨܐ	-6725
▁ܕܨܐܡ	-6726
▁ܕܨܒܘ	-6727
▁ܕܪܒܝ	-6728
▁ܘܒܠܥ	-6729
▁ܘܠܐܢ	-6730
▁ܘܠܡܬ	-6731
▁ܘܡܘܒ	-6732
▁ܘܡܤܒ	-6733
▁ܚܝܒܐ	-6734
▁ܝܡܬܐ	-6735
▁ܠܡܒܥ	-6736
▁ܡܛܝܘ	-6737
▁ܡܫܚܬ	-6738
▁ܢܕܘܢ	-6739
▁ܢܠܥܤ	-6740
▁ܢܢܛܪ	-6741
▁ܢܤܒܢ	-6742
▁ܢܤܒܪ	-6743
▁ܢܤܦܩ	-6744
▁ܢܥܡܪ	-6745
▁ܢܦܢܐ	-6746
▁ܢܦܪܫ	-6747
▁ܢܨܗܐ	-6748
▁ܢܩܝܡ	-6749
▁ܢܩܥܐ	-6750
▁ܢܫܒܬ	-6751
▁ܢܬܟܫ	-6752
▁ܤܐܡܐ	-6753
▁ܤܐܬܐ	-6754
▁ܤܓܝܘ	-6755
▁ܤܕܘܡ	-6756
▁ܤܘܟܠ	-6757
▁ܤܝܡܘ	-6758
▁ܤܝܡܢ	-6759
▁ܤܠܩܬ	-6760
▁ܤܡܠܟ	-6761
▁ܤܥܝܪ	-6762
▁ܤܥܪܐ	-6763
▁ܥܕܠܝ	-6764
▁ܥܛܠܐ	-6765
▁ܥܡܠܐ	-6766
▁ܥܢܢܝ	-6767
▁ܥܦܪܐ	-6768
▁ܥܪܒܝ	-6769
▁ܥܪܩܬ	-6770
▁ܦܓܘܤ	-6771
▁ܦܘܡܟ	-6772
▁ܦܩܕܢ	-6773
▁ܦܪܝܫ	-6774
▁ܦܪܫܘ	-6775
▁ܦܫܘܛ	-6776
▁ܩܒܠܢ	-6777
▁ܩܕܡܗ	-6778
▁ܩܘܡܝ	-6779
▁ܩܛܓܪ	-6780
▁ܩܛܠܐ	-6781
▁ܩܝܛܐ	-6782
▁ܩܡܨܐ	-6783
▁ܩܪܝܬ	-6784
▁ܪܒܘܢ	-6785
▁ܪܒܝܐ	-6786
▁ܪܒܝܢ	-6787
▁ܪܓܙܘ	-6788
▁ܪܓܝܓ	-6789
▁ܪܗܛܐ	-6790
▁ܪܘܒܐ	-6791
▁ܪܘܝܢ	-6792
▁ܪܚܡܗ	-6793
▁ܪܛܢܘ	-6794
▁ܪܝܚܐ	-6795
▁ܪܫܝܐ	-6796
▁ܫܐܠܬ	-6797
▁ܫܒܚܘ	-6798
▁ܫܒܝܐ	-6799
ܛܒܐ	-6800
ܝܪܗ	-6801
ܡܪܘ	-6802
ܦܟܗ	-6803
ܩܦܚ	-6804
ܩܬܗ	-6805
ܬܪܩ	-6806
ܘܕܘܢ	-6807
ܘܕܝܗ	-6808
ܘܕܝܬ	-6809
ܘܦܝܗ	-6810
ܠܛܝܐ	-6811
ܢܬܬܐ	-6812
ܩܝܡܢ	-6813
▁ܠܕܚ	-6814
ܒܝܐܘܢ	-6815
ܟܬܒܝܢ	-6816
▁ܐܪܡܐ	-6817
▁ܒܝܕܥ	-6818
▁ܓܝܪܐ	-6819
▁ܕܡܥܠ	-6820
▁ܕܢܤܬ	-6821
▁ܘܐܤܐ	-6822
▁ܘܒܝܐ	-6823
▁ܘܚܙܩ	-6824
▁ܘܠܒܢ	-6825
▁ܟܪܝܬ	-6826
▁ܠܤܘܚ	-6827
▁ܡܤܢܐ	-6828
▁ܢܤܗܕ	-6829
▁ܦܠܥܐ	-6830
▁ܫܕܝܢ	-6831
▁ܫܕܪܢ	-6832
▁ܫܘܪܐ	-6833
▁ܫܝܠܐ	-6834
▁ܫܠܝܢ	-6835
▁ܫܠܝܬ	-6836
▁ܫܡܥܐ	-6837
▁ܫܦܝܐ	-6838
▁ܫܩܠܗ	-6839
▁ܫܪܝܐ	-6840
▁ܫܬܐܤ	-6841
▁ܬܐܙܠ	-6842
▁ܬܐܢܐ	-6843
▁ܬܘܒܕ	-6844
▁ܬܚܘܡ	-6845
▁ܬܠܓܐ	-6846
▁ܬܠܝܐ	-6847
▁ܬܡܗܐ	-6848
▁ܬܡܢܐ	-6849
▁ܬܥܘܠ	-6850
▁ܬܦܟܗ	-6851
▁ܬܩܒܠ	-6852
▁ܬܩܪܐ	-6853
▁ܬܫܟܚ	-6854
ܒܝܢܗܘܢ	-6855
ܒܝܬܗܘܢ	-6856
ܒܢܝܗܘܢ	-6857
ܕܟܝܘܬܝ	-6858
ܗܝܪܐܝܬ	-6859
ܘܕܥܟܘܢ	-6860
ܘܠܥܗܘܢ	-6861
ܘܪܤܘܬܐ	-6862
ܙܕܗܪܘܢ	-6863
ܛܩܘܤܛܐ	-6864
ܟܘܠܬܢܐ	-6865
ܠܐܟܘܗܝ	-6866
ܩܒܠܘܬܗ	-6867
ܩܕܘܢܝܐ	-6868
ܪܝܩܘܬܐ	-6869
ܬܢܚܝܢܢ	-6870
▁ܐܓܘܢܐ	-6871
▁ܐܕܡܝܗ	-6872
▁ܐܗܦܘܟ	-6873
▁ܐܘܕܥܘ	-6874
▁ܐܚܝܢܝ	-6875
▁ܐܚܝܬܟ	-6876
▁ܐܝܬܝܟ	-6877
▁ܐܟܘܬܗ	-6878
▁ܐܟܘܬܢ	-6879
▁ܐܟܦܘܪ	-6880
▁ܐܟܪܝܬ	-6881
▁ܐܠܝܨܐ	-6882
▁ܐܡܘܬܐ	-6883
▁ܐܤܥܘܪ	-6884
▁ܐܦܦܪܐ	-6885
▁ܐܨܛܪܝ	-6886
▁ܐܩܠܘܤ	-6887
▁ܐܪܡܝܗ	-6888
▁ܐܫܝܓܬ	-6889
▁ܐܫܟܚܗ	-6890
▁ܐܫܬܘܦ	-6891
▁ܐܫܬܥܝ	-6892
▁ܐܬܛܥܡ	-6893
▁ܐܬܝܬܪ	-6894
▁ܐܬܟܤܝ	-6895
▁ܐܬܦܫܛ	-6896
▁ܐܬܬܓܪ	-6897
▁ܒܐܘܠܨ	-6898
▁ܒܐܦܝܢ	-6899
ܡܥܬ	-6900
ܓܪܓܘ	-6901
ܘܕܥܐ	-6902
ܚܩܘܢ	-6903
ܢܐܝܬ	-6904
ܤܐܡܐ	-6905
ܤܬܪܝ	-6906
ܥܘܢܝ	-6907
▁ܒܢܬ	-6908
▁ܘܬܘ	-6909
▁ܛܠܐ	-6910
▁ܡܡܬ	-6911
▁ܪܓܐ	-6912
▁ܬܟܤ	-6913
▁ܬܟܬ	-6914
ܙܒܢܘܢ	-6915
ܟܘܡܪܐ	-6916
ܢܝܘܬܐ	-6917
▁ܐܒܪܗ	-6918
▁ܐܚܕܘ	-6919
▁ܐܟܠܘ	-6920
▁ܒܤܓܝ	-6921
▁ܕܒܛܘ	-6922
▁ܕܬܪܥ	-6923
▁ܘܒܛܠ	-6924
▁ܘܝܠܦ	-6925
▁ܘܠܐܪ	-6926
▁ܝܠܦܢ	-6927
▁ܝܬܒܬ	-6928
▁ܡܬܟܫ	-6929
▁ܢܐܩܪ	-6930
▁ܢܕܒܪ	-6931
▁ܫܪܒܢ	-6932
▁ܬܫܠܡ	-6933
ܓܠܝܗܘܢ	-6934
ܓܠܝܟܘܢ	-6935
ܚܕܘܢܢܝ	-6936
ܝܠܝܛܘܤ	-6937
▁ܐܟܘܠܘ	-6938
▁ܐܟܠܘܤ	-6939
▁ܐܬܟܬܒ	-6940
▁ܐܬܢܒܐ	-6941
▁ܒܐܪܒܥ	-6942
▁ܒܐܫܬܐ	-6943
▁ܒܒܤܪܝ	-6944
▁ܒܓܒܪܐ	-6945
▁ܒܓܠܝܐ	-6946
▁ܒܕܒܚܐ	-6947
▁ܒܕܘܟܐ	-6948
▁ܒܕܚܠܬ	-6949
▁ܒܘܝܐܢ	-6950
▁ܒܚܒܠܐ	-6951
▁ܒܚܪܒܐ	-6952
▁ܒܝܒܫܐ	-6953
▁ܒܝܘܦܐ	-6954
▁ܒܟܤܦܐ	-6955
▁ܒܠܝܬܐ	-6956
▁ܒܡܕܥܝ	-6957
▁ܒܢܝܟܝ	-6958
▁ܒܢܝܢܗ	-6959
▁ܒܢܟܠܐ	-6960
▁ܒܤܒܪܐ	-6961
▁ܒܤܢܝܐ	-6962
▁ܒܤܦܪܐ	-6963
▁ܒܥܕܬܗ	-6964
▁ܒܥܝܕܐ	-6965
▁ܒܥܡܠܐ	-6966
▁ܒܦܓܪܝ	-6967
▁ܒܨܘܪܗ	-6968
▁ܒܨܥܪܐ	-6969
▁ܒܪܓܬܐ	-6970
▁ܒܪܚܡܐ	-6971
▁ܒܫܠܡܟ	-6972
▁ܒܫܢܬܐ	-6973
▁ܒܫܦܪܐ	-6974
▁ܓܝܘܪܐ	-6975
▁ܓܠܝܢܐ	-6976
▁ܓܪܝܨܢ	-6977
▁ܕܐܘܠܨ	-6978
▁ܕܐܚܒܬ	-6979
▁ܕܐܚܙܐ	-6980
▁ܕܐܚܝܢ	-6981
▁ܕܐܚܫܡ	-6982
▁ܕܐܟܘܠ	-6983
▁ܕܐܡܪܘ	-6984
▁ܕܐܥܡܕ	-6985
▁ܕܐܦܠܘ	-6986
▁ܕܐܪܝܡ	-6987
▁ܕܐܫܕܪ	-6988
▁ܕܐܬܟܪ	-6989
▁ܕܒܝܡܐ	-6990
▁ܕܒܝܬܝ	-6991
▁ܕܒܠܒܗ	-6992
▁ܕܒܠܥܡ	-6993
▁ܕܒܤܝܡ	-6994
▁ܕܒܨܝܪ	-6995
▁ܕܒܫܡܗ	-6996
▁ܕܓܠܬܐ	-6997
▁ܕܓܢܤܪ	-6998
▁ܕܓܦܬܐ	-6999
▁ܤܦܝ	-7000
▁ܒܪܝܫ	-7001
▁ܢܫܕܪ	-7002
▁ܬܪܐܐ	-7003
▁ܐܬܬܢܝ	-7004
▁ܒܕܡܥܐ	-7005
▁ܒܢܦܫܟ	-7006
▁ܕܕܟܝܢ	-7007
▁ܕܕܡܟܘ	-7008
▁ܕܗܒܝܠ	-7009
▁ܕܗܘܝܬ	-7010
▁ܕܘܡܝܐ	-7011
▁ܕܙܪܥܗ	-7012
▁ܕܚܘܒܗ	-7013
▁ܕܚܛܝܐ	-7014
▁ܕܚܝܝܢ	-7015
▁ܕܚܡܫܐ	-7016
▁ܕܚܢܦܐ	-7017
▁ܕܛܛܘܤ	-7018
▁ܕܛܢܢܐ	-7019
▁ܕܛܥܝܢ	-7020
▁ܕܝܩܕܐ	-7021
▁ܕܟܝܢܐ	-7022
▁ܕܟܤܦܐ	-7023
▁ܕܟܪܡܐ	-7024
▁ܕܠܗܕܐ	-7025
▁ܕܠܡܢܐ	-7026
▁ܕܡܘܕܐ	-7027
▁ܕܡܙܕܩ	-7028
▁ܕܡܚܛܐ	-7029
▁ܕܡܚܝܠ	-7030
▁ܕܡܚܝܢ	-7031
▁ܕܡܛܫܝ	-7032
▁ܕܡܝܩܪ	-7033
▁ܕܡܢܗܪ	-7034
▁ܕܡܤܗܕ	-7035
▁ܕܡܤܟܠ	-7036
▁ܕܡܦܩܕ	-7037
▁ܕܡܨܠܐ	-7038
▁ܕܡܫܩܐ	-7039
▁ܕܢܐܒܕ	-7040
▁ܕܢܓܠܐ	-7041
▁ܕܢܚܬܬ	-7042
▁ܕܢܟܫܠ	-7043
▁ܕܢܠܥܤ	-7044
▁ܕܢܡܠܐ	-7045
▁ܕܢܤܒܘ	-7046
▁ܕܢܤܒܬ	-7047
▁ܕܢܤܗܕ	-7048
▁ܕܢܥܒܪ	-7049
▁ܕܢܪܕܐ	-7050
▁ܕܢܪܝܡ	-7051
▁ܕܢܪܡܐ	-7052
▁ܕܢܫܕܪ	-7053
▁ܕܢܫܬܐ	-7054
▁ܕܢܬܩܢ	-7055
▁ܕܤܒܪܐ	-7056
▁ܕܤܠܩܐ	-7057
▁ܕܤܢܝܢ	-7058
▁ܕܤܦܪܐ	-7059
▁ܕܥܝܢܐ	-7060
▁ܕܥܠܝܐ	-7061
▁ܕܦܚܪܐ	-7062
▁ܕܦܛܡܐ	-7063
▁ܕܦܩܝܕ	-7064
▁ܕܩܝܡܐ	-7065
▁ܕܩܝܡܢ	-7066
▁ܕܩܪܒܬ	-7067
▁ܕܪܥܝܐ	-7068
▁ܕܪܥܡܐ	-7069
▁ܕܫܕܪܗ	-7070
▁ܕܫܝܘܠ	-7071
▁ܕܫܡܥܐ	-7072
▁ܕܫܢܝܗ	-7073
▁ܕܫܥܒܕ	-7074
▁ܕܫܩܝܠ	-7075
▁ܕܫܪܟܐ	-7076
▁ܕܬܟܝܠ	-7077
▁ܕܬܥܒܕ	-7078
▁ܕܬܫܡܥ	-7079
▁ܗܘܝܗܝ	-7080
▁ܗܘܝܬܝ	-7081
▁ܗܝܡܢܬ	-7082
▁ܗܪܘܡܐ	-7083
▁ܘܐܒܘܟ	-7084
▁ܘܐܒܠܐ	-7085
▁ܘܐܒܢܐ	-7086
▁ܘܐܕܢܐ	-7087
▁ܘܐܘܒܕ	-7088
▁ܘܐܚܝܕ	-7089
▁ܘܐܚܝܟ	-7090
▁ܘܐܝܕܐ	-7091
▁ܘܐܠܗܝ	-7092
▁ܘܐܠܝܐ	-7093
▁ܘܐܠܝܢ	-7094
▁ܘܐܦܩܬ	-7095
▁ܘܐܬܦܢ	-7096
▁ܘܒܗܢܐ	-7097
▁ܘܒܝܡܐ	-7098
▁ܘܒܟܝܢ	-7099
▁ܘܒܡܕܡ	-7100
▁ܘܒܡܠܐ	-7101
▁ܘܒܡܪܢ	-7102
▁ܘܒܩܠܐ	-7103
▁ܘܒܪܟܘ	-7104
▁ܘܒܬܫܥ	-7105
▁ܘܓܕܦܘ	-7106
▁ܘܓܠܝܬ	-7107
▁ܘܓܪܒܐ	-7108
▁ܘܕܚܠܬ	-7109
▁ܘܕܝܘܐ	-7110
▁ܘܗܪܟܐ	-7111
▁ܘܙܒܢܗ	-7112
▁ܘܙܘܥܐ	-7113
▁ܘܙܢܝܐ	-7114
▁ܘܚܤܡܐ	-7115
▁ܘܛܝܒܘ	-7116
▁ܘܛܠܝܐ	-7117
▁ܘܛܢܢܐ	-7118
▁ܘܝܠܕܬ	-7119
▁ܘܝܪܚܐ	-7120
▁ܘܟܘܪܗ	-7121
▁ܘܟܠܝܢ	-7122
▁ܘܟܠܢܫ	-7123
▁ܘܟܪܟܗ	-7124
▁ܘܟܬܒܐ	-7125
▁ܘܠܒܝܬ	-7126
▁ܘܠܒܫܘ	-7127
▁ܘܠܗܕܐ	-7128
▁ܘܠܝܡܐ	-7129
▁ܘܡܙܝܥ	-7130
▁ܘܡܝܬܬ	-7131
▁ܘܡܟܝܟ	-7132
▁ܘܡܠܝܐ	-7133
▁ܘܡܠܝܢ	-7134
▁ܘܡܥܡܕ	-7135
▁ܘܡܩܒܠ	-7136
▁ܘܡܩܘܐ	-7137
▁ܘܡܩܝܡ	-7138
▁ܘܡܪܥܬ	-7139
▁ܘܡܫܘܚ	-7140
▁ܘܡܫܚܐ	-7141
▁ܘܡܫܡܫ	-7142
▁ܘܢܓܕܗ	-7143
▁ܘܢܘܢܐ	-7144
▁ܘܢܚܬܬ	-7145
▁ܘܢܤܒܗ	-7146
▁ܘܢܤܝܡ	-7147
▁ܘܢܥܘܠ	-7148
▁ܘܢܦܩܢ	-7149
▁ܘܢܦܫܗ	-7150
▁ܘܢܫܕܪ	-7151
▁ܘܤܒܪܐ	-7152
▁ܘܤܒܪܘ	-7153
▁ܘܤܗܕܐ	-7154
▁ܘܤܝܒܪ	-7155
▁ܘܤܠܩܢ	-7156
▁ܘܥܕܢܐ	-7157
▁ܘܥܘܠܐ	-7158
▁ܘܥܝܢܐ	-7159
▁ܘܥܬܝܕ	-7160
▁ܘܦܐܪܐ	-7161
▁ܘܦܘܡܐ	-7162
▁ܘܦܥܠܐ	-7163
▁ܘܦܩܕܬ	-7164
▁ܘܨܠܝܘ	-7165
▁ܘܩܛܠܐ	-7166
▁ܘܩܛܠܘ	-7167
▁ܘܩܠܝܠ	-7168
▁ܘܪܓܬܐ	-7169
▁ܘܪܚܫܐ	-7170
▁ܘܪܛܢܐ	-7171
▁ܘܫܐܘܠ	-7172
▁ܘܫܐܠܘ	-7173
▁ܘܫܒܘܩ	-7174
▁ܘܫܒܥܐ	-7175
▁ܘܫܒܬܐ	-7176
▁ܘܫܕܝܗ	-7177
▁ܘܫܝܘܠ	-7178
▁ܘܫܝܢܐ	-7179
▁ܘܫܠܝܛ	-7180
▁ܘܫܡܥܐ	-7181
▁ܘܫܦܪܬ	-7182
▁ܘܫܪܝܬ	-7183
▁ܘܫܪܪܐ	-7184
▁ܘܬܗܪܘ	-7185
▁ܘܬܩܢܬ	-7186
▁ܚܕܥܤܪ	-7187
▁ܚܙܝܬܗ	-7188
▁ܚܛܝܬܗ	-7189
▁ܚܝܝܢܢ	-7190
▁ܚܡܝܡܐ	-7191
▁ܚܤܝܢܐ	-7192
▁ܚܪܫܬܐ	-7193
▁ܚܫܘܗܝ	-7194
▁ܚܫܚܬܐ	-7195
▁ܛܒܝܬܐ	-7196
▁ܛܘܒܢܐ	-7197
▁ܛܘܗܡܐ	-7198
▁ܝܕܥܬܗ	-7199
▁ܝܕܥܬܝ	-7200
▁ܝܗܒܝܢ	-7201
▁ܝܠܕܬܟ	-7202
▁ܝܡܝܢܟ	-7203
▁ܝܩܝܪܢ	-7204
▁ܝܪܚܝܢ	-7205
▁ܝܪܬܝܢ	-7206
▁ܟܤܝܬܗ	-7207
▁ܟܪܘܙܐ	-7208
▁ܟܪܝܗܘ	-7209
▁ܟܬܝܒܐ	-7210
▁ܟܬܝܒܢ	-7211
▁ܠܐܓܪܐ	-7212
▁ܠܐܚܘܢ	-7213
▁ܠܐܠܝܐ	-7214
▁ܠܒܪܝܐ	-7215
▁ܠܓܝܘܢ	-7216
▁ܠܓܡܠܐ	-7217
▁ܠܕܝܠܗ	-7218
▁ܠܕܝܢܗ	-7219
▁ܠܕܝܬܒ	-7220
▁ܠܛܛܘܤ	-7221
▁ܠܝܠܘܢ	-7222
▁ܠܝܬܝܗ	-7223
▁ܠܟܠܒܐ	-7224
▁ܠܟܢܦܐ	-7225
▁ܠܟܪܡܗ	-7226
▁ܠܟܪܤܐ	-7227
▁ܠܡܐܤܝ	-7228
▁ܠܡܛܒܥ	-7229
▁ܠܡܤܥܪ	-7230
▁ܠܡܥܡܕ	-7231
▁ܠܡܦܪܥ	-7232
▁ܠܡܦܬܚ	-7233
▁ܠܡܨܒܐ	-7234
▁ܠܡܩܡܘ	-7235
▁ܠܡܪܓܙ	-7236
▁ܠܡܪܥܐ	-7237
▁ܠܢܘܪܐ	-7238
▁ܠܤܡܝܐ	-7239
▁ܠܥܘܕܪ	-7240
▁ܠܥܘܠܐ	-7241
▁ܠܨܠܡܗ	-7242
▁ܠܩܒܪܐ	-7243
▁ܠܪܥܝܐ	-7244
▁ܠܫܐܕܐ	-7245
▁ܠܫܒܥܐ	-7246
▁ܠܫܪܟܐ	-7247
▁ܠܬܥܠܐ	-7248
▁ܡܒܪܟܐ	-7249
▁ܡܓܘܫܐ	-7250
▁ܡܓܠܬܐ	-7251
▁ܡܚܒܠܐ	-7252
▁ܡܚܝܗܝ	-7253
▁ܡܚܪܪܐ	-7254
▁ܡܛܠܝܢ	-7255
▁ܡܝܬܝܐ	-7256
▁ܡܟܝܟܐ	-7257
▁ܡܠܐܟܝ	-7258
▁ܡܠܦܝܢ	-7259
▁ܡܨܠܝܐ	-7260
▁ܡܩܘܝܐ	-7261
▁ܡܩܘܝܢ	-7262
▁ܡܪܝܪܐ	-7263
▁ܡܪܩܘܤ	-7264
▁ܡܫܒܚܐ	-7265
▁ܡܫܘܝܢ	-7266
▁ܡܫܝܚܗ	-7267
▁ܡܫܟܚܢ	-7268
▁ܡܫܠܡܢ	-7269
▁ܡܫܬܕܐ	-7270
▁ܡܬܓܕܦ	-7271
▁ܡܬܕܟܪ	-7272
▁ܡܬܚܦܛ	-7273
▁ܡܬܝܠܕ	-7274
▁ܡܬܟܬܫ	-7275
▁ܡܬܦܤܩ	-7276
▁ܡܬܩܪܐ	-7277
▁ܡܬܩܪܒ	-7278
▁ܡܬܪܟܒ	-7279
▁ܡܬܪܤܐ	-7280
▁ܢܐܤܘܪ	-7281
▁ܢܓܘܕܐ	-7282
▁ܢܗܦܘܟ	-7283
▁ܢܚܨܘܕ	-7284
▁ܢܚܬܝܢ	-7285
▁ܢܤܬܟܠ	-7286
▁ܢܥܒܪܢ	-7287
▁ܢܦܠܘܚ	-7288
▁ܢܦܠܘܢ	-7289
▁ܢܦܩܬܐ	-7290
▁ܢܦܪܥܟ	-7291
▁ܢܦܫܬܐ	-7292
▁ܢܪܡܘܢ	-7293
▁ܢܫܠܡܟ	-7294
▁ܢܫܬܘܢ	-7295
▁ܢܫܬܡܥ	-7296
▁ܢܫܬܪܐ	-7297
▁ܢܬܕܡܐ	-7298
▁ܢܬܚܠܦ	-7299
▁ܢܬܟܫܠ	-7300
▁ܢܬܡܟܟ	-7301
▁ܢܬܦܠܓ	-7302
▁ܢܬܦܢܐ	-7303
▁ܢܬܩܕܫ	-7304
▁ܢܬܩܪܒ	-7305
▁ܢܬܪܝܡ	-7306
▁ܤܕܘܢܐ	-7307
▁ܤܟܠܬܐ	-7308
▁ܤܡܘܗܝ	-7309
▁ܤܦܝܢܐ	-7310
▁ܥܘܦܝܐ	-7311
▁ܥܝܢܝܢ	-7312
▁ܥܠܝܬܐ	-7313
▁ܥܠܥܠܐ	-7314
▁ܥܡܝܪܐ	-7315
▁ܥܦܪܢܐ	-7316
▁ܥܩܪܬܐ	-7317
▁ܦܛܪܘܤ	-7318
▁ܦܪܘܩܘ	-7319
▁ܨܗܝܘܢ	-7320
▁ܨܠܘܬܟ	-7321
▁ܨܠܝܒܐ	-7322
▁ܩܒܠܬܗ	-7323
▁ܩܕܡܝܗ	-7324
▁ܩܕܡܝܬ	-7325
▁ܩܛܘܠܐ	-7326
▁ܩܢܘܡܝ	-7327
▁ܩܪܒܝܢ	-7328
▁ܩܪܝܪܐ	-7329
▁ܩܪܢܬܗ	-7330
▁ܪܒܝܬܗ	-7331
▁ܪܒܟܘܢ	-7332
▁ܪܓܠܝܢ	-7333
▁ܪܥܡܝܢ	-7334
▁ܫܒܝܠܐ	-7335
▁ܫܒܫܬܐ	-7336
▁ܫܕܪܬܗ	-7337
▁ܫܗܪܝܢ	-7338
▁ܫܘܒܩܢ	-7339
▁ܫܘܩܪܐ	-7340
▁ܫܡܝܢܐ	-7341
▁ܫܦܪܝܢ	-7342
▁ܫܩܘܠܘ	-7343
▁ܫܩܠܝܢ	-7344
▁ܫܬܐܤܐ	-7345
▁ܬܕܚܠܢ	-7346
▁ܬܘܠܬܗ	-7347
▁ܬܘܬܪܐ	-7348
▁ܬܚܘܡܐ	-7349
▁ܬܚܛܘܢ	-7350
▁ܬܝܡܢܐ	-7351
▁ܬܩܝܦܐ	-7352
▁ܬܩܫܘܢ	-7353
▁ܬܫܒܚܢ	-7354
▁ܬܫܬܒܩ	-7355
▁ܬܫܬܟܚ	-7356
▁ܬܬܚܝܒ	-7357
▁ܬܬܝܗܒ	-7358
▁ܬܬܝܬܪ	-7359
▁ܬܬܩܪܐ	-7360
ܩܝܠܝܩܝܐ	-7361
ܪܤܛܪܟܘܤ	-7362
ܪܥܘܬܗܘܢ	-7363
ܫܡܥܬܗܘܢ	-7364
ܫܡܫܬܗܘܢ	-7365
▁ܐܘܝܘܬܐ	-7366
▁ܐܘܠܨܢܗ	-7367
▁ܐܘܩܝܢܤ	-7368
▁ܐܙܠܝܢܢ	-7369
▁ܐܝܙܓܕܐ	-7370
▁ܐܤܝܪܝܢ	-7371
▁ܐܤܦܘܓܐ	-7372
▁ܐܪܡܝܬܗ	-7373
▁ܐܪܥܘܗܝ	-7374
▁ܐܫܬܟܚܬ	-7375
▁ܐܫܬܪܝܘ	-7376
▁ܐܬܝܠܕܘ	-7377
▁ܐܬܟܪܟܘ	-7378
▁ܐܬܟܪܟܢ	-7379
▁ܐܬܟܬܒܘ	-7380
▁ܐܬܡܟܟܘ	-7381
▁ܐܬܦܬܚܘ	-7382
▁ܐܬܩܛܠܘ	-7383
▁ܐܬܩܪܝܬ	-7384
▁ܐܬܬܤܝܡ	-7385
▁ܐܬܬܪܝܡ	-7386
▁ܒܐܓܘܢܐ	-7387
▁ܒܐܘܪܝܐ	-7388
▁ܒܐܝܩܪܐ	-7389
▁ܒܐܫܥܝܐ	-7390
▁ܒܐܬܘܢܐ	-7391
▁ܒܒܪܢܫܐ	-7392
▁ܒܓܙܪܬܐ	-7393
▁ܒܘܪܤܝܐ	-7394
▁ܒܙܩܝܦܗ	-7395
▁ܒܚܙܝܪܐ	-7396
▁ܒܚܡܝܪܐ	-7397
▁ܒܚܪܘܪܐ	-7398
▁ܒܝܬܘܬܐ	-7399
▁ܒܡܕܒܚܐ	-7400
▁ܒܡܨܪܝܢ	-7401
▁ܒܢܡܘܤܗ	-7402
▁ܒܤܒܪܬܐ	-7403
▁ܒܤܒܪܬܗ	-7404
▁ܒܥܝܢܝܢ	-7405
▁ܒܦܝܢܟܐ	-7406
▁ܒܨܒܘܬܐ	-7407
▁ܒܨܒܝܢܐ	-7408
▁ܒܩܤܪܝܐ	-7409
▁ܒܪܥܝܢܝ	-7410
▁ܒܫܘܠܡܗ	-7411
▁ܒܬܐܪܬܐ	-7412
▁ܒܬܘܠܬܗ	-7413
▁ܕܐܒܕܝܢ	-7414
▁ܕܐܒܕܢܐ	-7415
▁ܕܐܝܠܢܐ	-7416
▁ܕܐܝܤܚܩ	-7417
▁ܕܐܝܬܝܟ	-7418
▁ܕܐܝܬܝܢ	-7419
▁ܕܐܤܠܝܘ	-7420
▁ܕܐܦܤܝܐ	-7421
▁ܕܐܫܬܩܠ	-7422
▁ܕܐܬܓܠܝ	-7423
▁ܕܐܬܟܪܙ	-7424
▁ܕܐܬܦܪܫ	-7425
▁ܕܐܬܩܛܠ	-7426
▁ܕܒܐܓܪܐ	-7427
▁ܕܒܐܤܝܐ	-7428
▁ܕܒܒܝܬܗ	-7429
▁ܕܒܗܠܝܢ	-7430
▁ܕܒܘܝܐܐ	-7431
▁ܕܒܚܝܠܐ	-7432
▁ܕܒܚܩܠܐ	-7433
▁ܕܒܟܤܝܐ	-7434
▁ܕܒܢܘܗܝ	-7435
▁ܕܒܥܝܢܟ	-7436
▁ܕܒܩܠܝܠ	-7437
▁ܕܓܢܘܢܐ	-7438
▁ܕܕܡܘܬܐ	-7439
▁ܕܕܡܟܝܢ	-7440
▁ܕܙܘܝܬܐ	-7441
▁ܕܙܟܪܝܐ	-7442
▁ܕܙܢܝܬܐ	-7443
▁ܕܙܩܝܦܐ	-7444
▁ܕܚܝܝܢܢ	-7445
▁ܕܚܝܠܝܢ	-7446
▁ܕܚܪܝܢܐ	-7447
▁ܕܝܗܒܝܢ	-7448
▁ܕܟܝܐܝܬ	-7449
▁ܕܟܠܝܘܡ	-7450
▁ܕܠܐܠܗܐ	-7451
▁ܕܠܐܪܥܐ	-7452
▁ܕܠܒܘܫܗ	-7453
▁ܕܠܒܢܝܐ	-7454
▁ܕܠܗܠܝܢ	-7455
▁ܕܠܝܫܘܥ	-7456
▁ܕܠܢܦܫܗ	-7457
▁ܕܠܤܛܝܐ	-7458
▁ܕܡܘܒܠܐ	-7459
▁ܕܡܝܢܩܢ	-7460
▁ܕܡܡܬܘܡ	-7461
▁ܕܡܢܟܘܢ	-7462
▁ܕܡܨܠܝܢ	-7463
▁ܕܡܪܘܬܐ	-7464
▁ܕܡܬܚܙܐ	-7465
▁ܕܡܬܦܠܓ	-7466
▁ܕܢܐܟܘܠ	-7467
▁ܕܢܐܤܘܪ	-7468
▁ܕܢܐܬܝܢ	-7469
▁ܕܢܒܥܘܢ	-7470
▁ܕܢܚܘܘܢ	-7471
▁ܕܢܛܪܘܢ	-7472
▁ܕܢܝܬܘܢ	-7473
▁ܕܢܤܩܘܢ	-7474
▁ܕܢܩܪܘܒ	-7475
▁ܕܢܫܬܪܐ	-7476
▁ܕܢܬܢܛܪ	-7477
▁ܕܤܝܡܝܢ	-7478
▁ܕܥܒܝܕܐ	-7479
▁ܕܥܡܛܢܐ	-7480
▁ܕܦܬܘܪܗ	-7481
▁ܕܩܪܝܒܐ	-7482
▁ܕܩܪܝܗܝ	-7483
▁ܕܪܥܘܗܝ	-7484
▁ܕܫܐܠܝܢ	-7485
▁ܕܫܘܩܪܐ	-7486
▁ܕܫܠܚܢܝ	-7487
▁ܕܬܗܘܡܐ	-7488
▁ܕܬܡܢܝܐ	-7489
▁ܕܬܪܥܤܪ	-7490
▁ܕܬܬܝܕܥ	-7491
▁ܕܬܬܟܪܙ	-7492
▁ܘܐܘܚܕܗ	-7493
▁ܘܐܢܕܝܢ	-7494
▁ܘܐܢܬܬܗ	-7495
▁ܘܐܤܬܡܟ	-7496
▁ܘܐܪܡܝܗ	-7497
▁ܘܐܫܟܚܬ	-7498
▁ܘܐܫܠܡܗ	-7499
▁ܘܐܫܬܥܐ	-7500
▁ܘܐܬܐܡܪ	-7501
▁ܘܐܬܓܠܝ	-7502
▁ܘܐܬܕܟܝ	-7503
▁ܘܐܬܘܬܐ	-7504
▁ܘܐܬܝܕܥ	-7505
▁ܘܐܬܩܪܒ	-7506
▁ܘܐܬܪܥܝ	-7507
▁ܘܒܒܝܬܐ	-7508
▁ܘܒܘܪܟܢ	-7509
▁ܘܒܙܒܢܐ	-7510
▁ܘܒܝܘܡܐ	-7511
▁ܘܒܠܠܝܐ	-7512
▁ܘܒܠܫܢܐ	-7513
▁ܘܒܡܠܬܐ	-7514
▁ܘܒܢܒܝܐ	-7515
▁ܘܒܥܒܕܐ	-7516
▁ܘܒܨܦܪܐ	-7517
▁ܘܒܫܥܬܐ	-7518
▁ܘܓܚܟܝܢ	-7519
▁ܘܓܝܪܬܐ	-7520
▁ܘܕܐܪܒܥ	-7521
▁ܘܕܐܪܥܐ	-7522
▁ܘܕܚܠܬܐ	-7523
▁ܘܕܝܘܤܐ	-7524
▁ܘܕܡܘܬܐ	-7525
▁ܘܕܡܝܬܐ	-7526
▁ܘܕܥܬܝܕ	-7527
▁ܘܕܪܘܚܐ	-7528
▁ܘܕܬܠܬܐ	-7529
▁ܘܙܒܢܝܢ	-7530
▁ܘܚܒܝܒܐ	-7531
▁ܘܚܓܝܪܐ	-7532
▁ܘܚܟܝܡܐ	-7533
▁ܘܚܫܘܟܐ	-7534
▁ܘܝܕܥܬܐ	-7535
▁ܘܟܠܝܘܡ	-7536
▁ܘܟܠܝܠܐ	-7537
▁ܘܠܐܠܝܐ	-7538
▁ܘܠܐܤܛܪ	-7539
▁ܘܠܕܝܢܐ	-7540
▁ܘܠܕܝܬܒ	-7541
▁ܘܠܙܪܥܗ	-7542
▁ܘܠܝܬܝܗ	-7543
▁ܘܠܡܚܤܢ	-7544
▁ܘܠܡܫܡܥ	-7545
▁ܘܠܡܫܬܐ	-7546
▁ܘܠܤܦܪܐ	-7547
▁ܘܠܨܠܡܗ	-7548
▁ܘܡܐܬܝܢ	-7549
▁ܘܡܘܕܝܢ	-7550
▁ܘܡܚܝܗܝ	-7551
▁ܘܡܛܠܬܗ	-7552
▁ܘܡܠܦܢܐ	-7553
▁ܘܡܪܩܘܤ	-7554
▁ܘܡܫܝܚܐ	-7555
▁ܘܡܫܡܫܐ	-7556
▁ܘܡܫܬܡܥ	-7557
▁ܘܡܬܕܡܪ	-7558
▁ܘܡܬܝܗܒ	-7559
▁ܘܢܗܝܡܢ	-7560
▁ܘܢܚܙܘܢ	-7561
▁ܘܢܪܡܘܢ	-7562
▁ܘܢܬܝܬܪ	-7563
▁ܘܢܬܠܘܢ	-7564
▁ܘܤܒܪܝܢ	-7565
▁ܘܥܒܕܝܢ	-7566
▁ܘܥܡܕܝܢ	-7567
▁ܘܥܤܪܝܢ	-7568
▁ܘܥܬܝܪܐ	-7569
▁ܘܨܠܘܬܐ	-7570
▁ܘܪܘܓܙܐ	-7571
▁ܘܬܘܠܬܐ	-7572
▁ܘܬܢܝܢܐ	-7573
▁ܘܬܪܥܤܪ	-7574
▁ܘܬܫܬܘܢ	-7575
▁ܙܕܝܩܝܢ	-7576
▁ܙܗܝܪܝܢ	-7577
▁ܙܪܥܘܢܐ	-7578
▁ܚܒܘܫܝܐ	-7579
▁ܚܘܐܘܢܝ	-7580
▁ܚܘܤܪܢܐ	-7581
▁ܚܛܗܘܗܝ	-7582
▁ܚܛܘܦܝܐ	-7583
▁ܚܝܠܗܘܢ	-7584
▁ܚܠܝܡܬܐ	-7585
▁ܚܠܦܘܗܝ	-7586
▁ܚܫܝܒܝܢ	-7587
▁ܛܠܢܝܬܐ	-7588
▁ܛܡܐܘܬܐ	-7589
▁ܛܥܝܘܬܐ	-7590
▁ܝܕܝܥܬܐ	-7591
▁ܝܘܠܦܢܝ	-7592
▁ܝܘܢܐܝܬ	-7593
▁ܝܘܪܕܢܢ	-7594
▁ܝܚܝܕܝܐ	-7595
▁ܝܪܬܘܬܗ	-7596
▁ܟܕܒܘܬܐ	-7597
▁ܟܘܬܝܢܗ	-7598
▁ܟܬܝܒܝܢ	-7599
▁ܠܐܪܒܥܐ	-7600
▁ܠܒܪܢܒܐ	-7601
▁ܠܓܠܝܢܗ	-7602
▁ܠܕܘܟܬܗ	-7603
▁ܠܕܡܘܬܐ	-7604
▁ܠܗܪܘܕܤ	-7605
▁ܠܘܤܛܪܐ	-7606
▁ܠܘܩܒܠܝ	-7607
▁ܠܙܕܝܩܘ	-7608
▁ܠܙܢܝܬܐ	-7609
▁ܠܙܥܘܪܐ	-7610
▁ܠܚܕܥܤܪ	-7611
▁ܠܛܠܝܬܐ	-7612
▁ܠܛܪܘܐܤ	-7613
▁ܠܝܕܥܬܐ	-7614
▁ܠܝܠܘܕܐ	-7615
▁ܠܝܬܘܗܝ	-7616
▁ܠܟܠܗܝܢ	-7617
▁ܠܡܕܒܪܐ	-7618
▁ܠܡܗܠܟܘ	-7619
▁ܠܡܘܒܕܘ	-7620
▁ܠܡܘܕܝܘ	-7621
▁ܠܡܟܪܙܘ	-7622
▁ܠܡܩܒܠܘ	-7623
▁ܠܡܫܟܢܐ	-7624
▁ܠܡܫܠܡܘ	-7625
▁ܠܡܫܪܝܐ	-7626
▁ܠܢܝܚܬܝ	-7627
▁ܠܢܦܫܬܐ	-7628
▁ܠܤܘܓܐܐ	-7629
▁ܠܤܘܪܝܐ	-7630
▁ܠܩܝܡܬܐ	-7631
▁ܠܩܫܝܫܐ	-7632
▁ܠܫܘܒܚܗ	-7633
▁ܠܫܩܝܦܐ	-7634
▁ܡܒܙܚܝܢ	-7635
▁ܡܕܝܢܬܗ	-7636
▁ܡܘܗܒܬܗ	-7637
▁ܡܚܐܘܗܝ	-7638
▁ܡܝܬܬܘܢ	-7639
▁ܡܠܝܐܝܬ	-7640
▁ܡܠܝܘܬܗ	-7641
▁ܡܠܟܘܬܝ	-7642
▁ܡܡܝܩܝܢ	-7643
▁ܡܤܟܠܝܢ	-7644
▁ܡܥܕܪܢܐ	-7645
▁ܡܩܘܝܢܢ	-7646
▁ܡܪܝܗܘܢ	-7647
▁ܡܪܥܝܬܐ	-7648
▁ܡܫܘܚܬܐ	-7649
▁ܡܫܘܚܬܢ	-7650
▁ܡܫܝܓܝܢ	-7651
▁ܡܫܠܡܝܢ	-7652
▁ܡܫܡܫܢܗ	-7653
▁ܡܫܬܚܠܦ	-7654
▁ܡܫܬܥܝܢ	-7655
▁ܡܫܬܪܝܢ	-7656
▁ܡܬܒܥܝܐ	-7657
▁ܡܬܕܒܪܐ	-7658
▁ܡܬܕܟܝܢ	-7659
▁ܡܬܕܡܝܢ	-7660
▁ܡܬܝܗܒܐ	-7661
▁ܡܬܡܠܠܐ	-7662
▁ܡܬܡܠܠܢ	-7663
▁ܡܬܩܪܝܐ	-7664
▁ܡܬܬܕܝܢ	-7665
▁ܡܬܬܟܝܠ	-7666
▁ܢܐܚܕܘܢ	-7667
▁ܢܒܗܬܘܢ	-7668
▁ܢܗܪܘܬܐ	-7669
▁ܢܠܦܟܘܢ	-7670
▁ܢܦܫܢܝܐ	-7671
▁ܢܨܘܡܘܢ	-7672
▁ܢܩܪܒܘܢ	-7673
▁ܢܫܠܡܢܝ	-7674
▁ܢܫܡܫܘܢ	-7675
▁ܢܬܬܤܝܡ	-7676
▁ܤܟܠܘܬܗ	-7677
▁ܥܘܠܗܘܢ	-7678
▁ܥܡܕܬܘܢ	-7679
▁ܥܫܝܢܬܐ	-7680
▁ܦܠܚܝܢܢ	-7681
▁ܦܪܝܩܝܢ	-7682
▁ܦܪܬܘܬܐ	-7683
▁ܨܘܚܝܬܐ	-7684
▁ܩܕܝܫܝܢ	-7685
▁ܩܘܪܒܢܟ	-7686
▁ܩܝܡܝܢܢ	-7687
▁ܩܪܩܦܬܗ	-7688
▁ܪܒܝܥܝܐ	-7689
▁ܪܗܒܘܢܐ	-7690
▁ܪܘܚܢܝܐ	-7691
▁ܪܚܝܩܝܢ	-7692
▁ܪܝܫܝܬܐ	-7693
▁ܫܒܝܩܬܐ	-7694
▁ܫܒܩܘܗܝ	-7695
▁ܫܘܒܗܪܢ	-7696
▁ܫܠܝܛܝܢ	-7697
▁ܫܡܥܘܗܝ	-7698
▁ܫܩܝܠܝܢ	-7699
▁ܫܪܝܪܝܢ	-7700
▁ܬܗܝܪܝܢ	-7701
▁ܬܘܩܠܬܐ	-7702
▁ܬܚܘܝܬܐ	-7703
▁ܬܡܠܠܘܢ	-7704
▁ܬܪܝܨܬܐ	-7705
▁ܬܫܡܫܬܗ	-7706
▁ܬܬܕܡܘܢ	-7707
▁ܬܬܦܢܘܢ	-7708
ܠܟܤܢܕܪܝܐ	-7709
ܢܓܕܘܢܝܗܝ	-7710
▁ܐܘܡܢܘܬܗ	-7711
▁ܐܚܒܬܟܘܢ	-7712
▁ܐܚܘܝܟܘܢ	-7713
▁ܐܝܬܐܘܗܝ	-7714
▁ܐܟܘܬܟܘܢ	-7715
▁ܐܤܛܦܢܘܤ	-7716
▁ܐܤܛܪܛܓܐ	-7717
▁ܐܫܬܝܘܗܝ	-7718
▁ܐܬܬܙܝܥܬ	-7719
▁ܒܕܟܝܘܬܐ	-7720
▁ܒܚܫܡܝܬܐ	-7721
▁ܒܛܝܠܐܝܬ	-7722
▁ܒܝܘܪܕܢܢ	-7723
▁ܒܝܢܝܗܘܢ	-7724
▁ܒܡܘܗܒܬܐ	-7725
▁ܒܡܙܡܘܪܐ	-7726
▁ܒܢܤܝܘܢܐ	-7727
▁ܒܤܘܥܪܢܐ	-7728
▁ܒܤܝܡܘܬܐ	-7729
▁ܒܥܘܗܕܢܐ	-7730
▁ܒܦܪܨܘܦܐ	-7731
▁ܒܪܓܝܓܬܐ	-7732
▁ܒܬܘܟܠܢܐ	-7733
▁ܓܒܝܬܟܘܢ	-7734
▁ܕܐܘܪܫܠܡ	-7735
▁ܕܐܤܛܦܢܐ	-7736
▁ܕܐܤܝܪܝܢ	-7737
▁ܕܒܕܚܠܬܐ	-7738
▁ܕܒܘܪܟܬܐ	-7739
▁ܕܒܟܠܡܕܡ	-7740
▁ܕܓܙܘܪܬܐ	-7741
▁ܕܕܐܝܠܝܢ	-7742
▁ܕܕܝܠܗܘܢ	-7743
▁ܕܙܒܘܠܘܢ	-7744
▁ܕܚܘܒܟܘܢ	-7745
▁ܕܚܝܝܟܘܢ	-7746
▁ܕܝܕܥܬܘܢ	-7747
▁ܕܟܢܘܫܬܐ	-7748
▁ܕܟܢܝܫܝܢ	-7749
▁ܕܟܪܝܗܝܢ	-7750
▁ܕܠܤܓܝܐܐ	-7751
▁ܕܠܩܘܒܠܢ	-7752
▁ܕܡܗܝܡܢܐ	-7753
▁ܕܡܘܗܒܬܐ	-7754
▁ܕܡܘܪܟܝܢ	-7755
▁ܕܡܟܝܠܝܢ	-7756
▁ܕܡܩܒܠܝܢ	-7757
▁ܕܡܫܬܒܗܪ	-7758
▁ܕܡܬܚܙܝܢ	-7759
▁ܕܡܬܬܪܓܡ	-7760
▁ܕܢܦܫܗܘܢ	-7761
▁ܕܢܩܒܠܘܢ	-7762
▁ܕܢܩܪܒܘܢ	-7763
▁ܕܢܫܡܥܘܢ	-7764
▁ܕܢܬܦܬܚܢ	-7765
▁ܕܤܦܝܢܬܐ	-7766
▁ܕܥܒܕܘܬܐ	-7767
▁ܕܥܒܕܬܘܢ	-7768
▁ܕܦܘܪܩܢܐ	-7769
▁ܕܫܐܕܘܗܝ	-7770
▁ܕܫܘܠܛܢܐ	-7771
▁ܕܬܐܟܠܘܢ	-7772
▁ܕܬܩܒܠܘܢ	-7773
▁ܗܝܡܢܘܬܝ	-7774
▁ܘܐܘܠܨܢܐ	-7775
▁ܘܐܤܬܟܠܘ	-7776
▁ܘܐܬܒܝܐܘ	-7777
▁ܘܐܬܚܫܒܬ	-7778
▁ܘܐܬܪܡܝܘ	-7779
▁ܘܒܒܥܘܬܐ	-7780
▁ܘܒܚܕܘܬܐ	-7781
▁ܘܒܚܘܛܪܐ	-7782
▁ܘܒܝܘܡܬܐ	-7783
▁ܘܒܪܒܪܝܐ	-7784
▁ܘܒܪܢܝܩܐ	-7785
▁ܘܒܫܫܠܬܐ	-7786
▁ܘܕܐܝܠܝܢ	-7787
▁ܘܕܒܪܘܗܝ	-7788
▁ܘܕܟܠܗܘܢ	-7789
▁ܘܕܡܫܝܚܐ	-7790
▁ܘܕܢܗܘܘܢ	-7791
▁ܘܕܩܫܝܫܐ	-7792
▁ܘܗܓܡܘܢܐ	-7793
▁ܘܙܕܘܩܝܐ	-7794
▁ܘܚܘܒܟܘܢ	-7795
▁ܘܚܢܩܘܗܝ	-7796
▁ܘܛܘܒܘܗܝ	-7797
▁ܘܠܡܟܝܟܐ	-7798
▁ܘܠܡܟܪܙܘ	-7799
▁ܘܠܦܘܠܘܤ	-7800
▁ܘܠܩܫܝܫܐ	-7801
▁ܘܡܓܕܦܝܢ	-7802
▁ܘܡܗܠܟܝܢ	-7803
▁ܘܡܟܪܙܝܢ	-7804
▁ܘܡܩܦܚܝܢ	-7805
▁ܘܡܫܟܚܝܢ	-7806
▁ܘܡܫܡܫܝܢ	-7807
▁ܘܢܒܙܚܘܢ	-7808
▁ܘܢܘܪܗܘܢ	-7809
▁ܘܢܡܝܬܘܢ	-7810
▁ܘܢܥܒܕܘܢ	-7811
▁ܘܢܩܘܡܘܢ	-7812
▁ܘܢܫܒܚܘܢ	-7813
▁ܘܤܓܝܐܬܐ	-7814
▁ܘܩܛܠܘܗܝ	-7815
▁ܘܫܒܩܘܗܝ	-7816
▁ܘܫܓܘܫܝܐ	-7817
▁ܘܫܠܝܛܢܐ	-7818
▁ܙܗܝܪܐܝܬ	-7819
▁ܙܥܘܪܝܬܐ	-7820
▁ܚܒܝܒܘܗܝ	-7821
▁ܛܘܒܝܗܝܢ	-7822
▁ܛܘܟܝܩܘܤ	-7823
▁ܝܕܥܝܬܘܢ	-7824
▁ܟܘܡܪܘܬܐ	-7825
▁ܟܪܤܛܝܢܐ	-7826
▁ܠܐܚܝܟܘܢ	-7827
▁ܠܐܚܪܝܬܐ	-7828
▁ܠܐܝܛܠܝܐ	-7829
▁ܠܐܝܪܝܚܘ	-7830
▁ܠܐܬܪܘܬܐ	-7831
▁ܠܕܘܟܪܢܝ	-7832
▁ܠܟܠܝܪܟܐ	-7833
▁ܠܟܬܒܘܢܐ	-7834
▁ܠܡܐܬܝܬܗ	-7835
▁ܠܡܗܝܡܢܐ	-7836
▁ܠܡܪܝܟܘܢ	-7837
▁ܠܡܫܡܫܢܐ	-7838
▁ܠܡܬܢܒܝܘ	-7839
▁ܠܢܦܫܟܘܢ	-7840
▁ܠܥܡܘܪܝܗ	-7841
▁ܠܦܝܠܛܘܤ	-7842
▁ܠܫܘܥܝܬܐ	-7843
▁ܠܬܐܛܪܘܢ	-7844
▁ܡܟܝܟܘܬܐ	-7845
▁ܡܦܝܤܝܢܢ	-7846
▁ܡܫܚܠܦܬܐ	-7847
▁ܡܫܝܚܘܬܐ	-7848
▁ܡܬܕܝܢܝܢ	-7849
▁ܡܬܙܝܥܝܢ	-7850
▁ܡܬܟܢܫܝܢ	-7851
▁ܡܬܢܛܪܝܢ	-7852
▁ܡܬܬܘܤܦܢ	-7853
▁ܢܘܟܪܝܬܐ	-7854
▁ܢܦܫܬܗܘܢ	-7855
▁ܢܫܬܒܩܘܢ	-7856
▁ܢܬܢܝܐܝܠ	-7857
▁ܤܒܪܬܟܘܢ	-7858
▁ܥܝܢܝܟܘܢ	-7859
▁ܥܬܝܕܝܢܢ	-7860
▁ܦܫܝܩܐܝܬ	-7861
▁ܨܐܕܝܗܘܢ	-7862
▁ܩܕܝܫܘܬܐ	-7863
▁ܩܘܪܝܢܝܐ	-7864
▁ܩܤܛܘܢܪܐ	-7865
▁ܩܪܝܬܟܘܢ	-7866
▁ܪܒܟܘܡܪܐ	-7867
▁ܪܘܚܢܝܬܐ	-7868
▁ܪܘܪܒܐܝܬ	-7869
▁ܫܒܘܩܝܢܝ	-7870
▁ܫܡܥܢܝܗܝ	-7871
▁ܬܠܘܘܢܢܝ	-7872
▁ܬܬܕܝܢܘܢ	-7873
▁ܬܬܟܫܠܘܢ	-7874
▁ܐܚܪܢܝܐܝܬ	-7875
▁ܐܤܬܟܠܬܘܢ	-7876
▁ܒܐܝܕܝܟܘܢ	-7877
▁ܒܐܢܛܝܘܟܝ	-7878
▁ܒܐܤܘܛܘܬܐ	-7879
▁ܒܙܕܝܩܘܬܐ	-7880
▁ܒܡܟܝܟܘܬܐ	-7881
▁ܒܥܘܪܠܘܬܐ	-7882
▁ܕܐܒܗܝܟܘܢ	-7883
▁ܕܒܐܘܠܨܢܐ	-7884
▁ܕܒܠܕܝܩܝܐ	-7885
▁ܕܒܥܠܕܒܒܐ	-7886
▁ܕܡܩܕܘܢܝܐ	-7887
▁ܕܡܬܟܬܒܝܢ	-7888
▁ܕܢܤܬܡܟܘܢ	-7889
▁ܕܢܩܛܠܘܢܗ	-7890
▁ܕܥܘܪܠܘܬܐ	-7891
▁ܕܦܝܠܝܦܘܤ	-7892
▁ܕܩܝܠܝܩܝܐ	-7893
▁ܕܫܘܬܦܘܬܐ	-7894
▁ܕܬܘܠܥܗܘܢ	-7895
▁ܕܬܬܝܬܪܘܢ	-7896
▁ܗܘܦܟܝܟܘܢ	-7897
▁ܘܐܚܪܢܝܬܐ	-7898
▁ܘܐܫܠܡܘܗܝ	-7899
▁ܘܐܫܬܘܕܥܘ	-7900
▁ܘܐܬܬܢܝܚܘ	-7901
▁ܘܐܬܬܥܝܪܘ	-7902
▁ܘܒܛܝܒܘܬܐ	-7903
▁ܘܒܢܟܦܘܬܐ	-7904
▁ܘܒܬܕܡܪܬܐ	-7905
▁ܘܕܙܕܘܩܝܐ	-7906
▁ܘܡܬܚܫܒܝܢ	-7907
▁ܘܢܤܬܟܠܘܢ	-7908
▁ܘܤܪܝܩܐܝܬ	-7909
▁ܘܥܝܢܝܗܘܢ	-7910
▁ܘܥܠܘܒܘܬܐ	-7911
▁ܘܦܪܝܤܩܠܐ	-7912
▁ܘܬܒܥܘܢܢܝ	-7913
▁ܘܬܚܙܘܢܢܝ	-7914
▁ܟܢܘܫܬܗܘܢ	-7915
▁ܠܐܒܗܝܗܘܢ	-7916
▁ܠܐܤܛܦܢܘܤ	-7917
▁ܠܒܥܠܝܟܝܢ	-7918
▁ܠܘܩܒܠܟܘܢ	-7919
▁ܠܡܕܟܝܘܬܝ	-7920
▁ܠܡܩܒܠܘܬܗ	-7921
▁ܠܡܫܐܠܘܬܗ	-7922
▁ܠܨܒܝܢܗܘܢ	-7923
▁ܡܕܒܪܢܘܬܐ	-7924
▁ܡܗܝܡܢܝܢܢ	-7925
▁ܡܤܬܟܠܝܢܢ	-7926
▁ܡܥܒܕܢܘܬܐ	-7927
▁ܡܫܬܘܕܥܝܢ	-7928
▁ܡܫܬܘܬܦܝܢ	-7929
▁ܡܬܐܠܨܝܢܢ	-7930
▁ܡܬܬܢܚܝܢܢ	-7931
▁ܢܚܙܘܢܝܗܝ	-7932
▁ܢܩܛܠܝܘܗܝ	-7933
▁ܢܫܐܠܝܘܗܝ	-7934
▁ܤܗܕܘܬܗܘܢ	-7935
▁ܤܟܠܘܬܗܘܢ	-7936
▁ܫܒܥܬܝܗܘܢ	-7937
▁ܬܤܠܘܢܝܩܐ	-7938
▁ܐܤܛܘܟܤܘܗܝ	-7939
▁ܐܪܒܥܬܝܗܝܢ	-7940
▁ܒܪܥܝܢܝܟܘܢ	-7941
▁ܕܐܬܩܪܝܬܘܢ	-7942
▁ܕܬܐܚܕܘܢܢܝ	-7943
▁ܕܬܠܡܝܕܘܗܝ	-7944
▁ܠܬܤܠܘܢܝܩܐ	-7945
▁ܡܫܬܒܗܪܝܢܢ	-7946
▁ܢܩܒܠܘܢܟܘܢ	-7947
▁ܢܫܠܡܘܢܟܘܢ	-7948
▁ܥܒܕܬܘܢܝܗܝ	-7949
▁ܬܗܝܡܢܘܢܢܝ	-7950
▁ܒܡܤܝܒܪܢܘܬܐ	-7951
▁ܕܢܙܩܦܘܢܝܗܝ	-7952
▁ܕܢܡܝܬܘܢܝܗܝ	-7953
▁ܕܢܫܐܠܘܢܝܗܝ	-7954
▁ܘܢܢܓܕܘܢܝܗܝ	-7955
▁ܘܢܫܠܡܘܢܝܗܝ	-7956
▁ܘܒܡܤܝܒܪܢܘܬܐ	-7957
▁ܘܠܐܤܛܪܛܝܘܛܐ	-7958
▁ܠܒܥܠܕܒܒܝܟܘܢ	-7959
ܒܨܪ	-7960
ܘܨܘ	-7961
ܚܦܘ	-7962
ܠܛܢ	-7963
ܥܙܙ	-7964
ܥܢܟ	-7965
ܘܐܪܫ	-7966
ܘܪܥܢ	-7967
ܛܘܛܟ	-7968
ܝܒܝܗ	-7969
ܡܨܬܐ	-7970
ܤܟܡܐ	-7971
ܦܠܘܚ	-7972
ܦܨܚܘ	-7973
ܨܝܢܝ	-7974
▁ܚܦܛ	-7975
▁ܡܒܓ	-7976
▁ܡܒܙ	-7977
▁ܡܗܦ	-7978
▁ܥܗܢ	-7979
▁ܦܨܢ	-7980
▁ܦܫܛ	-7981
▁ܦܫܩ	-7982
▁ܩܐܕ	-7983
▁ܫܟܒ	-7984
▁ܬܪܛ	-7985
ܓܐܝܘܤ	-7986
ܓܘܪܬܢ	-7987
ܓܝܪܘܬ	-7988
ܓܠܝܢܐ	-7989
ܓܪܓܘܢ	-7990
ܕܟܝܬܟ	-7991
ܘܕܩܝܐ	-7992
ܘܢܩܢܢ	-7993
ܛܪܓܘܢ	-7994
ܛܪܛܓܐ	-7995
ܤܪܕܝܤ	-7996
ܩܕܡܘܬ	-7997
ܩܘܠܤܐ	-7998
ܪܘܓܝܐ	-7999
ܕܢܚܝ	-8000
ܗܦܟܢ	-8001
ܚܢܩܘ	-8002
▁ܚܒܨ	-8003
▁ܚܫܚ	-8004
▁ܢܪܓ	-8005
ܤܝܦܘܪ	-8006
ܥܘܪܝܢ	-8007
ܦܝܡܘܤ	-8008
ܪܡܤܘܩ	-8009
ܪܪܬܘܢ	-8010
ܪܫܘܗܝ	-8011
ܫܡܫܬܟ	-8012
ܫܢܝܩܐ	-8013
ܬܘܠܬܐ	-8014
ܬܢܤܘܢ	-8015
▁ܐܒܕܘ	-8016
▁ܐܓܢܬ	-8017
▁ܐܗܦܟ	-8018
▁ܐܘܫܛ	-8019
▁ܐܘܬܪ	-8020
▁ܐܙܝܥ	-8021
▁ܐܨܠܐ	-8022
▁ܐܪܙܗ	-8023
▁ܒܐܐܪ	-8024
▁ܒܕܪܬ	-8025
▁ܒܘܠܘ	-8026
▁ܒܪܘܓ	-8027
▁ܓܘܝܐ	-8028
▁ܓܘܫܡ	-8029
▁ܓܦܝܗ	-8030
▁ܓܪܓܘ	-8031
▁ܕܓܕܫ	-8032
▁ܕܚܨܕ	-8033
▁ܕܚܩܗ	-8034
▁ܕܚܫܚ	-8035
▁ܕܡܛܬ	-8036
▁ܕܡܥܛ	-8037
▁ܕܢܝܚ	-8038
▁ܕܢܦܬ	-8039
▁ܕܦܐܫ	-8040
▁ܕܩܡܘ	-8041
▁ܕܪܚܝ	-8042
▁ܘܐܡܝ	-8043
▁ܘܐܨܛ	-8044
▁ܘܐܫܠ	-8045
▁ܘܐܫܦ	-8046
▁ܘܒܙܡ	-8047
▁ܘܒܦܬ	-8048
▁ܘܕܩܤ	-8049
▁ܘܕܪܫ	-8050
▁ܘܠܤܘ	-8051
▁ܘܠܥܤ	-8052
▁ܘܢܝܚ	-8053
▁ܘܢܩܫ	-8054
▁ܘܫܡܛ	-8055
▁ܙܕܩܐ	-8056
▁ܚܒܪܟ	-8057
▁ܚܝܠܬ	-8058
▁ܚܦܝܛ	-8059
▁ܚܫܒܬ	-8060
▁ܛܝܡܝ	-8061
▁ܛܡܪܬ	-8062
▁ܝܘܪܡ	-8063
▁ܝܨܦܘ	-8064
▁ܟܠܡܕ	-8065
▁ܟܢܫܬ	-8066
▁ܟܢܬܟ	-8067
▁ܟܦܢܬ	-8068
▁ܠܨܘܪ	-8069
▁ܡܒܕܪ	-8070
▁ܡܕܓܠ	-8071
▁ܡܘܚܪ	-8072
▁ܡܙܕܒ	-8073
▁ܡܙܗܪ	-8074
▁ܡܙܥܩ	-8075
▁ܡܠܝܟ	-8076
▁ܡܡܛܐ	-8077
▁ܡܦܤܩ	-8078
▁ܡܫܪܪ	-8079
▁ܢܓܗܐ	-8080
▁ܢܚܫܟ	-8081
▁ܢܢܗܪ	-8082
▁ܢܢܥܐ	-8083
▁ܢܩܕܐ	-8084
▁ܢܪܓܐ	-8085
▁ܤܒܥܘ	-8086
▁ܤܕܩܐ	-8087
▁ܤܕܩܘ	-8088
▁ܤܟܝܘ	-8089
▁ܤܡܩܬ	-8090
▁ܤܥܪܗ	-8091
▁ܥܘܗܕ	-8092
▁ܥܤܩܐ	-8093
▁ܥܬܪܘ	-8094
▁ܦܤܩܘ	-8095
▁ܦܤܩܢ	-8096
▁ܦܤܩܬ	-8097
▁ܦܩܘܕ	-8098
▁ܦܪܝܩ	-8099
ܫܢܩ	-8100
ܘܫܡܐ	-8101
▁ܗܪܤ	-8102
▁ܛܪܤ	-8103
▁ܤܟܗ	-8104
ܤܝܒܪܘ	-8105
ܫܢܩܢܝ	-8106
▁ܐܚܕܢ	-8107
▁ܐܦܩܬ	-8108
▁ܐܦܪܤ	-8109
▁ܒܕܪܐ	-8110
▁ܓܢܬܐ	-8111
▁ܕܒܠܥ	-8112
▁ܕܢܤܡ	-8113
▁ܘܠܪܤ	-8114
▁ܝܩܝܪ	-8115
▁ܟܬܒܟ	-8116
▁ܡܓܕܦ	-8117
▁ܡܬܩܛ	-8118
▁ܢܩܝܦ	-8119
▁ܢܪܒܐ	-8120
▁ܤܚܘܐ	-8121
▁ܥܡܕܢ	-8122
▁ܦܩܕܘ	-8123
▁ܦܬܚܬ	-8124
▁ܦܬܝܗ	-8125
▁ܩܒܠܗ	-8126
▁ܩܕܫܘ	-8127
▁ܩܛܠܬ	-8128
▁ܪܩܕܬ	-8129
▁ܪܫܡܢ	-8130
▁ܫܐܠܢ	-8131
▁ܫܠܚܘ	-8132
▁ܫܡܝܥ	-8133
▁ܫܢܝܬ	-8134
▁ܬܐܠܕ	-8135
▁ܬܘܪܗ	-8136
▁ܬܟܘܦ	-8137
▁ܬܢܤܐ	-8138
▁ܬܥܡܠ	-8139
▁ܬܫܬܪ	-8140
ܒܗܪܝܢܢ	-8141
ܒܪܟܝܢܢ	-8142
ܒܪܢܘܬܗ	-8143
ܓܡܢܘܬܐ	-8144
ܕܘܥܘܗܝ	-8145
ܕܝܫܘܗܝ	-8146
ܗܘܕܝܬܐ	-8147
ܗܘܡܐܝܬ	-8148
ܘܠܬܢܝܢ	-8149
ܘܡܩܘܗܝ	-8150
ܘܦܠܝܘܤ	-8151
ܘܬܦܬܘܢ	-8152
ܚܐܪܘܬܐ	-8153
ܚܡܢܘܬܐ	-8154
ܝܬܪܘܗܝ	-8155
ܠܝܚܘܬܐ	-8156
ܢܝܩܗܘܢ	-8157
ܤܢܢܘܬܐ	-8158
ܥܗܕܟܘܢ	-8159
ܥܝܬܗܘܢ	-8160
ܪܘܙܘܬܗ	-8161
ܪܝܗܘܬܐ	-8162
ܪܢܝܐܝܬ	-8163
ܬܢܝܚܘܢ	-8164
▁ܐܘܒܠܘ	-8165
▁ܐܘܤܦܘ	-8166
▁ܐܚܘܝܟ	-8167
▁ܐܛܥܝܬ	-8168
▁ܐܟܪܙܘ	-8169
▁ܐܟܪܙܢ	-8170
▁ܐܠܨܝܢ	-8171
▁ܐܤܒܝܗ	-8172
▁ܐܤܘܪܝ	-8173
▁ܐܤܝܪܢ	-8174
▁ܐܤܟܡܐ	-8175
▁ܐܤܬܠܩ	-8176
▁ܐܩܒܘܪ	-8177
▁ܐܫܠܡܗ	-8178
▁ܐܬܒܕܩ	-8179
▁ܐܬܚܫܚ	-8180
▁ܐܬܛܪܝ	-8181
▁ܐܬܛܫܝ	-8182
▁ܐܬܟܪܗ	-8183
▁ܐܬܠܒܒ	-8184
▁ܐܬܥܒܝ	-8185
▁ܐܬܦܪܫ	-8186
▁ܐܬܦܫܚ	-8187
▁ܐܬܪܥܝ	-8188
▁ܐܬܬܘܝ	-8189
▁ܒܒܝܬܝ	-8190
▁ܒܒܤܪܗ	-8191
▁ܒܗܕܡܝ	-8192
▁ܒܘܩܝܐ	-8193
▁ܒܚܘܒܗ	-8194
▁ܒܚܘܪܐ	-8195
▁ܒܚܝܨܐ	-8196
▁ܒܚܤܕܐ	-8197
▁ܒܚܩܠܐ	-8198
▁ܒܝܫܬܗ	-8199
ܕܦܢܗ	-8200
ܟܝܚܢ	-8201
ܠܨܝܢ	-8202
▁ܐܠܒ	-8203
▁ܚܠܨ	-8204
ܒܐܫܘܢ	-8205
ܛܝܘܬܗ	-8206
ܠܒܘܬܐ	-8207
▁ܒܚܪܢ	-8208
▁ܕܐܠܨ	-8209
▁ܕܒܚܕ	-8210
▁ܕܒܚܝ	-8211
▁ܕܠܒܟ	-8212
▁ܕܪܕܦ	-8213
▁ܘܒܠܒ	-8214
▁ܘܒܡܨ	-8215
▁ܟܤܦܝ	-8216
▁ܡܗܡܐ	-8217
▁ܡܙܕܩ	-8218
▁ܡܠܠܢ	-8219
▁ܡܢܪܢ	-8220
▁ܤܝܡܬ	-8221
▁ܫܠܘܐ	-8222
ܫܢܝܗܘܢ	-8223
▁ܐܠܗܝܐ	-8224
▁ܐܠܗܬܐ	-8225
▁ܐܬܕܟܝ	-8226
▁ܒܕܦܢܗ	-8227
▁ܒܚܪܬܗ	-8228
▁ܒܟܘܪܗ	-8229
▁ܒܟܪܤܐ	-8230
▁ܒܟܪܤܗ	-8231
▁ܒܟܬܒܬ	-8232
▁ܒܠܘܚܐ	-8233
▁ܒܠܚܡܐ	-8234
▁ܒܠܫܢܗ	-8235
▁ܒܡܠܬܗ	-8236
▁ܒܡܥܕܪ	-8237
▁ܒܤܥܪܗ	-8238
▁ܒܤܬܘܐ	-8239
▁ܒܥܘܒܗ	-8240
▁ܒܦܘܡܟ	-8241
▁ܒܦܨܚܐ	-8242
▁ܒܩܝܤܐ	-8243
▁ܒܩܪܛܐ	-8244
▁ܓܒܪܝܐ	-8245
▁ܓܘܫܡܝ	-8246
▁ܓܠܝܢܢ	-8247
▁ܕܐܙܕܪ	-8248
▁ܕܐܙܠܐ	-8249
▁ܕܐܠܦܘ	-8250
▁ܕܐܠܨܢ	-8251
▁ܕܐܫܝܪ	-8252
▁ܕܒܕܪܐ	-8253
▁ܕܒܢܦܫ	-8254
▁ܕܒܤܪܗ	-8255
▁ܕܒܤܪܢ	-8256
▁ܕܕܚܠܬ	-8257
▁ܕܕܡܝܢ	-8258
▁ܕܗܟܘܬ	-8259
▁ܕܘܒܪܝ	-8260
▁ܕܙܥܘܪ	-8261
▁ܕܚܟܝܡ	-8262
▁ܕܚܩܠܐ	-8263
▁ܕܚܪܒܐ	-8264
▁ܕܛܝܒܬ	-8265
▁ܕܟܘܒܐ	-8266
▁ܕܟܪܝܬ	-8267
▁ܕܟܪܡܗ	-8268
▁ܕܠܒܪܘ	-8269
▁ܕܡܓܕܦ	-8270
▁ܕܡܕܪܟ	-8271
▁ܕܡܝܬܘ	-8272
▁ܕܡܠܝܟ	-8273
▁ܕܡܤܝܒ	-8274
▁ܕܡܤܟܐ	-8275
▁ܕܡܥܕܪ	-8276
▁ܕܡܫܕܪ	-8277
▁ܕܡܫܬܚ	-8278
▁ܕܢܛܝܒ	-8279
▁ܕܢܟܤܐ	-8280
▁ܕܢܡܘܬ	-8281
▁ܕܢܩܕܫ	-8282
▁ܕܤܐܡܐ	-8283
▁ܕܤܗܪܐ	-8284
▁ܕܤܝܡܢ	-8285
▁ܕܤܝܢܝ	-8286
▁ܕܤܝܦܐ	-8287
▁ܕܤܡܬܟ	-8288
▁ܕܥܕܠܐ	-8289
▁ܕܦܓܪܝ	-8290
▁ܕܦܩܕܬ	-8291
▁ܕܨܥܝܪ	-8292
▁ܕܩܐܝܢ	-8293
▁ܕܩܕܡܢ	-8294
▁ܕܩܕܩܐ	-8295
▁ܕܩܛܠܐ	-8296
▁ܕܩܝܤܐ	-8297
▁ܕܩܨܡܐ	-8298
▁ܕܫܠܡܘ	-8299
ܐܢ	-8300
ܛܬ	-8301
ܒܢܘ	-8302
ܚܩܘ	-8303
ܛܠܬ	-8304
ܥܪܘ	-8305
ܫܒܢ	-8306
ܫܦܛ	-8307
ܒܝܐܢ	-8308
ܓܙܘܪ	-8309
ܕܟܝܐ	-8310
ܡܘܤܢ	-8311
ܤܝܢܟ	-8312
▁ܐܤܟ	-8313
▁ܕܐܨ	-8314
▁ܚܐܤ	-8315
▁ܚܤܡ	-8316
▁ܛܐܢ	-8317
▁ܢܬܛ	-8318
ܗܘܫܦܛ	-8319
ܙܝܟܘܢ	-8320
ܝܠܕܠܦ	-8321
ܠܝܘܦܐ	-8322
ܤܝܟܘܢ	-8323
▁ܐܒܝܐ	-8324
▁ܐܬܚܪ	-8325
▁ܒܝܬܟ	-8326
▁ܒܟܤܐ	-8327
▁ܒܠܒܢ	-8328
▁ܕܡܚܪ	-8329
▁ܕܪܒܬ	-8330
▁ܕܬܬܥ	-8331
▁ܘܢܬܬ	-8332
▁ܘܩܪܗ	-8333
▁ܝܘܪܩ	-8334
▁ܟܤܝܢ	-8335
▁ܡܕܥܐ	-8336
▁ܡܗܦܟ	-8337
▁ܡܠܝܘ	-8338
▁ܡܩܕܡ	-8339
▁ܢܬܠܢ	-8340
▁ܪܘܓܙ	-8341
▁ܬܘܕܐ	-8342
ܛܦܝܤܘܢ	-8343
ܛܦܝܤܝܢ	-8344
▁ܐܪܚܩܘ	-8345
▁ܐܬܒܢܘ	-8346
▁ܐܬܚܒܠ	-8347
▁ܐܬܚܝܒ	-8348
▁ܐܬܚܠܡ	-8349
▁ܐܬܚܢܢ	-8350
▁ܐܬܚܫܒ	-8351
▁ܕܐܨܒܐ	-8352
▁ܕܡܢܝܢ	-8353
▁ܕܢܘܕܐ	-8354
▁ܕܫܢܬܐ	-8355
▁ܕܫܩܘܠ	-8356
▁ܕܫܪܓܐ	-8357
▁ܕܫܪܝܪ	-8358
▁ܘܐܘܪܒ	-8359
▁ܘܐܦܩܗ	-8360
▁ܘܐܦܩܘ	-8361
▁ܘܐܩܦܘ	-8362
▁ܘܐܫܒܩ	-8363
▁ܘܐܫܠܛ	-8364
▁ܘܒܒܤܪ	-8365
▁ܘܒܟܝܐ	-8366
▁ܘܒܡܠܝ	-8367
▁ܘܒܦܚܐ	-8368
▁ܘܒܪܟܗ	-8369
▁ܘܒܫܡܟ	-8370
▁ܘܒܬܫܒ	-8371
▁ܘܓܝܤܐ	-8372
▁ܘܕܒܫܐ	-8373
▁ܘܕܟܠܗ	-8374
▁ܘܕܢܬܠ	-8375
▁ܘܙܒܢܘ	-8376
▁ܘܚܘܝܗ	-8377
▁ܘܚܛܦܘ	-8378
▁ܘܚܝܠܗ	-8379
▁ܘܚܠܦܘ	-8380
▁ܘܚܡܬܗ	-8381
▁ܘܚܬܡܐ	-8382
▁ܘܛܥܡܘ	-8383
▁ܘܝܗܒܐ	-8384
▁ܘܝܡܡܐ	-8385
▁ܘܟܐܝܢ	-8386
▁ܘܟܬܒܘ	-8387
▁ܘܠܥܠܡ	-8388
▁ܘܠܥܡܐ	-8389
▁ܘܠܥܤܘ	-8390
▁ܘܠܪܤܤ	-8391
▁ܘܠܪܫܐ	-8392
▁ܘܠܫܠܝ	-8393
▁ܘܡܕܟܐ	-8394
▁ܘܡܘܕܐ	-8395
▁ܘܡܘܚܪ	-8396
▁ܘܡܘܫܐ	-8397
▁ܘܡܚܪܩ	-8398
▁ܘܡܛܒܥ	-8399
ܚܠܦ	-8400
ܤܩܘ	-8401
ܦܘܟ	-8402
ܦܪܝ	-8403
ܒܪܢܫ	-8404
ܙܦܝܢ	-8405
ܛܐܝܬ	-8406
ܛܘܪܐ	-8407
ܢܒܝܢ	-8408
ܢܢܝܐ	-8409
ܢܫܘܢ	-8410
ܢܫܝܢ	-8411
ܥܘܬܗ	-8412
ܩܘܪܐ	-8413
▁ܒܡܤ	-8414
▁ܒܥܡ	-8415
▁ܕܕܥ	-8416
▁ܕܫܦ	-8417
▁ܕܬܨ	-8418
▁ܘܡܥ	-8419
▁ܙܩܦ	-8420
▁ܠܒܠ	-8421
▁ܢܟܝ	-8422
▁ܥܙܠ	-8423
ܒܝܬܘܢ	-8424
ܤܝܘܢܝ	-8425
ܤܝܬܘܢ	-8426
▁ܐܬܡܗ	-8427
▁ܒܡܘܠ	-8428
▁ܒܥܘܪ	-8429
▁ܕܐܚܕ	-8430
▁ܕܡܪܟ	-8431
▁ܕܩܝܡ	-8432
▁ܕܬܦܩ	-8433
▁ܘܐܬܛ	-8434
▁ܘܚܤܪ	-8435
▁ܘܠܪܘ	-8436
▁ܘܡܤܝ	-8437
▁ܘܤܘܤ	-8438
▁ܠܒܫܘ	-8439
▁ܠܙܩܐ	-8440
▁ܡܠܝܬ	-8441
▁ܡܡܬܘ	-8442
▁ܡܨܒܬ	-8443
▁ܢܓܗܬ	-8444
▁ܢܝܪܐ	-8445
▁ܢܤܒܐ	-8446
▁ܥܙܠܢ	-8447
▁ܥܡܨܘ	-8448
▁ܫܪܝܬ	-8449
▁ܫܬܩܘ	-8450
▁ܬܫܬܐ	-8451
ܒܗܪܟܘܢ	-8452
ܝܬܘܢܝܐ	-8453
ܥܒܕܟܘܢ	-8454
ܬܐܒܠܘܢ	-8455
▁ܐܚܘܬܗ	-8456
▁ܒܡܚܙܐ	-8457
▁ܕܟܗܢܐ	-8458
▁ܕܫܘܝܐ	-8459
▁ܕܬܫܠܡ	-8460
▁ܘܗܢܝܢ	-8461
▁ܘܠܐܦܝ	-8462
▁ܘܠܨܦܪ	-8463
▁ܘܡܛܝܒ	-8464
▁ܘܡܛܝܢ	-8465
▁ܘܡܝܩܪ	-8466
▁ܘܡܟܢܫ	-8467
▁ܘܡܠܟܘ	-8468
▁ܘܡܠܦܢ	-8469
▁ܘܡܢܟܦ	-8470
▁ܘܡܥܛܦ	-8471
▁ܘܡܦܫܩ	-8472
▁ܘܡܩܕܫ	-8473
▁ܘܡܪܝܐ	-8474
▁ܘܡܪܬܐ	-8475
▁ܘܡܫܘܐ	-8476
▁ܘܡܫܚܗ	-8477
▁ܘܡܫܪܝ	-8478
▁ܘܢܓܕܘ	-8479
▁ܘܢܚܘܐ	-8480
▁ܘܢܚܘܢ	-8481
▁ܘܢܚܘܪ	-8482
▁ܘܢܛܪܘ	-8483
▁ܘܢܨܝܢ	-8484
▁ܘܤܒܪܢ	-8485
▁ܘܤܓܕܬ	-8486
▁ܘܤܟܪܘ	-8487
▁ܘܤܬܘܐ	-8488
▁ܘܥܒܪܘ	-8489
▁ܘܥܛܝܦ	-8490
▁ܘܥܪܩܘ	-8491
▁ܘܦܠܓܗ	-8492
▁ܘܦܠܓܘ	-8493
▁ܘܦܠܚܝ	-8494
▁ܘܦܬܚܬ	-8495
▁ܘܨܗܝܬ	-8496
▁ܘܩܘܝܢ	-8497
▁ܘܩܘܝܬ	-8498
▁ܘܪܒܝܐ	-8499
ܓܪܘ	-8500
ܕܗܒ	-8501
ܘܚܢ	-8502
ܛܪܘ	-8503
ܒܝܬܟ	-8504
ܕܗܒܢ	-8505
ܥܝܢܢ	-8506
ܨܪܝܢ	-8507
ܪܝܚܘ	-8508
▁ܐܘܚ	-8509
▁ܐܤܐ	-8510
▁ܕܟܝ	-8511
▁ܕܠܕ	-8512
▁ܕܠܨ	-8513
▁ܕܬܛ	-8514
▁ܡܥܕ	-8515
▁ܡܫܒ	-8516
▁ܦܝܤ	-8517
▁ܩܕܘ	-8518
ܒܚܪܘܢ	-8519
▁ܐܤܘܪ	-8520
▁ܐܦܩܘ	-8521
▁ܒܝܬܝ	-8522
▁ܕܡܪܥ	-8523
▁ܕܬܚܒ	-8524
▁ܘܕܘܢ	-8525
▁ܘܚܪܘ	-8526
▁ܘܠܟܠ	-8527
▁ܘܠܬܪ	-8528
▁ܘܥܦܩ	-8529
▁ܘܩܝܡ	-8530
▁ܘܩܠܗ	-8531
▁ܘܫܒܝ	-8532
▁ܘܫܘܬ	-8533
▁ܘܫܪܒ	-8534
▁ܢܪܥܐ	-8535
▁ܢܬܟܤ	-8536
▁ܦܘܠܐ	-8537
▁ܩܕܘܫ	-8538
▁ܫܡܥܟ	-8539
▁ܐܡܪܚܘ	-8540
▁ܐܫܬܒܩ	-8541
▁ܐܬܩܒܪ	-8542
▁ܒܡܚܫܒ	-8543
▁ܒܡܫܡܥ	-8544
▁ܕܒܢܝܢ	-8545
▁ܕܚܕܕܐ	-8546
▁ܕܢܩܝܪ	-8547
▁ܕܥܝܢܟ	-8548
▁ܘܐܗܦܟ	-8549
▁ܘܐܡܘܢ	-8550
▁ܘܐܢܫܐ	-8551
▁ܘܓܕܠܘ	-8552
▁ܘܚܘܒܗ	-8553
▁ܘܝܘܚܢ	-8554
▁ܘܠܢܫܐ	-8555
▁ܘܢܦܘܩ	-8556
▁ܘܪܓܡܬ	-8557
▁ܘܪܓܬܗ	-8558
▁ܘܪܗܛܬ	-8559
▁ܘܪܘܝܘ	-8560
▁ܘܪܘܪܒ	-8561
▁ܘܪܥܡܐ	-8562
▁ܘܫܠܘܡ	-8563
▁ܘܫܠܝܬ	-8564
▁ܘܫܡܫܘ	-8565
▁ܘܫܪܓܐ	-8566
▁ܘܫܪܝܢ	-8567
▁ܘܬܙܟܐ	-8568
▁ܘܬܚܙܐ	-8569
▁ܘܬܡܗܐ	-8570
▁ܘܬܪܥܐ	-8571
▁ܙܘܙܝܢ	-8572
▁ܙܘܝܬܗ	-8573
▁ܚܐܝܢܢ	-8574
▁ܚܒܪܬܗ	-8575
▁ܚܓܝܤܐ	-8576
▁ܚܘܒܝܢ	-8577
▁ܚܘܝܒܐ	-8578
▁ܚܘܝܢܝ	-8579
▁ܚܙܝܬܟ	-8580
▁ܚܝܠܬܢ	-8581
▁ܚܢܝܩܐ	-8582
▁ܚܫܘܫܐ	-8583
▁ܚܫܝܒܐ	-8584
▁ܚܬܝܪܐ	-8585
▁ܛܘܒܝܗ	-8586
▁ܛܘܗܡܢ	-8587
▁ܛܘܝܒܗ	-8588
▁ܛܠܡܝܢ	-8589
▁ܛܡܐܬܐ	-8590
▁ܛܪܤܘܤ	-8591
▁ܝܘܐܪܫ	-8592
▁ܝܘܩܪܗ	-8593
▁ܝܩܕܝܢ	-8594
▁ܟܠܡܝܤ	-8595
▁ܟܢܘܬܗ	-8596
▁ܟܤܝܬܐ	-8597
▁ܠܐܒܘܗ	-8598
▁ܠܐܓܘܪ	-8599
ܩܤ	-8600
ܓܠܘ	-8601
ܕܪܗ	-8602
ܟܚܕ	-8603
ܠܬܝ	-8604
ܩܛܥ	-8605
ܪܪܘ	-8606
ܬܝܘ	-8607
▁ܦܘ	-8608
ܒܘܥܐ	-8609
ܓܒܪܐ	-8610
ܘܦܘܢ	-8611
ܘܪܦܐ	-8612
ܠܘܕܝ	-8613
ܠܘܦܐ	-8614
ܢܬܬܗ	-8615
ܤܝܢܐ	-8616
ܪܥܝܢ	-8617
ܬܝܡܐ	-8618
▁ܕܟܢ	-8619
▁ܕܩܛ	-8620
▁ܕܩܪ	-8621
▁ܚܐܫ	-8622
▁ܚܡܤ	-8623
▁ܛܒܢ	-8624
▁ܡܚܡ	-8625
▁ܫܡܘ	-8626
ܒܪܐܝܬ	-8627
ܝܩܪܝܢ	-8628
ܫܒܩܘܢ	-8629
▁ܐܫܒܚ	-8630
▁ܒܛܟܤ	-8631
▁ܕܠܒܝ	-8632
▁ܕܢܚܒ	-8633
▁ܕܢܩܫ	-8634
▁ܘܒܠܐ	-8635
▁ܘܕܒܝ	-8636
▁ܘܚܘܝ	-8637
▁ܘܥܕܪ	-8638
▁ܘܥܡܢ	-8639
▁ܚܡܫܬ	-8640
▁ܠܐܠܘ	-8641
▁ܠܘܝܐ	-8642
▁ܠܛܘܪ	-8643
▁ܠܡܚܫ	-8644
▁ܡܐܢܬ	-8645
▁ܡܬܝܕ	-8646
▁ܤܓܕܬ	-8647
▁ܬܫܡܥ	-8648
ܒܝܐܝܢܢ	-8649
ܝܒܪܟܘܢ	-8650
ܠܕܝܗܘܢ	-8651
ܠܘܕܝܘܤ	-8652
▁ܐܪܤܛܪ	-8653
▁ܐܬܢܝܐ	-8654
▁ܒܒܤܝܡ	-8655
▁ܒܗܘܦܟ	-8656
▁ܒܛܟܤܗ	-8657
▁ܕܐܡܚܐ	-8658
▁ܕܒܡܠܐ	-8659
▁ܕܒܪܩܐ	-8660
▁ܕܝܗܒܐ	-8661
▁ܕܟܢܥܢ	-8662
▁ܕܠܘܬܗ	-8663
▁ܕܠܪܫܐ	-8664
▁ܕܡܛܝܒ	-8665
▁ܕܩܒܪܐ	-8666
▁ܕܩܥܝܢ	-8667
▁ܕܬܚܘܢ	-8668
▁ܗܢܝܢܐ	-8669
▁ܘܥܐܠܢ	-8670
▁ܘܥܠܝܢ	-8671
▁ܙܡܪܝܢ	-8672
▁ܙܪܥܝܢ	-8673
▁ܠܐܝܫܝ	-8674
▁ܠܐܬܪܗ	-8675
▁ܠܒܘܫܗ	-8676
▁ܠܒܤܬܪ	-8677
▁ܠܕܒܪܐ	-8678
▁ܠܕܥܒܕ	-8679
▁ܠܕܪܒܐ	-8680
▁ܠܕܪܬܗ	-8681
▁ܠܚܤܝܟ	-8682
▁ܠܚܨܕܐ	-8683
▁ܠܚܨܕܗ	-8684
▁ܠܟܠܚܕ	-8685
▁ܠܟܪܡܐ	-8686
▁ܠܟܬܢܐ	-8687
▁ܠܡܒܥܐ	-8688
▁ܠܡܚܨܕ	-8689
▁ܠܡܦܪܫ	-8690
▁ܠܡܫܩܠ	-8691
▁ܠܡܬܟܬ	-8692
▁ܠܦܐܪܐ	-8693
▁ܠܨܠܡܐ	-8694
▁ܠܨܥܪܐ	-8695
▁ܡܕܢܚܝ	-8696
▁ܡܠܓܝܢ	-8697
▁ܡܤܪܗܒ	-8698
▁ܡܥܕܪܐ	-8699
ܓܝܘ	-8700
ܕܝܛ	-8701
ܘܒܟ	-8702
ܟܐܐ	-8703
ܠܝܛ	-8704
ܡܙܘ	-8705
ܬܝܗ	-8706
ܬܝܬ	-8707
▁ܩܠ	-8708
▁ܩܨ	-8709
▁ܪܟ	-8710
ܒܠܘܡ	-8711
ܕܝܛܤ	-8712
ܕܝܢܝ	-8713
ܘܡܚܐ	-8714
ܙܠܝܢ	-8715
ܠܝܕܝ	-8716
ܡܢܘܢ	-8717
ܥܒܕܘ	-8718
ܫܗܘܢ	-8719
▁ܐܤܪ	-8720
▁ܒܢܦ	-8721
▁ܕܫܬ	-8722
▁ܙܘܓ	-8723
▁ܚܬܡ	-8724
▁ܡܐܢ	-8725
▁ܡܬܡ	-8726
▁ܢܦܐ	-8727
▁ܢܦܤ	-8728
ܘܟܢܝܐ	-8729
ܘܡܘܗܝ	-8730
ܠܝܗܝܢ	-8731
ܫܥܗܘܢ	-8732
▁ܐܝܫܝ	-8733
▁ܕܢܘܒ	-8734
▁ܕܢܘܚ	-8735
▁ܗܠܟܢ	-8736
▁ܘܒܬܐ	-8737
▁ܘܚܡܐ	-8738
▁ܘܡܠܬ	-8739
▁ܘܦܫܝ	-8740
▁ܘܨܒܘ	-8741
▁ܚܘܒܟ	-8742
▁ܚܫܝܢ	-8743
▁ܠܡܬܚ	-8744
▁ܠܥܡܢ	-8745
▁ܡܚܝܢ	-8746
▁ܢܕܝܕ	-8747
▁ܢܦܫܬ	-8748
▁ܢܬܪܥ	-8749
▁ܥܘܠܢ	-8750
ܬܢܝܐܝܠ	-8751
▁ܒܕܪܬܐ	-8752
▁ܒܢܦܫܝ	-8753
▁ܒܥܒܕܗ	-8754
▁ܒܦܘܡܗ	-8755
▁ܕܕܝܠܟ	-8756
▁ܕܚܒܪܗ	-8757
▁ܕܚܠܝܛ	-8758
▁ܕܢܓܕܦ	-8759
▁ܕܢܦܫܐ	-8760
▁ܕܪܝܚܐ	-8761
▁ܘܐܙܝܥ	-8762
▁ܘܒܟܘܢ	-8763
▁ܘܒܡܫܬ	-8764
▁ܘܒܢܝܗ	-8765
▁ܘܓܒܝܐ	-8766
▁ܘܕܝܠܝ	-8767
▁ܘܢܐܙܠ	-8768
▁ܘܢܫܬܐ	-8769
▁ܘܪܡܙܘ	-8770
▁ܠܡܕܝܢ	-8771
▁ܠܡܙܪܥ	-8772
▁ܠܡܟܐܐ	-8773
▁ܡܥܠܢܐ	-8774
▁ܡܨܒܬܢ	-8775
▁ܡܪܒܝܢ	-8776
▁ܡܪܗܘܢ	-8777
▁ܡܫܟܢܗ	-8778
▁ܡܫܠܛܐ	-8779
▁ܡܬܐܡܪ	-8780
▁ܡܬܟܫܠ	-8781
▁ܡܬܦܬܚ	-8782
▁ܡܬܪܕܦ	-8783
▁ܡܬܪܝܢ	-8784
▁ܡܬܬܩܠ	-8785
▁ܢܒܥܘܢ	-8786
▁ܢܓܠܘܢ	-8787
▁ܢܗܪܝܢ	-8788
▁ܢܚܘܘܢ	-8789
▁ܢܚܛܘܦ	-8790
▁ܢܚܫܘܒ	-8791
▁ܢܚܫܘܢ	-8792
▁ܢܟܝܠܐ	-8793
▁ܢܡܠܠܢ	-8794
▁ܢܤܬܪܩ	-8795
▁ܢܦܐܫܐ	-8796
▁ܢܩܪܘܢ	-8797
▁ܢܪܓܘܡ	-8798
▁ܢܫܬܒܚ	-8799
ܫܪ	-8800
ܒܘܤ	-8801
ܗܝܗ	-8802
ܚܕܐ	-8803
ܚܡܢ	-8804
ܚܡܬ	-8805
ܝܐܗ	-8806
ܠܡܬ	-8807
ܡܢܗ	-8808
ܡܪܗ	-8809
ܦܟܝ	-8810
▁ܟܗ	-8811
ܕܟܘܢ	-8812
ܙܘܗܝ	-8813
ܡܘܤܝ	-8814
▁ܐܕܥ	-8815
▁ܕܐܓ	-8816
▁ܘܚܨ	-8817
▁ܠܡܓ	-8818
▁ܢܒܝ	-8819
▁ܨܘܪ	-8820
▁ܬܪܓ	-8821
ܘܬܘܬܐ	-8822
ܟܝܬܘܢ	-8823
ܥܝܘܬܗ	-8824
▁ܐܦܢܐ	-8825
▁ܐܪܚܡ	-8826
▁ܕܒܪܘ	-8827
▁ܕܟܦܢ	-8828
▁ܕܫܢܐ	-8829
▁ܘܒܟܘ	-8830
▁ܘܕܪܘ	-8831
▁ܘܟܘܢ	-8832
▁ܘܡܢܫ	-8833
▁ܘܨܥܪ	-8834
▁ܚܡܪܗ	-8835
▁ܡܝܬܢ	-8836
▁ܡܫܬܡ	-8837
▁ܢܟܪܙ	-8838
▁ܢܦܠܐ	-8839
▁ܥܡܝܢ	-8840
▁ܦܪܩܢ	-8841
▁ܨܒܘܢ	-8842
▁ܪܘܝܐ	-8843
▁ܬܪܓܙ	-8844
▁ܬܬܚܠ	-8845
ܫܝܛܘܬܐ	-8846
▁ܐܓܒܘܤ	-8847
▁ܒܟܦܢܐ	-8848
▁ܓܘܡܪܐ	-8849
▁ܕܓܗܢܐ	-8850
▁ܕܘܟܝܐ	-8851
▁ܕܡܩܝܡ	-8852
▁ܗܘܦܟܝ	-8853
▁ܘܐܩܪܒ	-8854
▁ܘܠܒܢܝ	-8855
▁ܘܩܫܬܐ	-8856
▁ܘܫܒܩܗ	-8857
▁ܟܐܒܝܢ	-8858
▁ܠܘܕܝܐ	-8859
▁ܡܒܕܪܘ	-8860
▁ܡܫܬܒܚ	-8861
▁ܡܬܪܚܡ	-8862
▁ܢܤܓܘܢ	-8863
▁ܢܫܬܠܡ	-8864
▁ܢܬܛܥܡ	-8865
▁ܢܬܢܤܒ	-8866
▁ܢܬܥܕܪ	-8867
▁ܢܬܩܕܡ	-8868
▁ܢܬܪܘܨ	-8869
▁ܢܬܪܥܐ	-8870
▁ܢܬܪܥܥ	-8871
▁ܤܝܒܪܘ	-8872
▁ܤܝܒܪܬ	-8873
▁ܤܝܡܬܗ	-8874
▁ܤܦܩܝܢ	-8875
▁ܤܪܕܘܢ	-8876
▁ܥܒܕܝܗ	-8877
▁ܥܒܘܕܐ	-8878
▁ܥܒܘܕܗ	-8879
▁ܥܒܝܕܐ	-8880
▁ܥܘܒܝܕ	-8881
▁ܥܘܩܒܐ	-8882
▁ܥܝܢܝܗ	-8883
▁ܥܠܬܘܢ	-8884
▁ܥܡܪܝܢ	-8885
▁ܥܪܒܝܢ	-8886
▁ܥܪܩܝܢ	-8887
▁ܥܪܩܬܐ	-8888
▁ܦܘܠܓܐ	-8889
▁ܦܘܡܝܗ	-8890
▁ܦܘܫܩܐ	-8891
▁ܦܟܘܗܝ	-8892
▁ܦܠܓܘܬ	-8893
▁ܦܠܫܝܢ	-8894
▁ܦܪܥܘܢ	-8895
▁ܦܫܝܩܐ	-8896
▁ܨܦܪܝܢ	-8897
▁ܩܒܘܬܐ	-8898
▁ܩܘܒܠܐ	-8899
ܕܘܤ	-8900
ܗܝܐ	-8901
ܛܠܒ	-8902
ܟܝܒ	-8903
ܟܤܘ	-8904
ܠܬܗ	-8905
ܡܤܢ	-8906
ܢܝܘ	-8907
ܦܛܘ	-8908
ܨܝܕ	-8909
ܩܘܗ	-8910
ܫܪܐ	-8911
ܬܪܬ	-8912
▁ܥܝ	-8913
▁ܩܦ	-8914
▁ܫܢ	-8915
ܕܝܢܘ	-8916
ܙܝܥܘ	-8917
ܝܡܘܢ	-8918
ܟܘܬܐ	-8919
ܡܟܝܟ	-8920
ܫܝܬܐ	-8921
▁ܐܬܟ	-8922
▁ܒܝܐ	-8923
▁ܓܢܝ	-8924
▁ܘܫܝ	-8925
▁ܚܘܘ	-8926
▁ܢܠܐ	-8927
▁ܤܘܢ	-8928
▁ܬܠܐ	-8929
ܠܝܟܘܢ	-8930
▁ܐܓܪܘ	-8931
▁ܐܘܕܐ	-8932
▁ܒܚܘܤ	-8933
▁ܒܟܡܐ	-8934
▁ܒܢܫܐ	-8935
▁ܕܬܤܩ	-8936
▁ܗܦܟܐ	-8937
▁ܗܦܟܬ	-8938
▁ܘܒܝܢ	-8939
▁ܘܢܘܟ	-8940
▁ܛܚܢܢ	-8941
▁ܟܝܢܐ	-8942
▁ܡܐܢܝ	-8943
▁ܡܘܪܒ	-8944
▁ܡܚܡܥ	-8945
▁ܢܓܕܗ	-8946
▁ܢܝܪܝ	-8947
▁ܢܫܘܐ	-8948
▁ܫܠܕܗ	-8949
▁ܐܤܘܬܐ	-8950
▁ܐܬܪܝܡ	-8951
▁ܕܡܫܟܐ	-8952
▁ܕܢܢܛܪ	-8953
▁ܕܢܬܦܠ	-8954
▁ܕܥܕܝܢ	-8955
▁ܘܩܘܡܘ	-8956
▁ܘܪܟܝܒ	-8957
▁ܠܝܘܡܗ	-8958
▁ܠܦܠܓܗ	-8959
▁ܠܫܒܬܐ	-8960
▁ܡܬܟܘܢ	-8961
▁ܢܚܡܤܢ	-8962
▁ܥܝܢܬܐ	-8963
▁ܩܝܬܪܐ	-8964
▁ܩܢܝܢܟ	-8965
▁ܩܢܢܝܐ	-8966
▁ܩܤܪܝܐ	-8967
▁ܩܪܝܒܗ	-8968
▁ܩܫܝܬܐ	-8969
▁ܪܓܠܝܗ	-8970
▁ܪܓܡܝܢ	-8971
▁ܪܕܝܢܢ	-8972
▁ܪܕܦܝܢ	-8973
▁ܪܗܘܡܐ	-8974
▁ܪܘܙܝܢ	-8975
▁ܪܘܡܚܐ	-8976
▁ܪܟܝܟܐ	-8977
▁ܫܘܒܚܝ	-8978
▁ܫܘܠܡܗ	-8979
▁ܫܘܥܒܕ	-8980
▁ܫܝܦܘܪ	-8981
▁ܫܟܝܚܢ	-8982
▁ܫܡܘܥܐ	-8983
▁ܫܥܒܕܬ	-8984
▁ܫܩܘܗܝ	-8985
▁ܫܫܠܬܐ	-8986
▁ܬܐܓܝܢ	-8987
▁ܬܐܪܬܗ	-8988
▁ܬܒܟܝܢ	-8989
▁ܬܒܠܘܡ	-8990
▁ܬܘܩܠܐ	-8991
▁ܬܘܬܪܝ	-8992
▁ܬܚܙܝܢ	-8993
▁ܬܛܪܘܢ	-8994
▁ܬܟܝܠܐ	-8995
▁ܬܤܒܘܢ	-8996
▁ܬܤܬܬܪ	-8997
▁ܬܦܠܘܚ	-8998
▁ܬܦܩܘܢ	-8999
ܒܟ	-9000
ܛܦܬ	-9001
▁ܦܢ	-9002
ܘܩܕܐ	-9003
ܚܐܝܬ	-9004
ܩܘܠܝ	-9005
ܫܚܝܢ	-9006
▁ܐܤܘ	-9007
▁ܒܥܪ	-9008
▁ܕܒܤ	-9009
▁ܕܝܡ	-9010
▁ܕܥܬ	-9011
▁ܘܚܫ	-9012
▁ܚܐܒ	-9013
▁ܚܪܫ	-9014
▁ܛܢܘ	-9015
▁ܠܓܐ	-9016
▁ܢܓܕ	-9017
▁ܤܩܐ	-9018
▁ܤܬܪ	-9019
▁ܥܢܗ	-9020
▁ܦܘܢ	-9021
▁ܫܕܐ	-9022
ܗܕܘܬܗ	-9023
ܗܝܡܢܘ	-9024
ܠܦܘܗܝ	-9025
ܬܪܝܢܢ	-9026
▁ܒܝܬܢ	-9027
▁ܕܒܘܚ	-9028
▁ܕܒܫܐ	-9029
▁ܕܡܘܠ	-9030
▁ܕܡܤܪ	-9031
▁ܕܪܥܐ	-9032
▁ܕܬܫܘ	-9033
▁ܘܕܝܬ	-9034
▁ܘܕܦܪ	-9035
▁ܘܚܡܫ	-9036
▁ܘܠܥܘ	-9037
▁ܘܫܘܐ	-9038
▁ܠܝܘܪ	-9039
▁ܠܩܪܝ	-9040
▁ܦܝܤܐ	-9041
▁ܪܓܝܢ	-9042
▁ܫܛܝܐ	-9043
▁ܬܓܪܐ	-9044
▁ܬܤܝܡ	-9045
ܟܪܤܛܝܐ	-9046
ܤܝܒܪܘܢ	-9047
ܩܘܠܝܛܐ	-9048
▁ܐܕܪܟܬ	-9049
▁ܐܝܤܘܢ	-9050
▁ܒܚܝܠܗ	-9051
▁ܓܝܪܬܐ	-9052
▁ܕܝܡܝܬ	-9053
▁ܕܝܬܪܘ	-9054
▁ܕܠܬܚܬ	-9055
▁ܕܢܒܥܐ	-9056
▁ܘܩܪܝܢ	-9057
▁ܘܪܢܝܐ	-9058
▁ܘܬܩܪܐ	-9059
▁ܠܐܡܪܐ	-9060
▁ܠܕܐܝܬ	-9061
▁ܠܡܐܪܬ	-9062
▁ܠܦܘܡܐ	-9063
▁ܠܩܛܝܢ	-9064
▁ܡܘܠܟܢ	-9065
▁ܬܦܪܘܫ	-9066
▁ܬܩܢܘܢ	-9067
▁ܬܪܝܨܐ	-9068
▁ܬܪܢܘܤ	-9069
▁ܬܬܟܤܐ	-9070
▁ܬܬܦܠܓ	-9071
▁ܬܬܩܛܥ	-9072
ܗܘܕܝܘܬܐ	-9073
ܘܩܕܢܘܗܝ	-9074
ܝܠܕܠܦܝܐ	-9075
ܡܠܠܝܘܗܝ	-9076
ܤܝܦܘܪܘܤ	-9077
ܦܠܓܝܘܗܝ	-9078
ܦܪܘܕܝܛܤ	-9079
ܫܝܫܝܟܘܢ	-9080
ܫܟܚܘܢܢܝ	-9081
▁ܐܒܕܝܢܢ	-9082
▁ܐܕܪܘܗܝ	-9083
▁ܐܘܪܚܬܝ	-9084
▁ܐܙܕܪܥܘ	-9085
▁ܐܚܕܘܗܝ	-9086
▁ܐܝܪܝܚܘ	-9087
▁ܐܠܗܗܘܢ	-9088
▁ܐܠܝܥܙܪ	-9089
▁ܐܠܝܩܝܡ	-9090
▁ܐܤܛܕܘܢ	-9091
▁ܐܤܛܤܝܤ	-9092
▁ܐܤܩܘܗܝ	-9093
▁ܐܤܬܪܩܘ	-9094
▁ܐܥܒܕܝܗ	-9095
▁ܐܥܠܘܗܝ	-9096
▁ܐܦܪܤܢܐ	-9097
▁ܐܪܛܡܝܤ	-9098
▁ܐܫܬܟܚܘ	-9099
ܬܠ	-9100
ܓܝܪ	-9101
ܓܪܓ	-9102
ܨܘܢ	-9103
ܩܕܝ	-9104
ܫܘܕ	-9105
ܓܠܬܗ	-9106
ܕܢܝܢ	-9107
ܝܪܝܐ	-9108
ܝܪܡܐ	-9109
ܤܬܠܐ	-9110
ܩܬܘܢ	-9111
ܬܪܚܘ	-9112
▁ܐܩܦ	-9113
▁ܒܪܩ	-9114
▁ܕܐܛ	-9115
▁ܘܛܘ	-9116
▁ܠܒܫ	-9117
▁ܢܝܢ	-9118
▁ܤܤܐ	-9119
ܝܠܘܗܝ	-9120
ܡܪܓܕܐ	-9121
ܪܒܘܗܝ	-9122
▁ܐܡܬܠ	-9123
▁ܐܫܘܕ	-9124
▁ܓܦܝܢ	-9125
▁ܕܢܟܐ	-9126
▁ܘܗܪܛ	-9127
▁ܘܚܕܝ	-9128
▁ܘܦܤܩ	-9129
▁ܚܡܫܥ	-9130
▁ܝܕܝܥ	-9131
▁ܟܦܪܬ	-9132
▁ܡܘܬܗ	-9133
▁ܡܝܬܪ	-9134
▁ܢܦܩܕ	-9135
▁ܢܫܕܐ	-9136
▁ܢܬܕܘ	-9137
▁ܤܐܝܢ	-9138
▁ܦܚܪܐ	-9139
▁ܐܦܤܝܐ	-9140
▁ܐܬܪܡܝ	-9141
▁ܒܥܘܬܐ	-9142
▁ܓܪܒܝܐ	-9143
▁ܕܐܛܥܝ	-9144
▁ܕܐܫܡܥ	-9145
▁ܕܡܬܬܚ	-9146
▁ܕܢܦܪܩ	-9147
▁ܕܪܕܝܢ	-9148
▁ܘܐܙܡܪ	-9149
▁ܘܒܗܘܢ	-9150
▁ܘܕܫܡܥ	-9151
▁ܘܠܥܙܪ	-9152
▁ܘܫܬܩܘ	-9153
▁ܘܬܓܪܐ	-9154
▁ܠܡܐܢܐ	-9155
▁ܡܓܠܬܗ	-9156
▁ܡܛܠܠܝ	-9157
▁ܡܨܥܬܗ	-9158
▁ܢܡܘܤܗ	-9159
▁ܢܬܕܘܕ	-9160
▁ܩܡܬܘܢ	-9161
▁ܫܢܘܗܝ	-9162
▁ܬܫܪܘܢ	-9163
▁ܬܬܕܒܪ	-9164
▁ܬܬܕܝܢ	-9165
▁ܐܫܬܠܡܬ	-9166
▁ܐܫܬܥܝܘ	-9167
▁ܐܫܬܩܕܝ	-9168
▁ܐܬܐܠܨܢ	-9169
▁ܐܬܐܠܨܬ	-9170
▁ܐܬܐܤܝܬ	-9171
▁ܐܬܒܕܪܘ	-9172
▁ܐܬܓܒܝܢ	-9173
▁ܐܬܓܡܪܬ	-9174
▁ܐܬܕܟܝܘ	-9175
▁ܐܬܕܡܝܬ	-9176
▁ܐܬܗܝܡܢ	-9177
▁ܐܬܗܦܟܢ	-9178
▁ܐܬܚܙܝܘ	-9179
▁ܐܬܚܙܝܬ	-9180
▁ܐܬܚܪܪܬ	-9181
▁ܐܬܚܫܒܘ	-9182
▁ܐܬܚܫܒܬ	-9183
▁ܐܬܚܫܚܢ	-9184
▁ܐܬܛܥܡܬ	-9185
▁ܐܬܝܐܝܢ	-9186
▁ܐܬܝܠܕܬ	-9187
▁ܐܬܟܬܒܬ	-9188
▁ܐܬܢܒܝܘ	-9189
▁ܐܬܥܘܪܘ	-9190
▁ܐܬܦܨܚܘ	-9191
▁ܐܬܩܪܒܘ	-9192
▁ܐܬܩܪܝܘ	-9193
▁ܐܬܪܚܡܬ	-9194
▁ܐܬܪܡܝܘ	-9195
▁ܐܬܬܚܕܘ	-9196
▁ܐܬܬܢܝܚ	-9197
▁ܐܬܬܩܠܘ	-9198
▁ܒܐܤܛܘܐ	-9199
ܒܩܘ	-9200
ܘܒܢ	-9201
ܙܝܐ	-9202
ܥܪܝ	-9203
ܘܡܨܐ	-9204
ܘܪܢܐ	-9205
ܟܗܘܢ	-9206
ܠܦܢܐ	-9207
ܦܝܦܐ	-9208
ܩܘܝܢ	-9209
ܫܘܝܐ	-9210
▁ܐܤܩ	-9211
▁ܒܫܬ	-9212
▁ܘܡܗ	-9213
▁ܝܥܐ	-9214
▁ܟܘܤ	-9215
▁ܤܟܐ	-9216
▁ܤܡܢ	-9217
▁ܥܒܐ	-9218
▁ܪܡܙ	-9219
▁ܫܕܘ	-9220
▁ܬܡܗ	-9221
ܘܚܝܢܢ	-9222
ܝܬܗܘܢ	-9223
ܟܝܟܘܢ	-9224
ܡܘܪܢܐ	-9225
ܡܪܝܬܐ	-9226
ܤܝܡܘܤ	-9227
▁ܕܡܒܪ	-9228
▁ܘܗܘܝ	-9229
▁ܘܟܦܢ	-9230
▁ܘܫܐܒ	-9231
▁ܚܪܡܐ	-9232
▁ܠܒܪܬ	-9233
▁ܠܚܡܗ	-9234
▁ܥܩܬܐ	-9235
▁ܩܝܢܢ	-9236
▁ܫܘܝܐ	-9237
▁ܒܛܢܢܐ	-9238
▁ܒܫܝܢܐ	-9239
▁ܒܫܠܡܗ	-9240
▁ܒܫܡܫܐ	-9241
▁ܕܐܬܢܟ	-9242
▁ܕܚܫܝܢ	-9243
▁ܕܟܠܡܢ	-9244
▁ܕܟܬܢܐ	-9245
▁ܕܡܘܡܐ	-9246
▁ܕܢܦܩܐ	-9247
▁ܘܐܟܘܠ	-9248
▁ܘܐܪܡܐ	-9249
▁ܘܝܘܡܐ	-9250
▁ܘܠܩܫܝ	-9251
▁ܘܡܠܬܝ	-9252
▁ܘܢܘܪܐ	-9253
▁ܘܤܝܡܘ	-9254
▁ܘܥܪܒܐ	-9255
▁ܘܩܒܠܘ	-9256
▁ܚܕܪܝܗ	-9257
▁ܟܘܬܡܐ	-9258
▁ܟܝܠܬܐ	-9259
▁ܠܒܘܬܐ	-9260
▁ܢܫܬܐܠ	-9261
▁ܦܘܩܕܢ	-9262
▁ܬܬܓܕܦ	-9263
▁ܬܬܚܫܒ	-9264
▁ܒܓܘܡܨܐ	-9265
▁ܒܕܝܢܪܐ	-9266
▁ܒܕܡܥܝܗ	-9267
▁ܒܗܕܡܝܢ	-9268
▁ܒܘܠܘܛܐ	-9269
▁ܒܚܘܤܢܐ	-9270
▁ܒܚܛܗܝܢ	-9271
▁ܒܚܛܝܬܐ	-9272
▁ܒܚܪܝܢܐ	-9273
▁ܒܝܠܝܕܝ	-9274
▁ܒܝܬܟܘܢ	-9275
▁ܒܠܐܘܬܐ	-9276
▁ܒܠܒܘܫܐ	-9277
▁ܒܠܒܘܬܢ	-9278
▁ܒܡܐܟܠܐ	-9279
▁ܒܡܚܘܬܐ	-9280
▁ܒܡܛܪܬܐ	-9281
▁ܒܡܡܠܠܐ	-9282
▁ܒܢܗܝܪܐ	-9283
▁ܒܢܘܗܪܗ	-9284
▁ܒܤܘܓܐܐ	-9285
▁ܒܤܘܟܝܗ	-9286
▁ܒܤܦܘܬܗ	-9287
▁ܒܤܪܗܘܢ	-9288
▁ܒܤܪܟܘܢ	-9289
▁ܒܥܪܤܬܐ	-9290
▁ܒܦܓܪܝܢ	-9291
▁ܒܦܩܥܬܐ	-9292
▁ܒܦܪܨܘܦ	-9293
▁ܒܨܒܝܢܝ	-9294
▁ܒܨܗܝܘܢ	-9295
▁ܒܩܝܡܬܗ	-9296
▁ܒܩܪܝܬܗ	-9297
▁ܒܪܘܓܙܝ	-9298
▁ܒܫܘܘܕܥ	-9299
ܓܬ	-9300
ܠܝܓ	-9301
ܥܩܪ	-9302
▁ܫܟ	-9303
ܕܠܝܢ	-9304
ܘܪܫܐ	-9305
ܟܘܬܗ	-9306
ܡܘܗܝ	-9307
ܢܩܘܢ	-9308
ܤܪܘܢ	-9309
▁ܒܤܕ	-9310
▁ܘܡܟ	-9311
▁ܠܟܘ	-9312
▁ܪܫܡ	-9313
ܝܠܘܬܗ	-9314
▁ܐܟܘܠ	-9315
▁ܐܫܬܦ	-9316
▁ܒܤܪܗ	-9317
▁ܒܩܠܗ	-9318
▁ܒܪܫܘ	-9319
▁ܕܐܪܥ	-9320
▁ܕܒܠܐ	-9321
▁ܕܚܙܩ	-9322
▁ܕܠܘܛ	-9323
▁ܕܡܕܚ	-9324
▁ܕܪܫܐ	-9325
▁ܘܕܢܪ	-9326
▁ܘܥܡܕ	-9327
▁ܠܘܩܐ	-9328
▁ܡܚܝܬ	-9329
▁ܡܛܝܬ	-9330
▁ܡܪܥܐ	-9331
▁ܡܫܪܐ	-9332
▁ܡܬܦܪ	-9333
▁ܢܛܪܐ	-9334
▁ܢܥܡܕ	-9335
▁ܨܠܝܘ	-9336
▁ܬܕܡܪ	-9337
ܚܙܝܘܗܝ	-9338
▁ܓܘܫܡܗ	-9339
▁ܕܐܚܕܬ	-9340
▁ܕܗܘܝܐ	-9341
▁ܕܚܠܬܗ	-9342
▁ܕܠܐܒܐ	-9343
▁ܕܠܗܢܐ	-9344
▁ܕܡܨܚܐ	-9345
▁ܕܢܝܬܐ	-9346
▁ܕܬܩܒܠ	-9347
▁ܘܒܪܕܐ	-9348
▁ܘܡܬܚܤ	-9349
▁ܘܢܩܪܒ	-9350
▁ܘܥܪܘܩ	-9351
▁ܘܩܢܝܐ	-9352
▁ܘܪܕܝܐ	-9353
▁ܝܘܬܪܢ	-9354
▁ܠܒܝܬܝ	-9355
▁ܡܛܠܠܐ	-9356
▁ܡܨܥܬܐ	-9357
▁ܡܪܒܥܐ	-9358
▁ܡܬܬܥܝ	-9359
▁ܥܘܬܪܗ	-9360
▁ܬܐܚܘܕ	-9361
ܩܪܘܢܝܗܝ	-9362
▁ܐܚܝܗܘܢ	-9363
▁ܐܬܝܬܘܢ	-9364
▁ܒܤܕܘܢܐ	-9365
▁ܒܪܫܘܡܐ	-9366
▁ܒܫܪܒܬܐ	-9367
▁ܒܬܚܘܡܐ	-9368
▁ܒܬܢܘܪܐ	-9369
▁ܒܬܢܚܬܐ	-9370
▁ܒܬܪܬܝܢ	-9371
▁ܓܐܠܝܘܢ	-9372
▁ܓܢܒܘܬܐ	-9373
▁ܓܪܡܘܗܝ	-9374
▁ܕܐܒܗܬܐ	-9375
▁ܕܐܓܪܬܐ	-9376
▁ܕܐܚܝܕܢ	-9377
▁ܕܐܚܫܡܘ	-9378
▁ܕܐܡܝܪܐ	-9379
▁ܕܐܢܫܝܢ	-9380
▁ܕܐܤܗܕܘ	-9381
▁ܕܐܤܬܒܪ	-9382
▁ܕܐܦܤܘܤ	-9383
▁ܕܐܪܡܝܐ	-9384
▁ܕܐܫܟܚܗ	-9385
▁ܕܐܫܠܡܗ	-9386
▁ܕܐܫܠܡܘ	-9387
▁ܕܐܫܬܒܩ	-9388
▁ܕܐܬܒܛܠ	-9389
▁ܕܐܬܚܙܝ	-9390
▁ܕܐܬܚܛܦ	-9391
▁ܕܐܬܢܝܚ	-9392
▁ܕܐܬܪܡܝ	-9393
▁ܕܒܒܝܬܟ	-9394
▁ܕܒܓܠܝܐ	-9395
▁ܕܒܗܬܬܐ	-9396
▁ܕܒܘܩܝܐ	-9397
▁ܕܒܡܘܬܗ	-9398
▁ܕܒܥܝܢܗ	-9399
ܓܘܤ	-9400
ܘܤܩ	-9401
ܘܩܘ	-9402
ܤܝܩ	-9403
ܥܠܝ	-9404
ܦܪܩ	-9405
ܩܥܐ	-9406
▁ܛܫ	-9407
ܓܒܝܢ	-9408
ܤܪܝܠ	-9409
ܬܟܬܒ	-9410
▁ܒܕܥ	-9411
▁ܘܩܦ	-9412
▁ܠܒܛ	-9413
▁ܢܩܒ	-9414
▁ܦܘܠ	-9415
▁ܦܢܝ	-9416
▁ܦܤܩ	-9417
▁ܦܪܨ	-9418
▁ܬܕܡ	-9419
▁ܬܘܠ	-9420
ܕܪܟܘܢ	-9421
ܘܤܩܡܐ	-9422
ܢܝܘܗܝ	-9423
▁ܐܒܥܐ	-9424
▁ܕܐܪܬ	-9425
▁ܕܡܥܐ	-9426
▁ܕܡܫܠ	-9427
▁ܘܐܓܪ	-9428
▁ܘܐܕܥ	-9429
▁ܘܕܒܗ	-9430
▁ܘܚܘܬ	-9431
▁ܘܚܬܝ	-9432
▁ܘܟܠܐ	-9433
▁ܠܐܦܝ	-9434
▁ܠܫܠܝ	-9435
▁ܢܤܢܐ	-9436
▁ܪܛܢܐ	-9437
▁ܬܘܝܐ	-9438
ܕܥܝܟܘܢ	-9439
▁ܐܟܙܢܐ	-9440
▁ܒܟܠܢܫ	-9441
▁ܒܡܠܬܝ	-9442
▁ܒܩܝܡܐ	-9443
▁ܒܫܗܪܐ	-9444
▁ܕܚܕܝܢ	-9445
▁ܕܢܤܒܥ	-9446
▁ܕܩܒܠܢ	-9447
▁ܕܪܫܝܡ	-9448
▁ܕܬܫܐܠ	-9449
▁ܘܐܝܬܘ	-9450
▁ܘܡܨܒܬ	-9451
▁ܚܕܘܬܝ	-9452
▁ܝܕܥܢܐ	-9453
▁ܡܬܒܢܐ	-9454
▁ܢܟܝܤܐ	-9455
▁ܥܒܪܝܗ	-9456
▁ܩܪܟܘܢ	-9457
▁ܫܠܝܛܐ	-9458
▁ܬܝܬܘܢ	-9459
▁ܐܒܘܗܘܢ	-9460
▁ܐܘܪܚܬܗ	-9461
▁ܐܪܤܛܘܤ	-9462
▁ܐܬܓܠܝܘ	-9463
▁ܐܬܬܓܪܬ	-9464
▁ܒܐܢܬܬܐ	-9465
▁ܒܟܡܐܢܐ	-9466
▁ܒܪܒܘܬܗ	-9467
▁ܕܐܤܝܪܐ	-9468
▁ܕܐܪܒܥܬ	-9469
▁ܕܒܥܠܕܒ	-9470
▁ܕܒܥܡܡܐ	-9471
▁ܕܒܪܘܗܝ	-9472
▁ܕܒܪܝܬܗ	-9473
▁ܕܓܠܛܝܐ	-9474
▁ܕܕܒܪܝܢ	-9475
▁ܕܕܠܚܝܢ	-9476
▁ܕܗܝܕܝܢ	-9477
▁ܕܘܟܝܬܐ	-9478
▁ܕܙܩܝܦܗ	-9479
▁ܕܚܕܪܝܢ	-9480
▁ܕܚܘܪܒܐ	-9481
▁ܕܚܝܒܝܢ	-9482
▁ܕܚܫܚܬܐ	-9483
▁ܕܛܘܥܝܝ	-9484
▁ܕܝܢܘܗܝ	-9485
▁ܕܝܩܕܢܗ	-9486
▁ܕܟܝܘܬܐ	-9487
▁ܕܟܦܢܝܢ	-9488
▁ܕܟܪܝܗܐ	-9489
▁ܕܠܒܘܫܐ	-9490
▁ܕܠܒܘܬܐ	-9491
▁ܕܠܓܒܪܐ	-9492
▁ܕܠܝܘܡܐ	-9493
▁ܕܠܡܘܬܐ	-9494
▁ܕܠܡܪܝܐ	-9495
▁ܕܠܢܒܝܐ	-9496
▁ܕܡܐܬܝܢ	-9497
▁ܕܡܕܒܚܐ	-9498
▁ܕܡܕܗܒܢ	-9499
ܒܩܢ	-9500
ܓܢܐ	-9501
ܓܪܗ	-9502
ܕܢܘ	-9503
ܤܢܘ	-9504
ܤܪܬ	-9505
ܫܠܢ	-9506
▁ܛܦ	-9507
ܒܗܪܘ	-9508
ܒܗܪܝ	-9509
ܒܗܪܬ	-9510
ܕܘܠܐ	-9511
ܕܠܚܘ	-9512
ܘܒܠܟ	-9513
ܠܕܝܢ	-9514
ܠܘܢܗ	-9515
ܥܠܝܢ	-9516
ܩܒܬܐ	-9517
▁ܐܘܟ	-9518
▁ܕܝܘ	-9519
▁ܗܓܪ	-9520
▁ܘܛܪ	-9521
▁ܛܥܐ	-9522
▁ܝܪܩ	-9523
▁ܠܛܘ	-9524
▁ܠܡܟ	-9525
▁ܬܒܥ	-9526
ܒܗܪܝܢ	-9527
ܒܗܪܢܐ	-9528
ܚܙܘܬܐ	-9529
▁ܐܒܕܐ	-9530
▁ܒܕܡܝ	-9531
▁ܓܕܝܐ	-9532
▁ܕܐܓܪ	-9533
▁ܘܒܡܢ	-9534
▁ܘܗܢܘ	-9535
▁ܘܙܗܪ	-9536
▁ܘܛܫܝ	-9537
▁ܘܠܢܝ	-9538
▁ܘܠܩܝ	-9539
▁ܘܪܟܒ	-9540
▁ܘܪܫܗ	-9541
▁ܠܟܢܘ	-9542
▁ܠܢܛܪ	-9543
▁ܠܫܥܐ	-9544
▁ܠܬܬܐ	-9545
▁ܡܠܐܐ	-9546
▁ܡܤܬܝ	-9547
▁ܡܬܒܪ	-9548
▁ܢܛܪܘ	-9549
▁ܢܩܪܒ	-9550
▁ܥܡܕܘ	-9551
▁ܦܤܩܗ	-9552
▁ܫܫܠܢ	-9553
ܪܝܤܦܘܤ	-9554
▁ܐܬܩܛܠ	-9555
▁ܒܐܝܕܢ	-9556
▁ܒܓܢܬܐ	-9557
▁ܓܠܘܬܐ	-9558
▁ܕܐܒܘܢ	-9559
▁ܕܥܬܝܪ	-9560
▁ܘܐܬܡܠ	-9561
▁ܘܠܚܝܐ	-9562
▁ܘܡܠܬܐ	-9563
▁ܘܤܛܢܐ	-9564
▁ܘܥܠܬܐ	-9565
▁ܠܡܬܬܪ	-9566
▁ܡܤܗܕܐ	-9567
▁ܡܬܟܚܕ	-9568
▁ܢܬܒܝܐ	-9569
▁ܥܡܘܪܐ	-9570
▁ܦܪܝܩܐ	-9571
ܝܒܘܬܟܘܢ	-9572
▁ܐܙܕܕܩܬ	-9573
▁ܒܡܕܢܚܐ	-9574
▁ܕܐܬܐܫܕ	-9575
▁ܕܡܘܕܝܢ	-9576
▁ܕܡܙܕܒܢ	-9577
▁ܕܡܚܝܠܐ	-9578
▁ܕܡܛܠܬܢ	-9579
▁ܕܡܛܥܝܢ	-9580
▁ܕܡܠܦܢܐ	-9581
▁ܕܡܤܒܪܢ	-9582
▁ܕܡܤܟܝܢ	-9583
▁ܕܡܥܓܠܐ	-9584
▁ܕܡܥܕܝܢ	-9585
▁ܕܡܩܘܝܐ	-9586
▁ܕܡܫܘܝܐ	-9587
▁ܕܡܫܥܒܕ	-9588
▁ܕܡܫܬܐܠ	-9589
▁ܕܡܬܓܠܐ	-9590
▁ܕܡܬܪܫܐ	-9591
▁ܕܢܗܝܪܐ	-9592
▁ܕܢܙܕܒܢ	-9593
▁ܕܢܚܫܘܒ	-9594
▁ܕܢܛܥܘܢ	-9595
▁ܕܢܤܒܝܢ	-9596
▁ܕܢܤܡܘܟ	-9597
▁ܕܢܤܥܘܪ	-9598
▁ܕܢܦܠܘܚ	-9599
ܕܓܠ	-9600
ܕܗܪ	-9601
ܘܦܘ	-9602
ܬܚܕ	-9603
ܓܪܡܐ	-9604
ܛܦܝܢ	-9605
ܢܬܝܐ	-9606
▁ܕܚܒ	-9607
▁ܕܦܠ	-9608
▁ܚܨܐ	-9609
▁ܟܐܝ	-9610
▁ܡܤܡ	-9611
▁ܢܤܩ	-9612
▁ܤܩܘ	-9613
▁ܥܗܕ	-9614
▁ܫܪܥ	-9615
▁ܐܟܪܝ	-9616
▁ܐܫܬܚ	-9617
▁ܕܚܕܪ	-9618
▁ܕܢܓܪ	-9619
▁ܗܘܢܐ	-9620
▁ܘܠܩܛ	-9621
▁ܘܥܛܐ	-9622
▁ܙܡܪܢ	-9623
▁ܚܕܘܐ	-9624
▁ܛܝܪܐ	-9625
▁ܝܘܡܝ	-9626
▁ܝܬܒܐ	-9627
▁ܡܤܟܐ	-9628
▁ܡܨܚܐ	-9629
▁ܢܚܝܗ	-9630
▁ܢܤܟܠ	-9631
▁ܤܓܘܕ	-9632
▁ܥܒܪܬ	-9633
▁ܥܝܢܗ	-9634
▁ܦܩܚܐ	-9635
▁ܪܢܝܢ	-9636
▁ܬܒܥܐ	-9637
ܡܠܠܘܬܗ	-9638
▁ܐܪܟܘܢ	-9639
▁ܐܬܓܗܢ	-9640
▁ܐܬܩܪܐ	-9641
▁ܒܩܛܢܐ	-9642
▁ܕܐܒܪܗ	-9643
▁ܕܕܒܚܐ	-9644
▁ܕܝܠܝܦ	-9645
▁ܕܡܠܝܐ	-9646
▁ܘܒܪܩܐ	-9647
▁ܘܚܒܫܗ	-9648
▁ܘܝܘܢܐ	-9649
▁ܘܝܩܕܐ	-9650
▁ܘܟܐܒܐ	-9651
▁ܘܠܐܚܐ	-9652
▁ܘܠܒܪܗ	-9653
▁ܘܠܗܢܐ	-9654
▁ܘܡܦܠܓ	-9655
▁ܘܩܥܝܐ	-9656
▁ܘܫܘܝܬ	-9657
▁ܘܫܡܥܢ	-9658
▁ܚܙܘܢܐ	-9659
▁ܚܤܡܝܢ	-9660
▁ܚܨܕܝܢ	-9661
▁ܚܨܪܘܢ	-9662
▁ܠܡܚܒܘ	-9663
▁ܡܓܠܬܟ	-9664
▁ܡܚܝܢܐ	-9665
▁ܡܤܠܝܐ	-9666
▁ܬܠܡܕܘ	-9667
▁ܐܝܬܝܗܝ	-9668
▁ܐܬܐܤܝܘ	-9669
▁ܒܤܘܪܝܐ	-9670
▁ܕܕܝܢܝܢ	-9671
▁ܕܢܦܠܝܢ	-9672
▁ܕܢܦܪܘܥ	-9673
▁ܕܢܦܬܠܝ	-9674
▁ܕܢܨܝܒܐ	-9675
▁ܕܢܨܪܝܐ	-9676
▁ܕܢܩܪܘܢ	-9677
▁ܕܢܫܪܘܢ	-9678
▁ܕܢܫܬܕܪ	-9679
▁ܕܢܫܬܡܫ	-9680
▁ܕܢܬܒܛܠ	-9681
▁ܕܢܬܓܠܐ	-9682
▁ܕܢܬܚܙܐ	-9683
▁ܕܢܬܟܬܒ	-9684
▁ܕܢܬܠܝܗ	-9685
▁ܕܢܬܢܤܐ	-9686
▁ܕܢܬܦܠܫ	-9687
▁ܕܢܬܩܪܒ	-9688
▁ܕܤܒܪܬܗ	-9689
▁ܕܥܓܠܬܐ	-9690
▁ܕܥܕܥܕܐ	-9691
▁ܕܥܘܡܪܐ	-9692
▁ܕܦܘܩܕܐ	-9693
▁ܕܦܪܚܬܐ	-9694
▁ܕܨܗܝܘܢ	-9695
▁ܕܨܝܡܝܢ	-9696
▁ܕܨܦܪܝܐ	-9697
▁ܕܩܕܡܝܐ	-9698
▁ܕܩܛܠܝܢ	-9699
ܓܡܪܘ	-9700
ܘܢܟܝ	-9701
ܘܩܦܐ	-9702
ܘܪܒܢ	-9703
ܙܝܙܐ	-9704
ܙܝܥܐ	-9705
ܚܡܘܠ	-9706
ܡܪܡܗ	-9707
ܩܝܘܤ	-9708
▁ܐܩܪ	-9709
▁ܓܒܘ	-9710
▁ܓܘܗ	-9711
▁ܘܪܚ	-9712
▁ܘܪܩ	-9713
▁ܚܝܤ	-9714
▁ܦܟܟ	-9715
▁ܩܫܐ	-9716
ܒܢܝܢܐ	-9717
▁ܐܘܩܕ	-9718
▁ܐܚܝܟ	-9719
▁ܐܢܝܦ	-9720
▁ܒܟܝܤ	-9721
▁ܒܤܩܐ	-9722
▁ܕܤܪܐ	-9723
▁ܕܥܠܬ	-9724
▁ܕܦܝܤ	-9725
▁ܘܐܚܒ	-9726
▁ܘܕܗܪ	-9727
▁ܘܢܦܫ	-9728
▁ܙܒܢܬ	-9729
▁ܝܩܪܘ	-9730
▁ܠܕܡܐ	-9731
▁ܡܗܢܐ	-9732
▁ܡܟܘܢ	-9733
▁ܢܡܠܟ	-9734
▁ܢܬܒܪ	-9735
▁ܤܟܠܘ	-9736
▁ܥܡܟܝ	-9737
▁ܥܬܝܪ	-9738
▁ܪܗܛܬ	-9739
▁ܫܐܠܐ	-9740
▁ܫܢܝܐ	-9741
▁ܫܪܪܘ	-9742
▁ܬܐܬܪ	-9743
▁ܐܚܕܘܢ	-9744
▁ܐܫܬܝܘ	-9745
▁ܐܫܬܝܢ	-9746
▁ܒܪܝܫܗ	-9747
▁ܒܫܠܝܐ	-9748
▁ܕܒܗܢܐ	-9749
▁ܕܕܝܠܝ	-9750
▁ܕܡܕܒܪ	-9751
▁ܕܢܫܦܪ	-9752
▁ܕܩܕܡܝ	-9753
▁ܕܪܡܝܐ	-9754
▁ܕܬܫܟܚ	-9755
▁ܘܐܘܠܨ	-9756
▁ܘܕܒܥܐ	-9757
▁ܘܟܗܢܐ	-9758
▁ܘܠܟܠܗ	-9759
▁ܘܫܝܠܐ	-9760
▁ܘܬܢܢܐ	-9761
▁ܚܝܤܝܢ	-9762
▁ܠܡܨܥܬ	-9763
▁ܡܘܗܒܬ	-9764
▁ܡܚܝܠܐ	-9765
▁ܡܦܩܢܐ	-9766
▁ܡܬܢܩܐ	-9767
▁ܥܡܛܢܐ	-9768
▁ܦܬܓܡܗ	-9769
▁ܪܫܝܢܐ	-9770
▁ܫܐܕܝܢ	-9771
ܠܘܢܝܩܝܐ	-9772
▁ܐܚܕܘܢܝ	-9773
▁ܐܬܠܒܒܝ	-9774
▁ܒܝܡܝܢܗ	-9775
▁ܕܐܝܡܡܐ	-9776
▁ܕܐܪܡܝܬ	-9777
▁ܕܚܕܘܬܐ	-9778
▁ܕܡܟܤܝܐ	-9779
▁ܕܥܪܛܠܝ	-9780
▁ܕܩܝܡܬܗ	-9781
▁ܕܩܤܪܝܐ	-9782
▁ܕܪܗܛܝܢ	-9783
▁ܕܪܘܓܙܗ	-9784
▁ܕܪܘܚܬܐ	-9785
▁ܕܪܫܟܘܢ	-9786
▁ܕܫܠܡܟܝ	-9787
▁ܕܫܪܝܪܢ	-9788
▁ܕܬܐܟܘܠ	-9789
▁ܕܬܒܟܘܢ	-9790
▁ܕܬܦܠܘܚ	-9791
▁ܕܬܫܘܘܢ	-9792
▁ܕܬܫܩܘܠ	-9793
▁ܕܬܫܪܘܢ	-9794
▁ܕܬܫܬܘܢ	-9795
▁ܕܬܬܒܘܢ	-9796
▁ܕܬܬܓܠܐ	-9797
▁ܕܬܬܦܠܓ	-9798
▁ܗܕܝܘܛܐ	-9799
ܒܠܗ	-9800
ܪܬܢ	-9801
ܙܕܡܢ	-9802
ܝܩܘܤ	-9803
ܠܠܝܢ	-9804
▁ܕܠܩ	-9805
▁ܟܒܫ	-9806
▁ܠܘܐ	-9807
▁ܠܩܛ	-9808
▁ܠܬܒ	-9809
▁ܡܕܒ	-9810
▁ܪܓܙ	-9811
▁ܫܓܝ	-9812
▁ܬܛܪ	-9813
ܝܟܐܝܠ	-9814
ܥܡܘܪܐ	-9815
▁ܐܕܘܢ	-9816
▁ܒܕܘܢ	-9817
▁ܒܩܘܠ	-9818
▁ܓܠܝܬ	-9819
▁ܓܡܪܐ	-9820
▁ܕܐܚܙ	-9821
▁ܕܕܝܠ	-9822
▁ܕܥܝܪ	-9823
▁ܘܐܠܗ	-9824
▁ܘܕܩܝ	-9825
▁ܘܟܐܘ	-9826
▁ܘܠܫܒ	-9827
▁ܘܡܚܬ	-9828
▁ܘܡܪܐ	-9829
▁ܘܢܗܪ	-9830
▁ܘܤܘܐ	-9831
▁ܠܐܒܗ	-9832
▁ܠܡܛܪ	-9833
▁ܠܬܠܬ	-9834
▁ܡܟܬܪ	-9835
▁ܡܬܚܙ	-9836
▁ܢܚܛܦ	-9837
▁ܢܤܒܗ	-9838
▁ܢܫܬܘ	-9839
▁ܪܢܝܐ	-9840
▁ܫܠܝܘ	-9841
ܫܬܘܢܢܝ	-9842
▁ܐܙܕܕܩ	-9843
▁ܐܝܕܝܟ	-9844
▁ܐܡܪܬܝ	-9845
▁ܐܬܐܤܝ	-9846
▁ܐܬܟܪܙ	-9847
▁ܒܡܘܬܗ	-9848
▁ܒܡܫܚܐ	-9849
▁ܕܟܤܝܬ	-9850
▁ܕܤܟܠܐ	-9851
▁ܘܐܚܬܗ	-9852
▁ܘܐܟܠܐ	-9853
▁ܘܐܫܘܘ	-9854
▁ܘܟܦܢܐ	-9855
▁ܘܡܕܒܪ	-9856
▁ܘܤܢܝܐ	-9857
▁ܘܥܡܪܢ	-9858
▁ܘܫܓܫܘ	-9859
▁ܠܒܪܬܗ	-9860
▁ܠܓܗܢܐ	-9861
▁ܠܡܛܥܢ	-9862
▁ܡܠܟܟܝ	-9863
▁ܡܫܬܝܐ	-9864
▁ܡܬܟܪܙ	-9865
▁ܢܠܦܘܢ	-9866
▁ܢܫܩܘܠ	-9867
▁ܢܬܠܘܢ	-9868
▁ܥܡܗܝܢ	-9869
▁ܬܐܪܬܢ	-9870
▁ܐܤܬܪܗܒ	-9871
▁ܕܡܥܛܦܐ	-9872
▁ܕܢܪܕܝܢ	-9873
▁ܕܬܐܪܬܐ	-9874
▁ܗܠܟܬܘܢ	-9875
▁ܘܐܒܗܬܐ	-9876
▁ܘܐܒܗܬܢ	-9877
▁ܘܐܒܝܕܐ	-9878
▁ܘܐܘܕܝܘ	-9879
▁ܘܐܘܕܝܬ	-9880
▁ܘܐܘܬܒܢ	-9881
▁ܘܐܙܕܕܩ	-9882
▁ܘܐܚܕܪܗ	-9883
▁ܘܐܚܪܡܘ	-9884
▁ܘܐܝܡܡܐ	-9885
▁ܘܐܝܤܚܩ	-9886
▁ܘܐܝܬܝܢ	-9887
▁ܘܐܤܬܠܩ	-9888
▁ܘܐܦܘܗܝ	-9889
▁ܘܐܫܟܚܢ	-9890
▁ܘܐܫܬܝܢ	-9891
▁ܘܐܬܒܐܫ	-9892
▁ܘܐܬܒܛܠ	-9893
▁ܘܐܬܦܠܓ	-9894
▁ܘܐܬܩܒܪ	-9895
▁ܘܐܬܪܡܝ	-9896
▁ܘܐܬܬܢܚ	-9897
▁ܘܒܐܝܢܐ	-9898
▁ܘܒܒܝܬܗ	-9899
ܕܒܚ	-9900
ܘܟܒ	-9901
ܡܫܚ	-9902
ܥܠܢ	-9903
ܬܢܩ	-9904
ܘܪܨܐ	-9905
ܦܤܪܐ	-9906
ܩܒܬܗ	-9907
ܫܝܚܗ	-9908
ܫܝܛܐ	-9909
▁ܐܛܢ	-9910
▁ܐܤܝ	-9911
▁ܘܕܗ	-9912
▁ܘܨܦ	-9913
▁ܩܨܐ	-9914
ܓܠܛܝܐ	-9915
▁ܕܠܐܐ	-9916
▁ܕܪܓܐ	-9917
▁ܘܐܒܥ	-9918
▁ܘܤܐܡ	-9919
▁ܘܤܓܐ	-9920
▁ܚܒܝܒ	-9921
▁ܚܙܘܗ	-9922
▁ܚܝܠܝ	-9923
▁ܡܟܕܒ	-9924
▁ܡܬܥܩ	-9925
▁ܢܚܬܢ	-9926
▁ܤܡܠܝ	-9927
▁ܤܦܩܐ	-9928
▁ܥܒܕܟ	-9929
▁ܩܕܡܘ	-9930
▁ܩܘܫܘ	-9931
▁ܬܚܪܒ	-9932
▁ܬܡܠܟ	-9933
▁ܬܥܠܢ	-9934
ܝܬܝܘܗܝ	-9935
ܦܘܬܟܘܢ	-9936
▁ܒܠܓܬܐ	-9937
▁ܓܢܒܝܢ	-9938
▁ܕܘܡܪܐ	-9939
▁ܕܢܚܘܬ	-9940
▁ܕܥܐܕܐ	-9941
▁ܘܐܘܫܛ	-9942
▁ܘܐܥܠܗ	-9943
▁ܘܠܘܬܗ	-9944
▁ܘܢܟܢܫ	-9945
▁ܘܢܤܓܐ	-9946
▁ܘܪܘܙܘ	-9947
▁ܘܬܒܢܐ	-9948
▁ܚܠܦܝܟ	-9949
▁ܛܘܥܝܝ	-9950
▁ܟܐܢܝܢ	-9951
▁ܠܐܤܝܐ	-9952
▁ܠܚܤܝܪ	-9953
▁ܠܤܦܪܐ	-9954
▁ܠܪܓܠܐ	-9955
▁ܠܫܝܘܠ	-9956
▁ܡܨܪܝܐ	-9957
▁ܢܟܦܝܢ	-9958
▁ܢܬܟܪܙ	-9959
▁ܦܤܩܝܢ	-9960
▁ܨܒܐܘܬ	-9961
▁ܩܒܪܝܢ	-9962
▁ܩܘܡܝܢ	-9963
▁ܩܘܡܬܗ	-9964
▁ܫܪܟܢܐ	-9965
ܘܕܘܢܝܗܝ	-9966
▁ܒܫܘܫܢܐ	-9967
▁ܕܐܫܘܝܢ	-9968
▁ܕܒܒܝܬܐ	-9969
▁ܕܠܟܠܢܫ	-9970
▁ܕܡܘܡܬܐ	-9971
▁ܕܤܘܪܝܐ	-9972
▁ܘܐܫܬܓܫ	-9973
▁ܘܐܬܐܤܝ	-9974
▁ܘܒܕܚܠܬ	-9975
▁ܘܒܕܡܥܐ	-9976
▁ܘܒܗܝܡܢ	-9977
▁ܘܒܘܝܐܐ	-9978
▁ܘܒܘܟܪܐ	-9979
▁ܘܒܛܘܪܐ	-9980
▁ܘܒܛܠܠܐ	-9981
▁ܘܒܝܫܬܐ	-9982
▁ܘܒܡܟܝܟ	-9983
▁ܘܒܥܝܢܢ	-9984
▁ܘܒܥܠܕܒ	-9985
▁ܘܒܦܠܓܗ	-9986
▁ܘܒܨܝܕܢ	-9987
▁ܘܒܨܦܬܐ	-9988
▁ܘܒܩܛܡܐ	-9989
▁ܘܒܪܘܚܐ	-9990
▁ܘܒܪܘܚܗ	-9991
▁ܘܒܫܒܬܐ	-9992
▁ܘܒܫܘܩܐ	-9993
▁ܘܓܡܝܪܐ	-9994
▁ܘܓܪܘܗܝ	-9995
▁ܘܕܐܚܝܟ	-9996
▁ܘܕܐܡܪܐ	-9997
▁ܘܕܗܪܡܐ	-9998
▁ܘܕܚܘܒܐ	-9999
ܛܢܗ	-10000
ܒܘܒܐ	-10001
ܕܘܟܐ	-10002
ܤܒܪܝ	-10003
▁ܘܓܙ	-10004
▁ܘܓܠ	-10005
▁ܚܡܥ	-10006
▁ܫܘܘ	-10007
▁ܬܘܗ	-10008
ܡܢܐܘܤ	-10009
▁ܐܥܒܪ	-10010
▁ܒܒܢܝ	-10011
▁ܒܢܬܐ	-10012
▁ܒܨܘܪ	-10013
▁ܒܨܪܬ	-10014
▁ܕܐܤܒ	-10015
▁ܕܕܟܐ	-10016
▁ܕܠܝܛ	-10017
▁ܕܢܥܩ	-10018
▁ܕܤܘܦ	-10019
▁ܘܒܡܠ	-10020
▁ܘܓܒܘ	-10021
▁ܘܢܢܗ	-10022
▁ܚܘܝܘ	-10023
▁ܚܤܝܐ	-10024
▁ܟܠܬܐ	-10025
▁ܟܤܝܐ	-10026
▁ܠܦܘܬ	-10027
▁ܡܨܥܪ	-10028
▁ܦܪܩܘ	-10029
▁ܩܒܘܠ	-10030
▁ܬܐܘܦ	-10031
▁ܬܚܘܢ	-10032
▁ܬܚܙܐ	-10033
▁ܬܤܝܒ	-10034
▁ܬܬܩܠ	-10035
ܫܘܬܗܘܢ	-10036
▁ܐܟܘܠܐ	-10037
▁ܕܐܠܗܗ	-10038
▁ܕܐܤܝܐ	-10039
▁ܕܗܪܟܐ	-10040
▁ܕܢܗܠܟ	-10041
▁ܕܢܫܢܐ	-10042
▁ܘܐܕܝܩ	-10043
▁ܘܐܬܝܬ	-10044
▁ܘܒܤܡܐ	-10045
▁ܘܬܡܢܐ	-10046
▁ܛܪܦܝܗ	-10047
▁ܠܢܦܫܢ	-10048
▁ܠܥܒܕܝ	-10049
▁ܡܨܚܝܢ	-10050
▁ܡܬܚܠܡ	-10051
▁ܡܬܚܪܐ	-10052
▁ܡܬܚܬܪ	-10053
▁ܢܬܚܝܒ	-10054
▁ܤܗܕܘܬ	-10055
▁ܦܘܩܕܐ	-10056
ܛܪܓܢܘܗܝ	-10057
▁ܐܫܟܚܬܗ	-10058
▁ܒܐܬܢܘܤ	-10059
▁ܒܕܐܠܗܐ	-10060
▁ܕܐܬܝܕܥ	-10061
▁ܕܢܫܬܘܩ	-10062
▁ܕܥܒܪܝܢ	-10063
▁ܕܨܠܘܬܐ	-10064
▁ܘܐܒܘܗܝ	-10065
▁ܘܒܥܠܡܐ	-10066
▁ܘܕܚܠܝܢ	-10067
▁ܘܕܝܘܢܐ	-10068
▁ܘܕܠܬܚܬ	-10069
▁ܘܕܢܐܡܪ	-10070
▁ܘܕܢܩܘܡ	-10071
▁ܘܕܤܐܡܐ	-10072
▁ܘܕܥܒܕܐ	-10073
▁ܘܕܥܓܠܐ	-10074
▁ܘܕܥܘܠܐ	-10075
▁ܘܕܥܡܡܐ	-10076
▁ܘܕܩܤܛܐ	-10077
▁ܘܕܫܪܟܐ	-10078
▁ܘܙܥܘܪܐ	-10079
▁ܘܚܒܨܝܢ	-10080
▁ܘܚܓܝܤܐ	-10081
▁ܘܚܕܘܬܐ	-10082
▁ܘܚܕܘܬܢ	-10083
▁ܘܚܘܛܪܐ	-10084
▁ܘܚܘܝܢܝ	-10085
▁ܘܚܛܝܬܐ	-10086
▁ܘܛܘܥܝܝ	-10087
▁ܘܝܕܝܥܐ	-10088
▁ܘܟܘܪܗܢ	-10089
▁ܘܟܠܟܘܢ	-10090
▁ܘܟܪܝܗܐ	-10091
▁ܘܟܬܝܒܐ	-10092
▁ܘܠܒܢܝܗ	-10093
▁ܘܠܘܩܒܠ	-10094
▁ܘܠܟܠܢܫ	-10095
▁ܘܠܟܢܫܐ	-10096
▁ܘܠܡܐܡܪ	-10097
▁ܘܠܡܘܫܐ	-10098
▁ܘܠܡܟܤܘ	-10099
ܡܥܘ	-10100
ܬܪܪ	-10101
ܒܬܝܢ	-10102
ܕܡܪܬ	-10103
ܡܠܟܬ	-10104
ܥܒܕܝ	-10105
ܥܪܒܝ	-10106
ܪܬܘܢ	-10107
▁ܡܥܠ	-10108
▁ܢܕܚ	-10109
▁ܢܟܦ	-10110
▁ܤܘܦ	-10111
▁ܪܟܢ	-10112
▁ܬܩܦ	-10113
ܓܠܘܗܝ	-10114
ܦܝܗܘܢ	-10115
▁ܐܤܬܐ	-10116
▁ܕܐܤܩ	-10117
▁ܕܛܥܘ	-10118
▁ܕܡܟܬ	-10119
▁ܕܬܟܬ	-10120
▁ܘܐܥܠ	-10121
▁ܘܕܚܝ	-10122
▁ܘܛܒܥ	-10123
▁ܘܠܒܐ	-10124
▁ܘܠܕܚ	-10125
▁ܘܠܫܢ	-10126
▁ܘܩܦܤ	-10127
▁ܙܪܥܟ	-10128
▁ܠܤܦܐ	-10129
▁ܡܡܠܐ	-10130
▁ܢܨܠܐ	-10131
▁ܤܒܪܬ	-10132
▁ܦܩܕܬ	-10133
ܡܠܝܐܝܠ	-10134
ܥܘܪܝܬܐ	-10135
▁ܐܫܬܥܘ	-10136
▁ܒܝܢܝܢ	-10137
▁ܒܩܠܝܠ	-10138
▁ܓܠܝܬܐ	-10139
▁ܕܒܚܝܢ	-10140
▁ܕܓܡܠܐ	-10141
▁ܕܗܕܡܐ	-10142
▁ܕܠܒܪܗ	-10143
▁ܕܡܟܝܠ	-10144
▁ܘܐܘܤܦ	-10145
▁ܘܒܗܝܢ	-10146
▁ܘܕܒܪܘ	-10147
▁ܘܛܥܝܢ	-10148
▁ܘܝܗܒܬ	-10149
▁ܘܝܘܤܦ	-10150
▁ܘܡܢܗܪ	-10151
▁ܘܢܒܥܐ	-10152
▁ܘܩܘܒܠ	-10153
▁ܘܩܦܤܘ	-10154
▁ܘܪܓܠܝ	-10155
▁ܚܤܝܪܐ	-10156
▁ܚܨܘܗܝ	-10157
▁ܟܘܪܝܢ	-10158
▁ܡܫܡܠܐ	-10159
▁ܢܫܬܘܩ	-10160
▁ܩܕܝܫܗ	-10161
▁ܫܒܩܢܝ	-10162
▁ܬܒܥܝܢ	-10163
ܡܢܘܬܗܘܢ	-10164
▁ܐܬܒܝܐܢ	-10165
▁ܒܡܘܟܟܗ	-10166
▁ܓܓܘܠܬܐ	-10167
▁ܕܐܤܬܠܩ	-10168
▁ܕܒܐܝܢܐ	-10169
▁ܕܝܗܝܒܐ	-10170
▁ܕܡܬܝܗܒ	-10171
▁ܕܥܩܪܒܐ	-10172
▁ܕܬܬܝܗܒ	-10173
▁ܘܒܢܘܗܝ	-10174
▁ܘܚܙܝܢܢ	-10175
▁ܘܠܡܠܬܐ	-10176
▁ܘܠܢܒܝܐ	-10177
▁ܘܠܥܒܕܐ	-10178
▁ܘܠܥܒܕܝ	-10179
▁ܘܠܥܕܬܐ	-10180
▁ܘܠܨܝܕܢ	-10181
▁ܘܠܨܦܪܗ	-10182
▁ܘܠܪܘܚܐ	-10183
▁ܘܠܬܕܝܐ	-10184
▁ܘܡܕܝܢܐ	-10185
▁ܘܡܘܬܢܐ	-10186
▁ܘܡܚܒܝܢ	-10187
▁ܘܡܚܒܠܢ	-10188
▁ܘܡܚܦܝܢ	-10189
▁ܘܡܛܝܒܐ	-10190
▁ܘܡܛܥܝܢ	-10191
▁ܘܡܡܠܠܐ	-10192
▁ܘܡܤܗܕܐ	-10193
▁ܘܡܩܒܠܐ	-10194
▁ܘܡܪܘܬܐ	-10195
▁ܘܡܫܡܫܢ	-10196
▁ܘܡܬܕܟܪ	-10197
▁ܘܡܬܚܝܠ	-10198
▁ܘܡܬܟܘܢ	-10199
ܒܚܬ	-10200
ܕܤܡܢ	-10201
ܚܝܢܝ	-10202
ܟܬܒܬ	-10203
ܥܛܦܘ	-10204
ܪܘܒܐ	-10205
▁ܐܚܬ	-10206
▁ܙܟܘ	-10207
▁ܟܠܝ	-10208
▁ܢܨܒ	-10209
ܒܘܢܬܐ	-10210
ܓܡܪܘܢ	-10211
ܟܝܦܘܤ	-10212
▁ܐܠܦܬ	-10213
▁ܒܪܘܟ	-10214
▁ܕܢܡܢ	-10215
▁ܘܐܕܡ	-10216
▁ܘܕܗܘ	-10217
▁ܘܡܤܬ	-10218
▁ܘܥܡܪ	-10219
▁ܘܩܥܬ	-10220
▁ܙܕܝܩ	-10221
▁ܙܘܓܐ	-10222
▁ܙܝܢܗ	-10223
▁ܚܝܠܢ	-10224
▁ܚܢܢܐ	-10225
▁ܚܤܝܢ	-10226
▁ܛܒܬܟ	-10227
▁ܠܐܤܐ	-10228
▁ܠܡܠܝ	-10229
▁ܠܪܓܝ	-10230
▁ܡܒܗܬ	-10231
▁ܢܙܕܘ	-10232
▁ܢܥܢܐ	-10233
▁ܢܪܗܛ	-10234
▁ܥܗܕܘ	-10235
▁ܥܢܒܐ	-10236
▁ܦܝܠܝ	-10237
▁ܦܪܩܐ	-10238
▁ܪܝܫܐ	-10239
▁ܪܟܫܐ	-10240
▁ܐܬܕܡܘ	-10241
▁ܒܢܦܫܢ	-10242
▁ܓܕܤܡܢ	-10243
▁ܕܐܒܥܐ	-10244
▁ܕܐܤܓܝ	-10245
▁ܕܙܕܝܩ	-10246
▁ܕܝܘܡܗ	-10247
▁ܕܩܢܝܢ	-10248
▁ܕܬܩܘܡ	-10249
▁ܘܒܪܬܐ	-10250
▁ܘܕܐܝܟ	-10251
▁ܘܢܘܒܕ	-10252
▁ܘܫܘܝܐ	-10253
▁ܛܒܘܬܐ	-10254
▁ܝܒܝܫܐ	-10255
▁ܠܕܝܘܐ	-10256
▁ܠܥܝܠܐ	-10257
▁ܡܥܠܝܢ	-10258
▁ܡܪܘܬܐ	-10259
▁ܡܬܟܪܗ	-10260
▁ܡܬܦܪܥ	-10261
▁ܢܤܝܒܪ	-10262
▁ܤܠܡܘܢ	-10263
▁ܬܬܪܝܡ	-10264
▁ܐܝܩܢܘܢ	-10265
▁ܐܬܪܘܬܐ	-10266
▁ܒܤܓܝܐܐ	-10267
▁ܕܐܓܘܢܐ	-10268
▁ܕܙܪܝܥܐ	-10269
▁ܕܚܕܘܬܝ	-10270
▁ܕܡܬܒܥܐ	-10271
▁ܕܡܬܢܒܐ	-10272
▁ܘܐܙܠܝܢ	-10273
▁ܘܒܐܝܕܗ	-10274
▁ܘܕܟܐܦܐ	-10275
▁ܘܕܢܪܚܡ	-10276
▁ܘܙܢܝܬܐ	-10277
▁ܘܠܠܥܙܪ	-10278
▁ܘܡܐܤܝܢ	-10279
▁ܘܡܬܟܢܫ	-10280
▁ܘܡܬܩܝܡ	-10281
▁ܘܢܐܬܘܢ	-10282
▁ܘܢܕܟܝܢ	-10283
▁ܘܢܗܝܪܐ	-10284
▁ܘܢܘܗܪܗ	-10285
▁ܘܢܛܥܘܢ	-10286
▁ܘܢܤܒܝܢ	-10287
▁ܘܢܤܬܠܐ	-10288
▁ܘܢܦܠܘܚ	-10289
▁ܘܢܦܩܘܢ	-10290
▁ܘܢܦܫܬܐ	-10291
▁ܘܢܩܒܬܐ	-10292
▁ܘܢܪܩܘܢ	-10293
▁ܘܢܬܐܤܐ	-10294
▁ܘܢܬܦܬܚ	-10295
▁ܘܢܬܩܛܠ	-10296
▁ܘܤܓܕܝܢ	-10297
▁ܘܤܗܕܝܢ	-10298
▁ܘܤܪܝܩܢ	-10299
ܒܚܪ	-10300
ܐܪܤܐ	-10301
ܤܝܡܬ	-10302
ܥܪܝܗ	-10303
ܨܝܢܐ	-10304
▁ܒܨܘ	-10305
▁ܓܕܫ	-10306
▁ܚܫܐ	-10307
▁ܥܪܩ	-10308
▁ܒܙܕܩ	-10309
▁ܒܙܚܘ	-10310
▁ܒܤܝܬ	-10311
▁ܒܥܢܐ	-10312
▁ܕܡܝܗ	-10313
▁ܕܢܫܚ	-10314
▁ܕܥܡܟ	-10315
▁ܕܦܠܘ	-10316
▁ܘܟܠܢ	-10317
▁ܠܡܤܡ	-10318
▁ܠܡܬܬ	-10319
▁ܡܠܒܫ	-10320
▁ܡܪܘܢ	-10321
▁ܡܫܠܛ	-10322
▁ܢܨܝܢ	-10323
▁ܤܗܕܘ	-10324
▁ܤܗܪܐ	-10325
▁ܤܝܢܝ	-10326
▁ܤܟܘܪ	-10327
▁ܦܓܪܢ	-10328
▁ܩܢܛܐ	-10329
▁ܒܕܡܝܐ	-10330
▁ܒܗܬܝܢ	-10331
▁ܒܙܝܬܐ	-10332
▁ܓܙܝܪܐ	-10333
▁ܕܐܡܠܟ	-10334
▁ܕܐܡܪܢ	-10335
▁ܕܠܒܫܢ	-10336
▁ܕܡܠܬܝ	-10337
▁ܕܢܡܠܟ	-10338
▁ܕܢܫܒܐ	-10339
▁ܕܫܝܢܐ	-10340
▁ܘܐܢܗܪ	-10341
▁ܘܐܢܬܝ	-10342
▁ܘܥܒܕܗ	-10343
▁ܘܥܡܕܘ	-10344
▁ܘܫܕܪܢ	-10345
▁ܘܫܠܡܗ	-10346
▁ܟܪܟܝܢ	-10347
▁ܠܡܓܡܪ	-10348
▁ܠܡܬܠܐ	-10349
▁ܠܪܓܠܝ	-10350
▁ܠܫܥܬܐ	-10351
▁ܡܬܕܒܪ	-10352
▁ܢܕܥܘܢ	-10353
▁ܢܙܕܩܦ	-10354
▁ܢܛܥܘܢ	-10355
▁ܫܠܡܝܢ	-10356
▁ܒܒܝܫܬܐ	-10357
▁ܒܥܠܝܬܐ	-10358
▁ܒܩܕܝܫܐ	-10359
▁ܒܪܥܝܢܐ	-10360
▁ܕܐܫܬܕܪ	-10361
▁ܕܗܝܡܢܢ	-10362
▁ܕܢܕܥܘܢ	-10363
▁ܕܢܦܪܩܢ	-10364
▁ܕܬܐܬܘܢ	-10365
▁ܘܕܚܛܝܐ	-10366
▁ܘܕܚܝܠܐ	-10367
▁ܘܚܡܫܝܢ	-10368
▁ܘܝܬܒܝܢ	-10369
▁ܘܢܕܥܘܢ	-10370
▁ܘܤܡܘܗܝ	-10371
▁ܘܥܒܪܝܢ	-10372
▁ܘܥܘܡܩܐ	-10373
▁ܘܥܘܫܢܐ	-10374
▁ܘܦܘܠܓܐ	-10375
▁ܘܦܪܚܬܐ	-10376
▁ܘܦܫܝܓܐ	-10377
▁ܘܨܒܝܢܢ	-10378
▁ܘܩܕܡܝܐ	-10379
▁ܘܩܕܡܝܟ	-10380
▁ܘܩܘܪܝܐ	-10381
▁ܘܩܘܫܬܐ	-10382
▁ܘܩܛܘܠܐ	-10383
▁ܘܩܪܝܗܝ	-10384
▁ܘܩܪܝܬܐ	-10385
▁ܘܪܓܡܝܢ	-10386
▁ܘܪܕܦܝܢ	-10387
▁ܘܪܬܝܬܐ	-10388
▁ܘܫܒܘܗܝ	-10389
▁ܘܫܒܘܩܘ	-10390
▁ܘܫܒܩܬܗ	-10391
▁ܘܫܕܝܗܝ	-10392
▁ܘܫܘܒܚܗ	-10393
▁ܘܫܘܠܡܐ	-10394
▁ܘܫܘܪܝܐ	-10395
▁ܘܫܘܬܦܐ	-10396
▁ܘܫܠܝܚܗ	-10397
▁ܘܫܪܒܬܐ	-10398
▁ܘܬܕܥܘܢ	-10399
▁ܘܬܘܠܬܗ	-10400
▁ܘܬܘܬܒܐ	-10401
▁ܘܬܤܒܘܢ	-10402
▁ܘܬܫܪܘܢ	-10403
▁ܙܘܪܒܒܠ	-10404
▁ܙܥܘܪܝܐ	-10405
▁ܙܥܘܪܬܐ	-10406
▁ܚܐܪܘܬܐ	-10407
▁ܚܒܝܒܝܢ	-10408
▁ܚܘܝܟܘܢ	-10409
▁ܚܟܝܡܬܐ	-10410
▁ܚܠܝܡܝܢ	-10411
▁ܚܡܫܡܐܐ	-10412
▁ܚܦܝܛܝܢ	-10413
▁ܚܨܝܟܘܢ	-10414
▁ܛܠܝܘܬܟ	-10415
▁ܛܥܝܘܬܗ	-10416
▁ܛܪܛܠܘܤ	-10417
▁ܝܘܤܛܘܤ	-10418
▁ܝܘܪܬܢܐ	-10419
▁ܝܠܦܬܘܢ	-10420
▁ܝܥܢܘܬܐ	-10421
▁ܝܪܩܘܢܐ	-10422
▁ܝܬܝܪܝܢ	-10423
▁ܟܘܪܙܝܢ	-10424
▁ܟܘܬܝܢܟ	-10425
▁ܟܝܢܗܘܢ	-10426
▁ܟܬܒܝܢܢ	-10427
▁ܠܐܚܪܬܐ	-10428
▁ܠܐܝܠܢܐ	-10429
▁ܠܐܢܬܬܟ	-10430
▁ܠܐܤܘܪܝ	-10431
▁ܠܐܪܟܘܤ	-10432
▁ܠܐܪܡܝܐ	-10433
▁ܠܒܛܢܬܐ	-10434
▁ܠܒܢܘܗܝ	-10435
▁ܠܒܤܬܪܝ	-10436
▁ܠܒܥܠܟܝ	-10437
▁ܠܓܐܝܘܤ	-10438
▁ܠܓܒܘܗܝ	-10439
▁ܠܓܠܝܢܐ	-10440
▁ܠܓܫܘܫܐ	-10441
▁ܠܕܚܠܬܐ	-10442
▁ܠܗܝܟܠܗ	-10443
▁ܠܘܤܝܘܤ	-10444
▁ܠܙܟܪܝܐ	-10445
▁ܠܚܕܘܬܐ	-10446
▁ܠܚܕܘܬܗ	-10447
▁ܠܚܘܫܚܐ	-10448
▁ܠܚܡܝܪܐ	-10449
▁ܠܚܤܝܢܐ	-10450
▁ܠܛܪܤܘܤ	-10451
▁ܠܟܘܝܠܐ	-10452
▁ܠܟܪܝܗܐ	-10453
▁ܠܠܒܘܫܗ	-10454
▁ܠܡܒܥܛܘ	-10455
▁ܠܡܕܟܝܘ	-10456
▁ܠܡܘܤܦܘ	-10457
▁ܠܡܙܡܢܐ	-10458
▁ܠܡܙܥܩܘ	-10459
▁ܠܡܚܙܝܗ	-10460
▁ܠܡܚܙܝܟ	-10461
▁ܠܡܝܬܝܘ	-10462
▁ܠܡܟܝܟܐ	-10463
▁ܠܡܟܢܫܘ	-10464
▁ܠܡܠܘܗܝ	-10465
▁ܠܡܠܟܘܬ	-10466
▁ܠܡܠܦܢܐ	-10467
▁ܠܡܨܪܝܐ	-10468
▁ܠܡܩܛܠܟ	-10469
▁ܠܡܪܗܘܢ	-10470
▁ܠܡܪܡܝܘ	-10471
▁ܠܡܪܩܘܤ	-10472
▁ܠܡܫܡܥܐ	-10473
▁ܠܡܫܡܥܗ	-10474
▁ܠܡܬܕܢܘ	-10475
▁ܠܢܗܝܪܐ	-10476
▁ܠܢܘܗܪܐ	-10477
▁ܠܢܛܘܪܐ	-10478
▁ܠܢܝܚܬܗ	-10479
▁ܠܢܟܤܬܐ	-10480
▁ܠܢܡܘܤܝ	-10481
▁ܠܤܒܪܬܐ	-10482
▁ܠܤܘܦܝܗ	-10483
▁ܠܥܒܕܝܟ	-10484
▁ܠܥܘܩܤܐ	-10485
▁ܠܥܠܝܬܐ	-10486
▁ܠܥܡܝܪܐ	-10487
▁ܠܥܬܝܪܐ	-10488
▁ܠܦܪܕܬܐ	-10489
▁ܠܦܪܥܘܢ	-10490
▁ܠܨܒܝܢܗ	-10491
▁ܠܩܘܒܠܢ	-10492
▁ܠܩܪܝܒܗ	-10493
▁ܠܪܗܘܡܐ	-10494
▁ܠܪܘܓܙܐ	-10495
▁ܠܫܢܘܗܝ	-10496
▁ܠܬܗܘܡܐ	-10497
▁ܠܬܝܡܢܐ	-10498
▁ܠܬܢܝܢܐ	-10499
▁ܡܒܓܢܝܢ	-10500
▁ܡܕܒܪܢܐ	-10501
▁ܡܕܓܠܝܢ	-10502
▁ܡܗܝܡܢܢ	-10503
▁ܡܗܦܟܝܢ	-10504
▁ܡܘܙܦܝܢ	-10505
▁ܡܙܒܢܝܢ	-10506
▁ܡܙܕܒܢܢ	-10507
▁ܡܙܥܩܝܢ	-10508
▁ܡܚܒܝܢܢ	-10509
▁ܡܚܤܕܝܢ	-10510
▁ܡܝܟܐܝܠ	-10511
▁ܡܝܬܘܬܗ	-10512
▁ܡܟܝܟܘܬ	-10513
▁ܡܟܬܪܝܢ	-10514
▁ܡܠܟܘܬܟ	-10515
▁ܡܠܬܟܘܢ	-10516
▁ܡܤܟܠܢܐ	-10517
▁ܡܤܬܒܪܐ	-10518
▁ܡܥܕܪܢܝ	-10519
▁ܡܥܩܡܬܐ	-10520
▁ܡܦܘܠܬܗ	-10521
▁ܡܦܚܡܝܢ	-10522
▁ܡܨܛܪܝܢ	-10523
▁ܡܨܠܝܢܢ	-10524
▁ܡܨܥܪܝܢ	-10525
▁ܡܨܥܪܢܐ	-10526
▁ܡܩܕܡܝܢ	-10527
▁ܡܩܕܫܝܢ	-10528
▁ܡܪܛܘܛܟ	-10529
▁ܡܪܟܒܬܐ	-10530
▁ܡܫܐܠܝܢ	-10531
▁ܡܫܒܚܬܐ	-10532
▁ܡܫܕܠܝܢ	-10533
▁ܡܫܡܥܬܐ	-10534
▁ܡܫܡܫܝܢ	-10535
▁ܡܫܡܫܢܝ	-10536
▁ܡܫܬܒܗܪ	-10537
▁ܡܫܬܒܩܐ	-10538
▁ܡܫܬܘܚܪ	-10539
▁ܡܫܬܡܗܐ	-10540
▁ܡܫܬܡܠܐ	-10541
▁ܡܫܬܪܪܐ	-10542
▁ܡܬܐܡܪܐ	-10543
▁ܡܬܐܤܝܢ	-10544
▁ܡܬܓܠܝܐ	-10545
▁ܡܬܚܒܠܐ	-10546
▁ܡܬܚܙܝܐ	-10547
▁ܡܬܚܪܝܢ	-10548
▁ܡܬܚܫܒܐ	-10549
▁ܡܬܝܕܥܐ	-10550
▁ܡܬܝܬܪܐ	-10551
▁ܡܬܟܪܟܐ	-10552
▁ܡܬܡܠܝܢ	-10553
▁ܡܬܢܒܝܢ	-10554
▁ܡܬܩܪܝܢ	-10555
▁ܡܬܬܥܝܪ	-10556
▁ܢܐܒܕܘܢ	-10557
▁ܢܕܘܫܘܢ	-10558
▁ܢܘܤܦܘܢ	-10559
▁ܢܛܝܪܝܢ	-10560
▁ܢܝܢܘܝܐ	-10561
▁ܢܡܘܬܘܢ	-10562
▁ܢܤܒܝܢܢ	-10563
▁ܢܤܒܪܘܢ	-10564
▁ܢܥܒܪܢܝ	-10565
▁ܢܦܪܩܘܢ	-10566
▁ܢܩܛܠܘܢ	-10567
▁ܢܩܦܘܗܝ	-10568
▁ܢܪܕܦܘܢ	-10569
▁ܢܫܒܩܘܢ	-10570
▁ܢܫܟܚܝܗ	-10571
▁ܢܫܬܪܘܢ	-10572
▁ܢܬܓܠܘܢ	-10573
▁ܢܬܡܠܘܢ	-10574
▁ܢܬܩܪܘܢ	-10575
▁ܢܬܪܘܪܒ	-10576
▁ܢܬܪܡܘܢ	-10577
▁ܤܗܕܘܬܝ	-10578
▁ܤܗܕܘܬܟ	-10579
▁ܤܢܘܪܬܐ	-10580
▁ܤܩܘܒܠܢ	-10581
▁ܥܕܪܝܢܝ	-10582
▁ܥܡܝܢܕܒ	-10583
▁ܥܪܘܒܬܐ	-10584
▁ܥܪܛܠܝܐ	-10585
▁ܥܬܝܩܬܐ	-10586
▁ܥܬܝܪܬܐ	-10587
▁ܦܘܢܝܩܐ	-10588
▁ܦܘܩܕܢܗ	-10589
▁ܦܟܝܗܬܐ	-10590
▁ܦܪܘܓܝܗ	-10591
▁ܦܬܝܚܝܢ	-10592
▁ܨܐܕܘܗܝ	-10593
▁ܨܚܢܘܬܐ	-10594
▁ܩܒܠܝܗܝ	-10595
▁ܩܒܪܘܗܝ	-10596
▁ܩܕܡܝܬܗ	-10597
▁ܩܘܪܒܢܝ	-10598
▁ܩܘܪܛܒܐ	-10599
▁ܩܘܪܝܢܐ	-10600
▁ܩܛܠܘܗܝ	-10601
▁ܩܛܠܬܘܢ	-10602
▁ܩܪܒܬܘܢ	-10603
▁ܩܫܝܐܝܬ	-10604
▁ܪܘܪܒܝܢ	-10605
▁ܪܩܕܬܘܢ	-10606
▁ܪܫܝܟܘܢ	-10607
▁ܫܒܗܪܢܐ	-10608
▁ܫܒܘܩܝܗ	-10609
▁ܫܘܝܐܝܬ	-10610
▁ܫܘܝܘܬܐ	-10611
▁ܫܘܠܛܢܗ	-10612
▁ܫܘܥܝܬܐ	-10613
▁ܫܘܪܥܬܐ	-10614
▁ܫܘܬܦܝܢ	-10615
▁ܫܠܝܚܝܢ	-10616
▁ܫܠܝܛܢܐ	-10617
▁ܫܠܬܐܝܠ	-10618
▁ܫܡܘܐܝܠ	-10619
▁ܫܡܥܝܢܢ	-10620
▁ܫܡܪܝܬܐ	-10621
▁ܫܪܐܘܗܝ	-10622
▁ܫܪܟܗܘܢ	-10623
▁ܫܬܝܩܝܢ	-10624
▁ܬܐܒܕܘܢ	-10625
▁ܬܐܚܕܘܢ	-10626
▁ܬܕܘܢܘܢ	-10627
▁ܬܕܚܠܝܢ	-10628
▁ܬܕܟܝܬܟ	-10629
▁ܬܕܡܪܬܐ	-10630
▁ܬܕܡܪܬܗ	-10631
▁ܬܗܠܟܘܢ	-10632
▁ܬܘܒܕܘܢ	-10633
▁ܬܘܪܤܝܐ	-10634
▁ܬܚܠܘܦܐ	-10635
▁ܬܛܠܝܠܐ	-10636
▁ܬܟܤܝܬܐ	-10637
▁ܬܠܒܫܘܢ	-10638
▁ܬܡܢܐܝܢ	-10639
▁ܬܥܬܪܘܢ	-10640
▁ܬܦܪܥܘܢ	-10641
▁ܬܪܓܙܘܢ	-10642
▁ܬܪܛܢܘܢ	-10643
▁ܬܪܥܘܬܐ	-10644
▁ܬܫܠܡܘܢ	-10645
▁ܬܫܢܩܢܝ	-10646
▁ܬܫܥܝܬܐ	-10647
▁ܬܫܩܠܘܢ	-10648
▁ܬܬܘܒܘܢ	-10649
▁ܬܬܚܬܝܢ	-10650
▁ܬܬܩܪܘܢ	-10651
▁ܬܬܪܥܘܢ	-10652
ܛܪܓܘܢܝܗܝ	-10653
ܟܝܬܘܢܝܗܝ	-10654
ܤܝܒܪܢܘܬܟ	-10655
▁ܐܒܗܝܗܘܢ	-10656
▁ܐܒܗܬܗܘܢ	-10657
▁ܐܘܒܠܘܗܝ	-10658
▁ܐܘܠܨܢܝܢ	-10659
▁ܐܚܝܕܝܢܢ	-10660
▁ܐܚܝܢܘܗܝ	-10661
▁ܐܚܫܡܝܬܐ	-10662
▁ܐܝܕܝܟܘܢ	-10663
▁ܐܟܘܬܗܘܢ	-10664
▁ܐܡܠܟܬܘܢ	-10665
▁ܐܢܕܪܐܘܤ	-10666
▁ܐܢܤܝܡܘܤ	-10667
▁ܐܤܘܛܘܬܐ	-10668
▁ܐܤܛܘܟܤܐ	-10669
▁ܐܥܝܪܘܗܝ	-10670
▁ܐܪܒܥܡܐܐ	-10671
▁ܐܪܒܬܥܤܪ	-10672
▁ܐܪܕܝܘܗܝ	-10673
▁ܐܫܟܚܬܘܢ	-10674
▁ܐܫܠܚܘܗܝ	-10675
▁ܐܫܠܡܘܗܝ	-10676
▁ܐܫܠܡܬܘܢ	-10677
▁ܐܫܬܘܬܦܘ	-10678
▁ܐܬܕܟܪܝܢ	-10679
▁ܐܬܠܝܘܗܝ	-10680
▁ܐܬܬܙܝܥܘ	-10681
▁ܐܬܬܢܝܚܘ	-10682
▁ܒܐܘܪܚܬܐ	-10683
▁ܒܐܝܤܪܝܠ	-10684
▁ܒܒܘܪܟܬܐ	-10685
▁ܒܕܢܝܐܝܠ	-10686
▁ܒܗܬܬܗܘܢ	-10687
▁ܒܘܝܐܟܘܢ	-10688
▁ܒܚܒܘܫܝܐ	-10689
▁ܒܝܗܘܕܝܐ	-10690
▁ܒܟܘܪܗܢܝ	-10691
▁ܒܟܪܝܘܬܐ	-10692
▁ܒܠܚܘܕܝܗ	-10693
▁ܒܠܚܘܕܝܟ	-10694
▁ܒܠܚܘܕܝܢ	-10695
▁ܒܡܟܝܟܘܬ	-10696
▁ܒܡܠܟܘܬܟ	-10697
▁ܒܡܩܕܡܘܬ	-10698
▁ܒܢܒܝܘܬܐ	-10699
▁ܒܢܟܦܘܬܐ	-10700
▁ܒܤܝܡܘܬܗ	-10701
▁ܒܥܙܪܘܪܐ	-10702
▁ܒܥܠܕܒܒܝ	-10703
▁ܒܥܠܙܒܘܒ	-10704
▁ܒܦܓܪܟܘܢ	-10705
▁ܒܦܪܕܝܤܐ	-10706
▁ܒܩܘܪܒܢܐ	-10707
▁ܒܫܓܘܫܝܐ	-10708
▁ܒܫܘܒܩܢܐ	-10709
▁ܒܫܘܘܕܥܗ	-10710
▁ܒܬܕܟܝܬܐ	-10711
▁ܒܬܚܡܨܬܐ	-10712
▁ܒܬܫܡܫܬܗ	-10713
▁ܓܒܪܝܐܝܠ	-10714
▁ܓܡܝܪܘܬܐ	-10715
▁ܕܐܓܪܟܘܢ	-10716
▁ܕܐܘܠܨܢܐ	-10717
▁ܕܐܙܕܪܥܬ	-10718
▁ܕܐܚܒܬܢܝ	-10719
▁ܕܐܝܛܠܝܐ	-10720
▁ܕܐܠܗܗܘܢ	-10721
▁ܕܐܠܝܨܝܢ	-10722
▁ܕܐܠܝܫܒܥ	-10723
▁ܕܐܡܪܝܢܢ	-10724
▁ܕܐܪܓܘܢܐ	-10725
▁ܕܐܪܛܡܝܤ	-10726
▁ܕܐܪܟܘܢܐ	-10727
▁ܕܐܫܬܒܗܪ	-10728
▁ܕܐܫܬܥܒܕ	-10729
▁ܕܐܬܒܕܪܘ	-10730
▁ܕܐܬܚܙܝܬ	-10731
▁ܕܐܬܚܫܒܬ	-10732
▁ܕܐܬܝܗܒܘ	-10733
▁ܕܐܬܡܠܠܬ	-10734
▁ܕܐܬܦܩܕܘ	-10735
▁ܕܒܐܝܤܚܩ	-10736
▁ܕܒܕܡܘܬܗ	-10737
▁ܕܒܗܝܟܠܐ	-10738
▁ܕܒܘܚܪܢܐ	-10739
▁ܕܒܚܫܘܟܐ	-10740
▁ܕܒܝܫܘܬܐ	-10741
▁ܕܒܠܒܘܬܐ	-10742
▁ܕܒܡܡܠܠܐ	-10743
▁ܕܒܢܡܘܤܢ	-10744
▁ܕܒܤܪܟܘܢ	-10745
▁ܕܒܨܪܬܘܢ	-10746
▁ܕܒܪܗܘܡܝ	-10747
▁ܕܓܡܝܪܝܢ	-10748
▁ܕܕܓܠܘܬܐ	-10749
▁ܕܕܝܢܗܘܢ	-10750
▁ܕܗܓܡܘܢܐ	-10751
▁ܕܗܪܘܕܝܐ	-10752
▁ܕܙܕܘܩܝܐ	-10753
▁ܕܚܐܪܘܬܐ	-10754
▁ܕܚܕܝܪܝܢ	-10755
▁ܕܚܕܥܤܪܐ	-10756
▁ܕܚܙܐܘܗܝ	-10757
▁ܕܚܙܝܬܢܝ	-10758
▁ܕܚܛܗܘܗܝ	-10759
▁ܕܚܝܠܘܬܐ	-10760
▁ܕܚܠܬܗܘܢ	-10761
▁ܕܛܠܝܘܬܐ	-10762
▁ܕܟܕܒܘܬܐ	-10763
▁ܕܟܘܪܗܢܐ	-10764
▁ܕܟܘܪܤܝܗ	-10765
▁ܕܟܪܝܘܬܐ	-10766
▁ܕܠܐܚܪܢܐ	-10767
▁ܕܠܒܢܝܢܐ	-10768
▁ܕܠܘܬܗܘܢ	-10769
▁ܕܠܡܠܐܟܐ	-10770
▁ܕܠܡܫܝܚܐ	-10771
▁ܕܠܩܘܒܠܐ	-10772
▁ܕܡܐܬܝܬܗ	-10773
▁ܕܡܒܙܚܝܢ	-10774
▁ܕܡܘܗܒܬܗ	-10775
▁ܕܡܙܡܘܪܐ	-10776
▁ܕܡܙܡܢܝܢ	-10777
▁ܕܡܚܒܝܢܢ	-10778
▁ܕܡܛܪܝܘܤ	-10779
▁ܕܡܝܬܪܝܢ	-10780
▁ܕܡܤܒܪܢܐ	-10781
▁ܕܡܥܤܪܝܢ	-10782
▁ܕܡܥܪܦܢܐ	-10783
▁ܕܡܪܥܝܬܐ	-10784
▁ܕܡܫܡܫܝܢ	-10785
▁ܕܡܫܬܘܬܐ	-10786
▁ܕܡܫܬܡܫܐ	-10787
▁ܕܡܬܚܪܝܢ	-10788
▁ܕܡܬܡܠܠܢ	-10789
▁ܕܡܬܦܫܩܐ	-10790
▁ܕܡܬܩܢܝܢ	-10791
▁ܕܡܬܬܚܝܒ	-10792
▁ܕܢܒܝܘܗܝ	-10793
▁ܕܢܗܪܘܬܐ	-10794
▁ܕܢܛܪܘܢܗ	-10795
▁ܕܢܥܒܪܘܢ	-10796
▁ܕܢܨܘܡܘܢ	-10797
▁ܕܢܨܥܪܘܢ	-10798
▁ܕܢܩܛܠܘܢ	-10799
▁ܕܢܫܕܪܘܢ	-10800
▁ܕܢܫܟܚܘܢ	-10801
▁ܕܢܫܠܡܘܢ	-10802
▁ܕܢܫܬܥܒܕ	-10803
▁ܕܢܫܬܩܘܢ	-10804
▁ܕܢܬܘܒܘܢ	-10805
▁ܕܤܒܪܟܘܢ	-10806
▁ܕܤܗܕܘܬܗ	-10807
▁ܕܤܘܢܩܢܢ	-10808
▁ܕܥܒܕܘܗܝ	-10809
▁ܕܥܛܝܦܝܢ	-10810
▁ܕܥܪܘܒܬܐ	-10811
▁ܕܦܓܪܟܘܢ	-10812
▁ܕܦܝܠܛܘܤ	-10813
▁ܕܦܠܚܬܘܢ	-10814
▁ܕܦܪܨܘܦܗ	-10815
▁ܕܦܬܝܚܝܢ	-10816
▁ܕܨܒܝܬܘܢ	-10817
▁ܕܩܕܡܘܗܝ	-10818
▁ܕܩܪܝܒܝܢ	-10819
▁ܕܪܓܝܓܬܐ	-10820
▁ܕܪܫܝܗܘܢ	-10821
▁ܕܫܘܒܩܢܐ	-10822
▁ܕܫܘܘܕܝܐ	-10823
▁ܕܫܝܠܘܚܐ	-10824
▁ܕܫܠܝܚܝܢ	-10825
▁ܕܫܩܠܘܗܝ	-10826
▁ܕܬܟܝܠܝܢ	-10827
▁ܕܬܦܪܫܘܢ	-10828
▁ܕܬܩܝܡܘܢ	-10829
▁ܕܬܪܥܘܬܐ	-10830
▁ܕܬܫܡܫܬܗ	-10831
▁ܕܬܬܗܝܡܢ	-10832
▁ܕܬܬܢܒܘܢ	-10833
▁ܕܬܬܢܤܘܢ	-10834
▁ܗܘܡܢܐܘܤ	-10835
▁ܘܐܒܘܟܘܢ	-10836
▁ܘܐܒܝܠܝܢ	-10837
▁ܘܐܙܕܕܩܬ	-10838
▁ܘܐܚܝܕܝܢ	-10839
▁ܘܐܟܤܢܝܐ	-10840
▁ܘܐܤܪܘܗܝ	-10841
▁ܘܐܤܬܡܟܘ	-10842
▁ܘܐܪܓܘܢܐ	-10843
▁ܘܐܪܟܘܢܐ	-10844
▁ܘܐܪܡܠܬܐ	-10845
▁ܘܐܫܦܥܬܗ	-10846
▁ܘܐܫܬܓܫܬ	-10847
▁ܘܐܫܬܘܕܝ	-10848
▁ܘܐܫܬܡܥܬ	-10849
▁ܘܐܫܬܪܝܘ	-10850
▁ܘܐܬܐܒܠܘ	-10851
▁ܘܐܬܐܤܝܬ	-10852
▁ܘܐܬܕܡܪܬ	-10853
▁ܘܐܬܚܙܝܬ	-10854
▁ܘܐܬܚܢܩܘ	-10855
▁ܘܐܬܛܪܝܘ	-10856
▁ܘܐܬܝܗܒܬ	-10857
▁ܘܐܬܡܠܟܘ	-10858
▁ܘܐܬܦܢܝܘ	-10859
▁ܘܐܬܦܢܝܬ	-10860
▁ܘܐܬܦܬܚܘ	-10861
▁ܘܐܬܬܘܤܦ	-10862
▁ܘܐܬܬܙܝܥ	-10863
▁ܘܒܐܘܪܚܐ	-10864
▁ܘܒܐܝܠܝܢ	-10865
▁ܘܒܒܘܝܐܐ	-10866
▁ܘܒܓܠܛܝܐ	-10867
▁ܘܒܕܚܠܬܐ	-10868
▁ܘܒܘܪܟܬܐ	-10869
▁ܘܒܛܝܠܝܢ	-10870
▁ܘܒܝܫܐܝܬ	-10871
▁ܘܒܟܠܗܘܢ	-10872
▁ܘܒܟܠܡܕܡ	-10873
▁ܘܒܠܐܘܬܐ	-10874
▁ܘܒܡܫܬܝܐ	-10875
▁ܘܕܐܝܤܚܩ	-10876
▁ܘܕܙܒܘܪܐ	-10877
▁ܘܕܚܝܘܬܐ	-10878
▁ܘܕܝܥܩܘܒ	-10879
▁ܘܕܢܤܬܠܐ	-10880
▁ܘܕܢܬܟܪܙ	-10881
▁ܘܕܥܡܘܪܐ	-10882
▁ܘܕܫܡܥܘܢ	-10883
▁ܘܕܬܪܬܝܢ	-10884
▁ܘܙܥܘܪܝܢ	-10885
▁ܘܚܕܪܘܗܝ	-10886
▁ܘܚܙܝܬܘܢ	-10887
▁ܘܚܤܝܪܝܢ	-10888
▁ܘܛܝܒܘܬܗ	-10889
▁ܘܝܘܠܦܢܐ	-10890
▁ܘܟܘܪܤܝܗ	-10891
▁ܘܠܐܒܕܢܐ	-10892
▁ܘܠܐܝܩܪܐ	-10893
▁ܘܠܐܩܠܘܤ	-10894
▁ܘܠܒܘܢܬܐ	-10895
▁ܘܠܒܝܫܝܢ	-10896
▁ܘܠܓܠܝܢܐ	-10897
▁ܘܠܡܐܤܝܘ	-10898
▁ܘܠܡܡܘܢܐ	-10899
▁ܘܠܥܘܝܪܐ	-10900
▁ܘܠܥܡܘܪܐ	-10901
▁ܘܠܦܪܚܬܐ	-10902
▁ܘܠܦܬܟܪܐ	-10903
▁ܘܠܩܝܡܬܐ	-10904
▁ܘܡܐܢܘܗܝ	-10905
▁ܘܡܒܙܚܝܢ	-10906
▁ܘܡܘܗܒܬܗ	-10907
▁ܘܡܠܟܘܬܐ	-10908
▁ܘܡܢܝܕܝܢ	-10909
▁ܘܡܥܕܪܢܐ	-10910
▁ܘܡܥܩܠܬܐ	-10911
▁ܘܡܩܪܒܝܢ	-10912
▁ܘܡܫܠܡܝܢ	-10913
▁ܘܡܫܬܥܠܐ	-10914
▁ܘܡܬܐܤܝܢ	-10915
▁ܘܡܬܪܓܪܓ	-10916
▁ܘܢܓܝܪܘܬ	-10917
▁ܘܢܙܒܢܘܢ	-10918
▁ܘܢܝܚܘܬܐ	-10919
▁ܘܢܡܠܟܘܢ	-10920
▁ܘܢܩܒܠܘܢ	-10921
▁ܘܢܫܠܡܘܢ	-10922
▁ܘܢܬܢܒܘܢ	-10923
▁ܘܤܠܘܢܘܤ	-10924
▁ܘܥܒܕܝܢܢ	-10925
▁ܘܥܪܒܘܗܝ	-10926
▁ܘܥܪܛܠܝܐ	-10927
▁ܘܦܐܪܘܗܝ	-10928
▁ܘܦܗܤܛܘܤ	-10929
▁ܘܦܠܓܘܬܐ	-10930
▁ܘܩܒܠܬܘܢ	-10931
▁ܘܩܕܝܫܬܐ	-10932
▁ܘܩܘܪܒܢܐ	-10933
▁ܘܩܛܠܬܘܢ	-10934
▁ܘܩܪܐܘܗܝ	-10935
▁ܘܪܘܪܒܢܐ	-10936
▁ܘܫܘܒܗܪܐ	-10937
▁ܘܫܡܥܬܘܢ	-10938
▁ܘܫܦܝܪܬܐ	-10939
▁ܘܫܬܐܤܬܐ	-10940
▁ܘܬܐܡܪܘܢ	-10941
▁ܘܬܕܘܢܘܢ	-10942
▁ܘܬܠܡܝܕܐ	-10943
▁ܘܬܪܥܝܬܐ	-10944
▁ܘܬܫܟܚܘܢ	-10945
▁ܘܬܫܡܫܬܟ	-10946
▁ܘܬܫܦܪܘܢ	-10947
▁ܙܥܘܪܗܘܢ	-10948
▁ܚܒܢܢܘܬܐ	-10949
▁ܚܕܘܬܟܘܢ	-10950
▁ܚܘܝܬܟܘܢ	-10951
▁ܚܛܗܝܟܘܢ	-10952
▁ܚܠܦܝܗܘܢ	-10953
▁ܚܡܫܥܤܪܐ	-10954
▁ܚܡܫܬܥܤܪ	-10955
▁ܚܤܝܪܘܬܐ	-10956
▁ܚܤܝܪܘܬܗ	-10957
▁ܚܦܝܛܐܝܬ	-10958
▁ܝܕܘܥܘܗܝ	-10959
▁ܝܕܥܬܟܘܢ	-10960
▁ܝܬܝܪܘܬܐ	-10961
▁ܟܘܡܪܘܬܗ	-10962
▁ܟܢܘܬܗܘܢ	-10963
▁ܟܢܝܫܝܢܢ	-10964
▁ܟܦܪܢܚܘܡ	-10965
▁ܟܪܘܙܘܬܢ	-10966
▁ܟܪܝܗܘܬܐ	-10967
▁ܟܪܝܗܘܬܢ	-10968
▁ܠܐܘܪܚܬܐ	-10969
▁ܠܐܤܦܢܝܐ	-10970
▁ܠܒܢܝܗܘܢ	-10971
▁ܠܒܢܝܟܘܢ	-10972
▁ܠܒܬܘܠܬܐ	-10973
▁ܠܒܬܝܗܘܢ	-10974
▁ܠܓܙܘܪܬܐ	-10975
▁ܠܕܘܟܪܢܗ	-10976
▁ܠܕܥܡܪܝܢ	-10977
▁ܠܗܓܡܘܢܐ	-10978
▁ܠܚܤܝܪܘܬ	-10979
▁ܠܛܝܒܘܬܐ	-10980
▁ܠܛܝܒܘܬܗ	-10981
▁ܠܛܢܦܘܬܐ	-10982
▁ܠܝܪܬܘܬܐ	-10983
▁ܠܟܐܢܘܬܗ	-10984
▁ܠܟܢܫܗܘܢ	-10985
▁ܠܡܗܝܡܢܘ	-10986
▁ܠܡܤܝܒܪܘ	-10987
▁ܠܡܤܬܟܠܘ	-10988
▁ܠܡܪܝܗܘܢ	-10989
▁ܠܡܫܡܥܬܗ	-10990
▁ܠܡܬܕܡܪܘ	-10991
▁ܠܡܬܟܡܪܘ	-10992
▁ܠܡܬܟܬܫܘ	-10993
▁ܠܡܬܡܠܠܘ	-10994
▁ܠܡܬܩܛܠܘ	-10995
▁ܠܡܬܩܪܒܘ	-10996
▁ܠܦܓܪܟܘܢ	-10997
▁ܠܦܘܢܝܩܐ	-10998
▁ܠܩܕܡܘܗܝ	-10999
▁ܠܩܕܡܝܬܐ	-11000
▁ܠܩܘܦܪܘܤ	-11001
▁ܠܩܪܩܘܪܐ	-11002
▁ܠܪܗܘܡܝܐ	-11003
▁ܠܬܪܝܗܘܢ	-11004
▁ܡܘܕܥܝܢܢ	-11005
▁ܡܙܕܕܩܝܢ	-11006
▁ܡܚܝܠܝܢܢ	-11007
▁ܡܛܫܝܐܝܬ	-11008
▁ܡܝܘܬܘܬܐ	-11009
▁ܡܝܬܝܗܘܢ	-11010
▁ܡܝܬܪܘܬܐ	-11011
▁ܡܠܟܝܙܕܩ	-11012
▁ܡܢܝܢܗܘܢ	-11013
▁ܡܤܝܒܪܢܘ	-11014
▁ܡܤܬܒܪܝܢ	-11015
▁ܡܤܬܥܪܝܢ	-11016
▁ܡܦܩܕܝܢܢ	-11017
▁ܡܩܒܠܝܢܢ	-11018
▁ܡܩܛܪܓܝܢ	-11019
▁ܡܪܝܪܐܝܬ	-11020
▁ܡܫܥܒܕܝܢ	-11021
▁ܡܫܬܒܚܝܢ	-11022
▁ܡܫܬܒܩܝܢ	-11023
▁ܡܫܬܢܩܝܢ	-11024
▁ܡܫܬܥܠܝܢ	-11025
▁ܡܬܒܤܡܝܢ	-11026
▁ܡܬܝܬܪܝܢ	-11027
▁ܡܬܟܫܠܝܢ	-11028
▁ܡܬܟܬܫܝܢ	-11029
▁ܢܕܪܟܟܘܢ	-11030
▁ܢܗܝܡܢܘܢ	-11031
▁ܢܘܕܥܟܘܢ	-11032
▁ܢܚܪܪܟܘܢ	-11033
▁ܢܢܤܝܟܘܢ	-11034
▁ܢܤܬܟܠܘܢ	-11035
▁ܢܥܗܕܟܘܢ	-11036
▁ܢܥܡܕܟܘܢ	-11037
▁ܢܫܩܠܘܢܟ	-11038
▁ܢܫܬܡܥܘܢ	-11039
▁ܢܬܚܒܠܘܢ	-11040
▁ܢܬܛܥܡܘܢ	-11041
▁ܢܬܟܢܫܘܢ	-11042
▁ܢܬܟܫܠܘܢ	-11043
▁ܢܬܦܪܥܘܢ	-11044
▁ܤܝܡܬܟܘܢ	-11045
▁ܤܦܪܝܗܘܢ	-11046
▁ܥܒܕܝܬܘܢ	-11047
▁ܥܬܝܕܐܝܬ	-11048
▁ܦܐܪܝܗܘܢ	-11049
▁ܦܓܪܝܟܘܢ	-11050
▁ܦܫܝܛܘܬܐ	-11051
▁ܨܒܝܢܗܘܢ	-11052
▁ܨܘܪܝܗܘܢ	-11053
▁ܨܠܘܬܗܘܢ	-11054
▁ܩܘܪܢܠܝܐ	-11055
▁ܩܘܪܢܬܝܐ	-11056
▁ܩܝܠܝܩܝܐ	-11057
▁ܩܠܘܕܝܘܤ	-11058
▁ܩܢܘܡܟܘܢ	-11059
▁ܩܪܨܝܟܘܢ	-11060
▁ܪܒܝܥܝܬܐ	-11061
▁ܪܘܚܢܐܝܬ	-11062
▁ܪܥܝܢܟܘܢ	-11063
▁ܫܕܪܬܟܘܢ	-11064
▁ܫܘܡܥܘܢܝ	-11065
▁ܫܝܦܘܪܝܢ	-11066
▁ܫܩܝܠܝܢܢ	-11067
▁ܬܐܘܦܝܠܐ	-11068
▁ܬܕܡܘܪܬܐ	-11069
▁ܬܕܪܝܘܗܝ	-11070
▁ܬܘܠܬܗܘܢ	-11071
▁ܬܟܝܠܐܝܬ	-11072
▁ܬܡܢܥܤܪܐ	-11073
▁ܬܤܬܟܠܘܢ	-11074
▁ܬܥܒܕܘܢܗ	-11075
▁ܬܪܥܤܪܬܐ	-11076
▁ܬܪܥܤܪܬܗ	-11077
▁ܬܫܬܟܚܘܢ	-11078
▁ܬܫܬܪܪܘܢ	-11079
▁ܬܬܙܝܥܘܢ	-11080
▁ܬܬܚܠܛܘܢ	-11081
▁ܬܬܝܬܪܘܢ	-11082
▁ܐܙܕܒܢܬܘܢ	-11083
▁ܐܚܕܬܘܢܢܝ	-11084
▁ܐܟܬܒܝܘܗܝ	-11085
▁ܐܠܝܨܝܬܘܢ	-11086
▁ܐܤܝܒܪܟܘܢ	-11087
▁ܐܪܤܛܪܟܘܤ	-11088
▁ܐܫܟܚܢܝܗܝ	-11089
▁ܐܫܬܡܥܬܘܢ	-11090
▁ܐܫܬܥܒܕܝܢ	-11091
▁ܐܬܒܨܪܬܘܢ	-11092
▁ܐܬܕܡܝܬܘܢ	-11093
▁ܐܬܩܪܒܬܘܢ	-11094
▁ܐܬܬܪܝܡܬܝ	-11095
▁ܒܐܕܢܝܗܘܢ	-11096
▁ܒܐܕܢܝܟܘܢ	-11097
▁ܒܐܘܡܢܘܬܐ	-11098
▁ܒܐܝܤܪܐܝܠ	-11099
▁ܒܒܤܝܡܘܬܐ	-11100
▁ܒܗܓܡܢܘܬܐ	-11101
▁ܒܗܝܡܢܘܬܗ	-11102
▁ܒܚܛܗܝܗܘܢ	-11103
▁ܒܝܫܘܬܗܘܢ	-11104
▁ܒܝܬܝܪܘܬܐ	-11105
▁ܒܟܪܘܙܘܬܗ	-11106
▁ܒܟܪܝܗܘܬܐ	-11107
▁ܒܡܩܕܘܢܝܐ	-11108
▁ܒܦܝܠܝܦܘܤ	-11109
▁ܒܦܪܛܘܪܝܢ	-11110
▁ܒܫܠܝܚܘܬܐ	-11111
▁ܒܫܪܒܬܗܘܢ	-11112
▁ܕܐܫܬܒܗܪܢ	-11113
▁ܕܐܬܗܝܡܢܬ	-11114
▁ܕܒܕܪܡܤܘܩ	-11115
▁ܕܒܛܝܒܘܬܐ	-11116
▁ܕܒܟܢܘܫܬܐ	-11117
▁ܕܒܡܚܙܝܬܐ	-11118
▁ܕܒܤܝܡܘܬܗ	-11119
▁ܕܒܫܘܠܛܢܐ	-11120
▁ܕܚܕܪܝܗܝܢ	-11121
▁ܕܚܘܠܬܢܝܢ	-11122
▁ܕܚܛܗܝܗܘܢ	-11123
▁ܕܚܟܝܡܐܝܬ	-11124
▁ܕܛܝܒܪܝܘܤ	-11125
▁ܕܡܛܠܬܗܘܢ	-11126
▁ܕܡܤܒܪܝܢܢ	-11127
▁ܕܡܫܬܘܕܝܢ	-11128
▁ܕܡܫܬܡܥܝܢ	-11129
▁ܕܡܬܟܪܟܝܢ	-11130
▁ܕܡܬܩܪܒܝܢ	-11131
▁ܕܢܚܙܝܘܗܝ	-11132
▁ܕܢܦܫܬܟܘܢ	-11133
▁ܕܢܫܪܝܘܗܝ	-11134
▁ܕܢܫܪܪܟܘܢ	-11135
▁ܕܢܫܬܡܠܝܢ	-11136
▁ܕܢܬܕܝܢܘܢ	-11137
▁ܕܢܬܕܡܪܘܢ	-11138
▁ܕܤܒܪܢܟܘܢ	-11139
▁ܕܤܪܝܩܘܬܐ	-11140
▁ܕܦܝܤܝܕܝܐ	-11141
▁ܕܬܙܕܗܪܘܢ	-11142
▁ܕܬܫܬܡܥܘܢ	-11143
▁ܕܬܬܓܙܪܘܢ	-11144
▁ܕܬܬܪܚܩܘܢ	-11145
▁ܘܐܚܙܝܟܘܢ	-11146
▁ܘܐܥܒܕܟܘܢ	-11147
▁ܘܒܓܒܪܘܬܐ	-11148
▁ܘܒܕܟܝܘܬܐ	-11149
▁ܘܒܙܡܝܪܬܐ	-11150
▁ܘܒܟܐܢܘܬܐ	-11151
▁ܘܒܡܕܝܢܬܐ	-11152
▁ܘܒܡܘܠܟܢܐ	-11153
▁ܘܒܤܝܡܘܬܐ	-11154
▁ܘܒܥܠܕܒܒܐ	-11155
▁ܘܒܪܓܝܓܬܐ	-11156
▁ܘܒܪܘܝܘܬܐ	-11157
▁ܘܒܬܫܒܚܬܐ	-11158
▁ܘܕܐܘܪܫܠܡ	-11159
▁ܘܕܝܬܝܪܝܢ	-11160
▁ܘܙܕܝܩܘܬܐ	-11161
▁ܘܙܕܝܩܘܬܗ	-11162
▁ܘܙܚܘܪܝܬܐ	-11163
▁ܘܚܕܘܬܟܘܢ	-11164
▁ܘܚܛܗܝܗܘܢ	-11165
▁ܘܟܘܪܤܘܬܐ	-11166
▁ܘܟܠܝܢܝܗܝ	-11167
▁ܘܠܐܪܡܠܬܐ	-11168
▁ܘܠܝܘܠܦܢܐ	-11169
▁ܘܠܡܥܪܦܢܐ	-11170
▁ܘܠܫܠܝܛܢܐ	-11171
▁ܘܡܐܟܘܠܬܗ	-11172
▁ܘܡܗܝܡܢܝܢ	-11173
▁ܘܡܤܗܕܝܢܢ	-11174
▁ܘܡܤܘܚܝܢܢ	-11175
▁ܘܡܪܓܢܝܬܐ	-11176
▁ܘܡܫܬܥܒܕܢ	-11177
▁ܘܡܬܟܫܠܝܢ	-11178
▁ܘܡܬܟܫܦܝܢ	-11179
▁ܘܡܬܬܡܗܝܢ	-11180
▁ܘܢܘܟܪܝܝܢ	-11181
▁ܘܢܚܘܝܟܘܢ	-11182
▁ܘܢܚܝܒܘܢܗ	-11183
▁ܘܢܤܬܡܟܘܢ	-11184
▁ܘܢܬܒܕܪܘܢ	-11185
▁ܘܤܟܘܠܬܢܐ	-11186
▁ܘܪܗܘܡܐܝܬ	-11187
▁ܘܪܫܢܝܗܘܢ	-11188
▁ܘܫܘܬܦܘܬܐ	-11189
▁ܘܫܠܝܚܘܬܐ	-11190
▁ܘܫܪܝܪܐܝܬ	-11191
▁ܘܬܗܝܡܢܘܢ	-11192
▁ܘܬܠܡܝܕܝܟ	-11193
▁ܘܬܫܒܘܚܬܗ	-11194
▁ܠܐܒܗܝܟܘܢ	-11195
▁ܠܐܘܨܪܘܗܝ	-11196
▁ܠܐܤܛܪܛܓܐ	-11197
▁ܠܒܤܬܪܗܘܢ	-11198
▁ܠܒܥܠܕܒܒܐ	-11199
▁ܠܛܘܟܝܩܘܤ	-11200
▁ܠܡܐܤܝܘܬܗ	-11201
▁ܠܡܘܒܕܘܬܢ	-11202
▁ܠܡܡܠܠܘܬܗ	-11203
▁ܠܡܪܓܙܘܬܗ	-11204
▁ܠܡܫܬܒܗܪܘ	-11205
▁ܠܢܦܫܬܟܘܢ	-11206
▁ܠܢܬܢܝܐܝܠ	-11207
▁ܠܤܘܚܦܟܘܢ	-11208
▁ܠܥܝܢܝܗܘܢ	-11209
▁ܠܩܘܪܢܬܘܤ	-11210
▁ܠܬܠܡܝܕܝܟ	-11211
▁ܡܨܝܕܬܟܘܢ	-11212
▁ܡܬܒܝܐܝܢܢ	-11213
▁ܡܬܪܓܪܓܝܢ	-11214
▁ܡܬܬܥܝܩܝܢ	-11215
▁ܢܓܠܘܢܝܗܝ	-11216
▁ܢܥܒܕܝܘܗܝ	-11217
▁ܢܫܟܚܝܘܗܝ	-11218
▁ܢܬܬܙܝܥܘܢ	-11219
▁ܤܢܝܩܝܬܘܢ	-11220
▁ܥܪܘܩܝܟܘܢ	-11221
▁ܩܛܓܪܢܘܬܐ	-11222
▁ܫܘܒܗܪܟܘܢ	-11223
▁ܫܘܠܛܢܗܘܢ	-11224
▁ܬܚܘܡܝܗܘܢ	-11225
▁ܬܪܢܓܘܠܬܐ	-11226
▁ܬܫܟܚܘܢܢܝ	-11227
▁ܬܫܡܫܬܗܘܢ	-11228
▁ܬܫܬܘܬܦܘܢ	-11229
▁ܐܠܟܤܢܕܪܝܐ	-11230
▁ܒܕܘܟܝܬܗܝܢ	-11231
▁ܒܡܥܕܪܢܘܬܐ	-11232
▁ܒܥܠܕܒܒܘܗܝ	-11233
▁ܒܦܘܩܕܢܘܗܝ	-11234
▁ܒܪܥܝܢܝܗܘܢ	-11235
▁ܒܬܠܡܝܕܘܗܝ	-11236
▁ܕܐܚܪܢܝܐܝܬ	-11237
▁ܕܒܐܝܕܝܗܘܢ	-11238
▁ܕܒܬܐܘܛܝܪܐ	-11239
▁ܕܠܡܠܐܟܘܗܝ	-11240
▁ܕܡܥܡܘܕܝܬܐ	-11241
▁ܕܡܫܬܚܪܝܢܢ	-11242
▁ܕܢܐܩܘܠܝܛܐ	-11243
▁ܕܢܕܘܢܝܘܗܝ	-11244
▁ܕܢܝܬܘܢܝܗܝ	-11245
▁ܕܢܦܩܘܢܝܗܝ	-11246
▁ܕܢܩܪܘܢܝܗܝ	-11247
▁ܕܢܬܬܢܝܚܘܢ	-11248
▁ܕܦܢܛܩܘܤܛܐ	-11249
▁ܘܐܪܤܛܪܟܘܤ	-11250
▁ܘܐܫܒܩܝܘܗܝ	-11251
▁ܘܒܙܕܝܩܘܬܐ	-11252
▁ܘܒܩܝܠܝܩܝܐ	-11253
▁ܘܕܦܡܦܘܠܝܐ	-11254
▁ܘܕܩܕܝܫܘܬܐ	-11255
▁ܘܠܐܢܛܝܟܝܐ	-11256
▁ܘܠܬܫܒܘܚܬܐ	-11257
▁ܘܡܬܛܦܝܤܝܢ	-11258
▁ܘܢܦܠܓܝܘܗܝ	-11259
▁ܘܦܘܩܕܢܘܗܝ	-11260
▁ܟܘܪܗܢܝܗܘܢ	-11261
▁ܠܐܘܢܓܠܝܘܢ	-11262
▁ܠܡܥܡܘܕܝܬܐ	-11263
▁ܡܚܡܤܢܢܘܬܐ	-11264
▁ܡܫܬܡܥܢܘܬܗ	-11265
▁ܢܩܛܠܘܢܝܗܝ	-11266
▁ܩܘܪܒܢܝܗܘܢ	-11267
▁ܬܩܒܠܘܢܝܗܝ	-11268
▁ܬܫܒܘܚܬܟܘܢ	-11269
▁ܒܕܘܢܒܝܬܗܘܢ	-11270
▁ܒܗܝܡܢܘܬܗܘܢ	-11271
▁ܕܐܢܤܝܦܘܪܘܤ	-11272
▁ܕܢܘܒܕܘܢܝܗܝ	-11273
▁ܕܢܩܒܠܘܢܝܗܝ	-11274
▁ܕܢܫܠܡܘܢܟܘܢ	-11275
▁ܕܬܤܠܘܢܝܩܝܐ	-11276
▁ܘܐܠܟܤܢܕܪܘܤ	-11277
▁ܘܐܫܬܘܕܥܘܗܝ	-11278
▁ܘܒܟܢܘܫܬܗܘܢ	-11279
▁ܘܡܤܝܒܪܢܘܬܟ	-11280
▁ܘܡܫܬܒܗܪܝܢܢ	-11281
▁ܘܢܚܝܒܘܢܝܗܝ	-11282
▁ܘܪܘܪܒܢܝܗܘܢ	-11283
▁ܠܡܕܒܪܢܝܟܘܢ	-11284
▁ܠܡܚܝܒܘܬܟܘܢ	-11285
▁ܡܫܠܡܢܘܬܟܘܢ	-11286
▁ܕܒܡܤܝܒܪܢܘܬܐ	-11287
▁ܡܫܬܡܥܢܘܬܟܘܢ	-11288
ܤܛܤ	-11289
ܓܠܘܙ	-11290
ܗܤܛܤ	-11291
ܙܕܘܓ	-11292
ܙܢܝܘ	-11293
ܚܠܬܗ	-11294
ܛܪܘܦ	-11295
ܠܓܘܤ	-11296
ܨܝܕܘ	-11297
ܨܝܕܬ	-11298
ܫܪܬܚ	-11299
ܦܠܛܬ	-11300
▁ܓܪܓ	-11301
ܒܘܝܐܗ	-11302
ܒܟܘܢܗ	-11303
ܒܤܬܪܝ	-11304
ܓܥܠܝܢ	-11305
ܘܕܝܬܢ	-11306
ܙܘܪܬܗ	-11307
ܛܓܪܘܢ	-11308
ܛܝܡܘܢ	-11309
ܡܪܡܪܘ	-11310
ܢܕܝܘܢ	-11311
ܤܛܟܘܤ	-11312
ܤܝܤܝܢ	-11313
ܥܠܡܝܢ	-11314
ܦܪܝܕܐ	-11315
ܦܪܟܝܐ	-11316
ܪܝܗܘܬ	-11317
▁ܐܛܠܬ	-11318
▁ܐܩܠܘ	-11319
▁ܒܝܐܘ	-11320
▁ܓܕܠܘ	-11321
▁ܕܐܓܥ	-11322
▁ܕܠܛܬ	-11323
▁ܕܥܬܩ	-11324
▁ܗܦܘܟ	-11325
▁ܘܛܪܕ	-11326
▁ܘܝܒܫ	-11327
▁ܘܥܨܒ	-11328
▁ܚܒܠܢ	-11329
▁ܚܠܨܘ	-11330
▁ܚܠܨܬ	-11331
▁ܚܢܩܢ	-11332
▁ܚܢܬܟ	-11333
▁ܛܘܪܢ	-11334
▁ܛܥܢܟ	-11335
▁ܝܐܝܢ	-11336
▁ܝܐܢܝ	-11337
▁ܠܠܘܝ	-11338
▁ܡܒܙܥ	-11339
▁ܡܘܩܕ	-11340
▁ܡܛܪܗ	-11341
▁ܢܒܕܩ	-11342
▁ܢܕܒܚ	-11343
▁ܢܘܩܕ	-11344
▁ܢܠܐܐ	-11345
▁ܢܠܚܐ	-11346
▁ܤܒܥܬ	-11347
▁ܤܘܢܛ	-11348
▁ܥܛܦܬ	-11349
▁ܥܬܕܘ	-11350
▁ܦܘܓܠ	-11351
▁ܦܘܠܓ	-11352
▁ܦܟܝܗ	-11353
▁ܦܠܝܓ	-11354
▁ܨܗܝܐ	-11355
▁ܨܨܠܐ	-11356
▁ܪܟܒܗ	-11357
▁ܪܦܫܐ	-11358
▁ܪܬܝܬ	-11359
▁ܫܟܒܘ	-11360
▁ܫܟܒܝ	-11361
▁ܫܥܬܝ	-11362
▁ܬܕܓܠ	-11363
▁ܬܪܨܬ	-11364
ܒܝܚܘܬܗ	-11365
ܓܘܙܠܝܢ	-11366
ܕܪܢܐܝܬ	-11367
ܙܝܙܐܝܬ	-11368
ܙܟܝܟܘܢ	-11369
ܚܦܘܢܟܝ	-11370
ܛܝܘܟܝܐ	-11371
ܛܪܘܦܤܐ	-11372
ܝܕܝܩܝܐ	-11373
ܟܝܦܐܝܬ	-11374
ܠܛܢܗܘܢ	-11375
ܡܫܚܘܢܗ	-11376
ܢܝܛܝܢܢ	-11377
ܤܛܕܝܘܢ	-11378
ܥܝܦܐܝܬ	-11379
ܥܝܩܬܘܢ	-11380
ܨܝܝܘܬܗ	-11381
ܪܝܗܘܬܢ	-11382
ܬܚܦܝܢܢ	-11383
ܬܟܢܫܘܢ	-11384
▁ܐܒܗܝܗ	-11385
▁ܐܕܘܢܟ	-11386
▁ܐܘܚܕܘ	-11387
▁ܐܘܬܪܬ	-11388
▁ܐܚܠܡܬ	-11389
▁ܐܚܬܬܗ	-11390
▁ܐܤܟܡܗ	-11391
▁ܐܫܒܚܟ	-11392
▁ܐܬܚܡܬ	-11393
▁ܐܬܡܗܢ	-11394
▁ܐܬܥܙܙ	-11395
▁ܒܓܘܟܝ	-11396
▁ܒܕܥܒܕ	-11397
▁ܒܚܘܒܢ	-11398
▁ܒܚܠܬܗ	-11399
▁ܥܙܘܪ	-11400
▁ܐܤܟܠܬ	-11401
▁ܒܛܟܤܐ	-11402
▁ܒܡܕܥܐ	-11403
▁ܒܡܤܟܢ	-11404
▁ܒܥܤܪܬ	-11405
▁ܒܥܪܩܐ	-11406
▁ܒܪܒܘܬ	-11407
▁ܒܪܘܐܐ	-11408
▁ܒܪܚܝܐ	-11409
▁ܓܢܝܙܐ	-11410
▁ܓܫܘܫܐ	-11411
▁ܕܐܩܥܐ	-11412
▁ܕܐܩܦܬ	-11413
▁ܕܐܪܡܝ	-11414
▁ܕܐܫܘܘ	-11415
▁ܕܐܫܦܥ	-11416
▁ܕܓܒܠܗ	-11417
▁ܕܕܘܟܐ	-11418
▁ܕܕܝܠܢ	-11419
▁ܕܕܢܚܐ	-11420
▁ܕܗܦܟܘ	-11421
▁ܕܚܓܝܪ	-11422
▁ܕܚܘܒܟ	-11423
▁ܕܟܬܒܘ	-11424
▁ܕܠܒܝܫ	-11425
▁ܕܠܡܢܘ	-11426
▁ܕܡܒܨܪ	-11427
▁ܕܡܕܪܫ	-11428
▁ܕܡܙܓܬ	-11429
▁ܕܡܠܬܟ	-11430
▁ܕܢܬܬܨ	-11431
▁ܕܤܓܝܘ	-11432
▁ܕܤܟܠܢ	-11433
▁ܕܤܥܪܝ	-11434
▁ܕܤܬܪܬ	-11435
▁ܕܥܤܝܩ	-11436
▁ܕܦܤܩܘ	-11437
▁ܕܪܕܦܬ	-11438
▁ܕܫܬܩܘ	-11439
▁ܕܬܕܓܠ	-11440
▁ܕܬܛܫܐ	-11441
▁ܕܬܨܠܚ	-11442
▁ܕܬܪܝܨ	-11443
▁ܗܪܤܝܘ	-11444
▁ܗܪܤܝܤ	-11445
▁ܘܐܒܥܕ	-11446
▁ܘܐܓܪܘ	-11447
▁ܘܐܚܬܘ	-11448
▁ܘܐܛܠܬ	-11449
▁ܘܐܠܝܨ	-11450
▁ܘܐܥܒܪ	-11451
▁ܘܐܫܦܥ	-11452
▁ܘܒܝܐܘ	-11453
▁ܘܒܝܢܬ	-11454
▁ܘܒܟܐܒ	-11455
▁ܘܒܤܪܗ	-11456
▁ܘܓܙܡܘ	-11457
▁ܘܓܙܪܗ	-11458
▁ܘܕܒܚܘ	-11459
▁ܘܕܘܝܕ	-11460
▁ܘܕܘܨܘ	-11461
▁ܘܕܝܠܢ	-11462
▁ܘܚܘܒܟ	-11463
▁ܘܛܫܝܗ	-11464
▁ܘܝܒܫܘ	-11465
▁ܘܝܠܕܢ	-11466
▁ܘܟܘܝܢ	-11467
▁ܘܠܕܚܝ	-11468
▁ܘܠܡܬܬ	-11469
▁ܘܡܒܕܪ	-11470
▁ܘܡܒܪܩ	-11471
▁ܘܡܕܥܐ	-11472
▁ܘܡܘܩܕ	-11473
▁ܘܡܥܤܗ	-11474
▁ܘܡܬܢܨ	-11475
▁ܘܢܠܚܐ	-11476
▁ܘܤܛܪܗ	-11477
▁ܘܥܘܦܘ	-11478
▁ܘܥܦܩܗ	-11479
▁ܘܦܐܪܝ	-11480
▁ܘܦܓܢܐ	-11481
▁ܘܦܬܝܗ	-11482
▁ܘܩܒܠܗ	-11483
▁ܘܩܛܝܪ	-11484
▁ܘܪܬܝܬ	-11485
▁ܘܫܒܚܬ	-11486
▁ܘܫܗܪܘ	-11487
▁ܘܫܘܬܦ	-11488
▁ܘܫܚܩܐ	-11489
▁ܘܫܝܫܐ	-11490
▁ܘܫܟܪܐ	-11491
▁ܘܫܡܛܗ	-11492
▁ܘܫܪܒܢ	-11493
▁ܘܬܒܥܗ	-11494
▁ܘܬܘܗܘ	-11495
▁ܘܬܪܨܬ	-11496
▁ܙܝܬܝܢ	-11497
▁ܚܘܛܪܗ	-11498
▁ܚܙܘܩܘ	-11499
ܓܫܝܢܢ	-11500
▁ܕܠܚܠ	-11501
▁ܘܤܐܒ	-11502
▁ܚܤܪܟ	-11503
▁ܡܕܥܝ	-11504
▁ܡܦܪܚ	-11505
ܟܐܝܩܘܤ	-11506
ܤܛܘܢܪܐ	-11507
ܨܝܚܘܬܐ	-11508
▁ܐܘܩܪܘ	-11509
▁ܕܐܝܘܒ	-11510
▁ܕܐܝܫܝ	-11511
▁ܕܕܠܒܐ	-11512
▁ܕܚܨܕܐ	-11513
▁ܕܚܨܕܘ	-11514
▁ܕܠܚܛܐ	-11515
▁ܕܢܕܓܠ	-11516
▁ܕܬܥܡܪ	-11517
▁ܕܬܥܬܪ	-11518
▁ܘܕܦܛܪ	-11519
▁ܘܚܛܗܐ	-11520
▁ܘܛܥܢܬ	-11521
▁ܘܤܐܢܘ	-11522
▁ܘܦܬܝܐ	-11523
▁ܙܟܐܘܗ	-11524
▁ܚܛܘܦܘ	-11525
▁ܚܡܝܪܗ	-11526
▁ܚܡܤܢܬ	-11527
▁ܚܢܦܬܐ	-11528
▁ܚܪܘܒܐ	-11529
▁ܚܫܚܬܝ	-11530
▁ܚܬܝܡܐ	-11531
▁ܛܦܪܝܗ	-11532
▁ܛܫܝܬܗ	-11533
▁ܝܤܪܝܠ	-11534
▁ܟܠܝܠܟ	-11535
▁ܟܢܘܫܐ	-11536
▁ܠܐܓܢܐ	-11537
▁ܠܒܘܫܝ	-11538
▁ܠܕܟܝܐ	-11539
▁ܠܘܐܝܤ	-11540
▁ܠܚܙܬܐ	-11541
▁ܠܟܘܟܒ	-11542
▁ܠܠܘܚܡ	-11543
▁ܠܡܗܪܘ	-11544
▁ܠܡܬܬܤ	-11545
▁ܠܢܛܪܬ	-11546
▁ܠܢܫܪܐ	-11547
▁ܠܤܦܪܝ	-11548
▁ܠܩܛܓܪ	-11549
▁ܠܪܓܝܓ	-11550
▁ܠܪܝܚܐ	-11551
▁ܠܫܟܝܡ	-11552
▁ܡܐܬܝܗ	-11553
▁ܡܒܘܥܐ	-11554
▁ܡܘܕܥܐ	-11555
▁ܡܙܗܪܢ	-11556
▁ܡܟܘܢܢ	-11557
▁ܡܟܬܡܐ	-11558
▁ܡܡܠܠܗ	-11559
▁ܡܡܠܠܝ	-11560
▁ܡܡܠܠܟ	-11561
▁ܡܥܪܒܝ	-11562
▁ܡܦܫܩܐ	-11563
▁ܡܪܕܝܬ	-11564
▁ܡܫܘܬܦ	-11565
▁ܡܬܟܫܦ	-11566
▁ܡܬܡܤܐ	-11567
▁ܡܬܥܩܒ	-11568
▁ܡܬܦܪܦ	-11569
▁ܢܓܙܘܪ	-11570
▁ܢܘܒܠܟ	-11571
▁ܢܘܟܪܝ	-11572
▁ܢܟܪܘܢ	-11573
▁ܢܠܐܝܟ	-11574
▁ܢܩܘܝܢ	-11575
▁ܢܪܩܕܢ	-11576
▁ܢܫܒܚܟ	-11577
▁ܢܫܘܘܢ	-11578
▁ܢܬܐܤܐ	-11579
▁ܢܬܟܫܦ	-11580
▁ܢܬܦܨܐ	-11581
▁ܤܘܕܪܐ	-11582
▁ܥܘܩܤܗ	-11583
▁ܥܘܪܠܐ	-11584
▁ܥܘܪܦܢ	-11585
▁ܥܝܝܩܐ	-11586
▁ܥܨܝܢܐ	-11587
▁ܦܗܤܛܤ	-11588
▁ܦܘܢܟܤ	-11589
▁ܦܝܠܝܦ	-11590
▁ܦܝܪܡܐ	-11591
▁ܨܝܬܝܢ	-11592
▁ܨܦܚܬܐ	-11593
▁ܩܐܪܤܐ	-11594
▁ܩܠܡܝܤ	-11595
▁ܪܘܩܥܐ	-11596
▁ܪܡܪܡܗ	-11597
▁ܫܐܠܬܢ	-11598
▁ܫܓܝܫܐ	-11599
ܙܕܗܪ	-11600
▁ܬܨܛ	-11601
ܕܒܫܒܐ	-11602
ܘܪܓܡܗ	-11603
ܘܪܢܤܐ	-11604
▁ܐܩܢܬ	-11605
▁ܕܐܨܛ	-11606
▁ܕܩܨܘ	-11607
▁ܙܕܘܩ	-11608
▁ܙܕܩܘ	-11609
▁ܠܫܡܟ	-11610
▁ܢܝܫܐ	-11611
▁ܢܡܛܐ	-11612
▁ܥܩܬܢ	-11613
▁ܨܚܝܘ	-11614
▁ܩܤܛܐ	-11615
▁ܫܠܡܢ	-11616
▁ܫܪܪܟ	-11617
ܒܪܝܟܘܢ	-11618
ܘܠܘܢܝܐ	-11619
ܩܦܘܠܝܤ	-11620
ܫܝܫܗܘܢ	-11621
ܫܠܡܢܝܢ	-11622
▁ܐܒܢܝܗ	-11623
▁ܐܪܓܫܘ	-11624
▁ܐܬܝܒܗ	-11625
▁ܒܚܝܠܟ	-11626
▁ܒܥܠܟܝ	-11627
▁ܕܒܤܪܝ	-11628
▁ܕܝܫܦܗ	-11629
▁ܕܡܕܢܚ	-11630
▁ܕܢܢܤܐ	-11631
▁ܕܫܓܫܘ	-11632
▁ܘܕܝܠܟ	-11633
▁ܘܢܕܡܟ	-11634
▁ܘܩܛܘܦ	-11635
▁ܘܪܚܝܡ	-11636
▁ܛܠܪܝܟ	-11637
▁ܠܥܩܪܗ	-11638
▁ܢܙܕܗܪ	-11639
▁ܢܝܚܬܐ	-11640
▁ܢܡܕܘܢ	-11641
▁ܤܥܘܪܘ	-11642
▁ܪܗܘܡܝ	-11643
▁ܪܘܓܙܟ	-11644
▁ܫܘܢܩܐ	-11645
▁ܫܥܡܐܐ	-11646
▁ܬܐܒܝܠ	-11647
▁ܬܙܕܘܓ	-11648
▁ܬܟܠܬܐ	-11649
▁ܬܤܬܪܩ	-11650
▁ܬܬܥܩܪ	-11651
ܒܪܢܫܟܘܢ	-11652
ܓܡܘܪܟܘܢ	-11653
ܕܟܝܬܗܘܢ	-11654
ܘܒܪܝܟܝܢ	-11655
ܘܪܒܢܘܗܝ	-11656
ܛܘܛܝܗܘܢ	-11657
ܝܕܝܥܘܬܗ	-11658
ܝܪܦܘܠܝܤ	-11659
ܠܘܕܝܗܘܢ	-11660
ܡܫܚܢܝܗܝ	-11661
ܢܐܦܘܠܝܤ	-11662
ܥܒܪܢܘܬܗ	-11663
ܦܝܦܘܠܝܤ	-11664
ܨܒܝܬܗܝܢ	-11665
ܩܦܘܕܩܝܐ	-11666
ܪܛܠܝܝܢܢ	-11667
ܫܒܩܘܢܢܝ	-11668
ܫܪܬܚܘܬܐ	-11669
ܬܪܓܪܓܘܢ	-11670
▁ܐܕܪܟܢܝ	-11671
▁ܐܙܕܝܢܘ	-11672
▁ܐܚܘܗܝܢ	-11673
▁ܐܚܬܘܗܝ	-11674
▁ܐܛܒܘܗܝ	-11675
▁ܐܛܥܝܬܝ	-11676
▁ܐܡܘܬܤܤ	-11677
▁ܐܤܟܡܝܢ	-11678
▁ܐܤܬܒܪܢ	-11679
▁ܐܤܬܒܪܬ	-11680
▁ܐܪܡܢܘܢ	-11681
▁ܐܫܬܕܝܬ	-11682
▁ܐܫܬܘܙܒ	-11683
▁ܐܫܬܘܝܘ	-11684
▁ܐܫܬܝܢܘ	-11685
▁ܐܫܬܦܥܬ	-11686
▁ܐܬܒܤܡܘ	-11687
▁ܐܬܒܤܡܬ	-11688
▁ܐܬܚܝܠܘ	-11689
▁ܐܬܚܢܢܬ	-11690
▁ܐܬܚܤܢܘ	-11691
▁ܐܬܚܫܚܬ	-11692
▁ܐܬܟܪܗܬ	-11693
▁ܐܬܟܪܙܬ	-11694
▁ܐܬܟܪܝܘ	-11695
▁ܐܬܤܝܡܬ	-11696
▁ܐܬܥܕܪܘ	-11697
▁ܐܬܦܪܩܢ	-11698
▁ܐܬܦܫܛܬ	-11699
ܡܨܝ	-11700
ܘܙܒܐ	-11701
ܘܙܒܘ	-11702
ܘܙܝܐ	-11703
ܠܛܢܗ	-11704
ܠܛܢܢ	-11705
▁ܤܚܦ	-11706
▁ܪܨܝ	-11707
▁ܕܢܓܗ	-11708
▁ܘܤܚܦ	-11709
▁ܘܪܤܤ	-11710
▁ܡܙܓܗ	-11711
▁ܩܦܤܝ	-11712
▁ܫܪܓܗ	-11713
▁ܐܫܬܚܪ	-11714
▁ܒܦܫܝܛ	-11715
▁ܕܡܫܚܪ	-11716
▁ܕܦܬܝܚ	-11717
▁ܕܫܐܠܢ	-11718
▁ܕܬܬܚܤ	-11719
▁ܘܠܦܪܓ	-11720
▁ܘܡܠܝܝ	-11721
▁ܘܢܐܪܟ	-11722
▁ܘܪܚܡܝ	-11723
▁ܘܫܪܓܗ	-11724
ܩܝܬܘܢܢܝ	-11725
▁ܐܬܩܒܠܘ	-11726
▁ܐܬܩܒܪܢ	-11727
▁ܐܬܬܚܕܬ	-11728
▁ܒܐܘܪܚܗ	-11729
▁ܒܐܚܪܝܬ	-11730
▁ܒܒܘܝܐܗ	-11731
▁ܒܓܕܘܠܐ	-11732
▁ܒܕܥܬܝܕ	-11733
▁ܒܘܪܟܬܗ	-11734
▁ܒܙܕܩܬܐ	-11735
▁ܒܙܟܘܬܐ	-11736
▁ܒܚܘܫܒܢ	-11737
▁ܒܚܟܡܬܗ	-11738
▁ܒܚܫܚܬܐ	-11739
▁ܒܛܪܤܘܤ	-11740
▁ܒܝܕܥܬܝ	-11741
▁ܒܝܕܥܬܟ	-11742
▁ܒܝܫܘܬܟ	-11743
▁ܒܟܝܪܝܐ	-11744
▁ܒܡܘܟܟܐ	-11745
▁ܒܡܘܠܕܗ	-11746
▁ܒܡܘܠܟܢ	-11747
▁ܒܡܡܘܢܐ	-11748
▁ܒܡܥܠܢܐ	-11749
▁ܒܡܥܪܒܝ	-11750
▁ܒܢܘܚܡܐ	-11751
▁ܒܤܘܕܪܐ	-11752
▁ܒܤܡܬܘܢ	-11753
▁ܒܤܦܤܪܐ	-11754
▁ܒܤܪܕܝܤ	-11755
▁ܒܥܩܒܬܐ	-11756
▁ܒܨܒܝܢܟ	-11757
▁ܒܬܠܬܝܢ	-11758
▁ܓܪܝܨܬܐ	-11759
▁ܕܐܒܗܝܢ	-11760
▁ܕܐܓܥܠܘ	-11761
▁ܕܐܘܡܢܗ	-11762
▁ܕܐܘܪܒܢ	-11763
▁ܕܐܘܪܚܗ	-11764
▁ܕܐܙܕܡܢ	-11765
▁ܕܐܚܙܘܩ	-11766
▁ܕܐܚܡܘܠ	-11767
▁ܕܐܝܤܘܢ	-11768
▁ܕܐܟܪܙܬ	-11769
▁ܕܐܡܠܟܬ	-11770
▁ܕܐܦܠܘܓ	-11771
▁ܕܐܪܥܬܗ	-11772
▁ܕܐܫܬܐܠ	-11773
▁ܕܐܬܒܙܚ	-11774
▁ܕܐܬܒܪܝ	-11775
▁ܕܐܬܓܘܤ	-11776
▁ܕܐܬܓܥܠ	-11777
▁ܕܐܬܟܪܗ	-11778
▁ܕܐܬܡܨܝ	-11779
▁ܕܐܬܥܠܝ	-11780
▁ܕܐܬܦܨܐ	-11781
▁ܕܐܬܦܫܚ	-11782
▁ܕܒܕܚܠܬ	-11783
▁ܕܒܛܘܫܝ	-11784
▁ܕܒܟܝܢܟ	-11785
▁ܕܒܢܦܫܢ	-11786
▁ܕܒܤܒܪܐ	-11787
▁ܕܒܫܘܩܐ	-11788
▁ܕܓܒܟܘܢ	-11789
▁ܕܓܘܫܡܐ	-11790
▁ܕܓܠܝܘܬ	-11791
▁ܕܓܠܝܦܐ	-11792
▁ܕܕܥܠܡܐ	-11793
▁ܕܙܪܝܥܢ	-11794
▁ܕܚܒܘܒܐ	-11795
▁ܕܚܘܝܒܐ	-11796
▁ܕܚܫܚܬܝ	-11797
▁ܕܚܬܝܡܐ	-11798
▁ܕܝܤܪܝܠ	-11799
▁ܟܠܐܐ	-11800
▁ܢܩܦܗ	-11801
▁ܥܤܪܬ	-11802
▁ܬܠܘܛ	-11803
▁ܕܐܦܩܢ	-11804
▁ܕܟܢܝܫ	-11805
▁ܕܤܘܟܐ	-11806
▁ܕܤܘܥܪ	-11807
▁ܕܬܟܪܐ	-11808
▁ܘܚܡܤܢ	-11809
▁ܘܝܠܕܐ	-11810
▁ܘܥܘܝܪ	-11811
▁ܠܕܐܝܟ	-11812
▁ܠܡܥܒܪ	-11813
▁ܠܡܥܬܪ	-11814
▁ܠܢܝܚܢ	-11815
▁ܠܥܤܒܐ	-11816
▁ܠܥܤܒܗ	-11817
▁ܠܪܘܚܢ	-11818
▁ܡܬܝܩܪ	-11819
▁ܢܚܙܝܟ	-11820
▁ܢܩܝܦܢ	-11821
▁ܬܘܗܝܐ	-11822
▁ܬܬܢܤܒ	-11823
ܫܠܕܝܗܘܢ	-11824
▁ܐܫܩܝܗܝ	-11825
▁ܒܪܘܓܙܐ	-11826
▁ܕܐܦܩܘܕ	-11827
▁ܕܠܕܙܟܐ	-11828
▁ܕܠܕܛܒܐ	-11829
▁ܕܠܘܚܝܐ	-11830
▁ܕܠܥܡܡܐ	-11831
▁ܕܠܨܦܪܐ	-11832
▁ܕܠܩܘܒܠ	-11833
▁ܕܡܒܪܟܘ	-11834
▁ܕܡܕܟܝܐ	-11835
▁ܕܡܕܪܟܐ	-11836
▁ܕܡܘܠܕܐ	-11837
▁ܕܡܘܠܕܗ	-11838
▁ܕܡܙܕܡܢ	-11839
▁ܕܡܛܝܒܢ	-11840
▁ܕܡܠܝܛܐ	-11841
▁ܕܡܤܪܗܒ	-11842
▁ܕܡܥܠܢܢ	-11843
▁ܕܡܨܠܚܐ	-11844
▁ܕܡܩܪܒܢ	-11845
▁ܕܡܫܠܛܐ	-11846
▁ܕܡܬܒܙܚ	-11847
▁ܕܡܬܩܦܚ	-11848
▁ܕܢܒܥܝܢ	-11849
▁ܕܢܓܙܘܪ	-11850
▁ܕܢܓܥܘܪ	-11851
▁ܕܢܡܢܥܢ	-11852
▁ܕܢܩܒܠܢ	-11853
▁ܕܢܪܓܝܗ	-11854
▁ܕܢܪܚܡܢ	-11855
▁ܕܢܬܦܪܩ	-11856
▁ܕܢܬܪܘܨ	-11857
▁ܕܢܬܪܫܐ	-11858
▁ܕܢܬܬܒܥ	-11859
▁ܕܤܘܟܢܐ	-11860
▁ܕܤܘܥܪܢ	-11861
▁ܕܦܓܪܝܢ	-11862
▁ܕܦܠܚܝܢ	-11863
▁ܕܦܢܛܘܤ	-11864
▁ܕܦܪܫܢܝ	-11865
▁ܕܦܬܓܡܐ	-11866
▁ܕܦܬܝܟܐ	-11867
▁ܕܨܕܬܘܢ	-11868
▁ܕܪܚܝܡܢ	-11869
▁ܕܪܛܢܝܢ	-11870
▁ܕܫܘܚܕܐ	-11871
▁ܕܫܦܝܪܐ	-11872
▁ܕܬܐܒܝܠ	-11873
▁ܕܬܒܨܘܢ	-11874
▁ܕܬܒܩܘܢ	-11875
▁ܕܬܓܪܘܢ	-11876
▁ܕܬܘܩܦܐ	-11877
▁ܕܬܟܦܘܪ	-11878
▁ܕܬܟܬܘܫ	-11879
▁ܕܬܦܩܝܢ	-11880
▁ܕܬܦܪܚܝ	-11881
▁ܕܬܨܒܘܢ	-11882
▁ܕܬܬܐܡܪ	-11883
▁ܕܬܬܚܠܡ	-11884
▁ܕܬܬܚܫܒ	-11885
▁ܘܐܓܡܘܪ	-11886
▁ܘܐܘܒܕܘ	-11887
▁ܘܐܘܕܥܢ	-11888
▁ܘܐܘܕܥܬ	-11889
▁ܘܐܘܥܝܬ	-11890
▁ܘܐܘܪܟܗ	-11891
▁ܘܐܘܬܒܗ	-11892
▁ܘܐܚܘܝܟ	-11893
▁ܘܐܚܡܘܠ	-11894
▁ܘܐܟܘܬܗ	-11895
▁ܘܐܠܝܨܐ	-11896
▁ܘܐܠܦܪܐ	-11897
▁ܘܐܡܗܬܐ	-11898
▁ܘܐܡܠܟܬ	-11899
▁ܡܒܛ	-11900
▁ܪܐܬ	-11901
ܕܒܚܝܟ	-11902
ܕܓܠܘܢ	-11903
ܕܝܫܝܟ	-11904
ܛܥܪܘܢ	-11905
ܢܘܟܦܐ	-11906
ܪܛܡܝܤ	-11907
ܫܝܛܘܬ	-11908
ܬܗܦܟܘ	-11909
▁ܐܠܚܐ	-11910
▁ܓܝܙܐ	-11911
▁ܡܒܤܪ	-11912
▁ܢܙܩܦ	-11913
▁ܤܢܝܬ	-11914
▁ܤܪܓܝ	-11915
▁ܩܕܡܢ	-11916
▁ܩܕܫܗ	-11917
▁ܫܚܢܘ	-11918
▁ܫܚܩܐ	-11919
▁ܫܠܕܐ	-11920
ܝܦܛܪܘܤ	-11921
ܫܡܘܐܝܠ	-11922
▁ܐܙܩܘܦ	-11923
▁ܐܩܪܒܘ	-11924
▁ܒܒܢܝܐ	-11925
▁ܒܕܝܢܗ	-11926
▁ܒܚܬܝܪ	-11927
▁ܒܝܪܚܐ	-11928
▁ܕܐܪܥܗ	-11929
▁ܕܒܢܘܟ	-11930
▁ܕܓܡܝܪ	-11931
▁ܗܘܦܟܐ	-11932
▁ܘܐܪܥܗ	-11933
▁ܘܢܟܤܝ	-11934
▁ܘܤܢܝܬ	-11935
▁ܘܩܕܝܫ	-11936
▁ܚܛܝܝܢ	-11937
▁ܚܢܩܝܢ	-11938
▁ܠܙܪܥܟ	-11939
▁ܠܟܤܦܐ	-11940
▁ܡܬܓܙܪ	-11941
▁ܢܕܬܘܢ	-11942
▁ܢܬܡܠܚ	-11943
▁ܫܓܘܫܐ	-11944
▁ܫܚܠܦܘ	-11945
▁ܬܐܝܝܢ	-11946
▁ܒܗܘܦܟܐ	-11947
▁ܒܛܪܘܐܤ	-11948
▁ܒܝܘܐܝܠ	-11949
▁ܓܐܝܐܝܬ	-11950
▁ܓܐܪܘܗܝ	-11951
▁ܕܐܟܬܘܒ	-11952
▁ܕܒܙܪܥܟ	-11953
▁ܕܓܙܪܬܐ	-11954
▁ܕܠܐܚܝܟ	-11955
▁ܕܡܬܓܙܪ	-11956
▁ܕܢܬܓܙܪ	-11957
▁ܕܫܥܒܕܗ	-11958
▁ܘܐܟܬܘܒ	-11959
▁ܘܐܥܡܕܘ	-11960
▁ܘܐܨܛܪܝ	-11961
▁ܘܐܪܘܙܐ	-11962
▁ܘܐܫܠܛܗ	-11963
▁ܘܐܬܓܘܤ	-11964
▁ܘܐܬܢܤܝ	-11965
▁ܘܐܬܢܨܒ	-11966
▁ܘܐܬܦܪܬ	-11967
▁ܘܐܬܬܚܕ	-11968
▁ܘܒܗܦܘܟ	-11969
▁ܘܒܚܘܒܢ	-11970
▁ܘܒܡܠܟܐ	-11971
▁ܘܒܡܠܦܢ	-11972
▁ܘܓܐܝܘܤ	-11973
▁ܘܓܠܙܝܢ	-11974
▁ܘܓܢܒܝܢ	-11975
▁ܘܕܒܝܡܐ	-11976
▁ܘܕܗܠܝܢ	-11977
▁ܘܕܗܢܘܢ	-11978
▁ܘܕܘܡܪܐ	-11979
▁ܘܕܚܠܬܗ	-11980
▁ܘܕܚܡܫܐ	-11981
▁ܘܕܡܪܚܡ	-11982
▁ܘܕܡܪܬܐ	-11983
▁ܘܕܩܝܡܐ	-11984
▁ܘܕܬܪܚܡ	-11985
▁ܘܙܩܦܝܢ	-11986
▁ܘܚܒܝܒܝ	-11987
▁ܘܚܝܠܢܝ	-11988
▁ܘܚܝܠܬܢ	-11989
▁ܘܚܡܤܢܘ	-11990
▁ܘܛܘܒܝܗ	-11991
▁ܘܛܘܒܝܟ	-11992
▁ܘܛܘܠܫܐ	-11993
▁ܘܛܥܢܝܢ	-11994
▁ܘܝܠܦܬܗ	-11995
▁ܘܟܘܡܪܐ	-11996
▁ܘܟܡܘܢܐ	-11997
▁ܘܟܤܝܢܟ	-11998
▁ܘܟܤܝܬܐ	-11999
ܘܕܦܗ	-12000
ܘܡܟܟ	-12001
▁ܕܡܡܙ	-12002
▁ܘܡܟܟ	-12003
▁ܠܒܗܬ	-12004
▁ܠܗܠܤ	-12005
▁ܡܛܬܬ	-12006
▁ܡܪܡܙ	-12007
▁ܢܛܥܫ	-12008
▁ܨܒܥܗ	-12009
▁ܨܒܥܟ	-12010
▁ܨܒܥܬ	-12011
▁ܐܬܒܤܡ	-12012
▁ܐܬܓܙܪ	-12013
▁ܓܘܕܦܗ	-12014
▁ܕܢܦܪܤ	-12015
▁ܕܩܛܘܠ	-12016
▁ܕܩܛܠܬ	-12017
▁ܕܫܒܛܐ	-12018
▁ܘܤܗܕܢ	-12019
▁ܝܘܠܦܢ	-12020
▁ܝܩܕܬܐ	-12021
▁ܠܡܒܤܡ	-12022
▁ܠܩܘܒܪ	-12023
▁ܡܒܛܠܐ	-12024
▁ܦܤܘܩܐ	-12025
▁ܦܬܝܚܢ	-12026
▁ܐܬܕܒܪܘ	-12027
▁ܕܐܠܦܢܝ	-12028
▁ܕܐܬܒܤܡ	-12029
▁ܕܡܬܐܠܨ	-12030
▁ܕܫܠܡܝܢ	-12031
▁ܘܒܡܨܥܬ	-12032
▁ܘܗܘܝܬܝ	-12033
▁ܘܟܪܝܗܘ	-12034
▁ܘܟܪܟܬܗ	-12035
▁ܘܠܒܢܬܐ	-12036
▁ܘܠܕܚܠܝ	-12037
▁ܘܠܙܢܝܐ	-12038
▁ܘܠܝܪܚܐ	-12039
▁ܘܠܢܘܢܐ	-12040
▁ܘܠܢܝܩܢ	-12041
▁ܘܠܩܝܡܐ	-12042
▁ܘܠܫܢܬܐ	-12043
▁ܘܠܬܪܥܐ	-12044
▁ܘܡܓܪܓܪ	-12045
▁ܘܡܗܠܟܐ	-12046
▁ܘܡܘܒܠܝ	-12047
▁ܘܡܛܒܥܢ	-12048
▁ܘܡܠܘܝܢ	-12049
▁ܘܡܢܫܩܐ	-12050
▁ܘܡܤܓܝܘ	-12051
▁ܘܡܤܝܒܢ	-12052
▁ܘܡܤܟܝܐ	-12053
▁ܘܡܤܬܟܠ	-12054
▁ܘܡܥܩܡܐ	-12055
▁ܘܡܦܢܝܐ	-12056
▁ܘܡܦܩܝܢ	-12057
▁ܘܡܩܘܝܢ	-12058
▁ܘܡܬܐܤܪ	-12059
▁ܘܡܬܓܫܐ	-12060
▁ܘܡܬܢܓܕ	-12061
▁ܘܡܬܩܦܚ	-12062
▁ܘܢܘܒܠܟ	-12063
▁ܘܢܚܛܘܦ	-12064
▁ܘܢܢܗܪܢ	-12065
▁ܘܢܩܦܢܟ	-12066
▁ܘܢܩܪܒܢ	-12067
▁ܘܢܫܬܪܪ	-12068
▁ܘܢܬܒܤܡ	-12069
▁ܘܤܘܛܡܐ	-12070
▁ܘܤܘܝܒܐ	-12071
▁ܘܤܘܝܢܢ	-12072
▁ܘܤܘܤܬܢ	-12073
▁ܘܤܦܘܬܗ	-12074
▁ܘܥܘܝܪܐ	-12075
▁ܘܥܘܩܤܐ	-12076
▁ܘܦܘܪܥܢ	-12077
▁ܘܦܠܓܘܬ	-12078
▁ܘܦܪܘܩܐ	-12079
▁ܘܦܪܩܬܗ	-12080
▁ܘܦܬܘܪܐ	-12081
▁ܘܦܬܚܬܗ	-12082
▁ܘܨܗܝܢܢ	-12083
▁ܘܩܘܪܫܐ	-12084
▁ܘܪܓܠܝܗ	-12085
▁ܘܪܕܘܝܐ	-12086
▁ܘܪܚܝܡܐ	-12087
▁ܘܪܥܝܢܝ	-12088
▁ܘܪܥܠܝܢ	-12089
▁ܘܫܒܝܠܐ	-12090
▁ܘܫܘܒܩܢ	-12091
▁ܘܫܚܩܝܢ	-12092
▁ܘܫܠܚܢܝ	-12093
▁ܘܫܪܒܬܗ	-12094
▁ܘܬܒܘܥܐ	-12095
▁ܘܬܒܥܬܐ	-12096
▁ܘܬܪܘܨܘ	-12097
▁ܘܬܫܒܘܚ	-12098
▁ܘܬܬܚܠܡ	-12099
ܬܩܒܪ	-12100
ܓܘܢܝܐ	-12101
ܓܚܟܝܢ	-12102
ܝܠܡܘܢ	-12103
ܤܘܛܡܐ	-12104
ܥܨܪܬܐ	-12105
ܪܘܐܘܤ	-12106
ܪܘܦܝܡ	-12107
▁ܐܒܘܗ	-12108
▁ܒܛܠܘ	-12109
▁ܒܛܠܬ	-12110
▁ܒܦܤܩ	-12111
▁ܓܪܫܐ	-12112
▁ܕܒܨܠ	-12113
▁ܕܓܠܙ	-12114
▁ܕܦܤܩ	-12115
▁ܛܠܪܐ	-12116
▁ܠܠܒܗ	-12117
▁ܠܥܤܘ	-12118
▁ܢܠܒܫ	-12119
▁ܤܠܩܐ	-12120
▁ܩܐܪܤ	-12121
ܥܪܢܗܘܢ	-12122
ܦܪܗܤܝܐ	-12123
ܪܘܦܝܡܤ	-12124
▁ܐܬܟܫܠ	-12125
▁ܒܚܠܡܝ	-12126
▁ܒܤܘܥܪ	-12127
▁ܒܤܬܪܝ	-12128
▁ܒܬܘܢܐ	-12129
▁ܕܓܠܙܬ	-12130
▁ܕܟܘܡܪ	-12131
▁ܕܫܩܠܬ	-12132
▁ܘܗܒܘܗ	-12133
▁ܘܚܬܡܢ	-12134
▁ܘܚܬܡܬ	-12135
▁ܘܡܘܬܪ	-12136
▁ܘܡܙܕܥ	-12137
▁ܘܢܛܥܐ	-12138
▁ܘܤܐܡܐ	-12139
▁ܘܥܗܕܘ	-12140
▁ܘܫܒܘܗ	-12141
▁ܘܬܛܥܐ	-12142
▁ܠܚܪܫܐ	-12143
▁ܡܬܠܡܕ	-12144
▁ܢܒܟܘܢ	-12145
▁ܢܤܥܪܢ	-12146
▁ܢܬܒܠܥ	-12147
▁ܐܒܗܘܬܐ	-12148
▁ܐܤܬܡܟܘ	-12149
▁ܐܬܬܠܡܕ	-12150
▁ܒܚܘܕܬܐ	-12151
▁ܒܚܘܛܪܐ	-12152
▁ܒܤܘܟܠܐ	-12153
▁ܒܦܘܠܓܐ	-12154
▁ܒܫܪܝܢܐ	-12155
▁ܕܒܩܒܪܐ	-12156
▁ܕܒܩܝܢܢ	-12157
▁ܕܒܫܠܝܐ	-12158
▁ܕܒܬܘܢܐ	-12159
▁ܕܓܒܝܗܝ	-12160
▁ܕܢܘܡܘܢ	-12161
▁ܕܪܕܦܝܢ	-12162
▁ܕܫܩܝܠܐ	-12163
▁ܘܐܩܠܘܤ	-12164
▁ܘܚܤܡܝܢ	-12165
▁ܘܠܡܓܘܓ	-12166
▁ܘܠܢܓܕܐ	-12167
▁ܘܡܨܥܪܢ	-12168
▁ܘܢܩܫܝܢ	-12169
▁ܘܬܬܦܪܩ	-12170
▁ܙܟܝܝܢܢ	-12171
▁ܙܡܪܓܕܐ	-12172
▁ܙܩܦܬܘܢ	-12173
▁ܚܐܪܘܬܝ	-12174
▁ܚܐܪܝܝܢ	-12175
▁ܚܒܝܒܬܝ	-12176
▁ܚܒܝܒܬܢ	-12177
▁ܚܒܪܟܘܢ	-12178
▁ܚܘܢܛܬܐ	-12179
▁ܚܠܕܝܬܐ	-12180
▁ܚܦܛܘܗܝ	-12181
▁ܛܘܪܢܘܤ	-12182
▁ܛܪܛܝܘܤ	-12183
▁ܛܫܝܘܗܝ	-12184
▁ܝܒܝܫܬܐ	-12185
▁ܝܗܘܫܦܛ	-12186
▁ܟܒܫܝܢܢ	-12187
▁ܟܠܒܪܢܫ	-12188
▁ܟܢܘܫܝܐ	-12189
▁ܟܢܘܫܝܢ	-12190
▁ܟܤܝܐܝܬ	-12191
▁ܠܐܘܨܪܝ	-12192
▁ܠܐܝܤܘܢ	-12193
▁ܠܐܠܘܪܝ	-12194
▁ܠܐܠܝܘܕ	-12195
▁ܠܐܠܝܨܐ	-12196
▁ܠܐܤܛܘܐ	-12197
▁ܠܐܪܒܝܐ	-12198
▁ܠܐܬܢܘܤ	-12199
ܢܟܪܐ	-12200
▁ܘܚܐܫ	-12201
▁ܠܠܘܛ	-12202
▁ܢܘܚܕ	-12203
▁ܦܪܥܬ	-12204
▁ܬܬܟܕ	-12205
ܢܟܪܐܘܤ	-12206
▁ܕܙܢܝܘ	-12207
▁ܘܠܕܝܬ	-12208
▁ܘܠܡܪܗ	-12209
▁ܘܢܥܒܪ	-12210
▁ܘܢܪܓܡ	-12211
▁ܘܢܪܕܦ	-12212
▁ܘܬܚܒܠ	-12213
▁ܘܬܚܘܬ	-12214
▁ܘܬܚܝܒ	-12215
▁ܚܘܫܒܐ	-12216
▁ܠܡܛܫܐ	-12217
▁ܠܡܠܐܐ	-12218
▁ܡܠܘܝܢ	-12219
▁ܢܓܢܘܒ	-12220
▁ܢܘܚܡܐ	-12221
▁ܪܒܘܠܝ	-12222
▁ܪܘܫܥܐ	-12223
▁ܫܬܝܩܢ	-12224
ܥܡܘܕܝܬܗ	-12225
ܥܪܘܒܟܘܢ	-12226
▁ܐܘܠܨܢܟ	-12227
▁ܐܬܕܡܪܬ	-12228
▁ܐܬܟܬܫܬ	-12229
▁ܕܐܬܚܝܒ	-12230
▁ܕܙܒܢܬܐ	-12231
▁ܘܐܚܕܘܗ	-12232
▁ܘܒܨܗܝܐ	-12233
▁ܘܚܠܦܝܟ	-12234
▁ܘܝܩܝܪܝ	-12235
▁ܘܠܕܓܠܐ	-12236
▁ܘܠܡܚܕܪ	-12237
▁ܘܢܥܠܘܢ	-12238
▁ܘܢܪܩܕܢ	-12239
▁ܙܕܝܩܬܐ	-12240
▁ܝܘܩܪܝܢ	-12241
▁ܠܓܒܝܢܐ	-12242
▁ܠܓܙܪܬܐ	-12243
▁ܠܕܐܬܝܢ	-12244
▁ܠܘܐܘܗܝ	-12245
▁ܠܙܟܘܬܐ	-12246
▁ܠܚܒܠܝܗ	-12247
▁ܠܚܙܘܢܐ	-12248
▁ܠܚܙܩܝܐ	-12249
▁ܠܚܨܘܕܐ	-12250
▁ܠܡܒܝܐܘ	-12251
▁ܠܡܕܒܪܘ	-12252
▁ܠܡܙܢܝܘ	-12253
▁ܠܡܚܪܡܘ	-12254
▁ܠܡܛܥܝܘ	-12255
▁ܠܡܟܬܪܘ	-12256
▁ܠܡܠܐܟܗ	-12257
▁ܠܡܤܟܪܘ	-12258
▁ܠܡܥܡܕܘ	-12259
▁ܠܡܥܪܒܐ	-12260
▁ܠܡܦܬܚܘ	-12261
▁ܠܡܪܓܡܗ	-12262
▁ܠܡܫܝܚܗ	-12263
▁ܠܡܫܡܫܘ	-12264
▁ܠܤܘܚܦܐ	-12265
▁ܠܤܠܡܘܢ	-12266
▁ܠܥܘܙܝܐ	-12267
▁ܠܥܩܒܬܐ	-12268
▁ܠܦܘܬܩܐ	-12269
▁ܠܦܝܪܡܐ	-12270
▁ܠܩܘܝܡܐ	-12271
▁ܠܪܒܝܬܗ	-12272
▁ܠܪܗܘܡܝ	-12273
▁ܠܪܥܝܢܝ	-12274
▁ܠܪܫܗܘܢ	-12275
▁ܠܫܒܥܝܢ	-12276
▁ܠܫܘܒܩܢ	-12277
▁ܠܫܘܥܒܕ	-12278
▁ܠܬܐܘܡܐ	-12279
▁ܠܬܒܝܪܝ	-12280
▁ܠܬܒܥܬܐ	-12281
▁ܡܒܙܚܢܐ	-12282
▁ܡܒܤܪܢܐ	-12283
▁ܡܒܪܟܝܢ	-12284
▁ܡܘܠܕܝܢ	-12285
▁ܡܚܝܬܢܝ	-12286
▁ܡܛܥܝܢܢ	-12287
▁ܡܟܘܢܝܢ	-12288
▁ܡܟܢܫܝܢ	-12289
▁ܡܡܝܬܝܢ	-12290
▁ܡܢܤܝܢܐ	-12291
▁ܡܤܬܝܒܪ	-12292
▁ܡܥܝܩܝܢ	-12293
▁ܡܦܪܫܢܐ	-12294
▁ܡܨܒܬܬܐ	-12295
▁ܡܪܕܝܬܢ	-12296
▁ܡܪܚܐܝܬ	-12297
▁ܡܫܥܒܕܝ	-12298
▁ܡܫܥܒܕܢ	-12299
ܡܟܟܢܝ	-12300
ܦܢܝܢܢ	-12301
▁ܒܠܘܟ	-12302
▁ܘܕܨܥ	-12303
▁ܘܚܐܛ	-12304
▁ܛܥܢܗ	-12305
▁ܡܡܚܝ	-12306
▁ܡܦܨܐ	-12307
▁ܢܢܤܐ	-12308
▁ܥܢܝܬ	-12309
▁ܬܦܤܩ	-12310
ܗܕܬܝܗܝ	-12311
ܝܬܩܘܗܝ	-12312
▁ܐܕܪܟܗ	-12313
▁ܐܕܪܟܘ	-12314
▁ܐܕܪܡܢ	-12315
▁ܐܚܙܝܗ	-12316
▁ܐܚܙܝܟ	-12317
▁ܒܒܥܠܗ	-12318
▁ܒܠܘܥܐ	-12319
▁ܕܓܠܠܐ	-12320
▁ܕܚܘܝܗ	-12321
▁ܕܝܩܝܪ	-12322
▁ܕܡܡܟܟ	-12323
▁ܕܥܤܪܬ	-12324
▁ܘܐܡܝܪ	-12325
▁ܘܓܠܠܐ	-12326
▁ܘܓܪܡܐ	-12327
▁ܘܕܟܝܐ	-12328
▁ܘܗܒܒܗ	-12329
▁ܘܙܩܦܘ	-12330
▁ܘܚܐܝܢ	-12331
▁ܘܢܩܦܘ	-12332
▁ܝܘܫܝܐ	-12333
▁ܡܡܕܟܐ	-12334
▁ܡܡܘܢܐ	-12335
▁ܡܦܬܝܢ	-12336
▁ܥܢܝܬܟ	-12337
▁ܨܠܘܬܗ	-12338
▁ܬܙܕܒܢ	-12339
ܓܠܝܢܘܗܝ	-12340
▁ܒܡܩܠܘܢ	-12341
▁ܒܨܠܘܬܢ	-12342
▁ܒܪܓܠܝܢ	-12343
▁ܕܐܓܪܬܗ	-12344
▁ܕܐܙܕܒܢ	-12345
▁ܕܐܙܕܗܪ	-12346
▁ܕܐܬܦܤܩ	-12347
▁ܕܕܪܡܘܤ	-12348
▁ܕܕܪܫܝܢ	-12349
▁ܕܝܩܕܝܢ	-12350
▁ܕܟܘܫܝܐ	-12351
▁ܕܢܪܡܘܢ	-12352
▁ܕܪܓܠܝܢ	-12353
▁ܘܕܟܪܝܗ	-12354
▁ܘܕܫܦܝܪ	-12355
▁ܘܕܫܪܪܐ	-12356
▁ܘܠܡܠܟܐ	-12357
▁ܘܥܠܝܡܐ	-12358
▁ܘܥܨܝܢܐ	-12359
▁ܘܪܢܝܢܢ	-12360
▁ܙܟܘܬܟܝ	-12361
▁ܛܥܢܘܗܝ	-12362
▁ܠܐܟܕܢܐ	-12363
▁ܠܡܙܕܒܢ	-12364
▁ܡܚܘܬܟܝ	-12365
▁ܡܛܢܝܢܢ	-12366
▁ܡܫܬܓܫܐ	-12367
▁ܡܫܬܘܫܛ	-12368
▁ܡܫܬܟܚܢ	-12369
▁ܡܫܬܡܗܘ	-12370
▁ܡܫܬܡܥܐ	-12371
▁ܡܫܬܢܩܐ	-12372
▁ܡܬܒܢܝܐ	-12373
▁ܡܬܕܒܪܢ	-12374
▁ܡܬܙܝܥܐ	-12375
▁ܡܬܟܪܙܐ	-12376
▁ܡܬܩܛܥܐ	-12377
▁ܡܬܩܝܡܢ	-12378
▁ܡܬܩܢܝܐ	-12379
▁ܡܬܩܢܝܢ	-12380
▁ܡܬܬܟܤܐ	-12381
▁ܡܬܬܢܝܚ	-12382
▁ܢܐܪܬܘܢ	-12383
▁ܢܓܕܗܘܢ	-12384
▁ܢܓܘܪܘܢ	-12385
▁ܢܓܢܒܘܢ	-12386
▁ܢܕܚܠܘܢ	-12387
▁ܢܕܥܘܢܗ	-12388
▁ܢܗܠܟܘܢ	-12389
▁ܢܗܪܟܘܢ	-12390
▁ܢܙܕܘܓܢ	-12391
▁ܢܙܩܦܘܢ	-12392
▁ܢܚܕܝܢܝ	-12393
▁ܢܚܘܪܘܢ	-12394
▁ܢܚܙܘܢܗ	-12395
▁ܢܡܟܟܢܝ	-12396
▁ܢܢܗܪܘܢ	-12397
▁ܢܥܕܪܘܢ	-12398
▁ܢܥܘܦܘܢ	-12399
ܛܦܢܤ	-12400
▁ܩܕܫ	-12401
▁ܕܩܕܫ	-12402
▁ܘܓܕܫ	-12403
▁ܘܚܫܚ	-12404
▁ܘܢܨܒ	-12405
▁ܘܢܨܠ	-12406
▁ܘܦܠܛ	-12407
▁ܝܘܤܐ	-12408
▁ܟܬܪܘ	-12409
ܢܝܢܘܝܐ	-12410
ܦܪܥܘܢܟ	-12411
▁ܐܪܝܡܬ	-12412
▁ܒܐܕܢܝ	-12413
▁ܒܙܘܥܐ	-12414
▁ܒܟܝܢܟ	-12415
▁ܕܐܒܕܘ	-12416
▁ܕܙܕܩܢ	-12417
▁ܕܚܘܝܐ	-12418
▁ܕܛܘܝܐ	-12419
▁ܕܤܓܝܦ	-12420
▁ܕܤܥܪܗ	-12421
▁ܘܐܠܘܨ	-12422
▁ܘܕܘܝܐ	-12423
▁ܘܕܠܚܘ	-12424
▁ܘܝܘܤܐ	-12425
▁ܘܡܫܘܪ	-12426
▁ܘܢܗܦܟ	-12427
▁ܘܢܨܠܐ	-12428
▁ܘܥܝܢܝ	-12429
▁ܛܡܐܝܢ	-12430
▁ܠܐܠܗܗ	-12431
▁ܠܒܤܪܝ	-12432
▁ܡܘܩܕܐ	-12433
▁ܡܬܒܐܫ	-12434
▁ܡܬܚܫܚ	-12435
▁ܤܘܟܝܗ	-12436
▁ܥܕܪܢܝ	-12437
▁ܐܬܩܪܒܢ	-12438
▁ܕܠܡܠܬܝ	-12439
▁ܕܡܤܬܥܪ	-12440
▁ܕܡܬܬܒܥ	-12441
▁ܕܡܬܬܩܠ	-12442
▁ܕܢܬܢܟܤ	-12443
▁ܘܐܘܚܕܘ	-12444
▁ܘܐܬܚܫܚ	-12445
▁ܘܙܒܢܬܢ	-12446
▁ܘܠܡܐܡܐ	-12447
▁ܘܠܡܐܨܦ	-12448
▁ܘܡܠܟܝܗ	-12449
▁ܘܢܨܒܝܢ	-12450
▁ܘܢܨܠܘܢ	-12451
▁ܘܦܠܛܢܝ	-12452
▁ܘܦܪܙܠܐ	-12453
▁ܚܒܪܘܗܝ	-12454
▁ܠܝܛܝܢܢ	-12455
▁ܢܥܡܕܘܢ	-12456
▁ܢܦܤܩܘܢ	-12457
▁ܢܦܩܘܢܢ	-12458
▁ܢܦܪܫܢܝ	-12459
▁ܢܦܬܚܘܢ	-12460
▁ܢܩܝܡܘܢ	-12461
▁ܢܩܪܘܢܟ	-12462
▁ܢܫܘܚܘܢ	-12463
▁ܢܫܬܘܙܒ	-12464
▁ܢܫܬܩܠܢ	-12465
▁ܢܬܒܩܘܢ	-12466
▁ܢܬܒܪܟܢ	-12467
▁ܢܬܝܕܥܢ	-12468
▁ܢܬܟܪܘܢ	-12469
▁ܢܬܬܘܘܢ	-12470
▁ܤܒܥܬܘܢ	-12471
▁ܤܚܝܬܘܢ	-12472
▁ܤܠܘܢܘܤ	-12473
▁ܤܡܬܝܗܝ	-12474
▁ܥܘܗܕܢܢ	-12475
▁ܥܘܪܦܢܐ	-12476
▁ܥܝܢܝܟܝ	-12477
▁ܥܝܪܝܢܢ	-12478
▁ܥܡܝܩܬܗ	-12479
▁ܥܢܒܘܗܝ	-12480
▁ܥܬܪܬܘܢ	-12481
▁ܦܘܩܕܢܟ	-12482
▁ܦܘܪܥܢܟ	-12483
▁ܦܚܙܘܬܐ	-12484
▁ܦܝܠܝܦܐ	-12485
▁ܦܝܤܟܘܢ	-12486
▁ܦܪܝܤܬܐ	-12487
▁ܦܪܝܫܝܐ	-12488
▁ܦܪܨܘܦܝ	-12489
▁ܦܪܩܝܘܤ	-12490
▁ܨܚܝܘܗܝ	-12491
▁ܨܝܕܢܝܐ	-12492
▁ܩܪܟܕܢܐ	-12493
▁ܪܓܝܓܬܗ	-12494
▁ܪܓܡܘܗܝ	-12495
▁ܪܗܝܒܝܢ	-12496
▁ܪܤܝܤܝܢ	-12497
▁ܫܓܝܫܝܢ	-12498
▁ܫܘܘܕܥܐ	-12499
ܛܥܢܐ	-12500
▁ܝܨܝ	-12501
▁ܦܨܝ	-12502
▁ܩܥܕ	-12503
▁ܫܛܗ	-12504
ܓܪܝܟܝ	-12505
ܘܒܠܢܝ	-12506
ܙܘܛܘܤ	-12507
ܪܩܤܘܤ	-12508
▁ܐܘܒܠ	-12509
▁ܐܛܥܝ	-12510
▁ܕܚܤܡ	-12511
▁ܘܢܪܛ	-12512
▁ܘܥܪܛ	-12513
▁ܘܩܥܕ	-12514
▁ܚܬܘܡ	-12515
▁ܛܥܢܐ	-12516
▁ܝܨܝܦ	-12517
▁ܝܨܦܢ	-12518
▁ܢܫܒܩ	-12519
▁ܩܝܡܢ	-12520
ܘܟܢܬܘܤ	-12521
ܘܩܦܘܗܝ	-12522
ܪܘܙܘܬܐ	-12523
▁ܐܚܒܬܟ	-12524
▁ܐܤܦܘܩ	-12525
▁ܐܬܒܨܪ	-12526
▁ܒܡܠܟܐ	-12527
▁ܒܦܘܡܝ	-12528
▁ܕܐܦܪܥ	-12529
▁ܕܚܤܕܐ	-12530
▁ܕܚܤܕܗ	-12531
▁ܕܚܤܝܪ	-12532
▁ܕܝܘܛܪ	-12533
▁ܕܡܘܒܠ	-12534
▁ܕܢܛܪܘ	-12535
▁ܕܢܛܫܐ	-12536
▁ܕܢܩܨܐ	-12537
▁ܕܦܘܡܝ	-12538
▁ܕܬܤܘܤ	-12539
▁ܘܐܬܥܕ	-12540
▁ܘܠܒܒܘ	-12541
▁ܘܢܥܢܐ	-12542
▁ܘܢܪܛܒ	-12543
▁ܙܝܥܝܢ	-12544
▁ܠܦܓܪܝ	-12545
▁ܢܗܪܘܢ	-12546
▁ܤܘܡܩܐ	-12547
▁ܤܡܝܟܢ	-12548
▁ܥܩܒܬܗ	-12549
▁ܦܨܝܢܝ	-12550
▁ܩܒܘܪܗ	-12551
▁ܩܝܛܘܢ	-12552
▁ܪܛܝܒܐ	-12553
▁ܫܛܝܢܢ	-12554
▁ܫܛܬܘܢ	-12555
▁ܬܗܪܘܢ	-12556
ܦܪܥܝܘܗܝ	-12557
▁ܐܤܦܘܩܠ	-12558
▁ܒܡܠܘܗܝ	-12559
▁ܕܒܛܝܠܐ	-12560
▁ܕܙܥܘܪܐ	-12561
▁ܕܚܤܝܢܐ	-12562
▁ܕܚܤܝܪܐ	-12563
▁ܕܚܤܝܪܢ	-12564
▁ܕܠܤܢܝܩ	-12565
▁ܕܢܗܦܘܟ	-12566
▁ܕܢܩܒܬܐ	-12567
▁ܘܒܩܪܢܐ	-12568
▁ܘܕܐܠܘܡ	-12569
▁ܘܕܠܠܝܐ	-12570
▁ܘܕܫܝܘܠ	-12571
▁ܘܠܫܘܪܗ	-12572
▁ܘܡܪܚܦܢ	-12573
▁ܘܤܥܘܪܐ	-12574
▁ܙܘܙܘܗܝ	-12575
▁ܚܝܨܐܝܬ	-12576
▁ܠܡܚܬܬܐ	-12577
▁ܢܫܒܩܝܗ	-12578
▁ܩܝܘܡܬܐ	-12579
▁ܩܝܛܘܢܩ	-12580
▁ܫܘܪܥܬܗ	-12581
▁ܫܥܬܟܘܢ	-12582
▁ܫܬܐܤܝܗ	-12583
▁ܬܒܥܝܢܝ	-12584
▁ܬܕܟܝܬܐ	-12585
▁ܬܕܥܟܘܢ	-12586
▁ܬܘܤܦܘܢ	-12587
▁ܬܘܪܓܡܗ	-12588
▁ܬܚܘܒܘܢ	-12589
▁ܬܟܬܘܫܐ	-12590
▁ܬܠܐܘܗܝ	-12591
▁ܬܠܘܛܘܢ	-12592
▁ܬܡܘܬܘܢ	-12593
▁ܬܡܝܗܬܐ	-12594
▁ܬܤܒܠܘܢ	-12595
▁ܬܤܗܕܘܢ	-12596
▁ܬܤܘܦܘܢ	-12597
▁ܬܤܟܪܘܢ	-12598
▁ܬܥܗܕܘܢ	-12599
ܩܝܡܢܝ	-12600
▁ܘܐܪܟ	-12601
▁ܘܪܒܬ	-12602
▁ܚܫܘܒ	-12603
▁ܛܠܡܘ	-12604
▁ܨܠܝܒ	-12605
▁ܫܢܝܗ	-12606
▁ܒܢܓܕܐ	-12607
▁ܕܐܤܬܕ	-12608
▁ܕܨܪܝܟ	-12609
▁ܘܐܟܠܬ	-12610
▁ܘܐܪܟܢ	-12611
▁ܘܒܤܓܝ	-12612
▁ܘܒܤܟܠ	-12613
▁ܘܗܠܟܘ	-12614
▁ܘܡܬܟܬ	-12615
▁ܚܫܘܒܘ	-12616
▁ܠܚܢܢܗ	-12617
▁ܫܒܚܬܟ	-12618
▁ܫܘܚܢܐ	-12619
▁ܬܦܠܘܢ	-12620
▁ܐܩܝܡܢܝ	-12621
▁ܒܥܬܝܪܐ	-12622
▁ܒܩܪܝܬܟ	-12623
▁ܕܐܤܬܝܬ	-12624
▁ܕܘܪܟܬܐ	-12625
▁ܕܥܬܝܪܐ	-12626
▁ܘܐܗܦܟܘ	-12627
▁ܘܒܒܥܬܐ	-12628
▁ܘܒܠܥܝܢ	-12629
▁ܘܒܠܥܬܗ	-12630
▁ܘܒܤܗܪܐ	-12631
▁ܘܒܤܥܪܐ	-12632
▁ܘܕܐܫܪܐ	-12633
▁ܘܚܨܗܘܢ	-12634
▁ܘܟܦܝܦܐ	-12635
▁ܘܠܚܝܠܐ	-12636
▁ܘܠܚܡܪܐ	-12637
▁ܘܡܤܝܒܐ	-12638
▁ܘܡܬܟܬܫ	-12639
▁ܘܢܗܦܘܟ	-12640
▁ܘܤܒܪܬܐ	-12641
▁ܘܥܕܟܝܠ	-12642
▁ܘܥܕܠܝܢ	-12643
▁ܘܪܒܝܬܗ	-12644
▁ܚܛܗܝܟܝ	-12645
▁ܚܫܘܟܬܐ	-12646
▁ܠܚܤܝܪܝ	-12647
▁ܡܚܫܒܬܗ	-12648
▁ܬܨܛܒܬܢ	-12649
▁ܬܩܒܠܝܢ	-12650
▁ܬܩܕܡܘܢ	-12651
▁ܬܩܢܝܢܢ	-12652
▁ܬܫܬܘܘܢ	-12653
▁ܬܬܢܒܘܢ	-12654
▁ܬܬܢܚܘܢ	-12655
▁ܬܬܢܤܘܢ	-12656
▁ܬܬܪܒܘܢ	-12657
ܕܪܘܢܝܩܘܤ	-12658
ܫܝܛܘܬܗܘܢ	-12659
▁ܐܓܘܤܛܘܤ	-12660
▁ܐܕܢܝܗܘܢ	-12661
▁ܐܘܚܕܘܗܝ	-12662
▁ܐܚܝܢܬܟܝ	-12663
▁ܐܛܥܝܬܢܝ	-12664
▁ܐܠܒܫܘܗܝ	-12665
▁ܐܦܝܤܝܗܝ	-12666
▁ܐܫܒܚܟܘܢ	-12667
▁ܐܫܬܒܗܪܬ	-12668
▁ܐܫܬܘܙܒܘ	-12669
▁ܐܫܬܚܠܦܘ	-12670
▁ܐܬܗܝܡܢܬ	-12671
▁ܐܬܪܓܪܓܘ	-12672
▁ܐܬܬܨܝܕܘ	-12673
▁ܒܐܘܝܘܬܐ	-12674
▁ܒܐܘܠܨܢܝ	-12675
▁ܒܐܘܪܝܬܐ	-12676
▁ܒܐܙܘܛܘܤ	-12677
▁ܒܐܚܝܟܘܢ	-12678
▁ܒܐܝܪܝܚܘ	-12679
▁ܒܐܦܝܗܘܢ	-12680
▁ܒܐܦܝܟܘܢ	-12681
▁ܒܓܙܘܪܬܗ	-12682
▁ܒܓܠܝܘܬܐ	-12683
▁ܒܕܘܟܝܬܐ	-12684
▁ܒܚܪܫܘܗܝ	-12685
▁ܒܛܥܝܘܬܐ	-12686
▁ܒܝܘܬܪܢܐ	-12687
▁ܒܝܪܬܘܬܐ	-12688
▁ܒܟܕܒܘܬܐ	-12689
▁ܒܟܢܫܗܘܢ	-12690
▁ܒܠܘܟܝܬܐ	-12691
▁ܒܡܐܟܠܬܐ	-12692
▁ܒܡܠܬܗܘܢ	-12693
▁ܒܡܥܨܪܬܐ	-12694
▁ܒܢܓܝܪܘܬ	-12695
▁ܒܢܝܚܘܬܗ	-12696
▁ܒܤܗܕܘܬܗ	-12697
▁ܒܤܪܝܓܬܐ	-12698
▁ܒܥܘܪܓܠܐ	-12699
ܦܨܚ	-12700
ܗܢܝܬ	-12701
ܗܢܟܝ	-12702
ܙܪܘܥ	-12703
ܦܟܫܪ	-12704
ܦܨܚܝ	-12705
ܦܨܝܬ	-12706
ܩܕܡܝ	-12707
ܕܘܦܝܐ	-12708
ܚܝܒܝܗ	-12709
ܚܫܘܠܐ	-12710
ܠܟܤܢܕ	-12711
ܦܨܚܘܢ	-12712
ܬܡܬܘܢ	-12713
▁ܡܟܗܢ	-12714
▁ܢܡܚܐ	-12715
▁ܥܗܕܐ	-12716
▁ܩܕܠܐ	-12717
ܘܪܝܫܠܡ	-12718
ܛܪܓܝܢܢ	-12719
ܟܘܠܝܗܝ	-12720
ܟܝܟܘܬܢ	-12721
ܦܨܚܝܢܢ	-12722
ܬܘܩܠܬܐ	-12723
▁ܐܬܥܕܪ	-12724
▁ܒܒܝܫܐ	-12725
▁ܒܕܒܥܘ	-12726
▁ܒܩܛܠܗ	-12727
▁ܕܠܒܝܟ	-12728
▁ܕܠܩܕܡ	-12729
▁ܕܤܓܕܘ	-12730
▁ܘܒܡܐܐ	-12731
▁ܘܥܒܪܢ	-12732
▁ܘܥܒܪܬ	-12733
▁ܘܦܪܝܩ	-12734
▁ܟܢܘܫܢ	-12735
▁ܠܐܘܪܥ	-12736
▁ܠܙܘܥܐ	-12737
▁ܥܦܝܦܐ	-12738
▁ܩܛܘܠܘ	-12739
ܐܝܕܝܗܘܢ	-12740
▁ܐܘܠܨܢܝ	-12741
▁ܐܠܟܤܢܕ	-12742
▁ܐܪܦܟܫܪ	-12743
▁ܐܬܗܢܝܬ	-12744
▁ܐܬܥܕܪܬ	-12745
▁ܒܐܤܘܪܝ	-12746
▁ܕܐܤܗܕܬ	-12747
▁ܕܐܤܘܪܝ	-12748
▁ܕܒܨܥܪܐ	-12749
▁ܕܡܤܗܕܐ	-12750
▁ܕܡܬܬܠܐ	-12751
▁ܕܢܙܪܘܥ	-12752
▁ܕܢܡܚܘܢ	-12753
▁ܕܩܪܒܝܢ	-12754
▁ܘܝܒܝܫܐ	-12755
▁ܘܠܘܛܬܐ	-12756
▁ܘܠܩܕܡܝ	-12757
▁ܘܡܠܝܗܝ	-12758
▁ܘܢܓܕܝܢ	-12759
▁ܘܢܦܪܘܥ	-12760
▁ܘܬܩܪܝܢ	-12761
▁ܝܕܥܐܢܐ	-12762
▁ܠܐܘܪܚܗ	-12763
▁ܠܐܘܪܥܢ	-12764
▁ܡܢܓܕܝܢ	-12765
▁ܢܒܝܘܗܝ	-12766
▁ܢܕܚܘܢܗ	-12767
▁ܬܠܬܡܐܐ	-12768
▁ܒܥܠܕܒܒܟ	-12769
▁ܒܥܠܝܗܝܢ	-12770
▁ܒܦܪܗܤܝܐ	-12771
▁ܒܩܘܠܤܘܤ	-12772
▁ܒܪܕܘܦܝܐ	-12773
▁ܒܪܘܡܪܡܗ	-12774
▁ܒܫܘܒܗܪܐ	-12775
▁ܒܫܘܘܕܥܐ	-12776
▁ܒܫܝܠܘܚܐ	-12777
▁ܒܫܦܝܪܬܐ	-12778
▁ܒܬܐܛܪܘܢ	-12779
▁ܒܬܘܕܝܬܗ	-12780
▁ܒܬܘܠܘܬܐ	-12781
▁ܒܬܘܠܘܬܗ	-12782
▁ܒܬܚܬܝܬܐ	-12783
▁ܒܬܫܢܝܩܐ	-12784
▁ܓܘܫܡܗܘܢ	-12785
▁ܓܡܠܝܐܝܠ	-12786
▁ܕܐܘܪܚܬܐ	-12787
▁ܕܐܙܕܒܢܬ	-12788
▁ܕܐܙܕܡܢܬ	-12789
▁ܕܐܚܙܟܘܢ	-12790
▁ܕܐܠܗܘܬܐ	-12791
▁ܕܐܤܛܦܢܤ	-12792
▁ܕܐܤܬܒܪܘ	-12793
▁ܕܐܤܬܒܪܬ	-12794
▁ܕܐܤܬܕܩܘ	-12795
▁ܕܐܦܢܛܘܤ	-12796
▁ܕܐܦܩܘܗܝ	-12797
▁ܕܐܨܛܒܝܬ	-12798
▁ܕܐܩܦܬܘܢ	-12799
ܪܪܟ	-12800
ܟܫܠܘ	-12801
ܡܨܘܢ	-12802
ܡܫܚܗ	-12803
ܩܛܪܓ	-12804
ܘܕܝܬܟ	-12805
ܛܝܟܪܝ	-12806
ܟܫܗܘܢ	-12807
ܟܫܦܬܐ	-12808
▁ܕܒܕܪ	-12809
▁ܕܒܫܪ	-12810
▁ܕܚܡܫ	-12811
▁ܗܕܡܟ	-12812
▁ܘܡܛܬ	-12813
▁ܘܫܪܪ	-12814
▁ܙܟܝܬ	-12815
▁ܝܘܬܡ	-12816
▁ܟܝܢܗ	-12817
▁ܟܦܪܝ	-12818
▁ܡܚܪܪ	-12819
▁ܢܢܝܚ	-12820
▁ܢܫܪܪ	-12821
▁ܥܡܘܨ	-12822
ܦܫܩܘܬܗ	-12823
▁ܐܤܘܪܘ	-12824
▁ܐܬܚܪܪ	-12825
▁ܒܪܟܝܐ	-12826
▁ܒܫܪܪܟ	-12827
▁ܕܢܦܫܩ	-12828
▁ܕܥܘܪܘ	-12829
▁ܕܫܪܪܗ	-12830
▁ܗܕܡܝܟ	-12831
▁ܘܐܕܪܟ	-12832
▁ܘܐܬܟܫ	-12833
▁ܘܒܥܡܐ	-12834
▁ܘܕܪܒܐ	-12835
▁ܘܕܪܒܝ	-12836
▁ܘܕܪܥܗ	-12837
▁ܘܕܬܫܥ	-12838
▁ܘܡܛܟܤ	-12839
▁ܘܡܛܫܐ	-12840
▁ܙܟܝܬܗ	-12841
▁ܠܘܚܡܐ	-12842
▁ܠܡܙܥܘ	-12843
▁ܠܡܙܥܩ	-12844
▁ܡܩܛܪܓ	-12845
▁ܡܫܬܡܫ	-12846
▁ܤܝܦܝܢ	-12847
▁ܬܬܚܪܪ	-12848
ܢܛܪܘܢܝܢ	-12849
▁ܐܬܟܫܠܘ	-12850
▁ܒܐܚܪܢܐ	-12851
▁ܕܐܓܝܪܐ	-12852
▁ܕܐܩܛܪܓ	-12853
▁ܕܒܦܓܪܐ	-12854
▁ܕܒܫܪܓܐ	-12855
▁ܕܟܤܝܢܢ	-12856
▁ܕܢܬܝܕܥ	-12857
▁ܕܦܩܝܕܢ	-12858
▁ܕܨܕܝܬܐ	-12859
▁ܕܬܫܢܝܩ	-12860
▁ܘܐܓܠܘܙ	-12861
▁ܘܐܤܘܪܘ	-12862
▁ܘܒܥܘܬܝ	-12863
▁ܘܕܪܕܪܐ	-12864
▁ܘܠܓܝܪܐ	-12865
▁ܘܡܛܥܝܐ	-12866
▁ܘܡܛܫܝܐ	-12867
▁ܘܡܬܝܕܥ	-12868
▁ܘܢܓܝܪܐ	-12869
▁ܠܡܚܘܪܘ	-12870
▁ܠܡܡܫܚܗ	-12871
▁ܡܙܡܘܪܐ	-12872
▁ܡܫܝܚܝܢ	-12873
▁ܢܐܠܦܘܢ	-12874
▁ܢܟܦܢܘܢ	-12875
▁ܬܐܠܦܘܢ	-12876
▁ܬܘܕܝܬܟ	-12877
▁ܬܬܡܨܘܢ	-12878
▁ܕܐܪܙܘܗܝ	-12879
▁ܕܐܫܬܒܩܘ	-12880
▁ܕܐܫܬܠܚܘ	-12881
▁ܕܐܬܓܡܪܘ	-12882
▁ܕܐܬܓܡܪܬ	-12883
▁ܕܐܬܚܙܝܘ	-12884
▁ܕܐܬܚܠܡܬ	-12885
▁ܕܐܬܟܪܙܬ	-12886
▁ܕܐܬܟܪܟܬ	-12887
▁ܕܐܬܟܬܒܬ	-12888
▁ܕܐܬܡܠܝܬ	-12889
▁ܕܐܬܡܠܟܬ	-12890
▁ܕܐܬܢܟܝܘ	-12891
▁ܕܐܬܦܩܕܬ	-12892
▁ܕܐܬܩܪܝܬ	-12893
▁ܕܐܬܪܕܦܘ	-12894
▁ܕܒܐܤܟܡܐ	-12895
▁ܕܒܐܪܒܝܐ	-12896
▁ܕܒܕܡܘܬܐ	-12897
▁ܕܒܚܪܘܪܐ	-12898
▁ܕܒܛܘܥܝܝ	-12899
ܘܨܪܐ	-12900
ܒܫܟܘܢ	-12901
▁ܐܠܨܢ	-12902
▁ܕܚܐܢ	-12903
▁ܘܒܕܪ	-12904
▁ܘܠܒܫ	-12905
▁ܘܠܫܟ	-12906
▁ܬܦܪܫ	-12907
▁ܐܘܕܥܢ	-12908
▁ܐܘܕܥܬ	-12909
▁ܐܘܪܚܟ	-12910
▁ܐܦܤܝܬ	-12911
▁ܐܦܤܩܘ	-12912
▁ܐܨܛܒܝ	-12913
▁ܐܬܟܡܪ	-12914
▁ܕܢܟܦܢ	-12915
▁ܕܥܒܪܬ	-12916
▁ܘܒܙܬܗ	-12917
▁ܘܠܒܝܫ	-12918
▁ܘܦܬܚܢ	-12919
▁ܝܨܦܬܝ	-12920
▁ܠܟܪܤܗ	-12921
▁ܡܡܠܝܐ	-12922
▁ܡܡܪܡܪ	-12923
▁ܢܤܬܟܪ	-12924
▁ܢܬܒܤܡ	-12925
▁ܤܢܝܐܐ	-12926
▁ܤܢܝܩܐ	-12927
▁ܥܘܝܪܐ	-12928
▁ܥܘܠܝܗ	-12929
▁ܥܘܡܪܐ	-12930
▁ܥܢܝܗܝ	-12931
▁ܐܘܕܥܢܝ	-12932
▁ܐܠܨܬܢܝ	-12933
▁ܐܬܓܠܝܢ	-12934
▁ܒܐܘܨܪܐ	-12935
▁ܒܐܟܐܝܐ	-12936
▁ܒܟܝܠܬܐ	-12937
▁ܒܬܝܗܝܢ	-12938
▁ܕܐܝܕܝܟ	-12939
▁ܕܐܪܝܘܤ	-12940
▁ܕܐܬܪܒܝ	-12941
▁ܕܐܬܪܚܡ	-12942
▁ܕܚܫܠܬܐ	-12943
▁ܕܩܪܝܢܗ	-12944
▁ܕܪܫܝܥܐ	-12945
▁ܘܐܫܘܝܬ	-12946
▁ܘܐܬܠܚܡ	-12947
▁ܘܒܕܗܒܐ	-12948
▁ܘܒܙܡܪܐ	-12949
▁ܘܒܟܒܠܐ	-12950
▁ܘܒܟܦܢܐ	-12951
▁ܘܠܫܟܒܝ	-12952
▁ܘܠܫܢܝܢ	-12953
▁ܘܥܝܢܬܐ	-12954
▁ܘܬܬܒܘܢ	-12955
▁ܘܬܬܟܪܙ	-12956
▁ܘܬܬܠܘܢ	-12957
▁ܚܘܢܝܢܝ	-12958
▁ܟܘܪܤܝܟ	-12959
▁ܟܪܤܗܘܢ	-12960
▁ܠܐܟܐܝܐ	-12961
▁ܠܡܢܗܪܘ	-12962
▁ܠܡܫܬܡܥ	-12963
▁ܠܪܫܝܥܐ	-12964
▁ܡܡܪܝܢܐ	-12965
▁ܢܤܝܡܘܢ	-12966
▁ܫܒܚܘܗܝ	-12967
▁ܫܒܝܥܝܐ	-12968
▁ܬܦܪܫܢܝ	-12969
▁ܬܫܒܚܘܢ	-12970
▁ܬܫܢܝܩܐ	-12971
▁ܐܚܕܢܝܗܝ	-12972
▁ܐܦܤܝܬܢܐ	-12973
▁ܐܦܤܩܘܦܐ	-12974
▁ܕܐܬܪܗܘܢ	-12975
▁ܕܒܛܘܫܝܝ	-12976
▁ܕܒܠܥܕܝܗ	-12977
▁ܕܒܡܨܪܝܢ	-12978
▁ܕܒܡܫܟܢܐ	-12979
▁ܕܒܤܘܛܡܐ	-12980
▁ܕܒܬܪܬܝܢ	-12981
▁ܕܕܒܤܬܪܝ	-12982
▁ܕܕܝܠܟܘܢ	-12983
▁ܕܕܢܘܟܦܐ	-12984
▁ܕܘܒܪܘܗܝ	-12985
▁ܕܙܡܪܓܕܐ	-12986
▁ܕܙܢܝܘܬܐ	-12987
▁ܕܙܩܦܘܗܝ	-12988
▁ܕܙܪܝܥܝܢ	-12989
▁ܕܚܒܫܬܘܢ	-12990
▁ܕܚܕܪܘܗܝ	-12991
▁ܕܚܝܠܬܢܐ	-12992
▁ܕܛܒܪܝܘܤ	-12993
▁ܕܛܘܒܘܗܝ	-12994
▁ܕܛܝܒܬܘܢ	-12995
▁ܕܛܠܡܬܘܢ	-12996
▁ܕܛܡܐܘܬܐ	-12997
▁ܕܛܢܦܘܬܐ	-12998
▁ܕܛܥܝܘܬܐ	-12999
ܚܬܬܗ	-13000
ܝܙܢܐ	-13001
▁ܠܕܨ	-13002
ܬܝܗܒܘ	-13003
▁ܐܕܘܡ	-13004
▁ܐܥܗܕ	-13005
▁ܐܥܠܘ	-13006
▁ܒܡܪܝ	-13007
▁ܕܤܚܬ	-13008
▁ܘܪܥܝ	-13009
▁ܘܬܚܒ	-13010
▁ܙܒܢܢ	-13011
▁ܚܝܪܢ	-13012
▁ܠܕܬܪ	-13013
▁ܡܬܒܨ	-13014
▁ܢܙܟܐ	-13015
▁ܫܒܚܬ	-13016
▁ܬܛܥܡ	-13017
▁ܬܩܒܪ	-13018
▁ܬܩܢܬ	-13019
▁ܬܩܦܐ	-13020
▁ܬܪܝܨ	-13021
ܩܘܢܕܘܤ	-13022
ܫܐܠܝܢܝ	-13023
▁ܐܟܤܬܗ	-13024
▁ܐܥܕܝܗ	-13025
▁ܒܤܕܘܡ	-13026
▁ܕܟܫܠܐ	-13027
▁ܕܡܦܪܫ	-13028
▁ܕܢܝܬܪ	-13029
▁ܕܥܕܬܗ	-13030
▁ܕܦܠܚܐ	-13031
▁ܘܚܘܝܘ	-13032
▁ܘܢܝܬܪ	-13033
▁ܘܢܦܪܫ	-13034
▁ܘܫܕܬܗ	-13035
▁ܚܦܝܛܘ	-13036
▁ܝܠܕܝܗ	-13037
▁ܟܪܘܒܐ	-13038
▁ܠܕܨܗܐ	-13039
▁ܠܤܕܘܡ	-13040
▁ܡܬܒܩܐ	-13041
▁ܡܬܝܬܪ	-13042
▁ܩܢܘܡܗ	-13043
▁ܩܪܝܒܝ	-13044
▁ܩܪܝܒܢ	-13045
▁ܪܕܘܦܐ	-13046
▁ܬܥܪܘܩ	-13047
ܤܝܘܢܟܘܢ	-13048
▁ܐܟܤܝܗܝ	-13049
▁ܐܬܪܗܒܘ	-13050
▁ܒܝܡܝܢܐ	-13051
▁ܒܡܚܬܬܗ	-13052
▁ܕܐܬܝܬܪ	-13053
▁ܕܙܝܙܢܐ	-13054
▁ܕܚܝܠܢܝ	-13055
▁ܕܝܠܕܬܗ	-13056
▁ܕܢܦܪܘܩ	-13057
▁ܕܥܠܝܡܐ	-13058
▁ܕܪܟܝܟܐ	-13059
▁ܘܐܤܬܠܝ	-13060
▁ܘܕܢܙܟܐ	-13061
▁ܘܙܪܘܥܐ	-13062
▁ܘܚܘܝܬܗ	-13063
▁ܘܝܬܝܪܢ	-13064
▁ܘܠܚܒܠܐ	-13065
▁ܘܠܡܙܟܐ	-13066
▁ܘܡܫܘܬܦ	-13067
▁ܘܢܦܪܘܩ	-13068
▁ܛܘܒܟܘܢ	-13069
▁ܠܕܝܬܩܐ	-13070
▁ܠܡܢܤܝܘ	-13071
▁ܡܬܒܛܠܐ	-13072
▁ܢܫܬܘܚܪ	-13073
ܤܝܒܪܢܘܬܝ	-13074
ܩܛܠܘܢܟܘܢ	-13075
▁ܐܫܐܠܝܢܝ	-13076
▁ܒܡܪܕܘܬܐ	-13077
▁ܕܝܘܝܗܘܢ	-13078
▁ܕܝܘܡܘܗܝ	-13079
▁ܕܝܪܬܘܬܐ	-13080
▁ܕܝܪܬܘܬܢ	-13081
▁ܕܟܝܢܗܘܢ	-13082
▁ܕܟܝܢܗܝܢ	-13083
▁ܕܟܬܪܬܘܢ	-13084
▁ܕܠܐܢܬܬܗ	-13085
▁ܕܠܒܪܘܝܐ	-13086
▁ܕܠܕܝܩܝܐ	-13087
▁ܕܠܚܟܝܡܐ	-13088
▁ܕܠܝܠܘܕܐ	-13089
▁ܕܠܟܪܝܗܐ	-13090
▁ܕܠܡܐܪܬܗ	-13091
▁ܕܠܡܢܝܢܗ	-13092
▁ܕܠܩܕܡܝܟ	-13093
▁ܕܡܐܬܝܬܟ	-13094
▁ܕܡܒܝܐܢܐ	-13095
▁ܕܡܕܚܠܝܢ	-13096
▁ܕܡܕܪܫܝܢ	-13097
▁ܕܡܙܕܩܝܢ	-13098
▁ܕܡܚܐܘܗܝ	-13099
ܫܛܬ	-13100
ܟܒܫܗ	-13101
▁ܤܪܩ	-13102
▁ܪܟܒ	-13103
ܘܪܤܝܟ	-13104
ܘܪܤܠܐ	-13105
ܝܩܘܪܤ	-13106
ܟܪܤܟܝ	-13107
ܩܕܡܝܐ	-13108
▁ܕܒܫܛ	-13109
▁ܕܢܟܒ	-13110
▁ܕܩܪܩ	-13111
▁ܘܢܪܩ	-13112
▁ܘܪܡܙ	-13113
▁ܛܝܒܬ	-13114
▁ܝܘܢܡ	-13115
▁ܢܤܝܦ	-13116
▁ܢܦܪܩ	-13117
▁ܥܘܠܘ	-13118
▁ܥܡܪܘ	-13119
▁ܥܡܪܝ	-13120
ܟܒܪܝܬܐ	-13121
ܠܨܘܢܟܝ	-13122
▁ܐܬܒܐܫ	-13123
▁ܕܦܫܛܬ	-13124
▁ܘܐܚܘܕ	-13125
▁ܘܛܥܢܘ	-13126
▁ܘܠܫܒܒ	-13127
▁ܘܡܢܝܦ	-13128
▁ܘܡܬܬܓ	-13129
▁ܘܪܗܛܢ	-13130
▁ܘܫܠܡܘ	-13131
▁ܛܘܗܡܝ	-13132
▁ܟܦܘܪܐ	-13133
▁ܡܬܕܟܐ	-13134
▁ܡܬܗܢܐ	-13135
▁ܢܤܝܘܢ	-13136
▁ܪܓܝܫܐ	-13137
▁ܬܟܬܘܒ	-13138
▁ܬܬܚܝܠ	-13139
ܠܟܤܢܕܪܤ	-13140
▁ܐܫܬܠܡܘ	-13141
▁ܐܬܬܙܝܥ	-13142
▁ܒܡܕܡܟܐ	-13143
▁ܕܡܪܩܕܢ	-13144
▁ܕܢܝܚܬܝ	-13145
▁ܘܐܬܕܟܐ	-13146
▁ܘܕܡܐܢܝ	-13147
▁ܘܕܪܚܫܐ	-13148
▁ܘܫܒܥܝܢ	-13149
▁ܘܬܡܝܡܐ	-13150
▁ܚܕܝܗܘܢ	-13151
▁ܠܡܟܒܫܗ	-13152
▁ܠܪܚܡܬܗ	-13153
▁ܡܤܬܠܝܢ	-13154
▁ܡܤܬܬܪܐ	-13155
▁ܡܬܪܕܝܘ	-13156
▁ܥܡܪܝܢܢ	-13157
▁ܪܓܝܫܝܢ	-13158
▁ܐܚܕܝܘܗܝ	-13159
▁ܒܙܒܢܗܘܢ	-13160
▁ܒܝܫܬܟܘܢ	-13161
▁ܕܒܟܪܤܟܝ	-13162
▁ܕܒܩܕܡܝܐ	-13163
▁ܕܙܪܥܘܢܐ	-13164
▁ܕܚܠܬܟܘܢ	-13165
▁ܕܟܘܪܤܝܟ	-13166
▁ܕܡܝܩܪܝܢ	-13167
▁ܕܡܟܢܫܝܢ	-13168
▁ܕܡܡܙܓܝܢ	-13169
▁ܕܡܥܕܪܢܐ	-13170
▁ܕܡܥܕܪܢܝ	-13171
▁ܕܡܦܪܫܝܢ	-13172
▁ܕܡܨܥܪܝܢ	-13173
▁ܕܡܪܛܢܝܢ	-13174
▁ܕܡܪܟܒܬܐ	-13175
▁ܕܡܫܒܚܝܢ	-13176
▁ܕܡܫܘܚܬܐ	-13177
▁ܕܡܫܡܫܢܐ	-13178
▁ܕܡܬܒܤܝܢ	-13179
▁ܕܡܬܒܥܝܐ	-13180
▁ܕܡܬܒܥܝܢ	-13181
▁ܕܡܬܓܒܝܢ	-13182
▁ܕܡܬܕܡܝܢ	-13183
▁ܕܡܬܡܠܝܢ	-13184
▁ܕܡܬܢܒܝܢ	-13185
▁ܕܡܬܪܥܝܢ	-13186
▁ܕܡܬܬܠܡܕ	-13187
▁ܕܡܬܬܤܝܡ	-13188
▁ܕܡܬܬܪܝܡ	-13189
▁ܕܢܒܐܫܘܢ	-13190
▁ܕܢܓܕܦܘܢ	-13191
▁ܕܢܓܡܪܘܢ	-13192
▁ܕܢܓܪܥܘܢ	-13193
▁ܕܢܕܥܘܢܟ	-13194
▁ܕܢܕܪܟܘܢ	-13195
▁ܕܢܘܒܕܘܢ	-13196
▁ܕܢܘܟܪܝܐ	-13197
▁ܕܢܙܒܢܘܢ	-13198
▁ܕܢܚܝܒܝܗ	-13199
ܒܠܝܗ	-13200
ܛܠܝܗ	-13201
ܛܡܐܐ	-13202
ܫܒܬܘ	-13203
▁ܛܠܢ	-13204
▁ܢܩܫ	-13205
▁ܫܬܩ	-13206
ܗܝܐܝܬ	-13207
ܡܬܠܝܗ	-13208
ܫܝܓܘܢ	-13209
ܫܡܫܬܢ	-13210
ܬܪܥܝܘ	-13211
▁ܐܬܢܤ	-13212
▁ܐܬܢܨ	-13213
▁ܢܩܢܐ	-13214
▁ܢܫܝܓ	-13215
▁ܫܕܠܐ	-13216
ܢܬܐܤܘܢ	-13217
▁ܐܥܝܪܘ	-13218
▁ܐܦܤܘܢ	-13219
▁ܐܬܢܘܤ	-13220
▁ܐܬܢܦܩ	-13221
▁ܕܐܬܚܬ	-13222
▁ܕܒܛܢܢ	-13223
▁ܕܚܪܫܐ	-13224
▁ܕܡܗܦܟ	-13225
▁ܕܡܫܒܚ	-13226
▁ܕܢܫܒܚ	-13227
▁ܕܬܠܥܤ	-13228
▁ܘܩܛܡܐ	-13229
▁ܝܩܪܘܢ	-13230
▁ܟܘܟܒܗ	-13231
▁ܠܐܪܒܥ	-13232
▁ܠܚܢܦܐ	-13233
▁ܠܡܓܙܪ	-13234
▁ܡܓܒܝܢ	-13235
▁ܢܩܒܬܐ	-13236
▁ܢܩܝܪܐ	-13237
▁ܢܩܥܝܢ	-13238
▁ܩܛܝܠܐ	-13239
▁ܩܛܠܝܢ	-13240
▁ܩܛܦܝܢ	-13241
▁ܫܡܠܝܗ	-13242
▁ܬܒܤܘܢ	-13243
▁ܬܩܪܘܢ	-13244
▁ܐܚܘܟܘܢ	-13245
▁ܐܬܢܤܪܘ	-13246
▁ܐܬܢܦܩܘ	-13247
▁ܐܬܢܨܒܢ	-13248
▁ܒܪܗܘܡܐ	-13249
▁ܒܬܗܘܡܐ	-13250
▁ܕܐܬܘܢܐ	-13251
▁ܕܡܬܛܡܐ	-13252
▁ܕܬܒܥܬܐ	-13253
▁ܘܐܝܤܘܢ	-13254
▁ܘܐܬܟܬܒ	-13255
▁ܘܐܬܢܒܝ	-13256
▁ܘܚܪܒܬܐ	-13257
▁ܘܠܛܡܐܐ	-13258
▁ܘܩܕܝܫܢ	-13259
▁ܘܫܒܝܢܢ	-13260
▁ܘܬܩܛܘܠ	-13261
▁ܙܗܝܐܝܬ	-13262
▁ܛܘܦܢܝܩ	-13263
▁ܛܠܢܝܬܗ	-13264
▁ܟܢܫܬܘܢ	-13265
▁ܠܒܫܬܘܢ	-13266
▁ܠܚܫܬܘܢ	-13267
▁ܠܡܪܥܝܘ	-13268
▁ܠܡܫܒܬܘ	-13269
▁ܠܬܫܡܫܬ	-13270
▁ܢܐܩܪܘܢ	-13271
▁ܢܡܬܠܝܗ	-13272
▁ܢܬܪܤܘܢ	-13273
▁ܩܛܝܠܝܢ	-13274
▁ܩܥܬܗܘܢ	-13275
▁ܬܥܩܪܘܢ	-13276
▁ܐܚܘܝܘܗܝ	-13277
▁ܒܡܚܙܝܬܐ	-13278
▁ܒܬܫܡܫܬܢ	-13279
▁ܕܡܤܟܠܢܐ	-13280
▁ܕܢܒܛܠܝܗ	-13281
▁ܕܢܡܘܬܘܢ	-13282
▁ܕܢܡܢܥܘܢ	-13283
▁ܕܢܢܓܕܘܢ	-13284
▁ܕܢܤܗܕܘܢ	-13285
▁ܕܢܤܝܘܢܐ	-13286
▁ܕܢܤܝܘܢܝ	-13287
▁ܕܢܥܠܘܢܗ	-13288
▁ܕܢܥܡܕܘܢ	-13289
▁ܕܢܥܩܒܘܢ	-13290
▁ܕܢܦܫܟܘܢ	-13291
▁ܕܢܨܒܬܘܢ	-13292
▁ܕܢܩܕܫܝܗ	-13293
▁ܕܢܩܦܘܗܝ	-13294
▁ܕܢܪܩܤܘܤ	-13295
▁ܕܢܬܒܪܘܢ	-13296
▁ܕܢܬܕܟܘܢ	-13297
▁ܕܢܬܬܪܝܡ	-13298
▁ܕܤܘܥܪܢܝ	-13299
ܕܩܦܘ	-13300
ܦܬܠܝ	-13301
ܫܘܙܒ	-13302
▁ܩܦܘ	-13303
ܓܝܐܝܢ	-13304
ܘܚܕܢܗ	-13305
ܘܚܪܬܗ	-13306
ܙܕܩܦܘ	-13307
ܦܛܝܢܢ	-13308
▁ܕܚܦܛ	-13309
▁ܕܢܥܒ	-13310
▁ܘܡܦܛ	-13311
▁ܚܛܦܬ	-13312
▁ܛܘܒܗ	-13313
▁ܟܪܤܟ	-13314
▁ܠܕܠܡ	-13315
▁ܡܟܬܒ	-13316
▁ܩܫܝܝ	-13317
▁ܬܛܝܒ	-13318
▁ܐܘܪܚܢ	-13319
▁ܐܤܝܪܗ	-13320
▁ܐܬܚܦܛ	-13321
▁ܐܬܛܝܒ	-13322
▁ܒܡܨܥܬ	-13323
▁ܒܥܒܕܝ	-13324
▁ܕܐܛܝܒ	-13325
▁ܕܒܠܒܐ	-13326
▁ܕܒܠܒܝ	-13327
▁ܕܝܠܦܬ	-13328
▁ܕܡܙܘܕ	-13329
▁ܕܢܕܒܚ	-13330
▁ܕܢܥܕܪ	-13331
▁ܕܢܥܡܪ	-13332
▁ܕܥܬܪܘ	-13333
▁ܕܩܡܨܐ	-13334
▁ܕܫܒܚܬ	-13335
▁ܘܚܨܘܕ	-13336
▁ܘܟܠܚܕ	-13337
▁ܘܤܓܝܐ	-13338
▁ܘܦܤܩܘ	-13339
▁ܛܥܝܬܐ	-13340
▁ܠܐܕܢܗ	-13341
▁ܠܕܪܬܐ	-13342
▁ܠܙܒܕܝ	-13343
▁ܠܡܓܪܬ	-13344
▁ܡܩܪܒܐ	-13345
▁ܢܬܛܝܒ	-13346
▁ܥܩܪܒܐ	-13347
▁ܦܘܪܩܢ	-13348
▁ܩܪܝܗܝ	-13349
▁ܬܩܪܘܒ	-13350
ܫܘܙܒܟܘܢ	-13351
▁ܐܛܢܟܘܢ	-13352
▁ܐܬܛܝܒܢ	-13353
▁ܒܪܫܗܘܢ	-13354
▁ܒܫܘܚܢܐ	-13355
▁ܕܚܤܝܪܝ	-13356
▁ܕܡܙܕܡܪ	-13357
▁ܕܬܬܛܝܒ	-13358
▁ܘܒܫܝܢܐ	-13359
▁ܘܠܡܓܪܬ	-13360
▁ܘܡܦܛܡܝ	-13361
▁ܘܢܩܪܘܢ	-13362
▁ܘܦܠܐܬܐ	-13363
▁ܘܪܘܚܢܐ	-13364
▁ܘܪܛܢܝܢ	-13365
▁ܠܦܪܚܬܐ	-13366
▁ܠܩܪܝܢܐ	-13367
▁ܠܪܓܠܝܟ	-13368
▁ܬܘܚܪܬܗ	-13369
▁ܬܛܝܒܘܢ	-13370
▁ܐܫܢܝܟܘܢ	-13371
▁ܒܒܬܝܗܘܢ	-13372
▁ܕܐܘܚܕܢܗ	-13373
▁ܕܐܙܕܩܦܘ	-13374
▁ܕܐܫܟܚܬܗ	-13375
▁ܕܢܥܒܪܝܗ	-13376
▁ܕܤܓܝܐܝܢ	-13377
▁ܕܤܢܐܘܢܝ	-13378
▁ܕܥܒܪܐܝܬ	-13379
▁ܕܥܘܝܪܘܬ	-13380
▁ܕܥܝܢܘܗܝ	-13381
▁ܕܥܠܝܡܝܢ	-13382
▁ܕܥܡܠܟܘܢ	-13383
▁ܕܦܘܩܕܢܗ	-13384
▁ܕܦܠܓܘܬܐ	-13385
▁ܕܦܠܚܘܬܢ	-13386
▁ܕܦܠܚܝܢܢ	-13387
▁ܕܦܢܛܝܘܤ	-13388
▁ܕܦܪܘܓܝܐ	-13389
▁ܕܨܘܚܝܬܐ	-13390
▁ܕܩܘܪܒܢܐ	-13391
▁ܕܩܛܠܘܗܝ	-13392
▁ܕܩܛܠܬܘܢ	-13393
▁ܕܩܠܝܘܦܐ	-13394
▁ܕܪܗܝܒܝܢ	-13395
▁ܕܪܚܝܩܝܢ	-13396
▁ܕܪܟܫܗܘܢ	-13397
▁ܕܪܥܝܗܘܢ	-13398
▁ܕܫܓܘܫܝܐ	-13399
ܛܟܘܤ	-13400
▁ܚܢܩ	-13401
ܢܩܝܢܢ	-13402
▁ܐܬܢܟ	-13403
▁ܒܗܬܬ	-13404
▁ܒܡܪܗ	-13405
▁ܓܘܥܠ	-13406
▁ܨܐܬܐ	-13407
▁ܪܥܘܬ	-13408
ܘܒܫܘܗܝ	-13409
ܝܕܝܗܝܢ	-13410
ܡܥܢܘܬܗ	-13411
ܡܪܡܟܘܢ	-13412
▁ܐܫܒܘܩ	-13413
▁ܐܬܩܕܫ	-13414
▁ܒܗܬܬܗ	-13415
▁ܕܐܘܚܪ	-13416
▁ܕܐܫܡܫ	-13417
▁ܕܚܪܡܐ	-13418
▁ܕܟܐܢܢ	-13419
▁ܕܟܪܤܐ	-13420
▁ܕܡܩܕܫ	-13421
▁ܕܤܝܡܬ	-13422
▁ܘܕܫܒܐ	-13423
▁ܘܘܠܝܐ	-13424
▁ܘܟܪܡܐ	-13425
▁ܘܟܪܤܐ	-13426
▁ܘܠܬܫܥ	-13427
▁ܘܢܪܡܐ	-13428
▁ܘܢܫܡܫ	-13429
▁ܠܥܪܤܐ	-13430
▁ܢܟܤܬܐ	-13431
▁ܥܢܘܕܐ	-13432
▁ܪܚܒܥܡ	-13433
▁ܬܒܥܘܢ	-13434
▁ܬܪܡܘܢ	-13435
▁ܬܫܒܘܩ	-13436
▁ܬܬܪܦܐ	-13437
ܚܙܝܢܝܗܝ	-13438
ܬܐܘܛܝܪܐ	-13439
▁ܐܘܛܟܘܤ	-13440
▁ܐܢܘܤܝܐ	-13441
▁ܐܪܥܗܘܢ	-13442
▁ܐܬܚܪܝܬ	-13443
▁ܐܬܢܟܦܘ	-13444
▁ܒܝܘܡܝܢ	-13445
▁ܒܡܘܠܝܐ	-13446
▁ܒܦܘܪܥܢ	-13447
▁ܒܫܪܝܪܐ	-13448
▁ܓܘܥܠܢܝ	-13449
▁ܕܚܫܘܗܝ	-13450
▁ܕܝܬܝܩܐ	-13451
▁ܕܡܡܠܠܐ	-13452
▁ܕܢܐܓܘܪ	-13453
▁ܕܢܚܙܝܢ	-13454
▁ܕܩܪܝܪܐ	-13455
▁ܘܠܬܘܪܐ	-13456
▁ܠܐܒܝܕܐ	-13457
▁ܠܐܒܝܘܕ	-13458
▁ܠܡܘܠܝܐ	-13459
▁ܠܡܚܙܝܢ	-13460
▁ܡܟܝܟܝܢ	-13461
▁ܡܬܢܒܝܐ	-13462
▁ܢܬܒܥܘܢ	-13463
▁ܢܬܚܙܝܢ	-13464
ܫܬܡܥܢܘܬܗ	-13465
▁ܐܪܥܢܝܬܐ	-13466
▁ܐܪܥܬܟܘܢ	-13467
▁ܕܐܬܬܤܝܡ	-13468
▁ܕܐܬܬܪܝܡ	-13469
▁ܕܢܐܚܕܘܢ	-13470
▁ܕܢܤܒܥܘܢ	-13471
▁ܕܫܘܘܕܝܗ	-13472
▁ܕܫܛܝܘܬܗ	-13473
▁ܕܫܡܫܬܘܢ	-13474
▁ܕܫܦܝܪܬܐ	-13475
▁ܕܫܩܠܬܘܢ	-13476
▁ܕܫܪܝܪܝܢ	-13477
▁ܕܬܐܤܪܘܢ	-13478
▁ܕܬܕܟܝܬܐ	-13479
▁ܕܬܕܪܟܘܢ	-13480
▁ܕܬܘܕܝܬܢ	-13481
▁ܕܬܟܦܢܘܢ	-13482
▁ܕܬܟܬܘܫܐ	-13483
▁ܕܬܡܘܬܘܢ	-13484
▁ܕܬܢܓܕܘܢ	-13485
▁ܕܬܤܒܥܘܢ	-13486
▁ܕܬܤܝܡܘܢ	-13487
▁ܕܬܪܝܟܘܢ	-13488
▁ܕܬܪܥܝܬܐ	-13489
▁ܕܬܫܐܠܝܢ	-13490
▁ܕܬܫܒܩܘܢ	-13491
▁ܕܬܫܝܓܘܢ	-13492
▁ܕܬܫܢܝܩܗ	-13493
▁ܕܬܬܐܤܘܢ	-13494
▁ܕܬܬܚܙܘܢ	-13495
▁ܕܬܬܡܠܘܢ	-13496
▁ܕܬܬܪܥܘܢ	-13497
▁ܗܪܤܝܘܛܐ	-13498
▁ܘܐܘܒܠܢܝ	-13499
ܘܠܩܗ	-13500
ܚܝܕܗ	-13501
ܦܪܩܗ	-13502
▁ܥܤܘ	-13503
ܗܝܒܬܝ	-13504
ܟܪܤܬܐ	-13505
ܪܓܘܢܐ	-13506
ܬܚܬܝܐ	-13507
ܬܝܗܒܐ	-13508
▁ܓܪܡܐ	-13509
▁ܕܬܫܕ	-13510
▁ܘܪܘܚ	-13511
▁ܝܪܬܢ	-13512
▁ܟܠܚܕ	-13513
▁ܡܕܟܝ	-13514
▁ܡܫܢܩ	-13515
▁ܩܨܝܢ	-13516
▁ܪܕܦܬ	-13517
▁ܬܡܗܘ	-13518
ܛܘܢܛܘܤ	-13519
ܤܪܝܘܗܝ	-13520
▁ܕܐܝܩܪ	-13521
▁ܕܒܨܝܢ	-13522
▁ܕܟܦܪܘ	-13523
▁ܕܡܓܕܘ	-13524
▁ܕܡܫܚܐ	-13525
▁ܕܢܚܬܘ	-13526
▁ܕܥܨܝܢ	-13527
▁ܕܨܝܕܢ	-13528
▁ܘܐܤܩܗ	-13529
▁ܘܒܥܝܬ	-13530
▁ܘܕܫܒܥ	-13531
▁ܘܠܬܚܬ	-13532
▁ܘܡܬܚܡ	-13533
▁ܘܦܪܩܗ	-13534
▁ܘܨܠܝܬ	-13535
▁ܘܪܘܒܐ	-13536
▁ܘܪܘܚܗ	-13537
▁ܠܡܐܫܕ	-13538
▁ܢܘܓܪܐ	-13539
▁ܢܘܘܓܐ	-13540
▁ܢܚܛܘܢ	-13541
▁ܢܦܨܝܢ	-13542
▁ܢܬܬܒܥ	-13543
▁ܢܬܬܥܝ	-13544
ܕܒܪܝܘܗܝ	-13545
ܝܒܪܝܘܗܝ	-13546
ܦܪܫܝܘܗܝ	-13547
▁ܐܫܬܐܠܘ	-13548
▁ܐܬܕܡܝܘ	-13549
▁ܕܐܝܩܪܗ	-13550
▁ܕܒܐܝܕܢ	-13551
▁ܕܒܫܥܬܐ	-13552
▁ܕܚܫܒܝܢ	-13553
▁ܕܡܒܪܟܐ	-13554
▁ܕܡܫܟܢܐ	-13555
▁ܕܡܫܠܡܐ	-13556
▁ܕܢܬܟܪܟ	-13557
▁ܕܤܘܠܩܗ	-13558
▁ܘܐܬܐܫܕ	-13559
▁ܘܐܬܟܪܟ	-13560
▁ܘܒܫܬܝܢ	-13561
▁ܘܕܒܪܬܗ	-13562
▁ܘܚܤܝܢܢ	-13563
▁ܘܡܬܚܙܐ	-13564
▁ܘܡܬܚܢܢ	-13565
▁ܘܡܬܚܫܒ	-13566
▁ܘܤܥܘܪܘ	-13567
▁ܘܪܘܚܦܐ	-13568
▁ܟܦܪܬܘܢ	-13569
▁ܠܐܓܘܢܐ	-13570
▁ܠܐܤܝܪܐ	-13571
▁ܠܚܒܪܬܗ	-13572
▁ܠܡܦܩܕܘ	-13573
▁ܠܡܦܩܬܐ	-13574
▁ܠܡܦܪܩܗ	-13575
▁ܢܒܝܘܬܗ	-13576
▁ܢܘܕܥܘܢ	-13577
▁ܢܬܬܘܤܦ	-13578
▁ܬܠܡܝܕܗ	-13579
▁ܒܒܝܬܗܘܢ	-13580
▁ܓܢܒܬܟܘܢ	-13581
▁ܕܒܬܚܬܝܐ	-13582
▁ܕܡܬܝܗܒܐ	-13583
▁ܘܐܘܪܝܬܐ	-13584
▁ܘܐܙܒܠܝܗ	-13585
▁ܘܐܙܕܩܦܘ	-13586
▁ܘܐܠܗܘܬܗ	-13587
▁ܘܐܠܝܨܝܢ	-13588
▁ܘܐܢܫܘܗܝ	-13589
▁ܘܐܤܝܘܗܝ	-13590
▁ܘܐܤܩܘܗܝ	-13591
▁ܘܐܤܬܠܝܘ	-13592
▁ܘܐܪܡܝܘܢ	-13593
▁ܘܐܫܬܓܫܢ	-13594
▁ܘܐܫܬܡܥܘ	-13595
▁ܘܐܫܬܪܚܘ	-13596
▁ܘܐܫܬܪܪܬ	-13597
▁ܘܐܬܓܘܤܘ	-13598
▁ܘܐܬܓܠܝܘ	-13599
ܒܤܛܐ	-13600
ܙܩܬܗ	-13601
▁ܢܒܤ	-13602
▁ܬܪܚ	-13603
ܕܝܬܩܐ	-13604
ܘܪܕܥܐ	-13605
ܥܪܝܢܢ	-13606
▁ܐܒܢܝ	-13607
▁ܗܠܟܬ	-13608
▁ܘܒܨܘ	-13609
▁ܘܒܨܚ	-13610
▁ܡܙܓܬ	-13611
▁ܤܘܥܪ	-13612
▁ܩܦܤܐ	-13613
▁ܬܩܢܘ	-13614
▁ܬܪܚܡ	-13615
▁ܬܫܦܪ	-13616
▁ܬܫܪܐ	-13617
ܤܝܪܘܬܐ	-13618
ܪܘܕܘܬܐ	-13619
▁ܐܫܠܡܬ	-13620
▁ܒܫܘܥܐ	-13621
▁ܕܐܙܠܢ	-13622
▁ܕܐܙܠܬ	-13623
▁ܕܐܬܒܤ	-13624
▁ܕܒܒܢܝ	-13625
▁ܕܠܒܢܝ	-13626
▁ܕܢܪܓܙ	-13627
▁ܘܕܨܗܐ	-13628
▁ܘܚܢܢܗ	-13629
▁ܘܠܘܚܐ	-13630
▁ܘܠܘܝܬ	-13631
▁ܘܫܬܐܤ	-13632
▁ܠܡܬܒܤ	-13633
▁ܠܪܚܡܝ	-13634
▁ܢܒܤܘܢ	-13635
▁ܤܒܤܛܐ	-13636
▁ܤܘܘܚܐ	-13637
▁ܤܦܝܠܐ	-13638
▁ܤܦܝܪܐ	-13639
▁ܫܪܝܢܢ	-13640
▁ܬܪܢܘܢ	-13641
▁ܬܪܥܝܢ	-13642
▁ܬܫܢܘܢ	-13643
▁ܐܘܪܕܥܐ	-13644
▁ܐܫܬܟܚܢ	-13645
▁ܕܡܬܬܪܝ	-13646
▁ܕܥܙܩܬܗ	-13647
▁ܕܫܦܝܪܢ	-13648
▁ܘܒܨܘܡܐ	-13649
▁ܘܒܨܥܪܐ	-13650
▁ܘܫܪܝܪܢ	-13651
▁ܘܫܬܐܤܐ	-13652
▁ܠܐܗܪܘܢ	-13653
▁ܠܚܘܕܝܗ	-13654
▁ܡܕܝܪܝܢ	-13655
▁ܡܤܝܒܪܢ	-13656
▁ܢܛܪܝܢܢ	-13657
▁ܤܘܥܪܢܗ	-13658
▁ܤܥܪܝܢܢ	-13659
▁ܦܠܚܘܗܝ	-13660
▁ܦܠܚܘܬܐ	-13661
▁ܦܠܚܬܘܢ	-13662
▁ܬܪܒܝܬܐ	-13663
▁ܬܪܚܡܘܢ	-13664
▁ܐܒܢܝܘܗܝ	-13665
▁ܒܟܘܪܤܝܗ	-13666
▁ܒܥܒܕܘܗܝ	-13667
▁ܕܐܬܒܤܡܝ	-13668
▁ܕܕܚܕܘܬܐ	-13669
▁ܕܩܪܩܘܪܐ	-13670
▁ܕܬܓܘܪܬܐ	-13671
▁ܘܐܬܓܠܝܬ	-13672
▁ܘܐܬܓܡܪܘ	-13673
▁ܘܐܬܚܛܦܬ	-13674
▁ܘܐܬܚܝܠܘ	-13675
▁ܘܐܬܚܪܝܬ	-13676
▁ܘܐܬܝܕܥܬ	-13677
▁ܘܐܬܠܚܡܘ	-13678
▁ܘܐܬܡܠܝܬ	-13679
▁ܘܐܬܥܕܠܘ	-13680
▁ܘܐܬܥܛܦܘ	-13681
▁ܘܐܬܦܠܛܬ	-13682
▁ܘܐܬܦܨܚܝ	-13683
▁ܘܐܬܦܨܝܘ	-13684
▁ܘܐܬܩܛܠܘ	-13685
▁ܘܐܬܪܥܝܘ	-13686
▁ܘܐܬܬܢܝܚ	-13687
▁ܘܒܐܤܟܡܐ	-13688
▁ܘܒܕܡܘܬܐ	-13689
▁ܘܒܗܘܦܟܐ	-13690
▁ܘܒܙܘܝܬܐ	-13691
▁ܘܒܚܕܘܬܗ	-13692
▁ܘܒܚܟܡܬܗ	-13693
▁ܘܒܚܪܝܢܐ	-13694
▁ܘܒܛܠܬܘܢ	-13695
▁ܘܒܠܥܕܝܢ	-13696
▁ܘܒܡܛܪܬܐ	-13697
▁ܘܒܡܨܥܬܐ	-13698
▁ܘܒܡܫܟܢܐ	-13699
ܛܢܥ	-13700
ܒܪܟܟ	-13701
ܓܥܘܪ	-13702
ܟܢܫܢ	-13703
ܨܛܢܥ	-13704
▁ܢܓܥ	-13705
▁ܩܠܢ	-13706
ܒܙܥܘܢ	-13707
▁ܕܒܛܢ	-13708
▁ܕܥܘܙ	-13709
▁ܗܒܒܐ	-13710
▁ܗܒܝܠ	-13711
▁ܚܫܝܫ	-13712
▁ܟܝܘܤ	-13713
▁ܢܓܕܘ	-13714
▁ܢܓܡܪ	-13715
▁ܥܡܠܢ	-13716
▁ܦܘܪܥ	-13717
▁ܦܪܘܩ	-13718
▁ܬܒܛܢ	-13719
▁ܐܒܪܟܟ	-13720
▁ܒܚܙܝܐ	-13721
▁ܒܚܙܩܐ	-13722
▁ܒܚܙܬܐ	-13723
▁ܒܦܓܪܢ	-13724
▁ܒܦܪܓܐ	-13725
▁ܕܐܟܢܫ	-13726
▁ܕܕܚܠܢ	-13727
▁ܕܢܦܠܬ	-13728
▁ܘܐܬܚܨ	-13729
▁ܘܒܥܘܪ	-13730
▁ܘܚܠܠܘ	-13731
▁ܘܫܢܝܟ	-13732
▁ܠܒܬܪܗ	-13733
▁ܠܡܫܓܘ	-13734
▁ܠܡܫܦܪ	-13735
▁ܠܡܫܪܐ	-13736
▁ܡܫܚܢܝ	-13737
▁ܢܩܝܦܐ	-13738
▁ܢܬܚܕܬ	-13739
▁ܢܬܚܦܛ	-13740
▁ܢܬܝܬܪ	-13741
▁ܦܪܘܫܘ	-13742
▁ܫܩܝܦܐ	-13743
▁ܬܓܥܘܪ	-13744
ܒܥܠܙܒܘܒ	-13745
▁ܒܦܪܓܠܐ	-13746
▁ܕܐܬܥܩܪ	-13747
▁ܕܕܝܘܢܐ	-13748
▁ܕܚܙܝܬܟ	-13749
▁ܕܢܦܠܘܢ	-13750
▁ܕܥܘܝܪܐ	-13751
▁ܕܦܩܕܢܝ	-13752
▁ܕܦܩܕܬܟ	-13753
▁ܕܫܦܪܝܢ	-13754
▁ܘܐܤܒܪܟ	-13755
▁ܘܐܨܛܢܥ	-13756
▁ܘܐܩܝܡܢ	-13757
▁ܘܐܬܚܛܦ	-13758
▁ܘܐܬܚܫܒ	-13759
▁ܘܒܥܘܪܠ	-13760
▁ܘܡܡܬܘܡ	-13761
▁ܘܡܫܥܒܕ	-13762
▁ܘܡܫܩܠܐ	-13763
▁ܘܡܬܝܬܪ	-13764
▁ܘܢܟܠܝܢ	-13765
▁ܘܢܤܥܘܪ	-13766
▁ܘܦܘܩܕܐ	-13767
▁ܘܬܐܠܘܢ	-13768
▁ܟܐܢܐܝܬ	-13769
▁ܟܦܢܝܢܢ	-13770
▁ܠܝܛܪܝܢ	-13771
▁ܡܘܕܐܢܐ	-13772
▁ܡܠܝܟܘܢ	-13773
▁ܡܠܝܠܬܐ	-13774
▁ܡܦܝܤܝܢ	-13775
▁ܡܫܚܟܝܢ	-13776
▁ܢܒܙܥܘܢ	-13777
▁ܢܓܥܠܘܢ	-13778
▁ܢܬܒܛܠܢ	-13779
▁ܦܘܪܥܘܗ	-13780
▁ܒܚܙܬܟܘܢ	-13781
▁ܕܐܬܟܢܫܢ	-13782
▁ܕܡܒܝܐܝܢ	-13783
▁ܕܢܦܪܤܝܗ	-13784
▁ܕܥܘܙܢܝܐ	-13785
▁ܘܐܬܚܨܕܬ	-13786
▁ܘܒܢܝܗܝܢ	-13787
▁ܘܒܢܡܘܤܐ	-13788
▁ܘܒܤܘܦܝܗ	-13789
▁ܘܒܤܪܘܢܐ	-13790
▁ܘܒܥܘܫܢܐ	-13791
▁ܘܒܦܬܘܪܐ	-13792
▁ܘܒܨܒܝܢܗ	-13793
▁ܘܒܩܝܡܬܗ	-13794
▁ܘܒܪܘܓܙܐ	-13795
▁ܘܒܫܘܩܝܢ	-13796
▁ܘܒܬܘܩܦܐ	-13797
▁ܘܓܙܘܪܬܐ	-13798
▁ܘܕܐܚܘܗܝ	-13799
ܘܬܦܘ	-13800
ܛܝܢܘ	-13801
ܠܛܝܢ	-13802
ܤܩܘܤ	-13803
ܥܩܡܘ	-13804
ܦܛܝܢ	-13805
▁ܚܒܛ	-13806
▁ܚܟܡ	-13807
ܛܘܛܝܢ	-13808
ܤܪܩܘܤ	-13809
ܦܐܛܪܐ	-13810
ܫܘܠܡܗ	-13811
▁ܐܨܒܐ	-13812
▁ܐܨܗܐ	-13813
▁ܐܨܘܕ	-13814
▁ܐܨܛܪ	-13815
▁ܕܨܡܘ	-13816
▁ܘܕܪܗ	-13817
▁ܚܒܢܢ	-13818
▁ܚܒܫܘ	-13819
▁ܚܟܝܡ	-13820
▁ܝܠܕܬ	-13821
▁ܠܕܫܡ	-13822
▁ܤܟܪܐ	-13823
▁ܥܛܪܐ	-13824
▁ܨܠܡܗ	-13825
▁ܩܛܝܢ	-13826
▁ܪܗܛܝ	-13827
▁ܪܘܝܚ	-13828
▁ܬܨܠܐ	-13829
ܒܪܛܝܢܘ	-13830
ܤܪܩܘܤܐ	-13831
ܫܬܘܬܦܘ	-13832
▁ܒܩܢܛܐ	-13833
▁ܓܠܝܕܐ	-13834
▁ܕܐܠܥܤ	-13835
▁ܕܢܛܝܪ	-13836
▁ܕܢܡܛܐ	-13837
▁ܘܠܟܦܪ	-13838
▁ܘܥܛܪܐ	-13839
▁ܙܕܩܬܟ	-13840
▁ܙܘܕܘܢ	-13841
▁ܚܒܛܬܗ	-13842
▁ܚܙܩܝܐ	-13843
▁ܡܤܛܝܢ	-13844
▁ܡܬܐܘܐ	-13845
▁ܡܬܐܤܪ	-13846
▁ܢܦܛܪܐ	-13847
▁ܤܟܠܝܢ	-13848
▁ܥܙܝܙܐ	-13849
▁ܪܗܛܪܐ	-13850
▁ܬܚܛܝܢ	-13851
▁ܬܟܒܝܢ	-13852
ܓܕܘܢܟܘܢ	-13853
ܛܪܛܝܘܛܐ	-13854
▁ܐܨܛܪܝܬ	-13855
▁ܒܪܥܝܢܟ	-13856
▁ܕܐܚܠܡܗ	-13857
▁ܕܐܬܒܚܪ	-13858
▁ܕܒܢܘܪܐ	-13859
▁ܕܒܢܟܠܐ	-13860
▁ܕܠܘܩܝܐ	-13861
▁ܕܠܝܛܝܢ	-13862
▁ܕܡܚܒܒܐ	-13863
▁ܕܡܠܐܝܐ	-13864
▁ܘܐܚܠܡܗ	-13865
▁ܘܒܘܩܝܐ	-13866
▁ܘܒܛܟܤܐ	-13867
▁ܘܕܢܒܝܐ	-13868
▁ܘܕܢܥܘܠ	-13869
▁ܚܒܢܢܝܢ	-13870
▁ܛܢܦܘܬܗ	-13871
▁ܠܡܥܩܡܘ	-13872
▁ܠܦܐܛܪܐ	-13873
▁ܡܟܪܙܢܐ	-13874
▁ܡܬܐܤܝܐ	-13875
▁ܢܫܬܘܬܦ	-13876
▁ܩܪܤܩܘܤ	-13877
▁ܬܟܝܠܝܢ	-13878
▁ܬܫܬܘܬܦ	-13879
▁ܒܫܪܒܬܟܝ	-13880
▁ܒܬܪܥܘܬܗ	-13881
▁ܕܒܐܪܘܗܝ	-13882
▁ܕܒܠܒܘܫܐ	-13883
▁ܕܢܫܬܘܬܦ	-13884
▁ܘܐܫܬܘܬܦ	-13885
▁ܘܕܐܬܩܒܪ	-13886
▁ܘܕܒܘܝܐܐ	-13887
▁ܘܕܓܠܝܢܐ	-13888
▁ܘܕܘܪܤܠܐ	-13889
▁ܘܕܙܥܘܪܐ	-13890
▁ܘܕܟܝܘܬܐ	-13891
▁ܘܕܡܤܒܪܝ	-13892
▁ܘܕܡܨܪܝܢ	-13893
▁ܘܕܡܪܬܝܢ	-13894
▁ܘܕܢܩܛܘܠ	-13895
▁ܘܕܢܬܡܠܐ	-13896
▁ܘܕܢܬܦܨܐ	-13897
▁ܘܕܥܪܤܬܐ	-13898
▁ܘܕܦܝܢܟܐ	-13899
ܙܪܚ	-13900
ܝܨܝܢ	-13901
ܬܚܕܬ	-13902
▁ܟܢܥ	-13903
▁ܩܝܫ	-13904
ܚܙܝܢܝ	-13905
ܪܬܝܢܝ	-13906
▁ܐܒܕܩ	-13907
▁ܐܘܬܒ	-13908
▁ܒܦܠܚ	-13909
▁ܕܠܘܩ	-13910
▁ܕܠܡܤ	-13911
▁ܕܥܩܒ	-13912
▁ܕܫܐܛ	-13913
▁ܘܚܤܕ	-13914
▁ܘܫܡܝ	-13915
▁ܚܘܢܝ	-13916
▁ܟܢܬܗ	-13917
▁ܢܪܡܐ	-13918
▁ܐܦܤܘܤ	-13919
▁ܕܐܡܬܗ	-13920
▁ܕܒܟܠܢ	-13921
▁ܕܠܘܒܐ	-13922
▁ܕܠܘܝܐ	-13923
▁ܕܠܘܩܕ	-13924
▁ܕܠܡܥܠ	-13925
▁ܘܐܒܗܬ	-13926
▁ܘܒܫܡܝ	-13927
▁ܘܕܟܪܐ	-13928
▁ܘܠܙܪܚ	-13929
▁ܘܠܦܠܚ	-13930
▁ܘܡܒܪܟ	-13931
▁ܘܢܦܫܐ	-13932
▁ܘܢܦܫܝ	-13933
▁ܘܥܡܕܬ	-13934
▁ܘܦܪܥܘ	-13935
▁ܘܦܪܩܢ	-13936
▁ܘܦܪܫܐ	-13937
▁ܘܦܪܫܢ	-13938
▁ܘܩܕܡܬ	-13939
▁ܘܫܒܩܬ	-13940
▁ܘܬܒܗܬ	-13941
▁ܙܘܘܓܐ	-13942
▁ܡܗܪܝܢ	-13943
▁ܢܪܡܝܢ	-13944
▁ܫܒܘܢܝ	-13945
▁ܬܝܒܝܢ	-13946
ܟܝܠܝܪܟܐ	-13947
▁ܒܐܪܒܥܐ	-13948
▁ܒܒܘܝܐܐ	-13949
▁ܒܘܠܝܬܐ	-13950
▁ܒܡܐܟܘܠ	-13951
▁ܒܫܘܡܬܗ	-13952
▁ܕܒܐܝܕܝ	-13953
▁ܕܢܦܫܟܝ	-13954
▁ܘܐܚܝܢܝ	-13955
▁ܘܐܫܒܘܩ	-13956
▁ܘܠܡܪܝܡ	-13957
▁ܘܦܪܥܝܢ	-13958
▁ܘܦܪܫܝܢ	-13959
▁ܚܙܐܘܢܝ	-13960
▁ܠܐܪܒܥܬ	-13961
▁ܡܚܝܒܝܢ	-13962
▁ܡܚܝܨܝܢ	-13963
▁ܢܪܡܝܢܝ	-13964
▁ܢܪܬܝܢܝ	-13965
▁ܩܒܠܘܢܝ	-13966
▁ܩܛܠܬܢܝ	-13967
▁ܫܒܩܘܢܝ	-13968
▁ܒܒܬܝܗܝܢ	-13969
▁ܒܡܫܡܥܬܢ	-13970
▁ܒܦܠܚܘܬܐ	-13971
▁ܕܐܬܬܚܕܬ	-13972
▁ܕܠܘܩܢܝܐ	-13973
▁ܕܠܡܤܟܢܐ	-13974
▁ܕܡܤܝܒܝܢ	-13975
▁ܕܬܚܙܝܢܝ	-13976
▁ܘܕܦܪܚܬܐ	-13977
▁ܘܕܦܪܝܫܐ	-13978
▁ܘܕܨܦܪܝܐ	-13979
▁ܘܕܩܕܝܫܐ	-13980
▁ܘܕܩܪܝܬܐ	-13981
▁ܘܕܪܘܓܙܗ	-13982
▁ܘܕܪܘܦܘܤ	-13983
▁ܘܕܫܘܠܡܗ	-13984
▁ܘܕܫܪܝܬܐ	-13985
▁ܘܕܬܗܘܘܢ	-13986
▁ܘܕܬܪܥܝܬ	-13987
▁ܘܗܕܝܘܛܐ	-13988
▁ܘܙܒܢܘܗܝ	-13989
▁ܘܙܕܝܩܝܢ	-13990
▁ܘܙܢܝܘܬܐ	-13991
▁ܘܙܩܦܘܗܝ	-13992
▁ܘܚܛܘܦܝܐ	-13993
▁ܘܚܝܝܟܘܢ	-13994
▁ܘܚܝܠܬܢܐ	-13995
▁ܘܛܒܥܘܗܝ	-13996
▁ܘܛܪܦܘܗܝ	-13997
▁ܘܝܕܝܥܝܢ	-13998
▁ܘܝܘܢܐܝܬ	-13999
ܘܫܟ	-14000
ܥܢܕ	-14001
ܘܫܠܚ	-14002
ܘܫܥܐ	-14003
ܟܡܘܢ	-14004
ܩܪܝܟ	-14005
ܟܡܘܢܟ	-14006
ܩܪܝܒܐ	-14007
▁ܐܒܝܬ	-14008
▁ܐܟܫܠ	-14009
▁ܐܢܘܫ	-14010
▁ܒܕܠܩ	-14011
▁ܒܕܩܘ	-14012
▁ܒܝܥܢ	-14013
▁ܕܡܨܛ	-14014
▁ܕܡܨܪ	-14015
▁ܘܐܪܓ	-14016
▁ܘܐܫܪ	-14017
▁ܘܕܤܘ	-14018
▁ܛܠܝܗ	-14019
▁ܠܡܫܠ	-14020
▁ܢܛܥܢ	-14021
▁ܤܥܪܝ	-14022
▁ܪܝܚܗ	-14023
▁ܪܝܫܗ	-14024
▁ܪܝܫܢ	-14025
▁ܬܪܦܐ	-14026
ܛܘܠܝܢܐ	-14027
▁ܐܒܝܬܪ	-14028
▁ܐܠܝܫܥ	-14029
▁ܐܫܬܪܘ	-14030
▁ܐܬܝܥܢ	-14031
▁ܒܕܠܩܗ	-14032
▁ܒܘܪܟܐ	-14033
▁ܒܘܪܟܝ	-14034
▁ܒܛܠܬܐ	-14035
▁ܒܡܦܝܤ	-14036
▁ܒܩܨܡܐ	-14037
▁ܕܐܡܘܬ	-14038
▁ܕܒܥܠܗ	-14039
▁ܕܓܒܝܬ	-14040
▁ܕܝܘܡܝ	-14041
▁ܕܟܪܝܟ	-14042
▁ܕܡܨܝܢ	-14043
▁ܕܡܫܚܬ	-14044
▁ܕܢܥܢܕ	-14045
▁ܘܚܡܫܐ	-14046
▁ܘܡܢܥܢ	-14047
▁ܘܦܘܫܟ	-14048
▁ܠܐܘܠܨ	-14049
▁ܡܗܢܝܐ	-14050
▁ܡܚܒܠܢ	-14051
▁ܢܩܪܝܟ	-14052
▁ܬܐܡܘܢ	-14053
ܝܛܘܠܝܢܐ	-14054
▁ܒܡܠܟܘܬ	-14055
▁ܒܥܐܘܢܝ	-14056
▁ܒܪܘܫܥܐ	-14057
▁ܕܒܥܝܪܐ	-14058
▁ܕܡܨܛܚܐ	-14059
▁ܕܡܨܠܝܐ	-14060
▁ܕܡܨܥܝܐ	-14061
▁ܕܡܨܪܝܐ	-14062
▁ܕܤܥܪܝܢ	-14063
▁ܘܐܦܩܢܝ	-14064
▁ܘܐܪܓܫܬ	-14065
▁ܘܠܥܘܠܐ	-14066
▁ܘܠܥܝܠܐ	-14067
▁ܘܡܫܡܠܝ	-14068
▁ܘܡܫܬܒܚ	-14069
▁ܘܡܫܬܝܐ	-14070
▁ܠܡܫܠܚܗ	-14071
▁ܡܬܘܫܠܚ	-14072
▁ܐܡܟܬܝܗܝ	-14073
▁ܐܤܛܪܛܝܐ	-14074
▁ܐܤܛܪܢܝܐ	-14075
▁ܐܫܟܚܘܢܝ	-14076
▁ܒܐܕܢܘܗܝ	-14077
▁ܕܝܥܢܘܬܐ	-14078
▁ܘܐܕܢܘܗܝ	-14079
▁ܘܐܘܝܘܬܐ	-14080
▁ܘܕܝܕܥܬܐ	-14081
▁ܘܝܩܝܪܬܐ	-14082
▁ܘܟܘܪܗܢܐ	-14083
▁ܘܟܠܝܪܟܐ	-14084
▁ܘܟܢܫܘܗܝ	-14085
▁ܘܟܤܝܘܗܝ	-14086
▁ܘܟܪܟܘܗܝ	-14087
▁ܘܟܬܝܒܬܐ	-14088
▁ܘܠܐܚܘܬܗ	-14089
▁ܘܠܐܝܤܚܩ	-14090
▁ܘܠܐܡܗܬܐ	-14091
▁ܘܠܒܢܘܗܝ	-14092
▁ܘܠܒܢܝܟܝ	-14093
▁ܘܠܒܪܝܬܐ	-14094
▁ܘܠܓܐܝܘܤ	-14095
▁ܘܠܘܝܘܗܝ	-14096
▁ܘܠܛܝܡܘܢ	-14097
▁ܘܠܝܚܝܕܗ	-14098
▁ܘܠܟܠܡܕܡ	-14099
ܒܝܚܢ	-14100
ܬܢܚܢ	-14101
▁ܠܨܪ	-14102
ܓܠܙܝܢ	-14103
ܠܝܓܝܢ	-14104
▁ܐܓܒܐ	-14105
▁ܐܓܘܪ	-14106
▁ܐܓܝܪ	-14107
▁ܐܓܢܐ	-14108
▁ܐܓܥܠ	-14109
▁ܒܐܤܟ	-14110
▁ܕܩܪܟ	-14111
▁ܕܫܚܢ	-14112
▁ܕܬܚܬ	-14113
▁ܘܢܟܦ	-14114
▁ܡܫܚܢ	-14115
▁ܬܒܗܬ	-14116
▁ܬܫܬܓ	-14117
ܘܪܝܢܝܐ	-14118
ܙܕܕܩܘܢ	-14119
ܙܕܕܩܝܢ	-14120
ܬܗܦܟܘܢ	-14121
▁ܐܚܝܕܢ	-14122
▁ܕܕܡܟܐ	-14123
▁ܕܡܬܚܦ	-14124
▁ܕܢܫܚܢ	-14125
▁ܕܤܢܝܬ	-14126
▁ܕܬܚܙܐ	-14127
▁ܘܐܓܪܝ	-14128
▁ܘܕܝܗܒ	-14129
▁ܘܕܝܠܗ	-14130
▁ܘܬܒܪܘ	-14131
▁ܠܨܪܦܬ	-14132
▁ܡܬܬܙܝ	-14133
▁ܢܡܠܠܥ	-14134
▁ܢܦܩܘܕ	-14135
▁ܦܛܝܪܐ	-14136
▁ܦܠܓܝܢ	-14137
▁ܪܥܝܥܐ	-14138
▁ܫܐܠܢܐ	-14139
▁ܬܙܕܕܩ	-14140
▁ܬܫܬܡܗ	-14141
▁ܬܬܕܟܪ	-14142
▁ܐܓܘܪܤܐ	-14143
▁ܐܓܝܪܝܟ	-14144
▁ܒܛܠܐܝܬ	-14145
▁ܒܪܒܘܬܐ	-14146
▁ܕܐܦܤܘܩ	-14147
▁ܕܓܡܝܪܐ	-14148
▁ܕܚܡܝܪܐ	-14149
▁ܕܡܛܠܬܟ	-14150
▁ܕܡܥܘܗܝ	-14151
▁ܕܡܥܠܝܢ	-14152
▁ܕܡܬܚܝܒ	-14153
▁ܕܢܙܕܕܩ	-14154
▁ܕܢܤܓܝܢ	-14155
▁ܕܩܘܪܝܢ	-14156
▁ܕܫܒܝܚܢ	-14157
▁ܘܐܬܪܒܝ	-14158
▁ܘܐܬܪܕܝ	-14159
▁ܘܕܝܗܘܕ	-14160
▁ܘܝܘܡܢܐ	-14161
▁ܘܠܥܪܒܐ	-14162
▁ܘܡܠܓܝܢ	-14163
▁ܘܡܨܪܝܢ	-14164
▁ܘܥܘܬܪܐ	-14165
▁ܘܩܒܘܬܐ	-14166
▁ܠܡܒܥܝܗ	-14167
▁ܠܡܠܐܟܝ	-14168
▁ܠܨܒܘܬܐ	-14169
▁ܠܨܠܘܬܐ	-14170
▁ܡܬܬܢܚܢ	-14171
▁ܡܬܬܦܝܪ	-14172
▁ܦܘܡܟܘܢ	-14173
▁ܬܚܘܡܝܗ	-14174
▁ܬܫܬܒܗܪ	-14175
▁ܒܐܤܟܘܠܐ	-14176
▁ܒܕܓܠܘܬܐ	-14177
▁ܕܝܘܬܪܢܐ	-14178
▁ܕܡܬܚܦܛܐ	-14179
▁ܕܦܠܝܓܝܢ	-14180
▁ܕܬܚܝܘܗܝ	-14181
▁ܘܒܐܒܕܢܐ	-14182
▁ܘܕܐܝܡܡܐ	-14183
▁ܘܕܝܘܚܢܢ	-14184
▁ܘܠܟܪܤܬܐ	-14185
▁ܘܠܡܕܠܚܘ	-14186
▁ܘܠܡܙܢܝܘ	-14187
▁ܘܠܡܡܠܠܘ	-14188
▁ܘܠܡܤܒܪܘ	-14189
▁ܘܠܡܤܠܝܐ	-14190
▁ܘܠܡܪܡܝܘ	-14191
▁ܘܠܡܫܟܢܐ	-14192
▁ܘܠܡܫܪܪܘ	-14193
▁ܘܠܡܬܥܩܘ	-14194
▁ܘܠܦܪܝܫܐ	-14195
▁ܘܠܨܠܘܬܐ	-14196
▁ܘܠܩܘܪܝܐ	-14197
▁ܘܠܩܛܘܠܐ	-14198
▁ܘܠܩܝܡܬܗ	-14199
ܠܚܬ	-14200
ܠܚܝܗ	-14201
▁ܡܙܘ	-14202
▁ܡܙܥ	-14203
ܠܚܟܘܢ	-14204
ܤܝܘܢܗ	-14205
▁ܐܝܙܓ	-14206
▁ܐܬܝܥ	-14207
▁ܒܥܡܝ	-14208
▁ܒܫܠܚ	-14209
▁ܕܐܪܫ	-14210
▁ܕܕܠܚ	-14211
▁ܘܒܝܫ	-14212
▁ܘܫܠܚ	-14213
▁ܚܝܠܘ	-14214
▁ܡܙܡܢ	-14215
▁ܢܩܝܐ	-14216
▁ܥܩܪܗ	-14217
ܒܗܝܗܘܢ	-14218
ܒܝܐܘܢܗ	-14219
ܕܥܡܪܝܢ	-14220
ܨܝܪܘܬܐ	-14221
ܪܝܡܘܢܗ	-14222
▁ܓܡܪܝܢ	-14223
▁ܕܠܡܦܩ	-14224
▁ܕܡܛܝܢ	-14225
▁ܕܡܛܥܐ	-14226
▁ܕܡܟܤܝ	-14227
▁ܕܡܟܬܪ	-14228
▁ܕܢܦܚܡ	-14229
▁ܕܢܦܠܐ	-14230
▁ܕܢܦܫܝ	-14231
▁ܕܤܒܪܢ	-14232
▁ܕܤܠܩܬ	-14233
▁ܕܩܪܒܘ	-14234
▁ܗܦܟܬܐ	-14235
▁ܘܚܤܡܘ	-14236
▁ܘܡܨܠܦ	-14237
▁ܘܡܨܥܬ	-14238
▁ܝܘܒܠܐ	-14239
▁ܠܡܚܫܟ	-14240
▁ܠܡܢܚܝ	-14241
▁ܡܙܘܓܘ	-14242
▁ܡܨܥܪܢ	-14243
▁ܢܫܬܠܚ	-14244
▁ܦܫܝܓܐ	-14245
▁ܨܐܕܝܢ	-14246
▁ܩܪܩܦܢ	-14247
▁ܫܡܪܝܢ	-14248
▁ܫܬܡܐܐ	-14249
ܢܛܩܘܤܛܐ	-14250
▁ܐܝܙܓܕܗ	-14251
▁ܐܦܠܚܝܗ	-14252
▁ܐܫܬܚܪܬ	-14253
▁ܐܬܝܥܢܬ	-14254
▁ܕܐܪܛܘܤ	-14255
▁ܕܐܪܫܥܘ	-14256
▁ܕܐܫܬܡܝ	-14257
▁ܕܡܛܝܗܝ	-14258
▁ܕܡܛܠܝܢ	-14259
▁ܕܡܟܝܪܐ	-14260
▁ܕܡܟܬܪܢ	-14261
▁ܕܦܪܓܡܐ	-14262
▁ܘܒܝܫܘܥ	-14263
▁ܘܠܥܤܩܐ	-14264
▁ܚܝܠܘܗܝ	-14265
▁ܚܝܠܘܬܐ	-14266
▁ܚܝܠܘܬܗ	-14267
▁ܝܐܝܘܬܗ	-14268
▁ܠܡܘܒܠܐ	-14269
▁ܠܪܘܕܘܤ	-14270
▁ܠܬܘܠܬܐ	-14271
▁ܡܚܒܠܢܐ	-14272
▁ܤܘܢܩܢܐ	-14273
▁ܤܝܒܪܘܢ	-14274
▁ܤܝܒܪܬܗ	-14275
▁ܬܫܡܥܢܝ	-14276
▁ܒܢܤܝܘܢܗ	-14277
▁ܕܐܫܠܡܢܝ	-14278
▁ܕܡܫܪܝܬܐ	-14279
▁ܘܐܫܬܠܚܬ	-14280
▁ܘܒܝܫܘܬܐ	-14281
▁ܘܕܠܚܟܘܢ	-14282
▁ܘܠܩܝܫܝܐ	-14283
▁ܘܠܩܪܝܒܐ	-14284
▁ܘܠܩܪܝܒܟ	-14285
▁ܘܠܪܘܚܢܐ	-14286
▁ܘܠܪܘܚܬܐ	-14287
▁ܘܠܫܒܒܬܗ	-14288
▁ܘܠܫܘܒܚܗ	-14289
▁ܘܠܬܘܪܨܐ	-14290
▁ܘܡܐܬܝܬܗ	-14291
▁ܘܡܒܪܩܝܢ	-14292
▁ܘܡܓܥܠܝܢ	-14293
▁ܘܡܕܒܪܢܐ	-14294
▁ܘܡܗܠܠܝܢ	-14295
▁ܘܡܚܐܘܗܝ	-14296
▁ܘܡܛܥܝܢܐ	-14297
▁ܘܡܟܝܟܝܢ	-14298
▁ܘܡܠܝܐܝܬ	-14299
ܚܩܗ	-14300
ܪܤܟ	-14301
ܘܦܤܢ	-14302
ܚܡܤܢ	-14303
ܛܘܝܢ	-14304
ܛܘܫܘ	-14305
ܤܘܦܐ	-14306
▁ܤܛܘ	-14307
ܘܪܗܒܐ	-14308
ܛܘܫܘܢ	-14309
ܝܦܐܝܬ	-14310
ܟܠܝܢܢ	-14311
ܪܤܛܘܤ	-14312
▁ܓܡܪܬ	-14313
▁ܕܐܪܤ	-14314
▁ܘܕܢܩ	-14315
▁ܘܢܫܩ	-14316
▁ܘܤܛܘ	-14317
▁ܚܫܟܬ	-14318
▁ܠܬܫܥ	-14319
▁ܡܕܪܐ	-14320
▁ܡܚܤܢ	-14321
▁ܡܚܦܛ	-14322
▁ܢܐܨܦ	-14323
▁ܢܚܤܢ	-14324
ܚܩܝܘܗܝ	-14325
ܦܢܝܘܗܝ	-14326
▁ܐܬܓܢܝ	-14327
▁ܐܬܥܡܕ	-14328
▁ܒܕܒܪܐ	-14329
▁ܒܛܢܬܐ	-14330
▁ܕܐܪܤܛ	-14331
▁ܕܒܩܠܐ	-14332
▁ܕܕܩܠܐ	-14333
▁ܕܟܪܤܟ	-14334
▁ܕܡܥܡܕ	-14335
▁ܕܢܕܪܐ	-14336
▁ܕܢܥܡܕ	-14337
▁ܕܥܒܪܘ	-14338
▁ܕܦܪܝܩ	-14339
▁ܕܩܛܠܘ	-14340
▁ܕܩܝܦܐ	-14341
▁ܘܒܟܠܢ	-14342
▁ܘܕܝܢܝ	-14343
▁ܘܕܢܕܥ	-14344
▁ܘܕܢܩܫ	-14345
▁ܘܙܘܦܐ	-14346
▁ܘܠܪܒܐ	-14347
▁ܘܡܘܦܐ	-14348
▁ܘܡܪܛܘ	-14349
▁ܘܢܫܦܪ	-14350
▁ܘܢܫܩܢ	-14351
▁ܘܥܢܬܐ	-14352
▁ܘܩܝܦܐ	-14353
▁ܘܫܚܩܗ	-14354
▁ܘܫܢܬܐ	-14355
▁ܘܫܪܒܐ	-14356
▁ܚܫܝܢܢ	-14357
▁ܠܗܕܪܐ	-14358
▁ܠܟܦܢܝ	-14359
▁ܠܡܐܨܦ	-14360
▁ܠܡܕܥܐ	-14361
▁ܡܘܠܝܗ	-14362
▁ܦܬܘܪܗ	-14363
▁ܩܢܝܬܗ	-14364
▁ܐܟܠܝܢܢ	-14365
▁ܐܤܛܘܝܢ	-14366
▁ܐܤܠܝܢܢ	-14367
▁ܐܬܛܘܫܘ	-14368
▁ܒܤܪܗܝܢ	-14369
▁ܕܐܚܦܘܪ	-14370
▁ܕܐܪܤܛܒ	-14371
▁ܕܒܘܟܪܐ	-14372
▁ܕܒܚܪܒܐ	-14373
▁ܕܤܓܘܕܐ	-14374
▁ܕܥܠܥܠܐ	-14375
▁ܕܪܓܠܬܐ	-14376
▁ܕܬܐܓܘܪ	-14377
▁ܘܐܬܕܝܫ	-14378
▁ܘܠܬܪܝܢ	-14379
▁ܘܢܚܡܤܢ	-14380
▁ܠܛܘܦܤܢ	-14381
▁ܡܤܒܪܢܐ	-14382
▁ܡܫܬܩܠܐ	-14383
▁ܦܩܘܥܝܗ	-14384
▁ܫܒܚܝܗܝ	-14385
▁ܒܡܘܗܒܬܗ	-14386
▁ܒܤܘܪܗܒܐ	-14387
▁ܕܒܤܪܗܘܢ	-14388
▁ܕܘܟܬܗܘܢ	-14389
▁ܕܢܬܩܢܘܢ	-14390
▁ܘܡܠܟܗܘܢ	-14391
▁ܘܡܠܬܗܘܢ	-14392
▁ܘܡܠܬܟܘܢ	-14393
▁ܘܡܡܝܩܝܢ	-14394
▁ܘܡܢܗܪܝܢ	-14395
▁ܘܡܢܫܩܝܢ	-14396
▁ܘܡܦܠܓܝܢ	-14397
▁ܘܡܦܠܓܢܐ	-14398
▁ܘܡܨܒܬܝܢ	-14399
ܚܩܬܗ	-14400
ܤܛܠܐ	-14401
ܩܪܝܘ	-14402
▁ܬܥܫ	-14403
ܟܠܗܝܢ	-14404
ܪܝܩܘܬ	-14405
▁ܘܕܡܙ	-14406
▁ܘܕܡܛ	-14407
▁ܘܕܡܝ	-14408
▁ܘܕܡܤ	-14409
▁ܝܪܬܘ	-14410
▁ܡܙܕܗ	-14411
▁ܦܩܕܗ	-14412
▁ܨܥܪܐ	-14413
▁ܬܥܘܦ	-14414
▁ܬܥܡܪ	-14415
ܛܠܝܘܗܝ	-14416
▁ܐܝܩܪܗ	-14417
▁ܐܥܒܕܬ	-14418
▁ܐܦܩܬܗ	-14419
▁ܐܬܪܚܩ	-14420
▁ܒܡܥܪܐ	-14421
▁ܒܬܘܠܢ	-14422
▁ܕܕܚܠܐ	-14423
▁ܕܠܟܠܗ	-14424
▁ܕܡܛܠܐ	-14425
▁ܕܡܫܬܓ	-14426
▁ܕܡܫܬܡ	-14427
▁ܕܢܦܠܘ	-14428
▁ܕܨܥܪܐ	-14429
▁ܕܪܘܓܙ	-14430
▁ܕܪܘܝܐ	-14431
▁ܕܪܘܝܢ	-14432
▁ܕܪܘܫܐ	-14433
▁ܘܕܡܙܥ	-14434
▁ܘܕܡܝܐ	-14435
▁ܘܕܡܥܬ	-14436
▁ܘܕܦܪܘ	-14437
▁ܘܡܛܠܐ	-14438
▁ܘܡܫܚܬ	-14439
▁ܘܢܤܗܕ	-14440
▁ܘܢܤܝܬ	-14441
▁ܘܢܤܡܟ	-14442
▁ܘܢܤܦܩ	-14443
▁ܘܢܩܝܦ	-14444
▁ܘܤܥܪܐ	-14445
▁ܘܩܪܒܐ	-14446
▁ܘܩܪܢܝ	-14447
▁ܠܤܐܡܐ	-14448
▁ܠܩܛܠܐ	-14449
▁ܡܘܬܪܐ	-14450
▁ܦܟܝܗܐ	-14451
▁ܨܒܥܬܝ	-14452
▁ܫܒܒܝܗ	-14453
▁ܬܫܬܘܩ	-14454
ܒܛܠܝܘܗܝ	-14455
ܫܐܠܝܘܗܝ	-14456
▁ܐܬܚܪܝܘ	-14457
▁ܕܗܝܟܠܗ	-14458
▁ܕܡܥܕܪܐ	-14459
▁ܕܡܫܬܓܪ	-14460
▁ܕܡܫܬܕܪ	-14461
▁ܕܡܫܬܠܡ	-14462
▁ܕܤܗܕܝܢ	-14463
▁ܕܫܚܩܬܗ	-14464
▁ܘܒܡܥܪܐ	-14465
▁ܘܕܡܘܚܐ	-14466
▁ܘܕܡܛܫܝ	-14467
▁ܘܕܡܤܝܒ	-14468
▁ܘܕܡܥܬܕ	-14469
▁ܘܟܐܒܢܐ	-14470
▁ܘܡܘܬܪܢ	-14471
▁ܘܡܨܚܝܢ	-14472
▁ܘܢܤܢܘܢ	-14473
▁ܘܢܤܦܩܢ	-14474
▁ܚܪܫܘܬܐ	-14475
▁ܠܓܠܛܝܐ	-14476
▁ܠܫܘܩܪܐ	-14477
▁ܡܥܗܕܝܢ	-14478
▁ܦܩܝܕܝܢ	-14479
▁ܬܥܫܩܘܢ	-14480
▁ܐܥܝܪܟܘܢ	-14481
▁ܒܤܪܝܩܘܬ	-14482
▁ܕܐܢܫܘܬܐ	-14483
▁ܕܐܬܩܪܝܘ	-14484
▁ܕܒܐܤܛܠܐ	-14485
▁ܕܡܫܬܕܪܢ	-14486
▁ܕܡܫܬܘܬܗ	-14487
▁ܕܡܫܬܡܥܐ	-14488
▁ܕܩܒܠܘܗܝ	-14489
▁ܘܕܡܙܥܘܩ	-14490
▁ܘܡܟܝܟܘܬ	-14491
▁ܘܡܩܕܡܝܢ	-14492
▁ܘܡܪܛܘܛܐ	-14493
▁ܘܡܪܟܒܬܐ	-14494
▁ܘܡܫܠܡܢܐ	-14495
▁ܘܡܫܡܠܝܐ	-14496
▁ܘܡܫܬܒܗܪ	-14497
▁ܘܡܫܬܒܚܐ	-14498
▁ܘܡܫܬܢܝܢ	-14499
ܕܢܝܘ	-14500
ܕܪܘܚ	-14501
ܡܚܘܢ	-14502
▁ܓܢܤ	-14503
▁ܪܫܟ	-14504
ܦܠܚܘܢ	-14505
▁ܐܕܟܪ	-14506
▁ܕܐܫܕ	-14507
▁ܚܤܪܬ	-14508
▁ܡܨܛܢ	-14509
▁ܡܬܬܘ	-14510
▁ܢܟܢܫ	-14511
▁ܢܟܤܝ	-14512
▁ܢܟܦܐ	-14513
▁ܦܓܥܬ	-14514
▁ܬܡܫܚ	-14515
▁ܬܤܘܤ	-14516
▁ܬܤܦܩ	-14517
▁ܐܡܗܬܐ	-14518
▁ܐܡܗܬܝ	-14519
▁ܒܕܪܘܚ	-14520
▁ܒܤܡܟܐ	-14521
▁ܒܥܘܒܐ	-14522
▁ܒܥܘܕܪ	-14523
▁ܕܒܙܚܐ	-14524
▁ܕܒܚܪܫ	-14525
▁ܕܒܢܝܗ	-14526
▁ܕܕܚܝܠ	-14527
▁ܕܡܥܗܕ	-14528
▁ܘܒܕܡܗ	-14529
▁ܘܕܥܒܕ	-14530
▁ܘܕܥܙܐ	-14531
▁ܘܕܥܟܘ	-14532
▁ܘܕܥܠܘ	-14533
▁ܘܕܥܤܪ	-14534
▁ܘܡܝܬܢ	-14535
▁ܚܘܒܠܐ	-14536
▁ܛܘܒܝܟ	-14537
▁ܠܕܗܒܐ	-14538
▁ܠܥܝܢܐ	-14539
▁ܡܝܩܪܐ	-14540
▁ܢܟܠܝܢ	-14541
▁ܢܤܚܘܢ	-14542
▁ܢܬܒܚܪ	-14543
▁ܪܫܗܘܢ	-14544
▁ܪܫܘܗܝ	-14545
▁ܪܫܝܬܗ	-14546
ܒܗܪܢܘܬܐ	-14547
ܩܒܠܝܘܗܝ	-14548
▁ܐܤܕܘܗܝ	-14549
▁ܕܐܝܩܪܐ	-14550
▁ܕܠܕܗܒܐ	-14551
▁ܕܡܤܝܒܪ	-14552
▁ܕܡܤܬܟܠ	-14553
▁ܘܐܤܝܒܪ	-14554
▁ܘܕܡܟܪܙ	-14555
▁ܘܕܥܠܘܝ	-14556
▁ܘܠܗܠܝܢ	-14557
▁ܘܡܘܪܘܢ	-14558
▁ܘܡܤܝܒܪ	-14559
▁ܘܤܘܕܪܐ	-14560
▁ܘܩܪܒܬܗ	-14561
▁ܡܦܪܫܝܢ	-14562
▁ܡܬܬܘܝܢ	-14563
▁ܫܘܒܩܘܗ	-14564
▁ܬܡܫܚܝܗ	-14565
▁ܬܫܚܩܘܢ	-14566
▁ܐܨܛܒܬܝܢ	-14567
▁ܒܥܘܕܪܢܢ	-14568
▁ܒܥܠܕܒܒܗ	-14569
▁ܒܪܘܝܘܬܐ	-14570
▁ܕܐܚܕܘܗܝ	-14571
▁ܕܒܚܪܫܝܟ	-14572
▁ܕܬܦܠܚܘܢ	-14573
▁ܘܒܚܘܪܒܐ	-14574
▁ܘܒܚܝܘܬܐ	-14575
▁ܘܕܢܡܚܘܢ	-14576
▁ܘܠܡܟܢܫܘ	-14577
▁ܘܡܬܕܒܪܢ	-14578
▁ܘܡܬܕܢܝܢ	-14579
▁ܘܡܬܚܙܝܢ	-14580
▁ܘܡܬܚܪܝܢ	-14581
▁ܘܡܬܝܗܒܐ	-14582
▁ܘܡܬܟܤܝܢ	-14583
▁ܘܡܬܩܢܝܢ	-14584
▁ܘܡܬܩܪܝܐ	-14585
▁ܘܡܬܩܪܝܢ	-14586
▁ܘܡܬܪܥܝܢ	-14587
▁ܘܡܬܬܘܤܦ	-14588
▁ܘܡܬܬܢܝܚ	-14589
▁ܘܢܐܠܦܘܢ	-14590
▁ܘܢܒܐܫܘܢ	-14591
▁ܘܢܒܟܘܢܗ	-14592
▁ܘܢܗܦܟܘܢ	-14593
▁ܘܢܚܬܘܗܝ	-14594
▁ܘܢܛܘܪܬܐ	-14595
▁ܘܢܟܢܫܘܢ	-14596
▁ܘܢܤܝܘܢܐ	-14597
▁ܘܢܤܝܡܘܢ	-14598
▁ܘܢܥܒܪܘܢ	-14599
ܫܢܟ	-14600
ܥܘܠܢ	-14601
ܩܬܢܝ	-14602
ܫܢܬܗ	-14603
ܬܢܝܤ	-14604
▁ܐܕܢ	-14605
ܓܘܪܬܗ	-14606
ܕܝܫܘܢ	-14607
ܘܡܩܬܐ	-14608
ܢܘܗܪܐ	-14609
ܤܝܩܬܐ	-14610
ܩܛܝܪܐ	-14611
ܬܝܩܬܐ	-14612
▁ܒܝܫܢ	-14613
▁ܕܡܛܥ	-14614
▁ܕܦܪܥ	-14615
▁ܘܥܫܢ	-14616
▁ܘܫܟܒ	-14617
▁ܚܨܝܢ	-14618
▁ܠܚܘܐ	-14619
▁ܠܡܨܡ	-14620
▁ܡܗܪܐ	-14621
▁ܡܠܩܛ	-14622
▁ܥܩܒܘ	-14623
▁ܦܘܡܢ	-14624
▁ܬܗܪܐ	-14625
▁ܬܤܓܐ	-14626
ܘܤܬܢܝܤ	-14627
ܝܠܠܓܘܤ	-14628
ܡܝܢܐܝܬ	-14629
ܬܢܝܚܝܢ	-14630
▁ܐܚܬܢܝ	-14631
▁ܐܤܓܘܕ	-14632
▁ܐܥܒܪܘ	-14633
▁ܐܥܘܠܢ	-14634
▁ܐܩܒܠܗ	-14635
▁ܐܬܗܓܐ	-14636
▁ܒܦܝܤܐ	-14637
▁ܕܐܚܕܢ	-14638
▁ܕܐܥܝܪ	-14639
▁ܕܓܝܤܐ	-14640
▁ܕܡܚܘܐ	-14641
▁ܕܥܡܕܢ	-14642
▁ܕܦܝܤܐ	-14643
▁ܕܦܠܓܘ	-14644
▁ܕܦܪܝܫ	-14645
▁ܕܩܪܝܫ	-14646
▁ܕܫܪܝܬ	-14647
▁ܕܬܥܝܪ	-14648
▁ܘܠܡܕܢ	-14649
▁ܘܡܚܘܐ	-14650
▁ܘܡܤܚܝ	-14651
▁ܘܫܘܫܢ	-14652
▁ܚܒܠܝܗ	-14653
▁ܚܨܘܕܐ	-14654
▁ܠܥܩܬܐ	-14655
▁ܡܬܚܡܬ	-14656
▁ܡܬܬܢܝ	-14657
▁ܤܪܝܩܝ	-14658
▁ܪܓܬܢܝ	-14659
▁ܫܡܫܘܢ	-14660
▁ܫܡܫܢܟ	-14661
ܬܐܓܘܪܬܗ	-14662
▁ܐܕܢܗܘܢ	-14663
▁ܕܢܬܥܝܪ	-14664
▁ܕܦܪܨܘܦ	-14665
▁ܘܒܫܢܬܗ	-14666
▁ܘܡܕܡܝܢ	-14667
▁ܘܡܫܬܕܐ	-14668
▁ܘܨܒܝܢܟ	-14669
▁ܝܕܥܬܢܝ	-14670
▁ܝܬܒܬܘܢ	-14671
▁ܠܝܘܫܝܐ	-14672
▁ܠܡܨܥܬܐ	-14673
▁ܡܓܕܦܢܐ	-14674
▁ܢܫܩܬܢܝ	-14675
▁ܤܘܡܩܬܐ	-14676
▁ܦܩܕܟܘܢ	-14677
▁ܐܚܬܢܝܗܝ	-14678
▁ܒܦܤܝܩܬܐ	-14679
▁ܒܪܝܟܘܗܝ	-14680
▁ܕܒܩܛܝܪܐ	-14681
▁ܕܠܢܘܗܪܐ	-14682
▁ܕܡܛܥܢܝܢ	-14683
▁ܕܢܕܝܫܘܢ	-14684
▁ܕܢܚܘܪܘܢ	-14685
▁ܕܢܤܓܕܘܢ	-14686
▁ܕܦܘܠܚܢܐ	-14687
▁ܕܦܪܨܘܦܝ	-14688
▁ܕܫܡܥܬܢܝ	-14689
▁ܘܐܬܪܕܝܬ	-14690
▁ܘܢܥܗܕܘܢ	-14691
▁ܘܢܥܠܘܢܗ	-14692
▁ܘܢܥܪܩܘܢ	-14693
▁ܘܢܥܬܪܘܢ	-14694
▁ܘܢܦܨܝܢܝ	-14695
▁ܘܢܦܪܥܘܢ	-14696
▁ܘܢܦܪܩܘܢ	-14697
▁ܘܢܦܪܫܘܢ	-14698
▁ܘܢܦܫܗܘܢ	-14699
ܠܕܢ	-14700
ܩܕܫܢ	-14701
ܬܐܠܨ	-14702
ܒܤܪܝܢ	-14703
ܙܕܩܬܟ	-14704
ܠܨܟܘܢ	-14705
ܬܐܠܨܘ	-14706
▁ܐܪܡܘ	-14707
▁ܕܠܗܘ	-14708
▁ܕܠܝܚ	-14709
▁ܘܐܠܨ	-14710
▁ܠܥܡܝ	-14711
▁ܡܒܛܠ	-14712
▁ܡܚܠܨ	-14713
▁ܢܒܘܬ	-14714
▁ܢܒܛܠ	-14715
▁ܤܠܩܢ	-14716
▁ܐܝܕܝܗ	-14717
▁ܒܡܦܬܚ	-14718
▁ܕܐܬܬܩ	-14719
▁ܕܡܓܪܬ	-14720
▁ܕܢܥܩܡ	-14721
▁ܕܢܦܬܚ	-14722
▁ܕܪܦܫܐ	-14723
▁ܘܒܙܕܩ	-14724
▁ܘܒܡܦܤ	-14725
▁ܘܒܡܦܩ	-14726
▁ܘܕܦܬܚ	-14727
▁ܘܡܒܛܠ	-14728
▁ܘܡܛܝܘ	-14729
▁ܘܡܠܦܝ	-14730
▁ܘܢܒܛܠ	-14731
▁ܘܢܙܕܩ	-14732
▁ܘܢܦܠܢ	-14733
▁ܘܢܦܬܚ	-14734
▁ܙܠܘܥܘ	-14735
▁ܟܢܝܫܐ	-14736
▁ܠܪܓܬܐ	-14737
▁ܡܤܟܠܘ	-14738
▁ܡܬܒܛܠ	-14739
▁ܬܓܡܘܪ	-14740
▁ܬܬܒܛܠ	-14741
▁ܬܬܥܝܪ	-14742
▁ܬܬܦܬܚ	-14743
▁ܐܩܝܡܬܟ	-14744
▁ܐܬܩܕܫܢ	-14745
▁ܐܬܬܟܠܘ	-14746
▁ܒܒܥܘܬܐ	-14747
▁ܒܡܤܝܒܪ	-14748
▁ܕܒܚܘܒܐ	-14749
▁ܕܒܢܝܢܐ	-14750
▁ܕܠܗܢܘܢ	-14751
▁ܕܠܝܚܛܐ	-14752
▁ܕܠܝܠܝܢ	-14753
▁ܕܡܬܒܛܠ	-14754
▁ܕܬܢܝܢܐ	-14755
▁ܘܒܡܘܬܗ	-14756
▁ܘܒܢܝܢܐ	-14757
▁ܘܢܐܠܕܢ	-14758
▁ܘܢܦܠܘܢ	-14759
▁ܘܢܬܒܛܠ	-14760
▁ܠܩܢܝܢܐ	-14761
▁ܡܒܤܪܝܢ	-14762
▁ܡܘܡܝܢܢ	-14763
▁ܡܥܒܕܢܐ	-14764
▁ܡܩܒܠܢܝ	-14765
▁ܢܒܘܬܘܢ	-14766
▁ܢܟܪܙܘܢ	-14767
▁ܤܝܡܝܢܢ	-14768
▁ܤܠܩܝܢܢ	-14769
▁ܐܘܒܘܠܘܤ	-14770
▁ܕܐܬܬܩܢܘ	-14771
▁ܕܒܚܝܗܘܢ	-14772
▁ܕܠܝܥܩܘܒ	-14773
▁ܘܐܠܨܘܗܝ	-14774
▁ܘܐܫܟܚܢܝ	-14775
▁ܘܐܬܐܟܠܘ	-14776
▁ܘܒܓܘܢܝܐ	-14777
▁ܘܒܙܕܩܬܐ	-14778
▁ܘܒܥܝܢܬܐ	-14779
▁ܘܕܒܝܩܝܢ	-14780
▁ܘܟܐܢܘܬܐ	-14781
▁ܘܠܙܕܩܬܟ	-14782
▁ܘܠܫܘܒܚܐ	-14783
▁ܘܡܠܦܝܢܢ	-14784
▁ܘܢܦܫܟܘܢ	-14785
▁ܘܢܩܛܠܘܢ	-14786
▁ܘܢܩܝܡܝܗ	-14787
▁ܘܢܫܝܗܘܢ	-14788
▁ܘܢܫܬܒܘܢ	-14789
▁ܘܢܬܘܒܘܢ	-14790
▁ܘܢܬܬܢܝܚ	-14791
▁ܘܤܗܕܝܢܢ	-14792
▁ܘܤܘܤܬܢܤ	-14793
▁ܘܤܡܝܟܝܢ	-14794
▁ܘܤܢܝܐܝܢ	-14795
▁ܘܤܩܘܒܠܐ	-14796
▁ܘܤܬܪܝܢܢ	-14797
▁ܘܥܒܪܐܝܬ	-14798
▁ܘܥܕܪܝܢܝ	-14799
ܓܢܒܝ	-14800
ܚܘܬܟ	-14801
ܛܘܫܐ	-14802
ܛܝܦܐ	-14803
ܦܚܡܐ	-14804
ܪܡܓܢ	-14805
▁ܟܤܗ	-14806
▁ܥܓܢ	-14807
ܗܪܘܬܟ	-14808
ܟܢܘܬܟ	-14809
ܡܢܘܬܢ	-14810
ܢܝܚܬܗ	-14811
▁ܐܬܓܢ	-14812
▁ܕܒܛܝ	-14813
▁ܕܡܓܢ	-14814
▁ܕܢܓܢ	-14815
▁ܘܐܓܢ	-14816
▁ܘܐܤܛ	-14817
▁ܘܡܠܥ	-14818
▁ܘܩܪܢ	-14819
▁ܙܘܦܐ	-14820
▁ܚܪܪܢ	-14821
▁ܟܪܛܝ	-14822
▁ܡܥܝܩ	-14823
▁ܥܠܡܝ	-14824
▁ܦܚܡܐ	-14825
ܘܠܝܗܘܢ	-14826
ܛܠܝܗܘܢ	-14827
ܟܠܝܗܘܢ	-14828
ܪܡܓܢܘܤ	-14829
▁ܐܘܩܕܘ	-14830
▁ܐܦܝܤܘ	-14831
▁ܒܥܘܬܢ	-14832
▁ܕܐܒܩܐ	-14833
▁ܕܠܘܬܟ	-14834
▁ܕܡܝܬܬ	-14835
▁ܕܢܛܥܐ	-14836
▁ܘܐܤܘܪ	-14837
▁ܘܐܤܛܝ	-14838
▁ܘܐܤܪܘ	-14839
▁ܘܐܤܬܪ	-14840
▁ܘܒܡܝܐ	-14841
▁ܘܚܕܝܬ	-14842
▁ܘܦܩܕܢ	-14843
▁ܘܫܡܝܘ	-14844
▁ܡܠܝܚܐ	-14845
▁ܡܠܦܢܗ	-14846
▁ܡܦܩܢܗ	-14847
ܠܒܘܬܟܘܢ	-14848
▁ܐܬܓܢܚܘ	-14849
▁ܐܬܕܟܪܢ	-14850
▁ܐܬܢܒܝܢ	-14851
▁ܒܚܛܗܝܗ	-14852
▁ܒܝܬܘܬܟ	-14853
▁ܕܐܩܝܡܘ	-14854
▁ܕܒܛܝܒܘ	-14855
▁ܕܢܗܪܘܢ	-14856
▁ܕܢܨܒܘܢ	-14857
▁ܕܥܛܝܦܐ	-14858
▁ܕܬܬܥܛܦ	-14859
▁ܘܐܚܘܕܘ	-14860
▁ܘܐܢܬܬܝ	-14861
▁ܘܐܤܘܬܐ	-14862
▁ܘܐܤܛܘܟ	-14863
▁ܘܐܤܪܝܢ	-14864
▁ܘܕܝܒܫܐ	-14865
▁ܘܙܒܘܪܐ	-14866
▁ܘܚܕܘܬܝ	-14867
▁ܘܠܓܢܒܝ	-14868
▁ܘܠܥܤܝܢ	-14869
▁ܘܡܦܚܡܐ	-14870
▁ܟܪܛܝܤܐ	-14871
▁ܟܪܝܗܝܢ	-14872
▁ܡܦܩܕܝܢ	-14873
▁ܡܫܪܪܬܐ	-14874
▁ܡܬܛܘܫܐ	-14875
▁ܥܘܝܪܘܬ	-14876
▁ܒܩܠܝܗܘܢ	-14877
▁ܕܠܐܚܘܬܟ	-14878
▁ܕܠܢܝܚܬܗ	-14879
▁ܕܡܛܐܒܝܢ	-14880
▁ܕܡܠܟܘܬܟ	-14881
▁ܗܝܡܢܘܬܢ	-14882
▁ܘܐܤܝܪܝܢ	-14883
▁ܘܐܤܬܪܗܒ	-14884
▁ܘܐܬܕܝܢܘ	-14885
▁ܘܕܝܠܟܘܢ	-14886
▁ܘܠܓܘܕܦܐ	-14887
▁ܘܠܢܝܩܠܐ	-14888
▁ܘܡܠܥܤܝܢ	-14889
▁ܘܢܕܘܢܘܢ	-14890
▁ܘܥܗܕܝܢܢ	-14891
▁ܘܥܝܢܘܗܝ	-14892
▁ܘܥܠܝܗܘܢ	-14893
▁ܘܥܦܩܘܗܝ	-14894
▁ܘܥܪܘܒܬܐ	-14895
▁ܘܥܪܤܗܘܢ	-14896
▁ܘܥܬܝܕܬܐ	-14897
▁ܘܥܬܝܩܬܐ	-14898
▁ܘܦܓܪܟܘܢ	-14899
ܓܡܘ	-14900
ܚܪܢ	-14901
ܪܪܗ	-14902
ܘܬܪܢ	-14903
ܡܛܝܢ	-14904
▁ܡܩܡ	-14905
ܒܘܚܪܢ	-14906
ܓܙܘܗܝ	-14907
ܘܪܩܢܗ	-14908
▁ܐܬܚܦ	-14909
▁ܓܙܪܗ	-14910
▁ܕܩܪܢ	-14911
▁ܕܫܡܝ	-14912
▁ܕܫܡܫ	-14913
▁ܘܒܓܙ	-14914
▁ܘܗܓܡ	-14915
▁ܘܬܪܘ	-14916
▁ܠܡܓܙ	-14917
▁ܡܩܫܐ	-14918
▁ܫܩܠܝ	-14919
▁ܬܠܥܤ	-14920
ܘܒܝܗܘܢ	-14921
ܘܢܝܡܘܢ	-14922
ܛܠܝܘܬܐ	-14923
▁ܐܦܘܕܐ	-14924
▁ܒܫܪܪܗ	-14925
▁ܕܒܠܒܢ	-14926
▁ܕܒܦܟܝ	-14927
▁ܕܕܝܢܗ	-14928
▁ܕܕܡܝܐ	-14929
▁ܕܡܤܟܢ	-14930
▁ܕܦܥܠܐ	-14931
▁ܕܫܘܪܗ	-14932
▁ܕܫܡܝܢ	-14933
▁ܘܬܪܤܝ	-14934
▁ܚܙܝܝܢ	-14935
▁ܠܒܬܪܐ	-14936
▁ܠܙܒܠܐ	-14937
▁ܠܙܪܥܐ	-14938
▁ܡܚܬܪܐ	-14939
▁ܡܩܕܝܢ	-14940
▁ܡܬܥܛܦ	-14941
▁ܢܛܪܘܢ	-14942
▁ܢܬܝܠܕ	-14943
▁ܢܬܠܚܡ	-14944
ܓܡܘܢܝܗܝ	-14945
▁ܐܬܚܦܛܢ	-14946
▁ܐܬܪܓܡܘ	-14947
▁ܕܐܬܡܟܟ	-14948
▁ܕܒܐܬܪܐ	-14949
▁ܕܡܠܟܘܡ	-14950
▁ܕܡܡܛܝܢ	-14951
▁ܕܡܤܟܢܐ	-14952
▁ܕܡܬܟܢܫ	-14953
▁ܕܢܫܬܕܐ	-14954
▁ܕܢܫܬܝܢ	-14955
▁ܕܢܫܬܩܠ	-14956
▁ܕܫܡܝܢܐ	-14957
▁ܕܫܡܠܝܘ	-14958
▁ܕܫܡܫܢܝ	-14959
▁ܘܒܐܬܪܐ	-14960
▁ܘܡܩܘܝܐ	-14961
▁ܘܩܪܐܘܢ	-14962
▁ܘܬܪܒܘܢ	-14963
▁ܠܡܓܙܪܗ	-14964
▁ܠܡܥܒܕܗ	-14965
▁ܫܢܝܗܘܢ	-14966
▁ܫܩܝܗܘܢ	-14967
ܒܘܚܪܢܟܘܢ	-14968
ܥܪܛܠܝܘܬܐ	-14969
▁ܐܬܬܢܝܚܝ	-14970
▁ܕܫܬܐܤܬܐ	-14971
▁ܘܕܝܘܬܪܢ	-14972
▁ܘܟܠܐܘܗܝ	-14973
▁ܘܡܘܠܟܢܐ	-14974
▁ܘܦܘܡܗܘܢ	-14975
▁ܘܦܘܩܕܢܐ	-14976
▁ܘܦܝܠܛܘܤ	-14977
▁ܘܦܠܚܘܗܝ	-14978
▁ܘܨܠܦܘܗܝ	-14979
▁ܘܨܥܪܘܗܝ	-14980
▁ܘܨܦܬܟܘܢ	-14981
▁ܘܩܕܡܘܗܝ	-14982
▁ܘܩܛܝܪܢܐ	-14983
▁ܘܪܓܡܘܗܝ	-14984
▁ܘܪܗܝܒܬܝ	-14985
▁ܘܫܐܠܬܘܢ	-14986
▁ܘܫܒܩܬܘܢ	-14987
▁ܘܫܘܒܗܪܢ	-14988
▁ܘܫܘܒܩܢܐ	-14989
▁ܘܫܘܡܠܝܐ	-14990
▁ܘܫܠܚܘܗܝ	-14991
▁ܘܫܢܝܗܘܢ	-14992
▁ܘܫܪܝܪܬܐ	-14993
▁ܘܬܐܠܕܝܢ	-14994
▁ܘܬܕܓܠܘܢ	-14995
▁ܘܬܗܝܪܝܢ	-14996
▁ܘܬܚܘܪܘܢ	-14997
▁ܘܬܠܒܫܘܢ	-14998
▁ܘܬܡܘܬܘܢ	-14999
ܕܦܢ	-15000
ܦܢܟ	-15001
ܕܟܝܗ	-15002
ܕܟܪܘ	-15003
ܛܪܦܢ	-15004
ܛܬܢܐ	-15005
ܢܬܦܢ	-15006
ܪܪܘܢ	-15007
▁ܩܘܝ	-15008
ܕܟܪܝܢ	-15009
ܘܠܦܢܟ	-15010
ܛܦܝܤܘ	-15011
ܝܠܬܢܐ	-15012
ܠܘܩܝܐ	-15013
ܢܗܪܘܢ	-15014
ܤܦܘܬܐ	-15015
ܦܢܝܢܐ	-15016
ܩܝܪܬܐ	-15017
ܫܗܪܘܢ	-15018
ܬܐܤܝܘ	-15019
ܬܗܪܘܢ	-15020
▁ܐܬܦܢ	-15021
▁ܕܡܚܟ	-15022
▁ܕܡܚܤ	-15023
▁ܕܪܦܢ	-15024
▁ܘܠܚܕ	-15025
▁ܘܡܪܘ	-15026
▁ܘܡܪܝ	-15027
▁ܘܢܚܒ	-15028
▁ܘܢܚܫ	-15029
▁ܘܢܬܒ	-15030
▁ܚܝܒܗ	-15031
▁ܩܘܕܐ	-15032
▁ܩܘܝܬ	-15033
ܢܘܛܬܢܐ	-15034
▁ܐܚܝܢܗ	-15035
▁ܕܡܚܝܐ	-15036
▁ܕܩܘܦܪ	-15037
▁ܕܩܪܘܤ	-15038
▁ܘܝܪܬܐ	-15039
▁ܘܡܪܒܐ	-15040
▁ܘܡܬܕܟ	-15041
▁ܘܢܚܕܐ	-15042
▁ܘܢܚܫܐ	-15043
▁ܘܢܬܟܚ	-15044
▁ܘܨܥܪܘ	-15045
▁ܚܝܒܟܝ	-15046
▁ܠܚܬܢܐ	-15047
▁ܠܝܪܬܐ	-15048
▁ܡܠܬܟܝ	-15049
▁ܡܬܚܕܬ	-15050
▁ܤܦܘܬܐ	-15051
▁ܦܪܤܝܢ	-15052
▁ܨܒܥܬܗ	-15053
ܝܠܤܦܘܬܐ	-15054
ܥܠܘܒܘܬܐ	-15055
▁ܐܚܝܢܝܟ	-15056
▁ܐܬܦܨܝܘ	-15057
▁ܒܙܕܝܩܐ	-15058
▁ܕܐܙܕܕܩ	-15059
▁ܕܝܠܗܝܢ	-15060
▁ܕܩܘܦܪܤ	-15061
▁ܕܬܬܠܘܢ	-15062
▁ܕܬܬܩܪܐ	-15063
▁ܕܬܬܩܪܒ	-15064
▁ܘܐܙܕܗܪ	-15065
▁ܘܡܪܝܪܐ	-15066
▁ܘܢܕܟܝܗ	-15067
▁ܘܢܚܬܝܢ	-15068
▁ܘܢܬܓܠܐ	-15069
▁ܘܢܬܩܝܡ	-15070
▁ܘܢܬܩܪܒ	-15071
▁ܘܪܚܡܬܐ	-15072
▁ܘܫܒܩܢܗ	-15073
▁ܙܩܝܪܬܐ	-15074
▁ܚܪܬܗܘܢ	-15075
▁ܠܫܘܠܡܗ	-15076
▁ܡܕܟܪܝܢ	-15077
▁ܡܪܝܪܬܐ	-15078
▁ܡܬܢܬܦܢ	-15079
▁ܡܬܪܕܦܢ	-15080
▁ܐܫܬܡܠܝܬ	-15081
▁ܕܐܙܕܕܩܢ	-15082
▁ܕܡܚܤܕܢܝ	-15083
▁ܕܢܚܕܪܘܢ	-15084
▁ܕܢܢܗܪܘܢ	-15085
▁ܕܢܬܗܪܘܢ	-15086
▁ܕܬܫܗܪܘܢ	-15087
▁ܕܬܫܪܪܘܢ	-15088
▁ܘܐܬܕܟܪܘ	-15089
▁ܘܐܬܛܪܦܢ	-15090
▁ܘܚܙܝܪܬܐ	-15091
▁ܘܢܗܪܟܘܢ	-15092
▁ܘܬܡܝܗܬܐ	-15093
▁ܘܬܡܝܡܝܢ	-15094
▁ܘܬܪܕܦܘܢ	-15095
▁ܘܬܪܘܙܘܢ	-15096
▁ܘܬܪܤܝܢܟ	-15097
▁ܘܬܫܡܫܬܗ	-15098
▁ܘܬܫܬܪܘܢ	-15099
ܥܕܐ	-15100
ܫܡܬ	-15101
▁ܛܟ	-15102
ܘܡܤܐ	-15103
ܛܡܘܤ	-15104
ܛܤܝܢ	-15105
ܟܐܢܐ	-15106
ܡܠܝܗ	-15107
ܥܠܝܘ	-15108
ܦܪܫܘ	-15109
ܫܝܓܬ	-15110
▁ܐܓܗ	-15111
▁ܒܚܟ	-15112
▁ܒܠܥ	-15113
▁ܢܤܐ	-15114
ܒܝܐܝܢ	-15115
ܥܝܟܘܢ	-15116
ܦܪܥܝܢ	-15117
▁ܐܙܡܪ	-15118
▁ܒܐܢܢ	-15119
▁ܒܗܠܢ	-15120
▁ܒܚܘܬ	-15121
▁ܕܙܩܝ	-15122
▁ܕܤܤܐ	-15123
▁ܕܬܚܐ	-15124
▁ܘܟܤܐ	-15125
▁ܘܤܒܘ	-15126
▁ܘܤܤܐ	-15127
▁ܙܓܝܪ	-15128
▁ܟܠܝܘ	-15129
▁ܟܦܢܘ	-15130
▁ܠܡܓܪ	-15131
▁ܤܒܠܬ	-15132
ܒܢܝܬܘܢ	-15133
ܦܠܘܢܝܐ	-15134
ܫܝܫܘܬܐ	-15135
▁ܐܒܘܒܐ	-15136
▁ܒܚܟܡܬ	-15137
▁ܒܢܝܚܐ	-15138
▁ܕܒܤܝܢ	-15139
▁ܕܚܤܝܢ	-15140
▁ܕܡܘܚܪ	-15141
▁ܕܫܡܥܗ	-15142
▁ܘܐܨܠܐ	-15143
▁ܘܒܤܝܢ	-15144
▁ܘܢܫܒܠ	-15145
▁ܚܪܝܦܐ	-15146
▁ܠܐܒܝܐ	-15147
▁ܠܘܥܕܐ	-15148
▁ܠܡܓܪܥ	-15149
▁ܡܢܤܘܢ	-15150
▁ܢܤܡܘܢ	-15151
▁ܦܛܡܘܤ	-15152
▁ܐܬܪܫܡܬ	-15153
▁ܒܐܢܢܩܤ	-15154
▁ܒܝܬܗܘܢ	-15155
▁ܒܠܥܕܝܢ	-15156
▁ܕܐܚܒܢܝ	-15157
▁ܕܚܢܝܩܐ	-15158
▁ܕܠܟܐܢܐ	-15159
▁ܕܢܕܒܪܗ	-15160
▁ܕܫܢܝܢܢ	-15161
▁ܘܐܫܝܓܬ	-15162
▁ܘܐܫܬܪܝ	-15163
▁ܘܕܘܡܤܐ	-15164
▁ܘܠܡܚܕܐ	-15165
▁ܡܒܝܐܝܢ	-15166
▁ܢܤܐܢܘܢ	-15167
▁ܤܦܝܩܝܢ	-15168
▁ܤܦܩܝܢܢ	-15169
▁ܫܬܐܤܬܗ	-15170
▁ܒܐܤܛܤܝܢ	-15171
▁ܒܚܘܬܚܬܐ	-15172
▁ܕܒܬܪܗܘܢ	-15173
▁ܕܙܩܝܦܝܢ	-15174
▁ܕܡܦܪܥܝܢ	-15175
▁ܕܢܬܪܕܘܢ	-15176
▁ܕܫܘܡܠܝܗ	-15177
▁ܕܬܠܒܫܘܢ	-15178
▁ܘܐܫܟܚܘܗ	-15179
▁ܘܐܬܦܪܫܘ	-15180
▁ܘܡܫܬܥܝܢ	-15181
▁ܘܡܬܒܢܝܢ	-15182
▁ܘܬܬܘܒܘܢ	-15183
▁ܘܬܬܡܗܘܢ	-15184
▁ܘܬܬܡܠܘܢ	-15185
▁ܚܛܝܬܗܘܢ	-15186
▁ܚܛܝܬܟܘܢ	-15187
▁ܚܝܠܬܢܝܐ	-15188
▁ܚܝܠܬܢܝܢ	-15189
▁ܚܠܝܡܘܬܐ	-15190
▁ܚܤܝܢܝܢܢ	-15191
▁ܛܘܗܡܗܘܢ	-15192
▁ܝܗܘܕܝܬܐ	-15193
▁ܝܘܟܢܬܘܤ	-15194
▁ܝܨܝܦܝܢܢ	-15195
▁ܝܩܝܪܐܝܬ	-15196
▁ܟܐܒܝܗܘܢ	-15197
▁ܟܘܪܗܢܝܢ	-15198
▁ܟܘܪܗܢܟܝ	-15199
ܒܘܥ	-15200
ܒܘܪ	-15201
ܘܚܟ	-15202
ܛܠܝ	-15203
ܝܩܘ	-15204
ܡܝܡ	-15205
ܢܫܢ	-15206
ܓܘܕܘ	-15207
ܗܕܝܐ	-15208
ܛܠܘܡ	-15209
ܛܠܩܘ	-15210
ܝܒܪܘ	-15211
ܝܘܪܐ	-15212
ܝܬܝܐ	-15213
▁ܚܝܘ	-15214
▁ܪܩܘ	-15215
ܗܝܟܠܢ	-15216
ܘܢܕܢܐ	-15217
ܛܠܝܩܐ	-15218
ܠܝܒܝܢ	-15219
ܤܪܕܘܢ	-15220
ܦܢܩܝܢ	-15221
▁ܐܝܤܪ	-15222
▁ܐܤܝܡ	-15223
▁ܒܐܤܪ	-15224
▁ܒܘܪܐ	-15225
▁ܕܓܡܪ	-15226
▁ܕܠܒܗ	-15227
▁ܕܥܡܪ	-15228
▁ܘܐܪܦ	-15229
▁ܘܒܒܪ	-15230
▁ܘܒܩܘ	-15231
▁ܘܕܢܫ	-15232
▁ܘܠܡܦ	-15233
▁ܘܤܐܢ	-15234
▁ܘܬܦܪ	-15235
▁ܛܒܝܢ	-15236
▁ܛܢܝܢ	-15237
▁ܠܒܬܐ	-15238
▁ܠܡܢܓ	-15239
▁ܡܘܪܐ	-15240
▁ܩܒܝܢ	-15241
▁ܪܘܩܗ	-15242
ܒܘܪܘܗܝ	-15243
ܕܡܝܟܘܢ	-15244
ܘܚܟܟܘܢ	-15245
ܛܘܐܝܩܘ	-15246
▁ܕܚܡܝܡ	-15247
▁ܕܡܥܒܕ	-15248
▁ܕܦܩܕܢ	-15249
▁ܕܬܛܝܒ	-15250
▁ܘܐܠܦܐ	-15251
▁ܘܢܦܠܛ	-15252
▁ܘܢܪܗܛ	-15253
▁ܘܫܒܝܢ	-15254
▁ܚܘܒܬܐ	-15255
▁ܠܛܒܥܐ	-15256
▁ܠܫܢܝܢ	-15257
▁ܡܗܠܠܐ	-15258
▁ܡܥܨܝܢ	-15259
▁ܢܦܪܘܫ	-15260
▁ܩܘܪܒܐ	-15261
▁ܬܛܠܘܡ	-15262
▁ܐܘܗܕܝܐ	-15263
▁ܐܘܩܝܢܐ	-15264
▁ܐܢܝܚܢܝ	-15265
▁ܒܕܝܘܬܐ	-15266
▁ܕܒܪܢܫܢ	-15267
▁ܕܡܫܡܫܢ	-15268
▁ܕܢܨܒܘܥ	-15269
▁ܕܤܝܒܪܘ	-15270
▁ܘܐܪܦܝܘ	-15271
▁ܘܓܝܘܪܐ	-15272
▁ܘܕܢܫܕܪ	-15273
▁ܘܕܫܡܝܐ	-15274
▁ܘܠܡܥܒܕ	-15275
▁ܘܤܓܘܕܘ	-15276
▁ܘܪܒܟܘܢ	-15277
▁ܠܦܬܟܪܐ	-15278
▁ܢܬܬܢܝܚ	-15279
▁ܪܨܝܦܬܐ	-15280
▁ܫܬܝܬܝܐ	-15281
▁ܐܝܛܠܝܩܐ	-15282
▁ܐܝܤܪܠܝܐ	-15283
▁ܕܤܢܝܩܝܢ	-15284
▁ܕܥܘܢܕܢܐ	-15285
▁ܕܨܠܝܒܝܢ	-15286
▁ܘܒܫܡܪܝܢ	-15287
▁ܘܕܘܢܘܗܝ	-15288
▁ܘܕܤܪܕܘܢ	-15289
▁ܘܚܐܪܘܬܐ	-15290
▁ܘܠܗܝܟܠܢ	-15291
▁ܘܠܡܦܝܕܐ	-15292
▁ܘܠܤܘܟܠܐ	-15293
▁ܘܬܦܪܩܘܢ	-15294
▁ܟܢܥܢܝܬܐ	-15295
▁ܟܪܝܗܘܗܝ	-15296
▁ܟܪܝܗܘܬܗ	-15297
▁ܟܬܒܝܗܘܢ	-15298
▁ܠܐܓܘܪܤܐ	-15299
ܛܝܗ	-15300
ܩܐܡ	-15301
ܩܒܘ	-15302
ܫܝܗ	-15303
ܕܘܬܗ	-15304
ܘܩܝܗ	-15305
ܘܬܪܘ	-15306
ܡܡܝܢ	-15307
▁ܒܢܥ	-15308
▁ܘܤܦ	-15309
▁ܘܬܢ	-15310
▁ܪܓܘ	-15311
ܒܘܫܝܗ	-15312
ܝܕܝܢܢ	-15313
ܝܕܝܬܐ	-15314
ܢܝܘܬܗ	-15315
▁ܐܘܟܡ	-15316
▁ܐܛܝܒ	-15317
▁ܒܡܠܝ	-15318
▁ܒܡܦܩ	-15319
▁ܒܤܕܐ	-15320
▁ܓܒܝܗ	-15321
▁ܕܕܢܗ	-15322
▁ܕܤܘܚ	-15323
▁ܗܘܬܐ	-15324
▁ܘܚܪܒ	-15325
▁ܘܠܒܠ	-15326
▁ܟܪܝܟ	-15327
▁ܦܨܢܝ	-15328
▁ܪܩܝܢ	-15329
ܒܝܫܘܬܐ	-15330
ܚܝܕܝܬܐ	-15331
▁ܐܒܕܝܢ	-15332
▁ܐܫܛܝܗ	-15333
▁ܒܘܩܝܗ	-15334
▁ܒܡܠܝܟ	-15335
[...]
