<pad>	0
</s>	0
<unk>	0
,	-2.97046
▁	-2.97904
▁a	-3.92637
.	-3.94423
i	-4.03774
a	-4.04883
m	-4.07542
o	-4.25957
r	-4.26469
u	-4.27742
v	-4.292
ž	-4.33554
e	-4.35798
▁v	-4.4397
s	-4.44967
á	-4.49964
t	-4.50769
d	-4.53962
▁s	-4.54905
ch	-4.56112
l	-4.57697
k	-4.71788
▁z	-4.77977
h	-4.8165
▁se	-4.82374
z	-4.87783
b	-4.88883
▁na	-4.90348
š	-4.91892
▁k	-4.92186
í	-4.92331
p	-4.93822
▁po	-4.94243
ní	-4.96325
li	-4.97034
ě	-4.98983
▁A	-4.99086
▁ne	-4.99646
st	-5.03443
te	-5.05461
y	-5.09426
j	-5.13506
ti	-5.1387
ni	-5.2355
:	-5.23643
le	-5.26789
la	-5.33552
▁o	-5.34238
n	-5.40316
▁m	-5.43696
▁Hospodin	-5.45152
to	-5.4532
ně	-5.45736
ů	-5.46972
▁u	-5.50942
ho	-5.52023
ou	-5.53298
ce	-5.56502
ý	-5.56872
lo	-5.57454
▁do	-5.5821
▁vy	-5.63508
ře	-5.64573
ť	-5.64943
il	-5.66207
▁jest	-5.66771
ra	-5.69339
▁jeho	-5.69356
▁za	-5.69518
▁i	-5.70397
na	-5.72812
▁při	-5.72884
é	-5.7374
;	-5.73831
▁od	-5.76629
▁p	-5.78042
▁d	-5.79733
▁I	-5.80826
še	-5.8125
č	-5.84132
no	-5.84792
▁že	-5.86128
▁pak	-5.8834
c	-5.89885
či	-5.90144
em	-5.94418
al	-5.96345
vá	-5.96356
▁to	-5.98744
▁aby	-6.00149
mu	-6.011
▁by	-6.01592
▁S	-6.03041
ná	-6.06238
ří	-6.06808
ne	-6.07017
▁bude	-6.07202
▁jsem	-6.14082
že	-6.14423
ko	-6.15225
▁řekl	-6.20606
?	-6.2286
me	-6.23332
▁b	-6.24363
▁své	-6.25112
▁byl	-6.26623
▁pro	-6.26701
dě	-6.27652
ta	-6.27671
ovi	-6.2822
ci	-6.29399
▁h	-6.29632
ze	-6.30545
ku	-6.31337
po	-6.31718
▁král	-6.32605
mi	-6.3287
né	-6.3351
če	-6.35059
▁ji	-6.35244
cí	-6.37088
dí	-6.37863
▁je	-6.38021
ské	-6.38024
▁před	-6.38029
ší	-6.39051
▁ho	-6.4012
ný	-6.40303
od	-6.41815
▁M	-6.42167
▁tak	-6.42206
ka	-6.42848
ky	-6.45982
en	-6.46388
an	-6.46658
▁V	-6.46918
da	-6.47007
on	-6.47459
▁jako	-6.47791
ví	-6.48079
▁J	-6.48454
▁T	-6.48634
▁syn	-6.50207
lá	-6.50407
ud	-6.53719
de	-6.53748
ova	-6.54175
▁když	-6.54758
mo	-6.54869
ma	-6.55086
ři	-6.55155
ř	-6.55231
ého	-6.5528
▁jejich	-6.55419
▁roz	-6.56178
je	-6.57397
▁P	-6.57933
ové	-6.5807
ob	-6.5854
ru	-6.58789
tě	-6.59991
▁ob	-6.6021
va	-6.6039
tí	-6.61145
▁ve	-6.62324
at	-6.6253
▁nebo	-6.63422
nu	-6.64173
lé	-6.64426
▁kterýž	-6.64732
lí	-6.65568
lu	-6.66
▁kteříž	-6.66511
f	-6.67151
ve	-6.68074
za	-6.71206
▁O	-6.72029
▁Z	-6.72341
▁tě	-6.72906
ej	-6.73784
ím	-6.74715
▁mu	-6.75459
▁jsou	-6.75609
▁Nebo	-6.78733
▁mne	-6.79611
oval	-6.81309
▁svého	-6.81367
ský	-6.81878
ili	-6.82135
ny	-6.82358
▁lid	-6.82938
ají	-6.83284
nou	-6.83757
el	-6.84108
ly	-6.85027
▁Ne	-6.85885
di	-6.86397
▁toho	-6.8724
jí	-6.87344
ád	-6.87548
▁Izrael	-6.88158
ům	-6.90036
ost	-6.90236
ali	-6.92008
br	-6.92548
▁ten	-6.93394
▁D	-6.93874
ých	-6.94309
šel	-6.94636
▁tvé	-6.94895
N	-6.95111
iáš	-6.95468
▁já	-6.98093
▁ale	-6.98278
▁pře	-6.98311
▁jsi	-6.99371
prav	-6.99693
▁pr	-6.99816
▁Bůh	-6.99844
▁obět	-6.99902
▁jim	-7.00167
▁kteréž	-7.00394
▁země	-7.00898
▁proti	-7.01189
▁sta	-7.01712
▁E	-7.02452
by	-7.03622
stav	-7.03836
▁měst	-7.03866
ň	-7.04259
▁pod	-7.04542
▁jemu	-7.05167
▁vám	-7.05688
▁zemi	-7.06164
▁ty	-7.06901
▁mi	-7.07592
▁Jo	-7.08014
uje	-7.08509
ovo	-7.08592
dy	-7.09491
▁také	-7.09586
dá	-7.09696
ry	-7.09894
ného	-7.12178
sa	-7.12448
▁kdo	-7.12926
▁pří	-7.13714
▁Je	-7.13913
▁nad	-7.1417
▁tobě	-7.14452
▁budou	-7.14833
▁má	-7.15376
tá	-7.17268
▁praví	-7.17755
▁jej	-7.17989
▁vz	-7.18223
▁mé	-7.18749
▁Tedy	-7.1898
ští	-7.19026
▁pa	-7.19271
ení	-7.19549
▁pos	-7.21046
-	-7.22441
▁té	-7.22694
▁Po	-7.23997
vr	-7.24075
▁synů	-7.2475
▁něm	-7.25625
▁věc	-7.25769
nost	-7.26102
▁David	-7.26118
▁tr	-7.26169
▁svou	-7.27556
osti	-7.28076
▁byli	-7.2817
▁jedn	-7.28172
▁Ale	-7.28427
▁dne	-7.30113
▁domu	-7.30244
▁což	-7.3274
▁ro	-7.33693
▁svých	-7.33927
▁L	-7.35961
▁svým	-7.37041
ď	-7.37732
▁vás	-7.3793
val	-7.38632
▁všech	-7.40853
▁Boží	-7.41407
koli	-7.41427
▁Izraelský	-7.4149
▁sobě	-7.43845
▁jí	-7.43875
mluv	-7.44127
ův	-7.44362
▁jak	-7.44694
▁tu	-7.45154
▁Protož	-7.45766
čí	-7.45895
▁dá	-7.46147
▁R	-7.47085
▁Ježíš	-7.47292
ovati	-7.48401
ných	-7.49572
▁Boha	-7.50084
ují	-7.50368
mezi	-7.5142
▁bylo	-7.53485
▁dal	-7.53581
▁lidu	-7.53893
▁jste	-7.54258
▁Mojžíš	-7.55917
▁služebník	-7.57125
jde	-7.57324
▁Pro	-7.57343
▁Jeruzalém	-7.58349
▁všecky	-7.58349
▁můj	-7.58374
▁mluvil	-7.59794
▁těch	-7.5988
▁národ	-7.61856
ství	-7.62453
vedl	-7.62561
▁člověk	-7.6288
▁učinil	-7.63269
▁cest	-7.63297
▁bez	-7.63464
▁tedy	-7.63586
▁synové	-7.63699
ově	-7.63884
▁Tak	-7.64382
▁měl	-7.64936
▁nás	-7.64997
▁den	-7.65382
▁jeden	-7.66442
▁nich	-7.66752
▁ním	-7.67735
▁Egypt	-7.67898
▁všickni	-7.70088
▁kteráž	-7.70366
▁její	-7.72456
▁jsme	-7.72471
▁řka	-7.73352
▁Pán	-7.74035
skrze	-7.74631
▁srdce	-7.75639
▁Syn	-7.7566
▁všecko	-7.76519
▁nebe	-7.7782
▁sedm	-7.77829
▁soud	-7.78855
▁zajisté	-7.79973
▁čas	-7.80903
▁něho	-7.8111
)	-7.81668
▁nám	-7.82289
stup	-7.83119
▁tvůj	-7.84186
dlé	-7.85052
g	-7.86769
▁dva	-7.87809
▁co	-7.8912
▁tebe	-7.90272
▁budu	-7.91813
▁tvář	-7.92017
▁živ	-7.92106
▁nebude	-7.92317
▁tisíc	-7.94413
▁kterouž	-7.97096
▁tři	-7.97873
▁jméno	-7.98373
▁každý	-7.98557
▁více	-7.9986
▁boj	-8.00216
▁hřích	-8.00995
▁vol	-8.01014
▁moc	-8.02907
▁bratří	-8.03459
▁prorok	-8.03468
ská	-8.03487
▁prostřed	-8.03653
▁Když	-8.0443
▁však	-8.0463
ovy	-8.05392
▁dcer	-8.05951
▁nebyl	-8.06441
▁život	-8.0652
▁pokoj	-8.06585
▁pokolení	-8.07401
▁vaše	-8.07487
rátil	-8.08018
▁hlas	-8.08251
▁Bohu	-8.08818
ových	-8.0976
▁aneb	-8.10172
ložil	-8.11463
▁slou	-8.11865
▁protož	-8.12014
▁kněz	-8.12591
Ž	-8.12978
▁Kdo	-8.12981
▁nyní	-8.13753
▁jenž	-8.14517
▁každé	-8.14697
▁otce	-8.15865
ó	-8.16001
▁čtyř	-8.17325
▁svět	-8.17792
▁vaši	-8.19582
slyšel	-8.19645
▁modl	-8.19684
▁Saul	-8.22113
▁tebou	-8.22803
▁býti	-8.23054
dělal	-8.23841
▁poslal	-8.24107
▁stran	-8.24669
▁Potom	-8.24714
▁ruku	-8.24749
▁oltář	-8.25174
▁svůj	-8.25413
▁knížat	-8.25654
▁všelik	-8.25896
▁viděl	-8.25918
▁činil	-8.26425
▁všecken	-8.26623
▁meč	-8.26936
▁ještě	-8.27118
▁království	-8.27602
▁hlav	-8.2922
▁Jak	-8.29529
▁místo	-8.306
▁čeled	-8.32667
▁bratr	-8.32916
▁druhé	-8.35271
▁veliké	-8.35804
▁Jákob	-8.36069
▁nepravost	-8.39381
▁kněží	-8.39615
▁dobré	-8.39795
táhl	-8.40079
▁smrt	-8.41286
▁tvých	-8.41293
▁všecka	-8.4271
▁spravedliv	-8.42996
▁Kterýž	-8.44733
▁vojsk	-8.45319
▁buď	-8.45917
▁veliký	-8.47697
▁spravedlnost	-8.483
▁Zdaliž	-8.483
Š	-9.1686
!	-9.38204
P	-9.76129
[	-9.76726
1	-9.95946
x	-10.1015
3	-10.3816
2	-10.4659
A	-10.5072
4	-10.6073
J	-10.692
5	-10.9336
T	-11.1193
8	-11.1265
0	-11.17
9	-11.2631
6	-11.3131
M	-11.315
S	-11.4294
7	-11.4801
E	-11.8812
V	-12.0923
I	-12.0923
D	-12.5269
Z	-12.5269
O	-12.5269
R	-13.3104
L	-13.3104
#	-14.8593
Ď	-14.8594
Ú	-14.8595
]	-14.8596
Ó	-14.8597
Č	-14.8598
Ř	-14.8599
(	-14.86
U	-14.8601
F	-14.8602
G	-14.8603
C	-14.8604
ú	-14.8605
K	-14.8606
B	-14.8607
Ý	-14.8608
H	-14.8608
Í	-14.8608
