<pad>	0
</s>	0
<unk>	0
,	-2.86768
.	-3.30502
▁	-3.81639
▁ir	-3.83434
s	-4.04783
i	-4.52493
▁kad	-4.52881
o	-4.84176
▁su	-5.02595
▁Europos	-5.13675
e	-5.16186
▁į	-5.19796
ti	-5.23349
ų	-5.33932
a	-5.37629
▁dėl	-5.39434
▁iš	-5.41339
ą	-5.42262
▁yra	-5.42795
▁ne	-5.46422
▁-	-5.50845
k	-5.61637
u	-5.6259
as	-5.64136
os	-5.64964
▁tai	-5.66778
t	-5.69165
us	-5.73631
▁pat	-5.79139
▁pa	-5.80019
ės	-5.82307
is	-5.83236
ai	-5.86209
▁(	-5.88253
)	-5.88876
ė	-5.92323
me	-5.98528
ta	-6.00106
m	-6.0114
ę	-6.02203
▁kaip	-6.02824
▁taip	-6.0556
r	-6.0561
į	-6.06644
ių	-6.06753
▁už	-6.07486
tų	-6.07878
š	-6.07945
g	-6.1011
▁būti	-6.12633
▁turi	-6.15241
▁ES	-6.17365
▁būtų	-6.21694
▁tik	-6.24089
ma	-6.26059
▁m	-6.28362
▁savo	-6.28979
in	-6.29947
▁to	-6.30934
▁labai	-6.31641
▁buvo	-6.31968
▁apie	-6.32284
n	-6.32881
p	-6.33057
y	-6.33064
to	-6.33829
imo	-6.35131
ra	-6.35991
▁per	-6.37122
l	-6.39573
al	-6.40201
▁nes	-6.41916
io	-6.43013
▁mūsų	-6.44739
▁o	-6.45686
es	-6.45843
d	-6.46481
te	-6.49231
si	-6.49452
▁Komisijos	-6.5
tas	-6.50852
au	-6.5401
b	-6.54628
▁ar	-6.54657
▁kai	-6.55069
▁pirmininke	-6.55093
nt	-6.55527
▁dar	-6.56602
▁nuo	-6.58895
▁bet	-6.61317
▁bus	-6.64773
▁gali	-6.65335
▁mes	-6.66195
mas	-6.67976
▁Tai	-6.69392
en	-6.69494
mi	-6.70352
iu	-6.70489
▁at	-6.70544
imas	-6.7122
ik	-6.74219
mo	-6.7534
imą	-6.75518
ž	-6.75643
▁reikia	-6.76008
▁S	-6.76234
▁"	-6.7803
iai	-6.78656
▁prie	-6.78984
ius	-6.79076
yti	-6.79371
▁jų	-6.80983
tą	-6.81656
▁k	-6.82082
ia	-6.8247
▁norėčiau	-6.8332
▁K	-6.83432
▁kurie	-6.83618
▁Sąjungos	-6.84411
ei	-6.84467
:	-6.84828
mos	-6.86766
▁Komisija	-6.88025
▁jau	-6.8887
ar	-6.89119
ka	-6.90773
▁po	-6.91303
▁turėtų	-6.92047
▁vis	-6.92154
oje	-6.92277
▁Parlamento	-6.92793
mą	-6.93988
▁Todėl	-6.95257
▁turime	-6.96242
mų	-6.96286
tos	-6.96498
▁jos	-6.96701
re	-6.98452
▁kurios	-6.98485
ir	-6.99562
▁d	-7.00129
▁prieš	-7.02119
▁darbo	-7.02204
ū	-7.02916
▁T	-7.03028
▁narių	-7.03467
▁A	-7.0359
v	-7.03602
▁šį	-7.04554
na	-7.0515
▁valstybių	-7.05321
?	-7.05796
▁daug	-7.05888
▁re	-7.06607
▁Tačiau	-7.07916
▁šiuo	-7.08443
omis	-7.09052
li	-7.09308
▁ap	-7.09476
▁kuri	-7.10084
tik	-7.10423
▁valstybės	-7.10626
▁ypač	-7.10737
▁M	-7.11197
tu	-7.11586
▁teisės	-7.11622
▁metu	-7.12168
▁J	-7.12505
ja	-7.13173
▁užtikrinti	-7.13964
▁tačiau	-7.14711
▁Pone	-7.14992
▁daugiau	-7.16763
▁šios	-7.16859
tar	-7.16867
"	-7.18048
ant	-7.18225
ais	-7.18441
▁mums	-7.19535
ro	-7.20126
ri	-7.20288
▁bei	-7.21621
▁pasi	-7.21716
▁B	-7.22313
la	-7.22847
z	-7.23625
im	-7.24043
▁kuris	-7.25067
tin	-7.25133
di	-7.25412
▁politikos	-7.25713
▁nėra	-7.25747
▁pri	-7.26173
do	-7.26209
iau	-7.27022
ek	-7.27249
▁siekiant	-7.27491
ko	-7.27631
▁Be	-7.27887
am	-7.28575
oms	-7.28747
an	-7.29666
▁G	-7.30742
inių	-7.31145
▁todėl	-7.31288
▁aš	-7.31339
ijos	-7.32623
▁mano	-7.33239
▁tam	-7.33377
ija	-7.33452
▁Vis	-7.3453
ne	-7.35014
▁teisių	-7.3526
;	-7.35457
▁Pa	-7.35987
▁be	-7.36067
sta	-7.36427
▁ji	-7.36661
▁šio	-7.3675
▁Taip	-7.37504
▁E	-7.38016
▁t	-7.38567
▁svarbu	-7.38953
ni	-7.39081
ėje	-7.39419
▁Gerb	-7.39679
-	-7.39845
▁nu	-7.4011
uoti	-7.40512
▁šalių	-7.40847
▁srityje	-7.40941
ųjų	-7.41444
j	-7.4151
f	-7.41592
▁manau	-7.41646
ys	-7.41651
▁iki	-7.41817
uo	-7.41914
ng	-7.42057
▁dabar	-7.42722
tai	-7.42775
▁tarp	-7.42914
▁visų	-7.43107
▁jie	-7.43285
er	-7.44088
ui	-7.44116
dami	-7.44151
kl	-7.44364
▁ši	-7.4465
▁arba	-7.45027
▁ekonomikos	-7.45122
ėme	-7.45771
▁proc	-7.4609
▁galima	-7.46173
▁Parlamentas	-7.46383
ose	-7.46538
vo	-7.46769
on	-7.46799
▁pagal	-7.47044
umo	-7.47072
il	-7.4798
▁Ne	-7.48117
▁jo	-7.48808
▁narės	-7.48874
ur	-7.48916
▁teis	-7.49105
joje	-7.49406
▁maž	-7.49917
yb	-7.50354
el	-7.5045
va	-7.51168
▁pateik	-7.51229
▁kurių	-7.51332
▁žmogaus	-7.51528
▁P	-7.52234
▁jis	-7.52299
▁metų	-7.52545
▁šių	-7.52713
vy	-7.52943
▁klausimas	-7.53301
▁ž	-7.53999
or	-7.5403
▁Tarybos	-7.54277
▁tiek	-7.54477
iam	-7.54625
▁priemonių	-7.54779
ėms	-7.54913
ymo	-7.55
▁bendradarbiavim	-7.55321
▁kas	-7.56052
▁ką	-7.56121
▁p	-7.56172
▁š	-7.56204
▁kurį	-7.56319
▁jei	-7.56758
id	-7.56826
▁žmonių	-7.56918
sti	-7.57132
▁V	-7.57686
▁visiškai	-7.58313
no	-7.58358
▁pasakyti	-7.58552
▁nepa	-7.58622
ojo	-7.58821
iz	-7.58965
▁pranešimą	-7.58979
▁Mes	-7.59298
iais	-7.59385
▁veiksmų	-7.59414
▁nei	-7.59418
▁Sąjunga	-7.5955
mis	-7.6011
gi	-7.60526
inės	-7.6061
▁būtina	-7.60844
0	-7.60913
▁šią	-7.6102
usi	-7.61397
c	-7.61542
sime	-7.62318
▁Manau	-7.62337
mus	-7.62877
oji	-7.63349
ty	-7.63674
▁de	-7.63798
▁galėtų	-7.64023
avimo	-7.64816
▁tuo	-7.65141
▁šis	-7.65591
je	-7.65637
min	-7.65913
le	-7.66167
ams	-7.66329
▁svarbi	-7.66486
h	-7.66502
ėmis	-7.66595
▁toliau	-7.66595
▁energijos	-7.66615
▁sk	-7.67166
▁politin	-7.67173
jo	-7.67254
▁raštu	-7.67349
ki	-7.67351
mai	-7.67555
▁šiandien	-7.67692
mu	-7.68384
ms	-7.68732
men	-7.68737
ing	-7.68861
pa	-7.68872
aus	-7.69366
▁pra	-7.69438
▁apsaugos	-7.69942
dama	-7.69989
▁C	-7.70549
tus	-7.70799
ina	-7.70936
ba	-7.71246
▁nors	-7.71612
▁žemės	-7.71667
lo	-7.71686
▁b	-7.71714
▁kartu	-7.71967
jų	-7.72234
ak	-7.72258
iškai	-7.72329
▁rinkos	-7.72358
ėjo	-7.72507
inti	-7.72607
▁atsi	-7.72776
ymas	-7.72953
▁D	-7.73447
umą	-7.73652
▁ga	-7.7385
▁pas	-7.73855
ru	-7.73946
▁man	-7.74051
▁pirma	-7.74265
P	-7.74273
▁vert	-7.74286
▁Ši	-7.74892
ju	-7.75012
▁st	-7.75126
da	-7.75355
▁vien	-7.75478
▁atveju	-7.75693
osios	-7.75932
▁klausimu	-7.76545
imu	-7.76551
veik	-7.76622
nčių	-7.77123
▁Aš	-7.77214
▁prekybos	-7.77285
1	-7.7762
ymą	-7.77689
tume	-7.78357
ch	-7.78365
▁R	-7.78376
▁Norėčiau	-7.78659
S	-7.78707
▁Taryba	-7.79028
inio	-7.79085
▁mok	-7.79196
▁e	-7.79516
uose	-7.79928
▁klausimą	-7.80054
iams	-7.80508
iją	-7.80968
▁jog	-7.81845
▁bendr	-7.82113
ci	-7.8213
var	-7.82759
tra	-7.82853
▁L	-7.83706
▁Europoje	-7.83788
▁Dėl	-7.83935
▁ra	-7.83939
▁ponai	-7.83992
▁ko	-7.84209
▁laisv	-7.84382
▁N	-7.84487
▁jūsų	-7.84857
▁kuriuos	-7.85967
iems	-7.86119
▁atsak	-7.86347
ime	-7.86413
▁laiko	-7.86533
dė	-7.87243
iant	-7.87254
imų	-7.87857
▁kartą	-7.8798
yta	-7.88031
kel	-7.8804
nor	-7.88204
▁kurią	-7.88308
▁pro	-7.88315
▁Kaip	-7.88758
▁vardu	-7.88945
damas	-7.89322
2	-7.90079
A	-7.90139
ga	-7.90321
▁ak	-7.90353
▁dėmesį	-7.90677
imui	-7.9103
ži	-7.91062
▁Lisabonos	-7.91163
▁rink	-7.9123
▁kur	-7.91316
▁net	-7.91414
▁pvz	-7.91503
▁negali	-7.91762
aug	-7.91863
T	-7.92026
skai	-7.92111
at	-7.9226
E	-7.92269
▁klimato	-7.92449
▁pasiekti	-7.92812
▁svarbus	-7.92941
▁dėlto	-7.93029
▁nustat	-7.9316
▁2	-7.93449
oja	-7.93591
▁Ponia	-7.93604
▁mėn	-7.93614
▁kelia	-7.93641
ks	-7.93802
ėti	-7.94064
▁biudžeto	-7.94312
▁ūkio	-7.94324
▁kitų	-7.94391
▁pirm	-7.94438
▁padėkoti	-7.94912
▁reik	-7.95156
tis	-7.95246
▁piliečių	-7.95415
et	-7.95462
▁keli	-7.95555
dži	-7.95671
ūs	-7.95804
▁kiek	-7.95856
der	-7.95905
▁Ar	-7.96189
▁priimti	-7.96214
▁Šiuo	-7.96449
▁frakcijos	-7.96646
▁Pirmininke	-7.96789
ter	-7.96903
/	-7.97219
▁praš	-7.97476
čių	-7.97527
▁galimybę	-7.98268
▁bū	-7.98527
▁imtis	-7.98551
imus	-7.98567
▁laik	-7.98632
▁skirti	-7.98667
▁kon	-7.9885
▁g	-7.99089
▁priemones	-7.99244
ėja	-7.99337
▁tikrųjų	-7.9934
5	-7.99852
▁viena	-8.00075
▁F	-8.00111
▁ponios	-8.00204
čiau	-8.00404
▁labiau	-8.00475
▁patvirtin	-8.0052
uoja	-8.00608
ce	-8.00839
naud	-8.00927
uk	-8.01099
lin	-8.01287
vi	-8.01365
▁politiką	-8.01538
iame	-8.01881
imai	-8.02645
▁saugumo	-8.02729
▁visi	-8.0285
ve	-8.02967
▁įgyvendinti	-8.03234
▁privalo	-8.03275
sto	-8.0351
▁atžvilgiu	-8.03964
mon	-8.04119
▁H	-8.04284
ęs	-8.04466
vir	-8.04647
▁pranešime	-8.04888
▁finansų	-8.04971
▁pagrindin	-8.0505
▁ekonomin	-8.05144
▁prisi	-8.05169
▁pateikti	-8.05391
▁jeigu	-8.05956
▁atitinka	-8.05976
▁susi	-8.06153
▁darbą	-8.06307
▁in	-8.06393
▁transporto	-8.06435
ol	-8.06601
nų	-8.06755
▁aiškiai	-8.06828
▁sveikatos	-8.07097
cija	-8.08185
▁Iš	-8.08214
ger	-8.08475
▁politika	-8.08652
▁didel	-8.08731
▁čia	-8.0953
▁požiūriu	-8.09616
▁vidaus	-8.09965
▁padaryti	-8.09976
▁neturi	-8.1005
▁šioje	-8.1034
ome	-8.10373
ytų	-8.10629
▁krizės	-8.10747
▁nuomone	-8.11526
3	-8.11576
▁Su	-8.11632
čia	-8.1173
cijos	-8.11947
iama	-8.11965
9	-8.11987
DE	-8.12133
gal	-8.12361
▁na	-8.12696
▁dabartin	-8.12798
ame	-8.12946
umas	-8.13109
ul	-8.13128
▁teisin	-8.13201
▁gal	-8.13364
un	-8.13394
▁sukurti	-8.13532
▁padėti	-8.13702
▁priemonės	-8.13865
▁galime	-8.13901
ov	-8.14384
▁Europa	-8.14643
▁šiuos	-8.14754
▁tokia	-8.14872
▁sistemos	-8.14906
▁tikrai	-8.15214
vie	-8.15478
▁siekiama	-8.15657
▁šie	-8.15797
▁du	-8.15808
▁vienas	-8.15902
▁reiškia	-8.16029
nčios	-8.16661
du	-8.16919
▁maisto	-8.16967
oti	-8.17097
▁sistema	-8.17299
▁visiems	-8.17331
▁nustatyti	-8.1748
▁turėtume	-8.17937
ab	-8.17945
▁jūs	-8.18027
▁narys	-8.18108
I	-8.18146
▁pasiek	-8.18682
tor	-8.18753
▁pasaulio	-8.18768
▁jums	-8.18995
tį	-8.19246
▁Sąjungoje	-8.19377
▁kar	-8.19549
ran	-8.19847
▁didesn	-8.19857
kur	-8.1998
▁finansin	-8.20261
▁socialin	-8.20308
su	-8.20421
▁pabrėžti	-8.2045
▁komiteto	-8.20484
yst	-8.20513
▁ta	-8.20678
esn	-8.2121
▁šiame	-8.21391
nti	-8.21428
ig	-8.21538
▁var	-8.21603
avo	-8.21662
▁pak	-8.2167
▁nariai	-8.21714
▁I	-8.22234
▁par	-8.22477
tinka	-8.22976
▁suteik	-8.23132
ali	-8.23241
▁užtikrin	-8.23429
či	-8.23486
gr	-8.23524
ems	-8.23587
C	-8.2361
▁gamin	-8.23838
ymu	-8.24245
ža	-8.24293
▁juos	-8.2446
inimo	-8.247
▁institucijos	-8.24724
▁kuriuo	-8.24803
▁klausimus	-8.2493
▁Dabar	-8.25019
iniai	-8.25565
rin	-8.25687
▁Re	-8.25713
for	-8.25831
▁jį	-8.25847
▁tr	-8.26166
▁partner	-8.26302
▁li	-8.26389
▁O	-8.26678
dav	-8.26959
▁šalyse	-8.27095
jimo	-8.27557
▁naujo	-8.28064
B	-8.28206
dar	-8.28328
4	-8.28329
▁galimyb	-8.28347
▁kurioje	-8.28447
N	-8.28452
ntis	-8.28591
eig	-8.28798
▁kurias	-8.28862
ad	-8.28906
▁padėtį	-8.28958
eiti	-8.29074
▁kurio	-8.29376
▁Taigi	-8.29593
▁teises	-8.29598
▁atsižvelgiant	-8.29642
▁valstybėse	-8.29667
acija	-8.29713
▁Mano	-8.29825
▁šalies	-8.29827
oli	-8.29869
staty	-8.29997
▁įskaitant	-8.30138
▁Tarybai	-8.30202
▁nesu	-8.30228
▁institucijų	-8.30372
▁visuomenės	-8.30546
ner	-8.30715
▁lyg	-8.30983
▁žinoma	-8.31085
ip	-8.31086
▁žmonės	-8.31253
▁šalis	-8.31299
▁Parlamente	-8.31312
▁plėtros	-8.31569
inį	-8.3167
▁Turime	-8.31753
▁aplinkos	-8.31805
▁ant	-8.31831
▁vieš	-8.3185
▁sak	-8.3186
▁metus	-8.31915
▁v	-8.31957
▁spręsti	-8.32009
gu	-8.3212
▁sudar	-8.32623
pu	-8.32714
kti	-8.32817
▁įsi	-8.32947
▁šalys	-8.33077
▁te	-8.33317
ama	-8.33389
▁valstybėms	-8.33451
▁val	-8.33541
▁pareng	-8.33781
▁sistemą	-8.33786
6	-8.3398
darb	-8.34058
▁EUR	-8.34188
▁vėl	-8.34387
▁lygio	-8.34447
▁pasiūlymą	-8.34548
▁va	-8.3457
vil	-8.34636
▁vietos	-8.34637
kos	-8.34652
inis	-8.3482
▁stipr	-8.34979
▁jiems	-8.35018
▁visos	-8.35034
▁susijusi	-8.35287
▁atlik	-8.35292
▁ateityje	-8.35636
per	-8.35645
yje	-8.35647
dy	-8.35777
val	-8.3598
▁lygmeniu	-8.36399
▁problema	-8.36596
▁a	-8.36695
▁pasaulyje	-8.36814
▁Š	-8.37032
de	-8.37052
ag	-8.37104
▁pranešimo	-8.37238
▁nebuvo	-8.37357
iš	-8.37419
aud	-8.37433
imti	-8.37536
▁pirmiausia	-8.3771
▁valstyb	-8.37712
▁vadov	-8.37713
ry	-8.37949
▁atskir	-8.38038
▁suteikti	-8.38194
▁priežiūros	-8.3826
▁padar	-8.38296
▁teisę	-8.38696
▁moterų	-8.38874
▁nori	-8.39004
▁visa	-8.39039
▁dalis	-8.39062
K	-8.3908
▁min	-8.39092
▁ją	-8.39237
▁būtent	-8.39342
zi	-8.39439
▁metais	-8.39556
sp	-8.39657
forma	-8.39801
čiai	-8.39821
▁skatinti	-8.39956
▁Jei	-8.40226
▁tvirt	-8.40246
bal	-8.40623
R	-8.40765
▁įvairi	-8.40844
nas	-8.41237
ver	-8.41296
8	-8.41357
auti	-8.41375
bu	-8.41643
▁valdžios	-8.4176
▁vald	-8.41776
D	-8.41839
▁energetikos	-8.41956
▁vaidmenį	-8.42
▁Bendrijos	-8.42021
▁geresn	-8.42042
ink	-8.42059
▁tikslas	-8.42242
▁taisyklių	-8.42331
▁veiklos	-8.42375
ties	-8.42406
▁pranešimas	-8.42448
acijos	-8.42697
▁dvi	-8.42798
išku	-8.43004
▁sąlygas	-8.4305
liu	-8.43052
▁tar	-8.43061
ėjimo	-8.43079
▁3	-8.43194
ios	-8.43303
▁euro	-8.43325
▁kuriame	-8.43448
ku	-8.43512
lių	-8.43555
▁vyriausyb	-8.43557
▁treči	-8.43668
kin	-8.43828
dal	-8.43874
ting	-8.43903
▁Šis	-8.43961
ją	-8.44236
▁kuria	-8.44564
▁gerai	-8.44705
▁susitarimo	-8.44766
▁esu	-8.45033
▁noriu	-8.45041
▁nary	-8.45086
ke	-8.45094
▁baig	-8.4514
▁naujų	-8.45231
▁kuo	-8.45336
▁gr	-8.45364
lu	-8.45562
▁šia	-8.4561
lai	-8.45695
▁pritariu	-8.45809
nių	-8.45814
▁svarst	-8.46053
be	-8.46127
avimas	-8.46148
▁problemų	-8.46205
pie	-8.46219
M	-8.46255
▁sumažinti	-8.46465
čiu	-8.46504
ap	-8.4663
tės	-8.46761
".	-8.46978
▁pus	-8.47027
▁taikyti	-8.4704
▁pagalbos	-8.47055
O	-8.47156
tautin	-8.47312
▁narėms	-8.47415
▁mažiau	-8.47564
avimą	-8.47645
▁teks	-8.47647
▁vieną	-8.47872
▁paslaugų	-8.47887
▁išteklių	-8.4798
▁narėse	-8.48108
▁vyksta	-8.48117
▁piliečiams	-8.48353
V	-8.48378
▁pritar	-8.48422
cijų	-8.48453
▁šalims	-8.4861
▁mln	-8.4887
čio	-8.48905
rib	-8.49013
▁paramos	-8.49082
▁pasiūl	-8.49222
▁bendrą	-8.49223
▁aiški	-8.49252
▁produktų	-8.49361
▁darbuotojų	-8.49645
▁taik	-8.4967
jus	-8.498
▁vartotojų	-8.49929
din	-8.49962
ną	-8.50109
▁direktyvos	-8.5019
▁oro	-8.50475
log	-8.50837
▁pasaulin	-8.50858
inius	-8.51014
▁tiesų	-8.51185
▁paramą	-8.51341
▁aukšt	-8.51458
amb	-8.51481
inę	-8.51537
▁norime	-8.51555
ntys	-8.51714
inimas	-8.51759
omi	-8.51762
nai	-8.51838
ūk	-8.51923
▁lėšų	-8.51941
iek	-8.5224
▁pasak	-8.5229
sk	-8.52356
tri	-8.52562
▁stat	-8.52719
▁geriau	-8.52733
▁siek	-8.52864
▁įtraukti	-8.52997
▁2009	-8.53048
esni	-8.5321
iausi	-8.5325
▁pirminink	-8.53285
▁kuriais	-8.53376
▁aktų	-8.53526
op	-8.53581
ėtų	-8.53728
fi	-8.53857
▁mokesčių	-8.54638
▁le	-8.54703
gali	-8.54961
ingą	-8.55061
▁srityse	-8.5518
▁daryti	-8.55193
▁turėti	-8.55313
▁20	-8.55362
▁atlikti	-8.55528
▁kyla	-8.55664
▁Balsavau	-8.55687
▁gauti	-8.5569
▁klausimų	-8.55713
▁pl	-8.5572
inant	-8.55767
▁pradėti	-8.55796
nčius	-8.5581
▁poveikį	-8.55889
vien	-8.55889
▁dažnai	-8.55925
▁sprendimą	-8.55991
▁programa	-8.56008
▁palaik	-8.56119
▁atstov	-8.56127
ybės	-8.56266
pajėg	-8.56269
▁esmės	-8.5627
▁žino	-8.56301
dėti	-8.5632
▁pramonės	-8.56335
▁suteikia	-8.56373
▁visus	-8.56487
inimą	-8.56487
laid	-8.56504
ančių	-8.5651
▁kuriose	-8.56716
▁nacionalin	-8.5679
▁įtrauk	-8.56792
▁duomenų	-8.56824
▁veik	-8.57071
▁pramon	-8.57115
jai	-8.5747
nio	-8.57592
▁pagrindinių	-8.57599
7	-8.57661
▁gyventojų	-8.57675
▁veikia	-8.57784
▁Vien	-8.58056
▁1	-8.58077
▁bendro	-8.58237
ėm	-8.58424
tais	-8.58431
▁nar	-8.58546
ciją	-8.58708
▁jud	-8.5877
▁valdymo	-8.59069
▁reikalų	-8.59086
▁žmonėms	-8.59111
ima	-8.59187
▁19	-8.59194
▁Antra	-8.59242
▁visas	-8.59316
▁tyrimų	-8.59403
▁At	-8.59466
▁užsienio	-8.59475
ingo	-8.59597
▁nauja	-8.59604
jos	-8.59676
▁ge	-8.59689
▁siūl	-8.59702
▁JAV	-8.59867
▁esame	-8.59901
damos	-8.60026
▁naudojam	-8.60156
▁integr	-8.6016
▁turės	-8.60263
▁tiesiog	-8.60449
▁padėtis	-8.60595
▁vidutin	-8.6063
rą	-8.60667
▁sprendimo	-8.60738
▁balsavau	-8.60762
▁informacijos	-8.60788
kėl	-8.60801
▁strategijos	-8.60841
den	-8.6088
▁tokio	-8.61009
▁susitarimą	-8.61018
imams	-8.61135
ministr	-8.61197
▁siekti	-8.6122
▁Pra	-8.61418
▁La	-8.61477
amas	-8.6154
▁reikėtų	-8.61569
▁tinkamai	-8.61634
▁rū	-8.61845
▁tinkl	-8.61942
▁siekia	-8.62031
▁jūros	-8.62092
▁kodėl	-8.62196
▁veiks	-8.62222
▁balsu	-8.62313
lio	-8.62373
▁aišku	-8.62401
▁problemas	-8.62436
▁piliečiai	-8.6244
mui	-8.62528
▁įmonių	-8.62551
jame	-8.62779
▁svarbiausia	-8.62832
▁kalbė	-8.62851
▁gerb	-8.62984
▁kriz	-8.63025
▁pareišk	-8.63136
▁meto	-8.63142
▁nurod	-8.63167
bai	-8.63285
▁im	-8.63383
▁tikiuosi	-8.63414
laik	-8.63488
▁tikslų	-8.63524
▁priėm	-8.63598
kime	-8.63642
▁naują	-8.63667
▁sutarties	-8.6369
gy	-8.6374
▁rodo	-8.63945
▁visuomen	-8.64121
▁rinką	-8.6419
mais	-8.64208
▁gyv	-8.64413
▁skatin	-8.64511
up	-8.64527
▁atsižvelg	-8.64702
ac	-8.64764
▁demokratin	-8.64874
go	-8.64913
ąją	-8.65081
▁klausimais	-8.65156
▁dirba	-8.65219
▁Ko	-8.65244
L	-8.65326
▁sp	-8.65419
▁Parlamentui	-8.65574
žym	-8.65604
▁skatina	-8.65786
▁didžiul	-8.65909
nu	-8.65965
ny	-8.6602
▁privalome	-8.66056
▁vienod	-8.66089
nčio	-8.66253
▁šias	-8.66298
▁atkreipti	-8.66308
▁kovo	-8.66531
▁sunku	-8.66657
▁socialinės	-8.66676
ly	-8.66816
▁regiono	-8.6696
▁teik	-8.67121
▁Ma	-8.67316
▁Komisijai	-8.67352
▁praneš	-8.67443
▁grup	-8.67488
bi	-8.67707
▁skirtu	-8.67761
▁Kai	-8.67802
▁paskelb	-8.67851
ėjų	-8.67906
▁būsim	-8.67974
▁toks	-8.68121
siu	-8.68169
▁Tik	-8.68563
▁sprendimas	-8.68678
dalyv	-8.68683
F	-8.68734
▁vietų	-8.68886
it	-8.68995
vers	-8.69153
▁y	-8.69164
▁reikalauja	-8.69222
ge	-8.6924
▁užsi	-8.6944
▁kita	-8.69542
▁remia	-8.69543
▁2008	-8.69651
▁komp	-8.69861
▁papild	-8.69863
už	-8.70099
▁Galiausiai	-8.70117
po	-8.70179
▁jai	-8.70316
jimas	-8.7046
▁dėmesio	-8.70495
▁dirbti	-8.70549
bank	-8.7071
20	-8.7091
▁priklauso	-8.71106
▁šiam	-8.71143
ėjimą	-8.71269
▁Man	-8.71426
ingų	-8.71428
▁galėtume	-8.71432
▁sudaro	-8.71481
▁visą	-8.71496
▁ketina	-8.71554
man	-8.71657
▁įsipareigo	-8.71755
od	-8.71803
mės	-8.71904
▁vaikų	-8.72018
▁šalyje	-8.7211
ingai	-8.7218
▁nebus	-8.7228
land	-8.72459
▁diskusijos	-8.72459
▁se	-8.72544
kalb	-8.72558
▁la	-8.72581
naudoja	-8.72587
▁kuriomis	-8.72589
▁pinigų	-8.72733
▁sektoriaus	-8.72972
▁pasinaudoti	-8.73032
▁leidžia	-8.73118
▁pasirink	-8.73125
▁šiol	-8.73188
▁problemos	-8.73271
FR	-8.73283
▁Mūsų	-8.73392
▁nusi	-8.73445
▁dalies	-8.73512
▁teigia	-8.73606
▁mat	-8.73717
▁teisė	-8.73864
ybos	-8.73888
▁susiję	-8.74054
▁kal	-8.74056
▁nuolat	-8.74335
▁f	-8.74365
lig	-8.74473
▁Ir	-8.74604
▁visada	-8.74634
▁rinka	-8.7471
▁dauguma	-8.74713
▁Pri	-8.7483
▁susijusių	-8.74897
dėjo	-8.74954
▁4	-8.74976
▁atlieka	-8.75012
▁kito	-8.75016
▁ilgalaik	-8.75023
▁išsi	-8.75033
daug	-8.75118
▁susitik	-8.75175
▁apsauga	-8.75389
▁nepriklauso	-8.75401
▁tokių	-8.75432
nčią	-8.75484
yk	-8.75579
▁abejo	-8.75632
▁regionin	-8.75641
tvar	-8.75678
▁būdu	-8.75711
▁Ž	-8.75826
▁geriausi	-8.75906
▁sen	-8.75919
ment	-8.76027
▁kol	-8.76052
ąjį	-8.76196
▁dr	-8.76313
▁Per	-8.76321
dur	-8.76344
▁programos	-8.76382
▁Mums	-8.76436
▁itin	-8.76457
ėjimas	-8.76643
dien	-8.7669
▁sprendimus	-8.76735
",	-8.76753
pre	-8.7681
▁Labai	-8.77045
šal	-8.77157
PL	-8.77253
ilg	-8.77322
▁iniciatyva	-8.77338
ami	-8.77421
▁greičiau	-8.77429
▁tokios	-8.77549
▁gyvena	-8.77604
▁susitarimas	-8.77737
▁8	-8.77742
par	-8.77757
▁apibrėž	-8.77804
sumažin	-8.77856
▁galimybes	-8.77921
▁veikti	-8.77962
▁parod	-8.78103
ES	-8.78215
▁direktyva	-8.78243
trūk	-8.78289
▁demokratijos	-8.78402
▁rezoliucijos	-8.78432
▁nelaim	-8.78486
▁kokia	-8.785
▁sunki	-8.78555
▁frakcija	-8.78624
▁kiekviena	-8.7863
▁įmanoma	-8.78752
▁žingsnis	-8.7878
▁pastangas	-8.78812
▁saugos	-8.7887
▁susiduria	-8.79067
▁Šiandien	-8.79129
▁naudinga	-8.79303
dą	-8.79328
▁tikslus	-8.79368
▁bendra	-8.79851
ieji	-8.7986
▁5	-8.79937
▁kovos	-8.80011
antis	-8.80132
▁anksčiau	-8.80278
▁pritaria	-8.80289
▁tyr	-8.80368
▁strategija	-8.80375
▁susitar	-8.80439
lie	-8.80482
ic	-8.80514
▁grėsm	-8.80745
▁keletą	-8.80826
liai	-8.80841
▁laikytis	-8.80863
▁tada	-8.81006
▁Tarp	-8.81021
▁negalime	-8.81092
iška	-8.81113
nčias	-8.8139
▁jas	-8.81411
port	-8.81441
▁EP	-8.81483
▁Vadov	-8.81506
▁gyven	-8.8151
▁kaitos	-8.81615
▁apsaugoti	-8.81746
▁band	-8.81892
eng	-8.81995
▁Toki	-8.82001
jimu	-8.82031
▁teigiama	-8.82147
tinės	-8.82148
▁kovoti	-8.82155
▁veikla	-8.82216
▁krizę	-8.82286
▁finansinių	-8.82368
jama	-8.8245
▁10	-8.82475
ven	-8.82615
▁veiklą	-8.82619
▁pažeid	-8.82686
▁Jeigu	-8.8269
uota	-8.82731
▁nare	-8.82757
▁tvarkos	-8.82813
▁Nors	-8.82888
▁tokiu	-8.8334
▁remti	-8.83457
▁sava	-8.83464
▁kadangi	-8.83612
vin	-8.83695
▁paprast	-8.83704
▁fondo	-8.83742
▁didžiausi	-8.83834
ino	-8.83836
▁finansavimo	-8.83971
▁dešimt	-8.83978
lų	-8.83993
stan	-8.84204
▁žinome	-8.8427
▁vyriausybės	-8.84359
▁padėties	-8.84382
usios	-8.84433
▁kelią	-8.84561
▁vertina	-8.84623
▁Dar	-8.84634
▁problemą	-8.84644
▁klausimai	-8.84717
lauk	-8.84729
▁2010	-8.84775
G	-8.84982
▁išspręsti	-8.84986
▁pripažin	-8.85019
00	-8.85026
▁sprendimų	-8.85048
▁link	-8.85131
▁naujas	-8.8532
vai	-8.85363
▁didin	-8.8542
yv	-8.85451
▁kontrolės	-8.85597
▁įrod	-8.85619
▁griež	-8.85622
gyvendin	-8.85671
▁bendros	-8.85724
aciją	-8.85772
IT	-8.85792
lieka	-8.85828
▁susitarimu	-8.8589
▁ten	-8.85895
▁vykdo	-8.85991
▁kitos	-8.85994
ans	-8.86058
jau	-8.86064
▁ties	-8.86123
rė	-8.86152
▁Bendr	-8.86243
ies	-8.86244
▁apima	-8.86261
tojai	-8.86267
▁Po	-8.86376
▁visai	-8.864
▁galimybės	-8.86492
▁laikas	-8.86496
jam	-8.86548
▁derybų	-8.86575
▁koleg	-8.8658
▁galimybių	-8.86617
▁mokslinių	-8.86648
▁7	-8.86696
▁apsi	-8.86814
▁gyvenimo	-8.86863
▁neat	-8.86937
▁Rusijos	-8.86952
▁2007	-8.8727
ved	-8.87384
aiški	-8.87421
▁pagalbą	-8.87471
▁taisykles	-8.87608
▁Jungtin	-8.87626
▁sėkm	-8.87628
▁vaik	-8.87633
▁klausimo	-8.87701
▁kalbėti	-8.87823
▁susijęs	-8.879
▁padidinti	-8.88082
išką	-8.88168
vad	-8.88319
▁dujų	-8.8836
▁pasiūlymas	-8.8854
viz	-8.88571
▁priežasčių	-8.88579
▁vykdyti	-8.88584
▁strategiją	-8.88614
vok	-8.88645
▁blog	-8.89034
asis	-8.89042
▁praėjus	-8.89095
▁bendruomen	-8.89174
▁panaikin	-8.89268
▁gamybos	-8.89455
▁san	-8.8965
▁padės	-8.89695
▁įgyvendinimo	-8.89738
▁Kon	-8.898
▁vertus	-8.89974
▁nepasi	-8.90012
▁Teis	-8.90079
vus	-8.90136
▁Sąjungai	-8.90278
tę	-8.90292
▁rinkoje	-8.9035
▁beveik	-8.90362
▁dalį	-8.90386
▁pone	-8.90586
▁Afrikos	-8.90588
▁vykd	-8.906
▁reng	-8.90694
prek	-8.90874
▁rezoliuciją	-8.90909
▁Li	-8.91023
kš	-8.91026
▁galutin	-8.91057
▁kūr	-8.91163
uoju	-8.91192
▁institucija	-8.91303
▁parengti	-8.91628
▁pakeisti	-8.91792
▁daro	-8.91855
ybę	-8.91922
▁vystymosi	-8.92023
▁Europą	-8.92095
nga	-8.92135
▁neturėtų	-8.92141
▁sanglaudos	-8.92239
▁elektr	-8.92266
▁laikotarpiu	-8.92312
region	-8.92324
▁esmin	-8.92376
▁Žinoma	-8.92457
bū	-8.92481
▁atsižvelgti	-8.92574
zo	-8.92577
▁teikti	-8.92637
▁kalba	-8.92853
▁sektoriuje	-8.93112
▁rasti	-8.93211
▁organ	-8.9338
teisin	-8.9338
▁stebė	-8.93387
▁Komisiją	-8.93478
umu	-8.93512
lan	-8.93551
ėte	-8.93601
▁jokių	-8.93629
▁besivystanči	-8.93661
▁nebūtų	-8.93699
▁viso	-8.93713
▁regione	-8.93931
nusikalt	-8.94103
ąsias	-8.94128
ten	-8.94263
▁sek	-8.94295
vesti	-8.94373
žiau	-8.94379
▁apsaugą	-8.94398
yra	-8.94553
▁Jis	-8.94652
rb	-8.94662
▁erdv	-8.94732
▁teikia	-8.94757
tams	-8.94961
▁turėjo	-8.94996
▁informaciją	-8.95029
▁auto	-8.95168
pri	-8.95249
▁remiantis	-8.95251
▁leisti	-8.95255
▁pirmininkauja	-8.95359
▁regionų	-8.95413
spaud	-8.95452
▁tikslai	-8.95484
ines	-8.95845
▁000	-8.96004
plan	-8.96008
iškas	-8.96049
▁valstybes	-8.96077
▁dalyvauti	-8.96077
▁poveikio	-8.9619
▁Būtent	-8.96303
▁Tikiuosi	-8.96491
ves	-8.96581
▁pagerinti	-8.96612
jomis	-8.96619
▁išorės	-8.96724
▁laisvės	-8.96762
▁vadinam	-8.96766
▁įvertin	-8.96799
jant	-8.96821
▁Jūs	-8.96987
▁skyr	-8.97171
muose	-8.97349
kai	-8.97381
▁mokslin	-8.97398
▁Prieš	-8.97671
▁klaus	-8.97912
uv	-8.97927
vert	-8.97929
▁rezultatų	-8.97937
▁įmonės	-8.98172
▁dalykas	-8.98283
▁supaprastin	-8.98298
pl	-8.98336
az	-8.98351
tro	-8.98357
mobil	-8.98371
nčiai	-8.98385
▁augimo	-8.98409
▁sau	-8.98448
▁greitai	-8.9858
▁šalimis	-8.98784
tinių	-8.98817
▁ekonominės	-8.98926
▁pakankamai	-8.98929
▁da	-8.98937
ite	-8.98951
▁Ji	-8.98975
dor	-8.99028
▁įmonėms	-8.99055
▁įvairių	-8.99063
▁informacija	-8.99093
▁kuriems	-8.9916
kelia	-8.99229
▁protokolą	-8.99443
▁pasiūlymus	-8.99495
▁atrodo	-8.99549
▁neigia	-8.99559
žia	-8.99666
▁pasiūlymo	-8.99687
ūro	-8.99807
▁sudaryti	-8.99821
▁principu	-8.99872
▁Daug	-8.99893
pro	-9.00018
tojų	-9.00166
▁tapti	-9.00227
▁mlrd	-9.00263
▁sąlygomis	-9.00303
▁turiu	-9.00509
▁pasveikinti	-9.00656
▁trump	-9.00696
▁skiria	-9.00799
▁diskusijų	-9.00853
▁infrastruktūr	-9.00972
ud	-9.0099
▁diskusijas	-9.01059
▁kelių	-9.01206
▁kitą	-9.0127
▁procesą	-9.0153
uosius	-9.01533
▁tapo	-9.01581
▁meta	-9.0159
iausia	-9.01594
▁priemon	-9.01641
čius	-9.0175
▁tolesn	-9.01755
nes	-9.0177
▁virš	-9.01778
▁jam	-9.02034
usių	-9.02047
maž	-9.02098
▁nepaisant	-9.02205
▁juo	-9.02213
▁Kitas	-9.02221
ingas	-9.02363
▁galbūt	-9.02484
▁Pirma	-9.02532
del	-9.02702
▁naujos	-9.0272
▁strategin	-9.02725
žr	-9.02732
▁bent	-9.02819
▁Europai	-9.03043
▁sąlygos	-9.03215
▁mus	-9.03263
▁tiksli	-9.03663
▁pritarti	-9.03707
▁sritis	-9.03776
▁tarptautinės	-9.03817
inama	-9.04
nės	-9.04012
▁nustatyta	-9.04319
▁fa	-9.04367
▁technin	-9.04507
iniu	-9.04565
▁įsitikin	-9.04686
▁nuomonės	-9.04721
▁ūkinink	-9.04823
▁Deja	-9.04869
▁supranta	-9.0492
▁išlaidų	-9.04924
▁tvark	-9.05047
▁numatyta	-9.05101
▁pasiekta	-9.05164
▁verslo	-9.05251
kart	-9.05286
▁daugiausia	-9.05326
▁asmenų	-9.05414
▁technologi	-9.05451
▁nuomonę	-9.05503
leisti	-9.05514
▁džiaugiuosi	-9.0558
▁Kalbant	-9.0559
▁eksp	-9.05623
▁nebe	-9.05675
▁ci	-9.05677
nelyg	-9.05807
▁balsavimo	-9.06244
▁naudoti	-9.06246
pus	-9.06316
▁kokybės	-9.06331
▁derybos	-9.0637
▁trans	-9.06385
▁kr	-9.06387
▁padidin	-9.06463
ketin	-9.06477
▁perspektyv	-9.06577
▁užduot	-9.06583
▁200	-9.06611
▁pagrįsta	-9.06644
▁Jie	-9.06679
ob	-9.06691
dyti	-9.06769
▁Nor	-9.06948
▁9	-9.07004
iui	-9.07105
▁visuotin	-9.0711
▁politinių	-9.07225
▁kokio	-9.07266
▁veiksmai	-9.07315
pat	-9.07401
nos	-9.07439
▁kurti	-9.07446
▁švietimo	-9.07458
▁nutrauk	-9.07483
▁sie	-9.07572
▁diskutuo	-9.0767
ntiems	-9.07697
klaus	-9.07839
▁labiausiai	-9.07973
▁išsami	-9.0798
▁elg	-9.08027
▁rod	-9.08086
▁procedūra	-9.08263
▁patvirtinti	-9.08388
▁Rusija	-9.08392
▁rinkimų	-9.08472
▁esanči	-9.08678
▁pranešėja	-9.0875
▁skaičius	-9.08775
duoda	-9.08911
▁poziciją	-9.08945
▁esant	-9.08995
▁žem	-9.09022
▁pranešimu	-9.09047
▁daugyb	-9.091
▁aktus	-9.09104
▁išmetam	-9.0912
▁sutartis	-9.09142
inga	-9.09163
▁kalbant	-9.09183
▁Pagal	-9.09302
iškų	-9.09401
Darbo	-9.09459
žvelg	-9.0946
▁kitas	-9.09539
▁kaimo	-9.09568
▁skirta	-9.09661
konkreči	-9.09719
▁kapital	-9.09761
▁parama	-9.09779
sprend	-9.09798
▁nieko	-9.09841
▁programą	-9.09851
konflikt	-9.09873
▁komitetas	-9.0989
pas	-9.10074
▁antra	-9.10141
▁atnaujin	-9.10246
▁skirtas	-9.10383
▁užimtumo	-9.10453
▁6	-9.10481
▁svarbūs	-9.10758
▁atsisak	-9.10779
▁reali	-9.10925
▁svarbų	-9.10932
kite	-9.10964
▁konsul	-9.11022
▁turė	-9.11133
▁kaita	-9.11145
▁bausm	-9.11166
fer	-9.11196
▁investicijų	-9.11238
kų	-9.11364
nauj	-9.11376
dų	-9.1149
▁jame	-9.11545
▁balsuoti	-9.11555
rekomendaci	-9.11589
▁neseniai	-9.11635
▁šiais	-9.1169
EB	-9.11699
▁profesin	-9.11765
▁teig	-9.11782
esnis	-9.1182
tuo	-9.11951
▁vakar	-9.11996
▁laiką	-9.12036
▁tariant	-9.12073
ky	-9.12134
rand	-9.12144
Europos	-9.12156
▁skiriama	-9.12429
▁neabejotinai	-9.12516
and	-9.12518
▁stiprinti	-9.12567
nijos	-9.12574
▁įgyvendina	-9.1265
▁Di	-9.12702
▁naudos	-9.1275
▁galės	-9.12751
▁vertinu	-9.1279
tojams	-9.12802
▁dviejų	-9.12827
▁dirb	-9.12885
▁jus	-9.1291
▁galiausiai	-9.12961
▁Bal	-9.13038
▁pasiūlymu	-9.13139
▁proceso	-9.13279
▁Bet	-9.13439
▁reglamento	-9.13496
▁14	-9.13542
▁įvertinti	-9.13544
▁atvejais	-9.13586
parlament	-9.13694
▁mastu	-9.13706
▁Amerikos	-9.1372
▁paminėti	-9.13772
▁humanitarin	-9.13855
▁pareigas	-9.13865
pil	-9.13886
▁kitaip	-9.13898
▁darbotvark	-9.13963
▁pripažinti	-9.13983
tum	-9.14003
joms	-9.1404
kultūr	-9.14066
▁tikras	-9.14088
▁joms	-9.14159
▁vadovauja	-9.1422
▁darbu	-9.1429
ysime	-9.14313
▁sukūr	-9.14393
avimu	-9.14421
▁reguliavimo	-9.14441
▁leis	-9.14523
▁pažangą	-9.14622
iuose	-9.14622
▁teisinga	-9.14701
▁tenka	-9.14754
▁direktyvą	-9.14758
▁sutartį	-9.14879
ėjimu	-9.14906
▁technologijų	-9.14943
▁kreip	-9.15167
▁partijos	-9.15167
mer	-9.15205
▁kalbama	-9.15234
PT	-9.15271
▁projektu	-9.15303
▁pasiūlymų	-9.15303
migra	-9.15324
▁pažeidžiam	-9.1542
▁kaimyn	-9.15486
▁plėtra	-9.15553
▁De	-9.15595
▁padeda	-9.15668
▁persvarst	-9.15806
▁bi	-9.15829
▁saugumą	-9.15852
kan	-9.15985
gai	-9.16019
mams	-9.16027
▁pasisak	-9.16048
▁veiksmus	-9.16076
▁12	-9.16135
▁nepri	-9.16203
▁JT	-9.16219
▁sąlygų	-9.16225
▁taikymo	-9.16329
▁išvengti	-9.16364
▁turt	-9.1638
keičia	-9.16411
▁didži	-9.16422
▁ragina	-9.16448
minėt	-9.16492
▁Šios	-9.16527
▁suteikta	-9.16691
▁sav	-9.16709
▁vyks	-9.16728
▁pagrindu	-9.16797
▁taisyklės	-9.16823
ntį	-9.16919
▁Nuo	-9.16934
▁dalyvauja	-9.17051
▁partnerystės	-9.1719
uojant	-9.17421
dėl	-9.17421
▁šiai	-9.17488
ada	-9.17558
▁būdas	-9.17567
▁pabrėž	-9.17579
▁struktūrin	-9.17656
▁kl	-9.17671
▁Sąjungą	-9.17796
ėjai	-9.17809
▁politinės	-9.17868
gebė	-9.17879
▁Gali	-9.18134
▁derybas	-9.18358
▁politikai	-9.18363
▁naudotis	-9.18432
▁taigi	-9.18591
umui	-9.1892
▁socialinių	-9.18965
▁lengva	-9.18971
lis	-9.19086
▁tampa	-9.19095
▁žmones	-9.19113
▁kontrol	-9.19364
▁pamat	-9.19543
▁nares	-9.19658
▁pozicija	-9.19778
vis	-9.19785
▁įgyvendinant	-9.19943
▁tą	-9.19949
▁Turi	-9.19986
▁susijusios	-9.20001
iško	-9.20025
▁priemonėmis	-9.20064
▁negu	-9.20085
Europa	-9.20094
▁vartojimo	-9.20161
▁vartotojams	-9.20208
▁šalt	-9.20332
▁rytoj	-9.20375
kol	-9.2047
▁automobilių	-9.20544
▁pirmininko	-9.20586
▁žvejybos	-9.20607
▁išmok	-9.20634
▁Jungtinės	-9.20677
▁daugelis	-9.20787
▁jūrų	-9.20833
▁būtinyb	-9.20839
nd	-9.20925
priklausomyb	-9.20932
▁pačios	-9.20946
▁tarptautini	-9.20987
▁naudojimo	-9.21099
▁nariams	-9.212
▁dėkoju	-9.21267
džiu	-9.21872
▁matyti	-9.2189
▁atsakinga	-9.21998
▁svarsto	-9.22176
▁saugo	-9.222
▁dėmesys	-9.2224
▁pavyzdžiui	-9.22242
▁kolegos	-9.22303
uojama	-9.22323
▁požiūrį	-9.22387
▁organizacijos	-9.22394
ding	-9.22453
▁netgi	-9.22499
▁pažangos	-9.22583
▁naudo	-9.22583
▁kainų	-9.22613
▁svarbą	-9.22632
▁tikrą	-9.22672
▁pagrindinis	-9.22698
▁norint	-9.22705
▁kova	-9.2272
▁pilietin	-9.2273
▁vysty	-9.22747
esnės	-9.22812
▁prekyba	-9.22828
▁suprasti	-9.22897
ler	-9.2302
▁Nepaisant	-9.23074
▁ateities	-9.23173
▁suinteresuot	-9.23271
tyje	-9.23272
vel	-9.23291
▁tikrų	-9.23447
▁tokie	-9.23511
▁Airijos	-9.23569
lyg	-9.23591
avi	-9.23596
silpn	-9.23668
▁15	-9.23934
▁h	-9.23977
▁aukščiausiojo	-9.23985
▁nacionalinių	-9.23997
▁Rytų	-9.24048
uotų	-9.24154
▁gin	-9.24179
iškos	-9.242
▁grupės	-9.24292
▁Kinijos	-9.24316
▁investuot	-9.24364
▁panaikinti	-9.24429
▁pašalin	-9.24452
▁ekolog	-9.24513
▁prisijung	-9.2453
tui	-9.24628
▁požiūrio	-9.24664
▁Viduržemio	-9.24814
kon	-9.24828
▁U	-9.24879
rie	-9.24901
▁reikalavimus	-9.24964
▁savaitę	-9.24965
▁praeit	-9.25015
▁tęsti	-9.25035
▁didinti	-9.25051
▁kiekvieno	-9.25057
▁požiūris	-9.25066
▁prasm	-9.25101
▁sutelk	-9.25116
▁30	-9.25119
▁negalima	-9.25225
▁laiku	-9.25297
▁Kadangi	-9.25417
▁nenu	-9.25545
▁teisingumo	-9.2562
▁minėjo	-9.25781
▁pobūdžio	-9.25923
▁paremti	-9.26027
▁apribo	-9.26045
▁įvairov	-9.26228
▁susijusius	-9.26234
tumėte	-9.26247
▁vaidmuo	-9.2638
▁užtikrina	-9.26523
▁speciali	-9.26698
▁sektorių	-9.26737
▁kalbame	-9.26738
▁karto	-9.26846
▁paslaugas	-9.26942
▁laukia	-9.27011
RO	-9.27073
▁žvej	-9.27187
▁įveikti	-9.27314
▁finansinės	-9.27388
ėjus	-9.27426
▁steng	-9.27439
▁peln	-9.2752
▁taikoma	-9.27544
▁Šiaurės	-9.27662
▁pagrindas	-9.27768
▁procesas	-9.27769
vart	-9.27919
▁įsteig	-9.27972
▁tema	-9.28206
ydami	-9.2832
▁pagalba	-9.28365
▁sprendžia	-9.28372
▁dalykų	-9.28386
▁Al	-9.28397
▁keturi	-9.28596
▁darbas	-9.28635
▁gruodžio	-9.28699
▁veiksmingai	-9.28734
▁įtvirtin	-9.28803
▁priežasties	-9.28907
▁atkreip	-9.28949
▁patikrin	-9.28963
▁gauna	-9.28973
ydamas	-9.28992
▁demokratų	-9.29021
tojo	-9.29041
▁tūkst	-9.29179
▁Euro	-9.29185
▁pristat	-9.29198
▁sienų	-9.29261
▁esama	-9.29289
▁žuvininkystės	-9.29431
▁padarinių	-9.2965
▁nepakanka	-9.29691
▁viską	-9.29711
▁mirties	-9.29769
▁fondų	-9.29852
▁pateikiam	-9.29866
▁nusprend	-9.29875
▁išlaikyti	-9.29882
▁teisėkūros	-9.29957
▁nuolatin	-9.30023
tomis	-9.30079
▁iniciatyvos	-9.3012
▁galiu	-9.30132
tina	-9.30157
▁pranešėjas	-9.30159
▁bendrosios	-9.30297
▁rezoliucija	-9.30434
▁solidarumo	-9.30434
▁sričių	-9.30434
▁neap	-9.30475
▁išdėst	-9.30495
gen	-9.30505
▁atsakomybę	-9.30535
▁sudėtinga	-9.30593
▁50	-9.30711
sąžin	-9.30727
▁pastangų	-9.30806
ird	-9.30817
▁kiti	-9.30916
▁didelį	-9.30943
▁interesus	-9.31073
galv	-9.31141
balsavimas	-9.3118
▁Kar	-9.31239
▁Ties	-9.31337
▁Pritariu	-9.3134
ana	-9.3139
▁priežastis	-9.31393
▁tris	-9.31413
▁atvyk	-9.31469
▁nepritar	-9.31538
reikš	-9.31569
▁2020"	-9.31612
▁kuriam	-9.31664
▁Pirmiausia	-9.3167
gar	-9.31671
mano	-9.31709
▁žali	-9.31752
▁padaryta	-9.31777
▁sustiprinti	-9.32081
administracin	-9.32091
omuni	-9.32149
mokė	-9.3219
▁kalbėjo	-9.32192
uosi	-9.32235
▁sako	-9.32285
▁kelias	-9.32351
▁reikalinga	-9.32357
▁Pirmininko	-9.32486
▁išteklius	-9.32524
turi	-9.3262
▁baudžiam	-9.32632
▁sektorius	-9.32632
▁pačių	-9.32724
▁prieglobsčio	-9.32741
▁svarbiausi	-9.32771
atsarg	-9.328
▁lauk	-9.32831
▁27	-9.32926
vų	-9.32975
▁sakant	-9.33177
▁bendradarbiauti	-9.3318
▁patiria	-9.33256
▁Vakarų	-9.33329
▁Mar	-9.33381
▁informuot	-9.33449
pol	-9.33545
vanden	-9.33597
▁balsavo	-9.33668
▁žinia	-9.33841
izmo	-9.33856
▁pavojus	-9.33887
nčia	-9.33928
▁Jos	-9.33996
▁komitete	-9.34107
▁mir	-9.34361
reikšm	-9.34399
▁numat	-9.34419
▁paskutin	-9.3443
▁vėliau	-9.34489
▁aplinkai	-9.34548
▁standartus	-9.34548
▁konkurencijos	-9.34714
▁finans	-9.3481
deda	-9.34819
▁panaši	-9.34829
▁niekada	-9.34887
▁Turkijos	-9.34935
▁In	-9.34963
ančios	-9.34973
▁užtikrinta	-9.35006
▁laisvę	-9.35073
▁pakeitimų	-9.3527
▁eina	-9.35495
▁tvari	-9.35549
▁tokį	-9.35566
▁metin	-9.35668
▁palik	-9.35673
▁mokymo	-9.35687
▁gana	-9.35689
▁pasiūlymai	-9.35772
▁patirt	-9.35836
▁planą	-9.35843
▁autor	-9.35866
▁susirūpinimą	-9.35986
▁biurokrat	-9.36051
▁kultūros	-9.36063
▁deja	-9.36105
▁auga	-9.36113
▁biudžetą	-9.36116
▁aptarti	-9.36142
▁Atsižvelgiant	-9.36164
angl	-9.3626
▁jokios	-9.36267
▁palengvin	-9.36276
iški	-9.36298
▁pradėt	-9.36337
leidžia	-9.36456
J	-9.36495
▁Br	-9.36558
▁santykių	-9.36614
▁sistemų	-9.3668
▁prisidėti	-9.36799
▁karin	-9.3686
▁priimtas	-9.36898
▁užbaig	-9.36898
▁med	-9.36955
▁pirk	-9.36989
▁tvirtai	-9.37052
▁standartų	-9.37123
▁manome	-9.3715
▁gim	-9.37278
▁Šie	-9.37279
▁visose	-9.3731
▁palankiai	-9.37311
site	-9.37341
▁minima	-9.37398
▁2006	-9.37439
Pirminink	-9.37448
▁pateikta	-9.37452
▁pasiraš	-9.37515
▁teikiama	-9.37528
▁MV	-9.37663
▁palank	-9.37681
▁draug	-9.37705
▁Pietų	-9.37749
▁išlaidas	-9.37752
avimui	-9.37933
▁amžiaus	-9.38034
▁jauni	-9.38053
▁santykius	-9.38092
▁zonos	-9.3815
▁aptar	-9.38198
▁skaidrumo	-9.38206
▁siekdami	-9.38287
▁siūlom	-9.38392
č	-9.38408
Plojimai	-9.38493
▁siekdama	-9.38604
▁daugeliu	-9.38613
▁inter	-9.38648
▁tikri	-9.38662
▁taiko	-9.38724
▁priminti	-9.38727
ypating	-9.38819
ber	-9.38859
aktyv	-9.3896
▁puiki	-9.38964
▁bendras	-9.39054
▁Barroso	-9.3907
▁tikslą	-9.3907
▁interesų	-9.39071
▁susitikime	-9.39091
▁susitarimų	-9.39141
▁tiesiogiai	-9.39155
▁užtikrinant	-9.39219
▁kilmės	-9.39301
▁didelių	-9.39349
▁Kita	-9.394
▁socialinę	-9.39405
▁aktai	-9.39502
▁plačia	-9.39525
▁plėt	-9.39537
▁vizų	-9.3961
▁nuomon	-9.39642
▁institucijoms	-9.3965
▁ginč	-9.39791
▁galėsime	-9.39822
▁panaudoti	-9.3992
▁atvejų	-9.39999
▁tikru	-9.40086
▁viening	-9.40142
▁tie	-9.40234
▁romų	-9.40252
plat	-9.40298
▁reikalavimų	-9.40409
▁įtraukta	-9.40438
▁įsipareigojimų	-9.40467
▁ryt	-9.40613
žiūri	-9.40758
NL	-9.40823
▁atsinaujinanči	-9.40937
▁kv	-9.40994
▁didesnį	-9.41
▁Šiame	-9.41017
▁Reikia	-9.41056
savo	-9.4106
▁visame	-9.41061
▁pripažįsta	-9.41079
▁sal	-9.41118
▁skubiai	-9.41242
▁didelis	-9.4127
▁atsakyti	-9.41345
▁paragin	-9.41593
▁rimtai	-9.41694
▁Šengeno	-9.41706
▁anglies	-9.41706
▁daugelio	-9.41708
lav	-9.41739
▁parodyti	-9.41803
▁srities	-9.41825
▁pateiktas	-9.41836
pač	-9.41856
▁tiekimo	-9.41915
▁kitais	-9.41996
▁padėtų	-9.42008
▁kitose	-9.42062
▁globalizacijos	-9.42067
▁mažesn	-9.42085
▁projektą	-9.42182
▁atid	-9.42183
ich	-9.42186
▁atsakomybės	-9.42232
▁tinkamas	-9.42238
▁ankstesn	-9.42242
▁masto	-9.4228
▁lyder	-9.42303
liet	-9.42307
▁2011	-9.42361
▁efektyvi	-9.42361
▁atliekų	-9.42541
▁šeši	-9.42545
▁kalt	-9.42589
▁puikiai	-9.42783
▁Nauj	-9.42824
▁pastaruosius	-9.42901
▁kurioms	-9.42926
▁nerimą	-9.42927
▁tikra	-9.42931
▁nenori	-9.42983
▁teisingai	-9.43038
▁taikomos	-9.43148
sistem	-9.43165
▁lygiu	-9.43232
gan	-9.43289
▁įvykdyt	-9.4331
▁sustiprin	-9.43333
▁vykdoma	-9.43343
▁koordinuo	-9.43503
leis	-9.43729
▁analiz	-9.43745
▁moterys	-9.43745
▁pavyzdys	-9.43745
cijoje	-9.43856
▁integracijos	-9.43917
▁kitus	-9.44134
▁tikslu	-9.44152
▁žmonėmis	-9.4417
▁savi	-9.44229
▁Kalb	-9.44323
▁laikin	-9.44417
krit	-9.44424
▁planu	-9.44509
▁pirmininkas	-9.44519
▁teisinės	-9.44676
▁veiksminga	-9.4468
išspręs	-9.44708
▁Prancūzijos	-9.44719
▁rengiant	-9.44738
▁11	-9.44763
▁mažai	-9.44799
atlygin	-9.44963
▁pakeitimus	-9.44966
biudžet	-9.45022
▁pakeitimai	-9.45026
▁tinkamą	-9.45033
▁pavyko	-9.45211
▁įtakos	-9.45215
▁apsvarstyti	-9.45271
▁termin	-9.45278
▁sprendžiant	-9.4529
▁teisėms	-9.45318
▁ekonomiką	-9.45333
▁procedūros	-9.45395
▁lygį	-9.45509
▁tobul	-9.4554
▁rezultatai	-9.45641
▁Pagrindin	-9.45765
▁projekto	-9.45765
▁tiems	-9.45821
▁konkurencin	-9.45883
▁sutinku	-9.45952
▁apskritai	-9.46012
▁rizikos	-9.46012
▁akivaizdu	-9.46102
▁atsakomyb	-9.46111
ėjimų	-9.46124
▁nelegal	-9.46144
▁siūloma	-9.46515
▁skirtų	-9.46573
▁žinote	-9.46575
▁taikos	-9.46695
▁pieno	-9.467
▁dialogą	-9.46759
▁įsipareigojimus	-9.46759
▁rezultatus	-9.46821
▁dieną	-9.46841
▁krize	-9.46933
▁kuriai	-9.46995
▁didžiausia	-9.47046
▁nepriimtina	-9.47073
▁reikalingas	-9.47077
▁pasiūlyti	-9.47123
demokrat	-9.47148
▁didėja	-9.4717
▁nukreipt	-9.4726
▁koks	-9.47365
▁agentūros	-9.47385
▁neiš	-9.47528
▁2020	-9.47611
▁įtaką	-9.47637
U	-9.47645
teisė	-9.4772
▁gerbia	-9.47737
▁sprendimai	-9.47764
ženkl	-9.47831
▁visoms	-9.47863
vimo	-9.47894
▁Valstyb	-9.47952
▁atstovai	-9.47984
▁vienos	-9.47999
▁pozicijos	-9.48016
▁privači	-9.48093
milijon	-9.48132
trukd	-9.4818
▁tikslo	-9.48226
gre	-9.48294
▁ženg	-9.48325
▁balsavimą	-9.48396
▁palaikyti	-9.48425
ininkų	-9.48453
▁straipsnio	-9.48459
▁turėsime	-9.48506
▁diskusijose	-9.4853
▁Trečia	-9.4865
▁principo	-9.48777
krypt	-9.48855
▁Parlamentą	-9.48905
▁darbuotojams	-9.48969
▁aktyvi	-9.48972
▁CO	-9.49031
skyr	-9.49099
▁tikros	-9.49115
▁taps	-9.49151
▁Pasauli	-9.49289
▁sukurta	-9.49333
pir	-9.49334
▁pažanga	-9.49352
▁priemonė	-9.4941
▁vandens	-9.49461
▁Gr	-9.49507
▁gyvenimą	-9.49518
▁suderinti	-9.49546
▁patvirtino	-9.49808
▁nacionaliniu	-9.49911
▁susirūpin	-9.49941
ję	-9.50039
uomet	-9.50063
▁išnagrinė	-9.50124
▁Noriu	-9.50254
▁oficiali	-9.50288
▁lėšas	-9.50318
▁paprašyti	-9.50343
▁didelę	-9.50397
▁vietas	-9.50439
▁tyrimus	-9.50453
dešimt	-9.50574
▁aplinkybėmis	-9.50642
▁omenyje	-9.50643
▁tokią	-9.50713
▁nuostatas	-9.50722
▁taikomas	-9.50739
▁įsitikinęs	-9.5083
▁moteris	-9.50967
ėjau	-9.50971
▁kaina	-9.50988
nčioms	-9.51017
▁pačiu	-9.51031
▁Kinija	-9.51034
▁užkirsti	-9.51041
▁kam	-9.51048
▁atstovauja	-9.51107
▁sėkmingai	-9.51183
▁Visų	-9.5129
nuo	-9.51339
▁mane	-9.51395
▁greit	-9.51402
▁geras	-9.51424
▁svarbios	-9.51447
▁kuriuose	-9.51504
▁Vokietijos	-9.51555
▁nario	-9.51648
▁rinkų	-9.51717
▁ekonomikai	-9.51891
pirmininkaujanti	-9.51893
grįž	-9.51895
▁pareiškimai	-9.51899
▁derin	-9.51916
▁uždar	-9.5193
▁bio	-9.52014
▁tarptautinių	-9.52145
▁prieštarauja	-9.5215
▁viešųjų	-9.52216
▁vienu	-9.52217
momis	-9.52336
▁atidžiai	-9.52345
▁pareikšti	-9.52346
EL	-9.5238
▁iškelt	-9.52468
▁bu	-9.52552
▁skirtos	-9.52578
esnį	-9.52638
▁ateina	-9.52691
taut	-9.527
▁socialine	-9.5276
▁terorizmu	-9.52808
▁Ponios	-9.52809
▁kažk	-9.52877
▁mažinti	-9.5288
▁taikant	-9.52895
▁dvišal	-9.52923
kūr	-9.53058
funkci	-9.53145
bėg	-9.53227
▁principai	-9.53273
▁pagrindą	-9.53277
▁klas	-9.53302
▁gerokai	-9.53473
▁kandidat	-9.53473
▁penki	-9.53474
▁palaiko	-9.53673
▁konkrečių	-9.53757
H	-9.53773
▁pranešėjo	-9.53787
▁dvej	-9.53829
▁didelės	-9.53933
▁prekių	-9.53951
▁veng	-9.54038
▁reišk	-9.54077
▁jokio	-9.54106
sakyti	-9.54226
▁atvira	-9.54289
▁25	-9.54381
▁tarptautiniu	-9.544
band	-9.54454
▁patys	-9.54494
▁finansavimą	-9.54506
▁principų	-9.54547
▁projektas	-9.54547
▁pritaik	-9.54584
redit	-9.54639
▁skaičių	-9.54687
izmu	-9.54775
▁nuostatos	-9.54819
▁kartais	-9.54832
▁priėmimo	-9.54855
▁ribų	-9.54916
▁manymu	-9.54918
▁priversti	-9.5504
▁lemia	-9.5505
▁žodžiu	-9.5509
▁augimą	-9.5517
▁priekį	-9.55172
▁įstatymų	-9.55295
▁Tuo	-9.55309
▁išsaugoti	-9.55346
▁Praneš	-9.55387
▁raginu	-9.55429
▁rengia	-9.55484
vz	-9.55507
▁Nr	-9.55515
▁susidar	-9.55623
▁ekonomika	-9.55694
▁svarbiausių	-9.55705
▁besi	-9.55807
▁kalbos	-9.55835
▁pavojų	-9.55839
▁skurdo	-9.55975
▁Pranešime	-9.56085
▁nedelsiant	-9.56249
▁kainos	-9.56253
▁Taryboje	-9.56318
▁daroma	-9.5634
end	-9.56375
▁bendrai	-9.56443
inys	-9.56447
▁procedūrą	-9.56731
▁tikimės	-9.56742
▁plėtrą	-9.56754
▁skubi	-9.56792
▁jėga	-9.57077
▁pradeda	-9.5714
▁birželio	-9.57146
▁rūpi	-9.57201
▁kultūrin	-9.57222
▁paklausti	-9.57247
liū	-9.57356
▁kokių	-9.57499
▁straipsnis	-9.57562
▁taptų	-9.57634
▁pastat	-9.57718
▁nuostatų	-9.57774
▁lyčių	-9.57843
▁aspektus	-9.57965
▁mėnesius	-9.57982
▁nepaprastai	-9.57982
▁pranešimui	-9.58109
▁nuspręs	-9.5819
▁poreikius	-9.58401
▁13	-9.58417
organizaci	-9.585
▁daugelį	-9.58543
▁reikės	-9.58715
▁stabilumo	-9.58752
▁paskatin	-9.58785
▁vyriausybių	-9.58865
▁priemonę	-9.58898
▁Svarbu	-9.58964
▁Ch	-9.59136
▁kokiu	-9.59194
▁regis	-9.59268
uotos	-9.59286
▁Dėkoju	-9.59317
▁šeimos	-9.59318
▁Turkija	-9.59388
▁puikų	-9.59459
▁vež	-9.59504
▁lėšos	-9.59529
▁biudžetas	-9.59539
▁interneto	-9.59601
▁Jau	-9.59647
▁Audito	-9.59671
▁rezultatas	-9.59671
▁išreikšti	-9.59684
▁šalį	-9.59686
▁pavadin	-9.59716
▁ištekliai	-9.59743
▁augin	-9.59819
▁tuomet	-9.59847
▁socialinio	-9.59872
▁imigracijos	-9.59885
▁valstybėje	-9.59952
▁džiaug	-9.59961
▁stabili	-9.60034
▁Graikijos	-9.6017
▁nagrinėja	-9.6017
▁ponia	-9.60196
▁gera	-9.60227
▁aplinką	-9.60241
▁pakartoti	-9.60314
▁pradžių	-9.60314
▁abejonių	-9.60364
▁malonu	-9.60385
▁gyvūnų	-9.60385
▁reaguoti	-9.60456
▁abipus	-9.60465
▁diskusija	-9.60512
▁tarpvalstybin	-9.60534
▁taup	-9.60568
▁asmenin	-9.60607
▁kitu	-9.6073
▁principą	-9.60743
▁įprast	-9.60759
▁neįmanoma	-9.60959
vykus	-9.60963
ybe	-9.61085
▁sritį	-9.61103
▁gerą	-9.6111
▁stebėti	-9.61152
tenka	-9.61198
ininkai	-9.61212
▁projektų	-9.61247
▁naftos	-9.61319
▁laivų	-9.61609
▁gyn	-9.61627
▁pokyčių	-9.61753
▁valstybėmis	-9.61844
▁susitikimo	-9.61886
▁kartų	-9.62058
▁principas	-9.62117
▁pakanka	-9.62136
▁vienintel	-9.6217
▁žiniasklaidos	-9.6219
▁Tautų	-9.62194
▁pakeitimą	-9.62265
▁ilgai	-9.62368
▁18	-9.62622
▁įgyvendinimą	-9.62629
▁Vengrijos	-9.62701
▁aptaria	-9.6276
▁grąžin	-9.62994
▁Jungtini	-9.63043
▁plataus	-9.63069
▁pradėjo	-9.63178
▁išlaik	-9.63188
▁pabrėžiama	-9.63264
▁ateitį	-9.63289
▁naujus	-9.63301
▁susijusias	-9.63416
▁lygis	-9.63582
▁lygybės	-9.63658
▁sužino	-9.63666
davo	-9.63765
▁regionuose	-9.63807
▁nauji	-9.6381
▁rezoliucijoje	-9.6388
▁pagerin	-9.63923
▁aspektų	-9.63954
▁aktyviai	-9.63982
▁sunkumų	-9.64059
▁tvarka	-9.64178
▁kryptimi	-9.64325
liberal	-9.64383
▁šimt	-9.64453
garb	-9.64503
▁plėtoti	-9.64592
▁grupių	-9.64795
▁medžiagų	-9.65072
▁kriterijus	-9.65147
▁laikomasi	-9.65158
▁Italijos	-9.65222
krikščionių	-9.65282
▁Kad	-9.65363
krat	-9.65372
▁pareigūn	-9.65448
▁subsidi	-9.65523
▁vertinti	-9.65532
dėjus	-9.65557
▁paskir	-9.65564
▁keleivių	-9.65599
▁bendrovės	-9.656
▁nepamirš	-9.65749
▁PPE	-9.6575
▁gerinti	-9.65778
▁paaiškinti	-9.65901
ide	-9.65955
▁Būtina	-9.65976
SV	-9.66032
▁potencial	-9.66052
▁sausio	-9.66061
▁parem	-9.66194
ėjusi	-9.66278
▁pagaliau	-9.66316
▁konstituci	-9.66355
▁mažumų	-9.66434
▁eurų	-9.66586
▁viskas	-9.66708
▁pasmerk	-9.66814
▁Štai	-9.66957
▁kolega	-9.67019
▁plenarin	-9.67194
prieš	-9.67243
▁jung	-9.67256
▁pradžioje	-9.67271
▁mėnesių	-9.67273
▁pranešėjui	-9.67342
▁pavaduotoja	-9.67348
▁vartotojai	-9.67348
sąlyg	-9.67392
▁neturė	-9.67416
▁vertinimo	-9.67528
▁Už	-9.67608
▁naudojant	-9.67622
▁susilaik	-9.67673
reg	-9.67804
▁visuomenei	-9.67815
▁pagrindinės	-9.67848
▁reformos	-9.67887
▁paprasčiausiai	-9.67887
▁civilin	-9.68048
▁Negalim	-9.68138
▁procese	-9.68281
▁palyginti	-9.683
▁teršalų	-9.68505
▁saugi	-9.68528
▁Vyriausyb	-9.68583
▁Pirm	-9.68583
ėjams	-9.68584
▁buvusi	-9.68589
▁tinkamo	-9.68649
▁demokratija	-9.68896
▁priklaus	-9.68943
▁Pirmininkas	-9.68983
lankst	-9.68991
▁kovojant	-9.6901
▁terorist	-9.69128
▁dalimi	-9.69209
▁komitetu	-9.69284
▁laikotarpio	-9.69284
▁laikotarpį	-9.69284
▁konkrečiai	-9.69408
▁vienintelis	-9.69462
▁keisti	-9.69521
▁procesu	-9.69526
▁parodė	-9.69608
▁išsaugo	-9.69622
▁abejonės	-9.6963
▁prioritetu	-9.69833
▁produktai	-9.69833
▁skirtą	-9.69991
▁programų	-9.69998
▁Privalom	-9.70152
▁pajamų	-9.70155
taikyti	-9.70202
▁dalykus	-9.70227
▁įvyko	-9.70231
▁gyventojai	-9.70261
▁svarba	-9.70544
▁nacionalinės	-9.70628
▁reglamentą	-9.70782
▁tikėtis	-9.70805
▁ekonominę	-9.7085
▁ginti	-9.70929
▁tinkama	-9.71072
▁darbuotojai	-9.711
bar	-9.71123
▁platesn	-9.7113
▁ekonominių	-9.71135
▁ryž	-9.71269
▁draudimo	-9.71419
▁finansuoti	-9.7143
▁niek	-9.71496
▁aljans	-9.71499
▁duomenis	-9.71499
▁vyrų	-9.71659
▁sveikatai	-9.71739
▁narė	-9.71883
▁kitiems	-9.71941
▁galėjo	-9.71962
▁aspektas	-9.7198
▁Sutarties	-9.72141
▁vaikai	-9.72177
▁argument	-9.72221
▁pakeis	-9.72246
▁asmens	-9.72303
▁gyventojams	-9.72328
▁skelb	-9.72389
▁rimta	-9.72404
▁glaud	-9.72464
▁aspektai	-9.72544
▁kasdien	-9.72601
▁Diskusijos	-9.72705
▁reikalavimai	-9.72705
▁dienos	-9.72728
▁įtikin	-9.72948
▁bendrovių	-9.7295
▁organizuot	-9.72951
▁moterims	-9.7303
▁įgaliotin	-9.7303
▁Džiaugiuosi	-9.73111
▁teikiam	-9.73271
▁girdė	-9.73416
▁sektoriui	-9.73436
▁kitomis	-9.73497
▁europin	-9.73525
▁disk	-9.73538
▁pasakė	-9.73873
▁papraš	-9.74059
▁Lenkijos	-9.74173
▁tarnybos	-9.74173
ysiu	-9.74181
▁atsisakyti	-9.74196
▁pabaigos	-9.74262
▁vykdant	-9.74329
▁visapusiškai	-9.74337
skund	-9.74339
▁saugumu	-9.74343
damiesi	-9.74567
▁trūksta	-9.74589
▁smurto	-9.74667
▁didesnio	-9.74724
taisykl	-9.74828
▁vaidmens	-9.74832
▁pasitikėjimą	-9.74915
▁grindžiama	-9.74971
▁šaltinių	-9.75032
▁paklaus	-9.75058
▁sukuria	-9.75187
▁40	-9.75224
▁proga	-9.75245
▁laimė	-9.753
▁niekas	-9.75458
▁paskatinti	-9.75541
▁lapkričio	-9.75579
▁bankų	-9.75692
▁daugelyje	-9.75746
▁partija	-9.75756
iesiems	-9.75819
▁griežtai	-9.75819
▁Izraelio	-9.75913
▁prisideda	-9.75967
▁solidarumą	-9.75996
▁pabaigoje	-9.76067
HU	-9.76093
▁galiojanči	-9.76124
▁miškų	-9.76211
izmas	-9.76382
▁mažinimo	-9.765
▁išreišk	-9.76503
leido	-9.7666
▁ataskaita	-9.76668
▁organizacijų	-9.76669
▁išlaidos	-9.76843
▁naudojimą	-9.76921
▁režimo	-9.76925
praktin	-9.76954
▁tikrov	-9.77137
▁Siekiant	-9.77175
▁prieštara	-9.77316
▁susitarimai	-9.77357
▁stebi	-9.77432
▁Kodėl	-9.77462
liko	-9.77582
▁elektronin	-9.77621
van	-9.77832
▁gamyba	-9.77854
▁nuosekli	-9.77855
▁gegužės	-9.77939
▁demokratiją	-9.7794
▁dažn	-9.77992
▁branduolini	-9.78024
▁reglamentu	-9.78066
▁produktus	-9.7811
▁valstybnar	-9.78117
▁paketo	-9.78204
▁agentūrų	-9.78281
▁migracijos	-9.78282
izacijos	-9.78313
▁kokybę	-9.78323
▁patenkinti	-9.78366
▁Ashton	-9.78452
▁minėta	-9.78629
izavimo	-9.78702
▁aplinkosaugos	-9.7871
▁taikomi	-9.78734
▁žemyn	-9.78904
▁Prancūzija	-9.78968
▁diplomat	-9.78968
▁poreikį	-9.78968
▁žodžio	-9.79054
▁Tam	-9.79095
▁idėja	-9.79275
▁global	-9.79308
▁baz	-9.79347
▁agentūra	-9.794
▁vyko	-9.79589
▁Koki	-9.79656
▁biologin	-9.79663
▁iniciatyvą	-9.79665
pakeit	-9.79765
▁17	-9.79814
▁16	-9.79919
▁sustabdyti	-9.80028
▁fondas	-9.80094
▁rūšių	-9.80096
eji	-9.80097
▁darbotvarkės	-9.80148
▁modern	-9.80182
▁leistų	-9.80201
▁būdų	-9.80256
▁spalio	-9.80358
▁prekybą	-9.80444
▁padaryt	-9.80444
▁sutart	-9.80464
▁numatyti	-9.80547
riaus	-9.80642
▁pirmenyb	-9.80736
▁Respublikos	-9.80794
▁komercin	-9.80794
▁pakeitimas	-9.81061
▁vyn	-9.81093
▁nemažai	-9.81149
▁plano	-9.8119
▁ram	-9.81215
vyriausyb	-9.81267
▁artimiausi	-9.81322
▁neatsižvelg	-9.81322
▁organizacija	-9.8133
▁diena	-9.81332
▁vietoje	-9.8141
ėję	-9.81416
▁Teisingumo	-9.81587
▁teisėmis	-9.81598
▁Akivaizdu	-9.81675
▁savarankišk	-9.81764
▁Ger	-9.81861
▁kūrimo	-9.81942
▁rėm	-9.81994
▁sveiki	-9.82025
▁2013	-9.8203
▁trukm	-9.82038
▁Kit	-9.82137
egz	-9.82286
▁liaudies	-9.82297
▁skirtingų	-9.82299
▁dokumentu	-9.82386
▁žodžiai	-9.82386
▁Baigdama	-9.82476
▁reformų	-9.82476
▁turizmo	-9.82479
▁judėjimo	-9.8264
išrinkt	-9.82647
▁spekuli	-9.82654
▁susitikimas	-9.8266
▁grindžiam	-9.82683
▁namų	-9.82763
▁vykusi	-9.82766
▁pasirengę	-9.82848
▁planuoja	-9.82953
▁vyriausi	-9.83013
▁standartai	-9.83192
▁iškil	-9.83254
▁geležinkelių	-9.83282
▁ryšių	-9.83282
▁pasirengusi	-9.83337
▁papildoma	-9.83397
▁mokslo	-9.83468
▁nariui	-9.83509
▁nuoširdžiai	-9.83552
▁piliečius	-9.83552
▁tarpusavio	-9.83552
▁Kartu	-9.83604
▁pareiga	-9.83624
▁duomenys	-9.83642
▁skurdu	-9.83733
▁brang	-9.83827
▁paskutini	-9.83838
▁BŽ	-9.83985
▁pabėgėlių	-9.84186
▁įgyvendinimas	-9.84188
▁liberalizav	-9.84225
▁kilo	-9.84241
▁dokumentų	-9.84276
▁raginama	-9.8447
▁skiriasi	-9.84577
▁branduolinės	-9.84641
▁institucin	-9.84641
▁nežino	-9.84647
▁nedidel	-9.84733
▁priimta	-9.84738
▁trijų	-9.84738
▁kalbą	-9.84855
▁planas	-9.84937
brėž	-9.84988
▁parlamentin	-9.85004
CS	-9.85011
▁leiskite	-9.85029
▁istorin	-9.85194
▁neteisėta	-9.85306
ade	-9.85311
▁veiksmingesn	-9.85373
▁atmet	-9.85386
▁matome	-9.85411
▁sustabd	-9.85444
▁pasiūlyme	-9.85466
▁pasirod	-9.85484
▁išsak	-9.85513
▁pabrėžia	-9.85579
▁pagrindiniai	-9.8562
▁pastangos	-9.85649
▁Parlamentu	-9.85665
▁100	-9.8574
▁Balsavimas	-9.85742
▁Buvo	-9.85747
▁Ukrainos	-9.85833
▁kiekvieną	-9.85834
▁paketą	-9.85839
▁tyrimai	-9.85847
▁II	-9.85888
▁padėtyje	-9.85926
klaida	-9.85968
▁ūkininkams	-9.86036
▁skaidrumą	-9.86111
mokyk	-9.86113
▁pažangi	-9.86113
▁ženklin	-9.86264
▁pakeitimo	-9.86393
skiria	-9.86395
▁pradin	-9.86459
▁sprendimu	-9.8648
▁santykiai	-9.86481
▁poveikis	-9.86484
▁tarybos	-9.86555
▁Ministr	-9.86575
▁pasirašyt	-9.86647
▁netrukus	-9.86667
▁reikalauti	-9.86668
▁asmenims	-9.86761
▁papildomų	-9.86763
▁skirs	-9.86801
žiūrėti	-9.86825
Ž	-9.86848
▁NATO	-9.86854
▁pastabas	-9.86854
▁jaunimo	-9.86866
▁sąlyga	-9.87005
▁prioritetų	-9.8704
▁veiksmingiau	-9.87041
▁saugumas	-9.87134
▁labui	-9.87135
▁pasitelk	-9.87227
▁ataskaitą	-9.87321
▁energetin	-9.87321
▁rank	-9.87351
▁pinigai	-9.87415
sėkm	-9.87433
▁ataskaitos	-9.87509
▁neturėtume	-9.8756
▁posėdyje	-9.87602
▁dialogo	-9.87696
▁policijos	-9.8798
▁norėtų	-9.87982
▁baigtos	-9.88014
▁kontroliuoti	-9.88264
▁svarbos	-9.88357
▁Ispanijos	-9.88451
▁įdieg	-9.88452
diskusijos	-9.88556
▁trys	-9.88592
▁Vert	-9.88622
▁dalykai	-9.88641
▁kliūtis	-9.88641
▁konkurencingumą	-9.88641
▁Irano	-9.88645
▁dalyje	-9.88834
▁valdymą	-9.88916
▁diskusiją	-9.89117
▁spaudimą	-9.89124
▁asmenys	-9.89308
▁mėnesį	-9.89406
▁kovą	-9.89409
▁paskirst	-9.89486
▁pranaš	-9.89501
▁suveren	-9.89599
▁narėmis	-9.89638
tobulin	-9.89678
▁pažymėti	-9.89883
▁pratęs	-9.89894
▁Airijoje	-9.90172
▁Leiskite	-9.90172
▁Valstijos	-9.90172
▁pažeidimų	-9.9019
▁patirties	-9.90201
▁pusiausvyrą	-9.90268
▁kokyb	-9.90277
▁verčia	-9.90477
reguliuo	-9.90508
▁maistu	-9.90679
▁simboli	-9.90752
įvair	-9.90784
▁įvykdymo	-9.90803
▁prioritetas	-9.90849
▁skaidri	-9.90849
▁pensijų	-9.90946
▁susidūr	-9.90946
▁kolegoms	-9.9104
▁Valstijų	-9.91043
▁energiją	-9.9114
▁akivaizdžiai	-9.91143
ininkystės	-9.91154
keliančių	-9.91169
▁2012	-9.91335
▁šaliai	-9.91347
▁vystymuisi	-9.9153
▁keletas	-9.9153
▁2005	-9.91609
▁duomenimis	-9.91628
▁PPO	-9.91726
SK	-9.91785
▁teritorijoje	-9.91824
▁finansuojam	-9.91836
avau	-9.91896
▁atsižvelgiama	-9.92031
▁dokumentai	-9.92118
gyventi	-9.92201
▁prisitaikymo	-9.92413
▁Galbūt	-9.92512
▁banko	-9.9257
▁reglamentas	-9.92611
▁stabilumą	-9.9271
▁deficit	-9.92808
▁sutartimi	-9.92818
▁apsaugo	-9.93117
▁dviem	-9.93194
ficial	-9.93253
▁apibūdin	-9.93404
▁kitoms	-9.93467
▁kokią	-9.93505
▁vaistų	-9.93509
▁surink	-9.93688
▁ypatingą	-9.93699
▁ryšius	-9.93803
▁gynybos	-9.93925
▁įvykd	-9.93972
▁inovacijų	-9.94003
▁kenčia	-9.94207
▁dienų	-9.94238
▁norėtume	-9.94304
▁Baltijos	-9.94305
▁pagrindų	-9.94311
▁priemonėms	-9.94316
mokestin	-9.94332
▁Rumunijos	-9.94405
▁jėgos	-9.94405
▁diskriminacija	-9.94505
▁etnin	-9.94611
▁narėje	-9.94804
▁Biudžeto	-9.94808
▁mėgin	-9.94911
▁lank	-9.95227
▁Graikija	-9.95314
▁aviacijos	-9.95315
▁konkurencija	-9.95415
▁taršos	-9.95521
▁nesąžining	-9.95534
▁nukentėjusi	-9.9572
▁pranešėją	-9.9572
▁likusi	-9.95743
universitet	-9.95822
▁fondu	-9.95822
▁įvykių	-9.95822
FI	-9.95913
▁pasireng	-9.95947
▁žinau	-9.96134
▁frakcijų	-9.96232
▁abi	-9.96243
▁Tarybą	-9.96334
▁įsipareigojimą	-9.96334
▁intensyv	-9.96436
numaty	-9.96605
▁viduje	-9.96641
▁nurodyta	-9.96692
valstyb	-9.96709
▁konvencijos	-9.96744
▁prezidento	-9.96761
▁eismo	-9.96852
▁kredito	-9.96852
▁smarkiai	-9.9695
▁pinigus	-9.97054
▁sutarčių	-9.97057
▁posėdžio	-9.97157
▁deram	-9.97201
▁technologijas	-9.97264
▁tinkamu	-9.97279
▁patyr	-9.97295
▁egzistuoja	-9.97364
▁rugsėjo	-9.97364
▁vertybių	-9.97469
▁vertybes	-9.9747
▁gerovės	-9.97675
▁institucijomis	-9.97675
▁reglamentuoja	-9.97833
▁lengviau	-9.97868
▁padarinius	-9.97984
▁politikoje	-9.97987
▁pranešėjams	-9.98026
▁netinkama	-9.98208
▁gyvybiškai	-9.98405
▁demokratišk	-9.98623
▁griežtesn	-9.98626
▁geri	-9.98628
▁išveng	-9.98709
▁kokį	-9.98727
▁kompetencija	-9.98825
▁milijonų	-9.98947
▁Iki	-9.99022
▁iššūkius	-9.99035
▁nepakankamai	-9.99146
bendr	-9.9931
garantuot	-9.99325
▁sąjungos	-9.99351
(	-9.99401
▁sauga	-9.99458
▁pasikeit	-9.99565
▁Kitaip	-9.99614
cijoms	-9.99665
▁procedūrų	-9.99669
prezident	-9.9975
▁Ekonomikos	-9.99987
▁katastrof	-9.99987
šiltnamio	-10.0009
▁pirmąjį	-10.0011
▁Rom	-10.0016
▁veiksmingą	-10.002
▁regionams	-10.002
▁užmojo	-10.0021
▁menk	-10.003
▁pavyzdį	-10.0031
▁penkeri	-10.0031
▁perduoti	-10.0042
▁ekstr	-10.0042
▁aukų	-10.0053
▁žud	-10.0057
cijomis	-10.0065
▁social	-10.0074
nčiam	-10.0092
▁Balkanų	-10.0116
▁ėmėsi	-10.0116
▁įgyvendinta	-10.0124
▁stiprina	-10.0134
rašyti	-10.0142
▁stengtis	-10.0147
leidimo	-10.015
▁vaizd	-10.0159
iečių	-10.0166
▁išsivysčiusi	-10.017
▁60	-10.0171
▁Pasiūl	-10.0181
▁pokyčius	-10.0192
▁finansavimas	-10.0196
▁BVP	-10.0203
▁sveikinu	-10.0205
▁sąžininga	-10.0207
▁veiksmingo	-10.0214
▁mažiausiai	-10.0215
▁situacija	-10.0235
krau	-10.0238
▁efektyvumo	-10.0246
▁priežiūrą	-10.0257
▁kaimynystės	-10.0257
▁Atsižvelgdama	-10.0279
▁smulki	-10.029
▁atkurti	-10.029
▁naudojimas	-10.0294
▁puiku	-10.0312
▁garantijų	-10.0323
▁persekioj	-10.0323
▁kokie	-10.0324
▁priimant	-10.0324
▁bendradarbiauja	-10.0324
▁tarptautine	-10.0325
▁sutartyje	-10.0326
▁dokumentą	-10.0345
▁nereikia	-10.0356
▁pakenk	-10.0358
▁prevencijos	-10.0367
▁kliūčių	-10.0367
▁tarnyba	-10.0367
▁Rūmų	-10.0367
▁bandom	-10.0377
▁elgtis	-10.0378
▁vietą	-10.038
vaizdu	-10.0381
▁peržiūrėt	-10.0381
▁eksporto	-10.0389
▁glaudžiai	-10.0389
▁sienos	-10.0415
▁nuosavybės	-10.0424
▁naudą	-10.043
▁naujosios	-10.0441
▁kolektyvin	-10.0456
▁2004	-10.0473
▁riba	-10.0474
▁iniciatyvų	-10.0479
▁investicijas	-10.0489
▁ALDE	-10.0489
direktor	-10.05
▁interesai	-10.0523
▁nesilaik	-10.0535
▁informacin	-10.0545
▁atitikti	-10.0545
▁daugumos	-10.0559
▁priimam	-10.0568
program	-10.0589
▁efektą	-10.059
▁nedarbo	-10.0592
▁liepos	-10.0601
dikta	-10.0607
▁vietin	-10.061
▁prezidentas	-10.0613
▁minėjau	-10.0628
▁tikriausiai	-10.0635
▁buvę	-10.0636
▁patekti	-10.0651
▁Portugalijos	-10.0658
▁prioritetin	-10.0658
▁Ačiū	-10.0658
▁susipažin	-10.0669
▁Baltarusijos	-10.0681
▁žalos	-10.0681
▁strategijoje	-10.0692
▁pereinam	-10.0718
▁buvau	-10.0726
žeidžia	-10.0728
▁imtasi	-10.075
▁nauda	-10.0757
lenk	-10.0766
▁valdžia	-10.0771
▁ginklų	-10.0772
▁Toks	-10.0773
▁pagrindo	-10.0774
prasta	-10.0779
▁sugebėj	-10.0779
▁Žmogaus	-10.0784
▁patobulint	-10.0795
▁balandžio	-10.0807
▁asmeniškai	-10.083
▁pridėtin	-10.0832
mokslinius	-10.0838
▁priežiūra	-10.0841
▁geografin	-10.0853
▁koordinavimo	-10.0853
▁dieg	-10.0865
▁didėjanči	-10.0869
▁kompromisą	-10.0876
▁verslu	-10.0888
ratifikuo	-10.0923
▁ketvirt	-10.0923
▁išskirtin	-10.0924
▁sukurt	-10.0926
▁sąrašą	-10.0934
▁kriterijai	-10.0946
▁straipsnį	-10.0946
▁suprantu	-10.0946
▁lygmens	-10.0958
▁įgaliojimus	-10.0981
▁pokyčiai	-10.0981
▁neteisinga	-10.0982
▁kalbų	-10.0986
▁paslaugos	-10.0993
▁Švedijos	-10.0993
▁pabaig	-10.1
▁Karalystės	-10.1005
▁žmogišk	-10.1005
▁Turė	-10.1008
▁svarbesn	-10.1016
▁teritorijos	-10.1016
▁balsų	-10.1016
▁įvykiai	-10.104
▁trečiosiom	-10.1052
▁Kopenhagos	-10.1064
▁neįgal	-10.1079
▁patirtimi	-10.1088
▁praras	-10.1088
▁įmones	-10.1088
frakci	-10.1091
▁milžinišk	-10.1099
▁numatoma	-10.1103
▁atidėt	-10.1105
▁skaičiaus	-10.1123
▁Žemės	-10.1123
▁valiutos	-10.1147
▁atsakingi	-10.1154
traukti	-10.1155
▁Vidurio	-10.1159
▁sistemoje	-10.1159
▁gamintojų	-10.1167
▁Ukraina	-10.1183
▁kompetencijos	-10.1183
▁kasmet	-10.119
▁reitingų	-10.1195
▁įstatymo	-10.1195
▁socialistų	-10.1195
▁ūkiu	-10.1203
▁kalbu	-10.1206
▁išvadas	-10.1207
▁aukščiausio	-10.121
▁išvados	-10.1212
▁riboja	-10.1219
▁gyvūn	-10.1219
▁prireik	-10.1223
▁plane	-10.1229
▁programoje	-10.1231
▁poreikis	-10.1243
▁pavyzdžiu	-10.1254
▁naujovių	-10.1255
▁Prezident	-10.1267
▁vietovėse	-10.1267
▁patrauk	-10.1284
▁ataskaitoje	-10.1315
▁atsiranda	-10.1316
▁diskriminacijos	-10.1339
▁būdai	-10.1348
▁reikšmę	-10.1353
▁Kosovo	-10.1364
▁nužud	-10.1376
▁ministras	-10.138
▁Turėtum	-10.1383
▁augimas	-10.1391
▁ribos	-10.1408
▁diskusijoje	-10.1413
▁gamybą	-10.1413
▁paslaugomis	-10.1413
▁žingsnį	-10.1413
▁subsidiarumo	-10.1413
▁tikslams	-10.1413
▁konkurencingumo	-10.1413
▁aspektą	-10.1425
priimti	-10.1425
▁nusipeln	-10.1437
▁sporto	-10.1437
▁kontroliuoja	-10.1455
▁fondą	-10.1474
iečiai	-10.1483
▁pavyks	-10.1487
▁parlamento	-10.1494
▁Ispanija	-10.1499
▁dioksido	-10.1499
▁tarptautinę	-10.1499
▁vairuo	-10.1527
▁esate	-10.1548
▁sėkminga	-10.1555
▁daugiašal	-10.1561
▁kortel	-10.1573
▁vystymąsi	-10.1598
▁dėkinga	-10.1598
▁laisvosio	-10.1603
milijard	-10.161
▁padėk	-10.1617
▁zona	-10.162
▁Briuselyje	-10.1648
▁europiečių	-10.1648
▁jumis	-10.1649
▁Sutinku	-10.1661
▁neišveng	-10.1661
▁žuvų	-10.1661
▁žalą	-10.1662
▁efektyvumą	-10.1673
▁problemomis	-10.1686
▁vasario	-10.1686
▁išankstin	-10.1698
▁neatitinka	-10.1698
▁perkelti	-10.17
▁rimtų	-10.1711
▁nuveikti	-10.1711
▁ženklas	-10.1713
▁reikalingos	-10.1724
▁skait	-10.1728
▁atvejis	-10.1736
▁seksualin	-10.1736
▁padėčiai	-10.1762
▁norėjo	-10.1762
▁grįžti	-10.1764
▁vieta	-10.1774
▁pradžios	-10.1774
▁miestų	-10.1787
▁įreng	-10.1801
▁konkurenciją	-10.1812
▁abiejų	-10.1825
▁blok	-10.1839
▁regionai	-10.1848
▁biudžetu	-10.1857
▁objektyv	-10.1863
▁akivaizd	-10.1876
abejoti	-10.1888
▁įsikiš	-10.1889
▁pagarbą	-10.1889
▁tradicin	-10.1915
▁dalyvavo	-10.1915
▁skaitmenin	-10.1915
▁konflikto	-10.192
▁baim	-10.1925
▁tekstilės	-10.1928
▁dalyvavimą	-10.1928
atsak	-10.1933
▁konkrečius	-10.1956
draudžia	-10.198
▁paketas	-10.1981
▁bendradarbiau	-10.2003
▁sutarčiai	-10.2006
▁dydžio	-10.2018
▁paspartin	-10.2031
▁atsiras	-10.2032
krikščion	-10.2034
▁Rumunija	-10.2044
▁naštą	-10.2045
▁gamtos	-10.2071
▁fondai	-10.2084
▁primygtinai	-10.2097
skirti	-10.2105
▁krovinių	-10.211
▁miesto	-10.211
▁praktika	-10.211
▁stojimo	-10.2111
▁žurnalist	-10.2123
▁pagarba	-10.2124
▁užmokesčio	-10.2136
intervenci	-10.2148
▁Raštišk	-10.2149
▁kompromisas	-10.2149
▁Rūmai	-10.215
▁įvykius	-10.2163
▁komand	-10.2163
▁pasitikėjimo	-10.2176
▁Palestinos	-10.2189
▁pastaraisiais	-10.2189
▁tautų	-10.2193
▁žaisl	-10.2193
▁panaudot	-10.2208
▁asociacijos	-10.2216
▁pacientų	-10.2216
▁proporcing	-10.2229
▁Afrikoje	-10.2229
▁išplėsti	-10.2229
▁išorin	-10.2236
▁pradžia	-10.2243
▁demografin	-10.2255
▁pakeitimu	-10.2262
▁mokyklos	-10.2269
▁dialogas	-10.2282
▁mechanizmą	-10.2282
▁Aplinkos	-10.2322
▁dokumentas	-10.2322
▁sekretor	-10.2322
▁skirtingos	-10.2325
▁pagarbos	-10.2336
▁kriterijų	-10.2349
▁sektoriuose	-10.2349
jungti	-10.235
▁pertvark	-10.2351
▁darbuotojus	-10.2376
▁PVM	-10.2376
▁Bulgarijos	-10.239
▁šalin	-10.2391
▁suderinta	-10.2444
▁direktyvoje	-10.2457
radikal	-10.2458
▁mikro	-10.2458
▁importo	-10.2471
▁religijos	-10.2498
▁savaites	-10.2498
▁verslinink	-10.2501
▁atkūrimo	-10.2526
▁klaidų	-10.2526
▁artėja	-10.2526
▁įsitrauk	-10.2531
▁taryba	-10.2542
▁nepra	-10.255
▁žodžių	-10.2567
▁gaires	-10.2567
sunaikin	-10.2567
▁gamtin	-10.2568
▁užuot	-10.2568
▁Gruzijos	-10.258
▁investicijos	-10.258
▁Žinau	-10.2581
▁priimto	-10.2587
▁Kroatijos	-10.2594
▁Stabilum	-10.2594
▁nusivyl	-10.2608
▁negalės	-10.261
▁Britanijos	-10.2622
▁atsidūr	-10.2622
▁laipsnišk	-10.2622
▁išplėt	-10.2622
▁pajamas	-10.2626
▁riziką	-10.2636
▁projektai	-10.2677
▁imigrantų	-10.2691
▁prioritetai	-10.2691
▁šešėlini	-10.2705
▁atgaivin	-10.2705
▁pašar	-10.2707
▁lankstumo	-10.2719
▁įvyks	-10.272
▁klaiding	-10.2721
▁Airija	-10.2733
▁nereiškia	-10.2747
▁projektams	-10.2747
▁išaiškin	-10.2759
▁specifin	-10.2761
▁išskyrus	-10.2761
▁reikalavimas	-10.2789
▁donor	-10.2792
▁partijų	-10.2817
▁privalu	-10.2833
▁protinga	-10.2839
▁patenkintas	-10.2845
▁Vengrija	-10.286
▁struktūros	-10.2874
▁bendrąj	-10.2874
▁mokesčio	-10.2888
ryšk	-10.2891
▁mažosioms	-10.2902
▁reikalingi	-10.2902
▁nusikaltimų	-10.2902
registruo	-10.2903
▁kritišk	-10.2916
▁tebėra	-10.2916
▁trumpalaik	-10.2916
▁norėjau	-10.2917
▁veiksnys	-10.2917
▁nuostata	-10.2917
▁rizika	-10.2931
▁apgailestauju	-10.2945
▁nuosav	-10.2952
▁asmuo	-10.2959
▁Pavyzdžiui	-10.2973
▁dalyvavimas	-10.2974
▁įdarbin	-10.2974
▁vykti	-10.2974
▁straipsnyje	-10.2988
▁kenkia	-10.2988
▁perkėlimo	-10.2988
▁specialist	-10.2999
▁indėlį	-10.3002
▁elgesio	-10.3017
▁supras	-10.3017
▁uostų	-10.3031
▁priimtų	-10.3031
▁prisiminti	-10.3031
▁dalyvavimo	-10.3031
▁jūroje	-10.306
▁ryžtingai	-10.306
▁internetu	-10.3074
pagrind	-10.3077
▁išreikšt	-10.3088
▁įgaliojimų	-10.3089
▁Remiant	-10.3093
paprast	-10.3095
▁fiskalin	-10.3118
▁interesams	-10.3118
2010	-10.3148
▁sąskaita	-10.3161
▁mokėtojų	-10.3176
▁iššūkiai	-10.3191
▁įgaliojimai	-10.3205
▁Švedija	-10.3205
▁konstruktyvi	-10.322
▁trūkumų	-10.322
▁Italijoje	-10.3235
▁situaciją	-10.3235
▁abiem	-10.3247
▁pavojinga	-10.3264
▁mokesčius	-10.3264
▁ateičiai	-10.3279
neturting	-10.328
▁Atsak	-10.3291
sigaliojus	-10.3308
▁sparčiai	-10.3338
▁atšauk	-10.3338
▁Region	-10.3338
▁Esame	-10.3354
▁susisiekimo	-10.3368
▁veiksmingumą	-10.3368
▁žinią	-10.3368
▁pagamint	-10.3368
▁sudėtingo	-10.3368
▁kankin	-10.3368
▁fizin	-10.3372
▁PSE	-10.3383
▁internete	-10.3383
▁alternatyvi	-10.3398
▁vykstanči	-10.3398
▁nurodoma	-10.3403
▁nesugebėj	-10.3413
▁pesticid	-10.3427
▁žodį	-10.3428
▁faktas	-10.3428
▁sumažėjo	-10.3443
padėtis	-10.3451
▁spręs	-10.3469
▁sandorių	-10.3473
▁skirto	-10.3485
▁leidimų	-10.3488
▁sistemin	-10.3502
▁AKR	-10.3503
▁sritys	-10.3507
aukščiausi	-10.3507
2008	-10.3512
problema	-10.3543
▁sankcijų	-10.3548
▁atleist	-10.3561
▁pavojaus	-10.3563
▁nepavyko	-10.3563
▁nemanau	-10.3564
▁tvaraus	-10.3564
▁reguliuoja	-10.3571
▁intelektin	-10.3578
▁Serbijos	-10.3578
▁dalyką	-10.3578
▁iššūkis	-10.3578
▁korupcija	-10.3578
▁savaičių	-10.3579
▁ekspertų	-10.3594
▁pagrįsto	-10.3609
▁nestabil	-10.3609
▁pasekmes	-10.3609
▁rūšies	-10.3609
iečiams	-10.3612
▁arešt	-10.3625
▁konferencijos	-10.3639
▁priskir	-10.3646
▁mąst	-10.3654
▁migrantų	-10.3655
▁komunist	-10.3655
▁modelį	-10.367
▁etape	-10.367
▁Vida	-10.3674
▁faktiškai	-10.3685
▁gresia	-10.3686
stūm	-10.3703
ėjimai	-10.3705
▁Portugalija	-10.3716
▁ilgiau	-10.3746
▁sąjunga	-10.3747
▁reformą	-10.3747
▁terorizmo	-10.3763
▁numatytos	-10.3763
▁neatidėliotin	-10.3794
▁pasekmių	-10.3809
▁Būtų	-10.3825
▁atspindi	-10.384
ininkams	-10.3849
▁Palankia	-10.3856
mėlyn	-10.3856
▁transportu	-10.3879
▁Kiekviena	-10.3903
▁Kroatija	-10.3903
2009	-10.3906
▁remdamasi	-10.3919
▁Raginu	-10.3934
▁uždrausti	-10.3934
▁Kinijoje	-10.3934
▁pastabų	-10.395
▁Daugelis	-10.395
▁pradės	-10.3957
▁išimtin	-10.3958
▁alkohol	-10.3966
▁įsipareigojimai	-10.3966
▁galėčiau	-10.3966
▁nacional	-10.3983
▁generalini	-10.3998
▁pusiausvyros	-10.3998
▁kontekste	-10.4014
▁audito	-10.403
▁anksto	-10.4045
▁sudarytos	-10.4046
▁pridurti	-10.4046
▁pavyzdžių	-10.4061
▁sąmoning	-10.4061
▁kvotų	-10.4062
▁šiuolaikin	-10.4067
▁Svarbiausia	-10.4077
▁imigracija	-10.4093
▁rekomendacijos	-10.4093
švaist	-10.4103
vėl	-10.4115
▁įgyvendinimu	-10.4115
▁atskleid	-10.4124
▁Kopenhagoje	-10.4125
▁prognoz	-10.4125
sidomė	-10.4137
▁ruoš	-10.4142
▁Azijos	-10.4142
▁išnaudoti	-10.4142
▁nepalanki	-10.4158
▁puoselė	-10.4158
▁patikima	-10.4166
▁ekonomišk	-10.4174
▁Arkties	-10.4174
▁Juodosios	-10.419
▁palygin	-10.419
▁ginkluot	-10.419
▁nustatytu	-10.4204
▁administravimo	-10.4206
▁konferencija	-10.4206
▁europiečiai	-10.4206
▁sankcijas	-10.4222
▁pakalbėti	-10.4222
pirmininkaujanči	-10.4224
▁nelygyb	-10.426
▁renka	-10.4272
▁ryšio	-10.4304
▁perdavimo	-10.4337
▁grandin	-10.4338
▁dešin	-10.4351
▁Užsieni	-10.4353
▁paminėjo	-10.4353
▁praktikos	-10.4369
▁uždavinys	-10.4369
▁tarpusavyje	-10.4386
▁EIB	-10.4386
▁skurdą	-10.4386
▁susijusį	-10.4386
▁saugą	-10.4403
▁pasekmė	-10.4403
▁opozicijos	-10.4419
▁smurtą	-10.4435
▁struktūrą	-10.4435
▁pasipriešin	-10.4437
▁dokumento	-10.4452
▁lėšomis	-10.4452
▁septyni	-10.4452
▁reikšminga	-10.4473
ALE	-10.4485
▁įstatymai	-10.4487
paversti	-10.4501
praneš	-10.4517
▁padidėjo	-10.4519
▁išsamų	-10.4519
▁priklausanči	-10.453
▁gelbė	-10.4571
▁pagrįsti	-10.4586
pažeis	-10.4593
▁išsiaiškinti	-10.4602
▁mechanizmas	-10.4602
▁nesuteik	-10.4603
▁religini	-10.4607
▁spart	-10.4632
▁skaidrumas	-10.4636
▁Respublika	-10.4653
▁daugiamet	-10.466
▁švietimą	-10.467
▁statistini	-10.4672
▁Žinome	-10.4687
▁užkirs	-10.4702
rezerv	-10.4704
▁atostogų	-10.4721
▁straipsniu	-10.4721
▁dažniausiai	-10.4721
▁susirink	-10.4723
▁aplinkybes	-10.4738
▁asmenis	-10.4738
▁lėt	-10.4738
▁ačiū	-10.4755
▁stebėsenos	-10.4772
▁Vakar	-10.4776
▁Indijos	-10.479
▁Paskutin	-10.4807
▁zonoje	-10.4807
▁lengv	-10.481
iniciatyv	-10.4819
▁baronien	-10.4824
▁pagirti	-10.4824
▁negalėjo	-10.4824
▁iššūkių	-10.4841
▁pasaulis	-10.4841
▁Saugumo	-10.4841
▁atrod	-10.487
▁laikotarpis	-10.4876
▁keleri	-10.4877
techn	-10.4885
▁punktas	-10.4893
▁reglamentavimo	-10.4893
▁kokybišk	-10.4918
▁protokolo	-10.4928
▁drąsi	-10.4931
▁garantija	-10.4945
▁istorijos	-10.4963
▁lygmenimis	-10.4963
▁mieste	-10.4963
skirstymo	-10.4977
imbabv	-10.498
▁Afganistano	-10.498
▁delegacija	-10.498
▁pasauliui	-10.498
▁ištirti	-10.498
▁vyksianči	-10.4984
▁Sarkozy	-10.4998
▁Serbija	-10.4998
▁mechanizmo	-10.4998
pažįsta	-10.5008
▁užimtumą	-10.5015
▁motinystės	-10.5033
▁Rūmuose	-10.5033
▁faktą	-10.5033
▁lanksči	-10.5038
▁prieštaring	-10.5056
ekonomin	-10.5062
▁Lenkija	-10.5068
▁konferencijoje	-10.5068
▁kompromisin	-10.5068
▁Indija	-10.5068
▁parduot	-10.5073
▁ankstyv	-10.5086
Komisijos	-10.5099
▁aštuoni	-10.5104
▁produktams	-10.5139
▁importuot	-10.514
▁tarpinink	-10.514
▁Komisijoje	-10.5157
▁informavimo	-10.5157
▁siunčia	-10.5157
▁Vokietija	-10.5175
▁importuojam	-10.5175
▁Tikimės	-10.5175
▁Moldovos	-10.5192
▁profesional	-10.5192
▁panaudojimo	-10.521
▁Vokietijoje	-10.5246
▁nviena	-10.5247
▁poreikių	-10.5282
▁veikloje	-10.53
▁Bulgarija	-10.5336
▁apribojimų	-10.5336
▁nukentėjo	-10.5355
▁orientuot	-10.5355
▁reguliar	-10.5391
▁naudingi	-10.5402
Š	-10.5421
▁repr	-10.5422
▁Graikijoje	-10.5428
▁Prancūzijoje	-10.5428
▁pageidauja	-10.5428
▁gyventojus	-10.5428
▁nagrinėti	-10.5446
▁prasidėjo	-10.5446
▁vyresni	-10.5464
▁pranešėju	-10.5495
▁pagrįstą	-10.5501
▁solidarumas	-10.5501
▁situacijos	-10.5519
▁pasirūpin	-10.5538
▁serga	-10.5557
turėtų	-10.5557
▁Tūkstantmeči	-10.5575
▁Transporto	-10.5594
▁nusikalstamumu	-10.5594
▁dinamišk	-10.5594
▁tragišk	-10.5595
▁bylos	-10.5612
▁dokumente	-10.5631
▁ombudsmeno	-10.5631
▁sušvelnin	-10.5631
▁delegacijos	-10.565
▁valdysenos	-10.565
▁paskolų	-10.565
▁Piliečių	-10.5668
▁Libijos	-10.5668
šioms	-10.5674
▁ruožtu	-10.5687
▁diskusijoms	-10.5706
▁projekte	-10.5706
▁sukčiavimu	-10.5706
▁balsavimu	-10.5706
pasiūl	-10.5727
▁Pakistano	-10.5762
▁reformuo	-10.5781
▁žmogus	-10.58
▁tarptautinėje	-10.58
▁pastebim	-10.58
▁įpareigoja	-10.5819
▁Slovakijos	-10.5819
▁mokestį	-10.5819
▁žaliavų	-10.5838
▁aukoms	-10.5838
▁pusiausvyra	-10.5857
▁pavojingų	-10.5877
▁peržiūros	-10.5877
▁vietovių	-10.5877
▁Ekonomin	-10.5915
nutraukkalbėtoją	-10.5915
▁įrangos	-10.5915
EGF	-10.5915
▁didžioj	-10.5928
▁susitelk	-10.5953
▁esamų	-10.5954
▁modelio	-10.5973
▁kritika	-10.5996
▁Rumunijoje	-10.6011
▁vartotojus	-10.6031
▁konvencija	-10.6031
▁Žaliųjų	-10.6031
▁Rytuose	-10.605
▁remdamiesi	-10.607
▁dialogu	-10.6089
▁ideolog	-10.6089
▁moralin	-10.6089
▁pasaulį	-10.6109
▁Neseniai	-10.6129
▁Komitet	-10.6129
▁Peticij	-10.6129
▁nukryp	-10.6129
▁centro	-10.6148
▁kompromiso	-10.6148
▁Afganistane	-10.6168
▁pasisteng	-10.6168
▁esamo	-10.6182
▁išbrauk	-10.6188
▁kariuomen	-10.6207
▁įstaigų	-10.6207
▁testavim	-10.6208
tiesiogin	-10.6215
▁Lenkijoje	-10.6227
▁reikalavimą	-10.6227
tarnaut	-10.6298
▁apmokestinimo	-10.6307
▁tabako	-10.6327
▁ligoni	-10.6332
▁Italija	-10.6347
▁mokesčiai	-10.6347
2007	-10.6351
▁nereikėtų	-10.6367
▁trūkumus	-10.6367
▁NVO	-10.6367
▁gerbiamieji	-10.6367
▁atokiausi	-10.6387
▁GUE	-10.6407
▁politiškai	-10.6407
▁veiksmingumo	-10.6427
▁smerkia	-10.6427
▁sudėtingu	-10.6428
▁Schulz	-10.6448
▁direktyvų	-10.6448
▁ketvirtadienį	-10.6448
geležin	-10.6468
