<pad>	0
</s>	0
<unk>	0
▁¦	-0
्य	-1
्या	-2
▁क	-3
्र	-4
ार	-5
▁आ	-6
▁स	-7
ां	-8
ना	-9
▁प	-10
ात	-11
▁म	-12
र्	-13
हे	-14
ला	-15
▁अ	-16
▁व	-17
च्या	-18
क्	-19
▁त	-20
ले	-21
ही	-22
ण्या	-23
ल्या	-24
चा	-25
वा	-26
ती	-27
्ह	-28
रो	-29
ची	-30
िक	-31
▁द	-32
▁य	-33
▁.	-34
सा	-35
▁ज	-36
स्	-37
▁ह	-38
▁आहे	-39
ली	-40
ने	-41
ून	-42
णि	-43
रा	-44
ता	-45
ंत	-46
▁ल	-47
▁प्र	-48
▁न	-49
्ये	-50
मध	-51
णा	-52
मा	-53
कर	-54
ित	-55
क्ष	-56
▁अस	-57
चे	-58
का	-59
ठी	-60
▁कर	-61
्यां	-62
▁ब	-63
मध्ये	-64
वर	-65
▁आणि	-66
▁श	-67
नी	-68
प्र	-69
साठी	-70
▁,	-71
रोना	-72
▁को	-73
▁हो	-74
ते	-75
या	-76
▁र	-77
▁सं	-78
वि	-79
सं	-80
▁के	-81
पा	-82
झा	-83
ग्	-84
लं	-85
ंद	-86
ील	-87
आहे	-88
▁का	-89
व्ह	-90
मु	-91
▁या	-92
कार	-93
शी	-94
्ट	-95
▁उ	-96
▁ग	-97
के	-98
पर	-99
ेश	-100
ण्यात	-101
▁वि	-102
ुग्	-103
ुर	-104
णे	-105
हि	-106
िं	-107
ेत	-108
को	-109
ाय	-110
त्	-111
चं	-112
▁ए	-113
सी	-114
▁घ	-115
री	-116
लेल्या	-117
तात	-118
वी	-119
नि	-120
हो	-121
ळे	-122
नाही	-123
कड	-124
ान	-125
ाण	-126
भा	-127
▁वा	-128
ांनी	-129
▁रा	-130
▁दि	-131
▁झा	-132
ारी	-133
द्	-134
ष्ट	-135
आणि	-136
▁नि	-137
ांना	-138
की	-139
रोग	-140
मी	-141
ोक	-142
से	-143
▁ड	-144
ारा	-145
सि	-146
▁ट	-147
वे	-148
ार्	-149
स्थ	-150
▁कोरोना	-151
▁ला	-152
सर्	-153
▁त्या	-154
ुग्ण	-155
णी	-156
ऱ्या	-157
त्या	-158
मुळे	-159
बा	-160
जन	-161
▁जा	-162
ंत्र	-163
गा	-164
▁इ	-165
तर	-166
▁म्ह	-167
ण्यासाठी	-168
▁स्	-169
तो	-170
▁पर	-171
▁मा	-172
ांच्या	-173
ल्	-174
▁आहेत	-175
अस	-176
ंतर	-177
न्	-178
▁फ	-179
स्त	-180
शा	-181
▁सा	-182
तील	-183
्यात	-184
ुस	-185
ळा	-186
जे	-187
20	-188
▁नाही	-189
ांग	-190
िती	-191
रकार	-192
▁(	-193
टी	-194
हा	-195
19	-196
▁पा	-197
िंवा	-198
णार	-199
▁भ	-200
िल	-201
▁"	-202
रोग्य	-203
▁शक	-204
्रा	-205
ति	-206
जा	-207
▁राज	-208
पास	-209
्ही	-210
म्ह	-211
धी	-212
▁मु	-213
धिक	-214
क्र	-215
स्ट	-216
दि	-217
▁त्यां	-218
▁रुग्ण	-219
ातील	-220
▁ठ	-221
जी	-222
ळी	-223
्यंत	-224
नंतर	-225
ंट	-226
चार	-227
▁हे	-228
ांची	-229
ूर्	-230
▁ते	-231
ये	-232
▁ये	-233
▁दे	-234
ाणू	-235
▁ख	-236
षाणू	-237
पे	-238
▁सुर	-239
व्हि	-240
्यू	-241
करण	-242
वस	-243
क्षा	-244
कोरोना	-245
द्ध	-246
ण्याची	-247
▁चा	-248
ंद्र	-249
▁लोक	-250
▁उप	-251
णाऱ्या	-252
-19	-253
ऊन	-254
मे	-255
ंध	-256
ांमध्ये	-257
क्त	-258
ंब	-259
िट	-260
दी	-261
यो	-262
▁1	-263
ृत	-264
▁एक	-265
दा	-266
रे	-267
जार	-268
शि	-269
णं	-270
र्ष	-271
लय	-272
▁लस	-273
क्सि	-274
▁ऑ	-275
बत	-276
▁म्हण	-277
ताना	-278
▁पु	-279
ख्या	-280
▁सर्	-281
ज्	-282
देश	-283
गी	-284
▁लाग	-285
श्	-286
पर्यंत	-287
माण	-288
▁सरकार	-289
द्या	-290
ेल	-291
ंड	-292
ईल	-293
▁च	-294
▁'	-295
▁मो	-296
▁किंवा	-297
▁तर	-298
वार	-299
ष्ट्र	-300
ेव	-301
सर्ग	-302
तं	-303
मो	-304
हिती	-305
मान	-306
▁आरोग्य	-307
पासून	-308
क्ट	-309
बंध	-310
टा	-311
▁मह	-312
ुग्णा	-313
▁काही	-314
र्म	-315
▁परि	-316
ोन	-317
दे	-318
ांचा	-319
व्हिड	-320
रात	-321
▁कार	-322
▁डॉ	-323
▁सांग	-324
शक	-325
ायर	-326
▁यांनी	-327
▁ध	-328
▁ना	-329
र्थ	-330
▁वाढ	-331
डे	-332
मंत्र	-333
त्र	-334
▁असल्या	-335
▁तु	-336
डी	-337
ोल	-338
आहेत	-339
▁करण्यात	-340
कडा	-341
▁की	-342
▁कमी	-343
टे	-344
प्	-345
▁वे	-346
▁व्य	-347
गर	-348
पूर्	-349
▁देश	-350
सार	-351
क्ती	-352
्यु	-353
क्सिजन	-354
▁आप	-355
▁बा	-356
राज	-357
▁जात	-358
ब्	-359
▁सर्व	-360
क्षण	-361
▁असं	-362
▁लशी	-363
▁निर्	-364
नेक	-365
्यांना	-366
▁मि	-367
वारी	-368
वड	-369
स्थिती	-370
कडे	-371
ठा	-372
ॉकडा	-373
▁विषाणू	-374
▁केली	-375
▁ही	-376
्स	-377
्रे	-378
▁हा	-379
▁लसी	-380
िका	-381
द्य	-382
खा	-383
म्ही	-384
▁घे	-385
▁गे	-386
▁चाच	-387
व्य	-388
ायरस	-389
▁पण	-390
िया	-391
दल	-392
▁भार	-393
सो	-394
ूर	-395
भाग	-396
र्स	-397
▁अधिक	-398
गे	-399
ृत्यू	-400
िंग	-401
पु	-402
रुग्ण	-403
ात्र	-404
▁20	-405
थे	-406
ुसार	-407
ण्याचा	-408
▁𐊣	-409
तिक	-410
ाराष्ट्र	-411
ज्ञ	-412
कीय	-413
च्	-414
ढळ	-415
▁व्ह	-416
िल्ह	-417
ीय	-418
बाबत	-419
▁करोना	-420
्यक	-421
ुग्णालय	-422
▁आले	-423
▁माहिती	-424
मंत्री	-425
शन	-426
ल्यानंतर	-427
मि	-428
दर	-429
ण्यास	-430
▁लक्ष	-431
ांत	-432
ांवर	-433
▁क्	-434
व्ही	-435
▁होते	-436
सुर	-437
लोक	-438
वात	-439
▁करा	-440
▁शि	-441
पेक्षा	-442
ख्य	-443
ॉकडाऊन	-444
ोध	-445
▁सुरू	-446
णाम	-447
औष	-448
ंभ	-449
▁केले	-450
स्प	-451
नुसार	-452
▁:	-453
िय	-454
▁मार्	-455
▁¦1	-456
▁संसर्ग	-457
व्हा	-458
वश	-459
▁2	-460
यु	-461
मधील	-462
ध्य	-463
▁वापर	-464
▁स्थ	-465
ेड	-466
वश्यक	-467
औषध	-468
उप	-469
ाप	-470
एक	-471
लस	-472
ाला	-473
त्यां	-474
स्क	-475
वेश	-476
▁कोव्हिड	-477
दर्	-478
ध्या	-479
नं	-480
कडून	-481
पण	-482
▁C	-483
तु	-484
परि	-485
नो	-486
बी	-487
▁शा	-488
क्रम	-489
▁बंद	-490
जात	-491
▁घेत	-492
▁सु	-493
लाग	-494
म्हण	-495
खी	-496
सरकार	-497
सह	-498
यार	-499
▁केंद्र	-500
ठ्या	-501
टलं	-502
▁दिवस	-503
▁)	-504
▁उत्	-505
▁इतर	-506
▁ऑक्सिजन	-507
पी	-508
▁काम	-509
▁वर्ष	-510
लब्	-511
0¦	-512
किंवा	-513
वळ	-514
लब्ध	-515
्हे	-516
▁-	-517
ंबई	-518
ष्	-519
▁कु	-520
मह	-521
ंप	-522
क्के	-523
▁ज्या	-524
र्क	-525
▁अनेक	-526
ांसाठी	-527
ीर	-528
▁से	-529
ल्याचं	-530
▁आली	-531
▁हात	-532
काही	-533
▁आज	-534
ाणी	-535
आरोग्य	-536
वाढ	-537
णाले	-538
ओव्ही	-539
वं	-540
वत	-541
ाल	-542
ऱ्यां	-543
▁ने	-544
हिन	-545
▁ती	-546
▁केला	-547
▁होती	-548
▁असलेल्या	-549
▁एका	-550
गळ	-551
न्स	-552
▁जे	-553
▁दिस	-554
ांचे	-555
धार	-556
ोस	-557
▁प्रति	-558
▁दुस	-559
▁जास्त	-560
भार	-561
व्या	-562
▁	-563
ा	-564
¦	-565
्	-566
र	-567
य	-568
त	-569
े	-570
क	-571
ी	-572
स	-573
ल	-574
न	-575
ं	-576
ि	-577
व	-578
ह	-579
म	-580
च	-581
ण	-582
प	-583
ो	-584
आ	-585
द	-586
ग	-587
ज	-588
ु	-589
.	-590
ट	-591
श	-592
अ	-593
ू	-594
ध	-595
ब	-596
ड	-597
,	-598
ष	-599
ळ	-600
ठ	-601
ख	-602
भ	-603
थ	-604
उ	-605
घ	-606
ए	-607
झ	-608
ॉ	-609
फ	-610
-	-611
0	-612
1	-613
ढ	-614
2	-615
इ	-616
ई	-617
ऱ	-618
ॅ	-619
ऊ	-620
ृ	-621
"	-622
9	-623
ै	-624
)	-625
(	-626
ऑ	-627
'	-628
5	-629
?	-630
C	-631
ओ	-632
3	-633
4	-634
o	-635
:	-636
c	-637
i	-638
१	-639
8	-640
ँ	-641
7	-642
I	-643
6	-644
२	-645
a	-646
०	-647
e	-648
r	-649
S	-650
ञ	-651
𐊣	-652
𐊼	-653
s	-654
V	-655
औ	-656
R	-657
छ	-658
O	-659
ौ	-660
D	-661
A	-662
t	-663
𐋇	-664
d	-665
n	-666
v	-667
%	-668
४	-669
३	-670
५	-671
ः	-672
९	-673
E	-674
P	-675
h	-676
p	-677
/	-678
;	-679
६	-680
८	-681
l	-682
m	-683
H	-684
M	-685
७	-686
N	-687
u	-688
T	-689
g	-690
“	-691
़	-692
w	-693
‘	-694
’	-695
W	-696
!	-697
U	-698
G	-699
b	-700
f	-701
y	-702
ऐ	-703
”	-704
‍	-705
ऩ	-706
B	-707
L	-708
F	-709
k	-710
–	-711
•	-712
x	-713
[	-714
]	-715
#	-716
ऍ	-717
K	-718
$	-719
ऋ	-720
z	-721
q	-722
<	-723
≥	-724
j	-725
Y	-726
>	-727
+	-728
Q	-729
Z	-730
*	-731
ॲ	-732
X	-733
_	-734
×	-735
J	-736
α	-737
=	-738
β	-739
ऎ	-740
—	-741
~	-742
ß	-743
γ	-744
Å	-745
å	-746
