<pad>	0
</s>	0
<unk>	0
▁	-2.95972
s	-3.21088
▁the	-3.69759
.	-3.70665
,	-3.71639
▁to	-4.15105
e	-4.17205
▁of	-4.1841
▁and	-4.1857
ing	-4.41726
ed	-4.46848
▁a	-4.47776
d	-4.47792
t	-4.53032
▁in	-4.54238
p	-4.70543
c	-4.76432
y	-4.8728
a	-4.87755
-	-4.92827
o	-5.07043
f	-5.07083
m	-5.07534
n	-5.14307
▁for	-5.14435
▁you	-5.17954
er	-5.18742
u	-5.20076
al	-5.239
▁s	-5.29718
▁with	-5.30703
ar	-5.32111
i	-5.32163
h	-5.33694
▁your	-5.34607
in	-5.348
ly	-5.35037
r	-5.35727
▁covid	-5.39815
▁is	-5.41806
▁be	-5.44361
▁or	-5.47253
-19	-5.47918
▁The	-5.49219
g	-5.52553
▁on	-5.53367
▁that	-5.57913
▁are	-5.58476
▁as	-5.61
or	-5.63513
an	-5.65184
b	-5.65388
▁have	-5.66693
w	-5.67443
▁cases	-5.7105
▁f	-5.75493
k	-5.76077
▁from	-5.76196
is	-5.81286
re	-5.83389
en	-5.84179
▁(	-5.84279
le	-5.85715
▁not	-5.86491
▁were	-5.88661
it	-5.8913
st	-5.89293
l	-5.89871
es	-5.90735
on	-5.91123
ir	-5.92342
▁A	-5.92867
▁re	-5.98368
▁c	-6.009
▁m	-6.06422
ic	-6.07943
cov	-6.08051
ent	-6.10387
ation	-6.12035
▁can	-6.13041
▁will	-6.1401
1	-6.15302
ro	-6.15784
▁by	-6.1653
lo	-6.16608
▁was	-6.17381
▁people	-6.17829
)	-6.17989
▁w	-6.20061
at	-6.20378
0	-6.22218
▁at	-6.22776
ur	-6.2413
▁de	-6.24839
ri	-6.25648
tion	-6.26649
'	-6.27277
▁I	-6.28278
▁virus	-6.28679
se	-6.28742
v	-6.29036
▁2	-6.30588
3	-6.3115
▁health	-6.31914
▁who	-6.33057
ion	-6.33097
et	-6.34012
▁it	-6.3427
5	-6.34427
▁do	-6.34675
▁if	-6.3542
▁has	-6.36657
7	-6.40015
8	-6.40689
▁S	-6.41636
▁p	-6.41747
▁been	-6.4294
▁b	-6.43077
la	-6.43332
▁deaths	-6.44114
ch	-6.45291
▁reported	-6.45414
ad	-6.45668
th	-6.46256
▁may	-6.4665
▁an	-6.46851
6	-6.48052
9	-6.49561
▁g	-6.49943
2	-6.51393
id	-6.52057
il	-6.53731
:	-6.54087
ce	-6.5416
us	-6.54292
4	-6.54415
ive	-6.55545
ve	-6.55851
▁symptoms	-6.56907
te	-6.56909
▁test	-6.57599
▁other	-6.59498
li	-6.60152
▁You	-6.61097
▁com	-6.62158
▁con	-6.6301
▁contact	-6.63271
▁sars	-6.65219
▁4	-6.65366
ment	-6.66092
un	-6.68451
ity	-6.69063
ter	-6.69844
▁disease	-6.6995
ol	-6.7034
▁t	-6.71585
▁C	-6.72014
ac	-6.7206
ul	-6.72129
▁more	-6.72997
▁number	-6.73997
▁h	-6.74415
tra	-6.74728
▁coronavirus	-6.75588
▁app	-6.76872
▁e	-6.76874
▁should	-6.7753
as	-6.78034
▁2020	-6.78216
▁this	-6.786
▁st	-6.79766
▁P	-6.80761
▁march	-6.81133
el	-6.81434
am	-6.81592
ne	-6.82924
ct	-6.83431
ate	-6.85205
im	-6.85917
▁In	-6.87045
▁also	-6.87628
▁3	-6.88856
able	-6.89484
▁vaccine	-6.90039
uch	-6.90693
▁no	-6.91662
▁infection	-6.91663
▁On	-6.93302
tic	-6.93779
notified	-6.94141
▁ex	-6.94146
z	-6.95614
▁It	-6.97101
▁outbreak	-6.97132
▁than	-6.97165
ers	-6.97174
▁5	-6.97385
age	-6.97661
our	-6.97928
ry	-6.98281
▁countries	-6.98442
▁about	-6.98447
ight	-6.9931
▁further	-6.99326
▁time	-6.99332
had	-6.99394
▁spread	-6.9977
▁high	-6.9977
▁me	-7.00636
x	-7.01628
▁1	-7.01876
▁all	-7.0243
ies	-7.02811
▁need	-7.03029
▁This	-7.03065
▁pro	-7.03478
ng	-7.04024
qu	-7.04837
ia	-7.05759
▁face	-7.05763
mo	-7.06008
"	-7.06359
▁home	-7.06693
▁which	-7.07164
▁when	-7.07167
▁total	-7.07275
▁close	-7.07655
▁person	-7.08134
▁po	-7.08158
▁"	-7.08946
-2	-7.09399
ide	-7.09431
um	-7.09872
ra	-7.09931
ver	-7.10335
▁dis	-7.10902
▁over	-7.12165
end	-7.12573
▁ma	-7.12773
ck	-7.12978
▁new	-7.13121
▁pandemic	-7.13601
est	-7.13785
▁use	-7.13906
▁after	-7.14127
if	-7.14282
om	-7.14966
▁one	-7.15775
▁di	-7.15968
▁risk	-7.16194
ance	-7.16917
▁they	-7.17584
▁patients	-7.17793
▁tr	-7.18655
act	-7.1929
▁under	-7.194
ine	-7.19528
▁public	-7.19904
ig	-7.2046
ph	-7.21245
▁get	-7.21536
j	-7.22007
▁first	-7.22144
▁confirmed	-7.22276
ther	-7.22945
and	-7.23073
▁un	-7.23203
ab	-7.25379
▁v	-7.25421
▁some	-7.25558
ary	-7.26141
po	-7.26549
▁data	-7.26701
▁travel	-7.26703
▁any	-7.26964
▁work	-7.27755
▁china	-7.27873
▁human	-7.28464
ated	-7.29492
▁go	-7.31193
▁co	-7.32088
▁hands	-7.32192
▁bring	-7.32681
▁government	-7.32707
▁care	-7.32896
▁pa	-7.33114
▁including	-7.33748
▁but	-7.33969
▁sh	-7.34482
vi	-7.34623
ence	-7.35619
▁we	-7.35676
▁hospital	-7.35852
▁cover	-7.36096
▁protect	-7.37139
rt	-7.3728
▁case	-7.37386
▁so	-7.38391
▁result	-7.38441
due	-7.39442
▁child	-7.39758
ru	-7.40346
▁february	-7.40428
▁n	-7.41379
ting	-7.41499
▁stay	-7.41788
▁mask	-7.41794
sure	-7.42937
out	-7.42955
▁10	-7.44129
▁days	-7.44697
▁ac	-7.44961
▁up	-7.4507
all	-7.4561
ge	-7.45758
▁help	-7.45932
▁cause	-7.45993
ach	-7.46287
▁unit	-7.46324
ial	-7.46548
▁two	-7.46643
▁others	-7.48415
ous	-7.48762
▁Do	-7.48795
▁he	-7.48894
;	-7.49525
▁li	-7.50813
▁those	-7.51006
▁pre	-7.51674
▁january	-7.51747
▁ra	-7.51747
ian	-7.52057
ip	-7.52289
▁respirator	-7.52499
▁positive	-7.52499
▁us	-7.52539
▁these	-7.53139
▁call	-7.53631
▁6	-7.53768
▁school	-7.53817
▁previously	-7.55564
▁most	-7.55601
▁available	-7.56346
▁develop	-7.56346
like	-7.56456
▁dur	-7.56568
ell	-7.57389
▁them	-7.57762
line	-7.57859
▁gp	-7.58562
▁o	-7.59142
▁out	-7.59192
▁day	-7.60045
▁medical	-7.6035
▁week	-7.60353
▁infected	-7.60565
▁l	-7.60765
▁ca	-7.61049
up	-7.6108
▁include	-7.61166
ould	-7.62494
▁hcov	-7.62646
▁system	-7.62826
▁H	-7.62849
▁per	-7.63676
▁tested	-7.63691
day	-7.63947
ll	-7.64137
ib	-7.64246
che	-7.64267
iv	-7.64303
ok	-7.64521
ice	-7.64783
▁Re	-7.64801
many	-7.64884
▁transmission	-7.65368
for	-7.65505
ical	-7.65528
less	-7.6583
▁between	-7.6623
▁illness	-7.66232
▁age	-7.66459
▁host	-7.66463
▁possible	-7.671
▁take	-7.67221
▁advice	-7.67977
▁bat	-7.68863
▁20	-7.69056
▁april	-7.69755
way	-7.69756
▁inter	-7.71187
ma	-7.71339
▁million	-7.71565
▁children	-7.7163
▁wear	-7.72317
▁We	-7.72482
▁place	-7.72498
).	-7.73045
▁k	-7.73215
▁provide	-7.73411
▁visit	-7.73411
ill	-7.73807
-19.	-7.74771
▁could	-7.75623
▁7	-7.75822
▁recommend	-7.76238
▁restrictions	-7.76244
▁treatment	-7.76282
▁state	-7.76323
▁14	-7.7658
▁An	-7.76671
to	-7.7707
▁its	-7.77238
▁hand	-7.77291
▁states	-7.77449
▁relat	-7.7745
ts	-7.77771
▁prevent	-7.78172
▁country	-7.78173
▁severe	-7.78189
▁9	-7.78878
▁there	-7.7908
▁response	-7.79151
▁social	-7.79152
ness	-7.79545
▁only	-7.79998
▁world	-7.80141
▁ireland	-7.80142
▁receive	-7.80143
▁part	-7.80563
▁announced	-7.81141
▁long	-7.81168
▁into	-7.82516
),	-7.82662
com	-7.82922
▁through	-7.83172
▁control	-7.83172
ities	-7.83788
▁don	-7.84691
▁ro	-7.85128
▁measures	-7.85245
▁while	-7.85245
▁level	-7.85256
▁death	-7.85439
ating	-7.85476
▁well	-7.85623
na	-7.85805
▁Co	-7.86361
▁8	-7.86732
▁centre	-7.87366
▁sign	-7.8737
00	-7.87997
ex	-7.88277
▁show	-7.8844
ute	-7.89797
▁how	-7.89816
ase	-7.89907
▁before	-7.9181
▁u	-7.92021
▁away	-7.92096
old	-7.92396
ally	-7.92664
▁food	-7.93082
▁make	-7.93214
▁19	-7.93283
▁anti	-7.93885
▁every	-7.94154
▁testing	-7.94203
io	-7.94294
the	-7.94551
▁Th	-7.94748
▁information	-7.95143
▁group	-7.95143
▁someone	-7.95152
▁cough	-7.95177
▁car	-7.95355
▁increase	-7.96305
▁same	-7.96341
▁quarantine	-7.97482
▁where	-7.97482
▁community	-7.98672
▁immun	-7.98672
▁national	-7.98679
▁being	-7.99967
▁vaccines	-8.01027
▁restrict	-8.01091
▁against	-8.01204
▁emergency	-8.02331
▁direct	-8.02332
viral	-8.02399
▁There	-8.02664
▁imp	-8.02741
land	-8.03044
▁par	-8.03221
▁second	-8.03581
▁wuhan	-8.03581
▁used	-8.03695
▁br	-8.0491
ake	-8.05633
▁24	-8.05699
▁even	-8.06111
▁education	-8.06129
▁require	-8.0613
▁large	-8.0613
▁protein	-8.06131
resident	-8.06135
▁fever	-8.06143
▁early	-8.06144
▁share	-8.06392
▁11	-8.06816
▁When	-8.07428
▁students	-8.07428
▁contain	-8.07428
▁follow	-8.07514
▁schools	-8.07774
▁services	-8.0858
▁flu	-8.08761
▁report	-8.08899
gra	-8.08957
▁late	-8.08959
▁eas	-8.0931
▁cha	-8.09735
▁non	-8.10017
▁conditions	-8.10077
▁order	-8.10233
▁rate	-8.10538
▁nose	-8.10988
▁support	-8.11428
▁phone	-8.11429
▁detect	-8.1143
▁italy	-8.11478
▁ho	-8.12527
▁found	-8.12798
▁doctor	-8.12801
▁limit	-8.12802
▁clean	-8.12808
▁live	-8.12829
▁june	-8.12907
▁effective	-8.12934
▁12	-8.13315
▁15	-8.13401
▁breath	-8.14187
▁reduce	-8.14187
▁issued	-8.14191
▁what	-8.14205
▁service	-8.1436
gu	-8.14883
▁mers	-8.1535
▁sample	-8.15596
▁least	-8.15597
inister	-8.15602
▁areas	-8.16121
vel	-8.16842
▁important	-8.17024
▁trial	-8.172
very	-8.17355
▁known	-8.17361
▁give	-8.17979
▁bo	-8.18151
▁surveillance	-8.18473
▁south	-8.18486
▁short	-8.18495
▁keep	-8.1851
▁clinical	-8.18696
▁hse	-8.19784
▁effect	-8.19799
put	-8.19906
▁movements	-8.19944
▁down	-8.19957
▁self	-8.19963
▁chest	-8.20002
based	-8.2013
▁ju	-8.20181
▁population	-8.21436
▁chinese	-8.21437
▁healthcare	-8.21437
▁2019	-8.21437
▁attend	-8.21444
ose	-8.21736
?	-8.22952
▁estimate	-8.22952
▁open	-8.2296
▁sever	-8.22988
▁around	-8.23532
▁pain	-8.24104
▁23	-8.24236
▁plan	-8.24403
▁No	-8.2449
▁appointment	-8.2449
▁immediate	-8.2449
essential	-8.2449
▁avoid	-8.2449
▁years	-8.2449
▁animal	-8.24494
▁until	-8.24495
▁workers	-8.24807
isolate	-8.25516
▁much	-8.25532
▁For	-8.26052
▁Mo	-8.26053
▁center	-8.26091
▁see	-8.26496
▁affected	-8.26684
,000	-8.27336
ccording	-8.2764
▁closures	-8.2764
▁drug	-8.2764
▁remain	-8.27642
▁start	-8.277
▁cell	-8.2826
not	-8.28376
▁collect	-8.29253
▁allow	-8.29262
▁common	-8.29265
▁following	-8.30783
lockdown	-8.30892
▁global	-8.30892
though	-8.30893
▁13	-8.31637
▁viruses	-8.31801
tric	-8.32541
▁individual	-8.32559
▁safe	-8.32559
▁However	-8.3256
▁feel	-8.32584
▁produc	-8.34255
▁origin	-8.3426
ized	-8.35449
▁30	-8.35966
▁dublin	-8.35978
▁international	-8.35978
▁study	-8.35978
▁mouth	-8.35981
▁hours	-8.36011
▁usual	-8.36053
▁18	-8.36697
ize	-8.37434
▁december	-8.37732
▁practice	-8.37732
▁change	-8.3776
ood	-8.38396
▁because	-8.39518
▁occur	-8.39518
▁tracking	-8.39518
▁among	-8.39523
▁recover	-8.39535
▁sub	-8.39579
▁current	-8.41336
▁major	-8.41337
▁alert	-8.41357
▁last	-8.41466
▁often	-8.41613
▁200	-8.42021
▁epidemic	-8.43188
▁example	-8.43188
mission	-8.43189
cross	-8.43289
▁both	-8.43409
▁meter	-8.43904
▁official	-8.45075
▁blood	-8.45075
▁another	-8.45079
▁body	-8.45087
▁16	-8.45803
▁22	-8.45923
▁negative	-8.46998
▁transport	-8.46998
▁general	-8.46998
▁Some	-8.47007
▁great	-8.47008
▁must	-8.4704
▁find	-8.47088
count	-8.4724
▁continue	-8.48959
▁different	-8.48959
▁especially	-8.48959
▁declar	-8.48959
▁three	-8.48961
▁become	-8.48992
▁made	-8.49064
▁cold	-8.49511
í	-8.50959
▁family	-8.50959
ability	-8.50959
▁local	-8.50963
▁month	-8.50965
▁regula	-8.50967
▁events	-8.51098
▁addition	-8.52999
▁department	-8.52999
▁difficult	-8.52999
▁surface	-8.52999
▁Covid	-8.53001
▁leav	-8.53032
▁impact	-8.53132
▁enter	-8.53614
▁similar	-8.55083
▁european	-8.55281
▁cho	-8.55948
▁But	-8.5721
▁organization	-8.5721
▁yourself	-8.57211
▁advis	-8.57216
▁safety	-8.57221
▁since	-8.5724
▁water	-8.5725
▁rna	-8.57268
▁vari	-8.57297
▁research	-8.59384
▁infectious	-8.59384
▁staff	-8.59384
▁korea	-8.59388
▁phase	-8.59407
isolation	-8.59444
▁still	-8.59712
0,000	-8.59962
▁having	-8.61607
▁return	-8.61607
▁consider	-8.61607
▁normal	-8.61607
▁worldwide	-8.61607
▁assess	-8.61626
▁fines	-8.61697
ology	-8.63851
ugh	-8.63868
▁pneumonia	-8.63879
▁period	-8.6388
▁back	-8.6389
▁team	-8.63944
species	-8.66205
▁identified	-8.66205
▁tracker	-8.66205
▁concern	-8.66205
▁record	-8.66205
▁outside	-8.66216
▁region	-8.66216
▁indicat	-8.66227
ymptomatic	-8.66231
▁right	-8.66334
▁near	-8.66403
▁Rea	-8.67776
▁laboratory	-8.68586
ological	-8.68586
▁africa	-8.68586
▁reopen	-8.68586
▁however	-8.68589
▁rapid	-8.68591
▁house	-8.68602
▁county	-8.68635
▁said	-8.68635
▁nurs	-8.68664
▁equipment	-8.71025
▁genome	-8.71025
▁disinfect	-8.71025
▁Stay	-8.71025
▁2021	-8.71026
▁suspect	-8.71028
▁remove	-8.71028
member	-8.71028
▁mild	-8.71052
▁stop	-8.71108
▁refer	-8.71113
ttle	-8.72076
▁know	-8.72934
eep	-8.73142
▁economi	-8.73525
▁suggest	-8.73525
▁screen	-8.73525
▁corona	-8.73542
▁wait	-8.73556
▁sick	-8.73575
▁date	-8.7393
▁Wash	-8.76089
▁associated	-8.76089
▁influenza	-8.76089
▁syndrome	-8.76089
▁vaccinated	-8.76089
▁daily	-8.76089
▁america	-8.76089
▁How	-8.76094
▁baby	-8.76095
tory	-8.76227
▁manag	-8.76384
▁iran	-8.76403
▁learning	-8.7872
▁vaccination	-8.7872
▁properly	-8.78721
▁market	-8.78721
▁monitor	-8.78721
▁adapt	-8.78721
pharmac	-8.81423
▁Open	-8.81423
▁cyberattack	-8.81423
▁distancing	-8.81423
▁evidence	-8.81423
▁involv	-8.81423
tensive	-8.81425
▁own	-8.81435
▁small	-8.81442
▁arriv	-8.81449
▁worse	-8.81457
▁recent	-8.81458
▁identi	-8.82173
ontact	-8.83932
▁cluster	-8.84201
▁happen	-8.84201
▁separation	-8.84201
▁sneezing	-8.84201
▁mobil	-8.84201
▁perform	-8.84202
▁access	-8.84203
▁women	-8.84205
▁release	-8.84208
▁prepar	-8.84219
▁few	-8.8433
▁treat	-8.84373
organ	-8.84861
▁code	-8.84888
came	-8.85829
eople	-8.86844
▁exercise	-8.87058
▁potential	-8.87058
▁intermedia	-8.87058
▁type	-8.87062
▁variant	-8.87064
▁extend	-8.87064
▁source	-8.8707
▁present	-8.87095
▁name	-8.87434
▁full	-8.87934
▁affect	-8.88812
▁already	-8.89999
▁antibodies	-8.89999
▁experienc	-8.89999
▁particular	-8.89999
▁outdoor	-8.89999
▁history	-8.9
▁lung	-8.90004
▁distance	-8.90006
spect	-8.90008
efore	-8.92719
▁authorities	-8.9303
▁establish	-8.9303
▁natural	-8.9303
▁primary	-8.9303
▁significant	-8.9303
▁temperature	-8.9303
▁exposure	-8.9303
▁priva	-8.93034
▁free	-8.93153
round	-8.94985
▁arrange	-8.96155
▁details	-8.96155
▁pangolin	-8.96155
▁pregnant	-8.96155
▁critical	-8.96155
▁effort	-8.96155
▁medication	-8.96155
▁indoor	-8.96157
▁process	-8.96157
▁initial	-8.96173
▁creat	-8.96759
coronavirus	-8.97485
▁hygiene	-8.9938
▁shopping	-8.9938
▁transmit	-8.9938
▁workplace	-8.9938
▁serious	-8.99381
▁emerg	-8.99381
▁implement	-8.99381
▁prior	-8.99393
▁alone	-8.99416
▁special	-9.02714
▁Follow	-9.02714
▁cancelled	-9.02714
▁medicine	-9.02714
▁household	-9.02714
229	-9.03767
▁executive	-9.06162
▁pregnancy	-9.06162
▁tempora	-9.06162
▁gathering	-9.06162
▁adults	-9.06162
▁crowd	-9.06162
▁method	-9.06162
▁season	-9.06163
▁hotel	-9.06166
▁link	-9.0618
▁again	-9.09418
▁brazil	-9.09733
▁business	-9.09733
▁necessary	-9.09733
▁programme	-9.09733
▁published	-9.09733
▁drink	-9.09734
▁attack	-9.09734
▁crisis	-9.09734
rcgp	-9.09735
▁location	-9.09735
▁monday	-9.09737
▁cloth	-9.09747
▁depend	-9.09747
▁update	-9.09879
pathogenic	-9.11495
▁europe	-9.13083
inflammat	-9.13437
▁analysis	-9.13437
▁hubei	-9.13437
▁mortality	-9.13437
▁observ	-9.13437
▁suspend	-9.13437
▁zoono	-9.13437
▁breast	-9.13437
▁third	-9.1344
▁breach	-9.13443
▁left	-9.13452
▁north	-9.13788
▁patient	-9.17183
▁activity	-9.17283
▁citizens	-9.17283
▁figures	-9.17283
▁guidelines	-9.17283
▁reservoir	-9.17283
▁taking	-9.17284
▁drive	-9.17311
▁deliver	-9.17341
▁approximate	-9.21283
▁certificate	-9.21283
▁increasing	-9.21283
▁mandatory	-9.21283
▁multiple	-9.21283
▁physical	-9.21283
▁receptor	-9.21283
▁restaurant	-9.21283
▁technology	-9.21283
▁university	-9.21283
▁sequence	-9.21283
▁studies	-9.21283
▁Health	-9.21283
▁complete	-9.21283
▁enough	-9.21283
▁design	-9.21284
▁billion	-9.21285
nique	-9.2134
▁clinic	-9.24804
▁diagnosis	-9.2545
▁future	-9.2545
▁middle	-9.2545
▁throat	-9.2545
▁infect	-9.28432
hildren	-9.29503
▁Coronavirus	-9.29798
▁address	-9.29798
▁certain	-9.29798
▁maintain	-9.29798
▁unknown	-9.29798
▁fatality	-9.29798
▁progress	-9.29798
▁situation	-9.29798
▁childcare	-9.29798
▁virology	-9.29798
▁camels	-9.29799
▁foot	-9.29799
generat	-9.29923
▁describ	-9.34343
▁droplets	-9.34343
▁efficacy	-9.34343
▁elderly	-9.34343
▁province	-9.34343
▁tissue	-9.34343
q	-9.43554
C	-10.853
A	-11.9369
I	-11.9373
’	-12.9382
V	-12.9383
U	-12.9384
G	-12.9385
–	-12.9386
N	-12.9387
L	-12.9388
/	-12.9389
E	-12.939
R	-12.9391
F	-12.9392
B	-12.9393
%	-12.9394
M	-12.9395
P	-12.9396
D	-12.9397
Y	-12.9398
W	-12.9399
O	-12.94
S	-12.9401
(	-12.9402
H	-12.9403
T	-12.9403
