<pad>	0
</s>	0
<unk>	0
なた	-0
あなた	-1
って	-2
たし	-3
わたし	-4
その	-5
った	-6
であ	-7
ない	-8
して	-9
から	-10
こと	-11
われ	-12
である	-13
彼ら	-14
あなたが	-15
たち	-16
よう	-17
あなたがた	-18
また	-19
した	-20
られ	-21
、「	-22
」。	-23
なら	-24
わたしは	-25
エル	-26
これ	-27
いる	-28
あなたの	-29
それ	-30
ように	-31
さい	-32
言った	-33
ため	-34
この	-35
の子	-36
いた	-37
する	-38
され	-39
べて	-40
ので	-41
わたしの	-42
いて	-43
ならない	-44
ろう	-45
すべて	-46
なる	-47
イス	-48
ラエル	-49
イスラエル	-50
ある	-51
ために	-52
れば	-53
主は	-54
かし	-55
人々	-56
びと	-57
あなたは	-58
には	-59
彼らは	-60
であろう	-61
主の	-62
もの	-63
言われ	-64
ことを	-65
者は	-66
すべての	-67
▁そ	-68
なさい	-69
エス	-70
イスラエルの	-71
をも	-72
によ	-73
イエス	-74
彼は	-75
うち	-76
られた	-77
ければ	-78
なければ	-79
こう	-80
自分	-81
しかし	-82
られる	-83
ます	-84
かった	-85
これを	-86
くだ	-87
あなたがたの	-88
もろ	-89
しい	-90
なければならない	-91
ことが	-92
んで	-93
▁その	-94
あなたがたは	-95
われわれ	-96
なわ	-97
えて	-98
れる	-99
なかった	-100
んだ	-101
れた	-102
わが	-103
のために	-104
わたしを	-105
わたしが	-106
わたしたち	-107
れて	-108
によって	-109
すなわ	-110
すなわち	-111
どう	-112
させ	-113
人の	-114
をもって	-115
ンの	-116
からである	-117
わたしに	-118
こで	-119
きて	-120
ょう	-121
およ	-122
ください	-123
言葉	-124
を見	-125
える	-126
ユダ	-127
された	-128
とり	-129
のうち	-130
言われた	-131
および	-132
でき	-133
では	-134
につ	-135
▁また	-136
もし	-137
神の	-138
ころ	-139
なく	-140
のように	-141
っている	-142
前に	-143
に言った	-144
共に	-145
のか	-146
ダビ	-147
ダビデ	-148
それを	-149
彼らの	-150
はならない	-151
えた	-152
まで	-153
らせ	-154
とを	-155
▁わたしは	-156
とな	-157
きた	-158
彼らを	-159
ました	-160
であった	-161
とき	-162
主が	-163
のである	-164
とに	-165
自分の	-166
▁しかし	-167
▁そこで	-168
ささ	-169
祭司	-170
これは	-171
人を	-172
あなたを	-173
神は	-174
ひとり	-175
つか	-176
ことは	-177
▁それ	-178
しょう	-179
ゆえ	-180
人は	-181
たちは	-182
リヤ	-183
ところ	-184
主に	-185
アブ	-186
上に	-187
あなたに	-188
ことができ	-189
です	-190
があ	-191
べき	-192
として	-193
おの	-194
、『	-195
ささげ	-196
らの	-197
モー	-198
モーセ	-199
そう	-200
ませ	-201
される	-202
者の	-203
と共に	-204
にな	-205
物を	-206
だれ	-207
▁主は	-208
の中	-209
そして	-210
おり	-211
レム	-212
▁そして	-213
サレム	-214
事を	-215
エルサレム	-216
兄弟	-217
者を	-218
みな	-219
かって	-220
行って	-221
こに	-222
もろの	-223
シャ	-224
と言	-225
彼を	-226
彼らに	-227
のです	-228
もろもろの	-229
める	-230
はその	-231
受け	-232
エジ	-233
地に	-234
言われる	-235
出て	-236
プト	-237
エジプト	-238
人々は	-239
めた	-240
つの	-241
ならば	-242
めて	-243
のは	-244
とい	-245
の王	-246
かに	-247
人が	-248
彼女	-249
彼に	-250
イエスは	-251
者が	-252
取り	-253
命じ	-254
見よ	-255
預言	-256
▁彼らは	-257
キリ	-258
滅ぼ	-259
とその	-260
彼の	-261
ロン	-262
行った	-263
にある	-264
しも	-265
▁あなたは	-266
の家	-267
にも	-268
スト	-269
多く	-270
らは	-271
あなたがたに	-272
の子孫	-273
であって	-274
しく	-275
▁彼は	-276
けて	-277
▁「	-278
ごと	-279
しもべ	-280
キリスト	-281
ただ	-282
にあ	-283
わせ	-284
について	-285
こうして	-286
ている	-287
でしょう	-288
しみ	-289
所に	-290
たちの	-291
与え	-292
サウ	-293
王の	-294
地の	-295
ません	-296
ごとく	-297
りを	-298
主よ	-299
言葉を	-300
ける	-301
びとの	-302
それは	-303
行き	-304
るであろう	-305
▁この	-306
りの	-307
いに	-308
ルの	-309
ムの	-310
わざ	-311
食べ	-312
をあ	-313
いつ	-314
したが	-315
彼らが	-316
言う	-317
にお	-318
告げ	-319
とし	-320
とは	-321
あなたがたが	-322
ことごとく	-323
とおり	-324
ような	-325
の間	-326
これらの	-327
かの	-328
います	-329
人に	-330
民は	-331
立って	-332
王は	-333
いを	-334
さば	-335
罪を	-336
かな	-337
行く	-338
主を	-339
モン	-340
イスラエルの人々	-341
もとに	-342
来る	-343
シュ	-344
ヤコ	-345
者に	-346
ヤコブ	-347
よい	-348
われわれの	-349
かた	-350
彼が	-351
捨て	-352
祭壇	-353
けた	-354
のうちに	-355
名を	-356
を受け	-357
手に	-358
聞き	-359
われわれは	-360
すると	-361
民を	-362
より	-363
ではない	-364
らない	-365
手を	-366
たちを	-367
あなたがたを	-368
わたしたちは	-369
を得	-370
エリ	-371
るぎ	-372
でも	-373
立ち	-374
たちが	-375
となる	-376
多くの	-377
日に	-378
主なる	-379
のだ	-380
▁ア	-381
律法	-382
とする	-383
の上に	-384
あり	-385
いなる	-386
つかわ	-387
▁あなたの	-388
している	-389
っていた	-390
いだ	-391
かつ	-392
身を	-393
地を	-394
とが	-395
先祖	-396
心を	-397
しる	-398
ニヤ	-399
ルは	-400
立て	-401
むかって	-402
たちに	-403
あが	-404
つるぎ	-405
▁さ	-406
民の	-407
そこに	-408
いの	-409
と言った	-410
レビ	-411
一緒	-412
すれば	-413
その子	-414
いなさい	-415
聖なる	-416
まえ	-417
なが	-418
聞いて	-419
大いなる	-420
しき	-421
定め	-422
▁もし	-423
しま	-424
正しい	-425
をお	-426
を行	-427
つかさ	-428
▁あなたがたは	-429
かせ	-430
神に	-431
という	-432
となり	-433
ぶどう	-434
ふた	-435
パン	-436
部族	-437
んな	-438
ものは	-439
かわ	-440
のに	-441
がある	-442
建て	-443
対して	-444
に住	-445
▁こうして	-446
ラム	-447
ユダヤ	-448
なお	-449
呼ば	-450
ゆる	-451
ものを	-452
は言った	-453
時に	-454
知恵	-455
にはい	-456
どうして	-457
ども	-458
一緒に	-459
る者は	-460
リシ	-461
のを	-462
いは	-463
のですか	-464
わたしたちの	-465
ると	-466
引き	-467
預言者	-468
はい	-469
にしたが	-470
になった	-471
弟子	-472
のを見	-473
ソロ	-474
であり	-475
を守	-476
のない	-477
らに	-478
契約	-479
よりも	-480
軍の	-481
生き	-482
ダビデは	-483
喜び	-484
ためである	-485
町々	-486
神を	-487
▁さて	-488
る者	-489
幕屋	-490
▁それゆえ	-491
に従	-492
追い	-493
▁すなわち	-494
』。	-495
恵み	-496
るように	-497
とど	-498
打ち	-499
氏族	-500
ないで	-501
ユダの	-502
おのおの	-503
いで	-504
ビト	-505
栄光	-506
キュ	-507
キュビト	-508
の中に	-509
神が	-510
取って	-511
▁ヨ	-512
バビ	-513
なり	-514
からだ	-515
連れて	-516
ものである	-517
げて	-518
キヤ	-519
パロ	-520
セフ	-521
信じ	-522
恐れ	-523
ひとりの	-524
▁イエスは	-525
これに	-526
ペリシ	-527
ペリシテ	-528
なぜ	-529
燔祭	-530
荒野	-531
となった	-532
ることができ	-533
同じ	-534
祝福	-535
があり	-536
ンは	-537
一つ	-538
なった	-539
ること	-540
りに	-541
ゆえに	-542
いと	-543
レア	-544
他の	-545
シュア	-546
にしたがって	-547
らを	-548
ラハ	-549
信仰	-550
とした	-551
一つの	-552
ことはない	-553
との	-554
大き	-555
万軍の	-556
向かって	-557
エジプトの	-558
道を	-559
こう言われる	-560
てください	-561
に言われた	-562
アロン	-563
人の子	-564
よく	-565
を造	-566
心に	-567
おまえ	-568
ほかの	-569
スリヤ	-570
まず	-571
ライ	-572
ロンの	-573
帰って	-574
しえ	-575
もまた	-576
▁すると	-577
と言う	-578
罪を犯	-579
さばき	-580
ではないか	-581
エフ	-582
日の	-583
前で	-584
良い	-585
をささげ	-586
十二	-587
うちに	-588
そこ	-589
だけ	-590
入れ	-591
思い	-592
われた	-593
われる	-594
があった	-595
ましょう	-596
ケル	-597
宮の	-598
家に	-599
アブラハ	-600
られて	-601
とも	-602
尋ね	-603
ことを知	-604
をつ	-605
ソロモン	-606
供え	-607
ってはならない	-608
だから	-609
しなさい	-610
びとは	-611
と一緒に	-612
主なる神は	-613
▁その時	-614
主の前に	-615
の木	-616
子を	-617
悪しき	-618
の前に	-619
かり	-620
のが	-621
民に	-622
そこで	-623
出して	-624
んでいる	-625
のある	-626
上って	-627
かえ	-628
アル	-629
ながら	-630
むべき	-631
アビ	-632
二十	-633
かれた	-634
どうぞ	-635
あなたの神	-636
の上	-637
死んだ	-638
聞いた	-639
サム	-640
きょう	-641
滅び	-642
ところに	-643
マリヤ	-644
ところが	-645
そうすれば	-646
所で	-647
▁これは	-648
だれが	-649
どうか	-650
答えて	-651
たちよ	-652
なん	-653
嗣業	-654
を取り	-655
とおりである	-656
せよ	-657
がよい	-658
されて	-659
ムは	-660
しない	-661
ヨセフ	-662
モーセは	-663
ここに	-664
人々が	-665
出た	-666
るべき	-667
殺した	-668
イエスの	-669
とこ	-670
仰せ	-671
助け	-672
とこしえ	-673
者である	-674
ってお	-675
まだ	-676
▁わたしの	-677
町の	-678
オン	-679
のでは	-680
国の	-681
または	-682
下さ	-683
パウ	-684
常に	-685
パウロ	-686
与える	-687
はや	-688
投げ	-689
にいる	-690
愛する	-691
してはならない	-692
と思	-693
のよう	-694
ルダ	-695
必ず	-696
ろうか	-697
あわれ	-698
ベア	-699
次の	-700
犠牲	-701
持って	-702
の方	-703
撃ち	-704
者も	-705
いつく	-706
あら	-707
満ち	-708
▁見よ	-709
えられた	-710
ことがない	-711
ことに	-712
になって	-713
▁エ	-714
悪い	-715
とどま	-716
あかし	-717
あった	-718
そむ	-719
国々	-720
導き	-721
集ま	-722
おお	-723
に至	-724
の長	-725
を知	-726
攻め	-727
▁主よ	-728
してください	-729
の一	-730
アハ	-731
会衆	-732
▁わたしが	-733
りは	-734
アン	-735
呼び	-736
小羊	-737
水を	-738
ようか	-739
サウル	-740
モアブ	-741
生きて	-742
あるいは	-743
主は言われる	-744
あの	-745
らず	-746
死ぬ	-747
アシ	-748
安息	-749
を建て	-750
イエスを	-751
再び	-752
周囲	-753
救い	-754
ずから	-755
それに	-756
とって	-757
テロ	-758
彼女は	-759
すぐ	-760
▁わが	-761
のうちから	-762
のろ	-763
ベテ	-764
地は	-765
させた	-766
携えて	-767
近づ	-768
をする	-769
ダビデの	-770
をか	-771
なし	-772
戒め	-773
父の	-774
からです	-775
名は	-776
群れ	-777
いない	-778
させる	-779
与えた	-780
カル	-781
▁神は	-782
わなければならない	-783
カナ	-784
目に	-785
びとを	-786
もない	-787
いつくしみ	-788
のすべての	-789
タン	-790
感謝	-791
ヨルダ	-792
手から	-793
いや	-794
など	-795
れている	-796
群衆	-797
金の	-798
▁主の	-799
わせて	-800
ありません	-801
命じられた	-802
エルサレムに	-803
かれ	-804
つく	-805
をし	-806
神よ	-807
わった	-808
まさ	-809
ザル	-810
ミヤ	-811
来て	-812
油を	-813
』」。	-814
ニヤミ	-815
下って	-816
恐れる	-817
これらは	-818
エフライ	-819
らなければならない	-820
わず	-821
宿営	-822
らせた	-823
すで	-824
互に	-825
出し	-826
言い	-827
ユダの王	-828
神々	-829
かれる	-830
ついに	-831
を見て	-832
の子らは	-833
ベニヤミ	-834
主である	-835
▁ところが	-836
あげ	-837
異邦	-838
はず	-839
がその	-840
できない	-841
ヨシュア	-842
いま	-843
命を	-844
自身	-845
血を	-846
高き	-847
おきて	-848
ペテロ	-849
与えて	-850
ではなく	-851
にあって	-852
捕え	-853
聞く	-854
求める	-855
きなさい	-856
ないように	-857
マナ	-858
中に	-859
住む	-860
求め	-861
滅ぼす	-862
しろ	-863
の下	-864
者と	-865
を行う	-866
またその	-867
ることを	-868
王に	-869
聖所	-870
逃げ	-871
みが	-872
人々に	-873
あなたと	-874
語り	-875
答えた	-876
しめ	-877
レク	-878
ほめた	-879
おられる	-880
みを	-881
すでに	-882
とこしえに	-883
バビロンの	-884
おう	-885
時は	-886
言葉が	-887
▁それで	-888
イエスが	-889
エルサレムの	-890
わた	-891
目を	-892
していた	-893
ほめたた	-894
わたしはあなたの	-895
ほど	-896
長老	-897
になる	-898
みずから	-899
言いなさい	-900
じて	-901
切り	-902
せて	-903
まま	-904
天幕	-905
しるし	-906
られます	-907
このように	-908
ヨハ	-909
祭の	-910
どんな	-911
二つの	-912
りなさい	-913
イスラエルの人々は	-914
とめ	-915
サイ	-916
不義	-917
離れ	-918
レミヤ	-919
であろうか	-920
すみ	-921
モンの	-922
から出て	-923
されている	-924
カイ	-925
仕え	-926
真実	-927
雄羊	-928
を見た	-929
怒り	-930
たちと	-931
臨んだ	-932
▁それから	-933
を結	-934
永遠	-935
あなたがたの神	-936
三十	-937
を与え	-938
命じて	-939
レビびと	-940
ことができる	-941
バル	-942
貧しい	-943
るために	-944
アブラハム	-945
がない	-946
しよう	-947
にか	-948
物は	-949
による	-950
おこ	-951
もう	-952
やぎ	-953
一頭	-954
初め	-955
奴隷	-956
子供	-957
に従って	-958
らなかった	-959
キリストの	-960
のぼ	-961
テの	-962
デヤ	-963
入口	-964
国を	-965
家の	-966
ったので	-967
出す	-968
道に	-969
もはや	-970
マナセ	-971
と言って	-972
サムエル	-973
きを	-974
たく	-975
呼ばわ	-976
サウルは	-977
主にささげ	-978
焼き	-979
ゼル	-980
の幕屋	-981
こう仰せ	-982
ろば	-983
ヨナ	-984
心は	-985
約束	-986
われらの	-987
ッパ	-988
雄牛	-989
青銅	-990
出した	-991
いている	-992
イサ	-993
偶像	-994
これが	-995
ったが	-996
愚かな	-997
のほ	-998
むす	-999
めぐ	-1000
わし	-1001
ジヤ	-1002
強く	-1003
殺し	-1004
の中で	-1005
イサク	-1006
レアデ	-1007
仕える	-1008
大きな	-1009
があって	-1010
ッスリヤ	-1011
ユダヤ人	-1012
と言われた	-1013
にむかって	-1014
かが	-1015
エド	-1016
声を	-1017
御使	-1018
軍勢	-1019
顔を	-1020
勇士	-1021
喜ば	-1022
持ち	-1023
苦しみ	-1024
にはいって	-1025
を生	-1026
会見	-1027
悩み	-1028
落ち	-1029
主の宮	-1030
前から	-1031
かい	-1032
アヒ	-1033
五十	-1034
▁ただ	-1035
命じた	-1036
自分を	-1037
ギレアデ	-1038
モーセに言われた	-1039
アマ	-1040
セラ	-1041
者よ	-1042
と言い	-1043
パンを	-1044
汚れた	-1045
イスラエルの王	-1046
の門	-1047
ごとに	-1048
により	-1049
るまで	-1050
わない	-1051
滅ぼし	-1052
につかわ	-1053
われわれを	-1054
知っている	-1055
らい	-1056
シメ	-1057
国に	-1058
女は	-1059
離れて	-1060
わい	-1061
もなく	-1062
人々の	-1063
人々を	-1064
地から	-1065
わたしたちが	-1066
彼らに言った	-1067
えを	-1068
きに	-1069
さない	-1070
に住む	-1071
産んだ	-1072
▁それは	-1073
イスラエルを	-1074
くる	-1075
若い	-1076
それで	-1077
およびその	-1078
彼に言った	-1079
よろ	-1080
城壁	-1081
悪を	-1082
王が	-1083
その時	-1084
らかに	-1085
属する	-1086
つかわして	-1087
ヒゼ	-1088
割礼	-1089
家畜	-1090
心の	-1091
集め	-1092
はまた	-1093
生れた	-1094
ヒゼキヤ	-1095
▁ダビデは	-1096
のではない	-1097
衣服	-1098
あって	-1099
たちも	-1100
たとい	-1101
だれも	-1102
その人は	-1103
のような	-1104
サマリヤ	-1105
合わせて	-1106
▁あなたが	-1107
次のとおりである	-1108
ああ	-1109
えよ	-1110
すわ	-1111
事は	-1112
来た	-1113
見て	-1114
のかた	-1115
かす	-1116
しし	-1117
書き	-1118
してお	-1119
ヨハネ	-1120
ルの子	-1121
分の一	-1122
したので	-1123
のゆえに	-1124
って言った	-1125
会見の幕屋	-1126
ことはできない	-1127
行う	-1128
ようと	-1129
ヨアブ	-1130
知らせ	-1131
食べて	-1132
られない	-1133
エレミヤ	-1134
▁あなたがたの	-1135
イスラエルの神	-1136
と戦	-1137
リブ	-1138
出る	-1139
▁時に	-1140
にいた	-1141
▁その日	-1142
のを見て	-1143
われわれに	-1144
アッスリヤ	-1145
だからである	-1146
世の	-1147
知識	-1148
いった	-1149
へ行って	-1150
バビロン	-1151
に帰	-1152
人と	-1153
天の	-1154
女の	-1155
荒れ	-1156
見た	-1157
いのち	-1158
ことである	-1159
もと	-1160
カデ	-1161
叫び	-1162
んでいた	-1163
さま	-1164
の日	-1165
の時	-1166
ヘブ	-1167
四十	-1168
強い	-1169
所を	-1170
をあげて	-1171
エリシャ	-1172
ないでください	-1173
サロ	-1174
天に	-1175
死に	-1176
語る	-1177
身に	-1178
高ぶ	-1179
の前で	-1180
ほかに	-1181
非常に	-1182
のうちの	-1183
知らない	-1184
答えて言った	-1185
堅く	-1186
供え物	-1187
取った	-1188
言葉は	-1189
あがない	-1190
むな	-1191
上の	-1192
山に	-1193
望み	-1194
町を	-1195
すべき	-1196
大いに	-1197
それゆえ	-1198
ふたりの	-1199
こう仰せられる	-1200
▁第	-1201
ナイ	-1202
手の	-1203
行い	-1204
かない	-1205
その日	-1206
怒りを	-1207
ことのない	-1208
年の	-1209
ラッパ	-1210
聞き従	-1211
はずかし	-1212
わたしと	-1213
ことができない	-1214
されるであろう	-1215
かも	-1216
福音	-1217
耳を	-1218
▁祭司	-1219
びとが	-1220
新しい	-1221
▁すべて	-1222
のもとに	-1223
わたしたちを	-1224
さは	-1225
しば	-1226
たび	-1227
に乗	-1228
ベル	-1229
何を	-1230
分け	-1231
れない	-1232
エホ	-1233
平安	-1234
素祭	-1235
遠く	-1236
かつて	-1237
なって	-1238
シケル	-1239
かなければならない	-1240
まわ	-1241
めと	-1242
アサ	-1243
ラン	-1244
過ぎ	-1245
食い	-1246
あいだ	-1247
くださ	-1248
たので	-1249
わざを	-1250
をその	-1251
天から	-1252
立てて	-1253
において	-1254
ぶどう酒	-1255
憎むべき	-1256
いう	-1257
さん	-1258
と同じ	-1259
去って	-1260
悲しみ	-1261
えている	-1262
のかたわ	-1263
に向かって	-1264
いな	-1265
らん	-1266
宣べ	-1267
教会	-1268
しえた	-1269
オンの	-1270
を取って	-1271
▁モーセは	-1272
の子である	-1273
シマ	-1274
ラバ	-1275
事が	-1276
命令	-1277
国民	-1278
戦車	-1279
所有	-1280
なんの	-1281
えられる	-1282
アブサロ	-1283
うた	-1284
ひと	-1285
びる	-1286
れを	-1287
マル	-1288
全く	-1289
地で	-1290
散ら	-1291
飲み	-1292
になり	-1293
去った	-1294
対する	-1295
められる	-1296
あなたの子	-1297
ペリシテびとの	-1298
高く	-1299
それが	-1300
むすこ	-1301
となって	-1302
このような	-1303
人であった	-1304
おのおのその	-1305
わたしたちに	-1306
くじ	-1307
の娘	-1308
立つ	-1309
聞け	-1310
進み	-1311
の間に	-1312
手に渡	-1313
▁だから	-1314
イスラエルは	-1315
――	-1316
ほふ	-1317
までも	-1318
恐れて	-1319
かえって	-1320
れるであろう	-1321
となるであろう	-1322
せず	-1323
ねて	-1324
救う	-1325
町に	-1326
絶え	-1327
どこに	-1328
の子孫は	-1329
でしょうか	-1330
イスラエルの人々の	-1331
をた	-1332
パテ	-1333
国は	-1334
目は	-1335
霊が	-1336
の入口	-1337
バアル	-1338
あわれみ	-1339
の中から	-1340
イスラエルに	-1341
かけ	-1342
ヤラ	-1343
去り	-1344
待ち	-1345
放牧	-1346
物の	-1347
言え	-1348
かしら	-1349
代って	-1350
宣べ伝	-1351
くち	-1352
のち	-1353
れの	-1354
書に	-1355
に告げ	-1356
とその子	-1357
主なる神はこう言われる	-1358
どこ	-1359
シバ	-1360
スマ	-1361
ネブ	-1362
ンを	-1363
女を	-1364
最も	-1365
月の	-1366
ふたり	-1367
エリヤ	-1368
造った	-1369
▁彼らが	-1370
人たちは	-1371
としている	-1372
▁このように	-1373
しむ	-1374
せた	-1375
プテ	-1376
後に	-1377
聖別	-1378
高い	-1379
だれか	-1380
激しい	-1381
モーセと	-1382
▁そのとき	-1383
兄弟たちよ	-1384
しなければならない	-1385
きき	-1386
さえ	-1387
を治	-1388
を着	-1389
父は	-1390
▁彼が	-1391
にして	-1392
ほしい	-1393
メレク	-1394
しえたげ	-1395
ヤラベア	-1396
られている	-1397
彼らはその	-1398
ることができる	-1399
あざ	-1400
かる	-1401
所へ	-1402
羊の	-1403
▁王は	-1404
いたが	-1405
わせた	-1406
ひとりも	-1407
イエスに	-1408
人である	-1409
兄弟たち	-1410
と名	-1411
を開	-1412
シケ	-1413
家来	-1414
殺す	-1415
注ぎ	-1416
間に	-1417
えさせ	-1418
ごらん	-1419
書いて	-1420
彼はその	-1421
とをもって	-1422
わたしのために	-1423
シヤ	-1424
右の	-1425
年に	-1426
願い	-1427
けない	-1428
のでき	-1429
の子を	-1430
▁彼らの	-1431
者たちは	-1432
生きている	-1433
さし	-1434
らく	-1435
ハマ	-1436
七日	-1437
ニエル	-1438
向こう	-1439
王となった	-1440
ても	-1441
どり	-1442
やみ	-1443
上げ	-1444
置き	-1445
金を	-1446
と名づ	-1447
のため	-1448
の子ら	-1449
の家に	-1450
リサイ	-1451
あだ	-1452
つけ	-1453
バラ	-1454
何も	-1455
子は	-1456
答え	-1457
します	-1458
を得る	-1459
食物を	-1460
さいわい	-1461
とおりに	-1462
パリサイ	-1463
出された	-1464
して言った	-1465
られました	-1466
ヨルダンの	-1467
わたしはあなたを	-1468
▁『	-1469
とお	-1470
アモ	-1471
立た	-1472
バプテ	-1473
くちびる	-1474
この事を	-1475
だろうか	-1476
なぜなら	-1477
のうちで	-1478
言ってお	-1479
びとの氏族	-1480
バプテスマ	-1481
なかったので	-1482
いっ	-1483
せる	-1484
の者	-1485
ふさ	-1486
れ伏	-1487
わる	-1488
をま	-1489
ノア	-1490
ルベ	-1491
吹き	-1492
正義	-1493
からは	-1494
と呼ば	-1495
をあげ	-1496
を行い	-1497
契約を	-1498
捨てて	-1499
から出た	-1500
にはいる	-1501
殺された	-1502
名によって	-1503
に及	-1504
使徒	-1505
民が	-1506
さばく	-1507
ものが	-1508
小さい	-1509
放牧地	-1510
永遠の	-1511
のを見た	-1512
ヤコブは	-1513
きの	-1514
びに	-1515
を持	-1516
アナ	-1517
ラヤ	-1518
寄留	-1519
踏み	-1520
食物	-1521
を見る	-1522
年の間	-1523
▁主は言われる	-1524
けれ	-1525
ねた	-1526
ムに	-1527
憎む	-1528
日が	-1529
ままに	-1530
をした	-1531
求めて	-1532
けれども	-1533
のだから	-1534
カルデヤ	-1535
下さった	-1536
人の子よ	-1537
そば	-1538
ダン	-1539
ミカ	-1540
三日	-1541
罪祭	-1542
肉を	-1543
の部族	-1544
進んで	-1545
食べる	-1546
その上に	-1547
まことに	-1548
そのように	-1549
ようとする	-1550
行きなさい	-1551
そのすべての	-1552
いてはならない	-1553
としなければならない	-1554
のみ	-1555
入り	-1556
死体	-1557
海の	-1558
臨む	-1559
彼女を	-1560
死んで	-1561
置いた	-1562
に対して	-1563
彼と共に	-1564
▁これらの	-1565
いち	-1566
モテ	-1567
妻を	-1568
満た	-1569
真理	-1570
連れ	-1571
その中	-1572
もので	-1573
を造り	-1574
ンびと	-1575
しまった	-1576
ネブカデ	-1577
集まって	-1578
あなたの前に	-1579
をことごとく	-1580
彼らに言われた	-1581
さなければならない	-1582
めの	-1583
上が	-1584
女が	-1585
家族	-1586
平和	-1587
災を	-1588
聖徒	-1589
霊を	-1590
安息日	-1591
耳を傾	-1592
するであろう	-1593
ってください	-1594
エルサレムで	-1595
ベニヤミンの	-1596
イスラエルの人々に	-1597
こそ	-1598
テル	-1599
今日	-1600
外に	-1601
歩み	-1602
深い	-1603
言を	-1604
▁主が	-1605
おのの	-1606
がなく	-1607
ですか	-1608
ひれ伏	-1609
シオン	-1610
所から	-1611
正しく	-1612
決して	-1613
のひとり	-1614
賜わった	-1615
犠牲をささげ	-1616
イスラエルのすべての	-1617
きよ	-1618
なす	-1619
らが	-1620
を通	-1621
ハテ	-1622
断ち	-1623
の上で	-1624
ラムは	-1625
モアブの	-1626
わたしはあなたに	-1627
さあ	-1628
マア	-1629
だろう	-1630
ていた	-1631
まれる	-1632
よみが	-1633
ことなく	-1634
はこれを	-1635
たちと共に	-1636
と主は言われる	-1637
いく	-1638
に当	-1639
はな	-1640
をう	-1641
報い	-1642
飲む	-1643
らせる	-1644
偽りを	-1645
契約の	-1646
急いで	-1647
ささげる	-1648
シャパテ	-1649
造られた	-1650
しなかった	-1651
言っておく	-1652
とその放牧地	-1653
われわれの神	-1654
くな	-1655
たが	-1656
を築	-1657
人も	-1658
奪い	-1659
村々	-1660
見る	-1661
造り	-1662
選ば	-1663
野の	-1664
にあり	-1665
飲ませ	-1666
ヤコブの	-1667
弟子たちは	-1668
いれ	-1669
かを	-1670
ぶん	-1671
ゅう	-1672
十字	-1673
同様	-1674
流れ	-1675
物に	-1676
しても	-1677
におる	-1678
むしろ	-1679
をおお	-1680
呼んで	-1681
国から	-1682
語った	-1683
あらゆる	-1684
だれでも	-1685
つるぎを	-1686
にあった	-1687
主の宮の	-1688
を出	-1689
んじ	-1690
ガリ	-1691
ブは	-1692
何か	-1693
場合	-1694
教え	-1695
水の	-1696
泣き	-1697
父が	-1698
銀の	-1699
ききん	-1700
までは	-1701
みんな	-1702
らせて	-1703
エサウ	-1704
エレア	-1705
そこから	-1706
ならびに	-1707
のほとり	-1708
については	-1709
主なる神は言われる	-1710
ふる	-1711
ほめ	-1712
ムと	-1713
力を	-1714
寄り	-1715
尊い	-1716
ことも	-1717
エホヤ	-1718
全会衆	-1719
満たし	-1720
行かせ	-1721
カナンの	-1722
モーセに	-1723
▁ソロモン	-1724
にはいった	-1725
与えられた	-1726
▁わたしたちは	-1727
たる	-1728
ねば	-1729
スコ	-1730
さらに	-1731
ついて	-1732
に投げ	-1733
やかに	-1734
わざわ	-1735
追い払	-1736
しました	-1737
のことを	-1738
へ行った	-1739
ダニエル	-1740
主イエス	-1741
万軍の主は	-1742
ではありません	-1743
イスラエルの家	-1744
に座	-1745
まい	-1746
をは	-1747
ゼデ	-1748
タル	-1749
アモリ	-1750
入れた	-1751
大祭司	-1752
ぶどう畑	-1753
を受ける	-1754
▁主はまた	-1755
なのである	-1756
われわれが	-1757
書いてある	-1758
あなたがたも	-1759
しるされている	-1760
さず	-1761
つえ	-1762
とう	-1763
エヒ	-1764
キシ	-1765
バア	-1766
ペル	-1767
ヤは	-1768
事の	-1769
全き	-1770
手は	-1771
▁そう	-1772
につけ	-1773
の小羊	-1774
七つの	-1775
入れて	-1776
激しく	-1777
者ども	-1778
集めて	-1779
わたしも	-1780
ダビデに	-1781
供え物を	-1782
立ちあが	-1783
生きながら	-1784
エフライムの	-1785
▁シ	-1786
おも	-1787
やめ	-1788
らわ	-1789
ガド	-1790
ルデ	-1791
口に	-1792
地と	-1793
権威	-1794
水は	-1795
王を	-1796
送り	-1797
過越	-1798
それぞ	-1799
っても	-1800
はみな	-1801
ばかり	-1802
サムソ	-1803
ヤの子	-1804
手を伸	-1805
着物を	-1806
きたので	-1807
ささげた	-1808
ガリラヤ	-1809
▁彼はまた	-1810
はずかしめ	-1811
るようになる	-1812
わたしの前に	-1813
わたしはこの	-1814
あなたのために	-1815
させてください	-1816
くび	-1817
ダデ	-1818
ピラ	-1819
ブの	-1820
レバ	-1821
二百	-1822
人間	-1823
先に	-1824
喜ぶ	-1825
器を	-1826
地方	-1827
こころ	-1828
パロの	-1829
主のみ	-1830
帰った	-1831
青銅の	-1832
モーセが	-1833
もろもろの国	-1834
わたしはその	-1835
られるであろう	-1836
あなたがたのために	-1837
ここ	-1838
の声	-1839
メル	-1840
七十	-1841
授け	-1842
日は	-1843
注が	-1844
解き	-1845
さして	-1846
つまず	-1847
の家の	-1848
テびと	-1849
時には	-1850
神のみ	-1851
▁人々は	-1852
その子は	-1853
すであろう	-1854
わなかった	-1855
ユダヤ人の	-1856
数えられた	-1857
あなたのしもべ	-1858
アッスリヤの王	-1859
▁今	-1860
おく	-1861
らし	-1862
わけ	-1863
一同	-1864
家を	-1865
水が	-1866
の下に	-1867
エドム	-1868
四つの	-1869
引いて	-1870
祭壇の	-1871
立てた	-1872
ませんで	-1873
モーセの	-1874
ほか	-1875
らう	-1876
わな	-1877
を作	-1878
を負	-1879
アム	-1880
ベツ	-1881
二千	-1882
働き	-1883
思う	-1884
敵の	-1885
深く	-1886
火で	-1887
聖霊	-1888
設け	-1889
起き	-1890
足を	-1891
隣り	-1892
世を治	-1893
人たち	-1894
倒れる	-1895
彼女の	-1896
従って	-1897
死人の	-1898
殺そう	-1899
見ると	-1900
起きて	-1901
サウルの	-1902
ようになる	-1903
あなたと共に	-1904
あなたはわたしの	-1905
ことができようか	-1906
じく	-1907
ハナ	-1908
偽り	-1909
多い	-1910
帰り	-1911
所の	-1912
手で	-1913
酒を	-1914
長く	-1915
いって	-1916
うしろ	-1917
すぐに	-1918
ときは	-1919
ともに	-1920
ザリヤ	-1921
ンの子	-1922
者には	-1923
聞かせ	-1924
行こう	-1925
▁どうか	-1926
いたので	-1927
に聞き従	-1928
るならば	-1929
されたので	-1930
されました	-1931
▁あなたがたが	-1932
ラテ	-1933
宮に	-1934
御霊	-1935
愛し	-1936
携え	-1937
物と	-1938
石を	-1939
罪の	-1940
足の	-1941
いつも	-1942
ピラト	-1943
中から	-1944
楽しみ	-1945
残りの	-1946
その兄弟	-1947
その所で	-1948
はいって	-1949
ダビデが	-1950
安らかに	-1951
じめ	-1952
の神	-1953
歩む	-1954
清い	-1955
礼拝	-1956
さきに	-1957
国々の	-1958
実を結	-1959
求めた	-1960
を造った	-1961
語られた	-1962
ことがある	-1963
のではなく	-1964
ソロモンの	-1965
ませんでした	-1966
自分のために	-1967
あなたがたのうちに	-1968
エズ	-1969
ンに	-1970
去る	-1971
民と	-1972
義と	-1973
閉じ	-1974
いても	-1975
ラント	-1976
レバノ	-1977
偽りの	-1978
者たち	-1979
血を流	-1980
雄やぎ	-1981
それから	-1982
っています	-1983
つかわされた	-1984
主をほめたた	-1985
わたしに言われた	-1986
そし	-1987
まち	-1988
ルに	-1989
悲し	-1990
かけて	-1991
かれて	-1992
しまう	-1993
ユダと	-1994
喜んで	-1995
律法学	-1996
その名を	-1997
立っている	-1998
人をつかわして	-1999
二つ	-2000
勝利	-2001
実を	-2002
断食	-2003
町は	-2004
そのみ	-2005
ともし	-2006
オリブ	-2007
生ける	-2008
荒野で	-2009
重ねて	-2010
食事を	-2011
▁ただし	-2012
おこない	-2013
その氏族	-2014
よみがえ	-2015
ゼデキヤ	-2016
タラント	-2017
出てきた	-2018
主の言葉が	-2019
モーセとアロン	-2020
すぎ	-2021
そそ	-2022
ひき	-2023
まり	-2024
ギデ	-2025
ゼブ	-2026
一万	-2027
他国	-2028
大声	-2029
恥じ	-2030
病気	-2031
頭に	-2032
したら	-2033
その父	-2034
の日に	-2035
ケルビ	-2036
シャン	-2037
力ある	-2038
彼らと	-2039
誓いを	-2040
する者は	-2041
むなしい	-2042
目の前に	-2043
はいけない	-2044
ようとして	-2045
定められた	-2046
自分たちの	-2047
さいわいである	-2048
▁ハ	-2049
ごろ	-2050
ラの	-2051
下の	-2052
嘆き	-2053
火を	-2054
生れ	-2055
者で	-2056
見え	-2057
計り	-2058
近く	-2059
▁神よ	-2060
らい病	-2061
カリヤ	-2062
人には	-2063
命じる	-2064
絶える	-2065
荒野に	-2066
ヘブロン	-2067
なりません	-2068
悪しき者の	-2069
てはならない	-2070
と言ったので	-2071
あなたがたのうち	-2072
▁主はモーセに言われた	-2073
々の	-2074
いご	-2075
かさ	-2076
に着	-2077
わき	-2078
を張	-2079
アズ	-2080
ダマ	-2081
ビヤ	-2082
二万	-2083
四方	-2084
女に	-2085
慰め	-2086
死な	-2087
清く	-2088
頭を	-2089
▁神の	-2090
この世	-2091
まさる	-2092
ります	-2093
をつく	-2094
捕えて	-2095
立った	-2096
▁正しい	-2097
いちじく	-2098
いったい	-2099
せられる	-2100
パウロは	-2101
ヨナタン	-2102
ましょうか	-2103
主の言葉を	-2104
彼のために	-2105
のかたわらに	-2106
はだ	-2107
むち	-2108
めい	-2109
ツロ	-2110
使う	-2111
六十	-2112
母の	-2113
獲た	-2114
買い	-2115
身の	-2116
おおい	-2117
くれた	-2118
のがれ	-2119
はない	-2120
エヒウ	-2121
周囲に	-2122
律法の	-2123
残った	-2124
集める	-2125
▁たとい	-2126
つかわし	-2127
に臨んだ	-2128
のようだ	-2129
ましたが	-2130
ますます	-2131
ラッパを	-2132
と名づけた	-2133
はあなたの	-2134
ベニヤミン	-2135
聞きなさい	-2136
▁わたしはまた	-2137
つるぎをもって	-2138
が起	-2139
っと	-2140
に向	-2141
の柱	-2142
りと	-2143
んの	-2144
ミデ	-2145
メン	-2146
レハ	-2147
ロデ	-2148
取る	-2149
心が	-2150
消え	-2151
近寄	-2152
頼み	-2153
ゆるし	-2154
をして	-2155
アブネ	-2156
エリコ	-2157
タンは	-2158
バラク	-2159
ヨアシ	-2160
人の長	-2161
仕えた	-2162
▁ヨセフ	-2163
しばらく	-2164
ところへ	-2165
十分の一	-2166
家を建て	-2167
者たちを	-2168
▁これらは	-2169
エフライム	-2170
あなたがたと	-2171
びとの氏族が	-2172
バビロンの王	-2173
主にささげる	-2174
代って王となった	-2175
ささげなければならない	-2176
▁イ	-2177
おる	-2178
くつ	-2179
ひろ	-2180
ベデ	-2181
メラ	-2182
山の	-2183
知り	-2184
臨み	-2185
選び	-2186
ういご	-2187
おいて	-2188
ときに	-2189
ばしい	-2190
ものと	-2191
らくだ	-2192
モルデ	-2193
告げた	-2194
告げて	-2195
周囲の	-2196
彼女に	-2197
恵みを	-2198
攻めて	-2199
神から	-2200
衣服を	-2201
いと高き	-2202
があれば	-2203
ってきて	-2204
ダマスコ	-2205
▁またその	-2206
サムエルは	-2207
モルデカイ	-2208
エジプトから	-2209
ペリシテびと	-2210
ったからである	-2211
あなたがたの先祖	-2212
。「	-2213
まれ	-2214
エパ	-2215
忘れ	-2216
戦い	-2217
望む	-2218
頭の	-2219
あがな	-2220
こさせ	-2221
にまで	-2222
の子は	-2223
アハズ	-2224
パロは	-2225
受ける	-2226
見える	-2227
エレアザル	-2228
世を治めた	-2229
罪を犯した	-2230
▁われわれは	-2231
彼に言われた	-2232
ことのないように	-2233
わたしが主である	-2234
主はこう仰せられる	-2235
あす	-2236
う者	-2237
おろ	-2238
なさ	-2239
に下	-2240
の父	-2241
ロテ	-2242
一千	-2243
主君	-2244
先生	-2245
敵を	-2246
置く	-2247
にした	-2248
まれた	-2249
下さい	-2250
犯した	-2251
祭司長	-2252
過越の	-2253
かたくな	-2254
それぞれ	-2255
ペテロは	-2256
主はその	-2257
わたしをお	-2258
残っている	-2259
滅ぼされる	-2260
▁あなたの神	-2261
ことによって	-2262
ねばならない	-2263
彼らのために	-2264
ではありませんか	-2265
いろ	-2266
めを	-2267
アテ	-2268
イル	-2269
バテ	-2270
今は	-2271
公平	-2272
六百	-2273
大ぜ	-2274
得た	-2275
手が	-2276
歳の	-2277
火祭	-2278
示す	-2279
空の	-2280
終り	-2281
おもて	-2282
さんび	-2283
の家来	-2284
の言葉	-2285
まった	-2286
をあが	-2287
をつけ	-2288
信じる	-2289
去らせ	-2290
大きい	-2291
聖所の	-2292
▁彼女は	-2293
あなたも	-2294
おまえは	-2295
ダビデを	-2296
恐るべき	-2297
▁なぜなら	-2298
さなかった	-2299
のうちでは	-2300
ヨシャパテ	-2301
立っていた	-2302
言うことを	-2303
アブラハムは	-2304
答えて言われた	-2305
かず	-2306
くず	-2307
なき	-2308
な子	-2309
のし	-2310
もど	-2311
ロス	-2312
不思	-2313
会う	-2314
前の	-2315
清め	-2316
石が	-2317
示し	-2318
金で	-2319
たれた	-2320
でない	-2321
る者の	-2322
んでも	-2323
アハブ	-2324
不思議	-2325
倒れた	-2326
祭司の	-2327
選んだ	-2328
いっさい	-2329
われらは	-2330
を生んだ	-2331
シマエル	-2332
ヨセフは	-2333
契約を結	-2334
異邦人の	-2335
目の前で	-2336
神である	-2337
見ている	-2338
ネブカデネ	-2339
持っている	-2340
▁もろもろの	-2341
わたしに臨んだ	-2342
あと	-2343
いば	-2344
な者	-2345
にし	-2346
へや	-2347
一度	-2348
何事	-2349
名の	-2350
守り	-2351
宮殿	-2352
川の	-2353
悪霊	-2354
時が	-2355
王よ	-2356
自ら	-2357
裂き	-2358
こない	-2359
させて	-2360
と思う	-2361
ものの	-2362
ゼブル	-2363
十二人	-2364
恐れた	-2365
教えて	-2366
殺され	-2367
生きる	-2368
絶えず	-2369
賜わる	-2370
願いを	-2371
つかさど	-2372
とすれば	-2373
人たちが	-2374
られたので	-2375
アンモンの	-2376
いつくしみは	-2377
イエスに言った	-2378
食べてはならない	-2379
たず	-2380
シロ	-2381
ラは	-2382
内に	-2383
加え	-2384
場に	-2385
娘を	-2386
子よ	-2387
所は	-2388
栄え	-2389
王と	-2390
道は	-2391
魂は	-2392
あとに	-2393
ただし	-2394
ための	-2395
につき	-2396
へ行く	-2397
まこと	-2398
まない	-2399
らって	-2400
を生み	-2401
ドニヤ	-2402
大きく	-2403
置いて	-2404
その他の	-2405
を受けた	-2406
レハベア	-2407
者がある	-2408
▁すべての	-2409
いつまでも	-2410
わたしの父	-2411
ヨシュアは	-2412
日のあいだ	-2413
▁イスラエルの	-2414
モーセに命じられた	-2415
すが	-2416
カレ	-2417
シボ	-2418
タリ	-2419
ダブ	-2420
ッタ	-2421
ドク	-2422
ネハ	-2423
ポデ	-2424
半ば	-2425
声が	-2426
少し	-2427
数え	-2428
日を	-2429
歌を	-2430
民衆	-2431
神と	-2432
過ご	-2433
除き	-2434
くれる	-2435
にそむ	-2436
入れる	-2437
戦いに	-2438
渡って	-2439
誓った	-2440
いつまで	-2441
されない	-2442
万軍の主	-2443
地に住む	-2444
民はみな	-2445
▁サウルは	-2446
あなたの父	-2447
出て行って	-2448
名のために	-2449
書にしるされている	-2450
々に	-2451
づけ	-2452
ひざ	-2453
ひそ	-2454
わり	-2455
ッサ	-2456
ナフ	-2457
ペレ	-2458
ルガ	-2459
レヘ	-2460
三百	-2461
信頼	-2462
四百	-2463
必要	-2464
憤り	-2465
汚れ	-2466
石で	-2467
苦し	-2468
部隊	-2469
驚き	-2470
しかも	-2471
ちまた	-2472
はした	-2473
ほどの	-2474
われて	-2475
を捨て	-2476
助ける	-2477
時から	-2478
はなはだ	-2479
シオンの	-2480
悪を行う	-2481
しましょう	-2482
ようとした	-2483
られるように	-2484
のと	-2485
まっ	-2486
やも	-2487
ギベ	-2488
火の	-2489
知る	-2490
罪は	-2491
覚え	-2492
あとを	-2493
いれる	-2494
うちの	-2495
おとめ	-2496
かおり	-2497
もその	-2498
り物を	-2499
エポデ	-2500
ザドク	-2501
口から	-2502
子を産	-2503
尋ねた	-2504
滅びる	-2505
神々に	-2506
福音を	-2507
終った	-2508
香をた	-2509
それらの	-2510
といった	-2511
のがれる	-2512
ベツレヘ	-2513
手にわた	-2514
行かれた	-2515
行われた	-2516
▁ヨシュア	-2517
いなかった	-2518
であったが	-2519
ぶどうの木	-2520
同じように	-2521
彼らの上に	-2522
者のために	-2523
あれ	-2524
がて	-2525
さを	-2526
らす	-2527
アダ	-2528
中で	-2529
事に	-2530
人で	-2531
国で	-2532
牛の	-2533
血の	-2534
迎え	-2535
▁彼の	-2536
およそ	-2537
これら	-2538
たれる	-2539
やがて	-2540
アビヤ	-2541
ルびと	-2542
上った	-2543
使者を	-2544
宿営の	-2545
東の方	-2546
祭司は	-2547
自分が	-2548
があるか	-2549
と答えた	-2550
なされた	-2551
の言葉を	-2552
ナフタリ	-2553
今日まで	-2554
知恵ある	-2555
ことを知る	-2556
すみやかに	-2557
するように	-2558
アビメレク	-2559
キリストは	-2560
ギレアデの	-2561
人のために	-2562
これを聞いて	-2563
わたしのしもべ	-2564
恐れてはならない	-2565
イスラエルの人々が	-2566
えば	-2567
へび	-2568
べた	-2569
やぐ	-2570
やり	-2571
ゆだ	-2572
をこ	-2573
イム	-2574
シド	-2575
十四	-2576
戦争	-2577
族長	-2578
牛を	-2579
物が	-2580
箱を	-2581
近い	-2582
銀を	-2583
長子	-2584
いたく	-2585
いただ	-2586
そんな	-2587
たくわ	-2588
ちょう	-2589
にあず	-2590
にきた	-2591
に使う	-2592
はいる	-2593
シャル	-2594
一歳の	-2595
守って	-2596
律法を	-2597
神の子	-2598
立して	-2599
群衆が	-2600
自分で	-2601
言って	-2602
あります	-2603
その人を	-2604
つるぎに	-2605
であるか	-2606
ひとりは	-2607
ふたりは	-2608
をあらわ	-2609
アザリヤ	-2610
救われる	-2611
したように	-2612
わたしには	-2613
イシマエル	-2614
悪しき者は	-2615
者のように	-2616
▁兄弟たちよ	-2617
いつくしみを	-2618
らせてください	-2619
か月	-2620
どの	-2621
の妻	-2622
わら	-2623
イザ	-2624
エブ	-2625
五百	-2626
倒れ	-2627
分を	-2628
動か	-2629
召し	-2630
境は	-2631
起る	-2632
▁アハ	-2633
▁人は	-2634
いなご	-2635
う者は	-2636
かけた	-2637
に住み	-2638
ましい	-2639
りなく	-2640
ユダは	-2641
信じた	-2642
入れぬ	-2643
捕え移	-2644
栄光を	-2645
燃える	-2646
自分に	-2647
送った	-2648
食べた	-2649
▁ダビデ	-2650
この人は	-2651
しもべは	-2652
アンモン	-2653
ゼカリヤ	-2654
明らかに	-2655
者たちが	-2656
耳を傾け	-2657
近づいて	-2658
香ばしい	-2659
おられます	-2660
ことのでき	-2661
べきである	-2662
わたしの子	-2663
手から救い	-2664
祭司たちは	-2665
ごらんなさい	-2666
ためであった	-2667
地のすべての	-2668
わたしはこれを	-2669
主をほめたたえよ	-2670
あふ	-2671
ぎを	-2672
ずつ	-2673
はて	-2674
ゲル	-2675
ソド	-2676
上着	-2677
不信	-2678
世々	-2679
全体	-2680
水に	-2681
洗い	-2682
用意	-2683
神殿	-2684
見つ	-2685
降り	-2686
香を	-2687
かなう	-2688
こうべ	-2689
ここで	-2690
に行き	-2691
らして	-2692
を守り	-2693
シモン	-2694
ヘロデ	-2695
三つの	-2696
治める	-2697
町々を	-2698
部族の	-2699
その人の	-2700
ないのか	-2701
にはいり	-2702
ぶんどり	-2703
ほむべき	-2704
られると	-2705
われらを	-2706
を受けて	-2707
アマレク	-2708
種入れぬ	-2709
預言者の	-2710
かなかった	-2711
ことがなく	-2712
つかわした	-2713
わたしから	-2714
なるであろう	-2715
いさ	-2716
くれ	-2717
たき	-2718
の毛	-2719
ヅパ	-2720
上り	-2721
害を	-2722
家は	-2723
数は	-2724
木の	-2725
砕き	-2726
祭を	-2727
行け	-2728
陣営	-2729
そうと	-2730
とがを	-2731
にする	-2732
わが民	-2733
を打ち	-2734
ギベア	-2735
下さる	-2736
以上の	-2737
作った	-2738
汚した	-2739
注いで	-2740
目には	-2741
解き明	-2742
進んだ	-2743
集めた	-2744
からきた	-2745
に属する	-2746
まさって	-2747
▁そのころ	-2748
きて言った	-2749
つかさたち	-2750
ヨルダンを	-2751
事について	-2752
このすべての	-2753
と書いてある	-2754
知らなかった	-2755
ペリシテびとは	-2756
ることができない	-2757
主はこう言われる	-2758
ことができなかった	-2759
主がモーセに命じられた	-2760
うる	-2761
さき	-2762
ちら	-2763
やす	-2764
よこ	-2765
アラ	-2766
ンが	-2767
住民	-2768
光を	-2769
刈り	-2770
務を	-2771
妻に	-2772
恐ろ	-2773
敵は	-2774
目の	-2775
肉の	-2776
荒布	-2777
足り	-2778
いたし	-2779
ことで	-2780
その後	-2781
に至る	-2782
は主の	-2783
ふさわ	-2784
シャイ	-2785
タマル	-2786
御使が	-2787
怒りの	-2788
追いや	-2789
かわいた	-2790
主の宮に	-2791
安息日に	-2792
心をつく	-2793
バビロンに	-2794
彼は言った	-2795
たちに言った	-2796
のようになる	-2797
主にむかって	-2798
信仰によって	-2799
いたからである	-2800
わたしと一緒に	-2801
んではならない	-2802
かく	-2803
かま	-2804
けに	-2805
ごも	-2806
しと	-2807
すえ	-2808
つぶ	-2809
まし	-2810
わす	-2811
アカ	-2812
シホ	-2813
ピリ	-2814
ベナ	-2815
ムが	-2816
住み	-2817
四千	-2818
山で	-2819
庭に	-2820
母は	-2821
獣の	-2822
生か	-2823
目が	-2824
第一	-2825
羊を	-2826
▁ある	-2827
▁こう	-2828
いた時	-2829
の中の	-2830
まって	-2831
ものも	-2832
コハテ	-2833
シメイ	-2834
ッサイ	-2835
主人は	-2836
叫んで	-2837
定めた	-2838
彼女が	-2839
撃って	-2840
攻める	-2841
教える	-2842
知恵を	-2843
おおよそ	-2844
ことがあ	-2845
と言われ	-2846
に住んだ	-2847
みんなの	-2848
められた	-2849
シャンの	-2850
罪を犯し	-2851
行ったが	-2852
▁わたしを	-2853
▁イエスが	-2854
に至るまで	-2855
の子たちの	-2856
アモリびと	-2857
これによって	-2858
これらの事を	-2859
っておられる	-2860
られなかった	-2861
エルサレムを	-2862
▁あなたはまた	-2863
アロンとその子	-2864
イエスは言われた	-2865
絶えることがない	-2866
▁イスラエルの人々は	-2867
▁主はまたモーセに言われた	-2868
きら	-2869
ひじ	-2870
を歩	-2871
ザレ	-2872
ナバ	-2873
ンナ	-2874
以上	-2875
彼と	-2876
木を	-2877
枝を	-2878
死を	-2879
第二	-2880
罪に	-2881
義を	-2882
頼む	-2883
あげて	-2884
しゅう	-2885
その神	-2886
ばない	-2887
ものに	-2888
をなし	-2889
エズレ	-2890
ギルガ	-2891
ムの子	-2892
リエル	-2893
定めと	-2894
焼いた	-2895
知って	-2896
自身を	-2897
起った	-2898
選んで	-2899
離れる	-2900
ってきた	-2901
の供え物	-2902
わが主よ	-2903
マナセの	-2904
出てきて	-2905
大ぜいの	-2906
殺される	-2907
選ばれた	-2908
あなたのみ	-2909
おこなった	-2910
この言葉を	-2911
を出立して	-2912
五キュビト	-2913
ことをしない	-2914
であることを	-2915
ほむべきかな	-2916
もしあなたが	-2917
イスラエルよ	-2918
死人の中から	-2919
おそ	-2920
さら	-2921
みの	-2922
ンと	-2923
下に	-2924
主人	-2925
外の	-2926
弱い	-2927
訴え	-2928
誓い	-2929
間は	-2930
ごとを	-2931
の子供	-2932
エブス	-2933
ゲルシ	-2934
ナダブ	-2935
ミヅパ	-2936
ヨシヤ	-2937
叫んだ	-2938
同様に	-2939
宿営し	-2940
尋ねて	-2941
幕屋の	-2942
用いる	-2943
空の鳥	-2944
言葉の	-2945
逃げて	-2946
おのれを	-2947
このかた	-2948
であれば	-2949
のがれて	-2950
ひそかに	-2951
みこころ	-2952
をつけて	-2953
一歳の雄	-2954
人たちを	-2955
出される	-2956
滅ぼした	-2957
誓われた	-2958
というのは	-2959
弟子たちに	-2960
の子孫である	-2961
わたしはわが	-2962
あた	-2963
あや	-2964
かで	-2965
くら	-2966
さお	-2967
じた	-2968
すま	-2969
なに	-2970
の音	-2971
る時	-2972
ヤの	-2973
世に	-2974
備え	-2975
像を	-2976
呼ぶ	-2977
問う	-2978
寄せ	-2979
御座	-2980
暗く	-2981
死の	-2982
淫行	-2983
現れ	-2984
誓願	-2985
く者は	-2986
ずかし	-2987
そばに	-2988
つかえ	-2989
導いて	-2990
捕われ	-2991
救われ	-2992
暗やみ	-2993
永遠に	-2994
燔祭の	-2995
男の子	-2996
町々と	-2997
答える	-2998
設けた	-2999
送って	-3000
▁アロン	-3001
いました	-3002
おきてを	-3003
だれにも	-3004
ともしび	-3005
示された	-3006
立ち上が	-3007
者たちよ	-3008
聖なる物	-3009
かっている	-3010
のかたわら	-3011
レビびとは	-3012
主のために	-3013
地のおもて	-3014
声に聞き従	-3015
帰ってきて	-3016
約束された	-3017
言いました	-3018
▁主の言葉が	-3019
あなたの子孫	-3020
命じて言った	-3021
ことができるか	-3022
会見の幕屋の入口	-3023
わたしたちの主イエス	-3024
くす	-3025
とび	-3026
はげ	-3027
ふり	-3028
めき	-3029
を打	-3030
シの	-3031
ムリ	-3032
三度	-3033
五千	-3034
伝え	-3035
墓に	-3036
書記	-3037
次に	-3038
汚す	-3039
父よ	-3040
男子	-3041
第三	-3042
起し	-3043
長さ	-3044
▁エホ	-3045
あざけ	-3046
あだを	-3047
いらせ	-3048
へ行き	-3049
まえに	-3050
ょうに	-3051
る者を	-3052
わから	-3053
を呼び	-3054
を得た	-3055
エゼル	-3056
国民を	-3057
報いを	-3058
心から	-3059
怒りは	-3060
殺して	-3061
民は皆	-3062
燔祭と	-3063
確かに	-3064
祭壇に	-3065
▁言った	-3066
りました	-3067
人たちの	-3068
あなたの民	-3069
わざわいだ	-3070
アブサロム	-3071
与えられる	-3072
声をあげて	-3073
王に言った	-3074
と同じように	-3075
アブラハムの	-3076
あなたがたと共に	-3077
▁わたしはあなたの	-3078
▁主はこう言われる	-3079
あわ	-3080
おび	-3081
くろ	-3082
つづ	-3083
みて	-3084
アイ	-3085
スの	-3086
ヘル	-3087
ホル	-3088
ラマ	-3089
上で	-3090
全部	-3091
力と	-3092
実な	-3093
救の	-3094
施し	-3095
雨を	-3096
▁ああ	-3097
いくさ	-3098
おのが	-3099
かたわ	-3100
くべき	-3101
であれ	-3102
ならず	-3103
ののし	-3104
められ	-3105
ろうと	-3106
を撃ち	-3107
オンは	-3108
タンの	-3109
ベテル	-3110
ンから	-3111
主から	-3112
切り倒	-3113
嗣業を	-3114
場所に	-3115
戦いの	-3116
日から	-3117
父なる	-3118
現れて	-3119
群れを	-3120
うちから	-3121
この地に	-3122
その人に	-3123
に与えた	-3124
に乗って	-3125
ものです	-3126
よこしま	-3127
をとって	-3128
エホヤダ	-3129
ヘテびと	-3130
七日の間	-3131
神の前に	-3132
祭の犠牲	-3133
祭壇を築	-3134
あるように	-3135
主なる神よ	-3136
名をもって	-3137
わたしと共に	-3138
わたしは彼らを	-3139
カルデヤびとの	-3140
生きておられる	-3141
万軍の主は言われる	-3142
▁マ	-3143
くと	-3144
ぜた	-3145
てて	-3146
ねく	-3147
オピ	-3148
テラ	-3149
ロト	-3150
一生	-3151
下り	-3152
五頭	-3153
会い	-3154
及び	-3155
口は	-3156
救を	-3157
柱の	-3158
渡し	-3159
用い	-3160
聖書	-3161
良き	-3162
魂を	-3163
▁人が	-3164
こんな	-3165
つけた	-3166
でなく	-3167
の方に	-3168
の王は	-3169
びとに	-3170
むかい	-3171
わが神	-3172
わせる	-3173
アサフ	-3174
ナタン	-3175
ベエル	-3176
メラリ	-3177
ルベン	-3178
口を開	-3179
怒って	-3180
罰する	-3181
葬った	-3182
▁ヤコブ	-3183
おまえの	-3184
おられた	-3185
きました	-3186
ところで	-3187
めとった	-3188
を持って	-3189
を造って	-3190
エホヤキ	-3191
シメオン	-3192
初めから	-3193
男の子を	-3194
神の宮の	-3195
罪を犯す	-3196
集まった	-3197
▁ヨセフは	-3198
であるから	-3199
どこにいる	-3200
ソロモンは	-3201
レビびとの	-3202
主を恐れる	-3203
貧しい者を	-3204
▁そうすれば	-3205
あなたの兄弟	-3206
それによって	-3207
はなりません	-3208
びとの氏族が出	-3209
わたしの言葉を	-3210
わたしは彼らの	-3211
そのいつくしみは	-3212
行わなければならない	-3213
いえ	-3214
きび	-3215
ざま	-3216
たい	-3217
ひも	-3218
めよ	-3219
エデ	-3220
ネゲ	-3221
ベカ	-3222
二度	-3223
分の	-3224
命の	-3225
場所	-3226
後の	-3227
火に	-3228
燃え	-3229
石の	-3230
舌は	-3231
苦難	-3232
通り	-3233
遠い	-3234
▁主に	-3235
いやし	-3236
がれた	-3237
くじを	-3238
ながく	-3239
にその	-3240
やもめ	-3241
ゆだね	-3242
を守る	-3243
ウリヤ	-3244
エルは	-3245
ルキヤ	-3246
主の使	-3247
工事を	-3248
日には	-3249
現れた	-3250
町々は	-3251
▁自分の	-3252
おのれの	-3253
その中に	-3254
その家族	-3255
ちょうど	-3256
の子孫の	-3257
みもとに	-3258
むなしく	-3259
ミデアン	-3260
王の前に	-3261
者たちに	-3262
▁ヒゼキヤ	-3263
▁ユダの王	-3264
っていたが	-3265
はわたしの	-3266
ひじょうに	-3267
わたしの民	-3268
バシャンの	-3269
人を殺した	-3270
祭司はその	-3271
見ていると	-3272
解き明かし	-3273
連れてきて	-3274
ならなかった	-3275
またあなたの	-3276
ることのでき	-3277
部族のうちから	-3278
わたしがあなたに	-3279
は次のとおりである	-3280
▁主なる神はこう言われる	-3281
とこしえに絶えることがない	-3282
ちり	-3283
もす	-3284
ら穴	-3285
ホリ	-3286
七百	-3287
側に	-3288
力は	-3289
十五	-3290
叫ぶ	-3291
天を	-3292
娘よ	-3293
御子	-3294
手と	-3295
数を	-3296
時の	-3297
歩き	-3298
父に	-3299
長い	-3300
がきて	-3301
する者	-3302
つえを	-3303
どもを	-3304
ならぬ	-3305
に従い	-3306
の名は	-3307
の家を	-3308
まねく	-3309
ままで	-3310
るのは	-3311
ギリシ	-3312
ピリポ	-3313
ベルの	-3314
ラムの	-3315
呼んだ	-3316
建てた	-3317
知恵と	-3318
起して	-3319
▁これを	-3320
うために	-3321
くすしき	-3322
その先祖	-3323
のぼって	-3324
よろしく	-3325
を守って	-3326
主がその	-3327
者はみな	-3328
聞きいれ	-3329
食べさせ	-3330
うであろう	-3331
ることなく	-3332
エリシャは	-3333
レバノンの	-3334
住んでいる	-3335
目をあげて	-3336
聞いている	-3337
これがために	-3338
つかさたちは	-3339
ものではない	-3340
ようになった	-3341
主は言われた	-3342
彼らのうちに	-3343
そのもろもろの	-3344
香ばしいかおり	-3345
あなたがたに言う	-3346
あなたはわたしを	-3347
の書にしるされている	-3348
あなたがたに言っておく	-3349
をささげなければならない	-3350
うせ	-3351
うわ	-3352
かぶ	-3353
たれ	-3354
の町	-3355
は皆	-3356
みに	-3357
るな	-3358
をと	-3359
ガテ	-3360
七年	-3361
働く	-3362
北の	-3363
口を	-3364
向か	-3365
歩く	-3366
火が	-3367
祈り	-3368
耳に	-3369
衣を	-3370
門の	-3371
この町	-3372
その妻	-3373
だれの	-3374
なのか	-3375
に満ち	-3376
るとき	-3377
カナン	-3378
ザルの	-3379
ヘシボ	-3380
人から	-3381
今日に	-3382
大声で	-3383
寄留の	-3384
愛して	-3385
祝福し	-3386
者です	-3387
自身が	-3388
荒れ地	-3389
語って	-3390
▁どうぞ	-3391
あとを追	-3392
いうわけ	-3393
いにしえ	-3394
から取り	-3395
くびきを	-3396
ことを悟	-3397
この地を	-3398
そこには	-3399
その人が	-3400
に当った	-3401
ふたたび	-3402
アブラム	-3403
エドムの	-3404
キリアテ	-3405
パウロが	-3406
ヒルキヤ	-3407
ペテロが	-3408
三分の一	-3409
主の言葉	-3410
地にある	-3411
契約の箱	-3412
書きしる	-3413
目をさま	-3414
知れない	-3415
逆らって	-3416
することを	-3417
そのような	-3418
のを聞いた	-3419
ひれ伏して	-3420
るでしょう	-3421
帰ってきた	-3422
彼らと共に	-3423
祭壇の上で	-3424
▁その日には	-3425
わたしの所に	-3426
わたしはまた	-3427
ラッパを吹き	-3428
主の目の前に	-3429
をもってわたしを	-3430
イスラエルの神は	-3431
ことを知るようになる	-3432
わたしはあなたがたの	-3433
おと	-3434
きわ	-3435
だと	-3436
つぎ	-3437
てた	-3438
のべ	-3439
ひね	-3440
ほん	-3441
むだ	-3442
リオ	-3443
三つ	-3444
三千	-3445
住ま	-3446
十一	-3447
十八	-3448
山を	-3449
恥を	-3450
教を	-3451
時代	-3452
歳で	-3453
汚し	-3454
血は	-3455
話し	-3456
かける	-3457
ことと	-3458
ざくろ	-3459
その民	-3460
ととな	-3461
ますか	-3462
みごも	-3463
みわざ	-3464
をおこ	-3465
アシラ	-3466
リベカ	-3467
仕えて	-3468
向かい	-3469
喜んだ	-3470
夕まで	-3471
寄せて	-3472
撃った	-3473
日の間	-3474
望みを	-3475
歌うた	-3476
泣いた	-3477
流れる	-3478
終りの	-3479
そのとき	-3480
その血を	-3481
それでは	-3482
とおって	-3483
はしため	-3484
ひねもす	-3485
めなさい	-3486
ることは	-3487
イサクは	-3488
エッサイ	-3489
ペルシャ	-3490
ヨアブは	-3491
氏族の長	-3492
者となり	-3493
があろうか	-3494
すべての民	-3495
のうちには	-3496
カナンびと	-3497
キリストが	-3498
主によって	-3499
手によって	-3500
滅ぼされた	-3501
言っている	-3502
▁あなたがた	-3503
えるであろう	-3504
ではなかった	-3505
になっている	-3506
に住んでいる	-3507
のようになり	-3508
ることはない	-3509
アブサロムは	-3510
彼女に言った	-3511
▁そこで彼らは	-3512
これらのことを	-3513
わたしについて	-3514
われわれの先祖	-3515
イスラエルの全	-3516
数えられた者は	-3517
命じられたように	-3518
食べることができる	-3519
食べなければならない	-3520
こわ	-3521
さぼ	-3522
はじ	-3523
はア	-3524
ひど	-3525
みだ	-3526
を解	-3527
アタ	-3528
セル	-3529
ナン	-3530
ペリ	-3531
不正	-3532
代々	-3533
伏し	-3534
労苦	-3535
声は	-3536
夜も	-3537
大麦	-3538
子が	-3539
従う	-3540
最初	-3541
海を	-3542
霊の	-3543
霊は	-3544
おいで	-3545
この宮	-3546
これと	-3547
たちや	-3548
むさぼ	-3549
をもつ	-3550
シナイ	-3551
ジヤは	-3552
ボアズ	-3553
マアカ	-3554
代りに	-3555
会った	-3556
位に座	-3557
待ち望	-3558
捨てた	-3559
栄光が	-3560
現れる	-3561
神の宮	-3562
▁その後	-3563
▁だれが	-3564
がこれを	-3565
この世の	-3566
せられた	-3567
そむいた	-3568
にとどま	-3569
によれば	-3570
のかしら	-3571
ひとりが	-3572
まわりに	-3573
ゆるして	-3574
ようにと	-3575
をあわれ	-3576
を連れて	-3577
人の子は	-3578
喜ばれる	-3579
感謝せよ	-3580
▁もし人が	-3581
するために	-3582
とするのか	-3583
をわたしに	-3584
人のように	-3585
答えられた	-3586
▁彼は言った	-3587
ことについて	-3588
につかわして	-3589
ヤラベアムの	-3590
燔祭をささげ	-3591
されたのである	-3592
したからである	-3593
ネブカデネザル	-3594
出してください	-3595
わたしにむかって	-3596
イスラエルの人々を	-3597
わたしはあなたがたを	-3598
▁ベ	-3599
いず	-3600
きる	-3601
スは	-3602
ゼラ	-3603
ハル	-3604
一日	-3605
中の	-3606
全う	-3607
前を	-3608
動く	-3609
口の	-3610
報復	-3611
天と	-3612
愚か	-3613
拝む	-3614
敵に	-3615
東の	-3616
破り	-3617
義は	-3618
起す	-3619
足で	-3620
返す	-3621
野で	-3622
かたが	-3623
から出	-3624
そこを	-3625
その人	-3626
の地に	-3627
の時に	-3628
エフタ	-3629
サタン	-3630
ジエル	-3631
パンと	-3632
ユダに	-3633
三人の	-3634
不義を	-3635
主人の	-3636
信仰の	-3637
助けて	-3638
受けた	-3639
座して	-3640
律法に	-3641
栄光の	-3642
臨んで	-3643
苦しめ	-3644
あざける	-3645
いていた	-3646
おります	-3647
かかって	-3648
こられた	-3649
これらを	-3650
されます	-3651
そむいて	-3652
たちまち	-3653
つるぎで	-3654
なくなる	-3655
の子たち	-3656
ほんとう	-3657
らないで	-3658
アロンの	-3659
サウルが	-3660
バアルの	-3661
人あった	-3662
出て行く	-3663
君たちは	-3664
声をあげ	-3665
者はない	-3666
させられた	-3667
まなかった	-3668
ベツレヘム	-3669
先祖たちの	-3670
出て行った	-3671
▁弟子たちは	-3672
▁彼らはその	-3673
したのである	-3674
と言っている	-3675
をもって彼らを	-3676
預言者エレミヤ	-3677
▁そこでわたしは	-3678
ヨルダンの向こう	-3679
をしなければならない	-3680
きは	-3681
しの	-3682
ずに	-3683
に出	-3684
の女	-3685
を取	-3686
ダイ	-3687
パル	-3688
ユフ	-3689
リン	-3690
争う	-3691
人よ	-3692
入る	-3693
実は	-3694
山々	-3695
庭の	-3696
悟り	-3697
方が	-3698
水で	-3699
渡り	-3700
砕く	-3701
良く	-3702
谷に	-3703
返し	-3704
▁よく	-3705
いさつ	-3706
かえり	-3707
かかわ	-3708
きます	-3709
だけが	-3710
どもの	-3711
もっと	-3712
る者が	-3713
を設け	-3714
オピヤ	-3715
シマヤ	-3716
ダリヤ	-3717
バラム	-3718
ヨラム	-3719
住んだ	-3720
及んだ	-3721
告げる	-3722
彼らも	-3723
思いを	-3724
楽しむ	-3725
町の門	-3726
示して	-3727
祖の家	-3728
者から	-3729
迎えて	-3730
野の獣	-3731
おびただ	-3732
なにゆえ	-3733
ることも	-3734
わざわい	-3735
ギリシヤ	-3736
足もとに	-3737
近づいた	-3738
▁主はその	-3739
させなさい	-3740
すべてその	-3741
にしたがい	-3742
スリヤの王	-3743
ベエルシバ	-3744
ユダの人々	-3745
一キュビト	-3746
嗣業として	-3747
者であった	-3748
語っている	-3749
すべての人に	-3750
をもってその	-3751
イスラエルと	-3752
エジプトの王	-3753
七日のあいだ	-3754
前から追い払	-3755
くださるように	-3756
するためである	-3757
わたしのもとに	-3758
ペリシテびとを	-3759
わたしは主である	-3760
エジプトの国から	-3761
殺されなければならない	-3762
いか	-3763
がね	-3764
のも	-3765
まつ	-3766
らか	-3767
らと	-3768
エシ	-3769
ガイ	-3770
サラ	-3771
ムを	-3772
及ぶ	-3773
好む	-3774
戸を	-3775
拝み	-3776
母を	-3777
治め	-3778
海べ	-3779
畑の	-3780
種を	-3781
箱舟	-3782
証人	-3783
誇る	-3784
軍隊	-3785
遠ざ	-3786
金銀	-3787
風を	-3788
いけに	-3789
お願い	-3790
かもし	-3791
が満ち	-3792
さとし	-3793
たって	-3794
つぶや	-3795
といい	-3796
との間	-3797
なかに	-3798
にすわ	-3799
に至り	-3800
のもと	-3801
のもの	-3802
はかり	-3803
ほふり	-3804
まして	-3805
みなし	-3806
わが君	-3807
をかけ	-3808
を求め	-3809
オベデ	-3810
ザルは	-3811
タニヤ	-3812
備えを	-3813
口づけ	-3814
報いる	-3815
定めて	-3816
戒めを	-3817
捕える	-3818
朝まで	-3819
臨ませ	-3820
荒野の	-3821
行いを	-3822
言葉に	-3823
軍の長	-3824
雄羊の	-3825
▁愚かな	-3826
さまざま	-3827
その地を	-3828
に告げて	-3829
のごとく	-3830
の家から	-3831
をかけて	-3832
ギベオン	-3833
ゲダリヤ	-3834
ピラトは	-3835
焼きつく	-3836
者と共に	-3837
雄牛一頭	-3838
▁まことに	-3839
いて言った	-3840
いなるかな	-3841
かったので	-3842
があっても	-3843
きたるべき	-3844
これである	-3845
であります	-3846
なくなった	-3847
ほめたたえ	-3848
ネブカデレ	-3849
主にあって	-3850
川のほとり	-3851
愛する者は	-3852
油を注いで	-3853
罪のために	-3854
▁ヨシュアは	-3855
▁万軍の主は	-3856
かも知れない	-3857
ることのない	-3858
を持っている	-3859
▁わたしたちの	-3860
エルサレムから	-3861
バビロンの王の	-3862
一歳の雄の小羊	-3863
ことはありません	-3864
わたしをつかわされた	-3865
▁ヤ	-3866
たた	-3867
つぼ	-3868
どろ	-3869
にじ	-3870
はら	-3871
コラ	-3872
シラ	-3873
セテ	-3874
ダリ	-3875
テマ	-3876
二頭	-3877
川を	-3878
民よ	-3879
留め	-3880
確信	-3881
見せ	-3882
香の	-3883
高さ	-3884
▁人の	-3885
おいた	-3886
が来る	-3887
こうむ	-3888
すみか	-3889
だけで	-3890
つけて	-3891
とどろ	-3892
の上の	-3893
までの	-3894
アムノ	-3895
パンの	-3896
七人の	-3897
出身の	-3898
刈入れ	-3899
喜ばせ	-3900
国民の	-3901
戦いを	-3902
汚れる	-3903
罪を負	-3904
行われ	-3905
集まり	-3906
からだを	-3907
けなさい	-3908
さして誓	-3909
たくさん	-3910
とされた	-3911
につけて	-3912
れる者は	-3913
を携えて	-3914
アブネル	-3915
エルの子	-3916
ヤコブに	-3917
呼ばわり	-3918
地の上に	-3919
怒らせた	-3920
恐ろしい	-3921
者たちの	-3922
行かれる	-3923
▁ヤコブは	-3924
そうとして	-3925
であっても	-3926
できません	-3927
と呼ばれた	-3928
のところに	-3929
まっすぐに	-3930
めぐらして	-3931
ものはない	-3932
よこしまな	-3933
ろうとして	-3934
キリストを	-3935
サムソンは	-3936
レビびとを	-3937
上ってきて	-3938
力をもって	-3939
呼ばわった	-3940
寄留の他国	-3941
手をもって	-3942
あなたはその	-3943
されるように	-3944
すべての事を	-3945
それに属する	-3946
に住んでいた	-3947
るであろうか	-3948
わたしは彼を	-3949
これらの言葉を	-3950
と言うであろう	-3951
のようであった	-3952
わたしはそれを	-3953
イスラエルの聖	-3954
エフライムの山	-3955
ダビデに言った	-3956
▁そこでイエスは	-3957
わざわいなるかな	-3958
エジプトの地から	-3959
まなければならない	-3960
かき	-3961
け所	-3962
し加	-3963
ずま	-3964
ちに	-3965
つむ	-3966
へり	-3967
まき	-3968
まん	-3969
やし	-3970
クラ	-3971
デナ	-3972
ナオ	-3973
ヨブ	-3974
リア	-3975
争い	-3976
光栄	-3977
全地	-3978
右に	-3979
夜は	-3980
子孫	-3981
安全	-3982
宝石	-3983
山は	-3984
打つ	-3985
白く	-3986
重く	-3987
風が	-3988
風に	-3989
▁ユダ	-3990
いいえ	-3991
うかが	-3992
おとず	-3993
かたは	-3994
かなた	-3995
たる者	-3996
などの	-3997
に入れ	-3998
のぼり	-3999
エロス	-4000
サウロ	-4001
ナザレ	-4002
ヘブル	-4003
上げて	-4004
二十歳	-4005
人間の	-4006
伏して	-4007
初めに	-4008
家に帰	-4009
御言を	-4010
火で焼	-4011
神の国	-4012
罪祭の	-4013
老いた	-4014
落ちた	-4015
離れた	-4016
▁ここに	-4017
ある人が	-4018
いのちの	-4019
いのちを	-4020
この所に	-4021
その名は	-4022
に対する	-4023
の人々は	-4024
ぶどうの	-4025
へりくだ	-4026
わたって	-4027
万軍の神	-4028
宣べ伝え	-4029
弟子たち	-4030
そのために	-4031
その他の事	-4032
についての	-4033
にならない	-4034
のようにし	-4035
ひとりびと	-4036
ふさわしい	-4037
るのである	-4038
を知らない	-4039
サマリヤの	-4040
主は彼らを	-4041
事のために	-4042
兄弟たちに	-4043
導き出した	-4044
耳を傾けて	-4045
あなたの所に	-4046
るべきである	-4047
イスラエルが	-4048
エジプトびとの	-4049
あなたがたの所に	-4050
さないでください	-4051
恐れることはない	-4052
の書にしるされているではないか	-4053
▁王	-4054
。『	-4055
かぎ	-4056
さわ	-4057
しっ	-4058
なか	-4059
にわ	-4060
の道	-4061
めく	-4062
り込	-4063
を切	-4064
を授	-4065
アミ	-4066
エラ	-4067
ハラ	-4068
向け	-4069
報告	-4070
夜の	-4071
家で	-4072
広が	-4073
御言	-4074
成長	-4075
戸の	-4076
方に	-4077
災が	-4078
牧場	-4079
畑に	-4080
納め	-4081
骨を	-4082
▁神が	-4083
きた時	-4084
さいわ	-4085
となし	-4086
どおり	-4087
のなら	-4088
のろい	-4089
ほら穴	-4090
み前に	-4091
アラバ	-4092
セイル	-4093
ダンの	-4094
ナアマ	-4095
メシュ	-4096
ラモテ	-4097
主人に	-4098
倒れて	-4099
前には	-4100
恵みと	-4101
感謝し	-4102
憤りを	-4103
書いた	-4104
残して	-4105
町から	-4106
知恵は	-4107
祈って	-4108
神々を	-4109
祭司と	-4110
見いだ	-4111
覚えて	-4112
訴える	-4113
追い出	-4114
▁多くの	-4115
えたので	-4116
から救い	-4117
く起きて	-4118
しきりに	-4119
しるしを	-4120
その前に	-4121
その地の	-4122
その子孫	-4123
といって	-4124
ところを	-4125
とを取り	-4126
にかけて	-4127
のための	-4128
は彼らの	-4129
ひとりを	-4130
めている	-4131
もしその	-4132
をおおい	-4133
を与える	-4134
を得させ	-4135
ヨセフの	-4136
主をほめ	-4137
人たちに	-4138
心にとめ	-4139
注がれた	-4140
者として	-4141
雄羊一頭	-4142
▁彼はその	-4143
あわれんで	-4144
かれている	-4145
このことを	-4146
の上にある	-4147
わがしもべ	-4148
アロンの子	-4149
エジプトに	-4150
シュエロス	-4151
兄弟たちは	-4152
弟子たちが	-4153
▁ソロモンは	-4154
いちじくの木	-4155
いつくしみと	-4156
ひとりの人が	-4157
ものであって	-4158
わたしに言った	-4159
エジプトびとは	-4160
させなければならない	-4161
その家族にしたがって	-4162
そり	-4163
と寝	-4164
に変	-4165
ぶね	-4166
クは	-4167
クリ	-4168
セア	-4169
ビル	-4170
ボテ	-4171
ミル	-4172
リム	-4173
事と	-4174
伏せ	-4175
伸べ	-4176
境を	-4177
実に	-4178
幕の	-4179
年は	-4180
広い	-4181
憎み	-4182
撃つ	-4183
楽し	-4184
次は	-4185
海に	-4186
産む	-4187
知れ	-4188
種の	-4189
聖会	-4190
見張	-4191
親族	-4192
青糸	-4193
顔は	-4194
▁アビ	-4195
あわて	-4196
いたい	-4197
かたを	-4198
ししの	-4199
なんと	-4200
に与え	-4201
のほか	-4202
めぐり	-4203
ものだ	-4204
やって	-4205
やりを	-4206
よりは	-4207
よろず	-4208
わが子	-4209
われら	-4210
エステ	-4211
ナオミ	-4212
ハダデ	-4213
バデヤ	-4214
一エパ	-4215
上から	-4216
偶像を	-4217
兄弟を	-4218
初めの	-4219
地の果	-4220
悲しむ	-4221
治世の	-4222
焼いて	-4223
生んだ	-4224
種をま	-4225
者にも	-4226
自身の	-4227
苦しむ	-4228
高ぶり	-4229
▁さらに	-4230
▁モーセ	-4231
▁ユダの	-4232
くださる	-4233
すぐれた	-4234
その民を	-4235
の子孫に	-4236
を守る者	-4237
を産んだ	-4238
ハナニヤ	-4239
バルナバ	-4240
パウロを	-4241
ユフラテ	-4242
寄り頼む	-4243
手を伸ば	-4244
滅ぼして	-4245
聞かれた	-4246
見られる	-4247
▁わたしに	-4248
さばかれる	-4249
したがって	-4250
その日には	-4251
のですから	-4252
の中にある	-4253
はわたしを	-4254
ケルビムの	-4255
兄弟である	-4256
割礼を受け	-4257
受けいれる	-4258
捨てられた	-4259
撃ち殺した	-4260
歳であった	-4261
▁エルサレム	-4262
あなたはこの	-4263
したすべての	-4264
すべての民に	-4265
っていたので	-4266
であったので	-4267
のようである	-4268
もしわたしが	-4269
導き出された	-4270
心をかたくな	-4271
あなたがたには	-4272
おのおの自分の	-4273
わざわいである	-4274
下さるであろう	-4275
先祖たちと共に	-4276
われわれのために	-4277
▁イエスは言われた	-4278
なかったからである	-4279
わたしたちのために	-4280
言わなければならない	-4281
わたしはあなたがたの神	-4282
バビロンの王ネブカデレ	-4283
イスラエルの人々に言いなさい	-4284
▁ウ	-4285
かみ	-4286
しか	-4287
しゅ	-4288
とつ	-4289
に時	-4290
らぬ	-4291
テム	-4292
ハム	-4293
マケ	-4294
ンネ	-4295
一族	-4296
主と	-4297
人や	-4298
使は	-4299
内で	-4300
内の	-4301
力が	-4302
勝つ	-4303
合う	-4304
告白	-4305
嘆く	-4306
娘の	-4307
娘は	-4308
広場	-4309
所と	-4310
招き	-4311
書を	-4312
流出	-4313
白い	-4314
第四	-4315
野に	-4316
▁かつ	-4317
かすめ	-4318
ことの	-4319
こなた	-4320
しゅろ	-4321
そこな	-4322
たない	-4323
つける	-4324
どこで	-4325
にかけ	-4326
に従う	-4327
の子が	-4328
らずに	-4329
るのを	-4330
る者に	-4331
わざに	-4332
を作り	-4333
アヒト	-4334
シケム	-4335
シュル	-4336
タルシ	-4337
ナイル	-4338
ピネハ	-4339
ラケル	-4340
一つも	-4341
備えて	-4342
分けて	-4343
国民は	-4344
怒りが	-4345
恐れを	-4346
悪人の	-4347
手には	-4348
打ち場	-4349
歩んだ	-4350
清める	-4351
町々に	-4352
眠って	-4353
立たせ	-4354
結んだ	-4355
聖所に	-4356
聞える	-4357
肉なる	-4358
荒れす	-4359
酒を飲	-4360
隠れた	-4361
馬に乗	-4362
いなずま	-4363
いろいろ	-4364
おおった	-4365
おののき	-4366
が言った	-4367
その子供	-4368
と思って	-4369
によみが	-4370
に行った	-4371
を呼んで	-4372
バラムは	-4373
人はその	-4374
彼の上に	-4375
心の中で	-4376
悪を行い	-4377
罪のない	-4378
羊の群れ	-4379
起きあが	-4380
預言した	-4381
▁われらの	-4382
あなたから	-4383
くださった	-4384
ぶどう酒を	-4385
をしている	-4386
ダニエルは	-4387
ダビデの子	-4388
ヤラベアム	-4389
住んでいた	-4390
心のうちに	-4391
手を伸べて	-4392
連れてきた	-4393
預言者たち	-4394
ためではなく	-4395
はことごとく	-4396
ひとりもない	-4397
エジプトびと	-4398
彼らは言った	-4399
▁わたしたちが	-4400
▁彼らは言った	-4401
えてはならない	-4402
およびすべての	-4403
られるでしょう	-4404
もしあなたがたが	-4405
キリストにあって	-4406
かご	-4407
とア	-4408
なえ	-4409
みよ	-4410
を失	-4411
ゲラ	-4412
ザバ	-4413
テオ	-4414
ハザ	-4415
七千	-4416
下す	-4417
保つ	-4418
先見	-4419
全世	-4420
名が	-4421
囲み	-4422
売り	-4423
妻は	-4424
子牛	-4425
断つ	-4426
明け	-4427
昼も	-4428
月に	-4429
注意	-4430
重い	-4431
閉ざ	-4432
その町	-4433
ちりを	-4434
った時	-4435
で満ち	-4436
のはて	-4437
の人々	-4438
ゆるす	-4439
ようだ	-4440
らった	-4441
を立て	-4442
を罪祭	-4443
マアセ	-4444
マッタ	-4445
取り除	-4446
同時に	-4447
喜びと	-4448
地上に	-4449
家畜と	-4450
日まで	-4451
書記官	-4452
渡した	-4453
物とを	-4454
王たち	-4455
百三十	-4456
知識を	-4457
祭司が	-4458
祭壇を	-4459
衣を着	-4460
訴えを	-4461
話して	-4462
▁この時	-4463
▁エホヤ	-4464
▁彼らを	-4465
▁愛する	-4466
あかしの	-4467
いましめ	-4468
すぎない	-4469
するのか	-4470
その所に	-4471
だれかが	-4472
つかえめ	-4473
ところの	-4474
なんでも	-4475
に宿営し	-4476
のがれた	-4477
はすべて	-4478
は彼らを	-4479
ひとりで	-4480
みわざを	-4481
らいたい	-4482
るがよい	-4483
アカシヤ	-4484
エステル	-4485
ナタンは	-4486
ネハダデ	-4487
バアシャ	-4488
主の名を	-4489
去られる	-4490
手のわざ	-4491
救われた	-4492
日が来る	-4493
残してお	-4494
祝福して	-4495
聞かない	-4496
計りごと	-4497
かたわらに	-4498
さまざまの	-4499
その子たち	-4500
とこしえの	-4501
と呼ばれる	-4502
に時があり	-4503
のある者は	-4504
のろわれる	-4505
ろうとする	-4506
われわれと	-4507
マケドニヤ	-4508
携えてきた	-4509
求めている	-4510
祭壇の上に	-4511
者であって	-4512
自分の命を	-4513
自分の家に	-4514
計りごとを	-4515
連れて行き	-4516
雄やぎ一頭	-4517
▁悪しき者は	-4518
そして彼らは	-4519
その父祖の家	-4520
につかわした	-4521
のうちにある	-4522
ほめたたえる	-4523
またわたしの	-4524
を知っている	-4525
エフライムは	-4526
目をさまして	-4527
および彼と共に	-4528
ことがなかった	-4529
ユダヤ人たちは	-4530
ることができようか	-4531
主にささげなければならない	-4532
▁あ	-4533
▁女	-4534
くし	-4535
げる	-4536
っき	-4537
の祭	-4538
の血	-4539
はる	-4540
みと	-4541
るが	-4542
んが	-4543
ガザ	-4544
ケダ	-4545
タイ	-4546
デは	-4547
ヒビ	-4548
ラケ	-4549
三年	-4550
乳を	-4551
偽善	-4552
勇気	-4553
地が	-4554
布の	-4555
戦う	-4556
歌え	-4557
泣く	-4558
注ぐ	-4559
結ば	-4560
羊と	-4561
義の	-4562
要害	-4563
足は	-4564
願う	-4565
▁王の	-4566
々しく	-4567
あるか	-4568
いかに	-4569
おそれ	-4570
じゅう	-4571
すまい	-4572
す者は	-4573
と尋ね	-4574
どもは	-4575
なした	-4576
につく	-4577
によろ	-4578
のろう	-4579
の全き	-4580
まわり	-4581
み名を	-4582
を得て	-4583
アンの	-4584
イザヤ	-4585
クロス	-4586
ダリヨ	-4587
仕事を	-4588
会って	-4589
伝えた	-4590
何ゆえ	-4591
備えた	-4592
地上の	-4593
場所で	-4594
家畜の	-4595
山から	-4596
得ない	-4597
悩ます	-4598
悪事を	-4599
散らし	-4600
治めた	-4601
獲物を	-4602
着いた	-4603
祭司に	-4604
納めた	-4605
落ちて	-4606
話した	-4607
迎えた	-4608
酒ぶね	-4609
開いて	-4610
いけにえ	-4611
いません	-4612
うしろに	-4613
きびしく	-4614
しるしと	-4615
すわって	-4616
それとも	-4617
つかわす	-4618
つまずき	-4619
つるぎと	-4620
と思った	-4621
につけた	-4622
に行って	-4623
はその子	-4624
ふたりを	-4625
めいめい	-4626
を立てて	-4627
アハジヤ	-4628
エシュア	-4629
エルカナ	-4630
シケムの	-4631
シャパン	-4632
ヨルダン	-4633
主に仕え	-4634
今日に至	-4635
先立って	-4636
召された	-4637
実を結ぶ	-4638
彼の前に	-4639
彼らには	-4640
悪い事を	-4641
撃たれた	-4642
滅ぼされ	-4643
葬られた	-4644
道に歩み	-4645
預言者は	-4646
▁ペテロは	-4647
おうとして	-4648
がわたしに	-4649
こともない	-4650
そのしもべ	-4651
とその村々	-4652
の王ひとり	-4653
ふところに	-4654
また彼らの	-4655
る者はない	-4656
をあなたに	-4657
ガリラヤの	-4658
ギデオンは	-4659
先祖たちに	-4660
立ちあがり	-4661
者となった	-4662
耳を傾けよ	-4663
▁そこで王は	-4664
▁そしてその	-4665
▁主なる神は	-4666
ことができず	-4667
ことを聞いた	-4668
これは彼らが	-4669
のであるから	-4670
もろもろの民	-4671
わたしの名を	-4672
救いください	-4673
言うであろう	-4674
ペリシテびとが	-4675
彼らはあなたの	-4676
それに属する村々	-4677
イスラエルの家の	-4678
イスラエルの家よ	-4679
イスラエルの王の	-4680
イスラエルの長老	-4681
エレミヤに臨んだ	-4682
知っているとおり	-4683
およびその兄弟たち	-4684
置かなければならない	-4685
▁イエスは答えて言われた	-4686
あし	-4687
くて	-4688
たら	-4689
つい	-4690
つき	-4691
つね	-4692
と女	-4693
なま	-4694
ばか	-4695
への	-4696
エン	-4697
オル	-4698
ケナ	-4699
コル	-4700
デボ	-4701
メデ	-4702
レパ	-4703
レブ	-4704
一の	-4705
不法	-4706
事実	-4707
兵士	-4708
力の	-4709
四つ	-4710
天が	-4711
妻と	-4712
心と	-4713
数の	-4714
方を	-4715
父を	-4716
産み	-4717
知事	-4718
聞え	-4719
あらわ	-4720
いまし	-4721
いやす	-4722
いれて	-4723
かせた	-4724
からの	-4725
が彼に	-4726
この人	-4727
せられ	-4728
たきぎ	-4729
だのに	-4730
つむじ	-4731
とりで	-4732
とを守	-4733
の家畜	-4734
ひどく	-4735
られず	-4736
を置き	-4737
テモテ	-4738
ネバテ	-4739
ベナヤ	-4740
ラキシ	-4741
主に帰	-4742
争いを	-4743
受けて	-4744
命令を	-4745
家から	-4746
少なく	-4747
従った	-4748
生れる	-4749
産物を	-4750
神の御	-4751
神の箱	-4752
第二の	-4753
軍勢を	-4754
▁人々が	-4755
かえりみ	-4756
が死んだ	-4757
さばきを	-4758
しようと	-4759
たましい	-4760
に着いた	-4761
のようで	-4762
の子らの	-4763
ひとしく	-4764
わが民の	-4765
をおおう	-4766
アマジヤ	-4767
エリヤは	-4768
ギデオン	-4769
シケルの	-4770
ッサカル	-4771
バラクは	-4772
歌をうた	-4773
行われる	-4774
軍勢の長	-4775
預言して	-4776
預言者を	-4777
▁レハベア	-4778
かかわらず	-4779
これを見て	-4780
ささげ物を	-4781
とどまった	-4782
とによって	-4783
に投げ入れ	-4784
のであれば	-4785
ようである	-4786
アビシャイ	-4787
キュビトの	-4788
ネバテの子	-4789
マナセの半	-4790
ヨナタンは	-4791
仰せられる	-4792
宿っている	-4793
心をつくし	-4794
悪しき者を	-4795
物をもって	-4796
逃げ去った	-4797
▁アブラハム	-4798
▁サムエルは	-4799
ことはしない	-4800
されなかった	-4801
すべての民の	-4802
にあるように	-4803
になりました	-4804
わたしたちも	-4805
わたしもまた	-4806
アモリびとの	-4807
二十歳以上の	-4808
満たしていた	-4809
言葉を聞いて	-4810
▁あなたはその	-4811
▁アブラハムは	-4812
あなたのもとに	-4813
になるであろう	-4814
にもかかわらず	-4815
もろもろの国民	-4816
わたしは彼らに	-4817
イエスにあって	-4818
モーセによって	-4819
汚れるであろう	-4820
祭司エレアザル	-4821
あなたはわたしに	-4822
汚してはならない	-4823
が代って王となった	-4824
っていたからである	-4825
▁イエスは彼らに言われた	-4826
イスラエルの人々の全会衆	-4827
▁夜	-4828
かち	-4829
けが	-4830
しが	-4831
つつ	-4832
ひげ	-4833
ひな	-4834
よか	-4835
をひ	-4836
ガル	-4837
サル	-4838
ニム	-4839
ハネ	-4840
ラブ	-4841
レホ	-4842
三人	-4843
位を	-4844
作り	-4845
加わ	-4846
十六	-4847
合い	-4848
土の	-4849
家と	-4850
富を	-4851
得る	-4852
悩ま	-4853
気づ	-4854
熱心	-4855
理し	-4856
男は	-4857
皮に	-4858
破れ	-4859
糸で	-4860
罰を	-4861
草を	-4862
落し	-4863
証言	-4864
議会	-4865
部分	-4866
雲が	-4867
顔の	-4868
▁そこ	-4869
あらか	-4870
うちで	-4871
かして	-4872
こわし	-4873
させよ	-4874
それと	-4875
たれて	-4876
つなが	-4877
でさえ	-4878
とめて	-4879
のだが	-4880
の子ヨ	-4881
の者が	-4882
ふるま	-4883
やめて	-4884
るのか	-4885
をかく	-4886
をもう	-4887
をもち	-4888
を引き	-4889
アナク	-4890
アラム	-4891
カレブ	-4892
ザバデ	-4893
シャク	-4894
ジびと	-4895
ソドム	-4896
ミカヤ	-4897
主人が	-4898
信じて	-4899
偶像に	-4900
全地の	-4901
合った	-4902
嗣業の	-4903
大勇士	-4904
忘れて	-4905
思い出	-4906
悩みと	-4907
悪霊を	-4908
慰める	-4909
時にも	-4910
父の家	-4911
神の言	-4912
祭壇と	-4913
羊の毛	-4914
群衆は	-4915
者とを	-4916
聖別し	-4917
行くと	-4918
諸教会	-4919
起した	-4920
▁やがて	-4921
▁ヨアブ	-4922
うことを	-4923
うように	-4924
かどうか	-4925
ことがわ	-4926
さばきの	-4927
しないで	-4928
すること	-4929
なくても	-4930
になると	-4931
になんの	-4932
に帰った	-4933
に従った	-4934
はじめた	-4935
ひざまず	-4936
われらに	-4937
を見ない	-4938
アドニヤ	-4939
エヒウは	-4940
サムソン	-4941
ヒビびと	-4942
マリヤは	-4943
ヤコブと	-4944
信じない	-4945
分である	-4946
安息日を	-4947
憎まれる	-4948
神はその	-4949
踏みにじ	-4950
身をかが	-4951
選ばれる	-4952
隣り人を	-4953
預言者が	-4954
食い飲み	-4955
▁あなたを	-4956
▁わが子よ	-4957
あらかじめ	-4958
いうわけで	-4959
おのおのの	-4960
があったが	-4961
がわたしの	-4962
くちびるは	-4963
しるされた	-4964
するならば	-4965
そうである	-4966
だからです	-4967
って行って	-4968
のでしょう	-4969
みごもって	-4970
らせなさい	-4971
わからない	-4972
わたしは今	-4973
アブラムは	-4974
エジプト全	-4975
メシュラム	-4976
主が賜わる	-4977
声を聞いた	-4978
愚かな者の	-4979
持ってきた	-4980
持ってきて	-4981
民のために	-4982
者はだれか	-4983
聞くがよい	-4984
▁それだから	-4985
およびすべて	-4986
っているのか	-4987
としてささげ	-4988
の子孫の部族	-4989
わたしの心は	-4990
助けください	-4991
叫んで言った	-4992
民のうちから	-4993
聖所のシケル	-4994
▁イスラエルは	-4995
▁主は言われた	-4996
こう言いなさい	-4997
ことがあろうか	-4998
ようとしている	-4999
ることのできる	-5000
われわれの神の	-5001
アハシュエロス	-5002
罪を犯しました	-5003
言われたように	-5004
されたからである	-5005
されるからである	-5006
ものだからである	-5007
られたからである	-5008
こなければならない	-5009
イスラエルのうちに	-5010
主は生きておられる	-5011
わたしはあなたがたに	-5012
死人の中からよみがえ	-5013
必ず殺されなければならない	-5014
▁セ	-5015
おぼ	-5016
ずめ	-5017
たせ	-5018
どれ	-5019
の第	-5020
もり	-5021
らも	-5022
アの	-5023
アド	-5024
エク	-5025
エグ	-5026
エペ	-5027
オグ	-5028
カブ	-5029
ゴモ	-5030
スサ	-5031
ネベ	-5032
マキ	-5033
ロー	-5034
七頭	-5035
乳と	-5036
伸ば	-5037
何者	-5038
倒し	-5039
勝ち	-5040
南の	-5041
名に	-5042
命は	-5043
土台	-5044
夕方	-5045
天は	-5046
寝た	-5047
弱く	-5048
愛と	-5049
暗い	-5050
果て	-5051
歌い	-5052
歌う	-5053
気が	-5054
獣も	-5055
産を	-5056
畑を	-5057
祈を	-5058
結び	-5059
肉体	-5060
行動	-5061
賜わ	-5062
道で	-5063
道と	-5064
首を	-5065
▁女は	-5066
、――	-5067
あげた	-5068
がもし	-5069
ぐべき	-5070
こちら	-5071
そむき	-5072
づかさ	-5073
はこう	-5074
までに	-5075
みきら	-5076
めとり	-5077
やかな	-5078
らかな	-5079
わが主	-5080
をかき	-5081
を彼に	-5082
を過ご	-5083
んじて	-5084
んだ像	-5085
エラム	-5086
カデシ	-5087
テムナ	-5088
伝える	-5089
伸べて	-5090
信仰が	-5091
信仰と	-5092
兄弟の	-5093
十二の	-5094
十人の	-5095
合わせ	-5096
地には	-5097
定めを	-5098
富める	-5099
建てる	-5100
恵みが	-5101
悟りを	-5102
栄える	-5103
水をく	-5104
男女の	-5105
異邦の	-5106
破った	-5107
聞かれ	-5108
聞こう	-5109
諸国民	-5110
近づく	-5111
飲んだ	-5112
高さは	-5113
あやまち	-5114
かしの木	-5115
から来る	-5116
くように	-5117
この人が	-5118
さもない	-5119
しかった	-5120
しもべの	-5121
すことを	-5122
する者を	-5123
すわった	-5124
その道を	-5125
っていて	-5126
つくして	-5127
でもない	-5128
とおして	-5129
とどまる	-5130
と名づけ	-5131
と言うと	-5132
なくなり	-5133
なすべき	-5134
に向かい	-5135
のですが	-5136
の子孫と	-5137
はいない	-5138
られたが	-5139
わないで	-5140
をうける	-5141
を建てた	-5142
を見ると	-5143
カルメル	-5144
ダビデと	-5145
主の前で	-5146
主の宮で	-5147
人の子が	-5148
十二弟子	-5149
向こうの	-5150
場合には	-5151
子を産む	-5152
恵みを得	-5153
書きおく	-5154
気をつけ	-5155
町である	-5156
血を流す	-5157
▁もしその	-5158
▁モーセが	-5159
あなたには	-5160
こう言った	-5161
ことになる	-5162
これもまた	-5163
したことを	-5164
そして彼は	-5165
のであって	-5166
をあなたの	-5167
エジプトで	-5168
オリブの木	-5169
サマリヤに	-5170
ダマスコの	-5171
ユダヤ人を	-5172
互に言った	-5173
仕えている	-5174
宣べ伝える	-5175
心をもって	-5176
水のように	-5177
行うならば	-5178
があったので	-5179
すなわちその	-5180
すべきである	-5181
すべての人の	-5182
それをもって	-5183
たちのために	-5184
となっている	-5185
はずかしめる	-5186
ることがない	-5187
ダビデの町に	-5188
主はあなたを	-5189
命じたように	-5190
あなたに対して	-5191
たれるであろう	-5192
ところへ行って	-5193
彼らにむかって	-5194
数にしたがって	-5195
▁しかしわたしは	-5196
の子孫のうちでは	-5197
られるからである	-5198
イエスのところに	-5199
イスラエルの家に	-5200
呼ばわって言った	-5201
わたしは生きている	-5202
焼かなければならない	-5203
その子たちおよびその兄弟たち	-5204
▁悪	-5205
▁父	-5206
さと	-5207
しに	-5208
じし	-5209
たよ	-5210
なめ	-5211
に負	-5212
のあ	-5213
らな	-5214
アデ	-5215
オフ	-5216
ガデ	-5217
クサ	-5218
クレ	-5219
ザロ	-5220
ドド	-5221
ヘヅ	-5222
マイ	-5223
ヤベ	-5224
三万	-5225
乳ぶ	-5226
今や	-5227
八日	-5228
内側	-5229
天使	-5230
富と	-5231
広く	-5232
当て	-5233
最後	-5234
消し	-5235
無知	-5236
物で	-5237
物も	-5238
親切	-5239
送る	-5240
開き	-5241
間の	-5242
風の	-5243
▁エリ	-5244
おうと	-5245
かるに	-5246
ぜた麦	-5247
その柱	-5248
その頭	-5249
そむく	-5250
できる	-5251
にきて	-5252
にまさ	-5253
に引き	-5254
のを知	-5255
の氏族	-5256
は彼を	-5257
ひとつ	-5258
ほとり	-5259
めのう	-5260
らした	-5261
り動か	-5262
れさせ	-5263
をあら	-5264
を見よ	-5265
アルノ	-5266
イムの	-5267
シの子	-5268
ゼルバ	-5269
ニネベ	-5270
ネゲブ	-5271
ハシャ	-5272
ラザロ	-5273
ルから	-5274
ローマ	-5275
七たび	-5276
五十人	-5277
人々と	-5278
人にも	-5279
住民を	-5280
信仰を	-5281
全地に	-5282
全地を	-5283
出入り	-5284
変えて	-5285
定める	-5286
怒りと	-5287
怒りに	-5288
恵みふ	-5289
招いた	-5290
拝した	-5291
教えた	-5292
時まで	-5293
栄光と	-5294
栄光は	-5295
死体を	-5296
百二十	-5297
砕いた	-5298
立てる	-5299
者は皆	-5300
良いと	-5301
荒れた	-5302
葬られ	-5303
誓って	-5304
身をす	-5305
長さは	-5306
除いて	-5307
隠して	-5308
▁この後	-5309
▁これが	-5310
▁ほかの	-5311
▁パロは	-5312
▁祭司は	-5313
あかしを	-5314
から出る	-5315
その子を	-5316
その日に	-5317
それを見	-5318
たちから	-5319
ところは	-5320
の入口に	-5321
の子孫が	-5322
みなしご	-5323
もう一度	-5324
もしない	-5325
ゆえなく	-5326
ようとし	-5327
を与えて	-5328
サウルに	-5329
ベテシメ	-5330
一万二千	-5331
人たちよ	-5332
千人の長	-5333
呼ばわる	-5334
地に投げ	-5335
多かった	-5336
恐れさせ	-5337
悩ました	-5338
持ち物を	-5339
朝ごとに	-5340
殺そうと	-5341
踏みつけ	-5342
▁その人は	-5343
いっさいの	-5344
ここにいる	-5345
ことをした	-5346
これは主が	-5347
さもないと	-5348
つかさどり	-5349
とどまって	-5350
となられた	-5351
につかわし	-5352
また言った	-5353
ものとなる	-5354
をつかさど	-5355
パンを食べ	-5356
ベネハダデ	-5357
ペリジびと	-5358
ミデアンの	-5359
レビびとに	-5360
上ってきた	-5361
呼ばわって	-5362
夜のうちに	-5363
宮に仕える	-5364
彼によって	-5365
彼のもとに	-5366
悪を行った	-5367
所へ行って	-5368
求めなさい	-5369
王のもとに	-5370
立てられた	-5371
者があれば	-5372
あとについて	-5373
あなたを祝福	-5374
いだいている	-5375
おまえたちは	-5376
からわたしを	-5377
から出てきた	-5378
そうではない	-5379
と言いなさい	-5380
のようにする	-5381
ようとしたが	-5382
わたしの兄弟	-5383
わたしは彼の	-5384
帰って行った	-5385
心をつくして	-5386
来るであろう	-5387
死ぬであろう	-5388
者にむかって	-5389
者に感謝せよ	-5390
あなたは彼らを	-5391
ことを知らない	-5392
によるのである	-5393
のうちにあって	-5394
もろもろの民を	-5395
ようとするのか	-5396
られますように	-5397
られるのですか	-5398
わたしに対して	-5399
バプテスマを授	-5400
ユダのすべての	-5401
合わせて十二人	-5402
身をめぐらして	-5403
ことはできません	-5404
されることはない	-5405
どうしてあなたは	-5406
エルサレムにある	-5407
バプテスマを受け	-5408
▁あなたはわたしの	-5409
わたしがあなたがたに	-5410
を守らなければならない	-5411
▁メ	-5412
うえ	-5413
おき	-5414
おご	-5415
おじ	-5416
たと	-5417
にま	-5418
ばん	-5419
ひら	-5420
ふれ	-5421
まく	-5422
みた	-5423
めに	-5424
テパ	-5425
マハ	-5426
ラク	-5427
リス	-5428
一ヒ	-5429
下で	-5430
両親	-5431
仰ぎ	-5432
何の	-5433
光が	-5434
四万	-5435
国と	-5436
国語	-5437
外で	-5438
外国	-5439
夫が	-5440
宝を	-5441
小麦	-5442
山と	-5443
帰る	-5444
年を	-5445
意を	-5446
愛は	-5447
数が	-5448
権利	-5449
渡す	-5450
満足	-5451
獣を	-5452
石は	-5453
者だ	-5454
若き	-5455
解放	-5456
証明	-5457
軍を	-5458
長官	-5459
▁なぜ	-5460
▁彼に	-5461
▁彼を	-5462
▁彼女	-5463
うせる	-5464
きっと	-5465
ころが	-5466
ささえ	-5467
そそぎ	-5468
たずね	-5469
ならせ	-5470
によく	-5471
に行く	-5472
の中を	-5473
の兄弟	-5474
の時代	-5475
の長老	-5476
はじめ	-5477
ほまれ	-5478
やから	-5479
らせよ	-5480
わらべ	-5481
をうけ	-5482
をもろ	-5483
を持つ	-5484
を知る	-5485
を築き	-5486
エペソ	-5487
サライ	-5488
ノアは	-5489
バルク	-5490
ペレテ	-5491
一日に	-5492
不義の	-5493
主に祈	-5494
主の命	-5495
主の箱	-5496
先祖の	-5497
別れて	-5498
北の方	-5499
君たる	-5500
天幕に	-5501
定めに	-5502
少ない	-5503
律法は	-5504
御霊が	-5505
愛した	-5506
戒めて	-5507
救った	-5508
救って	-5509
数えた	-5510
断じて	-5511
油そそ	-5512
満たす	-5513
用いた	-5514
男子は	-5515
異なる	-5516
確かな	-5517
立ち返	-5518
賜物を	-5519
重さは	-5520
▁それを	-5521
▁イエス	-5522
▁サウル	-5523
▁モアブ	-5524
▁ヨハネ	-5525
あいさつ	-5526
あげよう	-5527
えていた	-5528
おまえを	-5529
かえして	-5530
この地の	-5531
ささげ物	-5532
さばいた	-5533
その地に	-5534
その心は	-5535
その罪を	-5536
たしかに	-5537
たちとは	-5538
でいらせ	-5539
ですから	-5540
としても	-5541
につなが	-5542
のぼった	-5543
はるかに	-5544
は自分の	-5545
ひれ伏し	-5546
まいない	-5547
まことの	-5548
またこの	-5549
をあがめ	-5550
んだので	-5551
ヤコブを	-5552
主を恐れ	-5553
分の一を	-5554
守るべき	-5555
宮を建て	-5556
対しては	-5557
導き出し	-5558
待ち望む	-5559
律法学者	-5560
最も良い	-5561
栄えさせ	-5562
異邦人に	-5563
神を恐れ	-5564
者はその	-5565
過越の祭	-5566
預言する	-5567
▁キリスト	-5568
いやされた	-5569
おとずれを	-5570
がわたしを	-5571
ことをして	-5572
しておいた	-5573
しゅうとめ	-5574
そこに住む	-5575
それである	-5576
という名の	-5577
なのですか	-5578
のであった	-5579
ぶんどり物	-5580
わが聖なる	-5581
わたし自身	-5582
エホアハズ	-5583
ゼルヤの子	-5584
ソロモンに	-5585
主のしもべ	-5586
同様である	-5587
彼について	-5588
彼らの前に	-5589
携えてきて	-5590
次のように	-5591
正しい者の	-5592
民に言った	-5593
水に身をす	-5594
求める者は	-5595
▁というのは	-5596
おびただしい	-5597
ったのである	-5598
をもろもろの	-5599
エルサレムは	-5600
エルサレムへ	-5601
上って行って	-5602
主の契約の箱	-5603
主はあなたの	-5604
主はわたしを	-5605
二十キュビト	-5606
彼はわたしの	-5607
怒りをもって	-5608
立ちあがって	-5609
連れて行って	-5610
されるのである	-5611
その氏族により	-5612
わたしたちの主	-5613
イエスのもとに	-5614
教えてください	-5615
生きながらえる	-5616
▁こうして彼らは	-5617
ことを知っている	-5618
わたしがあなたを	-5619
わたしのところに	-5620
イスラエルびとは	-5621
生きておられます	-5622
▁もしあなたがたが	-5623
▁わざわいなるかな	-5624
▁イスラエルの人々	-5625
ことができましょう	-5626
なければなりません	-5627
あなたがたはわたしの	-5628
あなたがたはわたしを	-5629
主の言葉がわたしに臨んだ	-5630
としてささげなければならない	-5631
▁ホ	-5632
えり	-5633
かん	-5634
がせ	-5635
が明	-5636
きず	-5637
くは	-5638
げた	-5639
のす	-5640
の谷	-5641
はエ	-5642
ひっ	-5643
みん	-5644
もだ	-5645
やせ	-5646
よわ	-5647
をす	-5648
イラ	-5649
オテ	-5650
サン	-5651
シム	-5652
ダヤ	-5653
デシ	-5654
トン	-5655
ハン	-5656
ヘマ	-5657
ヨテ	-5658
仕事	-5659
保証	-5660
六千	-5661
国が	-5662
壁に	-5663
心で	-5664
悪く	-5665
悪に	-5666
愛を	-5667
持つ	-5668
放ち	-5669
新た	-5670
日々	-5671
火は	-5672
父祖	-5673
牛が	-5674
獣と	-5675
町で	-5676
確か	-5677
罪が	-5678
罪と	-5679
荒し	-5680
起り	-5681
門に	-5682
隠し	-5683
非難	-5684
馬を	-5685
骨は	-5686
▁さあ	-5687
▁アサ	-5688
▁民は	-5689
▁知恵	-5690
。――	-5691
あるが	-5692
いずれ	-5693
えない	-5694
えられ	-5695
おのれ	-5696
かえる	-5697
が彼を	-5698
したり	-5699
たくら	-5700
だけを	-5701
どこへ	-5702
なわざ	-5703
に及び	-5704
ねたみ	-5705
の家は	-5706
ばりを	-5707
びとと	-5708
もとの	-5709
やった	-5710
をあざ	-5711
を出て	-5712
を焼き	-5713
アヒカ	-5714
アルパ	-5715
シセラ	-5716
テオケ	-5717
ハマテ	-5718
パロに	-5719
レモテ	-5720
一つに	-5721
三日目	-5722
二十五	-5723
二十四	-5724
分ける	-5725
取り去	-5726
向かう	-5727
売った	-5728
引いた	-5729
彼から	-5730
思いは	-5731
恵みの	-5732
戦車と	-5733
戦車の	-5734
数える	-5735
最後に	-5736
注いだ	-5737
燔祭を	-5738
用いて	-5739
破って	-5740
素祭と	-5741
終って	-5742
群衆を	-5743
聖書に	-5744
見えた	-5745
言おう	-5746
足なえ	-5747
近づき	-5748
道から	-5749
配する	-5750
隠した	-5751
領地に	-5752
▁そこに	-5753
▁マナセ	-5754
あざけり	-5755
ききんと	-5756
この民に	-5757
この町に	-5758
さばきは	-5759
しかるに	-5760
すように	-5761
するのは	-5762
たちは皆	-5763
つるぎは	-5764
とその従	-5765
と尋ねた	-5766
と言えば	-5767
どんなに	-5768
につるぎ	-5769
にはその	-5770
みんなが	-5771
めとって	-5772
をこわし	-5773
オバデヤ	-5774
ザドクと	-5775
ゼブルン	-5776
ネタニヤ	-5777
ハマテの	-5778
パウロの	-5779
ヨセフが	-5780
ヨハネは	-5781
七日目に	-5782
不思議に	-5783
与えると	-5784
供え物は	-5785
出て行き	-5786
勝利を得	-5787
受くべき	-5788
天にある	-5789
女たちは	-5790
実を結び	-5791
山の上に	-5792
彼はまた	-5793
彼らの神	-5794
恐れるな	-5795
手に渡す	-5796
淫を行う	-5797
満たした	-5798
王たちの	-5799
百人の長	-5800
神の箱を	-5801
聖別して	-5802
言わせた	-5803
言わない	-5804
足りない	-5805
香をたき	-5806
▁エレミヤ	-5807
▁ダビデが	-5808
あわれみを	-5809
かたである	-5810
がなかった	-5811
ことをやめ	-5812
されていた	-5813
そのうちの	-5814
その人々は	-5815
ためであり	-5816
どのような	-5817
ないならば	-5818
の中にいる	-5819
またすべて	-5820
ようにして	-5821
られていた	-5822
アビヤタル	-5823
アンテオケ	-5824
下ってきた	-5825
下ってきて	-5826
人であって	-5827
天にいます	-5828
川のように	-5829
授けられた	-5830
生き残った	-5831
者があるか	-5832
▁われわれの	-5833
▁ヨシャパテ	-5834
あなたの上に	-5835
させるために	-5836
すべてのもの	-5837
と言いました	-5838
と言うならば	-5839
どこからきた	-5840
もしなかった	-5841
るからである	-5842
わたしよりも	-5843
アブサロムの	-5844
下って行って	-5845
主はわたしの	-5846
五十キュビト	-5847
憎むべき事を	-5848
王となった時	-5849
▁わたしはわが	-5850
あなたがた一同	-5851
あなたと一緒に	-5852
あなたはそれを	-5853
ことができよう	-5854
されるでしょう	-5855
にあるすべての	-5856
らせるであろう	-5857
わたしが彼らを	-5858
わたしたちには	-5859
わたしは自分の	-5860
わたしは言った	-5861
あなたがたの上に	-5862
あなたにむかって	-5863
あなたのすべての	-5864
こう仰せられます	-5865
びとの氏族が出た	-5866
エルサレムに住む	-5867
下さったのである	-5868
あなたがたと一緒に	-5869
ことはないであろう	-5870
ゆるされるであろう	-5871
イスラエルのために	-5872
ことができるであろう	-5873
行かなければならない	-5874
▁主の言葉がわたしに臨んだ	-5875
わたしが主であることを知る	-5876
あがないをしなければならない	-5877
いど	-5878
おさ	-5879
かと	-5880
がら	-5881
せん	-5882
たけ	-5883
だち	-5884
にせ	-5885
ぬぐ	-5886
の前	-5887
の角	-5888
びて	-5889
まむ	-5890
もも	-5891
る所	-5892
わか	-5893
を召	-5894
キム	-5895
ゲバ	-5896
ゴグ	-5897
セナ	-5898
タム	-5899
ック	-5900
ナハ	-5901
ネア	-5902
ハッ	-5903
ミク	-5904
ラタ	-5905
今後	-5906
光は	-5907
八十	-5908
出せ	-5909
労働	-5910
善を	-5911
地へ	-5912
年老	-5913
服従	-5914
町と	-5915
皮の	-5916
眠り	-5917
築き	-5918
若者	-5919
賜物	-5920
足が	-5921
間で	-5922
隠す	-5923
集会	-5924
願わ	-5925
▁アル	-5926
▁パロ	-5927
あたり	-5928
あれは	-5929
い者は	-5930
うべき	-5931
お答え	-5932
かわき	-5933
そしる	-5934
その枝	-5935
そばめ	-5936
だれに	-5937
っきり	-5938
なまけ	-5939
に下り	-5940
に及ぶ	-5941
の手に	-5942
の知事	-5943
の道を	-5944
の間の	-5945
ひょう	-5946
ませた	-5947
ませる	-5948
みると	-5949
み言葉	-5950
もみな	-5951
やぐら	-5952
らしい	-5953
をかぶ	-5954
を通り	-5955
ウジヤ	-5956
オムリ	-5957
ニびと	-5958
リブナ	-5959
リヤは	-5960
一つは	-5961
一つを	-5962
上着を	-5963
偽って	-5964
分かち	-5965
分け前	-5966
十分の	-5967
器物を	-5968
四すみ	-5969
土地を	-5970
報いて	-5971
売って	-5972
子供の	-5973
家畜を	-5974
帰する	-5975
常燔祭	-5976
彼には	-5977
戒めと	-5978
打った	-5979
攻め囲	-5980
教会の	-5981
来ると	-5982
死人を	-5983
理した	-5984
真実な	-5985
真実を	-5986
聖所を	-5987
聞かず	-5988
自分も	-5989
良しと	-5990
貧しく	-5991
起って	-5992
返して	-5993
逃げた	-5994
逆らう	-5995
閉じこ	-5996
降りて	-5997
願った	-5998
高き所	-5999
▁その子	-6000
▁エサウ	-6001
▁シモン	-6002
あわれむ	-6003
からだは	-6004
きている	-6005
させよう	-6006
したのか	-6007
しません	-6008
しもべを	-6009
ずかしい	-6010
その命を	-6011
その実を	-6012
その身を	-6013
それらは	-6014
つまずく	-6015
とっては	-6016
と同じく	-6017
どういう	-6018
どこから	-6019
ならわし	-6020
にそれを	-6021
につける	-6022
にわかに	-6023
に及んだ	-6024
のままに	-6025
の子エリ	-6026
ぶどうを	-6027
み言葉を	-6028
むすこ娘	-6029
よろしい	-6030
られても	-6031
ることに	-6032
を聞いて	-6033
イタマル	-6034
カイザル	-6035
ピネハス	-6036
ヘヅロン	-6037
マアセヤ	-6038
一生の間	-6039
三日目に	-6040
人がその	-6041
共にいる	-6042
喜びの声	-6043
四方から	-6044
得ようか	-6045
悪をおこ	-6046
憎む者は	-6047
手にある	-6048
手を伸べ	-6049
断たれる	-6050
火で焼き	-6051
王たちを	-6052
祝福した	-6053
者となる	-6054
語られる	-6055
追い出し	-6056
追い出す	-6057
遠くから	-6058
開かれた	-6059
▁いったい	-6060
▁その子は	-6061
▁シオンの	-6062
▁知恵ある	-6063
があります	-6064
そしてその	-6065
そのとおり	-6066
だけである	-6067
であったか	-6068
としなさい	-6069
とその子孫	-6070
につかれた	-6071
のだろうか	-6072
の中に投げ	-6073
みこころに	-6074
めて言った	-6075
をあらわし	-6076
アブネルは	-6077
エステルは	-6078
主の栄光が	-6079
十分の一を	-6080
合っている	-6081
多くの人を	-6082
富んでいる	-6083
導き出して	-6084
彼らはみな	-6085
彼らをその	-6086
捕えられて	-6087
歌うたう者	-6088
歳になって	-6089
火のように	-6090
王は言った	-6091
祝福された	-6092
罰せられる	-6093
血を流した	-6094
▁そして彼は	-6095
▁祭司はその	-6096
あなたの手を	-6097
っておられた	-6098
どこにいるか	-6099
のようにして	-6100
はなはだしく	-6101
もうひとりの	-6102
わたしに仕え	-6103
アンモンびと	-6104
ヨシャパテは	-6105
主があなたを	-6106
会見の幕屋の	-6107
命じになった	-6108
知らないのか	-6109
連れて行った	-6110
あがないをする	-6111
あなたによって	-6112
あなたのうちに	-6113
どこにいるのか	-6114
わたしに従って	-6115
エジプトの地に	-6116
ンの子ヨシュア	-6117
▁イスラエルの王	-6118
あなたがたの前に	-6119
あなたはどうして	-6120
くすしきみわざを	-6121
させるためである	-6122
つかわしになった	-6123
をもってあなたを	-6124
パリサイ人たちが	-6125
主はほむべきかな	-6126
宮に仕えるしもべ	-6127
断たれるであろう	-6128
▁わたしはあなたを	-6129
わたしをあわれんで	-6130
ヨルダンの向こう側	-6131
夕まで汚れるであろう	-6132
洗わなければならない	-6133
▁地	-6134
うす	-6135
うな	-6136
が生	-6137
きれ	-6138
すて	-6139
だが	-6140
を払	-6141
ハジ	-6142
パズ	-6143
ベレ	-6144
ペナ	-6145
ラダ	-6146
ルツ	-6147
不従	-6148
主権	-6149
以前	-6150
信心	-6151
全土	-6152
十三	-6153
去れ	-6154
叫べ	-6155
台と	-6156
和解	-6157
国へ	-6158
対し	-6159
岩の	-6160
川に	-6161
愛が	-6162
施す	-6163
昼は	-6164
海と	-6165
父と	-6166
目で	-6167
着物	-6168
祈と	-6169
祈る	-6170
穴に	-6171
罪所	-6172
罰し	-6173
群が	-6174
肉と	-6175
肉は	-6176
至る	-6177
舌を	-6178
裂け	-6179
誇り	-6180
踏む	-6181
進む	-6182
銀は	-6183
馬の	-6184
▁これ	-6185
▁アヒ	-6186
▁アン	-6187
、「『	-6188
あすの	-6189
おおう	-6190
お聞き	-6191
かえて	-6192
が起り	-6193
ことか	-6194
さとき	-6195
そうだ	-6196
そこは	-6197
その座	-6198
ってい	-6199
でその	-6200
のまま	-6201
のパン	-6202
の天幕	-6203
の娘で	-6204
の長は	-6205
はいり	-6206
み顔を	-6207
めかけ	-6208
る者も	-6209
わが救	-6210
わずら	-6211
を知り	-6212
カルの	-6213
シドン	-6214
ゼルの	-6215
テルザ	-6216
トビヤ	-6217
ペレヅ	-6218
不信仰	-6219
五人の	-6220
何事も	-6221
全地は	-6222
割礼を	-6223
勇士の	-6224
平安を	-6225
悩みを	-6226
招いて	-6227
放って	-6228
敵して	-6229
日の後	-6230
望みは	-6231
求めよ	-6232
渡して	-6233
満ちた	-6234
熱心に	-6235
知らず	-6236
罰して	-6237
群れの	-6238
聞くと	-6239
自らを	-6240
舟に乗	-6241
行かれ	-6242
越えて	-6243
追いつ	-6244
造って	-6245
閉じて	-6246
降らせ	-6247
▁これに	-6248
▁ヨシヤ	-6249
▁貧しい	-6250
あがなう	-6251
あまねく	-6252
おそらく	-6253
かしらは	-6254
きょうは	-6255
ことです	-6256
ことを好	-6257
こられる	-6258
さわった	-6259
そうです	-6260
そしりを	-6261
その父の	-6262
ただちに	-6263
ためです	-6264
たる者は	-6265
つかさは	-6266
つむじ風	-6267
なおさら	-6268
にあずか	-6269
にこれを	-6270
についた	-6271
にまさる	-6272
に上って	-6273
に住んで	-6274
のパンを	-6275
の子孫で	-6276
ふたりが	-6277
ほめうた	-6278
わたして	-6279
をつくり	-6280
を作って	-6281
を彼らに	-6282
エポデの	-6283
タルシシ	-6284
ネゲブの	-6285
ハマンは	-6286
バアルに	-6287
ヨハナン	-6288
ヨベルの	-6289
ラバンは	-6290
ルベンの	-6291
世にある	-6292
主の宮を	-6293
事である	-6294
宿営した	-6295
平安とが	-6296
彼らから	-6297
恵みを施	-6298
所である	-6299
捨てられ	-6300
男子と女	-6301
着物を着	-6302
神の人が	-6303
神の言を	-6304
者であり	-6305
者どもの	-6306
者どもを	-6307
聞かせた	-6308
荒れはて	-6309
荒布をま	-6310
行きます	-6311
見つから	-6312
買いもど	-6313
近寄って	-6314
通り過ぎ	-6315
隣り人に	-6316
高き所を	-6317
▁あるいは	-6318
▁けれども	-6319
▁そののち	-6320
▁ナフタリ	-6321
▁神はその	-6322
いたします	-6323
これはその	-6324
すべての事	-6325
その衣服を	-6326
それぞれの	-6327
ただひとり	-6328
と共にいる	-6329
と言わせた	-6330
と言われる	-6331
なんという	-6332
にかかって	-6333
にすぎない	-6334
ほんとうに	-6335
よりも多く	-6336
わたしを見	-6337
をささげた	-6338
を守る者は	-6339
ゼブルンの	-6340
ソロモンを	-6341
パロとその	-6342
マッタニヤ	-6343
ユダの町々	-6344
ラッパを吹	-6345
万軍の主の	-6346
主に対して	-6347
偽りを言う	-6348
契約を結び	-6349
子を生んだ	-6350
定められる	-6351
川向こうの	-6352
年のあいだ	-6353
水を飲ませ	-6354
男女の奴隷	-6355
神によって	-6356
聖なる物を	-6357
自分自身を	-6358
金をもって	-6359
香をたいた	-6360
▁そこで彼は	-6361
▁正しい者の	-6362
あがなわれた	-6363
あなたの先祖	-6364
ことがあれば	-6365
ことであろう	-6366
さないように	-6367
すわっている	-6368
となえられる	-6369
もろもろの器	-6370
を与えられた	-6371
アブラハムに	-6372
下さるように	-6373
御霊によって	-6374
怒りによって	-6375
油そそがれた	-6376
神のみまえに	-6377
罪を犯させた	-6378
若い雄牛一頭	-6379
集まってきて	-6380
▁そして彼らは	-6381
▁もしわたしが	-6382
▁ベニヤミンの	-6383
▁信仰によって	-6384
あなたについて	-6385
あなたはこれを	-6386
こうして彼らは	-6387
させるであろう	-6388
すべてのことを	-6389
と言われました	-6390
は彼らに言った	-6391
ることができず	-6392
わたしがこれを	-6393
わたしが彼らに	-6394
アンモンびとの	-6395
イスラエルびと	-6396
ダビデのために	-6397
ダビデのもとに	-6398
与えてください	-6399
主が命じられた	-6400
主の声に聞き従	-6401
あなたとあなたの	-6402
あなたに向かって	-6403
の子らのうちでは	-6404
またあなたがたの	-6405
イスラエルの上に	-6406
彼がしたすべての	-6407
彼らに言いなさい	-6408
行かせてください	-6409
あなたがたに対して	-6410
あなたがたに言うが	-6411
と言ったからである	-6412
人はさいわいである	-6413
主はモーセに言われた	-6414
わたしをお救いください	-6415
者としなければならない	-6416
イスラエルの神はこう言われる	-6417
▁朝	-6418
▁海	-6419
▁門	-6420
おい	-6421
きん	-6422
ござ	-6423
さが	-6424
へつ	-6425
みつ	-6426
やか	-6427
やど	-6428
シン	-6429
ゼベ	-6430
テコ	-6431
ナジ	-6432
ハデ	-6433
バイ	-6434
バニ	-6435
ミテ	-6436
一部	-6437
五つ	-6438
今夜	-6439
保ち	-6440
傾け	-6441
先の	-6442
光の	-6443
全な	-6444
力づ	-6445
労役	-6446
器は	-6447
夫は	-6448
失い	-6449
子の	-6450
子ら	-6451
尊ば	-6452
帰れ	-6453
年々	-6454
年が	-6455
役に	-6456
待つ	-6457
従い	-6458
拝し	-6459
拝殿	-6460
敵が	-6461
時も	-6462
木と	-6463
気を	-6464
淫を	-6465
無事	-6466
獣は	-6467
相続	-6468
真昼	-6469
結果	-6470
罪過	-6471
花の	-6472
要求	-6473
谷の	-6474
長は	-6475
門は	-6476
陰に	-6477
領地	-6478
馬は	-6479
驚く	-6480
魂の	-6481
▁アマ	-6482
▁地は	-6483
うもの	-6484
かせて	-6485
かせる	-6486
が出て	-6487
きたが	-6488
きよい	-6489
くする	-6490
くだる	-6491
く起き	-6492
こそは	-6493
この事	-6494
した時	-6495
そしり	-6496
その上	-6497
その家	-6498
だれを	-6499
ちりに	-6500
ついた	-6501
どもに	-6502
なしに	-6503
に住ま	-6504
に取り	-6505
に進み	-6506
のだと	-6507
の一族	-6508
の一部	-6509
の上を	-6510
の木を	-6511
の門の	-6512
ひと言	-6513
ひろが	-6514
ましく	-6515
まとい	-6516
みつぎ	-6517
よいよ	-6518
ろばに	-6519
わざは	-6520
わずに	-6521
を手に	-6522
を負う	-6523
を開き	-6524
んです	-6525
アジヤ	-6526
カペナ	-6527
クの子	-6528
ケルブ	-6529
ゴモラ	-6530
シャケ	-6531
デナリ	-6532
ヒラム	-6533
ベテホ	-6534
マルタ	-6535
ユダを	-6536
ヨブは	-6537
ラバン	-6538
リムの	-6539
レカブ	-6540
二つに	-6541
二度と	-6542
何をも	-6543
働いて	-6544
兄弟が	-6545
右に座	-6546
向けて	-6547
天の使	-6548
天国は	-6549
平和の	-6550
忘れる	-6551
思って	-6552
捨てる	-6553
散らす	-6554
望んだ	-6555
正月の	-6556
正義を	-6557
淫行を	-6558
清めて	-6559
渡った	-6560
無割礼	-6561
犠牲を	-6562
王の家	-6563
生きた	-6564
異言を	-6565
示した	-6566
罪なき	-6567
者とは	-6568
自分は	-6569
荒布を	-6570
込んで	-6571
重んじ	-6572
隠れる	-6573
隣人の	-6574
顔を見	-6575
▁ヨアシ	-6576
あの人は	-6577
あふれる	-6578
いの国々	-6579
が起って	-6580
けている	-6581
こういう	-6582
こう言う	-6583
しもべに	-6584
その所の	-6585
その身に	-6586
それでも	-6587
たくわえ	-6588
たびたび	-6589
ちまたに	-6590
つるぎの	-6591
でこれを	-6592
なされる	-6593
につまず	-6594
によらず	-6595
に告げた	-6596
のであり	-6597
のろいを	-6598
の王シホ	-6599
みだらな	-6600
ようとは	-6601
わかって	-6602
わたした	-6603
をあがな	-6604
をあけて	-6605
を取った	-6606
アシドド	-6607
アシラ像	-6608
アロンは	-6609
エリアシ	-6610
カペナウ	-6611
シオンに	-6612
ダイの子	-6613
バシャン	-6614
パウロと	-6615
ベテルに	-6616
ベナヤは	-6617
ヨハネが	-6618
ヨハネの	-6619
ラケルは	-6620
リンモン	-6621
上がって	-6622
主の命令	-6623
出かけて	-6624
切り倒し	-6625
去らせた	-6626
受けいれ	-6627
右の手は	-6628
呼ばれる	-6629
善を行う	-6630
妻をめと	-6631
待ち伏せ	-6632
悟らない	-6633
感謝して	-6634
感謝する	-6635
来るのを	-6636
滅ぼそう	-6637
王となり	-6638
王はその	-6639
神の栄光	-6640
荒野から	-6641
行くべき	-6642
飲み食い	-6643
▁だれでも	-6644
▁ところで	-6645
▁神はまた	-6646
あかしの箱	-6647
から生れた	-6648
こうである	-6649
それを見て	-6650
におられる	-6651
に及ばない	-6652
のためにも	-6653
はあなたを	-6654
ふさわしく	-6655
ものがある	-6656
ものであり	-6657
ものとする	-6658
やりなさい	-6659
ようにした	-6660
エブスびと	-6661
エリシャマ	-6662
カイザリヤ	-6663
キュビトで	-6664
キリストに	-6665
ゼルバベル	-6666
ソロモンが	-6667
ヒゼキヤは	-6668
ユダの王の	-6669
ラブシャケ	-6670
主なる神の	-6671
備えをした	-6672
嗣業である	-6673
四十年の間	-6674
心にかなう	-6675
恐れおのの	-6676
愛している	-6677
最も小さい	-6678
生かしてお	-6679
神のみまえ	-6680
祭司たちの	-6681
長老たちに	-6682
▁アッスリヤ	-6683
▁ヒゼキヤは	-6684
あかしをする	-6685
くじによって	-6686
ことでしょう	-6687
ことを聞いて	-6688
ししのように	-6689
しておられた	-6690
すべての者に	-6691
するのである	-6692
のではないか	-6693
のようであり	-6694
ひとりびとり	-6695
ほかの神々に	-6696
ほしいままに	-6697
ままにしてお	-6698
ようであった	-6699
ダビデはその	-6700
ネタニヤの子	-6701
主があなたに	-6702
主にささげた	-6703
主はわたしに	-6704
主を怒らせた	-6705
喜びをもって	-6706
彼らと一緒に	-6707
捕え移された	-6708
神にむかって	-6709
神をつくして	-6710
立ち上がって	-6711
追いやられた	-6712
離れなかった	-6713
▁しかし彼らは	-6714
あなたは自分の	-6715
ことがあるなら	-6716
ことができます	-6717
されるのですか	-6718
すべてのものを	-6719
と呼ばれている	-6720
もろもろの民の	-6721
られたのである	-6722
アンモンの人々	-6723
エジプトの国で	-6724
サウルに言った	-6725
主の言葉を聞け	-6726
▁こういうわけで	-6727
▁そしてダビデは	-6728
▁モーセは言った	-6729
エリシャは言った	-6730
ヨルダンを渡って	-6731
犯してはならない	-6732
弟子たちに言われた	-6733
男子と女子を生んだ	-6734
▁イスラエルの人々が	-6735
ことのないためである	-6736
すがなければならない	-6737
ることができなかった	-6738
▁イエスは彼に言われた	-6739
イスラエルの人々のうちに	-6740
よくあなたがたに言っておく	-6741
▁ケ	-6742
▁主	-6743
うろ	-6744
きと	-6745
けば	-6746
すと	-6747
とか	-6748
なぎ	-6749
なぞ	-6750
の実	-6751
ばき	-6752
ふえ	-6753
まる	-6754
みず	-6755
ゆき	-6756
ゆく	-6757
よし	-6758
を買	-6759
アレ	-6760
イシ	-6761
スタ	-6762
テヤ	-6763
トロ	-6764
ニケ	-6765
ノク	-6766
バと	-6767
ヘリ	-6768
ペカ	-6769
リウ	-6770
下し	-6771
乗り	-6772
兵を	-6773
切れ	-6774
利息	-6775
口で	-6776
台の	-6777
喜べ	-6778
女と	-6779
妹を	-6780
小屋	-6781
張り	-6782
意見	-6783
招く	-6784
指導	-6785
新月	-6786
方の	-6787
民族	-6788
水も	-6789
火と	-6790
牛と	-6791
獲て	-6792
病を	-6793
知ら	-6794
結ぶ	-6795
続く	-6796
苦い	-6797
荒す	-6798
親指	-6799
話を	-6800
諸君	-6801
追撃	-6802
連ね	-6803
隠れ	-6804
食を	-6805
馬と	-6806
▁互に	-6807
▁町の	-6808
あげる	-6809
お告げ	-6810
かたの	-6811
かわく	-6812
がたい	-6813
ができ	-6814
きたり	-6815
きよく	-6816
くつが	-6817
けると	-6818
こがね	-6819
ごろに	-6820
ご自身	-6821
しかり	-6822
ししが	-6823
しまい	-6824
すがら	-6825
その王	-6826
たいま	-6827
だきた	-6828
つねに	-6829
とどめ	-6830
なおも	-6831
なして	-6832
などを	-6833
に会う	-6834
に帰り	-6835
に満た	-6836
に近い	-6837
の実を	-6838
の所に	-6839
ふさが	-6840
むかし	-6841
もなお	-6842
も共に	-6843
りなわ	-6844
るもの	-6845
を張り	-6846
アキシ	-6847
アモン	-6848
ゲゼル	-6849
ジムリ	-6850
ステパ	-6851
デの子	-6852
ハナン	-6853
ホセア	-6854
ミエル	-6855
ロエル	-6856
一か月	-6857
七年の	-6858
世には	-6859
中には	-6860
人と獣	-6861
今から	-6862
伝えて	-6863
六つの	-6864
北から	-6865
告げよ	-6866
問うて	-6867
喜び楽	-6868
城壁の	-6869
城壁を	-6870
報いは	-6871
場所を	-6872
少しの	-6873
平和を	-6874
強くし	-6875
従えて	-6876
御霊の	-6877
思い起	-6878
思った	-6879
悩みの	-6880
感じた	-6881
書物に	-6882
洗って	-6883
海から	-6884
滅びの	-6885
犠牲の	-6886
王の子	-6887
王オグ	-6888
群れは	-6889
過ぎて	-6890
道に歩	-6891
高める	-6892
▁だれも	-6893
▁わが神	-6894
▁ユダは	-6895
▁悪しき	-6896
いと思う	-6897
いよいよ	-6898
おろして	-6899
かかった	-6900
かないで	-6901
かなった	-6902
が死んで	-6903
この事は	-6904
この民は	-6905
この民を	-6906
ささげて	-6907
そのうち	-6908
ったとき	-6909
とである	-6910
とどまり	-6911
とりこに	-6912
と命じた	-6913
なさった	-6914
にいます	-6915
になろう	-6916
に下って	-6917
に及んで	-6918
に至った	-6919
に至って	-6920
ねたみを	-6921
のがれの	-6922
の手から	-6923
の長さは	-6924
ひとしい	-6925
めぐらし	-6926
る者には	-6927
を殺した	-6928
を求める	-6929
を立てた	-6930
を見たが	-6931
アラビヤ	-6932
エフンネ	-6933
ギルガル	-6934
シンバル	-6935
ヘシボン	-6936
ボアズは	-6937
マルキヤ	-6938
ユダの家	-6939
一エパの	-6940
一ヒンの	-6941
二万五千	-6942
人々から	-6943
堅く立つ	-6944
妻として	-6945
引き上げ	-6946
彼らは皆	-6947
思われる	-6948
悲しみの	-6949
悲しんだ	-6950
悲しんで	-6951
撃ち殺し	-6952
永遠の命	-6953
淫を行い	-6954
知らせた	-6955
知らせる	-6956
長老たち	-6957
高い所に	-6958
高き所で	-6959
▁かえって	-6960
▁イサクは	-6961
▁エジプト	-6962
▁ピラトは	-6963
▁レビびと	-6964
いやされる	-6965
おきてとを	-6966
こともなく	-6967
さいわいを	-6968
さばきびと	-6969
しなければ	-6970
じゅうぶん	-6971
そのうちに	-6972
その言葉を	-6973
それだのに	-6974
とその兄弟	-6975
と言っても	-6976
なりました	-6977
によろしく	-6978
のためには	-6979
のであるが	-6980
のはずかし	-6981
ひれ伏した	-6982
ますように	-6983
よかろうか	-6984
らせられる	-6985
を見なさい	-6986
んでいます	-6987
エズレルの	-6988
スリヤびと	-6989
ッサカルの	-6990
ベテシメシ	-6991
ユダヤ人は	-6992
ヨシュアが	-6993
ルベンびと	-6994
万軍の主が	-6995
主に言った	-6996
主の言葉は	-6997
主はこれを	-6998
人をやって	-6999
信じている	-7000
兄弟たちの	-7001
先祖と共に	-7002
力によって	-7003
口をもって	-7004
口を開いて	-7005
喜んでいる	-7006
堅く立って	-7007
宿営の外に	-7008
弟子たちを	-7009
彼らがその	-7010
思い出して	-7011
恥をこうむ	-7012
愚かな者は	-7013
来るように	-7014
滅ぼされて	-7015
燔祭として	-7016
目にかなう	-7017
知っていた	-7018
祭司および	-7019
祭壇を築き	-7020
羊のように	-7021
行いなさい	-7022
貧しい者の	-7023
長老たちは	-7024
願っている	-7025
▁ヨナタンは	-7026
▁彼らはまた	-7027
あなたに告げ	-7028
あなたの父の	-7029
しかし彼らは	-7030
していたので	-7031
しばらくの間	-7032
であるならば	-7033
ないであろう	-7034
になったので	-7035
になっていた	-7036
はこれである	-7037
わたしたちと	-7038
わたしの上に	-7039
わたしの命を	-7040
わたしの民を	-7041
与えになった	-7042
告げて言った	-7043
地のおもてに	-7044
生きながらえ	-7045
知っています	-7046
解き明かしを	-7047
言葉に聞き従	-7048
近寄ってきて	-7049
預言者たちを	-7050
▁エフライムの	-7051
ことのできない	-7052
につかわされた	-7053
ほめたたえます	-7054
わたしに聞き従	-7055
イスラエルと戦	-7056
エジプトびとを	-7057
ダビデは言った	-7058
バビロンの王に	-7059
ユダヤ人たちが	-7060
滅ぼすであろう	-7061
連れてきなさい	-7062
▁このようにして	-7063
▁そしてわたしは	-7064
▁わたしは彼らを	-7065
▁ペリシテびとは	-7066
▁愛する者たちよ	-7067
あなたがたはその	-7068
その氏族によれば	-7069
らないでください	-7070
わたしに向かって	-7071
イスラエルの王は	-7072
バシャンの王オグ	-7073
使者をつかわして	-7074
あなたのいつくしみ	-7075
でなければならない	-7076
と思ったからである	-7077
わたしの名によって	-7078
年の間エルサレムで	-7079
ことができましょうか	-7080
らせなければならない	-7081
わたしがあなたがたを	-7082
主の言葉を聞きなさい	-7083
主はわたしに言われた	-7084
注がなければならない	-7085
▁主はわたしに言われた	-7086
わたしをあわれんでください	-7087
バビロンの王ネブカデレザル	-7088
水に身をすすがなければならない	-7089
▁七	-7090
▁耳	-7091
あご	-7092
ぎり	-7093
くま	-7094
こび	-7095
ごぞ	-7096
しあ	-7097
しさ	-7098
しり	-7099
すす	-7100
すら	-7101
たえ	-7102
つり	-7103
にの	-7104
の初	-7105
の身	-7106
の霊	-7107
ばせ	-7108
ぶた	-7109
べる	-7110
まじ	-7111
みそ	-7112
むき	-7113
めん	-7114
アガ	-7115
アス	-7116
ウザ	-7117
エイ	-7118
クシ	-7119
グダ	-7120
ゴセ	-7121
シル	-7122
ジフ	-7123
ズは	-7124
ダゴ	-7125
トス	-7126
トラ	-7127
ナホ	-7128
ネゴ	-7129
バブ	-7130
ピボ	-7131
ヘテ	-7132
ベン	-7133
ペテ	-7134
ポロ	-7135
マッ	-7136
メリ	-7137
レテ	-7138
レデ	-7139
上る	-7140
乳香	-7141
以来	-7142
倒す	-7143
内庭	-7144
内部	-7145
出来	-7146
取れ	-7147
和ら	-7148
器に	-7149
四人	-7150
土を	-7151
夫を	-7152
奪う	-7153
守る	-7154
安心	-7155
実行	-7156
宮で	-7157
宮を	-7158
寝台	-7159
導く	-7160
小さ	-7161
山ば	-7162
岩を	-7163
座を	-7164
弱り	-7165
彼も	-7166
書く	-7167
木に	-7168
東に	-7169
残し	-7170
焼く	-7171
牧者	-7172
犯し	-7173
獲る	-7174
破滅	-7175
穴を	-7176
絶や	-7177
羊は	-7178
血に	-7179
角を	-7180
負う	-7181
道の	-7182
部が	-7183
間も	-7184
間を	-7185
食事	-7186
▁なお	-7187
▁エヒ	-7188
▁ガド	-7189
▁彼ら	-7190
あふれ	-7191
いたず	-7192
いたる	-7193
いだく	-7194
うめき	-7195
おくる	-7196
おそく	-7197
かしこ	-7198
からも	-7199
かりを	-7200
がいた	-7201
きよめ	-7202
この日	-7203
しっく	-7204
ずべき	-7205
その僕	-7206
だった	-7207
つかま	-7208
ですが	-7209
で彼を	-7210
と呼ぶ	-7211
なのだ	-7212
なると	-7213
にあう	-7214
におこ	-7215
におも	-7216
のつえ	-7217
のへや	-7218
のぼる	-7219
のろば	-7220
の子で	-7221
の高い	-7222
はなく	-7223
ふつか	-7224
まれて	-7225
もせず	-7226
もって	-7227
やぎの	-7228
わきま	-7229
をもた	-7230
アシタ	-7231
アナト	-7232
アマサ	-7233
イシボ	-7234
クラグ	-7235
ケリブ	-7236
ゲハジ	-7237
シャデ	-7238
タシャ	-7239
ッタイ	-7240
ツロの	-7241
ナボテ	-7242
ネブザ	-7243
ホリバ	-7244
ホレブ	-7245
メルの	-7246
人でも	-7247
他国の	-7248
以外の	-7249
伸べた	-7250
使者は	-7251
先見者	-7252
南の方	-7253
四人の	-7254
四方の	-7255
夜明け	-7256
天の万	-7257
川から	-7258
広場に	-7259
御子を	-7260
戦車を	-7261
歩いて	-7262
汚れを	-7263
注ぎ油	-7264
産みの	-7265
神の家	-7266
立ちど	-7267
約束を	-7268
聖所で	-7269
自身も	-7270
若者を	-7271
荒れて	-7272
言うが	-7273
設けて	-7274
負わせ	-7275
逃げる	-7276
除き去	-7277
隠れて	-7278
雄牛と	-7279
雄羊を	-7280
青銅で	-7281
▁ときに	-7282
▁むしろ	-7283
いとすぎ	-7284
いばらの	-7285
いますか	-7286
うわさを	-7287
えようか	-7288
かったが	-7289
くつがえ	-7290
げられた	-7291
こうべに	-7292
これには	-7293
ごぞんじ	-7294
さしあげ	-7295
しっかり	-7296
そこなう	-7297
その部隊	-7298
たる者よ	-7299
ついには	-7300
であると	-7301
でないと	-7302
とがある	-7303
とされる	-7304
とその中	-7305
とその村	-7306
となんの	-7307
とは共に	-7308
ないので	-7309
なのです	-7310
にそむき	-7311
に代って	-7312
のとおり	-7313
ののしり	-7314
のろった	-7315
の小羊を	-7316
はしない	-7317
まらない	-7318
めていた	-7319
もし人が	-7320
やぐらを	-7321
わが民を	-7322
わが神よ	-7323
を張った	-7324
を歩いて	-7325
イエスと	-7326
イザヤは	-7327
エサウは	-7328
エフタは	-7329
エリコの	-7330
シャンマ	-7331
ダリヨス	-7332
バテシバ	-7333
バラムの	-7334
ベデネゴ	-7335
メシャク	-7336
ユダヤの	-7337
ヨアシは	-7338
ヨセフに	-7339
与えよう	-7340
主に信頼	-7341
二万四千	-7342
他の神々	-7343
受け入れ	-7344
地である	-7345
害を加え	-7346
強くなり	-7347
心をとめ	-7348
戦争に出	-7349
昼も夜も	-7350
注ぎかけ	-7351
王の宮殿	-7352
神の人の	-7353
祭司たち	-7354
者がない	-7355
聖別した	-7356
自分たち	-7357
苦しみを	-7358
進み出て	-7359
雄牛二頭	-7360
頭に手を	-7361
▁なにゆえ	-7362
▁わが神よ	-7363
▁わが魂は	-7364
▁われらは	-7365
▁ゼデキヤ	-7366
▁ヨアブは	-7367
あなたのま	-7368
あなたの家	-7369
あなたの身	-7370
おきなさい	-7371
があなたに	-7372
こなかった	-7373
させられる	-7374
そうしない	-7375
それを食べ	-7376
と共にいた	-7377
どうしたら	-7378
どうぞ主が	-7379
どこへ行く	-7380
なったので	-7381
にいる人々	-7382
のところへ	-7383
のをごらん	-7384
の供え物を	-7385
の長ネブザ	-7386
はあなたに	-7387
ひとりも残	-7388
ふたりの子	-7389
ゆるさない	-7390
ゆるされた	-7391
られたとき	-7392
わたしの家	-7393
をおこない	-7394
をささげて	-7395
をとおって	-7396
を与えよう	-7397
エジプトを	-7398
エリアシブ	-7399
サムエルが	-7400
シャデラク	-7401
タシャスタ	-7402
タラントを	-7403
バビロンは	-7404
ユダヤ人が	-7405
ヨナタンの	-7406
ヨベルの年	-7407
ラッパの音	-7408
主であって	-7409
主のみ前に	-7410
人々である	-7411
人々はその	-7412
人に言った	-7413
他の神々に	-7414
兄弟たちを	-7415
前のように	-7416
十キュビト	-7417
名のゆえに	-7418
宣べ伝えた	-7419
家来たちは	-7420
弟子たちの	-7421
思っている	-7422
恵みふかく	-7423
来て言った	-7424
東の方から	-7425
正しい者は	-7426
正しい者を	-7427
気をつけて	-7428
滅ぼしつく	-7429
滅ぼそうと	-7430
火をもって	-7431
焼きつくす	-7432
生ける者の	-7433
眠っている	-7434
祭司たちが	-7435
置くために	-7436
義とされる	-7437
自分たちが	-7438
遠く離れて	-7439
離れている	-7440
霊によって	-7441
▁アビメレク	-7442
▁イスラエル	-7443
▁エリシャは	-7444
▁キリストは	-7445
▁ギデオンは	-7446
あなたがもし	-7447
あなたの名を	-7448
あなたの家に	-7449
あなたの民を	-7450
あなたの道を	-7451
おいでになる	-7452
およびその子	-7453
があるように	-7454
きたのである	-7455
くじを引いた	-7456
ことがあるか	-7457
これらはみな	-7458
さいわいです	-7459
しているのか	-7460
すべての人を	-7461
とがのために	-7462
ところである	-7463
ないようにし	-7464
のその他の事	-7465
のであろうか	-7466
のでしょうか	-7467
のを見たので	-7468
の家来たちは	-7469
はこれを見て	-7470
めてください	-7471
ものであった	-7472
ものではなく	-7473
わたしに告げ	-7474
わたしの父の	-7475
わたしは必ず	-7476
をつかわして	-7477
をもって彼を	-7478
を与えられる	-7479
アビメレクは	-7480
エジプトの地	-7481
エフンネの子	-7482
キリストから	-7483
シケルの金の	-7484
バプテスマの	-7485
五百キュビト	-7486
呼ばわります	-7487
呼んで言った	-7488
守るべき定め	-7489
彼はわたしを	-7490
彼女は言った	-7491
恵みによって	-7492
油を注がれた	-7493
祭司エホヤダ	-7494
聞かなかった	-7495
行いによって	-7496
誓いを立てて	-7497
語って言った	-7498
近づいている	-7499
▁またわたしは	-7500
▁彼らに言った	-7501
あなたがたは皆	-7502
くすしきみわざ	-7503
ここにおります	-7504
このようにして	-7505
しかしわたしは	-7506
すべてのういご	-7507
ではなかったか	-7508
ないようにする	-7509
ばかりではなく	-7510
ゆるしください	-7511
よいでしょうか	-7512
よく言っておく	-7513
ろうとしている	-7514
わたしのほかに	-7515
わたしの聖なる	-7516
わたしを捨てて	-7517
われわれはその	-7518
エジプトの国を	-7519
割礼を受けない	-7520
犠牲をささげた	-7521
犠牲をささげる	-7522
祭司はその人を	-7523
種入れぬパンの	-7524
あなたがわたしに	-7525
えさせてください	-7526
ことができません	-7527
にむかって言った	-7528
もしてはならない	-7529
もろもろの国民を	-7530
わたしに逆らって	-7531
わたしはあなたが	-7532
アンモンの人々の	-7533
大いなる恐るべき	-7534
汚れたものである	-7535
これはあなたがたの	-7536
わたしの言うことを	-7537
イスラエルの全会衆	-7538
▁イエスは答えられた	-7539
あなたがたはわたしに	-7540
つかさとなるであろう	-7541
殺さなければならない	-7542
と言わなければならない	-7543
ネタニヤの子イシマエル	-7544
戦争に出ることのできる	-7545
その家族にしたがって獲た	-7546
と書いてあるとおりである	-7547
の子らは次のとおりである	-7548
年の間エルサレムで世を治めた	-7549
▁ザ	-7550
▁六	-7551
▁夕	-7552
いき	-7553
えじ	-7554
じゅ	-7555
てを	-7556
に会	-7557
ねん	-7558
のぞ	-7559
の海	-7560
はと	-7561
はば	-7562
びた	-7563
やさ	-7564
よも	-7565
りっ	-7566
アバ	-7567
エロ	-7568
ゲデ	-7569
サド	-7570
スと	-7571
タマ	-7572
ドル	-7573
ネト	-7574
ネボ	-7575
ハガ	-7576
ハモ	-7577
プロ	-7578
ベラ	-7579
ミナ	-7580
ミン	-7581
メセ	-7582
ヨア	-7583
ヨク	-7584
レメ	-7585
ンノ	-7586
一年	-7587
一方	-7588
七人	-7589
万人	-7590
下役	-7591
全に	-7592
八百	-7593
取引	-7594
名と	-7595
四角	-7596
声に	-7597
夫に	-7598
女も	-7599
宣教	-7600
宿る	-7601
寝て	-7602
山よ	-7603
山地	-7604
心配	-7605
急ぎ	-7606
悪意	-7607
払い	-7608
教に	-7609
日と	-7610
木は	-7611
柱と	-7612
柱を	-7613
消す	-7614
牛は	-7615
生命	-7616
男も	-7617
病と	-7618
移し	-7619
血が	-7620
見ず	-7621
諸族	-7622
選ぶ	-7623
重ね	-7624
間が	-7625
雨が	-7626
頭と	-7627
▁あの	-7628
▁では	-7629
▁アダ	-7630
▁レビ	-7631
▁次に	-7632
▁第二	-7633
▁第四	-7634
いだし	-7635
おろし	-7636
かかる	-7637
かさね	-7638
かを知	-7639
があら	-7640
そこへ	-7641
その友	-7642
その悪	-7643
その門	-7644
とアビ	-7645
なので	-7646
な子を	-7647
のかご	-7648
の半ば	-7649
の家と	-7650
の所へ	-7651
の日を	-7652
の木と	-7653
ひずめ	-7654
ほどに	-7655
もとへ	-7656
ものか	-7657
やぎを	-7658
りする	-7659
わかり	-7660
わかる	-7661
わざが	-7662
をそり	-7663
を吹き	-7664
を得よ	-7665
を着て	-7666
アベル	-7667
アルバ	-7668
アンデ	-7669
エズラ	-7670
ケナズ	-7671
ジライ	-7672
セラヤ	-7673
ハラン	-7674
パニヤ	-7675
マヘリ	-7676
ムの谷	-7677
メデア	-7678
ライム	-7679
ラハブ	-7680
万国の	-7681
下った	-7682
人々も	-7683
以上に	-7684
会衆は	-7685
住民は	-7686
供えた	-7687
働きを	-7688
切って	-7689
加える	-7690
叫びを	-7691
右にも	-7692
嗣業は	-7693
四方に	-7694
国々を	-7695
国には	-7696
地上で	-7697
変える	-7698
天幕の	-7699
失った	-7700
奪った	-7701
寄って	-7702
帰らせ	-7703
律法と	-7704
忘れた	-7705
恥じる	-7706
悟りの	-7707
悪人を	-7708
愛せよ	-7709
数々の	-7710
木の下	-7711
楽しい	-7712
残って	-7713
洗った	-7714
消える	-7715
火の中	-7716
牧者の	-7717
物断ち	-7718
生かし	-7719
生き返	-7720
目から	-7721
真理を	-7722
砕いて	-7723
第三の	-7724
者とに	-7725
聖霊が	-7726
若者が	-7727
裂いて	-7728
起きよ	-7729
追って	-7730
閉じ込	-7731
預言し	-7732
願って	-7733
▁ゲルシ	-7734
▁メラリ	-7735
▁一つの	-7736
▁彼らに	-7737
あかしは	-7738
いつもの	-7739
ういごは	-7740
があろう	-7741
が彼らに	-7742
ここから	-7743
この人の	-7744
この地は	-7745
この町を	-7746
ご自身を	-7747
さばいて	-7748
しばしば	-7749
しもべが	-7750
すべてを	-7751
そのほか	-7752
その境は	-7753
その手を	-7754
その持ち	-7755
その町々	-7756
その町の	-7757
たいまつ	-7758
たきぎを	-7759
つづけた	-7760
で作った	-7761
としない	-7762
どうなる	-7763
どおりに	-7764
にしても	-7765
につかせ	-7766
に帰する	-7767
に投げ込	-7768
のと同じ	-7769
のろわれ	-7770
の人々に	-7771
の子孫を	-7772
の流れる	-7773
びている	-7774
まわりの	-7775
みまえに	-7776
める者は	-7777
もし彼が	-7778
ものとし	-7779
りながら	-7780
りません	-7781
わが主の	-7782
をいただ	-7783
をする者	-7784
を捕えて	-7785
を治める	-7786
を行わず	-7787
アタリヤ	-7788
アヒマア	-7789
イサクの	-7790
エクロン	-7791
エズレル	-7792
エフラタ	-7793
サドカイ	-7794
ハザエル	-7795
ヒラムは	-7796
事を行う	-7797
人々は皆	-7798
人と共に	-7799
人の前で	-7800
人の子を	-7801
力のある	-7802
導かれた	-7803
彼もまた	-7804
心にある	-7805
日の下に	-7806
歌います	-7807
歌うたう	-7808
殺されて	-7809
消えうせ	-7810
神はない	-7811
結ばれた	-7812
者のうち	-7813
聞かれる	-7814
身を清め	-7815
食いつく	-7816
香をたく	-7817
高くあげ	-7818
▁しかるに	-7819
▁それとも	-7820
▁また燔祭	-7821
▁パウロは	-7822
▁人の子よ	-7823
▁王はまた	-7824
あやまって	-7825
かのように	-7826
ことがあり	-7827
ささぐべき	-7828
されるとき	-7829
そうしたら	-7830
それを取り	-7831
とその素祭	-7832
と言ったが	-7833
にあずかる	-7834
においても	-7835
にそむいて	-7836
のようです	-7837
の前にある	-7838
の王たちは	-7839
ふるまいを	-7840
また自分の	-7841
られるとき	-7842
るようにと	-7843
わたしの手	-7844
を見たので	-7845
アシタロテ	-7846
アヒメレク	-7847
アベデネゴ	-7848
イッサカル	-7849
エレミヤは	-7850
カレヤの子	-7851
ギベオンの	-7852
サマリヤで	-7853
シオンから	-7854
バルジライ	-7855
ヘブロンで	-7856
ペルシャ王	-7857
ヨシヤの子	-7858
レハベアム	-7859
七十シケル	-7860
三分の一は	-7861
主が彼らを	-7862
主に仕える	-7863
人々と共に	-7864
人々はみな	-7865
信じる者は	-7866
前から逃げ	-7867
合いなさい	-7868
告げたので	-7869
多くの者が	-7870
帰ってくる	-7871
引き出して	-7872
愛する者よ	-7873
手をあげて	-7874
捕えられる	-7875
教えられた	-7876
正しい事を	-7877
死んでいた	-7878
民のうちの	-7879
水のほとり	-7880
清められる	-7881
父なる神と	-7882
物のために	-7883
神であって	-7884
聞えたので	-7885
言葉である	-7886
追い出して	-7887
長老たちが	-7888
▁このような	-7889
▁そして王は	-7890
▁エフライム	-7891
▁ベニヤミン	-7892
▁悪しき者の	-7893
あなたはわが	-7894
いと高き者の	-7895
から出てきて	-7896
こう言われた	-7897
これもまた空	-7898
さばきづかさ	-7899
されるならば	-7900
していなさい	-7901
しようとする	-7902
すべての人が	-7903
すべての物を	-7904
そして言った	-7905
ただひとりの	-7906
だけではなく	-7907
ところにきて	-7908
と思っている	-7909
どこにあるか	-7910
に言いなさい	-7911
のかたわらで	-7912
ほかならない	-7913
みんなの者は	-7914
ものとなった	-7915
わかっている	-7916
わたしは彼に	-7917
わたしを助け	-7918
を取りなさい	-7919
を受けている	-7920
を得るために	-7921
を持っていた	-7922
エッサイの子	-7923
カナンの地に	-7924
カルデヤびと	-7925
スリヤびとの	-7926
ベツレヘムの	-7927
モルデカイは	-7928
ヤラベアムは	-7929
ユダヤ人の王	-7930
ルベンの子孫	-7931
一キュビト半	-7932
主に向かって	-7933
人々は言った	-7934
会見の幕屋で	-7935
信じなかった	-7936
大いなる事を	-7937
大声をあげて	-7938
彼らはこれを	-7939
律法によって	-7940
手に渡された	-7941
携えて行って	-7942
激しい怒りを	-7943
神のみこころ	-7944
祭壇を築いた	-7945
者がなかった	-7946
言葉をもって	-7947
預言者たちの	-7948
▁あなたがもし	-7949
▁そこで人々は	-7950
▁もしあなたが	-7951
▁イスラエルよ	-7952
あなたのむすこ	-7953
してはいけない	-7954
そうとしている	-7955
とおりであった	-7956
にいるすべての	-7957
のようになった	-7958
わたしが言った	-7959
わたしはきょう	-7960
われわれと共に	-7961
アブラハムの神	-7962
イエスについて	-7963
エジプトの地を	-7964
サウルは言った	-7965
マナセの半部族	-7966
ヨセフに言った	-7967
与えるであろう	-7968
主に呼ばわった	-7969
彼らの目の前で	-7970
恵みと平安とが	-7971
男の子を産んだ	-7972
者であることを	-7973
覚えてください	-7974
▁そこでダビデは	-7975
▁そこでモーセは	-7976
あなたがわたしを	-7977
ようなものである	-7978
ることができるか	-7979
わたしのすべての	-7980
を受けるであろう	-7981
キリストによって	-7982
サムエルは言った	-7983
ユダの王ゼデキヤ	-7984
二万五千キュビト	-7985
清くなるであろう	-7986
あなたのもろもろの	-7987
アモリびとの王シホ	-7988
ヨシュアに言われた	-7989
与えられるであろう	-7990
主に香ばしいかおり	-7991
▁主なる神は言われる	-7992
イスラエルをさばいた	-7993
主はこう仰せられます	-7994
守らなければならない	-7995
ほふらなければならない	-7996
わたしに従ってきなさい	-7997
わたしをお助けください	-7998
を造らなければならない	-7999
モーセとアロンに言われた	-8000
すべて戦争に出ることのできる	-8001
祭壇の上で焼かなければならない	-8002
▁天	-8003
がめ	-8004
くぎ	-8005
けり	-8006
こい	-8007
ごう	-8008
さに	-8009
た像	-8010
つど	-8011
つめ	-8012
とげ	-8013
とて	-8014
なべ	-8015
に属	-8016
の布	-8017
の手	-8018
ばね	-8019
ばり	-8020
びん	-8021
みき	-8022
みる	-8023
み使	-8024
り物	-8025
をふ	-8026
アザ	-8027
アヤ	-8028
イゼ	-8029
イド	-8030
イン	-8031
ウリ	-8032
ギド	-8033
クに	-8034
グリ	-8035
ザダ	-8036
ゼロ	-8037
ネコ	-8038
ペラ	-8039
マム	-8040
ヤハ	-8041
ラオ	-8042
レシ	-8043
七つ	-8044
世を	-8045
主張	-8046
代に	-8047
側の	-8048
全身	-8049
分は	-8050
力に	-8051
動き	-8052
口が	-8053
向き	-8054
告を	-8055
問い	-8056
堅い	-8057
境に	-8058
大事	-8059
女よ	-8060
妻の	-8061
娘が	-8062
子と	-8063
子に	-8064
富み	-8065
小鳥	-8066
工作	-8067
度も	-8068
悟る	-8069
悪と	-8070
愛の	-8071
持た	-8072
時と	-8073
歩兵	-8074
火ざ	-8075
獣に	-8076
理解	-8077
種は	-8078
罪人	-8079
者や	-8080
耳は	-8081
足台	-8082
金持	-8083
銀と	-8084
開け	-8085
除く	-8086
▁かの	-8087
▁まず	-8088
▁罪祭	-8089
▁高ぶ	-8090
あがめ	-8091
いだす	-8092
かねて	-8093
がみな	-8094
が来て	-8095
くだし	-8096
くつを	-8097
ころに	-8098
ごんの	-8099
ご主人	-8100
さえも	-8101
さおを	-8102
さきの	-8103
しらが	-8104
その実	-8105
だけの	-8106
ついで	-8107
つもり	-8108
でした	-8109
とがは	-8110
となれ	-8111
ともが	-8112
と小羊	-8113
と戦い	-8114
どこか	-8115
どなた	-8116
におき	-8117
におさ	-8118
に向け	-8119
に手を	-8120
のこと	-8121
の家で	-8122
の族長	-8123
の門に	-8124
はこの	-8125
ふるい	-8126
ほえる	-8127
やみを	-8128
よしと	-8129
る者よ	-8130
わざと	-8131
をとり	-8132
アガグ	-8133
アセル	-8134
アヒヤ	-8135
セテは	-8136
セルの	-8137
ツの子	-8138
ネトパ	-8139
ハンナ	-8140
パロと	-8141
ヒンノ	-8142
ヤベシ	-8143
ヨエル	-8144
ヨッパ	-8145
レビヤ	-8146
一同が	-8147
万物を	-8148
不正な	-8149
与えよ	-8150
主がお	-8151
人殺し	-8152
今ごろ	-8153
会衆を	-8154
使者が	-8155
信仰に	-8156
光を放	-8157
全国に	-8158
分けた	-8159
力強く	-8160
加えて	-8161
友だち	-8162
口には	-8163
口寄せ	-8164
名の数	-8165
君たち	-8166
吹いて	-8167
周囲を	-8168
国民に	-8169
土地の	-8170
地を獲	-8171
変って	-8172
女の子	-8173
少しも	-8174
彼を見	-8175
御名を	-8176
戦いは	-8177
打ち破	-8178
明くる	-8179
次の日	-8180
正義と	-8181
死なせ	-8182
死体に	-8183
泣いて	-8184
燃やし	-8185
目しい	-8186
着いて	-8187
石がき	-8188
破れた	-8189
祈った	-8190
神の使	-8191
終えた	-8192
絶えた	-8193
絶やす	-8194
続いて	-8195
義なる	-8196
自分と	-8197
行いの	-8198
訴えて	-8199
足かせ	-8200
軍勢の	-8201
軍勢は	-8202
返した	-8203
逆の家	-8204
金銀を	-8205
長子は	-8206
雲の柱	-8207
食事の	-8208
飲もう	-8209
驚いて	-8210
▁および	-8211
▁また十	-8212
▁エヒウ	-8213
あたかも	-8214
あっても	-8215
あらわす	-8216
いだいて	-8217
いちばん	-8218
おおいを	-8219
からだの	-8220
から助け	-8221
ここには	-8222
こさせる	-8223
この事が	-8224
この二つ	-8225
この国の	-8226
こんなに	-8227
ご主人様	-8228
さし伸べ	-8229
させない	-8230
したのは	-8231
しるして	-8232
じている	-8233
するため	-8234
そうする	-8235
その右の	-8236
その国を	-8237
その家の	-8238
その手に	-8239
その柱の	-8240
その目は	-8241
その肉を	-8242
その血は	-8243
だれをも	-8244
であるが	-8245
としよう	-8246
とどめる	-8247
と聞いて	-8248
にかかわ	-8249
のろいの	-8250
の上には	-8251
の中には	-8252
の代りに	-8253
の日には	-8254
はっきり	-8255
は彼らに	-8256
ばかりか	-8257
ましたか	-8258
まん中に	-8259
みそなわ	-8260
みなさい	-8261
めぐって	-8262
めたので	-8263
やぐらの	-8264
らい病の	-8265
わが主に	-8266
わが子よ	-8267
わが心は	-8268
わが魂は	-8269
わきまえ	-8270
をもとに	-8271
を与えた	-8272
を負わせ	-8273
を送って	-8274
を開いて	-8275
を離れて	-8276
アナニヤ	-8277
アハブは	-8278
アロエル	-8279
アロンと	-8280
アンデレ	-8281
ウジエル	-8282
エリアブ	-8283
シナイの	-8284
シャザル	-8285
シャルム	-8286
ステパノ	-8287
ナバルの	-8288
ネルの子	-8289
ヘルモン	-8290
マハナイ	-8291
モアブは	-8292
ヤコブが	-8293
ラバンの	-8294
レバノン	-8295
レマリヤ	-8296
主の宮と	-8297
主の手が	-8298
人であり	-8299
人はみな	-8300
住まわせ	-8301
住むべき	-8302
何をする	-8303
先祖たち	-8304
勇ましく	-8305
去らせて	-8306
及ばない	-8307
呼ばわれ	-8308
地のはて	-8309
声を聞き	-8310
娘たちは	-8311
娘たちよ	-8312
子である	-8313
岩の上に	-8314
彼の所に	-8315
彼は必ず	-8316
彼らを見	-8317
恥ずべき	-8318
日ごとに	-8319
楽しませ	-8320
歩む者は	-8321
民のうち	-8322
民はその	-8323
水の上に	-8324
清くない	-8325
渡された	-8326
満たして	-8327
王のもと	-8328
町を建て	-8329
知ってお	-8330
石がきを	-8331
石の上に	-8332
神の国は	-8333
終った時	-8334
置かれた	-8335
者とする	-8336
者どもは	-8337
肉を食べ	-8338
良い物を	-8339
良くない	-8340
苦しめる	-8341
行かない	-8342
行こうと	-8343
行わない	-8344
言います	-8345
起らない	-8346
追い払う	-8347
銀のさら	-8348
顔をおお	-8349
驚くべき	-8350
▁どうして	-8351
▁エホヤダ	-8352
▁バラムは	-8353
▁万軍の主	-8354
▁主の使は	-8355
▁悪を行う	-8356
ありますか	-8357
いたずらに	-8358
および王の	-8359
かぎりなく	-8360
ことはなく	-8361
ことをせず	-8362
ことを悟る	-8363
ことを聞き	-8364
ことを語り	-8365
このことは	-8366
これをその	-8367
さして誓う	-8368
していたが	-8369
しもべらは	-8370
じゅごんの	-8371
すべての青	-8372
するとその	-8373
そうとする	-8374
そして主は	-8375
そのほかの	-8376
その中から	-8377
その聖なる	-8378
その重さは	-8379
たくさんの	-8380
でなければ	-8381
ないことを	-8382
によみがえ	-8383
に住む者よ	-8384
のろわれた	-8385
ほかの人が	-8386
ほかの人の	-8387
みずからを	-8388
むずかしい	-8389
ものとして	-8390
ようになり	-8391
よみがえる	-8392
われている	-8393
われわれも	-8394
をつくして	-8395
を受けいれ	-8396
アシラ像を	-8397
エジプトへ	-8398
セナケリブ	-8399
ダビデの家	-8400
ヘシボンの	-8401
ヘブロンの	-8402
モアブの王	-8403
ユダヤ人に	-8404
レパイムの	-8405
仰せられた	-8406
加えられる	-8407
告げなさい	-8408
呼び寄せて	-8409
呼んでいる	-8410
命じられる	-8411
四つの生き	-8412
国々の民を	-8413
地の果から	-8414
報いられる	-8415
家に帰った	-8416
帰りなさい	-8417
年であった	-8418
彼は自分の	-8419
彼らの中に	-8420
恐れている	-8421
感謝します	-8422
手のわざを	-8423
捕えられた	-8424
書きおくる	-8425
正しくない	-8426
死にました	-8427
民のうちに	-8428
求める者の	-8429
汚れている	-8430
満たされる	-8431
満ちている	-8432
知りません	-8433
立ちなさい	-8434
罪によって	-8435
罪のゆえに	-8436
罪を犯させ	-8437
自分たちを	-8438
自分の身に	-8439
舌をもって	-8440
若い時から	-8441
見つかった	-8442
計りごとは	-8443
部族のうち	-8444
長老たちの	-8445
▁しかし神は	-8446
▁アブラムは	-8447
▁サムソンは	-8448
▁主を恐れる	-8449
あとを追って	-8450
あなたの名は	-8451
あなたの民に	-8452
あなたの父は	-8453
いと聖なる物	-8454
おきてである	-8455
おびただしく	-8456
がありません	-8457
ことのできる	-8458
ささげられた	-8459
さばきを行う	-8460
そのくちびる	-8461
つかさたちを	-8462
つかわしたが	-8463
と命じられた	-8464
のうちにいる	-8465
のでなければ	-8466
の中にあって	-8467
ひとりの名は	-8468
またわたしが	-8469
みんなの者が	-8470
ることである	-8471
わたしが見た	-8472
わたしに聞け	-8473
を撃ち殺した	-8474
主が選ばれる	-8475
仰せになった	-8476
手に渡される	-8477
激しい怒りの	-8478
百三十シケル	-8479
祭壇の周囲に	-8480
立って言った	-8481
者に向かって	-8482
聖霊によって	-8483
言われました	-8484
部族のうちで	-8485
預言者たちは	-8486
▁ダビデはまた	-8487
▁主はわたしの	-8488
あなたがたから	-8489
あなたがたの父	-8490
あなたの聖なる	-8491
あなたは彼らに	-8492
から出て行った	-8493
これらのものを	-8494
ためなのである	-8495
ところに行って	-8496
ととなえられる	-8497
ないようにした	-8498
わたしのうちに	-8499
を満たしていた	-8500
を見るであろう	-8501
イスラエルから	-8502
ダビデとその従	-8503
バビロンの王は	-8504
モーセに言った	-8505
主なるわたしが	-8506
主の名によって	-8507
地のもろもろの	-8508
大ぜいの群衆が	-8509
持ってきなさい	-8510
気をつけなさい	-8511
滅びるであろう	-8512
目にかなう事を	-8513
祭の犠牲に使う	-8514
▁また燔祭に使う	-8515
▁また雄やぎ一頭	-8516
▁イエスは彼らに	-8517
▁イスラエルの神	-8518
あなたがたはなぜ	-8519
によって言われた	-8520
もろもろの国民の	-8521
もろもろの国民は	-8522
られないであろう	-8523
わたしは彼らの神	-8524
ネブカデネザルは	-8525
ユダとエルサレム	-8526
二万四千人あった	-8527
弟子たちと一緒に	-8528
約束されたように	-8529
このすべての言葉を	-8530
そしてあなたがたは	-8531
であったからである	-8532
と言ってはならない	-8533
のようなものである	-8534
ることのないように	-8535
エフンネの子カレブ	-8536
バプテスマを受けた	-8537
会見の幕屋の入口で	-8538
会見の幕屋の入口に	-8539
あなたがたのうちから	-8540
あなたがたのところに	-8541
あなたの前から追い払	-8542
その父祖の家によって	-8543
アロンとその子たちに	-8544
造らなければならない	-8545
▁わたしはあなたがたを	-8546
イエスは彼らに言われた	-8547
イスラエルに罪を犯させた	-8548
▁パ	-8549
▁子	-8550
あぶ	-8551
いざ	-8552
おし	-8553
かう	-8554
ざん	-8555
しお	-8556
じる	-8557
ぞけ	-8558
たり	-8559
どよ	-8560
な町	-8561
ねら	-8562
の地	-8563
はえ	-8564
はぎ	-8565
びこ	-8566
もっ	-8567
やむ	-8568
らよ	-8569
るし	-8570
を流	-8571
んど	-8572
ウジ	-8573
サフ	-8574
シテ	-8575
ソプ	-8576
タボ	-8577
トマ	-8578
ドン	-8579
ハレ	-8580
バク	-8581
ボズ	-8582
不安	-8583
二年	-8584
五万	-8585
代官	-8586
会を	-8587
偽証	-8588
八千	-8589
分れ	-8590
吹く	-8591
命に	-8592
和な	-8593
場で	-8594
変り	-8595
外へ	-8596
大な	-8597
大軍	-8598
奪隊	-8599
妻が	-8600
学び	-8601
工と	-8602
帰し	-8603
座し	-8604
役人	-8605
悩む	-8606
悪は	-8607
救主	-8608
時を	-8609
服し	-8610
様子	-8611
権力	-8612
残る	-8613
殺せ	-8614
油の	-8615
災害	-8616
焼け	-8617
犯す	-8618
畑は	-8619
石と	-8620
石に	-8621
第七	-8622
見当	-8623
言は	-8624
語で	-8625
車を	-8626
道が	-8627
金は	-8628
雲は	-8629
霊に	-8630
非常	-8631
食う	-8632
飲め	-8633
▁いま	-8634
▁アモ	-8635
▁ダン	-8636
▁ミカ	-8637
▁人を	-8638
▁国の	-8639
▁悪を	-8640
▁父は	-8641
▁神を	-8642
いばら	-8643
いれた	-8644
おどろ	-8645
おろす	-8646
かたく	-8647
かつぎ	-8648
からす	-8649
き足り	-8650
くして	-8651
くなり	-8652
くびき	-8653
くらを	-8654
ここを	-8655
ことや	-8656
しては	-8657
だって	-8658
とある	-8659
とった	-8660
なえた	-8661
なかで	-8662
に油を	-8663
ぬぐい	-8664
のゆえ	-8665
の世に	-8666
の初め	-8667
の名を	-8668
の群れ	-8669
は地に	-8670
は彼に	-8671
ばとの	-8672
ひろげ	-8673
み名に	-8674
むち打	-8675
めいめ	-8676
らしく	-8677
わたり	-8678
をしめ	-8679
をすえ	-8680
をはぎ	-8681
をもて	-8682
を奪い	-8683
を着せ	-8684
アシケ	-8685
イスカ	-8686
エナイ	-8687
クプロ	-8688
サラは	-8689
ザルム	-8690
ゼバと	-8691
テラピ	-8692
テレビ	-8693
ニの子	-8694
ハザル	-8695
バアナ	-8696
バラバ	-8697
パンは	-8698
ヒソプ	-8699
ブの子	-8700
マキル	-8701
マルキ	-8702
メギド	-8703
メピボ	-8704
メルキ	-8705
ヤゼル	-8706
ヨザダ	-8707
ヨハナ	-8708
リブラ	-8709
一同は	-8710
一頭の	-8711
上なる	-8712
下して	-8713
乳香を	-8714
五つの	-8715
人々よ	-8716
他人の	-8717
会衆の	-8718
住む所	-8719
何をし	-8720
公道と	-8721
助けた	-8722
命令と	-8723
四十日	-8724
国々に	-8725
地にも	-8726
外には	-8727
大ぜい	-8728
大水は	-8729
天地の	-8730
女奴隷	-8731
子らは	-8732
子供は	-8733
安らか	-8734
寄り頼	-8735
尋ねる	-8736
山々の	-8737
山ばと	-8738
山地に	-8739
御霊に	-8740
怒った	-8741
思いが	-8742
恐れが	-8743
悪霊が	-8744
憎んだ	-8745
憤りの	-8746
戦った	-8747
所には	-8748
授けて	-8749
放った	-8750
数えて	-8751
新しく	-8752
日々の	-8753
正しき	-8754
残らず	-8755
残りは	-8756
残りを	-8757
消し去	-8758
満ちて	-8759
物をも	-8760
犠牲と	-8761
生れて	-8762
産物の	-8763
異邦人	-8764
知識と	-8765
神々は	-8766
祭壇は	-8767
第一の	-8768
第三は	-8769
第四の	-8770
素祭の	-8771
続ける	-8772
義人の	-8773
聖所と	-8774
聞えた	-8775
行き来	-8776
行わせ	-8777
裂いた	-8778
親しい	-8779
親指と	-8780
言葉と	-8781
語ろう	-8782
金銀の	-8783
食らい	-8784
食物は	-8785
驚いた	-8786
▁きょう	-8787
▁なまけ	-8788
▁夜が明	-8789
▁祭司長	-8790
ある者は	-8791
かがんで	-8792
かならず	-8793
かれると	-8794
がなくて	-8795
きたとき	-8796
きびしい	-8797
きわめて	-8798
こさせた	-8799
この人を	-8800
この町は	-8801
しあわせ	-8802
じである	-8803
すために	-8804
そういう	-8805
そのころ	-8806
そのまま	-8807
その周囲	-8808
その嗣業	-8809
その国は	-8810
その家を	-8811
その母の	-8812
それらを	-8813
と言わせ	-8814
につれて	-8815
には素祭	-8816
に下る者	-8817
に命じて	-8818
に臨んで	-8819
のあたり	-8820
の子らよ	-8821
の日から	-8822
の王たち	-8823
はいった	-8824
また他の	-8825
みつぎを	-8826
めんどう	-8827
ものとは	-8828
る者は皆	-8829
をお聞き	-8830
を張って	-8831
を打って	-8832
を高める	-8833
んですか	-8834
アサヘル	-8835
エイエル	-8836
エデンの	-8837
エフロン	-8838
エリパズ	-8839
ゴセンの	-8840
シケルで	-8841
ゼパニヤ	-8842
ソドムの	-8843
タマルは	-8844
ハマンの	-8845
ベテルの	-8846
ベレキヤ	-8847
モーセを	-8848
ユダから	-8849
ヨセフを	-8850
三十人の	-8851
不信仰な	-8852
与えられ	-8853
主の使が	-8854
主の家の	-8855
主の霊が	-8856
主は彼を	-8857
人がいた	-8858
八日目に	-8859
十二人を	-8860
右の手を	-8861
喜ばない	-8862
報告した	-8863
夜の間に	-8864
大祭司の	-8865
女をめと	-8866
娘たちが	-8867
子を産み	-8868
守られる	-8869
座にすわ	-8870
彼らをお	-8871
思います	-8872
恵まれた	-8873
愛する者	-8874
手ずから	-8875
散らした	-8876
日である	-8877
来るまで	-8878
民である	-8879
物および	-8880
生きかえ	-8881
異邦人が	-8882
異邦人は	-8883
立たせて	-8884
終るまで	-8885
者にして	-8886
聖会を開	-8887
血を流し	-8888
連れ出し	-8889
部族では	-8890
隣り人の	-8891
雄羊五頭	-8892
願わくは	-8893
高き所は	-8894
▁あなたに	-8895
▁この人が	-8896
▁しもべは	-8897
▁その後に	-8898
▁その部隊	-8899
▁ひとりの	-8900
▁ふたりの	-8901
▁ふたりは	-8902
▁わたしと	-8903
▁エリヤは	-8904
▁ダビデの	-8905
▁パウロが	-8906
あがないを	-8907
あなたの母	-8908
あやまちを	-8909
いろいろな	-8910
おうとする	-8911
おくがよい	-8912
かすめられ	-8913
かれていた	-8914
かれました	-8915
がないのか	-8916
このほかに	-8917
これは主の	-8918
これを取り	-8919
これを攻め	-8920
したのです	-8921
してくれた	-8922
してほしい	-8923
しるされて	-8924
するがよい	-8925
そうとした	-8926
そこにいた	-8927
その嗣業を	-8928
その所から	-8929
それだから	-8930
それゆえに	-8931
たくわえて	-8932
と言うのか	-8933
なっている	-8934
なのだから	-8935
になされた	-8936
に使う油を	-8937
ねんごろに	-8938
のひとりで	-8939
の氏族では	-8940
ばとのひな	-8941
ぶどう酒と	-8942
ぶどう酒は	-8943
またこれを	-8944
また多くの	-8945
まっている	-8946
むであろう	-8947
ようであり	-8948
よりも高く	-8949
らなければ	-8950
われました	-8951
をする者は	-8952
を行われる	-8953
アムノンは	-8954
エリエゼル	-8955
カイザルに	-8956
ガドの子孫	-8957
ギルガルに	-8958
ギレアデに	-8959
サウルの子	-8960
ザルムンナ	-8961
シメオンの	-8962
テレビンの	-8963
ハシャビヤ	-8964
モアブの平	-8965
ヨアシの子	-8966
ヨシュアの	-8967
不義を行う	-8968
主のもとに	-8969
主をほめよ	-8970
主イエスの	-8971
人々は彼を	-8972
人と獣とを	-8973
伝えられた	-8974
信じなさい	-8975
出しなさい	-8976
出ていって	-8977
勇士たちは	-8978
口から出る	-8979
国に生れた	-8980
地に伏して	-8981
声を聞いて	-8982
女に言った	-8983
帰って来た	-8984
彼女はその	-8985
待っている	-8986
恵みを得る	-8987
悩みの日に	-8988
戒めを守り	-8989
持っていた	-8990
捨てられる	-8991
攻め上って	-8992
救うために	-8993
時のように	-8994
求めたので	-8995
火の中から	-8996
百キュビト	-8997
神から出た	-8998
神に仕える	-8999
神に対して	-9000
神は彼らを	-9001
祭司たちを	-9002
立ち去った	-9003
罪のゆるし	-9004
罪を犯して	-9005
者ではない	-9006
聖徒たちの	-9007
若者たちは	-9008
行かれると	-9009
話している	-9010
過越の祭を	-9011
遠い国から	-9012
門を守る者	-9013
雄やぎ五頭	-9014
▁しかし主は	-9015
▁すると彼は	-9016
▁今わたしは	-9017
▁王は言った	-9018
▁罪祭に使う	-9019
あなたに臨む	-9020
あなたの手に	-9021
あなたの目は	-9022
いなくなった	-9023
いにしえから	-9024
きよめられた	-9025
ことがあった	-9026
ことをあかし	-9027
ことを知った	-9028
この大いなる	-9029
これに対して	-9030
これをもって	-9031
されたことを	-9032
したのですか	-9033
しようとして	-9034
すべてこれを	-9035
すべての事に	-9036
すみかである	-9037
そこに住んだ	-9038
そのともしび	-9039
それは彼らが	-9040
それを聞いて	-9041
つかさたちの	-9042
なんのために	-9043
にいたるまで	-9044
におこなった	-9045
につけられた	-9046
にまで及んだ	-9047
に告げたので	-9048
みきらわれる	-9049
られています	-9050
るべきことを	-9051
わけではない	-9052
わたしがもし	-9053
わたしの民の	-9054
わたしを憎む	-9055
アヒカムの子	-9056
イエスにある	-9057
スリヤびとが	-9058
スリヤびとは	-9059
ハマテの入口	-9060
マナセの部族	-9061
ヨルダンを渡	-9062
ンの子たちの	-9063
上っていって	-9064
五頭であって	-9065
人々であった	-9066
会見の幕屋に	-9067
天から下って	-9068
奴隷の家から	-9069
定めのように	-9070
帰らなかった	-9071
彼女のために	-9072
律法学者たち	-9073
書きしるした	-9074
正しいことを	-9075
殺そうとして	-9076
産みの苦しみ	-9077
知るであろう	-9078
知恵をもって	-9079
祭司のもとに	-9080
者があろうか	-9081
者はなかった	-9082
荒布をまとい	-9083
言わなかった	-9084
言葉によって	-9085
野のすべての	-9086
銀のさら一つ	-9087
▁エフライムは	-9088
▁ソロモン王は	-9089
あなたがたは今	-9090
あなたが彼らの	-9091
これはわたしの	-9092
すべてこれらの	-9093
そうしなければ	-9094
とそのすべての	-9095
めてはならない	-9096
もろもろの国の	-9097
もろもろの民は	-9098
れてはならない	-9099
わたしが命じた	-9100
わたしが命じる	-9101
わたしの契約を	-9102
イスラエルの君	-9103
ベニヤミンびと	-9104
レビびとである	-9105
今日に至るまで	-9106
地にひれ伏して	-9107
地のおもてから	-9108
彼らはわたしの	-9109
手から救い出す	-9110
生きながらえて	-9111
知っておられる	-9112
▁すなわち彼らは	-9113
▁その時わたしは	-9114
▁わたしは自分の	-9115
▁わたしは言った	-9116
あなたがたの心を	-9117
あなたのところに	-9118
この二つには素祭	-9119
これは七十シケル	-9120
つるぎで殺された	-9121
とその放牧地など	-9122
ひとりもなかった	-9123
ることができよう	-9124
ることもできない	-9125
イスラエルの地に	-9126
イスラエルの家は	-9127
ゼバとザルムンナ	-9128
ユダの王エホヤキ	-9129
ユダの王ヒゼキヤ	-9130
ヨルダンのほとり	-9131
共に聖所のシケル	-9132
戦いの備えをした	-9133
数えられたものは	-9134
行ってはならない	-9135
香を満たしていた	-9136
▁こうしてダビデは	-9137
▁イスラエルの王は	-9138
ことを知っています	-9139
わたしが見ていると	-9140
わたしのものである	-9141
わたしは知っている	-9142
わたしを受けいれる	-9143
ユダとベニヤミンの	-9144
一歳の雄の小羊一頭	-9145
断じてそうではない	-9146
耳を傾けてください	-9147
▁また十シケルの金の	-9148
▁主はこう仰せられる	-9149
おののいてはならない	-9150
には二万四千人あった	-9151
アヒカムの子ゲダリヤ	-9152
与えなければならない	-9153
供え物は銀のさら一つ	-9154
名は次のとおりである	-9155
▁また雄やぎ一頭を罪祭	-9156
▁罪祭に使う雄やぎ一頭	-9157
あなたの民イスラエルの	-9158
そうすればあなたがたは	-9159
その重さは百三十シケル	-9160
ることができるであろう	-9161
ネバテの子ヤラベアムの	-9162
共に聖所のシケルによる	-9163
祭としなければならない	-9164
祭の犠牲に使う雄牛二頭	-9165
罪を負わなければならない	-9166
この二つには素祭に使う油を	-9167
メンと言わなければならない	-9168
一歳の雄の小羊五頭であって	-9169
▁また燔祭に使う若い雄牛一頭	-9170
▁テ	-9171
▁デ	-9172
▁二	-9173
▁死	-9174
いが	-9175
うや	-9176
お互	-9177
がし	-9178
くり	-9179
こち	-9180
さて	-9181
ざお	-9182
しぼ	-9183
すこ	-9184
すべ	-9185
せば	-9186
そび	-9187
そを	-9188
だを	-9189
ちる	-9190
どち	-9191
なれ	-9192
のの	-9193
の事	-9194
の口	-9195
の幕	-9196
の後	-9197
の戸	-9198
ばさ	-9199
ばた	-9200
ひた	-9201
ほう	-9202
よき	-9203
アベ	-9204
イヅ	-9205
エコ	-9206
キデ	-9207
ジム	-9208
ッポ	-9209
ネヘ	-9210
パラ	-9211
ヒヤ	-9212
ピス	-9213
ブナ	-9214
ヘレ	-9215
ペオ	-9216
ホサ	-9217
マウ	-9218
下る	-9219
今の	-9220
仕役	-9221
何が	-9222
傷の	-9223
傷を	-9224
光に	-9225
八人	-9226
公正	-9227
公義	-9228
兵は	-9229
務は	-9230
南に	-9231
召集	-9232
同労	-9233
同族	-9234
善良	-9235
囲む	-9236
場を	-9237
声と	-9238
大小	-9239
大空	-9240
天も	-9241
失う	-9242
好み	-9243
娘に	-9244
宣告	-9245
宿り	-9246
富は	-9247
小葉	-9248
川は	-9249
座は	-9250
当る	-9251
悪の	-9252
敵し	-9253
書の	-9254
来臨	-9255
次第	-9256
殺さ	-9257
母に	-9258
気に	-9259
水と	-9260
海は	-9261
災は	-9262
燃や	-9263
父母	-9264
男が	-9265
町へ	-9266
目と	-9267
続け	-9268
良心	-9269
苦労	-9270
血と	-9271
行え	-9272
行か	-9273
裂く	-9274
角は	-9275
解く	-9276
買う	-9277
隊長	-9278
難を	-9279
高殿	-9280
麦を	-9281
▁アナ	-9282
▁エズ	-9283
▁カイ	-9284
▁王よ	-9285
▁第六	-9286
▁群衆	-9287
▁聞け	-9288
あけて	-9289
あとで	-9290
あらし	-9291
ある男	-9292
いたか	-9293
い取り	-9294
うせた	-9295
うたえ	-9296
おりて	-9297
お話し	-9298
かかり	-9299
か月の	-9300
が多く	-9301
くだり	-9302
くなる	-9303
くると	-9304
この女	-9305
この時	-9306
ささや	-9307
しさは	-9308
した事	-9309
しまえ	-9310
し上げ	-9311
すみず	-9312
その台	-9313
その地	-9314
その墓	-9315
その罪	-9316
その若	-9317
その身	-9318
たして	-9319
つくし	-9320
つれて	-9321
とめた	-9322
と戦う	-9323
と戦車	-9324
と言え	-9325
どりに	-9326
なくて	-9327
なろう	-9328
にあら	-9329
になさ	-9330
の声を	-9331
の子牛	-9332
の町を	-9333
の門は	-9334
ひるが	-9335
まむし	-9336
み深く	-9337
やめた	-9338
ゆりの	-9339
る人は	-9340
れんが	-9341
ろばが	-9342
わされ	-9343
をおろ	-9344
をかす	-9345
をさせ	-9346
をつぐ	-9347
をひき	-9348
を打つ	-9349
を攻め	-9350
を用い	-9351
を結び	-9352
を見せ	-9353
を解く	-9354
アの子	-9355
アサの	-9356
アビウ	-9357
イルの	-9358
ガイル	-9359
ケイラ	-9360
シャパ	-9361
ジクリ	-9362
ゼロペ	-9363
テの子	-9364
パダン	-9365
パテヤ	-9366
パン種	-9367
ビルハ	-9368
ベルテ	-9369
ミクマ	-9370
ミルカ	-9371
ムから	-9372
ヨブの	-9373
ラダン	-9374
ラテヤ	-9375
リシャ	-9376
レシャ	-9377
七頭の	-9378
三日の	-9379
不義は	-9380
主人を	-9381
乳ぶさ	-9382
乳離れ	-9383
事の後	-9384
今まで	-9385
仰いで	-9386
会衆に	-9387
住ませ	-9388
住んで	-9389
供える	-9390
光る所	-9391
全体に	-9392
内には	-9393
力とを	-9394
助かる	-9395
勝った	-9396
半ばは	-9397
取られ	-9398
同じく	-9399
嘆きを	-9400
四十夜	-9401
囲んで	-9402
大声に	-9403
奪って	-9404
子ども	-9405
子供を	-9406
学んだ	-9407
安息を	-9408
寄せた	-9409
小羊を	-9410
少しば	-9411
山々に	-9412
岩から	-9413
御使に	-9414
心に留	-9415
必ず成	-9416
必要な	-9417
憎んで	-9418
捕えた	-9419
攻め上	-9420
時ごろ	-9421
最初の	-9422
柱頭の	-9423
楽しく	-9424
次いで	-9425
歩いた	-9426
残れる	-9427
氏族の	-9428
清めた	-9429
滅びた	-9430
真実と	-9431
知った	-9432
石の柱	-9433
神々の	-9434
神の人	-9435
福音の	-9436
移して	-9437
終りに	-9438
者でも	-9439
聖書は	-9440
自身は	-9441
至聖所	-9442
行いに	-9443
言いふ	-9444
賜わり	-9445
身分の	-9446
軍勢が	-9447
逆らい	-9448
道ばた	-9449
部下の	-9450
部族が	-9451
離して	-9452
食わせ	-9453
食物と	-9454
▁あくる	-9455
▁しかも	-9456
▁その夜	-9457
▁主なる	-9458
▁彼女が	-9459
▁預言者	-9460
あがなわ	-9461
あらわし	-9462
あらわれ	-9463
いながら	-9464
いれない	-9465
ういごを	-9466
うかがい	-9467
うならば	-9468
おかれた	-9469
おまえに	-9470
かなたに	-9471
からだが	-9472
から離れ	-9473
かれない	-9474
が起った	-9475
きたのは	-9476
けがれた	-9477
けていた	-9478
こうした	-9479
ことわざ	-9480
この時代	-9481
この民の	-9482
これから	-9483
ご自身の	-9484
さまよい	-9485
されたが	-9486
しい者を	-9487
すまいに	-9488
すまいを	-9489
そのかた	-9490
その事を	-9491
その心が	-9492
その心に	-9493
その柱は	-9494
その母は	-9495
その民の	-9496
それなら	-9497
そんなに	-9498
たる者が	-9499
っており	-9500
つるぎが	-9501
でもなく	-9502
で彼らを	-9503
としては	-9504
となえる	-9505
との間に	-9506
と同様に	-9507
と戦って	-9508
にあらわ	-9509
においで	-9510
における	-9511
にそむく	-9512
につけよ	-9513
に入れて	-9514
のほかは	-9515
のを見る	-9516
の時まで	-9517
ほふって	-9518
また主が	-9519
また彼の	-9520
みだりに	-9521
みられる	-9522
むすこに	-9523
やめさせ	-9524
より先に	-9525
よろこび	-9526
よろずの	-9527
れたので	-9528
れていた	-9529
わが民は	-9530
を守らず	-9531
を捨てた	-9532
を捨てて	-9533
を攻めて	-9534
を見るか	-9535
アビヤタ	-9536
アルノン	-9537
エドムに	-9538
オルの子	-9539
カレブは	-9540
グダラの	-9541
グリッパ	-9542
ケルブの	-9543
サタンの	-9544
ザカリヤ	-9545
シドンの	-9546
シメイは	-9547
シロミテ	-9548
テルの子	-9549
パンくず	-9550
ヘロデは	-9551
ベタニヤ	-9552
ミヅパに	-9553
ヨアブが	-9554
ヨアブと	-9555
ヨザバデ	-9556
リヤの子	-9557
主の家に	-9558
主は彼に	-9559
二万二千	-9560
互に愛し	-9561
人がある	-9562
人の子ら	-9563
今の時代	-9564
伸ばした	-9565
信頼する	-9566
出ている	-9567
出会った	-9568
十分の二	-9569
取られた	-9570
台の上に	-9571
喜ばせる	-9572
女たちの	-9573
定めとを	-9574
寄り頼み	-9575
帰らせた	-9576
年生きて	-9577
年老いた	-9578
引き出し	-9579
強い手と	-9580
彼とその	-9581
彼らにも	-9582
待ち望み	-9583
後の子孫	-9584
心に思い	-9585
心に留め	-9586
心のうち	-9587
思いわず	-9588
恵まれる	-9589
悩みの時	-9590
成長して	-9591
所有する	-9592
打ち砕く	-9593
招かれた	-9594
日の入る	-9595
書かれた	-9596
民がみな	-9597
民の中に	-9598
水を飲む	-9599
求めても	-9600
王たちは	-9601
王の家の	-9602
男の子が	-9603
異邦人を	-9604
目をとめ	-9605
知られる	-9606
石で打ち	-9607
石で撃ち	-9608
石を取り	-9609
示される	-9610
神の宮に	-9611
神の霊が	-9612
祭として	-9613
立たせた	-9614
立たない	-9615
約束した	-9616
終りまで	-9617
者の上に	-9618
者もなく	-9619
聖徒たち	-9620
自分の家	-9621
若い時の	-9622
諸国民を	-9623
造された	-9624
道を離れ	-9625
金よりも	-9626
預言者に	-9627
食べても	-9628
▁おおよそ	-9629
▁この人は	-9630
▁アハブは	-9631
▁エホヤキ	-9632
▁シメオン	-9633
▁ユダヤ人	-9634
▁万軍の神	-9635
▁言われた	-9636
あげばりを	-9637
あなたの妻	-9638
ある人々は	-9639
かたわらを	-9640
があなたを	-9641
が出てきた	-9642
きたのです	-9643
こう言って	-9644
ことを知り	-9645
この人々は	-9646
これは彼が	-9647
これを聞け	-9648
これを行う	-9649
さし伸べて	-9650
しえたげて	-9651
しかし彼は	-9652
して下さる	-9653
すのである	-9654
することは	-9655
そこに住み	-9656
その二つの	-9657
その周囲に	-9658
その周囲の	-9659
その時には	-9660
その着物を	-9661
その言葉は	-9662
たちがきて	-9663
ついにその	-9664
であるのに	-9665
であろうと	-9666
ところから	-9667
とすべての	-9668
とをささげ	-9669
とを取って	-9670
と思われる	-9671
どのように	-9672
にあずから	-9673
においては	-9674
のにまさる	-9675
のひとりが	-9676
の下にある	-9677
の全き小羊	-9678
の子たちは	-9679
の門の入口	-9680
ひとりずつ	-9681
びとである	-9682
ぶどう畑の	-9683
べきことを	-9684
ましたので	-9685
またそれを	-9686
またはその	-9687
またほかの	-9688
もし彼らが	-9689
ものでない	-9690
ものとなり	-9691
らせられた	-9692
られようか	-9693
り動かして	-9694
ろうとした	-9695
わたしの顔	-9696
をあらわす	-9697
を得させる	-9698
を造られた	-9699
アビナダブ	-9700
アブネルの	-9701
イスカリオ	-9702
エドムびと	-9703
エリシャが	-9704
ゼロペハデ	-9705
ナジルびと	-9706
ヨセフの子	-9707
ヨルダンに	-9708
レビびとが	-9709
一タラント	-9710
三分の一を	-9711
主のみ名を	-9712
主をさんび	-9713
事によって	-9714
二キュビト	-9715
五分の一を	-9716
五十人の長	-9717
代々ながく	-9718
会見の天幕	-9719
使者たちを	-9720
信仰による	-9721
先祖たちが	-9722
分け与えた	-9723
城壁の上に	-9724
多くの人が	-9725
奪い取った	-9726
女の産んだ	-9727
子を産んだ	-9728
彼はこれを	-9729
彼らのうち	-9730
彼らを導き	-9731
心のままに	-9732
悪のために	-9733
愛する者を	-9734
慰められる	-9735
所有として	-9736
所有の地に	-9737
民はみなア	-9738
火に焼いて	-9739
父に言った	-9740
神に言った	-9741
神を恐れる	-9742
祭のほかの	-9743
祭をささげ	-9744
立てられる	-9745
答えられる	-9746
終ったとき	-9747
義をもって	-9748
聖なる所で	-9749
行ったので	-9750
行っている	-9751
言葉を聞き	-9752
語ることを	-9753
買い取った	-9754
金でこれを	-9755
隠れている	-9756
集められる	-9757
頼みとする	-9758
食べなさい	-9759
食べる者は	-9760
高きやぐら	-9761
▁これは主が	-9762
▁それゆえに	-9763
▁また彼らは	-9764
▁われわれが	-9765
▁アンモンの	-9766
▁イッサカル	-9767
▁ダビデ王は	-9768
▁正しい者は	-9769
あなたに仕え	-9770
あなたの戒め	-9771
あなたの民の	-9772
あなたの神は	-9773
あなたはなぜ	-9774
あなたは必ず	-9775
いたしません	-9776
おとめたちは	-9777
かもしれない	-9778
からであると	-9779
がありますか	-9780
この地に住む	-9781
しもべたちは	-9782
しもべたちを	-9783
すなわち主が	-9784
すべての生き	-9785
すわっていた	-9786
そうしないと	-9787
その兄弟たち	-9788
ちりのように	-9789
つかさたちが	-9790
つかさたちと	-9791
できなかった	-9792
とおりにした	-9793
についている	-9794
の中に投げ込	-9795
の子らである	-9796
はなはだしい	-9797
ひざまずいて	-9798
ぶんどり物を	-9799
またわたしを	-9800
もののように	-9801
ることになる	-9802
わたしがこの	-9803
わたしの手に	-9804
わたしの目は	-9805
わたしの言葉	-9806
わたしを生か	-9807
わないならば	-9808
われらの神の	-9809
をあわれんで	-9810
をもっていた	-9811
をもっている	-9812
を受けいれる	-9813
を持ってきて	-9814
アブラハムと	-9815
エジプトの国	-9816
エフライムと	-9817
エブスびとの	-9818
エホヤダの子	-9819
エルサレムと	-9820
カナンの地で	-9821
カペナウムに	-9822
ギレアデびと	-9823
ユダの人々は	-9824
レバノンの香	-9825
主がわたしに	-9826
主はあなたに	-9827
人々のために	-9828
人をつかわし	-9829
供え物として	-9830
偶像をもって	-9831
先祖たちの神	-9832
四十日四十夜	-9833
夕まで汚れる	-9834
契約を結んだ	-9835
女に言われた	-9836
実を結ばない	-9837
家にはいって	-9838
家ばとのひな	-9839
寄留している	-9840
彼はあなたの	-9841
彼らに対して	-9842
御名によって	-9843
憤りをもって	-9844
所にはいった	-9845
手を伸ばして	-9846
書きおくった	-9847
来るのを見た	-9848
正しいさばき	-9849
滅ぼすことを	-9850
滅ぼすために	-9851
父がわたしに	-9852
神の子である	-9853
福音のために	-9854
罪を犯さない	-9855
荒れすたれた	-9856
行かなかった	-9857
見るであろう	-9858
集まってきた	-9859
▁そして祭司は	-9860
▁モーセはまた	-9861
あなたがた自身	-9862
いなごのように	-9863
およびその他の	-9864
お命じになった	-9865
きたからである	-9866
くれるであろう	-9867
ことがないのか	-9868
ことはなかった	-9869
このような事を	-9870
これに向かって	-9871
すべてのものは	-9872
でいらせられる	-9873
となるでしょう	-9874
と言われたので	-9875
にならなかった	-9876
に至るであろう	-9877
のようになって	-9878
ひとりもいない	-9879
もろもろの国を	-9880
もろもろの宮殿	-9881
ようではないか	-9882
られないように	-9883
わたしによって	-9884
わたしに臨んで	-9885
わたしの手から	-9886
わたしの願いを	-9887
アルタシャスタ	-9888
イエスと一緒に	-9889
イエスは彼らを	-9890
イスラエルは皆	-9891
エジプトびとが	-9892
エジプトびとに	-9893
キリストと共に	-9894
ミデアンびとの	-9895
ヨルダンを渡り	-9896
主の名をもって	-9897
帰するであろう	-9898
手にわたされた	-9899
死ぬことはない	-9900
死んでしまった	-9901
種入れぬパンを	-9902
者をことごとく	-9903
話しておられる	-9904
話してください	-9905
▁あなたがたの神	-9906
▁モーセとアロン	-9907
▁主の言葉がまた	-9908
あなたがたの兄弟	-9909
あなたと共にいる	-9910
あなたのおきてを	-9911
おゆるしください	-9912
しようとしている	-9913
その中のすべての	-9914
どこからきたのか	-9915
のではありません	-9916
わたしはあなたと	-9917
わたしを怒らせた	-9918
イスラエルの山々	-9919
イスラエルの部族	-9920
エルサレムの住民	-9921
パリサイ人たちは	-9922
主にささげる火祭	-9923
主に犠牲をささげ	-9924
主はあなたがたに	-9925
先祖たちと共に眠	-9926
向かい合っている	-9927
常燔祭とその素祭	-9928
恐れたからである	-9929
犯した罪のために	-9930
知らせてください	-9931
部族のうちからは	-9932
▁あなたがたのうち	-9933
▁それからイエスは	-9934
▁わたしはあなたに	-9935
▁彼は主の目の前に	-9936
ことを知るであろう	-9937
これはあなたがたが	-9938
しているからである	-9939
その名を置くために	-9940
であってはならない	-9941
もろもろの憎むべき	-9942
イスラエルの子らの	-9943
イスラエルを治めた	-9944
エフライムの山地の	-9945
ユダとエルサレムの	-9946
一歳の雄の全き小羊	-9947
救うことができない	-9948
滅ぼされるであろう	-9949
近づいてはならない	-9950
預言者たちによって	-9951
▁万軍の主は言われる	-9952
あなたがたによろしく	-9953
あなたのしもべである	-9954
あなたをほめたたえる	-9955
しまなければならない	-9956
わたしがあなたがたの	-9957
わたしのしもべである	-9958
エジプトの国から導き	-9959
主が命じられたように	-9960
主は生きておられます	-9961
彼がしたすべての事は	-9962
身を汚してはならない	-9963
あなたがたにあるように	-9964
につけなければならない	-9965
を行わなければならない	-9966
ペリシテびとの君たちは	-9967
イエスのもとにきて言った	-9968
携えてこなければならない	-9969
▁その供え物は銀のさら一つ	-9970
バビロンの王ネブカデネザル	-9971
民のうちから断たれるであろう	-9972
汚れた者としなければならない	-9973
イスラエルの神はこう仰せられる	-9974
▁一	-9975
▁不	-9976
▁僕	-9977
▁御	-9978
▁酒	-9979
々を	-9980
いわ	-9981
い草	-9982
うつ	-9983
かど	-9984
ぜて	-9985
ぞく	-9986
だま	-9987
つぐ	-9988
つる	-9989
なせ	-9990
の大	-9991
の行	-9992
の雨	-9993
の首	-9994
は銀	-9995
ふく	-9996
もら	-9997
らえ	-9998
りが	-9999
を追	-10000
イテ	-10001
シベ	-10002
タテ	-10003
デウ	-10004
ナシ	-10005
ニと	-10006
フト	-10007
ベト	-10008
ポン	-10009
ミロ	-10010
ムシ	-10011
メロ	-10012
ヤキ	-10013
ヤビ	-10014
レの	-10015
一連	-10016
七万	-10017
七月	-10018
上を	-10019
不利	-10020
世は	-10021
伝道	-10022
何に	-10023
信ぜ	-10024
全国	-10025
分に	-10026
分別	-10027
利を	-10028
務に	-10029
十月	-10030
及ぼ	-10031
名で	-10032
嘆け	-10033
夫の	-10034
好き	-10035
守備	-10036
宝は	-10037
実現	-10038
家が	-10039
弟が	-10040
徒歩	-10041
得て	-10042
息は	-10043
悪事	-10044
意に	-10045
救え	-10046
救は	-10047
日夜	-10048
明る	-10049
昼の	-10050
月と	-10051
栄を	-10052
楽器	-10053
残す	-10054
法律	-10055
災の	-10056
獣が	-10057
病で	-10058
目ざ	-10059
知者	-10060
祈に	-10061
第五	-10062
肉が	-10063
肉に	-10064
葬り	-10065
議官	-10066
賜い	-10067
足に	-10068
軍人	-10069
込み	-10070
雲に	-10071
骨と	-10072
骨に	-10073
▁レア	-10074
▁ロト	-10075
▁偽善	-10076
▁兄弟	-10077
▁地の	-10078
▁天の	-10079
▁小羊	-10080
▁心の	-10081
▁日が	-10082
▁第三	-10083
▁第五	-10084
」。「	-10085
あかり	-10086
あがり	-10087
あがる	-10088
あまり	-10089
いつけ	-10090
いつづ	-10091
うける	-10092
うせて	-10093
うわさ	-10094
かえし	-10095
かたに	-10096
かつぐ	-10097
が天に	-10098
が彼の	-10099
き出す	-10100
けたが	-10101
ごころ	-10102
しいて	-10103
しんで	-10104
するな	-10105
そその	-10106
その一	-10107
その両	-10108
その国	-10109
その心	-10110
その手	-10111
その母	-10112
その道	-10113
たやす	-10114
ったし	-10115
できた	-10116
で身を	-10117
と彼に	-10118
なめた	-10119
なんら	-10120
に会い	-10121
に分け	-10122
に座し	-10123
に当り	-10124
に当る	-10125
ねたむ	-10126
のかわ	-10127
のべて	-10128
の住民	-10129
の家が	-10130
の町々	-10131
の間を	-10132
はてる	-10133
は何か	-10134
ひどい	-10135
ぶ者は	-10136
ほふる	-10137
ませて	-10138
みがら	-10139
みない	-10140
みをお	-10141
む者は	-10142
めない	-10143
ももの	-10144
やみが	-10145
やめる	-10146
やりと	-10147
よいか	-10148
よりの	-10149
りざお	-10150
る者と	-10151
れても	-10152
ろばの	-10153
ろばは	-10154
わが岩	-10155
わきに	-10156
わける	-10157
を持ち	-10158
を捕え	-10159
を書き	-10160
を造る	-10161
を選び	-10162
んで後	-10163
アミホ	-10164
エベデ	-10165
エリア	-10166
カニヤ	-10167
コルの	-10168
サベツ	-10169
ザック	-10170
シラス	-10171
スコテ	-10172
タムの	-10173
ダタン	-10174
ツロと	-10175
ツロは	-10176
テコア	-10177
ドルの	-10178
ハガイ	-10179
ハシュ	-10180
バラテ	-10181
パンも	-10182
ヘテの	-10183
ヘマン	-10184
ベリア	-10185
ホシャ	-10186
ボテの	-10187
マルコ	-10188
ミカル	-10189
ヤリム	-10190
ユダが	-10191
一日の	-10192
一連の	-10193
三人は	-10194
二十三	-10195
人の手	-10196
人は皆	-10197
信仰は	-10198
倒して	-10199
傾けて	-10200
全体が	-10201
公義を	-10202
六か月	-10203
切った	-10204
動かす	-10205
十日に	-10206
喜ばれ	-10207
嗣業と	-10208
囲んだ	-10209
地とを	-10210
地方の	-10211
城壁は	-10212
外庭に	-10213
多くて	-10214
契約は	-10215
奪われ	-10216
女たち	-10217
子やぎ	-10218
安全に	-10219
家来と	-10220
宿った	-10221
小さな	-10222
屋上に	-10223
幕屋を	-10224
引き渡	-10225
感謝の	-10226
所まで	-10227
投げて	-10228
授ける	-10229
教会を	-10230
数人の	-10231
敵から	-10232
断食を	-10233
最後の	-10234
東から	-10235
歌った	-10236
死体は	-10237
氏族は	-10238
注がれ	-10239
流した	-10240
海の中	-10241
災を下	-10242
王の第	-10243
産する	-10244
病気を	-10245
百五十	-10246
真理に	-10247
知恵の	-10248
砕かれ	-10249
破れを	-10250
祝福を	-10251
神には	-10252
神の僕	-10253
神の力	-10254
答えよ	-10255
納める	-10256
終りは	-10257
終りを	-10258
絶えて	-10259
群衆に	-10260
義人を	-10261
者をも	-10262
耳しい	-10263
聖書の	-10264
聖霊を	-10265
荒野を	-10266
解いて	-10267
言えば	-10268
言わせ	-10269
設ける	-10270
訴えた	-10271
証人の	-10272
証人は	-10273
身内の	-10274
返って	-10275
長子の	-10276
開けて	-10277
隣人を	-10278
願いは	-10279
食べず	-10280
▁だれか	-10281
▁アセル	-10282
▁エリコ	-10283
▁ペテロ	-10284
▁主のみ	-10285
▁主の使	-10286
あとから	-10287
ある人は	-10288
いかなる	-10289
いっそう	-10290
いらない	-10291
えさせる	-10292
おきてと	-10293
かさねて	-10294
かしこで	-10295
かしこに	-10296
かすめた	-10297
かわいて	-10298
きたらせ	-10299
きよめて	-10300
きよめる	-10301
くされる	-10302
この日に	-10303
ご自身が	-10304
さまよう	-10305
されても	-10306
しかし今	-10307
した者は	-10308
しゅうと	-10309
しろがね	-10310
すみかを	-10311
する者が	-10312
その中で	-10313
その天幕	-10314
その女の	-10315
その女は	-10316
その子が	-10317
その実は	-10318
その家に	-10319
その所を	-10320
その日は	-10321
その月の	-10322
その民に	-10323
その道は	-10324
その顔は	-10325
それに乗	-10326
って行き	-10327
でそれを	-10328
とついだ	-10329
とどろき	-10330
とはその	-10331
と共にお	-10332
と戦った	-10333
どれほど	-10334
ない者は	-10335
なかから	-10336
ならって	-10337
にあだを	-10338
にあわれ	-10339
になれば	-10340
にまさり	-10341
によると	-10342
のあまり	-10343
のみつく	-10344
のもとへ	-10345
の時には	-10346
の門の道	-10347
の間から	-10348
はその日	-10349
ばかりに	-10350
ばらしい	-10351
ひるがえ	-10352
ほかには	-10353
まっすぐ	-10354
まわった	-10355
みなわざ	-10356
もとから	-10357
ものとを	-10358
わが魂の	-10359
をうかが	-10360
を建てて	-10361
を得たが	-10362
を得ない	-10363
を知らせ	-10364
を見つけ	-10365
を設けた	-10366
アナトテ	-10367
アホリバ	-10368
アムラム	-10369
イザヤの	-10370
イゼベル	-10371
シモンの	-10372
ソドムと	-10373
ナザレの	-10374
ナザレ人	-10375
パロの娘	-10376
ホシャイ	-10377
ヤコブよ	-10378
ヨアブに	-10379
ヨアブの	-10380
ヨナダブ	-10381
リベカは	-10382
ンの荒野	-10383
一つです	-10384
不信実な	-10385
主にある	-10386
主はまた	-10387
人となり	-10388
人の心を	-10389
人も獣も	-10390
人を殺す	-10391
何ひとつ	-10392
兄エサウ	-10393
出かけた	-10394
分として	-10395
去られた	-10396
取られる	-10397
口を開き	-10398
君たちが	-10399
堅く立ち	-10400
娘たちを	-10401
安んじて	-10402
導かれる	-10403
引かれて	-10404
引きわた	-10405
愛します	-10406
持たない	-10407
敵となる	-10408
敵の前に	-10409
日の下で	-10410
日の間は	-10411
暗くなり	-10412
暗やみに	-10413
最後まで	-10414
死にます	-10415
残された	-10416
泣き叫べ	-10417
流出ある	-10418
海の上に	-10419
牛または	-10420
物である	-10421
王と共に	-10422
皮よりも	-10423
知らせて	-10424
祭司に帰	-10425
羊のおり	-10426
者はなく	-10427
自分の子	-10428
見えない	-10429
言いひろ	-10430
言葉が成	-10431
造られる	-10432
雄々しく	-10433
雄羊二頭	-10434
頭の上に	-10435
風に吹き	-10436
食べない	-10437
飲ませて	-10438
高き所に	-10439
高ぶって	-10440
▁このとき	-10441
▁その中に	-10442
▁その他の	-10443
▁その地の	-10444
▁イエスを	-10445
▁エッサイ	-10446
▁ペテロが	-10447
あとを追い	-10448
あなたの名	-10449
あるものは	-10450
あわれみは	-10451
いくさびと	-10452
いたるまで	-10453
いましたが	-10454
おられない	-10455
お願いする	-10456
から取り去	-10457
くちびるに	-10458
けて言った	-10459
ことを言う	-10460
これは火祭	-10461
これを撃ち	-10462
ささげ物は	-10463
すればよい	-10464
そこにいる	-10465
そのむすこ	-10466
その中には	-10467
それを見た	-10468
だれですか	-10469
だれひとり	-10470
つかまえて	-10471
であるかを	-10472
という者が	-10473
となられる	-10474
とのために	-10475
とを連れて	-10476
と共にあり	-10477
どこにある	-10478
にあたって	-10479
におもむき	-10480
についても	-10481
に従わない	-10482
の娘である	-10483
はその上に	-10484
ひとりでも	-10485
へ行かれた	-10486
まで及んだ	-10487
もなくなる	-10488
ものとした	-10489
わざである	-10490
わたしにも	-10491
をあまねく	-10492
をつくって	-10493
アシケロン	-10494
アハジヤは	-10495
アマジヤは	-10496
アモツの子	-10497
エステルの	-10498
エルカナは	-10499
エルバアル	-10500
オテニエル	-10501
ケルビムと	-10502
ケルビムは	-10503
シャパテの	-10504
タルシシの	-10505
ダビデ王の	-10506
ネリヤの子	-10507
ヒルキヤは	-10508
ヘブルびと	-10509
ベオルの子	-10510
メルキゼデ	-10511
一万二千人	-10512
一緒にいる	-10513
一頭ごとに	-10514
上って行く	-10515
主がこれを	-10516
主なる神が	-10517
主の聖なる	-10518
主は彼らの	-10519
主をさして	-10520
仕えなさい	-10521
兄弟たちと	-10522
公道と正義	-10523
去って行く	-10524
及んでいる	-10525
取りなさい	-10526
同じである	-10527
告げられた	-10528
呼び集めて	-10529
喜び楽しみ	-10530
契約の箱を	-10531
宣べ伝えて	-10532
彼に与えた	-10533
彼に対して	-10534
彼に従った	-10535
彼らもまた	-10536
彼らを撃ち	-10537
悪をもって	-10538
意のままに	-10539
捕え移した	-10540
救い出して	-10541
散らされた	-10542
殺しなさい	-10543
滅ぼさない	-10544
火をつけて	-10545
父ダビデに	-10546
父ダビデの	-10547
王のために	-10548
百タラント	-10549
目になって	-10550
知恵がある	-10551
神をあがめ	-10552
祭司たちに	-10553
祭司である	-10554
祭壇の前に	-10555
種を入れた	-10556
罪に定める	-10557
者のうちに	-10558
者の名の数	-10559
聞きしたが	-10560
舟に乗って	-10561
舟に乗り込	-10562
若者たちに	-10563
草のように	-10564
行くことを	-10565
衣のように	-10566
衣服を洗い	-10567
身を汚した	-10568
追い出した	-10569
酒を飲んで	-10570
長老たちと	-10571
雄牛と雄羊	-10572
▁このゆえに	-10573
▁しかし主よ	-10574
▁しかし彼は	-10575
▁そこで主は	-10576
▁そのために	-10577
▁もし彼らが	-10578
▁わたしたち	-10579
▁ソロモンが	-10580
▁ソロモンの	-10581
▁レハベアム	-10582
あなたのうち	-10583
あなたの神を	-10584
おまえたちの	-10585
かわいている	-10586
ことができた	-10587
これらの者は	-10588
されたように	-10589
しばらくして	-10590
しまっている	-10591
すべての民は	-10592
すべての民を	-10593
すべての町々	-10594
すべての良い	-10595
そのうちから	-10596
そのおこない	-10597
その所の名は	-10598
それを自分の	-10599
そんなことを	-10600
つるぎに倒れ	-10601
なぜわたしを	-10602
なんであるか	-10603
のあるものは	-10604
はいってきた	-10605
はまた言った	-10606
はやく起きて	-10607
まさっている	-10608
らないように	-10609
わたしの顔を	-10610
わたしは主の	-10611
をあらわして	-10612
を取りあげて	-10613
を行っている	-10614
アブラハムが	-10615
カナンの地の	-10616
シャパンの子	-10617
パロに言った	-10618
ヒンノムの谷	-10619
ヘシボンの王	-10620
ヨザダクの子	-10621
三日のうちに	-10622
上って行った	-10623
下って行った	-10624
人々に言った	-10625
公平をもって	-10626
尋ねて言った	-10627
年は合わせて	-10628
彼と共にいた	-10629
彼に向かって	-10630
彼らはそれを	-10631
御座にいます	-10632
敵をあなたの	-10633
民にむかって	-10634
男の子を産む	-10635
立てになった	-10636
結んだ契約を	-10637
者であるから	-10638
行ったように	-10639
起きあがって	-10640
身をかがめて	-10641
隠されている	-10642
預言して言え	-10643
預言者ナタン	-10644
▁あなたがたに	-10645
▁これは彼らが	-10646
▁みんなの者は	-10647
▁わたしがもし	-10648
▁わたしはこの	-10649
▁アブサロムは	-10650
▁レハベアムは	-10651
▁主はわたしに	-10652
▁祭司はこれを	-10653
▁耳のある者は	-10654
あなたは多くの	-10655
あなたは彼らの	-10656
いつくしみを施	-10657
いつものように	-10658
いやしになった	-10659
おまえをもって	-10660
お答えください	-10661
ごらんください	-10662
しえたげる者の	-10663
しかしあなたは	-10664
してもらいたい	-10665
することができ	-10666
そうとするのか	-10667
その解き明かし	-10668
つるぎによって	-10669
つるぎに倒れる	-10670
とどまっている	-10671
なお生きている	-10672
に告げて言った	-10673
の子孫であって	-10674
めいめい自分の	-10675
ようにしなさい	-10676
よく聞きなさい	-10677
よみがえらせた	-10678
ることをしない	-10679
るようになった	-10680
わたしのおきて	-10681
わたしの前から	-10682
わたしを離れて	-10683
われわれのうち	-10684
われわれの上に	-10685
を召して言った	-10686
を呼んで言った	-10687
エジプトの地で	-10688
グダラのマリヤ	-10689
サウルとその子	-10690
バアルのために	-10691
バラクはバラム	-10692
ヘテびとウリヤ	-10693
与えられている	-10694
世々かぎりなく	-10695
主の名のために	-10696
供え物をささげ	-10697
倒れるであろう	-10698
助けてください	-10699
四十年のあいだ	-10700
彼らはわたしに	-10701
律法学者たちが	-10702
悪をおこなった	-10703
民をことごとく	-10704
生きるであろう	-10705
答えてください	-10706
者だからである	-10707
聞いてください	-10708
見られることを	-10709
追い出している	-10710
▁これらのことを	-10711
▁しかしあなたは	-10712
▁そこでサウルは	-10713
▁そこでヤコブは	-10714
▁そしてモーセは	-10715
▁それでわたしは	-10716
▁わたしはこれを	-10717
▁わたしは彼らに	-10718
▁イエスは彼らの	-10719
▁ダビデは言った	-10720
あなたの右の手は	-10721
することができる	-10722
するためであった	-10723
そのもろもろの器	-10724
と共にあるように	-10725
につながれている	-10726
によるのではなく	-10727
はその先祖と共に	-10728
らしてはならない	-10729
わたしにそむいた	-10730
わたしはどうして	-10731
をお聞きください	-10732
イエスが言われた	-10733
イスラエルとユダ	-10734
イスラエルの王に	-10735
エルサレムに来て	-10736
サムソンに言った	-10737
ネブカデネザルの	-10738
ヨシュアに言った	-10739
今日に至っている	-10740
帰らせてください	-10741
救われるであろう	-10742
者はどこにいるか	-10743
聞いておくがよい	-10744
造ってはならない	-10745
▁主をほめたたえよ	-10746
あなたがたに与える	-10747
あなたがたに命じる	-10748
あなたがたのうちの	-10749
あなたがたはそれを	-10750
あなたがたは自分の	-10751
があってはならない	-10752
させないでください	-10753
することができない	-10754
そうすればわたしは	-10755
をもしてはならない	-10756
んだことがないのか	-10757
イスラエルの人々と	-10758
エルサレムに帰った	-10759
主がモーセによって	-10760
主のしもべモーセが	-10761
先祖たちに誓われた	-10762
捨てないでください	-10763
生きながらえている	-10764
者の名の数を得たが	-10765
あなたがたと共にいる	-10766
あなたの前に恵みを得	-10767
についてこう言われる	-10768
るようになるであろう	-10769
イスラエルの王となり	-10770
先祖たちと共に眠って	-10771
出さなければならない	-10772
目をさましていなさい	-10773
祭のほかのものである	-10774
を負わなければならない	-10775
聖別しなければならない	-10776
▁するとイエスは言われた	-10777
▁そこでイエスは言われた	-10778
▁万軍の主はこう言われる	-10779
わたしを生かしてください	-10780
イスラエルのすべての人を	-10781
彼は夕まで汚れるであろう	-10782
イスラエルの人々の全会衆は	-10783
エジプトの地から導き出した	-10784
守って行わなければならない	-10785
聖会を開かなければならない	-10786
バビロンの王ネブカデレザルの	-10787
主がモーセに命じられたように	-10788
▁主の言葉がまたわたしに臨んだ	-10789
二十歳以上の者の名の数を得たが	-10790
彼らはわたしが主であることを知る	-10791
▁北	-10792
▁彼	-10793
▁野	-10794
あけ	-10795
あず	-10796
あま	-10797
い者	-10798
うじ	-10799
うず	-10800
えぐ	-10801
おど	-10802
かは	-10803
が出	-10804
き通	-10805
くみ	-10806
くわ	-10807
こぎ	-10808
さす	-10809
すき	-10810
すじ	-10811
ずれ	-10812
せつ	-10813
ちが	-10814
っし	-10815
にが	-10816
にふ	-10817
に入	-10818
に服	-10819
に通	-10820
に陣	-10821
ねず	-10822
のど	-10823
のば	-10824
の火	-10825
の皮	-10826
の石	-10827
の糸	-10828
ひず	-10829
ぶち	-10830
ぶり	-10831
ほと	-10832
まを	-10833
めは	-10834
れと	-10835
を問	-10836
アク	-10837
イブ	-10838
イヤ	-10839
ウナ	-10840
エノ	-10841
カヤ	-10842
ガラ	-10843
ケレ	-10844
ザブ	-10845
シナ	-10846
セム	-10847
タッ	-10848
ダル	-10849
ナヘ	-10850
ニコ	-10851
ネタ	-10852
ハギ	-10853
バの	-10854
ビグ	-10855
ミリ	-10856
ルと	-10857
レイ	-10858
万一	-10859
上は	-10860
下げ	-10861
下着	-10862
世が	-10863
五人	-10864
代の	-10865
伏す	-10866
位に	-10867
位は	-10868
僕を	-10869
先陣	-10870
光と	-10871
六年	-10872
切に	-10873
刈る	-10874
別に	-10875
命と	-10876
善に	-10877
地上	-10878
地所	-10879
変え	-10880
外側	-10881
大い	-10882
大水	-10883
夫と	-10884
学ぶ	-10885
実で	-10886
害し	-10887
平地	-10888
建築	-10889
復命	-10890
心な	-10891
戸口	-10892
撃て	-10893
数日	-10894
方法	-10895
木や	-10896
枝は	-10897
歳以	-10898
洗う	-10899
牧草	-10900
現に	-10901
男の	-10902
男女	-10903
真に	-10904
着せ	-10905
神聖	-10906
終日	-10907
血で	-10908
誇を	-10909
諸会	-10910
谷で	-10911
谷は	-10912
谷を	-10913
負い	-10914
身で	-10915
車に	-10916
追う	-10917
追放	-10918
門を	-10919
雄じ	-10920
雲と	-10921
魂よ	-10922
鳥が	-10923
鳥と	-10924
鳥の	-10925
▁われ	-10926
▁イザ	-10927
▁エド	-10928
▁シバ	-10929
▁ベテ	-10930
▁三十	-10931
▁使徒	-10932
▁御使	-10933
あだは	-10934
あちら	-10935
えじき	-10936
えます	-10937
おうか	-10938
おおぞ	-10939
おって	-10940
おらず	-10941
かぎり	-10942
かまを	-10943
からか	-10944
かろう	-10945
きたれ	-10946
くずれ	-10947
ここへ	-10948
ことば	-10949
この上	-10950
この後	-10951
さいで	-10952
さまよ	-10953
さめよ	-10954
されず	-10955
したか	-10956
じめた	-10957
すえた	-10958
するが	-10959
すわり	-10960
そかに	-10961
その城	-10962
その大	-10963
ぞくぞ	-10964
つぼと	-10965
とめる	-10966
と呼び	-10967
どころ	-10968
どって	-10969
なおう	-10970
などは	-10971
な者は	-10972
におお	-10973
におと	-10974
にせよ	-10975
に乗り	-10976
に出て	-10977
の上着	-10978
の周囲	-10979
の外に	-10980
の定め	-10981
の王の	-10982
はげた	-10983
はやみ	-10984
はわが	-10985
は二十	-10986
ふため	-10987
ほめる	-10988
またも	-10989
まぶた	-10990
まわる	-10991
みどり	-10992
めぐら	-10993
めたが	-10994
もある	-10995
よろめ	-10996
わって	-10997
わなに	-10998
わらを	-10999
をたず	-11000
を出た	-11001
を着け	-11002
を解き	-11003
を身に	-11004
アルキ	-11005
エダヤ	-11006
エテロ	-11007
エリは	-11008
エロハ	-11009
オルナ	-11010
カヤパ	-11011
カルミ	-11012
キサン	-11013
ケデシ	-11014
ゲベル	-11015
コルネ	-11016
シャレ	-11017
シリヤ	-11018
シロで	-11019
ストは	-11020
セテの	-11021
セブナ	-11022
タップ	-11023
デボン	-11024
ノアの	-11025
ハラレ	-11026
ビクリ	-11027
ペリク	-11028
ペルの	-11029
ホルマ	-11030
マウテ	-11031
モレク	-11032
ヤリブ	-11033
リムに	-11034
レホブ	-11035
七年に	-11036
三か月	-11037
三十二	-11038
不信の	-11039
主に従	-11040
主の声	-11041
今日の	-11042
他人に	-11043
他人を	-11044
伏した	-11045
伏せて	-11046
位から	-11047
偶像は	-11048
備えよ	-11049
備える	-11050
傷を負	-11051
働かせ	-11052
働きの	-11053
兄弟に	-11054
全地よ	-11055
公平と	-11056
内なる	-11057
分れて	-11058
初めて	-11059
十二年	-11060
喜びを	-11061
国民が	-11062
天の下	-11063
子供が	-11064
守る者	-11065
宮から	-11066
導いた	-11067
幕屋に	-11068
張った	-11069
彼の手	-11070
待って	-11071
後にも	-11072
得よう	-11073
御国の	-11074
御霊を	-11075
心して	-11076
心をこ	-11077
思いの	-11078
悩まし	-11079
悪い事	-11080
悲しい	-11081
愚かさ	-11082
慰めて	-11083
憤りと	-11084
所では	-11085
所有の	-11086
払って	-11087
拝んだ	-11088
授けた	-11089
日の夕	-11090
明らか	-11091
朝から	-11092
栄えて	-11093
様子を	-11094
歩みを	-11095
残した	-11096
民から	-11097
民衆を	-11098
滅ぼせ	-11099
無傷の	-11100
燃えて	-11101
牧者は	-11102
知れぬ	-11103
知恵に	-11104
礼拝し	-11105
福音が	-11106
穴から	-11107
立てよ	-11108
第一に	-11109
築いた	-11110
納めて	-11111
終えて	-11112
続けて	-11113
罪から	-11114
罪びと	-11115
羊と牛	-11116
者とし	-11117
聖徒の	-11118
聖霊の	-11119
聞くが	-11120
自らは	-11121
若者の	-11122
落した	-11123
見えず	-11124
見聞き	-11125
解き放	-11126
言伝え	-11127
言葉で	-11128
諸種の	-11129
足らせ	-11130
造られ	-11131
進み出	-11132
遠ざけ	-11133
部分を	-11134
閉じた	-11135
除いた	-11136
離れず	-11137
雨を降	-11138
領地を	-11139
頭には	-11140
頼んだ	-11141
食物の	-11142
香油を	-11143
▁ある日	-11144
▁ここで	-11145
▁これら	-11146
▁さきに	-11147
▁その上	-11148
▁ついに	-11149
▁ゆえに	-11150
▁アヒト	-11151
▁イサク	-11152
▁コハテ	-11153
▁最後に	-11154
▁知恵は	-11155
あかしと	-11156
あかりを	-11157
あのかた	-11158
いずれの	-11159
いだした	-11160
いのちは	-11161
いばらが	-11162
いばらと	-11163
いまして	-11164
い時から	-11165
うしろを	-11166
かたより	-11167
からきて	-11168
からだに	-11169
からとて	-11170
ききんが	-11171
くために	-11172
くなった	-11173
この世を	-11174
この女の	-11175
この女は	-11176
こわして	-11177
ご自分の	-11178
さとしを	-11179
さんびと	-11180
さんびを	-11181
しながら	-11182
しもべと	-11183
すまいは	-11184
するのを	-11185
そうして	-11186
そのとが	-11187
そののち	-11188
その女を	-11189
その心を	-11190
その戒め	-11191
その時に	-11192
その足の	-11193
その顔を	-11194
それを取	-11195
たくらむ	-11196
だちょう	-11197
ちまたで	-11198
つぶやく	-11199
ととなえ	-11200
とどめて	-11201
とどろく	-11202
とヨハネ	-11203
と呼んだ	-11204
なおその	-11205
にいたる	-11206
につばき	-11207
に与えて	-11208
に死んだ	-11209
に立って	-11210
に納めた	-11211
のあいだ	-11212
のかおり	-11213
のしるし	-11214
のはかり	-11215
のほかに	-11216
のほら穴	-11217
の下には	-11218
の御使が	-11219
の方への	-11220
の時にも	-11221
の間には	-11222
はげしく	-11223
はじめて	-11224
はすでに	-11225
ひきうす	-11226
ひとりに	-11227
ひと言も	-11228
まかれた	-11229
まったく	-11230
みながら	-11231
むさぼり	-11232
むすこの	-11233
やぎの毛	-11234
ゆりの花	-11235
ることが	-11236
ることの	-11237
れません	-11238
わが名を	-11239
わが救の	-11240
わが父よ	-11241
わされて	-11242
をうけた	-11243
をお与え	-11244
をお受け	-11245
をもうけ	-11246
を払って	-11247
を結んだ	-11248
を見せて	-11249
アドラム	-11250
アムノン	-11251
アリエル	-11252
エグロン	-11253
エポデと	-11254
エリエル	-11255
エレモテ	-11256
ガドびと	-11257
クロスの	-11258
ケルビム	-11259
サウルを	-11260
サロニケ	-11261
スコテの	-11262
スリヤの	-11263
ゼバデヤ	-11264
ナイル川	-11265
ナオミは	-11266
ハマンが	-11267
ピリポは	-11268
ミカエル	-11269
ミリアム	-11270
メラヨテ	-11271
ラダンは	-11272
リウエル	-11273
ルの月の	-11274
ルベンは	-11275
上げられ	-11276
与えない	-11277
中にある	-11278
中にいる	-11279
主とその	-11280
主に感謝	-11281
主の使は	-11282
事をする	-11283
人々にも	-11284
人よりも	-11285
信心深い	-11286
偶像礼拝	-11287
力がある	-11288
十八年に	-11289
去らせる	-11290
取りもど	-11291
受ける分	-11292
口の言葉	-11293
君たちを	-11294
命を保つ	-11295
国々から	-11296
地に落ち	-11297
境である	-11298
多くの民	-11299
奪われた	-11300
女たちも	-11301
女たちを	-11302
妻である	-11303
妻にめと	-11304
安息日の	-11305
定まった	-11306
定めに歩	-11307
家にはい	-11308
寝なさい	-11309
帰らない	-11310
引きもど	-11311
引き出す	-11312
彼に告げ	-11313
彼らの中	-11314
待ち望め	-11315
御使たち	-11316
思われた	-11317
憎む者を	-11318
所にきた	-11319
手に渡し	-11320
打ち場に	-11321
撃たれる	-11322
新しい酒	-11323
来るとき	-11324
来る者は	-11325
正しいと	-11326
死なせた	-11327
死なない	-11328
母マリヤ	-11329
求めます	-11330
油をそそ	-11331
清くなる	-11332
火ざらを	-11333
火を送り	-11334
父である	-11335
父または	-11336
物を食べ	-11337
王および	-11338
王たちと	-11339
王である	-11340
王とした	-11341
王とその	-11342
王の所へ	-11343
町の中に	-11344
神に感謝	-11345
神は彼を	-11346
祭壇の角	-11347
空の鳥と	-11348
罰しない	-11349
者の心は	-11350
者もない	-11351
者よりも	-11352
聖別する	-11353
聞いた時	-11354
自分自身	-11355
良い事を	-11356
苦しみの	-11357
苦しみは	-11358
荒野の方	-11359
血を取り	-11360
行います	-11361
衣を着て	-11362
見張りを	-11363
言うべき	-11364
誓わせた	-11365
語る者は	-11366
諸教会に	-11367
負わせた	-11368
送られた	-11369
酒ぶねを	-11370
酒を飲む	-11371
門を守る	-11372
預言せよ	-11373
食べ物を	-11374
香の祭壇	-11375
馬と戦車	-11376
▁その上に	-11377
▁その境は	-11378
▁その次に	-11379
▁それでは	-11380
▁それで今	-11381
▁ちょうど	-11382
▁アブラム	-11383
▁イエスの	-11384
▁ギレアデ	-11385
▁ヨナタン	-11386
▁ラバンは	-11387
▁王はその	-11388
あなたの大	-11389
あなたの手	-11390
あなたを見	-11391
あめんどう	-11392
あわれみと	-11393
いになった	-11394
おこなって	-11395
からはいる	-11396
から進んで	-11397
があるのか	-11398
ここに住む	-11399
このかたは	-11400
この律法の	-11401
これらは皆	-11402
ございます	-11403
さしつかえ	-11404
しかし主は	-11405
しっかりと	-11406
してあった	-11407
しています	-11408
すばらしい	-11409
その悪しき	-11410
その犯した	-11411
その町々は	-11412
その長さは	-11413
それを打ち	-11414
ぞくぞくと	-11415
たくわえた	-11416
たってから	-11417
だきたいと	-11418
つかさどる	-11419
であられる	-11420
としたので	-11421
としていた	-11422
となるべき	-11423
とのための	-11424
と尋ねると	-11425
と言います	-11426
なかったが	-11427
にあいさつ	-11428
にあります	-11429
にはいると	-11430
にまで及ぶ	-11431
によらない	-11432
に至らせる	-11433
のある者を	-11434
のでもない	-11435
のを聞いて	-11436
の子たちを	-11437
ばかりです	-11438
ひとりの人	-11439
ふたりとも	-11440
へ行ったが	-11441
ほかの人に	-11442
また彼らを	-11443
もうとする	-11444
もとの所に	-11445
もなかった	-11446
ものはなく	-11447
る者はみな	-11448
わざをなし	-11449
わたしの神	-11450
をささげる	-11451
をしていた	-11452
をその上に	-11453
を守ります	-11454
を生んで後	-11455
を見られた	-11456
アヒマアズ	-11457
アビエゼル	-11458
アビガイル	-11459
アミナダブ	-11460
エジプトと	-11461
エリサベツ	-11462
エリシャの	-11463
エレミヤを	-11464
コルネリオ	-11465
サンバラテ	-11466
シナイ山で	-11467
ナフタリの	-11468
バビロンへ	-11469
バルナバと	-11470
マナセの子	-11471
ヨシュアに	-11472
下って行き	-11473
主に帰せよ	-11474
主はそれを	-11475
主を捨てて	-11476
五十シケル	-11477
人に対して	-11478
人はこれを	-11479
今わたしは	-11480
位に座する	-11481
出て行くと	-11482
切り倒して	-11483
合っていた	-11484
告げ知らせ	-11485
呼び求める	-11486
命によって	-11487
喜びなさい	-11488
声をあげよ	-11489
多くの者は	-11490
夜もすがら	-11491
契約を結ぶ	-11492
定めの時に	-11493
家のために	-11494
座している	-11495
弟子たちも	-11496
強くなった	-11497
彼に臨んだ	-11498
彼はそれを	-11499
彼らよりも	-11500
従者たちは	-11501
愛せられる	-11502
戦いをいど	-11503
手に取って	-11504
手に渡した	-11505
指をもって	-11506
捨てられて	-11507
携えて来た	-11508
救われます	-11509
散らされる	-11510
月すなわち	-11511
望みをいだ	-11512
歌をもって	-11513
歩いている	-11514
死んだ者の	-11515
永遠の生命	-11516
治められる	-11517
滅ぼす者が	-11518
火の燃える	-11519
牛のように	-11520
真実である	-11521
知らせよう	-11522
知恵のある	-11523
知恵のない	-11524
石のように	-11525
祈っている	-11526
神に栄光を	-11527
神のために	-11528
祭の犠牲の	-11529
祭司として	-11530
穴に下る者	-11531
立ち上がり	-11532
立ち向かう	-11533
置きなさい	-11534
羊の毛を切	-11535
義によって	-11536
者があった	-11537
者はこれを	-11538
者はそれを	-11539
聖別された	-11540
聖霊に満た	-11541
自分たちに	-11542
行うことを	-11543
言うだろう	-11544
設けられた	-11545
起きなさい	-11546
身を清めて	-11547
連れて行く	-11548
部族ごとに	-11549
長いあいだ	-11550
雨を降らせ	-11551
雲のように	-11552
風を捕える	-11553
食事をした	-11554
食事をする	-11555
▁こう言って	-11556
▁そして主は	-11557
▁それだのに	-11558
▁それゆえ今	-11559
▁また彼らの	-11560
▁アブネルは	-11561
▁ダニエルは	-11562
▁主なる神よ	-11563
▁正しい人は	-11564
▁貧しい者を	-11565
あかしの幕屋	-11566
あがなわれる	-11567
あなたこそは	-11568
あなたと取引	-11569
あなたの心を	-11570
あなたの民と	-11571
あなたの顔を	-11572
あなたは何を	-11573
あわてふため	-11574
いらせられる	-11575
おまえたちが	-11576
おまえたちに	-11577
からではなく	-11578
から出て行け	-11579
か月のあいだ	-11580
こさせなさい	-11581
ことになった	-11582
ことになろう	-11583
こともしない	-11584
ことを知って	-11585
ささげられる	-11586
しましょうか	-11587
そうでないと	-11588
その中に住む	-11589
その憎むべき	-11590
それを取って	-11591
たちと一緒に	-11592
つかさたちに	-11593
ところのない	-11594
と戦うために	-11595
には及ばない	-11596
のうちからは	-11597
の子孫は六百	-11598
の方へのびる	-11599
はいってきて	-11600
はとのように	-11601
ばかりでなく	-11602
ひとりの女が	-11603
ほめたたえた	-11604
またあなたが	-11605
みてください	-11606
もろもろの君	-11607
もろもろの木	-11608
も五キュビト	-11609
ろばにくらを	-11610
わたしの手を	-11611
わたしの道を	-11612
わたしを救い	-11613
を出しなさい	-11614
を受け取って	-11615
を焼き滅ぼす	-11616
アマレクびと	-11617
イエスを捕え	-11618
イッサカルの	-11619
エズレルびと	-11620
エレアザルは	-11621
カナンびとの	-11622
カナンびとを	-11623
ハダデゼルの	-11624
パダンアラム	-11625
パリサイ人と	-11626
パリサイ人の	-11627
モルデカイが	-11628
モーセはその	-11629
ヤラベアムが	-11630
ユダの人々と	-11631
レバノンから	-11632
一日のうちに	-11633
一緒になって	-11634
主が言われる	-11635
今日のように	-11636
力をつくして	-11637
労苦によって	-11638
命じておいた	-11639
問うて言った	-11640
喜びと楽しみ	-11641
声を出される	-11642
契約を結んで	-11643
妻にめとった	-11644
家にはいった	-11645
川のほとりで	-11646
彼らについて	-11647
愚かなことを	-11648
所にはいって	-11649
救い出された	-11650
権威によって	-11651
殺された者の	-11652
火で焼かれる	-11653
真実をもって	-11654
神がわたしを	-11655
祭司長たちや	-11656
祭壇のもとに	-11657
自分と一緒に	-11658
自分を愛する	-11659
苦しみを受け	-11660
荒れ地となる	-11661
行きましょう	-11662
裂き殺された	-11663
見えるように	-11664
言葉のように	-11665
誓って言った	-11666
誓願の供え物	-11667
追いやられる	-11668
預言者たちが	-11669
願って言った	-11670
驚いて言った	-11671
▁あなたがたも	-11672
▁そして言った	-11673
▁またあなたの	-11674
▁またアカシヤ	-11675
▁わたしはその	-11676
▁われわれの神	-11677
▁エルサレムの	-11678
▁エルサレムよ	-11679
あなたがそれを	-11680
あなたがたの間	-11681
あなたのおきて	-11682
いたしましょう	-11683
およびその兄弟	-11684
から帰ってきた	-11685
があるであろう	-11686
ことについては	-11687
このもろもろの	-11688
これはあなたが	-11689
これはわたしが	-11690
すべてあなたの	-11691
すべての肉なる	-11692
すべての言葉を	-11693
するからである	-11694
そのようにした	-11695
ためであります	-11696
つかわしたので	-11697
であなたがたを	-11698
ところへ行った	-11699
とどまっていた	-11700
となるのである	-11701
と言われている	-11702
どこにあるのか	-11703
に向かっていた	-11704
に投げ込まれた	-11705
のひとりである	-11706
のもとに帰って	-11707
の供え物として	-11708
は答えて言った	-11709
べきでしょうか	-11710
られたからです	-11711
わずらっている	-11712
わたしが与える	-11713
わたしが彼らの	-11714
わたしに仕える	-11715
わたしのような	-11716
わたしの言葉は	-11717
わたしはユダの	-11718
アマレクびとを	-11719
イスカリオテの	-11720
イスラエルには	-11721
エジプト全国に	-11722
キリストである	-11723
キリストにある	-11724
シャルテルの子	-11725
バビロンの王が	-11726
ベルテシャザル	-11727
ミデアンびとを	-11728
ヤコブに産んだ	-11729
ヤコブに言った	-11730
ヨシュアはその	-11731
一つもなかった	-11732
与えて食べさせ	-11733
主は恵みふかく	-11734
仕えるであろう	-11735
出てはならない	-11736
去ってください	-11737
寄留の他国人と	-11738
帰ってきたとき	-11739
強い手をもって	-11740
彼らのところに	-11741
待ち望んでいる	-11742
心をかたくなに	-11743
悪霊につかれた	-11744
手から救い出し	-11745
神の国にはいる	-11746
自分のからだを	-11747
良いと思われる	-11748
言ってください	-11749
預言者のともが	-11750
▁あなたは自分の	-11751
▁これらの事の後	-11752
▁そこでヨセフは	-11753
▁わが愛する者よ	-11754
▁わたしは彼らの	-11755
あなたがたの子供	-11756
あなたがたはこの	-11757
あなたがたは主の	-11758
あなたの大いなる	-11759
あなたの手にわた	-11760
ことをことごとく	-11761
ことをしなかった	-11762
これをことごとく	-11763
そして彼は死んだ	-11764
そのとおりである	-11765
のかたわらにある	-11766
はずかしめを受け	-11767
ものであることを	-11768
ることはできない	-11769
わたしがあなたの	-11770
わたしたちの先祖	-11771
わたしたちはその	-11772
わたしに賜わった	-11773
アッスリヤの王は	-11774
イスラエルの王と	-11775
イスラエルびとが	-11776
エジプトから導き	-11777
エジプトの王パロ	-11778
主があなたがたに	-11779
声をあげて泣いた	-11780
家来たちに言った	-11781
手から救い出した	-11782
殺してはならない	-11783
滅ぼしてください	-11784
知っているように	-11785
約束されたことを	-11786
▁そこでヨシュアは	-11787
▁またあなたがたは	-11788
あなたがたについて	-11789
あなたがたに与えた	-11790
あなたの名によって	-11791
がなければならない	-11792
ことごとく滅ぼした	-11793
これは火祭であって	-11794
すべての民に言った	-11795
の長ネブザラダンは	-11796
はいってはならない	-11797
わが民イスラエルの	-11798
エホヤダの子ベナヤ	-11799
バプテスマのヨハネ	-11800
前から追い払われた	-11801
父なる神と主イエス	-11802
立っているのを見た	-11803
▁これはあなたがたが	-11804
▁しかしあなたがたは	-11805
▁わたしの兄弟たちよ	-11806
▁アブラハムは言った	-11807
▁彼はわたしに言った	-11808
あがないをするならば	-11809
あなたがたの先祖の神	-11810
あなたがたはわたしが	-11811
いなかったからである	-11812
および彼と共にある男	-11813
その部隊にしたがって	-11814
どうしてあなたがたは	-11815
にいるダビデのもとに	-11816
わたしの聖なることを	-11817
わなかったからである	-11818
動かされることはない	-11819
彼に代って王となった	-11820
捨てなければならない	-11821
渡さなければならない	-11822
進まなければならない	-11823
▁あなたがたはわたしの	-11824
これに代って王となった	-11825
はその先祖と共に眠って	-11826
ものでなければならない	-11827
万軍の主はこう言われる	-11828
主からエレミヤに臨んだ	-11829
代々ながく守るべき定め	-11830
▁あなたがたに言っておく	-11831
その父祖の家にしたがって	-11832
イスラエルの人々のうちの	-11833
イスラエルの人々のために	-11834
万軍の主はこう仰せられる	-11835
除き去らなければならない	-11836
これを行わなければならない	-11837
わたしをおつかわしになった	-11838
イスラエルの人々のうちから	-11839
主の言葉がエレミヤに臨んだ	-11840
あなたがたはわたしが主である	-11841
▁よくよくあなたがたに言っておく	-11842
▁五	-11843
▁四	-11844
▁山	-11845
▁思	-11846
▁牛	-11847
▁男	-11848
▁神	-11849
あき	-11850
あつ	-11851
いけ	-11852
うに	-11853
うら	-11854
えで	-11855
がけ	-11856
がれ	-11857
き酒	-11858
くも	-11859
こぞ	-11860
さだ	-11861
さび	-11862
しだ	-11863
し入	-11864
し通	-11865
ずる	-11866
せき	-11867
そで	-11868
そろ	-11869
たお	-11870
たぐ	-11871
たて	-11872
たぶ	-11873
つが	-11874
で戦	-11875
とで	-11876
と油	-11877
なぐ	-11878
に渡	-11879
の光	-11880
の書	-11881
の羊	-11882
の香	-11883
は八	-11884
は北	-11885
びき	-11886
ぶよ	-11887
ほえ	-11888
ほお	-11889
ほね	-11890
まが	-11891
みく	-11892
むか	-11893
むく	-11894
めず	-11895
もべ	-11896
も皆	-11897
やる	-11898
よせ	-11899
りん	-11900
るべ	-11901
んに	-11902
ウシ	-11903
ウル	-11904
ガの	-11905
ガマ	-11906
ギル	-11907
クの	-11908
ケニ	-11909
ケパ	-11910
ケモ	-11911
ザイ	-11912
シッ	-11913
シブ	-11914
ジル	-11915
セバ	-11916
ソコ	-11917
タナ	-11918
デモ	-11919
ナア	-11920
ブッ	-11921
ボア	-11922
マク	-11923
ミグ	-11924
ミス	-11925
メシ	-11926
メホ	-11927
ヤル	-11928
ラと	-11929
リカ	-11930
ルズ	-11931
一体	-11932
万国	-11933
万歳	-11934
世話	-11935
両手	-11936
主も	-11937
乗せ	-11938
今も	-11939
今度	-11940
使を	-11941
光り	-11942
六つ	-11943
六万	-11944
切る	-11945
助産	-11946
務の	-11947
北側	-11948
十万	-11949
半分	-11950
土に	-11951
声で	-11952
夜中	-11953
天で	-11954
安置	-11955
宮内	-11956
家令	-11957
富む	-11958
尊び	-11959
小舟	-11960
広間	-11961
建物	-11962
当な	-11963
当り	-11964
待て	-11965
息が	-11966
感動	-11967
所領	-11968
打物	-11969
払う	-11970
敵と	-11971
日も	-11972
時間	-11973
朝の	-11974
束を	-11975
次ぐ	-11976
死は	-11977
残り	-11978
深き	-11979
無理	-11980
王座	-11981
理役	-11982
生じ	-11983
生み	-11984
産物	-11985
病に	-11986
病み	-11987
百人	-11988
百十	-11989
真心	-11990
着き	-11991
移り	-11992
空を	-11993
第六	-11994
箱の	-11995
糸の	-11996
続き	-11997
義に	-11998
耳が	-11999
聞か	-12000
肉親	-12001
自は	-12002
花は	-12003
葉は	-12004
行を	-12005
車の	-12006
近よ	-12007
逆ら	-12008
配を	-12009
重さ	-12010
降る	-12011
頭は	-12012
高官	-12013
鳥を	-12014
▁たと	-12015
▁ろば	-12016
▁シャ	-12017
▁夕方	-12018
▁律法	-12019
▁正義	-12020
▁水は	-12021
▁王が	-12022
▁第十	-12023
▁若い	-12024
▁言え	-12025
」』。	-12026
あえて	-12027
あしを	-12028
うまい	-12029
おれば	-12030
かいせ	-12031
かがみ	-12032
からぬ	-12033
がいる	-12034
がれて	-12035
が生れ	-12036
きつね	-12037
きのう	-12038
くずし	-12039
くない	-12040
この地	-12041
この民	-12042
させず	-12043
さます	-12044
さらし	-12045
さわり	-12046
ざんげ	-12047
しかの	-12048
しんだ	-12049
せいに	-12050
せつに	-12051
そこの	-12052
その他	-12053
その口	-12054
その名	-12055
その女	-12056
その顔	-12057
たいと	-12058
たぶと	-12059
ためだ	-12060
ためら	-12061
だけは	-12062
ちない	-12063
ち果て	-12064
つえは	-12065
どった	-12066
なさる	-12067
などに	-12068
なわけ	-12069
なんで	-12070
な者に	-12071
にあが	-12072
におく	-12073
に立ち	-12074
に近づ	-12075
のとび	-12076
の事を	-12077
の口に	-12078
の家族	-12079
の庭に	-12080
の戦車	-12081
の数は	-12082
の方で	-12083
の王に	-12084
の者に	-12085
ひいて	-12086
ふえよ	-12087
まちが	-12088
まつれ	-12089
まどろ	-12090
みなぎ	-12091
みよう	-12092
み顔の	-12093
めると	-12094
もとを	-12095
やんだ	-12096
ろばを	-12097
をあけ	-12098
をおさ	-12099
をこぼ	-12100
をこわ	-12101
をつづ	-12102
をひく	-12103
をみな	-12104
を去り	-12105
を地に	-12106
を殺し	-12107
を生じ	-12108
を解散	-12109
アカヤ	-12110
アクサ	-12111
アック	-12112
アポロ	-12113
エシタ	-12114
エベル	-12115
エルと	-12116
エルの	-12117
オフラ	-12118
カフト	-12119
キシは	-12120
ケバル	-12121
ゲシュ	-12122
コリン	-12123
シびと	-12124
セパル	-12125
タボル	-12126
テトス	-12127
テマン	-12128
デダン	-12129
デボラ	-12130
ナバル	-12131
ハガル	-12132
パロが	-12133
ヘベル	-12134
ヘペル	-12135
ペレグ	-12136
マナを	-12137
ムエル	-12138
ヤハテ	-12139
ラテの	-12140
ロトは	-12141
七月の	-12142
三度も	-12143
不利な	-12144
中風の	-12145
乳のみ	-12146
乳五十	-12147
二十一	-12148
人々で	-12149
人との	-12150
人とは	-12151
伏せた	-12152
位につ	-12153
何を見	-12154
何一つ	-12155
保って	-12156
信ぜず	-12157
倒れ伏	-12158
偶像と	-12159
偽りと	-12160
傷つけ	-12161
全地方	-12162
六十人	-12163
助けを	-12164
勝ち誇	-12165
勝って	-12166
十の角	-12167
十四頭	-12168
取りの	-12169
右の耳	-12170
同一の	-12171
向いて	-12172
問した	-12173
喜びは	-12174
嘆きの	-12175
国民と	-12176
土の器	-12177
地の獣	-12178
報いた	-12179
場所は	-12180
声高く	-12181
大水の	-12182
天幕は	-12183
好意を	-12184
威光の	-12185
子をも	-12186
定まり	-12187
家には	-12188
家畜は	-12189
小羊の	-12190
少女は	-12191
川を渡	-12192
工人の	-12193
幕屋と	-12194
広場で	-12195
当てて	-12196
従わず	-12197
御座の	-12198
怒らせ	-12199
思わず	-12200
恐れと	-12201
恥じて	-12202
悟った	-12203
悪人に	-12204
悪人は	-12205
意見を	-12206
愚かで	-12207
憎まれ	-12208
憤りは	-12209
教えよ	-12210
教会に	-12211
断たれ	-12212
断った	-12213
断食と	-12214
新たに	-12215
施した	-12216
時でも	-12217
来れば	-12218
栄えを	-12219
栄光に	-12220
次々に	-12221
歩みは	-12222
歳以上	-12223
死から	-12224
求めず	-12225
満ちる	-12226
滅びに	-12227
滅びを	-12228
父から	-12229
生かす	-12230
町の内	-12231
目方を	-12232
相手の	-12233
真理の	-12234
眠った	-12235
知られ	-12236
石投げ	-12237
祭とは	-12238
移した	-12239
終の行	-12240
終りが	-12241
終ると	-12242
罪を得	-12243
置かれ	-12244
者との	-12245
聞く耳	-12246
若者は	-12247
荒した	-12248
落し穴	-12249
行くな	-12250
行な者	-12251
見たが	-12252
言葉も	-12253
買った	-12254
起させ	-12255
越える	-12256
身を隠	-12257
込んだ	-12258
迎える	-12259
連なり	-12260
道には	-12261
道を歩	-12262
銀の器	-12263
長子を	-12264
門から	-12265
隣人に	-12266
集まる	-12267
非常な	-12268
飲んで	-12269
▁アハブ	-12270
▁エホデ	-12271
▁ダンの	-12272
▁ハダデ	-12273
▁ミカヤ	-12274
▁立って	-12275
▁第一の	-12276
あがって	-12277
いけない	-12278
いたとき	-12279
いでいる	-12280
いなごの	-12281
うしろの	-12282
えながら	-12283
おののく	-12284
おののけ	-12285
おもてに	-12286
お怒りに	-12287
かいせん	-12288
かしらに	-12289
かなえて	-12290
かになる	-12291
から手で	-12292
がそこに	-12293
がゆえに	-12294
が自分の	-12295
きらめく	-12296
きるほど	-12297
くなって	-12298
けて逃げ	-12299
げられる	-12300
こぞって	-12301
この世に	-12302
この事の	-12303
この宮の	-12304
これまで	-12305
これ以上	-12306
こわした	-12307
ご自分に	-12308
さばかれ	-12309
しいこと	-12310
したとき	-12311
していて	-12312
してきた	-12313
しみなく	-12314
しようか	-12315
しるした	-12316
するとき	-12317
そのさお	-12318
そのとび	-12319
その上で	-12320
その主君	-12321
その口に	-12322
その家は	-12323
その座も	-12324
その後に	-12325
その手の	-12326
その数は	-12327
その日を	-12328
その水は	-12329
その者を	-12330
そむけて	-12331
それには	-12332
それ以上	-12333
たがいに	-12334
たちとに	-12335
たちには	-12336
って来る	-12337
って行く	-12338
って言う	-12339
つかまえ	-12340
でさえも	-12341
とききん	-12342
ときには	-12343
ときの声	-12344
としたら	-12345
とその妻	-12346
と叫んだ	-12347
どこでも	-12348
なんと言	-12349
な子らを	-12350
にいたが	-12351
においた	-12352
にかなう	-12353
にがよも	-12354
にのぼり	-12355
に与える	-12356
に当って	-12357
ねたみの	-12358
のだろう	-12359
のなかに	-12360
ののしる	-12361
のろいと	-12362
の上から	-12363
の中を歩	-12364
の人々の	-12365
の娘たち	-12366
の子ども	-12367
の町々と	-12368
の門から	-12369
はいり込	-12370
はたして	-12371
ひずめが	-12372
ひたすら	-12373
ふたりに	-12374
ほまれと	-12375
まさった	-12376
ますから	-12377
またわが	-12378
もしこの	-12379
ものには	-12380
やもめの	-12381
よかった	-12382
よかろう	-12383
よろいを	-12384
よろずよ	-12385
わが前に	-12386
わが助け	-12387
わずかに	-12388
われない	-12389
をあげた	-12390
をお授け	-12391
をすえた	-12392
をつける	-12393
をもとの	-12394
を作った	-12395
を出して	-12396
を切った	-12397
を変えて	-12398
を彼らの	-12399
を治めた	-12400
を結んで	-12401
アズリカ	-12402
イエスよ	-12403
イッタイ	-12404
エコニヤ	-12405
エサウの	-12406
エズラは	-12407
エデレイ	-12408
オリブの	-12409
ガイルは	-12410
ガテびと	-12411
キリキヤ	-12412
ケニびと	-12413
コリント	-12414
シオンは	-12415
シオンを	-12416
シカニヤ	-12417
シケムに	-12418
セレビヤ	-12419
ダゴンの	-12420
ダンから	-12421
ナタンの	-12422
ナボテの	-12423
ネヘミヤ	-12424
バルクは	-12425
バルネア	-12426
パン種を	-12427
ピスガの	-12428
ペオルの	-12429
マッケダ	-12430
マナセが	-12431
マレシャ	-12432
ミクマシ	-12433
ミヅパで	-12434
ヤリムの	-12435
ヨハネを	-12436
一千二百	-12437
三つの門	-12438
三年の間	-12439
下された	-12440
下にある	-12441
不信心な	-12442
不思議な	-12443
与えたが	-12444
主に火祭	-12445
主の怒り	-12446
主の箱を	-12447
主はこの	-12448
事がある	-12449
事どもを	-12450
事を見て	-12451
人および	-12452
人として	-12453
人の長老	-12454
人もない	-12455
人を殺し	-12456
仕えたが	-12457
以前から	-12458
以前には	-12459
供え物の	-12460
信じます	-12461
僕たちを	-12462
先祖の神	-12463
全会衆は	-12464
共にいた	-12465
切りばさ	-12466
力があり	-12467
力づけた	-12468
勇ましい	-12469
務につき	-12470
務をする	-12471
務をなす	-12472
十分の三	-12473
口づけし	-12474
叫んだり	-12475
右の手の	-12476
呼ばれた	-12477
呼び寄せ	-12478
国々の民	-12479
城壁を築	-12480
境にある	-12481
多くの子	-12482
多ければ	-12483
夜も昼も	-12484
夜を過ご	-12485
大祭司が	-12486
天と地と	-12487
天と地を	-12488
女である	-12489
好まない	-12490
子のない	-12491
少しでも	-12492
引きあげ	-12493
弱い者を	-12494
彼に仕え	-12495
彼よりも	-12496
思い出し	-12497
恐れない	-12498
恐ろしく	-12499
悟りを得	-12500
悪霊につ	-12501
愛される	-12502
所となる	-12503
手に取り	-12504
打たれて	-12505
捕えられ	-12506
携え入れ	-12507
救い出す	-12508
断食して	-12509
方がよい	-12510
日の出る	-12511
時がきた	-12512
時が来る	-12513
木の下で	-12514
来たので	-12515
来なさい	-12516
枝を切り	-12517
栄光ある	-12518
死に当る	-12519
死ぬまで	-12520
死ぬ前に	-12521
死人の復	-12522
殺さない	-12523
氏族では	-12524
求めない	-12525
注意して	-12526
火が出て	-12527
災を下す	-12528
焼かれる	-12529
物を取り	-12530
王の家来	-12531
町を出て	-12532
目に見る	-12533
目をくら	-12534
石がきは	-12535
石を投げ	-12536
砕かれた	-12537
礼拝した	-12538
神の名を	-12539
神の国を	-12540
神をあが	-12541
祭壇から	-12542
移される	-12543
穴に投げ	-12544
罪である	-12545
置かれる	-12546
者が多く	-12547
者になる	-12548
者のない	-12549
者の前に	-12550
聖所の務	-12551
聞いても	-12552
苦しみに	-12553
苦しめた	-12554
行かせた	-12555
行かせる	-12556
行きめぐ	-12557
諸国民は	-12558
足の下に	-12559
追われて	-12560
送ったが	-12561
遠く離れ	-12562
間もなく	-12563
離れない	-12564
預言者と	-12565
高き所と	-12566
▁あざける	-12567
▁この事が	-12568
▁そこには	-12569
▁その所で	-12570
▁その日は	-12571
▁それでも	-12572
▁たしかに	-12573
▁たとえば	-12574
▁わが民の	-12575
▁サウルの	-12576
▁ボアズは	-12577
▁モアブの	-12578
▁ヨアシは	-12579
▁七日目に	-12580
▁人がもし	-12581
▁大いなる	-12582
▁流出ある	-12583
あがないの	-12584
あなたの敵	-12585
あなたの首	-12586
あらわれる	-12587
あり得ない	-12588
ある人々が	-12589
いざなって	-12590
いと聖なる	-12591
おおわれた	-12592
おのおのに	-12593
おまえたち	-12594
および祭司	-12595
おられると	-12596
かたくなな	-12597
からおりて	-12598
から取って	-12599
きたらせる	-12600
けがれた霊	-12601
けるように	-12602
ことに心を	-12603
これに仕え	-12604
させたので	-12605
させるなら	-12606
されること	-12607
してくれる	-12608
することに	-12609
そのほかに	-12610
そのみ前に	-12611
そのみ名を	-12612
その場所に	-12613
その契約を	-12614
その死体を	-12615
その町々と	-12616
ただわたし	-12617
たちの前で	-12618
たちの前に	-12619
ったように	-12620
って行った	-12621
というのか	-12622
というので	-12623
といわれる	-12624
とその中に	-12625
とに従って	-12626
ともしびを	-12627
とわたしに	-12628
と思います	-12629
と言う者は	-12630
どうかして	-12631
なるように	-12632
なんですか	-12633
にあまねく	-12634
にいる者は	-12635
につかわす	-12636
につるぎが	-12637
になすべき	-12638
になっても	-12639
にはいる時	-12640
によっても	-12641
に対しても	-12642
に誓われた	-12643
に足りない	-12644
のあるもの	-12645
のとおりに	-12646
のはだれか	-12647
のひとりを	-12648
のほかには	-12649
のほとりで	-12650
の中にあり	-12651
はしための	-12652
はずである	-12653
はその中に	-12654
ばなかった	-12655
またユダの	-12656
みによって	-12657
もしそれが	-12658
ゆるされる	-12659
よいのだが	-12660
られたのだ	-12661
りのように	-12662
わざを行う	-12663
わたしの妻	-12664
わたしの心	-12665
わたしの骨	-12666
わたしをも	-12667
われらの神	-12668
をあざけり	-12669
をあわれみ	-12670
をおおった	-12671
をおおって	-12672
をもうけた	-12673
を取り除き	-12674
を持たない	-12675
を生んだ後	-12676
を行う者は	-12677
を見たとき	-12678
を見つけた	-12679
を見ている	-12680
アグリッパ	-12681
アザリヤは	-12682
アルノンの	-12683
アレキサン	-12684
エステルが	-12685
エホヤダは	-12686
カイザルの	-12687
カナンの地	-12688
カルデヤの	-12689
ギデオンが	-12690
ケルビムを	-12691
サムソンの	-12692
サムソンを	-12693
ザドクの子	-12694
シドンびと	-12695
ゼデキヤの	-12696
ダビデの町	-12697
ダリヨスの	-12698
テサロニケ	-12699
ヒゼキヤが	-12700
ピネハスは	-12701
ヘテびとの	-12702
ベテホロン	-12703
ユダヤ人と	-12704
リンモンの	-12705
レビの部族	-12706
一ヒンの四	-12707
三つのとが	-12708
中にあって	-12709
主君の家来	-12710
二十五歳で	-12711
使徒たちに	-12712
偽りのない	-12713
働いている	-12714
六キュビト	-12715
再びこれを	-12716
分け与える	-12717
加えられた	-12718
助けられる	-12719
動かされる	-12720
及びません	-12721
受くべき分	-12722
君たる者の	-12723
呼びなさい	-12724
嗣業を与え	-12725
囲んでいた	-12726
国々の民の	-12727
城壁を築き	-12728
声があった	-12729
多くの人の	-12730
大いなる神	-12731
子を産んで	-12732
子供たちの	-12733
守りなさい	-12734
害を加える	-12735
宿営の外で	-12736
尋ね求める	-12737
川の向こう	-12738
引いてきて	-12739
彼は答えた	-12740
彼らはまた	-12741
彼らは言う	-12742
彼を殺した	-12743
彼を殺そう	-12744
彼女たちは	-12745
待ち望んだ	-12746
得られない	-12747
御使たちを	-12748
心にとめよ	-12749
恐れさせる	-12750
悩んでいる	-12751
悪しき者が	-12752
悪を行って	-12753
手に渡して	-12754
捨てなさい	-12755
教えられる	-12756
日のように	-12757
書きしるし	-12758
望んでいる	-12759
来ることを	-12760
次のものは	-12761
正しい人の	-12762
歩むならば	-12763
死ぬ日まで	-12764
殺すために	-12765
泣きながら	-12766
消えうせる	-12767
燃えている	-12768
王がよしと	-12769
生ける神の	-12770
病をもって	-12771
皆あなたの	-12772
皮で作った	-12773
目を上げて	-12774
目を開いて	-12775
石をころが	-12776
石をもって	-12777
祈りなさい	-12778
祈るならば	-12779
神は彼らの	-12780
神をさんび	-12781
罪をゆるす	-12782
者の手から	-12783
耳を傾けず	-12784
聖徒たちに	-12785
聞いていた	-12786
聞きいれて	-12787
自分の兄弟	-12788
自分の妻を	-12789
自分の手で	-12790
荒れすたれ	-12791
血によって	-12792
覚えられる	-12793
証人である	-12794
誓った地に	-12795
買いもどす	-12796
返しなさい	-12797
追いやった	-12798
連ね合わせ	-12799
連れ出して	-12800
過ぎ去った	-12801
部族の部隊	-12802
金銀および	-12803
閉ざされて	-12804
雲に乗って	-12805
風のように	-12806
食い飲みし	-12807
食事を共に	-12808
馬に乗って	-12809
▁これらは皆	-12810
▁エジプトの	-12811
▁エステルは	-12812
▁エレミヤは	-12813
▁ゼルヤの子	-12814
▁レビびとの	-12815
▁主は彼らの	-12816
▁彼らはみな	-12817
▁愚かな者の	-12818
▁愚かな者は	-12819
あすの今ごろ	-12820
あなたがその	-12821
あなたの定め	-12822
あなたはまた	-12823
あなたを憎む	-12824
あなたを捨て	-12825
おられますか	-12826
かすめられる	-12827
からといって	-12828
がないために	-12829
くじを引いて	-12830
くびきを重く	-12831
ことがわかる	-12832
ことであって	-12833
ことのために	-12834
さばきを受け	-12835
して下さった	-12836
しもべである	-12837
すなわち彼が	-12838
すべての所で	-12839
するすべての	-12840
するでしょう	-12841
そうであった	-12842
そこで彼らは	-12843
そこを去って	-12844
その中にある	-12845
それを聞いた	-12846
たきぎの上に	-12847
たちに対して	-12848
だれであるか	-12849
つかさどった	-12850
であるように	-12851
で満ちている	-12852
となっていた	-12853
と言ったのは	-12854
どなたですか	-12855
ないようにと	-12856
にある教会の	-12857
になりなさい	-12858
に満ちている	-12859
のうちの最も	-12860
のを見ました	-12861
の前に立って	-12862
の子であって	-12863
の子ベナヤは	-12864
の子孫は三百	-12865
の長老たちは	-12866
は彼に言った	-12867
ひとりの人を	-12868
ひとり残らず	-12869
びとのように	-12870
ほめたたえよ	-12871
またわたしは	-12872
まれなかった	-12873
み名のために	-12874
むなしくなり	-12875
めたのである	-12876
めるであろう	-12877
ようなことを	-12878
よりも大きく	-12879
わたしと語る	-12880
わたしに報い	-12881
わたしのこの	-12882
わたしの叫び	-12883
わたしの心が	-12884
わたしの心を	-12885
わたしの民は	-12886
わたしの足を	-12887
わたしの魂は	-12888
わたしはなお	-12889
わたしを攻め	-12890
アブサロムに	-12891
アミホデの子	-12892
エブスびとを	-12893
サウルとその	-12894
サウルはその	-12895
スリヤびとを	-12896
ヘブルびとの	-12897
モルデカイに	-12898
レハベアムは	-12899
レマリヤの子	-12900
世の初めから	-12901
主があなたの	-12902
主が言われた	-12903
主が賜わった	-12904
主に寄り頼む	-12905
主のすべての	-12906
供えのパンを	-12907
出てきたのか	-12908
割礼を受けた	-12909
割礼を受けて	-12910
助けるために	-12911
去るであろう	-12912
叫びつづけた	-12913
右の耳たぶと	-12914
嗣業であって	-12915
寄り頼みます	-12916
彼のすべての	-12917
彼らによって	-12918
彼らに答えた	-12919
彼らふたりは	-12920
彼らを滅ぼす	-12921
戦いのために	-12922
拝して言った	-12923
捕え移される	-12924
書いてあった	-12925
氏族であって	-12926
永遠のいのち	-12927
燔祭のために	-12928
男の子を産み	-12929
知恵によって	-12930
確信している	-12931
祈ってほしい	-12932
神はわたしの	-12933
祭司ザドクと	-12934
罪のない者の	-12935
言われている	-12936
語るのである	-12937
近づいたとき	-12938
進んで行って	-12939
過越の小羊を	-12940
金でおおった	-12941
集まっていた	-12942
頭に手を置き	-12943
食べるならば	-12944
▁あなたはわが	-12945
▁こうして彼は	-12946
▁これによって	-12947
▁またすべての	-12948
▁また言われた	-12949
▁もしあなたの	-12950
▁わたしの目は	-12951
▁わたしは彼の	-12952
▁イエスはまた	-12953
▁イエスは彼に	-12954
▁ヨシャパテは	-12955
▁主はあなたを	-12956
▁夜が明けると	-12957
▁彼はわたしを	-12958
あなたが彼らを	-12959
あなたに与える	-12960
あなたに命じる	-12961
あなたに感謝し	-12962
あなたの子孫は	-12963
いうわけだから	-12964
うことをやめて	-12965
お告げになった	-12966
お聞きください	-12967
から帰って来た	-12968
こう言っている	-12969
ことであろうか	-12970
これはあなたの	-12971
これは主の前に	-12972
これらのものは	-12973
させようとした	-12974
さなかったので	-12975
しえたげられる	-12976
しもべに言った	-12977
じゅごんの皮の	-12978
すなわち彼らは	-12979
すべての人々に	-12980
そしてあなたは	-12981
その衣服を洗い	-12982
だれがあなたを	-12983
だれがわたしを	-12984
っているならば	-12985
ってはいけない	-12986
ならないように	-12987
のあるのを見た	-12988
の子孫のために	-12989
はこれを聞いて	-12990
はわたしのもの	-12991
ませんでしたか	-12992
まれるであろう	-12993
ることを命じた	-12994
わたしが選んだ	-12995
わたしの怒りを	-12996
わたしはすでに	-12997
わたしは決して	-12998
わたしを愛する	-12999
わたしを攻める	-13000
わないであろう	-13001
われるであろう	-13002
われわれの所に	-13003
をあらわされる	-13004
を得るであろう	-13005
イエスに従って	-13006
イエスのことを	-13007
エジプトの国に	-13008
カルデヤびとは	-13009
キュビトである	-13010
ギリシヤ人にも	-13011
ケルビムの上に	-13012
シケルであった	-13013
バラクに言った	-13014
モアブの平野で	-13015
レビびとたちは	-13016
主が嗣業として	-13017
主なるわたしは	-13018
主のものである	-13019
五百人であった	-13020
使者をつかわし	-13021
公道と正義とを	-13022
内に宿っている	-13023
受けいれられる	-13024
名にしたがって	-13025
周囲のすべての	-13026
寄留の他国人を	-13027
座しておられる	-13028
彼らがわたしの	-13029
彼らはわたしが	-13030
彼らはわたしを	-13031
律法学者たちは	-13032
死んだのを見て	-13033
燔祭をささげた	-13034
現れて言われた	-13035
罪に定められる	-13036
罪はゆるされた	-13037
罪を犯したので	-13038
者たちに言った	-13039
者はのろわれる	-13040
道のかたわらに	-13041
遠く離れている	-13042
預言者イザヤの	-13043
食べるであろう	-13044
▁あなたはかつて	-13045
▁このような人は	-13046
▁わが愛する者は	-13047
▁サウルは言った	-13048
▁ミカヤは言った	-13049
▁ヨシュアはまた	-13050
あなたがたに与え	-13051
あなたがわたしの	-13052
おこなったように	-13053
から生れたものを	-13054
ことがないように	-13055
さないであろうか	-13056
しているのである	-13057
そのようなことを	-13058
そばに立っている	-13059
ということである	-13060
については言った	-13061
のところへ行って	-13062
の方へのびる地方	-13063
またイスラエルの	-13064
むかって言われた	-13065
られることはない	-13066
ると主は言われる	-13067
わたしはこの事を	-13068
アンモンの人々は	-13069
イスラエルの家と	-13070
イスラエルの聖者	-13071
キュビトであった	-13072
ヘシボンの王シホ	-13073
マグダラのマリヤ	-13074
ユダの王アマジヤ	-13075
ンの子ヨシュアは	-13076
主があなたがたを	-13077
何の権威によって	-13078
取ってはならない	-13079
四千五百キュビト	-13080
寄留している他国	-13081
平安があるように	-13082
忘れてはならない	-13083
殺されるであろう	-13084
消えることがない	-13085
滅びることがない	-13086
生きながらえさせ	-13087
祭司エレアザルと	-13088
約束にしたがって	-13089
置いてはならない	-13090
罰してゆるさない	-13091
聖書に書いてある	-13092
見つからなかった	-13093
飲ませてください	-13094
▁あなたはわたしを	-13095
▁エリシャは言った	-13096
▁神はまた言われた	-13097
あなたがたのゆえに	-13098
あなたがたは行って	-13099
いと聖なる物である	-13100
いなければならない	-13101
えなければならない	-13102
おつかわしになった	-13103
およびイスラエルの	-13104
および彼と共にいる	-13105
ささげてはならない	-13106
したりするであろう	-13107
たなければならない	-13108
につかわして言った	-13109
めなければならない	-13110
ようにしてください	-13111
られないからである	-13112
わたしたちのうちに	-13113
わたしの名のために	-13114
わたしの名のゆえに	-13115
わたしはあなたがた	-13116
わたしをはずかしめ	-13117
われわれはどうして	-13118
アロンの子孫である	-13119
エジプトのすべての	-13120
エルサレムに住んだ	-13121
カレヤの子ヨハナン	-13122
スリヤの王ハザエル	-13123
ネブカデネザル王は	-13124
ユダの王ヨシャパテ	-13125
ヨシヤの子エホヤキ	-13126
ヨルダンのほとりの	-13127
主が言われたように	-13128
主の命にしたがって	-13129
主の目にかなう事を	-13130
人たちのことである	-13131
四つのとがのために	-13132
心をかたくなにして	-13133
数えられた者は四万	-13134
祝福されるであろう	-13135
聞いているところで	-13136
自分を愛するように	-13137
見ることができない	-13138
言葉のとおりである	-13139
▁それにもかかわらず	-13140
ことがないからである	-13141
ならなければならない	-13142
らなかったからである	-13143
イスラエルの子たちの	-13144
エジプトから出てきた	-13145
キリストであることを	-13146
ネバテの子ヤラベアム	-13147
人をつかわして言った	-13148
作らなければならない	-13149
数えなければならない	-13150
死ななければならない	-13151
知らなければならない	-13152
長さ二万五千キュビト	-13153
▁エホヤダの子ベナヤは	-13154
が彼に代って王となった	-13155
これを犯してはならない	-13156
そうしなければならない	-13157
わたしのほかに神はない	-13158
主がその名を置くために	-13159
去らせなければならない	-13160
常燔祭とその素祭および	-13161
彼はゆるされるであろう	-13162
彼らを恐れてはならない	-13163
これを食べることができる	-13164
の子たちから生れたものを	-13165
の子孫は次のとおりである	-13166
わたしはあなたにむかって	-13167
わたしはあなたのおきてを	-13168
アッスリヤの王セナケリブ	-13169
イスラエルの人々に言った	-13170
エジプトから導き出された	-13171
火で焼かなければならない	-13172
▁そこでイスラエルの人々は	-13173
▁そしてイスラエルの人々は	-13174
▁彼は主の目の前に悪を行い	-13175
エジプトの国から導き出した	-13176
喜び楽しまなければならない	-13177
携えて行かなければならない	-13178
死人の中からよみがえらせた	-13179
悪を除き去らなければならない	-13180
これらは常燔祭とその素祭および	-13181
の子たちのつかさとなるであろう	-13182
よくよくあなたがたに言っておく	-13183
わたしはこれを罰してゆるさない	-13184
▁サ	-13185
▁全	-13186
▁君	-13187
▁善	-13188
▁夫	-13189
▁実	-13190
▁自	-13191
々は	-13192
あお	-13193
あく	-13194
あは	-13195
いり	-13196
うね	-13197
うば	-13198
かこ	-13199
かね	-13200
が成	-13201
が見	-13202
くば	-13203
さご	-13204
さや	-13205
しげ	-13206
しで	-13207
し流	-13208
すず	-13209
たそ	-13210
たゆ	-13211
だし	-13212
だた	-13213
と滅	-13214
と相	-13215
と立	-13216
と花	-13217
なげ	-13218
なご	-13219
なだ	-13220
にと	-13221
に教	-13222
のこ	-13223
の両	-13224
の力	-13225
の務	-13226
の肉	-13227
の衣	-13228
はれ	-13229
ひく	-13230
ぶや	-13231
まに	-13232
みぞ	-13233
みち	-13234
むと	-13235
も一	-13236
よそ	-13237
れ着	-13238
を一	-13239
を招	-13240
を破	-13241
アペ	-13242
アホ	-13243
エナ	-13244
オノ	-13245
コニ	-13246
ジン	-13247
セツ	-13248
セミ	-13249
ゼカ	-13250
ゼボ	-13251
ダタ	-13252
テモ	-13253
ナル	-13254
ネス	-13255
ネル	-13256
ハビ	-13257
バは	-13258
ビン	-13259
ピア	-13260
ピル	-13261
フは	-13262
ヘナ	-13263
ベエ	-13264
ベネ	-13265
ホロ	-13266
マタ	-13267
ムで	-13268
ムテ	-13269
ヤイ	-13270
ヤボ	-13271
ヨタ	-13272
ロド	-13273
一百	-13274
上服	-13275
不足	-13276
人か	-13277
他方	-13278
代り	-13279
伏兵	-13280
体が	-13281
体は	-13282
信者	-13283
僕は	-13284
兄は	-13285
全家	-13286
全軍	-13287
兵と	-13288
兵営	-13289
出会	-13290
分裂	-13291
別れ	-13292
前と	-13293
割り	-13294
北に	-13295
十度	-13296
友よ	-13297
口実	-13298
同意	-13299
同行	-13300
呼べ	-13301
命が	-13302
器物	-13303
土地	-13304
夕べ	-13305
多数	-13306
大海	-13307
夫も	-13308
妻も	-13309
威光	-13310
字を	-13311
学者	-13312
宝と	-13313
実と	-13314
実の	-13315
宣を	-13316
宮と	-13317
宮は	-13318
山へ	-13319
岩に	-13320
岩は	-13321
幕を	-13322
度の	-13323
庭で	-13324
弟は	-13325
強き	-13326
強め	-13327
後は	-13328
悪が	-13329
敵陣	-13330
方で	-13331
方へ	-13332
族の	-13333
日や	-13334
月は	-13335
有力	-13336
有様	-13337
望を	-13338
木が	-13339
果す	-13340
柱頭	-13341
正月	-13342
決定	-13343
油が	-13344
法使	-13345
流す	-13346
災難	-13347
無い	-13348
牛も	-13349
物語	-13350
産は	-13351
畑で	-13352
異言	-13353
皮を	-13354
祈は	-13355
祝い	-13356
穴の	-13357
第八	-13358
箱に	-13359
罪も	-13360
羊も	-13361
羊毛	-13362
義が	-13363
耳で	-13364
舌に	-13365
良し	-13366
花が	-13367
草は	-13368
荒い	-13369
葉を	-13370
衆群	-13371
衣は	-13372
角が	-13373
言語	-13374
誓う	-13375
諸民	-13376
越え	-13377
軍長	-13378
込む	-13379
逃が	-13380
造る	-13381
重な	-13382
金と	-13383
金糸	-13384
門で	-13385
開く	-13386
降服	-13387
雲の	-13388
雲を	-13389
霊と	-13390
青草	-13391
音が	-13392
領主	-13393
顔と	-13394
食の	-13395
魂も	-13396
▁――	-13397
▁かく	-13398
▁アド	-13399
▁アム	-13400
▁アラ	-13401
▁エノ	-13402
▁エル	-13403
▁三日	-13404
▁主を	-13405
▁他の	-13406
▁幕屋	-13407
▁庭の	-13408
▁必ず	-13409
▁民衆	-13410
▁海の	-13411
あざみ	-13412
あだの	-13413
あらぶ	-13414
いため	-13415
いたら	-13416
いだき	-13417
いとう	-13418
いなく	-13419
いよう	-13420
えよう	-13421
おかれ	-13422
おこな	-13423
おっし	-13424
おった	-13425
お示し	-13426
お言葉	-13427
かえす	-13428
かたち	-13429
からし	-13430
かりの	-13431
があが	-13432
がせて	-13433
がなお	-13434
がみを	-13435
がれる	-13436
が出た	-13437
きわめ	-13438
くだけ	-13439
くだす	-13440
この手	-13441
こられ	-13442
これで	-13443
ごとの	-13444
さそり	-13445
しわざ	-13446
しんが	-13447
し加え	-13448
じです	-13449
すてて	-13450
せしめ	-13451
せずに	-13452
そそぐ	-13453
その娘	-13454
その敵	-13455
その行	-13456
それて	-13457
たえず	-13458
たぶん	-13459
だけだ	-13460
だけに	-13461
っさい	-13462
つづき	-13463
できて	-13464
で満た	-13465
とがめ	-13466
とせよ	-13467
とどけ	-13468
となえ	-13469
どもが	-13470
ないだ	-13471
なつめ	-13472
などと	-13473
なれば	-13474
にいて	-13475
におい	-13476
におり	-13477
にわた	-13478
に出た	-13479
に帰る	-13480
に当て	-13481
に着き	-13482
に臨み	-13483
に過ご	-13484
のくだ	-13485
のこの	-13486
のすそ	-13487
のとり	-13488
のぼれ	-13489
の一つ	-13490
の子パ	-13491
の日は	-13492
の油を	-13493
の王が	-13494
の神が	-13495
の衣服	-13496
の金の	-13497
の雄羊	-13498
の音は	-13499
の顔を	-13500
はとの	-13501
はとを	-13502
はなお	-13503
はらみ	-13504
は十二	-13505
は彼の	-13506
びきを	-13507
ふれる	-13508
ほどこ	-13509
まいた	-13510
まかれ	-13511
まさに	-13512
またし	-13513
まつる	-13514
みたが	-13515
むちを	-13516
もしか	-13517
ものろ	-13518
やかで	-13519
やりの	-13520
らかで	-13521
れると	-13522
わが力	-13523
わせよ	-13524
わたる	-13525
をおく	-13526
を失い	-13527
を張る	-13528
を得ず	-13529
を祝福	-13530
を聞く	-13531
を見つ	-13532
を負い	-13533
を金で	-13534
アサヤ	-13535
エウシ	-13536
エドト	-13537
エホデ	-13538
オメル	-13539
キンネ	-13540
クサデ	-13541
クレネ	-13542
サイダ	-13543
ザレル	-13544
シメア	-13545
ジルパ	-13546
スサで	-13547
スマテ	-13548
タハテ	-13549
ダンは	-13550
デキヤ	-13551
デビル	-13552
デラヤ	-13553
トセラ	-13554
トバル	-13555
トペテ	-13556
トマス	-13557
ナハシ	-13558
ナホル	-13559
ハマン	-13560
ハンメ	-13561
バの王	-13562
バルの	-13563
パテロ	-13564
ベオン	-13565
ペルは	-13566
マッサ	-13567
ミシャ	-13568
メセク	-13569
メルは	-13570
ヤイル	-13571
ヤエル	-13572
ヤキン	-13573
リびと	-13574
リオン	-13575
一部は	-13576
万人を	-13577
上げる	-13578
主の民	-13579
主を拝	-13580
主権は	-13581
争って	-13582
二種の	-13583
二頭の	-13584
人に知	-13585
人らは	-13586
代々に	-13587
以外に	-13588
住民の	-13589
何もの	-13590
供の者	-13591
信者の	-13592
倒した	-13593
傾けた	-13594
働いた	-13595
先祖は	-13596
光栄と	-13597
公平を	-13598
兵とを	-13599
出させ	-13600
出る時	-13601
出会い	-13602
分かた	-13603
分れた	-13604
刈り取	-13605
前では	-13606
前にも	-13607
力づけ	-13608
力強い	-13609
加えた	-13610
勇士で	-13611
勇士は	-13612
十八人	-13613
南側に	-13614
叫びは	-13615
告げ示	-13616
善良な	-13617
喜び歌	-13618
土台は	-13619
地です	-13620
地の全	-13621
地の王	-13622
地下の	-13623
墓から	-13624
変った	-13625
大事な	-13626
天にも	-13627
天幕を	-13628
守備隊	-13629
宝物を	-13630
寄せる	-13631
寄留者	-13632
小羊と	-13633
山のふ	-13634
年の後	-13635
役にも	-13636
御使は	-13637
御霊は	-13638
心には	-13639
思うか	-13640
恐れず	-13641
悪口を	-13642
憎しみ	-13643
憤って	-13644
成した	-13645
成った	-13646
成長し	-13647
戒めは	-13648
戸口に	-13649
打たれ	-13650
打って	-13651
払った	-13652
持ち物	-13653
撃とう	-13654
攻めよ	-13655
数多く	-13656
方から	-13657
来ない	-13658
果して	-13659
楽器を	-13660
権力を	-13661
権威を	-13662
死体が	-13663
母とを	-13664
決めた	-13665
治めて	-13666
流れて	-13667
流れを	-13668
消えて	-13669
滅びて	-13670
燃えた	-13671
燃やす	-13672
牧者が	-13673
牧者を	-13674
王の娘	-13675
王の王	-13676
王の門	-13677
王わが	-13678
王万歳	-13679
男と寝	-13680
男子を	-13681
町々で	-13682
町々の	-13683
異国の	-13684
病人を	-13685
皆その	-13686
真実で	-13687
真実の	-13688
真昼に	-13689
眠りに	-13690
着物に	-13691
着物の	-13692
知恵が	-13693
破られ	-13694
神の民	-13695
神殿の	-13696
第四は	-13697
約束が	-13698
絶やし	-13699
罪人の	-13700
群がる	-13701
群衆も	-13702
義人は	-13703
者の手	-13704
聖霊と	-13705
聖霊は	-13706
聞えて	-13707
荒して	-13708
落ちる	-13709
血とを	-13710
血に変	-13711
衣服と	-13712
見ない	-13713
証言を	-13714
諸国の	-13715
諸国語	-13716
買って	-13717
足には	-13718
身ごも	-13719
過ぎる	-13720
部族は	-13721
長い間	-13722
開かれ	-13723
間から	-13724
陣営の	-13725
雄じし	-13726
雄牛を	-13727
雨が降	-13728
雲の中	-13729
頭の毛	-13730
願いの	-13731
食いを	-13732
食物に	-13733
▁かくて	-13734
▁この日	-13735
▁ついで	-13736
▁わたし	-13737
▁イザヤ	-13738
▁ウジヤ	-13739
▁ハリム	-13740
▁ヨラム	-13741
▁ルベン	-13742
▁世には	-13743
▁主人が	-13744
▁主人は	-13745
▁偽善な	-13746
▁大祭司	-13747
▁彼女の	-13748
▁新しい	-13749
▁汚れた	-13750
▁第十一	-13751
いたのに	-13752
いたらせ	-13753
いてもら	-13754
いやしめ	-13755
うかがう	-13756
うものは	-13757
うる者は	-13758
えなさい	-13759
おいしい	-13760
おおかみ	-13761
おとめが	-13762
おまえが	-13763
かおりを	-13764
かしこみ	-13765
かしらを	-13766
かすめる	-13767
かたです	-13768
かたのみ	-13769
かつその	-13770
かつては	-13771
からさま	-13772
からには	-13773
から来て	-13774
があかし	-13775
が立って	-13776
くことを	-13777
くびきの	-13778
こととを	-13779
ことをも	-13780
この弟子	-13781
この民が	-13782
この町の	-13783
これを守	-13784
ささえて	-13785
しいれる	-13786
したのだ	-13787
しておく	-13788
してから	-13789
してもら	-13790
しりぞけ	-13791
じゅうぶ	-13792
じられる	-13793
する者に	-13794
すわらせ	-13795
そこでは	-13796
そしった	-13797
そして後	-13798
そのため	-13799
その上の	-13800
その地は	-13801
その地方	-13802
その女に	-13803
その奴隷	-13804
その子の	-13805
その家来	-13806
その悩み	-13807
その悪い	-13808
その所は	-13809
その手は	-13810
その敵の	-13811
その栄光	-13812
その神の	-13813
その行く	-13814
その言葉	-13815
その足を	-13816
その身の	-13817
その間に	-13818
その頭に	-13819
たずねた	-13820
たちとが	-13821
たちにも	-13822
たちも皆	-13823
だきたい	-13824
ちまたの	-13825
ったのか	-13826
ってから	-13827
つくった	-13828
つづける	-13829
としたが	-13830
とします	-13831
とその同	-13832
とともに	-13833
との間の	-13834
とりなし	-13835
と思われ	-13836
どうした	-13837
どうする	-13838
どちらが	-13839
なかろう	-13840
な町々を	-13841
に入れる	-13842
に彼らを	-13843
に従わず	-13844
に従わせ	-13845
に満ちた	-13846
に葬った	-13847
のかなた	-13848
のつかさ	-13849
のときに	-13850
のぼらせ	-13851
のままで	-13852
の主人は	-13853
の人々が	-13854
の入口で	-13855
の子らが	-13856
の子牛を	-13857
の着物を	-13858
の部族の	-13859
はいかに	-13860
はいらせ	-13861
はその父	-13862
はならぬ	-13863
はやんだ	-13864
はらわた	-13865
はらんだ	-13866
ひざをか	-13867
ひずめの	-13868
ひそかな	-13869
ふさいで	-13870
ふるまい	-13871
へつらう	-13872
まことを	-13873
まじない	-13874
まだらの	-13875
みきらう	-13876
みどりご	-13877
みなぎり	-13878
みわざは	-13879
み前から	-13880
むならば	-13881
もこれを	-13882
もみがら	-13883
やさしい	-13884
ゆだねた	-13885
よいのか	-13886
ようにし	-13887
よくない	-13888
よろず代	-13889
よわいは	-13890
らるべき	-13891
れた者も	-13892
わが君よ	-13893
わが民よ	-13894
わずかの	-13895
をしえた	-13896
をつまず	-13897
を建てる	-13898
んだ像と	-13899
んできて	-13900
アシュル	-13901
アタロテ	-13902
アックブ	-13903
アハズは	-13904
アヒノア	-13905
アヒヤは	-13906
アラウナ	-13907
アロンが	-13908
イサクと	-13909
ウリヤは	-13910
エジオン	-13911
エドムは	-13912
オエナイ	-13913
カインは	-13914
カレブの	-13915
キデロン	-13916
ギルボア	-13917
ゲシュル	-13918
サウルと	-13919
サウロは	-13920
サタンが	-13921
シケルを	-13922
シシャク	-13923
シレミヤ	-13924
ジムリは	-13925
タアナク	-13926
タマルを	-13927
ダビデよ	-13928
ツロの王	-13929
ナアマン	-13930
ナイルの	-13931
ナホルの	-13932
ハシャビ	-13933
バスマテ	-13934
パンと水	-13935
ピラトが	-13936
ヘブルの	-13937
ホルの子	-13938
ホレブで	-13939
マムレの	-13940
メルの子	-13941
ラケルの	-13942
一万人を	-13943
一万八千	-13944
七十人を	-13945
世を治め	-13946
主が彼に	-13947
主に従う	-13948
主の定め	-13949
主の日は	-13950
主を捨て	-13951
二十二人	-13952
二度目に	-13953
五十歳以	-13954
人たちも	-13955
人のない	-13956
人はない	-13957
会衆は皆	-13958
住む者が	-13959
何もない	-13960
何事でも	-13961
供え物が	-13962
信じる者	-13963
傷ついた	-13964
先だって	-13965
全うする	-13966
再び建て	-13967
出されて	-13968
分け与え	-13969
分け前を	-13970
切られて	-13971
割礼をう	-13972
力がない	-13973
加わった	-13974
十二人の	-13975
十五日に	-13976
十四日に	-13977
友である	-13978
取ったが	-13979
召されて	-13980
命である	-13981
喜ばしい	-13982
喜ばれた	-13983
喜びの日	-13984
地に行き	-13985
地はその	-13986
外に出て	-13987
天にまで	-13988
天をのべ	-13989
妻の名は	-13990
娘たちの	-13991
子は父の	-13992
家にある	-13993
家の入口	-13994
寄留した	-13995
寝ていた	-13996
寝ている	-13997
尋ね求め	-13998
導き入れ	-13999
岩の裂け	-14000
川の水を	-14001
常とした	-14002
年ごとに	-14003
年に三度	-14004
年老いて	-14005
彼らに見	-14006
彼を見て	-14007
怒ること	-14008
思い出す	-14009
悪くなる	-14010
愛さない	-14011
所へ行き	-14012
手のひら	-14013
手をかけ	-14014
打たれた	-14015
打ち場の	-14016
打ち砕き	-14017
打物造り	-14018
捕われて	-14019
救いうる	-14020
敵である	-14021
施された	-14022
時である	-14023
月一日に	-14024
東にある	-14025
死ぬべき	-14026
死人を葬	-14027
残る者は	-14028
民に告げ	-14029
水の中に	-14030
汚された	-14031
汚される	-14032
油を注ぎ	-14033
注がれる	-14034
海の水を	-14035
淫するな	-14036
滅びうせ	-14037
災の日に	-14038
父となり	-14039
父なる神	-14040
物として	-14041
物を受け	-14042
王たちが	-14043
王として	-14044
王の命令	-14045
王を立て	-14046
生き物が	-14047
町に行き	-14048
目にある	-14049
目をあげ	-14050
砕かれる	-14051
祝福あれ	-14052
神の人よ	-14053
神の国の	-14054
神の恵み	-14055
神の言は	-14056
神を汚す	-14057
種をまき	-14058
立ったが	-14059
第三年に	-14060
罪がある	-14061
罪がない	-14062
罪のため	-14063
罪を負い	-14064
者および	-14065
者があり	-14066
者がいる	-14067
者たちと	-14068
者どもが	-14069
者どもに	-14070
者もみな	-14071
聖所から	-14072
至るまで	-14073
良い地に	-14074
若いしし	-14075
苦しんで	-14076
草を食い	-14077
衣を着せ	-14078
衣を裂き	-14079
見つけた	-14080
親しい友	-14081
言葉にも	-14082
証人です	-14083
語っても	-14084
賜わって	-14085
逃げ去り	-14086
逃げ去る	-14087
通りすぎ	-14088
過ぎ去る	-14089
部族から	-14090
野にいた	-14091
長として	-14092
霊である	-14093
馬に乗り	-14094
高い山に	-14095
高き所の	-14096
▁おそらく	-14097
▁この事は	-14098
▁この女は	-14099
▁そのため	-14100
▁その素祭	-14101
▁それらの	-14102
▁ならびに	-14103
▁また主が	-14104
▁また彼は	-14105
▁わたしも	-14106
▁われわれ	-14107
▁アセルの	-14108
▁アハズは	-14109
▁アロンは	-14110
▁アンモン	-14111
▁エサウは	-14112
▁エヒウは	-14113
▁エフタは	-14114
▁サウルが	-14115
▁バラクは	-14116
▁ヘブロン	-14117
▁ヤコブの	-14118
▁ヨハネの	-14119
▁時に主は	-14120
▁時に彼は	-14121
▁民はみな	-14122
あいさつを	-14123
あかしをし	-14124
あげなさい	-14125
あったので	-14126
あなたの友	-14127
あなたの心	-14128
あなたの領	-14129
あなたは何	-14130
あわれみの	-14131
いけにえを	-14132
いっせいに	-14133
いはじめた	-14134
えるように	-14135
おまえの子	-14136
から生れる	-14137
かろうじて	-14138
がないので	-14139
きによって	-14140
きょうまで	-14141
くちびるを	-14142
くるように	-14143
ことが起る	-14144
ことを思い	-14145
ことを行う	-14146
この大きな	-14147
これを焼き	-14148
こわされた	-14149
さいわいだ	-14150
ささげます	-14151
しかしその	-14152
していた時	-14153
していない	-14154
しているが	-14155
すべての者	-14156
ぜたものを	-14157
そのこうべ	-14158
その多くの	-14159
その群れを	-14160
その雄羊の	-14161
それならば	-14162
たいと思う	-14163
だれよりも	-14164
つかさびと	-14165
つまらない	-14166
ではあるが	-14167
ということ	-14168
とおりです	-14169
とがあった	-14170
ところには	-14171
としました	-14172
とに対して	-14173
とに言った	-14174
と大いなる	-14175
と言うのを	-14176
と言ってお	-14177
どうか主が	-14178
どう思うか	-14179
なさらない	-14180
なめらかな	-14181
にそむいた	-14182
になろうか	-14183
にひとしい	-14184
にまさって	-14185
にわたって	-14186
のかしら石	-14187
のほとりの	-14188
のを知って	-14189
の子ヨアシ	-14190
はしためを	-14191
はその人に	-14192
はその人を	-14193
ひとりをも	-14194
ふたりの娘	-14195
ふり返って	-14196
ほかの神々	-14197
まこととを	-14198
またそこに	-14199
また彼らが	-14200
まのあたり	-14201
まれている	-14202
もしないで	-14203
ものになる	-14204
ものまでも	-14205
も彼と共に	-14206
も知らない	-14207
ゆるしてや	-14208
ようなわけ	-14209
らのために	-14210
られてきた	-14211
れるならば	-14212
わがおきて	-14213
わたしに誓	-14214
わたしの妹	-14215
わたしの母	-14216
をあがない	-14217
をあわれむ	-14218
をしようと	-14219
を解いた時	-14220
アヒトペル	-14221
アブラムの	-14222
アルキびと	-14223
イサクの神	-14224
エクロンの	-14225
エサウの妻	-14226
オピヤびと	-14227
カデミエル	-14228
ガマリエル	-14229
キュビトを	-14230
キリストと	-14231
ケレテびと	-14232
サウルの娘	-14233
サムエルよ	-14234
シオンの娘	-14235
シオンの山	-14236
シャルムは	-14237
ゼデキヤは	-14238
ダニエルを	-14239
ッポルの子	-14240
ハザエルは	-14241
ハダデゼル	-14242
パンを取り	-14243
ビクリの子	-14244
ヘブル語で	-14245
ベツサイダ	-14246
ペルシャの	-14247
ユダの部族	-14248
ヨセフの家	-14249
ラオデキヤ	-14250
ルの子エリ	-14251
万軍の主よ	-14252
与えられて	-14253
主の恵みを	-14254
主の言葉の	-14255
主はきょう	-14256
主を恐れて	-14257
人々がきて	-14258
人々の前で	-14259
人があった	-14260
人の子らに	-14261
人の子らを	-14262
人は言った	-14263
仕えていた	-14264
伏している	-14265
住まわれる	-14266
使徒たちの	-14267
使徒たちや	-14268
偽りである	-14269
先に立って	-14270
先祖たちは	-14271
全きものを	-14272
出入りする	-14273
分けられた	-14274
助けを呼び	-14275
受けいれて	-14276
受けている	-14277
君たる者が	-14278
周囲にある	-14279
喜び楽しむ	-14280
国々の中に	-14281
国のうちの	-14282
報いを受け	-14283
声が聞える	-14284
声によって	-14285
大いなる者	-14286
大きかった	-14287
子供たちを	-14288
定めに歩み	-14289
実によって	-14290
宣べ伝えよ	-14291
家を建てて	-14292
家を建てる	-14293
少しばかり	-14294
幕屋を建て	-14295
引きつづき	-14296
引き返して	-14297
彼にあって	-14298
彼に告げた	-14299
彼に従って	-14300
彼のうちに	-14301
彼らとその	-14302
彼らに語り	-14303
彼を離れて	-14304
待っていた	-14305
従いなさい	-14306
得なかった	-14307
心のうちで	-14308
怒りの日に	-14309
悪しき者に	-14310
悲しいかな	-14311
愛をもって	-14312
戒しなさい	-14313
戦いに出た	-14314
戸を閉じて	-14315
所に行って	-14316
所へ行った	-14317
手をかけて	-14318
拝んでいる	-14319
捕われ人を	-14320
授けられる	-14321
撃ったので	-14322
書いている	-14323
次のような	-14324
歌をうたい	-14325
正しい人は	-14326
死んだので	-14327
死んでいる	-14328
残りの者は	-14329
残りの者を	-14330
民の中から	-14331
注ぎかけた	-14332
渡したので	-14333
満ちるもの	-14334
焼きつくし	-14335
生きていて	-14336
町のうちに	-14337
異邦の女を	-14338
石を取って	-14339
祈と願いを	-14340
祝福される	-14341
神から来る	-14342
神のおきて	-14343
神の恵みを	-14344
立ちふさが	-14345
立っていて	-14346
終りの時に	-14347
羊の群れを	-14348
者であるが	-14349
者とされた	-14350
聞きいれず	-14351
肉によって	-14352
自分の前に	-14353
自分の国に	-14354
自分の身を	-14355
荒布を身に	-14356
行きめぐり	-14357
行って取る	-14358
言ったのは	-14359
語りなさい	-14360
貧しい者に	-14361
踏みつけた	-14362
身に起った	-14363
追いついて	-14364
連れ帰って	-14365
道に進んだ	-14366
金であった	-14367
閉じ込めて	-14368
集めなさい	-14369
集められた	-14370
離れません	-14371
非常に多く	-14372
願い求める	-14373
風が吹いて	-14374
飲み食いを	-14375
高き所は除	-14376
高ぶる者を	-14377
鳥のように	-14378
▁このために	-14379
▁これはその	-14380
▁そのように	-14381
▁なまけ者は	-14382
▁よこしまな	-14383
▁われらの神	-14384
▁イシマエル	-14385
▁レビびとは	-14386
▁三十歳以上	-14387
▁人々はみな	-14388
▁同じように	-14389
▁彼らは言う	-14390
あなただけが	-14391
あなたの命を	-14392
あなたの国を	-14393
あなたの子供	-14394
あなたの心の	-14395
あなたの心は	-14396
あなたの民は	-14397
あなたの言う	-14398
あなたは彼の	-14399
あなたもまた	-14400
あなたを救う	-14401
あわれまない	-14402
いたのである	-14403
えさせられた	-14404
えるでしょう	-14405
および多くの	-14406
から出た族長	-14407
から出て来る	-14408
から出て行く	-14409
かわいた地に	-14410
かわいた地を	-14411
がなくなった	-14412
が王となった	-14413
くじに当った	-14414
くださらない	-14415
こう書きおく	-14416
ここにいます	-14417
ことはないと	-14418
この世にきた	-14419
これらの事が	-14420
ごぞんじです	-14421
ささえられる	-14422
さしあげます	-14423
させましょう	-14424
さばくために	-14425
されています	-14426
しえたげられ	-14427
しておられる	-14428
しようとした	-14429
しるしである	-14430
すべての家来	-14431
すべての者の	-14432
すべて肉なる	-14433
そして彼らが	-14434
そのとおりに	-14435
その大いなる	-14436
その子イサク	-14437
その氏族の長	-14438
だけであった	-14439
だれもこれを	-14440
っているので	-14441
ととなえられ	-14442
となりました	-14443
となるために	-14444
と思っていた	-14445
なかったのか	-14446
なんの役にも	-14447
に与えられた	-14448
のことである	-14449
のために一つ	-14450
のはずかしめ	-14451
のもとにきて	-14452
のように多く	-14453
の全きものを	-14454
の子を産んだ	-14455
の子ゼカリヤ	-14456
の子孫のうち	-14457
の子孫は二千	-14458
はじめられた	-14459
ひとりもなく	-14460
ぶどうの木は	-14461
ほめたたえて	-14462
またあなたは	-14463
みんなの前で	-14464
むべきである	-14465
もありません	-14466
もとに帰って	-14467
もなくなった	-14468
ものがあった	-14469
ようであるが	-14470
ようとしない	-14471
ようなことは	-14472
よろしくない	-14473
らせるために	-14474
ることもない	-14475
ることもなく	-14476
わしのように	-14477
わたしである	-14478
わたしの所へ	-14479
わたしの行く	-14480
わたしは再び	-14481
わたしは手を	-14482
わたしは言う	-14483
わたしを囲み	-14484
わたしを見て	-14485
をつかさどり	-14486
を与えられて	-14487
を呼び寄せて	-14488
を守るために	-14489
を行いなさい	-14490
アッスリヤの	-14491
アブラハムを	-14492
イエスである	-14493
イエスを十字	-14494
イスラエルで	-14495
エフライムに	-14496
エリコに近い	-14497
エレミヤの口	-14498
カナンびとは	-14499
キリストとの	-14500
シモンという	-14501
ゼベダイの子	-14502
ソロモン王の	-14503
ダタンとアビ	-14504
ダビデの家来	-14505
テレビンの木	-14506
バビロンから	-14507
バビロンの知	-14508
バプテスマを	-14509
パンも食べず	-14510
ベネハダデは	-14511
ミデアンびと	-14512
モアブびとは	-14513
モーセの律法	-14514
ヤラベアムと	-14515
ユダの町々と	-14516
ヨシャパテの	-14517
下っていって	-14518
与えなかった	-14519
主がわたしを	-14520
五キュビトの	-14521
五十歳以下で	-14522
人々のうちに	-14523
会見の幕屋と	-14524
兄弟たちから	-14525
内にはいって	-14526
再び栄えさせ	-14527
告げなかった	-14528
呼ばわっても	-14529
命じられると	-14530
喜ぶであろう	-14531
国々のうちに	-14532
地にはいって	-14533
多くの人々が	-14534
大いなる力と	-14535
大声で叫んだ	-14536
守りください	-14537
安らかに住む	-14538
引いて行った	-14539
彼がわたしに	-14540
彼とその子孫	-14541
彼らの手から	-14542
心に知恵ある	-14543
思いがけない	-14544
思いわずらう	-14545
恵みをもって	-14546
悩みと苦しみ	-14547
悩みのうちに	-14548
悲しみの歌を	-14549
持ち物をみな	-14550
持っていない	-14551
撃たれたので	-14552
救い出される	-14553
栄光のうちに	-14554
正しいと思う	-14555
殺すであろう	-14556
氏族のかしら	-14557
泣き叫んだり	-14558
注意しなさい	-14559
深く思います	-14560
激しく怒って	-14561
父のみもとに	-14562
父または母を	-14563
町の内におる	-14564
皮よりも深く	-14565
示されました	-14566
神から生れた	-14567
神にささげる	-14568
神のみまえで	-14569
神を信じない	-14570
祭司長たちと	-14571
祭壇を築いて	-14572
穴に投げ入れ	-14573
聖所にはいる	-14574
聞いたことを	-14575
荒れすたれて	-14576
荒れ地となり	-14577
行いのために	-14578
行うであろう	-14579
見えなかった	-14580
言ったように	-14581
起き上がって	-14582
近づいてきて	-14583
追い出された	-14584
逃げて行った	-14585
部下の五十人	-14586
長く命を保つ	-14587
非常に多くの	-14588
預言している	-14589
預言者イザヤ	-14590
預言者ハガイ	-14591
▁これがために	-14592
▁そこでヨブは	-14593
▁わたしたちを	-14594
▁わたしの敵は	-14595
▁わたしもまた	-14596
▁イッサカルの	-14597
▁主はあなたの	-14598
▁彼はまたその	-14599
▁神は言われた	-14600
あなたがたにも	-14601
あなたにとって	-14602
あなたのうちで	-14603
あなたのみ名を	-14604
あなたの信仰が	-14605
あなたはしもべ	-14606
あなたはわたし	-14607
あなたを救った	-14608
あなたを祝福し	-14609
いてもらいたく	-14610
いなかったので	-14611
かせてください	-14612
かつてなかった	-14613
かなかったので	-14614
こう書いてある	-14615
こともできない	-14616
このようにした	-14617
この事のために	-14618
これにむかって	-14619
されますように	-14620
していることを	-14621
しるしと不思議	-14622
すべてあなたが	-14623
そうするならば	-14624
そうでなければ	-14625
そのかたわらに	-14626
その兄弟である	-14627
それはあなたを	-14628
それをわたしに	-14629
ところによると	-14630
ところに従って	-14631
としてください	-14632
と共におられた	-14633
と共におられる	-14634
と名づけられた	-14635
と言っているか	-14636
どこへ行くのか	-14637
ないようになる	-14638
なさらなかった	-14639
なってください	-14640
なんと言おうか	-14641
になりましょう	-14642
に従わなかった	-14643
に臨んで言った	-14644
のあるのを見て	-14645
のほとりにある	-14646
のもとに行って	-14647
はならなかった	-14648
ひとりびとりに	-14649
ふさわしくない	-14650
ほめたたえさせ	-14651
むすこ娘たちを	-14652
ものはなかった	-14653
らねばならない	-14654
ることができた	-14655
わからないのか	-14656
わが名のために	-14657
わが聖なる名を	-14658
わが高きやぐら	-14659
わたしが行って	-14660
わたしたちの救	-14661
わたしたちの神	-14662
わたしにとって	-14663
わたしの怒りは	-14664
われわれの神に	-14665
われわれは共に	-14666
をするであろう	-14667
を受けるために	-14668
アロンに言った	-14669
アロンの子なる	-14670
イエスに尋ねた	-14671
イエスを信じた	-14672
エリヤに言った	-14673
エルサレムの王	-14674
サウルのもとに	-14675
パロとその家来	-14676
メシャクおよび	-14677
モーセの律法に	-14678
ヨアブに言った	-14679
不思議に思った	-14680
主に仕えなさい	-14681
主の命によって	-14682
主は仰せられる	-14683
会衆のうちから	-14684
働くことのでき	-14685
呼ばわったので	-14686
四つの町である	-14687
四百人であった	-14688
宣べ伝えている	-14689
家ばとのひな二	-14690
彼に言いなさい	-14691
彼らのうちから	-14692
彼らはあなたに	-14693
御霊が諸教会に	-14694
憎むべきものを	-14695
手のわざである	-14696
日からこのかた	-14697
書にしるされた	-14698
朝はやく起きて	-14699
氏族の長である	-14700
永遠のいのちを	-14701
犠牲をささげて	-14702
王は彼に言った	-14703
神から賜わった	-14704
神の宮のために	-14705
言うことを聞き	-14706
連れてきたので	-14707
隣り人を愛せよ	-14708
食事をしている	-14709
▁あなたは彼らに	-14710
▁するとイエスは	-14711
▁その雄牛と雄羊	-14712
▁たといわたしは	-14713
▁われわれの先祖	-14714
▁アッスリヤの王	-14715
▁アロンとその子	-14716
▁ソロモンはまた	-14717
▁主はとこしえに	-14718
▁主は仰せられる	-14719
▁偽善な律法学者	-14720
あなたがたがもし	-14721
あなたがたの中で	-14722
あなたがたの間で	-14723
あなたがたは言う	-14724
あなたがたもまた	-14725
あなたと共にいて	-14726
あなたのまことを	-14727
いっさいのことを	-14728
おいてはならない	-14729
おいやしになった	-14730
くださるであろう	-14731
ことを知りました	-14732
しようとするのか	-14733
っているのである	-14734
となったのである	-14735
となるためである	-14736
とのための素祭と	-14737
にあずかっている	-14738
によく言っておく	-14739
のを見るであろう	-14740
の供え物であった	-14741
の子孫の部族では	-14742
みなわざをもって	-14743
むべきものである	-14744
ものはありません	-14745
もろもろの国民に	-14746
ゆだねられている	-14747
ゆるしてください	-14748
らせてはならない	-14749
る者があったので	-14750
わたしがあなたと	-14751
わたしとあなたの	-14752
わたしを知らない	-14753
われわれのうちに	-14754
をしてはならない	-14755
を得るためである	-14756
アブラハムの子孫	-14757
イスラエルの全家	-14758
エジプトへ行った	-14759
ダビデに言われた	-14760
ナイル川のように	-14761
ネルの子アブネル	-14762
パリサイ人たちよ	-14763
ベンヒンノムの谷	-14764
モーセとアロンは	-14765
ヤコブの神である	-14766
七日のあいだ留め	-14767
主の御名によって	-14768
主はあなたがたを	-14769
人々をことごとく	-14770
仕えてはならない	-14771
供え物をささげた	-14772
供え物をささげる	-14773
兄弟たちに言った	-14774
大いなる者となり	-14775
天から下ってきた	-14776
手に渡されたので	-14777
拝んではならない	-14778
日の下に行われる	-14779
王に答えて言った	-14780
目をあげて見ると	-14781
祭壇のかたわらに	-14782
祭壇の上で焼いた	-14783
種入れぬパンの祭	-14784
穴に下る者と共に	-14785
罪を犯させるなら	-14786
聞きいれなかった	-14787
行ったからである	-14788
部族の部隊の長は	-14789
長さは二キュビト	-14790
離してはならない	-14791
▁あなたがたはまた	-14792
▁もしわたしたちが	-14793
▁サムエルは言った	-14794
▁主を恐れることは	-14795
あなたがたにとって	-14796
あなたがたに伝えた	-14797
あなたがたのもとに	-14798
あなたがたの先祖を	-14799
あなたに言っておく	-14800
おびただしい群衆が	-14801
およびエルサレムの	-14802
および彼と共にいた	-14803
ことがないであろう	-14804
されているのである	-14805
その数にしたがって	-14806
たちも知らなかった	-14807
とおりにおこなった	-14808
と向かい合っている	-14809
にある教会の御使に	-14810
によって数えられた	-14811
のではありませんか	-14812
の中に投げ込まれる	-14813
ものとなるであろう	-14814
ようになるでしょう	-14815
わたしの声に聞き従	-14816
わたしの父ダビデに	-14817
アハシュエロス王の	-14818
イスラエルにおいて	-14819
イスラエルの人々よ	-14820
エジプトの王パロの	-14821
シャパンの子アヒカ	-14822
ダビデの町に葬られ	-14823
バプテスマを授ける	-14824
ペリシテびとと戦い	-14825
ユダとエルサレムに	-14826
ユフラテ川のほとり	-14827
ヨシャパテに言った	-14828
ヨルダンの向こうの	-14829
主なるあなたの神を	-14830
主に呼ばわったので	-14831
人をつかわして彼を	-14832
位に座するであろう	-14833
大いなる力をもって	-14834
彼らはあなたがたを	-14835
思い出してください	-14836
次のように言われる	-14837
者はさいわいである	-14838
見えるようになった	-14839
▁わたしが見ていると	-14840
▁イスラエルの人々の	-14841
▁ダビデは彼に言った	-14842
あなたがたはどうして	-14843
あなたのいつくしみを	-14844
あなたはイスラエルの	-14845
こう書きおくりなさい	-14846
されなければならない	-14847
その中のすべての人を	-14848
その氏族にしたがって	-14849
と主なる神は言われる	-14850
にしなければならない	-14851
につかわして言わせた	-14852
ひとりも残さなかった	-14853
ようになるためである	-14854
るようにしてください	-14855
イエスに答えて言った	-14856
イスラエルのうちから	-14857
イスラエルの神の箱を	-14858
エルサレムのすべての	-14859
キリストの名によって	-14860
主が約束されたように	-14861
主に呼ばわって言った	-14862
仕事もしてはならない	-14863
取らなければならない	-14864
払わなければならない	-14865
死ぬことのないように	-14866
知っているからである	-14867
祭司およびレビびとの	-14868
立たなければならない	-14869
者はひとりもなかった	-14870
言うことを聞くがよい	-14871
香ばしいかおりである	-14872
高き所で犠牲をささげ	-14873
▁その雄牛と雄羊と小羊	-14874
▁わたしはあなたがたに	-14875
あなたの隣り人を愛せよ	-14876
おおわなければならない	-14877
ことができないであろう	-14878
に与えなければならない	-14879
るようになるためである	-14880
わたしたちは知っている	-14881
わたしにお答えください	-14882
を取らなければならない	-14883
イスラエルの人々の前に	-14884
イスラエルをことごとく	-14885
主が命じられたとおりに	-14886
主の目の前に悪を行った	-14887
使者をつかわして言った	-14888
手にわたされるでしょう	-14889
王の書にしるされている	-14890
▁三十歳以上五十歳以下で	-14891
あがなわなければならない	-14892
がみをしたりするであろう	-14893
わたしはあなたがたに言う	-14894
イスラエルの人々に命じて	-14895
メシャクおよびアベデネゴ	-14896
働きをしなければならない	-14897
先祖たちと共に眠ったので	-14898
注ぎかけなければならない	-14899
それを食べなければならない	-14900
わたしが主であることを悟る	-14901
ネバテの子ヤラベアムの罪を	-14902
会見の幕屋で働くことのでき	-14903
清い者としなければならない	-14904
あなたの信仰があなたを救った	-14905
このようにしなければならない	-14906
▁そこでイエスは彼らに言われた	-14907
サマリヤでイスラエルの王となり	-14908
十四頭をささげなければならない	-14909
▁み	-14910
▁キ	-14911
▁ゴ	-14912
▁三	-14913
▁光	-14914
▁十	-14915
▁口	-14916
▁後	-14917
▁水	-14918
▁火	-14919
▁老	-14920
▁金	-14921
▁陰	-14922
あう	-14923
あち	-14924
いこ	-14925
いぶ	-14926
いら	-14927
い酒	-14928
うみ	-14929
えず	-14930
おか	-14931
おけ	-14932
おだ	-14933
ぎわ	-14934
こめ	-14935
さり	-14936
ざる	-14937
じか	-14938
そも	-14939
たの	-14940
たま	-14941
だつ	-14942
つら	-14943
づか	-14944
てい	-14945
てが	-14946
と大	-14947
なと	-14948
なや	-14949
な城	-14950
にぬ	-14951
に移	-14952
に足	-14953
ぬり	-14954
ねる	-14955
のひ	-14956
のナ	-14957
の分	-14958
の水	-14959
の穴	-14960
はせ	-14961
は一	-14962
は百	-14963
ふみ	-14964
ぼう	-14965
まぬ	-14966
まみ	-14967
みご	-14968
みで	-14969
む者	-14970
めば	-14971
をそ	-14972
を吹	-14973
を現	-14974
を示	-14975
アリ	-14976
エゼ	-14977
エテ	-14978
オナ	-14979
カン	-14980
ガア	-14981
キス	-14982
キル	-14983
ギホ	-14984
グラ	-14985
コヅ	-14986
コン	-14987
サヤ	-14988
ジブ	-14989
スに	-14990
ゼポ	-14991
タパ	-14992
ツル	-14993
デの	-14994
デビ	-14995
デマ	-14996
デル	-14997
ナダ	-14998
ハゼ	-14999
ハド	-15000
パダ	-15001
パム	-15002
フラ	-15003
ヘロ	-15004
ベゼ	-15005
ベノ	-15006
ボン	-15007
マテ	-15008
ミブ	-15009
メテ	-15010
モザ	-15011
ヤザ	-15012
ラビ	-15013
ルカ	-15014
ルス	-15015
ルト	-15016
レケ	-15017
レド	-15018
レン	-15019
一行	-15020
七度	-15021
上と	-15022
中が	-15023
事も	-15024
五年	-15025
令官	-15026
会に	-15027
体を	-15028
使い	-15029
使者	-15030
傷は	-15031
僕に	-15032
光る	-15033
六人	-15034
出現	-15035
出産	-15036
分争	-15037
別の	-15038
勢い	-15039
十の	-15040
十分	-15041
千人	-15042
南側	-15043
台は	-15044
和を	-15045
善悪	-15046
器が	-15047
四代	-15048
地よ	-15049
外庭	-15050
夜昼	-15051
天国	-15052
失望	-15053
好意	-15054
実が	-15055
富が	-15056
富の	-15057
尊く	-15058
屋上	-15059
属し	-15060
川々	-15061
工に	-15062
工の	-15063
工を	-15064
布で	-15065
布に	-15066
布告	-15067
常供	-15068
平を	-15069
平野	-15070
広さ	-15071
御国	-15072
戦場	-15073
戦死	-15074
戸は	-15075
所が	-15076
救と	-15077
教は	-15078
散り	-15079
敵対	-15080
暗き	-15081
朝夕	-15082
村へ	-15083
来の	-15084
東風	-15085
楽を	-15086
権を	-15087
死と	-15088
死も	-15089
殺害	-15090
母と	-15091
決心	-15092
泣け	-15093
淫の	-15094
深み	-15095
清き	-15096
熱い	-15097
熱く	-15098
父も	-15099
父親	-15100
物見	-15101
畑と	-15102
畑も	-15103
着く	-15104
破る	-15105
確立	-15106
祭は	-15107
福を	-15108
終え	-15109
舌の	-15110
舟で	-15111
花を	-15112
落す	-15113
葉の	-15114
行わ	-15115
証書	-15116
話す	-15117
話は	-15118
語れ	-15119
足と	-15120
近親	-15121
返答	-15122
通し	-15123
通の	-15124
銀や	-15125
銀千	-15126
降伏	-15127
陣を	-15128
雄と	-15129
離し	-15130
離す	-15131
音を	-15132
首は	-15133
首長	-15134
首領	-15135
驚嘆	-15136
魂に	-15137
▁もう	-15138
▁ザッ	-15139
▁ノア	-15140
▁ベラ	-15141
▁ヤベ	-15142
▁ヨブ	-15143
▁レメ	-15144
▁天よ	-15145
▁宮の	-15146
▁弟子	-15147
▁戦車	-15148
▁昼は	-15149
▁民の	-15150
▁父が	-15151
▁第七	-15152
々しい	-15153
あした	-15154
あしら	-15155
あすは	-15156
あとの	-15157
あまた	-15158
あれば	-15159
いだせ	-15160
いつつ	-15161
いとも	-15162
いのか	-15163
いまだ	-15164
いわば	-15165
い者の	-15166
うたい	-15167
うなだ	-15168
うまず	-15169
うろた	-15170
おごり	-15171
おとな	-15172
おらせ	-15173
お与え	-15174
お呼び	-15175
お尋ね	-15176
かきを	-15177
かとを	-15178
かなる	-15179
がきた	-15180
が起る	-15181
きとを	-15182
くじは	-15183
くだん	-15184
くちび	-15185
くつわ	-15186
くびを	-15187
く前に	-15188
けても	-15189
この国	-15190
こんだ	-15191
ご自分	-15192
さけて	-15193
さとく	-15194
しおれ	-15195
ししは	-15196
したい	-15197
したた	-15198
した者	-15199
しめた	-15200
じょう	-15201
ずきん	-15202
せよと	-15203
そちら	-15204
その不	-15205
その位	-15206
その像	-15207
その夫	-15208
その所	-15209
その皮	-15210
その目	-15211
たせる	-15212
ただで	-15213
ためし	-15214
たわる	-15215
だまし	-15216
ちじく	-15217
った後	-15218
つぎに	-15219
つばき	-15220
としる	-15221
ととの	-15222
とをお	-15223
と問う	-15224
どもと	-15225
ながめ	-15226
なのに	-15227
なやみ	-15228
な人の	-15229
な子は	-15230
にかぶ	-15231
にたよ	-15232
になお	-15233
に乗せ	-15234
に彼を	-15235
に攻め	-15236
に納め	-15237
に臨む	-15238
に身を	-15239
のかせ	-15240
のかぶ	-15241
のちに	-15242
の上と	-15243
の人の	-15244
の地方	-15245
の声が	-15246
の声は	-15247
の女と	-15248
の妻と	-15249
の娘を	-15250
の家よ	-15251
の小葉	-15252
の木は	-15253
の毛を	-15254
の深い	-15255
の燔祭	-15256
の父は	-15257
の王を	-15258
の者を	-15259
の花の	-15260
の長子	-15261
はから	-15262
はずれ	-15263
はただ	-15264
はたら	-15265
はっき	-15266
は人を	-15267
は王の	-15268
ばれた	-15269
ひもを	-15270
ふうに	-15271
ふさぎ	-15272
へつら	-15273
へびは	-15274
へびを	-15275
べきか	-15276
べよう	-15277
べると	-15278
まいと	-15279
まくら	-15280
また朝	-15281
まつり	-15282
まりを	-15283
み重ね	-15284
めぐる	-15285
もとで	-15286
も多く	-15287
やどり	-15288
やみは	-15289
やめよ	-15290
よくも	-15291
よろい	-15292
らそう	-15293
られぬ	-15294
らん石	-15295
りかど	-15296
りした	-15297
りどよ	-15298
りんご	-15299
るなら	-15300
れた者	-15301
れはて	-15302
ろしめ	-15303
わが城	-15304
わした	-15305
わなを	-15306
わめき	-15307
をあし	-15308
をつぶ	-15309
をとる	-15310
を出し	-15311
を切り	-15312
を取る	-15313
を召し	-15314
を待つ	-15315
を望み	-15316
を着た	-15317
を納め	-15318
を語り	-15319
を通す	-15320
を通る	-15321
を過ぎ	-15322
を飲む	-15323
を高く	-15324
んじた	-15325
アびと	-15326
アサヘ	-15327
アテネ	-15328
アリオ	-15329
アンミ	-15330
イコニ	-15331
イラの	-15332
エテル	-15333
エバル	-15334
エラテ	-15335
の	-15336
、	-15337
た	-15338
に	-15339
は	-15340
な	-15341
を	-15342
し	-15343
。	-15344
て	-15345
い	-15346
と	-15347
る	-15348
あ	-15349
れ	-15350
ら	-15351
▁	-15352
が	-15353
わ	-15354
で	-15355
っ	-15356
か	-15357
そ	-15358
こ	-15359
う	-15360
も	-15361
ま	-15362
す	-15363
よ	-15364
さ	-15365
き	-15366
り	-15367
彼	-15368
ち	-15369
く	-15370
え	-15371
言	-15372
エ	-15373
め	-15374
人	-15375
ル	-15376
主	-15377
者	-15378
お	-15379
だ	-15380
つ	-15381
ろ	-15382
け	-15383
イ	-15384
ス	-15385
ア	-15386
せ	-15387
び	-15388
み	-15389
「	-15390
」	-15391
ラ	-15392
べ	-15393
ば	-15394
子	-15395
ン	-15396
神	-15397
ん	-15398
ヤ	-15399
行	-15400
シ	-15401
ム	-15402
リ	-15403
ど	-15404
々	-15405
ダ	-15406
王	-15407
見	-15408
地	-15409
む	-15410
げ	-15411
サ	-15412
レ	-15413
ロ	-15414
ビ	-15415
出	-15416
デ	-15417
ず	-15418
民	-15419
ブ	-15420
じ	-15421
テ	-15422
一	-15423
祭	-15424
分	-15425
や	-15426
日	-15427
上	-15428
時	-15429
ト	-15430
自	-15431
物	-15432
モ	-15433
知	-15434
家	-15435
所	-15436
手	-15437
ヨ	-15438
セ	-15439
前	-15440
事	-15441
ひ	-15442
マ	-15443
ハ	-15444
立	-15445
バ	-15446
十	-15447
国	-15448
パ	-15449
女	-15450
ナ	-15451
聞	-15452
キ	-15453
ご	-15454
ほ	-15455
心	-15456
ベ	-15457
大	-15458
中	-15459
取	-15460
ゆ	-15461
生	-15462
食	-15463
二	-15464
葉	-15465
ぎ	-15466
町	-15467
ょ	-15468
ユ	-15469
『	-15470
』	-15471
カ	-15472
悪	-15473
命	-15474
父	-15475
ぶ	-15476
死	-15477
名	-15478
弟	-15479
罪	-15480
与	-15481
ウ	-15482
下	-15483
共	-15484
ジ	-15485
聖	-15486
来	-15487
タ	-15488
へ	-15489
長	-15490
目	-15491
ふ	-15492
ク	-15493
間	-15494
ぼ	-15495
司	-15496
族	-15497
ざ	-15498
殺	-15499
身	-15500
ね	-15501
全	-15502
滅	-15503
天	-15504
プ	-15505
オ	-15506
ミ	-15507
ー	-15508
三	-15509
会	-15510
住	-15511
兄	-15512
コ	-15513
思	-15514
帰	-15515
フ	-15516
ペ	-15517
ネ	-15518
入	-15519
信	-15520
道	-15521
恐	-15522
ザ	-15523
従	-15524
ャ	-15525
語	-15526
受	-15527
宮	-15528
孫	-15529
メ	-15530
年	-15531
水	-15532
ュ	-15533
多	-15534
救	-15535
今	-15536
呼	-15537
ニ	-15538
羊	-15539
ゼ	-15540
先	-15541
喜	-15542
造	-15543
ケ	-15544
高	-15545
口	-15546
恵	-15547
去	-15548
万	-15549
山	-15550
七	-15551
四	-15552
得	-15553
ド	-15554
正	-15555
預	-15556
守	-15557
愛	-15558
答	-15559
頭	-15560
使	-15561
義	-15562
霊	-15563
力	-15564
戦	-15565
起	-15566
書	-15567
荒	-15568
ぐ	-15569
何	-15570
声	-15571
方	-15572
向	-15573
告	-15574
金	-15575
実	-15576
部	-15577
五	-15578
持	-15579
光	-15580
軍	-15581
火	-15582
ヒ	-15583
同	-15584
世	-15585
後	-15586
百	-15587
野	-15588
ッ	-15589
集	-15590
幕	-15591
・	-15592
木	-15593
ヘ	-15594
御	-15595
ホ	-15596
仰	-15597
仕	-15598
定	-15599
怒	-15600
教	-15601
着	-15602
求	-15603
供	-15604
娘	-15605
ソ	-15606
不	-15607
妻	-15608
足	-15609
法	-15610
栄	-15611
対	-15612
安	-15613
石	-15614
数	-15615
残	-15616
汚	-15617
ガ	-15618
づ	-15619
皆	-15620
約	-15621
追	-15622
牛	-15623
雄	-15624
門	-15625
引	-15626
打	-15627
敵	-15628
歩	-15629
祖	-15630
離	-15631
ギ	-15632
衆	-15633
海	-15634
福	-15635
血	-15636
渡	-15637
ぜ	-15638
小	-15639
壇	-15640
捨	-15641
連	-15642
他	-15643
近	-15644
ぬ	-15645
良	-15646
合	-15647
置	-15648
撃	-15649
産	-15650
ぞ	-15651
場	-15652
捕	-15653
満	-15654
屋	-15655
臨	-15656
千	-15657
律	-15658
苦	-15659
代	-15660
群	-15661
飲	-15662
第	-15663
犯	-15664
肉	-15665
男	-15666
緒	-15667
建	-15668
寄	-15669
誓	-15670
夜	-15671
強	-15672
香	-15673
望	-15674
次	-15675
銀	-15676
助	-15677
焼	-15678
倒	-15679
願	-15680
遠	-15681
顔	-15682
平	-15683
座	-15684
月	-15685
油	-15686
切	-15687
真	-15688
祈	-15689
ズ	-15690
若	-15691
酒	-15692
六	-15693
導	-15694
ノ	-15695
器	-15696
攻	-15697
祝	-15698
母	-15699
憎	-15700
契	-15701
囲	-15702
流	-15703
示	-15704
進	-15705
息	-15706
氏	-15707
偽	-15708
終	-15709
結	-15710
ピ	-15711
注	-15712
報	-15713
川	-15714
内	-15715
外	-15716
像	-15717
君	-15718
悩	-15719
老	-15720
獣	-15721
宿	-15722
燔	-15723
断	-15724
叫	-15725
耳	-15726
病	-15727
至	-15728
畑	-15729
過	-15730
重	-15731
ゲ	-15732
伏	-15733
常	-15734
清	-15735
治	-15736
携	-15737
気	-15738
選	-15739
歌	-15740
必	-15741
明	-15742
衣	-15743
伝	-15744
拝	-15745
種	-15746
異	-15747
ボ	-15748
服	-15749
放	-15750
尋	-15751
災	-15752
箱	-15753
青	-15754
当	-15755
業	-15756
落	-15757
営	-15758
戒	-15759
破	-15760
初	-15761
賜	-15762
送	-15763
絶	-15764
悲	-15765
及	-15766
投	-15767
牧	-15768
柱	-15769
通	-15770
開	-15771
嗣	-15772
現	-15773
礼	-15774
隠	-15775
負	-15776
感	-15777
用	-15778
歳	-15779
互	-15780
悟	-15781
愚	-15782
逃	-15783
楽	-15784
意	-15785
争	-15786
作	-15787
永	-15788
恥	-15789
返	-15790
理	-15791
―	-15792
働	-15793
別	-15794
風	-15795
土	-15796
勇	-15797
体	-15798
夫	-15799
車	-15800
牲	-15801
犠	-15802
ツ	-15803
解	-15804
再	-15805
右	-15806
徒	-15807
話	-15808
以	-15809
度	-15810
東	-15811
奪	-15812
待	-15813
馬	-15814
朝	-15815
罰	-15816
備	-15817
証	-15818
音	-15819
グ	-15820
堅	-15821
周	-15822
最	-15823
激	-15824
貧	-15825
富	-15826
士	-15827
加	-15828
壁	-15829
深	-15830
頼	-15831
麦	-15832
八	-15833
謝	-15834
害	-15835
泣	-15836
無	-15837
獲	-15838
諸	-15839
谷	-15840
勢	-15841
城	-15842
宣	-15843
新	-15844
動	-15845
工	-15846
束	-15847
邦	-15848
成	-15849
兵	-15850
庭	-15851
ポ	-15852
利	-15853
穴	-15854
乗	-15855
台	-15856
伸	-15857
砕	-15858
北	-15859
糸	-15860
雲	-15861
権	-15862
除	-15863
属	-15864
寝	-15865
布	-15866
淫	-15867
魂	-15868
境	-15869
暗	-15870
乳	-15871
親	-15872
少	-15873
広	-15874
戸	-15875
洗	-15876
非	-15877
側	-15878
嘆	-15879
畜	-15880
和	-15881
務	-15882
勝	-15883
吹	-15884
払	-15885
空	-15886
変	-15887
夕	-15888
殿	-15889
移	-15890
隷	-15891
岩	-15892
様	-15893
奴	-15894
銅	-15895
裂	-15896
僕	-15897
官	-15898
決	-15899
留	-15900
偶	-15901
割	-15902
皮	-15903
買	-15904
ヅ	-15905
墓	-15906
宝	-15907
散	-15908
有	-15909
誇	-15910
燃	-15911
葬	-15912
議	-15913
召	-15914
驚	-15915
売	-15916
計	-15917
設	-15918
半	-15919
学	-15920
訴	-15921
善	-15922
果	-15923
降	-15924
令	-15925
消	-15926
隣	-15927
張	-15928
憤	-15929
授	-15930
位	-15931
尊	-15932
隊	-15933
確	-15934
労	-15935
角	-15936
踏	-15937
ゴ	-15938
傾	-15939
役	-15940
眠	-15941
築	-15942
素	-15943
相	-15944
鳥	-15945
傷	-15946
枝	-15947
花	-15948
識	-15949
公	-15950
南	-15951
好	-15952
難	-15953
復	-15954
指	-15955
納	-15956
領	-15957
骨	-15958
村	-15959
迎	-15960
妹	-15961
首	-15962
問	-15963
舟	-15964
越	-15965
込	-15966
保	-15967
忘	-15968
ゅ	-15969
威	-15970
毛	-15971
弱	-15972
施	-15973
昼	-15974
友	-15975
失	-15976
陣	-15977
熱	-15978
草	-15979
逆	-15980
配	-15981
刈	-15982
招	-15983
覚	-15984
陰	-15985
急	-15986
舌	-15987
白	-15988
続	-15989
要	-15990
字	-15991
記	-15992
閉	-15993
雨	-15994
両	-15995
慰	-15996
