<pad>	0
</s>	0
<unk>	0
▁t	-0
▁a	-1
in	-2
he	-3
re	-4
▁c	-5
on	-6
▁s	-7
▁o	-8
▁the	-9
at	-10
er	-11
ou	-12
es	-13
▁w	-14
ed	-15
nd	-16
or	-17
▁p	-18
en	-19
▁f	-20
it	-21
al	-22
▁d	-23
is	-24
ing	-25
▁in	-26
▁to	-27
▁m	-28
▁b	-29
▁of	-30
an	-31
as	-32
▁and	-33
▁h	-34
ar	-35
ic	-36
ion	-37
om	-38
▁re	-39
ov	-40
▁y	-41
▁n	-42
id	-43
le	-44
▁you	-45
ct	-46
ent	-47
ve	-48
il	-49
us	-50
ir	-51
▁e	-52
▁th	-53
os	-54
▁be	-55
ot	-56
ac	-57
ly	-58
▁T	-59
ol	-60
▁g	-61
▁v	-62
▁ha	-63
▁for	-64
▁l	-65
▁de	-66
ay	-67
ation	-68
▁cov	-69
19	-70
▁on	-71
ur	-72
op	-73
▁or	-74
im	-75
▁con	-76
▁is	-77
ith	-78
tr	-79
▁your	-80
▁2	-81
ow	-82
▁with	-83
ect	-84
if	-85
ut	-86
▁we	-87
-19	-88
ch	-89
▁as	-90
▁covid	-91
▁The	-92
her	-93
ce	-94
▁st	-95
▁pr	-96
est	-97
ig	-98
th	-99
ill	-100
▁an	-101
▁are	-102
ers	-103
▁u	-104
▁cas	-105
ort	-106
▁I	-107
▁that	-108
▁r	-109
et	-110
▁1	-111
irus	-112
▁fr	-113
▁have	-114
▁wh	-115
se	-116
ment	-117
▁ch	-118
▁not	-119
ive	-120
▁cases	-121
▁tr	-122
mp	-123
▁al	-124
ies	-125
▁he	-126
ul	-127
ad	-128
▁A	-129
▁res	-130
▁from	-131
ther	-132
ta	-133
fect	-134
ld	-135
port	-136
▁(	-137
st	-138
um	-139
▁se	-140
ver	-141
▁sh	-142
▁were	-143
ome	-144
ess	-145
ate	-146
ter	-147
cov	-148
▁cou	-149
▁dis	-150
▁it	-151
ab	-152
od	-153
ath	-154
▁at	-155
ak	-156
am	-157
res	-158
pp	-159
ial	-160
▁ne	-161
ore	-162
and	-163
em	-164
ary	-165
oc	-166
▁su	-167
ople	-168
ity	-169
ine	-170
iv	-171
▁can	-172
▁20	-173
▁sy	-174
el	-175
▁test	-176
are	-177
ud	-178
eople	-179
▁cl	-180
alth	-181
▁ex	-182
▁will	-183
▁by	-184
ions	-185
▁virus	-186
▁wor	-187
▁was	-188
▁health	-189
▁people	-190
▁S	-191
un	-192
▁us	-193
▁death	-194
▁un	-195
qu	-196
▁sp	-197
▁com	-198
▁other	-199
ans	-200
ated	-201
▁C	-202
ical	-203
▁report	-204
ge	-205
ars	-206
ose	-207
mpt	-208
▁ad	-209
ain	-210
igh	-211
▁inc	-212
acc	-213
av	-214
vel	-215
eas	-216
▁out	-217
▁pre	-218
▁if	-219
ant	-220
ber	-221
▁infect	-222
og	-223
▁conta	-224
ub	-225
mptom	-226
▁has	-227
▁le	-228
▁coun	-229
▁who	-230
▁vacc	-231
ib	-232
▁j	-233
▁app	-234
▁k	-235
▁im	-236
ents	-237
ould	-238
▁been	-239
▁deaths	-240
▁fe	-241
ild	-242
oron	-243
▁reported	-244
▁O	-245
▁do	-246
▁may	-247
ied	-248
ost	-249
▁If	-250
▁symptom	-251
ous	-252
▁ab	-253
end	-254
ace	-255
▁W	-256
ia	-257
out	-258
art	-259
▁af	-260
hen	-261
oronav	-262
act	-263
our	-264
▁symptoms	-265
oronavirus	-266
ap	-267
one	-268
med	-269
ire	-270
▁4	-271
ide	-272
▁Y	-273
gh	-274
▁3	-275
▁countr	-276
ice	-277
arch	-278
ines	-279
all	-280
▁contact	-281
▁202	-282
lud	-283
ec	-284
ren	-285
ult	-286
▁sars	-287
ory	-288
ist	-289
ubl	-290
ified	-291
able	-292
▁Th	-293
▁diseas	-294
als	-295
▁D	-296
▁num	-297
rou	-298
low	-299
ure	-300
uary	-301
▁more	-302
ack	-303
▁coronavirus	-304
▁P	-305
read	-306
▁prot	-307
▁child	-308
own	-309
▁includ	-310
▁should	-311
ious	-312
▁pos	-313
▁2020	-314
▁this	-315
▁their	-316
▁br	-317
emic	-318
▁day	-319
ast	-320
▁pl	-321
▁resp	-322
▁march	-323
ight	-324
▁You	-325
▁hand	-326
▁work	-327
▁ac	-328
iz	-329
ue	-330
▁prev	-331
▁ser	-332
▁some	-333
so	-334
▁number	-335
▁M	-336
ool	-337
▁also	-338
▁disease	-339
▁5	-340
ern	-341
▁In	-342
ance	-343
ip	-344
reak	-345
ati	-346
▁sa	-347
▁rec	-348
atory	-349
▁H	-350
▁trans	-351
aus	-352
ations	-353
▁B	-354
ict	-355
ong	-356
▁On	-357
00	-358
▁vaccine	-359
ures	-360
▁F	-361
▁It	-362
chool	-363
▁had	-364
▁they	-365
iss	-366
break	-367
ard	-368
-2	-369
urther	-370
▁than	-371
▁outbreak	-372
ates	-373
▁tim	-374
ich	-375
▁med	-376
▁about	-377
▁countries	-378
▁te	-379
ep	-380
▁conf	-381
▁further	-382
▁spread	-383
ail	-384
▁comm	-385
isk	-386
orm	-387
▁ind	-388
erson	-389
pr	-390
reat	-391
▁all	-392
▁ev	-393
trict	-394
▁This	-395
▁need	-396
▁publ	-397
ll	-398
▁"	-399
red	-400
▁dr	-401
▁pati	-402
enc	-403
lo	-404
uc	-405
ake	-406
▁ph	-407
▁tot	-408
▁when	-409
▁which	-410
▁school	-411
▁person	-412
▁av	-413
▁ef	-414
ign	-415
▁ag	-416
▁one	-417
▁R	-418
▁face	-419
andemic	-420
▁confir	-421
▁cr	-422
ens	-423
▁new	-424
ness	-425
▁over	-426
▁pandemic	-427
ata	-428
▁after	-429
ke	-430
▁und	-431
▁cent	-432
fe	-433
mer	-434
irst	-435
vice	-436
▁int	-437
▁per	-438
▁risk	-439
ities	-440
fic	-441
ina	-442
olog	-443
▁patients	-444
pt	-445
▁inf	-446
ag	-447
br	-448
▁exp	-449
▁restrict	-450
ks	-451
avel	-452
▁gov	-453
▁home	-454
ence	-455
▁public	-456
▁me	-457
▁get	-458
▁them	-459
▁time	-460
▁such	-461
▁first	-462
ational	-463
▁confirmed	-464
not	-465
▁inter	-466
pit	-467
▁stud	-468
con	-469
ors	-470
▁any	-471
▁hum	-472
▁govern	-473
ile	-474
▁mas	-475
▁travel	-476
▁man	-477
▁care	-478
▁infection	-479
ased	-480
▁col	-481
▁data	-482
▁china	-483
ord	-484
▁sur	-485
▁use	-486
ating	-487
ments	-488
ollow	-489
▁comp	-490
ase	-491
▁hands	-492
ie	-493
▁rel	-494
ove	-495
▁qu	-496
ally	-497
▁clos	-498
ission	-499
▁up	-500
land	-501
▁tw	-502
▁bring	-503
age	-504
ited	-505
ress	-506
▁under	-507
▁including	-508
ne	-509
we	-510
▁but	-511
ospit	-512
▁transm	-513
▁caus	-514
oun	-515
▁hospit	-516
ert	-517
▁gen	-518
▁protect	-519
ell	-520
ike	-521
▁ill	-522
bruary	-523
dit	-524
▁prov	-525
▁2020,	-526
▁result	-527
ang	-528
▁high	-529
▁others	-530
ame	-531
▁sc	-532
ific	-533
▁6	-534
ach	-535
sib	-536
▁due	-537
▁rece	-538
▁february	-539
▁no	-540
velop	-541
▁case	-542
▁days	-543
▁contr	-544
arly	-545
▁stay	-546
▁bringing	-547
ood	-548
way	-549
▁hel	-550
ident	-551
▁these	-552
▁world	-553
▁ar	-554
itive	-555
lu	-556
▁rem	-557
▁previous	-558
▁E	-559
▁close	-560
▁en	-561
ever	-562
▁help	-563
▁-	-564
outh	-565
▁two	-566
▁part	-567
▁effect	-568
▁bet	-569
▁government	-570
▁cover	-571
▁follow	-572
▁/	-573
omm	-574
uring	-575
anuary	-576
illion	-577
▁loc	-578
▁possib	-579
ass	-580
▁those	-581
ob	-582
▁how	-583
▁avail	-584
iratory	-585
▁totals	-586
▁january	-587
ices	-588
▁positive	-589
ust	-590
-19.	-591
fore	-592
▁mon	-593
▁call	-594
▁L	-595
anc	-596
ian	-597
▁ant	-598
▁reg	-599
gn	-600
ind	-601
une	-602
▁treat	-603
▁hospital	-604
uct	-605
▁gp	-606
▁dec	-607
▁most	-608
▁previously	-609
lf	-610
▁N	-611
ick	-612
iate	-613
▁bec	-614
ocial	-615
▁there	-616
▁develop	-617
▁available	-618
cc	-619
te	-620
▁ass	-621
▁imp	-622
▁sign	-623
▁7	-624
▁kn	-625
ative	-626
rent	-627
very	-628
▁dif	-629
▁respon	-630
▁wee	-631
▁tested	-632
▁medical	-633
▁infected	-634
▁respiratory	-635
hed	-636
ater	-637
here	-638
▁notified	-639
).	-640
▁9	-641
▁so	-642
lect	-643
▁bre	-644
▁hcov	-645
aly	-646
▁syst	-647
isit	-648
▁am	-649
▁acc	-650
▁ann	-651
ced	-652
han	-653
▁10	-654
ween	-655
ected	-656
int	-657
▁its	-658
ended	-659
▁host	-660
▁track	-661
▁would	-662
▁during	-663
notified	-664
▁between	-665
▁illness	-666
▁transmission	-667
▁8	-668
▁go	-669
merg	-670
▁str	-671
▁possible	-672
000	-673
▁op	-674
▁att	-675
▁meas	-676
▁advice	-677
▁system	-678
ough	-679
pril	-680
unity	-681
▁cons	-682
▁spec	-683
ok	-684
▁–	-685
ings	-686
▁april	-687
),	-688
ise	-689
les	-690
ency	-691
▁che	-692
ential	-693
▁incre	-694
ear	-695
▁bat	-696
rough	-697
▁wear	-698
▁again	-699
▁united	-700
▁children	-701
,000	-702
▁recomm	-703
cr	-704
su	-705
▁emerg	-706
▁states	-707
▁million	-708
ctor	-709
vere	-710
▁act	-711
▁vir	-712
ility	-713
ology	-714
▁announ	-715
day	-716
ree	-717
▁only	-718
▁could	-719
ro	-720
ts	-721
gan	-722
▁14	-723
▁As	-724
care	-725
▁requ	-726
▁restrictions	-727
mediate	-728
▁severe	-729
inis	-730
▁est	-731
arant	-732
▁country	-733
▁G	-734
eep	-735
▁social	-736
oid	-737
▁Do	-738
▁ire	-739
▁pres	-740
▁visit	-741
▁ireland	-742
▁prevent	-743
▁into	-744
▁long	-745
▁announced	-746
▁4,	-747
▁How	-748
oth	-749
oint	-750
ting	-751
▁cle	-752
▁grou	-753
▁affect	-754
▁control	-755
▁through	-756
ins	-757
ound	-758
▁well	-759
▁level	-760
▁while	-761
▁measures	-762
▁ent	-763
▁many	-764
▁being	-765
▁inform	-766
ared	-767
ised	-768
▁like	-769
▁move	-770
▁human	-771
▁response	-772
▁sus	-773
▁clin	-774
▁quarant	-775
ope	-776
ual	-777
▁ed	-778
ning	-779
▁red	-780
▁condit	-781
▁testing	-782
▁vaccines	-783
▁away	-784
ry	-785
aces	-786
▁sup	-787
▁serv	-788
▁before	-789
▁19	-790
▁sm	-791
cond	-792
▁They	-793
▁food	-794
▁issu	-795
pl	-796
ug	-797
pec	-798
tain	-799
▁low	-800
▁var	-801
ening	-802
▁dist	-803
▁There	-804
▁every	-805
▁treatment	-806
af	-807
▁dep	-808
▁cough	-809
▁group	-810
▁someone	-811
▁information	-812
ily	-813
ered	-814
mple	-815
round	-816
▁same	-817
▁U	-818
ead	-819
tin	-820
uhan	-821
▁mask	-822
▁where	-823
az	-824
na	-825
ark	-826
ery	-827
ink	-828
ute	-829
▁imm	-830
▁pol	-831
ially	-832
▁take	-833
▁used	-834
▁offic	-835
▁community	-836
▁import	-837
▁national	-838
▁lim	-839
▁wash	-840
ination	-841
▁against	-842
▁schools	-843
pid	-844
▁cur	-845
▁det	-846
▁dire	-847
▁emergency	-848
▁eur	-849
inese	-850
▁ident	-851
▁wuhan	-852
▁second	-853
▁V	-854
arm	-855
▁24	-856
ouse	-857
▁lar	-858
▁educ	-859
▁show	-860
▁services	-861
amm	-862
ety	-863
▁11	-864
▁ma	-865
▁early	-866
▁prote	-867
▁intern	-868
▁include	-869
▁An	-870
▁di	-871
▁gu	-872
▁When	-873
▁make	-874
▁susp	-875
▁students	-876
ody	-877
old	-878
the	-879
▁fam	-880
▁flu	-881
▁ord	-882
ours	-883
▁inv	-884
▁conc	-885
▁fever	-886
▁europe	-887
▁humans	-888
▁conditions	-889
wide	-890
▁hig	-891
▁non	-892
other	-893
▁epid	-894
▁nose	-895
▁italy	-896
▁surve	-897
▁total	-898
ulation	-899
▁provid	-900
▁require	-901
▁support	-902
ted	-903
▁12	-904
▁15	-905
▁St	-906
ange	-907
ince	-908
▁adv	-909
▁sub	-910
▁june	-911
▁prop	-912
▁clean	-913
▁found	-914
▁without	-915
▁infections	-916
of	-917
ish	-918
par	-919
▁We	-920
▁gr	-921
▁arr	-922
ality	-923
▁mers	-924
▁areas	-925
▁gener	-926
illance	-927
▁issued	-928
yp	-929
-19,	-930
ivid	-931
▁ext	-932
▁least	-933
acy	-934
ade	-935
lob	-936
ogr	-937
uch	-938
ears	-939
▁met	-940
▁house	-941
▁known	-942
▁state	-943
▁trial	-944
▁contin	-945
▁important	-946
ez	-947
ten	-948
uce	-949
ause	-950
osed	-951
▁age	-952
▁del	-953
▁hse	-954
▁occ	-955
▁pop	-956
▁crit	-957
▁keep	-958
▁what	-959
▁These	-960
▁diffe	-961
▁short	-962
▁service	-963
▁clinical	-964
▁surveillance	-965
alk	-966
any	-967
erv	-968
▁des	-969
▁don	-970
▁down	-971
▁self	-972
▁temp	-973
▁chest	-974
▁pract	-975
▁movements	-976
oss	-977
til	-978
▁ob	-979
down	-980
line	-981
omes	-982
▁off	-983
aking	-984
lying	-985
▁2019	-986
▁week	-987
ording	-988
▁estim	-989
▁south	-990
▁using	-991
▁healthcare	-992
arr	-993
▁23	-994
ling	-995
▁aut	-996
iving	-997
▁inst	-998
▁isol	-999
▁pain	-1000
▁supp	-1001
▁medic	-1002
▁organ	-1003
▁around	-1004
▁breath	-1005
▁chinese	-1006
▁contain	-1007
▁z	-1008
▁Wh	-1009
less	-1010
ural	-1011
▁able	-1012
▁anim	-1013
▁much	-1014
inated	-1015
▁avoid	-1016
▁phone	-1017
▁sever	-1018
▁until	-1019
▁years	-1020
▁appoint	-1021
▁workers	-1022
essential	-1023
▁immediate	-1024
erm	-1025
opp	-1026
ized	-1027
▁Cov	-1028
ually	-1029
ublin	-1030
▁open	-1031
▁affected	-1032
ty	-1033
oci	-1034
neez	-1035
kdown	-1036
▁bats	-1037
▁drug	-1038
ically	-1039
▁masks	-1040
▁pregn	-1041
▁start	-1042
▁remain	-1043
▁closures	-1044
▁education	-1045
▁i	-1046
▁’	-1047
ave	-1048
ics	-1049
ork	-1050
▁cy	-1051
gest	-1052
▁Your	-1053
▁cell	-1054
▁main	-1055
▁allow	-1056
▁cance	-1057
▁attend	-1058
▁common	-1059
▁collect	-1060
▁viruses	-1061
▁following	-1062
els	-1063
ful	-1064
ned	-1065
▁13	-1066
ived	-1067
ving	-1068
▁glob	-1069
dition	-1070
▁centre	-1071
▁closed	-1072
▁population	-1073
▁ro	-1074
erly	-1075
iagn	-1076
tail	-1077
▁Con	-1078
▁ask	-1079
▁lab	-1080
▁nov	-1081
ently	-1082
▁lear	-1083
▁However	-1084
▁individ	-1085
1,	-1086
ash	-1087
cem	-1088
ogen	-1089
▁For	-1090
▁air	-1091
▁mod	-1092
▁sim	-1093
▁sit	-1094
▁feel	-1095
▁orig	-1096
▁pass	-1097
▁prod	-1098
cember	-1099
idence	-1100
▁doctor	-1101
▁effective	-1102
oh	-1103
led	-1104
▁18	-1105
▁22	-1106
▁Pr	-1107
▁ir	-1108
ages	-1109
atic	-1110
ined	-1111
side	-1112
▁200	-1113
ember	-1114
ition	-1115
ivers	-1116
▁Read	-1117
▁decl	-1118
▁hours	-1119
▁mouth	-1120
▁study	-1121
inister	-1122
▁dublin	-1123
▁receive	-1124
▁results	-1125
▁international	-1126
hor	-1127
bers	-1128
fort	-1129
self	-1130
▁add	-1131
▁fac	-1132
▁our	-1133
ution	-1134
▁plan	-1135
▁safe	-1136
▁vari	-1137
▁share	-1138
▁december	-1139
erc	-1140
jor	-1141
▁mid	-1142
iting	-1143
gative	-1144
▁among	-1145
▁cause	-1146
▁large	-1147
▁occur	-1148
▁place	-1149
▁recov	-1150
▁sneez	-1151
▁weeks	-1152
▁caused	-1153
▁because	-1154
▁tracking	-1155
▁underlying	-1156
▁recommended	-1157
oor	-1158
▁es	-1159
lood	-1160
▁way	-1161
▁even	-1162
▁last	-1163
infect	-1164
▁alert	-1165
▁major	-1166
▁often	-1167
▁viral	-1168
▁author	-1169
▁partic	-1170
▁current	-1171
▁appointment	-1172
▁30	-1173
▁sw	-1174
oved	-1175
ular	-1176
▁end	-1177
▁exa	-1178
▁min	-1179
▁both	-1180
▁know	-1181
pecially	-1182
▁example	-1183
▁epidemic	-1184
▁quarantine	-1185
ys	-1186
fer	-1187
ica	-1188
▁16	-1189
isol	-1190
iven	-1191
▁adm	-1192
▁body	-1193
▁2020.	-1194
▁activ	-1195
▁blood	-1196
▁separ	-1197
▁direct	-1198
▁another	-1199
ces	-1200
ants	-1201
omic	-1202
uced	-1203
▁tou	-1204
ather	-1205
▁Some	-1206
▁fact	-1207
▁find	-1208
▁must	-1209
▁proc	-1210
▁samp	-1211
▁great	-1212
▁might	-1213
▁meters	-1214
▁within	-1215
▁cancell	-1216
▁negative	-1217
▁transport	-1218
.3	-1219
ix	-1220
ief	-1221
▁By	-1222
▁Ch	-1223
term	-1224
ature	-1225
▁appr	-1226
▁cold	-1227
▁less	-1228
▁live	-1229
▁made	-1230
▁norm	-1231
▁prim	-1232
ficult	-1233
▁antib	-1234
▁tests	-1235
▁three	-1236
▁depart	-1237
▁higher	-1238
▁immune	-1239
▁different	-1240
▁especially	-1241
ene	-1242
hes	-1243
its	-1244
ook	-1245
ung	-1246
ven	-1247
▁2,	-1248
▁He	-1249
ason	-1250
cept	-1251
▁cod	-1252
▁econ	-1253
▁surf	-1254
▁diagn	-1255
▁month	-1256
▁events	-1257
▁family	-1258
▁organiz	-1259
▁protein	-1260
▁univers	-1261
ns	-1262
eng	-1263
str	-1264
arda	-1265
ilar	-1266
itis	-1267
neum	-1268
▁saf	-1269
▁typ	-1270
ished	-1271
▁form	-1272
▁path	-1273
▁very	-1274
▁Covid	-1275
▁acute	-1276
▁labor	-1277
▁cannot	-1278
▁impact	-1279
▁addition	-1280
▁diseases	-1281
▁lockdown	-1282
▁difficult	-1283
▁recommend	-1284
ird	-1285
tur	-1286
xim	-1287
▁26	-1288
▁does	-1289
▁four	-1290
▁rese	-1291
▁then	-1292
▁associ	-1293
ological	-1294
ck	-1295
hy	-1296
yg	-1297
aff	-1298
ior	-1299
loy	-1300
onia	-1301
osis	-1302
▁But	-1303
▁influ	-1304
▁local	-1305
▁since	-1306
▁safety	-1307
▁european	-1308
▁yourself	-1309
0%	-1310
ets	-1311
und	-1312
▁25	-1313
▁el	-1314
form	-1315
itor	-1316
uals	-1317
▁equ	-1318
▁rna	-1319
▁kore	-1320
▁pneum	-1321
▁staff	-1322
▁still	-1323
▁touch	-1324
▁water	-1325
▁infectious	-1326
dc	-1327
wn	-1328
xt	-1329
att	-1330
iod	-1331
oon	-1332
▁1,	-1333
apid	-1334
itiz	-1335
▁eas	-1336
▁fat	-1337
mploy	-1338
▁covs	-1339
▁each	-1340
▁mark	-1341
▁step	-1342
ymptom	-1343
▁fines	-1344
▁hcovs	-1345
▁retur	-1346
▁assess	-1347
▁having	-1348
▁reduce	-1349
▁similar	-1350
▁worldwide	-1351
▁department	-1352
up	-1353
chn	-1354
▁fl	-1355
▁la	-1356
ards	-1357
ject	-1358
ustr	-1359
▁bab	-1360
▁dem	-1361
▁see	-1362
iness	-1363
▁back	-1364
▁team	-1365
▁center	-1366
▁global	-1367
▁period	-1368
▁provide	-1369
▁detected	-1370
▁required	-1371
za	-1372
ids	-1373
ite	-1374
ndr	-1375
urs	-1376
▁17	-1377
▁ey	-1378
enec	-1379
▁afr	-1380
▁car	-1381
▁hub	-1382
▁city	-1383
▁rate	-1384
ancing	-1385
ipment	-1386
opping	-1387
▁based	-1388
▁cyber	-1389
▁indic	-1390
▁right	-1391
▁times	-1392
▁comple	-1393
▁likely	-1394
▁concern	-1395
▁healthy	-1396
▁outside	-1397
▁washing	-1398
▁official	-1399
▁pneumonia	-1400
▁identified	-1401
▁individuals	-1402
ph	-1403
sc	-1404
▁'	-1405
lic	-1406
▁28	-1407
▁3,	-1408
▁wa	-1409
oses	-1410
traz	-1411
▁acr	-1412
▁sug	-1413
▁wom	-1414
eneca	-1415
▁list	-1416
▁rele	-1417
▁reop	-1418
▁said	-1419
▁order	-1420
▁rapid	-1421
▁county	-1422
▁trials	-1423
▁however	-1424
trazeneca	-1425
▁received	-1426
▁laboratory	-1427
inc	-1428
▁To	-1429
▁uk	-1430
enza	-1431
▁cal	-1432
ardaí	-1433
odies	-1434
▁Stay	-1435
▁come	-1436
▁done	-1437
▁guid	-1438
▁mild	-1439
▁appro	-1440
▁signs	-1441
▁across	-1442
▁origin	-1443
▁samples	-1444
▁personal	-1445
▁developed	-1446
▁disinfect	-1447
▁equipment	-1448
3,	-1449
ru	-1450
ife	-1451
uss	-1452
▁21	-1453
▁Sh	-1454
aily	-1455
ives	-1456
▁Res	-1457
▁bas	-1458
▁cap	-1459
ately	-1460
▁init	-1461
▁scre	-1462
▁sick	-1463
▁sure	-1464
ensive	-1465
inistr	-1466
uction	-1467
ularly	-1468
▁syndr	-1469
▁techn	-1470
▁online	-1471
▁suggest	-1472
▁tracker	-1473
▁increased	-1474
ym	-1475
eri	-1476
ged	-1477
▁eu	-1478
eral	-1479
▁old	-1480
ising	-1481
▁Wash	-1482
▁amer	-1483
▁baby	-1484
▁iran	-1485
▁post	-1486
▁prob	-1487
▁daily	-1488
▁enter	-1489
▁lower	-1490
▁needs	-1491
▁record	-1492
otential	-1493
▁several	-1494
▁relating	-1495
▁syndrome	-1496
▁influenza	-1497
▁associated	-1498
▁vaccinated	-1499
ays	-1500
set	-1501
▁Op	-1502
aren	-1503
ides	-1504
▁par	-1505
▁rep	-1506
▁set	-1507
osure	-1508
▁adap	-1509
▁five	-1510
▁meet	-1511
▁mult	-1512
▁year	-1513
▁chang	-1514
▁later	-1515
▁places	-1516
▁related	-1517
▁increase	-1518
▁learning	-1519
▁properly	-1520
▁research	-1521
▁development	-1522
29	-1523
to	-1524
get	-1525
ify	-1526
ism	-1527
ner	-1528
ues	-1529
ient	-1530
rest	-1531
tact	-1532
▁bus	-1533
▁cho	-1534
▁mem	-1535
▁nat	-1536
▁own	-1537
▁sec	-1538
entil	-1539
▁happ	-1540
attack	-1541
lement	-1542
▁invol	-1543
▁novel	-1544
▁small	-1545
ability	-1546
▁detail	-1547
▁normal	-1548
▁stated	-1549
▁evidence	-1550
▁specific	-1551
▁distancing	-1552
▁cyberattack	-1553
dr	-1554
ale	-1555
ron	-1556
▁bu	-1557
cent	-1558
cess	-1559
iral	-1560
ucle	-1561
▁few	-1562
▁fun	-1563
▁hot	-1564
▁mob	-1565
▁put	-1566
covid	-1567
itted	-1568
ption	-1569
▁Open	-1570
▁ther	-1571
▁exerc	-1572
▁korea	-1573
▁women	-1574
▁access	-1575
▁called	-1576
▁groups	-1577
▁effects	-1578
▁economic	-1579
▁sneezing	-1580
▁suspected	-1581
▁prevention	-1582
▁separation	-1583
▁astrazeneca	-1584
▁organization	-1585
ogn	-1586
sis	-1587
▁50	-1588
▁Al	-1589
▁Be	-1590
ises	-1591
ults	-1592
▁All	-1593
▁And	-1594
▁ful	-1595
▁now	-1596
ances	-1597
ental	-1598
ograp	-1599
▁hist	-1600
▁sent	-1601
▁sour	-1602
aching	-1603
▁analy	-1604
▁doses	-1605
erature	-1606
▁animal	-1607
▁months	-1608
▁greater	-1609
▁present	-1610
▁potential	-1611
1.	-1612
iqu	-1613
ock	-1614
orn	-1615
ret	-1616
ved	-1617
ves	-1618
ygi	-1619
▁ur	-1620
ator	-1621
crip	-1622
ists	-1623
▁cam	-1624
▁enc	-1625
▁too	-1626
angol	-1627
ready	-1628
▁Many	-1629
▁date	-1630
▁lung	-1631
▁outd	-1632
▁sing	-1633
action	-1634
though	-1635
▁progr	-1636
ificant	-1637
▁People	-1638
▁employ	-1639
▁experi	-1640
▁levels	-1641
▁ventil	-1642
▁already	-1643
▁history	-1644
▁monitor	-1645
▁antibodies	-1646
▁intermediate	-1647
".	-1648
."	-1649
abl	-1650
for	-1651
▁gl	-1652
covs	-1653
etic	-1654
hold	-1655
▁100	-1656
▁his	-1657
▁tow	-1658
atest	-1659
cript	-1660
rence	-1661
▁anti	-1662
▁area	-1663
▁give	-1664
▁hygi	-1665
▁mand	-1666
▁mort	-1667
▁nurs	-1668
▁priv	-1669
hether	-1670
▁coron	-1671
▁pharm	-1672
▁press	-1673
▁become	-1674
▁establ	-1675
▁guidel	-1676
▁instit	-1677
▁showed	-1678
▁centres	-1679
▁increas	-1680
▁numbers	-1681
▁primary	-1682
▁usually	-1683
▁continue	-1684
▁essential	-1685
▁estimated	-1686
▁spreading	-1687
▁authorities	-1688
▁significant	-1689
2,	-1690
cg	-1691
ft	-1692
me	-1693
.30	-1694
ize	-1695
owd	-1696
▁27	-1697
▁29	-1698
▁Tr	-1699
▁co	-1700
▁ve	-1701
ateg	-1702
hers	-1703
tand	-1704
▁rev	-1705
utive	-1706
▁cour	-1707
igures	-1708
▁colle	-1709
▁rates	-1710
ilities	-1711
▁effort	-1712
▁genome	-1713
▁pangol	-1714
▁therap	-1715
▁details	-1716
▁general	-1717
▁getting	-1718
▁process	-1719
▁variant	-1720
▁declared	-1721
▁pregnant	-1722
▁practices	-1723
▁protection	-1724
▁protective	-1725
▁temperature	-1726
▁vaccination	-1727
.5	-1728
cgp	-1729
omb	-1730
rel	-1731
tle	-1732
ump	-1733
aken	-1734
ancy	-1735
azil	-1736
like	-1737
thod	-1738
▁Acc	-1739
▁def	-1740
▁far	-1741
aging	-1742
aring	-1743
ators	-1744
▁aged	-1745
▁best	-1746
▁cris	-1747
▁disc	-1748
▁just	-1749
▁phys	-1750
▁slow	-1751
▁alone	-1752
▁given	-1753
▁limit	-1754
▁means	-1755
▁phase	-1756
▁prior	-1757
▁gather	-1758
▁necess	-1759
▁workpl	-1760
▁Contact	-1761
▁hygiene	-1762
▁serious	-1763
▁systems	-1764
▁whether	-1765
▁distance	-1766
▁exposure	-1767
▁shopping	-1768
ymptomatic	-1769
▁according	-1770
▁breathing	-1771
▁implement	-1772
▁immediately	-1773
ei	-1774
go	-1775
kn	-1776
li	-1777
ote	-1778
▁fo	-1779
ably	-1780
crib	-1781
ense	-1782
hest	-1783
orth	-1784
otic	-1785
▁cre	-1786
▁Call	-1787
▁Most	-1788
▁dose	-1789
▁free	-1790
▁news	-1791
▁sequ	-1792
ertain	-1793
utions	-1794
▁added	-1795
▁effic	-1796
▁hosts	-1797
▁onset	-1798
▁Follow	-1799
▁causes	-1800
▁detect	-1801
▁flight	-1802
▁mobile	-1803
▁reserv	-1804
▁animals	-1805
▁natural	-1806
▁special	-1807
▁coronary	-1808
▁provided	-1809
▁According	-1810
▁cancelled	-1811
▁household	-1812
▁secondary	-1813
▁coronaviruses	-1814
7,	-1815
iew	-1816
ond	-1817
ops	-1818
utr	-1819
ians	-1820
lamm	-1821
ount	-1822
risk	-1823
trib	-1824
▁rsc	-1825
▁war	-1826
thing	-1827
▁comb	-1828
▁exec	-1829
▁eyes	-1830
▁good	-1831
▁oper	-1832
idents	-1833
▁crowd	-1834
▁paren	-1835
▁worse	-1836
▁adults	-1837
▁commun	-1838
▁method	-1839
▁sample	-1840
▁season	-1841
▁tempor	-1842
▁factors	-1843
▁limited	-1844
▁persons	-1845
lications	-1846
▁contacts	-1847
▁critical	-1848
▁pathogen	-1849
▁executive	-1850
▁intensive	-1851
▁pregnancy	-1852
▁president	-1853
.2	-1854
13	-1855
ef	-1856
use	-1857
iday	-1858
imed	-1859
iple	-1860
ofen	-1861
oors	-1862
serv	-1863
▁Don	-1864
▁ens	-1865
▁sat	-1866
▁upd	-1867
ading	-1868
▁intr	-1869
▁prep	-1870
▁repl	-1871
▁room	-1872
▁send	-1873
▁side	-1874
▁talk	-1875
▁tell	-1876
▁Other	-1877
▁leave	-1878
igation	-1879
▁attack	-1880
▁brazil	-1881
▁crisis	-1882
▁depend	-1883
▁gardaí	-1884
▁longer	-1885
▁monday	-1886
▁unless	-1887
▁business	-1888
▁controls	-1889
▁director	-1890
▁minister	-1891
▁programm	-1892
▁proteins	-1893
▁surfaces	-1894
▁necessary	-1895
▁published	-1896
▁screening	-1897
.4	-1898
18	-1899
ao	-1900
ho	-1901
ng	-1902
amp	-1903
nel	-1904
▁pe	-1905
ible	-1906
irth	-1907
izer	-1908
ring	-1909
▁san	-1910
▁sol	-1911
▁tre	-1912
known	-1913
▁Wear	-1914
▁cert	-1915
▁fore	-1916
▁left	-1917
▁link	-1918
▁near	-1919
▁prom	-1920
▁zoon	-1921
ention	-1922
▁asked	-1923
▁	-1924
e	-1925
t	-1926
a	-1927
o	-1928
i	-1929
n	-1930
s	-1931
r	-1932
h	-1933
c	-1934
d	-1935
l	-1936
u	-1937
m	-1938
p	-1939
f	-1940
y	-1941
g	-1942
v	-1943
w	-1944
b	-1945
.	-1946
,	-1947
k	-1948
-	-1949
1	-1950
2	-1951
0	-1952
9	-1953
T	-1954
I	-1955
x	-1956
3	-1957
4	-1958
A	-1959
5	-1960
)	-1961
(	-1962
z	-1963
j	-1964
6	-1965
8	-1966
7	-1967
S	-1968
q	-1969
C	-1970
'	-1971
"	-1972
O	-1973
W	-1974
:	-1975
Y	-1976
D	-1977
P	-1978
M	-1979
H	-1980
%	-1981
B	-1982
F	-1983
R	-1984
E	-1985
/	-1986
;	-1987
L	-1988
N	-1989
–	-1990
G	-1991
U	-1992
V	-1993
?	-1994
’	-1995
í	-1996
