<pad>	0
</s>	0
<unk>	0
¦	-1.34198
▁¦	-1.34349
ም	-3.49004
▁።	-3.83999
▁፥	-4.01848
▁፤	-4.52857
ን	-4.64061
በ	-4.68449
የ	-4.74449
ና	-4.7624
ከ	-5.20366
ወደ	-5.44935
ሁሉ	-5.48671
ለ	-5.55818
ይ	-5.55968
ት	-5.63326
እግዚአብሔር	-5.82812
እንደ	-5.88318
ዘንድ	-5.94802
አ	-5.96622
ላይ	-5.97395
ንም	-5.99667
ነው	-6.01332
ው	-6.03723
ስ	-6.15903
▁?	-6.15945
ግን	-6.17387
ተ	-6.22773
ል	-6.27116
ጊዜ	-6.30252
ህ	-6.32616
ነገር	-6.41907
ስለ	-6.4562
እርሱ	-6.47573
ጋር	-6.47767
ልጆች	-6.49463
እኔ	-6.52296
ያ	-6.53619
ልጅ	-6.5448
ነበር	-6.57207
ሰው	-6.59612
የሚ	-6.68499
እንዲህ	-6.692
እ	-6.71183
ሆ	-6.81844
መ	-6.84951
ች	-6.86766
ቤት	-6.90355
አል	-6.90741
ቀን	-6.91931
ውን	-6.9372
ታ	-6.94176
ፊት	-6.94636
አለ	-6.97384
ደግሞ	-6.9782
በት	-6.98368
ሉ	-7.01488
ር	-7.02879
ቃል	-7.03253
ዋ	-7.04162
እነሆ	-7.06707
አንተ	-7.07633
ብ	-7.07826
ነበረ	-7.08773
እን	-7.08797
ሰዎች	-7.09414
ኝ	-7.12085
አለው	-7.1435
ሽ	-7.15019
ንጉሥ	-7.1517
ሰ	-7.16255
አንድ	-7.17834
ይህ	-7.18593
ድረስ	-7.1927
አት	-7.20673
ምድር	-7.23102
ባ	-7.25727
ሆነ	-7.28549
ደ	-7.29482
እስከ	-7.2961
ወይ	-7.29885
ሲ	-7.30045
በዚያ	-7.30977
ቢ	-7.3121
ውስጥ	-7.33069
በእግዚአብሔር	-7.33123
አይ	-7.33592
ጌታ	-7.33614
ገ	-7.37089
ንና	-7.37317
ይላል	-7.37431
እነርሱ	-7.39608
እናንተ	-7.40655
ድ	-7.4073
ብሎ	-7.41438
ራ	-7.43571
በኋላ	-7.45646
ናቸው	-7.46065
ይህን	-7.47456
የእግዚአብሔር	-7.49265
ጥ	-7.50194
ስለዚህ	-7.51009
ሊ	-7.51199
አምላክ	-7.52236
ጠ	-7.53675
ፍ	-7.54143
ነ	-7.54246
እጅ	-7.54259
መካከል	-7.54494
ሳ	-7.54742
ሁ	-7.57008
ቅ	-7.57178
ማ	-7.57859
ግ	-7.58563
ላ	-7.58568
ቀ	-7.58877
ዓመት	-7.6114
ሕዝብ	-7.61628
ነበሩ	-7.62944
እንዲ	-7.63179
ላችሁ	-7.63359
ህን	-7.63573
ረ	-7.66242
የእስራኤል	-7.67638
ሁለት	-7.68171
ውም	-7.68372
ቤቱ	-7.68416
መጣ	-7.68642
ወጣ	-7.6887
ይሆናል	-7.70044
ከእርሱ	-7.71213
እንዲሁ	-7.71282
ክ	-7.71667
የተ	-7.71826
ኢየሱስ	-7.73694
አስ	-7.74039
ዎች	-7.74087
አሁን	-7.74336
ትን	-7.7438
ኑ	-7.7467
ንጉሡ	-7.76252
እግዚአብሔርን	-7.7686
ፈ	-7.79
ማን	-7.80253
ጂ	-7.81517
መቶ	-7.81581
አላቸው	-7.82138
ከፍ	-7.82754
መሥዋዕት	-7.82781
ዳዊት	-7.84353
ስፍራ	-7.85378
ካ	-7.86111
ዳ	-7.86553
ሥራ	-7.87326
ብዙ	-7.87459
ደስ	-7.88425
ለእግዚአብሔር	-7.90807
ዘ	-7.9094
ላቸው	-7.91065
ጋ	-7.91577
ለት	-7.9175
አላ	-7.92976
ምን	-7.94408
የእግዚአብሔርን	-7.94561
ከተማ	-7.94764
ጣ	-7.95022
እጅግ	-7.95989
እነዚህ	-7.98399
በምድር	-7.98936
ወ	-8.00581
ቱ	-8.00724
እንዳ	-8.01054
መልካም	-8.01502
አቸው	-8.02122
ሺህ	-8.03247
ፋ	-8.0385
ቸው	-8.03875
ያለ	-8.04799
ሙሴ	-8.05465
መንገድ	-8.05963
ህም	-8.06483
በዚህ	-8.06801
አለቆች	-8.0694
በእስራኤል	-8.07097
ችሁ	-8.08689
ክፉ	-8.09483
ዘመን	-8.10595
ለሁ	-8.11236
ነኝ	-8.11824
አገር	-8.12986
ከዚያ	-8.13166
ሮ	-8.1329
በእርሱ	-8.13877
እኛ	-8.16392
ሕዝቡ	-8.16406
ታል	-8.16948
ዛሬ	-8.17323
ውኃ	-8.18035
ሠራ	-8.18386
ባቸው	-8.18491
አይደለም	-8.18882
ዝ	-8.19266
ገባ	-8.19391
አሳ	-8.2159
ስም	-8.21651
ከእነርሱ	-8.21714
ኃጢአት	-8.21753
አደረገ	-8.21896
ቃ	-8.22622
የምት	-8.22801
ሱ	-8.2435
ይሁን	-8.24502
ታላቅ	-8.24717
ወገን	-8.24903
እስራኤል	-8.25478
ሃል	-8.26235
እንደሚ	-8.27029
እየ	-8.27093
ለዘላለም	-8.27704
አለቃ	-8.28027
ዋን	-8.28078
ሦስት	-8.2846
ዋል	-8.28533
ጨ	-8.29043
ሰባት	-8.29268
በዳ	-8.29801
እንዳይ	-8.30673
ሴት	-8.30986
ዓ	-8.31126
በሚ	-8.32643
ጀምሮ	-8.32705
እርስዋ	-8.32824
ሌላ	-8.33111
ሪ	-8.33539
ወር	-8.34021
ወጡ	-8.34123
መንፈስ	-8.34952
ሞ	-8.3502
ልብ	-8.35198
ምድረ	-8.35344
እንግዲህ	-8.35863
አሉ	-8.36273
ሙ	-8.37118
ሸ	-8.37135
ቆ	-8.37445
ክርስቶስ	-8.37639
ድምፅ	-8.38322
በኢየሩሳሌም	-8.38705
ባት	-8.39073
ከእኔ	-8.39354
አሕዛብ	-8.39526
ባል	-8.39664
ቶ	-8.39876
የሚያ	-8.40105
ተው	-8.40264
ሴቶች	-8.40419
ሞት	-8.41707
ባለ	-8.42718
እንጀራ	-8.42915
ክንድ	-8.43087
ከተሞች	-8.43112
በር	-8.43163
ገና	-8.4369
የለም	-8.43784
ሄደ	-8.43912
ማንም	-8.45291
ሩ	-8.45582
ለመ	-8.45917
ልኝ	-8.46034
ፉ	-8.46086
አጠገብ	-8.46337
ይልቅ	-8.46637
ብት	-8.46644
ቡ	-8.46885
ዱ	-8.47385
ዬ	-8.48078
ሥጋ	-8.48327
መጡ	-8.4845
ተራራ	-8.48797
ሬ	-8.4889
ያለውን	-8.48909
ለሚ	-8.48962
ብለው	-8.4919
አሥራ	-8.495
እንዴት	-8.49671
አምስት	-8.49674
በታች	-8.50001
አንዱ	-8.5036
ካህኑ	-8.50522
ከአንተ	-8.51958
በኩል	-8.53533
ኛል	-8.53834
አሉት	-8.53962
ከዚህ	-8.54077
ጭ	-8.55549
ለህ	-8.55899
ቍርባን	-8.56361
ሆኑ	-8.56461
የተነሣ	-8.56701
ክብር	-8.57383
ለች	-8.57628
ደም	-8.57797
ዛ	-8.57868
ቢሆን	-8.58068
ደቀ	-8.58268
ሰማ	-8.58353
ሻ	-8.58569
ኤል	-8.59316
ስሙ	-8.59545
ለው	-8.59634
ሃለሁ	-8.60028
ያስ	-8.60671
የሆነ	-8.6068
ጐ	-8.60916
ከእስራኤል	-8.61173
ከእግዚአብሔር	-8.61222
በተ	-8.61325
ናት	-8.61497
ሎ	-8.61625
ዕቃ	-8.6175
ነገሥታት	-8.61777
ማል	-8.62421
ነገድ	-8.6254
ሞተ	-8.62598
ጡ	-8.62675
ለን	-8.62934
ከእናንተ	-8.63629
ሄዱ	-8.64207
ትም	-8.64553
ሳኦል	-8.64881
ቅዱስ	-8.65317
ጫ	-8.6558
ገቡ	-8.66456
ጎ	-8.66609
ሙሴን	-8.66706
እስኪ	-8.66711
አራት	-8.67234
የሰው	-8.68023
ወለደ	-8.68113
ቁ	-8.68197
ለእስራኤል	-8.68459
ሆኖ	-8.68532
ቤ	-8.69259
ኖ	-8.69498
ሰሎሞን	-8.70107
በይሁዳ	-8.70126
ፈራ	-8.70468
ከሚ	-8.70712
ቹ	-8.71074
ፍሬ	-8.71145
ራስ	-8.71194
ኢየሩሳሌም	-8.7128
ሀያ	-8.71322
ልጁ	-8.71339
እሳት	-8.71424
▁!	-8.71639
ሕግ	-8.71642
በው	-8.7167
እውነት	-8.71783
ሽን	-8.72528
ጌ	-8.7264
ነህ	-8.74222
ጉ	-8.74229
ባሕር	-8.74631
ናል	-8.74689
ተስፋ	-8.75502
ብቻ	-8.75745
ብር	-8.75802
ያለው	-8.75924
ጽ	-8.75984
ላት	-8.76276
የማ	-8.76588
አውራ	-8.77176
የሠራዊት	-8.7771
ቤተ	-8.77829
ትእዛዝ	-8.77922
በዚያን	-8.7825
በእኔ	-8.78487
ያል	-8.78711
ልብስ	-8.78847
ሐ	-8.78855
ፍርድ	-8.79966
ሳይ	-8.79982
ሁለቱ	-8.79992
ቴ	-8.80108
በሉ	-8.80681
አታ	-8.80969
ሌ	-8.81406
ለምን	-8.81664
ብኝ	-8.81695
ባለው	-8.8173
ቦ	-8.81822
ድንኳን	-8.82155
ቸዋል	-8.82658
ሶ	-8.8318
ኪዳን	-8.83876
አፍ	-8.84984
ዕ	-8.85135
ምንድር	-8.85242
ነት	-8.85807
ሴ	-8.86046
ሚ	-8.86152
ሰይፍ	-8.86486
ድንጋይ	-8.86934
ያዕቆብ	-8.87117
ቱን	-8.87261
ይሁዳ	-8.87708
በላ	-8.87815
ይሆን	-8.88244
ቼ	-8.88402
ዓለም	-8.88521
ተኛ	-8.88594
መታ	-8.88853
መንግሥት	-8.89284
ሆነው	-8.89363
ኩ	-8.8949
ዋለሁ	-8.89588
ተናገረ	-8.89747
የማይ	-8.89842
መልሶ	-8.89942
በእውነት	-8.90319
የእስራኤልን	-8.90759
ብላ	-8.90939
ኢያሱ	-8.91277
አምላክህ	-8.91461
ወርቅ	-8.91784
በል	-8.9181
ልህ	-8.92078
ዶ	-8.92367
ስድስት	-8.92973
ርስት	-8.93052
ቈ	-8.9321
ሜ	-8.93231
ችን	-8.93648
አደረጉ	-8.94388
ተቀመጠ	-8.94508
ነገሠ	-8.94916
ጌታዬ	-8.9506
ወንድ	-8.95158
ዘር	-8.95159
ቸዋለሁ	-8.95208
አልና	-8.95263
ፊ	-8.95784
ሰብ	-8.9619
ሕያው	-8.96337
ሚስት	-8.96997
ጠፋ	-8.97423
አድርጎ	-8.97465
ሰጥ	-8.97675
ሰሙ	-8.98407
ጠራ	-8.98464
ሕዝቡን	-8.98737
ዳርቻ	-8.98979
ሆንሁ	-8.99015
አለኝ	-8.99087
አብ	-8.99115
መጽሐፍ	-8.99325
ሰጠው	-8.99423
በእሳት	-8.99524
በሕይወት	-8.99649
ኛ	-8.99834
በፊቱ	-8.99963
ቍጣ	-8.99997
ሂድ	-9.00264
አማልክት	-9.00343
በቀር	-9.01011
አን	-9.01273
ተነሣ	-9.01321
አንቺ	-9.0145
አምሳ	-9.01504
በግ	-9.0154
ያን	-9.02102
ጠጣ	-9.02103
ችው	-9.02155
እንድት	-9.02292
በእናንተ	-9.0232
ጦ	-9.02327
ሠላሳ	-9.0241
አይሁድ	-9.02723
ነፍስ	-9.02889
ኮ	-9.03451
ጠጅ	-9.03488
ታችሁ	-9.0357
መለ	-9.03783
አባት	-9.03831
ባሪያዎች	-9.03972
ገድ	-9.04006
እንኳ	-9.04087
ቸውም	-9.0421
ጥቂት	-9.04521
በመ	-9.04595
ካህናቱ	-9.04625
ወንድሞች	-9.04677
ዛፍ	-9.04703
ባሪያ	-9.0495
ብርሃን	-9.05057
እርስ	-9.05072
ሆን	-9.05268
ካህናት	-9.05805
ጸ	-9.05806
ሳለ	-9.05992
ዋጋ	-9.06198
በጎች	-9.0636
መዛሙርቱ	-9.06689
እና	-9.06779
ቶች	-9.06801
ለማ	-9.06985
የወይን	-9.07401
ሕ	-9.07463
ዮ	-9.07656
ዮሴፍ	-9.07759
ኤ	-9.07911
መሠዊያ	-9.08085
ወንዶች	-9.08181
ዩ	-9.08709
ቤቶች	-9.08895
ነበረች	-9.08907
ናችሁ	-9.09006
በአንተ	-9.09029
ገዛ	-9.09099
ቸውን	-9.09283
የይሁዳ	-9.09323
ሕይወት	-9.09332
ፈር	-9.09392
አሮን	-9.09912
ከተ	-9.10158
ሰጠ	-9.10196
ጆሮ	-9.10528
መሰ	-9.10621
ልን	-9.10703
ሰጣቸው	-9.11001
ኖር	-9.11475
ችኋል	-9.11553
በአንድ	-9.11724
እንዳለ	-9.122
ሽማግሌዎች	-9.12287
ለአንተ	-9.12371
ተናገረው	-9.12435
ማር	-9.12704
እንጨት	-9.13442
ይዞ	-9.13589
እያንዳንዱ	-9.13637
ሃ	-9.1374
ሰላም	-9.13872
ኔ	-9.14389
ልፎ	-9.14562
አምላኬ	-9.14614
ምሳሌ	-9.14616
ኸው	-9.14708
አሥር	-9.1473
ነፋስ	-9.15321
ይሆናሉ	-9.15801
ሌሊት	-9.16078
ሁልጊዜ	-9.16401
ትንቢት	-9.16403
እንዲሆን	-9.16458
መከራ	-9.16676
ቀረ	-9.16838
ብን	-9.17631
ድል	-9.1764
አርባ	-9.17655
ጽድቅ	-9.17739
ዲ	-9.17987
እያ	-9.18181
አድርግ	-9.1822
መረ	-9.184
ቻቸው	-9.18439
በሰይፍ	-9.19487
በየ	-9.1951
ላከ	-9.19512
መር	-9.19562
በጎ	-9.19661
ጀ	-9.19753
ቅን	-9.19841
ባሪያህ	-9.19989
እንድ	-9.20053
መቅደስ	-9.21037
ሰባ	-9.21258
ምርኮ	-9.21327
ዙሪያ	-9.21336
ባችሁ	-9.21376
ይመጣል	-9.21396
ችኋለሁ	-9.21724
ጕ	-9.22062
በፊትህ	-9.22178
እንዳል	-9.22512
ሥርዓት	-9.22539
ጻድቅ	-9.22593
ወዲህ	-9.22594
ልጄ	-9.23065
ለእኔ	-9.23139
ንጹሕ	-9.23235
ዓይን	-9.23404
ሣ	-9.23437
ዝም	-9.2364
ከንቱ	-9.23683
ሠራዊት	-9.23718
ምልክት	-9.23893
እንዳት	-9.23949
እጁን	-9.23965
ከሰማይ	-9.24466
መለሰ	-9.24492
መለከት	-9.24534
አብርሃም	-9.24575
ያደርግ	-9.24708
ወራት	-9.24741
ታቸው	-9.24904
ሽም	-9.24953
ዳር	-9.25093
መልአክ	-9.25183
ናገር	-9.25343
ሄድ	-9.25769
አደባባይ	-9.25885
መጠን	-9.26165
ስላ	-9.26184
በትን	-9.26236
በማ	-9.26291
ኃይል	-9.26401
ፋንታ	-9.26502
ኒ	-9.26503
ሰማይ	-9.26533
እርሱን	-9.2655
ጥፋት	-9.26734
ለእርሱ	-9.2675
ፍር	-9.27159
ኤርምያስ	-9.27169
በንጉሡ	-9.2729
ሹ	-9.27423
አየሁ	-9.27467
ደስታ	-9.27531
ቅዱሳን	-9.27841
ቱም	-9.28221
ምስጋና	-9.28516
ከምድር	-9.28715
ነሣ	-9.29169
ስማ	-9.29186
ተቀመጡ	-9.29195
ታቦት	-9.29197
ላል	-9.29269
ዘይት	-9.29651
አምላካችን	-9.29916
ፈሩ	-9.2997
መጥቶ	-9.30048
ብዛት	-9.30572
ምስክር	-9.30574
ጸጋ	-9.30618
ረዳ	-9.30862
ሁት	-9.31027
ክፋት	-9.31191
ኢዮአብ	-9.31266
ወይን	-9.31286
ርኩስ	-9.31327
መካ	-9.31387
ወረደ	-9.31443
ጠብቅ	-9.31477
እስራኤልን	-9.31525
ቀኝ	-9.31783
ነገ	-9.31846
በእነርሱ	-9.31889
አያ	-9.31925
ሳሙኤል	-9.31965
ቻ	-9.32045
አባቴ	-9.32612
ልት	-9.33194
ልጆቹ	-9.33248
ፈጽሞ	-9.33378
ንኳ	-9.33818
ወሰደ	-9.33968
ጃ	-9.3399
ዋለህ	-9.34121
ቅጥር	-9.3417
አንዳች	-9.34237
ለእናንተ	-9.34601
ረው	-9.34748
ጴጥሮስ	-9.34962
ሥ	-9.35004
ነቢያት	-9.35138
ቀድ	-9.35144
ከእኛ	-9.35158
ኋቸው	-9.35163
ሸለቆ	-9.3553
ትውልድ	-9.35537
አስቀድሞ	-9.35563
የምድር	-9.35709
ብዬ	-9.35737
በሰማይ	-9.36077
ራሱን	-9.36097
ያህል	-9.36165
ሰፈሩ	-9.36191
ወስዶ	-9.36271
ከእንግዲህ	-9.363
በላይ	-9.36397
ፀሐይ	-9.36446
ወዮ	-9.37045
እላችኋለሁ	-9.37052
ሾ	-9.37357
ቋ	-9.37742
ሰቅል	-9.37779
ብለህ	-9.3839
ዘረጋ	-9.38488
አወጣ	-9.38654
ሻል	-9.38704
በአሕዛብ	-9.38705
ደር	-9.38818
ጥበብ	-9.39219
ዮሐንስ	-9.39241
ድን	-9.39425
ዎቹ	-9.39498
ታለሁ	-9.39552
በግብፅ	-9.39657
ሕዝቅያስ	-9.39998
ፈርዖን	-9.40304
ግባ	-9.40674
ጳውሎስ	-9.40709
እንደዚህ	-9.40762
ወዴት	-9.40977
በታላቅ	-9.41028
በደል	-9.41119
አባቱ	-9.41146
ፎ	-9.41157
ተመለሱ	-9.41185
ጨለማ	-9.41445
ተነሥቶ	-9.41655
ቀር	-9.41686
ነበረው	-9.41882
እኔን	-9.41912
በእጁ	-9.41946
ስት	-9.4195
ኸኝ	-9.42084
ቄ	-9.42302
ስብ	-9.42421
የወርቅ	-9.42968
ዴ	-9.43
ይህች	-9.43115
አልነበረም	-9.43124
ያደርጋል	-9.43171
መለስ	-9.43369
የነበረውን	-9.43451
ምክንያት	-9.43875
እንስሳ	-9.43879
እርሻ	-9.44134
ሰልፍ	-9.44162
በትም	-9.44187
እነዚህን	-9.44224
አልሁ	-9.44248
አለች	-9.44298
ያዩ	-9.44319
ከቶ	-9.44564
ወንዝ	-9.45342
መጥተው	-9.45478
ነፍሴ	-9.45484
ኛው	-9.45645
ሞቱ	-9.45736
ወጥቶ	-9.458
ምንም	-9.46136
አምላካችሁ	-9.46231
ክፍል	-9.46276
ዮናታን	-9.4628
ጉባኤ	-9.46521
ሠሩ	-9.47174
ቍ	-9.47306
በዛ	-9.4736
ገኝ	-9.47663
ፍልስጥኤማውያን	-9.48038
በታል	-9.48042
ዕጣ	-9.48348
ራሱ	-9.48463
ውጭ	-9.48553
አመጣ	-9.48582
በሰው	-9.48587
በሰ	-9.48725
ጠው	-9.49
ስምዖን	-9.49568
ቍጥር	-9.49573
ሴቲቱ	-9.49575
ሁለተኛው	-9.4958
ተዋል	-9.49601
ከግብፅ	-9.49843
ይቅር	-9.49851
በእርስዋ	-9.50003
ጣል	-9.5036
ባድማ	-9.50408
ተቀምጦ	-9.50408
ይኖራል	-9.50408
አደርጋለሁ	-9.50417
አሰ	-9.50533
ዳዊትን	-9.50639
ወድ	-9.50772
ነግ	-9.50819
ሁም	-9.51059
ፈው	-9.51103
ይዘው	-9.51159
አንዲት	-9.51255
ልና	-9.51319
ነን	-9.5139
ምድሪቱ	-9.51453
የሆነውን	-9.51521
ጠብቁ	-9.51632
በመንገድ	-9.51778
በድ	-9.51781
ወገኖች	-9.52113
ያሉ	-9.5244
ተናገር	-9.52608
ያደርጉ	-9.52669
ሳል	-9.52887
አድርጉ	-9.52976
ብህ	-9.52995
ረግ	-9.53139
ገረ	-9.53605
ኰ	-9.53841
አንበሳ	-9.53843
ቆሙ	-9.53995
አድ	-9.54003
ባይ	-9.54079
ሉት	-9.54259
ብዙዎች	-9.54362
አችሁ	-9.54517
ዔ	-9.54562
ቹን	-9.54601
ተወ	-9.54624
ነቢዩ	-9.5467
ጕድጓድ	-9.5472
ውጣ	-9.54982
አሳብ	-9.54994
በክርስቶስ	-9.55035
እግር	-9.55167
አየ	-9.55324
ሌዋውያን	-9.55516
መስፈሪያ	-9.55602
ራቸው	-9.55633
ቆሞ	-9.5568
በሌሊት	-9.56083
በመሠዊያው	-9.56101
ነበሩት	-9.5622
በአንድነት	-9.56521
እር	-9.56525
መብል	-9.56533
ታስ	-9.56642
ሠ	-9.56749
ተብሎ	-9.56869
በረታ	-9.56949
ልዩ	-9.57165
ገንዘብ	-9.57397
እናቱ	-9.57434
አልተ	-9.57528
ዙ	-9.57581
ጸና	-9.57771
ጥሩ	-9.57817
የዘላለም	-9.57982
ዊው	-9.57987
ፈታ	-9.57996
መልስ	-9.58006
እንዲያ	-9.58219
አቤሴሎም	-9.58307
በፊቴ	-9.58307
ይገባ	-9.58374
ቀና	-9.58437
ባሉ	-9.58538
ጣሉ	-9.58548
ማዶ	-9.58562
ሊያ	-9.58645
ባቢሎን	-9.58723
ፈት	-9.5875
በቤቱ	-9.58934
ቂ	-9.59395
ያወጣ	-9.59571
ዘው	-9.59619
ኖሩ	-9.59658
ኝም	-9.60087
ያጠፋ	-9.60183
ሁላችሁ	-9.60348
ነውር	-9.60511
በደ	-9.60755
ውያን	-9.60919
ኃያላን	-9.61084
ጭፍራ	-9.61096
ፍቅር	-9.61176
ቀረበ	-9.61187
አር	-9.6123
ቸ	-9.61272
ቆመው	-9.61383
መው	-9.61458
ፌ	-9.61532
ማናቸው	-9.61785
ያሳ	-9.61828
ልብሱን	-9.61845
ታላቁ	-9.61935
ሂዱ	-9.62031
ተራሮች	-9.62053
አድርገው	-9.6216
ያሉትን	-9.62334
በፊት	-9.62595
ቢያ	-9.62602
መስ	-9.62865
ሁለቱን	-9.62949
ዖ	-9.6295
ኃጢአተኞች	-9.6298
መቃብር	-9.62989
ገል	-9.63038
ተራ	-9.6313
ፈቃድ	-9.63311
ጠርቶ	-9.63371
ጓ	-9.63475
ለንጉሡ	-9.63553
ጩ	-9.63942
ኤልያስ	-9.63998
ብረት	-9.64079
በትር	-9.6411
ተዋ	-9.6413
ቦታ	-9.64332
ደረሰ	-9.64378
ዳን	-9.64414
ዞ	-9.64432
ሺ	-9.64509
ያላ	-9.64547
የሚቃጠለውን	-9.64913
ወደዚህ	-9.64913
ማድረግ	-9.64914
እምነት	-9.64981
ላቸውም	-9.65
የአ	-9.65105
ይጠ	-9.65202
ኃጢአትን	-9.65212
ምድርን	-9.65263
ራል	-9.65327
ሕዝቤ	-9.65409
ተናገሩ	-9.65416
ደረ	-9.65576
ዬን	-9.65797
ቀመጥ	-9.65871
ኢዮርብዓም	-9.65893
ጮኹ	-9.65893
ጠር	-9.65939
ወርዱ	-9.66001
ጋሻ	-9.66038
ከይሁዳ	-9.66105
በባሕር	-9.6621
የነበሩትን	-9.66281
ቆመ	-9.66406
ሮች	-9.6643
ደረግ	-9.66461
በቀ	-9.66577
አዳ	-9.66653
ሳሉ	-9.66717
መቅደሱ	-9.6673
ርቅ	-9.6681
ሳለሁ	-9.66859
ጠብ	-9.67075
ካህን	-9.67395
ጅ	-9.67443
ካል	-9.67568
ያዝ	-9.67634
ሁሉን	-9.67686
በመካከላቸው	-9.67883
አልዓዛር	-9.67883
ታደርጉ	-9.6789
ፈቀቅ	-9.67898
ተጠ	-9.67917
እነዚያ	-9.6795
ጥላ	-9.6813
እያሉ	-9.68176
ሰጡ	-9.68297
ወደቀ	-9.68319
ረገ	-9.68372
ያዘ	-9.6881
ውሰድ	-9.68896
በሕዝቡ	-9.6904
የምታ	-9.69112
አዘዘ	-9.69598
ርኵሰት	-9.69914
ልቅሶ	-9.69915
መሬት	-9.69922
ወዲያ	-9.6995
አባትህ	-9.7009
በውኃ	-9.70183
አንተን	-9.70201
ልክ	-9.70272
ውጡ	-9.7059
ሆነች	-9.70635
ማለሁ	-9.70639
ለሕዝቡ	-9.70675
ቃሉን	-9.70722
ኬ	-9.70751
የሚል	-9.70813
ለኝ	-9.70933
ኖረ	-9.70944
በዙሪያው	-9.70957
ደጅ	-9.71113
ዎቹን	-9.71171
መቼ	-9.71187
ፍርድን	-9.71242
ያሉት	-9.71297
ቻችሁ	-9.71458
አለችው	-9.71495
ሌሎች	-9.7159
ኵ	-9.71696
የባቢሎን	-9.71927
ወዲያው	-9.71949
ታውቃላችሁ	-9.71986
ዙፋን	-9.71994
ቶአል	-9.72061
የዳዊት	-9.7224
ሰዎቹ	-9.72255
በብዙ	-9.72296
በኢየሱስ	-9.72349
ለዳዊት	-9.72409
አንዱን	-9.72598
ባየ	-9.72688
ማደሪያ	-9.72994
ገደለ	-9.72994
ሰዓት	-9.7304
ነቢይ	-9.73046
ስምንት	-9.73064
ጠል	-9.73078
በጌታ	-9.73081
ራብ	-9.73095
ወጥ	-9.73162
ጮኸ	-9.73287
በዓል	-9.7334
ሞላ	-9.73599
በአ	-9.73674
አቸዋል	-9.7372
ግድ	-9.74039
ራት	-9.74076
ጊ	-9.7409
ባሪያዎችህ	-9.74225
ወርድ	-9.7444
መልክ	-9.74506
ቃሉ	-9.74843
ምክር	-9.75124
ዐ	-9.75163
ፍጻሜ	-9.75178
ወንድም	-9.75428
ጠላት	-9.75488
ችም	-9.75495
ግፍ	-9.75676
ተመለሰ	-9.75708
ኖች	-9.75767
በፍጹም	-9.75809
ልኮ	-9.76026
እህል	-9.76108
ወፎች	-9.76265
ስጦታ	-9.76272
በርሳቸው	-9.76285
ይዘ	-9.76295
ወሬ	-9.76381
ሥልጣን	-9.76456
ይሁኑ	-9.76533
የነበሩ	-9.76535
ሃቸው	-9.7654
ጽኑ	-9.76544
ይቱ	-9.76958
ዎ	-9.77035
ጠፉ	-9.77077
ሰውን	-9.77116
በሰማ	-9.77128
በልቡ	-9.77213
ኛለህ	-9.77229
የተቀደሰ	-9.77244
ጠጡ	-9.77258
አራዊት	-9.77364
አክዓብ	-9.77364
የነበሩት	-9.77394
በላቸው	-9.77399
ባር	-9.77506
በአሥራ	-9.77901
በእጅህ	-9.77933
ስን	-9.78073
መጀመሪያ	-9.78187
ከእርስዋ	-9.78591
ፍየል	-9.78612
ይላሉ	-9.78841
ለሰው	-9.78867
በከንቱ	-9.78953
ሄ	-9.79031
ሰማያት	-9.79049
ወቅ	-9.79151
ለቅ	-9.79226
ጢ	-9.79306
ምድሪቱን	-9.79338
ኋችሁ	-9.79378
ጋት	-9.79447
ነፍሴን	-9.79588
ፍርሃት	-9.79604
ዕለት	-9.79721
በፊታቸው	-9.79946
በረከት	-9.80067
ልቡ	-9.80123
ንጉሡን	-9.80237
ይህችን	-9.80479
ግብጽ	-9.80662
መንጋ	-9.80663
ቆም	-9.80668
መጨረሻ	-9.80735
ወደዚያ	-9.80735
ራእይ	-9.80817
የሚያስ	-9.80845
በራሱ	-9.80877
ብታ	-9.8088
በእኛ	-9.80898
ቦች	-9.80905
ለሽ	-9.81177
መሰምርያዋ	-9.8129
አፌ	-9.81332
ጆ	-9.81381
ድሀ	-9.81417
ብራ	-9.81431
ደርስ	-9.8147
በዳዊት	-9.81559
ይስሐቅ	-9.81772
ልጁን	-9.81827
ሊቀ	-9.81853
ፊተኛው	-9.81885
ኤዶምያስ	-9.81887
ከማ	-9.81901
ግንብ	-9.81967
የብር	-9.81992
ሜዳ	-9.82267
ባቸውን	-9.82331
ሰፈር	-9.82356
ወግ	-9.82488
ደግ	-9.82546
የያዕቆብ	-9.82594
ነውን	-9.82746
ይቀ	-9.8297
አዲስ	-9.83049
ልቤ	-9.83072
አው	-9.83293
ተሰበሰቡ	-9.83364
ተገለጠ	-9.83566
በመንፈስ	-9.83584
ሞዓብ	-9.83608
ካለው	-9.83692
ማታ	-9.83705
ባትም	-9.83821
ናቡከደነፆር	-9.84224
ተዉ	-9.84259
በሬዎች	-9.84268
ላሉ	-9.84299
ልሃለሁ	-9.84339
በኵር	-9.84546
ሆናችሁ	-9.84593
ቈር	-9.84627
በዮርዳኖስ	-9.84833
ነሡ	-9.84836
የዚያን	-9.84842
ዘሩ	-9.85079
አቸውም	-9.85107
ይወጣል	-9.85435
ዳል	-9.85611
ወለደች	-9.85703
ሚችል	-9.85852
ቀበል	-9.85987
አመጡ	-9.86068
ተቀ	-9.86124
በሬ	-9.86176
ኅ	-9.86197
ጤ	-9.86616
ሰረገላ	-9.8662
ቢኖር	-9.86631
ዳንኤል	-9.86664
ንስ	-9.87299
ዘራ	-9.87302
አውቃለሁ	-9.8784
ፈረሶች	-9.87842
በስተ	-9.87913
ቀድሞ	-9.87917
እውቀት	-9.88078
ብል	-9.88159
ሳቸው	-9.88198
ፈልጉ	-9.88222
ቶቹ	-9.88437
ራለሁ	-9.88446
ሶች	-9.88538
ወንድሙ	-9.88556
ጥር	-9.88569
ተነሡ	-9.88579
ዘወትር	-9.89073
መግቢያ	-9.89077
ማት	-9.89179
ታዩ	-9.89325
ነጻ	-9.89396
አሦር	-9.8945
በሰባተኛው	-9.89612
ከሕዝቡ	-9.89669
ጥል	-9.90126
የነበረው	-9.90283
ፈልግ	-9.90327
ማስ	-9.90337
ወዳለው	-9.9034
ታውቁ	-9.90372
ፈንታ	-9.90635
ካሉ	-9.90734
ባሪያዎቹ	-9.90835
ጣት	-9.90879
ዳሩ	-9.90919
ቍጣው	-9.91037
ራችሁ	-9.91105
ልጆቹን	-9.91132
የሚሆን	-9.91171
ድር	-9.91187
ሰደደ	-9.91269
ቻለሁ	-9.91287
ያልፍ	-9.9138
ራራ	-9.91398
ወረ	-9.91452
ሦስቱ	-9.91589
ጠቦት	-9.9159
ማስተዋል	-9.91598
በፍታ	-9.91604
ሚዛን	-9.91657
ዝናብ	-9.91738
በምት	-9.91838
ሙት	-9.92006
ታም	-9.92034
ነቱ	-9.92177
ማለ	-9.92205
ጽዮን	-9.92381
ወንጌል	-9.92388
ኢየሱስን	-9.92418
እሰ	-9.92513
አገባ	-9.92515
ሠራው	-9.92601
ተረ	-9.92609
በረ	-9.92726
ቃሌን	-9.92736
ይፈ	-9.92808
በኣል	-9.92844
መድኃኒት	-9.92871
አባቶቻችን	-9.92871
ኢዮሣፍጥ	-9.92871
ኢ	-9.9296
ቀመጡ	-9.93016
ሰነፍ	-9.93024
ባዩ	-9.93034
በሩ	-9.93249
ደድ	-9.93407
ልሃል	-9.93582
ዳቸው	-9.9371
ለታል	-9.93728
አይቶ	-9.93814
ነገሩ	-9.93877
ሻለሁ	-9.94058
ከለዳውያን	-9.94169
ምሕረቱ	-9.9417
ሰረገሎች	-9.9417
ፋሲካ	-9.9417
ሸሹ	-9.94214
በሆነ	-9.94245
ጽድቅን	-9.94527
ትሆን	-9.94593
ከሰው	-9.94728
ከግብጽ	-9.94801
ሙታን	-9.94941
ችሁን	-9.95015
በከተማይቱ	-9.95042
ለእነርሱ	-9.95146
ላችኋል	-9.95401
የሠራ	-9.95477
ማኅበሩ	-9.95485
ወንድምህ	-9.95614
ጠባ	-9.95628
አደርግ	-9.95672
አለሁ	-9.95695
አሕዛብን	-9.95764
ቸዋለህ	-9.95894
ህና	-9.95954
ስሜ	-9.96006
የመ	-9.96114
ቴን	-9.96185
ጠሩ	-9.96381
ምሥራቅ	-9.96708
ጠጕር	-9.96819
ጸሎት	-9.96819
ወንድሞቹ	-9.96924
አሮንን	-9.96937
ገብቶ	-9.96983
በመጣ	-9.97077
ሸሸ	-9.97237
በምን	-9.97437
ቀው	-9.97499
አገኘ	-9.97522
ይሆኑ	-9.97543
ሳት	-9.97567
ኋላ	-9.97641
ተመ	-9.97735
ዘላለም	-9.97753
ጣፋጭ	-9.9817
እባክ	-9.98198
ወራ	-9.98278
ይሰጣል	-9.98281
ትሆናለች	-9.98331
ጠራው	-9.98376
ኤፍሬም	-9.98543
ባሪያዬ	-9.98626
ስሙን	-9.98659
ታው	-9.98689
አራተኛው	-9.9877
ሰለ	-9.99014
ለኃጢአት	-9.99051
ዳችሁ	-9.99072
ሌላው	-9.99281
ተጻፈ	-9.99302
ጋድ	-9.99355
ከሆነ	-9.99381
አታል	-9.99408
ነቅ	-9.99444
ቀረቡ	-9.99456
አድርጌ	-9.99516
ልጆቻችሁ	-9.9954
መላእክት	-9.9954
ዳግመኛ	-9.9954
አሳልፌ	-9.9954
ደጃፍ	-9.9954
ስድሳ	-9.99541
ሕልም	-9.99558
ሥራው	-9.9958
በሁለተኛው	-9.99681
ተሰ	-9.99978
ዔሳው	-10.0004
ሚስቱ	-10.0015
ቀኑ	-10.002
ኤሊ	-10.0021
ላቸውን	-10.0022
በዙ	-10.003
በደቡብ	-10.0031
ከተማይቱ	-10.0033
አልጋ	-10.0036
ጡት	-10.0057
የተሠራ	-10.0068
ነገርን	-10.007
ያውቁ	-10.0083
ሳን	-10.009
ሊባኖስ	-10.0093
ዛፎች	-10.0093
አገልግሎት	-10.0099
ታለች	-10.0145
ክብሩ	-10.0154
ያም	-10.0164
ጦር	-10.0167
አሜ	-10.0167
ስጡ	-10.0179
ሰማሁ	-10.0189
ባልንጀራ	-10.019
ስላል	-10.0195
ረዱ	-10.0199
ዕጣን	-10.0201
ሰንበት	-10.0202
መቱ	-10.022
ገር	-10.0221
አምላካቸው	-10.0234
ቅሬታ	-10.0234
አምላኩ	-10.0235
ሁኑ	-10.0242
በሉት	-10.0253
የጌታ	-10.0255
እንዳዘዘው	-10.0256
የታመነ	-10.0268
ዘዝ	-10.0278
ከመ	-10.0283
ወድድ	-10.0284
ችሁም	-10.0288
የይሁዳን	-10.029
ታችን	-10.0292
ወደሚ	-10.0294
ሠራዊቱ	-10.0298
አጠፋ	-10.0302
ሦስተኛው	-10.0325
ሽቱ	-10.033
አፈር	-10.0336
ማርያም	-10.034
የበግ	-10.0342
ወዳ	-10.0349
በግብጽ	-10.0349
ቸርነት	-10.0358
ግራ	-10.0359
ተደረገ	-10.0372
ሠዋ	-10.0376
ማኅበር	-10.0377
ሲኦል	-10.0377
አለቆቹ	-10.0377
አረ	-10.0379
ሳችሁ	-10.0382
ኙ	-10.0386
እስ	-10.0389
ቃቸው	-10.0394
በሥጋ	-10.0396
ደው	-10.0406
በራ	-10.0411
ዱር	-10.0419
ይሠራ	-10.0425
ግቡ	-10.0431
ራሴ	-10.0431
ጻድቃን	-10.0433
መለሱ	-10.0434
ጣለ	-10.0436
መጋረጃ	-10.044
ሬሳ	-10.0465
ማቸው	-10.0466
ታይ	-10.0468
እንድን	-10.0475
ለሚቃጠል	-10.0478
ጽና	-10.0495
ሰጠኝ	-10.0501
ለፊት	-10.0504
በእምነት	-10.0514
ሆድ	-10.0514
አሞራውያን	-10.0522
ጀመር	-10.0524
ዘጠኝ	-10.0525
ዘን	-10.0526
ተነሥተው	-10.0531
ባልዋ	-10.0535
ነቀ	-10.057
በገባ	-10.0579
ገኛ	-10.0594
ነፍ	-10.06
ዊ	-10.0603
በሙሴ	-10.0612
ሰባቱ	-10.0613
የንጉሡ	-10.0614
ፍረ	-10.0634
በአንቺ	-10.0636
ለዚህ	-10.0648
ፀ	-10.0662
ሆንህ	-10.0663
እውነተኛ	-10.0669
እንዳደረገ	-10.0669
ጩኸት	-10.0669
ሴኬም	-10.0669
ምናልባት	-10.0669
ያውቃሉ	-10.0669
ድንበር	-10.0673
ኪ	-10.068
ያመጡ	-10.0683
ምስል	-10.0715
ናገሩ	-10.0717
አራቱ	-10.0737
መልሳ	-10.0741
ሰጥቶ	-10.0748
የአገሩ	-10.0748
ገደሉ	-10.075
በቅ	-10.0779
እጅህን	-10.0784
ጻ	-10.0787
ያዙ	-10.079
ኃጢአቱ	-10.0818
ዪ	-10.0818
ዓሣ	-10.0826
ገራቸው	-10.083
ኃጢአተኛ	-10.0831
የሚያደርግ	-10.0849
ጽዋ	-10.0853
የተቈጠሩ	-10.0854
እስክ	-10.0857
ራቁ	-10.0862
ነፍሱን	-10.0862
ታቸውን	-10.0892
በጽድቅ	-10.0895
ነገረው	-10.0921
ታደርግ	-10.0924
ልባቸው	-10.0934
የሚኖሩ	-10.0939
የምን	-10.0958
ሔ	-10.0967
ጾ	-10.0969
እንስሶች	-10.0969
ዱቄት	-10.0969
መሐላ	-10.0969
ጠቢብ	-10.0969
ኀዘን	-10.097
ሰማያዊ	-10.097
ወጥተው	-10.0973
ስምህ	-10.0986
ሰላምታ	-10.0996
ድንቅ	-10.1003
ማለት	-10.1009
ምንጭ	-10.1025
መልካሙን	-10.1028
ተናገርሁ	-10.1036
በመገናኛው	-10.1047
ነገረ	-10.1056
አኖረ	-10.1058
በሦስተኛው	-10.1069
ፈረሰ	-10.1071
በምሥራቅ	-10.1075
ይበላ	-10.1091
ደመና	-10.1097
ፈረ	-10.1099
አህያ	-10.1113
ተኞች	-10.1116
ኪሩቤል	-10.1123
አንደኛው	-10.1123
ወንድሞቻቸው	-10.1123
እሰጣለሁ	-10.1124
ተናገራቸው	-10.1124
የሚሆነውን	-10.1125
ሌሎችን	-10.1125
አድርጋ	-10.1126
አይሆንም	-10.1127
ቂጣ	-10.1129
ኢዩ	-10.1129
እላለሁ	-10.1132
አጥ	-10.116
ወስደ	-10.1175
ከኢየሩሳሌም	-10.1191
ሪያ	-10.1195
ሆኖአል	-10.1203
ፈሪሳውያን	-10.1223
በባቢሎን	-10.1279
ሌዋውያኑ	-10.1279
ሴዴቅያስ	-10.1279
ርዝመቱ	-10.1279
አእምሮ	-10.1279
ወጥመድ	-10.1279
ወይፈን	-10.1281
አብራም	-10.1282
ወፍ	-10.1282
ሰቡ	-10.1283
ራሉ	-10.1286
አምስተኛው	-10.1294
ራሳቸውን	-10.1297
ይወ	-10.13
ሣር	-10.13
በደስታ	-10.1343
የኢየሱስ	-10.1343
ፍጹም	-10.1346
ምሕረት	-10.1347
ነድ	-10.1348
ቻቸውን	-10.1351
በሰሜን	-10.1351
ፍራ	-10.1355
ቃችሁ	-10.136
ስማቸው	-10.1362
ታመን	-10.1362
የከበረ	-10.1362
ተባት	-10.1362
ፈርድ	-10.1363
ቶቻቸው	-10.1369
ያደረገውን	-10.1371
ወሰዱ	-10.1377
ስለሚ	-10.1382
በሰንበት	-10.1383
ሰማርያ	-10.1393
ስድብ	-10.1398
ዓይንህ	-10.14
ላባ	-10.1401
ቅርብ	-10.1418
ክፉዎች	-10.1419
ምናሴ	-10.1425
እሄዳለሁ	-10.1438
እንግዶች	-10.1438
አበኔር	-10.1438
እንግዳ	-10.1441
ጻፍ	-10.1444
ክር	-10.1469
ይለዋል	-10.1472
ችንን	-10.1487
ላቸዋል	-10.1493
በመጀመሪያው	-10.1508
ገለጥ	-10.1526
ኃ	-10.1548
በሜዳ	-10.1567
ደዌ	-10.1568
ጥበብን	-10.157
ዚ	-10.1576
ቀርብ	-10.1578
ያው	-10.1583
ሁህ	-10.159
ድኑ	-10.1591
ብርቱ	-10.1597
ሸሽ	-10.1599
ትዕቢት	-10.1599
ክርስቲያን	-10.1599
ግብፃውያን	-10.1599
ጠቦቶች	-10.1599
መክሊት	-10.1599
በለዓም	-10.16
ጠላቶቼ	-10.16
ግምጃ	-10.1601
የንጉሡን	-10.1602
ንስሐ	-10.1603
ቀርበው	-10.1604
ርጉ	-10.1607
ቸር	-10.161
ወደደ	-10.1616
ኋት	-10.1625
በላዩ	-10.1643
እለምን	-10.1647
ሽታ	-10.1655
ተመልሶ	-10.167
ጭን	-10.1692
ወገ	-10.1696
ባቸዋል	-10.1696
ጹ	-10.1706
ጥን	-10.1714
አነሣ	-10.1718
በልባቸው	-10.1723
መሠዊያው	-10.1724
ገኙ	-10.1733
እንዳዘዘ	-10.1737
በሰሙ	-10.175
የሆነው	-10.1757
በየወገናቸው	-10.1763
አመስግኑ	-10.1763
ሕያዋን	-10.1763
ውኆች	-10.1763
ሐሤት	-10.1763
አጋንንት	-10.1763
ኢዮብ	-10.1763
ኖኅ	-10.1766
ደሙ	-10.1767
ጠቅ	-10.1777
ዘመ	-10.1778
በቀል	-10.1779
ወረዱ	-10.1793
የሚቃጠል	-10.1794
አይተው	-10.1803
ረድ	-10.1823
በሮች	-10.1833
ደቡብ	-10.1837
ያገለግሉ	-10.1846
ሕዝቤን	-10.1854
ጁ	-10.186
ግብፅ	-10.1862
ያደ	-10.1864
መጣው	-10.1877
መዝ	-10.188
አባቶቻችሁ	-10.1891
ሙሉ	-10.1892
ራቅ	-10.1918
ፋቸው	-10.1919
ከፈ	-10.192
ከእነዚህ	-10.1925
ይሰማ	-10.1929
መቅሠፍት	-10.193
መታሰቢያ	-10.193
በእርግጥ	-10.193
ዓመፅ	-10.193
በላያቸው	-10.1931
ኖረው	-10.1933
ሁትን	-10.1943
ተጽፎአል	-10.1944
ዕረፍት	-10.1946
አባቶች	-10.1954
ዕድሜ	-10.1962
ሕዝብህ	-10.1964
ገነት	-10.1975
ወደቁ	-10.1976
አቀረበ	-10.1978
ዘርህ	-10.1985
ባላ	-10.2009
ሰጣችሁ	-10.2014
እግሩ	-10.2035
በዚያች	-10.2041
ገሊላ	-10.2044
የአሦር	-10.2048
ብላችሁ	-10.205
ለእኛ	-10.2056
ወስደው	-10.2067
ጠላ	-10.2081
ማኅፀን	-10.21
መርዶክዮስ	-10.21
ተአምራት	-10.21
ትምህርት	-10.21
ቋንቋ	-10.21
ታሪክ	-10.21
ዓይኔ	-10.21
ጸልይ	-10.21
ኃይሉ	-10.21
አምባ	-10.2101
ትቢያ	-10.2101
ትልቅ	-10.2104
ይሻ	-10.2105
እጁ	-10.2113
ደርግ	-10.2115
ወድቅ	-10.2117
ዘወር	-10.2123
ሠር	-10.2135
ሐዋርያት	-10.2136
የሆኑ	-10.2143
አስነሣ	-10.2145
ሩት	-10.2148
ራቀ	-10.2158
ልጆቻቸው	-10.2175
ሁለተኛ	-10.2177
ያመጣ	-10.2177
የአሮን	-10.218
አበዛ	-10.2194
ጠረ	-10.2205
ልብህ	-10.2206
አሞን	-10.2225
ኖሮ	-10.2228
ወቁ	-10.223
ነቴ	-10.2231
ሳም	-10.2235
በመልካም	-10.2238
ፊቱን	-10.2262
ዮች	-10.2262
በወርቅ	-10.2264
የቀረው	-10.2265
a	-10.2272
ጻፎች	-10.2272
መልእክተኞች	-10.2272
ይችላል	-10.2272
አባታችን	-10.2272
ርስቱ	-10.2274
ሶርያውያን	-10.2276
ገበታ	-10.2276
ይመጣሉ	-10.2278
ሳይሆን	-10.2298
በእጃቸው	-10.2306
ተቀበሉ	-10.2311
ክሩ	-10.2312
የእሳት	-10.2318
መልሰው	-10.2319
ብረ	-10.2329
ክራ	-10.2343
ጨው	-10.2344
ባዶ	-10.2349
መቃ	-10.2353
ብላቴና	-10.2355
ለልጆቹ	-10.2367
ብሩ	-10.2373
በሰማርያ	-10.2383
ቅል	-10.2383
ቀስ	-10.2384
ተቀመጥ	-10.239
ከተማይቱን	-10.2395
ላሉት	-10.2415
ቤትህ	-10.2431
አስብ	-10.2433
ብሃል	-10.2444
ኤልሳዕ	-10.2447
ዐውሎ	-10.2447
ይልቁን	-10.2447
ይወድቃሉ	-10.2447
ጢሮስ	-10.2447
ይጠፋል	-10.2448
ስንዴ	-10.2449
ሄዶ	-10.2449
ድም	-10.246
ያዕቆብን	-10.2478
ዮርዳኖስ	-10.2479
በጨለማ	-10.2483
ታላችሁ	-10.2492
ባቸውም	-10.2492
ጣችሁ	-10.2496
ሄደው	-10.2499
ስፍራው	-10.2499
ላለች	-10.2518
ወይኑ	-10.2529
ከነዓን	-10.2533
ዝና	-10.2535
ማለዳ	-10.2544
ላችኋለሁ	-10.255
ብለ	-10.2558
ቲ	-10.2582
ኸውን	-10.259
ዘጋ	-10.2612
ታናሽ	-10.2626
ኢዮስያስ	-10.2626
ይናገራል	-10.2626
ጲላጦስ	-10.2626
ሰይጣን	-10.2626
እግሮች	-10.2626
መምህር	-10.2626
አስቴር	-10.2626
ስንፍና	-10.2626
መርከብ	-10.2626
ማዕዘን	-10.2626
መልሱ	-10.2626
አጠፋለሁ	-10.263
በጉ	-10.2632
ተቀምጠው	-10.2633
ድካም	-10.2636
ልጆችህ	-10.2637
ለካ	-10.2646
ተከተለ	-10.2657
አጸና	-10.2681
እጅህ	-10.2704
እንቢ	-10.2704
ገደሉት	-10.2707
መገናኛው	-10.2712
ሩን	-10.2715
ሰዎችን	-10.2715
ቀሩ	-10.2722
የሰማይ	-10.2724
አልፎ	-10.273
ወስዳ	-10.2733
በለው	-10.2736
ሰምቶ	-10.2736
አማ	-10.2736
ሰጡት	-10.2755
ጫማ	-10.2783
ከአሕዛብ	-10.2802
ወጋ	-10.2805
ኦ	-10.2807
መዝሙር	-10.2808
ታውቃለህ	-10.2808
አይደለሁም	-10.2808
ድንጋጤ	-10.2808
መንግሥታት	-10.2808
ሳዶቅ	-10.2808
ታመኑ	-10.2808
እልፍ	-10.2808
ታደርጋለህ	-10.2808
ኃያል	-10.281
መስገጃዎች	-10.281
በርሳችሁ	-10.2811
ደጆች	-10.2813
ኪያ	-10.2819
አትፍራ	-10.282
የለውም	-10.2828
ነቱን	-10.2828
ከክፉ	-10.2843
ቀባ	-10.2844
በፍርድ	-10.2846
ለአሕዛብ	-10.2879
ከሙታን	-10.2885
የሚገባ	-10.2888
ወንድሙን	-10.2893
ቻችን	-10.2897
የአሞን	-10.2901
ቁም	-10.2911
ፈስ	-10.2922
ተከለ	-10.2934
በዚህች	-10.2935
ዜ	-10.2947
ምሕረትህ	-10.2952
ለያዕቆብ	-10.2967
ውኃው	-10.2977
አገሩ	-10.2988
አቤሜሌክ	-10.2993
ከዋክብት	-10.2993
ኮረብቶች	-10.2993
አይችልም	-10.2993
ይሄዳል	-10.2993
ፈሳሽ	-10.2993
አባታቸው	-10.2994
ፊቴን	-10.2995
መውጫ	-10.2997
ታቀርባ	-10.2999
ዎቻቸው	-10.3001
አጋ	-10.3018
ሳለች	-10.3041
ላኩ	-10.3046
ዋሻ	-10.3054
መባ	-10.3069
የአሕዛብ	-10.307
የተጻፈ	-10.3077
ለራሱ	-10.308
ሶርያ	-10.3093
ይኖር	-10.3094
የካህናት	-10.3108
ለዋል	-10.3117
የክርስቶስ	-10.3122
ኮረብታ	-10.3132
ጮ	-10.3137
ስምህን	-10.3141
ሞገስ	-10.3147
እስክት	-10.3155
አለን	-10.3163
በእነዚህ	-10.3175
ቸነፈር	-10.3182
መኖሪያ	-10.3182
ንፍታሌም	-10.3182
ወንድሞቼ	-10.3182
ዮዳሄ	-10.3182
ድንጋዮች	-10.3182
መጻተኛ	-10.3182
ጠማማ	-10.3182
ምድራቸው	-10.3182
መሰክር	-10.3183
ሰጠን	-10.3186
ያውቃል	-10.3193
አቸውን	-10.3194
ከአንቺ	-10.3194
ታውቅ	-10.3198
በቤት	-10.32
ጌታችን	-10.3208
ተጋ	-10.3216
እውነትን	-10.3227
ዮርዳኖስን	-10.3241
ናታን	-10.3249
ከር	-10.3253
የአንድ	-10.3254
ታደ	-10.3257
ይገባል	-10.3259
ባትን	-10.327
አዩ	-10.3271
ችውን	-10.3271
ይበሉ	-10.3276
መልከ	-10.328
ሠርቶ	-10.3283
ማረ	-10.3291
ለትም	-10.3293
ለቀ	-10.3303
ሰፋ	-10.3315
ነፍሱ	-10.3321
ትተው	-10.3326
ብንያም	-10.3335
ሥራቸው	-10.3337
ብሎአል	-10.3343
ዝን	-10.335
▁	-10.3365
መጣሁ	-10.3369
ሑ	-10.3374
መሠረት	-10.3374
ኢሳይያስ	-10.3374
አንዲቱ	-10.3374
መጥ	-10.3376
አትፍሩ	-10.338
ገለዓድ	-10.3384
ርፍ	-10.3387
እጄን	-10.3393
ሰምተው	-10.3399
ጠጋ	-10.3399
ድህ	-10.3404
ኛላችሁ	-10.3408
በአባቱ	-10.3413
ይመልስ	-10.3416
ሃት	-10.3421
ነጭ	-10.3423
አባቱን	-10.3435
ዓመፃ	-10.344
ቼን	-10.3441
የሚኖሩት	-10.346
ከፍታ	-10.3471
ወለ	-10.3479
የሕይወት	-10.3482
እናት	-10.3489
በጥ	-10.3495
አልሰማ	-10.35
ተፈጸመ	-10.3501
ለእያንዳንዱ	-10.3504
ገደ	-10.3509
ጮኽ	-10.3511
አለፈ	-10.352
ቃልህ	-10.354
ቈጣ	-10.3546
ተገኘ	-10.3552
ሖ	-10.3561
የሳኦል	-10.3562
ያውቅ	-10.3566
ሮብዓም	-10.357
ወንዞች	-10.357
ይናገራሉ	-10.357
ጕልማሳ	-10.357
አትክልት	-10.357
አንሥቶ	-10.357
እኅት	-10.357
አምስቱ	-10.357
እሾህ	-10.357
ገመድ	-10.357
ክርክር	-10.3571
ፍየሎች	-10.3571
ሸክም	-10.3571
ጠይቅ	-10.3572
ፈጽመው	-10.3577
ረሳ	-10.3589
ከአባቶቹ	-10.3595
ጪ	-10.3596
በከተማ	-10.3598
ተነ	-10.36
የነበረ	-10.3608
ከብዙ	-10.3612
አምጡ	-10.3616
አለቃው	-10.362
ብቻውን	-10.362
መንገዱን	-10.3626
ያነሣ	-10.3628
ዱን	-10.3628
አዝ	-10.3637
ተህ	-10.3642
ዓይኖች	-10.365
ደሙን	-10.3652
ነገሩት	-10.3655
ምዕራብ	-10.3677
ተቈጣ	-10.3678
ቅድስ	-10.3681
በቃ	-10.3682
ዝግባ	-10.3688
ጥፋ	-10.3692
ያደረገ	-10.3699
ማቅ	-10.3699
ክፈ	-10.3699
ላችሁን	-10.3712
ቻለ	-10.3722
ተራራው	-10.3735
ታችኋል	-10.3737
ድያ	-10.3757
አባቶቻቸው	-10.3765
ተመለስ	-10.377
ታላላቆች	-10.377
አይደሉም	-10.377
እግሮቹ	-10.377
ዘካርያስ	-10.377
ፈረሰኞች	-10.377
ፍላጻ	-10.377
ሰገዱ	-10.377
ልዑል	-10.377
ይሞታል	-10.377
አሴር	-10.377
አደባባዩ	-10.377
ታናሹ	-10.3771
መዛሙርት	-10.3781
ሞትን	-10.3793
ያይ	-10.3793
ፈረሱ	-10.3793
ሱት	-10.3805
ሎች	-10.3814
ብሉ	-10.3823
ብኛል	-10.3823
ሰሜን	-10.3826
በሐሰት	-10.383
ዕቃውን	-10.3836
የናስ	-10.3847
ኢየሩሳሌምን	-10.3849
ያገኙ	-10.385
ተባለ	-10.3855
ደፍ	-10.3867
ሰላምን	-10.3877
ከሰ	-10.388
ሮቤል	-10.3886
ተወለዱ	-10.391
ከንጉሡ	-10.3913
በጽዮን	-10.3915
ይናገሩ	-10.3918
ፈጥ	-10.3925
ወርቁን	-10.3951
ኢዮራም	-10.3974
እያንዳንዳቸው	-10.3974
ጊብዓ	-10.3974
ድንገት	-10.3974
መፍራት	-10.3974
መዝገብ	-10.3975
ባታል	-10.3975
ታድ	-10.3976
ሰዶም	-10.3977
ባርክ	-10.3982
ይነ	-10.3997
ማሉ	-10.4001
ሸከም	-10.4007
ቅጥሩ	-10.4018
ራለች	-10.4025
ኮረብታው	-10.4028
ጥፍ	-10.4045
ያቸው	-10.4048
ፈቱ	-10.4051
በውጭ	-10.406
አችኋል	-10.4069
ወንዙ	-10.4088
ባሕሩ	-10.4089
ልሽ	-10.4092
ይሄዱ	-10.4094
ጌታው	-10.4097
ለአብርሃም	-10.4097
ከጥሩ	-10.4101
ሚስቱን	-10.4108
ምሕረትን	-10.4138
ኢያ	-10.4145
ብሩን	-10.415
ክፉን	-10.4154
ገዙ	-10.4156
በኃይል	-10.4159
ቈላ	-10.4178
ሥር	-10.4179
ሐሰተኛ	-10.4182
ከነዓናውያን	-10.4182
አንጻር	-10.4182
መላለስ	-10.4183
እፍረት	-10.4183
ልሔም	-10.4183
ጻፈ	-10.4184
እየተ	-10.4185
መዓት	-10.4185
ትሆናለ	-10.4187
አፍህ	-10.4187
አበባ	-10.4189
ነቃ	-10.4189
ዛብሎን	-10.4193
ደመናው	-10.4195
ገብ	-10.4204
ተሸ	-10.4206
መታው	-10.421
ባላቅ	-10.4215
መንደሮችዋ	-10.4233
ማዳን	-10.4233
ነፍስህ	-10.4237
መንገዱ	-10.4241
ሚሆን	-10.425
ይጠብቁ	-10.4273
ጠበቅ	-10.4277
ልጅህ	-10.4299
ኬብሮን	-10.4301
ሰባተኛው	-10.4303
በሰላም	-10.4305
ጀመረ	-10.4306
እጃቸውን	-10.4307
ትሁን	-10.4315
ለዩ	-10.4331
ሕጉ	-10.4338
የእህል	-10.4353
ያቀርቡ	-10.4376
ዓይኖቹ	-10.4395
ጋለሞታ	-10.4395
ራሔል	-10.4395
ተመልከት	-10.4395
ተመለከተ	-10.4395
ገለባ	-10.4396
አዎን	-10.4396
ሞልቶ	-10.4396
ጸልዩ	-10.4398
ጥራ	-10.4402
የሚመስል	-10.4404
ጥልቅ	-10.4405
ነገራቸው	-10.4405
ለዚያ	-10.4407
አድርገህ	-10.4411
ጸኑ	-10.4413
እባብ	-10.4415
ገድል	-10.4416
ክፋትን	-10.4419
ይበላል	-10.4434
አቀረቡ	-10.4436
ሐማ	-10.4445
ፈረስ	-10.4448
ከወሩ	-10.4448
ወስድ	-10.4462
ለልጅ	-10.4463
በእጄ	-10.4465
የአብርሃም	-10.4468
ዝር	-10.4475
የአባቶቻቸው	-10.4481
በመከራ	-10.4485
በመቅደስ	-10.4497
ቀል	-10.4503
በላችሁ	-10.4507
ሁን	-10.4508
ርግብ	-10.4515
ጌት	-10.4535
ነፉ	-10.4546
ምጥ	-10.455
ከወዴት	-10.4551
እውቀትን	-10.457
ያጥ	-10.4573
ድሆች	-10.4575
ተቀበል	-10.4575
ታችሁን	-10.4575
ቀይ	-10.4576
ከለከ	-10.4582
ብሽ	-10.4589
ያደረግ	-10.4598
ያችሁ	-10.4607
ፅ	-10.4612
ሄሮድስ	-10.4613
ኢትዮጵያ	-10.4613
እኵሌታ	-10.4613
ጠቢባን	-10.4613
ችግረኛ	-10.4613
ግልሙትና	-10.4613
ምጽጳ	-10.4613
ቁርበት	-10.4613
እሴይ	-10.4613
ሚስቶች	-10.4613
ሰበሰበ	-10.4613
ነገዶች	-10.4613
ገዥ	-10.4613
የሠራው	-10.4628
ላለሁ	-10.4628
ዓይነት	-10.4629
ሥሩ	-10.4634
ተመልሰው	-10.4638
እያለ	-10.4638
የሰውን	-10.4642
ለፈ	-10.4652
ግብር	-10.4656
በፈርዖን	-10.4658
ተጕ	-10.4681
ቍጣዬ	-10.4684
በለስ	-10.4694
የሰማ	-10.4696
ምድሩን	-10.4696
ከተል	-10.471
የቀሩት	-10.4711
ለሰልፍ	-10.4721
ይፈሩ	-10.4722
ቀላ	-10.473
ነፋ	-10.4735
ጐበ	-10.4735
ልጆቻቸውን	-10.4736
ልያ	-10.4747
ጠራቸው	-10.475
ቀርቦ	-10.4758
ሥጋዬ	-10.4763
በበሩ	-10.4776
የሞዓብ	-10.4776
ዞረ	-10.4794
ለይሁዳ	-10.4803
መዳ	-10.4818
ባችኋል	-10.4821
ያጸና	-10.4822
እባ	-10.4825
ሕፃን	-10.4831
አጠ	-10.4833
መናፍስት	-10.4835
መንገሥ	-10.4835
አርጤክስስ	-10.4835
እኩሌታ	-10.4835
በኵራት	-10.4835
እስማኤል	-10.4835
ዢ	-10.4835
ጨረቃ	-10.4835
ውሰዱ	-10.4835
ሁላችን	-10.4835
ይጠፋሉ	-10.4835
እናንተን	-10.4835
ይባላል	-10.4835
ርስታቸው	-10.4836
ይሻላል	-10.4836
ወተት	-10.4836
አደረግሁ	-10.4837
አባቶችህ	-10.4838
ኢዮአስ	-10.4839
ይመለስ	-10.484
ሆኜ	-10.4845
በድንጋይ	-10.4847
ለምኑ	-10.4853
ጭቃ	-10.4853
አዘዛቸው	-10.4858
ወይራ	-10.4863
ጋችሁ	-10.4863
እንደምት	-10.4865
ሲያ	-10.487
የፈርዖን	-10.487
ታጠፋ	-10.4875
ሳኦልን	-10.4875
የሚናገር	-10.4878
ናውያን	-10.4883
ያለሁ	-10.4884
ጠሩት	-10.4889
ሮአል	-10.4894
ወሩ	-10.4904
በዘይት	-10.4914
ልመና	-10.4914
መከር	-10.4921
ከዳዊት	-10.4931
ህበት	-10.4935
ይደረግ	-10.4942
ኸን	-10.4975
መጠ	-10.498
ከበረ	-10.4984
እይ	-10.4994
ቤቴል	-10.4996
ጣለች	-10.5009
ነታቸው	-10.5013
ወልድ	-10.5021
ይቀመጡ	-10.5022
የሕዝቡን	-10.5031
ትሰጣ	-10.5032
የኢየሩሳሌም	-10.5044
ጣለሁ	-10.5047
ጥቅ	-10.5052
አካዝ	-10.5061
በዓለም	-10.5062
ቤርሳቤህ	-10.5062
እናውቃለን	-10.5062
እናገራለሁ	-10.5062
ሰነፎች	-10.5062
ዓመፀኞች	-10.5062
በስውር	-10.5062
ይሳኮር	-10.5062
ልጆቼ	-10.5062
ቅንዓት	-10.5062
ጽኑዓን	-10.5062
ጣዖት	-10.5062
ይሉ	-10.5063
ተጠንቀቁ	-10.5063
መስማት	-10.5067
ጠበቁ	-10.507
ተማረ	-10.5072
ደብዳቤ	-10.5074
አውሬ	-10.5076
ብላቴናው	-10.5083
አይታ	-10.5084
እርስዋን	-10.5092
ከሩቅ	-10.5103
ታወቅ	-10.5126
ተክ	-10.5131
ፈጸመ	-10.5143
ነበርሁ	-10.5147
ቅር	-10.5148
ያድን	-10.5152
መሆን	-10.5181
በገና	-10.5183
የግብፅ	-10.5183
ያልተ	-10.5187
ማደሪያው	-10.5189
ዓይኖችህ	-10.52
ደረሱ	-10.5208
ትሆኑ	-10.5209
ረስ	-10.521
የአይሁድ	-10.5214
ከፍልስጥኤማውያን	-10.5217
ሠሩት	-10.5228
ሞን	-10.5237
እንድታ	-10.5239
ከፋ	-10.5241
በሞዓብ	-10.5244
ተቀበለ	-10.5248
ማየት	-10.525
ፊትህን	-10.5251
ያስነሣ	-10.5276
ኜ	-10.5284
ጠባቂ	-10.5291
ምሥጢር	-10.5295
እረኞች	-10.5295
ዓመፀኛ	-10.5295
ጌልገላ	-10.5295
ጥበበኞች	-10.5295
ሸክላ	-10.5295
ቀለበቶች	-10.5295
ተመልከቱ	-10.5295
ሠዉ	-10.5295
ግሪክ	-10.5295
መሰንቆ	-10.5295
እረኛ	-10.5295
ፋችሁ	-10.5295
ወዳጅ	-10.5296
እሆናለሁ	-10.5296
ገባዖን	-10.5296
ካለ	-10.5297
ጥዋት	-10.5297
በናያስ	-10.53
ሴሎ	-10.5301
እሳቱ	-10.5303
አድነኝ	-10.5303
አንቀላፋ	-10.5304
ቆሬ	-10.5312
ግዛት	-10.5324
ይጠብቃ	-10.5325
ኮር	-10.5334
በቀን	-10.5336
ናገረው	-10.5337
በክፉ	-10.5345
ተከተሉት	-10.5346
ይዝ	-10.5347
የዚህ	-10.5347
መራራ	-10.5351
አኖሩ	-10.5361
ከብንያም	-10.5362
ለጌታ	-10.5377
ወርዳ	-10.5383
ትቶ	-10.539
አካል	-10.5392
እስካ	-10.5393
በገዛ	-10.5399
ወደዱ	-10.5401
የብንያም	-10.5402
ደኅንነት	-10.5405
የምናሴ	-10.5425
ሥራውን	-10.547
ሰጣት	-10.5475
አድርገ	-10.5477
ጠላቶች	-10.5477
አዘነ	-10.5489
ገራ	-10.549
ናትና	-10.5493
ኃጢአታቸውን	-10.5502
ሡ	-10.5503
ዑ	-10.5533
ጳ	-10.5533
ሚዛኑ	-10.5533
አክሊል	-10.5533
በነጋው	-10.5533
ተንኰል	-10.5533
እሰጥሃለሁ	-10.5533
ዕንቍ	-10.5533
ቀበሩት	-10.5533
ወዳጆች	-10.5533
ክንፍ	-10.5534
ይወጣሉ	-10.5534
ግርማ	-10.5535
ወድቆ	-10.5539
ሌላቸው	-10.554
ቀንዶች	-10.5542
የተባለው	-10.5543
አውድማ	-10.5552
መለሰለት	-10.5552
ማዕ	-10.5556
ሊሆን	-10.5559
ስጥ	-10.5561
በሰልፍ	-10.5573
ጠሉ	-10.5575
ላከኝ	-10.5578
በሁለቱ	-10.5579
ተላ	-10.5583
ጢስ	-10.5595
ልጦ	-10.5601
የኤ	-10.5604
ገደለው	-10.5606
ሞች	-10.5614
ያምኑ	-10.565
ንጻ	-10.5666
በልብህ	-10.5672
በኤፍሬም	-10.5698
ታዘዙ	-10.5698
ጉባኤው	-10.5702
ግንቡ	-10.5706
የከተማይቱ	-10.5707
ባሉት	-10.5727
ከብት	-10.5744
በመቅደሱ	-10.5757
እልል	-10.5759
ሌላውን	-10.5773
ፈቀደ	-10.5776
መንፈሱ	-10.5777
መጋረጆች	-10.5777
የተለወሰ	-10.5777
ጌዴዎን	-10.5777
ምኵራብ	-10.5777
ሰግዱ	-10.5777
ይወድቃል	-10.5777
ይነሣል	-10.5777
አባታችሁ	-10.5777
ተቀበረ	-10.5778
ሰውዮው	-10.5779
ፈጥኖ	-10.5779
አጥንት	-10.5779
መናገር	-10.5779
ነገሮች	-10.5779
ያድርግ	-10.578
ቁመቱ	-10.578
ቈጠር	-10.578
ልኛል	-10.5781
አብረው	-10.5781
ወንድሜ	-10.5783
ተነሥተህ	-10.5786
በላዬ	-10.5789
የፍልስጥኤማውያን	-10.5791
ዋይ	-10.5807
ኃጢአታቸው	-10.5809
የሌለበት	-10.5811
ድብ	-10.5818
ማታም	-10.583
ዝቅ	-10.5832
በመጡ	-10.5833
ታች	-10.5836
በረዶ	-10.5855
በብር	-10.5857
የሐ	-10.5872
ከብር	-10.5873
በጀመረ	-10.5885
የተናገረውን	-10.5885
ሕግን	-10.5893
ይሰጡ	-10.5897
የሚቀ	-10.5908
ቶቻችሁ	-10.5912
ነካ	-10.5915
ያድነ	-10.5931
ቸዋለ	-10.5939
ለአሮን	-10.5947
ባችኋለሁ	-10.596
መጥቶአል	-10.5969
ያደረገው	-10.5979
ዘጋጅ	-10.6
መቀ	-10.6006
ዘዛቸው	-10.6007
ቆሙት	-10.6008
ይገደል	-10.6013
ድንኳኑ	-10.6016
ሦ	-10.602
መልአኩ	-10.6027
አታድርጉ	-10.6027
ዓይኖቼ	-10.6027
መቀመጫ	-10.6027
ኚ	-10.6027
አሜስያስ	-10.6027
ይሄዳሉ	-10.6027
አገሮች	-10.6027
አህዮች	-10.6027
ቃዴስ	-10.6027
መዓቴ	-10.6027
ፈለጉ	-10.6027
ሴይር	-10.6028
ኸኛል	-10.6028
ነደደ	-10.6028
ተሰወረ	-10.6028
ዓረባ	-10.6029
አካዝያስ	-10.6029
የዮሴፍ	-10.603
ራእዩ	-10.6036
መከራን	-10.6042
በመካከላችሁ	-10.605
እንዳይሆን	-10.6058
ደርሶአል	-10.606
ሳር	-10.6066
እዩ	-10.6073
አውቀ	-10.6104
እናቱን	-10.6113
ቀንበር	-10.6119
ሹም	-10.6123
ሰገደ	-10.6125
በየአባቶቻቸው	-10.6136
ዮስ	-10.6156
የሆኑት	-10.6159
በማለዳ	-10.6159
ወዳሉ	-10.6166
አዳም	-10.6171
ያሳድ	-10.6175
ባሪያዎቹን	-10.6185
ለባሪያህ	-10.6185
በሌላ	-10.6196
ቀኙ	-10.6197
ለፍ	-10.6201
ነገሩን	-10.6201
ሥጋው	-10.6204
ከፀሐይ	-10.622
ራስህን	-10.6233
የገዛ	-10.6264
ወቀ	-10.6281
ዓዛርያስ	-10.6283
ሐሴቦን	-10.6283
ሜራሪ	-10.6283
ታላቂቱ	-10.6283
አልቻሉም	-10.6283
አቢሜሌክ	-10.6283
አንዳንዶች	-10.6283
መያዣ	-10.6283
ሶምሶን	-10.6283
ትንሣኤ	-10.6283
ነበልባል	-10.6283
ይመለሳል	-10.6283
ዓመታት	-10.6283
ቀዓት	-10.6284
መርገም	-10.6284
ሀብት	-10.6284
ፈጠረ	-10.6286
ቃሎች	-10.6287
ተሰብስበው	-10.6289
ዘምሩ	-10.6289
መሠዊያውን	-10.6291
አስተዋይ	-10.6299
ይበላሉ	-10.63
ገልጥ	-10.63
እናቴ	-10.6312
ስእለት	-10.6317
እንዲሆኑ	-10.6322
ዕዳ	-10.6324
ጥሉ	-10.6328
ወሰደው	-10.6329
ወስ	-10.6341
በቤተ	-10.6351
የሚሄድ	-10.6358
በረከ	-10.636
ጣቸው	-10.6361
ችኋቸው	-10.6361
ገደል	-10.6363
ይላቸዋል	-10.6364
የሌዊ	-10.6367
ውረድ	-10.6369
ከፈተ	-10.6374
ወሰዱት	-10.6383
ያጠፉ	-10.6387
በሕግ	-10.6389
መንግሥቱ	-10.6398
ካችሁ	-10.6404
ይመጣ	-10.6406
ክፉውን	-10.6414
በከነዓን	-10.6418
በእርሻ	-10.6424
መከተል	-10.6441
ትእዛዙን	-10.6449
ጸሐፊው	-10.645
መልሰ	-10.6451
ደማስቆ	-10.6452
ጠላቶቻቸው	-10.6453
የሚኖር	-10.6469
ቀስት	-10.6475
ተከተሉ	-10.6494
አባትዋ	-10.6496
ረፈ	-10.6497
በልቤ	-10.6502
ፍሩ	-10.6514
ረሱ	-10.6522
በራብ	-10.6532
መቅ	-10.6534
በደረሰ	-10.6536
ሒ	-10.6546
መጐናጸፊያ	-10.6546
ሰልፈኞች	-10.6546
ወኅኒ	-10.6546
ግብዣ	-10.6546
ሕይወቱ	-10.6546
ሕፃናት	-10.6546
አይደለችም	-10.6546
እመልሳለሁ	-10.6546
ወንድሞቻችሁ	-10.6546
ፊልጶስ	-10.6546
ፈቃዱ	-10.6546
ሸማያ	-10.6546
አለቀሰ	-10.6546
ርኵስ	-10.6546
ቍስል	-10.6546
ባለጠግነት	-10.6547
መብራት	-10.6548
የእህሉን	-10.6548
ይሄድ	-10.6549
ፈለገ	-10.6549
ምስክሮች	-10.655
አውቆ	-10.6552
አርነት	-10.6552
ድንበሩ	-10.6553
ያደርጋሉ	-10.6555
ትኖራለ	-10.6556
ያደርጋ	-10.6558
ስድስተኛው	-10.656
አጥብ	-10.6561
ሣራ	-10.6564
ባልንጀራውን	-10.6566
ይበል	-10.6572
የተቀደሰውን	-10.6575
አንገት	-10.6583
ጌጥ	-10.6584
ጫፍ	-10.6586
በቀኝ	-10.659
ታለህ	-10.6597
ልጆችዋ	-10.6602
በተራራማው	-10.6608
ባልንጀራህ	-10.661
ጥርስ	-10.6615
በዙፋኑ	-10.6628
ነዋል	-10.6628
ይቱን	-10.6634
ነትን	-10.6636
እንባ	-10.6636
ሐማት	-10.6638
ቆማ	-10.6638
መግ	-10.6651
ቅድስና	-10.6661
ጋል	-10.6664
ራሳቸው	-10.6666
ራሳችሁ	-10.6671
በምዕራብ	-10.6671
ትሰማ	-10.6672
አሰበ	-10.6676
እግርህ	-10.6679
ሎጥ	-10.6679
ላለው	-10.6683
ቡት	-10.6694
ኢያሱን	-10.6698
ከነበሩት	-10.6716
በመጀመሪያ	-10.6721
ከረ	-10.6726
ሌዊ	-10.6731
በስሜ	-10.6735
መንግሥ	-10.6736
ላቸዋለሁ	-10.6754
ተቀደሱ	-10.676
መረጠው	-10.676
በሰማያት	-10.6769
የሚሰማ	-10.6773
አወ	-10.6774
ልባችሁ	-10.6779
መጣች	-10.6785
ወለድ	-10.6798
በፍቅር	-10.6813
ኢዮአቄም	-10.6816
ምናምንቴ	-10.6817
ቅዱሳኑ	-10.6817
በፊታችሁ	-10.6817
ካሌብ	-10.6817
ዕውር	-10.6817
ሴዎን	-10.6817
ስጠኝ	-10.6817
እናትህ	-10.6818
ጠይቁ	-10.6818
ጸለየ	-10.6818
ዓምድ	-10.6819
ድዳለሁ	-10.6819
አታውቁም	-10.682
ከማቹ	-10.6821
ክምር	-10.6822
የኢ	-10.6823
የሚበልጥ	-10.6826
ዔሊ	-10.6834
የጌታን	-10.6834
ሐናንያ	-10.6839
ሎአል	-10.684
የሚቀመጡ	-10.6845
ከሩ	-10.6846
ዶች	-10.6848
ባለችው	-10.6849
አይሁን	-10.685
አሉአቸው	-10.6856
ለራሳቸው	-10.6856
የተወለደ	-10.6863
ሞገስን	-10.6866
ዓለት	-10.687
በወጣ	-10.6885
ጠራሁ	-10.6891
በደኅና	-10.6895
ይቀመጥ	-10.6904
ፈጽም	-10.6907
ለሞት	-10.6915
የሮቤል	-10.6935
ቃሌ	-10.6936
ክርስቶስን	-10.6938
ኪዳኔን	-10.6943
ኑሮ	-10.6968
የሚበላ	-10.6993
ፍርዴን	-10.6997
ይኸው	-10.6998
አንገ	-10.7001
ቅረብ	-10.7001
ለይ	-10.7002
ዘመኑ	-10.7008
ቀማ	-10.7054
ሰምተ	-10.7057
ሁላቸው	-10.7058
ጐድ	-10.7071
በሕዝቤ	-10.7079
ቀጥ	-10.7081
እንዳላ	-10.7084
አደርጋ	-10.7091
ዒ	-10.7094
መሣሪያ	-10.7094
አንዳንዶቹ	-10.7094
ጨነቁ	-10.7094
ራሳችን	-10.7095
አደራ	-10.7095
አይገኝም	-10.7095
ምስሎች	-10.7095
ረጅም	-10.7095
ይለኛል	-10.7096
አይሁዳዊ	-10.7096
ያልሆነ	-10.7096
አመድ	-10.7097
ከተሞቻቸው	-10.7098
ራውያን	-10.7099
እጆች	-10.71
መግባት	-10.7104
ላሞች	-10.7109
ጫንቃ	-10.7109
የቀረውን	-10.7111
እወቁ	-10.7114
ገብተው	-10.7116
የሚሠራ	-10.7124
ከበቡ	-10.7129
ፈሰሰ	-10.714
አጽና	-10.7146
ሠሪ	-10.7148
ደዌው	-10.7156
ያለችው	-10.7164
ቀቅ	-10.7166
ይናገር	-10.7173
የሚሉት	-10.7178
ቃጠል	-10.7181
ራስህ	-10.719
ላክ	-10.7193
ከዘላለም	-10.7201
እጄ	-10.7212
ያወጣል	-10.7216
ሰጥቼ	-10.7221
ደሰ	-10.724
መረጠ	-10.7249
ይመጡ	-10.7252
ዳሉ	-10.7252
የመቶ	-10.7264
የጽዮን	-10.7286
በሦስት	-10.7287
አድርጎአል	-10.7296
በሁለት	-10.7298
መከራዬ	-10.7305
ፈጸም	-10.7307
መኝ	-10.731
ለበጠ	-10.731
ቀዋል	-10.7321
ሚናገሩ	-10.7332
ቼአለሁ	-10.7349
ይውጣ	-10.7356
ኃይልህ	-10.7363
ረዋል	-10.7374
ሰል	-10.7376
ዘጋጀ	-10.7378
ትእዛዛት	-10.738
ኃጢአታችሁ	-10.738
አደርገዋለሁ	-10.738
ድንጋዩ	-10.738
መዝጊያ	-10.738
እናደርጋ	-10.738
እጆቹ	-10.738
አሞጽ	-10.738
ድንግል	-10.738
ይወስዳል	-10.738
ትላለህ	-10.738
በደለኛ	-10.738
ኃፍረ	-10.7381
ከበር	-10.7385
ለሰሎሞን	-10.7386
አንበጣ	-10.7387
ስርየ	-10.7387
ገረኝ	-10.7395
ወልደ	-10.7398
ምግብ	-10.74
ትዕግሥት	-10.7401
መስለው	-10.7401
ሩአቸው	-10.7403
አዘጋጀ	-10.7406
አሳልፈው	-10.7407
ሰብክ	-10.7408
ነበረበት	-10.7428
መልኩ	-10.7429
ሠራተኛ	-10.7449
ለወንድሞቹ	-10.7464
በአምላካችን	-10.7482
ይሰጥ	-10.749
ቀበለው	-10.7496
ከኤፍሬም	-10.7498
ገባቸው	-10.75
ናለህ	-10.7504
መታቸው	-10.7506
በተራራው	-10.7516
መዳን	-10.7531
ቤቴ	-10.757
ይፈልጉ	-10.7581
ደል	-10.7582
ያበራ	-10.7583
አቆመ	-10.76
ሰበሰቡ	-10.7603
ራለህ	-10.7604
መስክ	-10.7604
አሳፍ	-10.7609
ዳስ	-10.7609
ተማሩ	-10.7611
እንደሆነ	-10.7624
ፊታቸው	-10.7629
ዓይኑ	-10.7636
ያስፈልገ	-10.7641
በግራ	-10.7663
ሐናን	-10.7666
ባስ	-10.7673
ብፁዓን	-10.7674
ብዝበዛ	-10.7674
እንቅልፍ	-10.7674
𐋇	-10.7674
ትበላላችሁ	-10.7674
ያስተምር	-10.7674
ኪራም	-10.7674
መልእክተኛ	-10.7675
አሸዋ	-10.7675
በአምላክህ	-10.7676
ታወቀ	-10.7677
ያደርገው	-10.768
ሄዳችሁ	-10.768
ሳንቃ	-10.7681
ሕሊና	-10.7685
አብያተ	-10.7692
ምድሩ	-10.7698
ውዴ	-10.77
ብትሆን	-10.7707
ጫኑ	-10.771
ይሰጣ	-10.7712
ይጠራ	-10.7714
እንዳስ	-10.7725
ይሠራል	-10.7726
የተስፋ	-10.7727
ጠላቶችህ	-10.7738
ቍረ	-10.774
ቸል	-10.7745
ሰማችሁ	-10.775
ርሱ	-10.7751
መንግሥቱን	-10.7756
ከሰሜን	-10.7756
ያገባ	-10.7764
ርቆ	-10.7765
ያጠፋል	-10.777
ፈልገው	-10.7774
የዓ	-10.7774
ለእህል	-10.7781
ያያል	-10.7783
ቀርቦአል	-10.7783
የደኅንነት	-10.7785
ለሌሎች	-10.7786
ወንጌልን	-10.7787
ደረቀ	-10.7791
ሚሆነው	-10.7792
ተሰማ	-10.7792
ከከተማይቱ	-10.7794
ፈተና	-10.7795
ብላቴናውን	-10.7797
ያለበትን	-10.7803
የሶርያ	-10.7808
ኪዳኑን	-10.781
ተሰብ	-10.7814
ለፈርዖን	-10.7827
ከሚያ	-10.7829
ለአሥራ	-10.7834
የኃጢአት	-10.784
ልቡን	-10.7841
በመሸ	-10.7848
ጥሎ	-10.7849
ባቸዋለሁ	-10.7867
የኤፍሬም	-10.7868
ኢያሪኮ	-10.7883
ዙፋኑ	-10.7884
ሕፃኑ	-10.7885
ወጣች	-10.7887
ጋቸው	-10.7896
ሐሰት	-10.7898
አሳየ	-10.79
ነሽ	-10.7902
ለሚያ	-10.7905
የዚህን	-10.791
እንደሌለ	-10.7916
ከኢየሱስ	-10.7919
የሚነካ	-10.7919
ከበሩ	-10.7921
ጠየቀ	-10.7927
ልከው	-10.7938
መሩ	-10.7944
ታጥ	-10.7948
ያንን	-10.7948
አሳልፈ	-10.7949
ቀርባ	-10.7959
በሚኖሩ	-10.7961
በተራሮች	-10.7971
ኀ	-10.7977
ሼ	-10.7977
ሤ	-10.7977
መጽሐፉ	-10.7977
ጣዖታት	-10.7977
ሕይወቴ	-10.7977
ርዝመት	-10.7977
ቅርንጫፎች	-10.7977
ኢይዝራኤል	-10.7977
ያመሰግኑ	-10.7977
ፍጥረት	-10.7977
ኦርዮ	-10.7977
ዕውሮች	-10.7977
ይኖራሉ	-10.7977
ቅዱሱ	-10.7977
ልብሳቸውን	-10.7977
ፋርስ	-10.7978
ጭንቀት	-10.7978
ጠላቶቹ	-10.7978
ብርታት	-10.7978
መሆኑን	-10.7979
ሽንገላ	-10.7979
የተባረከ	-10.7982
ሰማንያ	-10.7982
ምስጉ	-10.7982
አያሌ	-10.7984
የማምለ	-10.7987
ወለደችለት	-10.7988
ገድለው	-10.799
ምላስ	-10.7999
ጸጥ	-10.8008
አሳድ	-10.8014
በደሉ	-10.8024
በቀለ	-10.8026
እንሂድ	-10.8029
ከሁሉ	-10.8033
እናገር	-10.8037
ባለች	-10.8042
ወንድሞቹን	-10.8044
ሰላ	-10.8082
ይሠሩ	-10.8085
ስሜን	-10.8086
ማሰማርያ	-10.8089
ያበዛ	-10.8108
በሚያ	-10.8108
እንደማይ	-10.8109
ከሀያ	-10.8116
አፍስ	-10.8132
በጌታችን	-10.8133
የሴ	-10.8135
ሙሽራ	-10.8141
ከልክ	-10.8147
የሚባል	-10.8149
በስፍራው	-10.8151
ተሰጠው	-10.8157
ዮን	-10.8158
ይገዙ	-10.8158
ለሰማይ	-10.816
የሌለው	-10.8168
የምድርን	-10.8176
የጋድ	-10.8179
ቀንድ	-10.8184
ኤላ	-10.8192
ወንድሞችህ	-10.8199
ቃት	-10.8203
ወሰድ	-10.8206
መጠጥ	-10.8212
በክብር	-10.8218
ካህናቱን	-10.8228
አውጣ	-10.823
የአባቶች	-10.8241
በነገሠ	-10.8262
ተዘጋጀ	-10.8266
ከአሥር	-10.8271
መናችሁ	-10.8275
ሐሰትን	-10.8279
ሲዶና	-10.8289
ጎዶልያስ	-10.829
መቅረዙ	-10.829
መንደሮቻቸው	-10.829
ኃጢአቴ	-10.829
አዕማድ	-10.829
አዘጋጁ	-10.829
ክርስቲያናት	-10.829
ድምፁን	-10.829
ፈጽመህ	-10.829
ፍልስጥኤማዊ	-10.829
ተለይቶ	-10.829
አቃጠለ	-10.829
እርግማን	-10.829
ዠ	-10.829
መርከቦች	-10.829
ኤፉዱ	-10.829
ከጥንት	-10.829
አቢሳ	-10.8291
ደንግ	-10.8291
ያስተውሉ	-10.8292
ባለጠጋ	-10.8293
የኢፍ	-10.8296
ብላቴናይቱ	-10.8297
ፈለግ	-10.8297
ጎዳና	-10.8298
ዘመናት	-10.83
ከሁለት	-10.8301
አገኙ	-10.8302
ሻገር	-10.8303
በነቢዩ	-10.8307
ጳውሎስን	-10.8311
ለመለመ	-10.8314
ፍረድ	-10.8315
ኩል	-10.8327
ብሻል	-10.8328
ኛለሁ	-10.8329
ተባባ	-10.8331
ቤታቸው	-10.8333
ይጨምር	-10.8333
ያወጡ	-10.8334
ሰበስብ	-10.8334
ይመለሱ	-10.8336
ቲቱ	-10.8344
ኤላም	-10.8346
አምላክህን	-10.8355
ቢሆኑ	-10.8355
በጥበብ	-10.8363
ያዘዘውን	-10.8366
ነቢያትን	-10.8378
ጮኽሁ	-10.8385
ተግሣጽ	-10.8387
ሚያ	-10.8388
በሩቅ	-10.8388
ርኩ	-10.8409
የሚለውን	-10.8411
ውኃውን	-10.8422
ለምድር	-10.8431
በገለዓድ	-10.8443
ጕን	-10.8448
በደመና	-10.8449
ሳለህ	-10.8454
ንቁ	-10.8462
ሆነህ	-10.8483
ሚካ	-10.8498
አነ	-10.8499
ያለበት	-10.8506
ሳባ	-10.8513
ባለሁ	-10.8518
ደኅና	-10.8519
ነጥ	-10.8519
እንዳሉ	-10.8525
ተጠራ	-10.853
ማሩ	-10.8544
ሥጋውን	-10.8569
አቅርቡ	-10.8593
ፃ	-10.8612
መንፈሴ	-10.8612
በእጃችሁ	-10.8612
ትእዛዜን	-10.8612
ኃጢአታችን	-10.8612
እንግዲያ	-10.8612
ኬልቅያስ	-10.8612
ውስጠኛው	-10.8612
ጭፍሮች	-10.8612
መንጎች	-10.8612
ነጋገሩ	-10.8612
መላለሱ	-10.8612
ዝማሬ	-10.8612
ጽድቁ	-10.8612
ባደረገ	-10.8612
ይቀበላል	-10.8612
እግሬ	-10.8612
ግመሎች	-10.8612
አለቀሱ	-10.8612
አዋጅ	-10.8612
ርብቃ	-10.8612
ጠግብ	-10.8612
ታየው	-10.8613
በየወገኖቻቸው	-10.8613
አመሰግን	-10.8613
ኖራቸው	-10.8613
ፈራጆች	-10.8613
ነፍሳችሁ	-10.8613
ያለቅሱ	-10.8613
አዝዞ	-10.8613
አድርጌአለሁ	-10.8613
ታያለህ	-10.8614
ለብሰው	-10.8615
በሸለቆው	-10.8615
ከንፈር	-10.8615
ዮሴፍን	-10.8616
ይቀመጣ	-10.8618
ተዋጉ	-10.8619
ታንኳይቱ	-10.8622
ይገባዋል	-10.8622
ንገሩ	-10.8629
ለምጽ	-10.8629
ያልፋል	-10.863
ወርዶ	-10.8631
የሚመጣው	-10.8636
ያማረ	-10.8636
በግዞት	-10.8639
በጎነት	-10.8639
ጀምረ	-10.864
ተሻገሩ	-10.8641
መዛግብት	-10.8643
የሚለው	-10.8643
ይገድሉ	-10.8644
ታላቁን	-10.8645
የተቀመጡ	-10.8646
ቅጣት	-10.8648
ደከመ	-10.865
ያሰኝ	-10.8652
ዕቃዎች	-10.8654
ነሣው	-10.8664
ገረው	-10.8668
የሚጠብቅ	-10.8672
ተቀመጡት	-10.8684
መቅደሱን	-10.8689
ካለችው	-10.8699
እመልስ	-10.8717
ሥጋቸው	-10.8719
የሚሄዱ	-10.8729
በልባችሁ	-10.8733
የአሕዛብን	-10.8738
በማደሪያው	-10.8742
ሁለተኛውን	-10.8746
ቈረ	-10.8749
የክብር	-10.875
በሀያ	-10.8751
ተናገሩት	-10.8763
ደሴቶች	-10.8765
ሰጡአቸው	-10.8766
ይመታ	-10.8773
አላችሁ	-10.8777
ያመልኩ	-10.8784
ሰግድ	-10.8787
ራሳችሁን	-10.8791
ተገዙ	-10.8794
ሰፊ	-10.8794
ታጠብ	-10.8799
ደረቅ	-10.8803
ዞሩ	-10.8806
ሁበት	-10.8809
በላው	-10.8814
ተሰጠ	-10.8832
መስል	-10.8844
ደርገው	-10.8862
ዋለች	-10.8864
የኢየሩሳሌምን	-10.8877
ሐር	-10.888
ያገኝ	-10.8885
አደረ	-10.8888
ግዛ	-10.8899
ይሰሙ	-10.8902
አብያ	-10.8918
ወደደው	-10.8924
ዓል	-10.8934
ኛቸው	-10.8935
ኵር	-10.8938
መጠጊያ	-10.8943
ኀጥኣን	-10.8946
አማሌቅ	-10.8946
ኬጢያዊ	-10.8946
አኖራለሁ	-10.8946
ቡቃያ	-10.8946
አደረግህ	-10.8946
ሸንጎ	-10.8946
ረክስ	-10.8946
ትላላችሁ	-10.8946
ያድርጉ	-10.8947
አያውቅም	-10.8947
በረሀ	-10.8947
አልሰሙም	-10.8948
ሳፋን	-10.8948
እርሾ	-10.8949
እያንዳንዳችሁ	-10.8952
ባሳ	-10.8952
ኵሬ	-10.8952
ወገኑ	-10.8953
ዝሙት	-10.8953
ሴቶችን	-10.8956
ቍጣህ	-10.8959
ይሁዳን	-10.8961
መቃብሩ	-10.8961
ሠራሁ	-10.8962
በደም	-10.8966
እልልታ	-10.8972
አፈሰሰ	-10.8977
ንስር	-10.8979
ወጭ	-10.898
አዘጋጅ	-10.8981
ገፋ	-10.8982
የተናገረው	-10.8985
ሰበከ	-10.8997
ገሣ	-10.8998
ደርሱ	-10.9001
አጠጣ	-10.9004
ያያሉ	-10.9004
ጣላ	-10.9014
መላ	-10.9016
ዘዙ	-10.9016
ልባችሁን	-10.9027
ይቆማ	-10.903
ለአንዱ	-10.903
ዘጠ	-10.9043
በኢያሪኮ	-10.905
ሥርዓቴን	-10.9052
ወለዱ	-10.9056
ዳድ	-10.9058
በራሳቸው	-10.9064
ሲሉ	-10.9071
አሥራት	-10.9082
ወዝ	-10.9086
ከምሥራቅ	-10.9087
መሳ	-10.9092
ለሌዋውያን	-10.9094
የገለዓድ	-10.91
የዚያ	-10.9112
ቃልህን	-10.912
ራሴን	-10.9154
ወጥቶአል	-10.9156
ያቀርብ	-10.9173
መለከቱ	-10.9175
ቀባው	-10.9176
ባሪያውን	-10.9186
ተልባ	-10.9195
ሩቅ	-10.9202
መንደሮች	-10.9207
ሞላበት	-10.921
ኖራ	-10.9214
መሄድ	-10.9215
ሰጠሁ	-10.9217
ዛል	-10.9229
ርቁ	-10.9238
መለከቱን	-10.9247
ወጣሁ	-10.9257
ኃጢአተኛው	-10.9259
የሚመጣ	-10.9264
ቀድሞው	-10.9267
ታዊው	-10.928
ሳደድ	-10.928
መስገጃ	-10.9286
ችኋለ	-10.9287
መታጠቂያ	-10.929
አይደላችሁም	-10.929
ዮፍታሔ	-10.929
ጥቂቶች	-10.929
ቍጥራቸው	-10.929
አሚናዳብ	-10.929
አብያታር	-10.929
ብድራት	-10.929
ከተሞቹ	-10.929
እንደዚሁ	-10.929
በርናባስ	-10.929
መገረዝ	-10.929
ማኅተ	-10.929
ተናግሬአለሁ	-10.929
አዋቂ	-10.929
ክህነት	-10.9291
ዘርግቶ	-10.9291
ቅረቡ	-10.9291
ይሸከማ	-10.9291
ኤልያብ	-10.9291
ምድራችሁ	-10.9291
ዮናስ	-10.9293
ከንፈሩ	-10.9293
ተዋጋ	-10.9293
ሰልፉ	-10.9293
ሬአለሁ	-10.9296
ቀረጸ	-10.9297
መስሎ	-10.9298
ባርነት	-10.9298
ጦርነት	-10.93
ከፊትህ	-10.9301
ፈወሰ	-10.9301
በጥሩ	-10.9303
ተጠንቀ	-10.9304
በረሃ	-10.9304
ሌዋውያንን	-10.9305
ችሁትን	-10.9307
እንኪያ	-10.9308
የላቸውም	-10.9309
ጠየቁት	-10.931
በልዩ	-10.9311
ይፈጸም	-10.9314
መንገዳቸው	-10.9318
ፈረደ	-10.9321
ማደሪያውን	-10.9325
ትማል	-10.9326
ሾመ	-10.9333
የሚቀመጥ	-10.9336
አመነ	-10.9346
በስምንተኛው	-10.9358
በረቱ	-10.9364
የተጻፈው	-10.9364
በጎቹ	-10.9366
መከሩ	-10.9369
የተለየ	-10.9372
ተቀባ	-10.9377
የሚሰጥ	-10.938
አደረጋቸ	-10.9381
ዕድሜው	-10.9389
የመጠጥ	-10.9389
አስቡ	-10.9391
ኪስ	-10.9392
ሆነዋል	-10.9407
ለድሀ	-10.941
ጸሐፊ	-10.9419
ሕዝብህን	-10.9423
እግሩን	-10.9424
ሰበሰባ	-10.943
ሙላ	-10.9439
መጣህ	-10.945
ትሄድ	-10.9455
በብንያም	-10.9461
በቤቴል	-10.9464
በአገሩ	-10.9465
ሲመጣ	-10.9468
እንዳታ	-10.9475
የቀሩትን	-10.9489
ጣቱ	-10.9489
ማላችሁ	-10.9493
በዚያው	-10.9495
ሰባቱን	-10.9498
ከባቢሎን	-10.9504
መክ	-10.9505
በልጥ	-10.9507
የጦር	-10.9507
ተሰበረ	-10.9512
ኑር	-10.9523
ረከሱ	-10.953
በአራተኛው	-10.9533
ሦስተኛ	-10.9542
ጄ	-10.9546
ጣሉት	-10.9547
ሞሉ	-10.9556
ተቈጠሩ	-10.956
ይሞላ	-10.9563
ክሳ	-10.9576
ያፈራ	-10.9576
ቅንነት	-10.9586
ርቀው	-10.9594
ገደላቸው	-10.9602
በዕጣ	-10.9617
ሮጠ	-10.9624
ናወጥ	-10.9626
ታምኑ	-10.9627
ይሠዋ	-10.9628
ታመነ	-10.963
መሳፍንት	-10.9648
ሜሱላም	-10.9648
ቁርበቱ	-10.9648
ንጹሐን	-10.9648
እስትንፋስ	-10.9648
ገንዘቡ	-10.9648
መድኃኒቴ	-10.9648
ዲያብሎስ	-10.9648
አላውቅም	-10.9648
ቦዔዝ	-10.9648
ሕልሙ	-10.9648
ኢያቢስ	-10.9648
ከፊቴ	-10.9648
ክብሬ	-10.9648
ያቀርባል	-10.9648
ይሰጠዋል	-10.9648
ሰደዱ	-10.9648
አምኖን	-10.9648
ዘለፋ	-10.9648
ልማድ	-10.9648
ተሸከሙ	-10.9648
ተደፋ	-10.9648
ተከትለው	-10.9649
በላያችን	-10.9649
ቃጥለዋል	-10.9649
ታመመ	-10.9649
ወገኔ	-10.965
መሰከረ	-10.965
አድርገሃል	-10.9652
ታችንን	-10.9654
ተኝቶ	-10.9656
ሃሌ	-10.9657
ይቀመጣሉ	-10.9658
ግንድ	-10.9661
አመጣለሁ	-10.9661
ይሸሻ	-10.9662
መድረ	-10.9662
ያስፈራ	-10.9662
መምጣት	-10.9662
ነግረ	-10.9663
አፉን	-10.9664
የሚያስፈራ	-10.9666
ሮሜ	-10.967
ፊቱ	-10.9676
ፈጠ	-10.9677
ቢል	-10.9678
ርቃ	-10.968
ረፉ	-10.9688
ለመነ	-10.9695
በወንዝ	-10.9706
ገብስ	-10.9709
አወቀ	-10.9711
መጀመሪያው	-10.9712
አትበል	-10.9716
ጠራች	-10.9722
ሥራችሁ	-10.9727
የራሱን	-10.9733
ቆይ	-10.9736
እሆን	-10.9737
መባቻ	-10.9737
ቅኖች	-10.9739
ያለች	-10.9757
የቤቱን	-10.9764
ኃይልን	-10.9767
ዋረድ	-10.9772
ከምናሴ	-10.9775
በድንኳኑ	-10.9782
ይስማ	-10.9787
ያስጨንቁ	-10.9795
ጠበቀ	-10.9802
ኋላው	-10.9804
ከሕግ	-10.981
ባረከ	-10.9813
የአባቱን	-10.9825
ማዊ	-10.9827
ለመነው	-10.983
ፈውስ	-10.9833
ላታል	-10.9842
ሰበረ	-10.9842
ትቀበሉ	-10.9844
ግቢ	-10.986
ወገብ	-10.9877
ትንሽ	-10.9893
እንጀራን	-10.9898
ተጻፉ	-10.992
በአይሁድ	-10.9923
ታቦቱ	-10.9925
ሐዋርያ	-10.9939
ለብሳ	-10.9946
ተነሥ	-10.9952
ነዳ	-10.9956
ክብርን	-10.9956
ለማንም	-10.9967
አዶ	-10.9998
አውሬው	-11.0001
ገላ	-11.0012
ኡ	-11.0015
ተመሸጉ	-11.0018
መጻሕፍት	-11.0018
ምርኮኞች	-11.0018
ጕድጓዱ	-11.0018
ፈሳሾች	-11.0018
ልጆቻችን	-11.0018
መቄዶንያ	-11.0018
ተርሴስ	-11.0018
ኤርትራ	-11.0018
ኪሩብ	-11.0018
ፍልስጥኤም	-11.0018
ዕዝራ	-11.0018
ይመለሳሉ	-11.0018
ያስፈልጋ	-11.0018
ጸሎቴ	-11.0018
ንግሥቲቱ	-11.0018
ባኦስ	-11.0018
አዲሱ	-11.0018
አቁማዳ	-11.0018
አዴር	-11.0018
አወቅሁ	-11.0018
ገለጡ	-11.0018
እምነታችሁ	-11.0018
ፈጽሜ	-11.0018
ወዳጄ	-11.0018
ሚክያስ	-11.0018
ከመስፈሪያው	-11.0019
በየዓመቱ	-11.0019
ተቀበላችሁ	-11.0019
ያስተውል	-11.0021
መብላት	-11.0029
ጀርባ	-11.0029
ሠራተኞች	-11.003
ቀላል	-11.0032
መሥዋዕቱ	-11.0035
ወደድሁ	-11.0035
ጭንቅ	-11.004
ፈጠር	-11.0045
ወዳለበ	-11.0045
እንድትሆ	-11.0045
በግልጥ	-11.0048
ዲና	-11.0055
ያልፉ	-11.0056
ሳሚ	-11.0063
ቈረጠ	-11.0068
ላከው	-11.0077
ለደኅንነት	-11.008
ማመን	-11.0082
የሚያህል	-11.0084
ያየው	-11.0087
ሰጠህ	-11.0087
ልመናዬ	-11.0087
ጠየቀው	-11.009
ከእጄ	-11.0092
እርዳ	-11.0097
በቤቴ	-11.0107
ለካህኑ	-11.0113
ካደ	-11.0114
በነቢያት	-11.0121
ሕጉን	-11.013
በአባቴ	-11.0134
ተናግሮአል	-11.0134
ጀምራ	-11.0148
የአምላክህን	-11.0151
ሾመው	-11.0161
ኖርበት	-11.0177
የሚሻ	-11.0178
ረጉ	-11.019
በሬው	-11.0194
ይስጥ	-11.0196
ተሳለ	-11.0209
ይሰድ	-11.0209
ኑሩ	-11.0209
ቂስ	-11.021
ለአባቱ	-11.0211
በብርቱ	-11.0224
ይገዛ	-11.0231
በሙሉ	-11.0232
በሕዝብህ	-11.0243
መኝታ	-11.0248
ባሪያው	-11.0249
በአራቱ	-11.0258
የሚሠሩ	-11.0259
የዔሳው	-11.0261
ሰንበ	-11.0261
ብልህ	-11.0267
ነጣ	-11.0289
ላዩ	-11.029
ደዋል	-11.0297
ሄደህ	-11.0303
ቀኑን	-11.0309
ከአባቴ	-11.0318
ኋላቸው	-11.032
ዓዳ	-11.0339
ትርፍ	-11.0344
በጽኑ	-11.0345
ይወጡ	-11.0364
አፋቸው	-11.0372
ከሞት	-11.0372
ገረዙ	-11.0396
መወርወሪያ	-11.0398
ማወቅ	-11.0398
አሥረኛ	-11.0402
ሰረገሎቹ	-11.0402
ቀርሜሎስ	-11.0402
ቈነጃጅት	-11.0402
አገልጋይ	-11.0402
ይሞታሉ	-11.0402
አይደለህም	-11.0403
ወይፈኖች	-11.0403
ዖዝያን	-11.0403
ፀነሰች	-11.0403
ሌሎቹ	-11.0403
መሰገኑ	-11.0403
አዶንያስ	-11.0403
የዘበኞቹ	-11.0403
ሳንቆች	-11.0403
አንበሶች	-11.0403
ቀደመው	-11.0403
ባሮክ	-11.0403
ጠጎች	-11.0403
ማንሣት	-11.0403
እግራቸው	-11.0403
አማካሪ	-11.0403
ዓለሙ	-11.0403
አድምጡ	-11.0403
ዓላማ	-11.0403
ተድላ	-11.0404
ልባችን	-11.0404
መንሻ	-11.0404
ነጋዴዎች	-11.0404
ዮሐናን	-11.0404
ከአፉ	-11.0404
ቄሣር	-11.0405
ክንዱ	-11.0405
ደረጃ	-11.0406
ሰሎም	-11.0407
ተማመ	-11.0408
ቀደደ	-11.0408
ጨነቅ	-11.041
ባርኩ	-11.0416
ዘንግ	-11.0417
ማልዶ	-11.0418
ሄዳ	-11.0422
ቤዛ	-11.0422
ዳሰሰ	-11.0424
ዮአስ	-11.0428
ጫነ	-11.0429
ቅጠል	-11.043
ገዝ	-11.0434
ቁሙ	-11.0444
ቡሩ	-11.0448
በፍልስጥኤማውያን	-11.0449
ቆሮ	-11.045
ድርሻ	-11.0452
የተነገረ	-11.0458
ሌባ	-11.0469
ሲሄዱ	-11.0478
ያላችሁ	-11.0485
ሸጥ	-11.0492
ተናገረኝ	-11.051
ኛለች	-11.051
ስትል	-11.051
ከቀይ	-11.0514
ዘኑ	-11.0518
ያለሽ	-11.052
አመጡት	-11.0523
ድሩ	-11.054
ገባች	-11.0548
መንገዴን	-11.0548
ሞተች	-11.0563
አድን	-11.0566
ከወንድሞቹ	-11.0566
የማት	-11.063
የሚወድ	-11.0635
ብለዋል	-11.0646
ከሌዋውያን	-11.0649
ያዘው	-11.0649
አይዞ	-11.0657
ከምት	-11.0668
ገለጠ	-11.067
ልቤን	-11.0673
የግብጽ	-11.0675
ልብሱ	-11.0678
ያጽናና	-11.0679
ከፈርዖን	-11.0692
ከማቸ	-11.0702
ተራራማው	-11.0711
አምላካችሁን	-11.072
ተቀደሰው	-11.072
ለአምላክህ	-11.0739
እርሻውን	-11.0751
ወርሱ	-11.0762
ሀ	-11.0769
እነዚያን	-11.0775
ቀጠቀጠ	-11.0802
ሰሜኢ	-11.0802
አላገኘሁ	-11.0802
አዛዥ	-11.0802
አገልጋዮች	-11.0802
ኢዮአታም	-11.0802
እሰጣቸዋለሁ	-11.0802
ዕብራውያን	-11.0802
ዘሩባቤል	-11.0802
የዘንባባ	-11.0802
ጌድሶን	-11.0802
ጽሕፈት	-11.0802
ፊንሐስ	-11.0802
መጥመቂያ	-11.0803
ባሪያዎቼ	-11.0803
አስጨናቂ	-11.0803
አንዳንድ	-11.0803
ጽላቶች	-11.0803
ተጓዙ	-11.0803
ሰንሰለት	-11.0803
ራፋይም	-11.0803
ልጃችሁ	-11.0803
ጭልፋ	-11.0803
እሰበስባ	-11.0803
አውጥቶ	-11.0803
ካፈሉ	-11.0803
በዙሪያዋ	-11.0803
ጠላቶቻችሁ	-11.0803
እለምና	-11.0803
መልክተኞች	-11.0804
ዳለህ	-11.0804
ዳርዮስ	-11.0804
ሳውል	-11.0805
ናባጥ	-11.0805
በውስጥዋ	-11.0806
ረባ	-11.0807
ያሳድዱ	-11.0807
በውስጡ	-11.0808
ይበሉታል	-11.0809
ሰቀሉ	-11.081
እዘም	-11.0811
ጠላቶችህን	-11.0812
የምትኖሩ	-11.0814
የለኝም	-11.0816
አትሥሩ	-11.0817
ሸሸግ	-11.0819
መንፈሳዊ	-11.0825
እስኪሞት	-11.0828
ራስዋን	-11.0834
ለሳኦል	-11.0835
ሰድድ	-11.0839
ራቱ	-11.084
አልወደደ	-11.0846
የተወደደ	-11.0847
ዲዳ	-11.0852
ኤሎ	-11.0858
መበለት	-11.0863
ባይሆን	-11.0873
የተባለች	-11.0881
ለአባቶቻቸው	-11.0883
ማረኝ	-11.0887
ማለላቸው	-11.0893
ነፍሳቸው	-11.0893
ሳቱ	-11.0894
ቀድሱ	-11.0894
በቅንነት	-11.0909
ከእጁ	-11.0936
እርሻው	-11.0936
በዘመኑ	-11.094
ቃወሙ	-11.0941
ሌሊቱን	-11.0957
ሄደች	-11.0963
ከሚኖሩ	-11.0966
በኬብሮን	-11.0983
በመንገዱ	-11.0984
የዝግባ	-11.0984
ሰምቶአል	-11.0989
ይመስል	-11.1005
ተማረኩ	-11.1009
ልጄን	-11.1011
ማለህ	-11.1015
መሰምርያ	-11.1015
ተመለሰች	-11.1018
ጽናት	-11.1027
የጌታችን	-11.1039
ልባቸውን	-11.1039
ጋጠ	-11.104
እንደሚገባ	-11.1043
ታለል	-11.1043
ጥለው	-11.1045
ሎሌው	-11.1048
ታችኛው	-11.1062
መረጥ	-11.1103
ተቀመጠች	-11.1113
ጣብ	-11.1157
ቃለች	-11.1158
እህሉ	-11.1161
ትጉ	-11.1181
ፈሩት	-11.1182
ላደርግ	-11.1187
ማሳ	-11.119
ሥርዓቱን	-11.1194
ይኑር	-11.12
የተጠራ	-11.1202
ይጠጡ	-11.1217
መከራቸው	-11.1218
ሊገናኘ	-11.1219
መኳንንት	-11.1219
ማስተስረያ	-11.1219
በሌለበት	-11.1219
በረኞች	-11.1219
በግምባሩ	-11.1219
ብላቴኖች	-11.1219
ታላላቅ	-11.1219
ትዕቢተኞች	-11.1219
አንዳንዱ	-11.1219
አዛሄል	-11.1219
እሰጣችኋለሁ	-11.1219
ጢሞቴዎስ	-11.1219
ጣዖቶቻቸው	-11.1219
ዤ	-11.1219
ለኪሶ	-11.1219
ይፈርዳል	-11.1219
ገሞራ	-11.1219
ጨረሰ	-11.1219
ጸጸት	-11.1219
ደንቆሮ	-11.1219
ከግራር	-11.1219
ማድጋ	-11.122
ለመኑት	-11.122
መግደል	-11.122
ሰምቻለሁ	-11.122
ተበተኑ	-11.122
አቤል	-11.122
ፈጥነህ	-11.1223
ታደርጋላችሁ	-11.1223
ተለይተ	-11.1223
ይሆንላችኋል	-11.1224
አደርግሃለሁ	-11.1225
በደልን	-11.1225
ጸንቶ	-11.1226
ሚወዱ	-11.1226
ቀትር	-11.1228
ይመስላል	-11.1229
ወዳለች	-11.123
ሳያውቅ	-11.1231
ሖር	-11.1238
አልተገኘ	-11.1241
ጣለው	-11.1246
ችግረኞች	-11.1248
የከተማው	-11.1252
ጠንቅ	-11.1256
ጋዛ	-11.1266
ጋጠሙ	-11.1267
በጣም	-11.1277
ያፍራ	-11.1279
የሰማይን	-11.128
ደጁ	-11.1282
የሚጠብቁ	-11.1283
ቶቼ	-11.1283
አየች	-11.1284
ስማኝ	-11.1284
አያለሁ	-11.1289
አጥፍ	-11.1289
አቅርብ	-11.1289
መናወጥ	-11.1292
ቀደሱ	-11.1314
ተደነቁ	-11.1316
ለአባቶቻችሁ	-11.1319
ገሩት	-11.1323
ተለየ	-11.1324
ዜማ	-11.1324
ቂያ	-11.1327
ባረከው	-11.1335
ወርቁ	-11.1351
የፈጠረ	-11.1365
በተቀደሰው	-11.1365
በውኃው	-11.1366
በደማስቆ	-11.1371
ተዋቸው	-11.1372
መረጥሁ	-11.1389
ጻድቁን	-11.1392
ያነጻ	-11.1394
ዛራ	-11.1399
ያገኘ	-11.1409
በባሕሩ	-11.141
ጓዳ	-11.1414
ድምፃቸውን	-11.1422
ታስቡ	-11.1431
ወጣችሁ	-11.1436
ለታለሁ	-11.1442
መጋረጃው	-11.146
ሽማግሌ	-11.1462
ይጠብቅ	-11.1464
ለአምላካችን	-11.1465
አምጣ	-11.1479
የጻድቃን	-11.1483
የሠራዊቱ	-11.1487
አለቻ	-11.1488
በስምህ	-11.1493
ሰማያትን	-11.1508
ተናግሮ	-11.1519
ተግሣጽን	-11.1519
የሚያሳ	-11.1531
ቀለበት	-11.1542
የይስሐቅ	-11.1547
ከሰፈሩ	-11.155
ቃለሁ	-11.1556
ነፍሳቸውን	-11.1557
ግዳ	-11.1569
ልብህን	-11.1569
በጎቹን	-11.1577
ፈጥና	-11.158
ስላላ	-11.1596
ጨምር	-11.1598
አባቶቹ	-11.1599
ይከብ	-11.1606
በቤትህ	-11.1617
ሸጡ	-11.164
ዌ	-11.1642
የተባለ	-11.1643
መታጠቢያ	-11.1654
መዕሤያ	-11.1654
ኤልዛቤል	-11.1654
ኤፍራጥስ	-11.1654
ጕልማሶች	-11.1654
ትችላለህ	-11.1654
ኑኃሚን	-11.1654
አግኝቶ	-11.1654
እወዳለሁ	-11.1654
ጺ	-11.1654
ሰይፉን	-11.1654
ትሆናላችሁ	-11.1654
አታድርግ	-11.1654
ደመወዝ	-11.1654
ጸድቅ	-11.1654
ተቃጠለ	-11.1654
ይሸከሙ	-11.1654
ተዘጋጁ	-11.1654
ያቃጥላ	-11.1654
ቂሮስ	-11.1654
ትዕማር	-11.1654
ምስክሩን	-11.1654
ተሸክመ	-11.1654
መስጠት	-11.1654
መዓካ	-11.1654
ይወርዳል	-11.1654
አላወቁም	-11.1654
አርኖን	-11.1654
ለብሶ	-11.1654
ፋሬስ	-11.1654
መስገን	-11.1654
አንሥተ	-11.1655
አውጥተ	-11.1655
በዙሪያቸው	-11.1655
ላደረጉ	-11.1655
ይበልጣል	-11.1655
ሰውነትህ	-11.1656
አያውቁም	-11.1657
ተከፈተ	-11.1658
ናዳብ	-11.1658
ሎሌዎች	-11.1658
ያከብሩ	-11.1658
ነግሥ	-11.1659
ላደረገ	-11.166
ሰጠኸኝ	-11.166
ገዳይ	-11.1661
በአገርህ	-11.1661
ጠባቂዎች	-11.1662
ውሸት	-11.1664
ሁለተኛይቱ	-11.1665
አመሰግና	-11.1666
ድሪ	-11.167
ለማገልገል	-11.1671
የሚገባውን	-11.1682
አዘንብ	-11.1683
የሚያውቅ	-11.1683
ደማቸው	-11.1695
ዔር	-11.1699
በለጠ	-11.1701
ስቡን	-11.1704
ድስት	-11.1704
ፈጥነው	-11.1709
እሺ	-11.1711
ዓይኑን	-11.1711
እስኪመጣ	-11.1711
አልኋቸው	-11.1717
ከፊቱ	-11.1723
ቀደሰ	-11.1731
ማውያን	-11.1734
ሬማት	-11.1735
አኪ	-11.1737
ይሹ	-11.1745
ትወስዳ	-11.1747
የሌለ	-11.1749
መረብ	-11.1749
ዘነበ	-11.175
ማለች	-11.1751
ኸ	-11.1751
ይባረክ	-11.1759
ሥራቸውን	-11.176
አቆማ	-11.1761
በአፋቸው	-11.1763
በታቦቱ	-11.1765
ሮጥ	-11.1768
የአምላካችሁን	-11.1769
አኪያ	-11.1779
ፍሬውን	-11.1782
ተናገርህ	-11.1795
የሚያምን	-11.1796
ቀጣ	-11.1798
ገናኝ	-11.18
በጠላቶቻቸው	-11.1813
ሎሌ	-11.1841
ቍርባናቸውን	-11.1846
በወንዙ	-11.1856
አዳነ	-11.1856
ሰማኝ	-11.1881
ያዙት	-11.1893
መቀመጥ	-11.1918
ክደ	-11.1919
ከዳን	-11.1925
ንገር	-11.1942
አቁ	-11.1951
ከናወን	-11.1953
ሰበር	-11.1957
የተጠላ	-11.1984
የተመረጠ	-11.1998
ላውያን	-11.2004
በጎችን	-11.2011
ነዶ	-11.2013
አትበሉ	-11.2021
ጠብቀ	-11.2022
ይፈርድ	-11.2031
ስእለ	-11.2055
ቀኝህ	-11.2057
ሠራዊ	-11.206
ያድር	-11.2061
ላቸዋለህ	-11.2066
መንገዳቸውን	-11.2072
ነዚህ	-11.2096
ኣ	-11.2108
ሄዳለ	-11.2108
መንገዳችሁ	-11.2108
ጬ	-11.2108
መላእክቱ	-11.2108
በአጠገባቸው	-11.2108
ብልጥግና	-11.2108
አማልክቶቻቸው	-11.2108
እናድርግ	-11.2108
ከነዓናዊ	-11.2108
ከንፈሮች	-11.2108
የጽሩያ	-11.2108
ቾ	-11.2109
መጽናናት	-11.2109
ደነገጠ	-11.2109
እጃችን	-11.2109
ይጮኻሉ	-11.2109
ፈጣሪ	-11.2109
በአጠገቡ	-11.2109
ይቃጠላ	-11.2109
ኀጥእ	-11.2109
ተሰለፉ	-11.2109
ምንጮች	-11.2109
እግራችሁ	-11.2109
ደካማ	-11.2109
ፈቅድ	-11.2109
በኵሩ	-11.2109
አፍንጫ	-11.2109
ተናግረ	-11.2109
ሰናከሉ	-11.2109
ያገኛል	-11.2109
ይድናል	-11.2109
መልሼ	-11.2109
ማኪር	-11.2109
ቤዥ	-11.2109
አመኑ	-11.2109
አላደረገም	-11.2109
ነፍሳት	-11.211
ለብቻው	-11.211
ናቡቴ	-11.211
እስራት	-11.2111
ዘፈን	-11.2111
እቶን	-11.2112
ሂጂ	-11.2112
መጋቢ	-11.2113
ነፍስህን	-11.2113
ፈራጅ	-11.2116
ምሰሶች	-11.2116
ብቻዬን	-11.2117
ወንበር	-11.2117
ወርደው	-11.2118
በአፉ	-11.2122
የአምላካችንን	-11.2123
ያስቡ	-11.2124
የተደረገው	-11.2124
መለሱለት	-11.2126
ቀኖች	-11.213
ለመሥራት	-11.2139
ቶሎ	-11.2139
አወጣቸው	-11.2141
ፍሬዋን	-11.2144
አስቀድመው	-11.2145
የሚያውቁ	-11.2151
እጃቸው	-11.2154
ተማከሩ	-11.2156
ትእዛዝህን	-11.2172
ሄድሁ	-11.2177
በማዕድ	-11.2177
አወሩ	-11.2183
ብሻለሁ	-11.219
ይሰማል	-11.2197
ለምናሴ	-11.2224
ርዶ	-11.2225
በቅሎ	-11.2254
ደርብ	-11.2258
በምድሩ	-11.2261
ያችን	-11.2263
ቆር	-11.2266
ለይስሐቅ	-11.2267
በመንግሥቱ	-11.2276
ከፈሪሳውያን	-11.2276
ሮጡ	-11.2295
ካላ	-11.2319
ፈረድ	-11.2326
በሩን	-11.2336
መሎጊያዎቹን	-11.2338
ለሚኖሩ	-11.2343
ሲወጣ	-11.2344
ማረኩ	-11.235
ይጠሩ	-11.2363
ነታችሁ	-11.2369
ርድ	-11.2385
ተነሥታ	-11.239
ዓመፃን	-11.242
ድንኳኑን	-11.2427
ዋላ	-11.2437
ለራስህ	-11.244
ሰማይን	-11.2445
ከማቻ	-11.245
ለወጠ	-11.2463
ይዘጋ	-11.2469
ጴጥሮስን	-11.2484
ስምንተኛው	-11.2491
ቦቹ	-11.2495
መረገ	-11.254
የማይገባ	-11.255
ይኖሩ	-11.2576
ያደረጉ	-11.2582
እስኪፈጸ	-11.2584
መልካሚቱ	-11.2585
መሠረተ	-11.2585
መቅደሴ	-11.2585
መዘምራኑ	-11.2585
መጻተኞች	-11.2585
ስሕተት	-11.2585
ስድስቱ	-11.2585
ቍርባኑ	-11.2585
ኅጥኣን	-11.2585
አመንዝራ	-11.2585
አስጸያፊ	-11.2585
አእላፋት	-11.2585
አኪጦፌል	-11.2585
አድርአዛር	-11.2585
ኢዮቤልዩ	-11.2585
ክንፎቻቸው	-11.2585
ክንፎች	-11.2585
ዘበኞች	-11.2585
እኅቴ	-11.2585
አትችሉም	-11.2585
ያመልጥ	-11.2585
ክቡር	-11.2585
አግኝቼ	-11.2585
ነቢያቱ	-11.2585
አንኩስ	-11.2585
አልቅሱ	-11.2585
ይጮኻል	-11.2585
አይገባውም	-11.2585
ኦርና	-11.2585
ነበራችሁ	-11.2585
ጕልበት	-11.2585
ይነሣሉ	-11.2585
ነበራቸው	-11.2585
ውሾች	-11.2585
ለብቻቸው	-11.2585
የሌለባቸውን	-11.2585
አልቻለም	-11.2585
መጥተህ	-11.2586
ያስተምሩ	-11.2586
አይቀርም	-11.2586
በየትውልዳቸው	-11.2586
በዓሉ	-11.2586
ታሰረ	-11.2586
አይጠፋም	-11.2587
ገፉ	-11.2587
አድምጥ	-11.2587
ፈጽማችሁ	-11.2588
ቸኵ	-11.2588
በፋንታው	-11.2588
ሚገኝ	-11.2589
ናትናኤል	-11.2589
ሜአለሁ	-11.2589
ጓዳዎች	-11.259
በባሳን	-11.259
ይሆንልሃል	-11.259
አድርገዋል	-11.259
ፍቺውን	-11.2591
ሰጠኋቸው	-11.2592
ዘይቱን	-11.2593
በነገው	-11.2593
የተቀመጡትን	-11.2594
አድኖ	-11.2594
ዘዛችሁ	-11.2595
ይወድዳል	-11.2596
ተገረዙት	-11.2597
ሲሣራ	-11.2597
ሁከት	-11.2605
ጨመረ	-11.2607
ገደሉአቸው	-11.2612
መተላለፍ	-11.2615
ረክሰ	-11.2618
ማራ	-11.2618
ያስባል	-11.2618
ዘረጉ	-11.2619
ስጣቸው	-11.2624
ቀዳ	-11.2624
እንዲኖር	-11.2626
ይወስድ	-11.2627
ሊያደርግ	-11.2629
እቀጣ	-11.2631
ነጹ	-11.2634
ጥጃ	-11.2634
መጥቼ	-11.2637
ጠብቀው	-11.2637
ተወው	-11.2642
ጥማ	-11.2643
በብልሃት	-11.2647
የሚያደርጉ	-11.2652
ነገርኋችሁ	-11.2657
ቅኔ	-11.2664
ባለቤቱ	-11.2666
ብሆን	-11.2669
ቃላ	-11.2669
ለድሆች	-11.2672
ልኬ	-11.2676
ሜር	-11.2676
ኛይቱ	-11.2679
ይመራ	-11.2681
ያሰኛ	-11.2681
ለማዳን	-11.2682
ተያዘ	-11.2694
ቈጥራ	-11.2695
ያስብ	-11.27
ደቦ	-11.2701
ቢሞት	-11.2702
ዓይነ	-11.271
መንገድህን	-11.272
ጨምራ	-11.2728
የታወቀ	-11.273
ሕፃኑን	-11.2733
ወድደው	-11.2736
ከገሊላ	-11.2746
ካፍ	-11.2746
ይገለጥ	-11.281
ዋይታ	-11.2815
ታውቀው	-11.2824
ያገለግሉት	-11.2832
ላጭ	-11.2834
ይበቃ	-11.2843
ያስተሰርይ	-11.2844
የሚገዛ	-11.2848
ሉአችሁ	-11.2853
ጦች	-11.2861
ያገኘው	-11.2861
ታላቅነት	-11.2894
ሚፈሩት	-11.2945
ያዘዘው	-11.2966
ሐምራዊ	-11.3028
በተቀደሰ	-11.3031
ወድቃ	-11.3044
ነጋገር	-11.3045
ኸዋል	-11.3049
ሚገባው	-11.3049
ሚስትህ	-11.3075
ማግኘ	-11.3085
ሕልቃና	-11.3085
መማፀኛ	-11.3085
መሸፈኛ	-11.3085
መድኃኒታችን	-11.3085
ኃያላኑ	-11.3085
ኃይለኛ	-11.3085
ነነዌ	-11.3085
ነጐድጓድ	-11.3085
አዛጦን	-11.3085
ኢታምር	-11.3085
ኤፌሶን	-11.3085
እኵሌቶቹ	-11.3085
ወንድማማች	-11.3085
ዕንቅፋት	-11.3085
ያደርገዋል	-11.3085
ግልገሎች	-11.3085
ጼ	-11.3085
ትክክል	-11.3085
ዓይኖቻቸው	-11.3085
የተቀረጸውን	-11.3085
ኃይሌ	-11.3085
እሰጠዋለሁ	-11.3085
ተገረሙ	-11.3085
ጠነከረ	-11.3085
የነዌ	-11.3085
መብረቅ	-11.3085
ቤትሳሚስ	-11.3085
ብርሃኑ	-11.3085
ጥምቀት	-11.3085
ሚዳቋ	-11.3085
አኪቃም	-11.3085
ክፋታቸው	-11.3085
ቀርበዋል	-11.3085
አላወቀም	-11.3085
አደጉ	-11.3085
ትሄዳለህ	-11.3085
በዚች	-11.3085
አዳራሾች	-11.3085
በአሥረኛው	-11.3085
እንደዚያ	-11.3085
ታገሥ	-11.3085
ይጸናል	-11.3085
ደክሙ	-11.3086
ፍሰስ	-11.3086
ጠመቁ	-11.3087
አሥሩን	-11.3087
ተከትሎ	-11.3088
አጥፊ	-11.3089
ብልቶች	-11.309
የተሠሩትን	-11.309
ደከሙ	-11.3091
በመካከልሽ	-11.3091
ወድዶ	-11.3093
የመገናኛውን	-11.3094
ምሰሶቹ	-11.3094
የአባትህን	-11.3095
ሦራ	-11.3097
ወድቁ	-11.3097
ቀልጦ	-11.3099
ማልደው	-11.3101
አደን	-11.3104
የምድያም	-11.3105
ዓመቱ	-11.311
መቱአቸው	-11.311
ብታደርግ	-11.3115
አብሮ	-11.3116
ተቀብሎ	-11.3125
የሚፈርድ	-11.3126
ቢገኝ	-11.3127
መልእክት	-11.3129
የግብጽን	-11.3131
ከሐምራዊ	-11.3141
የሚጠሉ	-11.3144
አገኙት	-11.3144
ዘውድ	-11.3149
ከእህሉ	-11.3153
ወረሱ	-11.3157
ሕግህን	-11.3159
ለራሳችሁ	-11.316
ዘለላ	-11.3162
ባርያ	-11.3162
ማልሁ	-11.3164
ቸርነትህ	-11.3165
ጸንተ	-11.3173
እያዩ	-11.3174
ከፊታቸው	-11.3181
ሰኙ	-11.32
መክደኛው	-11.3203
ተለወጠ	-11.3221
አዘዘው	-11.3244
ለቀቀ	-11.3245
ካልሆነ	-11.3245
ዛለሁ	-11.3247
ማቅረብ	-11.3257
ሸሽቶ	-11.3258
ነካው	-11.3261
ያመጣል	-11.3279
ረዳቸው	-11.3286
ሽማግሌው	-11.3294
ደረቱ	-11.3297
ወደቀች	-11.331
አገኘሁ	-11.3333
ያስተሰርይለ	-11.3333
ከራከር	-11.3339
ዘርጋ	-11.3354
ሰጥቶአል	-11.3359
ያኖራ	-11.3376
የተመረጡ	-11.3388
ደመናት	-11.3409
እንደምታ	-11.3412
ፈቃድህ	-11.3426
አስመጣ	-11.3437
ታገኙ	-11.3439
ቈጠረ	-11.3443
ይመለከቱ	-11.3466
የተሞላ	-11.3505
ረጨ	-11.3517
ቀበሮ	-11.3534
ኖርሁ	-11.3543
ጠየቃ	-11.3543
እሆና	-11.3559
ተቀብለ	-11.3568
ውድማ	-11.3569
ጥላው	-11.3586
ቃጠሉ	-11.3591
ሂ	-11.3597
ንግሥት	-11.3604
ከሌለ	-11.3607
ታደርጋ	-11.3609
ሃይማኖት	-11.3611
መስኮቶች	-11.3611
ቂርያትይዓሪም	-11.3611
በግምባራቸው	-11.3611
ባገኘ	-11.3611
ብላቴኖቹ	-11.3611
ኅብስት	-11.3611
አስቀሎና	-11.3611
አስቀድሜ	-11.3611
አንጾኪያ	-11.3611
አግብቶ	-11.3611
ኢያቡሳውያን	-11.3611
ጃንደረቦች	-11.3611
ግብዞች	-11.3611
ግብጻውያን	-11.3611
ጠላቶቻችን	-11.3611
ቅርንጫፍ	-11.3611
እግሮቼ	-11.3611
ጃግሬው	-11.3611
ገዳዩ	-11.3611
ሰብስቦ	-11.3611
ጠጕሩ	-11.3611
ያቃጥሉ	-11.3611
ኤፉድ	-11.3611
ከፊታችሁ	-11.3611
ጨካኝ	-11.3611
ዘንበሪ	-11.3611
ወንድማችሁ	-11.3611
ይወስዳሉ	-11.3611
እንዳደረግሁ	-11.3611
ፈጽሙ	-11.3611
ተሻግ	-11.3611
ሱኮት	-11.3611
ታጠቡ	-11.3611
ወስጄ	-11.3611
ኮከብ	-11.3611
ታካች	-11.3612
አናውቅም	-11.3612
ሰናከል	-11.3612
ፍለጋ	-11.3613
ከባድ	-11.3613
የኋለኛው	-11.3613
ባረካቸው	-11.3614
ይነግሩ	-11.3614
አታውቅም	-11.3615
ጠባበቅ	-11.3615
ቍር	-11.3618
ቈረጥ	-11.362
እኅቶ	-11.3621
ዘገለዓድ	-11.3621
አይገባም	-11.3622
ታያላችሁ	-11.3626
ዶር	-11.3627
ሞላው	-11.3629
ጠየቅ	-11.3634
አቃጠሉ	-11.3638
ፍረዱ	-11.364
ተቀመጥሁ	-11.3646
ይይዛ	-11.3653
ይነጋገር	-11.3653
ላመኑ	-11.3656
ብላችኋል	-11.3657
ጠበቅሁ	-11.3664
ክፈል	-11.3666
በሬዎቹ	-11.3667
ከእጃቸው	-11.3676
መንግሥትህ	-11.3702
ታደርገ	-11.3707
ዓናቶ	-11.3711
ፈጸሙ	-11.3715
ሰጠሁት	-11.3737
መጣችሁ	-11.3745
ሰደደው	-11.3748
ጻፉ	-11.3761
የተሠሩ	-11.3762
መባው	-11.3786
ዓሚ	-11.3787
የወጣው	-11.3804
ይምጣ	-11.3807
ይወስዱ	-11.3815
ሌለው	-11.3837
ሚኖሩት	-11.3846
መቆም	-11.3876
ትጠብቃ	-11.3876
ታስሮ	-11.3878
ሻቸው	-11.3906
ጠራችሁ	-11.3911
አሮጌው	-11.3921
ያደረ	-11.3922
ባየች	-11.3925
ወንበ	-11.3955
ውጭው	-11.3987
ውጪ	-11.3999
ቁጣ	-11.4005
ተቈጥ	-11.4008
ያስቈጡ	-11.4028
ባረክ	-11.4034
ኋ	-11.4034
ጅራ	-11.4095
ደርሶ	-11.4103
ይቻል	-11.4112
አስቀድመ	-11.4122
አደባባ	-11.4127
ብራችሁ	-11.4143
ምሽግ	-11.4156
ጠግነት	-11.4164
𐊣	-11.4167
ሕይወታቸው	-11.4167
መበለቲቱ	-11.4167
መንኰራኵር	-11.4167
መዘምራን	-11.4167
ሞዓባውያን	-11.4167
ብልጣሶር	-11.4167
ተንቀሳቃሾች	-11.4167
ተገናኘ	-11.4167
አሣሄል	-11.4167
አቅራቢያ	-11.4167
እፈልጋለሁ	-11.4167
ይነግሣል	-11.4167
ጃንደረባ	-11.4167
ጵ	-11.4167
𐊼	-11.4167
ሐሰተኞች	-11.4167
ሻለቃው	-11.4167
ቅዒላ	-11.4167
አሞራዊ	-11.4167
አስተማሪ	-11.4167
አቃሮን	-11.4167
አጥንቶቼ	-11.4167
ጽድቄ	-11.4167
ትሞታለህ	-11.4167
ናታኒም	-11.4167
አብድዩ	-11.4167
አይችሉም	-11.4167
ኢዮኤል	-11.4167
ፍጹማን	-11.4167
kw	-11.4167
አንካሳ	-11.4167
ማኑሄ	-11.4167
አባቶቼ	-11.4167
ይወርሳሉ	-11.4167
አልችልም	-11.4167
ሥቃይ	-11.4167
ተሻገረ	-11.4167
አለቆቻቸው	-11.4167
ስላደረገው	-11.4167
ምልክቶች	-11.4167
ቀሚስ	-11.4167
ጦብያ	-11.4167
ስገዱ	-11.4167
ኃይላቸው	-11.4167
በኋለኛው	-11.4167
ፈሰሱ	-11.4167
እኅቱ	-11.4167
ቍጥቋጦ	-11.4167
ድፍረት	-11.4167
ጐዳና	-11.4167
ስካር	-11.4167
ተመለከትሁ	-11.4167
እልካ	-11.4167
ትበላለች	-11.4168
አሰብሁ	-11.4168
ነፋሳት	-11.4168
አትግለ	-11.4168
የባሳን	-11.417
ተግባር	-11.417
ምሥራቁ	-11.4171
አይኖርም	-11.4171
ፊተኞች	-11.4171
መታዘዝ	-11.4173
ዔድን	-11.4173
መሥዋዕታችሁ	-11.4173
ሰደዳቸው	-11.4174
የተመረጡትን	-11.4174
የተሞሉ	-11.4174
የወይኑን	-11.4174
ደክም	-11.4175
መውጣት	-11.4177
ፈጥናችሁ	-11.4177
ዖዛ	-11.4178
ሽማግሌዎቹ	-11.4179
ቀጥሎ	-11.418
ከበሮ	-11.418
አያይም	-11.4181
ጽዋዎች	-11.4184
ጠጁ	-11.4185
ዚፍ	-11.4186
የተገኘው	-11.4188
ገላውን	-11.4188
አትብሉ	-11.419
የመጡት	-11.4193
ጠፍቶአል	-11.4196
አይቻለሁ	-11.4197
አትሁኑ	-11.4198
ታጠቁ	-11.4199
ትወዱ	-11.4199
ዶሮ	-11.4203
ይጭና	-11.4205
ጽዋውን	-11.4208
ነግረው	-11.4212
ጠበቃ	-11.4215
ሥርዓትህን	-11.4216
አኑሩ	-11.4219
መንጋውን	-11.422
የሚያድን	-11.422
ብርቱዎች	-11.422
ድሀውን	-11.4222
ቀርቶአል	-11.4223
ሲሄድ	-11.4226
የሚቀበል	-11.423
በጊዜው	-11.4243
አልመለስ	-11.4243
ጉድ	-11.4255
ዞር	-11.4276
ታጠቅ	-11.4277
ኩር	-11.4278
ኳ	-11.4278
ሰናዳ	-11.4292
ወንዶችን	-11.4318
ተዋረደ	-11.4325
ያኖሩ	-11.4343
እበትና	-11.4358
የረከሰ	-11.4364
ማይጠፋ	-11.4392
ዘራቸው	-11.4413
ዛፉ	-11.445
መስቀ	-11.4457
ነቀፋ	-11.4461
ገዛው	-11.4462
ዕድሜህ	-11.4475
መትቶ	-11.4477
እፈጽ	-11.4584
መጥታ	-11.4621
ጠቁ	-11.4632
በረዶው	-11.4634
ገብተ	-11.4639
ይገዛል	-11.4642
መልስለት	-11.4642
ጠይቃ	-11.4697
ገባሁ	-11.4706
መሥራት	-11.472
ሆናለች	-11.4721
ደብዳቤው	-11.4724
ሰማሩ	-11.474
በመካከላች	-11.4747
ያስተምራ	-11.4749
ኵላሊቶ	-11.4755
በደለኞች	-11.4755
ተኣምራት	-11.4755
ኃጢያ	-11.4755
አውቄአለሁ	-11.4755
እንናገራለን	-11.4755
ከሚቃጠለው	-11.4755
ያገለግል	-11.4755
ይፈጸማል	-11.4755
ጨካኞች	-11.4755
ራፋስቂስ	-11.4755
አቢግያ	-11.4755
እሰብራለሁ	-11.4755
ከረጢት	-11.4755
ዐፀዶ	-11.4755
ገሥጽ	-11.4755
ጲ	-11.4755
ታገሡ	-11.4755
ትኵሳት	-11.4755
እኖራለሁ	-11.4755
ኮሬብ	-11.4755
በርሳችን	-11.4755
በደላችን	-11.4755
ዜቡል	-11.4755
ገሠጸ	-11.4755
ጸናጽል	-11.4755
መስኮት	-11.4755
ባዕድ	-11.4755
ከራከሩ	-11.4755
ብዔል	-11.4755
መርከቡ	-11.4755
ጮኻ	-11.4755
እጆቻቸው	-11.4755
ይዛችሁ	-11.4755
ታጠባል	-11.4755
ነግርህ	-11.4755
ማዕዘኑ	-11.4755
ችግር	-11.4755
ሚስቶቹ	-11.4755
ጋኔን	-11.4755
ረዓብ	-11.4755
ቁመት	-11.4755
ሕጌን	-11.4755
ሜዶን	-11.4756
የናሱን	-11.4756
ከብበው	-11.4756
ያዛት	-11.4756
ይገኛል	-11.4756
ወፍጮ	-11.4756
በሱሳ	-11.4756
የሚወጡት	-11.4757
ሚስቶቻቸው	-11.4757
አልሰማችሁም	-11.4757
ዘምሪ	-11.4757
ትወርሱአት	-11.4757
ሠርተዋል	-11.4757
ተንቀጠቀጡ	-11.4758
መረምር	-11.4758
የምታደርገው	-11.4758
መዓቱ	-11.4759
በላያችሁ	-11.4759
ጐደለ	-11.4759
ሰጠኋት	-11.4759
ስጠን	-11.476
የሚያደርጉትን	-11.4761
ከርቤ	-11.4761
አገልግሎታቸው	-11.4761
መልካቸው	-11.4762
ይጠግባ	-11.4763
በሚመጣው	-11.4764
አውሩ	-11.4767
ያስተምረ	-11.4767
አውራጃ	-11.4768
ወቃችሁ	-11.4771
መዋጋት	-11.4772
ልበሱ	-11.4777
አውቅ	-11.4783
ሸፈነ	-11.4788
ተከት	-11.4788
ግዙ	-11.4789
ተቈረጠ	-11.479
እንዲያደርጉ	-11.479
ፈጽማ	-11.4795
አህያውን	-11.4799
ተቈጥቶ	-11.48
አላጠፋ	-11.4801
መሠዊያዎች	-11.4804
ተቀምጣ	-11.4806
ግምቱ	-11.4809
ታመንሁ	-11.4818
ሰፈረ	-11.4822
የሚጠላ	-11.4842
ሞላባቸው	-11.485
ጆች	-11.4856
ያደረግሁት	-11.4856
ጕልላ	-11.4874
ይወርሱ	-11.4889
የለንም	-11.49
ጆሮዬ	-11.4902
ጣልሁ	-11.4905
ብረቱ	-11.4906
ሳያቸው	-11.4911
ያልፋ	-11.493
ቴማን	-11.4931
ታመልኩ	-11.4945
ተቈጠረ	-11.4951
ላክሁ	-11.4982
ሚቃጠል	-11.5003
ያፍር	-11.5008
አሳደዱ	-11.5019
ወለድሁ	-11.5035
ግደሉ	-11.5043
ሙሽራው	-11.5044
ሚኖረው	-11.5046
በደልሁ	-11.5062
ቃወም	-11.5089
ይሰበ	-11.5119
ረከሰች	-11.5169
ታስረ	-11.5211
ማያምኑ	-11.5216
አራተኛ	-11.5302
አሳባቸው	-11.5339
መንፈሳ	-11.5345
ማዕድ	-11.5346
ይጠራል	-11.5375
ትውልዳቸው	-11.5378
ላካቸው	-11.5379
ኋለኛ	-11.5379
ኻ	-11.5379
መሸሸጊያ	-11.538
መደነቂያ	-11.538
ሻለቆች	-11.538
ቃርሚያ	-11.538
ቅፍርናሆም	-11.538
በረኞቹ	-11.538
ብፁዕ	-11.538
አማሌቃውያን	-11.538
አርማቴም	-11.538
ኢዮአካዝ	-11.538
ኤልያሴብ	-11.538
እጠብቃለሁ	-11.538
ኬጢያውያን	-11.538
ዐፀድ	-11.538
ዘጠነኛው	-11.538
ይገለጣል	-11.538
ድምፄን	-11.538
ሚመለከተው	-11.538
ርኵሳን	-11.538
ቅርንጫፎቹ	-11.538
ተዘልለው	-11.538
ኃጥኣን	-11.538
አስታሮት	-11.538
ኢያቡሳዊው	-11.538
ኢያቡስቴ	-11.538
ወይፈኑን	-11.538
ወዳጆቹ	-11.538
ያመስግኑ	-11.538
ጕስቍልና	-11.538
ፈቃዳቸው	-11.538
በውስጤ	-11.538
እንግድነት	-11.538
ያስጨንቅ	-11.538
g	-11.538
ሐውልት	-11.538
ተላለፉ	-11.538
ትኖራላችሁ	-11.538
አምጥተው	-11.538
ጕድፍ	-11.538
እስኪነጋ	-11.538
ሜልኮል	-11.538
አመለኩ	-11.538
አምጥቶ	-11.538
ይባረካ	-11.538
ኤሊሳማ	-11.538
እጠራለሁ	-11.538
ተመልክቶ	-11.538
እገባለሁ	-11.538
ወንድማችን	-11.538
ተሾሙት	-11.538
ተመልሰህ	-11.538
ተመሰገነ	-11.538
አንደበት	-11.538
እርምጃ	-11.538
ትወርሳት	-11.538
ግማሽ	-11.538
ክፋቱ	-11.538
አብዝቶ	-11.538
አላገኙም	-11.538
የሚያህሉ	-11.538
ታቀርቡ	-11.538
ይፈርዱ	-11.538
ይመልሳል	-11.538
ከብቶች	-11.538
በወገቡ	-11.538
የሚመስሉ	-11.5381
ትናንት	-11.5381
ሸፍን	-11.5381
መንደር	-11.5381
የሞተውን	-11.5381
ምድጃ	-11.5382
ጨምሩ	-11.5382
ነጠቀ	-11.5382
ፈተኑ	-11.5382
ለቀሩት	-11.5382
ተከፈቱ	-11.5383
የማደርገው	-11.5383
መንግሥቴ	-11.5383
ወድቀው	-11.5384
ውደቅ	-11.5384
መጠጊያዬ	-11.5384
ዓለቱ	-11.5384
ኡሪ	-11.5384
ዘመኔ	-11.5384
አብዝተ	-11.5384
ዘዝኋቸው	-11.5384
አልበላም	-11.5385
ቍጠር	-11.5385
ስብራት	-11.5385
ያከብረ	-11.5386
ስወግድ	-11.5386
ሰጠሃቸው	-11.5387
አሜሳይ	-11.5387
ዘበኛ	-11.5387
አድርጌሃለሁ	-11.5389
ለማጥፋት	-11.5391
ገበያ	-11.5391
አነበበ	-11.5392
ይጠቅማ	-11.5393
አሰናብ	-11.5393
መርጦ	-11.5393
ሎሌዎቹ	-11.5394
ዘገየ	-11.5397
አስተዋ	-11.5398
ይከተሉ	-11.5398
ጌቶች	-11.54
የወጡት	-11.54
ቤታችሁ	-11.5401
ጥፋታቸው	-11.5401
ሰልሉ	-11.5403
ሻገሩ	-11.5408
ቲር	-11.5412
ሊያጠፋ	-11.5429
በደላችሁ	-11.5431
ዘመድ	-11.5432
ትርጓሜው	-11.5441
ዱሮ	-11.5445
ዘጉ	-11.5447
ነገረኝ	-11.5462
እናትዋ	-11.5469
ስንቅ	-11.5473
ለሚያደርጉ	-11.5476
ጠጪ	-11.5486
ቃየን	-11.5487
ትወልድ	-11.5497
ባየሁ	-11.5541
ተሰቀለ	-11.5548
ፋለሁ	-11.5603
ሰጠችው	-11.5606
ይቀጣ	-11.5707
ገረድ	-11.571
አማርያ	-11.5751
ጭኖ	-11.5763
ጎግ	-11.5764
ሰምቼ	-11.5784
ሌዋዊው	-11.5842
ተመለከቱ	-11.586
ደነቁ	-11.5891
መለሰልኝ	-11.5942
ተጽፎ	-11.5991
ጠላሁ	-11.6002
ተላለፍ	-11.6005
ቀርቶ	-11.6006
ምድያምን	-11.6021
ንቀላፋ	-11.6021
በታንኳ	-11.6028
ያሰኘው	-11.6046
መንቀጥቀጥ	-11.6046
መንኰራኵሮቹ	-11.6046
ማሰናከያ	-11.6046
ሜምፊቦስቴ	-11.6046
ርኅራኄ	-11.6046
ሽማግሎች	-11.6046
ቀራጮች	-11.6046
ናቡዘረዳን	-11.6046
አብደናጎ	-11.6046
አትደንግጡ	-11.6046
አኪጦብ	-11.6046
አገልጋዮቹ	-11.6046
ኢዮናዳብ	-11.6046
እንሞታለን	-11.6046
እንዳደረጉ	-11.6046
እግሮቻቸው	-11.6046
ከተፈተለ	-11.6046
ወንድሞቻችን	-11.6046
ዑዝኤል	-11.6046
የተቀረጹ	-11.6046
ይሰግዳሉ	-11.6046
ጕልበቴ	-11.6046
ጠንቋዮች	-11.6046
ጺቅላግ	-11.6046
መስዋዕት	-11.6046
መደረቢያ	-11.6046
መጠምጠሚያ	-11.6046
ሸመገለ	-11.6046
ተናገራችሁ	-11.6046
ትመስላለች	-11.6046
አዕማዱ	-11.6046
ኤልያቄም	-11.6046
ኤስሮም	-11.6046
እንጎቻ	-11.6046
ዮዛባት	-11.6046
ደነገጡ	-11.6046
ደካሞች	-11.6046
ጕልበቱ	-11.6046
ላድርግ	-11.6046
ሲድራቅ	-11.6046
በዓይናቸው	-11.6046
አስቀድማ	-11.6046
ኵርንችት	-11.6046
ጠፍተዋል	-11.6046
ፈቃዴ	-11.6046
ፌጎር	-11.6046
አስገባሪ	-11.6046
አግኝተ	-11.6046
እዘረጋለሁ	-11.6046
አስወገደ	-11.6047
ዘግቶ	-11.6047
ምዋገት	-11.6047
ተመልሳችሁ	-11.6047
ኤልፋዝ	-11.6047
ድንበራቸው	-11.6047
ትወዳለህ	-11.6047
ንጥቂያ	-11.6047
ደቡቡ	-11.6047
እሠራለሁ	-11.6047
እንላለን	-11.6047
ፍሬያማ	-11.6047
ከለክል	-11.6047
ሰገነቱ	-11.6047
ተባበሩ	-11.6047
መጥምቁ	-11.6047
ፍሪዳ	-11.6047
ቤዣ	-11.6047
አሠራር	-11.6047
ምታፈስሰው	-11.6047
ተሰነጠቀ	-11.6047
ያቃጥል	-11.6047
አማትዋ	-11.6047
የሚያደርገውን	-11.6047
ሰውነታቸውን	-11.6047
አደገ	-11.6048
ዐረፈ	-11.6048
መታመኛ	-11.6048
ታወከ	-11.6048
ሃዳድ	-11.6049
ተነሥቼ	-11.6049
የሚወድዱ	-11.605
ማሰሮ	-11.605
ተዋረዱ	-11.6051
ሚሳቅ	-11.6051
አንሡ	-11.6051
ጎረቤቶ	-11.6051
ሰምተናል	-11.6051
ጸለይ	-11.6052
ጌዝር	-11.6052
ዝንጉ	-11.6053
ሰጠኋችሁ	-11.6054
ደረስን	-11.6055
ሚካኤል	-11.6055
ነፋሱ	-11.6055
ስፋት	-11.6055
እስከዚህ	-11.6057
መላለሳ	-11.6058
ሰጥተዋል	-11.6058
መረመር	-11.6058
አቅና	-11.6059
የሞቱት	-11.6061
የሰሙት	-11.6063
ሞቶአል	-11.6063
ግመል	-11.6063
ጥለዋል	-11.6065
ሰፍሩ	-11.6068
ያጥኑ	-11.6073
ሰቀል	-11.6075
አህያይቱ	-11.6076
ፈርተው	-11.6076
አጠፋቸው	-11.6077
ደክመ	-11.6084
ዳጎን	-11.6086
ገዙአቸው	-11.6089
ተጠማ	-11.6089
አይልም	-11.6096
ስበክ	-11.61
ለብስ	-11.6101
ፈተን	-11.6109
ግዛቱ	-11.612
ሰበክ	-11.6135
ፈርቶ	-11.6135
ጉቦ	-11.6151
ናውቅ	-11.6173
ጠላቱ	-11.6174
ማይቻል	-11.6181
ባሮቹ	-11.619
ታደርገው	-11.6227
ወሰድሁ	-11.6233
ሌዋዊ	-11.6255
ተነሥተ	-11.6265
ቀልጠ	-11.6286
ማይታዘዙ	-11.6288
ፍርዴ	-11.6298
ያረክሱ	-11.6353
አትግደ	-11.641
ጻድቁ	-11.6467
እጽፍ	-11.6485
ወስዱ	-11.6494
ታስተውሉ	-11.6535
ይበትና	-11.6553
ረገጠ	-11.6611
ዝዝ	-11.6627
ነግራቸው	-11.6639
ብልሃት	-11.6668
ተቀምጠ	-11.673
ለበጣ	-11.6747
ውቀውም	-11.6748
ኽ	-11.676
w	-11.6761
መሃናይም	-11.6761
መንገዶች	-11.6761
ቂሣርያ	-11.6761
ንቀሳቀሱ	-11.6761
ንቀሳቀስ	-11.6761
ንግግር	-11.6761
ኢዮጴ	-11.6761
ድንኳኖቻ	-11.6761
ሁለንተና	-11.6761
ማገልገያ	-11.6761
ሰዱቃውያን	-11.6761
ባልንጀሮቹ	-11.6761
ብልሃተኛ	-11.6761
ታናሺቱ	-11.6761
ኋለኞች	-11.6761
ነገሥታቶቻቸው	-11.6761
አርሞንዔም	-11.6761
አቆስጣ	-11.6761
አኪማአስ	-11.6761
አይደለንም	-11.6761
እፉኝት	-11.6761
ከመካከላቸው	-11.6761
ዐመፀ	-11.6761
ዓይናችን	-11.6761
የምስራች	-11.6761
ያልተገረዘ	-11.6761
ይሰናከላ	-11.6761
ጥበበኛ	-11.6761
ጥንቃቄ	-11.6761
ፌዘኛ	-11.6761
ሮማኖች	-11.6761
ቢታንያ	-11.6761
አንችልም	-11.6761
ውርንጫ	-11.6761
ጕሮሮ	-11.6761
ሆሴዕ	-11.6761
ነፍሳችን	-11.6761
ይደርሳል	-11.6761
ተደርጎ	-11.6761
አላዋቂ	-11.6761
እነሣለሁ	-11.6761
የተረገመ	-11.6761
ገሃነ	-11.6761
ጠራቢዎች	-11.6761
ውርደት	-11.6761
በፊታችን	-11.6761
ሰብስቡ	-11.6761
ኤሞር	-11.6761
ትበላለህ	-11.6761
አዝዣ	-11.6761
እንዳዘዝሁ	-11.6761
ስደተኛ	-11.6761
ተኵላ	-11.6761
ትወዳላችሁ	-11.6761
ዘንዶው	-11.6761
ይደነቃ	-11.6761
ሰይፌ	-11.6761
ታማኝ	-11.6761
ይታያል	-11.6761
ዳቤር	-11.6762
አሶር	-11.6762
አደጋ	-11.6762
ዘገይ	-11.6762
ምላሳቸው	-11.6762
ውደዱ	-11.6762
ሄጄ	-11.6762
ሰፈራቸው	-11.6762
እሸት	-11.6762
ሲዶናውያን	-11.6762
አይጸናም	-11.6762
በዙሪያሽ	-11.6763
ስወግዱ	-11.6763
ተነሺ	-11.6763
ኤፍራታ	-11.6764
መጥተዋል	-11.6764
ኤዶም	-11.6764
ስተሰር	-11.6764
ለባሽ	-11.6764
ዘዝኋችሁ	-11.6764
ምልክቱ	-11.6764
ከመጠጡ	-11.6764
አይመለስም	-11.6766
ነገራችሁ	-11.6766
ንዕማን	-11.6766
ሸቀጥ	-11.6767
ራሾች	-11.6768
ያደረጉትን	-11.6768
ዘርግተ	-11.6769
ሴቶቹ	-11.677
ታውቂ	-11.677
ሔሬ	-11.6771
ሸፍና	-11.6772
ምጽዋት	-11.6773
እስኪጠፉ	-11.6773
ስደት	-11.6773
ታበዩ	-11.6774
ይሆንበታል	-11.6774
ምረጥ	-11.6775
ፋረድ	-11.6776
መምሰል	-11.6776
ደንዳ	-11.6777
የበኣልን	-11.6778
አልመጣም	-11.678
ዘመሩ	-11.6782
ለመንሁ	-11.6786
ቈረጡ	-11.6786
ሰባብራ	-11.6787
ሚበርር	-11.6787
አላደረግ	-11.6788
ጠለቀ	-11.6792
ይፈርሳ	-11.6794
ይራራል	-11.6794
እነማ	-11.6798
ሰውዬው	-11.6807
ቅሚያ	-11.6813
ተክሎ	-11.682
ንቀት	-11.6821
ሚሉአት	-11.6823
ያመነ	-11.6842
ለበጡ	-11.6847
ሚሉት	-11.6862
ቍጠሩ	-11.6865
ካፈል	-11.6878
ትሠራለ	-11.6939
ጉልበ	-11.6973
ነግራችሁ	-11.6987
በዘበዙ	-11.7046
ወደደችውን	-11.7171
ኪዳኑ	-11.7174
መልካሙ	-11.7229
ይሰበራ	-11.7234
ረጨዋ	-11.7248
ያውቀው	-11.7271
ሥልጣ	-11.7391
የምትቀመ	-11.742
አስታውቀ	-11.7449
ታጥቀ	-11.7487
ይሰማራ	-11.7527
ጠቦቶቹ	-11.753
መሠረቱ	-11.753
መንኰራኵሮች	-11.753
መኳንንቶ	-11.753
ምዕራቡ	-11.753
ሰናክሬም	-11.753
ሹማምቶች	-11.753
በዕብራይስጥ	-11.753
ተሞልታለች	-11.753
ተአምራቱ	-11.753
ንጹሑን	-11.753
አስተምረኝ	-11.753
አንደበቴ	-11.753
አንጥረኛ	-11.753
አገሪቱ	-11.753
ኢያዜር	-11.753
እምቦሳ	-11.753
እንስሶቻቸው	-11.753
ከንፈሮቼ	-11.753
ዓይኖቻችሁ	-11.753
ዝንጕርጕር	-11.753
ይቤዠው	-11.753
ይደነግጣ	-11.753
ጐበዛዝት	-11.753
ጩኸታቸው	-11.753
ጼዴቅ	-11.753
ፈሪሳዊ	-11.753
ፌርዛውያን	-11.753
መዛነቢያዎቹ	-11.753
ቍራጭ	-11.753
ተቃዋሚ	-11.753
ነአሶን	-11.753
ኢያዕር	-11.753
ኤዊያውያን	-11.753
ዮፎኒ	-11.753
ጱ	-11.753
ስልማና	-11.753
ኤዶታም	-11.753
የቃሬያ	-11.753
የተረፈውን	-11.753
ይሒኤል	-11.753
ጾርዓ	-11.753
ታዳጊ	-11.753
እንድርያስ	-11.753
ወገኖቹ	-11.753
ተወግተው	-11.753
ታረደው	-11.753
ሞኝነት	-11.753
ተገናኙ	-11.753
እጥላለሁ	-11.753
ሰላትያል	-11.753
ገለገለ	-11.753
ቀንዶቹ	-11.753
ይነግዱ	-11.753
ጩኹ	-11.753
ይወርሳል	-11.753
ውሰደው	-11.753
መዓዛ	-11.753
አላስቀረ	-11.753
አትፍሪ	-11.753
ወደምትባል	-11.753
ዙፋኔ	-11.753
ገለግለው	-11.753
ሬካብ	-11.753
ተጨነቀ	-11.753
ለምጻም	-11.753
ሳደቡ	-11.753
በዝቶአል	-11.753
ቴርሳ	-11.753
ትሕትና	-11.753
መርዳት	-11.753
ጉዳይ	-11.753
የሚያሰኘውን	-11.753
ነውረኛ	-11.753
ይጓዙ	-11.753
ማጭድ	-11.753
ያደረጋችሁ	-11.753
ነበራት	-11.7531
ሰውነታችሁን	-11.7531
ቀደሙት	-11.7531
የባዶስ	-11.7531
አስታውቃ	-11.7531
አጥንቴ	-11.7531
ዘመዶች	-11.7531
ይዘረጋል	-11.7531
ጥፍጥፍ	-11.7531
የተናገርኸው	-11.7531
ተሸሸገ	-11.7531
የናታንያ	-11.7531
ርስቴ	-11.7532
ተባበር	-11.7532
ማርከው	-11.7532
እንበረም	-11.7532
ሲላስ	-11.7532
ከመንጋው	-11.7532
ፍርምባ	-11.7533
ይስዓ	-11.7533
ጀመሩ	-11.7533
አቅርበ	-11.7533
ተቀምጠዋል	-11.7533
ታደርጋለች	-11.7533
ይሰጣችኋል	-11.7533
በድያለሁ	-11.7533
ሚስቴ	-11.7533
ታጠቀ	-11.7533
አድራጊዎች	-11.7533
ይለናል	-11.7534
አወጡት	-11.7534
ጨምሮ	-11.7534
ካራን	-11.7536
አድርገናል	-11.7536
መለየት	-11.7537
ጆሮአቸውን	-11.7537
ማዕበል	-11.7537
ቤቶቻቸው	-11.7538
ያስተምራቸው	-11.7538
ሚፈስስ	-11.7539
ሠራዊታቸው	-11.7539
መወርወሪያዎች	-11.7539
ካሪም	-11.754
ነገሥ	-11.754
ይገረዝ	-11.754
ቲቶ	-11.754
ሠርተው	-11.7541
አያደርግም	-11.7541
ተከፈለ	-11.7541
የሚያቀርበው	-11.7542
ያየሁት	-11.7542
ሸሽተው	-11.7542
በለሱ	-11.7542
መሥዋዕታቸው	-11.7543
አመጣቸዋለሁ	-11.7543
ይገልጣ	-11.7544
ጓዳዎቹ	-11.7545
ያፈርሳ	-11.7552
ያለቅስ	-11.7554
ወሰነ	-11.7554
ማልሁላቸው	-11.7558
ጠላቴ	-11.7558
የገቡት	-11.7559
ፍቺ	-11.7561
በመካከልህ	-11.7562
ጠጥተ	-11.7563
ጥልቁ	-11.7565
አኑረ	-11.7578
ሥርዓቱ	-11.7578
ሰኮና	-11.758
ጎደለ	-11.7592
ትከተሉ	-11.7595
ናባው	-11.7607
ሬሞን	-11.7608
ጠግባለ	-11.7615
ትመስሉ	-11.7697
ቀለጠ	-11.7757
ኅብረ	-11.7785
ተከናወ	-11.7804
አማቱ	-11.7851
ሚበላው	-11.7922
ስለሌለ	-11.7959
ረክሱ	-11.799
መንገዴ	-11.8047
ጕልላቶ	-11.8203
መዛግብ	-11.8281
ሚጠሉኝ	-11.8321
ምሰሶ	-11.8339
እያንዳንዳች	-11.8348
ልካቸው	-11.8354
ሢ	-11.8362
k	-11.8363
ሰንፔር	-11.8363
ቄድሮን	-11.8363
ቋቁቻ	-11.8363
በኣሊምን	-11.8363
ቤትሖሮን	-11.8363
ብልሃተኞች	-11.8363
ትዕቢተኛ	-11.8363
ንጽሕና	-11.8363
ኢኮንያን	-11.8363
ኢዮሴዴቅ	-11.8363
ዛብሄል	-11.8363
ገሥጸው	-11.8363
ጩኸቴ	-11.8363
ሓ	-11.8363
መቅሠፍቱ	-11.8363
መቅረዝ	-11.8363
መግደላዊት	-11.8363
ምርኮኞቹ	-11.8363
ምድራችን	-11.8363
ሞሖሊ	-11.8363
ሰንበታቴን	-11.8363
በዓይናችሁ	-11.8363
ቤርዜሊ	-11.8363
ተናወጠች	-11.8363
ተንቀሳቃሽ	-11.8363
ንጉሣቸው	-11.8363
አግሪጳ	-11.8363
አፍርሰዋል	-11.8363
ኤዊያዊ	-11.8363
ኤፍሮን	-11.8363
እንኖራለን	-11.8363
ኦፊር	-11.8363
ወታደሮች	-11.8363
የሚሸፍነውን	-11.8363
ይፈልጋል	-11.8363
ደነደነ	-11.8363
ድንግሊቱ	-11.8363
ጭፍሮቹ	-11.8363
ፊተኛይቱ	-11.8363
ሞግዚ	-11.8363
ሽምግልና	-11.8363
ቧ	-11.8363
አትደንግጥ	-11.8363
አንካሶች	-11.8363
ያዘጋጃ	-11.8363
ጣፋጩ	-11.8363
ጽሕፈቱ	-11.8363
ፕ	-11.8363
ሸክሙ	-11.8363
ተመሸገ	-11.8363
ናዝራዊ	-11.8363
እንጐቻ	-11.8363
ገዳደር	-11.8363
መበለቶች	-11.8363
ያዋርዳ	-11.8363
እንጨቱን	-11.8363
ዮአኪን	-11.8363
አትችልም	-11.8363
ሕዝባቸው	-11.8363
አጥንቶች	-11.8363
መኰንን	-11.8363
መጊዶ	-11.8363
ረድኤት	-11.8363
በድለናል	-11.8363
ዕብራዊ	-11.8363
ይሩበኣል	-11.8363
ምስኪን	-11.8363
ተሸክሞ	-11.8363
ሊዋጉ	-11.8363
እኅታቸው	-11.8363
ጠጉር	-11.8363
እንቢልታ	-11.8363
ተጣጣሉ	-11.8363
ያዛቸው	-11.8363
ጸያፍ	-11.8363
ያይደለ	-11.8363
ቆንጆ	-11.8363
ታቦር	-11.8363
ዎቻችሁን	-11.8364
ከብቶቻቸው	-11.8364
አስቀመጠ	-11.8364
ምዋርት	-11.8364
ትውልዶ	-11.8364
ድጓድ	-11.8364
ሐጸር	-11.8364
ይቀርባል	-11.8364
አይተሃል	-11.8364
በዓላት	-11.8364
ርፋሉ	-11.8364
ትካዜ	-11.8364
በሪዓ	-11.8364
ዓረብ	-11.8364
ተደነቀ	-11.8364
ይመስላችኋል	-11.8364
ተቀመጣችሁ	-11.8364
ታሰሩ	-11.8364
አገዳ	-11.8364
ቀሠፈ	-11.8364
ሰደድሁ	-11.8364
በእስያ	-11.8365
ፊስጦስ	-11.8365
ይይዙ	-11.8365
ቀደዱ	-11.8365
ሚነድድ	-11.8365
ቀስተኞች	-11.8365
ያመለጠ	-11.8366
አላየውም	-11.8366
መርበብ	-11.8366
ጠንካ	-11.8366
በልብዋ	-11.8366
ይሰበስባ	-11.8367
ጀምር	-11.8367
ውካታ	-11.8368
በየወገኑ	-11.8368
ይቀራል	-11.8369
የላከኝን	-11.8369
እናንት	-11.837
ጥበቡ	-11.837
ቅርጽ	-11.837
ጊደር	-11.837
የበደሉን	-11.8373
ይበዛል	-11.8375
ስተዋልሁ	-11.8377
ሕፃንነት	-11.8377
ደነግጥ	-11.8379
ፋራን	-11.8381
ተረፉት	-11.8383
ናዕማ	-11.8396
አቅርቡል	-11.8415
ሚያቀርቡት	-11.8445
ስጦስ	-11.8446
መከታ	-11.8492
ሰድደ	-11.8496
ታገለ	-11.8512
ሎናዊው	-11.8531
ስለማይ	-11.8541
ዳታን	-11.8551
ለምጹ	-11.8579
ስቈጡት	-11.8579
ሚልካ	-11.8614
ሚያልፍ	-11.8683
ሌለባት	-11.8722
አሮጌ	-11.8749
ትመጣለ	-11.8767
ሚሄድ	-11.8812
ድምፃቸው	-11.8833
ሳደዱአቸው	-11.8871
ቍርባናቸው	-11.8872
ሚባል	-11.8879
ሰክሩ	-11.8996
ፈልገ	-11.9081
አምስተኛ	-11.9184
ስራሽ	-11.9185
መልእክ	-11.9188
ጠየቁ	-11.922
ፈርሰዋ	-11.9245
ሰብስበው	-11.9253
አቸዋ	-11.9264
ሕፃናቶቻቸው	-11.9272
መርከቢቱ	-11.9272
ርኵሰታቸው	-11.9272
ታላላቆቹ	-11.9272
ኃይለኞች	-11.9272
ወሰዳት	-11.9272
ዘመዶቼ	-11.9272
ድንኳኖች	-11.9272
ፈረሶቻቸው	-11.9272
ላሜሕ	-11.9272
ሔቤር	-11.9272
መቅሠፍቴ	-11.9272
መቅረዞች	-11.9272
መበስበስ	-11.9272
መጥረቢያ	-11.9272
ሞዓባዊ	-11.9272
ሰሎሚት	-11.9272
ሴሰኝነት	-11.9272
ቄኔዝ	-11.9272
ባልንጀሮች	-11.9272
ተላላፊ	-11.9272
ተንኰለኛ	-11.9272
ታቃጥላለ	-11.9272
ትናገራለህ	-11.9272
ትፈልጋላችሁ	-11.9272
አላስተዋሉም	-11.9272
አመንዝሮች	-11.9272
አሽክላ	-11.9272
አቤሮን	-11.9272
እልከኛ	-11.9272
እድናለሁ	-11.9272
እጃችሁን	-11.9272
ከየነገዱ	-11.9272
ዖቤድኤዶም	-11.9272
የማዝዝህን	-11.9272
ያመሰግና	-11.9272
ያዘዝሁህን	-11.9272
ይመለከታሉ	-11.9272
ይንቀጠቀጣ	-11.9272
ይዋረዳል	-11.9272
ይፈልጋሉ	-11.9272
ግብዝነት	-11.9272
ግብፃዊ	-11.9272
ፋቁሔ	-11.9272
መሰደቢያ	-11.9272
ሹማምት	-11.9272
አስቆሮቱ	-11.9272
እያለቀሱ	-11.9272
ዓሦች	-11.9272
ዔቦር	-11.9272
የዋህነት	-11.9272
ደናግል	-11.9272
ገለገሉ	-11.9272
ጶ	-11.9272
መቅሰፍ	-11.9272
ሠርተናል	-11.9272
በበታቹ	-11.9272
ተደፍቶ	-11.9272
አመሰገነ	-11.9272
አድርጊ	-11.9272
ወሰዳቸው	-11.9272
ያለቅሳሉ	-11.9272
ማለፊያ	-11.9272
ይዒኤል	-11.9272
ቀጠቀጥ	-11.9272
ቅርጫት	-11.9272
ቍስሌ	-11.9272
አብዩድ	-11.9272
አይጠቅምም	-11.9272
ዝክሪ	-11.9272
ጫፎቹ	-11.9272
ትሞታላችሁ	-11.9272
ይቀበላሉ	-11.9272
ተለውጦ	-11.9272
አግብተ	-11.9272
ይታመና	-11.9273
ሀብቱ	-11.9273
ጠነቀቅ	-11.9273
የቀደሰውን	-11.9273
ፈወሱ	-11.9273
መዶሻ	-11.9273
በአንገቱ	-11.9273
ዛባድ	-11.9273
መሠውያ	-11.9273
ተሰረየ	-11.9273
ማክማስ	-11.9273
ተካፋ	-11.9273
ተቈጡ	-11.9273
ሰውነታችን	-11.9273
ትሸከማ	-11.9273
ሹመት	-11.9273
ተስማሙ	-11.9273
አስተዋዮች	-11.9273
ተራፊም	-11.9273
አደረጋችሁ	-11.9273
ዕውሩ	-11.9273
እመኑ	-11.9273
እነግራችኋለሁ	-11.9273
ያፈስሱ	-11.9273
አገሬ	-11.9273
እንዲቀበሉ	-11.9273
ሙቀት	-11.9273
ጉዳት	-11.9274
አልፈቀደም	-11.9274
ያፌት	-11.9274
ግድግዳ	-11.9274
ሰልሞን	-11.9274
ሐኖን	-11.9274
አንገታቸውን	-11.9274
ሢሶ	-11.9274
ወጉት	-11.9274
ስደዱ	-11.9274
ኦሖ	-11.9274
ሰቅሉ	-11.9274
ተፈተነ	-11.9274
መምታት	-11.9274
ኦዚ	-11.9275
መደቡ	-11.9275
ሽመል	-11.9275
መጥቻለሁ	-11.9275
ያድግ	-11.9275
አልተፈቀደ	-11.9275
መገዛት	-11.9275
ቢበድል	-11.9275
አልደረሰም	-11.9276
ሰረቀ	-11.9276
ሳደዳቸው	-11.9276
ወጥተህ	-11.9276
ታፈስስ	-11.9276
አፈለሰ	-11.9276
አጥንቱ	-11.9276
እሬት	-11.9278
አብረን	-11.9278
ታዘዘ	-11.9278
አድባር	-11.9279
ተወሰነው	-11.928
ታጠበ	-11.928
ትልቁ	-11.928
ደከምሁ	-11.928
ይማረካ	-11.9281
ምትሄድበት	-11.9281
ተርታ	-11.9282
ሐራን	-11.9283
ያሰማራ	-11.9283
አይሆንል	-11.9288
ተዘጋጅታ	-11.9288
ምንደኛ	-11.9291
ይቀልጣ	-11.9291
ጠገበ	-11.9295
ያርዱ	-11.9297
ካስማዎ	-11.93
እንዳይደለ	-11.9304
ልባሞ	-11.9311
እሸቶ	-11.9317
ከታናሽነ	-11.9342
ያገቡት	-11.9356
ሚከተሉ	-11.9376
የሚቃወ	-11.9458
ታናናሾች	-11.9543
ትእዛዙ	-11.9629
ሚነጻው	-11.9705
ቀደሳ	-11.974
ኪዳኔ	-11.9801
ሌሊቱ	-11.9886
ዕረፍ	-12.0176
ግረኞች	-12.0201
አገልግሎ	-12.0218
ጠፍቶ	-12.0219
ማገልገል	-12.0233
ቀጠቀጡ	-12.0268
አድራጊ	-12.0268
ሆምጣጤ	-12.0272
ሐሸብያ	-12.0272
ሕፃናቶች	-12.0272
መሠረቶች	-12.0272
መኳንንቱ	-12.0272
ሥርዓታቸው	-12.0272
ረአሶን	-12.0272
ሰንባላጥ	-12.0272
ሴኬንያ	-12.0272
ሶፎንያስ	-12.0272
ቁርባን	-12.0272
በግምባሬ	-12.0272
ተመላለሰ	-12.0272
ተርጓሚ	-12.0272
ተነጋገረ	-12.0272
ታለቅሳለች	-12.0272
ናዝሬት	-12.0272
አህዮቻቸው	-12.0272
አላወቅሁም	-12.0272
አመንዝረ	-12.0272
አርፋክስድ	-12.0272
አንጀቴ	-12.0272
አንጐራጐሩ	-12.0272
አደጎች	-12.0272
አድምጠኝ	-12.0272
አጵሎስ	-12.0272
እግዚአብ	-12.0272
ከሊታውያን	-12.0272
ኩብኩባ	-12.0272
ኺ	-12.0272
የሚሸከሙ	-12.0272
ይመለከታል	-12.0272
ይሸፍኑ	-12.0272
ይገለብጣ	-12.0272
ድቅድቅ	-12.0272
ጌድሶናውያን	-12.0272
ግብጻዊ	-12.0272
ጎቶልያ	-12.0272
ጕብጕብ	-12.0272
ሄኖክ	-12.0272
መጎናጸፊያ	-12.0272
ሰለጰዓድ	-12.0272
ሻኵራ	-12.0272
ቅብዓት	-12.0272
ቈረቈሩ	-12.0272
በመካከሉ	-12.0272
ቴቁሔ	-12.0272
አሦራውያን	-12.0272
አጽንቶ	-12.0272
ኤልሳቤጥ	-12.0272
እስጢፋኖስ	-12.0272
እንዲሠለጥ	-12.0272
እጮኻለሁ	-12.0272
ኰበለሉ	-12.0272
ዮዳኤ	-12.0272
ጃንደረቦቹ	-12.0272
ጣዖቶቻችሁ	-12.0272
ፈረሶቹ	-12.0272
ፍላጾች	-12.0272
መማለጃ	-12.0272
መሳፍንቱ	-12.0272
ሱባዔ	-12.0272
ሸማኔ	-12.0272
ተበቃዩ	-12.0272
ተጸየፉ	-12.0272
ትእዛዛቱ	-12.0272
ዲቦራ	-12.0272
ሀብታቸው	-12.0272
ረጃጅ	-12.0272
ሸምበቆ	-12.0272
ብዛታቸው	-12.0272
ነገሥታቱ	-12.0272
ይበቅላል	-12.0272
ዮቶር	-12.0272
ጸሎታቸው	-12.0272
ፍቅራችሁ	-12.0272
መለያየት	-12.0272
ሞሎክ	-12.0272
ሰሌምያ	-12.0272
ተቀምጬ	-12.0272
አሳላፊ	-12.0272
ፈጣኖች	-12.0272
ዘንጎች	-12.0272
እባርካ	-12.0272
ያቀርባሉ	-12.0272
ቈራረ	-12.0272
እችላለሁ	-12.0272
እንዳደረግህ	-12.0272
ጭጋግ	-12.0272
መሐሪ	-12.0272
ረጅሙ	-12.0272
በየሰሞና	-12.0272
ታስባላችሁ	-12.0272
የተዋበች	-12.0272
ባቱኤል	-12.0272
ትመለከታለ	-12.0272
ማሰሪያ	-12.0272
ስደተኞች	-12.0273
ያድራል	-12.0273
አሞናዊ	-12.0273
ውሸተኛ	-12.0273
የተመሸጉትን	-12.0273
ያመነዝራ	-12.0273
ትገዛለህ	-12.0273
ፈርሶአል	-12.0273
ግፈኛ	-12.0273
እውነቱን	-12.0273
አካሄድ	-12.0273
መሶብ	-12.0273
ጥቁር	-12.0273
አይገባህም	-12.0273
ጥቂቱ	-12.0273
አጽንተ	-12.0273
ሸንፈው	-12.0273
አቅንቶ	-12.0273
መፈወስ	-12.0273
ዓምዶች	-12.0273
ደበደቡ	-12.0273
ማምለክ	-12.0273
አቢዔ	-12.0273
የሚቀርቡ	-12.0273
በጸጥታ	-12.0273
የተጠቃ	-12.0273
ወደዚች	-12.0273
ይበዛሉ	-12.0273
ትቀበላ	-12.0273
ይደርቃል	-12.0273
ባልቴት	-12.0273
የሚይዙ	-12.0273
ይመረምራ	-12.0273
ዲቦን	-12.0273
ሚደረገው	-12.0273
ዝዘውን	-12.0273
አረከስ	-12.0273
ምትገቡባት	-12.0273
ውደቁ	-12.0273
መስቀሉን	-12.0273
አስጢን	-12.0273
እብቅ	-12.0274
ሰምታችኋል	-12.0274
ሰላዮች	-12.0274
በዙሪያችሁ	-12.0274
ነገሬን	-12.0274
ሸፈኑ	-12.0274
ወዳዘጋጀ	-12.0274
ሰበኩ	-12.0274
በጆሮአቸው	-12.0274
የጠፋውን	-12.0274
ይጥላል	-12.0275
ናዖድ	-12.0275
ዝገት	-12.0275
አታመንዝ	-12.0278
ዘልፍ	-12.0278
ፈቃዳች	-12.0279
ሰደዳ	-12.0281
በስፍራቸው	-12.0282
ይፈስሳ	-12.029
ተማርሁ	-12.0293
ያፈል	-12.0293
እገድላ	-12.03
ይሰብራ	-12.0301
አቅንተ	-12.0304
ትቆማለ	-12.0311
ትበልጣ	-12.0316
ደክማለ	-12.032
ያርዳ	-12.032
ሚቻለው	-12.0368
ትባላለ	-12.0416
ትገኛለ	-12.0418
ይከፍላ	-12.0465
ያብባ	-12.052
ይከተላ	-12.0551
ጽፍላችሁ	-12.0679
ጸንታ	-12.076
ሚወስደው	-12.078
ያርደ	-12.0874
ናፍቃ	-12.0909
ርስታች	-12.0917
ተቅበዘበ	-12.0947
እነግራ	-12.1055
ዋረደ	-12.1068
መክደኛ	-12.1118
ያፈስሰ	-12.115
መሥዋዕ	-12.1242
ግዞት	-12.129
ግልጥ	-12.1291
መካከላችሁ	-12.1291
ንግሥ	-12.1302
ቺ	-12.1321
ረካቸው	-12.1335
ይመስላ	-12.1355
ይወድዳ	-12.1368
ነጋዴ	-12.1379
r	-12.1383
መልካሞቹ	-12.1384
መተላለፊያ	-12.1384
ሜሌክ	-12.1384
ንጸባረ	-12.1384
ኢይዝራኤላዊው	-12.1384
እንስሶቹ	-12.1384
ወንበዴዎች	-12.1384
ወንዶቹ	-12.1384
ለዘላለሙ	-12.1384
መልእክተኞቹ	-12.1384
መሓሪ	-12.1384
መቤዠት	-12.1384
ቂርያትአርባቅ	-12.1384
በትእዛዜ	-12.1384
ተመልከቺ	-12.1384
ተሰሎንቄ	-12.1384
ተጸጸተ	-12.1384
ተፈቅዶአል	-12.1384
ታሳድዳ	-12.1384
ትችላላችሁ	-12.1384
አሸነፈ	-12.1384
አናጢዎች	-12.1384
አጥማጆች	-12.1384
ኢዮሳፍጥ	-12.1384
እጸልያለሁ	-12.1384
ኦፌር	-12.1384
ከአጐዛ	-12.1384
ኪልቅያ	-12.1384
ወዳጆቼ	-12.1384
የቢዖር	-12.1384
ያርፋል	-12.1384
ያድናቸዋል	-12.1384
ይረግፋል	-12.1384
ይታወቃል	-12.1384
ግመሎቻቸው	-12.1384
ጳስኮር	-12.1384
ጴ	-12.1384
ሰልፈኞቹ	-12.1384
ሰይፋቸውን	-12.1384
ባልቴቶች	-12.1384
ከንፈሬ	-12.1384
ዐርፎ	-12.1384
ገሠጹ	-12.1384
ፈወሳቸው	-12.1384
ቁባቶች	-12.1384
ባስልኤል	-12.1384
ኰበለለ	-12.1384
ገሠጽ	-12.1384
ሞሳሕ	-12.1384
ተጸየፈ	-12.1384
ታስተምር	-12.1384
*	-12.2634
1	-12.2634
ፆ	-12.2634
ኆ	-12.4062
v	-12.4062
ዉ	-12.5673
ዥ	-12.5721
"	-12.5729
l	-12.5729
ፐ	-12.5729
ፓ	-12.5729
ዣ	-12.7727
s	-12.7729
2	-12.7729
d	-13.0229
ፄ	-13.3562
3	-13.3562
[	-13.3562
]	-13.3562
o	-13.3562
ጰ	-13.3562
ፒ	-13.3562
ፑ	-13.3562
ኹ	-13.8561
፤	-13.8562
(	-13.8562
)	-13.8562
-	-13.8562
5	-13.8562
ቊ	-13.8562
ፂ	-13.8562
ዷ	-13.8562
e	-14.8548
ሷ	-14.8549
t	-14.855
ፔ	-14.8551
ኾ	-14.8552
ኄ	-14.8553
ዡ	-14.8554
ዦ	-14.8555
ፁ	-14.8556
!	-14.8557
ኘ	-14.8558
ኞ	-14.8559
?	-14.856
፥	-14.8561
b	-14.8562
ጧ	-14.8562
0	-14.8562
4	-14.8562
@	-14.8562
m	-14.8562
u	-14.8562
ቷ	-14.8562
ቿ	-14.8562
ኗ	-14.8562
ኲ	-14.8562
ኼ	-14.8562
ጒ	-14.8562
ፏ	-14.8562
ሏ	-14.8562
ኟ	-14.8562
።	-14.8562
