<pad>	0
</s>	0
<unk>	0
,	-2.63736
▁ᎠᎴ	-3.32732
.	-3.35765
▁ᎾᏍᎩ	-3.56073
;	-3.75549
Ꮓ	-4.01981
▁ᎯᎠ	-4.25073
▁ᎨᏒ	-4.41593
Ꭲ	-4.4313
Ꭹ	-4.7672
▁ᎥᏝ	-4.84048
▁ᎨᏒᎢ	-4.8739
ᏰᏃ	-4.96444
▁ᎤᏁᎳᏅᎯ	-5.03575
▁Ꭴ	-5.13064
Ꭿ	-5.24749
▁Ꭰ	-5.25976
Ꮙ	-5.2718
▁	-5.34824
?	-5.36563
Ꮧ	-5.43414
▁Ꮎ	-5.50655
▁ᏥᏌ	-5.50916
▁ᎾᏍᏉ	-5.51124
▁ᏴᏫ	-5.51825
▁ᎩᎶ	-5.52482
Ꭽ	-5.52883
▁ᎠᏴ	-5.55015
Ꮫ	-5.55615
▁ᎨᏎᏍᏗ	-5.59142
Ꮎ	-5.62604
-	-5.63918
▁ᏂᎨᏒᎾ	-5.66254
▁ᎤᎬᏫᏳᎯ	-5.66699
▁ᏥᎩ	-5.67492
Ꮒ	-5.68498
Ᏹ	-5.70829
▁ᎾᏍᎩᏯ	-5.72158
▁ᎢᏳᏍᏗ	-5.72957
▁ᎠᏎᏃ	-5.73353
ᏍᎩᏂ	-5.78379
Ꭶ	-5.80118
▁ᏂᎯ	-5.82077
Ꮅ	-5.82449
Ꮣ	-5.86582
▁ᎾᎿ	-5.8705
▁ᎦᎶᏁᏛ	-5.87159
▁ᏱᎩ	-5.88536
Ꮕ	-5.89563
ᏍᏗ	-5.91962
Ꮈ	-5.9464
▁ᎪᎱᏍᏗ	-5.9715
▁Ꮷ	-5.99001
▁ᏂᎦᏛ	-6.0117
▁ᎣᏍᏛ	-6.06714
Ꮿ	-6.07602
▁ᎤᏂ	-6.09509
▁ᎢᎦ	-6.10142
▁ᎢᏳᏃ	-6.1171
▁Ꮧ	-6.13609
ᏗᏱ	-6.17988
▁Ꮵ	-6.18355
▁ᎿᏉᏃ	-6.19695
Ꮟ	-6.20294
Ꮑ	-6.21384
▁ᎠᏂ	-6.21566
Ꭺ	-6.23451
▁Ꮪ	-6.24408
▁ᎤᏪᏥ	-6.25862
▁ᏞᏍᏗ	-6.26631
▁ᎡᎶᎯ	-6.26889
▁Ꮳ	-6.31314
Ꮵ	-6.33026
▁ᎾᏍᎩᏃ	-6.33853
▁ᎬᏩ	-6.35727
▁ᎤᏲ	-6.36838
▁ᎿᏉ	-6.38144
▁ᎤᏣᏘ	-6.38744
Ꮄ	-6.38905
▁ᎢᏥ	-6.3909
Ꭸ	-6.40201
▁ᏂᎦᎥ	-6.42217
Ᏻ	-6.44323
Ᏼ	-6.45452
Ꮢ	-6.45761
Ᏺ	-6.46227
▁Ᏹ	-6.47875
▁ᎤᏩᏒ	-6.48244
▁ᎬᏂᎨᏒ	-6.48821
▁ᎧᏃᎮᏛ	-6.49862
Ꮩ	-6.51065
▁ᎦᎸᏉᏗᏳ	-6.51551
ᏍᎩ	-6.51806
▁ᎠᏓᏅᏙ	-6.53983
▁ᏄᏍᏛ	-6.55544
▁ᎣᏏᏳ	-6.56415
▁ᎢᏴᏛ	-6.57846
▁Ꭶ	-6.58671
▁ᎦᎸᎳᏗ	-6.61288
▁ᎾᎯᏳ	-6.62275
▁ᎤᎾ	-6.62304
▁Ꭲ	-6.62877
Ꭼ	-6.63009
▁ᎯᎠᏃ	-6.64931
▁ᎤᏟ	-6.65314
▁ᏗᎧᎿᏩᏛᏍᏗ	-6.65839
ᏍᎪ	-6.66826
▁ᎠᏍᎦᏯ	-6.66969
▁ᎠᏥᎸ	-6.67219
▁ᎪᎯ	-6.68944
▁ᏄᏪᏎᎢ	-6.71499
▁ᎤᏤᎵᎦ	-6.72156
▁ᎡᎯ	-6.72424
▁ᎦᏙ	-6.73006
Ꮳ	-6.73736
Ꮂ	-6.75174
▁Ᏻ	-6.76662
▁ᎤᏤᎵ	-6.7766
▁Ꮣ	-6.78925
Ꮥ	-6.7905
Ꮆ	-6.79827
▁ᎾᏂᎥ	-6.809
Ꮸ	-6.83674
▁ᎢᏳᎵᏍᏙᏗᏱ	-6.83881
▁ᏌᏉ	-6.85029
▁ᎠᎩ	-6.85623
Ꮨ	-6.87563
▁ᏥᏌᏃ	-6.88362
▁[	-6.8863
▁ᏰᎵ	-6.89016
Ᏸ	-6.89094
Ꮤ	-6.89094
Ꭾ	-6.9006
▁ᎤᏂᏣᏘ	-6.91156
▁ᎢᏳ	-6.93297
Ꮞ	-6.93372
▁ᎨᏎᎢ	-6.93725
▁ᎬᏂᏳᏉ	-6.94487
▁ᏚᏳᎪᏛ	-6.95636
▁ᎠᏁᎯ	-6.97066
Ꮃ	-6.98633
▁Ꭱ	-6.99169
▁ᏚᏂ	-6.99181
▁ᎠᏂᏧᏏ	-6.99596
▁ᏧᏓᎴᏅᏛ	-7.00712
Ꮲ	-7.00791
ᏍᏓ	-7.01015
Ꮺ	-7.01815
▁ᎬᏩᏍᏓᏩᏗᏙᎯ	-7.01825
ᏍᏛ	-7.01987
ᏁᎢ	-7.02312
▁ᎠᏎ	-7.02808
Ꭰ	-7.03923
▁ᎤᎬᏩᎵ	-7.04087
▁Ꭿ	-7.04713
ᎨᏍᏗ	-7.04826
ᎸᎩ	-7.08658
▁ᎢᎩ	-7.10283
▁ᏈᏓ	-7.10656
▁Ꮔ	-7.11701
Ꮻ	-7.12634
ᏍᎦ	-7.13104
▁ᎠᏆ	-7.13291
▁Ꭸ	-7.13323
]	-7.13471
Ꮴ	-7.13635
ᏍᎨᏍᏗ	-7.13777
▁ᎢᏨ	-7.1401
ᎮᏍᏗ	-7.14166
▁Ꮿ	-7.14222
▁ᏣᏂ	-7.14454
▁ᏂᏚᏪᏎᎴᎢ	-7.15256
▁ᏧᏂ	-7.15612
Ꮹ	-7.16438
▁ᏄᏪᏒᎩ	-7.16597
▁ᎦᎪ	-7.16731
ᎴᎢ	-7.17549
▁ᎤᏙᎯᏳᎯᏯ	-7.17806
ᏅᎩ	-7.18343
▁ᏄᏪᏎᎴᎢ	-7.19318
▁ᏔᎵᏁ	-7.19533
▁Ꮻ	-7.19777
▁ᎦᏙᏃ	-7.19833
▁ᏝᏍᎪ	-7.20367
▁ᎨᏒᎩ	-7.20602
▁Ꭼ	-7.21059
▁ᎡᏥ	-7.21452
Ꮼ	-7.21984
ᏒᎩ	-7.23135
▁ᏉᎳ	-7.23336
▁ᎢᏣ	-7.23479
ᏍᏗᏱ	-7.2383
ᏔᏅᎯ	-7.2459
▁Ꮒ	-7.24595
▁ᏥᎷᏏᎵᎻ	-7.25187
▁ᎢᏧᎳᎭ	-7.25308
▁ᎪᎯᏳᏗ	-7.25444
▁ᎢᎬᏱ	-7.25636
Ꮖ	-7.26901
Ꮇ	-7.27424
ᏁᎸ	-7.27832
▁ᏣᎬᏫᏳᎯ	-7.28822
▁ᎡᏍᎦ	-7.28915
ᏎᎢ	-7.29986
▁ᎠᎹ	-7.30077
▁ᎬᏂᏛ	-7.3064
▁Ꮥ	-7.3069
▁ᎠᎨᏴ	-7.31048
▁ᏂᏚᏪᏎᎸᎩ	-7.31078
ᏅᎯ	-7.31606
▁ᎠᏏ	-7.31825
▁ᎠᏥ	-7.32476
▁ᎠᏰᎵ	-7.32703
▁ᏄᏪᏎᎸᎩ	-7.34191
▁ᎣᎩ	-7.34897
ᎸᎯ	-7.35367
▁ᏔᎵ	-7.36135
▁ᎤᏓᏙᎵᏍᏗ	-7.37343
▁ᏂᎦᏗᏳ	-7.38084
ᏙᏗ	-7.38405
Ꮠ	-7.38943
▁ᎤᏅᏒ	-7.39096
▁ᏧᏪᏥ	-7.3975
▁ᏅᏗᎦᎵᏍᏙᏗᎭ	-7.39756
Ꭱ	-7.39813
▁Ꮽ	-7.39992
ᎯᏳ	-7.40251
▁ᏧᎾᏓᎴᏅᏛ	-7.4138
▁Ꭳ	-7.41963
Ꭵ	-7.43113
▁ᎤᏁᏨ	-7.43889
▁ᎢᏯᏂᏛ	-7.43915
▁ᎠᏕᎸ	-7.43943
▁ᏗᎦ	-7.44962
▁ᎬᏂ	-7.45107
▁ᏂᎪᎯᎸ	-7.47083
Ꮔ	-7.47316
Ꮜ	-7.48036
ᎲᎢ	-7.48972
▁ᎾᏍᎩᏯᎢ	-7.49122
▁ᏕᏥ	-7.49483
▁ᎾᎥ	-7.51853
▁ᎢᏤ	-7.53048
▁ᎤᏙᎯᏳᎯ	-7.5364
▁ᎬᏩᎦᏘᏯ	-7.53833
▁Ꭵ	-7.53986
▁ᏍᎩ	-7.54011
Ꮀ	-7.54038
▁ᎩᎳᏉ	-7.54127
▁ᏥᎪ	-7.5442
▁ᎤᏓ	-7.56307
▁ᎠᏏᏉ	-7.56689
▁ᎦᏚ	-7.57211
▁ᏅᎩ	-7.57628
▁ᏧᎾᏁᎶᏗ	-7.5771
▁ᎢᎦᎢ	-7.57999
▁ᏅᏩᏓᎴ	-7.5886
ᏉᏍᎩᏂ	-7.602
!	-7.60698
▁ᏄᎬᏫᏳᏒ	-7.60698
ᎬᎢ	-7.60785
▁ᎤᏍᏗ	-7.61194
ᏍᎬᎢ	-7.6158
▁ᎢᏳᏩᏂᏌᏛ	-7.61719
▁ᎤᏇᏓᎵ	-7.61739
▁ᏂᏨᏪᏎᎭ	-7.61748
▁ᏗᎧᎿᏩᏗᏙᎯ	-7.62749
ᏰᎸ	-7.62765
▁ᎬᏗ	-7.6338
▁ᎠᏓ	-7.63626
Ꮪ	-7.63835
▁ᎤᎵᏂᎩᏛ	-7.63851
ᏍᎬ	-7.63959
▁ᎢᏓᎵᏅᏟ	-7.64851
▁ᏗᎦᎸᏫᏍᏓᏁᏗ	-7.64851
▁ᏧᎾ	-7.65169
Ꭴ	-7.6541
▁ᎠᏰᎸ	-7.66076
ᎸᎢ	-7.661
ᏙᏗᏱ	-7.66315
▁ᎤᏪ	-7.67178
▁ᏓᏂ	-7.68554
ᏗᎭ	-7.69203
ᏍᎩᏂᏃᏅ	-7.69538
▁ᏦᎢ	-7.69883
▁ᏱᎨᏎᏍᏗ	-7.70398
▁ᏅᏯ	-7.70402
ᎪᎢ	-7.70617
▁ᎠᏏᏴᏫ	-7.7069
▁ᎦᏚᎲ	-7.71487
▁ᎤᏚᎩ	-7.71582
ᏔᏅ	-7.71976
ᎮᎢ	-7.72483
ᏁᏗᏱ	-7.73503
Ꮦ	-7.73539
▁ᏅᏩᏙᎯᏯᏛ	-7.7369
▁ᎤᏕᎵᏛ	-7.7369
▁ᎡᏙᏓ	-7.7373
▁ᎩᎶᏃ	-7.74008
▁ᏗᏣ	-7.74021
ᏍᎪᎢ	-7.75726
ᎦᎵ	-7.75772
▁ᎠᏫ	-7.75915
▁ᏧᏙᎢᏛ	-7.76029
▁ᎠᏂᏍᎦᏯ	-7.76029
▁ᏧᎬᏩᎶᏗ	-7.76037
▁ᎢᏗᏢ	-7.76124
▁Ꮫ	-7.76672
▁ᎢᎨᏎᏍᏗ	-7.7723
▁ᏄᏂᏪᏒᎩ	-7.77338
▁ᏄᏂᏪᏎᎢ	-7.78504
▁ᎤᏁᎳᎩ	-7.78543
▁ᎠᎾᏙᎴᎰᏍᎩ	-7.79643
▁ᎤᎾᏓᏅᏘ	-7.79752
ᏁᎸᎯ	-7.80015
▁ᎢᎬᏱᏱ	-7.80218
▁ᎪᏪᎵ	-7.80379
Ꭻ	-7.80825
▁ᏰᎵᏉ	-7.81417
▁ᎦᎵᏉᎩ	-7.81918
▁ᎨᏎ	-7.82116
▁ᏔᎳᏚ	-7.82128
▁Ꮶ	-7.82809
▁ᎢᎦᏛ	-7.83339
▁ᎢᎸᎯᏳ	-7.83395
▁ᎢᏳᏰᏃ	-7.83867
▁ᏗᎦᎳᏫᎢᏍᏗᏱ	-7.85063
Ꮯ	-7.85563
▁ᎠᏂᏔᎵ	-7.85976
ᏁᎵ	-7.8636
▁ᏌᏩᏂ	-7.8729
▁ᎡᎳᏗ	-7.87446
▁ᏱᎦ	-7.87676
▁ᏗᏥ	-7.87972
▁ᎨᏥ	-7.88282
▁ᏄᏂᎬᏫᏳᏒ	-7.88623
▁ᎢᏏᎵ	-7.88626
Ꮰ	-7.88931
▁ᎣᎦ	-7.89316
▁ᏅᏓᏳᏓᎴᏅᎯ	-7.89981
▁ᎡᏆᎭᎻ	-7.89985
▁ᏱᎰᏩ	-7.89987
▁ᎨᎵᎵ	-7.9003
▁ᎠᏍᎦᏂ	-7.91349
ᎲᎩ	-7.91382
▁ᎤᏍᏆᏂᎪᏗ	-7.91465
▁ᎦᏓᎭ	-7.91549
▁ᎢᎦᏤᎵ	-7.92524
▁ᎠᏂᏆᎵᏏ	-7.92734
▁ᏚᏙᎥ	-7.92764
▁ᎤᎾᏤᎵᎦ	-7.92961
▁ᎠᎦ	-7.93876
▁ᎼᏏ	-7.94142
▁ᏗᏂᎧᎿᏩᏗᏙᎯ	-7.94142
▁ᎡᏣ	-7.94175
▁Ꮩ	-7.94719
▁ᏱᎨᏎᎢ	-7.94794
ᎦᏘ	-7.9518
▁ᎠᎾ	-7.96106
ᎠᏁᎶᎯ	-7.96937
▁ᎤᏁ	-7.96971
▁ᎠᏙᎴᎰᏍᎩ	-7.97038
▁ᎠᏎᏉ	-7.97377
ᎰᎢ	-7.98189
▁ᎠᏲᎱᎯᏍᏗ	-7.98491
Ꮶ	-7.98733
▁ᏂᎬᏅ	-7.99035
ᏒᎢ	-7.9923
ᏍᎨᎢ	-7.99245
ᏁᎸᎩ	-7.99693
ᏙᎯ	-7.99745
▁ᎢᏨᏒ	-8.00477
ᏍᏚ	-8.00546
▁Ꮴ	-8.00981
▁ᎠᎦᏴᎵᎨ	-8.01902
▁ᎦᏙᎯ	-8.02034
▁Ꮹ	-8.02085
▁ᏂᎯᏍᎩᏂ	-8.02779
▁ᎤᏥ	-8.02859
ᏗᏍᎨᏍᏗ	-8.03076
▁ᏥᏚ	-8.03225
ᏓᎴ	-8.0324
ᎨᎢ	-8.03946
▁ᎢᏯᎦᏴᎵ	-8.04599
▁ᏗᏂ	-8.0515
Ꮝ	-8.0559
▁Ꭷ	-8.05893
Ꭷ	-8.05898
▁ᏙᏓ	-8.05935
▁ᎠᏁᎲ	-8.06182
▁ᎠᏍᎩᎾ	-8.06195
▁ᎤᎵ	-8.07291
ᏗᎦᎳᏫᎢᏍᏗᏱ	-8.07295
▁ᏚᎾ	-8.07488
ᏓᏅ	-8.07538
▁ᎺᎵ	-8.078
▁ᎦᏳᎳ	-8.078
▁ᎠᏓᎨᏳᏗ	-8.07884
Ꮡ	-8.08048
ᏁᎯ	-8.08698
▁ᎤᎵᏂᎩᏗᏳ	-8.09515
▁ᏕᏫ	-8.09619
ᏁᎭ	-8.09837
▁ᎤᏙᏓ	-8.09912
ᏍᎬᎾ	-8.10068
▁ᎠᎦᏴᎵᎨᎢ	-8.10738
ᎨᎶᎯ	-8.11092
▁ᎠᏍᏓᏯ	-8.11109
▁ᎤᎾᏓ	-8.11646
ᏍᎨ	-8.11712
▁ᏄᏍᏗ	-8.11842
▁Ꭽ	-8.11979
▁ᎣᏂ	-8.12025
ᏔᏅᎩ	-8.12039
ᏁᎴ	-8.12143
ᎯᏍᏗᏱ	-8.12768
▁ᏱᏥ	-8.12782
▁ᏕᏣ	-8.12798
▁ᎠᎾᎵᏅᏟ	-8.12801
▁ᏂᎬ	-8.12935
▁ᏄᎵᏍᏔᏅ	-8.14208
ᏅᎢ	-8.14409
▁ᎠᏂᏍᎩᎾ	-8.14528
▁ᎨᏣ	-8.14711
▁ᎢᏗ	-8.15392
▁ᏕᎦ	-8.1637
ᏍᏕ	-8.16846
▁ᎨᏐᎢ	-8.17181
▁ᎤᎷᏨ	-8.17533
▁ᏧᏤᎵ	-8.17904
▁ᏆᎴᏗ	-8.18069
▁ᎦᎶᎯᏍᏗᏱ	-8.18106
▁ᎠᏃᎯᏳᎲᏍᎩ	-8.18114
ᎬᎩ	-8.18783
Ꮷ	-8.18877
▁Ꮨ	-8.19847
▁ᏅᏩᎾᏓᎴ	-8.19883
▁ᏧᏂᏲᎱᏒᎯ	-8.19883
ᏔᏂ	-8.20203
▁ᏥᏳᎯ	-8.20403
▁ᎢᏯ	-8.20709
▁ᎢᎦᏛᏃ	-8.20726
▁ᎠᏓᏁᎸ	-8.20853
Ꮘ	-8.21028
▁ᎠᏂᎨᏴ	-8.21737
▁ᎦᏰᎪᎩ	-8.21741
▁ᎨᏥᏅᏏᏛ	-8.21764
▁ᏐᎢ	-8.22049
▁ᏥᎨᏒᎩ	-8.22057
ᏔᏁᎢ	-8.22644
ᏔᏁ	-8.22737
ᏎᏍᏗ	-8.22891
ᏛᎩ	-8.22947
▁ᏂᏚ	-8.23598
▁ᏗᏃᏪᎵᏍᎩ	-8.23621
▁ᏒᏃᏱ	-8.23622
▁ᎢᎬᏱᏗᏢ	-8.2365
▁Ꮭ	-8.2369
▁ᏱᏣ	-8.23796
ᏒᎯ	-8.24002
▁ᎤᎾᏛᎦᏅ	-8.24112
▁ᎯᏍᎩ	-8.24124
▁ᏄᎵᏍᏔᏁᎢ	-8.24231
▁ᎦᎸᎶᎢ	-8.2426
ᏍᏙᏗ	-8.24437
▁ᏄᏓᎴᏒ	-8.25545
Ꮋ	-8.25768
▁ᎢᏳᏍᎩᏂ	-8.26077
Ꭳ	-8.26345
▁ᎤᎾᏓᏡᎬ	-8.26382
▁ᏕᎤ	-8.27044
ᏙᎵ	-8.27367
▁ᎩᎦᎨ	-8.27506
▁ᎤᏤᎵᎪᎯ	-8.27563
▁"	-8.2763
▁ᎥᎥ	-8.27631
▁ᏂᏣ	-8.2771
▁ᎤᏲᎱᏒ	-8.27728
ᏍᏙ	-8.28062
▁ᏥᎨᏎᎢ	-8.28168
ᏄᎪ	-8.28228
ᎲᎾ	-8.28295
Ꮱ	-8.28367
▁ᏱᏚ	-8.28617
ᏍᏙᏗᏱ	-8.28647
ᎦᏔᎭ	-8.2878
▁ᎤᎾᏤᎵ	-8.29276
▁Ꮑ	-8.29419
▁ᎠᎺᏉᎯ	-8.29506
▁ᎤᎾᏙᏓᏆᏍᎬ	-8.29506
▁ᎤᏓᎵᎢ	-8.29516
▁ᎡᎶᏛ	-8.29541
▁ᎤᏂᎬᏫᏳᎯ	-8.29559
▁ᎢᏳᎾᏍᏗ	-8.29672
▁ᏨᏒ	-8.29691
▁ᎤᏲᎢᏳ	-8.29762
▁ᏦᎢᏁ	-8.30118
▁ᏥᏳ	-8.30306
ᏁᏗ	-8.31268
▁ᏔᏕᏲᎲᏍᎩ	-8.31546
▁ᎩᎬ	-8.31614
▁ᏂᎬᎾᏛ	-8.32385
ᏍᏔᏅ	-8.32619
ᎬᏩ	-8.32663
▁ᎤᏂᏲ	-8.32847
ᏍᏔᏂ	-8.33034
ᏛᎾ	-8.33466
▁(	-8.33629
▁ᎡᎺᏅ	-8.33629
▁ᎤᏅ	-8.33881
▁ᎠᏲᎵ	-8.33908
▁ᎤᏁᏤ	-8.33931
▁ᏫᏚ	-8.34779
▁ᏂᎦ	-8.35538
▁ᎢᎪᎯᏛ	-8.35758
▁ᎤᏛᎦᏅ	-8.35877
▁ᏄᏪᏒ	-8.35955
▁ᎤᏐᏅ	-8.36226
ᏍᏆ	-8.36241
ᏗᏍᎩ	-8.36356
ᏍᎦᎩ	-8.36505
▁ᏓᏳ	-8.36519
▁ᎤᏛᏅ	-8.36739
▁ᎠᎩᎾ	-8.37211
ᏎᎵ	-8.37218
▁ᏥᏕ	-8.37327
ᏗᎾ	-8.37462
▁ᎢᏳᎵᏍᏙᏗ	-8.37663
▁ᏗᎬᏩ	-8.3793
▁ᎢᎸᎯᏢ	-8.37931
▁ᎣᏥ	-8.3932
▁ᎠᏛ	-8.39562
ᏁᎳ	-8.39607
▁Ꮀ	-8.39876
Ꮏ	-8.39877
▁ᏅᏓᎬᏩᏓᎴᏅᏛ	-8.40155
▁ᏧᏗᏱ	-8.40241
▁ᏓᎾ	-8.40272
▁ᏅᏗᎦᎵᏍᏙᏗᏍᎨᏍᏗ	-8.40384
▁Ꮕ	-8.40412
ᎯᏍᏗ	-8.41005
▁ᏅᏓ	-8.41243
▁ᎾᏍᎩᏍᎩᏂ	-8.41715
ᏓᏁᏗ	-8.41856
ᎠᏗᏔᏍᏗ	-8.42524
▁ᏅᏙ	-8.42589
▁Ꮤ	-8.42845
▁ᏧᏤᎵᎦ	-8.42866
ᎦᏔᎲ	-8.43252
▁ᎢᎾᎨ	-8.43521
▁ᎧᏁᎬ	-8.4369
▁ᎤᎪᎲ	-8.44075
ᏩᏛ	-8.44255
▁ᎢᏳᏟᎶᏛ	-8.44751
▁ᎢᏣᎵᏍᏓᏁᏗ	-8.44784
ᎬᎾ	-8.4538
ᏄᏬ	-8.45894
ᏒᎾ	-8.4621
▁ᏱᏓ	-8.46274
ᏅᏏᏛ	-8.46353
▁ᎠᏁᎲᎢ	-8.46812
▁ᎬᏩᏂ	-8.46927
▁ᎠᏍᎪᎯᏧᏈ	-8.47138
▁ᏧᏂᎸᏫᏍᏓᏁᎯ	-8.47204
ᎶᎯ	-8.47252
▁ᎠᎦᏙᎥᎯᏍᏗ	-8.47254
▁Ᏺ	-8.47286
ᏁᎮᏍᏗ	-8.47962
▁ᏂᏥᎥ	-8.48391
▁ᏄᏪᏎᎴ	-8.48426
Ꮗ	-8.48433
ᏚᎵ	-8.48679
ᎴᏍᏗ	-8.49565
▁ᎦᎸᏉᏗ	-8.49566
▁ᎤᎵᏍᏆᎸᏗ	-8.49572
▁ᏅᏓᎦᎵᏍᏙᏗᏍᎬᎩ	-8.4965
▁ᎠᏇᏥ	-8.49684
▁ᏈᎵᎩ	-8.49688
▁ᎬᎩ	-8.49783
▁ᎤᏩ	-8.49797
▁ᎦᏚᎲᎢ	-8.49878
ᏲᎯ	-8.49911
ᎾᏍᎩ	-8.50451
▁ᎠᎦᏔᎲᎢ	-8.5048
ᏛᎦ	-8.50615
▁ᎨᏐ	-8.51113
▁Ꮸ	-8.51503
ᏍᎬᎩ	-8.51668
▁ᎢᏧᎳ	-8.51716
ᏗᏍᎬ	-8.51873
▁ᎬᏗᏍᎬ	-8.51989
▁ᏗᏓᏍᏚᏗᏱ	-8.52071
▁ᎢᎸᏍᎩ	-8.52074
▁ᎠᏂᏯᏫᏍᎩ	-8.52192
▁ᏥᎻ	-8.52344
▁ᎦᏰ	-8.52375
▁ᎢᏅ	-8.52592
▁ᏗᎬ	-8.52651
▁ᎥᎩ	-8.52699
▁ᎾᏍᏉᏍᎩᏂ	-8.53355
▁ᏥᏂ	-8.53499
ᏩᏛᎲ	-8.5356
▁ᏌᏉᏉ	-8.53616
ᏨᎩ	-8.53635
▁ᏥᏥ	-8.53761
▁ᏱᏗ	-8.53824
▁ᎤᏬ	-8.54181
▁ᏫᎾᏍᏛᎾ	-8.54636
▁ᏗᏂᏲᎵ	-8.54657
▁ᏱᏥᎦᏔᎭ	-8.547
▁ᏱᏂ	-8.54874
▁ᎠᎵᏍᏓᏴᏗ	-8.5491
ᏪᎳ	-8.54952
▁ᏂᏥ	-8.55267
▁Ᏼ	-8.55904
▁ᏓᎦ	-8.55993
ᏲᏎ	-8.56212
Ꮬ	-8.56612
ᏙᏓ	-8.57035
▁ᎠᏥᎸᏉᏗᏳ	-8.57376
ᏓᏍᏗᏱ	-8.57397
▁ᎤᏰᎸᏗ	-8.57501
▁ᏥᎦᏔᎭ	-8.57544
ᎫᏴ	-8.57864
▁ᏂᏗ	-8.58452
."	-8.58502
▁ᏱᎨᏎ	-8.58544
▁ᏥᎨᏐ	-8.58786
ᎵᏃᎮ	-8.59125
ᎲᏍᎩ	-8.59546
▁ᎦᏥ	-8.59773
▁ᏖᎸᎳᏗ	-8.5997
▁ᎤᏁᎳᏅᎯᏍᎩᏂ	-8.60075
▁ᎰᏩ	-8.6014
▁ᎬᏔᏅᎯ	-8.60264
▁ᎤᏓᏅᏙ	-8.60265
ᏂᎸ	-8.60863
▁ᏥᎦ	-8.60984
▁ᎦᏓ	-8.61165
▁ᏥᎨᏐᎢ	-8.61207
▁ᎩᎶᏍᎩᏂ	-8.61245
▁ᏄᎵᏍᏔᏅᎩ	-8.61343
▁ᎤᏰᎸᏛ	-8.61508
▁ᏅᏗᎦᎵᏍᏙᏗᏍᎬ	-8.61511
▁ᎠᏋᏒ	-8.61539
ᏍᏕᎸ	-8.61721
ᏐᏅ	-8.61849
ᏯᏅ	-8.61968
ᎾᏝᎢ	-8.62027
▁ᏙᏛ	-8.62651
▁ᏠᎨᏏ	-8.62748
▁ᎤᏃᏕᎾ	-8.62748
▁ᏗᎾᏓᏅᏟ	-8.62749
▁ᎤᏕᏁᎴᎢ	-8.6276
▁ᎭᏫᏂᏗᏢ	-8.62761
▁ᏥᎪᏪᎳ	-8.62807
▁ᎭᏢ	-8.62913
▁ᎤᏙᎴᎰᏒ	-8.62924
▁Ꭺ	-8.63213
▁ᎢᏣᏓ	-8.63596
ᎵᏍᏓ	-8.63795
▁ᎢᎬ	-8.64388
ᎳᏫ	-8.64657
▁ᏂᏓ	-8.64985
ᎨᏳᎯᏳ	-8.6523
ᏕᏍᏗ	-8.65487
▁ᏂᏚᏳᎪᏛᎾ	-8.65605
▁ᎾᏂᏪᏍᎨᎢ	-8.65605
▁ᎢᎾᏛ	-8.65616
▁ᎤᏣᏔᏅᎯ	-8.65664
▁ᎢᎬᏩ	-8.65718
▁ᏦᏩ	-8.65784
▁ᏗᏓ	-8.6608
▁ᎢᎨ	-8.66083
ᏁᎴᎢ	-8.66274
▁ᎤᏲᎱᏒᎯ	-8.66388
ᎴᏅ	-8.6641
ᎦᏛ	-8.6641
ᎲᎦ	-8.66895
ᎧᏁ	-8.66982
▁ᏤᏥ	-8.67067
▁ᏗᎨᏥ	-8.67228
ᏰᎵ	-8.67468
▁ᎩᎳ	-8.67693
▁ᏔᎵᏁᏃ	-8.67698
▁ᎾᎿᏂ	-8.68241
▁ᏅᏗᎦᎵᏍᏙᏗᏍᎨ	-8.68386
▁ᎤᏓᏅᏘ	-8.68412
ᏗᎦᏅᏌᏗ	-8.68546
▁ᎢᏨᎨᏳᎢ	-8.68546
▁ᎠᏂᏍᎦᎾ	-8.68549
▁ᏎᏓᏂ	-8.6855
▁ᏥᏂᎬᏅ	-8.68603
ᏲᎱ	-8.69086
▁ᎤᎾᎵ	-8.69173
ᏐᎢ	-8.6918
Ꮉ	-8.69771
▁ᎠᏂᏐᎢ	-8.69902
▁ᎬᏂᏳᏉᏃ	-8.69994
ᏅᎦᎸ	-8.70446
▁ᎢᏤᎲ	-8.71507
▁ᎤᎩᏨᏛ	-8.71576
▁ᎢᏥᏍᎦᏯ	-8.71578
▁ᎤᏚᎵᏍᎬ	-8.71607
ᎧᎿ	-8.71638
▁ᏄᏍᏕᏍᏗ	-8.71685
ᏯᎠ	-8.71857
ᎢᏍᏗᏱ	-8.71882
▁ᏂᎨ	-8.71931
▁ᎤᏣᏘᏂ	-8.71993
▁ᏣᏥ	-8.73624
ᎧᏅ	-8.73642
▁ᎡᎭ	-8.73976
▁ᏱᏗᏥ	-8.74195
▁ᎦᏁᎸ	-8.74216
▁ᏱᎬ	-8.74297
▁ᎤᏂᏣᏖ	-8.74408
▁ᎠᏆᏤᎵ	-8.74476
ᏯᏅᎲ	-8.7458
▁ᏧᎵ	-8.74613
▁ᎤᏠᏱ	-8.74689
▁ᎢᎳᏯ	-8.74703
▁ᎬᏃᏛ	-8.74734
▁ᏕᎨᏥ	-8.74823
▁ᏧᏓᏏ	-8.74859
▁ᎤᎧᎵᏨᎯ	-8.7488
ᏍᏆᏂᎪᏗ	-8.7489
▁ᏧᏅᏏᏓᏍᏗ	-8.74892
▁ᎠᎰᎵ	-8.74912
▁ᏣᏁᎭ	-8.75065
ᏤᎵ	-8.75084
▁ᎠᏰᎸᎢ	-8.75135
ᏕᎵ	-8.75138
▁ᎤᏂᏁᏨ	-8.75236
▁ᎬᏅ	-8.75275
ᎪᏩᏛᏗ	-8.75575
▁ᎤᏛᎾ	-8.75668
▁ᏄᎾ	-8.77152
▁ᎤᏩᏒᏉ	-8.77233
▁ᎠᏄᏬ	-8.77463
▁ᏗᎨ	-8.77843
▁ᎠᎵ	-8.77847
ᏍᏔᏅᎯ	-8.77873
▁ᏅᎬᏩᏪᏎᎸᎩ	-8.77927
▁ᏗᎵᏍᏓᏴᏗᏱ	-8.77927
▁ᎤᎴᏅᎮ	-8.77928
▁ᏂᎬᏩᏪᏎᎴᎢ	-8.77932
▁ᎢᏣᏛᏁᏗᏱ	-8.77972
▁ᏂᎦᏪᎭ	-8.78045
▁ᏥᏄᏍᏗ	-8.78119
▁ᎢᏥᎦᏔᎭ	-8.78203
Ꮭ	-8.7832
ᏅᏎ	-8.78796
▁ᏤᎭ	-8.79019
ᏁᎲ	-8.79211
▁ᏕᎯ	-8.7926
▁ᎦᏁᎸᎢ	-8.79339
▁ᎤᎷᏨᎩ	-8.79525
ᏛᎢ	-8.79725
▁ᏡᎬ	-8.80007
ᏨᎯ	-8.80332
▁ᏅᏩᏓᎴᏃ	-8.80693
ᏅᏒ	-8.80882
▁ᎤᏂᎪᎲ	-8.81026
ᎵᏍᏙᏗ	-8.81179
▁ᏔᎴᎲᎦ	-8.8126
▁ᏱᎦᎵᏍᏙᏓ	-8.8126
▁ᏗᏂᎳᏫᎩ	-8.81261
▁ᎤᎵᏏᎬ	-8.81266
▁ᎠᎦᏔᎲ	-8.81267
▁ᎤᏔᎳᏬᎯᏍᏗ	-8.81392
▁ᎠᏂᏏᏴᏫᎭ	-8.81446
▁ᏚᎴᏅ	-8.8153
▁ᎤᏟᎯᏳ	-8.81807
ᎴᏂ	-8.81855
ᏎᏗ	-8.81974
▁ᏱᏨ	-8.82377
▁ᏂᎪᎯᎸᎢ	-8.82505
▁ᎠᏍᎪᎯ	-8.82571
Ꮮ	-8.82797
ᎧᏂ	-8.82944
ᎯᎠ	-8.83064
▁ᏅᏛ	-8.8316
▁ᎠᏓᏅᏖᏍᎬ	-8.83447
▁ᎦᏍᎩᎸ	-8.83474
ᎪᏩᏛᏗᏱ	-8.83612
ᏤᎢ	-8.83614
▁ᎬᏩᎾ	-8.83708
▁ᏫᏥ	-8.83748
▁ᏅᏓᏳ	-8.84248
▁ᎤᎷᏤ	-8.84286
ᏌᏛ	-8.84458
▁ᏴᏫᏉ	-8.84549
▁ᏂᎦᎵᏍᏗᎭ	-8.84709
▁ᎨᏥᎸᏉᏗ	-8.84717
▁ᎠᏣᏗ	-8.84728
▁ᏕᎤᏙᎥ	-8.84735
▁ᎢᏳᏓᎴᏅᏛ	-8.8477
▁ᎦᎷᏨᎭ	-8.84775
▁ᎠᏓᏁᎯ	-8.8482
▁ᎦᎸᏉᏙᏗ	-8.84861
▁Ꮡ	-8.8497
▁ᏫᎬᏩ	-8.85059
▁ᎤᏂᎷᏤ	-8.85115
▁ᏕᏣᏓᏅᏛᎢ	-8.85161
▁ᎡᏆ	-8.85162
ᏂᏏ	-8.85449
ᎶᏗ	-8.85536
▁ᏭᏂ	-8.85766
ᏛᏗ	-8.85778
ᎵᏍᏕᎸᏙᏗ	-8.85872
▁ᏂᎦᏪᏍᎬ	-8.86157
▁ᏫᎦ	-8.86182
ᏎᎭ	-8.86252
ᎾᏄᎪᏫᏎ	-8.86437
ᎨᏳᎯ	-8.86542
▁ᏩᎦ	-8.86613
▁ᏕᏣᏓ	-8.86773
▁ᎡᏗ	-8.87049
▁ᏂᏚᏪᏎᎴ	-8.87123
▁Ꮜ	-8.87138
▁ᎦᎸᎶ	-8.87203
ᏍᏕᎸᏗᏱ	-8.87343
▁ᎤᏒ	-8.87445
ᏗᏍᎪᎢ	-8.87671
Ꮾ	-8.87757
▁ᏴᎬ	-8.88041
▁ᎭᏫᏂ	-8.88271
▁ᏃᏈᏏ	-8.8828
▁ᏓᏓᎿᏩᏍᏛ	-8.8828
▁ᏗᏅᏃᏛ	-8.88281
▁ᏙᏱᏗᏢ	-8.88283
▁ᏅᏓᏳᎶᏒᎯ	-8.88283
▁ᎤᎦᎵᏍᏗ	-8.88287
▁ᎢᏓᏓᏅᏟ	-8.88294
▁ᏆᏂᏆ	-8.883
▁ᎤᎩᎬ	-8.88329
▁ᎢᎬᏁᎸᎯ	-8.88333
▁ᎾᏍᎦᏅᎾ	-8.88352
▁ᎤᎵᏍᏆᏗᏍᏗ	-8.88368
▁ᏗᏓᏅᏙ	-8.88407
▁ᎦᏛᎦ	-8.88625
ᏁᎶᏗ	-8.89214
ᏁᏟᏴ	-8.89226
▁ᏯᎩ	-8.89249
▁ᎠᏂᎦᏔᎲᎢ	-8.89335
ᎧᎵᎢ	-8.89356
ᎪᎲ	-8.89589
ᏛᎯ	-8.89644
ᏅᏒᎩ	-8.89772
ᏩᏛᎮ	-8.89796
▁ᎢᏤᎲᎢ	-8.8995
▁ᏳᏂ	-8.9016
ᎥᎢ	-8.90596
ᏅᎾ	-8.90748
▁ᏄᏛᏁᎸ	-8.90815
▁ᏥᎨᏎ	-8.91074
▁ᏗᎨᏒ	-8.911
▁ᏫᏗ	-8.91119
▁ᏄᏂ	-8.91179
ᏛᏁᏗ	-8.91365
ᏠᏱ	-8.91395
ᏍᏗᏍᎩ	-8.91585
▁ᎢᏳᎾᎵᏍᏓᏁᏗ	-8.91648
▁ᎤᎶ	-8.91735
ᏏᏴᏫᎭ	-8.91779
▁ᏐᏈᎵ	-8.91984
▁ᏓᏆᏙᎥ	-8.91984
▁ᎤᎵᏍᏈᏗ	-8.91984
▁ᎢᏨᏲᏎᎭ	-8.91984
▁ᎾᏎᎵᏗ	-8.91987
▁ᏧᏂᏢᎩ	-8.91988
▁ᎾᎩᏪᏎᎸᎩ	-8.91989
▁ᏗᎨᎦᏁᎶᏗ	-8.91995
▁ᎥᏓᎵ	-8.92037
▁ᎠᏥᏅᏏᏓᏍᏗ	-8.92044
▁ᎢᎩᏙᏓ	-8.92106
▁ᏄᎾᏍᏛ	-8.92165
▁ᎮᎾ	-8.92223
▁ᎣᏂᏃ	-8.92304
▁ᏚᏪ	-8.92357
▁ᎠᏆᏤᎵᎦ	-8.92377
ᎸᎭ	-8.92424
▁ᏴᎦ	-8.92456
ᎸᏉᏗᏳ	-8.92616
ᏁᎰᎢ	-8.92958
ᎸᏉᏙᏗ	-8.93037
▁ᎢᏯᏛᏁᏗ	-8.9314
ᎷᏤᎸ	-8.932
ᎳᏗ	-8.93409
ᏍᏔᏅᎩ	-8.93452
▁ᎪᏪᎵᎯ	-8.93635
ᏃᎮᎭ	-8.93997
▁ᏕᎨ	-8.94147
ᏴᎵ	-8.94343
▁ᏄᎵᏍᏔᏁ	-8.94647
▁ᏚᎾᏓᏅᏛ	-8.94736
ᏁᏤᎸ	-8.94766
▁ᏓᏥ	-8.94773
▁ᎤᎦᏔ	-8.94875
▁ᏤᏣ	-8.95051
ᏓᏅᏛ	-8.95465
▁ᎬᏙᏗ	-8.95467
▁ᎢᏳᎾᏛᏁᏗ	-8.95489
ᏩᏗᏒ	-8.95748
▁ᏧᎸᏫᏍᏓᏁᎯ	-8.9583
▁ᏤᎦᏈ	-8.9583
▁ᎢᏯᏛᏁᎯ	-8.9583
▁ᎢᏥᏈᏱ	-8.95831
▁ᏐᎳ	-8.95832
▁ᎢᏳᎵᏍᏓᏁᏗ	-8.95835
▁ᎤᏕᏯᏙᏗ	-8.9584
▁ᎢᏳᏩᏂᏐᏗᏱ	-8.95865
▁ᏅᏲᎯ	-8.95869
▁ᎠᏆᏓᏅᏙ	-8.9588
▁ᎤᎾᏙᎴᎰᏒ	-8.95893
▁ᏧᏪ	-8.96051
▁ᎢᏥᏙᏓ	-8.96086
▁ᎢᎦᎦᏛ	-8.96168
▁ᏣᎾ	-8.9619
▁ᏥᏣ	-8.96331
ᎾᎵ	-8.96414
▁ᎤᏠᏱᏉ	-8.96483
▁ᎠᏂᎪᎢ	-8.96591
ᎸᎾ	-8.97142
ᎴᎯᏐᏗ	-8.97146
ᎡᏗᏱ	-8.97154
ᏕᎩ	-8.97664
▁ᎠᏗᎭ	-8.9777
▁ᎾᏂᎥᏉ	-8.98244
--	-8.98334
▁ᏂᎦᎥᏉ	-8.98499
▁ᎠᏍᎦᎾ	-8.98564
▁ᎡᎯᏍᏗ	-8.98606
▁ᏥᏓ	-8.98741
ᏯᏅᏛ	-8.99173
▁ᎦᎨ	-8.99183
ᏓᏂ	-8.99202
ᎷᏨ	-8.99653
ᎵᏍᏆᏗᏍᎩ	-8.99769
▁ᎠᏰᎳᏍᏗ	-8.99817
▁ᎤᏬᏰᏂ	-8.99844
▁ᎧᏃᎯᏰᎩ	-8.99884
▁ᎠᏲᎩ	-8.99886
▁ᏗᎨᏫ	-8.99935
▁ᎤᏃᎴ	-8.99977
▁ᎤᏂᏬᏂᎯᏍᏗ	-8.99993
▁ᎠᏆᏛᎦᏅᎩ	-9.00062
ᎪᏣᎴᏛ	-9.00187
▁ᎤᏅᏏᏓᏍᏗ	-9.00417
▁ᏓᎬ	-9.00418
ᏁᎸᎢ	-9.00529
ᏍᏕᎸᏗ	-9.00593
ᏉᏃ	-9.00894
ᏓᎵ	-9.01061
ᎵᏏ	-9.01331
ᏲᎵ	-9.01361
▁ᎤᏍᎦᏅᏨ	-9.01539
ᏟᏌ	-9.01724
ᏍᏔᏁ	-9.01748
▁ᎾᏍᎩᏯᏉ	-9.01913
▁ᎢᏣᎵ	-9.01927
ᏤᎸ	-9.02095
▁ᎠᎲ	-9.02162
▁ᏉᎳᏃ	-9.0241
▁ᎪᎵ	-9.02642
▁ᎢᏦᎯᏳᏒ	-9.02742
ᏅᏏᏓᏍᏗ	-9.03077
▁ᎠᏂᎦᏔᎲ	-9.03148
ᏁᎮ	-9.0332
▁ᏧᏂᎾᏫ	-9.03694
ᏁᎰ	-9.03694
▁Ꭻ	-9.03857
ᎨᏳᏎᏍᏗ	-9.03902
▁ᏄᏃᎯᏳᏒᎾ	-9.03997
▁ᏅᏓᏳᎵᏍᏙᏔᏅᎩ	-9.03997
▁ᏅᏛᎩᏅᏏᏛ	-9.03997
▁ᎢᏳᎾᏛᎿᏕᎩ	-9.04
ᏍᎦᏅᎢᏍᏗ	-9.04003
▁ᏗᏓᎴᏂᏍᎬ	-9.0404
▁ᏚᏁᏤᎴ	-9.04095
▁ᏓᎶᏂᎨ	-9.04174
▁ᏗᎫᎪᏙᏗᏱ	-9.04207
▁ᏩᏍᏛ	-9.0425
ᎢᏳ	-9.04349
ᎦᏙ	-9.04632
▁ᎤᏕ	-9.05036
ᏌᏂ	-9.05138
ᏄᎪᏤ	-9.05152
▁ᎪᏪᎸᎢ	-9.05192
ᏍᏔᏁᎢ	-9.05476
ᎵᏍᏗ	-9.05491
ᎷᏤᏗᏱ	-9.05664
▁ᎦᏥᏯ	-9.0619
▁ᏓᎩ	-9.06284
▁ᎪᏪᎸ	-9.064
ᎦᏅᎯᏛ	-9.06422
▁ᎤᏓᏅᏖ	-9.0649
ᎨᎳᏍᏗᏱ	-9.0675
▁ᎤᏪᎿᎢ	-9.06987
▁Ꮼ	-9.07014
ᏍᏕᎸᎯ	-9.07014
ᏥᏌ	-9.07106
▁Ꮖ	-9.07299
ᏁᎳᏅᎯ	-9.07374
ᏕᎢ	-9.07388
ᎪᎯ	-9.07543
▁ᎠᏥᎸᏱ	-9.07672
▁ᏗᎧᎿᏩᏛᏍᏗᏱ	-9.0772
▁ᏧᎾᏓ	-9.08038
▁ᎤᎸ	-9.08076
▁ᎧᏃᎮ	-9.08078
ᏙᎴ	-9.0813
▁ᎬᏩᏚᏫᏛ	-9.08344
▁ᎹᏏᏙᏂ	-9.08344
▁ᏅᎦᏍᎪᎯ	-9.08344
ᏂᎳᏍᏓᎸ	-9.08345
▁ᏗᏕᏲᏗ	-9.08345
▁ᏗᎹᏗ	-9.08346
▁ᎢᏤᏯᏔᎮᏍᏗ	-9.08357
▁ᎤᏣᎴᏍᏗ	-9.08361
▁ᎨᏥᏅᏏᏓᏍᏗ	-9.08385
▁ᏏᏌ	-9.08397
▁ᎤᏙᎯᏳᏒ	-9.08439
▁ᎠᎦᏘᏏᏗᏢ	-9.08475
▁ᎬᏂᏗᏳ	-9.08477
▁ᏗᏣᏓ	-9.08612
▁ᎤᎾᏄᎪᏫᏒᎯ	-9.08751
▁ᏧᏓ	-9.08872
▁ᎤᏂᏍᏆᏂᎪᏎᎢ	-9.08921
ᏯᎥᎢ	-9.09271
▁ᎠᏍᏓᏱ	-9.09291
ᏫᏒ	-9.09467
ᎡᎢ	-9.09473
▁ᏥᏄ	-9.09969
ᎦᏔᎯ	-9.10232
ᏍᏆᏂᎪᏙᏗᏱ	-9.10249
ᎶᏒ	-9.10325
▁ᎢᏥᏰᎸ	-9.10827
ᏣᏘ	-9.11001
ᏌᎳ	-9.11073
ᏅᏅ	-9.11117
ᎦᎵᏍᏓ	-9.11248
ᏲᏏ	-9.11403
ᏗᏍᎨᎢ	-9.1143
▁ᎠᏤᎵᏍᏛ	-9.11645
ᏙᎵᏍᏗ	-9.11715
▁ᎡᎲ	-9.11734
ᏓᏍᏗ	-9.11739
▁ᎨᎳ	-9.118
▁ᏗᎩ	-9.11906
ᏎᎮ	-9.11928
ᎤᏁᎳᏅᎯ	-9.12462
ᏛᏁᎵ	-9.12484
ᏅᏍᏗᏱ	-9.12666
▁ᎢᏣᏤᎵ	-9.12689
▁ᎦᎶ	-9.1274
▁ᏕᏨ	-9.12815
▁ᏂᏚᎩᏨᏂᏒ	-9.1289
▁ᎤᎶᎩᎸ	-9.12909
▁ᎤᎾᏤᎵᎪᎯ	-9.1292
ᏕᏯᏙ	-9.12955
▁ᏗᏘᏂᏙᎯ	-9.1301
▁ᎤᏰᎸᏅ	-9.13012
▁ᎤᏁᏨᎩ	-9.13012
▁ᏞᎦ	-9.13056
▁ᎡᎵ	-9.13058
▁ᎦᏬᏂᎯᏍᏗ	-9.13074
ᏂᏗᏳ	-9.13216
ᏗᏳ	-9.13262
▁ᏅᏗᎦᎵᏍᏙᏗᏍᎪ	-9.13273
ᏍᏕᏍᏗ	-9.13469
▁ᎤᏴ	-9.13496
▁ᎠᎧᎵᎢ	-9.13562
▁ᎬᏗᏍᎩ	-9.13734
▁ᎠᏓᏅᏓᏗᏍᏗ	-9.13815
ᏡᏗᏍᎩ	-9.13853
▁ᏚᎾᏓᏅᏛᎢ	-9.14367
▁ᎤᏁᎬ	-9.14399
▁ᎨᎦ	-9.14613
▁ᏂᏕ	-9.14654
ᏍᏓᏱ	-9.15183
▁ᎠᏯ	-9.15579
▁ᏣᏓ	-9.15953
▁ᏄᎵᏍᏔᏂᏙᎸ	-9.16452
ᏎᎮᏍᏗ	-9.16589
▁ᎯᏯ	-9.16745
▁ᏗᏤ	-9.17081
▁ᏗᏥᎾᏫ	-9.17305
▁ᎠᏋ	-9.17328
ᏍᏆᏛ	-9.17423
ᎢᏳᏍᏗ	-9.17538
▁ᎠᏖᎵᏙ	-9.17652
▁ᎣᏣᎵᏅᏟ	-9.17652
▁ᎡᏈᏌ	-9.17652
▁ᎢᏳᎾᎵᏍᏙᏗᏱ	-9.17652
▁ᎧᎳᏩᏗᏒ	-9.17652
▁ᏂᏥᏪᎭ	-9.17652
▁ᏕᏣᏙᎥ	-9.17653
▁ᎢᏌᏯ	-9.17653
▁ᏗᏰᎸᎯ	-9.17659
▁ᎤᎧᏛ	-9.17666
▁ᏂᎦᏪᏍᎨᎢ	-9.17667
▁ᏓᎦᎷᏥ	-9.17669
ᎠᎴ	-9.17677
▁ᏄᎬᏫᏳᏌᏕᎩ	-9.17698
▁ᎢᏗᎦᏔᎭ	-9.17724
,)	-9.17737
ᏁᏥ	-9.17739
▁ᏕᎬᏩ	-9.17754
▁ᎤᎵᎮᎵᏍᏗ	-9.17875
▁ᏕᏥᎸᏫᏍᏓᏁᎲ	-9.17897
ᏒᎭ	-9.17906
▁ᏗᎦᏙᎵ	-9.17988
ᏎᎸᎯ	-9.18275
ᏗᏍᏗᏱ	-9.18305
▁ᎠᏥᎦᏘᏗᏍᏗ	-9.18424
▁ᏚᎸᏫᏍᏓᏁᎲᎢ	-9.18667
ᎢᏍᏗ	-9.19159
ᎦᏚ	-9.19259
▁ᎠᏃ	-9.19536
ᎧᎲ	-9.19537
ᏗᏔᏍ	-9.19566
ᎵᏍᏓᏴᏗ	-9.19629
ᏗᏢ	-9.19635
ᎦᏔᎮ	-9.19777
▁ᏱᎨ	-9.19809
▁ᎡᎩ	-9.19895
▁ᎦᏙᎨ	-9.19926
▁ᏥᏍᏆ	-9.20037
ᏉᏰᏃ	-9.20448
▁ᏂᏙ	-9.20673
ᏁᎲᎢ	-9.20795
▁ᎤᏂᏍᎦᏅᏨ	-9.20845
▁ᎤᏙ	-9.20996
Ꮁ	-9.21005
▁ᏚᏃ	-9.21138
▁ᎤᎾᏓᏅᏖ	-9.21312
▁ᏧᎾᏍᏗ	-9.21457
▁ᎾᏂ	-9.21797
ᎬᏫᏳ	-9.22095
▁ᏣᎦ	-9.22252
ᎮᎸ	-9.22297
▁ᏧᏩ	-9.22394
ᎵᏍᏔᏅ	-9.22598
▁ᏑᎾᏓᏡᎩ	-9.22652
▁ᏨᏗᏓᎴᎲᏍᎦ	-9.22652
▁ᏄᏂᎬᏫᏳᏌᏕᎩ	-9.2266
▁ᎤᎵᏁᏨ	-9.22687
▁ᏥᏯ	-9.2275
▁ᏂᏗᎥ	-9.22769
ᏚᏓᎴᏍᏙᏗ	-9.22886
ᎥᎩ	-9.22887
▁ᎤᎷᎯᏍᏗᏱ	-9.22978
▁ᎠᏍᎪᎵ	-9.23042
▁ᏭᎶᏎᎢ	-9.23046
▁ᎤᏪᏘ	-9.23155
▁ᎤᏰᎯ	-9.2321
▁ᎠᏲᎱᏍ	-9.2329
ᏛᏂ	-9.23366
▁ᎠᎵᏍᏕᎸᏙᏗ	-9.23416
▁ᎢᏳᏓᎴ	-9.23487
ᏓᏙᎵᏍᏗᏍᎬ	-9.23631
▁ᎤᏩᏒᎯᏳ	-9.23642
▁ᎣᏂᏱ	-9.23691
ᎡᎵ	-9.23957
▁ᏦᎩ	-9.24215
▁ᏗᎨᏒᎢ	-9.24402
ᏅᏗ	-9.24669
▁Ꮟ	-9.24736
ᏑᏰᏛ	-9.24855
ᏠᏯᏍᏗ	-9.25169
▁ᎤᎾᏓᏡᎬᎢ	-9.25904
▁ᎠᏏᏴᏫᏃ	-9.26005
▁ᏍᎩᏯ	-9.2622
ᏥᏯ	-9.26496
,]	-9.26583
▁ᏗᎩᎦᏴᎵᎨ	-9.26653
▁ᎣᏓᎸ	-9.26697
▁ᏯᏂ	-9.267
▁ᎦᏬᏂᏍᎬ	-9.26733
▁ᏥᎬ	-9.27054
ᏲᎭ	-9.27146
ᎨᏒ	-9.27292
ᏁᏍᎨ	-9.27328
▁ᎦᏛᎬ	-9.27511
ᏠᎾᏍᏗ	-9.27703
▁ᏥᎨᏒ	-9.27711
ᏲᎲ	-9.27897
▁ᏣᏤᎵ	-9.27914
▁ᎪᎯᏳᎲᏍᎩ	-9.27915
▁ᎤᏚᎸᏗ	-9.27916
▁ᎤᎾᏁᎳᎩ	-9.27918
▁ᏱᏅᏗᎦᎵᏍᏙᏗᎭ	-9.27923
▁ᎤᎵᏏᎩ	-9.27928
▁ᎡᏏᎩ	-9.27932
▁ᎤᎾᏓᏤᎵᏛ	-9.27936
▁ᏂᏣᏛᏁᎸ	-9.27941
▁ᏂᏣᏛᏁᎲ	-9.27944
▁ᎤᎶᏐᏅ	-9.27945
▁ᎢᏣᎵᏍᏙᏗᏱ	-9.27949
▁ᏧᏂᎸᏫᏍᏓᏁᏗᏱ	-9.27953
▁ᎦᎵᏦᏕ	-9.27968
▁ᏗᎪᏢᏔᏅᎯ	-9.2798
▁ᎡᏏᏱ	-9.28
▁ᏗᎦᏚᎲ	-9.28063
ᎷᏤᎵ	-9.28074
▁ᎪᎯᏗᏳ	-9.28076
▁ᏣᏁᎳᏅᎯ	-9.28142
▁ᎢᏨᏗᏍᎨᏍᏗ	-9.282
ᏍᏗᏰ	-9.28207
ᎳᏏ	-9.28232
ᏓᏂᎸᎢᏍᏗ	-9.28297
ᎵᎦ	-9.28406
▁ᎤᏂᏣᏛᎩ	-9.28416
▁ᏱᎬᏩ	-9.28466
▁ᎠᎬ	-9.28469
▁ᎤᏕᏅ	-9.28479
ᎥᎾ	-9.28577
▁ᏫᎤ	-9.28625
▁ᎤᏂᎯᏍᏗᏱ	-9.28661
▁ᏓᏁᏩᏗᏒᎢ	-9.28754
▁ᎧᏁ	-9.28763
▁ᎤᏂᏣᏔ	-9.28826
▁ᏫᏣ	-9.28902
▁ᏂᎬᏩ	-9.29137
▁ᎢᎦᏤᎵᎦ	-9.29228
▁ᏂᎯᏰᏃ	-9.29273
▁ᏫᎬ	-9.29712
ᏬᏂᎯᏍᏗ	-9.29788
▁ᎢᏳᎢ	-9.29931
ᎶᏛ	-9.29992
ᎡᎸ	-9.30362
ᏁᎲᎾ	-9.30629
▁ᎧᏁᎬᎢ	-9.30848
▁ᎪᏪᎳ	-9.30945
▁ᎾᎯᏳᏉ	-9.31003
▁ᏗᏨ	-9.31147
ᎪᏩᏛ	-9.31232
▁ᎢᏓ	-9.31251
ᏁᎬ	-9.31531
▁ᏥᏫ	-9.31661
▁ᏄᎵᏍᏔᏅᎢ	-9.318
Ꮽ	-9.31972
ᎳᏁ	-9.32135
▁ᎪᎯᏍᎩᏂ	-9.32204
▁ᏭᎾ	-9.32288
▁Ꮺ	-9.32543
ᏚᎦ	-9.32621
ᎾᏄᎪᏫᏎᎸ	-9.32836
▁ᎤᏂᎷᏨ	-9.32925
▁ᏛᏂ	-9.33033
▁ᏚᏁ	-9.33035
ᏲᎱᏎ	-9.33071
▁ᎾᎾᏛᏁᎲ	-9.33135
▁ᏗᏆᏤᎵ	-9.3317
▁ᎡᎳᏪ	-9.33172
▁ᎤᎪ	-9.33417
▁ᎤᏍᏆᎸᎲ	-9.3347
▁ᎤᏇᏓᎸ	-9.33471
▁ᏗᏟᎶᏍᏔᏅᎯ	-9.33471
▁ᎤᏂᏃᏕᎾ	-9.33471
▁ᏌᎺᎵᏱ	-9.33471
▁ᎬᏩᏟᏍᏗ	-9.33473
▁ᏱᏄᏍᏗ	-9.33473
▁ᏧᏒᎯᏛ	-9.33473
▁ᎠᎾᏓᏅᏟ	-9.33475
▁ᏙᎴᏛ	-9.33476
▁ᎢᏣᎵᏅᏟ	-9.33477
▁ᏂᎬᏩᏪᏎᎸᎩ	-9.33478
▁ᎠᎩᎵᏯ	-9.33479
▁ᏗᏓᏘᏂᏙᎯ	-9.33483
▁ᏚᎳᏍᎬ	-9.33486
▁ᎢᏳᏩᏁᏗᏱ	-9.33496
▁ᏗᏣᏓᏅᏙ	-9.33511
ᎦᏔᎲᎾ	-9.33529
▁ᎤᎷᎯᏍᏗ	-9.33564
▁ᏧᎳᏏᏕᏂ	-9.33566
▁ᎤᏚᎵᏍᎨᏍᏗ	-9.33575
▁ᎠᏂᎦᏔᎯ	-9.33732
ᎪᏩᏘᎭ	-9.33837
▁ᏱᎨᏐᎢ	-9.33882
▁ᎢᏯᏍᏗ	-9.3434
▁ᎢᎦᎦᏘ	-9.34411
ᏁᏨ	-9.34466
▁ᎤᎾᏛᏁ	-9.34506
ᎷᏥ	-9.34732
▁ᏇᎵ	-9.34783
ᏩᏛᏗᏱ	-9.34924
ᏓᎴᏅᏛ	-9.35069
ᏰᎯ	-9.35114
ᏴᎲ	-9.35253
ᏩᏛᎯ	-9.35275
▁ᏃᎦ	-9.35589
▁ᎠᎾᏓ	-9.35772
ᏛᏅᎢᏍᏓ	-9.36142
▁ᏥᎨ	-9.36201
▁ᎤᎾᎵᎪ	-9.36228
ᏅᎦ	-9.36373
▁ᏓᏨ	-9.36814
▁ᏓᏰ	-9.36827
ᎳᏅᎯ	-9.37014
▁Ꮉ	-9.3719
▁ᏴᎨ	-9.37213
ᏍᎦᎸ	-9.37353
▁ᎤᏣ	-9.37765
ᏗᏍᎪ	-9.3777
▁ᎢᏧ	-9.38097
ᏆᎵ	-9.38178
ᏢᏗ	-9.38305
▁ᏚᎸᏫᏍᏓᏁᎲ	-9.38521
ᏍᏓᏩᏗᏙᎯ	-9.38692
▁Ꭹ	-9.3906
ᏰᏂ	-9.39188
ᏃᎮᏍᎩ	-9.39195
ᏟᏂᎬᏁ	-9.39251
▁ᏦᏥ	-9.39306
:	-9.39353
▁ᎠᎾᏓᏅᏖᏍᎬ	-9.39353
▁ᎦᏓᏅᏖᏍᎬ	-9.39353
▁ᎠᎩᎵᏲᎢᏍᏗ	-9.39353
▁ᎠᏂᏙᎾᎥ	-9.39353
▁ᏓᎿᏩ	-9.39353
▁ᏗᏂᎦᏙᎵ	-9.39353
▁ᎠᏠᏁᏗ	-9.39353
▁ᏗᏂᎨᏫ	-9.39353
▁ᎠᎫᏴᏙᏗ	-9.39354
▁ᏥᏄᏪᏎᎢ	-9.39354
▁ᎤᏛᏛᏁ	-9.39354
▁ᎦᏩᏒᎩ	-9.39355
▁ᎤᎾᏫᏱ	-9.39357
▁ᏑᏓᎴᎩ	-9.39362
▁ᎢᎦᏪᏛ	-9.39362
▁ᎥᏞᏍᏗ	-9.39381
ᏕᏘᏴ	-9.39392
▁ᏗᏂᏏᏗ	-9.39402
ᏃᎮᏍᎬᎢ	-9.39532
▁ᎤᏢ	-9.39648
ᎵᏰᎢᎶᎯᏍᏗ	-9.39656
▁ᏧᏁᏥ	-9.39687
▁ᎤᏁᏢᏔᏅᏛ	-9.39706
▁ᏥᎨᏳᎢ	-9.3979
▁ᎢᏣᏤᎵᎦ	-9.39798
▁ᏣᏤᎵᎦ	-9.39798
▁ᏚᏅᏎ	-9.39834
▁ᏗᏄᏬ	-9.39923
▁Ꭾ	-9.39933
ᏂᏳ	-9.39955
ᏙᎮᏍᏗ	-9.3997
▁ᎢᎬᏒ	-9.40042
ᏍᏕᎵᏍᎬ	-9.40103
ᎦᏔᎰ	-9.40138
▁ᎤᏄᎪᏤ	-9.40224
ᎾᏄᎪᏫᏏ	-9.40417
▁ᎤᏅᏒᏉ	-9.40487
ᏁᏍᏗ	-9.40697
▁ᎣᏏ	-9.40714
ᏕᎰ	-9.40743
▁ᏨᏓ	-9.4082
ᏕᎬ	-9.41132
▁ᎠᏂᏁᎬ	-9.41151
▁ᎠᎪ	-9.41168
▁ᏚᏳᎪᏛᎢ	-9.41249
ᏄᎪᏨ	-9.41291
ᏕᎨᏍᏗ	-9.41336
ᏛᏁᎭ	-9.414
▁ᏗᎬᏩᏂ	-9.41573
▁ᎡᎲᎢ	-9.41643
▁ᎢᏳᏪ	-9.41809
▁ᏱᏍᎩ	-9.41919
ᎪᎵᏰᏗ	-9.42456
ᏗᏍᎬᎢ	-9.42491
▁ᎢᎾᎨᎢ	-9.42604
ᏧᏈ	-9.42617
ᏪᏎᎴᎢ	-9.42771
▁ᎠᏂᏂ	-9.42923
▁ᎤᏄ	-9.42976
▁ᏙᎩ	-9.43206
ᏱᎵᏙ	-9.43216
▁ᏴᏓ	-9.43352
▁ᎠᏇ	-9.4342
ᏁᏉᏤ	-9.43575
▁ᏗᏍᎩ	-9.43969
▁ᎾᏃ	-9.44059
▁ᏥᎪᎨ	-9.44136
ᏩᏒ	-9.44156
ᏍᏓᏁᏗ	-9.44205
ᎨᏳᏗ	-9.44422
ᏚᎲ	-9.445
▁ᏅᏗ	-9.44617
ᏧᏏ	-9.4468
ᏓᏅᏙ	-9.44737
▁ᏱᏙ	-9.44741
▁ᏗᏗ	-9.44857
▁ᏙᎯ	-9.44964
▁ᏄᏓ	-9.4508
ᎪᏩ	-9.45211
▁Ꮗ	-9.45333
ᎲᏍᎦ	-9.45369
ᏔᏲᏎᎴ	-9.45424
▁ᎤᏕᎰᎯᏍᏗ	-9.45426
ᎨᏳᎭ	-9.45522
▁ᏗᎨᎦ	-9.45593
ᎬᎭᎷᏴ	-9.45603
▁ᏄᏓᎵᏓᏍᏛᎾ	-9.45603
▁ᎠᎱᏍᏕᏍᏗ	-9.45604
▁ᏧᏕᏘᏴᏛ	-9.45604
▁ᏏᏌᎵᏱ	-9.45604
▁ᎬᏩᏍᏓᏩᏛᏎᎢ	-9.45605
▁ᎨᏆᏂ	-9.45605
▁ᎢᎳᎪ	-9.45606
▁ᎤᏂᏴᏍᏗᏱ	-9.45606
▁ᎾᏛᏁᎮᏍᏗ	-9.45607
▁ᏅᏧᎵᏍᏙᏔᏅ	-9.45608
▁ᎢᏯᎾᏛᏁᎯ	-9.45609
▁ᏧᎾᏛᏐᏅᎯ	-9.45624
▁ᎠᏅᏗᏍᎬ	-9.45626
▁ᎢᏣᏓᏙᎵᏍᏗᏍᎨᏍᏗ	-9.45632
▁ᏏᏓᏁᎸ	-9.45632
▁ᎤᏂᎩᎬ	-9.45636
▁ᏓᏯᎢ	-9.45644
▁ᏫᏚᏯᏅᎲ	-9.45653
ᏰᎭ	-9.45669
▁ᎠᎪᏄ	-9.4567
ᏳᎪᏓᏁ	-9.45681
▁ᎤᏁᎫᏥᏛ	-9.45742
▁ᎠᏂᏬᏂᏍᎬ	-9.45744
▁ᎢᏳᏅᏁᏗᏱ	-9.4577
▁ᎪᏢᏔᏅᎯ	-9.45776
ᏛᎿᏕᎩ	-9.45816
▁ᏗᏥᏰᎸ	-9.4586
ᎥᎯᏍᏗ	-9.45889
▁ᎤᎾᏠᎾᏍᏗ	-9.4593
▁ᎤᎾᏰᎯᏍᏗ	-9.4594
▁ᎤᏓᏅᏘᏳ	-9.45959
▁ᎦᏰᏥ	-9.46115
ᏓᏅᎦᎸᏛ	-9.46122
▁ᎠᏧᏏ	-9.46149
▁ᏓᎾᏓ	-9.4617
▁ᏚᎾᎵ	-9.46253
ᏍᏗᏍᎬ	-9.46302
▁ᎠᎴᏬ	-9.4656
▁ᏗᏆ	-9.4694
ᎫᏓᎴ	-9.47061
▁ᏗᎾ	-9.47157
ᎤᏅ	-9.47212
▁Ꮝ	-9.47268
▁ᎠᏂᏁ	-9.47459
ᏘᏅᏍᏔ	-9.47667
▁ᎡᎦ	-9.47728
ᎸᏉᏙᏗᏱ	-9.48077
ᏂᎨ	-9.48232
ᏍᏕᎵᏍᎩ	-9.48573
▁ᎢᎬᏁᏗ	-9.48748
ᏏᏱ	-9.48765
▁ᏫᏓ	-9.48814
▁ᎣᏣ	-9.48887
▁ᏂᏥᎥᎢ	-9.48942
ᏪᏒ	-9.49034
▁ᏕᎬ	-9.49266
▁ᎠᏓᏙᎵᏍᏗ	-9.4941
▁ᏂᏨ	-9.49702
ᏁᎢᏍᏗ	-9.49977
▁ᎤᏤ	-9.50228
▁ᎦᏁ	-9.5037
ᏓᎳ	-9.50424
ᏕᏲ	-9.50669
▁ᎤᏁᏨᎯ	-9.50693
▁ᏙᏗ	-9.51098
ᏕᎶᏆ	-9.51459
ᏥᎪᎥ	-9.51581
▁ᎡᎮ	-9.51604
ᏥᏍ	-9.51612
ᏯᎥ	-9.51618
ᏚᎩ	-9.51756
ᏥᎨᏳᎢ	-9.51841
ᏲᎯᏎᎸᎩ	-9.51854
▁ᏗᏦ	-9.51898
▁ᏗᎫᎪᏙᏗ	-9.5193
ᏴᎭ	-9.51961
ᏲᎦ	-9.52163
ᏕᏅ	-9.52168
ᏚᏓᏕᏫᏒ	-9.52269
▁ᎾᏂᏪᏍᎬᎩ	-9.52269
▁ᏄᏜᏏᏛᏒᎾ	-9.52269
▁ᏕᎦᏚᏩᏗᏒ	-9.52269
▁ᏕᎹᏍᎦ	-9.5227
▁ᏚᏳᎪᏗ	-9.5227
▁ᎤᎾᎴᏅᎮ	-9.5227
▁ᏌᏱᎳ	-9.5227
▁ᏓᏟᎶᏍᏛ	-9.5227
▁ᏗᎨᏥᎤᏍᏕᏎᎸᎯ	-9.5227
▁ᎳᏏᎳ	-9.5227
▁ᏚᎧᎿᏅ	-9.52271
▁ᎢᏯᏅᏙ	-9.52272
▁ᏦᎯᏳᏒ	-9.52272
▁ᎡᏉᎯᏳ	-9.52274
▁ᏩᏛᎬᎦ	-9.5228
▁ᎠᏂᎩᏏᏙᎯ	-9.52283
▁ᎠᏉᎯᏳ	-9.52284
▁ᎤᏪᎵᎯᏍᏗ	-9.52286
▁ᎤᏃᎮᎸ	-9.52296
▁ᎠᏁᏙᎯ	-9.523
▁ᏅᏃᎯ	-9.52304
▁ᎢᎬᏩᎵᏍᏙᏗ	-9.52306
▁ᎣᎬ	-9.52313
▁ᎾᎬᏁᎸ	-9.5232
▁ᏍᎩᏃᎲᏏ	-9.52321
▁ᏅᏓᏳᎾᎵᏍᎪᎸᏔ	-9.52328
▁ᏗᏥᏲᎵ	-9.52338
▁ᎫᎫ	-9.52339
▁ᏦᏓᏂ	-9.52347
▁ᎢᎩᏍᏕᎵᏍᎩ	-9.52359
ᎫᎪᏓ	-9.52372
▁ᎤᏙᎯᏳᏗᏱ	-9.5238
▁ᎠᎵᏍᏚᎶ	-9.52437
ᎲᏍᎨᏍᏗ	-9.52478
ᏂᏴᎲᎩ	-9.525
▁ᏗᎪ	-9.52503
▁ᏗᏤᏥ	-9.52531
▁ᎤᏍᏚᎢᏒ	-9.52547
▁ᏱᏙᎦ	-9.52607
▁ᏙᎯᏱ	-9.52659
ᏗᏍᎨ	-9.52666
▁ᎠᎵᏍᎪᎸᏔᏅᎯ	-9.52693
▁ᏥᏁᎬᎢ	-9.52746
▁ᏅᏩ	-9.52782
ᏍᏘ	-9.52785
▁ᎹᏗ	-9.52805
▁ᎦᏁᎳ	-9.52814
▁ᎤᏓᏅᏒᎩ	-9.52818
ᏛᏁᎸ	-9.52828
ᏍᏗᎭ	-9.52838
ᏙᎢ	-9.52889
▁ᎠᏥᎸᎠᏁᎶᎯ	-9.52891
▁ᎯᎠᏍᎩᏂ	-9.52932
▁ᎬᏩᎷᏤᎸᎩ	-9.53036
▁ᎤᏍᏆᏂᎪᏗᏳ	-9.531
ᏲᎵᎸ	-9.5317
▁ᎤᏂᏍᎦᏅᏨᎯ	-9.53197
▁ᏰᎭ	-9.53202
ᏍᏓᏴ	-9.53276
▁ᎠᏥᎸᏉᏗ	-9.53361
ᎯᏍᏙᏗ	-9.53362
ᏴᏫ	-9.53513
▁ᏚᎵ	-9.53566
ᏃᏁᎴ	-9.5359
ᎲᏍᎨ	-9.53762
ᎦᎳ	-9.53798
▁ᎤᏬᎵ	-9.53853
ᏪᏎᎸᎩ	-9.54202
ᏢᏅᎯ	-9.54248
▁ᎠᏂᏅ	-9.54389
ᎪᏗᏱ	-9.5473
ᏍᏆᏗᏍ	-9.54741
▁ᎦᏍᎩᎸᎢ	-9.54751
ᎧᎾ	-9.5476
▁ᎠᏁᎭ	-9.54878
▁ᏲᎩ	-9.54897
▁ᎤᏣᏛ	-9.54941
ᎡᎯ	-9.54992
▁ᎦᎸᎳᏗᏳ	-9.55336
▁ᏫᏨᏲᏪᎳ	-9.55612
▁ᎠᏋᏒᏉ	-9.55639
▁ᎬᏗᏍᎬᎢ	-9.56126
▁ᎢᏤᎯ	-9.56351
ᎧᎭ	-9.56575
▁ᎤᏲᎱᏒᎢ	-9.56642
)	-9.56807
ᏲᏍᏗ	-9.5683
ᎶᏎᎢ	-9.57082
ᏛᏁᎲ	-9.57339
▁ᏫᏄ	-9.57394
▁ᏚᏃᎸ	-9.57471
ᎷᎦ	-9.57521
ᏢᏅ	-9.57635
ᏄᎪᏫᏍᏗᏱ	-9.57682
▁ᎤᎶᏒ	-9.57703
▁ᏓᏣ	-9.57805
ᏓᎸ	-9.57914
▁ᏙᏓᎦ	-9.58001
▁ᏚᏂᎸᏫᏍᏓᏁᎲ	-9.58152
ᎦᏚᎩ	-9.58235
ᏁᏤᎸᎯ	-9.58343
ᎨᎳᏍᏗ	-9.58813
▁ᏣᏂᏃ	-9.58881
ᎦᎶᏁᏛ	-9.58935
▁ᎪᎩ	-9.58971
ᏑᏰᏒ	-9.59035
▁ᏯᏆ	-9.59052
▁ᏚᎸᏫᏍᏓᏁᎸ	-9.5906
▁ᏥᏂᎦᏪ	-9.59087
ᏄᎪᏫᏎ	-9.59118
▁ᎦᎸ	-9.59177
▁ᏧᎾᏤᎵ	-9.59211
▁ᏑᏓᎵ	-9.59227
▁ᎤᏄᎪᏨ	-9.59276
ᏓᏎᎪᎩᏍ	-9.5931
▁ᎠᏂᏌᏚᏏ	-9.59412
▁ᎢᏤᎳᏗᏙᎮᏍᏗ	-9.59412
▁ᏅᏓᏳᏂᎶᏒᎯ	-9.59412
▁ᏗᏍᏓᏓᏅᏟ	-9.59412
▁ᎤᏌᎯᎸ	-9.59413
▁ᎠᏓᏰᏍᎩ	-9.59413
▁ᏗᏓᏬᏍᎩ	-9.59414
▁ᏞᎩᏳ	-9.59414
ᏛᏳᎨᏗ	-9.59414
ᏄᎮᏛ	-9.59416
▁ᏧᏃᏰᏂ	-9.59418
▁ᏣᏔᎦ	-9.59421
ᏍᏓᏩᏛᏎ	-9.59421
▁ᎠᏂᏫᏅ	-9.59422
▁ᏥᏂᏣᏛᏅ	-9.59437
▁ᎢᏧᏩᏁ	-9.59438
▁ᎤᏛᏁᎢ	-9.59444
▁ᎢᏨᏔᏲᏎᎭ	-9.59464
▁ᎢᏥᏯᏫᏍᎨᏍᏗ	-9.5947
▁ᎤᏬᏢᏅᎯ	-9.5948
ᏗᏔᎲ	-9.59486
▁ᎢᎬᏁᎯ	-9.59497
▁ᎣᏥᎦᏔᎭ	-9.59499
▁ᎦᎾᏰᎯᏍᏗ	-9.59502
ᎲᏏ	-9.59524
▁ᎠᏆᏁᎳᏅᎯ	-9.5955
▁ᏤᏈ	-9.59551
▁ᎠᏆᏚᎵᎭ	-9.59552
▁ᎤᏲᎱᎯᏍᏗᏱ	-9.59554
▁ᎤᏁᎷᏅᎩ	-9.59578
▁ᎤᎾᎳᏅᎯ	-9.59588
▁ᏓᏫᏒ	-9.59615
ᎾᏰᏍᎬᎾ	-9.59626
▁ᎠᏔᎴᏒ	-9.59633
ᏍᎪᎵ	-9.59655
▁ᏗᏂᏰᎸ	-9.59657
ᎪᎳ	-9.59683
▁ᎦᏅᏅ	-9.59714
▁ᎠᏨᏍᏙᏗ	-9.59733
ᏒᏃ	-9.59762
▁ᎬᏆ	-9.59966
▁ᎤᏅᏏᏙᎯ	-9.59991
▁ᎠᏆᏚᎵᏍᎬ	-9.59997
▁ᏭᎶᏒᎩ	-9.60036
▁ᎠᏁᏙᎮ	-9.60159
ᎾᏛᎦ	-9.60221
▁ᎤᏲᎱᏎ	-9.60233
▁ᎤᏄᎪᏨᎩ	-9.60304
ᎷᏨᎭ	-9.60369
▁ᎤᏂᎷᏨᎩ	-9.60571
▁ᏚᎾᏓᏡᏩᏗᏒᎢ	-9.60576
▁ᎠᎢᏒ	-9.60576
ᏲᎢᏳ	-9.60618
ᏙᎴᎰᎯᏍᏗ	-9.60698
ᏓᏅᏔ	-9.60913
▁ᏗᎦᎸᏉᏗ	-9.61057
ᎵᏦ	-9.6106
ᎴᏅᎲ	-9.61193
ᎸᏉᏗᎭ	-9.61195
ᏰᎵᏎ	-9.61203
▁ᏥᏓᏂ	-9.61243
ᏃᎲᏏ	-9.61325
▁ᎠᏓᏁᏗ	-9.61375
ᏓᎵᏓᏍᏗ	-9.61394
ᏅᏃ	-9.61422
ᏕᏗᏱ	-9.61477
▁ᏧᏁᏤ	-9.61501
▁ᎤᎾᏛᎦᏅᎯ	-9.61547
▁ᏦᎾ	-9.61626
ᏤᎭ	-9.6175
▁ᏂᎦᏪᏍᎬᎢ	-9.62047
▁ᎾᎩ	-9.62257
ᏕᎦ	-9.62472
▁ᎪᏢᏒ	-9.62547
▁ᎧᏁᏉ	-9.62585
▁ᎬᏅᎢ	-9.62698
▁ᎤᏁᏨᎢ	-9.62716
▁ᏄᎵᏍᏓᏁ	-9.62764
▁ᎨᎵ	-9.62777
"	-9.63009
ᎸᏉᏔᏅ	-9.63199
ᎵᏳ	-9.6331
▁ᎠᎾᎵ	-9.63375
▁ᎢᏣᏓᏅᏖ	-9.63385
ᎢᏍᏗᏍᎨᏍᏗ	-9.63612
▁ᏄᏪᏎ	-9.63655
ᏲᎯᏎᎴ	-9.63974
▁ᏯᎾ	-9.64038
▁ᎤᏴᏍᏗ	-9.64066
ᏁᎸᎾ	-9.64115
▁ᎦᏙᎬ	-9.64243
ᎩᎶ	-9.64698
ᏍᏚᎲ	-9.64748
ᏍᏛᎾ	-9.65347
▁Ᏸ	-9.65494
▁ᏅᏗᎦᎵᏍᏙᏗ	-9.65718
▁ᏄᏛᏅ	-9.65807
▁ᏨᏍᎩᏃ	-9.65836
▁ᏚᎾᏓᏡᏩᏗᏒ	-9.65863
▁ᏓᏁᏩᏗᏒ	-9.65876
▁ᎤᏂᏁ	-9.65964
▁ᏫᏂ	-9.65974
▁ᎠᎦᏔ	-9.66006
ᏓᏂᎸᏨᎯ	-9.66062
ᎱᏍᏗ	-9.66323
▁ᏭᎷᏨ	-9.66327
▁ᎠᏓᏅᏙᏍᎩᏂ	-9.66435
▁ᎬᏩᎷᏤᎸ	-9.66597
ᎴᏗ	-9.66684
ᏩᏛᏗ	-9.66709
▁ᏗᏣᏤᎵ	-9.66899
ᏍᏗᏍᎨᏍᏗ	-9.66994
▁ᏏᏆ	-9.67005
▁ᏛᎾ	-9.67076
ᏁᎶᏙᏗ	-9.67082
ᏑᎶᏨᎯ	-9.671
▁ᎠᎦᏘᏏ	-9.67101
▁ᎠᏂᎦᏔᎿᎢ	-9.67105
▁ᎤᏍᏆᎸᎯᏗ	-9.67105
▁ᏅᏓᎦᎵᏍᏔᏂ	-9.67105
▁ᏧᏓᎿᏩᏛ	-9.67105
▁ᎤᏜᏅᏛ	-9.67105
▁ᎦᏃᏍᎩᏍᎩ	-9.67105
▁ᏗᎧᏃᎩᏍᏗ	-9.67105
▁ᏛᏍᏆᎸᎯ	-9.67105
▁ᏕᎦᎳᏫᎥ	-9.67105
▁ᎢᏳᏕᏘᏴᏛ	-9.67105
▁ᏫᏄᏒᎸ	-9.67105
▁ᎠᏗᏒᏍᏗ	-9.67105
▁ᎯᏍᎦᏯ	-9.67107
▁ᎤᎾᏚᎵᏍᎬ	-9.67109
▁ᏧᏃᏑᎶᏨᎯ	-9.67109
▁ᎤᏩᎨᏫ	-9.67113
▁ᏓᏓᏏ	-9.67115
▁ᎾᎦᎥ	-9.67117
▁ᏌᏙᏂ	-9.67119
▁ᏂᎪᎯᎸᎾᏉ	-9.67122
▁ᎡᏂᏗ	-9.67127
▁ᏭᏂᎷᏨ	-9.67135
▁ᏗᏂᎰᎵ	-9.67139
▁ᏧᏂᎳᏫᎢᏍᏗᏱ	-9.67141
▁ᏕᎦᏚᎲ	-9.67146
▁ᎤᏂᏁᎫᏥᏛ	-9.67172
▁ᏂᏣᏛᏅ	-9.67179
ᎸᏫᏍᏓᏁᏗ	-9.67188
▁ᎠᎪᏙᏗ	-9.67197
▁ᎥᏓᎸ	-9.67214
▁ᎠᎾᎢᏒ	-9.67214
▁ᏇᏍᏓ	-9.67223
▁ᏓᏓᏁᎸ	-9.67239
ᏍᏓᏁᎸ	-9.67253
▁ᏮᏓ	-9.67259
▁ᏧᎦᏴᎵᎨ	-9.67283
▁ᎠᏥᎾᏝᎢ	-9.67301
▁ᎤᎩᎸ	-9.6732
ᎵᏍᎪᎸᏓ	-9.67326
▁ᎠᎩᏰᎸᎭ	-9.67372
▁ᎤᎾᎵᏍᏕᎸᏙᏗ	-9.67419
▁ᎧᏃᎮᏍᎩ	-9.67425
▁ᎠᎵᎮᎵᏍᏗ	-9.6743
▁ᎬᏂᎨᏒᎢᏳ	-9.67449
ᏗᎦᏘᏯ	-9.67462
▁ᎤᏪᎷᏅᎩ	-9.67493
▁ᏥᏂᎦᏪᎭ	-9.67553
▁ᏭᏂᎶᏎᎢ	-9.67574
▁ᎤᏂᎩᏒᎩ	-9.67592
▁ᏚᎪᎲ	-9.6761
ᏔᏅᎢ	-9.67613
▁ᎠᎩᏏ	-9.67656
ᏅᏓᏕ	-9.67657
▁ᏚᏂᎸᏫᏍᏓᏁᎸᎢ	-9.67658
▁ᎤᎵᏂᎬᎬ	-9.67764
▁ᎤᎴᏅᎲ	-9.67791
▁ᎪᏢ	-9.6782
▁ᎦᎬᏩ	-9.67966
ᏲᎯᏍᏗ	-9.67981
ᏰᎸᏗ	-9.68095
▁ᎵᏏ	-9.68184
▁ᎤᎨᏳᎯ	-9.68306
ᏫᏎᎢ	-9.68375
ᏎᏗᏱ	-9.68389
ᎾᏕ	-9.68405
▁ᏗᏤᎲ	-9.6847
ᎡᎸᎩ	-9.68481
ᎰᎵ	-9.68825
▁ᎤᎾᏝᎢ	-9.68865
ᎥᎯ	-9.68884
▁ᏚᎾᏓ	-9.68908
▁ᎤᎪᎮ	-9.69026
ᏓᏠ	-9.69035
▁ᏂᎦᏪᏍᎬᎩ	-9.69122
ᎪᏩᏘᏍᎪ	-9.6913
ᎳᎻ	-9.69245
ᏎᎴ	-9.69263
▁ᎠᏤᎵᏍᏛᎢ	-9.69283
ᏅᏏᏙᎯ	-9.69381
▁ᎤᏚᎢᏍᏔᏅ	-9.69484
ᎢᏍᏙᏗ	-9.69507
▁ᎤᏁᎳᏅᎯᏱ	-9.69655
▁ᎬᏩᏛᏛᏁ	-9.69846
▁ᏧᏅ	-9.69907
▁ᎤᏁᏤᎴ	-9.69952
ᎵᏍᏗᏱ	-9.70002
▁ᎠᏍᎦᏅᏨ	-9.70209
ᏬᏎᎴᎢ	-9.70316
▁ᎢᏤᎾ	-9.70367
ᎪᎩ	-9.70506
▁ᎤᏰᎸᏛᎢ	-9.70729
▁ᎠᎹᏱ	-9.70861
▁ᎬᏗᎭ	-9.70919
▁ᎬᏩᎪᎲ	-9.70921
▁Ꮂ	-9.71156
ᏛᏔᏂ	-9.71274
▁ᎤᏬᎸ	-9.71549
▁ᏦᎦ	-9.71587
▁ᏩᎩ	-9.71819
▁ᏚᏓ	-9.71877
▁ᏂᎬᎾᏛᎢ	-9.71985
▁ᎢᏣᏚᎵ	-9.72117
ᏙᎵᎩ	-9.72329
▁ᏨᏗ	-9.72374
ᏲᎢ	-9.72532
▁ᏱᎦᎩ	-9.72582
ᎴᏅᏛ	-9.72701
▁ᎠᏓᏁᎸᎢ	-9.72721
ᏪᏎᎸ	-9.72753
ᏅᏓᏓ	-9.72901
ᎵᏍᎪᎸᏔᏅᎯ	-9.73085
▁ᎤᏪᏅ	-9.7313
ᏂᎪᎯ	-9.73795
▁ᎤᏯᏅ	-9.73833
▁ᎤᏬᎴ	-9.73896
ᏚᎵᏍᎪ	-9.73929
ᏓᏅᏓᏗᏍᏗ	-9.74179
ᏙᏂ	-9.743
ᏁᏤᎴ	-9.7438
;]	-9.7443
ᎵᏍᎦᏍᏙᏗ	-9.74431
▁ᏄᏂᏪᏒ	-9.74601
ᎵᏍᎪᎸᏓᏁᎸᎯ	-9.74822
ᎶᎯᏍᏗᏱ	-9.74824
▁ᎤᎵᎮᎵᏨ	-9.74863
ᏲᎢᏎ	-9.74993
ᎦᎶ	-9.75046
ᏘᏂᏙᎯ	-9.75116
ᎪᏔᏅ	-9.75123
ᎧᎿᏩᏛᏍᏗ	-9.75134
ᎬᏫᏳᏌᏕᎩ	-9.75156
ᎬᏫᏳᎯ	-9.75242
ᏓᎴᏅᎯ	-9.75251
▁ᏗᎾᏓ	-9.75271
▁ᎤᎾᎵᏍᏓᏴᏗ	-9.75329
▁ᎠᏁᎳ	-9.75392
▁ᎢᏨᏲᏪᎳ	-9.75405
ᎸᏫᏍᏓᏏ	-9.75438
ᏍᎫᏓᏛ	-9.75438
▁ᎢᏣᏅᏖᏍᏗ	-9.75438
▁ᎦᎫᏍᏛᏗ	-9.75438
▁ᏆᎳᏆ	-9.75438
▁ᏗᎾᏓᏂᏱᏍᎩ	-9.75438
▁ᏗᏑᏢᏛ	-9.75438
▁ᏧᏓᏕᏒᏛ	-9.75438
▁ᎢᏳᏩᎫᏗ	-9.75438
ᏔᏲᎯᎮᏍᏗ	-9.75438
▁ᎠᏥᎤᏍᏕᏎᎸᎯ	-9.75438
▁ᏧᏬᏰᏂ	-9.75438
▁ᏂᏣᏛᏁᎮᏍᏗ	-9.75438
▁ᏯᏃᎩᏳ	-9.75438
▁ᎢᏳᏛᏁᎸᎯ	-9.75441
▁ᎡᎳᏂᎬ	-9.75443
▁ᎡᏙᎭ	-9.75448
▁ᎢᏕᎯ	-9.75453
▁ᎨᎦᏑᏰᏛ	-9.75457
▁ᎤᎶᏒᏍᏔᏅᎯ	-9.75457
ᏍᏆᎸᎡ	-9.75458
▁ᏱᏂᎦᎵᏍᏓ	-9.75476
▁ᎢᏣᏓᏅᏘ	-9.75483
▁ᏂᏥᎦᏔᎲᎾ	-9.75505
▁ᏚᎾᏙᎥ	-9.75507
▁ᎤᏣᏖ	-9.7551
▁ᎥᎩᏅᏏᏛ	-9.75515
▁ᎪᏢᏅᎯ	-9.75541
▁ᎠᏰᎲ	-9.7555
▁ᏚᎴᎯᏌᏅ	-9.75553
▁ᎠᎾᎵᏥᏙᎲᏍ	-9.75558
▁ᎢᏣᏠᎾᏍᏗ	-9.7556
ᏑᎵᎪ	-9.75578
▁ᎣᏓᏅᏛ	-9.7558
▁ᏅᏓᎬᏩ	-9.75584
ᎫᏴᎡᏗ	-9.75596
▁ᏥᎨᏥ	-9.75597
▁ᎬᎵᏍᏆᏗᏍᎩ	-9.75604
▁ᎤᏪᏅᏍᏗᏱ	-9.75609
▁ᎠᏆᎵᏏ	-9.75622
▁ᎢᏣᏛᎦᏅᎯ	-9.75655
▁ᏱᏙᎨ	-9.75672
ᎦᏙᎥᎯᏍᏗᏱ	-9.75717
▁ᏕᎤᎴᏔᏅ	-9.75751
▁ᏱᏂᎬ	-9.7577
▁ᎤᏂᏄᎪᏨ	-9.75778
▁ᎠᎩᎪᎲᎩ	-9.75848
ᏓᏁᎸ	-9.7586
▁ᎤᎾᏄᎪᎢᏍᏗ	-9.75914
▁ᏗᏆᏤᎵᎦ	-9.75926
▁ᎤᏂᏃᎮᎸᎯ	-9.75943
▁ᎡᎳᏪᏱ	-9.7597
▁ᏥᏰᎸ	-9.75981
▁ᎯᎦᏔᎭ	-9.76004
▁ᎤᎬᏫᏳᏌᏕᎩ	-9.76056
▁ᏣᏙᏓ	-9.76071
▁ᎤᏍᏛ	-9.76085
ᏓᏁᎲ	-9.76086
▁Ꮮ	-9.76106
▁ᎠᏥᎸᎨᎶᎯ	-9.76126
▁ᏤᎲᎩ	-9.76145
▁ᏧᏂᎾᏫᏱ	-9.76149
▁ᎢᏳᎾᏛᏁᏗᏱ	-9.7621
ᏍᏉ	-9.76239
ᏅᏬᏗᏱ	-9.76339
▁ᎡᏙᎲᎢ	-9.7636
▁ᎠᎵᏥᏙᎲᏍᎨ	-9.7647
ᏟᎶᏍᏙᏗ	-9.7649
▁ᎤᏓᏅᏛᎢ	-9.76497
▁ᏤᎮ	-9.76536
▁ᏓᏕᏲᎲᏍᎬᎢ	-9.76592
▁ᎾᏆ	-9.76603
▁Ꮘ	-9.76614
▁ᎦᏌ	-9.76615
▁ᏕᎦᏅ	-9.76742
▁ᎧᏁᎢᏍᏗ	-9.76811
▁ᎣᎬᏒ	-9.76818
▁ᏗᎬᏩᎾ	-9.76935
▁ᎤᏄᏬ	-9.76984
▁ᎤᏃᏴ	-9.7708
▁ᎾᎦᏛ	-9.77116
▁ᎤᏩᏛᎲ	-9.77576
ᎦᏯᎷᏗ	-9.7763
▁ᎤᏓᏅᏎ	-9.77968
▁ᎤᎪᎲᎯ	-9.78024
▁ᎤᏁᎳ	-9.78109
ᎷᎯᏍᏗ	-9.78151
▁ᏥᏙ	-9.78151
ᏃᎮᏍᎬ	-9.78225
▁ᎠᏥᏍᏕᎸᏗ	-9.78226
;)	-9.78429
ᏁᏟᏴᏍᏗ	-9.78545
▁ᏕᎪ	-9.78673
ᎿᎢ	-9.78971
▁ᏣᎩ	-9.7909
ᎾᏙᎴᎰ	-9.79093
ᏍᎦᏅᏨᎯ	-9.79245
▁ᎢᏍᎩ	-9.79287
▁ᏄᏍᏛᎢ	-9.79749
ᎪᎵᏰᏍᎩ	-9.80193
ᏕᏗ	-9.80243
▁ᎢᏳᏅ	-9.80255
ᎵᏓᏍᏗ	-9.80475
▁ᎤᎾᏕ	-9.80536
▁ᎤᏪᎷ	-9.80653
ᎥᏍᎬ	-9.80673
▁ᏧᎾᎴᎯᏐ	-9.8085
ᏔᏲᏎᎸᎩ	-9.80934
▁ᎠᏂᏐᎢᏃ	-9.80994
ᏈᎵ	-9.81348
▁ᎪᎯᏳᏗᏍᎩ	-9.81401
ᏍᎦᏅᏤ	-9.81417
ᏗᏍᎬᎩ	-9.81469
▁ᎤᏬᎯᏳ	-9.81535
▁ᎤᎲᎢ	-9.81614
▁ᎦᏛ	-9.81615
▁ᎾᏂᎥᎢ	-9.81647
▁ᏥᏕᎦ	-9.81672
▁ᎢᏦ	-9.81836
ᏂᎵ	-9.82573
ᏍᏚᎢᏍᏗ	-9.82775
.]	-9.82851
▁ᏭᎷᏤ	-9.83183
▁ᏓᏕᏲᎲᏍᎬ	-9.8328
▁ᎤᏂᏍᏆᏂᎪᏎ	-9.83306
▁ᏓᏠᎯᏍᏛ	-9.83309
▁ᏕᏣᏓᏅᏛ	-9.83389
▁ᎠᎩᏁᏨ	-9.83472
▁ᎠᎩᎭ	-9.83506
▁ᎢᏥᎩ	-9.83519
▁ᎢᏍᏗ	-9.83562
ᏓᏑᏯ	-9.83566
ᎦᏌᏯᏍᏗ	-9.83599
▁ᏄᏩᏁᎸ	-9.83603
▁ᏄᎵ	-9.83624
ᎵᏍᎪᎸᏙᏗ	-9.83648
▁ᎠᏁ	-9.83674
▁ᎤᏂᏣᏛ	-9.8368
▁ᎢᎬᏩᏁᏗ	-9.83681
▁ᏗᎤ	-9.83686
▁ᎤᏩᏔᏅ	-9.83733
▁ᎤᏂᏃᎮᎸ	-9.8399
ᎢᏳᎾᏍᏗ	-9.84049
ᏪᏨᎯ	-9.84152
ᏬᏂᏍᎬ	-9.84159
ᎸᏉᏓ	-9.84197
ᎥᏍᎨᏍᏗ	-9.84203
ᏥᎤᏍᏕᏎ	-9.84491
ᏔᏅᎾ	-9.8451
ᎵᏍᏙᏔᏅ	-9.84525
▁ᎠᎨᏳᏣ	-9.84529
▁ᎠᏕᏒᎲᏍᎩ	-9.84529
▁ᎠᏤᎷᎩ	-9.84529
▁ᎤᎳᎨᏯᏛᏤᎢ	-9.84529
▁ᎥᏘᎣᎩ	-9.84529
▁ᎦᏃᎸᎥᏍᎬ	-9.84529
▁ᏒᎦᏔ	-9.84529
▁ᏔᎷᎩᏍᎩ	-9.84529
▁ᏕᎨᎦᏨᏍᏗᏍᎬ	-9.84529
▁ᏕᎨᏥᏰᎸᏔᏅᎩ	-9.84529
▁ᏗᏖᎵᏙ	-9.84529
▁ᏣᎦᏟᎶᏍᏔᏅᎯ	-9.84529
▁ᏦᎠᏍᎪᎯ	-9.84529
▁ᏧᏩᎫᏔᏅᏒ	-9.84529
▁ᎡᏂᎾᏯ	-9.84529
▁ᏂᎬᏪᏎᎭ	-9.84529
▁ᏧᏳᎪᏗ	-9.84529
▁ᎡᎩᎵᏈ	-9.84529
▁ᎠᏂᏙᎾᎢ	-9.84529
▁ᎤᎬᏫᏳᏎᏍᏗ	-9.84529
▁ᏔᎷᏣ	-9.84529
▁ᎠᏏᎾᏌᏂ	-9.8453
▁ᏄᎾᏓᎴᏒ	-9.8453
ᏍᏉᎵᏱ	-9.8453
▁ᎢᏳᏩᏂᏌᏅᎯ	-9.8453
▁ᏫᏚᏯᏅᎮ	-9.8453
▁ᎢᏳᎵᏍᏔᏅᎯ	-9.84531
▁ᎤᏛᎪᏗᏱ	-9.84532
▁ᎯᎨᏴ	-9.84533
▁ᏗᏓᏬᏍᏗ	-9.84534
ᏛᏅᎢᏍᏙᏗᏱ	-9.84534
▁ᎠᏲᎱᏒ	-9.84535
ᏍᏕᎵᎭ	-9.84536
▁ᎤᎾᏛᏅᎩ	-9.84537
▁ᎤᏕᎵᏒ	-9.8454
▁ᎥᏳᎩ	-9.84543
▁ᏱᏅᎦᎵᏍᏓ	-9.84549
▁ᎾᏂᎦᏔᎲᎾ	-9.84549
▁ᎣᎦᏛᎦᏅ	-9.84572
ᎾᏙᏓᏆᏍ	-9.84572
▁ᏧᏪᏅᏒ	-9.84572
▁ᎢᏣᏓᏡᎬ	-9.84577
▁ᎠᏉᎳ	-9.84577
▁ᎨᏣᏍᏓᏩᏗᏙᎯ	-9.84577
▁ᎤᎦᏔᎲᏒ	-9.84578
▁ᏄᏠᎾᏍᏛᎾ	-9.84581
▁ᎠᏂᏍᎦᎢᎮ	-9.846
ᏅᏍᏓᏕᎸᎩ	-9.84601
▁ᏧᎾᏓᏅᏙ	-9.84605
▁ᎠᏓᏍᏓᏩᏗᏙᎯ	-9.84612
▁ᏫᏨᎷᏤᏗᏱ	-9.84613
▁ᏥᏥᎦᏔᎭ	-9.84627
ᎵᏂᎪᎯᏍᏗ	-9.84635
▁ᎤᏣᏔ	-9.84644
▁ᎤᎬᏫᏳᎭ	-9.84654
▁ᎤᏛᎦᏁ	-9.84654
ᏯᎡᏍᏗ	-9.84654
▁ᎠᎩᎬᏫᏳᎯ	-9.84656
▁ᎢᏥᎦᏔᎮᏍᏗ	-9.84658
▁ᎬᏩᏍᏓᏩᏛᏒᎩ	-9.84659
▁ᏰᏥ	-9.84664
▁ᎢᎪ	-9.84679
ᏂᏌᏁ	-9.84698
▁ᎤᏍᎪ	-9.84706
▁ᎠᏁᏢᏔᏅᎯ	-9.84711
▁ᎢᏳᏛᏁᏗᏱ	-9.84715
▁ᎢᏥᎦᏙᎥᎯᏍᏗᏱ	-9.84721
▁ᏧᎾᏄᏬ	-9.8473
▁ᏦᏈ	-9.84743
▁ᏂᏚᏩᏁᎸ	-9.84754
ᏂᏪᏏ	-9.84822
▁ᏥᏅᏗᎦᎵᏍᏙᏗᎭ	-9.84827
▁ᎤᏂᏇᏓᎸᎢ	-9.84832
▁ᏧᎸᏫᏍᏓᏁᏗᏱ	-9.84845
ᏒᎦᎸ	-9.84849
ᏄᎪᏩ	-9.84899
▁ᎠᏓᏅᏖᏗ	-9.84907
▁ᎠᎩᏅᏏᏛ	-9.84986
ᏲᎯᏎᎸᎯ	-9.85008
▁ᎠᏫᏍᎩ	-9.85012
▁ᏥᏅᏏᏓᏍᏗ	-9.85019
▁ᏧᎴ	-9.8504
▁ᎠᎬᏗᏍᎬᎢ	-9.85085
▁ᎠᎦᏔᎿᎢ	-9.85092
▁ᎠᏍᎪᎯᏁ	-9.85105
▁ᏓᎻ	-9.85115
▁ᎠᏁᏙᎲᎢ	-9.85192
▁ᏭᏴᎴᎢ	-9.85194
ᏁᎲᎩ	-9.85212
▁ᎠᏥᏃᎮᏍᎬᎢ	-9.85215
▁ᎢᏥᏍᎦᏅᏨᎢ	-9.85258
▁ᎤᏅᏟ	-9.85269
ᎧᎵᎢᏍᏗᏱ	-9.85299
ᏉᏰᏂ	-9.8543
ᏙᎴᎰᏒ	-9.85494
▁ᎢᎩᏁᎸᎯ	-9.85528
▁ᏙᎦ	-9.85569
▁ᎠᏁᎩ	-9.85605
ᏩᎯ	-9.85606
▁ᏕᎨᏌᏗᏒᎢ	-9.85677
ᎦᏄᎪᎬ	-9.85696
▁ᏂᏫ	-9.85698
▁ᏭᎷᏤᎢ	-9.85805
ᏂᎪᎮ	-9.8587
ᏫᏎ	-9.85876
ᏍᏆᏂᎪᏔᏅ	-9.85881
▁ᏗᏨᏂᏗ	-9.85883
▁ᏓᎩᎸᏫᏍᏓᏁᎲ	-9.85926
▁ᏂᏚᏅ	-9.85959
ᏓᏙᎵᏍᏗ	-9.86161
▁ᎠᎢᏒᎢ	-9.86172
▁ᏤᎮᎢ	-9.86178
▁ᏚᎸᏫᏍᏓᏁᎸᎢ	-9.86186
▁ᏓᎬᏩ	-9.86245
▁ᎠᏢ	-9.86468
▁ᎤᏪᏗᏱ	-9.86475
▁ᎤᏁᏅ	-9.86932
ᎮᎮᎸ	-9.86965
▁ᎤᏂᏍᎦᏅᏨᎢ	-9.87067
ᎦᏁᎳᏅᎯ	-9.87067
ᏎᎸᎩ	-9.87086
ᏍᏓᏩᏕᎩ	-9.87362
▁ᎢᏦᎯᏳᏒᎢ	-9.87394
ᏃᏁᎵ	-9.87539
▁ᏕᎩ	-9.87545
ᏍᏓᏁᎸᎯ	-9.8756
▁ᎠᎦᏔᎭ	-9.87598
▁ᎠᏍᏚᎲ	-9.87656
▁ᏄᏛᏁᎸᎢ	-9.87735
ᎸᏫᏍᏓᏁᎭ	-9.87756
ᏗᏔᏍᏗᏱ	-9.87794
ᏛᏅᎢᏍᏗ	-9.87899
ᏓᏅᏖᏍᎨᏍᏗ	-9.88107
▁ᏡᎬᎢ	-9.88141
▁ᎤᏓᏅ	-9.88185
ᏟᎶᏍ	-9.88492
▁ᎤᏛᏅᎩ	-9.88542
▁ᏅᏗᎦᎵᏍᏙᏗᏍᎬᎢ	-9.88958
ᏓᏁᎮᏍᏗ	-9.89078
ᏓᏙᎵᏍᏓᏁᏗ	-9.89909
▁ᎤᏪᎵ	-9.90284
ᏂᏆ	-9.90766
▁ᎢᏳᏩ	-9.90989
ᏴᎳ	-9.91008
▁ᎦᎸᏉ	-9.9112
▁ᎬᏩᏛᏛ	-9.91384
ᎯᏳᎲᏍᎦ	-9.91511
ᎵᏍᏔᏁᎢ	-9.91612
ᎾᏄᎪᏫ	-9.91926
▁ᎡᏣᎫᏴ	-9.91997
ᎸᏫᏍᏓᏁᎰᎢ	-9.92112
▁ᎤᏓᏅᏁ	-9.92463
ᏂᏓᏍᏗᏱ	-9.92843
▁ᏱᏅ	-9.92878
▁ᎭᎵ	-9.92957
▁Ꮞ	-9.93015
ᏂᏒ	-9.9304
ᏍᏆᏂ	-9.93093
▁ᎡᏥᎸᏉ	-9.93202
▁ᎢᏳᎾ	-9.93227
▁ᎬᏩᎷᏤᎴ	-9.9324
▁ᎠᏚᎢᏍᏛ	-9.9324
▁ᏄᏛᏁᎴ	-9.93242
▁ᏕᎨᏌᏗᏒ	-9.93275
▁ᏄᎾᏛᏁᎸ	-9.93279
▁ᎡᎳ	-9.93283
ᎴᏂᏓᏍᏗ	-9.93406
ᎪᎲᎯ	-9.93481
▁ᎤᏪᏅᏎ	-9.93535
▁ᎠᎲᎢ	-9.93545
ᏓᎵᏁᎯ	-9.93628
ᏍᏗᏍᎬᎢ	-9.93631
ᏔᏲᏎᎸ	-9.93641
ᏍᏕᎸᎲ	-9.93786
ᎦᏙᎥᎯᏍᏗ	-9.93844
ᏁᏢᏔᏅᏛ	-9.93919
Ꮊ	-9.93965
▁ᏚᏙ	-9.94008
ᎠᎩᎾ	-9.94104
▁ᏙᏥ	-9.94118
ᏙᏅ	-9.94238
ᎾᏄᎪᏫᏒᎯ	-9.94393
▁ᏭᎶᏒ	-9.94453
ᏂᏐᏗᏱ	-9.94514
▁ᏧᎸᏫᏍᏓᏁᏗ	-9.94526
▁ᎤᏂᏍᏆᏂᎪᏒᎩ	-9.94529
▁ᎾᎵᏍᏆᏗᏍᎬᎾ	-9.94529
▁ᏐᎵᎹᏅ	-9.94529
▁ᏕᏦᎯᏳᏎᏍᏗ	-9.94529
▁ᏗᏂᏩᎾᎦᎳ	-9.94529
▁ᎠᏂᎦᏓᎭ	-9.94529
▁ᎧᏂᎵᏯ	-9.94529
▁ᎬᏩᏲᎱᎯᏍᏗ	-9.94529
▁ᏤᎦᎳᏯ	-9.94529
▁ᎠᏂᏃᏍᎩᏍᎩ	-9.94529
▁ᎤᏂᏃᎮᎴ	-9.94529
▁ᏲᏥᎦᏔᎭ	-9.94529
▁ᎢᏍᎦᎳᏗ	-9.94529
▁ᎢᏯᎬᏁᎸᎯ	-9.94529
▁ᎬᎨᏳᎢ	-9.94529
▁ᏕᏥᏲᎵᎸᎭ	-9.94529
▁ᏅᏓᏳᎵᏍᏙᏗᏱ	-9.94529
▁ᎥᏥᎪᎥᎩ	-9.9453
▁ᏗᎩᎾᏫ	-9.9453
▁ᎤᎩᏨᏅ	-9.9453
▁ᎠᏚᎸᏗ	-9.9453
▁ᎢᏥᏆᎵᏏ	-9.9453
ᎵᏍᏓᏴᎲᏍᎦ	-9.9453
▁ᏂᏙᏓᏳ	-9.9453
▁ᏓᏕᏲᎲᏍᎨ	-9.9453
▁ᎤᏂᏰᎸᏒᎩ	-9.94531
▁ᎨᏅᎢᏍᏗ	-9.94531
▁ᎠᏟᎶᏍᏗ	-9.94531
▁ᎤᏙᎴᎰᎯᏍᏗᏱ	-9.94532
▁ᎢᏦᎯᏳᎯ	-9.94532
▁ᎠᏧᏣ	-9.94533
▁ᎢᏲᏍᏛ	-9.94533
▁ᏄᏩᏁᎴ	-9.94533
▁ᎦᏍᎩᎶ	-9.94534
▁ᏧᏙᏢᏅ	-9.94535
▁ᎤᏓᏙᎵᏍᏔᏅ	-9.94542
▁ᏫᏂᎦᎵᏍᏓ	-9.94545
▁ᏥᎮᎾ	-9.94545
▁ᎢᎨᎬᏁᏗ	-9.94549
▁ᎤᏬᎯᏨ	-9.94549
▁ᏱᏥᏍᎦᎢᎮᏍᏗ	-9.94554
ᏖᏆᎶ	-9.94554
▁ᎡᏉᏂ	-9.94564
▁ᏚᎪᎮ	-9.94568
▁ᎢᏯᏍᏘ	-9.94572
▁ᎲᏗᏍᎨᏍᏗ	-9.94577
▁ᎠᏄᎦᎸ	-9.94577
▁ᏧᎾᎵᏂᎩᏛ	-9.9458
▁ᏓᏓᏂᎸᎨᏍᏗ	-9.94586
▁ᎯᎾᎩ	-9.94589
▁ᎣᏂᏗᏢ	-9.94598
▁ᏂᏚᎾᏓᏪᏎᎴᎢ	-9.94604
▁ᏄᏂᎲᎾ	-9.94606
▁ᏭᎶᎯᏍᏗᏱ	-9.94608
▁ᎤᏬᏚᎯᏳ	-9.94608
▁ᎬᏬᎯᏳ	-9.94619
▁ᎠᎩᎷᏥᎸ	-9.94643
▁ᏔᎵᏧᏈ	-9.94643
▁ᏕᎬᏩᏂ	-9.94661
▁ᎪᏍᏚ	-9.94666
▁ᏧᏓᎴ	-9.94671
▁ᏑᎾᎴ	-9.94687
▁ᏑᎾ	-9.94695
▁ᎢᏯᏆᏛᏁᏗᏱ	-9.94695
▁ᏗᎬᏩᎸᏌᏛ	-9.94697
▁ᎠᏂᎦᏴᎵᎨ	-9.94722
▁ᏂᎬᏁᎭ	-9.94731
▁ᎤᏃᏍᏛ	-9.94736
▁ᎤᏃᎯᏳᏅᎯ	-9.94737
▁ᏗᎦᎵᏍᏙᏗᎭ	-9.9474
▁ᏭᏯᏅᎲ	-9.94747
▁ᎢᏣᎵᏍᏕᎸᏙᏗ	-9.94754
ᎦᏌᏯᏍᏕᏍᏗ	-9.94788
▁ᎬᏩᏔᏲᏎᎴ	-9.94827
▁ᎢᏥᏁᏍᏗ	-9.94852
▁ᏬᎩᎷᏨᎩ	-9.94862
ᏰᎸᏎᏍᏗ	-9.94865
▁ᎾᏥᎾᏝᎥᎾ	-9.9487
▁ᎨᏥᏁᎸᎯ	-9.94871
▁ᎤᏯᎢ	-9.94882
▁ᎠᏃᏍᏛ	-9.94911
▁ᎠᎩᎾᏫ	-9.94946
▁ᏄᏪ	-9.94975
▁ᎤᏓᏅᏖᎸᎯ	-9.94986
ᎵᏂᎩᏛ	-9.95004
▁ᏧᏁᏨ	-9.95027
ᏣᎦᎸ	-9.95045
▁ᏥᏁᎦ	-9.95053
▁ᏂᏕᎦᏪᏎᎲ	-9.95091
ᎲᏍᎬᎾ	-9.95121
ᏖᎸᏗ	-9.95139
▁ᏚᏁᏤᎸᎩ	-9.95243
▁ᎢᎦᏁᎳᏅᎯ	-9.9525
▁ᏗᏥᎾᏫᏱ	-9.95287
▁ᎾᎦᏔᎲᎾ	-9.95331
▁ᎠᎾᎵᏍᏓᏴᎲᏍᎬ	-9.95339
▁ᎩᎵ	-9.95345
▁ᎾᏁᎲᎾ	-9.95349
▁ᏧᏭᎪᏙᏗ	-9.95373
▁ᎾᏛᏁᎲ	-9.95424
▁ᎠᏎᏍᎩᏂᏃᏅ	-9.95427
▁ᎤᏂᏙᏓ	-9.95488
▁ᎢᏓᎵ	-9.95504
▁ᏄᎾᏛᏅᎢ	-9.9567
▁ᎦᎵᏦᏛᎢ	-9.95685
▁ᏙᏓᎨ	-9.95686
▁ᎤᏓᏅᏛ	-9.95751
ᏴᏁᎵ	-9.95884
▁ᏓᏠᎯᏍᏛᎢ	-9.9594
▁ᎤᏬᎯᏳᏒ	-9.96057
ᏫᏒᎯ	-9.96076
ᎪᏪᎸ	-9.96093
▁ᎨᏥᏰᎸ	-9.96096
▁ᎤᏢᎩ	-9.96154
▁ᎠᎩᏍᏗᏱ	-9.96246
▁ᏓᏆ	-9.96279
▁ᏚᏂᎸᏫᏍᏓᏁᎲᎢ	-9.96347
ᏥᏁᎦ	-9.96364
▁ᎦᏙᎬᎩ	-9.96527
▁ᎠᏍᎫᏕᏍᏗ	-9.96557
▁ᎡᎮᏍᏗ	-9.96592
▁ᎠᏜ	-9.96692
▁ᎤᎷᏤᎸ	-9.96833
ᏍᏈ	-9.96836
ᏅᏩᏅ	-9.96844
ᎷᏥᎸ	-9.96885
▁ᏄᏪᏎᎸ	-9.96924
▁ᎢᎦᏘ	-9.96963
▁ᎦᏬᏂᏍᎬᎢ	-9.9703
▁ᏚᏬ	-9.9708
▁ᏃᎩ	-9.97166
▁ᎤᎷᏤᎴ	-9.97192
▁ᎦᏚᎢ	-9.97487
▁ᏥᎬᏩ	-9.97681
▁ᎣᎦᏤᎵ	-9.97862
ᎥᎦ	-9.98066
ᏅᏟ	-9.98183
ᏘᏃᎸᎩ	-9.98378
▁ᎠᏓᏅᏖᏍᎬᎢ	-9.98408
ᏛᏓ	-9.98432
▁ᎤᎪᎲᎩ	-9.987
ᏗᏯ	-9.98752
ᏓᎴᎩ	-9.98943
ᏚᎸᏫᏍᏓᏁ	-9.99082
▁ᎤᎾᎵᎢ	-9.99085
▁ᎾᎥᏂ	-9.99253
ᏑᎵ	-9.99318
▁ᏌᎵ	-9.99452
▁ᎤᏢᎬ	-9.99671
▁ᎤᏅᏏ	-9.99764
ᎪᎵᏰᏍᎨᏍᏗ	-9.998
▁ᎤᏂᎷᏤᏗ	-9.99854
▁ᎦᎾᏄᎪ	-10.0001
▁ᎢᏍᏛ	-10.0021
ᏙᎵᏍᏗᏱ	-10.0025
▁ᎤᏓᏙ	-10.0043
ᎾᏰᎯᏍᏗ	-10.009
ᎥᏝ	-10.0096
▁ᎤᎬ	-10.0111
▁ᏂᎦᏪ	-10.0139
ᏘᏰ	-10.0144
ᏄᎦ	-10.0152
ᏤᎳ	-10.0155
ᏓᎨᏳᏗ	-10.0155
▁ᏣᏚᎵ	-10.0165
▁ᎬᏩᏍᏓᏩᏗ	-10.0191
▁ᎪᏙ	-10.0193
ᏲᎯᏎᎸ	-10.0238
ᎶᏒᏍᏗ	-10.0243
▁ᏄᏅᏁ	-10.0262
▁ᏂᎪ	-10.0274
ᎵᎹ	-10.0276
▁ᏙᏓᎬ	-10.0308
ᎸᏉᏛᎾ	-10.0315
ᏴᏍᏕᏍ	-10.0319
ᎵᎥᏂᎸ	-10.0321
ᎸᏉᏗᏍᎩ	-10.0326
ᏨᎭ	-10.034
ᎾᏄᎪᎢᏍᏗ	-10.0354
ᏁᏟᏴᏛ	-10.0359
▁ᎤᏬᏢ	-10.0381
ᎦᎵᏍᏙᏗᎭ	-10.0395
▁ᏓᏲ	-10.0403
▁ᎣᎵᏩ	-10.041
ᏰᎸᏎ	-10.0424
ᏍᏆᏂᎪᏙ	-10.0429
ᎦᏴᎵᎨ	-10.0432
▁ᏄᎾᏛᏅ	-10.0438
ᎾᏰᏍᎬ	-10.0439
ᏔᏁᏍᏗ	-10.0446
▁ᎡᏙᎲ	-10.0449
▁ᎠᎦᏛ	-10.0467
▁ᎦᎵᏦᏛ	-10.0478
ᏁᏅ	-10.0479
▁ᎡᏦᎢᏳ	-10.0487
▁ᎤᏅᏁ	-10.0487
ᏗᏔᏍᏗ	-10.0499
ᏓᎶᏂᎨ	-10.0509
ᎸᏉᏙ	-10.051
ᎿᏕᎩ	-10.0532
▁ᎦᎵᏦ	-10.0534
ᏲᎯᏎᏗᏱ	-10.054
ᏔᏲᏎᎭ	-10.0549
▁ᎾᎾᏛᏁ	-10.0553
▁ᏐᏓᎻ	-10.0564
▁ᏱᏥᎪᎵᏰᎣ	-10.0564
▁ᎠᎬᎭᎸᏛ	-10.0564
▁ᎢᎬᏪᏅᏛ	-10.0564
▁ᎢᏯᏋᏁ	-10.0564
▁ᎤᎵᎮᎵᏤ	-10.0564
▁ᎬᏍᎦᎢᏍᏓᎩ	-10.0564
▁ᎾᏃᎯᏳᎲᏍᎬᎾ	-10.0564
▁ᏐᎣᏁᎳ	-10.0564
▁ᏕᎪᏢᏩᏗᏒ	-10.0564
▁ᏗᎧᎸᎬ	-10.0564
▁ᏗᏂᏬᏂᏍᎩ	-10.0564
▁ᏢᏓᏥ	-10.0564
▁ᎢᎨᎬᏁᎸᎯ	-10.0564
▁ᏂᎦᎵᏍᏔᏅᎭ	-10.0564
▁ᏧᎾᎬᏩᎶᏗ	-10.0564
▁ᎠᎵᏏᎾᎯᏍᏙᏗ	-10.0564
▁ᎤᏃᎯᏳᏗᏱ	-10.0564
▁ᎭᏓᏅᏖᏍᎬ	-10.0564
▁ᏧᏁᎿᎢ	-10.0564
▁ᏧᎴᎯᏌᏅᎯ	-10.0564
▁ᎠᎾᏛᎩᏍᎩ	-10.0564
▁ᏣᏃᏎᎰᎢ	-10.0564
▁ᎤᏂᎷᎯᏍᏗᏱ	-10.0564
▁ᎢᏥᏪᏍᏗᏱ	-10.0564
▁ᎤᎾᎵᏍᏓᏴᏅ	-10.0564
▁ᎤᎵᏍᏚᎢ	-10.0564
▁ᎤᎾᏂᎩᏒ	-10.0564
▁ᎠᏙᎴᎰᎯᏍᏙᏗ	-10.0564
▁ᎤᎩᎵᏲᎢᏍᏗ	-10.0564
ᎪᎵᏰᏍᎨ	-10.0564
▁ᎥᏣᏱ	-10.0565
▁ᎠᎯᏗᏳ	-10.0565
▁ᏧᏓᏅᏛᎢ	-10.0565
ᎸᏉᏔᏂ	-10.0565
▁ᎠᎦᏘᏯ	-10.0565
▁ᎢᏕᎾ	-10.0565
▁ᎢᎧᏁᏨᎯ	-10.0565
▁ᏗᎦᏓᎭ	-10.0566
ᎾᏫᏛᎮ	-10.0566
▁ᎠᎾᏓᏍᏓᏩᏗᏙᎯ	-10.0566
ᏄᏩᏁᎰ	-10.0566
▁ᏕᎦᏍᎩᎸ	-10.0566
▁ᏭᏂᎶᎯᏍᏗᏱ	-10.0566
▁ᎤᏮᏔᏅ	-10.0566
▁ᎢᎪᏪᎳ	-10.0567
▁ᏂᏣᏛᎿᏕᎬᎢ	-10.0567
▁ᏧᏬᎸ	-10.0567
ᎵᏏᎾᎯᏍ	-10.0567
▁ᎠᏓᎯᎯ	-10.0567
▁ᏍᎩᏍᏓᏩᏚᎦ	-10.0568
▁ᎢᏯᎬᏁᏗ	-10.0568
▁ᏗᏥᎦᏴᎵᎨ	-10.0568
▁ᎣᎦᏣᏅ	-10.0569
▁ᎢᏳᏩᏁᎸᎯ	-10.0569
▁ᏗᎬᏩᏓᏂᎸᎢᏍᏗ	-10.0569
▁ᎢᏨᏍᏗᏰᏗᎭ	-10.0569
ᎳᏗᏓᏍᏗᏱ	-10.057
▁ᏍᎩᏙᎵᎩ	-10.0572
▁ᎤᏂᏰᎸᏅ	-10.0573
▁ᏗᏥᎸᏫᏍᏓᏁᏗᏱ	-10.0573
▁ᎢᏣᎵᎮᎵᎨᏍᏗ	-10.0573
▁ᎠᎦᏔᎯᏳ	-10.0574
▁ᎤᎾᏕᏅᎯ	-10.0574
▁ᏧᎴᏔᏅᎯ	-10.0574
▁ᏕᎦᎶᏗ	-10.0574
▁ᏇᏗᏂᏱ	-10.0574
▁ᎤᏁᏙᎸ	-10.0575
▁ᎤᏬᏂᏒ	-10.0575
▁ᎠᎾᏓᏙᎵᏍᏓᏁᎯ	-10.0577
▁ᏂᏨᏁᎸ	-10.0577
▁ᎡᏃᏱ	-10.0578
ᏲᎯᏏ	-10.0578
▁ᏈᎵᏏ	-10.058
▁ᎤᎸᏓᎸᎥᏍᎩ	-10.058
ᎵᏥᏙᏁᎸ	-10.0581
▁ᏚᎸᏌᏛ	-10.0582
▁ᏱᏗᏣ	-10.0582
▁ᏚᏂᏢᎬ	-10.0583
ᎪᏍᏓᏯ	-10.0583
▁ᎤᏂᎦᏙᎥᏒ	-10.0586
ᏚᎪᏓ	-10.0586
▁ᏥᏄᎵᏍᏔᏅ	-10.0587
▁ᏍᎩᎾᏝᎢ	-10.0588
▁ᏙᏧ	-10.0589
▁ᎢᏣᎵᎮᎵ	-10.0589
▁ᎠᏆᏓᏅᏛ	-10.059
▁ᎤᎩᎵᏲᏨ	-10.059
▁ᎭᏓᏅ	-10.0593
▁ᏱᏫ	-10.0594
▁ᏂᎦᎵᏍᏓ	-10.0594
ᎪᎵᏰᎥ	-10.0596
▁ᏓᎾᏕᏲᎲᏍᎬ	-10.0597
▁ᏓᏤᎸ	-10.0601
▁ᏴᏛ	-10.0602
▁ᏚᏂᏅᏎ	-10.0603
▁ᎠᏂᏃᎮᏍᎩ	-10.0605
ᏞᏍᏗ	-10.0607
▁ᎦᏲᎵ	-10.061
▁ᏗᎨᏣ	-10.061
▁ᏧᎾᏄᎪᏫᏎᏗ	-10.0611
▁ᏯᎦᏔᎭ	-10.0613
▁ᎠᏥᏁᏗ	-10.0614
ᏅᏍᏓᏕ	-10.0616
ᏙᎰ	-10.0617
▁ᏧᎾᏤᎵᎦ	-10.062
ᏛᎦᏅ	-10.0623
ᏗᏧᎪ	-10.0624
▁ᎹᎦ	-10.0628
ᏳᎯ	-10.0637
ᏅᏁᏗᏱ	-10.0638
▁ᎤᏰᎸᏎ	-10.0639
▁ᎢᎩᏍᎦᏅᏨᎢ	-10.0639
▁ᏧᏁᎬ	-10.064
ᎵᏍᏓᏴᏙᏗ	-10.064
▁ᎤᏓᏑᏯ	-10.0644
▁ᎤᏂᎪᏩᏛᏗᏱ	-10.0646
▁ᎢᏣᏓᏙᎵᏍᏗᏍᎬ	-10.0647
▁ᎡᏙᎮᎢ	-10.0647
▁ᎢᏥᎦᏔᎲ	-10.0653
▁ᎤᏓᏔᏅᎯ	-10.0659
▁ᏚᎴᏁᎢ	-10.0663
▁ᏄᏍᏛᎾ	-10.0663
▁ᎠᏓᏫ	-10.0663
▁ᎤᏓᏅᏖᎸᎢ	-10.0663
▁ᎢᏥᏍᏆᏂᎪ	-10.0667
ᏜᏏᏛᎡ	-10.0669
▁ᏓᎾᎵᏍᏓᏴᎲᏍᎬ	-10.0672
▁ᎯᏰᎸ	-10.0675
ᎥᏍᎩ	-10.0679
ᎵᏂᎬᎬ	-10.0682
▁ᏥᏂᎨ	-10.0687
▁ᏭᎷᏨᎩ	-10.0698
ᏤᏗ	-10.0701
ᏌᏘ	-10.0706
▁ᎢᏨᏃᏁᎸ	-10.071
▁ᎣᎵᏩᏲ	-10.072
▁ᏓᎬᎾ	-10.0728
▁ᎪᎢ	-10.0734
ᏕᎨ	-10.0734
ᎬᏍᎪᎸᏁ	-10.074
▁ᏥᏚᏂ	-10.0754
▁ᏛᏥ	-10.0757
▁ᎦᎵᏉᎩᏁ	-10.0762
▁ᏦᏏ	-10.0765
▁ᏅᏓᎬ	-10.077
▁ᏍᎩᎨᏳ	-10.0773
▁ᎦᎶᏁᏛᏰᏃ	-10.0773
▁ᏣᏗᎭ	-10.0777
▁Ꮋ	-10.0777
▁ᎹᏓ	-10.0797
▁ᎡᎵᎩ	-10.08
▁ᏅᎩᏁ	-10.082
▁ᎾᎾᏛᏁᎲᎢ	-10.0834
▁ᏗᎩᎦᏴᎵᎨᎢ	-10.0845
▁ᎣᏓᎸᎢ	-10.0846
▁ᎤᎨᏳᎯᏳ	-10.0846
ᏂᏴᏗ	-10.0849
ᏕᎭ	-10.0853
ᎴᏅᎯ	-10.0855
ᏥᏴᎩ	-10.0868
ᎵᏍᎦᏍᏙᏛ	-10.0871
ᏂᏆᏘᎮᏍᏗ	-10.0872
▁ᎡᎲᎩ	-10.0885
ᏄᏪᏎ	-10.0891
ᏤᎵᎦ	-10.0909
ᎡᎸᎯ	-10.0925
▁ᏚᏪᎧ	-10.0935
ᏂᏪᏎ	-10.0947
▁ᎣᏥᏃᎮ	-10.0952
ᏚᎵᏍᎨ	-10.097
▁ᏚᏁᎴ	-10.0983
▁ᏱᏅᏩᏍᏗ	-10.0994
▁ᏂᎬᏁᎲ	-10.0995
▁ᎤᎷᏤᎢ	-10.1
ᎠᏂ	-10.1002
▁ᎤᏂᎷᏤᎢ	-10.1006
ᎸᏍᏗᏱ	-10.1022
ᎵᏍᏓᏴᎲᏍᎬᎢ	-10.1027
▁ᏥᏯᎵᎡᎵᏤ	-10.1032
ᎤᎷᏨ	-10.1034
ᏙᎩᏯᏍ	-10.1075
▁ᏫᏚᎾ	-10.1076
▁ᏴᎨᏥ	-10.1076
ᏍᏓᏩᏗᏙ	-10.1079
ᎦᏘᏗᏍ	-10.1101
ᎾᏛᏛ	-10.1105
ᎪᏪᎳᏅᎯ	-10.1115
ᏁᏤᎲ	-10.1131
▁ᎤᎾᏛᎦᏅᎩ	-10.1132
▁ᏍᏆ	-10.1134
▁ᏫᏯ	-10.1148
ᏨᏲᏎ	-10.1149
ᏓᏂᎸᎩ	-10.1149
▁ᎤᏒᎯ	-10.1163
ᎿᏩᏗᏒ	-10.1187
ᏌᏕ	-10.1209
ᏍᏙᎢ	-10.1218
ᏏᎳ	-10.1225
ᏓᏙᎵᏍᏓᏁᎭ	-10.1231
▁ᎤᏔᏅ	-10.1233
ᎩᏎ	-10.1241
ᏚᎸᏅᏗ	-10.1247
ᏨᏍᏙᏗ	-10.1261
▁ᎨᏥᏁᏗ	-10.1264
▁ᏄᏪᏒᎢ	-10.1283
▁ᎠᏥᏰᎸᎾᏁ	-10.1285
ᏥᏲᏏ	-10.1288
▁ᏕᎭ	-10.1305
▁ᎤᏚ	-10.1332
▁ᎠᎵᏍᎪᎸᏙᏗ	-10.1347
ᏰᎮᏍᏗ	-10.1367
ᏏᏳ	-10.1386
▁ᎠᏂᎷ	-10.1422
ᏥᏪᏏ	-10.1427
▁ᎤᎦᎾ	-10.1437
ᎦᏙᎥᏒ	-10.1509
ᎦᏘᏰ	-10.1526
ᏄᏬᏍᏗ	-10.1529
ᏁᎢᏍᏔᏁ	-10.1532
ᎦᏔᎮᏍᏗ	-10.1594
ᏔᏅᎭ	-10.16
▁ᎢᏣᏕ	-10.1638
▁ᏱᏣᏓ	-10.1642
▁ᎠᎦᏔᎮ	-10.1658
▁ᏕᏡᎬ	-10.1685
▁ᎠᏍᏓᏱᏗᏍ	-10.1686
▁ᎠᏍᏚ	-10.1693
ᏍᏆᏂᎪᏛ	-10.1693
ᏫᏍᎪᎢ	-10.1694
ᏁᏍᎨᏍᎩ	-10.1696
▁ᏭᏴᎸ	-10.1728
ᏅᏓᏛᎩ	-10.1736
▁ᎤᏁᏅᏎ	-10.174
ᏙᎳᏅᏍᏗ	-10.1754
ᎿᎥᎢ	-10.176
ᎵᎮᎵᏍᏗ	-10.1763
ᏛᏗᏍᎩ	-10.1765
▁ᎤᏂᏲᎴ	-10.1766
ᎠᏕᎸ	-10.1767
▁ᏥᏅᏗᎦᎵᏍᏙᏗ	-10.1772
ᏥᎾᏝᎥᎾ	-10.1777
ᏛᏓᏍᏓᏁ	-10.1788
ᏍᏓᏩᏛᏒᎩ	-10.1796
▁ᏚᏁᏤᎸ	-10.1798
ᏂᏲᎱᎯᏍᏗ	-10.1798
▁ᎤᏩᏒᏍᎩᏂ	-10.18
ᏅᏁᎮᏍᏗ	-10.1804
▁ᎤᏓᏁᏟᏴ	-10.1805
▁ᎠᏩᎾᎦᎳ	-10.1807
▁ᎨᏥᏍᏕᎸᏗ	-10.1807
ᏍᎦᎢᎮᏍᏗ	-10.1809
▁ᏂᏣᎵᏍᏓᏁ	-10.1814
'	-10.1814
▁ᏕᎤᎸᏫᏍᏓᏁᎲ	-10.1814
ᏗᎦᎵᎠᏅᎯᏛ	-10.1814
▁ᎠᎩᏇᏓᎸ	-10.1814
▁ᎠᏂᏃᎯᎵᏙᎯ	-10.1814
▁ᎠᏓᏪᎳᎩᏍᎩ	-10.1814
▁ᎤᏓᏙᎵᏣᏛ	-10.1814
▁ᎦᎶᎯᏍᏗᏳᎶᏗ	-10.1814
▁ᏄᏬᎯᏳᏒᎾ	-10.1814
▁ᏅᏓᎦᎵᏍᏙᏓ	-10.1814
▁ᏓᎵᏍᏗᎳᏁᎬ	-10.1814
▁ᏕᎦᏬᏁᏗᏍᎬ	-10.1814
▁ᏕᏏᎶᏂᎦ	-10.1814
▁ᏗᎾᏕᏲᎲᏍᎩ	-10.1814
▁ᏙᏗᏣᏓᏅᏛᎢ	-10.1814
▁ᏥᏚᏳᎪᏗ	-10.1814
▁ᏦᎩᎸᏫᏍᏓᏁᎯ	-10.1814
▁ᏧᎾᏄᏩᎢ	-10.1814
▁ᎢᏗᏍᏓᏓᎳ	-10.1814
▁ᎢᏧᏕᏘᏴᏛ	-10.1814
▁ᏧᎦᏒᏍᏗ	-10.1814
▁ᏱᏤᎵᎯᏍᎨᏍᏗ	-10.1814
▁ᎢᏦᎯᏳᏗᏱ	-10.1814
▁ᏗᏓᎴᎲᏍᎦ	-10.1814
▁ᏚᏓᏘᎿᎥ	-10.1814
ᏍᏓᏩᏛᏍᏗᏱ	-10.1814
▁ᎤᏂᎩᎵᏲᎢᏍᏗ	-10.1814
▁ᎤᏂᎬᎥᏍᎩ	-10.1814
▁ᏕᎭᏕᏲᎲᏍ	-10.1814
▁ᏗᏦᏪᎵᏍᎩ	-10.1814
▁ᏧᏬᏚᎯ	-10.1814
▁ᎡᏥᏲᎵᎸᎭ	-10.1814
▁ᏧᏂᏁᏟᏴᏍᏗᏱ	-10.1814
▁ᎤᏄᏩᎥ	-10.1814
▁ᏭᏂᎶᏒᎩ	-10.1814
▁ᎤᎾᏄᎪᏥᎸ	-10.1814
▁ᏥᏚᏙᎥ	-10.1814
▁ᎾᏆᎵᏍᏓᏁᎸ	-10.1814
▁ᏣᏤᏍᏙ	-10.1814
▁ᎠᏂᎪᏗᏳ	-10.1814
▁ᏂᎦᎵᏍᏗᏍᎪ	-10.1814
▁ᎬᏩᏓᏍᏕᎸᏗ	-10.1814
▁ᏓᏂᏴᎨᏍᏗ	-10.1814
ᏠᎠᏏ	-10.1814
▁ᏗᏇᏥ	-10.1814
▁ᎯᎦᏙᎵ	-10.1814
▁ᏓᏆᏓᏂᎸᎨᏍᏗ	-10.1814
ᏯᏪᏐ	-10.1814
▁ᎶᎻ	-10.1814
▁ᎢᏍᏕᎾ	-10.1814
▁ᎤᎾᏓᏟᏌᏅ	-10.1814
▁ᏅᏓᎦᎵᏍᏙᏔᏂ	-10.1815
ᎵᏌᎳᏓᏅ	-10.1815
ᎩᏏᏕᎩ	-10.1815
ᎾᏰᏍᎦ	-10.1815
▁ᎢᎦᎵᏍᏙᏗᏱ	-10.1815
▁ᏕᎧᏁᏤ	-10.1815
▁ᏤᎵᎪ	-10.1815
▁ᎢᏯᏥᎸᏉᏗ	-10.1815
ᎩᏲᎱᏒᎯ	-10.1815
ᏂᏣᏔ	-10.1815
▁ᎦᏚᎢᏗᏢ	-10.1816
▁ᎠᏙᎴᎰᏒᎯ	-10.1816
▁ᎠᏂᏦᎢ	-10.1816
▁ᏕᏥᎧᎿᏩᏗᏙᎮᏍᏗ	-10.1817
▁ᎠᏇᎵᏒ	-10.1817
▁ᎢᏯᏂᎢ	-10.1817
▁ᎵᏫ	-10.1817
▁ᎢᏛᏗᏍᎬ	-10.1817
ᎪᎵᏯ	-10.1818
▁ᎤᏍᏗᎩᏛ	-10.1819
▁ᏫᎦᎷᎩ	-10.182
ᎢᎦᎸᏉᏗ	-10.1821
ᎶᏄᎮᏗᏱ	-10.1821
ᏄᎸᏗ	-10.1821
▁ᏥᏣᏛᎩᎭ	-10.1821
ᎱᏍᏕ	-10.1822
▁ᎠᎪᏎᎮᏍᏗ	-10.1822
▁ᏫᎨᏥᏲᎵᎭ	-10.1823
ᎦᎾᏄᎪᏫᏍᎪ	-10.1823
▁ᏄᏂᏪᏎᎸᎩ	-10.1824
▁ᏧᏂᎦᏴᎵᎨ	-10.1824
▁ᎨᏙᎲ	-10.1824
▁ᏌᏈ	-10.1825
▁ᏚᏩᏂᎦᎸ	-10.1826
▁ᎦᎵᎡᎵᎦ	-10.1829
▁ᎤᎾᎵᎮᎵᏤ	-10.1831
▁ᎢᏣᏟᏂᎬᏁ	-10.1831
▁ᎤᏂᎸᏉᏔᏁ	-10.1832
ᎸᏓᎩᏍ	-10.1832
▁ᎬᏁᏍᏗ	-10.1832
▁ᎤᏪᏙᎴ	-10.1836
▁ᎦᏁᏟᏴᏍᏗ	-10.1838
▁ᎤᏕᏔᏅᎯ	-10.1839
▁ᎡᏥᏯᏅᏛ	-10.184
▁ᎢᏣᏓᏅᏛ	-10.1843
ᏬᏁᏙᏗ	-10.1843
▁ᏂᏕᏨ	-10.1846
▁ᏏᎵᏱ	-10.1849
▁ᏗᎵᏍᎪᎸᏓᏁᎸᎯ	-10.185
ᎸᏃᏘ	-10.1853
▁ᎠᏥᏅᏏᏛ	-10.1853
▁ᏣᏓᏅᏙ	-10.1855
▁ᎤᏂᏰᎸᏗ	-10.1856
▁ᎾᏍᎦᎢᎲᎾ	-10.1857
▁ᎠᎫᏴᏗ	-10.1857
▁ᎤᏂᏴᎸ	-10.186
ᏘᏅᏒᎩ	-10.1862
▁ᎦᏅᎨ	-10.1865
▁ᎤᎾᎵᏍᏓᏴᏗᏱ	-10.1868
▁ᏃᏯ	-10.1869
▁ᏕᎬᏗᏍᎬ	-10.1872
▁ᏗᏣᏤᎵᎦ	-10.1873
▁ᏕᏣᎸᏫᏍᏓᏁᎲᎢ	-10.1874
▁ᎢᏥᎷᏤᎸ	-10.1877
▁ᏅᏓᏰ	-10.1877
ᏯᏅᏗ	-10.1888
ᏓᏅᏖᏗ	-10.1889
ᏏᏔᏗᏍ	-10.189
▁ᏥᏕᏣ	-10.1891
▁ᎠᏟᏍᏛᎢ	-10.1891
▁ᏚᏓᏘᎾᎥᎢ	-10.1891
ᏓᎸᏛ	-10.1891
▁ᎤᏪᏍᎩᎸᎢ	-10.1892
▁ᎤᏪᏙᎸᎩ	-10.1894
▁ᎤᏙᎯᏳ	-10.1896
▁ᎠᏂᏍᎦᎢᎲ	-10.1901
▁ᎾᏆᏍᏛ	-10.1904
▁ᏮᏛ	-10.1904
▁ᎤᏪᎷᏁᎢ	-10.1905
▁ᎨᎦᎫᏴᎡ	-10.1913
ᏃᎯᏴ	-10.1915
ᏓᏁᏗᏱ	-10.1916
▁ᎤᏍᏆᏂᎪᏛ	-10.1923
▁ᏭᏂᎷᏤᎢ	-10.1924
ᎬᏍᎦᎳ	-10.1936
▁ᎤᎿᎥᎢ	-10.1938
▁ᎤᏂᏣᏖᏍᏗ	-10.1938
▁ᎤᎴᏁ	-10.1946
ᏍᏓᏩᏕᏅ	-10.1956
▁ᎢᎧᏁ	-10.1958
ᎾᏓᏡᎬ	-10.1959
▁ᎤᏍᏆᏂᎪᏎ	-10.1969
▁ᏗᏁᎲᎢ	-10.1972
▁ᎹᎵ	-10.1973
▁ᏯᎩᎭ	-10.1975
▁ᏣᏍᎦᏅᏨ	-10.1977
▁ᎠᏁᎮᎢ	-10.1977
ᎵᏓᏍᏔᏅ	-10.1982
▁ᎤᎵᏍᏓᏴᏗ	-10.1985
▁ᏱᏗᎦ	-10.1989
▁ᎤᏪᏅᏎᎢ	-10.199
▁ᏏᎵ	-10.1992
▁ᎤᏡᏗᏍᎩ	-10.1994
▁ᎢᏣᏚᎵᏍᎬ	-10.2
▁ᏗᏁᎯ	-10.2011
ᏍᎦᎢᎲᎾ	-10.2012
▁ᏥᏰᎸᎢ	-10.2013
▁ᎢᏣᎵᎮᎵᎬ	-10.2015
▁ᏓᏈ	-10.2028
▁ᏨᏍᎩᏃᎢ	-10.203
ᏤᏯᏙᏤᎮᏍᏗ	-10.2037
ᎵᏱᎶᎯᏍᏗ	-10.2048
ᏗᏍᎬᎾ	-10.2048
ᏟᏯ	-10.2054
▁ᎤᎪᏩᏛᏗᏱ	-10.2063
▁ᏰᏣ	-10.2065
▁ᎤᏂᎪᎲᎯ	-10.207
▁ᏕᏍᎩ	-10.2094
▁ᎪᏪᎸᎩ	-10.2095
▁ᎧᏱ	-10.2114
▁ᏂᏨᏪᏎ	-10.2116
ᎸᏌᏛ	-10.2122
▁ᏧᏁᏗᏱ	-10.2126
▁ᎢᎠ	-10.2127
▁ᏓᎩᎸᏫᏍᏓᏁ	-10.2127
▁ᎤᏣᏅ	-10.2132
ᏍᏆᏂᎪᏕᏍᏗ	-10.2142
▁ᎦᏛᎬᎢ	-10.2142
▁ᎠᏫᏅ	-10.215
▁ᏙᏱ	-10.2154
▁ᎦᎾᏍ	-10.2155
▁ᏕᎤᎴ	-10.2161
▁ᎦᎸᎳᏗᏢ	-10.2161
▁ᎡᎮᎢ	-10.2185
▁ᎢᏨᏗᏍᎬ	-10.2206
▁ᏚᎸᏫᏍᏓᏁ	-10.222
▁ᎠᎾᎵᎮᎵᎨ	-10.2231
▁ᏕᎠ	-10.224
▁ᎠᏍᎦᎾᎢ	-10.2243
▁ᏱᏓᎩ	-10.2253
▁ᎬᏒ	-10.2257
▁ᎦᎬ	-10.2285
▁ᎤᏍᎦᏅᏨᎢ	-10.2288
ᏛᏁᎵᏓᏍᏗ	-10.2303
▁ᎦᏚᏱ	-10.2306
▁ᎠᎩᏃᎮ	-10.2313
▁ᎤᏪᎭ	-10.2349
▁ᏧᏙ	-10.236
ᏘᏃᎮᎴ	-10.2366
ᎡᎭ	-10.2423
▁ᎤᎵᏍᏆ	-10.2429
ᎵᏍᎪᎸᏙᏗᏱ	-10.2437
ᎬᏩᏪᏎ	-10.2444
▁ᎠᎩᏲ	-10.2459
▁ᏗᎦᏥ	-10.2461
▁ᏱᏚᏂ	-10.2474
ᎵᏥᏙᏗ	-10.248
ᎹᏂ	-10.2515
▁ᎤᏩᏛᏗ	-10.2529
ᏂᏌᏛ	-10.2536
ᏥᎪᎵᏰ	-10.2546
ᏬᎯᏳᏁ	-10.2548
ᏁᎮᎢ	-10.2557
▁ᎢᏦᎯᏳᎲ	-10.2573
ᎵᏍᎪᎸᏓᏁᎴ	-10.2581
▁ᎤᏅᏎ	-10.2581
▁ᏚᏭ	-10.2582
▁ᎠᏍᎪᎯᏃ	-10.2589
ᏁᏤᎭ	-10.2607
▁ᏩᎾ	-10.2633
ᎷᏏ	-10.265
ᏎᎴᎢ	-10.2654
▁ᏧᏄᏬ	-10.2658
ᏄᏪᏒ	-10.2677
ᏅᏗᏍᎨᏍᏗ	-10.2699
ᏅᏓᏗᏍᏗᏱ	-10.2719
▁ᏱᏏ	-10.2746
▁ᏂᏥᏪᏎ	-10.2757
▁ᏥᏂᎬ	-10.2765
▁ᏱᏙᎬ	-10.2769
ᎨᎳᏍᏙᏗ	-10.278
▁ᎤᏓᎨᏳ	-10.279
ᏯᏛᏁᏗᏱ	-10.2802
ᏙᎵᏨᎯ	-10.2811
▁ᏧᏪᏲ	-10.2823
ᏚᎬ	-10.2832
ᏁᏤᎢ	-10.2833
▁ᎠᎾᎵᎮᎵ	-10.2873
ᏤᎮ	-10.2899
ᏚᏓᎳᎡ	-10.2917
ᏆᏛᏁᏗ	-10.2918
▁ᏱᏂᏨ	-10.293
▁ᎢᏣᏙᎴᎰ	-10.2944
ᏫᏍᎩ	-10.2959
ᎬᎪᏩᏛᏗ	-10.2966
▁ᎠᏥᏃᎮ	-10.2981
ᏍᏓᏁᏗᏱ	-10.2981
ᏙᎳᏍ	-10.2999
ᏍᎦᏅᏨᎢ	-10.2999
ᏯᏂᏍᎨᏍᏗ	-10.3005
ᏂᏴᎮᎢ	-10.301
ᏨᏍᏛ	-10.3031
ᎬᏍᎪᎸ	-10.3034
ᏣᏙᎴᎰ	-10.3052
ᏓᏡᎬ	-10.3088
ᏩᏘᎭ	-10.3104
ᏚᎢᏍᏓᏁᎴ	-10.3112
▁ᎠᏂᏃᎮᏍᎬ	-10.3116
▁ᏚᎴᏁ	-10.3123
▁ᎦᏅᎬ	-10.3125
▁ᏕᎩᎸᏫᏍᏓᏁ	-10.3141
▁ᎤᏪᏙᎸ	-10.3156
▁ᎤᏬᎯᏳᎯ	-10.3157
ᏍᏚᎢᏒ	-10.3166
▁ᎤᏂᎩᏒ	-10.3167
▁ᎠᏆᏛᎦᏅ	-10.317
ᎵᏂᎩᏗᏳ	-10.3178
ᎧᎵᏬᎯ	-10.3186
ᎦᎵᎷᎨᏍᏗ	-10.3192
ᏂᎬᏎᎲ	-10.3205
ᎳᏏᏕᏂ	-10.3206
ᎪᏪᎵ	-10.3214
ᏓᏅᏖᏍᎨ	-10.3215
ᎴᎯᏌᏅ	-10.322
▁ᎠᏂᎩᎵᏲ	-10.3228
ᏏᏔᏛ	-10.323
ᎵᏂᏆᏅᏁ	-10.3231
ᏠᎾᏍᏛᎾ	-10.3234
▁ᏂᎦᏪᏎ	-10.3237
ᏛᏐᏅᎯ	-10.3239
▁ᏣᎾᏫ	-10.3241
▁ᎦᎬᏩᏐᏢ	-10.3241
ᏎᎪᎩᏒ	-10.3242
▁ᏑᏟᎶᏛ	-10.3243
▁ᎠᎵᏍᎦᏁᏛ	-10.3243
▁ᎠᏂᎦᏔᎾᎢ	-10.3243
▁ᎡᏙᏙᏱ	-10.3243
▁ᎥᏓᎷᎶᏗ	-10.3243
▁ᏂᏚᎾᏁᎶᏛᎾ	-10.3243
▁ᏂᏚᎾᏓᏪᏎᎸᎩ	-10.3243
▁ᏂᏦᎵᎬᎾ	-10.3243
▁ᏅᏛᏆᏓᎴᏅᎯ	-10.3243
▁ᏓᏓᏁᎳᏗᏒ	-10.3243
▁ᏕᏥᏂᏴᏎᏍᏗ	-10.3243
▁ᏗᎧᏃᎩᏍᏙᏗ	-10.3243
▁ᏗᎾᏂᏏᎲᏍᎩ	-10.3243
▁ᏗᏂᎭᏄᎸᎯ	-10.3243
▁ᏚᏄᏩᎥ	-10.3243
▁ᏧᎦᎾᏮ	-10.3243
▁ᏫᏲᏪᎳᏏ	-10.3243
ᎬᎭᎷᏰ	-10.3243
ᏘᎾᏫᏛᎲ	-10.3243
▁ᎠᏓᏪᎵᎩᏍᎬ	-10.3243
▁ᎢᏨᏰᎳᏗᏙᎲ	-10.3243
▁ᎢᏳᏓᎨᏛ	-10.3243
▁ᎤᎾᎵᏖᎸᏅ	-10.3243
▁ᎤᏓᏙᎵᏣᏘ	-10.3243
▁ᎧᏅᏑᎸ	-10.3243
▁ᏄᎾᏓᎡᏍᏗ	-10.3243
▁ᏑᏕᏘᏴᏛ	-10.3243
▁ᏕᎦᎸᏫᏍᏓᏁᎸ	-10.3243
▁ᏕᏅᏙᎥ	-10.3243
▁ᏗᏕᏲᎲᏍᎩ	-10.3243
▁ᏣᎦᏑᎲᎢ	-10.3243
▁ᎠᏄᎯᏍᏗᏍᎬ	-10.3243
▁ᎾᏂᏪᏍᎬᎢ	-10.3243
▁ᏂᏥᏪᏍᎪᎢ	-10.3243
▁ᏣᏓᏲᏁᎸᎩ	-10.3243
ᎦᏯᎷᎥ	-10.3243
▁ᎢᎨᏣᏛᏁᏗ	-10.3243
▁ᎤᏔᏲᎴ	-10.3243
▁ᎨᎴᏏᏱ	-10.3243
▁ᏂᎦᎵᏍᏗᏍᎨᏍᏗ	-10.3243
▁ᏓᏂᏄᏙᎬᎢ	-10.3243
▁ᏫᏥᏲᎵᎦ	-10.3243
▁ᎤᏪᏐᏅᏴ	-10.3243
▁ᏗᏄᎪᏗᏍᎩ	-10.3243
▁ᏙᏛᎾᎴᏂ	-10.3243
▁ᏕᏣᏓᏂᎸᏨ	-10.3243
ᏂᏆᏘᎭ	-10.3243
▁ᏓᏓᎶᏂ	-10.3243
ᏓᎦᎶᏐᏂ	-10.3243
▁ᎣᎦᏚᎵᎭ	-10.3243
▁ᏓᏓᏛᏂ	-10.3243
▁ᎠᏁᏙᎭ	-10.3243
▁ᎠᏁᎵᏍᎬᎩ	-10.3243
▁ᎠᏓᏰᎨᏍᏗ	-10.3243
▁ᏗᎨᎫᎪᏓᏁᏗ	-10.3243
▁ᎠᏂᎸᏉᏗᏍᎨ	-10.3243
▁ᎤᎾᏛᎦᏁᎢ	-10.3243
▁ᎤᏗᏛᎮ	-10.3243
▁ᏚᏛᏛᏁ	-10.3243
▁ᎢᏨᏃᎮᎮᎸ	-10.3243
▁ᏌᏯᏂ	-10.3243
ᏛᏅᎢᏍᏔᏅᎯ	-10.3243
ᏙᎴᎰᏎ	-10.3243
▁ᎦᏰᏥᏐᏢ	-10.3243
▁ᎤᎬᏩᎳ	-10.3243
▁ᎣᎾᏫ	-10.3243
▁ᎦᎾᏄᎪᏥᎸ	-10.3243
▁ᎤᏢᏉᏗ	-10.3243
▁ᎤᏬᏯᏁᏒ	-10.3243
▁ᏗᏆᎳᏏᏕᏂ	-10.3243
▁ᎾᏂᏍᎦᏅᎾ	-10.3243
▁ᎤᏗᏗᏢ	-10.3243
▁ᏧᏚᎪ	-10.3243
▁ᎠᎩᏍᏛᏗᏍᎬ	-10.3244
▁ᏥᏍᎪᏴ	-10.3244
▁ᎢᏥᎨᏴ	-10.3244
▁ᎤᎵᏠᏯᏍᏕᏍᏗ	-10.3244
▁ᎠᏐᏴ	-10.3244
▁ᏚᏂᏲᎱᏒ	-10.3244
▁ᎤᏄᏬᏍᏕᏍᏗ	-10.3245
▁ᎤᏖᎸ	-10.3245
▁ᎤᏲᏍᏛᏉ	-10.3245
ᏥᎶᏄᎡ	-10.3245
▁ᏗᏓᏂᏐᏗᏱ	-10.3245
▁ᏥᏂᎨᎬᏁ	-10.3245
▁ᏫᏥᎷᏨᎭ	-10.3246
ᏜᏏᏛᎡᎲᎾ	-10.3246
▁ᎦᏃᏙᏗᏱ	-10.3246
▁ᎨᏥᏅᏒᎯ	-10.3246
▁ᎤᏰᎸᎭ	-10.3247
▁ᎠᎩᎩᎬ	-10.3247
▁ᏧᏁᎵᏁ	-10.3247
▁ᏄᏪᎲᎾ	-10.3247
▁ᏗᏣᎳᏏᏕᏂ	-10.3247
▁ᏧᎾᎳᏏᏕᏂ	-10.3248
▁ᎤᎴᏅᎩ	-10.3248
▁ᎠᎾᏛᎩᏍᎬ	-10.3248
▁ᎢᏨᏲᏪᎳᏁᎭ	-10.3249
▁ᏱᏂᎬᏁᎭ	-10.3249
▁ᏳᏃᎵᏤ	-10.3249
▁ᏓᎦᏛᏁᎵ	-10.325
▁ᎠᏓᏲᏁᎮᏍᏗ	-10.325
▁ᎡᏣᏙᎵᎩ	-10.325
ᏠᎠᏒ	-10.325
ᎾᏓᏂᎸᏨ	-10.325
▁ᏚᎿᏍᏕᏢ	-10.3251
▁ᏱᏘ	-10.3251
▁ᎤᏍᎦᏤ	-10.3252
ᏓᏛᏁᎮᏍᏗ	-10.3252
▁ᎤᎾᏓᏑᏰᏛ	-10.3252
▁ᏅᏓᏳᏅᏏᏛ	-10.3253
▁ᏂᏣᎵᏍᏔᏅ	-10.3253
▁ᏗᎨᏥᎾᏝᎢ	-10.3253
ᏕᏯᏙᏔᏅᎩ	-10.3253
ᏂᏧᏈᏍᏗ	-10.3255
▁ᏦᏓᎸ	-10.3255
▁ᎤᎾᏛᎪᏗᏱ	-10.3255
▁ᎬᏬᎯᏳᏅᎩ	-10.3255
ᏥᏍᎦᏨᎯ	-10.3255
▁ᎢᎩᏅᏟ	-10.3256
▁ᎠᏰᏙᎳᏛ	-10.3256
▁ᎠᏂᏙᎾᎡ	-10.3256
ᎾᏄᎪᏫᏍᎦ	-10.3257
▁ᏧᏂᎧᎿᏩᏛᏍᏗ	-10.3258
▁ᎡᏣᎸᏉᏗᏳ	-10.3258
▁ᎢᏣᏚᎵᏍᎨᏍᏗ	-10.3258
▁ᎣᏩᏒ	-10.3259
ᏔᏲᏎᎮ	-10.326
▁ᎢᏕᎲ	-10.326
ᏔᏲᏎᏗ	-10.3261
▁ᏗᎩᎸᏫᏍᏓᏁᏗᏱ	-10.3261
ᏟᏐᏗᏱ	-10.3262
▁ᎠᏥᏰᎯ	-10.3262
▁ᏓᏂᏁᎸᎢ	-10.3263
▁ᏚᏏᏔᏛ	-10.3263
▁ᎠᎩᏅᏏᏙᎯ	-10.3265
▁ᎤᎾᏓᏅᏎ	-10.3265
▁ᏌᏚ	-10.3265
▁ᏗᏕᎶᏆᏍ	-10.3265
▁ᏣᏁᎮᎢ	-10.3265
ᏛᎩᏍᎬ	-10.3266
ᏤᏙᎭ	-10.3267
▁ᎧᏁᏍᎦ	-10.3267
▁ᎤᏁᏅᏒᎩ	-10.3271
▁ᎤᏪᎧᏅ	-10.3271
▁ᏱᏂᏣᏛᏁ	-10.3271
▁ᎢᏥᏯᎡᏍᏗ	-10.3272
▁ᎨᏥᏛᏙᏗ	-10.3272
▁ᎨᏥᏍᎦᎩ	-10.3272
▁ᎤᎦᏔᏔᏅᎯ	-10.3273
▁ᎤᎿᎸ	-10.3274
▁ᎤᏓᏅᏍᏗᏱ	-10.3275
▁ᎤᏂᎾᏫ	-10.3276
▁ᎦᏁᎲᎩ	-10.3276
▁ᎣᏨᏗ	-10.3277
▁ᎤᏪᏅᏒᎩ	-10.3279
▁ᎠᏯᏫᏍᎩ	-10.3279
▁ᏂᎨᏎᎢ	-10.328
ᏧᏂᏲᎯᏍᏗᏱ	-10.3281
▁ᎠᎦᏍᎦᏂ	-10.3282
▁ᏧᎾᏄᎪᏫᏒᎯ	-10.3282
▁ᏭᏂᎷᏤ	-10.3283
ᏓᏂᎸᎬᎾ	-10.3283
▁ᎣᎩᏙᏓ	-10.3284
▁ᏱᏗᏣᏓ	-10.3285
▁ᏑᏓᎵᏁ	-10.3287
▁ᎨᏥᏃᎮᏍ	-10.3287
▁ᎤᎩᎵ	-10.3291
▁ᏄᏍᏕ	-10.3291
▁ᏱᏥᏰᎸ	-10.3292
▁ᎾᎩᏪᏒᎩ	-10.3292
▁ᎤᏃᎯᏳᏅᎩ	-10.3293
▁ᎦᎵᎷᎨᏍᏗ	-10.3294
▁ᏫᎶᎯ	-10.3296
▁ᎤᏚᎵᏍᎨ	-10.3297
▁ᎢᏓᏓ	-10.3298
ᏬᏁᏔᏁ	-10.3298
▁ᎠᏚᏓᎴᏍᏗ	-10.33
▁ᏂᎦᏚ	-10.3305
ᎪᎲᏍᏙᏗ	-10.3305
▁ᏂᏨᏁᎲ	-10.3307
▁ᏚᎾᏓᏅ	-10.3307
▁ᎠᎵᏥᏙᎲᏍᎬ	-10.3308
▁ᎠᎾᏓᏙᎵᏍᏗᏍᎬ	-10.3313
ᏔᎳᏬᎯᏍᏗ	-10.3315
▁ᎠᏓᎨᏗ	-10.3315
▁ᏂᏨᎦ	-10.3319
▁ᎠᎺ	-10.3324
▁Ꮾ	-10.3326
▁ᎠᏂᏃᎮᎭ	-10.3331
▁ᎡᎮᎾ	-10.3331
▁ᏓᏂᎳᏫᎥᎢ	-10.3333
▁ᏚᏟᎶᏍᏓᏁᎴᎢ	-10.3333
▁ᏫᏥᎦᏛᎢ	-10.3333
▁ᎤᏰᎸᏁᎢ	-10.3334
▁ᏕᏥᎧ	-10.3337
▁ᎦᏲᎦ	-10.3339
▁ᏍᎩᏍᏕᎸ	-10.3341
▁ᎡᏥᏁᎸᎯ	-10.3343
▁ᎤᏂᏩᏛᎮ	-10.3344
▁ᎹᎾ	-10.3345
▁ᏭᏴᎸᎩ	-10.335
ᏥᏆ	-10.3351
▁ᏁᏨᏁᎸ	-10.3353
▁ᏗᏥᏲᎯ	-10.3353
▁ᎾᏅᏁ	-10.3354
▁ᎢᏨᏁᏗᏱ	-10.3357
▁ᎤᏴᎸᎩ	-10.3358
▁ᎤᏂᏅᏅ	-10.3367
▁ᎤᏛᏃ	-10.3376
▁ᏄᎾᏍᏗ	-10.338
▁ᏦᏨ	-10.3383
▁ᎢᏣᏛᏁ	-10.3385
ᎾᏄᎪᏫᏎᎵ	-10.339
▁ᎮᎯ	-10.3393
▁ᏕᏡᎬᎢ	-10.3393
▁ᎤᏁᏉᏤ	-10.3401
▁ᎠᏍᏆᏂᎪᏗᏍ	-10.3403
▁ᏓᏥᏯ	-10.3409
▁ᎦᏅᎯᏛ	-10.3426
▁ᎠᏚᎢᏍᏛᎢ	-10.3434
▁ᏄᎾᏛᏁᎸᎢ	-10.3434
▁ᏄᏛᏁᎴᎢ	-10.3434
▁Ꮏ	-10.3442
▁ᎠᏩᏛ	-10.3443
▁ᎤᏅᏎᎢ	-10.3444
▁ᏂᎬᏁᎸ	-10.3445
▁ᎬᏩᎷᏤᎴᎢ	-10.3446
▁ᎠᎾᏛ	-10.3447
▁ᎠᎩᏁᏨᎢ	-10.3454
▁ᏫᎦᎾᏄᎪ	-10.3465
▁ᎤᏓᏅᏒ	-10.3467
ᏴᏁᏗᏱ	-10.347
▁ᎤᏁᏅᏎᏃ	-10.3471
ᎶᏏ	-10.3476
ᏍᎦᎨᏍᏗ	-10.3476
ᏣᎧᏛ	-10.348
ᏍᏓᏱᏕ	-10.3482
ᎪᎥᎯ	-10.3492
▁ᎢᏣᏓᏅᏖᏍᎬ	-10.3494
ᏄᎵ	-10.35
ᎪᏎᎭ	-10.3502
ᎾᏄᎪᏫᏒ	-10.3508
▁ᏄᎾᎵᏍᏓᏁᎸ	-10.3508
▁ᎤᏬᎸᎢ	-10.3515
▁ᎤᏙᎯᏳᏁ	-10.3517
▁ᎾᏋᏁᎸ	-10.3519
▁ᏑᎾᎴᏃ	-10.3529
ᎻᏂ	-10.353
▁ᎤᏪᏅᎩ	-10.3534
ᎶᏔᏅ	-10.3537
▁ᎢᎩᏰᎸ	-10.3541
ᏩᏔᏁ	-10.3558
▁ᏗᏦᎸ	-10.3565
▁ᎤᎾᏄᎪᏨ	-10.3573
▁ᎤᎾᏄᎪᏫᏒ	-10.3587
▁ᏱᏅᏗᎦᎵᏍᏙᏗᏍᎨ	-10.3592
ᏡᏗᏍᎬᎢ	-10.3595
ᎵᏙᎲᎢ	-10.3598
▁ᏂᏥᏍᎦᏅ	-10.3614
▁ᎤᏅᏅ	-10.3617
ᏥᏁᎢᏍᏗᏍᎬ	-10.3623
ᎾᏠᏱ	-10.3625
ᎵᏍᏔᏁ	-10.3634
ᎠᏴ	-10.3647
▁ᏄᎵᏍᏔᏂᏙᎸᎢ	-10.3661
ᎬᏩᎶ	-10.3675
▁ᎠᏂᎪᏩᏘᏍᎬ	-10.3676
ᏘᏃᎮᎸᎩ	-10.3684
▁ᎢᏔ	-10.3713
ᎤᏁᎢᏍᏔᏅ	-10.3731
ᏚᏓᎴᏍᏗ	-10.374
▁ᎠᏂᏅᎢ	-10.375
ᎧᎯᏯᏍᏗ	-10.3753
ᎲᏍᎪᎢ	-10.3769
▁ᏤᏏ	-10.3783
▁ᏤᎲ	-10.3808
▁ᎤᎾᎵᎪᏒ	-10.381
▁ᏓᏍᎩ	-10.3811
ᏗᎦᏅᎯᏛ	-10.3812
ᏁᎵᏒ	-10.3827
ᏥᏅᎵ	-10.3836
ᏗᎧᏃ	-10.384
ᏏᏐᏗ	-10.3841
▁ᎡᎩᏍᏕᎸᏗ	-10.3854
ᎠᎩᏏᏙᎯ	-10.3856
ᎾᏚᎵᎭ	-10.386
ᏅᎦᎸᏛ	-10.3882
▁ᎢᏣᏛᏓᏍᏓ	-10.3882
ᏓᏬᏍ	-10.3895
ᏙᎰᎢ	-10.3913
ᏨᏍᏗᏱ	-10.3935
▁ᎣᎩᏃᎮ	-10.3951
▁ᏗᎩᎦ	-10.3966
ᎩᏰᎸᎭ	-10.3993
▁ᎬᏩᏂᎪᏩᏛᏗ	-10.4018
▁ᎣᎩᎪᎲ	-10.4059
▁ᏕᏥᎧᎿᏩ	-10.4061
ᏂᏆᏘᎯ	-10.4079
▁ᎤᏁᎳᏅ	-10.4084
▁ᎢᎩᏁᎸ	-10.4089
ᏅᏒᎯ	-10.4093
ᏛᏂᏗᏍᏗ	-10.4111
ᎡᎰ	-10.4151
▁ᏥᏄᎵᏍᏔ	-10.4156
▁ᏗᎬᏩᏁᎶ	-10.416
ᎶᎨᏒᎢ	-10.4178
ᏚᏓᎴᏍ	-10.4196
▁ᏙᏣ	-10.42
▁ᏄᎾᎵᏍᏓᏁ	-10.4225
ᏯᎵᎡᎵᏤᎭ	-10.4227
ᏓᏂᎸᏤᎢ	-10.4254
ᏬᎡ	-10.4284
▁ᎠᏁᎮ	-10.4289
ᎵᎪᏁᎴ	-10.429
▁ᏂᏗᎦ	-10.4294
▁ᎤᏴᎸ	-10.4322
ᏅᏩᏍᏗᏉ	-10.434
▁ᏕᎦᏄᎪᏫᏍ	-10.4352
▁ᏥᏃᎮᏍᎬ	-10.4353
▁ᎾᏥᏪᏎ	-10.4365
▁ᎤᏁᎢᏍᏗ	-10.4388
▁ᏆᏂ	-10.4406
▁ᎢᏥᏁᏗ	-10.4444
▁ᏗᏣᏓᎴᏅ	-10.4469
ᏄᏣ	-10.4471
▁ᎠᏥᏁᎸ	-10.4472
ᎷᏤᏗ	-10.4496
ᏅᏓᏗᏍᏙᏗ	-10.4514
▁ᎤᏗᎦᎵᏍᏙ	-10.454
ᏓᏱᎵ	-10.455
▁ᎤᏗᏔᏍᏗ	-10.4579
ᏁᎢᏍᏓᏁᏗ	-10.4627
ᎵᏍᎪᎸᏓᏁᏗᏱ	-10.4643
▁ᎬᏬᎵ	-10.4659
ᎵᎮᎵᎪ	-10.4666
ᎦᏘᏗᏍᏗᏱ	-10.4674
ᎠᏍᎦ	-10.4691
ᏘᏃᎯᏍᏗᏱ	-10.4709
▁ᏙᎤ	-10.4713
▁ᎢᏍ	-10.4739
ᎵᏍᏓᏴᎲᏍᎨᎢ	-10.474
▁ᏙᏧᎾᏓᏅᏛ	-10.4779
▁ᎤᏃᎯᏳᏒ	-10.4779
▁ᏂᎦᏥᏴᏁ	-10.4779
▁ᎡᏙᎮ	-10.4783
▁ᏭᏴᎴ	-10.4785
▁ᎬᏰᎸ	-10.4786
▁ᏭᎶᏎ	-10.4787
▁ᏚᏂᎸᏫᏍᏓᏁᎸ	-10.4795
▁ᎿᏛᏁ	-10.4795
▁ᏗᏅᏂ	-10.4797
▁ᏱᎨᏐ	-10.4811
ᏗᏅᏒᎩ	-10.4817
ᎬᏫᏳᏌᏕ	-10.4822
▁ᎢᏣᏓᏙᎵᏍᏗ	-10.4823
▁ᎠᏂᏯᏫᏍ	-10.4824
▁ᎠᏁᏙᎲ	-10.4828
ᏗᎦᏛᎯ	-10.4838
ᏍᏗᏰᏗᎭ	-10.4841
▁ᏄᏂᏪᏎ	-10.485
ᎦᏌᏯᏍᏙᏗ	-10.4851
▁ᎤᎩᏒ	-10.4859
ᏔᎴᏒ	-10.4863
▁ᎤᏁᏉᏨ	-10.4863
▁ᎤᎾᏠᎾᏍ	-10.4865
▁ᏥᏁᎬ	-10.4867
▁ᎤᏲᎱᎯᏍᏗ	-10.4875
ᎵᏍᎦᏍᏙᏙ	-10.4879
▁ᎠᏓᏙᎵᏍᏙᏗ	-10.4879
ᏥᏲᏍᏙᏓᏁ	-10.4889
ᎸᏉᏔᏁ	-10.4897
▁ᎢᏰᏨᏁ	-10.4902
ᏍᏓᏩᏚᎦ	-10.4904
▁ᏯᏛᏅ	-10.4905
ᎦᎵᏍᏙᏗᏍᎬᎩ	-10.4907
ᎳᏫᎢᏍᏗᏱ	-10.4907
ᏓᏙᏕᏍᏗᏍᎩ	-10.4908
ᏃᎮᎵᏙ	-10.4908
▁ᏂᏦᎯᏳ	-10.4909
▁ᏅᏧᎵᏍᏙᏔᏁ	-10.4909
▁ᎠᏓᏪᎵᎩᏍᎩ	-10.4909
▁ᎠᏟᎶᎥ	-10.4909
▁ᎢᏯᏆᎵᏍᏙᏗᏱ	-10.4909
▁ᎤᏤᎷᎯᏒᎩ	-10.4909
▁ᎥᎦᏥᎪᎥᎩ	-10.4909
▁ᎥᏆᎸᎢᏛ	-10.4909
▁ᎪᎢᏳᎲᏍᎦ	-10.4909
▁ᎬᏭᎯᏍᏗᏍ	-10.4909
▁ᎰᏪᎸᎦ	-10.4909
▁ᎴᎣᏗᏏᏯ	-10.4909
▁ᏂᎪᎯᏳᎲᏍᎬᎾ	-10.4909
▁ᏂᏕᏣᏛᏁᎮᏍᏗ	-10.4909
▁ᏂᏣᏓᎨᏳᏒ	-10.4909
▁ᏄᎾᏛᏁᎵᏙᎸ	-10.4909
▁ᏄᏓᏑᏴᎾ	-10.4909
▁ᏅᏓᎬᏩᏍᏓᏩᏛᏛ	-10.4909
▁ᏓᎾᏓᏅᏖᏍᎬ	-10.4909
▁ᏕᏦᏕᏍᏗ	-10.4909
▁ᏗᎧᎿᏩᏕᎩ	-10.4909
▁ᏗᎫᎪᏗᏍᎩ	-10.4909
▁ᏗᏂᎬᏓᎨᏂ	-10.4909
▁ᏗᏂᏅᏌᏗ	-10.4909
▁ᏙᏛᎾᏓᏡᏔᏂ	-10.4909
▁ᏙᏧᏁᏅᏒ	-10.4909
▁ᏚᏟᎶᏍᏓᏁᎸᎩ	-10.4909
▁ᏥᏂᎦᎵᏍᏗᎭ	-10.4909
▁ᏦᏍᏓᏓᏅᏟ	-10.4909
▁ᏧᎸᏫᏍᏓᏁᎸᎯ	-10.4909
▁ᏧᏂᏦᏯᏍᏗ	-10.4909
▁ᎢᎳᎩᏳ	-10.4909
▁ᎢᏣᎦᏔᏅᏎ	-10.4909
▁ᎤᎵᏬᏨᎯ	-10.4909
▁ᎤᎾᏙᎴᎰᎯᏍᏙᏗ	-10.4909
▁ᎤᎾᏢᏉᏗ	-10.4909
▁ᏂᎬᏠᏍᎬᎾ	-10.4909
▁ᏓᏇᎪᏔᏅ	-10.4909
▁ᏗᎪᏪᎶᏗ	-10.4909
▁ᏗᏥᏲᎱᏒᎯ	-10.4909
▁ᎤᏘᏴᎯ	-10.4909
▁ᎯᏯᏛᎥᎦ	-10.4909
▁ᏂᏥᎪᎸᎾ	-10.4909
▁ᏕᏣᏁᎶᏛ	-10.4909
▁ᏥᏓᎩᎸᏫᏍᏓᏁᎭ	-10.4909
▁ᎢᏨᏯᎵᏥᏙᏁᎸ	-10.4909
▁ᏅᏃᎱᎶᏗ	-10.4909
▁ᏕᎦᏃᏣᎸ	-10.4909
▁ᏗᏥᎧᎿᏩᏛᏍᏗᏱ	-10.4909
▁ᏱᏄᎵᏍᏔᏅ	-10.4909
▁ᎠᎩᎵᏲᎬ	-10.4909
▁ᎣᎨᏙᎸ	-10.4909
▁ᎠᏍᏆᎸᎲᎭ	-10.4909
▁ᎭᎵᎮᎵ	-10.4909
ᎦᏌᏬᎢ	-10.4909
▁ᎠᎹᏳᎶᏗ	-10.4909
▁ᎤᎾᏓᏑᏴ	-10.4909
▁ᎨᏦᎯᏳ	-10.4909
▁ᎪᎯᏳᎲᏍᎨᏍᏗ	-10.4909
▁ᏓᏤᎵᏍᏛ	-10.4909
▁ᏚᏅᏩᏁ	-10.4909
▁ᎤᏂᎬᎥᏍᎬ	-10.4909
▁ᏥᏩᎾᎦ	-10.4909
▁ᎤᏁᎳᏫᏎᎸ	-10.4909
▁ᎤᏁᎷᏁᎢ	-10.4909
▁ᏗᏣᎧᏅᎦ	-10.4909
▁ᎡᏈᎳ	-10.4909
▁ᎡᎶᏗᏏ	-10.4909
▁ᎤᎾᎵᏏᎾᎯᏍᏗ	-10.4909
▁ᎤᎾᏁᎶᏔᏅ	-10.4909
▁ᎤᏌᎳᏓᏅ	-10.4909
▁ᏚᏘᏅᏎ	-10.4909
▁ᏦᎩᎾᏫ	-10.4909
▁ᎠᏂᏈᎷ	-10.4909
▁ᎤᏃᎯᏳᎯ	-10.4909
▁ᎤᏗᎴᎩ	-10.4909
▁ᎠᏣᏪᏐᎸᏍᏙᏗᏱ	-10.4909
▁ᎤᏂᎵᏅᏨᎯ	-10.4909
▁ᎢᎪᏂᏯ	-10.4909
▁ᎰᏌᎾ	-10.4909
▁ᏗᎧᏃᏗᏱ	-10.4909
▁ᏗᏥᎨᏫ	-10.4909
▁ᎤᏓᏑᏱ	-10.4909
▁ᏂᎦᎵᏍᏔᏂᏙᎲ	-10.4909
▁ᎠᏂᎶᎻ	-10.4909
▁ᏅᏓᎦᏪ	-10.4909
▁ᎨᎻᎵ	-10.4909
▁ᎠᏐᏢᎢᏍᏗᏍᎬ	-10.491
▁ᎬᏲᏎᎭ	-10.491
▁ᎢᏣᎴᏂᏙᎲ	-10.491
▁ᎤᏍᎦᏎᏗ	-10.491
▁ᏚᎾᎧᏛ	-10.491
▁ᏭᏕᎵᎬ	-10.491
▁ᎤᏚᎸᎲ	-10.491
ᏥᎳᏫᏎᎲ	-10.491
ᎪᏩᏘᏍᎬᎾ	-10.491
▁ᏚᏂᎧᎵ	-10.491
▁ᎾᎪᏔᏅᎾ	-10.491
▁ᎢᏥᏁᎫ	-10.491
ᏚᎸᏅᎥᏍᎬ	-10.491
▁ᎠᏂᎪᎲᎭ	-10.491
▁ᏕᏣᏂᏴ	-10.491
ᏩᎾᎦᎶ	-10.491
▁ᏂᎦᎵᏍᏗᏍᎬ	-10.491
▁ᎡᏗᏂᏱ	-10.491
▁ᎠᎫᎢᏍᏗᏍ	-10.491
▁ᎤᎦᏛᎴ	-10.491
▁ᏕᎪᏢᏒ	-10.491
▁ᏚᏂᎳᏫᏨ	-10.491
▁ᎠᎵᎮᎵᏤᏗ	-10.491
▁ᏚᏕᏲᏁ	-10.491
▁ᏗᏐᏴ	-10.491
▁ᎤᎬᎥᏍᎩ	-10.491
▁ᎤᎵᏍᏗᏳ	-10.491
▁ᎤᏃᎯᏳᏁ	-10.491
▁ᎯᏄᎪᎢ	-10.491
▁ᏣᏓᏅᏛᎢ	-10.491
▁ᎤᏏᏙᎵ	-10.491
ᏅᎥᏏ	-10.4911
▁ᏂᏚᏂᏪᏎᎴ	-10.4911
▁ᏅᏓᏨᏁᎵ	-10.4911
▁ᏕᎬᏩᏘᏃᎮᎴ	-10.4911
ᏏᏏᏍᎩ	-10.4911
▁ᎦᎾᏄᎪᏫᏍᎪᎢ	-10.4911
▁ᏳᏪᎭ	-10.4911
▁ᏤᏙᎲ	-10.4911
▁ᎤᏂᏰᎸᎭ	-10.4911
▁ᏧᎾᏓᎵᎢ	-10.4911
▁ᏕᎦᎳᏅᏛ	-10.4911
▁ᎠᎦᏔᎾᎢ	-10.4911
▁ᏛᏓᎴᎲᏍᎬᎩ	-10.4911
▁ᏗᏂᏲᎤᎵ	-10.4911
▁ᏣᎢᏎᏍᏗ	-10.4912
▁ᏥᏍᎦᎾ	-10.4912
▁ᏂᏑᏪᏎᎴᎢ	-10.4912
▁ᏱᏄᏍᏕ	-10.4912
ᏂᏔᏲᎴ	-10.4912
▁ᏗᏁᎲ	-10.4912
▁ᎤᏍᏗᎩᏳ	-10.4912
▁ᎢᏤᎵᎭ	-10.4912
▁ᏂᏥᏍᎦᎢᎲᎾ	-10.4912
▁ᏗᎬᏩᏂᏰᎯ	-10.4912
▁ᏚᎾᎴᏁ	-10.4912
▁ᎤᎾᏅᏗᏱ	-10.4912
▁ᎢᏣᏓᏅᏟ	-10.4913
▁ᎠᎾᏛᎬᎦ	-10.4913
▁ᎬᏬᎯᏳᎲᏍᎩ	-10.4913
▁ᎢᏯᏓᏅᏖᏗ	-10.4913
▁ᎢᏣᏙᎴᎰᎯᏍᏗᏱ	-10.4913
▁ᏍᏗᏫ	-10.4913
ᏍᏚᎢᎡᎸ	-10.4913
▁ᎢᏓᎵᎮᎵ	-10.4914
▁ᏓᏥᎷᏥ	-10.4914
ᏥᏰᎲᎾ	-10.4914
▁ᎦᎵᏥᏙᎲᏍ	-10.4914
▁ᎢᏳᎾᎵᏍᏔᏅ	-10.4914
ᏑᎵᎪᎬᎾ	-10.4914
▁ᏭᏂᏴᎸ	-10.4915
ᎿᏕᎦ	-10.4915
▁ᎢᏳᏩᏁᎯ	-10.4916
ᏚᎵᏥᏙᏁᎴ	-10.4916
ᏂᎦᎥ	-10.4916
ᏫᏂᏗᏢ	-10.4916
ᎵᏂᎪᎯᏍᏙᏗᏱ	-10.4916
▁ᎢᏣᏛᎬᎦ	-10.4916
▁ᏥᏚᎸᏫᏍᏓᏁᎭ	-10.4916
▁ᎤᏂᏃᏁᏗᏱ	-10.4916
▁ᎢᏰᏨᏁᎸᎯ	-10.4916
ᎫᏴᎡᎵ	-10.4916
▁ᏏᏐᎢ	-10.4917
ᏛᏅᎢᏍᏔᏁ	-10.4917
ᏓᏂᎧᎿᏩᏕ	-10.4917
▁ᎡᏥᎾᏰᏍᎨᏍᏗ	-10.4917
▁ᎡᏣᎫᏴᎡᏗ	-10.4917
▁ᏂᏣᏛᏁᎭ	-10.4918
▁ᎠᎦᎫᏴᎡᏗ	-10.4918
▁ᏓᎩᎪᎲ	-10.4918
ᏗᏔᎯ	-10.4918
▁ᎧᏃᎮᏍᎬᎩ	-10.4918
▁ᎢᎬᏛᏁᏗ	-10.4919
▁ᏅᏩᏙᎯ	-10.4919
▁ᏗᎪᏢᏅᎯ	-10.4919
▁ᎠᏕᎸᏓᎶᏂᎨ	-10.4919
▁ᎠᏂᎩᏏ	-10.4919
▁ᎭᏟᏂᎬᏁ	-10.492
▁ᎠᏍᏆᎸ	-10.492
▁ᎾᎬᏁᎴ	-10.492
ᏗᏂᎦᏘᏯ	-10.492
▁ᏧᎾᏘᏂᏙᎯ	-10.492
▁ᎤᏂᏁᎫ	-10.492
▁ᏥᏄᏍᏕ	-10.4921
▁ᎤᏓᏴᏍᏗ	-10.4922
▁ᎬᏔᏲᏎᎭ	-10.4922
▁ᏗᎪᏢ	-10.4922
ᎪᏩᏗᎭ	-10.4924
▁ᎡᏣᏅᏏᏓᏍᏗ	-10.4926
▁ᎠᏓᏲᏁ	-10.4926
▁ᎠᏆᏛᏅᎢᏍᏗ	-10.4926
▁ᏗᏗᏰᎸ	-10.4926
▁ᎢᏥᎪᏩᏘᏍᎨᏍᏗ	-10.4927
▁ᎢᏥᎧᎵᏨᎯ	-10.4927
▁ᎢᏳᏛᏁᏗ	-10.4927
▁ᎦᎨᏥᏁ	-10.4927
▁ᎯᏬᏂᏍᎬ	-10.4928
▁ᎤᏓᏑᏰᏛ	-10.4929
▁ᏓᏥᏁᎵ	-10.4929
▁ᎤᏕᏁᎸᎯ	-10.493
▁ᎤᏲᎱᏎᎮᏍᏗ	-10.493
▁ᎠᏂᏯᎢ	-10.4931
ᎸᏉᏗᏍᎬ	-10.4931
ᏥᎩᎵᏲᎦ	-10.4931
▁ᏚᏬᏁᏔᏅᎩ	-10.4931
ᏂᏴᏛ	-10.4933
ᎤᏟ	-10.4933
▁ᎯᎷᎦ	-10.4934
ᏗᏫᏎᎸ	-10.4934
ᏥᎶᏏ	-10.4935
▁ᎢᏨᏰᎵᏎ	-10.4935
▁ᎤᎾᏓᏙᎵᏍᏓᏁᎸᎩ	-10.4935
▁ᏗᏥᏁᏟᏴ	-10.4936
ᏡᏔᏂ	-10.4937
▁ᎤᎾᏚᎵᏍᎨ	-10.4937
▁ᎤᏛᏅᏗᎦᎳᏫᎢᏍᏗᏱ	-10.4938
▁ᎠᏋᏔᏅᎯ	-10.4938
▁ᏓᏲᏥ	-10.4941
▁ᏗᎦᎪᏙᏗ	-10.4941
▁ᎢᎦᎵᎢ	-10.4943
▁ᏂᎨᏳᏎᏍᏗ	-10.4943
▁ᎾᏛᏁᎰ	-10.4944
▁ᎡᏥᏅᏏᏓᏍᏗ	-10.4944
▁ᎨᎪᏎ	-10.4944
ᎵᏍᏓᏴᏂ	-10.4944
▁ᏅᎵᏌᎵᏉ	-10.4945
▁ᏚᏄᎪᏔ	-10.4945
▁ᎤᎬᏩᎸ	-10.4946
▁ᏣᏓᎸᎩ	-10.4947
▁ᎬᏩᏔᏲᏎᎸᎩ	-10.4947
▁ᎦᎪᎵᏍᏗ	-10.4948
▁ᎤᏰᎸᏒ	-10.4948
▁ᎠᏆᏓᏅᏖᏛ	-10.4948
▁ᏓᏰᏣ	-10.4949
▁ᎦᎢᏒ	-10.4949
ᏑᏰᏍ	-10.495
ᏝᏅᎯ	-10.495
▁ᏪᏣ	-10.4952
▁ᎤᏅᏙᏗᏱ	-10.4957
ᏥᏙᏁ	-10.4959
▁ᏏᏆᏏ	-10.4959
▁ᏭᏓᎪᎾᏛᏛ	-10.4963
ᎵᏍᏓᏴᎲᎦ	-10.4964
ᏩᏛᎲᏍᏗᏱ	-10.4964
▁ᏥᏤᎭ	-10.4965
▁ᎬᏩᏃᎮᏍᎩ	-10.4966
▁ᏓᎬᏩᎵ	-10.4967
▁ᎤᏁᏉᏨᎯ	-10.4967
▁ᎢᏥᎪᏩᏘᎭ	-10.4967
▁ᏭᏂᏴᎴᎢ	-10.4969
▁ᎤᏓᏙᎵᏍᏔᏁᎢ	-10.497
▁ᏣᏁᏨ	-10.4974
▁ᏣᏚᎵᏍᎪ	-10.4975
▁ᏥᏅᎵ	-10.4975
▁ᎠᎧᎵᏬᎯ	-10.4976
ᎷᏥᏏ	-10.4979
ᏓᏅᏬᏗ	-10.4982
ᏔᏲᏍᏗ	-10.4983
▁ᎢᏥᎷᏤᏗᏱ	-10.4984
ᏗᏂᏍᎪᏂᎯ	-10.4985
▁ᎫᎴ	-10.4989
▁ᎤᎵᏍᏆᏕ	-10.4992
▁ᎤᏁᏤᎸᎩ	-10.4992
ᏥᎦᏔᎲᎾ	-10.4997
▁ᏳᏓᏑ	-10.4998
ᎪᎵᏰᎥᎯ	-10.4999
▁ᎢᏓᏙᎴᎰᎯᏍᏗ	-10.5004
▁ᏅᏔ	-10.5005
▁ᎤᏂᏍᏆᏛ	-10.5005
▁ᎮᏓ	-10.5005
ᎰᏩ	-10.5005
▁ᏧᏭᎪᏓᏁ	-10.5006
ᏩᏘᏍᎬ	-10.5009
ᏓᏅᏖᎴ	-10.5012
ᏓᎴᎾᏍᏗ	-10.5017
▁ᎤᎩᏒᎩ	-10.5017
▁ᏂᏚᏪᏎᎸᎢ	-10.5018
▁ᎬᏩᏃᏁᎴ	-10.5021
▁ᎠᎦᏅᎩ	-10.5024
ᎩᎾᎵᎢ	-10.5031
▁ᏧᎴᎯᏐᏗ	-10.5034
▁ᏏᎦ	-10.5036
▁ᏙᏧᎾᏓᏅᏛᎢ	-10.5041
▁ᎤᏃᎯᏳᏒᎢ	-10.5041
▁ᎠᏰᎸᏒᎩ	-10.5046
▁ᏫᏓᏂ	-10.5052
▁ᎠᏫᏒᎯ	-10.5054
ᏂᎦᏪ	-10.5054
▁ᏯᏗᎭ	-10.5058
▁ᎢᏨᏙᏗᏱ	-10.5059
▁ᎤᎵᏍᎪᎸᏔᏅᎯ	-10.506
ᏥᎪᏩᏛ	-10.506
▁ᎤᎵᎮᎵᏨᎯ	-10.506
▁ᏟᏗ	-10.5061
▁ᎤᎶᎯᏍᏗᏱ	-10.5062
▁ᎠᏍᏕᎵᏍᎩ	-10.5064
▁ᎦᏅᎬᎢ	-10.5066
▁ᎨᎦᎵᏥᏙᏁ	-10.5074
▁ᎤᏪᏁᎢ	-10.5078
ᎧᎵᏨᎯ	-10.5078
▁ᏈᎵ	-10.5083
ᏄᎪᏥ	-10.5085
▁ᏄᏩᏁᎸᎩ	-10.5089
▁ᎢᏳᎾᎵᏍᏓᏁᏗᏱ	-10.5091
▁ᏄᏂᏪᏎᎴ	-10.5093
▁ᎤᏂᎩᏎ	-10.5093
▁ᎤᎾᏅᏅ	-10.5096
▁ᎠᏓᏙᎵᏍ	-10.5099
▁ᎤᏍᏓᏩᏗᏙᎯ	-10.5106
▁ᏓᏟᎶᏍᏗ	-10.5109
▁ᏗᎩᎸᏫᏍᏓᏁ	-10.5119
▁ᎤᎧᎵ	-10.5123
▁ᎾᏂᎡ	-10.5142
▁ᎵᏍᏗ	-10.5148
ᎶᏒᎯ	-10.5148
▁ᎠᏯᎥᎢ	-10.515
▁ᎠᎦᎵᏍᎪᎸᏓᏁᎸ	-10.5152
▁ᎤᏫᏒ	-10.5159
▁ᎠᏚᎢᏍᏔᏅ	-10.5159
▁ᎤᏕᏗᏱ	-10.5164
ᏓᏁᎰᎢ	-10.5165
ᏘᏄᎦ	-10.5186
▁ᎬᎿ	-10.5188
ᎦᎸᎢᏛ	-10.5193
ᏫᏢ	-10.5198
▁ᎤᏪᏴ	-10.5199
ᎪᏩᏘᏍᎨ	-10.5202
▁ᎬᏩᎵᎪᏁ	-10.5206
▁ᎡᏥᏁᏗ	-10.5212
▁ᎤᏍᏕᎸᏗᏱ	-10.5234
▁ᏦᏒ	-10.5249
ᎦᏘᏏᏗᏢ	-10.5265
▁ᎥᎩᏁᎸ	-10.5265
▁ᎯᎦᏔᎲ	-10.5271
ᎵᏍᏓᏴᎾᏁ	-10.5282
▁ᎤᎵᏠᏯᏍ	-10.5298
▁ᏚᏂᏂᏴᎮ	-10.5319
ᏠᏨ	-10.5367
ᎨᎯᏙ	-10.5375
ᎵᏍᎪᎸᏗᏍᎬ	-10.538
▁ᎠᎩᎪᎲ	-10.5398
ᎪᏩᏘᏍᎨᏍᏗ	-10.5411
ᎿᎢᏳ	-10.5428
ᎦᎷᎩ	-10.5428
▁ᎢᏣᏓᏤᎵ	-10.5441
▁ᎤᏁᏒ	-10.5477
▁ᎢᏣᏓᏅᏓᏗᏍ	-10.5486
ᏄᏬᎡ	-10.5487
▁ᏄᎾᏓ	-10.549
▁ᏄᏅᏁᎸ	-10.5493
ᏤᎵᎯᏍ	-10.5493
ᏍᏆᏂᎪᏔᏁ	-10.5499
ᏣᏓᏅᏖᏍᏗ	-10.5505
ᏄᏛᏁ	-10.5509
▁ᎨᏥᏁᏤᎸ	-10.5523
ᏐᏢᎢᏍᏙᏗᏱ	-10.553
ᏓᏙᎵᏍᏓᏏ	-10.5535
▁ᎢᏥᏍᎦᏅᏨ	-10.5545
▁ᏚᏄᎪᏫᏒ	-10.5561
ᏲᎱᏍ	-10.5571
ᏍᎦᏅᎪᎢ	-10.5575
▁ᎤᎶᏗ	-10.5575
▁ᎠᏆᏓᏅᏖ	-10.5578
▁ᎠᎾᏓᏙᎵᏍᏗᏍᎨ	-10.5586
ᏍᏗᏰᎬ	-10.5587
▁ᎤᏗᎦᎵᏍᏙᏗᏍᎨ	-10.5588
ᎦᏥᏲ	-10.561
ᏃᏟᏍ	-10.5623
ᏍᏆᏓᏱ	-10.564
ᎯᏍᏗᏍᎨᏍᏗ	-10.5716
▁ᏯᏇ	-10.5733
▁ᎤᎾᏚᎸ	-10.5737
▁ᎤᎶᎨᏒ	-10.5748
▁ᎠᎩᏍᏆᏂᎪ	-10.5752
ᏣᏛᎦᏁᎸ	-10.5779
▁ᏗᎦᏁᎸ	-10.5789
ᎦᎸᎲᎩ	-10.5806
ᏍᏆᏂᎪᏔᏅᎯ	-10.5818
ᏣᎵᏍᏓᏴ	-10.582
▁ᏩᏴ	-10.5837
▁ᎤᏂᎷᏤᎸ	-10.586
ᎦᏄᎪᏫᏍᎦ	-10.5886
ᎾᏛᏁᎴ	-10.5892
ᏤᎲᎾ	-10.5922
▁ᎤᏍᏆᏂᎪ	-10.5939
ᎵᏁᏌ	-10.5943
ᏓᏂᎸᎦ	-10.5944
▁ᎬᏩᏛᏗ	-10.5961
ᎩᎵᏲᎢᏍᏙᏗ	-10.5971
ᏎᎰᎢ	-10.5983
ᏣᏛᏅᎢᏍᏓᏁ	-10.6001
ᏣᏛᎪᏗ	-10.6012
ᎦᏅᏗᏱ	-10.6044
▁ᎤᏓᏅᏖᎸ	-10.6051
▁ᎧᏁᎢᏍ	-10.6095
▁ᎰᎯᏳᎲᏍ	-10.611
ᎪᎯᏳᏗ	-10.6124
ᎦᎵᏍᎪ	-10.6148
ᏂᏪᏍᎨ	-10.6175
ᏍᎦᎢᏍᏗ	-10.6186
ᎴᏅᏙᏗ	-10.6191
▁ᎤᎾᏓᏅᎦᎸ	-10.6193
▁ᏥᏁᎸ	-10.6202
ᏄᎪᏫᏒᎩ	-10.6256
▁ᎠᏐᏢ	-10.6257
ᏴᏔᏂᎸ	-10.6258
▁ᏅᏗᎦ	-10.6262
▁ᎬᏬᏎ	-10.6327
ᏂᏢᏗᏱ	-10.6381
ᏍᎦᏅᎾ	-10.6408
ᎧᎳ	-10.642
ᏣᏚᎵᏍᎬ	-10.6473
▁ᏓᎧᎿᏩᏗ	-10.6502
▁ᎠᎪᏎ	-10.6503
ᏂᎬᎬᎢ	-10.6522
▁ᎾᏋᏁ	-10.6524
▁ᎤᏂᏁᏤ	-10.653
▁ᎤᏲᎢᏍᏗ	-10.6568
▁ᎤᏂᏅᏁ	-10.6577
ᏅᏓᏗᏍᏗ	-10.6587
ᎵᏍᏕᎵᏍᎬ	-10.6587
▁ᏥᎦᏘᏏ	-10.6631
ᏘᏍᏓᏁᎯ	-10.6639
ᏥᎷᏤ	-10.6641
▁ᏓᎨᏥ	-10.6649
ᎯᎸᏉᏕᏍᏗ	-10.6655
ᏚᎪᏓᏁᏗ	-10.6683
ᏛᎬᎦ	-10.6695
ᏥᏯᏅᏗ	-10.6696
▁ᏂᏚᏪᏎᎸ	-10.67
▁ᎯᎦᏘᏏ	-10.6706
ᏚᎢᏍᏓᏁ	-10.6714
▁ᎠᎩᏁᏤ	-10.6754
▁ᏚᏟᎶᏍᏓᏁᎴ	-10.6781
▁ᏓᏂᎳᏫᎥ	-10.6781
▁ᎠᏟᏍᏛ	-10.6783
▁ᎤᏪᏍᎩᎸ	-10.6783
▁ᎢᎩᏍᎦᏅᏨ	-10.6783
▁ᎤᏰᎸᏁ	-10.6783
▁ᏭᏂᎶᏎ	-10.6785
▁ᏚᏓᏘᎾᎥ	-10.6789
▁ᏫᏥᎦᏛ	-10.6793
▁ᎯᎦᏔ	-10.6795
ᎬᏩᏛᏛᏅᎩ	-10.6798
ᎵᏰᎢᎶ	-10.6799
▁ᎠᏥᏃᎮᏍᎬ	-10.681
▁ᎠᏆᏚᎵ	-10.6812
ᏟᏏᏍᎪ	-10.6819
▁ᎤᏪᎷᏁ	-10.6835
ᏂᎩᏛ	-10.6847
▁ᏭᏓᎪᎾᏛ	-10.6851
▁ᏥᎪᏩᏛ	-10.6851
▁ᎠᎬᏗᏍᎬ	-10.6855
ᎵᏍᏚᎶ	-10.6856
ᏂᏚᏩᏁᎸ	-10.6859
ᎦᎶᎨᏒ	-10.6869
▁ᎢᏣᏛᎦᏅ	-10.687
▁ᎢᏯᏆᏛᏁᏗ	-10.6879
ᏩᏂᎦᎸ	-10.689
▁ᎤᏬᏚᎯ	-10.6893
▁ᎤᎵᏂᎩᏗ	-10.6893
ᎠᏍᎦᏯ	-10.6894
ᎦᏍᎦᏂ	-10.6903
ᏢᏈᏍᏗᏱ	-10.6903
ᏘᎿᏫᏛ	-10.6903
ᏯᏫᏍᎨᏍᏗ	-10.6903
ᏕᏲᏅᎯ	-10.6906
▁ᏂᎦᎵᏍᏔᏂ	-10.6908
ᏓᏅᎡᎮᏍᏗ	-10.6909
▁ᏂᏍᏋᏁ	-10.6909
▁ᏂᏓᏕᏘᏴᎯᏒ	-10.6909
ᏍᎦᏅᏨᎾ	-10.6909
ᏕᏋᎯᏍ	-10.6909
ᏣᎸᏫᏍᏓᏁᎮᏍᏗ	-10.6909
ᏲᎱᏏᏕᎾ	-10.6909
▁ᎠᎵᎮᎵᎬ	-10.6909
▁ᎠᎾᏁᎷᎩ	-10.6909
▁ᎠᏁᏯᏔᎯ	-10.6909
▁ᎠᏛᏂᏗᏍᏙᏗ	-10.6909
▁ᎠᏤᏍᏙᎩᎯ	-10.6909
▁ᎢᏣᏛᏅᎢᏍᏙᎢ	-10.6909
▁ᎢᏥᎩᎵᏲᎢᏍᏗ	-10.6909
▁ᎢᏯᏂᏪᏍᎩ	-10.6909
▁ᎤᏂᎧᎵᏤ	-10.6909
▁ᎤᏓᏙᎵᏍᏓᏁᎴᎢ	-10.6909
▁ᎦᎵᏆᏍᎪᎯ	-10.6909
▁ᎭᏰᎳᏍᏗ	-10.6909
▁ᎯᏍᎦᏍᎪᎯ	-10.6909
▁ᎾᎵᏍᏓᏴᎲᏍᎬᎾ	-10.6909
▁ᎾᏍᏆᎵᏍᎬᎾ	-10.6909
▁ᏂᎦᏗᎹᏏ	-10.6909
▁ᏅᏓᎦᏥᏴᏁᎵ	-10.6909
▁ᏅᏧᏓᎴᏅᎲᎾ	-10.6909
▁ᏇᏣᏱᏗ	-10.6909
▁ᏑᏓᎳᏍᎪᎯ	-10.6909
▁ᏓᏂᎶᏄᎮᏍ	-10.6909
▁ᏓᏓᏂᏌᎲ	-10.6909
▁ᏓᏲᏣᏛᏁᎵ	-10.6909
▁ᏗᎬᏩᎩᏨᏗ	-10.6909
▁ᏗᎾᏓᎾᏌᎲᏍᎩ	-10.6909
▁ᏗᏂᎧᎿᏩᏕᎩ	-10.6909
▁ᏗᏍᎩᎧᏁᎸᎯ	-10.6909
▁ᏗᏓᎴᏅᏗᏍᎩ	-10.6909
▁ᏙᎩᎸᏫᏍᏓᏁᎲ	-10.6909
▁ᏚᎦᏒᏍᏛ	-10.6909
▁ᏚᎵᏍᏚᎢᏎᎢ	-10.6909
▁ᏚᏂᏏᏂᏙᎸ	-10.6909
▁ᏚᏍᏆᎸᏔᏁ	-10.6909
▁ᏚᏫᏞᏫᏒ	-10.6909
▁ᏥᏂᏥᏪᎭ	-10.6909
▁ᏥᏨᏰᎳᏗᏙᎲᎩ	-10.6909
▁ᏩᎵᏰᎢᎶᎯᎭ	-10.6909
▁ᏫᎨᏥᏯᏅᏛ	-10.6909
▁ᏫᏂᎦᎵᏍᏙᏓ	-10.6909
▁ᏬᎩᎶᏒᎩ	-10.6909
▁ᏬᎩᏅᏍᏔᏅᎩ	-10.6909
ᎶᏄᎮᏍᎩ	-10.6909
ᏓᏄᏴᏛᎾ	-10.6909
▁ᎠᏓᎦᎵᏍᏓᏗᏍᎩ	-10.6909
▁ᎢᏳᎵᏍᏔᏂᏓᏍᏗ	-10.6909
▁ᎣᎦᏓᏅᏔᏩᏕ	-10.6909
▁ᎤᎿᎷᏎ	-10.6909
▁ᎤᏬᏪᎳᏅᎩ	-10.6909
▁ᏂᏗᎨᏥᎾᏝᎥᎾ	-10.6909
▁ᏅᏓᏣᏓᎴᏅᎯ	-10.6909
▁ᏓᏗᎶᏂ	-10.6909
▁ᏗᎦᏘᎴᎩ	-10.6909
▁ᏗᎾᏓᏲᏁᎯ	-10.6909
ᎬᎭᎷᏯᏍ	-10.6909
ᏟᎶᎡᎸ	-10.6909
▁ᎤᎦᏌᏯᏍᏗᏕᎩ	-10.6909
▁ᎤᏬᏪᎳᏅᎯ	-10.6909
▁ᎬᎩᏁᏉᏤᏗᏱ	-10.6909
▁ᏂᏨᏴᏁᎭ	-10.6909
▁ᏄᏓᏓᎸᎾ	-10.6909
▁ᏣᏃᏍᎩᏒᎩ	-10.6909
▁ᏥᎦᎷᎯᏍᏗᎭ	-10.6909
▁ᏧᎾᎩᎸᏗ	-10.6909
▁ᏧᏄᏩᎢ	-10.6909
▁ᏱᏂᎦᏛᏁᎭ	-10.6909
▁ᏱᏣᏞᎨᏍᏗ	-10.6909
ᏍᏆᏃᏴᎪ	-10.6909
▁ᎤᎾᏓᏙᎵᏍᏔᏅ	-10.6909
▁ᎤᏁᎷᎬᎩ	-10.6909
▁ᎤᏚᏓᎴᏛ	-10.6909
▁ᎤᏛᏛᏅᎩ	-10.6909
▁ᎨᏥᎦᏘᏗᏍᏗ	-10.6909
▁ᏅᏓᏳᏄᎪᏨᎯ	-10.6909
▁ᏕᏥᏃᎩᏍᎨᏍᏗ	-10.6909
▁ᏥᏕᏣᎪᎲᎩ	-10.6909
▁ᎠᏆᎵᏥᏙᏗᏱ	-10.6909
ᎦᏕᎣᏍᎦ	-10.6909
▁ᎠᎩᏍᏓᏩᏕᎨᏍᏗ	-10.6909
▁ᎠᏳᎾᎦ	-10.6909
▁ᎤᏂᏃᎮᏗᏱ	-10.6909
▁ᎭᎴᎲᎦ	-10.6909
▁ᏚᏌᎳᏓᏅ	-10.6909
▁ᏧᏅᎨᏫ	-10.6909
▁ᎤᏁᎢᎸᏗ	-10.6909
▁ᎬᏩᎷᏤᎮ	-10.6909
▁ᏗᎪᏪᎵᏍᎩ	-10.6909
ᏓᏁᏣᏍᏚ	-10.6909
▁ᏗᏣᎴᎲᎦ	-10.6909
▁ᏫᏚᏂᏯᏅᎲ	-10.6909
▁ᏁᏓᏂᎵ	-10.6909
▁ᏩᏚᎵᏏ	-10.6909
▁ᎠᏂᏰᎪᎩ	-10.6909
▁ᎠᏥᏅᏩᏅᎯ	-10.6909
▁ᎢᏣᏛᎩᏍᎨᏍᏗ	-10.6909
▁ᎮᏯᏔ	-10.6909
▁ᎤᏩᎢᏎᎸᎯ	-10.6909
▁ᎠᎾᎦᎵᏍᎩ	-10.6909
▁ᎤᏓᏑᏴ	-10.6909
▁ᎯᏲᏍᏗᏍᎩ	-10.6909
▁ᏥᎩᎵᏲᎬ	-10.6909
ᏃᎮᎮᎴ	-10.6909
▁ᎢᏯᏅᏁᎯ	-10.6909
▁ᏧᏂᏴᏍᏕᏍᎩ	-10.6909
ᏗᎨᏥᎤᏍᏕᏎᎸ	-10.6909
▁ᎢᏣᎵᏍᏓᏴᏗᏱ	-10.6909
▁ᎢᏣᏛᎪᏗᏱ	-10.6909
▁ᎤᏁᏉᎢᏍᏗᏱ	-10.6909
▁ᎤᏂᏂᏴᏗᏱ	-10.6909
▁ᏂᏪᏍᎬᎢ	-10.6909
▁ᎡᏗᎨᏳ	-10.6909
▁ᏅᎩᏦᏁ	-10.6909
▁ᏕᎤᏙᏍᏛ	-10.6909
ᎨᏳᏅᎾ	-10.6909
▁ᎤᎾᏙᎴᎰᎯᏍᏗᏱ	-10.6909
▁ᎤᎾᏚᎵᏍᎩ	-10.6909
▁ᎤᎾᏠᏤ	-10.6909
▁ᎤᏂᏲᎢᏎᎸᎯ	-10.6909
▁ᎤᏮᏙᏗᏱ	-10.6909
▁ᎭᏓᏅᏓᏓ	-10.6909
▁ᏗᏥᎦᏙᎵ	-10.6909
ᏰᏲᎲᏍᎩ	-10.6909
▁ᎦᏬᏂᏍᎨ	-10.6909
▁ᎡᎭᎦᏔ	-10.6909
▁ᏲᏨᏗᏍᎨ	-10.6909
ᏐᏢᏗᎭ	-10.6909
▁ᎠᏗᏔᏍᎨᏍᏗ	-10.6909
▁ᏗᏆᏓᎴᏅ	-10.6909
▁ᏂᏨᏴᏁᎸ	-10.6909
ᎦᏖᏃᎭ	-10.691
ᏯᏙᎮᎮ	-10.691
▁ᏍᎩᏲᎮᏍᏗ	-10.691
▁ᏭᏴᏍᏗᏱ	-10.691
▁ᎤᏙᏢᏒ	-10.691
▁ᏕᏥᏙᎨᏍᏗ	-10.691
▁ᏥᏄᏩᏁᎸ	-10.691
▁ᏱᏚᏳᎪ	-10.691
▁ᏗᎵᏒᏍᏗ	-10.691
▁ᏭᏯᏅᎮ	-10.691
ᏂᎾᏗᏅᏎ	-10.691
▁ᏕᎭᏓᏅᎡᎮᏍᏗ	-10.691
▁ᏂᎨᎬᏁᎸ	-10.691
▁ᎦᎷᎶ	-10.691
▁ᏚᏅᏍᏓᏕᎴ	-10.691
ᏔᏲᎯᎰ	-10.691
▁ᎠᎨᏲᏅ	-10.691
▁ᎬᏩᎪᎮᎢ	-10.691
▁ᎠᏂᎦᏘᏯ	-10.691
▁ᏧᏬᎳ	-10.691
▁ᎯᏍᎩᏍᎪᎯ	-10.691
▁ᎬᏩᏴᎸᎯ	-10.691
▁ᎠᏍᏙᏍᎩ	-10.691
ᏄᏁᎩᏴ	-10.691
ᏓᎵᏅᏟ	-10.691
▁ᏱᏕᏣ	-10.691
▁ᎠᏂᏃᎮᏍᎨ	-10.691
▁ᏗᎪᏏᏏᏍᎩ	-10.691
▁ᏚᏂᎧᏁᎢ	-10.691
▁ᏗᏟᏍᏗ	-10.691
ᎦᏙᎥᏎ	-10.691
ᏂᏬᏂᎭ	-10.691
▁ᎣᏤᎯ	-10.691
▁ᎣᏣᎵᏥᏙᎲᏍ	-10.6911
▁ᏅᏧᏪᏎ	-10.6911
▁ᎤᏂᏚᎲᎢ	-10.6911
ᏂᎧᎿᏩ	-10.6911
▁ᎠᏛᎩᏍᎨᏍᏗ	-10.6911
▁ᎬᏩᏍᏕᎸᎯᏙ	-10.6911
ᏓᎪᎾᏛ	-10.6911
ᏣᎦᏌᏯᏍᏗᏕᎩ	-10.6911
▁ᏓᏅᏩ	-10.6911
▁ᏣᎫᎪᏓᏁᏗ	-10.6911
▁ᏗᏨᏲᎯᏎᏗᏱ	-10.6911
▁ᏂᎦᏥᏴᏁᎸᎭ	-10.6911
▁ᎢᏳᎾᏓᎳ	-10.6911
ᏛᏛᎲᏍᎨᏍᏗ	-10.6911
▁ᎤᎴᏫᏍ	-10.6911
▁ᏂᏥᏪᏍᎬ	-10.6911
▁ᏓᏥᎾᏄᎪᏫᏎᎵ	-10.6911
▁ᎢᏨᏃᏁᎭ	-10.6911
ᏔᏪᏙ	-10.6911
▁ᎢᏥᏍᎦᎾ	-10.6912
▁ᎣᏣᎵᎡᎵᏤ	-10.6912
ᏤᏬᎩ	-10.6912
▁ᎪᏪᎴ	-10.6912
▁ᎢᎨᏨᏁᏗ	-10.6912
▁ᎦᏂᎳ	-10.6912
ᏓᏙᎵᏍᏔᏂ	-10.6912
▁ᎠᏉᎯᏳᎲᏍᎨᏍᏗ	-10.6912
▁ᏚᏃᏪᎸ	-10.6912
ᎿᎷᏒ	-10.6912
▁ᏑᏓᎨ	-10.6912
▁ᎣᎪᎯᏳ	-10.6912
ᏂᏙᎲᎢ	-10.6912
ᏓᏂᎸᎨᏍᏗ	-10.6912
▁ᎠᏂᎧᎸ	-10.6912
▁ᏫᏂᏚᏪᏎᎸᎩ	-10.6912
▁ᏑᎾᎴᎢᏳ	-10.6912
▁ᎾᏆᏛᏁᎸ	-10.6912
▁ᎤᎾᎵᏃᎮᎴ	-10.6913
ᎨᏅᏴ	-10.6913
▁ᏕᏥᏁᏤᎮᏍᏗ	-10.6913
▁ᏰᎵᎦᏯ	-10.6913
▁ᏥᏯᏛᎦᏁ	-10.6913
ᏓᏡᏗᎭ	-10.6913
▁ᎢᏗᎬᏁ	-10.6913
ᎷᏆᏗᏅ	-10.6913
ᏣᏪᏐᎸᏍᏙᏗ	-10.6913
▁ᎡᏗᎸᏉᏓ	-10.6913
▁ᏄᏂᎪᎸ	-10.6913
ᏓᏨᏯᏍᏗ	-10.6913
▁ᏭᎾᎦᏔᎲᏍ	-10.6913
▁ᏓᏰᏥᏁᎵ	-10.6914
▁ᎾᏆᎵᏍᏔᏅ	-10.6914
ᏚᏂᎳᏫᏦ	-10.6914
▁ᎠᎾᎵᏍᎦᏍᏙᏗᏍ	-10.6914
▁ᏭᎪᎮ	-10.6914
▁ᎤᏂᎾᏰᏎᎢ	-10.6914
▁ᏗᏆᏓᏅᏛ	-10.6914
▁ᎠᎩᎪᏁᎸ	-10.6914
▁ᎤᎾᏗᎦᎴᏲᏨᎯ	-10.6914
ᏲᎦᏛᏁᏗ	-10.6914
▁ᏥᏂᎬᏁᎭ	-10.6915
ᎵᏏᎾᎯᏍᏛᎾ	-10.6915
▁ᏕᏥᎸᏉᏕᏍᏗ	-10.6915
▁ᎠᏇᏅᏒᎩ	-10.6915
▁ᎨᎦᎵᏍᎪᎸᏓᏁᎸᎯ	-10.6915
ᏲᏅᎵ	-10.6915
▁ᏅᏓᏳᏓᎴᏅᏛ	-10.6916
ᏧᏁᏍᎨᎮᎢ	-10.6916
▁ᏯᏆᏚᎵ	-10.6916
▁ᎠᏰᎳᏍᏗᎦᏅᎯᏛ	-10.6916
▁ᏚᏂᎸᏫᏍᏓᏁᎮ	-10.6916
▁ᏗᏣᎵᏂᎩᏗᏳ	-10.6916
▁ᎯᏁᎩ	-10.6917
ᏁᎦᎸ	-10.6917
▁ᏂᏨᏁᎮᏍᏗ	-10.6917
▁ᏅᏛᏛᏁᎵ	-10.6917
ᏓᏑᏰᏍᏗ	-10.6917
▁ᏅᏓᎬᏁᎵ	-10.6917
ᎳᏍᎪᎯ	-10.6918
▁ᏗᏤᏅᏒ	-10.6918
▁ᏤᏥᎤᏍᏕᏎ	-10.6918
▁ᎨᎦᎫᏴᏓᏁᏗ	-10.6918
▁ᎤᎾᏣᎢ	-10.6918
▁ᎤᏰᎸᎯ	-10.6919
ᏲᎦᏛᏅ	-10.6919
▁ᎬᏩᏃᎯᏳ	-10.6919
ᏢᏅᎥᏍᎩ	-10.6919
▁ᎠᏓᏛᏗᏍᎩ	-10.6919
ᏍᏕᏙᎲ	-10.6919
▁ᎤᏓᏅᏓᏛᎩ	-10.6919
▁ᏂᏣᏪᏒ	-10.692
ᎵᎬᏚ	-10.692
ᎦᎫᏴᏓᏁᏗ	-10.692
▁ᏗᎩᏙᏓ	-10.6921
▁ᎢᏨᏰᎳᏗᏙᎭ	-10.6921
▁ᏯᎩᏰᎸᎭ	-10.6921
▁ᏗᏣᏘᏂᏙᎯ	-10.6922
ᏓᏅᎦᎸᎾ	-10.6922
▁ᎠᏂᏏᎾᏌᏅ	-10.6922
▁ᎬᏁᏤᎭ	-10.6922
ᎯᏳᎲᎦ	-10.6922
▁ᏖᏒ	-10.6922
▁ᎠᏂᏴᎩ	-10.6922
ᏁᏪᏎᎢ	-10.6922
ᎰᎲᏍᏗ	-10.6923
ᎳᏫᏎᏗ	-10.6923
▁ᏩᎦᏛᎢ	-10.6923
▁ᏚᎸᏫᏍᏓᏁᎮᏍᏗ	-10.6924
▁ᏫᏗᎶᎯ	-10.6924
ᏓᏅᎡᎸᎩ	-10.6924
▁ᏣᏁᏢᏔᏅᎯ	-10.6925
▁ᎠᏆᎵᏍᎦᏍᏙᏛ	-10.6925
ᏓᎴᏂᏍᎬ	-10.6926
▁ᏓᎬᏔᏂ	-10.6926
ᎳᏍᏓᎡ	-10.6926
▁ᎤᎩᏎᎢ	-10.6927
ᏖᎸᎲᏍ	-10.6928
ᏯᏪᎢᏍ	-10.6928
▁ᏗᏣᎳᏏ	-10.6928
▁ᎾᏅᏁᎲ	-10.6929
▁ᎤᏎᎵᏔᏅ	-10.6929
▁ᎠᎩᏰᎸᏅ	-10.6929
▁ᏤᏌᏂ	-10.6929
▁ᎹᏚ	-10.6929
▁ᎤᏪᏰᏂ	-10.6929
▁ᎤᏬᎯᏳᏅᎩ	-10.693
ᏛᎦᏁᎰᎢ	-10.693
▁ᏧᏓᎴᏁᎢ	-10.6931
▁ᎤᏗᎴᎲᏍᎬ	-10.6931
ᏍᎦᏅᎬ	-10.6932
▁ᏚᏙᏍᏛ	-10.6932
ᏦᏎᎭ	-10.6933
ᏍᏓᎦᎸ	-10.6934
ᎪᏑᎴ	-10.6934
▁ᏎᎳ	-10.6934
▁ᎤᏂᏰᎸᏁ	-10.6934
▁ᏫᏥᎦᏘ	-10.6935
▁ᎬᏩᏍᏛᏗᏍ	-10.6935
▁ᏗᏂᏢᏗᏱ	-10.6935
▁ᏧᏕᏲᏅᎯ	-10.6937
ᎪᎵᏰᏍᎬᎢ	-10.6937
▁ᏱᏍᎦᎢᎮᏍᏗ	-10.6938
▁ᎤᎬᏩᎴ	-10.6939
▁ᏂᎦᏔᎲᎾ	-10.6941
ᏕᎰᏍᎨᏍᏗ	-10.6941
▁ᎠᏏᎾᏌᏅ	-10.6942
▁ᎬᏩᏛᏓᏍᏓᏁ	-10.6942
▁ᏗᏘᏲ	-10.6942
▁ᏗᎦᏓᎨᏳᎯ	-10.6944
▁ᎢᏥᎦᏴᎵᎨ	-10.6945
▁ᎠᏓᏙᎵᏍᏓᏁᎯ	-10.6945
▁ᎤᏂᏂᎬᏎᎲ	-10.6946
ᏎᎪᎩᏍᏗ	-10.6946
ᏁᏉᎡᏗ	-10.6947
▁ᏣᎦᏨᏍ	-10.6947
▁ᎡᎦᏔ	-10.6948
▁ᎠᏆᎵᏍᏓᏴᏗ	-10.6949
▁ᎨᏥᏛᎦ	-10.6949
▁ᎧᏃᎮᏍᎬᎢ	-10.695
▁ᎢᎠᏓ	-10.6953
▁ᏱᏂᎬᏩ	-10.6953
▁ᏳᎨᏳᎭ	-10.6954
▁ᎬᏩᏓᏙᎵᏍᏗ	-10.6954
▁ᎣᏤᎵ	-10.6957
ᏱᎶᎴ	-10.6958
▁ᎡᏥᏍᏕᎸᏗᏱ	-10.6959
▁ᎠᏂᏍᏓᏩᏕᎩ	-10.6959
▁ᎬᏉᏎ	-10.696
▁ᎠᏓᏙᎵᏍᏙᏗᏱ	-10.6961
▁ᏂᎨᏥᏪᏎᎸ	-10.6961
▁ᏣᎾᏫᏱ	-10.6963
▁ᏯᏃᏉ	-10.6965
▁ᎢᏨᎪᏩᏛᏗᏱ	-10.6966
▁ᎨᏥᏯᏅᏛ	-10.6968
▁ᎤᏕᎰᎯᏍᏗᏳ	-10.697
▁ᏱᎨᏣ	-10.697
ᎵᏍᎪᎸᏓᏏ	-10.6971
ᎧᎿᏅᎩ	-10.6972
ᏣᎵᏍᏗᎭ	-10.6974
▁ᎠᎵᏍᏕᎵᏍᎬ	-10.6976
▁ᎠᏩᎾᎦᎳᎯᏳ	-10.6977
ᎦᎴᏅᏔ	-10.6978
▁ᏅᏓᏳᏓᎴ	-10.6978
▁ᏗᎬᏔᏅᎯ	-10.698
▁ᎢᏥᏩᏛᏗᏱ	-10.698
▁ᎠᎦᏛᏅᎯ	-10.6981
▁ᎠᏥᎸᎨᎳᏍᏗᏱ	-10.6981
▁ᎤᎾᏁᎳᏅᎯ	-10.6984
▁ᏓᏅᏅ	-10.6986
▁ᏥᏄᎾᎵᏍᏓᏁ	-10.6989
▁ᎤᎧᎵᏨ	-10.6991
ᏚᏓᎴᏍᏗᏱ	-10.6991
ᎥᏍᎨᎢ	-10.6992
▁ᏚᏂᎪᎲ	-10.6993
▁ᏓᏰᏥ	-10.6995
▁ᎨᏥᏍᏕᎸᏗᏱ	-10.6996
▁ᏥᏙᎦ	-10.6998
▁ᏥᏭ	-10.7
ᏚᏂᎳᏫᏤ	-10.7
▁ᏂᏗᏣ	-10.7001
▁ᏝᏬ	-10.7003
▁ᏓᎧᏅ	-10.7005
▁ᎤᏪᏅᎡ	-10.7007
ᏍᏙᏍᎨᏍᏗ	-10.7008
▁ᏓᎧᏁ	-10.7011
▁ᎢᏝ	-10.7012
▁ᏄᏪᎡ	-10.7013
▁ᎤᏪᎷᏅ	-10.702
▁ᏆᏏ	-10.7026
▁ᏧᏑᏰᏛ	-10.7027
▁ᎤᏗᏩ	-10.7031
▁ᏙᏣᏓ	-10.7034
▁ᎢᏥᎪᎲ	-10.7038
▁ᏱᏅᎦ	-10.7051
▁ᎡᏦᎢᏳᏒ	-10.7056
▁ᎠᏴᏓᏆᎶ	-10.7061
ᎩᏂᏴᏗᏱ	-10.7064
ᎵᎥᏂᎵ	-10.7076
ᏂᏏᏅᎯ	-10.7079
▁ᎨᏥᏚᎢᏍᏓᏁᎸ	-10.7083
▁ᎤᏂᎪᏁ	-10.7089
▁ᏃᏳ	-10.7111
▁ᎦᏃᎪ	-10.7113
ᏯᏓᏂᎸ	-10.7119
ᎩᏩᏛᎲᎩ	-10.7125
▁ᎠᏲᏍᏗᏍ	-10.7127
ᎯᏐᏗ	-10.7134
ᎧᏃᏗ	-10.7148
▁ᏧᎾᏚᎪᏓᏁ	-10.7149
ᏘᏃᎴ	-10.715
ᏲᏞᏒ	-10.7154
ᎷᎯᏍᏓᏁ	-10.7165
ᏩᎾᎦᎳᎯᏳ	-10.7173
▁ᎤᏄᏪ	-10.7175
▁ᎿᏛᏁᎲ	-10.7176
ᏍᏚᏟᏍ	-10.7199
▁ᏚᎩᏒ	-10.7199
▁ᎠᎾᎵᎮᎵᎬ	-10.7202
ᎷᏤᎴᎢ	-10.7217
ᏫᏎᎴᎢ	-10.7265
ᏓᏬᏍᏙᏗ	-10.7315
ᏛᏗᏕᎨ	-10.7327
▁ᎠᏓᎪᎵᏰᏍ	-10.7335
▁ᎤᎦᏙᎥ	-10.7338
ᏁᏙᎲ	-10.7339
▁ᎤᎧᎵᎸ	-10.7353
ᏞᏤ	-10.7359
▁ᎠᎦᏛᏅ	-10.737
▁ᏧᏁᏤᎴ	-10.7414
▁ᏓᏥᏲ	-10.7431
▁ᎾᏥᎸᏉ	-10.745
▁ᎠᏂᎪᏩᏘᏍ	-10.7462
ᏙᎴᎰᏍᎦ	-10.7493
ᎨᎾᏂ	-10.7506
▁ᎤᎾᏂᏢ	-10.751
ᏥᏩᏛᎡ	-10.7517
ᎾᎾᏛᏁᎰ	-10.7527
ᎦᏁᎶᏗ	-10.7532
ᏢᏉᏙᏗ	-10.7557
▁ᏧᏪᏰ	-10.7583
▁ᎠᎪᏩᏘᏍᎬ	-10.7608
ᏁᏅᏍᏗᏱ	-10.7645
ᏪᏲᎲᏍᎩ	-10.7656
ᏄᏬᎥ	-10.7662
▁ᎬᎩᎷᏤ	-10.7695
▁ᎤᎾᏄᎪᏫᏍᏗ	-10.7736
ᏂᎪᎲ	-10.7746
ᏂᏨᏁᏍᏗ	-10.7779
▁ᏚᏓᏂᎸᏤ	-10.7793
ᏥᏌᎳᏙᏗ	-10.7798
▁ᎣᏣᏓᏙᎵᏍᏗᏍ	-10.7849
▁ᎾᏥᏪᏎᎸ	-10.7906
▁ᏥᎦᏙ	-10.7969
ᏗᎨᎳᏍᏙᏗ	-10.7994
ᎸᏫᏍᏓᏁᎴ	-10.7996
ᎸᏉᏕᏍᏗ	-10.801
ᎪᎲᏍᎬ	-10.806
ᏓᏁᎶ	-10.8071
ᎵᏰᏗ	-10.8075
▁ᎥᎩᏙ	-10.8124
ᏪᎵᏎᎢ	-10.8139
ᏦᎯᏳᎲᏍᎦ	-10.8142
▁ᏕᏥᎸᏫᏍᏓᏁ	-10.8163
ᏓᏅᏖᏍᎪ	-10.8174
ᏭᏢ	-10.8196
ᏐᏢᎢᏍᏗᎭ	-10.8212
▁ᏱᎾᎾᏛᏁ	-10.8281
▁ᏱᏂᏥᏪ	-10.8287
ᏛᏓᏍᏓᏁᎮᏍᏗ	-10.8342
ᏇᎵᏎ	-10.8344
▁ᎡᎩᏁᎸ	-10.8367
▁ᏳᎾᏚᎵ	-10.8415
▁ᏃᏒ	-10.8453
▁ᎡᏣᏛᎦᏁ	-10.8482
▁ᏂᏕᎬᏁ	-10.8519
▁ᎠᏐᏢᎢᏍᏙᏗ	-10.8535
ᏙᎯᏳᎭ	-10.8596
▁ᏯᏂᎦᏔ	-10.8622
ᏅᏗᏍᎪ	-10.8653
ᎪᎵᏰᏍᎬᎩ	-10.8696
▁ᏭᎷᏤᎸ	-10.8705
ᎾᎵᏍᎪᎸᏗ	-10.8718
▁ᎨᏥᏯᏅ	-10.8721
ᏬᎥᎯ	-10.8722
ᏓᏗᏍᏗ	-10.8737
▁ᏤᎳ	-10.883
ᏣᏓᏱᎸ	-10.8838
ᏐᏅᎢᏍᏔᏅᎯ	-10.884
ᏍᎦᎳᏁᎸ	-10.8846
▁ᏓᏓᏬ	-10.8877
ᎾᏄᎪᏨᎯ	-10.8892
ᏥᏴᏔᏂ	-10.8935
▁ᏱᏂᎪ	-10.894
ᏣᎵᎮᎵᎦ	-10.895
▁ᎠᎵᏥᏙᎲᏍ	-10.8964
ᏣᏅᏓᏗᏍ	-10.8974
ᎤᏂᏴ	-10.8974
ᏩᏗᏙᎯ	-10.8981
ᏂᎷᎩ	-10.9019
▁ᎤᏂᎧᎵᏨ	-10.9037
ᎩᏍᏓᏩᏕ	-10.9073
▁ᏧᎶᏎ	-10.9078
ᎬᏩᏓᏙᎵᏍᏓᏁ	-10.9088
ᎣᎨᏅ	-10.9103
ᏛᎿᏕᎬᎢ	-10.9115
ᏓᏅᏘᏐ	-10.9162
ᏂᏴᎯᎯ	-10.9181
ᏥᎩᎡᏗ	-10.923
▁ᎠᏙᎴᎰ	-10.9257
▁ᎤᏃᎯᏳᏅ	-10.9262
▁ᏧᎾᏓᏡ	-10.9272
▁ᏁᏨᏁ	-10.9281
▁ᏕᏣᎸᏫᏍᏓᏁᎲ	-10.9282
▁ᎤᎿᎥ	-10.9282
ᎦᏌᏯᏍᏔᏅ	-10.9292
ᎵᎷᎬ	-10.9308
▁ᏚᏂᏂᏴ	-10.9314
▁ᏬᎩᎷᏨ	-10.932
▁ᏅᏓᎦᎵᏍᏙᏗᏍᎬ	-10.9323
▁ᎾᎩᏪᏒ	-10.9323
ᏁᎫᏥᏛ	-10.9325
▁ᏂᏕᎦᏪᏎ	-10.9332
ᎪᏢᏔᏅᎯ	-10.9342
ᏁᏢᏔᏅᎯ	-10.9348
ᎩᎵᏲᏨ	-10.9348
ᎬᏬᎯᏳ	-10.9351
▁ᏅᎵᏌᎵ	-10.9353
ᎢᏧᎳᎭ	-10.9361
ᎧᏃᎮᏛ	-10.9362
▁ᎢᏳᏪᏍᏗ	-10.9362
ᎦᎸᎳᏗ	-10.9362
▁ᏗᎬᏩᎸᏌ	-10.9369
ᏟᏐᏗ	-10.9374
▁ᎦᎵᎡᎵ	-10.9377
ᎬᏬᏎ	-10.9384
▁ᎢᏳᏅᏁᏗ	-10.9385
▁ᏗᏥᎸᏫᏍᏓᏁ	-10.9387
ᏨᏰᎳᏗᏙᎭ	-10.9394
ᎦᏓᎢᏅ	-10.9395
ᏠᎯᏍᏛ	-10.9398
ᏓᏆᎧᎾᏅᎩ	-10.9401
ᏩᏘᏍᎩ	-10.9405
ᏁᏍᎨᎲᎯ	-10.9406
ᏲᎤᎵ	-10.9407
▁ᎢᏨᏯᏅᏓᏗᏍ	-10.9408
▁ᎠᏆᎴᏂᏙᎸ	-10.9409
▁ᎤᏗᏌᏓᏛ	-10.9409
▁ᎬᏩᏓᏡᏫᏍᏔ	-10.9409
ᏂᎳᏍᏓᎳᏩᏗᏒᎢ	-10.9409
ᏍᎦᏰᎬᏍᏓ	-10.9409
ᏍᏓᏩᏗᏎᏍᏗ	-10.9409
ᏓᎾᏕᏒᎲᏍᎪᎢ	-10.9409
ᏓᎿᏍᏆᎶᏍᏗ	-10.9409
ᏗᎦᏔᏫᎢᏍᏗᏱ	-10.9409
▁ᎠᎵᏱᎶᎸᎭ	-10.9409
▁ᎠᎾᏓᎾᏏᏂᏙᎯ	-10.9409
▁ᎠᏂᎦᏲᎵᏳ	-10.9409
▁ᎠᏂᏏᎾᏌᏂ	-10.9409
▁ᎠᏆᏓᏅᏔᏩᏕ	-10.9409
▁ᎠᏥᏂᏌᏅ	-10.9409
▁ᎠᏲᏓᏝᎲᎢ	-10.9409
▁ᎡᏣᎵᎡᎵᏤᎮᏍᏗ	-10.9409
▁ᎢᏍᎪᏂᏗᏢ	-10.9409
▁ᎢᏨᏰᎳᏗᏙᎸ	-10.9409
▁ᎢᏳᏂᏪᏍᏗᏱ	-10.9409
▁ᎣᏥᎩᎵᏲᎬ	-10.9409
▁ᎤᎦᏑᎲᎢ	-10.9409
▁ᎤᎾᎵᏍᏓᏴᏃᏅ	-10.9409
▁ᎤᎾᏓᏅᏔᏩᏕ	-10.9409
▁ᎤᏁᎳᏗᏙᎲ	-10.9409
▁ᎤᏂᏆᏘᏍᏗ	-10.9409
▁ᎤᏂᏔᎳᏬᏍᎬᎢ	-10.9409
▁ᎤᏂᏲᏠᎯᏎᎸ	-10.9409
▁ᎤᏎᎦᏨᎯ	-10.9409
▁ᎤᏕᏒᏂᎸᎯ	-10.9409
▁ᎤᏕᏘᏴᏌᏗᏒ	-10.9409
▁ᎤᏕᏯᏔᏁᎴ	-10.9409
▁ᎤᏕᏯᏔᏁᎸ	-10.9409
▁ᎤᏪᏲᏓᏛ	-10.9409
▁ᎥᏆᏬᏍᏙᏗ	-10.9409
▁ᎥᏖᎣᎩ	-10.9409
▁ᎦᏙᎴᎣᏍᎦ	-10.9409
▁ᎦᏬᏂᏍᎩ	-10.9409
▁ᎪᎶᏁᏛ	-10.9409
▁ᎯᎩᎵᏲᎬ	-10.9409
▁ᎯᏍᏆᎵᏍᎨᏍᏗ	-10.9409
▁ᎾᏂᎦᏔᎾᎥᎾ	-10.9409
▁ᎾᏑᏴᎾ	-10.9409
▁ᏁᏍᏗᏪᏎᎸᎭ	-10.9409
▁ᏂᎦᎷᎶᎬᎾ	-10.9409
▁ᏂᏓᏙᏓᏈᏒ	-10.9409
▁ᏂᏙᏓᎦᏪᏎᎵ	-10.9409
▁ᏂᏚᎾᏑᎴᎲᎾ	-10.9409
▁ᏄᏃᎯᏳᏅᎾ	-10.9409
▁ᏆᎻᏈᎵᏱ	-10.9409
▁ᏍᎩᏯᏛᎦᏁᎸᎯ	-10.9409
▁ᏍᎪᏂᏗᏢ	-10.9409
▁ᏏᎻᏯᏂ	-10.9409
▁ᏕᎦᏕᏲᎲᏍᎬ	-10.9409
▁ᏕᏣᎸᏫᏍᏓᏁᎸ	-10.9409
▁ᏗᏂᎦᏘᎴᎩ	-10.9409
▁ᏗᏍᏇᏲᎲᏍᎩ	-10.9409
▁ᏗᏓᏂᏱᏍᎩ	-10.9409
▁ᏙᏓᏥᏲᎱᏏ	-10.9409
▁ᏣᏗᏫᏍᏓ	-10.9409
▁ᏥᏂᏥᏪᎠ	-10.9409
▁ᏥᏓᎾᏕᏲᎲᏍ	-10.9409
▁ᏧᎳᎨᏯᏛᏤᎢ	-10.9409
▁ᏧᏙᏓᏆᏛ	-10.9409
▁ᏫᎨᏣᏲᎵ	-10.9409
▁ᏫᎬᏲᏪᎳᏏ	-10.9409
▁ᏫᏴᎨᏥᎷᎩ	-10.9409
▁ᏱᎡᏦᎢᏳ	-10.9409
▁ᏱᎦᏬᏂᎭ	-10.9409
▁ᏱᎾᎦᏪ	-10.9409
▁ᏱᏂᏣᎵᏍᏓᏁ	-10.9409
▁ᏱᏄᏓᎠ	-10.9409
▁ᏱᏓᎴᏂᏙᎭ	-10.9409
▁ᏱᏫᏣᏴᎸ	-10.9409
ᎦᏨᏩᏍᏙᏗᏱ	-10.9409
ᎬᏇᎯᏍᏗᎭ	-10.9409
▁ᎠᎵᏰᎢᎶᎸᎭ	-10.9409
▁ᎤᏃᎱᎦ	-10.9409
▁ᎤᏍᏘᏰᎬ	-10.9409
▁ᏓᎦᎾᏄᎪᏥ	-10.9409
▁ᏗᏓᏙᏪᏙᎥ	-10.9409
▁ᏚᏅᎵᏰ	-10.9409
▁ᏚᏬᏑᎴ	-10.9409
▁ᏚᏰᎵᎯᏍᏔᏅ	-10.9409
▁ᏛᏂᎾᏄᎪᏥ	-10.9409
▁ᏥᏂᏨᏪᏎᎸᎩ	-10.9409
▁ᏧᏓᏅᏓᏗᏍᏙᏗᏱ	-10.9409
▁ᏱᏗᏣᏰᎸᏁᎢ	-10.9409
▁ᏱᏦᎯᏳᎲᎦ	-10.9409
▁ᏳᏬᎵᏤ	-10.9409
ᎢᏥᎦᏔᎾᎢ	-10.9409
ᎳᎨᏯᏛ	-10.9409
ᏜᏅᏓᏕᏗᏱ	-10.9409
▁ᎠᏆᏒᏂᎦ	-10.9409
▁ᎢᎤᏁᏅ	-10.9409
▁ᎢᏥᏇᏓᎸ	-10.9409
▁ᎢᏥᏔᏲᏍᏗᏍᎨᏍᏗ	-10.9409
▁ᎤᎾᎵᏃᎯᏴᎯ	-10.9409
▁ᎧᏃᎨᏂ	-10.9409
▁ᎨᏥᎩᎵᏲᎢᏍᏙᏗᏱ	-10.9409
▁ᏅᏓᏳᎾᏓᎴᏅᎯ	-10.9409
▁ᏅᏥᏪᏎᎸᎩ	-10.9409
▁ᏌᎶᎻ	-10.9409
▁ᏓᎾᏠᏱᎲᎢ	-10.9409
▁ᏕᎬᏩᏠᏎᎢ	-10.9409
▁ᏥᎾᏂᏪ	-10.9409
▁ᏥᏁᏣᏛᏁ	-10.9409
▁ᏩᏥᏯᏅᏗᏱ	-10.9409
▁ᏱᏨᏰᎵᏎᎭ	-10.9409
ᎿᎸᏍᏗᏍᎨᏍᏗ	-10.9409
ᏥᏥᏃᎯᏍᏓ	-10.9409
▁ᎢᎤᏪᏅ	-10.9409
▁ᎤᎾᎵᏥᏙᏅ	-10.9409
▁ᏱᏦᎵᎦ	-10.9409
ᎨᏣᏓᏑᏴ	-10.9409
▁ᎢᎬᏩᏛᏛᏁ	-10.9409
▁ᏓᏆᎴᎷ	-10.9409
▁ᏙᏓᏳᏲᏏ	-10.9409
▁ᏚᏚᎪᏔᏅ	-10.9409
▁ᏧᎬᏩᎳᏅᎯ	-10.9409
ᏛᏂᏗᏍᏕᏍᏗ	-10.9409
ᏩᏛᎱᎦ	-10.9409
▁ᎠᎵᏍᏆᏛᎭ	-10.9409
▁ᎢᏣᏗᏔᏍᎨᏍᏗ	-10.9409
▁ᎤᏓᏂᎵᎨ	-10.9409
▁ᏕᏥᏄᎪᏫᏍ	-10.9409
▁ᏗᎫᎪᏗᏱ	-10.9409
▁ᏣᏃᎮᎸᎩ	-10.9409
▁ᏤᎿᎠ	-10.9409
▁ᏧᏭᏓᎴᏍᏗᏱ	-10.9409
▁ᎠᏩᏘᏍᎪ	-10.9409
▁ᎢᎬᏩᎾᏛᏁᏗ	-10.9409
▁ᎤᎧᏲᏛ	-10.9409
▁ᎪᎹᎵ	-10.9409
▁ᏂᏚᏂᏪᏎᎸᎩ	-10.9409
▁ᏚᏓᏂᎸᏨ	-10.9409
▁ᎡᏓᎵᏍᎦᏍᏙᏛ	-10.9409
ᏔᏲᎯᎲᎢ	-10.9409
▁ᎤᎵᏍᎪᎸᏓᏁᎸᎩ	-10.9409
▁ᏕᎨᎦᏬᏍ	-10.9409
▁ᏫᏨᏲᎵ	-10.9409
▁ᎤᏚᏫᏛ	-10.9409
▁ᏧᏬᏢᏅᎯ	-10.9409
ᏕᎰᎯᏍᏙᏗᏱ	-10.9409
▁ᏧᎾᏂᏏᏗᏱ	-10.9409
▁ᏧᎾᏓᏂᎸᎢᏍᏗᏱ	-10.9409
▁ᏂᏥᏪᎠ	-10.9409
▁ᎢᏥᏔᏲᎭ	-10.9409
▁ᏓᏳᏄᎪᏨᎩ	-10.9409
▁ᏥᏚᏓᏲᏎ	-10.9409
ᏘᏂᏙᎲ	-10.9409
▁ᏗᎨᎦᏛᏅᎯ	-10.9409
▁ᏙᏗᎧᏂᏍᎬ	-10.9409
▁ᏫᏂᏨᎦ	-10.9409
▁ᎤᏓᏩᏗᏍᏙᏛ	-10.9409
▁ᎤᏩᎾᏓᎴ	-10.9409
▁ᏳᏲᎱᏒ	-10.9409
▁ᎤᎾᏞᏒ	-10.9409
▁ᏕᎩᏂᏴ	-10.9409
▁ᏘᎦᏙᎵ	-10.9409
▁ᏙᏗᎾᎵᏍᏓᏴᎲᏍᎬ	-10.9409
▁ᏱᏂᎬᏩᏍᏗᏉ	-10.9409
▁ᎠᏢᏈᏍᏗ	-10.9409
▁ᎤᏔᏲᎸ	-10.9409
▁ᎬᏩᏕᏁᎴᎢ	-10.9409
▁ᏗᏂᎾᏕᎩ	-10.9409
▁ᏄᎾᏛᏁᎴᎢ	-10.9409
▁ᏱᏣᏰᎸᏅ	-10.9409
▁ᎾᏂᏪᏍᎨᏍᏗ	-10.9409
▁ᏓᏂᏴᎬᎢ	-10.9409
▁ᏧᏓᏂᎸᎢᏍᏗᏳ	-10.9409
▁ᏓᏍᏗᏰᏗᏍᎬ	-10.9409
▁ᎢᏣᏛᎩᏍᎬᎢ	-10.9409
▁ᎠᎾᏗᏒᎯ	-10.941
▁ᎦᎷᎪᎢ	-10.941
▁ᏥᏦᎯᏳ	-10.941
▁ᎠᏂᏍᏆᏂᎪᏗᏍᎩ	-10.941
▁ᏚᎵᏏᎲ	-10.941
▁ᎤᏂᎶᏐᏅ	-10.941
▁ᏓᏱᏓᎵ	-10.941
ᎩᎵᏲᎨᏍᏗ	-10.941
▁ᎢᏖᎳ	-10.941
▁ᎤᏅᏂᏍᏗᏱ	-10.941
▁ᎠᏂᏁᎢᏍᏗᏍᎩ	-10.941
▁ᏗᏂᏙᎬ	-10.941
▁ᎠᏍᎩᏓᏍᎬ	-10.941
▁ᎢᏣᎵᏏᎾᎯᏍᏗ	-10.941
▁ᎥᏇᎵᏎᎸ	-10.941
ᏍᏕᎵᏍᎨᏍᏗ	-10.941
▁ᎠᏁᎵᏍᎨᎢ	-10.941
▁ᏩᏐᎾ	-10.941
ᎳᏑᎸ	-10.941
▁ᎡᎵᏍᏓᎦ	-10.941
▁ᏚᏅᏩᏅᎩ	-10.941
▁ᎤᎾᏓᏛᏅᎯ	-10.941
▁ᏚᏪᏟᏌᏅ	-10.941
▁ᏁᎵᏍᎬᎾ	-10.941
▁ᎢᏗᏍᎦᎾ	-10.941
ᎵᏍᏓᏴᎲᏍᎪᎢ	-10.941
▁ᏧᎵᏏᎬ	-10.941
▁ᎤᏂᏍᏆᏂᎪᏍᎨᎢ	-10.941
ᎵᏂᎬᎦ	-10.941
ᏣᏛᏂᏏ	-10.941
▁ᎬᏩᏂᏴᏗᏱ	-10.941
▁ᏓᏂᎧᏅᎢ	-10.941
▁ᏓᎦᏘᎴ	-10.941
▁ᎤᏍᏆᏗᏍᏗᏱ	-10.941
ᏬᏂᏍᎪᎢ	-10.941
ᏗᎦᏚᎲ	-10.941
▁ᎢᏦᎯᏳᏅ	-10.941
▁ᎣᎩᎾᎵᎪ	-10.941
▁ᏗᎾᏓᏙᎵᏍᏓᏁᎯ	-10.941
▁ᏍᎩᏯᏅᏓᏗᏍᎨᏍᏗ	-10.941
▁ᏗᏠᎯᏍ	-10.941
▁ᎦᎶᏐᎲᏍ	-10.941
▁ᏂᏦᎯᏳᎲᏍᎬᎾ	-10.941
▁ᎢᏦᎵᎩ	-10.941
▁ᎤᏓᏱᎴᎢ	-10.941
▁ᎤᏂᏍᎦᎴᎢ	-10.941
▁ᎠᎶᎻ	-10.941
▁ᏗᎦᎴᏴ	-10.941
▁ᏳᏰᎸᏅ	-10.941
▁ᏥᎣᎵ	-10.941
▁ᎠᎪᏩᏘᏍᎩ	-10.941
▁ᏚᎾᏚᏫᏍ	-10.941
▁ᎤᏣᎢᏒ	-10.941
ᏯᏛᏂᏏ	-10.941
▁ᎠᏆᎧᏛ	-10.941
▁ᏴᎦᎦᏗ	-10.941
ᎦᏘᎴᎦ	-10.941
▁ᎢᏥᏴᏍᏗᏱ	-10.941
▁ᎬᏍᎦᎵ	-10.941
ᏌᎺᎵ	-10.941
▁ᏥᏕᏣᎸᏫᏍᏓᏁᎭ	-10.941
▁ᏕᎯᏁᏤᎮᏍᏗ	-10.9411
▁ᎠᎵᏰᎢ	-10.9411
▁ᎠᎩᏫᏯ	-10.9411
▁ᏗᎬᏩᏂᏯᎢ	-10.9411
▁ᏨᏓᏯᎢ	-10.9411
▁ᎢᏣᏄᏬᏍᏕᏍᏗ	-10.9411
▁ᏓᎾᏗᏔᏍᎨ	-10.9411
▁ᎠᏫᏒᏗᏱ	-10.9411
▁ᏣᏍᎦᎸᎩ	-10.9411
▁ᏫᎬᏩᏴᏔᏁ	-10.9411
▁ᎡᏤᎾ	-10.9411
▁ᎤᎦᏛᎾᏨᎯ	-10.9411
▁ᏥᎦᎷᎪ	-10.9411
▁ᎦᏁᎵᏛ	-10.9411
ᏘᏁᏒᎭ	-10.9411
▁ᎡᏓᏓᏙᎵᏍᏓᏁ	-10.9411
▁ᏗᎧᏁᎬ	-10.9412
ᏃᏪᎳᏅᎯ	-10.9412
▁ᏍᏆᏛᎦᏁ	-10.9412
▁ᎦᎬᏩᏐᏢᏕᎢ	-10.9412
▁ᎧᏃᏍᎦ	-10.9412
▁ᎮᏙᎲ	-10.9412
▁ᏗᏣᏓᎵᎢ	-10.9412
▁ᎨᎵᏌᏕ	-10.9412
▁ᏗᎬᏩᏂᏐᏢ	-10.9412
ᏍᎩᏰᎵᏎᎮᏍᏗ	-10.9412
▁ᏕᎨᎦᎸ	-10.9412
ᏢᏈᏍᏙᏗ	-10.9412
ᏓᏅᎡᎴ	-10.9412
▁ᏕᏣᎧᎿᏩᏗᏙᎮᏍᏗ	-10.9412
▁ᏗᎦᏃᏙᏗᏱ	-10.9412
▁ᎠᏛᎩᏍᎩ	-10.9413
▁ᎤᏦᏍᏗ	-10.9413
▁ᏓᏠᏱᎲ	-10.9413
▁ᎤᎦᏛᎾ	-10.9413
ᎵᏍᏓᏱᏗᏍ	-10.9413
▁ᏓᏂᏙᎨ	-10.9413
ᏋᏕᏨ	-10.9413
▁ᏥᎾᏆ	-10.9413
▁ᎤᏗᏩᏒᎯ	-10.9413
▁ᎢᏯᏓᏛᏁ	-10.9413
▁ᎤᏁᎳᏗᏍᏗᏱ	-10.9413
ᏬᏁᏗᏍᎪ	-10.9413
▁ᏓᏘᏁᎲ	-10.9413
▁ᎡᏣᏁᏍᎨᎲᎯ	-10.9413
▁ᏚᏬᎡᎢ	-10.9413
ᎬᏲᏪᎳᏁ	-10.9413
▁ᎢᏓᎴᏂᏙ	-10.9413
▁ᏧᎾᏓᏅᏬᏗᏱ	-10.9414
ᏂᏅᎪᎠ	-10.9414
▁ᎿᏛᎦ	-10.9414
▁ᏥᏍᎦᏅᏤᎸ	-10.9414
▁ᎤᏂᏰᎸᎯ	-10.9414
▁ᏓᎾᎴᎯᏌᏅ	-10.9414
▁ᎤᏥᎸᏒ	-10.9414
ᏍᏚᎢᏏ	-10.9414
▁ᏂᏣᏛᏁᎰ	-10.9414
▁ᎤᏓᏅᏙᎩᎯ	-10.9415
▁ᏄᎾᏓᏛᎩ	-10.9415
▁ᏓᏂᏍᎦᎢᎮ	-10.9415
▁ᏅᏓᏳᎵᏍᎪᎸᏔᏅᎯ	-10.9415
▁ᏅᏓᏳᎶᎯᏍᏗᏱ	-10.9415
ᏘᎿᏫᏛᎲᎩ	-10.9415
▁ᎣᎦᏚᎵᏍᎬ	-10.9415
▁ᎢᏳᏏᏗ	-10.9415
▁ᏂᎤᏪᏎ	-10.9415
▁ᏗᏂᎯᎯ	-10.9415
▁ᏗᎨᏥᏲᎯᏎᎸᎯ	-10.9415
ᏍᎦᎢᎮ	-10.9415
▁ᎥᎩᏅᏟ	-10.9415
▁ᏧᏓᎴᏅᎲ	-10.9416
▁ᎢᏥᎷᎩ	-10.9416
ᎦᎾᏏᏍᎩ	-10.9416
▁ᎤᎵᏖᎸᏅᎩ	-10.9416
▁ᏧᏂᎦᏐᎠ	-10.9416
▁ᎢᏣᏓᏅᏓᏓ	-10.9416
ᏟᏴᎡ	-10.9416
▁ᏓᏰᏥᎪᎢ	-10.9416
▁ᏧᏙᏍᏙᏗ	-10.9416
ᏧᎵᏍᏙᏔᏅ	-10.9416
▁ᏧᏌᎴᏅ	-10.9416
▁ᎣᏤᎲ	-10.9416
ᎦᏓᎢᏅᏒᎩ	-10.9417
▁ᎤᎵᏖᎸᏁᎢ	-10.9417
ᏍᏓᏱᏗᏍᏗᏱ	-10.9417
▁ᏧᏭᏓ	-10.9417
▁ᏣᎩᏯᎠ	-10.9417
▁ᏣᏤᎵᎪᎯ	-10.9417
▁ᎤᏍᏗᏰᏔᏁ	-10.9417
▁ᎣᏦᎯᏳᎲᏍᎦ	-10.9417
▁ᎤᎵᏍᏕᏍᏔ	-10.9417
▁ᎾᏉᎯᏳ	-10.9418
ᏙᏥᏩᏛᎲᎩ	-10.9418
▁ᏫᏓᏆᎧᎾᏅᎩ	-10.9418
▁ᎤᏬᏢᏅᏅ	-10.9418
▁ᏂᏓᏛᏁᎲ	-10.9418
▁ᎤᏂᏁᎢᏍᏗᏱ	-10.9418
▁ᎬᎩᏁᏤᎸᎯ	-10.9419
ᎱᎶᏗ	-10.9419
▁ᎢᎬᏩᏍᏗᎭ	-10.9419
▁ᎬᏩᏛᎦᏁᎸ	-10.9419
▁ᎢᏗᎬᏁᎸᎯ	-10.9419
▁ᎤᏗᏩᏎᎢ	-10.9419
▁ᏄᎾᎵᏍᏔᏅ	-10.9419
▁ᏳᏰᎸᏁ	-10.942
▁ᏧᏓᎴᏅᎢ	-10.942
▁ᏂᎦᎾᏰᏍᎬᎾ	-10.942
▁ᏕᏣᏓᎨᏳᏎᏍᏗ	-10.942
▁ᎤᏗᏩᏒᎩ	-10.942
▁ᎢᎯᏯ	-10.942
▁ᏯᏙᎴᎰᏍᎦ	-10.942
▁ᏂᏍᎦᏅᎾ	-10.942
▁ᏥᏥᎪᏩᏘᎭ	-10.9421
▁ᎬᏩᏂᏍᏓᏩᏗᏙᎯ	-10.9421
▁ᎠᏆᏢᏈᏍᏗᏱ	-10.9421
▁ᏚᎧᎿᏁ	-10.9421
▁ᎣᎦᏛᏅᎢᏍᏗ	-10.9421
▁ᏂᎦᏪᏍᎪᎢ	-10.9422
▁ᏗᎩᏅᏒ	-10.9422
▁ᏧᎬᏩᎴ	-10.9422
▁ᎠᏂᎵᎾ	-10.9424
ᏓᎢᏅᏗᏱ	-10.9424
▁ᎤᏄᎪᎢᏍᏗ	-10.9425
▁ᎦᎳᏅᏛ	-10.9425
▁ᎦᎵᎭ	-10.9425
ᏓᏂᏰᎲᎩ	-10.9425
▁ᎾᎩᎲᎾ	-10.9425
▁ᏕᏛᏅ	-10.9425
ᏴᎯᎭ	-10.9426
ᎵᏍᏓᏁᎵᏕᎬ	-10.9427
▁ᎢᏨᏁᏤᎭ	-10.9427
▁ᎡᏥᎦᏙᎥᏒ	-10.9428
▁ᏂᏚᏛᏁᎸ	-10.9428
ᏏᏗᏒ	-10.9428
ᎪᎵᏰᏍᎪᎢ	-10.9428
▁ᎠᎾᏗᏍᎬᎢ	-10.9429
▁ᏕᎦᎧᎲ	-10.9429
▁ᎠᏆᎵᎮᎵᏍᏗ	-10.9429
ᎦᎴᏔᏂ	-10.943
▁ᎧᏁᎨᎢ	-10.943
ᎬᏂᏍᏗ	-10.943
▁ᏙᏓᏥᏯ	-10.943
▁ᎬᏬᎯᏳᏅᎯ	-10.943
▁ᏥᏥᏯᎠ	-10.9431
▁ᎠᏯᏙᎵ	-10.9431
ᏠᎥᏔ	-10.9431
▁ᎤᎾᏓᏅᏍᏗᏱ	-10.9431
▁ᎾᎾᏛᏁᎮᏍᏗ	-10.9431
▁ᏄᎵᏂᎬᎬ	-10.9431
▁ᏄᏅᏁᎴᎢ	-10.9432
▁ᏕᏨᏗᏍᎨᏍᏗ	-10.9432
▁ᎠᎩᏂᎬᏎᎲ	-10.9432
▁ᏓᏲᏤ	-10.9432
ᎷᎸᎥᏍ	-10.9433
▁ᎢᎦᎵᏍᏓᏁᏗ	-10.9433
▁ᏌᎻ	-10.9433
▁ᎢᏧᏖ	-10.9433
▁ᏛᏂᎪᎯ	-10.9433
▁ᏧᏘᏲ	-10.9433
ᎵᏍᏗᏰᏓᏁ	-10.9433
▁ᎡᎵᏍᎨᎢ	-10.9434
▁ᏚᎷᎬ	-10.9434
▁ᏚᏂᏯᏙ	-10.9434
▁ᎵᏓ	-10.9435
▁ᎠᏟᏍᏕ	-10.9435
▁ᎨᏣᎵᏍᏕᎸᏙᏗ	-10.9436
ᎵᎡᎾ	-10.9436
▁ᎣᎩᏍᏛᏗᏍ	-10.9436
▁ᎤᏂᏁᎢᏍᏔᏅ	-10.9436
▁ᎤᏂᏍᏛᏗᏍ	-10.9437
▁ᎤᎾᏓᏅᏒᎩ	-10.9437
▁ᎤᏓᎪᎵᏰᏗ	-10.9437
▁ᎠᏤᎷᎯ	-10.9437
ᏍᎦᏅᏤᎮᏍᏗ	-10.9437
▁ᎠᏂᎩᎵᏲᎬ	-10.9437
▁ᏓᎵᏂᎪᎯᏍᏗᏍ	-10.9438
ᏗᎧᎿᏩᏗ	-10.9438
▁ᎤᏪᎧᎲ	-10.9441
▁ᏗᏂᎴᏂ	-10.9441
ᏅᏫᏍᏗ	-10.9441
ᏃᎵᏤ	-10.9443
▁ᎠᏥᎸᏉᏙᏗᏱ	-10.9444
ᏗᏫᏎᏗ	-10.9444
▁ᎡᎵᏍᎬᎢ	-10.9445
▁ᏥᎪᎥᎩ	-10.9446
ᏃᏣᎶ	-10.9447
▁ᏣᏰᎸᏅ	-10.9447
▁ᎠᏂᎩᎾ	-10.9449
▁ᎠᏓᏅᏙᎩᎯ	-10.9451
▁ᎠᎾᎢᏎ	-10.9451
▁ᎠᏂᎾᏄᎪᏫᏍ	-10.9451
ᎦᏢᏈ	-10.9452
▁ᏧᏄᎪᏙᏗ	-10.9453
ᏲᏞᎯ	-10.9455
▁ᎤᏔᏕᎩᏍ	-10.9455
▁ᎬᏩᏄᎯ	-10.9455
ᏘᏂᏒ	-10.9456
ᏁᏙᎴᎢ	-10.946
▁ᏄᎪᎸ	-10.9461
ᏯᏅᎯᎸ	-10.9462
ᎦᏁᏌᎢ	-10.9462
▁ᎢᏤᏯᏔ	-10.9466
ᏍᎪᏂᎯ	-10.9468
▁ᎢᎬᏩᏅᏁ	-10.9469
ᏥᏁᏟᏴᏒ	-10.947
ᏍᏚᎩᎡ	-10.947
ᏰᏅᎡ	-10.9471
▁ᏕᏣᏓᏲᎵ	-10.9471
ᎦᎧᎲᏍᎨᏍᏗ	-10.9472
ᏥᏁᎢᏍᏗᎭ	-10.9476
ᎦᏢᏆ	-10.9481
▁ᏥᏄᏍᏙ	-10.9485
ᏣᏓᏅᏘ	-10.9489
▁ᎤᏛᏓᏍ	-10.9491
▁ᎤᏚᏓᎸ	-10.9495
ᏙᎮᎯ	-10.9498
▁ᎣᏥᏬᏂᏍᎬ	-10.9504
ᏪᎵᏎᎴᎢ	-10.951
ᏆᏚᎵᏍᎬ	-10.9513
ᏯᏂᎭ	-10.9516
▁ᎠᏥᏛᏙᏗ	-10.9526
ᎤᎦᏔ	-10.9529
ᏓᏘᏁᏗ	-10.9531
ᏓᏴᏍᏕᏍᏗ	-10.9533
▁ᏂᏨᏃᏁ	-10.9545
ᏗᎴᎬ	-10.9555
▁ᎢᏨᏬᏁᏔᏅ	-10.9555
ᏂᎦᎴ	-10.9561
ᎳᏅᏛ	-10.9577
▁ᏓᎩᏲᎯᏎᎸ	-10.9581
ᎾᏛᎩᏍᎪ	-10.9583
ᏥᏁᎪᎢ	-10.959
ᏏᎾᏍᏛ	-10.9613
▁ᏂᎦᏥᏴᏁᎲ	-10.9614
▁ᎠᏥᏅᏁ	-10.9614
ᏅᏩᏍᏙᎢ	-10.9621
ᏓᏙᎵᏍᏓᏁᎵ	-10.9627
ᏕᎬᏲᎯᏏ	-10.9629
▁ᎻᎳ	-10.9634
ᏓᏂᏙᎦ	-10.9644
▁ᎠᎾᎵᏍᏓᏴᏗᏍᎬ	-10.9649
▁ᎨᏣᏡᏗᏍᎬ	-10.9655
▁ᏕᎩᎸᏫᏍᏓᏁᎲ	-10.9664
ᏕᎶᏆᎡᎸ	-10.9691
▁ᎣᏣᎵᏍᎦᏍᏙ	-10.9698
▁ᏂᏕᎬᏁᎲ	-10.97
▁ᏣᏓᏡᏗᏍᎪ	-10.9713
▁ᏓᏥᏩᏛᎯ	-10.9744
ᎧᎵᎢᏍᏔᏅ	-10.9745
ᏥᏃᏍᏛ	-10.9749
ᏂᎾᏫ	-10.9756
▁ᏫᏗᎦᏘ	-10.977
ᎠᏎᎵᏛᏍ	-10.9776
ᎩᏚᎢᏍᏓᏁᎸ	-10.981
▁ᎦᏥᏯᎵᏥᏙᏁ	-10.9836
▁ᏦᏥᏩᎾᎦᎳ	-10.9843
ᎶᏒᏍᏙᏗᏱ	-10.9848
ᏢᏆᏍᏙᏗ	-10.9853
ᏣᏰᎸᎭ	-10.9855
▁ᏫᏓᏯᏂᏍ	-10.9872
ᎾᏙᏢ	-10.9884
ᏅᏓᏗᏍᎬ	-10.9889
▁ᏕᏧᎪ	-10.9913
ᎵᏰᏍ	-10.9919
▁ᎢᏦᎵᏍ	-10.9943
ᎧᎿᏩᏗᏙᎮᏍᏗ	-10.9949
ᎪᏎᎲᎩ	-10.9982
ᏃᏣᎵ	-10.9987
ᏇᏓᎵ	-10.9995
ᎬᏂᏛ	-11.006
ᏍᏓᏩᏗᏓᏍᏗᏱ	-11.0061
▁ᏧᏂᎸᏫᏍᏓᏁ	-11.0076
ᎦᏖᏃᎲ	-11.0091
ᏂᏕᎬᏁᎰ	-11.0101
ᏧᏁᎬ	-11.0107
▁ᎨᏥᏙᎵᏍᏗ	-11.0141
ᎠᏗᏒ	-11.0144
▁ᏭᎾᏗᏅ	-11.0257
ᏥᏅᏏ	-11.0269
▁ᎠᏇᏅᏍᏗ	-11.0269
▁ᎤᏪᏙᎵᏍᏗ	-11.0281
ᏬᏢᏁᎢ	-11.0287
ᏐᏢᏙᏗ	-11.0337
▁ᎠᏃᎯᏳᎲᏍ	-11.0339
ᎤᏂᎶᏒ	-11.0345
▁ᏄᏚ	-11.036
ᎤᏅᏩᏁ	-11.0384
ᏥᏪᏎᎴ	-11.0402
▁ᎣᏥᏃᎮᏍᎬ	-11.0406
▁ᏗᎬᏩᏂᏲᎱᎯ	-11.041
ᏁᏢᏙᏗ	-11.0447
ᎾᏛᏁᎯ	-11.0447
▁ᏥᎦᎧ	-11.0478
ᎩᏲᎱᎯᏍᏗ	-11.0512
▁ᏭᏂᏃᏁ	-11.0517
ᏥᎾᏰᏍᎬᎢ	-11.0592
ᎵᎪᏁᎸᎯ	-11.0615
ᏂᎦᏛᏁᎰᎢ	-11.0727
ᏣᎢᏒᎢ	-11.0727
ᏓᏕᎵᏎ	-11.075
▁ᏯᏓᏅᏖ	-11.0776
ᏗᎦᎸᏉᏗ	-11.0801
▁ᎠᏓᏍᏕᎵᏍ	-11.0838
ᎪᏩᏘᏍᎬᎩ	-11.094
ᏰᎵᎯᏍᏗ	-11.1012
ᏳᏩᏁᎵ	-11.1023
ᏍᏆᏂᎪᏔᏂ	-11.1028
▁ᎡᏣᏑᏰ	-11.1122
ᏯᏓᏙᎵᏍᏓᏁ	-11.1205
▁ᏂᏣᏛᎿᏕ	-11.1206
ᏆᏁᎶ	-11.121
▁ᏗᏣᎸᏫᏍᏓᏁ	-11.1304
▁ᎠᏍᎫᏕ	-11.1352
ᎪᏢᎭ	-11.1404
▁ᏣᏍᎦᏅᎪ	-11.143
ᏓᏨᏁᎵ	-11.1462
ᎠᎩᎷᏨ	-11.1493
ᎾᏓᏗᏍᎪ	-11.1513
ᏘᏃᎮᏗᏱ	-11.1537
ᏬᏁᏔᏅᎢ	-11.1636
ᏫᏨᏲᏪᎳᏁᎸᎩ	-11.1685
▁ᏍᎩᏍᏓᏩᏕ	-11.1692
ᏥᎸᏉᏗ	-11.1693
ᏓᏤᎵᏛ	-11.1714
ᎩᎧᏁᎸᎯ	-11.1787
ᎬᏩᏂᎪᏩᏛ	-11.1788
ᏓᏙᎵᏍᏓᏁᎯ	-11.1803
ᎵᏥᏙᏁᎲᎢ	-11.1863
▁ᏱᏅᏗᎦᎵᏍᏙ	-11.1892
ᎵᏍᎦᏍᏙᏔᏅ	-11.1951
ᏥᎾᏰᏍᎩ	-11.1974
ᏄᎪᏫᏏ	-11.1976
ᏁᏙᎮ	-11.2025
ᎤᎾᏣᏅ	-11.2077
▁ᏧᏓᏅᏖ	-11.2078
▁ᏕᏧᎪᏗᏍ	-11.2082
▁ᎬᏩᏃᎵᏍ	-11.2122
▁ᏗᏩᎾᎦᎳ	-11.2181
▁ᎠᏢᏆᏍ	-11.2181
▁ᏩᎾᎦᎳ	-11.2185
▁ᎤᏂᎾᏰ	-11.2227
▁ᏧᏭᎪ	-11.2233
▁ᎡᏥᎾᏰᏍ	-11.2317
ᏅᏓᏗᏍᎨᏍᏗ	-11.2332
ᏓᏡᏗᏍᎪᎢ	-11.2341
ᎾᏗᏅᏗ	-11.2367
ᏅᏬᏗ	-11.2376
ᏲᏍᏙᏓᏁᎸ	-11.2397
ᏔᎳᏬᎯ	-11.2409
ᏣᎴᏛ	-11.241
ᎤᎶᏒᎩ	-11.2414
ᏄᎮᎵ	-11.2432
▁ᎠᎾᎵᏍᏓᏴᏗᏍ	-11.2438
ᎬᏩᎵᎥᏂ	-11.2453
ᏜᏗᏍ	-11.2472
▁ᎤᎾᏛᏓᏍ	-11.2473
ᏴᏓᏆᎶᏍ	-11.2477
ᏥᏪᏎᎸᎭ	-11.2501
ᏨᎨᏫ	-11.2514
ᏍᎦᎢᎲᎢ	-11.2531
▁ᎢᏓᏙᎴᎰᎯ	-11.2545
ᏂᎸᏫᏍᏓᏁᎸ	-11.2563
ᎦᏥᏅᏬᏗ	-11.2577
ᏢᏈᏍᎦ	-11.2582
ᎵᏰᎢᎸᏍ	-11.2594
▁ᏭᏂᏴᎴ	-11.2613
▁ᎤᏓᏙᎵᏍᏔᏁ	-11.2614
▁ᎤᏂᏇᏓᎸ	-11.2618
▁ᎣᏥᏬᏂ	-11.2623
▁ᏓᎾᏕᏲᎲᏍ	-11.2632
▁ᏂᏓᎾᏓ	-11.2641
ᎨᏳᏐ	-11.2644
ᎦᎾᏄᎪᎬ	-11.2654
▁ᏅᏗᎦᎵᏍᏙ	-11.266
ᎵᏱᎵᏕ	-11.2662
ᏍᏕᎵᏍᎪ	-11.2663
ᏏᎾᏌᏅ	-11.2663
▁ᎤᏁᎷᏅ	-11.2665
ᎵᎮᎵᏨᎯ	-11.2678
ᎠᎵᏍᏓᏴᎲᏍᎬ	-11.2689
▁ᎠᏯᏫᏍ	-11.2692
ᏓᎩᎸᏫᏍᏓᏁᎲ	-11.2693
ᎤᎬᏫᏳᎭ	-11.2693
ᏧᏂᎸᏫᏍᏓᏁᎯ	-11.2695
ᎬᏂᎨᏒ	-11.2696
ᏚᏳᎪᏛ	-11.2696
ᏥᏄᎪᏫᏍᏗ	-11.27
ᏂᏐᏢᎢᏍᏙᏗ	-11.2706
▁ᏫᏨᎷᏤᏗ	-11.2708
▁ᏇᏗᏂ	-11.2709
▁ᎢᏳᏩᏂᏐᏗ	-11.2709
ᎤᏓᏅᏒ	-11.271
ᎨᏥᏍᏕᎸᏗ	-11.2711
▁ᏓᎾᎵᏍᏓᏴ	-11.2713
ᏂᏚᏪᏎᎴ	-11.2714
ᏂᏣᏛᏁᎴ	-11.2718
ᎿᏍᏕᏢ	-11.2722
ᏩᏘᏍᎨᏍᏗ	-11.2722
ᎷᏏᎵᎻ	-11.2722
ᎾᏝᎥᎾ	-11.2724
ᎵᏂᎪᎯᏍᏔᏅ	-11.2725
▁ᎤᎵᏖᎸ	-11.2731
ᏁᏤᎮᏍᏗ	-11.2736
ᎾᏰᏍᎨᏍᏗ	-11.2738
ᏓᎴᎲᏍᎬᎩ	-11.2738
ᏣᎵᎡᎵᏤᏗ	-11.2738
ᏩᏙᎯᏯᏛ	-11.274
ᎨᏳᏒᎾ	-11.2741
ᏣᏍᏆᏂᎪ	-11.2742
ᏂᏍᏆᏂᎪᏍᎨ	-11.2742
ᏂᏐᏢᎢᏍᏗᏍ	-11.2742
ᏄᏩᏂᏌᏅ	-11.2742
ᎦᏥᏯᏠᎢᏍᏓᏁ	-11.2742
▁ᎠᎾᎵᏍᏓᏴᏂᏙᎮ	-11.2743
▁ᎠᏛᏅᎢᏍᏔᏃ	-11.2743
▁ᏂᎦᏥᏪᏎᎭ	-11.2743
▁ᏱᏅᏧᎵᏍᏙᏔᏁ	-11.2743
▁ᏱᏓᎧᎿᏩᏕ	-11.2743
~	-11.2743
ᎦᎵᏥᏙᎲᏍᎦ	-11.2743
ᎩᏪᏎᎲᎩ	-11.2743
ᎵᏍᏡᏰᎢ	-11.2743
ᎵᏖᎸᏂ	-11.2743
ᎶᏄᎮᎸᎩ	-11.2743
ᏍᎫᏕᏎ	-11.2743
ᏍᏓᏩᏕᎪᎢ	-11.2743
ᏍᏕᎵᏌᏕᏒᎭ	-11.2743
ᏗᎨᏥᏰᎪᎢ	-11.2743
ᏙᏥᎵᏦᏛᎦ	-11.2743
ᏣᏪᏐᎸᏍᏓ	-11.2743
ᏧᎪᏓᏏ	-11.2743
ᏨᎾᏄᏫᏎᎭ	-11.2743
▁ᎠᎦᏔᏙᎥᏗᏍᎩ	-11.2743
▁ᎠᎩᎷᏤᎮᏍᏗ	-11.2743
▁ᎠᎵᏍᏓᏴᎲᏍᎩ	-11.2743
▁ᎠᎵᏱᎵᏒᎢ	-11.2743
▁ᎠᎾᎵᏍᏓᏴᎲᏍᎩ	-11.2743
▁ᎠᏁᎷᎲᏍᎨ	-11.2743
▁ᎠᏂᎦᏲᎵᏉ	-11.2743
▁ᎠᏂᏁᏄᎳᏍᏗᏍᎪ	-11.2743
▁ᎠᏆᎵᎮᎵᏨᎩ	-11.2743
▁ᎠᏍᏆᏂᎪᏍᎨ	-11.2743
▁ᎠᏓᏅᏬᎯᏍᏗᏍᎩ	-11.2743
▁ᎠᏓᏓᏱᎮᏍᏗ	-11.2743
▁ᎡᎭᏠᎠᎯ	-11.2743
▁ᎡᎵᎣᏈᎦ	-11.2743
▁ᎢᎡᏍᏕᎵᏌᏕ	-11.2743
▁ᎢᎤᎾᏨᏎ	-11.2743
▁ᎢᎵᎡᏌ	-11.2743
▁ᎢᏍᏙᏎᎸᎭ	-11.2743
▁ᎢᏤᎳᏗᏙᎭ	-11.2743
▁ᎢᏥᎩᎵᏲᎬᎢ	-11.2743
▁ᎢᏨᏯᏓᏅᏖ	-11.2743
▁ᎢᏨᏰᎳᏗᏙᎮᏍᏗ	-11.2743
▁ᎢᏯᎩᏪᏍᏗᏱ	-11.2743
▁ᎢᏰᎬᏁᎸᎯ	-11.2743
▁ᎤᎾᎴᎾᎸᎯ	-11.2743
▁ᎤᎾᏁᎶᏔᏁ	-11.2743
▁ᎤᎾᏓᏄᏴᏗ	-11.2743
▁ᎤᏁᏄᎳᏍᏔᏁᎢ	-11.2743
▁ᎤᏍᎦᏅᏥᏙᎸ	-11.2743
▁ᎤᏓᏦᎯᏯ	-11.2743
▁ᎤᏔᎳᏬᏍᎬᎢ	-11.2743
▁ᎤᏗᎴᎲᏍᎨᎢ	-11.2743
▁ᎤᏪᏯᎸᏤᎢ	-11.2743
▁ᎤᏲᏏᏌᏁᎢ	-11.2743
▁ᎦᎳᎨᏴ	-11.2743
▁ᎦᏟᏏᏍᎨᏍᏗ	-11.2743
▁ᎨᏤᎳᏗᏙᎭ	-11.2743
▁ᎨᏤᎳᏗᏙᎮᏍᏗ	-11.2743
▁ᎭᏓᎦᏖᏙᎢᏍᎨᏍᏗ	-11.2743
▁ᎭᏙᏯᏅᎯ	-11.2743
▁ᎾᎫᎢᏍᏛᎾ	-11.2743
▁ᎾᏂᎦᏔᎿᎥᎾ	-11.2743
▁ᏂᎠᏂᏪᎭ	-11.2743
▁ᏂᎧᏪᏍᎬᎩ	-11.2743
▁ᏂᏥᏲᎯᏍᏗᏍᎬᎾ	-11.2743
▁ᏄᎾᏓᏁᏟᏴᏎᎢ	-11.2743
▁ᏅᏋᏁᎸ	-11.2743
▁ᏅᏓᎨᏥᏅᏏᏛ	-11.2743
▁ᏅᏩᏍᏗᏗᏎᏍᏗᏉ	-11.2743
▁ᏍᏇᎵᏎᏗᏱ	-11.2743
▁ᏐᎣᏁᎵᏁ	-11.2743
▁ᏓᎪᏄᎶᏏᏙᎮᏍᏗ	-11.2743
▁ᏓᎵᏖᎸᏂᏙᎮᏍᏗ	-11.2743
▁ᏓᏛᎯᏍᏓᏁᎮᏍᏗ	-11.2743
▁ᏓᏳᏂᏄᎪᏨᎩ	-11.2743
▁ᏕᎦᎫᏍᏓᎥ	-11.2743
▁ᏕᎫᎪᏗᏍᎬ	-11.2743
▁ᏕᏓᎧᏂᏍᎬ	-11.2743
▁ᏕᏥᏅᎪᎥᏗᏍᎨᏍᏗ	-11.2743
▁ᏕᏥᏅᏫᏍᎨᏍᏗ	-11.2743
▁ᏕᏦᏢᎯᏏ	-11.2743
▁ᏗᎬᏩᎾᏛᎪᏙᏗ	-11.2743
▁ᏗᎳᏑᎶ	-11.2743
▁ᏗᏔᎳᏗᏍᏗᏱ	-11.2743
▁ᏙᏓᎨᏥᏲᎯᏎᎵ	-11.2743
▁ᏙᏓᏰᏣᏬᏍᏔᏂ	-11.2743
▁ᏙᏓᏳᎸᏫᏍᏓᏁᎵ	-11.2743
▁ᏙᏛᎠᎴᎯᏌᏂ	-11.2743
▁ᏙᏛᏂᏴᎳᏏ	-11.2743
▁ᏚᏂᏖᎸᏁ	-11.2743
▁ᏚᏌᎳᏓᏁ	-11.2743
▁ᏚᏬᏕᎯᎰᎢ	-11.2743
▁ᏚᏰᎵᏏᏙᎴᎢ	-11.2743
▁ᏠᏆᎹ	-11.2743
▁ᏣᏍᏕᏅᏨ	-11.2743
▁ᏣᏓᏪᎵᎩᏍ	-11.2743
▁ᏥᎨᏣᏓᏑᏯ	-11.2743
▁ᏥᎳᏇᎵ	-11.2743
▁ᏥᏯᎵᎪᏁᎯ	-11.2743
▁ᏩᏂᎶᏒᎭ	-11.2743
▁ᏫᏰᏣᏓᎢ	-11.2743
▁ᏫᏱᏣᏴ	-11.2743
▁ᏯᏥᏯᏝ	-11.2743
▁ᏱᎾᏥᎸᏉᏙ	-11.2743
▁ᏱᏅᏓᎦᎵᏍᏙᏓ	-11.2743
▁ᏱᏍᎩᏲᎢᏳᏁᎢ	-11.2743
▁ᏱᏙᎬᏩᎸᏫᏍᏓᏏ	-11.2743
▁ᏱᏚᏓᏌᏝᎮᏍᏗ	-11.2743
▁ᏱᏨᏲᏪᎳᏁᎭ	-11.2743
▁ᏳᏍᎦᏅᏨ	-11.2743
▁ᏴᎨᏦᎯᏳᎲᎦ	-11.2743
▁ᏴᏗᏓᎴᎲᏍᎦ	-11.2743
▁ᏴᏛᏂᎶᏐᏂ	-11.2743
ᏥᎦᏖᏃᎮᏍᏗ	-11.2743
ᏯᏘᏃᎯᏏ	-11.2743
▁ᎠᎦᏠᏯᏍᏔᏅᎩ	-11.2743
▁ᎠᎩᏔᏕᎩᏍᎬ	-11.2743
▁ᎠᏆᏚᎸᎲ	-11.2743
▁ᎤᎾᏟᎶᎥ	-11.2743
▁ᎤᏍᏆᎸᎯᏕ	-11.2743
▁ᏄᎾᏙᏓᏈᏒ	-11.2743
▁ᏕᎤᎸᏫᏍᏓᏁᎸ	-11.2743
▁ᏣᏓᎨᏳᏒ	-11.2743
ᎦᏌᏯᏍᏔᏁ	-11.2743
ᏅᏓᎨᏨᏁᎵ	-11.2743
▁ᎠᏂᎾᏰᏍᎩ	-11.2743
▁ᎠᏂᏬᏂᏍᎩ	-11.2743
▁ᎠᏂᏯᏙᎯᎯ	-11.2743
▁ᎠᏆᏁᎳᏫᏎ	-11.2743
▁ᎠᏍᏆᎨᏂ	-11.2743
▁ᎡᎾᎢᏓᏍᏗᏱ	-11.2743
▁ᎢᏥᏴᎯᎮᏍᏗ	-11.2743
▁ᎤᎵᏍᎪᎸᏔᏁ	-11.2743
▁ᎤᏂᏂᏴᎮ	-11.2743
▁ᎤᏍᏆᎷᎪ	-11.2743
▁ᎥᏆᎸᎥ	-11.2743
▁ᎯᏯᏓᏙᎵᏍᏓᏁᎮᏍᏗ	-11.2743
▁ᎾᏓᏛᏁᎲᎢ	-11.2743
▁ᏂᏚᎿᏍᏕᏢᎾ	-11.2743
▁ᏍᎩᏲᎢᏳᎲᎦ	-11.2743
▁ᏒᎦᏙᎯ	-11.2743
▁ᏓᎬᏍᏓᏩᏗᏙᎵ	-11.2743
▁ᏕᏣᏓᎨᏳᏒ	-11.2743
▁ᏕᏥᎨᏳᏒ	-11.2743
▁ᏚᏍᏆᎸᏔᏅ	-11.2743
▁ᏥᏍᏚᏂᎩᏍᏗ	-11.2743
▁ᏬᎩᏃᎸᎩ	-11.2743
▁ᏮᏓᎦᎶᏏ	-11.2743
▁ᏱᏂᎦᎵᏍᏗᎭ	-11.2743
▁ᏱᏅᏎᎦᎩ	-11.2743
▁ᏳᏥᏍᎪᎸ	-11.2743
ᎦᏌᏯᏍᏛᎾ	-11.2743
ᏓᏓᏅᏖᏍᎬᎢ	-11.2743
ᏧᎪᏓᏁᎯ	-11.2743
▁ᎠᏥᏌᎳᏓᏅ	-11.2743
▁ᎢᏍᏉᏎᎭ	-11.2743
▁ᎣᏣᏓᏅᏟ	-11.2743
▁ᎤᏂᏐᏢᎢᏍᏔᏅᎩ	-11.2743
▁ᎦᏃᎴᏍᎬ	-11.2743
▁ᎬᏩᏁᏄᎳᏍ	-11.2743
▁ᏂᎦᎸᏉᏗᏍᎬᎾ	-11.2743
▁ᏂᎪᎵᎬᎾ	-11.2743
▁ᏅᏩᏛᏁᏍᏗ	-11.2743
▁ᏌᎳᏓᏱᎵ	-11.2743
▁ᏍᎩᏯᏅᏓᏗᏍᎬᎢ	-11.2743
▁ᏓᎧᎿᏩᏕ	-11.2743
▁ᏓᏓᏬᏍᏗᏍᎬᎩ	-11.2743
▁ᏗᏑᏫᏍᎩ	-11.2743
▁ᏚᏃᏣᎶᏤ	-11.2743
▁ᏚᏯᏙᎮ	-11.2743
▁ᏥᏨᏯᎵᏥᏙᏁ	-11.2743
▁ᏧᏃᏕᏍᏗᏍᎩ	-11.2743
▁ᏫᎾᏴᎯ	-11.2743
▁ᏯᏎᎦᎩ	-11.2743
▁ᏱᎦᏥᎪᎥᏍᎦ	-11.2743
▁ᏱᏂᏣᏍᏕᏍᏗ	-11.2743
▁ᏱᏣᏁᎢᏍᏔᏁᏍᏗ	-11.2743
ᏣᏘᏃᎯᎮᏍᏗ	-11.2743
▁ᎠᎾᎵᏖᎸᎲᏍᎬ	-11.2743
▁ᎠᏂᏯᏙᎯᎲ	-11.2743
▁ᎢᏣᏠᏯᏍᏙᏗ	-11.2743
▁ᎤᎵᏏᎲᏎ	-11.2743
▁ᎤᎾᏁᎷᎩ	-11.2743
▁ᎤᏁᎳᏫᏎᎲ	-11.2743
▁ᎤᏂᏌᎳᏓᏁ	-11.2743
▁ᎤᏄᏖᏎ	-11.2743
▁ᎤᏍᎫᏕ	-11.2743
▁ᎤᏱᎸᏒᎩ	-11.2743
▁ᎦᏴᏓᏗ	-11.2743
▁ᎯᏍᏓᏩᏕ	-11.2743
▁ᎾᏂᏴᎬᎾ	-11.2743
▁ᏂᏤᎵᏍᎬᎾ	-11.2743
▁ᏄᎵᏍᏚᎸᎾ	-11.2743
▁ᏓᎭᏬᎢ	-11.2743
▁ᏓᏉᏙᎥ	-11.2743
▁ᏗᏤᏲᎲᏍᎩ	-11.2743
▁ᏥᏫᏗᎨᎦᏘᏅᏍᏔᏁ	-11.2743
▁ᏫᏓᏗᏅᏗ	-11.2743
ᎵᏍᏘᏂᎸ	-11.2743
ᏄᏩᎥᎾ	-11.2743
ᏍᏓᏩᏕᎦ	-11.2743
ᏍᏚᎢᎡᎴ	-11.2743
ᏟᎶᏍᏓᏁᎭ	-11.2743
ᏥᏍᏓᏩᏕᎨᏍᏗ	-11.2743
▁ᎠᎾᏓᎩᎡᎯ	-11.2743
▁ᎾᎾᎵᏍᏗᎭ	-11.2743
▁ᏗᎫᎪᏓᏁᎯ	-11.2743
▁ᏗᏣᏠᏱᎸᎩ	-11.2743
▁ᎠᏍᏆᎵᏍᎬ	-11.2743
▁ᎢᏣᎵᏂᎬᏁ	-11.2743
▁ᎨᏥᏍᎩᏅᏗᏍ	-11.2743
▁ᏍᎩᎨᏳᎭᏧ	-11.2743
▁ᏓᏂᏂᏓᏛ	-11.2743
▁ᏗᏂᏁᏟᏴᏍᎩ	-11.2743
▁ᏚᎪᏓᏁᎯ	-11.2743
▁ᏥᏂᎦᏛᏁᎭ	-11.2743
▁ᏗᏩᎾᎨ	-11.2743
ᎤᎿᏍᎬᏤ	-11.2743
ᎯᏞᏫᏒ	-11.2743
ᎺᏌᏯ	-11.2743
▁ᎢᎫᏓᎴᏍᏗᏱ	-11.2743
▁ᎢᏣᎵᏍᏓᏴᏗᏍᎨᏍᏗ	-11.2743
▁ᎣᎦᏂᎩᏒᎩ	-11.2743
▁ᎤᎾᏕᎶᏆᏍᏗᏱ	-11.2743
▁ᎤᏓᏠᏍᏔᏅᎩ	-11.2743
▁ᏂᏥᏪᏒᎭ	-11.2743
▁ᏗᏇᏅᏒ	-11.2743
▁ᏗᏓᎪᏗᏍᎩ	-11.2743
▁ᏧᎦᎿᏁ	-11.2743
▁ᏧᏁᎩᏳ	-11.2743
▁ᎠᎵᏍᎪᎸᏓᏁᏗ	-11.2743
▁ᎤᏙᎴᎱ	-11.2743
▁ᎦᎶᏐᏅᎭ	-11.2743
▁ᎬᏬᏍᏔᏅᎯ	-11.2743
▁ᏛᎵᏛᏔᏂ	-11.2743
▁ᏥᎧᏃᎮᎭ	-11.2743
▁ᎠᏆᏓᏤᎵᎦ	-11.2743
▁ᏄᎾᏓᏅᏛᎾ	-11.2743
▁ᏄᏲᎱᏒᎩ	-11.2743
▁ᏣᎪᏎᎰᎢ	-11.2743
▁ᏥᏂᏴᏁᎭ	-11.2743
▁ᎡᏓᏤᎵᎦ	-11.2743
▁ᎤᎾᏗᏒᎸ	-11.2743
▁ᎤᎾᏣᏪᏐᎸᏍᏙᏗᏱ	-11.2743
▁ᎤᏂᏄᎸᏅ	-11.2743
▁ᎨᎪᏢᏅᎯ	-11.2743
▁ᏠᏗᏯ	-11.2743
▁ᏧᏓᎴᏅᏔᏅᎯ	-11.2743
ᏥᏟᏏᏍᎨᏍᏗ	-11.2743
▁ᎢᏲᎦᏛᏁᏗᏱ	-11.2743
▁ᏚᏂᏍᏆᎸᏔ	-11.2743
▁ᏚᏅᏂᏍᏔᏁ	-11.2743
▁ᏩᎩᎶᏒᎩ	-11.2743
ᎾᎵᏔᏗᏅ	-11.2743
▁ᏚᎾᏗᏩᏍᎨ	-11.2743
▁ᎡᏣᏓᏅᏛᎵ	-11.2743
▁ᎤᎾᎳᏍᏓᎡᏗ	-11.2743
ᏍᏓᏩᏕᏏ	-11.2743
ᏎᎪᎩᏏ	-11.2743
ᏥᏍᎩᏅᏛᎯ	-11.2743
▁ᎤᏟᎶᎥᎩ	-11.2743
▁ᏂᏣᏓᏅᏛᎾ	-11.2743
▁ᏛᎾᏛᎦᏂ	-11.2743
▁ᎠᎦᏬᎥ	-11.2743
▁ᏅᏛᏅᏁᎵ	-11.2743
▁ᏗᎦᎾᎯᏍᏙᏗ	-11.2743
▁ᏭᏂᏴᏍᏗᏱ	-11.2743
ᎵᎦᎵᏴᏒ	-11.2743
ᏤᏲᎲᏍᎦ	-11.2743
▁ᎠᎦᏬᎡᎢ	-11.2743
▁ᎠᎾᎵᏅᏢ	-11.2743
▁ᎨᎦᏎᏍᏗᏱ	-11.2743
▁ᏙᏗᎧᏅᎢ	-11.2743
▁ᏧᎾᏙᎢᏛ	-11.2743
▁ᎠᎩᏍᏆᏗᏍᏗᏱ	-11.2743
▁ᎠᏆᏙᎴᎰᎯᏍᏗᏱ	-11.2743
▁ᎢᏏᎳᎻ	-11.2743
▁ᏗᏂᏏᎲᏍᎩ	-11.2743
ᎶᎥᏔᏂ	-11.2743
ᏯᏛᎦᏁᎵ	-11.2743
▁ᏁᎨᏒᎾ	-11.2743
▁ᏓᎦᎫᏴᎯ	-11.2743
ᎵᏍᎦᏂᏍᏛ	-11.2743
▁ᏍᎩᏯᏕᎶᏆᎡ	-11.2743
▁ᎤᏃᎮᏗᏱ	-11.2743
▁ᏓᏁᏙᎲᎩ	-11.2743
▁ᏚᎵᏍᏚᎸᎩ	-11.2743
▁ᏣᏓᏅᏖᏗᏱ	-11.2743
▁ᏩᏂᎦᏛ	-11.2743
▁ᎠᎾᏙᎴᎰᏍᎨᏍᏗ	-11.2743
▁ᎤᏓᏳᏓᎴᏅᎯ	-11.2743
▁ᏗᏟᏍᏙᏗ	-11.2743
▁ᏱᏗᏥᏍᏓᏲ	-11.2743
ᎶᎾᏍᏗᏍᎨᏍᏗ	-11.2743
ᏁᎢᏍᏓᏁᎭ	-11.2743
▁ᎠᎦᏘᏅᏍᏗᏱ	-11.2743
▁ᎤᏂᏬᏂᏒ	-11.2743
▁ᏍᎩᏁᎲᏏ	-11.2743
▁ᏓᏰᎵᎯᏍᏗᏍᎬ	-11.2743
▁ᏕᎦᏥᏯᏠᎢᏍᏓᏁᎸ	-11.2743
ᎩᏲᏍᏙᏓᏁ	-11.2743
▁ᏫᏙᏓᎨ	-11.2743
▁ᎢᏥᎪᎵᏰᎥᎭ	-11.2743
▁ᏳᏲᎱᏎᎸ	-11.2743
▁ᎤᏪᏣᏄ	-11.2743
▁ᏓᏳᏓᎴᏅᎩ	-11.2743
▁ᎠᎩᏬᏂᎯᏍᏗᏱ	-11.2743
▁ᎠᏆᎵᏌᎳ	-11.2743
▁ᎤᏂᏍᏛᏛᎯ	-11.2743
▁ᏓᏂᎳᏫᎡ	-11.2743
▁ᎠᎩᏲᎱᎯᏍᏗᏱ	-11.2743
▁ᎪᏚᎢᏍ	-11.2743
ᏐᏢᎢᏍᏔ	-11.2743
▁ᎠᏓᎾᏌᎲᏍᎩ	-11.2743
▁ᎤᎾᏓᏁᏟᏴᏒᏒ	-11.2743
▁ᏈᏥᏱ	-11.2743
ᏆᏓᎾᏰᏍ	-11.2743
▁ᎤᎵᏰᎢᎶᎸ	-11.2743
▁ᎤᎾᎵᏍᏓᏴᏁ	-11.2743
ᎵᏂᏆᏅᏅ	-11.2743
▁ᎠᏯᎣᎢ	-11.2743
▁ᎠᏥᏅᏩᏅᎢ	-11.2743
ᎯᎬᏍᎪᎸᎥᏍᎨᏍᏗ	-11.2743
▁ᏤᏣᏛᏅᎩ	-11.2743
▁ᎤᏓᏅᏓᏕᎢ	-11.2743
▁ᏚᎾᏚᏓ	-11.2743
▁ᏫᏄᏪᏎᎢ	-11.2743
▁ᏳᏴᎵᎸ	-11.2743
▁ᎠᎵᏰᎢᎶᎦ	-11.2743
▁ᎤᏬᏂᏎᎢ	-11.2743
▁ᏑᏓᎵᏍᎪᎯ	-11.2743
▁ᏚᏅᏫᏍᏔ	-11.2743
ᏂᏆᏘᎸ	-11.2743
▁ᏄᏍᏗᏕᎬᎢ	-11.2743
▁ᏗᏂᏁᎵᏛ	-11.2743
ᏗᎩᏴᎩ	-11.2743
▁ᎠᏙᏂᏍᎩ	-11.2743
▁ᏄᏩᏂᏌᏅᎩ	-11.2743
ᏚᎾᏓᏩᏛᏔᏁᎢ	-11.2743
▁ᏚᏰᎵᏒ	-11.2743
▁ᏦᏥᏰᎸᎢ	-11.2743
ᎾᏖᏉᎶ	-11.2743
▁ᎠᏂᏐᏢᎢᏍᏗᏍᎩ	-11.2743
▁ᎠᏓᏬᏍᏗᏱ	-11.2743
▁ᏚᏍᏕᎸᎯᎸ	-11.2743
▁ᏚᏪᏙᎵᏨ	-11.2743
▁ᏥᏚᏃᎱ	-11.2743
ᏍᏆᎸᎮ	-11.2743
▁ᎤᏂᎪᎵᏰᏗᏱ	-11.2743
▁ᎢᎦᏠᏯᏍᏙᏗ	-11.2743
▁ᎤᏓᏴᏒᎩ	-11.2743
▁ᏚᏂᏐᏨ	-11.2743
▁ᏭᎵᏰᎢᎶᎸ	-11.2743
▁ᎠᏲᏍᏙᏗᏍ	-11.2743
▁ᎢᏥᏂᎬᏎᎲᎢ	-11.2743
▁ᎠᏍᏚᎢᏍᎩ	-11.2743
▁ᎤᎵᏍᏚᎸᎩ	-11.2743
▁ᎠᏉᏪᎳᏅ	-11.2743
▁ᏣᎷᎯᏍᏗᏱ	-11.2743
▁ᎢᏣᎫᏱᏍ	-11.2743
▁ᏗᎦᏩᏒᎩ	-11.2743
▁ᏩᎦᏖᎢ	-11.2743
▁ᎢᎪᎯᏳᏒ	-11.2743
▁ᎤᏍᏆᎸᏗ	-11.2743
▁ᏫᎬᏩᏂᏴ	-11.2743
▁ᎢᎦᏚᏓᎴᏍᏙᏗᏱ	-11.2743
▁ᎣᎩᎦᎵᏍᏓᏗᏍ	-11.2743
▁ᏣᏱᎵᏙᎯ	-11.2743
▁ᎾᏞᎬ	-11.2743
▁ᏓᏍᏕᎵᏍᎬᎩ	-11.2743
▁ᎥᏘᏍᎩ	-11.2743
▁ᏱᎯᎦᏔᎮ	-11.2743
▁ᎤᏬᎯᏤ	-11.2743
▁ᎬᏩᏂᏃᎮᏗ	-11.2743
▁ᏳᏂᎪᎮᎢ	-11.2743
▁ᎤᎾᏓᏙᎵᏍᏔᏁ	-11.2743
▁ᎠᏍᎦᏲᎯ	-11.2743
ᎾᏓᏛᏍᎬᎾ	-11.2743
▁ᎢᏨᎥᏏ	-11.2743
▁ᎠᎩᎾᏄᎪᏫᏎᎸᎩ	-11.2743
▁ᏫᏕᏣ	-11.2743
▁ᎢᏥᎷᎨᏍᏗ	-11.2744
▁ᏍᎩᏂᏙᎵᎩ	-11.2744
▁ᎪᎵᎦᏓ	-11.2744
▁ᎾᏆᎵᏍᏓᏁᎵᏕᎬ	-11.2744
▁ᏳᏓᏅᏒ	-11.2744
▁ᎤᎧᎵᏦᏅ	-11.2744
▁ᎤᎵᏍᏓᏴᏅ	-11.2744
▁ᎤᏪᎧᏁᎢ	-11.2744
ᏃᎯᏳᎲᏍᎨ	-11.2744
▁ᎠᏂᎦᏘᏴ	-11.2744
▁ᎠᎫᏴᎡᏗᏱ	-11.2744
▁ᏥᎦᏚᎭ	-11.2744
▁ᎠᎩᎷᏤᎸᎩ	-11.2744
▁ᎢᏨᏁᏤᎸᎢ	-11.2744
▁ᎤᏂᎸᏉᏔᏅᎩ	-11.2744
▁ᏌᏗᏏ	-11.2744
▁ᎤᏓᏅᎡᎴᎢ	-11.2744
▁ᏓᏂᎧᎿᏩᏗ	-11.2744
▁ᏥᏍᎦᏅᎩ	-11.2744
▁ᏫᏚᎾᏘᏃᎮᎸᎩ	-11.2744
▁ᎠᏥᏚᎢᏍᏓᏁᎸ	-11.2744
▁ᎠᎩᏁᎢᏍᏗᏱ	-11.2744
ᎵᏍᏙᏔᏁ	-11.2744
▁ᎢᏨᏯᏅᏓᏗᏍᏗᏍᎬᎢ	-11.2744
▁ᏗᏂᏃᎩᏍᏗᏍ	-11.2744
▁ᎢᏍᎩᎪᏩᏘᏍᎨᏍᏗ	-11.2744
ᏓᏯᏂᏍᎪ	-11.2744
▁ᎤᎾᏤᎸᎯ	-11.2744
▁ᎤᎪᎵᏰᏗᏱ	-11.2744
▁ᎤᏘᏃᎴᎢ	-11.2744
▁ᏥᏓᏓᏂᎸᎪᎢ	-11.2744
▁ᎤᎾᏂᎩᏎ	-11.2744
▁ᏌᎾᏱ	-11.2744
▁ᎤᎾᏣᏅᎩ	-11.2744
▁ᏂᎦᏅᎯᏒ	-11.2744
▁ᏗᏓᎴᎲᏍᎪ	-11.2744
▁ᏭᏂᎦᏐᎠ	-11.2744
▁ᎠᏍᏚᎢᏛ	-11.2744
ᏫᎨᏙᎲ	-11.2744
ᏥᏂᏆᏘᎲ	-11.2744
▁ᎤᏚᎵᏍᎩ	-11.2744
▁ᎤᏬᏂᎯᏍᏗᏱ	-11.2744
▁ᏂᎦᎵᏍᏔᏂᏙᎮᏍᏗ	-11.2744
▁ᏳᏩᏛᎮᎢ	-11.2744
▁ᏅᏓᎬᏴᏁᎵ	-11.2744
▁ᎢᏥᏁᎢᏍᏗᏱ	-11.2744
ᎩᏍᏕᎸᎯᏙᎸ	-11.2745
▁ᎢᏥᏲᎮᏍᏗ	-11.2745
▁ᏂᏚᏂᎨᏳᏒ	-11.2745
▁ᎢᏥᎦᎵᏍᏓᏗᏍ	-11.2745
ᎦᎵᎥᏂ	-11.2745
ᏩᏝᎥ	-11.2745
▁ᏱᏍᎩᎪᏩᏘᏍᎨᏍᏗ	-11.2745
▁ᎤᏁᎵᏎᎢ	-11.2745
▁ᏚᏂᎳᏫᏛ	-11.2745
ᎩᎵᎨᏂ	-11.2745
▁ᎠᏆᏟᏂᎬᏁᎸ	-11.2745
▁ᏳᏰᎸᎭ	-11.2745
▁ᏗᎾᏓᏙᏕᏍᏗᏍᎩ	-11.2745
ᎦᏐᎠ	-11.2745
▁ᎠᏌᏍᏛ	-11.2745
▁ᎤᏅᏓᏛ	-11.2745
▁ᏧᏲᏏᏍᎨ	-11.2745
▁ᏌᎩᏯ	-11.2745
▁ᏱᏓᏲᎩ	-11.2745
▁ᎤᎦᎾᏬᏍᎬ	-11.2745
▁ᎢᎦᏪᏍᎩ	-11.2745
ᎾᏓᏃᎮᎵᏙᎯ	-11.2745
ᏓᎢᏅᏎᎢ	-11.2745
▁ᏭᏘᏅᏍᏔᏅ	-11.2745
ᏮᏕᏨ	-11.2745
▁ᎢᎪᎯᏳᏅ	-11.2745
▁ᎤᏒᎦᎸᎩ	-11.2745
▁ᏄᏓᏛᏁᎴ	-11.2745
ᏚᏛᏛᏅᎩ	-11.2745
▁ᎤᎬᏍᎪᎸᏁᎢ	-11.2746
▁ᎤᏓᏴᏛ	-11.2746
ᏁᎶᏕᏍᏗ	-11.2746
ᏂᏙᎸᎯ	-11.2746
▁ᎠᏂᎶᏍᎩ	-11.2746
▁ᎤᎬᎥᏍᎬ	-11.2746
▁ᎤᎾᏛᏂᏛ	-11.2746
ᏓᏛᏳᏤ	-11.2746
▁ᎢᏥᎶᏁ	-11.2746
▁ᎢᏥᏫᏅ	-11.2746
▁ᏭᏃᏁᎸᎩ	-11.2746
▁ᏓᎨᏏ	-11.2746
ᎳᏅᏓᏕᎸ	-11.2746
▁ᎡᎯᏄᎪᎢ	-11.2746
ᏝᏫᏍᏗ	-11.2746
▁ᎤᏁᎵᏒᎩ	-11.2746
ᏬᏁᏓ	-11.2746
ᏫᏂᏴ	-11.2747
ᏥᏅᎦᎸᎡ	-11.2747
ᎬᏔᏂᏓᏍᏗ	-11.2747
▁ᎤᏓᏅᏘᏌᏅ	-11.2747
▁ᏫᎷᎩ	-11.2747
▁ᏱᏣᏕᏯᏔᏁ	-11.2747
▁ᎢᏥᎾᏫ	-11.2747
ᏂᏚᏩᏁᎴᎢ	-11.2747
▁ᎤᎵᏰᏔᏁ	-11.2747
▁ᎬᏩᏕᎰᎯᏍ	-11.2747
▁ᏂᏚᏛᏁᎴ	-11.2747
▁ᏩᎾᎢᏒ	-11.2747
▁ᎠᏥᏐᏅᏅ	-11.2748
ᎵᏥᏙᏁᎭ	-11.2748
▁ᏱᏙᎩᎸᏫᏍᏓᏁ	-11.2748
▁ᏚᏂᎩᏒᎩ	-11.2748
▁ᏚᏕᏲᏅ	-11.2748
▁ᎠᎩᏲᏏᏍᎬ	-11.2748
▁ᏥᏤᎾ	-11.2748
▁ᏒᏍᎦ	-11.2748
▁ᏫᏚᏂᏲᎯᏎ	-11.2748
▁ᎤᏛᏒᎯ	-11.2748
▁ᎢᏨᏅᎵ	-11.2749
ᏁᏯᏔᎲ	-11.2749
▁ᎠᏓᏛᏂᏗᏍ	-11.2749
ᎾᏍᏆᎶᏍ	-11.2749
▁ᎠᏇᏲᏅ	-11.2749
▁ᎤᎾᎪᎸ	-11.2749
ᎾᎴᏲᎥ	-11.2749
▁ᎠᏅᏍᎬᎢ	-11.2749
ᎫᏘᎶ	-11.2749
ᎪᎯᏳᎲᏍᎪ	-11.275
▁ᎬᏩᏯᏫᏍ	-11.275
▁ᎡᏤᎵᏎ	-11.275
▁ᎤᎵᎶᎲᏍ	-11.2751
▁ᎾᏆᏛᏅ	-11.2751
ᏓᏂᎸᎪᎢ	-11.2751
ᎾᏓᎵᏁᎯᏕ	-11.2752
▁ᎨᎬᏍᎦᎳᏁ	-11.2752
▁ᎠᏆᎵᏃᎮᏔᏅ	-11.2752
▁ᎦᎧᎮ	-11.2753
▁ᎤᎾᏣᎡ	-11.2753
ᏙᎬᏛᏂᏏ	-11.2753
▁ᎬᏩᏰᏍᏔᏁ	-11.2753
▁ᏧᏲᎱᏒ	-11.2754
▁ᏓᏅᏗᏍᎬ	-11.2754
▁ᏘᎦᎵᏍᏙ	-11.2754
ᏚᏂᏢᎬ	-11.2754
▁ᎠᏕᎰᎯᏍᏗ	-11.2755
ᏑᏴᏁ	-11.2755
ᏣᏓᏅᎡᎸ	-11.2755
ᏕᎪᏢᎾ	-11.2755
ᏩᏛᎡᎮ	-11.2755
ᏂᎵᏅᏨ	-11.2755
ᏥᏯᏫᏍᎬ	-11.2756
▁ᎤᏚᎢᏍᏓᏁᎸ	-11.2757
ᏂᏌᏅᎯ	-11.2758
ᎵᎥᏂᏍᏗᏱ	-11.2758
▁ᎤᎾᎦᏙᏍᏔ	-11.2758
▁ᎢᏧᎾᏓ	-11.2759
▁ᏳᏲᎰ	-11.276
▁ᎣᎩᏰᎸᏒ	-11.276
▁ᏗᏓᎴᎲᏍᎨ	-11.276
ᏣᏕᎰᎯᏍᏗ	-11.2761
▁ᎤᎾᎦᏌᏯᏍᏙ	-11.2761
▁ᎤᏩᏴᏒ	-11.2762
▁ᎤᏓᏩᏗᏍ	-11.2762
▁ᎤᎴᏂᎴ	-11.2762
ᏘᎾᏫᏗᏍ	-11.2762
▁ᎠᏓᎩᎡ	-11.2763
ᏗᏥᎦᏘᏯ	-11.2763
▁ᎤᏪᎳᏗᏍ	-11.2764
▁ᎢᏙᎯᏳᎲᏍ	-11.2764
▁ᎠᏎᎪᎩᏍ	-11.2765
ᏗᎦᏲᏥᏁ	-11.2766
▁ᎢᎬᏩᎵᏍᏓᏁ	-11.2768
▁ᏕᎨᏥᏅᏩ	-11.2768
▁ᎤᎾᏨᏎ	-11.2769
ᏓᏲᎵᏍᏗ	-11.277
▁ᎠᎾᏓᏟᏏᏍ	-11.2774
ᏚᏂᏐᎯᏍ	-11.2777
ᎦᏟᎶᏍᏗ	-11.2778
ᎵᏍᎪᎸᏗᏍᎨᏍᏗ	-11.2779
▁ᏧᏲᎰ	-11.2779
ᏕᎫᎪᏓᏁᎰ	-11.2779
▁ᏂᏓᎾᏤ	-11.2781
▁ᎨᏥᏛᎬ	-11.2782
▁ᏒᏟ	-11.2783
▁ᎤᏂᎶᏎ	-11.2787
ᎦᏂᎩᏒ	-11.2787
▁ᏱᏥᎵᏓᏍ	-11.2787
▁ᏫᏓᏗᏁ	-11.2788
▁ᎠᏂᏁᏉᎨ	-11.2788
▁ᎤᎾᎦᏔᏅ	-11.2789
ᎨᎦᏛᏅᎢᏍᏓᏁᎸ	-11.2789
▁ᎬᏃᏌ	-11.2789
▁ᎤᏍᏚᏁ	-11.2791
ᏯᏛᎥ	-11.2793
ᎩᎷᎯᏍᏗᏱ	-11.2793
▁ᎤᎦᏔᎲᏎ	-11.2794
▁ᏧᏏᏕ	-11.2795
▁ᎢᏣᏄᏬᏍ	-11.2796
▁ᏧᏄᎪᏔᏅ	-11.2796
▁ᏗᏤᎳᏍ	-11.2802
ᏥᏯᏬᎥ	-11.2804
ᎾᏓᏛᏁᎭ	-11.2805
ᏯᏛᎩᎭ	-11.2806
ᏓᏐᎮ	-11.2808
ᏓᏓᎶ	-11.2809
▁ᏥᏓᎩᏂᏴ	-11.2809
▁ᎢᏤᏙᎸ	-11.2809
ᏉᏑᎴ	-11.2811
ᏍᎩᏲᏎᎭ	-11.2811
▁ᎠᎾᏛᎩᏍᎨ	-11.2814
ᏂᏍᏚᎢᏒᎩ	-11.2819
ᏥᏍᏛᏗᏍᏙᏗ	-11.2821
▁ᏫᎬᏩᎷᏤᎴ	-11.2823
ᏱᎵᏕᎲᎢ	-11.2824
▁ᏧᏴᎴ	-11.2826
ᏖᎳᏗᏍ	-11.2829
ᎬᏩᏍᏗᏰᏔᏁ	-11.283
▁ᎦᎵᎲ	-11.2831
▁ᎭᎵᏥᏙᎲᏍ	-11.2832
▁ᏗᎨᎪᏍ	-11.2835
ᏂᏲᏏᏍᎩ	-11.2835
ᏚᏪᎳᏗᏙ	-11.2837
▁ᎤᏲᎯᏍᏔᏅ	-11.2837
ᏣᏛᎩᏍᎪ	-11.2837
ᏚᎶᏁᏔ	-11.2841
ᏕᏥᏲᏒ	-11.2847
ᏃᎯᏯᏍ	-11.2849
ᎵᏰᏅ	-11.285
ᎾᏓᏛᎥᏍ	-11.2857
▁ᎢᏥᎾᏄᎪᏫᏍ	-11.2863
▁ᏕᏣᏬᏍ	-11.2864
ᏯᏁᏒ	-11.2865
ᏣᏢᏆ	-11.2875
ᎤᏨᏎᎢ	-11.2881
ᏆᏒᏂᎸ	-11.2882
ᏓᏁᏟᏴᏒ	-11.2882
▁ᏂᏓᏅᏁ	-11.2883
▁ᎢᏣᏓᏑᏴ	-11.289
▁ᎢᏤᎵᏎ	-11.2891
ᏰᎢᎸᏍᏗᏱ	-11.2891
▁ᏥᏄᎾᏍ	-11.2895
▁ᏕᏥᎵᎷ	-11.29
▁ᎭᎦᏌᏯᏍ	-11.2909
ᎢᏍᏓᏁᎴ	-11.2921
ᎬᏩᎵᏥᏍ	-11.2928
▁ᎦᏌᏛᏍ	-11.2929
ᎩᏍᏚᎲᎩ	-11.293
▁ᏂᏴᏁ	-11.2933
ᎬᏆᏛᎦᏁ	-11.2943
ᏂᏔᏫ	-11.2943
▁ᎠᏆᏛᏅ	-11.2956
ᏓᏓᏅᏟ	-11.2961
ᎤᎾᏓᏈᎬ	-11.2973
▁ᎢᏣᏓᏅᏓᏛ	-11.2983
ᏄᏩᏅ	-11.3001
▁ᏧᏂᏅᎢᏍ	-11.3004
ᎮᎵᏤᏗ	-11.3012
▁ᏫᏚᎷᏤᎴ	-11.3013
ᎾᏓᏙᎵᏍᏗᏍᎪᎢ	-11.3023
ᏣᏛᎩᎭ	-11.3024
ᏥᏲᎵᎭ	-11.3027
▁ᏱᏍᏗᎦᏔ	-11.3041
▁ᏓᏰᏥᏄᎪᏫ	-11.3075
▁ᏩᏂᏴᎯ	-11.3083
ᎾᏘᏁ	-11.3096
▁ᏄᏛᎿᏕᎬ	-11.3114
ᏣᎦᏔᎲᏛ	-11.3115
ᏚᏂᏅᏨ	-11.3121
▁ᏣᎦᏌᏯᏍ	-11.3149
ᎤᏪᎪᏗᏱ	-11.316
ᎦᏡᏗᏍᎬ	-11.3161
▁ᎠᏤᎸᏍ	-11.3162
ᏚᏳᎯᏛ	-11.3167
ᎤᏂᏃᏕᏅ	-11.3167
ᏂᎨᎯᏙᎴ	-11.3174
▁ᏱᏥᎦᏔ	-11.3186
ᏚᏬᏕ	-11.3198
ᏂᎳᏕ	-11.3215
ᏍᎪᏂᎮ	-11.3228
▁ᎠᎾᏁᏍᎨᏍ	-11.3231
ᏂᏱᎵᏙᎲ	-11.3234
▁ᎠᏂᏬᏂᏍᎨ	-11.3248
ᏦᏪᎳᏁ	-11.3271
ᎦᏚᎵᏍᎬ	-11.3311
ᎬᏬᎵᏤᎢ	-11.3323
▁ᏳᏪᎵᏎ	-11.3329
ᎵᏍᏚᎸ	-11.3332
▁ᏙᎤᏁᏅ	-11.3336
▁ᏱᏣᏙᎴᎰᏍ	-11.3337
▁ᏗᎧᎾᏩ	-11.3342
▁ᎠᏓᏰᎮ	-11.3353
ᎡᏥᏍᏓᏩᏕᎩ	-11.3401
ᏯᏆᏛᏁᎸ	-11.3406
ᏚᏂᏁᏟᏴᏒ	-11.3411
ᏗᎬᏩᎧᏃᏗ	-11.3421
ᎦᏬᏂᎯᏍᏗ	-11.3469
ᏄᎾᎵᏍᏓᏁᎰ	-11.3492
ᏍᎫᏕᏍᎪᎢ	-11.3507
ᏓᏓᎴᏗᏍ	-11.3512
▁ᏥᏯᎵᏍᎦᏍᏙ	-11.3527
ᏓᎵᏍᎪᎸ	-11.3531
▁ᎤᏲᏏᏍᎨ	-11.3551
▁ᎤᏪᏙᎵᏨ	-11.3593
▁ᎨᏥᏐᏅᎢᏍᏔᏅ	-11.3593
ᏚᏭᎪᏓᏁᎴ	-11.3598
▁ᎤᏚᏓᎳ	-11.3636
ᏕᏨᏲᎯᏎᎸ	-11.3721
▁ᎬᏩᎪᎵᏰᏍᎬ	-11.3768
ᎫᏴᎡᎲ	-11.3818
ᎦᎾᏬ	-11.4004
▁ᏱᏗᏥᎸᏫᏍᏓᏁ	-11.4022
ᎾᏓᏙᎵᏍᏓᏁᎲ	-11.4047
ᏁᏟᏴᎡᏗ	-11.4089
ᎦᏥᏍᎦᏅᏤ	-11.4089
ᏗᎣᏈ	-11.418
ᎾᏡᏗᏍᎨ	-11.4258
▁ᏱᏥᏲᏍ	-11.4311
▁ᎤᏂᏄᎪᏫᏒ	-11.4322
ᏗᎦᎶᏍᎬ	-11.4362
ᎨᎶᎰ	-11.4363
ᏕᎤᎸᏫᏍᏓᏁᎭ	-11.4466
ᏥᏰᎸᎾᏁᎰᎢ	-11.4499
▁ᎬᏩᏡᏗᏍ	-11.4547
ᎾᏰᎯᏍ	-11.4652
▁ᎤᎵᏍᏕᎸᏙ	-11.471
▁ᎬᏩᏘᏃᎸ	-11.4827
ᏣᏠᏯᏍᏗᏍ	-11.4837
ᏚᏂᏴᏍᏕ	-11.4878
ᏍᏓᏩᏗᏎᎢ	-11.4953
▁ᎠᎾᏓᏙᎵᏍᏗᏍ	-11.5104
ᏚᎢᏍᏔᏅᎢ	-11.5292
▁ᎠᎾᎵᏥᏙᏂᏙ	-11.5298
ᏣᎵᏍᎪᎸᏓᏁ	-11.5353
ᏂᏍᏚᏁ	-11.5467
ᏆᏓᏅᏖᎸᎩ	-11.5562
▁ᎨᏥᏅᏏᏙ	-11.5598
▁ᎤᎾᎵᏍᎦᏍᏙ	-11.5632
▁ᏱᏣᏓᏅᏖ	-11.5675
ᏥᏲᎢᏳᏓᏁᎭ	-11.5694
▁ᎬᎩᎦᏔ	-11.5752
▁ᎡᏣᏓᏙᎵᏍᏓ	-11.5785
▁ᏧᎾᏨᏍᏗ	-11.5795
ᎧᎯᏯᏍ	-11.5844
▁ᎠᎾᏓᏙᎵᏍᏓᏁ	-11.5861
▁ᏱᏚᏂᎸᏫᏍᏓᏁ	-11.6032
ᏴᏓᏆᎶᎥᎩ	-11.6122
ᎪᎳᏗᏴᏗ	-11.6246
▁ᎤᏂᎦᏯᎷ	-11.6248
ᎨᏥᏃᎮᎮ	-11.6297
▁ᎠᏂᎦᏖᏃ	-11.6345
▁ᏚᏭᎪᏓᏁ	-11.6485
ᎾᏅᎥ	-11.6486
ᏄᎪᏫᏍᎨᎢ	-11.6545
▁ᎦᎨᏥᏐᏢ	-11.6571
ᏕᏯᏔᏁᎭ	-11.6578
▁ᎢᏥᎶᏄᎮ	-11.6587
ᏂᏍᎦᎢᎲ	-11.6591
▁ᎬᏩᎪᏁᎶᎯᏎ	-11.6606
▁ᏥᎧᏁᎢᏍᏗ	-11.6621
ᏍᏓᏩᏕᏒᎭ	-11.6628
ᏯᏙᏤᎮᏍᏗ	-11.6728
ᎦᏠᏯᏍ	-11.6735
ᏓᏅᏓᏗᏍᏔᏅᎯ	-11.6772
▁ᎠᎩᎪᎵᏰ	-11.6786
ᏂᏬᏂᏍᎨᏍᏗ	-11.6969
▁ᎤᎷᎯᏍ	-11.6978
ᏓᏥᏩᏛᎯᏃ	-11.704
ᎩᎳᎾᎳᏗᏍ	-11.7051
ᏓᏟᎶᏍᏗᏍᎬ	-11.7075
▁ᏳᏜᏏᏛ	-11.7168
▁ᎢᏣᏓᏙᎵᏍᏓ	-11.7246
ᏲᎱᎯᏎᎴᎢ	-11.7292
▁ᎨᏣᏙᎴᎰᎯ	-11.736
ᎵᎮᎵᏥ	-11.7454
ᎩᎨᏳᏒᎢ	-11.7484
ᏯᏓᏅᏓᏗᏍᏔᏅ	-11.7497
ᏓᏑᏴᎢ	-11.7506
ᏥᏙᎲᏍᎬ	-11.7519
ᏗᎤᏨᏎ	-11.7539
ᎩᎳᎾᎳ	-11.7596
ᏍᎫᏕᏍᎬ	-11.7609
▁ᏄᎵᏍᏔᏂᏙ	-11.7619
ᏍᏆᏂᎪᏎᎴ	-11.7629
ᏔᏕᎩᏍᎨ	-11.7647
ᏥᏬᏁᏔᏅ	-11.7647
▁ᎨᎦᎵᏍᎪᎸᏓᏁ	-11.765
▁ᎠᏥᏍᏛᏗᏍ	-11.765
▁ᎤᎾᏓᏙᎵᏍᏓᏁᎸ	-11.7652
▁ᎤᎸᏓᎸᎥᏍ	-11.7654
ᎵᎮᎵᎨᎢ	-11.7662
ᏂᏣᏛᏅ	-11.7674
▁ᎧᏃᎯᏰ	-11.7676
ᏓᏅᏖᎸᎢ	-11.7681
ᎵᏍᏙᏰᏗ	-11.7682
▁ᎤᎵᏍᎪᎸᏔᏅ	-11.7686
ᏂᏙᎾᎡ	-11.7688
ᏰᏙᎳᏛ	-11.7689
ᏚᏓᏂᎸᏤ	-11.769
ᎤᎾᏛᎪᏗᏱ	-11.7692
ᎤᏂᎷᏤᎢ	-11.7693
ᏚᎾᏙᎥ	-11.7694
ᏕᎤᏙᎥ	-11.7695
ᎤᏚᎵᏍᎬ	-11.7695
ᎠᏙᎴᎰᏍᎩ	-11.7695
ᎡᏆᎭᎻ	-11.7695
ᏧᎬᏩᎶᏗ	-11.7695
▁ᎢᏳᎾᎵᏍᏓᏁ	-11.7699
▁ᏫᎨᏥᏲᎵ	-11.7701
ᎶᏄᎮᏗ	-11.7707
ᏓᎵᏂᎪᎯᏍᏙᏗ	-11.772
ᏆᎵᏍᎪᎸᏓᏁᎸ	-11.7721
ᏗᎦᎴᏲᏨᎯ	-11.7728
ᏥᎵᎥᏂᏍᏗ	-11.7731
ᏕᏯᏔᏁᎮ	-11.7736
ᏓᎵᏌᎳᏗ	-11.7736
ᏓᏘᎾᎥ	-11.7739
ᏣᎵᏥᏙᎲ	-11.774
ᏓᎦᎵᏍᏙᏔᏂ	-11.774
ᎾᏗᎦᎴᏲ	-11.7742
▁ᏃᏣᏛᏁ	-11.7742
▁ᎤᎵᎩᏳᏍ	-11.7743
▁ᏯᏆᏓᏅᏓᏗᏍ	-11.7743
ᎬᏯᎫᏴᎡᎸ	-11.7743
▁ᎠᏓᏅᏖᎵᏙᎲ	-11.7743
▁ᎢᎤᎷᏤ	-11.7743
▁ᎢᎩᎩᎵᏲᎢᏍᏗ	-11.7743
▁ᎢᎬᏩᏙᏢᏔᏁ	-11.7743
▁ᎢᏨᎩᎵᏲᏤᎲ	-11.7743
▁ᎣᎦᏓᏅᏘᏳ	-11.7743
▁ᎤᏙᏯᏅᎯᏕ	-11.7743
▁ᎦᏲᎩᏐᏢ	-11.7743
▁ᏂᎨᏥᏪᏎᎲ	-11.7743
▁ᏕᏥᎩᎵᏲᎢᏍᏗᏍ	-11.7743
▁ᏚᎵᏔᏗᏅᏎ	-11.7743
▁ᏥᏂᏕᏣᏛᏁᎰ	-11.7743
▁ᏥᏍᎫᏕᏒ	-11.7743
▁ᏥᏩᏂᎶᏍᎪ	-11.7743
▁ᏧᎶᏄᎮᎴ	-11.7743
▁ᏨᏗᎦᎾᏄᎪ	-11.7743
▁ᏱᎦᎳᏍᏢ	-11.7743
ᎦᏥᏰᎳᏗᏙ	-11.7743
ᎨᎩᎩᎵᏲᎢᏍᏗᏍᎬᎩ	-11.7743
ᎨᎪᏪᎶᏔᏅᎯ	-11.7743
ᎩᎵᏲᏥᏙᎲᎢ	-11.7743
ᎩᎵᏲᏥᏙᎸᎢ	-11.7743
Ꮍ	-11.7743
ᎾᏘᏃᎮᎸᎭ	-11.7743
ᏂᎪᎵᏰᎠ	-11.7743
ᏂᏗᏥᏲᏕᏍᏗᏍᎬᎾ	-11.7743
ᏌᏆᎴᎸ	-11.7743
ᏍᎩᎾᏛᏂᏏ	-11.7743
ᏍᏓᏩᏙᎸᎯ	-11.7743
ᏓᎦᎸᎥᎦ	-11.7743
ᏓᏅᏔᏩᏕᎬᎩ	-11.7743
ᏓᏛᏛᎮᎸᎥᏍᎨ	-11.7743
ᏓᏡᏩᏍᏗᏕ	-11.7743
ᏕᏥᎦᎿᏩᏕᎦ	-11.7743
ᏙᏑᎴᎥᎩ	-11.7743
ᏝᏗᏍᏔᏂᏙ	-11.7743
ᏥᎩᎵᏲᎢᏍᏗᏍᎬᎢ	-11.7743
ᏥᎵᎥᏂᎮᏍᏗ	-11.7743
ᏥᏮᏗᎦᎶᏏ	-11.7743
ᏬᎯᎵᏴᏍᏓᏁᎲᎢ	-11.7743
ᏬᎯᎵᏴᏍᏓᏁᏗ	-11.7743
ᏯᎧᎯᏴᎩ	-11.7743
▁ᎠᎩᏔᎳᏬᏍᎬ	-11.7743
▁ᎠᎪᏪᎶᏔᏅᎯ	-11.7743
▁ᎠᎬᏓᎨᏂ	-11.7743
▁ᎠᎵᏍᏓᏴᎲᏍᎨᏍᏗ	-11.7743
▁ᎠᎾᏍᎩᏓᏒᎥᏍ	-11.7743
▁ᎠᏁᎷᎲᏍᎬ	-11.7743
▁ᎠᏂᏍᎫᏕᏍᎩ	-11.7743
▁ᎠᏅᏳᏤᎲ	-11.7743
▁ᎠᏍᎪᏂᏗᏢ	-11.7743
▁ᎠᏚᎳᏗᏍᎨᎢ	-11.7743
▁ᎠᏜᏩᏍᏗᏍᎨᏍᏗ	-11.7743
▁ᎠᏩᏂᎦᎳ	-11.7743
▁ᎠᏯᏍᏜᏗᏍᎩ	-11.7743
▁ᎡᎻᏂᏓᏈ	-11.7743
▁ᎡᏙᎢᏳᏒᎢ	-11.7743
▁ᎡᏣᎱᏍᏕᏎᎸᎯ	-11.7743
▁ᎡᏥᎩᎵᏲᎢᏍᏗᏍ	-11.7743
▁ᎢᎠᏥᏩᏛᎲᏃ	-11.7743
▁ᎢᎡᏣᏕᏯᏙᏗ	-11.7743
▁ᎢᎦᎤᏘᏍᏛ	-11.7743
▁ᎢᎦᏓᏄᏴᏛ	-11.7743
▁ᎢᎨᏣᎵᏍᏓᏁᏗ	-11.7743
▁ᎢᎩᏲᎱᎯᏎᎸ	-11.7743
▁ᎢᏍᎩᏌᏛᎥᏍᎦ	-11.7743
▁ᎢᏍᏛᎨᏳᎢ	-11.7743
▁ᎢᏣᎦᏌᏯᏍᏓ	-11.7743
▁ᎢᏣᎴᏂᏙᎸ	-11.7743
▁ᎢᏣᏓᏅᏔᏩᏕ	-11.7743
▁ᎢᏣᏚᎸᏗᏱ	-11.7743
▁ᎢᏣᏛᏅᎢᏍᏕᏍᏗ	-11.7743
▁ᎢᏣᏠᎾᏍᏛ	-11.7743
▁ᎢᏥᎧᎵᏣ	-11.7743
▁ᎢᏨᎨᏳᏒᎢ	-11.7743
▁ᎢᏨᏃᎮᎮᎭ	-11.7743
▁ᎢᏨᏯᏛᏓᏍᏓᏁᏗᏱ	-11.7743
▁ᎢᏨᏰᏯᏔᏅᎢ	-11.7743
▁ᎢᏲᏨᏴᏁᏗᏱ	-11.7743
▁ᎣᏁᏏᏉᎳ	-11.7743
▁ᎣᏣᏓᏁᏟᏴᏍ	-11.7743
▁ᎣᏤᏙᎲᎢ	-11.7743
▁ᎣᏥᏔᏲᎯᎲ	-11.7743
▁ᎤᎵᏍᎫᏫᏎᎸ	-11.7743
▁ᎤᎷᏦᏅᎯ	-11.7743
▁ᎤᎾᎴᎾᏫᏍ	-11.7743
▁ᎤᎾᏓᏙᎵᏍᏓᏁᎴ	-11.7743
▁ᎤᎾᏕᎰᎯᏍᏗᏍᎩ	-11.7743
▁ᎤᎾᏕᏯᏔᏁᎴᎢ	-11.7743
▁ᎤᏁᏉᏥᏕᎬ	-11.7743
▁ᎤᏁᏐᎠᏒᎩ	-11.7743
▁ᎤᏂᎪᎯᏙᎸᎯ	-11.7743
▁ᎤᏂᎪᏁᎶᎯᏌᏘ	-11.7743
▁ᎤᏂᏂᏆᏘᏍᏗ	-11.7743
▁ᎤᏂᏐᏅᏤᎴᎢ	-11.7743
▁ᎤᏂᏝᏗᏤ	-11.7743
▁ᎤᏍᏆᎳᎯᏳ	-11.7743
▁ᎤᏍᏢᏂᏍᏗᏍᎩ	-11.7743
▁ᎤᏓᏠᏍᏕᎢ	-11.7743
▁ᎤᏓᏥᏃᎯᏍᏔᏅ	-11.7743
▁ᎤᏪᎧᎯᏴ	-11.7743
▁ᎤᏪᏯᎸᏅᎩ	-11.7743
▁ᎤᏲᎱᎯᏎᎸᎯ	-11.7743
▁ᎥᎬᏩᎷᏤᎸᎩ	-11.7743
▁ᎥᏆᎨᏅᏛ	-11.7743
▁ᎥᏥᏯᏛᎦᏁᎸᎩ	-11.7743
▁ᎦᎳᏍᏢ	-11.7743
▁ᎦᏃᎯᎵᏒᎩ	-11.7743
▁ᎦᏬᏂᏒᎯ	-11.7743
▁ᎨᏣᏁᏄᎳᏍᏗ	-11.7743
▁ᎨᏧᎯᏍᏗᏍᎩ	-11.7743
▁ᎪᎯᏳᎲᏍᎬ	-11.7743
▁ᎪᎴᏏᏂ	-11.7743
▁ᎬᏆᏚᎸᏗ	-11.7743
▁ᎬᏉᎯᏳᎲᏍᎩ	-11.7743
▁ᎬᏩᎦᏌᏯᏍᏕ	-11.7743
▁ᎬᏩᏂᏲᏥᏙᎸ	-11.7743
▁ᎬᏩᏍᏓᏩᏙᎯ	-11.7743
▁ᎭᏙᎴᎰᎯ	-11.7743
▁ᎮᏏᎦᏯ	-11.7743
▁ᎾᎦᏔᎾᎥᎾ	-11.7743
▁ᎾᎾᏓᏁᏟᏴᏏᏒ	-11.7743
▁ᎾᏆᎵᎪᏁᎲᎾ	-11.7743
▁ᎾᏆᎵᏍᏓᏁᎵᏙᎲᎢ	-11.7743
▁ᏂᎦᏛᏁᎵᏙᎸᎢ	-11.7743
▁ᏂᎬᎩᏲᎸᎾ	-11.7743
▁ᏂᏍᎩᏴᏁᎸ	-11.7743
▁ᏂᏓᏛᏓᏍᏓᏁᎲᎾ	-11.7743
▁ᏂᏓᏟᎶᏍᏓᏁᎲᎾ	-11.7743
▁ᏂᏗᏣᏓᏕᎵᏎᎲᎾ	-11.7743
▁ᏂᏗᏣᏢᏫᏎᎲᎾ	-11.7743
▁ᏂᏙᏣᎵᏍᏓᏁᎭ	-11.7743
▁ᏂᏚᎾᏓᏁᎶᏛᎾ	-11.7743
▁ᏂᏚᏁᎶᏛᎾ	-11.7743
▁ᏂᏣᏛᏓᏍᏓᏁᎲᎾ	-11.7743
▁ᏂᏥᎦᏔᎾᎥᎾ	-11.7743
▁ᏂᏥᏔᏲᎯᎲ	-11.7743
▁ᏃᏍᏗᏟᏏᏍᎬᎾ	-11.7743
▁ᏃᏥᏪᎭ	-11.7743
▁ᏄᎾᎵᎮᎵᏣᏛᎾ	-11.7743
▁ᏄᏂᎷᎶᏤᎲᎾ	-11.7743
▁ᏄᏍᏆᎸᎲᎾ	-11.7743
▁ᏄᏚᏯᏍᏛᎾ	-11.7743
▁ᏅᏋᏁᎵᏙᎸᎢ	-11.7743
▁ᏅᏓᎦᏥᏪᏎᎵ	-11.7743
▁ᏅᏓᏥᏯᏛᏁᎵ	-11.7743
▁ᏅᏓᏳᎾᎵᏍᏓᏁᎵ	-11.7743
▁ᏅᏓᏳᏍᏗᏗᏒᎩ	-11.7743
▁ᏅᏧᏛᎿᏗᏎ	-11.7743
▁ᏈᎵᏕᎵᏈ	-11.7743
▁ᏈᏗᏂᏱ	-11.7743
▁ᏍᎩᏯᏐᎥᎦ	-11.7743
▁ᏍᎩᏯᏛᏓᏍᏓᏏ	-11.7743
▁ᏍᏆᏕᎲᏏ	-11.7743
▁ᏍᏆᏛᏅᎢᏍᏓᏁᎸ	-11.7743
▁ᏐᎵᎼᏅ	-11.7743
▁ᏓᎦᎳᏐᏫᏏ	-11.7743
▁ᏓᎬᏩᏍᎪᏂᎵ	-11.7743
▁ᏓᎾᏓᏛᏛᎲᏍᎨ	-11.7743
▁ᏓᎾᏕᏒᎲᏍᎨᎢ	-11.7743
▁ᏓᏆᏚᏫᏍᏔᏅᎩ	-11.7743
▁ᏓᏇᎷᎬ	-11.7743
▁ᏓᏍᎩᏯᏠᏥ	-11.7743
▁ᏓᏓᎾᏩᏍᏛ	-11.7743
▁ᏓᏓᏪᎵᎩᏍ	-11.7743
▁ᏓᏰᏥᏍᏚᎢᎡᎵ	-11.7743
▁ᏓᏳᎾᏄᎪᏨᎩ	-11.7743
▁ᏕᎦᎶᏄᎮ	-11.7743
▁ᏕᎨᎦᏬᎥ	-11.7743
▁ᏕᎪᎦᏓᏂᎸᏨᎩ	-11.7743
▁ᏕᎫᎪᏗᏍᎪ	-11.7743
▁ᏕᎬᏩᎾᏍᏗᏍᎨᎢ	-11.7743
▁ᏕᎬᏩᏓᏂᎸᏨᎩ	-11.7743
▁ᏕᎭᏅᏓᏗᏍᏗᏍᎨᏍᏗ	-11.7743
▁ᏕᎭᏕᎳᏍᏗᏍᎨᏍᏗ	-11.7743
▁ᏕᎯᏯᏓᏂᎸᏨᎭ	-11.7743
▁ᏕᎯᏲᎥᎭ	-11.7743
▁ᏕᏓᏁᎶᏛᎢ	-11.7743
▁ᏕᏣᏓᏬᏁᏗᏍᎨᏍᏗ	-11.7743
▁ᏖᏲᎲᏍᎩ	-11.7743
▁ᏗᎦᎶᏐᎲᏍᎩ	-11.7743
▁ᏗᎦᏅᏍᎨᏂ	-11.7743
▁ᏗᎨᏥᏅᏍᏕᏎᎸᎯ	-11.7743
▁ᏗᎩᎧᏁᏴᏗᏱ	-11.7743
▁ᏗᎩᎾᏓᏛᏙᏗ	-11.7743
▁ᏗᎫᎯᎶᎥᎢ	-11.7743
▁ᏗᎬᏩᎾᏓᏁᏟᏴᎡᏗ	-11.7743
▁ᏗᏓᏙᏕᎯᎯ	-11.7743
▁ᏘᏰᎵᎯᏍᏓ	-11.7743
▁ᏙᏓᎦᏥᏯᏟᎶᏍᏔᏂ	-11.7743
▁ᏙᏓᏣᏠᏏ	-11.7743
▁ᏙᏓᏦᎵᏍᏔᏂ	-11.7743
▁ᏙᏗᎨᎦᏨᏍᏔᏂᏒ	-11.7743
▁ᏙᏗᏂᎧᏁᎢ	-11.7743
▁ᏚᎧᎿᏩᏗᏙᎮᎢ	-11.7743
▁ᏚᎾᏁᏍᏓᏝᎰᎢ	-11.7743
▁ᏚᎾᏂᏏᏂᏙᎸ	-11.7743
▁ᏚᎾᏄᏩᎥ	-11.7743
▁ᏚᎾᏏᏔᏕᎢ	-11.7743
▁ᏚᎾᏗᏫᏍᏗᏍᎨ	-11.7743
▁ᏚᏂᎵᏬᏨᎩ	-11.7743
▁ᏚᏂᏖᎸᏅᎩ	-11.7743
▁ᏚᏓᏅᎡᎸᏃ	-11.7743
▁ᏚᏗᎦᎴᏯᏍᏔᏅ	-11.7743
▁ᏚᏟᎶᏍᏔᏁᎴ	-11.7743
▁ᏚᏥᏍᏠᏨᎩ	-11.7743
▁ᏚᏪᏣᎦᎸᎮᎢ	-11.7743
▁ᏚᏯᏍᏜᏛ	-11.7743
▁ᏛᎵᏍᏆᏗ	-11.7743
▁ᏣᎩᎵᏲᎢᏍᏗ	-11.7743
▁ᏣᏥᏰᎸᎾᏁᎴᎢ	-11.7743
▁ᏤᏧᎪᏓᏁ	-11.7743
▁ᏥᎦᎵᎡᎵᎦ	-11.7743
▁ᏥᎨᎦᏤᏪᎸ	-11.7743
▁ᏥᎬᎩᎾᎸᏍᏔᏅᎩ	-11.7743
▁ᏥᏁᏣᏛᎩᏍᎪᎢ	-11.7743
▁ᏥᏂᏓᎦᏔᎰᎢ	-11.7743
▁ᏥᏂᏥᏪᏍᎬᎩ	-11.7743
▁ᏥᏕᎫᏓᎴᏍᏗᎭ	-11.7743
▁ᏥᏕᏥᏙᎦ	-11.7743
▁ᏥᏚᎾᏚᏓᏙ	-11.7743
▁ᏥᏚᏣᏃᏛᎩ	-11.7743
▁ᏥᏥᎶᏄᎮᎵ	-11.7743
▁ᏥᏨᏲᏪᎳᏁᎭ	-11.7743
▁ᏥᏫᏗᎦᎸᏌᏓᏗᏍᎪᎢ	-11.7743
▁ᏥᏯᏚᏣᎳᏅᎭ	-11.7743
▁ᏦᎩᎸᏫᏍᏓᏁᎸᎯ	-11.7743
▁ᏦᏣᎵᏥᏙᏁᏗᏱ	-11.7743
▁ᏧᎦᏄᏓᏅᎯᏛ	-11.7743
▁ᏧᎦᏌᏬᎸᎯ	-11.7743
Ꮚ	-12.7739
(	-12.774
Ꮌ	-12.7741
Ꮛ	-12.7742
\	-12.7743
[	-12.7743
