<pad>	0
</s>	0
<unk>	0
¦	-1.4373
▁¦	-1.43754
ا	-3.76631
ال	-3.78471
▁.	-3.87018
ي	-4.07019
و	-4.09093
ة	-4.26402
ت	-4.38029
ه	-4.53971
ع	-4.66889
ب	-4.73421
ف	-4.76512
ك	-4.79321
وا	-4.83225
من	-4.92886
في	-4.95934
م	-4.99477
ل	-4.99533
ون	-5.15585
ى	-5.19846
ان	-5.2736
ن	-5.39562
د	-5.44204
ّ	-5.48526
لى	-5.51599
س	-5.57093
ين	-5.59243
هم	-5.66368
الرب	-5.68678
ر	-5.71745
لا	-5.73981
كل	-5.79015
ح	-5.81219
ج	-5.82203
ها	-5.98021
ش	-5.9816
ما	-6.13766
ط	-6.18924
ز	-6.19457
نا	-6.19508
خ	-6.20718
الذي	-6.23338
كم	-6.23847
ار	-6.25541
أ	-6.27557
يا	-6.27798
ص	-6.32296
وال	-6.33699
لل	-6.34463
قد	-6.38831
ق	-6.3976
لي	-6.40775
لم	-6.45099
اء	-6.45957
مع	-6.4752
ام	-6.52711
وي	-6.5323
ض	-6.54287
اسرائيل	-6.55944
ث	-6.56729
الم	-6.56792
رب	-6.60485
غ	-6.62427
ور	-6.6433
ير	-6.67075
هذا	-6.69704
هو	-6.70118
ولا	-6.70372
له	-6.71869
بن	-6.7308
الله	-6.74001
ملك	-6.75291
آ	-6.77321
عن	-6.79107
وت	-6.79962
ذا	-6.80461
يد	-6.80569
بيت	-6.80966
جميع	-6.82182
ته	-6.85556
ني	-6.8668
اد	-6.89494
الارض	-6.89812
التي	-6.93131
لان	-6.93282
فقال	-6.93405
وم	-6.9342
بني	-6.9358
فا	-6.94317
بر	-6.9844
بال	-6.98591
ول	-6.99977
ذ	-6.9998
وع	-7.03011
كان	-7.03129
ئ	-7.03487
يضا	-7.05382
وب	-7.08168
ات	-7.09005
عمل	-7.10589
بل	-7.10787
مر	-7.12356
ذلك	-7.13207
اب	-7.13225
به	-7.13374
واحد	-7.15389
وقال	-7.17812
وه	-7.18802
ذهب	-7.21345
انا	-7.21374
الملك	-7.22171
فت	-7.22933
ود	-7.24476
عند	-7.25454
تم	-7.25707
ابن	-7.25839
يل	-7.25979
قال	-7.26197
عد	-7.27179
ثم	-7.28518
لانه	-7.28757
امام	-7.2959
هنا	-7.3004
خرج	-7.30432
ليس	-7.30465
وس	-7.30503
يهو	-7.32311
اذا	-7.32405
سمع	-7.32452
يم	-7.33431
وكان	-7.35617
ذه	-7.3588
مس	-7.36947
ظ	-7.38067
حت	-7.38069
اود	-7.38224
ارض	-7.38609
فر	-7.38611
اس	-7.40577
لهم	-7.40591
عل	-7.41061
كذا	-7.41271
تر	-7.44205
لك	-7.44812
بعد	-7.45041
انت	-7.46612
خر	-7.46643
شي	-7.46771
ذين	-7.47679
مت	-7.47691
قر	-7.48836
عشر	-7.48934
يكون	-7.48977
انه	-7.5021
جعل	-7.51809
رجل	-7.5249
اليوم	-7.52554
كر	-7.52659
يسو	-7.5282
فعل	-7.53116
تك	-7.53763
اني	-7.54155
را	-7.55038
بين	-7.55665
ايام	-7.5608
وق	-7.56353
حسب	-7.56499
وكل	-7.56929
الشعب	-7.57011
بنو	-7.57477
دخل	-7.58495
صر	-7.58836
كما	-7.59802
موس	-7.5998
سا	-7.60138
كلم	-7.60712
صنع	-7.6184
يقول	-7.62392
وح	-7.62566
دم	-7.63064
علم	-7.63512
قائلا	-7.65626
مدين	-7.66112
حر	-7.66269
ابي	-7.66965
يت	-7.67201
شعب	-7.6749
سن	-7.68035
يس	-7.68433
ء	-7.68801
كلام	-7.68855
جر	-7.6932
عليه	-7.69709
كثير	-7.70019
تي	-7.70347
مل	-7.70477
اذ	-7.70825
اق	-7.71126
جاء	-7.71171
سر	-7.71183
شليم	-7.71849
اور	-7.72134
حي	-7.72368
قلب	-7.73176
بي	-7.74017
سب	-7.74127
عرف	-7.7503
وان	-7.75187
يق	-7.76631
شر	-7.76814
ست	-7.77374
تكلم	-7.7747
ولكن	-7.77731
صعد	-7.77789
لت	-7.78021
مصر	-7.80648
فض	-7.81222
ومن	-7.81262
نظر	-7.8161
فان	-7.81617
الآن	-7.82155
أت	-7.82345
واما	-7.8309
عبد	-7.83653
اح	-7.83881
حل	-7.84026
ولم	-7.84311
حين	-7.84476
لكم	-7.84942
ؤ	-7.85529
هي	-7.8556
لكي	-7.85987
ثلاث	-7.89963
مئ	-7.90937
قو	-7.91016
حا	-7.9145
وش	-7.92362
ارسل	-7.93285
رد	-7.94353
ضرب	-7.94392
رجع	-7.94645
وفي	-7.94684
وجه	-7.94987
قام	-7.96102
تكون	-7.96695
خذ	-7.96718
شا	-7.96788
اسم	-7.97894
عظيم	-7.98084
جب	-7.98147
صل	-7.98584
علي	-7.9873
از	-7.99804
احد	-8.00377
مسيح	-8.01175
الق	-8.01549
عر	-8.01554
يوم	-8.01777
يها	-8.02049
قي	-8.02125
طريق	-8.02183
جل	-8.02805
اله	-8.02899
است	-8.03368
سبع	-8.03477
صوت	-8.04906
مثل	-8.05161
اجل	-8.05373
تهم	-8.05676
تن	-8.05678
جن	-8.06056
ولد	-8.06082
قبل	-8.06196
وج	-8.06873
جد	-8.07079
عز	-8.07277
يين	-8.07578
راس	-8.0761
عين	-8.07847
موت	-8.08325
باب	-8.08391
قتل	-8.08489
تها	-8.09175
اخ	-8.10743
طلب	-8.10988
خمس	-8.11623
قا	-8.1164
وسط	-8.12275
مد	-8.12279
هما	-8.13058
قل	-8.13872
رج	-8.13885
سماء	-8.14056
رجال	-8.15875
امر	-8.1631
رأ	-8.16874
فن	-8.17275
انتم	-8.17551
حق	-8.17855
غير	-8.19203
اربع	-8.19427
بها	-8.19625
كن	-8.20064
صار	-8.20264
ضع	-8.20362
قائل	-8.20482
امم	-8.2063
اص	-8.20908
حكم	-8.21054
اليه	-8.212
يش	-8.21744
معه	-8.21816
اط	-8.23732
طي	-8.2419
وك	-8.24257
اخذ	-8.25276
سل	-8.25432
عيني	-8.25689
نزل	-8.25843
جمع	-8.26139
انسان	-8.26299
قدس	-8.26769
آخر	-8.27185
وص	-8.27423
وجد	-8.27548
فيه	-8.27686
غل	-8.27713
مجد	-8.28556
اما	-8.28605
امرأ	-8.28821
يف	-8.29323
ولما	-8.2933
نار	-8.29944
عبيد	-8.31142
جبل	-8.31328
تقدم	-8.31918
لد	-8.33302
فلا	-8.33512
فل	-8.34107
كنت	-8.34295
حيا	-8.34296
غر	-8.34636
قت	-8.34883
اخو	-8.34909
لاجل	-8.35194
حص	-8.35793
قض	-8.36252
نفسه	-8.3641
سيف	-8.3709
ئيل	-8.37747
الانسان	-8.3786
حفظ	-8.38219
ؤل	-8.38233
يدي	-8.38245
تحت	-8.3833
يعقوب	-8.3843
لاني	-8.38686
قدام	-8.39462
رؤساء	-8.39631
سكن	-8.39866
بك	-8.40233
فق	-8.4028
خير	-8.40427
هل	-8.4055
فرح	-8.41145
بد	-8.41605
مدن	-8.41639
ذبح	-8.41693
قطع	-8.41966
سلام	-8.41978
الشر	-8.42033
وهو	-8.43569
عبر	-8.43982
فم	-8.44136
بيد	-8.4504
رئيس	-8.45612
صي	-8.45687
نحو	-8.45988
الكاهن	-8.46121
فلما	-8.47108
ماء	-8.4723
رفع	-8.47589
در	-8.47891
خل	-8.48015
لها	-8.48239
قب	-8.485
خطي	-8.48592
ذكر	-8.48877
وقت	-8.48933
اعط	-8.49184
بط	-8.49278
غن	-8.49642
غضب	-8.49843
صب	-8.50057
لحم	-8.50742
الابد	-8.50757
رام	-8.50858
هرون	-8.51058
كانت	-8.51616
خت	-8.51821
روح	-8.51908
بارك	-8.51923
طر	-8.52174
خبز	-8.52537
لنا	-8.52891
جدا	-8.52906
اخي	-8.52922
ترك	-8.53764
بعض	-8.54257
خارج	-8.54478
رق	-8.5499
مش	-8.55097
سقط	-8.55209
خدم	-8.55462
جه	-8.556
البحر	-8.55949
شد	-8.56007
واذا	-8.56018
الحق	-8.56347
قوم	-8.56584
يكن	-8.56687
البيت	-8.56723
الهك	-8.57201
حد	-8.57487
الكهن	-8.57597
نعم	-8.57816
وضع	-8.57916
تلك	-8.57955
نفس	-8.58026
احب	-8.58184
وراء	-8.58438
الرجل	-8.58594
نحن	-8.58677
مكان	-8.59575
ابرا	-8.59617
رحم	-8.60228
آبائ	-8.60254
حسن	-8.60299
السيد	-8.60312
شاو	-8.61325
كانوا	-8.61388
حمل	-8.61413
لانهم	-8.61572
فلم	-8.62477
مض	-8.62768
جسد	-8.62976
خبر	-8.63473
دين	-8.63799
ابا	-8.64465
نجس	-8.64584
ملوك	-8.65026
يده	-8.6518
دعو	-8.65199
اعطي	-8.65358
بابل	-8.6565
قط	-8.6575
قلت	-8.66228
اثم	-8.66298
شهر	-8.66433
قول	-8.66695
الناس	-8.67195
قدر	-8.67315
كتب	-8.67454
مات	-8.67526
عليهم	-8.68558
محرق	-8.68992
وقد	-8.69121
لن	-8.69267
مح	-8.69335
سليمان	-8.69576
نفسك	-8.69648
عهد	-8.6971
سأل	-8.70798
شف	-8.70978
رسل	-8.71396
خيم	-8.72053
عنه	-8.72791
فرع	-8.7293
شق	-8.73035
عظم	-8.73047
وها	-8.73071
هيم	-8.73198
لكن	-8.73318
الروح	-8.74576
شعوب	-8.74611
بار	-8.74739
عليك	-8.74838
ائم	-8.75284
وز	-8.75287
قم	-8.75452
لجنود	-8.75788
لانك	-8.75915
رح	-8.76036
حن	-8.76079
ئذ	-8.7614
ثان	-8.76286
دفع	-8.76528
فاجاب	-8.76676
بق	-8.76929
السن	-8.77041
ساكن	-8.7726
يسمع	-8.77281
نفسي	-8.77666
قدم	-8.77741
شرب	-8.78415
اليهود	-8.78633
كثر	-8.78983
تكم	-8.79221
مياه	-8.79259
طلق	-8.79625
الفلسطيني	-8.79876
ابنه	-8.80189
حول	-8.8063
نج	-8.80783
سموات	-8.81335
أمر	-8.81664
اسمه	-8.81879
قص	-8.82465
ظلم	-8.82806
سار	-8.82997
غنم	-8.8463
ايمان	-8.84918
ريح	-8.85417
بقي	-8.85566
وانا	-8.85895
مقدس	-8.85929
اللاوي	-8.86176
ذبيح	-8.8623
جانب	-8.86528
ويكون	-8.87367
اخت	-8.87624
ذراع	-8.88171
فوق	-8.89049
ثياب	-8.89488
امور	-8.89813
صف	-8.90133
جماع	-8.90613
اقول	-8.90744
سيد	-8.90843
زيت	-8.91159
اكثر	-8.91619
آله	-8.91645
قيم	-8.92166
اهل	-8.92689
اعمال	-8.92711
وسف	-8.92785
سبط	-8.93222
الاول	-8.93257
وقف	-8.93364
خاف	-8.93544
محب	-8.93663
البري	-8.93722
تلاميذ	-8.9466
يأتي	-8.94888
حيث	-8.9538
اليك	-8.95428
بكر	-8.95896
قسم	-8.95982
بنات	-8.96181
ائه	-8.96183
رأيت	-8.96657
شوع	-8.96919
لست	-8.97009
واخذ	-8.97369
يعطي	-8.97893
ئلا	-8.98119
ملاك	-8.98683
ائر	-8.98749
باسم	-8.98988
تقول	-9.00251
فتح	-9.00442
المذبح	-9.00567
سيدي	-9.01326
قلوب	-9.01434
صرخ	-9.01698
انذا	-9.01766
جلس	-9.02026
مكتوب	-9.02509
اخبر	-9.02626
ظهر	-9.02872
اولاد	-9.02906
مست	-9.02991
نق	-9.03264
سلم	-9.03685
كرم	-9.03687
اخوته	-9.04208
ثبت	-9.04591
كسر	-9.0561
تعب	-9.06187
بغض	-9.06683
وصي	-9.07244
خمر	-9.07256
صور	-9.07362
ائد	-9.07779
سجد	-9.07793
صالح	-9.08554
بقر	-9.08597
بيوت	-9.08712
ثمر	-9.10869
موآب	-9.11029
انبياء	-9.1103
حارب	-9.11723
نساء	-9.1226
خرب	-9.12723
اردن	-9.13174
تابوت	-9.13543
ولس	-9.13548
زرع	-9.13599
سكان	-9.1391
خلاص	-9.14131
ثور	-9.14398
نهار	-9.14781
نحاس	-9.1518
سلك	-9.15602
جيش	-9.1582
شرق	-9.16305
العالم	-9.16461
اياه	-9.16607
شيئا	-9.1662
المرأ	-9.1663
يأكل	-9.17185
شريع	-9.17648
شيوخ	-9.17679
الحقل	-9.17914
هيكل	-9.17939
موضع	-9.1799
مسكن	-9.18422
ثق	-9.20206
قليل	-9.20533
إ	-9.20875
رؤوس	-9.20956
طرق	-9.21047
افرايم	-9.21423
داخل	-9.2154
بنيامين	-9.2253
النبي	-9.22606
مالك	-9.22987
حجر	-9.23078
نصيب	-9.23196
وصايا	-9.23781
خلص	-9.24055
تعط	-9.2419
طرح	-9.24354
الثاني	-9.24861
لبس	-9.25302
سفر	-9.25434
ابواب	-9.25819
تخم	-9.26251
غط	-9.26393
ائي	-9.26435
شبع	-9.26698
خطايا	-9.2706
راح	-9.27079
صباح	-9.27195
طرد	-9.2759
وادي	-9.28027
وزن	-9.28058
الليل	-9.283
الهكم	-9.283
اليكم	-9.28556
سير	-9.28889
حجار	-9.29449
كنعان	-9.29466
نزع	-9.2968
حدث	-9.29906
كذب	-9.3073
قريب	-9.30961
طرس	-9.31124
اعدائ	-9.31275
ضيق	-9.31391
الشمس	-9.3308
صدق	-9.33414
عليكم	-9.34237
الناموس	-9.34319
اثني	-9.34553
صهي	-9.34911
اشرار	-9.34918
الصد	-9.34948
رؤ	-9.35816
واقف	-9.36043
تأكل	-9.37043
اجتماع	-9.37432
غريب	-9.37474
عشائر	-9.38082
انفسهم	-9.38105
موئيل	-9.38129
جالس	-9.38316
باطل	-9.38971
الشرير	-9.39103
آتي	-9.39132
زوج	-9.39205
نسل	-9.39248
شهاد	-9.40163
اشور	-9.4088
فرائض	-9.41367
كرسي	-9.41419
يأخذ	-9.42121
اثنا	-9.43361
اسحق	-9.44549
جلعاد	-9.44773
اشت	-9.4531
شهد	-9.45872
عشير	-9.46967
طعام	-9.47053
زمان	-9.47186
ركب	-9.47209
ارمي	-9.4756
الثالث	-9.48292
خشب	-9.48357
كهن	-9.48476
اخطأ	-9.49019
آباء	-9.49031
عوض	-9.49414
اجتمع	-9.50479
سلطان	-9.5048
اعطاه	-9.51025
احكام	-9.51227
خزي	-9.51302
نصف	-9.5132
▁	-10.7983
-	-12.4053
ً	-12.5482
i	-12.9149
(	-13.1649
)	-13.1649
𐋇	-13.4982
:	-13.4982
h	-13.9982
o	-13.9982
2	-13.9982
[	-13.9982
]	-13.9982
t	-13.9982
1	-13.9982
ـ	-14.9981
.	-14.9982
j	-14.9982
5	-14.9982
m	-14.9982
n	-14.9982
y	-14.9982
ٍ	-14.9982
𐊣	-14.9982
𐊼	-14.9982
*	-14.9982
6	-14.9982
