<pad>	0
</s>	0
<unk>	0
ို	-0
င်	-1
ော	-2
ည်	-3
ား	-4
ို့	-5
ကို	-6
က်	-7
င်း	-8
▁အ	-9
သည်	-10
သော	-11
▁သ	-12
န်	-13
ကြ	-14
တို့	-15
ရှ	-16
▁မ	-17
ော်	-18
င့်	-19
ပြ	-20
တော်	-21
တ်	-22
၏။	-23
▁ထ	-24
စ်	-25
နှ	-26
ယ်	-27
ုရ	-28
ပ်	-29
မျ	-30
မှ	-31
▁လ	-32
မ်	-33
▁င	-34
ည်း	-35
ဘုရ	-36
ောက်	-37
ဖြ	-38
မူ	-39
▁တ	-40
ခြ	-41
ိုး	-42
ီး	-43
▁ငါ	-44
ေး	-45
နှင့်	-46
ဘုရား	-47
မည်	-48
ကျ	-49
သို့	-50
ရှိ	-51
တော်မူ	-52
တို့သည်	-53
မြ	-54
သူ	-55
ခြင်း	-56
လျ	-57
▁ထို	-58
▁ယ	-59
▁သူ	-60
ုံ	-61
ိမ်	-62
▁စ	-63
ရာ	-64
ဟု	-65
ပါ	-66
ောင်	-67
ချ	-68
▁သင်	-69
ောင်း	-70
▁ပ	-71
ေါ	-72
တို့ကို	-73
▁န	-74
ွန်	-75
သား	-76
ဖြစ်	-77
ကား	-78
၍၊	-79
စေ	-80
မည်။	-81
ာဝ	-82
ာဝရ	-83
ုပ်	-84
▁ရ	-85
▁ပြ	-86
မျိုး	-87
ေ့	-88
ာဝရဘုရား	-89
လည်း	-90
ိုင်	-91
ိန်	-92
▁ဆ	-93
??	-94
▁ကို	-95
▁က	-96
▁ခ	-97
ကြ၏။	-98
ောင့်	-99
▁ထာဝရဘုရား	-100
သောသူ	-101
ပေါ	-102
ုံး	-103
အား	-104
ွား	-105
ခင်	-106
လျှ	-107
▁မြ	-108
လော	-109
မ်း	-110
သောအ	-111
ကျွန်	-112
ေလ	-113
ိမ့်	-114
မြို့	-115
ုန်	-116
ိတ်	-117
၎င်း	-118
တွ	-119
▁ကြ	-120
ခါ	-121
လျှင်	-122
ဲ့	-123
ိုက်	-124
▁ရှ	-125
မှာ	-126
▁ကိုယ်	-127
ဖြင့်	-128
အမျိုး	-129
လျက်	-130
သခင်	-131
▁ဘုရား	-132
လိမ့်	-133
ိမ	-134
များ	-135
ဉ်	-136
ကား၊	-137
ုတ်	-138
▁လူ	-139
ငှ	-140
▁အဘ	-141
ပြု	-142
ကြောင်း	-143
မျှ	-144
ကြီး	-145
ိုင်း	-146
▁ငါ့	-147
ပြည်	-148
၎င်း၊	-149
ငှါ	-150
လော့	-151
တော်မူ၏။	-152
လေ	-153
▁ကျ	-154
လျှင်၊	-155
သရ	-156
နေ	-157
ကြောင့်	-158
ွှ	-159
ကျွန်ုပ်	-160
လိမ့်မည်။	-161
ူး	-162
သက်	-163
ပြီ	-164
ခံ	-165
ိန့်	-166
▁ဣ	-167
ည်း။	-168
▁ဘုရားသခင်	-169
လူ	-170
????	-171
မှု	-172
ခြင်းငှါ	-173
သွား	-174
▁ဝ	-175
ဆို	-176
တွင်	-177
တော်ကို	-178
နှစ်	-179
▁အဘယ်	-180
ပေါင်း	-181
▁အကျွန်ုပ်	-182
ထား	-183
ွာ	-184
ိမိ	-185
▁သင်တို့	-186
ည့်	-187
▁ဗ	-188
▁ချ	-189
ရှင်	-190
လော့။	-191
လာ	-192
ရပ်	-193
လည်း၊	-194
အတ	-195
သရေလ	-196
ျက်	-197
▁မိမိ	-198
္တ	-199
ေရ	-200
ွက်	-201
▁သူတို့	-202
▁အာ	-203
ရား	-204
သော်	-205
လေ၏။	-206
ပေါ်	-207
▁ဣသရေလ	-208
တတ်	-209
လုံး	-210
▁ဒ	-211
တ္တ	-212
ဇ်	-213
ွေး	-214
▁ဘ	-215
ပါး	-216
န်း	-217
▁ဤ	-218
ပြီ။	-219
ပြစ်	-220
▁ဟ	-221
ပြီး	-222
ဲ့သို့	-223
ာလ	-224
ပေး	-225
သာ	-226
▁ထိုအ	-227
ဘုရင်	-228
နာ	-229
ံ့	-230
န့်	-231
ကဲ့သို့	-232
▁မိန့်	-233
နိုင်	-234
သောအခါ	-235
▁ကိုယ်တော်	-236
လင်	-237
ရှု	-238
▁ရှိ	-239
အပေါင်း	-240
မူကား၊	-241
▁ဖ	-242
သမျှ	-243
စာ	-244
စွာ	-245
▁သို့	-246
ထဲ	-247
ယောက်	-248
သဖြင့်	-249
ဝိ	-250
အမျိုးသား	-251
▁ကောင်း	-252
ခြင်းကို	-253
▁သည်	-254
ဘို့	-255
▁ဖြစ်	-256
ွေ	-257
▁နှ	-258
လျက်၊	-259
ခု	-260
ဟူ	-261
ဖန်	-262
ပြော	-263
ဒ်	-264
ွယ်	-265
က၊	-266
တိုင်	-267
▁မှ	-268
▁သား	-269
ွဲ	-270
▁ငါသည်	-271
▁ဧ	-272
▁ထိုသူ	-273
ညာ	-274
▁ပြု	-275
မည်ဟု	-276
နေ့	-277
လက်	-278
▁နေ	-279
ရှေ့	-280
▁ယဇ်	-281
မင်း	-282
စား	-283
အတိုင်း	-284
▁အလ	-285
ရင်	-286
သေ	-287
▁သော	-288
စ္	-289
ဘက်	-290
သိ	-291
စုံ	-292
သန	-293
ပင်	-294
▁သင့်	-295
ိန်း	-296
တည်း။	-297
တရား	-298
ထံ	-299
ရှင်း	-300
စဉ်	-301
▁သင်သည်	-302
▁သင်၏	-303
▁ည	-304
ရိ	-305
ရမည်။	-306
ထောင်	-307
▁အကြောင်း	-308
စကား	-309
ယူ	-310
▁သင်တို့သည်	-311
အောင်	-312
ပေါ်မှာ	-313
ုဒ	-314
ဘဲ	-315
▁မြေ	-316
▁သူတို့သည်	-317
စေခြင်းငှါ	-318
တော်မူသည်	-319
မြင်	-320
ိမ်း	-321
မရှိ	-322
▁လက်	-323
▁ခံ	-324
▁ထိုသို့	-325
▁ရောက်	-326
ကင်	-327
▁ယဇ်ပ	-328
▁အသက်	-329
သီး	-330
▁ဂ	-331
ွှတ်	-332
အကြောင်း	-333
သောအခါ၊	-334
ကြလော့။	-335
အားဖြင့်	-336
ေါ်	-337
▁မြို့	-338
မျက်	-339
တည်း	-340
ချင်း	-341
ငါ	-342
ျား	-343
ီရင်	-344
တော်မူသော	-345
ရှိ၏။	-346
င်္	-347
▁ထာဝရဘုရားသည်	-348
▁ယေ	-349
▁သူ၏	-350
ွင့်	-351
သဖြင့်၊	-352
ွင်း	-353
ပါ၏။	-354
ဦး	-355
ဆယ်	-356
ရှိသော	-357
ရဲ	-358
▁ယော	-359
▁အပြစ်	-360
▁အမ	-361
ဟုတ်	-362
▁လျ	-363
▁မီး	-364
ကြောင့်၊	-365
ရောက်	-366
များကို	-367
▁ယုဒ	-368
တို့အား	-369
နား	-370
ကလည်း၊	-371
လှ	-372
ကြလိမ့်မည်။	-373
ငယ်	-374
ရသော	-375
????????	-376
ပျ	-377
ပါ။	-378
ွတ်	-379
ရော	-380
▁နား	-381
အရာ	-382
ဇော်	-383
ဆောင်	-384
တော်၌	-385
▁ငါတို့	-386
▁ယေရ	-387
န့်ရှင်း	-388
ူဇော်	-389
ိန်းမ	-390
က္	-391
▁တဖန်	-392
ရှေ	-393
တိ	-394
ိပ်	-395
▁ကျွန်	-396
တပါး	-397
▁ဆို	-398
စ္စာ	-399
▁စိတ်	-400
ောဟ	-401
ထက်	-402
ါဝိ	-403
လော။	-404
ါဝိဒ်	-405
▁ပေး	-406
▁လျှ	-407
▁ကောင်းကင်	-408
▁ရှင်	-409
အလ	-410
▁မော	-411
တို့၏	-412
▁ထာဝရဘုရား၏	-413
ပြီးမှ	-414
မီး	-415
အရပ်	-416
အမှု	-417
▁ဖြ	-418
တော်သည်	-419
ပတ်	-420
ရ။	-421
▁သွား	-422
▁ထိုအခါ	-423
နည်း	-424
▁ပြန်	-425
သောသူသည်	-426
▁ဇ	-427
မိ	-428
မာ	-429
လိ	-430
ာန်	-431
တင်	-432
▁ရှင်ဘုရင်	-433
▁အမျိုး	-434
▁အို	-435
တို့နှင့်	-436
ညာဉ်	-437
▁အမှု	-438
ကာ	-439
ရက်	-440
နှင့်။	-441
စရာ	-442
ရေ	-443
ွန်း	-444
▁သူ့	-445
ုန်း	-446
▁တရား	-447
သည်ကို	-448
တိုင်အောင်	-449
နောက်	-450
ကောင်း	-451
လု	-452
ဏ်	-453
▁ငါ့ကို	-454
ောဟိတ်	-455
▁ဥ	-456
▁သေ	-457
ုရောဟိတ်	-458
▁မိန့်တော်မူ၏။	-459
ခြင်း၊	-460
ခြား	-461
အဘို့	-462
▁သန့်ရှင်း	-463
ခဲ့	-464
ဝေး	-465
ဖြစ်၏။	-466
ေးဇ	-467
▁သူသည်	-468
သည်ဟု	-469
ေးဇူး	-470
ဂု	-471
▁သိ	-472
ခြေ	-473
ရှိသမျှ	-474
မတ်	-475
▁အကြောင်းမူကား၊	-476
ရကြ	-477
လိုက်	-478
ဖြစ်၍၊	-479
▁ဒါဝိဒ်	-480
ထာဝရဘုရား	-481
ဘုရားသခင်	-482
မြောက်	-483
သတ်	-484
သံ	-485
▁စစ်	-486
မဟုတ်	-487
ုရှ	-488
▁ရေ	-489
တို့၌	-490
▁ယေရှု	-491
▁ဆောင်	-492
▁အဘယ်သူ	-493
အဘ	-494
ကြား	-495
တက	-496
သတည်း။	-497
စကားကို	-498
▁သခင်	-499
စ်ကို	-500
တိုင်း	-501
မည်အကြောင်း	-502
ပြန်	-503
ာမ	-504
ရှင်ဘုရင်	-505
ဝတ်	-506
▁????????	-507
ွမ်း	-508
ခါး	-509
သော်လည်း၊	-510
▁စား	-511
▁ဘုရားသခင်၏	-512
▁ယဇ်ပုရောဟိတ်	-513
▁လေ	-514
▁ပြော	-515
ကို၎င်း၊	-516
▁ငါ၏	-517
ကာလ	-518
▁ဣသရေလအမျိုး	-519
▁စကား	-520
လင်မြို့	-521
ခွင့်	-522
ော့	-523
တ္တု	-524
▁နှုတ်	-525
မှီ	-526
စိတ်	-527
ချိန်	-528
ညီ	-529
ဃ်	-530
ကြံ	-531
ဃ်း	-532
ွေ့	-533
ိုဃ်း	-534
ဝင်	-535
▁အိမ်	-536
အပေါင်းတို့သည်	-537
ပြင်	-538
နှာ	-539
စု	-540
မုန်	-541
▁မျက်	-542
ဲဂု	-543
▁လှ	-544
တတ်၏။	-545
ထွက်	-546
တောင်	-547
▁သိုး	-548
▁နောက်	-549
လ္	-550
ဉ်း	-551
ဲဂုတ္တု	-552
တန်	-553
သင်	-554
ံခါး	-555
အိမ်	-556
▁ယခု	-557
သည်အတိုင်း	-558
▁မောရှေ	-559
▁အဲဂုတ္တု	-560
▁အား	-561
ရစ်	-562
သနည်း။	-563
လည်	-564
▁သူတို့ကို	-565
အတူ	-566
တယောက်	-567
ငံ	-568
ဟူသော	-569
ိုလ	-570
▁ထား	-571
▁ယေရုရှ	-572
▁ပြည်	-573
▁ကြား	-574
သော်၊	-575
တိုက်	-576
မှစ	-577
ပါစေ	-578
ထံသို့	-579
▁မိုဃ်း	-580
ျာ	-581
င်္ဂ	-582
▁မိ	-583
လ္လင်	-584
▁လုပ်	-585
ဖက်	-586
▁အဘယ်သို့	-587
▁ပူဇော်	-588
ထဲက	-589
▁လာ	-590
ဆင်း	-591
ပြား	-592
▁မည်	-593
▁ကယ်	-594
တ္တိ	-595
▁ထွက်	-596
လုပ်	-597
▁တည်	-598
▁နှစ်	-599
စင်	-600
▁မူ	-601
ရှား	-602
▁ဣသရေလအမျိုးသား	-603
ဆီး	-604
မန်	-605
▁ရွှ	-606
▁စီရင်	-607
ဝါ	-608
▁အလွန်	-609
ဘေး	-610
▁သင့်ကို	-611
သောကြောင့်၊	-612
▁ဆင်း	-613
▁ယေရုရှလင်မြို့	-614
ရှာ	-615
ရှေ့မှာ	-616
စိုး	-617
▁လျှောက်	-618
ုလ	-619
ဘော	-620
သကဲ့သို့	-621
ကိုလည်း	-622
ောင့်မတ်	-623
တူ	-624
စီး	-625
▁ထာဝရ	-626
သမီး	-627
▁ရှော	-628
ေါင်း	-629
▁မင်း	-630
ရောဖက်	-631
▁မြင်	-632
ပြီးမှ၊	-633
လမ်း	-634
သုံး	-635
တော်မူပါ။	-636
တကွ	-637
နှုတ်	-638
အသက်	-639
ိုလ်	-640
▁ကျေးဇူး	-641
တွင်း	-642
ဆုံး	-643
မိန့်	-644
▁မြေကြီး	-645
ဘက်၌	-646
စီရင်	-647
ိညာဉ်	-648
ဆက်	-649
ရှို့	-650
▁ငါတို့သည်	-651
ကောင်	-652
လော့ဟု	-653
ာန	-654
တွင်၊	-655
နစ်	-656
▁မိန်းမ	-657
ာရ	-658
ညတ်	-659
ပြီးလျှင်၊	-660
တည်	-661
တောင်း	-662
ကျင့်	-663
ယဇ်	-664
▁ဒု	-665
ခိုး	-666
သောအရာ	-667
မ္	-668
အံ့	-669
▁ရန်	-670
တော်သို့	-671
▁အစဉ်	-672
င်္ဂလာ	-673
၏သား	-674
အပြစ်	-675
ကြည်	-676
ဏာ	-677
နက်	-678
ချက်	-679
တွက်	-680
မှစ၍	-681
▁တောင်	-682
ခြင်းသို့	-683
လွှတ်	-684
▁များ	-685
▁အရှင်	-686
ထဲသို့	-687
▁အခြား	-688
ကြောင်းကို	-689
▁ငြ	-690
သောသူ၊	-691
မှန်	-692
▁မေး	-693
တည်းဟူသော	-694
▁ရှေ့	-695
ရ၏။	-696
▁ကိုယ်တော်သည်	-697
▁လိုက်	-698
▁သက်	-699
တို့၊	-700
သိမ်း	-701
အစ်ကို	-702
ရု	-703
ရိုက်	-704
သောအမှု	-705
မြို့၊	-706
တွေ့	-707
▁စောင့်	-708
▁ဖြောင့်မတ်	-709
ိရ	-710
သည်လည်း	-711
▁အရာ	-712
စစ်	-713
ာက	-714
ဖြစ်စေ	-715
▁ခေါ်	-716
ာဗ	-717
ဆွေ	-718
မှတ်	-719
မှား	-720
သော်လည်း	-721
လေး	-722
▁ကြီး	-723
▁အရပ်	-724
နှလုံး	-725
လိမ့်မည်ဟု	-726
▁ပရောဖက်	-727
▁မီးရှို့	-728
က္ခ	-729
တော်မ	-730
▁သတ်	-731
ိမာန်	-732
ဆဲ	-733
ပျစ်	-734
အမြ	-735
ဘွယ်	-736
▁ဟော	-737
ုံကြည်	-738
ပြည်၌	-739
▁ချီး	-740
ဇာ	-741
▁နားထောင်	-742
စွာသော	-743
နှင့်အတူ	-744
▁ခံရ	-745
ည့်ရှု	-746
ပြီဟု	-747
မင်းကြီး	-748
ောက်မ	-749
တို့တွင်	-750
ျက်ဆီး	-751
▁မိန့်တော်မူသည်	-752
နည်း။	-753
မြို့သို့	-754
နိုင်ငံ	-755
တတ်သော	-756
နေရာ	-757
▁ဝမ်း	-758
စောင့်	-759
▁လူများ	-760
▁သင်တို့ကို	-761
ဆာ	-762
ဖြစ်၍	-763
ယား	-764
ကပ်	-765
▁အာရ	-766
ရည်	-767
ကျိုး	-768
▁မိမိတို့	-769
စရိုက်	-770
နှင့်တကွ	-771
▁တော	-772
▁ကျောက်	-773
ပျက်	-774
မွမ်း	-775
ကိုယ်	-776
▁အသီး	-777
မိန်းမ	-778
▁ကိုယ်တော်ကို	-779
ေဒ	-780
▁ယူ	-781
သလော။	-782
▁ညီ	-783
▁လမ်း	-784
ခေါ်	-785
သားတို့သည်	-786
သောသူတို့သည်	-787
တု	-788
အလို	-789
င်ရှား	-790
▁စေ	-791
က္ကာ	-792
ဆို၏။	-793
▁ဘုရားသခင်သည်	-794
မြို့၌	-795
▁တန်	-796
▁အသ	-797
နှင့်အ	-798
လျှောက်	-799
င်လ	-800
ရမည်	-801
အမှုကို	-802
▁တပါး	-803
ရွ	-804
ကုန်	-805
ကြ။	-806
▁တယောက်	-807
တံခါး	-808
ာကုပ်	-809
ဟူမူကား၊	-810
ခြောက်	-811
မည်အကြောင်း၊	-812
ငါး	-813
သည်ကား၊	-814
▁ဝင်	-815
သနည်း	-816
▁ကိုယ်တော်၏	-817
နေ့၌	-818
ွဲ့	-819
▁မတရား	-820
တော်မမူ	-821
▁ထာဝရဘုရားကို	-822
ိလ	-823
▁ကာလ	-824
▁ပညာ	-825
ဝပ်	-826
ကြယ်	-827
ရိုး	-828
▁ဆုံး	-829
စည်း	-830
အသီး	-831
ဗြ	-832
ပည့်	-833
ရိမ်	-834
▁ပညတ်	-835
စေခြင်းငှါ၊	-836
ုန့်	-837
ခံရ	-838
ဆိုင်	-839
▁ပြည့်	-840
လူတို့သည်	-841
▁ဗိမာန်	-842
နိ	-843
▁ရွှေ	-844
▁ရန်သူ	-845
▁အသက်ရှင်	-846
သက္ကာ	-847
တော်မူပြီ။	-848
သောကြောင့်	-849
▁အဘယ်ကြောင့်	-850
ကိုမ	-851
ဆိုး	-852
တဖန်	-853
သွား၍	-854
▁သင်္	-855
၏ဟု	-856
အုပ်	-857
သား၊	-858
▁စပျစ်	-859
ပယ်	-860
ထုတ်	-861
အရှင်	-862
တ္တာ	-863
ဆင်	-864
▁ခါ	-865
▁ဟေ	-866
သည်၊	-867
▁ကြောက်	-868
▁လော	-869
လို	-870
ွန့်	-871
ဟူ၍	-872
▁အလို	-873
ကယ်	-874
▁အဲဂုတ္တုပြည်	-875
▁သိမ်း	-876
▁ကယ်တင်	-877
တော်နှင့်	-878
ွင်	-879
လွတ်	-880
▁နေ့	-881
မျက်နှာ	-882
▁ဆင်းရဲ	-883
မြေ	-884
▁မည်။	-885
▁သုံး	-886
▁တပ်	-887
▁မှာ	-888
▁အခွင့်	-889
အပ်	-890
▁တဲ	-891
ပြု၍	-892
▁ဒုစရိုက်	-893
တမန်	-894
▁အမျက်	-895
လွှ	-896
မည်း	-897
ရိသတ်	-898
အတွက်	-899
ပတ်လုံး	-900
ဟာ	-901
ပါဟု	-902
နားမှာ	-903
▁အပ်	-904
များ၊	-905
မှတပါး	-906
▁အချင်း	-907
▁နွား	-908
ေလွှတ်	-909
▁သူ့ကို	-910
▁တိုက်	-911
ပွဲ	-912
ပြည့်	-913
▁ယာကုပ်	-914
ဥစ္စာ	-915
သနည်းဟု	-916
ိုလ်ခြေ	-917
သရေ	-918
ကွယ်	-919
▁အပေါင်း	-920
မြတ်	-921
ရှက်	-922
▁စေလွှတ်	-923
ကြပြီ။	-924
▁ယနေ့	-925
▁တို့ကို	-926
ဘူး	-927
▁သို့ရာ	-928
▁သင်တို့၏	-929
▁ခု	-930
▁အကျွန်ုပ်ကို	-931
စိ	-932
ကြွင်း	-933
▁တိုင်	-934
▁ရှောလု	-935
▁နောက်တဖန်	-936
တခု	-937
စေ့	-938
▁၏။	-939
ှဉ်း	-940
▁မျက်နှာ	-941
ချို့	-942
▁နန်း	-943
▁အကျွန်ုပ်သည်	-944
▁ရာ	-945
မ္မ	-946
နေသော	-947
အန	-948
▁အန	-949
▁လည်း	-950
ငြ	-951
ှဉ်းဆဲ	-952
အချိန်	-953
မရှိ။	-954
▁အာမ	-955
▁အမိန့်	-956
ဟော	-957
▁ပယ်	-958
▁ရှာ	-959
▁ခရစ်	-960
ရွာ	-961
မြစ်	-962
ရွက်	-963
ရာသို့	-964
▁ဘုန်း	-965
ဖွဲ့	-966
▁ဖိ	-967
ပါစေသော	-968
▁သစ္စာ	-969
▁ယုံကြည်	-970
ာဗုလ	-971
▁ကြည့်ရှု	-972
အပေါင်းတို့ကို	-973
▁ပေါ	-974
သည်အတိုင်း၊	-975
▁ငွေ	-976
ဝိညာဉ်	-977
တရားကို	-978
ာဗုလုန်	-979
စ္ဆ	-980
▁ပြင်	-981
ပြုသော	-982
▁သာ	-983
▁လေဝိ	-984
▁ကျိန်	-985
▁နှင့်	-986
သေး	-987
လောဟု	-988
ုတောင်း	-989
ဆွေအမျိုး	-990
မြှ	-991
အမည်	-992
▁ပရိသတ်	-993
ခြင်းနှင့်	-994
ပါပြီ။	-995
▁ဝတ်	-996
ရှောက်	-997
စ္ဆာန်	-998
ဖြစ်သော	-999
သည်ဖြစ်၍၊	-1000
▁ရွေး	-1001
အတိုင်း၊	-1002
သေခံ	-1003
▁ညီအစ်ကို	-1004
လတ	-1005
▁နိုင်	-1006
▁လိမ့်	-1007
စံ	-1008
▁ယောက်	-1009
▁အိပ်	-1010
ပ်သိမ်း	-1011
▁ပြည့်စုံ	-1012
▁ဝမ်းမြောက်	-1013
လဲ	-1014
▁ဟု	-1015
▁ထိုသူသည်	-1016
ိုးဘေး	-1017
▁တွေ့	-1018
▁တောင်း	-1019
ပည့်တော်	-1020
▁ယဇ်ပလ္လင်	-1021
သပ်	-1022
▁လု	-1023
ဘော်	-1024
▁ဝိညာဉ်	-1025
▁ကိုယ်ကို	-1026
▁မိန့်တော်မူ	-1027
မက်	-1028
▁မေ	-1029
န့်ထား	-1030
ပေါ်သို့	-1031
ကပတ်	-1032
▁ဤသူ	-1033
ောက်မေ့	-1034
▁ထိုသူတို့သည်	-1035
ယော	-1036
▁လူမျိုး	-1037
တကား	-1038
▁အာရုန်	-1039
▁သူတို့၏	-1040
▁ဆောင်ခဲ့	-1041
ခရ	-1042
ုရိ	-1043
▁နာ	-1044
ရှိကြ၏။	-1045
ရွံ့	-1046
ကြောက်	-1047
▁လွှတ်	-1048
ဆီ	-1049
▁ချီးမွမ်း	-1050
လျက်နေ	-1051
တင်း	-1052
ရင်း	-1053
▁ငြိမ်	-1054
▁အမျိုးသား	-1055
လင့်	-1056
▁ခုနစ်	-1057
▁ထင်ရှား	-1058
▁ဖိလိ	-1059
အပေါ်မှာ	-1060
▁မုန့်	-1061
ဝတ်ကို	-1062
▁တံခါး	-1063
▁ကျင့်	-1064
သောငှါ	-1065
ဖြစ်စေ၊	-1066
▁စည်း	-1067
▁တို့သည်	-1068
မျှမ	-1069
မ်းသာ	-1070
ရာယဇ်	-1071
▁ထိုနောက်	-1072
တံ	-1073
အရာ၌	-1074
တန်ဆာ	-1075
တော်၏	-1076
ကောင်းကင်	-1077
သငယ်	-1078
▁နာမ	-1079
▁ဧလိ	-1080
▁ဖျက်ဆီး	-1081
ထဲမှာ	-1082
ခေါင်း	-1083
ဉ့်	-1084
▁ဇိ	-1085
ချစ်	-1086
သံကို	-1087
▁ပြစ်	-1088
▁ပြေး	-1089
ပန်	-1090
ယူ၍	-1091
ရှဲ	-1092
▁သံ	-1093
▁မင်္ဂလာ	-1094
▁အတိုင်း	-1095
ပစ်	-1096
သောက်	-1097
သောသူတို့ကို	-1098
▁ပူဇော်သက္ကာ	-1099
ခတ်	-1100
ရပ်၌	-1101
လတံ့	-1102
▁သူတပါး	-1103
ုပ်တု	-1104
▁ခပ်သိမ်း	-1105
▁အထ	-1106
▁နေရာ	-1107
မဲ့	-1108
ပေ	-1109
▁အလျ	-1110
▁ကြောင့်	-1111
▁ထိုကြောင့်	-1112
▁သန့်ရှင်းသော	-1113
စေ။	-1114
ရလိမ့်မည်။	-1115
ဏ္	-1116
သူရဲ	-1117
▁အာဗြ	-1118
ရံ	-1119
ဖြေ	-1120
▁ပါ	-1121
ခြင်းငှါ၊	-1122
▁ဗာဗုလုန်	-1123
နယ်	-1124
သည်မဟုတ်	-1125
▁ဟောပြော	-1126
▁စစ်တိုက်	-1127
▁တပည့်တော်	-1128
မပြ	-1129
▁ပြစ်မှား	-1130
▁ဩ	-1131
▁မထ	-1132
ကာလ၌	-1133
▁ခြေ	-1134
ခုနစ်	-1135
▁ပျက်	-1136
▁မဟုတ်	-1137
ရကြမည်။	-1138
သောသူကို	-1139
▁သို့ဖြစ်၍	-1140
ဟံ	-1141
ဆိတ်	-1142
▁ဘုရားသခင်ကို	-1143
ကန်	-1144
ပါစေသော။	-1145
▁အခြားသော	-1146
▁နားမ	-1147
▁ခြ	-1148
ကြွေး	-1149
အသက်ကို	-1150
ရှေ့တော်၌	-1151
▁နှုတ်ကပတ်	-1152
သင့်	-1153
သောင်း	-1154
လူမျိုး	-1155
▁တပါးအမျိုးသား	-1156
▁အထက်	-1157
▁ခမည်း	-1158
သမျှသော	-1159
စပ်	-1160
▁တတ်	-1161
▁ဘေး	-1162
ီချင်း	-1163
ယေ	-1164
▁စု	-1165
▁ပျ	-1166
ခြင်းရှိ	-1167
▁ဆုတောင်း	-1168
▁ယောက်ျား	-1169
▁ချစ်	-1170
တမ်း	-1171
▁တိရ	-1172
လမုန်	-1173
ကြပါ၏။	-1174
▁ငါမ	-1175
ကို၎င်း	-1176
လုံးစုံ	-1177
ဗိုလ်ခြေ	-1178
ဘဲနေ	-1179
အရပ်၌	-1180
ပူဇော်	-1181
ကျေးဇူး	-1182
▁ရှေ့တော်၌	-1183
▁စိတ်နှလုံး	-1184
သာ၍	-1185
▁တံ	-1186
▁နေရ	-1187
ကြည့်	-1188
းကွယ်	-1189
▁အမွေ	-1190
သောစိတ်	-1191
ရဲ့	-1192
ာဏ်	-1193
ှက်	-1194
▁ကောင်းကြီး	-1195
အာ	-1196
ပေါ်၌	-1197
မြင့်	-1198
▁လေး	-1199
▁လိမ့်မည်။	-1200
ျာဒ	-1201
ခန်း	-1202
ော့။	-1203
ဲ့ရဲ့	-1204
ော်လင့်	-1205
▁မျ	-1206
ဘွား	-1207
အောက်	-1208
▁တစုံ	-1209
▁အုပ်	-1210
ကြနှင့်။	-1211
တော်မူမည်။	-1212
ျာဒိတ်	-1213
မြှောက်	-1214
တပ်	-1215
ရန်	-1216
▁ဆက်	-1217
▁ဥစ္စာ	-1218
သကဲ့သို့၊	-1219
▁ပြန်ပြော	-1220
▁ဆီ	-1221
ခရစ်	-1222
နည်းဟု	-1223
နာမ	-1224
▁စကားကို	-1225
လူတို့ကို	-1226
ပြည်သို့	-1227
တဘက်၌	-1228
နှင့်အညီ	-1229
▁ကျွန်တော်	-1230
လာ၍၊	-1231
ော်ဒ	-1232
လူတို့	-1233
စေလွှတ်	-1234
အခါ	-1235
▁စုံ	-1236
▁ဝန်	-1237
သားကို	-1238
▁အသေ	-1239
▁အကျိုး	-1240
တော်မူ၍၊	-1241
ထာဝရဘုရား၊	-1242
▁ထာဝရဘုရားအား	-1243
အစ	-1244
လာ၍	-1245
ရုဏာ	-1246
ကြော်	-1247
▁လှည့်	-1248
▁ကျွန်ုပ်	-1249
▁တိရစ္ဆာန်	-1250
▁သို့ရာတွင်	-1251
▁တော်	-1252
▁ကျမ်း	-1253
မှာ၊	-1254
▁အကယ်	-1255
▁ညှဉ်းဆဲ	-1256
ပု	-1257
စွဲ	-1258
▁ရှေ	-1259
▁တန်ခိုး	-1260
▁ပဌ	-1261
▁ဆုံးမ	-1262
ငှာ	-1263
ဘဲ၊	-1264
ဖြတ်	-1265
ပြည်ကို	-1266
▁စင်	-1267
င်လယ်	-1268
▁ပင်လယ်	-1269
▁မှာထား	-1270
▁????????????	-1271
ိုကြွေး	-1272
ပြည့်စုံ	-1273
▁ပြောဆို	-1274
မယား	-1275
▁နက်	-1276
မိုက်	-1277
▁ဘိုးဘေး	-1278
▁နံ	-1279
▁ယောသပ်	-1280
▁သို့သော်လည်း	-1281
▁အရှင်ထာဝရဘုရား	-1282
ဌာန	-1283
▁ပေ	-1284
သဘော	-1285
▁မရှိ	-1286
င့်ဆို	-1287
အပေါင်းတို့	-1288
ကြွ	-1289
ထိုင်	-1290
▁လျက်	-1291
▁ဖိလိတ္တိ	-1292
အမြဲ	-1293
▁သူငယ်	-1294
▁ကောင်းကင်တမန်	-1295
ယာ	-1296
▁တင်	-1297
န္	-1298
▁ဗာလ	-1299
ချုပ်	-1300
▁မြင်း	-1301
သားတို့ကို	-1302
▁ကြွ	-1303
ပိုင်	-1304
သွား၍၊	-1305
လျက်ရှိ	-1306
နှစ်ယောက်	-1307
ကဲ	-1308
ဂါ	-1309
ကျောက်	-1310
လိမ့်မည်	-1311
စီ	-1312
ဟစ်	-1313
ထံတော်သို့	-1314
ကျင်	-1315
ခံရသော	-1316
???	-1317
▁စာရ	-1318
▁မြစ်	-1319
သောသူ၏	-1320
▁ထိုင်	-1321
ဖြစ်ကြ၏။	-1322
▁လောက	-1323
နည်းတူ	-1324
ပလ္လင်	-1325
ကြီးသော	-1326
▁နိုင်ငံ	-1327
▁အဘယ်သူမျှ	-1328
▁အကျွန်ုပ်၏	-1329
▁ဧဖ	-1330
▁လွှ	-1331
အနွယ်	-1332
စရာဘို့	-1333
▁ငါတို့ကို	-1334
▁ရပ်	-1335
▁အခါ	-1336
▁ယေရှုသည်	-1337
ယျာ	-1338
▁မု	-1339
ယျာဉ်	-1340
တတ်ကြ၏။	-1341
လျက်ရှိ၏။	-1342
▁အောက်မေ့	-1343
ဝန်	-1344
လွန်	-1345
အသရေ	-1346
▁ကြ၏။	-1347
▁ဆိတ်	-1348
▁ခန့်ထား	-1349
ရကြ၏။	-1350
ရှောင်	-1351
မှူး	-1352
▁ဒဏ်	-1353
▁သာ၍	-1354
▁အဝတ်	-1355
ထားသော	-1356
▁ယောရှု	-1357
မြို့သား	-1358
▁ဖာ	-1359
စမ်း	-1360
▁ငါပေး	-1361
▁ဗျာဒိတ်	-1362
▁ကြောက်ရွံ့	-1363
▁၌	-1364
ရာ၊	-1365
လူ၊	-1366
အဘယ်	-1367
▁အနာ	-1368
နှံ	-1369
▁ဟာ	-1370
▁သတိ	-1371
လျော့	-1372
အံ့သောငှါ	-1373
▁ရှောလမုန်	-1374
▁ကိုယ်တိုင်	-1375
▁ချီ	-1376
▁အစာ	-1377
▁အရေ	-1378
လက်မှ	-1379
▁သက်သေခံ	-1380
ုဗ	-1381
ယ်၌	-1382
ပါမည်။	-1383
▁စွန့်	-1384
မြို့နှင့်	-1385
▁ဣသရေလအမျိုး၏	-1386
ချင်	-1387
▁လူအ	-1388
▁စုဝေး	-1389
မြို့ကို	-1390
စ်ည	-1391
တရု	-1392
ပန်း	-1393
▁မူ၏။	-1394
▁ကရုဏာ	-1395
▁ဒါဝိဒ်သည်	-1396
ဇိ	-1397
မေး	-1398
သနား	-1399
▁ငါး	-1400
▁သစ်	-1401
တို့က၊	-1402
ပိုင်း	-1403
▁ထောင်	-1404
ကြော	-1405
တကား။	-1406
▁အာရှ	-1407
စေမည်။	-1408
▁အာဗြဟံ	-1409
▁မင်းကြီး	-1410
ရှိသမျှတို့ကို	-1411
တော	-1412
အစဉ်	-1413
င်ထုတ်	-1414
▁မျက်စိ	-1415
သမ	-1416
▁ရေး	-1417
▁အကြံ	-1418
▁နားမထောင်	-1419
▁ထာဝရဘုရားမိန့်	-1420
▁မိုဃ်းကောင်းကင်	-1421
▁ပတ်	-1422
▁အံ့	-1423
▁ကင်း	-1424
▁မှတ်	-1425
▁ပျက်စီး	-1426
▁ရှိသမျှ	-1427
▁သခင်ဘုရား	-1428
▁ထိုကြောင့်၊	-1429
▁ပေါ်	-1430
ော်ဟစ်	-1431
▁၏	-1432
တကောင်	-1433
▁အသွေး	-1434
▁ငါ့အား	-1435
▁တဲတော်	-1436
▁အကယ်စင်	-1437
▁အိုထာဝရဘုရား၊	-1438
ေသ	-1439
ဒုံ	-1440
▁အစ	-1441
စင်ကြယ်	-1442
▁ကဲ့ရဲ့	-1443
▁ဖြစ်၏။	-1444
ခြင်းငှာ	-1445
ရှိရာသို့	-1446
လင်း	-1447
▁တက်	-1448
▁အကြ	-1449
▁လွန်	-1450
ကိုမျှ	-1451
တန်ခိုး	-1452
တော်ရှိ	-1453
တော်မူလျှင်၊	-1454
ခွက်	-1455
မူကား	-1456
သန်	-1457
သွေး	-1458
ုလား	-1459
စ်ညူး	-1460
ည်တမ်း	-1461
ယေရှု	-1462
▁ငိုကြွေး	-1463
▁မြော်လင့်	-1464
▁မယား	-1465
▁သင်၌	-1466
▁ပေါလု	-1467
▁မိုက်	-1468
အမျိုး၊	-1469
▁စပျစ်ရည်	-1470
များတို့သည်	-1471
▁အကယ်စင်စစ်	-1472
ကြပါ	-1473
ဖျား	-1474
ရှေ့၌	-1475
ိုင့်	-1476
▁နံနက်	-1477
▁ကျွန်မ	-1478
အမျိုးမျိုး	-1479
▁ဦး	-1480
ချီး	-1481
ကျိပ်	-1482
စည်းဝေး	-1483
နှစ်ဆယ်	-1484
▁မရ	-1485
စေ၍၊	-1486
ံ့သာ	-1487
န်ကြွင်း	-1488
အပြစ်ကို	-1489
သောအခွင့်	-1490
ကောက်	-1491
ဆောက်	-1492
▁ဗင်္	-1493
▁သို့မဟုတ်	-1494
ွေလ	-1495
ွန်အား	-1496
▁ကြွေး	-1497
သန့်ရှင်း	-1498
▁မာ	-1499
ပိုး	-1500
ပွန်း	-1501
လောက်	-1502
▁လော့။	-1503
▁အပြစ်ဖြေ	-1504
ခင့်	-1505
မွေး	-1506
ဝမ်း	-1507
ကြိုး	-1508
င်လန်း	-1509
▁ဆင့်ဆို	-1510
▁သင်၏ဘုရားသခင်	-1511
ထဲ၌	-1512
ဒေါ	-1513
▁စာ	-1514
▁ဟူ	-1515
▁ဘွား	-1516
▁ခိုင်	-1517
မင်းသည်	-1518
ဗောင်	-1519
▁ထုတ်	-1520
▁သေတ္တာ	-1521
တိယ	-1522
ရေး	-1523
ဟန်	-1524
▁ခရ	-1525
▁တမန်	-1526
လုံးကို	-1527
ကြလော့ဟု	-1528
ဆိုင်သော	-1529
▁သီချင်း	-1530
▁အကျွန်ုပ်တို့	-1531
▁မောဘ	-1532
▁အရင်	-1533
▁ဥာဏ်	-1534
ိမ့်ချ	-1535
ော်ဒန်	-1536
နီး	-1537
ွပ်	-1538
▁ဂိလ	-1539
ထိုက်	-1540
ဖျက်ဆီး	-1541
နိုင်သော	-1542
▁ထိုအမှု	-1543
သောအမှုကို	-1544
▁ထိုမိန်းမ	-1545
▁ဂု	-1546
တစုံ	-1547
ပျို	-1548
ပြုရ	-1549
မရှိ၊	-1550
ဘွယ်သော	-1551
▁အစဉ်အမြဲ	-1552
▁အဆွေအမျိုး	-1553
တော်မူသည်ကား၊	-1554
▁ဂိ	-1555
▁ဖန်	-1556
▁လယ်	-1557
မပြတ်	-1558
▁ရုပ်တု	-1559
▁သမ	-1560
ပြေး	-1561
ပြည်၊	-1562
▁အောင်	-1563
▁ဧဖရိမ်	-1564
တို့သည်၊	-1565
▁ချမ်းသာ	-1566
▁စင်ကြယ်	-1567
ငွေ	-1568
ဖျက်	-1569
မှတပါး၊	-1570
တော်မူသဖြင့်၊	-1571
ခဲ	-1572
၏အ	-1573
ခို	-1574
စော	-1575
လှုပ်	-1576
ာမိန်	-1577
▁ထမ်း	-1578
▁ပေတရု	-1579
▁ပြင်း	-1580
▁ငြိမ်ဝပ်	-1581
▁သင်တို့အား	-1582
တော်အားဖြင့်	-1583
▁မီးရှို့ရာယဇ်	-1584
▁၍	-1585
တား	-1586
▁ငါအ	-1587
▁မသိ	-1588
▁တည်း	-1589
▁ရှိ၏။	-1590
ိမင်း	-1591
▁ယော်ဒန်	-1592
ငါ့	-1593
▁ဂါ	-1594
▁မခံ	-1595
ပေါက်	-1596
▁သဘော	-1597
ဉ်းကပ်	-1598
▁ဖန်ဆင်း	-1599
များနှင့်	-1600
ကိ	-1601
ရာ၌	-1602
မပြု	-1603
▁ဂုဏ်	-1604
အရာကို	-1605
▁အကြင်	-1606
▁အချိန်	-1607
▁ပြင်ဆင်	-1608
ချီ	-1609
သိုး	-1610
▁????	-1611
▁ကြိုး	-1612
▁သွန်း	-1613
▁သွား၍	-1614
▁တော်မူ၏။	-1615
ခြင်းအားဖြင့်	-1616
ဗိုလ်ခြေအရှင်	-1617
ွါ	-1618
တဘက်	-1619
ချည်း	-1620
သခင့်	-1621
ခရိုင်	-1622
ရာအရပ်	-1623
▁လုပ်ကြံ	-1624
▁ထွက်သွား	-1625
ဒု	-1626
မိုး	-1627
▁ခရီး	-1628
▁ဆိုး	-1629
ပျောက်	-1630
ယာမိန်	-1631
▁မတရားသော	-1632
လုံ	-1633
▁ဆယ်	-1634
▁စပါး	-1635
ပါသည်ဟု	-1636
▁ကျိန်ဆို	-1637
▁ဗိမာန်တော်	-1638
▁ခပ်သိမ်းသော	-1639
မြဲ	-1640
ောဇ	-1641
▁ဇာ	-1642
ဆော်	-1643
▁သောက်	-1644
▁အစိုး	-1645
ပြည်သား	-1646
▁ရှိသော	-1647
▁အချင်းချင်း	-1648
လား	-1649
ပညတ်	-1650
လေပြီ။	-1651
▁မြောက်	-1652
မည်နည်း။	-1653
▁ယုဒရှင်ဘုရင်	-1654
▁ကောင်းကြီးပေး	-1655
▁လွတ်	-1656
▁နောင်	-1657
▁အသက်ကြီး	-1658
ဝဲ	-1659
ပုံ	-1660
ကိုင်	-1661
မှာထား	-1662
▁လောကီ	-1663
▁သို့သော်လည်း၊	-1664
ကွဲ	-1665
ရွှ	-1666
ရကြ။	-1667
နေ့ရက်	-1668
၌၎င်း၊	-1669
လက်သို့	-1670
ပြစ်မှား	-1671
▁သူတို့အား	-1672
▁ထိုသို့သော	-1673
ဘုံ	-1674
▁ဗာ	-1675
ထွက်၍	-1676
ပါစေ။	-1677
▁မှန်	-1678
▁စည်းဝေး	-1679
▁သင်္ဘော	-1680
▁အသံ	-1681
ပါသော	-1682
▁ရှောက်	-1683
▁မကောင်း	-1684
တို့ကို၎င်း၊	-1685
သ်	-1686
ဟာယ	-1687
တိမ်	-1688
ေးဝါ	-1689
▁ရော	-1690
ကြသည်	-1691
နှင့်၊	-1692
▁နံ့သာ	-1693
▁ဝန်ခံ	-1694
ိုးဆော်	-1695
ောင်မိုက်	-1696
▁ချီးမြှောက်	-1697
ဆေး	-1698
မသိ	-1699
ကို၊	-1700
မြန်း	-1701
နိုင်။	-1702
▁ဗိုလ်	-1703
သောအရပ်	-1704
▁ခေါင်း	-1705
▁သင်တို့၌	-1706
ပညာ	-1707
နွား	-1708
ပုသ်	-1709
▁စိုး	-1710
သေ့	-1711
ခြင်	-1712
ပွား	-1713
အုန်	-1714
သွင်း	-1715
ဣသရေလ	-1716
င်္သေ့	-1717
ဒါဝိဒ်	-1718
▁မြင့်	-1719
▁မြည်း	-1720
သောသူတို့	-1721
▁ခမည်းတော်	-1722
မှီတိုင်အောင်	-1723
လက်၌	-1724
▁အမိ	-1725
က္ခဏာ	-1726
မုန့်	-1727
▁ကုလား	-1728
ပြီးလျှင်	-1729
သောသူဖြစ်	-1730
▁ထိုသူကို	-1731
▁ဗင်္ယာမိန်	-1732
▁များစွာသော	-1733
လှုံ	-1734
ကြကုန်	-1735
အတွင်း	-1736
ဆုံးသော	-1737
ရောဘုရင်	-1738
ဗာ	-1739
ခံ့	-1740
▁အလျင်	-1741
▁ခွန်အား	-1742
သောအရာကို	-1743
▁မစင်ကြယ်	-1744
▁ဆောင်ရွက်	-1745
▁သို့ဖြစ်၍၊	-1746
ညှ	-1747
င်၊	-1748
ံရှာ	-1749
▁ငါ့အ	-1750
▁အချို့	-1751
▁အမှုကို	-1752
▁မောရှေသည်	-1753
▁ကြွေးကြော်	-1754
ရကြလိမ့်မည်။	-1755
ဗု	-1756
မာရိ	-1757
သို့ရောက်	-1758
▁အိမ်တော်	-1759
▁အုပ်စိုး	-1760
ရှိသမျှကို	-1761
▁မောရှေအား	-1762
ပ္	-1763
လွှဲ	-1764
လှည့်	-1765
ရမည်ဟု	-1766
▁မိမိအ	-1767
▁အရှေ့	-1768
▁ညစ်ညူး	-1769
▁တော်မူ	-1770
ကြွား	-1771
ရှုံး	-1772
လုံးအ	-1773
▁မပြု	-1774
▁တော်ကို	-1775
▁ကိုးကွယ်	-1776
စက်	-1777
ဆရာ	-1778
တက်	-1779
▁လဲ	-1780
စိမ်	-1781
ရှိ၍၊	-1782
▁ချက်	-1783
▁ညဉ့်	-1784
▁ပြုရ	-1785
▁ဘော်	-1786
▁ရှေး	-1787
လောင်း	-1788
ချိုင်း	-1789
▁သိတင်း	-1790
▁သိုးသငယ်	-1791
▁အသီးအသီး	-1792
စေတော်မူ၏။	-1793
ဆိုသည်ကား၊	-1794
ထောက်	-1795
▁ခြင်း	-1796
မြို့မှ	-1797
ကဲ့သို့၎င်း၊	-1798
လုံးစုံတို့ကို	-1799
ဟ်	-1800
ပါရ	-1801
စေ၏။	-1802
▁ပိတ်	-1803
▁လုယူ	-1804
▁သတ္တ	-1805
▁သနား	-1806
သလောဟု	-1807
ယုံကြည်	-1808
တော်တို့ကို	-1809
သစ်	-1810
▁အကျ	-1811
က်စား	-1812
▁ဆို၏။	-1813
သွားကြ၏။	-1814
▁စောင့်ရှောက်	-1815
▁ရဲ	-1816
▁ငါ၌	-1817
ယွင်း	-1818
▁လေ၏။	-1819
▁သမီး	-1820
အချို့	-1821
၌ရှိသော	-1822
ကြကုန်အံ့	-1823
ဆံ	-1824
ြို	-1825
စေသော	-1826
စွန့်	-1827
ြိုဟ်	-1828
မျက်စိ	-1829
▁သွင်း	-1830
▁ကြေးဝါ	-1831
▁အကျင့်	-1832
ဆောင်ခဲ့	-1833
တို့သည်လည်း	-1834
▁သင်တို့တွင်	-1835
၍မ	-1836
▁အတူ	-1837
အခွင့်	-1838
▁သိုးထ	-1839
ကြည့်ရှု	-1840
▁အဲဂုတ္တုပြည်မှ	-1841
တာ	-1842
ပျော်	-1843
ပြု၍၊	-1844
္မုန်	-1845
▁လူသည်	-1846
▁ဇိအုန်	-1847
▁ကျမ်းစာ	-1848
▁အော်ဟစ်	-1849
▁ကျန်ကြွင်း	-1850
ဟိ	-1851
ေလ၊	-1852
▁ထ၍	-1853
▁အခ	-1854
နင်း	-1855
လျောက်	-1856
သူကြီး	-1857
ွန်သင်	-1858
▁ဤသို့	-1859
တော်မမူ။	-1860
▁နှစ်သက်	-1861
▁ယုဒပြည်	-1862
▁တောင်းပန်	-1863
ယ၊	-1864
ခုံ	-1865
ခေါ	-1866
▁မုသာ	-1867
ဘုရား၊	-1868
ကင်း	-1869
လန့်	-1870
▁မှီ	-1871
▁တွင်	-1872
▁ကြည့်	-1873
တို့နှင့်တကွ	-1874
စေဟု	-1875
ညဉ့်	-1876
မြေး	-1877
▁ထူး	-1878
▁ပစ်	-1879
▁မနာ	-1880
ကြိမ်	-1881
▁ရှက်	-1882
▁ပေါင်း	-1883
ညီအစ်ကို	-1884
▁ရောက်လာ	-1885
▁ခြင်္သေ့	-1886
ဝေ	-1887
ထပ်	-1888
▁အဗ	-1889
သူသည်	-1890
အလယ်၌	-1891
ိမိတ်	-1892
▁ရှုရိ	-1893
ချောင်း	-1894
မင်္ဂလာ	-1895
▁နေ့ရက်	-1896
▁သိမ်းယူ	-1897
▁မှောင်မိုက်	-1898
▁ကိုယ်တော်ကျွန်	-1899
ရဟု	-1900
နေ၏။	-1901
ရိပ်	-1902
ကျမ်း	-1903
လောင်	-1904
ုတ်သင်	-1905
သည်လည်း၊	-1906
▁ယေရှုခရစ်	-1907
္ဒ	-1908
မော	-1909
ံကို	-1910
အမြန်	-1911
▁ကား၊	-1912
မှောက်	-1913
▁နေကြ၏။	-1914
သောအပြစ်	-1915
နှင့်အညီ၊	-1916
သောသူတို့၏	-1917
▁ယော်ဒန်မြစ်	-1918
ေလိ	-1919
ဖုံး	-1920
▁တော၌	-1921
▁ဧဒုံ	-1922
သားသည်	-1923
ပြီးသော	-1924
▁ကြွင်း	-1925
ယောက်ျား	-1926
▁သိမ်းသွား	-1927
▁ဒုစရိုက်ကို	-1928
▁ကောင်းကင်ဘုံ	-1929
ထ၍	-1930
ဒဏ်	-1931
ရပါ	-1932
ဝါး	-1933
▁ဣသ	-1934
အကြီး	-1935
▁ဂိလဒ်	-1936
နှင့်ဟု	-1937
်	-1938
▁	-1939
ာ	-1940
ု	-1941
ိ	-1942
ေ	-1943
း	-1944
သ	-1945
က	-1946
င	-1947
မ	-1948
တ	-1949
့	-1950
ရ	-1951
ြ	-1952
အ	-1953
ှ	-1954
ည	-1955
န	-1956
လ	-1957
ပ	-1958
စ	-1959
၊	-1960
ျ	-1961
ူ	-1962
ခ	-1963
။	-1964
ါ	-1965
ွ	-1966
၏	-1967
ထ	-1968
ယ	-1969
ဘ	-1970
ံ	-1971
ီ	-1972
ဖ	-1973
၍	-1974
ဆ	-1975
ဝ	-1976
ဟ	-1977
ဲ	-1978
၌	-1979
?	-1980
္	-1981
ဒ	-1982
ဇ	-1983
ဗ	-1984
၎	-1985
ဉ	-1986
ဂ	-1987
ဣ	-1988
ဤ	-1989
ဏ	-1990
ဧ	-1991
ဥ	-1992
ဦ	-1993
ဃ	-1994
ဌ	-1995
ဩ	-1996
