<pad>	0
</s>	0
<unk>	0
▁t	-0
in	-1
he	-2
▁a	-3
re	-4
on	-5
▁the	-6
at	-7
▁s	-8
en	-9
er	-10
▁c	-11
or	-12
▁o	-13
is	-14
ed	-15
▁w	-16
▁in	-17
es	-18
▁p	-19
an	-20
it	-21
▁of	-22
as	-23
al	-24
▁b	-25
▁f	-26
▁d	-27
ing	-28
▁h	-29
▁to	-30
ar	-31
nd	-32
ion	-33
ent	-34
ou	-35
ic	-36
▁m	-37
il	-38
ac	-39
om	-40
▁and	-41
ve	-42
▁be	-43
▁T	-44
▁th	-45
▁n	-46
le	-47
▁re	-48
id	-49
▁v	-50
ec	-51
▁C	-52
▁is	-53
▁M	-54
tr	-55
os	-56
▁l	-57
us	-58
ation	-59
ir	-60
▁A	-61
▁g	-62
▁e	-63
▁I	-64
▁S	-65
▁The	-66
ay	-67
ow	-68
▁st	-69
ot	-70
▁for	-71
ver	-72
ly	-73
ol	-74
ad	-75
▁on	-76
ur	-77
im	-78
ut	-79
oron	-80
ill	-81
ave	-82
▁are	-83
op	-84
ter	-85
acc	-86
accin	-87
orona	-88
ment	-89
▁vaccin	-90
ect	-91
ate	-92
et	-93
▁P	-94
▁that	-95
▁has	-96
um	-97
▁H	-98
▁pr	-99
▁al	-100
am	-101
oc	-102
▁have	-103
ati	-104
ce	-105
ith	-106
▁con	-107
th	-108
ig	-109
▁D	-110
▁an	-111
▁with	-112
▁B	-113
▁we	-114
ld	-115
un	-116
▁r	-117
od	-118
ak	-119
ch	-120
and	-121
st	-122
▁corona	-123
▁he	-124
rom	-125
▁1	-126
▁was	-127
est	-128
▁as	-129
ers	-130
ents	-131
▁will	-132
ul	-133
▁from	-134
▁W	-135
▁dis	-136
her	-137
iv	-138
fect	-139
▁2	-140
em	-141
ov	-142
▁wh	-143
ies	-144
ort	-145
▁y	-146
▁not	-147
▁pati	-148
▁R	-149
ain	-150
▁or	-151
▁go	-152
ore	-153
▁at	-154
▁sh	-155
ct	-156
if	-157
▁by	-158
se	-159
pp	-160
ab	-161
umb	-162
▁been	-163
ity	-164
ome	-165
ag	-166
▁it	-167
▁de	-168
▁sa	-169
▁patients	-170
oun	-171
▁ex	-172
res	-173
▁this	-174
irus	-175
▁vaccine	-176
▁ne	-177
▁su	-178
vern	-179
▁tr	-180
ial	-181
▁N	-182
vernment	-183
ive	-184
ess	-185
▁In	-186
el	-187
ople	-188
inis	-189
ase	-190
alth	-191
eople	-192
▁O	-193
▁com	-194
ia	-195
▁said	-196
▁inc	-197
▁U	-198
ant	-199
▁wor	-200
ould	-201
qu	-202
ions	-203
so	-204
▁res	-205
ren	-206
▁"	-207
art	-208
ud	-209
▁government	-210
▁(	-211
▁people	-212
pt	-213
ical	-214
▁Th	-215
ated	-216
har	-217
ther	-218
our	-219
▁also	-220
ict	-221
gen	-222
▁F	-223
act	-224
pit	-225
▁im	-226
▁state	-227
hi	-228
red	-229
▁infect	-230
own	-231
ovid	-232
19	-233
▁se	-234
▁numb	-235
port	-236
▁K	-237
ays	-238
iz	-239
▁us	-240
▁cl	-241
▁were	-242
pital	-243
▁ch	-244
▁G	-245
▁ad	-246
▁per	-247
▁virus	-248
▁He	-249
▁can	-250
▁af	-251
ary	-252
▁test	-253
ap	-254
trict	-255
ospital	-256
▁number	-257
▁u	-258
▁sp	-259
▁le	-260
end	-261
out	-262
igh	-263
▁ab	-264
cc	-265
-19	-266
ts	-267
▁Minis	-268
av	-269
▁coun	-270
▁20	-271
▁E	-272
ash	-273
▁Corona	-274
ock	-275
ge	-276
ous	-277
▁sy	-278
▁all	-279
▁Ind	-280
ast	-281
ear	-282
▁countr	-283
gh	-284
any	-285
ib	-286
▁should	-287
▁other	-288
▁work	-289
ard	-290
ime	-291
▁J	-292
▁health	-293
ans	-294
tra	-295
▁Minister	-296
ord	-297
ound	-298
ke	-299
ack	-300
▁there	-301
▁Ma	-302
ough	-303
▁had	-304
▁out	-305
xy	-306
are	-307
ue	-308
▁cent	-309
vel	-310
ose	-311
ail	-312
▁tak	-313
xygen	-314
▁cr	-315
ist	-316
reat	-317
▁hospital	-318
ID	-319
▁me	-320
og	-321
OV	-322
fic	-323
▁comp	-324
ost	-325
OVID	-326
ine	-327
▁app	-328
▁Mahar	-329
ure	-330
ator	-331
ashtra	-332
▁pl	-333
▁after	-334
▁Maharashtra	-335
▁oxygen	-336
▁who	-337
▁ag	-338
▁COVID	-339
▁pre	-340
▁India	-341
▁di	-342
▁V	-343
all	-344
00	-345
▁exp	-346
▁you	-347
▁cont	-348
▁incre	-349
▁Ch	-350
▁whe	-351
ond	-352
age	-353
ild	-354
orm	-355
uc	-356
▁Dr	-357
oV	-358
down	-359
▁hand	-360
▁L	-361
▁dec	-362
ockdown	-363
▁do	-364
ens	-365
ub	-366
able	-367
ance	-368
▁3	-369
ath	-370
▁It	-371
▁dise	-372
▁about	-373
ef	-374
ai	-375
▁more	-376
one	-377
ased	-378
ates	-379
ew	-380
ip	-381
▁This	-382
ile	-383
ases	-384
ong	-385
ide	-386
▁their	-387
▁Pr	-388
▁rec	-389
ations	-390
CoV	-391
▁lockdown	-392
▁than	-393
▁time	-394
arch	-395
nder	-396
▁But	-397
ever	-398
▁new	-399
uct	-400
ight	-401
pr	-402
▁so	-403
read	-404
▁no	-405
▁tw	-406
▁med	-407
▁ef	-408
RS	-409
▁5	-410
▁Wh	-411
ru	-412
▁infection	-413
▁under	-414
ep	-415
lic	-416
ob	-417
form	-418
ll	-419
▁some	-420
▁k	-421
iss	-422
ording	-423
amp	-424
▁disease	-425
▁being	-426
▁vaccination	-427
mpt	-428
▁days	-429
▁vaccines	-430
ice	-431
lud	-432
▁year	-433
ccording	-434
une	-435
▁report	-436
ich	-437
▁one	-438
▁Health	-439
▁country	-440
▁4	-441
▁gr	-442
▁As	-443
▁if	-444
▁these	-445
▁pos	-446
▁sec	-447
▁av	-448
ult	-449
rent	-450
ious	-451
▁There	-452
aus	-453
ition	-454
mptom	-455
▁resp	-456
▁stud	-457
med	-458
▁need	-459
irst	-460
osed	-461
20	-462
▁ev	-463
ool	-464
▁but	-465
ike	-466
ind	-467
▁On	-468
▁qu	-469
▁How	-470
ors	-471
very	-472
▁which	-473
ress	-474
▁includ	-475
▁Un	-476
▁un	-477
▁district	-478
ame	-479
iven	-480
▁ar	-481
ence	-482
ang	-483
▁reg	-484
▁'	-485
▁they	-486
▁first	-487
ass	-488
▁sit	-489
fe	-490
velop	-491
▁many	-492
▁supp	-493
uring	-494
▁treat	-495
ask	-496
aj	-497
ign	-498
ities	-499
▁child	-500
▁ser	-501
▁found	-502
▁spread	-503
ons	-504
▁may	-505
chool	-506
oll	-507
▁second	-508
ures	-509
▁effect	-510
▁symptom	-511
te	-512
ARS	-513
miss	-514
▁two	-515
▁again	-516
▁get	-517
ace	-518
▁last	-519
▁cases	-520
uation	-521
▁such	-522
▁day	-523
▁ris	-524
▁imp	-525
▁over	-526
▁start	-527
umbai	-528
▁up	-529
▁March	-530
▁St	-531
hief	-532
▁Mumbai	-533
▁symptoms	-534
▁SARS	-535
▁develop	-536
virus	-537
▁rel	-538
▁any	-539
ra	-540
oct	-541
▁2020	-542
▁According	-543
▁ac	-544
▁says	-545
▁Chin	-546
mission	-547
▁pers	-548
▁death	-549
olog	-550
▁due	-551
atory	-552
ok	-553
ade	-554
▁given	-555
esh	-556
han	-557
pril	-558
gan	-559
mer	-560
▁cond	-561
lo	-562
▁sc	-563
▁use	-564
▁contr	-565
▁en	-566
▁avail	-567
▁children	-568
ied	-569
▁am	-570
▁situation	-571
▁treatment	-572
ning	-573
▁mon	-574
▁adm	-575
▁dif	-576
▁prev	-577
▁7	-578
▁trans	-579
ek	-580
ach	-581
stem	-582
▁sur	-583
▁wave	-584
ublic	-585
▁like	-586
▁bec	-587
▁cur	-588
▁6	-589
ree	-590
hed	-591
▁only	-592
ted	-593
▁Chief	-594
ire	-595
▁ant	-596
▁However	-597
▁Covid	-598
day	-599
aw	-600
fore	-601
▁school	-602
▁act	-603
ell	-604
▁prod	-605
▁system	-606
ian	-607
▁offic	-608
rough	-609
▁doct	-610
▁your	-611
▁countries	-612
▁inform	-613
▁We	-614
itiz	-615
▁coronavirus	-616
▁ann	-617
▁available	-618
ced	-619
reak	-620
▁comm	-621
▁pres	-622
▁part	-623
▁infected	-624
ute	-625
▁April	-626
▁Cent	-627
▁If	-628
▁prot	-629
▁world	-630
ational	-631
emb	-632
▁gen	-633
▁What	-634
▁during	-635
ro	-636
▁j	-637
anu	-638
▁cons	-639
▁against	-640
▁8	-641
▁announ	-642
▁-	-643
▁risk	-644
000	-645
ited	-646
▁how	-647
▁inter	-648
▁provid	-649
ove	-650
ject	-651
ident	-652
▁10	-653
▁caus	-654
▁when	-655
hing	-656
icip	-657
▁int	-658
ating	-659
▁used	-660
▁every	-661
▁now	-662
ivir	-663
▁mask	-664
▁while	-665
lect	-666
▁col	-667
▁week	-668
ally	-669
▁bed	-670
▁Pune	-671
▁those	-672
per	-673
▁str	-674
inistr	-675
▁restrict	-676
▁vaccinated	-677
."	-678
▁pol	-679
▁home	-680
-2	-681
▁Af	-682
▁them	-683
▁import	-684
dd	-685
▁care	-686
▁take	-687
we	-688
les	-689
▁9	-690
ody	-691
ting	-692
▁ind	-693
acker	-694
▁taken	-695
ral	-696
▁medical	-697
▁hospitals	-698
ackeray	-699
,000	-700
▁Thackeray	-701
pe	-702
akh	-703
emic	-704
▁ph	-705
▁exper	-706
▁public	-707
▁reported	-708
▁his	-709
owed	-710
▁through	-711
uch	-712
break	-713
ible	-714
▁person	-715
ater	-716
anc	-717
rug	-718
▁add	-719
ility	-720
▁lar	-721
▁outbreak	-722
▁drug	-723
▁made	-724
▁bet	-725
▁rem	-726
▁restrictions	-727
ust	-728
stit	-729
ural	-730
owing	-731
▁China	-732
▁kn	-733
▁its	-734
hav	-735
li	-736
omm	-737
ific	-738
ata	-739
▁beds	-740
▁would	-741
ech	-742
ery	-743
▁disc	-744
ope	-745
▁iss	-746
▁lakh	-747
▁Al	-748
ative	-749
▁So	-750
ices	-751
▁workers	-752
▁red	-753
itive	-754
▁dr	-755
▁patient	-756
▁Sh	-757
▁dep	-758
▁contact	-759
▁current	-760
ish	-761
vers	-762
).	-763
cy	-764
▁even	-765
▁hum	-766
▁including	-767
ials	-768
▁areas	-769
▁covid	-770
▁meet	-771
▁trave	-772
▁Hospital	-773
▁announced	-774
▁Y	-775
▁An	-776
▁soc	-777
▁short	-778
oss	-779
▁Raj	-780
asing	-781
▁requ	-782
icipal	-783
unicipal	-784
als	-785
▁loc	-786
ark	-787
eng	-788
ected	-789
▁month	-790
▁important	-791
ake	-792
aking	-793
▁dem	-794
▁var	-795
▁started	-796
▁high	-797
ms	-798
hen	-799
▁Mod	-800
▁foll	-801
▁information	-802
▁exam	-803
▁most	-804
inistration	-805
ri	-806
ision	-807
▁well	-808
und	-809
▁prevent	-810
▁travel	-811
▁call	-812
▁come	-813
▁years	-814
itizens	-815
lu	-816
▁say	-817
▁same	-818
▁increased	-819
),	-820
ines	-821
▁what	-822
▁affect	-823
▁hig	-824
ential	-825
ying	-826
▁diffe	-827
▁testing	-828
uss	-829
amil	-830
ized	-831
▁che	-832
▁hel	-833
ember	-834
▁poss	-835
▁spec	-836
▁tests	-837
▁closed	-838
ared	-839
▁did	-840
▁our	-841
▁After	-842
▁states	-843
ne	-844
▁level	-845
▁help	-846
▁hour	-847
▁serv	-848
▁doctors	-849
way	-850
arly	-851
other	-852
ned	-853
rit	-854
ings	-855
▁fac	-856
▁respir	-857
▁large	-858
The	-859
ise	-860
ween	-861
uction	-862
▁hands	-863
▁Go	-864
cent	-865
rect	-866
▁then	-867
artment	-868
▁supply	-869
▁few	-870
▁increasing	-871
ank	-872
try	-873
▁body	-874
▁city	-875
▁mill	-876
▁rate	-877
▁positive	-878
▁effective	-879
BC	-880
eral	-881
▁ass	-882
▁crore	-883
▁increase	-884
ince	-885
ven	-886
▁demand	-887
ology	-888
▁between	-889
▁case	-890
▁where	-891
▁control	-892
▁administration	-893
ff	-894
erv	-895
▁ent	-896
▁priv	-897
▁Udd	-898
▁far	-899
▁proc	-900
▁Uddhav	-901
oth	-902
▁lead	-903
▁acc	-904
▁low	-905
▁deaths	-906
ety	-907
ior	-908
ules	-909
▁camp	-910
ucation	-911
▁Center	-912
▁students	-913
▁Del	-914
ganiz	-915
▁Modi	-916
▁2020,	-917
▁comple	-918
▁present	-919
oses	-920
ering	-921
▁quest	-922
app	-923
▁	-924
e	-925
t	-926
a	-927
i	-928
o	-929
n	-930
s	-931
r	-932
h	-933
d	-934
l	-935
c	-936
u	-937
m	-938
p	-939
f	-940
g	-941
y	-942
v	-943
w	-944
.	-945
b	-946
,	-947
k	-948
C	-949
T	-950
I	-951
A	-952
S	-953
M	-954
0	-955
-	-956
1	-957
2	-958
D	-959
P	-960
x	-961
H	-962
R	-963
B	-964
'	-965
O	-966
V	-967
W	-968
9	-969
"	-970
N	-971
E	-972
j	-973
z	-974
U	-975
5	-976
4	-977
3	-978
q	-979
K	-980
)	-981
F	-982
(	-983
G	-984
?	-985
8	-986
6	-987
J	-988
7	-989
L	-990
:	-991
%	-992
;	-993
Y	-994
/	-995
Z	-996
