<pad>	0
</s>	0
<unk>	0
s	-3.17158
▁the	-3.58174
.	-3.7032
,	-3.80317
▁of	-3.97137
▁	-4.05016
▁and	-4.27991
▁to	-4.3547
e	-4.42385
▁a	-4.45591
▁in	-4.47979
ed	-4.48698
ing	-4.56563
t	-4.67769
d	-4.69273
r	-4.80425
▁is	-4.9097
i	-4.99941
al	-5.04531
▁s	-5.0653
a	-5.10942
y	-5.11367
n	-5.14735
c	-5.15009
er	-5.21274
▁for	-5.26455
m	-5.28954
u	-5.30073
o	-5.30931
p	-5.32272
in	-5.40887
▁-	-5.41312
g	-5.417
▁that	-5.44213
▁be	-5.47559
▁you	-5.55559
▁The	-5.56707
ar	-5.56899
ly	-5.643
▁(	-5.64436
or	-5.64696
f	-5.68524
▁S	-5.69856
▁with	-5.70216
b	-5.70683
▁A	-5.73939
an	-5.74909
▁are	-5.75504
▁not	-5.76034
re	-5.7613
k	-5.7807
it	-5.78513
▁or	-5.801
ur	-5.80142
▁p	-5.80904
▁f	-5.80976
l	-5.81189
▁on	-5.81767
ation	-5.82381
▁c	-5.82415
)	-5.83085
le	-5.84945
on	-5.85451
▁it	-5.87386
▁as	-5.88906
th	-5.89915
st	-5.90246
▁'	-5.94264
ra	-5.94956
w	-5.96049
▁I	-5.96681
▁by	-5.99376
▁b	-6.00655
:	-6.02939
▁have	-6.04664
ent	-6.04994
▁was	-6.05406
▁re	-6.05504
ic	-6.06561
▁from	-6.06911
ment	-6.0826
ion	-6.08435
▁will	-6.09369
es	-6.09826
h	-6.10294
▁who	-6.13182
ri	-6.13299
at	-6.14759
▁this	-6.15386
▁T	-6.18117
▁he	-6.19508
▁de	-6.20476
en	-6.20586
▁C	-6.21732
▁them	-6.22415
▁they	-6.23916
▁which	-6.2477
▁He	-6.25821
▁B	-6.26464
▁has	-6.28378
il	-6.3018
ch	-6.30639
;	-6.30744
▁t	-6.31131
ad	-6.31145
li	-6.31268
ir	-6.31512
▁P	-6.3205
▁an	-6.32399
am	-6.32968
▁his	-6.33761
▁their	-6.39348
et	-6.39513
▁g	-6.41253
▁all	-6.41395
ce	-6.44641
▁at	-6.45496
I	-6.47948
ter	-6.50279
A	-6.50753
▁we	-6.51287
se	-6.51302
▁w	-6.5162
▁F	-6.51657
as	-6.52038
▁do	-6.53186
id	-6.53238
▁We	-6.53459
el	-6.53849
▁In	-6.54201
▁K	-6.54585
ive	-6.55425
▁con	-6.56243
ate	-6.56571
v	-6.57552
ity	-6.58674
▁so	-6.5884
ul	-6.60555
ol	-6.60681
la	-6.61977
▁G	-6.63269
▁Allah	-6.63488
▁d	-6.63863
▁O	-6.64807
ers	-6.65295
?	-6.65485
te	-6.66592
▁me	-6.68046
▁And	-6.68244
▁your	-6.68362
-	-6.68531
▁ex	-6.68556
▁pro	-6.70166
ut	-6.70187
0	-6.70875
um	-6.71711
ve	-6.72018
▁W	-6.72351
able	-6.72847
▁L	-6.72923
ance	-6.73123
ha	-6.74751
S	-6.75097
▁E	-6.75203
1	-6.75279
▁can	-6.76659
▁India	-6.77367
'	-6.77414
ow	-6.78198
ies	-6.78352
▁one	-6.78995
▁but	-6.79899
E	-6.81422
tion	-6.81589
▁un	-6.82189
▁M	-6.82624
▁D	-6.82742
age	-6.83457
▁e	-6.83502
un	-6.85252
▁R	-6.85896
▁been	-6.86708
N	-6.87223
▁m	-6.87741
T	-6.87993
ant	-6.8924
▁It	-6.89441
is	-6.89448
ist	-6.90006
▁were	-6.90166
C	-6.91357
om	-6.91414
▁people	-6.91489
vi	-6.92539
%	-6.9337
▁when	-6.94536
2	-6.94939
est	-6.95317
O	-6.95359
lo	-6.95597
▁no	-6.96217
▁him	-6.96622
▁other	-6.96638
▁any	-6.97002
▁"	-6.97443
us	-6.98998
ill	-6.99055
▁what	-6.9999
▁h	-7.00374
ta	-7.00724
▁said	-7.00856
▁r	-7.01003
▁1	-7.0115
▁those	-7.01178
▁out	-7.01338
D	-7.0232
▁there	-7.04526
ry	-7.04698
▁N	-7.05712
▁mo	-7.06229
em	-7.06962
▁2	-7.06968
x	-7.07038
▁also	-7.07111
▁had	-7.07942
▁/	-7.08442
ti	-7.09282
z	-7.09834
hi	-7.09951
▁Re	-7.09971
and	-7.09971
ast	-7.13051
▁shall	-7.13141
ne	-7.13795
P	-7.14354
M	-7.14652
▁time	-7.15096
ure	-7.1536
▁l	-7.15736
qu	-7.15913
me	-7.16085
▁up	-7.16357
ect	-7.1686
ig	-7.17149
▁go	-7.17979
ine	-7.18061
ful	-7.18298
4	-7.19904
▁Lord	-7.20572
▁co	-7.20603
ma	-7.20712
▁if	-7.20855
ight	-7.21267
ud	-7.21461
ous	-7.21592
ell	-7.2162
ak	-7.2186
ab	-7.22184
5	-7.23331
▁di	-7.2343
de	-7.23487
▁may	-7.24
ever	-7.24688
▁our	-7.24764
ty	-7.2495
▁U	-7.25471
lu	-7.2558
end	-7.25629
▁H	-7.25742
!	-7.25981
ide	-7.26222
7	-7.26521
3	-7.27258
ag	-7.27492
▁God	-7.27733
_	-7.28232
▁This	-7.28301
▁its	-7.29474
ary	-7.29926
R	-7.29966
ge	-7.31594
▁us	-7.31776
ain	-7.32304
▁would	-7.32496
▁20	-7.32548
▁under	-7.33789
ence	-7.33907
ru	-7.34397
▁Ch	-7.34991
ff	-7.35244
all	-7.35371
▁comp	-7.35441
▁part	-7.3569
mo	-7.35883
nd	-7.36034
▁sp	-7.36215
ated	-7.36553
▁V	-7.36869
op	-7.3691
▁work	-7.36953
ish	-7.37124
ac	-7.37355
▁say	-7.37787
▁only	-7.37853
os	-7.38217
▁“	-7.38444
▁such	-7.38631
▁So	-7.38782
ting	-7.38925
▁made	-7.39132
▁3	-7.39288
▁see	-7.39392
▁dis	-7.39571
▁ma	-7.39588
mp	-7.39617
pp	-7.39768
▁like	-7.39894
▁than	-7.40476
di	-7.40527
▁over	-7.41076
▁en	-7.41384
▁k	-7.41399
▁19	-7.41963
ness	-7.42046
ll	-7.42134
ng	-7.42201
▁v	-7.42269
▁n	-7.4278
ap	-7.43517
▁new	-7.43815
▁lo	-7.45015
ard	-7.45939
ot	-7.4619
6	-7.46359
ted	-7.46447
ture	-7.46868
8	-7.46981
L	-7.47066
▁Mo	-7.47588
▁No	-7.47673
▁more	-7.47921
ther	-7.48709
to	-7.48958
▁man	-7.49761
tor	-7.49817
na	-7.50494
H	-7.50683
ver	-7.50769
▁some	-7.50859
j	-7.51179
▁Ma	-7.5132
ise	-7.51676
port	-7.51759
iv	-7.5193
▁should	-7.52124
▁into	-7.53336
▁my	-7.53385
der	-7.53636
▁De	-7.5418
▁about	-7.54589
▁day	-7.54724
ho	-7.5601
one	-7.5649
av	-7.56902
co	-7.56956
▁pre	-7.57382
▁believe	-7.57595
▁good	-7.57692
tic	-7.58345
▁life	-7.59111
pe	-7.59221
▁Un	-7.59708
’	-7.60149
▁two	-7.60153
▁per	-7.60269
our	-7.61002
low	-7.61795
▁They	-7.62149
ang	-7.62177
ally	-7.62742
▁then	-7.62838
ite	-7.6308
ok	-7.63124
▁make	-7.63374
▁before	-7.63877
B	-7.64114
ia	-7.64118
▁ro	-7.64672
▁But	-7.64943
mb	-7.65069
sh	-7.65286
he	-7.65437
ical	-7.65485
ten	-7.65997
▁”	-7.66029
▁these	-7.66475
▁sub	-7.66644
ach	-7.67086
har	-7.67998
ya	-7.68159
]	-7.68305
ail	-7.68657
▁know	-7.6887
▁[	-7.69451
▁person	-7.69461
"	-7.6951
▁Na	-7.69759
▁You	-7.69764
per	-7.70317
▁form	-7.70463
W	-7.70599
▁To	-7.70686
00	-7.70968
lic	-7.71724
▁world	-7.71764
▁after	-7.71778
▁her	-7.72121
ave	-7.72385
G	-7.72408
▁His	-7.72563
for	-7.73086
▁An	-7.73417
▁ho	-7.73584
ran	-7.73876
▁through	-7.74138
▁even	-7.74351
▁Con	-7.75342
▁If	-7.75579
▁Indian	-7.76397
9	-7.76557
▁come	-7.77129
U	-7.77324
man	-7.77885
▁Act	-7.77932
▁rec	-7.78428
▁President	-7.78489
ven	-7.78923
▁set	-7.78981
up	-7.79092
tra	-7.79957
▁act	-7.80344
if	-7.80436
ph	-7.80471
va	-7.80797
▁ye	-7.80838
▁tra	-7.81711
ack	-7.82407
▁Pro	-7.82424
han	-7.82567
▁As	-7.82698
▁place	-7.82698
▁between	-7.82921
be	-7.83046
▁used	-7.83061
▁where	-7.83076
oc	-7.83479
▁down	-7.83677
▁For	-7.8429
ound	-7.84698
▁po	-7.8481
▁country	-7.84908
▁very	-7.84934
line	-7.85277
less	-7.8534
▁did	-7.85886
▁du	-7.85972
▁5	-7.86074
▁could	-7.86257
▁state	-7.87918
▁bo	-7.87933
▁well	-7.8886
out	-7.90182
ions	-7.90311
▁Government	-7.90407
ner	-7.90769
▁great	-7.91122
▁every	-7.91138
▁&	-7.9116
tu	-7.91336
ial	-7.91343
ign	-7.91472
▁com	-7.91624
▁right	-7.92046
),	-7.92079
▁br	-7.92206
ward	-7.92293
ative	-7.92315
ition	-7.92376
▁All	-7.92526
▁follow	-7.92551
▁help	-7.92571
).	-7.92641
▁way	-7.9268
▁str	-7.93188
ome	-7.93958
▁most	-7.94012
▁being	-7.94052
ian	-7.94187
▁many	-7.94237
▁take	-7.94648
▁provide	-7.94745
▁among	-7.95483
▁J	-7.95619
▁back	-7.95763
▁Ra	-7.95926
▁give	-7.9638
▁Be	-7.9664
▁o	-7.96662
▁car	-7.96797
▁4	-7.96892
act	-7.97
▁gra	-7.97173
ood	-7.98364
▁power	-7.98512
press	-7.99108
▁nor	-7.99211
▁turn	-7.99281
▁use	-7.99825
▁There	-7.99876
cy	-7.99892
ay	-8.00005
▁sign	-8.00043
▁State	-8.00188
rate	-8.00347
▁vi	-8.00699
F	-8.01342
▁upon	-8.0151
▁open	-8.01826
▁she	-8.01949
not	-8.01971
of	-8.02011
▁name	-8.02471
▁years	-8.02578
▁relat	-8.02799
▁first	-8.03212
▁against	-8.03376
▁own	-8.03775
▁op	-8.03908
▁Me	-8.0411
▁year	-8.04315
ities	-8.0442
<	-8.05646
▁file	-8.06244
V	-8.06432
▁just	-8.06485
ick	-8.0671
▁men	-8.07063
▁earth	-8.0731
▁Y	-8.07402
unt	-8.07792
▁given	-8.07954
▁high	-8.08149
▁need	-8.08229
▁hand	-8.08434
...	-8.08669
ship	-8.08725
▁war	-8.08834
▁Th	-8.09001
▁get	-8.09194
ex	-8.09273
lay	-8.09548
▁j	-8.09576
ory	-8.09745
▁pass	-8.09932
▁Do	-8.10316
▁ab	-8.10575
▁because	-8.1071
ism	-8.11302
▁service	-8.12457
”	-8.12512
ile	-8.12839
ious	-8.13195
ah	-8.13269
▁account	-8.13342
▁Him	-8.13357
▁water	-8.13361
▁how	-8.14116
▁change	-8.15148
ana	-8.15877
▁Lo	-8.15975
mi	-8.16169
▁Com	-8.16438
▁Po	-8.16628
▁inter	-8.16792
▁sent	-8.17307
ber	-8.17328
ock	-8.17505
▁want	-8.17541
▁Ja	-8.17727
ik	-8.17767
▁Sa	-8.17802
▁number	-8.17888
▁another	-8.1789
ple	-8.18289
▁Ha	-8.18583
▁St	-8.18757
▁When	-8.18833
▁must	-8.18833
▁On	-8.19031
ba	-8.19805
ize	-8.1994
▁disc	-8.20111
▁does	-8.20306
▁came	-8.2054
▁return	-8.20719
▁away	-8.21355
▁order	-8.21402
pa	-8.21509
▁present	-8.217
20	-8.21824
pr	-8.22379
▁end	-8.22789
ible	-8.23266
▁Di	-8.23431
▁show	-8.23559
▁system	-8.23631
▁etc	-8.2372
▁long	-8.23772
war	-8.24536
▁message	-8.24622
▁cha	-8.24663
ou	-8.24743
▁now	-8.2487
▁em	-8.25048
▁clear	-8.25634
▁lead	-8.25665
▁let	-8.25757
ev	-8.25851
her	-8.25932
▁Co	-8.26321
▁Ex	-8.26938
▁sh	-8.2696
▁bring	-8.27249
gen	-8.27376
."	-8.27543
▁Al	-8.2765
▁book	-8.27733
Y	-8.2799
▁tri	-8.28303
nce	-8.28415
ka	-8.28521
▁includ	-8.28683
▁become	-8.28687
par	-8.29133
▁La	-8.29144
▁here	-8.29557
▁require	-8.29725
▁al	-8.29753
▁rep	-8.30258
▁acc	-8.30352
own	-8.30704
▁tran	-8.31565
▁8	-8.31576
▁cent	-8.31684
ating	-8.31824
▁public	-8.31841
ix	-8.31866
go	-8.3188
▁fear	-8.31897
ash	-8.3205
▁7	-8.32427
▁direct	-8.3292
▁Man	-8.33426
tri	-8.33704
fic	-8.33928
use	-8.33955
▁consider	-8.34004
▁large	-8.34005
▁law	-8.34033
▁heart	-8.34064
▁case	-8.34067
▁Ju	-8.34471
▁human	-8.35104
▁cause	-8.35106
▁Ho	-8.35236
▁Day	-8.35277
▁play	-8.36622
▁live	-8.36866
▁par	-8.3691
que	-8.37153
▁development	-8.37495
over	-8.38218
ble	-8.38253
▁same	-8.3855
▁Vi	-8.38753
▁issue	-8.38758
▁found	-8.38998
▁called	-8.3951
cu	-8.39956
▁rule	-8.39965
▁truth	-8.40787
▁matter	-8.40791
▁look	-8.40924
▁10	-8.40955
▁list	-8.41287
pur	-8.41884
▁different	-8.41962
▁while	-8.41964
▁find	-8.42033
▁OF	-8.4216
▁imp	-8.42204
▁fact	-8.42514
▁ask	-8.42946
▁process	-8.43154
▁member	-8.4316
▁What	-8.43161
▁word	-8.43175
▁0	-8.43231
▁Pa	-8.43402
▁Nation	-8.43405
▁dur	-8.43467
▁land	-8.43597
▁both	-8.43851
▁am	-8.43851
▁section	-8.43951
▁Mar	-8.43992
val	-8.44063
▁6	-8.44067
▁far	-8.44817
men	-8.45056
▁Sh	-8.45358
vel	-8.45471
▁certain	-8.45577
ari	-8.45632
▁things	-8.45908
▁sea	-8.46193
▁view	-8.46348
▁period	-8.46811
▁wrong	-8.46811
▁much	-8.46816
▁start	-8.46819
the	-8.47131
▁Pre	-8.47522
ju	-8.48014
▁grow	-8.48096
mission	-8.48137
▁created	-8.48538
position	-8.48627
▁Ar	-8.48642
▁information	-8.49327
▁group	-8.49327
▁support	-8.49328
▁except	-8.49328
▁Par	-8.4966
▁vari	-8.49726
/	-8.50176
▁call	-8.50445
▁interest	-8.50765
▁fee	-8.50851
mark	-8.50947
▁women	-8.51912
▁Qu	-8.51976
▁face	-8.52093
▁Maha	-8.52701
▁non	-8.52812
▁date	-8.53058
▁think	-8.53224
▁receive	-8.53232
▁house	-8.53309
▁whom	-8.53434
▁main	-8.53727
▁pay	-8.5383
▁friend	-8.54559
▁term	-8.54653
either	-8.5469
▁product	-8.54695
ugh	-8.55492
▁toward	-8.55678
ES	-8.55886
▁evil	-8.55916
pati	-8.56351
ja	-8.56416
ER	-8.56717
▁Raj	-8.56747
old	-8.57368
▁Mu	-8.574
▁each	-8.576
▁Go	-8.57667
mini	-8.57877
▁point	-8.58287
▁9	-8.58386
▁Gandhi	-8.58667
ification	-8.58709
▁though	-8.58802
hose	-8.59278
▁share	-8.59303
IT	-8.59373
▁establish	-8.60075
script	-8.60077
▁important	-8.6013
verse	-8.60191
▁Shri	-8.60358
ator	-8.60417
▁taken	-8.61193
RA	-8.61252
▁government	-8.61504
▁amount	-8.61506
▁Book	-8.61507
▁small	-8.61519
▁stand	-8.61559
▁–	-8.61567
ify	-8.61829
pro	-8.61924
▁again	-8.62669
▁New	-8.62968
▁accept	-8.62979
▁indeed	-8.63015
▁never	-8.63241
aught	-8.63305
▁Who	-8.63373
▁Then	-8.6379
▁four	-8.63814
K	-8.64182
▁disbelieve	-8.64424
▁effect	-8.64424
▁value	-8.64426
ference	-8.64445
▁complete	-8.64446
ept	-8.64499
▁Say	-8.64648
▁My	-8.65116
▁exist	-8.65196
▁put	-8.65241
▁less	-8.65381
▁knowledge	-8.65916
special	-8.65917
▁social	-8.65919
▁im	-8.66085
▁last	-8.66379
▁Mi	-8.66537
▁office	-8.66787
▁action	-8.6694
▁education	-8.67431
▁language	-8.67431
▁Bhavan	-8.67432
▁means	-8.67532
▁18	-8.67737
spect	-8.67825
▁home	-8.67864
day	-8.68465
▁best	-8.68737
▁today	-8.68749
:%	-8.68827
▁Rashtra	-8.6897
▁increase	-8.6897
▁free	-8.69145
▁Bha	-8.69263
▁report	-8.69765
▁project	-8.70533
▁connect	-8.70537
▁known	-8.70545
▁love	-8.71107
▁old	-8.71232
▁send	-8.72091
▁business	-8.7212
▁Central	-8.7212
▁problem	-8.72121
▁left	-8.72121
land	-8.72121
▁children	-8.72123
▁remain	-8.7213
▁bank	-8.72135
▁elect	-8.72135
▁better	-8.72161
▁Jo	-8.72235
▁hard	-8.72565
▁reach	-8.72812
▁side	-8.73635
▁Minister	-8.73733
▁heavens	-8.73733
▁address	-8.73733
▁type	-8.73742
▁income	-8.7375
▁thou	-8.7393
▁idea	-8.74547
▁serve	-8.74605
▁11	-8.74745
▁force	-8.74991
▁full	-8.75067
▁develop	-8.75141
▁control	-8.75372
▁concern	-8.75372
▁contain	-8.75381
▁surely	-8.75386
ized	-8.75421
▁light	-8.75777
hol	-8.75867
▁run	-8.76182
▁read	-8.76609
▁done	-8.76734
▁She	-8.76828
▁window	-8.77039
▁Hindu	-8.77039
▁command	-8.77041
▁folder	-8.77046
▁level	-8.77047
▁sector	-8.77051
▁month	-8.77053
▁plan	-8.77083
▁Show	-8.77212
ified	-8.77697
▁whe	-8.78156
▁gene	-8.78252
▁learn	-8.78734
▁understand	-8.78735
▁something	-8.78744
▁data	-8.78763
▁court	-8.78779
▁leg	-8.78929
▁cost	-8.80311
{	-8.80458
}	-8.80458
▁faith	-8.80458
▁guide	-8.80465
▁company	-8.80466
▁true	-8.80468
▁equal	-8.8047
▁still	-8.80529
▁art	-8.80648
▁One	-8.81684
▁character	-8.82212
▁object	-8.82212
▁Bengal	-8.82213
▁three	-8.82213
▁along	-8.82221
AR	-8.82381
▁add	-8.83114
16	-8.83196
way	-8.83539
ON	-8.83663
▁child	-8.83995
▁punishment	-8.83998
▁build	-8.83998
▁keep	-8.83998
▁common	-8.84002
▁protect	-8.84006
▁based	-8.84033
▁eas	-8.84236
▁institution	-8.84466
▁unto	-8.84513
▁wish	-8.84675
mination	-8.84939
▁function	-8.85816
▁current	-8.85816
▁market	-8.85821
▁reason	-8.85824
▁eye	-8.86044
The	-8.86416
▁body	-8.86496
▁thing	-8.8755
▁family	-8.87668
▁Delhi	-8.8767
ability	-8.87677
cross	-8.87685
▁death	-8.87698
▁Sub	-8.87714
▁near	-8.87729
▁treat	-8.87733
▁litera	-8.87786
HE	-8.88851
▁mis	-8.89245
▁Muslim	-8.89555
▁result	-8.89557
▁spirit	-8.89558
▁condition	-8.89559
▁father	-8.89564
▁Pleas	-8.89564
▁plant	-8.89574
▁self	-8.8958
▁visit	-8.89594
▁held	-8.89605
▁general	-8.8961
▁tree	-8.8971
▁199	-8.89743
▁That	-8.90082
▁nation	-8.90438
▁post	-8.90892
graph	-8.90984
▁Messenger	-8.91478
▁economic	-8.91478
▁Israel	-8.91478
▁achiev	-8.91478
▁together	-8.91482
▁health	-8.91506
▁House	-8.91535
(	-8.91709
▁respect	-8.91788
▁Z	-8.91872
▁hav	-8.9247
▁already	-8.93439
▁application	-8.93439
▁himself	-8.93439
▁major	-8.93439
▁operation	-8.93443
▁Indeed	-8.93449
▁meeting	-8.93464
▁local	-8.93473
hief	-8.93509
ush	-8.9387
▁national	-8.94127
▁deeds	-8.94191
▁seek	-8.94876
resident	-8.95266
—	-8.95438
▁themselves	-8.95438
▁belong	-8.95441
▁join	-8.95444
▁close	-8.95469
▁Singh	-8.95496
▁path	-8.95498
uction	-8.96194
▁test	-8.97218
▁lie	-8.97281
▁technolog	-8.97479
▁little	-8.97479
▁provision	-8.9748
▁perform	-8.9748
▁practi	-8.97491
cultur	-8.97828
ji	-8.98137
▁might	-8.98147
▁fund	-8.98352
istic	-8.98614
▁success	-8.99563
▁subject	-8.99563
▁collect	-8.99563
▁field	-8.99563
▁kind	-8.99588
ization	-8.99588
▁sense	-8.996
▁food	-9.00405
▁cover	-9.00487
▁available	-9.0169
▁second	-9.0169
▁security	-9.0169
▁question	-9.01691
▁particular	-9.01691
▁limit	-9.01691
▁always	-9.01692
▁key	-9.01729
mitted	-9.01987
▁mother	-9.02112
▁15	-9.02237
▁enter	-9.02755
▁author	-9.03722
▁access	-9.03828
Muhammad	-9.03864
X	-9.03864
▁countries	-9.03864
▁activities	-9.03864
▁financi	-9.03865
▁price	-9.03879
▁brought	-9.03896
▁agree	-9.03928
▁arm	-9.04585
ukherjee	-9.06086
▁religion	-9.06087
▁represent	-9.06087
▁example	-9.06087
▁above	-9.06088
▁living	-9.06091
▁class	-9.06094
▁link	-9.06097
▁000	-9.06193
soever	-9.06214
▁hold	-9.06337
▁night	-9.06536
19	-9.06576
▁25	-9.06647
▁poet	-9.0685
▁occasion	-9.08359
▁scheme	-9.0836
▁clause	-9.0836
▁extend	-9.08372
▁region	-9.084
▁mind	-9.08409
▁remov	-9.08422
▁benefit	-9.10685
▁difficult	-9.10685
▁purpose	-9.10685
▁strength	-9.10685
▁material	-9.10685
▁worship	-9.10686
▁safe	-9.10687
▁Office	-9.10687
▁witness	-9.10687
▁measure	-9.10688
▁Select	-9.10688
▁therefore	-9.1069
▁short	-9.10715
▁raise	-9.10749
▁few	-9.10768
giving	-9.10993
ranab	-9.11071
▁English	-9.13066
▁PRESIDENT	-9.13066
▁research	-9.13066
▁village	-9.13067
▁next	-9.13068
▁error	-9.13068
▁Sabha	-9.1307
▁further	-9.13071
▁regard	-9.13072
▁accord	-9.13073
▁computer	-9.13077
▁source	-9.13079
▁record	-9.13082
▁Bank	-9.13083
organis	-9.13084
▁text	-9.1309
▁until	-9.13096
▁desire	-9.13103
▁river	-9.13115
▁around	-9.13124
▁later	-9.13126
▁image	-9.13244
detail	-9.1361
point	-9.13784
▁create	-9.14594
▁Parliament	-9.15505
▁Committee	-9.15505
▁programme	-9.15505
▁America	-9.15505
▁produce	-9.15505
▁tradition	-9.15506
▁High	-9.15509
▁expect	-9.15509
▁ground	-9.1551
▁please	-9.15519
▁making	-9.15533
RB	-9.16357
came	-9.16381
▁total	-9.17938
▁enjoy	-9.18005
▁continue	-9.18005
▁natural	-9.18005
▁student	-9.18005
referred	-9.18005
▁entire	-9.18008
▁million	-9.18009
▁several	-9.18037
▁Arab	-9.18206
cular	-9.18299
▁told	-9.18745
▁INDIA	-9.20569
▁individual	-9.20569
▁industry	-9.20569
▁website	-9.20569
▁transfer	-9.20569
▁facilit	-9.20569
▁temple	-9.2057
▁management	-9.2057
▁policy	-9.2057
▁draw	-9.20579
▁promise	-9.20586
▁Commission	-9.20629
▁authority	-9.20738
▁Prim	-9.20822
section	-9.21592
place	-9.21794
+	-9.232
▁associate	-9.232
▁community	-9.232
▁happen	-9.232
▁population	-9.232
▁remember	-9.232
▁appear	-9.23201
▁peace	-9.23201
▁crore	-9.23203
▁behind	-9.23203
▁strong	-9.23206
take	-9.23207
▁patient	-9.23209
▁money	-9.23209
▁discuss	-9.23215
▁leave	-9.23229
▁since	-9.23275
▁stay	-9.23284
▁nothing	-9.23303
▁equi	-9.2361
taking	-9.23979
q	-9.25232
▁University	-9.25903
▁capital	-9.25903
▁district	-9.25903
▁experience	-9.25903
▁written	-9.25903
▁custom	-9.25903
▁school	-9.25903
▁animal	-9.25904
▁brother	-9.25904
▁Islam	-9.25905
▁multi	-9.25905
▁simpl	-9.25913
▁element	-9.25913
▁import	-9.25927
▁Constitution	-9.2593
▁creation	-9.25935
ternal	-9.25954
▁Fire	-9.25971
ought	-9.26341
view	-9.26974
▁Pradesh	-9.28681
▁network	-9.28681
▁political	-9.28681
▁suffer	-9.28681
▁previous	-9.28681
▁trust	-9.28687
▁Court	-9.28699
▁(1)	-9.28704
▁forgive	-9.28718
▁RRB	-9.28799
version	-9.28842
▁fire	-9.29031
▁qua	-9.30932
▁commit	-9.31167
▁Europe	-9.31538
▁Ministry	-9.31538
▁environment	-9.31538
▁private	-9.31538
▁appointed	-9.31538
▁international	-9.31538
▁involv	-9.31538
▁quality	-9.31539
▁century	-9.31544
▁future	-9.31551
▁prevent	-9.31557
▁decide	-9.31563
▁anything	-9.31569
▁super	-9.31582
▁story	-9.31608
▁write	-9.31908
▁carrie	-9.32521
“	-9.3276
▁deposit	-9.33503
▁identi	-9.3351
▁Congress	-9.34479
▁Development	-9.34479
▁capacity	-9.34479
▁progress	-9.34479
▁resource	-9.34479
▁method	-9.34479
▁favour	-9.3448
▁Hindi	-9.34482
▁modern	-9.34482
▁contact	-9.34485
▁basis	-9.34486
▁fruit	-9.34487
▁course	-9.34488
▁task	-9.34493
▁thus	-9.34548
▁minu	-9.34681
release	-9.34807
board	-9.35808
▁constitu	-9.36379
▁global	-9.3751
▁instrument	-9.3751
▁necessary	-9.3751
▁participat	-9.3751
▁British	-9.3751
▁mountain	-9.3751
▁revealed	-9.3751
▁verily	-9.3751
▁credit	-9.37511
▁freedom	-9.37512
▁writing	-9.37513
▁deliver	-9.37514
▁speak	-9.3752
▁music	-9.37548
▁shape	-9.37632
▁drive	-9.3764
▁stage	-9.37664
gro	-9.38937
▁society	-9.40635
▁judge	-9.40635
▁doubt	-9.40635
▁Prophet	-9.40635
▁disease	-9.40635
▁construct	-9.40636
▁blood	-9.40638
▁improv	-9.40638
▁device	-9.40639
▁video	-9.40644
▁charge	-9.40644
▁profit	-9.40658
▁why	-9.40658
▁With	-9.40673
▁paper	-9.40684
uck	-9.41405
Q	-9.4369
▁employ	-9.43812
▁Public	-9.4386
▁decision	-9.4386
▁similar	-9.4386
▁drink	-9.43861
reafter	-9.43861
▁spread	-9.43865
▁affect	-9.43868
▁vision	-9.43918
▁seven	-9.43936
▁South	-9.4394
▁stone	-9.4395
▁firm	-9.4395
▁usual	-9.44287
▁reduc	-9.44482
J	-9.45474
Sita	-9.46143
▁Republic	-9.47194
▁Service	-9.47194
▁specified	-9.47194
▁Africa	-9.47194
▁exchange	-9.47194
▁energy	-9.47194
▁prepared	-9.47196
▁itself	-9.47199
▁search	-9.47199
▁Board	-9.47201
▁demand	-9.47219
▁copy	-9.47238
▁conduct	-9.47259
▁Moses	-9.47331
▁Plan	-9.47341
▁locat	-9.50448
▁Department	-9.50642
▁check	-9.50642
▁destroy	-9.50642
▁secret	-9.50642
▁Verily	-9.50642
▁http	-9.50643
▁document	-9.50643
▁article	-9.50644
▁honour	-9.50646
▁civil	-9.50647
▁request	-9.50648
▁scale	-9.5065
▁failed	-9.50664
▁Open	-9.50665
▁design	-9.50688
▁paid	-9.5069
▁Calcutta	-9.54213
▁Education	-9.54213
▁describ	-9.54213
▁yourselves	-9.54213
▁happy	-9.54214
▁policies	-9.54214
▁possible	-9.54214
▁General	-9.54214
▁front	-9.54215
▁depend	-9.54225
▁history	-9.54231
▁After	-9.54238
▁central	-9.54238
▁early	-9.54238
▁Power	-9.54245
▁culture	-9.54265
▁content	-9.54318
▁defen	-9.55353
*	-9.57917
evolution	-9.57917
▁Council	-9.57917
▁approach	-9.57917
▁unbelievers	-9.57917
ological	-9.57917
▁mankind	-9.57917
▁claim	-9.57917
▁specific	-9.57918
▁execut	-9.57918
▁reject	-9.57919
▁third	-9.57919
▁focus	-9.5792
science	-9.57929
▁Surely	-9.57932
▁color	-9.5796
▁wait	-9.57961
011	-9.58668
▁International	-9.61763
▁citizen	-9.61763
▁industrial	-9.61763
://	-9.61763
▁Scheme	-9.61763
▁Error	-9.61764
▁behalf	-9.61764
▁property	-9.61764
▁answer	-9.61765
▁righteous	-9.61768
▁Could	-9.61768
▁regulat	-9.61769
▁job	-9.61771
▁mercy	-9.61773
▁Section	-9.61774
▁percent	-9.61774
▁nature	-9.61777
▁adopt	-9.61781
▁attain	-9.6179
▁employee	-9.61822
▁Information	-9.65763
▁Institute	-9.65763
▁guidance	-9.65763
▁messenger	-9.65763
▁princip	-9.65763
▁World	-9.65763
▁earlier	-9.65763
▁scienti	-9.65763
▁advance	-9.65764
▁approv	-9.65764
▁display	-9.65765
▁degree	-9.65765
▁implement	-9.65766
▁garden	-9.65767
▁police	-9.65769
▁break	-9.65778
External	-9.66123
From	-9.6683
▁Address	-9.6993
▁Krishna	-9.6993
▁assessee	-9.6993
▁beginning	-9.6993
▁essential	-9.6993
▁evidence	-9.6993
▁observ	-9.6993
▁responsibility	-9.6993
▁launch	-9.6993
▁burden	-9.6993
▁enough	-9.69931
ology	-9.69932
▁lakh	-9.69932
▁angels	-9.69933
▁remind	-9.69935
▁session	-9.69936
▁Every	-9.69939
▁watch	-9.6994
▁medical	-9.6995
unda	-9.70437
▁Group	-9.74278
▁administrati	-9.74278
▁marriage	-9.74278
▁organization	-9.74278
▁prescribed	-9.74278
▁significant	-9.74278
▁symbol	-9.74278
▁Division	-9.74278
▁immediate	-9.74278
▁contract	-9.74278
▁farmers	-9.74281
▁instead	-9.74281
▁official	-9.74282
▁figure	-9.74283
▁engage	-9.74287
▁print	-9.743
sibilit	-9.74403
stitution	-9.74724
▁Resurrection	-9.78823
▁contribution	-9.78823
▁husband	-9.78823
▁maxim	-9.78823
▁religious	-9.78823
November	-9.78823
▁correct	-9.78823
▁length	-9.78823
▁avoid	-9.78823
▁voice	-9.78824
▁Uttar	-9.78824
▁labour	-9.78824
▁difference	-9.78824
▁threat	-9.78824
▁perfect	-9.78826
▁Speak	-9.78826
▁dwell	-9.78828
▁white	-9.78829
▁committee	-9.78831
body	-9.81843
▁introduc	-9.82114
▁Account	-9.83585
▁Technology	-9.83585
▁apostle	-9.83585
▁challenge	-9.83585
▁communicat	-9.83585
▁economy	-9.83585
▁expenditure	-9.83585
▁journey	-9.83585
▁popular	-9.83585
▁potential	-9.83585
▁software	-9.83585
▁suggest	-9.83585
▁column	-9.83585
▁middle	-9.83585
▁perhaps	-9.83585
▁advice	-9.83585
▁Search	-9.83586
ufficient	-9.88585
▁Supreme	-9.88585
Z	-10.3963
&	-11.583
–	-11.9163
‘	-13.4175
>	-13.4176
[	-13.4176
