<pad>	0
</s>	0
<unk>	0
s	-3.17426
▁the	-3.55976
.	-3.69956
,	-3.78816
▁of	-3.94726
▁and	-4.24348
▁	-4.2588
▁to	-4.32299
▁a	-4.40796
▁in	-4.44323
ed	-4.54093
ing	-4.69112
t	-4.72748
d	-4.73997
e	-4.88156
▁is	-4.925
y	-5.05023
er	-5.15652
r	-5.16896
▁for	-5.20938
al	-5.21286
n	-5.22571
a	-5.27909
▁s	-5.31564
i	-5.37472
▁be	-5.42082
▁-	-5.42617
▁that	-5.44628
re	-5.49398
o	-5.50817
in	-5.51038
ar	-5.53226
▁you	-5.53943
ly	-5.56458
▁The	-5.62615
▁(	-5.62756
le	-5.64555
b	-5.64845
m	-5.66018
p	-5.66879
▁re	-5.66895
▁not	-5.70973
or	-5.73005
c	-5.73072
g	-5.74279
▁A	-5.758
▁are	-5.76507
▁with	-5.77183
)	-5.78986
▁on	-5.80039
▁or	-5.80467
st	-5.8136
l	-5.8241
▁it	-5.83178
k	-5.84655
▁S	-5.89705
▁as	-5.90152
th	-5.90973
▁'	-5.95018
:	-5.97116
▁I	-5.97383
▁by	-5.97757
ur	-5.9807
it	-5.98845
an	-6.00758
ra	-6.02305
▁was	-6.03486
f	-6.03545
ri	-6.0376
▁have	-6.04241
ation	-6.04617
▁from	-6.06049
il	-6.06766
▁he	-6.07069
▁will	-6.0744
▁f	-6.07995
▁b	-6.08317
w	-6.10151
es	-6.11279
h	-6.12487
▁who	-6.12724
ent	-6.13031
▁they	-6.13549
▁de	-6.15326
▁p	-6.1758
▁this	-6.18221
▁them	-6.20472
u	-6.23135
on	-6.23296
▁has	-6.25689
;	-6.25822
▁C	-6.26667
▁He	-6.26927
ic	-6.27535
▁which	-6.28201
ment	-6.2869
▁an	-6.31186
▁st	-6.31559
▁at	-6.33818
ter	-6.34213
li	-6.34266
ce	-6.34857
▁me	-6.35572
▁his	-6.35964
▁c	-6.36286
te	-6.37045
ir	-6.37565
▁their	-6.37651
et	-6.3778
la	-6.39352
▁P	-6.39757
at	-6.40166
en	-6.40316
ch	-6.4068
▁e	-6.41737
▁w	-6.42504
I	-6.43735
ve	-6.43861
se	-6.44553
ha	-6.45133
▁T	-6.45797
id	-6.47043
ity	-6.47253
▁B	-6.47838
▁In	-6.47847
ion	-6.48073
ad	-6.48578
▁so	-6.48773
▁do	-6.50586
1	-6.51337
▁we	-6.51616
▁We	-6.51808
ro	-6.53343
A	-6.54854
▁all	-6.56271
▁Allah	-6.56661
▁And	-6.58288
▁t	-6.58881
us	-6.59921
ul	-6.59949
S	-6.63543
ive	-6.63783
?	-6.64844
▁F	-6.656
am	-6.66488
ate	-6.66755
able	-6.66779
▁g	-6.67334
ance	-6.68166
▁your	-6.69868
ers	-6.71978
-	-6.72361
ol	-6.72808
▁G	-6.73289
ver	-6.74311
▁India	-6.74765
as	-6.75598
vi	-6.75651
x	-6.7725
▁K	-6.78156
▁but	-6.7844
0	-6.78485
ist	-6.78789
▁pro	-6.79187
▁one	-6.79885
▁un	-6.80037
'	-6.80156
T	-6.82196
▁co	-6.82339
▁d	-6.83149
▁con	-6.86434
me	-6.86444
ge	-6.86677
▁any	-6.86872
E	-6.8764
O	-6.88898
▁other	-6.89189
▁been	-6.89395
▁"	-6.89688
tion	-6.8985
el	-6.89954
R	-6.90043
um	-6.90091
age	-6.90291
un	-6.90328
▁can	-6.90452
C	-6.90524
im	-6.90809
is	-6.91009
▁1	-6.91232
▁E	-6.92108
ut	-6.9233
▁no	-6.9277
▁were	-6.92936
%	-6.94132
ta	-6.94484
▁W	-6.94748
ma	-6.95221
D	-6.95325
ies	-6.95422
ant	-6.95606
▁had	-6.95734
lo	-6.95865
ill	-6.97037
▁D	-6.97144
▁those	-6.97538
▁pa	-6.97539
▁him	-6.97827
▁R	-6.97972
▁people	-6.98014
▁Re	-6.98245
▁It	-6.98304
and	-6.98719
▁2	-6.98984
▁when	-6.99008
▁said	-6.99382
▁what	-6.99472
▁there	-6.99773
ne	-6.99972
ti	-7.0017
ll	-7.00709
▁shall	-7.02436
▁M	-7.03469
hi	-7.04174
▁out	-7.05606
▁mo	-7.06726
z	-7.06753
▁go	-7.06847
ry	-7.0728
▁O	-7.07918
▁/	-7.08968
end	-7.09047
P	-7.0999
ence	-7.10133
▁time	-7.10337
de	-7.10466
▁God	-7.10584
!	-7.10739
▁also	-7.10769
9	-7.11178
mo	-7.1118
M	-7.11772
▁if	-7.11979
pe	-7.12223
ow	-7.13221
5	-7.13691
ary	-7.1389
om	-7.13899
▁our	-7.1401
▁19	-7.14419
ted	-7.14905
▁up	-7.14936
▁dis	-7.15326
na	-7.16088
lu	-7.16101
ell	-7.1634
ab	-7.1665
ud	-7.16705
▁lo	-7.17307
▁may	-7.17896
▁Lord	-7.19794
ction	-7.20013
▁en	-7.20241
2	-7.20312
▁us	-7.20681
▁U	-7.20736
4	-7.21496
▁ex	-7.21659
ru	-7.21783
6	-7.21863
ful	-7.21912
▁under	-7.22286
▁pre	-7.22997
ip	-7.23373
▁N	-7.2353
ated	-7.24293
▁po	-7.24708
▁This	-7.24877
ting	-7.25161
▁ra	-7.25306
ng	-7.25375
▁ma	-7.25465
▁its	-7.25849
3	-7.2643
L	-7.2646
ci	-7.26491
op	-7.26597
sh	-7.27095
ever	-7.28111
▁per	-7.28206
▁would	-7.28883
▁Mo	-7.29036
ight	-7.30668
▁see	-7.30673
▁li	-7.30978
▁comp	-7.31192
▁“	-7.31594
est	-7.31654
▁such	-7.32011
▁fa	-7.32326
B	-7.32375
ty	-7.32541
▁No	-7.32919
▁only	-7.33008
ck	-7.33266
▁_	-7.33287
per	-7.33651
▁So	-7.34307
7	-7.34689
▁H	-7.35276
▁se	-7.3533
▁over	-7.35913
em	-7.36036
▁Ma	-7.36047
▁work	-7.36129
ness	-7.36565
ine	-7.3661
▁part	-7.36723
ig	-7.37466
one	-7.37875
▁V	-7.38682
▁some	-7.39055
▁di	-7.39378
8	-7.39549
ven	-7.397
▁made	-7.40003
▁like	-7.40165
va	-7.40238
▁th	-7.40378
to	-7.40692
▁day	-7.40905
vo	-7.41172
▁De	-7.41183
cu	-7.4136
di	-7.41863
▁20	-7.42483
v	-7.42668
▁ho	-7.43409
▁should	-7.43689
port	-7.44274
▁about	-7.44508
wa	-7.44714
▁more	-7.4475
mb	-7.44816
min	-7.45172
▁my	-7.45227
▁than	-7.45275
nd	-7.45597
▁into	-7.46571
▁new	-7.46974
ish	-7.4706
ten	-7.47588
ous	-7.4767
▁say	-7.47747
▁la	-7.47998
▁su	-7.48813
sion	-7.49129
ise	-7.49286
"	-7.50132
▁ro	-7.50275
ure	-7.5119
▁man	-7.51246
▁But	-7.51336
ard	-7.51364
ia	-7.51407
ect	-7.51718
▁sub	-7.5177
▁mi	-7.52126
iv	-7.52309
ni	-7.52684
00	-7.53129
▁k	-7.53258
▁ca	-7.53393
ff	-7.5361
▁You	-7.54103
▁ha	-7.55003
ho	-7.55311
▁L	-7.55361
j	-7.55579
▁3	-7.55595
ot	-7.55757
▁two	-7.55849
▁Se	-7.56228
▁They	-7.56644
’	-7.56714
▁know	-7.56986
]	-7.57492
▁”	-7.57927
H	-7.581
tic	-7.58689
pp	-7.59121
▁[	-7.59421
▁Sa	-7.59675
▁good	-7.5977
less	-7.59865
av	-7.60498
▁His	-7.60702
▁after	-7.61066
ture	-7.61731
mber	-7.62282
▁Pa	-7.62585
ition	-7.63037
▁before	-7.63304
▁then	-7.63497
all	-7.63599
ak	-7.63678
ran	-7.63948
low	-7.64111
co	-7.64138
ical	-7.64271
ath	-7.64334
▁make	-7.64418
he	-7.65662
N	-7.65817
ally	-7.66342
▁For	-7.66466
▁Un	-7.66792
▁form	-7.66904
▁bo	-7.66911
▁vi	-7.67012
▁her	-7.67152
no	-7.67331
▁life	-7.67691
▁As	-7.6771
pos	-7.67793
▁Indian	-7.67825
ving	-7.68152
ite	-7.68453
du	-7.68584
ward	-7.68813
ld	-7.69357
▁To	-7.69816
▁Na	-7.70039
pa	-7.70101
up	-7.70408
▁come	-7.70754
▁these	-7.71407
side	-7.71723
ative	-7.72044
man	-7.72281
▁even	-7.72484
ke	-7.7251
W	-7.7312
U	-7.73305
lic	-7.73689
pi	-7.73812
▁person	-7.74128
tal	-7.74603
cr	-7.74753
▁world	-7.74874
G	-7.7502
ap	-7.75376
ga	-7.75515
▁sp	-7.75635
▁Ra	-7.75833
▁where	-7.75947
▁app	-7.7665
tra	-7.76661
▁Ch	-7.7728
▁Pro	-7.77576
▁through	-7.78168
▁believe	-7.78199
▁An	-7.7823
▁exp	-7.783
our	-7.78516
▁ri	-7.78774
ound	-7.79095
ca	-7.79213
ide	-7.7927
ag	-7.7953
▁ye	-7.79568
ph	-7.79584
▁Con	-7.79617
▁way	-7.79713
ities	-7.79843
ism	-7.79854
tain	-7.79945
▁car	-7.79952
ial	-7.79967
▁State	-7.79984
▁great	-7.80537
ens	-7.80589
ya	-7.80649
hy	-7.80653
▁being	-7.8129
▁place	-7.82578
ee	-7.83352
qu	-7.84144
rate	-7.84199
mp	-7.84334
ual	-7.84529
▁down	-7.84797
ory	-7.84937
▁If	-7.85171
the	-7.85215
▁There	-7.85636
▁cons	-7.85949
ration	-7.86117
▁country	-7.86222
▁Di	-7.86525
har	-7.86799
▁fi	-7.87275
▁Government	-7.87433
▁President	-7.8754
ac	-7.87597
▁follow	-7.87987
▁between	-7.88524
▁right	-7.88556
line	-7.88821
▁dec	-7.88958
ay	-7.89304
▁ch	-7.89767
ations	-7.89808
gi	-7.89898
▁&	-7.89939
ign	-7.90364
▁n	-7.90705
▁take	-7.91252
▁used	-7.91996
▁could	-7.91999
nt	-7.92044
▁first	-7.92428
emp	-7.92622
▁well	-7.92718
▁set	-7.92843
ian	-7.93206
▁Him	-7.93804
▁Act	-7.93874
ice	-7.94199
▁o	-7.94276
▁name	-7.94281
▁give	-7.94463
tri	-7.94478
▁did	-7.94527
ship	-7.94578
▁year	-7.94747
▁ba	-7.94814
ct	-7.94973
▁All	-7.95197
▁Me	-7.9536
▁most	-7.95802
be	-7.95915
▁Ha	-7.95917
ju	-7.96164
par	-7.96194
▁upon	-7.96573
han	-7.97106
▁many	-7.97234
▁nor	-7.97239
com	-7.97273
ew	-7.97331
▁trans	-7.9734
▁help	-7.97387
▁use	-7.97458
ning	-7.97475
▁sign	-7.97645
ating	-7.97795
▁earth	-7.98048
mi	-7.98335
nk	-7.98629
▁Y	-7.98716
▁years	-7.98831
lf	-7.98898
▁provide	-7.98908
▁very	-7.98927
▁back	-7.99006
▁Ja	-7.99191
der	-7.99383
▁Lo	-7.99443
▁state	-7.99487
▁5	-7.99761
▁com	-7.99821
▁how	-7.99946
▁men	-7.99992
▁high	-8.00029
▁La	-8.00306
▁every	-8.00541
▁among	-8.00683
▁Th	-8.01235
▁file	-8.01371
),	-8.01717
▁own	-8.01824
▁Be	-8.02046
▁get	-8.021
▁qu	-8.02113
▁Co	-8.02135
▁against	-8.02262
F	-8.02304
▁power	-8.02611
▁4	-8.03028
tor	-8.03648
▁Do	-8.03676
▁Ba	-8.03708
go	-8.03978
ft	-8.04117
▁need	-8.04181
▁va	-8.04471
for	-8.04782
pr	-8.04885
ough	-8.04979
V	-8.05284
bu	-8.05399
▁Li	-8.05624
ick	-8.05728
▁disc	-8.0578
▁gra	-8.05931
mit	-8.06079
tu	-8.06207
gu	-8.06271
▁act	-8.06633
▁hand	-8.07043
▁Ex	-8.07247
ments	-8.07391
row	-8.07934
ka	-8.08084
ang	-8.09011
▁J	-8.093
▁0	-8.09906
▁St	-8.10022
red	-8.10133
▁case	-8.10284
▁war	-8.10751
ood	-8.10839
▁does	-8.10999
ach	-8.11028
▁number	-8.11121
qui	-8.1156
da	-8.11641
▁sent	-8.1166
rt	-8.11675
fer	-8.11787
act	-8.11918
▁Vi	-8.12119
▁open	-8.12247
▁given	-8.12322
gra	-8.12612
▁turn	-8.12616
val	-8.12661
▁system	-8.12675
▁just	-8.13109
▁Ar	-8.1344
dic	-8.13528
led	-8.13649
▁because	-8.13737
▁tr	-8.13829
nu	-8.14067
).	-8.14334
▁Ho	-8.14492
▁must	-8.14512
▁cent	-8.14761
▁inter	-8.14806
ba	-8.14946
▁she	-8.15332
ug	-8.15395
ind	-8.15525
▁cl	-8.16439
▁end	-8.16531
ner	-8.16561
▁water	-8.16623
cc	-8.1681
nc	-8.17359
▁am	-8.17388
ved	-8.17398
und	-8.1783
”	-8.17866
▁Po	-8.17901
▁want	-8.18149
...	-8.18563
▁On	-8.18682
▁account	-8.18825
po	-8.18935
▁long	-8.18955
▁When	-8.19379
ub	-8.19524
ize	-8.19537
ease	-8.1964
▁Le	-8.19839
▁cr	-8.20215
of	-8.20226
▁sh	-8.20329
▁Man	-8.20592
ose	-8.20733
ces	-8.21019
▁>	-8.21209
Y	-8.21349
▁section	-8.21405
▁order	-8.21528
▁show	-8.21579
▁ob	-8.21708
▁service	-8.22452
ja	-8.22701
ific	-8.22995
▁min	-8.2334
▁conf	-8.23371
▁Day	-8.23472
fi	-8.23555
▁change	-8.23851
▁found	-8.24101
▁En	-8.24254
form	-8.24463
▁let	-8.24603
hold	-8.24664
▁direct	-8.24824
▁le	-8.24938
lar	-8.25261
ack	-8.25415
▁<	-8.25581
ah	-8.25675
▁imp	-8.25765
▁hu	-8.26546
▁Al	-8.26549
▁message	-8.26708
▁Cha	-8.26734
▁away	-8.26767
▁now	-8.269
▁Bo	-8.26961
▁br	-8.26975
cent	-8.27496
▁whom	-8.27726
▁came	-8.29058
▁present	-8.29113
▁development	-8.29498
."	-8.29901
▁lead	-8.30102
ana	-8.30412
▁during	-8.30596
▁pl	-8.3079
▁Our	-8.30797
ible	-8.30991
con	-8.31001
▁same	-8.3166
▁while	-8.32443
▁organ	-8.32491
▁heart	-8.32584
▁though	-8.32735
ake	-8.32791
▁main	-8.33229
▁large	-8.33723
▁become	-8.33742
ries	-8.33746
▁each	-8.34077
ator	-8.34131
▁fo	-8.34972
ised	-8.35129
▁cause	-8.35685
▁land	-8.35975
rit	-8.3633
▁both	-8.36507
▁sur	-8.36652
▁process	-8.37463
▁book	-8.37708
▁Ta	-8.3773
▁Go	-8.37854
▁product	-8.38041
put	-8.38056
▁def	-8.38063
▁Ka	-8.38155
use	-8.38306
▁pass	-8.38359
▁another	-8.3843
▁etc	-8.38548
▁called	-8.38606
▁grow	-8.38768
▁6	-8.3878
ency	-8.38848
▁ask	-8.38876
▁law	-8.38989
▁things	-8.39202
▁truth	-8.3962
▁pay	-8.39729
▁here	-8.39754
▁word	-8.39977
▁return	-8.40254
▁list	-8.40271
▁fear	-8.40273
ious	-8.40339
▁Ju	-8.40472
20	-8.40646
▁add	-8.41083
lay	-8.41141
▁start	-8.41201
struct	-8.41489
▁public	-8.41613
▁tri	-8.41629
▁period	-8.41711
▁ne	-8.4192
▁different	-8.42067
▁term	-8.42486
▁indeed	-8.42794
men	-8.42871
▁al	-8.42916
ex	-8.43104
▁play	-8.43162
tro	-8.435
▁support	-8.43596
▁three	-8.43649
▁author	-8.43859
▁certain	-8.43905
▁find	-8.44366
▁commun	-8.44713
▁without	-8.45243
cient	-8.4545
▁knowledge	-8.45595
▁bring	-8.45819
▁Su	-8.46148
ue	-8.46349
▁National	-8.46355
▁live	-8.46394
▁Mar	-8.46587
▁Mu	-8.46667
▁du	-8.46705
ling	-8.46787
br	-8.46798
▁Shri	-8.46843
▁consider	-8.46865
▁value	-8.47016
ev	-8.47166
scribe	-8.47188
▁hi	-8.4746
jo	-8.47505
▁Ne	-8.47751
▁str	-8.47786
▁human	-8.48186
▁im	-8.48221
▁‘	-8.48298
▁means	-8.484
▁matter	-8.48457
▁interest	-8.48625
▁fact	-8.48794
▁look	-8.48944
nder	-8.48949
▁Then	-8.48971
▁8	-8.49074
▁information	-8.49347
▁much	-8.49401
▁exc	-8.49455
▁call	-8.49671
mon	-8.49861
▁except	-8.49877
▁7	-8.50263
▁read	-8.50395
gg	-8.50706
▁best	-8.50986
▁cha	-8.51058
▁tea	-8.51359
▁unto	-8.51554
▁respect	-8.51596
ON	-8.51989
▁cre	-8.52014
▁language	-8.52407
▁issue	-8.52492
▁mar	-8.52562
▁What	-8.52777
▁education	-8.52912
▁mu	-8.53144
▁clear	-8.53656
ji	-8.54077
▁government	-8.54163
▁project	-8.54408
▁require	-8.54644
▁Minister	-8.54752
▁full	-8.54795
land	-8.54816
▁enter	-8.5506
▁OF	-8.55564
▁women	-8.55631
ization	-8.56032
K	-8.56111
:%	-8.56171
/	-8.5623
▁think	-8.56468
uch	-8.56761
que	-8.56972
▁small	-8.57023
▁receive	-8.57235
ify	-8.5734
—	-8.57456
▁group	-8.57684
▁far	-8.57738
▁house	-8.57853
▁Say	-8.57922
▁Or	-8.57994
▁10	-8.58105
late	-8.5818
▁That	-8.58182
uc	-8.58263
dra	-8.58346
▁18	-8.58613
mission	-8.58669
▁My	-8.5898
▁created	-8.58999
pect	-8.5924
▁Qu	-8.59264
▁cannot	-8.59476
▁effect	-8.60028
▁important	-8.60856
▁Pre	-8.60881
▁last	-8.60909
▁office	-8.61143
ctor	-8.61673
AN	-8.61851
press	-8.61902
▁–	-8.61944
▁exist	-8.62305
▁Who	-8.62324
▁Mi	-8.62376
aught	-8.62377
▁income	-8.62783
IN	-8.62832
che	-8.62948
▁company	-8.6298
▁Book	-8.63028
▁Fa	-8.63307
▁business	-8.63322
▁amount	-8.63577
ified	-8.63582
▁New	-8.63731
▁surely	-8.64037
AR	-8.64214
gan	-8.64563
▁evil	-8.64656
ized	-8.64737
▁never	-8.64822
▁taken	-8.65073
tract	-8.65077
▁guide	-8.65151
▁select	-8.65166
▁purpose	-8.65175
▁establish	-8.65188
▁might	-8.65206
▁Da	-8.65309
▁today	-8.65322
▁non	-8.65337
ER	-8.65403
▁wrong	-8.65421
▁Sha	-8.6581
▁known	-8.66096
}	-8.66272
▁children	-8.6691
AT	-8.67422
vision	-8.67698
amp	-8.67731
▁head	-8.67959
ference	-8.68099
▁various	-8.68237
▁leg	-8.68292
▁These	-8.68642
▁gene	-8.6865
way	-8.68931
▁disbelieve	-8.6897
out	-8.69038
▁art	-8.69235
hu	-8.69302
▁spec	-8.69375
chan	-8.69548
ification	-8.6975
▁month	-8.69751
▁bank	-8.69759
▁accept	-8.69828
▁Muslim	-8.70025
▁themselves	-8.70197
▁better	-8.70229
▁rule	-8.7042
▁old	-8.70572
day	-8.70719
▁view	-8.70751
▁elect	-8.70818
▁share	-8.70913
▁four	-8.70932
▁faith	-8.713
▁equal	-8.71316
mark	-8.71394
▁develop	-8.71433
▁problem	-8.71701
▁nation	-8.71738
▁friend	-8.71878
▁provision	-8.72081
▁worship	-8.72095
verse	-8.72109
▁success	-8.72226
▁keep	-8.72301
▁type	-8.72354
▁love	-8.72427
▁put	-8.72513
▁institution	-8.72651
▁allow	-8.72679
▁connect	-8.72714
▁body	-8.72756
▁date	-8.72883
▁point	-8.72898
graph	-8.7329
▁level	-8.73347
▁done	-8.73387
▁left	-8.73404
▁mind	-8.73415
▁plan	-8.73442
ES	-8.73455
▁window	-8.73701
▁social	-8.73842
▁employ	-8.74342
▁address	-8.75109
▁serve	-8.75144
▁rest	-8.75543
▁free	-8.75614
vation	-8.7572
Z	-8.75925
▁One	-8.76077
▁remain	-8.76163
▁Ro	-8.76607
▁Comp	-8.76614
▁near	-8.76727
▁Raj	-8.77172
ability	-8.77182
▁due	-8.77489
▁build	-8.77688
▁data	-8.77842
▁light	-8.77846
ttle	-8.77956
gen	-8.78023
▁complete	-8.78446
▁sector	-8.79054
▁face	-8.79085
▁invest	-8.79193
▁include	-8.79482
▁towards	-8.79494
▁Gu	-8.79895
▁result	-8.80069
▁Central	-8.80177
▁kind	-8.80367
▁available	-8.80893
▁concern	-8.81245
cept	-8.81466
▁increase	-8.82018
▁health	-8.82138
▁contain	-8.82348
▁Messenger	-8.82503
▁She	-8.82513
▁mode	-8.83209
▁Maha	-8.83242
▁Hindu	-8.83336
▁Bu	-8.83527
▁understand	-8.83614
▁brought	-8.83744
▁thou	-8.83861
▁home	-8.8413
gue	-8.84293
▁leave	-8.84326
▁control	-8.84521
▁punishment	-8.84536
▁idea	-8.84536
▁object	-8.84635
▁relation	-8.84815
▁reach	-8.84991
▁function	-8.85068
▁plant	-8.85322
▁learn	-8.85522
▁Jo	-8.85537
▁again	-8.85592
▁Pri	-8.85666
▁national	-8.85783
▁command	-8.85788
X	-8.85953
▁family	-8.86122
▁question	-8.86459
section	-8.86699
▁class	-8.87069
▁condition	-8.87276
▁poet	-8.87532
▁economic	-8.87579
▁{	-8.87756
▁folder	-8.87974
cious	-8.88111
▁Bhavan	-8.88127
▁food	-8.8816
▁run	-8.88255
▁15	-8.88432
ook	-8.88525
▁death	-8.88673
▁visit	-8.88735
▁something	-8.88775
▁wish	-8.89149
▁market	-8.89254
▁Islam	-8.89302
▁special	-8.89484
▁Sub	-8.89504
▁pur	-8.89711
▁Add	-8.89831
The	-8.90483
▁self	-8.90802
▁sea	-8.90937
▁Comm	-8.9096
▁subject	-8.91265
▁produce	-8.91392
▁save	-8.91399
▁eye	-8.91753
▁father	-8.91848
▁hard	-8.91868
▁Some	-8.9218
▁true	-8.92183
▁village	-8.92711
▁application	-8.92711
▁field	-8.92714
▁capital	-8.93052
▁local	-8.93156
▁commit	-8.93231
▁close	-8.9324
light	-8.93266
▁region	-8.93483
▁already	-8.93595
▁scheme	-8.93868
▁America	-8.9394
▁reason	-8.94038
▁regard	-8.94072
▁together	-8.94359
▁continue	-8.94524
▁night	-8.94631
▁common	-8.94877
▁religion	-8.94927
▁character	-8.94964
▁protect	-8.94992
▁image	-8.95012
▁create	-8.95037
▁cover	-8.95071
▁gave	-8.95333
▁second	-8.95389
▁few	-8.95672
▁fund	-8.95774
▁perform	-8.96164
▁Indeed	-8.96308
▁countries	-8.9631
▁Rashtrapati	-8.96782
▁Delhi	-8.9699
ium	-8.97036
▁12	-8.97138
▁limit	-8.97417
▁above	-8.97552
▁charge	-8.9769
▁general	-8.97704
▁tax	-8.97817
▁Those	-8.97912
▁little	-8.9809
▁programme	-8.98299
▁major	-8.9854
▁strength	-8.98595
▁himself	-8.98729
▁particular	-8.98786
▁based	-8.98915
matic	-8.99647
EN	-8.99902
▁making	-9.00496
▁Commission	-9.00559
▁test	-9.00713
▁belong	-9.0099
▁spirit	-9.01107
▁child	-9.01246
▁policy	-9.01282
▁court	-9.0185
▁train	-9.02003
▁until	-9.02011
▁benefit	-9.02185
▁having	-9.02428
▁clause	-9.02621
cult	-9.02653
▁individual	-9.02859
▁example	-9.02939
▁join	-9.03248
▁write	-9.03445
▁around	-9.03803
▁current	-9.03818
▁society	-9.04241
▁Gandhi	-9.04423
▁took	-9.04441
▁key	-9.04824
lock	-9.0495
▁occasion	-9.05213
▁desire	-9.05247
▁political	-9.05295
▁collect	-9.05341
▁tree	-9.05503
detail	-9.05638
▁operation	-9.05807
▁record	-9.06114
▁always	-9.06321
▁effort	-9.06649
▁along	-9.06866
▁Office	-9.06878
▁position	-9.06913
▁express	-9.07154
▁represent	-9.07188
▁believers	-9.07416
▁nothing	-9.07518
▁text	-9.07728
▁therefore	-9.07732
▁treat	-9.07804
▁whether	-9.08274
▁including	-9.08737
▁feel	-9.08976
▁import	-9.09073
▁promise	-9.09652
▁With	-9.09749
▁school	-9.09925
▁witness	-9.09949
▁Bank	-9.0998
▁multi	-9.10269
▁Bengal	-9.1029
▁further	-9.10353
▁short	-9.10424
▁Show	-9.10596
▁research	-9.10611
▁since	-9.10691
▁British	-9.11128
Muhammad	-9.11974
▁Select	-9.12184
▁nature	-9.12264
▁appear	-9.12488
▁course	-9.1288
▁Court	-9.12886
▁tradition	-9.13026
▁error	-9.13093
▁became	-9.13182
▁peace	-9.13844
▁grant	-9.13937
▁document	-9.14181
▁Please	-9.142
J	-9.14234
▁temple	-9.14491
▁THE	-9.14581
▁money	-9.14965
▁House	-9.1501
▁next	-9.15706
▁After	-9.15744
▁strong	-9.16184
▁measure	-9.16227
▁English	-9.16293
▁Hindi	-9.17072
▁Singh	-9.17471
▁Prime	-9.17495
▁transfer	-9.17544
▁PRESIDENT	-9.17598
▁previous	-9.17853
▁access	-9.17969
▁partner	-9.18007
▁six	-9.18134
▁Israel	-9.182
▁brother	-9.18385
▁Committee	-9.18757
▁arm	-9.1878
▁several	-9.18857
▁possible	-9.18921
▁industry	-9.19459
▁movement	-9.19652
▁foreign	-9.19969
▁speak	-9.20361
▁either	-9.20998
▁activities	-9.21093
▁High	-9.21205
▁Ministry	-9.21428
▁Parliament	-9.215
▁forgive	-9.21636
▁mother	-9.21669
▁source	-9.21931
▁task	-9.22012
east	-9.22054
▁achieve	-9.22705
▁contact	-9.22854
▁progress	-9.23118
▁University	-9.23143
▁itself	-9.23295
▁(1)	-9.23342
▁technology	-9.23435
▁deliver	-9.23588
▁financial	-9.23803
▁trade	-9.24017
▁anything	-9.24494
▁Department	-9.24937
▁price	-9.25238
▁computer	-9.2542
▁resource	-9.2546
q	-9.2556
▁General	-9.25709
▁difficult	-9.26085
▁trust	-9.26102
▁history	-9.26474
▁quality	-9.26641
▁happen	-9.26892
▁property	-9.27069
▁File	-9.27312
▁Pradesh	-9.27347
▁draw	-9.27564
▁implement	-9.27731
▁Open	-9.27767
soever	-9.27795
▁associate	-9.28343
▁harm	-9.28547
▁material	-9.28601
▁future	-9.28758
*	-9.28806
▁website	-9.28935
▁please	-9.2907
▁credit	-9.29084
▁remember	-9.29221
▁necessary	-9.29271
▁judge	-9.29349
▁behind	-9.29511
▁entire	-9.29691
Q	-9.29821
▁step	-9.30008
▁Development	-9.30078
▁mercy	-9.30392
▁Could	-9.30396
point	-9.30543
▁million	-9.30681
▁experience	-9.30706
▁referred	-9.30944
▁network	-9.30969
▁demand	-9.31252
▁related	-9.31598
▁Congress	-9.31657
▁security	-9.31657
▁written	-9.33397
▁revealed	-9.33694
ology	-9.33697
▁Europe	-9.33992
▁guidance	-9.34019
▁doubt	-9.34026
▁specified	-9.34216
▁natural	-9.34673
▁deep	-9.35071
▁Service	-9.35084
▁sense	-9.35094
▁environment	-9.35221
▁modern	-9.35478
▁district	-9.35662
▁answer	-9.3644
ological	-9.36745
▁firm	-9.36795
▁according	-9.36996
▁verily	-9.37334
▁righteous	-9.37447
“	-9.37503
▁remove	-9.37921
▁decision	-9.3804
▁culture	-9.38125
▁East	-9.38282
▁instrument	-9.39175
▁destroy	-9.39232
▁Constitution	-9.39519
▁INDIA	-9.39576
▁method	-9.40326
▁talk	-9.40404
▁animal	-9.40483
▁century	-9.40767
▁design	-9.40861
▁writing	-9.40972
▁extend	-9.41122
▁international	-9.41343
▁prayer	-9.41549
▁safe	-9.41623
▁blood	-9.41726
▁basis	-9.41752
▁article	-9.4196
▁appointed	-9.42165
(	-9.42174
▁improve	-9.42494
▁energy	-9.42608
▁http	-9.42638
▁affect	-9.42796
▁auto	-9.42836
▁Surely	-9.43422
with	-9.43425
▁Prophet	-9.4365
▁practice	-9.44009
▁Council	-9.44099
▁approach	-9.4431
▁structure	-9.44372
▁reject	-9.44402
▁Verily	-9.4449
▁Fire	-9.44492
▁global	-9.44551
▁publish	-9.44823
▁earn	-9.4486
▁fruit	-9.44959
▁suffer	-9.44977
▁custom	-9.45065
▁exchange	-9.45308
▁program	-9.45479
▁citizen	-9.45826
▁Information	-9.4598
▁drive	-9.46106
▁assessee	-9.46132
▁check	-9.46169
▁spread	-9.4632
▁display	-9.46348
▁favour	-9.46565
▁occur	-9.46625
▁search	-9.46694
▁religious	-9.47118
▁crore	-9.47134
▁management	-9.4799
▁possess	-9.4821
▁option	-9.48224
▁conduct	-9.48368
▁music	-9.48392
▁terror	-9.48491
▁wealth	-9.48614
▁civil	-9.49028
▁Director	-9.49342
▁patient	-9.49884
▁freedom	-9.50042
▁everything	-9.50467
▁content	-9.50623
▁taking	-9.50658
▁advance	-9.51518
▁machine	-9.51584
▁neither	-9.5233
▁Public	-9.52428
External	-9.52559
▁assessment	-9.52821
▁enjoy	-9.53084
▁space	-9.53174
▁industrial	-9.53445
▁least	-9.53595
▁population	-9.53743
▁Institute	-9.53842
▁Error	-9.53908
▁thousand	-9.53916
▁profit	-9.5406
▁Whether	-9.5464
▁science	-9.55449
▁Where	-9.55482
▁literature	-9.55545
▁divide	-9.55626
▁Canno	-9.55753
▁video	-9.56089
▁evidence	-9.56255
▁color	-9.56258
▁secret	-9.56359
▁woman	-9.56536
▁Plan	-9.56805
▁situation	-9.57244
▁count	-9.57271
▁South	-9.57458
▁servant	-9.57656
▁adopt	-9.57849
▁print	-9.57914
▁travel	-9.57939
▁device	-9.58014
▁capacity	-9.5807
▁mountain	-9.58105
▁People	-9.58589
▁guard	-9.58665
▁drink	-9.58974
▁separate	-9.58979
▁front	-9.59046
▁prevent	-9.59049
▁wife	-9.59497
▁messenger	-9.59918
▁private	-9.60094
▁garden	-9.60207
▁angels	-9.6091
▁involve	-9.61051
▁mankind	-9.61158
board	-9.61229
▁Mukherjee	-9.61801
▁immediate	-9.62232
▁almost	-9.62558
▁request	-9.6278
▁suggest	-9.62955
▁break	-9.63111
▁earlier	-9.63282
▁figure	-9.63323
▁kept	-9.63392
▁Project	-9.63501
▁lakh	-9.63616
▁Merciful	-9.63829
▁across	-9.63866
▁critic	-9.63908
▁similar	-9.64233
▁Bharat	-9.6457
://	-9.64639
▁Governor	-9.64675
▁Africa	-9.64785
▁engage	-9.64832
▁official	-9.65045
▁revelation	-9.65416
▁challenge	-9.65527
▁physical	-9.65639
▁farmers	-9.66201
▁Republic	-9.66424
{	-10.2713
_	-10.3567
&	-10.9257
[	-11.3376
‘	-11.9593
–	-12.0461
<	-13.1998
>	-14.1527
