<pad>	0
</s>	0
<unk>	0
▁¦	-0
▁、	-1
▁。	-2
なた	-3
あなた	-4
って	-5
たし	-6
わたし	-7
その	-8
った	-9
であ	-10
ない	-11
して	-12
から	-13
こと	-14
われ	-15
である	-16
彼ら	-17
あなたが	-18
たち	-19
よう	-20
▁」	-21
あなたがた	-22
また	-23
した	-24
られ	-25
▁、「	-26
なら	-27
わたしは	-28
エル	-29
▁」。	-30
これ	-31
いる	-32
あなたの	-33
それ	-34
ように	-35
さい	-36
言った	-37
ため	-38
この	-39
の子	-40
いた	-41
する	-42
され	-43
べて	-44
ので	-45
わたしの	-46
いて	-47
ならない	-48
ろう	-49
すべて	-50
なる	-51
イス	-52
ラエル	-53
イスラエル	-54
ある	-55
ために	-56
れば	-57
主は	-58
かし	-59
人々	-60
びと	-61
あなたは	-62
には	-63
彼らは	-64
であろう	-65
主の	-66
もの	-67
言われ	-68
ことを	-69
者は	-70
すべての	-71
そこ	-72
なさい	-73
エス	-74
イスラエルの	-75
をも	-76
によ	-77
イエス	-78
彼は	-79
うち	-80
られた	-81
ければ	-82
なければ	-83
こう	-84
自分	-85
しかし	-86
られる	-87
ます	-88
かった	-89
そして	-90
これを	-91
くだ	-92
あなたがたの	-93
もろ	-94
しい	-95
なければならない	-96
ことが	-97
んで	-98
あなたがたは	-99
われわれ	-100
なわ	-101
えて	-102
れる	-103
なかった	-104
んだ	-105
れた	-106
わが	-107
のために	-108
わたしを	-109
わたしが	-110
わたしたち	-111
れて	-112
によって	-113
すなわ	-114
すなわち	-115
どう	-116
させ	-117
人の	-118
をもって	-119
ンの	-120
からである	-121
わたしに	-122
きて	-123
ょう	-124
およ	-125
ください	-126
言葉	-127
を見	-128
▁』	-129
える	-130
ユダ	-131
された	-132
とり	-133
のうち	-134
では	-135
言われた	-136
および	-137
でき	-138
につ	-139
そこで	-140
もし	-141
神の	-142
ころ	-143
なく	-144
のように	-145
っている	-146
前に	-147
に言った	-148
共に	-149
のか	-150
ダビ	-151
ダビデ	-152
それを	-153
彼らの	-154
はならない	-155
えた	-156
▁「	-157
まで	-158
らせ	-159
とを	-160
とな	-161
きた	-162
彼らを	-163
ました	-164
であった	-165
とき	-166
主が	-167
のである	-168
とに	-169
自分の	-170
ささ	-171
祭司	-172
これは	-173
人を	-174
あなたを	-175
そう	-176
神は	-177
ひとり	-178
つか	-179
ことは	-180
しょう	-181
ゆえ	-182
人は	-183
たちは	-184
リヤ	-185
ところ	-186
主に	-187
アブ	-188
上に	-189
あなたに	-190
ことができ	-191
です	-192
があ	-193
べき	-194
として	-195
おの	-196
ささげ	-197
らの	-198
モー	-199
モーセ	-200
ませ	-201
される	-202
▁、『	-203
者の	-204
と共に	-205
にな	-206
物を	-207
だれ	-208
の中	-209
おり	-210
レム	-211
サレム	-212
事を	-213
エルサレム	-214
兄弟	-215
者を	-216
みな	-217
かって	-218
行って	-219
もろの	-220
シャ	-221
と言	-222
彼を	-223
彼らに	-224
のです	-225
もろもろの	-226
める	-227
はその	-228
受け	-229
エジ	-230
地に	-231
言われる	-232
出て	-233
プト	-234
エジプト	-235
人々は	-236
めた	-237
つの	-238
ならば	-239
めて	-240
のは	-241
とい	-242
の王	-243
にある	-244
人が	-245
かに	-246
彼女	-247
イエスは	-248
それは	-249
彼に	-250
者が	-251
取り	-252
命じ	-253
見よ	-254
預言	-255
キリ	-256
滅ぼ	-257
とその	-258
彼の	-259
ロン	-260
にも	-261
行った	-262
しも	-263
の家	-264
スト	-265
多く	-266
らは	-267
あなたがたに	-268
の子孫	-269
であって	-270
しく	-271
けて	-272
にあ	-273
ごと	-274
しもべ	-275
キリスト	-276
ただ	-277
わせ	-278
について	-279
こうして	-280
ている	-281
でしょう	-282
しみ	-283
にお	-284
▁・	-285
たちの	-286
与え	-287
サウ	-288
王の	-289
地の	-290
所に	-291
ません	-292
ごとく	-293
りを	-294
主よ	-295
言葉を	-296
ける	-297
びとの	-298
行き	-299
るであろう	-300
りの	-301
ルの	-302
ムの	-303
わざ	-304
食べ	-305
をあ	-306
いつ	-307
いに	-308
したが	-309
彼らが	-310
言う	-311
告げ	-312
とし	-313
とは	-314
あなたがたが	-315
ことごとく	-316
とおり	-317
ような	-318
の間	-319
これらの	-320
かの	-321
います	-322
人に	-323
民は	-324
立って	-325
王は	-326
いを	-327
さば	-328
罪を	-329
かな	-330
行く	-331
主を	-332
モン	-333
イスラエルの人々	-334
もとに	-335
来る	-336
それゆえ	-337
シュ	-338
ヤコ	-339
者に	-340
ヤコブ	-341
よい	-342
に住	-343
われわれの	-344
かた	-345
彼が	-346
捨て	-347
祭壇	-348
けた	-349
名を	-350
を受け	-351
手に	-352
聞き	-353
われわれは	-354
すると	-355
民を	-356
より	-357
ではない	-358
でも	-359
その子	-360
らない	-361
手を	-362
たちを	-363
あなたがたを	-364
わたしたちは	-365
を得	-366
エリ	-367
るぎ	-368
のうちに	-369
立ち	-370
たちが	-371
となる	-372
多くの	-373
日に	-374
主なる	-375
のだ	-376
律法	-377
とする	-378
の上に	-379
いなる	-380
つかわ	-381
している	-382
その時	-383
っていた	-384
いだ	-385
かつ	-386
あり	-387
身を	-388
地を	-389
とが	-390
先祖	-391
心を	-392
しる	-393
ニヤ	-394
ルは	-395
立て	-396
むかって	-397
たちに	-398
あが	-399
つるぎ	-400
民の	-401
いの	-402
と言った	-403
レビ	-404
一緒	-405
すれば	-406
いなさい	-407
聖なる	-408
まえ	-409
なが	-410
聞いて	-411
大いなる	-412
しき	-413
定め	-414
しま	-415
正しい	-416
をお	-417
を行	-418
つかさ	-419
かせ	-420
神に	-421
という	-422
となり	-423
にいる	-424
ぶどう	-425
ふた	-426
パン	-427
部族	-428
んな	-429
ここ	-430
ものは	-431
かわ	-432
のに	-433
がある	-434
建て	-435
対して	-436
ラム	-437
ユダヤ	-438
なお	-439
呼ば	-440
ゆる	-441
ものを	-442
は言った	-443
知恵	-444
にはい	-445
▁『	-446
どうして	-447
ども	-448
る者は	-449
リシ	-450
にしたが	-451
のを	-452
いは	-453
のですか	-454
わたしたちの	-455
ると	-456
引き	-457
預言者	-458
さて	-459
になった	-460
はい	-461
弟子	-462
のを見	-463
ソロ	-464
時に	-465
であり	-466
を守	-467
のない	-468
契約	-469
よりも	-470
あなたの神	-471
軍の	-472
らに	-473
生き	-474
ダビデは	-475
喜び	-476
ためである	-477
町々	-478
アロン	-479
る者	-480
幕屋	-481
に従	-482
追い	-483
恵み	-484
そこに	-485
るように	-486
とど	-487
打ち	-488
氏族	-489
ないで	-490
ユダの	-491
おのおの	-492
いで	-493
それで	-494
ビト	-495
栄光	-496
▁』。	-497
一緒に	-498
キュ	-499
キュビト	-500
神を	-501
取って	-502
バビ	-503
なり	-504
ヨセ	-505
からだ	-506
連れて	-507
ものである	-508
神が	-509
げて	-510
キヤ	-511
パロ	-512
主は言われる	-513
信じ	-514
恐れ	-515
ヨセフ	-516
ひとりの	-517
これに	-518
ペリシ	-519
ペリシテ	-520
なぜ	-521
燔祭	-522
荒野	-523
となった	-524
ることができ	-525
同じ	-526
祝福	-527
があり	-528
にしたがって	-529
ンは	-530
一つ	-531
なった	-532
ること	-533
いと	-534
りに	-535
レア	-536
他の	-537
シュア	-538
らを	-539
ラハ	-540
の中に	-541
信仰	-542
とした	-543
一つの	-544
ことはない	-545
との	-546
大き	-547
万軍の	-548
向かって	-549
エジプトの	-550
道を	-551
そうすれば	-552
アビ	-553
こう言われる	-554
てください	-555
に言われた	-556
ゆえに	-557
人の子	-558
よく	-559
を造	-560
心に	-561
おまえ	-562
このように	-563
ほかの	-564
スリヤ	-565
まず	-566
ライ	-567
ロンの	-568
帰って	-569
しえ	-570
もまた	-571
と言う	-572
罪を犯	-573
さばき	-574
ではないか	-575
エフ	-576
日の	-577
前で	-578
良い	-579
をささげ	-580
アル	-581
十二	-582
だけ	-583
入れ	-584
思い	-585
われた	-586
われる	-587
があった	-588
ましょう	-589
ケル	-590
宮の	-591
アブラハ	-592
られて	-593
とも	-594
家に	-595
尋ね	-596
ことを知	-597
をつ	-598
アハ	-599
ソロモン	-600
供え	-601
うちに	-602
ってはならない	-603
その日	-604
だから	-605
しなさい	-606
びとは	-607
主なる神は	-608
主の前に	-609
の木	-610
子を	-611
どこ	-612
悪しき	-613
の前に	-614
かり	-615
のが	-616
民に	-617
出して	-618
んでいる	-619
のある	-620
上って	-621
かえ	-622
ながら	-623
むべき	-624
二十	-625
かれた	-626
どうぞ	-627
またその	-628
の上	-629
死んだ	-630
聞いた	-631
サム	-632
きょう	-633
滅び	-634
マリヤ	-635
ところが	-636
所で	-637
だれが	-638
どうか	-639
答えて	-640
ところに	-641
たちよ	-642
なん	-643
嗣業	-644
を取り	-645
とおりである	-646
せよ	-647
がよい	-648
されて	-649
ヨシュア	-650
ムは	-651
しない	-652
それから	-653
と一緒に	-654
モーセは	-655
人々が	-656
出た	-657
るべき	-658
殺した	-659
イエスの	-660
とこ	-661
仰せ	-662
助け	-663
とこしえ	-664
者である	-665
ってお	-666
まだ	-667
または	-668
町の	-669
オン	-670
のでは	-671
国の	-672
アン	-673
下さ	-674
パウ	-675
常に	-676
パウロ	-677
与える	-678
はや	-679
投げ	-680
愛する	-681
してはならない	-682
と思	-683
のよう	-684
わたしはあなたの	-685
ルダ	-686
必ず	-687
ろうか	-688
あわれ	-689
ベア	-690
次の	-691
犠牲	-692
持って	-693
の方	-694
撃ち	-695
者も	-696
いつく	-697
あら	-698
満ち	-699
えられた	-700
ことがない	-701
ことに	-702
になって	-703
そむ	-704
悪い	-705
とどま	-706
あかし	-707
アシ	-708
国々	-709
導き	-710
集ま	-711
おお	-712
に至	-713
の長	-714
を知	-715
攻め	-716
してください	-717
の一	-718
会衆	-719
あった	-720
それに	-721
りは	-722
呼び	-723
小羊	-724
水を	-725
ようか	-726
サウル	-727
モアブ	-728
生きて	-729
あるいは	-730
あの	-731
らず	-732
死ぬ	-733
安息	-734
を建て	-735
イエスを	-736
再び	-737
周囲	-738
救い	-739
ずから	-740
とって	-741
テロ	-742
彼女は	-743
すぐ	-744
のうちから	-745
のろ	-746
ベテ	-747
地は	-748
させた	-749
携えて	-750
近づ	-751
をする	-752
ダビデの	-753
をか	-754
ヨルダ	-755
なし	-756
戒め	-757
父の	-758
からです	-759
名は	-760
群れ	-761
いない	-762
させる	-763
与えた	-764
カル	-765
わなければならない	-766
」。	-767
カナ	-768
目に	-769
びとを	-770
もない	-771
いつくしみ	-772
のすべての	-773
タン	-774
感謝	-775
手から	-776
いや	-777
など	-778
れている	-779
群衆	-780
金の	-781
わせて	-782
ありません	-783
命じられた	-784
エルサレムに	-785
ヨハ	-786
かれ	-787
つく	-788
をし	-789
神よ	-790
わった	-791
まさ	-792
ザル	-793
ミヤ	-794
来て	-795
油を	-796
ニヤミ	-797
下って	-798
恐れる	-799
▁』」。	-800
これらは	-801
エフライ	-802
らなければならない	-803
わず	-804
宿営	-805
らせた	-806
すで	-807
互に	-808
出し	-809
言い	-810
ユダの王	-811
ヨナ	-812
神々	-813
かれる	-814
ついに	-815
を見て	-816
の子らは	-817
ベニヤミ	-818
主である	-819
あげ	-820
異邦	-821
主の言葉	-822
はず	-823
できない	-824
にあって	-825
いま	-826
命を	-827
聖所	-828
自身	-829
血を	-830
高き	-831
おきて	-832
がその	-833
ペテロ	-834
与えて	-835
ではなく	-836
捕え	-837
聞く	-838
になる	-839
求める	-840
あなたと	-841
きなさい	-842
ないように	-843
マナ	-844
中に	-845
求め	-846
滅ぼす	-847
しろ	-848
の下	-849
者と	-850
を行う	-851
ることを	-852
逃げ	-853
みが	-854
人々に	-855
語り	-856
答えた	-857
しめ	-858
レク	-859
王に	-860
に住む	-861
ほめた	-862
みを	-863
ここに	-864
すでに	-865
とこしえに	-866
バビロンの	-867
おう	-868
イエスが	-869
エルサレムの	-870
わた	-871
目を	-872
していた	-873
ほめたた	-874
長老	-875
みずから	-876
言いなさい	-877
じて	-878
切り	-879
時は	-880
してお	-881
せて	-882
まま	-883
エレ	-884
天幕	-885
しるし	-886
られます	-887
祭の	-888
どんな	-889
二つの	-890
りなさい	-891
イスラエルの人々は	-892
とめ	-893
サイ	-894
不義	-895
離れ	-896
であろうか	-897
すみ	-898
モンの	-899
されている	-900
アッ	-901
カイ	-902
仕え	-903
真実	-904
雄羊	-905
を見た	-906
から出て	-907
ほど	-908
怒り	-909
たちと	-910
臨んだ	-911
▁	-912
¦	-913
の	-914
、	-915
た	-916
に	-917
は	-918
な	-919
を	-920
し	-921
。	-922
て	-923
い	-924
と	-925
る	-926
あ	-927
れ	-928
ら	-929
が	-930
わ	-931
で	-932
っ	-933
か	-934
そ	-935
こ	-936
う	-937
も	-938
ま	-939
す	-940
よ	-941
さ	-942
き	-943
り	-944
彼	-945
ち	-946
く	-947
え	-948
言	-949
エ	-950
め	-951
人	-952
ル	-953
主	-954
者	-955
お	-956
だ	-957
つ	-958
ろ	-959
け	-960
イ	-961
ス	-962
ア	-963
せ	-964
び	-965
み	-966
「	-967
」	-968
ラ	-969
べ	-970
ば	-971
子	-972
ン	-973
神	-974
ん	-975
ヤ	-976
行	-977
シ	-978
ム	-979
リ	-980
ど	-981
々	-982
ダ	-983
王	-984
見	-985
地	-986
む	-987
げ	-988
サ	-989
レ	-990
ロ	-991
ビ	-992
出	-993
デ	-994
ず	-995
民	-996
ブ	-997
じ	-998
テ	-999
一	-1000
祭	-1001
分	-1002
や	-1003
日	-1004
上	-1005
時	-1006
ト	-1007
自	-1008
物	-1009
モ	-1010
知	-1011
家	-1012
所	-1013
手	-1014
ヨ	-1015
セ	-1016
前	-1017
事	-1018
ひ	-1019
マ	-1020
ハ	-1021
立	-1022
バ	-1023
十	-1024
国	-1025
パ	-1026
女	-1027
ナ	-1028
聞	-1029
キ	-1030
ご	-1031
ほ	-1032
心	-1033
ベ	-1034
大	-1035
中	-1036
取	-1037
ゆ	-1038
生	-1039
食	-1040
二	-1041
葉	-1042
ぎ	-1043
町	-1044
ょ	-1045
ユ	-1046
『	-1047
』	-1048
カ	-1049
悪	-1050
命	-1051
父	-1052
ぶ	-1053
死	-1054
名	-1055
弟	-1056
罪	-1057
与	-1058
ウ	-1059
下	-1060
共	-1061
ジ	-1062
聖	-1063
来	-1064
タ	-1065
へ	-1066
長	-1067
目	-1068
ふ	-1069
ク	-1070
間	-1071
ぼ	-1072
司	-1073
族	-1074
ざ	-1075
殺	-1076
身	-1077
ね	-1078
全	-1079
滅	-1080
天	-1081
プ	-1082
オ	-1083
ミ	-1084
ー	-1085
三	-1086
会	-1087
住	-1088
兄	-1089
コ	-1090
思	-1091
帰	-1092
フ	-1093
ペ	-1094
ネ	-1095
入	-1096
信	-1097
道	-1098
恐	-1099
ザ	-1100
従	-1101
ャ	-1102
語	-1103
受	-1104
宮	-1105
孫	-1106
メ	-1107
年	-1108
水	-1109
ュ	-1110
多	-1111
救	-1112
今	-1113
呼	-1114
ニ	-1115
羊	-1116
ゼ	-1117
先	-1118
喜	-1119
造	-1120
ケ	-1121
高	-1122
口	-1123
恵	-1124
去	-1125
万	-1126
山	-1127
七	-1128
四	-1129
得	-1130
ド	-1131
正	-1132
預	-1133
守	-1134
愛	-1135
答	-1136
頭	-1137
使	-1138
義	-1139
霊	-1140
力	-1141
戦	-1142
起	-1143
書	-1144
荒	-1145
ぐ	-1146
何	-1147
声	-1148
方	-1149
向	-1150
告	-1151
金	-1152
実	-1153
部	-1154
五	-1155
持	-1156
光	-1157
軍	-1158
火	-1159
ヒ	-1160
同	-1161
世	-1162
後	-1163
百	-1164
野	-1165
ッ	-1166
集	-1167
幕	-1168
・	-1169
木	-1170
ヘ	-1171
御	-1172
ホ	-1173
仰	-1174
仕	-1175
定	-1176
怒	-1177
教	-1178
着	-1179
求	-1180
供	-1181
娘	-1182
ソ	-1183
不	-1184
妻	-1185
足	-1186
法	-1187
栄	-1188
対	-1189
安	-1190
石	-1191
数	-1192
残	-1193
汚	-1194
ガ	-1195
づ	-1196
皆	-1197
約	-1198
追	-1199
牛	-1200
雄	-1201
門	-1202
引	-1203
打	-1204
敵	-1205
歩	-1206
祖	-1207
離	-1208
ギ	-1209
衆	-1210
海	-1211
福	-1212
血	-1213
渡	-1214
ぜ	-1215
小	-1216
壇	-1217
捨	-1218
連	-1219
他	-1220
近	-1221
ぬ	-1222
良	-1223
合	-1224
置	-1225
撃	-1226
産	-1227
ぞ	-1228
場	-1229
捕	-1230
満	-1231
屋	-1232
臨	-1233
千	-1234
律	-1235
苦	-1236
代	-1237
群	-1238
飲	-1239
第	-1240
犯	-1241
肉	-1242
男	-1243
緒	-1244
建	-1245
寄	-1246
誓	-1247
夜	-1248
強	-1249
香	-1250
望	-1251
次	-1252
銀	-1253
助	-1254
焼	-1255
倒	-1256
願	-1257
遠	-1258
顔	-1259
平	-1260
座	-1261
月	-1262
油	-1263
切	-1264
真	-1265
祈	-1266
ズ	-1267
若	-1268
酒	-1269
六	-1270
導	-1271
ノ	-1272
器	-1273
攻	-1274
祝	-1275
母	-1276
憎	-1277
契	-1278
囲	-1279
流	-1280
示	-1281
進	-1282
息	-1283
氏	-1284
偽	-1285
終	-1286
結	-1287
ピ	-1288
注	-1289
報	-1290
川	-1291
内	-1292
外	-1293
像	-1294
君	-1295
悩	-1296
老	-1297
獣	-1298
宿	-1299
燔	-1300
断	-1301
叫	-1302
耳	-1303
病	-1304
至	-1305
畑	-1306
過	-1307
重	-1308
ゲ	-1309
伏	-1310
常	-1311
清	-1312
治	-1313
携	-1314
気	-1315
選	-1316
歌	-1317
必	-1318
明	-1319
衣	-1320
伝	-1321
拝	-1322
種	-1323
異	-1324
ボ	-1325
服	-1326
放	-1327
尋	-1328
災	-1329
箱	-1330
青	-1331
当	-1332
業	-1333
落	-1334
営	-1335
戒	-1336
破	-1337
初	-1338
賜	-1339
送	-1340
絶	-1341
悲	-1342
及	-1343
投	-1344
牧	-1345
柱	-1346
通	-1347
開	-1348
嗣	-1349
現	-1350
礼	-1351
隠	-1352
負	-1353
感	-1354
用	-1355
歳	-1356
互	-1357
悟	-1358
愚	-1359
逃	-1360
楽	-1361
意	-1362
争	-1363
作	-1364
永	-1365
恥	-1366
返	-1367
理	-1368
―	-1369
働	-1370
別	-1371
風	-1372
土	-1373
勇	-1374
体	-1375
夫	-1376
車	-1377
牲	-1378
犠	-1379
ツ	-1380
解	-1381
再	-1382
右	-1383
徒	-1384
話	-1385
以	-1386
度	-1387
東	-1388
奪	-1389
待	-1390
馬	-1391
朝	-1392
罰	-1393
備	-1394
証	-1395
音	-1396
グ	-1397
堅	-1398
周	-1399
最	-1400
激	-1401
貧	-1402
富	-1403
士	-1404
加	-1405
壁	-1406
深	-1407
頼	-1408
麦	-1409
八	-1410
謝	-1411
害	-1412
泣	-1413
無	-1414
獲	-1415
諸	-1416
谷	-1417
勢	-1418
城	-1419
宣	-1420
新	-1421
動	-1422
工	-1423
束	-1424
邦	-1425
成	-1426
兵	-1427
庭	-1428
ポ	-1429
利	-1430
穴	-1431
乗	-1432
台	-1433
伸	-1434
砕	-1435
北	-1436
糸	-1437
雲	-1438
権	-1439
除	-1440
属	-1441
寝	-1442
布	-1443
淫	-1444
魂	-1445
境	-1446
暗	-1447
乳	-1448
親	-1449
少	-1450
広	-1451
戸	-1452
洗	-1453
非	-1454
側	-1455
嘆	-1456
畜	-1457
和	-1458
務	-1459
勝	-1460
吹	-1461
払	-1462
空	-1463
変	-1464
夕	-1465
殿	-1466
移	-1467
隷	-1468
岩	-1469
様	-1470
奴	-1471
銅	-1472
裂	-1473
僕	-1474
官	-1475
決	-1476
留	-1477
偶	-1478
割	-1479
皮	-1480
買	-1481
ヅ	-1482
墓	-1483
宝	-1484
散	-1485
有	-1486
誇	-1487
燃	-1488
葬	-1489
議	-1490
召	-1491
驚	-1492
売	-1493
計	-1494
設	-1495
半	-1496
