<pad>	0
</s>	0
<unk>	0
▁t	-0
he	-1
▁a	-2
in	-3
▁the	-4
▁o	-5
re	-6
er	-7
▁s	-8
nd	-9
▁w	-10
at	-11
on	-12
is	-13
en	-14
▁of	-15
it	-16
▁c	-17
▁b	-18
or	-19
es	-20
▁f	-21
ed	-22
ou	-23
▁p	-24
an	-25
al	-26
ar	-27
▁in	-28
▁and	-29
ing	-30
▁to	-31
▁m	-32
▁d	-33
ion	-34
▁h	-35
as	-36
ic	-37
le	-38
om	-39
▁th	-40
ent	-41
ll	-42
▁n	-43
▁A	-44
▁T	-45
▁be	-46
ve	-47
▁e	-48
▁I	-49
ct	-50
▁re	-51
▁is	-52
▁S	-53
ro	-54
▁l	-55
st	-56
▁y	-57
ot	-58
▁g	-59
ut	-60
id	-61
se	-62
▁for	-63
ation	-64
ur	-65
im	-66
▁wh	-67
ce	-68
ay	-69
ly	-70
ad	-71
▁you	-72
ver	-73
▁u	-74
ow	-75
▁The	-76
am	-77
▁on	-78
▁C	-79
▁P	-80
▁M	-81
et	-82
▁H	-83
ir	-84
il	-85
▁-	-86
ig	-87
▁that	-88
ch	-89
▁he	-90
ment	-91
▁B	-92
ith	-93
ol	-94
▁it	-95
▁as	-96
▁(	-97
ra	-98
ill	-99
▁an	-100
▁or	-101
od	-102
▁not	-103
if	-104
▁W	-105
▁st	-106
ess	-107
ul	-108
▁with	-109
ter	-110
▁are	-111
ri	-112
ge	-113
▁de	-114
▁ha	-115
her	-116
▁pro	-117
▁G	-118
▁D	-119
▁con	-120
ate	-121
▁su	-122
▁we	-123
ld	-124
▁R	-125
▁se	-126
rom	-127
ab	-128
res	-129
op	-130
ers	-131
▁'	-132
th	-133
ak	-134
nt	-135
▁L	-136
▁com	-137
▁by	-138
ist	-139
▁sh	-140
▁1	-141
pe	-142
ain	-143
ht	-144
▁N	-145
▁was	-146
▁have	-147
▁they	-148
▁from	-149
▁ex	-150
iv	-151
▁them	-152
▁will	-153
est	-154
all	-155
ity	-156
us	-157
em	-158
and	-159
▁O	-160
▁who	-161
ah	-162
▁v	-163
▁E	-164
▁F	-165
▁this	-166
ore	-167
ich	-168
ive	-169
ie	-170
ant	-171
ac	-172
um	-173
▁k	-174
▁Ind	-175
qu	-176
▁has	-177
ction	-178
▁r	-179
pp	-180
▁He	-181
ies	-182
▁at	-183
art	-184
ure	-185
os	-186
▁which	-187
un	-188
ia	-189
ould	-190
ort	-191
▁All	-192
▁their	-193
el	-194
ard	-195
oc	-196
▁ne	-197
ight	-198
red	-199
our	-200
▁his	-201
ord	-202
▁al	-203
ind	-204
pt	-205
ous	-206
▁all	-207
ose	-208
▁le	-209
ust	-210
▁ch	-211
te	-212
ther	-213
▁2	-214
▁do	-215
▁In	-216
▁whe	-217
▁K	-218
ong	-219
ud	-220
ag	-221
age	-222
ial	-223
ome	-224
▁Allah	-225
▁Th	-226
▁tr	-227
▁And	-228
▁We	-229
▁wor	-230
cc	-231
ated	-232
▁U	-233
ance	-234
ount	-235
▁your	-236
▁me	-237
▁sa	-238
▁pl	-239
▁go	-240
ip	-241
ect	-242
▁dis	-243
ans	-244
▁ab	-245
rou	-246
av	-247
ast	-248
ear	-249
▁us	-250
▁India	-251
ide	-252
ost	-253
ry	-254
able	-255
▁can	-256
▁any	-257
ff	-258
▁im	-259
▁there	-260
ame	-261
ok	-262
▁pe	-263
▁but	-264
▁un	-265
nder	-266
now	-267
▁comp	-268
▁ad	-269
▁en	-270
▁man	-271
▁up	-272
ish	-273
▁one	-274
ary	-275
▁him	-276
ap	-277
og	-278
▁j	-279
▁so	-280
ult	-281
▁been	-282
ice	-283
▁"	-284
▁other	-285
▁per	-286
▁J	-287
so	-288
▁V	-289
out	-290
ople	-291
one	-292
▁were	-293
▁res	-294
ical	-295
ru	-296
per	-297
ik	-298
ence	-299
au	-300
ions	-301
gh	-302
▁had	-303
▁It	-304
▁cont	-305
ib	-306
ire	-307
pl	-308
▁those	-309
ress	-310
iz	-311
vel	-312
▁am	-313
▁when	-314
are	-315
▁said	-316
ake	-317
▁ag	-318
ime	-319
ine	-320
ail	-321
▁people	-322
▁know	-323
ations	-324
ign	-325
very	-326
▁shall	-327
ue	-328
orm	-329
ase	-330
▁Y	-331
▁inc	-332
▁under	-333
▁out	-334
ile	-335
ade	-336
▁ind	-337
▁part	-338
ang	-339
vers	-340
ath	-341
ings	-342
▁cl	-343
▁no	-344
ub	-345
ens	-346
▁/	-347
▁int	-348
rit	-349
▁its	-350
▁what	-351
▁bel	-352
ace	-353
▁ar	-354
▁God	-355
ach	-356
▁also	-357
ep	-358
▁if	-359
▁co	-360
▁our	-361
ian	-362
ass	-363
▁Ch	-364
act	-365
▁ev	-366
▁19	-367
ber	-368
▁St	-369
▁comm	-370
ious	-371
▁may	-372
ren	-373
▁te	-374
lic	-375
reat	-376
▁Lord	-377
ise	-378
00	-379
▁app	-380
du	-381
ual	-382
vern	-383
▁acc	-384
▁imp	-385
▁sc	-386
fore	-387
ook	-388
ree	-389
erv	-390
fter	-391
▁This	-392
ition	-393
ory	-394
ident	-395
ack	-396
fe	-397
▁year	-398
▁sp	-399
old	-400
urn	-401
▁would	-402
▁sub	-403
▁spe	-404
▁Sh	-405
▁	-406
e	-407
t	-408
a	-409
o	-410
i	-411
n	-412
r	-413
s	-414
h	-415
l	-416
d	-417
c	-418
u	-419
m	-420
f	-421
p	-422
g	-423
y	-424
w	-425
b	-426
v	-427
.	-428
,	-429
k	-430
A	-431
T	-432
I	-433
S	-434
C	-435
-	-436
M	-437
P	-438
H	-439
x	-440
B	-441
R	-442
D	-443
1	-444
E	-445
W	-446
)	-447
(	-448
N	-449
'	-450
G	-451
0	-452
O	-453
j	-454
L	-455
:	-456
F	-457
2	-458
q	-459
;	-460
"	-461
U	-462
K	-463
z	-464
9	-465
V	-466
?	-467
5	-468
3	-469
%	-470
/	-471
Y	-472
J	-473
4	-474
8	-475
6	-476
7	-477
!	-478
”	-479
“	-480
_	-481
’	-482
[	-483
]	-484
&	-485
Q	-486
>	-487
<	-488
‘	-489
—	-490
–	-491
{	-492
}	-493
Z	-494
X	-495
*	-496
