<pad>	0
</s>	0
<unk>	0
▁t	-0
he	-1
▁a	-2
in	-3
▁the	-4
▁o	-5
re	-6
er	-7
▁s	-8
nd	-9
▁w	-10
on	-11
at	-12
is	-13
en	-14
▁of	-15
it	-16
▁c	-17
▁b	-18
or	-19
es	-20
▁f	-21
ed	-22
▁p	-23
ou	-24
an	-25
al	-26
ar	-27
▁in	-28
▁and	-29
ing	-30
▁to	-31
▁m	-32
▁d	-33
ion	-34
▁h	-35
ic	-36
as	-37
le	-38
▁th	-39
om	-40
ent	-41
ll	-42
▁T	-43
▁n	-44
▁A	-45
▁be	-46
▁e	-47
ve	-48
▁I	-49
▁is	-50
▁re	-51
ct	-52
▁S	-53
▁l	-54
ro	-55
st	-56
▁y	-57
ut	-58
▁g	-59
id	-60
ot	-61
se	-62
ur	-63
▁for	-64
ation	-65
▁wh	-66
im	-67
ce	-68
ay	-69
ly	-70
▁you	-71
ver	-72
▁u	-73
ad	-74
▁The	-75
ow	-76
▁on	-77
am	-78
▁C	-79
▁P	-80
il	-81
et	-82
▁-	-83
▁M	-84
ir	-85
▁H	-86
▁that	-87
ig	-88
ch	-89
ment	-90
▁he	-91
▁as	-92
ith	-93
ra	-94
▁B	-95
ol	-96
▁(	-97
▁it	-98
ill	-99
▁an	-100
▁or	-101
▁W	-102
if	-103
▁with	-104
ul	-105
od	-106
▁not	-107
ess	-108
▁are	-109
ter	-110
ri	-111
ge	-112
▁st	-113
▁de	-114
▁ha	-115
her	-116
▁G	-117
▁D	-118
▁we	-119
▁pro	-120
▁se	-121
▁R	-122
▁con	-123
ld	-124
res	-125
ate	-126
rom	-127
▁su	-128
ab	-129
op	-130
ers	-131
▁'	-132
nt	-133
▁L	-134
ak	-135
▁by	-136
▁com	-137
ist	-138
ain	-139
th	-140
▁sh	-141
pe	-142
▁1	-143
▁N	-144
▁ex	-145
est	-146
▁have	-147
iv	-148
▁was	-149
ity	-150
▁from	-151
ht	-152
▁them	-153
▁will	-154
▁O	-155
us	-156
all	-157
and	-158
ie	-159
▁who	-160
▁this	-161
▁they	-162
em	-163
ich	-164
▁v	-165
ac	-166
▁F	-167
▁E	-168
ant	-169
ive	-170
um	-171
ah	-172
os	-173
qu	-174
▁r	-175
ore	-176
▁which	-177
▁He	-178
▁Ind	-179
▁at	-180
▁has	-181
▁k	-182
ies	-183
pp	-184
red	-185
el	-186
ction	-187
art	-188
ort	-189
our	-190
ard	-191
▁ne	-192
▁their	-193
un	-194
▁al	-195
▁his	-196
ia	-197
ould	-198
▁All	-199
ure	-200
▁all	-201
▁2	-202
ord	-203
oc	-204
▁K	-205
pt	-206
▁le	-207
ind	-208
ong	-209
ight	-210
te	-211
▁ch	-212
▁do	-213
▁whe	-214
ust	-215
ose	-216
ous	-217
ther	-218
▁In	-219
ag	-220
age	-221
ud	-222
ated	-223
▁U	-224
▁your	-225
ial	-226
ome	-227
▁We	-228
▁pl	-229
ount	-230
▁wor	-231
▁Allah	-232
▁Th	-233
▁tr	-234
av	-235
▁me	-236
cc	-237
ip	-238
▁And	-239
▁go	-240
rou	-241
▁dis	-242
ost	-243
ance	-244
ide	-245
ect	-246
▁us	-247
▁sa	-248
ok	-249
▁pe	-250
ear	-251
ff	-252
▁ab	-253
▁man	-254
ry	-255
ans	-256
▁India	-257
▁un	-258
ame	-259
▁but	-260
▁can	-261
▁one	-262
▁comp	-263
ice	-264
able	-265
▁there	-266
▁J	-267
▁so	-268
▁him	-269
▁en	-270
ast	-271
nder	-272
▁up	-273
ary	-274
ish	-275
▁ad	-276
▁been	-277
▁any	-278
ople	-279
so	-280
▁j	-281
▁It	-282
ap	-283
▁were	-284
au	-285
ult	-286
▁im	-287
now	-288
ik	-289
▁per	-290
ub	-291
▁people	-292
one	-293
▁when	-294
gh	-295
▁"	-296
▁other	-297
ib	-298
▁V	-299
og	-300
▁ag	-301
ations	-302
ress	-303
ine	-304
ru	-305
ake	-306
iz	-307
pl	-308
ical	-309
▁out	-310
very	-311
ition	-312
▁said	-313
out	-314
per	-315
▁those	-316
▁cont	-317
▁am	-318
ail	-319
ire	-320
▁res	-321
are	-322
ings	-323
ign	-324
vers	-325
ens	-326
vel	-327
▁ar	-328
▁part	-329
▁inc	-330
▁also	-331
ue	-332
lic	-333
ime	-334
ence	-335
▁had	-336
▁/	-337
▁bel	-338
ade	-339
ath	-340
▁no	-341
ile	-342
▁what	-343
ase	-344
00	-345
ace	-346
ass	-347
orm	-348
ep	-349
ber	-350
▁its	-351
▁know	-352
▁shall	-353
▁under	-354
▁Ch	-355
urn	-356
ang	-357
▁cl	-358
▁int	-359
▁Y	-360
▁comm	-361
act	-362
▁our	-363
▁co	-364
port	-365
▁ev	-366
▁acc	-367
▁ind	-368
ution	-369
ach	-370
ook	-371
▁if	-372
reat	-373
ident	-374
▁Lord	-375
▁19	-376
ren	-377
fe	-378
ian	-379
▁may	-380
▁sp	-381
erv	-382
fore	-383
vern	-384
du	-385
▁bec	-386
▁God	-387
▁app	-388
ise	-389
rit	-390
ack	-391
ual	-392
▁This	-393
▁St	-394
ike	-395
ory	-396
▁te	-397
▁pre	-398
▁spe	-399
▁sc	-400
ious	-401
▁would	-402
ree	-403
ause	-404
▁	-405
e	-406
t	-407
a	-408
o	-409
i	-410
n	-411
s	-412
r	-413
h	-414
l	-415
d	-416
c	-417
u	-418
m	-419
f	-420
p	-421
g	-422
y	-423
w	-424
b	-425
.	-426
v	-427
,	-428
k	-429
A	-430
T	-431
I	-432
S	-433
-	-434
C	-435
P	-436
M	-437
H	-438
x	-439
B	-440
R	-441
1	-442
D	-443
W	-444
0	-445
E	-446
N	-447
'	-448
(	-449
)	-450
G	-451
O	-452
j	-453
L	-454
2	-455
:	-456
F	-457
q	-458
;	-459
U	-460
K	-461
"	-462
9	-463
z	-464
5	-465
3	-466
?	-467
V	-468
/	-469
J	-470
%	-471
4	-472
Y	-473
8	-474
7	-475
6	-476
”	-477
“	-478
!	-479
_	-480
’	-481
]	-482
[	-483
&	-484
<	-485
>	-486
Q	-487
–	-488
‘	-489
Z	-490
{	-491
}	-492
—	-493
X	-494
+	-495
*	-496
