<pad>	0
</s>	0
<unk>	0
、	-2.35429
の	-2.49929
。	-3.0559
は	-3.99417
を	-4.02581
▁	-4.08306
に	-4.26363
と	-4.31353
が	-4.54139
その	-4.8742
も	-5.21647
、「	-5.22242
」。	-5.32144
た	-5.34064
で	-5.37245
か	-5.43268
て	-5.47993
から	-5.49574
い	-5.55484
し	-5.59897
る	-5.60135
また	-5.6363
わたしは	-5.7587
り	-5.78685
である	-5.86784
き	-5.90453
あなたの	-5.95939
よ	-5.97538
な	-6.01942
って	-6.09777
く	-6.16285
わたしの	-6.20831
あなたは	-6.27739
った	-6.28368
した	-6.30666
者	-6.31208
み	-6.32168
言った	-6.32978
彼らは	-6.36098
」	-6.37105
いた	-6.41265
この	-6.43428
ことを	-6.43874
う	-6.44558
して	-6.45392
ない	-6.45642
これを	-6.47087
わたし	-6.48744
お	-6.49625
す	-6.50332
ら	-6.51117
め	-6.52045
人	-6.54276
のために	-6.5642
え	-6.56478
や	-6.59058
をもって	-6.59659
ように	-6.62173
▁また	-6.62414
すべての	-6.65626
あなたがたは	-6.65769
および	-6.65837
彼は	-6.65969
の子	-6.66025
すなわち	-6.68227
によって	-6.68531
なさい	-6.68624
わたしを	-6.70696
主は	-6.71649
からである	-6.71956
王	-6.71974
ある	-6.72303
ま	-6.72377
つ	-6.72659
それを	-6.73497
のように	-6.7707
する	-6.77841
わたしが	-6.78312
▁しかし	-6.7833
者は	-6.78504
あなた	-6.7871
ア	-6.78713
時	-6.78746
ル	-6.80865
▁そこで	-6.81945
主の	-6.83475
であろう	-6.84691
わたしに	-6.85624
れ	-6.88755
▁わたしは	-6.89096
彼ら	-6.89289
、『	-6.90173
そして	-6.90602
あなたがたの	-6.92112
自分の	-6.92667
彼らを	-6.93339
』	-6.94287
こ	-6.94912
られる	-6.94983
▁そして	-6.95335
あなたがた	-6.95602
こと	-6.95641
られた	-6.97501
ず	-6.98261
であった	-6.98849
神	-6.99324
いる	-6.99832
主	-6.99874
いて	-7.00336
日	-7.00454
わが	-7.01712
主が	-7.01793
ている	-7.02006
け	-7.03703
ます	-7.03848
あ	-7.03963
なかった	-7.04092
すべて	-7.04259
なければならない	-7.04342
一	-7.04469
しかし	-7.04551
彼	-7.05638
彼らの	-7.06986
びと	-7.07489
に言った	-7.07808
ン	-7.09748
シ	-7.1011
これは	-7.10361
と共に	-7.10931
ヤ	-7.11095
とき	-7.11564
さ	-7.12336
そ	-7.12975
神の	-7.13791
のである	-7.14209
行って	-7.14669
テ	-7.17428
彼を	-7.18301
には	-7.1959
▁彼らは	-7.20679
あなたが	-7.20776
だ	-7.21239
です	-7.21635
地	-7.2185
の上に	-7.21933
もし	-7.224
ならば	-7.24018
あなたを	-7.24281
▁あなたは	-7.2436
び	-7.24487
▁「	-7.24636
あなたに	-7.25483
「	-7.25495
ば	-7.25556
であって	-7.26129
む	-7.26387
物	-7.26465
まで	-7.2653
▁その	-7.26778
させ	-7.26895
十	-7.28286
・	-7.29668
手	-7.31377
罪	-7.31675
それ	-7.31914
ラ	-7.33109
事	-7.33671
んで	-7.34209
今	-7.34339
主に	-7.34712
なら	-7.34957
ました	-7.35244
んだ	-7.35861
それは	-7.35908
彼らに	-7.36415
みな	-7.3642
るであろう	-7.37304
イ	-7.37404
民	-7.37963
もろもろの	-7.38081
る者	-7.38124
これ	-7.38406
上	-7.38408
ぎ	-7.38538
心	-7.38578
された	-7.39145
▁主は	-7.39558
子	-7.39597
国	-7.40294
祭司	-7.41043
見	-7.41172
行った	-7.41412
きた	-7.41705
言われた	-7.41834
ぶ	-7.42553
デ	-7.43182
こう	-7.43667
ために	-7.43731
女	-7.43785
マ	-7.44105
のうちに	-7.44109
じ	-7.4417
せ	-7.44403
主よ	-7.45186
あなたがたに	-7.45408
ダビデ	-7.45487
▁彼は	-7.46136
火	-7.47144
ので	-7.47529
敵	-7.47641
年	-7.47853
言う	-7.48388
事を	-7.48388
キリスト	-7.48402
地に	-7.4867
レ	-7.48738
見よ	-7.48822
について	-7.48884
たち	-7.48919
町	-7.49407
の中に	-7.498
ナ	-7.49802
そう	-7.5053
として	-7.5123
イエス	-7.51268
人は	-7.51468
下	-7.51702
所	-7.51736
足	-7.51871
大	-7.51914
イスラエルの	-7.52119
される	-7.52308
てください	-7.53726
人々は	-7.54215
エ	-7.55057
らせ	-7.55808
のか	-7.55815
にある	-7.55981
ど	-7.56311
の子孫	-7.56382
ム	-7.56446
彼に	-7.56924
人々	-7.57291
石	-7.57643
力	-7.57653
よう	-7.58192
イスラエル	-7.59236
そこに	-7.59604
彼の	-7.60266
とを	-7.61375
祭壇	-7.61394
行く	-7.61398
父	-7.61823
来る	-7.61971
ため	-7.62239
実	-7.6258
神は	-7.62583
悪	-7.62853
へ	-7.62863
しい	-7.63071
山	-7.63133
ち	-7.64085
ク	-7.6429
道	-7.64659
口	-7.65751
水	-7.67126
ひとり	-7.67236
を見	-7.6727
われわれは	-7.67459
人を	-7.67865
立って	-7.6788
人の	-7.68193
後	-7.68743
ハ	-7.68964
行	-7.69275
られ	-7.70016
べ	-7.70168
きて	-7.70191
わ	-7.70207
エルサレム	-7.7058
あなたがたが	-7.70733
出	-7.70966
大いなる	-7.71129
エル	-7.72578
者が	-7.7334
っている	-7.73372
ところ	-7.73574
リ	-7.73856
物を	-7.74358
彼らが	-7.74386
のです	-7.74857
多くの	-7.74865
天	-7.75937
なる	-7.76548
の家	-7.77244
全	-7.77636
わたしたちは	-7.77959
している	-7.77966
にも	-7.78073
ス	-7.7818
人が	-7.7856
海	-7.78607
▁こうして	-7.78772
てはならない	-7.7895
でしょう	-7.79608
▁あなたがたは	-7.79817
恐れ	-7.7983
に対して	-7.79899
どうして	-7.80107
立ち	-7.808
出て	-7.81184
ブ	-7.81304
の前に	-7.81414
げ	-7.82631
ふ	-7.82922
『	-7.83062
を取り	-7.83518
のですか	-7.84044
バ	-7.84139
部族	-7.84332
なお	-7.8496
喜び	-7.85046
数	-7.85438
世	-7.85457
預言者	-7.85472
ただ	-7.85626
救	-7.8567
よりも	-7.85729
王の	-7.86109
ん	-7.86241
律法	-7.86387
イスラエルの人々	-7.8672
兄弟	-7.86931
死	-7.87
夜	-7.87003
彼が	-7.87271
▁さて	-7.87326
目	-7.87333
ヤコブ	-7.87722
▁それゆえ	-7.88351
一つ	-7.88491
王は	-7.88673
木	-7.88976
銀	-7.89142
います	-7.89223
ください	-7.8935
あった	-7.89433
にむかって	-7.89464
▁この	-7.89475
がある	-7.89711
羊	-7.90096
る者は	-7.90287
知恵	-7.90425
祭	-7.90436
たので	-7.91109
われわれ	-7.91219
分	-7.9127
命	-7.91493
パン	-7.91738
ことは	-7.92377
となり	-7.92381
イエスは	-7.92683
家	-7.92778
言	-7.92894
▁すなわち	-7.94013
肉	-7.94144
かた	-7.94222
なく	-7.94512
と言った	-7.94619
愛	-7.94747
自分	-7.94982
月	-7.95321
間	-7.95331
者を	-7.95452
あなたがたを	-7.95483
からだ	-7.95499
所に	-7.95619
従	-7.96728
ではないか	-7.97043
良い	-7.97066
れる	-7.97341
ご	-7.97583
行き	-7.97714
思い	-7.98169
会	-7.98695
えて	-7.98846
手を	-7.99369
▁もし	-7.99393
栄光	-7.99422
レビびと	-7.99879
ユダ	-7.99974
ことごとく	-8.00061
金	-8.00469
そうすれば	-8.00486
霊	-8.00896
となる	-8.01064
聖なる	-8.01167
皆	-8.01356
』。	-8.01537
怒り	-8.01619
百	-8.0174
に向かって	-8.01881
サウル	-8.01888
神が	-8.02007
かつ	-8.02039
二	-8.02305
あなたの神	-8.02908
▁すると	-8.02931
ません	-8.02983
わたしたちの	-8.02993
恵み	-8.03651
共に	-8.03942
であり	-8.04339
モーセ	-8.04502
光	-8.0476
おり	-8.05424
器	-8.05738
にしたがって	-8.05885
に言われた	-8.06536
取り	-8.06579
帰	-8.0701
ものである	-8.07101
これらの	-8.07374
ろう	-8.07425
と言う	-8.07683
獣	-8.07746
ひ	-8.08319
ものは	-8.08516
一つの	-8.0854
われわれの	-8.08654
ミ	-8.0885
言葉	-8.09
着	-8.09459
香	-8.09649
わせ	-8.10031
さばき	-8.1013
でも	-8.10241
わたしたち	-8.10325
タ	-8.10332
民は	-8.10602
よく	-8.10686
ね	-8.10821
され	-8.10951
があった	-8.11063
牛	-8.11111
定め	-8.11384
そこで	-8.114
とが	-8.11613
▁その時	-8.11617
生	-8.11721
▁あなたの	-8.1191
神に	-8.11913
方	-8.12328
のもとに	-8.12706
ものを	-8.12711
ベ	-8.12923
母	-8.12973
パ	-8.1332
七	-8.13403
四	-8.1346
主の前に	-8.13505
声	-8.13727
カ	-8.13858
どうぞ	-8.13997
教え	-8.14045
あり	-8.14264
ニ	-8.14398
える	-8.14518
長	-8.14627
人の子	-8.14652
になった	-8.14659
アロン	-8.14764
前	-8.14786
という	-8.14814
死んだ	-8.14887
中	-8.15067
のだ	-8.15094
きょう	-8.15209
ネ	-8.15209
町々	-8.15533
つるぎ	-8.15706
残	-8.15965
男	-8.16472
頭	-8.16618
道を	-8.16684
ト	-8.16827
川	-8.16851
五	-8.16853
わざ	-8.16916
をも	-8.17094
ここに	-8.17106
れた	-8.17238
こうして	-8.17356
だれが	-8.17508
心を	-8.1772
ことが	-8.17965
は言った	-8.18005
があり	-8.1812
ペリシテびと	-8.1817
はならない	-8.18473
名を	-8.18809
これに	-8.18917
めて	-8.1959
なり	-8.19627
もまた	-8.19716
だけ	-8.1999
べき	-8.20102
シャ	-8.20113
信仰	-8.20463
と一緒に	-8.20651
いだ	-8.2067
人に	-8.2078
内	-8.21211
義	-8.21315
あかし	-8.21523
戒め	-8.21613
彼女	-8.21772
ユダヤ人	-8.21946
とし	-8.21995
まだ	-8.22142
とは	-8.22359
かせ	-8.22482
地の	-8.22586
メ	-8.22611
アブラハム	-8.22728
キュビト	-8.22787
者たち	-8.2338
門	-8.23518
知	-8.23988
ていた	-8.24159
悪い	-8.24865
らない	-8.24891
聞き	-8.24913
よい	-8.25054
しもべ	-8.25144
ではなく	-8.25312
妻	-8.25662
▁イエスは	-8.25776
では	-8.25858
だれ	-8.2601
▁これは	-8.26088
重	-8.26403
夫	-8.26403
種	-8.26403
に従って	-8.26639
人々が	-8.26646
となった	-8.2675
ろ	-8.26795
祝福	-8.26832
三	-8.26997
はその	-8.27219
食	-8.2729
多く	-8.27679
パロ	-8.27859
人たち	-8.27913
ほかの	-8.28111
のうちから	-8.28204
の前で	-8.28736
えた	-8.28766
つけ	-8.28792
あげ	-8.28909
をことごとく	-8.29246
しない	-8.29491
六	-8.29497
ホ	-8.29533
しく	-8.29683
血	-8.29717
て言った	-8.29895
れて	-8.30012
聞いて	-8.30121
あるいは	-8.30156
行い	-8.3032
報い	-8.30365
馬	-8.3059
おられる	-8.30599
からです	-8.30662
ダビデは	-8.30697
しるし	-8.31016
るように	-8.31023
ためである	-8.3147
畑	-8.31531
▁見よ	-8.31586
かれ	-8.31638
ロ	-8.31716
せよ	-8.3181
かな	-8.32092
答え	-8.32167
オ	-8.32425
を攻め	-8.32509
死ぬ	-8.32528
の娘	-8.32642
ぐ	-8.32665
おのおの	-8.32724
二十	-8.32731
その子	-8.32762
聖所	-8.32789
ヨ	-8.32882
手に	-8.32967
身を	-8.3302
イスラエルの神	-8.33267
ひとりの	-8.33424
ザ	-8.33462
再び	-8.33485
サ	-8.33682
セ	-8.33906
ぼ	-8.33954
柱	-8.33969
正しい	-8.34246
しなさい	-8.34336
心に	-8.34417
イスラエルの王	-8.34506
信じ	-8.34581
身	-8.34612
不	-8.34633
取	-8.34961
ついに	-8.34992
引き	-8.35226
になって	-8.35883
なぜ	-8.35962
とする	-8.36105
はみな	-8.36192
まず	-8.36409
ヨセフ	-8.36446
風	-8.36965
使	-8.37033
滅び	-8.37054
告げ	-8.37177
地を	-8.37309
必ず	-8.37472
前に	-8.37824
など	-8.37916
嗣業	-8.37925
ウ	-8.37976
エルサレムに	-8.38058
第	-8.38115
のうち	-8.38156
祈	-8.38173
ってはならない	-8.38505
ながら	-8.38524
助け	-8.38857
無	-8.39011
それで	-8.39418
るために	-8.39432
ケ	-8.39529
産	-8.39663
食べ	-8.39978
▁それで	-8.40367
言葉を	-8.40388
にいる	-8.40456
を取って	-8.40644
ダ	-8.409
者である	-8.40932
者に	-8.40961
歌	-8.41314
宮	-8.41316
渡	-8.4137
家に	-8.41499
教	-8.41528
幕屋	-8.41635
主を	-8.41663
▁神は	-8.41803
当	-8.41877
顔を	-8.41892
主人	-8.4213
来て	-8.42379
られて	-8.42688
と言って	-8.42958
娘	-8.43023
ではない	-8.43308
すでに	-8.43328
の子らは	-8.43334
下って	-8.43378
時に	-8.43429
を得	-8.43621
座	-8.43704
ると	-8.43735
▁ところが	-8.43768
工	-8.43774
知らない	-8.43807
』」。	-8.43832
ソロモン	-8.44038
水を	-8.44048
ユダの王	-8.44307
のゆえに	-8.4439
たちは	-8.44611
兄弟たち	-8.44838
富	-8.44863
知らせ	-8.45093
外	-8.45348
庭	-8.45414
神を	-8.45461
意	-8.45954
顔	-8.46245
破	-8.46279
語り	-8.46345
上って	-8.4672
帰って	-8.46815
または	-8.47173
の門	-8.47301
を見て	-8.47436
台	-8.47641
▁わたしが	-8.47796
あなたがたの神	-8.47922
起	-8.47967
万	-8.48162
ようになる	-8.48212
投げ	-8.48547
結	-8.48676
キ	-8.48691
答えて	-8.48858
戦い	-8.49345
雲	-8.49346
燔祭	-8.49388
ユダの	-8.49426
なんの	-8.49462
金の	-8.4975
ほど	-8.49994
日に	-8.50023
かけ	-8.50067
あと	-8.5008
われ	-8.50093
切	-8.5019
ましょう	-8.50195
ること	-8.50405
害	-8.50498
ヘ	-8.50499
他の	-8.50524
を捨て	-8.5069
わず	-8.50703
名	-8.50823
土	-8.50957
ガ	-8.50958
をお	-8.51061
フ	-8.5107
みずから	-8.51085
める	-8.5118
打ち	-8.51296
どうか	-8.51442
書	-8.51447
々	-8.51554
どんな	-8.51665
寝	-8.51665
聞く	-8.51665
者と	-8.51752
望み	-8.51789
代	-8.51877
のところに	-8.51936
ざ	-8.51954
ろば	-8.5196
立て	-8.52057
何	-8.52109
群衆	-8.52253
言い	-8.52268
天幕	-8.52275
してはならない	-8.52375
つく	-8.5251
災	-8.52638
悩み	-8.52845
弟子たち	-8.52854
来	-8.53211
を与え	-8.53287
朝	-8.53369
求め	-8.53373
の子たち	-8.53403
不義	-8.53506
与え	-8.53666
イエスが	-8.53761
語る	-8.53961
彼女は	-8.54003
の間	-8.54006
戸	-8.54039
めた	-8.54051
を受け	-8.54109
ようと	-8.54114
契約	-8.54184
その人	-8.54319
イエスを	-8.54484
ド	-8.54621
真実	-8.54667
▁わたしの	-8.54777
ほ	-8.5507
ゼ	-8.55181
側	-8.55247
っていた	-8.55586
二つの	-8.55625
何を	-8.55646
酒	-8.55682
なし	-8.55831
エジプト	-8.55869
主は言われる	-8.55963
▁それから	-8.55992
主の宮	-8.56105
の上	-8.56269
言いなさい	-8.56417
家畜	-8.56474
国々	-8.56655
の下に	-8.56696
語	-8.56704
知っている	-8.56878
麦	-8.57033
成	-8.5708
群れ	-8.57085
ボ	-8.57087
おきて	-8.57262
目に	-8.5727
悪しき者	-8.57968
子供	-8.58126
いで	-8.58189
箱	-8.58206
の中で	-8.58298
エフライム	-8.58334
岩	-8.58334
先祖たち	-8.58462
パウロ	-8.58545
高	-8.58597
とした	-8.58613
東	-8.58906
すると	-8.59034
もはや	-8.59038
王たち	-8.59305
ほかに	-8.59331
いま	-8.59572
エリ	-8.59795
このように	-8.59797
同	-8.60067
病	-8.60208
兵	-8.60229
のがれ	-8.6023
異邦人	-8.60233
おまえ	-8.60246
小羊	-8.60268
の手から	-8.60818
罪を	-8.6085
ヨハネ	-8.60875
による	-8.61096
つかさたち	-8.61238
民を	-8.61354
れば	-8.6138
ベニヤミン	-8.61392
わか	-8.6155
とその	-8.61578
すべての民	-8.61741
を行う	-8.61753
してください	-8.62155
恥	-8.62389
あって	-8.62937
住む	-8.63092
させた	-8.63172
ることを	-8.63273
神々	-8.63352
▁ダビデは	-8.63368
八	-8.63409
小	-8.63442
墓	-8.6348
大きな	-8.63482
追い	-8.63623
過	-8.63982
北	-8.64038
その人は	-8.64075
備え	-8.64114
偶像	-8.64142
かれた	-8.64285
油	-8.64338
守	-8.64449
コ	-8.64718
それに	-8.64738
の中	-8.64805
あわれみ	-8.64809
イサク	-8.64809
の言葉	-8.64903
の名は	-8.65156
とこしえに	-8.6548
軍勢	-8.65484
子を	-8.65573
願い	-8.657
救い	-8.65912
地は	-8.65995
売	-8.66156
勇士	-8.66157
天に	-8.66216
いない	-8.6657
させる	-8.66617
るでしょう	-8.66749
落ち	-8.66872
ふたり	-8.66927
長老たち	-8.6696
は皆	-8.6697
族	-8.66981
入れ	-8.67054
自	-8.67078
千	-8.67115
荒野	-8.67248
糸	-8.67511
ギレアデ	-8.67521
そこ	-8.67603
セラ	-8.67614
バアル	-8.67622
生き	-8.6772
を聞いた	-8.68181
を集め	-8.6821
罰	-8.68296
ても	-8.68542
人々に	-8.68578
において	-8.68868
見た	-8.68973
造	-8.69221
だれか	-8.69233
者も	-8.6926
つかさ	-8.69356
ない者	-8.6938
命じた	-8.69598
囲	-8.69605
になる	-8.69642
のような	-8.69727
の妻	-8.70212
この地	-8.70245
官	-8.70308
ジ	-8.70309
エドム	-8.70309
さない	-8.7037
除	-8.70952
苦	-8.70973
穴	-8.71018
時は	-8.71035
けて	-8.7111
のため	-8.71633
わたしたちが	-8.71638
親	-8.71714
角	-8.71733
それゆえ	-8.71814
彼らに言った	-8.71883
取った	-8.7195
▁モーセは	-8.71999
んでいる	-8.72194
する者	-8.72301
と言い	-8.72333
であろうか	-8.72365
だれも	-8.72432
城壁	-8.72454
と言われた	-8.72459
だからである	-8.72507
かった	-8.72536
がない	-8.72649
奪	-8.72973
生れた	-8.73025
歳	-8.73082
出す	-8.73106
きなさい	-8.7327
場所	-8.73482
野	-8.73541
国民	-8.73702
その上に	-8.73715
万軍の主	-8.73725
あなたと	-8.73881
諸	-8.73888
相	-8.73907
十二	-8.73918
となって	-8.73919
サマリヤ	-8.73923
逃げ	-8.73986
ないように	-8.74038
すぐ	-8.74061
全地	-8.74117
彼に言った	-8.74181
食物	-8.74203
耳	-8.74359
じて	-8.74418
合	-8.74479
仕え	-8.74528
枝	-8.74641
傷	-8.74641
皮	-8.74641
叫び	-8.74641
雄羊	-8.74647
のうちで	-8.74732
を見た	-8.74869
がよい	-8.74871
ような	-8.74926
伝え	-8.75077
ああ	-8.75121
ったので	-8.75223
断	-8.75346
理	-8.75371
このような	-8.75376
労	-8.75382
ことはない	-8.75456
尋ね	-8.75641
その時	-8.75872
解	-8.76116
南	-8.76128
苦しみ	-8.76129
訴え	-8.76297
らなければならない	-8.76311
死に	-8.76404
受け	-8.76564
わたしはあなたの	-8.76616
指	-8.7688
知識	-8.7688
骨	-8.7688
を守る	-8.76978
もなく	-8.77427
ッ	-8.77636
マナセ	-8.77638
イスラエルの家	-8.77645
ヨナタン	-8.77649
大いに	-8.77663
来た	-8.77789
まった	-8.77839
ものと	-8.77882
うちに	-8.77897
▁それは	-8.77952
を得る	-8.7805
につけ	-8.7833
妹	-8.78401
女は	-8.78548
宿営	-8.78554
強い	-8.78705
いのち	-8.78706
をする	-8.7887
われわれの神	-8.78939
油を	-8.78942
されて	-8.78951
を愛し	-8.78992
連れて	-8.79023
流れ	-8.79097
首	-8.7917
なければ	-8.79171
非常に	-8.79172
ゆえ	-8.79269
ごとに	-8.79298
▁時に	-8.79418
モーセは	-8.79528
獲	-8.79539
自分たち	-8.79678
に仕え	-8.79733
契約を	-8.79759
の子ら	-8.79834
ペ	-8.79834
ゲ	-8.79834
グ	-8.79945
戦車	-8.79955
命を	-8.80057
していた	-8.80085
終り	-8.80168
しよう	-8.80363
▁あなたが	-8.80411
歩	-8.80511
ることがない	-8.80518
もう	-8.80531
っ	-8.81205
出して	-8.81312
より	-8.81363
思	-8.81376
の中から	-8.81383
会衆	-8.81476
初め	-8.81507
移	-8.81513
栄え	-8.81531
エジプトびと	-8.81627
堅く	-8.81647
はずかしめ	-8.81695
ことができる	-8.82158
毛	-8.82307
位	-8.82308
エリヤ	-8.82433
ことである	-8.82515
持って	-8.82569
だろうか	-8.82679
はいって	-8.82818
▁すべて	-8.8289
出し	-8.82901
言え	-8.82918
弱	-8.83108
役	-8.83108
立つ	-8.83312
しめ	-8.83325
民の	-8.83365
強く	-8.83494
僕	-8.83541
花	-8.83914
しえたげ	-8.83915
ふたりの	-8.84001
若い	-8.8414
明	-8.84262
動	-8.84484
あの	-8.84559
ころ	-8.84596
王が	-8.84688
町の	-8.84702
布	-8.84714
新しい	-8.84754
おおい	-8.84782
どう	-8.84991
その日	-8.85093
変	-8.85097
られない	-8.85139
しし	-8.85266
そうと	-8.85383
配	-8.85547
草	-8.85547
素祭	-8.85578
これらは	-8.85707
た者	-8.85752
示し	-8.85776
ベル	-8.85777
くだ	-8.85977
去って	-8.85985
くる	-8.86008
取って	-8.86032
つか	-8.86056
道に	-8.86154
神よ	-8.86192
につ	-8.86298
いつくしみ	-8.86316
陰	-8.86373
でしょうか	-8.86464
近	-8.86645
わが民	-8.86777
汚れ	-8.87071
にお	-8.87077
モ	-8.87123
シオン	-8.87149
戦	-8.87154
善	-8.872
舌	-8.87207
答えた	-8.87278
あがない	-8.87319
離れ	-8.87345
滅ぼし	-8.8735
まり	-8.87399
つえ	-8.87562
またその	-8.87941
のうちの	-8.88024
シケル	-8.88047
その中に	-8.88061
ぶどう酒	-8.88069
ダン	-8.88082
三十	-8.88091
何も	-8.88136
があって	-8.88208
わたしはあなた	-8.88223
ることはない	-8.88314
殺	-8.8847
かつて	-8.88604
正しい者	-8.88697
すべての人	-8.88743
得	-8.88833
わし	-8.88851
字	-8.88893
雄牛	-8.8891
天から	-8.89135
気	-8.89147
わたしたちに	-8.89168
天の	-8.89173
悪を	-8.89214
を離れ	-8.89295
声を	-8.89399
荒れ	-8.89616
とおりに	-8.89617
もろもろの民	-8.89632
その家	-8.89644
果	-8.89716
命じられた	-8.89731
夕	-8.89747
アブサロム	-8.89749
両	-8.89749
所有	-8.89801
憤り	-8.8982
食べる	-8.89877
王に	-8.9009
わない	-8.9027
ないでください	-8.90349
イエスの	-8.904
服	-8.90482
悲しみ	-8.90499
同じ	-8.90503
乳	-8.90581
暗	-8.90602
かえって	-8.90622
進み	-8.90707
望	-8.90743
さえ	-8.90874
ける	-8.90893
国の	-8.90967
分け	-8.91026
の長	-8.91104
供え物	-8.91117
ことも	-8.91153
ペテロ	-8.91225
全く	-8.91266
バビロン	-8.91384
アル	-8.91402
るならば	-8.9144
ぶどう	-8.91481
眠	-8.91481
むすこ	-8.91761
たが	-8.91792
バル	-8.91806
る時	-8.91845
の間に	-8.91876
これが	-8.91988
高く	-8.92129
軍	-8.92326
その民	-8.92417
それが	-8.92446
せず	-8.92453
者ども	-8.92455
の氏族	-8.92538
の子である	-8.92743
これら	-8.92821
返	-8.92868
身に	-8.92875
の木	-8.9289
ことができない	-8.92988
張	-8.93044
立	-8.9311
もない	-8.93144
次	-8.93197
ヒゼキヤ	-8.93209
らず	-8.93212
別	-8.9323
息	-8.93233
様	-8.93242
自分を	-8.93312
やり	-8.9333
愛する者	-8.93371
イスラエルの人々は	-8.93439
合わせて	-8.93519
目を	-8.93597
にはいって	-8.93609
わたしと	-8.93705
住	-8.9371
通	-8.9372
らなかった	-8.93839
帰り	-8.93961
▁だから	-8.93993
エレミヤ	-8.94097
ばかり	-8.94143
数え	-8.9416
自身	-8.94165
加え	-8.94213
そのすべての	-8.94374
山に	-8.94465
の父	-8.94746
あります	-8.94826
ビ	-8.94867
かない	-8.94876
すべき	-8.9492
のを見て	-8.94924
宝	-8.94985
落	-8.94988
利	-8.95029
宿	-8.95034
さらに	-8.95069
死んで	-8.95076
教会	-8.95095
先祖	-8.95188
われわれを	-8.95444
出た	-8.95531
魂	-8.95564
しなかった	-8.95574
われわれに	-8.95655
わたしたちを	-8.95769
先に	-8.95847
もとに	-8.95863
開	-8.95903
を造り	-8.95911
空	-8.95945
送	-8.96033
知り	-8.96078
ヤコブは	-8.96136
エルサレムの	-8.96313
生れ	-8.96477
去り	-8.96485
を打ち	-8.96497
愛する	-8.96707
ひと	-8.9671
は彼	-8.96751
約束	-8.96801
ヨルダン	-8.96848
屋	-8.96853
集まって	-8.96863
主なる神はこう言われる	-8.96869
バビロンの王	-8.96918
絶え	-8.96969
さし	-8.97231
となるであろう	-8.97249
イエスに	-8.97512
汚れた	-8.97615
この世	-8.97781
友	-8.97789
▁王は	-8.9787
により	-8.97876
外に	-8.97897
モアブ	-8.97905
ですか	-8.98099
所へ	-8.98151
ないで	-8.98188
おのおのその	-8.98331
さあ	-8.98347
誇	-8.98357
作	-8.98496
すれば	-8.98609
持ち	-8.98644
怒りを	-8.98646
いなさい	-8.98692
昼	-8.98724
ピ	-8.98724
激しい	-8.98732
イスラエルは	-8.98808
ヨシュア	-8.98843
その地	-8.98888
ひとりも	-8.98967
滅ぼす	-8.98968
の家に	-8.99088
だろう	-8.99174
ども	-8.9918
るべき	-8.99184
広	-8.9922
だから	-8.99245
▁そのとき	-8.99286
を受ける	-8.99324
部	-8.99485
いたので	-8.99509
いたが	-8.99518
に対する	-8.99703
上げ	-8.99817
とおり	-8.99897
覚え	-8.99905
ぬ	-9.00015
の血	-9.00056
四十	-9.00236
帰った	-9.00251
言って	-9.00476
殺し	-9.00487
聖	-9.00502
を持って	-9.00565
雨	-9.0062
のかたわらに	-9.00635
の日に	-9.00777
おのれ	-9.00803
家来たち	-9.00891
ある者	-9.0094
争	-9.01043
わたしのために	-9.01071
場	-9.01085
働き	-9.01145
み名	-9.01298
ばれ	-9.01402
ヨシュアは	-9.01457
かれる	-9.015
たからである	-9.01517
預言者たち	-9.01558
宮の	-9.01738
を設け	-9.01742
後に	-9.0179
キリストの	-9.01865
の人々	-9.01989
貧しい者	-9.02105
造った	-9.02177
強	-9.0222
▁このように	-9.02383
ズ	-9.02551
エサウ	-9.02552
平安	-9.02559
ことに	-9.02757
けた	-9.03091
見る	-9.03148
生きている	-9.03302
は次のとおりである	-9.03349
起き	-9.03447
の手に	-9.03514
永遠の	-9.03533
を追い	-9.03544
に告げ	-9.03555
ヨセフは	-9.03561
われらの	-9.0362
飲み	-9.03648
国に	-9.03754
ることは	-9.03782
て下さる	-9.03943
▁彼らが	-9.03949
ちり	-9.04185
命令	-9.0438
ヨアブ	-9.04439
待	-9.04474
楽	-9.04521
に属する	-9.04522
福音	-9.04527
に臨んだ	-9.04531
サウルは	-9.04598
主の言葉	-9.0465
務	-9.04679
見ると	-9.04837
に命じて	-9.04843
そこから	-9.04848
イスラエルを	-9.05107
話	-9.05116
▁彼が	-9.05166
を建て	-9.05333
ききん	-9.05556
をなし	-9.0561
御霊	-9.0565
ゆえに	-9.05736
この町	-9.05834
あなたの民	-9.05945
主はこう言われる	-9.0596
置き	-9.06036
谷	-9.06194
せて	-9.06231
負	-9.06244
いと	-9.06267
かなければならない	-9.06516
高き所	-9.06536
を見る	-9.06558
ようか	-9.06577
なぜなら	-9.06663
をした	-9.06673
聖霊	-9.06674
その所で	-9.06746
去らせ	-9.06776
保	-9.06902
衣服	-9.06993
行う	-9.06996
切り	-9.07434
罪を犯し	-9.07444
像	-9.07488
一緒に	-9.07515
なった	-9.07545
復	-9.07546
アハブ	-9.07553
異	-9.07553
この民	-9.0766
罪祭	-9.07672
遠く	-9.07727
造られた	-9.07838
▁その日	-9.079
したので	-9.08048
▁わが	-9.08201
洗	-9.08382
ノア	-9.08494
くじ	-9.08643
ることができる	-9.08686
らし	-9.08726
られました	-9.0877
の所に	-9.08809
おく	-9.08924
安息日	-9.08998
ささげ	-9.09031
民に	-9.09055
ませ	-9.0909
所で	-9.09216
づ	-9.09259
におる	-9.09276
と主は言われる	-9.09351
レビ	-9.09351
の名	-9.09369
の住民	-9.09416
放	-9.09452
なす	-9.09554
舟	-9.09607
マリヤ	-9.09633
アビ	-9.09669
るもの	-9.09708
おられた	-9.0975
まことに	-9.09857
つかわした	-9.10117
のではない	-9.10125
くら	-9.10269
隠	-9.10406
前から	-9.10409
われた	-9.10588
から出て	-9.10613
祭司たち	-9.10665
けれども	-9.10678
常に	-9.10687
目は	-9.10708
進んで	-9.10721
入	-9.10909
な者	-9.10953
荒	-9.10974
終	-9.11026
らは	-9.11081
出てきた	-9.11416
モアブの	-9.11609
エジプトの	-9.11627
その子は	-9.1172
ルベン	-9.11742
のほとり	-9.11743
を離れて	-9.11749
を捕え	-9.11889
エジプトの国	-9.11896
の子孫は	-9.11934
ゆる	-9.12062
見え	-9.12397
します	-9.1249
感謝	-9.12495
▁『	-9.12558
悟	-9.12559
滅	-9.12642
語った	-9.12661
何か	-9.12685
去	-9.12747
出る	-9.12768
与えられた	-9.12786
死体	-9.12849
流	-9.12873
深い	-9.12942
先	-9.12956
殺した	-9.12987
王と	-9.13108
地から	-9.1315
災を	-9.13196
用	-9.13308
ささげる	-9.13315
させてください	-9.13396
女たち	-9.13494
君	-9.1354
ないであろう	-9.13558
驚	-9.13629
鳥	-9.13903
計	-9.13904
真理	-9.1392
たちが	-9.13953
イスラエルに	-9.14177
ベテ	-9.14206
のだから	-9.14233
に与え	-9.14305
飲む	-9.14488
ささげなければならない	-9.14504
んじ	-9.14557
の周囲	-9.14595
出した	-9.14628
う者	-9.14691
をとって	-9.14745
三人	-9.14805
会見の幕屋	-9.14968
すること	-9.14983
車	-9.14989
議	-9.15003
耳を傾け	-9.15003
を忘れ	-9.15004
平和	-9.15012
さきに	-9.15138
恐れる	-9.15178
時には	-9.15188
を求め	-9.15193
神の宮	-9.15208
満ち	-9.15257
話し	-9.15345
割礼	-9.15482
人々を	-9.15563
こそ	-9.1573
示	-9.15765
わが神	-9.15802
この事	-9.15848
らい	-9.15924
さなければならない	-9.16007
を立てて	-9.16021
偽り	-9.16077
法	-9.16089
あらゆる	-9.16114
賜わった	-9.16115
正しく	-9.1613
正義	-9.16203
に与える	-9.16267
その兄弟	-9.16284
なかったので	-9.16299
嘆き	-9.16325
決して	-9.16385
信	-9.16553
いつも	-9.16568
子ら	-9.16676
一頭	-9.16841
あなたがたのうちに	-9.17203
ヨシャパテ	-9.17238
とその放牧地	-9.17245
待ち	-9.17288
とをもって	-9.17369
祭司は	-9.17481
自ら	-9.17588
娘たち	-9.1763
にはいった	-9.1766
するであろう	-9.17695
つかわされた	-9.17766
長さ	-9.17865
主である	-9.17926
滅ぼされ	-9.1794
町を	-9.1796
やぎ	-9.18056
見て	-9.18123
を殺し	-9.18237
真	-9.18309
宣べ伝え	-9.18374
急いで	-9.18382
ラム	-9.18583
悟り	-9.18695
御	-9.18699
間に	-9.18707
はじめ	-9.18734
置いた	-9.18735
をし	-9.18771
その血	-9.18874
つるぎを	-9.18889
少し	-9.19041
この事を	-9.19345
犠牲をささげ	-9.19411
言われる	-9.1944
幕	-9.19469
▁彼らの	-9.19688
がなく	-9.19722
そのように	-9.19722
エジプトの地	-9.19748
行きなさい	-9.19749
三つ	-9.19824
これらの事	-9.1991
わざを	-9.20089
愚かな者	-9.20124
君たち	-9.20136
彼らはその	-9.20223
喜んで	-9.20243
父の	-9.20299
その中	-9.20508
のところへ	-9.20591
と同じ	-9.20679
音	-9.2068
ラッパ	-9.20686
あなたのしもべ	-9.20696
わたしはあなたを	-9.20741
をささげ	-9.20817
納め	-9.20941
まし	-9.21102
初	-9.21257
地で	-9.21279
悪人	-9.21304
去る	-9.21348
おこない	-9.21349
去った	-9.21374
わたしも	-9.21738
むしろ	-9.21863
を生んだ	-9.21881
だれでも	-9.2195
キシ	-9.22035
金を	-9.22053
まい	-9.22072
父は	-9.22097
▁彼はまた	-9.2212
取る	-9.22135
地と	-9.22146
られている	-9.22362
事は	-9.22364
まれ	-9.22411
しなければならない	-9.22432
人と	-9.22535
われる	-9.2256
わたしの民	-9.22656
に満ち	-9.22685
拝	-9.22771
彼と共に	-9.22873
者よ	-9.22879
三日	-9.22887
になり	-9.22904
ままに	-9.22922
平	-9.23031
ひれ伏し	-9.23053
ならびに	-9.2306
主なる神は言われる	-9.23062
場合	-9.23073
ことがない	-9.231
隠れ	-9.23224
であることを	-9.23465
なって	-9.23482
を治め	-9.23679
に与えた	-9.23774
かすめ	-9.23825
もろもろの国民	-9.23842
にはいる	-9.23959
遠	-9.24003
口に	-9.24054
こさせ	-9.24086
の方	-9.24202
ささげた	-9.24245
ようとした	-9.24257
ともに	-9.24257
偽りを	-9.24359
捨てられ	-9.24494
尊い	-9.24538
の言葉を	-9.24591
願	-9.24681
捕え	-9.24788
送り	-9.24828
あなたがたも	-9.24869
を守り	-9.24894
わけ	-9.24916
主はこう仰せられる	-9.24933
をかけ	-9.24986
にあって	-9.25022
心の	-9.25048
の入口	-9.25202
うち	-9.25226
使者	-9.25252
憎むべき	-9.25391
ダニエル	-9.25477
言葉は	-9.2548
七つの	-9.25625
のろい	-9.2569
に臨む	-9.25718
ようとする	-9.25965
アサ	-9.2597
行かせ	-9.26104
サムエル	-9.26173
長子	-9.2622
降	-9.26403
寄せ	-9.26501
もので	-9.26585
義と	-9.26612
ヨアシ	-9.26712
ヤラベアム	-9.26713
があれば	-9.26745
ぶどう畑	-9.26748
書いてある	-9.26815
のようだ	-9.26835
を助け	-9.26884
すわって	-9.26895
るとき	-9.26906
を呼び	-9.26973
渡し	-9.27024
海の	-9.27139
イム	-9.27148
ことのない	-9.27152
わき	-9.27171
あなたの前に	-9.27203
すべての事	-9.27235
大祭司	-9.27295
おいた	-9.27365
したが	-9.27485
人たちは	-9.27508
飲ませ	-9.27648
安	-9.27701
堅	-9.27751
年に	-9.27794
この人	-9.27834
歩み	-9.27848
人間	-9.27857
わり	-9.27877
それぞれ	-9.27962
カルデヤびと	-9.27962
ヘブロン	-9.27963
激しく	-9.27969
町に	-9.27982
を造った	-9.27998
シモン	-9.28031
食物を	-9.28066
ロン	-9.28068
を引き	-9.28076
やみ	-9.28077
女が	-9.28103
としなければならない	-9.28122
を通	-9.28209
弟子たちは	-9.28211
われわれが	-9.28376
その所	-9.28448
の供え物	-9.28617
わたしがあなた	-9.2877
次の	-9.28786
証人	-9.28831
清め	-9.28853
命じ	-9.28854
られます	-9.2888
彼はその	-9.28929
あらわ	-9.29058
に至る	-9.29087
寄	-9.29125
を殺した	-9.29142
頭を	-9.29182
ガリラヤ	-9.29229
サムソン	-9.29229
権威	-9.29233
若者	-9.29234
わた	-9.29312
なのである	-9.29421
ことはできない	-9.29452
に告げて	-9.29591
よみがえ	-9.29681
人であった	-9.29696
なさ	-9.29757
へ行って	-9.29773
るまで	-9.29778
衣	-9.29823
誓い	-9.29831
つかわし	-9.29971
いった	-9.30083
内に	-9.3012
があるか	-9.30142
あなたの父	-9.30144
に住む者	-9.30151
のを見た	-9.30285
リム	-9.30342
食い	-9.30388
おうと	-9.30419
定	-9.30481
青	-9.30491
宣	-9.30511
エヒウ	-9.30511
喜ぶ	-9.30525
を祝福し	-9.30592
を携えて	-9.30602
返し	-9.30622
るためである	-9.3069
わら	-9.30744
あなたのために	-9.30746
まこと	-9.30753
▁あなたがたの	-9.308
されている	-9.30838
を捨てて	-9.31127
青銅の	-9.31247
にして	-9.31327
に行き	-9.315
られるであろう	-9.31527
右	-9.31612
あなたがたのために	-9.31627
問	-9.31646
語って	-9.31682
体	-9.31728
を行い	-9.31739
告	-9.31761
学	-9.31809
を呼んで	-9.31809
近づいて	-9.3181
うしろ	-9.3181
生きながらえ	-9.31811
四つの	-9.31842
引いて	-9.31872
わたしの前に	-9.31922
多い	-9.31979
ありません	-9.32061
わなければならない	-9.32105
▁わたしたちは	-9.32106
の谷	-9.32247
一日	-9.32265
年の間	-9.32353
ものが	-9.32359
子供たち	-9.32535
悪霊	-9.32538
わな	-9.32624
証	-9.3266
牧者	-9.32761
七十	-9.32762
さず	-9.32789
をつかさど	-9.33152
救われる	-9.33182
あるもの	-9.33258
アッスリヤの王	-9.33264
さば	-9.33265
一同	-9.33307
彼女を	-9.33659
サムエルは	-9.33703
あなたはわたしの	-9.3389
こう言われる	-9.33937
恥じ	-9.34005
その他の	-9.34014
エジプトから	-9.34031
ゆるし	-9.34122
立った	-9.34194
ことのないように	-9.34276
荒野に	-9.34295
臨	-9.34305
ようとして	-9.34324
続	-9.34393
と思う	-9.34404
生きる	-9.3443
記	-9.34437
づけ	-9.3446
を与えて	-9.34477
深く	-9.34762
ホル	-9.34776
ダビデに	-9.34816
ることができない	-9.34833
高い	-9.35001
青銅	-9.3504
したら	-9.35161
エルサレムで	-9.35388
どこに	-9.35414
失	-9.35544
たとい	-9.35585
ほしい	-9.3561
から出た	-9.35754
永	-9.3576
命じる	-9.35786
難	-9.35789
陣	-9.35806
頭に	-9.35806
楽しみ	-9.35811
を立て	-9.35903
二百	-9.35935
残りの	-9.35982
結び	-9.35982
を滅ぼし	-9.36018
るがよい	-9.36031
主なる	-9.36394
力を	-9.36448
その女	-9.36469
わたしの父	-9.36529
アナ	-9.36539
みわざ	-9.36542
家族	-9.36566
ほか	-9.36623
書き	-9.36718
にきた	-9.36746
二つ	-9.36779
ひき	-9.36789
とおりである	-9.37004
をして	-9.37007
およびその	-9.37061
対	-9.37076
わざわい	-9.37092
する者は	-9.37128
領	-9.3716
兄	-9.37172
ピラト	-9.37179
隣り人	-9.37182
安らかに	-9.37242
ミカ	-9.37259
好	-9.3729
ませんでした	-9.37293
ベテル	-9.37347
をうけ	-9.37419
捕	-9.37448
若	-9.37476
物と	-9.37592
働	-9.37592
離	-9.37687
今日	-9.37754
となえ	-9.37773
水が	-9.37831
民が	-9.37889
ようになった	-9.37904
歩む	-9.3794
ここ	-9.37942
火を	-9.38036
されるであろう	-9.3808
淫	-9.38109
あるように	-9.38119
とも	-9.38129
ついて	-9.3822
ヒ	-9.38445
帰らせ	-9.38447
和	-9.38557
アモリびと	-9.38568
のあいだ	-9.38625
迎え	-9.3863
礼拝	-9.38656
を起し	-9.38753
サラ	-9.38756
て下さった	-9.38772
清い	-9.38773
語られた	-9.38782
行こう	-9.38874
ふさ	-9.38961
て言われた	-9.38972
日は	-9.3908
すえ	-9.39143
その手	-9.39207
聖なる物	-9.39277
てしまった	-9.39313
の境	-9.39518
立てた	-9.39722
度	-9.39828
満	-9.39832
▁どうか	-9.39853
められる	-9.39865
レバノン	-9.39975
シケム	-9.39976
ポ	-9.39977
みこころ	-9.39977
わたしの心	-9.3998
主にささげ	-9.40229
▁主が	-9.40465
らせた	-9.40509
産んだ	-9.40517
現	-9.40578
争い	-9.4075
神の人	-9.40799
自分のために	-9.40833
神の国	-9.40914
さま	-9.40955
造り	-9.40974
わたしの名	-9.40997
連れ	-9.41027
アヒ	-9.41028
ほめ	-9.41212
もろもろの国	-9.41218
打	-9.41251
女の	-9.41339
ゴ	-9.41405
はいけない	-9.41406
重ねて	-9.41407
さんび	-9.41408
求める	-9.41423
着物を	-9.41449
のようで	-9.41467
を聞いて	-9.41484
人をつかわして	-9.41508
▁人々は	-9.41517
ヨブ	-9.41527
ノ	-9.4153
きよめ	-9.41638
あなたの手	-9.41794
まれる	-9.41854
寄り	-9.4187
▁ただ	-9.41881
あなたがたのうち	-9.41963
主の宮の	-9.42052
第二	-9.42059
出された	-9.42147
事が	-9.42162
手で	-9.42348
らす	-9.42466
おいて	-9.42545
権	-9.42549
嘆	-9.4258
わたしは彼ら	-9.42606
を連れて	-9.42675
すまい	-9.42689
主を恐れ	-9.42765
しばらく	-9.42854
アブラム	-9.42854
ゼデキヤ	-9.42854
を授け	-9.42854
タラント	-9.42855
くびき	-9.4286
バラム	-9.42903
断食	-9.42906
生ける	-9.42939
物は	-9.42992
仰せ	-9.43046
エリシャ	-9.43068
主にささげる	-9.43102
モーセとアロン	-9.43123
ささげ物	-9.4319
わなかった	-9.43228
ことなく	-9.43283
死人	-9.43306
愚かな	-9.43587
せる	-9.43613
いやし	-9.43616
と言ったので	-9.43732
たちに	-9.43912
については	-9.43938
おこなった	-9.44024
声が	-9.44095
家を建て	-9.44216
弟	-9.44224
を与える	-9.44273
逆	-9.44325
ケルビム	-9.44325
むなしい	-9.44329
アビメレク	-9.44331
病気	-9.44357
がきて	-9.44362
置いて	-9.44424
ではありませんか	-9.44495
シバ	-9.44526
それから	-9.44537
のち	-9.44551
カナンびと	-9.44551
さいわいである	-9.44589
ダビデが	-9.44594
▁ただし	-9.4475
飲	-9.44761
ペテロは	-9.44763
ユダの人々	-9.44799
アダ	-9.44812
いったい	-9.44816
その名を	-9.45029
熱	-9.45139
食事	-9.45171
あげて	-9.45191
怒	-9.45281
▁あなたがたが	-9.45359
日には	-9.45363
テル	-9.45372
だと	-9.4543
言っている	-9.45455
買い	-9.4546
へ行った	-9.45659
▁彼女は	-9.45797
確	-9.458
隊	-9.45803
アンモンの人々	-9.45817
くつ	-9.45835
らい病	-9.45843
な子	-9.45949
罪を犯した	-9.45977
所から	-9.46024
に仕える	-9.46063
五十	-9.46065
右の手	-9.46131
の上で	-9.46132
メル	-9.46192
子牛	-9.46195
近く	-9.462
しても	-9.46242
境	-9.46261
▁主はモーセに言われた	-9.46275
立っている	-9.46516
悪しき	-9.46619
を知る	-9.46653
まさ	-9.46716
父が	-9.46731
仕	-9.46749
にとって	-9.46761
主の使	-9.46821
わたしの言葉	-9.46872
長く	-9.46893
あなたと共に	-9.4693
を滅ぼす	-9.46939
を産んだ	-9.46942
決	-9.46965
を守ら	-9.47059
を守って	-9.47132
モーセが	-9.47179
彼は言った	-9.47191
半	-9.47262
おまえたち	-9.47332
ギ	-9.47332
建て	-9.47357
べて	-9.47376
モン	-9.47402
四方	-9.47446
あだ	-9.47537
せられる	-9.47619
こわし	-9.47676
彼らと	-9.47688
周囲の	-9.47882
撃ち	-9.4792
下り	-9.47977
定めと	-9.48003
残った	-9.48037
男の子	-9.48253
現れ	-9.48276
定められた	-9.48287
示す	-9.48301
せた	-9.48308
入れた	-9.48349
パウロは	-9.4835
ことがある	-9.48379
に従い	-9.48443
見せ	-9.48578
その子ら	-9.48648
勝	-9.48738
いっさい	-9.48871
賜わる	-9.48871
ういご	-9.48874
あふれ	-9.48889
ツロ	-9.48893
スリヤびと	-9.48899
に入れ	-9.48914
に至るまで	-9.49043
タン	-9.4912
▁今	-9.49125
と名づけた	-9.49166
起きて	-9.49188
の方に	-9.49285
むち	-9.49319
感謝し	-9.49326
偽りの	-9.49381
つるぎをもって	-9.49397
器を	-9.49476
七年	-9.495
なされた	-9.49502
を受けて	-9.49559
見ている	-9.49686
するのか	-9.49736
荒野で	-9.49742
われら	-9.49768
起る	-9.49839
ますます	-9.49917
立っていた	-9.50021
聖別し	-9.50063
ないのか	-9.50067
ユダヤ人たち	-9.50105
くれ	-9.50251
主なる神は	-9.50281
新	-9.50384
を焼き	-9.50434
代って王となった	-9.50434
を生み	-9.50475
衣を	-9.50545
どろ	-9.50613
メン	-9.50734
わたしはあなたに	-9.5075
六十	-9.50815
▁たとい	-9.50839
泣き	-9.50849
汚	-9.51043
水は	-9.51088
主の名	-9.51108
らくだ	-9.51131
何事	-9.51194
すであろう	-9.51271
召し	-9.51331
されました	-9.51406
から出る	-9.51416
彼のために	-9.51564
弟子	-9.51767
ときに	-9.51774
パロは	-9.51843
りました	-9.51884
栄	-9.51922
言いました	-9.52004
ヨシヤ	-9.52021
導き出し	-9.52021
モルデカイ	-9.52021
ダマスコ	-9.52021
大きい	-9.52029
ヨラム	-9.52055
なるであろう	-9.52096
ひろ	-9.52129
エパ	-9.52234
人も	-9.52277
まま	-9.52346
▁これらは	-9.52446
供え	-9.52498
生かし	-9.525
生きて	-9.52545
イスラエルびと	-9.52629
ることができ	-9.52645
り物	-9.52734
▁わたしはまた	-9.52796
声をあげて	-9.53027
地方	-9.53038
その上	-9.53185
のかしら	-9.53206
さなかった	-9.53259
進	-9.53324
さいわい	-9.53346
燔祭と	-9.53425
おまえは	-9.53605
タマル	-9.53634
立たせ	-9.53648
知らなかった	-9.53684
命じて	-9.53815
隠し	-9.53821
力ある	-9.53914
ゆるされ	-9.53922
座して	-9.53979
いた時	-9.54179
われらは	-9.54194
その人を	-9.54248
祈って	-9.54323
をほめたたえ	-9.54408
時代	-9.54418
彼に言われた	-9.54474
すべてのもの	-9.54486
に与えて	-9.54864
みんな	-9.54959
その神	-9.54976
務を	-9.55015
与えられる	-9.55087
御言	-9.55096
アッスリヤ	-9.55102
アラ	-9.55114
知る	-9.55133
女を	-9.55164
右に	-9.55177
ねばならない	-9.55273
に伏し	-9.55275
びとの氏族が出	-9.55278
下さい	-9.55289
聖書	-9.55308
先生	-9.5532
があろうか	-9.554
者たちは	-9.55422
かかって	-9.55424
残っている	-9.55455
あす	-9.55456
あがめ	-9.55476
シャン	-9.55556
御子	-9.55666
に住む	-9.55756
十二人	-9.5587
これを聞いて	-9.55895
み前に	-9.55927
さわ	-9.55952
わが魂	-9.5597
ユダヤ	-9.56016
を求める	-9.5604
わたしがあなたがた	-9.56064
撃	-9.56295
愚	-9.56295
その国	-9.56296
小さい	-9.56318
レア	-9.56387
ゆ	-9.5641
主君	-9.56441
尊	-9.56553
ことをしない	-9.56767
エリシャは	-9.56769
霊が	-9.56863
壁	-9.56934
持	-9.56934
に乗って	-9.56939
公平	-9.56946
恐るべき	-9.5695
出て行って	-9.56957
千人	-9.56961
領地	-9.56962
いばら	-9.56998
できない	-9.57018
世々	-9.57051
主の言葉が	-9.57088
にまさる	-9.57144
に告げた	-9.57205
を撃ち	-9.57342
尋ねた	-9.57416
かく	-9.57444
ただし	-9.57512
その妻	-9.57626
に従う	-9.5765
送った	-9.57675
他	-9.57691
その父	-9.57748
にまさって	-9.58047
ってください	-9.58057
それらの	-9.58304
ことを知る	-9.58537
踏	-9.58588
十分の一	-9.58633
ネブカデネザル	-9.58634
不思議	-9.58635
ラバン	-9.58635
に住み	-9.58671
入れて	-9.58732
出てきて	-9.58767
主イエス	-9.58802
彼らのために	-9.5886
シロ	-9.58931
殺され	-9.58982
御使	-9.59005
追	-9.59136
思う	-9.5925
白	-9.5947
その身	-9.59622
野の	-9.59668
ユダは	-9.59943
▁祭司は	-9.59962
あなたも	-9.60044
この人は	-9.60141
であるから	-9.6022
エジプトに	-9.60231
雄	-9.60281
ツ	-9.60334
バラク	-9.60359
ハマン	-9.60359
終った	-9.6037
食べて	-9.6041
カナンの地	-9.6042
につき	-9.6044
全会衆	-9.60449
あれ	-9.60468
を得させ	-9.605
絶えず	-9.60536
金銀	-9.60546
家来	-9.60564
カル	-9.60738
ことによって	-9.60906
彼女に	-9.61012
消え	-9.61026
に投げ入れ	-9.61066
行われた	-9.61076
かしら	-9.61102
へび	-9.61116
残して	-9.61141
なんと	-9.61206
バプテスマ	-9.6135
ぜ	-9.61384
の目の前で	-9.6139
に住んでいる	-9.61396
わが主	-9.61426
喜ばれ	-9.61545
ることなく	-9.61636
いつまで	-9.61639
に宿営し	-9.61765
救う	-9.61791
満たし	-9.61887
▁サウルは	-9.61947
もしあなたが	-9.62064
ぞ	-9.62099
ギデオン	-9.62112
アザリヤ	-9.62113
レハベアム	-9.62114
を得た	-9.6212
を迎え	-9.62138
大きく	-9.62156
られたので	-9.62181
▁あなたの神	-9.62206
の心は	-9.62253
山々	-9.6226
ヨアブは	-9.62263
み言葉	-9.62313
もど	-9.62467
その町	-9.62483
驚き	-9.6256
その後	-9.62633
られるように	-9.62667
いつまでも	-9.62669
救い出し	-9.628
戦う	-9.62871
着物	-9.6288
ています	-9.62902
誓った	-9.63029
王よ	-9.63048
るのか	-9.63048
を知って	-9.6305
肉を	-9.63091
主は言われた	-9.6315
の名によって	-9.63184
を用い	-9.63189
かす	-9.63358
み手	-9.63359
彼と	-9.63368
あなたがたはわたし	-9.63445
を造って	-9.63576
正	-9.63615
しもべたち	-9.63647
ることはできない	-9.6365
受ける	-9.63651
老い	-9.63735
連	-9.63771
しました	-9.63805
▁われわれは	-9.6387
エステル	-9.63898
エポデ	-9.63898
ヘロデ	-9.63899
の書にしるされている	-9.639
計りごと	-9.639
に向け	-9.639
シメオン	-9.639
あがなわ	-9.63909
かず	-9.63946
半ば	-9.63982
ほかの人	-9.64021
きたので	-9.64053
少	-9.64102
その口	-9.64116
民衆	-9.64118
高さ	-9.64132
捕われ	-9.6414
神から	-9.6451
されたので	-9.64571
七人	-9.64659
いる者	-9.64685
自分で	-9.64749
兄弟たちよ	-9.64847
かま	-9.64883
をとり	-9.64928
二千	-9.64976
日が	-9.65083
安息日に	-9.65171
仕事	-9.6533
せられ	-9.65338
葉	-9.65356
ハラ	-9.65416
てくれた	-9.65465
へや	-9.65576
戦いに	-9.65643
この国	-9.65662
散	-9.65669
プ	-9.65717
よろしく	-9.65718
はなはだ	-9.65718
聞きいれ	-9.65736
ひざ	-9.65814
おとめ	-9.6585
三百	-9.6585
しかも	-9.65852
ごろ	-9.65856
第一	-9.65864
わたしはこの	-9.65866
四百	-9.65869
頼み	-9.65876
に着いた	-9.65899
ところが	-9.65989
てくれ	-9.66076
われらを	-9.66196
淫を行	-9.6626
男子	-9.66304
民はみな	-9.66342
に住んだ	-9.66363
はしため	-9.66407
滅ぼされる	-9.66471
熱心	-9.66551
神の子	-9.6657
報	-9.66579
獲た	-9.66683
偽	-9.66852
一千	-9.67296
なわ	-9.67346
安息	-9.67402
イスラエルのすべての	-9.67479
ベツレヘム	-9.67569
ラケル	-9.67569
ザドク	-9.6757
そんな	-9.6757
やぐら	-9.6757
そむいて	-9.67571
明らかに	-9.67573
いなご	-9.67575
やもめ	-9.67575
暗やみ	-9.67591
ぶどうの木	-9.67604
わたしたちの主イエス	-9.67608
加わ	-9.67617
エリコ	-9.67622
永遠に	-9.67636
のかたわら	-9.67637
バビロンに	-9.67664
今日まで	-9.67695
行かれた	-9.67703
置く	-9.67707
あなたの家	-9.67736
刈り	-9.67769
そばに	-9.67802
といった	-9.67842
ロテ	-9.6787
上った	-9.67879
使徒たち	-9.67885
するように	-9.67908
その子孫	-9.6795
歩いて	-9.6807
ソロモンは	-9.6818
祭司たちは	-9.68399
むべき	-9.68441
ことができようか	-9.68447
と思って	-9.68577
ましょうか	-9.68645
あだを	-9.68715
求めた	-9.6876
のもとへ	-9.6883
ちまた	-9.68881
正しい人	-9.68901
留め	-9.68918
妻と	-9.69018
と思った	-9.69205
わたしは彼	-9.69222
ずつ	-9.69335
殺す	-9.69373
城	-9.6945
アブネル	-9.69455
を憎む者	-9.69456
ナフタリ	-9.69456
すみやかに	-9.69459
サタン	-9.69485
を救う	-9.69536
神殿	-9.69545
やがて	-9.69556
東の方	-9.69629
誓	-9.69667
恐れてはならない	-9.69734
葬	-9.69763
力と	-9.69805
自分の家	-9.69805
しもべは	-9.70153
しましょう	-9.7021
破れ	-9.70251
ためであった	-9.70331
行け	-9.70404
得た	-9.70603
までも	-9.70608
りなく	-9.70681
いつ	-9.70774
わたしのしもべ	-9.70874
この所	-9.7093
するために	-9.71124
五十人	-9.71197
六百	-9.71267
ガド	-9.71301
滅びる	-9.71332
常	-9.7136
ゆだね	-9.71379
たくわえ	-9.71379
主をほめたたえよ	-9.7138
のごとく	-9.71381
しるされ	-9.71404
その足	-9.71404
行わなければならない	-9.71447
父の家	-9.71475
問う	-9.71622
ガテ	-9.71637
あざ	-9.71642
与えた	-9.71705
作った	-9.71769
自分が	-9.71862
降り	-9.71864
エラ	-9.71901
わたしと一緒に	-9.72103
耳に	-9.72125
これらのことを	-9.72289
をさばく	-9.72707
を殺す	-9.72818
建てた	-9.73055
▁兄弟たちよ	-9.73231
ヘテびと	-9.73339
ゼブルン	-9.7334
ゼカリヤ	-9.7334
ごらんなさい	-9.73396
ご自身	-9.73416
くださる	-9.73469
五百	-9.735
を喜ばせ	-9.73591
に住んでいた	-9.73602
ゲル	-9.73624
リヤ	-9.73767
五人	-9.73903
おろし	-9.73909
アム	-9.73935
ていない	-9.73952
ようにして	-9.74004
多くの人	-9.74204
イスラエルの人々が	-9.74447
べた	-9.74535
いなかった	-9.74566
神である	-9.74597
を切り	-9.74631
と答えた	-9.74654
を信じる	-9.74709
おられます	-9.74745
だけで	-9.74751
さき	-9.74853
できる	-9.74985
べきである	-9.7502
聖徒	-9.75123
食べてはならない	-9.75209
殿	-9.75223
エレアザル	-9.75278
から離れ	-9.75313
ソドム	-9.7534
を出立して	-9.7534
手を伸べ	-9.7534
シドン	-9.7534
その氏族によ	-9.75359
宮殿	-9.75362
用意	-9.75379
諸国民	-9.75387
ナタン	-9.75388
全体	-9.75404
さお	-9.75416
ささえ	-9.75551
しい者	-9.75591
なくなる	-9.75597
オン	-9.75606
を奪い	-9.75664
に従った	-9.75683
のようであった	-9.75717
すみか	-9.75746
土地	-9.75765
山地	-9.75908
ことについて	-9.75933
から取り	-9.7597
ってきて	-9.75992
信じた	-9.76276
同じように	-9.76339
殺された	-9.76349
まれた	-9.76448
食べた	-9.7646
わたしの子	-9.7654
ここで	-9.76684
のぼって	-9.76711
をつかわして	-9.7677
を捕えて	-9.76829
ふたりは	-9.76898
孫	-9.76949
したように	-9.76957
▁主はまたモーセ	-9.77007
彼らの上に	-9.77017
ペリシテびとは	-9.77068
すべての者	-9.77078
祈り	-9.77203
かれて	-9.77277
てきた	-9.77332
彼らのうちに	-9.77367
ギベア	-9.77381
アロンとその子たち	-9.77382
陣営	-9.77384
ねたみ	-9.77385
その母	-9.77416
進んだ	-9.77463
められた	-9.77479
▁そのころ	-9.77594
高ぶり	-9.77634
国々の民	-9.77665
に臨み	-9.77677
言葉に	-9.77859
▁イスラエルの人々は	-9.77902
聞きなさい	-9.77963
恐	-9.78161
治め	-9.78217
なくなった	-9.78317
不信	-9.78442
呼ばわって	-9.78514
出される	-9.78689
氏族の長	-9.78734
パリサイ人	-9.78776
を汚し	-9.78803
ことがなく	-9.79015
与えられ	-9.79026
三年	-9.79217
を食い	-9.79351
威	-9.79456
おおよそ	-9.79464
ギベオン	-9.79464
アンモンびと	-9.79464
アハズ	-9.79465
かたくな	-9.79467
荒布	-9.79493
もっと	-9.79523
なかったからである	-9.796
隣人	-9.79712
怒って	-9.79784
ことをやめ	-9.79866
ソロモン王	-9.79879
シラ	-9.79887
これを見て	-9.80068
誓いを	-9.80077
主にむかって	-9.80078
信仰によって	-9.80085
主なる神	-9.80115
義人	-9.80122
パリサイ人たち	-9.80157
上り	-9.80169
一万	-9.80217
殺された者	-9.80235
捕えられ	-9.80238
次に	-9.80294
わたしはわが	-9.80299
いたく	-9.80313
若者たち	-9.80526
割礼を受け	-9.80666
アイ	-9.80745
えている	-9.80756
呼ばわり	-9.80791
御使が	-9.80791
を撃って	-9.80837
へ行き	-9.80854
この女	-9.80895
民のうち	-9.80911
頼	-9.80933
納	-9.81124
引	-9.81133
主があなた	-9.81153
あなたの子	-9.81186
野に	-9.81236
歩き	-9.81341
▁ソロモンは	-9.81575
福	-9.81577
エッサイ	-9.81591
世を治めた	-9.81591
イザヤ	-9.81592
エズレル	-9.81592
シメイ	-9.81592
同様に	-9.81592
コハテ	-9.81609
ともしび	-9.81631
心をつくし	-9.8165
持っている	-9.81685
を開いて	-9.81706
上がって	-9.81881
に会う	-9.81974
とどめ	-9.81976
あなたがたの先祖	-9.82029
出て行った	-9.82108
歩く	-9.82174
のろわれ	-9.82377
示された	-9.82466
わが主よ	-9.83036
ることができようか	-9.83037
これによって	-9.83043
滅ぼした	-9.83059
守り	-9.83096
されない	-9.83134
これらのもの	-9.83152
きました	-9.83161
テラ	-9.83374
長老	-9.83403
恐れた	-9.83414
に座し	-9.8354
そし	-9.83584
そのしもべ	-9.83601
村	-9.83745
オリブ	-9.83748
エゼル	-9.83765
ヅ	-9.83765
アハジヤ	-9.83766
選ばれた	-9.83766
ほむべきかな	-9.83766
祭司長たち	-9.83766
を選び	-9.83766
アセル	-9.83767
いくさ	-9.83777
雄やぎ	-9.83779
ことができるか	-9.83783
告げる	-9.83784
死人の中から	-9.83788
させられた	-9.83869
五キュビト	-9.83908
その兄弟たち	-9.83918
のようになり	-9.83932
コラ	-9.83983
清くな	-9.84007
帰ってきて	-9.84094
頼む	-9.8425
その町々	-9.84333
留	-9.84389
べる	-9.84478
との間に	-9.84549
パンを食べ	-9.84556
彼女が	-9.84627
しもべら	-9.84658
もしあなたがたが	-9.8469
さばく	-9.84828
生き物	-9.84927
あなたの子孫	-9.8499
はいり	-9.85115
主に仕え	-9.85302
▁その後	-9.85309
と同じように	-9.85385
七日	-9.85458
地に住む	-9.85633
わたしの目	-9.85786
のがれて	-9.8592
感	-9.85987
アマジヤ	-9.85987
ミヅパ	-9.85987
預言して	-9.85988
しゅうと	-9.85988
空の鳥	-9.8599
にそむいた	-9.86
どこへ	-9.86013
かせた	-9.8603
うせ	-9.86036
誓われた	-9.86075
ひそかに	-9.8608
であれば	-9.86138
イスラエルよ	-9.86223
とどまる	-9.86312
を治める	-9.86333
そのような	-9.86337
ハム	-9.86449
定めた	-9.86553
てしまう	-9.86816
というのは	-9.86836
のもとにきて	-9.86852
地のすべての	-9.86858
を持っている	-9.86921
この宮	-9.86948
れさせ	-9.87148
着せ	-9.87167
置かれ	-9.8727
このかた	-9.87274
拝し	-9.87311
それによって	-9.87568
ろうとして	-9.87637
万人	-9.87676
とどまって	-9.87733
の子孫である	-9.87835
あなたの心	-9.87952
全部	-9.88014
帰ってきた	-9.88094
いっ	-9.88117
子ども	-9.88195
すみ	-9.88231
解き明かし	-9.8826
イシマエル	-9.8826
ぶんどり物	-9.88261
地のおもて	-9.88261
シマヤ	-9.88263
をおおう	-9.88265
誓願	-9.88271
散らし	-9.88289
ヨルダンを渡	-9.88299
御座	-9.88305
バシャン	-9.88316
近寄って	-9.88323
言わなければならない	-9.88325
淫行	-9.88336
続け	-9.88372
タイ	-9.88386
約束された	-9.88416
入る	-9.88508
に代って	-9.88513
だれにも	-9.88517
くなって	-9.88631
みもとに	-9.88718
神の言	-9.88775
その人が	-9.88809
そしり	-9.88869
わたしはあなたがたを	-9.88984
気をつけ	-9.89037
む者	-9.89102
主のために	-9.89111
全き	-9.8913
誇る	-9.89166
わたしの所に	-9.89201
ひも	-9.89215
まわり	-9.89232
こう仰せられる	-9.89291
王に言った	-9.89309
食べさせ	-9.8945
この日	-9.89507
声をあげ	-9.89554
ダビデの町	-9.89609
られなかった	-9.89614
日の間	-9.89626
目の前に	-9.89779
かご	-9.90095
出て行く	-9.90147
使徒	-9.90203
につかわして	-9.90207
第四	-9.90493
貧	-9.90529
勢	-9.90574
イッサカル	-9.90587
ナダブ	-9.90593
確かに	-9.90598
広場	-9.90618
三度	-9.9063
わざわいだ	-9.90736
みまえに	-9.90738
五頭	-9.90751
に入り	-9.90782
葬った	-9.90819
者となり	-9.90901
はかり	-9.90983
御使たち	-9.91008
みんなの者	-9.91038
に帰する	-9.91048
聖別	-9.91176
ハテ	-9.9128
を汚す	-9.91345
お願い	-9.91476
を受けた	-9.91582
を買	-9.91592
近い	-9.91748
をあらわし	-9.91966
あなたの兄弟	-9.91994
を殺そうと	-9.9201
イスラエルの人々のうち	-9.9209
があっても	-9.92281
建てる	-9.92311
王の前に	-9.92421
殺される	-9.92659
うもの	-9.92693
全家	-9.92785
ないもの	-9.92816
ようなもの	-9.92837
およびすべて	-9.92842
家から	-9.92947
ひとりで	-9.92964
キリア	-9.92966
罪を犯す	-9.92967
ソ	-9.92968
つまずき	-9.92969
父なる神	-9.92974
その柱	-9.9298
石がき	-9.92997
七日の間	-9.93023
に当った	-9.93026
万軍の主は言われる	-9.93104
イエスは彼ら	-9.93115
あなたのいつくしみ	-9.93134
父よ	-9.93151
良き	-9.9323
が満ち	-9.9324
ペル	-9.93285
主なる神よ	-9.93285
に仕えた	-9.93361
であれ	-9.93554
ラマ	-9.93766
バプテスマを受け	-9.94015
ことができましょう	-9.94321
開かれ	-9.94324
を与えた	-9.94445
父ダビデ	-9.94541
知れ	-9.94709
まない	-9.94767
ことができず	-9.94828
助	-9.94889
他人	-9.9494
逃げて	-9.94957
尋ねて	-9.95005
ままで	-9.95026
いちじく	-9.95397
に向かい	-9.95405
を選んで	-9.95406
エブスびと	-9.95406
と呼ばれる	-9.95406
に逆らって	-9.95406
に授け	-9.95406
主の言葉がわたしに臨んだ	-9.95407
ハナン	-9.95407
メラリ	-9.95407
近づいた	-9.95407
こんな	-9.95408
どこから	-9.9541
つかわす	-9.95421
たきぎ	-9.95423
の手にわたされ	-9.95452
宝石	-9.95547
ロト	-9.95554
聖徒たち	-9.95679
持ち物	-9.95685
んではならない	-9.95733
渡って	-9.95737
民は皆	-9.95752
望む	-9.95842
あらわれ	-9.95994
▁イエスは答え	-9.96047
ぜた	-9.96088
パル	-9.96097
長い	-9.96115
時まで	-9.96332
初めから	-9.96701
食べることができる	-9.9671
二万	-9.96896
おのが	-9.9711
行われる	-9.97113
高ぶ	-9.97148
良	-9.97165
この言葉を	-9.97176
数えられた	-9.97461
仰	-9.97529
設け	-9.97605
悟る	-9.97802
ハマテ	-9.97906
ネゲブ	-9.97906
ひじょうに	-9.97906
ちょうど	-9.97907
むなしく	-9.97908
の族長	-9.97914
われらの神	-9.9793
ウリヤ	-9.97936
苦難	-9.97937
戦争	-9.97943
二度	-9.97965
主は生きておられ	-9.97975
泣いた	-9.98084
にかなう	-9.98098
それとも	-9.98133
をとおって	-9.98185
住み	-9.98365
大水	-9.98376
喜ば	-9.98442
守って	-9.98571
御名	-9.98635
自分の命	-9.98723
るべきである	-9.99026
連れてきて	-9.9922
にはいり	-9.99409
の産物	-9.99466
答	-9.99693
呼ばわる	-9.99694
知られ	-9.99956
の手に渡され	-9.99991
清	-10.0004
用いる	-10.0027
エホヤキム	-10.0047
ギルガル	-10.0047
ピリポ	-10.0047
ほら穴	-10.0047
オピヤ	-10.0047
香ばしいかおり	-10.0047
あなたがたに言っておく	-10.0047
あまねく	-10.0047
言わせた	-10.0047
散らされ	-10.0047
目をあげて	-10.0049
あざける	-10.0051
を作り	-10.0054
備	-10.0058
ただひとり	-10.0063
これがために	-10.0066
ヨナ	-10.0075
すべての物	-10.008
わす	-10.0098
起す	-10.0102
高ぶる者	-10.0118
祈る	-10.0124
現れた	-10.0124
あなたがたに言う	-10.0125
を汚した	-10.0156
そのうちに	-10.019
を変え	-10.0191
のまわりに	-10.0224
バテ	-10.0225
のひとりが	-10.0227
ダビデ王	-10.025
と名づけ	-10.026
と言われ	-10.0278
願って	-10.0295
メレク	-10.0309
祝	-10.031
いと高き者	-10.031
大ぜい	-10.031
ヘシボン	-10.031
セイル	-10.031
ヒルキヤ	-10.031
めいめい	-10.031
血を流し	-10.031
過越の祭	-10.031
ふたたび	-10.031
ラッパを吹き	-10.031
いにしえ	-10.031
あざけり	-10.031
大声で	-10.031
たずね	-10.0311
あわて	-10.0311
の治世	-10.0313
アサフ	-10.0315
見える	-10.0315
代々	-10.0319
燔祭をささげ	-10.0325
打ち場	-10.0326
ならず	-10.0327
憎むべき事	-10.0329
あげる	-10.0335
ゼラ	-10.0339
▁もし人が	-10.0345
▁その日には	-10.0354
主にあって	-10.0358
律法学者たち	-10.0361
を受けいれ	-10.0373
万軍の神	-10.0373
ヒラム	-10.0389
知者	-10.0392
かえし	-10.0396
にならない	-10.0408
さとし	-10.0427
四人	-10.0435
を求めて	-10.0448
▁そこでイエスは	-10.0452
にあずか	-10.0464
するためである	-10.0479
ることができなかった	-10.048
よみがえらせ	-10.0484
を撃った	-10.0492
一部	-10.0519
をさして	-10.0519
を知った	-10.0524
万軍の	-10.0533
建	-10.0537
公	-10.0569
いけにえ	-10.058
リベカ	-10.058
まっすぐに	-10.058
ざくろ	-10.058
そのいつくしみはとこしえに絶え	-10.0581
ひねもす	-10.0581
そむく	-10.0581
わが子よ	-10.0582
ペルシャ	-10.0583
喜んだ	-10.0584
父祖	-10.0586
野の獣	-10.0587
ができ	-10.0588
他の神々	-10.0589
スリヤの王	-10.0591
を負う	-10.0593
知恵ある者	-10.0594
の道に歩	-10.0626
洗い	-10.0631
あの人	-10.0638
▁アブラハムは	-10.064
数えられた者は	-10.0658
心のうちに	-10.066
彼女に言った	-10.0663
むだ	-10.0665
知っています	-10.0668
現れる	-10.067
返す	-10.0673
主の家	-10.0678
小さい者	-10.0683
いかに	-10.0708
ある人が	-10.071
分け与え	-10.0713
ユダの家	-10.0743
連れてきた	-10.0754
勝利	-10.0775
を負わ	-10.078
神の前に	-10.08
カナン	-10.0805
買	-10.0805
をあけ	-10.0813
撃ち殺し	-10.0824
いるのを見	-10.085
三千	-10.0856
ヨルダンの向こう	-10.0858
ボアズ	-10.0858
たくさん	-10.0858
あいさつ	-10.0858
マアカ	-10.0858
ほんとう	-10.0858
つかえめ	-10.0858
むさぼ	-10.0858
こちら	-10.0858
おとずれ	-10.0858
めぐらし	-10.086
に感謝せよ	-10.086
書きおく	-10.0861
ユダとエルサレム	-10.0861
不正	-10.0862
絶や	-10.0862
の代りに	-10.0862
を打つ	-10.0868
心にとめ	-10.0871
わからない	-10.0882
大麦	-10.0883
拝み	-10.09
働く	-10.0901
日々	-10.0902
合い	-10.0904
ことができなかった	-10.0905
ほふら	-10.0923
動く	-10.0932
食べなければならない	-10.0948
を追って	-10.0962
わたしを助け	-10.0963
終え	-10.0966
わされ	-10.0972
らぬ	-10.0983
わたしは主である	-10.1018
を罰する	-10.1018
明け	-10.102
歌う	-10.1024
葬られ	-10.1025
ことになる	-10.1031
これは彼らが	-10.1032
ことはありません	-10.1051
ということ	-10.1072
をもつ	-10.1077
種入れぬパン	-10.1085
わたしにむかって	-10.1085
思い出	-10.109
のことで	-10.1098
置	-10.1102
▁イエスは彼らに	-10.111
刈	-10.1111
有	-10.1127
イスラエルのすべての人	-10.1135
滅ぼさ	-10.1138
悲	-10.1141
もしわたしが	-10.1144
エホヤダ	-10.1144
エフタ	-10.1144
犯した罪	-10.1144
かも知れない	-10.1144
たちまち	-10.1144
うわさ	-10.1144
目をさまして	-10.1144
にむかい	-10.1144
つながれ	-10.1145
悪を行う者	-10.1145
羊の群れ	-10.1145
報復	-10.1146
打たれ	-10.1147
なにゆえ	-10.1147
を持つ	-10.1152
預言者エレミヤ	-10.1157
まとい	-10.1165
の手に渡し	-10.1167
きたるべき	-10.1174
よこしまな	-10.1186
ならぬ	-10.1188
次のとおりである	-10.1201
ようとしている	-10.1229
罪人	-10.1258
汚れたもの	-10.1264
つぐ	-10.1265
召	-10.1268
わたしのもとに	-10.127
拝む	-10.1273
万国	-10.1309
を見つけ	-10.1323
多	-10.1334
神を恐れ	-10.1342
良く	-10.1381
二頭	-10.1399
聖なる者	-10.1399
食事をし	-10.14
勇	-10.1435
村々	-10.1438
あがなう	-10.1438
の前から追い払	-10.1438
アムノン	-10.1438
ベエルシバ	-10.1438
他国人	-10.1438
ほふり	-10.1438
楽しむ	-10.1438
捕え移され	-10.1438
七日のあいだ	-10.1439
追い出し	-10.144
にしたがい	-10.1443
自分自身	-10.145
にかけて	-10.1451
のぼり	-10.1453
一度	-10.1455
ユダの町々	-10.1456
先祖の神	-10.1466
の手によって	-10.1466
のところにきて	-10.1468
わが君	-10.1469
嗣業として	-10.1472
主の箱	-10.1494
われわれの先祖	-10.1538
としてささげ	-10.1563
の言葉を聞いて	-10.1606
にとどまってい	-10.1631
消し	-10.1643
を負わせ	-10.166
なるかな	-10.1673
万物	-10.1684
ミデアン	-10.1732
ウジヤ	-10.1741
一歳の雄の小羊	-10.1741
オベデ	-10.1741
主の契約の箱	-10.1741
イスラエルの聖者	-10.1741
軍隊	-10.1744
臨ませ	-10.1744
衣服を洗	-10.1744
を断ち	-10.1745
箱舟	-10.1747
軍の長	-10.1747
三日目に	-10.1748
あわれま	-10.1748
知らず	-10.175
アビヤ	-10.1766
祭の犠牲	-10.1771
踏みつけ	-10.1774
きわめ	-10.1777
朝まで	-10.1778
歳であった	-10.1781
好む	-10.1783
主が命じられた	-10.1785
になっている	-10.1789
語っている	-10.1789
海べ	-10.1791
といい	-10.1793
思われ	-10.1794
高い所	-10.1806
あわせ	-10.1812
といって	-10.1825
勝利を得	-10.1835
部分	-10.1844
をつけて	-10.1849
天国	-10.185
を撃ち殺した	-10.1898
白く	-10.1898
に会い	-10.1902
呼ばわった	-10.1927
得ない	-10.1968
に臨んで	-10.1976
律法学者	-10.1993
とどまった	-10.2012
殺そう	-10.2018
急	-10.2051
そのうちの	-10.2052
束	-10.2053
寄留の他国人	-10.2053
攻め上	-10.2054
と呼ばれた	-10.2054
エズラ	-10.2054
恐ろしい	-10.2054
ひとりびとり	-10.2054
君たる者	-10.2054
いずれ	-10.2055
刈入れ	-10.2055
確信	-10.2056
出身の	-10.2056
主はわたしに言われた	-10.206
に出会	-10.2063
その境は	-10.2063
日が来る	-10.2065
ながく	-10.2069
ご自分	-10.2073
出かけ	-10.2076
おおわれ	-10.2079
シオンの娘	-10.2082
ひとりの人が	-10.2093
▁万軍の主は	-10.2095
わたし自身	-10.2108
良心	-10.2122
ためではなく	-10.2124
つぼ	-10.2131
思っている	-10.2134
供え物をささげ	-10.2135
を見たので	-10.2141
火の中	-10.2143
わが救	-10.2194
貧しい人	-10.2194
僕たち	-10.2201
わがしもべ	-10.221
父母	-10.2225
妻をめと	-10.2237
三十人	-10.2284
携えてきた	-10.2297
書いた	-10.2299
宮を建て	-10.2319
やかに	-10.2322
言われました	-10.2344
礼	-10.2355
おののい	-10.236
知ってお	-10.2375
に油を注いで	-10.2376
アビヤタル	-10.2376
ナザレ	-10.2376
サウロ	-10.2376
へりくだ	-10.2376
ラモテ	-10.2376
しきりに	-10.2376
めぐり	-10.2376
牧場	-10.2377
いちじくの木	-10.2378
主をほめ	-10.2381
アマレクびと	-10.2382
いいえ	-10.2382
光栄	-10.2383
おののき	-10.2384
証言	-10.2385
安全	-10.2387
ないであろうか	-10.2388
乳香	-10.2388
こともない	-10.2397
恐れることはない	-10.2397
行われ	-10.2397
身を清め	-10.2399
上ってきて	-10.2414
者は皆	-10.2423
人の心	-10.244
ベニヤミンの人々	-10.2441
いただき	-10.2442
見張	-10.245
言おう	-10.2467
に下る	-10.2479
どこで	-10.2483
望んでい	-10.2527
引き出し	-10.2539
ようにしなければならない	-10.2562
書物	-10.2574
の事について	-10.2589
を着て	-10.2591
深	-10.2594
町の門	-10.2615
ことができよう	-10.2618
その子たち	-10.2623
信心	-10.2656
老人	-10.2688
連れて行き	-10.2698
アシラ像	-10.2709
預言する	-10.2709
祭壇の上で焼	-10.2709
ケルブ	-10.2709
いろいろ	-10.2709
シャルム	-10.2709
夕まで汚れる	-10.2709
くださった	-10.271
みつぎ	-10.271
子を産む	-10.271
あわれむ	-10.271
あわれんで	-10.2711
なんでも	-10.2712
受けいれる	-10.2717
アラバ	-10.2718
ミデアンびと	-10.2719
泣く	-10.2719
いましめ	-10.2721
者はひとりも	-10.2741
召された	-10.2742
さないでください	-10.2742
の前に恵みを得	-10.2743
を追う	-10.2744
びとの氏族	-10.2759
書いて	-10.2776
持ってきた	-10.2782
てほしい	-10.2788
わが名	-10.28
牧	-10.2802
を罰し	-10.2817
これらの言葉を	-10.2823
に現れて	-10.2826
をつくし	-10.2827
に住んで	-10.285
ほめたたえ	-10.2857
知っているとおり	-10.2911
言わない	-10.2915
を造る	-10.2943
合わせ	-10.2958
になりました	-10.2989
かわいた地	-10.2994
なくても	-10.3017
住まわせ	-10.3054
ハナニヤ	-10.3054
バビロンの王ネブカデレザル	-10.3054
つるぎに倒れ	-10.3054
エシュア	-10.3054
カデシ	-10.3054
ナオミ	-10.3054
立ちあがり	-10.3054
預言した	-10.3054
アドニヤ	-10.3054
バルナバ	-10.3054
メシュラム	-10.3054
主がモーセに命じられたとおり	-10.3054
いなずま	-10.3054
歌うたう者	-10.3054
その部隊	-10.3055
よろず	-10.3055
を過ご	-10.3055
みなしご	-10.3055
エフライムの山地	-10.3055
イスラエルの人々に言いなさい	-10.3055
カルメル	-10.3056
苦しむ	-10.3056
さばかれる	-10.3059
七日目に	-10.3059
青糸	-10.3059
書記	-10.306
いやされた	-10.3063
親族	-10.3063
祭司エレアザル	-10.3065
地上の	-10.3065
公義	-10.3068
地の果	-10.3068
すぐれた	-10.3069
んだ像	-10.3076
恵まれ	-10.3082
心の中で	-10.309
ようとするのか	-10.3091
をおおって	-10.3105
を苦しめ	-10.311
はこれである	-10.3119
地上に	-10.3121
悲しむ	-10.3139
に聞き従わ	-10.3144
使者をつかわし	-10.3181
が起って	-10.3203
開け	-10.3208
にあずかる	-10.321
つかわされ	-10.3247
めとった	-10.3261
置か	-10.3271
にとどま	-10.3304
受けいれ	-10.3323
を好ま	-10.3334
知っていた	-10.3361
令	-10.3408
士	-10.3409
あらかじめ	-10.3411
タルシシ	-10.3411
荒れすたれ	-10.3411
呼び集め	-10.3411
を切り倒し	-10.3411
ピネハス	-10.3411
しゅろ	-10.3411
アカシヤ	-10.3412
ヨタム	-10.3412
わきまえ	-10.3412
消えうせ	-10.3413
告白	-10.3413
門を守る者	-10.3414
その周囲に	-10.3416
分れ	-10.3418
書きしるし	-10.3418
ふところに	-10.342
をおおった	-10.3422
流出	-10.3427
キリストにあって	-10.3429
ミカヤ	-10.3434
勝つ	-10.344
あなたをほめたたえ	-10.3447
何ゆえ	-10.3457
のなかに	-10.3483
彼らに与え	-10.3507
に当る	-10.3598
イエスにあって	-10.3648
むすこ娘	-10.3662
わたされ	-10.3683
を荒し	-10.3711
のかしらたち	-10.3735
憤	-10.3751
さまざまの	-10.3782
マアセヤ	-10.3782
にすぎない	-10.3782
ベネハダデ	-10.3782
出入り	-10.3782
カイザル	-10.3782
カレブ	-10.3782
バアシャ	-10.3782
よく言っておく	-10.3782
ナイル川	-10.3782
テモテ	-10.3782
マケドニヤ	-10.3782
ンの子ヨシュア	-10.3783
先見者	-10.3783
を作って	-10.3788
ヘブルびと	-10.3789
正月	-10.3789
分け前	-10.3795
動かされ	-10.3796
貧しい	-10.3798
飲んだ	-10.3798
アヒヤ	-10.3804
▁悪しき者は	-10.3804
ガドの子孫	-10.381
しるされている	-10.381
ではありません	-10.3813
身を汚し	-10.383
御国	-10.3832
を失い	-10.3834
ギリシヤ人	-10.3859
を通らせ	-10.3883
に時があ	-10.3885
門の入口	-10.3898
もうひとり	-10.3929
上ってきた	-10.3937
伝	-10.3939
尋ね求め	-10.3985
を思い出し	-10.4035
住んだ	-10.4058
戒	-10.4077
に起った	-10.4107
彼らに答え	-10.4111
消	-10.4141
てくださるように	-10.4146
導き出された	-10.4166
クロス	-10.4166
ヒビびと	-10.4166
酒ぶね	-10.4166
あやまち	-10.4166
ダリヨス	-10.4166
エホアハズ	-10.4166
ハザエル	-10.4166
実を結ぶ	-10.4166
罪を犯させ	-10.4166
アマサ	-10.4166
エルカナ	-10.4166
カイン	-10.4166
ベナヤ	-10.4166
それに属する村々	-10.4167
アビシャイ	-10.4167
きびしく	-10.4167
どういう	-10.4167
かさね	-10.4167
ひどく	-10.4167
信頼し	-10.4167
偽善	-10.4169
勇気	-10.417
立ちあがって	-10.417
とその村々	-10.417
雄羊一頭	-10.4172
同時に	-10.4178
を打って	-10.4178
ガザ	-10.4183
々しく	-10.4184
引き上げ	-10.4185
のようであり	-10.4188
ることのできる	-10.4195
エラム	-10.4195
を守らせ	-10.4199
を満たしてい	-10.4243
権力	-10.4248
▁第十	-10.4262
祭をささげ	-10.4266
こうべに	-10.4274
をのろっ	-10.4311
ヤコブの神	-10.4348
そこへ	-10.4383
しまう	-10.4421
くちびるは	-10.4488
近寄	-10.4526
とどまり	-10.4542
スリヤ	-10.4551
にわたって	-10.4558
徒	-10.4563
寄留者	-10.4566
ネバテの子ヤラベアム	-10.4566
ことはできません	-10.4566
にもかかわらず	-10.4566
はっきり	-10.4566
マナセの半部族	-10.4566
つむじ風	-10.4566
主の目の前に悪を行	-10.4566
じゅうぶん	-10.4566
ザバデ	-10.4566
をかえりみ	-10.4567
それだのに	-10.4567
リンモン	-10.4567
つまずく	-10.4567
イスラエルの人々の全会衆	-10.4567
主の栄光が	-10.4568
たましい	-10.4568
兵士	-10.4569
口づけし	-10.457
荒れ地とな	-10.457
合わせて十二人	-10.457
多かった	-10.457
歌をうた	-10.457
が起り	-10.4574
妻にめと	-10.4575
不法	-10.4575
と戦った	-10.4578
ひとしく	-10.4578
泣いて	-10.4578
が起った	-10.4582
▁ヒゼキヤは	-10.4582
罪に定め	-10.4588
アハシュエロス王	-10.4599
十八人	-10.4611
北の方	-10.4631
携えてきて	-10.4637
かわいた	-10.4638
少なく	-10.4692
気づ	-10.4705
をあらわす	-10.4715
逃げ去った	-10.4741
に満たされ	-10.475
全きもの	-10.4817
共	-10.4856
下さった	-10.4922
苦しめられ	-10.4925
立ち去	-10.4928
隣	-10.4932
を踏み	-10.4949
に先立って	-10.4962
ヤベシ	-10.4983
シホン	-10.4983
ペレテ	-10.4983
マキル	-10.4983
近づき	-10.4983
必ず殺されなければならない	-10.4983
エジプトの王パロ	-10.4983
お助けください	-10.4983
エクロン	-10.4983
身をかがめ	-10.4983
断たれる	-10.4983
▁それだから	-10.4984
わたしが主であることを知る	-10.4984
踏みにじ	-10.4984
通り過ぎ	-10.4984
ユフラテ川	-10.4984
はるかに	-10.4985
肉を食べ	-10.4985
もう一度	-10.4985
持たない	-10.4986
という名の	-10.4988
とびら	-10.499
五十キュビト	-10.4991
を撃ち破	-10.4992
声を聞いた	-10.5001
くずれ	-10.5004
をつくり	-10.5017
除かれ	-10.5023
あがる	-10.5023
はいらせ	-10.5023
おさめ	-10.5042
老	-10.5042
を造ら	-10.5182
を強くし	-10.5183
連れ出し	-10.5215
呼び求め	-10.5325
から出たもの	-10.5408
ユ	-10.5416
ゴモラ	-10.5418
ペリジびと	-10.5418
血を流す	-10.5418
みだらな	-10.5418
にふさわしい	-10.5418
ハガル	-10.5418
その子たちおよびその兄弟たち	-10.5418
テムナ	-10.5418
そばめ	-10.5418
くすしきみわざを	-10.5418
ひずめ	-10.5418
の手に渡す	-10.5418
さもないと	-10.5419
の子孫のうちでは	-10.5419
つづけた	-10.5419
かわいて	-10.5419
こういう	-10.5419
かしの木	-10.5419
遠く離れて	-10.542
すわった	-10.542
オリブの木	-10.5421
つかまえ	-10.5422
十二弟子	-10.5422
あたり	-10.5423
解放	-10.5425
を撃つ	-10.5425
シオンの山	-10.5428
によらず	-10.5429
会見の幕屋の入口に	-10.5432
どおりに	-10.5434
となられた	-10.5464
奪い去	-10.547
供	-10.5472
を過ぎ	-10.56
あがって	-10.5612
撃たれ	-10.5651
ごらん	-10.5654
保証	-10.5705
やめさせ	-10.5844
に負わせ	-10.5855
トビヤ	-10.5872
エペソ	-10.5872
イゼベル	-10.5872
ローマ	-10.5872
アジヤ	-10.5872
ふるまい	-10.5872
ニネベ	-10.5872
エジプト全国	-10.5872
ラザロ	-10.5872
ゼルバベル	-10.5872
乳ぶさ	-10.5872
ゼルヤの子	-10.5872
油を注がれ	-10.5873
にまで及んだ	-10.5873
ベテシメシ	-10.5873
おびただしい	-10.5873
福音を宣べ伝え	-10.5873
身をめぐらして	-10.5873
大ぜいの群衆	-10.5873
七たび	-10.5873
をとおして	-10.5875
にいたるまで	-10.5875
モーセの律法	-10.5876
千人の長	-10.5877
あかり	-10.5877
成長し	-10.5878
おそく	-10.5885
を結んだ	-10.5894
を失う	-10.5899
取り去られ	-10.5916
に話した	-10.5917
を撃たれた	-10.6105
の前から逃げ	-10.6181
泣き悲し	-10.6215
おこなって	-10.6252
を召して	-10.6307
ヘブル	-10.634
放牧地	-10.6346
ハダデゼル	-10.6348
なければなりません	-10.6349
シナイ山	-10.6349
水に身をすす	-10.6349
うたえ	-10.6349
アシドド	-10.6349
ナアマン	-10.6349
ヘヅロン	-10.6349
一生の間	-10.6349
に害を加え	-10.6349
ゲダリヤ	-10.6349
そそぎ	-10.6349
アビガイル	-10.6349
アルノン	-10.6349
わたしを怒らせ	-10.6349
たしかに	-10.6349
足なえ	-10.6349
待ち望む	-10.6351
きっと	-10.6351
子を産み	-10.6352
第三の	-10.6352
の知事	-10.6354
ることのできない	-10.6369
に誓って	-10.6396
を清める	-10.6415
お告げにな	-10.6417
を放って	-10.6422
に会った	-10.649
イスラエルとユダ	-10.6502
あなたのおきてを	-10.6506
見えるようにな	-10.6738
アマレク	-10.684
司	-10.6845
営	-10.6846
が主であることを知るようになる	-10.6848
アナトテ	-10.6848
香をたき	-10.6849
アヒトペル	-10.6849
に注ぎかけ	-10.6849
エリアブ	-10.6849
エデン	-10.6849
エホデ	-10.6849
受くべき	-10.6849
オバデヤ	-10.6849
エホヤダの子ベナヤ	-10.6849
その家族にしたがって	-10.6849
アンテオケ	-10.6849
メデア	-10.6849
あがないをしなければならない	-10.6849
めぐみ	-10.6849
なおさら	-10.6849
の子らのうちでは	-10.6849
と言えば	-10.6849
喜	-10.751
激	-10.7923
約	-10.793
業	-10.793
非	-10.8517
割	-10.9143
覚	-10.9639
衆	-10.9723
緒	-11.0277
泣	-11.0439
訴	-11.1115
投	-11.129
恵	-11.294
ー	-11.3036
絶	-11.3797
再	-11.514
逃	-11.5143
受	-11.6295
与	-11.7637
銅	-11.9492
加	-12.1249
素	-12.141
祖	-12.1446
治	-12.3748
設	-12.386
迎	-12.71
識	-13.2324
畜	-14.2232
慰	-14.2264
閉	-14.2265
要	-14.2266
招	-14.2267
施	-14.2268
ゅ	-14.2269
忘	-14.227
込	-14.2271
越	-14.2272
築	-14.2273
傾	-14.2274
授	-14.2275
燃	-14.2276
偶	-14.2277
裂	-14.2278
奴	-14.2279
隷	-14.228
払	-14.2281
吹	-14.2282
属	-14.2283
砕	-14.2284
伸	-14.2285
乗	-14.2286
邦	-14.2287
最	-14.2288
周	-14.2289
以	-14.229
犠	-14.2291
牲	-14.2292
―	-14.2293
互	-14.2294
及	-14.2295
賜	-14.2296
必	-14.2297
選	-14.2298
携	-14.2299
伏	-14.23
至	-14.2301
叫	-14.2302
燔	-14.2303
悩	-14.2304
注	-14.2305
氏	-14.2306
契	-14.2307
憎	-14.2308
攻	-14.2309
導	-14.231
倒	-14.2311
焼	-14.2312
犯	-14.2313
群	-14.2314
律	-14.2315
捨	-14.2316
壇	-14.2317
求	-14.2318
集	-14.2319
向	-14.232
預	-14.2321
呼	-14.2322
ュ	-14.2323
尋	-14.2323
ャ	-14.2324
ょ	-14.2325
謝	-14.2325
嗣	-14.2326
聞	-14.2326
