<pad>	0
</s>	0
<unk>	0
¦	-1.16307
▁¦	-1.51607
▁	-3.07181
𐋇	-3.52123
▁,	-3.86378
o	-4.05717
ch	-4.19155
s	-4.28783
▁.	-4.64294
i	-4.83558
en	-5.0057
de	-5.04901
som	-5.1741
till	-5.18561
han	-5.20104
t	-5.46601
så	-5.49275
om	-5.49702
att	-5.51774
för	-5.58373
▁;	-5.66032
jag	-5.71933
det	-5.76711
▁:	-5.80641
på	-5.84537
skall	-5.856
den	-5.87061
a	-5.91154
av	-5.92312
icke	-5.92929
herren	-5.93712
är	-5.95343
hon	-5.96795
med	-5.98432
𐊼	-6.00623
𐊣	-6.00623
du	-6.05219
har	-6.08831
▁»	-6.12771
dem	-6.14106
då	-6.20754
er	-6.2175
var	-6.26004
men	-6.29905
r	-6.33486
mig	-6.42242
dig	-6.47164
sig	-6.4839
från	-6.51231
sade	-6.52512
där	-6.5409
▁.»	-6.57824
eder	-6.57866
hade	-6.60013
ty	-6.63286
upp	-6.71233
nu	-6.7199
när	-6.72222
efter	-6.73522
alla	-6.76683
it	-6.7804
över	-6.78506
gud	-6.78527
sin	-6.80255
ett	-6.82077
ut	-6.85506
åt	-6.85762
min	-6.89307
man	-6.92799
din	-6.93071
vad	-6.93804
ock	-6.94182
israel	-6.99931
n	-7.00445
na	-7.00676
vid	-7.02482
allt	-7.08542
e	-7.12454
vi	-7.13414
hava	-7.17917
son	-7.19331
se	-7.19434
mot	-7.21489
kola	-7.25093
komm	-7.26892
ja	-7.27726
sina	-7.27779
eller	-7.2817
dera	-7.28385
tta	-7.29408
barn	-7.32125
d	-7.33362
in	-7.35161
än	-7.35911
▁?	-7.37018
hus	-7.4063
oss	-7.41198
et	-7.45154
genom	-7.49204
vara	-7.49432
fram	-7.50792
edan	-7.51543
mitt	-7.52312
bliv	-7.52991
må	-7.53351
konungen	-7.53825
äger	-7.5492
folk	-7.55301
göra	-7.58168
skulle	-7.58256
sitt	-7.58503
vill	-7.58575
dina	-7.59282
komma	-7.6106
land	-7.61686
gå	-7.62598
vor	-7.64224
utan	-7.64546
bliva	-7.64575
blev	-7.64722
kom	-7.65347
skol	-7.65807
någon	-7.664
▁'	-7.672
under	-7.67886
ned	-7.68054
äro	-7.69315
ur	-7.69598
bort	-7.73877
henne	-7.75383
låt	-7.75576
dess	-7.76308
dessa	-7.77995
få	-7.79072
ar	-7.79586
ord	-7.80004
konung	-7.80705
f	-7.80941
folket	-7.8179
herre	-7.8255
bland	-7.82588
ingen	-7.83653
därför	-7.83744
hela	-7.84329
hand	-7.84454
ditt	-7.85645
mer	-7.86757
mina	-7.87414
själv	-7.87513
väl	-7.87732
guds	-7.8785
inför	-7.89457
h	-7.8983
andra	-7.90101
dag	-7.90986
st	-7.91939
ande	-7.92385
giva	-7.9265
kan	-7.92754
jesu	-7.93712
fader	-7.94605
svarade	-7.94728
be	-7.94818
tid	-7.95741
jorden	-7.95928
stor	-7.96509
söner	-7.97539
tjänare	-7.99967
här	-8.00737
gick	-8.00777
david	-8.03656
an	-8.05183
någo	-8.05257
män	-8.05408
juda	-8.05987
gjorde	-8.06641
ju	-8.06647
▁--	-8.08576
mose	-8.0906
gör	-8.10804
▁?»	-8.12053
huru	-8.12796
jerusalem	-8.13651
vår	-8.13858
namn	-8.14596
stå	-8.14657
två	-8.14734
ej	-8.15601
hör	-8.15616
gav	-8.16175
-	-8.16414
edra	-8.17576
g	-8.18918
re	-8.19293
säga	-8.1975
het	-8.2042
are	-8.20652
es	-8.21613
gjort	-8.22867
år	-8.23356
k	-8.24378
ögon	-8.2689
landet	-8.27487
denna	-8.28216
får	-8.294
denne	-8.29713
åter	-8.30684
hos	-8.31566
▁!	-8.32025
tog	-8.34458
ta	-8.34585
lät	-8.35367
låta	-8.35499
taga	-8.35683
dagen	-8.36505
tillbaka	-8.37505
all	-8.38611
haven	-8.3875
ända	-8.39712
himmelen	-8.40257
ra	-8.42405
stod	-8.42556
hundra	-8.42979
egypten	-8.43312
m	-8.43841
intet	-8.44657
p	-8.47859
talade	-8.48328
höra	-8.48643
l	-8.49036
da	-8.49514
skull	-8.49579
emot	-8.49705
väg	-8.50821
as	-8.50857
rätt	-8.50973
tag	-8.52044
us	-8.52535
dit	-8.52854
kring	-8.52924
tusen	-8.53027
fråga	-8.53904
tala	-8.54449
ansikte	-8.56147
ick	-8.56218
hjärta	-8.57066
kunna	-8.57906
bröder	-8.58033
sådan	-8.58396
åstad	-8.58413
b	-8.58814
lika	-8.58914
staden	-8.59043
många	-8.59394
går	-8.59568
äta	-8.59918
bo	-8.61283
liv	-8.6151
allena	-8.61976
hålla	-8.62369
lig	-8.6336
finne	-8.63364
tre	-8.63712
tro	-8.64497
givit	-8.64545
såg	-8.66833
samma	-8.67022
sju	-8.68243
kvar	-8.69548
vilken	-8.70344
dagar	-8.7054
vem	-8.71456
agt	-8.72283
vatten	-8.72332
or	-8.72398
mycke	-8.74098
sammans	-8.74343
förde	-8.75542
blod	-8.75859
måste	-8.76282
håll	-8.76539
säg	-8.7667
saul	-8.77694
sände	-8.77754
hustru	-8.77765
människor	-8.78909
hörde	-8.79428
jakob	-8.79974
nåd	-8.80044
vet	-8.81586
vare	-8.81965
ma	-8.82515
guld	-8.82657
döda	-8.84289
händer	-8.84431
våra	-8.84561
fäder	-8.84676
stad	-8.85206
sätt	-8.85314
bjud	-8.85475
däri	-8.85569
satte	-8.86637
lik	-8.86824
städer	-8.88173
te	-8.8977
drag	-8.90263
eld	-8.90628
svärd	-8.9151
broder	-8.91547
bud	-8.91582
vilja	-8.91618
bet	-8.91942
tt	-8.92096
vilka	-8.92522
huvud	-8.92829
föra	-8.93231
både	-8.93555
prästen	-8.94341
aron	-8.94725
födde	-8.94821
ville	-8.9744
jämt	-8.98734
frukt	-8.98764
tiden	-8.99144
röst	-8.99269
gott	-8.99295
vände	-8.99498
mun	-9.00046
mannen	-9.0039
▁.'	-9.00438
kunde	-9.00471
slag	-9.00713
gingo	-9.00765
stam	-9.01594
nnerlig	-9.0169
del	-9.01755
heliga	-9.0204
el	-9.03556
gång	-9.03671
lade	-9.03854
nämlig	-9.04079
fall	-9.0472
plats	-9.04771
föll	-9.05002
havet	-9.05008
kristus	-9.05632
strid	-9.0588
först	-9.07818
giver	-9.07893
sk	-9.08045
idan	-9.08588
vända	-9.0866
gått	-9.0901
fyra	-9.09103
framför	-9.09628
makt	-9.09807
draga	-9.09914
fast	-9.10084
bära	-9.10181
annan	-9.10183
nde	-9.10528
lag	-9.10726
huset	-9.1103
dotter	-9.11055
fem	-9.11129
veta	-9.11141
la	-9.11263
finna	-9.11385
dö	-9.11656
liga	-9.11733
båda	-9.1181
salomo	-9.12712
före	-9.1294
själ	-9.13028
rättfärdighet	-9.13053
gärningar	-9.13418
moder	-9.13748
tron	-9.13772
ställe	-9.14119
ont	-9.14136
kraft	-9.14191
kläder	-9.15208
sätta	-9.15552
rus	-9.15731
for	-9.17411
bröd	-9.18308
verk	-9.18417
nej	-9.18421
drog	-9.18479
vrede	-9.18499
hit	-9.19046
hem	-9.19657
tjugu	-9.19812
vin	-9.19965
leva	-9.20697
undan	-9.20727
farao	-9.21119
ske	-9.21208
onda	-9.22219
männen	-9.22694
silver	-9.23361
talat	-9.23757
sebaot	-9.24012
ve	-9.2405
vägen	-9.24657
varandra	-9.2512
▁»,	-9.25141
offra	-9.25159
medan	-9.25338
lägga	-9.25339
arvedel	-9.26278
hög	-9.26378
altaret	-9.26852
människa	-9.26867
konungar	-9.28308
mellan	-9.28599
fann	-9.286
öknen	-9.286
berg	-9.28662
råd	-9.30302
arna	-9.3042
v	-9.30604
prästerna	-9.31192
josef	-9.31781
filistéerna	-9.31781
förbund	-9.32212
någ	-9.32907
abraham	-9.33
ära	-9.33079
helig	-9.33144
sa	-9.33386
igen	-9.33414
fåt	-9.33442
marken	-9.3358
tio	-9.33614
döttrar	-9.33822
fiender	-9.33861
else	-9.35201
länge	-9.35306
kött	-9.35338
härlighet	-9.3549
kallade	-9.35575
lång	-9.3587
ren	-9.36119
runt	-9.36751
frukta	-9.37032
hjärtan	-9.37063
tal	-9.3718
ne	-9.37284
davids	-9.37296
babel	-9.37606
döden	-9.38206
vart	-9.38252
alnar	-9.38481
falla	-9.38521
sönder	-9.38869
tjänst	-9.38903
barns	-9.38921
sta	-9.38994
evig	-9.39115
rike	-9.3912
död	-9.39195
hop	-9.39281
synd	-9.39714
brännoffer	-9.39768
världen	-9.40229
hel	-9.40251
bor	-9.40788
folken	-9.40955
bodde	-9.41095
ning	-9.41535
säd	-9.41929
ed	-9.42707
släkt	-9.42867
släkte	-9.42869
mån	-9.4295
tänk	-9.4317
gudar	-9.43524
ropade	-9.43957
im	-9.44116
josua	-9.44244
leviterna	-9.44256
djur	-9.44887
änt	-9.44965
kvinna	-9.45013
pa	-9.45139
offer	-9.45231
fing	-9.45329
natten	-9.46006
glädje	-9.46166
äldste	-9.46563
inne	-9.47037
tagit	-9.47352
visa	-9.47639
dricka	-9.48054
förut	-9.4888
sten	-9.49035
frid	-9.49317
ena	-9.49324
fötter	-9.49432
låg	-9.50527
skaffa	-9.50675
▁!»	-9.50866
iterna	-9.5096
kropp	-9.51186
sak	-9.5131
far	-9.51355
träd	-9.51623
kalla	-9.51694
ären	-9.51919
ser	-9.52432
at	-9.52895
togo	-9.52901
räkna	-9.53409
lagen	-9.53812
jordan	-9.53866
sång	-9.53937
sex	-9.53961
månaden	-9.54012
um	-9.54402
hämta	-9.54885
vän	-9.54966
goda	-9.55061
given	-9.55582
ö	-9.55985
bar	-9.5599
skam	-9.56326
fört	-9.56387
följde	-9.57329
ad	-9.57385
full	-9.57618
besittning	-9.57957
talar	-9.58078
slå	-9.58256
rän	-9.58358
slut	-9.58602
slog	-9.59124
å	-9.59262
välsigna	-9.59427
olv	-9.59997
berget	-9.60172
j	-9.60178
ligge	-9.60236
vandra	-9.60308
känna	-9.60327
morgon	-9.61025
trettio	-9.61159
olja	-9.6127
hjälp	-9.61342
moab	-9.61693
pet	-9.61708
annat	-9.61848
red	-9.61873
lever	-9.62268
giv	-9.6282
fara	-9.62938
lova	-9.6299
me	-9.63131
gammal	-9.63348
ben	-9.63446
ax	-9.63677
vägar	-9.63975
evi	-9.64175
bygga	-9.64437
ken	-9.64566
edert	-9.65152
söka	-9.65377
bär	-9.65753
dom	-9.66058
tjäna	-9.66685
porten	-9.67045
levande	-9.67147
rädda	-9.67731
ns	-9.67773
missgärning	-9.67841
tecken	-9.67848
ldrig	-9.67882
judarna	-9.67939
kvinnor	-9.6836
syn	-9.68655
jäm	-9.68815
bön	-9.69269
andre	-9.69644
stadgar	-9.69711
vila	-9.70103
steg	-9.70118
ligga	-9.70157
mat	-9.70165
bad	-9.70199
y	-9.70397
begynte	-9.70492
synder	-9.70683
sett	-9.70804
anden	-9.70818
krist	-9.70893
sådana	-9.71758
våld	-9.71846
förstånd	-9.71867
ro	-9.71932
släkter	-9.72057
höll	-9.72099
drogo	-9.72215
ka	-9.72396
ene	-9.7244
ropa	-9.72458
frälsning	-9.72643
str	-9.72811
fördärva	-9.72836
u	-9.73438
ant	-9.73617
kärlek	-9.73794
ting	-9.74415
vattnet	-9.74473
livet	-9.74659
fot	-9.74977
fyrtio	-9.75092
koppar	-9.75092
övriga	-9.75123
nen	-9.75263
funno	-9.75268
lös	-9.7533
sår	-9.75348
högr	-9.75514
femtio	-9.75544
hedningarna	-9.75747
känn	-9.76102
förkunna	-9.7618
uppstå	-9.76189
lärjungar	-9.76243
rätta	-9.7626
ljus	-9.76371
furstar	-9.76857
lov	-9.76862
tredje	-9.7695
boskap	-9.76981
erna	-9.77123
arbete	-9.77459
ga	-9.77777
lämna	-9.77857
trädde	-9.78072
profeten	-9.78099
vänd	-9.78656
olycka	-9.78811
bjöd	-9.78902
lär	-9.79412
ran	-9.7951
tänkte	-9.79935
manasse	-9.80206
kvinnan	-9.80427
iten	-9.80475
intill	-9.80878
kasta	-9.81804
förnimma	-9.82208
boning	-9.82269
jeremia	-9.82863
rop	-9.82949
stenar	-9.83242
vishet	-9.84243
lägg	-9.84696
uppenbarelsetält	-9.84819
gilead	-9.84904
fri	-9.85353
lägra	-9.85559
förstå	-9.85713
ängel	-9.85774
fly	-9.85857
sända	-9.85994
samuel	-9.8629
spisoff	-9.86382
bred	-9.86483
ytter	-9.86737
joab	-9.87002
lamm	-9.87691
trä	-9.87773
ba	-9.88083
befallning	-9.88363
skriv	-9.8848
vore	-9.88703
sons	-9.88833
god	-9.89372
lagt	-9.89446
snar	-9.89454
am	-9.89657
oren	-9.89691
kärl	-9.89768
solen	-9.8999
helgedomen	-9.90151
människorna	-9.90254
ul	-9.90321
område	-9.90835
johann	-9.91295
föda	-9.91339
hår	-9.91541
stycke	-9.91736
isak	-9.91741
▁',	-9.92026
'»	-9.92156
gräns	-9.92358
lön	-9.92774
enda	-9.93312
jo	-9.93504
svara	-9.93604
ställde	-9.94001
hopa	-9.94004
byggde	-9.94059
ack	-9.94078
gån	-9.94151
länder	-9.9424
dog	-9.94275
hata	-9.94328
utrota	-9.94367
penningar	-9.94656
vittnesbörd	-9.94962
van	-9.95149
fadern	-9.95174
öppna	-9.95191
fruktan	-9.9527
äck	-9.95281
sinne	-9.95386
lära	-9.95677
hiskia	-9.95784
byte	-9.958
träda	-9.95818
stort	-9.9584
stark	-9.95871
sitta	-9.95938
lust	-9.96019
und	-9.96042
öster	-9.96148
hopp	-9.96423
stammar	-9.96559
egen	-9.96646
rättfärdiga	-9.96838
förgå	-9.96959
kastade	-9.97095
fött	-9.97133
församlade	-9.97136
ny	-9.97175
profeterna	-9.97439
ge	-9.97444
gåvo	-9.97548
lott	-9.9764
stannade	-9.97677
namnet	-9.97693
rättfärdig	-9.9808
regering	-9.9811
nära	-9.98305
behag	-9.98393
hustrur	-9.98707
sida	-9.9876
par	-9.99139
skåda	-9.99385
mått	-9.99716
grund	-9.99807
döds	-9.99819
sågo	-10.0015
bättre	-10.0049
järn	-10.005
akta	-10.0087
stör	-10.0095
rena	-10.0106
jonatan	-10.013
bringa	-10.0133
sök	-10.0136
förgöra	-10.0157
nöd	-10.016
utgjorde	-10.0204
le	-10.0215
lägre	-10.0293
les	-10.0296
sjun	-10.03
br	-10.0324
ammon	-10.0376
änka	-10.0381
helga	-10.0394
sion	-10.0403
hell	-10.0429
ark	-10.0437
bevara	-10.0459
lejon	-10.0463
högt	-10.0467
samla	-10.0467
vagnar	-10.0474
mod	-10.0474
sorg	-10.0484
helige	-10.0495
nästa	-10.0529
tempel	-10.0532
funnit	-10.0546
platsen	-10.0554
läng	-10.0559
döma	-10.0573
tillhör	-10.0586
rent	-10.0628
ha	-10.0634
tunga	-10.0654
fullborda	-10.067
syster	-10.0713
profeter	-10.0734
gånger	-10.0748
jord	-10.0773
innan	-10.0774
året	-10.0791
evangeli	-10.0799
regera	-10.08
läger	-10.0807
bör	-10.0812
unda	-10.0844
ställ	-10.0846
gäll	-10.0848
bergen	-10.0862
väx	-10.0916
öken	-10.0942
hästar	-10.0961
bygg	-10.0961
älska	-10.0973
vilket	-10.0974
altare	-10.098
floden	-10.0991
just	-10.0995
ahas	-10.1013
egna	-10.1049
profet	-10.1049
fasta	-10.1061
läppar	-10.1063
fåglar	-10.1063
slagna	-10.1093
prisa	-10.1102
skrive	-10.1127
ste	-10.1151
främmande	-10.1152
stanna	-10.117
nas	-10.1172
undervisa	-10.1193
natt	-10.1207
rättfärdige	-10.1211
levde	-10.1226
flydde	-10.1242
bes	-10.1288
aft	-10.1296
lit	-10.1308
djup	-10.1327
siklar	-10.1328
ahab	-10.1333
ände	-10.1346
arm	-10.1366
je	-10.1374
förviss	-10.1395
nog	-10.1415
bevisa	-10.1421
kunskap	-10.1425
utmarker	-10.1425
akt	-10.1454
sam	-10.1457
ege	-10.146
lösa	-10.1472
ute	-10.1503
absalom	-10.1517
invånare	-10.1522
köttet	-10.153
ställa	-10.1532
förlåt	-10.1559
aul	-10.1595
höllo	-10.1597
skuld	-10.1615
följande	-10.1627
allde	-10.1634
ogudaktiga	-10.1641
stund	-10.1677
inom	-10.1705
al	-10.1727
morgonen	-10.1728
bryta	-10.1735
familjer	-10.1744
följ	-10.1766
kär	-10.1776
orena	-10.179
lyd	-10.1797
gamla	-10.1798
lögn	-10.18
gad	-10.1806
människobarn	-10.1808
sökte	-10.1821
älskade	-10.1826
vilj	-10.1833
bröto	-10.1858
församlingen	-10.1867
räck	-10.1879
församling	-10.1886
kar	-10.1906
mätta	-10.1929
resa	-10.1948
barmhärtighet	-10.1994
försoning	-10.1996
gat	-10.2002
hud	-10.2035
elia	-10.2041
hov	-10.2041
sjuk	-10.2042
lat	-10.207
rätter	-10.2078
portar	-10.2084
likna	-10.209
jerobeam	-10.2092
kor	-10.2109
sked	-10.2112
stycken	-10.2123
främling	-10.2164
tält	-10.2185
esau	-10.2192
präster	-10.2202
krossa	-10.2226
eli	-10.2237
fin	-10.2249
benjamin	-10.2252
styggelse	-10.2273
fäkreatur	-10.2291
drabba	-10.2291
fångenskap	-10.2291
löfte	-10.2293
räckte	-10.2296
frälst	-10.2319
hugg	-10.2347
utom	-10.2356
arbeta	-10.2375
gal	-10.2388
skynda	-10.2392
dal	-10.2404
lämnade	-10.241
vakt	-10.2426
aftonen	-10.2428
fjär	-10.2429
ovan	-10.2448
norr	-10.2465
gråt	-10.2473
ljest	-10.2494
egyptierna	-10.2497
öga	-10.2501
ok	-10.2521
ida	-10.2538
ke	-10.2562
orätt	-10.2581
sjuttio	-10.2597
syndat	-10.263
pris	-10.2657
ab	-10.2698
syndoffer	-10.2702
sela	-10.2709
profetera	-10.2732
vingård	-10.2753
unga	-10.2803
bord	-10.2804
slakta	-10.281
edom	-10.2888
ret	-10.2893
samaria	-10.2913
seger	-10.2916
horn	-10.2943
ingången	-10.2947
ber	-10.2959
lyfte	-10.2964
varen	-10.3004
stig	-10.3006
öron	-10.302
kanaan	-10.3021
sanning	-10.3061
ika	-10.3061
bröt	-10.3063
baal	-10.3065
kunn	-10.3084
krig	-10.3091
efraim	-10.3099
mark	-10.3102
heter	-10.3119
präst	-10.3127
stoft	-10.3129
tabernaklet	-10.3129
efraims	-10.3158
otukt	-10.3173
lite	-10.319
rot	-10.3222
ringa	-10.3228
plåga	-10.3239
mantel	-10.3244
fatta	-10.3261
stav	-10.327
ras	-10.328
elden	-10.3287
följa	-10.3329
tacka	-10.3342
inbyggare	-10.335
hälft	-10.335
sal	-10.3375
dörr	-10.3423
bedja	-10.3438
rikedom	-10.3444
domare	-10.3453
avgudar	-10.3457
vagn	-10.3462
aram	-10.3469
öva	-10.3477
lärjungarna	-10.3481
regn	-10.3488
antal	-10.3494
slogo	-10.3494
städerna	-10.3503
joa	-10.3509
lyssna	-10.3547
starka	-10.357
fördärv	-10.3571
illa	-10.3572
josafat	-10.3576
ogudaktige	-10.3583
skara	-10.3588
läto	-10.3606
konungs	-10.3611
seba	-10.3612
tionde	-10.363
inga	-10.3661
öde	-10.3667
vis	-10.3688
druck	-10.3691
dräpa	-10.37
striden	-10.371
predika	-10.3742
stiga	-10.3744
stilla	-10.3793
slår	-10.3803
slöt	-10.3807
söder	-10.3807
älskar	-10.3812
driva	-10.382
visste	-10.3832
asa	-10.3835
menigheten	-10.3853
församla	-10.387
arken	-10.388
iga	-10.3885
efa	-10.3907
stånd	-10.3913
viss	-10.3914
gåvor	-10.3914
vredes	-10.3918
fulla	-10.3919
förgården	-10.3925
inmönstrade	-10.3926
ondska	-10.3927
sluta	-10.3935
vingar	-10.3943
åker	-10.3986
utval	-10.3998
bak	-10.4028
förtär	-10.4028
begär	-10.4034
éerna	-10.4051
upprätta	-10.4069
främlingar	-10.4075
mur	-10.413
levi	-10.4138
led	-10.4142
give	-10.4145
orda	-10.4155
mäktig	-10.4155
välbehaglig	-10.4164
assyrien	-10.4164
mörker	-10.4171
komme	-10.4177
port	-10.4215
beslut	-10.423
huvuden	-10.4231
vari	-10.4231
dalen	-10.4247
åtta	-10.4265
daniel	-10.4286
lida	-10.4333
benjamins	-10.4333
bok	-10.4359
amoréerna	-10.441
smäda	-10.441
mörkret	-10.441
människosonen	-10.441
brev	-10.4412
sidor	-10.4416
fursten	-10.4418
va	-10.4422
mika	-10.4423
angå	-10.443
dan	-10.4432
förmå	-10.4441
samt	-10.4466
träffa	-10.447
il	-10.4482
bestäm	-10.4485
tåga	-10.4491
förblive	-10.4498
utgjut	-10.4505
kön	-10.4522
ordet	-10.4533
moln	-10.4534
tankar	-10.4535
plantera	-10.4535
fäste	-10.455
graven	-10.4555
vänta	-10.4606
rökelse	-10.465
buro	-10.4655
äter	-10.4659
smälek	-10.4661
ig	-10.4703
svärdet	-10.4705
därom	-10.4714
människan	-10.4721
vik	-10.4726
sanningen	-10.4741
dräpte	-10.4746
bränna	-10.4767
pläga	-10.4789
beständig	-10.4791
förskräckt	-10.4791
c	-10.4794
blygd	-10.4795
ljuset	-10.4801
gången	-10.4809
vittna	-10.4816
ham	-10.4819
orna	-10.4825
ödmjuka	-10.4862
fjärde	-10.4862
offrade	-10.4881
bild	-10.4916
simon	-10.4919
välsignelse	-10.4919
bäst	-10.4919
sjön	-10.4923
förstfödde	-10.493
ihåg	-10.4946
iel	-10.4952
varder	-10.496
mål	-10.4964
fruktade	-10.4976
blotta	-10.4981
tillbedja	-10.4987
bitt	-10.5007
hälsa	-10.5011
människo	-10.5022
lede	-10.5025
lar	-10.5028
berättade	-10.5039
förbannelse	-10.5051
gyll	-10.5051
hebron	-10.5051
förbarma	-10.5057
bäcken	-10.5061
född	-10.5066
grav	-10.5078
likt	-10.5093
bestå	-10.5094
hövdingar	-10.5178
förskräckelse	-10.5184
evärdlig	-10.5184
dödsriket	-10.5184
slaktoffer	-10.519
frälsa	-10.5249
vikt	-10.5255
mycken	-10.5257
döm	-10.5262
göm	-10.5269
fröjda	-10.5273
li	-10.5275
vär	-10.5278
skatt	-10.5284
fröjd	-10.5285
ruben	-10.5287
öppnade	-10.5299
förtrösta	-10.5304
mjöl	-10.5313
vandrade	-10.5316
höjden	-10.5317
eleasar	-10.5319
trampa	-10.5319
varar	-10.5328
havande	-10.5353
tit	-10.5369
ofta	-10.5381
ryck	-10.5399
rör	-10.5423
get	-10.5423
trodde	-10.5447
tus	-10.5452
sextio	-10.5459
betel	-10.5463
öra	-10.5465
fett	-10.5487
ung	-10.5489
ordning	-10.5501
träffade	-10.5528
muren	-10.5534
kände	-10.5548
förtära	-10.5565
skyldig	-10.5569
elisa	-10.5581
gensträvig	-10.5595
föröka	-10.5596
ler	-10.5606
gen	-10.5611
moders	-10.5615
förgät	-10.5621
tillflykt	-10.563
vänt	-10.5641
förkasta	-10.5663
utföra	-10.5701
has	-10.5702
visade	-10.5712
förra	-10.5713
herde	-10.5714
samman	-10.5734
bl	-10.5734
förtörnelse	-10.5736
libanon	-10.5736
ningen	-10.5743
ovänner	-10.5746
synda	-10.5748
styggelser	-10.5761
job	-10.5782
hast	-10.579
ring	-10.583
behöv	-10.5855
undfå	-10.5861
handla	-10.587
hals	-10.5879
myckenhet	-10.5882
begrav	-10.595
domar	-10.5952
stra	-10.5953
hoppa	-10.5975
ans	-10.6012
korn	-10.6025
smorde	-10.6032
bota	-10.6056
lovade	-10.6058
höj	-10.606
klippa	-10.6066
skänker	-10.6071
tillhöra	-10.6074
grip	-10.6093
hjälpa	-10.6097
rik	-10.6105
berömm	-10.6106
tjurar	-10.6122
förbanna	-10.6144
hat	-10.617
spjut	-10.6171
kaldéerna	-10.6171
sikem	-10.6171
stadga	-10.6174
klädd	-10.6181
skada	-10.6185
rycka	-10.62
orter	-10.6201
ödemark	-10.6204
hjärtat	-10.6205
fån	-10.6207
sutt	-10.6218
förbi	-10.6229
köp	-10.623
sel	-10.6238
månader	-10.6239
jubel	-10.624
vika	-10.6297
livs	-10.6303
tider	-10.6306
furste	-10.6309
hunger	-10.632
väster	-10.6332
drick	-10.6335
träl	-10.6381
åkalla	-10.6391
konungarna	-10.6394
träden	-10.6409
hörn	-10.6412
gåva	-10.6416
lot	-10.6418
förråd	-10.6422
skatter	-10.6443
lycka	-10.645
val	-10.6451
brutit	-10.6472
abimelek	-10.6472
drickoffer	-10.6472
mästare	-10.6472
skriftlärde	-10.6473
åsyn	-10.6473
glädja	-10.6476
noa	-10.6479
vinträd	-10.6479
sändebud	-10.648
näst	-10.6497
svår	-10.6543
ris	-10.6547
helgedom	-10.655
brän	-10.6567
glada	-10.6574
bäva	-10.6578
råda	-10.6578
stött	-10.658
bedj	-10.6595
garn	-10.6617
mästaren	-10.662
vilse	-10.6625
hungersnöd	-10.6626
araméerna	-10.6626
psalm	-10.6626
pelar	-10.6627
fariséerna	-10.663
strömmar	-10.6633
ssia	-10.6635
honung	-10.6654
murar	-10.6665
frambära	-10.6668
larm	-10.6685
vandrar	-10.6697
byar	-10.6708
tåg	-10.6711
jehu	-10.6718
fängelse	-10.6738
bi	-10.6746
böj	-10.6764
kis	-10.6767
galileen	-10.6782
tungomål	-10.6782
jeriko	-10.6782
frimodig	-10.6782
eldsoffer	-10.6782
fl	-10.6812
hände	-10.682
skapa	-10.6841
hjord	-10.6845
ull	-10.6884
förlossa	-10.6895
drev	-10.6904
pröva	-10.6948
sara	-10.6979
straffa	-10.6991
krigs	-10.7007
bergsbygd	-10.7034
gent	-10.7049
vädurar	-10.7076
ogudaktigas	-10.7077
glad	-10.7083
vänner	-10.709
blyg	-10.7095
möda	-10.7102
glöd	-10.7102
bedrövelse	-10.7102
sidkia	-10.7102
abner	-10.7102
brännoffre	-10.7102
blås	-10.7102
tackoffer	-10.7102
vedergäll	-10.7106
särskild	-10.7112
rov	-10.7115
bruka	-10.7126
översteprästen	-10.7136
avkomlingar	-10.7154
osyra	-10.7161
kroppen	-10.7163
båt	-10.719
hövding	-10.7192
uppteckna	-10.7208
dans	-10.721
hållit	-10.7248
ista	-10.7251
änglar	-10.7253
lukt	-10.7262
skära	-10.7263
bileam	-10.7266
grät	-10.7266
ångest	-10.7266
damask	-10.7266
översteprästerna	-10.7267
lågo	-10.727
vinna	-10.7276
vittnesbördet	-10.7278
sken	-10.7291
tack	-10.7329
upphöj	-10.7342
judar	-10.7344
nad	-10.7364
himmel	-10.7365
leda	-10.7366
band	-10.7368
förakta	-10.7369
dödade	-10.737
brinn	-10.7371
förrätta	-10.7373
lidande	-10.7377
skilja	-10.7378
träng	-10.7383
kort	-10.7385
pass	-10.7387
dräpt	-10.7397
sänd	-10.7426
kroppar	-10.7427
palats	-10.7432
vakna	-10.7432
basan	-10.7432
abram	-10.7433
gossen	-10.7434
ungdom	-10.7435
▁»;	-10.7436
fåfänglighet	-10.744
babyloni	-10.7442
ängeln	-10.7462
huvudet	-10.7468
eser	-10.7475
stån	-10.748
fånga	-10.7485
intog	-10.7486
abi	-10.7507
fattade	-10.7531
brunn	-10.7537
sköt	-10.7557
alt	-10.7576
mordokai	-10.7602
trofasthet	-10.7603
budskap	-10.7603
belägra	-10.761
befästa	-10.762
gudsmannen	-10.7625
inre	-10.763
nytt	-10.7659
ll	-10.7704
menighet	-10.7716
len	-10.7727
högtid	-10.7736
nar	-10.7745
befall	-10.7746
gil	-10.7759
uel	-10.7766
åsnor	-10.7774
östra	-10.7775
nödga	-10.7798
nådig	-10.7799
uppenbara	-10.7832
un	-10.7841
frisk	-10.7846
kora	-10.7882
kunnig	-10.7893
fattiga	-10.7898
eus	-10.7907
bund	-10.7918
basun	-10.7922
mätte	-10.7926
ester	-10.7933
klädnad	-10.7949
hämnd	-10.795
jojada	-10.795
nebukadnessar	-10.795
nämn	-10.795
säll	-10.795
pest	-10.795
högste	-10.7952
synden	-10.7954
dör	-10.7955
fullt	-10.7972
höga	-10.7992
sabbaten	-10.8012
bestämd	-10.8017
sov	-10.8042
hölj	-10.8063
beer	-10.8123
allsmäktige	-10.8128
försmäkta	-10.8128
ismael	-10.8128
di	-10.813
folks	-10.8134
vinning	-10.8136
mjölk	-10.8136
behaga	-10.8151
topp	-10.8172
spillo	-10.8197
eg	-10.8237
nya	-10.8266
bara	-10.8272
mor	-10.8285
ringar	-10.8286
stöt	-10.8286
gripa	-10.8296
gräs	-10.8304
maria	-10.8309
)	-10.831
gästabud	-10.831
plundra	-10.831
ryttare	-10.831
josia	-10.831
sadok	-10.831
småboskap	-10.8311
laban	-10.8311
dröj	-10.8312
pila	-10.8315
natan	-10.8315
nio	-10.8317
farit	-10.832
vitt	-10.8329
reste	-10.8334
brände	-10.8344
förbliva	-10.8351
vall	-10.836
rum	-10.8368
vittne	-10.8392
tjänade	-10.8392
små	-10.8396
fat	-10.8397
ska	-10.8402
väsende	-10.842
upptände	-10.8441
verklig	-10.8448
gjut	-10.8449
väldig	-10.846
trälar	-10.8465
dörrar	-10.8469
sköld	-10.8476
visar	-10.8479
skepp	-10.849
hin	-10.8492
kalk	-10.8494
drottning	-10.8495
kananéerna	-10.8495
simeon	-10.8495
åsna	-10.8496
oxar	-10.8497
lehem	-10.8498
hemlighet	-10.8508
domen	-10.8514
säng	-10.8516
vackla	-10.8517
furstarna	-10.8531
samlade	-10.8534
vek	-10.855
ort	-10.8567
ban	-10.8577
spetälska	-10.8609
hörande	-10.861
gift	-10.8614
afton	-10.8617
arv	-10.8624
driv	-10.864
ansikten	-10.8644
fiende	-10.8646
kallat	-10.8662
vise	-10.8663
sabbat	-10.8671
▁?'	-10.8678
värdig	-10.8683
främst	-10.8684
korsfäst	-10.8685
herod	-10.8686
prov	-10.8688
tamar	-10.8689
förkunnade	-10.8692
hemsöka	-10.8696
rök	-10.8707
felfri	-10.8711
ålder	-10.8711
haman	-10.8717
brist	-10.8719
uppe	-10.8725
skor	-10.8732
mal	-10.8739
sål	-10.8754
trolös	-10.8759
elig	-10.8781
bröderna	-10.8783
ub	-10.8791
aser	-10.8795
aim	-10.8802
vädur	-10.8839
helgade	-10.8859
nät	-10.8875
halv	-10.8877
rättfärdigheten	-10.8878
vinden	-10.8889
iakttag	-10.889
lovad	-10.8892
köpa	-10.8899
fler	-10.8908
fal	-10.8924
ek	-10.8957
fyll	-10.898
pin	-10.9025
värde	-10.9025
kommande	-10.9035
mar	-10.9036
syndare	-10.9036
salt	-10.9059
trakt	-10.9062
gods	-10.9068
klok	-10.9069
överflöd	-10.907
ostrafflig	-10.9071
bättring	-10.9072
naftali	-10.9072
rehabeam	-10.9072
ljuvlig	-10.9072
förlora	-10.9072
joram	-10.9073
tjänstgöring	-10.9073
betyde	-10.9074
förskingra	-10.9077
rykte	-10.9081
höjderna	-10.9083
dött	-10.9086
skaffade	-10.9095
räddade	-10.9096
flytta	-10.9107
net	-10.9119
kal	-10.9135
skjuta	-10.915
rörde	-10.9154
ljud	-10.9171
överlämna	-10.9182
täcke	-10.9208
fåren	-10.9224
varna	-10.9232
torka	-10.9236
färd	-10.9248
dröm	-10.9253
andar	-10.9269
begrov	-10.9272
ihjäl	-10.9272
eländig	-10.9272
möte	-10.9272
betryck	-10.9273
föremål	-10.9274
gos	-10.9276
munnen	-10.9277
nalka	-10.9277
offereld	-10.9278
tjänarinna	-10.928
missgärningar	-10.9288
gagn	-10.929
fattige	-10.9294
bröst	-10.9302
därut	-10.9311
ningar	-10.932
månad	-10.9325
em	-10.9341
eln	-10.9345
ofärd	-10.9362
hän	-10.9381
eber	-10.9392
dol	-10.9448
sörj	-10.9468
offret	-10.9475
fjorton	-10.9476
jisreel	-10.9476
mörkblå	-10.9476
väpna	-10.9476
asarja	-10.9476
hydda	-10.9476
åminnelse	-10.9476
enlighet	-10.9477
förundra	-10.9478
fotstycken	-10.9478
bestånd	-10.9482
asaf	-10.9483
sodom	-10.9485
fångar	-10.9491
blick	-10.9491
angrip	-10.9492
särskil	-10.9493
fria	-10.9495
gärd	-10.9496
djuret	-10.9503
bereda	-10.9509
öv	-10.9512
kvinnorna	-10.9513
altaren	-10.9533
ön	-10.9559
uppfyllde	-10.9626
kläd	-10.9628
lätt	-10.9648
riken	-10.9649
dre	-10.9679
rakel	-10.968
gibea	-10.9685
sebulon	-10.9685
aktade	-10.9686
offergåva	-10.9686
vällukt	-10.969
änden	-10.969
barnet	-10.9696
överträdelser	-10.9699
klagan	-10.9707
övermått	-10.9716
brödet	-10.972
orenhet	-10.9725
skickade	-10.9731
kameler	-10.9739
hämtade	-10.9743
ond	-10.9754
strids	-10.9764
bur	-10.9768
fel	-10.9774
djuren	-10.9777
tjänaren	-10.9792
blott	-10.9808
femte	-10.981
gl	-10.982
förtryck	-10.9822
överste	-10.9841
förstod	-10.9858
börda	-10.9862
vingårdar	-10.9862
fiskar	-10.9863
rika	-10.9877
tukta	-10.9884
sjätte	-10.9897
tänder	-10.9898
buk	-10.9899
utvalda	-10.9901
lea	-10.9904
linne	-10.9907
häpnad	-10.9908
grop	-10.9914
kärleken	-10.9919
fastmer	-10.9923
likaså	-10.9928
sker	-10.9928
förbundet	-10.9929
tjuren	-10.9932
enskap	-10.9961
utgjuta	-10.9967
blinda	-10.9969
häri	-10.9973
evigheter	-10.9978
skön	-10.9996
inner	-11.0006
förlåta	-11.0008
gärn	-11.0028
krossade	-11.0038
härom	-11.0071
aln	-11.0075
bed	-11.0085
länd	-11.0085
uk	-11.0086
välde	-11.0089
gärning	-11.0102
herrar	-11.0115
ljusstaken	-11.0115
templet	-11.0115
vålla	-11.0115
stöd	-11.0115
förstling	-11.0116
närmast	-11.012
riket	-11.012
anställ	-11.0127
rama	-11.0131
klippan	-11.0132
omgjorda	-11.0155
förbannad	-11.0156
israeliterna	-11.0162
vederfar	-11.0163
barnen	-11.017
oskyldig	-11.0171
gator	-11.0172
skriften	-11.0176
storm	-11.0182
tänkt	-11.0217
bitter	-11.0225
egg	-11.0228
förmana	-11.0232
vittnen	-11.0243
iska	-11.0248
störta	-11.0257
tage	-11.0258
sions	-11.0263
syndar	-11.0268
märk	-11.0268
blind	-11.0289
strand	-11.0315
behåll	-11.0316
jungfru	-11.0319
rad	-11.0321
skaror	-11.0336
gibeon	-11.0337
gideon	-11.0337
förnämst	-11.0337
lopp	-11.0338
krönika	-11.0338
silo	-11.0342
begynnelsen	-11.0342
sonen	-11.0345
skap	-11.0346
tuktan	-11.0351
högg	-11.0353
stolt	-11.0354
föreskriv	-11.0359
styrka	-11.0363
simei	-11.0364
dårar	-11.0378
vind	-11.038
rätten	-11.038
hor	-11.0381
seende	-11.0391
skörd	-11.0424
fång	-11.0429
båge	-11.0432
förvärva	-11.0444
flykt	-11.0444
mak	-11.0456
hyddor	-11.0481
även	-11.0489
härlig	-11.0496
hugga	-11.0524
gjorda	-11.0533
jubla	-11.0538
pilar	-11.054
sky	-11.0542
raka	-11.0546
tröst	-11.0557
balak	-11.0564
bekym	-11.0564
isaskar	-11.0564
fläck	-11.0565
förbundsark	-11.0565
menar	-11.0565
konungshuset	-11.0567
isai	-11.0569
stäng	-11.057
keruberna	-11.0571
rev	-11.0575
dryck	-11.0575
skinn	-11.0582
utvälj	-11.0583
lammet	-11.0583
timm	-11.0595
tältet	-11.0606
välsignad	-11.0615
tillstäd	-11.0619
förfölj	-11.0628
löst	-11.0653
folkslag	-11.0681
färdig	-11.0698
arbetet	-11.0723
hövitsmannen	-11.0745
bered	-11.0763
trösta	-11.0764
armar	-11.0766
torr	-11.0769
hjältar	-11.0785
upplyft	-11.0786
begynn	-11.0796
underdånig	-11.0797
sakarja	-11.0797
hedmark	-11.0797
vapen	-11.0797
bock	-11.0797
judisk	-11.0797
tillfälle	-11.0798
lfte	-11.0799
mäktiga	-11.0802
fältet	-11.0802
judeen	-11.0806
önska	-11.0807
aste	-11.081
djupet	-11.0812
huvudmän	-11.0823
berätta	-11.0832
förhärliga	-11.0833
falsk	-11.0833
uppfyll	-11.0836
leder	-11.0838
övergiv	-11.0838
ryckte	-11.0845
vinet	-11.0846
förbränna	-11.0867
visst	-11.0868
krona	-11.0875
måltid	-11.0886
straff	-11.0905
stena	-11.0934
talen	-11.0943
väldiga	-11.097
tyg	-11.0972
väv	-11.0977
klag	-11.0986
skyl	-11.0996
lotten	-11.0998
skugga	-11.1009
häpna	-11.1023
gläd	-11.1028
éer	-11.1033
kirjat	-11.1035
mispa	-11.1035
benaja	-11.1035
sträcka	-11.1036
ångra	-11.1036
hindra	-11.1039
skona	-11.1039
sammal	-11.1053
ger	-11.1061
röva	-11.1063
bredd	-11.1069
tanke	-11.107
röda	-11.1071
skrift	-11.1072
fred	-11.1085
vete	-11.1097
stänger	-11.1098
behör	-11.1102
tig	-11.1112
erlig	-11.1117
ytterst	-11.1122
gälla	-11.1124
uppfylld	-11.1136
tung	-11.1136
sörja	-11.1148
tjugufem	-11.1148
vakta	-11.1159
kost	-11.1162
lysa	-11.1169
upphör	-11.1172
båd	-11.1211
dor	-11.1213
grunden	-11.1243
ingång	-11.1264
invånar	-11.1267
örn	-11.1272
amasja	-11.1279
filipp	-11.1279
sömn	-11.1279
undervisning	-11.1279
uppståndelse	-11.1279
semaja	-11.1279
hadad	-11.1279
jojakim	-11.128
ogudaktighet	-11.128
lovsjung	-11.1281
utskifta	-11.1282
amen	-11.1292
spr	-11.1296
beläten	-11.1329
hjordar	-11.1331
sem	-11.1337
skål	-11.1337
uppenbarat	-11.1341
lyft	-11.1343
skörda	-11.1357
skräck	-11.1397
dels	-11.1406
ledde	-11.1413
båg	-11.1423
ugn	-11.1438
följd	-11.144
överst	-11.145
uppstod	-11.1466
gar	-11.1467
kore	-11.1469
offerhöjder	-11.1471
dela	-11.1474
väst	-11.1509
krets	-11.1521
fält	-11.1523
hövitsmän	-11.1524
midjan	-11.1528
myndighet	-11.1529
utplåna	-11.1529
tappra	-11.1529
drabanterna	-11.1529
anförare	-11.1529
grenar	-11.153
skrev	-11.1532
lovsång	-11.1532
drivit	-11.1541
uria	-11.1541
hy	-11.1543
seir	-11.1545
lippa	-11.155
släppa	-11.1562
kus	-11.1565
delade	-11.1579
tända	-11.1581
vred	-11.1587
skänk	-11.159
enlig	-11.1596
når	-11.1599
edoms	-11.1606
röra	-11.1609
skriva	-11.1632
vaka	-11.1638
unna	-11.1646
bockar	-11.1655
saliga	-11.1661
konst	-11.1668
dagarna	-11.1683
ved	-11.1684
höjd	-11.1687
växte	-11.1697
evighet	-11.1707
svek	-11.1719
skog	-11.1722
syner	-11.173
mätt	-11.1731
behålla	-11.1748
aska	-11.1748
samme	-11.1753
lämnat	-11.1757
våg	-11.1759
tjänar	-11.176
själar	-11.1779
jesaja	-11.1785
ädla	-11.1785
gräv	-11.1785
talenter	-11.1786
simson	-11.1786
offergärd	-11.1786
hamat	-11.1789
stjärnorna	-11.179
begå	-11.1792
tronen	-11.1796
behöva	-11.1802
allting	-11.1804
nitälskan	-11.1805
pil	-11.1805
höjder	-11.1806
aktar	-11.1807
tiondedel	-11.1809
redlig	-11.1814
avdelningar	-11.1816
längd	-11.1824
härskara	-11.1826
fattig	-11.1829
mus	-11.1831
förtorka	-11.1835
klädde	-11.1836
åttio	-11.1841
förströ	-11.1845
väduren	-11.1852
hu	-11.1854
abba	-11.1881
brunnen	-11.1889
städe	-11.189
förfölja	-11.1894
bergsbygden	-11.1895
spis	-11.1895
underbar	-11.1895
uppenbarade	-11.1901
stenen	-11.1903
merari	-11.1923
lju	-11.1939
löv	-11.1954
ing	-11.1964
junga	-11.1973
kall	-11.1986
ohelga	-11.1987
åtto	-11.2005
teckna	-11.2036
löften	-11.2041
miss	-11.2042
borde	-11.2042
hesbon	-11.2048
plötslig	-11.2048
femton	-11.2049
kungör	-11.2049
anklaga	-11.2052
yck	-11.2053
begjut	-11.2053
apostlarna	-11.2055
tredjedel	-11.2061
åkern	-11.2072
gudstjänst	-11.2073
efoden	-11.2073
förståndig	-11.2078
kain	-11.208
lys	-11.2087
svarar	-11.2099
måst	-11.2102
snara	-11.2105
lyste	-11.2109
förgjorde	-11.2125
frälsare	-11.2126
slaktade	-11.2153
uppfylla	-11.2154
ram	-11.2157
klaga	-11.216
älsk	-11.2176
färda	-11.2186
utbred	-11.2197
böner	-11.2215
pen	-11.2216
ungtjur	-11.2221
log	-11.2222
svär	-11.2225
förstör	-11.223
förvandla	-11.2253
person	-11.2268
assur	-11.2275
husfolk	-11.228
fira	-11.2289
överträdelse	-11.2301
teckne	-11.2303
hedningar	-11.2306
kaleb	-11.2319
äktenskapsbrott	-11.2319
adoni	-11.2319
famn	-11.2319
tjänstekvinna	-11.2319
satan	-11.2319
uppenbar	-11.232
yngre	-11.232
betyga	-11.232
trygghet	-11.2321
förordna	-11.2323
byggnad	-11.2323
fränder	-11.2326
värn	-11.2336
ahasja	-11.2341
anslag	-11.2351
trogna	-11.2368
torn	-11.2382
falska	-11.2382
sjung	-11.2386
begärde	-11.2399
lin	-11.2431
by	-11.2446
besvär	-11.2494
kalv	-11.2504
tjän	-11.2512
fråg	-11.2526
lem	-11.2536
dda	-11.2544
avdelning	-11.2563
kull	-11.2572
märkt	-11.2576
herdar	-11.2584
buga	-11.2597
sydlandet	-11.2597
trång	-11.2597
vänster	-11.2597
lemmar	-11.2597
svur	-11.2597
förklara	-11.2597
egendom	-11.2599
livklädnad	-11.2599
andlig	-11.2601
flickan	-11.2602
fordom	-11.2602
förskräcka	-11.2604
mängd	-11.2605
visdom	-11.2607
strå	-11.2608
räkning	-11.2608
sib	-11.2614
bott	-11.2619
safan	-11.2625
fienden	-11.2627
fäll	-11.2634
sua	-11.2635
hörsamma	-11.2635
purpurrö	-11.2642
yttr	-11.2642
ling	-11.2652
riklig	-11.2661
märke	-11.2666
dyrka	-11.2675
kammare	-11.2683
abas	-11.269
tak	-11.2691
högtids	-11.2737
släpp	-11.2743
kare	-11.2749
sjunk	-11.2769
villig	-11.2783
lustgård	-11.2795
höre	-11.2806
skaka	-11.2807
oxe	-11.2869
fräls	-11.2872
barmhärtig	-11.2879
kehat	-11.2882
fromma	-11.2882
häda	-11.2882
tabernakel	-11.2882
maaka	-11.2882
förneka	-11.2883
ändar	-11.2884
vilddjuret	-11.2887
sabbatsdag	-11.2889
sidon	-11.2893
pant	-11.2893
förhäv	-11.2897
cederträ	-11.29
andarna	-11.2901
dagg	-11.2902
anda	-11.2906
böjde	-11.2916
fötterna	-11.2945
trolösa	-11.2948
grepo	-11.2961
vild	-11.2964
ehas	-11.2986
härliga	-11.2999
fåfänglig	-11.3003
boken	-11.3011
ahi	-11.3022
utgöra	-11.3029
saml	-11.3044
sälja	-11.3053
borg	-11.3057
betala	-11.306
mist	-11.3065
slätt	-11.3065
verka	-11.3069
bat	-11.3102
sihon	-11.3111
skicka	-11.3112
ört	-11.3133
knorr	-11.3134
dyrbar	-11.314
sera	-11.3141
skålar	-11.3171
häst	-11.3171
portarna	-11.3172
fästa	-11.3172
ständig	-11.3173
bräder	-11.3176
hilkia	-11.3176
vrång	-11.3176
ägodelar	-11.3176
rosenrö	-11.3176
molnskyn	-11.3177
stolpar	-11.3177
tillbörlig	-11.3177
tårar	-11.3179
möta	-11.3185
uttydning	-11.3198
dalja	-11.3199
pel	-11.3205
baner	-11.321
ppa	-11.3217
stigar	-11.3222
vita	-11.3224
tjuv	-11.3225
sköldar	-11.3235
kära	-11.3246
lyssnade	-11.3249
saken	-11.3254
äkta	-11.3276
befallde	-11.3289
oomskurna	-11.3292
olyckan	-11.3292
utvalde	-11.3306
trog	-11.3308
synt	-11.3317
tränga	-11.3326
baals	-11.3356
rygg	-11.3374
törst	-11.338
upptag	-11.3393
käre	-11.3394
elam	-11.3412
jer	-11.3421
pu	-11.3431
fisk	-11.3434
nöden	-11.3435
begrava	-11.3438
ödra	-11.3466
sjö	-11.347
ägde	-11.3475
visheten	-11.3478
gräshoppor	-11.3479
lampor	-11.3479
nebukadressar	-11.3479
skaffen	-11.3479
aderton	-11.3479
grotta	-11.3479
fostra	-11.348
frat	-11.348
föräldrar	-11.348
johanan	-11.348
frivillig	-11.348
övertäck	-11.3481
fresta	-11.3482
gröda	-11.3483
bryter	-11.3497
efterkommande	-11.3499
änkor	-11.3503
flytt	-11.3507
skilje	-11.3508
oförnuftig	-11.3511
dyrbara	-11.3518
uppenbarelse	-11.3518
tillslut	-11.3527
talrik	-11.3543
nå	-11.3547
bon	-11.3567
gråta	-11.3572
häls	-11.3572
foga	-11.3593
platser	-11.3594
köpt	-11.3594
upptecknade	-11.3602
ött	-11.3623
binda	-11.363
uja	-11.3631
ensam	-11.3636
arter	-11.3642
skrifter	-11.3655
arma	-11.3655
besatt	-11.3656
månen	-11.3665
hetta	-11.3675
förakt	-11.3703
räddat	-11.3711
tröstar	-11.3715
hanan	-11.3719
begära	-11.3723
sålde	-11.3755
é	-11.3771
pryd	-11.3791
djävulen	-11.3792
rebecka	-11.3792
motståndare	-11.3792
möjlig	-11.3792
girig	-11.3792
fullkomlig	-11.3792
himmelriket	-11.3792
sorgdräkt	-11.3792
krans	-11.3792
darra	-11.3792
betänk	-11.3795
kakor	-11.3796
skyn	-11.3802
öppning	-11.3805
upphöjd	-11.3811
änglarna	-11.3816
bada	-11.3829
längta	-11.3831
länderna	-11.3832
väggen	-11.3845
knän	-11.3853
aktat	-11.3864
förgäta	-11.3867
ela	-11.3874
gravar	-11.388
förbida	-11.3892
unnit	-11.3897
fylla	-11.3903
norra	-11.3928
stöta	-11.3934
sökt	-11.3944
soba	-11.3946
avstånd	-11.3953
rab	-11.3977
skria	-11.4001
uträckt	-11.4001
synagoga	-11.4002
yngling	-11.4003
rusta	-11.4006
förståndiga	-11.4011
lärare	-11.4021
stum	-11.4021
vero	-11.4025
abia	-11.4027
hänga	-11.4027
rikt	-11.4049
redliga	-11.4052
snö	-11.4057
helg	-11.4058
glädjen	-11.4062
flyt	-11.4065
ägare	-11.4072
högmod	-11.4075
dölj	-11.4081
förstån	-11.4081
liknelse	-11.4096
hemsökelse	-11.4098
klar	-11.4101
överstepräst	-11.4101
källa	-11.4105
förödelse	-11.4114
säker	-11.4114
tillsyningsmän	-11.4114
täckelse	-11.4114
stötesten	-11.4115
påskhögtid	-11.4115
brud	-11.4115
dubbel	-11.4115
sköka	-11.4116
avfällighet	-11.4116
abel	-11.4117
träldom	-11.4122
damm	-11.4125
gräset	-11.4125
jämra	-11.4127
ådrag	-11.4128
spets	-11.4129
förtälja	-11.4132
gudarna	-11.4174
efterfölj	-11.418
saret	-11.4182
tillbåd	-11.4187
högre	-11.4187
stränga	-11.419
vård	-11.4218
höghelig	-11.422
känd	-11.422
bespottar	-11.4273
locka	-11.4279
uppehåll	-11.428
hustrun	-11.4282
dåre	-11.4287
hasta	-11.4302
familj	-11.4311
förgä	-11.4311
dåren	-11.4315
x	-11.4341
sabbater	-11.4345
förstöra	-11.4361
sol	-11.4377
kän	-11.4381
döpa	-11.4383
sjukdom	-11.4409
finge	-11.4435
gry	-11.4435
kul	-11.4436
smörj	-11.4447
ämbete	-11.4448
ebjatar	-11.4448
hungrig	-11.4448
jefta	-11.4448
karmel	-11.4448
vederkvick	-11.4448
vattnen	-11.4448
dåraktig	-11.4448
beskärm	-11.4448
dräkt	-11.4448
betyda	-11.4448
lögnaktig	-11.4448
mild	-11.4449
vattna	-11.445
berömmelse	-11.445
skuldoffer	-11.4451
insikt	-11.4451
orenlighet	-11.4451
tillstadde	-11.4453
sångarna	-11.4454
samvete	-11.4455
årsgam	-11.4456
spän	-11.4458
göt	-11.4459
förkunnar	-11.4462
avund	-11.4467
vanlig	-11.447
jungfrur	-11.4475
räddar	-11.4479
gerson	-11.448
kades	-11.4486
drive	-11.4492
liggande	-11.4499
löpa	-11.4509
fest	-11.4524
obed	-11.4536
fruktsam	-11.4552
släppt	-11.4569
skapade	-11.459
jona	-11.4592
öppe	-11.4592
spänn	-11.4609
finger	-11.4616
akten	-11.4657
förtörna	-11.4681
vunn	-11.4696
bosatt	-11.4696
sorge	-11.4712
förste	-11.4713
fästen	-11.4738
begåv	-11.4755
kon	-11.4757
gap	-11.4775
silv	-11.4778
gård	-11.4778
amalek	-11.4792
hallel	-11.4793
tacksägelse	-11.4793
förgänglig	-11.4793
kedjor	-11.4793
lyckosam	-11.4793
terebint	-11.4793
brokig	-11.4793
▁----	-11.4793
uppsluka	-11.4793
bojor	-11.4793
dårskap	-11.4793
skicklig	-11.4793
göd	-11.4793
ömka	-11.4793
åstunda	-11.4794
njuta	-11.4794
räddning	-11.4795
skrivelse	-11.4798
hananja	-11.4802
kryddor	-11.4802
pund	-11.4803
brott	-11.4805
fäderne	-11.4805
godhet	-11.4806
skydd	-11.4818
gjuta	-11.4843
vistade	-11.4847
personer	-11.4859
ionde	-11.486
häng	-11.4867
lagd	-11.4887
esra	-11.49
röd	-11.4907
störtade	-11.4921
svaga	-11.4922
psaltar	-11.4925
sälj	-11.494
högtiden	-11.4941
breda	-11.4951
uppbygg	-11.4958
predikade	-11.4991
förjaga	-11.5006
ighet	-11.5008
bryt	-11.5017
sköna	-11.5023
unge	-11.5032
befäst	-11.5058
hjorden	-11.5077
hednafolk	-11.5081
flod	-11.5083
fruktansvärd	-11.5096
utrotade	-11.5101
take	-11.5101
sido	-11.512
budbärare	-11.5122
tarsis	-11.515
akacieträ	-11.515
bespeja	-11.515
ivrig	-11.515
trumpeter	-11.515
assyrisk	-11.515
brudgum	-11.515
gamle	-11.515
kejsaren	-11.515
faderlöse	-11.515
plågor	-11.515
baesa	-11.515
sköko	-11.515
jebuséerna	-11.515
delaktig	-11.5151
vredga	-11.5151
ussia	-11.5151
grönska	-11.5152
avfall	-11.5153
sekreteraren	-11.5153
vilddjur	-11.5156
bedrev	-11.5158
ljuda	-11.5159
elände	-11.5161
anska	-11.5163
havs	-11.5164
bleve	-11.5165
jok	-11.5166
esai	-11.5167
hemsökelsen	-11.5169
allra	-11.5177
drömmen	-11.5184
druvor	-11.5184
bekänn	-11.5189
förtäljde	-11.5189
vandr	-11.5196
riktig	-11.5202
basuner	-11.5206
naken	-11.5212
törnen	-11.5219
stridsmän	-11.5223
offr	-11.5231
sist	-11.5241
fängelset	-11.525
kyss	-11.5272
hål	-11.5282
baka	-11.5292
rygga	-11.5294
intaga	-11.5307
sköte	-11.5309
summa	-11.5348
borgare	-11.5362
salig	-11.5367
värd	-11.537
svag	-11.5383
klipp	-11.5385
stängd	-11.5386
syssl	-11.5389
fördärvlig	-11.5413
meddela	-11.5414
upptänd	-11.5416
döpt	-11.5421
boa	-11.5442
begiv	-11.5453
överdrog	-11.5482
bedrövad	-11.5493
styrk	-11.5495
like	-11.5495
trygg	-11.5496
mörk	-11.5499
form	-11.5508
övermod	-11.5513
amnon	-11.552
hämna	-11.552
inälvor	-11.552
fyrfotadjur	-11.552
spärra	-11.552
olje	-11.552
sallum	-11.552
drömmar	-11.5521
glans	-11.5521
förstocka	-11.5521
sinnig	-11.5528
förföljare	-11.5529
skändlighet	-11.5531
kallad	-11.5535
kastar	-11.5539
hjältarna	-11.554
fångna	-11.5542
befallningar	-11.5543
spel	-11.5543
högtider	-11.5549
andan	-11.5563
talrika	-11.5589
upphöja	-11.5607
skörden	-11.5634
bävan	-11.5637
rädd	-11.5643
sif	-11.5669
svärja	-11.5675
ungar	-11.568
samlat	-11.5681
hänt	-11.5685
sakna	-11.5688
vinner	-11.5699
räk	-11.5701
penning	-11.5709
profeterade	-11.5728
trädet	-11.5783
dia	-11.5784
överdrag	-11.5796
håg	-11.5826
fånge	-11.5828
dana	-11.5828
beläte	-11.583
tvist	-11.5847
ormen	-11.585
fäderna	-11.5857
sucka	-11.5866
läst	-11.5881
olyck	-11.5884
förtörnade	-11.5889
begärelse	-11.5889
frälsar	-11.5891
legat	-11.5899
fikon	-11.59
kvarleva	-11.5902
bälte	-11.5905
hagel	-11.5905
hjälte	-11.5905
nådastolen	-11.5905
smädelse	-11.5905
stjäl	-11.5905
njurar	-11.5905
utkräva	-11.5905
förmörka	-11.5905
skott	-11.5905
strömma	-11.5906
seruja	-11.5906
kränk	-11.5906
ordspråk	-11.5907
svärfader	-11.591
semes	-11.591
hövdingarna	-11.5913
understöd	-11.5913
församlingarna	-11.5914
stormvind	-11.5919
herdarna	-11.5922
sprid	-11.5927
ammi	-11.5933
rak	-11.5933
bedröva	-11.5934
bedriva	-11.5937
filistéen	-11.5941
våga	-11.5944
offerhöjd	-11.5962
övergåvo	-11.5963
stång	-11.5965
fördold	-11.5971
kerub	-11.5975
skild	-11.5981
föder	-11.5981
kamrarna	-11.5988
förlita	-11.5995
förvilla	-11.6002
skogen	-11.6009
försåt	-11.6038
hemlig	-11.6041
utstå	-11.6044
trött	-11.608
skapare	-11.6086
fullbordat	-11.6105
tjur	-11.6119
grep	-11.6125
kalvar	-11.613
skjut	-11.6131
arbetare	-11.6133
ekron	-11.6172
ahia	-11.6181
syne	-11.6183
mos	-11.6185
stann	-11.6202
lasta	-11.6205
höjde	-11.6215
tycke	-11.6218
oförnuft	-11.6263
talet	-11.6269
saba	-11.6271
hövdingdöme	-11.6293
hövitsman	-11.6301
dråpare	-11.6302
frambär	-11.6303
tavlor	-11.6304
fikonträd	-11.6304
bröllop	-11.6305
mesullam	-11.6305
plundring	-11.6305
vux	-11.6305
berättelse	-11.6305
förgrymmelse	-11.6305
misskund	-11.6305
rimmon	-11.6305
samarien	-11.6305
arnon	-11.6305
äventyr	-11.6305
betalning	-11.6305
harpor	-11.6305
uträcka	-11.6305
tackoffret	-11.6305
åkrar	-11.6305
darej	-11.6306
nebat	-11.6306
▁';	-11.6307
ståndaktighet	-11.6307
förmådde	-11.6308
skipa	-11.6308
bönhör	-11.6311
inseg	-11.6312
seraja	-11.6315
gran	-11.6323
hårda	-11.6325
marja	-11.6325
helgedomssik	-11.6327
hetiterna	-11.6328
läste	-11.633
väsendena	-11.6337
dölja	-11.6349
pelare	-11.6353
veder	-11.6362
amon	-11.6366
list	-11.6372
ikläd	-11.638
hednafolken	-11.6382
trötta	-11.639
skri	-11.6392
behövde	-11.6408
anak	-11.643
ynglingar	-11.6445
kel	-11.6454
kvarlevan	-11.6455
hur	-11.6478
betjäna	-11.6488
långa	-11.6491
korg	-11.6499
laki	-11.6501
överlämnade	-11.652
utropa	-11.6535
skuren	-11.6537
myck	-11.6548
nam	-11.6549
väktar	-11.6621
tvag	-11.6656
fas	-11.6677
altar	-11.669
upphäv	-11.6695
israeliter	-11.6712
skägg	-11.6721
läsa	-11.6721
majestät	-11.6721
viftoffer	-11.6721
tretton	-11.6721
härbärge	-11.6721
jotam	-11.6721
klagorop	-11.6721
middag	-11.6721
bommar	-11.6721
sexton	-11.6721
asdod	-11.6721
drack	-11.6721
nittio	-11.6722
spira	-11.6722
himmelska	-11.6722
uppväckt	-11.6723
ohol	-11.6723
natur	-11.6724
spott	-11.6726
feta	-11.6726
press	-11.6728
uppsikt	-11.6728
underhövitsmän	-11.6729
rådslag	-11.6735
torg	-11.674
flöda	-11.674
smaka	-11.6742
fördärvet	-11.6745
nadab	-11.6747
upphäva	-11.6755
kniv	-11.6765
skuggan	-11.6767
köpte	-11.677
don	-11.6771
noga	-11.6773
tröskel	-11.6792
egla	-11.6811
synagogor	-11.682
arme	-11.684
gera	-11.6853
fattat	-11.6889
ljug	-11.689
lej	-11.6892
hövdingen	-11.69
lagar	-11.6911
dräp	-11.6924
förkunn	-11.693
ståthållare	-11.6958
döp	-11.6962
dömen	-11.697
bind	-11.6971
spår	-11.7
vårda	-11.7
harpa	-11.7002
siare	-11.7004
dömd	-11.7014
vilda	-11.7018
rinna	-11.7026
aseror	-11.7034
hängde	-11.7038
fälla	-11.7095
bägare	-11.7098
nasir	-11.7108
rening	-11.711
ström	-11.7117
blicka	-11.713
tål	-11.7132
vilo	-11.7135
begynnelse	-11.7148
dörrvaktarna	-11.7156
fönstre	-11.7156
hebreisk	-11.7156
egyptisk	-11.7156
gomorra	-11.7156
killing	-11.7156
maaseja	-11.7156
näpst	-11.7156
2	-11.7156
saktmod	-11.7156
tillspillogiv	-11.7156
makir	-11.7157
tjock	-11.7157
kungjor	-11.7157
besinna	-11.7158
arbets	-11.7159
hasael	-11.7159
susan	-11.7161
mattan	-11.7161
höljd	-11.7162
hiram	-11.7163
rådslut	-11.7164
kuva	-11.7165
fågeln	-11.7171
bedrivit	-11.7171
ledning	-11.7172
utfärda	-11.7175
strömmen	-11.7175
efer	-11.7175
utseende	-11.7179
övermäktiga	-11.7179
kol	-11.7184
tiga	-11.7186
omstörta	-11.7186
uttyd	-11.7187
nere	-11.7195
uppväckte	-11.7197
förfärdiga	-11.7208
rull	-11.7209
torra	-11.7211
högmodig	-11.7216
bedraga	-11.7229
efes	-11.7238
vägg	-11.7262
borgen	-11.7263
förvandlade	-11.7264
lyfta	-11.7294
sommar	-11.7302
bida	-11.7307
sysslor	-11.7313
måtte	-11.7325
hemsökt	-11.7329
vaktar	-11.7351
församlat	-11.7367
bilder	-11.7381
ebed	-11.74
gränser	-11.7403
stadig	-11.7409
spill	-11.745
omskurna	-11.7464
kiv	-11.7489
minne	-11.7498
kast	-11.751
framsida	-11.7528
våder	-11.7532
rid	-11.7534
bruk	-11.7542
likadan	-11.7553
druv	-11.7567
regna	-11.7576
förfärad	-11.7587
egyptier	-11.7595
fågel	-11.7596
ståndaktig	-11.7608
befäl	-11.7609
förvirring	-11.7611
macedonien	-11.7611
näsa	-11.7611
perisséerna	-11.7611
serubbabel	-11.7611
grundvalar	-11.7611
hungra	-11.7611
åsninna	-11.7611
nabal	-11.7611
våning	-11.7611
tjänarinnor	-11.7611
ersättning	-11.7611
peres	-11.7611
påskalamme	-11.7611
mötte	-11.7611
smörjelseolja	-11.7611
nabot	-11.7612
amalekiterna	-11.7612
bokrulle	-11.7612
begrunda	-11.7612
redskap	-11.7612
leviten	-11.7612
skrymt	-11.7613
lydnad	-11.7614
elva	-11.7615
bakhåll	-11.7617
blodskuld	-11.7619
adam	-11.7621
keruber	-11.7622
skeppet	-11.7626
källan	-11.7627
lasar	-11.7629
frihet	-11.763
gasa	-11.7632
begärelser	-11.7633
vedergällning	-11.7633
antända	-11.7635
konungadömet	-11.764
lejonet	-11.7644
stadsporten	-11.7644
kind	-11.7649
föreståndare	-11.765
väldige	-11.7655
åkallan	-11.7663
hjälpare	-11.7671
orolig	-11.7673
konungslig	-11.768
märka	-11.7693
låna	-11.7701
flyga	-11.7718
fördrev	-11.7724
förståndige	-11.7734
tvinna	-11.7736
anskaffa	-11.774
vänlig	-11.7754
lek	-11.7773
uppmana	-11.7777
ståthållar	-11.7823
trädgård	-11.7846
krigsfolk	-11.7853
bespotta	-11.7856
slakt	-11.7866
utbr	-11.7868
ödelagd	-11.7904
syra	-11.7918
hemfall	-11.7933
geba	-11.7934
kaka	-11.7953
våd	-11.8007
mu	-11.8024
företag	-11.8029
sädes	-11.8032
handfyllning	-11.8041
had	-11.8041
bortförd	-11.8043
riva	-11.8049
lup	-11.8072
bihustru	-11.8074
leviter	-11.8074
äldr	-11.8086
äktenskapsbryt	-11.8087
apostel	-11.8087
cypress	-11.8087
häftig	-11.8087
isebel	-11.8087
nilfloden	-11.8087
rämna	-11.8087
släcka	-11.8087
vånda	-11.8087
arvslott	-11.8087
kruka	-11.8087
käpp	-11.8087
ouppsåtlig	-11.8087
persien	-11.8087
sammankomst	-11.8087
töck	-11.8087
ypperst	-11.8087
0	-11.8087
vapendragare	-11.8087
knapp	-11.8087
orättrådig	-11.8087
genomborra	-11.8087
vifta	-11.8087
elkana	-11.8087
kunglig	-11.8087
yngste	-11.8087
timna	-11.8087
årsgammal	-11.8088
noomi	-11.8088
horon	-11.8088
krok	-11.8088
slöj	-11.8088
bygd	-11.8088
sisera	-11.8089
amasa	-11.8089
hån	-11.8089
övertäckte	-11.8089
vaken	-11.809
tungor	-11.8091
slet	-11.8093
hasor	-11.8094
ostrafflighet	-11.8094
troende	-11.8098
eliab	-11.8098
fåkunnig	-11.8099
kvist	-11.81
kämpar	-11.8101
hövdingdömen	-11.8102
starkhet	-11.8105
förskjut	-11.8106
vanära	-11.8108
rättvisa	-11.8109
joel	-11.8109
försvinna	-11.811
uppväcka	-11.8113
kriget	-11.8114
fruktsamma	-11.8118
härskarorna	-11.8119
dödad	-11.8123
framställde	-11.8124
kia	-11.8125
bedrag	-11.8125
hjulen	-11.8149
förfärade	-11.8153
pall	-11.8154
hästarna	-11.8169
drycker	-11.8188
jämn	-11.8195
tera	-11.8227
trofast	-11.8242
gifta	-11.8268
skända	-11.8281
funne	-11.8297
bete	-11.8306
panna	-11.8311
brodern	-11.8365
strål	-11.8371
flöde	-11.8387
murpelar	-11.8389
lid	-11.8479
lärjunge	-11.8486
knä	-11.8489
törne	-11.8493
arbeten	-11.8506
rumme	-11.8513
strö	-11.8523
inbärga	-11.8534
kem	-11.8543
vissna	-11.8545
hurudan	-11.8551
assar	-11.857
skändlig	-11.8576
invig	-11.8576
källor	-11.8585
fariséer	-11.8586
fönster	-11.8587
släktregist	-11.8587
ahitofel	-11.8587
anatot	-11.8587
bröstskölden	-11.8587
bädd	-11.8587
glöm	-11.8587
hesron	-11.8587
hivéerna	-11.8587
hundarna	-11.8587
sammansvärjning	-11.8587
sannfärdig	-11.8587
netanja	-11.8587
klagosång	-11.8587
stappla	-11.8587
surdeg	-11.8587
kräv	-11.8587
mutor	-11.8587
ahikam	-11.8587
tidsålder	-11.8587
ninev	-11.8587
simri	-11.8587
tjänarna	-11.8587
tyckte	-11.8587
varelser	-11.8587
tillkommelse	-11.8587
halm	-11.8588
levitisk	-11.8588
obadja	-11.8588
seglade	-11.8589
fängsla	-11.8589
plocka	-11.859
härskri	-11.8591
livsdagar	-11.8593
irsa	-11.8594
smord	-11.8595
skyarna	-11.8596
sake	-11.8597
befria	-11.86
telning	-11.86
himlarna	-11.8603
fyrfat	-11.8604
tröskplats	-11.8612
ceder	-11.8612
sådde	-11.8612
oxen	-11.8613
köttslig	-11.8615
strödd	-11.8617
jämmer	-11.862
melek	-11.8626
rökelsen	-11.8633
vedermöda	-11.8642
stol	-11.8645
låde	-11.8645
förlid	-11.8647
lider	-11.865
härska	-11.8655
lagbok	-11.8664
återstod	-11.8667
övermodig	-11.8669
ljungeldar	-11.8674
tornet	-11.8733
hölja	-11.8767
krigsmän	-11.8774
mening	-11.878
spetälsk	-11.879
brute	-11.8797
mir	-11.8812
oomskure	-11.8815
föraktar	-11.8842
fåfäng	-11.8867
färde	-11.8876
mag	-11.888
fröjde	-11.8896
kastad	-11.8926
kysst	-11.897
vinge	-11.8971
lev	-11.8987
ku	-11.9004
bevis	-11.9009
hjul	-11.9044
iver	-11.9046
föreståndar	-11.9068
härskaror	-11.9086
kenas	-11.9088
ogärningsmän	-11.9113
blommor	-11.9113
hårdnacka	-11.9113
jearim	-11.9113
jordbävning	-11.9113
krukmakar	-11.9113
lampa	-11.9113
libna	-11.9113
lystnad	-11.9113
morgonrodnaden	-11.9113
skördetiden	-11.9113
suckot	-11.9113
systrar	-11.9113
hårdhet	-11.9113
cedrar	-11.9113
utsaga	-11.9113
rådsherrar	-11.9113
fördrivna	-11.9113
åklagare	-11.9113
nordlandet	-11.9113
smörjelse	-11.9114
prydnad	-11.9114
abisai	-11.9114
gläns	-11.9114
syndoffret	-11.9115
landsmän	-11.9117
orygglig	-11.9117
förlåtelse	-11.9119
skönhet	-11.912
vältra	-11.912
förfäran	-11.9121
moabiterna	-11.9121
klokhet	-11.9121
skarp	-11.9124
lugn	-11.9125
värte	-11.9126
lydig	-11.913
utgöt	-11.913
josa	-11.9131
asien	-11.9132
förrådshus	-11.9134
manskap	-11.9138
rötter	-11.9162
därovan	-11.9195
jubl	-11.9202
angrep	-11.9208
befäste	-11.9214
palmer	-11.9225
koka	-11.9231
bereder	-11.9235
vista	-11.9238
gårdarna	-11.9253
ryk	-11.9255
förlossare	-11.9268
bil	-11.9289
besök	-11.9293
gömd	-11.9308
förtryckare	-11.9338
leka	-11.934
reser	-11.9342
närmar	-11.9347
öpp	-11.9369
tempelkamrar	-11.9419
flyta	-11.9472
förtrycka	-11.9528
skilde	-11.9532
erska	-11.9538
väggar	-11.9548
palm	-11.9553
kam	-11.9563
löp	-11.9566
avskil	-11.9577
spela	-11.958
frambur	-11.9608
vack	-11.9611
himlar	-11.9625
gröna	-11.9626
nitälska	-11.9638
övrig	-11.9641
hala	-11.9641
apostlar	-11.9655
ostraffad	-11.966
avfällig	-11.9667
töm	-11.9668
belägring	-11.9669
kräldjur	-11.9669
ruiner	-11.9669
skillnad	-11.9669
tillrättavisning	-11.9669
▁'?»	-11.9669
instrument	-11.9669
kegila	-11.9669
tobia	-11.9669
förnumm	-11.9669
försagd	-11.9669
späd	-11.9669
landshövdingen	-11.9669
fogdar	-11.9669
doppa	-11.9669
maskar	-11.9669
förändra	-11.967
fullkomna	-11.967
app	-11.967
uppror	-11.967
förödd	-11.967
hasab	-11.967
nätter	-11.967
asael	-11.9671
svärmoder	-11.9671
förhänge	-11.9676
beröva	-11.9681
röj	-11.9682
misshaga	-11.9686
yng	-11.9686
svaghet	-11.9688
infria	-11.9688
getter	-11.9689
kammaren	-11.9693
nahor	-11.9693
avkastning	-11.9695
parti	-11.9698
regnet	-11.9699
låglandet	-11.97
landshövdingar	-11.97
liknelser	-11.9701
fastställ	-11.9709
murarna	-11.9719
gest	-11.9724
plöj	-11.9747
gjord	-11.9755
gog	-11.9773
brand	-11.9774
orsak	-11.9781
älskare	-11.9783
vägra	-11.9787
helgad	-11.9796
förvissna	-11.9799
aksa	-11.9801
ajot	-11.9811
manoa	-11.9813
styr	-11.9832
skilt	-11.9838
härskare	-11.9856
förtörnad	-11.9876
törsta	-11.9888
elifa	-11.9909
rövare	-11.991
olivträd	-11.994
hagar	-11.9951
bäckar	-11.9975
jubelår	-11.9979
begynt	-11.9992
salm	-12.0005
väktare	-12.0084
drar	-12.0085
söt	-12.0112
ex	-12.0132
förtälj	-12.0159
skäl	-12.019
empel	-12.0213
kastning	-12.0231
mönstrade	-12.0251
löje	-12.0256
jakim	-12.0257
väder	-12.0257
cymbal	-12.0257
dörrpost	-12.0257
blomster	-12.0257
böljor	-12.0257
horeb	-12.0257
omskärelse	-12.0257
rytande	-12.0257
skonsamhet	-12.0257
eljasib	-12.0257
etiopien	-12.0257
oavlåtlig	-12.0257
skådebröd	-12.0257
rekab	-12.0257
tempelsalen	-12.0257
skölj	-12.0257
tordön	-12.0257
långmodig	-12.0257
inföding	-12.0257
uthärda	-12.0257
ussiel	-12.0257
ahimelek	-12.0257
endräktig	-12.0257
havsländerna	-12.0257
levnad	-12.0257
sänkt	-12.0257
atalja	-12.0257
grannar	-12.0257
vävnad	-12.0258
rabbi	-12.0258
▁?»,	-12.0258
försvunn	-12.0258
sikel	-12.0258
mulåsn	-12.0258
baalerna	-12.026
naaman	-12.0261
bekant	-12.0262
elisama	-12.0263
falskhet	-12.0264
gryta	-12.0281
etiopiern	-12.0281
bihustrur	-12.0282
törstig	-12.0285
grön	-12.0298
styra	-12.0314
mäta	-12.0324
nyttig	-12.033
greker	-12.0346
bras	-12.0354
sjukdomar	-12.0357
betesmarker	-12.0371
heman	-12.0384
gasell	-12.0399
gårdar	-12.0405
dyr	-12.0413
ormar	-12.0413
förmaning	-12.0433
våldsam	-12.0437
väsen	-12.0454
spring	-12.0459
funn	-12.046
leta	-12.046
bäck	-12.0492
angripn	-12.0519
skåd	-12.0524
övr	-12.0525
urim	-12.0562
mång	-12.0575
aktig	-12.059
tröska	-12.0592
doft	-12.0596
tuktig	-12.0623
föd	-12.0655
barm	-12.0656
axel	-12.0667
avkomling	-12.0676
almon	-12.0741
lån	-12.0754
ahima	-12.076
purpur	-12.0779
slipp	-12.0822
skurna	-12.084
pröv	-12.0856
kämpa	-12.0864
uppenbarad	-12.0865
stjärnor	-12.0871
granatäpplen	-12.0878
lyte	-12.0879
frestelse	-12.0882
läglar	-12.0882
myrra	-12.0882
styggelig	-12.0882
åsninnor	-12.0882
pansar	-12.0882
rehob	-12.0882
huvudbindel	-12.0882
nebusa	-12.0882
stift	-12.0882
vräng	-12.0882
tillförsikt	-12.0882
landsflykt	-12.0882
malkia	-12.0882
jefunne	-12.0883
boskapsdjur	-12.0883
korset	-12.0883
hagg	-12.0883
betrakta	-12.0883
amram	-12.0883
förföljelse	-12.0885
nätverk	-12.0886
rubeniterna	-12.0886
gudabild	-12.0886
störste	-12.0887
aperna	-12.0887
pärl	-12.0888
skorv	-12.0889
gömma	-12.0889
fikonträdet	-12.0892
uppehöll	-12.0894
trälinna	-12.0895
nedbrut	-12.0898
bedriv	-12.0899
farbroder	-12.09
aroer	-12.0908
fångarna	-12.092
ibla	-12.0924
kumm	-12.0929
publikaner	-12.0932
förskräcke	-12.0932
trängta	-12.0935
ussa	-12.0939
ljas	-12.096
bägar	-12.0971
profetisk	-12.0991
förstörd	-12.1011
lärjung	-12.1011
elon	-12.1024
fru	-12.1028
härhövitsman	-12.1033
lyssn	-12.1034
abiga	-12.1045
fordra	-12.108
lapp	-12.1109
kläde	-12.1157
barak	-12.1161
irra	-12.1205
huggorm	-12.129
lå	-12.1315
bräck	-12.1377
ång	-12.1387
trots	-12.1398
annar	-12.1437
konungadöme	-12.1508
överlämnad	-12.1516
frände	-12.1531
uppbyggd	-12.1531
kamrar	-12.1536
ugnad	-12.1541
plant	-12.1548
trolldom	-12.1549
fyrkant	-12.1549
förlossning	-12.1549
landsbygden	-12.1549
planer	-12.1549
rafaéerna	-12.1549
rannsakning	-12.1549
tvärstänger	-12.1549
ädlingar	-12.1549
återhållsamhet	-12.1549
östanvind	-12.1549
artasasta	-12.1549
björn	-12.1549
hermon	-12.1549
jedutun	-12.1549
jehiel	-12.1549
mefiboset	-12.1549
sanherib	-12.1549
sjutton	-12.1549
sadrak	-12.1549
slockna	-12.1549
ahitub	-12.1549
klövar	-12.1549
peor	-12.1549
drista	-12.1549
besvärjare	-12.1549
snabba	-12.1549
trävirke	-12.1549
hebréerna	-12.1549
peka	-12.1549
krigshövitsmän	-12.1549
lud	-12.1549
sammansvur	-12.1549
fräcka	-12.155
ogärningsmännen	-12.155
jonadab	-12.155
domstol	-12.155
elieser	-12.155
tillrättavisa	-12.155
grymma	-12.1551
omhängen	-12.1551
döparen	-12.1551
uppegga	-12.1551
vänskap	-12.1551
förvaltare	-12.1551
hosea	-12.1551
beria	-12.1554
fingrar	-12.1554
mikael	-12.1556
spåmännen	-12.1556
bestämma	-12.1557
klätt	-12.1558
betryckte	-12.1558
mesak	-12.1558
förborga	-12.1559
utrannsaka	-12.1559
bildstod	-12.1561
sanna	-12.1561
pelet	-12.1562
vass	-12.1564
giel	-12.1566
svans	-12.1566
romersk	-12.1567
hjälpte	-12.1568
behandla	-12.1569
bäckenställe	-12.1569
församlingar	-12.1574
nego	-12.1577
gemensam	-12.1577
sträcke	-12.1581
dråpar	-12.1591
stul	-12.1592
hemsök	-12.1593
överträdar	-12.1615
suckan	-12.1617
bistå	-12.162
avsomna	-12.1639
lägerplats	-12.1685
renar	-12.1688
snöre	-12.1707
värdighet	-12.1708
trösk	-12.1717
skattkamrar	-12.1723
flykting	-12.1767
pann	-12.1783
luta	-12.1819
åkerstycke	-12.1823
fylles	-12.1846
golv	-12.1876
ebråd	-12.1941
kraftig	-12.1971
gol	-12.1981
hämt	-12.202
kamel	-12.2075
jair	-12.209
ogudaktig	-12.2093
befinn	-12.2134
filisté	-12.2194
efod	-12.2195
ania	-12.2204
grå	-12.2205
lycklig	-12.2224
förstfödd	-12.2241
ppe	-12.2248
rannsaka	-12.2252
skifta	-12.2252
krön	-12.2261
skorpion	-12.2263
dryp	-12.2263
efron	-12.2263
eglon	-12.2263
främja	-12.2263
gäld	-12.2263
konstförfar	-12.2263
kämpe	-12.2263
luttra	-12.2263
mörda	-12.2263
netanel	-12.2263
paddor	-12.2263
sadducéer	-12.2263
skrud	-12.2263
skrämm	-12.2263
svavel	-12.2263
utsago	-12.2263
flöt	-12.2263
jerubbaal	-12.2263
ledsaga	-12.2263
skifte	-12.2263
tvivla	-12.2263
selemja	-12.2263
tekoa	-12.2263
bärgning	-12.2263
jishar	-12.2263
tärnor	-12.2263
draken	-12.2263
tegel	-12.2263
pliktig	-12.2263
mantlar	-12.2263
peda	-12.2263
spy	-12.2263
klappa	-12.2263
nederlag	-12.2264
dörrvaktare	-12.2264
debir	-12.2264
inrista	-12.2264
jeter	-12.2264
vinpress	-12.2265
midjaniterna	-12.2265
basunljud	-12.2265
slunga	-12.2265
skyar	-12.2266
bördiga	-12.2267
gaditerna	-12.2269
rankor	-12.2269
hota	-12.227
silverpenningar	-12.2273
guldsmed	-12.2274
sväng	-12.2277
aseran	-12.2282
flytning	-12.2284
spådom	-12.2289
dagsres	-12.2294
dagon	-12.23
timmermän	-12.2307
bärga	-12.231
träta	-12.2315
fjärdedel	-12.2316
tålig	-12.2324
vandring	-12.2343
safir	-12.2346
rådgiv	-12.2347
korgar	-12.2386
straffe	-12.2438
rättstjänar	-12.2443
häv	-12.2447
bördeman	-12.2483
sikt	-12.2576
upphängd	-12.2603
vindar	-12.2631
flyg	-12.2718
fortf	-12.2753
borgar	-12.2758
hasar	-12.2772
fog	-12.2775
läggning	-12.2841
silverskål	-12.2861
maheli	-12.2882
löjt	-12.2924
höve	-12.3004
offergåvor	-12.3006
farisé	-12.3011
flicka	-12.3016
▁!'	-12.303
trapp	-12.3032
askelon	-12.3032
barnaföderska	-12.3032
fläk	-12.3032
gemenskap	-12.3032
hinnoms	-12.3032
liljor	-12.3032
mätsnöre	-12.3032
schakaler	-12.3032
tempelträlarna	-12.3032
veckor	-12.3032
ynnest	-12.3032
begabba	-12.3032
elfenben	-12.3032
hjort	-12.3032
smälte	-12.3032
svämma	-12.3032
ymnig	-12.3032
gräm	-12.3032
härstamma	-12.3032
josadak	-12.3032
mikm	-12.3032
offergärdsområde	-12.3032
sidonierna	-12.3032
säcktyg	-12.3032
öglor	-12.3032
ertappa	-12.3032
jedaja	-12.3032
pashur	-12.3032
satraper	-12.3032
sefatja	-12.3032
fager	-12.3032
förläna	-12.3032
agag	-12.3032
byggningsmän	-12.3032
iddo	-12.3032
amminadab	-12.3032
midjanitisk	-12.3032
ofir	-12.3032
▁!»,	-12.3032
arameisk	-12.3032
begagna	-12.3032
föröda	-12.3033
abinadab	-12.3033
simea	-12.3033
nagel	-12.3033
lösaktig	-12.3033
födelse	-12.3033
signetring	-12.3034
yppa	-12.3034
konungatron	-12.3034
kehatiterna	-12.3034
vattenbäckar	-12.3035
ödmjukhet	-12.3035
vattenkällor	-12.3035
ålderdom	-12.3035
syndoffersbock	-12.3035
fettstycken	-12.3035
frö	-12.3037
allmos	-12.3037
israelitisk	-12.3038
femtedel	-12.3039
ödelägga	-12.3039
ansedd	-12.304
sebul	-12.304
bördes	-12.3041
bytt	-12.3046
hamor	-12.3046
invigning	-12.3057
skälv	-12.307
sarga	-12.3106
synlig	-12.311
maktlös	-12.3117
synagog	-12.3125
»	-12.3126
abihu	-12.3205
innor	-12.3207
utsäde	-12.3215
vävd	-12.3238
gill	-12.329
bjälkar	-12.3299
cke	-12.3343
ödelag	-12.3385
hörnsten	-12.339
lämn	-12.3461
tand	-12.3553
ljungeld	-12.3723
lärdom	-12.3728
förfära	-12.3782
agnar	-12.3791
värm	-12.3797
språk	-12.3861
ängsla	-12.3861
avgudadyrka	-12.3866
bedräglig	-12.3866
berekja	-12.3866
blodshämnaren	-12.3866
gehenna	-12.3866
gruvlig	-12.3866
hjärte	-12.3866
ljusstakar	-12.3866
megiddo	-12.3866
sannskyldig	-12.3866
smälta	-12.3866
späk	-12.3866
säkra	-12.3866
törnbusk	-12.3866
uppehälle	-12.3866
våldsverkare	-12.3866
▁),	-12.3866
barsillai	-12.3866
bestryk	-12.3866
fjättra	-12.3866
förgängelse	-12.3866
jordagods	-12.3866
kidron	-12.3866
läke	-12.3866
onyx	-12.3866
selofhad	-12.3866
umgängelse	-12.3866
kedar	-12.3866
skyndsam	-12.3866
bohag	-12.3866
konstvävnad	-12.3866
rymme	-12.3866
beskydda	-12.3866
trappsteg	-12.3866
hadadeser	-12.3866
baana	-12.3866
förskräcklig	-12.3867
misshandla	-12.3867
pukor	-12.3867
neko	-12.3867
stentavlor	-12.3867
magdal	-12.3868
ragla	-12.3868
hälsning	-12.3868
röse	-12.3869
förförelse	-12.3869
isop	-12.387
munskänk	-12.387
linnekläder	-12.387
hakar	-12.387
rustning	-12.3871
dundra	-12.3872
gomer	-12.3876
nöj	-12.3887
beblanda	-12.3907
pluggar	-12.3914
vilostad	-12.3914
anani	-12.394
fruktansvär	-12.4015
trogn	-12.4018
sträva	-12.4024
färgad	-12.4025
betrodd	-12.4033
reslig	-12.4044
hängive	-12.4099
tillstädje	-12.4117
bilha	-12.4196
mogna	-12.4233
kamp	-12.4236
ödmjuk	-12.4252
istel	-12.4304
väkt	-12.4334
maha	-12.4371
tumm	-12.4374
sedd	-12.444
sammankalla	-12.4452
ebal	-12.4475
tvinga	-12.4635
uppväck	-12.466
bedri	-12.4768
eldslågor	-12.477
skrymtar	-12.4771
bekräft	-12.4775
adullam	-12.4775
apollo	-12.4775
gissel	-12.4775
hjässa	-12.4775
hädelse	-12.4775
hägnad	-12.4775
hätsk	-12.4775
iskariot	-12.4775
jordkretsen	-12.4775
klenoder	-12.4775
milka	-12.4775
paddan	-12.4775
pipor	-12.4775
skördemännen	-12.4775
vederstygglig	-12.4775
ödeläggelse	-12.4775
blomstra	-12.4775
idissla	-12.4775
månadsrening	-12.4775
mödrar	-12.4775
sunem	-12.4775
präktig	-12.4775
väderstreck	-12.4775
husbonden	-12.4775
▁?',	-12.4775
netofatite	-12.4775
nykt	-12.4775
tapper	-12.4775
snodd	-12.4775
yxa	-12.4775
haggai	-12.4775
jafet	-12.4775
skoning	-12.4775
tydlig	-12.4775
bebodd	-12.4775
lemek	-12.4775
klipporna	-12.4775
abiram	-12.4775
dibon	-12.4775
medlare	-12.4776
utslit	-12.4776
jordiska	-12.4777
gnat	-12.4777
ebja	-12.4778
erövra	-12.4779
skövl	-12.478
ansenlig	-12.478
addai	-12.4784
hopfogad	-12.4794
fattigdom	-12.4797
stärk	-12.4804
stadsport	-12.4834
skärp	-12.4834
agri	-12.4881
inoam	-12.498
uppbränd	-12.5018
faran	-12.509
förebrå	-12.5214
försvinn	-12.5222
fotsid	-12.5254
jojaki	-12.5286
akna	-12.5287
;	-12.5287
:	-12.53
öring	-12.5332
förvärv	-12.5332
färg	-12.5593
ikris	-12.56
etiopier	-12.5733
prat	-12.5761
rymma	-12.5772
virke	-12.5774
höft	-12.5775
mygg	-12.5775
tubal	-12.5775
ajalon	-12.5775
anklagelse	-12.5775
balsam	-12.5775
cyper	-12.5775
fjäll	-12.5775
förbittrade	-12.5775
förstfödslorätt	-12.5775
haglet	-12.5775
hjälm	-12.5775
häktor	-12.5775
!	-12.7661
6	-12.8136
1	-12.9564
ó	-13.1231
9	-13.1231
5	-13.3231
7	-13.3231
3	-13.3231
'	-13.5146
,	-13.5225
í	-13.5731
]	-14.4064
8	-15.4059
4	-15.406
(	-15.4061
?	-15.4062
.	-15.4063
á	-15.4064
ä	-15.4064
