<pad>	0
</s>	0
<unk>	0
¦	-1.99992
▁¦	-2.11923
▁、	-2.56876
▁	-2.88212
▁。	-3.2727
の	-4.42972
は	-4.45671
を	-4.53164
と	-4.70967
に	-4.79148
が	-4.89826
その	-5.1503
▁、「	-5.42558
▁」。	-5.52102
また	-5.57861
も	-5.74518
わたしは	-5.77445
から	-5.80329
た	-5.8038
で	-5.93073
い	-5.98088
て	-5.98854
る	-6.03001
し	-6.06835
か	-6.0782
あなたの	-6.15572
よ	-6.15673
り	-6.17791
である	-6.219
あなたは	-6.23587
彼らは	-6.31176
なさい	-6.3986
わたしの	-6.44002
き	-6.45515
言った	-6.46512
しかし	-6.47177
そして	-6.50441
彼は	-6.51016
この	-6.51886
主は	-6.52008
な	-6.52598
って	-6.56232
あなたがたは	-6.58025
した	-6.62268
▁」	-6.63776
すなわち	-6.64529
く	-6.65578
った	-6.66505
これを	-6.72397
え	-6.72657
み	-6.73254
ことを	-6.79753
および	-6.83918
わたしが	-6.84062
す	-6.85456
して	-6.85539
のために	-6.86765
そこで	-6.88763
いた	-6.8922
▁「	-6.89716
であろう	-6.94912
それを	-6.96263
によって	-6.96632
人	-6.97364
をもって	-6.97412
め	-6.97961
ように	-6.98576
わたし	-6.98694
ら	-6.98907
う	-7.01071
からである	-7.04215
わたしを	-7.05008
すべての	-7.06731
する	-7.07396
の子	-7.07565
のように	-7.07991
これは	-7.08539
お	-7.09743
ない	-7.09866
すべて	-7.09954
あなたがたの	-7.11821
主の	-7.11941
や	-7.12027
もし	-7.12041
▁、『	-7.1228
者は	-7.12563
者	-7.12694
なければならない	-7.13177
自分の	-7.14621
ので	-7.15454
彼らの	-7.16405
わが	-7.18365
わたしに	-7.19807
▁』	-7.21155
です	-7.22709
れ	-7.23895
主が	-7.24646
彼ら	-7.25937
ま	-7.26013
のか	-7.26078
あなたが	-7.27479
ある	-7.28174
であった	-7.29822
あなた	-7.3006
彼らを	-7.31372
見よ	-7.33664
ます	-7.33689
それは	-7.34788
いる	-7.38516
時	-7.38917
に言った	-7.39383
彼を	-7.39985
のである	-7.40237
ず	-7.40344
られる	-7.41633
られた	-7.43626
こと	-7.4368
彼	-7.45042
け	-7.45306
つ	-7.45631
ならば	-7.46918
王	-7.4843
ている	-7.48568
あなたを	-7.4925
いて	-7.49471
には	-7.49576
あなたに	-7.49847
・	-7.51024
主	-7.51871
なかった	-7.52977
ア	-7.53443
神は	-7.53758
とき	-7.54033
だ	-7.55063
こうして	-7.55425
ル	-7.56036
あ	-7.57172
イエスは	-7.58644
さ	-7.58877
であって	-7.59408
あなたがた	-7.59459
主よ	-7.59715
行って	-7.59716
神の	-7.60455
と共に	-7.6139
そ	-7.6164
彼らに	-7.6217
シ	-7.62517
神	-7.62642
一	-7.6565
言われた	-7.67053
今	-7.67264
びと	-7.68798
まで	-7.69696
もろもろの	-7.69844
び	-7.70076
こ	-7.70483
ン	-7.70604
彼らが	-7.70629
ました	-7.71913
テ	-7.7215
物	-7.72218
ください	-7.72744
それゆえ	-7.73506
む	-7.73781
見	-7.74085
主に	-7.74475
人は	-7.745
民	-7.74732
あなたがたに	-7.74747
われわれは	-7.75132
あなたがたが	-7.75583
じ	-7.76476
これ	-7.76636
とを	-7.76768
行った	-7.76905
ために	-7.77459
『	-7.78621
るであろう	-7.79218
わたしたちは	-7.79276
ヤ	-7.79649
彼が	-7.80741
の上に	-7.80995
人々は	-7.8114
みな	-7.81214
すると	-7.82037
として	-7.82122
彼の	-7.82123
ば	-7.8227
それ	-7.82519
なら	-7.83382
について	-7.83472
させ	-7.83922
人の	-7.84695
言う	-7.84832
てはならない	-7.85698
地	-7.86012
のうちに	-7.87445
された	-7.87521
大	-7.87652
のは	-7.87809
んで	-7.88264
ただ	-7.88373
来る	-7.89012
地に	-7.8919
十	-7.89609
きた	-7.89622
その時	-7.89865
イエス	-7.90365
彼に	-7.90446
事	-7.90499
にある	-7.90852
王は	-7.91857
立って	-7.93408
てください	-7.93445
こう	-7.93475
の子孫	-7.94183
もの	-7.94731
ダビデは	-7.94835
者が	-7.95063
事を	-7.95488
日	-7.95813
のです	-7.96069
祭司	-7.96504
そこに	-7.96625
力	-7.96755
人を	-7.96952
イスラエル	-7.9749
んだ	-7.97589
キリスト	-7.97884
マ	-7.98077
イ	-7.98629
にも	-7.98716
悪	-7.994
しい	-7.99734
手	-8.00002
の中に	-8.00769
エ	-8.00787
される	-8.01218
どうして	-8.01448
大いなる	-8.01885
イスラエルの	-8.02054
よう	-8.02082
それで	-8.02198
敵	-8.03231
べ	-8.03541
心	-8.03856
へ	-8.03953
を見	-8.04283
している	-8.0444
さて	-8.0573
あなたの神	-8.05875
恐れ	-8.05987
なる	-8.06836
多くの	-8.06927
なお	-8.07259
全	-8.07399
わ	-8.07681
そう	-8.07683
きて	-8.07722
ぎ	-8.07922
レ	-8.08258
女	-8.08274
子	-8.08408
デ	-8.08973
でしょう	-8.09198
せ	-8.09238
罪	-8.09408
王の	-8.09785
行き	-8.09962
出	-8.10148
知	-8.10589
後	-8.11062
年	-8.11204
行く	-8.11365
国	-8.12006
▁』。	-8.12443
ところ	-8.1258
所	-8.12762
人が	-8.13331
預言者	-8.1392
ことは	-8.13999
喜び	-8.1442
と言った	-8.14482
律法	-8.14768
がある	-8.14938
人々	-8.15069
者を	-8.15118
父	-8.15307
を取り	-8.15707
よりも	-8.16024
います	-8.16086
ご	-8.16303
愛	-8.1632
のですか	-8.1643
物を	-8.16576
からだ	-8.16815
となり	-8.17441
のだ	-8.17571
あなたがたを	-8.18166
ハ	-8.18388
ではないか	-8.19021
一つ	-8.19136
主は言われる	-8.19195
っている	-8.19374
兄弟たち	-8.19753
る者	-8.1986
の前に	-8.19879
下	-8.19882
たので	-8.20149
ため	-8.20633
時に	-8.21249
石	-8.21325
そうすれば	-8.21833
とは	-8.21964
ラ	-8.22046
られ	-8.22326
手を	-8.22989
ち	-8.23436
に対して	-8.23549
上	-8.23731
神が	-8.23849
あった	-8.25089
かつ	-8.25412
地の	-8.25538
一つの	-8.25776
皆	-8.2604
モーセは	-8.26061
町	-8.26202
取り	-8.26751
海	-8.26814
道	-8.27172
言	-8.27363
われわれの	-8.2779
夜	-8.27808
ぶ	-8.2781
にむかって	-8.28026
えて	-8.28561
わたしたちの	-8.29029
思い	-8.2903
ナ	-8.29203
はならない	-8.29359
ム	-8.2961
ク	-8.29866
エル	-8.29922
われわれ	-8.29958
と言う	-8.30187
に向かって	-8.30328
水	-8.30517
ブ	-8.31007
兄弟	-8.31222
立ち	-8.31489
牛	-8.32425
行	-8.32655
があった	-8.32862
ほかの	-8.32937
出て	-8.32989
聖なる	-8.34385
自分	-8.34565
々	-8.34583
という	-8.34743
命	-8.34989
心を	-8.35048
木	-8.35053
ど	-8.35199
おり	-8.35438
とが	-8.35668
これらの	-8.35904
実	-8.36341
リ	-8.36458
きょう	-8.36565
あり	-8.36599
げ	-8.36776
ところが	-8.3706
にしたがって	-8.37228
このように	-8.37648
山	-8.37947
らせ	-8.38175
る者は	-8.38558
でも	-8.38565
だれが	-8.3861
会	-8.38685
神に	-8.38845
民は	-8.397
彼女は	-8.39769
ものである	-8.3986
主の前に	-8.40172
えた	-8.40273
があり	-8.4063
足	-8.40636
とし	-8.40994
であり	-8.41094
ヤコブ	-8.41189
がよい	-8.41241
これに	-8.41644
バ	-8.41971
をも	-8.41972
ことごとく	-8.42001
それから	-8.42042
金	-8.43013
ひとりの	-8.43199
ス	-8.43282
まだ	-8.43284
知恵	-8.43726
二	-8.43868
どうぞ	-8.43993
天	-8.44791
器	-8.45141
行い	-8.45452
となる	-8.45529
のに	-8.46272
かな	-8.4631
死んだ	-8.46324
共に	-8.4633
エルサレム	-8.46428
ん	-8.46729
ましょう	-8.46964
ユダ	-8.47207
七	-8.47214
ものを	-8.47934
ものは	-8.48041
家	-8.48096
宮	-8.48337
だから	-8.48391
妻	-8.48452
祭壇	-8.48593
に従って	-8.48859
分	-8.49079
ためである	-8.49112
はその	-8.4912
たち	-8.49251
どうか	-8.49351
ていた	-8.49498
のうちから	-8.49532
され	-8.49755
教え	-8.49878
恵み	-8.49946
人に	-8.50514
光	-8.50575
になった	-8.50581
人々が	-8.50634
ダビデ	-8.50689
銀	-8.50693
せよ	-8.50847
レビびと	-8.509
ことが	-8.50914
香	-8.50937
肉	-8.51086
月	-8.51366
人たち	-8.51377
心に	-8.51453
あるいは	-8.51483
の家	-8.52
三	-8.52107
方	-8.52311
目	-8.52409
ベ	-8.52651
ここに	-8.53073
間	-8.5341
良い	-8.53485
もまた	-8.54084
羊	-8.54336
使	-8.54681
正しい	-8.54698
となった	-8.54822
夫	-8.55184
をことごとく	-8.55332
死	-8.55385
獣	-8.5581
ね	-8.55814
聞き	-8.55853
ひとり	-8.55913
めて	-8.55933
数	-8.56026
と一緒に	-8.5605
その子	-8.56093
頭	-8.56159
ふ	-8.56181
百	-8.56319
になって	-8.5666
しもべ	-8.56674
いで	-8.56675
不	-8.56706
馬	-8.56813
娘	-8.56923
れる	-8.57014
なぜ	-8.57315
ついに	-8.57322
男	-8.57881
ろ	-8.5864
ヨセフ	-8.58777
わたしたち	-8.58788
必ず	-8.58846
その日	-8.58902
だけ	-8.58983
再び	-8.59341
など	-8.59386
助け	-8.59395
所に	-8.59474
門	-8.59512
える	-8.59542
パ	-8.59705
ながら	-8.59961
互に	-8.60254
五	-8.60302
怒り	-8.60639
霊	-8.60971
戒め	-8.61151
タ	-8.61626
従	-8.61669
定め	-8.61729
人の子	-8.61765
よい	-8.61864
れて	-8.62109
イスラエルの神	-8.62207
過	-8.62447
金の	-8.6246
かた	-8.6264
▁』」。	-8.62985
者の	-8.63108
残	-8.63173
手に	-8.63201
の前で	-8.6325
セ	-8.634
のもとに	-8.63457
のうち	-8.63525
多く	-8.63846
のゆえに	-8.6433
こう言われる	-8.64429
来て	-8.64459
の娘	-8.64508
ぐ	-8.64626
すでに	-8.6464
るように	-8.64648
だれ	-8.64679
悪い	-8.64938
らない	-8.64959
言い	-8.65034
死ぬ	-8.6504
パン	-8.65259
世	-8.6565
よく	-8.65909
まず	-8.65949
ミ	-8.65974
と言って	-8.66193
富	-8.66216
言葉を	-8.66234
者である	-8.66359
イエスを	-8.66662
祭	-8.67086
捨て	-8.67185
栄光	-8.67258
生	-8.67519
身を	-8.6756
を取って	-8.67698
または	-8.67933
おのおの	-8.67997
はみな	-8.68306
口	-8.68561
のある	-8.68922
では	-8.69062
アブラハム	-8.69125
さばき	-8.69226
るために	-8.69269
義	-8.69333
主なる神は	-8.69484
の地	-8.69648
ひ	-8.70335
しなければならない	-8.70681
報い	-8.70848
エルサレムに	-8.70884
の王	-8.71009
四	-8.71053
ろう	-8.71364
の子らは	-8.71526
入れ	-8.71708
ダ	-8.71752
苦	-8.71826
川	-8.71942
引き	-8.72108
つるぎ	-8.7222
ネ	-8.72379
食	-8.7242
みずから	-8.72439
イスラエルの王	-8.72513
なく	-8.72684
顔	-8.72981
とする	-8.73189
であろうか	-8.73592
語り	-8.73789
書	-8.73999
中	-8.74061
代	-8.74348
何を	-8.74619
イエスが	-8.74743
ユダヤ人	-8.74791
とその	-8.74817
イスラエルの人々	-8.74842
他の	-8.75022
イスラエルの人々は	-8.75032
サウル	-8.75051
ると	-8.75127
あの	-8.75218
聞く	-8.75497
戦い	-8.75809
信仰	-8.7582
メ	-8.75953
契約	-8.76162
主を	-8.7621
いなさい	-8.76575
害	-8.76601
食べ	-8.76633
ろば	-8.76637
られて	-8.76708
知らせ	-8.77022
悩み	-8.77213
サウルは	-8.77275
聖所	-8.7761
オ	-8.77668
求め	-8.77719
シャ	-8.77753
産	-8.77754
無	-8.77795
成	-8.78441
町々	-8.78539
わざ	-8.78805
の間	-8.78971
子供	-8.79379
身	-8.79453
ではなく	-8.79542
を見て	-8.79549
なんの	-8.79555
座	-8.79606
れた	-8.79634
を受け	-8.79674
当	-8.79876
の部族	-8.79943
名を	-8.80216
もはや	-8.8034
ってはならない	-8.80439
着	-8.80474
しく	-8.80607
内	-8.80643
声	-8.80657
来	-8.808
聞いて	-8.81063
いだ	-8.81075
取	-8.81107
は言った	-8.81213
その人は	-8.81309
長	-8.81466
兵	-8.81586
異邦人	-8.81589
かの	-8.81596
と言い	-8.81962
これらは	-8.82104
群れ	-8.82224
がない	-8.82259
嗣業	-8.82398
の下に	-8.82826
二つの	-8.82887
語る	-8.82947
アロン	-8.83213
打ち	-8.83307
水を	-8.83354
つく	-8.83367
小羊	-8.83594
災	-8.8362
家に	-8.83733
王たち	-8.83822
による	-8.83846
願い	-8.83868
カ	-8.84106
風	-8.84167
岩	-8.84178
めた	-8.84428
ロ	-8.8466
けて	-8.84756
民を	-8.84834
大きな	-8.84837
柱	-8.84888
起	-8.84956
民の	-8.85203
答え	-8.85227
あかし	-8.85262
言葉	-8.85395
偶像	-8.85499
神を	-8.85834
の言葉	-8.85948
前に	-8.85954
答えて	-8.85988
道を	-8.85997
あわれみ	-8.86165
またその	-8.86308
たちは	-8.86443
のところに	-8.86518
時は	-8.8653
させた	-8.86547
地は	-8.86672
あげ	-8.86693
とこしえに	-8.86836
滅び	-8.86981
すべての民	-8.86995
火	-8.87076
ペリシテびと	-8.87095
ニ	-8.87292
ほかに	-8.87503
者に	-8.87695
それに	-8.87998
モーセ	-8.88052
にいる	-8.8833
帰	-8.88406
自	-8.88431
下って	-8.88617
雲	-8.88678
モーセに言われた	-8.8889
バアル	-8.88947
ではない	-8.8898
者たち	-8.8903
ことはない	-8.89099
祈	-8.89209
あなたがたの神	-8.89249
種	-8.89449
ヨハネ	-8.89567
者と	-8.89762
を攻め	-8.89786
先祖たち	-8.89899
そのとき	-8.90016
帰って	-8.9008
だれか	-8.90233
血	-8.90286
なし	-8.90335
見た	-8.90399
ないでください	-8.90424
を与え	-8.90666
べき	-8.90755
朝	-8.90904
意	-8.9092
は皆	-8.91159
ける	-8.91357
歌	-8.91447
ザ	-8.91639
わせ	-8.91685
ようと	-8.91712
天に	-8.91853
子を	-8.91945
わたしたちが	-8.92159
真実	-8.92244
麦	-8.92327
穴	-8.92374
彼らに言った	-8.92575
の手から	-8.92659
神々	-8.92749
と言われた	-8.92754
イエスの	-8.92792
六	-8.92821
エジプト	-8.9293
の中で	-8.92934
親	-8.93081
母	-8.93136
かれ	-8.93148
ることを	-8.93148
エルサレムの	-8.93254
の妻	-8.93305
だれも	-8.93416
教	-8.94091
祝福	-8.94162
だからである	-8.94196
たとい	-8.94554
どんな	-8.94619
において	-8.94624
彼に言った	-8.94635
食物	-8.94656
ません	-8.95001
万	-8.95125
主人	-8.95195
このような	-8.9548
のうちで	-8.95606
千	-8.95645
土	-8.95762
名	-8.95828
らなければならない	-8.95839
ひとりも	-8.95992
地を	-8.96091
ああ	-8.962
病	-8.96241
顔を	-8.96368
サ	-8.96448
ホ	-8.96664
ような	-8.96684
なければ	-8.96739
わず	-8.96879
の門	-8.97166
切	-8.97268
られない	-8.97287
を得る	-8.9762
畑	-8.97779
キリストの	-8.97956
の父	-8.98119
その上に	-8.98129
に言われた	-8.98216
ても	-8.98304
人々に	-8.98417
出す	-8.98465
わたしはあなたの	-8.98528
高	-8.98737
箱	-8.98827
ること	-8.98902
軍勢	-8.98996
させる	-8.99007
おられる	-8.99263
大いに	-8.99395
彼女	-8.99758
苦しみ	-8.99763
群衆	-9.00198
ユダの	-9.0033
死に	-9.00362
流れ	-9.00407
布	-9.00458
非常に	-9.00528
ふたりの	-9.0058
何	-9.00678
第	-9.00947
て言った	-9.01112
同	-9.01186
終り	-9.01367
ことができる	-9.01482
望み	-9.01753
ることがない	-9.01838
かせ	-9.02016
とした	-9.02036
しし	-9.02115
雄羊	-9.02138
取って	-9.0278
来た	-9.02789
ふたり	-9.02825
官	-9.02855
エジプトびと	-9.02922
日に	-9.02942
二十	-9.03134
幕屋	-9.03205
しるし	-9.0339
ざ	-9.03471
軍	-9.03605
のうちの	-9.03716
重	-9.03815
だろうか	-9.03853
家畜	-9.03906
の名は	-9.04133
われわれの神	-9.04228
寝	-9.0437
ト	-9.044
別	-9.04414
マナセ	-9.04468
める	-9.04563
あって	-9.04572
を見た	-9.04582
罰	-9.04597
のを見て	-9.04648
ユダの王	-9.04703
エリ	-9.04772
出して	-9.04977
守	-9.05023
おきて	-9.0513
主である	-9.05258
ケ	-9.0527
上って	-9.05331
女は	-9.05347
場所	-9.05397
の中から	-9.0551
目を	-9.05576
わなければならない	-9.05579
ベニヤミン	-9.05722
の間に	-9.06066
フ	-9.06068
新しい	-9.06091
叫び	-9.06125
長老たち	-9.06208
答えた	-9.06404
ただし	-9.06471
くだ	-9.067
拝	-9.06771
者も	-9.0679
エドム	-9.06856
罪を	-9.07002
出し	-9.07017
糸	-9.07025
町の	-9.07165
十二	-9.07282
わたしたちに	-9.07338
会衆	-9.07701
命じた	-9.07791
与え	-9.07839
を得	-9.07987
パウロ	-9.07989
のような	-9.08114
造	-9.08241
の木	-9.08315
ゆ	-9.08365
戦	-9.08405
言え	-9.08443
王が	-9.08446
シオン	-9.08546
の上	-9.08554
ぶどう	-9.08608
のすべての	-9.08611
つかさたち	-9.08643
かつて	-9.08647
となって	-9.08756
前	-9.08984
天幕	-9.09033
不義	-9.09139
天から	-9.09161
ド	-9.0934
戦車	-9.09412
外	-9.09537
離れ	-9.09589
荒	-9.09622
救	-9.09718
汚れ	-9.09826
油を	-9.10007
おまえ	-9.10011
知らない	-9.10046
しない	-9.10053
パロ	-9.10116
何も	-9.10304
があって	-9.10319
そこ	-9.10351
同じ	-9.10407
の子たち	-9.10423
していた	-9.10483
気	-9.10494
してはならない	-9.10801
僕	-9.10905
その中に	-9.10969
所有	-9.11143
平	-9.11187
もなく	-9.11444
ことができない	-9.1147
ようになる	-9.11514
これが	-9.11544
いま	-9.11732
バビロン	-9.11883
かえって	-9.11972
やり	-9.1209
聖	-9.12095
いない	-9.12247
油	-9.12318
全く	-9.12338
酒	-9.12382
そのすべての	-9.12592
それが	-9.12614
逃げ	-9.12732
ゼ	-9.12778
生れた	-9.12836
去って	-9.12905
者ども	-9.12935
ヤコブは	-9.12936
でしょうか	-9.12963
わたしと	-9.1324
道に	-9.13276
とに	-9.13338
すべての人	-9.13482
より	-9.13519
ることはない	-9.13932
国々	-9.13944
どう	-9.13953
してください	-9.13994
われわれを	-9.14332
神よ	-9.14371
服	-9.14415
ほ	-9.14574
息	-9.14594
台	-9.14786
の日に	-9.14955
れば	-9.14961
聞いた	-9.14989
のない	-9.15068
の人々	-9.15307
ぶどう酒	-9.15367
を追い	-9.15368
燔祭	-9.15461
グ	-9.15492
ばかり	-9.15509
んでいる	-9.15604
せず	-9.1564
万軍の主	-9.15669
もう	-9.15671
じて	-9.15678
滅ぼし	-9.15834
合	-9.1589
明	-9.1596
救う	-9.15964
行う	-9.16057
の子である	-9.16082
かに	-9.16161
ヨ	-9.16307
権	-9.16581
悲しみ	-9.16599
っていた	-9.16644
伝え	-9.16734
イエスに	-9.16901
により	-9.16945
につけ	-9.16956
イスラエルは	-9.16986
さらに	-9.17037
帰り	-9.17206
その家	-9.17308
落ち	-9.17349
天の	-9.1735
声を	-9.17551
なり	-9.17714
宮の	-9.17747
悪を	-9.17812
はいって	-9.18031
ガ	-9.18065
るでしょう	-9.18073
わか	-9.18149
ダビデの	-9.18158
約束	-9.18181
夕	-9.18217
を造り	-9.1825
生れ	-9.18302
われわれに	-9.18425
城壁	-9.18544
去り	-9.18546
去	-9.18628
日の	-9.18661
先祖	-9.18671
山に	-9.18729
東	-9.18809
絶え	-9.18819
わたしたちを	-9.18946
さない	-9.18962
の日	-9.19034
告げ	-9.19141
わたしはあなた	-9.19242
ごとに	-9.19258
強	-9.1934
さあ	-9.19396
おのおのその	-9.19466
心の	-9.19568
誇	-9.19746
作	-9.19926
後に	-9.19934
になる	-9.20152
八	-9.20216
部族	-9.20249
すれば	-9.20344
のため	-9.20353
通	-9.20365
渡	-9.2037
出た	-9.20377
ゆえ	-9.20438
イサク	-9.205
自分を	-9.20563
知っている	-9.20626
栄え	-9.20763
かない	-9.20824
に対する	-9.21045
目に	-9.21126
信	-9.21231
雄牛	-9.2126
たが	-9.2135
を離れ	-9.21382
ヨシュアは	-9.21454
されて	-9.21528
の長	-9.2171
命を	-9.2173
強く	-9.21746
造った	-9.21827
王に	-9.219
祭司は	-9.21968
働き	-9.22091
殺し	-9.22175
立て	-9.22239
をお	-9.22374
わたしのために	-9.22419
国の	-9.22592
御霊	-9.22597
のを見た	-9.22614
先に	-9.22635
場	-9.22704
ダン	-9.22822
ウ	-9.22904
語	-9.23003
ヨセフは	-9.23035
部	-9.23226
だろう	-9.2324
ころ	-9.23376
ソロモンは	-9.23455
仕え	-9.23797
となるであろう	-9.23798
立つ	-9.23881
あなたと	-9.23899
エサウ	-9.23908
平安	-9.23914
墓	-9.23922
かった	-9.23943
信じ	-9.23964
合わせて	-9.24086
の声	-9.24193
ほど	-9.24524
まり	-9.2456
食べる	-9.24646
もろもろの民	-9.24653
野	-9.24657
われらの	-9.24732
の手	-9.24829
生きている	-9.24978
けた	-9.25449
サマリヤ	-9.25602
集め	-9.25627
ちり	-9.25658
受け	-9.2586
は次のとおりであ	-9.25887
勇士	-9.26091
そこから	-9.26136
住む	-9.26325
しめ	-9.26376
を愛し	-9.26569
彼はまた	-9.26627
進み	-9.26883
ききん	-9.26891
ヨアブ	-9.2691
イスラエルの家	-9.26974
その人	-9.27001
海の	-9.27058
つけ	-9.27151
の子ら	-9.27264
その所で	-9.2734
ないように	-9.27356
らず	-9.27379
に仕え	-9.27588
投げ	-9.27626
父の	-9.2771
わが神	-9.27837
のがれ	-9.27864
民に	-9.27872
とも	-9.27942
なぜなら	-9.2797
聖霊	-9.28038
弟子たち	-9.28303
いたが	-9.28448
ったので	-9.28529
主の言葉	-9.28538
しえたげ	-9.28626
その後	-9.28626
戸	-9.28637
ゆえに	-9.28738
出る	-9.28838
一緒に	-9.29024
見ると	-9.29091
工	-9.29212
わが民	-9.29221
持って	-9.2923
主はこう言われる	-9.29251
のだから	-9.29325
証	-9.29427
くじ	-9.29505
らなかった	-9.29532
エフライム	-9.29832
もない	-9.2986
るべき	-9.29875
去らせ	-9.29925
聞け	-9.2994
まことに	-9.30001
おられた	-9.3008
そのように	-9.30132
の町	-9.30248
ことも	-9.30296
ですか	-9.3038
の子孫は	-9.30387
ぬ	-9.30453
取った	-9.30505
常に	-9.30534
に命じて	-9.30558
を見る	-9.30715
造られた	-9.30796
この民	-9.30823
出てきた	-9.30876
放	-9.30902
獲	-9.30949
のを	-9.30953
の時	-9.31152
目は	-9.31261
「	-9.31307
感謝	-9.31378
その子は	-9.31394
すぐ	-9.31494
殺した	-9.31528
をなし	-9.31548
国民	-9.31587
荒野	-9.31669
の家に	-9.31752
預言者たち	-9.31956
尋ね	-9.31977
移	-9.32023
けれども	-9.32035
進んで	-9.32044
持ち	-9.32045
導き	-9.3211
とおりに	-9.32126
宝	-9.32142
怒りを	-9.32171
見て	-9.3224
をとって	-9.32243
を打ち	-9.32307
ベテ	-9.32347
先	-9.32406
の言葉を	-9.32432
なす	-9.32603
られました	-9.32607
歩	-9.32676
の方	-9.32735
この事	-9.3277
する者	-9.32941
語った	-9.32998
像	-9.33063
教会	-9.33124
言われる	-9.33138
何か	-9.33509
を受ける	-9.33631
かれた	-9.33654
ませ	-9.33842
わたしはまた	-9.3402
われ	-9.34027
小	-9.34037
ごらん	-9.34173
を守る	-9.34238
深い	-9.34301
切り	-9.34343
衣服	-9.34346
出した	-9.34403
供え物	-9.34405
祭司たち	-9.34565
得	-9.34685
彼らはその	-9.349
強い	-9.34957
とおり	-9.34981
暗	-9.34993
むすこ	-9.35155
るならば	-9.35174
計	-9.3526
ピ	-9.3526
真理	-9.35269
ささげる	-9.35298
のもの	-9.35326
飲み	-9.35341
示し	-9.35447
さきに	-9.35476
しよう	-9.35747
偽り	-9.35801
キュビト	-9.35838
ヨシュア	-9.35847
時には	-9.36063
北	-9.36075
命じられた	-9.36106
見る	-9.36142
わたしはあなたを	-9.3623
起き	-9.3627
王と	-9.36305
車	-9.36348
会見の幕屋	-9.36356
平和	-9.36366
ことである	-9.36589
こそ	-9.36619
ソロモン	-9.36681
したので	-9.36727
この事を	-9.3678
ギレアデ	-9.36908
高く	-9.36922
つるぎを	-9.36933
正しい者	-9.36965
を離れて	-9.36974
の手に	-9.37011
務	-9.37183
にお	-9.37188
キ	-9.37256
宿営	-9.37276
とをもって	-9.37316
まま	-9.3737
彼はその	-9.3741
法	-9.37451
われた	-9.37469
あらゆる	-9.37471
賜わった	-9.37471
わり	-9.37475
激しい	-9.37477
正しく	-9.37482
嘆き	-9.37549
セラ	-9.37565
ことに	-9.37627
決して	-9.37631
前から	-9.37656
正義	-9.37657
アル	-9.37712
置いた	-9.37795
くる	-9.37797
いつも	-9.37893
をする	-9.37979
結	-9.38045
イスラエルに	-9.38349
をし	-9.38367
とその放牧地	-9.38599
流	-9.38769
自ら	-9.38859
しなかった	-9.38906
させてください	-9.38952
話	-9.38967
あがない	-9.39073
割礼	-9.3908
レビ	-9.39094
つかわした	-9.39099
わし	-9.39123
思	-9.39169
主なる神	-9.39192
理	-9.39211
うちに	-9.39262
上げ	-9.39371
恥	-9.39385
契約を	-9.39419
歳	-9.39653
シケル	-9.39673
真	-9.39686
告	-9.39697
の入口	-9.39727
宣べ伝え	-9.39727
金を	-9.39849
悟り	-9.39918
少し	-9.39923
自身	-9.39976
ことはできない	-9.40285
水の	-9.40287
を行う	-9.40301
四十	-9.40306
一頭	-9.40319
変	-9.40373
愛する	-9.40508
にはいって	-9.40531
さえ	-9.40549
せて	-9.4059
いのち	-9.40604
女たち	-9.4061
は彼	-9.40737
所で	-9.4076
ダビデに	-9.40761
主はまた	-9.40765
て下さる	-9.40811
幕	-9.40852
女の	-9.40919
悪しき者	-9.40932
人々を	-9.40936
身に	-9.4095
あなたがたも	-9.40951
ことがない	-9.41091
て言われた	-9.41117
生き	-9.41257
ないで	-9.41271
喜んで	-9.41581
滅ぼす	-9.41593
分け	-9.41645
安息日	-9.4171
がなく	-9.41743
のかたわらに	-9.41795
その兄弟	-9.41922
のひとり	-9.42047
アッスリヤの王	-9.42081
おこない	-9.4216
娘たち	-9.42204
から出て	-9.42346
したが	-9.42536
堅く	-9.42538
主の宮	-9.42612
かなければならない	-9.42803
こさせ	-9.43079
ビ	-9.43088
むしろ	-9.43219
を生んだ	-9.43227
ものと	-9.43244
三十	-9.43255
だれでも	-9.43271
おく	-9.43341
かれる	-9.43423
エジプトの	-9.43489
国に	-9.43577
皮	-9.43582
エジプトの地	-9.43717
あなたのしもべ	-9.43728
見え	-9.44131
悪人	-9.44396
ズ	-9.4441
ならびに	-9.44411
になり	-9.44449
っ	-9.44517
バビロンの王	-9.44579
取る	-9.446
ないであろう	-9.44631
側	-9.44632
呼び	-9.44756
もろもろの国民	-9.4499
耳を	-9.45031
空	-9.45066
かけ	-9.452
わたしの民	-9.45244
つえ	-9.45258
死んで	-9.45424
弟子たちは	-9.45438
を設け	-9.45577
諸	-9.45581
に行き	-9.45582
以上	-9.45614
み名	-9.45627
行かせ	-9.4566
送り	-9.45789
その民	-9.45832
負	-9.45959
ようか	-9.46034
コ	-9.46488
庭	-9.46584
近	-9.46729
くれ	-9.46775
谷	-9.46805
高き所	-9.46806
青銅の	-9.46839
のろい	-9.46857
ゲ	-9.46875
七つの	-9.4689
の町々	-9.46984
去った	-9.47063
に臨む	-9.47205
望	-9.47401
父は	-9.47455
あと	-9.47463
生きる	-9.47519
人たちは	-9.4761
あなたの前に	-9.47632
の谷	-9.47731
のみ	-9.4777
除	-9.47872
長子	-9.47929
すべき	-9.47967
の所に	-9.4804
ヤラベアム	-9.48069
ヨアシ	-9.48069
やみ	-9.48081
あらわ	-9.48097
の人々は	-9.48117
くら	-9.48147
ぶどう畑	-9.48194
あなたはわたしの	-9.48206
のようだ	-9.48206
祭と	-9.48269
おおい	-9.48352
解	-9.48407
歩み	-9.48446
ぼ	-9.48514
われわれが	-9.48549
証人	-9.48656
あなたがたのうちに	-9.48689
サムエル	-9.49179
堅	-9.49189
モアブの	-9.4927
それぞれ	-9.49319
らは	-9.49327
わた	-9.49333
主はこう仰せられる	-9.49428
モアブ	-9.49446
ようとした	-9.49447
地から	-9.49476
ささげた	-9.49506
主なる神は言われ	-9.49534
清め	-9.49611
アサ	-9.49619
火を	-9.49697
を求め	-9.49742
ども	-9.49777
る時	-9.49779
の神	-9.49907
去る	-9.49919
のことを	-9.49938
なのである	-9.49978
ようとする	-9.49993
この地	-9.50043
あります	-9.50113
まし	-9.50127
若者	-9.50237
の名	-9.50255
彼女を	-9.50291
に至る	-9.50441
待	-9.50499
ッ	-9.50554
ジ	-9.50562
ゆるし	-9.50565
利	-9.50568
に住む	-9.50671
若い	-9.50689
臨	-9.51064
耳	-9.51152
にし	-9.5119
を造った	-9.51263
に与え	-9.51335
外に	-9.51469
語って	-9.51497
するであろう	-9.51523
の供え物	-9.5169
彼と共に	-9.51712
かく	-9.51742
まった	-9.51746
洗	-9.51848
食物を	-9.51858
喜ぶ	-9.51873
を与えて	-9.52001
わたしの父	-9.52166
間に	-9.52187
あなたの父	-9.52202
主の宮の	-9.52253
に与えた	-9.52261
定	-9.52288
わな	-9.52457
族	-9.5249
人と	-9.52726
さし	-9.52736
者よ	-9.52788
三日	-9.52795
を建て	-9.52804
女が	-9.52851
使者	-9.52907
主にささげ	-9.53025
の血	-9.53064
連れて	-9.53081
生きながらえ	-9.53166
シモン	-9.53184
多い	-9.53208
のではない	-9.5329
サムエルは	-9.53311
エリヤ	-9.53407
あるように	-9.53419
を殺した	-9.53436
を捕え	-9.53438
いたので	-9.53477
引いて	-9.53477
わたしも	-9.53602
を通	-9.53642
たからである	-9.53676
知って	-9.53752
その地	-9.53771
大祭司	-9.53868
全地	-9.5387
あなたのために	-9.53913
示	-9.53927
なかったので	-9.53954
子供たち	-9.54005
アブサロム	-9.54179
心は	-9.54308
ありません	-9.54315
牧者	-9.54343
ヘ	-9.5442
アビ	-9.54487
うち	-9.54732
汚れた	-9.5475
四つの	-9.5504
な者	-9.55053
立った	-9.55128
をした	-9.55154
ヒゼキヤ	-9.5519
わたしの前に	-9.55196
に告げ	-9.55209
立	-9.55294
ヨナタン	-9.55301
奪	-9.55339
ノア	-9.55351
争	-9.5539
もとに	-9.55425
町に	-9.55449
あなたがたのために	-9.55488
あなたの民	-9.55554
やめ	-9.55715
エルサレムで	-9.55737
撃	-9.55752
を捨て	-9.55804
ガリラヤ	-9.55814
に告げて	-9.55926
家族	-9.55947
二つ	-9.55972
を引き	-9.56051
衣	-9.56223
集まって	-9.56235
力を	-9.5624
に属する	-9.56359
捕	-9.5648
については	-9.56594
飲む	-9.56609
高い	-9.56611
水が	-9.56818
命じる	-9.56831
求める	-9.57007
二百	-9.57031
におる	-9.57042
君	-9.57104
永	-9.57146
ヘブロン	-9.57166
聞かせ	-9.57166
罪祭	-9.572
あなたがたのうち	-9.57217
の住民	-9.57239
離	-9.5727
に臨んだ	-9.57298
おいた	-9.57363
します	-9.57479
にきた	-9.57917
動	-9.58154
の者	-9.58217
たちが	-9.58415
わざわい	-9.5847
恐れる	-9.58471
祭壇を	-9.58514
断	-9.58518
青	-9.58523
兄	-9.58529
おこなった	-9.58539
聖別し	-9.5854
どこに	-9.58543
安らかに	-9.58568
の道	-9.58575
この町	-9.58617
ベテル	-9.58617
捕え	-9.58645
罪を犯し	-9.58812
住	-9.58956
にして	-9.59023
救われる	-9.59042
いや	-9.59051
長く	-9.59072
ることは	-9.59076
られている	-9.59307
るためである	-9.59317
手で	-9.59475
わざを	-9.59499
数え	-9.59604
わけ	-9.5962
ようになった	-9.5984
らし	-9.59868
の境	-9.59918
アモリびと	-9.59924
報	-9.59947
のあいだ	-9.59952
わない	-9.59967
てしまった	-9.59968
語られた	-9.60009
なりません	-9.60032
にはいる	-9.60086
イスラエルを	-9.60104
破	-9.60163
悟	-9.60339
を携えて	-9.60361
ダビデが	-9.60399
周囲の	-9.60616
宿	-9.60637
定めと	-9.60881
へ行って	-9.60905
もので	-9.60909
にあって	-9.60941
ませんでした	-9.60966
アブラハムは	-9.6098
わが子	-9.60986
ようとして	-9.61079
買い	-9.61109
神の人	-9.61131
すること	-9.6115
を立て	-9.61206
屋	-9.61241
度	-9.61242
事は	-9.61273
倒れる	-9.61314
シケム	-9.61333
みこころ	-9.61333
飲	-9.61371
モーセとアロン	-9.61376
のち	-9.61392
地で	-9.61414
人であった	-9.61441
囲	-9.61463
淫	-9.61557
帰らせ	-9.61635
争い	-9.61715
ひと	-9.61922
する者は	-9.61961
者たちは	-9.61985
わたしに言われた	-9.6204
荒野に	-9.62198
町を	-9.62669
モ	-9.62688
重ねて	-9.62762
祭の	-9.62816
の中	-9.62882
きよめ	-9.62932
聖なる物	-9.6294
であることを	-9.63066
人をつかわして	-9.6315
愚かな	-9.63157
およびその	-9.63158
ペテロは	-9.63158
寄せ	-9.63183
すまい	-9.6327
災を	-9.63326
福音	-9.63449
神の国	-9.6357
つか	-9.63593
らせた	-9.63701
主にささげる	-9.63733
万軍の主は	-9.63742
年の	-9.63894
これら	-9.64016
営	-9.64204
タラント	-9.64211
断食	-9.64228
ことなく	-9.64238
らい	-9.64397
死人	-9.64466
この世	-9.64649
遠く	-9.64722
与えられた	-9.64731
罪の	-9.64803
日は	-9.64883
もろもろの国	-9.64992
と言ったので	-9.65149
貧しい者	-9.65158
思う	-9.65225
父が	-9.65292
ささげ物	-9.65322
罪を犯した	-9.65329
自分のために	-9.65405
食事	-9.6547
民が	-9.65488
立てた	-9.65649
むなしい	-9.65683
病気	-9.65704
食い	-9.65816
モーセが	-9.65823
まい	-9.65846
さいわいである	-9.65865
いったい	-9.65984
ペテロ	-9.66007
カナンびと	-9.66031
を滅ぼし	-9.6607
ときに	-9.66155
はない	-9.66167
ペリシテびとの	-9.66199
な子	-9.66207
水は	-9.66241
さなければならない	-9.66252
君たち	-9.66286
れない	-9.66308
今日	-9.66338
ユダの人々	-9.66412
備え	-9.66457
エリシャ	-9.66493
その名を	-9.66552
あげて	-9.66764
燔祭と	-9.6683
パウロは	-9.66855
置いて	-9.66892
足の	-9.66939
ささげ	-9.66956
起る	-9.67002
議	-9.6715
アンモンの人々	-9.67202
楽しみ	-9.67268
をささげ	-9.67278
命じて	-9.6736
悪しき	-9.67366
返し	-9.67379
事が	-9.6738
現れ	-9.67409
人々の	-9.67425
右の手	-9.67476
物と	-9.67488
パロは	-9.67552
次	-9.67558
造り	-9.67795
の上で	-9.67808
さず	-9.67825
羊の	-9.6784
ヨルダン	-9.67875
がきて	-9.68044
らって	-9.68064
下り	-9.68086
あだ	-9.68087
野の	-9.68169
を呼び	-9.68211
その日には	-9.68215
その子ら	-9.68234
ここ	-9.6825
偽りの	-9.68288
おまえたち	-9.68308
言葉は	-9.68317
正	-9.68361
仕	-9.68431
火の	-9.68575
永遠の	-9.68594
境	-9.68678
青銅	-9.68683
はずかしめ	-9.68692
を持って	-9.68713
ることができない	-9.68872
へ行った	-9.68875
を連れて	-9.69009
激しく	-9.69014
わが主	-9.69032
られるであろう	-9.69065
わたしの言葉	-9.69124
入	-9.69171
かき	-9.6925
われる	-9.6938
を助け	-9.69383
とり	-9.69686
の国	-9.69744
つかわし	-9.6977
の方に	-9.69984
憎むべき	-9.70013
立っている	-9.7011
定められた	-9.70136
自分たちの	-9.70145
弟	-9.70146
マリヤ	-9.70185
次の	-9.70218
ラッパ	-9.70224
あふれ	-9.70234
スリヤびと	-9.70244
されている	-9.70322
ふさ	-9.70385
に至るまで	-9.70404
むち	-9.70418
ろうと	-9.70494
と名づけた	-9.70498
世の	-9.70543
にいた	-9.70564
を焼き	-9.7068
つかさ	-9.7078
立っていた	-9.70792
に従い	-9.70795
おいて	-9.70866
つるぎをもって	-9.70878
知る	-9.70929
ますます	-9.70932
空の	-9.70933
の兄弟	-9.71023
のところへ	-9.71058
はい	-9.71087
その女	-9.71237
られます	-9.7131
エレミヤ	-9.71401
注ぎ	-9.71464
見せ	-9.71509
を立てて	-9.71554
を生み	-9.71815
タン	-9.71885
荒野で	-9.71899
自分たち	-9.71973
いった	-9.71981
ることができる	-9.72032
与えられる	-9.72172
右	-9.72291
示す	-9.7232
何事	-9.72329
を滅ぼす	-9.72344
出された	-9.72546
祭壇の	-9.72576
御	-9.72629
らくだ	-9.72646
を守り	-9.72742
栄	-9.72793
召し	-9.728
義と	-9.72907
そのころ	-9.72923
るとき	-9.72935
彼らと	-9.73071
男の子	-9.73085
務を	-9.73166
さま	-9.73172
荒れ	-9.73201
弟子	-9.73245
おまえは	-9.73278
宣	-9.73323
ケルビム	-9.73377
ダマスコ	-9.73377
モルデカイ	-9.73377
大きい	-9.73384
頭に	-9.73509
う者	-9.73522
すべてのもの	-9.73573
に入れ	-9.73666
祈って	-9.73804
ついて	-9.7399
ことと	-9.73998
の分	-9.74081
みわざ	-9.74121
われら	-9.74146
なった	-9.74184
を知る	-9.74389
のための	-9.74427
置き	-9.74469
と思う	-9.74471
を集め	-9.74632
を与える	-9.74663
その手	-9.74766
さいわい	-9.74789
を聞いて	-9.74852
わたしはあなたに	-9.74868
乳	-9.74965
さんび	-9.74987
タマル	-9.7499
ロン	-9.75035
知らなかった	-9.7504
この人	-9.75073
われらは	-9.75107
まさ	-9.75169
主は言われた	-9.752
エジプトから	-9.75351
彼女の	-9.75359
火祭	-9.75391
パロの	-9.754
おき	-9.7541
彼に言われた	-9.75426
ユダは	-9.75427
と同じ	-9.75481
その上	-9.75482
ノ	-9.75511
書き	-9.75569
わたしはこの	-9.75584
主の名	-9.75596
あなたも	-9.75627
信じる	-9.75653
子牛	-9.75669
んじ	-9.75728
エリシャは	-9.75764
口に	-9.75796
国を	-9.75924
立たせ	-9.76036
たのである	-9.761
を殺し	-9.76135
をして	-9.76264
言いました	-9.76423
わたしの名	-9.76463
物は	-9.76539
を受けて	-9.76547
みんな	-9.76571
アッスリヤ	-9.76577
場合	-9.7658
びとの氏族が出	-9.76633
下さい	-9.76637
先生	-9.76656
の口	-9.76682
イスラエルの人々の	-9.76729
返	-9.76747
ユダヤ	-9.76777
偽りを	-9.76809
ソロモンの	-9.76825
に満ち	-9.76835
広	-9.76866
まれる	-9.76893
のかしら	-9.76905
残っている	-9.76943
がその	-9.76945
たとき	-9.76977
言って	-9.76978
その父	-9.76985
これを聞いて	-9.76991
地と	-9.77049
なるであろう	-9.77133
ったが	-9.77193
今は	-9.77256
この人は	-9.77302
されました	-9.77544
主君	-9.7757
りを	-9.77652
パンを	-9.77712
のではなく	-9.77724
落	-9.77783
七年	-9.77788
それらの	-9.77793
小さい	-9.77813
飲ませ	-9.77884
しても	-9.77905
を守って	-9.77986
はあなた	-9.77992
受ける	-9.77995
現	-9.7816
ほめ	-9.78199
出て行って	-9.78211
壁	-9.78291
に乗って	-9.78296
ヨシヤ	-9.78296
恐るべき	-9.78302
いばら	-9.78322
尋ねた	-9.78358
吹き	-9.78425
にまさる	-9.78448
子ら	-9.78451
主はその	-9.78453
彼のために	-9.78458
千人	-9.78482
したら	-9.7854
偽	-9.78575
レア	-9.78742
万軍の	-9.78796
にまさって	-9.78802
入れて	-9.78844
寄り	-9.78923
を撃ち	-9.79074
のようで	-9.79118
その神	-9.79142
出てきて	-9.79152
よみがえ	-9.79162
もしあなたが	-9.79208
彼女に	-9.79217
ものが	-9.79403
器を	-9.79615
様	-9.79791
石を	-9.79836
一千	-9.79875
されるであろう	-9.79889
らう	-9.79908
ねばならない	-9.79985
ラバン	-9.80009
ことを知る	-9.80021
第三	-9.80158
着物	-9.80189
ことをしない	-9.80203
を守ら	-9.80246
められる	-9.803
わたしがあなた	-9.8034
年に	-9.80362
み前に	-9.80366
御使	-9.80523
から出る	-9.80561
までは	-9.80581
入れた	-9.80585
その所	-9.80817
神の宮	-9.80836
エジプトの国	-9.80852
かま	-9.80947
下の	-9.81064
終った	-9.81069
愛する者	-9.81117
のつかさ	-9.81192
もど	-9.81375
に仕える	-9.8145
安	-9.81472
ペ	-9.81647
を得させ	-9.8165
の所へ	-9.81655
ヒ	-9.81657
ヨアブは	-9.81662
ツ	-9.81701
の前	-9.81709
ハマン	-9.81715
カナンの地	-9.81736
十二人	-9.81738
なされた	-9.81819
絶えず	-9.81831
犠牲をささげ	-9.81834
深く	-9.81863
手の	-9.81905
滅ぼされる	-9.81974
送った	-9.81995
初	-9.81998
エジプトに	-9.82009
へび	-9.82083
に住み	-9.82283
いたからである	-9.82333
まれ	-9.82341
金銀	-9.82368
に宿営し	-9.82409
彼らのために	-9.82409
行われた	-9.82433
せた	-9.82437
その妻	-9.827
の目の前で	-9.82724
御子	-9.82805
ることなく	-9.82847
カル	-9.82851
女を	-9.82877
に住んでいる	-9.82886
まない	-9.82978
かすめ	-9.83016
ぜ	-9.83018
そうと	-9.8306
わら	-9.83066
耳に	-9.83069
に与えて	-9.83137
いつまで	-9.83191
ときは	-9.83317
があるか	-9.83405
祭を	-9.83405
話し	-9.83419
いている	-9.83434
家来	-9.83461
置か	-9.83462
アザリヤ	-9.83469
レハベアム	-9.8347
のういご	-9.8347
バラム	-9.83488
与えた	-9.83566
驚き	-9.83567
大きく	-9.83571
かけて	-9.83656
ともに	-9.83679
さなかった	-9.83774
王よ	-9.8379
いつまでも	-9.83797
れている	-9.83918
命じ	-9.83924
残して	-9.84013
山々	-9.84074
いって	-9.84102
売	-9.84105
地方	-9.84138
彼と	-9.84149
かかって	-9.84196
かしら	-9.84208
愚かな者	-9.84211
を得た	-9.84345
はじめ	-9.84364
を造って	-9.84364
自分で	-9.84487
ひとりは	-9.84501
アナ	-9.84593
おる	-9.84699
あれ	-9.84763
すであろう	-9.84873
頭を	-9.84927
女に	-9.85001
するのか	-9.85081
ことによって	-9.85124
神から	-9.85179
銀の	-9.85189
三人	-9.85229
誓いを	-9.8525
エポデ	-9.85255
エステル	-9.85255
シメオン	-9.85255
計りごと	-9.85255
に向け	-9.85255
の書にしるされている	-9.85255
ヘロデ	-9.85256
半ば	-9.85282
者には	-9.85407
るからである	-9.85419
買	-9.85474
ほか	-9.85479
二千	-9.85587
の中の	-9.8559
民衆	-9.85592
渡し	-9.85706
まれた	-9.85786
あるもの	-9.858
家来たち	-9.85885
力と	-9.85987
るのは	-9.86024
てくれた	-9.86167
ギレアデの	-9.86169
愚か	-9.86186
の氏族	-9.86235
前の	-9.86239
殺され	-9.86266
さばきを	-9.86274
殺す	-9.86345
用	-9.86395
があれば	-9.86508
に着いた	-9.86581
らす	-9.86704
安息日に	-9.86716
獲た	-9.86841
衣を	-9.86935
必	-9.87012
よろしく	-9.87074
に伏し	-9.8708
ヨラム	-9.87082
ツロ	-9.87089
しかも	-9.87106
あなたと共に	-9.87125
一同	-9.87135
日が	-9.87148
おとめ	-9.87149
ホル	-9.87178
聞きいれ	-9.87266
あなたがたと	-9.87305
に投げ入れ	-9.87374
はしため	-9.875
わたしはわが	-9.87558
もし人が	-9.87569
戦いに	-9.87593
破れ	-9.87644
一日	-9.87713
主イエス	-9.87714
神の子	-9.87857
怒	-9.87884
の名を	-9.87915
なさ	-9.8794
満ち	-9.88023
ことができようか	-9.88068
しもべは	-9.8813
ではありません	-9.88174
といった	-9.88202
ています	-9.88215
撃ち	-9.8826
りました	-9.88286
殺そうと	-9.88321
われらを	-9.88327
しました	-9.88454
の子は	-9.88529
なんと	-9.88628
を行い	-9.88641
安息	-9.88679
その身	-9.8877
六十	-9.88776
満	-9.88827
体	-9.88853
バビロンに	-9.88864
和	-9.88906
やもめ	-9.88917
ベツレヘム	-9.88925
そんな	-9.88925
木の	-9.88928
明らかに	-9.88928
暗やみ	-9.88939
エリコ	-9.88943
いなご	-9.88948
わたしたちの主イエス	-9.88952
永遠に	-9.88952
ぶどうの木	-9.88952
置く	-9.8902
今日まで	-9.89045
ロテ	-9.89052
までも	-9.89146
はず	-9.89181
しましょう	-9.89189
得た	-9.89199
の書	-9.89247
使徒たち	-9.89247
のかたわら	-9.89281
を捨てて	-9.89415
その子孫	-9.89418
行け	-9.8953
男子	-9.89571
のほとり	-9.89572
に従う	-9.89586
わたしは彼らを	-9.89594
ずつ	-9.89621
恵みを	-9.89629
をつかさど	-9.89646
わき	-9.89661
ミカ	-9.89699
七人	-9.89748
ことのない	-9.89753
に与える	-9.89856
ちまた	-9.89889
その国	-9.89934
わたしがあなたがた	-9.8999
おられます	-9.89992
あす	-9.89996
妻と	-9.90021
雄	-9.90173
礼拝	-9.90187
って言った	-9.90191
あなたの家	-9.90398
にとって	-9.90512
右に	-9.90531
自分が	-9.90633
た時	-9.90657
叫んで	-9.90703
から出た	-9.90755
しばらく	-9.90797
倒れた	-9.90806
城	-9.90806
アブネル	-9.90812
ナフタリ	-9.90812
すみやかに	-9.90815
サタン	-9.90828
やがて	-9.90843
聖書	-9.90847
しもべたち	-9.90855
行かれた	-9.90856
神殿	-9.90896
高さ	-9.90939
連れ	-9.90949
すみ	-9.91004
サウルの	-9.91007
すわって	-9.91032
人も	-9.91082
に言い	-9.91136
かず	-9.91235
たちを	-9.91299
ペリシテびとは	-9.91324
ほしい	-9.91415
イスラエルの人々が	-9.91425
るまで	-9.91658
ほどの	-9.91676
つかわされた	-9.91875
なわ	-9.91884
すべての事	-9.92015
近く	-9.92256
民はみな	-9.92342
わたしのしもべ	-9.92344
三百	-9.92403
いなかった	-9.92468
人である	-9.92474
からは	-9.92502
イエスは答え	-9.92577
ガド	-9.92605
たる者	-9.92606
ポ	-9.92735
ラケル	-9.92735
プ	-9.92735
たくわえ	-9.92735
のごとく	-9.92736
ダニエル	-9.9278
その町	-9.92792
ガテ	-9.9283
あざ	-9.92843
東の方	-9.92894
つけた	-9.92908
生かし	-9.92938
守り	-9.92964
滅びる	-9.92984
主をほめたたえよ	-9.93042
わたしと一緒に	-9.93116
べて	-9.93128
たちに	-9.93195
山地	-9.93295
をかけ	-9.93323
かす	-9.93389
られたので	-9.93472
ヤコブの	-9.93486
与える	-9.93499
近づいて	-9.93517
かを	-9.93532
るのを	-9.9363
若	-9.93733
その罪	-9.93757
葬	-9.93761
わたしは彼	-9.93774
ることができ	-9.93791
いつ	-9.93805
楽し	-9.93818
を聞いた	-9.93831
づけ	-9.93879
を産んだ	-9.9389
死体	-9.93896
足を	-9.93991
エラ	-9.94037
この女	-9.94073
くつ	-9.94338
するように	-9.94361
の家の	-9.94407
と答えた	-9.94444
主を恐れ	-9.94474
を求める	-9.94548
るなら	-9.94574
正しい人	-9.94638
祭司の	-9.9464
メル	-9.94645
食べて	-9.94655
だと	-9.94664
とおりである	-9.94672
ゼカリヤ	-9.94696
ゼブルン	-9.94696
不思議	-9.94696
ヘテびと	-9.94696
燃える	-9.94696
サラ	-9.94733
ご自身	-9.94746
ゲル	-9.94781
霊が	-9.94918
その口	-9.94932
作った	-9.94967
を喜ばせ	-9.95021
にあった	-9.95047
だけで	-9.95172
るもの	-9.95208
を治め	-9.9524
せる	-9.95272
帰った	-9.95343
この国	-9.95356
国は	-9.95378
悪しき者は	-9.95485
これらのことを	-9.95509
み言葉	-9.95525
かい	-9.95531
ふたりは	-9.95615
食べてはならない	-9.95624
力ある	-9.95624
はいけない	-9.95626
るのか	-9.95792
歩む	-9.95793
彼らの上に	-9.95796
幕屋の	-9.95855
さき	-9.9597
祭司たちは	-9.96038
長さ	-9.96074
わたしの子	-9.9609
に行って	-9.96154
イエスは彼らに	-9.96253
恥じ	-9.963
べた	-9.96327
るのである	-9.96393
へ行き	-9.96403
いつくしみ	-9.96434
ない者	-9.96442
信じた	-9.96474
聖徒	-9.96486
と思った	-9.96524
られるように	-9.96619
ゼデキヤ	-9.96684
ソドム	-9.96696
を出立して	-9.96696
王を	-9.96702
そむいて	-9.96702
諸国民	-9.96711
したように	-9.96735
世々	-9.96784
のぼって	-9.96788
ささえ	-9.96797
すべての者	-9.96879
他	-9.96904
ていない	-9.9693
のようであった	-9.96969
を憎む者	-9.96996
にはいった	-9.97129
すみか	-9.97134
テル	-9.97159
むべき	-9.97233
土地	-9.97283
祈り	-9.97359
を食い	-9.97447
座して	-9.97478
なって	-9.97484
酒を	-9.9753
悪しき者の	-9.97605
心が	-9.97721
ここで	-9.97783
をつかわして	-9.9791
リム	-9.98024
同じように	-9.98156
わたしはこれを	-9.98219
から離れ	-9.9826
べきである	-9.98292
ことについて	-9.98299
があろうか	-9.98317
所から	-9.98383
を汚し	-9.98386
きたので	-9.98415
四百	-9.98416
滅ぼされ	-9.98428
わたしはその	-9.98432
につき	-9.98462
さばく	-9.98486
五人	-9.98487
異	-9.98496
い者	-9.98541
吹	-9.98579
対	-9.98582
えている	-9.98612
アロンとその子たち	-9.98737
進んだ	-9.98754
町は	-9.98763
待ち	-9.98775
上った	-9.9883
高ぶり	-9.98871
神である	-9.98921
日を	-9.98926
に従った	-9.98929
歩いて	-9.98949
ためであった	-9.98956
づ	-9.9899
人には	-9.99034
らい病	-9.99042
キリストは	-9.99114
次に	-9.99129
のもとへ	-9.99216
声をあげて	-9.99219
恐れて	-9.99234
あなたがたの先祖	-9.99284
持	-9.99378
はいり	-9.99397
救を	-9.99397
イム	-9.99432
口を	-9.99447
もしあなたがたが	-9.99528
ルベン	-9.99547
魂	-9.99563
なくなった	-9.99618
さお	-9.99652
に臨み	-9.99653
呼ばわって	-9.99731
て下さった	-9.9985
年の間	-9.99896
多くの人	-9.99903
声が	-9.99912
をうけ	-9.99975
律法の	-10.0013
人間	-10.0015
ことがなく	-10.0026
シラ	-10.0038
に住んだ	-10.0047
あなたはまた	-10.0055
良	-10.0058
清い	-10.0069
エレアザル	-10.0079
おおよそ	-10.0082
アハズ	-10.0082
ギベオン	-10.0082
主の言葉がわたしに臨ん	-10.0083
アンモンびと	-10.0083
全体	-10.0086
ひざ	-10.0086
なくなる	-10.0091
国々の民	-10.0092
リヤ	-10.0093
シロ	-10.0098
るため	-10.0102
を殺す	-10.0105
パンを食べ	-10.0109
民と	-10.011
歩き	-10.0112
主にむかって	-10.0113
守って	-10.0113
をさばく	-10.0115
治め	-10.0117
アイ	-10.0123
自分の家	-10.0129
ソロモン王	-10.0131
オン	-10.0132
を撃って	-10.0136
これを見て	-10.0138
生きて	-10.0138
義人	-10.0141
パリサイ人たち	-10.0144
救い	-10.0153
ヒゼキヤは	-10.0158
初め	-10.017
捕えられ	-10.0172
とどまる	-10.0175
しき	-10.0183
御使が	-10.0185
の命	-10.0186
信仰によって	-10.019
であるか	-10.0191
門の	-10.0194
ることはできない	-10.0196
若者たち	-10.0198
でない	-10.0214
時代	-10.0215
ましたが	-10.0215
できる	-10.0216
石の	-10.022
引	-10.0223
家の	-10.0231
その町々	-10.0249
できない	-10.0261
そして彼らは	-10.028
を呼んで	-10.0287
勇	-10.029
ってきた	-10.029
福	-10.0294
ギベア	-10.0295
集まった	-10.0295
イザヤ	-10.0295
シメイ	-10.0295
ほむべきか	-10.0295
コハテ	-10.0295
世を治めた	-10.0296
ともしび	-10.0297
されたので	-10.0297
父祖	-10.0301
主の宮に	-10.0305
ごろ	-10.0307
出て行った	-10.031
を治める	-10.0315
いた時	-10.0321
のろわれ	-10.0326
を出て	-10.0331
彼女が	-10.0334
てきた	-10.0336
隠し	-10.0337
山の	-10.0337
この日	-10.0349
その人が	-10.035
しい者	-10.0351
恐れた	-10.0359
の肉	-10.0359
物の	-10.0361
これらのもの	-10.0363
わたしはあなたがたを	-10.0369
そばに	-10.0372
ことのないように	-10.0375
から取り	-10.0377
あなたがたはわたし	-10.0381
その人を	-10.0386
中で	-10.0386
これによって	-10.0388
肉を	-10.0392
しもべら	-10.0393
に会う	-10.0393
父の家	-10.0399
とされた	-10.0402
隠れ	-10.0406
ラム	-10.0413
どの	-10.0415
ところで	-10.0416
の道を	-10.0419
呼ばわり	-10.0422
清く	-10.0427
告げた	-10.0433
側に	-10.0434
与えられ	-10.0444
パリサイ人	-10.0448
と同じように	-10.0461
シバ	-10.0465
二頭	-10.0466
あなたの子	-10.0472
三つの	-10.0485
わせた	-10.0491
打	-10.0497
のがれて	-10.0498
とどまって	-10.0498
供え	-10.05
求めた	-10.0501
彼らのうちに	-10.0501
そこには	-10.0503
北の	-10.0503
こう仰せられる	-10.0505
行わなければならない	-10.0506
なん	-10.0509
オリブ	-10.0511
すえ	-10.0511
ギ	-10.0512
を選び	-10.0512
アセル	-10.0512
選ばれた	-10.0512
アハジヤ	-10.0512
バラク	-10.0512
やぐら	-10.0512
雄やぎ	-10.0514
の血を	-10.0515
いえ	-10.0523
に行く	-10.0524
うと	-10.0526
帰ってきて	-10.0526
ベル	-10.0527
これらの事	-10.0528
殺された	-10.0534
を用い	-10.0539
祭司長たち	-10.054
くなって	-10.0554
建て	-10.0559
コラ	-10.0562
野に	-10.0567
アダ	-10.0574
に告げた	-10.0579
者で	-10.0588
生き物	-10.0592
そのような	-10.0598
タイ	-10.0598
のようになり	-10.0601
所を	-10.0613
海に	-10.062
この時	-10.0621
ことができましょう	-10.0648
もしわたしが	-10.0658
初めの	-10.0662
入る	-10.0663
主の言葉が	-10.0674
を持っている	-10.0683
イスラエルよ	-10.0685
ことがある	-10.0693
川の	-10.0695
嘆	-10.0705
義を	-10.0706
四方	-10.0711
との間に	-10.0713
その足	-10.0713
を備え	-10.0718
に投げ	-10.0722
に住む者	-10.0723
のもと	-10.0731
主に仕え	-10.0734
アマジヤ	-10.0734
ミヅパ	-10.0734
にそむいた	-10.0735
どこへ	-10.0736
ひそかに	-10.0737
が彼	-10.0743
ハム	-10.0751
あなたの子孫	-10.0752
を奪い	-10.0752
イスラエルびと	-10.0754
うしろ	-10.0756
であれば	-10.076
を切り	-10.0762
というのは	-10.0764
うる	-10.0769
導いて	-10.0796
カルデヤびと	-10.0798
見ている	-10.0798
出される	-10.0806
から救い	-10.0813
帰ってきた	-10.0818
であるから	-10.082
それによって	-10.0824
世に	-10.083
持っている	-10.0843
なかったからである	-10.0844
そこで彼らは	-10.0847
上り	-10.0851
氏族	-10.0854
されない	-10.0855
いる者	-10.086
示された	-10.0862
割礼を受け	-10.0864
その兄弟たち	-10.0865
しるされ	-10.0885
やぎ	-10.089
イスラエルの人々のうち	-10.0892
べる	-10.0898
地のすべての	-10.0904
の霊	-10.0907
全部	-10.091
えさせ	-10.0921
葉	-10.0922
起きて	-10.0926
光を	-10.0933
エリヤは	-10.0935
ほめたたえ	-10.0937
全き	-10.0949
血の	-10.0954
イシマエル	-10.0962
誓願	-10.0962
ヅ	-10.0962
シマヤ	-10.0962
散らし	-10.0962
もっと	-10.0963
そしり	-10.0963
ヨルダンを渡	-10.0964
バシャン	-10.0964
をおおう	-10.0966
淫行	-10.0966
約束された	-10.0971
ぶんどり物	-10.0972
だれにも	-10.0978
メン	-10.0978
神の言	-10.0979
に代って	-10.0979
律法を	-10.0983
ひも	-10.0984
送	-10.0987
人で	-10.0989
これらの事を	-10.0992
はことごとく	-10.1001
貧しい人	-10.1002
の名によって	-10.1003
万人	-10.1006
死の	-10.1007
その母	-10.1013
ヨブ	-10.1014
わたしの所に	-10.103
間は	-10.1037
イスラエルの人々に	-10.1042
はなく	-10.1043
誇る	-10.1044
アハブ	-10.1045
羊を	-10.1052
気をつけ	-10.1056
をはずかしめ	-10.1057
まわり	-10.1057
ようにと	-10.1059
中に	-10.106
あなたはわたしを	-10.1062
定めた	-10.1067
おうと	-10.1068
主のために	-10.1075
テラ	-10.108
家を建て	-10.1084
イサクは	-10.109
アラ	-10.1101
のがれる	-10.1115
声をあげ	-10.1121
戦う	-10.113
わたしの目	-10.1137
畑に	-10.1141
レビびとは	-10.1146
戸を	-10.1149
頼み	-10.1152
られなかった	-10.1152
と思って	-10.1155
使徒	-10.1155
つぎ	-10.1156
者たちが	-10.116
するために	-10.1161
着物を	-10.1168
に住んでいた	-10.117
栄光を	-10.117
出て行く	-10.1171
ユダヤ人の	-10.1179
いました	-10.118
ボ	-10.1188
を犯し	-10.1191
ザドク	-10.1194
イッサカル	-10.1194
ナダブ	-10.1195
広場	-10.1196
殺される	-10.1197
知り	-10.1199
みんなの者	-10.1203
五頭	-10.1203
開き	-10.1204
わざわいだ	-10.1205
を起し	-10.1206
聖所の	-10.1221
ハテ	-10.1225
告げる	-10.1232
母の	-10.1232
開	-10.1236
王の前に	-10.1239
に帰する	-10.124
内に	-10.1243
となえ	-10.1245
御使たち	-10.1246
しようと	-10.1256
しるしを	-10.1259
を祝福し	-10.126
近い	-10.1265
そして彼は	-10.1265
む者	-10.1282
アブラム	-10.1284
その人に	-10.1286
があっても	-10.1295
あなたの兄弟	-10.1299
アロンは	-10.13
てしまう	-10.1305
はかり	-10.131
ヨルダンの	-10.1319
るのですか	-10.1323
神と	-10.1328
開かれ	-10.1332
歩く	-10.1334
この言葉を	-10.1342
のことで	-10.1349
父よ	-10.1349
建てる	-10.1351
こうして彼らは	-10.1355
められた	-10.1357
しかしわたしは	-10.1359
ことができず	-10.1367
すぐに	-10.1369
しみ	-10.1372
いたく	-10.1375
王に言った	-10.1387
殺	-10.1396
祈を	-10.1398
が満ち	-10.1406
いても	-10.142
をとり	-10.1421
勝	-10.1423
残りの	-10.1429
キリア	-10.1432
ソ	-10.1432
罪を犯す	-10.1432
石がき	-10.1433
に当った	-10.1435
七日の間	-10.1436
五キュビト	-10.1436
全会衆	-10.1437
良き	-10.1451
いつくしみを	-10.1452
を取った	-10.1459
おのが	-10.1462
そのしもべ	-10.1481
エヒウ	-10.1487
たいと	-10.1489
でなく	-10.1498
を汚す	-10.1503
その血	-10.151
バプテスマを受け	-10.1516
して言った	-10.1521
ることができようか	-10.1525
ヨナタンは	-10.1527
目が	-10.1532
かご	-10.1535
同様に	-10.1535
あなたはその	-10.1552
悟る	-10.156
第四	-10.1563
着せ	-10.1563
者たちを	-10.1566
てくれる	-10.158
そのために	-10.1583
火に	-10.1584
はありませんか	-10.1587
三年	-10.1589
わたしには	-10.159
父なる神	-10.1598
ピラトは	-10.16
の皮	-10.1601
に行った	-10.1602
いてはならない	-10.1612
たちと	-10.1616
かり	-10.1617
住み	-10.1618
預言して	-10.1625
長老	-10.1632
デヤ	-10.1642
備	-10.1642
墓に	-10.1643
尋ねて	-10.1647
ヨシャパテ	-10.1648
モーセの	-10.1651
七日	-10.166
肉の	-10.166
持ち物	-10.166
であれ	-10.1662
賜わる	-10.1669
導き出し	-10.167
いちじく	-10.1675
を選んで	-10.1676
に向かい	-10.1676
近づいた	-10.1676
かたくな	-10.1676
こんな	-10.1676
つかわす	-10.1677
外の	-10.1678
ロト	-10.1681
他人	-10.1684
十分の一	-10.1691
それでは	-10.1692
を救い	-10.1694
罪は	-10.1694
宝石	-10.17
をあらわし	-10.17
パル	-10.1702
させられた	-10.1702
聖徒たち	-10.1703
あがめ	-10.1707
ようにして	-10.1709
と呼ばれる	-10.171
心から	-10.171
初めから	-10.1712
ぜた	-10.1719
おのれを	-10.1721
結んだ	-10.1731
すべての物	-10.1733
アブサロムは	-10.1733
あらわれ	-10.1737
三つ	-10.1737
のようになる	-10.1739
に耳を	-10.174
ものに	-10.1748
神はその	-10.1752
怒って	-10.1757
を捕えて	-10.1762
日の間	-10.1765
を数え	-10.1768
と言われ	-10.1781
ずに	-10.1784
その前に	-10.1787
その嗣業	-10.1805
しるしと	-10.181
自分に	-10.1813
知恵と	-10.1819
恐	-10.1829
わたしはあなたがたの	-10.1832
変え	-10.1833
を彼らに	-10.1836
り物	-10.1846
一万	-10.1848
えない	-10.1853
のままに	-10.1857
いるのを見	-10.1859
るな	-10.186
のその他の	-10.1869
させて	-10.1874
るべきである	-10.1886
ことができなかった	-10.189
ものです	-10.189
時から	-10.1892
逃げて	-10.1901
あなたのいつくしみ	-10.1902
決	-10.1909
集める	-10.1913
獣の	-10.1918
主人は	-10.1918
ちょうど	-10.1926
ひじょうに	-10.1926
ネゲブ	-10.1926
つまずき	-10.1926
むなしく	-10.1928
戦争	-10.1928
の族長	-10.1928
数えられた	-10.1928
二度	-10.193
ゆるされ	-10.1935
をとおって	-10.1938
それとも	-10.1939
シャン	-10.1939
祈る	-10.1944
食べさせ	-10.1953
ささげなければならない	-10.1959
望む	-10.1964
主の命	-10.1975
第十	-10.1976
バル	-10.1981
アビメレク	-10.1981
せられ	-10.199
わなかった	-10.1997
落し	-10.2
ダビデ王	-10.2001
の部族の	-10.2002
せられる	-10.2005
集めて	-10.2009
女と	-10.2024
食べた	-10.2026
喜ば	-10.2028
おのれの	-10.2029
群衆が	-10.2034
を与えた	-10.2037
救い出し	-10.2042
天幕に	-10.2043
火が	-10.2044
不義を	-10.2045
れさせ	-10.2049
をささげなければならない	-10.2049
手のわざ	-10.205
集めた	-10.206
死を	-10.2061
とがを	-10.2066
わす	-10.2067
まして	-10.2068
答	-10.207
連れてきて	-10.2075
を知らない	-10.2082
大水	-10.2083
かたが	-10.2084
住む者	-10.2087
呼ばわる	-10.2093
時まで	-10.2096
うもの	-10.2096
信心	-10.2105
のひとりが	-10.2106
に座し	-10.2107
食べることができる	-10.2117
の周囲	-10.2129
ではなかった	-10.2133
悪霊	-10.2133
渡って	-10.2142
アヒ	-10.2146
その地を	-10.2158
汚	-10.2164
呼ばれ	-10.2176
葬った	-10.2176
あまねく	-10.2183
ギルガル	-10.2183
ほら穴	-10.2183
ピリポ	-10.2183
散らされ	-10.2183
目をあげて	-10.2185
あなたがたに言っておく	-10.2185
ひろ	-10.2188
ヨナ	-10.2188
われらの神	-10.2189
りなく	-10.2191
どろ	-10.2194
これがために	-10.2196
見つか	-10.2199
イスラエルのすべての	-10.2203
立てて	-10.2203
その言葉	-10.2216
ユダヤ人たち	-10.2217
ってきて	-10.2222
高ぶる者	-10.2223
がなかった	-10.2228
彼らも	-10.2231
産んだ	-10.2233
殺さ	-10.2234
主があなた	-10.2246
開いて	-10.2254
にまで	-10.2254
弟子たちに	-10.2261
天を	-10.2276
おのの	-10.2285
加え	-10.2295
音	-10.2298
五十人	-10.2298
子たち	-10.2302
聞いている	-10.2309
の世に	-10.2315
を負わせ	-10.2315
きました	-10.2315
ダビデを	-10.2319
この世の	-10.2325
かし	-10.2331
置	-10.2335
魂を	-10.2337
の内に	-10.2349
のまわりに	-10.2353
ているのである	-10.2356
目の	-10.2359
の道は	-10.2374
七十	-10.238
ひとりで	-10.2383
せられた	-10.2391
貧	-10.2396
叫んだ	-10.2399
と名づけ	-10.24
さとし	-10.2401
あだを	-10.2409
受けた	-10.2411
あなたがたに言う	-10.2413
現れた	-10.2429
ならず	-10.2436
導	-10.2437
の産物	-10.2438
祝	-10.2445
大ぜい	-10.2445
ヒルキヤ	-10.2446
めいめい	-10.2446
ラッパを吹き	-10.2446
あざけり	-10.2446
ふたたび	-10.2446
大声で	-10.2446
いにしえ	-10.2446
たずね	-10.2446
ウリヤ	-10.2447
アサフ	-10.2448
ゼラ	-10.2454
代々	-10.2457
の一族	-10.2466
主にあって	-10.2471
ラマ	-10.2472
いな	-10.2476
すべての事を	-10.2476
モーセと	-10.248
ヒラム	-10.2488
そのうちに	-10.2502
いと高き者	-10.2507
燔祭をささげ	-10.2514
者となり	-10.2519
終え	-10.2537
サムソン	-10.2539
父に	-10.2553
万軍の神	-10.2554
まって	-10.256
ただひとり	-10.2573
この所	-10.2574
おこ	-10.2575
の家から	-10.258
ペテロが	-10.2582
遠	-10.2583
滅ぼした	-10.2602
みて	-10.2602
立た	-10.2604
おまえの	-10.2606
用いる	-10.2608
ある者	-10.261
殺された者	-10.2612
ユダに	-10.2619
働	-10.2629
一部	-10.2633
ばし	-10.2634
家畜と	-10.2635
母は	-10.2641
その血を	-10.2642
を汚した	-10.2645
げる	-10.2647
いかに	-10.2648
を撃った	-10.2648
心のうちに	-10.2651
行こうと	-10.2652
ねたみ	-10.2657
み手	-10.2659
あなたの心	-10.266
憎むべき事	-10.2663
洗い	-10.2672
起す	-10.2674
パウロが	-10.2689
二万	-10.27
起った	-10.2706
にならない	-10.2707
半	-10.271
にあずか	-10.2711
いけにえ	-10.2716
ひねもす	-10.2716
メラリ	-10.2716
リベカ	-10.2716
ざくろ	-10.2716
に至り	-10.2716
エブスびと	-10.2716
そのいつくしみはとこしえに絶え	-10.2716
そむく	-10.2716
まっすぐに	-10.2716
たきぎ	-10.2717
喜んだ	-10.2718
スリヤの王	-10.272
三度	-10.272
のつえ	-10.2721
知っています	-10.2722
他の神々	-10.2722
野の獣	-10.2724
数えられた者は	-10.2726
この地に	-10.2731
罪人	-10.2733
こない	-10.2738
そこでわたしは	-10.2738
の子孫である	-10.274
建てた	-10.2743
これは彼らが	-10.2746
に仕えた	-10.2748
むだ	-10.2751
荒野の	-10.2752
を満たし	-10.2757
彼女に言った	-10.2765
を負う	-10.2765
知恵ある者	-10.2768
淫を行	-10.2775
事の	-10.2784
第二	-10.2793
を受けいれ	-10.2793
のない者	-10.2794
小さい者	-10.2795
国の民	-10.2798
次のとおりであ	-10.2802
つつ	-10.2803
行こう	-10.2805
ある人が	-10.2813
にささげ	-10.2817
見える	-10.2828
を受けた	-10.2833
わたしについて	-10.2834
用意	-10.2849
ユダの家	-10.2864
主によって	-10.2864
あの人	-10.2866
をつけ	-10.2867
に入り	-10.2874
者であった	-10.2877
尋ねる	-10.2894
サムソンは	-10.2896
彼らと共に	-10.2896
恥を	-10.2898
その他の	-10.2908
をする者	-10.292
カナン	-10.2924
隠	-10.2926
くびきを	-10.2928
エヒウは	-10.2931
民は皆	-10.2936
ダビデと	-10.2946
にはいり	-10.2947
柱の	-10.295
口から	-10.2951
ろうとして	-10.2953
を負わ	-10.2954
かけた	-10.2962
を知っている	-10.2967
連れてきた	-10.2973
。	-10.2973
エルサレムを	-10.2983
呼んだ	-10.2987
の最も	-10.2992
はなはだ	-10.2992
ボアズ	-10.2994
の賜物	-10.2994
ほんとう	-10.2994
あいさつ	-10.2994
つかえめ	-10.2994
エホヤキム	-10.2994
セイル	-10.2994
おとずれ	-10.2994
たくさん	-10.2994
らせて	-10.2994
泣き	-10.2996
みもとに	-10.2996
めぐらし	-10.2996
の代りに	-10.2996
を打つ	-10.2997
不正	-10.2997
あげる	-10.2999
を作り	-10.3
わからない	-10.3001
心にとめ	-10.3006
ユダとエルサレム	-10.3006
働く	-10.3007
らせる	-10.301
それだから	-10.3019
日々	-10.302
動く	-10.302
その所に	-10.3022
わが愛する者	-10.303
ぞ	-10.3036
のようにし	-10.304
そこでイエスは	-10.3047
救の	-10.3048
いやし	-10.3049
ままで	-10.3051
それを食べ	-10.3055
神の前に	-10.3061
頼む	-10.3062
にさわ	-10.3072
叫ぶ	-10.3075
レバノン	-10.3075
こられた	-10.3075
につかわして	-10.3079
銀を	-10.3083
わたしを助け	-10.309
あなたがたと共に	-10.3094
貧しい者を	-10.3095
現れる	-10.3098
らぬ	-10.3107
をもつ	-10.3109
わたしにむかって	-10.3116
ことはありません	-10.3126
明け	-10.3129
思って	-10.3141
あとに	-10.3146
わたしと共に	-10.3156
所へ	-10.3156
お聞き	-10.3157
わたされ	-10.3167
目には	-10.3171
驚	-10.3179
エフライムの	-10.3186
はいった	-10.3189
レバノンの	-10.3197
カルデヤびとの	-10.3198
話して	-10.3204
追い出し	-10.3204
かれて	-10.3207
御座	-10.3208
祭司が	-10.3213
神の宮の	-10.3218
ダビデの町	-10.3218
庭の	-10.3221
の全地	-10.3225
あなたがたの所に	-10.3242
ことになる	-10.3245
つかさたちは	-10.3248
ことができるか	-10.326
有	-10.3267
ものではない	-10.3272
悲	-10.3277
その頭	-10.3279
感	-10.3279
たちまち	-10.328
エズレル	-10.328
エフタ	-10.328
エホヤダ	-10.328
かも知れない	-10.328
に聞え	-10.328
うわさ	-10.328
犯した罪	-10.328
目をさまして	-10.328
つながれ	-10.328
ナタン	-10.328
なにゆえ	-10.3281
羊の群れ	-10.3283
を持つ	-10.3283
人の子は	-10.3283
にむかい	-10.3285
仕える	-10.3287
を罰する	-10.3292
わたしのもとに	-10.3296
きたるべき	-10.3296
よこしまな	-10.3297
この人が	-10.3302
御名	-10.3304
ならぬ	-10.3305
ほふら	-10.3306
得ない	-10.3307
言っている	-10.3309
その中の	-10.3309
キリストが	-10.3311
けよ	-10.3322
拝み	-10.3322
言葉に	-10.3335
このことを	-10.334
したのである	-10.3348
召	-10.3352
を求めて	-10.3354
実な	-10.3359
いっ	-10.3385
つき	-10.3392
日には	-10.3402
を攻める	-10.3407
をあけ	-10.3415
のようである	-10.3429
みつけ	-10.3429
じた	-10.3434
これは主が	-10.3436
の手によって	-10.3439
目の前に	-10.3448
神を恐れ	-10.3455
をおおい	-10.3458
終	-10.3461
の道に歩	-10.3464
言葉が	-10.3469
これと	-10.347
足で	-10.3492
教を	-10.3493
五百	-10.3497
食事をし	-10.3503
んではならない	-10.3505
大いなる者	-10.3505
二年	-10.3507
主は彼らを	-10.351
しかし彼らは	-10.3524
もみな	-10.3525
が代って王となった	-10.3525
を破	-10.3528
父ダビデ	-10.3539
百二十	-10.3545
三人の	-10.3549
その人の	-10.3552
残った	-10.3552
火の中	-10.3555
あがなわ	-10.3556
ナイ	-10.3563
氏族の長	-10.3563
主の家	-10.3565
なのか	-10.3569
ハマテ	-10.357
に乗り	-10.3574
アムノン	-10.3574
マアカ	-10.3574
あがなう	-10.3574
のぼり	-10.3574
七日のあいだ	-10.3575
にしたがい	-10.3576
主なる	-10.3577
五十	-10.3578
自分自身	-10.358
楽しむ	-10.3581
一度	-10.3583
をひき	-10.3585
ユダの町々	-10.3585
大麦	-10.359
わが君	-10.3591
打ち場	-10.3593
その氏族によ	-10.3594
種の	-10.3594
を殺して	-10.3596
知者	-10.3598
上着を	-10.3603
主の箱	-10.3606
分け与え	-10.3614
工事を	-10.3615
と言わせ	-10.3616
義は	-10.3617
上から	-10.3622
になると	-10.3625
聖なる者	-10.3626
の上の	-10.3626
その敵	-10.3633
悪を行う者	-10.3634
嗣業として	-10.3639
おう	-10.3644
り物を	-10.3647
奪い	-10.3658
くなった	-10.366
思い出	-10.3661
められ	-10.3679
つるぎと	-10.3682
にかけ	-10.3684
呼	-10.3689
をこわし	-10.3692
わされ	-10.3695
このかた	-10.3701
バプテスマを	-10.3706
帰る	-10.3708
滅ぼさ	-10.3709
打たれ	-10.3711
うせ	-10.3714
から出	-10.3719
望みを	-10.373
イスラエルの人々を	-10.3732
力をもって	-10.3732
しさ	-10.3734
入り	-10.3742
祭司はその	-10.3743
送る	-10.3743
いただき	-10.3745
初めに	-10.375
万物	-10.3753
だれの	-10.3763
信仰の	-10.3765
アム	-10.3767
は滅び	-10.3775
おきてを	-10.3777
ようとしている	-10.3781
良く	-10.3787
頼	-10.3789
てほしい	-10.3792
おそれ	-10.38
われわれの先祖	-10.3816
行われる	-10.3819
この後	-10.3827
ひれ伏して	-10.3833
高い所	-10.3837
殿	-10.386
アデ	-10.3863
撃ち殺し	-10.3864
落ちた	-10.3866
ミデアン	-10.3872
オベデ	-10.3877
一歳の雄の小羊	-10.3877
主の契約の箱	-10.3877
イスラエルの聖者	-10.3878
ウジヤ	-10.3878
衣服を洗	-10.3879
臨ませ	-10.3879
あわれま	-10.3879
のところにきて	-10.388
キシ	-10.3882
することを	-10.3884
軍の長	-10.3884
アビヤ	-10.3886
知らず	-10.3886
三日目に	-10.3889
といい	-10.3889
エルサレムから	-10.389
知られ	-10.389
きわめ	-10.389
王の家	-10.3898
きます	-10.3903
語っている	-10.3903
海べ	-10.3904
ないようにし	-10.3908
の上にある	-10.391
いっさいの	-10.3911
の手に渡し	-10.3914
いません	-10.3918
山で	-10.3921
住んだ	-10.3936
け所	-10.3937
になっている	-10.3945
のを聞いた	-10.3948
くびき	-10.3949
あなたの敵	-10.395
思っている	-10.3952
まなかった	-10.3956
わたしはあなたがたの神	-10.3956
主が命じられた	-10.3958
つぐ	-10.3966
あわせ	-10.397
勝利を得	-10.3972
重い	-10.3976
部分	-10.3977
水で	-10.398
みた	-10.3981
の心は	-10.3987
ならなかった	-10.3991
者はみな	-10.3996
そのうちの	-10.4002
ておられる	-10.401
わたしはあなたがたに	-10.4019
先祖の神	-10.4021
はしない	-10.4023
御言を	-10.4031
を撃ち殺した	-10.4035
宮を建て	-10.4056
その部	-10.4059
といって	-10.4066
と共にいる	-10.4073
へ行く	-10.4076
の門に	-10.4082
に会い	-10.4085
滅ぼされた	-10.4088
こわし	-10.41
天国	-10.4103
捕われ	-10.4103
次は	-10.4104
畑の	-10.4105
時にも	-10.4106
実は	-10.4109
にとどまってい	-10.4115
わたしの命	-10.4115
燔祭の	-10.4131
イスラエルのすべての人	-10.4133
けられた	-10.4137
を憎む	-10.4141
とどまった	-10.4142
イスラエルの家の	-10.4148
たちも	-10.4148
金で	-10.4153
いっさい	-10.4154
しないで	-10.4154
うしろに	-10.4159
滅	-10.4175
の周囲に	-10.418
返す	-10.4184
ヨシャパテは	-10.4184
散	-10.4185
束	-10.4189
寄留の他国人	-10.4189
恐ろしい	-10.4189
攻め上	-10.4189
エズラ	-10.4189
ひとりびとり	-10.4189
いずれ	-10.419
君たる者	-10.4191
その境は	-10.4193
ながく	-10.4194
日が来る	-10.4197
を見つけ	-10.4201
シオンの娘	-10.4201
つぼ	-10.4204
エパ	-10.4205
ダビデの子	-10.4214
わたし自身	-10.4215
わたしの足	-10.4216
ひとりの人が	-10.4216
を携え	-10.4219
それに属する	-10.422
国々の	-10.4222
者は皆	-10.4228
なすべき	-10.4231
死人の中からよみがえ	-10.4235
預言者エレミヤ	-10.4237
をすえ	-10.4243
留め	-10.4247
イスラエルの人々に言	-10.4248
子ども	-10.4251
と言っている	-10.426
ることができなかった	-10.4266
、	-10.4267
東の	-10.4274
くなり	-10.4278
仕事	-10.4289
するならば	-10.4295
あなたの所に	-10.4302
ものも	-10.4307
サウルが	-10.4308
知恵は	-10.4311
こともない	-10.4311
者と共に	-10.432
人の子ら	-10.4323
火は	-10.4326
できません	-10.4328
わがしもべ	-10.4332
僕たち	-10.4339
を置き	-10.4345
霊は	-10.4346
ためではなく	-10.4353
に分け	-10.4355
携えてきた	-10.4355
福音を	-10.4356
第二の	-10.4358
六百	-10.4372
を治めた	-10.438
この地を	-10.4394
長い	-10.441
導かれ	-10.4412
勝利	-10.4413
人間の	-10.4423
三十人	-10.4426
これらの言葉を	-10.4432
とりで	-10.4438
はじめた	-10.4442
だけが	-10.4445
に帰った	-10.4455
をもって彼らを	-10.4456
書いた	-10.4458
行われ	-10.4461
されたのである	-10.4464
した事	-10.4486
わたしの心	-10.4488
人の心	-10.4488
であったので	-10.4494
めとった	-10.4494
恵	-10.4496
持ってきて	-10.4498
礼	-10.451
エゼル	-10.4511
とこしえの	-10.4512
に油を注いで	-10.4512
に及んだ	-10.4512
サウロ	-10.4512
こちら	-10.4512
へりくだ	-10.4512
ラモテ	-10.4512
しきりに	-10.4513
牧場	-10.4513
いちじくの木	-10.4513
アマレクびと	-10.4515
乳香	-10.4516
光栄	-10.4516
安全	-10.4518
ボテ	-10.4518
子孫	-10.4521
町から	-10.4522
上ってきて	-10.4528
身を清め	-10.4532
おののき	-10.4532
妻をめと	-10.4534
さら	-10.4539
かたを	-10.4539
ほふり	-10.454
にかけて	-10.4555
その名は	-10.4557
いつくしみと	-10.456
ハル	-10.4563
泣いた	-10.4566
になりました	-10.4578
あなたの手に	-10.4592
った時	-10.4601
楽	-10.4619
これらを	-10.4619
どこで	-10.4625
ということ	-10.4626
人のように	-10.4632
知れ	-10.4635
おいで	-10.4637
持ってきた	-10.4645
そこで王は	-10.4648
言われました	-10.4656
捨てられた	-10.4663
災が	-10.4664
捨てる	-10.4669
言おう	-10.4679
深	-10.4685
歳であった	-10.469
主は生きておられ	-10.4691
あなたのうちに	-10.4697
る者も	-10.4699
ひれ伏し	-10.4708
サマリヤの	-10.4715
おおわれ	-10.472
で満ち	-10.4723
わが魂	-10.4725
城壁を	-10.4728
おかれ	-10.4729
のことである	-10.4744
その道を	-10.4748
ができ	-10.4749
はいない	-10.4751
のほとりに	-10.4752
でもない	-10.4753
をつけて	-10.4757
書物	-10.4761
願って	-10.4769
助	-10.4771
の事について	-10.4772
びとの氏族	-10.4772
わたしの口	-10.4777
に下る	-10.4779
ソロモンが	-10.4786
ふえ	-10.4791
を愛して	-10.48
わが名	-10.4804
設けた	-10.4816
汚れた者	-10.4823
を造る	-10.4831
受けいれる	-10.4832
ダニエルは	-10.4837
信じて	-10.4844
モン	-10.4845
ケルブ	-10.4845
いろいろ	-10.4845
ヘシボン	-10.4845
祭壇の上で焼	-10.4845
に及ぶ	-10.4845
夕まで汚れる	-10.4845
アシラ像	-10.4845
シャルム	-10.4845
出身の	-10.4845
あわれむ	-10.4846
を呼び寄せ	-10.4847
報告	-10.4847
と呼ばれた	-10.4848
ミデアンびと	-10.485
泣く	-10.4851
と思われ	-10.4852
アラバ	-10.4853
なんでも	-10.4853
どこから	-10.4854
エラム	-10.4855
に住んで	-10.4857
自分の命を	-10.486
く起きて	-10.4865
イスラエルの王は	-10.4868
祭の犠牲	-10.4873
寝た	-10.4873
に現れて	-10.4874
牧	-10.488
売り	-10.4885
出かけ	-10.4893
者です	-10.4894
エデ	-10.4896
と書いてある	-10.4898
だち	-10.4898
わたしに答え	-10.49
代って王となった	-10.4901
しません	-10.4904
教える	-10.4918
召された	-10.4921
供え物をささげ	-10.4924
られるでしょう	-10.4925
を送って	-10.4933
のうちにある	-10.494
の言葉を聞いて	-10.4945
をさして	-10.4946
このようにして	-10.4946
ピラト	-10.4951
知っているとおり	-10.4957
つり	-10.4965
ご自分	-10.4989
その名	-10.4993
かわいた地	-10.4996
老人	-10.5008
重く	-10.5009
言わない	-10.502
信頼	-10.502
わたしの心は	-10.5024
火で	-10.5026
ギデオンは	-10.503
ものであって	-10.5045
わが魂は	-10.5046
くなる	-10.505
そうとして	-10.5055
王ひとり	-10.5062
バテ	-10.5069
ないもの	-10.5073
になろう	-10.5076
を知り	-10.5079
るものは	-10.508
あなたの命	-10.5084
となし	-10.5088
一日に	-10.5092
らせてください	-10.5094
その子たち	-10.51
種入れぬパン	-10.5107
歌う	-10.5131
ラン	-10.5134
受けいれ	-10.5141
おし	-10.5144
者がある	-10.5163
歌い	-10.5182
を裂き	-10.5183
新	-10.5183
ナオミ	-10.519
カデシ	-10.519
歌うたう者	-10.519
立ちあがり	-10.519
いなずま	-10.519
ベエルシバ	-10.519
メシュラム	-10.519
バルナバ	-10.519
くださった	-10.519
よろず	-10.519
主がモーセに命じられたとおり	-10.519
みなしご	-10.519
あわて	-10.519
エフライムの山地	-10.5191
カルメル	-10.5191
主の使は	-10.5191
地上の	-10.5191
害を加え	-10.5191
ハナニヤ	-10.5191
エシュア	-10.5193
青糸	-10.5193
移し	-10.5193
親族	-10.5194
祭司エレアザル	-10.5196
つるぎに倒れ	-10.5196
にあずかる	-10.5198
ペル	-10.5198
をおおって	-10.5199
ろうとする	-10.52
七日目に	-10.5201
んだ像	-10.5201
コル	-10.5205
心の中で	-10.5208
汚れたもの	-10.5209
エレミヤは	-10.5212
朝まで	-10.5213
隠して	-10.5219
なくても	-10.5223
地上に	-10.5224
はこれである	-10.5227
帰れ	-10.5228
五つ	-10.5229
万国	-10.5235
預言した	-10.5237
ある者は	-10.5243
広い	-10.5245
ものはない	-10.5258
父母	-10.5264
が死んで	-10.5265
終る	-10.5287
町の門	-10.5289
主に感謝	-10.5293
が起って	-10.5301
日まで	-10.5305
わたしたちのために	-10.5305
多くの民	-10.5308
の手は	-10.5312
知っていた	-10.5319
十一	-10.5323
いやされた	-10.5324
われわれのために	-10.5328
の死体	-10.5331
つかわされ	-10.5332
すぐれた	-10.5333
その日に	-10.5337
守る	-10.5343
彼の手	-10.5344
悲しむ	-10.5347
隠され	-10.5363
神の栄光	-10.5378
住まわせ	-10.5384
アハブは	-10.5386
の音	-10.5386
弟子たちが	-10.5389
呼ばわった	-10.5399
あなたがもし	-10.5406
に当る	-10.5407
へや	-10.5414
を集めて	-10.5418
を得て	-10.5433
連れて行き	-10.5439
のなかに	-10.5441
のがれた	-10.5444
孫	-10.5467
アビメレクは	-10.5469
正しい者は	-10.5473
取られ	-10.5485
御言	-10.5486
愚かな者の	-10.5498
わたしに言った	-10.55
こう言って	-10.5505
奪われ	-10.5515
を断ち	-10.5525
えうせ	-10.5533
やせ	-10.5535
ゆるさ	-10.5544
士	-10.5545
あらかじめ	-10.5547
荒れすたれ	-10.5547
を切り倒し	-10.5547
アカシヤ	-10.5547
ヨタム	-10.5547
タルシシ	-10.5547
バビロンの王ネブカデレザル	-10.5547
わきまえ	-10.5548
をおおった	-10.555
ふところに	-10.555
葬られ	-10.5552
も共に	-10.5552
ミカヤ	-10.5555
勝つ	-10.5556
キリストにあって	-10.5556
門を守る者	-10.5559
わたしをお	-10.5565
得よう	-10.5566
手を伸べて	-10.5567
あなたをほめたたえ	-10.5572
動か	-10.5572
サル	-10.5573
でさえ	-10.558
タル	-10.5584
に負わせ	-10.5585
用い	-10.5586
何ゆえ	-10.559
かわき	-10.5593
事実	-10.5594
わが救	-10.5602
遠い	-10.5605
隠れた	-10.5609
その夜	-10.5609
地の上に	-10.5616
ダビデの家	-10.5618
これを攻め	-10.5637
あなたのもとに	-10.5641
アン	-10.5641
者のように	-10.5647
その周囲に	-10.5647
十六	-10.565
を加え	-10.5652
ベニヤミンの人々	-10.5662
しまい	-10.567
やぎの	-10.5672
ことのないため	-10.5679
させよ	-10.5687
下さった	-10.5702
エフライムは	-10.5703
あなたとあなたの	-10.5703
開け	-10.5708
工人	-10.5711
おのおの自分の	-10.5712
ギデオン	-10.5715
ささげて	-10.573
のかしらたち	-10.5733
その数	-10.5737
ハラ	-10.5741
しまう	-10.5744
あなたの口	-10.5761
に時があ	-10.5769
彼らの神	-10.5773
をいやし	-10.5773
したからである	-10.5776
イエスにあって	-10.5785
滅ぼそうと	-10.5788
パロと	-10.5789
に与えられた	-10.5792
罪所	-10.5793
さばかれる	-10.5796
に聞き従わ	-10.58
信じる者	-10.5801
ことはしない	-10.5802
に帰る	-10.5818
をとどめ	-10.582
むすこ娘	-10.5825
わたしの家	-10.5826
者であって	-10.5829
にゆだね	-10.5835
ためであり	-10.5838
人のために	-10.5845
なるでしょう	-10.5862
どんなに	-10.5872
わたしの敵	-10.5875
さば	-10.5885
祭司長	-10.5894
神の御	-10.5902
十人の	-10.5906
仰せ	-10.5906
あわれんで	-10.5909
非	-10.5917
めぐり	-10.5917
ベネハダデ	-10.5917
マケドニヤ	-10.5917
火で焼か	-10.5917
テモテ	-10.5917
ナイル川	-10.5917
預言する	-10.5917
にすぎない	-10.5917
カレブ	-10.5917
バアシャ	-10.5917
マアセヤ	-10.5917
さまざまの	-10.5917
先見者	-10.5918
苦しむ	-10.5918
ンの子ヨシュア	-10.5918
ヘブルびと	-10.592
分け前	-10.5921
主をほめ	-10.5921
出入り	-10.5921
アヒヤ	-10.5924
とともに	-10.5924
モラ	-10.5925
結ぶ	-10.5926
証言	-10.5927
七月	-10.5928
ニム	-10.5932
ベラ	-10.5939
ドル	-10.5941
上がって	-10.5944
ガドの子孫	-10.5947
囲み	-10.5949
上ってきた	-10.5956
救主	-10.5968
しるされている	-10.5971
彼の上に	-10.5974
罪びと	-10.5977
しようとする	-10.5979
理し	-10.5987
何者	-10.5992
わたしの顔	-10.5996
ギリシヤ人	-10.601
者はない	-10.6016
第一の	-10.6019
野で	-10.6021
身を汚し	-10.6023
主の怒り	-10.603
おろし	-10.6037
もうけ	-10.6047
救われた	-10.6048
ついた	-10.6049
ようにしてください	-10.6055
よく言っておく	-10.606
いのちの	-10.6078
救われ	-10.6085
そののち	-10.6086
の中にいる	-10.6099
祭壇の上に	-10.6103
尋ね求め	-10.6105
やかに	-10.6111
ことがなかった	-10.6127
ていたので	-10.6133
アブラムは	-10.6155
れる者は	-10.6157
のもとにきて	-10.6158
に座する	-10.6159
出せ	-10.6159
ことを聞いた	-10.6164
悪事を	-10.6166
しかった	-10.6168
そうである	-10.6173
その家来たち	-10.6174
その栄光	-10.6185
子を産む	-10.6189
の祭を行	-10.6194
台と	-10.6195
を荒し	-10.6205
神の箱を	-10.6215
かどうか	-10.6222
彼らに与え	-10.6223
ヨブは	-10.6224
ユダヤ人たちは	-10.6231
戒	-10.6238
をのろっ	-10.6242
エッサイ	-10.6246
物を食べ	-10.6247
彼女たち	-10.6263
決め	-10.6272
彼らはみな	-10.6273
の前から追い払	-10.628
荒れ地	-10.6284
妻たち	-10.629
それをもって	-10.6298
を起して	-10.6302
あやまち	-10.6302
ヒビびと	-10.6302
エホアハズ	-10.6302
アマサ	-10.6302
エルカナ	-10.6302
ダリヨス	-10.6302
酒ぶね	-10.6302
に及んで	-10.6302
に至らせ	-10.6302
を憎み	-10.6302
を砕き	-10.6302
カイン	-10.6302
ハザエル	-10.6302
ベナヤ	-10.6302
罪を犯させ	-10.6302
アビシャイ	-10.6302
実を結ぶ	-10.6302
立ちあがって	-10.6302
きびしく	-10.6302
かさね	-10.6302
どういう	-10.6302
他国人	-10.6302
ひどく	-10.6302
導き出された	-10.6304
を作って	-10.6305
雄羊一頭	-10.6306
ることのできる	-10.6307
天と地	-10.6307
を打って	-10.6308
ガザ	-10.6308
勇気	-10.631
近寄って	-10.6311
のようであり	-10.6314
同時に	-10.6315
ガデ	-10.6315
シセラ	-10.632
愛する者たち	-10.633
悪い事を	-10.633
める者	-10.6331
いやす	-10.6333
供え物として	-10.6344
願う	-10.6344
おののい	-10.6347
様子	-10.6348
工事	-10.6349
こう言い	-10.635
合わせ	-10.6352
とりこ	-10.6363
主の前で	-10.6364
五日	-10.637
怒りをもって	-10.6375
イスラエルの子ら	-10.6391
この所に	-10.6396
驚いて	-10.6399
を見ない	-10.6404
願った	-10.6408
しえたげる者	-10.6411
あなたに対して	-10.6416
者があれば	-10.6429
を通らせ	-10.6431
残りの者	-10.644
ユダのすべての	-10.6493
言われたように	-10.6495
かえて	-10.6495
に感謝せ	-10.6498
われて	-10.6503
とどまり	-10.6508
八十	-10.6522
にそむき	-10.6525
この町に	-10.6533
生きておられる	-10.6537
を守らせ	-10.6539
に近づいて	-10.654
あなたの名を	-10.6546
広く	-10.6549
わたしたちも	-10.6552
四つ	-10.6572
切れ	-10.6587
もろもろの山	-10.6592
乳と	-10.6596
ばせ	-10.6598
おじ	-10.6604
者たちに	-10.6605
下った	-10.6632
恥じる	-10.6637
平地	-10.6659
伝えた	-10.6667
うように	-10.6669
まなければならない	-10.6678
あなたのおきてを	-10.6678
心をつくし	-10.6679
その所から	-10.6686
すると彼は	-10.6687
捕えて	-10.6693
スリヤ	-10.6696
シドン	-10.6697
徒	-10.6699
さして誓	-10.67
解き明かし	-10.67
ユ	-10.67
引き上げ	-10.6701
アドニヤ	-10.6702
に至った	-10.6702
つむじ風	-10.6702
にもかかわらず	-10.6702
に及び	-10.6702
はっきり	-10.6702
をかえりみ	-10.6702
リンモン	-10.6702
マナセの半部族	-10.6702
それだのに	-10.6702
主の目の前に悪を行	-10.6702
主の栄光が	-10.6703
たましい	-10.6703
寄留者	-10.6703
口づけし	-10.6703
歌をうた	-10.6703
イスラエルの人々の全会衆	-10.6703
兵士	-10.6704
てもらいたい	-10.6704
合わせて十二人	-10.6704
うぶん	-10.6705
ラキシ	-10.6706
おこなって	-10.6706
が起り	-10.6707
寄	-10.6707
ひとしく	-10.6708
一エパ	-10.6708
不法	-10.6709
宿っている	-10.671
アベル	-10.6712
スト	-10.6713
罪に定め	-10.6716
わたしの怒り	-10.6717
天地	-10.6718
多かった	-10.6721
御国	-10.6726
高ぶ	-10.673
携えてきて	-10.6731
と戦った	-10.6734
一生	-10.6736
除かれ	-10.6736
かえして	-10.6738
彼の前に	-10.6741
いましめ	-10.6746
む者は	-10.6746
あなたにむかって	-10.6749
アハシュエロス王	-10.6754
少なく	-10.6754
働いて	-10.6761
彼らにむかって	-10.6781
ものとし	-10.6783
る者はない	-10.6788
を捨てた	-10.6788
真実な	-10.679
を祝福して	-10.679
破り	-10.6791
互	-10.6792
のへや	-10.6796
し加え	-10.6803
良い物	-10.6808
いまし	-10.681
気づ	-10.6813
書いてある	-10.6814
泣いて	-10.6815
上着	-10.6817
なるもの	-10.6826
進	-10.6836
もしてはならない	-10.6838
かったので	-10.6841
そのとおりに	-10.6843
よみがえらせ	-10.6844
み顔を	-10.685
苦しめられ	-10.6856
の数は	-10.6858
二十キュビト	-10.6869
四日	-10.6874
行きます	-10.6878
老い	-10.6879
わかってい	-10.688
おのれ	-10.6883
まっ	-10.6892
逃げ去った	-10.69
わたしもまた	-10.6909
ヤコブの神	-10.6914
イシ	-10.6917
ようなものである	-10.6929
かわいた	-10.6934
あがる	-10.6936
の中にある	-10.6941
全きもの	-10.6941
てくださる	-10.6949
あがないをし	-10.6949
あなたがたに与え	-10.6956
そこへ	-10.6956
させよう	-10.6959
近寄	-10.697
をあらわす	-10.6974
よくよく	-10.6976
あなたの民イスラエル	-10.6984
一年	-10.6987
心をもって	-10.6992
全地の	-10.6996
権力	-10.7002
生ける神	-10.7025
の魂は	-10.7026
立ち去	-10.7026
なくなり	-10.703
に満たされ	-10.7031
おろして	-10.7033
仕事を	-10.7036
糸で	-10.7053
神の霊	-10.7062
ならせ	-10.7064
すわっていた	-10.7076
に先立って	-10.7095
つるぎで	-10.7103
造られ	-10.7111
シュア	-10.7114
いくさ	-10.7115
ハナン	-10.7118
ょ	-10.7119
を憎んで	-10.7119
エクロン	-10.7119
ペレテ	-10.7119
必ず殺されなければならない	-10.7119
近づき	-10.7119
ヤベシ	-10.7119
身をかがめ	-10.7119
つまずく	-10.7119
持たない	-10.712
もう一度	-10.712
はるかに	-10.712
通り過ぎ	-10.7121
飲み食い	-10.7121
とびら	-10.7121
という名の	-10.7122
諸教会	-10.7122
王のもとに	-10.7123
議会	-10.7125
アモン	-10.7126
くずれ	-10.7128
ゲラ	-10.7128
主が賜わる	-10.7131
アラム	-10.7134
大勇士	-10.7135
ラバ	-10.7136
ひげ	-10.7136
イスラエルの長老たち	-10.7136
をうける	-10.7137
あなたがた自身	-10.7138
イスラエルの民	-10.7139
罪を犯しました	-10.7141
嘆く	-10.7144
をつくり	-10.7146
マナ	-10.7156
清い者	-10.7159
おさめ	-10.7159
わたしに告げ	-10.7165
数人	-10.7166
ありますか	-10.7167
つける	-10.7168
肉を食べ	-10.7171
くださる	-10.7172
声を聞いた	-10.7172
北の方	-10.7176
設け	-10.7206
を建てた	-10.7207
エルサレムにある	-10.7207
バプテスマ	-10.7209
暗い	-10.722
死んだ者	-10.7223
夜のうちに	-10.7244
わたしが主であることを知る	-10.726
をもち	-10.7266
の庭に	-10.7269
救って	-10.7273
今や	-10.7291
ネブカデネザル	-10.7298
出て行き	-10.73
エジプトで	-10.73
を結んで	-10.7301
見るであろう	-10.7308
従わせ	-10.7309
連れ出し	-10.7317
彼のもとに	-10.732
かたである	-10.7337
四万	-10.7341
ついで	-10.7393
れた者	-10.7403
のうちにあって	-10.7407
そうではない	-10.7414
を持っていた	-10.7415
が起った	-10.742
共	-10.7421
連	-10.7434
を強くし	-10.7437
捕われ人	-10.7438
勇士たち	-10.7443
を知った	-10.7461
らせられる	-10.7464
売って	-10.7478
を満たしてい	-10.748
書きしる	-10.7513
ことを聞いて	-10.7516
主を求め	-10.752
愚	-10.7522
示して	-10.7526
歩んだ	-10.7533
残って	-10.7533
仰	-10.7545
みだらな	-10.7554
ピネハス	-10.7554
を悩ます	-10.7554
ペリジびと	-10.7554
その子たちおよびその兄弟たち	-10.7554
テムナ	-10.7554
血を流す	-10.7554
ひずめ	-10.7554
さもないと	-10.7554
の子孫のうちでは	-10.7554
死なせ	-10.7555
会見の幕屋の入口に	-10.7555
すわった	-10.7555
あたり	-10.7555
つかまえ	-10.7555
ペルシャ	-10.7556
シオンの山	-10.7556
ハガル	-10.7556
オリブの木	-10.7556
十二弟子	-10.7557
解放	-10.7557
かしの木	-10.7558
ナバル	-10.7558
の手に渡す	-10.7558
勝ち	-10.7559
肉体	-10.7559
かわいて	-10.7563
信じない	-10.7563
ハッ	-10.7564
によらず	-10.7564
飲んだ	-10.7565
エジプトの王パロ	-10.7565
ヨエル	-10.7566
望んだ	-10.7566
土台	-10.7566
帰ってくる	-10.757
それらは	-10.757
セラヤ	-10.757
ならわし	-10.7572
のところへ行って	-10.7572
場合には	-10.7572
ルベンの子孫	-10.7576
満たし	-10.7577
内庭	-10.7579
となられた	-10.7581
柱頭	-10.7583
わたしに対して	-10.7584
十キュビト	-10.7584
から出たもの	-10.7587
を呼んで言った	-10.759
なさった	-10.7595
一方	-10.7598
書きしるし	-10.7601
者となる	-10.7602
命じたように	-10.7604
第一	-10.7612
地のおもて	-10.7618
の長さは	-10.7621
あなたがたの信仰	-10.7622
やめさせ	-10.7625
についた	-10.7625
ここにいる	-10.7627
やかな	-10.7639
逃げる	-10.7644
祝福される	-10.7655
主の宮で	-10.7657
聖なる山	-10.7674
喜ばれ	-10.7675
生ける者	-10.7685
を造ら	-10.7687
むすこたち	-10.7708
王の命	-10.771
そばめ	-10.7713
数にしたがって	-10.7727
はいらせ	-10.7734
エルサレムへ	-10.7737
常	-10.7743
されること	-10.7751
を過ぎ	-10.7752
彼らの中に	-10.7791
ルベンびと	-10.7805
主はその民	-10.7808
彼に答え	-10.781
荒れ地とな	-10.7815
うべき	-10.7822
あなたのあかし	-10.7825
良いこと	-10.7826
をつかさどる	-10.7834
祝福された	-10.7837
撃たれ	-10.7856
泣き叫	-10.7858
おうとして	-10.7871
エジプトの国から	-10.7878
に臨んで	-10.7885
神の恵み	-10.7889
わが民イスラエル	-10.7892
定められ	-10.7897
イスラエルのうちに	-10.7898
を罰し	-10.7908
ライ	-10.7908
あなたの上に	-10.7925
を下し	-10.7935
犠牲をささげる	-10.7939
祭をささげ	-10.7961
に話した	-10.7962
をつくし	-10.7966
手を伸べ	-10.7982
イスラエルの地	-10.7985
上る	-10.7987
生ける	-10.7987
泣き悲し	-10.7987
遠くから	-10.799
エルサレムの住民	-10.8
こういう	-10.8008
エペソ	-10.8008
ゼルヤの子	-10.8008
ベテシメシ	-10.8008
おびただしい	-10.8008
イゼベル	-10.8008
ゼルバベル	-10.8008
トビヤ	-10.8008
ニネベ	-10.8008
ローマ	-10.8008
油を注がれ	-10.8008
身をめぐらして	-10.8008
にまで及んだ	-10.8008
アジヤ	-10.8008
ラザロ	-10.8008
乳ぶさ	-10.8008
七たび	-10.8008
大ぜいの群衆	-10.8009
をとおして	-10.8009
福音を宣べ伝え	-10.8009
成長し	-10.8011
にいたるまで	-10.8011
ほまれ	-10.8011
千人の長	-10.8011
心に留め	-10.8011
を撃つ	-10.8011
めのう	-10.8013
いくさびと	-10.8013
ユフラテ川	-10.8014
朝ごとに	-10.8015
アロンの子孫	-10.8015
アキシ	-10.8016
ゆえなく	-10.8016
おそく	-10.802
あかり	-10.802
モーセの律法	-10.8022
を呼ぶ	-10.8023
エレミヤに臨んだ	-10.8024
モアブびと	-10.8025
宮殿	-10.8027
人々はみな	-10.8028
天使	-10.8029
セム	-10.803
無知	-10.8031
屋上	-10.8032
のぼる	-10.8033
義とされる	-10.8033
わたしのところに	-10.8037
あがなわれた	-10.8037
心をつくして	-10.8038
することができる	-10.8042
を守る者は	-10.8042
さばきびと	-10.8047
と同じく	-10.8049
ネル	-10.8051
下さる	-10.8051
売った	-10.8056
取り去られ	-10.8057
ルキ	-10.8066
呼んで	-10.8068
ることができるか	-10.8079
いだいている	-10.8082
死ぬであろう	-10.8094
この言葉	-10.81
渡り	-10.8105
あなたがたの上に	-10.8114
連な	-10.8118
六日	-10.812
彼らを恐れ	-10.8124
高くあげ	-10.8131
絶	-10.8137
バニ	-10.8143
こられる	-10.8147
の全家	-10.8148
彼らの前に	-10.8164
神の箱	-10.8164
を撃たれた	-10.8168
合う	-10.817
勢い	-10.8181
生命	-10.8206
よりも多く	-10.8213
みまえに	-10.8215
のために家を建て	-10.8215
長たち	-10.8216
使者をつかわし	-10.8227
用いた	-10.826
の前から逃げ	-10.8261
荒れた	-10.8262
させられる	-10.8273
の内で	-10.8278
けてください	-10.8289
ことをしなかった	-10.8291
あなたの母	-10.8297
言っておく	-10.8301
神のみまえに	-10.8305
勢	-10.8305
あなたの子ら	-10.8305
病人	-10.8312
に出会	-10.8316
ことを知り	-10.8318
ことを知らない	-10.8334
この子	-10.8348
断たれる	-10.8354
の手に渡された	-10.8376
に渡した	-10.8377
にふさわしい	-10.8379
打ち破	-10.8394
に満ちた	-10.8411
地のおもてに	-10.8414
を召して	-10.8431
ヤコブの家	-10.8432
ゲバ	-10.8436
百キュビト	-10.8442
清くなる	-10.8442
汚され	-10.8462
オピヤ	-10.8479
放牧地	-10.8482
メレク	-10.8483
ハダデゼル	-10.8484
ひょう	-10.8484
ゲダリヤ	-10.8484
異邦の	-10.8484
アビガイル	-10.8484
ナアマン	-10.8484
ヘヅロン	-10.8484
注意し	-10.8484
水に身をすす	-10.8484
アシドド	-10.8484
アルノン	-10.8484
そそぎ	-10.8484
満たす	-10.8484
シナイ山	-10.8484
足なえ	-10.8484
たしかに	-10.8485
きっと	-10.8485
の知事	-10.8486
一生の間	-10.8486
ることのできない	-10.8487
の子たちのつかさ	-10.8488
五十キュビト	-10.8488
断じて	-10.8488
権利	-10.8488
その実を	-10.8489
バルク	-10.8489
小麦	-10.849
シャンマ	-10.8491
ひっ	-10.8491
ウザ	-10.8491
立ち返	-10.8491
立てられた	-10.8492
子を産み	-10.8492
わらべ	-10.8494
長官	-10.8494
どおりに	-10.8494
サライ	-10.8494
ヤリム	-10.8494
ハラン	-10.8494
そこに住む	-10.8496
香ばしいかおり	-10.8497
もうひとりの	-10.8497
あなたがた一同	-10.8498
いやされる	-10.85
呼び集め	-10.8501
々しく	-10.8503
大軍	-10.8508
うとめ	-10.851
お告げにな	-10.8513
上って行って	-10.8516
下ってきて	-10.8517
預言し	-10.852
老	-10.8522
若き	-10.8524
ようなもの	-10.853
パン種	-10.8534
山の上に	-10.8535
あなたと一緒に	-10.854
異なる	-10.8541
四方から	-10.8551
エッサイの子	-10.8554
地に投げ	-10.8556
にいる人々	-10.8561
を清める	-10.8563
命じられる	-10.8564
血を流した	-10.8572
火で焼き	-10.8577
少ない	-10.8578
十八人	-10.8579
書かれ	-10.858
良い地	-10.8581
てくださるように	-10.8592
のようになって	-10.8598
種入れぬ	-10.8601
七十人	-10.8607
遠く離れて	-10.8608
のある所	-10.8619
ないうちに	-10.8622
ユダの地	-10.8643
に会った	-10.8647
しかり	-10.8651
ことを知っている	-10.8664
ことを聞き	-10.8691
どうぞ主が	-10.8696
を祝福した	-10.8708
につかせ	-10.8708
戸口	-10.8711
そうだ	-10.8712
周囲に	-10.8715
偽って	-10.8717
に属する者	-10.8731
語られる	-10.8743
すべての国民	-10.875
仰せられる	-10.8773
こともなく	-10.8778
連れてき	-10.8802
が主であることを知るようになる	-10.8817
あかしをし	-10.8834
くちびるは	-10.8842
行わない	-10.8853
求	-10.8862
イスラエルとユダ	-10.8872
に近づく	-10.8887
を行う者は	-10.8915
となっている	-10.8921
あざける	-10.8921
あなたがたに対して	-10.8938
行くべき	-10.8959
アマレク	-10.898
司	-10.8983
アナトテ	-10.8984
アンテオケ	-10.8984
受くべき	-10.8984
オバデヤ	-10.8984
アヒトペル	-10.8984
エホヤダの子ベナヤ	-10.8984
香をたき	-10.8984
エホデ	-10.8984
その家族にしたがって	-10.8984
しかるに	-10.8984
の子らのうちでは	-10.8984
めぐみ	-10.8984
ののしり	-10.8985
と言えば	-10.8985
アビヤタル	-10.8985
外国人	-10.8985
百人の長	-10.8985
つねに	-10.8985
ただちに	-10.8986
ヨルダンの向こう側	-10.8986
生き残った	-10.8986
実を結び	-10.8986
足りない	-10.8986
人を殺した者	-10.8987
をさして誓う	-10.8987
立ち上がって	-10.8988
にわかに	-10.8988
なおさら	-10.8989
の氏族では	-10.899
悟らない	-10.8991
ナホル	-10.8991
と共におる	-10.8993
ゆるされるであろう	-10.8993
力づけ	-10.8994
わたしをつかわされた	-10.8996
どのような	-10.9003
よく聞き	-10.9003
注ぎ油	-10.9005
て下さったのである	-10.9006
一キュビト	-10.9007
終って	-10.9009
わたしが見ている	-10.901
エドムびと	-10.9014
建物	-10.9014
あがないをする	-10.9017
下って行って	-10.9023
者があるか	-10.9024
これらはみな	-10.9024
あがめられ	-10.9034
あなたがたの父	-10.9035
のあとについて	-10.904
ものとなる	-10.9056
今後	-10.9062
を与えよう	-10.9066
に答えて言	-10.9067
恐れるな	-10.9081
人をつかわし	-10.9107
にかなう	-10.9108
されなかった	-10.9115
連れて行って	-10.9117
ることもでき	-10.912
理した	-10.9121
イスラエルの部族	-10.9122
これらのこと	-10.9122
あなたを助け	-10.9134
とどめ	-10.9156
のために備え	-10.916
産む	-10.9172
と戦って	-10.918
ことができません	-10.9189
加	-10.9191
ことわざ	-10.9193
主の前	-10.9208
喜び歌	-10.9242
知ってお	-10.9261
してはいけない	-10.9261
言葉をもって	-10.9271
ンの荒野	-10.9279
神の家	-10.9288
かかる	-10.93
淫を行う	-10.9302
主なるわたしは	-10.9308
六千	-10.932
見えるようにな	-10.9341
に報いる	-10.9358
同様である	-10.9372
後の子孫	-10.9383
あなたに向かって	-10.9403
ことごとく滅ぼし	-10.942
主をほめたたえ	-10.943
良い事	-10.9435
ものであり	-10.9451
主はこう仰せられ	-10.9485
王の宮殿	-10.9487
ふるまい	-10.95
悪を行う	-10.9505
アラビヤ	-10.9511
ラハブ	-10.9511
実を結ば	-10.9511
オムリ	-10.9511
ハシャビヤ	-10.9511
リブナ	-10.9511
お命じになった	-10.9511
ハンナ	-10.9511
なまけ者	-10.9511
スコテ	-10.9511
ヘマン	-10.9511
アタリヤ	-10.9511
マッタニヤ	-10.9511
夜が明け	-10.9511
酒を飲んで	-10.9511
よろしい	-10.9511
分かち	-10.9511
おつかわしになった	-10.9511
一か月	-10.9511
羊と牛	-10.9511
宮に仕えるしもべ	-10.9511
まむし	-10.9511
かわく	-10.9511
アサヘル	-10.9511
こういうわけで	-10.9512
バビロンの王ネブカデネザル	-10.9512
おいでになる	-10.9513
ペリシテびとの君たち	-10.9513
はなはだしく	-10.9514
罰せられる	-10.9514
その解き明かしを	-10.9514
富める者	-10.9514
ユダの王ゼデキヤ	-10.9514
重んじ	-10.9515
貧しく	-10.9516
アダム	-10.9517
ままにしてお	-10.9517
進む	-10.9518
知っておられる	-10.9522
わたしをあわれんで	-10.9524
偽りを言う	-10.9524
どこにいるの	-10.9527
多くの国民	-10.9528
アマリヤ	-10.953
を買う	-10.953
主なるわたしが	-10.9531
ヘル	-10.9531
かぎり	-10.9532
若い者	-10.9534
わたしをお救い	-10.9534
そのかたわらに	-10.9536
永遠の命	-10.9537
に着いて	-10.9537
ガル	-10.9539
ベニヤミンびと	-10.9542
子を産んだ	-10.9552
イスラエルのすべての人々	-10.9553
いたします	-10.9553
王となり	-10.9562
びん	-10.9566
エジプト全国	-10.9572
に敵して	-10.9574
を知ろうと	-10.9577
まかせ	-10.9579
あざける者	-10.9582
わたしを捨てて	-10.9582
あなたのまこと	-10.959
歩む者	-10.9601
を洗って	-10.9601
滅ぼす者	-10.9615
産んだ子	-10.9617
ている間	-10.962
従わず	-10.9634
喜	-10.9644
の家来たちは	-10.9644
されていた	-10.9674
礼拝し	-10.9692
備えた	-10.9701
かすめられ	-10.9704
すべてのわざ	-10.9723
の所へ行って	-10.9723
海の中	-10.9724
彼に告げ	-10.9726
ことができます	-10.9765
次の日	-10.9787
へ連れて行	-10.9789
はずかしめを受け	-10.9793
家にはいって	-10.9803
のそば	-10.981
めかけ	-10.9815
百五十	-10.9822
目に見	-10.9822
過ぎて	-10.9824
と書いてあるとおり	-10.9825
あなたに与える	-10.9839
進ま	-10.9847
寄って	-10.9855
を変えて	-10.9859
語ること	-10.9869
に喜ばれる	-10.9872
てみよ	-10.9885
男女	-10.9901
はわたしのもの	-10.9907
ととなえられる	-10.9918
上げられ	-10.9966
神をあがめ	-10.997
行かない	-10.9972
の中にあって	-10.9973
らい病人	-10.9988
と共におられる	-10.9992
家に帰った	-11
モアブの王	-11.0009
のくちびる	-11.0024
の十分の一を	-11.0031
香ばしいかおりとし	-11.0051
激	-11.006
約	-11.0066
レパイム	-11.0066
おそらく	-11.0066
ケイラ	-11.0066
川向こうの	-11.0066
に及ばない	-11.0066
クロス	-11.0066
ペレヅ	-11.0066
ホセア	-11.0066
彼がしたすべての事	-11.0066
業	-11.0066
男女の奴隷	-11.0066
男子と女子	-11.0066
若い雄牛一頭	-11.0066
荒布をまと	-11.0066
あやまって	-11.0066
香をたいた	-11.0066
八日目に	-11.0066
追いやられた	-11.0066
どこにいるか	-11.0066
と平安とが	-11.0066
におもむ	-11.0067
主の言葉を聞き	-11.0067
新たに	-11.0068
ウジエル	-11.0068
和解	-11.0069
テルザ	-11.007
に目をとめ	-11.007
水を飲ませ	-11.0071
さとき者	-11.0072
オピヤびと	-11.0072
のぼった	-11.0072
そのもろもろの器	-11.0073
身内の	-11.0074
と戦おう	-11.0074
ミカエル	-11.0074
東風	-11.0075
おぼえ	-11.0075
罪のない者	-11.0075
仰せられた	-11.0076
なんという	-11.0076
によれば	-11.0077
香の祭壇	-11.0078
ホシャ	-11.0078
キム	-11.0079
集まってきて	-11.008
マノア	-11.0081
あらし	-11.0088
驚く	-11.0091
告げられた	-11.0093
すわる	-11.0094
ひと言	-11.0101
主権	-11.0101
がたい	-11.0101
を除き	-11.0101
はいってきた	-11.0102
を放って	-11.0105
はずかしめられ	-11.0107
を負い	-11.0107
あかしをする	-11.011
アハブの家	-11.0114
引き出して	-11.0116
すべてのイスラエルびと	-11.0116
生きもの	-11.0124
をめとって	-11.0132
ユダヤ人の王	-11.0138
行わせ	-11.0141
のしわざ	-11.0147
わたしにとって	-11.015
あなたに仕え	-11.0155
ことがあるなら	-11.0159
建てられ	-11.0159
わたしの名によって	-11.0164
地に住む者	-11.0212
のこうべ	-11.022
主の声に聞き従	-11.0224
憎むべきもの	-11.0261
いの国々	-11.0272
主を恐れること	-11.0274
少	-11.0289
町を建て	-11.0317
ぼれ	-11.0332
にとどま	-11.0361
三十歳	-11.0373
強い者	-11.039
を共にし	-11.0403
堅く立って	-11.0416
願	-11.0441
願い求め	-11.0445
悲しんで	-11.0456
の手に渡され	-11.0481
に手をかけ	-11.0492
から出た者	-11.0498
連れ帰	-11.05
来るのを見	-11.0513
の言うこと	-11.0522
感謝する	-11.0528
血を流し	-11.0555
くすしきみわざを	-11.0559
知りません	-11.0563
断ち滅ぼされ	-11.0578
建	-11.0594
に対し	-11.06
全身	-11.0637
に聞き従う	-11.0652
べきもの	-11.0652
しっくい	-11.0654
ナジルびと	-11.0654
ラブシャケ	-11.0654
最初の	-11.0654
いとすぎ	-11.0654
おびただしく	-11.0654
に追いつ	-11.0654
カペナウム	-11.0654
神をつくして	-11.0654
罪を犯さない	-11.0654
たびたび	-11.0654
エリアシブ	-11.0654
デナリ	-11.0654
捕え移された	-11.0654
油そそがれた者	-11.0654
その父祖の家によ	-11.0654
カイザリヤ	-11.0654
マルタ	-11.0654
ここにおります	-11.0654
ホレブ	-11.0654
一万二千人	-11.0654
主の言葉を聞け	-11.0654
しばしば	-11.0654
ぬぐい	-11.0654
そこなう	-11.0655
正月の	-11.0655
主を怒らせた	-11.0655
地上で	-11.0655
アヒメレク	-11.0655
よろい	-11.0655
いよいよ	-11.0655
うめき	-11.0655
口を開いて	-11.0656
ヨハナン	-11.0656
宿営の外に	-11.0656
も夜も	-11.0656
者はのろわれる	-11.0656
すわらせ	-11.0656
あなたがたの間で	-11.0657
拝殿	-11.0657
四十年の間	-11.0657
まん中に	-11.0657
新月	-11.0658
のよわい	-11.0659
かもしか	-11.0659
ホロン	-11.0659
にあう	-11.066
思い起し	-11.066
もろもろの宮殿	-11.066
永遠のいのち	-11.0663
あしら	-11.0663
時が来る	-11.0664
の治世	-11.0664
アロンの子たち	-11.0666
上っていって	-11.0666
苦しんで	-11.0666
と争う	-11.0669
祭司はその人を	-11.0669
わたしの言うことを	-11.0673
あなたの前に恵みを得	-11.0676
あなたに感謝し	-11.0677
ビン	-11.0678
おゆるしくださ	-11.068
に住ま	-11.0682
待つ	-11.0682
悪意	-11.0685
これらは皆	-11.0685
ライム	-11.0686
はかりごと	-11.0692
安らかで	-11.0703
さしあげ	-11.0705
香油	-11.0717
にわたって	-11.0719
をひく	-11.073
少女	-11.0731
を下す	-11.0733
主に信頼	-11.0752
ユダの部族	-11.0759
供えのパン	-11.0779
ほふる	-11.079
子やぎ	-11.0795
住むべき	-11.08
食ら	-11.0802
望んでい	-11.0813
引き出し	-11.0813
着物を着	-11.0816
住んでいた	-11.0821
を囲んで	-11.0855
エジプトの王	-11.0858
天の神	-11.088
その中にある	-11.0881
われわれのうち	-11.0883
追い出す	-11.0884
さばかれ	-11.0915
そむき	-11.0924
を苦しめ	-11.093
ていく	-11.0942
を撃ち破	-11.0951
罪祭とし	-11.0965
待ち望む	-11.0975
ネブカデネザル王	-11.1012
を喜ばれる	-11.1019
力ある者	-11.1019
を解く	-11.1064
集まってきた	-11.1065
主を捨て	-11.1065
伝	-11.1094
心にかなう	-11.1139
宝物	-11.1153
悲しんだ	-11.1192
地を獲	-11.125
渡された	-11.1274
ヨルダンの向こう	-11.1278
割	-11.1279
ネバテの子ヤラベアム	-11.1279
のあとを追って	-11.1279
みごもって	-11.1279
バシャンの王オグ	-11.1279
アシタロテ	-11.1279
シンバル	-11.1279
マルキヤ	-11.1279
三分の一は	-11.1279
くじを引いた	-11.1279
アモリびとの王シホン	-11.1279
エホヤキン	-11.1279
ハダデ	-11.1279
聖会を開	-11.1279
エフロン	-11.1279
ハザル	-11.1279
しっかり	-11.1279
ゲゼル	-11.1279
アミナダブ	-11.1279
シホン	-11.1279
民のうちから断たれ	-11.1279
お与えになった	-11.1279
うかがい	-11.1279
と呼ぶ	-11.1279
たいまつ	-11.128
つばき	-11.128
人をやって	-11.128
ヘルモン	-11.128
こがね	-11.128
恥をこうむ	-11.128
アムラム	-11.128
結ばれ	-11.128
常燔祭と	-11.128
祭司とレビびと	-11.1281
くつがえ	-11.1281
誓いを立てて	-11.1281
ゆるしてや	-11.1281
を従えて	-11.1282
その氏族によれば	-11.1282
数々の	-11.1282
主の手が	-11.1282
めぐって	-11.1283
の手にわたされた	-11.1283
諸君	-11.1283
小屋	-11.1283
イスラエルの全家	-11.1284
しばらくの間	-11.1285
堅く立つ	-11.1285
ペカ	-11.1285
近寄ってきて	-11.1286
かねて	-11.1286
言わなかった	-11.1286
イスラエルの全会衆	-11.1288
引き返し	-11.1289
四キュビト	-11.1289
ふるい	-11.129
むかし	-11.1292
アブラハムの神	-11.1294
わたしをつかわされたかた	-11.1295
進み出て	-11.1296
願っている	-11.1296
出かけて行	-11.1297
滅びうせ	-11.1298
神をほめたたえ	-11.13
トラ	-11.1302
寝台	-11.1302
ることのないようにし	-11.1303
ゼレ	-11.1303
てあげよう	-11.1312
ユダとベニヤミン	-11.1325
布を着	-11.1337
を定めて	-11.1338
聞き従わない	-11.1351
行かれると	-11.1361
ユダの王ヨシャパテ	-11.1362
を思い出して	-11.1386
ることができよう	-11.1387
燔祭の祭壇	-11.1402
町の人々	-11.1411
ことがあろう	-11.1412
を怒らせ	-11.1412
六百人	-11.1425
食わせ	-11.1426
告げ知らせ	-11.1458
雲の中	-11.1468
夫たち	-11.147
金でおお	-11.1474
これに仕え	-11.1487
を着け	-11.1497
しもべども	-11.1512
いと高き神	-11.1529
家にはいった	-11.1532
ことを知った	-11.1539
うたい	-11.1548
恐れることはな	-11.1548
のほかは	-11.1572
動かされ	-11.1604
を守られる	-11.1652
つづけた	-11.1681
はいることができ	-11.1722
出会った	-11.1729
を祝福され	-11.1738
高ぶって	-11.1772
の宿営の	-11.1795
留	-11.1811
衆	-11.1816
に寄留	-11.1897
を結び	-11.1914
町の中	-11.1927
流され	-11.1936
散らす	-11.1946
の長ネブザラダン	-11.1946
クラグ	-11.1946
ネタニヤの子イシマエル	-11.1946
アヒマアズ	-11.1946
アホリバ	-11.1946
エフンネの子カレブ	-11.1946
シャデラク	-11.1946
メシャク	-11.1946
メピボセテ	-11.1946
アナニヤ	-11.1946
ゲハジ	-11.1946
ビルハ	-11.1946
ペオル	-11.1946
年の間エルサレムで世を治めた	-11.1946
解き放	-11.1946
ごぞんじ	-11.1946
にかかわる	-11.1946
エリアブ	-11.1946
セナケリブ	-11.1946
ミリアム	-11.1946
争に出ることのできる二十歳以上の	-11.1946
産みの苦しみ	-11.1946
アルタシャスタ	-11.1946
エイエル	-11.1946
耳のある者は	-11.1946
の流れる地	-11.1946
なめらか	-11.1946
ヤイル	-11.1946
心をかたくなにし	-11.1946
お願いする	-11.1946
聖所のシケルによ	-11.1946
のあまり	-11.1946
山ばと	-11.1947
の頭に手を置	-11.1947
ラッパの音	-11.1947
わたしに従ってき	-11.1947
破滅	-11.1948
エリエゼル	-11.1949
働かせ	-11.195
仰せになった	-11.195
あだを報い	-11.1951
が生じ	-11.1951
もとの所に	-11.1951
半分	-11.1951
じこめ	-11.1952
ジフ	-11.1953
イエスのもとにきて	-11.1953
その柱は	-11.1953
預言者ナタン	-11.1953
シドンびと	-11.1954
かぶり	-11.1955
川を渡	-11.1956
強くなり	-11.1956
ふつか	-11.1956
天の万	-11.1956
エベル	-11.1957
を打った	-11.1964
楽器	-11.1966
を手に持って	-11.1969
のように思われ	-11.1969
宣教	-11.197
とどけ	-11.197
に心をとめ	-11.1973
十シケルの	-11.1978
を救った	-11.1981
追い払われ	-11.1985
に当て	-11.1993
門の入口に	-11.2014
殺させ	-11.2016
ユダの王ヒゼキヤ	-11.202
残れる者	-11.2023
を隠す	-11.2023
そこを去	-11.2024
十五年	-11.2039
北側	-11.2062
に変らせ	-11.2067
こうべに	-11.2073
その残り	-11.2075
モーセに命じられた	-11.2083
酒を飲む	-11.212
身につけ	-11.2125
供	-11.2151
宮にはい	-11.2171
に葬られた	-11.2177
ながめ	-11.219
の近くに	-11.2193
満たされる	-11.2227
告げ示	-11.2232
服を着	-11.2252
に宿る	-11.2274
わたしたちの先祖	-11.2282
囲まれ	-11.2294
に渡して	-11.2322
た日から	-11.233
地にひれ伏し	-11.2333
を戒めて	-11.2339
売られ	-11.2363
泣	-11.2384
くちびるを	-11.2449
ことができよう	-11.2502
激しく怒	-11.2507
聞くこと	-11.2536
も同様	-11.2539
死人の中から	-11.2561
をいだいて	-11.2579
知恵を得	-11.2587
清	-11.265
上って来	-11.2657
ウジ	-11.2659
エグロン	-11.266
ハモル	-11.266
マハナイム	-11.266
ささぐべき	-11.266
カレヤの子ヨハナン	-11.266
ジムリ	-11.266
パシュル	-11.266
ヨッパ	-11.266
にふさわしく	-11.266
みきらわれる	-11.266
エフラタ	-11.266
バルジライ	-11.266
願わくは	-11.266
アドラム	-11.266
ケナズ	-11.266
ザカリヤ	-11.266
異言を語	-11.266
香をたく	-11.266
しりぞけ	-11.266
ほかならない	-11.266
エドトン	-11.266
シパテヤ	-11.266
会見の幕屋の入口で	-11.266
百三十シケル	-11.266
預言をし	-11.266
さばきづかさ	-11.266
テコア	-11.266
デビル	-11.266
エダヤ	-11.266
カイザルに	-11.266
テトス	-11.266
ヤゼル	-11.266
マキル	-11.266
ヤミン	-11.266
悪霊を追い出し	-11.266
メデア	-11.266
絶やす	-11.266
軍勢の長たち	-11.266
そうでないと	-11.266
ほめうたえ	-11.266
でいらせられる	-11.266
とどろき	-11.2661
と呼ばれている	-11.2661
ベリア	-11.2661
一キュビト半	-11.2661
シメア	-11.2661
よく聞いてお	-11.2662
銀のさら	-11.2662
ほふって	-11.2662
なんであるか	-11.2662
やすい	-11.2662
悪霊ども	-11.2663
夕方にな	-11.2663
七十シケル	-11.2663
を高める	-11.2664
生き返	-11.2664
諸族	-11.2665
ネボ	-11.2666
のうちの最も	-11.2666
アビウ	-11.2666
にあたって	-11.2666
地のはて	-11.2667
ひろげ	-11.2667
まき散ら	-11.2667
ヨシュアに言われた	-11.2669
投げすて	-11.267
をさばいた	-11.2672
先祖たちの神	-11.2674
このすべての言葉を	-11.2679
いただく	-11.268
死なない	-11.2681
イエスは彼らに答え	-11.2685
かぶと	-11.2685
つまずい	-11.2685
家の主人	-11.2695
こう言うの	-11.2706
お怒りにな	-11.2707
しおれ	-11.2717
の定めに歩	-11.2725
氏族の長たち	-11.2731
をわたしに与え	-11.274
殺せ	-11.2784
に注ぎかけ	-11.2784
をふり	-11.2785
思わない	-11.2808
を獲て	-11.2813
を得ようと	-11.2826
道を歩	-11.2846
断たれ	-11.2864
声をあげて泣	-11.2873
に残し	-11.2874
を切って	-11.2882
もろもろの民の中	-11.2965
の住む所	-11.2989
エルサレムに上	-11.3029
用意をし	-11.3057
語ら	-11.3078
手に渡される	-11.313
多	-11.3138
焼き滅ぼ	-11.3162
叫	-11.3297
を思い出し	-11.3297
なぞを	-11.3307
悲しませ	-11.3308
はいる時	-11.3343
呼ばわれ	-11.3346
ほしいままに	-11.3414
そのくちびる	-11.342
投	-11.3422
そうしなければ	-11.3429
いちばん	-11.343
は二万四千人	-11.343
ヒンノムの谷	-11.343
エヒエル	-11.343
デボン	-11.343
ベレキヤ	-11.343
主のしもべモーセが	-11.343
いたずらに	-11.343
しろがね	-11.343
は王となった時	-11.343
アシケロン	-11.343
イスラエルに罪を犯させた	-11.343
シナイの荒野	-11.343
には及ばな	-11.343
にまで及ぶ	-11.343
むずかしい	-11.343
エノク	-11.343
ケニびと	-11.343
ステパノ	-11.343
ダビデとその従者たち	-11.343
互に愛し合	-11.343
声が聞え	-11.343
恥ずべき	-11.343
戦いの備えをした	-11.343
祭の犠牲に使う雄牛	-11.343
罪なき者	-11.343
みそなわし	-11.343
イヅハル	-11.343
オフル	-11.343
ケレテ	-11.343
主がモーセに命じられたように	-11.343
どれほど	-11.343
また燔祭に使う	-11.343
よろこび	-11.343
火ざら	-11.343
罪祭に使う雄やぎ	-11.343
あたかも	-11.343
その重さは	-11.343
をエジプトの地から導き出	-11.343
おおかみ	-11.343
主がモーセによって	-11.343
過ごす	-11.343
と契約を結び	-11.343
起きあがっ	-11.343
雲の柱	-11.343
わたしを怒らせた	-11.343
そしる者	-11.343
書きおくる	-11.343
と戦うために	-11.343
みつぎを	-11.343
にひとしい	-11.343
土の器	-11.343
どなた	-11.343
ヨザバデ	-11.3431
思いわずら	-11.3431
ヘペル	-11.3431
に従わない	-11.3431
に従わなかった	-11.3431
行動し	-11.3432
受け入れられ	-11.3432
エジプトから導き出し	-11.3432
多数	-11.3432
エデンの	-11.3432
メンと言	-11.3432
携えてこ	-11.3432
若い時から	-11.3432
ヘベル	-11.3432
驚くべき	-11.3432
若い時の	-11.3434
不信の	-11.3435
から生れたもの	-11.3435
のぼらせ	-11.3437
そうしないと	-11.3438
を除いて	-11.344
に当り	-11.344
その死体を	-11.3443
メリバ	-11.3446
の戒めを守り	-11.3462
に着き	-11.3463
をいだく	-11.3481
それらを	-11.3483
をつくって	-11.3502
をさばいて	-11.351
を食う	-11.3536
の前に恵みを得	-11.3539
年老いた	-11.3638
乳を飲	-11.3644
谷の中	-11.3669
十四人	-11.3678
」	-11.3684
の実を食べ	-11.3711
主を待ち望	-11.3819
のふたりの子	-11.386
るようになるため	-11.3897
にやど	-11.3939
の右に座し	-11.3946
やかで	-11.3948
に加えられ	-11.395
に渡さ	-11.4004
の聖者	-11.4054
ギリシヤ	-11.4054
祭としてささげ	-11.4074
で満たされ	-11.4095
その従者	-11.4099
の子どもたち	-11.412
よこしま	-11.4212
アンモン	-11.4243
ヘブル	-11.4258
ペリシテ	-11.4258
ナザレ	-11.4262
ザバデ	-11.4262
テレビンの木	-11.4263
デボラ	-11.4263
そのかいせん	-11.4263
エレモテ	-11.4263
ゼバとザルムンナ	-11.4263
ヒソプ	-11.4263
ベタニヤ	-11.4263
うかがう	-11.4263
アヒカムの子ゲダリヤ	-11.4263
アロエル	-11.4263
メギド	-11.4263
先祖たちに誓われた	-11.4263
家ばとのひな	-11.4263
遠い国から	-11.4263
ねんごろに	-11.4263
の奴隷とな	-11.4263
また雄やぎ一頭を罪祭としてささげ	-11.4263
わたしが主であることを悟る	-11.4263
アポロ	-11.4263
カイザルの	-11.4263
クプロ	-11.4263
ケデシ	-11.4263
タボル	-11.4263
主に憎まれ	-11.4263
祭に使う	-11.4263
どちらが	-11.4263
テラピム	-11.4263
レホブ	-11.4263
つまずかせ	-11.4263
ケダル	-11.4263
バラクはバラム	-11.4263
不信仰な	-11.4263
はげたか	-11.4263
ゼパニヤ	-11.4263
六か月	-11.4263
を取り除き	-11.4263
み名をほめたたえ	-11.4263
香ばしい	-11.4263
みだりに	-11.4263
エリアキム	-11.4263
を見つめて	-11.4263
きびしい	-11.4263
今の時代	-11.4263
レマリヤの子	-11.4263
強い手と	-11.4263
のなかで	-11.4263
安んじて	-11.4263
手ずから	-11.4263
外庭に	-11.4264
き足り	-11.4264
あがなって	-11.4264
光る所	-11.4264
あかしの幕屋	-11.4264
立ちどま	-11.4264
つどい	-11.4265
を楽しませ	-11.4265
まわった	-11.4265
見いだす	-11.4265
パンと水	-11.4267
ことのないようにするため	-11.4267
わたしを恐れさせ	-11.4267
まわる	-11.4269
をこうむ	-11.4275
スサに	-11.4275
を生じ	-11.4279
ゆりの	-11.4282
のあとを追い	-11.4283
人と獣とを	-11.4284
時がきた	-11.4289
住まわれる	-11.429
から断ち	-11.4294
あなたは彼らに言	-11.4294
に捨てられ	-11.431
そうとするの	-11.4319
その持ち主	-11.4322
を奪う	-11.4334
つるぎで殺された	-11.4349
外に出	-11.4385
できなかった	-11.4416
の良心	-11.4434
ねたみを起	-11.4454
を頼みとし	-11.4456
をはぎ取	-11.4486
を行え	-11.4507
のほお	-11.4508
の残った者	-11.4572
にこう言	-11.4608
叫びつづけ	-11.4608
ととなえられ	-11.4609
をおおわ	-11.4725
をひいて	-11.4769
共にいる民	-11.4788
を栄えさせ	-11.481
緒	-11.4849
に隠れて	-11.4874
を殺そうとして	-11.4922
その治世の	-11.4926
老いた者	-11.4932
者の名の	-11.5
に命じられたように	-11.5023
焼きつくし	-11.5038
につれて	-11.5065
ハナニ	-11.5168
アミホデ	-11.5172
ミクマシ	-11.5172
ヨザダクの子	-11.5172
ー	-11.5172
こなたかなた	-11.5172
むさぼる	-11.5172
シロミテ	-11.5172
ミルカ	-11.5172
流出ある者	-11.5172
けがれた霊	-11.5172
つぶやいて	-11.5172
どこからきたのか	-11.5172
イスカリオテ	-11.5172
ゼロペハデ	-11.5172
ネルの子アブネル	-11.5172
一歳の雄の全き小羊	-11.5172
二十歳以上	-11.5172
すみずみ	-11.5172
アクサ	-11.5172
アグリッパ	-11.5172
ザドクとアビヤタル	-11.5172
マグダラのマリヤ	-11.5172
今日に至ってい	-11.5172
会見の天幕	-11.5172
四十日四十夜	-11.5172
選ばれる場所	-11.5172
サドカイ人	-11.5172
マヘリ	-11.5172
ジクリ	-11.5172
ヤペテ	-11.5172
主の言葉がまたわたしに臨ん	-11.5172
ザックル	-11.5172
あめんどう	-11.5172
小さな	-11.5172
ほかに神はない	-11.5172
り動かして	-11.5172
不信者	-11.5172
三か月	-11.5172
パンくず	-11.5172
日の下で	-11.5172
を聖別する	-11.5172
いるのをごらんになっ	-11.5172
水をくみ	-11.5172
国に生れた者	-11.5172
つかわそう	-11.5172
加わって	-11.5172
道ばた	-11.5172
かしこに	-11.5172
とどろく	-11.5172
一歳の	-11.5172
取り除いて	-11.5172
の小葉	-11.5173
まぶた	-11.5173
さそり	-11.5173
金でこれをおお	-11.5173
喜び楽しま	-11.5173
年老いて	-11.5173
十八年に	-11.5173
身分の	-11.5173
れんが	-11.5173
祭のほかのものであ	-11.5174
生かしておい	-11.5174
子を産んで	-11.5175
に導く	-11.5176
を全うする	-11.5179
の耳は	-11.518
絶やさ	-11.5181
実行し	-11.5182
から助け出し	-11.5183
に下らせ	-11.5186
であられる	-11.5189
助かる	-11.519
語り合っ	-11.519
の初物	-11.519
を解いて	-11.5223
の戒めを守る	-11.5223
に別れ	-11.5228
をつれて	-11.5234
合ってい	-11.5278
に引き渡し	-11.529
月の第	-11.5322
苦しめる	-11.5424
くちびるに	-11.5453
にせ預言者	-11.5466
いと高き	-11.5572
事どもを	-11.5598
じ合っ	-11.5607
を現し	-11.5696
安息日を守	-11.5778
の中を歩	-11.578
の敵となる	-11.5841
くちびるの	-11.5875
石で打	-11.592
をもとに返	-11.5937
ユフラテ	-11.6159
むさぼり	-11.6171
おおぞら	-11.6172
ひきうす	-11.6172
メルキゼデク	-11.6172
オテニエル	-11.6172
メラヨテ	-11.6172
主に寄り頼む	-11.6172
アヒトブの子	-11.6172
パダンアラム	-11.6172
世々かぎりなく	-11.6172
神のみまえで	-11.6172
すばらしい	-11.6172
と結ばれた契約	-11.6172
アルパクサデ	-11.6172
アンデレ	-11.6172
サンバラテ	-11.6172
レメク	-11.6172
十分の二	-11.6172
立ちあがった	-11.6172
つぶやき	-11.6172
つぶやく	-11.6172
ツロとシドン	-11.6172
ベルテシャザル	-11.6172
ヤキン	-11.6172
リウエル	-11.6172
不信実な者	-11.6172
何ひとつ	-11.6172
種をまき	-11.6172
立ち上がり	-11.6172
ございます	-11.6172
と向かい合っている所	-11.6172
もみがらのように	-11.6172
インメル	-11.6172
バルネア	-11.6172
中風の者	-11.6172
書きおくり	-11.6172
父または母	-11.6172
その家族にしたがって獲た嗣業であ	-11.6172
アカヤ	-11.6172
アヤロン	-11.6172
エリサベツ	-11.6172
シカニヤ	-11.6172
マルコ	-11.6172
りどよめ	-11.6172
ヘテの人々	-11.6172
マムレ	-11.6172
非常な	-11.6172
ナハシ	-11.6172
その氏族にしたがって	-11.6172
力をつくして	-11.6172
かしこで	-11.6172
のなかから	-11.6172
人も獣も	-11.6172
をかぶって	-11.6172
伝道者	-11.6172
馬と戦車	-11.6172
お立てになった	-11.6172
ねたむ	-11.6172
つなぎ	-11.6172
捕え移した	-11.6172
に感じた	-11.6173
身にまと	-11.6173
奪い去られ	-11.6173
ナザレのイエス	-11.6173
を追うことをやめ	-11.6173
を持たせ	-11.6173
大事な	-11.6174
言いひろめ	-11.6175
携えて行か	-11.6175
ふれ示	-11.6176
主の前に悪を行	-11.6177
み名に感謝	-11.6178
安心し	-11.6178
に会わせ	-11.6178
主の目にかなう事を	-11.6185
を祝福する	-11.6187
をきたらせる	-11.6187
日からこのかた	-11.6192
を取らせ	-11.6227
お話しにな	-11.6235
の広間	-11.6249
父のみもと	-11.6277
の上に置かれ	-11.6278
万八千	-11.6285
そしられ	-11.6289
断ち滅ぼす	-11.6323
契約を破った	-11.6373
再	-11.7279
逃	-11.728
受	-11.8459
与	-11.9874
銅	-12.1628
祖	-12.3563
治	-12.5711
設	-12.5887
偶	-12.9461
畜	-14.4376
燃	-14.4417
裂	-14.4418
奴	-14.4419
隷	-14.442
払	-14.4422
属	-14.4423
砕	-14.4423
伸	-14.4424
乗	-14.4425
邦	-14.4426
最	-14.4427
周	-14.4429
以	-14.443
犠	-14.443
牲	-14.4431
―	-14.4432
及	-14.4433
賜	-14.4434
選	-14.4436
携	-14.4437
伏	-14.4437
至	-14.4438
燔	-14.4439
悩	-14.444
注	-14.4441
氏	-14.4443
契	-14.4444
憎	-14.4444
攻	-14.4445
倒	-14.4446
焼	-14.4447
誓	-14.4448
犯	-14.445
群	-14.4451
律	-14.4451
捨	-14.4452
壇	-14.4453
追	-14.4454
集	-14.4455
向	-14.4457
預	-14.4458
ュ	-14.4458
ャ	-14.4459
尋	-14.446
』	-14.446
謝	-14.4461
嗣	-14.4461
聞	-14.4461
