<pad>	0
</s>	0
<unk>	0
in	-0
an	-1
en	-2
▁s	-3
▁k	-4
ta	-5
▁j	-6
ll	-7
än	-8
is	-9
▁h	-10
▁m	-11
▁o	-12
▁t	-13
▁p	-14
▁ja	-15
va	-16
et	-17
ka	-18
tä	-19
un	-20
si	-21
ei	-22
sa	-23
el	-24
ut	-25
▁n	-26
▁J	-27
▁hän	-28
lle	-29
er	-30
as	-31
oi	-32
▁v	-33
ra	-34
▁ol	-35
▁l	-36
al	-37
on	-38
es	-39
ik	-40
▁ka	-41
▁min	-42
iin	-43
aa	-44
vat	-45
it	-46
▁va	-47
▁H	-48
▁jo	-49
uu	-50
▁on	-51
uo	-52
ät	-53
ti	-54
at	-55
▁si	-56
sä	-57
▁sin	-58
uk	-59
▁S	-60
ul	-61
ää	-62
ki	-63
▁san	-64
llä	-65
ko	-66
mm	-67
▁Ja	-68
▁Her	-69
▁te	-70
▁M	-71
us	-72
il	-73
utta	-74
aan	-75
um	-76
yt	-77
uh	-78
eid	-79
lla	-80
▁oli	-81
▁a	-82
te	-83
▁et	-84
▁ko	-85
▁ta	-86
se	-87
▁kun	-88
▁"	-89
ksi	-90
ist	-91
▁minä	-92
▁Herra	-93
ja	-94
▁niin	-95
▁se	-96
▁mi	-97
ansa	-98
vät	-99
▁kaik	-100
▁he	-101
▁hänen	-102
▁ei	-103
umal	-104
eidän	-105
isi	-106
▁y	-107
ista	-108
▁r	-109
ne	-110
▁vi	-111
uin	-112
hd	-113
ke	-114
äm	-115
oo	-116
im	-117
kä	-118
▁K	-119
▁tul	-120
sta	-121
▁pa	-122
▁joka	-123
ur	-124
sen	-125
kaa	-126
▁Jumal	-127
ot	-128
een	-129
▁N	-130
ten	-131
ään	-132
▁sen	-133
▁sy	-134
mme	-135
▁po	-136
iv	-137
em	-138
▁sanoi	-139
▁A	-140
äh	-141
▁että	-142
tu	-143
▁an	-144
to	-145
▁minun	-146
▁sinun	-147
asta	-148
▁kä	-149
elle	-150
ih	-151
▁as	-152
id	-153
kö	-154
kaan	-155
ran	-156
▁E	-157
taa	-158
▁kunin	-159
▁Si	-160
▁kaikki	-161
kin	-162
ty	-163
eli	-164
oit	-165
▁pal	-166
äl	-167
▁ole	-168
▁hei	-169
pp	-170
▁kan	-171
▁la	-172
▁e	-173
oin	-174
ua	-175
ri	-176
▁I	-177
▁Mutta	-178
eh	-179
▁nä	-180
tan	-181
ma	-182
ee	-183
tka	-184
▁en	-185
▁pä	-186
▁ra	-187
itä	-188
uol	-189
▁sa	-190
▁jotka	-191
ssa	-192
eet	-193
▁vasta	-194
▁sinä	-195
▁ki	-196
elin	-197
▁sillä	-198
des	-199
iset	-200
mi	-201
".	-202
▁heidän	-203
inen	-204
▁kuu	-205
▁läh	-206
▁val	-207
▁Herran	-208
eni	-209
inä	-210
istä	-211
ulle	-212
▁puh	-213
ämä	-214
koon	-215
yö	-216
▁pää	-217
assa	-218
▁tä	-219
▁Is	-220
▁ovat	-221
ui	-222
up	-223
▁ne	-224
ani	-225
kuin	-226
▁päiv	-227
▁Niin	-228
▁poi	-229
isen	-230
ar	-231
▁kuin	-232
kää	-233
so	-234
ys	-235
▁Isra	-236
la	-237
elä	-238
▁saa	-239
▁mutta	-240
jan	-241
vä	-242
ky	-243
os	-244
ila	-245
ille	-246
yh	-247
."	-248
hden	-249
▁Jumala	-250
▁mitä	-251
▁ni	-252
elj	-253
▁maa	-254
▁tuli	-255
▁T	-256
▁to	-257
den	-258
itse	-259
▁ti	-260
▁is	-261
▁olen	-262
▁vuo	-263
ensä	-264
änsä	-265
uksen	-266
▁tei	-267
▁niinkuin	-268
▁yl	-269
nyt	-270
taan	-271
▁van	-272
ia	-273
▁ma	-274
▁hänelle	-275
ellä	-276
▁mu	-277
lm	-278
ksen	-279
▁syn	-280
▁P	-281
▁ha	-282
maan	-283
issa	-284
▁palv	-285
rj	-286
▁olet	-287
▁B	-288
▁Sillä	-289
▁al	-290
isten	-291
▁sano	-292
iksi	-293
▁D	-294
▁olivat	-295
eidät	-296
▁kansa	-297
mmen	-298
▁suu	-299
▁jon	-300
▁il	-301
▁tai	-302
▁teidän	-303
tanut	-304
tta	-305
▁hänet	-306
▁ku	-307
▁vastaan	-308
han	-309
esi	-310
▁so	-311
kse	-312
▁kuning	-313
ha	-314
pä	-315
änä	-316
usta	-317
pa	-318
upun	-319
▁tuo	-320
▁Jumalan	-321
yy	-322
ees	-323
llut	-324
▁häntä	-325
lloin	-326
ön	-327
▁hä	-328
ks	-329
ensa	-330
▁kat	-331
▁Israelin	-332
▁käs	-333
▁hy	-334
▁ih	-335
▁no	-336
▁men	-337
ett	-338
essa	-339
▁kaupun	-340
ska	-341
rin	-342
▁heille	-343
▁jonka	-344
▁kul	-345
▁sitä	-346
ken	-347
uud	-348
aav	-349
eit	-350
▁luo	-351
▁teh	-352
itten	-353
jat	-354
estä	-355
▁Hän	-356
▁kuul	-357
▁kuningas	-358
vi	-359
▁jäl	-360
▁nim	-361
ea	-362
▁Jer	-363
ella	-364
äs	-365
ed	-366
▁poika	-367
▁Joo	-368
unn	-369
issä	-370
▁pel	-371
tin	-372
▁maan	-373
▁`	-374
yös	-375
▁ar	-376
▁mieh	-377
aavid	-378
▁palveli	-379
▁sanoo	-380
kka	-381
▁Daavid	-382
▁kans	-383
▁voi	-384
▁eivät	-385
▁ihm	-386
▁kanssa	-387
van	-388
▁eikä	-389
▁edes	-390
▁ann	-391
▁per	-392
▁ot	-393
▁äl	-394
jen	-395
esta	-396
▁tämä	-397
▁vih	-398
eksi	-399
▁Moo	-400
▁jos	-401
▁me	-402
etta	-403
▁minulle	-404
nä	-405
uun	-406
▁itse	-407
▁koko	-408
▁ty	-409
▁pois	-410
▁heidät	-411
▁var	-412
▁meidän	-413
uon	-414
▁lei	-415
▁minua	-416
▁Sa	-417
▁Jees	-418
sal	-419
atta	-420
▁V	-421
ettu	-422
iden	-423
▁ky	-424
▁	-425
a	-426
i	-427
n	-428
e	-429
t	-430
s	-431
l	-432
ä	-433
k	-434
u	-435
o	-436
m	-437
h	-438
v	-439
r	-440
j	-441
,	-442
p	-443
y	-444
.	-445
d	-446
J	-447
H	-448
"	-449
ö	-450
S	-451
:	-452
M	-453
;	-454
K	-455
b	-456
g	-457
N	-458
A	-459
E	-460
I	-461
?	-462
f	-463
T	-464
`	-465
-	-466
P	-467
B	-468
D	-469
V	-470
!	-471
O	-472
G	-473
R	-474
L	-475
Ä	-476
U	-477
Y	-478
F	-479
1	-480
[	-481
]	-482
3	-483
2	-484
4	-485
9	-486
0	-487
5	-488
(	-489
)	-490
8	-491
6	-492
7	-493
Ö	-494
Z	-495
/	-496
