<pad>	0
</s>	0
<unk>	0
¦	-1.31519
▁¦	-1.74582
▁	-3.03754
𐋇	-3.39901
▁,	-3.50027
a	-3.69583
i	-4.27216
▁.	-4.47307
s	-4.51344
v	-4.6234
u	-4.63206
k	-4.88455
z	-4.95933
o	-5.01563
m	-5.07978
na	-5.20537
se	-5.20831
ne	-5.24141
po	-5.30943
ch	-5.46764
e	-5.53812
l	-5.61265
y	-5.63318
ž	-5.68632
ho	-5.69811
li	-5.745
d	-5.77207
▁:	-5.77658
za	-5.81952
b	-5.82137
š	-5.91653
do	-5.93822
t	-5.93969
ti	-5.95074
á	-5.96895
to	-5.9808
ní	-5.98095
í	-5.99065
že	-5.9907
te	-5.99419
vy	-6.04374
ě	-6.06364
h	-6.12139
od	-6.12599
hospodin	-6.15777
je	-6.20605
jeho	-6.21383
jest	-6.22166
ť	-6.23254
le	-6.26415
▁;	-6.26681
r	-6.27686
p	-6.29121
při	-6.30499
ce	-6.32408
j	-6.36448
pak	-6.37121
by	-6.39053
ů	-6.40552
é	-6.40658
nebo	-6.50275
ni	-6.505
lo	-6.51098
ně	-6.51823
mu	-6.54507
syn	-6.57843
n	-6.59281
la	-6.60622
jí	-6.6081
mi	-6.61229
em	-6.61964
il	-6.62407
řekl	-6.64596
jsem	-6.64666
me	-6.71663
č	-6.74355
tě	-6.76163
ře	-6.77059
aby	-6.77074
pro	-6.77906
ve	-6.79908
byl	-6.81144
ové	-6.8138
ma	-6.82459
ale	-6.8249
ra	-6.83225
ou	-6.83278
né	-6.83782
před	-6.83941
no	-6.86674
když	-6.86911
tak	-6.86993
bude	-6.87196
ob	-6.87322
pa	-6.87618
ji	-6.90075
on	-6.90717
ro	-6.9146
roz	-6.95612
st	-6.98104
sta	-6.98155
vá	-7.00973
kterýž	-7.01348
ý	-7.01884
lid	-7.01928
dá	-7.05121
en	-7.06368
ří	-7.06489
c	-7.06686
ná	-7.06697
ku	-7.07775
své	-7.07862
jejich	-7.0798
al	-7.09772
če	-7.10428
kteříž	-7.10771
jako	-7.12062
ze	-7.13349
ého	-7.13519
lé	-7.13628
ví	-7.14173
ty	-7.16514
tr	-7.16745
ný	-7.17455
ovi	-7.19809
vých	-7.20494
f	-7.20629
má	-7.21043
tedy	-7.21987
cí	-7.22163
ta	-7.23191
jsou	-7.23824
já	-7.25513
nu	-7.26193
dí	-7.26833
da	-7.27955
rá	-7.29123
an	-7.30245
ci	-7.30257
ské	-7.30894
el	-7.31229
král	-7.31535
tu	-7.3327
svého	-7.33811
mne	-7.35959
toho	-7.36653
ší	-7.3703
ých	-7.37401
ru	-7.39461
nad	-7.39679
proti	-7.42055
dal	-7.4268
vou	-7.42905
ky	-7.43606
še	-7.43856
mě	-7.44512
té	-7.45144
ten	-7.45201
tvé	-7.47216
jim	-7.48238
kteréž	-7.48759
ř	-7.49434
jsi	-7.49518
měst	-7.496
di	-7.49824
pod	-7.50091
vám	-7.51405
bůh	-7.52101
g	-7.52235
země	-7.52616
obět	-7.5418
až	-7.54799
jemu	-7.5486
prav	-7.55502
du	-7.5561
také	-7.56116
budou	-7.56208
ň	-7.56993
pře	-7.57332
protož	-7.57392
kr	-7.58266
lí	-7.58549
zemi	-7.59283
ský	-7.6105
bo	-7.61409
ost	-7.61891
pe	-7.62665
mé	-7.62846
pl	-7.6292
dne	-7.63967
což	-7.64109
val	-7.64412
dě	-7.6502
zá	-7.65716
tobě	-7.65993
ním	-7.67232
byli	-7.67684
synů	-7.69119
jej	-7.69592
tí	-7.70574
aj	-7.71048
věc	-7.71271
ar	-7.71652
ři	-7.71947
vše	-7.72441
br	-7.72925
nou	-7.74248
ny	-7.74914
de	-7.75071
-	-7.75175
dl	-7.75214
obě	-7.75677
bylo	-7.76531
uje	-7.77246
ští	-7.77247
sto	-7.77588
ům	-7.77963
dom	-7.78326
hospodinov	-7.78564
ry	-7.78811
ám	-7.7998
iti	-7.80105
pí	-7.81261
kdo	-7.8411
boha	-7.8586
ím	-7.85938
nám	-7.8657
jmén	-7.86675
ech	-7.86825
něm	-7.86985
oval	-7.87143
boží	-7.8727
vol	-7.87364
hle	-7.87659
ova	-7.88936
vedl	-7.89177
sil	-7.89251
sti	-7.89262
dr	-7.8928
pří	-7.89341
iáš	-7.89503
svým	-7.89818
ani	-7.89825
všech	-7.90784
stá	-7.91033
vod	-7.91263
pán	-7.91692
ruk	-7.91862
či	-7.92085
vás	-7.92494
měl	-7.92668
ej	-7.92792
ží	-7.92921
den	-7.93094
mluvil	-7.93811
šel	-7.94114
ův	-7.94206
izraelský	-7.94548
moc	-7.94936
co	-7.97016
všeck	-7.97469
ježíš	-7.99922
jud	-7.99993
mezi	-8.00282
hl	-8.00931
praví	-8.01517
míst	-8.01539
oh	-8.03097
vz	-8.03257
izrael	-8.03517
ým	-8.03608
hr	-8.03765
jste	-8.04213
řk	-8.05752
služebník	-8.06159
pil	-8.06452
všecky	-8.07141
ú	-8.07407
ovati	-8.07625
čí	-8.07774
oči	-8.07806
pr	-8.08181
lu	-8.08302
učinil	-8.08728
národ	-8.08729
tře	-8.08925
ď	-8.09129
žen	-8.09408
těch	-8.09767
můj	-8.09865
člověk	-8.09981
vý	-8.10006
koli	-8.10225
jeruzalém	-8.10959
kon	-8.11288
všickni	-8.11452
ke	-8.11759
ení	-8.12452
cest	-8.12758
nost	-8.13095
svém	-8.13221
živ	-8.139
david	-8.13952
jeden	-8.14342
ha	-8.14557
ují	-8.15944
aniž	-8.16289
kteráž	-8.17041
nich	-8.17638
tá	-8.18165
mně	-8.18315
nás	-8.19541
slov	-8.21016
krále	-8.21403
slyš	-8.21564
osti	-8.2165
kdož	-8.2183
všecko	-8.22157
soud	-8.22174
ání	-8.22421
její	-8.22595
abys	-8.2263
jsme	-8.23111
děl	-8.23817
skrz	-8.2397
prv	-8.25031
jde	-8.25095
čas	-8.25362
srdce	-8.25914
sedm	-8.25919
potom	-8.26198
jak	-8.26541
jisté	-8.26779
pět	-8.27256
bý	-8.27986
byla	-8.28165
my	-8.286
mou	-8.29109
tam	-8.29248
muž	-8.297
duch	-8.30346
nebe	-8.30514
ovali	-8.30651
ství	-8.30905
budu	-8.31499
rad	-8.31943
není	-8.3289
re	-8.33055
nic	-8.33927
(	-8.34247
)	-8.34402
hu	-8.34578
kou	-8.34798
však	-8.34871
budeš	-8.34945
ště	-8.35015
stup	-8.35681
něho	-8.3573
jakž	-8.36184
tvůj	-8.36617
bez	-8.37215
více	-8.37293
ot	-8.38087
rod	-8.39072
pá	-8.39791
bil	-8.40249
káz	-8.40283
pokoj	-8.40679
ků	-8.40759
řeč	-8.40989
činí	-8.41235
str	-8.41304
ó	-8.41651
stalo	-8.42051
vel	-8.42289
tebe	-8.42728
každý	-8.42828
jich	-8.42926
bí	-8.44058
ích	-8.45202
svět	-8.45232
slou	-8.4541
kterouž	-8.46093
nyní	-8.46611
otce	-8.4684
tisíc	-8.46973
již	-8.47585
věd	-8.47825
prorok	-8.48062
noh	-8.48468
tom	-8.48893
šli	-8.48977
odpověděl	-8.49468
naše	-8.49526
nej	-8.49752
tvář	-8.50125
bratří	-8.50924
prostřed	-8.51107
hlas	-8.51725
budete	-8.5192
viděl	-8.52531
sam	-8.52747
čist	-8.52928
hřích	-8.52965
život	-8.53049
stí	-8.53524
dcer	-8.54311
posl	-8.54345
mojžíš	-8.54588
vaše	-8.55501
let	-8.55702
tři	-8.5626
ách	-8.56464
proto	-8.57421
ování	-8.57461
aneb	-8.57978
pokolení	-8.58539
zákon	-8.58624
zem	-8.58885
přišel	-8.58893
hor	-8.59092
jestliže	-8.59143
zlat	-8.59206
jakož	-8.59223
desát	-8.59536
vin	-8.59594
ode	-8.59691
každé	-8.59935
nebude	-8.59963
kal	-8.60311
tomu	-8.60484
bohu	-8.60505
muži	-8.60841
boj	-8.6093
jenž	-8.61559
díl	-8.6162
ská	-8.61803
tý	-8.62196
toto	-8.62673
abych	-8.62938
izraelské	-8.63112
amen	-8.63287
krist	-8.63684
dva	-8.63691
dům	-8.64092
kněz	-8.64196
ještě	-8.64513
činil	-8.64549
ným	-8.65201
řkouc	-8.65401
poslal	-8.65893
ejte	-8.66684
postav	-8.6691
slyšel	-8.66938
takto	-8.67257
mohl	-8.67768
pust	-8.68456
slovo	-8.68473
všelik	-8.68532
boh	-8.68794
zlé	-8.69105
hlav	-8.69149
egypt	-8.69548
zůsta	-8.69957
věř	-8.70507
stran	-8.70922
němu	-8.71008
mluv	-8.71188
poušt	-8.71405
vaši	-8.72082
jedn	-8.72334
tvá	-8.7257
buď	-8.72764
žádné	-8.72986
knížat	-8.74367
dej	-8.74455
saul	-8.74502
oltář	-8.74832
všem	-8.75259
tebou	-8.75546
králov	-8.76039
mnou	-8.76118
dělal	-8.76183
vůj	-8.77661
jedno	-8.78092
otc	-8.781
vati	-8.78289
ským	-8.7841
hněv	-8.78726
vzal	-8.78821
království	-8.78896
tím	-8.79016
nimi	-8.803
úst	-8.80438
druhé	-8.80583
pravím	-8.81009
zdaliž	-8.81534
bratr	-8.82583
čeled	-8.83913
spravedliv	-8.84608
veliké	-8.84866
smrt	-8.85134
vezm	-8.86751
dobré	-8.8726
kněží	-8.8774
vad	-8.88656
jákob	-8.88806
vají	-8.8945
náš	-8.90611
nepravost	-8.90711
táhl	-8.90804
mar	-8.91722
které	-8.91727
měsíc	-8.92071
klad	-8.93133
sláv	-8.93194
ající	-8.94044
modl	-8.94087
věky	-8.946
loži	-8.94672
spravedlnost	-8.96018
jdou	-8.96084
brán	-8.9676
vojsk	-8.97175
veliký	-8.97468
tento	-8.97772
síl	-8.9778
jal	-8.98415
bývá	-8.98441
duše	-8.98909
přikázal	-8.98938
davidov	-9.00436
nesl	-9.00736
noc	-9.01637
sebe	-9.01788
pustil	-9.02265
stříbr	-9.02558
hlad	-9.02925
padl	-9.03238
bit	-9.0324
zdvih	-9.03484
jednoho	-9.03611
čtyř	-9.03811
který	-9.04081
milost	-9.04234
vůkol	-9.04733
mužů	-9.04747
otec	-9.05043
vidí	-9.05448
žid	-9.05565
poněvadž	-9.05678
dvě	-9.05845
smlouv	-9.05996
volal	-9.06085
ujte	-9.06198
joz	-9.06223
dar	-9.06547
kor	-9.06789
dědictví	-9.06954
přišli	-9.07618
bet	-9.07959
ber	-9.07995
mor	-9.08233
kdež	-9.08262
rozum	-9.08678
mojžíšov	-9.08695
anděl	-9.09086
nepřátel	-9.09227
nechť	-9.09267
pročež	-9.09559
mysl	-9.09951
zástupů	-9.10217
babylon	-9.1022
syr	-9.10305
věděl	-9.10919
šalomoun	-9.11217
vrch	-9.11288
ován	-9.11632
dělá	-9.11677
umřel	-9.11891
svatý	-9.12713
mrtv	-9.12894
filistin	-9.12906
vesel	-9.12994
čil	-9.13388
klá	-9.13665
osl	-9.13821
chom	-9.13892
podobn	-9.14243
chází	-9.14279
levít	-9.14333
mluví	-9.14805
žádný	-9.14972
oko	-9.15065
věz	-9.15279
nádob	-9.15375
egyptské	-9.15777
panovník	-9.16373
množství	-9.16726
izraele	-9.16846
kudž	-9.1709
činit	-9.18277
obyvatel	-9.18873
skutk	-9.18876
nější	-9.19452
milosrdenství	-9.19964
pál	-9.20746
hned	-9.21103
dnů	-9.21827
zdrav	-9.22563
šest	-9.22838
iášov	-9.24231
otců	-9.25193
svaté	-9.2559
věčn	-9.25619
práv	-9.25694
vidě	-9.26608
moře	-9.27214
kníže	-9.27215
kteréhož	-9.27954
bydlil	-9.27957
kol	-9.2835
ostříha	-9.29153
miluj	-9.29192
chleb	-9.29316
patř	-9.29372
zdali	-9.29701
abraham	-9.30764
matk	-9.31143
mnoho	-9.31621
jozef	-9.31994
naši	-9.32227
pohan	-9.32568
toliko	-9.33658
tvoji	-9.34499
srdc	-9.34929
manželk	-9.35348
bál	-9.35412
způsob	-9.35776
může	-9.371
zplodil	-9.39262
moudrost	-9.39263
chtěl	-9.39637
služebníc	-9.39706
spolu	-9.39729
stánk	-9.40207
plat	-9.40485
shromáždění	-9.41052
prchlivost	-9.42415
ovým	-9.42838
ješto	-9.42891
svědectví	-9.43335
prosím	-9.44738
krát	-9.44846
chvál	-9.45158
chrám	-9.46193
šlechetn	-9.46622
tvým	-9.47397
dvanáct	-9.47581
nalezl	-9.4759
dobře	-9.47598
truhl	-9.48605
kterak	-9.49083
chodil	-9.49565
mluvit	-9.49596
ustanovení	-9.5002
příčin	-9.50063
kraloval	-9.50516
moáb	-9.50516
starší	-9.50517
jordán	-9.52015
navrátil	-9.52015
svatyn	-9.52685
poškvrn	-9.53028
počal	-9.53045
učiním	-9.53671
přítel	-9.5483
chodí	-9.55191
dobyt	-9.56297
oznámil	-9.56655
učiněn	-9.56656
otevř	-9.56692
krajin	-9.57194
deset	-9.57279
blázn	-9.58251
přikázaní	-9.58251
krev	-9.58844
vnitř	-9.59882
svat	-9.60333
budi	-9.60454
efraim	-9.60968
jazyk	-9.62076
cizí	-9.62276
plnil	-9.62758
mnohý	-9.64488
ačkoli	-9.64931
beniamin	-9.65476
nejvyšší	-9.65476
psal	-9.65518
tvrd	-9.6606
položil	-9.66764
slunce	-9.6722
líbi	-9.67901
vždy	-9.70197
poznal	-9.70232
obrátil	-9.70803
vycháze	-9.72026
dříví	-9.7203
služb	-9.72031
kamení	-9.72071
učedlník	-9.72643
aronov	-9.72704
stráž	-9.72792
hojn	-9.73049
hejtman	-9.73889
ohavnost	-9.7389
zpěv	-9.73898
navrátí	-9.74519
veliko	-9.74738
údolí	-9.75789
itsk	-9.75935
beránk	-9.76429
ovoce	-9.76431
večer	-9.76463
druhý	-9.77075
:	-10.1319
[	-10.2946
1	-10.4868
x	-10.6289
3	-10.9089
.	-10.989
2	-10.9932
4	-11.1346
5	-11.461
8	-11.6539
0	-11.6973
9	-11.7904
6	-11.8404
7	-12.0074
𐊣	-13.3048
𐊼	-13.3048
]	-13.8878
!	-13.8879
?	-13.888
;	-13.8881
#	-13.8882
,	-13.8882
