<pad>	0
</s>	0
<unk>	0
▁	-2.82472
s	-3.24714
▁the	-3.65016
,	-3.91357
a	-3.91549
i	-3.9205
o	-4.02276
n	-4.02284
t	-4.12349
e	-4.16128
▁of	-4.16175
d	-4.24071
u	-4.24812
.	-4.40513
l	-4.49325
c	-4.54883
ed	-4.55275
▁and	-4.58779
▁a	-4.5902
▁in	-4.6463
▁(	-4.7128
p	-4.78161
▁to	-4.78674
y	-4.81609
m	-4.90082
-	-4.9567
r	-4.95711
in	-4.97874
re	-5.00615
▁was	-5.0534
al	-5.10123
ri	-5.10858
er	-5.10901
ing	-5.11284
)	-5.16053
or	-5.17418
ar	-5.18341
le	-5.33556
ra	-5.35657
f	-5.3707
ka	-5.44807
▁re	-5.45469
an	-5.47979
ro	-5.4863
'	-5.49945
ce	-5.50176
w	-5.52968
b	-5.53973
en	-5.53976
▁f	-5.55549
ku	-5.5664
▁is	-5.57241
shi	-5.58577
to	-5.59865
th	-5.61419
mi	-5.61671
A	-5.61833
ta	-5.62035
▁as	-5.64995
ma	-5.65261
ne	-5.69008
g	-5.69155
ga	-5.7023
me	-5.74255
ki	-5.74811
▁A	-5.75329
1	-5.77214
se	-5.78179
ter	-5.79026
st	-5.79033
ur	-5.81172
▁w	-5.84088
▁he	-5.85493
v	-5.87842
yo	-5.88181
▁N	-5.90102
▁for	-5.92435
▁no	-5.92838
ly	-5.9298
chi	-5.94076
ic	-5.94479
ji	-5.95369
sa	-5.95719
k	-5.97554
▁that	-5.97853
do	-5.98153
ll	-5.98524
▁st	-5.98814
O	-5.99446
un	-5.996
ation	-6.00737
wa	-6.01159
ke	-6.02059
ho	-6.02381
ch	-6.02823
▁by	-6.03045
▁O	-6.03837
0	-6.04036
tsu	-6.04381
hi	-6.05068
▁The	-6.05192
▁on	-6.05444
▁be	-6.06383
ent	-6.06748
▁co	-6.08029
ng	-6.08297
h	-6.09059
li	-6.11045
te	-6.12458
▁de	-6.12585
ve	-6.12844
nd	-6.14373
▁b	-6.1505
mo	-6.15245
▁with	-6.15581
▁T	-6.17296
go	-6.18201
no	-6.2034
ld	-6.21788
▁c	-6.21963
2	-6.23765
▁so	-6.23955
I	-6.24303
▁S	-6.25689
ry	-6.26301
it	-6.26447
"	-6.27189
▁his	-6.27232
ko	-6.27625
ge	-6.28575
on	-6.30234
ir	-6.30922
na	-6.3112
▁from	-6.31824
▁In	-6.32483
▁K	-6.32772
D	-6.33456
▁it	-6.34253
es	-6.35364
us	-6.35752
su	-6.35883
bu	-6.37823
ted	-6.39514
ha	-6.39605
),	-6.40957
il	-6.41954
da	-6.4209
ver	-6.42176
).	-6.42513
ther	-6.42643
▁I	-6.43059
▁Ka	-6.4315
ion	-6.43424
▁ma	-6.43896
at	-6.45467
vi	-6.45936
T	-6.4621
▁R	-6.46786
tion	-6.47041
▁"	-6.47639
▁'	-6.47962
▁E	-6.48558
▁at	-6.48646
▁con	-6.4912
▁were	-6.50282
▁Ta	-6.50728
▁se	-6.5081
▁ca	-6.51117
ect	-6.51856
▁p	-6.53674
▁po	-6.54263
S	-6.54509
he	-6.55089
z	-6.55561
▁B	-6.55987
▁who	-6.56227
▁He	-6.56632
jo	-6.5718
▁Hi	-6.57839
▁e	-6.58444
▁which	-6.5917
6	-6.59552
▁are	-6.59918
ment	-6.60706
U	-6.61153
K	-6.61581
sho	-6.62387
▁ha	-6.63573
▁M	-6.6377
7	-6.64837
ate	-6.65157
J	-6.65286
▁su	-6.65577
3	-6.65896
▁W	-6.68184
N	-6.68216
▁To	-6.68647
▁mo	-6.69527
per	-6.69595
▁P	-6.70505
▁tr	-6.7091
ba	-6.71074
▁di	-6.72547
gu	-6.73303
ive	-6.74758
▁Ko	-6.74851
ated	-6.75485
8	-6.76127
ya	-6.77014
▁G	-6.77409
de	-6.77566
▁ex	-6.77728
▁la	-6.78229
▁Sa	-6.78276
▁an	-6.78724
ide	-6.79993
ru	-6.80875
▁C	-6.81143
▁Mi	-6.81261
bo	-6.8403
4	-6.84958
the	-6.85603
▁pro	-6.86646
ni	-6.88326
5	-6.88366
M	-6.88465
ist	-6.88499
gi	-6.88986
:	-6.89726
▁Ma	-6.9002
x	-6.90528
▁period	-6.9343
9	-6.94387
pe	-6.94797
ish	-6.9514
H	-6.9537
▁family	-6.955
zu	-6.95934
co	-6.95983
ig	-6.96161
mon	-6.97255
ally	-6.97672
fu	-6.97883
Y	-6.9877
est	-6.99079
age	-7.0062
▁F	-7.01079
ies	-7.01575
ound	-7.02571
▁clan	-7.03294
▁L	-7.03843
R	-7.039
▁Emperor	-7.04356
▁or	-7.04894
ty	-7.05072
mu	-7.06006
▁It	-7.08027
E	-7.08562
▁but	-7.08716
▁Kyoto	-7.08785
pp	-7.09222
ant	-7.09413
G	-7.10001
▁had	-7.10868
ck	-7.11126
▁also	-7.14114
▁Ho	-7.15328
▁not	-7.16467
▁Shi	-7.16505
▁this	-7.16656
▁name	-7.17098
▁me	-7.1756
ff	-7.17802
man	-7.18017
Japanese	-7.18919
▁pa	-7.19899
ting	-7.19914
▁U	-7.21261
▁Temple	-7.21357
▁pla	-7.21826
▁19	-7.22096
gen	-7.2214
ight	-7.22403
▁Province	-7.22648
out	-7.23124
shu	-7.26156
KA	-7.26229
▁Se	-7.27291
za	-7.28453
▁called	-7.28912
▁Japan	-7.28953
ity	-7.29143
form	-7.29472
▁Sho	-7.30034
▁after	-7.30168
▁time	-7.31247
dai	-7.31267
▁became	-7.32984
▁City	-7.33108
▁Ha	-7.33595
▁dis	-7.34083
▁Yoshi	-7.34863
▁Go	-7.35995
▁Imperial	-7.36239
▁en	-7.36936
ju	-7.37491
j	-7.37738
▁Mo	-7.37825
▁im	-7.38458
▁Co	-7.39393
▁year	-7.39781
ance	-7.39969
▁one	-7.40699
▁such	-7.42098
ture	-7.42813
▁Ki	-7.43172
;	-7.43796
▁18	-7.4401
▁So	-7.44887
▁Ju	-7.45319
▁Shin	-7.45824
kyo	-7.45978
▁have	-7.46522
▁been	-7.46758
▁other	-7.47356
▁Ya	-7.48009
ten	-7.49974
▁Su	-7.5088
port	-7.51597
▁sp	-7.51977
▁Prefecture	-7.52554
▁pre	-7.53255
▁when	-7.53753
▁used	-7.54396
▁Fu	-7.55758
▁part	-7.55815
yama	-7.561
▁Chi	-7.57059
▁comp	-7.6092
B	-7.66586
▁head	-7.68069
▁made	-7.68441
▁cha	-7.68969
MA	-7.69751
cul	-7.69865
low	-7.702
▁Yo	-7.73494
W	-7.73818
Z	-7.73972
▁government	-7.74213
able	-7.75321
▁during	-7.7617
▁people	-7.77658
▁first	-7.77916
▁said	-7.80206
▁under	-7.80456
SHI	-7.81229
▁Dai	-7.81763
▁temple	-7.83587
though	-7.84662
▁gra	-7.85486
▁Prince	-7.86007
C	-7.8767
▁However	-7.90743
▁Station	-7.92204
▁because	-7.97836
▁Shrine	-8.04484
▁system	-8.04484
▁15	-8.0487
▁follow	-8.06802
▁origin	-8.06805
▁between	-8.07812
▁school	-8.09175
▁order	-8.10249
▁position	-8.12312
▁rank	-8.13028
▁high	-8.13379
present	-8.14253
▁After	-8.14476
▁two	-8.14843
▁even	-8.15723
▁about	-8.15927
▁where	-8.17779
▁official	-8.19274
▁work	-8.19675
▁FUJIWARA	-8.20803
ugh	-8.21217
▁established	-8.27167
▁priest	-8.27584
▁shrine	-8.27992
▁book	-8.28826
▁person	-8.28826
produc	-8.28876
▁army	-8.30094
▁Court	-8.30097
▁shogun	-8.30509
▁written	-8.32654
▁Castle	-8.33964
V	-8.39848
]	-8.61639
/	-8.62221
[	-8.62805
P	-8.73289
F	-8.78324
L	-9.0113
Q	-9.53995
X	-9.90604
?	-10.0173
>	-10.1424
(	-10.2572
*	-10.4896
大	-10.7963
=	-10.8489
%	-10.8489
!	-11.0258
–	-11.0258
、	-11.1639
国	-11.2408
一	-11.2408
の	-11.2408
安	-11.3241
子	-11.3241
院	-11.415
神	-11.415
・	-11.415
&	-11.515
上	-11.515
法	-11.6261
本	-11.6261
王	-11.6261
宗	-11.6262
公	-11.7511
美	-11.7511
へ	-11.7512
し	-11.7512
山	-11.894
<	-11.894
り	-11.894
信	-11.894
門	-11.894
師	-11.894
行	-11.894
人	-11.894
道	-11.894
仏	-12.0607
七	-12.0607
氏	-12.0607
無	-12.0607
事	-12.0607
城	-12.0607
念	-12.0607
武	-12.0607
社	-12.0607
都	-12.0607
天	-12.0607
い	-12.0607
候	-12.0607
合	-12.2607
高	-12.2607
≒	-12.2607
姫	-12.2607
政	-12.2607
二	-12.2607
三	-12.2607
下	-12.2607
古	-12.2607
藤	-12.2607
源	-12.2607
島	-12.2607
に	-12.2607
軍	-12.2607
き	-12.2607
`	-12.5106
八	-12.5107
中	-12.5107
慶	-12.5107
と	-12.5107
万	-12.5107
之	-12.5107
尺	-12.5107
屋	-12.5107
小	-12.5107
余	-12.5107
光	-12.5107
名	-12.5107
呂	-12.5107
咒	-12.5107
宮	-12.5107
é	-12.5107
忌	-12.5107
反	-12.5107
普	-12.5107
朝	-12.5107
明	-12.5107
例	-12.5107
q	-12.5107
左	-12.5107
