<pad>	0
</s>	0
<unk>	0
▁¦	-0
in	-1
an	-2
en	-3
ta	-4
si	-5
ka	-6
ja	-7
ll	-8
än	-9
is	-10
tä	-11
va	-12
et	-13
▁s	-14
▁𐋇	-15
▁h	-16
▁k	-17
▁m	-18
on	-19
sa	-20
un	-21
ei	-22
▁,	-23
▁p	-24
▁ja	-25
el	-26
ol	-27
ut	-28
▁t	-29
lle	-30
oi	-31
er	-32
ma	-33
ra	-34
es	-35
jo	-36
la	-37
▁n	-38
▁J	-39
ti	-40
vat	-41
ik	-42
▁hän	-43
as	-44
tu	-45
inä	-46
ki	-47
▁v	-48
ko	-49
uu	-50
iin	-51
ät	-52
▁ol	-53
▁ka	-54
it	-55
sä	-56
aa	-57
te	-58
▁.	-59
se	-60
llä	-61
ää	-62
▁va	-63
▁H	-64
▁jo	-65
ku	-66
mm	-67
▁si	-68
▁l	-69
sta	-70
inun	-71
hän	-72
uo	-73
▁on	-74
ksi	-75
utta	-76
lla	-77
▁"	-78
eid	-79
yt	-80
ul	-81
uh	-82
ke	-83
erra	-84
kä	-85
▁o	-86
▁S	-87
sen	-88
ne	-89
isi	-90
▁san	-91
ansa	-92
al	-93
uma	-94
ten	-95
mi	-96
▁Ja	-97
vi	-98
at	-99
vät	-100
eidän	-101
▁te	-102
▁j	-103
▁M	-104
hd	-105
san	-106
ista	-107
ri	-108
inu	-109
▁a	-110
to	-111
us	-112
että	-113
▁oli	-114
uk	-115
ih	-116
kaa	-117
il	-118
oo	-119
▁ta	-120
ty	-121
ot	-122
▁kun	-123
im	-124
kun	-125
eli	-126
mä	-127
▁minä	-128
een	-129
mme	-130
itä	-131
pa	-132
▁Herra	-133
ssa	-134
ran	-135
▁se	-136
▁niin	-137
▁kaik	-138
▁he	-139
▁hänen	-140
▁ei	-141
ur	-142
kö	-143
▁y	-144
elle	-145
tan	-146
▁ko	-147
äl	-148
▁pa	-149
taa	-150
iv	-151
yn	-152
kaan	-153
▁ku	-154
kin	-155
▁:	-156
▁tä	-157
yö	-158
▁K	-159
umala	-160
▁tul	-161
he	-162
inen	-163
aan	-164
▁joka	-165
kuin	-166
ed	-167
pp	-168
tka	-169
le	-170
li	-171
äh	-172
oit	-173
oli	-174
den	-175
eille	-176
erran	-177
▁N	-178
eh	-179
▁kä	-180
▁sen	-181
maan	-182
niin	-183
eet	-184
so	-185
oin	-186
elin	-187
pä	-188
iset	-189
▁la	-190
ky	-191
▁sanoi	-192
▁A	-193
▁että	-194
eni	-195
▁r	-196
▁;	-197
minä	-198
elä	-199
▁vi	-200
koon	-201
vä	-202
ksen	-203
▁an	-204
▁minun	-205
asta	-206
▁sinun	-207
kan	-208
▁mi	-209
kaik	-210
▁nä	-211
nä	-212
▁as	-213
jan	-214
ole	-215
▁Si	-216
isen	-217
▁kaikki	-218
▁ole	-219
ha	-220
▁E	-221
▁kunin	-222
kää	-223
esi	-224
herra	-225
istä	-226
män	-227
▁kan	-228
essä	-229
lan	-230
istu	-231
▁I	-232
▁Mutta	-233
▁ra	-234
▁pä	-235
ui	-236
▁po	-237
inua	-238
yh	-239
inulle	-240
▁sa	-241
hden	-242
▁et	-243
alv	-244
ee	-245
▁ki	-246
elj	-247
eitä	-248
▁en	-249
nyt	-250
tta	-251
essa	-252
pun	-253
hänen	-254
van	-255
▁jotka	-256
ys	-257
min	-258
uud	-259
lta	-260
ar	-261
ensä	-262
▁vasta	-263
kse	-264
änsä	-265
▁sinä	-266
ille	-267
itse	-268
os	-269
▁Jumala	-270
▁sillä	-271
umalan	-272
mutta	-273
".	-274
isten	-275
tanut	-276
eit	-277
▁heidän	-278
taan	-279
ään	-280
yd	-281
ellä	-282
han	-283
▁kuu	-284
eidät	-285
joka	-286
▁Herran	-287
ni	-288
mmen	-289
issa	-290
▁puh	-291
mu	-292
estä	-293
▁pää	-294
▁läh	-295
▁`	-296
▁Is	-297
assa	-298
▁ovat	-299
▁ne	-300
▁poi	-301
man	-302
▁Niin	-303
▁to	-304
▁saa	-305
upun	-306
▁ni	-307
sillä	-308
▁päiv	-309
ska	-310
ken	-311
stä	-312
änä	-313
llut	-314
po	-315
rin	-316
gas	-317
lloin	-318
▁kuin	-319
pu	-320
tiin	-321
na	-322
raelin	-323
iva	-324
iksi	-325
esta	-326
toi	-327
ud	-328
▁-	-329
ön	-330
▁mutta	-331
."	-332
ensa	-333
onka	-334
pi	-335
pää	-336
maa	-337
tin	-338
ette	-339
alveli	-340
▁is	-341
▁mitä	-342
ks	-343
re	-344
minun	-345
mat	-346
kymmen	-347
▁maa	-348
▁ti	-349
sinun	-350
tän	-351
ihm	-352
▁tuli	-353
sanoi	-354
inut	-355
lä	-356
▁T	-357
kka	-358
ees	-359
▁olen	-360
▁vuo	-361
pe	-362
rj	-363
aavi	-364
aavid	-365
▁ma	-366
kaikki	-367
▁niinkuin	-368
me	-369
yl	-370
▁van	-371
▁mu	-372
▁ha	-373
▁hänelle	-374
tun	-375
jat	-376
▁syn	-377
ura	-378
▁P	-379
yös	-380
kunin	-381
ettu	-382
issä	-383
▁su	-384
▁B	-385
men	-386
uksen	-387
▁Sillä	-388
jen	-389
tel	-390
eru	-391
▁sano	-392
ab	-393
etta	-394
jumala	-395
▁D	-396
▁olivat	-397
sinä	-398
kuu	-399
tso	-400
▁kansa	-401
su	-402
mo	-403
▁suu	-404
▁il	-405
ro	-406
ina	-407
▁Jumalan	-408
▁teidän	-409
kansa	-410
ise	-411
mmä	-412
yttä	-413
▁hänet	-414
▁vastaan	-415
▁ed	-416
laiset	-417
etä	-418
vasta	-419
sivat	-420
tähden	-421
lo	-422
mieh	-423
▁so	-424
köön	-425
ani	-426
▁pu	-427
▁tuo	-428
uon	-429
▁hä	-430
▁häntä	-431
iden	-432
hin	-433
esti	-434
id	-435
päiv	-436
vo	-437
▁vih	-438
laisten	-439
jotka	-440
neet	-441
▁?	-442
eltä	-443
kea	-444
ydä	-445
▁Israelin	-446
yp	-447
oita	-448
▁no	-449
mpp	-450
ho	-451
raeli	-452
vuo	-453
▁men	-454
uuta	-455
yy	-456
▁kaupun	-457
tei	-458
etti	-459
▁heille	-460
herran	-461
ikä	-462
▁jonka	-463
▁kul	-464
▁sitä	-465
▁val	-466
mään	-467
nan	-468
poi	-469
sale	-470
ovat	-471
▁luo	-472
erusale	-473
heidän	-474
▁teh	-475
ssä	-476
▁Hän	-477
äär	-478
▁kuningas	-479
ita	-480
puh	-481
▁jäl	-482
tti	-483
▁poika	-484
▁Joo	-485
▁yl	-486
nut	-487
▁voi	-488
usta	-489
kään	-490
▁pel	-491
▁".	-492
isesti	-493
isin	-494
kymmentä	-495
no	-496
▁käs	-497
▁palveli	-498
▁sanoo	-499
läh	-500
▁Daavid	-501
gyp	-502
▁maan	-503
▁ar	-504
äni	-505
▁eivät	-506
olen	-507
▁ihm	-508
▁kanssa	-509
tto	-510
mitä	-511
▁eikä	-512
▁mieh	-513
tyi	-514
jä	-515
vit	-516
isia	-517
saa	-518
▁olet	-519
▁ty	-520
jaa	-521
▁al	-522
hur	-523
ell	-524
isa	-525
tui	-526
atta	-527
ia	-528
tten	-529
▁äl	-530
onsa	-531
▁pois	-532
tö	-533
eitse	-534
voi	-535
▁me	-536
ir	-537
kas	-538
▁tämä	-539
hä	-540
▁jos	-541
erä	-542
▁minulle	-543
▁Moo	-544
tte	-545
▁itse	-546
▁koko	-547
▁heidät	-548
yv	-549
▁tu	-550
▁meidän	-551
▁lei	-552
▁minua	-553
▁Jees	-554
teen	-555
uudan	-556
▁V	-557
▁nim	-558
val	-559
ihen	-560
▁Kun	-561
eb	-562
▁päivänä	-563
▁Sa	-564
yhä	-565
▁vaan	-566
▁var	-567
ika	-568
sin	-569
ua	-570
kia	-571
onin	-572
kseen	-573
tänyt	-574
kee	-575
nen	-576
ea	-577
var	-578
uden	-579
▁per	-580
▁ky	-581
usko	-582
▁sil	-583
pah	-584
niinkuin	-585
oike	-586
▁kaksi	-587
▁kor	-588
lei	-589
eitsemän	-590
▁toi	-591
ian	-592
▁vä	-593
suu	-594
▁lu	-595
mpä	-596
syn	-597
tuli	-598
iä	-599
las	-600
▁."	-601
▁kol	-602
ikka	-603
▁Jo	-604
lap	-605
▁pal	-606
imo	-607
▁pol	-608
jon	-609
▁kas	-610
▁velj	-611
▁Minä	-612
lleen	-613
tivät	-614
lleet	-615
ella	-616
▁G	-617
?"	-618
ist	-619
▁myös	-620
▁teille	-621
▁kuninkaan	-622
ek	-623
ydäm	-624
da	-625
ppi	-626
asti	-627
hurska	-628
▁suku	-629
▁sinua	-630
▁ri	-631
kelä	-632
jos	-633
hänelle	-634
mit	-635
▁kes	-636
jumalan	-637
▁syö	-638
lu	-639
tule	-640
oni	-641
▁meni	-642
tää	-643
rja	-644
▁heitä	-645
sano	-646
▁Jerusale	-647
▁uh	-648
ristu	-649
aab	-650
olivat	-651
▁sinulle	-652
▁ver	-653
▁tule	-654
▁Silloin	-655
▁li	-656
kaupun	-657
rof	-658
unut	-659
itten	-660
▁O	-661
▁edessä	-662
lli	-663
kunn	-664
eksi	-665
eivät	-666
▁e	-667
haa	-668
▁minut	-669
tämä	-670
katso	-671
▁katso	-672
pet	-673
eljä	-674
▁taiva	-675
ivät	-676
otta	-677
atso	-678
ele	-679
▁kät	-680
teidän	-681
▁elä	-682
asi	-683
tivat	-684
uks	-685
▁R	-686
use	-687
tus	-688
sani	-689
▁tämän	-690
▁hen	-691
hänet	-692
▁teki	-693
uko	-694
▁tykö	-695
ren	-696
vastaan	-697
uut	-698
▁siitä	-699
▁valta	-700
▁käsi	-701
yvä	-702
miin	-703
▁tuh	-704
mia	-705
rit	-706
ino	-707
▁L	-708
▁tempp	-709
esty	-710
▁tulee	-711
▁näin	-712
iste	-713
koi	-714
kul	-715
uun	-716
▁mukaan	-717
olet	-718
uksi	-719
mis	-720
▁nyt	-721
jäl	-722
uka	-723
▁hei	-724
tansa	-725
änne	-726
hta	-727
mpäri	-728
häntä	-729
ettiin	-730
▁tun	-731
do	-732
paa	-733
sia	-734
▁pan	-735
ses	-736
▁tai	-737
teh	-738
rael	-739
palveli	-740
tuo	-741
onut	-742
▁ilm	-743
kuningas	-744
sitä	-745
ksensa	-746
▁vielä	-747
usi	-748
▁seura	-749
etty	-750
poika	-751
koot	-752
pol	-753
vaan	-754
israelin	-755
▁kaupung	-756
▁asti	-757
▁vastasi	-758
joi	-759
pel	-760
▁f	-761
vaa	-762
sansa	-763
hdä	-764
▁mies	-765
ana	-766
luo	-767
▁kaiken	-768
▁israeli	-769
taneet	-770
mies	-771
heille	-772
mon	-773
kob	-774
ria	-775
enne	-776
▁Sen	-777
jonka	-778
▁mikä	-779
isiä	-780
hi	-781
utu	-782
elta	-783
▁Egyp	-784
iseksi	-785
▁maahan	-786
▁Nä	-787
▁tähden	-788
malla	-789
keen	-790
rsi	-791
isille	-792
▁puol	-793
▁Juudan	-794
keli	-795
tul	-796
kki	-797
ver	-798
eikä	-799
▁kirj	-800
dan	-801
mät	-802
ihin	-803
▁sekä	-804
toista	-805
pal	-806
ime	-807
rofeet	-808
ve	-809
mpi	-810
▁!	-811
ltä	-812
näin	-813
ara	-814
tele	-815
▁sanoen	-816
käs	-817
käsi	-818
▁oike	-819
▁lo	-820
silloin	-821
koko	-822
hen	-823
▁juo	-824
▁ettei	-825
▁siihen	-826
rk	-827
oll	-828
▁le	-829
daavid	-830
▁antoi	-831
sanoo	-832
▁na	-833
▁lap	-834
astu	-835
▁sinut	-836
▁usko	-837
iankaik	-838
▁tietä	-839
▁jälkelä	-840
pit	-841
▁jä	-842
teli	-843
kseni	-844
masta	-845
▁tehnyt	-846
mista	-847
del	-848
▁sydäm	-849
▁niiden	-850
kat	-851
uni	-852
uts	-853
▁sanoivat	-854
▁seitsemän	-855
▁pala	-856
▁palvelija	-857
puol	-858
päivänä	-859
kanssa	-860
per	-861
▁otti	-862
ysy	-863
moo	-864
▁tur	-865
kasta	-866
ukoi	-867
▁ul	-868
aik	-869
▁muu	-870
mas	-871
▁kuninkaa	-872
pois	-873
▁mer	-874
muu	-875
▁hyv	-876
yty	-877
▁esi	-878
pan	-879
kol	-880
lin	-881
▁olkoon	-882
▁sota	-883
uivat	-884
oitta	-885
kaksi	-886
▁Kristu	-887
meidän	-888
▁ollut	-889
sataa	-890
▁Ä	-891
unsa	-892
▁sitten	-893
uhtin	-894
minulle	-895
net	-896
▁siellä	-897
laisia	-898
kon	-899
▁kautta	-900
miehet	-901
iten	-902
▁koh	-903
▁Jeesus	-904
ata	-905
kiin	-906
▁olette	-907
oista	-908
llensa	-909
oa	-910
▁eteen	-911
▁sin	-912
▁sur	-913
heidät	-914
▁synti	-915
kaisin	-916
urin	-917
▁kat	-918
▁enää	-919
▁kään	-920
sitten	-921
jees	-922
minua	-923
▁yh	-924
▁Jaa	-925
▁Ab	-926
vilä	-927
massa	-928
iankaikk	-929
tunut	-930
▁vanhurska	-931
rv	-932
ös	-933
▁Herraa	-934
▁ker	-935
▁it	-936
▁olisi	-937
mmär	-938
lainen	-939
▁lä	-940
atte	-941
▁raken	-942
▁ho	-943
maahan	-944
▁He	-945
▁pi	-946
▁min	-947
▁jota	-948
▁kuole	-949
▁Sitten	-950
itsi	-951
kkaa	-952
▁Jos	-953
▁ot	-954
teki	-955
ret	-956
▁kuk	-957
ker	-958
öt	-959
tena	-960
▁koska	-961
▁niitä	-962
jy	-963
eillä	-964
myös	-965
▁teitä	-966
mer	-967
▁nämä	-968
raa	-969
▁kansan	-970
▁kuo	-971
valta	-972
ittä	-973
rta	-974
maassa	-975
▁Katso	-976
oitti	-977
uta	-978
ukse	-979
är	-980
kyn	-981
set	-982
joo	-983
äsi	-984
▁pojan	-985
st	-986
▁siis	-987
▁viin	-988
ah	-989
teille	-990
kselle	-991
▁asu	-992
▁palv	-993
rik	-994
kaat	-995
velj	-996
tävä	-997
ivat	-998
edessä	-999
sil	-1000
meni	-1001
rjan	-1002
una	-1003
▁näki	-1004
▁Herralle	-1005
▁tied	-1006
▁pyh	-1007
▁mitään	-1008
eita	-1009
▁vaimo	-1010
ba	-1011
intö	-1012
kor	-1013
iseen	-1014
iliste	-1015
▁antaa	-1016
llensä	-1017
▁tah	-1018
▁pyhä	-1019
▁siinä	-1020
▁Israel	-1021
kuninkaan	-1022
kes	-1023
ilistea	-1024
eta	-1025
▁ä	-1026
ineen	-1027
kunta	-1028
inulla	-1029
▁tullut	-1030
kaupung	-1031
kymmenen	-1032
llik	-1033
miel	-1034
jansa	-1035
illä	-1036
sti	-1037
▁erä	-1038
▁Daavidin	-1039
ess	-1040
petus	-1041
▁ette	-1042
▁kolme	-1043
nim	-1044
ttouh	-1045
tuu	-1046
▁nuo	-1047
sinua	-1048
ela	-1049
syö	-1050
tykö	-1051
llesi	-1052
▁ään	-1053
▁Saul	-1054
israeli	-1055
öl	-1056
▁ik	-1057
kät	-1058
suku	-1059
tämän	-1060
emme	-1061
ksesi	-1062
yksi	-1063
▁las	-1064
▁maassa	-1065
▁Se	-1066
▁kans	-1067
▁miel	-1068
▁por	-1069
▁hävit	-1070
tuh	-1071
iselle	-1072
▁antanut	-1073
anne	-1074
itta	-1075
▁kunni	-1076
uttaa	-1077
inusta	-1078
ven	-1079
▁?"	-1080
▁yli	-1081
raha	-1082
ib	-1083
heitä	-1084
▁Jaakob	-1085
▁jumala	-1086
tani	-1087
▁annan	-1088
sy	-1089
▁tar	-1090
sef	-1091
toa	-1092
▁Seb	-1093
▁pitä	-1094
▁oleva	-1095
aar	-1096
▁ann	-1097
▁pappi	-1098
▁joi	-1099
▁mur	-1100
kauh	-1101
▁oma	-1102
jerusale	-1103
olla	-1104
▁Tä	-1105
▁kuul	-1106
viä	-1107
sinulle	-1108
rat	-1109
llinen	-1110
isty	-1111
▁älä	-1112
▁Mooses	-1113
viin	-1114
dista	-1115
▁Sentähden	-1116
älä	-1117
▁rik	-1118
vän	-1119
osta	-1120
▁tulivat	-1121
ulta	-1122
vin	-1123
taiva	-1124
isti	-1125
▁altta	-1126
missä	-1127
Minä	-1128
▁Moose	-1129
▁lähti	-1130
▁lih	-1131
▁el	-1132
lapsi	-1133
illa	-1134
▁huu	-1135
lleni	-1136
▁Sinä	-1137
jalle	-1138
öy	-1139
minut	-1140
kana	-1141
olle	-1142
▁lähetti	-1143
siitä	-1144
mpa	-1145
▁viisi	-1146
laa	-1147
moin	-1148
▁pil	-1149
▁ruu	-1150
▁aina	-1151
olella	-1152
▁ennen	-1153
`.	-1154
nes	-1155
▁istu	-1156
▁liit	-1157
▁olemme	-1158
▁kau	-1159
simmä	-1160
rofeetta	-1161
pat	-1162
▁yhd	-1163
dä	-1164
▁päivä	-1165
▁ympäri	-1166
ukko	-1167
ynär	-1168
lee	-1169
tua	-1170
oikea	-1171
▁ruo	-1172
egyp	-1173
vielä	-1174
eliin	-1175
matta	-1176
ota	-1177
▁neljä	-1178
ola	-1179
osa	-1180
ton	-1181
vu	-1182
▁pys	-1183
▁kuts	-1184
lia	-1185
tempp	-1186
▁silloin	-1187
▁Jer	-1188
tar	-1189
▁käy	-1190
▁yksi	-1191
tär	-1192
tava	-1193
▁huo	-1194
tään	-1195
kellä	-1196
▁tapah	-1197
riksi	-1198
kko	-1199
tai	-1200
▁Aar	-1201
mikä	-1202
tulee	-1203
▁Näin	-1204
▁teke	-1205
▁kuinka	-1206
nämä	-1207
▁siel	-1208
essään	-1209
missa	-1210
oon	-1211
sel	-1212
tenä	-1213
alla	-1214
mmat	-1215
seura	-1216
mille	-1217
nus	-1218
imen	-1219
▁lin	-1220
▁mie	-1221
▁tyttä	-1222
▁Egyptin	-1223
isä	-1224
juo	-1225
▁er	-1226
hjo	-1227
▁jul	-1228
essaan	-1229
▁puhui	-1230
kel	-1231
▁sinne	-1232
▁kaikkien	-1233
kööt	-1234
mukaan	-1235
▁kymmen	-1236
▁miehet	-1237
▁paljon	-1238
▁ai	-1239
keut	-1240
▁hyvä	-1241
iankaikkisesti	-1242
oittaa	-1243
lat	-1244
llis	-1245
▁Sal	-1246
▁jal	-1247
▁seis	-1248
tee	-1249
▁vas	-1250
ilm	-1251
matto	-1252
▁huon	-1253
jät	-1254
isivat	-1255
sentähden	-1256
▁hal	-1257
pyh	-1258
▁suo	-1259
▁rauh	-1260
ppa	-1261
utti	-1262
▁rukoi	-1263
▁suuri	-1264
▁ran	-1265
sanne	-1266
▁sana	-1267
ilea	-1268
kuud	-1269
vir	-1270
▁vaim	-1271
▁muuta	-1272
päivä	-1273
kaiken	-1274
oitettu	-1275
din	-1276
▁sää	-1277
kirj	-1278
siihen	-1279
emu	-1280
ynnä	-1281
ettava	-1282
▁pojat	-1283
vastasi	-1284
▁toisen	-1285
oja	-1286
aat	-1287
vien	-1288
ga	-1289
py	-1290
fra	-1291
ona	-1292
ivan	-1293
misen	-1294
▁anta	-1295
▁älkää	-1296
astaan	-1297
ini	-1298
▁meille	-1299
ene	-1300
teet	-1301
öljy	-1302
▁her	-1303
▁kos	-1304
uuden	-1305
▁lähet	-1306
sur	-1307
kani	-1308
ssaan	-1309
por	-1310
jasi	-1311
salo	-1312
kset	-1313
sivät	-1314
▁toinen	-1315
▁viholl	-1316
▁takaisin	-1317
▁sisä	-1318
▁käsky	-1319
▁ymmär	-1320
uksessa	-1321
▁sanon	-1322
▁kukaan	-1323
hei	-1324
älkää	-1325
tuna	-1326
▁aset	-1327
or	-1328
otti	-1329
joita	-1330
kautta	-1331
uin	-1332
asa	-1333
jani	-1334
▁kir	-1335
mp	-1336
ollut	-1337
▁alas	-1338
eevilä	-1339
▁miestä	-1340
reja	-1341
tietä	-1342
juudan	-1343
ira	-1344
▁kauh	-1345
▁tulevat	-1346
▁aa	-1347
isiin	-1348
▁Seba	-1349
▁tekee	-1350
▁ruhtin	-1351
eteen	-1352
tänsä	-1353
kunnan	-1354
jaan	-1355
▁hope	-1356
seitsemän	-1357
▁mon	-1358
▁vir	-1359
▁Salo	-1360
tuhatta	-1361
ai	-1362
hal	-1363
päin	-1364
▁As	-1365
▁päällä	-1366
koska	-1367
▁mene	-1368
pyhä	-1369
sekä	-1370
vaimo	-1371
▁osa	-1372
▁pid	-1373
▁aino	-1374
▁teen	-1375
kenyt	-1376
ksenne	-1377
▁kysy	-1378
▁perintö	-1379
vot	-1380
ukku	-1381
▁Jumalaa	-1382
oh	-1383
olkoon	-1384
▁käd	-1385
▁Juud	-1386
▁voit	-1387
▁teidät	-1388
▁väl	-1389
oivat	-1390
atan	-1391
palv	-1392
istel	-1393
▁ulos	-1394
▁hedel	-1395
▁eivätkä	-1396
rille	-1397
aja	-1398
▁hyl	-1399
▁työ	-1400
sanoen	-1401
▁maasta	-1402
laisen	-1403
laisille	-1404
mmän	-1405
sydäm	-1406
umaan	-1407
udessa	-1408
▁leevilä	-1409
lah	-1410
ettei	-1411
▁isä	-1412
miksi	-1413
itenkin	-1414
nsä	-1415
sinut	-1416
aabelin	-1417
eljät	-1418
jamin	-1419
▁Jeesuksen	-1420
vih	-1421
▁	-1422
a	-1423
¦	-1424
i	-1425
n	-1426
e	-1427
t	-1428
s	-1429
l	-1430
ä	-1431
k	-1432
u	-1433
o	-1434
m	-1435
h	-1436
j	-1437
v	-1438
r	-1439
,	-1440
p	-1441
y	-1442
.	-1443
d	-1444
𐋇	-1445
J	-1446
"	-1447
ö	-1448
:	-1449
H	-1450
;	-1451
S	-1452
b	-1453
M	-1454
g	-1455
K	-1456
N	-1457
?	-1458
f	-1459
A	-1460
E	-1461
`	-1462
-	-1463
I	-1464
T	-1465
P	-1466
!	-1467
B	-1468
D	-1469
V	-1470
O	-1471
G	-1472
R	-1473
L	-1474
Ä	-1475
U	-1476
Y	-1477
1	-1478
[	-1479
]	-1480
F	-1481
3	-1482
2	-1483
4	-1484
9	-1485
0	-1486
5	-1487
(	-1488
)	-1489
8	-1490
6	-1491
7	-1492
Ö	-1493
Z	-1494
/	-1495
z	-1496
