<pad>	0
</s>	0
<unk>	0
ም	-3.02143
ን	-3.53805
፥	-3.69096
▁	-3.81916
።	-3.86579
ና	-4.12405
፤	-4.39841
▁በ	-4.60867
▁የ	-4.6123
▁ወደ	-4.79012
ት	-4.81835
▁ሁሉ	-4.88899
ስ	-4.90548
ው	-5.00633
ል	-5.1019
▁ከ	-5.10402
▁ይ	-5.13782
ር	-5.17675
▁አ	-5.20349
▁እንደ	-5.22584
ንም	-5.33641
ህ	-5.34142
▁ላይ	-5.34275
▁ዘንድ	-5.35949
▁ለ	-5.44351
▁እግዚአብሔር	-5.44799
ለ	-5.46942
?	-5.50032
▁ግን	-5.52174
ድ	-5.53631
▁ተ	-5.60688
ረ	-5.63299
ብ	-5.65743
▁እ	-5.70371
▁የሚ	-5.71597
▁ያ	-5.74869
በ	-5.74968
▁ነገር	-5.75703
ራ	-5.7833
▁ስለ	-5.78976
▁ጊዜ	-5.81019
▁መ	-5.8117
ደ	-5.81825
▁ጋር	-5.83632
ግ	-5.83659
ገ	-5.85718
ታ	-5.87253
ባ	-5.89018
ላ	-5.89115
መ	-5.89787
▁ልጆች	-5.92697
ሰ	-5.93783
▁ልጅ	-5.94209
ዋ	-5.94905
ጥ	-5.96165
▁ሰው	-5.96406
▁ት	-5.98247
ቅ	-5.99598
ቀ	-6.03435
ማ	-6.04661
ያ	-6.05221
ፍ	-6.07085
ሳ	-6.08736
ተ	-6.09887
ነ	-6.10563
ይ	-6.12952
ች	-6.13539
▁እኔ	-6.15114
ውን	-6.17778
ጠ	-6.20246
በት	-6.20869
ሽ	-6.2245
▁እንዲህ	-6.22812
ከ	-6.24123
ዳ	-6.26297
▁ቤት	-6.26336
▁ቀን	-6.27059
ፈ	-6.293
▁ፊት	-6.30363
▁የተ	-6.32769
▁አይ	-6.33348
▁ሆይ፥	-6.35227
ክ	-6.36107
ቃ	-6.37817
ዝ	-6.38426
▁ቃል	-6.44496
▁ሰዎች	-6.44943
▁አል	-6.46332
ጣ	-6.46841
ወ	-6.48324
▁ደግሞ	-6.49172
ሩ	-6.52042
ጋ	-6.52097
▁ድረስ	-6.54534
▁ታ	-6.55171
▁እርሱ	-6.56463
▁ምድር	-6.57633
▁ነው	-6.5853
▁ንጉሥ	-6.58857
▁አንድ	-6.59529
▁አንተ	-6.60152
ሮ	-6.61058
▁እስከ	-6.61366
ዎች	-6.61736
ቱ	-6.62337
ፋ	-6.6288
▁በእግዚአብሔር	-6.63192
ቁ	-6.63806
▁አለው።	-6.64895
▁አት	-6.65773
ሉ	-6.65906
ካ	-6.66214
ኑ	-6.67055
▁ጌታ	-6.67364
▁ይህ	-6.67564
▁ነው።	-6.69794
▁ውስጥ	-6.6997
ሙ	-6.70123
▁ብሎ	-6.70797
ንና	-6.73342
▁ነበር።	-6.73473
ዓ	-6.74395
ሁ	-6.74679
ኝ	-6.74718
▁አለ።	-6.75863
▁የእግዚአብሔር	-6.76679
▁በኋላ	-6.78846
ውም	-6.78866
ሱ	-6.79071
ዘ	-6.79122
▁ቢ	-6.79516
ቶ	-6.79997
ዛ	-6.81134
ዱ	-6.81964
ህን	-6.8354
▁ይህን	-6.84519
▁አስ	-6.88012
ሎ	-6.88035
▁እግዚአብሔርም	-6.88473
▁እናንተ	-6.89563
▁እነሆ፥	-6.89632
▁አምላክ	-6.90168
▁እጅ	-6.90828
▁ሲ	-6.90992
▁በአ	-6.91022
▁እርሱም	-6.92393
▁መካከል	-6.93839
ትን	-6.95927
▁ወይም	-6.96128
ቡ	-6.97154
▁ዓመት	-6.97935
ሬ	-6.98077
▁ሰ	-6.98218
ሸ	-6.9864
▁በመ	-6.98864
▁የእስራኤል	-6.99087
▁ሊ	-6.99453
ቤ	-7.02073
▁እንዲ	-7.02287
ቆ	-7.0316
▁ከእርሱ	-7.03439
▁ምን	-7.03753
▁ባ	-7.04858
▁ሕዝብ	-7.05121
▁እን	-7.05596
▁ስለዚህ	-7.0601
▁ነው፤	-7.06409
ፉ	-7.07003
ጡ	-7.07416
ሞ	-7.07521
▁የሚያ	-7.07739
▁ሁለት	-7.07815
አ	-7.07958
ሪ	-7.09892
ዶ	-7.10072
ቸው	-7.10243
▁ለመ	-7.14344
▁ሥራ	-7.161
▁አላ	-7.17454
▁ስፍራ	-7.18957
▁መሥዋዕት	-7.19641
ህም	-7.20484
▁ያለ	-7.20896
▁እንጂ	-7.21058
▁የአ	-7.21304
ጽ	-7.21719
▁ለእግዚአብሔር	-7.21878
▁ቀ	-7.22056
▁ከአ	-7.22409
▁ክፉ	-7.23582
▁መቶ	-7.23685
የ	-7.24071
ሌ	-7.24086
ጨ	-7.251
ላችሁ	-7.25368
ኖ	-7.25495
ነት	-7.2571
▁እግዚአብሔርን	-7.25872
▁ሆነ	-7.25899
▁በዚያ	-7.26003
ችሁ	-7.2621
ጉ	-7.26795
▁በተ	-7.26895
▁ከፍ	-7.2753
▁ደስ	-7.28268
▁እንዲሁ	-7.28444
ሕ	-7.30708
▁ማ	-7.30734
ቴ	-7.30977
▁አላቸው።	-7.3101
▁በምድር	-7.31097
▁የእግዚአብሔርን	-7.31321
▁እጅግ	-7.31343
ዩ	-7.31697
▁ብዙ	-7.31713
▁ማን	-7.321
▁አሳ	-7.32188
▁ነበረ።	-7.33839
ለት	-7.34012
ዬ	-7.34212
▁ደ	-7.34956
▁እነርሱም	-7.35093
ውንም	-7.35365
▁በዚያም	-7.36746
ወጣ	-7.3709
ዕ	-7.3714
▁እኔም	-7.37803
ላቸው	-7.38193
መጣ	-7.38713
▁ነበር፤	-7.38974
ባት	-7.40267
▁አለ	-7.40292
▁ከተማ	-7.40382
ጫ	-7.40413
▁በእስራኤል	-7.40426
▁ሺህ	-7.40831
ጸ	-7.41259
ሆን	-7.41265
ገባ	-7.41346
▁መልካም	-7.41853
▁መንገድ	-7.42042
ለው	-7.42439
▁ይላል	-7.42997
▁የምት	-7.43118
▁በእርሱ	-7.43264
▁አቤቱ	-7.43676
ጭ	-7.44208
ተው	-7.44368
ና።	-7.45414
ቦ	-7.46189
▁አለቆች	-7.46405
ሻ	-7.46513
▁ወ	-7.47223
ኛ	-7.47328
ሜ	-7.47541
▁ዘመን	-7.47898
▁ጠ	-7.48057
▁ይላል።	-7.49035
ቢ	-7.49092
▁ከዚያ	-7.49192
▁እንዳ	-7.49465
▁እነዚህ	-7.50106
▁ስ	-7.50114
ሴ	-7.50729
▁እንዳይ	-7.5079
ጕ	-7.50951
ባቸው	-7.51311
ቱን	-7.51772
ጎ	-7.52485
▁አለቃ	-7.53391
▁አገር	-7.53578
▁በሚ	-7.54437
▁ከእነርሱ	-7.54567
ፊ	-7.54662
▁የመ	-7.55204
ሉ።	-7.55229
▁በዚህ	-7.55457
ደር	-7.5664
▁ዛሬ	-7.56665
ዙ	-7.57769
ሶ	-7.58201
▁ታላቅ	-7.58561
ኮ	-7.58735
ተኛ	-7.59248
▁ውኃ	-7.59335
▁በዳ	-7.59507
ሥ	-7.59743
ቶች	-7.59884
▁እንደሚ	-7.60049
ኩ	-7.60163
▁ጊዜ፥	-7.60667
▁ወገን	-7.61316
▁ለዘላለም	-7.61722
▁ሌላ	-7.62269
▁ስም	-7.64282
▁ል	-7.64619
▁ኢየሱስ	-7.65123
▁ጥ	-7.6562
ነው	-7.65846
▁ጀምሮ	-7.66817
ዴ	-7.673
▁እርሱም።	-7.68152
ሆ	-7.68211
ሠራ	-7.68342
ሞት	-7.68537
▁ገ	-7.68671
▁ኃጢአት	-7.6895
ጦ	-7.69139
▁ከመ	-7.69649
▁ነበረ፤	-7.69887
▁ከእኔ	-7.69991
ጠፋ	-7.70036
▁አሁን	-7.7051
▁ነበሩ።	-7.70549
ሠ	-7.70678
▁እንግዲህ	-7.70772
▁ነ	-7.70926
▁ሰባት	-7.70947
▁እየ	-7.71315
▁ለሚ	-7.71397
ጃ	-7.72398
▁ድምፅ	-7.72685
▁አያ	-7.73232
▁እነርሱ	-7.73331
▁ፈ	-7.7335
▁ግ	-7.73767
▁ክርስቶስ	-7.73794
ገዛ	-7.73954
▁አሕዛብ	-7.74053
▁ዘ	-7.74419
▁ሥጋ	-7.75225
ኤል	-7.75422
ቻቸው	-7.75622
▁ሦስት	-7.75766
▁እስኪ	-7.75794
ችን	-7.75886
▁እንጀራ	-7.76051
ጐ	-7.76378
▁መንፈስ	-7.76624
ሄድ	-7.76628
▁እንዲህም	-7.76662
ኖር	-7.7702
ቼ	-7.77178
▁ንጉሡም	-7.77219
▁እኛ	-7.77333
ኪ	-7.77504
▁ተራራ	-7.78342
▁በማ	-7.7899
ኔ	-7.79819
▁ወር	-7.7994
ሰማ	-7.79994
ዮ	-7.80427
▁ዕቃ	-7.80525
ሣ	-7.80542
▁ከተሞች	-7.80735
ታችሁ	-7.80783
▁ሁሉ፥	-7.80932
▁ይልቅ	-7.8099
▁የሰው	-7.81158
▁አጠገብ	-7.81323
▁ክንድ	-7.81331
▁የማ	-7.81695
▁እነሆም	-7.81704
▁ካ	-7.82007
▁ነው፥	-7.82444
▁ሳ	-7.82465
ልኝ	-7.82943
▁ሴት	-7.82947
▁ለማ	-7.8297
▁ሴቶች	-7.8314
ባል	-7.83158
▁ከአንተ	-7.83771
▁ልብ	-7.83952
▁እንዴት	-7.84068
▁ብት	-7.84229
ገረ	-7.84272
ጻ	-7.84306
▁በታች	-7.84705
ወጡ	-7.8492
▁ያለውን	-7.8505
ገቡ	-7.8525
▁ያስ	-7.85679
▁ብለው	-7.86176
ቈ	-7.86625
▁ከእግዚአብሔር	-7.86889
▁በኩል	-7.87535
▁ዳዊትም	-7.8767
አቸው	-7.87767
ለሁ	-7.8777
ቱም	-7.87935
በላ	-7.88115
▁ከዚህ	-7.88172
ራቸው	-7.88208
ኞች	-7.88581
▁እና	-7.88724
▁ንጉሡ	-7.88804
ሉ፤	-7.8888
▁አምስት	-7.89144
እ	-7.89235
▁ከሚ	-7.89501
▁የሆነ	-7.89643
▁የእ	-7.89651
ዋን	-7.89737
ዊ	-7.89747
▁አሁንም	-7.8984
ጠራ	-7.89951
▁ዓ	-7.8997
ሉ፥	-7.9033
▁ማንም	-7.90556
ሚ	-7.90853
▁የተነሣ	-7.90954
▁ይሆናል።	-7.91497
▁አሥራ	-7.9208
▁ባለ	-7.92312
▁አሉት።	-7.92473
ፌ	-7.92782
▁በእ	-7.9279
ት።	-7.92902
▁ዳዊት	-7.93067
ዖ	-7.93109
▁ሕግ	-7.93132
▁ለአ	-7.9317
▁ቍርባን	-7.9346
▁በግ	-7.93819
▁ኢየሩሳሌም	-7.9414
▁ከእስራኤል	-7.94483
ነሣ	-7.94688
▁በየ	-7.9471
ቍ	-7.94791
ዊው	-7.9513
▁ክብር	-7.95186
ል፥	-7.95677
ሐ	-7.95837
ሉት	-7.95846
▁ገና	-7.95861
▁ከእናንተ	-7.95865
ጌ	-7.95972
▁ሠራ	-7.96003
▁ፍሬ	-7.96299
አልና	-7.97273
▁የማይ	-7.97293
ጢ	-7.97602
▁ዘንድ፥	-7.97659
ፈሩ	-7.97987
▁ኢየሱስም	-7.98013
ለሁ።	-7.98291
ል።	-7.98483
ሊ	-7.98623
ው።	-7.98674
ናገር	-7.98797
▁አታ	-7.99661
ቻ	-7.99831
ለሁ፤	-7.99932
ሮች	-7.9994
▁እስራኤል	-8.00126
ት፥	-8.00379
ታቸው	-8.00476
▁ነገድ	-8.00724
▁ከተ	-8.0073
▁አይደለም	-8.00801
▁ብ	-8.00946
▁በር	-8.01359
ራችሁ	-8.01675
▁ሆኖ	-8.01706
ቹ	-8.01775
ኖሩ	-8.01804
ለን	-8.01855
▁ለእስራኤል	-8.0196
▁ስሙ	-8.02341
ችው	-8.02438
ውያን	-8.02573
ጀ	-8.02577
ሃ	-8.0268
▁ናቸው።	-8.02704
▁አብ	-8.02763
ጅ	-8.02847
ቸውም	-8.02988
ፈራ	-8.03216
▁በይሁዳ	-8.0345
ፈር	-8.03885
▁ብቻ	-8.03886
ልህ	-8.04108
▁እውነት	-8.04208
▁በእኔ	-8.04249
▁ሙሴን	-8.04266
ሆኑ	-8.0428
▁አደ	-8.0475
▁ይሆን	-8.04961
▁አልተ	-8.05604
!	-8.05727
ላት	-8.06091
▁በኢየሩሳሌም	-8.06219
▁የሰ	-8.06548
ኃ	-8.06828
ህንም	-8.07013
▁አፍ	-8.07648
መሰ	-8.08185
▁ሰጠ	-8.08266
ሰጥ	-8.08329
መለስ	-8.08346
▁አን	-8.08545
በሩ	-8.0858
▁ነገሥታት	-8.08747
▁ከእ	-8.09001
▁ነበርና	-8.09183
▁አራት	-8.09412
▁ሳይ	-8.09495
ቂ	-8.09654
ቸ	-8.10402
▁ይሰ	-8.10414
▁ያለው	-8.10483
▁ቅዱስ	-8.10847
ድን	-8.10849
▁የሠራዊት	-8.11251
▁ቍጣ	-8.11255
▁ድ	-8.11659
▁ይሁዳ	-8.11664
▁ራስ	-8.11874
ሁ።	-8.11885
ወድ	-8.12291
▁ትእዛዝ	-8.12887
▁ነበር፥	-8.13055
ኛው	-8.13463
ል፤	-8.13752
ረው	-8.13967
ሄ	-8.14172
▁በደ	-8.14321
▁ሀያ	-8.14553
▁ነህ	-8.1463
ሁት	-8.14718
▁ሙሴም	-8.14908
▁በዚያን	-8.15037
▁አድርጎ	-8.15392
ቀው	-8.15597
ዞ	-8.15623
▁ሕዝቡም	-8.15717
▁ወይስ	-8.15819
▁እሳት	-8.16047
▁ደግሞም	-8.1627
▁ደም	-8.16291
ራት	-8.16667
ሰሙ	-8.16927
ኤ	-8.17076
▁አሉ።	-8.17233
▁መሠዊያ	-8.17529
መጡ	-8.17629
ጓ	-8.17957
ርያ	-8.18182
ለሁ፥	-8.18272
▁እንድት	-8.1894
ሹ	-8.19246
▁ኪዳን	-8.19273
▁የበ	-8.19648
ደረግ	-8.20231
▁በወ	-8.20394
▁አየ	-8.2049
▁አምላክህ	-8.2053
አት	-8.20542
▁ዘር	-8.20606
ት፤	-8.2069
▁እርስዋም	-8.20752
ች።	-8.20908
ተኞች	-8.20909
ገድ	-8.21006
▁ሰማ	-8.21023
▁ልብስ	-8.21229
ላል	-8.21439
ኒ	-8.21494
ኝ።	-8.21509
▁ልጁ	-8.22432
ጆ	-8.22533
▁ይሆናል፤	-8.22599
▁ው	-8.22629
▁ተስፋ	-8.22869
ፍር	-8.23135
ምድረ	-8.232
▁በእውነት	-8.23309
▁አውራ	-8.23351
ሪያ	-8.23512
ቄ	-8.23767
ጠጣ	-8.2377
ሄዱ	-8.23921
ናቸው	-8.23951
▁ፍ	-8.24058
ኝ፥	-8.2438
መረ	-8.24406
ተዋል	-8.25142
▁ሚስት	-8.25162
▁ምንድር	-8.25209
▁ሊያ	-8.25222
ብኝ	-8.25518
▁ሸ	-8.25761
በር	-8.25772
▁በል	-8.25785
▁እግዚአብሔር።	-8.25964
ኖች	-8.26001
▁ድንኳን	-8.26564
▁ናቸው፤	-8.26635
ቀመጥ	-8.27164
▁በሰ	-8.27485
▁ሞተ	-8.27868
▁ባሪያ	-8.27927
▁ፍርድ	-8.28089
ፈረ	-8.2817
▁እንዲያ	-8.28306
ሰው	-8.2846
▁እያ	-8.28571
ነገ	-8.29241
ኝ፤	-8.30066
ዳን	-8.30424
▁በቀር	-8.30469
ኋቸው	-8.30792
ቀመጡ	-8.30886
▁መንግሥት	-8.30915
▁ሆነ፤	-8.30983
ዔ	-8.31196
▁ምንም	-8.31335
▁ሙሴ	-8.31405
ጠው	-8.31796
ዋም	-8.31827
▁ብር	-8.3189
▁በእናንተ	-8.31906
▁ሕዝቡን	-8.31933
▁ደቀ	-8.32082
ቹን	-8.32132
▁ኤ	-8.32392
▁በእሳት	-8.32434
▁አደረገ	-8.32579
ቀር	-8.32856
ፀ	-8.32908
▁በሕይወት	-8.3291
▁የእስራኤልን	-8.33022
▁ይሆናል	-8.33107
▁ባሕር	-8.33922
▁በፊቱ	-8.33927
▁ርስት	-8.3394
ጣል	-8.34167
ዲ	-8.34167
ሃለሁ	-8.34169
ጠብቅ	-8.34652
▁አባት	-8.34735
ቋ	-8.34944
ዚ	-8.35048
▁ነውና	-8.3555
ቶቹ	-8.35555
▁ሐ	-8.3588
ሁ፥	-8.36221
▁አንዱ	-8.36232
▁ሁለቱ	-8.36459
▁በአንተ	-8.36526
ቸዋል	-8.36911
▁ወንድ	-8.37022
ኸው	-8.372
▁ወንድሞች	-8.37365
▁አንተም	-8.37423
▁ቢሆን	-8.37442
▁እነሆ	-8.37549
ደው	-8.37569
▁በውኑ	-8.37586
ልክ	-8.37598
▁አድ	-8.37745
ናገሩ	-8.3778
▁ስድስት	-8.3779
ዳቸው	-8.38068
▁እንኳ	-8.38149
ግባ	-8.38291
▁ስላ	-8.38411
ጠላ	-8.38452
▁ሰይፍ	-8.38611
▁በአንድ	-8.3966
▁ኃይል	-8.39681
▁የይሁዳ	-8.39908
▁ጭ	-8.39928
▁እርስ	-8.39995
ቹም	-8.40131
ባችሁ	-8.40202
▁ድንጋይ	-8.40222
ጁ	-8.40326
▁ሰላም	-8.40542
▁መጣ።	-8.40604
▁መዛሙርቱ	-8.40765
▁የወይን	-8.40773
▁ሲል	-8.40805
ገኝ	-8.41248
በዛ	-8.41441
▁ዳርቻ	-8.41756
▁ወርቅ	-8.41814
▁ባሪያዎች	-8.41885
▁የወ	-8.41927
▁ለምን	-8.42182
ኦ	-8.42413
▁የምድር	-8.42448
▁ሕዝቡ	-8.43068
▁ክ	-8.43075
ሁ፤	-8.43112
▁ሳለ	-8.43247
ፍራ	-8.43328
▁ቅ	-8.43347
ዘው	-8.43434
▁ለአንተ	-8.43539
▁ባል	-8.43585
▁በቀ	-8.43605
▁ጠጅ	-8.43619
▁መከራ	-8.43694
ታችን	-8.43777
▁ነበረ፥	-8.438
▁ነበሩ፤	-8.44014
▁በጎች	-8.44022
ዎ	-8.44026
▁ጌ	-8.44449
▁ባለው	-8.44511
ሁም	-8.44801
ኸ	-8.4499
ሻል	-8.45214
▁የምታ	-8.45335
▁የቀ	-8.45399
▁ቤተ	-8.45414
በትን	-8.45466
▁አንቺ	-8.45807
▁በላይ	-8.45915
▁ቆ	-8.46401
ሲ	-8.46492
▁ተቀ	-8.46574
▁ነፍስ	-8.46865
▁ወንዶች	-8.46949
▁ልጆች፥	-8.47011
▁ቤቱ	-8.47015
▁ይመ	-8.47256
ቸውን	-8.47416
ሦ	-8.47522
ኰ	-8.47525
▁ዛፍ	-8.47555
▁ይጠ	-8.4762
▁ላ	-8.47967
ራራ	-8.48051
ሳቸው	-8.4807
▁አምሳ	-8.48537
▁አማልክት	-8.48702
ልፎ	-8.48827
▁መጽሐፍ	-8.49293
▁ቤቶች	-8.49298
▁ሰማይ	-8.49673
▁በጎ	-8.49801
ታው	-8.50101
ላችሁ።	-8.5019
▁ከሰ	-8.50319
ሺ	-8.50474
▁ሁልጊዜ	-8.50487
ቶቻቸው	-8.5049
ሳችሁ	-8.50707
▁እንዲሆን	-8.5076
▁ገባ	-8.51333
▁ነፍ	-8.51461
▁እንዳት	-8.51594
ለህ	-8.51686
▁ለእኔ	-8.51696
▁ብርሃን	-8.51697
▁ከብ	-8.51924
▁ስለዚህም	-8.52067
ጮ	-8.52302
▁በሰይፍ	-8.52306
▁አድርግ	-8.52309
ታል።	-8.52407
▁ጆሮ	-8.5294
▁ይዞ	-8.53164
▁ይበ	-8.53189
▁ይህም	-8.53309
ቀድ	-8.53522
ኬ	-8.53534
▁ሥርዓት	-8.53537
▁አሥር	-8.53544
ጆች	-8.53788
ቸዋለሁ	-8.53828
መልስ	-8.54083
▁ሕያው	-8.54158
▁የጌታ	-8.54265
ሎች	-8.54316
▁መጣ	-8.5438
▁መታ	-8.54583
▁ሆንሁ	-8.54682
▁ለእርሱ	-8.54782
▁ትንቢት	-8.54783
▁ሂድ	-8.54786
ጊ	-8.548
▁የለም	-8.54902
▁ተሰ	-8.55343
ው፤	-8.55601
▁ዝ	-8.5562
▁አወጣ	-8.55859
ኸኝ	-8.56104
ብረ	-8.56133
▁ልት	-8.56183
▁ያል	-8.56427
ደርግ	-8.56427
ማት	-8.56499
ናችሁ	-8.56506
▁በፊትህ	-8.56532
ጩ	-8.56681
▁ሕይወት	-8.5669
▁ዓይን	-8.56696
ፎ	-8.56827
ሩት	-8.57222
▁በንጉሡ	-8.57322
▁ምርኮ	-8.57324
▁ክፋት	-8.57338
ነበ	-8.57408
ድል	-8.57558
ሽን	-8.57744
▁ይቀ	-8.5775
▁ምድረ	-8.57838
ዬን	-8.57934
▁ሌሊት	-8.57967
▁ካህናቱ	-8.57968
▁ከሰማይ	-8.5799
▁ተመ	-8.58028
▁አባቱ	-8.58036
▁ተነሣ	-8.58045
ጣሉ	-8.58266
▁ሞ	-8.58311
▁ባይ	-8.58392
▁ወሰደ	-8.58624
▁ከምድር	-8.58641
▁እንዳል	-8.58668
ዘረጋ	-8.58678
▁ናት	-8.58819
ሞላ	-8.58871
በሉ	-8.58912
ሰብ	-8.59233
▁ሽማግሌዎች	-8.59315
ገኙ	-8.59747
ሾ	-8.59896
▁በእነርሱ	-8.59928
▁ወዲህ	-8.59929
አቸው።	-8.5997
▁ነበሩ	-8.60316
▁መልአክ	-8.60591
▁ሠላሳ	-8.60591
▁አይሁድ	-8.60596
▁ተከ	-8.60633
▁ይሁን	-8.6068
▁ዓለም	-8.60692
ዋንም	-8.60826
ዶች	-8.61112
▁ጴጥሮስ	-8.61257
ብር	-8.61402
▁እጁን	-8.61554
ሽም	-8.61912
▁ፋንታ	-8.6193
ዋል።	-8.61952
▁ልጄ	-8.61985
▁ወራት	-8.62033
▁ይሁን።	-8.62043
▁እንድ	-8.62221
ወር	-8.6242
▁ሚ	-8.62543
▁መጥቶ	-8.62629
ቀበል	-8.62721
▁አስተ	-8.63028
▁ጣ	-8.63227
ሔ	-8.63281
▁ታቦት	-8.63289
▁ነፋስ	-8.63295
▁ረ	-8.63422
▁አሰ	-8.63836
▁ጠራ	-8.63836
▁ምሳሌ	-8.6397
▁ምልክት	-8.63971
▁እንዲሁም	-8.64565
ለት።	-8.64609
▁ካህናት	-8.64659
ረዳ	-8.64666
አል።	-8.64791
ላቸውም	-8.65098
በል	-8.65148
ሳል	-8.65228
▁እርሻ	-8.65475
▁መለሰ	-8.6578
ች፥	-8.65837
ፈው	-8.65918
▁ጥቂት	-8.66035
▁ለእናንተ	-8.66053
ኋችሁ	-8.66086
▁ተናገር	-8.66088
ዘዝ	-8.66143
ጠፉ	-8.66792
▁አለኝ።	-8.66976
▁እንዳለ	-8.66999
▁ሆነ፥	-8.67126
▁አርባ	-8.67352
ኳ	-8.6736
ነቱ	-8.67513
▁ከእኛ	-8.67569
▁ከንቱ	-8.67778
▁ጳውሎስ	-8.67809
▁ካህኑም	-8.67871
ማል	-8.67994
ሰጠው	-8.68008
▁አመጣ	-8.68175
ሳት	-8.68234
ሠሩ	-8.68243
▁ሆነው	-8.68542
▁እስራኤልን	-8.68548
ሀ	-8.6885
▁እያንዳንዱ	-8.689
▁ከእንግዲህ	-8.689
▁በታላቅ	-8.689
▁ርኩስ	-8.689
መለሱ	-8.69004
▁በሰማይ	-8.69112
አችሁ	-8.69484
ዋል፤	-8.69505
ቸው።	-8.69616
▁አስቀድሞ	-8.69625
▁ነበረ	-8.6972
ሃል	-8.69803
ችኋለሁ	-8.6986
ልቅ	-8.6991
▁መልሶ።	-8.70111
▁በጥ	-8.70145
▁ባየ	-8.70213
ርስ	-8.70309
▁በአሕዛብ	-8.70354
ለች።	-8.70476
▁ያዘ	-8.70539
▁ስማ	-8.70632
▁ነበር	-8.70731
መታ	-8.70866
ኛል	-8.70875
▁ስት	-8.70913
ጄ	-8.70939
▁ንጹሕ	-8.7109
▁ዙሪያ	-8.71091
▁ብዛት	-8.71092
ከፍ	-8.71126
ቻችሁ	-8.71171
ኝም	-8.71178
▁ታስ	-8.7118
▁እላችኋለሁ	-8.7123
አል፤	-8.71313
▁ጌታዬ	-8.71366
▁ሳኦል	-8.71371
▁ብላ	-8.71622
ጠጡ	-8.71852
▁ራሱን	-8.72124
▁ካህኑ	-8.72154
▁ጎ	-8.72333
▁ፈጽሞ	-8.72577
▁ወስዶ	-8.72579
▁ይወ	-8.7274
ች፤	-8.72795
ፍረ	-8.72824
▁ጽድቅ	-8.73
ሞቱ	-8.73043
ኢ	-8.73152
▁በግብፅ	-8.73329
▁ጉባኤ	-8.73329
▁ምስክር	-8.73329
▁አንዳች	-8.73376
▁ቅን	-8.7342
ዋለህ	-8.7367
▁ብለህ	-8.7369
ጠብ	-8.73742
ወደ	-8.73753
▁ሆኑ	-8.73931
▁ሞት	-8.73934
ማይ	-8.73987
ልን	-8.74145
▁መጠን	-8.74201
ታል፤	-8.74241
▁ቢያ	-8.74597
▁አምላኬ	-8.74727
ዜ	-8.74849
▁እንደዚህ	-8.74856
አል	-8.74956
▁ይህች	-8.75321
ቢያ	-8.75458
ቴን	-8.75487
ረግ	-8.75511
▁መቅደስ	-8.75619
▁እንጨት	-8.75623
▁የወርቅ	-8.75643
▁በእጁ	-8.75671
▁ያህል	-8.75683
▁ተነሥቶ	-8.75686
▁ብዬ	-8.75787
▁ነገ	-8.75953
▁እስራኤልም	-8.76002
ላቸው።	-8.76089
▁አዳ	-8.76124
▁እናንተም	-8.76289
▁አብርሃም	-8.76394
▁ወለደ፤	-8.76394
▁እርስዋ	-8.76515
▁አደረገ።	-8.76547
ቀበሉ	-8.7662
ማቸው	-8.76684
▁ኢያሱ	-8.7696
መካ	-8.77143
▁ያደርጋል	-8.77175
▁ወዴት	-8.77177
▁ፈርዖን	-8.77177
▁ውጭ	-8.77331
ሰጠ	-8.77489
▁ጨ	-8.77616
ሁህ	-8.77745
▁ብታ	-8.77925
▁ምክንያት	-8.77962
▁አምላካችን	-8.77962
ደርገው	-8.77994
▁የደ	-8.77999
▁የለም።	-8.78197
ኙ	-8.78272
▁ጻድቅ	-8.78487
ታቸውን	-8.78619
▁ሰቅል	-8.78768
▁በውኃ	-8.78771
ላሉ	-8.78835
ደድ	-8.78871
▁ሰሎሞን	-8.78988
▁የነበረውን	-8.79099
ለኝ	-8.79208
▁መጥተው	-8.79559
▁ዘይት	-8.79564
▁ያን	-8.79716
▁ተወ	-8.7976
ቸዋል።	-8.79918
▁ሳኦልም	-8.80056
▁ይነ	-8.80274
ንግሥ	-8.8037
▁አደባባይ	-8.80397
▁ሰባ	-8.80515
▁ይፈ	-8.8106
▁በጌታ	-8.81134
ፃ	-8.81174
ኞቹ	-8.81176
▁በእርስዋ	-8.81176
▁ትውልድ	-8.81176
ረዱ	-8.81944
ጹ	-8.81979
▁ክፍል	-8.81998
▁በመንገድ	-8.82001
ገዙ	-8.8215
ይቱ	-8.82163
ብህ	-8.82487
▁ከቶ	-8.82496
▁ወጥቶ	-8.82567
▁ዝም	-8.82756
ጤ	-8.82822
▁ሕዝቤ	-8.82822
▁አምላካችሁ	-8.8283
▁ሴ	-8.83112
ዋጋ	-8.83191
▁ኤርምያስ	-8.83353
▁ያወጣ	-8.83412
ሶች	-8.83439
▁ይከ	-8.83536
▁ዳር	-8.83566
▁ከግብፅ	-8.83655
▁ሁለተኛው	-8.83693
▁በፊት	-8.83881
▁ቈ	-8.84094
▁እር	-8.84239
ማረ	-8.84302
ለህ።	-8.84376
ገደ	-8.84433
▁አደርጋለሁ	-8.84495
▁ተቀምጦ	-8.84499
▁ይኖራል	-8.84503
ዎቹ	-8.84549
▁የኢ	-8.84705
ወቅ	-8.84911
ነቀ	-8.8505
▁ባሪያህ	-8.85166
ቦች	-8.85185
▁ደስታ	-8.85333
▁ሸለቆ	-8.85345
ሃልና	-8.85355
መው	-8.85355
▁በሰው	-8.85422
ጠቅ	-8.85466
ሮስ	-8.85472
▁አዘዘ	-8.85655
▁አለ፤	-8.85715
ጠር	-8.85777
ያደርጉ	-8.85864
▁ይሁን፤	-8.86078
▁በክርስቶስ	-8.86198
▁ፍልስጥኤማውያን	-8.86198
▁ጥበብ	-8.86328
▁ሆነ።	-8.8638
▁ተናገረ	-8.86637
ኛልና	-8.86677
▁ይቅር	-8.86686
▁ነፍሴ	-8.86782
ሞን	-8.86888
▁ሠራዊት	-8.87061
▁አድርጉ	-8.87062
▁በቤቱ	-8.87083
▁መስ	-8.87091
ፈልጉ	-8.87189
ያውቁ	-8.87254
▁የሆነውን	-8.87279
▁የዘ	-8.87517
ጠሩ	-8.8783
ክር	-8.87856
▁ነቢያት	-8.8793
ገኛ	-8.87932
▁ባድማ	-8.87935
▁ተብሎ	-8.87939
▁ወንዝ	-8.87951
▁ዕ	-8.88002
▁ሄደ	-8.8806
ለጠ	-8.88262
▁በቅ	-8.88304
▁ሄደ።	-8.88309
ለህ፤	-8.88344
▁ልጅ፥	-8.88348
▁በሰማ	-8.88459
▁በደል	-8.88467
▁በሌሊት	-8.88806
▁ፈቃድ	-8.88809
በታ	-8.8901
▁ትወ	-8.89501
▁የዳዊት	-8.89691
▁ቅጥር	-8.89721
▁ወይን	-8.89731
ነጻ	-8.89832
▁ቆሞ	-8.89835
▁በመሠዊያው	-8.89858
▁ከማ	-8.90154
የው	-8.90395
▁ነኝ	-8.90454
▁ማደሪያ	-8.90585
▁ጸጋ	-8.90599
ዘጋጀ	-8.90615
▁ጐ	-8.90637
▁በአንድነት	-8.90705
▁ብል	-8.90763
▁አላት።	-8.90917
▁ነገሠ።	-8.90954
ሞች	-8.90964
ታል	-8.91217
▁የዘላለም	-8.91485
▁በሆነ	-8.91537
▁ነውና።	-8.91608
▁ኑ	-8.91625
▁ትሰ	-8.91901
ላቸዋል	-8.92003
▁እነዚህን	-8.92038
ላችኋል	-8.92195
ሖ	-8.92394
▁መስፈሪያ	-8.92394
▁በፊቴ	-8.92398
መለከት	-8.92512
ታለሁ	-8.92513
ቻችን	-8.9258
▁በዙሪያ	-8.92651
ገር	-8.92751
በረታ	-8.92765
መጣው	-8.92884
ወቀ	-8.92937
ራሳቸው	-8.93422
▁ኋላ	-8.9343
▁አመጡ	-8.93563
▁ነገሩ	-8.93584
ማር	-8.93815
▁አወ	-8.93826
ችንን	-8.93908
▁ቢሆን፥	-8.94031
▁ከደ	-8.94227
▁ሌዋውያን	-8.94238
▁ስንኳ	-8.9425
ቤተ	-8.9456
ቻለሁ	-8.94629
▁አሳብ	-8.94745
▁ዋጋ	-8.94869
አቸውም	-8.94945
ላችሁ፤	-8.94989
በራ	-8.95087
▁ለንጉሡ	-8.95172
▁ይዘው	-8.9518
▁በብዙ	-8.95186
▁ወዮ	-8.95201
ሃቸው	-8.95457
▁ማዶ	-8.95631
ጥር	-8.95974
ቀረበ	-8.96035
ድር	-8.96097
▁ፀሐይ	-8.96116
▁ተናገረው።	-8.96171
▁ፊ	-8.96199
ስቱ	-8.96218
▁ይመጣል	-8.9654
ለች፤	-8.967
▁በኢየሩሳሌምም	-8.968
▁አድርገው	-8.9696
ብላ	-8.96966
▁ኢዮአብ	-8.97068
▁ቍጥር	-8.97069
▁ወገኖች	-8.97086
▁ሰልፍ	-8.97156
ላችሁ፥	-8.97394
ፈርድ	-8.97609
▁እርሱን	-8.97619
▁ምሕረት	-8.97724
▁ዳዊትን	-8.9775
▁ላከ	-8.97858
▁በባሕር	-8.9803
በኣል	-8.98072
ራል።	-8.98193
▁ቀኝ	-8.9826
▁መር	-8.98295
▁አንዲት	-8.98323
ቲ	-8.98378
▁ያሉትን	-8.98415
ርቅ	-8.9842
ባቸውን	-8.98694
▁እመ	-8.98953
ደኅንነት	-8.99
▁በሕዝቡ	-8.99
▁ከይሁዳ	-8.99
▁ወደዚህ	-8.9901
▁የሚቃጠለውን	-8.99022
▁በቤት	-8.99059
ሃል።	-8.99173
▁ልጆቹ	-8.99682
▁ወጡ	-8.99708
ዋልና	-8.99744
ቃችሁ	-8.99784
▁ሕዝቅያስ	-8.99981
▁በኢየሱስ	-8.99981
ዳችሁ	-9.00046
▁ይታ	-9.00057
መር	-9.00375
ጠሉ	-9.00431
▁የሚያስ	-9.00637
▁ጋ	-9.00891
ታል፥	-9.00922
▁እየተ	-9.00967
▁አባቴ	-9.0099
ጥን	-9.01109
ፈታ	-9.01433
▁ያሉ	-9.01514
▁ሰጣቸው	-9.01643
▁ጽ	-9.01698
በው	-9.01721
▁በነ	-9.01903
▁በመካከላቸው	-9.01971
▁ፈቀቅ	-9.01973
▁ልብሱን	-9.01991
▁ደመና	-9.01997
▁ከሆነ	-9.02013
▁ወዳ	-9.02058
▁ቦታ	-9.02082
ዋለሁ	-9.02265
▁የነበሩትን	-9.02369
▁እያሉ	-9.02376
▁አደረገ፤	-9.02438
▁አደርግ	-9.02861
▁የነበሩ	-9.0295
▁ወረደ	-9.02952
ኤል፥	-9.02959
▁ለሕዝቡ	-9.02981
ለህ፥	-9.02982
▁ጨለማ	-9.02982
ቸዋለህ	-9.03025
▁እግር	-9.03027
▁ወጣ።	-9.03138
▁ሲያ	-9.03413
ቃቸው	-9.03452
▁ልቡ	-9.03471
▁ነውር	-9.03484
▁በሬ	-9.03526
▁የኤ	-9.03578
▁የብር	-9.0359
▁እውቀት	-9.03633
ዳል	-9.03657
▁ተናገሩ	-9.03701
▁ዮሐንስ	-9.03747
▁ሽ	-9.03796
▁ለዳዊት	-9.04001
▁ምስጋና	-9.04002
▁ፍቅር	-9.04033
▁መብል	-9.04066
ልሃል	-9.04093
▁ወደሚ	-9.04196
ዘጋ	-9.04196
ራቱ	-9.04394
ጋድ	-9.04401
▁ነበርና።	-9.0445
▁ተገ	-9.04477
ሁትን	-9.04516
▁ዕጣ	-9.04744
▁ያሉት	-9.04753
ነሡ	-9.04935
▁ይሆናሉ	-9.04991
▁የባቢሎን	-9.05032
መለከ	-9.05046
▁ይሠራ	-9.05191
ረጥ	-9.05194
ላው	-9.05295
▁ዲ	-9.0534
ራሴ	-9.0542
▁ይዘ	-9.05468
ትም።	-9.05632
ነቅ	-9.05782
▁ብዙዎች	-9.05797
ያውቅ	-9.05847
ለበ	-9.0607
ጾ	-9.06074
▁ጠርቶ	-9.0608
▁ጋሻ	-9.06153
▁ሁለቱን	-9.06154
▁ያጠፋ	-9.06306
▁ወዲያ	-9.06346
▁እኔን	-9.06398
ያዩ	-9.06401
▁የዓ	-9.06597
▁አለው	-9.06654
▁ሰጡ	-9.06657
▁በዙሪያው	-9.06832
ችኋ	-9.06842
▁ወዲያው	-9.06853
ቃጥ	-9.07053
ጋት	-9.07115
▁የያዕቆብ	-9.07127
▁ቃሉን	-9.07129
▁ሰዓት	-9.07135
ፈጸመ	-9.07147
▁መቼ	-9.07191
ከነዓን	-9.07196
▁ዮ	-9.0744
▁ነኝ፤	-9.07646
▁ያዕቆብም	-9.08069
▁ታላቁ	-9.08196
▁ለሰው	-9.08208
▁ተቀመጠ	-9.08215
ሠራዊቱ	-9.0822
▁የቀረው	-9.08288
በቃ	-9.08456
▁በምት	-9.08461
አል፥	-9.085
ሻለሁ	-9.08502
ጥፋት	-9.08515
ድሩ	-9.08541
▁ልቤ	-9.08683
▁በራ	-9.08715
▁የነበሩት	-9.08883
ሽንም	-9.09065
▁በአሥራ	-9.0913
▁በዳዊት	-9.09267
▁የተቀደሰ	-9.09603
▁ስሜ	-9.0963
▁ጽዋ	-9.09765
▁ሴቲቱ	-9.09916
▁ዮናታን	-9.10009
▁ያላ	-9.10017
መለከቱ	-9.10019
ለየ	-9.10062
▁ራሱ	-9.10089
▁በፍጹም	-9.10353
▁ከእርስዋ	-9.10353
▁በገ	-9.10409
▁በርሳቸው	-9.1043
▁ያደርግ	-9.10461
▁በእኛ	-9.10539
▁በልቡ	-9.10626
▁አለው፤	-9.1074
ጣችሁ	-9.10784
▁ዔ	-9.10813
▁ነኝ።	-9.10875
▁ካህን	-9.10884
▁ዮሴፍ	-9.10932
▁ናችሁ	-9.10968
▁ማር	-9.11081
ቀርብ	-9.11183
▁ወንድሞቹ	-9.11452
▁በከንቱ	-9.11452
▁ሰማያት	-9.11461
ጽናና	-9.11478
ያ፥	-9.11621
▁በእጅህ	-9.11744
ቻቸውም	-9.11774
▁ገንዘብ	-9.11936
▁ነን	-9.11947
▁ወሬ	-9.11965
ታልና	-9.1197
ረጋ	-9.1198
▁ሰብ	-9.11991
ጣት	-9.1202
▁ወጣ፥	-9.12079
▁ፍርድን	-9.12374
▁ንጉሡን	-9.12521
▁እነዚያ	-9.12563
▁ይገባ	-9.12573
▁ገደለ	-9.12649
▁ከቀ	-9.12723
▁ጉ	-9.12737
ድያ	-9.12813
ነካ	-9.12996
▁ወንጌል	-9.13103
▁ወጣ	-9.13216
▁በትር	-9.13243
▁በብር	-9.13249
▁ተጠ	-9.13412
▁ኃጢአትን	-9.13455
▁በምን	-9.13595
ሴቶች	-9.13621
▁አይሆን	-9.1364
▁አድርጌ	-9.13686
▁ጕድጓድ	-9.13686
▁በመንፈስ	-9.13687
▁ስጦታ	-9.1369
▁በፊታቸው	-9.1369
▁እኛም	-9.13783
▁በራሱ	-9.1384
▁አገኘ	-9.14013
አሥራ	-9.14111
ታመን	-9.14179
ልያ	-9.14208
▁አንዱን	-9.14215
ደቀ	-9.1437
ላቸውን	-9.14377
▁ናቸው	-9.14404
▁የሴ	-9.14414
ችኋልና	-9.14422
ሉም	-9.14557
▁አይደለም።	-9.14571
ህና	-9.14597
▁በሥጋ	-9.14616
▁በገባ	-9.14651
▁ፈር	-9.14691
▁ቅዱሳን	-9.14823
▁ባቢሎን	-9.14823
▁የአሕዛብ	-9.14823
▁ነቢዩ	-9.14823
▁ወደዚያ	-9.14827
▁ሰዎቹ	-9.14842
▁ተራሮች	-9.14851
▁ሚስቱ	-9.14861
ትንም	-9.14907
▁ዳ	-9.14992
▁አሉ	-9.14999
ደረጉ	-9.15056
ተህ	-9.15145
▁የተናገረ	-9.1537
ጠበ	-9.15572
▁ነበረች	-9.15621
▁አር	-9.15625
ዮች	-9.15924
ረሱ	-9.15945
▁ሂዱ	-9.15974
▁አንበሳ	-9.15975
▁አለችው።	-9.15977
▁ይሁኑ	-9.1598
▁ናት፤	-9.15982
▁ሰደደ	-9.15989
ዘር	-9.16052
▁ምክር	-9.16124
ቅርብ	-9.16439
▁ነፍሴን	-9.1645
ዘሩ	-9.16457
▁በድን	-9.16583
▁ያሳ	-9.16605
▁ደረ	-9.16659
በት።	-9.16717
ናልና	-9.16835
▁ሥልጣን	-9.17135
▁ርኵሰት	-9.17135
▁ኤልያስ	-9.17136
▁ወሰዱ	-9.17139
▁እንስሳ	-9.17155
ቻለ	-9.17197
▁በዓል	-9.17217
▁ስምንት	-9.17289
▁ኢያሱም	-9.17456
▁ወደቀ	-9.17514
▁ልዩ	-9.1753
ኛለህ	-9.17652
▁አጠፋ	-9.17903
▁አለች።	-9.18209
ቆም	-9.18238
▁ሹ	-9.18298
ፅ	-9.18309
ዑ	-9.18311
ጪ	-9.18311
▁በዮርዳኖስ	-9.18311
▁ኃያላን	-9.18311
▁ከሰው	-9.18347
ባትም	-9.18358
▁ደዌ	-9.18364
ወርድ	-9.18364
በቱ	-9.18411
ናል።	-9.18444
ሳለሁ	-9.18517
▁ይህችን	-9.18602
▁የሚገባ	-9.18618
▁ደረሰ	-9.1876
▁መልክ	-9.18794
ጠረ	-9.18798
▁ማታ	-9.18828
ቅር	-9.18847
ከር	-9.19103
▁የሚል	-9.1911
ተዉ	-9.19198
▁ቆመ	-9.19372
▁በመጣ	-9.19506
▁ዕለት	-9.19603
▁ይወጣል	-9.19615
አባቶቻችሁ	-9.19665
▁ይደ	-9.1968
▁የዚያን	-9.19702
▁ተመለሰ	-9.19832
መልካ	-9.1994
▁ቢኖር	-9.19981
ኛል።	-9.19991
ለች፥	-9.20155
ታይ	-9.20371
▁የነበረ	-9.20406
▁የሚኖሩ	-9.20472
▁ፈጥ	-9.20657
ናል፤	-9.20673
▁ከሕዝቡ	-9.20707
▁አራዊት	-9.20707
▁ፍጻሜ	-9.20707
▁ልጆቻቸው	-9.20707
▁ዓይኖች	-9.20707
▁ነቢይ	-9.20709
▁የተጻፈ	-9.20711
ገለጥ	-9.20787
▁ስብ	-9.2079
ደርስ	-9.2085
▁ይስ	-9.20895
ነገር	-9.21043
▁የሰማ	-9.21737
▁ወንድም	-9.21761
▁አውቃለሁ	-9.21927
▁ሞገስ	-9.21931
▁ድሀ	-9.21992
▁መንጋ	-9.22058
▁ደጅ	-9.2216
▁ካለው	-9.22202
▁የነበረው	-9.22343
▁ገደሉ	-9.22392
ተባለ	-9.2244
▁አልሁ።	-9.2246
ማል።	-9.2259
ሶን	-9.22756
ሚችል	-9.22942
ለን፤	-9.23133
▁አላቸው	-9.23142
▁በሰባተኛው	-9.23161
▁ዙፋን	-9.23161
▁ግብጽ	-9.23162
ዘጋጅ	-9.23202
▁ነኝና	-9.23216
▁ወፎች	-9.23216
▁በስተ	-9.23331
ማለ	-9.2337
▁የሰማይ	-9.2345
ችሁን	-9.23458
▁ምድሪቱን	-9.23577
▁የሠራ	-9.23598
ልፍ	-9.23807
▁አደረጉ።	-9.23945
ልሃለሁ	-9.24178
ፈረሰ	-9.243
▁ለእነርሱ	-9.24411
▁ያልተ	-9.24445
▁አረ	-9.24467
▁ጥሩ	-9.24473
▁ሥር	-9.24474
▁ወዳለው	-9.2449
ፈልግ	-9.24528
ዘራ	-9.24687
▁ያዕቆብ	-9.24716
▁ወጣ፤	-9.24745
▁መልሶ	-9.24839
ወንድሙ	-9.24845
ብያ	-9.24878
▁አይደለም፤	-9.24903
▁ነውና፤	-9.252
ሚያ	-9.25205
▁አቤሴሎም	-9.25248
▁ምድሪቱ	-9.25252
▁አሮን	-9.25363
▁ፈንታ	-9.25375
ኪያ	-9.25408
ጠመ	-9.25537
▁መቅደሱ	-9.25676
▁ቃሌን	-9.25678
ቸውንም	-9.25777
ታውቁ	-9.25794
▁እምነት	-9.25801
▁ለጌታ	-9.25801
▁እህል	-9.25802
▁ስለሚ	-9.25841
▁ባሉ	-9.26019
▁አይቶ	-9.26502
▁የሚሆን	-9.26541
▁ልባቸው	-9.26571
ደቡ	-9.26632
በዙ	-9.26691
▁ተነሥ	-9.26822
▁ሠር	-9.26905
▁ምድርን	-9.27045
ሰነፍ	-9.27148
▁ሰሎሞንም	-9.27186
▁አድርገ	-9.2729
አልና፥	-9.27342
ያልፍ	-9.27483
▁ባዩ	-9.27609
▁ኢ	-9.27821
▁መጋረጃ	-9.27833
ላክ	-9.27866
ገኘው	-9.2788
▁ሌሎች	-9.27919
▁የሐ	-9.28095
▁አደረጉ	-9.28122
▁የለም፤	-9.28177
▁የኢየሩሳሌም	-9.28257
▁የኢየሱስ	-9.28257
▁ከግብጽ	-9.28257
▁ቀድሞ	-9.28264
▁በከተማይቱ	-9.28269
▁ቸርነት	-9.2831
▁ዳሩ	-9.28497
▁ሆነች	-9.2854
▁ማናቸው	-9.28561
▁ናት።	-9.28774
ሰጣቸው	-9.28823
ነበረ	-9.28857
▁እናት	-9.29032
▁በሚያ	-9.29208
▁ባሪያዎቹ	-9.29227
▁የንጉሡ	-9.2923
▁እንዳያ	-9.29332
▁አኖረ	-9.29398
▁ራ	-9.29426
▁ፈራ	-9.2948
▁አልዓዛር	-9.29573
▁ዕድሜ	-9.29573
▁በረከት	-9.29574
▁ጠቦት	-9.29579
▁የዚህ	-9.29634
ሌዊ	-9.29866
ፋት	-9.29957
ነበረው	-9.30098
▁ይሰማ	-9.30454
ዎቹንም	-9.30586
▁ለኃጢአት	-9.30906
▁መጀመሪያ	-9.30906
▁መቃብር	-9.30907
▁ስምዖን	-9.30916
▁ለፊት	-9.30929
▁መባ	-9.31014
▁ብለ	-9.31017
▁ወጥ	-9.31106
▁ጥላ	-9.31196
▁የከ	-9.31232
ሾች	-9.31288
▁ይቈ	-9.31329
▁ናቸው፥	-9.31366
▁እንደሚያ	-9.31858
ጮኹ	-9.32215
▁ትሆናለች	-9.32258
▁ራእይ	-9.32258
▁የቀሩት	-9.32316
▁ጭፍራ	-9.32317
▁ይሰጣል	-9.32354
▁ሄዱ።	-9.32394
▁ጽኑ	-9.32459
▁መጡ።	-9.32463
ብሩ	-9.32595
▁በሁለተኛው	-9.32634
ፎች	-9.32691
▁አገባ	-9.32882
መለሰ	-9.32887
ባቸው።	-9.32904
▁ቆመው	-9.33158
▁አንተን	-9.33165
ታለች	-9.33275
ሃል፤	-9.33338
▁ተሸ	-9.33459
▁ወገ	-9.33556
▁ባልንጀራ	-9.33628
▁አሳልፌ	-9.3363
▁በደቡብ	-9.33633
▁በሙሴ	-9.33635
▁ገብቶ	-9.33735
▁ጥፋት	-9.33758
▁ከጌታ	-9.33784
ቈጠሩ	-9.3379
ያደርግ	-9.3384
▁ልጆች፤	-9.33938
▁ልኮ	-9.33988
ነፋ	-9.3407
▁ዮሴፍም	-9.3428
▁አልሰማ	-9.34396
▁ይበሉ	-9.34796
ታቸውም	-9.34865
ቀረቡ	-9.3494
▁ዳግመኛ	-9.35016
▁መግቢያ	-9.35018
▁ልጁን	-9.3507
▁ናቸውና	-9.35198
ወድድ	-9.35288
ረብ	-9.35331
ሰኝ	-9.35365
ዳይ	-9.3547
▁ጠብ	-9.35611
▁አልነበረም	-9.35721
ሸሽ	-9.35768
ክብሩ	-9.3578
▁የበግ	-9.36053
▁ምሕረቱ	-9.36425
▁እባክህ	-9.36425
▁የሕዝቡ	-9.36425
▁የታመነ	-9.36425
▁ደጃፍ	-9.36426
▁በግብጽ	-9.36426
▁ጠጕር	-9.36427
▁ውሰድ	-9.3643
ቴም	-9.36436
አምላኩ	-9.36437
▁ይሆናሉ።	-9.36483
ጉት	-9.36727
ታውቅ	-9.36867
▁ተቀመጡ።	-9.36872
አቸው፤	-9.3688
▁ነውና፥	-9.36901
ልሁ	-9.36908
▁ተፈ	-9.36986
ሃት	-9.36989
▁የተሠራ	-9.37033
▁እንዳዘዘው	-9.37039
▁ነበሩት	-9.37164
ሠራው	-9.37361
▁ሳሙኤልም	-9.37443
ክራ	-9.37708
▁ሁላችሁ	-9.37708
ተደረገ	-9.37815
▁በአንቺ	-9.37855
▁ቅሬታ	-9.37858
▁አዲስ	-9.37865
▁ዝናብ	-9.37869
▁በእምነት	-9.37869
ኛል፤	-9.38066
▁ከነ	-9.38112
▁ጀም	-9.38134
ኑም	-9.38411
ያችሁ	-9.38443
▁ያደርጉ	-9.38677
ለት፤	-9.39115
ዋል፥	-9.3919
ቂያ	-9.39205
▁ይስሐቅ	-9.39303
▁ልቅሶ	-9.39307
▁ስድሳ	-9.3931
▁ሜዳ	-9.39335
ወስደው	-9.39348
▁ተነሥተው	-9.39372
ፈቱ	-9.39623
ላቸው፥	-9.39656
▁ተነሡ	-9.39838
ያቸው	-9.40016
▁ግንብ	-9.40086
▁ገብ	-9.40093
▁አሮንን	-9.4029
ሃለሁ።	-9.40459
▁እያለ	-9.40539
በት፥	-9.40709
ቆች	-9.40744
▁በጽድቅ	-9.40773
▁እንዳደረገ	-9.40773
▁ምናልባት	-9.40773
▁ያውቃሉ	-9.40774
▁ሰጥቶ	-9.40786
▁አሳልፈ	-9.40866
ኋት	-9.4097
ወለደች	-9.41066
▁መድኃኒት	-9.4109
▁በዚህም	-9.41098
▁ተነ	-9.41111
▁የሰጠ	-9.412
ወስድ	-9.41227
ዮስ	-9.41359
ዎቹን	-9.41562
▁ነገሠ	-9.4174
▁ከተማይቱ	-9.41803
▁ያመጣ	-9.41809
▁ብን	-9.42158
ሂ	-9.42254
ዪ	-9.42266
▁ነፍሱን	-9.42279
▁ከሁሉ	-9.4228
▁በሁሉ	-9.42292
▁የአሮን	-9.42343
▁አሕዛብን	-9.42379
▁በሬዎች	-9.42481
ጠበቅ	-9.42724
ዎቹም	-9.42736
▁ኢየሱስን	-9.42816
▁የሚያደርግ	-9.42832
▁ራብ	-9.42983
ኖረው	-9.43083
▁የይሁዳን	-9.43142
▁እንድን	-9.43278
▁ኤል	-9.43384
▁በላ	-9.4348
▁በመገናኛው	-9.43781
▁በምሥራቅ	-9.43781
▁በሦስተኛው	-9.43781
▁ከኢየሩሳሌም	-9.43781
▁መልካሙን	-9.43781
▁ዱቄት	-9.43781
▁ፍርሃት	-9.43782
▁ዳንኤል	-9.43788
▁ለሚቃጠል	-9.43819
▁ወጥተው	-9.43853
ቶቻችሁ	-9.43936
▁ተሰበሰቡ	-9.44088
▁ልጆቹን	-9.44247
▁እነዚህም	-9.44374
ታዩ	-9.44415
▁አንዱም	-9.44496
▁እስክ	-9.44559
▁ይሆኑ	-9.44664
▁የምን	-9.44761
አቸው፥	-9.44777
▁ሰፈሩ።	-9.45193
▁በባቢሎን	-9.45319
▁ኃጢአተኞች	-9.45319
▁ጣፋጭ	-9.4532
▁እሰጣለሁ	-9.45321
▁ተጻፈ	-9.4533
አንደኛው	-9.45337
▁የሚሆነውን	-9.45348
▁በደስታ	-9.45355
▁ሰምቶ	-9.45388
▁እላለሁ	-9.45494
▁ኃጢአተኛ	-9.46367
▁ስላል	-9.46407
አቸውን	-9.46425
ፈጸም	-9.46573
ሑ	-9.46882
▁ጀመር	-9.46883
▁በሰሜን	-9.46891
▁አባቶች	-9.46892
▁ከክፉ	-9.46894
▁በሰንበት	-9.46904
▁ምስል	-9.46948
ኸውን	-9.46959
▁ወርዱ	-9.47184
▁ጠላት	-9.47232
▁ትቀ	-9.47281
▁ማለ	-9.47447
ታላችሁ	-9.47473
▁ሎሌ	-9.47551
▁መጣ፥	-9.47563
▁ሰላምታ	-9.47704
በታል።	-9.47805
ማል፤	-9.47849
▁ልብህ	-9.48355
ዌ	-9.48396
ዘዘ	-9.48396
▁ተራ	-9.48435
ኀ	-9.48469
ገናኘ	-9.48469
▁ርዝመቱ	-9.48469
▁እውነተኛ	-9.48469
ጵ	-9.48469
▁እሄዳለሁ	-9.48469
▁ወይፈን	-9.48469
▁ዛፎች	-9.48472
▁ድንበር	-9.48476
▁በሜዳ	-9.48484
▁ከእነዚህ	-9.48495
▁የአንድ	-9.48582
ባለች	-9.48587
▁አሜን	-9.48589
ችኋል።	-9.48759
▁የሆነው	-9.48811
ናገረው	-9.48899
▁በልብ	-9.48995
አብራም	-9.49062
▁በመጀመሪያው	-9.49099
▁እንቢ	-9.49186
▁ተናገረ።	-9.492
▁ያደረገውን	-9.49248
▁ይለዋል	-9.49355
▁የከበረ	-9.49374
በት፤	-9.49581
▁ሆኖአል	-9.49583
ከፈተ	-9.49669
▁ለወንድ	-9.4969
▁ጦር	-9.49863
▁ነበረች።	-9.49891
ቈጣ	-9.49932
▁ተባት	-9.49966
▁ሊቀ	-9.50004
ማሩ	-9.5005
ግብፃውያን	-9.50082
▁መክሊት	-9.50082
▁መጨረሻ	-9.50082
▁ማኅበር	-9.50082
▁አገልግሎት	-9.50082
▁ኤፍሬም	-9.50082
ጠላቶቼ	-9.50082
▁በሕዝብ	-9.50082
ሜሌክ	-9.50083
▁ተመልሶ	-9.50083
▁ሦስቱ	-9.50083
▁ፍጹም	-9.50085
▁ፍየል	-9.50086
▁ለዚህ	-9.50094
▁በመልካም	-9.50149
ዳት	-9.50163
ውንና	-9.50322
▁በልባቸው	-9.5044
▁ሌሎችን	-9.50508
▁ኢዮሣፍጥ	-9.50651
▁ተቀመጡ	-9.5076
▁ጽድቅን	-9.50796
▁ዕጣን	-9.50849
▁እንዳዘዘ	-9.5107
▁ሦስተኛው	-9.51189
ነታችሁ	-9.51323
▁ካል	-9.5134
መልከ	-9.51439
ሳቱ	-9.51519
▁ሄደ፥	-9.5157
ሳለች	-9.51717
a	-9.51722
▁በየወገናቸው	-9.51722
▁አመስግኑ	-9.51722
▁ክርስቲያን	-9.51722
▁የክርስቶስ	-9.51722
▁አራተኛው	-9.51722
▁ለእኛ	-9.51723
ሕያዋን	-9.51723
▁ይላሉ።	-9.5176
▁ሰባቱ	-9.51773
ቃጠለ	-9.51779
ቀደሱ	-9.5182
▁በላዩ	-9.51827
▁የሚለው	-9.51955
▁የሚቃጠል	-9.52028
ሰጠኝ	-9.52071
▁የንጉሡን	-9.52152
▁ሰፈር	-9.52167
▁መለከት	-9.5241
▁ሳሉ	-9.52429
▁ሄደ፤	-9.5244
ጥራ	-9.52548
▁ናቡከደነፆር	-9.526
▁አነሣ	-9.52744
▁በሰሙ	-9.52784
ማድረግ	-9.52971
▁ሁለተኛ	-9.53112
▁እጅህን	-9.53153
ማል፥	-9.53257
▁ነኝ፥	-9.53277
▁ተቀመጠ።	-9.53353
ሒ	-9.53388
▁በእርግጥ	-9.53388
▁በኵር	-9.53388
▁ተጽፎአል	-9.53388
▁የሳኦል	-9.53388
▁ጩኸት	-9.53388
▁ጠባቂ	-9.53389
▁የአሦር	-9.53389
▁በላያቸው	-9.53403
▁መሬት	-9.53425
▁በወርቅ	-9.53451
▁በሌላ	-9.53474
▁ሙሉ	-9.53488
▁የእሳት	-9.53489
▁በዚያች	-9.53835
▁አስነሣ	-9.53921
▁ብላቴናው	-9.53998
▁ባሪያዬ	-9.54137
▁አይተ	-9.54149
▁አይተው	-9.54293
▁አቀረበ	-9.54356
ነታቸው	-9.54385
ወልድ	-9.54413
ደሉ	-9.54473
ወድቅ	-9.54527
ድህ	-9.54767
▁አሮንም	-9.54937
▁ሞላ	-9.55064
መርዶክዮስ	-9.55083
▁ፈሪሳውያን	-9.55083
▁ወለደ።	-9.55083
▁ጠቦቶች	-9.55083
▁በቍጣ	-9.55091
ጸልይ	-9.55094
ዓይኔ	-9.55098
▁ኖሮ	-9.55113
▁ማርያም	-9.55116
ይቱን	-9.55144
▁በፍታ	-9.55175
ራውያን	-9.55183
▁ዘወር	-9.55206
ችኋል፤	-9.5524
▁እንድታ	-9.55469
ጣለች	-9.55515
ወርሱ	-9.55555
▁ያየ	-9.55635
▁ፋሲካ	-9.55759
ቲቱ	-9.55831
ገደሉ	-9.55963
▁የማያ	-9.56249
▁ተቀመጥ	-9.56441
ራቸውን	-9.56479
▁ትተ	-9.56574
ሰጣችሁ	-9.56648
▁ስን	-9.56779
ጮኽ	-9.56781
ባብ	-9.56801
ጳ	-9.56807
▁ለልጆቹ	-9.56807
▁ሰረገሎች	-9.56807
▁በጨለማ	-9.56807
▁በኃይል	-9.56808
▁በእጃቸው	-9.56808
▁ዘላለም	-9.56808
▁ፈረሶች	-9.56809
▁ይችላል	-9.56813
▁ለልጅ	-9.5682
▁አበዛ	-9.56838
▁በእነዚህ	-9.5684
▁በሰማርያ	-9.56868
ወለዱ	-9.56872
▁ነበረና	-9.56903
▁ቀር	-9.5691
አባታችን	-9.56943
▁ይመጣሉ	-9.56974
▁ነውን	-9.5698
አት።	-9.56993
▁ራሳቸውን	-9.57028
▁ሳይሆን	-9.5708
▁ሠሩ	-9.57108
ቁም	-9.57577
▁ምንጭ	-9.57579
▁አጋ	-9.57949
▁ያመጡ	-9.58125
▁አህያ	-9.5823
ተወለደ	-9.58495
▁ልጆቻችሁ	-9.58562
▁ከአሕዛብ	-9.58562
▁ይወድቃሉ	-9.58562
▁ሞዓብ	-9.58563
▁ሄዶ	-9.58569
▁ሚዛን	-9.58573
▁በፍርድ	-9.58579
▁ሁኑ	-9.58609
ድኑ	-9.58637
▁ይጠፋል	-9.58652
▁ኤሊ	-9.58669
▁ፊቱን	-9.5869
▁በመከራ	-9.58725
▁ከብዙ	-9.58729
ላችኋለሁ	-9.58736
▁ልባችሁ	-9.58772
▁ብርቱ	-9.58788
▁የእኔ	-9.58788
▁ሬሳ	-9.58898
▁ብላቴና	-9.58947
▁ጠላቶች	-9.5903
ዱት	-9.59201
▁ነፍስህ	-9.59219
▁እርሱንም	-9.59306
▁አልነበረም።	-9.59457
▁እስክት	-9.595
ከበረ	-9.59636
▁ሆይ	-9.59667
▁ነገረ	-9.59684
▁ተገለጠ	-9.59731
ዋለሁ።	-9.59733
ቃጠል	-9.60012
▁ቀኑ	-9.60225
▁ግፍ	-9.60229
▁በከተማ	-9.60332
▁ለአሕዛብ	-9.60347
▁ኃጢአታቸው	-9.60347
ኢዮስያስ	-9.60348
▁ሐሤት	-9.60348
▁ይናገራል	-9.60348
▁ታሪክ	-9.60351
▁ተቀምጠው	-9.60352
▁መምህር	-9.60353
▁መንግሥቱ	-9.60355
▁በቤቴ	-9.60357
▁ግምጃ	-9.60363
ጠብቁ	-9.60405
▁አጸና	-9.60438
ባርክ	-9.60439
አስቴር	-9.60552
▁እጁ	-9.60667
▁መጣ፤	-9.60681
መልሱ	-9.60837
ረሳ	-9.60851
▁ሳሙኤል	-9.60864
ቅረብ	-9.60881
▁በሥራ	-9.6099
ነቴ	-9.61104
▁ነበረው	-9.61165
ባቸዋል	-9.61201
▁ጠል	-9.61892
ለታል	-9.62026
▁ቸር	-9.62148
ሼ	-9.62166
▁ለያዕቆብ	-9.62166
▁ታደርጋለህ	-9.62166
▁የካህናት	-9.62166
▁በመካከል	-9.62166
▁ታውቃለህ	-9.62166
▁አይደለሁም	-9.62166
መንግሥታት	-9.62167
▁ከሙታን	-9.62167
▁ጠቢብ	-9.62167
▁ዘጠኝ	-9.62168
▁ሙታን	-9.6217
▁የአገሩ	-9.6217
ሳዶቅ	-9.62208
ታመኑ	-9.62237
▁በርሳችሁ	-9.62288
▁እልል	-9.62351
▁የአሞን	-9.62393
▁አልፎ	-9.62513
በደል	-9.62672
▁የለውም	-9.62702
ጨምር	-9.62727
▁አትፍራ	-9.62817
▁ትቢያ	-9.62826
▁ቀረ	-9.62908
▁አለኝ	-9.6292
▁አጠፋለሁ	-9.62929
ለዋል	-9.62959
▁ይሻ	-9.63056
▁አባትህ	-9.63066
ሾመ	-9.63203
ዋልና፥	-9.63462
ሰቡ	-9.63484
ሰበሰቡ	-9.63648
▁በዚህች	-9.63912
▁ሥራቸው	-9.63962
▁መልእክተኞች	-9.64017
▁ይሄዳል	-9.64018
▁አይችልም	-9.64019
▁ከአንቺ	-9.64019
▁ጽዮን	-9.64021
▁በክፉ	-9.6404
▁ለራሱ	-9.64041
▁ቤቴ	-9.64042
▁መስገጃዎች	-9.64089
▁ሣር	-9.64101
▁ኢዩ	-9.64117
ነግር	-9.64145
ፈስስ	-9.64245
ዎቻቸው	-9.64468
▁ሽቱ	-9.6449
▁የሆኑ	-9.64627
▁ያዙ	-9.64712
ወለድ	-9.64755
አታል	-9.64812
▁አፈር	-9.64983
▁ይበላ	-9.65005
አባታቸው	-9.65163
ቀኝ	-9.65234
▁ይመጣል፥	-9.65245
ሁበት	-9.65478
▁ጥበብን	-9.65628
▁ውኃው	-9.65669
ባሉ	-9.65696
መሩ	-9.65697
▁ከኤ	-9.65704
▁በሐ	-9.65721
ንፍታሌም	-9.65904
▁ምሥራቅ	-9.65904
▁ተአምራት	-9.65904
▁ከንጉሡ	-9.65904
▁ጲላጦስ	-9.65904
▁ጻድቃን	-9.65904
▁ያውቃል	-9.65905
▁የሕይወት	-9.65919
▁በአባቱ	-9.6592
▁መውጫ	-9.65927
▁በውጭ	-9.65969
▁ታናሽ	-9.65987
መሰክር	-9.6599
ናወጥ	-9.66008
▁ሸሹ	-9.66027
▁ላሉት	-9.66103
▁ወጡ።	-9.66261
▁ላከ።	-9.66303
ለምን	-9.66484
▁ጠብቁ	-9.66507
ዳለህ	-9.666
ጣለሁ	-9.66896
▁ውጣ	-9.66918
ላለች	-9.67285
ተቀመጡት	-9.67316
ነዚህ	-9.67448
ያምኑ	-9.67477
▁አሉ፤	-9.67528
▁ኖረ	-9.67539
▁ለእያንዳንዱ	-9.67827
▁መላእክት	-9.67827
▁አለቆቹ	-9.6783
▁በለዓም	-9.67831
▁የአምላክ	-9.67833
▁መሐላ	-9.67834
አንዲቱ	-9.67859
▁እጄን	-9.67877
▁ድንቅ	-9.67899
▁አትፍሩ	-9.67973
ከተል	-9.67984
▁እነርሱን	-9.67988
▁ሰንበት	-9.67998
▁ዋይ	-9.68026
▁በቀን	-9.68098
▁ማለት	-9.68123
▁እንስሶች	-9.68422
▁ብላችሁ	-9.68547
▁ለሚያ	-9.68569
▁ከተማይቱን	-9.68658
▁ዓመፃ	-9.68729
▁ስጡ	-9.68814
ዋለሁ፤	-9.69049
▁ባዶ	-9.69063
▁ዘወትር	-9.69082
▁ይገባል	-9.6912
ባችኋለሁ	-9.69301
ጐበ	-9.69383
▁ሽማግሌ	-9.69442
▁አገኙ	-9.69477
▁ያደረ	-9.69519
▁ያዕቆብን	-9.69532
ራል፥	-9.69684
▁አለፈ	-9.6973
▁ይናገራሉ	-9.69788
▁ደብዳቤ	-9.69788
▁ኃያል	-9.69788
▁ግብፅ	-9.69788
▁አንሥቶ	-9.69788
▁ማስተዋል	-9.6979
▁ንስሐ	-9.69791
▁እግሮች	-9.69794
▁ዔሳው	-9.69801
▁ደሙን	-9.69884
ጠይቅ	-9.69906
▁የሞተ	-9.70006
▁ከአባቶቹ	-9.70065
▁መጡ፥	-9.70145
▁አምጡ	-9.70162
ሄደ	-9.70269
▁ወጥመድ	-9.7035
▁እርስዋን	-9.70555
▁በላቸው።	-9.70646
▁ወፍ	-9.70898
▁ስምህን	-9.70957
ማሉ	-9.71066
ሡ	-9.71231
▁ብቻውን	-9.71266
▁ሆናችሁ	-9.71357
▁ስምህ	-9.71448
▁ታውቃላችሁ።	-9.71672
▁አደረጉ፤	-9.71705
▁አዩ	-9.71719
▁መዛሙርት	-9.71788
▁ሴዴቅያስ	-9.71788
▁ኢዮርብዓም	-9.71788
▁ዕረፍት	-9.71788
▁ድንጋዮች	-9.71788
▁ጕልማሳ	-9.71788
▁ትምህርት	-9.71788
▁በጽዮን	-9.71788
▁ተናግሮ	-9.71788
▁እለምንሃለሁ	-9.71789
ስምንተኛው	-9.7179
▁በሐሰት	-9.71791
▁ፈሳሽ	-9.71792
▁አይደሉም	-9.718
▁ሸክም	-9.71828
▁ፊቴን	-9.71833
▁ሰምተው	-9.71837
▁ይሞታል	-9.7185
ለችና	-9.71854
▁ብረት	-9.71904
▁መጡ፤	-9.71967
▁ኢዮብ	-9.72107
▁ሽታ	-9.72113
▁ሰጠው።	-9.72181
▁ባሪያዎችህ	-9.72267
ሸከም	-9.72377
ላከኝ	-9.7262
▁ትልቅ	-9.72625
▁እስካ	-9.72627
ከሱ	-9.73171
መስል	-9.7341
▁ከሚያ	-9.73501
▁እንደምት	-9.73577
ፈረሱ	-9.73703
▁የናስ	-9.73803
▁ለአብርሃም	-9.73829
▁አእምሮ	-9.73829
▁በውስጥ	-9.73831
▁ስድብ	-9.73846
▁ሕጉ	-9.73846
▁ከጥሩ	-9.73868
▁መሰምርያዋን፥	-9.73887
▁በሰላም	-9.73893
ከተሉ	-9.7405
▁ወንድሙን	-9.74079
▁ሄደው	-9.74238
ኢዮራም	-9.74246
▁መንገዱን	-9.74337
▁ይላልና።	-9.74768
▁ዮርዳኖስን	-9.75061
በቀል	-9.75834
▁መቅሠፍት	-9.75912
▁የአብርሃም	-9.75912
ከነዓናውያን	-9.75912
▁መዝሙር	-9.75912
▁በመቅደስ	-9.75912
▁አክዓብ	-9.75912
▁ከዳዊት	-9.75912
▁መንደሮች	-9.75912
▁ትሆናለህ	-9.75912
▁ኤልሳዕ	-9.75912
▁እጃቸውን	-9.75914
▁አንጻር	-9.75914
መላለስ	-9.75915
▁በጆሮ	-9.75919
ቤዠ	-9.75923
▁የእህል	-9.75935
▁ራሳችሁ	-9.75972
▁አየሁ፥	-9.7604
▁የቤቱ	-9.76058
▁ዓሣ	-9.76196
ሻው	-9.76315
ሰዶም	-9.76361
▁ተናገረው	-9.76399
▁አበኔር	-9.76603
▁ሐማ	-9.76891
▁አምባ	-9.77215
ማውያን	-9.77261
▁አራቱ	-9.77315
ኛላችሁ	-9.77344
▁እንዳታ	-9.77668
▁ሕዝብህ	-9.77856
ፍሩ	-9.77885
ፋችሁ	-9.77924
▁ይመልስ	-9.77973
ቺ	-9.77987
ዒ	-9.78037
ኋለኛው	-9.7804
ጋለሞታ	-9.7804
▁መሠረት	-9.7804
▁ቋንቋ	-9.7804
▁ከወዴት	-9.7804
▁በፈርዖን	-9.7804
▁ወንድሞቼ	-9.7804
▁በድንጋይ	-9.7804
▁እንግዶች	-9.78041
ጸልዩ	-9.78044
▁ሕልም	-9.78048
ሻገሩ	-9.7805
▁ተመልከት	-9.78052
▁ከወሩ	-9.78064
▁አዎን	-9.78108
ዘዛቸው	-9.78146
▁በእጄ	-9.78147
▁ገበታ	-9.7818
ያለሁ	-9.7839
▁የሚመስል	-9.78391
▁ጸሐፊ	-9.78483
ስተውል	-9.78519
ወሰድ	-9.78586
▁ውጡ	-9.78667
▁እንግዳ	-9.78805
▁አድርገህ	-9.78846
▁አቀረቡ	-9.78899
▁ያደረገ	-9.79015
አችኋል	-9.79055
ብሃል	-9.79282
▁ጸሎት	-9.79383
ኋ	-9.79384
ሕይወ	-9.79437
▁ስሙንም	-9.79554
ሐዋርያት	-9.79756
ጸኑ	-9.7977
▁ቀርቦ	-9.79775
▁ለይሁዳ	-9.80214
▁እኵሌታ	-9.80214
▁ያገለግሉ	-9.80214
▁ጮኸ።	-9.80214
ግልሙትና	-9.80214
▁የሞዓብ	-9.80214
▁የግብጽ	-9.80214
▁ውኆች	-9.80214
▁የፈርዖን	-9.80214
▁በዘይት	-9.80214
▁ተመልሰው	-9.80214
▁መኖሪያ	-9.80215
▁ዓይነት	-9.80215
▁ለሰልፍ	-9.80216
▁በዓለም	-9.80218
▁በእርሻ	-9.80222
▁ስንፍና	-9.80223
▁ምናሴ	-9.80231
▁ሸሸ	-9.80257
▁ጫማ	-9.80271
▁አምስቱ	-9.80301
▁አበባ	-9.80302
ማረኩ	-9.80642
▁ይበላል	-9.80786
▁የሠራው	-9.8081
▁አጋንንት	-9.80938
▁እንዳላ	-9.81474
ይዙ	-9.81682
▁ኢዮ	-9.8186
ቼአለሁ	-9.821
ሠሩት	-9.82435
አርጤክስስ	-9.82436
ዢ	-9.82436
▁ሕፃኑ	-9.82436
▁እያንዳንዳቸው	-9.82436
▁የአይሁድ	-9.82436
▁የዮሴፍ	-9.82436
▁እግሮቹ	-9.82436
▁ሰይጣን	-9.82436
▁ሆኜ	-9.82437
እስማኤል	-9.8244
▁የእርሱ	-9.8244
▁ልሔም	-9.82446
▁ይባላል	-9.82446
ሚሆነው	-9.82453
▁ይሻላል	-9.82478
▁አደረግሁ	-9.82479
ጥቂት	-9.82532
▁ይጠፋሉ	-9.82546
▁ታውቃላችሁ	-9.82566
ገድል	-9.82645
▁ወንድምህ	-9.82712
ራለህ	-9.82736
▁እግዚአብሔርንም	-9.82777
ኢዮአስ	-9.82799
ወጋ	-9.82981
ፈጽም	-9.83055
▁ይሄዱ	-9.83096
▁ግራ	-9.8313
▁ሰረገላ	-9.83157
▁ይጠብቁ	-9.83185
ወረደ	-9.83495
ዚች	-9.83945
▁ክፈ	-9.84176
▁የሚናገር	-9.84563
ጊያ	-9.84639
▁በቀኝ	-9.84649
ሤ	-9.84708
ዓመፀኞች	-9.84709
▁ማዕዘን	-9.84709
▁ተጠንቀቁ	-9.84709
▁ታላላቆች	-9.84709
▁እናውቃለን	-9.84709
▁ከፍልስጥኤማውያን	-9.84709
▁የግብፅ	-9.84709
▁በሞዓብ	-9.84709
▁እናገራለሁ	-9.84709
▁በተቀደሰ	-9.84709
▁መንገሥ	-9.84709
▁በሁለቱ	-9.84709
▁መጠጊያ	-9.84709
▁ፍላጻ	-9.84709
ይሳኮር	-9.8471
▁ቁርበት	-9.8471
▁ሚስቶች	-9.8471
▁ተናገራቸው።	-9.84714
▁በስውር	-9.84714
▁መልሰው	-9.84719
ሰነፎች	-9.84723
▁አምላካቸው	-9.84735
▁ሐሰት	-9.84742
▁የውኃ	-9.84751
▁ከሩቅ	-9.84751
ቈረጠ	-9.84848
▁ግብር	-9.84892
▁ደጆች	-9.84974
▁አውሬ	-9.85019
▁ማለዳ	-9.85039
▁በሚኖሩ	-9.85051
ጠበቁ	-9.85178
▁ከዋክብት	-9.85203
▁እንዳለው	-9.8529
ማየት	-9.85495
▁ሰፈሩ	-9.8555
እህሉ	-9.85557
▁ወግ	-9.85781
▁ላባ	-9.86153
ባቸዋለሁ	-9.86159
ታወቅ	-9.8627
መስማት	-9.86274
▁ምሕረትህ	-9.86378
ቶችዋ	-9.86799
▁ከከተማ	-9.87018
ኜ	-9.87033
ጴ	-9.87034
▁መናፍስት	-9.87034
▁ተግሣጽ	-9.87034
▁የከተማይቱ	-9.87034
▁አትክልት	-9.87035
▁የብንያም	-9.87035
ጌልገላ	-9.87035
▁እሆናለሁ	-9.87035
▁የአባቶቻቸው	-9.87035
▁ተመልከቱ	-9.87035
▁አቅርቡ	-9.87035
▁በዓይን	-9.87036
▁ከብንያም	-9.87036
▁ሲኦል	-9.87037
▁ጽኑዓን	-9.87041
ሠዉ	-9.87042
▁የምናሴ	-9.87043
▁አድነኝ	-9.87048
▁ቀርበው	-9.87061
ግሪክ	-9.87066
ላካቸው	-9.87079
▁አቆመ	-9.87082
▁በሰልፍ	-9.87096
▁የተባለው	-9.87109
ሸክላ	-9.87114
▁አዘነ	-9.87215
▁ሆና	-9.87253
ጊዜው	-9.87349
▁ለማድረግ	-9.87666
ላቸዋለሁ	-9.88139
ሩአቸው	-9.88139
▁የኃጢአት	-9.88516
▁በጎቹ	-9.88737
ባሪያህ	-9.89214
▁በመቅደሱ	-9.89415
▁በኤፍሬም	-9.89415
▁የፍልስጥኤማውያን	-9.89415
▁ቀለበቶች	-9.89415
▁ፈጽመው	-9.89415
▁ሙሽራ	-9.89416
▁ሐሰተኛ	-9.89416
▁ሚዛኑ	-9.89416
▁ክርክር	-9.89417
▁እሰጥሃለሁ	-9.89419
▁ሰገዱ	-9.89421
▁በነጋው	-9.89425
ተንኰል	-9.89429
▁ወድቆ	-9.89431
▁በሁለት	-9.89431
▁ባረከ	-9.89436
▁ብንያም	-9.89437
▁ጓዳ	-9.89439
▁ወተት	-9.89442
▁በደመና	-9.89444
ቆሙት	-9.89469
▁ስንዴ	-9.89501
▁አንቀላፋ	-9.89624
▁ይወጣሉ	-9.89634
▁የቃል	-9.89746
መስሉ	-9.89774
▁ነጭ	-9.89999
▁ልመና	-9.90067
▁ቀንዶች	-9.90129
▁ባልዋ	-9.90216
▁ሊሆን	-9.90564
ወደው	-9.90731
▁በልብህ	-9.90978
▁ምኞት	-9.91854
▁ሮብዓም	-9.91854
▁ትዕቢት	-9.91854
▁አምስተኛው	-9.91854
▁እኩሌታ	-9.91854
▁ልጆቼ	-9.91854
▁መገናኛው	-9.91854
▁የተለወሰ	-9.91854
▁ይወድቃል	-9.91854
▁የሌለበት	-9.91855
▁ጻፎች	-9.91856
▁በጀመረ	-9.91856
▁የተቈጠሩት	-9.91857
▁ጠማማ	-9.91861
▁ባላቅ	-9.91867
▁ተነሥተህ	-9.91878
▁ተመለሱ።	-9.91881
▁በሕግ	-9.91895
▁ለአሮን	-9.91922
▁ይነሣል	-9.91937
ዋለች	-9.91957
ገልግ	-9.91958
ባረክ	-9.9196
▁ነገሮች	-9.91968
▁አየሁ፤	-9.91987
▁ፈጥኖ	-9.92002
▁ሠርቶ	-9.9207
▁አብረው	-9.92094
ባችኋል	-9.92104
ተከተሉ	-9.9237
ነፉ	-9.92422
▁ተቈጣ	-9.92432
▁ያደረገው	-9.92483
▁ነበርሁ	-9.92829
ቈጠር	-9.92882
▁የልብ	-9.92963
▁የመቶ	-9.93121
ሰናክ	-9.93201
ዳሉ	-9.9329
▁ጣለ	-9.93402
▁የኃጢአ	-9.93723
ሰጣት	-9.94214
ወገኑ	-9.94238
ኚ	-9.94354
አሜስያስ	-9.94354
▁በየአባቶቻቸው	-9.94354
▁አክሊል	-9.94354
▁ከፀሐይ	-9.94354
▁ዓይኖቹ	-9.94354
▁ዘካርያስ	-9.94354
▁ድንኳኑ	-9.94354
▁አታድርጉ	-9.94354
▁መዝገብ	-9.94354
▁ኀዘን	-9.94354
▁ይሄዳሉ	-9.94355
▁ወንድሞቻቸው	-9.94355
▁ደርሶአል	-9.94355
መልአኩ	-9.94355
▁አቤሜሌክ	-9.94355
▁ሰባተኛው	-9.94357
▁አስቀድመ	-9.94361
▁በማለዳ	-9.94366
▁እፍረት	-9.94371
▁ቅድስ	-9.94371
▁አሦር	-9.94375
ተሰወረ	-9.94378
▁እረኛ	-9.94382
▁በመካከላችሁ	-9.94427
▁ጻፈ	-9.94448
▁በላዬ	-9.94515
ጠየቀ	-9.94546
ገደል	-9.94601
▁ለባሪያህ	-9.94826
▁እንዳይሆን	-9.95071
▁እልፍ	-9.95151
▁የሆኑት	-9.95201
ተቀበለ	-9.95406
መጣሁ	-9.9544
▁ራስህን	-9.9555
ሁላችሁ	-9.95577
ቀበለው	-9.96198
ረዋል	-9.96375
▁በእጅ	-9.9649
▁መሰምርያዋ	-9.96845
መወርወሪያ	-9.96918
▁መጋረጆች	-9.96918
▁ማኅበሩ	-9.96918
▁ተሰብስበው	-9.96918
▁ትእዛዙን	-9.96918
▁ኖኅ	-9.96918
▁አባቶቻችን	-9.96918
▁ኢሳይያስ	-9.96918
▁እኅት	-9.96918
▁ድንጋጤ	-9.96918
▁ገለዓድ	-9.96918
ዓዛርያስ	-9.96918
▁ሁላችን	-9.96918
▁መታሰቢያ	-9.96919
▁አልቻሉም	-9.96919
▁በሦስት	-9.96919
▁ይመለሳል	-9.96919
ታላቂቱ	-9.96919
▁የተመረጡ	-9.96919
▁ያድርግ	-9.96922
▁በናያስ	-9.96924
▁አባቶቻቸው	-9.96925
ነጋገር	-9.96926
▁በደረሰ	-9.96929
▁እንደሆነ	-9.9693
▁ሶርያውያን	-9.96938
▁ደቡብ	-9.96939
▁ክንፍ	-9.96956
▁እጥፍ	-9.96961
▁በረዶ	-9.96982
▁ነገዶች	-9.96983
ገልጥ	-9.97014
▁ሆንህ	-9.97058
ሚቃጠለው	-9.97118
▁ነገራቸው	-9.97149
ተወደደ	-9.97243
ውረድ	-9.97323
አምላኬ	-9.97339
▁የሰሎሞን	-9.97477
▁እንዲሆኑ	-9.97542
▁በልቤ	-9.97544
▁ያሳድ	-9.97872
▁በቃል	-9.97932
ገባቸው	-9.97981
▁በራብ	-9.98025
ይደለ	-9.98093
ዳላችሁ	-9.98417
▁በመጀመሪያ	-9.9851
▁ይሰጡ	-9.99047
▁ይበላሉ	-9.99068
ችኋቸው	-9.99381
ኣ	-9.99433
ሞሉ	-9.9948
ላካችሁ	-9.9953
▁ምሥጢር	-9.9955
▁ሰበሰበ	-9.9955
▁በምዕራብ	-9.9955
▁በተራራማው	-9.9955
▁በኵራት	-9.9955
▁በዙፋኑ	-9.9955
▁አይደለችም	-9.9955
▁ያደርጋሉ	-9.9955
▁እመልሳለሁ	-9.9955
▁ከነበሩት	-9.99551
ወንድሞቻችሁ	-9.99552
▁የሶርያ	-9.99553
▁ጀመረ	-9.99554
▁ተቀበረ	-9.99556
▁በፍቅር	-9.99556
▁በሰማያት	-9.99556
▁ተመለከተ	-9.99556
▁አለቀሰ	-9.99559
▁ገመድ	-9.99563
▁አዘዛቸው።	-9.99564
▁ቀበሩት	-9.99566
▁ቃሎች	-9.99566
▁ጻፍ	-9.99594
▁ገዥ	-9.99602
▁ወዳጆች	-9.99603
▁ጫፍ	-9.99618
▁አውቆ	-9.99622
▁የእህሉን	-9.99626
▁በስሜ	-9.99643
ከለክ	-9.99654
▁አጥብ	-9.99659
▁አይሁን	-9.99686
▁ሄዱ፤	-9.99708
▁ሰማርያ	-9.99736
▁ርጉ	-9.99741
▁ብሩን	-9.99907
ፈለገ	-9.9995
ቆሙ።	-10.0007
▁እባብ	-10.0014
ሕይወቱ	-10.0015
▁ይገደል	-10.0023
▁ያለችው	-10.0024
▁ይበላችሁ	-10.0027
▁ሲናገር	-10.0032
▁ቀንበር	-10.0074
ወርዱ	-10.0091
▁አሰበ	-10.0104
▁ቃላ	-10.0108
ብኛል	-10.0116
ድርጋችሁ	-10.0138
▁የተቀደሰውን	-10.014
ጂ	-10.0216
▁መጥቶአል	-10.0217
ዥ	-10.022
ዣ	-10.0225
▁በሕዝቤ	-10.0225
▁በደኅና	-10.0225
▁ከኢየሱስ	-10.0225
▁ኮረብታ	-10.0225
ቅዱሳኑ	-10.0225
ኢዮአቄም	-10.0225
▁ሕፃን	-10.0225
▁የሮቤል	-10.0225
▁ራሔል	-10.0225
▁መጻተኛ	-10.0225
▁ያልሆነ	-10.0225
▁የአባቶች	-10.0226
▁ሞልቶ	-10.0226
▁የሚበልጥ	-10.0226
▁በፊታችሁ	-10.0226
▁ገለባ	-10.0227
ካሌብ	-10.023
▁አታውቁም	-10.0231
ከማቹ	-10.0232
▁ሰሜን	-10.0232
ጠይቁ	-10.0238
▁ዓምድ	-10.0243
▁ወረዱ	-10.0246
▁የሚኖሩትን	-10.0253
▁ላኩ	-10.0256
▁ስእለት	-10.028
▁ሐዋርያ	-10.0283
ሌለባቸው	-10.0295
▁ሰጥቼ	-10.0306
ሆንሁ	-10.0377
መልክ	-10.0437
ፈልገው	-10.0466
▁ምስክሮች	-10.0503
▁በአምላካችን	-10.0503
▁ከዘላለም	-10.0503
▁ኪሩቤል	-10.0503
▁ወንዞች	-10.0503
▁ሶምሶን	-10.0503
▁በአምላክህ	-10.0503
▁የንጉሥ	-10.0503
▁የጽዮን	-10.0503
▁የጽድቅ	-10.0503
▁ዓመፅ	-10.0503
ተላለፍ	-10.0503
▁ፈረሰኞች	-10.0503
▁ያቀርቡ	-10.0503
▁ምስሎች	-10.0503
ጨነቁ	-10.0504
▁ተቈጥ	-10.0504
▁ከሁለት	-10.0504
ከተሞቻቸው	-10.0504
▁እወቁ	-10.0505
▁የአባትህ	-10.0506
▁ለነበሩ	-10.0506
▁አይገኝም	-10.0508
▁የተስፋ	-10.0508
▁ለምድር	-10.0511
▁ወዳጅ	-10.0512
▁ርስቱ	-10.0513
▁ገብተው	-10.0515
▁ይለኛል	-10.0526
▁ለሰሎሞን	-10.053
▁ዱር	-10.0535
▁ባለችው	-10.0535
▁ሰገደ	-10.0538
▁ተከተለ	-10.0561
ቈጠረ	-10.0575
ነዋል	-10.0576
ሚጠብቁ	-10.0678
ጠላቶችህ	-10.0714
ማመን	-10.0735
▁ምዕራብ	-10.0789
▁ታቀርባላችሁ	-10.0789
▁ከኤፍሬም	-10.0789
▁ዓይኖቼ	-10.0789
▁ነበልባል	-10.0789
▁አደርገዋለሁ	-10.0789
▁መንገዳቸው	-10.0789
▁በንጉሥ	-10.0789
▁ይወስዳል	-10.0789
▁ሀብት	-10.0789
▁የተቀመጠ	-10.0789
▁ቁመቱ	-10.0789
▁ኃፍረ	-10.0789
▁በተራራው	-10.0789
▁የክብር	-10.079
▁በክብር	-10.079
▁ቂጣ	-10.0791
▁አካዝ	-10.0791
▁ምግብ	-10.0791
▁አጥንት	-10.0793
▁ድካም	-10.0795
▁ንገሩ	-10.0795
▁ትላለህ	-10.0797
▁ጢስ	-10.0802
▁ክምር	-10.0806
▁ዋሻ	-10.0807
▁ትሁን	-10.0811
▁አርነት	-10.0813
▁ያጸና	-10.0817
▁ካሉት	-10.0826
ሰድድ	-10.0841
▁ማዳን	-10.0843
▁ጸና	-10.0855
▁ታደርግ	-10.0858
ዮሐንስ	-10.0861
ነገሥታት	-10.0862
ሚባለው	-10.0879
ሆናችሁ	-10.0882
ሰብክ	-10.0884
ከማች	-10.0886
መስለው	-10.1006
▁ሄሮድስ	-10.1083
▁ለፈርዖን	-10.1083
▁ብፁዓን	-10.1083
▁አንዳንዶቹ	-10.1083
▁ኬብሮን	-10.1083
▁የኤፍሬም	-10.1083
▁ለእህል	-10.1083
▁ራእዩ	-10.1083
▁ወስደህ	-10.1083
▁ለሌሎች	-10.1083
▁በተራሮች	-10.1083
▁ድሆች	-10.1083
▁በነገሠ	-10.1083
▁ከሀያ	-10.1083
▁ከሰሜን	-10.1084
▁ከከተማይቱ	-10.1085
▁ትበላላችሁ	-10.1085
እንቅልፍ	-10.1085
▁በአልጋ	-10.1086
በተኑ	-10.1089
▁ሌዋውያኑም	-10.1092
ስተሰር	-10.1095
▁ነገሩት።	-10.11
▁ከአንድ	-10.1104
▁ቀስት	-10.1104
አብያተ	-10.1104
▁ጠራው።	-10.1105
▁ወንድሜ	-10.1116
▁ጥርስ	-10.1116
▁ብትሆን	-10.1144
▁በለስ	-10.116
ኛይቱ	-10.1177
▁ዮርዳኖስ	-10.1205
ዘንብ	-10.1214
መከተል	-10.1252
ሥጋዬ	-10.1297
▁እንደሌለ	-10.1328
ኢይዝራኤል	-10.1386
ኻ	-10.1386
▁መልእክተኛ	-10.1386
▁መጐናጸፊያ	-10.1386
ማገልገል	-10.1386
▁ቍርባናቸው	-10.1386
▁በነቢዩ	-10.1386
▁አንዳንዶች	-10.1386
▁የተባረከ	-10.1386
▁ግብዣ	-10.1386
▁ይኖራሉ	-10.1386
ቀጠቀጠ	-10.1386
ያመሰግኑ	-10.1386
▁በስፍራው	-10.1386
▁መሣሪያ	-10.1386
▁እንሂድ	-10.1386
▁ቍስል	-10.1386
▁ፊተኛው	-10.1386
▁ውሰዱ	-10.1386
ያመልኩ	-10.1386
▁ዕንቍ	-10.1386
▁ከአሥር	-10.1386
ሽንገላ	-10.1387
▁በጥበብ	-10.1387
▁በሀያ	-10.1387
ጭንቀት	-10.1387
▁የሌለው	-10.1387
▁ምስጉ	-10.1387
▁ለሰማይ	-10.1387
▁ዕውር	-10.1388
▁ልብሳቸውን	-10.1388
▁ተከተሉት	-10.1394
▁መለሰለት።	-10.1395
▁መሆኑን	-10.1395
▁አካል	-10.1397
▁ናታን	-10.1399
▁የአንተ	-10.1402
ጠላቶቹ	-10.1403
▁በነበሩ	-10.1405
▁በጌታችን	-10.1406
▁የማምለ	-10.1408
▁አውጣ	-10.1411
ሕይወቴ	-10.1419
▁ያስነሣ	-10.1424
ገድለው	-10.144
▁ቀርቦአል	-10.146
ልከው	-10.1463
ወስዱ	-10.1465
▁ወዳሉ	-10.1598
ያለሽ	-10.1599
▁የሥጋ	-10.1625
ባታል	-10.1678
ደዋል	-10.1678
መንደሮቻቸው	-10.1698
ጎዶልያስ	-10.1698
ጬ	-10.1698
▁ርዝመት	-10.1698
▁ሰልፈኞች	-10.1698
▁በገለዓድ	-10.1698
▁ባለጠግነት	-10.1698
▁ክርስቲያናት	-10.1698
▁ፈጽመህ	-10.1698
▁ፊልጶስ	-10.1698
▁ተለይቶ	-10.1698
▁አዕማድ	-10.1698
▁ድምፃቸው	-10.1698
▁አዘጋጁ	-10.1698
▁መዝጊያ	-10.1698
መቅረዙ	-10.1699
▁ዓመታት	-10.1699
▁አህዮች	-10.1699
▁ድንበሩ	-10.17
▁ምድራቸው	-10.17
▁ታናሹ	-10.17
▁በቅድስ	-10.17
ኤፉዱ	-10.17
ዘመናት	-10.1701
▁ከጥንት	-10.1701
▁ርስታቸው	-10.1702
ሰበስብ	-10.1702
▁ሣራ	-10.1706
▁ለሁሉ	-10.1706
▁ጸጥ	-10.1707
▁ሆድ	-10.171
ያስተውሉ	-10.1711
▁በሩቅ	-10.1712
▁ሮማ	-10.1717
ሻገር	-10.1724
▁ለሌላ	-10.1739
ፈለግ	-10.1742
▁መረጠ	-10.1748
▁አጽና	-10.1793
ዮናታን	-10.1799
ብላቴናይቱ	-10.1939
ኃጢአተኛ	-10.2006
▁መዛግብት	-10.2021
▁ማኅፀን	-10.2021
▁በማደሪያው	-10.2021
▁በሸለቆው	-10.2021
▁በየወገኖቻቸው	-10.2021
▁ትእዛዜን	-10.2021
▁ቸነፈር	-10.2021
▁ችግረኛ	-10.2021
▁ኃጢአቱ	-10.2021
▁ንገራቸው።	-10.2021
▁ኤዶምያስ	-10.2021
▁እናደርጋለን	-10.2021
▁ደኅና	-10.2021
▁ባደረገ	-10.2021
ነጋገሩ	-10.2021
▁በእጃችሁ	-10.2021
መላለሱ	-10.2021
▁የእናንተ	-10.2021
ስርየት	-10.2021
▁በግዞት	-10.2021
▁ጨረቃ	-10.2021
▁አድርጌአለሁ	-10.2021
▁ርግብ	-10.2021
▁ዓይኑ	-10.2021
▁ጸለየ	-10.2021
▁አለቀሱ	-10.2021
▁ይቀበላል	-10.2021
▁አንበጣ	-10.2022
▁አዝዞ	-10.2022
▁ይቀመጣል	-10.2022
▁አላወቁ	-10.2022
መንፈሴ	-10.2022
▁ያልፋል	-10.2022
መንጎች	-10.2023
▁ግርማ	-10.2023
▁በዕጣ	-10.2024
▁ታያለህ	-10.2024
▁ለአንዱ	-10.2024
▁ስጠኝ	-10.2025
ጠግብ	-10.2027
▁ሳንቃ	-10.2027
▁በአንዱ	-10.203
▁ዘምሩ	-10.203
▁ነገረው።	-10.203
▁ቸል	-10.2032
ያለቅሱ	-10.2033
▁ዝግባ	-10.2036
▁ዞረ	-10.2039
▁ለአንድ	-10.2041
▁በልባችሁ	-10.2041
▁በለው።	-10.2061
▁ያያል	-10.2068
ሰግድ	-10.2071
እግሬ	-10.2089
▁አድርጋ	-10.2127
አቤሴሎም	-10.2132
ጻድቅ	-10.2134
▁ፊታቸው	-10.2137
▁ይገባዋል	-10.2227
ካለችው	-10.223
ቀባው	-10.2237
▁የዚያ	-10.2299
ደረቀ	-10.2319
ሌዋውያኑ	-10.2344
▁ለሌዋውያን	-10.2354
▁ምናምንቴ	-10.2354
▁በኢያሪኮ	-10.2354
▁ከለዳውያን	-10.2354
▁ከመጀመሪያ	-10.2354
▁ከምሥራቅ	-10.2354
▁የአምላካችን	-10.2354
▁የገለዓድ	-10.2354
▁ድምፁን	-10.2354
ኬጢያዊ	-10.2354
▁ሥርዓቴን	-10.2354
▁ትእዛዛት	-10.2354
▁የፊተኛው	-10.2354
▁አኖራለሁ	-10.2354
▁አፈሰሰ	-10.2354
▁ገሊላ	-10.2354
▁ባሕሩ	-10.2355
▁ቅንዓት	-10.2355
▁እጆቹ	-10.2355
▁ነደደ	-10.2356
▁አገሮች	-10.2356
▁አባታችሁ	-10.2356
▁የሙሴ	-10.2356
▁አደረግህ	-10.2356
▁ምድሩን	-10.2357
▁የለበሰ	-10.2358
▁አሉአቸው።	-10.2361
▁አልሰሙም	-10.2361
▁አያውቅም	-10.2363
▁ላሞች	-10.2365
▁ሠሪ	-10.2367
▁ትላላችሁ	-10.2367
ረክስ	-10.2367
▁የሰላም	-10.2367
▁ይኸውም	-10.2374
▁የቤት	-10.2375
▁ይውጣ	-10.239
ዘወትር	-10.2476
ኤርምያስ	-10.2478
እውቀት	-10.2479
ተገለጠ	-10.2497
ሳፋን	-10.2563
ወንድሞች	-10.265
▁የጦር	-10.2682
▁መስገጃ	-10.2686
ጲ	-10.2699
ጺ	-10.2699
▁የኮረብታ	-10.2699
ዮፍታሔ	-10.2699
▁መሎጊያዎቹ	-10.2699
▁ርኵስ	-10.2699
▁ቅርንጫፎች	-10.2699
▁በአይሁድ	-10.2699
▁ተናግሬአለሁ	-10.2699
▁ከባቢሎን	-10.2699
▁በሳኦል	-10.2699
▁በአራተኛው	-10.2699
▁ኃይሉ	-10.2699
▁ጠቢባን	-10.2699
▁ቡቃያ	-10.2699
▁በብንያም	-10.2699
▁አይደላችሁም	-10.2699
አብያታር	-10.2699
▁ያድርጉ	-10.2699
▁ታደርጉ	-10.27
▁ሴኬም	-10.27
▁የራሱን	-10.27
▁ዘመኑ	-10.27
▁ሸማያ	-10.27
▁ለድሀ	-10.27
▁የመጠጥ	-10.27
▁መብራት	-10.27
▁አሥሩ	-10.27
▁እንደዚሁ	-10.27
▁በአገሩ	-10.27
▁አዋጅ	-10.2701
▁በእግር	-10.2701
▁ተመለሱ፤	-10.2701
▁ከሕግ	-10.2703
▁በወንዝ	-10.2703
▁አሸዋ	-10.2705
▁ሥሩ	-10.2705
▁ፈራጆች	-10.2705
▁ለነፍ	-10.2706
▁ቍራ	-10.2706
▁ወርቁን	-10.271
ባርነት	-10.2711
ሰበሰባ	-10.2713
▁ቍር	-10.272
▁አመነ	-10.2731
ነድድ	-10.2736
▁ወዮላቸው	-10.276
ወንድምህ	-10.2807
ጸሎት	-10.2835
መከሩ	-10.284
በረቱ	-10.2876
▁አካሄ	-10.2958
ዲያብሎስ	-10.3056
ጼ	-10.3056
▁ሊባኖስ	-10.3056
▁በኃጢአት	-10.3056
▁ትንሣኤ	-10.3056
▁እስትንፋስ	-10.3056
▁ኮረብቶች	-10.3056
▁መርከቦች	-10.3056
▁መቀመጫ	-10.3056
▁በድንኳኑ	-10.3056
▁ተጠንቀቅ	-10.3056
ኢያቢስ	-10.3056
▁ለካህኑ	-10.3056
▁ዮዳሄ	-10.3056
▁በላያችን	-10.3056
▁ብዝበዛ	-10.3056
▁በነቢያት	-10.3056
▁መያዣ	-10.3056
▁ሐናንያ	-10.3056
▁ዕውሮች	-10.3056
▁ያቀርባል	-10.3056
▁ድንገት	-10.3056
▁አላውቅም	-10.3057
▁ተከትለው	-10.3057
▁መርከብ	-10.3057
▁ራሳችን	-10.3057
▁በአባቴ	-10.3057
▁ከምናሴ	-10.3057
▁ይቀመጣሉ	-10.3057
▁ከፊቴ	-10.3057
▁ተኝቶ	-10.3058
መሰከረ	-10.3058
▁እሾህ	-10.3059
▁የተነገረ	-10.3059
▁ብርታት	-10.3059
▁ተመለሱ፥	-10.3061
▁በበጎ	-10.3062
▁ሰማንያ	-10.3062
▁የልጅ	-10.3062
▁አገሩ	-10.3063
▁ይሰጠዋል	-10.3065
ናገራቸው	-10.3065
ክብሬ	-10.3066
▁ወለደች።	-10.3068
▁ጮኹ።	-10.3069
▁የሚያስፈራ	-10.3071
ዋረድ	-10.3075
ሰገነት	-10.3078
ሁለተኛው	-10.3101
▁ወስዳ	-10.3109
ተልባ	-10.3117
ሰደዱ	-10.312
▁እርሾ	-10.3128
ጦርነት	-10.3149
▁ሦስተኛ	-10.3174
▁ወጥቶአል	-10.32
▁አድርገሃል	-10.3241
ወገኔ	-10.3258
ሴቲቱ	-10.3279
መምጣት	-10.3317
▁ይሠዋ	-10.332
በቀለ	-10.3344
ማለች	-10.3344
መቄዶንያ	-10.3427
ፍልስጥኤም	-10.3427
▁በፍልስጥኤማውያን	-10.3427
▁አመሰግንሃለሁ	-10.3427
▁እንግዲያስ	-10.3427
▁ከመስፈሪያው	-10.3427
▁ከኃጢአት	-10.3427
▁የድንጋይ	-10.3427
▁ጣዖታት	-10.3427
መሥዋዕቱ	-10.3427
መጻሕፍት	-10.3427
▁እርግማን	-10.3427
▁ይመለሳሉ	-10.3427
▁የዔሳው	-10.3427
▁ፈጽሜ	-10.3427
▁ድንግል	-10.3427
ጫፎቹ	-10.3427
ኤርትራ	-10.3427
▁የወይኑ	-10.3427
▁የእውነት	-10.3427
▁ከአባቴ	-10.3427
▁ሰማያዊ	-10.3427
▁ለአባቱ	-10.3428
▁ረጅም	-10.3428
▁ልማድ	-10.3428
▁በግልጥ	-10.3429
▁አቢሳ	-10.3429
▁በየዓመቱ	-10.3429
▁በጽኑ	-10.343
▁አዴር	-10.3431
▁አወቅሁ	-10.3432
▁በሙሉ	-10.3432
▁ይገድሉ	-10.3433
▁ምላስ	-10.3434
▁የሚያህል	-10.3435
▁ቅጣት	-10.3438
ተቀበላችሁ	-10.3442
▁ከእጄ	-10.3443
ገለጡ	-10.3445
ዋረደ	-10.3445
▁ወዳለበ	-10.347
▁ከሌላ	-10.3471
▁ያያሉ	-10.3472
ሰረገላው	-10.3687
ዮአስ	-10.3759
ከማቸ	-10.3787
▁አመጣለሁ	-10.3791
ኆ	-10.3811
▁ለሳኦል	-10.3811
▁ለአምላክህ	-10.3811
▁መሳፍንት	-10.3811
▁ቍጥራቸው	-10.3811
▁በባልንጀራ	-10.3811
▁ቤርሳቤህ	-10.3811
▁ቦዔዝ	-10.3811
▁ነጋዴዎች	-10.3811
▁አገልጋይ	-10.3811
▁ከሌዋውያን	-10.3811
▁ከወንድሞቹ	-10.3811
▁የመቅደሱ	-10.3811
▁በኮረብታ	-10.3811
▁ከሁለቱ	-10.3811
▁ከፈርዖን	-10.3811
▁የዘበኞቹ	-10.3811
▁ለሕዝብ	-10.3811
▁የነቢያት	-10.3811
▁ጥቂቶች	-10.3811
▁መክደኛ	-10.3811
▁የባሕር	-10.3811
▁በሕያው	-10.3811
▁አሞራውያን	-10.3811
▁አይደለህም	-10.3811
▁ይሞታሉ	-10.3811
▁አውድማ	-10.3811
▁ሕሊና	-10.3811
▁እንኪያስ	-10.3812
▁ሄዳችሁ	-10.3812
▁ፈቃዱ	-10.3812
▁ቅጥሩ	-10.3812
▁ባለጠጋ	-10.3812
ሌሎቹ	-10.3812
ቃወሙ	-10.3812
▁ሃሌ	-10.3813
አንበሶች	-10.3813
▁ማልዶ	-10.3813
▁በተስፋ	-10.3814
▁ወንዙ	-10.3814
▁መልኩ	-10.3814
▁የዕጣ	-10.3814
▁አድምጡ	-10.3815
ማንሣት	-10.3817
▁ወልደ	-10.3817
ቀደመው	-10.3818
▁መርገም	-10.3818
ቀረጹ	-10.3818
▁ከሞተ	-10.3821
የስማቸው	-10.3826
ዓለሙ	-10.3837
▁መንሻ	-10.3837
▁የዓለም	-10.3849
ልባችን	-10.386
ተረፈው	-10.3866
▁መንገዱ	-10.4112
▁የወንድ	-10.4187
▁ሌሊቱን	-10.4211
▁ሚክያስ	-10.4211
▁ማኅተ	-10.4211
▁በኬብሮን	-10.4211
▁አላገኘሁ	-10.4211
▁አገልጋዮች	-10.4211
▁እሰጣቸዋለሁ	-10.4211
▁ኦርዮ	-10.4211
▁ከያዕቆብ	-10.4211
ሚያገለግሉ	-10.4211
▁በዕድሜ	-10.4211
▁ከሳኦል	-10.4211
▁የዘንባባ	-10.4211
▁ለንጉሥ	-10.4211
▁በዘመኑ	-10.4211
▁አቁማዳ	-10.4211
መጥመቂያ	-10.4211
አስጨናቂ	-10.4211
▁ጻድቁ	-10.4211
▁ሕልሙ	-10.4211
▁በመንገዱ	-10.4211
▁አውጥቶ	-10.4211
▁የሕዝብ	-10.4211
ኢዮአታም	-10.4211
▁መንፈሱ	-10.4211
▁ለአባቶቻቸው	-10.4211
ፊንሐስ	-10.4211
▁በውስጡ	-10.4211
▁ብድራት	-10.4211
ዕብራውያን	-10.4211
▁አካዝያስ	-10.4212
ባሪያዎቼ	-10.4212
▁አትሥሩ	-10.4212
ራፋይም	-10.4212
▁ጕልላ	-10.4212
ሰንሰለት	-10.4212
▁ለሙሴ	-10.4212
▁አሳደዱ	-10.4212
▁በቅንነት	-10.4212
ሰሜኢ	-10.4212
▁የዝግባ	-10.4213
▁ለብሰው	-10.4213
▁አዋቂ	-10.4213
▁ድርሻ	-10.4213
▁የአባቴ	-10.4213
▁ፍርዱ	-10.4214
▁አምኖን	-10.4214
▁አልሁት።	-10.4215
▁ተደፋ	-10.4216
▁ጮኽሁ	-10.4218
ጠላቶቻችሁ	-10.4219
▁ቤዛ	-10.4219
▁ወይራ	-10.4219
ካፈሉ	-10.4223
▁ዘንግ	-10.4225
▁መዓት	-10.4227
ፈወስ	-10.4232
ልካቸው	-10.4251
ያልፉ	-10.4272
ታለል	-10.4374
ናቡከደነፆር	-10.4405
መከራዬ	-10.4444
ሸሸግ	-10.4471
▁ከሥጋ	-10.4477
አርባ	-10.4487
▁ሆነዋል	-10.4495
ልመናዬ	-10.4532
አውሬው	-10.4586
ማስተስረያ	-10.4628
ትዕቢተኞች	-10.4628
ንቀጠቀጡ	-10.4628
ዤ	-10.4628
▁ለአምላካችን	-10.4628
▁ቈነጃጅት	-10.4628
▁በአደባባይ	-10.4628
▁በደማስቆ	-10.4628
▁ታደርጋላችሁ	-10.4628
▁ኃጢአታችሁ	-10.4628
▁ንጹሐን	-10.4628
▁እሰጣችኋለሁ	-10.4628
▁ወይፈኖች	-10.4628
▁የይስሐቅ	-10.4628
▁የጻድቃን	-10.4628
▁ፀነሰች	-10.4628
▁በባሕሩ	-10.4628
▁አማካሪ	-10.4628
▁ድንጋዩ	-10.4628
▁ገንዘቡ	-10.4628
▁ምጽጳ	-10.4628
▁በሌለበት	-10.4628
▁ተባባሉ።	-10.4628
▁ከሕዝብ	-10.4628
▁ያቃጥለዋል	-10.4628
▁ጸሎቴ	-10.4628
▁በግምባሩ	-10.4628
▁የስምዖን	-10.4628
▁አሥረኛ	-10.4628
▁በታንኳ	-10.4628
▁ጽላቶች	-10.4628
▁አዛዥ	-10.4628
▁ከግራር	-10.4628
▁ሌዋዊ	-10.4628
▁ልዑል	-10.4628
▁ጸንቶ	-10.4628
▁ይፈርዳል	-10.4628
▁ይመስላል	-10.4628
ብላቴኖች	-10.4628
▁ሳንቆች	-10.4628
▁ኪራም	-10.4628
▁እያንዳንዳችሁ	-10.4629
▁ፈጥነህ	-10.4629
▁ተለይተ	-10.4629
▁የፈጠረ	-10.4629
▁የምድያም	-10.4629
▁ዓረባ	-10.4629
ጸጸት	-10.463
▁ሰምቻለሁ	-10.463
▁ጀርባ	-10.4631
▁ወለደችለት	-10.4633
ጨረሰ	-10.4635
▁ከቤቱ	-10.4636
▁ሠዋ	-10.4637
▁የሁሉ	-10.4638
▁ሳውል	-10.4638
▁በስምህ	-10.464
▁ወዳለች	-10.4642
ገሞራ	-10.4642
▁ማረኝ	-10.4648
ለኪሶ	-10.465
ተቀባ	-10.4775
ታስቡ	-10.4863
ሚወዱ	-10.4876
ሰቀሉ	-10.4884
▁ከመከራ	-10.4964
አባቶቹ	-10.5037
▁ሶርያ	-10.5061
ላደረገ	-10.5062
ኛለች	-10.5062
ሢ	-10.5063
▁በምድሪቱ	-10.5063
▁በኢዮርብዓም	-10.5063
▁በኤዶምያስ	-10.5063
▁ኃጢአቴ	-10.5063
▁ኢትዮጵያ	-10.5063
▁ጽሕፈት	-10.5063
ኤልዛቤል	-10.5063
▁መታጠቂያ	-10.5063
▁በመጨረሻ	-10.5063
▁ትችላለህ	-10.5063
▁አልወደደም	-10.5063
▁አግኝቶ	-10.5063
ኤፍራጥስ	-10.5063
▁ትኖራለች	-10.5063
▁የልጆቹ	-10.5063
▁ዮሐናን	-10.5063
ኑኃሚን	-10.5063
▁ይጠብቃል	-10.5063
▁የአምላካችሁን	-10.5063
▁እወዳለሁ	-10.5063
▁ትሆናላችሁ	-10.5063
▁አታድርግ	-10.5063
▁አድራጊ	-10.5063
▁ልጃችሁ	-10.5063
▁ይወርዳል	-10.5063
▁በጠላቶቻቸው	-10.5063
▁ተጓዙ	-10.5063
▁አንዳንድ	-10.5063
▁በምሳሌ	-10.5063
▁ዘርግቶ	-10.5063
▁በአገርህ	-10.5063
▁ከዓለም	-10.5063
▁ሰውዮውም	-10.5063
▁በደለኛ	-10.5063
▁ጭልፋ	-10.5063
▁ተሸክመ	-10.5064
▁አሮጌ	-10.5064
▁በአፋቸው	-10.5064
▁የተመረጠ	-10.5064
▁ከወርቅ	-10.5064
▁በወንዙ	-10.5064
▁የቂጣ	-10.5064
ጸድቅ	-10.5065
ዘገይ	-10.5065
▁ለብሶ	-10.5066
ነግሥ	-10.5066
ፋሬስ	-10.5066
▁ከፊቱ	-10.5067
▁መግባት	-10.5068
▁ይጥፋ	-10.507
▁ንስር	-10.5073
▁በወይን	-10.5073
ያከብሩ	-10.5078
ታቀርቡ	-10.5081
ገናኙ	-10.5081
▁አውጥተ	-10.5082
ከማቻ	-10.5082
▁ተቀብለ	-10.5086
▁ፍልስጥኤማዊ	-10.5089
ተዋቸው	-10.51
▁አንሥተ	-10.5109
ጳውሎስ	-10.5296
ወንጌል	-10.5296
ሁለተኛይቱ	-10.5388
▁መጥታ	-10.5404
መላእክቱ	-10.5517
ቾ	-10.5517
▁ለይስሐቅ	-10.5517
▁ለዮሴፍ	-10.5517
▁መኳንንት	-10.5517
▁አመሰግናለሁ	-10.5517
▁ከፈሪሳውያን	-10.5517
▁የሌዋውያን	-10.5517
▁ይጮኻሉ	-10.5517
▁ደመወዝ	-10.5517
▁ደማስቆ	-10.5517
▁የጽሩያ	-10.5517
አማልክቶቻቸው	-10.5517
▁ለብቻው	-10.5517
▁ቡሩክ	-10.5517
ኀጥእ	-10.5517
▁ማሰማርያ	-10.5517
▁ከባሕር	-10.5517
▁በአጠገባቸው	-10.5517
▁የፍየል	-10.5517
▁ለመሥራት	-10.5517
▁ሰይፉን	-10.5517
▁አንዳንዱ	-10.5517
▁እናድርግ	-10.5517
▁ሮቤል	-10.5517
ገለግል	-10.5517
▁ቅዱሱ	-10.5517
▁ዝማሬ	-10.5517
▁በመንግሥቱ	-10.5517
▁ደንቆሮ	-10.5518
▁ርብቃ	-10.5518
▁ዕዝራ	-10.5518
▁በአጠገቡ	-10.5518
▁ከወይን	-10.5518
▁ጠላቶቻቸው	-10.5518
▁በማዕድ	-10.5518
▁ለምናሴ	-10.5518
▁ወይኑ	-10.5518
▁ባሮክ	-10.5518
▁ፈለጉ	-10.5519
ከንፈሮች	-10.5519
▁እሴይ	-10.5519
▁ለልጁ	-10.552
ሰናከሉ	-10.552
▁አላደረገም	-10.552
▁ዳሰሰ	-10.552
▁አንገት	-10.5521
▁መጠጥ	-10.5524
▁አመኑ	-10.5525
እጃችን	-10.553
ናቡቴ	-10.5531
▁የተደረገው	-10.5532
▁የመከራ	-10.5537
▁ያገኛል	-10.5538
እግራችሁ	-10.5544
▁ይድናል	-10.5554
▁ከሥራ	-10.5572
▁በተናገረ	-10.5612
ሰሎሞን	-10.5624
ተያዘ	-10.5679
ዓመፃ	-10.5772
ስድስት	-10.5773
ሰጡአቸው	-10.5786
ሚፈሩት	-10.5867
ቃለች	-10.5881
▁እስኪፈጸ	-10.5993
ሓ	-10.5993
ኅጥኣን	-10.5993
ኢዮቤልዩ	-10.5993
▁ሜሱላም	-10.5993
▁በመጽሐፍ	-10.5993
▁በባሪያዎቹ	-10.5993
▁በኃይሉ	-10.5993
▁በየትውልዳቸው	-10.5993
▁በያዕቆብ	-10.5993
▁አስጸያፊ	-10.5993
▁አዶንያስ	-10.5993
▁እሰድዳለሁ	-10.5993
▁ከአይሁድ	-10.5993
▁ከካህናት	-10.5993
▁የአደባባዩ	-10.5993
▁የኤዶምያስ	-10.5993
▁ይጮኻል	-10.5993
▁ጕልማሶች	-10.5993
▁ጢሞቴዎስ	-10.5993
▁ፈጽማችሁ	-10.5993
ክንፎቻቸው	-10.5993
▁ለድሆች	-10.5993
▁በብልሃት	-10.5993
▁ተማከሩ	-10.5993
▁ታላላቅ	-10.5993
▁ከገሊላ	-10.5993
▁ፍጥረት	-10.5993
▁ተደነቁ	-10.5993
▁ዙፋኑ	-10.5993
▁በፋንታው	-10.5993
አመንዝራ	-10.5993
▁ፈሳሾች	-10.5993
▁አለቻት።	-10.5994
▁የምስጋና	-10.5994
የዕለቱ	-10.5994
▁ፍቺውን	-10.5994
▁የወርቁን	-10.5994
▁መጻተኞች	-10.5994
መልካሚቱ	-10.5994
▁ይወድዳል	-10.5994
ስሕተት	-10.5994
ተገረዙት	-10.5994
▁አትችሉም	-10.5994
▁ለራስህ	-10.5994
▁ከአሦር	-10.5994
▁መጥተህ	-10.5994
▁ለዓለም	-10.5994
▁ጢሮስ	-10.5994
▁ገበሬ	-10.5994
▁አይገባውም	-10.5994
▁ቅጠል	-10.5995
▁በባሳን	-10.5995
▁የታወቀ	-10.5995
ቍርባኑ	-10.5995
▁ወንበር	-10.5995
▁አልቅሱ	-10.5996
▁በሴሎ	-10.5996
ያመልጥ	-10.5996
▁በመሬት	-10.5996
▁ለብቻቸው	-10.5997
ከለከለ	-10.5998
ዘበኞች	-10.5998
ዘረጉ	-10.6005
▁ይነሣሉ	-10.6007
ሲሣራ	-10.6008
ባለቤቱ	-10.6009
ተወለዱለት	-10.6021
ዘዛችሁ	-10.6025
በዓሉ	-10.6104
▁አግኝቼ	-10.6225
ገንዘብ	-10.6272
ከተለኝ	-10.6398
ሃለች	-10.6426
▁አደባባ	-10.6478
መድኃኒታችን	-10.6493
ኃያላኑ	-10.6493
▁በአምስተኛው	-10.6493
▁በአሥረኛው	-10.6493
▁ኃይሌ	-10.6493
▁እንሄዳለን	-10.6493
▁እኵሌቶቹ	-10.6493
▁ከሐምራዊ	-10.6493
▁ኬልቅያስ	-10.6493
▁የከለዳውያን	-10.6493
▁የዮዳሄ	-10.6493
▁ያስተሰርይለታል	-10.6493
▁ልጆቻችን	-10.6493
▁በሠላሳ	-10.6493
▁በቅዱሳን	-10.6493
▁በሴኬም	-10.6493
▁ትሄዳለህ	-10.6493
▁ኪሩብ	-10.6493
▁ያደርገዋል	-10.6493
▁የካህኑ	-10.6494
ወንድማማች	-10.6494
▁በገሊላ	-10.6494
▁ካልሆነ	-10.6494
ጠነከረ	-10.6494
▁በመሰንቆ	-10.6494
▁ትዕማር	-10.6494
▁ምሰሶች	-10.6494
▁ጠየቀው።	-10.6494
▁ተሰለፉ	-10.6494
▁ከእጅህ	-10.6494
▁ተቀብሎ	-10.6494
▁ኤልያብ	-10.6494
▁እሰጠዋለሁ	-10.6494
▁ከሶርያ	-10.6494
▁የተቀረጸውን	-10.6494
▁በቅዱስ	-10.6494
▁ንገረኝ	-10.6494
▁በሶርያ	-10.6494
ትክክል	-10.6494
▁በእግሩ	-10.6494
▁መብረቅ	-10.6494
▁ተከትሎ	-10.6494
▁የነዌ	-10.6494
▁ቀልጦ	-10.6494
▁ከፊታቸው	-10.6495
▁ዘለፋ	-10.6495
▁ሸሽቶ	-10.6495
▁ለራሳችሁ	-10.6495
▁እንደዚያ	-10.6495
አዛጦን	-10.6495
▁ያጥባል	-10.6495
▁የሐሰት	-10.6495
▁ማድጋ	-10.6495
አቸዋልና	-10.6495
አኪቃም	-10.6495
▁የተሠሩትን	-10.6496
▁ቀለበት	-10.6497
▁ይጸናል	-10.65
ታገሥ	-10.6504
ጠግቡ	-10.6504
ዓመቱ	-10.6561
▁ጸንተ	-10.6611
ሚወጣው	-10.6695
▁መጥቼ	-10.6699
ከራከር	-10.6766
▁ስእለ	-10.6914
▁ከወለደ	-10.6923
ተኸኛል	-10.6949
ሃይማኖት	-10.702
ቂርያትይዓሪም	-10.702
ብላቴኖቹ	-10.702
ግብጻውያን	-10.702
▁ለባቢሎን	-10.702
▁ለካህናቱ	-10.702
▁መሸፈኛ	-10.702
▁መንገዳችሁ	-10.702
▁መንፈሳዊ	-10.702
▁ቅርንጫፍ	-10.702
▁በኮረብቶች	-10.702
▁በጊብዓ	-10.702
▁ኅብስት	-10.702
▁ዘገለዓድ	-10.702
▁የምሥራቅ	-10.702
▁ጃግሬው	-10.702
▁በግምባራቸው	-10.702
▁ከሰማያዊ	-10.702
▁የተመሸጉ	-10.702
▁የካህናቱ	-10.702
▁ጊብዓ	-10.702
▁በዓይኑ	-10.702
▁የአሞራውያን	-10.702
▁በእንጨት	-10.702
▁አናውቅም	-10.702
▁አግብቶ	-10.702
▁ኮከብ	-10.702
▁ሂጂ	-10.702
▁ትወስዳለህ	-10.702
▁በካህኑ	-10.702
▁አስቀድሜ	-10.702
▁ይወስዳሉ	-10.702
አንጾኪያ	-10.702
▁የጥበብ	-10.702
ጠባበቅ	-10.702
▁ከእጃቸው	-10.702
▁የእሴይ	-10.702
▁ሰብስቦ	-10.702
▁ፈጣሪ	-10.702
▁ገዳዩ	-10.702
ልተፈቀደ	-10.702
▁ወስጄ	-10.702
▁ደነገጠ	-10.702
▁ትምክህ	-10.702
▁ከሰይፍ	-10.702
አስቀሎና	-10.702
▁ጠጎች	-10.702
▁ከፊታችሁ	-10.702
▁የመንግሥት	-10.702
▁ሉያ።	-10.702
▁እንዳደረግሁ	-10.702
መሰክሩ	-10.7021
ሰናከል	-10.7021
ታመልኩ	-10.7021
▁ተሰጥቶ	-10.7021
▁መገረዝ	-10.7021
▁ደካማ	-10.7021
▁ናዳብ	-10.7021
▁ዓላማ	-10.7021
ፈጽሙ	-10.7025
▁ይቆማል	-10.7027
▁ያፍራሉ	-10.7027
▁ገደላቸው	-10.7031
▁ጣዖቶ	-10.7031
እቶን	-10.7289
ፈጸሙ	-10.7315
ሸሸጉ	-10.7343
ምሕረት	-10.7348
ፋሲካ	-10.7353
▁በመሠዊያ	-10.7469
እያንዳንዳች	-10.7575
ሞዓባውያን	-10.7575
ተንቀሳቃሾች	-10.7575
▁መልእክት	-10.7575
▁በምኵራብ	-10.7575
▁በቸነፈር	-10.7575
▁በወኅኒ	-10.7575
▁ታንኳይቱ	-10.7575
▁አእላፋት	-10.7575
▁ኢያሪኮ	-10.7575
▁እዘምራለሁ	-10.7575
▁እፈልጋለሁ	-10.7575
▁ከባልንጀራ	-10.7575
▁ከክርስቶስ	-10.7575
▁የሊባኖስ	-10.7575
▁የአክዓብ	-10.7575
▁ይነግሣል	-10.7575
▁ግልገሎች	-10.7575
▁በመንደሮች	-10.7575
▁ትሞታለህ	-10.7575
▁ይሸከሙ	-10.7575
▁ባረካቸው	-10.7575
▁ከንጉሥ	-10.7575
▁ጠፍቶአል	-10.7575
▁ይወርሳሉ	-10.7575
መበለቲቱ	-10.7575
ምሥራቁ	-10.7575
▁ከነቢያት	-10.7575
▁ስላደረገው	-10.7575
አባቶቼ	-10.7575
▁ነፋሳት	-10.7576
▁ሁከት	-10.7576
▁አይችሉም	-10.7576
▁ቀርቶአል	-10.7576
▁ወንድማችሁ	-10.7576
▁አልችልም	-10.7576
▁ከተራራው	-10.7576
▁ጠግነት	-10.7576
መዘምራን	-10.7576
▁ከእግሩ	-10.7576
ቅዒላ	-10.7576
ገሥጸ	-10.7576
ኃይላቸው	-10.7576
▁ሴዎን	-10.7576
▁ፍለጋ	-10.7576
▁አትሁኑ	-10.7576
▁ማልደው	-10.7576
አሞራዊ	-10.7578
▁ትበላለች	-10.7579
አቃሮን	-10.7586
▁አሰብሁ	-10.7587
▁የተናገርሁ	-10.7589
▁የረከሰ	-10.7847
መሥዋዕት	-10.7943
ጸሐፊው	-10.804
▁በመካከላች	-10.8146
ጶ	-10.8164
▁ለአባቶቻችን	-10.8164
▁መዕሤያ	-10.8164
▁መድኃኒቴ	-10.8164
▁በጉባኤ	-10.8164
▁ብልጣሶር	-10.8164
▁ትዕግሥት	-10.8164
▁ኃይለኛ	-10.8164
▁አልተገኘም	-10.8164
▁አሚናዳብ	-10.8164
▁አውቄአለሁ	-10.8164
▁እንናገራለን	-10.8164
▁ከመሠዊያው	-10.8164
▁ከመቅደሱ	-10.8164
▁ከኢያሱ	-10.8164
▁ከዮርዳኖስ	-10.8164
▁ዓይኖቻቸው	-10.8164
▁ዕንቅፋት	-10.8164
▁የተሸከሙ	-10.8164
▁የእነርሱ	-10.8164
▁ጃንደረባ	-10.8164
▁ግብዞች	-10.8164
▁ፍጹማን	-10.8164
አገልግሎታቸው	-10.8164
▁ተኣምራት	-10.8164
▁እሰብራለሁ	-10.8164
▁ከልጆቹ	-10.8164
▁ከሞዓብ	-10.8164
▁የሜራሪ	-10.8164
▁የባሪያዎች	-10.8164
▁የከተማው	-10.8164
▁ያቀርበዋል	-10.8164
▁አትግለጥ	-10.8164
▁እጆቼን	-10.8164
▁ከጨለማ	-10.8164
ማዕዘኑ	-10.8164
▁በተቀመጠ	-10.8164
▁በአሞራውያን	-10.8164
▁አዳራሾች	-10.8164
▁እኖራለሁ	-10.8164
▁ሚዳቋ	-10.8164
▁ከጽዮን	-10.8164
▁ለሁለቱ	-10.8164
▁ይፈጸማል	-10.8164
▁ግመሎች	-10.8164
ኹ	-10.9453
ኽ	-11.0168
ጱ	-11.0939
ቧ	-11.1772
ፕ	-11.1772
ኺ	-11.3681
ፆ	-11.6042
*	-11.6042
1	-11.6042
v	-11.7471
ዉ	-11.7864
ዠ	-11.9128
"	-11.9138
ፐ	-11.9138
ፓ	-11.9138
l	-11.9138
2	-12.1138
s	-12.1138
D	-12.3638
ፄ	-12.6971
3	-12.6971
]	-12.6971
o	-12.6971
ጰ	-12.6971
)	-13.1971
-	-13.1971
5	-13.1971
A	-13.1971
e	-13.1971
ቊ	-13.1971
ፂ	-13.1971
ዷ	-13.1971
(	-14.1948
ፒ	-14.1949
ፑ	-14.195
[	-14.1951
ሷ	-14.1952
d	-14.1953
T	-14.1954
ፔ	-14.1955
k	-14.1956
ኾ	-14.1957
r	-14.1958
ኄ	-14.1959
g	-14.196
K	-14.1961
ዡ	-14.1962
ዦ	-14.1963
ኡ	-14.1964
W	-14.1965
ፁ	-14.1966
ዐ	-14.1967
ኘ	-14.1968
ኵ	-14.1969
ኅ	-14.197
0	-14.1971
4	-14.1971
@	-14.1971
b	-14.1971
m	-14.1971
u	-14.1971
ሏ	-14.1971
ቷ	-14.1971
ቿ	-14.1971
ኗ	-14.1971
ኞ	-14.1971
ኟ	-14.1971
ኲ	-14.1971
ኼ	-14.1971
ጒ	-14.1971
ጧ	-14.1971
ፏ	-14.1971
