<pad>	0
</s>	0
<unk>	0
¦	-1.23309
▁¦	-1.59177
▁	-3.07806
𐋇	-3.48945
e	-3.65477
i	-3.89371
o	-3.94538
a	-4.06774
▁,	-4.11557
di	-4.58332
il	-4.95109
la	-5.06589
re	-5.3115
in	-5.37138
che	-5.38922
▁'	-5.40632
per	-5.56009
le	-5.56665
si	-5.62542
▁:	-5.6813
non	-5.71047
l	-5.75167
gli	-5.85551
ò	-5.87364
signore	-5.89223
del	-5.90123
è	-5.91388
de	-5.91897
con	-5.92072
te	-5.93096
da	-5.95996
ti	-5.97568
un	-6.01473
no	-6.02552
é	-6.11019
s	-6.11093
n	-6.14012
lo	-6.14124
▁;	-6.16332
«	-6.21236
ri	-6.22442
ma	-6.22821
c	-6.23149
al	-6.24367
se	-6.27979
vi	-6.28747
loro	-6.30937
mi	-6.32648
▁.	-6.39454
suo	-6.42117
ci	-6.42612
li	-6.46897
to	-6.49815
ha	-6.51751
dio	-6.55542
d	-6.55957
ro	-6.57003
g	-6.57395
perch	-6.58621
me	-6.59884
p	-6.60167
vo	-6.61137
r	-6.64152
come	-6.66502
nel	-6.70361
della	-6.7098
io	-6.72694
va	-6.72757
▁»	-6.72995
ne	-6.73249
tutt	-6.74967
chi	-6.75868
sa	-6.80678
tuo	-6.82184
sono	-6.87173
ta	-6.88497
una	-6.92041
rono	-6.92113
rà	-6.92785
tu	-6.93579
disse	-6.95644
ato	-7.00763
ranno	-7.01036
t	-7.07241
na	-7.07814
figli	-7.08031
era	-7.08167
figlio	-7.09422
su	-7.10814
dell	-7.10962
nell	-7.11159
alla	-7.11399
sua	-7.1639
f	-7.17529
egli	-7.18743
dal	-7.19076
à	-7.19539
mio	-7.20788
giorn	-7.21151
ar	-7.24559
m	-7.25361
ra	-7.27458
so	-7.28384
quand	-7.30316
quell	-7.30913
aveva	-7.31479
israel	-7.31942
lui	-7.36915
questo	-7.3768
ì	-7.40029
popolo	-7.40667
b	-7.42417
ni	-7.42469
ce	-7.42755
fu	-7.43541
ho	-7.4486
ad	-7.45112
vostr	-7.4762
contro	-7.48201
ve	-7.49514
quest	-7.49734
u	-7.51462
ai	-7.52171
allor	-7.52253
padr	-7.5295
terra	-7.53251
dall	-7.53308
anche	-7.54201
ca	-7.54678
uom	-7.55619
sarà	-7.56396
tua	-7.57272
co	-7.57891
paes	-7.58895
tutto	-7.59941
erà	-7.61483
osì	-7.62114
tra	-7.62692
ver	-7.63825
sul	-7.64758
città	-7.64886
pi	-7.65106
tà	-7.6602
casa	-7.66886
parol	-7.66982
pre	-7.67079
sta	-7.69019
mia	-7.69044
vanti	-7.73463
ndo	-7.74544
essi	-7.74706
ecco	-7.76525
poi	-7.76988
ed	-7.77146
van	-7.77881
ogni	-7.77934
▁?	-7.78121
rò	-7.78251
fa	-7.78551
sc	-7.79439
nostr	-7.80804
av	-7.81669
mos	-7.82368
que	-7.83519
all	-7.83568
cor	-7.83998
ù	-7.84123
pa	-7.84455
david	-7.8456
ora	-7.84646
iù	-7.8477
sull	-7.85117
fatto	-7.86162
uomin	-7.89024
mie	-7.91274
rai	-7.91508
zione	-7.91843
esù	-7.91882
ga	-7.9579
im	-7.95866
mo	-7.96405
k	-7.97694
secondo	-7.97803
qual	-7.98256
fratell	-7.98549
ba	-7.98794
mezzo	-7.99302
vers	-7.99353
ano	-7.99567
mano	-7.99667
noi	-8.00378
due	-8.0117
dice	-8.01646
fece	-8.02259
sacerdot	-8.03832
anno	-8.04183
sce	-8.04362
rete	-8.04804
porta	-8.05169
fatti	-8.0526
pro	-8.05483
han	-8.0577
fino	-8.06786
far	-8.07467
rispose	-8.07617
giuda	-8.08438
nza	-8.09482
one	-8.09582
vita	-8.10006
poich	-8.10862
z	-8.11508
erò	-8.11585
quant	-8.11799
cuor	-8.12123
occhi	-8.12462
tre	-8.12729
gerusalemm	-8.13279
bi	-8.13686
po	-8.14293
do	-8.14986
ate	-8.15084
am	-8.15134
fra	-8.15179
sia	-8.16015
col	-8.16216
fi	-8.16394
and	-8.17299
quel	-8.17703
israelit	-8.18701
ste	-8.18916
tempi	-8.18929
ete	-8.19187
ge	-8.19547
ità	-8.19842
sei	-8.20054
alle	-8.20887
eran	-8.21825
za	-8.21836
sti	-8.22263
sue	-8.24162
car	-8.24573
ciel	-8.24585
bene	-8.24882
-	-8.25382
tutta	-8.26766
mani	-8.27351
grande	-8.28645
par	-8.28967
cosa	-8.29027
tto	-8.29322
cui	-8.29848
be	-8.30145
dove	-8.3057
uno	-8.3075
dett	-8.31359
mentr	-8.31497
nessun	-8.31598
dopo	-8.32085
essa	-8.32691
ru	-8.35446
nti	-8.35482
agli	-8.35769
ab	-8.35889
pu	-8.37039
regn	-8.38157
ch	-8.38258
stess	-8.38766
ggi	-8.38852
mort	-8.39006
pot	-8.39574
egitt	-8.40637
ava	-8.41359
senz	-8.42061
▁?»	-8.42773
nte	-8.42891
capi	-8.43068
▁!»	-8.43441
▁».	-8.43449
servi	-8.43785
ancor	-8.44294
parte	-8.44487
go	-8.44776
questi	-8.45167
cose	-8.45281
spirit	-8.4544
salv	-8.45753
▁-	-8.45829
zza	-8.46769
acc	-8.4709
capo	-8.47281
donn	-8.47444
du	-8.47497
ezza	-8.47923
tempo	-8.48074
ata	-8.48136
là	-8.48713
voc	-8.51564
semp	-8.51788
crist	-8.52395
gia	-8.5253
anni	-8.52615
as	-8.53014
zz	-8.53171
forse	-8.53446
can	-8.53971
male	-8.54475
legge	-8.54607
fo	-8.54972
bo	-8.55283
sotto	-8.56017
stato	-8.56626
sor	-8.56668
sopra	-8.5686
tti	-8.56913
alcun	-8.58263
mu	-8.58832
nom	-8.58997
mand	-8.59219
dun	-8.59646
cento	-8.59989
avet	-8.60611
via	-8.61838
rest	-8.62121
st	-8.62653
ono	-8.62932
fuoc	-8.63181
tta	-8.64078
ando	-8.64155
zi	-8.644
torn	-8.64713
sette	-8.65084
dov	-8.65098
sse	-8.65303
com	-8.65493
amo	-8.66081
dato	-8.66199
cu	-8.66822
ved	-8.66922
prese	-8.67317
giustizia	-8.67383
ram	-8.67902
altri	-8.67998
chiam	-8.68051
altro	-8.68504
mento	-8.69862
luogo	-8.69976
sacrifici	-8.7063
servo	-8.71413
essere	-8.71957
altar	-8.72322
pietr	-8.72738
peccato	-8.72873
bu	-8.73121
sangu	-8.73306
spad	-8.73842
propri	-8.74443
mor	-8.74443
tri	-8.74814
tue	-8.75186
nei	-8.75357
trib	-8.75754
solo	-8.76086
saul	-8.76524
vien	-8.76611
tanto	-8.77567
segui	-8.77956
oro	-8.78885
cal	-8.79213
presso	-8.79286
oggi	-8.79581
prima	-8.80332
molt	-8.81025
giust	-8.81306
sto	-8.81588
fare	-8.81598
nemic	-8.82127
entr	-8.82183
posto	-8.8231
camp	-8.82316
ser	-8.82318
sol	-8.83611
mare	-8.83738
qui	-8.84196
famigli	-8.84284
erai	-8.84877
mon	-8.84892
esse	-8.8523
gio	-8.8536
scritt	-8.86068
insiem	-8.86595
gloria	-8.86837
giu	-8.87166
popol	-8.88031
abbiam	-8.8843
iamo	-8.88565
aver	-8.88876
or	-8.88892
bocca	-8.89193
acqua	-8.89459
giacobb	-8.89724
desert	-8.89747
ebbe	-8.90316
parti	-8.90616
ghe	-8.90912
dai	-8.91006
for	-8.91777
abi	-8.92159
port	-8.92178
pass	-8.9298
invec	-8.9317
mila	-8.93214
guar	-8.93231
cerca	-8.93414
por	-8.9367
mar	-8.94006
venne	-8.95067
pac	-8.95249
cinque	-8.95347
cci	-8.955
mai	-8.95565
nott	-8.96046
moglie	-8.96349
conosce	-8.96365
giude	-8.96622
aronn	-8.96996
lavor	-8.97582
empi	-8.97655
dicendo	-8.97879
v	-8.98308
buon	-8.98381
lu	-8.99098
alza	-8.99109
gioi	-8.99296
man	-9.00168
venti	-9.00479
mente	-9.00488
tenda	-9.00692
andar	-9.00896
nque	-9.00974
ura	-9.01113
dà	-9.01328
colu	-9.01526
sion	-9.01782
comand	-9.02104
ben	-9.02132
acque	-9.02289
offert	-9.02489
vesti	-9.0255
schiav	-9.03106
nazion	-9.03444
ira	-9.03676
quattro	-9.03707
faccia	-9.03714
ascolta	-9.03754
gente	-9.03986
nuov	-9.04015
remo	-9.04313
nulla	-9.04321
parla	-9.04394
chiu	-9.04559
piedi	-9.04748
mond	-9.05096
santo	-9.05216
quali	-9.05349
pes	-9.05625
ur	-9.05962
causa	-9.06503
furon	-9.07108
stava	-9.07306
monte	-9.07401
gett	-9.07438
san	-9.07585
alz	-9.08022
profeti	-9.08089
alleanz	-9.08164
liber	-9.08229
spi	-9.08262
gran	-9.08418
argent	-9.09062
dimora	-9.09117
pien	-9.09383
dis	-9.0939
abram	-9.09419
trova	-9.10242
fede	-9.10325
mangia	-9.10401
zia	-9.10593
babiloni	-9.11342
carne	-9.11481
salomon	-9.12005
▁?».	-9.12675
seppe	-9.1268
avan	-9.1282
madre	-9.13023
cio	-9.13095
vide	-9.13273
diede	-9.13831
angel	-9.14059
dur	-9.14689
eserciti	-9.14786
h	-9.14942
uto	-9.15366
olocaust	-9.15389
ber	-9.15721
comuni	-9.15878
gener	-9.15894
segn	-9.15985
finch	-9.16097
filiste	-9.16428
comp	-9.16637
viv	-9.16827
bestia	-9.16943
spe	-9.17006
abitant	-9.17126
pen	-9.17243
tori	-9.17617
dom	-9.17676
quanti	-9.17743
amente	-9.17984
porte	-9.18768
nta	-9.18919
sali	-9.18941
colp	-9.19025
grazia	-9.1923
rsi	-9.19398
cad	-9.19918
fuor	-9.20748
pane	-9.20834
present	-9.21101
diceva	-9.21264
abbia	-9.21767
gios	-9.21912
dico	-9.21956
sso	-9.22269
chiamat	-9.22295
molti	-9.22296
pure	-9.2231
visto	-9.22446
discepol	-9.22523
ze	-9.2274
fara	-9.22932
usci	-9.23538
fedel	-9.24164
prender	-9.24229
dar	-9.24256
arca	-9.25035
tura	-9.25055
leviti	-9.25926
siamo	-9.26149
batt	-9.2618
frutt	-9.26293
passa	-9.26519
tor	-9.27027
mont	-9.2717
mer	-9.27337
quindi	-9.27453
figlia	-9.27563
riguard	-9.27593
abita	-9.27623
dire	-9.27624
guarda	-9.27798
prende	-9.28122
farà	-9.28153
ciascun	-9.28228
udit	-9.28583
ordin	-9.28713
asse	-9.29188
volta	-9.29221
ero	-9.29256
sape	-9.29791
profeta	-9.29806
men	-9.30048
inter	-9.30143
azion	-9.30621
altra	-9.30778
senti	-9.31348
opera	-9.31786
fronte	-9.31877
endo	-9.32183
intorn	-9.32195
osserva	-9.3223
cubit	-9.32635
metter	-9.32641
gra	-9.32703
ritorn	-9.33099
luce	-9.33108
uè	-9.33149
guerr	-9.33443
mese	-9.33953
vicin	-9.34572
oltre	-9.34875
mette	-9.35227
stati	-9.35441
messo	-9.35638
menti	-9.3589
uscit	-9.36174
lontan	-9.36206
parl	-9.36684
immond	-9.36883
grida	-9.36911
fosse	-9.37324
dono	-9.37408
pur	-9.37418
èl	-9.37619
tar	-9.37672
offri	-9.38295
poter	-9.38603
riferi	-9.38792
sole	-9.39247
fer	-9.39575
forza	-9.3988
grandi	-9.40134
dietr	-9.4038
lung	-9.41105
veder	-9.41141
stra	-9.41322
sì	-9.4173
cas	-9.41964
condott	-9.4207
opere	-9.4285
preg	-9.42916
bar	-9.42925
strad	-9.43335
cat	-9.43427
mattin	-9.4346
primo	-9.43872
dieci	-9.43968
uscire	-9.43984
corpo	-9.44492
arriv	-9.4487
venuto	-9.44918
allo	-9.45656
prostr	-9.46238
venut	-9.46308
grid	-9.46667
us	-9.46784
eredit	-9.46784
nto	-9.47088
orient	-9.47156
spos	-9.47161
cammin	-9.47174
orecchi	-9.47601
testa	-9.48002
stri	-9.48237
▁!».	-9.48559
vino	-9.48645
cos	-9.48856
tan	-9.48868
tras	-9.48881
rebbe	-9.49146
mori	-9.49173
iniquit	-9.4928
domand	-9.49358
anzi	-9.49481
sap	-9.49778
pal	-9.50583
ordine	-9.50719
esercit	-9.50865
fin	-9.50893
sui	-9.50905
tratt	-9.51224
giudic	-9.5164
fuggi	-9.51786
esso	-9.51891
hi	-9.5192
pascol	-9.51972
stermin	-9.5207
divenne	-9.52286
ghi	-9.5235
volto	-9.52477
bal	-9.5265
oracol	-9.52665
tale	-9.52761
giordan	-9.52968
pian	-9.53654
cavall	-9.53698
etern	-9.54022
sara	-9.5408
ari	-9.54127
bri	-9.54195
bas	-9.54244
mise	-9.54267
pose	-9.54298
piant	-9.54571
stata	-9.5505
fine	-9.5527
genti	-9.55404
anziani	-9.55508
legn	-9.5569
ossa	-9.55755
santuari	-9.56022
forma	-9.56721
ricord	-9.569
mandat	-9.56991
anim	-9.57435
stranier	-9.57585
efraim	-9.57589
servizi	-9.57644
potenz	-9.57747
consegn	-9.57996
avvicin	-9.5816
sapien	-9.5837
moab	-9.58523
assal	-9.586
dodici	-9.58647
ascolt	-9.59132
scor	-9.59378
gregg	-9.59749
trov	-9.59786
farai	-9.59808
fate	-9.59928
destra	-9.60033
tò	-9.60124
ministr	-9.60184
ognun	-9.60246
generazion	-9.60287
ud	-9.60368
son	-9.60529
preso	-9.60555
libr	-9.61316
nato	-9.61582
cess	-9.62287
và	-9.6247
numero	-9.62494
dor	-9.6282
aiut	-9.62889
giur	-9.62958
terz	-9.62992
oggett	-9.63471
manger	-9.63494
malvagi	-9.63532
peccat	-9.63802
beniamin	-9.64091
bracci	-9.64091
agnell	-9.64126
crede	-9.64216
color	-9.64479
mod	-9.64963
avr	-9.65063
misericordi	-9.65218
tende	-9.65311
amore	-9.65324
discende	-9.65478
anch	-9.65537
saggi	-9.65685
morti	-9.65786
gua	-9.66044
mangiar	-9.66117
cominci	-9.6636
pensa	-9.6662
idol	-9.66816
stolt	-9.67065
presenz	-9.6712
assi	-9.67301
miser	-9.67477
giovann	-9.67513
simil	-9.67744
tali	-9.68309
fat	-9.68311
ntro	-9.68394
alber	-9.68501
compi	-9.6856
giunt	-9.68768
ordinat	-9.68844
venir	-9.68895
pover	-9.6894
costru	-9.69066
qua	-9.69221
entrar	-9.69307
letto	-9.697
giudizi	-9.69857
elia	-9.69923
ribell	-9.7004
marit	-9.7043
annunzia	-9.70478
santi	-9.70599
avev	-9.70929
allontan	-9.71039
possesso	-9.7105
fium	-9.71068
potent	-9.71158
punt	-9.71488
ger	-9.71535
cammina	-9.71593
partor	-9.71594
esser	-9.7166
sabat	-9.71784
region	-9.72314
padrone	-9.72556
bà	-9.73066
lascia	-9.73218
testimonianz	-9.73482
morire	-9.73508
zer	-9.73554
trenta	-9.74152
mura	-9.74467
pezz	-9.74608
quarant	-9.7472
avver	-9.74748
segu	-9.74986
risponde	-9.75359
maestr	-9.75395
timor	-9.75556
certo	-9.76005
scelt	-9.76124
voglio	-9.76201
misur	-9.76202
bile	-9.76585
volte	-9.76627
person	-9.76756
fà	-9.76967
diritt	-9.77029
bambin	-9.77244
piccol	-9.77245
,	-9.7776
folla	-9.77893
sappia	-9.77932
bell	-9.77935
zion	-9.78482
convegn	-9.78531
appen	-9.78534
dev	-9.7875
armi	-9.79042
piet	-9.79181
mmo	-9.79448
sorte	-9.7946
prest	-9.80045
bet	-9.80185
valle	-9.80294
subit	-9.80526
costu	-9.80633
vento	-9.80638
terr	-9.80684
ssim	-9.80744
nub	-9.81179
decim	-9.81582
accampament	-9.81719
rovina	-9.81834
scende	-9.82148
prendi	-9.8252
sicl	-9.82998
state	-9.83104
muel	-9.83111
territori	-9.83167
uscì	-9.83168
lingua	-9.83632
mà	-9.83772
confin	-9.84342
ripos	-9.84431
vuo	-9.84761
accoglie	-9.85226
settim	-9.85274
baal	-9.85401
promess	-9.85604
cint	-9.85632
sser	-9.8575
veni	-9.85911
abbandon	-9.86075
sera	-9.86219
brucia	-9.86333
cinquanta	-9.86616
tenebr	-9.86617
render	-9.86791
denar	-9.8696
rivolta	-9.86968
isacc	-9.87069
doni	-9.87226
espiatori	-9.8732
giovenc	-9.87325
rimase	-9.87339
tr	-9.8739
vergogn	-9.8803
preghier	-9.88746
neppur	-9.88756
rende	-9.88812
possa	-9.88827
accor	-9.88843
venga	-9.88878
benedett	-9.8889
insegna	-9.88967
bon	-9.89041
ban	-9.90037
costo	-9.90102
consigli	-9.90243
prova	-9.90278
mess	-9.9045
copp	-9.90467
agit	-9.90563
capr	-9.90624
aspett	-9.90782
stend	-9.90989
forte	-9.91093
cadut	-9.91186
rup	-9.91213
gerem	-9.91336
montagn	-9.91653
sdegn	-9.91654
cambi	-9.91656
onore	-9.92028
altre	-9.92144
settentrion	-9.92393
uccell	-9.92393
ezechi	-9.924
gono	-9.92532
parlar	-9.93079
primogenit	-9.93139
custodi	-9.93145
continu	-9.93891
qualcun	-9.9393
utto	-9.94038
ferm	-9.94264
gàla	-9.94663
profum	-9.94676
gat	-9.94943
stabilit	-9.95117
ferma	-9.95998
ariet	-9.96029
spin	-9.96112
sazi	-9.96149
condusse	-9.96182
pecore	-9.96182
uccider	-9.96494
samari	-9.96516
poc	-9.96935
incens	-9.96957
manàss	-9.96958
decret	-9.96962
obbedi	-9.96998
festa	-9.97341
ngo	-9.97371
riscatt	-9.97738
raduna	-9.9794
fiss	-9.98436
purifica	-9.98525
sorell	-9.98545
asin	-9.98648
vent	-9.98754
trovato	-9.99021
faceva	-9.9932
nascost	-9.99328
vivent	-9.99371
offr	-9.99681
vision	-9.99935
campagn	-10.0012
amat	-10.0014
scrib	-10.0015
rimane	-10.0017
battagli	-10.0018
fian	-10.0065
veglia	-10.0076
veniva	-10.0089
divora	-10.0096
stanz	-10.011
andate	-10.0113
commess	-10.0136
manifest	-10.0136
mostra	-10.0148
seguito	-10.0152
ricchezz	-10.0174
ammonit	-10.0174
distrugger	-10.0178
abbandonat	-10.0237
uccise	-10.0256
riceve	-10.026
assiri	-10.0285
amic	-10.0326
tromb	-10.0338
egizian	-10.0338
giunse	-10.0344
consacrat	-10.0352
parlato	-10.0396
preser	-10.0403
part	-10.0414
canto	-10.0419
oblazion	-10.0422
grass	-10.0434
onne	-10.0453
vecchi	-10.0459
fior	-10.0473
messagger	-10.0506
scacci	-10.0544
besti	-10.0566
pratica	-10.0591
ingress	-10.0591
giònat	-10.0591
assemble	-10.0676
polver	-10.0676
speranz	-10.0677
scriv	-10.074
piace	-10.0746
abomini	-10.0762
sepolcr	-10.0762
scono	-10.0801
acces	-10.0809
duran	-10.0817
gettat	-10.0838
ascoltate	-10.0844
compagn	-10.0849
prossim	-10.0853
costruir	-10.0855
distrutt	-10.0893
bbe	-10.0934
colonn	-10.0936
circoncis	-10.0937
rifugi	-10.0939
passat	-10.0939
petto	-10.0941
giovani	-10.1026
ingann	-10.1037
paura	-10.1037
concess	-10.108
fame	-10.1082
scur	-10.1111
fanciull	-10.1115
abbonda	-10.1115
giovane	-10.1115
lasciat	-10.1127
copert	-10.1182
portato	-10.125
commett	-10.1269
tocc	-10.1289
tron	-10.129
attravers	-10.1296
ricevut	-10.1296
proclam	-10.1296
sicur	-10.1361
trovava	-10.1377
principi	-10.1387
umili	-10.1388
volge	-10.1403
costruit	-10.1413
sarò	-10.1414
metti	-10.1454
animal	-10.1457
acaz	-10.146
elis	-10.1474
villaggi	-10.148
labbr	-10.148
sorge	-10.15
finit	-10.1516
compiut	-10.1524
giunge	-10.154
sventura	-10.1573
rocc	-10.1595
altur	-10.1605
apert	-10.1615
offrire	-10.1621
cib	-10.1635
acquist	-10.1668
mille	-10.1678
reggia	-10.1684
confid	-10.1698
scud	-10.1724
stes	-10.1745
menzogn	-10.1763
estremi	-10.1763
cadaver	-10.1767
accampa	-10.1778
posso	-10.1807
dolor	-10.1816
salut	-10.1863
dinanz	-10.1886
caric	-10.189
accost	-10.1917
bronz	-10.1956
torrent	-10.1958
pastor	-10.196
ester	-10.2045
maschi	-10.2056
baston	-10.2057
fann	-10.2141
gerobo	-10.2153
consider	-10.2154
profan	-10.2156
innalz	-10.216
entrat	-10.2203
fals	-10.2214
prì	-10.2254
spavent	-10.2254
vigna	-10.2254
cattiv	-10.2259
scienz	-10.2265
radun	-10.2267
sarebbe	-10.2277
stabil	-10.2296
fortezz	-10.2326
numeros	-10.2342
occup	-10.2355
oppress	-10.2399
prodigi	-10.2459
interrog	-10.2477
lasci	-10.2478
farise	-10.2485
diventat	-10.2519
attacc	-10.2533
occident	-10.256
favore	-10.256
chiamava	-10.2576
conosciut	-10.2589
piange	-10.2637
andava	-10.2643
angoscia	-10.2664
intelligen	-10.2664
preparat	-10.2665
lascer	-10.2675
rimast	-10.2679
dispers	-10.2683
edific	-10.2693
moment	-10.2693
immol	-10.2698
diventer	-10.2718
colpit	-10.2723
riempi	-10.2736
rivel	-10.2803
orpora	-10.2867
ultim	-10.2875
sacri	-10.2877
malat	-10.2911
ucciso	-10.2983
celebr	-10.2983
terror	-10.3041
fet	-10.3052
abitava	-10.3078
annunzi	-10.3087
cader	-10.3102
priv	-10.3124
condurr	-10.3143
termin	-10.318
acab	-10.3181
circ	-10.3189
felic	-10.3202
maggior	-10.3202
guid	-10.3202
dimentica	-10.3203
quart	-10.3203
perenn	-10.3204
vangel	-10.321
canaa	-10.3222
conced	-10.327
decis	-10.3288
prezios	-10.3313
mantell	-10.3313
spiega	-10.3317
perdona	-10.3318
ruben	-10.3321
vestit	-10.3348
combatt	-10.3424
ascoltato	-10.3425
settanta	-10.3425
gàba	-10.3425
temere	-10.3441
semina	-10.3443
giò	-10.3505
manca	-10.3524
ritir	-10.3529
saret	-10.3538
avversari	-10.3539
facendo	-10.3539
vedendo	-10.3545
discendent	-10.3545
disprezz	-10.3605
vuol	-10.3616
diventa	-10.3622
sald	-10.3628
nabucod	-10.3653
cherubin	-10.3653
coprir	-10.3655
pelle	-10.3656
tavola	-10.3656
inferi	-10.3658
amorre	-10.3658
duecento	-10.3673
ricordat	-10.3711
avut	-10.3723
dichiar	-10.3775
vengo	-10.3778
iniqu	-10.3798
erba	-10.38
tenut	-10.3805
insult	-10.381
salì	-10.3858
forestier	-10.3887
grazie	-10.3887
strapp	-10.3888
sommo	-10.3902
colpir	-10.3909
castig	-10.3923
udire	-10.3925
cedr	-10.3932
fatta	-10.3933
bor	-10.4004
seppelli	-10.4007
aggiunse	-10.4009
largh	-10.4012
ferr	-10.4023
comandat	-10.4034
tranquill	-10.4127
condanna	-10.4127
rifiut	-10.4127
avendo	-10.4142
conosco	-10.4145
tener	-10.4157
apostol	-10.4199
beat	-10.4224
apri	-10.4225
affid	-10.4249
pasqua	-10.4252
giurat	-10.4333
sagg	-10.4337
ricc	-10.4352
inviat	-10.4369
desideri	-10.4372
tropp	-10.4372
tien	-10.4372
piogg	-10.444
muove	-10.4449
ebron	-10.4497
attorn	-10.4499
lunghe	-10.4501
pagan	-10.4502
stabilir	-10.4536
pront	-10.4544
governator	-10.4625
predica	-10.4628
comandament	-10.4628
benedizion	-10.4635
uffici	-10.4752
lontà	-10.4753
canane	-10.4761
liberat	-10.4781
lasciar	-10.4798
caccia	-10.4827
fugg	-10.486
piomb	-10.4882
stirpe	-10.4882
galile	-10.4883
sinistr	-10.4886
vittim	-10.4893
pieg	-10.4913
profond	-10.4951
toglier	-10.5006
prigionier	-10.5014
pronunzi	-10.5014
giardin	-10.5014
sollev	-10.5021
rispost	-10.5023
viaggi	-10.5032
passar	-10.5042
stell	-10.5095
uccid	-10.5096
pegn	-10.5122
ferit	-10.513
principe	-10.5147
soffi	-10.5147
rallegr	-10.5147
seduto	-10.5149
lancia	-10.515
catene	-10.5188
aggiung	-10.5231
attent	-10.5233
letter	-10.5266
ombra	-10.5282
innocent	-10.5282
addoss	-10.5282
possia	-10.5335
spars	-10.5383
biss	-10.5385
rivest	-10.5405
contamina	-10.5419
consumat	-10.5419
pensier	-10.542
vergin	-10.542
meravigli	-10.5558
volle	-10.5564
motiv	-10.5583
conosci	-10.566
lebbr	-10.5699
violenz	-10.57
betel	-10.5702
volse	-10.5702
piede	-10.5715
sommi	-10.5716
digiun	-10.5738
consacr	-10.5849
pecca	-10.5904
vende	-10.5909
doman	-10.5933
abiter	-10.5967
sepolt	-10.5987
giovine	-10.5987
madian	-10.5988
strett	-10.6029
coller	-10.6035
bruc	-10.6124
accan	-10.6136
accett	-10.6145
sichem	-10.6147
avven	-10.6274
superstit	-10.6283
libazion	-10.6284
perfett	-10.6287
sguard	-10.6288
stup	-10.629
ugu	-10.6317
comprende	-10.635
raccont	-10.6434
germogli	-10.6435
turba	-10.6437
tavole	-10.6437
sinagog	-10.644
salmo	-10.6442
gradit	-10.6466
senn	-10.6477
trover	-10.65
vendett	-10.6518
mangi	-10.6555
rivolg	-10.6585
apparve	-10.6588
registrat	-10.6588
raccolt	-10.6588
moltitudin	-10.6588
sigill	-10.659
piazz	-10.6609
larg	-10.6653
circonda	-10.6745
schiere	-10.6745
calpest	-10.6745
fatica	-10.675
notizi	-10.6758
difett	-10.676
sessanta	-10.6903
provinc	-10.6903
ragion	-10.6905
rimarr	-10.6911
sedec	-10.6914
maledizion	-10.6915
percoss	-10.6919
angol	-10.7064
flagell	-10.7065
altissim	-10.7065
ginocchi	-10.7065
chiest	-10.7098
santific	-10.713
fondament	-10.7142
fiducia	-10.7228
prigione	-10.7228
splendor	-10.7228
dobb	-10.7229
macchia	-10.7229
ragazz	-10.7229
hittit	-10.7229
banchett	-10.7231
provoca	-10.731
allontanat	-10.731
cammell	-10.7395
possied	-10.7395
segret	-10.7396
vedova	-10.7398
sopport	-10.74
miglior	-10.7402
combattere	-10.7404
sentier	-10.7406
niente	-10.7451
schiera	-10.7457
signor	-10.7474
significa	-10.7565
mardoche	-10.7565
membr	-10.7565
schern	-10.7565
osserver	-10.7565
damasc	-10.7566
giurament	-10.7569
selvatic	-10.7574
fron	-10.758
deportat	-10.7653
radic	-10.7663
sacro	-10.7703
tolt	-10.7715
supplica	-10.7737
addorment	-10.7737
glorific	-10.7737
superior	-10.7737
talent	-10.7761
parent	-10.7773
furor	-10.7813
fretta	-10.791
onnipoten	-10.7912
afferr	-10.7913
precett	-10.7914
devastat	-10.7927
rotol	-10.8014
attes	-10.8045
dottrin	-10.8091
risuscitat	-10.8091
ismael	-10.8091
benevole	-10.8092
vitell	-10.8092
accusa	-10.8096
etiop	-10.8103
compier	-10.8232
valoros	-10.8251
attend	-10.8271
"	-10.8273
betlemm	-10.8273
zaccari	-10.8273
frontier	-10.8274
vigne	-10.8274
gust	-10.8282
concep	-10.8284
pilat	-10.8291
divorer	-10.8336
itù	-10.8364
distru	-10.8418
spond	-10.8455
cavalier	-10.8458
appartien	-10.8458
lampad	-10.8458
ardente	-10.8458
scuot	-10.8458
palazz	-10.8458
conduce	-10.8459
vittori	-10.8459
sovr	-10.8461
possede	-10.8461
median	-10.8468
bagn	-10.8469
bianc	-10.8477
disprezzat	-10.8537
armat	-10.8642
possibil	-10.8647
coraggio	-10.8647
gross	-10.8652
difes	-10.8654
rrezion	-10.8725
quint	-10.8796
romp	-10.8796
medesim	-10.8839
prodott	-10.884
ridott	-10.8842
azzim	-10.8842
luog	-10.8853
simeon	-10.8872
mander	-10.8912
moltiplica	-10.9035
candelabr	-10.9035
patern	-10.9035
conserva	-10.9035
bulon	-10.9036
frecc	-10.9039
spezzat	-10.9039
integr	-10.9043
omicid	-10.9044
arred	-10.9196
esalt	-10.9212
orgoglio	-10.9235
colpevole	-10.9235
desidera	-10.9235
desolazion	-10.9235
parabol	-10.9235
destinat	-10.9236
pazien	-10.9236
serpent	-10.9236
guerrier	-10.9238
toccat	-10.9319
soldat	-10.9362
compassione	-10.9439
costituit	-10.9439
scarlatt	-10.9439
riparazion	-10.9439
azaria	-10.9439
abbatter	-10.9441
stepp	-10.9442
ttene	-10.9453
.	-11.2649
q	-11.4075
(	-11.9076
»	-12.1034
:	-12.3355
j	-12.6849
;	-12.7626
9	-12.8099
’	-12.9527
?	-13.2721
]	-15.4015
0	-15.4016
8	-15.4017
7	-15.4018
5	-15.4019
4	-15.402
3	-15.4021
)	-15.4022
2	-15.4023
6	-15.4024
1	-15.4025
!	-15.4026
'	-15.4027
}	-15.4027
