<pad>	0
</s>	0
<unk>	0
¦	-1.45998
▁¦	-1.46432
ም	-3.53285
▁።	-3.9607
▁፥	-4.13919
በ	-4.14396
ን	-4.20076
የ	-4.50414
▁፤	-4.64928
ና	-4.73466
ከ	-4.86095
ይ	-4.90982
ለ	-4.9681
ት	-5.06346
አ	-5.19475
ል	-5.38133
ስ	-5.45913
ወደ	-5.50095
ተ	-5.52056
ያ	-5.5373
ው	-5.57534
ሁሉ	-5.58801
ር	-5.65932
መ	-5.71279
ንም	-5.72373
ብ	-5.84399
ታ	-5.8857
እ	-5.91529
ሰ	-5.92173
እግዚአብሔር	-5.92626
ህ	-5.93953
እንደ	-5.96674
ድ	-5.99682
ባ	-6.04183
ገ	-6.04917
ራ	-6.0536
ነው	-6.0606
ዘንድ	-6.06874
ላይ	-6.06969
ደ	-6.11076
ማ	-6.12361
ጠ	-6.13703
ቀ	-6.17889
ግ	-6.18726
ች	-6.20239
ቅ	-6.20528
ነ	-6.21897
ግን	-6.24988
የሚ	-6.2565
ላ	-6.27062
▁?	-6.28016
ረ	-6.30698
ጥ	-6.31259
ፈ	-6.40343
ሉ	-6.41433
ጊዜ	-6.41712
ሰው	-6.46935
እርሱ	-6.46974
ክ	-6.48008
ነገር	-6.50498
እኔ	-6.51807
ፍ	-6.52005
ውን	-6.55437
ሳ	-6.5548
ስለ	-6.57384
ልጆች	-6.57706
ወ	-6.58325
ጋር	-6.60079
ልጅ	-6.62579
ዋ	-6.64105
ሁ	-6.64555
ነበር	-6.67391
ሽ	-6.68358
በት	-6.71913
ኝ	-6.71997
ኑ	-6.74338
አል	-6.76269
ሆ	-6.76497
ቃ	-6.77591
ሩ	-6.79642
ዘ	-6.80153
ካ	-6.80597
እንዲህ	-6.81344
ዝ	-6.8311
ጋ	-6.85207
ዳ	-6.85842
አለ	-6.88982
የተ	-6.90033
ፊት	-6.92043
ቤት	-6.92436
ዓ	-6.93058
እን	-6.9474
አይ	-6.96217
ቀን	-6.97424
ጣ	-6.97504
አንተ	-7.00377
ቃል	-7.00588
ምድር	-7.01507
ላችሁ	-7.05745
ቢ	-7.06565
ደግሞ	-7.0989
አት	-7.10013
ቁ	-7.10298
ሆነ	-7.10453
ወይ	-7.12128
ቶ	-7.12141
ፋ	-7.12751
አንድ	-7.1282
ነበረ	-7.14507
ችሁ	-7.15148
መጣ	-7.15594
ሸ	-7.16144
ህን	-7.1698
ሰዎች	-7.17536
እነሆ	-7.18779
ሱ	-7.18787
ዱ	-7.19619
ሲ	-7.20189
ለሁ	-7.20792
ውም	-7.21054
ጌታ	-7.21198
ሮ	-7.21482
ሊ	-7.21915
ንና	-7.23052
አስ	-7.24197
ቱ	-7.26158
ትን	-7.26331
አለው	-7.27119
ንጉሥ	-7.27241
ብሎ	-7.29467
እነርሱ	-7.31064
ንጉሡ	-7.31088
ድረስ	-7.31341
ሎ	-7.31721
ይህ	-7.31839
ቡ	-7.33333
እናንተ	-7.34134
በዚያ	-7.34487
ሬ	-7.36893
ዛ	-7.36932
ለች	-7.39846
ቆ	-7.41365
ላቸው	-7.41464
ሞ	-7.41527
እስከ	-7.41811
ዎች	-7.42328
ናቸው	-7.42574
ዳዊት	-7.42664
ውስጥ	-7.42762
ዶ	-7.44639
ለው	-7.45002
ሌ	-7.47921
በእግዚአብሔር	-7.48385
ይላል	-7.4978
ለት	-7.52647
እጅ	-7.52703
ኢየሱስ	-7.52809
ቴ	-7.55301
ጉ	-7.55429
ኖ	-7.55603
ወጣ	-7.55837
በኋላ	-7.57022
ጨ	-7.57891
ሪ	-7.5901
ሕዝብ	-7.60009
ገባ	-7.60365
ዕ	-7.60487
ተው	-7.60508
ታል	-7.60685
ሙ	-7.60795
ሠራ	-7.6113
ቤቱ	-7.61153
ይህን	-7.61663
ሰማ	-7.61761
የእግዚአብሔር	-7.61789
ነበሩ	-7.62376
ሥራ	-7.62459
መካከል	-7.62721
ስለዚህ	-7.63097
አምላክ	-7.63539
ፊ	-7.63559
ምን	-7.65218
አቸው	-7.65636
ጸ	-7.6634
ወር	-7.67649
ጽ	-7.6843
ያስ	-7.6904
ፉ	-7.6959
ቸው	-7.69647
ዩ	-7.70285
ሁለት	-7.71462
አላ	-7.7162
እንዲ	-7.71949
ጭ	-7.72698
ሚ	-7.72901
ዓመት	-7.73216
ኤ	-7.73414
እነዚህ	-7.73849
ጡ	-7.7613
አሕዛብ	-7.7631
ቤ	-7.77435
ለህ	-7.77693
ብዙ	-7.78054
ሻ	-7.78184
ህም	-7.78323
ሕዝቡ	-7.7854
የእስራኤል	-7.78833
ማን	-7.79029
ሴ	-7.7932
ዋል	-7.79352
እኛ	-7.79763
ክፉ	-7.80495
ነት	-7.80613
ዮ	-7.80662
አሳ	-7.81531
ያለ	-7.8187
ይሆናል	-7.82115
ስፍራ	-7.82571
እንዲሁ	-7.83378
ቼ	-7.83655
ቹ	-7.84075
ኛ	-7.8408
ከእርሱ	-7.84426
ባቸው	-7.85123
እንዳ	-7.86438
አሁን	-7.86501
ሜ	-7.86525
ከፍ	-7.86773
ሆን	-7.86867
ለመ	-7.86949
ሶ	-7.87403
የሚያ	-7.87442
ቈ	-7.89133
ቦ	-7.89217
መቶ	-7.89362
ጫ	-7.89616
ባል	-7.89785
ጂ	-7.90217
ችን	-7.91027
ውኃ	-7.92215
ቀር	-7.92411
ሐ	-7.93564
መንገድ	-7.93751
ሥ	-7.93751
ኃጢአት	-7.94058
እግዚአብሔርን	-7.94068
በላ	-7.94101
ከተማ	-7.94122
እርስዋ	-7.94277
መስ	-7.94611
አላቸው	-7.94914
መሥዋዕት	-7.94932
በር	-7.9519
ቱን	-7.95332
ሆኑ	-7.96186
ደር	-7.97903
ሉት	-7.98775
ፈር	-7.99065
ጎ	-7.99105
ሃል	-7.99518
ኢ	-7.99695
በረ	-8.00772
ዬ	-8.00794
ጃ	-8.00861
ባት	-8.01424
ታቸው	-8.01546
መጡ	-8.01745
ቂ	-8.02041
ደስ	-8.02186
መልካም	-8.03066
ደረ	-8.03212
ሙሴ	-8.03955
ጕ	-8.04272
ቶች	-8.05019
ያል	-8.05217
ድን	-8.05219
ክርስቶስ	-8.05494
ለእግዚአብሔር	-8.05513
ታላቅ	-8.0585
ሣ	-8.07426
ሕ	-8.07489
ዙ	-8.07631
ውያን	-8.07714
እጅግ	-8.08341
ጠፋ	-8.08373
የእግዚአብሔርን	-8.08375
በዚህ	-8.08529
ሰጠ	-8.0947
በሚ	-8.09633
ሥጋ	-8.09923
ኤል	-8.10352
ተቀ	-8.10883
ኛል	-8.11904
ባለ	-8.12088
ጐ	-8.13155
ትም	-8.13255
በምድር	-8.13779
ስም	-8.14193
ነኝ	-8.14243
ሺህ	-8.15386
ኩ	-8.1564
ወድ	-8.15703
ብር	-8.16091
ሞት	-8.16723
ኮ	-8.17603
አለቆች	-8.19011
ከተ	-8.19101
አብ	-8.19199
ኵ	-8.19206
በእስራኤል	-8.19759
ራቸው	-8.19817
መሰ	-8.2011
አገር	-8.20244
አን	-8.20294
ለሚ	-8.20918
የምት	-8.21232
ጌ	-8.22421
ማል	-8.22646
እንደሚ	-8.22892
ብት	-8.23001
ወጡ	-8.23047
ታችሁ	-8.23376
ዘመን	-8.23546
አሥራ	-8.24057
እንዳይ	-8.24323
ነሣ	-8.24812
ከዚያ	-8.25253
ጠራ	-8.25333
ሃለሁ	-8.25513
መንፈስ	-8.26522
ኢየሩሳሌም	-8.28009
መረ	-8.28053
ይሁን	-8.28216
ዋን	-8.28405
አለቃ	-8.28507
ላል	-8.28904
በመ	-8.29005
ሄደ	-8.29057
ዛሬ	-8.29544
አንዱ	-8.29716
ገና	-8.30193
በእርሱ	-8.30627
ሮች	-8.30895
አይደለም	-8.30956
ይሁዳ	-8.31238
ችው	-8.31305
ሰጥ	-8.31484
ሦስት	-8.32095
ሌላ	-8.32164
ኪ	-8.32204
መር	-8.32305
ኖር	-8.33304
ልብ	-8.33342
አደረገ	-8.33945
ቍ	-8.34071
በተ	-8.3436
በግ	-8.3443
ከእነርሱ	-8.3471
እስራኤል	-8.34819
ሃ	-8.34885
ይሆን	-8.35307
በሉ	-8.35582
ኅ	-8.35819
ዴ	-8.35824
ያዕቆብ	-8.35826
በል	-8.36065
ሰማይ	-8.36429
ሴቶች	-8.36839
ጠላ	-8.37095
ተራራ	-8.3777
ወገን	-8.37839
ጦ	-8.3812
መሠዊያ	-8.38233
ተኛ	-8.38304
ሹ	-8.38477
ወንድ	-8.3865
ቻቸው	-8.38804
መታ	-8.39251
ናት	-8.39565
ለዘላለም	-8.40083
ወዳ	-8.4012
ጆ	-8.40345
ዊ	-8.40362
ነገ	-8.40716
ሳኦል	-8.40949
አሉ	-8.4129
ሰባት	-8.4133
ወርቅ	-8.41426
ፈራ	-8.4148
ጀ	-8.41664
ናል	-8.42459
ጻ	-8.42995
አው	-8.43121
ፍርድ	-8.43418
ክብር	-8.43438
ቻ	-8.43512
ሴት	-8.43866
የማ	-8.43983
ሁለቱ	-8.44314
ሄዱ	-8.44571
ጀምሮ	-8.44778
ቸዋል	-8.44861
ለን	-8.44877
በዳ	-8.45017
ጅ	-8.45396
ከሚ	-8.45765
ሕግ	-8.45988
ጁ	-8.46611
እንጀራ	-8.47412
እየ	-8.47418
ምድረ	-8.47474
እንግዲህ	-8.47706
እስኪ	-8.48027
በው	-8.48115
▁	-8.48116
ኔ	-8.48486
ራስ	-8.48968
ዕቃ	-8.49524
ነግ	-8.49702
ስሙ	-8.5031
ገረ	-8.50321
ድምፅ	-8.50393
ፈረ	-8.50683
ገዛ	-8.50843
መለ	-8.51729
እና	-8.51732
ሄድ	-8.52045
በኢየሩሳሌም	-8.52109
ቱም	-8.52353
በአ	-8.52706
ማንም	-8.52761
ባሕር	-8.52901
የለም	-8.53188
ልኝ	-8.53378
ገል	-8.53414
ከእኔ	-8.53581
ቍጣ	-8.53591
ችኋል	-8.5375
አሮን	-8.53934
ሠ	-8.54598
ካህኑ	-8.54608
ናችሁ	-8.5495
ልጁ	-8.55169
ከተሞች	-8.55193
ክንድ	-8.55211
ለማ	-8.55998
ባሪያ	-8.56089
ሰብ	-8.56207
አልና	-8.56272
አታ	-8.56392
ብቻ	-8.5672
ዘር	-8.56894
ቢያ	-8.57041
ቸ	-8.57149
ላት	-8.57203
ሾ	-8.57221
ዊው	-8.57318
ገቡ	-8.57417
ዲ	-8.57708
ሁት	-8.5783
አጠገብ	-8.58408
ይልቅ	-8.58743
ሰላም	-8.58843
ሆኖ	-8.59333
በታች	-8.59719
ብለው	-8.59938
ነበሩት	-8.6039
ረው	-8.60397
ደረግ	-8.60588
ቶቹ	-8.60598
ዳን	-8.61173
ሰሙ	-8.6149
ከዚህ	-8.61553
አምላክህ	-8.61703
እንዴት	-8.61743
አምስት	-8.61756
ያለውን	-8.61777
ሀያ	-8.61901
ቸዋለሁ	-8.62064
እሳት	-8.62666
ፍሬ	-8.63463
ኃ	-8.63562
ዔ	-8.63605
ሞተ	-8.63889
ፌ	-8.63922
እውነት	-8.6456
አንቺ	-8.64878
ናገር	-8.6491
አፍ	-8.64933
ቸውም	-8.64959
ዖ	-8.65187
ኖሩ	-8.65396
በኩል	-8.65522
ከአንተ	-8.65691
ዞ	-8.65779
ተኞች	-8.6583
አያ	-8.66008
መከራ	-8.6657
የሰው	-8.66703
ጓ	-8.66798
ሆነው	-8.67106
ጽድቅ	-8.67126
ዘው	-8.67241
አሉት	-8.67396
የሆነ	-8.67837
ወለደ	-8.68047
ቍርባን	-8.68432
ጣል	-8.68461
ቅን	-8.68861
የተነሣ	-8.68998
በሰ	-8.69375
ዚ	-8.69544
ሰሎሞን	-8.69759
ቢሆን	-8.703
ባቢሎን	-8.70429
ችኋለሁ	-8.70765
ለምን	-8.71238
ራት	-8.71691
ደቀ	-8.72015
ሳይ	-8.72117
አድ	-8.72345
ራችሁ	-8.72504
በዛ	-8.72819
ከእስራኤል	-8.736
ገድ	-8.73672
ቹን	-8.73708
ነገሥታት	-8.73848
አባቱ	-8.73959
ላሉ	-8.73978
ዎ	-8.74421
ኛው	-8.74909
ቀው	-8.74994
ተስፋ	-8.75007
ነገድ	-8.75107
ባሪያዎች	-8.75675
የማይ	-8.75772
ድር	-8.75821
ተዋ	-8.75834
ብላ	-8.7584
ቤተ	-8.76233
ፈርዖን	-8.76315
ከተማይቱ	-8.76354
ደም	-8.76382
ቶአል	-8.7642
ሌሊት	-8.76672
ግብጽ	-8.76677
የአ	-8.76891
ከእናንተ	-8.77009
ዎቹ	-8.77016
መልሶ	-8.77032
ከእግዚአብሔር	-8.77367
ልጆቹ	-8.7739
ቅዱስ	-8.77393
ሄ	-8.77754
ኸው	-8.78193
ቄ	-8.78839
ባለው	-8.79002
ባችሁ	-8.79127
ፎ	-8.79404
አራት	-8.79937
ሳችሁ	-8.8003
ታው	-8.8022
ድንጋይ	-8.80687
ሙሴን	-8.80761
ስማ	-8.80865
ለእስራኤል	-8.81038
ሳለ	-8.81321
ትእዛዝ	-8.81433
ነህ	-8.81806
ራሱ	-8.81817
ተሰ	-8.82189
ቀመጥ	-8.82222
ዓለም	-8.8223
አውራ	-8.82945
እንድ	-8.83156
ሠሩ	-8.83174
ባር	-8.83292
አይሁድ	-8.83331
ኃይል	-8.83336
ግባ	-8.83426
አጥ	-8.83426
ልህ	-8.83516
ቴን	-8.8378
በይሁዳ	-8.84069
ነፍስ	-8.84159
ሽን	-8.84382
ነፍ	-8.84784
ኒ	-8.85257
ያደርግ	-8.85696
መው	-8.85705
ጠብ	-8.8581
በጎ	-8.85876
ፍር	-8.85915
ፈሩ	-8.85956
በሩ	-8.86029
ይቀ	-8.86594
ዮሴፍ	-8.86829
መለስ	-8.86959
በደ	-8.87015
ቶቻቸው	-8.87142
በማ	-8.87218
ኢያሱ	-8.87227
ራል	-8.87297
ያን	-8.87379
በቀ	-8.87381
ጸና	-8.87622
ዙሪያ	-8.88404
ሡ	-8.88425
አብርሃም	-8.88426
ተናገረ	-8.89022
የይሁዳ	-8.89178
ያለው	-8.89336
ሩት	-8.89738
የሠራዊት	-8.89935
ከንቱ	-8.90223
ኋቸው	-8.91401
ከመ	-8.91412
ልብስ	-8.91431
ተናገረው	-8.91943
ቀድ	-8.92507
ካህናት	-8.92534
ነገሠ	-8.92567
ግብፅ	-8.9303
መንግሥት	-8.93179
ከማ	-8.93215
እያ	-8.93217
ኖች	-8.93357
በዚያን	-8.93361
አድርጎ	-8.93376
ዘመ	-8.93855
ድንኳን	-8.9423
ጥሩ	-8.94727
ይቱ	-8.94788
ጠጣ	-8.94862
ገኝ	-8.95073
ቀረ	-8.95091
ሕይወት	-8.95221
ፍልስጥኤማውያን	-8.95512
ተቀመጠ	-8.95519
ዋለሁ	-8.95849
እር	-8.95944
ኪዳን	-8.95983
ብል	-8.96289
ማር	-8.96308
ስላ	-8.96376
ጠሩ	-8.96484
ጣሉ	-8.96679
ብኝ	-8.96783
ሔ	-8.96817
ሂድ	-8.96878
ይገባ	-8.96975
እንድት	-8.97148
ምንድር	-8.97442
አባት	-8.97705
ጥበብ	-8.97761
ሕዝቡን	-8.97778
ሰይፍ	-8.97904
አምላካችን	-8.98138
ተቀመጡ	-8.98516
ዋጋ	-8.98543
ሰጠው	-8.98937
እስ	-8.98942
አልተ	-8.99025
ቋ	-8.99029
ጢ	-8.99029
በእኔ	-8.99154
ወጥ	-8.99327
ኖረ	-8.99399
እያንዳንዱ	-8.99477
ሁለተኛው	-8.99706
አለሁ	-8.99775
ወገ	-8.9982
ሚስት	-8.99901
ላከ	-9.00079
ዘላለም	-9.00144
ቃሉ	-9.00531
ዕጣ	-9.00758
ስት	-9.00823
ካህናቱ	-9.00835
ወንድሞች	-9.00849
ዓይን	-9.01397
ሳል	-9.02236
ንኳ	-9.02411
አር	-9.028
ጆሮ	-9.02862
ተዋል	-9.02918
እርሻ	-9.03188
በእውነት	-9.03602
ሰልፍ	-9.03634
ነፍሴ	-9.03657
ጠው	-9.03773
ያዘ	-9.03922
መለሰ	-9.04085
ቸውን	-9.04162
ልፎ	-9.04292
ቀኝ	-9.04428
ጊ	-9.04538
ፍረ	-9.04557
ደስታ	-9.04817
ስድስት	-9.05023
ታስ	-9.05073
ተናገር	-9.05111
ሞላ	-9.05264
ርስት	-9.05519
መልስ	-9.05742
ሳቸው	-9.0579
አደረጉ	-9.06458
የእስራኤልን	-9.0657
ጌታዬ	-9.06599
ሰጡ	-9.06838
ምድሪቱ	-9.0694
ይህች	-9.07257
ራለሁ	-9.07375
በጎች	-9.07422
መቅደስ	-9.07432
ነበረው	-9.07942
ተወ	-9.08315
ሕያው	-9.08413
ገኙ	-9.08575
ማረ	-9.08758
ልዩ	-9.08787
ታቸውን	-9.08903
ተጠ	-9.09296
አሥር	-9.09398
ልቡ	-9.09649
ሕዝቤ	-9.10891
ወንዶች	-9.10893
ባሪያህ	-9.10962
ደው	-9.10987
ኰ	-9.11396
መጽሐፍ	-9.11396
ምርኮ	-9.11422
ዳርቻ	-9.11481
አለኝ	-9.11543
ሆንሁ	-9.11651
ጠብቅ	-9.1167
ሌዋውያን	-9.11904
ነቢያት	-9.11909
በፊቱ	-9.11918
በቀር	-9.12411
አማልክት	-9.12414
ስብ	-9.12544
ሄዳ	-9.12549
በሕይወት	-9.1276
ሌሎች	-9.1293
አባቴ	-9.12965
በእሳት	-9.12972
ዮርዳኖስ	-9.13442
ወዲያ	-9.13443
ወቅ	-9.13459
ዬን	-9.1365
አምሳ	-9.1386
ኦ	-9.1396
ይዞ	-9.14043
ሠላሳ	-9.14482
ተነሣ	-9.14666
ክፋት	-9.15025
ዘይት	-9.15077
ድል	-9.15278
ጣት	-9.15323
ተነሥ	-9.15405
ጠጅ	-9.15964
ለዋል	-9.1614
ጠብቁ	-9.16178
ሻል	-9.16264
እንኳ	-9.16409
ጥቂት	-9.16596
ብርሃን	-9.17129
ያደርጉ	-9.17141
ሊያ	-9.17193
ጨለማ	-9.17234
እርስ	-9.17485
ባሉ	-9.17715
ቤቶች	-9.17796
ዛፍ	-9.17825
ሚያ	-9.18092
መጥ	-9.18382
መዛሙርቱ	-9.18749
የወይን	-9.18903
እንዲያ	-9.18975
ጮ	-9.1912
ፈው	-9.19188
ኤፍሬም	-9.19298
ውጭ	-9.19314
በእናንተ	-9.19359
መጥቶ	-9.19714
ዶች	-9.19893
አሰ	-9.20164
ረድ	-9.20272
ዐ	-9.20397
ሳሉ	-9.20428
ነበረች	-9.20524
ልጄ	-9.20733
ጡት	-9.21046
ያሳ	-9.21509
ወሰደ	-9.21566
ጽና	-9.2166
አዳ	-9.22066
ፀ	-9.22073
ሙት	-9.22132
ፈጥ	-9.22252
ጹ	-9.22633
ወዴት	-9.2264
ሰጣቸው	-9.22643
ውጣ	-9.22689
ዳል	-9.22877
ፀሐይ	-9.23207
ካል	-9.23759
ሥርዓት	-9.23778
ጠር	-9.24118
ሰባ	-9.24329
ሞዓብ	-9.24354
ራሉ	-9.24364
ወረ	-9.24374
ሽማግሌዎች	-9.24375
አርባ	-9.24714
መቅደሱ	-9.2493
እህል	-9.24965
አምላካችሁ	-9.25512
እንጨት	-9.25516
መለከት	-9.25533
እምነት	-9.25547
ፋንታ	-9.25601
በደል	-9.26672
አምላኬ	-9.26685
ዘረጋ	-9.26687
ጽዮን	-9.26689
ምሳሌ	-9.2671
ምሥራቅ	-9.2672
መካ	-9.26806
መቱ	-9.27099
ሸለቆ	-9.2728
ነፋስ	-9.27287
ይሆናሉ	-9.27872
ወንድሞቹ	-9.27872
ማዕ	-9.27907
ለአንተ	-9.28012
ራሳቸው	-9.28179
ብላቴና	-9.28471
ትንቢት	-9.2848
ሁልጊዜ	-9.28481
ጥፋት	-9.28497
እንዲሆን	-9.28662
ዳር	-9.28811
ምሕረት	-9.29073
ብንያም	-9.29079
ነገረ	-9.29226
ረዳ	-9.2955
ነገሩ	-9.29662
ዜ	-9.29667
ጉባኤ	-9.2968
የምታ	-9.29909
ቀረበ	-9.29959
እንዳት	-9.29997
የሚያስ	-9.30093
አመጣ	-9.30127
ልክ	-9.30167
አድርግ	-9.30292
ደመና	-9.30482
ዮች	-9.30605
ያህል	-9.30761
ጳውሎስ	-9.30902
ጥላ	-9.31217
እንዳለ	-9.31252
ዳቸው	-9.31328
ሶች	-9.31438
ጩ	-9.3152
ሺ	-9.31747
ጽኑ	-9.32126
አባቶቻቸው	-9.32146
እጄ	-9.32289
ቀመጡ	-9.32352
በሰይፍ	-9.32505
ጴጥሮስ	-9.32766
ሰፈሩ	-9.32826
ኸ	-9.32932
ይመጣል	-9.33429
ራሱን	-9.33482
ኸኝ	-9.33516
በፊትህ	-9.34102
ወዲህ	-9.34666
ጻድቅ	-9.34666
እጁን	-9.34699
ናገሩ	-9.34767
አወጣ	-9.34777
ንጹሕ	-9.35306
ፍጹም	-9.3531
ታለሁ	-9.35346
ተጻፈ	-9.35386
ሠራዊት	-9.35486
እንዳል	-9.35892
መጀመሪያ	-9.35938
ምልክት	-9.35983
ምናሴ	-9.36073
ቻችን	-9.36379
ያደረገ	-9.36606
ወራት	-9.36892
መልአክ	-9.37254
ወንዝ	-9.3728
መጠን	-9.37495
ዘጋ	-9.37631
ቲ	-9.37911
አደባባይ	-9.37912
ቻቸውን	-9.38
ሠር	-9.3805
አድርገ	-9.3807
ከሰማይ	-9.38075
ኋ	-9.38184
ቆሙ	-9.38302
እግር	-9.38596
ቀል	-9.38982
ዎቹን	-9.39011
ሰማርያ	-9.39061
ወጥቶ	-9.39127
ኤርምያስ	-9.3924
ሰማያት	-9.39272
አገሩ	-9.39285
አየሁ	-9.39495
ኙ	-9.39677
ቅዱሳን	-9.39912
ልባቸው	-9.4046
ሜዳ	-9.40508
ዳችሁ	-9.40542
ምስጋና	-9.40589
እናቱ	-9.40833
ነቱ	-9.40867
ገደለ	-9.40887
ባልንጀራ	-9.41268
ታቦት	-9.41276
ሰሜን	-9.41388
ማቸው	-9.41475
ደረሰ	-9.41552
ግድ	-9.41582
ነቢዩ	-9.41953
እጃቸው	-9.41956
ያጠፋ	-9.42142
ቦች	-9.42388
ምስክር	-9.42643
ሶርያ	-9.42649
ብዛት	-9.42657
ቻችሁ	-9.42707
ዋለህ	-9.43129
ልቤ	-9.43155
ዘዝ	-9.43208
ጸጋ	-9.43261
ኬ	-9.43335
ኢዮአብ	-9.43337
ርኩስ	-9.43343
ፍቅር	-9.43355
ሸሸ	-9.43393
ገደሉ	-9.4346
መልክ	-9.43846
ጠፉ	-9.43861
ታችን	-9.43897
ወረደ	-9.43911
ስሜ	-9.43965
ሳሙኤል	-9.44036
ኋችሁ	-9.4412
ያወጣ	-9.44853
ፈጽሞ	-9.4545
መገናኛው	-9.4545
ቀበል	-9.45504
መስፈሪያ	-9.46164
አሦር	-9.46167
ቅጥር	-9.4618
አንዳች	-9.46557
ተራሮች	-9.46894
እስራኤልን	-9.46942
ፋቸው	-9.47025
ቻለሁ	-9.47094
ሞቱ	-9.47563
ትውልድ	-9.47608
አስቀድሞ	-9.47668
ታላቁ	-9.48343
ወስዶ	-9.48344
አባቶች	-9.48347
ብለህ	-9.48544
ጠጡ	-9.48565
ብዬ	-9.48861
ከእንግዲህ	-9.48998
ሦስተኛው	-9.49073
እላችኋለሁ	-9.49074
መልሳ	-9.49143
ወንድሙ	-9.49223
ወዮ	-9.49816
ሰቅል	-9.49849
ሰንበት	-9.50028
ሠራው	-9.50489
ዉ	-9.5056
ወስደ	-9.50693
ድሀ	-9.50806
ዮሐንስ	-9.51312
ደቡብ	-9.5133
ወስዳ	-9.51427
ሀ	-9.51428
ስምህ	-9.51463
ሕዝቅያስ	-9.52069
ይስሐቅ	-9.52069
መልእክ	-9.52069
ገለዓድ	-9.52069
እንዳዘዘ	-9.52084
ተናገሩ	-9.52789
እንደዚህ	-9.52836
ሙታን	-9.5289
ቆመ	-9.53097
የተቀደሰ	-9.53602
ተመለሱ	-9.54088
ላችኋል	-9.54375
የነበረውን	-9.54442
ያዩ	-9.54823
ሁህ	-9.54976
ሰባተኛው	-9.55159
እውቀት	-9.55159
አልነበረም	-9.55202
ረዱ	-9.55338
ተነሥቶ	-9.55351
ያደርጋል	-9.55429
ጦር	-9.55492
ሞች	-9.5568
ያውቅ	-9.55772
ምክንያት	-9.55946
እንስሳ	-9.55954
ደርገው	-9.55979
ወግ	-9.56592
እነዚያ	-9.57539
መጥተው	-9.57621
ገዙ	-9.57784
መለሱ	-9.5809
ዮናታን	-9.58347
ፈቃድ	-9.58353
ክፍል	-9.58362
መንገዱ	-9.59159
ደሙ	-9.5977
አልሁ	-9.59975
ትሆናለ	-9.60002
ጤ	-9.60805
የሚኖሩ	-9.61316
ሚስቱ	-9.61441
ሴቲቱ	-9.61639
አድርጌ	-9.61639
ቍጥር	-9.61641
ስምዖን	-9.61643
ይቅር	-9.61745
ቀረቡ	-9.61772
እስክ	-9.61956
ልብህ	-9.62319
ላቸዋል	-9.62324
አደርጋለሁ	-9.62479
ይኖራል	-9.6248
ተቀምጦ	-9.62482
ባድማ	-9.62498
ነፍሱ	-9.62646
መንጋ	-9.6269
ወለደች	-9.62801
ባሪያዎቹ	-9.62932
የሆነውን	-9.62965
ከግብፅ	-9.63174
አንዲት	-9.63327
አዘዘ	-9.63403
ወገኖች	-9.64207
ኪያ	-9.64287
ቈረ	-9.64366
ያውቁ	-9.64476
ታውቁ	-9.64511
አድርጉ	-9.65044
ፈልጉ	-9.65049
ብረት	-9.65127
አባትህ	-9.65228
ጽዋ	-9.65252
ተመለሰ	-9.65709
ጾ	-9.65912
አንበሳ	-9.65927
ሐሰት	-9.65939
ብዙዎች	-9.66307
ነጻ	-9.66593
ጕድጓድ	-9.6679
ቆሞ	-9.68254
አሞን	-9.68398
ወንጌል	-9.68568
በአንድነት	-9.68576
ዘጋጀ	-9.68599
መብል	-9.69415
ዣ	-9.69468
ገንዘብ	-9.69469
ታደርጋ	-9.69472
ቀድሞ	-9.69531
ኋላ	-9.69797
ጌታችን	-9.70025
ሌላው	-9.7029
ሖ	-9.70377
አቤሴሎም	-9.70378
በፊቴ	-9.70384
ሦ	-9.71273
ጳ	-9.71295
ቈጣ	-9.71313
ቆመው	-9.71614
ሃቸው	-9.729
ኃያላን	-9.73155
ጭፍራ	-9.73164
ልብሱን	-9.73171
ብርቱ	-9.73752
ዕድሜ	-9.741
ሂዱ	-9.74133
ኛለህ	-9.74464
አድርገው	-9.7486
ቃቸው	-9.74983
ኃጢአተኞች	-9.75051
መቃብር	-9.75056
ልጆቻቸው	-9.76016
በኣል	-9.76022
መልሰው	-9.76054
ኤልያስ	-9.76275
ጠርቶ	-9.76604
የሚቃጠለውን	-9.76984
ደኅንነት	-9.76984
ማድረግ	-9.76984
ወደዚህ	-9.76988
ቸዋለህ	-9.77011
ኢዮርብዓም	-9.77964
ኮረብታ	-9.77964
አራተኛው	-9.77964
ጮኹ	-9.77966
ወሰዱ	-9.7797
ምድሩ	-9.78107
ማደሪያው	-9.78399
ወርዱ	-9.7859
ጋሻ	-9.78747
በመካከላቸው	-9.79954
አልዓዛር	-9.79954
ፈቀቅ	-9.79966
አካዝ	-9.79972
ታደርጉ	-9.79973
አደርግ	-9.79976
እያሉ	-9.80387
ዥ	-9.80964
ዔሳው	-9.80974
ውሰድ	-9.81028
ሻለሁ	-9.81534
ኣ	-9.81975
ርኵሰት	-9.81985
ልቅሶ	-9.81997
መሬት	-9.8207
ሰደደ	-9.82077
ደዌ	-9.82176
ሠዋ	-9.82214
በዙሪያው	-9.83072
ሐናን	-9.8314
አህያ	-9.83191
ማደሪያ	-9.83597
ኃጢአተኛ	-9.84057
ታውቃላችሁ	-9.84058
ዙፋን	-9.84067
ማለዳ	-9.84173
ሰባቱ	-9.84345
ገራቸው	-9.84604
ከነዓን	-9.85111
ፈጸመ	-9.85117
ሰዓት	-9.85146
ነቢይ	-9.85153
ስምንት	-9.85214
ቶቻችሁ	-9.85232
በዓል	-9.85244
ጮኸ	-9.85446
ሠራዊቱ	-9.86175
ዓይኖች	-9.86176
የቀረው	-9.86302
አራቱ	-9.8638
መንግሥቱ	-9.86669
ሰምተ	-9.87138
መጋረጃ	-9.87249
ጻድቃን	-9.87249
ፍጻሜ	-9.87249
መለከቱ	-9.87274
ይሁኑ	-9.87304
ሥልጣን	-9.88336
ወፎች	-9.88337
ስጦታ	-9.88376
ተደረገ	-9.88423
በርሳቸው	-9.88433
አራዊት	-9.89435
አክዓብ	-9.89435
በእጅህ	-9.89511
ቸርነት	-9.90547
ሞገስ	-9.90558
ቅድስ	-9.90624
ፍየል	-9.90961
ታመን	-9.91146
ፍርሃት	-9.9167
ድንኳኑ	-9.9167
በረከት	-9.91749
ታደርግ	-9.91757
ጄ	-9.91848
መሰምርያዋ	-9.92806
መጨረሻ	-9.92806
ኜ	-9.92806
ምዕራብ	-9.92806
ወደዚያ	-9.92811
እግሩ	-9.92818
ራእይ	-9.92901
ጀመረ	-9.92927
ኤዶምያስ	-9.93955
ፊተኛው	-9.9396
ቅርብ	-9.94003
ኻ	-9.95118
ፈሪሳውያን	-9.95118
ሐዋርያ	-9.95118
ተሰበሰቡ	-9.95118
ሮቤል	-9.95121
ተገለጠ	-9.95123
አዲስ	-9.95133
በኵር	-9.9515
ናቡከደነፆር	-9.96295
ጪ	-9.96295
የዚያን	-9.96296
በሬዎች	-9.96307
ዘዛቸው	-9.96322
ባረከ	-9.96365
አባቶቻችሁ	-9.97487
ይወጣል	-9.97526
ፈጸም	-9.97534
ሰረገላ	-9.9869
ኃጢአታቸው	-9.9869
ጮኽ	-9.98692
ገለጥ	-9.98754
ዳንኤል	-9.98837
ሁለተኛ	-9.99298
አውቃለሁ	-9.9991
መልኩ	-9.9992
ፈረሶች	-9.99951
ሚችል	-10.0025
ዘወትር	-10.0114
ያገለግሉ	-10.0114
መግቢያ	-10.0115
ዘጋጅ	-10.0119
ተከተሉ	-10.0139
ገሊላ	-10.024
ፈልግ	-10.0243
ሦስቱ	-10.0366
ማስተዋል	-10.0367
ጠቦት	-10.0368
ቃሌን	-10.0371
ገደል	-10.0371
ዝናብ	-10.0372
በፍታ	-10.0382
ሚዛን	-10.0395
መድኃኒት	-10.0494
አባቶቻችን	-10.0494
ኢዮሣፍጥ	-10.0494
ሰረገሎች	-10.0624
ከለዳውያን	-10.0624
መንደሮች	-10.0624
ምሕረቱ	-10.0624
ፋሲካ	-10.0624
ፈንታ	-10.0628
ወንድምህ	-10.0644
ያደርጋ	-10.0712
ማኅበሩ	-10.0756
የዚህ	-10.0766
ኳ	-10.0875
ጠጕር	-10.089
ጸሎት	-10.089
ማርያም	-10.0933
ዑ	-10.1024
ሑ	-10.1024
ጣፋጭ	-10.1024
የቀሩት	-10.1025
እባክ	-10.1026
መላእክት	-10.1161
ዳግመኛ	-10.1161
ልጆቻችሁ	-10.1161
ዓመፃ	-10.1161
አሳልፌ	-10.1161
ደጃፍ	-10.1161
ስድሳ	-10.1165
ሕልም	-10.1174
ሊባኖስ	-10.13
አገልግሎት	-10.13
ኬብሮን	-10.13
ዛፎች	-10.13
ባሕሩ	-10.13
ክብሩ	-10.1302
አምላካቸው	-10.1441
አምላኩ	-10.1441
ዙፋኑ	-10.1441
የታመነ	-10.1441
ወንዙ	-10.1442
ቅሬታ	-10.1445
እልል	-10.1455
ዌ	-10.1557
ለሚቃጠል	-10.1584
ማኅበር	-10.1584
ሲኦል	-10.1584
አለቆቹ	-10.1584
ፃ	-10.1728
አሞራውያን	-10.1729
ዘጠኝ	-10.1729
ለዚህ	-10.1835
እውነተኛ	-10.1876
ጩኸት	-10.1876
እንዳደረገ	-10.1876
ሴኬም	-10.1876
ያውቃሉ	-10.1876
ምናልባት	-10.1876
ወስድ	-10.1879
ደኅና	-10.188
አሳልፈ	-10.1886
መሥዋዕ	-10.1942
ሽማግሌ	-10.2019
ኃጢአቱ	-10.2025
ዪ	-10.2025
ጸሐፊ	-10.2025
ድሆች	-10.203
መልካሙን	-10.2176
እንስሶች	-10.2177
ዱቄት	-10.2177
ኀዘን	-10.2177
መሐላ	-10.2178
ጠቢብ	-10.2178
ሰማያዊ	-10.2178
ፈሰሰ	-10.2259
እሰጣለሁ	-10.233
ኪሩቤል	-10.233
ዒ	-10.233
ወንድሞቻቸው	-10.233
አንደኛው	-10.233
አድርጋ	-10.2331
ተናገራቸው	-10.2332
የሚሆነውን	-10.2334
ሌዋውያኑ	-10.2487
ሴዴቅያስ	-10.2487
አምስተኛው	-10.2487
ርዝመቱ	-10.2487
አእምሮ	-10.2487
ወጥመድ	-10.2487
a	-10.2645
ኢያሪኮ	-10.2645
አበኔር	-10.2645
እሄዳለሁ	-10.2645
እንግዶች	-10.2645
እንግዳ	-10.2646
ተራራማው	-10.2648
በመጀመሪያው	-10.2648
ፈቀደ	-10.265
ላደረገ	-10.2656
ፈጠረ	-10.2657
ክርስቲያን	-10.2807
ግብፃውያን	-10.2807
መክሊት	-10.2807
ደማስቆ	-10.2807
ጠላቶቼ	-10.2807
ትዕቢት	-10.2807
ጠቦቶች	-10.2807
በለዓም	-10.2808
በየወገናቸው	-10.297
አመስግኑ	-10.297
አጋንንት	-10.297
ደብዳቤ	-10.297
ውኆች	-10.2971
ሐሤት	-10.2971
ሕያዋን	-10.2971
ኢዮብ	-10.2971
መጠጥ	-10.2983
ሒ	-10.3137
መቅሠፍት	-10.3137
በእርግጥ	-10.3137
ተጽፎአል	-10.3137
ዕረፍት	-10.3137
ዓመፅ	-10.3137
መታሰቢያ	-10.3137
በላያቸው	-10.3138
መርዶክዮስ	-10.3307
ማኅፀን	-10.3307
ትምህርት	-10.3307
ተአምራት	-10.3307
ቋንቋ	-10.3307
ዓይኔ	-10.3307
ጠላቶችህ	-10.3307
ኃይሉ	-10.3307
ታሪክ	-10.3307
ያቀርቡ	-10.3311
ጻፎች	-10.3479
አባታችን	-10.348
ይችላል	-10.348
ኤልሳዕ	-10.3655
ዐውሎ	-10.3655
ሕፃን	-10.3655
ይወድቃሉ	-10.3655
ጢሮስ	-10.3655
ይልቁን	-10.3655
በመካከላች	-10.3657
ሤ	-10.3833
ኢዮስያስ	-10.3833
ጲላጦስ	-10.3833
ይናገራል	-10.3833
መምህር	-10.3833
ሰይጣን	-10.3833
ታዘዙ	-10.3833
ተቀምጠው	-10.3833
ስንፍና	-10.3834
አስቴር	-10.3834
እግሮች	-10.3834
ኀ	-10.4015
መዝሙር	-10.4015
ሼ	-10.4015
ተግሣጽ	-10.4015
ድንጋጤ	-10.4015
አይደለሁም	-10.4015
ዠ	-10.42
ጵ	-10.4389
ቺ	-10.4577
ፅ	-10.458
ሂ	-10.5353
w	-10.582
ዢ	-10.6042
ኡ	-10.6502
ኚ	-10.7234
ጼ	-10.749
ጺ	-10.7753
𐋇	-10.8881
ጴ	-10.9184
ጬ	-10.9497
k	-11.0153
ጲ	-11.161
ዤ	-11.2426
ሢ	-11.2861
ቾ	-11.3316
ሓ	-11.3792
ፄ	-11.4818
𐊣	-11.5374
𐊼	-11.5374
g	-11.6587
ኹ	-11.7253
ኽ	-11.7967
r	-11.7968
d	-11.8737
ጰ	-11.8737
ጱ	-11.8737
ፕ	-11.957
ቧ	-11.957
ኆ	-12.0479
ጶ	-12.0479
ኺ	-12.148
ፆ	-12.3841
*	-12.3841
1	-12.3841
v	-12.5269
l	-12.6936
ፓ	-12.6936
"	-12.6936
ፐ	-12.6936
2	-12.8936
s	-12.8936
o	-13.4769
ፒ	-13.4769
ፑ	-13.4769
[	-13.4769
]	-13.4769
3	-13.4769
፤	-13.9767
ፂ	-13.9769
ቊ	-13.9769
ዷ	-13.9769
(	-13.9769
)	-13.9769
-	-13.9769
5	-13.9769
e	-14.9755
ሷ	-14.9756
t	-14.9757
ፔ	-14.9758
ኾ	-14.9759
ኄ	-14.976
ዡ	-14.9761
ዦ	-14.9762
ፁ	-14.9763
!	-14.9764
ኘ	-14.9765
ኞ	-14.9766
?	-14.9767
፥	-14.9768
b	-14.9769
ጧ	-14.9769
0	-14.9769
4	-14.9769
@	-14.9769
m	-14.9769
u	-14.9769
ሏ	-14.9769
ቷ	-14.9769
ቿ	-14.9769
ኗ	-14.9769
ኟ	-14.9769
ኲ	-14.9769
ኼ	-14.9769
ጒ	-14.9769
ፏ	-14.9769
።	-14.9769
