<pad>	0
</s>	0
<unk>	0
▁d	-0
▁s	-1
▁c	-2
er	-3
no	-4
▁p	-5
▁a	-6
▁i	-7
▁l	-8
re	-9
to	-10
▁e	-11
▁di	-12
el	-13
ra	-14
ti	-15
on	-16
▁m	-17
li	-18
te	-19
ri	-20
ro	-21
an	-22
▁f	-23
ta	-24
en	-25
▁v	-26
▁t	-27
▁il	-28
gli	-29
ia	-30
la	-31
io	-32
ss	-33
he	-34
▁la	-35
qu	-36
uo	-37
▁del	-38
▁in	-39
▁S	-40
▁per	-41
un	-42
▁co	-43
al	-44
▁g	-45
▁n	-46
es	-47
▁che	-48
▁no	-49
▁al	-50
▁qu	-51
▁con	-52
ar	-53
ch	-54
do	-55
va	-56
in	-57
lo	-58
co	-59
gno	-60
▁o	-61
▁tu	-62
▁Si	-63
▁le	-64
▁lo	-65
▁un	-66
▁I	-67
le	-68
po	-69
▁po	-70
me	-71
gnore	-72
▁non	-73
▁D	-74
▁si	-75
▁Signore	-76
▁su	-77
ci	-78
mo	-79
▁ri	-80
▁G	-81
tto	-82
ca	-83
▁se	-84
▁so	-85
di	-86
▁A	-87
▁pa	-88
▁de	-89
da	-90
ce	-91
de	-92
▁da	-93
▁re	-94
▁h	-95
era	-96
▁fi	-97
▁ca	-98
▁vi	-99
▁b	-100
se	-101
▁«	-102
st	-103
za	-104
ere	-105
▁vo	-106
▁E	-107
▁nel	-108
▁è	-109
ve	-110
▁ma	-111
tti	-112
ché	-113
sa	-114
▁loro	-115
▁te	-116
▁an	-117
vi	-118
▁sa	-119
▁suo	-120
▁M	-121
sse	-122
▁mi	-123
▁fa	-124
▁figli	-125
mp	-126
▁gli	-127
▁ci	-128
▁C	-129
mi	-130
one	-131
ui	-132
▁Dio	-133
zi	-134
ma	-135
tà	-136
gg	-137
ero	-138
iu	-139
▁pre	-140
▁me	-141
ni	-142
▁P	-143
si	-144
na	-145
▁ha	-146
or	-147
vo	-148
▁dal	-149
ran	-150
rono	-151
▁della	-152
▁pi	-153
▁perché	-154
bi	-155
▁ques	-156
▁come	-157
tro	-158
▁pro	-159
bb	-160
▁dei	-161
▁ne	-162
tte	-163
▁tuo	-164
so	-165
▁u	-166
ando	-167
sto	-168
▁gio	-169
ne	-170
anno	-171
ele	-172
sso	-173
ssi	-174
pi	-175
erà	-176
min	-177
hi	-178
▁una	-179
▁sono	-180
sra	-181
▁era	-182
tta	-183
▁N	-184
ale	-185
▁do	-186
eri	-187
▁man	-188
▁ave	-189
▁quel	-190
anti	-191
vano	-192
sc	-193
cco	-194
▁li	-195
che	-196
gi	-197
▁L	-198
ssa	-199
▁mo	-200
▁ti	-201
men	-202
▁io	-203
▁disse	-204
▁Isra	-205
sti	-206
pp	-207
▁sta	-208
▁alla	-209
tra	-210
▁sua	-211
▁ter	-212
▁mio	-213
▁sul	-214
chi	-215
▁popo	-216
▁tutti	-217
cc	-218
Qu	-219
▁figlio	-220
▁av	-221
fi	-222
▁Il	-223
▁fu	-224
cca	-225
go	-226
▁gior	-227
▁par	-228
rà	-229
▁ven	-230
▁B	-231
▁voi	-232
zione	-233
erò	-234
oni	-235
▁sp	-236
ese	-237
arà	-238
▁Qu	-239
▁suoi	-240
con	-241
tu	-242
anto	-243
▁T	-244
▁Ma	-245
zz	-246
ene	-247
tre	-248
enza	-249
▁popolo	-250
ru	-251
▁sac	-252
que	-253
▁lui	-254
tel	-255
▁ai	-256
▁giu	-257
▁por	-258
ul	-259
ff	-260
ue	-261
▁Al	-262
▁nella	-263
lora	-264
ga	-265
▁uo	-266
▁vost	-267
▁sc	-268
ranno	-269
▁fra	-270
▁questo	-271
▁F	-272
zia	-273
▁ris	-274
sì	-275
gni	-276
sco	-277
zza	-278
▁chi	-279
▁tra	-280
▁Giu	-281
sci	-282
▁più	-283
▁fe	-284
ven	-285
▁terra	-286
dre	-287
ba	-288
▁Da	-289
▁sarà	-290
tt	-291
▁dell	-292
▁contro	-293
ggi	-294
▁ser	-295
▁ra	-296
▁Israele	-297
ria	-298
tor	-299
▁aveva	-300
▁col	-301
sta	-302
▁ver	-303
▁egli	-304
▁paese	-305
▁com	-306
▁tua	-307
eli	-308
ttà	-309
rai	-310
▁città	-311
▁ho	-312
▁R	-313
▁tutto	-314
▁for	-315
ron	-316
ente	-317
iamo	-318
▁casa	-319
esti	-320
▁pri	-321
ani	-322
▁O	-323
▁ad	-324
eranno	-325
▁mia	-326
endo	-327
fa	-328
▁giorno	-329
▁paro	-330
du	-331
zzo	-332
oi	-333
ini	-334
uno	-335
mini	-336
▁anche	-337
▁ve	-338
elo	-339
▁degli	-340
▁poi	-341
▁dav	-342
gna	-343
▁pe	-344
▁nost	-345
▁Per	-346
▁Mo	-347
▁davanti	-348
».	-349
vide	-350
enti	-351
▁quando	-352
▁delle	-353
rio	-354
▁ch	-355
▁Davide	-356
▁Io	-357
▁Non	-358
▁all	-359
rò	-360
▁gran	-361
▁abb	-362
ei	-363
▁Co	-364
ten	-365
ine	-366
▁dalla	-367
▁mon	-368
ina	-369
▁Sa	-370
sp	-371
bbe	-372
ento	-373
▁Allora	-374
▁hai	-375
erai	-376
▁ba	-377
▁uomini	-378
lta	-379
▁ogni	-380
▁mor	-381
cchi	-382
esù	-383
unque	-384
▁Gesù	-385
▁fatto	-386
dere	-387
tri	-388
▁Se	-389
mpo	-390
▁des	-391
mme	-392
▁tuoi	-393
▁pie	-394
condo	-395
▁tro	-396
ter	-397
uto	-398
▁così	-399
dò	-400
gge	-401
anza	-402
▁noi	-403
▁gu	-404
ver	-405
erdo	-406
eru	-407
▁sacerdo	-408
▁mezzo	-409
▁né	-410
glio	-411
bo	-412
gu	-413
fe	-414
▁fratel	-415
▁bene	-416
tare	-417
▁na	-418
▁secondo	-419
▁dice	-420
rito	-421
▁ed	-422
▁due	-423
mpa	-424
chia	-425
▁erano	-426
uomo	-427
▁qua	-428
glia	-429
▁sal	-430
rd	-431
▁cuo	-432
sè	-433
▁Giuda	-434
▁V	-435
uni	-436
mento	-437
mpio	-438
▁Di	-439
▁gra	-440
ang	-441
▁Mosè	-442
▁tutte	-443
▁Poi	-444
▁Fi	-445
▁chia	-446
▁La	-447
sale	-448
salemme	-449
▁alle	-450
▁Geru	-451
▁Gerusalemme	-452
▁mano	-453
▁pu	-454
▁abi	-455
▁hanno	-456
pa	-457
ccia	-458
▁ste	-459
▁ar	-460
gn	-461
▁In	-462
lto	-463
▁fo	-464
ura	-465
cia	-466
pose	-467
sce	-468
eliti	-469
▁mani	-470
▁Gio	-471
▁sulla	-472
sero	-473
▁fino	-474
▁sia	-475
mpi	-476
▁cor	-477
glie	-478
▁padre	-479
cci	-480
▁fuo	-481
▁essi	-482
▁ta	-483
▁Israeliti	-484
ssero	-485
▁servi	-486
ste	-487
▁Ba	-488
▁sue	-489
▁porta	-490
▁tre	-491
▁vita	-492
zioni	-493
fatti	-494
rifi	-495
▁Tu	-496
▁ciò	-497
▁tor	-498
▁nome	-499
▁cuore	-500
elli	-501
mpre	-502
▁occhi	-503
▁questa	-504
▁cui	-505
▁pecca	-506
ona	-507
▁tempio	-508
▁tutta	-509
▁es	-510
▁uno	-511
▁grande	-512
lti	-513
▁sei	-514
▁nelle	-515
▁agli	-516
▁Pa	-517
entre	-518
▁Egli	-519
anta	-520
▁Quando	-521
▁parola	-522
erto	-523
▁far	-524
gia	-525
▁senza	-526
▁giorni	-527
zio	-528
mina	-529
▁spa	-530
▁verso	-531
▁cosa	-532
▁dunque	-533
mb	-534
ane	-535
rete	-536
▁die	-537
ana	-538
▁quelli	-539
cora	-540
▁ac	-541
▁stra	-542
mm	-543
▁miei	-544
pe	-545
▁-	-546
▁ten	-547
▁car	-548
▁pad	-549
ab	-550
gitto	-551
▁cre	-552
▁off	-553
▁quanto	-554
▁dove	-555
▁Chi	-556
▁ess	-557
?»	-558
▁nu	-559
qui	-560
eni	-561
!»	-562
▁Z	-563
▁en	-564
▁profe	-565
lla	-566
qua	-567
▁giusti	-568
▁asco	-569
▁capi	-570
▁Ora	-571
▁sop	-572
▁cose	-573
▁vol	-574
▁U	-575
▁fece	-576
▁diven	-577
▁anda	-578
▁capo	-579
▁usci	-580
▁Ri	-581
▁don	-582
esta	-583
▁tri	-584
rato	-585
▁tempo	-586
▁ro	-587
▁lib	-588
▁infatti	-589
ggio	-590
gui	-591
ena	-592
▁male	-593
▁ness	-594
▁parole	-595
▁spi	-596
▁rispose	-597
erci	-598
▁uomo	-599
alo	-600
▁pren	-601
mente	-602
▁ancora	-603
▁gen	-604
▁parte	-605
▁app	-606
su	-607
erete	-608
▁Cri	-609
▁sette	-610
▁nostro	-611
and	-612
▁to	-613
▁Cristo	-614
▁parla	-615
ge	-616
▁fratelli	-617
▁va	-618
tò	-619
▁cielo	-620
▁pres	-621
▁Ab	-622
▁chiama	-623
▁vostro	-624
▁luo	-625
▁sotto	-626
▁saranno	-627
▁poiché	-628
▁sopra	-629
scia	-630
tura	-631
▁quale	-632
▁mentre	-633
▁sacrifi	-634
ciò	-635
▁rico	-636
▁sempre	-637
▁quello	-638
por	-639
tato	-640
▁cono	-641
zo	-642
stru	-643
▁detto	-644
▁gi	-645
▁rif	-646
▁allora	-647
▁fuoco	-648
▁vostri	-649
▁tue	-650
▁scri	-651
anda	-652
▁Così	-653
▁Le	-654
▁alc	-655
menti	-656
▁Gli	-657
▁via	-658
▁Mi	-659
▁dopo	-660
▁stato	-661
▁dall	-662
▁sacerdote	-663
▁ord	-664
▁nei	-665
▁cin	-666
▁trova	-667
▁cu	-668
dici	-669
▁bo	-670
▁glo	-671
▁avete	-672
▁mangia	-673
ete	-674
▁An	-675
alle	-676
▁sor	-677
▁op	-678
ggia	-679
▁essa	-680
▁luogo	-681
▁insi	-682
▁qual	-683
▁Gia	-684
Isra	-685
chio	-686
▁legge	-687
una	-688
▁ecco	-689
▁anni	-690
Israele	-691
▁peccato	-692
▁fin	-693
▁Ecco	-694
ren	-695
▁forse	-696
cendo	-697
Egitto	-698
dia	-699
▁cer	-700
▁trib	-701
▁servo	-702
usa	-703
▁altri	-704
▁queste	-705
ante	-706
▁giustizia	-707
▁dai	-708
▁ucci	-709
▁ora	-710
▁morte	-711
mò	-712
per	-713
angue	-714
▁Eli	-715
▁sangue	-716
▁ascolta	-717
▁mie	-718
▁gri	-719
end	-720
▁questi	-721
▁pot	-722
oro	-723
▁prop	-724
▁solo	-725
▁essere	-726
▁padri	-727
cio	-728
▁cam	-729
▁dato	-730
▁Giaco	-731
▁Be	-732
mici	-733
▁spada	-734
ze	-735
▁nell	-736
onia	-737
eme	-738
▁giudi	-739
▁nessuno	-740
cato	-741
▁besti	-742
▁presso	-743
tevi	-744
▁Saul	-745
▁sacerdoti	-746
more	-747
cento	-748
▁là	-749
mone	-750
str	-751
▁guar	-752
▁eserci	-753
▁voce	-754
mila	-755
▁st	-756
▁regno	-757
▁stesso	-758
▁ge	-759
▁fare	-760
▁fratello	-761
▁lu	-762
stra	-763
▁avevano	-764
▁gia	-765
▁passa	-766
▁prima	-767
▁insieme	-768
ad	-769
▁sco	-770
▁fami	-771
▁H	-772
rda	-773
▁molti	-774
der	-775
tano	-776
▁schia	-777
ulla	-778
▁Giacobbe	-779
Non	-780
▁mis	-781
▁furono	-782
▁dov	-783
▁Perché	-784
▁aff	-785
▁tribù	-786
rire	-787
▁dalle	-788
bil	-789
ppe	-790
▁sca	-791
▁disp	-792
▁bocca	-793
▁donna	-794
▁gloria	-795
ella	-796
vece	-797
▁acc	-798
▁disc	-799
▁bu	-800
bili	-801
ardo	-802
▁ren	-803
▁dire	-804
ttro	-805
▁mai	-806
▁veni	-807
▁vesti	-808
ure	-809
ronne	-810
▁abit	-811
▁giun	-812
▁moglie	-813
rre	-814
ello	-815
▁nuo	-816
▁ce	-817
dito	-818
▁prese	-819
esto	-820
mora	-821
sser	-822
▁quella	-823
▁Do	-824
▁acco	-825
▁Aronne	-826
▁deserto	-827
▁primo	-828
▁Giude	-829
cin	-830
▁poten	-831
▁dicendo	-832
▁Ti	-833
ghi	-834
▁comp	-835
▁lavo	-836
lle	-837
vere	-838
▁quali	-839
▁pia	-840
▁conf	-841
este	-842
▁oggi	-843
▁siete	-844
▁invece	-845
▁mare	-846
▁popoli	-847
▁K	-848
arò	-849
mmo	-850
amo	-851
▁Ne	-852
loca	-853
anni	-854
▁mondo	-855
▁piedi	-856
▁colo	-857
▁distru	-858
▁abbiamo	-859
▁Fili	-860
▁tenda	-861
ont	-862
strui	-863
derà	-864
▁entra	-865
▁posto	-866
cchio	-867
▁causa	-868
▁monte	-869
▁fron	-870
▁sulle	-871
tten	-872
▁prof	-873
altare	-874
dato	-875
▁spe	-876
▁rivo	-877
gento	-878
▁Abra	-879
▁sap	-880
ac	-881
▁Babil	-882
▁notte	-883
▁nulla	-884
▁inse	-885
▁colui	-886
derò	-887
tanto	-888
▁Salo	-889
▁carne	-890
▁Babilonia	-891
?».	-892
▁So	-893
▁giov	-894
ai	-895
▁dico	-896
▁dissero	-897
▁levi	-898
▁Salomone	-899
▁fru	-900
erità	-901
▁anzi	-902
▁gente	-903
▁madre	-904
▁profeti	-905
▁eserciti	-906
▁nostri	-907
tua	-908
dine	-909
be	-910
tore	-911
▁cir	-912
tori	-913
locau	-914
▁faccia	-915
▁figlia	-916
▁guer	-917
▁	-918
e	-919
i	-920
a	-921
o	-922
r	-923
n	-924
l	-925
t	-926
s	-927
c	-928
d	-929
u	-930
p	-931
m	-932
g	-933
v	-934
,	-935
h	-936
f	-937
b	-938
z	-939
S	-940
q	-941
à	-942
'	-943
ò	-944
:	-945
I	-946
è	-947
D	-948
A	-949
G	-950
E	-951
é	-952
.	-953
;	-954
»	-955
«	-956
C	-957
M	-958
P	-959
ì	-960
ù	-961
N	-962
L	-963
?	-964
B	-965
Q	-966
T	-967
F	-968
!	-969
R	-970
O	-971
-	-972
V	-973
k	-974
U	-975
Z	-976
H	-977
K	-978
"	-979
1	-980
6	-981
(	-982
2	-983
)	-984
3	-985
4	-986
5	-987
7	-988
8	-989
0	-990
9	-991
J	-992
’	-993
]	-994
j	-995
}	-996
