<pad>	0
</s>	0
<unk>	0
▁a	-0
ch	-1
ea	-2
ai	-3
▁d	-4
th	-5
▁s	-6
in	-7
na	-8
▁c	-9
▁l	-10
▁t	-11
▁g	-12
bh	-13
▁f	-14
ir	-15
▁m	-16
▁ag	-17
ar	-18
il	-19
▁an	-20
is	-21
dh	-22
mh	-23
ío	-24
▁ch	-25
▁n	-26
us	-27
▁i	-28
ta	-29
▁agus	-30
▁ar	-31
an	-32
id	-33
▁le	-34
▁r	-35
air	-36
la	-37
▁bh	-38
ra	-39
gh	-40
▁co	-41
▁na	-42
on	-43
each	-44
▁b	-45
▁go	-46
eo	-47
éa	-48
ás	-49
nn	-50
▁do	-51
ao	-52
ach	-53
the	-54
iú	-55
áil	-56
▁th	-57
▁o	-58
▁p	-59
ain	-60
inn	-61
ine	-62
ear	-63
▁chu	-64
ei	-65
eas	-66
áin	-67
▁dh	-68
ia	-69
▁fh	-70
▁h	-71
aí	-72
te	-73
19	-74
ais	-75
co	-76
ean	-77
▁de	-78
▁bhf	-79
▁cov	-80
ig	-81
▁2	-82
▁T	-83
it	-84
cht	-85
▁é	-86
uair	-87
▁covid	-88
ír	-89
as	-90
-19	-91
▁nó	-92
tá	-93
io	-94
aithe	-95
▁v	-96
ile	-97
éad	-98
im	-99
▁ó	-100
▁’	-101
eadh	-102
▁in	-103
▁e	-104
igh	-105
aigh	-106
or	-107
eag	-108
abh	-109
ail	-110
anna	-111
▁seo	-112
adh	-113
íonn	-114
▁is	-115
▁C	-116
al	-117
▁du	-118
▁1	-119
▁D	-120
eann	-121
ithe	-122
▁gh	-123
▁mar	-124
▁mh	-125
aidh	-126
án	-127
▁fé	-128
▁gc	-129
ín	-130
aoine	-131
▁tú	-132
uil	-133
▁sh	-134
óg	-135
óir	-136
▁lá	-137
▁chun	-138
▁cho	-139
▁A	-140
íos	-141
▁eile	-142
áir	-143
▁I	-144
ad	-145
▁sa	-146
▁M	-147
áid	-148
ac	-149
▁bhfuil	-150
láin	-151
eacht	-152
ro	-153
tha	-154
▁(	-155
▁mb	-156
íodh	-157
▁ro	-158
▁or	-159
ian	-160
ic	-161
isc	-162
aith	-163
sc	-164
fh	-165
▁sé	-166
ur	-167
▁tá	-168
eal	-169
▁dt	-170
íoch	-171
▁cás	-172
ib	-173
ála	-174
eamh	-175
▁atá	-176
ith	-177
ol	-178
idir	-179
re	-180
▁níos	-181
▁mó	-182
ug	-183
cha	-184
▁aon	-185
▁tr	-186
▁vír	-187
▁N	-188
taí	-189
▁fao	-190
cov	-191
ús	-192
▁B	-193
▁má	-194
▁ná	-195
éana	-196
ial	-197
▁20	-198
▁ph	-199
éir	-200
▁sc	-201
arth	-202
ann	-203
▁comh	-204
rú	-205
▁Tá	-206
uir	-207
▁lea	-208
imh	-209
eith	-210
▁féidir	-211
▁á	-212
saí	-213
▁ion	-214
éim	-215
▁sláin	-216
ion	-217
ró	-218
mp	-219
dir	-220
eidh	-221
eanna	-222
ud	-223
aint	-224
▁io	-225
▁daoine	-226
uairisc	-227
tach	-228
éadf	-229
lú	-230
nach	-231
▁faoi	-232
saín	-233
▁leis	-234
▁duine	-235
acsaín	-236
▁sláinte	-237
▁Is	-238
▁sin	-239
éan	-240
▁u	-241
airt	-242
fhabh	-243
ars	-244
áis	-245
▁tás	-246
táil	-247
taithe	-248
▁vacsaín	-249
eagmh	-250
aibh	-251
▁víreas	-252
íon	-253
▁am	-254
tear	-255
▁bás	-256
iún	-257
le	-258
un	-259
▁tar	-260
úsáid	-261
ís	-262
▁S	-263
▁raibh	-264
raí	-265
os	-266
▁cú	-267
tar	-268
agh	-269
▁dhéana	-270
if	-271
▁as	-272
▁air	-273
▁ionfhabh	-274
▁chomh	-275
arthaí	-276
íomh	-277
ill	-278
▁dó	-279
▁F	-280
▁roinn	-281
▁4	-282
éar	-283
ua	-284
▁rá	-285
eoir	-286
▁ort	-287
teach	-288
▁sars	-289
▁ach	-290
eir	-291
▁3	-292
íocht	-293
sp	-294
ibh	-295
20	-296
▁st	-297
▁bheith	-298
éadfadh	-299
er	-300
▁dhéanamh	-301
▁úsáid	-302
áth	-303
▁idir	-304
▁agh	-305
▁aghaidh	-306
▁rud	-307
▁Má	-308
▁amh	-309
uairiscíodh	-310
idh	-311
íor	-312
▁iad	-313
▁An	-314
▁cl	-315
▁éis	-316
ip	-317
aid	-318
ras	-319
éal	-320
▁gach	-321
eola	-322
inne	-323
▁gur	-324
dú	-325
▁féin	-326
at	-327
▁im	-328
thair	-329
▁meas	-330
▁rial	-331
úir	-332
rta	-333
▁chóir	-334
thu	-335
▁nach	-336
ainn	-337
lach	-338
▁chur	-339
▁2020	-340
▁duit	-341
▁ann	-342
▁bhí	-343
▁ní	-344
ógra	-345
oir	-346
▁rio	-347
▁Ní	-348
▁nd	-349
aist	-350
aip	-351
reis	-352
▁comharthaí	-353
úil	-354
▁sia	-355
▁dhaoine	-356
▁L	-357
tas	-358
▁roinnt	-359
thar	-360
▁siad	-361
▁sco	-362
eabh	-363
▁ina	-364
▁den	-365
▁5	-366
nadh	-367
▁don	-368
▁fr	-369
eall	-370
▁san	-371
▁orthu	-372
íne	-373
▁ón	-374
óis	-375
iom	-376
▁ts	-377
▁G	-378
▁w	-379
ghl	-380
▁sr	-381
aile	-382
▁trí	-383
nacht	-384
▁fhéadfadh	-385
00	-386
aon	-387
eart	-388
▁líon	-389
▁thug	-390
▁sp	-391
▁ac	-392
radh	-393
da	-394
eachta	-395
acha	-396
ítear	-397
eagmháil	-398
▁gco	-399
int	-400
-2	-401
▁márta	-402
vir	-403
iúil	-404
lí	-405
▁ráig	-406
▁tástáil	-407
rom	-408
ásanna	-409
ag	-410
▁lena	-411
▁thar	-412
aim	-413
tála	-414
onraí	-415
eachtaí	-416
eidhm	-417
▁su	-418
▁to	-419
aine	-420
▁có	-421
▁po	-422
acht	-423
ru	-424
▁iar	-425
▁roimh	-426
▁ath	-427
▁dear	-428
vír	-429
en	-430
eic	-431
▁gn	-432
ist	-433
eacha	-434
▁amach	-435
naí	-436
▁gal	-437
▁cos	-438
▁lámh	-439
▁oib	-440
dach	-441
eá	-442
reisin	-443
▁freisin	-444
▁isteach	-445
aind	-446
▁scaip	-447
▁dóibh	-448
aindéim	-449
navir	-450
ianta	-451
▁neamh	-452
▁domh	-453
▁leat	-454
▁fáil	-455
nas	-456
▁amháin	-457
lán	-458
chtúir	-459
sh	-460
inic	-461
▁nuair	-462
▁bun	-463
ronavir	-464
▁mór	-465
rach	-466
▁lagh	-467
anacht	-468
aol	-469
ram	-470
uid	-471
abhairt	-472
se	-473
▁gheall	-474
▁tástála	-475
ronavirus	-476
▁ionfhabhtaithe	-477
tú	-478
▁chuig	-479
▁/	-480
▁mo	-481
eor	-482
▁br	-483
▁mí	-484
▁sonraí	-485
▁stá	-486
▁bhíonn	-487
fach	-488
mpla	-489
íochta	-490
▁coronavirus	-491
ois	-492
de	-493
▁gan	-494
▁áit	-495
áiste	-496
▁leor	-497
▁Tuairiscíodh	-498
▁tinn	-499
ráid	-500
▁tea	-501
nad	-502
▁linn	-503
aidir	-504
▁scoil	-505
ghlaigh	-506
st	-507
achta	-508
eabhra	-509
ura	-510
▁Mar	-511
▁chl	-512
▁nua	-513
▁hiom	-514
▁fanacht	-515
ór	-516
íortha	-517
ma	-518
ead	-519
▁Ch	-520
▁fháil	-521
eoirí	-522
▁lámha	-523
▁dá	-524
▁tír	-525
invír	-526
áirítear	-527
▁-	-528
▁cé	-529
▁Ag	-530
▁réir	-531
ll	-532
▁acu	-533
▁ard	-534
▁éig	-535
▁chuid	-536
▁ng	-537
úla	-538
iblí	-539
▁leith	-540
ún	-541
▁dho	-542
▁dul	-543
▁fud	-544
▁tug	-545
ialta	-546
aghaidh	-547
▁roimhe	-548
▁cásanna	-549
artha	-550
iúnta	-551
▁measc	-552
▁maidir	-553
eagmhála	-554
▁aontaithe	-555
▁2020,	-556
▁bhain	-557
pa	-558
▁feabhra	-559
▁scaipeadh	-560
ath	-561
éin	-562
-19.	-563
▁dtí	-564
▁teaghlaigh	-565
och	-566
sca	-567
▁sao	-568
aig	-569
▁fó	-570
eirbh	-571
▁chás	-572
▁uair	-573
▁aghaidhe	-574
anta	-575
▁aip	-576
▁Cuir	-577
▁haghaidh	-578
airle	-579
eirbhís	-580
ph	-581
▁6	-582
asc	-583
easta	-584
▁chéad	-585
ábh	-586
▁Déan	-587
ál	-588
▁bp	-589
iúla	-590
▁iom	-591
lúdach	-592
▁ba	-593
▁fo	-594
▁sna	-595
uithe	-596
▁R	-597
ait	-598
▁lean	-599
▁víris	-600
am	-601
aitheamh	-602
úis	-603
▁fógra	-604
eac	-605
▁tugadh	-606
ho	-607
▁bl	-608
aire	-609
dáil	-610
▁ean	-611
▁gla	-612
illiún	-613
▁riosp	-614
▁taist	-615
▁eanáir	-616
ios	-617
éil	-618
▁Ba	-619
spid	-620
scail	-621
▁chos	-622
▁rian	-623
eachas	-624
áirithe	-625
▁cuir	-626
▁bhaile	-627
▁éa	-628
ráide	-629
únadh	-630
▁leigh	-631
▁hiomláin	-632
chur	-633
eáil	-634
▁ghn	-635
▁ospid	-636
éis	-637
▁riospráide	-638
▁lu	-639
▁tsín	-640
▁tuairiscíodh	-641
éile	-642
oláth	-643
▁cinn	-644
▁poiblí	-645
▁thabhairt	-646
oc	-647
▁”	-648
▁déana	-649
óirí	-650
▁for	-651
▁mbeadh	-652
úr	-653
reag	-654
▁siú	-655
▁bhfeidhm	-656
▁7	-657
▁pr	-658
eala	-659
▁aois	-660
▁hcov	-661
iachta	-662
iar	-663
sco	-664
▁ain	-665
▁cur	-666
▁oibr	-667
▁maith	-668
▁chor	-669
ástáil	-670
▁faoin	-671
óisialta	-672
▁Co	-673
uais	-674
álacha	-675
tr	-676
liú	-677
▁cúram	-678
▁“	-679
▁Th	-680
▁agat	-681
ne	-682
▁9	-683
▁cu	-684
▁ei	-685
▁me	-686
faidh	-687
ard	-688
mhn	-689
▁déan	-690
▁choinne	-691
).	-692
ár	-693
aic	-694
▁10	-695
▁tu	-696
▁fad	-697
▁sha	-698
▁galar	-699
▁náis	-700
▁chuir	-701
ibre	-702
▁pháiste	-703
ló	-704
▁8	-705
tais	-706
▁leo	-707
▁bear	-708
▁tion	-709
▁feadh	-710
▁mhéad	-711
▁leighis	-712
▁bhaineann	-713
ae	-714
tí	-715
▁stáit	-716
fidh	-717
fhógra	-718
▁aibre	-719
▁leanaí	-720
▁éigean	-721
▁shampla	-722
000	-723
anda	-724
ca	-725
▁Bh	-726
▁gcásanna	-727
▁paindéim	-728
▁dhochtúir	-729
▁ionfhabhtú	-730
arr	-731
uigh	-732
▁tíortha	-733
han	-734
▁al	-735
,000	-736
ifig	-737
▁eis	-738
▁staid	-739
▁othair	-740
invíreas	-741
mpar	-742
orth	-743
▁oir	-744
stach	-745
▁ghal	-746
▁léir	-747
▁chaitheamh	-748
éid	-749
-19,	-750
bair	-751
▁clúdach	-752
▁scoileanna	-753
ladh	-754
▁éif	-755
uairt	-756
),	-757
▁14	-758
▁éir	-759
▁leibh	-760
▁srianta	-761
tóg	-762
▁Dí	-763
▁gá	-764
▁lé	-765
eimhn	-766
▁cóir	-767
▁teagmháil	-768
ob	-769
eog	-770
íní	-771
eath	-772
▁daon	-773
▁síne	-774
ábháil	-775
▁seirbhís	-776
▁Ná	-777
íobh	-778
mhair	-779
▁ionad	-780
eol	-781
▁lua	-782
▁fhor	-783
▁chéile	-784
▁4,	-785
▁Ar	-786
▁dí	-787
▁iomlán	-788
▁aibreán	-789
ón	-790
▁"	-791
ige	-792
pid	-793
char	-794
▁dhá	-795
▁fol	-796
▁seacht	-797
▁domhain	-798
▁rialtas	-799
gs	-800
ealt	-801
▁siúd	-802
íochaine	-803
iabh	-804
▁cor	-805
▁eag	-806
▁mhí	-807
racha	-808
orthaí	-809
áireamh	-810
▁dearbh	-811
▁toradh	-812
ub	-813
aoi	-814
róit	-815
▁who	-816
▁mbeidh	-817
aigheann	-818
▁Dífhógra	-819
▁Dífhógraíodh	-820
rón	-821
earr	-822
▁dearfach	-823
ers	-824
nann	-825
▁bhr	-826
▁fhóg	-827
íochtaí	-828
far	-829
▁cr	-830
romch	-831
▁beag	-832
asacht	-833
▁ospidéal	-834
▁sóisialta	-835
ims	-836
rao	-837
▁déanaí	-838
ní	-839
▁–	-840
iath	-841
uhan	-842
éigh	-843
▁las	-844
áinig	-845
aintín	-846
aíocht	-847
▁thástáil	-848
ss	-849
▁éags	-850
▁luath	-851
▁cuairt	-852
▁fhógair	-853
óm	-854
▁19	-855
▁dé	-856
eana	-857
iain	-858
▁aer	-859
▁tho	-860
▁mura	-861
▁frith	-862
▁fuair	-863
el	-864
▁ial	-865
▁minic	-866
gn	-867
all	-868
imp	-869
▁bu	-870
▁sio	-871
racht	-872
laíonn	-873
▁bunús	-874
▁thart	-875
amh	-876
ite	-877
éas	-878
▁dhear	-879
▁náisiúnta	-880
▁ho	-881
▁ré	-882
aisc	-883
▁tos	-884
▁ghla	-885
▁srian	-886
▁wuhan	-887
▁cosúil	-888
▁ghnáth	-889
▁ialtóg	-890
▁milliún	-891
▁chosaint	-892
uas	-893
eolas	-894
muigh	-895
▁bhás	-896
▁mbaol	-897
róitéin	-898
▁teagmhála	-899
▁ís	-900
aill	-901
ithr	-902
▁bia	-903
▁léinn	-904
iabhras	-905
▁bearta	-906
▁gníomh	-907
▁vacsaíní	-908
úirt	-909
▁aith	-910
raíonn	-911
▁leath	-912
▁éagsúla	-913
og	-914
oirm	-915
luais	-916
▁háirithe	-917
▁tionchar	-918
▁comhairle	-919
▁bhféadfadh	-920
onn	-921
▁24	-922
▁Bhí	-923
íonna	-924
pidéim	-925
▁choró	-926
▁sábháil	-927
▁lasmuigh	-928
▁O	-929
iúl	-930
paí	-931
▁11	-932
dála	-933
▁Níl	-934
▁mers	-935
▁theas	-936
eachais	-937
ág	-938
lan	-939
igiú	-940
▁lae	-941
lacha	-942
▁oibre	-943
▁cheart	-944
▁riosca	-945
▁thoradh	-946
sa	-947
um	-948
namh	-949
uine	-950
▁ans	-951
▁con	-952
▁cúr	-953
daigh	-954
scoil	-955
▁deir	-956
▁suas	-957
▁Beidh	-958
▁freag	-959
▁céanna	-960
ealtaine	-961
▁láthair	-962
▁riachta	-963
▁thuairisc	-964
▁fhaigheann	-965
▁fhé	-966
ainne	-967
▁láimh	-968
▁obair	-969
inneadh	-970
▁laghdú	-971
▁fhéidir	-972
▁ghalair	-973
ghn	-974
▁os	-975
eist	-976
ionn	-977
▁dír	-978
▁oid	-979
eanta	-980
nacha	-981
▁méad	-982
▁Chuir	-983
▁dúnadh	-984
▁leibhéal	-985
▁15	-986
▁De	-987
▁Go	-988
▁nós	-989
▁éad	-990
▁imdh	-991
scailte	-992
▁tinnis	-993
thú	-994
▁Cé	-995
isce	-996
▁géar	-997
▁gcuid	-998
▁teacht	-999
▁taistil	-1000
▁eipidéim	-1001
róinvíreas	-1002
▁bealtaine	-1003
▁choinneáil	-1004
ce	-1005
mó	-1006
rá	-1007
ich	-1008
▁lú	-1009
▁um	-1010
iana	-1011
▁eor	-1012
▁mac	-1013
▁laghad	-1014
▁príomh	-1015
▁casacht	-1016
▁cuireadh	-1017
▁fu	-1018
▁lár	-1019
▁dáil	-1020
ealach	-1021
tuithe	-1022
▁oifig	-1023
eolaíoch	-1024
▁torthaí	-1025
ara	-1026
▁masc	-1027
▁ceann	-1028
achtach	-1029
oireann	-1030
▁bliain	-1031
▁óstach	-1032
▁dearbhaithe	-1033
▁dr	-1034
▁átha	-1035
▁airde	-1036
▁bharr	-1037
▁tarchur	-1038
fa	-1039
▁j	-1040
▁ta	-1041
▁fós	-1042
bairt	-1043
gnóis	-1044
▁2019	-1045
▁cabh	-1046
▁tábh	-1047
▁garth	-1048
▁leanú	-1049
luaiseachtaí	-1050
▁P	-1051
ang	-1052
▁23	-1053
▁tac	-1054
▁deac	-1055
▁imní	-1056
mhithe	-1057
nachta	-1058
▁othar	-1059
▁dochtúir	-1060
▁éigeandála	-1061
cs	-1062
es	-1063
aoin	-1064
éamh	-1065
iaidh	-1066
▁Mura	-1067
▁sain	-1068
▁mheas	-1069
aistigh	-1070
op	-1071
aisn	-1072
aobh	-1073
▁más	-1074
álach	-1075
▁ceal	-1076
▁eolas	-1077
aisnéis	-1078
▁cheann	-1079
óireacht	-1080
sí	-1081
▁12	-1082
▁chó	-1083
▁nol	-1084
▁cosc	-1085
▁síos	-1086
▁teor	-1087
▁cliath	-1088
▁iompar	-1089
▁láithr	-1090
eitheamh	-1091
eastaíonn	-1092
▁rialtais	-1093
▁coraintín	-1094
náis	-1095
▁thr	-1096
▁tóg	-1097
áistí	-1098
▁iarr	-1099
▁líne	-1100
daithe	-1101
▁iodáil	-1102
▁soláth	-1103
▁taisteal	-1104
▁meitheamh	-1105
ene	-1106
faí	-1107
tra	-1108
ách	-1109
éit	-1110
▁13	-1111
▁oll	-1112
▁leag	-1113
eastal	-1114
▁clinic	-1115
▁fiabhras	-1116
oil	-1117
óil	-1118
▁ár	-1119
éimh	-1120
▁Cuireadh	-1121
dar	-1122
tiú	-1123
▁ae	-1124
aisp	-1125
iond	-1126
▁ais	-1127
▁chú	-1128
▁cru	-1129
▁fss	-1130
raith	-1131
ugtar	-1132
▁fliú	-1133
▁meán	-1134
▁2020.	-1135
▁Nuair	-1136
▁sampla	-1137
▁dáileog	-1138
▁gcoinne	-1139
▁ndaoine	-1140
náisiúnta	-1141
▁laistigh	-1142
▁dteagmháil	-1143
1,	-1144
ná	-1145
eis	-1146
ing	-1147
íol	-1148
▁22	-1149
▁ró	-1150
ears	-1151
uill	-1152
áirt	-1153
▁pob	-1154
agann	-1155
▁héir	-1156
▁cionn	-1157
▁rianú	-1158
itianta	-1159
▁fhéadf	-1160
fr	-1161
oig	-1162
▁cuid	-1163
▁drug	-1164
iagnóis	-1165
rachtaí	-1166
▁imdhío	-1167
airíonna	-1168
▁dhiaidh	-1169
▁tháinig	-1170
▁bunaithe	-1171
▁chomharthaí	-1172
▁idirnáisiúnta	-1173
eap	-1174
eil	-1175
ibr	-1176
óid	-1177
▁Sc	-1178
aigin	-1179
chtaí	-1180
▁fair	-1181
abhair	-1182
aighde	-1183
▁Léigh	-1184
▁chloig	-1185
▁cúraim	-1186
▁mhéadar	-1187
▁iarracht	-1188
▁ainmhithe	-1189
om	-1190
▁18	-1191
▁pl	-1192
aise	-1193
obal	-1194
▁gcó	-1195
tharl	-1196
▁baint	-1197
▁chosc	-1198
raothar	-1199
▁fhreag	-1200
▁áirithe	-1201
▁oibrithe	-1202
mpt	-1203
▁30	-1204
▁thu	-1205
▁thóg	-1206
▁daonna	-1207
▁dhuine	-1208
▁galair	-1209
▁sholáth	-1210
▁freastal	-1211
▁seirbhísí	-1212
laí	-1213
lín	-1214
▁16	-1215
áirg	-1216
éann	-1217
eatha	-1218
▁tapa	-1219
staint	-1220
▁ndéan	-1221
▁pears	-1222
▁díreach	-1223
▁deireadh	-1224
árta	-1225
▁200	-1226
▁fiú	-1227
▁mho	-1228
aithn	-1229
aíonn	-1230
▁céim	-1231
▁stát	-1232
▁tíre	-1233
raithe	-1234
▁réamh	-1235
▁bhaint	-1236
▁staidéar	-1237
raothartach	-1238
▁chomhairle	-1239
▁í	-1240
ioc	-1241
aoil	-1242
údar	-1243
▁Ach	-1244
ógais	-1245
▁cúis	-1246
▁fhág	-1247
éimhse	-1248
invíris	-1249
iúltach	-1250
▁sheach	-1251
ionfhabh	-1252
▁dhearbh	-1253
▁thagann	-1254
▁básmhair	-1255
▁próitéin	-1256
▁áiteanna	-1257
▁coitianta	-1258
▁imdhíonachta	-1259
.3	-1260
aif	-1261
omh	-1262
rúpa	-1263
tair	-1264
▁Tar	-1265
ghabh	-1266
ineál	-1267
reise	-1268
▁dara	-1269
▁rogh	-1270
achtar	-1271
innigh	-1272
▁eagra	-1273
▁rialú	-1274
▁glaoch	-1275
eachtach	-1276
▁bunúsacha	-1277
▁pearsanta	-1278
▁foláireamh	-1279
iv	-1280
úl	-1281
tae	-1282
▁2,	-1283
fear	-1284
lúth	-1285
únta	-1286
ailiú	-1287
aradh	-1288
oltar	-1289
▁fíne	-1290
▁méid	-1291
arthas	-1292
iscint	-1293
osaigh	-1294
▁caith	-1295
▁déine	-1296
▁fearr	-1297
▁gcomh	-1298
▁bheidh	-1299
▁cabhrú	-1300
aireacht	-1301
▁ialtóga	-1302
▁z	-1303
eán	-1304
fra	-1305
nna	-1306
▁26	-1307
iúmó	-1308
▁eit	-1309
▁rna	-1310
▁pian	-1311
ealamh	-1312
▁chinn	-1313
▁chúis	-1314
▁mbaile	-1315
ubstaint	-1316
▁mbásanna	-1317
rán	-1318
▁sí	-1319
bhar	-1320
▁Amh	-1321
▁Ina	-1322
▁cón	-1323
▁eas	-1324
▁sla	-1325
aonrú	-1326
iúint	-1327
untas	-1328
▁Faoi	-1329
▁gcás	-1330
▁teas	-1331
▁timp	-1332
láinte	-1333
ruithe	-1334
▁antas	-1335
▁seach	-1336
ialacha	-1337
iúmóine	-1338
▁amhras	-1339
▁mhárta	-1340
uilleadh	-1341
▁saotharl	-1342
▁hairíonna	-1343
dc	-1344
▁Ú	-1345
iúr	-1346
ost	-1347
▁25	-1348
▁nú	-1349
▁dea	-1350
▁dta	-1351
▁dtr	-1352
▁ainm	-1353
▁aire	-1354
▁fola	-1355
▁níor	-1356
▁uait	-1357
scailt	-1358
▁ansin	-1359
▁beidh	-1360
▁ceart	-1361
eantair	-1362
lúdaigh	-1363
▁cheana	-1364
▁daonra	-1365
▁feidhm	-1366
▁domhanda	-1367
▁víreasach	-1368
▁thuairiscigh	-1369
0%	-1370
sta	-1371
chúr	-1372
eang	-1373
rain	-1374
▁lig	-1375
▁éil	-1376
▁arís	-1377
▁bhrí	-1378
▁forl	-1379
▁sula	-1380
▁ndear	-1381
eiceáil	-1382
ianaise	-1383
íobháid	-1384
▁Amhail	-1385
▁leanbh	-1386
▁mbíonn	-1387
▁éadrom	-1388
romchúis	-1389
▁neamhsh	-1390
eagmhálaí	-1391
▁héireann	-1392
mhíochaine	-1393
▁míochaine	-1394
▁sraothartach	-1395
▁ghluaiseachtaí	-1396
bhr	-1397
▁1,	-1398
▁Ús	-1399
eich	-1400
rtha	-1401
▁uir	-1402
mptóm	-1403
▁Níor	-1404
▁aims	-1405
▁eorp	-1406
víreas	-1407
▁gcuir	-1408
▁measa	-1409
▁Úsáid	-1410
álaithe	-1411
▁deimhn	-1412
▁ionaid	-1413
▁pobail	-1414
▁cosanta	-1415
▁covanna	-1416
eolaíocht	-1417
▁chásanna	-1418
eolaíochta	-1419
▁bpaindéim	-1420
▁géarmhíochaine	-1421
▁ionfhabhtuithe	-1422
3,	-1423
ifr	-1424
nat	-1425
▁17	-1426
itiú	-1427
laig	-1428
mhór	-1429
ógas	-1430
▁202	-1431
▁ama	-1432
cháin	-1433
lanna	-1434
▁Lean	-1435
▁baol	-1436
▁mhór	-1437
eánach	-1438
▁conas	-1439
▁drugaí	-1440
▁sláint	-1441
▁treoir	-1442
▁nollaig	-1443
▁dhéanann	-1444
▁láithreach	-1445
▁tábhachtach	-1446
ns	-1447
to	-1448
che	-1449
pad	-1450
▁28	-1451
aois	-1452
aolú	-1453
eicn	-1454
rath	-1455
zene	-1456
éarm	-1457
▁eol	-1458
▁hio	-1459
chuir	-1460
eoidh	-1461
▁scag	-1462
▁súil	-1463
athair	-1464
zeneca	-1465
▁cófra	-1466
▁dhéan	-1467
eachtain	-1468
ubstaintí	-1469
▁ollscoil	-1470
▁ospidéil	-1471
▁rianaire	-1472
▁sheachaint	-1473
lo	-1474
▁k	-1475
ghal	-1476
nama	-1477
▁sín	-1478
▁Agus	-1479
▁bain	-1480
▁dtús	-1481
ghlaim	-1482
teacht	-1483
▁chéim	-1484
▁gcéad	-1485
▁laeth	-1486
▁rinne	-1487
ataigin	-1488
▁dtugtar	-1489
trazeneca	-1490
óireachta	-1491
▁timpeall	-1492
▁eagraíocht	-1493
▁choróinvíris	-1494
ga	-1495
róm	-1496
▁21	-1497
▁3,	-1498
▁pá	-1499
▁sm	-1500
imid	-1501
llmh	-1502
oibr	-1503
oigh	-1504
▁dío	-1505
▁phl	-1506
fraic	-1507
ibear	-1508
lacht	-1509
tráil	-1510
íochán	-1511
▁dheir	-1512
▁dhomh	-1513
iondróm	-1514
▁againn	-1515
▁breise	-1516
▁gceart	-1517
▁siopad	-1518
▁niúmóine	-1519
ior	-1520
éif	-1521
▁Dh	-1522
▁mu	-1523
cadh	-1524
fadh	-1525
itis	-1526
onad	-1527
áine	-1528
éacs	-1529
▁fás	-1530
▁phr	-1531
ardaí	-1532
eiric	-1533
iméad	-1534
▁aige	-1535
▁bhun	-1536
▁fion	-1537
▁fios	-1538
▁stop	-1539
▁Dúirt	-1540
▁córas	-1541
▁rudaí	-1542
inneach	-1543
▁láimhe	-1544
▁reatha	-1545
▁suntas	-1546
▁chibear	-1547
▁comhair	-1548
▁áireamh	-1549
▁faisnéis	-1550
▁tuairisc	-1551
▁fhorbairt	-1552
▁sábháilte	-1553
nú	-1554
irí	-1555
lat	-1556
únú	-1557
▁Ro	-1558
▁di	-1559
▁dhí	-1560
▁eac	-1561
▁ear	-1562
▁str	-1563
iosta	-1564
róidh	-1565
▁cúig	-1566
▁dian	-1567
▁fada	-1568
▁glan	-1569
▁nasc	-1570
▁údar	-1571
eannta	-1572
ghlach	-1573
▁athrú	-1574
▁bhéal	-1575
▁dlúth	-1576
▁dúnta	-1577
▁gnáth	-1578
▁méadú	-1579
mparáid	-1580
▁amhail	-1581
▁bliana	-1582
▁oiread	-1583
▁spreag	-1584
eachtais	-1585
▁cosaint	-1586
▁chinntiú	-1587
▁diagnóis	-1588
▁diúltach	-1589
▁riochtaí	-1590
▁tréimhse	-1591
▁dhomhanda	-1592
▁imeachtaí	-1593
▁oideachais	-1594
29	-1595
ter	-1596
▁aic	-1597
▁pol	-1598
airtí	-1599
arasc	-1600
eocht	-1601
shlat	-1602
éanna	-1603
▁nádú	-1604
▁saor	-1605
eithre	-1606
scoile	-1607
▁díobh	-1608
▁maisc	-1609
▁scamh	-1610
▁shrón	-1611
▁taobh	-1612
▁thugann	-1613
▁uachtar	-1614
▁paindéime	-1615
▁seirbhíse	-1616
▁tromchúis	-1617
▁seachtaine	-1618
▁theastaíonn	-1619
▁vacsaínithe	-1620
▁éifeachtach	-1621
▁chibearshlat	-1622
aib	-1623
idí	-1624
lis	-1625
eáin	-1626
ghla	-1627
álta	-1628
▁Tug	-1629
rúpaí	-1630
thóir	-1631
▁bith	-1632
▁chon	-1633
▁fhad	-1634
▁Caith	-1635
▁uisce	-1636
aithnid	-1637
▁aonair	-1638
▁leagan	-1639
▁eacnama	-1640
▁cóireáil	-1641
▁dtíortha	-1642
▁oscailte	-1643
▁trealamh	-1644
▁phaindéim	-1645
▁sholáthar	-1646
▁tástálacha	-1647
▁astrazeneca	-1648
▁coróinvíreas	-1649
br	-1650
me	-1651
ghd	-1652
▁50	-1653
▁In	-1654
▁il	-1655
▁tí	-1656
eadú	-1657
itic	-1658
róis	-1659
éach	-1660
▁Más	-1661
▁cum	-1662
▁gar	-1663
▁gnó	-1664
▁nár	-1665
▁tob	-1666
ailís	-1667
ochta	-1668
▁atho	-1669
▁cath	-1670
▁uimh	-1671
ialach	-1672
mhainn	-1673
naíonn	-1674
éanann	-1675
▁uirth	-1676
▁cruinn	-1677
▁eisigh	-1678
▁gardaí	-1679
▁idirmh	-1680
▁liosta	-1681
▁phobal	-1682
▁scamhóg	-1683
▁scaradh	-1684
▁seachas	-1685
▁Oscailte	-1686
▁hcovanna	-1687
▁staidéir	-1688
▁tabhairt	-1689
▁vacsaíniú	-1690
▁úsáideann	-1691
▁cliniciúla	-1692
cr	-1693
iz	-1694
▁'	-1695
ilt	-1696
▁at	-1697
▁so	-1698
chán	-1699
lann	-1700
úile	-1701
▁cro	-1702
▁ind	-1703
olann	-1704
▁ráta	-1705
▁samh	-1706
áraigh	-1707
▁bhfad	-1708
▁bíonn	-1709
▁dócha	-1710
▁taire	-1711
▁toisc	-1712
illeadh	-1713
lachtaí	-1714
riachta	-1715
▁curtha	-1716
▁fionraí	-1717
▁samplaí	-1718
▁fhéadfaí	-1719
▁thosaigh	-1720
▁fhoireann	-1721
▁rianaithe	-1722
ge	-1723
ein	-1724
▁29	-1725
rais	-1726
▁100	-1727
▁Cén	-1728
▁gin	-1729
chéim	-1730
línte	-1731
oladh	-1732
▁deara	-1733
▁gcaoi	-1734
▁monat	-1735
▁rátaí	-1736
▁speis	-1737
aíochta	-1738
▁dromch	-1739
▁gcónaí	-1740
▁suíomh	-1741
▁uirthi	-1742
▁anailís	-1743
▁chlinic	-1744
▁taighde	-1745
▁thógáil	-1746
▁tinneas	-1747
iallaíonn	-1748
▁teastáil	-1749
▁tógálach	-1750
▁seachtain	-1751
▁antasubstaintí	-1752
.5	-1753
ab	-1754
.30	-1755
eim	-1756
▁27	-1757
▁31	-1758
▁gr	-1759
▁nu	-1760
aite	-1761
alar	-1762
eans	-1763
▁inn	-1764
▁scr	-1765
dáile	-1766
eicis	-1767
oirch	-1768
éanóm	-1769
íocha	-1770
▁céad	-1771
▁difr	-1772
▁shoc	-1773
▁tosú	-1774
aifead	-1775
duithe	-1776
iteach	-1777
bhreith	-1778
eiriceá	-1779
▁domhan	-1780
▁ghalar	-1781
▁thaist	-1782
▁éirinn	-1783
aíochtaí	-1784
itheoirí	-1785
▁Déantar	-1786
▁bhfaigh	-1787
▁hiodáile	-1788
▁nádúrtha	-1789
▁theannta	-1790
▁leanúnach	-1791
▁coronaviruses	-1792
2,	-1793
eam	-1794
ism	-1795
▁rc	-1796
nais	-1797
óidh	-1798
úram	-1799
▁Gla	-1800
▁the	-1801
iorra	-1802
nithe	-1803
▁coró	-1804
▁foir	-1805
▁marg	-1806
▁muid	-1807
▁slán	-1808
▁srón	-1809
▁tríd	-1810
▁ísle	-1811
aitéis	-1812
▁Bíonn	-1813
▁anois	-1814
▁dúirt	-1815
▁eacht	-1816
▁fhios	-1817
▁stair	-1818
▁teach	-1819
▁éigin	-1820
ghníomh	-1821
iomptóm	-1822
▁coinne	-1823
▁iaráin	-1824
▁Tháinig	-1825
▁tosaigh	-1826
▁beagnach	-1827
▁leibhéil	-1828
▁tuiscint	-1829
▁fhreagairt	-1830
▁shóisialta	-1831
▁neamhriachta	-1832
▁choróinvíreas	-1833
▁gartheagmhálaí	-1834
arc	-1835
lár	-1836
ong	-1837
rio	-1838
▁Mh	-1839
▁no	-1840
reid	-1841
tran	-1842
▁Fan	-1843
▁bhu	-1844
▁brú	-1845
▁iúl	-1846
▁oil	-1847
▁pho	-1848
▁tag	-1849
covid	-1850
ealaí	-1851
rasaí	-1852
throm	-1853
▁Léir	-1854
▁coim	-1855
▁ithe	-1856
▁modh	-1857
▁thea	-1858
daíonn	-1859
oiléir	-1860
▁anseo	-1861
▁anála	-1862
▁ráige	-1863
▁íseal	-1864
covanna	-1865
earálta	-1866
tacháin	-1867
teachas	-1868
▁cinnte	-1869
▁gceist	-1870
▁leithr	-1871
▁oiriún	-1872
▁théann	-1873
▁bhailiú	-1874
▁ceithre	-1875
▁hiomlán	-1876
▁iarraidh	-1877
▁siondróm	-1878
▁tharchur	-1879
▁éifeacht	-1880
▁suntasach	-1881
▁speisialta	-1882
▁saotharlainne	-1883
▁básmhaireachta	-1884
18	-1885
7,	-1886
ed	-1887
eid	-1888
icl	-1889
ire	-1890
las	-1891
ord	-1892
tao	-1893
ána	-1894
▁ua	-1895
inse	-1896
ubei	-1897
éine	-1898
▁ant	-1899
▁níl	-1900
▁soc	-1901
▁tor	-1902
earta	-1903
feadh	-1904
tanas	-1905
▁Bain	-1906
▁Thug	-1907
▁chru	-1908
▁faid	-1909
▁inst	-1910
▁mbás	-1911
chtain	-1912
ástála	-1913
▁Fuair	-1914
▁fásta	-1915
chúraim	-1916
▁cúnamh	-1917
aitheann	-1918
aoiseach	-1919
iúrthóir	-1920
▁chineál	-1921
▁fíneáil	-1922
▁tuarasc	-1923
▁	-1924
a	-1925
i	-1926
h	-1927
n	-1928
r	-1929
e	-1930
t	-1931
s	-1932
o	-1933
c	-1934
l	-1935
d	-1936
g	-1937
á	-1938
m	-1939
u	-1940
í	-1941
b	-1942
f	-1943
é	-1944
ú	-1945
ó	-1946
.	-1947
,	-1948
p	-1949
v	-1950
-	-1951
1	-1952
2	-1953
0	-1954
9	-1955
T	-1956
’	-1957
C	-1958
3	-1959
D	-1960
4	-1961
A	-1962
I	-1963
M	-1964
5	-1965
)	-1966
(	-1967
N	-1968
B	-1969
6	-1970
8	-1971
7	-1972
S	-1973
w	-1974
:	-1975
F	-1976
L	-1977
y	-1978
G	-1979
%	-1980
"	-1981
/	-1982
k	-1983
z	-1984
“	-1985
R	-1986
;	-1987
”	-1988
'	-1989
–	-1990
j	-1991
O	-1992
x	-1993
P	-1994
?	-1995
Ú	-1996
