<pad>	0
</s>	0
<unk>	0
▁¦	-0
▁်	-1
ို	-2
ော	-3
▁့	-4
ား	-5
ကို	-6
▁့်	-7
တို	-8
သည	-9
သော	-10
ကြ	-11
ရှ	-12
▁၊	-13
တော	-14
ပြ	-15
▁၏	-16
ောင	-17
သူ	-18
နှ	-19
▁၏။	-20
ြင	-21
မျ	-22
မှ	-23
ုရ	-24
မူ	-25
ောက	-26
ဘုရ	-27
သို	-28
ိမ	-29
ငါ	-30
ီး	-31
မည	-32
မြ	-33
နှင	-34
▁်၊	-35
ေး	-36
သင	-37
ိုး	-38
ဘုရား	-39
လျ	-40
ကျ	-41
▁၍	-42
▁။	-43
ရှိ	-44
ခြင	-45
ထို	-46
ုံ	-47
ဖြ	-48
သား	-49
ရာ	-50
ဟု	-51
ပါ	-52
ချ	-53
▁်။	-54
ေါ	-55
စေ	-56
ွန	-57
▁္	-58
▁်၍	-59
▁်၏	-60
ဖြစ	-61
ကား	-62
လည	-63
သူတို	-64
ုပ	-65
ာဝ	-66
နေ	-67
ထာဝ	-68
ထာဝရ	-69
ကြောင	-70
မျိုး	-71
လူ	-72
ိန	-73
လျှ	-74
ထာဝရဘုရား	-75
ွင	-76
ပေါ	-77
??	-78
အား	-79
▁်၌	-80
မြို	-81
ိတ	-82
ခင	-83
ုန	-84
ုံး	-85
အဘ	-86
အခ	-87
အမျိုး	-88
လော	-89
ွား	-90
ရှင	-91
သခင	-92
ိုင	-93
ကိုယ	-94
ပြု	-95
ုတ	-96
▁၌	-97
မှာ	-98
ရေ	-99
ကျွန	-100
လျှင	-101
သက	-102
လိမ	-103
များ	-104
းကို	-105
ပြည	-106
တည	-107
တိုင	-108
လျက	-109
လေ	-110
ဖြင	-111
ခံ	-112
မိန	-113
သောသူ	-114
ကြီး	-115
ဘုရားသခင	-116
▁၍၊	-117
ဆို	-118
ငှ	-119
သွား	-120
မျှ	-121
ကောင	-122
ရှေ	-123
တွင	-124
လက	-125
အခါ	-126
ထား	-127
ွေ	-128
လာ	-129
ငှါ	-130
အမှ	-131
သန	-132
ိုက	-133
▁်၍၊	-134
▁့။	-135
▁့်၊	-136
ပေး	-137
အပေါ	-138
ွှ	-139
အလ	-140
းတို	-141
ပြီ	-142
ွက	-143
အရ	-144
မင	-145
အဘယ	-146
အာ	-147
သရေ	-148
သေ	-149
▁်၏။	-150
အကြောင	-151
တတ	-152
ယေ	-153
အကျွန	-154
????	-155
းငှါ	-156
းသော	-157
တရ	-158
နှစ	-159
အစ	-160
မိမ	-161
ွာ	-162
လင	-163
းမ	-164
▁၎	-165
အမှု	-166
နာ	-167
ဣသရေ	-168
▁့၌	-169
ဣသရေလ	-170
ရောက	-171
မိမိ	-172
မြင	-173
ပြစ	-174
သာ	-175
ပြော	-176
ရမည	-177
တောင	-178
စား	-179
းက	-180
သားတို	-181
အပေါင	-182
အရာ	-183
ူး	-184
ကာ	-185
တရား	-186
ွေး	-187
ပြီး	-188
စကား	-189
ယောက	-190
မူကား	-191
ပျ	-192
မီး	-193
နိုင	-194
ယဇ	-195
ဆင	-196
ဝိ	-197
ငါတို	-198
သတ	-199
နား	-200
စာ	-201
ွဲ	-202
မျက	-203
ဘုရင	-204
အရပ	-205
ဆောင	-206
ရှု	-207
သဖြင	-208
လုံး	-209
ပင	-210
အသက	-211
▁့၏	-212
သမျှ	-213
ဖန	-214
အပြစ	-215
ထဲ	-216
လှ	-217
▁့၊	-218
စွာ	-219
လွှ	-220
သောအခါ	-221
ရင	-222
အသ	-223
အတိုင	-224
ဟူ	-225
သိ	-226
ခြ	-227
စိတ	-228
ရှိသော	-229
မြေ	-230
ပြန	-231
ကဲ	-232
စုံ	-233
ထောင	-234
ယော	-235
အချ	-236
ငါသည	-237
ပါး	-238
ပည	-239
ွယ	-240
မိ	-241
ယူ	-242
▁်္	-243
စေခြင	-244
နောက	-245
ရဲ	-246
တံ	-247
ဘက	-248
ရသော	-249
ကြလော	-250
ခေါ	-251
သူသည	-252
အိမ	-253
အောင	-254
ကြလိမ	-255
တိ	-256
ဣသရေလအမျိုး	-257
လမ	-258
ာန	-259
ကြား	-260
ထံ	-261
မူသော	-262
ခါ	-263
နည	-264
လူတို	-265
ကြည	-266
စီ	-267
လိုက	-268
တဖန	-269
ရု	-270
တူ	-271
ထွက	-272
ရော	-273
မူသည	-274
အားဖြင	-275
ဘဲ	-276
းတော	-277
ဆယ	-278
နှုတ	-279
ရိ	-280
ုဒ	-281
လုပ	-282
ထိုသို	-283
စစ	-284
မော	-285
ထာဝရဘုရားသည	-286
ပြင	-287
တင	-288
းကင	-289
ဝင	-290
ယုဒ	-291
သနည	-292
စီရင	-293
လွှတ	-294
ကျင	-295
တန	-296
များကို	-297
သိမ	-298
ခု	-299
ပူ	-300
လု	-301
ိပ	-302
တပါး	-303
ဒါ	-304
ကလည	-305
ဟုတ	-306
ပတ	-307
ဘော	-308
တု	-309
ဇော	-310
းကြီး	-311
ာဉ	-312
ရကြ	-313
ဝတ	-314
စောင	-315
မာ	-316
ရစ	-317
တယောက	-318
မူပါ	-319
ညီ	-320
ချင	-321
????????	-322
ဦး	-323
ခဲ	-324
ကာလ	-325
ွတ	-326
မရှိ	-327
ရှိသမျှ	-328
ထက	-329
မဟုတ	-330
စကားကို	-331
မေ	-332
သောသူတို	-333
ပူဇော	-334
လျှောက	-335
ကယ	-336
ရှာ	-337
မတ	-338
ယာ	-339
သောကြောင	-340
တိုက	-341
ဆုံး	-342
မြောက	-343
ယေရှု	-344
သတည	-345
ဟိတ	-346
တက	-347
ဖျ	-348
ဝိဒ	-349
ဒါဝိဒ	-350
ပြီးမှ	-351
အဘို	-352
အရှင	-353
ဝေး	-354
တမ	-355
ဗာ	-356
▁့်။	-357
ထိုအခါ	-358
စရာ	-359
သောသူသည	-360
အပ	-361
အို	-362
ပုရ	-363
သုံး	-364
ရက	-365
ညာဉ	-366
ပုရော	-367
ခြေ	-368
ဘေး	-369
အသီး	-370
ကျေး	-371
းမူကား	-372
အန	-373
ရန	-374
ကိုလည	-375
ပုရောဟိတ	-376
အမျိုးသား	-377
ကြံ	-378
ငယ	-379
အမှုကို	-380
းသည	-381
မုန	-382
ကျေးဇ	-383
ရွှ	-384
ဘို	-385
အတူ	-386
ဟော	-387
ဆက	-388
ိလ	-389
းသို	-390
စည	-391
အံ	-392
စင	-393
သစ	-394
နှာ	-395
ဟာ	-396
ခံရ	-397
စု	-398
ယေရု	-399
းနှင	-400
ွမ	-401
▁????????	-402
လေး	-403
းဟူ	-404
တွေ	-405
ကြောက	-406
ရှလင	-407
မောရှေ	-408
းဟု	-409
ထင	-410
ရပ	-411
အစဉ	-412
ဇာ	-413
အဲ	-414
မေး	-415
ဆီး	-416
ဝါ	-417
ပြီးလျှင	-418
နေရာ	-419
မို	-420
မိုဃ	-421
သမီး	-422
ဂုတ	-423
ဖျက	-424
အလို	-425
အဲဂုတ	-426
မက	-427
ကြပါ	-428
ပေးတော	-429
ပယ	-430
စီး	-431
အခွင	-432
မှီ	-433
ပျက	-434
များတို	-435
ငံ	-436
သိုး	-437
တံခါ	-438
ဖြောင	-439
ယေရုရှလင	-440
ထံသို	-441
ထဲက	-442
ရှော	-443
ပလ	-444
နက	-445
အခြ	-446
အမ	-447
သလော	-448
ကျေးဇူး	-449
မှစ	-450
ဖက	-451
အလွန	-452
ကျောက	-453
ဝမ	-454
မြစ	-455
ချီး	-456
ဟေ	-457
သကဲ	-458
အောက	-459
ားသော	-460
ရှိသည	-461
ထိုသူ	-462
စဉ	-463
ချက	-464
မှတ	-465
အုပ	-466
မြေကြီး	-467
ရိုက	-468
စေတော	-469
သံ	-470
တကွ	-471
ဝိညာဉ	-472
တပ	-473
းပ	-474
ဒု	-475
နှလုံး	-476
ပညတ	-477
အချိန	-478
ခန	-479
ယုံ	-480
ခရစ	-481
တာ	-482
ခုန	-483
ပရော	-484
ယခု	-485
ငြ	-486
ဥစ	-487
ရိမ	-488
ုလ	-489
ွံ	-490
ိုလ	-491
အကျ	-492
ရွှေ	-493
ထိုသူတို	-494
အမျိုးသားတို	-495
စေလွှတ	-496
းခြင	-497
ရှို	-498
းဟူသော	-499
နန	-500
ပြား	-501
ပရောဖက	-502
နားထောင	-503
ပေ	-504
ငွေ	-505
▁့်၍	-506
ဝန	-507
ရှား	-508
ထုတ	-509
ခိုး	-510
စိုး	-511
စေသော	-512
ဗိမ	-513
ဗိုလ	-514
လူမျိုး	-515
ညှ	-516
ဂလာ	-517
ခုနစ	-518
လယ	-519
ငါး	-520
အမြ	-521
လိ	-522
ဆိုး	-523
ပေါင	-524
ပညာ	-525
းရှိ	-526
အဝတ	-527
ထဲသို	-528
ကုန	-529
ဏာ	-530
မီးရှို	-531
တွက	-532
ဆီ	-533
တမန	-534
ဆိုင	-535
လွတ	-536
ရည	-537
ချစ	-538
တဘက	-539
ရွံ	-540
ရှိသမျှတို	-541
ဆာ	-542
လောက	-543
နာမ	-544
တံခါး	-545
ကျိန	-546
မိမိတို	-547
အဆ	-548
ဘွယ	-549
ဗေ	-550
မှား	-551
မူပြီ	-552
အမျက	-553
မူမည	-554
နွား	-555
ပါမည	-556
စွာသော	-557
တဲ	-558
ရှက	-559
ျာ	-560
းရဲ	-561
▁့၍	-562
ကြပြီ	-563
▁့၎	-564
ပြုသော	-565
ဘုန	-566
ဆဲ	-567
စွန	-568
မယ	-569
လို	-570
ရှောက	-571
တုပြည	-572
ဗိမာန	-573
ပျစ	-574
ကြွင	-575
ဟုဆို	-576
သမ	-577
းတ	-578
မြည	-579
အာရ	-580
ကြော	-581
စပျစ	-582
ဆိတ	-583
ပွဲ	-584
ရှိကြ	-585
ထိုကြောင	-586
ထားတော	-587
ရေး	-588
ညီအစ	-589
ဇိ	-590
အဆွေ	-591
မွမ	-592
ခေါင	-593
ငြိမ	-594
မှန	-595
ပစ	-596
အမိန	-597
နံ	-598
လွန	-599
ပြေး	-600
ကြယ	-601
ဂါ	-602
အမည	-603
ဆန	-604
ထိုင	-605
အသံ	-606
ခံရသော	-607
ယုံကြည	-608
နေကြ	-609
ဘိုး	-610
သောက	-611
နေသော	-612
ကန	-613
ခရ	-614
ရွေး	-615
ကြွေး	-616
စရိုက	-617
ဗြ	-618
ကြွ	-619
အိပ	-620
အထ	-621
ကုပ	-622
အရာကို	-623
သီး	-624
ထာဝရဘုရားကို	-625
ဒုစရိုက	-626
ပြောဆို	-627
းမြောက	-628
ဘွား	-629
ဝပ	-630
မတရား	-631
ထံတော	-632
စေမည	-633
ကိုမ	-634
လှည	-635
ရွာ	-636
အလျ	-637
အလုံး	-638
ပရိ	-639
ခြောက	-640
မိုက	-641
မယား	-642
▁့်၎	-643
ယာကုပ	-644
ရာတွင	-645
အတွက	-646
အကျိုး	-647
ရလိမ	-648
လောင	-649
ချီးမွမ	-650
တစုံ	-651
ခပ	-652
ဆု	-653
ျား	-654
ကင	-655
တပည	-656
လူအပေါင	-657
မြတ	-658
သွန	-659
းဖြစ	-660
လဲ	-661
အချင	-662
ယနေ	-663
ေလ	-664
ဖွဲ	-665
ဟောပြော	-666
မပြ	-667
ဟူမူကား	-668
သူရဲ	-669
အရာတို	-670
အသေ	-671
နားမှာ	-672
သွားကြ	-673
ချီ	-674
မြှ	-675
ကျမ	-676
ရှောလု	-677
သဘော	-678
အကြံ	-679
လန	-680
တကား	-681
အမွေ	-682
ပါပြီ	-683
ပရိသတ	-684
အရင	-685
မှတပါး	-686
မြော	-687
းဆဲ	-688
အထက	-689
လေဝိ	-690
ကျေးဇူးတော	-691
လျော	-692
းကြ	-693
ရကြမည	-694
ခမည	-695
ပြုတော	-696
ဥပ	-697
းဝေး	-698
းသာ	-699
ဒဏ	-700
သေး	-701
စိ	-702
သပ	-703
အာရုန	-704
ဖြေ	-705
ဗုလ	-706
တခု	-707
ရှိရာ	-708
ချိုင	-709
းအ	-710
ရွက	-711
ကိုင	-712
အချို	-713
အခြား	-714
တရားကို	-715
ရှုရ	-716
ပဋ	-717
ဧလိ	-718
စာကို	-719
ရှိတော	-720
ပိုင	-721
သနား	-722
ဗုလုန	-723
စံ	-724
ကြသည	-725
ထိုသူသည	-726
ဟစ	-727
ပဋိ	-728
ဆုတောင	-729
အဆွေအမျိုး	-730
မသိ	-731
သားကို	-732
းကပ	-733
ဆာန	-734
ရုပ	-735
စပ	-736
ခိုင	-737
ဆုံးမ	-738
ညှဉ	-739
ဒေါ	-740
းရာ	-741
အာဗြ	-742
စမ	-743
ဖိလ	-744
းစေ	-745
ဒန	-746
ဖာ	-747
ကပတ	-748
သောငှါ	-749
ဘိုးဘေး	-750
အခြားသော	-751
ကျန	-752
မပြု	-753
အကျင	-754
အသွေး	-755
နှံ	-756
ထောက	-757
သူမျှ	-758
ြို	-759
တိရစ	-760
မမူ	-761
နားမ	-762
ဇေ	-763
ဓမ	-764
ချမ	-765
တဲတော	-766
ခတ	-767
ဝေ	-768
လူများတို	-769
ကြိုး	-770
သငယ	-771
ထမ	-772
ထဲမှာ	-773
ပန	-774
ပါသည	-775
စိမ	-776
သွင	-777
အမြဲ	-778
လတံ	-779
ကြီးသော	-780
စွဲ	-781
ထားသော	-782
ဌာန	-783
ရာယဇ	-784
နိ	-785
မွေ	-786
ဆိုသည	-787
ညစ	-788
နယ	-789
ဗင	-790
ပြုရ	-791
ရိုး	-792
စက	-793
လမုန	-794
ရှောင	-795
သားတော	-796
ကောက	-797
မခံ	-798
ဗျာ	-799
ထိုနောက	-800
သောသူဖြစ	-801
သီ	-802
ရံ	-803
သူငယ	-804
ဗာဗုလုန	-805
ဟံ	-806
ရှဲ	-807
ဖြတ	-808
အညီ	-809
ခို	-810
အနာ	-811
းလျက	-812
▁်၎	-813
နှောင	-814
မူလျှင	-815
ကြနှင	-816
နာမတော	-817
မဲ	-818
အရေ	-819
သောသူကို	-820
အင	-821
မူခြင	-822
အမျိုးမျိုး	-823
ဖိလိတ	-824
သိတ	-825
ထိုမြို	-826
ရှိမ	-827
းကွယ	-828
းသွား	-829
းမရှိ	-830
အစာ	-831
တကောင	-832
သတိ	-833
မြှောက	-834
ခရီး	-835
ရှုရိ	-836
ထိုအရပ	-837
သမျှသော	-838
းပန	-839
ပါစေ	-840
းကောင	-841
ဒေ	-842
ရကြလိမ	-843
ာဏ	-844
သီချင	-845
ပဋိညာဉ	-846
လှုပ	-847
လေပြီ	-848
ဂု	-849
ပဌ	-850
အကြ	-851
ပျောက	-852
ဖြန	-853
းယူ	-854
အလုံးစုံ	-855
းတူ	-856
ပေါက	-857
ကိုတို	-858
ဒိတ	-859
ဆောက	-860
လူများ	-861
ရှောလမုန	-862
ချဉ	-863
ဂုဏ	-864
တပါ	-865
မြွက	-866
စုဝေး	-867
အကြီး	-868
အထံတော	-869
ကိုးကွယ	-870
ညဉ	-871
ခုတ	-872
မရ	-873
စော	-874
ယောသပ	-875
ကိ	-876
ယေရှုသည	-877
ငို	-878
ဗျာဒိတ	-879
ထာဝရဘုရားအား	-880
သောင	-881
အတွင	-882
ူးသော	-883
ယုဒပြည	-884
ထာဝရဘုရားမိန	-885
ချုပ	-886
သားအပေါင	-887
အသရေ	-888
ဖုံး	-889
လွှဲ	-890
နတ	-891
မု	-892
ဥာဏ	-893
အမှန	-894
သိတင	-895
ပုံ	-896
သေတ	-897
ပေါလု	-898
ယေရှုခရစ	-899
ဟန	-900
ိယ	-901
ရုဏာ	-902
ပြုကြ	-903
ကွဲ	-904
သေခံ	-905
ဗက	-906
မနာ	-907
အကယ	-908
အာဗြဟံ	-909
ဆရာ	-910
တဆယ	-911
လွင	-912
အနွယ	-913
မန	-914
ဆေး	-915
အလယ	-916
ဆိုသော	-917
ကျော	-918
▁????????????	-919
ဧဖ	-920
ငှာ	-921
မှာထား	-922
ထာဝရဘုရားရှေ	-923
ဘဲနေ	-924
ယောရှု	-925
ဘာ	-926
းစွာ	-927
စရာဘို	-928
▁၍၎	-929
ကရုဏာ	-930
ချိုး	-931
ရှိပါ	-932
ခွန	-933
ဆိုကြ	-934
နားမထောင	-935
မနေ	-936
ထိုက	-937
ပေးမည	-938
ချီးမြှောက	-939
သောစိတ	-940
ငိုကြွေး	-941
များနှင	-942
ယျ	-943
မြန	-944
▁့၍၊	-945
ဖွင	-946
အော	-947
အမှုတော	-948
???	-949
ငါနှင	-950
ရှိရာသို	-951
အသီးအသီး	-952
ဘူး	-953
အလင	-954
ဥယျ	-955
ဒုံ	-956
ပို	-957
းတွင	-958
ဥယျာဉ	-959
ခြေအရှင	-960
သူအပေါင	-961
ဆွဲ	-962
လုံ	-963
ချောင	-964
မူသဖြင	-965
ဂေ	-966
မတရားသော	-967
ပြီဟု	-968
ကျွေး	-969
မထ	-970
ချိန	-971
သားသမီး	-972
ဂတိ	-973
နံနက	-974
းချင	-975
ငံတော	-976
ရှိသမျှကို	-977
အိုထာဝရဘုရား	-978
ထပ	-979
တရု	-980
ပိုး	-981
သားကား	-982
ဘမ	-983
ဝံ	-984
ပျော	-985
ရာအရပ	-986
းမှ	-987
အရှေ	-988
မုတ	-989
ပါသော	-990
ပေတရု	-991
အလုံးစုံတို	-992
ထွန	-993
ဘိုးဘေးတို	-994
ရိတ	-995
ဖျား	-996
ဘုရားသည	-997
များစွာသော	-998
းသက	-999
မောဘ	-1000
ပြောင	-1001
ဂိ	-1002
အမိ	-1003
လုယူ	-1004
းအရာ	-1005
ထိုပြည	-1006
ပုန	-1007
အဓမ	-1008
ခံရမည	-1009
နှိမ	-1010
ရောင	-1011
ရွှင	-1012
လာကြ	-1013
လူသည	-1014
းငှာ	-1015
ကိုမျှ	-1016
ဘုံ	-1017
လမြို	-1018
တစုံတခု	-1019
းစာ	-1020
ဗောင	-1021
အစိုး	-1022
ုလား	-1023
မူလိမ	-1024
ရှုံး	-1025
လူသား	-1026
ဆံ	-1027
မွေး	-1028
ခွဲ	-1029
မပြတ	-1030
အမှုတို	-1031
စပါး	-1032
ပေးသော	-1033
ကျိပ	-1034
းစား	-1035
ထူး	-1036
နီး	-1037
ကိုယူ	-1038
မရောက	-1039
ကွယ	-1040
ဂိလ	-1041
ပိတ	-1042
ထုံး	-1043
သောနေ	-1044
အမျိုးအနွယ	-1045
မစင	-1046
သုတ	-1047
စိုးရိမ	-1048
ပွန	-1049
းပေါ	-1050
ထိုနေ	-1051
ဧဖရိမ	-1052
းအားဖြင	-1053
တား	-1054
လာသည	-1055
းရ	-1056
ငှက	-1057
လွှမ	-1058
အိုး	-1059
လုံးကို	-1060
နောင	-1061
မကောင	-1062
ထိုမိန	-1063
သောအရပ	-1064
ပြုလျှင	-1065
မောရှေသည	-1066
ငါမ	-1067
အသင	-1068
းလေ	-1069
တရာ	-1070
လုလင	-1071
ွပ	-1072
မိဿ	-1073
ကြေး	-1074
ခရိုင	-1075
ရေကို	-1076
အတောင	-1077
▁၌၎	-1078
သားဖြစ	-1079
ဗန	-1080
ရာဇ	-1081
ဒုတ	-1082
းပြု	-1083
ထမြောက	-1084
အားကြီး	-1085
နင	-1086
ကော	-1087
တရားတော	-1088
ကြားပြော	-1089
ရသည	-1090
လား	-1091
ယာမိန	-1092
လောဟု	-1093
ဟူသော	-1094
ဍာ	-1095
ဆော	-1096
လာသော	-1097
▁့်၍၊	-1098
ထိုမှတပါး	-1099
ကြီးစွာသော	-1100
းကား	-1101
နှိုး	-1102
လောကီ	-1103
ယုဒရှင	-1104
ဘဏ	-1105
အကြင	-1106
အမှီ	-1107
ကုလား	-1108
ထိုကာလ	-1109
ကြွေးကြော	-1110
ချည	-1111
ဝိုင	-1112
တံပိုး	-1113
ထိန	-1114
ချို	-1115
ဤအရပ	-1116
▁????	-1117
သူတပါး	-1118
သောအရာ	-1119
ွါ	-1120
နိမ	-1121
မြေပေါ	-1122
သူကြီး	-1123
ဘွားမြင	-1124
မှီတိုင	-1125
သိုးသငယ	-1126
မောရှေအား	-1127
ဝဲ	-1128
ဝှ	-1129
ခြား	-1130
အလျင	-1131
စေနှင	-1132
မှောက	-1133
သေခြင	-1134
သမျှတို	-1135
ုသ	-1136
တိတ	-1137
ပါရ	-1138
ထိုမင	-1139
ူးကို	-1140
ဟိ	-1141
ဟာယ	-1142
ပျို	-1143
ဣသရေလအမျိုးသား	-1144
တပါးအမျိုးသားတို	-1145
ကပ	-1146
ကမ	-1147
ဗု	-1148
မှောင	-1149
ထိုသူကို	-1150
အစရှိသော	-1151
တေ	-1152
ယေရ	-1153
လသည	-1154
အုန	-1155
ပါဟု	-1156
းမသည	-1157
းဝေးရာ	-1158
ဒိ	-1159
ခုံ	-1160
သိန	-1161
▁်၌၎	-1162
ဘုရားကို	-1163
မမြင	-1164
သွေး	-1165
းလွတ	-1166
တာတော	-1167
ယောဟန	-1168
မွတ	-1169
မြေး	-1170
ပြတော	-1171
မှာထားတော	-1172
းတည	-1173
သူနှင	-1174
သံကို	-1175
ကြေးဝါ	-1176
ဆုံးသော	-1177
နှိုးဆော	-1178
တစုံတယောက	-1179
ညံ	-1180
ဗတ	-1181
ဘိ	-1182
ကိုခေါ	-1183
ကြိုးစား	-1184
ရှစ	-1185
အချည	-1186
ဥပုသ	-1187
ိုငှ	-1188
ဇိအုန	-1189
မိဿဟာယ	-1190
မေးမြန	-1191
အလိုငှ	-1192
သွားသော	-1193
ကြာ	-1194
ခဏာ	-1195
သနားတော	-1196
အလိုတော	-1197
ဖါ	-1198
ခွက	-1199
ဝှက	-1200
ကြိမ	-1201
ရှေး	-1202
လှုံ	-1203
အနှံ	-1204
ရောဘုရင	-1205
ဣသ	-1206
အဆင	-1207
စာရင	-1208
ဆီသို	-1209
ကြားလျှင	-1210
မြဲ	-1211
အဆက	-1212
ူးမ	-1213
မှူး	-1214
းစိမ	-1215
နှာကို	-1216
များပြား	-1217
အမြန	-1218
ဂလာရှိ	-1219
ရွံရှာ	-1220
သလောဟု	-1221
ရေးထား	-1222
ပြီးသော	-1223
ယုဒလူတို	-1224
ဗော	-1225
ယောန	-1226
ကြွလာ	-1227
ကြွား	-1228
အမှီပြု	-1229
အလိုငှါ	-1230
းကြီးသည	-1231
ထာဝရဘုရားက	-1232
မြေကြီးပေါ	-1233
ခေ	-1234
ငြင	-1235
းကဲ	-1236
မုသာ	-1237
မှုတ	-1238
မပြော	-1239
အလျောက	-1240
ယွင	-1241
လှံ	-1242
ဟေဇ	-1243
အာမ	-1244
ရထား	-1245
ဤသို	-1246
ကာလပတ	-1247
စေသတည	-1248
ပြုခြင	-1249
စကားတော	-1250
ယေရှုကလည	-1251
ဗာလ	-1252
စေဟု	-1253
သူကို	-1254
ခိုလှုံ	-1255
တိမ	-1256
အပိုင	-1257
အသံကို	-1258
ဝါကြွား	-1259
ညူး	-1260
မတွေ	-1261
သုံးဆယ	-1262
အကျိုးကို	-1263
အမင	-1264
ဂြို	-1265
ဖလား	-1266
းဆို	-1267
ဂြိုဟ	-1268
လူကို	-1269
ထည	-1270
လံ	-1271
ကိမ	-1272
လှီး	-1273
သတို	-1274
ရောဗောင	-1275
စိုက	-1276
ရှမာ	-1277
ရှုတ	-1278
ပြုစု	-1279
ယေရမိ	-1280
ပြုပြင	-1281
ဧဒုံ	-1282
းတိမ	-1283
မူပါဟု	-1284
းသောသူ	-1285
ကူး	-1286
းမည	-1287
ဂိလဒ	-1288
ဘူးသော	-1289
ပါစေသော	-1290
မာန	-1291
အလိုက	-1292
ကိုမြင	-1293
စာရေး	-1294
ဆိုလေ	-1295
မူကြောင	-1296
ဟတ	-1297
ရွေ	-1298
အစေ	-1299
အပင	-1300
ခံရကြ	-1301
းနိုင	-1302
ပညာရှိ	-1303
ပြောသော	-1304
ဣသရေလရှင	-1305
ခိ	-1306
နှီး	-1307
သိမြင	-1308
ကြွတော	-1309
ပြုရမည	-1310
လေဝိသားတို	-1311
ချော	-1312
မပေး	-1313
သမား	-1314
သားရဲ	-1315
တိလူတို	-1316
အရေဖျား	-1317
ကျေးဇူးကို	-1318
ဖတ	-1319
းပါ	-1320
မဖြစ	-1321
အလျှင	-1322
းလောင	-1323
တံခါးဝ	-1324
မနာရှေ	-1325
ဝက	-1326
ဝယ	-1327
ရား	-1328
ငါးဆယ	-1329
နေတော	-1330
ဤသူတို	-1331
ဒုက	-1332
မစား	-1333
ကြဲ	-1334
မိဘ	-1335
အဝေး	-1336
မစ	-1337
တဝါ	-1338
ထီး	-1339
းချ	-1340
သူတပါ	-1341
အလုံးအရင	-1342
အမျိုးကို	-1343
ဣသရေလအမျိုးကို	-1344
ဆည	-1345
ရဟု	-1346
အနံ	-1347
ယောရှ	-1348
စီးခြင	-1349
မှားယွင	-1350
ညဦး	-1351
ဣဇာ	-1352
ကိုက	-1353
ပဌနာ	-1354
ကြသော	-1355
အဘိုး	-1356
းမတို	-1357
မေးတော	-1358
သွားလေ	-1359
အမှုအရာ	-1360
ဂေါ	-1361
တုံ	-1362
အခန	-1363
ဦးမည	-1364
ခံတော	-1365
ညှိုး	-1366
ပေးလိုက	-1367
ရှည	-1368
အလုပ	-1369
ကြံစည	-1370
စုံစမ	-1371
တထောင	-1372
ပြုမည	-1373
မမူပါ	-1374
သားသည	-1375
အရိုး	-1376
းနှီး	-1377
းများ	-1378
ရသောအခွင	-1379
ကေ	-1380
ဇဉ	-1381
ကျူး	-1382
ခါနာ	-1383
တပြည	-1384
ရှိလျှင	-1385
အနားမှာ	-1386
အာရှုရိ	-1387
လူမျိုးတို	-1388
သောသူအပေါင	-1389
ထာဝရဘုရားကလည	-1390
ခဏ	-1391
အမှုသည	-1392
ကျယ	-1393
ကွင	-1394
ဘောဇဉ	-1395
းရာဌာန	-1396
းသောသူတို	-1397
နီ	-1398
နဲ	-1399
ကျက	-1400
တုန	-1401
ယွာ	-1402
အာန	-1403
းလင	-1404
ဘာသာ	-1405
တိုးပ	-1406
ငွေကို	-1407
ဒဲ	-1408
းနှစ	-1409
သူဖြစ	-1410
အသေသတ	-1411
ဆီးတား	-1412
ဆုပ	-1413
နေရ	-1414
အထည	-1415
ဧလိယ	-1416
ကာကို	-1417
တကျိပ	-1418
နိမိတ	-1419
မသွား	-1420
ဆိုရမည	-1421
သွားလော	-1422
အမျိုးမျိုးတို	-1423
နော	-1424
ဖြူ	-1425
ရှန	-1426
ဝါဒ	-1427
ဟေဗြ	-1428
¦	-1429
▁	-1430
်	-1431
ာ	-1432
ု	-1433
ိ	-1434
ေ	-1435
း	-1436
သ	-1437
က	-1438
င	-1439
မ	-1440
တ	-1441
့	-1442
ရ	-1443
ြ	-1444
အ	-1445
ှ	-1446
ည	-1447
န	-1448
လ	-1449
ပ	-1450
စ	-1451
၊	-1452
ျ	-1453
ူ	-1454
ခ	-1455
။	-1456
ါ	-1457
ွ	-1458
၏	-1459
ထ	-1460
ယ	-1461
ဘ	-1462
ံ	-1463
ီ	-1464
ဖ	-1465
၍	-1466
ဆ	-1467
ဝ	-1468
ဟ	-1469
ဲ	-1470
၌	-1471
?	-1472
္	-1473
ဒ	-1474
ဇ	-1475
ဗ	-1476
၎	-1477
ဉ	-1478
ဂ	-1479
ဣ	-1480
ဤ	-1481
ဏ	-1482
ဧ	-1483
ဥ	-1484
ဦ	-1485
ဃ	-1486
ဌ	-1487
ဩ	-1488
ဓ	-1489
ဋ	-1490
ဿ	-1491
-	-1492
ဍ	-1493
ဈ	-1494
ဠ	-1495
ဪ	-1496
