<pad>	0
</s>	0
<unk>	0
▁¦	-0
er	-1
no	-2
▁d	-3
re	-4
▁s	-5
▁c	-6
to	-7
an	-8
el	-9
la	-10
▁p	-11
li	-12
▁i	-13
▁𐋇	-14
ti	-15
on	-16
▁a	-17
te	-18
ra	-19
ri	-20
ro	-21
▁e	-22
▁di	-23
di	-24
ta	-25
en	-26
le	-27
lo	-28
▁m	-29
ch	-30
gli	-31
es	-32
ia	-33
io	-34
▁,	-35
▁f	-36
qu	-37
tu	-38
co	-39
al	-40
un	-41
in	-42
▁v	-43
se	-44
si	-45
▁il	-46
ar	-47
po	-48
do	-49
uo	-50
sa	-51
va	-52
▁la	-53
▁ch	-54
gno	-55
▁del	-56
▁in	-57
da	-58
ca	-59
▁S	-60
▁per	-61
ci	-62
me	-63
mo	-64
de	-65
▁co	-66
so	-67
non	-68
▁g	-69
▁n	-70
gnore	-71
▁tu	-72
▁che	-73
il	-74
▁al	-75
▁qu	-76
tto	-77
▁con	-78
vi	-79
ma	-80
per	-81
che	-82
mi	-83
ce	-84
st	-85
▁o	-86
za	-87
vo	-88
▁Si	-89
▁«	-90
con	-91
era	-92
▁le	-93
ve	-94
▁lo	-95
▁un	-96
▁l	-97
▁I	-98
▁po	-99
tti	-100
▁non	-101
gi	-102
ere	-103
igli	-104
ché	-105
pa	-106
▁D	-107
▁si	-108
▁Signore	-109
▁su	-110
del	-111
pi	-112
▁ri	-113
▁G	-114
anno	-115
na	-116
tro	-117
▁so	-118
▁se	-119
ter	-120
su	-121
▁A	-122
one	-123
▁pa	-124
▁de	-125
zi	-126
▁'	-127
ne	-128
tà	-129
▁da	-130
▁re	-131
▁h	-132
ui	-133
ni	-134
▁ca	-135
sse	-136
▁ma	-137
▁b	-138
ero	-139
▁vi	-140
▁vo	-141
▁E	-142
▁nel	-143
▁è	-144
rono	-145
tra	-146
▁loro	-147
▁te	-148
or	-149
bb	-150
▁:	-151
▁an	-152
ac	-153
tte	-154
ando	-155
sto	-156
▁suo	-157
▁M	-158
bi	-159
▁figli	-160
▁gli	-161
chi	-162
▁ci	-163
▁C	-164
▁Dio	-165
sc	-166
ele	-167
▁mi	-168
pre	-169
min	-170
fa	-171
fi	-172
gg	-173
▁pre	-174
sra	-175
▁P	-176
men	-177
signore	-178
▁fa	-179
tta	-180
iu	-181
▁ha	-182
anti	-183
tre	-184
▁no	-185
vano	-186
eri	-187
▁dal	-188
ior	-189
ss	-190
▁me	-191
ani	-192
▁della	-193
sti	-194
ven	-195
▁pi	-196
erà	-197
▁perché	-198
cco	-199
▁ques	-200
▁come	-201
▁pro	-202
sta	-203
ssi	-204
nel	-205
▁dei	-206
go	-207
ba	-208
loro	-209
▁tuo	-210
elli	-211
▁u	-212
pe	-213
▁;	-214
rà	-215
ese	-216
sso	-217
zione	-218
oni	-219
anto	-220
sraele	-221
gu	-222
du	-223
arà	-224
que	-225
ver	-226
tri	-227
▁una	-228
cia	-229
▁sono	-230
ga	-231
polo	-232
zo	-233
ru	-234
▁li	-235
ran	-236
ene	-237
enza	-238
▁era	-239
ssa	-240
▁N	-241
cca	-242
▁do	-243
▁ne	-244
sco	-245
figli	-246
man	-247
mp	-248
dio	-249
lla	-250
lora	-251
▁ave	-252
▁sa	-253
sì	-254
▁.	-255
zia	-256
erò	-257
▁L	-258
gni	-259
zza	-260
▁mo	-261
▁ti	-262
ff	-263
suo	-264
sci	-265
▁io	-266
eli	-267
terra	-268
ha	-269
dre	-270
uomo	-271
▁disse	-272
▁sta	-273
▁alla	-274
fe	-275
▁sua	-276
esti	-277
cen	-278
▁mio	-279
ggi	-280
tor	-281
dei	-282
▁tutti	-283
una	-284
Qu	-285
▁figlio	-286
ttà	-287
ria	-288
iorno	-289
elo	-290
ten	-291
rai	-292
▁Il	-293
pp	-294
▁»	-295
▁fu	-296
ello	-297
usa	-298
▁par	-299
▁ven	-300
▁B	-301
▁voi	-302
perché	-303
mini	-304
spo	-305
dal	-306
rta	-307
chia	-308
giu	-309
vanti	-310
▁Qu	-311
▁suoi	-312
zzo	-313
lta	-314
pro	-315
vide	-316
ron	-317
come	-318
▁T	-319
della	-320
gna	-321
▁sac	-322
▁av	-323
▁Ma	-324
ente	-325
oi	-326
stro	-327
▁popolo	-328
▁lui	-329
rò	-330
▁man	-331
bo	-332
stri	-333
▁ai	-334
▁giu	-335
mme	-336
ques	-337
enti	-338
fu	-339
ini	-340
stra	-341
mpo	-342
▁nella	-343
cu	-344
ser	-345
iamo	-346
ed	-347
pri	-348
condo	-349
bbe	-350
uomini	-351
rat	-352
▁questo	-353
▁Al	-354
▁F	-355
cchi	-356
ste	-357
par	-358
cor	-359
esù	-360
qua	-361
unque	-362
▁chi	-363
erai	-364
▁tra	-365
sono	-366
▁Giu	-367
uto	-368
▁più	-369
ave	-370
▁terra	-371
▁fe	-372
gia	-373
ei	-374
anza	-375
lui	-376
ai	-377
dò	-378
gge	-379
gh	-380
▁Da	-381
erdo	-382
ab	-383
▁sarà	-384
rito	-385
▁dell	-386
egli	-387
▁contro	-388
».	-389
eranno	-390
▁com	-391
▁ser	-392
cri	-393
ranno	-394
▁Israele	-395
▁aveva	-396
▁ver	-397
▁egli	-398
▁paese	-399
▁tua	-400
▁ra	-401
▁fi	-402
lto	-403
▁Sa	-404
ato	-405
▁città	-406
▁ho	-407
▁sul	-408
lemme	-409
▁R	-410
▁quel	-411
uni	-412
sè	-413
▁tutto	-414
▁for	-415
▁casa	-416
sero	-417
▁-	-418
▁pri	-419
dere	-420
▁qua	-421
mento	-422
mpio	-423
▁O	-424
mon	-425
esso	-426
▁mia	-427
▁giorno	-428
rio	-429
cio	-430
ciò	-431
▁paro	-432
erusa	-433
erusalemme	-434
disse	-435
ul	-436
ad	-437
anta	-438
alla	-439
▁ad	-440
▁anche	-441
figlio	-442
tt	-443
endo	-444
fatti	-445
mpa	-446
▁degli	-447
sce	-448
eliti	-449
▁poi	-450
tua	-451
▁du	-452
uore	-453
▁pe	-454
sraeliti	-455
▁tro	-456
glie	-457
▁Per	-458
▁Mo	-459
▁davanti	-460
spose	-461
dia	-462
▁quando	-463
tutti	-464
sua	-465
tare	-466
glia	-467
alle	-468
▁delle	-469
▁Davide	-470
zioni	-471
▁Io	-472
▁Non	-473
▁all	-474
▁abb	-475
▁gran	-476
mio	-477
tuo	-478
uno	-479
ge	-480
▁Co	-481
lti	-482
ze	-483
voi	-484
▁dalla	-485
▁mon	-486
mia	-487
cin	-488
av	-489
sp	-490
▁Allora	-491
▁?	-492
cci	-493
▁hai	-494
mpi	-495
▁uomini	-496
▁col	-497
▁ogni	-498
▁mor	-499
poi	-500
ssero	-501
gen	-502
gio	-503
iorni	-504
▁Gesù	-505
▁fatto	-506
▁des	-507
zio	-508
▁Se	-509
▁ba	-510
▁ac	-511
cora	-512
▁tuoi	-513
▁pie	-514
mb	-515
dato	-516
for	-517
don	-518
▁così	-519
▁noi	-520
ine	-521
▁gu	-522
aranno	-523
▁Ch	-524
▁sacerdo	-525
essi	-526
▁mezzo	-527
▁frat	-528
mpre	-529
▁né	-530
ho	-531
gui	-532
gitto	-533
contro	-534
▁nu	-535
quando	-536
israele	-537
▁secondo	-538
rete	-539
essa	-540
!»	-541
gn	-542
pra	-543
suoi	-544
▁bene	-545
qui	-546
▁ed	-547
▁due	-548
▁gio	-549
▁dice	-550
▁erano	-551
poli	-552
questo	-553
rifi	-554
anche	-555
arò	-556
▁sal	-557
sac	-558
▁ar	-559
nella	-560
tan	-561
mente	-562
▁Giuda	-563
sie	-564
popolo	-565
▁V	-566
▁Di	-567
▁Mosè	-568
▁tutte	-569
▁Poi	-570
▁chia	-571
erto	-572
scolta	-573
▁gra	-574
rato	-575
▁porta	-576
▁alle	-577
glio	-578
▁Gerusalemme	-579
erete	-580
▁mano	-581
▁por	-582
▁pu	-583
▁abi	-584
scia	-585
▁hanno	-586
▁La	-587
▁ste	-588
sia	-589
▁In	-590
rdi	-591
pirito	-592
▁fo	-593
pie	-594
essu	-595
esta	-596
tò	-597
▁na	-598
tura	-599
▁cor	-600
ess	-601
stru	-602
ina	-603
▁mani	-604
▁sulla	-605
essuno	-606
gue	-607
▁fino	-608
▁sia	-609
allora	-610
ccato	-611
▁padre	-612
sul	-613
guar	-614
▁fuo	-615
▁essi	-616
giorno	-617
▁ta	-618
▁Israeliti	-619
aveva	-620
tutto	-621
mor	-622
dice	-623
▁servi	-624
▁sue	-625
menti	-626
ena	-627
▁tre	-628
abb	-629
così	-630
▁vita	-631
mina	-632
▁san	-633
ggio	-634
più	-635
stre	-636
all	-637
▁Tu	-638
tter	-639
▁ciò	-640
▁tor	-641
▁nome	-642
▁cuore	-643
dri	-644
sarà	-645
anni	-646
str	-647
car	-648
trib	-649
ora	-650
stizia	-651
be	-652
ane	-653
sca	-654
cento	-655
dell	-656
vol	-657
▁occhi	-658
uogo	-659
nu	-660
paro	-661
▁questa	-662
▁ve	-663
ggia	-664
▁cui	-665
nd	-666
chio	-667
onne	-668
▁tempio	-669
quel	-670
por	-671
▁tutta	-672
▁uno	-673
lato	-674
paese	-675
▁grande	-676
via	-677
▁sei	-678
▁nelle	-679
▁agli	-680
mò	-681
entre	-682
▁Egli	-683
▁Quando	-684
▁parola	-685
dici	-686
▁senza	-687
▁giorni	-688
oro	-689
tten	-690
città	-691
▁ter	-692
mano	-693
tato	-694
▁spa	-695
casa	-696
ccia	-697
amo	-698
porta	-699
▁Pa	-700
▁verso	-701
▁cosa	-702
▁dunque	-703
eni	-704
abi	-705
ura	-706
ona	-707
des	-708
ffer	-709
▁quelli	-710
tanto	-711
col	-712
sei	-713
im	-714
▁miei	-715
mici	-716
vato	-717
due	-718
nato	-719
▁car	-720
cre	-721
die	-722
cato	-723
cono	-724
▁cre	-725
▁quanto	-726
▁ess	-727
senza	-728
tevi	-729
fatto	-730
hai	-731
?»	-732
▁Chi	-733
▁ten	-734
gran	-735
▁fra	-736
erano	-737
am	-738
gra	-739
fo	-740
▁Z	-741
▁en	-742
mone	-743
ecco	-744
san	-745
▁dove	-746
ogni	-747
mila	-748
dare	-749
▁profe	-750
degli	-751
▁Ora	-752
pu	-753
▁die	-754
▁capi	-755
▁cose	-756
▁va	-757
sieme	-758
▁vol	-759
sal	-760
▁U	-761
▁fece	-762
▁diven	-763
mato	-764
▁capo	-765
loria	-766
▁usci	-767
davanti	-768
esse	-769
ren	-770
feri	-771
▁Gio	-772
cendo	-773
ante	-774
mani	-775
accia	-776
cobbe	-777
sen	-778
▁tempo	-779
▁ro	-780
▁infatti	-781
▁lib	-782
tribù	-783
delle	-784
bra	-785
davide	-786
ppe	-787
moni	-788
▁male	-789
▁parole	-790
▁Ri	-791
▁rispose	-792
▁uomo	-793
dano	-794
tano	-795
dalla	-796
vece	-797
olo	-798
pere	-799
cc	-800
▁ancora	-801
▁gen	-802
▁parte	-803
end	-804
dito	-805
▁Cri	-806
ghi	-807
▁nostro	-808
ttro	-809
detto	-810
tr	-811
bili	-812
▁to	-813
▁Cristo	-814
noi	-815
▁fratelli	-816
mora	-817
▁cielo	-818
ang	-819
▁cu	-820
▁sc	-821
sser	-822
vere	-823
▁vostro	-824
ete	-825
padre	-826
▁sotto	-827
▁saranno	-828
▁poiché	-829
ghe	-830
▁quale	-831
▁mentre	-832
ffri	-833
▁sacrifi	-834
altare	-835
▁sempre	-836
bene	-837
▁quello	-838
▁sopra	-839
onia	-840
gre	-841
gesù	-842
mu	-843
▁cono	-844
lu	-845
▁detto	-846
ana	-847
▁sp	-848
▁im	-849
sper	-850
▁ordi	-851
▁allora	-852
▁fuoco	-853
▁vostri	-854
vita	-855
sor	-856
▁tue	-857
▁scri	-858
secondo	-859
tuoi	-860
▁Così	-861
▁Le	-862
citi	-863
▁Gli	-864
▁via	-865
segui	-866
frat	-867
tui	-868
fino	-869
▁dopo	-870
dine	-871
strui	-872
▁gi	-873
▁stato	-874
▁dall	-875
cchio	-876
hanno	-877
▁sacerdote	-878
spe	-879
tanti	-880
▁cam	-881
▁nei	-882
▁cin	-883
▁bo	-884
este	-885
▁avete	-886
▁mangia	-887
sacerdo	-888
né	-889
gento	-890
mezzo	-891
▁essa	-892
▁luogo	-893
erca	-894
▁qual	-895
▁Gia	-896
terà	-897
ilonia	-898
▁An	-899
▁legge	-900
▁ecco	-901
lomone	-902
▁anni	-903
Israele	-904
▁Mi	-905
▁peccato	-906
mare	-907
▁Ecco	-908
gua	-909
▁Figli	-910
▁forse	-911
altro	-912
Egitto	-913
▁fin	-914
ella	-915
▁servo	-916
cau	-917
more	-918
nun	-919
ure	-920
▁app	-921
▁altri	-922
indi	-923
estia	-924
▁queste	-925
mino	-926
▁giustizia	-927
tutte	-928
▁dai	-929
▁stra	-930
ono	-931
▁ucci	-932
verso	-933
liste	-934
mero	-935
scri	-936
ziani	-937
▁ora	-938
date	-939
▁morte	-940
usci	-941
ppa	-942
▁Eli	-943
▁sangue	-944
▁ascolta	-945
ggiun	-946
▁mie	-947
giuda	-948
bile	-949
▁Ba	-950
▁gri	-951
nò	-952
arca	-953
com	-954
▁questi	-955
fer	-956
zzi	-957
ltre	-958
stato	-959
▁!	-960
▁sor	-961
mosè	-962
viti	-963
acqua	-964
erità	-965
ppure	-966
▁solo	-967
▁essere	-968
questa	-969
esa	-970
male	-971
▁padri	-972
lare	-973
onna	-974
▁dato	-975
bu	-976
▁bu	-977
dire	-978
raone	-979
sione	-980
darono	-981
poiché	-982
gione	-983
fra	-984
▁alc	-985
▁spada	-986
▁Be	-987
torno	-988
segna	-989
▁nell	-990
zze	-991
ela	-992
▁nessuno	-993
esto	-994
▁presso	-995
elle	-996
acca	-997
▁ved	-998
gerusalemme	-999
ffi	-1000
tere	-1001
▁Saul	-1002
▁sacerdoti	-1003
pera	-1004
uovo	-1005
servi	-1006
fuo	-1007
▁ge	-1008
▁là	-1009
sue	-1010
colo	-1011
▁sette	-1012
▁eser	-1013
▁guar	-1014
ie	-1015
▁voce	-1016
argento	-1017
sulla	-1018
cò	-1019
cosa	-1020
versa	-1021
▁regno	-1022
uta	-1023
tenza	-1024
▁stesso	-1025
messo	-1026
▁fare	-1027
duto	-1028
▁fratello	-1029
▁lu	-1030
▁far	-1031
seppe	-1032
ire	-1033
lio	-1034
mar	-1035
dità	-1036
miglia	-1037
pren	-1038
▁avevano	-1039
▁gia	-1040
rire	-1041
pia	-1042
care	-1043
▁passa	-1044
▁insieme	-1045
▁prima	-1046
derà	-1047
tutta	-1048
cero	-1049
▁H	-1050
▁molti	-1051
dono	-1052
guardo	-1053
israeliti	-1054
▁schia	-1055
ronte	-1056
altra	-1057
quità	-1058
▁cen	-1059
▁coman	-1060
derò	-1061
andon	-1062
posto	-1063
▁Fi	-1064
ontan	-1065
esi	-1066
▁dov	-1067
▁Giacobbe	-1068
suè	-1069
Non	-1070
▁furono	-1071
rre	-1072
mondo	-1073
quanto	-1074
eser	-1075
zò	-1076
parola	-1077
▁Perché	-1078
nelle	-1079
rispose	-1080
dove	-1081
▁tribù	-1082
val	-1083
angelo	-1084
▁sca	-1085
quelli	-1086
▁bocca	-1087
▁dalle	-1088
èl	-1089
der	-1090
▁donna	-1091
▁gloria	-1092
ppo	-1093
listei	-1094
deva	-1095
scend	-1096
là	-1097
nome	-1098
cuore	-1099
tori	-1100
rsi	-1101
▁dire	-1102
lazione	-1103
scepoli	-1104
▁mai	-1105
gri	-1106
ronne	-1107
volta	-1108
▁giun	-1109
▁moglie	-1110
agli	-1111
dete	-1112
▁vesti	-1113
uti	-1114
cui	-1115
occhi	-1116
▁lavo	-1117
▁prese	-1118
▁trova	-1119
rlo	-1120
grande	-1121
erra	-1122
▁quella	-1123
dai	-1124
▁acco	-1125
▁Aronne	-1126
▁deserto	-1127
▁Do	-1128
▁primo	-1129
arti	-1130
fece	-1131
▁dicendo	-1132
spa	-1133
alleanza	-1134
gono	-1135
tempio	-1136
gne	-1137
ssimo	-1138
lea	-1139
▁giudi	-1140
spon	-1141
▁quali	-1142
ram	-1143
nci	-1144
▁pia	-1145
dopo	-1146
lle	-1147
dati	-1148
mentre	-1149
para	-1150
rcon	-1151
▁oggi	-1152
▁siete	-1153
▁invece	-1154
mmo	-1155
dr	-1156
▁mare	-1157
biti	-1158
giorni	-1159
infatti	-1160
dunque	-1161
ttere	-1162
vesti	-1163
bito	-1164
▁popoli	-1165
▁K	-1166
ari	-1167
▁mondo	-1168
▁piedi	-1169
eso	-1170
▁distru	-1171
ben	-1172
prio	-1173
vole	-1174
scuno	-1175
▁abbiamo	-1176
seri	-1177
alza	-1178
▁tenda	-1179
fferta	-1180
▁entra	-1181
▁posto	-1182
▁pren	-1183
▁causa	-1184
▁monte	-1185
▁Ti	-1186
▁sulle	-1187
ster	-1188
miei	-1189
vero	-1190
lib	-1191
questi	-1192
▁faccia	-1193
Ch	-1194
anzi	-1195
tene	-1196
vicin	-1197
▁Abra	-1198
dizione	-1199
▁Bab	-1200
as	-1201
cito	-1202
uoi	-1203
▁notte	-1204
▁nulla	-1205
ira	-1206
ccio	-1207
▁colui	-1208
capi	-1209
egitto	-1210
estiame	-1211
mai	-1212
profe	-1213
scere	-1214
▁carne	-1215
▁Babilonia	-1216
?».	-1217
▁?»	-1218
venti	-1219
zie	-1220
cinque	-1221
parte	-1222
▁giov	-1223
▁dissero	-1224
▁!»	-1225
▁».	-1226
alva	-1227
stimoni	-1228
cam	-1229
▁Salomone	-1230
cuno	-1231
▁fru	-1232
▁pen	-1233
▁gente	-1234
▁madre	-1235
▁profeti	-1236
▁eserciti	-1237
▁spe	-1238
▁nostri	-1239
terno	-1240
asse	-1241
fica	-1242
sette	-1243
iordano	-1244
at	-1245
▁st	-1246
vò	-1247
cose	-1248
▁figlia	-1249
pol	-1250
ccati	-1251
presso	-1252
▁comuni	-1253
mati	-1254
zz	-1255
ttino	-1256
nunzia	-1257
▁osser	-1258
eredità	-1259
▁quanti	-1260
▁spirito	-1261
capo	-1262
diven	-1263
▁nemici	-1264
frai	-1265
▁fer	-1266
▁Poiché	-1267
mmi	-1268
▁fede	-1269
▁vostra	-1270
▁sacrificio	-1271
dov	-1272
mba	-1273
dente	-1274
tempo	-1275
app	-1276
rì	-1277
rei	-1278
gere	-1279
▁Gi	-1280
tale	-1281
▁parti	-1282
▁numero	-1283
minio	-1284
ancora	-1285
tuario	-1286
▁senti	-1287
▁abitanti	-1288
ascolta	-1289
▁farò	-1290
▁lascia	-1291
rore	-1292
torna	-1293
▁bru	-1294
▁offri	-1295
cla	-1296
parole	-1297
▁segui	-1298
ontano	-1299
▁pane	-1300
▁faraone	-1301
rare	-1302
fraim	-1303
sacri	-1304
▁vostre	-1305
nero	-1306
▁molto	-1307
fratelli	-1308
quale	-1309
▁condu	-1310
ati	-1311
▁andò	-1312
rati	-1313
avete	-1314
forse	-1315
▁finché	-1316
tì	-1317
▁Lo	-1318
ucci	-1319
▁lun	-1320
cristo	-1321
gnuno	-1322
vezza	-1323
essere	-1324
cche	-1325
▁coloro	-1326
giustizia	-1327
scon	-1328
sotto	-1329
▁Ben	-1330
prese	-1331
▁acca	-1332
▁avrà	-1333
saranno	-1334
ture	-1335
nostro	-1336
sericor	-1337
▁visto	-1338
quello	-1339
tue	-1340
cielo	-1341
gnel	-1342
bbero	-1343
▁grazia	-1344
spirito	-1345
causto	-1346
qual	-1347
fon	-1348
▁Gà	-1349
bato	-1350
▁be	-1351
▁venti	-1352
ore	-1353
▁Su	-1354
▁qui	-1355
▁Padre	-1356
▁leviti	-1357
vostro	-1358
▁Con	-1359
▁pace	-1360
▁compi	-1361
nessuno	-1362
▁genera	-1363
sopra	-1364
trà	-1365
▁Bet	-1366
▁cio	-1367
vanni	-1368
▁aver	-1369
▁poss	-1370
stitui	-1371
illa	-1372
▁t	-1373
▁verità	-1374
anna	-1375
mico	-1376
queste	-1377
sempre	-1378
▁Vi	-1379
▁fuori	-1380
accampa	-1381
▁sco	-1382
▁cioè	-1383
▁rice	-1384
▁altro	-1385
▁nuovo	-1386
▁quattro	-1387
ppi	-1388
vare	-1389
veri	-1390
tente	-1391
▁acque	-1392
doli	-1393
▁deci	-1394
miglie	-1395
teranno	-1396
▁Giudei	-1397
mili	-1398
telli	-1399
gente	-1400
▁Giosuè	-1401
dà	-1402
▁ru	-1403
vina	-1404
▁Abramo	-1405
drone	-1406
▁fronte	-1407
età	-1408
nei	-1409
cino	-1410
ttato	-1411
fuoco	-1412
maria	-1413
vostri	-1414
▁Giuseppe	-1415
dall	-1416
▁dis	-1417
▁parla	-1418
Ecco	-1419
ordi	-1420
▁gre	-1421
▁Essi	-1422
sacrifi	-1423
passa	-1424
fin	-1425
▁sto	-1426
▁presen	-1427
▁profeta	-1428
nell	-1429
▁sui	-1430
legge	-1431
▁farà	-1432
▁Filistei	-1433
mandò	-1434
▁sol	-1435
bre	-1436
mangia	-1437
▁può	-1438
altri	-1439
▁gioia	-1440
arsi	-1441
fare	-1442
scono	-1443
sacerdote	-1444
gnò	-1445
nata	-1446
▁cia	-1447
▁Come	-1448
▁dico	-1449
▁viene	-1450
quattro	-1451
▁agi	-1452
▁rima	-1453
▁cerca	-1454
▁siamo	-1455
sulta	-1456
iamino	-1457
minato	-1458
pienza	-1459
cer	-1460
▁Am	-1461
▁discepoli	-1462
spi	-1463
▁go	-1464
▁esp	-1465
▁consi	-1466
▁Spirito	-1467
sericordia	-1468
giun	-1469
aca	-1470
geni	-1471
▁mese	-1472
▁nazioni	-1473
rità	-1474
lò	-1475
ali	-1476
▁ricor	-1477
gato	-1478
vati	-1479
vegno	-1480
▁volta	-1481
▁chiama	-1482
drà	-1483
schia	-1484
nta	-1485
▁bi	-1486
▁bra	-1487
luogo	-1488
▁abbandon	-1489
bbra	-1490
riente	-1491
offerta	-1492
empi	-1493
sacco	-1494
▁diede	-1495
core	-1496
cherà	-1497
dava	-1498
▁ini	-1499
cchia	-1500
▁forte	-1501
solo	-1502
scu	-1503
avevano	-1504
servo	-1505
Per	-1506
▁Ie	-1507
fine	-1508
▁cal	-1509
rebbe	-1510
ssal	-1511
nanzi	-1512
resti	-1513
▁fedel	-1514
▁Figlio	-1515
▁giusto	-1516
▁discend	-1517
peccato	-1518
▁rad	-1519
▁racco	-1520
alc	-1521
cce	-1522
telo	-1523
terò	-1524
▁opere	-1525
▁cinque	-1526
▁guerra	-1527
rti	-1528
scì	-1529
trò	-1530
▁Ed	-1531
fini	-1532
ngua	-1533
▁comp	-1534
edi	-1535
far	-1536
▁spo	-1537
▁ster	-1538
▁prend	-1539
▁stati	-1540
verà	-1541
boamo	-1542
parti	-1543
▁acc	-1544
▁lei	-1545
senti	-1546
cro	-1547
gerà	-1548
can	-1549
mbra	-1550
condu	-1551
▁figlie	-1552
lte	-1553
eb	-1554
iate	-1555
▁arri	-1556
quanta	-1557
▁condo	-1558
▁corpo	-1559
▁santi	-1560
dica	-1561
dite	-1562
▁Ca	-1563
▁sé	-1564
▁super	-1565
diamo	-1566
gioni	-1567
▁sali	-1568
▁forza	-1569
▁signore	-1570
mie	-1571
morte	-1572
stimonianza	-1573
▁can	-1574
▁quar	-1575
vin	-1576
fan	-1577
▁sull	-1578
valli	-1579
sangue	-1580
▁circon	-1581
estro	-1582
▁sti	-1583
viene	-1584
▁luce	-1585
▁inter	-1586
▁Perciò	-1587
▁uscire	-1588
▁Li	-1589
spada	-1590
▁alza	-1591
molti	-1592
muele	-1593
tando	-1594
mpagna	-1595
iniquità	-1596
!».	-1597
mbi	-1598
mile	-1599
padri	-1600
▁colpi	-1601
abbiamo	-1602
ìa	-1603
mità	-1604
▁cer	-1605
messa	-1606
ghezza	-1607
▁cubiti	-1608
▁famiglia	-1609
ritto	-1610
▁costrui	-1611
▁stabili	-1612
sone	-1613
tello	-1614
bab	-1615
▁aff	-1616
▁scon	-1617
▁dieci	-1618
▁torna	-1619
entra	-1620
fedel	-1621
pli	-1622
bano	-1623
▁Giò	-1624
▁donne	-1625
cal	-1626
pio	-1627
ordine	-1628
▁cieli	-1629
saul	-1630
tali	-1631
ttentri	-1632
cli	-1633
▁Abi	-1634
prima	-1635
▁pasco	-1636
▁bestiame	-1637
▁mangiare	-1638
sacerdoti	-1639
▁Na	-1640
▁ren	-1641
enaro	-1642
storo	-1643
▁divo	-1644
▁vino	-1645
dietro	-1646
len	-1647
pen	-1648
▁or	-1649
iato	-1650
laad	-1651
olio	-1652
stui	-1653
tati	-1654
▁fecero	-1655
and	-1656
voce	-1657
▁pass	-1658
zechia	-1659
▁appar	-1660
▁riferi	-1661
ama	-1662
bocca	-1663
▁testa	-1664
olocausto	-1665
tudine	-1666
ritorio	-1667
tarono	-1668
▁campo	-1669
▁Giordano	-1670
ell	-1671
oggi	-1672
remo	-1673
regno	-1674
ontà	-1675
▁pio	-1676
devano	-1677
stesso	-1678
▁Anche	-1679
▁alcuni	-1680
▁ciascuno	-1681
sposero	-1682
▁mandò	-1683
▁generò	-1684
▁anziani	-1685
rante	-1686
spetto	-1687
insieme	-1688
fratello	-1689
▁Ab	-1690
▁Man	-1691
▁fac	-1692
cerca	-1693
▁strada	-1694
accampamento	-1695
dor	-1696
gloria	-1697
▁am	-1698
àsse	-1699
▁desi	-1700
▁mini	-1701
furono	-1702
▁riman	-1703
▁dimora	-1704
▁vio	-1705
trani	-1706
▁veni	-1707
▁cento	-1708
lati	-1709
rerà	-1710
ssione	-1711
▁Un	-1712
▁strani	-1713
colui	-1714
ob	-1715
▁proprio	-1716
dero	-1717
grazia	-1718
àn	-1719
▁Ne	-1720
▁mu	-1721
terna	-1722
▁Dopo	-1723
▁però	-1724
▁abita	-1725
▁morti	-1726
▁princi	-1727
giacobbe	-1728
ille	-1729
voca	-1730
dalle	-1731
riti	-1732
▁Rispose	-1733
▁scritto	-1734
▁santuario	-1735
deranno	-1736
▁Gh	-1737
gare	-1738
donna	-1739
lascia	-1740
▁messo	-1741
▁grandi	-1742
▁nostra	-1743
▁allontan	-1744
▁servizio	-1745
ub	-1746
▁ani	-1747
▁Re	-1748
quali	-1749
gresso	-1750
quella	-1751
ttanta	-1752
esercito	-1753
mer	-1754
costrui	-1755
dar	-1756
▁fon	-1757
▁destra	-1758
dis	-1759
coli	-1760
tinu	-1761
coman	-1762
▁Eb	-1763
▁olo	-1764
▁modo	-1765
▁Efraim	-1766
▁Questo	-1767
▁consac	-1768
tenda	-1769
iuto	-1770
▁fre	-1771
▁ono	-1772
zzato	-1773
invece	-1774
▁Tutti	-1775
▁malva	-1776
▁Questi	-1777
▁intorno	-1778
rano	-1779
Se	-1780
àb	-1781
desi	-1782
▁stata	-1783
▁metter	-1784
▁presenza	-1785
opera	-1786
verrà	-1787
volto	-1788
▁Ci	-1789
▁tene	-1790
ccu	-1791
ceva	-1792
comp	-1793
vuto	-1794
Che	-1795
ango	-1796
▁pron	-1797
▁scel	-1798
▁rispon	-1799
▁lontano	-1800
▁potenza	-1801
▁riguardo	-1802
quar	-1803
sten	-1804
dicendo	-1805
lavo	-1806
aronne	-1807
moglie	-1808
èle	-1809
cere	-1810
causti	-1811
▁imp	-1812
▁uni	-1813
primo	-1814
▁stava	-1815
dissero	-1816
osser	-1817
siete	-1818
vento	-1819
ingresso	-1820
mei	-1821
schi	-1822
ttimo	-1823
▁sper	-1824
▁vide	-1825
▁andare	-1826
▁potere	-1827
veni	-1828
▁Pie	-1829
▁Voi	-1830
degno	-1831
▁alzò	-1832
quanti	-1833
▁genti	-1834
▁divenne	-1835
anda	-1836
dera	-1837
gano	-1838
estie	-1839
notte	-1840
deserto	-1841
ttaglia	-1842
festa	-1843
▁fari	-1844
▁trono	-1845
▁avvicin	-1846
perciò	-1847
dom	-1848
uono	-1849
▁fine	-1850
▁Paolo	-1851
▁abbia	-1852
▁oltre	-1853
▁chiamò	-1854
▁libera	-1855
nulla	-1856
▁rib	-1857
▁fosse	-1858
▁libro	-1859
pace	-1860
rente	-1861
aniele	-1862
ssiria	-1863
lore	-1864
▁Aca	-1865
offri	-1866
stitu	-1867
▁ebbe	-1868
▁peccati	-1869
▁sacrifici	-1870
ttò	-1871
unto	-1872
Il	-1873
rvi	-1874
enne	-1875
sali	-1876
vendo	-1877
▁pian	-1878
▁scen	-1879
▁quelle	-1880
zer	-1881
però	-1882
▁Che	-1883
distru	-1884
▁vedere	-1885
▁ordinato	-1886
▁possesso	-1887
▁salvezza	-1888
cesso	-1889
ach	-1890
den	-1891
▁off	-1892
▁sen	-1893
▁compa	-1894
▁santo	-1895
▁famiglie	-1896
aff	-1897
rmi	-1898
censo	-1899
stare	-1900
vola	-1901
cherò	-1902
mblea	-1903
ssalonne	-1904
trova	-1905
popoli	-1906
sulle	-1907
lun	-1908
venne	-1909
faccia	-1910
ghiera	-1911
estre	-1912
▁comin	-1913
▁porte	-1914
fru	-1915
moniti	-1916
iore	-1917
piedi	-1918
prend	-1919
▁asco	-1920
▁Egitto	-1921
▁lavoro	-1922
▁mandato	-1923
▁padrone	-1924
▁comunità	-1925
anima	-1926
stati	-1927
mere	-1928
▁ang	-1929
genti	-1930
rella	-1931
ventura	-1932
▁disper	-1933
▁venire	-1934
▁venuto	-1935
▁parlare	-1936
▁Giovanni	-1937
santo	-1938
ggiunse	-1939
tore	-1940
▁ama	-1941
▁allo	-1942
▁esso	-1943
▁mise	-1944
▁monti	-1945
farò	-1946
monte	-1947
rifica	-1948
ggeri	-1949
▁sole	-1950
ccelli	-1951
▁messa	-1952
▁Pietro	-1953
gò	-1954
sol	-1955
causa	-1956
▁Sion	-1957
▁risu	-1958
▁Mentre	-1959
perto	-1960
ttentrione	-1961
cie	-1962
ttra	-1963
amore	-1964
parla	-1965
▁picco	-1966
▁verrà	-1967
▁morire	-1968
▁Beniamino	-1969
fiu	-1970
seo	-1971
scen	-1972
profeti	-1973
pria	-1974
gogna	-1975
▁venne	-1976
▁pietra	-1977
▁annunzia	-1978
carne	-1979
▁teso	-1980
▁Santo	-1981
▁potrà	-1982
gà	-1983
gine	-1984
▁sap	-1985
▁quei	-1986
▁folla	-1987
▁sorte	-1988
intorno	-1989
▁dodici	-1990
▁chiamato	-1991
▁convegno	-1992
ede	-1993
rima	-1994
dendo	-1995
vate	-1996
bbene	-1997
▁Moab	-1998
▁mori	-1999
▁rend	-2000
genito	-2001
▁preso	-2002
▁sapienza	-2003
▁misericordia	-2004
fat	-2005
verti	-2006
tata	-2007
▁fal	-2008
▁spi	-2009
▁empi	-2010
▁atten	-2011
▁prodi	-2012
▁giusti	-2013
strati	-2014
ate	-2015
rov	-2016
cher	-2017
▁vuo	-2018
empio	-2019
dimora	-2020
babilonia	-2021
sioni	-2022
mbe	-2023
mbo	-2024
deci	-2025
into	-2026
essun	-2027
ronzo	-2028
tagne	-2029
▁schi	-2030
salomone	-2031
dico	-2032
giov	-2033
▁?».	-2034
dando	-2035
figlia	-2036
Si	-2037
▁abo	-2038
madre	-2039
▁asse	-2040
▁ognuno	-2041
imp	-2042
ramo	-2043
vino	-2044
stabili	-2045
eserciti	-2046
▁men	-2047
nostri	-2048
▁dagli	-2049
▁iniquità	-2050
dan	-2051
▁ce	-2052
vore	-2053
▁Sono	-2054
▁alcun	-2055
▁comba	-2056
▁lingua	-2057
▁cammina	-2058
rica	-2059
agi	-2060
pora	-2061
▁fiu	-2062
inter	-2063
ricor	-2064
▁Elia	-2065
▁Gere	-2066
▁acqua	-2067
▁terzo	-2068
▁gioven	-2069
▁Geremia	-2070
ffa	-2071
rona	-2072
rie	-2073
▁rin	-2074
letto	-2075
▁Ioab	-2076
▁ripo	-2077
comuni	-2078
▁udito	-2079
assemblea	-2080
fuori	-2081
fede	-2082
rgli	-2083
sura	-2084
▁Dice	-2085
nemici	-2086
eroboamo	-2087
▁eredità	-2088
menta	-2089
aver	-2090
spar	-2091
▁cuo	-2092
compi	-2093
vostra	-2094
▁fatti	-2095
▁getta	-2096
potente	-2097
▁rivolta	-2098
sacrificio	-2099
giò	-2100
andò	-2101
dita	-2102
son	-2103
fumo	-2104
ppia	-2105
▁ira	-2106
▁pote	-2107
Perché	-2108
▁custo	-2109
▁frutto	-2110
▁timore	-2111
▁generazione	-2112
cuo	-2113
lei	-2114
giudi	-2115
dranno	-2116
ìm	-2117
rli	-2118
ppli	-2119
▁Pre	-2120
acque	-2121
▁resto	-2122
▁dispre	-2123
coloro	-2124
numero	-2125
▁Gu	-2126
sino	-2127
▁impo	-2128
finché	-2129
▁fuggi	-2130
▁siano	-2131
▁brucia	-2132
abitanti	-2133
bru	-2134
tuto	-2135
ond	-2136
avrà	-2137
tico	-2138
▁ore	-2139
▁bere	-2140
bbiamo	-2141
presen	-2142
▁lungo	-2143
▁nasco	-2144
pane	-2145
molto	-2146
sterà	-2147
sà	-2148
bero	-2149
genza	-2150
visto	-2151
▁mura	-2152
▁ogge	-2153
sciuto	-2154
▁volte	-2155
faraone	-2156
giziani	-2157
▁pietre	-2158
▁rovina	-2159
▁vicino	-2160
▁Samuele	-2161
▁ministri	-2162
ssu	-2163
acco	-2164
tica	-2165
▁pure	-2166
vostre	-2167
▁conce	-2168
▁consu	-2169
tamente	-2170
▁ben	-2171
▁scu	-2172
▁Achi	-2173
▁darò	-2174
▁sera	-2175
▁stan	-2176
▁morto	-2177
▁prati	-2178
▁sarai	-2179
▁distrugg	-2180
▁testimonianza	-2181
cura	-2182
anaan	-2183
vente	-2184
terete	-2185
famiglia	-2186
▁condotta	-2187
▁incontro	-2188
vio	-2189
safat	-2190
Co	-2191
pì	-2192
are	-2193
anco	-2194
▁altre	-2195
▁valle	-2196
▁denaro	-2197
▁sabato	-2198
▁diritto	-2199
▁discendenza	-2200
tù	-2201
sogno	-2202
illaggi	-2203
rno	-2204
siamo	-2205
▁doman	-2206
▁quell	-2207
▁vento	-2208
▁Isacco	-2209
▁voglio	-2210
▁cavalli	-2211
▁circonci	-2212
arlo	-2213
espia	-2214
genera	-2215
varono	-2216
arri	-2217
ttina	-2218
▁anno	-2219
▁uscì	-2220
chiama	-2221
gnello	-2222
▁Ezechia	-2223
dì	-2224
allo	-2225
abbandon	-2226
farà	-2227
▁pol	-2228
▁dare	-2229
leviti	-2230
▁Gàlaad	-2231
▁marito	-2232
▁perciò	-2233
▁chiunque	-2234
▁territorio	-2235
bet	-2236
duti	-2237
segn	-2238
denti	-2239
verità	-2240
oriente	-2241
Io	-2242
▁fini	-2243
▁peri	-2244
▁decre	-2245
▁farai	-2246
▁simile	-2247
▁immondo	-2248
sò	-2249
rad	-2250
orecchio	-2251
stò	-2252
▁Ho	-2253
codò	-2254
▁muo	-2255
colpi	-2256
nosor	-2257
▁anch	-2258
▁mang	-2259
▁sepol	-2260
▁diceva	-2261
▁quegli	-2262
▁subito	-2263
▁mattino	-2264
▁regione	-2265
codònosor	-2266
poss	-2267
rate	-2268
▁cro	-2269
▁mar	-2270
stata	-2271
giusto	-2272
▁idoli	-2273
▁possa	-2274
▁quest	-2275
▁Manàsse	-2276
▁espiato	-2277
▁neppure	-2278
▁qualche	-2279
torn	-2280
torì	-2281
ancia	-2282
mbino	-2283
èlech	-2284
ppelli	-2285
gistrati	-2286
può	-2287
▁Fe	-2288
▁Ro	-2289
cioè	-2290
mine	-2291
consi	-2292
▁sape	-2293
▁gover	-2294
▁pecore	-2295
▁insegna	-2296
sole	-2297
▁Nab	-2298
▁Sal	-2299
super	-2300
▁tale	-2301
scritto	-2302
gro	-2303
nuovo	-2304
metter	-2305
ania	-2306
rice	-2307
▁Asa	-2308
anchi	-2309
resta	-2310
▁morì	-2311
▁conta	-2312
▁pietà	-2313
▁risca	-2314
▁quindi	-2315
▁ricche	-2316
▁schiavi	-2317
sui	-2318
alto	-2319
ciul	-2320
sato	-2321
ranqu	-2322
terai	-2323
giudei	-2324
gnelli	-2325
bà	-2326
acc	-2327
▁dà	-2328
arla	-2329
▁riv	-2330
▁tri	-2331
forte	-2332
ttura	-2333
abramo	-2334
▁dietro	-2335
▁accampa	-2336
▁andarono	-2337
illo	-2338
giosuè	-2339
mà	-2340
prì	-2341
▁er	-2342
tari	-2343
tivo	-2344
arono	-2345
diede	-2346
noltre	-2347
▁volto	-2348
▁conosc	-2349
giuseppe	-2350
▁trovato	-2351
▁prendere	-2352
mese	-2353
cessa	-2354
fronte	-2355
trenta	-2356
dea	-2357
temi	-2358
▁ele	-2359
▁lar	-2360
forza	-2361
▁carri	-2362
▁festa	-2363
▁opera	-2364
▁giudizio	-2365
▁qualcuno	-2366
data	-2367
mali	-2368
detta	-2369
verete	-2370
Tu	-2371
sola	-2372
profeta	-2373
▁parlato	-2374
fuggi	-2375
filistei	-2376
armi	-2377
gani	-2378
gore	-2379
ppor	-2380
▁Can	-2381
iglio	-2382
▁cibo	-2383
▁resta	-2384
▁propri	-2385
▁Samaria	-2386
▁pascoli	-2387
▁vennero	-2388
▁espiatorio	-2389
beri	-2390
gioia	-2391
venire	-2392
cinquanta	-2393
▁No	-2394
squa	-2395
dette	-2396
dieci	-2397
▁cada	-2398
▁spar	-2399
discepoli	-2400
ccon	-2401
diti	-2402
stone	-2403
▁fan	-2404
▁esse	-2405
▁rifu	-2406
uscire	-2407
venuto	-2408
▁comme	-2409
▁pasto	-2410
▁raduna	-2411
rri	-2412
vera	-2413
gliere	-2414
nazioni	-2415
ardo	-2416
gnato	-2417
testa	-2418
▁abba	-2419
▁invi	-2420
▁lato	-2421
ttorno	-2422
▁onore	-2423
▁Quanto	-2424
▁Giònata	-2425
▁Oracolo	-2426
▁olocausti	-2427
rin	-2428
mise	-2429
mèlech	-2430
mori	-2431
▁Baal	-2432
▁Ioia	-2433
▁olio	-2434
▁Tutto	-2435
▁dello	-2436
▁dimenti	-2437
▁alleanza	-2438
strò	-2439
preso	-2440
simento	-2441
ger	-2442
racco	-2443
▁chiu	-2444
▁fate	-2445
circon	-2446
▁Questa	-2447
▁bestie	-2448
▁gregge	-2449
▁stessa	-2450
▁continu	-2451
▁polvere	-2452
▁dicevano	-2453
▁battaglia	-2454
piega	-2455
riferi	-2456
ccò	-2457
cini	-2458
itti	-2459
▁esi	-2460
bbedi	-2461
comin	-2462
▁case	-2463
▁soff	-2464
▁nemico	-2465
▁nostre	-2466
▁stavano	-2467
▁speranza	-2468
vata	-2469
santi	-2470
▁Bala	-2471
▁collo	-2472
▁potre	-2473
discend	-2474
▁sarete	-2475
▁entrare	-2476
▁giovani	-2477
▁malvagi	-2478
▁campagna	-2479
▁soltanto	-2480
ner	-2481
chem	-2482
zaro	-2483
abbia	-2484
abita	-2485
alcuni	-2486
rispon	-2487
tenti	-2488
▁fame	-2489
quindi	-2490
▁eterna	-2491
▁comandi	-2492
▁giovane	-2493
ale	-2494
pass	-2495
derai	-2496
opere	-2497
guerra	-2498
▁pes	-2499
nocen	-2500
trerà	-2501
fecero	-2502
figlie	-2503
▁legno	-2504
▁rivol	-2505
tio	-2506
valle	-2507
asa	-2508
fac	-2509
▁So	-2510
mate	-2511
sull	-2512
▁son	-2513
corpo	-2514
▁metà	-2515
▁avevo	-2516
▁paura	-2517
▁sicli	-2518
▁Dimora	-2519
prendere	-2520
posi	-2521
rane	-2522
schio	-2523
inistra	-2524
rrà	-2525
▁Essa	-2526
▁assi	-2527
▁impa	-2528
▁Daniele	-2529
▁tenebre	-2530
▁prossimo	-2531
▁Assalonne	-2532
sé	-2533
ara	-2534
mma	-2535
rca	-2536
alzò	-2537
bbli	-2538
tana	-2539
eravi	-2540
▁indi	-2541
▁dovrà	-2542
▁sapere	-2543
bar	-2544
bil	-2545
Chi	-2546
fre	-2547
llo	-2548
▁vie	-2549
dosso	-2550
ronti	-2551
stava	-2552
▁ango	-2553
▁attra	-2554
▁colpa	-2555
▁grano	-2556
proprio	-2557
▁perdon	-2558
▁ricono	-2559
ciascuno	-2560
▁settimo	-2561
sma	-2562
ute	-2563
cando	-2564
mbini	-2565
annunzia	-2566
nati	-2567
▁teme	-2568
▁colpe	-2569
▁sorella	-2570
▁Ammoniti	-2571
elia	-2572
luce	-2573
insegna	-2574
allontan	-2575
rrò	-2576
▁Go	-2577
cerà	-2578
cipi	-2579
divo	-2580
trio	-2581
▁glo	-2582
▁ing	-2583
▁tal	-2584
appar	-2585
ccupa	-2586
vegli	-2587
viato	-2588
▁divi	-2589
▁avrai	-2590
▁menzo	-2591
▁prece	-2592
▁misero	-2593
▁uccelli	-2594
telligenza	-2595
▁settentrione	-2596
▁!».	-2597
oracolo	-2598
ccidente	-2599
erlo	-2600
▁Ara	-2601
▁esa	-2602
esero	-2603
messi	-2604
▁piena	-2605
▁umili	-2606
▁labbra	-2607
▁dinanzi	-2608
▁sventura	-2609
▁preghiera	-2610
ant	-2611
rpe	-2612
duta	-2613
lità	-2614
sare	-2615
tate	-2616
ggior	-2617
cubiti	-2618
davano	-2619
fferte	-2620
sona	-2621
ulti	-2622
▁Ama	-2623
entro	-2624
▁Fece	-2625
▁anzi	-2626
▁sarò	-2627
▁tras	-2628
▁batte	-2629
▁leggi	-2630
▁mille	-2631
▁cammino	-2632
▁propria	-2633
cari	-2634
donne	-2635
estremità	-2636
An	-2637
▁Fa	-2638
▁Ru	-2639
sciò	-2640
scor	-2641
▁Nabu	-2642
morrei	-2643
quegli	-2644
▁aiuto	-2645
▁buona	-2646
▁tanto	-2647
▁procla	-2648
▁sconfi	-2649
▁orecchi	-2650
cieli	-2651
riman	-2652
mangiare	-2653
aia	-2654
merà	-2655
▁Esa	-2656
▁gua	-2657
▁tur	-2658
danna	-2659
pasco	-2660
▁amore	-2661
▁confi	-2662
▁tornò	-2663
bestiame	-2664
▁Infatti	-2665
gina	-2666
lerà	-2667
orse	-2668
nalza	-2669
oltre	-2670
tezza	-2671
ggezza	-2672
ttosto	-2673
và	-2674
▁Me	-2675
▁Pi	-2676
▁min	-2677
campo	-2678
▁beni	-2679
▁dono	-2680
▁lasc	-2681
▁catti	-2682
▁vigna	-2683
▁bronzo	-2684
▁sdegno	-2685
▁stessi	-2686
▁presero	-2687
▁montagne	-2688
voli	-2689
bia	-2690
rla	-2691
tur	-2692
bbro	-2693
ebbe	-2694
geva	-2695
lera	-2696
tile	-2697
▁dar	-2698
erico	-2699
inago	-2700
lenza	-2701
struì	-2702
verai	-2703
▁affi	-2704
▁grido	-2705
▁liber	-2706
▁passi	-2707
▁primi	-2708
▁pronun	-2709
▁rimase	-2710
▁trenta	-2711
▁oriente	-2712
▁passare	-2713
uova	-2714
rdino	-2715
destra	-2716
dodici	-2717
princi	-2718
anziani	-2719
àr	-2720
▁Nel	-2721
▁fia	-2722
▁sel	-2723
▁viv	-2724
atrio	-2725
farai	-2726
tendo	-2727
▁darà	-2728
▁deso	-2729
▁poco	-2730
▁vivo	-2731
▁ferro	-2732
▁Quelli	-2733
chiunque	-2734
giordano	-2735
▁costoro	-2736
▁momento	-2737
▁comunione	-2738
cano	-2739
scel	-2740
teso	-2741
getta	-2742
zzare	-2743
parato	-2744
tterai	-2745
▁gui	-2746
morti	-2747
▁Esaù	-2748
generò	-2749
rarono	-2750
▁campi	-2751
▁Quindi	-2752
▁scelto	-2753
▁potente	-2754
lag	-2755
strada	-2756
potenza	-2757
oblazione	-2758
ing	-2759
▁Ga	-2760
▁Ia	-2761
▁Là	-2762
▁as	-2763
saia	-2764
serà	-2765
▁para	-2766
cherai	-2767
fficia	-2768
▁canto	-2769
incenso	-2770
▁costui	-2771
▁frutti	-2772
▁conosce	-2773
▁Geroboamo	-2774
rib	-2775
cava	-2776
impo	-2777
grandi	-2778
nostra	-2779
strani	-2780
mandato	-2781
dec	-2782
tani	-2783
▁dia	-2784
▁meno	-2785
consac	-2786
▁Disse	-2787
▁accor	-2788
▁posso	-2789
Signore	-2790
▁favore	-2791
▁comando	-2792
▁primogenito	-2793
bole	-2794
dirà	-2795
lata	-2796
mura	-2797
ccare	-2798
dotto	-2799
eremo	-2800
lendo	-2801
ttero	-2802
avvicin	-2803
essanta	-2804
nocente	-2805
ondanza	-2806
duce	-2807
tera	-2808
▁ado	-2809
▁ali	-2810
▁atti	-2811
essero	-2812
▁entrò	-2813
▁state	-2814
riguardo	-2815
▁porpora	-2816
▁seguito	-2817
▁cinquanta	-2818
ber	-2819
off	-2820
mando	-2821
minare	-2822
Di	-2823
▁Po	-2824
▁ob	-2825
ogge	-2826
tizia	-2827
sposto	-2828
stante	-2829
▁parlò	-2830
▁povero	-2831
▁suppli	-2832
restiero	-2833
santuario	-2834
▁comandato	-2835
▁risposero	-2836
peri	-2837
accor	-2838
vedere	-2839
servizio	-2840
au	-2841
▁Ki	-2842
modo	-2843
▁oro	-2844
mette	-2845
▁scor	-2846
libera	-2847
▁grida	-2848
geranno	-2849
angoscia	-2850
▁durante	-2851
▁consegna	-2852
moli	-2853
redi	-2854
reno	-2855
decìa	-2856
ducia	-2857
ubini	-2858
efraim	-2859
abo	-2860
▁Fu	-2861
segu	-2862
▁All	-2863
sposi	-2864
tterà	-2865
udito	-2866
▁cari	-2867
▁deva	-2868
▁deve	-2869
▁immo	-2870
▁vole	-2871
guarda	-2872
▁certo	-2873
▁preda	-2874
▁prova	-2875
▁angeli	-2876
▁ordine	-2877
▁ordinò	-2878
▁comanda	-2879
▁raggiun	-2880
▁Egiziani	-2881
▁vergogna	-2882
▁mezzogiorno	-2883
malva	-2884
giusti	-2885
lontano	-2886
cheo	-2887
enze	-2888
erba	-2889
sera	-2890
▁Cal	-2891
elice	-2892
nunzi	-2893
siano	-2894
▁alto	-2895
▁sten	-2896
essuna	-2897
▁acqui	-2898
▁mette	-2899
versari	-2900
▁Canaan	-2901
▁nessun	-2902
▁Nessuno	-2903
▁risusci	-2904
meno	-2905
tornò	-2906
ognuno	-2907
divenne	-2908
presenza	-2909
dde	-2910
gerai	-2911
▁Acab	-2912
▁Gàba	-2913
▁dirà	-2914
▁riti	-2915
▁	-2916
¦	-2917
e	-2918
i	-2919
a	-2920
o	-2921
r	-2922
n	-2923
l	-2924
t	-2925
s	-2926
c	-2927
d	-2928
u	-2929
p	-2930
m	-2931
g	-2932
v	-2933
,	-2934
h	-2935
f	-2936
𐋇	-2937
b	-2938
z	-2939
q	-2940
à	-2941
'	-2942
ò	-2943
:	-2944
S	-2945
è	-2946
é	-2947
I	-2948
.	-2949
;	-2950
»	-2951
«	-2952
D	-2953
A	-2954
G	-2955
E	-2956
ì	-2957
C	-2958
ù	-2959
M	-2960
P	-2961
?	-2962
N	-2963
L	-2964
!	-2965
B	-2966
Q	-2967
T	-2968
-	-2969
F	-2970
R	-2971
O	-2972
k	-2973
V	-2974
U	-2975
Z	-2976
H	-2977
K	-2978
"	-2979
1	-2980
6	-2981
(	-2982
2	-2983
)	-2984
3	-2985
4	-2986
5	-2987
7	-2988
8	-2989
0	-2990
9	-2991
’	-2992
J	-2993
j	-2994
]	-2995
}	-2996
