<pad>	0
</s>	0
<unk>	0
▁¦	-0
th	-1
in	-2
the	-3
re	-4
on	-5
an	-6
at	-7
en	-8
er	-9
or	-10
▁𐋇	-11
▁the	-12
is	-13
ed	-14
al	-15
as	-16
es	-17
▁s	-18
to	-19
of	-20
▁c	-21
ar	-22
ing	-23
▁a	-24
ti	-25
ou	-26
▁w	-27
and	-28
▁in	-29
▁p	-30
▁h	-31
ent	-32
▁of	-33
▁b	-34
ac	-35
it	-36
▁f	-37
▁d	-38
ati	-39
▁to	-40
ic	-41
il	-42
ro	-43
ve	-44
▁.	-45
ec	-46
id	-47
tr	-48
le	-49
▁,	-50
▁m	-51
he	-52
▁and	-53
us	-54
ation	-55
os	-56
ir	-57
om	-58
▁T	-59
▁th	-60
▁n	-61
▁be	-62
ay	-63
ad	-64
ver	-65
▁re	-66
ly	-67
ow	-68
▁v	-69
tion	-70
▁C	-71
▁is	-72
acc	-73
ter	-74
oron	-75
▁M	-76
ave	-77
ch	-78
un	-79
ur	-80
ol	-81
accin	-82
orona	-83
ment	-84
▁l	-85
ill	-86
▁A	-87
▁g	-88
op	-89
▁e	-90
st	-91
ate	-92
▁I	-93
▁t	-94
▁S	-95
am	-96
ot	-97
um	-98
ce	-99
▁The	-100
ted	-101
im	-102
▁for	-103
di	-104
ith	-105
▁on	-106
et	-107
el	-108
oun	-109
are	-110
ak	-111
oc	-112
ig	-113
rom	-114
for	-115
ers	-116
▁st	-117
▁are	-118
ts	-119
be	-120
res	-121
als	-122
over	-123
ents	-124
ut	-125
ul	-126
em	-127
▁vaccin	-128
ld	-129
ab	-130
ag	-131
fec	-132
ere	-133
▁P	-134
▁that	-135
ain	-136
▁has	-137
▁H	-138
se	-139
ap	-140
out	-141
ther	-142
ome	-143
▁have	-144
atients	-145
umb	-146
ion	-147
▁con	-148
all	-149
▁D	-150
ity	-151
vid	-152
▁an	-153
▁with	-154
▁B	-155
iti	-156
iv	-157
▁In	-158
aid	-159
irus	-160
por	-161
▁wh	-162
overn	-163
20	-164
▁corona	-165
▁𐊣	-166
od	-167
alth	-168
our	-169
overnment	-170
if	-171
ess	-172
▁1	-173
▁was	-174
ore	-175
inis	-176
▁as	-177
ase	-178
eop	-179
eople	-180
▁r	-181
▁"	-182
▁will	-183
ould	-184
gen	-185
uc	-186
qu	-187
har	-188
▁from	-189
ear	-190
▁W	-191
est	-192
▁dis	-193
▁pro	-194
▁(	-195
ud	-196
▁y	-197
▁R	-198
ated	-199
▁or	-200
also	-201
up	-202
ew	-203
▁'	-204
igh	-205
own	-206
▁o	-207
▁not	-208
19	-209
av	-210
▁at	-211
wh	-212
ies	-213
▁sh	-214
pl	-215
▁by	-216
me	-217
ash	-218
tric	-219
pit	-220
tions	-221
▁been	-222
ant	-223
corona	-224
▁it	-225
ays	-226
vaccin	-227
pro	-228
co	-229
ep	-230
▁patients	-231
cl	-232
▁ex	-233
con	-234
umber	-235
ospit	-236
ary	-237
any	-238
end	-239
▁this	-240
ork	-241
▁vaccine	-242
-19	-243
has	-244
per	-245
fter	-246
▁tr	-247
▁Th	-248
▁N	-249
that	-250
sp	-251
▁he	-252
sh	-253
inister	-254
tor	-255
ge	-256
▁O	-257
ef	-258
▁com	-259
▁said	-260
med	-261
gh	-262
ous	-263
▁U	-264
ountr	-265
ical	-266
ast	-267
der	-268
ding	-269
com	-270
ure	-271
▁ch	-272
cre	-273
we	-274
ath	-275
▁government	-276
have	-277
ans	-278
tra	-279
ever	-280
one	-281
▁people	-282
ial	-283
fic	-284
ock	-285
ik	-286
ack	-287
ren	-288
with	-289
ough	-290
port	-291
xy	-292
ue	-293
ound	-294
vel	-295
ms	-296
ail	-297
ex	-298
▁also	-299
ose	-300
ub	-301
virus	-302
xygen	-303
pr	-304
▁F	-305
tic	-306
▁de	-307
▁im	-308
dis	-309
ance	-310
▁state	-311
age	-312
▁infec	-313
ahar	-314
ine	-315
dia	-316
use	-317
ven	-318
down	-319
uch	-320
ator	-321
iz	-322
ashtra	-323
aharashtra	-324
this	-325
▁K	-326
▁ac	-327
▁Ch	-328
ost	-329
▁cl	-330
not	-331
▁un	-332
ospital	-333
ip	-334
▁were	-335
▁G	-336
will	-337
ib	-338
▁ad	-339
▁per	-340
▁virus	-341
able	-342
duc	-343
ens	-344
cent	-345
from	-346
▁number	-347
pre	-348
▁¦1	-349
ll	-350
▁le	-351
ockdown	-352
00	-353
▁2	-354
▁	-355
¦	-356
e	-357
t	-358
a	-359
i	-360
o	-361
n	-362
s	-363
r	-364
h	-365
d	-366
c	-367
l	-368
u	-369
m	-370
p	-371
f	-372
g	-373
v	-374
y	-375
w	-376
b	-377
.	-378
𐋇	-379
,	-380
k	-381
C	-382
T	-383
0	-384
-	-385
1	-386
I	-387
A	-388
2	-389
S	-390
M	-391
x	-392
'	-393
D	-394
P	-395
9	-396
H	-397
j	-398
"	-399
R	-400
B	-401
O	-402
z	-403
5	-404
V	-405
𐊣	-406
𐊼	-407
W	-408
4	-409
q	-410
3	-411
)	-412
(	-413
N	-414
E	-415
?	-416
U	-417
8	-418
6	-419
7	-420
K	-421
F	-422
G	-423
:	-424
J	-425
L	-426
%	-427
;	-428
/	-429
Y	-430
Z	-431
!	-432
’	-433
”	-434
“	-435
–	-436
Q	-437
X	-438
[	-439
]	-440
&	-441
$	-442
#	-443
—	-444
‘	-445
•	-446
≥	-447
+	-448
°	-449
*	-450
ा	-451
_	-452
×	-453
武	-454
肺	-455
~	-456
á	-457
í	-458
α	-459
β	-460
स	-461
े	-462
्	-463
=	-464
ò	-465
č	-466
ş	-467
γ	-468
ं	-469
क	-470
ब	-471
र	-472
汉	-473
漢	-474
炎	-475
Ü	-476
£	-477
é	-478
ó	-479
ई	-480
ओ	-481
च	-482
त	-483
द	-484
प	-485
ल	-486
ळ	-487
व	-488
श	-489
ो	-490
′	-491
火	-492
眼	-493
Å	-494
ü	-495
å	-496
