<pad>	0
</s>	0
<unk>	0
ም	-2.98276
፥	-3.61438
ን	-3.62756
።	-3.8217
▁	-4.00198
ና	-4.1297
፤	-4.34761
▁የ	-4.64232
▁በ	-4.69668
▁ወደ	-4.71239
▁ሁሉ	-4.80448
ት	-5.02734
ው	-5.07951
ስ	-5.10718
▁ከ	-5.13126
▁እንደ	-5.1486
▁ላይ	-5.26076
▁ዘንድ	-5.27503
ንም	-5.35358
▁እግዚአብሔር	-5.36536
▁ይ	-5.39701
ህ	-5.3989
ር	-5.41576
?	-5.41819
▁አ	-5.42637
▁ግን	-5.4386
ል	-5.4589
▁ለ	-5.51101
▁ነገር	-5.67446
▁ስለ	-5.70798
▁ጊዜ	-5.72575
▁ተ	-5.72693
▁ጋር	-5.75407
ለ	-5.79214
ረ	-5.83165
ድ	-5.83671
▁ልጆች	-5.84182
▁ያ	-5.84682
▁ልጅ	-5.85773
▁ሰው	-5.90714
▁የሚ	-5.92266
ብ	-5.93953
▁እ	-6.02211
ደ	-6.05534
ራ	-6.0629
▁እኔ	-6.06916
ግ	-6.07815
▁ት	-6.09348
▁መ	-6.10487
ታ	-6.12612
በ	-6.12724
ባ	-6.12901
▁እንዲህ	-6.14352
ዋ	-6.14957
ሰ	-6.15701
ጥ	-6.18379
▁ቀን	-6.18993
▁ቤት	-6.19403
ገ	-6.21652
መ	-6.22024
ላ	-6.22294
በት	-6.24114
▁ፊት	-6.24872
ተ	-6.25673
ቅ	-6.26813
▁ሆይ፥	-6.27022
ሳ	-6.28798
ፍ	-6.3091
ቀ	-6.32165
ች	-6.32609
ነ	-6.32674
ሽ	-6.32877
▁ቃል	-6.36271
▁ሰዎች	-6.367
ያ	-6.37288
ማ	-6.38432
ውን	-6.39347
▁ደግሞ	-6.40722
▁አይ	-6.40942
ጠ	-6.41207
ይ	-6.46367
ከ	-6.47743
▁የተ	-6.47802
▁እርሱ	-6.48359
ዳ	-6.49342
▁ምድር	-6.49793
▁ንጉሥ	-6.50643
▁ድረስ	-6.51069
▁ነው	-6.51121
▁አንድ	-6.51245
▁አንተ	-6.52026
ክ	-6.5319
▁አል	-6.53468
▁እስከ	-6.54527
ፈ	-6.54718
▁በእግዚአብሔር	-6.54978
▁አለው።	-6.56597
▁ይህ	-6.58812
▁ነው።	-6.61661
▁ውስጥ	-6.61756
▁ጌታ	-6.62426
ጋ	-6.63629
ዝ	-6.63969
▁ነበር።	-6.65274
ጣ	-6.66201
▁አለ።	-6.674
▁አት	-6.67705
▁ብሎ	-6.67974
▁የእግዚአብሔር	-6.68826
ወ	-6.7106
ንና	-6.71968
ቃ	-6.73065
▁ቢ	-6.74365
ዎች	-6.74948
▁በኋላ	-6.75209
▁ይህን	-6.75509
▁እናንተ	-6.8111
▁እግዚአብሔርም	-6.81192
▁እነሆ፥	-6.81383
▁አምላክ	-6.81957
▁ታ	-6.82502
▁እጅ	-6.82643
ኝ	-6.82706
ሮ	-6.83636
▁እርሱም	-6.84354
▁መካከል	-6.85625
ውም	-6.85948
ህን	-6.86196
ቱ	-6.87158
▁ወይም	-6.88088
▁ዓመት	-6.8977
▁የእስራኤል	-6.91268
ካ	-6.91497
▁እንዲ	-6.92216
ሁ	-6.92501
ሩ	-6.92921
▁ሲ	-6.93214
ዘ	-6.94392
ሉ	-6.95039
▁ከእርሱ	-6.95226
ፋ	-6.95603
▁አስ	-6.95945
▁ሊ	-6.96301
▁ሕዝብ	-6.96906
▁ምን	-6.97476
ሙ	-6.97711
▁ነው፤	-6.98281
ቁ	-6.99524
▁ሁለት	-6.996
ትን	-7.01394
▁ስለዚህ	-7.03126
ዛ	-7.06802
ቶ	-7.07983
ቡ	-7.09326
ዓ	-7.09334
ኑ	-7.09485
ዱ	-7.10092
▁ስፍራ	-7.10732
▁መሥዋዕት	-7.11434
▁እን	-7.1282
▁እንጂ	-7.12843
▁ለእግዚአብሔር	-7.13665
▁መቶ	-7.15241
ሎ	-7.15321
▁እግዚአብሔርን	-7.15787
ሱ	-7.17023
▁ሆነ	-7.17464
▁የሚያ	-7.17525
▁በዚያ	-7.17954
ሬ	-7.18575
▁በአ	-7.18613
▁ሰ	-7.19582
▁ደስ	-7.19803
▁እንዲሁ	-7.19967
ህም	-7.21307
ቸው	-7.21353
▁አላ	-7.2214
▁ሥራ	-7.22434
▁የእግዚአብሔርን	-7.22489
ቤ	-7.22542
▁አላቸው።	-7.22631
▁በምድር	-7.22882
▁እጅግ	-7.23033
▁ብዙ	-7.23502
ጡ	-7.23695
▁ለመ	-7.24203
ቆ	-7.24511
▁ማን	-7.24552
ሪ	-7.24618
ሞ	-7.24988
▁ነበረ።	-7.25642
▁ከፍ	-7.26306
▁ባ	-7.26705
▁እነርሱም	-7.27009
▁ያለ	-7.27781
▁በመ	-7.28304
▁ክፉ	-7.28611
▁በዚያም	-7.28716
▁በተ	-7.29823
▁እኔም	-7.30305
▁ነበር፤	-7.3078
ፉ	-7.32181
▁በእስራኤል	-7.32213
▁ከተማ	-7.32282
▁ሺህ	-7.32617
ጽ	-7.32654
▁መልካም	-7.33637
▁መንገድ	-7.33826
▁ይላል	-7.34569
ችሁ	-7.35009
▁በእርሱ	-7.35052
▁አቤቱ	-7.35462
▁አለቆች	-7.38188
ዶ	-7.38712
ዬ	-7.38981
▁አሳ	-7.3932
▁ዘመን	-7.3968
▁ይላል።	-7.40934
▁ከዚያ	-7.4128
ውንም	-7.41713
ሸ	-7.41925
▁እነዚህ	-7.42011
ጉ	-7.42723
▁እንዳይ	-7.43131
▁ማ	-7.43745
▁የምት	-7.43883
ና።	-7.43927
ኖ	-7.44137
ላችሁ	-7.4417
▁አገር	-7.45331
▁ከእነርሱ	-7.46354
ለት	-7.47038
▁በዚህ	-7.47041
ጨ	-7.47222
▁የአ	-7.47414
ላቸው	-7.47863
▁ዛሬ	-7.48449
▁ከአ	-7.48802
▁እንዳ	-7.49298
▁ታላቅ	-7.50346
አ	-7.51162
▁ቀ	-7.51213
▁ውኃ	-7.51378
ወጣ	-7.52401
ገባ	-7.53229
ቴ	-7.53371
▁ለዘላለም	-7.53508
▁ጊዜ፥	-7.53797
▁ስም	-7.54627
▁አለቃ	-7.54734
ሻ	-7.55219
ጭ	-7.55273
▁በዳ	-7.55547
ሜ	-7.55645
▁በሚ	-7.55761
ባት	-7.56361
▁ኢየሱስ	-7.57066
▁ጀምሮ	-7.5859
▁አለ	-7.60017
ተው	-7.60123
▁እርሱም።	-7.60175
ቦ	-7.60327
ሌ	-7.60856
▁ኃጢአት	-7.61112
▁ነበረ፤	-7.61691
▁ከእኔ	-7.6176
▁አሁን	-7.62055
▁ነበሩ።	-7.62109
▁እየ	-7.62558
▁እንግዲህ	-7.62558
▁ሰባት	-7.62625
ለው	-7.63251
▁ስ	-7.63411
ጫ	-7.63514
▁ሌላ	-7.63626
▁ድምፅ	-7.64471
▁ወገን	-7.64927
▁እነርሱ	-7.65392
▁ክርስቶስ	-7.65581
▁አሕዛብ	-7.66282
▁እንደሚ	-7.66503
ዩ	-7.67583
▁ሦስት	-7.67645
▁እንጀራ	-7.67838
ኩ	-7.68361
▁መንፈስ	-7.6841
▁እኛ	-7.68651
▁ንጉሡም	-7.69215
▁እንዲህም	-7.69558
ኮ	-7.69802
ቶች	-7.70195
▁የመ	-7.70322
ጸ	-7.70363
መጣ	-7.7112
ነት	-7.71173
ዕ	-7.71868
▁ለሚ	-7.72038
▁ከተሞች	-7.72519
▁ይልቅ	-7.72624
▁አጠገብ	-7.73109
▁ክንድ	-7.73113
▁እነሆም	-7.73219
▁ጠ	-7.73929
▁ሴት	-7.74631
▁ሴቶች	-7.74671
▁ነው፥	-7.74857
▁ከአንተ	-7.75551
▁ደ	-7.75624
▁ልብ	-7.75696
የ	-7.75835
▁እንዴት	-7.75854
▁ተራራ	-7.7602
▁ያለውን	-7.76475
▁በታች	-7.76483
▁ብት	-7.76651
▁የማ	-7.77133
▁ሁሉ፥	-7.77217
አቸው	-7.77562
ጕ	-7.77676
▁ብለው	-7.77879
▁ከእግዚአብሔር	-7.78675
▁ል	-7.78944
▁በኩል	-7.79317
▁ወ	-7.7963
▁ዳዊትም	-7.79706
▁ከዚህ	-7.79957
▁ንጉሡ	-7.80586
ሶ	-7.80718
ኛ	-7.80958
▁አምስት	-7.81026
▁ዕቃ	-7.81186
▁የሆነ	-7.81546
▁አሁንም	-7.81895
▁ማንም	-7.82302
ወጡ	-7.82449
ጦ	-7.82549
▁የተነሣ	-7.82691
ቼ	-7.82916
▁ይሆናል።	-7.83056
▁ሥጋ	-7.83406
▁አሥራ	-7.8354
ሕ	-7.83544
▁ወር	-7.83852
ጎ	-7.83855
▁አሉት።	-7.84252
▁ባለ	-7.84667
▁ዳዊት	-7.84851
▁የሰው	-7.85226
▁ቍርባን	-7.85299
ቢ	-7.85556
ሠራ	-7.85893
▁ከእስራኤል	-7.86269
▁አያ	-7.86621
▁ገና	-7.86667
▁ክብር	-7.86963
ገቡ	-7.8727
▁ከእናንተ	-7.87651
ቱን	-7.87918
ዋን	-7.8795
▁ካ	-7.8843
ሞት	-7.88812
ሉ።	-7.88842
▁ለማ	-7.88879
ሆን	-7.88896
ጠፋ	-7.89366
▁ኢየሱስም	-7.90074
ሠ	-7.90364
ጐ	-7.90504
ሥ	-7.90984
ፊ	-7.9102
ሰማ	-7.91307
ሣ	-7.91841
▁እስራኤል	-7.92151
ሴ	-7.92197
▁አይደለም	-7.92403
▁ነገድ	-7.92419
▁ዘንድ፥	-7.92668
ባቸው	-7.9315
▁ሆኖ	-7.93171
▁የማይ	-7.93601
▁ለእስራኤል	-7.93746
▁ናቸው።	-7.94528
ጃ	-7.95221
▁በይሁዳ	-7.95236
ዙ	-7.95819
▁ፍሬ	-7.95894
▁በእኔ	-7.96012
▁ከሚ	-7.96242
▁ሕግ	-7.96907
▁በር	-7.9701
!	-7.97513
ተኛ	-7.97672
▁በኢየሩሳሌም	-7.97777
▁ነ	-7.98015
▁በማ	-7.98418
▁ከመ	-7.98543
ነው	-7.99115
ሆ	-7.9925
▁በየ	-7.99895
▁ነገሥታት	-8.00481
▁አፍ	-8.00702
▁ነበርና	-8.00888
ፈራ	-8.01017
▁አራት	-8.01146
ታችሁ	-8.01192
▁ያስ	-8.01734
ሄድ	-8.01834
▁እስኪ	-8.01927
▁ያለው	-8.01959
▁ቅዱስ	-8.02633
▁ኢየሩሳሌም	-8.02654
ሐ	-8.02999
▁የሠራዊት	-8.03037
▁ሳይ	-8.03616
ነሣ	-8.03725
▁ደም	-8.03826
ገረ	-8.0441
▁ትእዛዝ	-8.04673
▁ብቻ	-8.04857
▁ነበር፥	-8.04964
▁ከተ	-8.04985
ባል	-8.05176
ላት	-8.05443
ቻቸው	-8.05593
ኤል	-8.05628
ጠራ	-8.06121
▁በዚያን	-8.06122
▁ሀያ	-8.06338
▁በግ	-8.06365
ለን	-8.0645
ልኝ	-8.06464
▁አልተ	-8.06628
ህንም	-8.06637
ኖር	-8.06664
▁ሙሴም	-8.06871
በላ	-8.07008
▁ሳ	-8.07061
ልህ	-8.07248
ሉ፥	-8.07311
▁ሕዝቡም	-8.07567
▁ዓ	-8.07615
▁ወይስ	-8.07673
▁እሳት	-8.07697
ት።	-8.0805
ዮ	-8.08122
ቍ	-8.08435
▁አሉ።	-8.0857
▁አታ	-8.08753
ሊ	-8.08794
▁ደግሞም	-8.09336
ጌ	-8.09423
▁በደ	-8.09703
▁ጥ	-8.09742
ው።	-8.101
▁በእ	-8.10503
ጀ	-8.10513
▁ገ	-8.10818
ሚ	-8.10905
▁ሙሴን	-8.10944
▁ኪዳን	-8.11059
ት፥	-8.11279
▁እውነት	-8.11646
ጢ	-8.1193
▁ዘር	-8.11978
▁አምላክህ	-8.12304
▁እርስዋም	-8.12644
▁ልብስ	-8.12812
ሉ፤	-8.12925
ሰሙ	-8.13387
▁ራስ	-8.14069
▁ይሆናል፤	-8.1421
▁ተስፋ	-8.14647
ታቸው	-8.14808
ችን	-8.15079
▁በእውነት	-8.15095
▁አውራ	-8.15116
▁የሰ	-8.15182
ምድረ	-8.15277
▁አድርጎ	-8.15435
ቻ	-8.1546
▁ብ	-8.15726
▁ዘ	-8.16137
ሮች	-8.16412
ጅ	-8.16446
▁ሚስት	-8.16944
▁ምንድር	-8.16991
ደር	-8.17902
▁ድንኳን	-8.18351
▁ናቸው፤	-8.18458
እ	-8.18791
መረ	-8.188
▁እያ	-8.18862
▁እግዚአብሔር።	-8.19694
ዴ	-8.20218
ጓ	-8.20257
▁ፍርድ	-8.20527
▁ለአ	-8.2056
ቈ	-8.20586
ቂ	-8.20853
▁ይሆን	-8.21188
▁እንድት	-8.21699
ናገር	-8.22282
ገዛ	-8.22399
▁ምንም	-8.22705
ፌ	-8.22753
▁መንግሥት	-8.2281
ት፤	-8.22836
ሆኑ	-8.22936
▁ሆነ፤	-8.22958
ገድ	-8.22979
▁ሙሴ	-8.23077
▁መሠዊያ	-8.2321
▁የእስራኤልን	-8.23317
▁ደቀ	-8.2346
▁ሰጠ	-8.23691
▁በእናንተ	-8.23692
ወድ	-8.23949
▁አብ	-8.24204
▁በእሳት	-8.24205
▁በሕይወት	-8.24695
ጻ	-8.24855
ች።	-8.25092
ቸውም	-8.25671
▁በቀር	-8.25676
ቹ	-8.25692
▁ባሕር	-8.25708
▁በፊቱ	-8.2571
▁ርስት	-8.25717
▁ሊያ	-8.25867
▁አባት	-8.26055
ኔ	-8.26679
ላል	-8.2668
▁ነውና	-8.2675
ኖሩ	-8.27001
▁የእ	-8.27057
▁ስሙ	-8.2714
ኒ	-8.27246
▁ይሰ	-8.27284
ዋም	-8.27388
▁አንዱ	-8.28071
ለሁ	-8.2819
▁በአንተ	-8.283
ራችሁ	-8.28341
ሉት	-8.28404
▁ሁለቱ	-8.28736
ኝ፥	-8.28782
▁ቢሆን	-8.28891
ሁት	-8.28941
▁ብር	-8.29066
▁ወንድሞች	-8.29093
ሰጥ	-8.29113
መሰ	-8.29232
▁በውኑ	-8.29354
ሃ	-8.29386
▁ስድስት	-8.29534
ጠጣ	-8.29609
▁እንኳ	-8.29913
▁ሰይፍ	-8.30396
▁አንተም	-8.3049
ሹ	-8.30596
ገኝ	-8.31105
▁ሲል	-8.31116
ኝ።	-8.31341
ኋቸው	-8.31344
▁እንዲያ	-8.31414
▁በአንድ	-8.31445
▁ኃይል	-8.31468
▁እርስ	-8.31596
▁ድንጋይ	-8.32008
▁የይሁዳ	-8.32135
ል።	-8.32155
▁መጣ።	-8.32202
▁የወይን	-8.32556
ኛው	-8.32589
▁ፈ	-8.32627
ድን	-8.32664
▁ባሪያ	-8.32678
ቋ	-8.33098
ቱም	-8.33104
ራት	-8.33201
▁ለምን	-8.33257
ዲ	-8.33392
▁ወርቅ	-8.33437
▁ዳርቻ	-8.33449
▁ባሪያዎች	-8.33627
ሰው	-8.33891
▁እና	-8.34634
▁በወ	-8.34868
ባችሁ	-8.34965
ኃ	-8.35275
▁ለአንተ	-8.3532
▁ጠጅ	-8.35371
▁ነበሩ፤	-8.35529
▁ነበረ፥	-8.35707
▁ቍጣ	-8.35988
▁ባለው	-8.36072
ዊው	-8.36312
አት	-8.36415
▁ቤተ	-8.36556
ል፤	-8.36782
▁ሳለ	-8.37209
▁ሕዝቡ	-8.37236
ዖ	-8.3757
▁አንቺ	-8.37586
▁በላይ	-8.37852
ቸ	-8.38293
▁ነፍስ	-8.38365
ለሁ።	-8.38443
ኸው	-8.38693
▁ወንዶች	-8.38734
▁ወንድ	-8.39281
▁ዛፍ	-8.39327
ራቸው	-8.39583
ዞ	-8.39681
▁ግ	-8.39705
▁አን	-8.39792
▁አምሳ	-8.40212
▁አማልክት	-8.40488
ግባ	-8.40865
ርያ	-8.40899
ልፎ	-8.40969
▁ባል	-8.41022
ረው	-8.41037
▁መጽሐፍ	-8.4108
▁ቤቶች	-8.41082
▁ሰማይ	-8.41281
ዊ	-8.41398
▁ልጆች፥	-8.41651
▁ሰማ	-8.41724
ለሁ፤	-8.42087
ሺ	-8.42263
▁ሁልጊዜ	-8.42274
▁ልጁ	-8.42369
▁እንዲሆን	-8.42446
▁ቅ	-8.42817
▁ሐ	-8.43002
▁ያል	-8.43086
▁እንዳት	-8.43355
▁ለእኔ	-8.43482
▁ብርሃን	-8.43483
ል፥	-8.43512
ፈር	-8.4363
▁ስለዚህም	-8.43685
▁እነሆ	-8.43765
መለስ	-8.44089
▁በሰይፍ	-8.44092
ችው	-8.44149
ሽን	-8.44526
▁ይዞ	-8.44845
▁ሥርዓት	-8.45323
▁አሥር	-8.45326
▁ስላ	-8.45618
▁ይህም	-8.45719
▁ሕያው	-8.45944
ቸውን	-8.45945
▁የበ	-8.45976
ኝ፤	-8.46066
▁ሆንሁ	-8.46373
▁ለእርሱ	-8.46569
▁ትንቢት	-8.46569
▁ሂድ	-8.46571
ደረግ	-8.46716
▁ነህ	-8.46729
ዳን	-8.46867
▁ልት	-8.46911
ናቸው	-8.4696
ፈሩ	-8.47364
ኸኝ	-8.47366
▁ይሆናል	-8.47626
ፈረ	-8.47988
▁ጆሮ	-8.48129
▁በፊትህ	-8.4829
▁ሕይወት	-8.48472
▁የወ	-8.48483
▁ምድረ	-8.49061
▁በንጉሡ	-8.49109
ጣል	-8.49201
▁ፍ	-8.49208
▁ይሁዳ	-8.49222
▁ቆ	-8.49306
▁ሕዝቡን	-8.49515
ብኝ	-8.49579
ውያን	-8.49621
▁ከሰማይ	-8.49766
▁እንድ	-8.49766
▁ሌሊት	-8.4988
▁ከምድር	-8.50424
ቀመጥ	-8.50724
▁ከእ	-8.50862
▁ሽማግሌዎች	-8.51096
ኖች	-8.51122
▁ላ	-8.51316
ሳቸው	-8.51443
▁ወዲህ	-8.51715
ው፤	-8.52072
▁ይሁን	-8.52281
▁መልአክ	-8.52377
▁ሠላሳ	-8.52377
▁አይሁድ	-8.5238
▁የምታ	-8.52421
▁ዓለም	-8.52449
አቸው።	-8.52473
▁ሸ	-8.52481
ዔ	-8.52545
▁የምድር	-8.52605
▁ይጠ	-8.52852
ለሁ፥	-8.52926
ቶቹ	-8.52946
▁እጁን	-8.53151
ሪያ	-8.53268
▁ፋንታ	-8.53717
▁ወራት	-8.53777
ኪ	-8.53803
በዛ	-8.53882
▁ይሁን።	-8.53909
▁ልጄ	-8.54116
ጆ	-8.54125
ታችን	-8.54244
ለት።	-8.54804
▁በቀ	-8.54933
▁ታቦት	-8.55073
▁ነፋስ	-8.55078
▁ምሳሌ	-8.55756
▁ምልክት	-8.55756
ደው	-8.55884
▁ሰላም	-8.55947
▁መከራ	-8.55966
አልና	-8.56344
▁ካህናት	-8.56446
▁ሠራ	-8.565
▁መታ	-8.56551
ቀድ	-8.56553
ኬ	-8.57138
▁መለሰ	-8.57235
በር	-8.57236
▁እርሻ	-8.5725
▁እንዲሁም	-8.57255
ቹን	-8.57391
በትን	-8.57419
ሃለሁ	-8.57546
ኞች	-8.57611
▁ጥቂት	-8.57694
ኰ	-8.57823
▁ለእናንተ	-8.57839
ኋችሁ	-8.57862
▁ጭ	-8.57863
▁ድ	-8.58074
▁ይመ	-8.58144
▁በጎች	-8.58247
▁እንዳለ	-8.58552
ለህ	-8.58581
▁አለኝ።	-8.58788
ሁ፥	-8.58825
▁አመጣ	-8.58932
▁አርባ	-8.58992
ቹም	-8.59245
▁ከእኛ	-8.59297
▁እንዳል	-8.59354
▁ከንቱ	-8.59448
▁እስራኤልን	-8.59484
▁ጳውሎስ	-8.59536
▁መጣ	-8.59573
ቶቻቸው	-8.59583
ተዋል	-8.59667
▁ሆነ፥	-8.59707
▁ካህኑም	-8.5987
▁ያን	-8.59955
ላቸውም	-8.5996
ሰብ	-8.60155
▁ሆነው	-8.60568
▁በታላቅ	-8.60686
▁እያንዳንዱ	-8.60686
▁ከእንግዲህ	-8.60686
▁ርኩስ	-8.60686
ጁ	-8.60725
▁በሰማይ	-8.60814
▁ነበረ	-8.61218
▁በል	-8.61275
▁አስቀድሞ	-8.61411
▁ባየ	-8.61449
በሩ	-8.61483
▁ብላ	-8.61585
▁ሞተ	-8.61621
▁መልሶ።	-8.61958
▁በአሕዛብ	-8.62141
▁አወጣ	-8.62251
▁ነበር	-8.62351
ቀር	-8.62611
ቀው	-8.62617
ጠጡ	-8.62711
▁ሞት	-8.6275
ገኙ	-8.62772
▁ንጹሕ	-8.62876
▁ዙሪያ	-8.62877
▁ብዛት	-8.62877
ዋንም	-8.62886
▁እላችኋለሁ	-8.62976
▁ጌታዬ	-8.63062
ኤ	-8.63124
ነገ	-8.63252
ሁ፤	-8.63424
ታል።	-8.63436
▁ራሱን	-8.63634
▁ካህኑ	-8.63718
ደርግ	-8.63847
▁የቀ	-8.6392
▁ሆኑ	-8.64068
ጩ	-8.64363
▁ፈጽሞ	-8.64363
▁ወስዶ	-8.64364
ሳል	-8.64415
ጣሉ	-8.6467
▁ቢያ	-8.64708
ሰጠው	-8.64997
▁በግብፅ	-8.65115
▁ጉባኤ	-8.65115
▁ምስክር	-8.65115
▁አንዳች	-8.65167
▁ጽድቅ	-8.65294
▁ከሰ	-8.65303
▁ብለህ	-8.65361
ሄዱ	-8.6579
ሞላ	-8.65837
▁ምርኮ	-8.65854
ልን	-8.65906
▁መጠን	-8.6593
ሰጠ	-8.66016
ተኞች	-8.66045
▁አምላኬ	-8.66399
▁እንደዚህ	-8.66639
▁ጌ	-8.66672
▁አደረገ።	-8.66813
ጠው	-8.67197
▁በጎ	-8.67203
▁ይህች	-8.67216
▁መቅደስ	-8.67405
▁እንጨት	-8.67408
ላቸው።	-8.67423
▁የወርቅ	-8.67426
▁በእጁ	-8.67438
▁ያህል	-8.67439
▁ተነሥቶ	-8.67455
▁ብዬ	-8.6753
▁ተሰ	-8.67598
ሻል	-8.67623
▁ባይ	-8.67731
ሽም	-8.67954
ሳችሁ	-8.67977
▁ወለደ፤	-8.6818
▁እስራኤልም	-8.682
▁አድርግ	-8.68422
ናገሩ	-8.68461
▁ኢያሱ	-8.68524
▁ኤ	-8.6855
ፍር	-8.68594
▁እርስዋ	-8.68606
ጠላ	-8.68857
ዜ	-8.68961
▁ወዴት	-8.68962
▁ውጭ	-8.69045
▁የለም።	-8.69335
ማት	-8.69351
ማል	-8.69384
▁ገባ	-8.69495
ቄ	-8.69533
▁እናንተም	-8.69626
▁ምክንያት	-8.69749
▁አምላካችን	-8.69749
▁ጻድቅ	-8.70179
▁መዛሙርቱ	-8.70182
ሲ	-8.70197
▁ሳኦልም	-8.70379
▁ሰሎሞን	-8.70481
▁ሰቅል	-8.70547
▁በውኃ	-8.70551
▁የነበረውን	-8.70586
ዋል።	-8.70631
ሾ	-8.70706
▁ዝም	-8.70898
ሄ	-8.70948
ረዱ	-8.71098
▁ክ	-8.71161
መታ	-8.71292
▁መጥተው	-8.71344
▁ዘይት	-8.71346
▁ታስ	-8.71516
በሉ	-8.7184
▁ሰባ	-8.71855
▁ይወ	-8.72129
▁አደባባይ	-8.72173
▁ቤቱ	-8.72349
▁ዓይን	-8.72414
ዳቸው	-8.72589
▁ከቶ	-8.7277
▁ረ	-8.72868
መጡ	-8.72899
▁በጌታ	-8.72931
▁በእርስዋ	-8.72962
ፈው	-8.73068
▁ትውልድ	-8.73181
ለች።	-8.73615
▁ክፍል	-8.73783
▁በመንገድ	-8.73785
ኝም	-8.73897
ፎ	-8.73927
ጠፉ	-8.74148
ላችሁ።	-8.74314
ቀበል	-8.74399
▁ወጥቶ	-8.7449
ነበ	-8.7453
ቴን	-8.74564
ኞቹ	-8.74608
▁አምላካችሁ	-8.74612
ዋል፤	-8.74614
ዘው	-8.7495
▁ኤርምያስ	-8.75045
▁ተከ	-8.75117
▁በሰ	-8.75186
ልክ	-8.75236
▁ዳር	-8.75375
▁ከግብፅ	-8.75441
▁በፊት	-8.75689
▁በሰው	-8.76085
ጊ	-8.76098
▁ባሪያህ	-8.76259
▁አለ፤	-8.76344
ሁ።	-8.76509
▁ደስታ	-8.76512
ኙ	-8.76565
ች፥	-8.76738
ዬን	-8.76938
ዶች	-8.76987
ጠብቅ	-8.77013
▁ሸለቆ	-8.7713
▁ሞ	-8.77131
▁አድ	-8.77511
ሃልና	-8.77642
▁ይሁን፤	-8.77939
▁በክርስቶስ	-8.77984
ያደርጉ	-8.78021
ጠብ	-8.78053
▁ይቅር	-8.78224
▁ተናገረ	-8.78391
▁ጥበብ	-8.78402
▁ሆነ።	-8.7862
ይቱ	-8.78631
መልስ	-8.78635
ታል	-8.78692
▁የሆነውን	-8.78776
▁ሠራዊት	-8.78846
▁አድርጉ	-8.78847
▁በቤቱ	-8.78857
ክር	-8.78882
ሞን	-8.79016
▁አደ	-8.79057
▁ነፍሴ	-8.79074
ታው	-8.7916
▁ሄደ።	-8.79165
▁ከብ	-8.7923
ርስ	-8.79238
▁ጠራ	-8.79463
▁በደል	-8.79563
▁ከማ	-8.79687
▁ነቢያት	-8.79716
▁ባድማ	-8.79718
▁ተብሎ	-8.7972
▁ወንዝ	-8.79726
ዎ	-8.80094
▁ተመ	-8.80153
▁ው	-8.80172
አል፤	-8.80369
▁ተናገር	-8.80376
ገር	-8.80385
▁ፈቃድ	-8.80594
▁በሌሊት	-8.8068
ፍረ	-8.80874
▁እር	-8.80911
ከፍ	-8.80951
▁ሴ	-8.81379
▁የዳዊት	-8.81478
▁ቅጥር	-8.81497
▁ቆሞ	-8.81582
▁በመሠዊያው	-8.8163
▁ነኝ	-8.8167
ረግ	-8.81818
ብህ	-8.82273
▁እነዚህን	-8.8234
▁ጸጋ	-8.82378
▁ወይን	-8.82416
▁በአንድነት	-8.82448
▁አላት።	-8.82616
▁ስት	-8.8266
▁ነገሠ።	-8.82803
ቸው።	-8.82985
▁ክፋት	-8.82985
ወር	-8.83138
▁የዘላለም	-8.83272
ቦች	-8.8341
በረታ	-8.83477
▁ነውና።	-8.83607
▁ቅን	-8.83772
አል።	-8.83853
ሩት	-8.83927
▁አየ	-8.84146
▁መስፈሪያ	-8.84181
▁በፊቴ	-8.84182
▁ልጅ፥	-8.84391
ቻለሁ	-8.84398
ርቅ	-8.84603
▁መጥቶ	-8.84637
ዚ	-8.84769
▁ይፈ	-8.85035
▁ዋጋ	-8.85036
ጠሩ	-8.85312
ሁም	-8.85365
በራ	-8.85774
▁አሳብ	-8.85885
▁እርሱን	-8.85907
▁ሌዋውያን	-8.86024
▁ስንኳ	-8.86034
▁ቢሆን፥	-8.86198
ች፤	-8.8623
▁የለም	-8.8635
▁ነበሩ	-8.86367
▁ይዘው	-8.86398
ሃቸው	-8.86753
ኳ	-8.8686
ፀ	-8.86959
▁ለንጉሡ	-8.86959
▁ማዶ	-8.87237
▁ጣ	-8.87309
አል	-8.87433
ነቱ	-8.87766
▁ፀሐይ	-8.87902
▁ተናገረው።	-8.88002
ፈታ	-8.88088
▁አድርገው	-8.88616
ፈርድ	-8.88681
▁ዳዊትን	-8.88796
▁ተነሣ	-8.88807
▁ቍጥር	-8.88855
▁አባቱ	-8.88864
▁ወገኖች	-8.88865
▁ሰልፍ	-8.8892
▁ቈ	-8.89048
▁በኢየሩሳሌምም	-8.89156
▁ላከ	-8.89311
▁ቀኝ	-8.89458
▁በብዙ	-8.89499
▁ተቀ	-8.89602
▁ካህናቱ	-8.89676
▁ነገ	-8.89683
▁በባሕር	-8.89816
▁ያሉትን	-8.89918
▁አደረገ	-8.89927
ያዩ	-8.8995
ብረ	-8.89997
▁አንዲት	-8.90057
ነጻ	-8.90099
▁ጎ	-8.90162
▁በሆነ	-8.90267
ድል	-8.90638
▁ዳ	-8.90662
▁በሕዝቡ	-8.90787
▁ከይሁዳ	-8.90787
▁ተቀምጦ	-8.90791
▁ወደዚህ	-8.90792
▁የሚቃጠለውን	-8.90806
▁ተወ	-8.90877
▁አሰ	-8.91214
▁ሽ	-8.91216
ገኛ	-8.91269
አቸውም	-8.91329
መካ	-8.91361
ዳችሁ	-8.91559
▁ይከ	-8.91732
▁ሕዝቅያስ	-8.91767
▁በኢየሱስ	-8.91767
ቃችሁ	-8.92048
▁በሰማ	-8.92323
▁አዳ	-8.9267
▁የጌታ	-8.92689
▁አስተ	-8.92761
▁አባቴ	-8.92768
▁ያሉ	-8.92846
ዘጋ	-8.93075
▁አደረገ፤	-8.93077
▁ጨ	-8.93282
ሃል።	-8.93386
▁እኔን	-8.9346
▁እየተ	-8.9356
▁በእነርሱ	-8.93629
ራራ	-8.9363
▁ነውር	-8.9373
▁በመካከላቸው	-8.93757
▁ፈቀቅ	-8.93758
▁ልብሱን	-8.9377
▁ቦታ	-8.93812
ኛል	-8.93848
▁የነበሩትን	-8.93862
▁ከደ	-8.93883
▁እያሉ	-8.94064
ፍራ	-8.9408
ረዳ	-8.94088
▁ይበ	-8.94272
ባቸውን	-8.94311
ደቀ	-8.94346
▁ወጣ።	-8.94431
▁የብር	-8.94507
▁ወረደ	-8.94565
▁ለሕዝቡ	-8.94767
▁ጨለማ	-8.94768
ማር	-8.94778
▁እግር	-8.94786
▁በቤት	-8.94801
▁የነበሩ	-8.94923
መው	-8.95034
▁ልቡ	-8.9509
ዋለሁ	-8.95096
ሁትን	-8.95346
▁ዮሐንስ	-8.95397
ራሴ	-8.95607
ሃል	-8.95673
▁ለዳዊት	-8.95788
▁ምስጋና	-8.95788
▁ፍቅር	-8.95803
▁መብል	-8.95938
▁በሬ	-8.95986
▁ያሉት	-8.96226
ቀመጡ	-8.96312
▁ነበርና።	-8.96458
ስቱ	-8.9658
ነሡ	-8.96684
ብላ	-8.96757
▁የባቢሎን	-8.96819
▁ይቀ	-8.96832
ዳል	-8.96947
▁ሁለቱን	-8.96962
▁ዕጣ	-8.97008
ሁህ	-8.97204
▁ጐ	-8.97206
▁ጴጥሮስ	-8.97214
ድር	-8.97343
ሻለሁ	-8.97644
▁ብዙዎች	-8.97688
▁በዙሪያው	-8.97733
ጆች	-8.97874
▁ጋሻ	-8.97918
ኛልና	-8.97925
ጣት	-8.97973
▁ያላ	-8.97981
ጠር	-8.98005
ማቸው	-8.98182
▁ወዲያ	-8.98295
ላሉ	-8.98436
▁ወዲያው	-8.98475
ዎቹ	-8.9849
▁መቼ	-8.98571
▁ነን	-8.98591
ቀበሉ	-8.98756
ያ፥	-8.98847
ደርገው	-8.98898
▁የያዕቆብ	-8.98913
▁ሰዓት	-8.98916
ዘዝ	-8.99312
▁ሳኦል	-8.99432
ቃቸው	-8.99447
▁ነኝ፤	-8.9948
ሞች	-8.99589
▁ጉ	-8.99677
▁ለሰው	-8.99783
▁ታላቁ	-8.99979
▁ያዕቆብም	-9.00019
ሶች	-9.00022
▁ሁለተኛው	-9.00041
▁ቃሉን	-9.00101
መለከት	-9.00228
▁ልቤ	-9.00276
ነቀ	-9.00322
▁ናት	-9.00375
ቸዋል	-9.00461
▁በአሥራ	-9.00484
ጥፋት	-9.00551
አችሁ	-9.00561
ቲ	-9.00599
▁ከሆነ	-9.00609
ዘረጋ	-9.00656
በታ	-9.00779
▁የነበሩት	-9.00779
▁ናችሁ	-9.00891
▁በዳዊት	-9.01053
▁ኑ	-9.01194
▁ያደርግ	-9.0135
▁ጽዋ	-9.01449
▁የሚል	-9.01484
▁የተቀደሰ	-9.01489
▁ብታ	-9.01524
ሽንም	-9.01753
▁ጽ	-9.01813
▁አለው፤	-9.01962
▁በፍጹም	-9.02139
▁ከእርስዋ	-9.02139
▁በርሳቸው	-9.02207
▁ራሱ	-9.02218
▁በእኛ	-9.02241
▁የሚያስ	-9.02248
▁በልቡ	-9.02292
▁በምን	-9.02354
▁ካህን	-9.02571
ቀርብ	-9.02577
▁ዮሴፍ	-9.02676
▁ነኝ።	-9.02761
ናችሁ	-9.02819
ሀ	-9.03202
ጤ	-9.03208
▁በከንቱ	-9.03238
▁ሰማያት	-9.03243
ለኝ	-9.03277
▁ወጣ፥	-9.03294
▁ናቸው	-9.03349
▁ፍርድን	-9.03353
▁ወሬ	-9.03511
▁በእጅህ	-9.03514
▁ንጉሡን	-9.03514
ታል፤	-9.03623
▁ገንዘብ	-9.03636
▁ኃጢአትን	-9.03661
ሎች	-9.03873
▁ጋ	-9.03896
ጋት	-9.04153
▁ኋላ	-9.04168
▁እነዚያ	-9.04349
▁ይዘ	-9.0458
ለህ።	-9.04591
▁ወደቀ	-9.04708
▁በትር	-9.04755
▁አሉ	-9.04832
▁አይሆን	-9.0492
ቀል	-9.04972
▁አንዱን	-9.05204
መለሱ	-9.05225
በት።	-9.05292
ሖ	-9.05472
▁በመንፈስ	-9.05473
▁ጕድጓድ	-9.05473
▁በፊታቸው	-9.05474
▁ስጦታ	-9.05476
▁የኤ	-9.05482
▁በራሱ	-9.0556
▁ሲያ	-9.05817
▁ተገ	-9.05974
ታል፥	-9.05994
▁በሥጋ	-9.06163
▁በገ	-9.06214
▁መር	-9.06342
▁እኛም	-9.06486
▁ወደሚ	-9.06503
ላችሁ፥	-9.06533
▁ቅዱሳን	-9.06609
▁ባቢሎን	-9.06609
▁ነቢዩ	-9.06609
▁ተራሮች	-9.06632
▁አይደለም።	-9.06701
ደረጉ	-9.06837
▁ናት፤	-9.06907
▁እመ	-9.07016
ሔ	-9.07096
ልያ	-9.07387
ጠቅ	-9.07461
ባትም	-9.07473
▁ማር	-9.07559
▁ነፍሴን	-9.07701
▁ሂዱ	-9.07759
▁አንበሳ	-9.0776
▁ሰደደ	-9.07767
▁አለችው።	-9.07807
▁ማደሪያ	-9.07823
▁ምክር	-9.07887
▁አደርጋለሁ	-9.07891
▁በመጣ	-9.07928
ሠሩ	-9.081
▁ወዮ	-9.08282
▁ያዘ	-9.08312
ወርድ	-9.08353
▁ሰጡ	-9.08407
ቆም	-9.08572
ላቸውን	-9.08735
ለህ፤	-9.08914
▁ርኵሰት	-9.08921
▁እንስሳ	-9.08933
▁በዓል	-9.08956
▁ያወጣ	-9.08983
▁ስምንት	-9.09035
▁ልዩ	-9.09131
ችኋለሁ	-9.09192
▁ሥልጣን	-9.09213
▁ኤልያስ	-9.09304
▁አጠፋ	-9.09349
▁ይህችን	-9.09553
▁ኢያሱም	-9.09578
ለጠ	-9.09698
▁አመጡ	-9.09876
ኛለህ	-9.099
▁ማታ	-9.09946
ደርስ	-9.09978
▁በዮርዳኖስ	-9.10098
ወደ	-9.10251
▁ዮ	-9.10261
▁ደረሰ	-9.1027
▁ኃያላን	-9.10431
▁ከሰው	-9.10437
▁አለች።	-9.1064
▁ወደዚያ	-9.10656
▁ቆመ	-9.10988
▁የዘ	-9.10991
▁የዚያን	-9.11067
ማይ	-9.11351
▁ይወጣል	-9.11353
▁ዕለት	-9.11353
መልካ	-9.11382
▁ስብ	-9.11559
በቃ	-9.11573
▁የሚኖሩ	-9.11808
ቸዋል።	-9.11937
ታልና	-9.11998
▁ቢኖር	-9.12027
ፈልጉ	-9.12075
▁ከሕዝቡ	-9.12493
▁ነቢይ	-9.12494
▁ፊ	-9.12526
ገለጥ	-9.1255
▁አራዊት	-9.12661
▁ፍጻሜ	-9.12706
▁ወንድም	-9.12857
ዋልና	-9.1325
▁ምድርን	-9.13421
▁በምት	-9.13492
▁አውቃለሁ	-9.13714
ታቸውን	-9.13725
▁ድሀ	-9.1374
▁መንጋ	-9.13785
▁ገደሉ	-9.13822
ልፍ	-9.13831
▁ደጅ	-9.13838
▁አልሁ።	-9.13966
▁የነበረው	-9.14013
▁ካለው	-9.14152
▁በጥ	-9.14275
ልሃለሁ	-9.14292
ቻችሁ	-9.14309
▁የሠራ	-9.14574
▁ፈር	-9.14667
▁ሰብ	-9.1468
▁ምድሪቱን	-9.14846
▁ይነ	-9.14849
የው	-9.1487
▁በሰባተኛው	-9.14947
▁ዙፋን	-9.14947
▁ግብጽ	-9.14948
▁ወፎች	-9.14972
▁ነኝና	-9.15
▁በስተ	-9.15046
ቻችን	-9.15092
▁የሰማይ	-9.1511
▁ዔ	-9.15259
▁አረ	-9.15294
ገደ	-9.1536
ራል።	-9.15383
▁ጥሩ	-9.15574
ረጥ	-9.15588
ፈረሰ	-9.15688
▁አደረጉ።	-9.15793
ጹ	-9.15912
ተህ	-9.16012
▁ወጣ፤	-9.1618
▁ለእነርሱ	-9.16197
▁ወዳለው	-9.16238
ፈልግ	-9.16269
ጠረ	-9.16368
ታይ	-9.16456
▁መልሶ	-9.16515
▁ተጠ	-9.16545
ብን	-9.16573
▁ፈንታ	-9.16587
ጥን	-9.1663
▁ያዕቆብ	-9.16676
▁አቤሴሎም	-9.16893
ኦ	-9.16925
▁አይደለም፤	-9.16944
▁አሮን	-9.17044
▁ነውና፤	-9.17188
ላችሁ፤	-9.17192
▁ያልተ	-9.17227
▁አብርሃም	-9.17411
▁መቅደሱ	-9.17463
▁የሚሆን	-9.17466
▁እምነት	-9.17528
▁አይቶ	-9.1753
▁እህል	-9.1753
▁ምድሪቱ	-9.17567
ታውቁ	-9.17672
ቸዋለህ	-9.17701
መር	-9.17782
▁መባ	-9.18102
▁ልባቸው	-9.18234
ኛል።	-9.184
▁ተነሥ	-9.18631
▁ነፍ	-9.18637
▁ቃሌን	-9.18663
ጾ	-9.18744
▁ናት።	-9.18865
ዮች	-9.18873
▁ባዩ	-9.19085
▁ሰሎሞንም	-9.19339
▁የለም፤	-9.19348
▁መጋረጃ	-9.19428
ነፋ	-9.19479
ዘጋጀ	-9.19642
ዘራ	-9.19691
ድያ	-9.19711
▁አደረጉ	-9.19723
▁አንተን	-9.19852
ልቅ	-9.1989
ሳት	-9.19958
▁ከግብጽ	-9.20044
▁የኢየሱስ	-9.20044
▁ቀድሞ	-9.20047
▁በከተማይቱ	-9.20055
▁ቸርነት	-9.20084
▁ሌሎች	-9.20177
▁ዳሩ	-9.20215
▁ማናቸው	-9.20231
ብሩ	-9.20251
ለህ፥	-9.20278
ቸዋለሁ	-9.20324
ማል።	-9.20463
▁ሆነች	-9.20469
▁ነገሩ	-9.20488
▁ሹ	-9.20529
ኪያ	-9.20772
ትንም	-9.20829
ሰጣቸው	-9.20947
ሞቱ	-9.20949
ያልፍ	-9.20956
ለበ	-9.21257
▁ሕዝቤ	-9.21303
▁ያሳ	-9.21336
▁ትሰ	-9.21348
▁አልዓዛር	-9.21359
▁ዕድሜ	-9.2136
▁ጠቦት	-9.21363
ረሱ	-9.21426
መጣው	-9.21511
▁የንጉሡ	-9.21556
▁ጥላ	-9.21569
ናልና	-9.21697
ባቸው።	-9.217
▁ይኖራል	-9.21792
▁የሐ	-9.21867
▁አደርግ	-9.22078
▁ወጥ	-9.22103
▁በረከት	-9.22143
በዙ	-9.22214
ቢያ	-9.22627
ዋለህ	-9.22632
▁ለኃጢአት	-9.22693
▁መጀመሪያ	-9.22693
▁መቃብር	-9.22693
▁ስምዖን	-9.22699
▁ለፊት	-9.22704
▁ፈርዖን	-9.22935
▁ልጁን	-9.23169
▁አገባ	-9.23172
▁በቅ	-9.23364
▁ናቸው፥	-9.23455
ሚያ	-9.23788
ናል።	-9.23874
ለች፤	-9.23889
ታለች	-9.23987
ጮኹ	-9.24004
▁ይቈ	-9.24012
▁ራእይ	-9.24044
▁ትሆናለች	-9.24044
▁ጭፍራ	-9.24072
▁የቀሩት	-9.24088
▁ይሰጣል	-9.24106
▁ሄዱ።	-9.24117
▁ጽኑ	-9.24163
▁ደመና	-9.24339
▁በሁለተኛው	-9.2438
ጥር	-9.24625
አል፥	-9.24696
▁በነ	-9.24865
▁ጥፋት	-9.24973
ጮ	-9.25159
▁ዕ	-9.25232
▁መጡ።	-9.25245
▁ይመጣል	-9.25273
▁አድርጌ	-9.25297
ትም።	-9.25303
▁ይበሉ	-9.25384
▁አሳልፌ	-9.25415
▁በደቡብ	-9.25417
▁በሙሴ	-9.25417
ጽናና	-9.25469
▁ገብቶ	-9.25495
▁ቆመው	-9.25529
▁ከጌታ	-9.25556
▁ልኮ	-9.25655
▁የለ	-9.2582
ውም።	-9.25856
ነቅ	-9.25885
ልሃል	-9.25927
ገዙ	-9.26067
ላቸዋል	-9.26101
▁ዮሴፍም	-9.2612
▁በገባ	-9.26263
▁አዘዘ	-9.2635
ወድድ	-9.26433
ሃል፤	-9.2649
▁አር	-9.26581
▁ዳግመኛ	-9.26803
▁ነበሩት	-9.26934
▁ናቸውና	-9.26981
ኤል፥	-9.27042
▁ይሆናሉ።	-9.27082
ሃት	-9.272
▁የበግ	-9.27369
▁መግቢያ	-9.27407
▁አልነበረም	-9.27439
ያውቁ	-9.27444
▁ግንብ	-9.27478
ወቀ	-9.27535
ሚችል	-9.27602
ቀረቡ	-9.2772
▁ልጆች፤	-9.28113
▁ምሕረቱ	-9.28211
▁እባክህ	-9.28211
▁የታመነ	-9.28211
▁ደጃፍ	-9.28212
▁በግብጽ	-9.28212
▁ጠጕር	-9.28212
▁ውሰድ	-9.28213
አምላኩ	-9.28218
▁የተሠራ	-9.28373
▁ዝ	-9.28691
▁ተቀመጡ።	-9.28771
▁እንዳዘዘው	-9.28775
ለች፥	-9.2886
ለት፤	-9.28958
▁ሁላችሁ	-9.29212
▁ነውና፥	-9.29356
▁ሳሙኤልም	-9.29405
▁በአንቺ	-9.29641
▁ቅሬታ	-9.29644
▁አዲስ	-9.29647
▁በእምነት	-9.29648
ሠራዊቱ	-9.2971
▁ያደርጉ	-9.2972
▁ዝናብ	-9.29813
መለከቱ	-9.29818
▁ገብ	-9.29884
▁አገኘ	-9.30222
▁እንዳያ	-9.30395
▁አወ	-9.3058
ረብ	-9.30902
▁ልጆቹን	-9.30959
▁የዓ	-9.30973
ዑ	-9.31089
▁ይስሐቅ	-9.31089
▁ልቅሶ	-9.31091
▁ስድሳ	-9.31093
▁ሜዳ	-9.31107
▁ተነሥተው	-9.31148
ማለ	-9.31239
▁በድን	-9.31408
▁ተነሡ	-9.31568
ጣችሁ	-9.31618
▁ተነ	-9.31672
▁አሮንን	-9.31757
▁አሕዛብን	-9.31813
▁ፍልስጥኤማውያን	-9.31825
ናል፤	-9.31914
▁በሚያ	-9.31989
ህና	-9.31989
ሉም	-9.32022
ታለሁ	-9.32045
▁ያመጣ	-9.32066
ችኋልና	-9.32179
አቸው፤	-9.32277
ገኘው	-9.32433
▁ኢየሱስን	-9.32533
ሦ	-9.32536
ጪ	-9.3256
▁ምናልባት	-9.3256
▁በጽድቅ	-9.3256
▁እንዳደረገ	-9.3256
ላክ	-9.32698
ወስድ	-9.32809
▁መድኃኒት	-9.32821
▁እንደሚያ	-9.32869
▁ነገሠ	-9.33391
▁ሚ	-9.33502
▁ራ	-9.33639
▁የምን	-9.33679
ሠራው	-9.33686
▁የይሁዳን	-9.33703
ጋድ	-9.33913
▁ስለሚ	-9.33966
ዪ	-9.34052
▁ከሁሉ	-9.3406
▁በሁሉ	-9.34067
▁የአሮን	-9.34092
▁ከተማይቱ	-9.34108
ላቸው፥	-9.34195
▁በሬዎች	-9.34236
ጠመ	-9.34277
ጥራ	-9.34303
▁የሚያደርግ	-9.34411
ቤተ	-9.34432
ታዩ	-9.34439
▁በዚህም	-9.34442
▁እንድን	-9.34545
▁ወጣ	-9.34862
▁ይታ	-9.35077
ክራ	-9.3514
ነበረው	-9.35194
አልና፥	-9.35364
▁ይሆኑ	-9.35426
▁ኢ	-9.3551
ማሩ	-9.35548
መለከ	-9.35567
▁በምሥራቅ	-9.35567
▁ከኢየሩሳሌም	-9.35567
▁ዱቄት	-9.35567
▁መልካሙን	-9.35568
▁ፍርሃት	-9.35568
▁ዳንኤል	-9.35571
▁ለሚቃጠል	-9.35606
▁ወጥተው	-9.35628
▁ራብ	-9.35655
▁በሦስተኛው	-9.35676
ብር	-9.35711
▁በመገናኛው	-9.35763
ኛል፤	-9.35775
▁ተሰበሰቡ	-9.35842
ቻለ	-9.36017
ጠበ	-9.3609
ታመን	-9.36091
ለየ	-9.36453
ዘር	-9.36463
▁የደ	-9.36498
በት፥	-9.36582
▁እስክ	-9.36604
ችንን	-9.36655
▁ነፍሱን	-9.36664
ዋል፥	-9.36681
ሮስ	-9.36858
▁አንዱም	-9.36886
▁ሰፈሩ።	-9.37051
▁በባቢሎን	-9.37106
▁ኃጢአተኞች	-9.37106
▁ጣፋጭ	-9.37106
▁እሰጣለሁ	-9.37106
▁ተጻፈ	-9.37111
▁በደስታ	-9.37128
▁የሚሆነውን	-9.37136
▁ሰምቶ	-9.37145
▁እላለሁ	-9.37157
ዎቹንም	-9.37173
▁ስላል	-9.37304
ዎቹን	-9.37564
▁አድርገ	-9.37655
▁እነዚህም	-9.37682
▁ወዳ	-9.37755
ሩን	-9.38005
▁ይተ	-9.38075
▁መስ	-9.38116
▁ይሠራ	-9.38167
ቀረበ	-9.38283
መለሰ	-9.38445
▁የሴ	-9.38475
▁የሰማ	-9.38539
▁ወርዱ	-9.38544
ሳቱ	-9.38571
ፅ	-9.38667
▁በሰሜን	-9.38673
▁አባቶች	-9.38673
▁ከክፉ	-9.38675
▁በሰንበት	-9.3868
▁ምስል	-9.387
▁ጠላት	-9.38893
▁መጣ፥	-9.38903
ወራ	-9.38974
በት፤	-9.3903
ቃጥ	-9.39068
በል	-9.39095
▁ሰላምታ	-9.39165
▁በራ	-9.39213
ላው	-9.39346
ያቸው	-9.39548
በቱ	-9.39635
▁ስን	-9.39658
ደቡ	-9.39752
ቻቸውም	-9.39763
▁የሰጠ	-9.39773
ቅርብ	-9.40149
▁ልብህ	-9.40173
▁ተቀመጡ	-9.4019
▁ርዝመቱ	-9.40256
▁እሄዳለሁ	-9.40256
▁እውነተኛ	-9.40256
▁ዛፎች	-9.40257
▁ወይፈን	-9.40258
▁ከእነዚህ	-9.40263
▁በሜዳ	-9.40264
▁ድንበር	-9.40271
▁የአንድ	-9.4031
▁ትቀ	-9.40327
▁አሜን	-9.4033
▁ይገባ	-9.4033
▁ተናገሩ	-9.40333
ልና	-9.40569
▁እንቢ	-9.40669
▁በልብ	-9.40711
▁ነበረች።	-9.40736
▁ያደረገውን	-9.40808
▁ተባት	-9.40816
▁በመጀመሪያው	-9.40832
▁ይለዋል	-9.40869
ችሁን	-9.40919
▁ተራ	-9.40977
▁ተሸ	-9.40983
ጉት	-9.41088
▁የከበረ	-9.41139
▁ተናገረ።	-9.41179
▁የሆነው	-9.41187
ወለደች	-9.41212
▁የሚገባ	-9.41271
▁ሄደ፥	-9.41362
▁ሊቀ	-9.4138
▁ገደለ	-9.41393
ቁም	-9.41427
▁ይደ	-9.41431
▁ጽድቅን	-9.41485
አቸውን	-9.41625
▁ሌሎችን	-9.41704
ከር	-9.41726
▁ዕጣን	-9.41736
▁ብን	-9.41787
▁መክሊት	-9.41869
▁መጨረሻ	-9.41869
▁ማኅበር	-9.41869
▁አገልግሎት	-9.41869
▁ኤፍሬም	-9.41869
▁ተመልሶ	-9.41869
▁ፍየል	-9.4187
▁ፍጹም	-9.4187
▁ለዚህ	-9.41874
በደ	-9.41901
▁በመልካም	-9.41933
ቈጣ	-9.41956
▁ጦር	-9.42045
▁ወጡ	-9.42083
▁በልባቸው	-9.42161
▁ወንድሞቹ	-9.42165
ላችኋል	-9.4226
▁ኢዮሣፍጥ	-9.42336
▁ሦስቱ	-9.42367
ሰጠኝ	-9.42392
ሶን	-9.42393
ጣለች	-9.42438
▁ሳሉ	-9.4247
ማል፤	-9.42501
ማረ	-9.42563
ባብ	-9.42632
▁ሆኖአል	-9.42789
▁ኤል	-9.42799
ሴቶች	-9.42885
▁ነውን	-9.42888
▁እንዳዘዘ	-9.42907
▁ይገ	-9.42972
▁አራ	-9.43014
▁በዙሪያ	-9.43027
▁መለከት	-9.43033
▁ሦስተኛው	-9.43121
▁ካል	-9.43133
▁ሰባቱ	-9.43134
▁ሄደ	-9.43135
▁ሄደ፤	-9.43197
ሳለች	-9.43218
ንግሥ	-9.43222
▁የንጉሡን	-9.43263
በኣል	-9.4335
▁መልክ	-9.43444
▁ይሁዳም	-9.43447
ቃጠለ	-9.43489
a	-9.43508
▁በየወገናቸው	-9.43508
▁ክርስቲያን	-9.43508
▁የክርስቶስ	-9.43508
▁ለእኛ	-9.43509
▁አራተኛው	-9.43509
▁ስሜ	-9.4357
▁በላዩ	-9.43571
▁አነሣ	-9.43635
▁ያየ	-9.43719
▁ሰፈር	-9.43728
▁የሚቃጠል	-9.43756
▁በሰሙ	-9.43793
▁ተቀመጠ።	-9.43889
ለዋል	-9.43902
ራቱ	-9.43978
ኢ	-9.44039
▁በላ	-9.44058
▁ያጠፋ	-9.44217
▁ናቡከደነፆር	-9.44229
አቸው፥	-9.44292
▁ይላሉ።	-9.44592
▁ሞላ	-9.44697
ማድረግ	-9.44778
▁እጅህን	-9.44805
▁የከ	-9.45037
ድኑ	-9.45077
ፈቱ	-9.45077
ፃ	-9.45173
ሒ	-9.45175
▁በእርግጥ	-9.45175
▁የሳኦል	-9.45175
▁ጩኸት	-9.45175
▁የአሦር	-9.45175
▁በላያቸው	-9.45187
▁መሬት	-9.45191
▁የእሳት	-9.45213
▁በሌላ	-9.45215
▁በወርቅ	-9.45227
▁የነበረ	-9.45322
▁ሙሉ	-9.45339
በታል።	-9.45362
▁ነኝ፥	-9.45428
▁በዚያች	-9.45472
▁አስነሣ	-9.45581
ወልድ	-9.45592
▁አቀረበ	-9.45639
▁ተጽፎአል	-9.45641
▁በሉ	-9.45712
▁አጋ	-9.45733
በው	-9.45759
▁አይተው	-9.45763
ሳን	-9.45771
ወድቅ	-9.45844
▁ቀር	-9.45968
▁በኵር	-9.45971
▁አይተ	-9.45977
▁አኖረ	-9.46033
ጥል	-9.46033
ገደሉ	-9.46065
ረሳ	-9.46077
ራቸውን	-9.46137
▁ሠሩ	-9.46197
▁ባሪያዬ	-9.46212
▁ሁለተኛ	-9.46523
▁ፈሪሳውያን	-9.46869
▁ወለደ።	-9.4687
▁ጠቦቶች	-9.4687
ጸልይ	-9.46873
▁የቀረው	-9.46883
▁ኖሮ	-9.46884
▁ማርያም	-9.46892
▁በፍታ	-9.46916
▁ዘወር	-9.46926
▁አሮንም	-9.4698
ታቸውም	-9.47229
▁ወንጌል	-9.47306
ቲቱ	-9.4731
ማል፥	-9.47313
▁ፋሲካ	-9.47425
ሰጣችሁ	-9.47458
ኑም	-9.47499
ህ፤	-9.47604
▁ተቀመጥ	-9.47746
▁ለወንድ	-9.47774
ሸሽ	-9.47905
▁አበዛ	-9.48003
ባቸው፥	-9.48355
ችል	-9.48505
▁ነበረና	-9.48514
ቆች	-9.4855
ጮኽ	-9.48578
▁ለልጆቹ	-9.48594
▁ሰረገሎች	-9.48594
▁በጨለማ	-9.48594
▁በኃይል	-9.48594
▁ዘላለም	-9.48594
▁በእጃቸው	-9.48594
▁ፈረሶች	-9.48594
▁ይችላል	-9.48597
▁ለልጅ	-9.486
▁በእነዚህ	-9.48605
▁በሰማርያ	-9.48636
▁ራሳቸውን	-9.48661
አባታችን	-9.4867
ወለዱ	-9.48756
▁ሳይሆን	-9.48759
ረጋ	-9.48796
▁ልጆቹ	-9.48841
▁የአሕዛብ	-9.48907
ዮስ	-9.49157
ዘሩ	-9.49168
▁ያመጡ	-9.49227
▁ምንጭ	-9.49266
▁መዛሙርቱም	-9.49427
▁ከነ	-9.49442
ለን፤	-9.49472
▁ይመጣሉ	-9.49475
▁አህያ	-9.49478
ድሩ	-9.4975
▁እያለ	-9.49956
ላለች	-9.50117
▁ብርቱ	-9.50139
▁በመከራ	-9.5016
▁ነበረች	-9.50204
ሂ	-9.50341
ችኋል።	-9.50347
▁ከአሕዛብ	-9.50348
▁ልጆቻችሁ	-9.50348
▁ይወድቃሉ	-9.50348
▁ሞዓብ	-9.50349
▁ሚዛን	-9.50352
▁ሁኑ	-9.50369
ይቱን	-9.50382
▁ይጠፋል	-9.50384
▁ሄዶ	-9.50406
▁ኤሊ	-9.50407
▁ተቀመጠ	-9.50419
▁የእኔ	-9.50438
ዎቹም	-9.50445
▁ጠል	-9.50474
▁ልባችሁ	-9.50512
▁ነገረ	-9.50522
▁ሬሳ	-9.50559
ከበረ	-9.50677
▁ሠራ።	-9.50705
ባቸዋል	-9.50797
ሰቡ	-9.50804
ነካ	-9.50856
▁በፍርድ	-9.50939
▁ግፍ	-9.51002
▁ይሻ	-9.51041
ነቴ	-9.51092
▁እስክት	-9.511
ታላችሁ	-9.5117
አታል	-9.51211
▁ሆይ	-9.51223
▁ይበላ	-9.51253
▁ተገለጠ	-9.51304
▁አልነበረም።	-9.51326
ዋለሁ።	-9.51338
ከነዓን	-9.51351
▁ነፍስህ	-9.51389
▁እርሱንም	-9.51397
ችሁም	-9.51403
▁ፈራ	-9.51461
▁ምሕረት	-9.51641
▁ነበረው	-9.5172
ውንና	-9.51814
ቃጠል	-9.51835
ጠብቁ	-9.52036
ደድ	-9.52086
▁በከተማ	-9.52118
▁መጣ፤	-9.52127
▁ለአሕዛብ	-9.52134
▁ሐሤት	-9.52134
▁ይናገራል	-9.52134
▁ታሪክ	-9.52135
▁መምህር	-9.52137
▁አለኝ	-9.52137
▁ግምጃ	-9.5214
ባርክ	-9.52183
▁ፊቱን	-9.52206
▁ለጌታ	-9.52269
▁ይሆናሉ	-9.52294
▁ተቀምጠው	-9.5231
መልሱ	-9.52373
▁ኢዮአብ	-9.52411
▁ሳሙኤል	-9.52447
▁እጁ	-9.52451
▁በሥራ	-9.52484
▁መንግሥቱ	-9.52497
▁እውቀት	-9.52769
ላችኋለሁ	-9.52865
▁አልሰማ	-9.52891
▁ተፈ	-9.52894
▁ከቀ	-9.53028
▁ከብዙ	-9.53093
▁ቀኑ	-9.53135
ልሽ	-9.53304
ዘዘ	-9.53507
ለይ	-9.53519
ቸውንም	-9.53696
▁ብል	-9.5371
▁አጠፋለሁ	-9.53724
ቅር	-9.53736
መሩ	-9.53748
▁ብላቴና	-9.53882
▁የሚመ	-9.53895
▁የማያ	-9.53933
ሑ	-9.53952
▁ለያዕቆብ	-9.53952
▁ታደርጋለህ	-9.53952
▁የካህናት	-9.53952
▁አይደለሁም	-9.53952
▁ታውቃለህ	-9.53952
▁ከሙታን	-9.53953
▁ጠቢብ	-9.53953
▁ዘጠኝ	-9.53953
▁ሙታን	-9.53954
▁የአገሩ	-9.53955
▁ማለ	-9.53977
ታመኑ	-9.53995
▁እስ	-9.54001
▁እልል	-9.5401
▁በርሳችሁ	-9.54047
▁የአሞን	-9.54106
▁ሥራቸው	-9.54259
▁ትቢያ	-9.54282
▁ትተ	-9.543
▁አትፍራ	-9.54309
▁ድረስ፥	-9.54322
▁አባትህ	-9.54726
▁ብለ	-9.54745
ሾመ	-9.54767
▁የለውም	-9.54773
▁በቀን	-9.54838
▁ይስ	-9.54923
ነገር	-9.55003
ቅረብ	-9.55098
▁ትመ	-9.55121
▁የሆኑ	-9.55156
▁ደዌ	-9.55254
▁ውኃው	-9.5535
▁ዮናታን	-9.55353
▁በዚህች	-9.5538
ፈጸመ	-9.55405
▁አልፎ	-9.55433
▁ጠርቶ	-9.55442
ያደርግ	-9.55447
ሰበሰቡ	-9.55474
ፋት	-9.55511
▁እንድታ	-9.55561
▁ይመጣል፥	-9.557
ባቸውም	-9.55721
አት።	-9.55746
▁መልእክተኞች	-9.55804
▁ይሄዳል	-9.55804
▁ከአንቺ	-9.55805
▁ጽዮን	-9.55806
▁አይችልም	-9.55813
▁በክፉ	-9.55816
▁ለራሱ	-9.55818
▁ሣር	-9.55849
▁ኢዩ	-9.55863
▁መስገጃዎች	-9.55867
ነግር	-9.55867
በደል	-9.56118
▁ሽቱ	-9.56123
▁ስማ	-9.56159
▁ዲ	-9.56178
▁አለው	-9.56189
አባታቸው	-9.56426
▁ወሰዱ	-9.56465
ወለድ	-9.56521
▁ያዙ	-9.56522
▁እነርሱን	-9.56572
▁ባት	-9.56707
▁ባሉ	-9.56731
▁ጥበብን	-9.56773
▁ወጡ።	-9.56789
ጠበቅ	-9.56978
ዳይ	-9.57076
▁የተጻፈ	-9.57119
▁ጠብ	-9.57196
ድህ	-9.57231
ኸውን	-9.57243
▁ጴጥሮስም	-9.57305
▁ፈርዖንም	-9.57349
ቀኝ	-9.57411
ንፍታሌም	-9.57691
▁ምሥራቅ	-9.57691
▁ተአምራት	-9.57691
▁ከንጉሡ	-9.57691
▁ጲላጦስ	-9.57691
▁ጻድቃን	-9.57691
▁ያውቃል	-9.57691
▁በአባቱ	-9.57696
▁የሕይወት	-9.57701
▁መውጫ	-9.57702
▁በውጭ	-9.57735
▁ታናሽ	-9.57743
መሰክር	-9.57763
▁ላሉት	-9.57804
▁ጠብቁ	-9.57889
ልሁ	-9.57929
▁አሉ፤	-9.5805
▁ሰጥቶ	-9.58055
▁አፈር	-9.5812
▁ውጣ	-9.5818
ለት፥	-9.58188
▁ላከ።	-9.58199
መልከ	-9.58387
አሥራ	-9.5855
▁ሸሹ	-9.58593
▁ወገ	-9.58602
ባሉ	-9.58634
ናውያን	-9.58676
ሰለ	-9.58687
ለፈ	-9.58818
ኋት	-9.58827
ፈስስ	-9.59077
▁ኖረ	-9.59099
▁ይገባል	-9.59284
▁ማለት	-9.59402
ቶቻችሁ	-9.59549
▁ለእያንዳንዱ	-9.59614
▁መላእክት	-9.59614
▁አለቆቹ	-9.59615
▁መሐላ	-9.59617
▁ዋይ	-9.59701
▁ሰንበት	-9.59725
▁አትፍሩ	-9.59752
▁ከተማይቱን	-9.59771
▁ድንቅ	-9.59784
▁እናት	-9.59818
▁በእነርሱም	-9.59862
▁ሄ	-9.59943
▁በለዓም	-9.59958
▁ወፍ	-9.59969
▁እንስሶች	-9.60102
▁ቀረ	-9.60126
▁ብላችሁ	-9.60134
▁ለሚያ	-9.60228
ዳት	-9.60245
▁ስጡ	-9.60252
▁ባዶ	-9.6029
▁የኢ	-9.6035
▁ዓመፃ	-9.60354
ጠሉ	-9.60613
▁ዘወትር	-9.60644
▁ልጁም	-9.60704
▁አዩ	-9.60704
▁ያዕቆብን	-9.60748
ሃለሁ።	-9.60767
▁አማ	-9.6077
ለችና	-9.60774
▁አገኙ	-9.60788
▁እርስዋን	-9.60899
ሄደ	-9.60969
ወቅ	-9.61027
ከተል	-9.61129
▁አለፈ	-9.61152
ማሉ	-9.61167
ዘጋጅ	-9.61187
▁አለን	-9.61205
▁ሽማግሌ	-9.61222
ታውቅ	-9.61348
▁አዝ	-9.61406
▁ተዋ	-9.61567
ጳ	-9.61574
ጵ	-9.61574
▁ኃያል	-9.61574
▁ይናገራሉ	-9.61574
▁ግብፅ	-9.61575
▁አንሥቶ	-9.61575
▁ማስተዋል	-9.61576
▁ንስሐ	-9.61576
▁እግሮች	-9.61577
▁ዔሳው	-9.61584
▁በቍጣ	-9.61624
ጠይቅ	-9.61634
▁የሞተ	-9.61725
▁ከአባቶቹ	-9.61844
▁ካህናቱም	-9.61862
ብል	-9.61975
▁ወጥመድ	-9.62036
▁ስምህን	-9.62123
▁በላቸው።	-9.62134
ዝን	-9.62246
ብያ	-9.62357
ሱም	-9.62385
ኸ	-9.62446
▁ይሰማ	-9.62625
▁ደብዳቤ	-9.62644
ቴም	-9.62649
ላቸው፤	-9.62683
▁ብቻውን	-9.62694
▁እጄን	-9.62778
ናገረው	-9.62782
▁በብር	-9.62814
ሁበት	-9.62823
▁ሆናችሁ	-9.62856
ዘን	-9.62867
▁እይ	-9.63151
ያምኑ	-9.63192
▁ተነሣ፥	-9.63344
ከተሉ	-9.63361
▁ሽታ	-9.63462
▁ስምህ	-9.63469
▁ታውቃላችሁ።	-9.63552
▁አደረጉ፤	-9.63566
ኀ	-9.63574
▁ሴዴቅያስ	-9.63574
▁ትምህርት	-9.63574
▁ኢዮርብዓም	-9.63574
▁ድንጋዮች	-9.63574
▁ጕልማሳ	-9.63574
▁በጽዮን	-9.63575
▁እለምንሃለሁ	-9.63575
▁በሐሰት	-9.63576
▁ፈሳሽ	-9.63576
▁አይደሉም	-9.63584
▁አባቱን	-9.63598
▁ሸክም	-9.63598
▁ይሞታል	-9.63603
▁ሰምተው	-9.63606
▁ፊቴን	-9.63607
▁ብረት	-9.63632
▁አብርሃምም	-9.63656
▁ሕዝቡንም	-9.63685
▁መጡ፥	-9.63739
▁መዛሙርት	-9.63742
▁ተመለሰ	-9.63782
ዎቻቸው	-9.63799
▁ሰጠው።	-9.63866
ያውቅ	-9.63908
▁ዕረፍት	-9.63931
▁ትልቅ	-9.63983
ፍሩ	-9.64036
▁ደረ	-9.64052
▁ያደርጋል	-9.64087
▁ባሪያዎችህ	-9.64087
▁ኦ	-9.64151
▁ኢዮብ	-9.64233
▁በወጣ	-9.64236
▁በዛ	-9.64287
ጐበ	-9.64354
ሸከም	-9.64513
ራውያን	-9.64618
ያችሁ	-9.6462
▁መጡ፤	-9.64631
ላከኝ	-9.64685
ፈረሱ	-9.64707
▁እንደምት	-9.64778
▁ሄደው	-9.64789
▁ደሙን	-9.64809
ዋለሁ፤	-9.64879
ዋጋ	-9.64929
▁የናስ	-9.65026
ችውን	-9.65036
▁አደረገ፥	-9.65069
▁መቱ	-9.65132
▁ቤቱን	-9.65163
▁ኢዮአብም	-9.653
ሳለሁ	-9.65373
ለምን	-9.65583
▁ለአብርሃም	-9.65615
▁አእምሮ	-9.65615
ታት	-9.65615
▁ሕጉ	-9.65622
▁ስድብ	-9.65624
▁ከጥሩ	-9.65634
▁በሰላም	-9.65643
▁መሰምርያዋን፥	-9.65673
ራስ	-9.65788
▁መንገዱን	-9.65903
ብሃል	-9.65952
ባቸው፤	-9.65966
▁ጠብቅ	-9.65996
▁በሐ	-9.66159
▁ዓይኖች	-9.66168
ኛላችሁ	-9.66243
ከሱ	-9.6643
▁ዮርዳኖስን	-9.66563
▁ይላልና።	-9.66577
▁ፍልስጥኤማውያንም	-9.66648
▁ታድ	-9.66803
ለውን	-9.66908
▁ዘረጋ	-9.67065
▁ድል	-9.67107
ራቸውም	-9.67271
ሰዶም	-9.67292
ወጋ	-9.67656
▁መቅሠፍት	-9.67699
▁መዝሙር	-9.67699
▁በመቅደስ	-9.67699
▁አክዓብ	-9.67699
▁ከዳዊት	-9.67699
▁የአብርሃም	-9.67699
▁ትሆናለህ	-9.67699
▁ኤልሳዕ	-9.67699
▁አንጻር	-9.67699
መላለስ	-9.677
ቤዠ	-9.67707
▁የእህል	-9.67709
ዋልና፥	-9.6771
▁ራሳችሁ	-9.67735
▁ተናገረው	-9.67753
▁የቤቱ	-9.67777
▁ዓሣ	-9.6789
▁ሞገስ	-9.68058
▁ሐማ	-9.68176
▁አበኔር	-9.68266
አችኋል	-9.68395
ላችሁን	-9.68693
▁ይሸ	-9.68806
▁የኢየሩሳሌም	-9.68818
▁ይመልስ	-9.68822
ሃል፥	-9.68857
ቻችሁን	-9.68868
▁ሥራው	-9.68989
ቀመ	-9.6899
▁ሞቱ	-9.69
▁ምሕረትን	-9.69047
▁እንዳታ	-9.69129
ባትን	-9.69196
▁አራቱ	-9.69207
ስተውል	-9.69212
▁እጃቸውን	-9.69308
▁አየሁ፥	-9.69338
▁ፋ	-9.6949
▁ሕዝብህ	-9.69657
ነታቸው	-9.69738
▁መሠረት	-9.69826
▁ቋንቋ	-9.69826
▁ከወዴት	-9.69826
ኋለኛው	-9.69826
▁በፈርዖን	-9.69826
▁በድንጋይ	-9.69827
▁እንግዶች	-9.69827
ጸልዩ	-9.69828
▁ሕልም	-9.69829
▁ተመልከት	-9.69834
▁ከወሩ	-9.69838
▁በእጄ	-9.69851
▁አዎን	-9.69858
ዘዛቸው	-9.69889
▁ገበታ	-9.69898
ቈጠሩ	-9.69995
▁ሴቲቱ	-9.70001
▁የሚመስል	-9.70018
▁ወንድሞቼ	-9.70046
ወሰድ	-9.70116
▁ውጡ	-9.70141
ችኋል፤	-9.7019
ሾች	-9.7021
▁ወንድሙን	-9.70253
ፎች	-9.70275
▁የለምና	-9.70332
▁አምባ	-9.70396
▁አድርገህ	-9.70448
▁እንግዳ	-9.70452
▁ከሚያ	-9.70494
▁አቀረቡ	-9.705
▁እስካ	-9.70726
▁ያደረገ	-9.70764
ፋችሁ	-9.7081
ችው።	-9.70899
▁ጸሎት	-9.70929
ኑን	-9.7093
ሁም።	-9.71001
ይዙ	-9.71112
▁ሸሸ	-9.71175
▁ቀርቦ	-9.71413
▁የሠራው	-9.7169
▁ይበላል	-9.7177
ርፍ	-9.7179
▁እንዳላ	-9.71791
ወንድሙ	-9.71846
▁ረዳ	-9.71894
▁ወገን፥	-9.71923
▁ይሁኑ	-9.71975
▁ለይሁዳ	-9.72
▁እኵሌታ	-9.72
▁ውኆች	-9.72
▁የሞዓብ	-9.72
▁ያገለግሉ	-9.72
ግልሙትና	-9.72
▁የግብጽ	-9.72
▁የፈርዖን	-9.72
▁በዘይት	-9.72
▁ዓይነት	-9.72001
▁መኖሪያ	-9.72001
▁ለሰልፍ	-9.72002
▁በዓለም	-9.72002
▁በእርሻ	-9.72005
▁ስንፍና	-9.72007
▁ምናሴ	-9.72009
▁ጫማ	-9.72025
▁አበባ	-9.72034
▁ሥር	-9.72048
▁አምስቱ	-9.72058
ዱት	-9.72118
▁ያደረ	-9.72134
ጸኑ	-9.72248
▁መልስ	-9.72309
ጠማ	-9.72354
▁ሰረገላ	-9.72502
▁አጋንንት	-9.72595
ታችሁን	-9.72598
ደሉ	-9.72726
ኸን	-9.72732
▁ተመልሰው	-9.72884
▁ሴቲቱም	-9.7292
ገድል	-9.73081
▁ቀረበ	-9.73091
▁አዘዘ።	-9.73293
▁ይሄዱ	-9.73328
▁ቸር	-9.73495
▁ጮኸ።	-9.7364
በቀል	-9.73784
ሆነው	-9.73792
ችኋ	-9.74003
▁ግራ	-9.74104
▁ኢየሩሳሌምን	-9.74104
ዌ	-9.74173
▁ስሙንም	-9.74181
አርጤክስስ	-9.74222
▁እግሮቹ	-9.74222
▁የአይሁድ	-9.74222
▁የዮሴፍ	-9.74222
▁ሰይጣን	-9.74223
▁ሆኜ	-9.74223
▁ይባላል	-9.74227
▁ልሔም	-9.74227
▁አደረግሁ	-9.74243
▁የእርሱ	-9.74248
▁ታውቃላችሁ	-9.74251
▁እያንዳንዳቸው	-9.74258
▁ይሻላል	-9.74261
▁ይጠፋሉ	-9.74268
▁ወንድምህ	-9.74291
▁ሕዝቤን	-9.74319
▁ለካ	-9.74319
▁ሕፃኑ	-9.74578
▁ፈሩ	-9.74624
▁ያዝ	-9.74646
ጥቂት	-9.74707
ፈጽም	-9.74783
▁ይጠብቁ	-9.74821
▁ሰዎቹም	-9.74828
▁የሕዝቡን	-9.74844
▁በበሩ	-9.74863
ዚች	-9.74904
▁ክፋትን	-9.74963
▁ክፈ	-9.75172
▁ያደ	-9.75178
ዋል	-9.75217
ወረደ	-9.75262
▁ልጆቻቸውን	-9.75424
▁የሚናገር	-9.75466
አልና።	-9.7569
▁ሚስቱን	-9.75813
ልኝ።	-9.75879
▁ተዉ	-9.75916
▁ወግ	-9.75921
ኖረው	-9.75933
▁በቀኝ	-9.76047
ምነው	-9.76072
▁እግዚአብሔርንም	-9.76268
▁በገዛ	-9.76367
▁ኢዮ	-9.76404
▁ምሕረትህ	-9.7641
▁ሞተ።	-9.76422
▁አውሬ	-9.76425
ዓመፀኞች	-9.76495
▁ማዕዘን	-9.76495
▁በሞዓብ	-9.76495
▁ተጠንቀቁ	-9.76495
▁ታላላቆች	-9.76495
▁እናውቃለን	-9.76495
▁እናገራለሁ	-9.76495
▁ከፍልስጥኤማውያን	-9.76495
▁የግብፅ	-9.76495
▁መንገሥ	-9.76495
▁በሁለቱ	-9.76495
▁ፍላጻ	-9.76495
▁መጠጊያ	-9.76495
▁ቁርበት	-9.76495
ይሳኮር	-9.76496
▁ሚስቶች	-9.76496
▁በስውር	-9.76498
▁ተናገራቸው።	-9.765
▁መልሰው	-9.765
ሰነፎች	-9.76502
▁አምላካቸው	-9.7651
▁ከሩቅ	-9.76514
▁ሐሰት	-9.76517
▁የውኃ	-9.76521
ሰኝ	-9.76524
▁ግብር	-9.76543
ቈረጠ	-9.76589
▁ደጆች	-9.766
▁አላቸው	-9.76708
▁ማለዳ	-9.7672
▁እንዳለው	-9.76724
▁በሚኖሩ	-9.76735
▁በሉ።	-9.76754
ማየት	-9.76858
▁ባላ	-9.76867
▁ሰፈሩ	-9.76868
እህሉ	-9.76898
▁ከዋክብት	-9.76902
▁በነበረ	-9.76979
ትም፥	-9.7707
▁ትወ	-9.77118
▁በል።	-9.7713
▁ሚስቱ	-9.77207
▁ላባ	-9.77419
▁የዚህ	-9.77486
ታወቅ	-9.77492
መስማት	-9.77494
▁ማቅ	-9.77574
▁ተባለ	-9.77766
▁ሎሌ	-9.77819
▁ሰዎቹ	-9.77848
▁ይኖራል።	-9.78059
በሰ	-9.78124
ባችኋለሁ	-9.78202
▁ባልንጀራ	-9.7851
ባችኋል	-9.78615
ጠበቁ	-9.78718
▁በሮች	-9.78803
▁ከከተማ	-9.78805
ኜ	-9.7882
▁መናፍስት	-9.78821
▁ተግሣጽ	-9.78821
▁የከተማይቱ	-9.78821
ጌልገላ	-9.78821
▁እሆናለሁ	-9.78821
▁የብንያም	-9.78821
▁የአባቶቻቸው	-9.78821
▁ተመልከቱ	-9.78821
▁ከብንያም	-9.78821
▁ሲኦል	-9.78822
▁ጽኑዓን	-9.78825
ሠዉ	-9.78826
▁የምናሴ	-9.78826
▁አድነኝ	-9.78826
በቁ	-9.78828
▁ቀርበው	-9.78839
ግሪክ	-9.7884
▁በሰልፍ	-9.78857
▁የተባለው	-9.78858
ሸክላ	-9.78861
ፉት	-9.78873
▁አዘነ	-9.78951
ራሳቸው	-9.79024
▁ይሉ	-9.79036
▁አትክልት	-9.79149
ወደው	-9.79173
▁እውቀትን	-9.79239
▁ሠር	-9.79396
▁ለማድረግ	-9.79406
ነፉ	-9.79501
ሠሩት	-9.79706
▁ፈጥ	-9.7971
▁አንደኛው	-9.79765
ደኅንነት	-9.79812
▁በጎቹ	-9.799
▁ስሙ፤	-9.79994
▁በመጡ	-9.80068
▁የኃጢአት	-9.80132
▁ከኤ	-9.80197
▁ጣለ	-9.80287
▁በጆሮ	-9.80488
▁ስማ፤	-9.80512
▁ይደረግ	-9.80567
ወለ	-9.80896
▁ወጡ፤	-9.80968
ሻው	-9.81002
▁በመቅደሱ	-9.81202
▁በኤፍሬም	-9.81202
▁የፍልስጥኤማውያን	-9.81202
▁ፈጽመው	-9.81202
▁ሙሽራ	-9.81202
▁ሚዛኑ	-9.81202
▁ቀለበቶች	-9.81202
▁ሐሰተኛ	-9.81202
▁ክርክር	-9.81203
▁እሰጥሃለሁ	-9.81203
▁ሰገዱ	-9.81204
▁በነጋው	-9.81207
▁ወድቆ	-9.81209
ተንኰል	-9.81211
▁በሁለት	-9.81212
▁ወተት	-9.81214
▁ባረከ	-9.81215
▁ብንያም	-9.81216
▁በደመና	-9.8122
▁ስንዴ	-9.81253
▁ይወጣሉ	-9.81325
▁አንቀላፋ	-9.81368
▁የቃል	-9.81372
▁ልመና	-9.81396
▁ያደርጋል።	-9.81437
▁ይጠራ	-9.81481
▁በመስ	-9.81525
▁ነጭ	-9.8157
▁ባልዋ	-9.81672
▁ጠርቶ።	-9.81676
ጊያ	-9.81707
▁ቀንዶች	-9.81803
▁ቄ	-9.81861
▁ሊሆን	-9.81878
ህበት	-9.8212
ቸዋለሁ፤	-9.8227
ነትን	-9.82303
ራብ	-9.82494
▁በኋላ፥	-9.82549
በቅ	-9.82552
▁ያውቃሉ።	-9.82611
▁በልብህ	-9.82635
▁አልፈ	-9.82795
መስሉ	-9.82808
ብኛል	-9.8286
ዶን	-9.82884
ዋለህ።	-9.82904
ላቸዋለሁ	-9.83014
▁አቆመ	-9.83089
ራል፥	-9.83144
ሡ	-9.83149
▁ገባ።	-9.8319
▁ኃጢአተኛ	-9.83326
▁ነበሩ፥	-9.83356
▁አፌ	-9.83369
ደግ	-9.83378
▁ልጆቹም	-9.83511
ቀደሱ	-9.83577
ብኝ፤	-9.83618
▁ነበርሁ	-9.83628
▁ምኞት	-9.83641
▁ሮብዓም	-9.83641
▁ትዕቢት	-9.83641
▁አምስተኛው	-9.83641
▁እኩሌታ	-9.83641
▁የተለወሰ	-9.83641
▁ይወድቃል	-9.83641
▁ልጆቼ	-9.83641
▁የሌለበት	-9.83641
▁ጻፎች	-9.83641
▁በጀመረ	-9.83642
▁ጠማማ	-9.83647
▁በሕግ	-9.83656
▁ተነሥተህ	-9.83663
▁ይሁኑ።	-9.83676
▁ለአሮን	-9.83677
▁ይነሣል	-9.83678
▁ተመለሱ።	-9.8368
▁ባሪያዎቹ	-9.83695
▁ፈጥኖ	-9.83703
ባረክ	-9.83704
▁ነገሮች	-9.83717
▁ሠርቶ	-9.83729
▁ግድ	-9.83776
▁አብረው	-9.83777
▁ነህና	-9.83805
▁ባላቅ	-9.83851
▁የተቈጠሩት	-9.84145
▁ፊትህን	-9.84148
▁ተቈጣ	-9.84151
▁የሰውን	-9.84192
ወገኑ	-9.84202
▁መንግሥታት	-9.84266
▁መገናኛው	-9.84268
▁የልብ	-9.84271
▁አስቴር	-9.84312
ብሽ	-9.84342
▁የመቶ	-9.84384
▁ያደረገው	-9.84441
▁ናስ	-9.84461
▁አየሁ፤	-9.84588
ቈጠር	-9.8468
ሚሆነው	-9.84763
▁ይቀመጡ	-9.84783
ነበረ	-9.84813
ባቸዋለሁ	-9.8488
ተዉ	-9.84898
ገደል	-9.84941
▁ተመለስ	-9.85
ይደለ	-9.8506
ሰጣት	-9.85066
▁ሐዋርያት	-9.85105
▁ወስደው	-9.85141
▁በቤተ	-9.85169
▁ሰነፍ	-9.85331
▁ይሆናሉ፤	-9.85415
ቆሙት	-9.85443
▁አለቃው	-9.85482
ተባለ	-9.85525
ሞሉ	-9.85585
ንቁ	-9.85918
ችኋለሁ።	-9.85927
▁ጠባቂ	-9.86021
▁የገዛ	-9.86076
▁በዓይን	-9.86139
▁በየአባቶቻቸው	-9.86141
▁አክሊል	-9.86141
▁ከፀሐይ	-9.86141
▁ዓይኖቹ	-9.86141
▁ድንኳኑ	-9.86141
ኚ	-9.86141
▁መዝገብ	-9.86141
▁አቤሜሌክ	-9.86141
▁አታድርጉ	-9.86141
▁ይሄዳሉ	-9.86141
▁ወንድሞቻቸው	-9.86141
▁ኀዘን	-9.86141
▁ሰባተኛው	-9.86143
▁በማለዳ	-9.86146
▁አሦር	-9.86146
▁ቅድስ	-9.8615
▁እፍረት	-9.8615
▁እረኛ	-9.86153
ተሰወረ	-9.86154
▁እግሩ	-9.86165
▁ጻፈ	-9.86185
▁የኃጢአ	-9.86186
▁የተናገረውን	-9.8619
▁በመካከላችሁ	-9.86197
ጠየቀ	-9.8621
▁አለች	-9.86215
▁በላዬ	-9.86269
▁ለባሪያህ	-9.86394
ቸዋለሁ።	-9.86475
▁ናትና	-9.86506
▁እንዳይሆን	-9.86582
▁ዘካርያስ	-9.86589
ባታል	-9.86737
ማውያን	-9.86803
ተደረገ	-9.86824
▁ልታ	-9.86835
▁የሆኑት	-9.86872
ተከተሉ	-9.87085
▁ራስህን	-9.87179
▁ጀም	-9.87251
▁ጠላቶች	-9.87264
ለዩ	-9.87332
ተቀበለ	-9.87376
▁ደርሶአል	-9.8745
ቀበለው	-9.876
▁አለው፥	-9.87673
▁ነፍሱ	-9.87719
መጣሁ	-9.87782
አብራም	-9.87832
▁ሳኦልን	-9.87969
▁የሚሰማ	-9.88078
ቀሩ	-9.88109
ነዋል	-9.88135
▁ይሆናልና	-9.88143
▁በእጅ	-9.88231
▁ወንድሙ	-9.88265
▁እዩ	-9.88342
▁ሳለሁ	-9.88383
▁ይፈሩ	-9.88441
ዳሉ	-9.88568
ገናኘ	-9.88607
መወርወሪያ	-9.88705
▁መጋረጆች	-9.88705
▁ማኅበሩ	-9.88705
▁ተሰብስበው	-9.88705
▁ትእዛዙን	-9.88705
▁ኖኅ	-9.88705
▁አባቶቻችን	-9.88705
▁ኢሳይያስ	-9.88705
▁ድንጋጤ	-9.88705
▁ገለዓድ	-9.88705
▁መታሰቢያ	-9.88705
▁አልቻሉም	-9.88705
▁ይመለሳል	-9.88705
▁ሁላችን	-9.88707
▁ያድርግ	-9.88707
▁በናያስ	-9.88708
▁አባቶቻቸው	-9.88708
ነጋገር	-9.88711
▁በደረሰ	-9.88711
▁እንደሆነ	-9.88712
▁ደቡብ	-9.88715
▁ሶርያውያን	-9.88717
▁እጥፍ	-9.88722
▁ክንፍ	-9.88723
▁በረዶ	-9.88737
▁ነገዶች	-9.88749
▁ሆንህ	-9.88769
ገባቸው	-9.88771
ገልጥ	-9.88805
▁አይታ	-9.88838
ሚቃጠለው	-9.88861
▁ነገራቸው	-9.88876
▁ነህ፤	-9.88882
ውረድ	-9.88886
▁መሰምርያዋ	-9.88935
▁በልቤ	-9.89028
ቼአለሁ	-9.89126
▁በሦስት	-9.89141
ላችን	-9.89189
▁እንዲሆኑ	-9.89225
▁የሰሎሞን	-9.89243
▁በቃል	-9.89302
መልክ	-9.89302
አምላኬ	-9.89514
▁የሌዊ	-9.89645
▁ቍጣው	-9.89684
ርሱ	-9.89798
ቀኑ	-9.89841
▁ሰላምን	-9.89921
▁ልጆቻቸው	-9.89929
▁በከነዓን	-9.90033
ችኋቸው	-9.9013
▁ጀመር።	-9.90167
▁በራብ	-9.90258
ጄ	-9.90259
▁ይበላሉ	-9.90285
▁ይበላችሁ	-9.90286
▁እናቱም	-9.90309
▁በመጀመሪያ	-9.90383
▁እውነትን	-9.90469
▁የሚሄድ	-9.90471
▁ሥራውን	-9.90545
ጠሙ	-9.90697
▁ሰጣቸው።	-9.90745
ወርሱ	-9.90756
▁ዮናታንም	-9.9082
▁እስኪያ	-9.90975
▁ፈት	-9.913
ኣ	-9.91324
▁ምሥጢር	-9.91336
▁በምዕራብ	-9.91336
▁በኵራት	-9.91336
▁በዙፋኑ	-9.91336
▁አይደለችም	-9.91336
▁ያደርጋሉ	-9.91336
▁ሰበሰበ	-9.91337
▁እመልሳለሁ	-9.91337
▁ከነበሩት	-9.91337
▁በተራራማው	-9.91338
▁ተቀበረ	-9.91338
▁የሶርያ	-9.91338
▁በፍቅር	-9.91339
▁በሰማያት	-9.91339
▁ጀመረ	-9.9134
▁ተመለከተ	-9.9134
▁አለቀሰ	-9.9134
▁ገመድ	-9.91341
▁ቀበሩት	-9.91342
▁ቃሎች	-9.91342
▁አዘዛቸው።	-9.91348
▁ገዥ	-9.9135
ወንድሞቻችሁ	-9.91352
▁ወዳጆች	-9.91358
▁ጫፍ	-9.91368
▁አውቆ	-9.91376
▁አጥብ	-9.91383
▁በስሜ	-9.91395
ከለክ	-9.91399
▁የእህሉን	-9.91405
▁ሄዱ፤	-9.91421
▁አይሁን	-9.91425
▁ርጉ	-9.91433
▁ሰማርያ	-9.91446
ጠራቸው	-9.91484
▁መጥቶአል	-9.91529
ፈለገ	-9.91538
ድርጋችሁ	-9.91545
ቃጠሉ	-9.91567
▁ብሩን	-9.91655
ሕይወቱ	-9.91659
▁ሳያ	-9.91667
ሁላችሁ	-9.91754
▁በሲ	-9.91762
▁እባብ	-9.91777
▁ይገደል	-9.91848
▁ሲናገር	-9.91877
▁ያሳድ	-9.91969
▁አሰበ	-9.92043
▁ኃጢአታቸውን	-9.92096
▁ቀንበር	-9.92197
▁ዐውሎ	-9.92258
▁ይላቸዋል	-9.92286
ሰነፍ	-9.9233
▁ዝና	-9.9234
▁ዘሩ	-9.92456
▁መጥቶ።	-9.92496
▁የሚኖር	-9.9256
▁ጻፍ	-9.92562
ወርዱ	-9.92768
ቸዋል፤	-9.92822
▁ይናገሩ	-9.92911
▁የተቀደሰውን	-9.9294
▁ክፉዎች	-9.92988
ፈጸም	-9.93095
▁ቀይ	-9.93123
▁አጸና	-9.93192
ላይ	-9.93193
▁ትሆን	-9.93202
ሌዊ	-9.93286
▁ድን	-9.93361
ቃት	-9.93435
▁ያለችው	-9.93439
ሆንሁ	-9.93471
ጂ	-9.93951
ገሣ	-9.93999
ልኝ፤	-9.94022
ቅዱሳኑ	-9.94039
ኢዮአቄም	-9.94039
▁ሕፃን	-9.94039
▁በሕዝቤ	-9.94039
▁በደኅና	-9.94039
▁ከኢየሱስ	-9.94039
▁ኮረብታ	-9.94039
▁ራሔል	-9.94039
▁የሮቤል	-9.94039
▁መጻተኛ	-9.94039
▁የአባቶች	-9.9404
▁ሞልቶ	-9.9404
▁በፊታችሁ	-9.94041
▁ገለባ	-9.94044
ከማቹ	-9.9407
ካሌብ	-9.94071
▁ሰሜን	-9.94084
▁አታውቁም	-9.94088
ጠይቁ	-9.94098
▁ዓምድ	-9.9414
▁የሚበላ	-9.94192
▁ወረዱ	-9.94193
ረዋል	-9.94235
▁የሚበልጥ	-9.94243
▁ላኩ	-9.94275
▁የሚኖሩትን	-9.94291
▁ያልሆነ	-9.94383
▁ይጐ	-9.94468
▁ስእለት	-9.94505
▁ለራሳቸው	-9.94532
▁ሌላውን	-9.94543
▁አመስግኑ	-9.94572
ፋቱ	-9.94578
▁በኤ	-9.94636
▁ሙሴን።	-9.94668
ዳለህ	-9.94675
▁ፍየሎች	-9.9473
▁የሚቀመጡ	-9.94761
▁አንዲቱ	-9.94781
▁ተቀበሉ	-9.94973
ኛል፥	-9.95276
▁የተወለደ	-9.95331
▁ኪዳኔን	-9.95547
▁ይሰጡ	-9.95755
▁ስለዚህ፥	-9.95777
ያለሁ	-9.95796
▁ያደርጋል፤	-9.95835
▁ክብሩ	-9.9585
▁መተ	-9.9592
▁ተቀመጠ፤	-9.96062
ለታል	-9.96148
ወደድ	-9.96196
▁አላቸው፤	-9.9636
▁ፍርዴን	-9.96366
▁ክፉውን	-9.96379
▁በጎች፥	-9.96393
▁ሰጥቼ	-9.96402
ፈልገው	-9.96425
ሰፋ	-9.96533
ኑትን	-9.96612
▁መጡ	-9.96694
▁አሳየ	-9.96714
ዒ	-9.96749
▁በአምላካችን	-9.96817
▁በአምላክህ	-9.96817
▁ከዘላለም	-9.96817
▁ኪሩቤል	-9.96817
▁ወንዞች	-9.96817
▁ዓመፅ	-9.96817
▁የንጉሥ	-9.96817
▁የጽዮን	-9.96817
▁የጽድቅ	-9.96817
▁ሶምሶን	-9.96817
ተላለፍ	-9.96817
▁ፈረሰኞች	-9.96818
▁ምስሎች	-9.96818
ጨነቁ	-9.96819
▁እወቁ	-9.96823
▁ከሁለት	-9.96824
ከተሞቻቸው	-9.96826
▁የአባትህ	-9.96836
▁ለነበሩ	-9.96836
▁የተስፋ	-9.96845
▁አይገኝም	-9.96863
▁ወዳጅ	-9.96869
▁ርስቱ	-9.9687
▁ምስክሮች	-9.96876
▁ለምድር	-9.96881
▁ገብተው	-9.96919
▁ይለኛል	-9.96936
▁ዱር	-9.96957
▁እልፍ	-9.96959
▁ሰገደ	-9.97007
ማመን	-9.97027
▁ባለችው	-9.97028
▁ለሰሎሞን	-9.97066
ፍርድ	-9.97126
▁ጌታችን	-9.97142
▁ዝቅ	-9.97287
▁ባሪያዎቹን	-9.9749
ቈጠረ	-9.97521
▁ታጥ	-9.97609
▁ታጠፋ	-9.97724
ከብር	-9.97727
▁የሚሠራ	-9.97758
▁እኅት	-9.9782
▁ተናገሩ።	-9.97902
▁መርዶክዮስ	-9.98003
▁ዓይኔ	-9.98003
መናችሁ	-9.98046
ርቁ	-9.98118
▁ጠላቶቼ	-9.98162
ክብሩ	-9.98167
▁ተከተለ	-9.98271
▁የሚሉት	-9.9838
▁ደግ	-9.98414
▁ሔ	-9.98443
▁ይመጡ	-9.98727
▁በሕዝብ	-9.98762
▁አድርግ፤	-9.98784
ለትም።	-9.98884
▁ይመለስ	-9.9894
▁የመጣ	-9.99024
ራለህ	-9.99148
▁ገዛ	-9.99217
ሚጠብቁ	-9.99252
ቶችዋ	-9.99309
ማረኩ	-9.99463
ጊዜው	-9.99596
▁የጌታን	-9.99659
ዣ	-9.99673
ሤ	-9.99674
▁መንገዳቸው	-9.99674
▁ታቀርባላችሁ	-9.99674
▁ነበልባል	-9.99674
▁አደርገዋለሁ	-9.99674
▁ከኤፍሬም	-9.99674
▁ዓይኖቼ	-9.99674
▁ምዕራብ	-9.99674
▁በንጉሥ	-9.99674
▁ሀብት	-9.99674
▁ቁመቱ	-9.99674
▁ይወስዳል	-9.99674
▁ኃፍረ	-9.99676
▁በክብር	-9.99677
▁የተቀመጠ	-9.99677
▁የክብር	-9.99677
▁ቂጣ	-9.99688
▁አካዝ	-9.99688
▁ምግብ	-9.9969
▁አጥንት	-9.99695
▁ንገሩ	-9.99698
▁ድካም	-9.99701
▁ትላለህ	-9.99709
▁ጢስ	-9.99746
▁ክምር	-9.99771
▁ዋሻ	-9.99788
▁አርነት	-9.99808
▁ትሁን	-9.99813
▁ያጸና	-9.99857
▁ካሉት	-9.99901
ሰድድ	-9.99948
▁ማዳን	-10.0002
▁ይሄድ	-10.0007
▁ስሙን	-10.0012
ከማች	-10.0012
▁ታደርግ	-10.0013
▁ይበል	-10.0018
▁ለሞት	-10.002
ባለች	-10.0021
▁ለአሥራ	-10.003
▁በተራራው	-10.0032
▁አሳልፈው	-10.0033
ብኝ።	-10.0036
▁መራራ	-10.0037
ሰብክ	-10.0039
▁መፍራት	-10.0041
▁የቀረውን	-10.0041
▁አደራ	-10.005
▁ያወጣል	-10.0052
ቆሙ።	-10.0058
ሚባለው	-10.0065
▁አዘጋጀ	-10.0066
▁ልን	-10.0073
▁ሳዶቅ	-10.0073
ታዊው	-10.0076
ዮሐንስ	-10.0079
ነገሥታት	-10.0079
ሆናችሁ	-10.0088
ከፈተ	-10.0089
▁አባቶቻችሁ	-10.01
▁አልጋ	-10.0107
ከፋ	-10.0107
ያዙ	-10.0108
መስለው	-10.0112
▁ባሉት	-10.0114
▁ተኛ	-10.0114
▁ትቶ	-10.0115
▁እንደማይ	-10.0123
▁ሰማሁ።	-10.0135
መከተል	-10.0147
ታለህ	-10.0151
▁አደረ	-10.0153
▁ዓይኖችህ	-10.0182
▁ወሰደ፥	-10.0198
▁ባያ	-10.0206
▁ይመጣ	-10.0211
▁ሞገስን	-10.0211
▁ሆና	-10.023
▁ሄሮድስ	-10.0262
▁ለፈርዖን	-10.0262
▁ራእዩ	-10.0262
▁ብፁዓን	-10.0262
▁አንዳንዶቹ	-10.0262
▁ኬብሮን	-10.0262
▁የኤፍሬም	-10.0262
▁ለእህል	-10.0262
▁ለሌሎች	-10.0262
▁ሥርዓቱ	-10.0262
▁ድሆች	-10.0262
▁በተራሮች	-10.0262
▁በነገሠ	-10.0262
▁ከሀያ	-10.0262
▁ከሰሜን	-10.0262
▁ትበላላችሁ	-10.0263
▁በአልጋ	-10.0263
▁ከከተማይቱ	-10.0264
በተኑ	-10.0269
ስተሰር	-10.0269
▁ሌዋውያኑም	-10.027
▁ከአንድ	-10.0271
▁ነገሩት።	-10.0272
▁ቀስት	-10.0272
አብያተ	-10.0273
▁አታስ	-10.0273
▁ጠራው።	-10.0277
▁ጥርስ	-10.0278
▁ወስደህ	-10.0282
▁ወንድሜ	-10.0289
▁ሳት	-10.0293
▁ተመለሰ።	-10.0294
▁ብትሆን	-10.0299
▁በለስ	-10.0299
▁ሰጣቸው	-10.0304
▁የሚነካ	-10.0308
▁ጥበበኞች	-10.0309
▁ዓመፀኛ	-10.0309
▁ከነዓናውያን	-10.0337
▁እናቱን	-10.0361
▁ከፍታ	-10.037
▁ትሸ	-10.0371
▁አሳድ	-10.0377
▁የደኅንነት	-10.0383
ሕያዋን	-10.0384
▁አየ፤	-10.0391
ባይ	-10.0416
▁ይሠራል	-10.0418
▁ጮኸ	-10.0422
▁ዮርዳኖስ	-10.0425
ቅሁ	-10.0427
▁ትታ	-10.0432
ዘንብ	-10.0433
ደዋል	-10.0438
▁ሕግን	-10.0441
▁አየሁ።	-10.0452
▁በግራ	-10.0452
▁ታች	-10.0453
ደለው	-10.0469
▁ልክ	-10.0473
ቂያ	-10.0484
▁አሳልፈ	-10.0497
ሕይወ	-10.05
▁ጸና	-10.0514
ሰጡት	-10.052
▁ያጠፋል	-10.0528
▁ታው	-10.0533
▁ሠራ፤	-10.0535
▁ብሎአልና	-10.0546
▁ወዳሉ	-10.0564
ሼ	-10.0564
ኢይዝራኤል	-10.0565
ኻ	-10.0565
▁መልእክተኛ	-10.0565
▁መጐናጸፊያ	-10.0565
▁ቍርባናቸው	-10.0565
▁በነቢዩ	-10.0565
▁አንዳንዶች	-10.0565
▁የተባረከ	-10.0565
▁ይኖራሉ	-10.0565
▁ግብዣ	-10.0565
ቀጠቀጠ	-10.0565
▁በስፍራው	-10.0565
▁መሣሪያ	-10.0565
▁ቍስል	-10.0565
▁እንሂድ	-10.0565
▁ፊተኛው	-10.0565
ያመሰግኑ	-10.0565
▁ውሰዱ	-10.0565
ያመልኩ	-10.0565
▁ዕንቍ	-10.0565
▁ከአሥር	-10.0565
▁በጥበብ	-10.0565
ሽንገላ	-10.0565
▁በሀያ	-10.0565
ጭንቀት	-10.0565
▁ምስጉ	-10.0565
▁ዕውር	-10.0565
▁ለሰማይ	-10.0565
▁የሌለው	-10.0566
▁ልብሳቸውን	-10.0566
▁መሆኑን	-10.0569
▁አካል	-10.0569
▁ተከተሉት	-10.057
▁ናታን	-10.0572
▁ያለበትን	-10.0573
▁የአንተ	-10.0573
▁መለሰለት።	-10.0574
ጠላቶቹ	-10.0574
▁በነበሩ	-10.0574
▁በጌታችን	-10.0579
▁የማምለ	-10.058
▁አውጣ	-10.058
▁የተቀመጡ	-10.0587
ሕይወቴ	-10.0588
▁ያስነሣ	-10.0591
▁አስተዋይ	-10.0596
ገድለው	-10.0607
▁ጌዴዎን	-10.0608
▁ቃላ	-10.0616
▁መከራን	-10.0622
ልከው	-10.0622
▁እስማኤል	-10.0631
▁አጽና	-10.0634
ወስዱ	-10.0636
ለታል።	-10.0641
▁በመሸ	-10.0642
ቃላችሁ	-10.0651
▁ቀርቦአል	-10.0657
ሩአቸው	-10.0666
▁ይፈልጉ	-10.0682
ግብፃውያን	-10.0692
▁እንደሌለ	-10.0721
▁እናገር	-10.0728
▁ኪዳኑን	-10.074
ሥጋዬ	-10.0743
▁የዚህን	-10.0744
▁አዳነ	-10.0752
▁የሚባል	-10.0774
ልጄ	-10.078
▁የጋድ	-10.0781
▁ያነሣ	-10.0787
▁የሥጋ	-10.0793
ሉአት	-10.0799
▁የሞት	-10.0802
ነውን	-10.0823
መስል	-10.0832
▁አደርጋለሁ።	-10.0841
▁ነገሩን	-10.0846
▁ወሰዱት	-10.0856
ናወጥ	-10.0864
▁ጥል	-10.0866
ጎዶልያስ	-10.0877
ጬ	-10.0877
▁ርዝመት	-10.0877
▁ሰልፈኞች	-10.0877
▁በገለዓድ	-10.0877
▁ባለጠግነት	-10.0877
▁አዕማድ	-10.0877
▁ክርስቲያናት	-10.0877
▁ድምፃቸው	-10.0877
▁ፈጽመህ	-10.0877
▁ፊልጶስ	-10.0877
▁አዘጋጁ	-10.0877
▁መዝጊያ	-10.0877
መቅረዙ	-10.0877
▁ተለይቶ	-10.0877
መንደሮቻቸው	-10.0877
▁ዓመታት	-10.0877
ሰበስብ	-10.0877
▁አህዮች	-10.0878
▁ምድራቸው	-10.0878
▁ታናሹ	-10.0878
ኤፉዱ	-10.0878
ዘመናት	-10.0878
▁ከጥንት	-10.0879
▁ርስታቸው	-10.0879
▁ድንበሩ	-10.088
▁ለሁሉ	-10.0881
▁ሣራ	-10.0881
▁ጸጥ	-10.0881
ገልግ	-10.0882
▁ሆድ	-10.0882
▁በሩቅ	-10.0883
▁ሮማ	-10.0885
ያስተውሉ	-10.0887
ሻገር	-10.0899
▁ለሌላ	-10.0902
▁መረጠ	-10.0902
▁አምጡ	-10.0904
▁የኢፍ	-10.0907
ነታችሁ	-10.0908
▁ዕዳ	-10.0921
▁አያሌ	-10.0925
▁ካለ	-10.0929
ኋ	-10.0935
▁ስሜን	-10.0941
ራችን	-10.0946
▁አኪ	-10.0948
▁ይዋጋ	-10.0952
▁ቢሆኑ	-10.0954
ማለች	-10.0957
ከበሩ	-10.0959
▁የተናገረው	-10.0959
▁ትተው	-10.0964
ጌጥ	-10.097
▁ኢዮራም	-10.0977
ብሻል	-10.099
ዮናታን	-10.1017
▁ብላቴናው	-10.1018
▁እጄ	-10.1033
▁ይመጣል።	-10.1066
▁ያዘዘውን	-10.1068
▁ዓይንህ	-10.1096
▁ይከፍ	-10.1101
ኃጢአተኛ	-10.1155
ብላቴናይቱ	-10.1172
▁ይናገር	-10.1176
▁መዛግብት	-10.12
▁ማኅፀን	-10.12
▁በማደሪያው	-10.12
▁በሸለቆው	-10.12
▁በየወገኖቻቸው	-10.12
▁ባደረገ	-10.12
▁ትእዛዜን	-10.12
▁ቸነፈር	-10.12
▁ችግረኛ	-10.12
▁ኃጢአቱ	-10.12
▁ንገራቸው።	-10.12
▁ኤዶምያስ	-10.12
▁እናደርጋለን	-10.12
▁ደኅና	-10.12
ነጋገሩ	-10.12
▁በእጃችሁ	-10.12
መላለሱ	-10.12
▁የእናንተ	-10.12
ስርየት	-10.12
▁አድርጌአለሁ	-10.12
▁ርግብ	-10.12
▁በግዞት	-10.12
▁ጨረቃ	-10.12
▁ጸለየ	-10.12
▁አለቀሱ	-10.12
▁ይቀበላል	-10.12
▁አንበጣ	-10.12
▁ይቀመጣል	-10.12
▁ዓይኑ	-10.12
መንፈሴ	-10.12
▁አላወቁ	-10.12
▁ግርማ	-10.12
መንጎች	-10.12
▁ያልፋል	-10.12
▁ታያለህ	-10.1201
▁በዕጣ	-10.1201
▁ለአንዱ	-10.1201
▁ስጠኝ	-10.1202
ጠግብ	-10.1202
▁ሳንቃ	-10.1203
▁ዘምሩ	-10.1203
▁አዝዞ	-10.1204
▁በአንዱ	-10.1204
▁ቸል	-10.1204
▁ዝግባ	-10.1206
ያለቅሱ	-10.1206
▁ነገረው።	-10.1208
▁ዞረ	-10.1209
▁እንዳሉ	-10.1209
▁ከብት	-10.1212
▁ለአንድ	-10.1212
▁በልባችሁ	-10.1213
▁ያያል	-10.1219
▁የሚለውን	-10.1226
▁በለው።	-10.1227
▁አይሁዳዊ	-10.1227
ሰግድ	-10.1227
▁የሚለው	-10.123
▁በኣል	-10.1231
መኝ	-10.1233
እግሬ	-10.1234
▁ወንጌልን	-10.1247
▁ያለበት	-10.1247
▁የሚመጣው	-10.125
▁ወርዶ	-10.1262
▁ግዛት	-10.1262
▁ያማረ	-10.1263
▁ፊታቸው	-10.1268
▁እረኞች	-10.1271
ቀባው	-10.1298
▁የሚጠብቅ	-10.1303
▁ደዌው	-10.1304
▁ወሰደው	-10.131
▁የሚሄዱ	-10.1318
▁ይገባዋል	-10.1325
▁እናቱ	-10.1335
ካለችው	-10.1338
ጠላቶችህ	-10.1341
ጫወ	-10.1348
አቤሴሎም	-10.1348
ጻድቅ	-10.1351
▁ጠጋ	-10.1355
ብሃለሁ	-10.1372
▁ሰጠሁ	-10.1374
▁ወሰደ።	-10.1412
▁መሆን	-10.1417
▁ቍጣዬ	-10.1426
▁የምድርን	-10.1435
▁ሥጋውን	-10.1436
▁ተደረገ	-10.1438
▁ጀምረ	-10.1443
ጨው	-10.1449
▁ነበረች፤	-10.1456
▁የአሕዛብን	-10.1472
▁አጠጣ	-10.1493
▁ብላቴናውን	-10.1517
▁መሠዊያውን	-10.1522
ሌዋውያኑ	-10.1524
▁ለሌዋውያን	-10.1533
▁ሥርዓቴን	-10.1533
▁በኢያሪኮ	-10.1533
▁ትእዛዛት	-10.1533
▁ከለዳውያን	-10.1533
▁ከመጀመሪያ	-10.1533
▁ከምሥራቅ	-10.1533
▁የአምላካችን	-10.1533
▁የገለዓድ	-10.1533
▁ድምፁን	-10.1533
▁ምናምንቴ	-10.1533
▁አኖራለሁ	-10.1533
▁አፈሰሰ	-10.1533
▁የፊተኛው	-10.1533
▁ገሊላ	-10.1533
▁ባሕሩ	-10.1533
▁ቅንዓት	-10.1533
▁እጆቹ	-10.1533
▁ነደደ	-10.1533
▁አገሮች	-10.1534
▁የሙሴ	-10.1534
▁ምድሩን	-10.1534
▁አባታችሁ	-10.1534
▁አደረግህ	-10.1534
▁አያውቅም	-10.1537
ላካቸው	-10.1537
▁የለበሰ	-10.1538
▁ትላላችሁ	-10.1538
▁አልሰሙም	-10.1539
ረክስ	-10.154
▁አሉአቸው።	-10.154
▁ሠሪ	-10.1541
▁የሰላም	-10.1541
▁ላሞች	-10.1541
▁የቤት	-10.1545
▁ይኸውም	-10.1547
▁ይውጣ	-10.1556
▁በልዩ	-10.156
▁ገል	-10.156
በታል፤	-10.1563
▁በጥሩ	-10.1565
ዞሩ	-10.1569
ፈርስ	-10.1571
▁ቤቴል	-10.1577
▁ባልንጀራውን	-10.1578
▁አቢሜሌክ	-10.1587
▁ጭቃ	-10.1594
ፈርዱ	-10.1596
▁አዘጋጅ	-10.161
ቶቼ	-10.1615
▁ይሰጥ	-10.1628
▁የተጻፈው	-10.1636
▁ጋለሞታ	-10.1638
ማላችሁ	-10.1648
ደርሱ	-10.1652
ሳፋን	-10.1655
▁ሁን	-10.1657
▁ወሰደ፤	-10.1662
▁በራሳቸው	-10.1674
▁ተቀበል	-10.1676
ረቡ	-10.1688
▁የኢየሩሳሌምን	-10.1694
ዘወትር	-10.1694
እውቀት	-10.1695
ኤርምያስ	-10.1695
ተገለጠ	-10.1704
▁ግብፃውያን	-10.1734
▁ብሉ	-10.1749
ሳደድ	-10.177
▁ይኖር	-10.179
▁ወንድሞቹን	-10.1814
▁ይላሉ	-10.1823
▁ወሰደ	-10.1829
▁ይሁዳን	-10.1831
ሙኤል	-10.1842
▁ተናገርሁ	-10.1851
▁የጦር	-10.1866
▁መስገጃ	-10.1866
ዮፍታሔ	-10.1878
▁መሎጊያዎቹ	-10.1878
▁ርኵስ	-10.1878
▁ቅርንጫፎች	-10.1878
▁በሳኦል	-10.1878
▁በአራተኛው	-10.1878
▁በአይሁድ	-10.1878
▁ተናግሬአለሁ	-10.1878
▁ኃይሉ	-10.1878
▁ከባቢሎን	-10.1878
▁የኮረብታ	-10.1878
▁ጠቢባን	-10.1878
▁ቡቃያ	-10.1878
▁አይደላችሁም	-10.1878
▁በብንያም	-10.1878
አብያታር	-10.1878
▁ታደርጉ	-10.1878
▁ያድርጉ	-10.1878
▁የራሱን	-10.1878
▁ዘመኑ	-10.1878
▁ሸማያ	-10.1878
▁ለድሀ	-10.1878
▁በአገሩ	-10.1878
▁ሴኬም	-10.1878
▁መብራት	-10.1878
▁እንደዚሁ	-10.1878
▁የመጠጥ	-10.1878
▁አዋጅ	-10.1878
▁በእግር	-10.1879
በርናባስ	-10.1879
▁አሥሩ	-10.1879
▁ከሕግ	-10.1879
▁በወንዝ	-10.188
▁አሸዋ	-10.188
▁ፈራጆች	-10.1881
▁ተመለሱ፤	-10.1881
▁ቍራ	-10.1881
▁ሥሩ	-10.1881
ተልባ	-10.1883
ባርነት	-10.1883
▁ቍር	-10.1885
▁ወርቁን	-10.1885
▁የሚመጣ	-10.1886
▁አመነ	-10.1894
ነድድ	-10.1895
ወንድሞች	-10.1895
▁ከሚኖሩ	-10.1902
▁በመካከል	-10.1903
▁ጥልቅ	-10.191
▁የተለየ	-10.1915
▁ኑሮ	-10.1918
▁እወቅ	-10.1924
▁ከፊትህ	-10.1924
▁በቤቴል	-10.1927
▁ወዮላቸው	-10.193
▁ሕፃናት	-10.1934
ጨምር	-10.194
▁በስምንተኛው	-10.1946
▁አሜስያስ	-10.1947
ደረቀ	-10.1953
መከሩ	-10.1955
ቃለሁ	-10.1968
▁ጣዖት	-10.1973
በቀለ	-10.1974
በረቱ	-10.1987
▁ሲመጣ	-10.1996
▁ይገዙ	-10.2003
▁ዕቃዎች	-10.2007
▁ይሠሩ	-10.2016
ወንድምህ	-10.202
▁የሚቀመጥ	-10.2025
▁ጨው	-10.2034
▁ሰጣቸው፤	-10.2041
ሮቻቸው	-10.2046
ጸሎት	-10.2052
▁ኢዮስያስ	-10.2053
በድል	-10.2053
ታዘዝ	-10.2053
መርከብ	-10.2054
ወስደው	-10.2056
▁በነገር	-10.2063
▁የሚሰጥ	-10.2065
▁ከፈተ	-10.2106
▁ሲሉ	-10.2109
▁ይቀመጥ	-10.2126
ቸዋልና	-10.214
ቀማ	-10.2154
▁የደረ	-10.2164
▁ተናግሮ	-10.222
ጦርነት	-10.2222
ያለሽ	-10.2231
ቺ	-10.2231
ዲያብሎስ	-10.2235
▁ሊባኖስ	-10.2235
▁በኃጢአት	-10.2235
▁ተጠንቀቅ	-10.2235
▁ትንሣኤ	-10.2235
▁እስትንፋስ	-10.2235
▁ኮረብቶች	-10.2235
ኢያቢስ	-10.2235
▁መርከቦች	-10.2235
▁በድንኳኑ	-10.2235
▁ዮዳሄ	-10.2235
▁በላያችን	-10.2235
▁በነቢያት	-10.2235
▁ብዝበዛ	-10.2235
▁ዕውሮች	-10.2235
▁ያቀርባል	-10.2235
▁ሐናንያ	-10.2235
▁ለካህኑ	-10.2235
▁አላውቅም	-10.2235
▁ራሳችን	-10.2235
▁ተከትለው	-10.2235
▁ድንገት	-10.2235
▁በአባቴ	-10.2235
▁ይቀመጣሉ	-10.2235
▁ከፊቴ	-10.2235
▁ከምናሴ	-10.2235
▁ተኝቶ	-10.2236
መሰከረ	-10.2236
▁የተነገረ	-10.2236
▁እሾህ	-10.2236
▁በበጎ	-10.2237
▁ሰማንያ	-10.2238
▁የልጅ	-10.2238
▁አገሩ	-10.2239
ናገራቸው	-10.224
▁ይሰጠዋል	-10.224
▁ብርታት	-10.2242
▁ተመለሱ፥	-10.2242
ሰገነት	-10.2243
▁ወለደች።	-10.2244
▁ጮኹ።	-10.2246
▁መጣች	-10.2246
▁የሚያስፈራ	-10.2249
ዋረድ	-10.225
ወደዱ	-10.2253
▁መስሎ	-10.2257
▁ሄዱ፥	-10.2259
▁ወስዳ	-10.2264
▁ራቁ	-10.2268
▁ላለው	-10.2269
▁ከሦስት	-10.2275
ሰደዱ	-10.2276
▁አትበል	-10.2278
▁ሞተም።	-10.2291
▁እርሾ	-10.2291
በልጥ	-10.23
▁ልበ	-10.2305
▁ታላቂቱ	-10.2307
▁ወጥቶአል	-10.231
▁እጆች	-10.232
ሰናክ	-10.2323
▁ከላይ	-10.2324
ሁለተኛው	-10.2328
ወገኔ	-10.2348
▁ገደለው	-10.2349
ላውያን	-10.2349
ማረከ	-10.2361
▁ሦስተኛ	-10.2372
▁ይመለሱ	-10.2379
ጠበቀ	-10.2382
▁መቀመጫ	-10.2385
▁አድርገሃል	-10.2396
▁ይሠዋ	-10.2397
▁የአባቱን	-10.2419
▁መርከብ	-10.2419
ኢዮስያስ	-10.242
▁አየሁ	-10.2421
▁ወይ	-10.2422
▁አወቀ	-10.2439
▁ሕያዋን	-10.2453
▁ተመልሰ	-10.2456
ነፍስ	-10.2474
ሴቲቱ	-10.248
መምጣት	-10.2484
▁እሆን	-10.2495
▁ሰለ	-10.2516
▁ሁለተኛውን	-10.2518
ቆመው	-10.2546
▁በቤቴ	-10.2554
▁ተከለ	-10.2563
▁በብርቱ	-10.2569
ማለህ	-10.2585
▁አቅርቡ	-10.2605
መቄዶንያ	-10.2605
▁በፍልስጥኤማውያን	-10.2605
▁አመሰግንሃለሁ	-10.2605
▁እንግዲያስ	-10.2605
▁ከመስፈሪያው	-10.2605
▁ከኃጢአት	-10.2605
▁የድንጋይ	-10.2605
▁ጣዖታት	-10.2605
መጻሕፍት	-10.2605
▁እርግማን	-10.2605
▁ይመለሳሉ	-10.2605
▁የዔሳው	-10.2605
▁ፈጽሜ	-10.2605
ኤርትራ	-10.2605
▁የወይኑ	-10.2606
▁ከአባቴ	-10.2606
▁ለአባቱ	-10.2606
▁የእውነት	-10.2606
▁ልማድ	-10.2606
▁በግልጥ	-10.2606
▁ረጅም	-10.2606
▁አቢሳ	-10.2607
▁አዴር	-10.2607
▁በጽኑ	-10.2607
▁በሙሉ	-10.2608
▁በየዓመቱ	-10.2608
▁አወቅሁ	-10.2608
▁ከእጄ	-10.2608
▁ምላስ	-10.2608
▁የሚያህል	-10.261
▁ይገድሉ	-10.2613
ተቀበላችሁ	-10.2613
ገለጡ	-10.2615
▁ቅጣት	-10.2616
▁ደሴቶች	-10.2616
▁ነገሥ	-10.2619
ተቀመጡት	-10.2622
ዋረደ	-10.2624
▁በአራቱ	-10.2624
▁ያያሉ	-10.2625
▁ወዳለበ	-10.2629
▁ተሻገሩ	-10.263
▁ከሌላ	-10.2633
▁የአምላክህን	-10.2637
▁ይፈጸም	-10.267
▁ለደኅንነት	-10.2671
▁አመጣለሁ	-10.2686
▁ዓዛርያስ	-10.2687
▁በሕዝብህ	-10.2725
▁ሄደህ	-10.2726
▁ኢዮአስ	-10.273
▁ጸሐፊው	-10.2754
▁ሚካ	-10.2763
▁ያውቃሉ	-10.2765
ፈጠር	-10.2782
▁ትሆኑ	-10.2789
▁ነሽ	-10.2803
በኵር	-10.2807
ጠላቶቼ	-10.2808
▁ኤላ	-10.282
▁ታየ	-10.2878
▁ድብ	-10.2879
ከማቸ	-10.2881
▁የሕዝቡ	-10.2882
▁ደሙ	-10.2885
▁ደመናው	-10.291
ድናቸው	-10.291
▁ጸሐፊ	-10.2914
▁ስላላ	-10.2926
▁በተራራ	-10.2932
▁የተቈጠሩ	-10.2939
ዮአስ	-10.2953
ኖርበት	-10.2961
▁የሚሠሩ	-10.2968
▁ለሳኦል	-10.299
▁ለአምላክህ	-10.299
▁መሳፍንት	-10.299
▁በባልንጀራ	-10.299
▁በኮረብታ	-10.299
▁ቤርሳቤህ	-10.299
▁ቦዔዝ	-10.299
▁ነጋዴዎች	-10.299
▁አገልጋይ	-10.299
▁ከሌዋውያን	-10.299
▁ከፈርዖን	-10.299
▁ኵሬ	-10.299
▁የመቅደሱ	-10.299
▁ለሕዝብ	-10.299
▁ቍጥራቸው	-10.299
▁ከወንድሞቹ	-10.299
▁የባሕር	-10.299
▁የነቢያት	-10.299
▁የዘበኞቹ	-10.299
▁ጥቂቶች	-10.299
▁መክደኛ	-10.299
▁በሕያው	-10.299
▁ከሁለቱ	-10.299
▁አውድማ	-10.299
▁ይሞታሉ	-10.299
▁ሕሊና	-10.299
▁አሞራውያን	-10.299
▁ፈቃዱ	-10.299
▁አይደለህም	-10.299
▁እንኪያስ	-10.299
ሌሎቹ	-10.299
▁ባለጠጋ	-10.299
▁ቅጥሩ	-10.299
ቃወሙ	-10.299
▁ሃሌ	-10.2991
አንበሶች	-10.2991
▁ማልዶ	-10.2991
▁በተስፋ	-10.2991
▁ወንዙ	-10.2991
▁መልኩ	-10.2991
▁የዕጣ	-10.2992
▁አድምጡ	-10.2992
▁ወልደ	-10.2992
▁ሄዳችሁ	-10.2993
ሳየ	-10.2993
ቀደመው	-10.2993
▁መርገም	-10.2994
ማንሣት	-10.2994
ቀረጹ	-10.2995
▁ከሞተ	-10.2996
▁ኪስ	-10.2996
የስማቸው	-10.2999
▁አላችሁ	-10.3
ዓለሙ	-10.3002
ገረዙ	-10.3004
▁መንሻ	-10.3005
ጨነቅ	-10.3008
ልባችን	-10.3014
▁የዓለም	-10.3018
ተረፈው	-10.3021
▁ሰጠው፤	-10.3025
▁ከቀይ	-10.3028
▁ይጨምር	-10.3041
▁ሲሄዱ	-10.3041
▁እንቅልፍ	-10.3045
▁ትሰማ	-10.3048
▁በሰዎች	-10.3053
▁መንግሥ	-10.3093
▁መንደሮችዋ	-10.3095
▁እንደሚሆን	-10.3099
▁ከአፉ	-10.3102
ታየው	-10.3109
ኛይቱ	-10.3118
ዳላችሁ	-10.3123
▁ጀመር	-10.3165
▁ቀላ	-10.3214
▁ስትል	-10.3229
ታምኑ	-10.3243
ከበር	-10.3253
▁እንደሚገባ	-10.3279
▁የወንድ	-10.3283
▁የተወደደ	-10.329
አባቶቻችሁ	-10.3293
▁በረከ	-10.3308
▁በቅድስ	-10.3319
ዘኑ	-10.3321
▁መንገዱ	-10.3333
ጻፍ	-10.3352
▁የአምላክ	-10.3357
▁ድንግል	-10.3365
▁ግዛ	-10.3384
ሚያገለግሉ	-10.339
▁ሌሊቱን	-10.339
▁ሚክያስ	-10.339
▁በኬብሮን	-10.339
▁አቁማዳ	-10.339
▁አገልጋዮች	-10.339
▁ከሳኦል	-10.339
▁ከያዕቆብ	-10.339
▁ጻድቁ	-10.339
መጥመቂያ	-10.339
▁ሕልሙ	-10.339
▁ማኅተ	-10.339
▁በዕድሜ	-10.339
▁በዘመኑ	-10.339
▁አውጥቶ	-10.339
▁እሰጣቸዋለሁ	-10.339
▁የሕዝብ	-10.339
▁የዘንባባ	-10.339
አስጨናቂ	-10.339
▁ለንጉሥ	-10.339
▁በመንገዱ	-10.339
▁መንፈሱ	-10.339
▁ኦርዮ	-10.339
ኢዮአታም	-10.339
▁ለአባቶቻቸው	-10.339
ፊንሐስ	-10.339
▁በውስጡ	-10.339
▁ብድራት	-10.339
ዕብራውያን	-10.339
ራፋይም	-10.339
▁አትሥሩ	-10.339
▁አካዝያስ	-10.339
ባሪያዎቼ	-10.339
▁ጕልላ	-10.339
ሰንሰለት	-10.339
▁ለሙሴ	-10.339
▁በቅንነት	-10.339
ሰሜኢ	-10.339
▁አሳደዱ	-10.3391
▁አዋቂ	-10.3391
▁ለብሰው	-10.3391
▁የዝግባ	-10.3391
▁ድርሻ	-10.3391
▁ፍርዱ	-10.3391
▁የአባቴ	-10.3391
▁አምኖን	-10.3392
▁ተደፋ	-10.3392
▁አልሁት።	-10.3393
▁ቤዛ	-10.3393
ጠላቶቻችሁ	-10.3394
▁ጮኽሁ	-10.3394
▁መዓት	-10.3396
▁ዘንግ	-10.3397
ካፈሉ	-10.3398
ፈወስ	-10.3401
▁ከእጁ	-10.3402
▁ባይሆን	-10.3411
ልካቸው	-10.3413
▁የተባለች	-10.3414
ናባጥ	-10.3414
▁የለኝም	-10.3417
አርባ	-10.3426
▁በውስጥዋ	-10.3427
▁እስኪሞት	-10.3429
ታለል	-10.3433
▁በጎነት	-10.3437
▁የምትኖሩ	-10.3438
ላታል	-10.3439
ዋለች	-10.344
▁ትርፍ	-10.3442
▁የጌታችን	-10.3444
ቀድሱ	-10.345
▁መከር	-10.3454
ገፋ	-10.3458
▁ሆነዋል	-10.348
▁ተዋጋ	-10.3489
▁በዙሪያዋ	-10.349
▁ሰማሁ	-10.3519
▁ወይራ	-10.3531
ተቀባ	-10.355
▁አላገኘሁ	-10.3562
ባሪያህ	-10.3578
▁ባሪያውን	-10.3597
▁ውበት	-10.3597
ለቅስ	-10.3599
መከራዬ	-10.3611
ማወቅ	-10.362
ናቡከደነፆር	-10.3623
ሸሸግ	-10.3636
▁ከሥጋ	-10.3636
ያልፉ	-10.3647
መሥዋዕቱ	-10.3648
▁ሰጥተ	-10.3683
ሰቀሉ	-10.3688
▁እነሆኝ	-10.3693
▁ሐዋርያ	-10.3695
▁አመጡት	-10.3698
ሸሹ	-10.3713
▁አመስግኑት	-10.3724
▁ቤቴ	-10.3756
▁በውስጥ	-10.3769
ኛለች	-10.3794
መልአኩ	-10.3797
ማስተስረያ	-10.3807
ትዕቢተኞች	-10.3807
ንቀጠቀጡ	-10.3807
ዤ	-10.3807
ጲ	-10.3807
▁ለአምላካችን	-10.3807
▁ቈነጃጅት	-10.3807
▁በባሕሩ	-10.3807
▁በአደባባይ	-10.3807
▁በደማስቆ	-10.3807
▁ተባባሉ።	-10.3807
▁ታደርጋላችሁ	-10.3807
▁ኃጢአታችሁ	-10.3807
▁ንጹሐን	-10.3807
▁እሰጣችኋለሁ	-10.3807
▁ከሕዝብ	-10.3807
▁ወይፈኖች	-10.3807
▁የይስሐቅ	-10.3807
▁የጻድቃን	-10.3807
▁ገንዘቡ	-10.3807
▁ፀነሰች	-10.3807
▁ምጽጳ	-10.3807
▁በሌለበት	-10.3807
▁በግምባሩ	-10.3807
▁የስምዖን	-10.3807
▁ያቃጥለዋል	-10.3807
▁ድንጋዩ	-10.3807
▁ጸሎቴ	-10.3807
▁በታንኳ	-10.3807
▁አሥረኛ	-10.3807
▁አዛዥ	-10.3807
▁ጽላቶች	-10.3807
▁ሌዋዊ	-10.3807
▁ከግራር	-10.3807
▁ጸንቶ	-10.3807
▁ልዑል	-10.3807
▁ይፈርዳል	-10.3807
▁ይመስላል	-10.3807
▁ኪራም	-10.3807
▁ፈጥነህ	-10.3807
▁ሳንቆች	-10.3807
ብላቴኖች	-10.3807
▁እያንዳንዳችሁ	-10.3807
▁ዓረባ	-10.3807
ጸጸት	-10.3807
▁የምድያም	-10.3807
▁ጀርባ	-10.3808
▁ሰምቻለሁ	-10.3809
▁ከቤቱ	-10.381
▁ወለደችለት	-10.3811
ጨረሰ	-10.3811
▁ተለይተ	-10.3811
▁ሳውል	-10.3811
▁ሠዋ	-10.3811
▁መልክተኞች	-10.3811
▁የሁሉ	-10.3812
▁ሌባ	-10.3813
ገሞራ	-10.3813
▁ወዳለች	-10.3814
▁ሳያውቅ	-10.3814
▁በስምህ	-10.3815
▁ይሆንላችኋል	-10.3815
▁ማረኝ	-10.3815
ለኪሶ	-10.3816
▁አመድ	-10.3816
▁ምርኮኞች	-10.3817
▁ሩቅ	-10.3817
▁ከንፈር	-10.3818
▁ከሰፈሩ	-10.3819
▁በአሮን	-10.3822
▁ሊገናኘ	-10.3823
▁አብራምም	-10.3823
▁በስሙ	-10.3823
ልመናዬ	-10.3824
▁ተዋጉ	-10.3824
▁አስብ።	-10.3825
አቸዋል።	-10.3827
▁ሠራተኛ	-10.3828
አውሬው	-10.3828
▁ሮጠ	-10.3832
▁ሠራዊቱም	-10.3834
▁አደርግሃለሁ	-10.3838
▁ደረሱ	-10.3839
▁ለሚኖሩ	-10.3845
▁ጡት	-10.3845
▁ዲዳ	-10.3845
▁ለአባቶቻችሁ	-10.3851
▁ቅንነት	-10.3851
▁አፉን	-10.3853
▁ወደቁ።	-10.3865
▁ጕን	-10.3873
▁እናትህ	-10.3874
▁ይስጥ	-10.3877
▁በተቀደሰው	-10.3896
ችኋል፥	-10.3902
ለታለሁ	-10.3909
▁ሥጋቸው	-10.3917
በቅል	-10.3918
▁አለፉ	-10.3919
▁ተገዙ	-10.3924
▁አቅርብ	-10.3926
▁አካሄ	-10.3929
▁አምጣ	-10.3934
ሚወዱ	-10.3963
▁ራስዋን	-10.3968
ቃለች	-10.3998
▁በጣም	-10.4001
▁መዳን	-10.4003
▁ፍልስጥኤማዊ	-10.4029
▁ሄደች	-10.4044
▁ማደሪያውን	-10.4051
መርዶክዮስ	-10.4057
ዓይኔ	-10.4057
▁የነበረች	-10.4087
▁ኃጢአተኛው	-10.4105
ምትባል	-10.4106
ሚናገሩ	-10.4114
▁አየች	-10.4123
▁ከመከራ	-10.4132
▁መያዣ	-10.4188
ጣለሁ	-10.4192
▁የዚያ	-10.4199
አባቶቹ	-10.4201
▁ቃሉ	-10.4202
ዢ	-10.4238
▁ሶርያ	-10.424
ላደረገ	-10.424
ሜሌክ	-10.4241
ኤልዛቤል	-10.4241
ጺ	-10.4241
▁መታጠቂያ	-10.4241
▁በመጨረሻ	-10.4241
▁በምድሪቱ	-10.4241
▁በኢዮርብዓም	-10.4241
▁በኤዶምያስ	-10.4241
▁ትችላለህ	-10.4241
▁ኃጢአቴ	-10.4241
▁አግኝቶ	-10.4241
▁ጽሕፈት	-10.4241
ኑኃሚን	-10.4241
ኤፍራጥስ	-10.4241
▁ትኖራለች	-10.4241
▁አልወደደም	-10.4241
▁የልጆቹ	-10.4241
▁ይጠብቃል	-10.4241
▁አድራጊ	-10.4241
▁እወዳለሁ	-10.4241
▁ዮሐናን	-10.4241
▁ትሆናላችሁ	-10.4241
▁የአምላካችሁን	-10.4241
▁ልጃችሁ	-10.4241
▁አታድርግ	-10.4241
▁ይወርዳል	-10.4241
▁አንዳንድ	-10.4241
▁በጠላቶቻቸው	-10.4241
▁ተጓዙ	-10.4241
▁ያቀርቡ	-10.4241
▁በምሳሌ	-10.4242
▁ዘርግቶ	-10.4242
▁ከዓለም	-10.4242
▁ጭልፋ	-10.4242
▁በአገርህ	-10.4242
▁በደለኛ	-10.4242
▁በአፋቸው	-10.4242
▁ተሸክመ	-10.4242
▁ሰውዮውም	-10.4242
▁አውጥተ	-10.4242
▁በወንዙ	-10.4242
▁የተመረጠ	-10.4242
ጸድቅ	-10.4242
▁ከወርቅ	-10.4242
ዘገይ	-10.4242
▁የቂጣ	-10.4242
ነግሥ	-10.4243
▁ለብሶ	-10.4243
▁ከፊቱ	-10.4243
▁አንሥተ	-10.4243
▁ይጥፋ	-10.4244
▁መግባት	-10.4244
▁ይበልጣል	-10.4245
ፋሬስ	-10.4245
▁ንስር	-10.4246
▁በወይን	-10.4247
▁ፈጥነው	-10.4248
▁አያውቁም	-10.4249
ከማቻ	-10.425
ቂሮስ	-10.425
▁ተቀብለ	-10.425
ታቀርቡ	-10.4252
ያከብሩ	-10.4252
▁ሠራተኞች	-10.4253
▁በሰፈሩ	-10.4254
▁ለጌታዬ	-10.4257
ገናኙ	-10.4258
▁ለማገልገል	-10.4259
▁አደረገው።	-10.4261
▁መለከቱን	-10.4268
▁ማልሁ	-10.4269
▁ገቡ፤	-10.4273
▁እንድትሆን	-10.4277
▁እስኪመጣ	-10.4292
▁ትንሽ	-10.4294
ገናኝ	-10.4294
▁የሚያውቅ	-10.4304
▁በዙሪያቸው	-10.4317
▁ተፈጸመ	-10.4322
▁አትበሉ	-10.4324
▁የፈጠረ	-10.4342
▁የሚገባውን	-10.4354
ፍልስጥኤም	-10.4359
▁ባወጣ	-10.4379
▁ይመስል	-10.4399
▁ብልህ	-10.4401
▁መጥታ	-10.441
▁ስማቸው	-10.4442
ሚሆን	-10.4455
▁የተጠላ	-10.446
አንደኛው	-10.4512
ወንጌል	-10.4512
ጳውሎስ	-10.4513
▁ብለዋል	-10.4534
▁ስማኝ	-10.4542
▁ሰማያዊ	-10.4559
ቀላል	-10.4563
ታስቡ	-10.4565
▁መንደሮች	-10.4573
ቈጡ	-10.4591
ቀረው	-10.4601
▁አድርጋ	-10.461
ተወለደ	-10.4629
ተመለሱ	-10.4635
ሁለተኛይቱ	-10.4638
ነዚህ	-10.4668
▁ጓዳ	-10.4687
▁ወጣች	-10.4694
ላካችሁ	-10.4694
መላእክቱ	-10.4696
ቾ	-10.4696
ጼ	-10.4696
▁ለይስሐቅ	-10.4696
▁ለዮሴፍ	-10.4696
▁መኳንንት	-10.4696
▁ስድስተኛው	-10.4696
▁አመሰግናለሁ	-10.4696
▁ከፈሪሳውያን	-10.4696
▁የሌዋውያን	-10.4696
▁የጽሩያ	-10.4696
▁ይጮኻሉ	-10.4696
▁ደመወዝ	-10.4696
▁ደማስቆ	-10.4696
ኀጥእ	-10.4696
▁ለብቻው	-10.4696
▁ቡሩክ	-10.4696
▁ከባሕር	-10.4696
▁የፍየል	-10.4696
▁ለመሥራት	-10.4696
▁ማሰማርያ	-10.4696
▁በአጠገባቸው	-10.4696
▁እናድርግ	-10.4696
አማልክቶቻቸው	-10.4696
▁ሰይፉን	-10.4696
▁አንዳንዱ	-10.4696
ገለግል	-10.4696
▁ሮቤል	-10.4696
▁ዝማሬ	-10.4696
▁ርብቃ	-10.4696
▁ቅዱሱ	-10.4696
▁ዕዝራ	-10.4696
▁ደንቆሮ	-10.4696
▁በአጠገቡ	-10.4696
▁ከወይን	-10.4696
▁በማዕድ	-10.4696
▁ጠላቶቻቸው	-10.4696
▁ባሮክ	-10.4696
▁ለምናሴ	-10.4696
▁ፈለጉ	-10.4696
▁እሴይ	-10.4696
ከንፈሮች	-10.4697
▁ለልጁ	-10.4697
ሰናከሉ	-10.4697
▁ወዳጄ	-10.4697
▁ዳሰሰ	-10.4698
▁አላደረገም	-10.4698
▁አመኑ	-10.4698
▁ከሌለ	-10.4699
▁መጠጥ	-10.4699
▁ገዢ	-10.47
ቸዋለች	-10.47
▁ነፍሳት	-10.47
▁በቅጥር	-10.4701
ቤዥ	-10.4701
እጃችን	-10.4702
▁በሚዛን	-10.4703
▁የተደረገው	-10.4703
▁ፈራጅ	-10.4704
▁የመከራ	-10.4705
▁ፈረስ	-10.4706
ናቡቴ	-10.4707
▁ያገኛል	-10.4708
እግራችሁ	-10.4708
▁በምድሩ	-10.4709
ፈቅድ	-10.4712
▁ስቡን	-10.4712
▁ይድናል	-10.4712
▁በተናገረ	-10.4713
▁ወይኑ	-10.4713
▁ተናግሮአልና	-10.4715
▁ብቻዬን	-10.4716
▁በመንግሥቱ	-10.4717
▁ቃሌ	-10.4729
▁ከሥራ	-10.4733
▁ግቢ	-10.4733
▁ጣሉት	-10.4737
▁ቀኖች	-10.4737
ችኋለን	-10.4738
▁አወሩ	-10.4754
▁ጠላቶችህን	-10.4758
▁አስቀድመው	-10.4771
▁የሚያውቁ	-10.4788
▁ገነት	-10.4789
ተያዘ	-10.4791
ጮች	-10.4792
▁ጥሎ	-10.4794
▁የተሞላ	-10.4794
▁ሰፊ	-10.48
▁ሙላ	-10.481
▁አወጣቸው	-10.4836
▁አንገት	-10.4842
ሰሎሞን	-10.4848
ሚፈሩት	-10.4864
▁ፍሬዋን	-10.4879
▁አያለሁ	-10.4937
ጠራችሁ	-10.498
ዓመፃ	-10.4989
ስድስት	-10.499
ሰጡአቸው	-10.4999
ዓመት	-10.5003
▁እስኪፈጸ	-10.5026
▁የተናገረ	-10.5079
ስምንተኛው	-10.5079
▁አማካሪ	-10.5093
▁የተመረጡ	-10.5154
ፎአል	-10.516
ኅጥኣን	-10.5172
ኢዮቤልዩ	-10.5172
ጴ	-10.5172
▁ለድሆች	-10.5172
▁ሜሱላም	-10.5172
▁በመጽሐፍ	-10.5172
▁በባሪያዎቹ	-10.5172
▁በኃይሉ	-10.5172
▁በየትውልዳቸው	-10.5172
▁በያዕቆብ	-10.5172
▁ተማከሩ	-10.5172
▁ተደነቁ	-10.5172
▁ታላላቅ	-10.5172
▁አስጸያፊ	-10.5172
▁አዶንያስ	-10.5172
▁እሰድዳለሁ	-10.5172
▁ከአይሁድ	-10.5172
▁ከካህናት	-10.5172
▁ከገሊላ	-10.5172
▁ዙፋኑ	-10.5172
▁የአደባባዩ	-10.5172
▁የኤዶምያስ	-10.5172
▁ይጮኻል	-10.5172
▁ጕልማሶች	-10.5172
▁ጢሞቴዎስ	-10.5172
▁ፈጽማችሁ	-10.5172
▁ፍጥረት	-10.5172
አመንዝራ	-10.5172
ክንፎቻቸው	-10.5172
▁በፋንታው	-10.5172
▁ፈሳሾች	-10.5172
የዕለቱ	-10.5172
▁የምስጋና	-10.5172
▁ፍቺውን	-10.5172
▁በብልሃት	-10.5172
▁አለቻት።	-10.5172
▁መጻተኞች	-10.5172
መልካሚቱ	-10.5172
ስሕተት	-10.5172
▁ከአሦር	-10.5172
▁ይወድዳል	-10.5172
▁አትችሉም	-10.5172
▁ጢሮስ	-10.5172
▁ለዓለም	-10.5172
▁መጥተህ	-10.5172
▁የወርቁን	-10.5172
▁ቅጠል	-10.5173
▁ለራስህ	-10.5173
▁የታወቀ	-10.5173
▁ወንበር	-10.5173
▁በሴሎ	-10.5173
ያመልጥ	-10.5173
▁አይገባውም	-10.5173
ዘበኞች	-10.5173
▁አልቅሱ	-10.5173
▁በመሬት	-10.5173
▁በባሳን	-10.5174
▁ለብቻቸው	-10.5174
▁ጥዋት	-10.5174
ቍርባኑ	-10.5175
▁አልቻለም	-10.5175
▁የሌለባቸውን	-10.5175
▁ጠየቁት።	-10.5175
▁ጫኑ	-10.5175
▁በአፍህ	-10.5175
▁የአንዱ	-10.5177
▁ሰበረ	-10.5177
▁አይቀርም	-10.5178
▁ይነሣሉ	-10.5179
▁አድምጥ	-10.5179
ዘረጉ	-10.5179
▁ተድላ	-10.5179
ከለከለ	-10.5181
▁ምንጮች	-10.5182
ሲሣራ	-10.5183
አቸዋል፤	-10.5183
▁ደንግ	-10.5183
▁ሁላቸው	-10.5183
ባለቤቱ	-10.5183
▁አይጠፋም	-10.5184
▁ይሆንልሃል	-10.5184
ለወጥ	-10.5185
▁ጤና	-10.5185
▁በነገው	-10.5187
▁አኖረው።	-10.5187
▁እንስት	-10.5187
ዘዛችሁ	-10.5189
▁ይገባሉ	-10.519
▁የተቀመጡትን	-10.5196
ፈለግ	-10.5199
ተገረዙት	-10.52
ወድደው	-10.5201
ተወለዱለት	-10.5202
ሃለች	-10.5204
▁መናወጥ	-10.5207
▁ለማዳን	-10.5209
▁አድኖ	-10.5209
▁ሳሚ	-10.5212
ቦቹ	-10.5212
▁ሊያደርግ	-10.5213
▁ያስባል	-10.5219
▁ብሆን	-10.5222
▁መካን	-10.5226
በዓሉ	-10.523
ኦርና	-10.524
▁ያገኘ	-10.5241
ነጹ	-10.5276
▁ይሰማል	-10.5284
ሚወጣው	-10.5297
ጠብቀው	-10.5327
ተዋቸው	-10.5372
▁ያዘዘው	-10.538
ታውቀው	-10.5397
ከተለኝ	-10.5418
▁ወዮላችሁ	-10.5418
ወርደው	-10.5426
▁አግኝቼ	-10.5434
ሳዶቅ	-10.5489
ገንዘብ	-10.549
▁ለነፍ	-10.5524
▁አደረገች	-10.5565
▁በተቀደሰ	-10.5565
ወጣችሁ	-10.5617
እቶን	-10.5623
ሻገሩ	-10.5641
▁አደባባ	-10.5657
መድኃኒታችን	-10.5672
▁ልጆቻችን	-10.5672
▁በሠላሳ	-10.5672
▁በቅዱሳን	-10.5672
▁በአምስተኛው	-10.5672
▁በአሥረኛው	-10.5672
▁ኃይሌ	-10.5672
▁እኅቴ	-10.5672
▁እንሄዳለን	-10.5672
▁እኵሌቶቹ	-10.5672
▁ከሐምራዊ	-10.5672
▁ኪሩብ	-10.5672
▁ኬልቅያስ	-10.5672
▁የከለዳውያን	-10.5672
▁የዮዳሄ	-10.5672
▁ያስተሰርይለታል	-10.5672
▁ያደርገዋል	-10.5672
▁በሴኬም	-10.5672
▁ትሄዳለህ	-10.5672
ወንድማማች	-10.5672
▁በገሊላ	-10.5672
▁የካህኑ	-10.5672
ጠነከረ	-10.5672
▁በመሰንቆ	-10.5672
▁ትዕማር	-10.5672
▁ምሰሶች	-10.5672
▁ተቀብሎ	-10.5672
▁ጠየቀው።	-10.5672
▁ከእጅህ	-10.5672
▁ተሰለፉ	-10.5672
▁በቅዱስ	-10.5672
▁ኤልያብ	-10.5672
▁ከሶርያ	-10.5672
▁መብረቅ	-10.5672
▁እሰጠዋለሁ	-10.5672
▁በእግሩ	-10.5672
▁ንገረኝ	-10.5672
▁ተከትሎ	-10.5672
ትክክል	-10.5672
▁በሶርያ	-10.5672
▁ዘለፋ	-10.5672
▁የነዌ	-10.5673
▁የተቀረጸውን	-10.5673
▁እንደዚያ	-10.5673
▁ሸሽቶ	-10.5673
▁ከፊታቸው	-10.5673
▁ለራሳችሁ	-10.5673
▁ቀልጦ	-10.5673
▁ያጥባል	-10.5673
አዛጦን	-10.5673
▁ማድጋ	-10.5673
▁የሐሰት	-10.5673
▁ወድዶ	-10.5674
▁አላወቀም	-10.5674
▁ቀለበት	-10.5674
▁የተሠሩትን	-10.5674
ደክሙ	-10.5675
▁አደሰ።	-10.5675
▁ይጸናል	-10.5675
▁ተኩል	-10.5676
▁የመገናኛውን	-10.5676
ወርሱአት	-10.5677
ታገሥ	-10.5677
▁ከራሱ	-10.5677
▁የብረት	-10.5678
▁ዘውድ	-10.5679
▁ሰውነትህ	-10.5679
▁ተራራማው	-10.5679
ጠግቡ	-10.568
▁ፈተና	-10.568
አቸዋልና	-10.5681
▁ብታደርግ	-10.5681
▁ገዳይ	-10.5682
▁ጓዳዎች	-10.5685
▁ብልቶች	-10.5686
▁ካልሆነ	-10.5686
▁ጸንተ	-10.5687
አኪቃም	-10.5689
ሰረገላው	-10.5693
▁ጠባቂዎች	-10.5696
ዓመቱ	-10.5698
▁ሎሌዎች	-10.5699
▁ውዴ	-10.5701
▁የተቀደሱ	-10.5705
▁አደጉ	-10.571
▁በመካከልሽ	-10.5711
▁በማናቸው	-10.5713
ጠመቁ	-10.5719
▁ለምጽ	-10.5727
▁አሮጌ	-10.5765
▁ብሎአል	-10.5785
▁በመንግሥ	-10.5795
▁እናቴ	-10.5808
ኸዋል	-10.5808
▁ፊቱ	-10.5842
ጠፉአቸው	-10.587
▁መጥቼ	-10.5911
▁መስክ	-10.5918
ከራከር	-10.5921
ኸኛልና	-10.5929
ኃያላኑ	-10.5953
▁የሌላ	-10.5957
ዐውሎ	-10.6014
▁ለብዙ	-10.6019
▁አገኘሁ	-10.6079
▁ኢትዮጵያ	-10.608
▁ስእለ	-10.6107
▁ከወለደ	-10.611
መካከልህ	-10.6119
▁ከፊት	-10.6133
▁ተቈጥ	-10.6191
ሃይማኖት	-10.6198
ቂርያትይዓሪም	-10.6198
ብላቴኖቹ	-10.6198
ግብጻውያን	-10.6198
▁ለባቢሎን	-10.6198
▁ለካህናቱ	-10.6198
▁መሸፈኛ	-10.6198
▁መንፈሳዊ	-10.6198
▁ቅርንጫፍ	-10.6198
▁በኮረብቶች	-10.6198
▁በዓይኑ	-10.6198
▁በጊብዓ	-10.6198
▁በግምባራቸው	-10.6198
▁ኅብስት	-10.6198
▁ከሰማያዊ	-10.6198
▁ዘገለዓድ	-10.6198
▁የምሥራቅ	-10.6198
▁የተመሸጉ	-10.6198
▁የካህናቱ	-10.6198
▁ጃግሬው	-10.6198
▁ጊብዓ	-10.6198
▁መንገዳችሁ	-10.6198
▁በእንጨት	-10.6198
▁ትወስዳለህ	-10.6198
▁አግብቶ	-10.6198
▁ኮከብ	-10.6198
▁የአሞራውያን	-10.6198
▁በካህኑ	-10.6198
▁አናውቅም	-10.6198
▁ሂጂ	-10.6198
▁ይወስዳሉ	-10.6198
▁አስቀድሜ	-10.6198
አንጾኪያ	-10.6198
▁ወስጄ	-10.6198
▁የእሴይ	-10.6198
▁ከእጃቸው	-10.6198
▁የጥበብ	-10.6198
▁ደነገጠ	-10.6198
▁ገዳዩ	-10.6199
▁ፈጣሪ	-10.6199
▁ሰብስቦ	-10.6199
ልተፈቀደ	-10.6199
▁ከሰይፍ	-10.6199
▁ጠጎች	-10.6199
▁የመንግሥት	-10.6199
▁ሉያ።	-10.6199
▁ከፊታችሁ	-10.6199
▁ደካማ	-10.6199
▁ትምክህ	-10.6199
ታመልኩ	-10.6199
መሰክሩ	-10.6199
▁ተሰጥቶ	-10.6199
ሰናከል	-10.6199
▁ዓላማ	-10.6199
▁እንዳደረግሁ	-10.6199
▁መገረዝ	-10.6199
▁ውድማ	-10.6199
▁ናዳብ	-10.6199
አስቀሎና	-10.6199
ጠባበቅ	-10.6199
▁መበለት	-10.62
▁ተሻግ	-10.62
▁በረኞች	-10.6201
ሱኮት	-10.6201
▁ያፍራሉ	-10.6201
ፈጽሙ	-10.6202
▁ንግሥት	-10.6202
▁ይቆማል	-10.6202
▁ወለል	-10.6203
▁በብረት	-10.6203
▁አታውቅም	-10.6205
▁በቃሉ	-10.6205
▁ገደላቸው	-10.6206
▁የሆድ	-10.6206
▁አውጡ	-10.6207
▁ደረጃ	-10.6208
▁አፋቸው	-10.621
▁የራቀ	-10.6215
ጸናች	-10.6215
ታጠቡ	-10.6216
▁አይገባም	-10.6218
▁የሚያሰኝ	-10.6218
▁አምጡልኝ	-10.622
▁ቅኔ	-10.6226
▁ናትናኤል	-10.6231
▁መኝታ	-10.6234
ሉአችሁ	-10.6265
▁ያኖራ	-10.6284
ቈረጥ	-10.6284
▁የወጣው	-10.6289
▁ኋላቸው	-10.6289
▁ከልብ	-10.6299
▁አድርጎአልና	-10.6339
ለቀቀ	-10.6342
▁አጸናለሁ	-10.6383
ሦስት	-10.6416
▁ደርሶ	-10.6466
ፈጸሙ	-10.649
▁ገበሬ	-10.6541
ሐዋርያት	-10.657
ምሕረት	-10.657
ፋሲካ	-10.6571
ኤልያስ	-10.6573
▁ኃጢአታቸው	-10.6593
ኢዮአስ	-10.6628
▁በመሠዊያ	-10.6657
▁አስቀድመ	-10.6662
ሸሸጉ	-10.6692
ከፈት	-10.6704
▁ያፈስ	-10.6727
እያንዳንዳች	-10.6754
ሞዓባውያን	-10.6754
ተንቀሳቃሾች	-10.6754
እኅቱ	-10.6754
▁መልእክት	-10.6754
▁በምኵራብ	-10.6754
▁በቸነፈር	-10.6754
▁በወኅኒ	-10.6754
▁ታንኳይቱ	-10.6754
▁አእላፋት	-10.6754
▁ኢያሪኮ	-10.6754
▁እዘምራለሁ	-10.6754
▁እፈልጋለሁ	-10.6754
▁ከባልንጀራ	-10.6754
▁ከክርስቶስ	-10.6754
▁የሊባኖስ	-10.6754
▁የአክዓብ	-10.6754
▁ይነግሣል	-10.6754
▁ግልገሎች	-10.6754
▁በመንደሮች	-10.6754
▁ባረካቸው	-10.6754
▁ጠፍቶአል	-10.6754
▁ከንጉሥ	-10.6754
▁ይወርሳሉ	-10.6754
መበለቲቱ	-10.6754
ምሥራቁ	-10.6754
▁ከነቢያት	-10.6754
▁ይሸከሙ	-10.6754
▁ትሞታለህ	-10.6754
▁ስላደረገው	-10.6754
▁ነፋሳት	-10.6754
▁ሁከት	-10.6754
▁አይችሉም	-10.6754
▁ከእግሩ	-10.6754
▁ጠግነት	-10.6754
▁ከተራራው	-10.6754
▁ወንድማችሁ	-10.6754
መዘምራን	-10.6754
ቅዒላ	-10.6754
ኃይላቸው	-10.6754
▁ቀጥሎ	-10.6754
▁ፍለጋ	-10.6754
▁አንኩስ	-10.6754
▁ቀሚስ	-10.6754
▁አትሁኑ	-10.6754
▁ከአገሩ	-10.6754
▁ሴዎን	-10.6755
▁ቀርቶአል	-10.6755
▁በድንገት	-10.6755
▁ማልደው	-10.6755
ገሥጸ	-10.6755
▁የቀዓት	-10.6755
አሞራዊ	-10.6755
▁የባሳን	-10.6755
ነግረው	-10.6756
▁ከዛሬ	-10.6756
▁በመዓት	-10.6756
▁ትበላለች	-10.6756
▁ከበጎ	-10.6756
▁ዘንዶ	-10.6757
▁አልችልም	-10.6757
▁ፈጥናችሁ	-10.6757
▁ዘጠና	-10.6758
አቃሮን	-10.6759
▁ዶሮ	-10.6759
▁ከአንዱ	-10.6759
አባቶቼ	-10.676
▁አሰብሁ	-10.676
▁ይኑር	-10.6761
▁ነፍሳችሁ	-10.6762
▁ደርብ	-10.6762
▁መድረ	-10.6762
▁የተናገርሁ	-10.6764
▁እስራት	-10.6764
▁አይኖርም	-10.6766
▁አያይም	-10.6768
▁የመጡት	-10.6768
▁ድስት	-10.6768
▁የደስታ	-10.6769
▁በዕቃ	-10.6775
▁የተመረጡትን	-10.6776
▁አትብሉ	-10.6776
▁በተፈጸመ	-10.6776
▁አኑሩ	-10.6781
▁ደማቸው	-10.6782
ታጠቁ	-10.6782
አለሽ	-10.6792
▁በሉት።	-10.6795
▁የሌላቸው	-10.6796
ጨመር	-10.6843
▁የረከሰ	-10.6852
እንባ	-10.7023
ዔድን	-10.7035
ሰናዳ	-10.709
▁የብዙ	-10.7152
ጋለሞታ	-10.7157
ኢዮራም	-10.7158
መሥዋዕት	-10.716
ሦስቱ	-10.7165
▁ባገኘ	-10.72
አምስት	-10.7239
▁በመካከላች	-10.7329
ተቀረጸ	-10.7342
ኆ	-10.7342
ጶ	-10.7342
▁ለአባቶቻችን	-10.7342
▁መዕሤያ	-10.7342
▁መድኃኒቴ	-10.7342
▁በጉባኤ	-10.7342
▁ብልጣሶር	-10.7342
▁ተኣምራት	-10.7342
▁ትዕግሥት	-10.7342
▁ኃይለኛ	-10.7342
▁አልተገኘም	-10.7342
▁አሚናዳብ	-10.7342
▁አውቄአለሁ	-10.7342
▁እንናገራለን	-10.7342
▁ከልጆቹ	-10.7342
▁ከመሠዊያው	-10.7342
▁ከመቅደሱ	-10.7342
▁ከሞዓብ	-10.7342
▁ከኢያሱ	-10.7342
▁ከዮርዳኖስ	-10.7342
▁ዓይኖቻቸው	-10.7342
▁ዕንቅፋት	-10.7342
▁የሜራሪ	-10.7342
▁የባሪያዎች	-10.7342
▁የተሸከሙ	-10.7342
▁የከተማው	-10.7342
▁ጃንደረባ	-10.7342
▁ግብዞች	-10.7342
▁ፍጹማን	-10.7342
አገልግሎታቸው	-10.7342
▁አትግለጥ	-10.7342
▁አዳራሾች	-10.7342
▁እሰብራለሁ	-10.7342
▁እኖራለሁ	-10.7342
▁እጆቼን	-10.7342
▁ከጨለማ	-10.7342
▁የእነርሱ	-10.7342
▁ያቀርበዋል	-10.7342
▁ሚዳቋ	-10.7342
▁በአሞራውያን	-10.7342
▁ለሁለቱ	-10.7342
▁ከጽዮን	-10.7342
▁ግመሎች	-10.7342
▁ይፈጸማል	-10.7342
▁ልሂድ	-10.7342
ከራከሩ	-10.7342
ጫፎቹ	-10.7342
▁አስተማሪ	-10.7342
▁ጥምቀት	-10.7342
▁ታቦቱን	-10.7342
▁መቃብሩ	-10.7342
▁በርሳችን	-10.7342
▁በተቀመጠ	-10.7342
▁ለምርኮ	-10.7342
▁መለሱለት።	-10.7342
ማዕዘኑ	-10.7342
▁በሕልም	-10.7343
▁ያቃጥሉ	-10.7343
▁የጭፍራ	-10.7343
ጨካኞች	-10.7343
▁ከተሞቹ	-10.7343
▁የበፍታ	-10.7343
▁ጋኔን	-10.7343
▁መጋቢ	-10.7343
▁በገባዖን	-10.7343
▁ሸንጎ	-10.7343
▁የምድሩን	-10.7344
▁ይዛችሁ	-10.7344
ገሥጽ	-10.7344
ታገሡ	-10.7344
▁መጽናናት	-10.7344
▁ካስማ	-10.7344
መርከቡ	-10.7344
▁ክንዱ	-10.7344
▁የልጆች	-10.7345
▁ታያላችሁ	-10.7345
▁በላያችሁ	-10.7346
በደለኞች	-10.7346
▁የናሱን	-10.7346
▁አልሰማችሁም	-10.7346
▁አልኋቸው።	-10.7346
ናገራችሁ	-10.7346
▁የሚወጡት	-10.7346
▁ጠራችው።	-10.7347
▁ቅረቡ	-10.7347
▁የገደለ	-10.7347
▁ይሸሻል	-10.7348
▁ሠርተዋል	-10.7348
▁በሱሳ	-10.7348
▁የባሪያህን	-10.7348
▁ለወጠ	-10.7348
▁ሕመ	-10.7349
ባዕድ	-10.7349
▁ከብበው	-10.735
▁ውሾች	-10.735
▁በቈላ	-10.735
ችግር	-10.7351
ሰበሰብ	-10.7351
▁ተቈጥቶ	-10.7352
▁ውደድ	-10.7353
▁የምታደርገው	-10.7354
▁አውሩ	-10.7355
▁ስጠን	-10.7356
▁ሰሎም	-10.7357
▁በዱር	-10.7358
ገናኛ	-10.7358
▁አትሁን	-10.7358
▁ከባድ	-10.736
▁ይገዛል	-10.736
▁ገለጠ	-10.7362
▁ዘለላ	-10.7365
▁አውቅ	-10.7366
ከብድ	-10.7366
ሚስቶቻቸው	-10.737
▁የያዘ	-10.74
▁የኔር	-10.741
መዋጋት	-10.7418
▁ሆናለች	-10.7438
▁እጃቸው	-10.7491
▁የወለደ	-10.7519
▁ይገኛል	-10.7528
ሰጠኋት	-10.758
ዚያች	-10.7695
▁አላገኘ	-10.7701
▁ተሳለ	-10.7747
▁ለዚያ	-10.7779
ኢዮሣፍጥ	-10.7784
እንግዳ	-10.7784
ወሰዱ	-10.7816
▁ጣዖቶ	-10.7845
ረከሰች	-10.7858
ንቀላፋ	-10.7923
▁ተቀምጦአል	-10.7966
ርኵሳን	-10.7967
ኃጥኣን	-10.7967
አማሌቃውያን	-10.7967
ኢያቡስቴ	-10.7967
ኢዮአካዝ	-10.7967
ኤልያሴብ	-10.7967
ኬጢያውያን	-10.7967
ዘጠነኛው	-10.7967
▁ለማደሪያው	-10.7967
▁ለቅዱሳን	-10.7967
▁ለአይሁድ	-10.7967
▁ለእርስዋ	-10.7967
▁መጽሐፉን	-10.7967
▁ሜልኮል	-10.7967
▁ቀርሜሎስ	-10.7967
▁በማኅበሩ	-10.7967
▁በምስክሩ	-10.7967
▁በሠራዊት	-10.7967
▁በትእዛዝ	-10.7967
▁ብልጥግና	-10.7967
▁ብፁዕ	-10.7967
▁ተዘልለው	-10.7967
▁ችግረኞች	-10.7967
▁አቅራቢያ	-10.7967
▁አደርጋታለሁ	-10.7967
▁እግሮቼ	-10.7967
▁ከሊባኖስ	-10.7967
▁ከኃጢአተኞች	-10.7967
▁ከወይኑ	-10.7967
▁ውስጠኛው	-10.7967
▁ዐፀድ	-10.7967
▁ዛብሎን	-10.7967
▁ያመስግኑ	-10.7967
▁ድምፄን	-10.7967
▁ጕስቍልና	-10.7967
▁ሐምራዊ	-10.7967
▁መስኮቶች	-10.7967
▁ትኖራላችሁ	-10.7967
▁አመለኩ	-10.7967
▁አጥንቶቼ	-10.7967
▁እጠብቃለሁ	-10.7967
▁ዐመፁ	-10.7967
▁ይቃጠላል	-10.7967
▁ቃዴስ	-10.7967
▁በውስጤ	-10.7967
▁አነገሡ	-10.7967
▁አዲሱን	-10.7967
▁በታላቁ	-10.7967
▁የአንበሳ	-10.7967
▁ይመስገን	-10.7967
▁ይገለጣል	-10.7967
▁ገሠጸ	-10.7967
▁ጽድቄ	-10.7967
▁አማሌቅ	-10.7967
▁ይታጠባል	-10.7967
እንግድነት	-10.7967
ሻለቆች	-10.7967
▁ሕጌን	-10.7967
▁በፍርሃት	-10.7967
▁ተመልክቶ	-10.7967
▁ይመልሳል	-10.7967
▁ጨካኝ	-10.7967
▁አምጥተው	-10.7967
▁ለመኑት።	-10.7967
አሜሳይ	-10.7967
▁አብዝቶ	-10.7967
▁አምጥቶ	-10.7967
▁በማስተዋል	-10.7967
▁አልቀረም	-10.7967
ተሾሙት	-10.7967
ያስጨንቅ	-10.7967
▁ባኦስ	-10.7967
ተላለፉ	-10.7967
▁ቃየን	-10.7968
ፈቃዳቸው	-10.7968
▁አንካሳ	-10.7968
አርማቴም	-10.7968
▁ክቡር	-10.7968
▁እስኪነጋ	-10.7968
▁የአሴር	-10.7968
▁ግማሽ	-10.7968
▁በአምላካችሁ	-10.7968
▁ደቦል	-10.7968
▁ፈቀደ	-10.7968
▁በድካም	-10.7968
▁ባርኩ	-10.7968
▁ፈሰሰ	-10.7968
▁አቅርቡልኝ።	-10.7968
▁ለቀሩት	-10.7968
▁ከመንገድ	-10.7969
▁አነበበ	-10.7969
▁ጎዳና	-10.7969
▁ያልፋሉ	-10.7969
▁ምሽግ	-10.7969
▁ይነግሩ	-10.7969
ሚመለከተው	-10.7969
▁ንገረን	-10.7969
▁ተመለከትሁ	-10.7969
▁እምነታችሁ	-10.797
ዘመኔ	-10.797
▁ዲናር	-10.797
▁የሚያህሉ	-10.797
▁አሰናብ	-10.797
▁በረሃ	-10.7971
▁አላገኙም	-10.7971
▁የእነዚህ	-10.7971
▁እጠራለሁ	-10.7971
▁ለቤቱ	-10.7971
ኤሊሳማ	-10.7972
▁የሕግ	-10.7972
▁ጭንቅ	-10.7972
ዘገየ	-10.7972
▁የነገረ	-10.7973
▁ቁሙ	-10.7975
▁ቤታቸው	-10.7975
▁እገባለሁ	-10.7975
ጥፋታቸው	-10.7975
ስቈጡኝ	-10.7975
▁አብዝተ	-10.7976
▁የነገሩ	-10.7976
▁ኬጢያዊው	-10.7976
▁አቤል	-10.7977
▁የሰማርያ	-10.7978
▁መሥዋዕታችሁ	-10.7979
▁አልበላም	-10.7979
▁ግደሉ	-10.798
ፈተኑ	-10.7981
▁ፈውስ	-10.7981
▁መልአኩም	-10.7982
▁ጥቅም	-10.7984
▁ያዛት	-10.7985
ተሰቀለ	-10.7987
ውደቅ	-10.7987
ሰልሉ	-10.8016
▁አድርጌሃለሁ	-10.8022
▁ወደድሁ	-10.8081
ሸፍን	-10.8175
ሌለባቸው	-10.8244
▁ከወንድ	-10.8263
ተኸኛል	-10.8303
ብርቱዎች	-10.8335
ተረፉ	-10.8375
ማይጠፋ	-10.8402
ጮኸ	-10.8417
▁ተጽፎ	-10.8445
ብላቴናው	-10.8449
ጣዖት	-10.845
አንዲቱ	-10.845
አበኔር	-10.845
አስቴር	-10.845
አጋንንት	-10.845
ትውልድ	-10.8452
አማርያ	-10.8453
▁ዕራቁ	-10.8472
▁ተቀምጣ	-10.8477
ሰበሰባ	-10.8485
▁ሰጥቶአል	-10.8506
▁ከሠራዊ	-10.8524
▁ወስደ	-10.8526
ዥ	-10.8623
መንኰራኵሮቹ	-10.8634
ማሰናከያ	-10.8634
ሜምፊቦስቴ	-10.8634
ሽማግሎች	-10.8634
አገልጋዮቹ	-10.8634
▁ለክርስቶስ	-10.8634
▁መስዋዕት	-10.8634
▁መሸሸጊያ	-10.8634
▁መደረቢያ	-10.8634
▁በስድስተኛው	-10.8634
▁በትዕቢት	-10.8634
▁በትዕግሥት	-10.8634
▁በአደባባዩ	-10.8634
▁በእነዚያ	-10.8634
▁በጕድጓድ	-10.8634
▁ናቡዘረዳን	-10.8634
▁አትደንግጡ	-10.8634
▁አዛሄል	-10.8634
▁ኢያቡሳውያን	-10.8634
▁እንሞታለን	-10.8634
▁ከማኅፀን	-10.8634
▁ከተፈተለ	-10.8634
▁ከአብርሃም	-10.8634
▁ከካህናቱ	-10.8634
▁ዐረፈ	-10.8634
▁ዖዝያን	-10.8634
▁የመሠዊያው	-10.8634
▁የቅዱሳን	-10.8634
▁ይሸከማሉ	-10.8634
ማይታዘዙ	-10.8634
ተሰነጠቀ	-10.8634
ዘላለሙ	-10.8634
▁ሃዳድ	-10.8634
▁በምጽጳ	-10.8634
▁አኖራቸው።	-10.8634
▁እለምናችኋለሁ	-10.8634
▁የልዑል	-10.8634
ምታፈስሰው	-10.8634
▁በሴይር	-10.8634
▁ተለወጠ	-10.8634
▁ትመስላለች	-10.8634
▁የተዘጋጁ	-10.8634
▁ሐውልት	-10.8634
▁ይሰግዳሉ	-10.8634
አዕማዱ	-10.8634
▁ዮዛባት	-10.8634
▁ላድርግ	-10.8634
▁ትኖራለህ	-10.8634
▁ሚስቶቹ	-10.8634
▁ማኑሄ	-10.8634
▁እንጎቻ	-10.8634
ማግሥቱ	-10.8634
▁አስወገደ	-10.8634
ጕልበቱ	-10.8634
ኢዮናዳብ	-10.8634
▁መታመኛ	-10.8634
▁ጠፍተዋል	-10.8634
▁አግኝተ	-10.8634
▁እቀጣለሁ	-10.8634
▁መሥራት	-10.8634
▁በቅጥሩ	-10.8634
▁በፈረሶች	-10.8634
▁አለቆቻቸው	-10.8634
▁ክፋታቸው	-10.8634
▁አብድዩ	-10.8634
▁ሰምተናል	-10.8634
▁ኤፉድ	-10.8634
ፌጎር	-10.8634
▁ተሻገረ	-10.8634
ያረክሱ	-10.8634
▁በበገና	-10.8634
ወንድሞቻችን	-10.8634
▁ጦሩን	-10.8634
▁ረዓብ	-10.8635
▁ዝሙት	-10.8635
ቀራጮች	-10.8635
▁እስከዚህ	-10.8635
▁እዘረጋለሁ	-10.8635
▁ሞቶአል	-10.8635
ምዋገት	-10.8635
▁በጥዋት	-10.8635
▁እንላለን	-10.8635
▁ተሰበረ	-10.8635
▁ከሙሴ	-10.8635
▁ታወከ	-10.8635
ኛለሽ	-10.8635
▁ለበጠው	-10.8635
▁ስጣቸው	-10.8635
▁ሬማት	-10.8635
▁ነቀፋ	-10.8635
▁ንገረው	-10.8635
▁ትወዳለህ	-10.8636
▁ለዘርህ	-10.8636
▁የደቡብ	-10.8636
ኤስሮም	-10.8636
▁የድሀ	-10.8636
▁ወጭት	-10.8636
▁ሸፈነ	-10.8636
ፈቃዴ	-10.8636
▁ቀደደ	-10.8636
▁ለአውራ	-10.8636
▁በጫንቃ	-10.8636
▁ለበጎ	-10.8636
▁የሚያደርገውን	-10.8636
▁እሠራለሁ	-10.8637
ነግራቸው	-10.8637
▁በጸጋ	-10.8637
▁ከእናቱ	-10.8637
ኤልፋዝ	-10.8637
▁ያደረግህ	-10.8637
▁ጻፉ	-10.8637
▁አንገቱ	-10.8638
▁እንውጣ	-10.8638
▁አሴር	-10.8638
▁ሰውነታቸውን	-10.8638
▁በግንቡ	-10.8638
▁አሠራር	-10.8638
▁ገላውን	-10.8638
ሰገነቱ	-10.8639
▁በራስህ	-10.8639
መጥምቁ	-10.8639
▁ለሰዎች	-10.8639
▁በአውራ	-10.864
▁ዘምሪ	-10.864
▁መትቶ	-10.864
▁አልመለስም	-10.8643
▁መንደር	-10.8643
▁ታመንሁ	-10.8643
▁የሞቱት	-10.8644
▁ከርቤ	-10.8645
▁ክብሬን	-10.8646
▁መረገ	-10.8646
ማይቻል	-10.8648
ተባበሩ	-10.8652
▁የሰሙት	-10.8662
ስራሽ	-10.8663
ሰበክ	-10.8669
ስቈጡት	-10.8677
ደረቱ	-10.8686
▁ቀበሮ	-10.8692
▁ጅራ	-10.8694
ረገጠ	-10.8707
ያቃጥል	-10.871
ግመል	-10.8726
መንግሥቴ	-10.8745
ያውቀው	-10.875
ሚኖረው	-10.8758
አማትዋ	-10.88
▁ከተናገረ	-10.8813
ሎሌዎቹ	-10.8901
▁መሰምርያ	-10.894
ባሮቹ	-10.8958
▁ባልሆነ	-10.8977
ወገብህ	-10.8984
መገናኛው	-10.9076
▁ተቀምጠ	-10.9079
አለቃ	-10.9121
▁በሰረገላ	-10.9151
ከነዓናውያን	-10.9164
እንስሶች	-10.9165
ፍየሎች	-10.9165
ባሪያዬ	-10.9165
አንዲት	-10.9167
መንግሥታት	-10.9201
መፍራት	-10.922
ተወደደ	-10.9268
▁በአህያ	-10.9314
ኬጢያዊ	-10.9338
▁ቍጥቋ	-10.9347
ኽ	-10.9347
ሰዱቃውያን	-10.9348
ባልንጀሮቹ	-10.9348
ንቀሳቀስ	-10.9348
▁ለመታሰቢያ	-10.9348
▁ለሰይፍ	-10.9348
▁ሕልቃና	-10.9348
▁ምስክሩን	-10.9348
▁ምኵራብ	-10.9348
▁ምጽዋት	-10.9348
▁ቁርበቱ	-10.9348
▁ቃርሚያ	-10.9348
▁በሕዝቅያስ	-10.9348
▁በሲኦል	-10.9348
▁በእያንዳንዱ	-10.9348
▁በዘላለም	-10.9348
▁ናታኒም	-10.9348
▁ኤልያቄም	-10.9348
▁ከመካከላቸው	-10.9348
▁ከሮቤል	-10.9348
▁ከዛብሎን	-10.9348
▁ዐመፀ	-10.9348
▁የኢዮርብዓም	-10.9348
▁የኢዮአብ	-10.9348
▁የደኅንነቱን	-10.9348
▁ጠንቋዮች	-10.9348
▁ፌዘኛ	-10.9348
መሃናይም	-10.9348
ኋለኞች	-10.9348
▁ሥቃይ	-10.9348
▁አደረጋቸው።	-10.9348
▁የተረገመ	-10.9348
▁ለእነዚህ	-10.9348
▁ለእናቱ	-10.9348
▁ከሰማያት	-10.9348
▁በራእይ	-10.9348
▁ከስፍራው	-10.9348
▁ምልክቶች	-10.9348
▁ከወንዙ	-10.9348
▁ደነገጡ	-10.9348
▁ሐሰተኞች	-10.9348
ጥንቃቄ	-10.9348
▁ከጻፎች	-10.9348
▁የመንፈስ	-10.9348
▁እንዳልሆነ	-10.9348
▁ያስተምር	-10.9348
▁በሰማያዊ	-10.9348
▁ነቢያቱ	-10.9348
ዓይናችን	-10.9348
▁ሰደዳቸው	-10.9348
▁በቍጥር	-10.9348
▁ምልክቱ	-10.9348
▁የምስራች	-10.9348
▁ይደርሳል	-10.9348
▁ተደርጎ	-10.9348
▁አስገባሪ	-10.9348
▁ለአባቴ	-10.9348
▁መሰንቆ	-10.9348
▁በእሾህ	-10.9348
አቆስጣ	-10.9348
▁ጫንቃ	-10.9348
▁ይሸከማል	-10.9348
▁አይጸናም	-10.9349
▁ከምርኮ	-10.9349
▁በፊታችን	-10.9349
▁ምድራችሁ	-10.9349
▁ከክፋት	-10.9349
▁ወንድማችን	-10.9349
▁እንሥራ	-10.9349
▁ሸቀጥ	-10.9349
ቸዋለን	-10.9349
▁በምድራቸው	-10.9349
▁ከአሴር	-10.9349
▁ከበርቴ	-10.9349
▁ነበራችሁ	-10.9349
ነግራችሁ	-10.9349
▁እንዳዘዝሁ	-10.9349
▁ወድቀው	-10.9349
ሲዶናውያን	-10.9349
ንዕማን	-10.9349
▁አንችልም	-10.9349
▁የፋርስ	-10.9349
▁የቀድሞ	-10.9349
▁ዘመድ	-10.9349
ውርደት	-10.9349
▁አይዞህ	-10.9349
▁ትወዳላችሁ	-10.935
▁በዝግባ	-10.935
▁ይታያል	-10.935
▁በምናሴ	-10.935
▁ሄጄ	-10.935
ቢታንያ	-10.935
▁በጎዳና	-10.9351
▁በዓለት	-10.9351
▁አዛውን	-10.9352
▁እነማ	-10.9352
ፋረድ	-10.9353
ስማሙ	-10.9354
▁ፈረደ	-10.9354
ፍየሉ	-10.9356
▁እሸት	-10.9356
▁ፍረድ	-10.9356
▁እመጣለሁ	-10.9357
ታበዩ	-10.936
ኤሞር	-10.9362
ኤፍራታ	-10.9363
▁አስባለሁ	-10.9363
▁ይፈራሉ	-10.9367
▁ስለሌለ	-10.9369
▁ሄድሁ	-10.9376
መምሰል	-10.9384
ሰፈራቸው	-10.9391
ሚበርር	-10.9432
ይቆሙ	-10.9473
ሌለባት	-10.9484
▁የተሳለ	-10.9487
አሶር	-10.9524
▁ይሆንበታል	-10.9611
ፈትኑ	-10.9629
ወደደችውን	-10.9633
ነፍሱ	-10.9661
▁ያኖረ	-10.9665
ተራበ	-10.9669
ስማማ	-10.972
ወግሩ	-10.9738
▁መልሳ	-10.9742
ካፈል	-10.9781
አህያይቱ	-10.9781
ኖረበት	-10.9847
▁አስታውቀ	-10.9856
ሚካኤል	-10.9868
ቍጣዬ	-10.9903
ሚበላው	-10.9905
ወጥመድ	-10.9934
በረከት	-10.9935
ፈጠረው	-10.9945
ክብሬ	-11.0112
መንኰራኵሮች	-11.0117
መካከለኛው	-11.0117
መዛነቢያዎቹ	-11.0117
ኢያዜር	-11.0117
ኤዊያውያን	-11.0117
ኵላሊቶች	-11.0117
▁ለሠራዊት	-11.0117
▁ለባልንጀራው	-11.0117
▁ሐሴቦን	-11.0117
▁መንኰራኵር	-11.0117
▁መዘምራኑ	-11.0117
▁ራፋስቂስ	-11.0117
▁ቅፍርናሆም	-11.0117
▁በሐሴቦን	-11.0117
▁በመንገዳቸው	-11.0117
▁በኃጢአቱ	-11.0117
▁በኪሩቤል	-11.0117
▁በወንድሞቹ	-11.0117
▁በዕብራይስጥ	-11.0117
▁በፀሐይ	-11.0117
▁ብልሃተኛ	-11.0117
▁ተሞልታለች	-11.0117
▁ታደርጋለች	-11.0117
▁ትኵሳት	-11.0117
▁ኀጥኣን	-11.0117
▁አስቀድማችሁ	-11.0117
▁አኪማአስ	-11.0117
▁አኪጦፌል	-11.0117
▁አደርጋቸዋለሁ	-11.0117
▁እባካችሁ	-11.0117
▁ከምዕራብ	-11.0117
▁ከተቀደሰው	-11.0117
▁ወይፈኑን	-11.0117
▁የለመለመ	-11.0117
▁የመታጠቢያ	-11.0117
▁የሚያሰኘውን	-11.0117
▁የኀጥኣን	-11.0117
▁የኢትዮጵያ	-11.0117
▁ያስተምራቸው	-11.0117
▁ጕድጓዱ	-11.0117
▁ጥበበኛ	-11.0117
ሚንቀሳቀሱ	-11.0117
ዓይኖቻችሁ	-11.0117
ዮፎኒ	-11.0117
ገለግለው	-11.0117
ጩኸታቸው	-11.0117
ጱ	-11.0117
▁በቃዴስ	-11.0117
▁በፊተኛው	-11.0117
▁ንግግር	-11.0117
▁እሆናቸዋለሁ	-11.0117
▁እመለሳለሁ	-11.0117
▁ከመንገዱ	-11.0117
▁ከሠላሳ	-11.0117
▁ዜቡል	-11.0117
▁የሚያስጨንቁ	-11.0117
▁የማደሪያው	-11.0117
▁የምድሪቱ	-11.0117
▁የቃሬያ	-11.0117
▁ለዔሳው	-11.0117
▁ተርሴስ	-11.0117
▁አዝዣለሁ	-11.0117
▁የሚያቀርበው	-11.0117
▁የባሕሩ	-11.0117
▁የናታንያ	-11.0117
ምዕራቡ	-11.0117
እንስሶቻቸው	-11.0117
▁ያቀርቡላችኋል።	-11.0117
▁ጕድፍ	-11.0117
▁ለካህናት	-11.0117
▁በምስጋና	-11.0117
▁የገባዖን	-11.0117
▁በኀዘን	-11.0117
▁እጥላለሁ	-11.0117
▁የባዶስ	-11.0117
▁የአምላካቸውን	-11.0117
▁ጕልበት	-11.0117
▁በመቃብር	-11.0117
▁ብታደርጉ	-11.0117
▁ብርሃኑ	-11.0117
▁ተወግተው	-11.0117
▁ድንበራቸው	-11.0117
▁የሕያው	-11.0118
▁እሞታለሁ	-11.0118
ገለገለ	-11.0118
▁እግሮቻቸው	-11.0118
▁ይነግዱ	-11.0118
ቀደሙት	-11.0118
▁ቁመት	-11.0118
▁በሕይወታቸው	-11.0118
▁አስተምረኝ	-11.0118
▁የጢሮስ	-11.0118
▁ጠጕሩ	-11.0118
▁የታሰረ	-11.0118
▁ያስተምሩ	-11.0118
▁ይወርሳል	-11.0118
▁ክንፎች	-11.0118
ጾርዓ	-11.0118
▁መልሼ	-11.0118
▁በእንስሳ	-11.0118
▁የተናገርኸው	-11.0118
መሠረቱ	-11.0118
▁በብርሃን	-11.0118
▁ፍሪዳ	-11.0118
▁በመዓቴ	-11.0118
▁በዝቶአል	-11.0118
▁ክህነት	-11.0118
▁እምላለሁ	-11.0118
ጠቦቶቹ	-11.0118
አንጥረኛ	-11.0118
▁ይሰጣችኋል	-11.0118
▁ሸሽተው	-11.0118
▁ትሰጣላችሁ	-11.0118
▁ይሰበሰባሉ	-11.0118
ሰናክሬም	-11.0118
▁ሎጥም	-11.0118
ታረደው	-11.0118
▁አትፍሪ	-11.0118
▁ከመሬት	-11.0118
▁አቅርበ	-11.0118
▁ከአባቱ	-11.0119
ሬካብ	-11.0119
▁አንደበት	-11.0119
▁ውሸት	-11.0119
ትሕትና	-11.0119
▁ለምጻም	-11.0119
▁እርምጃ	-11.0119
ስልማና	-11.0119
▁እነሣለሁ	-11.0119
▁ይስማ።	-11.012
▁ታካች	-11.012
▁መብላት	-11.012
▁ከእምነት	-11.012
▁የቆሬ	-11.0121
▁አውቀው	-11.0121
ሚቀርበው	-11.0121
▁በቀትር	-11.0121
▁ሰውነታችሁን	-11.0122
▁ትናንት	-11.0122
▁ይዘረጋል	-11.0122
ተፈወሰ	-11.0123
እንበረም	-11.0123
▁ታዳጊ	-11.0123
▁ጠበቅሁ	-11.0123
▁በድያለሁ	-11.0124
▁እወጣለሁ	-11.0125
ተባበር	-11.0126
▁ለስምህ	-11.0128
▁ጠላቱ	-11.0128
ሚጠሉኝ	-11.0128
ማርከው	-11.0136
ሰከሩ	-11.0141
▁አፍስሰ	-11.0142
▁የእናቱ	-11.0143
▁ጠላሁ	-11.0145
ሰድቡ	-11.0153
▁ይለናል	-11.0155
ሠራዊታቸው	-11.0162
አጥንቴ	-11.0177
▁የሚያስፈልገ	-11.023
▁ፍርዴ	-11.0247
▁መሥዋዕ	-11.0256
▁አድርገናል	-11.0265
▁ተቀምጠዋል	-11.0345
ቸርነቱ	-11.0367
መጋረጃው	-11.0502
ያጠፋቸው	-11.0627
በሮቹ	-11.0657
ሠርተው	-11.0721
እናትዋ	-11.0732
ዓዛርያስ	-11.0766
እስማኤል	-11.0766
እረኞች	-11.0777
▁ጠየቁ	-11.0946
ሢ	-11.0951
ሓ	-11.0951
▁ወታደሮች	-11.0951
▁የዛብሎን	-11.0951
▁ጽሕፈቱ	-11.0951
መቅሠፍቱ	-11.0951
ሰንፔር	-11.0951
ሰፋጥያስ	-11.0951
ቤርዜሊ	-11.0951
ቧ	-11.0951
ትዕቢተኛ	-11.0951
ኢኮንያን	-11.0951
ኢዮሴዴቅ	-11.0951
ፕ	-11.0951
▁ሁለንተና	-11.0951
▁ለልጆቻችሁ	-11.0951
▁ለባሪያዎችህ	-11.0951
▁ለኢየሩሳሌም	-11.0951
▁ሰንበታቴን	-11.0951
▁ሹማምቶች	-11.0951
▁በቁርበቱ	-11.0951
▁በቸርነት	-11.0951
▁በአክዓብ	-11.0951
▁በከለዳውያን	-11.0951
▁በካህናቱ	-11.0951
▁በውስጠኛው	-11.0951
▁በዓይናችሁ	-11.0951
▁በየስፍራው	-11.0951
▁ተሠርቶ	-11.0951
▁ተቃዋሚ	-11.0951
▁ተንቀሳቃሽ	-11.0951
▁ታቀርባለህ	-11.0951
▁አብደናጎ	-11.0951
▁አትደንግጥ	-11.0951
▁አግሪጳ	-11.0951
▁እንኖራለን	-11.0951
▁እየሰበከ	-11.0951
▁እጆቻቸውን	-11.0951
▁ከነቢዩ	-11.0951
▁ከንፈሮቼ	-11.0951
▁ወኅኒ	-11.0951
▁ውርንጫ	-11.0951
▁ዘሩባቤል	-11.0951
▁ዝንጕርጕር	-11.0951
▁የሚሸፍነውን	-11.0951
▁የተመሰገነ	-11.0951
▁የፀሐይ	-11.0951
▁ይፈልጋል	-11.0951
▁ጕልበቴ	-11.0951
▁ለልጆችህ	-11.0951
▁በልጆቹ	-11.0951
▁በንጹሕ	-11.0951
▁ተአምራቱ	-11.0951
▁ከመቅደስ	-11.0951
▁የተርሴስ	-11.0951
ንጉሣቸው	-11.0951
ጭፍሮቹ	-11.0951
▁በክህነት	-11.0951
▁በዓረባ	-11.0951
▁ታናሺቱ	-11.0951
▁አንካሶች	-11.0951
▁ከታላቁ	-11.0951
▁የጨለማ	-11.0951
▁ንጥቂያ	-11.0951
▁የላከውን	-11.0951
▁የታላቁ	-11.0951
▁ትወርሳት	-11.0951
▁እልካለሁ	-11.0951
▁ይረጨዋል	-11.0951
▁መኳንንቶ	-11.0951
▁እንጐቻ	-11.0951
▁ይገልጣል	-11.0951
▁ከእንስሳ	-11.0951
▁ይመስላችኋል	-11.0951
ቄድሮን	-11.0951
ብልሃተኞች	-11.0951
▁በአርኖን	-11.0951
▁እምቦሳ	-11.0951
ሚያቀርቡት	-11.0951
▁ከተቀመጠ	-11.0951
▁አፍርሰዋል	-11.0951
▁በዙፋን	-11.0951
▁እንጨቱን	-11.0951
ሞሖሊ	-11.0951
▁የርግብ	-11.0951
ደነደነ	-11.0951
▁በአሦር	-11.0951
▁አልራቀም	-11.0951
መበለቶች	-11.0951
▁ሰይፌ	-11.0951
▁ሚሳቅ	-11.0951
▁በትውልዳ	-11.0951
▁በድለናል	-11.0951
▁ከሌሎች	-11.0951
▁ፍርምባ	-11.0951
ፊተኛይቱ	-11.0951
▁ይቀርባል	-11.0951
▁በልቅሶ	-11.0951
▁ለክብር	-11.0951
▁የተጻፉ	-11.0951
▁አክብር	-11.0951
▁አስቀመጠ	-11.0951
▁ተሸክሞ	-11.0951
ደርጋቸው	-11.0951
▁ያመለጠ	-11.0951
▁ይደነግጣሉ	-11.0951
▁መርበብ	-11.0951
▁ለአባትህ	-11.0951
▁በመረጠው	-11.0951
▁ቍጠሩ	-11.0951
ኤፍሮን	-11.0951
▁ስገዱ	-11.0951
ሕዝባቸው	-11.0951
▁ነበራቸው	-11.0951
▁ቆንጆ	-11.0951
▁ዋነኛ	-11.0952
▁ሊዋጉ	-11.0952
▁የዘይት	-11.0952
▁ጠጉር	-11.0952
▁ሀብታ	-11.0952
▁የተግባር	-11.0952
▁መዓካ	-11.0952
▁የሚሠዋ	-11.0952
▁የሕጉ	-11.0952
▁የእግር	-11.0953
ነጋገራ	-11.0953
▁ሙሾ	-11.0953
ተቀመጣችሁ	-11.0953
▁ሎጥን	-11.0953
▁ታማኝ	-11.0953
▁ነውረኛ	-11.0954
ይሩበኣል	-11.0954
ሚበልጠው	-11.0954
ገዳደር	-11.0956
▁ይራራል	-11.096
▁ይገዛሉ	-11.0964
▁ላክሁ	-11.0964
▁አድናለሁ	-11.0966
መኰንን	-11.0967
ቀደዱ	-11.0979
ህማለሁ	-11.0988
ሰደድሁ	-11.0994
▁በዳርቻ	-11.1006
መረግድ	-11.101
ያሳፍር	-11.1055
▁አቆሙ	-11.1084
▁ጠጥተ	-11.1091
▁አይታችኋል	-11.1096
▁ይቀራል	-11.1174
▁የአባቱ	-11.1395
ሌሊት	-11.1584
ይቀጣ	-11.1653
ታላቂቱ	-11.1675
አሜስያስ	-11.1675
ጸሐፊው	-11.1676
ኢዮብ	-11.1678
ጆሮአችሁ	-11.1725
አመንዝሮች	-11.186
▁ትናገራለህ	-11.186
▁ትፈልጋላችሁ	-11.186
▁ከእነዚያ	-11.186
▁ጠላቶቻችን	-11.186
መርከቢቱ	-11.186
ተመሠረተ	-11.186
አስቆሮቱ	-11.186
ዖቤድኤዶም	-11.186
ድንጋዮቹ	-11.186
▁ለልጆቻቸው	-11.186
▁ለሕዝቤ	-11.186
▁መቅረዞች	-11.186
▁መንቀጥቀጥ	-11.186
▁መግደላዊት	-11.186
▁መጠምጠሚያ	-11.186
▁ርኅራኄ	-11.186
▁በሌዋውያን	-11.186
▁በማኅፀን	-11.186
▁በኃጢአታቸው	-11.186
▁በአፍንጫ	-11.186
▁በኢያሱ	-11.186
▁በወንዞች	-11.186
▁በዮሴፍ	-11.186
▁ኅብረት	-11.186
▁አላስተዋሉም	-11.186
▁አልደረሰም	-11.186
▁እልከኛ	-11.186
▁እመልሳቸዋለሁ	-11.186
▁እሰበስባቸዋለሁ	-11.186
▁እነግራችኋለሁ	-11.186
▁እወስዳለሁ	-11.186
▁ከሜራሪ	-11.186
▁ከባሪያዎችህ	-11.186
▁ከኢዮርብዓም	-11.186
▁ከየነገዱ	-11.186
▁ከዮሴፍ	-11.186
▁ከገለዓድ	-11.186
▁ዕብራዊ	-11.186
▁የማዝዝህን	-11.186
▁የራጉኤል	-11.186
▁የቀደሰውን	-11.186
▁የአልዓዛር	-11.186
▁የአማልክት	-11.186
▁የአራተኛው	-11.186
▁ያዘዝሁህን	-11.186
▁ይፈልጋሉ	-11.186
▁ድንኳኖች	-11.186
▁ድንግሊቱ	-11.186
▁ጼዴቅ	-11.186
ዘመዶቼ	-11.186
▁መንገዶች	-11.186
▁በበረሀ	-11.186
▁ተላላፊ	-11.186
▁ተደፍቶ	-11.186
▁ትላቸዋለህ።	-11.186
▁አልፈቀደም	-11.186
▁አመሰገነ	-11.186
▁ዓይናቸውን	-11.186
▁ዘንበሪ	-11.186
▁የዓመፅ	-11.186
▁ያድነናል	-11.186
▁ይመለከታሉ	-11.186
▁ይዋረዳል	-11.186
▁ይጠብቃሉ	-11.186
▁ለምስጋና	-11.186
▁ከስምዖን	-11.186
▁የኃይል	-11.186
▁ያለቅሳሉ	-11.186
▁ጸያፍ	-11.186
▁ነነዌ	-11.186
▁ኢታምር	-11.186
▁የእንጨት	-11.186
▁ሞግዚ	-11.186
▁አደረጋችሁ	-11.186
▁ከታናሹ	-11.186
▁ከታናሽነ	-11.186
ሬአለሁ።	-11.186
ቀጠቀጥ	-11.186
▁ሰብስበው	-11.186
▁በአንገቱ	-11.186
▁አፈለሰ	-11.186
▁ያቃጥላል	-11.186
▁ጠራቢዎች	-11.186
▁በልሳኖች	-11.186
▁ዓሦች	-11.186
▁ሞኝነት	-11.186
▁ሢሶ	-11.186
▁አንገታቸውን	-11.186
▁እጃችሁን	-11.186
▁የእንስሳ	-11.186
▁አለዚያ	-11.186
▁እያለቀሱ	-11.186
▁ይወርዳሉ	-11.186
ገለገሉ	-11.186
▁ትሞታላችሁ	-11.186
▁ቶማስ	-11.186
▁በአለቆች	-11.186
▁ወገኖቹ	-11.186
▁ያለዚያ	-11.186
▁በዳርዮስ	-11.186
▁ከጠላቶቻቸው	-11.186
▁የቍጣው	-11.186
▁አድርጊ	-11.186
▁የሁለቱ	-11.186
▁በጭንቅ	-11.186
▁ድፍረት	-11.186
▁በትከሻ	-11.186
▁የልጁን	-11.186
▁ለመርዳት	-11.186
▁ኰብል	-11.186
ፋቁሔ	-11.186
▁አነገሠ	-11.186
▁ይቆማሉ	-11.186
▁አጥንቶች	-11.186
▁ንገሥ	-11.186
▁ሚልካ	-11.186
▁አቆማቸው	-11.186
▁እድናለሁ	-11.186
ቅርጫት	-11.186
▁ሠርተናል	-11.186
▁የልቅሶ	-11.186
ታናናሾች	-11.186
▁ለክፋት	-11.186
▁ስደተኛ	-11.186
▁አብዩድ	-11.186
▁ትሰጣለህ	-11.186
▁አይጠቅምም	-11.186
▁ጦብያ	-11.186
ማክማስ	-11.186
▁ይሸሻሉ	-11.186
▁የሴይር	-11.186
▁አግብተ	-11.186
▁ይቀበላሉ	-11.186
▁ተለውጦ	-11.186
▁ይለምኑ	-11.186
▁በጭፍራ	-11.186
▁በገመድ	-11.186
አስተዋዮች	-11.186
▁ያደረግኸው	-11.186
▁ተጣጣሉ	-11.186
▁ጊደር	-11.186
▁ግያዝ	-11.186
▁ማጭድ	-11.1861
አሽክላ	-11.1861
▁ለመብላት	-11.1861
▁ሚስቴ	-11.1861
▁ይሰጣቸዋል	-11.1861
መግዛት	-11.1861
▁መስጠት	-11.1861
▁አስተዋልሁ	-11.1861
አድባር	-11.1861
▁ቀንዶቹ	-11.1862
▁በበታቹ	-11.1862
▁ፈወሰ	-11.1863
ቈርጠው	-11.1864
ተፈተነ	-11.1864
አቤሮን	-11.1865
ወሰዳቸው	-11.1866
ዔቦር	-11.1867
▁ፈለግሁ	-11.1868
ፈወሱ	-11.1869
ጠነቀቅ	-11.1874
ደከምሁ	-11.1878
ይዒኤል	-11.1882
ምትሄድበት	-11.1883
ሳደዳቸው	-11.1884
ሰኛቸው	-11.1887
ሰውነታችን	-11.1894
▁ልባሞ	-11.1902
ተማረኩት	-11.1979
ቅድስናው	-11.203
አገሬ	-11.2069
ራቁትነት	-11.2088
በሬዎቹ	-11.213
ብዙዎች	-11.2168
ማደሪያህ	-11.2225
▁በየጊዜ	-11.2238
ነፍሴ	-11.2246
ላየሁ	-11.226
ያፈስሱ	-11.226
▁ኪዳኑ	-11.2283
እናንት	-11.2519
ኢያቡሳዊው	-11.2531
▁ከአባቶቻች	-11.2539
አንገትህ	-11.2541
ጴጥሮስ	-11.2674
ዘካርያስ	-11.2676
ከዋክብት	-11.2676
ዕረፍት	-11.2676
መድኃኒት	-11.2677
ፍጻሜ	-11.2677
በለዓም	-11.2677
ማገልገል	-11.2818
▁በሽማግሌ	-11.2836
ሚነጻው	-11.2837
አረጀ	-11.2851
ትሰግዱ	-11.2857
ሰለጰዓድ	-11.286
ሶፎንያስ	-11.286
ትእዛዛቱ	-11.286
አቸዋላችሁ	-11.286
ኺ	-11.286
ያስፈልጋችሁ	-11.286
ጃንደረቦቹ	-11.286
ጌድሶናውያን	-11.286
▁ለኤፍሬም	-11.286
▁መለያየት	-11.286
▁መማፀኛ	-11.286
▁ቅርንጫፎቹ	-11.286
▁ቅርፊት	-11.286
▁በሊባኖስ	-11.286
▁በመልእክ	-11.286
▁በመካከሉ	-11.286
▁በሥርዓት	-11.286
▁በኣሊምን	-11.286
▁በከተሞች	-11.286
▁በዓመፅ	-11.286
▁በጣዖቶቻቸው	-11.286
▁ታላላቆቹ	-11.286
▁ንጹሑን	-11.286
▁አመንዝረ	-11.286
▁አስወግዱ	-11.286
▁አንቀላፍ	-11.286
▁አንጐራጐሩ	-11.286
▁አደረጋቸው፤	-11.286
▁እጮኻለሁ	-11.286
▁ከሕዝቤ	-11.286
▁ከቅዱሳን	-11.286
▁ከይስሐቅ	-11.286
▁ከድንኳኑ	-11.286
▁ከጕድጓድ	-11.286
▁ከፊተኛው	-11.286
▁ዛብሄል	-11.286
▁የመጀመሪያ	-11.286
▁የሚሸከሙ	-11.286
▁የአባቶቻችን	-11.286
▁የዮርዳኖስ	-11.286
▁ይባረካሉ	-11.286
▁ይንቀጠቀጣሉ	-11.286
*	-11.5221
1	-11.5221
ፆ	-11.5221
v	-11.6649
ዉ	-11.7863
ዠ	-11.8309
ኹ	-11.8315
"	-11.8316
l	-11.8316
ፐ	-11.8316
ፓ	-11.8316
s	-12.0316
2	-12.0316
D	-12.2816
o	-12.6149
3	-12.6149
]	-12.6149
ፄ	-12.6149
ጰ	-12.615
5	-13.1149
A	-13.1149
ቊ	-13.1149
)	-13.1149
-	-13.1149
ፂ	-13.1149
ዷ	-13.115
e	-13.115
(	-14.1127
ፒ	-14.1128
ፑ	-14.1129
[	-14.113
ሷ	-14.1131
d	-14.1132
T	-14.1133
ፔ	-14.1134
k	-14.1135
ኾ	-14.1136
r	-14.1137
ኄ	-14.1138
g	-14.1139
K	-14.114
ዡ	-14.1141
ዦ	-14.1142
ኡ	-14.1143
W	-14.1144
ፁ	-14.1145
ዐ	-14.1146
ኘ	-14.1147
ኵ	-14.1148
ኅ	-14.1149
ኟ	-14.1149
0	-14.1149
4	-14.1149
@	-14.1149
m	-14.1149
u	-14.1149
ሏ	-14.1149
ቷ	-14.1149
ቿ	-14.1149
ኗ	-14.1149
ኲ	-14.1149
ኼ	-14.1149
ጒ	-14.1149
ጧ	-14.1149
ፏ	-14.1149
b	-14.115
ኞ	-14.115
