<pad>	0
</s>	0
<unk>	0
in	-0
an	-1
en	-2
▁s	-3
▁k	-4
ta	-5
▁j	-6
ll	-7
än	-8
is	-9
▁h	-10
▁m	-11
▁o	-12
▁t	-13
▁p	-14
▁ja	-15
va	-16
et	-17
ka	-18
tä	-19
un	-20
si	-21
ei	-22
sa	-23
el	-24
ut	-25
▁n	-26
▁J	-27
▁hän	-28
lle	-29
er	-30
as	-31
oi	-32
▁v	-33
ra	-34
▁ol	-35
▁l	-36
al	-37
on	-38
es	-39
ik	-40
▁ka	-41
▁min	-42
iin	-43
aa	-44
vat	-45
it	-46
▁va	-47
▁H	-48
▁jo	-49
uu	-50
▁on	-51
uo	-52
ät	-53
ti	-54
at	-55
▁si	-56
sä	-57
▁sin	-58
uk	-59
▁S	-60
ul	-61
ää	-62
ki	-63
▁san	-64
llä	-65
ko	-66
mm	-67
▁Ja	-68
▁Her	-69
▁te	-70
▁M	-71
us	-72
il	-73
utta	-74
aan	-75
um	-76
yt	-77
uh	-78
eid	-79
lla	-80
▁oli	-81
▁a	-82
te	-83
▁et	-84
▁ko	-85
▁ta	-86
se	-87
▁kun	-88
▁"	-89
ksi	-90
ist	-91
▁minä	-92
▁Herra	-93
ja	-94
▁niin	-95
▁se	-96
▁mi	-97
ansa	-98
vät	-99
▁kaik	-100
▁he	-101
▁hänen	-102
▁ei	-103
umal	-104
eidän	-105
isi	-106
▁y	-107
ista	-108
▁r	-109
ne	-110
▁vi	-111
uin	-112
hd	-113
ke	-114
äm	-115
oo	-116
im	-117
kä	-118
▁K	-119
▁tul	-120
sta	-121
▁pa	-122
▁joka	-123
ur	-124
sen	-125
kaa	-126
▁Jumal	-127
ot	-128
een	-129
▁N	-130
ten	-131
ään	-132
▁sen	-133
▁sy	-134
mme	-135
▁po	-136
iv	-137
em	-138
▁sanoi	-139
▁A	-140
äh	-141
▁että	-142
tu	-143
▁an	-144
to	-145
▁minun	-146
▁sinun	-147
asta	-148
▁kä	-149
elle	-150
ih	-151
▁as	-152
id	-153
kö	-154
kaan	-155
ran	-156
▁E	-157
taa	-158
▁kunin	-159
▁Si	-160
▁kaikki	-161
kin	-162
ty	-163
eli	-164
oit	-165
▁pal	-166
äl	-167
▁ole	-168
▁hei	-169
pp	-170
▁kan	-171
▁la	-172
▁e	-173
oin	-174
ua	-175
ri	-176
▁I	-177
▁Mutta	-178
eh	-179
▁nä	-180
tan	-181
ma	-182
ee	-183
tka	-184
▁en	-185
▁pä	-186
▁ra	-187
itä	-188
uol	-189
▁sa	-190
▁jotka	-191
ssa	-192
eet	-193
▁vasta	-194
▁sinä	-195
▁ki	-196
elin	-197
▁sillä	-198
des	-199
iset	-200
mi	-201
".	-202
▁heidän	-203
inen	-204
▁kuu	-205
▁läh	-206
▁val	-207
▁Herran	-208
eni	-209
inä	-210
istä	-211
ulle	-212
▁puh	-213
ämä	-214
koon	-215
yö	-216
▁pää	-217
assa	-218
▁tä	-219
▁Is	-220
▁ovat	-221
ui	-222
up	-223
▁ne	-224
ani	-225
kuin	-226
▁päiv	-227
▁Niin	-228
▁poi	-229
isen	-230
ar	-231
▁kuin	-232
kää	-233
so	-234
ys	-235
▁Isra	-236
la	-237
elä	-238
▁saa	-239
▁mutta	-240
jan	-241
vä	-242
ky	-243
os	-244
ila	-245
ille	-246
yh	-247
."	-248
hden	-249
▁Jumala	-250
▁mitä	-251
▁ni	-252
elj	-253
▁maa	-254
▁tuli	-255
▁T	-256
▁to	-257
den	-258
itse	-259
▁ti	-260
▁is	-261
▁olen	-262
▁vuo	-263
ensä	-264
änsä	-265
uksen	-266
▁tei	-267
▁niinkuin	-268
▁yl	-269
nyt	-270
taan	-271
▁van	-272
ia	-273
▁ma	-274
▁hänelle	-275
ellä	-276
▁mu	-277
lm	-278
ksen	-279
▁syn	-280
▁P	-281
▁ha	-282
maan	-283
issa	-284
▁palv	-285
rj	-286
▁olet	-287
▁B	-288
▁Sillä	-289
▁al	-290
isten	-291
▁sano	-292
iksi	-293
▁D	-294
▁olivat	-295
eidät	-296
▁kansa	-297
mmen	-298
▁suu	-299
▁jon	-300
▁il	-301
▁tai	-302
▁teidän	-303
tanut	-304
tta	-305
▁hänet	-306
▁ku	-307
▁vastaan	-308
han	-309
esi	-310
▁so	-311
kse	-312
▁kuning	-313
ha	-314
pä	-315
änä	-316
usta	-317
pa	-318
upun	-319
▁tuo	-320
▁Jumalan	-321
yy	-322
ees	-323
llut	-324
▁häntä	-325
lloin	-326
ön	-327
▁hä	-328
ks	-329
ensa	-330
▁kat	-331
▁Israelin	-332
▁käs	-333
▁hy	-334
▁ih	-335
▁no	-336
▁men	-337
ett	-338
essa	-339
▁kaupun	-340
ska	-341
rin	-342
▁heille	-343
▁jonka	-344
▁kul	-345
▁sitä	-346
ken	-347
uud	-348
aav	-349
eit	-350
▁luo	-351
▁teh	-352
itten	-353
jat	-354
estä	-355
▁Hän	-356
▁kuul	-357
▁kuningas	-358
vi	-359
▁jäl	-360
▁nim	-361
ea	-362
▁Jer	-363
ella	-364
äs	-365
ed	-366
▁poika	-367
▁Joo	-368
unn	-369
issä	-370
▁pel	-371
tin	-372
▁maan	-373
▁`	-374
yös	-375
▁ar	-376
▁mieh	-377
aavid	-378
▁palveli	-379
▁sanoo	-380
kka	-381
▁Daavid	-382
▁kans	-383
▁voi	-384
▁eivät	-385
▁ihm	-386
▁kanssa	-387
van	-388
▁eikä	-389
▁edes	-390
▁ann	-391
▁per	-392
▁ot	-393
▁äl	-394
jen	-395
esta	-396
▁tämä	-397
▁vih	-398
eksi	-399
▁Moo	-400
▁jos	-401
▁me	-402
etta	-403
▁minulle	-404
nä	-405
uun	-406
▁itse	-407
▁koko	-408
▁ty	-409
▁pois	-410
▁heidät	-411
▁var	-412
▁meidän	-413
uon	-414
▁lei	-415
▁minua	-416
▁Sa	-417
▁Jees	-418
sal	-419
atta	-420
▁V	-421
ettu	-422
iden	-423
▁ky	-424
kan	-425
▁päivänä	-426
yttä	-427
ämän	-428
▁vanh	-429
ud	-430
▁Kun	-431
essä	-432
▁vaan	-433
▁pyh	-434
oa	-435
eb	-436
▁puol	-437
kymmen	-438
äni	-439
köön	-440
ab	-441
▁kuol	-442
sivat	-443
toi	-444
unut	-445
▁us	-446
▁Juud	-447
hin	-448
uks	-449
man	-450
uut	-451
isa	-452
esti	-453
▁kor	-454
ina	-455
▁-	-456
▁suk	-457
ala	-458
▁Jo	-459
neet	-460
mmä	-461
▁kas	-462
▁pol	-463
▁muu	-464
eltä	-465
▁velj	-466
ikä	-467
▁Minä	-468
▁G	-469
ura	-470
mo	-471
▁myös	-472
ro	-473
yp	-474
▁kolm	-475
▁teille	-476
▁kuninkaan	-477
?"	-478
▁sinua	-479
oita	-480
ita	-481
äär	-482
ir	-483
isia	-484
etti	-485
▁oik	-486
min	-487
▁kes	-488
usal	-489
▁syd	-490
▁ver	-491
▁syö	-492
▁ri	-493
▁kaksi	-494
ell	-495
▁meni	-496
usalem	-497
▁heitä	-498
▁Jerusalem	-499
▁uh	-500
ku	-501
vit	-502
▁sinulle	-503
▁li	-504
▁Silloin	-505
jo	-506
ian	-507
▁vaim	-508
▁er	-509
että	-510
mpp	-511
isin	-512
vo	-513
▁O	-514
▁edessä	-515
mat	-516
nut	-517
änyt	-518
isesti	-519
▁koh	-520
▁minut	-521
ivät	-522
▁kät	-523
▁katso	-524
▁taiva	-525
▁jumal	-526
män	-527
atso	-528
▁vä	-529
▁toi	-530
gyp	-531
▁suur	-532
na	-533
▁mei	-534
▁R	-535
▁ker	-536
tähden	-537
▁tämän	-538
▁hen	-539
Äl	-540
rist	-541
▁ett	-542
▁tykö	-543
iä	-544
tiin	-545
▁tule	-546
▁siitä	-547
▁tuh	-548
ulla	-549
▁L	-550
▁tempp	-551
▁kirj	-552
▁sydäm	-553
▁el	-554
onsa	-555
▁tulee	-556
▁näin	-557
kun	-558
eitse	-559
▁mukaan	-560
pi	-561
ast	-562
▁teki	-563
▁nyt	-564
elila	-565
▁ilm	-566
▁silm	-567
▁pan	-568
▁valta	-569
ele	-570
▁tiet	-571
stä	-572
▁teke	-573
urska	-574
▁vielä	-575
una	-576
▁kaupung	-577
▁asti	-578
▁vastasi	-579
ika	-580
ihen	-581
▁f	-582
uv	-583
tui	-584
▁mies	-585
tivat	-586
▁kunn	-587
pe	-588
▁her	-589
▁seitse	-590
raelila	-591
▁kaiken	-592
▁seura	-593
▁israelila	-594
kymmentä	-595
▁Sen	-596
▁mikä	-597
kia	-598
onin	-599
änne	-600
äin	-601
▁Egyp	-602
▁lähti	-603
▁tähden	-604
▁maahan	-605
▁pah	-606
uksi	-607
▁Juudan	-608
uka	-609
▁yh	-610
li	-611
▁sekä	-612
yn	-613
ikka	-614
▁sanoen	-615
tö	-616
kään	-617
ukse	-618
▁usko	-619
nen	-620
▁oike	-621
▁na	-622
▁käsi	-623
▁lo	-624
▁juo	-625
▁ettei	-626
▁siihen	-627
▁kar	-628
▁jälk	-629
▁nelj	-630
lleen	-631
▁antoi	-632
kea	-633
▁lap	-634
oon	-635
▁sinut	-636
▁op	-637
▁tah	-638
mpä	-639
mieh	-640
▁jälkelä	-641
▁le	-642
▁hyv	-643
mään	-644
st	-645
llis	-646
lta	-647
esty	-648
▁tehnyt	-649
uden	-650
▁niiden	-651
kseen	-652
▁sanoivat	-653
▁jä	-654
▁tur	-655
ppi	-656
▁ul	-657
ette	-658
uts	-659
▁seitsemän	-660
▁kuninkaa	-661
vaa	-662
▁mer	-663
tte	-664
▁esi	-665
re	-666
▁olkoon	-667
da	-668
▁sota	-669
▁käsky	-670
▁Krist	-671
▁ollut	-672
▁sanon	-673
▁kir	-674
▁sitten	-675
▁tal	-676
▁Jaa	-677
tää	-678
rof	-679
▁käy	-680
▁tar	-681
▁kuts	-682
▁palj	-683
▁siellä	-684
ysy	-685
▁kautta	-686
▁sur	-687
▁Jeesus	-688
▁olette	-689
▁Ka	-690
▁Äl	-691
▁vir	-692
▁eteen	-693
itta	-694
uuta	-695
pää	-696
▁tu	-697
▁kään	-698
▁vanhurska	-699
▁enää	-700
▁Ab	-701
▁ho	-702
▁Herraa	-703
▁He	-704
▁kuk	-705
uudes	-706
tom	-707
▁it	-708
anne	-709
▁prof	-710
▁ist	-711
▁raken	-712
▁sis	-713
▁jota	-714
▁Sitten	-715
alta	-716
▁Jos	-717
▁jal	-718
▁ympä	-719
▁poik	-720
▁koska	-721
▁niitä	-722
▁synti	-723
▁tot	-724
▁teitä	-725
emm	-726
ikk	-727
▁nämä	-728
uvat	-729
▁kuo	-730
▁ruk	-731
▁kansan	-732
▁Katso	-733
jä	-734
asti	-735
iinä	-736
enne	-737
maa	-738
▁täh	-739
kunn	-740
▁pojan	-741
usi	-742
▁viin	-743
▁siis	-744
ettiin	-745
tyi	-746
▁Moos	-747
▁palvelija	-748
▁elä	-749
▁polt	-750
oista	-751
▁Herralle	-752
▁pit	-753
▁jouk	-754
▁tied	-755
▁olisi	-756
▁mitään	-757
aab	-758
ol	-759
ossa	-760
uivat	-761
▁tapa	-762
▁kirjoit	-763
ana	-764
uul	-765
▁antaa	-766
etty	-767
osta	-768
oinen	-769
▁siinä	-770
▁Israel	-771
isiä	-772
iste	-773
▁tullut	-774
▁oleva	-775
▁ä	-776
tel	-777
▁mie	-778
▁vai	-779
▁por	-780
▁Daavidin	-781
lj	-782
▁ette	-783
hdä	-784
▁nuo	-785
▁miel	-786
▁ik	-787
oja	-788
keli	-789
▁kiv	-790
▁ään	-791
▁Saul	-792
uus	-793
▁las	-794
▁tun	-795
▁hävit	-796
▁maassa	-797
▁hal	-798
isille	-799
jaa	-800
▁El	-801
elta	-802
kob	-803
▁näki	-804
▁antanut	-805
emaan	-806
hde	-807
▁oma	-808
ilä	-809
inun	-810
▁hall	-811
▁nous	-812
▁voit	-813
▁Jaakob	-814
inn	-815
▁annan	-816
mp	-817
▁Seb	-818
▁pitä	-819
▁yli	-820
▁pappi	-821
▁vuor	-822
do	-823
lleet	-824
teen	-825
▁kolme	-826
▁älä	-827
▁Mooses	-828
itte	-829
▁joi	-830
▁Sentähden	-831
öy	-832
aat	-833
keen	-834
tänyt	-835
▁tulivat	-836
äsi	-837
▁pyhä	-838
▁sukuk	-839
▁suuri	-840
▁altta	-841
ssä	-842
yty	-843
▁Moose	-844
iten	-845
▁lih	-846
koot	-847
▁opet	-848
▁palvelij	-849
lap	-850
▁jout	-851
kkaa	-852
Minä	-853
▁lähetti	-854
▁otti	-855
dan	-856
▁tod	-857
▁pil	-858
▁ruu	-859
▁aina	-860
▁liit	-861
▁ennen	-862
`.	-863
▁Sinä	-864
ksensa	-865
mis	-866
▁olemme	-867
kon	-868
uuden	-869
taneet	-870
or	-871
▁sana	-872
sansa	-873
▁ian	-874
▁ianka	-875
ien	-876
▁pääll	-877
▁profeet	-878
▁Se	-879
▁ruo	-880
ime	-881
▁vain	-882
puol	-883
elm	-884
▁pala	-885
▁silloin	-886
▁aa	-887
eita	-888
urin	-889
▁mur	-890
ltä	-891
▁huo	-892
eev	-893
sin	-894
tti	-895
▁yksi	-896
▁tapah	-897
ästä	-898
▁raka	-899
▁Aar	-900
▁vaimo	-901
▁kuinka	-902
▁Näin	-903
uta	-904
kiin	-905
mmär	-906
▁siel	-907
ittä	-908
ust	-909
toista	-910
▁tyttä	-911
▁Egyptin	-912
uhtin	-913
uksessa	-914
ivat	-915
▁ain	-916
alla	-917
▁jul	-918
▁puhui	-919
▁ai	-920
atte	-921
▁sinne	-922
▁kaikkien	-923
ni	-924
▁	-925
a	-926
i	-927
n	-928
e	-929
t	-930
s	-931
l	-932
ä	-933
k	-934
u	-935
o	-936
m	-937
h	-938
v	-939
r	-940
j	-941
,	-942
p	-943
y	-944
.	-945
d	-946
J	-947
H	-948
"	-949
ö	-950
S	-951
:	-952
M	-953
;	-954
K	-955
b	-956
g	-957
N	-958
A	-959
E	-960
I	-961
?	-962
f	-963
T	-964
`	-965
-	-966
P	-967
B	-968
D	-969
V	-970
!	-971
O	-972
G	-973
R	-974
L	-975
Ä	-976
U	-977
Y	-978
F	-979
1	-980
[	-981
]	-982
3	-983
2	-984
4	-985
9	-986
0	-987
5	-988
(	-989
)	-990
8	-991
6	-992
7	-993
Ö	-994
Z	-995
/	-996
