<pad>	0
</s>	0
<unk>	0
¦	-1.37924
▁¦	-1.5676
▁,	-3.57494
▁	-3.80697
𐊣	-4.15528
𐊼	-4.15528
ꭲ	-4.19324
ꭰꮄ	-4.26199
▁.	-4.29728
ꮓ	-4.50035
ꮎꮝꭹ	-4.50224
▁;	-4.6908
ꭹ	-4.87758
ꮧ	-4.97072
ᏹ	-5.17911
ꭿꭰ	-5.18524
ꮎ	-5.23872
ꭸꮢ	-5.26357
ꭿ	-5.33643
ꭴ	-5.33767
ꭰ	-5.4579
ꭶ	-5.47823
ꮵ	-5.54726
ꮫ	-5.55906
ꭽ	-5.60032
ꮒ	-5.67801
ꮣ	-5.69367
ꮕ	-5.75579
ꭵꮭ	-5.7743
ꭸꮢꭲ	-5.79902
ᏸꮓ	-5.81726
ꮙ	-5.85038
ꮅ	-5.88733
ꮳ	-5.93543
ꭴꮑꮃꮕꭿ	-5.95227
ꭼ	-6.1095
ꮈ	-6.20094
ꮻ	-6.21151
ꮝꮧ	-6.22051
ꮷ	-6.24494
ꮪ	-6.25073
ꮥ	-6.25587
ꮿ	-6.26134
ᏻ	-6.2656
ᏼ	-6.27474
ꮟ	-6.28285
▁?	-6.3067
ꭸꮞꮝꮧ	-6.31588
ꮑ	-6.33701
ꭸ	-6.36923
ꭰꮞ	-6.39254
ᏼꮻ	-6.40635
ꮵꮜ	-6.4277
ꭹꮆ	-6.4326
ᏺ	-6.43892
ꮩ	-6.44194
ꮎꮝꮙ	-6.4502
ꮝꭹꮒ	-6.46423
ꮎꮝꭹꮿ	-6.46566
ꭰᏼ	-6.47751
ꭴꮒ	-6.48373
ꮧᏹ	-6.49315
ꮄ	-6.50311
ꭼꮹ	-6.50359
ꮏꮙ	-6.5246
ꮝꭹ	-6.53741
ꮢ	-6.56005
-	-6.56958
ꭺ	-6.58583
ꮒꭿ	-6.58692
ꮵꭹ	-6.59417
ꮒꭸꮢꮎ	-6.59967
ꭴꭼꮻᏻꭿ	-6.60542
ꮞ	-6.60898
ꭵ	-6.62264
ꭰꮒ	-6.63469
ꭲᏻꮝꮧ	-6.63826
ꮃ	-6.64249
ꭱ	-6.65986
ꮴ	-6.67073
ꮎꮏ	-6.75622
ꭲᏻ	-6.77103
ꭶꮆꮑꮫ	-6.77141
ꮝꭺ	-6.78891
ꮹ	-6.79024
ᏸ	-6.83963
ᏹꭹ	-6.84239
ꮂ	-6.85365
ꮨ	-6.85501
ꭾ	-6.85757
ꮝꮣ	-6.89642
ꮤ	-6.8984
ꭺꮁꮝꮧ	-6.90359
ꭶꮩ	-6.91242
ꮒꭶꮫ	-6.91489
ꮔ	-6.92156
ꭴꮎ	-6.93997
ꮸ	-6.95833
ꭲꭶ	-6.96271
ꭲꮵ	-6.99483
ꭳꮝꮫ	-7.00099
ꭾꮝꮧ	-7.0183
ꮼ	-7.02147
ꮲ	-7.05929
ꮶ	-7.05946
ꭲᏻꮓ	-7.06192
ꮆ	-7.0991
ꭰꭹ	-7.11585
ꮝꮧᏹ	-7.13881
ꮮꮝꮧ	-7.13988
ꭳ	-7.1572
ꮎꮝꭹꮓ	-7.1683
ꮝꭶ	-7.19597
ꭴꮺꮵ	-7.20199
ꭱꮆꭿ	-7.20629
ꮇ	-7.22085
ꮝꭸꮝꮧ	-7.23191
ꭴᏺ	-7.23298
ꮝꮫ	-7.24312
ꮈꭹ	-7.24467
ꮒꭶꭵ	-7.26969
ꮪꮒ	-7.30032
ꭴꮳꮨ	-7.32394
ꭴꮹꮢ	-7.33667
ꮕꭹ	-7.33753
ꭸꮝꮧ	-7.34284
ꮺ	-7.36814
ꭺꭿ	-7.37479
ꭼꮒꭸꮢ	-7.38003
ꮔꮺꮞ	-7.38015
ꭰꮵꮈ	-7.39968
ꮔꮝꮫ	-7.40646
ꭰꮣꮕꮩ	-7.40941
ꮑꭲ	-7.42245
ꭷꮓꭾꮫ	-7.42561
ꭸꮞ	-7.43219
ꭶꮈꮙꮧᏻ	-7.44254
ꮖ	-7.44335
ꭶꮈꮃꮧ	-7.45856
ꮕꭿ	-7.45959
ᏸꮅ	-7.46714
ꮤꮕꭿ	-7.47405
ꮄꭲ	-7.4747
ꮢꭹ	-7.47902
ꮎꭿᏻ	-7.47955
ꭱꭿ	-7.4854
ꮈꭿ	-7.49328
ꮂꭲ	-7.49666
ꭸꮵ	-7.4993
ꭳꮟᏻ	-7.50402
ꮜ	-7.50416
ꮧꭷꮏꮹꮫꮝꮧ	-7.50458
ꭿꭰꮓ	-7.5137
ꭲᏼꮫ	-7.51864
ꭷ	-7.52391
ꭲꮳ	-7.53716
ꮠ	-7.54177
ꭴꮯ	-7.56617
ꭲᏻꮅꮝꮩꮧ	-7.58261
ꮎꮒꭵ	-7.5828
ꭰꮝꭶꮿ	-7.59074
ꭴꮺ	-7.59128
ꮽ	-7.59221
ꭰꮖ	-7.59903
ꮑꮈ	-7.5992
ꮡ	-7.61782
ꭰꮵ	-7.61864
ꮀ	-7.62444
ꭲꮸ	-7.64464
ꭴꮴꮅꭶ	-7.65828
ꮩꮧ	-7.6784
ꮝꭼꭲ	-7.68639
ꮝꮪ	-7.68961
ꭴꮣ	-7.6925
ꮩꮣ	-7.70336
ꭴꮴꮅ	-7.71179
ꭼꮒᏻꮙ	-7.71428
ꭰꮣ	-7.71598
ꭴꮑ	-7.72697
ꮝꮤꮕ	-7.72727
ꮣꮒ	-7.73555
ꭿᏻ	-7.73628
ꮷꮒ	-7.75154
ꮔꮺꮢ	-7.76405
ꭶꮅ	-7.76611
ᏸꮈ	-7.76692
ꮕꮣ	-7.77386
ꮵꮜꮓ	-7.78343
ꮜꮙ	-7.78806
ꮧꮒ	-7.79105
ꮦ	-7.79451
ꮪᏻꭺꮫ	-7.79706
ꭱꮵ	-7.80387
ꭻ	-7.80402
ꮷꮎ	-7.80732
ꭰꮎ	-7.81419
ꮹꮫ	-7.82104
[	-7.82628
ꮯ	-7.82917
ꮰ	-7.83316
ꮥꮵ	-7.83823
ꮧꭶ	-7.84259
ꭴꮒꮳꮨ	-7.8513
ꮩꮧᏹ	-7.86433
ꮑꮄ	-7.87389
ꮣꮕ	-7.89096
ꮑꮈꭿ	-7.89638
ꮝ	-7.897
ꭰꮑꭿ	-7.89895
ꮒꮪꮺꮞꮄ	-7.90325
ꮔꮺꮞꮄ	-7.91201
ꭲꭹ	-7.91296
ꮝꭼ	-7.92079
ꭴꮅ	-7.92102
ꮤꮅꮑ	-7.9215
ꭰꮒꮷꮟ	-7.93054
ꭼꭹ	-7.93098
ꮑꮧᏹ	-7.93151
ꮙꮃ	-7.93523
ꮤꮕ	-7.93559
ꭳꭹ	-7.94575
ꮷꮣꮄꮕꮫ	-7.94745
ꮳꮒ	-7.94802
ꭼꮹꮝꮣꮹꮧꮩꭿ	-7.95293
ꮤꮑ	-7.96622
ꮑꮅ	-7.9729
ꮝꮖ	-7.97808
ꭴꭼꮹꮅ	-7.9809
ꮈꮻꮝꮣꮑ	-8.00237
ꭴꮑꮸ	-8.00507
ꮂꭹ	-8.007
ꮝꮩꮧ	-8.01292
ꮝꭸ	-8.02178
ꮵꭺ	-8.02401
ꮪꮅ	-8.02826
ꭶꮪꮂ	-8.0284
ꮘꮣ	-8.02863
ꭶꮨ	-8.02891
ꮩꭿ	-8.04585
ꭶꮪ	-8.05223
ꭶꭺ	-8.05309
ꮥꭶ	-8.05361
ꮧꭽ	-8.05663
ꮧꮵ	-8.06058
ꮺꮞ	-8.07142
ꭺꭿᏻꮧ	-8.07153
ꮧꮳ	-8.07977
ꮪꮎ	-8.08215
ꮒꭺꭿꮈ	-8.08402
ꭰꮉ	-8.08749
ꭸꮳ	-8.09056
ꮸꭿ	-8.10347
ꮈꭲ	-8.10695
ꮔꭺ	-8.10823
ꮏ	-8.11421
ꮕꮧꭶꮅꮝꮩꮧꭽ	-8.11693
ꭴꮩꭿᏻꭿꮿ	-8.11779
ꮵꭶꮤꭽ	-8.11836
ꭰꮟ	-8.12528
ꭺꭲ	-8.13086
ꮒꮪꮺꮞꮈ	-8.13646
ꮘ	-8.14185
ꮭꮝꭺ	-8.14285
ꮝꭸꭲ	-8.14335
ꮩꮅ	-8.15679
ꮧꭶꮃꮻꭲꮝꮧᏹ	-8.15684
ꭲꮷꮃꭽ	-8.16476
ꮑꭽ	-8.16776
ꮧꮝꭹ	-8.17767
ꮎꭵ	-8.1794
ꮵꮇꮟꮅꮋ	-8.18472
ꭲꭼᏹ	-8.18669
ꭴꮕꮢ	-8.18866
ꭼꮒ	-8.20011
ꭴꮼ	-8.2019
ꮤꮒ	-8.2021
ꮣꮄ	-8.20489
ꮅꮝꮣ	-8.20667
ꭼꭲ	-8.21093
ꮤꮅ	-8.21208
ꮫꭹ	-8.21368
ꭼꮒꮫ	-8.21745
ꭴꮎꮣ	-8.22035
ꮕꮞ	-8.22149
ꮣꮒꮈ	-8.22248
ꮳꭼꮻᏻꭿ	-8.22805
ꭰᏸꮈ	-8.22954
ꭰꮑ	-8.22983
ꮢꭿ	-8.23102
ꭱꮝꭶ	-8.23161
ᏺꭿ	-8.23626
▁]	-8.23882
ꭰꭸᏼ	-8.24297
ꭱꮳ	-8.24324
ꮀꭲ	-8.24414
ꭲꭶꮫ	-8.24858
ꮭ	-8.25475
ꮕꮹꮣꮄ	-8.25802
ꮢꭲ	-8.25874
ꭰꮥꮈ	-8.26571
ꮝꮩꮧᏹ	-8.26965
ꮉ	-8.27677
ꭰᏸꮅ	-8.27874
ꭳꭶ	-8.27932
ꮔꮅꮝꮤꮕ	-8.2811
ꮝꮩ	-8.28415
ꭲꮿꮒ	-8.28776
ꮝꮥ	-8.29387
ꮋ	-8.30793
ꭴꮣꮩꮅꮝꮧ	-8.31298
ꭲꮴ	-8.31786
ꮗ	-8.31877
ꮒꭶꮧᏻ	-8.32079
ꮒꭶ	-8.32189
ꭼꮧ	-8.32411
ꮔꮼ	-8.32536
ꭷꮑ	-8.3274
ꮂꮎ	-8.32868
ꮥꮳ	-8.33105
ꮒꭼ	-8.33161
ꭱꮅ	-8.33174
ꭴꮝꮧ	-8.33654
ꮷꮺꮵ	-8.33879
ꭿꮝꮧ	-8.34146
ꮷꮎꮣꮄꮕꮫ	-8.34555
ꮧꮝꭼ	-8.35767
ꮑꭿ	-8.36861
ꭳꮒ	-8.37159
ꭺꮂ	-8.37389
ꮝꮤꮑ	-8.37872
ꮣꮣ	-8.37906
ꮕꮫ	-8.39392
ꮝꭼꮎ	-8.39655
ꭰꮻ	-8.40076
ꭿꮝꮧᏹ	-8.40165
ꮔꮺꮞꮈ	-8.40268
ꭰꭶ	-8.40498
ꮧꮝꭸꮝꮧ	-8.40605
ꮷꮩ	-8.4099
ꮵꮿ	-8.41197
ꮮ	-8.41208
ꭶꮫ	-8.42076
ꮒꮸꮺꮞ	-8.43215
ꭶꮤ	-8.43468
ᏹꭸꮞ	-8.44109
ꭵꭹ	-8.44721
ꮴꮅ	-8.44878
ꭲᏻꮹꮒꮜ	-8.45027
ꭰꮟᏼꮻ	-8.45264
ꭴꮕ	-8.4567
ꭼꮹꮒ	-8.4628
ꮷꮑ	-8.46876
ꭼꮹꭶꮨꮿ	-8.46946
ꮱ	-8.47066
ꮽꮒ	-8.47133
ꮑꮈꭹ	-8.47142
ꮫꮎ	-8.47184
ꭰꮑꮂ	-8.47713
ꭴꮩꭿᏻꭿ	-8.47781
ꭹꮃꮙ	-8.47966
ꮙꮝꭹꮒ	-8.48579
ꮤꮕꭹ	-8.48786
ꮑꮧ	-8.49474
ꮕꮟꮣꮝꮧ	-8.49691
ꮔꮒꮺꮞ	-8.49759
ꭰꮟꮙ	-8.50177
ꮷꮎꮑꮆꮧ	-8.50729
ꮳꮣ	-8.50795
ꮣꮎ	-8.51062
ꮞꮝꮧ	-8.51131
ꮅꭾꮅ	-8.51707
ꮶꭲ	-8.51902
ꭼꮎ	-8.52123
ꭲꮫ	-8.52473
ꮷꮴꮅ	-8.52903
ꮝꭼꭹ	-8.53694
ꮒꮳ	-8.53994
ꭶꮈ	-8.54193
ꭸꭶ	-8.54227
ꭲꭶꭲ	-8.54413
ꮂꭶ	-8.54599
ꭴꮗꮣꮅ	-8.54696
ꮔꭼꮻᏻꮢ	-8.54696
ꮧꭷꮏꮹꮧꮩꭿ	-8.54696
ꮣꮅ	-8.54872
ꭲꮳꮣ	-8.55475
ꮔꮒꮺꮢ	-8.55722
ꭷꮏ	-8.55769
ꭴꮇꮸ	-8.57041
ꮧꭶꮈꮻꮝꮣꮑꮧ	-8.57791
ꭴꮅꮒꭹꮫ	-8.57888
ꮑꮂ	-8.5851
ꭲꮣꮅꮕꮯ	-8.58842
ꮓꮕ	-8.58881
ꭶꮣꭽ	-8.59228
ꭲꮧꮲ	-8.59825
ꮣꮩꮅꮝꮣꮑ	-8.59925
ꮴꭲ	-8.60071
ꮆꮧ	-8.60449
ꮥꭹ	-8.60716
ꮑꮆ	-8.60809
ꭹꮆꮓ	-8.6222
ꭺꮺꮅ	-8.62676
ꮒꭺ	-8.62712
ꮕꮿ	-8.6298
ꮠꮕ	-8.63209
ꭲꭶꮴꮅ	-8.63292
ꮵꮩ	-8.63881
ꭲꮝꮧ	-8.64259
ꮧꮣ	-8.64663
ꮧꭼꮹ	-8.64832
ꮾ	-8.65401
ꭶꮅꮙꭹ	-8.65407
ꭴꮪꭹ	-8.65442
ꮔꮅꮝꮤꮑ	-8.66538
ꮠꭲ	-8.66572
ꭴꮝꮖꮒꭺꮧ	-8.66779
ꮶꭿᏻ	-8.66836
ꮕꭲ	-8.67642
ꮕꮹꮩꭿꮿꮫ	-8.67687
ꮷꭼꮹꮆꮧ	-8.67687
ꭴꮥꮅꮫ	-8.67689
ꮔꮎ	-8.67842
ꮵᏸꮈ	-8.67991
ꭱꮩꮣ	-8.68028
ꭸꮠꭲ	-8.68109
ꮕꮧꭶꮅꮝꮩꮧꮝꭸ	-8.68792
ꭺꮺꮃ	-8.68878
ꭲꮿ	-8.69506
ꮑꮀ	-8.69815
ꭰꮒꮝꭶꮿ	-8.70107
ꮫꭶ	-8.719
ᏸꮅꮙ	-8.72049
ᏺꮅ	-8.72631
ꭴꮑꮃꭹ	-8.72719
ꮝꮤꮒ	-8.73295
ꮱꭼ	-8.73342
ꮑꮃꮕꭿ	-8.73481
ꭰꮎꮩꮄꮀꮝꭹ	-8.73641
ꭴꮎꮣꮕꮨ	-8.73642
ꮪꮩꭵ	-8.7365
ꮑꮯᏼ	-8.73697
ꭰꮅ	-8.73784
ꭰꮑꮆ	-8.74098
ꮔꮝꮧ	-8.74468
ꭲꭼᏹᏹ	-8.7463
ꮇꮴ	-8.75337
ꮅꭺ	-8.75393
ꮿꮕ	-8.75434
ꭶꮣ	-8.75766
ꮵꮪ	-8.7591
ꮁ	-8.75913
ꭸꭲ	-8.75975
ꮝꮧꮝꭹ	-8.76098
ꮕꮟꮫ	-8.76103
ꮤꮃꮪ	-8.76233
ꮕꮣᏻꮣꮄꮕ	-8.76258
ꭼꮧꮝꭼ	-8.77058
ꭲꮈꭿᏻ	-8.77411
ꮒꮪ	-8.77516
ꮣᏻ	-8.77522
ᏹꮳ	-8.7861
ꮎꮭꭲ	-8.78798
ꭻᏼ	-8.78881
ꮢꮎ	-8.79119
ꭶꮤꮂ	-8.79786
ꭴꮹ	-8.7998
ꭲꮟꮅ	-8.80024
ꮣꭶ	-8.80099
ꭰꮒꮤꮅ	-8.80216
ꮕꮩ	-8.8034
ꮣꮵ	-8.80483
ꮝꭶꮕꮸ	-8.8066
ꮪꮣ	-8.80696
ꭷꮅ	-8.8082
ꮵꭸꮞ	-8.80881
ꮒꮩ	-8.8107
ꭱꮖꭽꮋ	-8.81288
ꮜꮹꮒ	-8.8129
ꭱꮃꮧ	-8.81301
ꮅꮝꮥꮈꮩꮧ	-8.81304
ᏹꮀꮹ	-8.81595
ᏹꭶ	-8.82035
ꮫꮒ	-8.82058
ꮥꮝꮧ	-8.82151
ꮒꭼꮑ	-8.8261
ꮔꮒꭼꮻᏻꮢ	-8.82621
ꭴꮎꮫꭶꮕ	-8.82626
ꮝꮥꮈ	-8.82722
ꭰꮝꭶꮒ	-8.8398
ꭸꮅꮅ	-8.83982
ꭶꮑꮈ	-8.84714
ꮌꮟ	-8.8537
ꭴꮣꮕ	-8.85523
ꭴꮎꮴꮅꭶ	-8.85631
ꮨꮒꮩ	-8.85881
ꭰꭶꮤꮂ	-8.85914
ꭶꮈꮙꮧ	-8.86064
ꮑꭾꮝꮧ	-8.86271
ꮜꮃ	-8.86512
ꭴꮎꮣꮱꭼ	-8.86763
ꮎꮔꭺꮻꮞ	-8.86775
ꭰꮒꮖꮅꮟ	-8.86776
ꭸꮆꭿ	-8.86862
ꮑꮃ	-8.86869
ꮪꮈ	-8.86917
ꮩꮅꮝꮧ	-8.87314
ꭶꮤꭽ	-8.87797
ꮒꮳꮫꮑ	-8.87887
ꮇꭹ	-8.87915
ꮧꮒꭷꮏꮹꮧꮩꭿ	-8.8814
ꭰꮩꮄꮀꮝꭹ	-8.88173
ꭶᏸ	-8.88601
ꮔꮹ	-8.89511
ꭴꮎꮅ	-8.89683
ꮕꭶꮈ	-8.89916
ꭴꮒᏺ	-8.90111
ꮝꮤꮕꭿ	-8.90629
ꭴꮑꮴ	-8.90998
ꭴꮥ	-8.91233
ꭶꮩꭿ	-8.91432
ꭹꭼ	-8.91596
ꮩꮄ	-8.91615
ꮣꮑꮧ	-8.91793
ꮒꭼꮕ	-8.91978
ꭰᏺꮁꭿꮝꮧ	-8.92491
ꭰꮞꮙ	-8.92619
ꮝꮥꮝꮧ	-8.93305
ꭴꭺꮂ	-8.93526
ꮒꮵ	-8.93578
ꮥᏺꮂꮝꭹ	-8.93969
ꮧꮝꭺ	-8.93974
ꮬ	-8.93981
ꮩꭾ	-8.9402
ꮒꭶꮅꮝꮧ	-8.94051
ꭴꮆ	-8.94219
ꮑꮴꮈ	-8.94468
ꮕꮢꭹ	-8.94717
ꮹꮫꮂ	-8.94806
]	-8.94809
ꭰꮣꮑꮈ	-8.94871
ꭰꮧ	-8.95341
ꮿꮒ	-8.95491
ꮥꮻ	-8.95513
ꮑꮈꭲ	-8.95632
ꮸꭹ	-8.95802
ꭰꭶᏼꮅꭸ	-8.95852
ꭲꮸꮢ	-8.959
ꭷꮑꭼ	-8.95981
ꮻꮵ	-8.96053
ꮥꭿ	-8.96419
ꭷꮕ	-8.96694
ᏺꮞ	-8.9672
ꭴᏺꮁꮢ	-8.96916
ꮒꮵꮺ	-8.96949
ꮊꮅ	-8.97042
ꭺꮺꮈ	-8.97105
ᏹꮵ	-8.97176
"	-8.97208
ꮈꭽ	-8.97209
ꮫꮑꮧ	-8.97263
ꭰꭹꮎ	-8.97395
ꮣꮕꮦꮝꭼ	-8.97507
ꮂꮝꭹ	-8.97867
ꮕꮢ	-8.98013
ꮵꭸꮠ	-8.98105
ꭱꮈ	-8.98217
ꭼꮹꮎ	-8.98457
ꭲᏻꮝꭹꮒ	-8.98498
ꭲꮿꭶᏼꮅ	-8.98597
ꭷꮅꭲ	-8.99239
ꭴꮫꮕ	-9.00137
ꭰꮝꭹꮎ	-9.00211
ꮧꭸ	-9.00342
ꮎꮖ	-9.01137
ꭶᏻꮃ	-9.01806
ꭰꮣꭸᏻꮧ	-9.01818
ꮒꮣ	-9.0201
ꭴꮩꮣ	-9.02029
ꭼꮻᏻ	-9.02053
ꭱꮧ	-9.02304
ꭶꮤꮂꮎ	-9.02512
ꮵꮑ	-9.02655
ᏸꭿ	-9.02888
ꮒꭼꮎꮫ	-9.03443
ꭲᏻꮎꮝꮧ	-9.03447
ꭴꮅꮒꭹꮧᏻ	-9.03529
ꮵꭸꮢ	-9.03675
ꭴꮵ	-9.04019
ꭰꭶᏼꮅꭸꭲ	-9.05099
ꭰꮝꮣꮿ	-9.05111
ꮎꮒ	-9.05264
ꭲꮎꭸ	-9.05426
ꮣꮝꮧᏹ	-9.05489
ꮕꮣᏻ	-9.05893
ꮫꮕꭲꮝ	-9.05983
ꮪꭺ	-9.06623
ꮥꭴ	-9.06793
ꭰꮎꮅꮕꮯ	-9.06798
ꭰꮝꭺꭿ	-9.06812
ꮝꮣꮹꮥ	-9.06813
ꭴꮓꭿᏻ	-9.0682
ꭰꮖꮴꮅ	-9.06895
ꮅꮝꮧ	-9.07027
ꮈꮙꮧ	-9.07038
ꭶꮆꭿꮝꮧᏹ	-9.07125
ꭰꮫ	-9.07203
ꮧꮲ	-9.0721
ꭲꮴꮂ	-9.07375
ꮝꭹꮿ	-9.07527
ꭰꮒꮝꭹꮎ	-9.08532
ꭴꮇꮴ	-9.08551
ꭴꮰᏹ	-9.08912
ꮵꮥ	-9.08937
ꭿꮝꭹ	-9.08994
ꮴꮂ	-9.09048
ꮷꮣ	-9.09693
ꭴꮫ	-9.09971
ꮳꮴꮅ	-9.09971
ꭶꮆ	-9.10124
ꮝꮣꮹꮧꮩꭿ	-9.10126
ꭸꮵꮕꮟꮫ	-9.10356
ꮒꮵꭵ	-9.10452
ꮝꮥꮈꮧ	-9.10819
ꮒꭶꮺ	-9.11229
ꮪꮺ	-9.11497
ꮸꮢ	-9.11771
ꭰꮓꭿᏻꮂꮝꭹ	-9.12063
ꮖꮄꮧ	-9.12076
ꭹꭶꭸ	-9.12287
ꮵᏻꭿ	-9.1251
ꮇꮸ	-9.13118
ꭲꭼꮑ	-9.13704
ꮕꮹꮎꮣꮄ	-9.13881
ꮷꮒᏺꮁꮢꭿ	-9.13881
ꮒꭶꮺꮝꭼ	-9.13988
ꭺꭹ	-9.14197
ꮑꮸ	-9.14271
ꭶꮜ	-9.14536
ꭿꮿ	-9.14612
ꭲꮳꮫ	-9.14941
ꮆꮢ	-9.14998
ꭶᏼꮅꭸ	-9.15298
ꮎꮝꭹꮝꭹꮒ	-9.15527
ꭰꮒꭸᏼ	-9.15737
ꭶᏸꭺꭹ	-9.15749
ꭴꮣꮕꮨ	-9.15881
ꭹꮅᏺꭲꮝꮧ	-9.15889
ꮞꭽ	-9.15904
ꮻꮪ	-9.15985
ꭼꮕ	-9.15993
ꭶꮝꭹꮈ	-9.16186
ꭱꮂ	-9.16208
ꭱꭽ	-9.16433
ꮜꮫ	-9.16455
ꮣꮕꮩ	-9.16624
ꮓꭾꮝꭼ	-9.16871
ꮆꭿ	-9.17066
ꮥꮳꮣ	-9.17167
ꮝꮖꮈ	-9.17183
ꮧꮤꮝ	-9.17209
ꭴꮒꮇꮴ	-9.17357
ꮧꮓꮺꮅꮝꭹ	-9.17619
ꮯꮆꮫ	-9.17627
ꭲꭼᏹꮧꮲ	-9.17652
ꮢꮓᏹ	-9.17706
ꮻꮢ	-9.17746
ꮻꮞ	-9.17794
ꭺꮹꮫꮧᏹ	-9.18097
ꭶꮈꮆꭲ	-9.18432
ꮔꭺꮸ	-9.18709
ꮫꭶꮑ	-9.18993
ꮥꭼ	-9.1918
ꮞꮄ	-9.19223
ꮷꮺ	-9.19298
ꮝꭶꭹ	-9.19386
ꮜꮧ	-9.19396
ꭷꮓꭾ	-9.19402
ꮧꭸꮵ	-9.19414
ꮔꮣꮄꮢ	-9.19543
ꮡᏸꮫ	-9.19544
ꮣꮄꮕꮫ	-9.19549
ꮣꮖ	-9.19565
ᏺꮁꭿ	-9.19602
ꭰꮒꭶꮤꮂ	-9.19749
ꭸꮠ	-9.20641
ᏸꮒ	-9.21157
ꭰꮛꮢ	-9.21503
ꮆꮔꭾ	-9.21516
ꮅꮟ	-9.2156
ꭴꮴꮅꭺꭿ	-9.21793
ꮩꭽ	-9.21821
ᏼꭹ	-9.22231
ꮝꭶꮿ	-9.22391
ꭺꮅ	-9.22813
ꮿꮫ	-9.22934
ᏺꮁꮢ	-9.23028
ꮥꭸ	-9.23091
ꮝꮧꮝꭸꮝꮧ	-9.23195
ꭴꮎꮴꮅ	-9.23244
ꭴꮒᏸꮈ	-9.23246
ꭵꭵ	-9.23309
ꭷꮒ	-9.23386
ꭰꮊꮙꭿ	-9.23503
ꭴꮎꮩꮣꮖꮝꭼ	-9.23504
ꭴꮒꭼꮻᏻꭿ	-9.23504
ꭱꮆꮫ	-9.23507
ꭴꮣꮅꭲ	-9.23538
ꮥꮅ	-9.23653
ꮩꮫ	-9.23739
ꭳꮵ	-9.23916
ꮶꭲꮑ	-9.24055
ꮝꮥꮈꮧᏹ	-9.24388
ꭴᏺꭲᏻ	-9.24396
ꮅꮓꭾ	-9.25264
ꭴᏸꮈꮫ	-9.25552
ꭸꮃ	-9.25569
ꭱꮊ	-9.25585
ꮝꮧꮝꭼ	-9.25796
ꮣꮄꮕ	-9.25851
ꮂꮟ	-9.25852
ꭲꭺꭿ	-9.25863
ꭰꮵꮈꮙꮧ	-9.26099
ꭰᏺꮅ	-9.26287
ꮧꮸ	-9.26456
ꮕꭿꮫ	-9.2657
ꮴꮈ	-9.26947
ꮅꮝꮣᏼꮧ	-9.27207
(	-9.27627
ꮪꮎꮣꮕꮫ	-9.27646
ꮥꮨᏼꮫ	-9.27821
ꮒꮟ	-9.27891
ꮕꮧꭶꮅꮝꮩꮧꮝꭼ	-9.27935
ꮥꮸ	-9.27944
ꮕꮝꮧᏹ	-9.28577
ꮵᏻ	-9.28777
ꮴꮵ	-9.28998
ꮒꮺ	-9.29479
ꮑꮝꮧ	-9.29501
ꮅꮝꮩꮧ	-9.29718
ꭰꮧꮤꮝꮧ	-9.29766
ꭴꮫꭶꮕ	-9.29775
ꮹꮧꮢ	-9.29892
ꭸᏻꭿᏻ	-9.29942
ꮃꮕꭿ	-9.30068
ꮿꮕꮂ	-9.30358
ꭴꮺꮕ	-9.30369
ꮅꭾꮅꮝꮧ	-9.30614
ꭴꮠꮕ	-9.30718
ꮄꮝꮧ	-9.30927
ꮅꮵꮩꮑ	-9.31074
ꭲꮳꮅ	-9.31492
ꭰꮎꮣ	-9.31565
ꭲꮈꭿꮲ	-9.31937
ꮕꮣꭶꮅꮝꮩꮧꮝꭼ	-9.31943
ꮕꮣꭼꮹꮣꮄꮕ	-9.31948
ꮒꮸ	-9.32183
ꭴꮒꮝꭶꮕꮸ	-9.3219
ꭺꮅᏸꮝ	-9.32585
ᏺꮞꭽ	-9.32611
ꮰᏹ	-9.32648
ꮣᏺ	-9.32718
ꮿꭹ	-9.33383
ꮔꭺꮻꮢ	-9.3342
ꮕꮯ	-9.33717
ꭸᏻꭿ	-9.33976
ꭼꮻᏻꮜꮥꭹ	-9.34142
ꮷꮒꮈꮻꮝꮣꮑꭿ	-9.34152
ꭰꮒꮠꭲ	-9.34429
ᏺꮟ	-9.35007
ꭶꮵꮿ	-9.35255
ꮣꮑꭿ	-9.35281
ꮷꮧᏹ	-9.35362
ꭺꮹꮫꮧ	-9.35866
ꮝꮖꮒꭺꮧ	-9.35935
ꭹꮃ	-9.36061
ꭰꭶꮤ	-9.36097
ꮔꮒ	-9.36196
ꮒꮜ	-9.36394
ꭲꮳꮅꮝꮣꮑꮧ	-9.36442
ꮑꭾ	-9.36977
ꮪꮼ	-9.37409
ꮤꮃ	-9.37778
ꭴꮲ	-9.38501
ᏺꭿꮞꮈ	-9.3863
ꮥꭸꮵ	-9.38678
ꭰꭶꮩꭵꭿꮝꮧ	-9.3875
ꮞꮅ	-9.39022
ꮞꮈꭿ	-9.39308
ꮳꮴꮅꭶ	-9.39343
ꮿꮕꮫ	-9.39833
ꭰꮝꭺꭿꮷꮘ	-9.41141
ꮒꮖꮨ	-9.41168
ꮔꭺꮻꮝ	-9.41323
ꮂꮝꭶ	-9.41584
ꭰꮗꮵ	-9.41663
ꭶꮅꮝꮩꮣ	-9.41724
ꮎꮝꮙꮝꭹꮒ	-9.41782
ꭶꮨꮿ	-9.41842
ꮇꮴꮈ	-9.41928
ꮫꮑꮅ	-9.42374
ᏸꮈꭽ	-9.42385
ꮹꮎꭶꮃ	-9.43569
ꭴꮅꮝꮖꮈꮧ	-9.4357
ꮎꮒꮺꮝꭸ	-9.43608
ꮀꮹ	-9.43691
ꭴꮑꮃꮕꭿꮝꭹꮒ	-9.43792
ꮈꮙꮩꮧ	-9.44057
ꮕꮅ	-9.44093
ꮘꮅꭹ	-9.44224
ꭱꮝꮧ	-9.44256
ꭹꮆꮝꭹꮒ	-9.44307
ꭴꮣꮕꮩ	-9.44596
ꮧꭶꮕ	-9.44733
ꮯꮜ	-9.44745
ᏼꭼ	-9.44819
ꮷꮎꮣ	-9.45087
ꮵꭺꭵ	-9.45299
ꮜꮙꮙ	-9.45671
ꭲꮷꮃ	-9.45747
ꮪꮈꮻꮝꮣꮑꮂ	-9.45762
ꮗꮅ	-9.45821
ꭰꮒꮿꮻꮝꭹ	-9.46069
ꮧꮣꮝꮪꮧᏹ	-9.4607
ꭴꮒꮳꮦ	-9.46072
ꮔꮫꮑꮈ	-9.46104
ꭲꮈꮝꭹ	-9.46127
ꮥꮳꮣꮕꮫ	-9.46265
ꮤꮄ	-9.46308
ꮿꭵ	-9.46365
ꭴꮒꮑ	-9.47034
ꮵꮋ	-9.47324
ꭸꮃꮝꮧ	-9.47483
ꮑꮂꮎ	-9.48494
ꮣꮆꮒꭸ	-9.48634
ꮻꮎꮝꮫꮎ	-9.48634
ꭺꮲꮤꮕꭿ	-9.48686
ꮧꮒᏺꮅ	-9.4873
ꭴꮇꭿꮝꮧ	-9.48737
ꭰꮅꮝꮣᏼꮧ	-9.49169
ꭰꮣꮕꮦꮝꭼ	-9.49351
ꭱꭾ	-9.4976
ꭶꮤꭾ	-9.50224
ꭴꭶꮤ	-9.50335
ꮧꭻꭺꮩꮧ	-9.50586
ꮅꮝꭺꮈꮤꮕꭿ	-9.51163
ꭶꮎꮔꭺ	-9.51222
ꮰꭸꮟ	-9.51267
ꭲᏻꮎꮫꮑꮧ	-9.51267
ꭴᏸꮈꮧ	-9.51304
ꭴꮒꭺꮂ	-9.51784
ꮏꭵ	-9.51813
ᏻꮞꮝꮧ	-9.5211
ꮧꮳꮣ	-9.52516
ꭾꮈ	-9.52916
ꮝꮖꮫ	-9.52963
▁."	-9.53662
ꮹꮫꭾ	-9.5379
ꭺꭿᏻꮂꮝ	-9.53874
ꮧꭼꮹꮒ	-9.53939
ꮦꮈꮃꮧ	-9.53968
ꭴꮓꮥꮎ	-9.53969
ꭴꮥꮑꮄ	-9.54059
ꭰꮒꮩꮎ	-9.54258
ᏹꮧꮵ	-9.54551
ꮥꭼꮹ	-9.54983
ꭽꮲ	-9.55643
ꮷꮘ	-9.56024
ꭶꮫꭶ	-9.56083
ꮩꮄꮀꭿꮝꮧ	-9.5645
ꮔꮺ	-9.56703
ꮥꮆꮖ	-9.56747
ꮷꮒꮎꮻ	-9.56752
ꭽꮻꮒꮧꮲ	-9.56755
ꭲꮶꭿᏻꮢ	-9.56772
ꮃꮻꭹ	-9.56774
ꮥꭺ	-9.56867
ꭴꮩꮄꮀꮢ	-9.56905
ꮣꮣꮕꮯ	-9.57071
ꮧꮎꮣꮕꮯ	-9.5708
ꮣꮒꮈꭲꮝꮧ	-9.57096
ꮅꮝꭺꮈꮣꮑꮈ	-9.57446
ꮿꮝꮧ	-9.57581
ꮔꮣ	-9.58175
ꮞꮈꭹ	-9.58258
ꮔꮝꮥ	-9.58343
ꮒꭶꮅꮝꮣ	-9.58703
ꮷꮟ	-9.59011
ꮡᏼ	-9.59119
ꭰꮖꮣꮕ	-9.59565
ꭼꮩꮧ	-9.59599
ꭰꮴꮅꮝꮫ	-9.59604
ꭴꮳꮤꮕꭿ	-9.59613
ꮒꮪᏻꭺꮫꮎ	-9.59615
ꮕꮟꮩꭿ	-9.59622
ꭴꮪꮅꮝꭼ	-9.59622
ꭸᏻꮢ	-9.59668
ꮦꮅꮩ	-9.59853
ꭴꮒꮇꮸ	-9.59878
ꭱꮧᏹ	-9.59954
ꭴꮳꮨꮒ	-9.6005
ꭲꮎꮫ	-9.60065
ꮪꮎꮣ	-9.6017
ꭲᏻꮹꮑ	-9.60194
ꮓꭾꮝꭹ	-9.60389
ꭴᏺꮁꮢꭿ	-9.60527
ꭴꮝꭶꮕꮸ	-9.60679
ꮶꮹ	-9.61052
ꭺꮲ	-9.61062
ꮟꮜ	-9.61156
ꮣꮩꮅꮝꮧꮝꭼ	-9.61258
ꮃꮻꮞ	-9.61333
ꮈꮙꮧᏻ	-9.61713
ꮘꮅ	-9.61936
ꮜꮒ	-9.62036
ꮒꮧᏻ	-9.62462
ꭴꮒꮝꮖꮒꭺꮞ	-9.62544
ꭲꮸꭸᏻꭲ	-9.62544
ꭰꮒꮝꭶꮎ	-9.6267
ꭴꮼꭿᏻ	-9.62731
ꭰꮝꭶꮎ	-9.62747
ꭰꮖꮪꮅ	-9.62802
ꭰꮗ	-9.62918
ꮅꮝꭺꮈꮣ	-9.63007
ꮝꮨ	-9.63144
ꮵꮒꭼꮕ	-9.63354
ꮞꮣꮒ	-9.63478
ꮹꭶ	-9.63727
ꮴꭾ	-9.63865
ꮣꮄꮂꮝ	-9.63915
ꮳꮣꮕꮫ	-9.64349
ꭲꮵꭶꮤ	-9.64412
ꭲꮸꮿ	-9.64757
ꮕꭼꮹꮺꮞꮈ	-9.65574
ꭴꭹꮸꮫ	-9.65574
ꮑꭻꮵꮫ	-9.65575
ꮧꮅꮝꮣᏼꮧᏹ	-9.6558
ꭲᏻꮎꮅꮝꮣꮑꮧ	-9.6559
ꮅꮟꮎꭿꮝ	-9.65623
ᏺꮁꮝ	-9.65787
ꮣꮫꮑ	-9.66219
ꭼꮖ	-9.66524
ꮎꮔꭺꮻꮝ	-9.66598
ꮪꮈꮻꮝꮣꮑ	-9.66962
ꮫꮑꮂ	-9.6715
ꮅꮒꭺꭿꮝ	-9.67307
ꮑꮆꮧ	-9.67449
ᏺꮅꮈ	-9.67866
ꮵꭹꮅᏺ	-9.68456
ꮄꭿꮜꮕ	-9.68699
ꭴꭷꮅꮸꭿ	-9.687
ꮣꮑꮹꮧꮢ	-9.687
ꭰꮀꮅ	-9.68709
ꭲꮳꮫꮑꮧᏹ	-9.68764
ꮪꮄꮕ	-9.68777
ꭲꮃꮿ	-9.68784
ꮥꮿꮩ	-9.68802
ꮵꭸᏻꭲ	-9.68805
ꭴꮹꮢꮙ	-9.6905
ꮷꮣꮟ	-9.6906
ꮝꮖꮧꮝ	-9.69236
ꮹꮧꮩ	-9.69258
ꭰꭹꮅ	-9.69279
ꭴꮑꮃ	-9.7038
ꭰꮔꮼ	-9.70401
ꭴꮒꮑꮸ	-9.70662
ꮒꭼꮹꮺꮞꮄ	-9.7121
ꭴꮩꭿᏻ	-9.71217
ꮵꭺꮹꮨ	-9.71377
ꭴꮫꮎ	-9.71485
𐋇	-9.71925
ꮥꭴꮩꭵ	-9.71926
ꭶꮇꮸꭽ	-9.71929
ꮧꮵꮎꮻ	-9.71931
ꭴꮄꮕꭾ	-9.72023
ꮳꮣꮕꮦ	-9.72354
ꮄꭿꮠꮧ	-9.72752
ꭶꮈꮙꮩꮧ	-9.72946
ꮵꮔꮝꮧ	-9.72992
ꭱꮖ	-9.73178
ꭲᏻꮺ	-9.7357
ꮒꮩꮈ	-9.73593
ꮔꮎꮣ	-9.74191
ꮿꮖ	-9.74463
ꮅꮝꮣᏼꮂꮝꭼ	-9.75198
ꭰᏸꮃꮝꮧ	-9.75258
ꭴꮤꮃꮼꭿꮝꮧ	-9.75258
ꮧꮖꮴꮅ	-9.7526
ꭱꮃꮺ	-9.7526
ꮓꮘꮟ	-9.75269
ꭴꮅꮟꭼ	-9.75274
ꮣꭹꮈꮻꮝꮣꮑ	-9.7529
ꮒꮳꮫꮕ	-9.75339
ꮱꮧꮝꭹ	-9.75364
ꭰꮒꮟᏼꮻꭽ	-9.7538
ꮅꮒꭼꭼ	-9.75399
ꭴꮎꮔꭺꮻꮢ	-9.75412
ꭼꮹꮇꮴꮈ	-9.75497
ꭴꮯꭿᏻ	-9.75655
ꮷꮣꮄ	-9.75791
ꮲꮘꮝ	-9.76177
ꮓꭾꮧ	-9.76352
ꮣꮏꮹ	-9.76678
ꮆꭿꮝꮧᏹ	-9.76819
ꭺꮩꮧ	-9.77902
ꮹꮝꮫ	-9.77964
ꭺꮤꮕ	-9.77968
ꮽꮇꮴ	-9.78212
ᏺꮺꮃ	-9.78392
ꮸᏸꮃꮧꮩ	-9.78707
ꮔꮅꮝꮤꮒꮩꮈ	-9.78707
ꮣꮣꮏꮹꮝꮫ	-9.78707
ꮩᏹꮧꮲ	-9.78709
ꮎꭹꮺꮞꮈ	-9.78709
ꭴꭶꮅꮝꮧ	-9.78718
ꭲᏻꮹꮒꮠꮧ	-9.78719
ꮕꮣᏻꮆꮢ	-9.7874
ꭽꮻꮒ	-9.7874
ꭳꮣꮈ	-9.78745
ꭲᏻꮎꮅꮝ	-9.78748
ꭰꮳꮧ	-9.78848
ꭻᏼꭱꮧ	-9.78912
ꮎꮝꭶꮕꮎ	-9.79098
ꮣꮎꮣ	-9.79445
ꮪꮣꮄꮝ	-9.79481
ꭴꮔꭺꮸ	-9.79643
ꭶꮼꮒꮝꭼ	-9.79782
ꮹꮨꮝ	-9.79796
ꭴꮄꮕ	-9.79937
ꮅꮝꮣᏼꮂ	-9.80003
ꮫꮏꮥ	-9.80017
ꭴꭹꭼ	-9.80042
ꮎᏸꮝꭼ	-9.80088
ꭶꮼꮒꭿꮝꮧ	-9.80166
ꭺꮺꮅꭿ	-9.80286
ꭶꮈꮆ	-9.81325
ꭸꮵꮈꮙ	-9.81341
ꮝꮥꮅ	-9.81628
ꮝꮣꮑꮧ	-9.8176
ꮒꮸꮑ	-9.81782
ꮑꮯᏼꮝꮧ	-9.82124
ꭴꮅꮝꮖꮧꮝꮧ	-9.8228
ꮧꮕꮓꮫ	-9.8228
ꮖꮒꮖ	-9.8228
ꮷꮒꮲꭹ	-9.82283
ꮔꮓꭿᏻ	-9.82287
ꮧꭹꭶᏼꮅꭸ	-9.82289
ꮤᏺꮞꮈ	-9.82311
ꮧꭸꭶꮑꮆ	-9.82311
ꭸᏻꮧ	-9.82643
ꮵꮓꭾ	-9.82957
ꭶꮇꮵ	-9.83025
ꮝꮥꮅꮝꭼ	-9.83845
ꮎꮫꮏꮥ	-9.83954
ꮴꮃ	-9.84461
ꮧꮎꮣ	-9.84481
ꮪꮈꮻꮝꮣꮑꮈ	-9.84668
ꮟᏼꮻꭽ	-9.8587
ꭴꮅꮝꮘꮧ	-9.85982
ꮪꮎꮣꮱꮹꮧꮢ	-9.85982
ꮪꮑꮴꮄ	-9.85982
ꮣꮖꮩꭵ	-9.85982
ꮪᏻꭺꮧ	-9.85983
ꭲꮿꮫꮑꭿ	-9.85983
ꮅꮝꭺꮈꮩꮧ	-9.85987
ꮎꮞꮅꮧ	-9.85988
ꭲꮴꮿꮤ	-9.85991
ꮯꮆꮝꮧ	-9.86027
ꮝꭶꮕꮴ	-9.86033
ꮠꮘꮅ	-9.86051
ꭲꮿꮫꮑꮧ	-9.86063
ꭲꮸᏺꮞꭽ	-9.86068
ꮧꮣꮼꮝ	-9.86079
ꭰꮵꮕꮟꮣꮝꮧ	-9.86184
ꮔꮎꮝꮫ	-9.86228
ꮵꭺꮅᏸ	-9.86255
ꭶꮫꭼ	-9.8683
ꮠꮃ	-9.87328
ꮎꮎꮫꮑꮂ	-9.87546
ꮕꮼꮧ	-9.87893
ꭲꮳꮣꮩꮅꮝꮧ	-9.88964
ꭰꮖꮫꭶꮕꭹ	-9.89828
ꮽꮆꮞ	-9.89829
ꮤᏺꮞꮄ	-9.8983
ꮴꭶꮘ	-9.89831
ꭲꮵꮘᏹ	-9.89831
ꮷꮈꮻꮝꮣꮑꭿ	-9.89834
ꮃꮝꮣꮈ	-9.89835
ꭴꮥꮿꮩꮧ	-9.89839
ꭺꮳꮄ	-9.89839
ꭲᏻꮅꮝꮣꮑꮧ	-9.89845
ꭴꮎꮩꮄꮀꮢ	-9.89879
ꮣꮡꮿ	-9.8998
ꭼꮒꮧᏻ	-9.9013
ꭰꮖꮣꮕꮩ	-9.90154
ꮵꮒꭶꮺ	-9.90172
ꮆꮋ	-9.90241
ꭴꮆꮢꮝ	-9.90293
ꭲꭶꭶꮫ	-9.9031
ꮧꭸꮻ	-9.90381
ꭵꭿꮝꮧ	-9.90492
ꭻꭺꮣ	-9.90646
ꭰꮒꭺꭲ	-9.90707
ꭺꮅᏸꮧ	-9.90718
ꭲꮵꮩꮣ	-9.90756
ꮕꮣᏻꮅꮝꮩꮤꮕ	-9.91125
ꭴꮓꮄ	-9.91425
ꮣꮕꮦꮧ	-9.92389
ꮰꮎꮝꮧ	-9.92585
ꮅꮣꮝꮧ	-9.92657
ꭰꭲꮢ	-9.92729
ꭴꮣꮕꮦ	-9.92756
ꭷꮓꭿᏸꭹ	-9.93828
ꮕꮫꭹꮕꮟꮫ	-9.93829
ꭸᏻꭽ	-9.93853
ꭰꮅꮝꮖꮧꮝ	-9.93856
ꭴꮼᏸꮒ	-9.93889
ꭺꮲꮕꭿ	-9.93913
ꮕꮧꭶꮅꮝꮩꮧꮝꭺ	-9.93921
ꭰᏺꭹ	-9.93938
ꭴꮒꮼꮒꭿꮝꮧ	-9.93956
ꮼꮑꮧꮝ	-9.94362
ꮣᏸꮵ	-9.94371
ꭷꮑꭲꮝꮧ	-9.94492
ꭴꮪꮅꮝꭸ	-9.94718
ꮄꮕꮂ	-9.95453
ꭶꮕꮕ	-9.96496
ꮖꮅꮟ	-9.96676
ꮝꮥꮅꮝꭹ	-9.96682
ꮥꮨᏼ	-9.97633
ꮧꮣꮄꮒꮝꭼ	-9.97995
ꮝꭶꮕꭲꮝꮧ	-9.97998
ꮪꮒꮈꮻꮝꮣꮑꮂ	-9.98003
ꭼꮝꭺꮈ	-9.98011
ꭶꮿꮇ	-9.98059
ꭴꮺꮏꭲ	-9.98092
ꮽꮆꮢ	-9.98156
ꮡꮣꮅ	-9.98215
ꮵꮑꭼ	-9.98394
ꮎꮔꭺꭲꮝꮧ	-9.98444
ꭴꮣꮕꮦꮈ	-10.0025
ꮔꮹꮑꮈ	-10.006
ꭷꮏꮹꮫꮝꮧ	-10.0166
ꭰꮒꮓꭾ	-10.0178
ꮅᏸꭲꮆ	-10.0185
ᏹꮅꮩ	-10.0216
ꮇꮴꮧ	-10.022
ꭰꮕꮧꮝ	-10.0228
ꮣꮥᏺꮂꮝꭼ	-10.0234
ꭼꮹꮪꮻꮫ	-10.0234
ꮉꮟꮩꮒ	-10.0234
ꮵꮎꮭꭵꮎ	-10.0234
ꮕꭶꮝꭺꭿ	-10.0234
ꮧꮥᏺꮧ	-10.0234
ꭶꮩꭵꭿꮝꮧᏹ	-10.0234
ꭴꮳꮄꮝꮧ	-10.0235
ꭶꮅꮶꮫ	-10.0235
ꭴꮒꮓꭾꮈ	-10.0235
ꭰꭶꮨꮟꮧꮲ	-10.0235
ꮝꭶꭲꭾꮝꮧ	-10.0237
ꮧꮉꮧ	-10.0237
ꮎꮒꮺꮝꭼ	-10.0238
ꮷꮒꮈꮻꮝꮣꮑꮧ	-10.0243
ꭶꮩꭵꮢ	-10.0244
ꮰꮿꮝꮧ	-10.0248
ꮷꮎꮴꮅ	-10.0255
ꭸꮵꮕꮟꮣꮝꮧ	-10.026
ꭴꮩꭿᏻꮢ	-10.0264
ꮒꮼꮒꮝ	-10.0283
ꮪꮣꮄꮝꮩꮧ	-10.0388
ꭼꮹꮝꮣꮹꮫ	-10.0401
ꭶꮅꮝꮣꮧꮝ	-10.0424
ꮕꮹꮕ	-10.0442
ꮝꮖꮒꭺꮩꮧᏹ	-10.0465
ꮝꮣꮹꮫꮞ	-10.0474
ꭰꮣꮕꮣꮧꮝꮧ	-10.0689
ꮒꮪꭹꮸꮒꮢ	-10.0689
ꮝꭶꭲꮂꮎ	-10.0689
ꮕꮹꮝꮧ	-10.069
ꭴꮆꭹꮈ	-10.0692
ꮡꮎꮄ	-10.0693
ꭰꮒꭹꮟ	-10.0693
ꭺꮲꮢ	-10.0696
ꭴᏺꮁꮞ	-10.0696
▁--	-10.0699
ꮦꮈꮕ	-10.0702
ꮽꮇꮸ	-10.0703
ꭰꮎꮫꭹꮝ	-10.0703
ꭴꮎꮴꮅꭺꭿ	-10.0704
ꮜꮊꮅ	-10.0706
ꭴᏸꮈꮕ	-10.0709
ꮷꮈꮻꮝꮣꮑꮧ	-10.0711
ꮫꮕꭲꮝꮣꮑ	-10.0717
ꭰꭹᏸꮈ	-10.0726
ꭴꮎꮅꭺ	-10.0775
ꮎꮫꮑꭾ	-10.0805
ꮈꮻꮝꮣ	-10.0808
ꭲꮳꮪꮅ	-10.0839
ꮒꭶꮺꮝꭸ	-10.0865
ꭶꮹꮢ	-10.0911
ꮝꭶꮕꮎ	-10.1114
ꭳꮳꮅꮕꮯ	-10.1165
ꮣꮰꭿꮝꮫ	-10.1165
ꭷꮃꮹꮧꮢ	-10.1165
ꮥꭸꮜꮧꮢ	-10.1165
ꮸꮧꮣꮄꮂꮝ	-10.1165
ꮥꮳꮩꭵ	-10.1165
ꭰꮵꭶꮨꮧꮝꮧ	-10.1165
ꭴꮥꮀꭿꮝꮧ	-10.1165
ꮥꮵꮈꮻꮝꮣꮑꮂ	-10.1165
ꭱꮘꮜ	-10.1166
ꭼꮹꮇꮴꮄ	-10.1166
ꮵꭴꮝꮥꮞ	-10.1166
ꭴꮎꮣꮕꮦ	-10.1167
ꭴꭷꮫ	-10.1169
ꭲꮧꭶꮤꭽ	-10.1169
ꮸꮝꭹꮓ	-10.1169
ꮥꮿꮤꮑ	-10.1169
ꭲꮜꮿ	-10.1169
ꭶꮅꮝꮩꮧꭽ	-10.117
ꭶꮵᏼꮑ	-10.1179
ꭱꮩꮂ	-10.1181
ꮅꮝꭶꮝꮩꮧ	-10.1188
ꭴꮎꮅꮝꮣᏼꮧ	-10.1189
ꭲᏻꮕꮑꮧ	-10.1214
ꮈꮙꮤꮕ	-10.1221
ꮶꭿᏻꮂꮝ	-10.1271
ꮒꭼꮹꮺꮞ	-10.1273
ꭲꭼꮹꮅꮝ	-10.1432
ꮺꮅꮞ	-10.1459
ꭶꮼꮒ	-10.1489
ꮼꮒꭿꮝꮧ	-10.1493
ꮩꮅꮸ	-10.1503
ꮕꮧꭶꮅꮝꮩꮧ	-10.1567
ꭿᏻꮂꮝꭼꮎ	-10.1598
ꮅꮒꭹꮫ	-10.1617
ꮒᏼꭿ	-10.1625
ꮡꮎꮣꮱꭹ	-10.1665
ꮅꮝꭶꮝꮩꮫ	-10.1665
ꮧꭷꮓꭹꮝ	-10.1665
ꮪꮒꮈꮻꮝꮣꮑꮈ	-10.1666
ꮔꮒꭼꮻᏻꮜꮥꭹ	-10.1667
ꭴꮅꮟꭹ	-10.1667
ꭰꮝꭺꮅ	-10.1669
ꭴꮼꮲꮕ	-10.1671
ꮒꮧꭵ	-10.1673
ꭴꮅꮑꮸ	-10.1678
ꭴᏺꮁꭿꮝꮧ	-10.1679
ꭰꮎꮅꭾꮅ	-10.1687
ꮣꮿꭲ	-10.1691
ꮵꮎᏸꮝ	-10.1696
ꮒᏼꭾ	-10.1733
ꮎꮎꮫꮑ	-10.1769
ꭴꮒꭹꮢ	-10.182
ꭿꮞꮧᏹ	-10.1932
ꭴꮎꮰꮎꮝ	-10.1951
ꭴꮣꮕꮢ	-10.1996
ꮈꮙꮣ	-10.2001
ꭶꮨꮧꮝ	-10.2186
ꮣꭲꮕ	-10.2191
ꭴꮎꮣꮴꮅꮫ	-10.2191
ꮃꭸꮿꮫ	-10.2191
ꭶꮅꮶꮥ	-10.2191
ꭴꮎꮑꮃꭹ	-10.2192
ꮔꮫꮑꮄ	-10.2192
ꭴꮝꮖꮈꮂ	-10.2192
ꭴꮪꮈꮧ	-10.2193
ꭴꮑꮲꮤꮕ	-10.2193
ꮔꮎꮫꮕ	-10.2193
ꮒꭼꮞꮂ	-10.2194
ꭺꭿꮧᏻ	-10.2194
ꭱꮟᏹ	-10.2195
ꭱꮟꭹ	-10.2196
ꭲꭸꭼꮑ	-10.2197
ꮅꮝꮣᏼꮕ	-10.2204
ꮻꮸᏺꮺꮃ	-10.2233
ꭲꮿꭼꮑ	-10.2239
ꭴꮎꮫꮑ	-10.2287
ꭺꮹꮨꮝꭸ	-10.2291
ꭺꮅᏸꭵ	-10.2447
ꭴꮒꮳꮤ	-10.2464
ꭴꮎꮫꮕ	-10.2666
ꮇꮵꮈ	-10.2671
ꮎꮕꮑ	-10.2717
ꭲᏻꮅꮝ	-10.2718
ꮳꮺꮠꮈꮝ	-10.2747
ꭴꮗꮣꮈ	-10.2747
ꮴꮃꮧꮩꭾꮝꮧ	-10.2747
ꮷꮃꮟꮥꮒ	-10.2747
ꮒꮪꮎꮣꮺꮞ	-10.2747
ꮧꮯꮆꮝꮤꮕꭿ	-10.2747
ꮕꮷꮅꮝꮩꮤꮕ	-10.2747
ꭴꮒꮓꮥꮎ	-10.2747
ꮽꮒꮆꮞ	-10.2747
ꭼꮹꮯꮝꮧ	-10.2747
ꭳꮅꮹ	-10.2748
ꮔꮎꮫꮑꮈ	-10.2749
ꭲꮳꮅꮕꮯ	-10.2749
ᏻꭺꮣꮑ	-10.275
ꮪꮃꮝꭼ	-10.2751
ꭰꮒꭶꮤꭿ	-10.2752
ꭴꮅꭾꮅꮸ	-10.2754
ꭴꮺꮇꮕ	-10.2754
ꮸᏺꮺꮃꮑ	-10.2755
ꭰꭻᏼꮩ	-10.2759
ꮧꮳꮣꮕꮩ	-10.2761
ꮪꭷꮏꮕ	-10.2763
ꮔꮅꮝꮣꮑ	-10.2766
ꮧꭻꭺ	-10.2796
ꭴꮒᏼꮝꮧ	-10.2857
ꮩꮄꮀꭿ	-10.2916
ꭰꮎꮅꮝꮣᏼꮂꮝ	-10.3091
ꮨꮓꮈ	-10.3241
ꮎꮣꮕꮯ	-10.3278
ꭰꮪꭲꮝꮫ	-10.3335
ꭰꮰꮑꮧ	-10.3335
ꭼꮹꮫꮫꮑ	-10.3335
ꮝꮖꮒꭺꮫ	-10.3335
ꮡꮣꮄꭹ	-10.3335
ꮧꮒꭸꮻ	-10.3336
ꭲꮿꮎꮫꮑ	-10.3336
ꮧꮒꭶꮩꮅ	-10.3336
ꭴꮫꮫꮑ	-10.3336
ꮎꮔꭺꮻꮟ	-10.3337
ᏺꮝꮩꮣꮑ	-10.3337
ꭴꮔꭺꮴ	-10.3337
ꭴꮎꮻᏹ	-10.3339
ꮒꮠꮧᏹ	-10.3339
ꭰꮒꮑꭼ	-10.3342
ꮽᏼꮄ	-10.3343
ꭴꮑꮇꮕ	-10.3343
ꮧꮒꮟꮧ	-10.3345
ꮎꭼꮑꮈ	-10.3348
ꭲꭼꮢ	-10.336
ꮅᏸꭲꮆꭿꮝꮧ	-10.3403
ꮪꮄꮑ	-10.3404
ꮳꮅꮝꮣꮑ	-10.347
ꮣꮸꮿ	-10.3617
ꭰꮩꮄꮀ	-10.3722
ꮕꮣꭶꮅꮝꮩ	-10.3799
ꮳꮩꮄꮀ	-10.3826
ꮊ	-10.392
ꮝꮖꮒꭺꮤꮕ	-10.3954
ꮔꮣꮅꮣꮝꮫꮎ	-10.396
ꮷꮎꮫꮠꮕꭿ	-10.396
ꭼꭽꮇᏼ	-10.396
ꮬꮟꮫꭱ	-10.396
ꭰꮁꮝꮥꮝꮧ	-10.396
ꮥꮉꮝꭶ	-10.396
ꭴꮎᏸꭿꮝꮧ	-10.396
ꮟꮜꮅᏹ	-10.396
ꭰꮒꮼꮒꮝꭼ	-10.396
ꮒꮪꮹꮑꮈ	-10.3961
ꭶꮕꭼ	-10.3961
ꮒꭸꭼꮑ	-10.3961
ꭸꮖꮒ	-10.3961
ꭰꭺꮔ	-10.3962
ꭰꮒꮻꮕ	-10.3963
ꮻꮪꮿꮕꮂ	-10.3964
ꭲꮵꮿꮻꮝ	-10.3964
ꮧꮷꭺ	-10.3967
ꭲꮃꭺ	-10.3969
ꮥꮀꭿꮝ	-10.3969
ꮫꮫꮕꭹ	-10.3971
ꮝꮥꮈꭿꮩ	-10.3973
ꮤꮇꭹꮝ	-10.3974
ꮽᏼꮈ	-10.3976
ꭶꮦꮓ	-10.3986
ꮒᏼꮂꭹ	-10.3996
ꮟꮣꮑꮈ	-10.4074
ꮅꮩꮂ	-10.414
ꮔꮫꮕ	-10.4153
ꭲꭹꮝꮥꮅꮝ	-10.4245
ꮵꮑꭲꮝꮧ	-10.4377
ꮣꮕꮦꮝꭸ	-10.4462
ꮸᏼꮑ	-10.4621
ꭴꮎꮄꮕꭾ	-10.4627
ꮔꮬꮟꮫꮢꮎ	-10.4627
ꮣꮯꮆꮝꮫ	-10.4627
ꮧꭸꮵꭴꮝꮥꮞꮈꭿ	-10.4627
ꭶꮎᏸꭿꮝꮧ	-10.4627
ꭰꮅꮝꮪꮆ	-10.4627
ꮥꭶꮪꮹꮧꮢ	-10.4627
ꮧꮝꮣꮣꮕꮯ	-10.4627
ꮪꮣꮥꮻꮢ	-10.4627
ꭲꮿꮖꮫꮑꮧ	-10.4627
ꭴꮺꮅꭿꮝꮧ	-10.4627
ꮈꮙꮥꮝꮧ	-10.4627
ꭱꮙꭿᏻ	-10.4627
ꮜᏹꮃ	-10.4628
ꭰꮤꮄꮢ	-10.4628
ꮡᏸꮢ	-10.4629
ꮫꮝꮖꮈꭿ	-10.4629
ꮕꮣᏻꮒꮆ	-10.463
ꭴꮓꭾꮈ	-10.463
ꮣꮩꮅꮝꮤꮑ	-10.463
ꮔꮢꮈ	-10.4631
ꮣꮞꭺꭹꮝ	-10.4632
ꭲꮵꮤᏺ	-10.4634
ꭴꮺꮩꮈ	-10.4644
ꮕꮣᏻꮎꮅꮝꭺꮈꮤ	-10.4653
ꮑꭲꮝꮣꮑ	-10.4829
ꮄꮒꮩꮂ	-10.4957
ꮄꮒꮣꮝꮧ	-10.5298
ꭰꮒꮜꮪꮟ	-10.5341
ꭰꮝꭻꮥꮝ	-10.5341
ꭴꮒꮗꮣꮈ	-10.5341
ꮷꮓꮡꮆ	-10.5341
ꭴꮜꭿꮈ	-10.5341
ꮠꮲꭲꮝꮩꮧ	-10.5341
ꮻꮸꮇꮴꮧ	-10.5341
ꮪꮎꮩꭵ	-10.5341
ꭰꮣᏸꮝꭹ	-10.5341
ꮼꭹꮇꮸ	-10.5341
ꭰꮸꮝꮩꮧ	-10.5342
ꭴꮒꭼꭵꮝ	-10.5342
ꮈꮙꮤꮑ	-10.5342
ꮳꭶꮜꮿꮝ	-10.5342
ꭴꮎꮪꮅꮝꭼ	-10.5342
ꭶꮎꮔꭺꮻꮝꭺ	-10.5342
ꭲꮷꮹꮑ	-10.5345
ꮫᏻꭸꮧ	-10.5346
ꮆꮠꮒ	-10.5349
ꮧꮤꮂ	-10.5366
ꮹꭻꮧ	-10.5393
ꭰꮣᏺꮑ	-10.5394
ꭴꮔꮼꮝ	-10.5604
ꮫꮫꮂꮝ	-10.567
ꮴꮅꭿꮝ	-10.5723
ꮳꮪꮅꮝꭼ	-10.5989
ꭶꭷꮂ	-10.6068
ꮎꮩꮄꮀ	-10.6107
ꮯꮆꮝꮣꮑ	-10.611
ꮥꭶꮃꮻꭵ	-10.611
ꭰꮒꭶꮤꮏꭲ	-10.611
ꭰꮣꮺꮅꭹꮝ	-10.611
ꭼꮼꭿᏻꮂꮝ	-10.611
ꮷꮒꮃꮻꭲꮝꮧᏹ	-10.611
ꭴꮝꮖꮈꭿꮧ	-10.611
ꮕꮣꭶꮅꮝꮤꮒ	-10.611
ꮪꮣꮨꮎꭵ	-10.611
ꭶꮓꮝꭹꮝꭹ	-10.611
ꭴꮬꮕꮫ	-10.611
ꭰꭶꮨꮟ	-10.611
ꭼꮹꮝꮣꮹꮧ	-10.611
ꭰꮧꮢꮝꮧ	-10.611
ꮥꭴꮄꮤꮕ	-10.611
ꭴꮹꭸꮻ	-10.6111
ꮧꮒꮀꮅ	-10.6111
ꭰꮯꮝꮫ	-10.6111
ꮪꮯꮆꮝꮣꮑꮄ	-10.6111
ꮎꭹꮺꮢ	-10.6111
ꭴꮪꭲꮝꮤꮕ	-10.6111
ꮜꮩꮒ	-10.6112
ꮵꮅꭵꮒ	-10.6112
ꭶꮜꮿꮝꮧꮥꭹ	-10.6112
ꭴꮺꮇꮑ	-10.6114
ꭴꮺꮝꭹꮈ	-10.6115
ᏺꮁꮟ	-10.6115
ꮒꮥꭼꮑ	-10.613
ꮴꮩꮂ	-10.6158
ꭲꮸꮑꮴ	-10.6447
ꭴꮅꮝꭺꮈꮣꮑ	-10.6602
ꮒᏺꭿꮞ	-10.6664
ꮷꮎꮄꭿꮠ	-10.6728
ꭲꮳꮰꮎꮝ	-10.6758
ꮅꮒꭹꮧᏻ	-10.6895
ꮔꮰꮎꮝꮫ	-10.6944
ꭰꮅꮵꮩꮂꮝꭸ	-10.6944
ꭶꭻꮝꮫꮧ	-10.6944
ꮝꭻꮣꮫ	-10.6944
ꮣꮒꮃꮻꭵ	-10.6944
ꮧꮎꮣꮒᏹꮝꭹ	-10.6944
ꮽꮣꭺꮎꮫ	-10.6944
ꭰꮎꮅꮵꮩꮂꮝ	-10.6944
ꮧꮡꮲꮫ	-10.6944
ꮩꮷꮎꮣꮕꮫ	-10.6944
ꮷꮣꮥꮢꮫ	-10.6944
ꮻꮪꮿꮕꭾ	-10.6944
ꭰꮵꭴꮝꮥꮞꮈꭿ	-10.6944
ꭰꮥꮢꮂꮝ	-10.6944
ꮷꮼᏸꮒ	-10.6944
ꮿꮓꭹᏻ	-10.6944
ꮌ	-10.7834
.	-10.9739
'	-11.1214
,	-11.4084
~	-12.2142
;	-12.6921
ꮍ	-12.7142
?	-13.6934
ꮚ	-13.7138
:	-13.7139
)	-13.714
!	-13.7141
\	-13.7142
ꮛ	-13.7142
