<pad>	0
</s>	0
<unk>	0
▁ا	-0
▁ال	-1
▁و	-2
▁م	-3
▁ف	-4
▁ل	-5
▁ي	-6
▁ب	-7
ان	-8
ال	-9
▁ع	-10
ين	-11
▁ك	-12
▁في	-13
ون	-14
وا	-15
▁ت	-16
▁من	-17
رب	-18
ما	-19
لا	-20
▁ان	-21
▁ق	-22
▁ه	-23
را	-24
ها	-25
هم	-26
▁وا	-27
نا	-28
▁الم	-29
لك	-30
ذا	-31
▁ح	-32
يا	-33
▁س	-34
▁عل	-35
▁الى	-36
ار	-37
▁الرب	-38
▁ج	-39
▁وال	-40
كم	-41
يل	-42
▁ن	-43
لم	-44
▁لا	-45
يم	-46
▁اس	-47
دا	-48
▁ر	-49
يت	-50
▁الذ	-51
▁الا	-52
▁ش	-53
▁على	-54
ير	-55
▁كل	-56
▁لان	-57
ول	-58
ني	-59
▁خ	-60
▁اب	-61
تي	-62
ور	-63
له	-64
مي	-65
يد	-66
ائ	-67
قال	-68
▁ص	-69
▁الس	-70
عل	-71
اب	-72
ري	-73
ئيل	-74
▁وك	-75
رج	-76
▁عن	-77
▁لي	-78
مع	-79
▁الذي	-80
اء	-81
▁الش	-82
عب	-83
▁الي	-84
ود	-85
▁قد	-86
عد	-87
وم	-88
▁.	-89
▁مع	-90
▁وي	-91
وت	-92
رائيل	-93
ذه	-94
مل	-95
▁بن	-96
▁اسرائيل	-97
وب	-98
▁ث	-99
ية	-100
▁وم	-101
قد	-102
وس	-103
▁الب	-104
حد	-105
▁وت	-106
▁لل	-107
▁الج	-108
▁ار	-109
ام	-110
كون	-111
▁اي	-112
▁ول	-113
▁بال	-114
▁اخ	-115
▁وب	-116
▁الك	-117
▁ولا	-118
▁الله	-119
▁يس	-120
ضا	-121
ته	-122
▁الار	-123
جل	-124
▁هو	-125
▁يا	-126
تم	-127
▁ما	-128
هو	-129
ميع	-130
▁كان	-131
▁آ	-132
▁لم	-133
▁فا	-134
▁له	-135
مر	-136
▁علي	-137
▁هذا	-138
وع	-139
▁أ	-140
▁الح	-141
▁وس	-142
▁فقال	-143
كن	-144
لب	-145
▁وج	-146
▁الارض	-147
كل	-148
▁د	-149
▁التي	-150
▁ذ	-151
▁اله	-152
▁بيت	-153
فس	-154
▁اع	-155
عة	-156
نة	-157
عا	-158
▁اما	-159
دي	-160
▁يق	-161
▁ط	-162
بي	-163
رة	-164
با	-165
▁غ	-166
رف	-167
لام	-168
بر	-169
▁وان	-170
▁ايضا	-171
▁ملك	-172
▁الع	-173
خل	-174
▁وقال	-175
▁الف	-176
▁يع	-177
تك	-178
▁وع	-179
▁وق	-180
▁انا	-181
تى	-182
▁قائ	-183
▁الملك	-184
▁جميع	-185
▁لك	-186
سل	-187
سي	-188
ست	-189
صر	-190
سب	-191
▁الذين	-192
وح	-193
▁او	-194
نع	-195
في	-196
مة	-197
▁يد	-198
▁قال	-199
▁وكان	-200
بل	-201
وه	-202
رق	-203
▁دا	-204
يس	-205
اه	-206
جد	-207
▁به	-208
كر	-209
▁ثم	-210
▁الق	-211
يام	-212
▁لانه	-213
ذهب	-214
خذ	-215
▁الخ	-216
مس	-217
سان	-218
▁عند	-219
حا	-220
دين	-221
▁بني	-222
▁بل	-223
ليم	-224
▁ابن	-225
هر	-226
شر	-227
▁امام	-228
كذا	-229
فر	-230
▁ام	-231
وق	-232
▁يهو	-233
▁فت	-234
▁واحد	-235
ضع	-236
▁اق	-237
▁اليوم	-238
يين	-239
▁با	-240
▁هكذا	-241
بع	-242
▁ارض	-243
▁الن	-244
طي	-245
▁ومن	-246
ماء	-247
سا	-248
▁لهم	-249
▁داود	-250
خر	-251
▁الشعب	-252
▁هنا	-253
▁فان	-254
رك	-255
▁انت	-256
رع	-257
▁ون	-258
▁فل	-259
اد	-260
فت	-261
▁اح	-262
▁يسوع	-263
▁كما	-264
▁ز	-265
▁رب	-266
▁هذه	-267
▁الآ	-268
▁وكل	-269
تل	-270
▁ولك	-271
▁قائلا	-272
رت	-273
مه	-274
كان	-275
ذب	-276
وسى	-277
▁بعد	-278
▁الص	-279
▁حتى	-280
▁وص	-281
ورش	-282
▁تع	-283
▁اذ	-284
▁وح	-285
قل	-286
▁ذلك	-287
دينة	-288
به	-289
▁يكون	-290
ورشليم	-291
▁كث	-292
▁الر	-293
▁تح	-294
▁يهوذا	-295
▁نفس	-296
▁واما	-297
▁اج	-298
قط	-299
▁يقول	-300
خرج	-301
▁وفي	-302
ظر	-303
▁ين	-304
▁رج	-305
دم	-306
ساء	-307
▁ولم	-308
بت	-309
▁موسى	-310
▁اورشليم	-311
▁يح	-312
▁عب	-313
▁هناك	-314
فا	-315
▁را	-316
▁الت	-317
يه	-318
▁ولكن	-319
▁ليس	-320
▁بين	-321
فع	-322
▁الام	-323
وك	-324
يمة	-325
▁انه	-326
▁هي	-327
▁الغ	-328
يرة	-329
نت	-330
يق	-331
▁اش	-332
▁حسب	-333
حم	-334
▁وه	-335
ات	-336
▁شي	-337
▁امر	-338
زل	-339
▁عين	-340
لاث	-341
▁النا	-342
سم	-343
دن	-344
▁لكي	-345
▁بنو	-346
رون	-347
ضرب	-348
كلم	-349
ئة	-350
لق	-351
مال	-352
▁نح	-353
▁اليه	-354
▁يت	-355
▁لكم	-356
يف	-357
يب	-358
▁سب	-359
▁شعب	-360
طر	-361
ذلك	-362
يون	-363
▁الان	-364
ريق	-365
▁عليه	-366
كت	-367
وج	-368
حة	-369
▁بع	-370
▁قلب	-371
▁حين	-372
سيح	-373
▁مصر	-374
من	-375
▁عظ	-376
▁الث	-377
ينا	-378
▁عش	-379
▁اص	-380
▁رأ	-381
▁شا	-382
راء	-383
▁نا	-384
▁رجل	-385
فعل	-386
▁الرج	-387
▁باب	-388
▁قل	-389
▁ايام	-390
▁اذا	-391
▁وش	-392
طا	-393
▁يش	-394
▁سمع	-395
وف	-396
▁لت	-397
بة	-398
وات	-399
▁وخ	-400
أة	-401
▁لما	-402
▁المدينة	-403
▁يم	-404
آب	-405
▁مح	-406
▁اجل	-407
وة	-408
ثل	-409
ذبح	-410
▁تق	-411
ضة	-412
دخل	-413
▁يو	-414
▁الاب	-415
▁وجه	-416
اني	-417
▁اني	-418
قدس	-419
ياء	-420
▁المسيح	-421
▁اث	-422
حر	-423
▁بها	-424
▁وعل	-425
▁للرب	-426
خا	-427
▁وسط	-428
تها	-429
▁يوم	-430
▁احد	-431
يرا	-432
شا	-433
تهم	-434
لاء	-435
يدي	-436
▁رؤ	-437
▁ولما	-438
تا	-439
فظ	-440
▁لب	-441
▁ور	-442
▁يأ	-443
▁الشر	-444
هد	-445
▁لن	-446
جا	-447
▁يب	-448
رجع	-449
رية	-450
▁تس	-451
▁يص	-452
▁مئة	-453
كث	-454
▁فلا	-455
▁مل	-456
▁فيه	-457
▁وعلى	-458
▁الل	-459
▁عمل	-460
▁تن	-461
▁جاء	-462
▁وهو	-463
حق	-464
▁السماء	-465
▁اف	-466
▁كلم	-467
دع	-468
اهن	-469
▁عشر	-470
▁ايها	-471
طين	-472
▁ير	-473
▁لاني	-474
هما	-475
طلب	-476
▁كال	-477
ربع	-478
دة	-479
صا	-480
مت	-481
▁وأ	-482
▁واع	-483
يك	-484
▁قائل	-485
يش	-486
▁هم	-487
▁الجن	-488
قوب	-489
▁حي	-490
هنة	-491
▁تخ	-492
▁بق	-493
سر	-494
▁بي	-495
▁الامم	-496
▁كلام	-497
▁الانسان	-498
▁فلما	-499
سد	-500
▁ثلاث	-501
جر	-502
ارك	-503
رض	-504
ياه	-505
ؤلاء	-506
نين	-507
▁انتم	-508
▁هوذا	-509
▁والم	-510
▁الآن	-511
▁سنة	-512
بائ	-513
▁تكون	-514
▁يخ	-515
▁انسان	-516
▁واق	-517
سة	-518
▁فاج	-519
▁معه	-520
▁واذا	-521
ئيس	-522
قدم	-523
▁مثل	-524
▁قدا	-525
وضع	-526
▁شاول	-527
▁واخ	-528
لس	-529
▁الكاهن	-530
▁تر	-531
▁واح	-532
▁البيت	-533
تكلم	-534
▁الط	-535
بز	-536
مك	-537
حل	-538
▁للم	-539
▁ات	-540
▁فيها	-541
قا	-542
وها	-543
زع	-544
▁طريق	-545
▁هل	-546
▁لاجل	-547
▁ولد	-548
وش	-549
▁مس	-550
▁لذلك	-551
▁نع	-552
▁الد	-553
▁تأ	-554
▁مت	-555
▁قائلين	-556
▁عم	-557
جعل	-558
▁جدا	-559
▁الهك	-560
رام	-561
▁است	-562
▁فر	-563
▁كر	-564
ضي	-565
▁ارسل	-566
▁الابد	-567
دد	-568
وال	-569
▁الرجل	-570
▁يعقوب	-571
وني	-572
بال	-573
جع	-574
▁تحت	-575
▁لها	-576
قي	-577
ارة	-578
▁السيد	-579
▁ض	-580
لامي	-581
صي	-582
▁واب	-583
▁ابي	-584
▁وبن	-585
▁هؤلاء	-586
لاك	-587
▁ود	-588
معوا	-589
▁فار	-590
▁لانهم	-591
▁سا	-592
▁تكلم	-593
▁تت	-594
▁صوت	-595
▁فلم	-596
▁وث	-597
▁فال	-598
آن	-599
طع	-600
ضب	-601
نم	-602
مات	-603
مان	-604
▁وز	-605
▁شيء	-606
▁البحر	-607
يمان	-608
▁راس	-609
▁كنت	-610
ارج	-611
▁الز	-612
▁نحو	-613
طية	-614
شي	-615
▁فن	-616
▁بك	-617
▁فعل	-618
قة	-619
قول	-620
الم	-621
▁وراء	-622
▁صار	-623
حي	-624
▁اعط	-625
ضط	-626
يده	-627
راه	-628
▁فس	-629
▁ذهب	-630
عبد	-631
▁رئيس	-632
كثر	-633
لاو	-634
▁الكهنة	-635
▁لنا	-636
صعد	-637
▁الناس	-638
جت	-639
عوب	-640
▁ظ	-641
ائر	-642
▁فأ	-643
قر	-644
▁يدي	-645
▁لماذا	-646
▁كثير	-647
فن	-648
لت	-649
▁بابل	-650
▁عبد	-651
▁عليك	-652
هب	-653
صنع	-654
ولا	-655
▁الوا	-656
ئذ	-657
ورة	-658
▁قبل	-659
▁منه	-660
▁كانوا	-661
▁الجنود	-662
▁خمس	-663
▁وانا	-664
▁عليهم	-665
▁فاجاب	-666
▁كانت	-667
▁امرأة	-668
رد	-669
▁غير	-670
▁واس	-671
بك	-672
▁حا	-673
طل	-674
رائ	-675
لسطين	-676
ليمان	-677
▁آبائ	-678
وته	-679
▁الايام	-680
▁كثيرة	-681
بيحة	-682
صف	-683
▁أل	-684
▁يكن	-685
▁رجال	-686
خت	-687
▁ويكون	-688
سن	-689
مو	-690
انا	-691
▁السم	-692
▁نفسه	-693
انب	-694
طلق	-695
ونه	-696
▁والا	-697
رى	-698
قت	-699
وخ	-700
▁جبل	-701
▁سليمان	-702
علم	-703
▁بنا	-704
▁روح	-705
▁صنع	-706
▁المس	-707
▁وجميع	-708
▁اليهود	-709
▁الفلسطين	-710
▁جل	-711
▁آخر	-712
▁جعل	-713
هل	-714
▁بر	-715
رعون	-716
▁فوق	-717
ملك	-718
يلة	-719
▁تش	-720
▁وغ	-721
▁تلك	-722
▁السموات	-723
وي	-724
▁الهي	-725
صل	-726
▁وقد	-727
▁مكان	-728
ند	-729
▁وف	-730
▁لكن	-731
▁نحن	-732
مد	-733
ماع	-734
▁لانك	-735
فوا	-736
▁خرج	-737
▁عنه	-738
راب	-739
▁اد	-740
▁فكان	-741
وسف	-742
▁عيني	-743
شب	-744
قيا	-745
ونا	-746
▁عشرة	-747
▁نج	-748
راهيم	-749
▁ماذا	-750
فرح	-751
▁الحق	-752
▁عليها	-753
نب	-754
▁جه	-755
▁مو	-756
▁قدام	-757
▁لنفس	-758
▁رؤساء	-759
ئا	-760
عاد	-761
▁كن	-762
راع	-763
▁فد	-764
حت	-765
▁خبز	-766
جي	-767
ثان	-768
▁ست	-769
▁حينئذ	-770
ثا	-771
ذين	-772
رقة	-773
▁السا	-774
نى	-775
قام	-776
▁بم	-777
▁ابنه	-778
عون	-779
▁ارت	-780
▁انك	-781
▁وحد	-782
▁الاخ	-783
أل	-784
▁اولا	-785
▁الروح	-786
اح	-787
رس	-788
دائ	-789
وان	-790
ياة	-791
▁ها	-792
▁نفسي	-793
ئلا	-794
▁وانت	-795
▁الاول	-796
▁فرعون	-797
موس	-798
▁ايا	-799
▁اليك	-800
▁واخذ	-801
اس	-802
نان	-803
انذا	-804
▁بلا	-805
▁يده	-806
عمل	-807
▁مدينة	-808
هلك	-809
ماعة	-810
▁اقول	-811
اله	-812
زي	-813
كمة	-814
▁بح	-815
▁مدن	-816
▁القد	-817
▁الكلام	-818
رجل	-819
▁سي	-820
▁لئلا	-821
▁البرية	-822
▁منهم	-823
فة	-824
رار	-825
▁العظ	-826
قيم	-827
▁دم	-828
▁اسمه	-829
جمع	-830
طان	-831
دت	-832
وية	-833
كتوب	-834
▁مست	-835
▁المح	-836
▁هرون	-837
▁اخذ	-838
▁السنة	-839
قب	-840
▁والع	-841
وز	-842
▁والى	-843
ضر	-844
توا	-845
عبر	-846
نون	-847
▁هانذا	-848
▁حيث	-849
▁الاش	-850
▁المر	-851
▁يوسف	-852
▁واحدة	-853
▁مر	-854
▁والب	-855
▁دع	-856
▁وليس	-857
فل	-858
▁تب	-859
▁تم	-860
انية	-861
▁المذبح	-862
▁ابراهيم	-863
داء	-864
واب	-865
▁فم	-866
▁معك	-867
▁يست	-868
▁الآب	-869
وهم	-870
▁يز	-871
▁يغ	-872
▁وار	-873
▁الطريق	-874
الك	-875
يدة	-876
▁كت	-877
▁انفس	-878
طف	-879
وقت	-880
▁بعض	-881
▁اخرج	-882
أت	-883
لكم	-884
▁عظيم	-885
ضل	-886
كا	-887
لهة	-888
ورا	-889
ينة	-890
▁ضرب	-891
▁مجد	-892
▁اذهب	-893
▁المع	-894
▁وخمس	-895
هن	-896
▁فه	-897
▁مش	-898
▁وير	-899
▁ابنا	-900
▁اكثر	-901
▁سيدي	-902
▁سبط	-903
▁سبع	-904
▁الشعوب	-905
دون	-906
ابوت	-907
▁الكل	-908
▁يسمع	-909
▁يشوع	-910
▁حز	-911
▁بيته	-912
لف	-913
حاب	-914
▁عا	-915
ربوا	-916
▁ثيا	-917
▁حول	-918
▁لاب	-919
▁وعمل	-920
رايم	-921
▁اسم	-922
▁سر	-923
▁فح	-924
جميع	-925
يامين	-926
زم	-927
كب	-928
▁بالا	-929
▁الشهر	-930
▁اغ	-931
ربعة	-932
▁الفا	-933
▁وعشر	-934
ذي	-935
▁مب	-936
داود	-937
▁رأى	-938
▁سبعة	-939
▁القدس	-940
▁الهنا	-941
▁مكتوب	-942
▁اربع	-943
▁شعبي	-944
▁الحقل	-945
▁ثلاثة	-946
قدر	-947
▁شيئا	-948
▁واحدا	-949
فق	-950
▁الظ	-951
▁بكل	-952
▁كلمة	-953
ريب	-954
▁بيد	-955
▁كيف	-956
▁نس	-957
▁ومع	-958
▁وكلم	-959
▁اللاو	-960
▁والآن	-961
انيين	-962
▁الرا	-963
▁المن	-964
▁يخرج	-965
▁العالم	-966
حاس	-967
▁ذا	-968
▁وآ	-969
▁وكانت	-970
▁فج	-971
▁مخ	-972
▁ايل	-973
▁دخل	-974
▁وما	-975
▁يعرف	-976
وص	-977
هار	-978
يته	-979
بياء	-980
▁وملك	-981
بح	-982
جب	-983
غض	-984
غي	-985
دوا	-986
▁ماء	-987
▁متى	-988
▁الموت	-989
ئك	-990
رفع	-991
▁المت	-992
▁وجاء	-993
▁يأتي	-994
ؤمن	-995
▁نب	-996
▁سيد	-997
▁معي	-998
ضى	-999
نه	-1000
▁اين	-1001
▁جهة	-1002
▁مرا	-1003
▁تقول	-1004
▁عبيد	-1005
▁الاردن	-1006
زر	-1007
لمة	-1008
▁كا	-1009
▁قلوب	-1010
قطع	-1011
▁لكل	-1012
▁الجل	-1013
▁خارج	-1014
▁واعط	-1015
▁فضة	-1016
▁الاث	-1017
▁يعمل	-1018
خبر	-1019
▁تج	-1020
▁عد	-1021
▁مق	-1022
▁الواحد	-1023
▁وبعد	-1024
▁الرجال	-1025
▁وقالوا	-1026
▁الفلسطينيين	-1027
جن	-1028
عط	-1029
▁خيمة	-1030
▁الباب	-1031
▁الهكم	-1032
▁المرأة	-1033
حن	-1034
وث	-1035
سوا	-1036
قدمة	-1037
تكم	-1038
ضاء	-1039
▁يف	-1040
▁معا	-1041
▁ابني	-1042
▁الجميع	-1043
▁شر	-1044
ؤساء	-1045
▁منذ	-1046
▁حق	-1047
▁اخت	-1048
▁المص	-1049
▁لبني	-1050
▁اليكم	-1051
▁موآب	-1052
ذل	-1053
تين	-1054
رفة	-1055
▁الجبل	-1056
طئ	-1057
وى	-1058
ولس	-1059
يات	-1060
▁اعمال	-1061
▁بخ	-1062
▁يه	-1063
طايا	-1064
يتها	-1065
▁عبر	-1066
▁الكر	-1067
▁وضرب	-1068
▁يدخل	-1069
▁النبي	-1070
طرس	-1071
يلا	-1072
▁الها	-1073
▁عليكم	-1074
▁افرايم	-1075
دى	-1076
ربة	-1077
سيف	-1078
شعب	-1079
▁لح	-1080
جارة	-1081
▁آدم	-1082
▁ذبيحة	-1083
هيون	-1084
▁رؤوس	-1085
▁سكان	-1086
▁ملوك	-1087
سك	-1088
يما	-1089
ضطجع	-1090
▁ايدي	-1091
▁يعلم	-1092
ظم	-1093
نار	-1094
▁طرق	-1095
▁يتكلم	-1096
ئم	-1097
ابل	-1098
الح	-1099
ثبت	-1100
ميا	-1101
▁وجعل	-1102
تان	-1103
صرخ	-1104
وتي	-1105
ريعة	-1106
▁اعدائ	-1107
الث	-1108
الي	-1109
صوت	-1110
لاف	-1111
▁صهيون	-1112
▁مج	-1113
▁يدك	-1114
▁ابيه	-1115
▁تعلم	-1116
▁فانه	-1117
▁لداود	-1118
لاص	-1119
قذ	-1120
كلون	-1121
▁صاح	-1122
▁وين	-1123
جتماع	-1124
▁وثلاث	-1125
عطي	-1126
▁نص	-1127
موئيل	-1128
▁عبدك	-1129
طيع	-1130
لامة	-1131
▁وبنو	-1132
▁يفعل	-1133
▁الاجتماع	-1134
ظروا	-1135
▁قتل	-1136
▁ليد	-1137
▁وذهب	-1138
طة	-1139
ذكر	-1140
مار	-1141
▁جب	-1142
▁سل	-1143
▁بنت	-1144
▁قلت	-1145
▁ويس	-1146
▁قلبه	-1147
▁كذلك	-1148
▁منها	-1149
▁يعطي	-1150
▁الشمس	-1151
انة	-1152
ظهر	-1153
▁بس	-1154
▁تا	-1155
▁فهو	-1156
▁باسم	-1157
▁بطرس	-1158
▁يطلب	-1159
▁المياه	-1160
▁بولس	-1161
▁رأيت	-1162
▁فخرج	-1163
▁وارسل	-1164
مون	-1165
▁ويش	-1166
در	-1167
ده	-1168
باط	-1169
صير	-1170
مسك	-1171
جرة	-1172
سبب	-1173
▁عظيمة	-1174
باح	-1175
جلس	-1176
ولد	-1177
▁بغ	-1178
▁لس	-1179
▁سلا	-1180
▁صعد	-1181
▁غضب	-1182
▁ويت	-1183
▁اشور	-1184
▁فقالت	-1185
▁كثيرا	-1186
أوا	-1187
▁اكل	-1188
▁خطية	-1189
▁رجلا	-1190
لاميذه	-1191
▁فارسل	-1192
▁الأ	-1193
▁فمن	-1194
▁وهم	-1195
▁انهم	-1196
▁فاخذ	-1197
راف	-1198
عام	-1199
▁غن	-1200
▁قب	-1201
▁وضع	-1202
▁وقل	-1203
▁الاخوة	-1204
▁الناموس	-1205
تد	-1206
جس	-1207
دمة	-1208
ريح	-1209
كيم	-1210
موا	-1211
▁صر	-1212
▁قر	-1213
▁بهذا	-1214
▁فجاء	-1215
▁عشائر	-1216
اري	-1217
▁حد	-1218
▁رح	-1219
▁اخط	-1220
▁واذ	-1221
▁وقت	-1222
▁ولي	-1223
▁يدع	-1224
▁نعمة	-1225
تر	-1226
خلص	-1227
طرح	-1228
فتح	-1229
ونها	-1230
▁وجد	-1231
▁السيف	-1232
▁النار	-1233
▁لانكم	-1234
نية	-1235
وحنا	-1236
▁ولل	-1237
▁اعين	-1238
▁بيوت	-1239
▁قلبك	-1240
▁الساب	-1241
▁الفضة	-1242
▁علينا	-1243
▁الثالث	-1244
▁بنيامين	-1245
رح	-1246
قوا	-1247
وجد	-1248
▁بط	-1249
▁لع	-1250
▁منس	-1251
▁وام	-1252
▁وصا	-1253
▁اصعد	-1254
▁تعمل	-1255
▁والح	-1256
▁يقتل	-1257
▁الاشرار	-1258
مين	-1259
▁وط	-1260
▁للح	-1261
▁وخرج	-1262
شع	-1263
▁يج	-1264
امرة	-1265
▁جسد	-1266
▁ووضع	-1267
▁الامور	-1268
ناء	-1269
▁قام	-1270
▁كله	-1271
▁لست	-1272
▁الشي	-1273
▁يموت	-1274
▁الجبال	-1275
صب	-1276
▁عو	-1277
▁كم	-1278
▁لو	-1279
▁انما	-1280
▁والف	-1281
▁ارميا	-1282
▁تابوت	-1283
وء	-1284
▁أت	-1285
▁فب	-1286
▁مث	-1287
▁بما	-1288
▁ويل	-1289
▁الحي	-1290
▁الشمال	-1291
شف	-1292
▁عز	-1293
▁الض	-1294
▁اوص	-1295
▁خير	-1296
▁العا	-1297
▁قلبي	-1298
▁كلها	-1299
▁ملاك	-1300
▁الجسد	-1301
كام	-1302
كين	-1303
مام	-1304
▁حص	-1305
▁أما	-1306
▁رحم	-1307
▁عني	-1308
▁البر	-1309
▁ونزل	-1310
▁الشرير	-1311
خط	-1312
نوا	-1313
▁رجع	-1314
▁مات	-1315
▁ويع	-1316
▁يوآب	-1317
▁الحرب	-1318
حارب	-1319
▁للق	-1320
▁المل	-1321
وناثان	-1322
▁جلعاد	-1323
▁الثاني	-1324
باء	-1325
قون	-1326
قية	-1327
▁رس	-1328
▁غض	-1329
معون	-1330
▁المغ	-1331
▁كرسي	-1332
تة	-1333
زا	-1334
▁مص	-1335
▁بهم	-1336
▁عرف	-1337
▁وهي	-1338
▁حوال	-1339
▁وجهه	-1340
▁يصنع	-1341
▁الامر	-1342
انه	-1343
عات	-1344
علي	-1345
▁تف	-1346
▁دائ	-1347
▁سفر	-1348
▁فما	-1349
▁ارجع	-1350
▁معهم	-1351
▁منكم	-1352
▁الهيكل	-1353
▁الجماعة	-1354
▁بج	-1355
▁خط	-1356
▁ترك	-1357
▁فقل	-1358
▁للك	-1359
▁آلاف	-1360
▁الكت	-1361
▁نفسك	-1362
▁وبنا	-1363
▁وبين	-1364
▁يوجد	-1365
▁لانها	-1366
▁تز	-1367
▁فك	-1368
▁أمر	-1369
▁اول	-1370
▁قول	-1371
▁لحم	-1372
▁نار	-1373
▁تعرف	-1374
▁لاننا	-1375
▁وتكون	-1376
▁الموضع	-1377
بس	-1378
شق	-1379
ائل	-1380
شون	-1381
▁اه	-1382
ملكة	-1383
وبين	-1384
▁ارام	-1385
▁الاح	-1386
▁ذراع	-1387
▁فاني	-1388
▁مقدس	-1389
▁صموئيل	-1390
▁فقالوا	-1391
صد	-1392
أته	-1393
▁مي	-1394
▁باس	-1395
▁الصد	-1396
▁فقام	-1397
▁واست	-1398
بات	-1399
▁جد	-1400
▁نها	-1401
▁اسمع	-1402
▁يقدر	-1403
▁النهر	-1404
▁الوقت	-1405
▁بالسيف	-1406
▁قم	-1407
▁واش	-1408
▁آلهة	-1409
▁بالح	-1410
▁خبزا	-1411
▁والخ	-1412
▁والق	-1413
▁الانبياء	-1414
اك	-1415
نك	-1416
حها	-1417
يتك	-1418
▁اقت	-1419
▁اهل	-1420
▁فقد	-1421
▁ادوم	-1422
▁انكم	-1423
▁سمعت	-1424
▁سنين	-1425
▁والن	-1426
▁فالآن	-1427
▁فيكون	-1428
▁الساكن	-1429
▁السامرة	-1430
▁اللاويين	-1431
أتي	-1432
بون	-1433
▁فص	-1434
الوم	-1435
▁الاع	-1436
▁ملكا	-1437
▁وادي	-1438
▁الذهب	-1439
▁اليها	-1440
▁المكان	-1441
ارض	-1442
تني	-1443
▁ومل	-1444
▁ووق	-1445
▁الدم	-1446
▁معكم	-1447
▁وبني	-1448
سه	-1449
حفظ	-1450
واق	-1451
▁فلي	-1452
شالوم	-1453
▁بسبب	-1454
▁راسه	-1455
▁المدن	-1456
ذر	-1457
رتف	-1458
كار	-1459
▁بت	-1460
▁خا	-1461
▁يجد	-1462
▁افعل	-1463
▁جانب	-1464
حه	-1465
▁خر	-1466
▁واي	-1467
▁وتس	-1468
▁أليس	-1469
▁اخبر	-1470
▁انها	-1471
▁وهذه	-1472
▁المحل	-1473
▁اليهم	-1474
أس	-1475
ذان	-1476
فين	-1477
وجه	-1478
▁حل	-1479
▁خز	-1480
▁عه	-1481
يتهم	-1482
▁ارا	-1483
▁امه	-1484
▁قوم	-1485
▁وسمع	-1486
▁اربعة	-1487
▁حزقيا	-1488
▁عينيك	-1489
▁الخطية	-1490
الة	-1491
بار	-1492
مرا	-1493
مهم	-1494
▁طلب	-1495
▁اعطي	-1496
▁الارا	-1497
▁الماء	-1498
▁العظيم	-1499
▁تلاميذه	-1500
فض	-1501
أخذ	-1502
دهم	-1503
فون	-1504
كتب	-1505
▁فع	-1506
▁ينب	-1507
▁اخرى	-1508
▁والج	-1509
▁يمين	-1510
▁امامك	-1511
▁واقام	-1512
▁يوحنا	-1513
▁المساء	-1514
▁والذين	-1515
ثر	-1516
لة	-1517
وما	-1518
▁مغ	-1519
رائض	-1520
كلوا	-1521
نعان	-1522
▁قرب	-1523
▁تفعل	-1524
▁سلام	-1525
▁عيون	-1526
▁والت	-1527
▁للملك	-1528
▁آبائهم	-1529
▁الجنوب	-1530
▁بالنار	-1531
قين	-1532
وفا	-1533
▁مد	-1534
▁نق	-1535
برون	-1536
ربعام	-1537
▁اجاب	-1538
▁عمون	-1539
▁قالوا	-1540
▁ملكوت	-1541
▁وانتم	-1542
▁الحياة	-1543
بير	-1544
▁فق	-1545
▁فقط	-1546
▁والر	-1547
▁لانفس	-1548
ئر	-1549
الس	-1550
بوا	-1551
▁تغ	-1552
▁حس	-1553
▁قا	-1554
هرون	-1555
▁ثمر	-1556
▁عدد	-1557
▁للا	-1558
▁ونا	-1559
▁ويا	-1560
▁اخوت	-1561
▁البا	-1562
▁صارت	-1563
▁والس	-1564
▁الايمان	-1565
ربا	-1566
▁شف	-1567
▁ابد	-1568
▁تست	-1569
▁ليت	-1570
▁ورج	-1571
▁بنات	-1572
▁نصيب	-1573
▁واسم	-1574
▁وصعد	-1575
▁ومات	-1576
▁الدهر	-1577
▁الليل	-1578
▁عبيده	-1579
▁لنفسك	-1580
▁المقدس	-1581
بني	-1582
يسو	-1583
يدون	-1584
▁بحسب	-1585
▁الصباح	-1586
▁كثيرين	-1587
جار	-1588
زيت	-1589
فاط	-1590
كمل	-1591
▁حر	-1592
▁خذ	-1593
ريسي	-1594
▁بكر	-1595
▁مياه	-1596
▁والرب	-1597
اع	-1598
بعة	-1599
داس	-1600
كرا	-1601
ناك	-1602
نيا	-1603
يدا	-1604
▁يؤ	-1605
ربون	-1606
▁نبو	-1607
▁ويق	-1608
▁عوضا	-1609
▁واخبر	-1610
▁المصري	-1611
طه	-1612
هائم	-1613
▁اعلم	-1614
▁العد	-1615
▁داخل	-1616
▁جميعا	-1617
▁عظيما	-1618
بش	-1619
تون	-1620
▁ذكر	-1621
▁منا	-1622
▁موا	-1623
▁ورأ	-1624
▁اقام	-1625
▁شعبك	-1626
▁شعبه	-1627
▁ودخل	-1628
▁يرجع	-1629
▁الاله	-1630
▁والذي	-1631
▁اسمعوا	-1632
ئت	-1633
قيق	-1634
بعون	-1635
هادة	-1636
▁فيك	-1637
▁منك	-1638
▁ومس	-1639
▁اسحق	-1640
▁تصنع	-1641
▁حياة	-1642
▁السابع	-1643
طم	-1644
▁صد	-1645
▁جيش	-1646
▁لاس	-1647
▁مسا	-1648
▁ويد	-1649
▁ميرا	-1650
▁وبيت	-1651
▁وصايا	-1652
▁وفيما	-1653
▁انفسهم	-1654
يح	-1655
اهر	-1656
▁تد	-1657
▁خل	-1658
▁قص	-1659
▁بان	-1660
▁رفع	-1661
▁وعن	-1662
▁وسجد	-1663
▁الغنم	-1664
▁واربع	-1665
▁ابشالوم	-1666
عي	-1667
فك	-1668
ثال	-1669
جائ	-1670
ونة	-1671
▁اك	-1672
▁مز	-1673
▁شرا	-1674
▁واغ	-1675
▁المش	-1676
▁تقدم	-1677
▁السبت	-1678
▁عشيرة	-1679
▁عندما	-1680
▁عينيه	-1681
عر	-1682
عه	-1683
سلط	-1684
ضوا	-1685
غير	-1686
ملة	-1687
هنا	-1688
▁بد	-1689
▁سك	-1690
راعا	-1691
مهور	-1692
▁تعب	-1693
▁سقط	-1694
لاميذ	-1695
▁اذرع	-1696
▁فعلت	-1697
▁وهذا	-1698
▁يصعد	-1699
▁امامه	-1700
▁واجعل	-1701
اي	-1702
قى	-1703
راس	-1704
ياب	-1705
▁تل	-1706
ضايق	-1707
لائك	-1708
▁عهد	-1709
▁كلا	-1710
▁للخ	-1711
▁الاق	-1712
▁عيسو	-1713
▁وعند	-1714
▁يأكل	-1715
▁الاثم	-1716
▁خطايا	-1717
▁كنعان	-1718
▁لنفسه	-1719
▁الخارج	-1720
يها	-1721
▁عر	-1722
▁فاس	-1723
▁ويم	-1724
شافاط	-1725
▁وصنع	-1726
▁يقوم	-1727
▁امامي	-1728
▁جماعة	-1729
▁يهويا	-1730
▁النساء	-1731
▁وعشرين	-1732
▁يربعام	-1733
جة	-1734
طب	-1735
تنا	-1736
▁معل	-1737
▁ويح	-1738
يمالك	-1739
▁اذكر	-1740
▁تخرج	-1741
▁كنتم	-1742
▁تكلمت	-1743
▁ويقول	-1744
▁المسكن	-1745
▁المحرقة	-1746
▁يوناثان	-1747
وط	-1748
ركة	-1749
عدا	-1750
▁نف	-1751
▁يك	-1752
▁تخم	-1753
▁طوب	-1754
▁وعا	-1755
▁اجعل	-1756
▁انظر	-1757
▁اننا	-1758
▁لهما	-1759
▁ليست	-1760
▁والش	-1761
▁وامر	-1762
▁ودعا	-1763
▁الآخر	-1764
▁ايليا	-1765
▁ذراعا	-1766
▁مبارك	-1767
▁وهرون	-1768
صح	-1769
ارت	-1770
شان	-1771
واه	-1772
ودا	-1773
ولاد	-1774
▁زوج	-1775
▁لير	-1776
▁اسمك	-1777
▁عنده	-1778
▁فاذا	-1779
▁فدخل	-1780
▁الشرق	-1781
▁اولاد	-1782
▁ثيابه	-1783
▁الثلاث	-1784
▁كثيرون	-1785
مى	-1786
▁حن	-1787
▁لص	-1788
▁افت	-1789
▁تكن	-1790
▁مخت	-1791
▁الحص	-1792
▁فذهب	-1793
▁فقلت	-1794
▁مذبح	-1795
▁اخوته	-1796
▁الغرب	-1797
▁بالرب	-1798
▁جاءوا	-1799
▁محرقة	-1800
▁نبوخذ	-1801
▁وعشرون	-1802
عاة	-1803
▁احب	-1804
▁حما	-1805
▁فام	-1806
▁كنا	-1807
▁واث	-1808
▁بالم	-1809
▁تدخل	-1810
▁ساكن	-1811
▁القلب	-1812
▁لجميع	-1813
▁مقابل	-1814
▁مكانه	-1815
خرة	-1816
نوب	-1817
▁لآ	-1818
يسين	-1819
▁وعد	-1820
▁الكث	-1821
▁شيوخ	-1822
▁فدعا	-1823
▁والك	-1824
▁يذهب	-1825
▁الدار	-1826
▁الاموات	-1827
باؤ	-1828
لبس	-1829
▁دخ	-1830
▁اخي	-1831
▁حيا	-1832
▁فرح	-1833
▁قري	-1834
▁قوة	-1835
▁مرك	-1836
▁نزل	-1837
انيال	-1838
▁خمسة	-1839
▁زمان	-1840
▁لبيت	-1841
▁اسباط	-1842
عت	-1843
راخ	-1844
ظرت	-1845
▁رم	-1846
▁ضع	-1847
▁يل	-1848
▁اثم	-1849
▁ضيق	-1850
▁موت	-1851
▁ابنة	-1852
▁نحاس	-1853
▁وقتل	-1854
▁دائما	-1855
▁الكلمة	-1856
▁يقولون	-1857
تاز	-1858
وبة	-1859
وقد	-1860
▁حك	-1861
▁شه	-1862
عليم	-1863
▁اجت	-1864
▁تخا	-1865
▁الاس	-1866
▁بالك	-1867
▁بيتك	-1868
▁ويهو	-1869
▁ينبغي	-1870
▁والارض	-1871
تن	-1872
شت	-1873
عوا	-1874
▁قو	-1875
▁سيف	-1876
▁قطع	-1877
▁يرت	-1878
▁حكمة	-1879
▁لموسى	-1880
▁عشائرهم	-1881
قم	-1882
قه	-1883
زار	-1884
▁حم	-1885
رابا	-1886
▁آسا	-1887
▁امة	-1888
▁صاد	-1889
▁يفت	-1890
علمون	-1891
▁اخآب	-1892
▁اخطأ	-1893
▁المست	-1894
ره	-1895
طس	-1896
باب	-1897
روح	-1898
يوت	-1899
▁احت	-1900
▁الو	-1901
▁بام	-1902
▁صبا	-1903
▁فتح	-1904
▁فري	-1905
▁نصف	-1906
▁وصل	-1907
ذبيحة	-1908
▁تأتي	-1909
▁معنا	-1910
▁وحده	-1911
▁يأخذ	-1912
▁يوما	-1913
▁اياها	-1914
▁ايتها	-1915
▁النهار	-1916
▁امرأته	-1917
أكل	-1918
روا	-1919
ظلم	-1920
عها	-1921
يتم	-1922
▁بث	-1923
نيسة	-1924
▁ابا	-1925
▁فاب	-1926
▁يعل	-1927
▁الغد	-1928
▁امور	-1929
▁خيرا	-1930
▁مسكن	-1931
▁موضع	-1932
▁يحفظ	-1933
▁بالحق	-1934
▁تقدمة	-1935
▁صاحبه	-1936
▁فتكون	-1937
▁وهكذا	-1938
زن	-1939
صة	-1940
ثام	-1941
حون	-1942
نبأ	-1943
▁سن	-1944
ودية	-1945
▁اري	-1946
▁امت	-1947
▁وعب	-1948
▁ويب	-1949
▁يرى	-1950
▁آمين	-1951
▁فصعد	-1952
▁لهذا	-1953
▁يحمل	-1954
▁الكلد	-1955
▁وقالت	-1956
▁واللاو	-1957
▁ورؤساء	-1958
▁الهاوية	-1959
ئه	-1960
اف	-1961
جيء	-1962
▁زب	-1963
▁كف	-1964
رقات	-1965
مالك	-1966
▁صحي	-1967
▁طول	-1968
▁قدس	-1969
▁لاخ	-1970
▁لله	-1971
▁اسمي	-1972
▁بقية	-1973
▁سلاه	-1974
▁فضرب	-1975
▁فيكم	-1976
▁ههنا	-1977
▁وجهك	-1978
▁ورجع	-1979
▁واخرج	-1980
▁وايضا	-1981
▁ايديهم	-1982
ابر	-1983
الب	-1984
ربت	-1985
لاة	-1986
يقة	-1987
▁فض	-1988
فينة	-1989
ودين	-1990
▁هلم	-1991
لائكة	-1992
▁ابيك	-1993
▁اطلب	-1994
▁اعظم	-1995
▁اليم	-1996
▁برية	-1997
▁بصوت	-1998
▁والغ	-1999
▁آبائه	-2000
▁الجمع	-2001
▁ايمان	-2002
▁سلطان	-2003
▁عبيدك	-2004
▁قدامه	-2005
▁الملوك	-2006
زى	-2007
جون	-2008
جيل	-2009
سله	-2010
شيا	-2011
صاب	-2012
موت	-2013
▁بش	-2014
▁ته	-2015
▁عي	-2016
ائيل	-2017
▁دفع	-2018
▁مقد	-2019
▁مما	-2020
▁ليلا	-2021
▁ابواب	-2022
▁العهد	-2023
▁الجليل	-2024
طى	-2025
كي	-2026
حاز	-2027
طرد	-2028
عير	-2029
فان	-2030
▁جاد	-2031
▁صور	-2032
▁فين	-2033
▁لدى	-2034
▁ربنا	-2035
▁عمله	-2036
▁شريعة	-2037
▁واصعد	-2038
▁ونزلوا	-2039
رأ	-2040
اسا	-2041
جاب	-2042
رات	-2043
زوا	-2044
فرة	-2045
▁صل	-2046
▁آتي	-2047
▁وات	-2048
▁وتن	-2049
▁اصنع	-2050
▁اكون	-2051
▁بعضا	-2052
▁قليل	-2053
▁وبال	-2054
▁سمعوا	-2055
▁دانيال	-2056
▁قلوبهم	-2057
▁وكانوا	-2058
تب	-2059
رش	-2060
طق	-2061
ائه	-2062
انع	-2063
تيق	-2064
داب	-2065
داع	-2066
صنا	-2067
طير	-2068
▁عص	-2069
▁عق	-2070
▁لخ	-2071
اروا	-2072
لكوا	-2073
▁ثوب	-2074
▁جمع	-2075
▁للس	-2076
▁مخا	-2077
▁نصي	-2078
▁نوح	-2079
▁نور	-2080
▁القا	-2081
▁بنيه	-2082
▁خلاص	-2083
▁عهدا	-2084
▁لاوي	-2085
▁وجهي	-2086
▁ونحن	-2087
▁السجن	-2088
▁اربعين	-2089
▁السحاب	-2090
▁رأوبين	-2091
يني	-2092
▁ظل	-2093
ولون	-2094
ونني	-2095
▁ترت	-2096
▁عاد	-2097
▁عنك	-2098
▁قاد	-2099
▁لمن	-2100
▁آباء	-2101
▁ادخل	-2102
▁بالخ	-2103
▁بيده	-2104
▁فليس	-2105
▁يديه	-2106
▁يسقط	-2107
▁يسكن	-2108
▁الأمر	-2109
▁الحكمة	-2110
▁يسمعوا	-2111
▁العظيمة	-2112
حك	-2113
صم	-2114
اهل	-2115
بيب	-2116
قلا	-2117
موع	-2118
مير	-2119
ناه	-2120
▁تك	-2121
▁جا	-2122
داخل	-2123
ولدت	-2124
يئيل	-2125
▁تدع	-2126
▁دان	-2127
▁عنا	-2128
▁عندك	-2129
▁فسمع	-2130
▁كلهم	-2131
▁يسلم	-2132
▁عشرين	-2133
▁للشعب	-2134
▁ليكون	-2135
▁قلوبكم	-2136
▁واخوته	-2137
▁الرؤساء	-2138
جه	-2139
حب	-2140
غر	-2141
مز	-2142
لات	-2143
مائ	-2144
▁صن	-2145
▁مئ	-2146
حلوا	-2147
خذوا	-2148
▁بحر	-2149
▁بكم	-2150
▁لين	-2151
▁آباؤ	-2152
▁تطلب	-2153
▁شعوب	-2154
▁ففعل	-2155
▁نجسا	-2156
▁اضطجع	-2157
▁الخير	-2158
▁قائلة	-2159
▁وبقية	-2160
▁ارسلني	-2161
▁المغنين	-2162
ظل	-2163
اره	-2164
حوا	-2165
يتي	-2166
ذهبا	-2167
ودون	-2168
يران	-2169
▁اجي	-2170
▁حفظ	-2171
▁حكم	-2172
▁حلق	-2173
▁محل	-2174
▁ينا	-2175
▁اعرف	-2176
▁شجرة	-2177
▁صنعت	-2178
▁طوبى	-2179
رتفعات	-2180
▁اعطيت	-2181
▁حبرون	-2182
▁للحرب	-2183
خم	-2184
طن	-2185
بائح	-2186
▁حسن	-2187
▁ردي	-2188
▁فمه	-2189
▁ثياب	-2190
▁صالح	-2191
▁عنها	-2192
▁فكلم	-2193
▁لسان	-2194
▁وجوه	-2195
▁وعبد	-2196
▁وقلت	-2197
▁يقبل	-2198
▁الزيت	-2199
▁العمل	-2200
▁بعدما	-2201
▁الاولى	-2202
▁الساعة	-2203
▁الكلدانيين	-2204
▁الفلسطينيون	-2205
حص	-2206
الا	-2207
راد	-2208
شاي	-2209
طاء	-2210
فاة	-2211
ناص	-2212
وتك	-2213
يره	-2214
▁تذ	-2215
▁كس	-2216
كلمة	-2217
▁احش	-2218
▁بار	-2219
▁تخف	-2220
▁ثور	-2221
▁سبي	-2222
▁ليع	-2223
▁مرض	-2224
▁مني	-2225
▁يضع	-2226
▁اياه	-2227
▁تأكل	-2228
▁فمات	-2229
▁يكلم	-2230
▁الريح	-2231
▁المعد	-2232
▁وتصنع	-2233
▁الرابع	-2234
غا	-2235
غل	-2236
ائط	-2237
ائن	-2238
حدث	-2239
خور	-2240
صرف	-2241
فاء	-2242
▁بف	-2243
▁شد	-2244
ارجا	-2245
ملوا	-2246
نعمة	-2247
▁خشب	-2248
▁شمع	-2249
▁وتع	-2250
▁وحي	-2251
▁وفر	-2252
▁ارفع	-2253
▁اعطا	-2254
▁الحا	-2255
▁بارك	-2256
▁تسمع	-2257
▁جعلت	-2258
▁عنهم	-2259
▁غضبه	-2260
▁وحدث	-2261
▁يخطئ	-2262
▁اتكلم	-2263
▁الخبز	-2264
▁المجد	-2265
▁النفس	-2266
▁بكلام	-2267
▁بينهم	-2268
▁سمعان	-2269
▁لبنان	-2270
▁وتكلم	-2271
▁الفريسي	-2272
▁القديسين	-2273
ادع	-2274
دام	-2275
زيا	-2276
طاة	-2277
طهر	-2278
▁از	-2279
▁بب	-2280
تموه	-2281
جتمع	-2282
▁آمن	-2283
▁بشر	-2284
▁بعل	-2285
▁تمت	-2286
▁حار	-2287
▁سري	-2288
▁فيس	-2289
▁مزم	-2290
▁مكر	-2291
▁الوح	-2292
▁تخوم	-2293
▁خدمة	-2294
▁يثبت	-2295
▁يهلك	-2296
▁الخام	-2297
▁الههم	-2298
▁بجانب	-2299
▁رحمته	-2300
▁عندكم	-2301
▁فاخبر	-2302
▁وخمسة	-2303
▁الآباء	-2304
▁تعلمون	-2305
▁ابيمالك	-2306
▁الثلاثة	-2307
سى	-2308
بعض	-2309
خاي	-2310
▁لأ	-2311
تهما	-2312
وئيل	-2313
▁حجر	-2314
▁دعا	-2315
▁شري	-2316
▁طعا	-2317
▁قسم	-2318
▁ممل	-2319
▁نجس	-2320
▁ودع	-2321
ردخاي	-2322
▁اخيه	-2323
▁المخ	-2324
▁شعبا	-2325
▁عبدي	-2326
▁واله	-2327
▁ووقف	-2328
▁ينظر	-2329
▁اريحا	-2330
▁الفصح	-2331
▁النور	-2332
▁بجميع	-2333
▁ذبائح	-2334
▁كلامي	-2335
▁ميراث	-2336
▁الكتاب	-2337
▁مكتوبة	-2338
▁الاراضي	-2339
▁السفينة	-2340
▁يهوشافاط	-2341
فه	-2342
قض	-2343
بتد	-2344
ودي	-2345
يرون	-2346
▁بئر	-2347
▁حرا	-2348
▁سكن	-2349
▁علم	-2350
▁فمي	-2351
▁فهم	-2352
▁وها	-2353
▁ينت	-2354
▁احدا	-2355
▁اطلق	-2356
▁العش	-2357
▁باطل	-2358
▁بعيد	-2359
▁تنظر	-2360
▁شكيم	-2361
▁فاعط	-2362
▁فرجع	-2363
▁مدين	-2364
▁وابي	-2365
▁والص	-2366
▁وجدت	-2367
▁ونصف	-2368
▁سريعا	-2369
▁طريقه	-2370
▁فماذا	-2371
▁للذين	-2372
▁مزمور	-2373
▁انظروا	-2374
اتب	-2375
تهج	-2376
فهم	-2377
لاح	-2378
▁قط	-2379
راها	-2380
طفال	-2381
▁ارج	-2382
▁تقد	-2383
▁جئت	-2384
▁دور	-2385
▁راح	-2386
▁للج	-2387
▁وعش	-2388
▁ابتد	-2389
▁بيتا	-2390
▁دقيق	-2391
▁عندي	-2392
▁قدوس	-2393
▁مدخل	-2394
▁نساء	-2395
▁وشعب	-2396
▁يؤمن	-2397
▁يجعل	-2398
▁الجيش	-2399
▁الضرب	-2400
▁العلي	-2401
▁حينما	-2402
▁خارجا	-2403
▁معرفة	-2404
▁فلماذا	-2405
▁البهائم	-2406
▁الشريعة	-2407
▁المصريين	-2408
▁نبوخذناص	-2409
خدم	-2410
دعو	-2411
طلا	-2412
عدة	-2413
ومي	-2414
▁جث	-2415
▁جس	-2416
▁حو	-2417
▁رد	-2418
▁شم	-2419
▁ضد	-2420
آبائ	-2421
الوا	-2422
كثرة	-2423
▁ستة	-2424
▁شبه	-2425
▁فصا	-2426
▁مطر	-2427
▁نسل	-2428
▁نعم	-2429
▁وله	-2430
▁ابصر	-2431
▁حسنا	-2432
▁دمشق	-2433
▁فنزل	-2434
▁ميخا	-2435
▁والآ	-2436
▁والث	-2437
▁ورفع	-2438
▁وقام	-2439
▁يقال	-2440
▁اثنين	-2441
▁اياما	-2442
▁بينكم	-2443
▁حجارة	-2444
▁وبارك	-2445
▁وهوذا	-2446
▁ويجعل	-2447
▁الملاك	-2448
▁التلاميذ	-2449
صى	-2450
ارح	-2451
ودة	-2452
▁رآ	-2453
▁عج	-2454
▁فش	-2455
▁كب	-2456
ارية	-2457
انان	-2458
بعام	-2459
نتين	-2460
▁سلم	-2461
▁كام	-2462
▁للت	-2463
▁وبك	-2464
▁وجل	-2465
▁ياب	-2466
▁يحب	-2467
▁افضل	-2468
▁المو	-2469
▁الهه	-2470
▁بالت	-2471
▁تموت	-2472
▁خرجت	-2473
▁لصوت	-2474
▁نارا	-2475
▁وسكن	-2476
▁وولد	-2477
▁ياكل	-2478
▁يزرع	-2479
▁ينزل	-2480
▁الخمر	-2481
▁باشان	-2482
▁طعاما	-2483
▁الداخل	-2484
▁السلام	-2485
يع	-2486
ائد	-2487
اهد	-2488
دوم	-2489
فير	-2490
ناح	-2491
▁بص	-2492
▁جز	-2493
▁قت	-2494
▁لش	-2495
▁هد	-2496
ديان	-2497
كريا	-2498
لاطس	-2499
▁اضط	-2500
▁خدم	-2501
▁نجا	-2502
▁وحا	-2503
▁يكر	-2504
ارحها	-2505
▁آنية	-2506
▁ابنك	-2507
▁ايوب	-2508
▁بنين	-2509
▁مرات	-2510
▁وبنى	-2511
▁ابناء	-2512
▁بعضهم	-2513
▁جمهور	-2514
▁قليلا	-2515
▁لامام	-2516
▁والام	-2517
▁وسطهم	-2518
▁الخيمة	-2519
▁وهؤلاء	-2520
▁يكونون	-2521
▁المملكة	-2522
▁لاسرائيل	-2523
يط	-2524
ائي	-2525
تهز	-2526
هور	-2527
▁صف	-2528
▁نذ	-2529
الحة	-2530
ديدا	-2531
ذابح	-2532
نيمة	-2533
يرود	-2534
▁بقر	-2535
▁تعط	-2536
▁خلا	-2537
▁رائ	-2538
▁زيت	-2539
▁ظهر	-2540
▁قدم	-2541
▁ميت	-2542
▁نير	-2543
▁وبا	-2544
▁وتش	-2545
▁وكث	-2546
▁يصل	-2547
انسان	-2548
▁اثنا	-2549
▁تذهب	-2550
▁سرور	-2551
▁سيده	-2552
▁شاقل	-2553
▁معها	-2554
▁وارت	-2555
▁ياتي	-2556
▁الجيل	-2557
▁فرائض	-2558
▁فريضة	-2559
▁ناموس	-2560
▁نهارا	-2561
▁وبنيه	-2562
▁وتقدم	-2563
▁الظلمة	-2564
▁بالروح	-2565
▁تقولون	-2566
▁اللاويون	-2567
آش	-2568
ئون	-2569
نات	-2570
وكم	-2571
▁وو	-2572
جائب	-2573
واتي	-2574
▁ألم	-2575
▁جال	-2576
▁حقل	-2577
▁سرا	-2578
▁ففي	-2579
▁للع	-2580
▁ملت	-2581
▁يقت	-2582
▁اناس	-2583
▁بالع	-2584
▁فكيف	-2585
▁قريب	-2586
▁ليكن	-2587
▁ملكه	-2588
▁وابن	-2589
▁وعبر	-2590
▁ياهو	-2591
▁ابنير	-2592
▁افواه	-2593
▁الرسل	-2594
▁السور	-2595
▁الضيق	-2596
▁المرك	-2597
▁اليشع	-2598
▁وسطها	-2599
▁يوشيا	-2600
▁المجمع	-2601
▁انفسكم	-2602
▁بيلاطس	-2603
▁فصاعدا	-2604
نس	-2605
بعه	-2606
رعى	-2607
ساؤ	-2608
يبة	-2609
▁رف	-2610
▁قي	-2611
▁كع	-2612
رامة	-2613
▁حقا	-2614
▁حلف	-2615
▁زرع	-2616
▁طرف	-2617
▁غدا	-2618
▁قبر	-2619
▁هما	-2620
▁يخا	-2621
فتالي	-2622
▁بنفس	-2623
▁تصير	-2624
▁حامل	-2625
▁زوجة	-2626
▁صنعة	-2627
▁قرية	-2628
▁مريم	-2629
▁ولدت	-2630
▁يخبر	-2631
▁يقيم	-2632
▁العدو	-2633
▁بعضكم	-2634
▁مملكة	-2635
▁التراب	-2636
▁السبعة	-2637
▁الليلة	-2638
▁انسانا	-2639
▁مردخاي	-2640
▁ارتحلوا	-2641
▁الساكنين	-2642
مح	-2643
بلت	-2644
حمة	-2645
روف	-2646
مله	-2647
▁اض	-2648
▁فخ	-2649
▁فغ	-2650
▁وذ	-2651
ريبة	-2652
زريا	-2653
قامة	-2654
كونة	-2655
لمان	-2656
واحد	-2657
▁اجن	-2658
▁بأس	-2659
▁برج	-2660
▁حور	-2661
▁ذاك	-2662
▁قيا	-2663
▁محب	-2664
▁مرة	-2665
▁مرت	-2666
▁مشي	-2667
▁وتح	-2668
▁يخت	-2669
▁ابوه	-2670
▁احفظ	-2671
▁القل	-2672
▁حولي	-2673
▁خمرا	-2674
▁رجاء	-2675
▁علمت	-2676
▁عملت	-2677
▁عنكم	-2678
▁فانا	-2679
▁فوجد	-2680
▁لملك	-2681
▁يخدم	-2682
▁ارضهم	-2683
▁البقر	-2684
▁السبي	-2685
▁صدقيا	-2686
▁والاب	-2687
▁وثمان	-2688
▁الزمان	-2689
▁الوادي	-2690
▁اليمنى	-2691
▁ويهوذا	-2692
▁حواليها	-2693
▁بالايمان	-2694
▁الاموريين	-2695
رقا	-2696
صيا	-2697
ضرع	-2698
غوا	-2699
فرز	-2700
كله	-2701
لمي	-2702
▁أف	-2703
▁شق	-2704
كماء	-2705
▁رفض	-2706
▁سور	-2707
▁لاج	-2708
▁هام	-2709
▁وقف	-2710
▁يتم	-2711
▁ارضك	-2712
▁الجز	-2713
▁الفق	-2714
▁بزيت	-2715
▁رسلا	-2716
▁نفوس	-2717
▁هيكل	-2718
▁واقف	-2719
▁وسطك	-2720
▁وصار	-2721
▁ابرام	-2722
▁اقوال	-2723
▁بسلام	-2724
▁فكانت	-2725
▁وادخل	-2726
▁القائل	-2727
▁المحبة	-2728
▁رحبعام	-2729
▁وثلاثين	-2730
أن	-2731
بق	-2732
سط	-2733
سين	-2734
ناس	-2735
وائ	-2736
ويا	-2737
شرين	-2738
طيور	-2739
واعد	-2740
▁ألا	-2741
▁جند	-2742
▁شوا	-2743
▁صرت	-2744
▁فيح	-2745
▁منت	-2746
▁واص	-2747
▁وقر	-2748
▁ينج	-2749
▁اباه	-2750
▁العب	-2751
▁بالب	-2752
▁بذهب	-2753
▁بركة	-2754
▁رأوا	-2755
▁صراخ	-2756
▁ضربة	-2757
▁كتاب	-2758
▁لرجل	-2759
▁وآخر	-2760
▁ورأى	-2761
▁ومتى	-2762
▁يدعى	-2763
▁يفهم	-2764
▁الابن	-2765
▁السفر	-2766
▁الصبي	-2767
▁اولئك	-2768
▁بلعام	-2769
▁وجاءوا	-2770
▁الشهادة	-2771
▁الكنيسة	-2772
▁لانفسهم	-2773
▁المستقيم	-2774
قص	-2775
لع	-2776
يظ	-2777
أله	-2778
تاة	-2779
ثون	-2780
داد	-2781
شيء	-2782
طال	-2783
كلت	-2784
ورح	-2785
▁أس	-2786
▁نت	-2787
▁وض	-2788
بيدا	-2789
تيقظ	-2790
جدون	-2791
صرون	-2792
وجوه	-2793
▁خوف	-2794
▁شهر	-2795
▁ليش	-2796
▁ملج	-2797
▁ابوا	-2798
▁ارضه	-2799
▁اصاب	-2800
▁اقسم	-2801
▁تحفظ	-2802
▁فأخذ	-2803
▁فاجت	-2804
▁فيما	-2805
▁ودفع	-2806
▁ودفن	-2807
▁وطلب	-2808
▁يذبح	-2809
▁التخم	-2810
▁الثام	-2811
▁باسمي	-2812
▁بكثرة	-2813
▁عبيدا	-2814
▁فتقدم	-2815
▁كلامك	-2816
▁مملوء	-2817
▁هيرود	-2818
▁وراءه	-2819
▁الشيوخ	-2820
▁يستطيع	-2821
▁يسمعون	-2822
▁التابوت	-2823
▁الثانية	-2824
اج	-2825
بأ	-2826
ضت	-2827
ائح	-2828
بيح	-2829
تاج	-2830
مرة	-2831
▁صغ	-2832
▁مك	-2833
ملوك	-2834
هادا	-2835
▁تبر	-2836
▁ترى	-2837
▁خيم	-2838
▁دار	-2839
▁طال	-2840
▁فات	-2841
▁وكر	-2842
▁ويغ	-2843
سرحها	-2844
ماعيل	-2845
وانات	-2846
▁بيتي	-2847
▁تجعل	-2848
▁تذكر	-2849
▁ثورا	-2850
▁طعام	-2851
▁عامل	-2852
▁كثرة	-2853
▁وأتى	-2854
▁وقطع	-2855
▁ارتفع	-2856
▁اعداء	-2857
▁الكنع	-2858
▁لآبائ	-2859
▁لابان	-2860
▁نهاية	-2861
▁الغلام	-2862
▁يهوياداع	-2863
باش	-2864
حوت	-2865
صور	-2866
عين	-2867
نائ	-2868
يدك	-2869
يفة	-2870
▁اط	-2871
▁حج	-2872
▁غر	-2873
جدوا	-2874
راعي	-2875
▁أتى	-2876
▁اور	-2877
▁حشب	-2878
▁حمل	-2879
▁دين	-2880
▁غنم	-2881
▁فرأ	-2882
▁نهر	-2883
برياء	-2884
▁اخاه	-2885
▁اعطى	-2886
▁القت	-2887
▁بالس	-2888
▁حديد	-2889
▁عبده	-2890
▁فاست	-2891
▁قالت	-2892
▁ليهو	-2893
▁نسلك	-2894
▁نعلم	-2895
▁وحين	-2896
▁وسبع	-2897
▁يرفع	-2898
▁اجيال	-2899
▁احكام	-2900
▁اخبار	-2901
▁اخوتي	-2902
▁اصحاب	-2903
▁البار	-2904
▁الراس	-2905
▁العبد	-2906
▁القفر	-2907
▁الينا	-2908
▁رئيسا	-2909
▁واذهب	-2910
▁اعدائي	-2911
▁الآلهة	-2912
▁الصالح	-2913
▁الكروب	-2914
▁تسمعوا	-2915
▁يطلبون	-2916
▁السلامة	-2917
▁الشيطان	-2918
▁ومسرحها	-2919
▁اليهودية	-2920
▁ومسارحها	-2921
دب	-2922
ذن	-2923
شى	-2924
هي	-2925
ؤيا	-2926
ارد	-2927
جلة	-2928
طلع	-2929
عله	-2930
▁حض	-2931
▁رع	-2932
▁كه	-2933
جوني	-2934
حديد	-2935
عمال	-2936
وصية	-2937
يدهم	-2938
▁آله	-2939
▁ألي	-2940
▁بري	-2941
▁حرب	-2942
▁خال	-2943
▁سوف	-2944
▁سين	-2945
▁عار	-2946
▁عال	-2947
▁فخا	-2948
▁فخر	-2949
▁فلل	-2950
▁للش	-2951
▁متم	-2952
▁وصر	-2953
▁يعط	-2954
رائضي	-2955
▁احمد	-2956
▁اسفل	-2957
▁اصنا	-2958
▁العم	-2959
▁القر	-2960
▁المج	-2961
▁بماء	-2962
▁جبعة	-2963
▁سدوم	-2964
▁عظام	-2965
▁فأتى	-2966
▁فيهم	-2967
▁ورائ	-2968
▁وسقط	-2969
▁وعرض	-2970
▁يضرب	-2971
▁الثور	-2972
▁الساد	-2973
▁ثانية	-2974
▁جديدة	-2975
▁خرابا	-2976
▁رجليه	-2977
▁غنيمة	-2978
▁قدامك	-2979
▁واعطى	-2980
▁الخامس	-2981
▁الضربة	-2982
▁اللذين	-2983
▁ثلاثين	-2984
خة	-2985
تهن	-2986
حور	-2987
وار	-2988
وعة	-2989
▁أم	-2990
▁شل	-2991
حاكم	-2992
يهما	-2993
▁اصل	-2994
▁عصا	-2995
▁فهي	-2996
▁قيل	-2997
▁لعب	-2998
▁مذب	-2999
▁ومي	-3000
▁يرد	-3001
▁يعد	-3002
▁يقف	-3003
ذبائح	-3004
▁انقذ	-3005
▁تأخذ	-3006
▁جبال	-3007
▁خربة	-3008
▁راسي	-3009
▁قدمي	-3010
▁وزنة	-3011
▁يترك	-3012
▁يخلص	-3013
▁يصير	-3014
▁استير	-3015
▁افكار	-3016
▁الحجر	-3017
▁الغضب	-3018
▁باطلا	-3019
▁رائحة	-3020
▁عملها	-3021
▁قربان	-3022
▁الكاتب	-3023
▁بالحري	-3024
▁تكونوا	-3025
صو	-3026
قف	-3027
بها	-3028
تيه	-3029
سون	-3030
قلب	-3031
كسر	-3032
▁آه	-3033
▁تي	-3034
▁مؤ	-3035
ابرة	-3036
صايا	-3037
فتخر	-3038
ونان	-3039
ونهم	-3040
▁ارى	-3041
▁بيس	-3042
▁خائ	-3043
▁طرد	-3044
▁عدا	-3045
▁فرا	-3046
▁للب	-3047
▁للغ	-3048
▁وبر	-3049
▁الجب	-3050
▁العل	-3051
▁انته	-3052
▁تثبت	-3053
▁خروج	-3054
▁كهنة	-3055
▁لاست	-3056
▁وعاش	-3057
▁الخيل	-3058
▁الولد	-3059
▁تتكلم	-3060
▁سلامة	-3061
▁مساكن	-3062
▁واعطي	-3063
▁يعطيك	-3064
▁الجالس	-3065
▁القدوس	-3066
▁القضاء	-3067
▁امامهم	-3068
▁محرقات	-3069
▁الاقداس	-3070
▁الاولاد	-3071
▁الواحدة	-3072
اعد	-3073
حدر	-3074
دان	-3075
شوا	-3076
فني	-3077
ولة	-3078
▁آت	-3079
انها	-3080
عياء	-3081
وتهم	-3082
▁آية	-3083
▁ابو	-3084
▁اجر	-3085
▁ارد	-3086
▁اشت	-3087
▁حمو	-3088
▁شرك	-3089
▁صلا	-3090
▁فاح	-3091
▁فمك	-3092
▁كمن	-3093
▁لتس	-3094
▁مخل	-3095
▁نبي	-3096
▁ومت	-3097
▁يخل	-3098
▁يفن	-3099
فرعون	-3100
▁آذان	-3101
▁اشهر	-3102
▁اشير	-3103
▁بهذه	-3104
▁ترجع	-3105
▁جسده	-3106
▁طرقه	-3107
▁عرفت	-3108
▁فسقط	-3109
▁مملك	-3110
▁يجلس	-3111
▁ابدية	-3112
▁العين	-3113
▁الفهم	-3114
▁القبر	-3115
▁لهرون	-3116
▁هامان	-3117
▁وتجعل	-3118
▁اذهبوا	-3119
▁اشعياء	-3120
▁الكبير	-3121
▁النحاس	-3122
▁تعملوا	-3123
▁حواليه	-3124
▁كلاهما	-3125
▁وقراها	-3126
▁المرتفعات	-3127
دخ	-3128
ضح	-3129
فى	-3130
جال	-3131
راق	-3132
عرف	-3133
لمه	-3134
ملأ	-3135
هات	-3136
ونك	-3137
يوش	-3138
▁جم	-3139
▁خي	-3140
▁غل	-3141
ائهم	-3142
حرقة	-3143
زعزع	-3144
ونوا	-3145
▁خمر	-3146
▁شعر	-3147
▁صلب	-3148
▁فرق	-3149
▁مضى	-3150
▁وتخ	-3151
▁وتي	-3152
▁وخر	-3153
▁ورؤ	-3154
▁ولت	-3155
ياطين	-3156
▁الرس	-3157
▁الوع	-3158
▁بنوه	-3159
▁دخول	-3160
▁عالم	-3161
▁غضبي	-3162
▁فارس	-3163
▁لابي	-3164
▁وصية	-3165
▁يحسن	-3166
▁اجتمع	-3167
▁اسماء	-3168
▁العبر	-3169
▁خمسين	-3170
▁راحيل	-3171
▁شاقلا	-3172
▁لنفسي	-3173
▁مذبحا	-3174
▁وأتوا	-3175
▁واحرق	-3176
▁وهناك	-3177
▁يبارك	-3178
▁هيرودس	-3179
▁وصاياك	-3180
▁المسكونة	-3181
▁واورشليم	-3182
ثة	-3183
زة	-3184
ائم	-3185
بكة	-3186
ديا	-3187
ديب	-3188
ضاة	-3189
طيب	-3190
قتل	-3191
ومة	-3192
▁لج	-3193
▁يط	-3194
فعله	-3195
▁اعت	-3196
▁بدم	-3197
▁تقل	-3198
▁دعي	-3199
▁دما	-3200
▁عيد	-3201
▁فدع	-3202
▁قدر	-3203
▁كوش	-3204
▁ليم	-3205
▁مسر	-3206
▁مفت	-3207
▁ورب	-3208
▁وسا	-3209
▁ولب	-3210
▁يحل	-3211
▁ابغض	-3212
▁اريد	-3213
▁بغتة	-3214
▁جاءت	-3215
▁شمال	-3216
▁عملا	-3217
▁عينه	-3218
▁للام	-3219
▁وفعل	-3220
▁ومعه	-3221
▁يطلق	-3222
▁البشر	-3223
▁الخمس	-3224
▁الردي	-3225
▁المنا	-3226
▁صباحا	-3227
▁مشورة	-3228
▁واسحق	-3229
▁وبنوه	-3230
▁وبيوت	-3231
▁وسبعة	-3232
▁الرئيس	-3233
▁النعمة	-3234
▁انبياء	-3235
▁انفسنا	-3236
▁بالكذب	-3237
▁نفتالي	-3238
▁وخمسين	-3239
▁ويعقوب	-3240
▁اسماعيل	-3241
▁الجلجال	-3242
▁وثلاثون	-3243
▁المعدودون	-3244
اة	-3245
غت	-3246
اكر	-3247
بيا	-3248
بيع	-3249
تاف	-3250
دفع	-3251
ذنب	-3252
رسل	-3253
زوج	-3254
ضون	-3255
هام	-3256
واء	-3257
واح	-3258
وعا	-3259
▁تص	-3260
▁جر	-3261
▁ده	-3262
▁رك	-3263
▁فآ	-3264
لكون	-3265
ناها	-3266
ولوا	-3267
وهما	-3268
▁ابت	-3269
▁اتى	-3270
▁اجد	-3271
▁اذن	-3272
▁امس	-3273
▁حدث	-3274
▁ظلم	-3275
▁وتب	-3276
▁وتت	-3277
▁ورا	-3278
▁وست	-3279
▁اراد	-3280
▁اسما	-3281
▁اكتب	-3282
▁الجد	-3283
▁السب	-3284
▁السر	-3285
▁بشيء	-3286
▁تعطي	-3287
▁رحمة	-3288
▁شريع	-3289
▁فصرخ	-3290
▁لستم	-3291
▁لشعب	-3292
▁محبة	-3293
▁وارض	-3294
▁والي	-3295
▁وذبح	-3296
▁وسار	-3297
▁ولكل	-3298
انبياء	-3299
▁ابتدأ	-3300
▁البعل	-3301
▁الجوع	-3302
▁الدائ	-3303
▁المعز	-3304
▁بكلمة	-3305
▁كلامه	-3306
▁لملوك	-3307
▁ملعون	-3308
▁الصغير	-3309
▁المشرق	-3310
▁الاشياء	-3311
▁التقدمة	-3312
طح	-3313
عن	-3314
غة	-3315
كة	-3316
امة	-3317
ثار	-3318
زون	-3319
طمئ	-3320
لوا	-3321
منا	-3322
▁أه	-3323
▁ثر	-3324
▁لغ	-3325
ذراء	-3326
واري	-3327
يدوا	-3328
▁آكل	-3329
▁ادع	-3330
▁اعد	-3331
▁افس	-3332
▁تعد	-3333
▁جلد	-3334
▁خاد	-3335
▁فتن	-3336
▁نقي	-3337
▁وسل	-3338
▁وعظ	-3339
▁ولو	-3340
▁ونع	-3341
▁اجمع	-3342
▁اخوة	-3343
▁اسرع	-3344
▁الما	-3345
▁ذنوب	-3346
▁صاحب	-3347
▁صوته	-3348
▁عبدا	-3349
▁عهدي	-3350
▁فسأل	-3351
▁قرون	-3352
▁مجده	-3353
▁وجمع	-3354
▁ويست	-3355
▁يبغض	-3356
▁يحيا	-3357
▁يقدم	-3358
▁يقطع	-3359
▁رحمتك	-3360
▁شهادة	-3361
▁فاخرج	-3362
▁للقاء	-3363
▁ملتوت	-3364
▁وابتد	-3365
▁وانظر	-3366
▁وسكان	-3367
▁الجموع	-3368
▁القتال	-3369
▁امامكم	-3370
▁وخمسون	-3371
▁الابواب	-3372
▁الغرباء	-3373
▁لانفسكم	-3374
▁واللاويين	-3375
ؤه	-3376
شة	-3377
ضم	-3378
طت	-3379
برر	-3380
تلئ	-3381
حار	-3382
روس	-3383
سيس	-3384
صرة	-3385
كور	-3386
ليا	-3387
مدة	-3388
نطة	-3389
يلي	-3390
يور	-3391
▁لق	-3392
▁يث	-3393
اهرة	-3394
دعون	-3395
سبوك	-3396
▁خلق	-3397
▁ذبح	-3398
▁سأل	-3399
▁سار	-3400
▁فهل	-3401
▁نظر	-3402
▁وسب	-3403
▁وغش	-3404
▁يجب	-3405
▁اترك	-3406
▁اثما	-3407
▁احسن	-3408
▁اذني	-3409
▁بفرح	-3410
▁خيام	-3411
▁روحي	-3412
▁عابر	-3413
▁فصار	-3414
▁قادش	-3415
▁كالب	-3416
▁كاهن	-3417
▁كتبت	-3418
▁مبغض	-3419
▁وأمر	-3420
▁وكما	-3421
▁يحسب	-3422
▁يفرح	-3423
▁ابينا	-3424
▁ارسلت	-3425
▁ارسله	-3426
▁البكر	-3427
▁الجلد	-3428
▁القاد	-3429
▁القتل	-3430
▁الكذب	-3431
▁الموج	-3432
▁الولا	-3433
▁بالاق	-3434
▁بيسوع	-3435
▁جبعون	-3436
▁خرجوا	-3437
▁مقدسة	-3438
▁والمر	-3439
▁الرامة	-3440
▁القدير	-3441
▁جبابرة	-3442
▁وبينما	-3443
▁الابدية	-3444
▁الثالثة	-3445
▁الحكماء	-3446
▁المسكين	-3447
▁الملائكة	-3448
▁واسرائيل	-3449
▁الكنعانيين	-3450
جف	-3451
ظة	-3452
قك	-3453
نط	-3454
خذه	-3455
زلا	-3456
زير	-3457
صري	-3458
عنة	-3459
فيض	-3460
هاب	-3461
هوة	-3462
▁جن	-3463
▁عط	-3464
▁لد	-3465
▁يذ	-3466
▁اضع	-3467
▁بحد	-3468
▁خيل	-3469
▁كذب	-3470
▁لوح	-3471
▁وتغ	-3472
▁ونج	-3473
▁يمس	-3474
عازار	-3475
ماليق	-3476
▁ألعل	-3477
▁احكا	-3478
▁الال	-3479
▁التم	-3480
▁اليا	-3481
▁انزل	-3482
▁تصعد	-3483
▁جالس	-3484
▁حماة	-3485
▁دخلت	-3486
▁ساعة	-3487
▁طاهر	-3488
▁لاله	-3489
▁وصوت	-3490
▁وقلب	-3491
▁ومضى	-3492
▁يظهر	-3493
▁يعود	-3494
▁يغسل	-3495
▁يفتح	-3496
▁اثنان	-3497
▁الآتي	-3498
▁امصيا	-3499
▁ايامه	-3500
▁بماذا	-3501
▁حشبون	-3502
▁شمعون	-3503
▁عشرون	-3504
▁مديان	-3505
▁مذابح	-3506
▁ممالك	-3507
▁وكذلك	-3508
▁يأتون	-3509
▁يتنبأ	-3510
▁ابوابك	-3511
▁تخافوا	-3512
▁جميعكم	-3513
▁زبولون	-3514
▁فاجتمع	-3515
▁وسجدوا	-3516
▁الارامي	-3517
▁والكهنة	-3518
ثرة	-3519
خرى	-3520
ديك	-3521
زين	-3522
سلا	-3523
فعة	-3524
لون	-3525
ماث	-3526
ولي	-3527
▁تؤ	-3528
▁ذو	-3529
▁نث	-3530
بارك	-3531
▁برا	-3532
▁خبر	-3533
▁دمه	-3534
▁رعب	-3535
▁ريح	-3536
▁سبب	-3537
▁سبت	-3538
▁سخط	-3539
▁لتم	-3540
▁ولن	-3541
▁ومر	-3542
▁يتع	-3543
▁يجا	-3544
▁يلق	-3545
وريين	-3546
▁آحاز	-3547
▁ابيا	-3548
▁احدى	-3549
▁الجه	-3550
▁الخا	-3551
▁بالج	-3552
▁بدون	-3553
▁بلاد	-3554
▁تترك	-3555
▁رفعت	-3556
▁سائر	-3557
▁سحاب	-3558
▁صانع	-3559
▁لبعض	-3560
▁لحما	-3561
▁وتحت	-3562
▁وجلس	-3563
▁ومجد	-3564
▁ونظر	-3565
▁ويضع	-3566
▁ياخذ	-3567
▁يمكن	-3568
▁اقداس	-3569
▁الاسد	-3570
▁التاس	-3571
▁جالسا	-3572
▁زكريا	-3573
▁سمعتم	-3574
▁علامة	-3575
▁كاملا	-3576
▁كرسيه	-3577
▁نصيبا	-3578
▁والحق	-3579
▁وسطكم	-3580
▁وسمعت	-3581
▁ولكنه	-3582
▁وملوك	-3583
▁وولدت	-3584
▁اخوتهم	-3585
▁ارجعوا	-3586
▁الاربع	-3587
▁الجاهل	-3588
▁الغريب	-3589
▁القاتل	-3590
▁عليهما	-3591
▁والشعب	-3592
▁وصاياه	-3593
▁يأكلون	-3594
▁يزرعيل	-3595
▁الاحياء	-3596
▁العازار	-3597
▁المصفاة	-3598
▁للانسان	-3599
▁يتكلمون	-3600
▁لابراهيم	-3601
تت	-3602
صق	-3603
صن	-3604
عى	-3605
لث	-3606
ئين	-3607
ائك	-3608
راي	-3609
سكر	-3610
سها	-3611
ضيب	-3612
كرم	-3613
كنا	-3614
نجس	-3615
وقف	-3616
▁بأ	-3617
▁جت	-3618
▁زا	-3619
بائل	-3620
شيوخ	-3621
صيان	-3622
يلون	-3623
▁ابل	-3624
▁تضع	-3625
▁تعل	-3626
▁تقو	-3627
▁حبي	-3628
▁عاب	-3629
▁عري	-3630
▁فاذ	-3631
▁هرب	-3632
▁واف	-3633
▁وتق	-3634
▁ومش	-3635
▁ونس	-3636
▁ويز	-3637
▁يبق	-3638
ساكين	-3639
▁امتل	-3640
▁ترون	-3641
▁تهلك	-3642
▁رجلي	-3643
▁صوتا	-3644
▁مزمع	-3645
▁منظر	-3646
▁والز	-3647
▁وحسب	-3648
▁يبني	-3649
▁يشرب	-3650
▁ابديا	-3651
▁السبع	-3652
▁الصخر	-3653
▁الظلم	-3654
▁اوريا	-3655
▁باسمك	-3656
▁شمشون	-3657
▁عيناك	-3658
▁فيقول	-3659
▁للرجل	-3660
▁نفسها	-3661
▁واعطا	-3662
▁وتقول	-3663
▁ويأخذ	-3664
▁الرؤيا	-3665
▁الرداء	-3666
▁الكتبة	-3667
▁المؤمن	-3668
▁رؤوسهم	-3669
▁فرائضي	-3670
▁ميراثا	-3671
▁واضطجع	-3672
▁واربعين	-3673
حو	-3674
رث	-3675
ظن	-3676
فخ	-3677
كف	-3678
بته	-3679
رفض	-3680
فوس	-3681
كما	-3682
مرك	-3683
وير	-3684
يار	-3685
ينه	-3686
▁بآ	-3687
▁ذي	-3688
▁صو	-3689
▁نش	-3690
راري	-3691
ومون	-3692
يتين	-3693
▁بنى	-3694
▁تجد	-3695
▁تنج	-3696
▁رفي	-3697
▁سلك	-3698
▁فتم	-3699
▁فكل	-3700
▁مسح	-3701
▁ومح	-3702
▁يقر	-3703
▁اثني	-3704
▁اجنا	-3705
▁ارجل	-3706
▁اسأل	-3707
▁اعمل	-3708
▁الوس	-3709
▁برجل	-3710
▁تؤمن	-3711
▁تشدد	-3712
▁تعال	-3713
▁حاشا	-3714
▁سارة	-3715
▁صورة	-3716
▁فدور	-3717
▁قتلى	-3718
▁مسيح	-3719
▁والل	-3720
▁وامت	-3721
▁وطرح	-3722
▁ووجد	-3723
▁يحكم	-3724
▁يرسل	-3725
▁يمسك	-3726
▁يوآش	-3727
▁آخرين	-3728
▁اخزيا	-3729
▁اسمها	-3730
▁الدين	-3731
▁اللحم	-3732
▁بالله	-3733
▁حيثما	-3734
▁سيحون	-3735
▁صادوق	-3736
▁كلمات	-3737
▁واقطع	-3738
▁والمع	-3739
▁ولاجل	-3740
▁استيقظ	-3741
▁الحكيم	-3742
▁عماليق	-3743
▁فكانوا	-3744
▁ليعقوب	-3745
▁مدينته	-3746
▁والذهب	-3747
▁والفضة	-3748
▁وذبائح	-3749
▁اعدائهم	-3750
▁الحجارة	-3751
▁السابعة	-3752
▁المعرفة	-3753
▁واربعون	-3754
كس	-3755
ائب	-3756
اصي	-3757
تلع	-3758
حية	-3759
سيا	-3760
عدل	-3761
كير	-3762
ماد	-3763
ملت	-3764
وآب	-3765
ومه	-3766
ويل	-3767
▁تط	-3768
▁تو	-3769
▁كي	-3770
▁وإ	-3771
الون	-3772
دايا	-3773
رباء	-3774
ربين	-3775
مامة	-3776
هاية	-3777
يلوه	-3778
▁امي	-3779
▁جار	-3780
▁حلم	-3781
▁ضيا	-3782
▁عيب	-3783
▁فاع	-3784
▁كاس	-3785
▁للن	-3786
▁مرب	-3787
▁وعز	-3788
ماثيل	-3789
▁ارحم	-3790
▁اسلم	-3791
▁اقيم	-3792
▁اللب	-3793
▁امسك	-3794
▁اهلك	-3795
▁بهما	-3796
▁حوله	-3797
▁رديء	-3798
▁سعير	-3799
▁صخرة	-3800
▁غلام	-3801
▁فارت	-3802
▁فالت	-3803
▁فرفع	-3804
▁فضلا	-3805
▁فهذا	-3806
▁فوضع	-3807
▁فينا	-3808
▁قدسه	-3809
▁كانه	-3810
▁كلما	-3811
▁للاو	-3812
▁نجسة	-3813
▁واوص	-3814
▁وترك	-3815
▁وعرف	-3816
▁يبصر	-3817
▁يذكر	-3818
▁اخطأت	-3819
▁اقترب	-3820
▁الشحم	-3821
▁الوعر	-3822
▁حيوان	-3823
▁رجالا	-3824
▁سيناء	-3825
▁صعدوا	-3826
▁عملوا	-3827
▁فولدت	-3828
▁لتكون	-3829
▁للامم	-3830
▁للموت	-3831
▁مضايق	-3832
▁ويخرج	-3833
▁آبائكم	-3834
▁آبائنا	-3835
▁الاثني	-3836
▁الحائط	-3837
▁الحنطة	-3838
▁الخلاص	-3839
▁الفتاة	-3840
▁الفقير	-3841
▁عيونهم	-3842
▁لفرعون	-3843
▁وثلاثة	-3844
▁يكونوا	-3845
▁الخطايا	-3846
▁الفلسطيني	-3847
حش	-3848
خي	-3849
▁ـ	-3850
برا	-3851
تهي	-3852
جان	-3853
جيب	-3854
ناع	-3855
وري	-3856
وسي	-3857
▁لف	-3858
اريم	-3859
اسات	-3860
الهم	-3861
راصر	-3862
كرون	-3863
لسنة	-3864
والي	-3865
يادي	-3866
يتكم	-3867
يرام	-3868
▁ابر	-3869
▁ارز	-3870
▁تنت	-3871
▁جلب	-3872
▁رآه	-3873
▁عمي	-3874
▁غنى	-3875
▁فتع	-3876
▁ليا	-3877
▁واز	-3878
▁وحل	-3879
▁وشي	-3880
▁وعم	-3881
▁وقب	-3882
رتفعة	-3883
ناموس	-3884
ويروش	-3885
▁اقصى	-3886
▁الاغ	-3887
▁السل	-3888
▁دعوا	-3889
▁صعدت	-3890
▁عالي	-3891
▁فانت	-3892
▁فبال	-3893
▁فحين	-3894
▁فرأى	-3895
▁قبلا	-3896
▁قبله	-3897
▁قورح	-3898
▁وصرخ	-3899
▁وفرح	-3900
▁وكسر	-3901
▁يصرخ	-3902
▁يعبر	-3903
ستقامة	-3904
▁ابليس	-3905
▁الراب	-3906
▁المخت	-3907
▁المطر	-3908
▁الوحش	-3909
▁بالاب	-3910
▁ثماني	-3911
▁جدعون	-3912
▁خزائن	-3913
▁خيمته	-3914
▁رجلها	-3915
▁سمعنا	-3916
▁شديدة	-3917
▁مراري	-3918
▁وامسك	-3919
▁وبنات	-3920
▁ولبني	-3921
▁ولكني	-3922
▁اخوتكم	-3923
▁اعدائك	-3924
▁الظلام	-3925
▁الوجوه	-3926
▁الوراء	-3927
▁قربانه	-3928
▁وجوههم	-3929
▁ولماذا	-3930
▁اجتمعوا	-3931
▁الكثيرة	-3932
▁اللواتي	-3933
▁وانظروا	-3934
▁ويقولون	-3935
▁احشويروش	-3936
▁وبنيامين	-3937
▁يهوياقيم	-3938
▁الحيوانات	-3939
▁واللاويون	-3940
ؤك	-3941
بد	-3942
ثى	-3943
قو	-3944
وض	-3945
ارق	-3946
بية	-3947
تبة	-3948
راج	-3949
ربي	-3950
سام	-3951
شار	-3952
طوا	-3953
قاق	-3954
كية	-3955
ياح	-3956
▁خص	-3957
▁نظ	-3958
اهما	-3959
بعوا	-3960
بيين	-3961
ريبا	-3962
لابس	-3963
نموا	-3964
يتيم	-3965
▁آخذ	-3966
▁برص	-3967
▁بقي	-3968
▁تسع	-3969
▁تعي	-3970
▁جوا	-3971
▁صرخ	-3972
▁فلن	-3973
▁لشا	-3974
▁مضط	-3975
▁مقب	-3976
▁نون	-3977
▁واج	-3978
▁وخذ	-3979
▁وسك	-3980
▁يحت	-3981
حاربة	-3982
عملوا	-3983
▁آثام	-3984
▁اجرة	-3985
▁اخيك	-3986
▁اعدا	-3987
▁اكلم	-3988
▁الاص	-3989
▁البع	-3990
▁الوف	-3991
▁بقوة	-3992
▁بيني	-3993
▁تاكل	-3994
▁تسقط	-3995
▁تقدر	-3996
▁تقوم	-3997
▁تنبأ	-3998
▁فمتى	-3999
▁قتلا	-4000
▁قضاء	-4001
▁كباش	-4002
▁مثله	-4003
▁مجدا	-4004
▁وارج	-4005
▁وعاد	-4006
▁وكال	-4007
▁ينقذ	-4008
▁اجتاز	-4009
▁اشجار	-4010
▁الصبح	-4011
▁العدل	-4012
▁العرش	-4013
▁المرا	-4014
▁بخورا	-4015
▁حلقيا	-4016
▁فاسمع	-4017
▁فاعلم	-4018
▁فصارت	-4019
▁فيلبس	-4020
▁قريبه	-4021
▁والكت	-4022
▁وانقذ	-4023
▁اعينكم	-4024
▁الثامن	-4025
▁الرعاة	-4026
▁ثمانية	-4027
▁والآخر	-4028
▁والمنا	-4029
▁وراءهم	-4030
▁الاربعة	-4031
▁الانجيل	-4032
▁الانهار	-4033
▁الباقين	-4034
▁السحابة	-4035
▁المكتوب	-4036
▁والعشرين	-4037
مق	-4038
▁إ	-4039
ؤهم	-4040
بان	-4041
تاظ	-4042
ثها	-4043
جعا	-4044
ذبا	-4045
رأة	-4046
رقت	-4047
شيش	-4048
صية	-4049
ضيء	-4050
طقة	-4051
قبل	-4052
مته	-4053
وبإ	-4054
وبا	-4055
وثا	-4056
يري	-4057
▁بز	-4058
▁ضا	-4059
▁مض	-4060
جعله	-4061
عاقب	-4062
نابا	-4063
واضع	-4064
وبيد	-4065
ونكم	-4066
يانا	-4067
▁حمي	-4068
▁حية	-4069
▁ذنب	-4070
▁رأت	-4071
▁سبق	-4072
▁فتت	-4073
▁فضل	-4074
▁فنا	-4075
▁لسب	-4076
▁للص	-4077
▁مري	-4078
▁وبق	-4079
▁وشا	-4080
▁ويخ	-4081
▁يبر	-4082
▁يسر	-4083
تموني	-4084
▁أتوا	-4085
▁اخوك	-4086
▁اضرب	-4087
▁افرح	-4088
▁الحث	-4089
▁الرق	-4090
▁الكا	-4091
▁بنون	-4092
▁توجد	-4093
▁جمال	-4094
▁جناح	-4095
▁رجعت	-4096
▁شمعي	-4097
▁فدفع	-4098
▁فرحا	-4099
▁فهرب	-4100
▁قصور	-4101
▁لتكن	-4102
▁مخدع	-4103
▁وحمل	-4104
▁وشمع	-4105
▁يدين	-4106
▁يزيد	-4107
▁يسأل	-4108
▁اختار	-4109
▁اقاصي	-4110
▁البئر	-4111
▁الحال	-4112
▁الفرح	-4113
▁المتك	-4114
▁المرض	-4115
▁حكيما	-4116
▁رجعوا	-4117
▁شيلوه	-4118
▁صاروا	-4119
▁صالحة	-4120
▁فانهم	-4121
▁فلذلك	-4122
▁مدنهم	-4123
▁وارجع	-4124
▁واقفا	-4125
▁والمس	-4126
▁وحارب	-4127
▁ورأيت	-4128
▁ويوقد	-4129
▁يونان	-4130
▁اعماله	-4131
▁القلوب	-4132
▁النازل	-4133
▁الوصية	-4134
▁فتعلمون	-4135
▁الفريسيون	-4136
زق	-4137
لي	-4138
أول	-4139
امر	-4140
جوم	-4141
حلف	-4142
حيا	-4143
ديه	-4144
ركض	-4145
زاة	-4146
زعج	-4147
ساد	-4148
ساف	-4149
شبة	-4150
شين	-4151
طيا	-4152
علك	-4153
علن	-4154
مها	-4155
هاد	-4156
وزن	-4157
وشث	-4158
يبا	-4159
يتا	-4160
▁ثق	-4161
▁شع	-4162
▁قس	-4163
▁مه	-4164
كروا	-4165
ملون	-4166
وارض	-4167
يرين	-4168
▁اخا	-4169
▁اذه	-4170
▁اشد	-4171
▁امم	-4172
▁برك	-4173
▁تتم	-4174
▁ثاب	-4175
▁خلص	-4176
▁سيس	-4177
▁شار	-4178
▁شاه	-4179
▁عاي	-4180
▁فكم	-4181
▁فيا	-4182
▁فيت	-4183
▁كسر	-4184
▁لعل	-4185
▁لمع	-4186
▁ليب	-4187
▁موض	-4188
▁وتم	-4189
▁وحر	-4190
▁ويه	-4191
حفظون	-4192
مائدة	-4193
▁آساف	-4194
▁اباك	-4195
▁اخذت	-4196
▁اسكن	-4197
▁افتح	-4198
▁اكمل	-4199
▁الاج	-4200
▁الرف	-4201
▁الصغ	-4202
▁بعده	-4203
▁بيدك	-4204
▁تعود	-4205
▁تقتل	-4206
▁جسدي	-4207
▁حكيم	-4208
▁خراف	-4209
▁رؤيا	-4210
▁صغير	-4211
▁طوله	-4212
▁فمضى	-4213
▁فوقف	-4214
▁كالع	-4215
▁كامل	-4216
▁لاسم	-4217
▁ملكي	-4218
▁وامه	-4219
▁وعلم	-4220
▁يجمع	-4221
▁يشهد	-4222
▁ينزع	-4223
سليمان	-4224
▁اسمان	-4225
▁الشرط	-4226
▁الصدي	-4227
▁الكاس	-4228
▁جدليا	-4229
▁حياتي	-4230
▁خطيته	-4231
▁رأيتم	-4232
▁سبعون	-4233
▁صحيحا	-4234
▁عزريا	-4235
▁قلبهم	-4236
▁للوقت	-4237
▁مقدسا	-4238
▁وابنا	-4239
▁وابنه	-4240
▁اعمالك	-4241
▁الجهال	-4242
▁القتلى	-4243
▁الملكة	-4244
▁ايديكم	-4245
▁فانطلق	-4246
▁مركبات	-4247
▁ورجعوا	-4248
▁وضربوا	-4249
▁ويوحنا	-4250
▁يختاره	-4251
▁يعرفون	-4252
▁اجيالكم	-4253
▁الاحباء	-4254
▁الكلمات	-4255
▁المصريون	-4256
▁والانبياء	-4257
تف	-4258
دء	-4259
دك	-4260
ألك	-4261
امي	-4262
جلب	-4263
رهم	-4264
فصل	-4265
واع	-4266
وعز	-4267
يمك	-4268
يهم	-4269
▁فط	-4270
▁مط	-4271
▁نخ	-4272
انون	-4273
بتها	-4274
بعني	-4275
راءى	-4276
زلزل	-4277
زمنة	-4278
صفور	-4279
ضطهد	-4280
طانا	-4281
كنون	-4282
هارا	-4283
يهود	-4284
▁ألق	-4285
▁اغت	-4286
▁بوا	-4287
▁ثلث	-4288
▁درج	-4289
▁ركب	-4290
▁رمم	-4291
▁شمس	-4292
▁صان	-4293
▁صخر	-4294
▁طرح	-4295
▁عشب	-4296
▁عما	-4297
▁فلت	-4298
▁ليأ	-4299
▁معر	-4300
▁ملأ	-4301
▁وبع	-4302
▁وبه	-4303
▁وتا	-4304
▁ومئ	-4305
▁يحد	-4306
▁يدا	-4307
▁يقا	-4308
▁اشتر	-4309
▁اناء	-4310
▁بروح	-4311
▁بعدد	-4312
▁تحسب	-4313
▁حسنة	-4314
▁دعوت	-4315
▁ذكرا	-4316
▁صلاة	-4317
▁صوتي	-4318
▁غريب	-4319
▁قرعة	-4320
▁لبنا	-4321
▁مثلك	-4322
▁موال	-4323
▁وقاس	-4324
▁وهرب	-4325
▁يرحم	-4326
▁يريد	-4327
▁يشبه	-4328
▁يمشي	-4329
▁البائ	-4330
▁البدء	-4331
▁الشغل	-4332
▁الفلك	-4333
▁القوم	-4334
▁اللوح	-4335
▁المثل	-4336
▁الميت	-4337
▁حراسة	-4338
▁حكماء	-4339
▁خمسون	-4340
▁شمعيا	-4341
▁طريقك	-4342
▁واسلم	-4343
▁واكثر	-4344
▁والشر	-4345
▁والله	-4346
▁وامير	-4347
▁وياخذ	-4348
▁الحصاد	-4349
▁الختان	-4350
▁الخروف	-4351
▁المنظر	-4352
▁ترنيمة	-4353
▁تفعلون	-4354
▁لذبيحة	-4355
▁للكهنة	-4356
▁ورجاله	-4357
▁وفرسان	-4358
▁الرابعة	-4359
▁والفريسي	-4360
▁الفريسيين	-4361
ثم	-4362
زب	-4363
هة	-4364
ؤون	-4365
ابا	-4366
بوت	-4367
تاع	-4368
جلا	-4369
دية	-4370
شية	-4371
فيه	-4372
قرض	-4373
نتي	-4374
هدد	-4375
ويه	-4376
يمن	-4377
▁آن	-4378
▁كح	-4379
▁كش	-4380
ائدة	-4381
الحا	-4382
رقون	-4383
فرون	-4384
لميذ	-4385
لويا	-4386
نائس	-4387
▁اهت	-4388
▁ايد	-4389
▁باص	-4390
▁تفس	-4391
▁جان	-4392
▁حبل	-4393
▁سبا	-4394
▁شرق	-4395
▁عور	-4396
▁فاش	-4397
▁قاس	-4398
▁قوا	-4399
▁كتب	-4400
▁ليل	-4401
▁مبر	-4402
▁مجي	-4403
▁محا	-4404
▁هات	-4405
▁وتر	-4406
▁يحا	-4407
اريوس	-4408
انيون	-4409
▁احتر	-4410
▁ادون	-4411
▁اقبل	-4412
▁اقطع	-4413
▁البل	-4414
▁بالص	-4415
▁بالف	-4416
▁بالن	-4417
▁تجاه	-4418
▁تقطع	-4419
▁ثمرا	-4420
▁جنوب	-4421
▁حجرا	-4422
▁ذاهب	-4423
▁رفقة	-4424
▁شفتي	-4425
▁شهود	-4426
▁عورة	-4427
▁فاحت	-4428
▁فانك	-4429
▁فحمي	-4430
▁فعمل	-4431
▁فملك	-4432
▁قبور	-4433
▁كالا	-4434
▁لسبب	-4435
▁ليئة	-4436
▁موتا	-4437
▁نظرت	-4438
▁هلاك	-4439
▁واتى	-4440
▁واخت	-4441
▁وارد	-4442
▁وحفظ	-4443
▁وليد	-4444
▁يسير	-4445
▁يغفر	-4446
▁اخترت	-4447
▁اقامه	-4448
▁الارز	-4449
▁الامة	-4450
▁البوق	-4451
▁العري	-4452
▁العشب	-4453
▁القدم	-4454
▁القول	-4455
▁المدي	-4456
▁امنون	-4457
▁اوصيك	-4458
▁بعيدة	-4459
▁بهيمة	-4460
▁سلاحه	-4461
▁سلموا	-4462
▁شمالا	-4463
▁صروية	-4464
▁عندنا	-4465
▁فاقام	-4466
▁فاننا	-4467
▁فتعلم	-4468
▁ليخدم	-4469
▁مخارج	-4470
▁ناثان	-4471
▁والاح	-4472
▁وامام	-4473
▁وماذا	-4474
▁ويأتي	-4475
▁ويرجع	-4476
▁ويعطي	-4477
▁يقوله	-4478
▁البنين	-4479
▁الحديد	-4480
▁الخدمة	-4481
▁القرعة	-4482
▁لاجلنا	-4483
▁هللويا	-4484
▁وابتدأ	-4485
▁والبحر	-4486
▁وذهبوا	-4487
▁ولكنهم	-4488
▁وللوقت	-4489
▁يخرجون	-4490
▁افواههم	-4491
▁الزيتون	-4492
▁الغلمان	-4493
▁المقدسة	-4494
▁النهاية	-4495
▁لسليمان	-4496
▁والشيوخ	-4497
▁المركبات	-4498
▁نبوخذراصر	-4499
ئي	-4500
ثين	-4501
حين	-4502
داث	-4503
رقه	-4504
سات	-4505
طفئ	-4506
عدت	-4507
فات	-4508
كري	-4509
ناة	-4510
ولك	-4511
ياس	-4512
▁بذ	-4513
▁غش	-4514
▁كخ	-4515
▁نز	-4516
اباد	-4517
اهرا	-4518
ديرا	-4519
ربها	-4520
رجال	-4521
زقيا	-4522
طيني	-4523
فتحت	-4524
قيمة	-4525
يدان	-4526
يدين	-4527
▁أعط	-4528
▁امك	-4529
▁بدل	-4530
▁بطن	-4531
▁سفن	-4532
▁شرب	-4533
▁عدم	-4534
▁لبا	-4535
▁مقا	-4536
▁مقت	-4537
▁وكن	-4538
▁يتأ	-4539
▁يرب	-4540
▁يصد	-4541
▁يقد	-4542
ربابل	-4543
طردهم	-4544
عبدوا	-4545
وثاوس	-4546
يابسة	-4547
▁ابيض	-4548
▁ادفع	-4549
▁اعمى	-4550
▁اعود	-4551
▁المب	-4552
▁بالق	-4553
▁بعشا	-4554
▁بنيك	-4555
▁بيدي	-4556
▁ثوبه	-4557
▁جيوش	-4558
▁حافظ	-4559
▁شهوة	-4560
▁طرقك	-4561
▁طيور	-4562
▁غضبك	-4563
▁فترك	-4564
▁فعله	-4565
▁قوته	-4566
▁لعبد	-4567
▁نباط	-4568
▁وكتب	-4569
▁وكيف	-4570
▁ومدن	-4571
▁يؤكل	-4572
▁يلبس	-4573
▁أليست	-4574
▁اثمهم	-4575
▁احببت	-4576
▁اخيرا	-4577
▁ارنون	-4578
▁البطن	-4579
▁الشوك	-4580
▁العار	-4581
▁الوسط	-4582
▁بيوتا	-4583
▁ترشيش	-4584
▁تمثال	-4585
▁جعلوا	-4586
▁حبيبي	-4587
▁حياته	-4588
▁خلاصي	-4589
▁رأينا	-4590
▁سبعين	-4591
▁صحيحة	-4592
▁عندهم	-4593
▁غريبة	-4594
▁فاعلي	-4595
▁فامسك	-4596
▁فليكن	-4597
▁مفتوح	-4598
▁منحوت	-4599
▁نصيبه	-4600
▁واسمع	-4601
▁واضرب	-4602
▁والمغ	-4603
▁وانما	-4604
▁وداود	-4605
▁وعسلا	-4606
▁وليلا	-4607
▁ويعمل	-4608
▁يتسلط	-4609
▁يمينك	-4610
▁يمينه	-4611
يموثاوس	-4612
▁الاخير	-4613
▁البركة	-4614
▁البيوت	-4615
▁الرحمة	-4616
▁الشجرة	-4617
▁الصانع	-4618
▁الصخرة	-4619
▁العاشر	-4620
▁القديم	-4621
▁فللوقت	-4622
▁لاجلكم	-4623
▁واثنان	-4624
▁واخذوا	-4625
▁وقواعد	-4626
▁ولكنني	-4627
▁يحملون	-4628
▁يعلمون	-4629
▁يعملون	-4630
▁يهورام	-4631
▁الدائمة	-4632
▁القديمة	-4633
▁المركبة	-4634
▁فيعلمون	-4635
▁مستديرا	-4636
▁الشياطين	-4637
▁الكروبيم	-4638
▁المساكين	-4639
▁بالابواق	-4640
باع	-4641
ترف	-4642
تكر	-4643
تمد	-4644
ثوا	-4645
جاع	-4646
حمه	-4647
ددت	-4648
صان	-4649
فرغ	-4650
قوى	-4651
مسح	-4652
مية	-4653
وبخ	-4654
وشن	-4655
يرك	-4656
▁طل	-4657
▁مم	-4658
▁نن	-4659
▁هن	-4660
آحاز	-4661
انهم	-4662
اهنا	-4663
تيان	-4664
جامع	-4665
حتها	-4666
ريين	-4667
زابل	-4668
شاور	-4669
لاما	-4670
مروا	-4671
▁اخو	-4672
▁اصغ	-4673
▁اعا	-4674
▁اكت	-4675
▁انق	-4676
▁بقل	-4677
▁تخل	-4678
▁جوع	-4679
▁حزن	-4680
▁حفر	-4681
▁خزي	-4682
▁سال	-4683
▁سام	-4684
▁سني	-4685
▁شهد	-4686
▁عرض	-4687
▁فاغ	-4688
▁فخذ	-4689
▁فمد	-4690
▁قوس	-4691
▁ليح	-4692
▁محت	-4693
▁ملء	-4694
▁وخل	-4695
▁ورف	-4696
▁وزن	-4697
▁وقع	-4698
تموها	-4699
▁امرا	-4700
▁تفيض	-4701
▁تكمل	-4702
▁حمار	-4703
▁خذوا	-4704
▁ذهبت	-4705
▁رجلك	-4706
▁سبيل	-4707
▁شاهد	-4708
▁فدفن	-4709
▁قهات	-4710
▁قوية	-4711
▁كهذا	-4712
▁للذي	-4713
▁للشر	-4714
▁مدنا	-4715
▁مساء	-4716
▁معكة	-4717
▁معون	-4718
▁نازل	-4719
▁نذهب	-4720
▁وانه	-4721
▁وحدي	-4722
▁وشرب	-4723
▁وقود	-4724
▁وملأ	-4725
▁يديك	-4726
▁يطرد	-4727
هاداتك	-4728
▁ابنها	-4729
▁اخذوا	-4730
▁اخوتك	-4731
▁ارملة	-4732
▁اعطوا	-4733
▁السهل	-4734
▁الشيخ	-4735
▁العيد	-4736
▁الكبش	-4737
▁الكرم	-4738
▁المئة	-4739
▁باسمه	-4740
▁بيتها	-4741
▁بيننا	-4742
▁تركوا	-4743
▁دائرة	-4744
▁راموت	-4745
▁رنموا	-4746
▁شافان	-4747
▁عبيدي	-4748
▁كلمني	-4749
▁مسبوك	-4750
▁مستحق	-4751
▁مشيئة	-4752
▁واجمع	-4753
▁وافعل	-4754
▁والسا	-4755
▁وستين	-4756
▁وشيوخ	-4757
▁وعشرة	-4758
▁وقودا	-4759
▁يابيش	-4760
▁يساكر	-4761
▁اخطأوا	-4762
▁اعينهم	-4763
▁السادس	-4764
▁السنين	-4765
▁الصلاة	-4766
▁الغطاء	-4767
▁باعمال	-4768
▁بالبوق	-4769
▁تسمعون	-4770
▁تلاميذ	-4771
▁جميعهم	-4772
▁شريعتك	-4773
▁فحينئذ	-4774
▁ملائكة	-4775
▁مملكته	-4776
▁وصاياي	-4777
▁ياكلون	-4778
▁يدخلون	-4779
▁يفعلون	-4780
▁اعمالهم	-4781
▁التاسعة	-4782
▁الوصايا	-4783
▁اليابسة	-4784
▁ايمانكم	-4785
▁واقاموا	-4786
▁والنساء	-4787
▁لتلاميذه	-4788
شد	-4789
صت	-4790
آنة	-4791
تلك	-4792
زية	-4793
سحق	-4794
سلك	-4795
صبة	-4796
عود	-4797
غضي	-4798
غيظ	-4799
فرس	-4800
قاء	-4801
قات	-4802
مور	-4803
هاء	-4804
وبي	-4805
وطة	-4806
وقا	-4807
▁أن	-4808
▁ثا	-4809
▁سم	-4810
▁طا	-4811
▁لذ	-4812
▁نه	-4813
انيا	-4814
جعلك	-4815
دموا	-4816
ديهم	-4817
ديين	-4818
شرون	-4819
عدون	-4820
كلين	-4821
وثان	-4822
ولود	-4823
يتنا	-4824
يقام	-4825
▁افع	-4826
▁باق	-4827
▁بمن	-4828
▁تبك	-4829
▁تصل	-4830
▁تمر	-4831
▁حال	-4832
▁خطا	-4833
▁دون	-4834
▁راع	-4835
▁عتي	-4836
▁فكر	-4837
▁كور	-4838
▁ليخ	-4839
▁نذر	-4840
▁هدد	-4841
▁ورد	-4842
▁وزب	-4843
▁يشأ	-4844
▁يشت	-4845
▁يقل	-4846
أكلون	-4847
بابرة	-4848
ثامار	-4849
▁آيات	-4850
▁أتيت	-4851
▁ابوك	-4852
▁اختر	-4853
▁ارضي	-4854
▁اعبر	-4855
▁الصل	-4856
▁المز	-4857
▁انزع	-4858
▁بارا	-4859
▁بغير	-4860
▁بنار	-4861
▁تفهم	-4862
▁جبار	-4863
▁جيدا	-4864
▁جيشه	-4865
▁حلفت	-4866
▁ذوات	-4867
▁راحة	-4868
▁سقطت	-4869
▁سيدك	-4870
▁صباح	-4871
▁عينك	-4872
▁فاخت	-4873
▁فجعل	-4874
▁فحدث	-4875
▁فنظر	-4876
▁قائد	-4877
▁لعمل	-4878
▁لقول	-4879
▁مثلا	-4880
▁مجيء	-4881
▁ملجأ	-4882
▁نعرف	-4883
▁نفسا	-4884
▁واضع	-4885
▁وستة	-4886
▁وضعت	-4887
▁وكبش	-4888
▁وكذا	-4889
▁ولكي	-4890
▁ويرد	-4891
▁يتبع	-4892
▁يدفع	-4893
▁يهرب	-4894
وحانان	-4895
يناداب	-4896
▁الدرج	-4897
▁السما	-4898
▁الكتب	-4899
▁الواق	-4900
▁انتظر	-4901
▁انجيل	-4902
▁انطلق	-4903
▁ايامك	-4904
▁بعيدا	-4905
▁بنهدد	-4906
▁بنيهم	-4907
▁تعليم	-4908
▁حيرام	-4909
▁دهرية	-4910
▁زانية	-4911
▁فانكم	-4912
▁فهوذا	-4913
▁قبائل	-4914
▁قدموا	-4915
▁قوموا	-4916
▁كونوا	-4917
▁لشاول	-4918
▁ليوسف	-4919
▁مسامع	-4920
▁ملكهم	-4921
▁والنا	-4922
▁واليب	-4923
▁وتعمل	-4924
▁وسلام	-4925
▁وصارت	-4926
▁وقرمز	-4927
▁ونادى	-4928
▁ويذبح	-4929
▁يحارب	-4930
▁يدعون	-4931
▁يفتاح	-4932
▁احكامك	-4933
▁احكامي	-4934
▁اخطأنا	-4935
▁الرجاء	-4936
▁الكرمل	-4937
▁اللذان	-4938
▁ايزابل	-4939
▁تأكلون	-4940
▁تقدرون	-4941
▁ثيابهم	-4942
▁دينونة	-4943
▁زربابل	-4944
▁طريقهم	-4945
▁فالتفت	-4946
▁ليهوذا	-4947
▁مستقيم	-4948
▁واربعة	-4949
▁والجوع	-4950
▁وبنايا	-4951
▁وعجائب	-4952
▁يصعدون	-4953
▁يقدروا	-4954
▁الجمهور	-4955
▁وارجوان	-4956
▁الجبابرة	-4957
▁الداخلية	-4958
▁المؤمنين	-4959
▁اسمانجوني	-4960
جز	-4961
حض	-4962
زف	-4963
ؤوس	-4964
برأ	-4965
حول	-4966
دمه	-4967
راك	-4968
ساب	-4969
سته	-4970
شدد	-4971
صفة	-4972
ظال	-4973
عته	-4974
كلا	-4975
كوا	-4976
لاب	-4977
وحا	-4978
ودع	-4979
▁أأ	-4980
▁ذن	-4981
▁سخ	-4982
▁شب	-4983
أديب	-4984
ابور	-4985
ادوق	-4986
برين	-4987
جاوز	-4988
جروا	-4989
ذارى	-4990
صنام	-4991
طيرا	-4992
عدوا	-4993
قبال	-4994
قتال	-4995
لمون	-4996
نتهم	-4997
وفان	-4998
▁اغص	-4999
▁اقم	-5000
▁باك	-5001
▁تمس	-5002
▁ثبت	-5003
▁جلس	-5004
▁حضر	-5005
▁ذات	-5006
▁سحق	-5007
▁سلب	-5008
▁شيخ	-5009
▁صرف	-5010
▁عزي	-5011
▁عسى	-5012
▁فتا	-5013
▁فتب	-5014
▁فست	-5015
▁قرع	-5016
▁كذا	-5017
▁كرم	-5018
▁لصا	-5019
▁للر	-5020
▁لوط	-5021
▁متع	-5022
▁نزع	-5023
▁وأت	-5024
▁واد	-5025
▁وبل	-5026
▁وسم	-5027
▁وشر	-5028
▁وفا	-5029
▁ويص	-5030
▁يمت	-5031
دونية	-5032
وسيين	-5033
▁اتخذ	-5034
▁احتم	-5035
▁اظهر	-5036
▁اقدر	-5037
▁الجا	-5038
▁النع	-5039
▁اموت	-5040
▁بقلب	-5041
▁بكاء	-5042
▁تحمل	-5043
▁تراب	-5044
▁تزرع	-5045
▁تضرع	-5046
▁تقبل	-5047
▁جيدة	-5048
▁حقول	-5049
▁ذهبا	-5050
▁راسك	-5051
▁روحه	-5052
▁عشير	-5053
▁فآمن	-5054
▁فسكن	-5055
▁فعلم	-5056
▁قوتي	-5057
▁قومه	-5058
▁كانا	-5059
▁كبير	-5060
▁لاحد	-5061
▁لسبط	-5062
▁ليلة	-5063
▁ميثا	-5064
▁نبيا	-5065
▁نقول	-5066
▁نموت	-5067
▁وبكى	-5068
▁وحدك	-5069
▁ورجل	-5070
▁وسأل	-5071
▁ولست	-5072
▁ومئة	-5073
▁وموا	-5074
▁يجيب	-5075
▁يرون	-5076
▁يشاء	-5077
▁يشفق	-5078
▁يملك	-5079
▁اثنتي	-5080
▁ارضكم	-5081
▁اسنان	-5082
▁الازل	-5083
▁التفت	-5084
▁الحكم	-5085
▁الحلم	-5086
▁الخبر	-5087
▁السنط	-5088
▁القوس	-5089
▁النجس	-5090
▁خيانة	-5091
▁رفيعة	-5092
▁زمانا	-5093
▁صلاتي	-5094
▁عظامي	-5095
▁عيلام	-5096
▁فاخذت	-5097
▁فطيرا	-5098
▁فعلتم	-5099
▁قولوا	-5100
▁كمنظر	-5101
▁لابيه	-5102
▁ناحية	-5103
▁واسكن	-5104
▁والار	-5105
▁والبا	-5106
▁وانزل	-5107
▁ولسان	-5108
▁ونساء	-5109
▁ونظرت	-5110
▁يتقدم	-5111
▁يتنجس	-5112
▁ينبوع	-5113
▁اخرجوا	-5114
▁ادونيا	-5115
▁اعطاني	-5116
▁الحبيب	-5117
▁الدهور	-5118
▁العبيد	-5119
▁العربة	-5120
▁الفطير	-5121
▁تقويمك	-5122
▁حزائيل	-5123
▁ضياعها	-5124
▁عالمين	-5125
▁فجاءوا	-5126
▁كبرياء	-5127
▁معروفا	-5128
▁واعطاه	-5129
▁والفرز	-5130
▁وحجارة	-5131
▁وسكنوا	-5132
▁وعملوا	-5133
▁وفرائض	-5134
▁ووقفوا	-5135
▁يسقطون	-5136
▁يعطيكم	-5137
▁يقومون	-5138
▁المخادع	-5139
▁بالمسيح	-5140
▁مرتفعات	-5141
▁واخبروا	-5142
▁والثلاث	-5143
▁والبهائم	-5144
ئب	-5145
جم	-5146
خب	-5147
غو	-5148
فو	-5149
قش	-5150
ئات	-5151
باد	-5152
ثوث	-5153
جيج	-5154
حبة	-5155
حيم	-5156
خار	-5157
رنا	-5158
زرع	-5159
سار	-5160
صرت	-5161
طاب	-5162
طار	-5163
طعم	-5164
على	-5165
قها	-5166
وشي	-5167
ومر	-5168
يله	-5169
▁دب	-5170
▁زم	-5171
▁سف	-5172
▁سق	-5173
▁كأ	-5174
▁لر	-5175
▁نم	-5176
جلون	-5177
خرون	-5178
رارا	-5179
قتله	-5180
هروا	-5181
هنوت	-5182
وريم	-5183
▁ألس	-5184
▁انش	-5185
▁بره	-5186
▁تشت	-5187
▁شبع	-5188
▁شفت	-5189
▁عدو	-5190
▁لنع	-5191
▁وعر	-5192
▁وكب	-5193
▁ولس	-5194
▁ويج	-5195
تكفير	-5196
رفعون	-5197
طلبوا	-5198
طيعون	-5199
مدودة	-5200
▁اجلب	-5201
▁ارضا	-5202
▁اصرخ	-5203
▁الاز	-5204
▁الرأ	-5205
▁اوصا	-5206
▁اوصى	-5207
▁بوعز	-5208
▁تجار	-5209
▁تخبر	-5210
▁تدين	-5211
▁تسكن	-5212
▁تفرح	-5213
▁حارب	-5214
▁حارس	-5215
▁دخان	-5216
▁شوشن	-5217
▁صرخت	-5218
▁طالب	-5219
▁ظلما	-5220
▁غنمي	-5221
▁قائم	-5222
▁كاذب	-5223
▁كلكم	-5224
▁كورة	-5225
▁لسنا	-5226
▁محبي	-5227
▁مرثا	-5228
▁ملكة	-5229
▁مواش	-5230
▁وبلا	-5231
▁وحوش	-5232
▁وحيث	-5233
▁وخبز	-5234
▁وفضة	-5235
▁وقيل	-5236
▁يبقى	-5237
▁يدعو	-5238
▁يزول	-5239
انجوني	-5240
▁احياء	-5241
▁اطراف	-5242
▁اعاقب	-5243
▁اعطيك	-5244
▁البرد	-5245
▁الجند	-5246
▁السمك	-5247
▁الشقة	-5248
▁الصوت	-5249
▁القوة	-5250
▁اللهم	-5251
▁الملح	-5252
▁انتهى	-5253
▁بالقر	-5254
▁ثامار	-5255
▁حولها	-5256
▁ذهبوا	-5257
▁شعبها	-5258
▁شواقل	-5259
▁صالحا	-5260
▁عددهم	-5261
▁عيناي	-5262
▁فأتوا	-5263
▁فاعطى	-5264
▁فالذي	-5265
▁فيرجع	-5266
▁قدامي	-5267
▁قدميه	-5268
▁لكيلا	-5269
▁مبروم	-5270
▁معهما	-5271
▁مكانا	-5272
▁ملآنة	-5273
▁نابوت	-5274
▁هربوا	-5275
▁واكتب	-5276
▁واكون	-5277
▁والتي	-5278
▁والكل	-5279
▁والمت	-5280
▁وستون	-5281
▁ويدخل	-5282
▁ويسقط	-5283
▁ويشوع	-5284
▁ينتظر	-5285
▁يوثام	-5286
▁آباؤكم	-5287
▁آلهتهم	-5288
▁ارتفعت	-5289
▁الخمسة	-5290
▁العلاء	-5291
▁الفرات	-5292
▁الكامل	-5293
▁الكثرة	-5294
▁الكثير	-5295
▁باركوا	-5296
▁تستطيع	-5297
▁تعرفون	-5298
▁للمسيح	-5299
▁نصيبهم	-5300
▁واعطوا	-5301
▁ودخلوا	-5302
▁الاعمال	-5303
▁المائدة	-5304
▁للاويين	-5305
▁مستقيمة	-5306
▁والكتبة	-5307
▁وامرأته	-5308
▁وثمانية	-5309
▁يتنبأون	-5310
▁الخارجية	-5311
▁المرتفعة	-5312
▁لاستقبال	-5313
▁المديانيين	-5314
**	-5315
فح	-5316
ابة	-5317
تهى	-5318
جين	-5319
حبه	-5320
حمك	-5321
رنم	-5322
شوة	-5323
صوا	-5324
طون	-5325
فلح	-5326
فية	-5327
مكم	-5328
ناق	-5329
هود	-5330
وبأ	-5331
وحش	-5332
وفل	-5333
وفي	-5334
▁أب	-5335
▁حط	-5336
▁خض	-5337
▁سه	-5338
▁ضل	-5339
▁طم	-5340
▁كغ	-5341
انوا	-5342
جاسة	-5343
خروف	-5344
رائي	-5345
راهم	-5346
رسون	-5347
صيكم	-5348
ظنون	-5349
لاحظ	-5350
ماما	-5351
وبال	-5352
وبوا	-5353
وبيل	-5354
وحوش	-5355
يرها	-5356
يرهم	-5357
ينهم	-5358
ينوى	-5359
▁احا	-5360
▁بغض	-5361
▁تقر	-5362
▁ربا	-5363
▁زنى	-5364
▁شاء	-5365
▁فرغ	-5366
▁فله	-5367
▁قوي	-5368
▁كبر	-5369
▁كفا	-5370
▁لقد	-5371
▁للث	-5372
▁للف	-5373
▁مال	-5374
▁متك	-5375
▁مضا	-5376
▁مظل	-5377
▁هدم	-5378
▁وحش	-5379
▁ودخ	-5380
▁وشب	-5381
▁يبي	-5382
▁يجت	-5383
▁يرج	-5384
▁يلت	-5385
قدسوا	-5386
▁اجلس	-5387
▁اكرم	-5388
▁الأس	-5389
▁البق	-5390
▁الزا	-5391
▁العط	-5392
▁القب	-5393
▁المي	-5394
▁امره	-5395
▁بالغ	-5396
▁بملك	-5397
▁تبصر	-5398
▁تبني	-5399
▁تمسك	-5400
▁ثمان	-5401
▁سامع	-5402
▁سيفا	-5403
▁صادق	-5404
▁ضربه	-5405
▁عارا	-5406
▁غربا	-5407
▁غيرة	-5408
▁قبلي	-5409
▁كتان	-5410
▁لابن	-5411
▁لعنة	-5412
▁محفل	-5413
▁مشيئ	-5414
▁مطمئ	-5415
▁ملجإ	-5416
▁نكون	-5417
▁وبكل	-5418
▁وتضع	-5419
▁وعين	-5420
▁وقدم	-5421
▁وقفت	-5422
▁وكنت	-5423
▁ومست	-5424
▁يحدث	-5425
▁يسلك	-5426
▁يعطى	-5427
▁يقسم	-5428
▁يقضي	-5429
▁آبائك	-5430
▁ابنته	-5431
▁ارتفا	-5432
▁اعطاه	-5433
▁التاج	-5434
▁الطيب	-5435
▁المخا	-5436
▁انبيا	-5437
▁دخلوا	-5438
▁دقيقا	-5439
▁رأيته	-5440
▁رجاسا	-5441
▁سلاما	-5442
▁شوارع	-5443
▁صغيرة	-5444
▁صنعوا	-5445
▁عذراء	-5446
▁فابتد	-5447
▁فعلوا	-5448
▁قريبك	-5449
▁كاهنا	-5450
▁كرامة	-5451
▁كلاما	-5452
▁للناس	-5453
▁ليصنع	-5454
▁مائدة	-5455
▁مخافة	-5456
▁مختار	-5457
▁نابال	-5458
▁والبر	-5459
▁والقد	-5460
▁وذهبا	-5461
▁ورائي	-5462
▁ورجال	-5463
▁وعرضه	-5464
▁وليكن	-5465
▁ويشرب	-5466
▁يضطجع	-5467
▁الاخرى	-5468
▁البحار	-5469
▁البخور	-5470
▁الخطاة	-5471
▁العريس	-5472
▁النفوس	-5473
▁الهلاك	-5474
▁الوالي	-5475
▁بالعدل	-5476
▁والبيت	-5477
▁والزيت	-5478
▁وانطلق	-5479
▁وعبيده	-5480
▁يخدمون	-5481
▁يذبحون	-5482
▁يذهبون	-5483
▁يعرفوا	-5484
▁الآبدين	-5485
▁المنارة	-5486
▁مكدونية	-5487
▁الساكنون	-5488
▁العبودية	-5489
▁وقواعدها	-5490
▁والفريسيون	-5491
عك	-5492
يج	-5493
يي	-5494
ئوا	-5495
ادة	-5496
ارس	-5497
حوه	-5498
ديف	-5499
سنة	-5500
شيب	-5501
ضائ	-5502
فسد	-5503
ماق	-5504
وله	-5505
يوم	-5506
▁أخ	-5507
▁جئ	-5508
▁فف	-5509
▁كج	-5510
ائها	-5511
ادية	-5512
بيرا	-5513
حلون	-5514
رفاء	-5515
زائن	-5516
سبيح	-5517
عازر	-5518
لامه	-5519
مرون	-5520
ناهم	-5521
هبوا	-5522
وتار	-5523
وتها	-5524
▁أخذ	-5525
▁انف	-5526
▁باث	-5527
▁تحل	-5528
▁تضر	-5529
▁تلت	-5530
▁تلد	-5531
▁جرى	-5532
▁خلف	-5533
▁رؤس	-5534
▁سبل	-5535
▁سمك	-5536
▁ضعف	-5537
▁غيظ	-5538
▁فتس	-5539
▁لار	-5540
▁لتن	-5541
▁محص	-5542
▁مذل	-5543
▁وتل	-5544
▁ورق	-5545
▁وكم	-5546
▁ومج	-5547
▁ومد	-5548
▁يبل	-5549
▁يعب	-5550
جائبه	-5551
حيوان	-5552
وابين	-5553
وبديا	-5554
يتوفل	-5555
▁اثنت	-5556
▁احكم	-5557
▁اخاف	-5558
▁اختي	-5559
▁اخوه	-5560
▁اذنك	-5561
▁اعمد	-5562
▁اليب	-5563
▁امين	-5564
▁اياك	-5565
▁ايلة	-5566
▁بطنه	-5567
▁بعين	-5568
▁بمجد	-5569
▁بنيت	-5570
▁تاتي	-5571
▁تجمع	-5572
▁تحرق	-5573
▁تخطئ	-5574
▁تشبع	-5575
▁تظلم	-5576
▁ثروة	-5577
▁حربا	-5578
▁حفظت	-5579
▁خروف	-5580
▁خمسا	-5581
▁راسا	-5582
▁رداء	-5583
▁زبدي	-5584
▁ظلمة	-5585
▁فارص	-5586
▁فراش	-5587
▁قدسا	-5588
▁قصبة	-5589
▁قضاة	-5590
▁نورا	-5591
▁وذلك	-5592
▁وروح	-5593
▁وميش	-5594
▁ووجه	-5595
▁ويكف	-5596
▁يغلب	-5597
▁ابيها	-5598
▁اخذها	-5599
▁اذهبي	-5600
▁اسوار	-5601
▁البأس	-5602
▁الحطب	-5603
▁الغنى	-5604
▁القصر	-5605
▁المحي	-5606
▁المرة	-5607
▁باروخ	-5608
▁بلسان	-5609
▁بنايا	-5610
▁ثيابا	-5611
▁جوابا	-5612
▁خافوا	-5613
▁خلاصا	-5614
▁سيسرا	-5615
▁شاهدا	-5616
▁صاحبك	-5617
▁فاصعد	-5618
▁فاعطي	-5619
▁فتقول	-5620
▁فتكلم	-5621
▁فهكذا	-5622
▁فيأتي	-5623
▁قليلة	-5624
▁قيامة	-5625
▁كنيسة	-5626
▁لسيدي	-5627
▁ليسوا	-5628
▁ليسوع	-5629
▁مئتين	-5630
▁مبغضي	-5631
▁مركبا	-5632
▁مركبة	-5633
▁مقدسي	-5634
▁نينوى	-5635
▁واصنع	-5636
▁واقول	-5637
▁واهلك	-5638
▁وخرجت	-5639
▁وقائد	-5640
▁ومضوا	-5641
▁وواحد	-5642
▁ويصعد	-5643
▁يجدوا	-5644
▁يمينا	-5645
▁ارسلوا	-5646
▁اصعدوا	-5647
▁اعدائه	-5648
▁الآيات	-5649
▁الأسود	-5650
▁الباطل	-5651
▁الحجاب	-5652
▁الخراف	-5653
▁الذكور	-5654
▁السعاة	-5655
▁المدعو	-5656
▁تكونون	-5657
▁جميعها	-5658
▁سلطانا	-5659
▁قدامهم	-5660
▁للقائه	-5661
▁لمحرقة	-5662
▁مكتوبا	-5663
▁نفوسكم	-5664
▁وآخرون	-5665
▁واحكام	-5666
▁واقفين	-5667
▁والملك	-5668
▁ورؤساؤ	-5669
▁وراءها	-5670
▁وسبعون	-5671
▁وعزريا	-5672
▁وقتلوا	-5673
▁وقولوا	-5674
▁ووضعوا	-5675
▁يعاريم	-5676
▁ينابيع	-5677
▁ينظرون	-5678
▁الابطال	-5679
▁الجزائر	-5680
▁السادسة	-5681
▁الصالحة	-5682
▁المتكلم	-5683
▁الممالك	-5684
▁المنحوت	-5685
▁بالقرعة	-5686
▁ليكونوا	-5687
▁يهوآحاز	-5688
▁العمودين	-5689
▁والرؤساء	-5690
▁والعازار	-5691
بن	-5692
ضد	-5693
كه	-5694
باك	-5695
بلة	-5696
حرة	-5697
حرج	-5698
شرب	-5699
شمس	-5700
صام	-5701
صفح	-5702
صين	-5703
ضحة	-5704
عزر	-5705
علة	-5706
غرب	-5707
كرز	-5708
لاه	-5709
نهم	-5710
وسا	-5711
وطي	-5712
وكل	-5713
ياد	-5714
يدر	-5715
▁أر	-5716
▁رذ	-5717
▁سأ	-5718
▁صب	-5719
▁عس	-5720
▁قف	-5721
ابيع	-5722
بأوا	-5723
باطل	-5724
جايل	-5725
جبوا	-5726
دخول	-5727
راقب	-5728
علان	-5729
فتين	-5730
قيما	-5731
كارا	-5732
مانة	-5733
نيهم	-5734
واته	-5735
وايا	-5736
وركم	-5737
ولاة	-5738
وياء	-5739
يروا	-5740
▁أخر	-5741
▁اذل	-5742
▁بذا	-5743
▁ترج	-5744
▁ترن	-5745
▁تطه	-5746
▁تلق	-5747
▁ثقل	-5748
▁جثث	-5749
▁جوف	-5750
▁جيد	-5751
▁حام	-5752
▁خاص	-5753
▁خاف	-5754
▁دام	-5755
▁ذوي	-5756
▁رجس	-5757
▁ساق	-5758
▁شحم	-5759
▁شوك	-5760
▁عزر	-5761
▁عوض	-5762
▁فرع	-5763
▁فيب	-5764
▁فيغ	-5765
▁قرأ	-5766
▁كبش	-5767
▁كفر	-5768
▁كلت	-5769
▁لبن	-5770
▁لدن	-5771
▁وجا	-5772
▁وفت	-5773
▁وكت	-5774
▁ولح	-5775
▁ومز	-5776
▁يعو	-5777
▁يكف	-5778
▁يلا	-5779
▁يمد	-5780
▁يوا	-5781
ثينيم	-5782
طاكية	-5783
طردون	-5784
▁آمون	-5785
▁أفلا	-5786
▁ابدي	-5787
▁اخيش	-5788
▁اسيا	-5789
▁اكلت	-5790
▁الاك	-5791
▁المق	-5792
▁امما	-5793
▁امير	-5794
▁بسيف	-5795
▁بفضة	-5796
▁تاخذ	-5797
▁تسبي	-5798
▁تشفق	-5799
▁تشهد	-5800
▁تعبد	-5801
▁تنزل	-5802
▁حائط	-5803
▁خربت	-5804
▁رسول	-5805
▁ركاب	-5806
▁رواق	-5807
▁سكوت	-5808
▁شاطئ	-5809
▁طرقي	-5810
▁عمود	-5811
▁عنقه	-5812
▁عينا	-5813
▁غنما	-5814
▁فجمع	-5815
▁فصنع	-5816
▁قتلت	-5817
▁قدسك	-5818
▁قضيب	-5819
▁قلتم	-5820
▁قولك	-5821
▁قومي	-5822
▁كملت	-5823
▁لخيش	-5824
▁لعله	-5825
▁مالك	-5826
▁مثلي	-5827
▁مجمع	-5828
▁مختل	-5829
▁نعمي	-5830
▁نفعل	-5831
▁نقمة	-5832
▁هدية	-5833
▁والط	-5834
▁وبقر	-5835
▁وتعب	-5836
▁وطرد	-5837
▁وظهر	-5838
▁ومثل	-5839
▁وهما	-5840
▁ويحي	-5841
▁يدها	-5842
▁يدهم	-5843
▁يشبع	-5844
▁يكرز	-5845
▁يهود	-5846
▁اجلكم	-5847
▁استمع	-5848
▁افتقد	-5849
▁اقطاب	-5850
▁البتة	-5851
▁الطرف	-5852
▁العتي	-5853
▁امينا	-5854
▁انصرف	-5855
▁انهار	-5856
▁ايامي	-5857
▁اياهم	-5858
▁بالبر	-5859
▁بعضنا	-5860
▁تبارك	-5861
▁تخومك	-5862
▁ثمرها	-5863
▁جارية	-5864
▁جديدا	-5865
▁سقطوا	-5866
▁سنتين	-5867
▁صيدون	-5868
▁فأخبر	-5869
▁فاذهب	-5870
▁كبيرة	-5871
▁كريمة	-5872
▁لعبدك	-5873
▁ليذهب	-5874
▁ليشوع	-5875
▁مستعد	-5876
▁واحفظ	-5877
▁واطلق	-5878
▁واقيم	-5879
▁والحو	-5880
▁والمن	-5881
▁وبعده	-5882
▁وبيته	-5883
▁وبينك	-5884
▁وتصير	-5885
▁وجعله	-5886
▁وشعبك	-5887
▁وكبشا	-5888
▁ولدوا	-5889
▁وليمة	-5890
▁ومريم	-5891
▁ويهلك	-5892
▁يستطع	-5893
▁يهودي	-5894
▁ارحمني	-5895
▁استطيع	-5896
▁اطلبوا	-5897
▁افعلوا	-5898
▁الآنية	-5899
▁الامين	-5900
▁الجديد	-5901
▁الحمار	-5902
▁الخشبة	-5903
▁الشبكة	-5904
▁الطعام	-5905
▁القادر	-5906
▁القرية	-5907
▁اللاوي	-5908
▁اللعنة	-5909
▁المسحة	-5910
▁اليمين	-5911
▁امامنا	-5912
▁اولادا	-5913
▁برنابا	-5914
▁تعلموا	-5915
▁تعملون	-5916
▁فدفنوه	-5917
▁فليسمع	-5918
▁قلوبنا	-5919
▁لانهما	-5920
▁لعبيده	-5921
▁للخدمة	-5922
▁للقتال	-5923
▁للكاهن	-5924
▁لليهود	-5925
▁واجتمع	-5926
▁وارتفا	-5927
▁والشحم	-5928
▁وذبحوا	-5929
▁وذبيحة	-5930
▁وزكريا	-5931
▁ونهارا	-5932
▁يدخلوا	-5933
▁يصرخون	-5934
▁يعملوا	-5935
▁الاخيرة	-5936
▁الاولين	-5937
▁الايادي	-5938
▁الثامنة	-5939
▁الحصينة	-5940
▁الرسالة	-5941
▁الزانية	-5942
▁الزاوية	-5943
▁الفرائض	-5944
▁الناصري	-5945
▁اليوبيل	-5946
▁شهاداتك	-5947
▁واعطاهم	-5948
▁والرئيس	-5949
▁وثمانين	-5950
▁الواقفين	-5951
▁بالحجارة	-5952
▁ويوناثان	-5953
▁المعدودين	-5954
ئل	-5955
اظ	-5956
ثق	-5957
خض	-5958
زه	-5959
لج	-5960
نق	-5961
أتك	-5962
ادر	-5963
بهن	-5964
تيب	-5965
ثلث	-5966
حكم	-5967
داة	-5968
درا	-5969
ديق	-5970
ذيب	-5971
ركب	-5972
ركم	-5973
ريع	-5974
ريك	-5975
صاص	-5976
صدق	-5977
ضحك	-5978
ضعا	-5979
غفة	-5980
فاز	-5981
فلى	-5982
كاف	-5983
ماس	-5984
ناي	-5985
نيت	-5986
وجع	-5987
وصا	-5988
وطا	-5989
وعي	-5990
ياج	-5991
يبه	-5992
يحا	-5993
▁جف	-5994
▁زل	-5995
▁غز	-5996
▁قع	-5997
أتون	-5998
اريع	-5999
ارين	-6000
بارا	-6001
تلال	-6002
تموا	-6003
ثرون	-6004
ثليا	-6005
ربات	-6006
ستان	-6007
سلان	-6008
شاصر	-6009
صرية	-6010
ضروا	-6011
ماذا	-6012
ماكن	-6013
نابل	-6014
نتها	-6015
نوعة	-6016
نياء	-6017
هارة	-6018
واني	-6019
وبعة	-6020
ولها	-6021
وموا	-6022
ومية	-6023
يروت	-6024
▁ابط	-6025
▁اقص	-6026
▁اكن	-6027
▁امل	-6028
▁انح	-6029
▁ببر	-6030
▁برب	-6031
▁بشا	-6032
▁بمع	-6033
▁تذل	-6034
▁ترد	-6035
▁تقت	-6036
▁تقف	-6037
▁جيل	-6038
▁رمل	-6039
▁سفك	-6040
▁سيق	-6041
▁شاة	-6042
▁شجر	-6043
▁صائ	-6044
▁طبق	-6045
▁طيب	-6046
▁عدن	-6047
▁فاه	-6048
▁فرد	-6049
▁لعد	-6050
▁مدة	-6051
▁مكت	-6052
▁موج	-6053
▁هلك	-6054
▁واك	-6055
▁واه	-6056
▁وبأ	-6057
▁وشد	-6058
▁يذل	-6059
▁يضل	-6060
الكين	-6061
زيئيل	-6062
مائهم	-6063
▁ابعد	-6064
▁اتكل	-6065
▁احرق	-6066
▁اشرب	-6067
▁افسس	-6068
▁الشا	-6069
▁الفخ	-6070
▁الفس	-6071
▁ترفع	-6072
▁تسلم	-6073
▁تضرب	-6074
▁تظهر	-6075
▁تعطى	-6076
▁حصاد	-6077
▁حكما	-6078
▁حنطة	-6079
▁دعني	-6080
▁رعاة	-6081
▁روحا	-6082
▁سيفه	-6083
▁شرقا	-6084
▁شلوم	-6085
▁طلبت	-6086
▁ظلام	-6087
▁عرضا	-6088
▁عمري	-6089
▁فامر	-6090
▁فحسن	-6091
▁فعاد	-6092
▁فعند	-6093
▁فقتل	-6094
▁فلست	-6095
▁قطعت	-6096
▁قطيع	-6097
▁قوما	-6098
▁كثرت	-6099
▁كروب	-6100
▁كلمه	-6101
▁لحظة	-6102
▁لحمه	-6103
▁لكنه	-6104
▁مائد	-6105
▁متاع	-6106
▁مجدي	-6107
▁مرعى	-6108
▁مضجع	-6109
▁مهما	-6110
▁موته	-6111
▁نسلا	-6112
▁نصنع	-6113
▁نظير	-6114
▁وآتي	-6115
▁واكل	-6116
▁والد	-6117
▁والظ	-6118
▁وتبع	-6119
▁ودعت	-6120
▁وزيت	-6121
▁ومنس	-6122
▁ونحو	-6123
▁ويسب	-6124
▁يبيد	-6125
▁يحمد	-6126
▁يرعى	-6127
▁يوقد	-6128
▁يولد	-6129
لائكته	-6130
▁آمنوا	-6131
▁ابيهم	-6132
▁احسان	-6133
▁احمدك	-6134
▁ارواح	-6135
▁اسألك	-6136
▁اشدود	-6137
▁اعضاء	-6138
▁اعطني	-6139
▁افعله	-6140
▁الاسم	-6141
▁الحصن	-6142
▁الخوف	-6143
▁الضأن	-6144
▁العمي	-6145
▁الغني	-6146
▁القمر	-6147
▁امتعة	-6148
▁امراء	-6149
▁بالام	-6150
▁ثيران	-6151
▁جهتكم	-6152
▁حوريب	-6153
▁خلاصك	-6154
▁ربوات	-6155
▁رجلان	-6156
▁رسائل	-6157
▁شيطان	-6158
▁طرقكم	-6159
▁عاجلا	-6160
▁عرفوا	-6161
▁عوبيد	-6162
▁غلمان	-6163
▁فاعطا	-6164
▁فاقول	-6165
▁فانته	-6166
▁فحبلت	-6167
▁فخرجت	-6168
▁فقالا	-6169
▁فيصير	-6170
▁قايين	-6171
▁قعيلة	-6172
▁كلمتك	-6173
▁لآلهة	-6174
▁للخير	-6175
▁ليأخذ	-6176
▁ليعمل	-6177
▁مئتان	-6178
▁مجتمع	-6179
▁ناداب	-6180
▁نثنيا	-6181
▁نجاسة	-6182
▁واتوا	-6183
▁واخذت	-6184
▁واعمل	-6185
▁واغلق	-6186
▁والقر	-6187
▁والكب	-6188
▁والكن	-6189
▁ولدته	-6190
▁ويضرب	-6191
▁ويقوم	-6192
▁ياتون	-6193
▁يورام	-6194
▁ابتداء	-6195
▁اخيقام	-6196
▁اذكروا	-6197
▁اعطاكم	-6198
▁اعطاهم	-6199
▁اعطيكم	-6200
▁الاسوا	-6201
▁الاصغر	-6202
▁الجزية	-6203
▁الجمال	-6204
▁الدماء	-6205
▁السفلى	-6206
▁الشروق	-6207
▁الصدرة	-6208
▁الظالم	-6209
▁الكورة	-6210
▁امتلأت	-6211
▁تريدون	-6212
▁ثلاثون	-6213
▁فرائضك	-6214
▁قيصرية	-6215
▁لتمتلك	-6216
▁للخطية	-6217
▁مكانهم	-6218
▁مملوءة	-6219
▁ميراثه	-6220
▁والبقر	-6221
▁والرجل	-6222
▁والعرض	-6223
▁والقمر	-6224
▁واولاد	-6225
▁وبعدما	-6226
▁وحينئذ	-6227
▁وخرجوا	-6228
▁وصادوق	-6229
▁ويتكلم	-6230
▁يسيرون	-6231
▁ينزلون	-6232
▁اخيتوفل	-6233
▁اعطيتني	-6234
▁الاسماء	-6235
▁الباقية	-6236
▁الكتابة	-6237
▁الكنائس	-6238
▁خطاياهم	-6239
▁للتكفير	-6240
▁لمحاربة	-6241
▁ليأكلوا	-6242
▁واخوتهم	-6243
▁واصعدوا	-6244
▁والنحاس	-6245
▁وفرائضه	-6246
▁بالناموس	-6247
▁والاحكام	-6248
▁الاراميين	-6249
حى	-6250
رن	-6251
زح	-6252
وذ	-6253
آخر	-6254
أصل	-6255
ؤكم	-6256
ارع	-6257
تمر	-6258
تمس	-6259
جرى	-6260
جهة	-6261
حضة	-6262
داه	-6263
راث	-6264
سرى	-6265
سمع	-6266
شاء	-6267
شبع	-6268
شعر	-6269
شور	-6270
صاد	-6271
طاد	-6272
طاع	-6273
طنة	-6274
ظرا	-6275
عاف	-6276
عطى	-6277
عظم	-6278
فيب	-6279
قاب	-6280
قته	-6281
قدة	-6282
قسم	-6283
قوت	-6284
كره	-6285
ماه	-6286
معة	-6287
ميص	-6288
هدت	-6289
وام	-6290
وجة	-6291
يعة	-6292
ينك	-6293
يوا	-6294
▁آم	-6295
▁جي	-6296
▁در	-6297
▁دن	-6298
▁طر	-6299
▁كق	-6300
▁هز	-6301
▁وظ	-6302
أولى	-6303
ابله	-6304
بطين	-6305
تهاد	-6306
تهزئ	-6307
راحت	-6308
راسة	-6309
رتها	-6310
زلوا	-6311
شاقى	-6312
صاعد	-6313
ضبان	-6314
عادة	-6315
قدسه	-6316
قرون	-6317
قلون	-6318
كتوا	-6319
كوني	-6320
مدان	-6321
وباب	-6322
وثون	-6323
وعير	-6324
ولئك	-6325
ياها	-6326
يتني	-6327
يقين	-6328
▁اتع	-6329
▁اذي	-6330
▁الإ	-6331
▁اية	-6332
▁باع	-6333
▁تبع	-6334
▁تحب	-6335
▁تيس	-6336
▁تين	-6337
▁جنة	-6338
▁جيح	-6339
▁حجي	-6340
▁ساب	-6341
▁عام	-6342
▁عرا	-6343
▁عظم	-6344
▁عير	-6345
▁غسل	-6346
▁فاي	-6347
▁فبه	-6348
▁فصل	-6349
▁فلس	-6350
▁قيس	-6351
▁كلب	-6352
▁لقي	-6353
▁لوز	-6354
▁ليك	-6355
▁متر	-6356
▁محر	-6357
▁وتد	-6358
▁وتز	-6359
▁وحن	-6360
▁وخا	-6361
▁وعي	-6362
▁وغن	-6363
▁ويو	-6364
▁يرث	-6365
ائيين	-6366
علموا	-6367
كاذيب	-6368
مودية	-6369
ياثار	-6370
يماني	-6371
▁أخبر	-6372
▁أعطي	-6373
▁أفما	-6374
▁اسكب	-6375
▁اشته	-6376
▁اغلق	-6377
▁الحر	-6378
▁الصح	-6379
▁الصف	-6380
▁الضع	-6381
▁الكم	-6382
▁امتك	-6383
▁بالل	-6384
▁باني	-6385
▁بقوا	-6386
▁بمثل	-6387
▁بناه	-6388
▁بوجه	-6389
▁تألم	-6390
▁تجيء	-6391
▁تخلص	-6392
▁تذبح	-6393
▁تعبت	-6394
▁ثمرة	-6395
▁حبيب	-6396
▁دفعت	-6397
▁دمها	-6398
▁راعي	-6399
▁راية	-6400
▁ساقط	-6401
▁سواء	-6402
▁صحيح	-6403
▁صنعه	-6404
▁صوتك	-6405
▁ضمير	-6406
▁طويل	-6407
▁عادة	-6408
▁عزرا	-6409
▁عزيا	-6410
▁فاعل	-6411
▁فالى	-6412
▁فداء	-6413
▁فرصة	-6414
▁فقطع	-6415
▁فليت	-6416
▁قاتل	-6417
▁قاعد	-6418
▁قدسي	-6419
▁قطعة	-6420
▁قطعه	-6421
▁قولا	-6422
▁قيصر	-6423
▁كالن	-6424
▁كورش	-6425
▁لبنة	-6426
▁مجدك	-6427
▁مرسل	-6428
▁مستد	-6429
▁ميتة	-6430
▁نجني	-6431
▁نسمة	-6432
▁نعطي	-6433
▁هذان	-6434
▁وإلا	-6435
▁وتمت	-6436
▁وزنه	-6437
▁وسلم	-6438
▁وسيف	-6439
▁وصاح	-6440
▁وقبل	-6441
▁ومنا	-6442
▁يؤتى	-6443
▁يؤخذ	-6444
▁يخاف	-6445
▁يرتد	-6446
▁يروا	-6447
▁يضيء	-6448
▁يعيش	-6449
▁يكثر	-6450
▁يكمل	-6451
▁يمنع	-6452
▁يونا	-6453
▁آبائي	-6454
▁أعطيت	-6455
▁اجنحة	-6456
▁افتخر	-6457
▁اكلوا	-6458
▁الثوب	-6459
▁الحسن	-6460
▁الحية	-6461
▁الخرب	-6462
▁السطح	-6463
▁العصا	-6464
▁الغلف	-6465
▁الغمر	-6466
▁القائ	-6467
▁القها	-6468
▁المحب	-6469
▁الموآ	-6470
▁الهين	-6471
▁اموال	-6472
▁انقطع	-6473
▁بايدي	-6474
▁بهائم	-6475
▁تعطون	-6476
▁تمتلك	-6477
▁توكلت	-6478
▁جميلة	-6479
▁حننيا	-6480
▁زوجها	-6481
▁ساكنا	-6482
▁سبحوا	-6483
▁سيكون	-6484
▁صنعها	-6485
▁طرقهم	-6486
▁فاحفظ	-6487
▁فتصير	-6488
▁فدخلت	-6489
▁قلبها	-6490
▁ليعطي	-6491
▁ليقتل	-6492
▁مختوم	-6493
▁معروف	-6494
▁مغارة	-6495
▁ملاكا	-6496
▁وابيد	-6497
▁والاخ	-6498
▁والحث	-6499
▁وامتل	-6500
▁وتضرع	-6501
▁وذراع	-6502
▁وسأله	-6503
▁وضعوا	-6504
▁وعدلا	-6505
▁وعملت	-6506
▁ووضعه	-6507
▁ويقتل	-6508
▁ويقيم	-6509
▁يأتوا	-6510
▁يابسة	-6511
▁يجتاز	-6512
▁ينقطع	-6513
▁آباؤنا	-6514
▁اثنتين	-6515
▁اخبروا	-6516
▁ارفعوا	-6517
▁الامير	-6518
▁البيدر	-6519
▁الجيدة	-6520
▁الجيوش	-6521
▁الرائي	-6522
▁الراعي	-6523
▁الرواق	-6524
▁الشعير	-6525
▁الطيور	-6526
▁العظام	-6527
▁الكتان	-6528
▁المدخل	-6529
▁الموعد	-6530
▁اليسار	-6531
▁بيوتهم	-6532
▁تؤمنون	-6533
▁ترديدا	-6534
▁تسبيحة	-6535
▁تكلموا	-6536
▁فخرجوا	-6537
▁للجميع	-6538
▁للمرأة	-6539
▁والابد	-6540
▁والروح	-6541
▁وبناتك	-6542
▁وساروا	-6543
▁وسبعين	-6544
▁وعمورة	-6545
▁وكلمهم	-6546
▁يأخذون	-6547
▁يباركك	-6548
▁يحفظوا	-6549
▁يقولوا	-6550
▁يموتون	-6551
▁الاقوال	-6552
▁الاماكن	-6553
▁الاوثان	-6554
▁الحادية	-6555
▁الخامسة	-6556
▁الرجلين	-6557
▁الشريرة	-6558
▁العظماء	-6559
▁انطاكية	-6560
▁ويشربون	-6561
▁ويكونون	-6562
▁الداخلين	-6563
▁والاموريين	-6564
▁واليبوسيين	-6565
ئس	-6566
ئن	-6567
بى	-6568
جج	-6569
عص	-6570
فث	-6571
أون	-6572
ؤها	-6573
ارا	-6574
اية	-6575
بأت	-6576
جلد	-6577
حسن	-6578
خيا	-6579
خير	-6580
درخ	-6581
دعى	-6582
ذاب	-6583
رني	-6584
سمه	-6585
شرة	-6586
صني	-6587
صون	-6588
ضيا	-6589
طوب	-6590
ظري	-6591
فار	-6592
فها	-6593
قاة	-6594
قلغ	-6595
كاء	-6596
لاد	-6597
نعم	-6598
هدي	-6599
واج	-6600
واد	-6601
وحة	-6602
وحي	-6603
وسن	-6604
وفة	-6605
يبس	-6606
▁شغ	-6607
▁كط	-6608
▁مأ	-6609
▁مذ	-6610
اتها	-6611
اريح	-6612
اعوا	-6613
الية	-6614
ترنم	-6615
تيين	-6616
جنبي	-6617
داسة	-6618
ديكم	-6619
ذراع	-6620
رحمة	-6621
ساعد	-6622
ضباب	-6623
ضعوا	-6624
طفوا	-6625
ظرون	-6626
ظرين	-6627
عبون	-6628
فقير	-6629
كرات	-6630
كلما	-6631
مسوح	-6632
ملين	-6633
نئيل	-6634
نايم	-6635
هوات	-6636
وبيخ	-6637
ياته	-6638
يادة	-6639
يامة	-6640
يليا	-6641
يموت	-6642
▁اخل	-6643
▁اشر	-6644
▁افر	-6645
▁بسب	-6646
▁بوص	-6647
▁تحر	-6648
▁ترب	-6649
▁تسب	-6650
▁جوج	-6651
▁حاد	-6652
▁خزف	-6653
▁داخ	-6654
▁دفن	-6655
▁رفق	-6656
▁سائ	-6657
▁سكت	-6658
▁سها	-6659
▁سيل	-6660
▁شكر	-6661
▁صدر	-6662
▁طائ	-6663
▁عوج	-6664
▁غفر	-6665
▁غني	-6666
▁فخل	-6667
▁فقب	-6668
▁فها	-6669
▁قصر	-6670
▁قضى	-6671
▁كاج	-6672
▁لتت	-6673
▁لحا	-6674
▁لوم	-6675
▁مرف	-6676
▁مضت	-6677
▁ممن	-6678
▁نحم	-6679
▁نسي	-6680
▁نغو	-6681
▁هتا	-6682
▁وتج	-6683
▁وحق	-6684
▁ودي	-6685
▁ومص	-6686
▁ويط	-6687
الواح	-6688
بروته	-6689
خائيل	-6690
رادان	-6691
مالقة	-6692
▁اشهد	-6693
▁افرا	-6694
▁اكله	-6695
▁بامر	-6696
▁بانه	-6697
▁بعدك	-6698
▁بغضب	-6699
▁بقرب	-6700
▁بناء	-6701
▁بنوك	-6702
▁بهاء	-6703
▁تدعى	-6704
▁تشته	-6705
▁تطلق	-6706
▁تعبه	-6707
▁تيوس	-6708
▁ثالث	-6709
▁حبال	-6710
▁حروب	-6711
▁حلما	-6712
▁حنان	-6713
▁خوفا	-6714
▁سلكت	-6715
▁شدرخ	-6716
▁شرقي	-6717
▁صاعد	-6718
▁صوغر	-6719
▁صيدا	-6720
▁ضربت	-6721
▁طولا	-6722
▁عقاب	-6723
▁علما	-6724
▁عناق	-6725
▁عهده	-6726
▁غروب	-6727
▁غنمك	-6728
▁فاقت	-6729
▁فحسب	-6730
▁فذلك	-6731
▁فغور	-6732
▁فلين	-6733
▁قامت	-6734
▁قبال	-6735
▁كذبا	-6736
▁كرجل	-6737
▁كهذه	-6738
▁لآخر	-6739
▁لهذه	-6740
▁لولا	-6741
▁ماتت	-6742
▁مخاص	-6743
▁مطرا	-6744
▁معزى	-6745
▁مهلك	-6746
▁نسله	-6747
▁نسمع	-6748
▁نصعد	-6749
▁وألق	-6750
▁واخي	-6751
▁واشت	-6752
▁وثيا	-6753
▁وكبر	-6754
▁ومرك	-6755
▁ونفس	-6756
▁يدفن	-6757
▁يدوس	-6758
▁يرفض	-6759
▁يعثر	-6760
▁يغطي	-6761
▁يفنى	-6762
▁يقدس	-6763
▁يكرم	-6764
▁يليق	-6765
▁يومه	-6766
تهزئون	-6767
فيبوشث	-6768
▁آمنين	-6769
▁ارضها	-6770
▁اصوات	-6771
▁اضعاف	-6772
▁اعماق	-6773
▁اقسمت	-6774
▁الالف	-6775
▁الشوا	-6776
▁الطول	-6777
▁الطين	-6778
▁العشر	-6779
▁الفجر	-6780
▁اللبن	-6781
▁المحا	-6782
▁المعا	-6783
▁الواح	-6784
▁الوجه	-6785
▁اموات	-6786
▁اناسا	-6787
▁باطلة	-6788
▁بالدم	-6789
▁بالشر	-6790
▁بيضاء	-6791
▁تاكله	-6792
▁تخافي	-6793
▁تخمهم	-6794
▁ترتعب	-6795
▁تماما	-6796
▁ثيابك	-6797
▁جعلتك	-6798
▁حاصور	-6799
▁حوالي	-6800
▁حياتك	-6801
▁خضراء	-6802
▁درجات	-6803
▁راسها	-6804
▁سبوتي	-6805
▁سحابة	-6806
▁صخرتي	-6807
▁صغيرا	-6808
▁طالبي	-6809
▁طاهرا	-6810
▁طردهم	-6811
▁طلبوا	-6812
▁عجائب	-6813
▁عربات	-6814
▁عقرون	-6815
▁فاجعل	-6816
▁فانتم	-6817
▁فرقته	-6818
▁فنظرت	-6819
▁كلمته	-6820
▁لتعمل	-6821
▁للبعل	-6822
▁ماكير	-6823
▁مجانا	-6824
▁مخادع	-6825
▁مرارا	-6826
▁مكرهة	-6827
▁مكروه	-6828
▁مواشي	-6829
▁نتكلم	-6830
▁واغفر	-6831
▁والحم	-6832
▁واوقد	-6833
▁وبنوك	-6834
▁وتأكل	-6835
▁وتحفظ	-6836
▁وتنبأ	-6837
▁وتيسا	-6838
▁وجعلت	-6839
▁وجهها	-6840
▁وحدها	-6841
▁ودخلت	-6842
▁ورائه	-6843
▁وضربه	-6844
▁وطريق	-6845
▁ومذبح	-6846
▁ومعهم	-6847
▁ويسمع	-6848
▁ويطرح	-6849
▁يتبرر	-6850
▁يرتفع	-6851
▁يرثون	-6852
▁ينادي	-6853
▁آباءكم	-6854
▁اجابهم	-6855
▁احمدوا	-6856
▁اعيننا	-6857
▁افرحوا	-6858
▁الأمور	-6859
▁الاعمى	-6860
▁الثياب	-6861
▁الجبار	-6862
▁الخفاء	-6863
▁العشاء	-6864
▁الغيرة	-6865
▁الموتى	-6866
▁انتظرت	-6867
▁اوصيكم	-6868
▁بالخير	-6869
▁بالفضة	-6870
▁تأكلوا	-6871
▁تطلبون	-6872
▁تفعلوا	-6873
▁تقدموا	-6874
▁خطاياك	-6875
▁داريوس	-6876
▁شياطين	-6877
▁عورتها	-6878
▁فابتدأ	-6879
▁فانصرف	-6880
▁فينحاس	-6881
▁لآبائك	-6882
▁لتقدمة	-6883
▁لحزقيا	-6884
▁للحياة	-6885
▁ممدودة	-6886
▁والبعض	-6887
▁والخمر	-6888
▁وجعلها	-6889
▁وعبدوا	-6890
▁ومئتان	-6891
▁ومعرفة	-6892
▁وهربوا	-6893
▁يرجعون	-6894
▁يريدون	-6895
▁اجنحتها	-6896
▁اصنامهم	-6897
▁اعدائكم	-6898
▁الابناء	-6899
▁الارملة	-6900
▁الاشجار	-6901
▁الاودية	-6902
▁التعليم	-6903
▁الجارية	-6904
▁الخصيان	-6905
▁الرديئة	-6906
▁السلطان	-6907
▁العينين	-6908
▁الغنيمة	-6909
▁الفقراء	-6910
▁المصاعد	-6911
▁لآبائهم	-6912
▁والغريب	-6913
▁والمرأة	-6914
▁الخارجين	-6915
▁الصديقين	-6916
▁المحرقات	-6917
▁المعمدان	-6918
▁بالحقيقة	-6919
▁والارملة	-6920
▁والثلاثين	-6921
▁المستقيمين	-6922
▁بالاستقامة	-6923
ئد	-6924
بئ	-6925
بث	-6926
ذذ	-6927
فف	-6928
لد	-6929
نج	-6930
ؤخذ	-6931
ائس	-6932
انت	-6933
ثني	-6934
حاد	-6935
حمق	-6936
راز	-6937
ربه	-6938
رلة	-6939
زاء	-6940
زيك	-6941
شهد	-6942
ضرة	-6943
طبخ	-6944
عاه	-6945
عيا	-6946
فلت	-6947
فنى	-6948
فيا	-6949
فيف	-6950
كني	-6951
ماي	-6952
هلل	-6953
وجب	-6954
وسة	-6955
ياع	-6956
▁تث	-6957
▁حث	-6958
▁خش	-6959
▁رغ	-6960
▁سؤ	-6961
▁عك	-6962
▁كز	-6963
ائية	-6964
ابيح	-6965
اروث	-6966
ارون	-6967
الين	-6968
امير	-6969
بتهم	-6970
تهلك	-6971
جانب	-6972
جعوا	-6973
ديون	-6974
ذهاب	-6975
رتفع	-6976
رعوا	-6977
رفات	-6978
سروا	-6979
سلوا	-6980
صروا	-6981
صوين	-6982
ضعين	-6983
طعام	-6984
طفون	-6985
طياب	-6986
فادع	-6987
فاهم	-6988
فتقد	-6989
فلوج	-6990
فيرا	-6991
قدار	-6992
كرين	-6993
كلهم	-6994
كملت	-6995
لاسل	-6996
لميا	-6997
مسكت	-6998
نيين	-6999
ورات	-7000
ورون	-7001
يدكم	-7002
يمعص	-7003
▁أتت	-7004
▁اسد	-7005
▁برد	-7006
▁بسر	-7007
▁بوق	-7008
▁تاج	-7009
▁تتأ	-7010
▁تدن	-7011
▁تسم	-7012
▁تشق	-7013
▁تعا	-7014
▁تمل	-7015
▁ثمن	-7016
▁حصن	-7017
▁خجل	-7018
▁خرا	-7019
▁خرب	-7020
▁سرت	-7021
▁غلب	-7022
▁فجل	-7023
▁فيع	-7024
▁كأن	-7025
▁كنز	-7026
▁لاع	-7027
▁للد	-7028
▁مسل	-7029
▁هاب	-7030
▁وبت	-7031
▁وبس	-7032
▁وبغ	-7033
▁وحو	-7034
▁وشم	-7035
▁وكا	-7036
▁وكس	-7037
▁ومخ	-7038
▁يتر	-7039
▁يظن	-7040
ذبحوا	-7041
رائحة	-7042
رافيم	-7043
رامين	-7044
رتفعا	-7045
ناحوم	-7046
نازير	-7047
وابون	-7048
وليمة	-7049
▁ألست	-7050
▁ابدا	-7051
▁اتبع	-7052
▁اتوا	-7053
▁اثبت	-7054
▁اجلي	-7055
▁ادرك	-7056
▁ارتد	-7057
▁ارنم	-7058
▁اسوا	-7059
▁الاد	-7060
▁الاف	-7061
▁الخل	-7062
▁الفم	-7063
▁الوق	-7064
▁بالد	-7065
▁بالش	-7066
▁تارح	-7067
▁تجري	-7068
▁تحته	-7069
▁تخاف	-7070
▁تدفع	-7071
▁تسلط	-7072
▁تعبر	-7073
▁تكثر	-7074
▁تكشف	-7075
▁تمام	-7076
▁تملك	-7077
▁تمنع	-7078
▁تنال	-7079
▁تنزع	-7080
▁جعله	-7081
▁خالص	-7082
▁خراب	-7083
▁ذاته	-7084
▁راكب	-7085
▁سأله	-7086
▁ستون	-7087
▁سخطي	-7088
▁سراج	-7089
▁شفاه	-7090
▁صرنا	-7091
▁صفوف	-7092
▁عدوك	-7093
▁عظمة	-7094
▁عنقك	-7095
▁فبنى	-7096
▁فجلس	-7097
▁فعرف	-7098
▁قادر	-7099
▁قراب	-7100
▁قلبا	-7101
▁قلنا	-7102
▁قمحا	-7103
▁قولي	-7104
▁كالم	-7105
▁كصوت	-7106
▁كمال	-7107
▁للبر	-7108
▁لهيب	-7109
▁ليفت	-7110
▁مئتي	-7111
▁مشور	-7112
▁ملكك	-7113
▁نبوز	-7114
▁وأخذ	-7115
▁واقم	-7116
▁والأ	-7117
▁وامك	-7118
▁واوق	-7119
▁وايا	-7120
▁وبات	-7121
▁وبوص	-7122
▁وثور	-7123
▁وفتح	-7124
▁وقته	-7125
▁وللم	-7126
▁ووصل	-7127
▁يافا	-7128
▁يحرق	-7129
▁يصلح	-7130
▁يطرح	-7131
▁يظلم	-7132
▁يمضي	-7133
▁ينجو	-7134
▁ينفع	-7135
▁يهوه	-7136
▁آخرون	-7137
▁آنيته	-7138
▁ابكار	-7139
▁ابيكم	-7140
▁اثمار	-7141
▁اجابه	-7142
▁احترز	-7143
▁احتمل	-7144
▁اسمعي	-7145
▁اقتحم	-7146
▁اقسام	-7147
▁اكليل	-7148
▁الحزن	-7149
▁الحلق	-7150
▁الخشب	-7151
▁الرحم	-7152
▁الرمح	-7153
▁الزنى	-7154
▁السوء	-7155
▁السيل	-7156
▁الشجر	-7157
▁الصيف	-7158
▁المنت	-7159
▁اماكن	-7160
▁بنفسه	-7161
▁تأديب	-7162
▁تفتخر	-7163
▁ثانيا	-7164
▁جرشون	-7165
▁حرمون	-7166
▁حقويه	-7167
▁خطيتي	-7168
▁دائمة	-7169
▁ساراي	-7170
▁سمعته	-7171
▁شريرة	-7172
▁شفتيه	-7173
▁صوتهم	-7174
▁طريقا	-7175
▁عثليا	-7176
▁عطايا	-7177
▁عظامه	-7178
▁عماسا	-7179
▁غريبا	-7180
▁غلتها	-7181
▁فافعل	-7182
▁فيخرج	-7183
▁قاريح	-7184
▁قبلما	-7185
▁قريبا	-7186
▁قصيدة	-7187
▁كبيرا	-7188
▁كتابة	-7189
▁كلمهم	-7190
▁لاجله	-7191
▁لاسمي	-7192
▁لانني	-7193
▁لقيصر	-7194
▁لكلام	-7195
▁للسكن	-7196
▁للكبش	-7197
▁ماتوا	-7198
▁متسلط	-7199
▁متمرد	-7200
▁مدنها	-7201
▁مرارة	-7202
▁مسالك	-7203
▁منهما	-7204
▁وآنية	-7205
▁وأتيا	-7206
▁وأعطي	-7207
▁وابني	-7208
▁واعلم	-7209
▁والسم	-7210
▁واوصى	-7211
▁وتدخل	-7212
▁وجدوا	-7213
▁وسائر	-7214
▁وسجدت	-7215
▁وشمعي	-7216
▁وقدام	-7217
▁ومنظر	-7218
▁ويصنع	-7219
▁ويفرح	-7220
▁وينزع	-7221
▁يربعل	-7222
▁يقاوم	-7223
▁يقترب	-7224
▁يقفون	-7225
▁يميني	-7226
▁يهوآش	-7227
وبينيين	-7228
▁احشائي	-7229
▁اعطانا	-7230
▁اعطاها	-7231
▁اعطيها	-7232
▁اقاموا	-7233
▁الالوف	-7234
▁التيمن	-7235
▁التينة	-7236
▁الجراد	-7237
▁الحاضر	-7238
▁الرديء	-7239
▁الرسول	-7240
▁السرير	-7241
▁الصغار	-7242
▁الصورة	-7243
▁العسكر	-7244
▁العشرة	-7245
▁العليا	-7246
▁القاضي	-7247
▁الكرمة	-7248
▁اللسان	-7249
▁المئات	-7250
▁المذنب	-7251
▁المرضى	-7252
▁امرأتي	-7253
▁بايمان	-7254
▁بحجارة	-7255
▁تدخلوا	-7256
▁خدمتهم	-7257
▁خيامهم	-7258
▁عروعير	-7259
▁كليهما	-7260
▁مضطجعا	-7261
▁ملتوتا	-7262
▁وابواب	-7263
▁واجعلك	-7264
▁والقوا	-7265
▁والكنع	-7266
▁ودفنوه	-7267
▁وصعدوا	-7268
▁وضربهم	-7269
▁وكرامة	-7270
▁وكونوا	-7271
▁اعطيتها	-7272
▁اعمالكم	-7273
▁الابرار	-7274
▁الاحشاء	-7275
▁الارواح	-7276
▁الاعمدة	-7277
▁البكرات	-7278
▁التلميذ	-7279
▁الرجلان	-7280
▁الساكنة	-7281
▁الشفتين	-7282
▁الشوارع	-7283
▁العذراء	-7284
▁الكسلان	-7285
▁الميعاد	-7286
▁اليهودي	-7287
▁بالسلام	-7288
▁كلتاهما	-7289
▁لانفسنا	-7290
▁ملائكته	-7291
▁واليتيم	-7292
▁يرتحلون	-7293
▁يوحانان	-7294
▁الثلاثين	-7295
▁الكروبين	-7296
▁الهابطين	-7297
▁تيموثاوس	-7298
▁كفرناحوم	-7299
▁والاربعة	-7300
▁والمدينة	-7301
▁القهاتيين	-7302
▁نبوزرادان	-7303
▁العبرانيين	-7304
تق	-7305
خس	-7306
لظ	-7307
هض	-7308
ئاب	-7309
ائع	-7310
الت	-7311
حني	-7312
خري	-7313
خين	-7314
راح	-7315
راط	-7316
ريز	-7317
ستا	-7318
سيه	-7319
ضره	-7320
ضيق	-7321
قطر	-7322
قهم	-7323
كمن	-7324
لقا	-7325
ماة	-7326
موص	-7327
ناز	-7328
نيك	-7329
ههم	-7330
ودك	-7331
وعم	-7332
وقة	-7333
يان	-7334
▁رز	-7335
▁زك	-7336
▁شط	-7337
▁شك	-7338
اتكم	-7339
اركك	-7340
بتكم	-7341
بكرا	-7342
تمجد	-7343
خروا	-7344
ذبوا	-7345
ذروا	-7346
رارة	-7347
رجها	-7348
رشوم	-7349
رفان	-7350
رفوا	-7351
ستهم	-7352
سنان	-7353
شايخ	-7354
ضطرب	-7355
عامل	-7356
عبده	-7357
فيهم	-7358
لايا	-7359
لهما	-7360
ماقة	-7361
مرها	-7362
معين	-7363
هيرة	-7364
وائد	-7365
وائل	-7366
واكب	-7367
وتاد	-7368
ومها	-7369
يقون	-7370
يلوا	-7371
▁أفل	-7372
▁أفي	-7373
▁اتت	-7374
▁احل	-7375
▁اسر	-7376
▁اطع	-7377
▁باح	-7378
▁باد	-7379
▁بسي	-7380
▁تبل	-7381
▁تحا	-7382
▁ترس	-7383
▁تغي	-7384
▁جاع	-7385
▁جبع	-7386
▁حصر	-7387
▁حصل	-7388
▁خدع	-7389
▁خصي	-7390
▁دنس	-7391
▁رؤى	-7392
▁ربط	-7393
▁رسل	-7394
▁زاد	-7395
▁سكب	-7396
▁عرش	-7397
▁غرب	-7398
▁غرس	-7399
▁فاص	-7400
▁فتك	-7401
▁فرس	-7402
▁فير	-7403
▁قرن	-7404
▁قمت	-7405
▁قير	-7406
▁لاف	-7407
▁لال	-7408
▁لتخ	-7409
▁لرب	-7410
▁ليه	-7411
▁ماش	-7412
▁مهي	-7413
▁مول	-7414
▁نائ	-7415
▁نحا	-7416
▁نست	-7417
▁وبح	-7418
▁وتأ	-7419
▁وظل	-7420
▁وقص	-7421
▁ونح	-7422
▁يائ	-7423
▁يتك	-7424
▁يدب	-7425
بابات	-7426
حاريب	-7427
دراوس	-7428
▁آموص	-7429
▁أظهر	-7430
▁أمرت	-7431
▁اثمك	-7432
▁اجيء	-7433
▁اخاك	-7434
▁اخذه	-7435
▁ادعو	-7436
▁اردن	-7437
▁اسلك	-7438
▁اشكر	-7439
▁اطرح	-7440
▁اقمت	-7441
▁اقوم	-7442
▁اقوى	-7443
▁التج	-7444
▁الجم	-7445
▁الطا	-7446
▁الكو	-7447
▁النس	-7448
▁امرت	-7449
▁امكث	-7450
▁باحد	-7451
▁ببعل	-7452
▁بشدة	-7453
▁بمئة	-7454
▁بواس	-7455
▁تؤكل	-7456
▁تبقى	-7457
▁تحكم	-7458
▁تحيا	-7459
▁ترصة	-7460
▁تروا	-7461
▁تزول	-7462
▁تقيم	-7463
▁تمتد	-7464
▁توال	-7465
▁جئتم	-7466
▁جاهل	-7467
▁حبلت	-7468
▁خزائ	-7469
▁خمير	-7470
▁دعوى	-7471
▁ريحا	-7472
▁زارح	-7473
▁سيما	-7474
▁شباب	-7475
▁شديد	-7476
▁صرتم	-7477
▁صعود	-7478
▁عارف	-7479
▁عجلة	-7480
▁عصاه	-7481
▁غطاء	-7482
▁فأمر	-7483
▁فاتى	-7484
▁فالج	-7485
▁فاها	-7486
▁فاين	-7487
▁فبكر	-7488
▁فدعي	-7489
▁فدية	-7490
▁فطلب	-7491
▁فطير	-7492
▁فعبر	-7493
▁فلير	-7494
▁قاله	-7495
▁كنفس	-7496
▁لاغا	-7497
▁لديه	-7498
▁لكما	-7499
▁للمس	-7500
▁ليحي	-7501
▁ليدك	-7502
▁مدنه	-7503
▁ميتا	-7504
▁نادى	-7505
▁نذرا	-7506
▁نعمل	-7507
▁نوحا	-7508
▁هاجر	-7509
▁هوشع	-7510
▁واعد	-7511
▁واين	-7512
▁وباب	-7513
▁وبسط	-7514
▁وبعض	-7515
▁وجند	-7516
▁وحول	-7517
▁وشبع	-7518
▁وغنم	-7519
▁وغير	-7520
▁ولحم	-7521
▁وليت	-7522
▁وماء	-7523
▁ومقب	-7524
▁ونزع	-7525
▁وهدم	-7526
▁ويرت	-7527
▁ويعط	-7528
▁يجيء	-7529
▁يصيح	-7530
▁يفحص	-7531
▁يقرب	-7532
▁ينجس	-7533
▁ينقض	-7534
ارجوان	-7535
▁أسلام	-7536
▁ابونا	-7537
▁اتراس	-7538
▁اثنتا	-7539
▁اذهبا	-7540
▁ارتحل	-7541
▁استجب	-7542
▁اشرار	-7543
▁اصعاد	-7544
▁الاست	-7545
▁البرص	-7546
▁الحمل	-7547
▁السخط	-7548
▁السفن	-7549
▁العجل	-7550
▁العرس	-7551
▁المقت	-7552
▁امتلأ	-7553
▁امتنع	-7554
▁انهما	-7555
▁بعينه	-7556
▁ترتيب	-7557
▁تعطوا	-7558
▁جرشوم	-7559
▁حانان	-7560
▁حورون	-7561
▁حولهم	-7562
▁رؤساؤ	-7563
▁رجليك	-7564
▁رسولا	-7565
▁رفعوا	-7566
▁رمليا	-7567
▁رومية	-7568
▁ساكنة	-7569
▁سبحوه	-7570
▁سكنوا	-7571
▁شعوبا	-7572
▁صوتها	-7573
▁ظلاما	-7574
▁عوارض	-7575
▁عيناه	-7576
▁فتنزع	-7577
▁فجاءت	-7578
▁فرأيت	-7579
▁فقامت	-7580
▁فنادى	-7581
▁فنزلت	-7582
▁فيعطي	-7583
▁فيوما	-7584
▁كايام	-7585
▁لآساف	-7586
▁لاخآب	-7587
▁لاسمك	-7588
▁لساني	-7589
▁لشعبه	-7590
▁لملكه	-7591
▁ليصعد	-7592
▁مبكرا	-7593
▁متكلم	-7594
▁مشلام	-7595
▁معثرة	-7596
▁ملوكا	-7597
▁ناحور	-7598
▁نعمان	-7599
▁واتخذ	-7600
▁واجاب	-7601
▁والاش	-7602
▁والسب	-7603
▁وامتد	-7604
▁واوقف	-7605
▁وتأخذ	-7606
▁وتذهب	-7607
▁وتعطي	-7608
▁وجدنا	-7609
▁وخذوا	-7610
▁ورؤوس	-7611
▁ورفعت	-7612
▁وشاول	-7613
▁وشعبه	-7614
▁وقفوا	-7615
▁وقلتم	-7616
▁وكثرة	-7617
▁وكثير	-7618
▁وكروم	-7619
▁وميشخ	-7620
▁ويحرق	-7621
▁ويدفع	-7622
▁يتألم	-7623
▁يحاكم	-7624
▁يحبون	-7625
▁يعرفه	-7626
يدونيين	-7627
▁اجناسه	-7628
▁احدهما	-7629
▁احكاما	-7630
▁ارجلهم	-7631
▁اعداءك	-7632
▁اكليلا	-7633
▁التلال	-7634
▁التنين	-7635
▁الحسنة	-7636
▁الحفرة	-7637
▁الخراب	-7638
▁الرشوة	-7639
▁الرماد	-7640
▁الشفاء	-7641
▁العجلة	-7642
▁القبور	-7643
▁الكروم	-7644
▁المظال	-7645
▁المهلك	-7646
▁الهتاف	-7647
▁اليتيم	-7648
▁اليزرع	-7649
▁امرأتك	-7650
▁ايدينا	-7651
▁تاكلون	-7652
▁تتزعزع	-7653
▁تذكارا	-7654
▁تسلكوا	-7655
▁تماثيل	-7656
▁جاريتك	-7657
▁خطواتي	-7658
▁ربشاقى	-7659
▁عيونكم	-7660
▁فاجابه	-7661
▁فاخذوا	-7662
▁فارسلت	-7663
▁فاعطاه	-7664
▁فرائضه	-7665
▁فصرخوا	-7666
▁كالماء	-7667
▁لالهنا	-7668
▁لصاحبه	-7669
▁لعبيدك	-7670
▁للعالم	-7671
▁للغلام	-7672
▁مباركا	-7673
▁مخارجه	-7674
▁مرتفعا	-7675
▁مكانها	-7676
▁والوبإ	-7677
▁وجعلوا	-7678
▁وسقطوا	-7679
▁وصنعوا	-7680
▁وعوارض	-7681
▁ومعسيا	-7682
▁وناثان	-7683
▁يسجدون	-7684
▁يفهمون	-7685
▁يموتوا	-7686
▁ابياثار	-7687
▁اسماؤهم	-7688
▁الاسباط	-7689
▁الاسواق	-7690
▁الاصنام	-7691
▁الاطفال	-7692
▁التأديب	-7693
▁التمثال	-7694
▁الثيران	-7695
▁الذبيحة	-7696
▁الطاهرة	-7697
▁العصفور	-7698
▁العلامة	-7699
▁المجامع	-7700
▁المحيطة	-7701
▁المعطاة	-7702
▁المغارة	-7703
▁الولاية	-7704
▁بالحكمة	-7705
▁بالكلمة	-7706
▁خطايانا	-7707
▁سنحاريب	-7708
▁فاجابوا	-7709
▁ليعملوا	-7710
▁واجعلهم	-7711
▁وافرايم	-7712
▁والخراف	-7713
▁والمذبح	-7714
▁والولاة	-7715
▁وبناتهم	-7716
▁مواليدهم	-7717
▁والانسان	-7718
▁والتقدمة	-7719
▁والحيوان	-7720
▁والعشرون	-7721
▁ليهوشافاط	-7722
طش	-7723
غى	-7724
قق	-7725
لح	-7726
نف	-7727
ئيم	-7728
اها	-7729
تاق	-7730
تبر	-7731
جده	-7732
جية	-7733
خاص	-7734
دبه	-7735
راض	-7736
رعت	-7737
سعة	-7738
شاب	-7739
شاد	-7740
صلب	-7741
صها	-7742
ضبط	-7743
ضلة	-7744
طلة	-7745
غون	-7746
فكر	-7747
فوف	-7748
قاط	-7749
قلع	-7750
قيه	-7751
لاق	-7752
لية	-7753
مده	-7754
مسة	-7755
نيع	-7756
وبى	-7757
وده	-7758
وره	-7759
وسج	-7760
وشة	-7761
▁أح	-7762
▁خت	-7763
▁دف	-7764
▁دل	-7765
▁ذه	-7766
▁ضر	-7767
▁لإ	-7768
▁يض	-7769
الها	-7770
بيعة	-7771
تفوا	-7772
تمرد	-7773
جنوب	-7774
خروج	-7775
داءة	-7776
ذاره	-7777
راسي	-7778
رايا	-7779
رباب	-7780
رسوا	-7781
زلاي	-7782
زلون	-7783
سبوا	-7784
صدون	-7785
عادي	-7786
فتهم	-7787
قبله	-7788
كتين	-7789
كونه	-7790
متين	-7791
مسين	-7792
موها	-7793
موهم	-7794
هودا	-7795
وانب	-7796
ولين	-7797
يدار	-7798
يعال	-7799
يكال	-7800
▁آوى	-7801
▁اشك	-7802
▁اصد	-7803
▁اطا	-7804
▁اقل	-7805
▁امد	-7806
▁باج	-7807
▁باخ	-7808
▁بحق	-7809
▁بلب	-7810
▁تبق	-7811
▁تجا	-7812
▁تخت	-7813
▁تسل	-7814
▁تصد	-7815
▁تفر	-7816
▁تقا	-7817
▁تمد	-7818
▁جدي	-7819
▁جرب	-7820
▁جرح	-7821
▁جمر	-7822
▁حبس	-7823
▁دهر	-7824
▁ذاه	-7825
▁ريا	-7826
▁زور	-7827
▁زين	-7828
▁سوء	-7829
▁سير	-7830
▁شاخ	-7831
▁شبا	-7832
▁صبر	-7833
▁طهر	-7834
▁عاق	-7835
▁عنق	-7836
▁عود	-7837
▁غلا	-7838
▁فرض	-7839
▁فسا	-7840
▁فسي	-7841
▁ففت	-7842
▁فكا	-7843
▁فلك	-7844
▁فمر	-7845
▁فيق	-7846
▁كثر	-7847
▁كره	-7848
▁كشف	-7849
▁لام	-7850
▁لحي	-7851
▁لنب	-7852
▁لنت	-7853
▁ليق	-7854
▁مار	-7855
▁مجن	-7856
▁مخط	-7857
▁مشت	-7858
▁نصب	-7859
▁هور	-7860
▁ودم	-7861
▁ورع	-7862
▁وسي	-7863
▁وشل	-7864
▁وطر	-7865
▁وقا	-7866
▁ونص	-7867
▁يأت	-7868
▁يسب	-7869
▁يعر	-7870
▁يمل	-7871
ائبهن	-7872
جائبك	-7873
خافون	-7874
ريباس	-7875
سلطان	-7876
شيطان	-7877
صومات	-7878
عبدون	-7879
فقراء	-7880
لمناع	-7881
مسكين	-7882
ناسها	-7883
▁آمنت	-7884
▁أخذت	-7885
▁أمرا	-7886
▁ابرص	-7887
▁اثمي	-7888
▁احمل	-7889
▁اخته	-7890
▁اخيا	-7891
▁اذنه	-7892
▁ارجو	-7893
▁اساس	-7894
▁اشبع	-7895
▁اشرف	-7896
▁اعمق	-7897
▁اقتل	-7898
▁اكلا	-7899
▁الجث	-7900
▁الحم	-7901
▁الظل	-7902
▁الفر	-7903
▁الوك	-7904
▁امان	-7905
▁امته	-7906
▁باله	-7907
▁بذلك	-7908
▁بطنك	-7909
▁بعدي	-7910
▁بكره	-7911
▁بمكر	-7912
▁بنتي	-7913
▁تتعب	-7914
▁تحول	-7915
▁تخدم	-7916
▁تخرب	-7917
▁تدوس	-7918
▁ترسل	-7919
▁تصرخ	-7920
▁تمنة	-7921
▁تيطس	-7922
▁جازر	-7923
▁جديد	-7924
▁جميل	-7925
▁جهنم	-7926
▁حاجة	-7927
▁حبلى	-7928
▁حدثت	-7929
▁حمور	-7930
▁خادم	-7931
▁خدام	-7932
▁خزيا	-7933
▁	-7934
ا	-7935
ل	-7936
ي	-7937
و	-7938
م	-7939
ن	-7940
ر	-7941
ب	-7942
ه	-7943
ع	-7944
ت	-7945
ك	-7946
ف	-7947
س	-7948
د	-7949
.	-7950
ق	-7951
ح	-7952
ج	-7953
ة	-7954
ذ	-7955
ش	-7956
خ	-7957
ى	-7958
ص	-7959
ط	-7960
ض	-7961
ئ	-7962
ث	-7963
ّ	-7964
ز	-7965
أ	-7966
ء	-7967
غ	-7968
آ	-7969
ظ	-7970
ؤ	-7971
إ	-7972
*	-7973
ـ	-7974
-	-7975
ً	-7976
(	-7977
)	-7978
I	-7979
:	-7980
1	-7981
2	-7982
[	-7983
]	-7984
h	-7985
o	-7986
5	-7987
6	-7988
J	-7989
T	-7990
i	-7991
m	-7992
n	-7993
t	-7994
y	-7995
ٍ	-7996
