<pad>	0
</s>	0
<unk>	0
▁क	-0
▁स	-1
▁ह	-2
▁प	-3
▁म	-4
्र	-5
ार	-6
▁है	-7
▁ज	-8
ें	-9
▁के	-10
▁अ	-11
▁व	-12
या	-13
▁न	-14
▁ब	-15
ों	-16
▁त	-17
▁उ	-18
▁द	-19
▁ल	-20
ने	-21
▁में	-22
▁औ	-23
▁र	-24
ता	-25
▁और	-26
र्	-27
▁की	-28
्य	-29
▁कर	-30
▁कि	-31
ान	-32
▁आ	-33
▁प्र	-34
▁को	-35
▁से	-36
िक	-37
▁भ	-38
्त	-39
▁का	-40
ना	-41
▁ग	-42
▁इ	-43
ित	-44
▁(	-45
▁पर	-46
▁हो	-47
ाल	-48
▁य	-49
▁ए	-50
▁च	-51
्व	-52
न्	-53
ही	-54
▁श	-55
िए	-56
▁वि	-57
ते	-58
▁जा	-59
▁सं	-60
▁हैं	-61
▁इस	-62
िय	-63
▁एक	-64
▁उस	-65
था	-66
ला	-67
ोग	-68
के	-69
्ष	-70
▁ख	-71
ड़	-72
्ट	-73
ति	-74
हा	-75
▁लिए	-76
ुम	-77
्या	-78
▁सम	-79
ती	-80
▁अप	-81
▁जो	-82
▁फ	-83
हीं	-84
▁सा	-85
स्	-86
िया	-87
▁तो	-88
वा	-89
▁दे	-90
▁उन	-91
▁भी	-92
▁नहीं	-93
▁हम	-94
रा	-95
▁नि	-96
से	-97
दा	-98
▁तुम	-99
त्र	-100
ल्	-101
का	-102
सी	-103
▁ने	-104
▁रा	-105
▁जि	-106
री	-107
▁या	-108
कार	-109
▁बा	-110
ास	-111
▁किया	-112
नी	-113
क्ष	-114
गा	-115
▁अन	-116
▁यह	-117
ष्ट	-118
ले	-119
▁ही	-120
मा	-121
कर	-122
ंग	-123
▁करने	-124
ज़	-125
ेश	-126
▁अध	-127
सा	-128
ारा	-129
▁वह	-130
त्	-131
▁लोग	-132
▁मु	-133
▁थ	-134
▁स्	-135
▁हु	-136
क्त	-137
की	-138
िल	-139
िर	-140
▁कु	-141
▁कार	-142
▁ड	-143
ियों	-144
िन	-145
न्ह	-146
ाम	-147
ाह	-148
▁उप	-149
▁सक	-150
ारे	-151
द्	-152
▁रह	-153
ारी	-154
▁अपने	-155
▁वे	-156
▁था	-157
▁ले	-158
▁1	-159
रे	-160
▁ऐ	-161
मान	-162
भा	-163
्री	-164
्च	-165
ूप	-166
▁भार	-167
स्त	-168
ुर	-169
गे	-170
वि	-171
कि	-172
▁पू	-173
ओं	-174
▁उन्ह	-175
▁ध	-176
▁तथा	-177
में	-178
▁गया	-179
ली	-180
ंत	-181
▁जिस	-182
▁आप	-183
▁पह	-184
ैं	-185
▁दो	-186
▁स्व	-187
▁कुछ	-188
दि	-189
्ह	-190
ंध	-191
▁वाल	-192
▁छ	-193
▁मे	-194
खा	-195
▁किसी	-196
म्	-197
▁द्व	-198
ाप	-199
ूल	-200
▁अधिक	-201
▁तुम्ह	-202
▁साथ	-203
▁जब	-204
▁ला	-205
देश	-206
▁घ	-207
▁चाह	-208
▁रूप	-209
▁ख़	-210
ंद	-211
ोज	-212
▁सु	-213
▁2	-214
▁विश	-215
भी	-216
▁कोई	-217
ीन	-218
द्ध	-219
को	-220
▁निर्	-221
ढ़	-222
▁ट	-223
ाय	-224
▁तक	-225
▁करें	-226
ुदा	-227
▁अनु	-228
▁भा	-229
▁द्वारा	-230
ार्	-231
गी	-232
▁करते	-233
▁परि	-234
▁भारत	-235
ंड	-236
ुत	-237
▁पा	-238
▁लोगों	-239
▁क्ष	-240
न्द	-241
ाना	-242
▁वर्	-243
▁उनके	-244
▁प्रति	-245
▁बना	-246
▁व्य	-247
र्व	-248
ंत्र	-249
▁दि	-250
▁थे	-251
गर	-252
▁जाता	-253
▁राज	-254
योग	-255
▁फिर	-256
▁कह	-257
▁राष्ट	-258
जी	-259
▁जाए	-260
▁कार्य	-261
▁कहा	-262
क्	-263
लाह	-264
▁इन	-265
▁बह	-266
दी	-267
▁तर	-268
नों	-269
▁मा	-270
ृत	-271
▁दिया	-272
्छ	-273
▁पु	-274
▁अव	-275
▁स्थ	-276
▁करना	-277
क़	-278
द्य	-279
▁सर	-280
ब्	-281
▁अल्	-282
धार	-283
क्र	-284
▁क्या	-285
▁रख	-286
रण	-287
▁ई	-288
▁मैं	-289
पा	-290
फ़	-291
▁उसके	-292
▁सि	-293
ष्	-294
चार	-295
▁ज़	-296
▁सब	-297
च्छ	-298
ूर	-299
▁हुए	-300
क्ति	-301
▁अपनी	-302
्यों	-303
बंध	-304
▁ये	-305
▁अल्लाह	-306
बर	-307
र्ण	-308
▁रहे	-309
ये	-310
▁थी	-311
ंच	-312
श्च	-313
▁जी	-314
न्न	-315
▁मह	-316
▁उन्हें	-317
ड़ा	-318
जा	-319
ेत्र	-320
नि	-321
▁"	-322
▁फ़	-323
▁सी	-324
ाप्त	-325
▁उसे	-326
्ञ	-327
▁सकता	-328
▁रहा	-329
मी	-330
ोंने	-331
▁करता	-332
पर	-333
ड़े	-334
स्थ	-335
▁होता	-336
▁चु	-337
▁बात	-338
▁ख़ुदा	-339
▁सू	-340
वाल	-341
ड़ी	-342
▁जान	-343
ूस	-344
त्त	-345
▁गु	-346
▁क्षेत्र	-347
▁पै	-348
▁समय	-349
▁क़	-350
▁विक	-351
प्र	-352
िका	-353
▁राष्ट्र	-354
हर	-355
▁मान	-356
▁ओ	-357
बा	-358
च्च	-359
ोक	-360
दान	-361
पति	-362
र्थ	-363
कों	-364
▁बी	-365
▁जै	-366
▁देख	-367
वन	-368
वर्	-369
पू	-370
टा	-371
ानी	-372
ियम	-373
▁दी	-374
▁हि	-375
ोल	-376
▁बहुत	-377
ेल	-378
▁आय	-379
▁बाद	-380
भि	-381
▁प्राप्त	-382
स्था	-383
▁उन्होंने	-384
▁तरह	-385
वी	-386
शन	-387
र्म	-388
क्षा	-389
त्य	-390
▁मि	-391
▁सह	-392
▁झ	-393
▁काम	-394
▁दिन	-395
▁हुआ	-396
्रा	-397
▁पास	-398
ेष	-399
▁वाले	-400
▁निक	-401
▁होने	-402
िप	-403
▁राष्ट्रपति	-404
00	-405
ौर	-406
ंक	-407
टी	-408
▁देश	-409
्रीय	-410
▁मिल	-411
▁विश्व	-412
वे	-413
ज्ञ	-414
▁कम	-415
▁गए	-416
01	-417
▁करो	-418
▁अन्य	-419
ुल	-420
▁अंत	-421
▁उत्	-422
▁सरकार	-423
▁हमारे	-424
ाइ	-425
िस	-426
्स	-427
्रे	-428
▁पी	-429
▁सम्	-430
न्त	-431
▁दु	-432
▁हमने	-433
▁छो	-434
▁सभी	-435
ूँ	-436
▁नाम	-437
ख़	-438
▁जिन	-439
गत	-440
िम	-441
भाव	-442
▁यदि	-443
▁वर्ष	-444
▁ता	-445
स्ता	-446
करण	-447
▁19	-448
▁गई	-449
▁बि	-450
▁बु	-451
▁वा	-452
▁प्रकार	-453
चना	-454
▁तुम्हारे	-455
ग्र	-456
▁ओर	-457
तों	-458
▁समझ	-459
▁पहले	-460
एँ	-461
तीय	-462
▁साम	-463
▁सकते	-464
▁होगा	-465
वं	-466
ोध	-467
ीय	-468
▁ऐसे	-469
▁उनकी	-470
▁कारण	-471
श्य	-472
▁नी	-473
िक्ष	-474
धान	-475
तर	-476
हां	-477
▁दूस	-478
▁अच्छ	-479
▁संबंध	-480
एं	-481
▁रस	-482
दन	-483
▁ऊ	-484
▁चाहिए	-485
दार	-486
▁ना	-487
यी	-488
िश	-489
हाँ	-490
ुक्त	-491
▁होती	-492
▁बे	-493
▁अगर	-494
▁करे	-495
धि	-496
वर	-497
माण	-498
र्श	-499
▁जाने	-500
▁प्रा	-501
झे	-502
्यू	-503
पूर्ण	-504
ेर	-505
▁बद	-506
▁किए	-507
..	-508
िंग	-509
▁लग	-510
▁इसके	-511
त्म	-512
▁(_	-513
▁ऐसा	-514
सर	-515
▁हा	-516
ंप	-517
ची	-518
ध्य	-519
▁हर	-520
जन	-521
ास्त	-522
ोजना	-523
▁बढ़	-524
द्र	-525
▁जन	-526
▁ची	-527
▁ईमान	-528
चा	-529
▁पहु	-530
▁रसूल	-531
तन	-532
लय	-533
▁अस	-534
गार	-535
▁मो	-536
▁भारतीय	-537
टर	-538
ूम	-539
त्व	-540
▁हों	-541
▁ठ	-542
▁एवं	-543
▁खा	-544
दे	-545
▁'	-546
▁क्र	-547
वल	-548
हाय	-549
द्योग	-550
्ल	-551
▁दिखा	-552
▁राज्य	-553
िति	-554
टे	-555
ूं	-556
चे	-557
▁अब	-558
▁क्यों	-559
▁पूर्व	-560
▁विकास	-561
बी	-562
▁3	-563
व्य	-564
▁स्त	-565
▁उपयोग	-566
▁s	-567
काश	-568
ष्ठ	-569
▁उसकी	-570
▁व्या	-571
▁व्यक्ति	-572
मत	-573
मु	-574
ेज	-575
▁à	-576
िये	-577
▁लि	-578
▁प्रश	-579
▁भाग	-580
तः	-581
▁जाती	-582
▁मुझे	-583
धिक	-584
▁बन	-585
▁बार	-586
▁लगा	-587
▁हुई	-588
▁दोनों	-589
▁प्रदान	-590
वार	-591
ाली	-592
▁सेवा	-593
ाला	-594
▁चल	-595
पी	-596
सार	-597
▁कृ	-598
▁आधार	-599
▁जीवन	-600
▁तुम्हें	-601
on	-602
▁अभि	-603
▁जैसे	-604
▁वै	-605
▁सहाय	-606
▁श्री	-607
धा	-608
किन	-609
▁मौ	-610
▁ग्र	-611
शा	-612
शी	-613
कृत	-614
ित्र	-615
▁मुख	-616
फल	-617
▁बीच	-618
▁होते	-619
▁निय	-620
▁अपना	-621
यन	-622
▁खु	-623
▁उसने	-624
ेंगे	-625
▁रही	-626
▁लेकिन	-627
▁आव	-628
▁रब	-629
▁रु	-630
ोर्	-631
ताओं	-632
तु	-633
ेक	-634
ाइल	-635
ार्थ	-636
▁लिया	-637
ंस	-638
ोर	-639
▁देने	-640
▁विशेष	-641
ल्प	-642
हित	-643
िला	-644
क्रम	-645
▁शिक्ष	-646
▁यु	-647
▁बारे	-648
▁स्था	-649
ग़	-650
वाद	-651
▁मन	-652
▁सद	-653
▁अधिन	-654
▁विचार	-655
ज़ा	-656
▁बै	-657
ोप	-658
▁गा	-659
▁शु	-660
▁मूल	-661
▁न्या	-662
▁पैदा	-663
▁वाला	-664
ंभ	-665
▁ढ	-666
कारी	-667
तना	-668
▁निश्च	-669
्ड	-670
▁अल	-671
▁स्थान	-672
।"	-673
▁ऐसी	-674
▁लोक	-675
▁वास्त	-676
कृ	-677
▁ऑ	-678
लिए	-679
▁अधिनियम	-680
ti	-681
ठा	-682
षा	-683
▁आर	-684
▁समा	-685
▁मै	-686
षण	-687
▁आज	-688
निया	-689
▁माल	-690
▁स्प	-691
▁केवल	-692
▁हमारी	-693
युक्त	-694
▁मेरे	-695
▁प्रयोग	-696
्न	-697
तिक	-698
स्ट	-699
▁अथ	-700
ख्या	-701
▁आवश्य	-702
कता	-703
दों	-704
▁दृ	-705
▁उसी	-706
ून	-707
रों	-708
त्ता	-709
▁उत्त	-710
▁जाएगा	-711
me	-712
डी	-713
त्या	-714
लों	-715
वरण	-716
▁इसे	-717
▁करती	-718
▁ताकि	-719
▁सर्व	-720
वेश	-721
▁पि	-722
▁उपल	-723
बे	-724
ुट	-725
जू	-726
ोह	-727
चित	-728
▁हे	-729
क्षण	-730
न्तु	-731
▁अथवा	-732
▁पश्च	-733
▁इसमें	-734
▁अधिकार	-735
▁दर	-736
▁हूँ	-737
ज्ञान	-738
▁जाना	-739
बू	-740
हार	-741
▁कै	-742
▁उसका	-743
▁उपलब्	-744
▁योजना	-745
▁जिसमें	-746
▁डि	-747
▁पार	-748
in	-749
मे	-750
▁सो	-751
ियां	-752
▁विष	-753
▁क्योंकि	-754
▁तब	-755
ियाँ	-756
▁इसलिए	-757
▁सहायता	-758
▁n	-759
ुरु	-760
▁जिसे	-761
▁आस	-762
▁मेरी	-763
▁सबसे	-764
ेम	-765
यास	-766
▁प्रत्य	-767
▁मद	-768
निक	-769
▁डा	-770
मान्य	-771
▁चीज़	-772
▁जाते	-773
▁सकती	-774
▁उपलब्ध	-775
ताब	-776
▁बस	-777
▁पता	-778
▁उनका	-779
▁हमें	-780
▁जिन्ह	-781
▁संदेश	-782
इन	-783
गम	-784
णी	-785
र्ष	-786
श्व	-787
tion	-788
▁माम	-789
▁अर्थ	-790
▁देता	-791
▁बच्च	-792
▁उद्	-793
▁बल्	-794
▁वही	-795
▁उनसे	-796
▁उससे	-797
▁व्यव	-798
▁राष्ट्रीय	-799
ra	-800
ूह	-801
▁अम	-802
▁वाली	-803
▁महत्व	-804
यर	-805
▁5	-806
द्योगिक	-807
ल्ड	-808
ालय	-809
▁लो	-810
त्रा	-811
▁बैं	-812
▁महा	-813
क्रिया	-814
ुरू	-815
द्या	-816
▁सुर	-817
▁होना	-818
सं	-819
ात	-820
भाग	-821
र्क	-822
▁201	-823
▁स्ट	-824
▁बड़ी	-825
ेट	-826
ेह	-827
▁जर	-828
दर्श	-829
▁शाम	-830
तंत्र	-831
ैर	-832
▁4	-833
▁कंप	-834
▁बैठ	-835
▁विषय	-836
▁उत्पा	-837
▁स्थाप	-838
ट्ट	-839
न्ध	-840
र्य	-841
स्व	-842
▁दा	-843
▁पुन	-844
▁हाथ	-845
▁स्वी	-846
...	-847
▁अग	-848
▁200	-849
▁उच्च	-850
▁कर्म	-851
▁धारा	-852
▁सूची	-853
▁सामने	-854
▁शिक्षा	-855
रिक	-856
▁जु	-857
▁दौर	-858
नेवाल	-859
▁छोड़	-860
▁पहुँ	-861
▁मार्	-862
▁यहाँ	-863
▁दूसरे	-864
वाह	-865
▁तै	-866
वरदि	-867
▁डाल	-868
▁संप	-869
▁सदस	-870
▁इसका	-871
▁कहते	-872
▁प्रण	-873
▁स्वा	-874
▁परिवर्	-875
कट	-876
भव	-877
ोट	-878
मिक	-879
▁मू	-880
पत्र	-881
▁होंगे	-882
▁परवरदि	-883
तम	-884
ुक	-885
टना	-886
यार	-887
ष्टि	-888
▁बल्कि	-889
फी	-890
ंति	-891
▁आई	-892
▁भर	-893
▁अति	-894
▁कें	-895
भिन्न	-896
▁मंत्र	-897
▁परवरदिगार	-898
▁जल	-899
▁लगे	-900
▁लिख	-901
▁व्याप	-902
▁सूचना	-903
er	-904
ंश	-905
201	-906
क्ट	-907
▁वृ	-908
▁आदि	-909
▁याद	-910
▁योग	-911
स्थान	-912
▁शामिल	-913
▁सामान्य	-914
ंज	-915
▁शी	-916
कृति	-917
▁आया	-918
▁लिये	-919
िट	-920
▁किस	-921
▁गुण	-922
▁विर	-923
▁इससे	-924
▁करके	-925
▁पूरी	-926
▁बाहर	-927
▁उनमें	-928
▁करेगा	-929
▁मुख्य	-930
▁प्रभाव	-931
श्	-932
संद	-933
▁पं	-934
▁बो	-935
द्धि	-936
▁कभी	-937
▁बदल	-938
▁मदद	-939
▁सके	-940
▁सभा	-941
▁अच्छा	-942
▁शक्ति	-943
▁स्पष्ट	-944
मुख	-945
▁विभिन्न	-946
ंट	-947
भू	-948
यं	-949
▁t	-950
जार	-951
्रो	-952
▁कल	-953
ित्त	-954
▁कान	-955
▁बता	-956
▁लाभ	-957
▁बड़ा	-958
▁हेतु	-959
▁किताब	-960
▁फ़ाइल	-961
हत	-962
ष्य	-963
▁कई	-964
स्तु	-965
▁रंग	-966
▁हूं	-967
▁अंतर	-968
▁पूरा	-969
▁प्रौ	-970
▁प्रकाश	-971
▁स्थिति	-972
हन	-973
ियो	-974
▁इसी	-975
▁तैयार	-976
▁निर्माण	-977
एस	-978
शत	-979
सम	-980
मीन	-981
ासन	-982
▁आम	-983
▁ग़	-984
▁करा	-985
▁शब्	-986
▁अनुस	-987
▁अवसर	-988
▁होगी	-989
▁उसमें	-990
▁चाहते	-991
▁निर्धार	-992
जे	-993
▁‘	-994
ame	-995
▁अभ	-996
▁चि	-997
िष्ट	-998
▁उठा	-999
▁यही	-1000
▁हाल	-1001
▁भाषा	-1002
▁चाहता	-1003
▁जिसके	-1004
▁दौरान	-1005
▁मार्ग	-1006
आई	-1007
लि	-1008
▁रो	-1009
्यान	-1010
▁चुन	-1011
▁ज्ञ	-1012
▁रुप	-1013
▁जहां	-1014
es	-1015
ीक	-1016
▁१	-1017
वान	-1018
हरा	-1019
ालन	-1020
त्मक	-1021
▁अंग	-1022
▁अर्	-1023
▁पड़	-1024
▁भवन	-1025
▁उनको	-1026
▁शुरू	-1027
ूट	-1028
ज्य	-1029
बार	-1030
ोजन	-1031
ग्रह	-1032
▁बढ़ा	-1033
▁निश्चय	-1034
सि	-1035
तान	-1036
म्बर	-1037
▁ज़र	-1038
▁दिल	-1039
▁भेज	-1040
्यादा	-1041
▁देखा	-1042
▁तुम्हारा	-1043
▁प्रक्रिया	-1044
⁄4	-1045
▁ऋ	-1046
ंतु	-1047
ल्क	-1048
ामी	-1049
▁(1	-1050
▁कौ	-1051
▁पृ	-1052
▁रे	-1053
ध्यम	-1054
▁अने	-1055
▁गयी	-1056
▁चार	-1057
▁अधीन	-1058
▁पुस्त	-1059
▁व्यक्त	-1060
la	-1061
कर्	-1062
जिक	-1063
िता	-1064
बन्ध	-1065
र्या	-1066
ित्व	-1067
ोर्ट	-1068
▁तरफ	-1069
▁जाएँ	-1070
▁बड़े	-1071
▁पहुंच	-1072
▁न्याया	-1073
▁प्रबंध	-1074
▁करनेवाल	-1075
▁प्रतिशत	-1076
▁प्रत्येक	-1077
लो	-1078
ण्ड	-1079
रती	-1080
▁आए	-1081
▁नई	-1082
▁गये	-1083
▁चला	-1084
क्षित	-1085
▁सीमा	-1086
▁क्षेत्रों	-1087
▁प्रौद्योगिक	-1088
दम	-1089
रूप	-1090
हास	-1091
▁भूम	-1092
▁संग	-1093
▁स्क	-1094
न्द्र	-1095
स्तुत	-1096
▁नियम	-1097
▁महत्वपूर्ण	-1098
इट	-1099
टन	-1100
▁d	-1101
काल	-1102
द्व	-1103
▁शा	-1104
▁मार	-1105
▁आपको	-1106
▁बनाया	-1107
ंह	-1108
षि	-1109
हम	-1110
▁पद	-1111
▁भे	-1112
▁मर	-1113
▁लौ	-1114
ोल्ड	-1115
▁आगे	-1116
▁गिर	-1117
▁ब्र	-1118
▁रखा	-1119
▁निकल	-1120
▁परिण	-1121
द्यालय	-1122
▁संस्थान	-1123
▁स्वीकार	-1124
▁कार्यक्रम	-1125
जूद	-1126
यों	-1127
▁कठ	-1128
▁ते	-1129
▁अभी	-1130
▁त्र	-1131
▁दूर	-1132
▁अनुम	-1133
▁आदेश	-1134
▁देना	-1135
▁उत्तर	-1136
▁संख्या	-1137
pr	-1138
छे	-1139
पन	-1140
ोन	-1141
दर्	-1142
▁घर	-1143
▁वी	-1144
▁गति	-1145
▁जमा	-1146
▁पढ़	-1147
▁जारी	-1148
▁बन्द	-1149
▁जिसने	-1150
ॉल	-1151
▁झु	-1152
▁अलग	-1153
▁संर	-1154
▁खुदा	-1155
▁जनता	-1156
▁समूह	-1157
▁अनुसार	-1158
▁परिणाम	-1159
▁प्रमुख	-1160
▁वास्तव	-1161
▁संस्था	-1162
▁संबंधित	-1163
इस	-1164
और	-1165
धन	-1166
▁a	-1167
गें	-1168
लेख	-1169
▁मी	-1170
▁दें	-1171
▁सफल	-1172
▁अनेक	-1173
▁नीचे	-1174
▁मैंने	-1175
▁वित्त	-1176
▁प्रमाण	-1177
¤3	-1178
शि	-1179
क्स	-1180
नीय	-1181
▁डे	-1182
▁शै	-1183
¤3⁄4	-1184
▁अतः	-1185
▁नया	-1186
स्थित	-1187
▁अन्त	-1188
▁कृषि	-1189
▁पानी	-1190
▁प्रो	-1191
▁पूर्ण	-1192
▁स्वयं	-1193
▁करेंगे	-1194
▁नियंत्र	-1195
▁विश्वास	-1196
▁सुरक्षा	-1197
ic	-1198
ैन	-1199
ैस	-1200
मेल	-1201
म्प	-1202
वास	-1203
▁पिछ	-1204
▁वाय	-1205
▁काफी	-1206
▁प्रार	-1207
▁वस्तु	-1208
विद्यालय	-1209
▁स्वतंत्र	-1210
दू	-1211
्ले	-1212
▁मत	-1213
▁धरती	-1214
▁मानव	-1215
▁बनाने	-1216
▁उद्देश	-1217
▁प्रस्तुत	-1218
▁प्रौद्योगिकी	-1219
al	-1220
अप	-1221
उन	-1222
टक	-1223
धी	-1224
दाय	-1225
▁जग	-1226
▁भू	-1227
▁लेख	-1228
▁संघ	-1229
माजिक	-1230
▁अध्य	-1231
▁संस्	-1232
▁ज्ञान	-1233
▁विवरण	-1234
▁ज्यादा	-1235
▁C	-1236
ल्ल	-1237
▁चौ	-1238
▁ती	-1239
▁यू	-1240
.201	-1241
दारी	-1242
▁ठीक	-1243
तियों	-1244
तिहास	-1245
▁अत्य	-1246
▁आपके	-1247
▁बैंक	-1248
▁केंद्र	-1249
▁दुनिया	-1250
▁माध्यम	-1251
it	-1252
ाई	-1253
▁8	-1254
मता	-1255
ियन	-1256
▁सौ	-1257
विधा	-1258
्यता	-1259
▁तीन	-1260
▁समान	-1261
▁सिवा	-1262
▁हिस्	-1263
▁सामाजिक	-1264
▁परिवर्तन	-1265
▁विश्वविद्यालय	-1266
पि	-1267
ज़र	-1268
जों	-1269
प्त	-1270
स्या	-1271
▁कर्	-1272
▁शरी	-1273
ोल्डर	-1274
▁जबकि	-1275
▁मध्य	-1276
▁जिसका	-1277
▁विस्त	-1278
▁आवश्यक	-1279
▁प्रयास	-1280
्श	-1281
▁-	-1282
ख्त	-1283
ष्ण	-1284
▁गो	-1285
▁मज	-1286
वादी	-1287
▁निश	-1288
▁सुन	-1289
▁जैसा	-1290
▁लेकर	-1291
▁निकाल	-1292
▁प्रती	-1293
▁प्रेम	-1294
▁क्रिया	-1295
▁जिन्हें	-1296
भग	-1297
ेद	-1298
ोष	-1299
▁“	-1300
र्फ	-1301
डियो	-1302
▁खोज	-1303
▁गर्	-1304
▁जाओ	-1305
▁तरी	-1306
▁दर्	-1307
▁पुर	-1308
▁रोक	-1309
र्थिक	-1310
▁जोड़	-1311
▁पक्ष	-1312
▁विंड	-1313
▁होकर	-1314
▁मामले	-1315
▁विद्य	-1316
▁उद्योग	-1317
▁समस्या	-1318
or	-1319
ंख	-1320
कु	-1321
चि	-1322
धे	-1323
बल	-1324
्म	-1325
ran	-1326
ज़ी	-1327
▁आग	-1328
▁ऋण	-1329
▁पे	-1330
ल्ली	-1331
ृत्य	-1332
▁बरा	-1333
▁गुना	-1334
▁निस्	-1335
▁नीति	-1336
▁पीछे	-1337
▁रहते	-1338
▁वर्ग	-1339
▁स्तर	-1340
▁जानते	-1341
▁हिन्द	-1342
ष्ट्रीय	-1343
▁किन्तु	-1344
▁तुम्हारी	-1345
▁न्यायालय	-1346
दर	-1347
भर	-1348
सल	-1349
ूब	-1350
ंधी	-1351
ठला	-1352
तनी	-1353
्ला	-1354
▁टे	-1355
▁ली	-1356
▁शि	-1357
▁लाए	-1358
दिष्ट	-1359
▁दक्ष	-1360
▁सारे	-1361
▁अच्छे	-1362
▁दूसरी	-1363
▁ध्यान	-1364
▁सुविधा	-1365
ed	-1366
उस	-1367
डा	-1368
▁7	-1369
क्म	-1370
र्च	-1371
ज़ाब	-1372
त्मा	-1373
निर्	-1374
पन्न	-1375
वासी	-1376
वेदन	-1377
▁खंड	-1378
▁सार	-1379
▁आकार	-1380
▁आकाश	-1381
▁देते	-1382
▁धर्म	-1383
▁परिय	-1384
▁संवि	-1385
▁समर्थ	-1386
▁प्रधान	-1387
▁विशिष्ट	-1388
▁<	-1389
ंजी	-1390
मार	-1391
हरी	-1392
ेशन	-1393
▁डर	-1394
▁ऊपर	-1395
▁काल	-1396
▁चयन	-1397
▁पाठ	-1398
▁रिप	-1399
▁संस	-1400
क्ष्य	-1401
मंत्र	-1402
▁पत्र	-1403
▁मेरा	-1404
▁इनकार	-1405
▁ज़मीन	-1406
▁पर्या	-1407
▁अधिकारी	-1408
▁जानकारी	-1409
▁फ़ोल्डर	-1410
.0	-1411
ot	-1412
▁&	-1413
▁6	-1414
तें	-1415
यान	-1416
ेशा	-1417
▁एस	-1418
▁चे	-1419
▁शे	-1420
ग्री	-1421
तमान	-1422
र्गत	-1423
ानों	-1424
▁आने	-1425
▁खोल	-1426
▁नही	-1427
▁पूछ	-1428
▁बंग	-1429
▁बेह	-1430
▁मगर	-1431
▁अवधि	-1432
▁निम्	-1433
▁महान	-1434
▁यहां	-1435
▁लगभग	-1436
▁लेने	-1437
▁वहां	-1438
▁बराबर	-1439
▁आवश्यकता	-1440
op	-1441
¥	-1442
गू	-1443
ोस	-1444
भार	-1445
वों	-1446
स्क	-1447
्रम	-1448
▁गण	-1449
▁फर	-1450
▁बेश	-1451
कृतिक	-1452
▁चाहे	-1453
▁जिससे	-1454
▁झुठला	-1455
▁पृष्ठ	-1456
▁हुक्म	-1457
▁क्षमता	-1458
▁परियोजना	-1459
ab	-1460
कल	-1461
लग	-1462
शील	-1463
▁नए	-1464
▁कला	-1465
▁रोग	-1466
▁लड़	-1467
▁विन	-1468
▁सही	-1469
▁रखते	-1470
▁संगठ	-1471
▁गांधी	-1472
▁निम्न	-1473
▁सहयोग	-1474
▁अतिरिक	-1475
▁प्रदेश	-1476
▁वर्तमान	-1477
ht	-1478
ंब	-1479
जर	-1480
▁:	-1481
ंदर	-1482
विध	-1483
शोध	-1484
स्प	-1485
▁आध	-1486
▁बच	-1487
ट्टी	-1488
ोर्ड	-1489
▁अपे	-1490
▁कौन	-1491
▁जवा	-1492
▁सां	-1493
▁साल	-1494
हित्य	-1495
▁इसकी	-1496
▁चुके	-1497
▁जरूर	-1498
▁बिना	-1499
▁हाला	-1500
▁तुमसे	-1501
▁युद्ध	-1502
▁वालों	-1503
▁आर्थिक	-1504
▁उद्देश्य	-1505
▁निर्धारित	-1506
जो	-1507
▁”	-1508
पुर	-1509
मित	-1510
र्स	-1511
▁फै	-1512
▁बर	-1513
क्ता	-1514
▁जगह	-1515
▁मंद	-1516
▁मनु	-1517
▁पड़े	-1518
▁शब्द	-1519
▁परन्तु	-1520
▁वास्ते	-1521
▁प्रणाली	-1522
-1	-1523
चन	-1524
डे	-1525
लू	-1526
▁0	-1527
तार	-1528
न्म	-1529
पित	-1530
ूरी	-1531
्रै	-1532
▁कॉ	-1533
▁थो	-1534
▁रू	-1535
क्षर	-1536
च्छा	-1537
िश्त	-1538
▁कुल	-1539
▁कोश	-1540
▁वेब	-1541
संदेह	-1542
▁अमेर	-1543
▁एक्स	-1544
▁जाये	-1545
▁रखने	-1546
▁वर्ण	-1547
▁सिंह	-1548
▁दक्षि	-1549
▁मित्र	-1550
▁शीर्ष	-1551
▁समाप्त	-1552
▁व्यापार	-1553
▁अतिरिक्त	-1554
▁स्वतंत्रता	-1555
en	-1556
यो	-1557
लत	-1558
म्म	-1559
▁18	-1560
▁अर	-1561
▁घा	-1562
▁धन	-1563
बद्ध	-1564
ुद्ध	-1565
ृत्त	-1566
्रिय	-1567
▁शिक	-1568
पूर्व	-1569
▁बुरा	-1570
▁बेशक	-1571
▁लागू	-1572
▁महिला	-1573
▁सिर्फ	-1574
▁निर्देश	-1575
एम	-1576
गु	-1577
पाल	-1578
▁चा	-1579
ुरुष	-1580
ोजित	-1581
▁इन्	-1582
▁भाव	-1583
▁समु	-1584
भावना	-1585
स्तान	-1586
▁आत्म	-1587
▁उसको	-1588
▁कहने	-1589
▁श्रे	-1590
▁अच्छी	-1591
▁चित्र	-1592
▁देशों	-1593
▁निर्ण	-1594
▁निवेश	-1595
▁विदेश	-1596
▁प्राधिक	-1597
▁साहित्य	-1598
¤	-1599
चल	-1600
तक	-1601
प्	-1602
मह	-1603
▁#	-1604
ंगा	-1605
ंगे	-1606
ुओं	-1607
▁गी	-1608
▁तू	-1609
धारण	-1610
र्ति	-1611
▁अला	-1612
▁तौर	-1613
▁अग्र	-1614
▁चुका	-1615
▁रहने	-1616
▁समाज	-1617
▁कंपनी	-1618
▁जानता	-1619
▁बंगाल	-1620
▁बच्चे	-1621
▁बाजार	-1622
▁सदस्य	-1623
▁दिल्ली	-1624
▁प्रबंधन	-1625
▁रिपोर्ट	-1626
▁नियंत्रण	-1627
ील	-1628
▁S	-1629
▁२	-1630
ंबर	-1631
तुम	-1632
▁चिक	-1633
▁दिए	-1634
▁लाख	-1635
▁कहीं	-1636
▁देगा	-1637
▁मिले	-1638
मंत्री	-1639
▁अज़ाब	-1640
▁यातना	-1641
▁अनुसंध	-1642
▁परिवार	-1643
▁स्थापित	-1644
▁मंत्रालय	-1645
▁निस्संदेह	-1646
मन	-1647
▁I	-1648
▁P	-1649
ंतर	-1650
जरा	-1651
यें	-1652
▁लॉ	-1653
कारा	-1654
ान्त	-1655
िस्ट	-1656
ीकरण	-1657
▁कवि	-1658
▁जीव	-1659
▁पेश	-1660
▁माँ	-1661
▁वाप	-1662
▁शहर	-1663
स्थ्य	-1664
▁भेजा	-1665
▁तुमने	-1666
▁हमेशा	-1667
▁पुस्तक	-1668
▁विकल्प	-1669
▁अंतर्गत	-1670
▁प्रारंभ	-1671
▁व्यवस्था	-1672
),	-1673
¤°	-1674
आर	-1675
ुग	-1676
▁।	-1677
पाद	-1678
हरण	-1679
▁10	-1680
▁आद	-1681
▁छा	-1682
▁बल	-1683
▁लं	-1684
र्जी	-1685
▁ज़ि	-1686
▁परी	-1687
▁श्र	-1688
▁साफ	-1689
न्यास	-1690
▁घटना	-1691
▁पहली	-1692
▁वहाँ	-1693
▁सच्च	-1694
▁सत्य	-1695
▁त्रुट	-1696
▁न्याय	-1697
▁हमारा	-1698
▁हस्ता	-1699
▁आधारित	-1700
▁प्रस्ता	-1701
▁संयुक्त	-1702
▁सम्बन्ध	-1703
▁अनुसंधान	-1704
ँच	-1705
जि	-1706
ज्	-1707
मि	-1708
चान	-1709
बाद	-1710
▁भि	-1711
र्जा	-1712
ामीण	-1713
▁उदा	-1714
▁पत्	-1715
▁रात	-1716
▁संच	-1717
▁सर्	-1718
▁साह	-1719
▁जांच	-1720
▁वक्त	-1721
▁जाएगी	-1722
▁देखते	-1723
▁मूल्य	-1724
▁विभाग	-1725
▁दृष्टि	-1726
▁निर्णय	-1727
▁उत्पादन	-1728
▁निश्चित	-1729
▁प्रशिक्ष	-1730
दय	-1731
दु	-1732
सू	-1733
▁9	-1734
000	-1735
टों	-1736
यात	-1737
▁एन	-1738
▁खे	-1739
▁झू	-1740
▁फल	-1741
rans	-1742
ख़िर	-1743
द्धा	-1744
स्ती	-1745
▁कृप	-1746
▁पुल	-1747
▁यक़	-1748
▁राम	-1749
▁राह	-1750
वस्था	-1751
▁name	-1752
▁न्यू	-1753
▁फाइल	-1754
▁बदला	-1755
▁बनाए	-1756
▁मूसा	-1757
▁रखता	-1758
▁रचना	-1759
▁लेते	-1760
▁शरीर	-1761
ग़म्बर	-1762
▁निशान	-1763
▁परंतु	-1764
▁पिछले	-1765
▁बातों	-1766
▁दक्षिण	-1767
▁यात्रा	-1768
▁लक्ष्य	-1769
▁सक्रिय	-1770
▁ग्रामीण	-1771
▁स्थापना	-1772
44	-1773
ँह	-1774
घा	-1775
थम	-1776
फा	-1777
ौम	-1778
▁_	-1779
▁k	-1780
म्ब	-1781
र्इ	-1782
वाई	-1783
ारण	-1784
ैंड	-1785
▁जे	-1786
धारा	-1787
राने	-1788
▁क्ल	-1789
▁जल्	-1790
▁डाक	-1791
▁बहु	-1792
▁निष्	-1793
▁संके	-1794
▁सहित	-1795
▁स्रो	-1796
▁चिकित	-1797
▁पुरुष	-1798
▁संपर्क	-1799
▁स्वास्थ्य	-1800
झा	-1801
यक	-1802
▁M	-1803
फिर	-1804
मिल	-1805
ोषण	-1806
▁अफ	-1807
▁उठ	-1808
▁डॉ	-1809
▁मॉ	-1810
क्या	-1811
हन्न	-1812
▁आयु	-1813
▁खेल	-1814
▁वार	-1815
दर्शन	-1816
दारों	-1817
▁छोटे	-1818
▁तत्व	-1819
▁पाया	-1820
▁राशि	-1821
▁हिंद	-1822
ransla	-1823
tional	-1824
▁अनुभव	-1825
▁कृपया	-1826
▁मंदिर	-1827
▁सुधार	-1828
▁त्रुटि	-1829
▁बच्चों	-1830
▁मनुष्य	-1831
▁स्थानी	-1832
▁हिस्सा	-1833
▁उत्पन्न	-1834
▁प्रधानमंत्री	-1835
?"	-1836
नाथ	-1837
न्ट	-1838
ल्म	-1839
▁11	-1840
▁इं	-1841
▁नव	-1842
कल्प	-1843
▁निर	-1844
▁जन्म	-1845
▁जहाँ	-1846
▁माना	-1847
▁लगता	-1848
▁सुना	-1849
▁अलावा	-1850
▁पहुँच	-1851
▁बेहतर	-1852
▁मृत्य	-1853
▁मौजूद	-1854
▁स्थित	-1855
▁पश्चिम	-1856
▁प्रदर्श	-1857
▁वित्तीय	-1858
▁स्थानीय	-1859
▁जिन्होंने	-1860
an	-1861
el	-1862
om	-1863
एफ	-1864
यु	-1865
िब	-1866
००	-1867
लाल	-1868
ेंट	-1869
▁रि	-1870
....	-1871
▁अधि	-1872
▁अनि	-1873
▁तहत	-1874
▁तीस	-1875
▁बचा	-1876
▁बाल	-1877
▁सेट	-1878
▁हित	-1879
▁आरंभ	-1880
▁इस्त	-1881
▁दिशा	-1882
▁बैठक	-1883
▁मिला	-1884
▁संसा	-1885
▁समझा	-1886
▁आसमान	-1887
▁जरूरत	-1888
▁देखने	-1889
ज्ञानिक	-1890
▁अंग्रे	-1891
▁पहुँचा	-1892
▁वृद्धि	-1893
▁विज्ञान	-1894
▁प्रस्ताव	-1895
gm	-1896
is	-1897
¤¿	-1898
कम	-1899
गि	-1900
पु	-1901
रि	-1902
वस	-1903
▁%	-1904
ity	-1905
गति	-1906
पात	-1907
र्द	-1908
श्त	-1909
्टी	-1910
▁(2	-1911
▁25	-1912
▁आन	-1913
▁खो	-1914
▁डी	-1915
▁नौ	-1916
नांक	-1917
लाइन	-1918
ियान	-1919
▁kgm	-1920
▁उन्	-1921
▁उल्	-1922
▁खुल	-1923
▁बने	-1924
▁भाई	-1925
वृत्त	-1926
▁क़ौम	-1927
▁निकट	-1928
▁पुनः	-1929
▁समिति	-1930
▁इतिहास	-1931
▁उत्पाद	-1932
▁प्रवेश	-1933
▁मृत्यु	-1934
▁वर्षों	-1935
▁सम्मान	-1936
optional	-1937
▁transla	-1938
▁अपेक्षा	-1939
▁निर्दिष्ट	-1940
ly	-1941
ंथ	-1942
जय	-1943
▁c	-1944
दूस	-1945
वीं	-1946
▁20	-1947
▁टै	-1948
Name	-1949
शाली	-1950
▁इंड	-1951
▁गुम	-1952
▁गैर	-1953
▁यूर	-1954
▁लें	-1955
▁सन्	-1956
▁हटा	-1957
▁भूमि	-1958
▁मुँह	-1959
▁लागत	-1960
▁लिखा	-1961
▁विधि	-1962
▁आवेदन	-1963
▁करोड़	-1964
▁ज़रूर	-1965
▁रुपये	-1966
▁सर्वर	-1967
▁सहायक	-1968
▁अवस्था	-1969
▁दिनांक	-1970
▁सम्मेल	-1971
▁अमेरिका	-1972
▁संविधान	-1973
▁प्रमाणपत्र	-1974
गल	-1975
वत	-1976
ीप	-1977
44;	-1978
तने	-1979
राम	-1980
सान	-1981
ियर	-1982
▁''	-1983
▁छि	-1984
▁तौ	-1985
▁भय	-1986
ार्ड	-1987
▁बोल	-1988
▁लौट	-1989
▁सोच	-1990
कर्ता	-1991
निश्च	-1992
▁#44;	-1993
▁अंति	-1994
▁कम्प	-1995
▁जवाब	-1996
▁जिला	-1997
▁निजी	-1998
▁प्रय	-1999
▁राजा	-2000
▁शासन	-2001
▁कानून	-2002
▁गुनाह	-2003
▁चुनें	-2004
▁दिखाई	-2005
▁बोर्ड	-2006
▁संशोध	-2007
▁प्रगति	-2008
▁प्रश्न	-2009
▁भूमिका	-2010
▁मात्रा	-2011
▁मुखर्जी	-2012
▁विस्तार	-2013
▁वैज्ञानिक	-2014
¤	-2015
टल	-2016
फ्	-2017
रो	-2018
ोड	-2019
▁@	-2020
ंसा	-2021
द्द	-2022
राह	-2023
▁अह	-2024
▁कप	-2025
▁टी	-2026
इयों	-2027
क्षम	-2028
त्सा	-2029
भूति	-2030
शिया	-2031
ुनिक	-2032
▁199	-2033
▁आशा	-2034
▁छवि	-2035
▁थीं	-2036
▁देव	-2037
▁नेट	-2038
▁बंद	-2039
▁बिल	-2040
▁मना	-2041
▁रहो	-2042
▁शाय	-2043
▁इतना	-2044
▁दुर्	-2045
▁प्रस	-2046
▁भीतर	-2047
▁मांग	-2048
▁वापस	-2049
▁संगी	-2050
▁संसद	-2051
▁अंतिम	-2052
▁अधिका	-2053
▁उपकरण	-2054
▁दिनों	-2055
▁पहचान	-2056
▁पुलिस	-2057
▁मालूम	-2058
▁विंडो	-2059
▁इस्तेम	-2060
▁उदाहरण	-2061
▁सरकारी	-2062
▁निर्यात	-2063
▁प्रतिनि	-2064
▁संभावना	-2065
▁सदस्यों	-2066
▁सामग्री	-2067
▁प्रशिक्षण	-2068
इल	-2069
गो	-2070
घु	-2071
मक	-2072
शल	-2073
काम	-2074
ख्स	-2075
लाई	-2076
ल्स	-2077
श्र	-2078
सित	-2079
्सा	-2080
▁pr	-2081
▁गठ	-2082
▁ति	-2083
▁तु	-2084
गरिक	-2085
साइट	-2086
ूँगा	-2087
्राम	-2088
्रेस	-2089
▁खरी	-2090
▁सका	-2091
ख़ुदा	-2092
▁कैसे	-2093
▁दर्श	-2094
▁रखना	-2095
स्थिति	-2096
▁अत्या	-2097
▁ऊर्जा	-2098
▁राजनी	-2099
▁शुल्क	-2100
▁दिखाएँ	-2101
▁केन्द्र	-2102
▁राज्यों	-2103
▁व्यवहार	-2104
▁सम्मेलन	-2105
▁इस्तेमाल	-2106
▁हस्ताक्षर	-2107
▁व्यक्तियों	-2108
):	-2109
ob	-2110
एन	-2111
खी	-2112
धर	-2113
कला	-2114
कान	-2115
खित	-2116
तंक	-2117
फ्त	-2118
भूत	-2119
यां	-2120
रीब	-2121
वरी	-2122
ौती	-2123
▁12	-2124
▁पक	-2125
▁पथ	-2126
क़्त	-2127
चारी	-2128
ड़ाई	-2129
ताब्	-2130
वाले	-2131
▁(1)	-2132
▁195	-2133
▁आवा	-2134
▁कमी	-2135
▁चले	-2136
▁दया	-2137
▁दाय	-2138
▁फ़र	-2139
▁भवि	-2140
▁भुग	-2141
▁रखे	-2142
▁विप	-2143
दूसरे	-2144
्यूटर	-2145
▁असफल	-2146
▁चुना	-2147
▁जाति	-2148
▁प्रभ	-2149
▁लेखा	-2150
▁शख्स	-2151
▁शायद	-2152
▁समझौ	-2153
पूर्वक	-2154
▁अध्या	-2155
▁इनमें	-2156
▁जहन्न	-2157
▁तंत्र	-2158
▁यक़ीन	-2159
▁विरोध	-2160
▁शताब्	-2161
▁सार्व	-2162
▁स्कूल	-2163
▁नागरिक	-2164
▁भविष्य	-2165
▁भुगतान	-2166
▁समर्थन	-2167
▁समाधान	-2168
▁विचारों	-2169
//	-2170
at	-2171
¥	-2172
एक	-2173
ृह	-2174
्ब	-2175
▁A	-2176
गाह	-2177
जित	-2178
बूत	-2179
भाष	-2180
सिक	-2181
ापन	-2182
िकी	-2183
ेंस	-2184
▁कट	-2185
▁दल	-2186
▁पस	-2187
▁पो	-2188
▁पौ	-2189
▁बौ	-2190
▁री	-2191
क्का	-2192
क्षक	-2193
भावी	-2194
वेयर	-2195
श्वर	-2196
ालिम	-2197
▁पहा	-2198
न्त्र	-2199
▁आपने	-2200
▁खाते	-2201
▁गुणव	-2202
▁तकनी	-2203
▁पसंद	-2204
▁प्रे	-2205
▁समार	-2206
▁अवश्य	-2207
▁आयतों	-2208
▁केन्द	-2209
▁चयनित	-2210
▁प्रकट	-2211
▁प्रणब	-2212
▁प्रथम	-2213
▁भावना	-2214
▁भिन्न	-2215
▁संगठन	-2216
▁संगीत	-2217
▁अनुमति	-2218
▁आधुनिक	-2219
▁आयोजित	-2220
▁जाएँगे	-2221
▁संग्रह	-2222
▁निशानियाँ	-2223
ar	-2224
चर	-2225
मू	-2226
यल	-2227
सत	-2228
ैक	-2229
▁R	-2230
▁̧	-2231
eed	-2232
न्व	-2233
बान	-2234
म्भ	-2235
याँ	-2236
र्त	-2237
ृति	-2238
ोगे	-2239
▁'%	-2240
▁do	-2241
▁आँ	-2242
▁ऊँ	-2243
▁बज	-2244
त्ति	-2245
वर्क	-2246
वाही	-2247
▁not	-2248
▁कमा	-2249
▁दिख	-2250
▁पाक	-2251
▁रेल	-2252
▁लाल	-2253
▁शुभ	-2254
क्रमण	-2255
ल्पना	-2256
▁आतंक	-2257
▁आदमी	-2258
▁खिला	-2259
▁पूरे	-2260
▁जिनके	-2261
▁जिसकी	-2262
▁यूरोप	-2263
▁पदार्थ	-2264
▁संबंधी	-2265
▁समारोह	-2266
▁वेबसाइट	-2267
▁गुणवत्ता	-2268
▁चिकित्सा	-2269
▁प्रभावित	-2270
▁केन्द्रीय	-2271
▁प्राकृतिक	-2272
उट	-2273
ठी	-2274
ाब	-2275
ुप	-2276
▁+	-2277
▁D	-2278
▁T	-2279
▁̈	-2280
://	-2281
ंगी	-2282
ंचा	-2283
तित	-2284
न्स	-2285
स्म	-2286
िको	-2287
िना	-2288
्टर	-2289
▁दू	-2290
▁धी	-2291
▁वो	-2292
obab	-2293
ज़िल	-2294
म्मे	-2295
ुदाय	-2296
ैसला	-2297
▁अना	-2298
▁गलत	-2299
▁फिल	-2300
▁फेर	-2301
▁संत	-2302
न्हें	-2303
राज्य	-2304
सलमान	-2305
▁need	-2306
▁उचित	-2307
▁कांग	-2308
▁किये	-2309
▁गुरु	-2310
▁चलता	-2311
▁चुकी	-2312
▁युवा	-2313
▁रहता	-2314
▁वायु	-2315
▁तुमको	-2316
▁बातें	-2317
▁मिलता	-2318
▁मुक्त	-2319
▁विद्व	-2320
▁स्रोत	-2321
▁अध्ययन	-2322
▁उपधारा	-2323
▁ज़ालिम	-2324
▁योगदान	-2325
▁श्रेणी	-2326
▁सुनिश्च	-2327
▁निर्धारण	-2328
▁पर्यावरण	-2329
▁प्रोत्सा	-2330
▁वास्तविक	-2331
्राष्ट्रीय	-2332
▁translation	-2333
aà	-2334
फे	-2335
बह	-2336
मय	-2337
कुल	-2338
ड्ड	-2339
साय	-2340
▁26	-2341
▁झग	-2342
▁सत	-2343
City	-2344
अपने	-2345
क्शन	-2346
ज़ार	-2347
ज्ञा	-2348
द्रा	-2349
वाला	-2350
ियार	-2351
▁कहो	-2352
▁ख़ु	-2353
▁गां	-2354
▁तेल	-2355
▁नदी	-2356
▁बनी	-2357
▁मास	-2358
▁रखो	-2359
▁शेष	-2360
▁सात	-2361
▁सीख	-2362
▁हक़	-2363
▁हाँ	-2364
कारों	-2365
प्रिय	-2366
▁does	-2367
▁नंबर	-2368
▁बयान	-2369
▁बुला	-2370
▁मिली	-2371
▁रक्त	-2372
▁सेना	-2373
obably	-2374
▁कोर्इ	-2375
▁क्षमा	-2376
▁डिस्क	-2377
▁मिलने	-2378
▁संकेत	-2379
▁उल्लेख	-2380
▁मंत्री	-2381
▁यक़ीनन	-2382
▁विकसित	-2383
▁विनिर्	-2384
▁अधिकांश	-2385
▁नेटवर्क	-2386
▁संरक्षण	-2387
▁probably	-2388
▁करनेवाला	-2389
▁पैग़म्बर	-2390
▁प्रकाशित	-2391
▁सुनिश्चित	-2392
il	-2393
इड	-2394
कद	-2395
दृ	-2396
सन	-2397
ेप	-2398
ंकन	-2399
किल	-2400
ताल	-2401
राज	-2402
र्ट	-2403
स्ल	-2404
ानि	-2405
▁15	-2406
▁ऑफ	-2407
▁बढ	-2408
▁भौ	-2409
▁सच	-2410
जनिक	-2411
यामत	-2412
र्चा	-2413
वर्ष	-2414
्रीन	-2415
▁आपस	-2416
▁कने	-2417
▁जाय	-2418
▁रिक	-2419
त्त्व	-2420
श्विक	-2421
▁अगले	-2422
▁अनुर	-2423
▁उनपर	-2424
▁काफ़	-2425
▁खाता	-2426
▁जैसी	-2427
▁तारी	-2428
▁देती	-2429
▁बदले	-2430
▁विजय	-2431
▁सख्त	-2432
नेवाले	-2433
ोग्राम	-2434
▁किंतु	-2435
▁दस्ता	-2436
▁दूसरा	-2437
▁दृष्ट	-2438
▁मजबूत	-2439
▁संपाद	-2440
▁सफलता	-2441
▁सर्वो	-2442
▁अधिकतर	-2443
▁चाहिये	-2444
▁पश्चात	-2445
▁विदेशी	-2446
▁व्यापक	-2447
व्यवस्था	-2448
▁अध्यक्ष	-2449
▁प्रभावी	-2450
▁शताब्दी	-2451
राष्ट्रीय	-2452
▁सार्वजनिक	-2453
di	-2454
st	-2455
tp	-2456
शु	-2457
ज़े	-2458
ड़क	-2459
तरा	-2460
लिक	-2461
▁ht	-2462
▁उल	-2463
▁चर	-2464
▁दश	-2465
▁बख	-2466
ंपरा	-2467
जूदा	-2468
थमिक	-2469
दर्भ	-2470
वजूद	-2471
स्वी	-2472
ार्म	-2473
▁खुद	-2474
▁चैन	-2475
▁जित	-2476
▁दुख	-2477
▁प्ल	-2478
▁मही	-2479
▁माह	-2480
▁सिक	-2481
▁सिर	-2482
कालीन	-2483
त्रों	-2484
द्रीय	-2485
ार्थी	-2486
▁http	-2487
▁अनुप	-2488
▁अपील	-2489
▁ख़बर	-2490
▁जाँच	-2491
▁ट्रै	-2492
▁डाला	-2493
▁बाग़	-2494
▁मुद्	-2495
योक्ता	-2496
स्वरूप	-2497
▁ग्राह	-2498
▁तुमपर	-2499
▁पुरस्	-2500
▁संसार	-2501
▁मौजूदा	-2502
▁वीडियो	-2503
▁शब्दों	-2504
▁संदर्भ	-2505
▁निर्मित	-2506
▁विरुद्ध	-2507
▁कांग्रेस	-2508
▁प्राथमिक	-2509
et	-2510
थि	-2511
नु	-2512
बत	-2513
शय	-2514
सु	-2515
हि	-2516
ँकि	-2517
ंकि	-2518
ंडल	-2519
घ्र	-2520
पास	-2521
फ्ट	-2522
भाल	-2523
र्ग	-2524
र्ड	-2525
स्य	-2526
ोलन	-2527
्वी	-2528
▁वज	-2529
▁वर	-2530
राही	-2531
ल्ला	-2532
स्पर	-2533
ायों	-2534
ुत्व	-2535
▁अता	-2536
▁ईसा	-2537
▁कदम	-2538
▁खास	-2539
▁चीज	-2540
▁तत्	-2541
▁दशा	-2542
▁युग	-2543
▁विध	-2544
▁सित	-2545
▁हैः	-2546
लिखित	-2547
वर्ती	-2548
▁इतनी	-2549
▁उद्य	-2550
▁क़ुर	-2551
▁ठहरा	-2552
▁पद्ध	-2553
▁बाज़	-2554
▁भागी	-2555
▁लाने	-2556
▁विभा	-2557
▁संभव	-2558
नेवाला	-2559
▁आख़िर	-2560
▁ईश्वर	-2561
▁कोशिश	-2562
▁खाद्य	-2563
▁चर्चा	-2564
▁मालिक	-2565
▁शुक्र	-2566
▁अनुप्र	-2567
▁छोड़कर	-2568
▁तुममें	-2569
▁परंपरा	-2570
▁बन्दों	-2571
▁बावजूद	-2572
▁बैंकों	-2573
▁मुद्रा	-2574
▁हिन्दी	-2575
▁प्रकृति	-2576
nt	-2577
vi	-2578
णा	-2579
णि	-2580
तो	-2581
नर	-2582
पे	-2583
बु	-2584
रल	-2585
्प	-2586
जीव	-2587
देव	-2588
म्र	-2589
हरे	-2590
ेषण	-2591
▁1.	-2592
▁एम	-2593
▁ढा	-2594
▁हृ	-2595
ड़ों	-2596
न्दा	-2597
फ़ार	-2598
लग्न	-2599
ासिल	-2600
▁आते	-2601
▁कलक	-2602
▁झूठ	-2603
▁ध्व	-2604
▁पीठ	-2605
▁पेट	-2606
▁बाप	-2607
▁भली	-2608
▁मेल	-2609
▁रकम	-2610
▁रखी	-2611
▁लघु	-2612
▁वजह	-2613
▁सरक	-2614
द्यपि	-2615
वालों	-2616
▁क्रम	-2617
▁दिवस	-2618
▁पर्व	-2619
▁मिटा	-2620
▁आत्मा	-2621
▁तरीके	-2622
▁वार्ष	-2623
▁विवाह	-2624
▁शिकाय	-2625
चारियों	-2626
▁आकाशों	-2627
▁संकल्प	-2628
▁समुद्र	-2629
ार्थियों	-2630
▁मुसलमान	-2631
▁वैश्विक	-2632
▁औद्योगिक	-2633
▁प्रयुक्त	-2634
▁व्यक्तिगत	-2635
.1	-2636
ग्	-2637
थर	-2638
षद	-2639
▁B	-2640
▁E	-2641
▁p	-2642
▁̄	-2643
nic	-2644
ंगल	-2645
ढ़ी	-2646
बूल	-2647
बोध	-2648
लाम	-2649
ुता	-2650
्रॉ	-2651
▁17	-2652
▁कथ	-2653
▁गं	-2654
▁मश	-2655
▁वन	-2656
▁सृ	-2657
कर्ष	-2658
न्ना	-2659
मारी	-2660
मीटर	-2661
्याण	-2662
▁196	-2663
▁असम	-2664
▁आती	-2665
▁गैस	-2666
▁चाल	-2667
▁ढंग	-2668
▁नये	-2669
▁नसी	-2670
▁भंड	-2671
▁मोह	-2672
▁राय	-2673
▁लम्	-2674
▁संय	-2675
▁समृ	-2676
▁स्म	-2677
च्छेद	-2678
धिकार	-2679
वार्य	-2680
्यालय	-2681
▁अपरा	-2682
▁आयोग	-2683
▁इजरा	-2684
▁कहना	-2685
▁खर्च	-2686
▁घरों	-2687
▁छोटा	-2688
▁छोटी	-2689
▁डेटा	-2690
▁पाने	-2691
▁पिता	-2692
▁मेहर	-2693
▁विधे	-2694
▁वेतन	-2695
▁सकें	-2696
▁इच्छा	-2697
▁उपबंध	-2698
▁कुंजी	-2699
▁देंगे	-2700
▁देखें	-2701
▁निदेश	-2702
▁मानते	-2703
▁मिलकर	-2704
▁रक्षा	-2705
▁वर्णन	-2706
▁विमान	-2707
▁शांति	-2708
▁संक्ष	-2709
▁सक्षम	-2710
▁स्त्र	-2711
क्षेत्र	-2712
तिहासिक	-2713
▁अभिलेख	-2714
▁इन्हें	-2715
▁बुद्धि	-2716
▁सेवाओं	-2717
▁अत्यन्त	-2718
▁कलकत्ता	-2719
▁झुठलाया	-2720
▁दस्तावे	-2721
▁परीक्षा	-2722
▁हालाँकि	-2723
▁अनिवार्य	-2724
▁केंद्रीय	-2725
▁पर्याप्त	-2726
▁सुरक्षित	-2727
▁करनेवालों	-2728
▁अंतर्राष्ट्रीय	-2729
20	-2730
ऊण	-2731
झी	-2732
पक	-2733
लब	-2734
▁{	-2735
her	-2736
htm	-2737
गढ़	-2738
धाई	-2739
मिन	-2740
रान	-2741
रीय	-2742
र्न	-2743
वहन	-2744
हीन	-2745
िमी	-2746
ोरी	-2747
्ष्	-2748
▁इब	-2749
▁गि	-2750
▁टन	-2751
▁भग	-2752
,000	-2753
ंद्र	-2754
ऊण्श	-2755
किंग	-2756
गिज़	-2757
वधान	-2758
ाहिर	-2759
िकोण	-2760
▁आंद	-2761
▁इका	-2762
▁किन	-2763
▁छुट	-2764
▁तुल	-2765
▁दोष	-2766
▁नगर	-2767
▁पहल	-2768
▁पाल	-2769
▁पैर	-2770
▁रोज	-2771
▁सरल	-2772
्छ्ष्	-2773
▁अनुक	-2774
▁उसपर	-2775
▁कठिन	-2776
▁नियत	-2777
▁पंजी	-2778
▁फरमा	-2779
▁भोजन	-2780
▁रहें	-2781
▁रेखा	-2782
▁सलाह	-2783
▁सारा	-2784
▁हमसे	-2785
▁अफ्री	-2786
▁कराने	-2787
▁नसीहत	-2788
▁पूंजी	-2789
▁बनाएँ	-2790
▁मार्च	-2791
▁वायदा	-2792
▁विधान	-2793
▁शीघ्र	-2794
▁सत्ता	-2795
▁हासिल	-2796
▁अभिव्य	-2797
▁जाएंगे	-2798
▁नाज़िल	-2799
▁पहुंचा	-2800
▁प्रतिक	-2801
▁प्रतीक	-2802
▁मिट्टी	-2803
▁यद्यपि	-2804
▁समाचार	-2805
▁आतंकवाद	-2806
▁उपन्यास	-2807
▁उपयुक्त	-2808
▁नियुक्त	-2809
▁महात्मा	-2810
▁विस्तृत	-2811
ऊण्श्छ्ष्	-2812
▁पुरस्कार	-2813
▁लोकप्रिय	-2814
▁अनुप्रयोग	-2815
)।	-2816
le	-2817
¤2	-2818
कत	-2819
दो	-2820
बि	-2821
सव	-2822
ूद	-2823
ॉप	-2824
ंदा	-2825
खंड	-2826
खिल	-2827
जिए	-2828
तया	-2829
पुट	-2830
रार	-2831
सभा	-2832
्वर	-2833
▁13	-2834
▁14	-2835
▁16	-2836
▁30	-2837
▁ऑन	-2838
▁नर	-2839
▁शक	-2840
▁हद	-2841
▁१९	-2842
डिया	-2843
ध्या	-2844
न्दर	-2845
न्या	-2846
भाषा	-2847
रिया	-2848
ैतिक	-2849
▁अक्	-2850
▁आता	-2851
▁ऊंच	-2852
▁खूब	-2853
▁बर्	-2854
▁भूल	-2855
▁मंच	-2856
ल्लाह	-2857
▁कठोर	-2858
▁कानू	-2859
▁खेती	-2860
▁चुने	-2861
▁छिपा	-2862
▁पर्य	-2863
▁पांच	-2864
▁प्ले	-2865
▁बधाई	-2866
▁ब्रा	-2867
▁सबको	-2868
▁हालत	-2869
▁उपचार	-2870
▁काव्य	-2871
▁खुलती	-2872
▁गिरोह	-2873
▁पुकार	-2874
▁बढ़कर	-2875
▁बताया	-2876
▁बौद्ध	-2877
▁मैदान	-2878
▁विशाल	-2879
विधियों	-2880
▁उन्हीं	-2881
▁कल्याण	-2882
▁ज़ाहिर	-2883
▁जोड़ें	-2884
▁निर्भर	-2885
▁रहेंगे	-2886
▁संशोधन	-2887
▁समुदाय	-2888
▁जहन्नुम	-2889
▁प्रसन्न	-2890
▁विशेषता	-2891
▁कंप्यूटर	-2892
▁कार्यालय	-2893
▁प्रभुत्व	-2894
▁क्षेत्रीय	-2895
▁संस्थानों	-2896
▁निर्धारिती	-2897
▁प्राधिकारी	-2898
▁कार्यक्रमों	-2899
यह	-2900
ाक	-2901
ुन	-2902
ुस	-2903
▁३	-2904
ंता	-2905
अलग	-2906
ओगे	-2907
नतम	-2908
ब्र	-2909
भीर	-2910
भूम	-2911
मीर	-2912
लीफ	-2913
वोल	-2914
ेगा	-2915
ोने	-2916
▁अक	-2917
▁एल	-2918
▁एह	-2919
▁तथ	-2920
▁फि	-2921
▁बॉ	-2922
▁हथ	-2923
पादन	-2924
प्ता	-2925
ुमार	-2926
ूंगा	-2927
ेक्ट	-2928
▁अंक	-2929
▁इला	-2930
▁गाँ	-2931
▁गाय	-2932
▁जून	-2933
▁मुझ	-2934
जिस्ट	-2935
ज्ञात	-2936
िकाओं	-2937
िश्ते	-2938
्यूशन	-2939
▁आपका	-2940
▁खरीद	-2941
▁घोषण	-2942
▁निगम	-2943
▁पंजा	-2944
▁पड़ा	-2945
▁पार्	-2946
▁पालन	-2947
▁मुक़	-2948
▁रखें	-2949
▁वाता	-2950
▁संदे	-2951
▁सारी	-2952
▁इत्या	-2953
▁इस्ला	-2954
▁जरूरी	-2955
▁दृश्य	-2956
▁पुनर्	-2957
▁यंत्र	-2958
▁योग्य	-2959
▁लगाने	-2960
▁वाद्य	-2961
▁शास्त	-2962
▁संचार	-2963
▁इजरायल	-2964
▁पुराने	-2965
▁विंडों	-2966
▁संरचना	-2967
▁संसाधन	-2968
▁उपस्थित	-2969
▁पश्चिमी	-2970
▁स्क्रीन	-2971
▁अंग्रेजी	-2972
▁ऐतिहासिक	-2973
▁राजनीतिक	-2974
▁लोकतंत्र	-2975
▁संस्कृति	-2976
▁प्रोग्राम	-2977
▁अधिकारियों	-2978
▁अर्थव्यवस्था	-2979
-0	-2980
re	-2981
¤¤	-2982
फर	-2983
वै	-2984
▁O	-2985
▁U	-2986
▁w	-2987
एगा	-2988
करी	-2989
चीन	-2990
पों	-2991
फिक	-2992
बाई	-2993
बाह	-2994
मैं	-2995
ह्न	-2996
ात्	-2997
ानु	-2998
▁50	-2999
▁आठ	-3000
▁एफ	-3001
▁चू	-3002
▁सश	-3003
pres	-3004
कड़ी	-3005
क्टर	-3006
दायत	-3007
बाइल	-3008
भूमि	-3009
ॉन्ट	-3010
▁(19	-3011
▁आँख	-3012
▁आउट	-3013
▁उपा	-3014
▁कदा	-3015
▁खुश	-3016
▁गीत	-3017
▁चढ़	-3018
▁नमा	-3019
▁ब्ल	-3020
▁मिस	-3021
▁मुह	-3022
▁शोध	-3023
▁हवा	-3024
कृष्ट	-3025
क्रिय	-3026
तुम्ह	-3027
ल्कुल	-3028
▁आयात	-3029
▁इंटर	-3030
▁इनके	-3031
▁क़सम	-3032
▁तरफ़	-3033
▁दृढ़	-3034
▁धार्	-3035
▁नाटक	-3036
▁नेहर	-3037
▁बैठे	-3038
▁भारी	-3039
▁लेखक	-3040
▁व्यय	-3041
▁शेयर	-3042
▁शैली	-3043
▁सबके	-3044
▁सिक्	-3045
▁हजार	-3046
▁उत्तम	-3047
▁जल्दी	-3048
▁जिसको	-3049
▁दर्शा	-3050
▁महारा	-3051
▁सत्या	-3052
▁सांस्	-3053
▁हाथों	-3054
▁अत्यंत	-3055
▁आंदोलन	-3056
▁ऑनलाइन	-3057
▁कल्पना	-3058
▁क़यामत	-3059
▁जायेगा	-3060
▁नियमों	-3061
▁परस्पर	-3062
▁प्रशास	-3063
▁मामलों	-3064
▁विधेयक	-3065
▁किसानों	-3066
▁धार्मिक	-3067
▁संपत्ति	-3068
▁कर्मचारी	-3069
▁प्रतिनिध	-3070
▁प्रतिष्ठ	-3071
▁दृष्टिकोण	-3072
▁प्रदर्शित	-3073
▁गतिविधियों	-3074
▁अंतरराष्ट्रीय	-3075
as	-3076
¤1	-3077
औन	-3078
खर	-3079
नो	-3080
यण	-3081
ॉन	-3082
▁b	-3083
ंबई	-3084
ज़त	-3085
ताव	-3086
दित	-3087
फ़र	-3088
राब	-3089
लोड	-3090
विल	-3091
वीय	-3092
साथ	-3093
सों	-3094
हाद	-3095
ोजी	-3096
्ठा	-3097
▁(%	-3098
▁चम	-3099
▁पल	-3100
▁रौ	-3101
▁शो	-3102
▁हट	-3103
ment	-3104
ंखला	-3105
क्सी	-3106
बारा	-3107
मेंट	-3108
म्मद	-3109
स्टम	-3110
िप्त	-3111
ैनिक	-3112
▁100	-3113
▁194	-3114
▁अरब	-3115
▁आंक	-3116
▁इले	-3117
▁कथा	-3118
▁काग	-3119
▁कृत	-3120
▁चरण	-3121
▁जोर	-3122
▁टुक	-3123
▁तेज	-3124
▁दीन	-3125
▁पृथ	-3126
▁फाय	-3127
▁बाग	-3128
▁मस्	-3129
▁शर्	-3130
▁साइ	-3131
कामना	-3132
वर्तन	-3133
ष्ट्र	-3134
▁आपकी	-3135
▁करनी	-3136
▁काले	-3137
▁कुफ्	-3138
▁खुला	-3139
▁जल्द	-3140
▁जादू	-3141
▁परिच	-3142
▁मिशन	-3143
▁मौसम	-3144
▁रहती	-3145
▁रहना	-3146
▁रीति	-3147
▁लेना	-3148
▁विफल	-3149
▁विरा	-3150
▁सीधे	-3151
▁स्थल	-3152
दुनिया	-3153
द्धांत	-3154
▁अर्था	-3155
▁आदर्श	-3156
▁आरम्भ	-3157
▁एशिया	-3158
▁औरतों	-3159
▁काफिर	-3160
▁गंभीर	-3161
▁घोषणा	-3162
▁ज़रुर	-3163
▁जिनका	-3164
▁जीवित	-3165
▁तस्वी	-3166
▁द्वार	-3167
▁नमाज़	-3168
▁नेहरू	-3169
▁प्राय	-3170
▁प्रेर	-3171
▁महामह	-3172
▁सच्चे	-3173
▁समन्व	-3174
▁सिद्ध	-3175
कर्ताओं	-3176
▁अध्याय	-3177
▁तकनीकी	-3178
▁बढ़ावा	-3179
▁शीर्षक	-3180
▁स्थायी	-3181
▁स्वच्छ	-3182
▁स्वागत	-3183
▁स्वामी	-3184
▁हिदायत	-3185
▁अफ्रीका	-3186
▁कार्यों	-3187
▁नीतियों	-3188
▁न्यूनतम	-3189
▁बिल्कुल	-3190
▁महिलाओं	-3191
▁वस्तुओं	-3192
▁वातावरण	-3193
▁वार्षिक	-3194
▁विद्युत	-3195
▁हालांकि	-3196
▁अनुच्छेद	-3197
▁मार्गदर्शन	-3198
4)	-3199
ac	-3200
ee	-3201
ii	-3202
ou	-3203
एल	-3204
घन	-3205
डर	-3206
डि	-3207
तल	-3208
नन	-3209
पट	-3210
पै	-3211
ीब	-3212
ौल	-3213
▁F	-3214
जिट	-3215
ट्र	-3216
तौर	-3217
नेट	-3218
परि	-3219
फार	-3220
रेट	-3221
ष्क	-3222
ियत	-3223
▁अं	-3224
▁अश	-3225
▁एज	-3226
▁मस	-3227
▁लु	-3228
▁सज	-3229
▁सफ	-3230
▁सॉ	-3231
▁हल	-3232
-201	-3233
ंगिक	-3234
क्षी	-3235
धनों	-3236
सनीय	-3237
स्ते	-3238
▁(2)	-3239
▁197	-3240
▁अवि	-3241
▁एका	-3242
▁कूट	-3243
▁गृह	-3244
▁चेह	-3245
▁डाय	-3246
▁ताल	-3247
▁पति	-3248
▁पाए	-3249
▁बिक	-3250
▁मिन	-3251
▁यथा	-3252
▁वाह	-3253
▁सदन	-3254
▁सुख	-3255
चारिक	-3256
न्दगी	-3257
प्ताह	-3258
बाहरी	-3259
श्मीर	-3260
स्त्र	-3261
ृंखला	-3262
▁अप्र	-3263
▁अस्त	-3264
▁एवोल	-3265
▁करार	-3266
▁खुशी	-3267
▁गठित	-3268
▁ग्रह	-3269
▁चलते	-3270
▁धारण	-3271
▁निधि	-3272
▁पूछा	-3273
▁फिली	-3274
▁बख्श	-3275
▁भाषण	-3276
▁मज़ा	-3277
▁मानक	-3278
▁लेता	-3279
▁साझी	-3280
▁सीता	-3281
▁सुबह	-3282
▁स्वर	-3283
▁हृदय	-3284
्यान्व	-3285
▁अंतरण	-3286
▁अनुमो	-3287
▁उठाने	-3288
▁उद्घा	-3289
▁कठिना	-3290
▁ख़र्च	-3291
▁खिलाफ	-3292
▁जनवरी	-3293
▁दिलों	-3294
▁पत्थर	-3295
▁पारित	-3296
▁प्रदू	-3297
▁प्रसि	-3298
▁बनाते	-3299
▁बाहरी	-3300
▁विविध	-3301
▁व्याव	-3302
▁समझते	-3303
▁सर्वा	-3304
▁सामना	-3305
▁हत्या	-3306
नेवालों	-3307
▁अनुकूल	-3308
▁इलेक्ट	-3309
▁कहेंगे	-3310
▁जिम्मे	-3311
▁पद्धति	-3312
▁प्रचार	-3313
▁फ़ैसला	-3314
▁मोबाइल	-3315
▁विश्ले	-3316
▁शिकायत	-3317
▁संघर्ष	-3318
▁साधारण	-3319
▁हरगिज़	-3320
▁इत्यादि	-3321
▁दायित्व	-3322
▁प्रशासन	-3323
▁महत्त्व	-3324
▁महामहिम	-3325
▁संबंधों	-3326
▁संस्करण	-3327
▁सरकारों	-3328
▁अधिकारों	-3329
▁प्रयासों	-3330
▁एवोल्यूशन	-3331
▁कार्यान्व	-3332
▁निष्क्रिय	-3333
he	-3334
ol	-3335
अर	-3336
खे	-3337
गण	-3338
टि	-3339
पथ	-3340
पल	-3341
यत	-3342
वह	-3343
सब	-3344
हे	-3345
ैव	-3346
▁Z	-3347
ंडा	-3348
जनक	-3349
तृत	-3350
दास	-3351
दिन	-3352
दीय	-3353
नाम	-3354
बित	-3355
रज़	-3356
लें	-3357
वें	-3358
ुत्	-3359
्वा	-3360
▁आश	-3361
▁एच	-3362
▁जय	-3363
▁झा	-3364
▁फे	-3365
▁बू	-3366
▁मध	-3367
चलित	-3368
द्री	-3369
म्मी	-3370
र्वा	-3371
ालिब	-3372
ितीय	-3373
्यास	-3374
्राइ	-3375
्वाह	-3376
▁असा	-3377
▁इकट	-3378
▁उपभ	-3379
▁चली	-3380
▁ढूं	-3381
▁फोन	-3382
▁बजा	-3383
▁बिज	-3384
▁बोझ	-3385
▁लॉग	-3386
▁विल	-3387
▁सुल	-3388
तृत्व	-3389
दर्शी	-3390
दियों	-3391
भाषित	-3392
वान्व	-3393
ामर्श	-3394
्रांस	-3395
▁अद्य	-3396
▁अधिस	-3397
▁उन्न	-3398
▁उपाय	-3399
▁करीब	-3400
▁खाली	-3401
▁गवाह	-3402
▁गहरा	-3403
▁झगड़	-3404
▁डाउन	-3405
▁तमिल	-3406
▁तेरे	-3407
▁दिला	-3408
▁दीर्	-3409
▁धीरे	-3410
▁पेड़	-3411
▁प्रच	-3412
▁फ़िल	-3413
▁बनाई	-3414
▁ब्या	-3415
▁मानो	-3416
▁मीटर	-3417
▁मुकद	-3418
▁लोगो	-3419
▁सत्र	-3420
▁सहेज	-3421
▁साफ़	-3422
संख्या	-3423
▁अनुसू	-3424
▁अपराध	-3425
▁उद्यम	-3426
▁एकत्र	-3427
▁कटौती	-3428
▁खोलें	-3429
▁गुज़र	-3430
▁जानवर	-3431
▁जुड़े	-3432
▁तारीख	-3433
▁थोड़ा	-3434
▁देखता	-3435
▁परिषद	-3436
▁पात्र	-3437
▁बनाकर	-3438
▁बनाना	-3439
▁वर्षा	-3440
▁विवाद	-3441
▁सर्वे	-3442
▁सीमित	-3443
▁सुंदर	-3444
▁स्तंभ	-3445
▁हिंदू	-3446
क्तियों	-3447
विज्ञान	-3448
▁अधिकतम	-3449
▁इस्लाम	-3450
▁काफ़िर	-3451
▁जिनमें	-3452
▁नवान्व	-3453
▁निरंतर	-3454
▁बुनिया	-3455
▁रजिस्ट	-3456
▁लगातार	-3457
▁संलग्न	-3458
▁संविदा	-3459
▁सप्ताह	-3460
▁स्त्री	-3461
▁स्वरूप	-3462
कारात्मक	-3463
▁ईमानदार	-3464
▁कनेक्शन	-3465
▁गणराज्य	-3466
▁परामर्श	-3467
▁संपूर्ण	-3468
▁स्थानों	-3469
▁परिस्थित	-3470
▁भागीदारी	-3471
▁शुभकामना	-3472
▁सिद्धांत	-3473
▁निम्नलिखित	-3474
▁प्रोत्साहन	-3475
▁सांस्कृतिक	-3476
▁कर्मचारियों	-3477
▁विनिर्दिष्ट	-3478
▁परिणामस्वरूप	-3479
2,	-3480
3)	-3481
:-	-3482
of	-3483
आत	-3484
कू	-3485
डल	-3486
पह	-3487
यम	-3488
लम	-3489
शे	-3490
शो	-3491
िज	-3492
▁H	-3493
▁m	-3494
-19	-3495
ail	-3496
ent	-3497
ँति	-3498
कलन	-3499
कीय	-3500
कुछ	-3501
गमन	-3502
गैर	-3503
परी	-3504
पान	-3505
साह	-3506
स्फ	-3507
ालत	-3508
िनी	-3509
ियल	-3510
ोकन	-3511
▁27	-3512
▁अज	-3513
▁आइ	-3514
▁घट	-3515
▁चै	-3516
▁तय	-3517
▁दौ	-3518
▁पत	-3519
▁फी	-3520
▁मई	-3521
त्तर	-3522
धानी	-3523
मतौर	-3524
माने	-3525
वायु	-3526
ष्टा	-3527
ालित	-3528
िप्प	-3529
ेषित	-3530
ोषित	-3531
्रेड	-3532
▁198	-3533
▁अंश	-3534
▁अब्	-3535
▁क़ा	-3536
▁काट	-3537
▁गोल	-3538
▁गौर	-3539
▁ठिक	-3540
▁तभी	-3541
▁तुर	-3542
▁दबा	-3543
▁देर	-3544
▁द्र	-3545
▁परा	-3546
▁भ्र	-3547
▁लगी	-3548
▁लोड	-3549
▁शख़	-3550
▁सूर	-3551
▁होम	-3552
वित्र	-3553
श्किल	-3554
स्लिम	-3555
▁अगला	-3556
▁इनका	-3557
▁उम्र	-3558
▁खाना	-3559
▁खुली	-3560
▁खुले	-3561
▁जमीन	-3562
▁डाटा	-3563
▁ढूंढ	-3564
▁तर्क	-3565
▁तेजी	-3566
▁देवी	-3567
▁नामक	-3568
▁पकड़	-3569
▁परेश	-3570
▁पहला	-3571
▁फैला	-3572
▁बजाय	-3573
▁बुरी	-3574
▁मतलब	-3575
▁यूनि	-3576
▁लगते	-3577
▁लिखी	-3578
▁वाक़	-3579
▁संगम	-3580
अल्लाह	-3581
ड़ियों	-3582
िश्तों	-3583
▁अगस्त	-3584
▁अधिसू	-3585
▁आनन्द	-3586
▁कविता	-3587
▁कृष्ण	-3588
▁ग्रंथ	-3589
▁जिनको	-3590
▁तरीका	-3591
▁तुलना	-3592
▁निहित	-3593
▁पंजाब	-3594
▁पट्टी	-3595
▁प्रवि	-3596
▁बदलने	-3597
▁भगवान	-3598
▁मात्र	-3599
▁मोमिन	-3600
▁रहेगा	-3601
▁लगाया	-3602
▁लिखित	-3603
▁लेंगे	-3604
▁शिकार	-3605
▁समक्ष	-3606
▁सरकशी	-3607
▁इंडिया	-3608
▁ग्राहक	-3609
▁नियमित	-3610
▁पंक्ति	-3611
▁फ़ॉन्ट	-3612
▁बढ़ाने	-3613
▁बन्दगी	-3614
▁मिलियन	-3615
▁विनियम	-3616
▁सिस्टम	-3617
▁हथियार	-3618
........	-3619
▁अत्यधिक	-3620
▁उद्घाटन	-3621
▁नेतृत्व	-3622
▁मुद्दों	-3623
▁मुश्किल	-3624
▁मूल्यों	-3625
▁श्रेणीः	-3626
▁संपादित	-3627
▁उत्कृष्ट	-3628
▁प्राप्ति	-3629
▁विश्लेषण	-3630
▁समस्याओं	-3631
▁परिवर्तित	-3632
▁प्रत्यक्ष	-3633
▁प्रारंभिक	-3634
▁संक्षिप्त	-3635
▁सर्वेक्षण	-3636
▁साहित्यिक	-3637
▁निर्देशिका	-3638
th	-3639
आन	-3640
णु	-3641
मल	-3642
वृ	-3643
ूत	-3644
चीत	-3645
जात	-3646
टिल	-3647
त्न	-3648
दरत	-3649
माल	-3650
म्स	-3651
लीन	-3652
िफ़	-3653
्वे	-3654
▁21	-3655
▁औष	-3656
▁दस	-3657
▁फा	-3658
▁मल	-3659
अपनी	-3660
आईटी	-3661
एँगे	-3662
तरित	-3663
दाता	-3664
प्रे	-3665
मर्श	-3666
मानी	-3667
शाला	-3668
शासन	-3669
संस्	-3670
साफ़	-3671
ोबार	-3672
्रैल	-3673
▁अका	-3674
▁अदा	-3675
▁आंख	-3676
▁इंज	-3677
▁उड़	-3678
▁क़ु	-3679
▁कोड	-3680
▁कोल	-3681
▁घटा	-3682
▁टैब	-3683
▁तार	-3684
▁नहर	-3685
▁पाइ	-3686
▁फ्ल	-3687
▁वित	-3688
▁शक़	-3689
▁समी	-3690
▁हार	-3691
▁२००	-3692
आख़िर	-3693
क्ष्म	-3694
णिज्य	-3695
त्मिक	-3696
नियों	-3697
मात्र	-3698
राहीम	-3699
ोजीशन	-3700
्रिया	-3701
▁अंदर	-3702
▁अभिय	-3703
▁अल्प	-3704
▁अस्थ	-3705
▁आसान	-3706
▁कर्त	-3707
▁कुशल	-3708
▁खड़ा	-3709
▁खड़े	-3710
▁गंगा	-3711
▁गांव	-3712
▁जर्म	-3713
▁तिथि	-3714
▁दयाल	-3715
▁दर्द	-3716
▁दिये	-3717
▁दूरी	-3718
▁नज़र	-3719
▁निभा	-3720
▁पैरा	-3721
▁बहुम	-3722
▁रद्द	-3723
▁शुरु	-3724
▁स्ना	-3725
omment	-3726
वृत्ति	-3727
्रॉनिक	-3728
▁आमतौर	-3729
▁आयोजन	-3730
▁आसपास	-3731
▁आसानी	-3732
▁क्लिक	-3733
▁चुनाव	-3734
▁जवाहर	-3735
▁दर्शन	-3736
▁दोस्त	-3737
▁दोहरा	-3738
▁नृत्य	-3739
▁पोर्ट	-3740
▁बदलें	-3741
▁ब्याज	-3742
▁लकड़ी	-3743
▁लक्षण	-3744
▁शहरों	-3745
▁संग्र	-3746
▁साबित	-3747
▁सामान	-3748
▁स्थिर	-3749
▁अद्यतन	-3750
▁अनुसरण	-3751
▁अप्रैल	-3752
▁अवतरित	-3753
▁इकट्ठा	-3754
▁उपयोगी	-3755
▁कारबार	-3756
▁गिरफ्त	-3757
▁ठिकाना	-3758
▁तस्वीर	-3759
▁देखभाल	-3760
▁पूर्वा	-3761
▁पोजीशन	-3762
▁बातचीत	-3763
▁बिक्री	-3764
▁भाषाओं	-3765
▁मानसिक	-3766
▁सम्मिल	-3767
▁हिन्दू	-3768
▁इबराहीम	-3769
▁डाउनलोड	-3770
▁प्राचीन	-3771
▁फ़िल्टर	-3772
▁योग्यता	-3773
▁वाणिज्य	-3774
▁संस्कृत	-3775
▁प्रसिद्ध	-3776
▁व्याख्या	-3777
▁संस्थाओं	-3778
▁ईमानदारों	-3779
▁पृष्ठभूमि	-3780
▁प्रतीक्षा	-3781
▁प्रतिनिधित्व	-3782
-#	-3783
--	-3784
50	-3785
:%	-3786
>>	-3787
ur	-3788
us	-3789
आप	-3790
जल	-3791
जै	-3792
दल	-3793
भु	-3794
वक	-3795
वण	-3796
ुआ	-3797
▁G	-3798
▁N	-3799
▁५	-3800
ंका	-3801
ंटे	-3802
ंदु	-3803
कात	-3804
केट	-3805
गोल	-3806
जिस	-3807
णों	-3808
दिक	-3809
दूर	-3810
बंद	-3811
बूझ	-3812
माम	-3813
र्ज	-3814
विक	-3815
संग	-3816
ायी	-3817
िपि	-3818
ेंद	-3819
ोटो	-3820
ोपण	-3821
्यु	-3822
▁28	-3823
▁उत	-3824
▁तट	-3825
▁	-3826
ा	-3827
क	-3828
र	-3829
े	-3830
्	-3831
न	-3832
ि	-3833
स	-3834
त	-3835
ह	-3836
ं	-3837
ी	-3838
म	-3839
ो	-3840
य	-3841
प	-3842
ल	-3843
व	-3844
द	-3845
ज	-3846
ु	-3847
ग	-3848
ब	-3849
ै	-3850
अ	-3851
श	-3852
ए	-3853
च	-3854
उ	-3855
भ	-3856
ू	-3857
़	-3858
।	-3859
ट	-3860
,	-3861
थ	-3862
औ	-3863
ध	-3864
ख	-3865
ष	-3866
आ	-3867
ड	-3868
इ	-3869
ण	-3870
फ	-3871
(	-3872
)	-3873
.	-3874
ई	-3875
-	-3876
छ	-3877
ँ	-3878
1	-3879
ौ	-3880
0	-3881
ृ	-3882
ओ	-3883
ठ	-3884
2	-3885
घ	-3886
झ	-3887
e	-3888
ऐ	-3889
à	-3890
a	-3891
i	-3892
ढ	-3893
t	-3894
n	-3895
¤	-3896
ॉ	-3897
o	-3898
ः	-3899
"	-3900
s	-3901
9	-3902
4	-3903
r	-3904
3	-3905
/	-3906
5	-3907
?	-3908
l	-3909
'	-3910
ञ	-3911
m	-3912
%	-3913
;	-3914
6	-3915
8	-3916
7	-3917
:	-3918
p	-3919
ऊ	-3920
d	-3921
c	-3922
_	-3923
h	-3924
b	-3925
C	-3926
u	-3927
¥	-3928
‍	-3929
ऑ	-3930
०	-3931
!	-3932
y	-3933
ऋ	-3934
A	-3935
S	-3936
I	-3937
१	-3938
g	-3939
N	-3940
T	-3941
P	-3942
‘	-3943
f	-3944
R	-3945
E	-3946
k	-3947
w	-3948
M	-3949
>	-3950
’	-3951
”	-3952
O	-3953
D	-3954
⁄	-3955
v	-3956
L	-3957
२	-3958
#	-3959
&	-3960
“	-3961
<	-3962
	-3963
B	-3964
U	-3965
५	-3966
३	-3967
	-3968
°	-3969
९	-3970
F	-3971
x	-3972
	-3973
६	-3974
	-3975
¿	-3976
–	-3977
H	-3978
G	-3979
@	-3980
{	-3981
ॅ	-3982
८	-3983
}	-3984
V	-3985
̧	-3986
+	-3987
̈	-3988
Z	-3989
४	-3990
\	-3991
j	-3992
̄	-3993
॰	-3994
K	-3995
W	-3996
