<pad>	0
</s>	0
<unk>	0
▁क	-0
▁स	-1
▁ह	-2
▁प	-3
▁म	-4
्र	-5
ार	-6
▁है	-7
ें	-8
▁ज	-9
▁अ	-10
▁के	-11
▁व	-12
या	-13
▁न	-14
▁ब	-15
▁उ	-16
▁त	-17
ों	-18
▁द	-19
▁ल	-20
▁औ	-21
ने	-22
▁और	-23
▁में	-24
र्	-25
▁र	-26
ता	-27
्य	-28
▁की	-29
▁कर	-30
ान	-31
▁कि	-32
▁प्र	-33
▁आ	-34
▁को	-35
िक	-36
▁से	-37
्त	-38
▁भ	-39
▁का	-40
ना	-41
▁इ	-42
▁ग	-43
ित	-44
▁(	-45
▁पर	-46
▁य	-47
ाल	-48
▁हो	-49
▁ए	-50
्व	-51
▁च	-52
ही	-53
न्	-54
▁लि	-55
▁श	-56
ते	-57
▁वि	-58
▁सं	-59
▁जा	-60
▁हैं	-61
▁इस	-62
▁उस	-63
के	-64
ला	-65
▁ख	-66
ोग	-67
था	-68
्ष	-69
ति	-70
ड़	-71
▁एक	-72
स्	-73
ुम	-74
िय	-75
▁लिए	-76
हा	-77
▁सम	-78
हीं	-79
्या	-80
ती	-81
▁फ	-82
्ट	-83
▁अप	-84
▁उन	-85
▁जो	-86
▁तो	-87
▁सा	-88
▁नहीं	-89
वा	-90
▁दे	-91
▁तुम	-92
▁नि	-93
▁हम	-94
रा	-95
से	-96
दा	-97
िया	-98
▁भी	-99
▁ने	-100
त्र	-101
का	-102
ल्	-103
सी	-104
▁रा	-105
▁जि	-106
▁या	-107
▁बा	-108
री	-109
कार	-110
गा	-111
नी	-112
क्ष	-113
▁किया	-114
ज़	-115
▁अन	-116
ास	-117
▁यह	-118
▁ही	-119
ले	-120
सा	-121
ष्ट	-122
की	-123
ेश	-124
ारा	-125
कर	-126
मा	-127
▁करने	-128
▁थ	-129
ंग	-130
▁अध	-131
▁मु	-132
त्	-133
▁लोग	-134
▁वह	-135
िर	-136
▁स्	-137
▁हु	-138
क्त	-139
▁कु	-140
कि	-141
▁दि	-142
▁कार	-143
▁रह	-144
ाम	-145
▁ड	-146
▁उप	-147
ारे	-148
ाह	-149
न्ह	-150
▁सक	-151
द्	-152
▁अपने	-153
ियों	-154
ारी	-155
▁वे	-156
मान	-157
▁था	-158
▁ले	-159
▁ऐ	-160
▁1	-161
िल	-162
स्त	-163
▁ध	-164
रे	-165
वि	-166
ूप	-167
्च	-168
गे	-169
▁पू	-170
▁सु	-171
्री	-172
▁भार	-173
भा	-174
▁जिस	-175
ंत	-176
▁आप	-177
में	-178
▁गया	-179
▁पह	-180
▁उन्ह	-181
ैं	-182
ओं	-183
ंध	-184
▁तथा	-185
▁वाल	-186
दि	-187
्ह	-188
▁कुछ	-189
ली	-190
▁छ	-191
▁किसी	-192
▁ख़	-193
▁द्व	-194
ीन	-195
▁तुम्ह	-196
ूल	-197
▁दो	-198
▁अनु	-199
▁स्व	-200
▁साथ	-201
ाप	-202
ुदा	-203
▁मे	-204
▁जब	-205
को	-206
देश	-207
▁घ	-208
म्	-209
▁रूप	-210
खा	-211
ोज	-212
▁चाह	-213
▁अधिक	-214
▁कोई	-215
▁निर्	-216
ंद	-217
ंड	-218
ाय	-219
ुर	-220
द्ध	-221
▁उनके	-222
▁विश	-223
गी	-224
▁ला	-225
ार्	-226
▁थे	-227
▁ट	-228
▁तक	-229
भी	-230
▁द्वारा	-231
न्द	-232
ढ़	-233
▁करें	-234
▁करते	-235
▁पा	-236
▁व्य	-237
▁राज	-238
▁प्रति	-239
गर	-240
▁लोगों	-241
▁भा	-242
ाना	-243
र्व	-244
▁बना	-245
▁दिया	-246
नों	-247
▁क्ष	-248
▁परि	-249
▁2	-250
क़	-251
▁वर्	-252
योग	-253
त्त	-254
▁जाए	-255
▁बह	-256
लाह	-257
ंत्र	-258
ुत	-259
▁कह	-260
▁भारत	-261
धार	-262
▁मा	-263
▁फिर	-264
जी	-265
ये	-266
ाद	-267
िए	-268
▁राष्ट	-269
▁तर	-270
▁अल्	-271
▁सि	-272
▁कार्य	-273
क्	-274
▁ये	-275
रण	-276
▁मैं	-277
्ञ	-278
ुन	-279
▁अव	-280
▁कहा	-281
क्र	-282
▁स्थ	-283
▁जाता	-284
बंध	-285
्छ	-286
▁रहे	-287
▁उसके	-288
क्ति	-289
▁क्या	-290
फ़	-291
▁"	-292
▁रख	-293
▁इन	-294
▁सब	-295
▁ई	-296
ूर	-297
ष्	-298
▁करना	-299
▁अल्लाह	-300
▁ज़	-301
ड़ा	-302
नि	-303
▁ख़ुदा	-304
▁अपनी	-305
▁थी	-306
द्य	-307
▁सर	-308
ंच	-309
ानी	-310
ब्	-311
जा	-312
न्न	-313
▁फ़	-314
▁मह	-315
च्छ	-316
त्य	-317
र्ण	-318
▁जी	-319
स्थ	-320
▁बात	-321
▁हुए	-322
मी	-323
्यों	-324
दी	-325
पर	-326
▁सू	-327
▁विक	-328
▁उन्हें	-329
▁करता	-330
▁सी	-331
्रे	-332
▁होता	-333
िन	-334
वाल	-335
श्च	-336
▁क़	-337
ेत्र	-338
▁ओ	-339
ोंने	-340
▁रहा	-341
ड़े	-342
▁सकता	-343
कृ	-344
िका	-345
▁उसे	-346
ाइ	-347
ाप्त	-348
चार	-349
▁हि	-350
▁दी	-351
▁बी	-352
र्थ	-353
▁जान	-354
बर	-355
च्च	-356
▁गु	-357
मे	-358
वर्	-359
ूस	-360
▁क्षेत्र	-361
▁मान	-362
▁देख	-363
टा	-364
▁बहुत	-365
▁समय	-366
▁राष्ट्र	-367
ड़ी	-368
ज्ञ	-369
▁मि	-370
दान	-371
पू	-372
हर	-373
▁पु	-374
▁जै	-375
र्म	-376
▁बाद	-377
भि	-378
ोल	-379
▁पै	-380
शन	-381
वन	-382
▁आय	-383
ियम	-384
कों	-385
टी	-386
पति	-387
वे	-388
▁तरह	-389
▁सह	-390
▁बे	-391
▁वाले	-392
▁उन्होंने	-393
▁हुआ	-394
▁काम	-395
▁पास	-396
वी	-397
▁देश	-398
▁पहले	-399
▁अंत	-400
ोक	-401
प्र	-402
▁हमने	-403
ेष	-404
चना	-405
▁उत्	-406
स्था	-407
्रीय	-408
▁ना	-409
▁होगा	-410
▁जिन	-411
ुल	-412
▁उनकी	-413
क्षा	-414
▁यदि	-415
▁तुम्हारे	-416
ौर	-417
▁गई	-418
झे	-419
▁बि	-420
▁गए	-421
ख़	-422
▁प्राप्त	-423
्रा	-424
धान	-425
▁सरकार	-426
▁अन्य	-427
▁संबंध	-428
▁दिन	-429
▁होने	-430
▁ओर	-431
▁हू	-432
न्त	-433
▁वर्ष	-434
▁पी	-435
▁सम्	-436
धि	-437
यों	-438
▁सभी	-439
▁कम	-440
एँ	-441
▁छो	-442
▁विश्व	-443
हां	-444
▁चु	-445
▁19	-446
▁ऐसे	-447
▁करो	-448
िक्ष	-449
00	-450
▁हमारे	-451
गत	-452
लि	-453
▁राष्ट्रपति	-454
स्ता	-455
करण	-456
वं	-457
▁नाम	-458
▁प्रा	-459
दार	-460
▁झ	-461
▁निक	-462
श्य	-463
▁प्रकार	-464
▁बद	-465
ंक	-466
▁सकते	-467
एं	-468
टे	-469
▁साम	-470
▁ता	-471
भाव	-472
▁चाहिए	-473
सर	-474
िश	-475
ीय	-476
तीय	-477
▁s	-478
▁मिल	-479
▁इसके	-480
ग्र	-481
▁बु	-482
▁ऊ	-483
तर	-484
▁बढ़	-485
स्ट	-486
वर	-487
्स	-488
▁किए	-489
िप	-490
▁उसकी	-491
चा	-492
▁हर	-493
त्व	-494
▁जाने	-495
▁होती	-496
बा	-497
हाँ	-498
ंप	-499
जन	-500
▁अच्छ	-501
शा	-502
ोजना	-503
तिक	-504
ूम	-505
दर्	-506
▁ची	-507
▁नी	-508
▁'	-509
▁दूस	-510
▁रस	-511
माण	-512
▁ईमान	-513
रो	-514
▁ठ	-515
शी	-516
▁अगर	-517
▁करे	-518
पूर्ण	-519
यी	-520
बी	-521
मत	-522
िति	-523
▁ऐसा	-524
▁एवं	-525
▁हों	-526
गार	-527
ास्त	-528
▁राज्य	-529
द्योग	-530
▁समझ	-531
▁पहु	-532
▁कारण	-533
▁विकास	-534
सार	-535
पाद	-536
▁अब	-537
▁व्यक्ति	-538
▁लग	-539
▁भारतीय	-540
ची	-541
ात	-542
▁कृ	-543
्यू	-544
▁मो	-545
ेंगे	-546
ध्य	-547
▁मुझे	-548
वल	-549
त्म	-550
▁रसूल	-551
▁हुई	-552
ाली	-553
▁(_	-554
▁हा	-555
ुक्त	-556
ाइल	-557
द्र	-558
▁स्त	-559
वार	-560
टर	-561
ेज	-562
▁जन	-563
किन	-564
▁पूर्व	-565
धा	-566
यन	-567
▁व्या	-568
01	-569
ष्ठ	-570
ेल	-571
▁लगा	-572
ज़ा	-573
मु	-574
▁मूल	-575
तन	-576
▁दु	-577
▁क्यों	-578
▁उसने	-579
पी	-580
▁लेकिन	-581
▁दिखा	-582
▁लिया	-583
▁बन	-584
क्रम	-585
▁वा	-586
तः	-587
▁दोनों	-588
▁जाती	-589
on	-590
िम	-591
▁प्रश	-592
▁तुम्हें	-593
लों	-594
▁मौ	-595
▁सद	-596
▁क्र	-597
दे	-598
ोर	-599
▁वै	-600
लय	-601
▁अस	-602
▁अपना	-603
ाला	-604
▁उपयोग	-605
▁ऐसी	-606
वाद	-607
लग	-608
▁खा	-609
्ड	-610
▁आव	-611
▁जीवन	-612
▁विशेष	-613
▁चल	-614
▁होते	-615
▁3	-616
▁अभि	-617
हाय	-618
चे	-619
▁à	-620
▁ग्र	-621
▁प्रदान	-622
िंग	-623
धिक	-624
तों	-625
▁बारे	-626
▁रही	-627
▁बीच	-628
▁ढ	-629
▁बै	-630
व्य	-631
▁रु	-632
▁वाला	-633
▁मुख	-634
▁मन	-635
कारी	-636
▁बार	-637
फल	-638
▁भाग	-639
▁यु	-640
▁उत्त	-641
।"	-642
▁समा	-643
चित	-644
काश	-645
▁खु	-646
▁श्री	-647
▁शिक्ष	-648
me	-649
▁निय	-650
▁जैसे	-651
ेक	-652
▁सहाय	-653
▁वास्त	-654
▁स्था	-655
▁उसका	-656
ंभ	-657
▁ऑ	-658
तना	-659
▁आधार	-660
ठा	-661
ख्या	-662
डी	-663
िस	-664
वेश	-665
▁आज	-666
▁सेवा	-667
ti	-668
षण	-669
िला	-670
▁कै	-671
▁न्या	-672
कता	-673
▁जाएगा	-674
▁देने	-675
्ल	-676
हित	-677
षा	-678
▁केवल	-679
▁चीज़	-680
..	-681
धन	-682
▁उनका	-683
▁दृ	-684
▁गा	-685
▁माल	-686
ल्प	-687
▁हमें	-688
▁प्रयोग	-689
▁मेरे	-690
ून	-691
▁रब	-692
ग़	-693
ार्थ	-694
▁आवश्य	-695
▁सो	-696
▁जिसमें	-697
ूद	-698
ज्ञान	-699
क्षण	-700
▁हूँ	-701
▁दर	-702
▁बो	-703
▁वही	-704
▁विचार	-705
▁सर्व	-706
रिक	-707
▁निश्च	-708
▁मार्	-709
▁स्थान	-710
ियां	-711
णी	-712
▁ताकि	-713
र्य	-714
▁स्प	-715
▁पैदा	-716
ित्र	-717
▁मै	-718
पित	-719
ुट	-720
▁वाली	-721
▁प्रत्य	-722
्न	-723
न्तु	-724
▁n	-725
▁सबसे	-726
▁इसे	-727
in	-728
▁बड़ा	-729
▁उसी	-730
िता	-731
रों	-732
▁जाना	-733
ंस	-734
त्ता	-735
▁निर्धार	-736
िनियम	-737
यास	-738
▁माम	-739
▁हमारी	-740
तु	-741
▁अथ	-742
▁विष	-743
▁पार	-744
लब्	-745
▁अधिनियम	-746
र्क	-747
र्ष	-748
▁रो	-749
▁धारा	-750
हार	-751
▁देता	-752
▁तब	-753
▁जाते	-754
▁अधिकार	-755
▁शु	-756
▁इसमें	-757
▁दा	-758
ेर	-759
▁राष्ट्रीय	-760
▁आर	-761
लिए	-762
ूत	-763
▁कंप	-764
भाग	-765
▁आस	-766
▁डि	-767
▁उपलब्	-768
▁योजना	-769
▁उत्पाद	-770
ियाँ	-771
ब्द	-772
पा	-773
▁जिसे	-774
▁व्यव	-775
ुनिया	-776
▁बस	-777
▁लिख	-778
▁अथवा	-779
द्योगिक	-780
an	-781
▁हे	-782
बे	-783
▁संदेश	-784
▁पश्च	-785
▁फ़ाइल	-786
▁सामान	-787
कृत	-788
ूह	-789
ताओं	-790
▁परवर	-791
वरण	-792
▁बल्	-793
▁शाम	-794
▁उससे	-795
्यान	-796
ंज	-797
दिगार	-798
मिक	-799
▁शुर	-800
▁सूचना	-801
▁क्योंकि	-802
▁दर्	-803
वान	-804
▁उनसे	-805
सं	-806
▁परवरदिगार	-807
भव	-808
क्रिया	-809
▁मार्ग	-810
▁ज्ञ	-811
▁पुर	-812
काल	-813
▁महत्व	-814
िट	-815
▁तै	-816
▁स्ट	-817
त्या	-818
tion	-819
श्व	-820
▁सकती	-821
▁लो	-822
▁बैं	-823
त्रा	-824
▁दौर	-825
धी	-826
▁संप	-827
▁मंत्र	-828
▁डाल	-829
▁शिक्षा	-830
डर	-831
▁करती	-832
▁अर्	-833
▁पहुँ	-834
▁व्याप	-835
यार	-836
▁उपलब्ध	-837
ुक	-838
▁मू	-839
ट्ट	-840
▁वृ	-841
कृति	-842
▁दूसरे	-843
▁मद	-844
▁स्थिति	-845
▁डा	-846
भिन्न	-847
ुष	-848
▁लोक	-849
▁योग	-850
▁इसलिए	-851
▁कें	-852
ंति	-853
▁जर	-854
ंजी	-855
▁संग	-856
▁बच्च	-857
▁पुन	-858
▁जिन्ह	-859
▁सहायता	-860
ोट	-861
युक्त	-862
▁छोड़	-863
नेवाल	-864
▁प्रभाव	-865
er	-866
▁उच्च	-867
▁होना	-868
ेद	-869
ंश	-870
तान	-871
▁बड़ी	-872
▁हाथ	-873
▁महा	-874
ष्टि	-875
▁जु	-876
▁वित	-877
▁उद्	-878
▁उनमें	-879
न्द्र	-880
▁अर्थ	-881
ेट	-882
▁हूं	-883
▁होगी	-884
इन	-885
क्ट	-886
ताब	-887
एस	-888
▁कभी	-889
स्तु	-890
ोप	-891
▁मेरी	-892
वाह	-893
...	-894
यं	-895
▁शामिल	-896
▁कई	-897
▁अधीन	-898
▁सके	-899
▁प्रण	-900
▁विभिन्न	-901
▁स्वा	-902
▁आया	-903
ूट	-904
र्ट	-905
्यालय	-906
▁अति	-907
ame	-908
ोह	-909
▁बल्कि	-910
ंट	-911
▁बता	-912
▁अंतर	-913
स्थान	-914
▁इससे	-915
▁दौरान	-916
▁हाल	-917
▁लिये	-918
हत	-919
▁कहते	-920
▁करके	-921
▁5	-922
▁सदस	-923
▁4	-924
तम	-925
▁किस	-926
त्मक	-927
▁आगे	-928
▁सुर	-929
▁यहाँ	-930
▁अनुस	-931
▁ब्र	-932
रूप	-933
ण्ड	-934
मुख	-935
ेम	-936
र्इ	-937
▁अनुसार	-938
▁पता	-939
कट	-940
▁दूर	-941
▁भाषा	-942
्ला	-943
▁बैठ	-944
▁कर्म	-945
▁अवसर	-946
▁जहां	-947
सल	-948
▁इसी	-949
▁भूम	-950
▁अंग	-951
▁विषय	-952
द्धि	-953
▁अभ	-954
ेह	-955
▁होंगे	-956
▁सूची	-957
▁शी	-958
▁तरफ	-959
▁ग़	-960
ासन	-961
ोजन	-962
ैन	-963
स्व	-964
▁उनको	-965
▁मुख्य	-966
▁t	-967
▁यही	-968
▁पड़	-969
▁(1	-970
▁पि	-971
दन	-972
फी	-973
▁अग	-974
शि	-975
▁याद	-976
ग्रह	-977
्म	-978
▁आई	-979
▁परिवर्	-980
▁लाभ	-981
▁सामने	-982
▁इसका	-983
pr	-984
यर	-985
जे	-986
▁शै	-987
▁जिसके	-988
मीन	-989
▁स्वी	-990
▁१	-991
▁सामान्य	-992
▁उठा	-993
▁प्रक्रिया	-994
▁पूरा	-995
ित्व	-996
और	-997
▁अनुम	-998
▁स्पष्ट	-999
▁करेगा	-1000
▁पूर्ण	-1001
▁देते	-1002
लो	-1003
कर्	-1004
▁चि	-1005
सम	-1006
▁शा	-1007
▁201	-1008
▁उसमें	-1009
▁200	-1010
▁‘	-1011
▁संबंधित	-1012
▁तैयार	-1013
▁ऋ	-1014
▁संख्या	-1015
ियो	-1016
▁पद	-1017
▁उत्तर	-1018
प्त	-1019
त्ति	-1020
▁चुन	-1021
▁संस्	-1022
▁घर	-1023
▁बाहर	-1024
▁जाएँ	-1025
▁बदल	-1026
es	-1027
▁अलग	-1028
▁जल	-1029
▁वास्तव	-1030
ंतु	-1031
▁निर्माण	-1032
जार	-1033
▁लगे	-1034
▁चाहते	-1035
▁बढ़ा	-1036
ज्य	-1037
▁प्रत्येक	-1038
सि	-1039
टना	-1040
हरा	-1041
▁भेज	-1042
लेख	-1043
तंत्र	-1044
्श	-1045
▁कान	-1046
▁आपको	-1047
▁पृ	-1048
▁कौ	-1049
ूँ	-1050
▁प्रौ	-1051
िये	-1052
ंचा	-1053
▁पत्र	-1054
ीक	-1055
▁त्र	-1056
▁नई	-1057
वास	-1058
हास	-1059
▁सुन	-1060
गम	-1061
▁रंग	-1062
्यादा	-1063
▁आद	-1064
▁पढ़	-1065
▁भर	-1066
▁अध्य	-1067
▁बनाने	-1068
▁तीन	-1069
▁अने	-1070
▁शब्द	-1071
पि	-1072
संद	-1073
र्या	-1074
▁बड़े	-1075
▁संर	-1076
▁अच्छा	-1077
ालन	-1078
▁पुस्त	-1079
▁जारी	-1080
आई	-1081
▁मौज	-1082
▁गुण	-1083
दर्श	-1084
ध्यम	-1085
छे	-1086
ोल्	-1087
▁कार्यक्रम	-1088
▁प्रार	-1089
▁नियम	-1090
▁किताब	-1091
ैर	-1092
▁पूरी	-1093
▁शुरू	-1094
▁शि	-1095
इट	-1096
▁प्रकाश	-1097
▁स्वयं	-1098
▁अत्य	-1099
▁तुम्हारी	-1100
▁आदि	-1101
▁शक्ति	-1102
बार	-1103
▁आपके	-1104
▁नीति	-1105
मंत्र	-1106
▁फै	-1107
▁प्रयास	-1108
al	-1109
▁प्रौद्योगिक	-1110
▁रखा	-1111
हम	-1112
▁रे	-1113
▁संस्था	-1114
ालय	-1115
दाय	-1116
▁पानी	-1117
▁चार	-1118
▁कॉ	-1119
ंब	-1120
टक	-1121
धे	-1122
▁ऊपर	-1123
ज़ाब	-1124
▁निश्चय	-1125
▁गये	-1126
ियोजना	-1127
टन	-1128
▁निर्धारित	-1129
पत्र	-1130
▁वस्तु	-1131
विद	-1132
▁मदद	-1133
शत	-1134
▁खुदा	-1135
म्प	-1136
▁ते	-1137
▁सौ	-1138
▁कल	-1139
▁ज्ञान	-1140
भार	-1141
▁परिण	-1142
हन	-1143
▁अनेक	-1144
▁परियोजना	-1145
▁मी	-1146
▁ली	-1147
▁तू	-1148
▁a	-1149
रती	-1150
स्थित	-1151
▁हेतु	-1152
▁मार	-1153
▁चाहता	-1154
ूं	-1155
▁सिवा	-1156
क्षित	-1157
▁जग	-1158
अप	-1159
▁गिर	-1160
▁दुनिया	-1161
ूरी	-1162
▁प्रधान	-1163
ेशक	-1164
्रो	-1165
▁वी	-1166
▁करा	-1167
▁धर्म	-1168
▁d	-1169
▁न्याया	-1170
▁गति	-1171
▁रुप	-1172
▁चला	-1173
▁बनाया	-1174
▁गयी	-1175
▁संघ	-1176
बन्	-1177
▁गो	-1178
▁महत्वपूर्ण	-1179
ृत	-1180
बाद	-1181
▁बैंक	-1182
▁उद्योग	-1183
▁स्तर	-1184
शील	-1185
▁करनेवाल	-1186
▁बन्द	-1187
▁आए	-1188
रु	-1189
र्ड	-1190
षि	-1191
▁वित्त	-1192
▁तुम्हारा	-1193
▁“	-1194
▁&	-1195
▁बेह	-1196
▁अन्त	-1197
▁जोड़	-1198
▁श्रे	-1199
▁स्क	-1200
पन	-1201
▁डर	-1202
▁प्रो	-1203
▁जिसने	-1204
▁डे	-1205
▁संस्थान	-1206
▁ध्यान	-1207
▁परिणाम	-1208
▁ज़र	-1209
▁भवन	-1210
▁करेंगे	-1211
▁मत	-1212
▁प्रमाण	-1213
▁विदेश	-1214
नीय	-1215
▁यहां	-1216
▁#	-1217
la	-1218
मित	-1219
▁देना	-1220
र्थिक	-1221
it	-1222
▁मैंने	-1223
▁बेशक	-1224
▁ठीक	-1225
▁बिना	-1226
▁देखा	-1227
▁समूह	-1228
तिहास	-1229
दिष्ट	-1230
लन	-1231
▁प्रबंध	-1232
▁नीचे	-1233
▁व्यक्त	-1234
▁प्रतिशत	-1235
निर्	-1236
ोन	-1237
ल्क	-1238
ज़ी	-1239
▁पो	-1240
▁अंतर्	-1241
▁जमा	-1242
▁क्षेत्रों	-1243
▁आवश्यकता	-1244
▁समाज	-1245
▁प्रमुख	-1246
⁄4	-1247
▁शरी	-1248
▁प्रौद्योगिकी	-1249
द्व	-1250
ोल्डर	-1251
ंख	-1252
▁सफल	-1253
▁लेख	-1254
▁बर	-1255
or	-1256
▁ज्यादा	-1257
श्	-1258
▁जिसका	-1259
ामी	-1260
▁लेकर	-1261
▁झु	-1262
▁प्रय	-1263
▁हिस्	-1264
वादी	-1265
▁पीछे	-1266
जिक	-1267
गू	-1268
▁माध्यम	-1269
▁किन्तु	-1270
विधा	-1271
▁पाठ	-1272
स्या	-1273
इस	-1274
▁जबकि	-1275
▁ज़मीन	-1276
▁मगर	-1277
क्स	-1278
भग	-1279
▁सीमा	-1280
▁सार	-1281
▁विश्वास	-1282
ख्त	-1283
▁समर्थ	-1284
म्बर	-1285
▁6	-1286
▁धरती	-1287
धारा	-1288
▁समान	-1289
▁लौ	-1290
स्प	-1291
▁दिए	-1292
▁मज	-1293
ल्म	-1294
▁कंपनी	-1295
दारी	-1296
वृ	-1297
▁ती	-1298
▁विस्त	-1299
▁अतः	-1300
▁होकर	-1301
▁खंड	-1302
▁केंद्र	-1303
▁अमे	-1304
▁आर्थिक	-1305
शो	-1306
ल्ली	-1307
▁पिछ	-1308
र्ति	-1309
▁कठ	-1310
▁विंड	-1311
▁कृषि	-1312
ंह	-1313
▁मूल्य	-1314
्यता	-1315
▁बरा	-1316
स्क	-1317
▁अम	-1318
▁उद्देश	-1319
▁अज़ाब	-1320
▁इसकी	-1321
▁आदेश	-1322
▁भे	-1323
▁चाहे	-1324
ic	-1325
ियन	-1326
▁खोल	-1327
▁कला	-1328
▁लड़	-1329
▁सुधार	-1330
उस	-1331
▁इनकार	-1332
▁वाय	-1333
गें	-1334
▁रखते	-1335
▁रोग	-1336
201	-1337
▁जनता	-1338
मता	-1339
▁तुमसे	-1340
▁जानकारी	-1341
▁भाव	-1342
▁निम्	-1343
▁श्र	-1344
▁विद्य	-1345
▁उल्	-1346
▁लगभग	-1347
विध	-1348
▁पर्या	-1349
▁बदला	-1350
▁आने	-1351
▁स्वीकार	-1352
▁जैसा	-1353
▁छा	-1354
ानों	-1355
▁अभी	-1356
▁अवधि	-1357
▁सारे	-1358
▁हिन्द	-1359
णा	-1360
▁काफी	-1361
ठन	-1362
बद्ध	-1363
▁चौ	-1364
▁रोक	-1365
44	-1366
्ले	-1367
▁समस्या	-1368
ेशन	-1369
▁निश	-1370
▁लागू	-1371
▁नियंत्र	-1372
र्फ	-1373
▁निकाल	-1374
▁मेरा	-1375
ॉल	-1376
▁साल	-1377
▁जानता	-1378
▁जगह	-1379
▁सहयोग	-1380
▁मिला	-1381
▁गण	-1382
र्च	-1383
▁वहां	-1384
ee	-1385
▁मंद	-1386
माजिक	-1387
▁पक्ष	-1388
▁तरी	-1389
▁गुना	-1390
▁सुविधा	-1391
▁अच्छे	-1392
▁k	-1393
▁विश्वविद	-1394
▁मानव	-1395
▁मध्य	-1396
▁वक्त	-1397
ूब	-1398
▁विभाग	-1399
▁क़ौ	-1400
▁ऋण	-1401
▁धन	-1402
उन	-1403
▁खोज	-1404
▁परिवर्तन	-1405
आर	-1406
▁विज्ञान	-1407
▁लक्ष	-1408
▁मामले	-1409
▁अच्छी	-1410
▁कोश	-1411
तें	-1412
▁क्रिया	-1413
▁फ़ोल्डर	-1414
▁सामाजिक	-1415
पुर	-1416
▁यू	-1417
चान	-1418
▁निकल	-1419
▁दें	-1420
▁जाएगी	-1421
▁प्रणाली	-1422
▁व्यापार	-1423
▁स्थापित	-1424
हरी	-1425
▁समाप्त	-1426
▁आम	-1427
▁अतिरिक	-1428
ृत्य	-1429
▁कुल	-1430
▁पं	-1431
डियो	-1432
▁इं	-1433
▁चयन	-1434
▁सभा	-1435
▁निम्न	-1436
▁आवश्यक	-1437
र्द	-1438
▁दक्ष	-1439
पाल	-1440
▁पहुंच	-1441
ht	-1442
▁दिल	-1443
▁फर	-1444
स्तुत	-1445
मंत्री	-1446
▁भु	-1447
▁कवि	-1448
¤3	-1449
¤3⁄4	-1450
▁घो	-1451
▁7	-1452
▁C	-1453
▁आध	-1454
▁आग	-1455
द्द	-1456
▁सिद्ध	-1457
▁वर्ग	-1458
▁यक़	-1459
▁जीव	-1460
मार	-1461
▁कहीं	-1462
▁जाओ	-1463
▁वेब	-1464
दर्शन	-1465
▁पूछ	-1466
तनी	-1467
ज़र	-1468
ंव	-1469
▁सुरक्षा	-1470
▁टे	-1471
▁उसको	-1472
▁जानते	-1473
▁बराबर	-1474
जि	-1475
▁”	-1476
न्म	-1477
चन	-1478
लत	-1479
राम	-1480
▁विवरण	-1481
तियों	-1482
दम	-1483
▁प्रती	-1484
चि	-1485
स्तान	-1486
▁कोर्इ	-1487
ान्त	-1488
हरण	-1489
जों	-1490
डा	-1491
ंदर	-1492
▁मर	-1493
▁जिससे	-1494
▁चे	-1495
▁18	-1496
▁स्थित	-1497
कु	-1498
▁रहने	-1499
र्स	-1500
▁टी	-1501
पना	-1502
िश्त	-1503
ंधान	-1504
एम	-1505
▁:	-1506
▁निर्ण	-1507
44;	-1508
▁#44;	-1509
धित	-1510
▁डी	-1511
▁अतिरिक्त	-1512
▁पे	-1513
बल	-1514
▁उदा	-1515
▁महिला	-1516
फा	-1517
▁रहते	-1518
▁देशों	-1519
▁क़ौम	-1520
बू	-1521
प्	-1522
▁अल	-1523
▁विन	-1524
▁नया	-1525
op	-1526
▁8	-1527
ीकरण	-1528
▁आकार	-1529
जर	-1530
▁नए	-1531
भर	-1532
▁चुका	-1533
▁सन्	-1534
▁चुके	-1535
▁सच्च	-1536
▁अंतर्गत	-1537
▁तुमने	-1538
मि	-1539
ेंट	-1540
▁कहने	-1541
कृतिक	-1542
▁लेने	-1543
▁कर्	-1544
▁संवि	-1545
डे	-1546
पन्न	-1547
▁पड़े	-1548
▁राम	-1549
वाई	-1550
▁सही	-1551
▁हिंद	-1552
▁उत्पादन	-1553
¥	-1554
▁संस	-1555
ष्ट्रीय	-1556
▁लाए	-1557
▁रखने	-1558
ेशा	-1559
▁जाये	-1560
▁अनुसंधान	-1561
ab	-1562
▁मंदिर	-1563
▁आकाश	-1564
▁ज़ि	-1565
वेदन	-1566
▁एन	-1567
▁तु	-1568
क्ता	-1569
▁यातना	-1570
▁0	-1571
▁अप्र	-1572
▁खेल	-1573
▁त्रुट	-1574
▁इन्	-1575
तार	-1576
ट्टी	-1577
▁नही	-1578
सित	-1579
िष्ट	-1580
बो	-1581
ग्री	-1582
रोध	-1583
तमान	-1584
▁उठ	-1585
पूर्व	-1586
▁बुरा	-1587
ंधी	-1588
▁%	-1589
▁उद्देश्य	-1590
ष्ण	-1591
en	-1592
▁महान	-1593
▁राशि	-1594
▁यात्रा	-1595
▁व्यवस्था	-1596
▁।	-1597
▁सां	-1598
▁माँ	-1599
क्षम	-1600
▁क्षमता	-1601
▁वालों	-1602
▁निवेश	-1603
▁S	-1604
▁बहु	-1605
▁भू	-1606
▁प्रदेश	-1607
▁पत्	-1608
▁पृष्ठ	-1609
▁निस्	-1610
हित्य	-1611
▁विधि	-1612
▁बचा	-1613
▁बाल	-1614
ठला	-1615
ज्	-1616
स्थ्य	-1617
▁परी	-1618
▁उपधारा	-1619
▁जिन्हें	-1620
▁-	-1621
▁एस	-1622
कर्ता	-1623
▁सदस्य	-1624
▁निष्	-1625
▁परन्तु	-1626
▁संपर्क	-1627
▁अधिकारी	-1628
▁''	-1629
▁प्रारंभ	-1630
ot	-1631
▁रि	-1632
▁मनुष	-1633
▁समु	-1634
ूरत	-1635
▁राह	-1636
▁मूसा	-1637
▁वर्षों	-1638
▁वर्तमान	-1639
क्म	-1640
ोस	-1641
▁बनाए	-1642
ोर्ट	-1643
त्मा	-1644
▁विशिष्ट	-1645
षित	-1646
▁युद्ध	-1647
श्र	-1648
▁इतिहास	-1649
▁सिर्फ	-1650
▁वाप	-1651
▁परिवार	-1652
ख़िर	-1653
▁स्वतंत्र	-1654
▁थीं	-1655
▁सत्य	-1656
▁आरंभ	-1657
यान	-1658
▁निर्देश	-1659
▁अर	-1660
▁कौन	-1661
दर	-1662
▁प्रस्तुत	-1663
धारण	-1664
▁वर्ण	-1665
▁दूसरी	-1666
▁तुमको	-1667
▁त्रुटि	-1668
▁न्याय	-1669
¤	-1670
¤°	-1671
▁_	-1672
▁न्यायालय	-1673
▁सका	-1674
gm	-1675
▁<	-1676
▁झुठला	-1677
▁वहाँ	-1678
▁साहित्य	-1679
ांत	-1680
थम	-1681
▁२	-1682
मिल	-1683
▁पेश	-1684
गल	-1685
▁हमारा	-1686
▁दृष्टि	-1687
जो	-1688
भू	-1689
गु	-1690
▁प्रशिक्ष	-1691
▁स्वास्थ्य	-1692
▁दिल्ली	-1693
रिका	-1694
▁चा	-1695
सलमान	-1696
▁हुक्म	-1697
जित	-1698
▁आन	-1699
▁kgm	-1700
▁शहर	-1701
▁शरीर	-1702
तक	-1703
le	-1704
जरा	-1705
▁शे	-1706
▁अपे	-1707
▁प्रधानमंत्री	-1708
ानीय	-1709
▁देगा	-1710
ar	-1711
▁थो	-1712
▁10	-1713
▁लाख	-1714
▁देखते	-1715
▁रात	-1716
▁वास्ते	-1717
▁दक्षि	-1718
▁बच्चों	-1719
▁जिनके	-1720
▁बेहतर	-1721
▁शिक	-1722
▁विश्वविद्यालय	-1723
▁चित्र	-1724
कम	-1725
▁तौर	-1726
ोजित	-1727
▁श्रेणी	-1728
▁आसमान	-1729
खित	-1730
नाथ	-1731
झा	-1732
▁निर	-1733
▁कैसे	-1734
लू	-1735
▁अंग्रे	-1736
ran	-1737
ंतिम	-1738
रि	-1739
at	-1740
निश्च	-1741
▁घटना	-1742
बत	-1743
▁अमेरिका	-1744
▁(2	-1745
Name	-1746
क्षर	-1747
्रिय	-1748
▁सम्बन्	-1749
▁एक्स	-1750
तने	-1751
▁संसा	-1752
वाब	-1753
▁भि	-1754
ैस	-1755
▁शीर्ष	-1756
▁हमेशा	-1757
▁निर्णय	-1758
ुओं	-1759
▁विकसित	-1760
▁जिन्होंने	-1761
▁स्थानीय	-1762
लाई	-1763
▁सेट	-1764
-1	-1765
▁तहत	-1766
तो	-1767
संदेह	-1768
▁भूमि	-1769
▁उदाहरण	-1770
▁name	-1771
▁नौ	-1772
),	-1773
▁काल	-1774
ड़ों	-1775
▁प्रस्ता	-1776
▁रू	-1777
▁प्रस	-1778
ज्ञा	-1779
▁बंद	-1780
▁मिले	-1781
शिया	-1782
▁हाला	-1783
▁सर्	-1784
▁दया	-1785
▁हक़	-1786
रीब	-1787
▁अला	-1788
▁निर्धारण	-1789
▁विदेशी	-1790
शल	-1791
▁अनि	-1792
▁भेजा	-1793
▁बंग	-1794
मन	-1795
गति	-1796
▁प्रेम	-1797
ज़िल	-1798
▁दस्ता	-1799
▁अंतिम	-1800
▁बल	-1801
ष्य	-1802
▁मौजूद	-1803
▁A	-1804
▁चिक	-1805
▁अनुभव	-1806
्याल	-1807
र्जा	-1808
साय	-1809
▁उन्	-1810
ंगा	-1811
▁पक	-1812
▁परंतु	-1813
▁छोटे	-1814
▁प्रस्ताव	-1815
▁रचना	-1816
▁सार्व	-1817
▁निश्चित	-1818
वासी	-1819
▁प्रवेश	-1820
▁संच	-1821
000	-1822
▁लगता	-1823
▁भूमिका	-1824
च्छा	-1825
▁मांग	-1826
▁दिशा	-1827
▁प्राधिक	-1828
दू	-1829
फिर	-1830
▁जहाँ	-1831
राही	-1832
▁किये	-1833
▁गांधी	-1834
▁तत्व	-1835
▁इस्ला	-1836
सू	-1837
▁लं	-1838
ोगे	-1839
¥	-1840
▁बोल	-1841
▁रिप	-1842
▁अफ	-1843
ील	-1844
▁पहचान	-1845
▁रहता	-1846
▁निस्संदेह	-1847
▁भाई	-1848
▁सक्रिय	-1849
▁अनुमति	-1850
▁वाद	-1851
्रेस	-1852
यां	-1853
▁पाया	-1854
▁संयुक्त	-1855
▁इंड	-1856
▁छवि	-1857
▁जन्म	-1858
दारों	-1859
▁दुर्	-1860
▁जिसकी	-1861
ैंड	-1862
ेंस	-1863
▁नव	-1864
यात	-1865
ोक्ता	-1866
▁इस्त	-1867
▁आधारित	-1868
▁घा	-1869
▁माना	-1870
▁जह	-1871
▁विस्तार	-1872
हे	-1873
▁9	-1874
▁c	-1875
▁वार	-1876
▁नागर	-1877
▁राजनी	-1878
▁पहुँच	-1879
▁दस्तावे	-1880
▁जल्	-1881
▁कृप	-1882
▁नियंत्रण	-1883
▁लक्ष्य	-1884
▁विकल्प	-1885
▁संबंधी	-1886
▁निर्दिष्ट	-1887
लिखित	-1888
▁यक़ीन	-1889
िकों	-1890
स्म	-1891
एल	-1892
▁वित्तीय	-1893
▁संक	-1894
दय	-1895
▁संभव	-1896
ार्ड	-1897
▁हिस्सा	-1898
option	-1899
▁बाजार	-1900
▁मित्र	-1901
▁स्थापना	-1902
▁गर्	-1903
वरी	-1904
▁मंत्रालय	-1905
▁कमी	-1906
ुनिक	-1907
▁जांच	-1908
मू	-1909
जह	-1910
▁15	-1911
वस्था	-1912
्राम	-1913
वीं	-1914
ृत्यु	-1915
▁अग्र	-1916
▁सहायक	-1917
▁मनुष्य	-1918
▁तकनी	-1919
ंतर	-1920
्टी	-1921
▁सोच	-1922
▁पहुँचा	-1923
न्ट	-1924
▁I	-1925
▁पुकार	-1926
▁बच	-1927
▁डाक	-1928
▁संविधान	-1929
चल	-1930
is	-1931
▁गुम	-1932
साइट	-1933
▁प्रथम	-1934
▁सिंह	-1935
▁प्रगति	-1936
▁झू	-1937
सान	-1938
▁वृद्धि	-1939
ंगे	-1940
म्मे	-1941
▁फल	-1942
▁लेते	-1943
▁तंत्र	-1944
▁अधि	-1945
▁प्रबंधन	-1946
▁नाज़िल	-1947
गि	-1948
.201	-1949
▁20	-1950
▁समिति	-1951
ंसा	-1952
▁दिनों	-1953
घा	-1954
▁पहली	-1955
▁केन्द्र	-1956
▁अलावा	-1957
गतान	-1958
▁उपकरण	-1959
निश्चित	-1960
▁पिछले	-1961
▁ट्र	-1962
rans	-1963
यामत	-1964
▁मृत्यु	-1965
र्श	-1966
▁मॉ	-1967
ानि	-1968
▁शो	-1969
स्थिति	-1970
यु	-1971
▁सहित	-1972
▁लें	-1973
▁जाय	-1974
▁रखता	-1975
र्जी	-1976
▁कृपया	-1977
▁उत्पन्न	-1978
▁गुनाह	-1979
▁सेना	-1980
▁समर्थन	-1981
पट	-1982
▁भीतर	-1983
▁खाता	-1984
ँच	-1985
▁न्यू	-1986
▁विंडो	-1987
▁पुस्तक	-1988
न्यास	-1989
▁मही	-1990
▁पूंजी	-1991
पण	-1992
द्रा	-1993
▁अध्ययन	-1994
▁पुनः	-1995
▁हटा	-1996
▁प्रश्न	-1997
▁मंत्री	-1998
शाली	-1999
▁एम	-2000
▁देव	-2001
▁खे	-2002
ransla	-2003
ज़े	-2004
▁12	-2005
▁सुनिश्चित	-2006
▁मिटा	-2007
optional	-2008
▁निशान	-2009
▁संभाव	-2010
▁चिकित	-2011
▁सर्वर	-2012
▁प्रशिक्षण	-2013
िको	-2014
▁आत्म	-2015
▁199	-2016
▁भुगतान	-2017
▁योग्य	-2018
्रोत	-2019
ौती	-2020
▁फ़र	-2021
▁ति	-2022
स्ती	-2023
▁राजा	-2024
▁तुल	-2025
▁क्षमा	-2026
००	-2027
ापन	-2028
▁अनुप	-2029
शु	-2030
▁pr	-2031
▁ऊर्जा	-2032
▁वास्तविक	-2033
बान	-2034
▁मात्रा	-2035
▁दक्षिण	-2036
▁सफलता	-2037
्ष्	-2038
▁@	-2039
▁चाल	-2040
▁समुदा	-2041
▁धार	-2042
▁भावना	-2043
तुम	-2044
▁लिखा	-2045
▁संग्रह	-2046
▁पौ	-2047
जनिक	-2048
▁ख़ु	-2049
▁आदमी	-2050
स्कार	-2051
▁हैः	-2052
▁भिन्न	-2053
▁कांग	-2054
गाह	-2055
▁उपबंध	-2056
पु	-2057
▁सत्ता	-2058
▁सरकारी	-2059
▁आधुनिक	-2060
क्या	-2061
▁आख़िर	-2062
▁transla	-2063
?"	-2064
ेमाल	-2065
▁मुसलमान	-2066
▁हित	-2067
ुआ	-2068
▁जाएँगे	-2069
▁बिल	-2070
म्ब	-2071
वाले	-2072
▁उनपर	-2073
▁इस्तेमाल	-2074
▁पुरा	-2075
ण्श	-2076
▁11	-2077
ऊण्श	-2078
्छ्ष्	-2079
ऊण्श्छ्ष्	-2080
त्सा	-2081
▁फाइल	-2082
▁दाय	-2083
▁वेबसाइट	-2084
▁(1)	-2085
▁वापस	-2086
▁राज्यों	-2087
▁बच्चे	-2088
▁सिर	-2089
▁मुक़	-2090
▁रिपोर्ट	-2091
ियान	-2092
ैल	-2093
ँह	-2094
गो	-2095
▁चुनें	-2096
▁खुल	-2097
▁जैसी	-2098
ly	-2099
▁प्रे	-2100
पे	-2101
स्ति	-2102
▁युवा	-2103
वस	-2104
विष्य	-2105
re	-2106
▁खो	-2107
om	-2108
▁सम्मान	-2109
▁खाते	-2110
▁खुद	-2111
▁प्रदर्श	-2112
▁सार्वजनिक	-2113
▁कट	-2114
▁क्ल	-2115
▁कप	-2116
▁सुना	-2117
▁उम्	-2118
▁वन	-2119
द्रीय	-2120
▁वो	-2121
▁मामलों	-2122
खी	-2123
▁आक	-2124
भूत	-2125
▁पूरे	-2126
▁हस्ता	-2127
▁पुरुष	-2128
▁उद्य	-2129
▁दृश्य	-2130
▁कमा	-2131
▁रहो	-2132
▁प्रकृति	-2133
ंथ	-2134
▁अह	-2135
▁साफ	-2136
▁मश	-2137
▁अत्यन्त	-2138
▁भविष्य	-2139
▁जे	-2140
▁उल्लेख	-2141
राह	-2142
निक	-2143
ामीण	-2144
▁यूर	-2145
▁निकट	-2146
▁मालूम	-2147
▁कम्प	-2148
▁चले	-2149
▁संपाद	-2150
▁खरी	-2151
▁जहन्न	-2152
▁बातें	-2153
▁संगठन	-2154
▁शासन	-2155
▁शुभ	-2156
▁संशो	-2157
▁आत	-2158
▁कोशिश	-2159
्यूटर	-2160
ख्स	-2161
▁यक़ीनन	-2162
ायद	-2163
ii	-2164
ग़म्बर	-2165
▁जरूरत	-2166
▁बातों	-2167
ारों	-2168
▁गुर	-2169
▁दिखाएँ	-2170
नाव	-2171
र्चा	-2172
त्त्व	-2173
▁खिला	-2174
▁लाल	-2175
▁सत	-2176
ity	-2177
तृ	-2178
फ्	-2179
▁डॉ	-2180
▁सदस्यों	-2181
ंडल	-2182
▁वैज्ञान	-2183
बूत	-2184
श्वर	-2185
▁संके	-2186
▁पस	-2187
ob	-2188
चर	-2189
ारोह	-2190
▁अन्	-2191
▁शख्स	-2192
▁करोड़	-2193
िब	-2194
▁ग्रामीण	-2195
▁ढा	-2196
वाही	-2197
.0	-2198
▁संसद	-2199
▁विनिर्	-2200
▁जिनमें	-2201
▁ऑफ	-2202
▁सक्षम	-2203
▁नदी	-2204
लाइन	-2205
एक	-2206
मय	-2207
▁छिप	-2208
चारी	-2209
▁कानून	-2210
▁सामग्री	-2211
▁अपेक्षा	-2212
▁उचित	-2213
एफ	-2214
म्भ	-2215
▁लॉ	-2216
▁पर्य	-2217
▁समझा	-2218
▁देखने	-2219
ल्ल	-2220
▁गी	-2221
▁पहा	-2222
▁नेट	-2223
ड़क	-2224
▁बने	-2225
▁प्रशासन	-2226
▁तारी	-2227
▁̧	-2228
वर्ष	-2229
दर्भ	-2230
▁कहो	-2231
//	-2232
▁अपरा	-2233
▁संरचना	-2234
▁ईसा	-2235
र्ग	-2236
▁समारोह	-2237
▁रिक	-2238
▁इतना	-2239
गीत	-2240
▁जित	-2241
▁जवाब	-2242
▁केंद्रीय	-2243
काम	-2244
▁प्रकट	-2245
▁बाज़	-2246
▁दिखाई	-2247
▁पश्चात	-2248
▁M	-2249
▁P	-2250
▁'%	-2251
¤¿	-2252
▁व्यापक	-2253
▁अध्यक्ष	-2254
he	-2255
▁स्कूल	-2256
▁देती	-2257
▁पुरस्कार	-2258
▁री	-2259
▁संदर्भ	-2260
▁प्रतिनि	-2261
▁काफ़	-2262
▁रक्षा	-2263
मह	-2264
प्रे	-2265
▁बाप	-2266
▁हास	-2267
▁मुँह	-2268
टल	-2269
वालों	-2270
▁तौ	-2271
थमिक	-2272
▁टै	-2273
च्छेद	-2274
ीप	-2275
▁दशा	-2276
▁रोज	-2277
▁बयान	-2278
▁गांव	-2279
▁प्रोत्सा	-2280
▁निर्यात	-2281
ृह	-2282
://	-2283
-#	-2284
▁बुला	-2285
▁खाद	-2286
▁इनमें	-2287
टों	-2288
श्त	-2289
▁आँ	-2290
पूर्वक	-2291
▁पड़ा	-2292
▁गैर	-2293
▁वजह	-2294
ोग्राम	-2295
▁सहेज	-2296
बह	-2297
▁कांग्रेस	-2298
सत	-2299
▁योगदान	-2300
▁औद्योगिक	-2301
वधान	-2302
बि	-2303
▁बदले	-2304
▁अधिका	-2305
ंगी	-2306
▁मुद्रा	-2307
ैक	-2308
▁do	-2309
▁दौ	-2310
▁शायद	-2311
▁मुझ	-2312
▁प्राय	-2313
▁लौट	-2314
▁पथ	-2315
▁translation	-2316
▁सर्वो	-2317
tp	-2318
ंकन	-2319
ख़ुदा	-2320
¤	-2321
चीन	-2322
▁डिस्क	-2323
▁ठहरा	-2324
▁निजी	-2325
▁आवेदन	-2326
कान	-2327
▁प्राथमिक	-2328
▁स्वतंत्रता	-2329
▁किंतु	-2330
▁पालन	-2331
▁चाहिये	-2332
▁आयु	-2333
ल्पना	-2334
▁शर्	-2335
वर्ती	-2336
eed	-2337
▁रखना	-2338
▁केन्द	-2339
▁रहेंगे	-2340
ैतिक	-2341
▁not	-2342
▁̈	-2343
एन	-2344
▁रखो	-2345
▁आतंक	-2346
▁आयतों	-2347
▁प्रतिक	-2348
▁लेखा	-2349
▁ध्व	-2350
▁यूरोप	-2351
▁उल	-2352
▁रखे	-2353
रुद्ध	-2354
राज	-2355
्वी	-2356
▁एशिया	-2357
▁चयनित	-2358
http	-2359
▁अर्था	-2360
▁रेल	-2361
▁संस्कृति	-2362
▁भग	-2363
दृ	-2364
रल	-2365
▁संगीत	-2366
▁आयात	-2367
र्न	-2368
घु	-2369
▁इस्लाम	-2370
▁प्रभा	-2371
वत	-2372
▁need	-2373
▁किन	-2374
क्रमण	-2375
▁लागत	-2376
▁अवश्य	-2377
▁व्यक्तियों	-2378
▁T	-2379
▁सृ	-2380
▁बोर्ड	-2381
▁तय	-2382
ूदा	-2383
▁उद्यम	-2384
▁रकम	-2385
▁आशा	-2386
पक	-2387
ृति	-2388
खंड	-2389
▁इब	-2390
वर्क	-2391
▁राय	-2392
लिस	-2393
न्व	-2394
ड़ाई	-2395
▁निदेश	-2396
▁आयोजित	-2397
लब	-2398
▁कार्यालय	-2399
▁बज	-2400
▁आवा	-2401
▁विधान	-2402
सिक	-2403
▁शता	-2404
▁दश	-2405
ोलन	-2406
▁ढंग	-2407
▁तत्	-2408
▁पांच	-2409
▁प्रभावित	-2410
फर	-2411
▁सकें	-2412
लाम	-2413
▁डाला	-2414
मेल	-2415
मो	-2416
नेवाला	-2417
िकी	-2418
▁दल	-2419
▁पर्याप्त	-2420
▁बंगाल	-2421
▁प्रकाशित	-2422
▁भौ	-2423
्सा	-2424
सन	-2425
▁अध्या	-2426
▁निधि	-2427
▁http	-2428
▁दूसरा	-2429
▁अवस्था	-2430
st	-2431
▁मुक्त	-2432
▁स्रोत	-2433
▁समुदाय	-2434
इयों	-2435
▁व्यवहार	-2436
▁असम	-2437
▁निर्धारिती	-2438
▁शांति	-2439
परी	-2440
सु	-2441
▁does	-2442
मक	-2443
ably	-2444
थि	-2445
▁झूठ	-2446
▁prob	-2447
nt	-2448
▁196	-2449
▁ब्या	-2450
▁probably	-2451
▁पाल	-2452
नेवाले	-2453
▁देंगे	-2454
▁राजनीतिक	-2455
▁नर	-2456
▁विभा	-2457
िल्म	-2458
▁हल	-2459
ड्ड	-2460
▁सलाह	-2461
▁हासिल	-2462
ुता	-2463
माज़	-2464
द्यपि	-2465
▁चुकी	-2466
फ्त	-2467
▁बनी	-2468
▁पर्यावरण	-2469
▁मुखर्जी	-2470
ग्	-2471
क्का	-2472
▁प्रभ	-2473
कला	-2474
राष्ट्रीय	-2475
नो	-2476
▁चर	-2477
▁दिवस	-2478
ol	-2479
▁रक्त	-2480
ou	-2481
▁निम्नलिखित	-2482
रीय	-2483
▁गि	-2484
▁अनुप्र	-2485
▁सुरक्षित	-2486
स्पर	-2487
▁असफल	-2488
राज्य	-2489
कत	-2490
City	-2491
▁संय	-2492
▁तीस	-2493
षद	-2494
नेट	-2495
▁केन्द्रीय	-2496
▁लाने	-2497
):	-2498
▁भारी	-2499
फ्ट	-2500
▁दृष्ट	-2501
▁चर्चा	-2502
▁संरक्षण	-2503
▁पदार्थ	-2504
ालिम	-2505
▁सेवाओं	-2506
कल	-2507
मीद	-2508
ियर	-2509
क्षक	-2510
▁धी	-2511
डिया	-2512
▁समझौ	-2513
घ्र	-2514
धाई	-2515
▁यद्यपि	-2516
▁आपकी	-2517
पो	-2518
्टर	-2519
▁तेल	-2520
▁सीधे	-2521
स्त्र	-2522
▁क्रम	-2523
▁बैठक	-2524
▁प्रमाणपत्र	-2525
ंद्र	-2526
▁कहना	-2527
कारा	-2528
वत्ता	-2529
ैव	-2530
्यो	-2531
▁इका	-2532
▁अनुक	-2533
िक्	-2534
▁शब्दों	-2535
▁विशाल	-2536
▁बाग़	-2537
▁आत्मा	-2538
▁डेटा	-2539
दूस	-2540
▁साह	-2541
▁आता	-2542
▁दिख	-2543
se	-2544
▁फरमा	-2545
▁दू	-2546
▁बधाई	-2547
-2	-2548
भाल	-2549
▁आयोग	-2550
▁नगर	-2551
भीर	-2552
हाद	-2553
बाह	-2554
▁पेट	-2555
▁सिद्धांत	-2556
ंबर	-2557
▁तरीके	-2558
▁यथा	-2559
हीन	-2560
▁भागी	-2561
व्यवस्था	-2562
▁कदम	-2563
▁उत	-2564
▁पंजी	-2565
त्तर	-2566
कीय	-2567
▁विरुद्ध	-2568
▁ख़बर	-2569
▁क़ुर	-2570
▁बढ	-2571
▁संसाधन	-2572
▁उपस्थित	-2573
of	-2574
ंदा	-2575
क्टर	-2576
क्शन	-2577
णि	-2578
▁p	-2579
▁दस	-2580
▁छोटी	-2581
यल	-2582
▁पल	-2583
दो	-2584
▁D	-2585
▁सच	-2586
▁पैग़म्बर	-2587
▁गिरोह	-2588
धनों	-2589
▁अनिवार	-2590
भूति	-2591
यक	-2592
षणा	-2593
▁बैठे	-2594
▁एह	-2595
▁पृथ	-2596
▁ज़ालिम	-2597
ज्ञात	-2598
▁अत्या	-2599
▁गुणवत्ता	-2600
▁छोड़कर	-2601
▁प्रदर्शन	-2602
▁मशीन	-2603
किंग	-2604
लिम	-2605
▁पसंद	-2606
ार्मिक	-2607
▁रखी	-2608
▁जिला	-2609
▁प्राकृतिक	-2610
▁भंड	-2611
▁स्म	-2612
▁विविध	-2613
▁१९	-2614
▁छात्र	-2615
▁नेटवर्क	-2616
▁{	-2617
न्दर	-2618
प्ता	-2619
▁प्रभावी	-2620
उट	-2621
चक	-2622
▁जाति	-2623
▁प्राचीन	-2624
▁25	-2625
वाला	-2626
यह	-2627
▁सख्त	-2628
▁सम्बन्ध	-2629
ल्लाह	-2630
▁बताया	-2631
वेयर	-2632
.1	-2633
न्स	-2634
▁अंक	-2635
▁आते	-2636
▁अता	-2637
▁लघु	-2638
▁पकड़	-2639
▁नमाज़	-2640
ब्दी	-2641
▁उपाय	-2642
▁पर्व	-2643
her	-2644
▁अधिकांश	-2645
ल्ड	-2646
▁प्रसन्न	-2647
▁भोजन	-2648
▁इच्छा	-2649
▁मेहर	-2650
▁पश्चिम	-2651
▁तुलना	-2652
त्री	-2653
▁आंद	-2654
▁इला	-2655
▁विद्यार्थ	-2656
रज़	-2657
▁हट	-2658
मेलन	-2659
▁समृ	-2660
चारियों	-2661
▁बौ	-2662
▁अगले	-2663
धिकार	-2664
nic	-2665
▁ज़रूर	-2666
▁महारा	-2667
फे	-2668
▁अनिवार्य	-2669
▁शिकाय	-2670
▁गतिविध	-2671
▁धार्मिक	-2672
¤2	-2673
▁b	-2674
▁वर्णन	-2675
▁16	-2676
▁गर्इ	-2677
▁रखें	-2678
थर	-2679
ंकि	-2680
कारों	-2681
▁(19	-2682
वह	-2683
▁195	-2684
▁वैज्ञानिक	-2685
▁वायु	-2686
जूद	-2687
न्दा	-2688
▁मना	-2689
▁बनाना	-2690
▁समाधान	-2691
▁परीक्षा	-2692
▁कंप्यूटर	-2693
्ब	-2694
▁प्रोग्राम	-2695
▁ऊँ	-2696
▁हस्ताक्षर	-2697
▁F	-2698
▁लेना	-2699
▁बन्दों	-2700
▁शक	-2701
ह्न	-2702
▁हृ	-2703
▁पश्चा	-2704
एगा	-2705
दायत	-2706
▁अधिकारियों	-2707
▁लगी	-2708
▁ग्रह	-2709
▁वीडियो	-2710
▁[	-2711
il	-2712
▁ब्याज	-2713
▁विज	-2714
रित	-2715
▁अक	-2716
याँ	-2717
ल्स	-2718
▁आपका	-2719
▁जोड़ें	-2720
स्य	-2721
▁मिली	-2722
▁मुह	-2723
▁मोह	-2724
खे	-2725
्रीन	-2726
▁खड़े	-2727
ेप	-2728
▁संभावना	-2729
▁सम्मेलन	-2730
▁कूट	-2731
▁मिलता	-2732
▁अक्	-2733
▁ईश्वर	-2734
▁शीघ्र	-2735
▁संस्थानों	-2736
यें	-2737
▁कुंजी	-2738
▁तुमपर	-2739
▁उन्हीं	-2740
नाम	-2741
राहीम	-2742
▁जल्दी	-2743
▁आख़िरत	-2744
▁पाने	-2745
▁दबा	-2746
▁वाक़	-2747
साथ	-2748
▁संपत्ति	-2749
रू	-2750
▁पद्ध	-2751
झी	-2752
ंपरा	-2753
ज़ार	-2754
्वा	-2755
ल्कुल	-2756
▁सात	-2757
▁शैली	-2758
▁दर्शा	-2759
रान	-2760
▁उम्मीद	-2761
▁मजबूत	-2762
▁198	-2763
▁तुममें	-2764
स्लिम	-2765
न्नत	-2766
▁आती	-2767
▁उपभ	-2768
▁करनी	-2769
औन	-2770
▁चीज	-2771
ाई	-2772
▁B	-2773
संग	-2774
▁प्रणब	-2775
ोजनों	-2776
▁बर्	-2777
▁तारीख	-2778
▁वैश्व	-2779
▁G	-2780
ार्क	-2781
िकोण	-2782
▁हिन्दी	-2783
▁कविता	-2784
▁पुनर्	-2785
वों	-2786
ेगा	-2787
स्टम	-2788
▁संसार	-2789
▁समझते	-2790
▁ब्रिट	-2791
¤1	-2792
▁छु	-2793
स्टर	-2794
▁श्रेणीः	-2795
▁चिकित्सा	-2796
ॉप	-2797
▁खरीद	-2798
▁हालत	-2799
▁कने	-2800
िश्ते	-2801
▁जरूरी	-2802
▁कार्यों	-2803
▁रहती	-2804
et	-2805
▁एज	-2806
▁गं	-2807
,000	-2808
▁पहल	-2809
स्वरूप	-2810
▁स्त्र	-2811
▁खर्च	-2812
▁सम्मिल	-2813
ँकि	-2814
▁डरा	-2815
▁इन्ह	-2816
▁दिलों	-2817
मेंट	-2818
▁अंश	-2819
▁हिदायत	-2820
धियों	-2821
▁विद	-2822
▁मानते	-2823
▁पुलिस	-2824
▁रहना	-2825
▁सित	-2826
--	-2827
ठित	-2828
▁सीमित	-2829
्वेष	-2830
बु	-2831
ठी	-2832
्प	-2833
जली	-2834
▁पिता	-2835
कालीन	-2836
▁तथ	-2837
विक	-2838
▁अनुप्रयोग	-2839
▁निर्भर	-2840
▁सैन	-2841
▁निर्मित	-2842
▁ब्रिटिश	-2843
▁हजार	-2844
ालित	-2845
▁सारी	-2846
▁जहन्नुम	-2847
▁भंडार	-2848
▁फेर	-2849
▁विफल	-2850
शय	-2851
▁युग	-2852
सिद्ध	-2853
▁वार्ष	-2854
▁साधारण	-2855
▁करनेवालों	-2856
ब्र	-2857
▁परंपरा	-2858
▁बिल्कुल	-2859
▁रास्त	-2860
▁इबराहीम	-2861
▁पहुंचा	-2862
▁दुख	-2863
▁नो	-2864
▁प्रवि	-2865
देव	-2866
▁अपील	-2867
▁आपने	-2868
▁भगवान	-2869
▁छोटा	-2870
htm	-2871
दर्शी	-2872
▁गलत	-2873
▁शाखा	-2874
▁शताब्दी	-2875
▁बख	-2876
▁अर्थव्यवस्था	-2877
▁m	-2878
▁संकेत	-2879
डल	-2880
राब	-2881
▁ताल	-2882
मीर	-2883
▁परिच	-2884
▁संशोधन	-2885
तया	-2886
▁भ्र	-2887
▁194	-2888
▁सांस्	-2889
▁13	-2890
▁आदर्श	-2891
▁w	-2892
▁नसी	-2893
▁किसानों	-2894
अपने	-2895
्राष्ट्रीय	-2896
▁शेष	-2897
▁अभिलेख	-2898
म्म	-2899
▁R	-2900
्यालयों	-2901
▁सच्चे	-2902
▁विरोध	-2903
▁विचारों	-2904
▁तरफ़	-2905
▁शैतान	-2906
▁प्रतिष्ठ	-2907
▁हवा	-2908
वृत्ति	-2909
▁प्रदर्शित	-2910
▁व्यक्तिगत	-2911
▁खुलती	-2912
▁मौजूदा	-2913
▁अंदर	-2914
▁अत्यंत	-2915
▁एव	-2916
कात	-2917
भूम	-2918
▁समुद्र	-2919
▁निर्वा	-2920
▁आंदोलन	-2921
▁प्रयोजनों	-2922
ंगल	-2923
म्र	-2924
ध्या	-2925
▁महीने	-2926
▁197	-2927
▁अप्रैल	-2928
▁संघर्ष	-2929
धर	-2930
▁विंडों	-2931
▁इंटर	-2932
▁फी	-2933
▁शक़	-2934
▁सम्मिलित	-2935
▁निगम	-2936
▁14	-2937
दूसरे	-2938
▁अंग्रेजी	-2939
वै	-2940
▁नेता	-2941
सब	-2942
▁सत्या	-2943
ब्ल	-2944
▁विद्व	-2945
▁f	-2946
▁कठिन	-2947
▁कीमत	-2948
▁मुस्लिम	-2949
लग्न	-2950
▁L	-2951
कुल	-2952
ताल	-2953
▁काट	-2954
▁स्थायी	-2955
िना	-2956
▁नागरिक	-2957
▁सदैव	-2958
▁बढ़ाने	-2959
▁विवाह	-2960
▁घट	-2961
▁चरण	-2962
तरा	-2963
ल्ला	-2964
▁1.	-2965
्रेड	-2966
ेक्ट	-2967
▁बुद्धि	-2968
▁चढ़	-2969
हरे	-2970
▁इंडिया	-2971
▁लगाया	-2972
▁प्	-2973
परि	-2974
▁फैला	-2975
▁महत्त्व	-2976
िमी	-2977
ष्ट्र	-2978
ियत	-2979
जनक	-2980
▁जोर	-2981
▁रहेगा	-2982
▁आकाशों	-2983
▁नोट	-2984
▁तेजी	-2985
▁जिम्मे	-2986
न्त्र	-2987
▁झग	-2988
गिज़	-2989
▁शुल्क	-2990
ार्म	-2991
्यान्व	-2992
▁मार्च	-2993
▁मिट्टी	-2994
aà	-2995
▁घोषणा	-2996
▁पहला	-2997
ment	-2998
di	-2999
▁N	-3000
▁जाँच	-3001
▁खास	-3002
▁अनुच्छेद	-3003
▁एल	-3004
▁संत	-3005
मैं	-3006
▁भली	-3007
▁मिस	-3008
▁जिसको	-3009
साद	-3010
▁नये	-3011
▁हालाँकि	-3012
▁कार्यान्व	-3013
▁(2)	-3014
दाता	-3015
▁आंक	-3016
▁निशानियाँ	-3017
▁प्रत्यक्ष	-3018
▁दृष्टिकोण	-3019
▁लेखक	-3020
▁कहेंगे	-3021
ra	-3022
▁व्यय	-3023
ाब	-3024
▁U	-3025
▁सज़ा	-3026
▁परिषद	-3027
▁फिल	-3028
▁दायित्व	-3029
भूमि	-3030
▁चुनाव	-3031
▁सॉ	-3032
▁अस्त	-3033
▁परिवर्त	-3034
▁बढ़ावा	-3035
भाषा	-3036
इड	-3037
▁बाव	-3038
▁चलते	-3039
▁सरल	-3040
नु	-3041
▁17	-3042
▁संस्कृत	-3043
बाहरी	-3044
यण	-3045
▁बीमा	-3046
▁मालिक	-3047
साब	-3048
▁अफ्री	-3049
▁गवाह	-3050
ंबई	-3051
्वाह	-3052
▁पंजा	-3053
्यूशन	-3054
▁पाक	-3055
▁गंभीर	-3056
▁पड़ता	-3057
▁ग्राह	-3058
फार	-3059
▁फे	-3060
ोने	-3061
▁देखें	-3062
▁असा	-3063
रिया	-3064
फ़ार	-3065
▁ड्र	-3066
▁सांस्कृतिक	-3067
जीव	-3068
कृष्ट	-3069
▁इनके	-3070
▁कानू	-3071
▁रुपये	-3072
शाला	-3073
▁तर्क	-3074
▁रहें	-3075
▁उपयुक्त	-3076
▁लेता	-3077
सभा	-3078
▁अधिस	-3079
▁बौद्ध	-3080
▁वैश्विक	-3081
▁आपस	-3082
अल्लाह	-3083
ितीय	-3084
▁नसीहत	-3085
▁तकनीकी	-3086
▁30	-3087
▁भूल	-3088
ंचे	-3089
▁वस्तुओं	-3090
प्ताह	-3091
क्षेत्र	-3092
दूर	-3093
▁पाए	-3094
दना	-3095
▁पश्चात्	-3096
▁बनाकर	-3097
मारी	-3098
▁दोष	-3099
▁लोड	-3100
▁कार्र	-3101
▁H	-3102
▁गाय	-3103
▁सत्र	-3104
▁रोजगार	-3105
▁सश	-3106
वृत्त	-3107
▁घरों	-3108
▁पात्र	-3109
▁मिलने	-3110
▁अंतरराष्ट्रीय	-3111
▁खुश	-3112
ढ़ी	-3113
▁प्राण	-3114
▁प्रतीक	-3115
ख़्श	-3116
▁मस	-3117
▁खूब	-3118
▁महिलाओं	-3119
▁क्षेत्रीय	-3120
▁देखो	-3121
▁बनाई	-3122
नियों	-3123
▁जिनका	-3124
▁प्रयासों	-3125
भारत	-3126
सूस	-3127
▁हृदय	-3128
ादी	-3129
एँगे	-3130
क्ष्म	-3131
▁प्रसार	-3132
▁बुरी	-3133
▁नियुक्त	-3134
▁साझी	-3135
▁पत्थर	-3136
▁जादू	-3137
मर	-3138
▁विनिर्दिष्ट	-3139
▁टुक	-3140
▁नाटक	-3141
▁प्रभार	-3142
▁मज़	-3143
▁E	-3144
ुमार	-3145
▁खाद्य	-3146
▁शास्त	-3147
▁व्याख्या	-3148
खर	-3149
िकाओं	-3150
▁भय	-3151
▁अनुवाद	-3152
▁अधिकतर	-3153
▁कठोर	-3154
▁दिखाया	-3155
▁भरो	-3156
▁स्वरूप	-3157
ूंगा	-3158
कामना	-3159
▁संदे	-3160
▁अधिसू	-3161
प्रिय	-3162
▁दिये	-3163
ूँगा	-3164
▁उत्तम	-3165
▁पद्धति	-3166
▁शास	-3167
▁बिजली	-3168
▁विस्तृत	-3169
▁अधिकतम	-3170
▁प्लग	-3171
▁समाचार	-3172
▁एच	-3173
धानी	-3174
▁अनुसू	-3175
चित्र	-3176
▁सिस्टम	-3177
बूल	-3178
▁खोलें	-3179
▁व्याव	-3180
▁संस्करण	-3181
▁ज़ु	-3182
▁इजरा	-3183
▁कहानी	-3184
▁गुजरा	-3185
▁स्वामी	-3186
▁नियत	-3187
नर	-3188
''	-3189
▁सरक	-3190
▁इतनी	-3191
▁वाक़ि	-3192
▁समक्ष	-3193
▁बख्श	-3194
कद	-3195
▁अंध	-3196
▁दीर्	-3197
▁बावजूद	-3198
▁शक्त	-3199
व्र	-3200
▁शिव	-3201
▁मार्गदर्शन	-3202
▁ग्राम	-3203
▁पार्टी	-3204
▁प्रयुक्त	-3205
▁अरब	-3206
▁शेयर	-3207
▁प्रेर	-3208
▁शुभकामना	-3209
▁इंज	-3210
वें	-3211
▁सीख	-3212
▁वाता	-3213
▁क़यामत	-3214
▁आतंकवाद	-3215
्रिया	-3216
▁माह	-3217
▁कटौती	-3218
▁हालांकि	-3219
बूद	-3220
िक्री	-3221
▁बुनिया	-3222
मल	-3223
▁(3	-3224
द्धा	-3225
▁मूल्या	-3226
▁पश्चिमी	-3227
▁करनेवाला	-3228
▁त्व	-3229
ंटे	-3230
लिंग	-3231
▁विनि	-3232
▁फैस	-3233
▁अनुकूल	-3234
▁निरंतर	-3235
▁पाय	-3236
▁चिह्न	-3237
ुत्व	-3238
▁परस्पर	-3239
▁फाय	-3240
तृत्व	-3241
वहन	-3242
▁मोड	-3243
▁छिपा	-3244
▁विमान	-3245
ॉन	-3246
भाष	-3247
▁सज	-3248
)।	-3249
न्ना	-3250
▁मेल	-3251
▁स्पष्टीकरण	-3252
र्र	-3253
▁मास	-3254
त्न	-3255
▁दर्शन	-3256
▁रोज़ी	-3257
▁सामना	-3258
▁सम्प	-3259
▁खाली	-3260
▁सबको	-3261
▁डाटा	-3262
दों	-3263
सों	-3264
▁विध	-3265
▁परिस्थित	-3266
▁अवै	-3267
▁एफ	-3268
▁दीवार	-3269
खिल	-3270
▁प्रच	-3271
▁वार्षिक	-3272
▁संचार	-3273
▁the	-3274
▁वायदा	-3275
अपनी	-3276
▁गहरा	-3277
▁मिशन	-3278
▁हार	-3279
यत	-3280
▁गतिविधियों	-3281
▁कल्या	-3282
▁मिलकर	-3283
▁रेखा	-3284
▁प्रसिद्ध	-3285
▁विल	-3286
▁वातावरण	-3287
▁पूर्ववर्ष	-3288
▁सकेगा	-3289
▁हाथों	-3290
बादत	-3291
▁आसान	-3292
्ति	-3293
▁यंत्र	-3294
▁मुसलमानों	-3295
▁संलग्न	-3296
▁ऑन	-3297
▁सचि	-3298
▁अके	-3299
जिए	-3300
▁जानवर	-3301
20	-3302
वासियों	-3303
▁खड़ा	-3304
पास	-3305
▁राजन	-3306
▁अना	-3307
ोल्यूशन	-3308
▁तला	-3309
▁बॉ	-3310
▁चलता	-3311
▁द्वार	-3312
▁कार्ड	-3313
▁नियमों	-3314
स्वी	-3315
▁समर्	-3316
ट्र	-3317
नेवालों	-3318
▁e	-3319
▁हिन्दू	-3320
▁लिखने	-3321
ोकन	-3322
िज	-3323
▁नियमित	-3324
जु	-3325
दिक	-3326
▁टाइ	-3327
▁इत्या	-3328
▁अपराध	-3329
ून्य	-3330
▁करनेवाले	-3331
▁कर्मचारियों	-3332
▁नामक	-3333
▁क्लिक	-3334
ेंशन	-3335
▁आरो	-3336
यम	-3337
▁करी	-3338
किस्तान	-3339
▁संपूर्ण	-3340
▁सूक्ष्म	-3341
भु	-3342
▁मंज	-3343
▁खी	-3344
▁महसूस	-3345
पुट	-3346
▁अवि	-3347
▁स्वागत	-3348
▁फ़ैस	-3349
¤¤	-3350
ंकर	-3351
किल	-3352
▁वेतन	-3353
▁अभिव्य	-3354
वाली	-3355
ँव	-3356
▁भला	-3357
▁मतलब	-3358
▁हानि	-3359
▁ग्रहण	-3360
▁मल	-3361
लोड	-3362
▁अनुमान	-3363
▁स्त्री	-3364
ंखला	-3365
▁परीक्षण	-3366
टिल	-3367
▁सुझा	-3368
▁रौ	-3369
▁अंड	-3370
▁शिकायत	-3371
ंका	-3372
▁आंत	-3373
▁बंध	-3374
▁तमा	-3375
▁माँग	-3376
▁सारा	-3377
▁हाँ	-3378
▁दीन	-3379
▁विश्ले	-3380
▁पैर	-3381
ंचाई	-3382
▁चैन	-3383
▁सदन	-3384
▁उपचार	-3385
▁अफ्रीका	-3386
बरी	-3387
▁कथ	-3388
▁वर	-3389
▁अस्प	-3390
▁हरगिज़	-3391
▁दावा	-3392
▁झुठलाया	-3393
▁अद्य	-3394
▁पंच	-3395
▁g	-3396
▁कार्रवाई	-3397
▁अवैध	-3398
▁सर्वा	-3399
▁x	-3400
▁–	-3401
▁24	-3402
▁प्रेष	-3403
▁देकर	-3404
▁बनाएँ	-3405
▁हिसाब	-3406
ाक	-3407
▁स्वच्छ	-3408
हि	-3409
पों	-3410
▁बाहरी	-3411
▁पंक्ति	-3412
▁बजा	-3413
▁माता	-3414
ताव	-3415
▁अद	-3416
▁साम्रा	-3417
▁अक्सर	-3418
▁इन्हें	-3419
▁टन	-3420
▁आये	-3421
टेड	-3422
▁मूर्ति	-3423
▁शुभकामनाएं	-3424
el	-3425
▁in	-3426
▁भरोसा	-3427
र्त	-3428
▁इबादत	-3429
▁जाएं	-3430
ष्क	-3431
▁वाह	-3432
▁भौतिक	-3433
▁सूर्य	-3434
▁सहेजें	-3435
ँति	-3436
▁प्राप्ति	-3437
▁प्रावधान	-3438
▁परा	-3439
▁तौबा	-3440
▁कल्याण	-3441
▁मात्र	-3442
▁जीवित	-3443
▁कारबार	-3444
▁चम	-3445
▁उपय	-3446
▁पीठ	-3447
▁जिनकी	-3448
▁O	-3449
▁दंड	-3450
▁समस्याओं	-3451
▁पेज	-3452
▁पाठ्य	-3453
▁प्रसन्नता	-3454
▁h	-3455
▁खाने	-3456
रेट	-3457
▁जनवरी	-3458
▁अंतर्राष्ट्रीय	-3459
तिहासिक	-3460
▁आयुक्त	-3461
▁कल्पना	-3462
▁खाना	-3463
▁शख़्श	-3464
▁संकल्प	-3465
▁आकर्ष	-3466
▁सुंदर	-3467
▁पत्त	-3468
▁उद	-3469
ंघ	-3470
▁ब्रा	-3471
▁बढ़कर	-3472
▁फॉ	-3473
▁अनुमो	-3474
▁खेती	-3475
▁भेजे	-3476
▁फा	-3477
▁हिस्से	-3478
▁व्यवसाय	-3479
▁मिलती	-3480
नांक	-3481
दिन	-3482
▁50	-3483
▁क्रा	-3484
▁कितने	-3485
पान	-3486
शब्द	-3487
▁मौसम	-3488
वट	-3489
▁कथा	-3490
▁उत्स	-3491
धीन	-3492
लाल	-3493
▁मानसिक	-3494
▁ढूं	-3495
▁खुशी	-3496
▁माबूद	-3497
▁भलाई	-3498
▁लगाने	-3499
▁पुराने	-3500
▁प्रजा	-3501
▁वितरण	-3502
▁परियोजनाओं	-3503
▁बू	-3504
बारा	-3505
▁संबो	-3506
▁कार्यक्रमों	-3507
्वे	-3508
▁ज़रुर	-3509
▁आयोजन	-3510
▁क्षति	-3511
ियार	-3512
दु	-3513
▁शुरुआ	-3514
▁छुट	-3515
▁प्रार्थ	-3516
क्ट्र	-3517
▁तिथि	-3518
ायक	-3519
▁दूध	-3520
ce	-3521
▁नेतृत्व	-3522
▁दस्तावेज	-3523
▁धो	-3524
ृंखला	-3525
पै	-3526
रार	-3527
चीत	-3528
▁चलो	-3529
▁जून	-3530
▁बदलें	-3531
▁जायेगा	-3532
▁गणराज्य	-3533
▁पंचा	-3534
▁जानी	-3535
क्षेप	-3536
ूर्ति	-3537
▁चै	-3538
▁मनो	-3539
▁एवोल्यूशन	-3540
▁"%	-3541
pres	-3542
▁दोस्त	-3543
▁कदा	-3544
▁विवाद	-3545
▁धीरे	-3546
▁ब्रह	-3547
▁आइ	-3548
▁द्र	-3549
▁उसपर	-3550
▁न्यून	-3551
▁सप्ताह	-3552
जू	-3553
▁बोझ	-3554
लम	-3555
अलग	-3556
वान्वेष	-3557
▁अल्प	-3558
श्म	-3559
▁ज़ुल्म	-3560
वित्र	-3561
▁शत्र	-3562
▁मुद्द	-3563
▁हस्त	-3564
▁कितनी	-3565
▁हिंदू	-3566
▁कुफ्	-3567
ाले	-3568
क्षी	-3569
णु	-3570
▁इत्यादि	-3571
ूबर	-3572
ut	-3573
▁उड़	-3574
▁दयाल	-3575
▁प्ले	-3576
वर्तन	-3577
▁निरा	-3578
▁यूनि	-3579
त्मिक	-3580
लील	-3581
वक	-3582
▁शून्य	-3583
▁अभियान	-3584
दुनिया	-3585
▁अनुसरण	-3586
▁उपन्यास	-3587
्यार	-3588
▁क़सम	-3589
▁कराने	-3590
▁ख़र्च	-3591
▁कोड	-3592
▁काफ़िर	-3593
▁निभा	-3594
छा	-3595
िक़	-3596
▁निर्देशिका	-3597
ियल	-3598
▁तट	-3599
▁जुड़े	-3600
▁मूल्यांकन	-3601
▁100	-3602
▁उत्कृष्ट	-3603
फ्र	-3604
▁खुले	-3605
▁तकली	-3606
▁मध	-3607
मंडल	-3608
▁मुला	-3609
▁३	-3610
▁आउट	-3611
ंता	-3612
▁आँख	-3613
▁प्रार्थना	-3614
शक्ति	-3615
▁पत्नी	-3616
▁लम्	-3617
▁पर्यटन	-3618
पादन	-3619
णिज्य	-3620
▁अंतरण	-3621
▁बजे	-3622
▁बनाते	-3623
▁सुख	-3624
▁पराम	-3625
▁होनी	-3626
▁प्रयोजन	-3627
▁संस्थाओं	-3628
न्दगी	-3629
▁शुद्ध	-3630
▁पट्टी	-3631
id	-3632
▁संगण	-3633
मीटर	-3634
गण	-3635
▁आनंद	-3636
▁बातचीत	-3637
▁कमांड	-3638
▁अस्तित्व	-3639
म्मद	-3640
्याग	-3641
िकाना	-3642
▁विशेषता	-3643
▁कर्मचारी	-3644
▁फूल	-3645
▁गुरु	-3646
▁डरते	-3647
क़यामत	-3648
▁आस्ति	-3649
▁ऐतिहासिक	-3650
▁हद	-3651
▁मिटाएँ	-3652
▁बेटे	-3653
▁नवान्वेष	-3654
श्मीर	-3655
▁तेरे	-3656
घाटन	-3657
▁अत्यधिक	-3658
▁प्रेरित	-3659
▁इजरायल	-3660
▁विद्यार्थियों	-3661
धीश	-3662
ुप	-3663
▁पंचांग	-3664
रक	-3665
▁फ़ॉ	-3666
▁विद्युत	-3667
ंटी	-3668
ूक	-3669
▁गंगा	-3670
मानी	-3671
▁लक्षण	-3672
▁निशानी	-3673
▁मान्यता	-3674
▁साब	-3675
▁आध्या	-3676
ent	-3677
ओगे	-3678
क्सी	-3679
▁मामला	-3680
▁इकाई	-3681
▁उदार	-3682
्ठा	-3683
▁गुप्त	-3684
▁बुराई	-3685
▁गैस	-3686
फ़र	-3687
▁तुर	-3688
▁प्रारूप	-3689
वीय	-3690
▁मानक	-3691
▁शुक्र	-3692
ोम	-3693
मान्य	-3694
▁शीर्षक	-3695
▁स्क्रीन	-3696
▁मुक़ाब	-3697
▁संबंधों	-3698
परिक	-3699
▁विवे	-3700
▁तेज	-3701
▁बिक्री	-3702
वां	-3703
▁इकट	-3704
▁आयतें	-3705
ुस	-3706
▁देखभाल	-3707
▁साधन	-3708
राई	-3709
▁कक्ष	-3710
▁सौंप	-3711
िश्तों	-3712
्ता	-3713
▁दुआ	-3714
▁चारों	-3715
▁बैंकों	-3716
्वर	-3717
▁बाह	-3718
▁लाया	-3719
▁फसल	-3720
▁काव्य	-3721
▁सुबह	-3722
▁दिला	-3723
▁वादा	-3724
लोग	-3725
▁स्तंभ	-3726
▁बुनियादी	-3727
▁प्रतिक्रिया	-3728
▁खिलाफ	-3729
▁वाणिज्य	-3730
▁ईमानदारों	-3731
▁किसान	-3732
▁इरा	-3733
▁प्रोट	-3734
र्ज	-3735
▁पाकिस्तान	-3736
िनी	-3737
▁मछ	-3738
▁प्रभुत्व	-3739
▁ख़ास	-3740
▁लोकप्रिय	-3741
▁नष्ट	-3742
ुमा	-3743
▁टिप	-3744
▁फिल्म	-3745
▁स्थिर	-3746
▁निदेशक	-3747
▁विरा	-3748
▁गृह	-3749
▁छूट	-3750
▁मंच	-3751
omment	-3752
करी	-3753
▁कहता	-3754
▁मानो	-3755
▁विशेषज्ञ	-3756
▁हराम	-3757
ॉकि	-3758
िक्स	-3759
▁फ्ल	-3760
▁करार	-3761
▁ठिकाना	-3762
जोर	-3763
▁प्रचार	-3764
▁आठ	-3765
मार्	-3766
▁गरीब	-3767
लेज	-3768
▁चेह	-3769
▁कुशल	-3770
▁स्थल	-3771
संख्या	-3772
मात्र	-3773
▁दिनांक	-3774
▁लोकतंत्र	-3775
▁लॉग	-3776
▁समी	-3777
▁किरा	-3778
▁ग़रज़	-3779
▁पुत्र	-3780
▁2.	-3781
▁कौशल	-3782
▁भाषण	-3783
▁स्थानों	-3784
▁परहे	-3785
▁फ़ैसला	-3786
ed	-3787
आन	-3788
▁विषयों	-3789
▁गोप	-3790
▁घरे	-3791
क्षिक	-3792
▁समस्त	-3793
ानु	-3794
▁माइ	-3795
▁ख्याल	-3796
खिम	-3797
▁अक्ष	-3798
uk	-3799
▁सवाल	-3800
▁रास्ता	-3801
▁लगातार	-3802
▁सामर्थ	-3803
▁परहेज़	-3804
▁193	-3805
▁पहाड़	-3806
▁आध्यात्मिक	-3807
▁आख	-3808
▁इतने	-3809
▁बरसा	-3810
▁अर्थात्	-3811
▁उपयोक्ता	-3812
क्रिय	-3813
▁बनने	-3814
▁सीधा	-3815
▁सेवाएं	-3816
▁अमेरिक	-3817
ec	-3818
▁कृत	-3819
तुम्ह	-3820
▁न्यूनतम	-3821
ैसे	-3822
▁लु	-3823
कालिक	-3824
क्यों	-3825
▁	-3826
ा	-3827
क	-3828
र	-3829
े	-3830
्	-3831
न	-3832
ि	-3833
स	-3834
त	-3835
ह	-3836
ं	-3837
ी	-3838
म	-3839
ो	-3840
य	-3841
प	-3842
ल	-3843
व	-3844
द	-3845
ज	-3846
ु	-3847
ग	-3848
ब	-3849
ै	-3850
अ	-3851
श	-3852
ए	-3853
उ	-3854
च	-3855
़	-3856
भ	-3857
ू	-3858
।	-3859
ट	-3860
औ	-3861
,	-3862
ध	-3863
थ	-3864
ख	-3865
ष	-3866
आ	-3867
ड	-3868
इ	-3869
ण	-3870
फ	-3871
(	-3872
)	-3873
.	-3874
ई	-3875
-	-3876
छ	-3877
ँ	-3878
1	-3879
ृ	-3880
ौ	-3881
0	-3882
ओ	-3883
ठ	-3884
e	-3885
2	-3886
ऐ	-3887
a	-3888
घ	-3889
झ	-3890
i	-3891
à	-3892
t	-3893
ढ	-3894
n	-3895
"	-3896
o	-3897
ः	-3898
ॉ	-3899
s	-3900
¤	-3901
4	-3902
r	-3903
9	-3904
3	-3905
/	-3906
5	-3907
'	-3908
ञ	-3909
l	-3910
?	-3911
m	-3912
;	-3913
%	-3914
8	-3915
:	-3916
6	-3917
ऊ	-3918
p	-3919
7	-3920
d	-3921
h	-3922
c	-3923
_	-3924
‍	-3925
u	-3926
!	-3927
b	-3928
g	-3929
¥	-3930
ऋ	-3931
ऑ	-3932
C	-3933
y	-3934
S	-3935
A	-3936
०	-3937
१	-3938
N	-3939
k	-3940
I	-3941
f	-3942
w	-3943
T	-3944
M	-3945
#	-3946
‘	-3947
”	-3948
R	-3949
P	-3950
E	-3951
’	-3952
v	-3953
D	-3954
L	-3955
२	-3956
>	-3957
O	-3958
&	-3959
“	-3960
⁄	-3961
x	-3962
९	-3963
F	-3964
	-3965
B	-3966
–	-3967
°	-3968
<	-3969
U	-3970
	-3971
	-3972
५	-3973
G	-3974
३	-3975
८	-3976
H	-3977
@	-3978
	-3979
६	-3980
४	-3981
{	-3982
}	-3983
७	-3984
̧	-3985
j	-3986
]	-3987
¿	-3988
̈	-3989
\	-3990
ॅ	-3991
[	-3992
V	-3993
ङ	-3994
W	-3995
Y	-3996
