<pad>	0
</s>	0
<unk>	0
▁¦	-0
de	-1
▁𐋇	-2
▁,	-3
en	-4
oc	-5
ll	-6
an	-7
ar	-8
er	-9
och	-10
om	-11
tt	-12
▁.	-13
in	-14
ör	-15
är	-16
st	-17
ig	-18
sk	-19
för	-20
ti	-21
on	-22
ade	-23
ag	-24
till	-25
han	-26
all	-27
or	-28
som	-29
än	-30
ra	-31
et	-32
ed	-33
na	-34
vi	-35
ck	-36
så	-37
den	-38
el	-39
att	-40
av	-41
un	-42
der	-43
var	-44
det	-45
▁;	-46
ick	-47
da	-48
jag	-49
sa	-50
her	-51
herr	-52
▁:	-53
ing	-54
på	-55
fr	-56
ån	-57
skall	-58
ol	-59
va	-60
icke	-61
herren	-62
med	-63
hon	-64
ta	-65
pp	-66
▁𐊣	-67
du	-68
bl	-69
ut	-70
se	-71
▁»	-72
har	-73
ud	-74
rä	-75
dem	-76
ter	-77
dig	-78
ver	-79
där	-80
honom	-81
men	-82
äl	-83
då	-84
us	-85
sin	-86
äg	-87
upp	-88
kt	-89
es	-90
kom	-91
mo	-92
ka	-93
and	-94
ja	-95
si	-96
ung	-97
sig	-98
ju	-99
gud	-100
man	-101
mig	-102
ma	-103
eder	-104
ef	-105
sade	-106
ro	-107
år	-108
ss	-109
min	-110
från	-111
din	-112
åg	-113
över	-114
åt	-115
ri	-116
▁.»	-117
ty	-118
hade	-119
lig	-120
alla	-121
hans	-122
la	-123
jor	-124
is	-125
vid	-126
ett	-127
när	-128
it	-129
nu	-130
ur	-131
efter	-132
kon	-133
tta	-134
lä	-135
be	-136
bar	-137
sta	-138
skol	-139
hav	-140
le	-141
are	-142
li	-143
ga	-144
br	-145
konung	-146
olk	-147
itt	-148
folk	-149
bli	-150
gi	-151
re	-152
ning	-153
ock	-154
ba	-155
vad	-156
såsom	-157
ull	-158
män	-159
het	-160
▁?	-161
säg	-162
isra	-163
sam	-164
israel	-165
gen	-166
mot	-167
son	-168
hel	-169
ne	-170
må	-171
ska	-172
hö	-173
gör	-174
as	-175
någ	-176
allt	-177
ller	-178
dag	-179
hör	-180
fra	-181
gå	-182
dö	-183
of	-184
arna	-185
em	-186
barn	-187
fö	-188
skola	-189
ev	-190
detta	-191
äm	-192
hava	-193
ön	-194
dan	-195
hus	-196
og	-197
dr	-198
ras	-199
ens	-200
des	-201
eller	-202
mer	-203
fram	-204
skull	-205
yn	-206
erna	-207
ot	-208
deras	-209
te	-210
sina	-211
ort	-212
jäl	-213
gjor	-214
sl	-215
herrens	-216
vill	-217
ste	-218
jän	-219
oss	-220
nen	-221
här	-222
vara	-223
od	-224
vil	-225
tjän	-226
yck	-227
vit	-228
os	-229
tr	-230
väl	-231
mm	-232
vor	-233
ha	-234
få	-235
hu	-236
ni	-237
under	-238
israels	-239
jer	-240
ande	-241
edan	-242
göra	-243
inn	-244
vå	-245
mitt	-246
ord	-247
und	-248
▁'	-249
säger	-250
ken	-251
tag	-252
land	-253
andra	-254
genom	-255
al	-256
rätt	-257
kun	-258
vän	-259
sitt	-260
dina	-261
skulle	-262
själ	-263
äng	-264
äro	-265
ingen	-266
bliva	-267
komma	-268
ul	-269
del	-270
stä	-271
trä	-272
blev	-273
kr	-274
ifrån	-275
ader	-276
utan	-277
str	-278
ned	-279
någon	-280
ber	-281
vär	-282
yg	-283
bet	-284
kan	-285
lå	-286
fer	-287
sedan	-288
iga	-289
tal	-290
stad	-291
offer	-292
syn	-293
hå	-294
fa	-295
jär	-296
vet	-297
ly	-298
sön	-299
brö	-300
hen	-301
ab	-302
ft	-303
sten	-304
voro	-305
jo	-306
pa	-307
hand	-308
mn	-309
dess	-310
svar	-311
else	-312
konungen	-313
fader	-314
ätt	-315
männi	-316
hi	-317
dessa	-318
guds	-319
bort	-320
ann	-321
david	-322
tid	-323
folket	-324
ång	-325
därför	-326
bland	-327
väg	-328
mina	-329
ditt	-330
ena	-331
lö	-332
eg	-333
hela	-334
kte	-335
lj	-336
mån	-337
stor	-338
skolen	-339
lat	-340
sp	-341
inför	-342
fär	-343
jes	-344
ott	-345
gon	-346
rö	-347
lla	-348
herre	-349
giva	-350
jorden	-351
vin	-352
svarade	-353
hög	-354
lan	-355
dde	-356
först	-357
prä	-358
sen	-359
nes	-360
ukt	-361
gjorde	-362
far	-363
tet	-364
sän	-365
lag	-366
läg	-367
söner	-368
vä	-369
ligen	-370
▁-	-371
vår	-372
juda	-373
gick	-374
fä	-375
fi	-376
▁!	-377
namn	-378
beg	-379
bo	-380
ära	-381
människ	-382
något	-383
▁--	-384
hur	-385
tog	-386
aden	-387
mi	-388
tjänare	-389
lo	-390
lem	-391
ia	-392
mose	-393
mar	-394
hjär	-395
▁?»	-396
låt	-397
usa	-398
kommer	-399
ker	-400
fy	-401
ser	-402
slä	-403
ej	-404
huru	-405
skap	-406
blivit	-407
åd	-408
jesus	-409
jerusa	-410
nas	-411
éerna	-412
jerusalem	-413
je	-414
färdig	-415
ho	-416
sö	-417
stå	-418
nar	-419
gr	-420
yp	-421
edra	-422
henne	-423
ko	-424
lar	-425
landet	-426
star	-427
ger	-428
byg	-429
ten	-430
drag	-431
mmel	-432
får	-433
förb	-434
säga	-435
egyp	-436
am	-437
himmel	-438
gjort	-439
åter	-440
sä	-441
lät	-442
pro	-443
ster	-444
två	-445
går	-446
ögon	-447
sal	-448
fört	-449
själv	-450
gär	-451
ända	-452
sju	-453
denna	-454
at	-455
låta	-456
vatt	-457
dagen	-458
sådan	-459
ven	-460
nat	-461
frukt	-462
me	-463
gav	-464
änder	-465
fet	-466
kta	-467
dom	-468
mä	-469
baka	-470
hos	-471
bå	-472
rar	-473
hund	-474
satt	-475
liga	-476
rättfärdig	-477
skri	-478
tillbaka	-479
vis	-480
ställ	-481
ningar	-482
bes	-483
därefter	-484
ds	-485
höra	-486
haven	-487
svär	-488
ve	-489
hustr	-490
taga	-491
stod	-492
denne	-493
profet	-494
myck	-495
klä	-496
ännu	-497
öd	-498
bliver	-499
bel	-500
go	-501
hundra	-502
liv	-503
komm	-504
kunna	-505
också	-506
lade	-507
tro	-508
bor	-509
tar	-510
intet	-511
hem	-512
räck	-513
jäm	-514
dju	-515
ren	-516
hjärta	-517
bed	-518
fråg	-519
ansi	-520
tio	-521
samman	-522
kommit	-523
lik	-524
rik	-525
jud	-526
bröder	-527
samma	-528
huv	-529
emot	-530
slag	-531
talade	-532
lighet	-533
människor	-534
im	-535
dit	-536
nade	-537
fem	-538
lär	-539
fly	-540
lika	-541
kring	-542
tus	-543
berg	-544
ligt	-545
ighet	-546
kö	-547
eftersom	-548
föra	-549
tju	-550
ingo	-551
fri	-552
brän	-553
rist	-554
tusen	-555
dar	-556
bud	-557
dro	-558
mma	-559
äta	-560
full	-561
stra	-562
kän	-563
följ	-564
staden	-565
tän	-566
åstad	-567
kvar	-568
il	-569
bro	-570
många	-571
tit	-572
terna	-573
försam	-574
tala	-575
kor	-576
nad	-577
sag	-578
hålla	-579
stri	-580
ling	-581
plat	-582
uld	-583
allena	-584
kro	-585
omkring	-586
hä	-587
fick	-588
sak	-589
givit	-590
skar	-591
krist	-592
ansikte	-593
bef	-594
förde	-595
finn	-596
dagar	-597
vatten	-598
håll	-599
städer	-600
kommo	-601
himmelen	-602
dock	-603
edom	-604
såg	-605
jung	-606
igt	-607
tan	-608
rop	-609
vinn	-610
▁.'	-611
san	-612
fara	-613
ons	-614
gä	-615
sammans	-616
kär	-617
vem	-618
fast	-619
fäder	-620
igen	-621
vare	-622
hjäl	-623
mor	-624
gu	-625
mycket	-626
unn	-627
gång	-628
ben	-629
fräl	-630
sagt	-631
bör	-632
ner	-633
tre	-634
rå	-635
red	-636
präst	-637
eld	-638
sar	-639
näm	-640
hustru	-641
saul	-642
vitt	-643
sände	-644
hörde	-645
måste	-646
läng	-647
huvud	-648
pen	-649
mannen	-650
dd	-651
kob	-652
jakob	-653
fin	-654
tiden	-655
eli	-656
ske	-657
mun	-658
salom	-659
allenast	-660
tter	-661
bu	-662
döda	-663
hennes	-664
broder	-665
stora	-666
ets	-667
stån	-668
synd	-669
prästen	-670
höj	-671
vre	-672
sätt	-673
låg	-674
bygg	-675
våra	-676
kvinn	-677
händer	-678
ades	-679
els	-680
hag	-681
net	-682
blod	-683
varför	-684
moder	-685
kar	-686
kall	-687
svärd	-688
födde	-689
erligen	-690
dda	-691
port	-692
vilken	-693
djur	-694
arbet	-695
finnes	-696
främ	-697
enbar	-698
uppenbar	-699
ppar	-700
fall	-701
vilka	-702
äck	-703
dakt	-704
vilja	-705
fur	-706
före	-707
visa	-708
ans	-709
guld	-710
verk	-711
heller	-712
um	-713
nåd	-714
både	-715
ville	-716
fatt	-717
kött	-718
orna	-719
ff	-720
häm	-721
rade	-722
männen	-723
van	-724
seba	-725
glä	-726
pel	-727
mör	-728
dens	-729
nä	-730
teck	-731
bära	-732
bär	-733
natt	-734
plats	-735
sil	-736
själva	-737
gott	-738
drick	-739
drä	-740
gar	-741
fien	-742
tron	-743
gärningar	-744
ld	-745
kunde	-746
fili	-747
ad	-748
höv	-749
jon	-750
bba	-751
trö	-752
levi	-753
satte	-754
sy	-755
stam	-756
styck	-757
heliga	-758
ige	-759
välsig	-760
egypten	-761
gingo	-762
lu	-763
ring	-764
försk	-765
blevo	-766
varit	-767
föll	-768
död	-769
jämte	-770
kristus	-771
gläd	-772
kra	-773
röst	-774
hed	-775
makt	-776
giver	-777
nämligen	-778
skö	-779
otter	-780
står	-781
sidan	-782
vända	-783
ogu	-784
ogudakt	-785
ygg	-786
draga	-787
morgon	-788
prästerna	-789
ham	-790
fått	-791
sj	-792
gått	-793
rättfärdighet	-794
vag	-795
bränn	-796
framför	-797
for	-798
fördär	-799
sky	-800
abra	-801
öj	-802
offr	-803
onde	-804
konungens	-805
leva	-806
veta	-807
altar	-808
gudar	-809
aren	-810
helg	-811
dotter	-812
kläder	-813
hit	-814
oren	-815
vinna	-816
by	-817
begyn	-818
sex	-819
annan	-820
silver	-821
sån	-822
dött	-823
kraft	-824
råd	-825
dra	-826
ök	-827
huset	-828
éernas	-829
ont	-830
drog	-831
höll	-832
miss	-833
förstån	-834
fyra	-835
ången	-836
filist	-837
förbund	-838
vr	-839
rätta	-840
lev	-841
öm	-842
ningen	-843
lärjung	-844
sn	-845
llan	-846
havet	-847
vidare	-848
öpp	-849
båda	-850
kalla	-851
sätta	-852
alltså	-853
bjud	-854
undan	-855
nej	-856
kten	-857
frågade	-858
ry	-859
slog	-860
tens	-861
onda	-862
ny	-863
egyptens	-864
sef	-865
diga	-866
träd	-867
kropp	-868
fru	-869
funn	-870
vrede	-871
sådant	-872
yr	-873
ffa	-874
vägen	-875
len	-876
hövd	-877
vände	-878
sebaot	-879
ki	-880
ljus	-881
behag	-882
medan	-883
ua	-884
has	-885
ving	-886
ke	-887
gat	-888
▁»,	-889
stör	-890
lägga	-891
ban	-892
arve	-893
talat	-894
arvedel	-895
skil	-896
ycka	-897
to	-898
ts	-899
pet	-900
människa	-901
varandra	-902
vo	-903
konungar	-904
tack	-905
io	-906
sla	-907
ären	-908
jut	-909
bröd	-910
aron	-911
dör	-912
per	-913
inne	-914
run	-915
låtit	-916
tjugu	-917
jas	-918
barns	-919
lång	-920
bi	-921
vand	-922
läm	-923
mur	-924
äld	-925
josef	-926
lov	-927
sik	-928
offra	-929
öknen	-930
davids	-931
tjänst	-932
best	-933
he	-934
abraham	-935
reger	-936
bjudit	-937
val	-938
sång	-939
fiender	-940
bon	-941
mande	-942
salomo	-943
fann	-944
några	-945
sönder	-946
ek	-947
bod	-948
ältet	-949
döttrar	-950
människo	-951
profeter	-952
härlighet	-953
tillsammans	-954
giv	-955
digt	-956
falla	-957
förut	-958
dri	-959
fyll	-960
mäkt	-961
låter	-962
fyr	-963
bred	-964
runt	-965
mellan	-966
hjärtan	-967
nelse	-968
likasom	-969
sid	-970
hopp	-971
babel	-972
mmar	-973
värl	-974
rus	-975
räk	-976
förl	-977
kter	-978
tung	-979
fäng	-980
jord	-981
alnar	-982
arnas	-983
gn	-984
vart	-985
boskap	-986
hövding	-987
helgedom	-988
brännoffer	-989
ål	-990
därav	-991
fräls	-992
ende	-993
hört	-994
krig	-995
släkt	-996
kallade	-997
länge	-998
tol	-999
kvinna	-1000
ang	-1001
älsk	-1002
bodde	-1003
grä	-1004
tor	-1005
stade	-1006
ropade	-1007
veder	-1008
faders	-1009
jos	-1010
söka	-1011
viss	-1012
elser	-1013
bön	-1014
ika	-1015
tem	-1016
befall	-1017
altaret	-1018
häl	-1019
▁!»	-1020
ängel	-1021
orätt	-1022
folken	-1023
förskräck	-1024
kärle	-1025
redan	-1026
håller	-1027
stö	-1028
bä	-1029
given	-1030
marken	-1031
sett	-1032
togo	-1033
dat	-1034
därtill	-1035
god	-1036
hop	-1037
slut	-1038
josua	-1039
dricka	-1040
hän	-1041
pri	-1042
lipp	-1043
trett	-1044
gärning	-1045
mö	-1046
nor	-1047
fötter	-1048
äldste	-1049
hår	-1050
sor	-1051
strid	-1052
natten	-1053
därpå	-1054
fingo	-1055
följde	-1056
släkte	-1057
därifrån	-1058
stan	-1059
kasta	-1060
första	-1061
moab	-1062
utt	-1063
vån	-1064
mmal	-1065
döden	-1066
helig	-1067
rädda	-1068
gammal	-1069
let	-1070
vilk	-1071
farao	-1072
skam	-1073
jordan	-1074
månaden	-1075
pi	-1076
das	-1077
stygg	-1078
rän	-1079
efra	-1080
klag	-1081
överste	-1082
fot	-1083
jamin	-1084
glädje	-1085
jordens	-1086
vittnes	-1087
hor	-1088
goda	-1089
rike	-1090
edert	-1091
säd	-1092
hjälp	-1093
tagit	-1094
vittnesbör	-1095
fte	-1096
led	-1097
vat	-1098
edje	-1099
mått	-1100
skaffa	-1101
ru	-1102
besitt	-1103
jen	-1104
sår	-1105
fjär	-1106
hören	-1107
stodo	-1108
frukta	-1109
sm	-1110
fråga	-1111
ligger	-1112
tredje	-1113
bry	-1114
sann	-1115
känna	-1116
ningarna	-1117
bad	-1118
tolv	-1119
talar	-1120
ill	-1121
kam	-1122
par	-1123
alltid	-1124
ternas	-1125
föl	-1126
hung	-1127
ytter	-1128
berget	-1129
tjänar	-1130
leviterna	-1131
sol	-1132
annat	-1133
elset	-1134
lingen	-1135
po	-1136
gra	-1137
slå	-1138
sons	-1139
utro	-1140
lever	-1141
kommen	-1142
frid	-1143
ryck	-1144
bygga	-1145
hämta	-1146
benjamin	-1147
besittning	-1148
hug	-1149
kal	-1150
högra	-1151
hal	-1152
övr	-1153
efraim	-1154
vandra	-1155
vishet	-1156
kvinnor	-1157
nå	-1158
lamm	-1159
tare	-1160
sabba	-1161
tager	-1162
fl	-1163
sel	-1164
sänt	-1165
elsen	-1166
bätt	-1167
skyn	-1168
snar	-1169
spis	-1170
evinn	-1171
evinnerligen	-1172
iten	-1173
stånd	-1174
kärlek	-1175
nöd	-1176
rör	-1177
ibland	-1178
tempel	-1179
ställde	-1180
världen	-1181
gam	-1182
tra	-1183
förs	-1184
skän	-1185
lingar	-1186
ene	-1187
drig	-1188
mark	-1189
anden	-1190
est	-1191
tes	-1192
uel	-1193
gåvo	-1194
berna	-1195
tecken	-1196
mod	-1197
hett	-1198
begär	-1199
johan	-1200
larna	-1201
älska	-1202
fruktan	-1203
ften	-1204
strö	-1205
tade	-1206
vits	-1207
vårt	-1208
ligga	-1209
nings	-1210
stadgar	-1211
ge	-1212
oni	-1213
fröj	-1214
låten	-1215
aldrig	-1216
synder	-1217
konungs	-1218
bru	-1219
aram	-1220
ulus	-1221
drogo	-1222
sådana	-1223
missgärning	-1224
akt	-1225
fta	-1226
mat	-1227
vägar	-1228
offret	-1229
begynte	-1230
bil	-1231
lagen	-1232
paulus	-1233
släkter	-1234
fött	-1235
straff	-1236
bj	-1237
sim	-1238
kade	-1239
dande	-1240
hövits	-1241
ass	-1242
bas	-1243
döds	-1244
bedja	-1245
livet	-1246
intill	-1247
gas	-1248
barm	-1249
olja	-1250
våld	-1251
koppar	-1252
ark	-1253
egen	-1254
lott	-1255
förni	-1256
skatt	-1257
utval	-1258
övriga	-1259
hy	-1260
fåg	-1261
fanns	-1262
gören	-1263
petrus	-1264
lärjungar	-1265
grän	-1266
vädu	-1267
ligare	-1268
länder	-1269
furstar	-1270
juta	-1271
tagen	-1272
mär	-1273
beam	-1274
dade	-1275
lämn	-1276
sjun	-1277
täck	-1278
manas	-1279
stället	-1280
so	-1281
aft	-1282
amm	-1283
res	-1284
ski	-1285
andre	-1286
fastän	-1287
finnas	-1288
trädde	-1289
skrivet	-1290
vattnet	-1291
förstånd	-1292
lju	-1293
uck	-1294
väx	-1295
ått	-1296
levande	-1297
sannerligen	-1298
fång	-1299
jesu	-1300
skör	-1301
kristi	-1302
manasse	-1303
esa	-1304
afton	-1305
bestäm	-1306
förkun	-1307
profeten	-1308
skyl	-1309
steg	-1310
ting	-1311
flo	-1312
sti	-1313
boning	-1314
olycka	-1315
förnimma	-1316
himmelens	-1317
slu	-1318
utg	-1319
dräp	-1320
invån	-1321
jerem	-1322
klipp	-1323
sonen	-1324
sända	-1325
asa	-1326
fal	-1327
skå	-1328
förrän	-1329
förtör	-1330
tillhör	-1331
filistéerna	-1332
gla	-1333
varda	-1334
arbete	-1335
uppenbarelset	-1336
ok	-1337
öl	-1338
gile	-1339
huvu	-1340
vakt	-1341
lejon	-1342
däri	-1343
järn	-1344
skur	-1345
igenom	-1346
mycken	-1347
hustrur	-1348
akta	-1349
ände	-1350
finna	-1351
menighet	-1352
inga	-1353
joab	-1354
därmed	-1355
egypti	-1356
porten	-1357
vingår	-1358
sida	-1359
annade	-1360
uppfyll	-1361
blo	-1362
ret	-1363
vore	-1364
slakt	-1365
tjäna	-1366
församling	-1367
stol	-1368
befallning	-1369
fat	-1370
bjöd	-1371
likväl	-1372
visade	-1373
ält	-1374
fami	-1375
härt	-1376
lyss	-1377
barmhärt	-1378
allasammans	-1379
mål	-1380
rök	-1381
nära	-1382
hette	-1383
samuel	-1384
hedningarna	-1385
gås	-1386
rev	-1387
▁',	-1388
bäck	-1389
områ	-1390
skär	-1391
öster	-1392
iterna	-1393
fördärv	-1394
flö	-1395
åker	-1396
gamla	-1397
skuld	-1398
stort	-1399
uppstå	-1400
johannes	-1401
ytterligare	-1402
gån	-1403
kas	-1404
ahas	-1405
enda	-1406
förö	-1407
sorg	-1408
kvinnan	-1409
stycken	-1410
no	-1411
ran	-1412
asar	-1413
baal	-1414
lust	-1415
långt	-1416
samar	-1417
strax	-1418
fadern	-1419
stenar	-1420
mas	-1421
ond	-1422
isak	-1423
kros	-1424
hunger	-1425
högtid	-1426
tänkte	-1427
jeremia	-1428
frälsning	-1429
sågo	-1430
riket	-1431
höjder	-1432
känner	-1433
kastade	-1434
mön	-1435
inna	-1436
plan	-1437
slags	-1438
svara	-1439
varen	-1440
förgås	-1441
judarna	-1442
församlade	-1443
fo	-1444
dog	-1445
gre	-1446
mol	-1447
följa	-1448
läger	-1449
vänner	-1450
stannade	-1451
profeterna	-1452
mj	-1453
dyr	-1454
lagt	-1455
delse	-1456
byggde	-1457
namnet	-1458
utrota	-1459
trettio	-1460
flykt	-1461
grund	-1462
bernak	-1463
femtio	-1464
skrift	-1465
ställe	-1466
regering	-1467
tabernak	-1468
fån	-1469
evig	-1470
kret	-1471
marker	-1472
platsen	-1473
vittnesbörd	-1474
mes	-1475
tåg	-1476
tör	-1477
fullbor	-1478
fäll	-1479
sant	-1480
jonat	-1481
moses	-1482
solen	-1483
träda	-1484
bin	-1485
jan	-1486
tel	-1487
bara	-1488
hebr	-1489
jero	-1490
stig	-1491
vila	-1492
skick	-1493
floden	-1494
tionde	-1495
helgedomen	-1496
pl	-1497
föda	-1498
innan	-1499
varken	-1500
spisoffer	-1501
högt	-1502
sbyg	-1503
▁.'»	-1504
förviss	-1505
ärd	-1506
eget	-1507
lära	-1508
mjöl	-1509
undr	-1510
lämna	-1511
bättre	-1512
område	-1513
bord	-1514
josa	-1515
ljer	-1516
sion	-1517
bergen	-1518
sjunde	-1519
ug	-1520
hab	-1521
yri	-1522
åsn	-1523
bitt	-1524
kana	-1525
ovan	-1526
bedrö	-1527
jerusalems	-1528
arm	-1529
lit	-1530
lön	-1531
sad	-1532
hopa	-1533
plåg	-1534
pred	-1535
deles	-1536
sitta	-1537
stark	-1538
assyri	-1539
fyrtio	-1540
förson	-1541
syster	-1542
små	-1543
samt	-1544
evang	-1545
evangeli	-1546
förkunna	-1547
bos	-1548
lösa	-1549
rarna	-1550
stammar	-1551
människorna	-1552
aga	-1553
gna	-1554
isa	-1555
sär	-1556
just	-1557
unda	-1558
uppe	-1559
fången	-1560
helige	-1561
hästar	-1562
jakobs	-1563
vilket	-1564
lämnade	-1565
penningar	-1566
gri	-1567
uri	-1568
egna	-1569
gåva	-1570
hisk	-1571
inom	-1572
mätt	-1573
träl	-1574
året	-1575
dighet	-1576
funnit	-1577
fåfäng	-1578
gånger	-1579
hiskia	-1580
tillhopa	-1581
ox	-1582
smä	-1583
dels	-1584
sime	-1585
krigs	-1586
lovat	-1587
nästa	-1588
sjutt	-1589
altare	-1590
förgår	-1591
rat	-1592
oför	-1593
begav	-1594
ffade	-1595
särskil	-1596
alldeles	-1597
regeringsår	-1598
sv	-1599
levde	-1600
sökte	-1601
flydde	-1602
förtrö	-1603
mönstr	-1604
större	-1605
ahi	-1606
kia	-1607
nog	-1608
joja	-1609
stän	-1610
stäng	-1611
lägret	-1612
ställa	-1613
kunskap	-1614
främmande	-1615
syndoffer	-1616
pur	-1617
gräs	-1618
sägen	-1619
läppar	-1620
siklar	-1621
absalom	-1622
präster	-1623
utmarker	-1624
ias	-1625
iel	-1626
köp	-1627
berö	-1628
varar	-1629
älskade	-1630
kä	-1631
mju	-1632
ute	-1633
befä	-1634
bety	-1635
döma	-1636
kläd	-1637
stav	-1638
finner	-1639
jämväl	-1640
följande	-1641
invånare	-1642
mid	-1643
sål	-1644
post	-1645
unga	-1646
begra	-1647
bryta	-1648
stanna	-1649
förgöra	-1650
jonatan	-1651
sanning	-1652
ogudaktiga	-1653
kat	-1654
mis	-1655
öra	-1656
smäl	-1657
trol	-1658
väck	-1659
höllo	-1660
lands	-1661
sjung	-1662
släpp	-1663
berätt	-1664
slagna	-1665
vagnar	-1666
håg	-1667
kre	-1668
blyg	-1669
ropa	-1670
sked	-1671
tider	-1672
ammons	-1673
människobarn	-1674
barmhärtighet	-1675
bok	-1676
atur	-1677
kärl	-1678
vade	-1679
förgä	-1680
unden	-1681
ödmju	-1682
portar	-1683
jerobeam	-1684
morgonen	-1685
öt	-1686
hov	-1687
byte	-1688
spet	-1689
bröto	-1690
tunga	-1691
därvid	-1692
gilead	-1693
handen	-1694
räckte	-1695
rätter	-1696
stycke	-1697
bergsbyg	-1698
fördärva	-1699
utgjorde	-1700
föd	-1701
krä	-1702
likt	-1703
strä	-1704
fäkre	-1705
spill	-1706
dragit	-1707
inbygg	-1708
köttet	-1709
förvisso	-1710
fäkreatur	-1711
försoning	-1712
fångenskap	-1713
filistéernas	-1714
ir	-1715
fria	-1716
läto	-1717
basun	-1718
fasta	-1719
gåvor	-1720
planter	-1721
evangelium	-1722
eln	-1723
lös	-1724
alls	-1725
blin	-1726
elek	-1727
elje	-1728
sjuk	-1729
tält	-1730
öron	-1731
faris	-1732
otukt	-1733
skara	-1734
eljest	-1735
fjärran	-1736
egyptierna	-1737
församlingen	-1738
döm	-1739
lam	-1740
pan	-1741
dets	-1742
lögn	-1743
arken	-1744
funnos	-1745
syndat	-1746
förbann	-1747
styggelse	-1748
di	-1749
ym	-1750
bock	-1751
djup	-1752
kors	-1753
sela	-1754
sias	-1755
arons	-1756
föllo	-1757
helst	-1758
sauls	-1759
faller	-1760
förstå	-1761
herres	-1762
aftonen	-1763
utanför	-1764
sök	-1765
eser	-1766
styr	-1767
antal	-1768
förtr	-1769
överträ	-1770
hin	-1771
ida	-1772
ahab	-1773
bröt	-1774
psal	-1775
rädd	-1776
litet	-1777
seger	-1778
veten	-1779
förtär	-1780
uppteck	-1781
ingången	-1782
välbehag	-1783
eda	-1784
sto	-1785
▁».	-1786
gibe	-1787
keru	-1788
norr	-1789
ändå	-1790
elden	-1791
elisa	-1792
omskur	-1793
viljen	-1794
ack	-1795
gad	-1796
ton	-1797
moln	-1798
stof	-1799
skriv	-1800
fjärde	-1801
älskar	-1802
skyldig	-1803
båd	-1804
dal	-1805
ele	-1806
göm	-1807
häp	-1808
ram	-1809
väsen	-1810
fäders	-1811
hållen	-1812
mantel	-1813
rikedom	-1814
tillika	-1815
regerade	-1816
ogudaktig	-1817
get	-1818
seg	-1819
yll	-1820
buka	-1821
regn	-1822
rena	-1823
sken	-1824
skor	-1825
utom	-1826
samla	-1827
slogo	-1828
snart	-1829
kunnen	-1830
nebuka	-1831
lägrade	-1832
glö	-1833
jis	-1834
rov	-1835
skett	-1836
vredes	-1837
vänder	-1838
efraims	-1839
pe	-1840
tom	-1841
brev	-1842
vänd	-1843
trolö	-1844
bäcken	-1845
höjden	-1846
städerna	-1847
inbyggare	-1848
ai	-1849
yng	-1850
amor	-1851
fett	-1852
iska	-1853
mans	-1854
druck	-1855
stiga	-1856
tänka	-1857
drager	-1858
människors	-1859
tte	-1860
éer	-1861
aser	-1862
buro	-1863
dela	-1864
vild	-1865
söder	-1866
söker	-1867
evighet	-1868
konunga	-1869
vilkens	-1870
familjer	-1871
bal	-1872
båg	-1873
dån	-1874
hes	-1875
spå	-1876
jubel	-1877
orena	-1878
ringa	-1879
öppna	-1880
bränna	-1881
förhär	-1882
gäller	-1883
visste	-1884
inmönstr	-1885
hövdingar	-1886
oli	-1887
orda	-1888
resa	-1889
driva	-1890
därom	-1891
lärde	-1892
stund	-1893
bestän	-1894
domare	-1895
skaror	-1896
lärjungarna	-1897
rättfärdige	-1898
dre	-1899
fel	-1900
mal	-1901
bild	-1902
dörr	-1903
gade	-1904
gäll	-1905
haft	-1906
kung	-1907
vars	-1908
beläg	-1909
invid	-1910
mätta	-1911
såväl	-1912
fåglar	-1913
mörker	-1914
slakta	-1915
landets	-1916
rättfärdiga	-1917
sör	-1918
pris	-1919
slår	-1920
åtta	-1921
dräpa	-1922
fulla	-1923
heter	-1924
talen	-1925
blodet	-1926
hälften	-1927
striden	-1928
kommande	-1929
ama	-1930
bot	-1931
bul	-1932
ddor	-1933
gärd	-1934
lida	-1935
pläg	-1936
moabs	-1937
skåda	-1938
längre	-1939
avgudar	-1940
samaria	-1941
ada	-1942
efa	-1943
kis	-1944
apost	-1945
förban	-1946
starka	-1947
upphöj	-1948
vingar	-1949
josafat	-1950
assyrien	-1951
orättfärdig	-1952
fe	-1953
hud	-1954
kön	-1955
prö	-1956
öde	-1957
elds	-1958
fint	-1959
gråt	-1960
häng	-1961
kunn	-1962
livs	-1963
skug	-1964
tapp	-1965
avkom	-1966
naden	-1967
visar	-1968
daniel	-1969
faraos	-1970
mäktig	-1971
spillo	-1972
strida	-1973
frukten	-1974
kanaans	-1975
uppväck	-1976
benjamins	-1977
kald	-1978
röda	-1979
lyfte	-1980
ordet	-1981
ropar	-1982
delser	-1983
utvalt	-1984
fursten	-1985
offrade	-1986
somliga	-1987
fruktade	-1988
dröm	-1989
fing	-1990
gali	-1991
ihåg	-1992
redo	-1993
rött	-1994
smor	-1995
bevisa	-1996
smälek	-1997
rökelse	-1998
bs	-1999
era	-2000
öga	-2001
▁?'	-2002
gyll	-2003
nens	-2004
rent	-2005
vagn	-2006
äter	-2007
avdel	-2008
bedri	-2009
folks	-2010
ledes	-2011
sluta	-2012
förtäl	-2013
graven	-2014
staren	-2015
upptän	-2016
varder	-2017
folkets	-2018
huvuden	-2019
välsigna	-2020
berättade	-2021
profetera	-2022
lor	-2023
tim	-2024
illa	-2025
sjön	-2026
tukt	-2027
vind	-2028
dräkt	-2029
evärd	-2030
farit	-2031
förbi	-2032
ingar	-2033
sträv	-2034
dragen	-2035
förlåt	-2036
sitter	-2037
gyllene	-2038
ostraff	-2039
trofast	-2040
öppnade	-2041
församla	-2042
vandrade	-2043
beständigt	-2044
menigheten	-2045
slaktoffer	-2046
hat	-2047
kir	-2048
län	-2049
hast	-2050
ofta	-2051
skon	-2052
blygd	-2053
evigt	-2054
fikon	-2055
hända	-2056
tända	-2057
dräpte	-2058
frälsa	-2059
gående	-2060
moders	-2061
stilla	-2062
tankar	-2063
eleasar	-2064
gränsen	-2065
mästaren	-2066
därigenom	-2067
förbliver	-2068
tillbedja	-2069
dol	-2070
klo	-2071
ses	-2072
sna	-2073
jeri	-2074
nytt	-2075
dalen	-2076
olyck	-2077
räcka	-2078
skepp	-2079
bliven	-2080
dennes	-2081
gången	-2082
heligt	-2083
ondska	-2084
träden	-2085
utöver	-2086
havande	-2087
svärdet	-2088
människosonen	-2089
op	-2090
böj	-2091
vek	-2092
åto	-2093
doms	-2094
fter	-2095
omål	-2096
smör	-2097
vack	-2098
blick	-2099
förra	-2100
gälla	-2101
sidor	-2102
stare	-2103
drabba	-2104
skedde	-2105
gensträv	-2106
ogudaktige	-2107
tabernaklet	-2108
abi	-2109
ana	-2110
arv	-2111
bju	-2112
blå	-2113
nit	-2114
vak	-2115
vir	-2116
anja	-2117
hörn	-2118
svag	-2119
beder	-2120
betel	-2121
blott	-2122
givet	-2123
hjord	-2124
kände	-2125
liban	-2126
muren	-2127
ditupp	-2128
imelek	-2129
josefs	-2130
ovänner	-2131
förtryck	-2132
tillhöra	-2133
tillflykt	-2134
förtörnelse	-2135
aka	-2136
gry	-2137
väv	-2138
kron	-2139
råda	-2140
bröst	-2141
kanan	-2142
bringa	-2143
förakt	-2144
förman	-2145
galile	-2146
hållit	-2147
starna	-2148
mörkret	-2149
tjänares	-2150
likaledes	-2151
myckenhet	-2152
kai	-2153
års	-2154
bådo	-2155
hata	-2156
mord	-2157
rikt	-2158
öken	-2159
byggt	-2160
domar	-2161
prisa	-2162
unnit	-2163
bevara	-2164
kallas	-2165
tänker	-2166
därinne	-2167
förstör	-2168
främlingar	-2169
förstfödde	-2170
eb	-2171
▁(	-2172
byl	-2173
elia	-2174
grav	-2175
möda	-2176
sutt	-2177
tjug	-2178
ödem	-2179
babyl	-2180
göras	-2181
judas	-2182
sikem	-2183
simon	-2184
spjut	-2185
synag	-2186
fallit	-2187
förbar	-2188
hjälpa	-2189
klippa	-2190
krossa	-2191
vinden	-2192
bredvid	-2193
månader	-2194
främling	-2195
ax	-2196
jä	-2197
äd	-2198
dad	-2199
guda	-2200
joas	-2201
rika	-2202
vika	-2203
änga	-2204
sakar	-2205
ttaga	-2206
väster	-2207
sjuttio	-2208
höjderna	-2209
styggelser	-2210
välsignade	-2211
bus	-2212
cka	-2213
kim	-2214
belä	-2215
blom	-2216
goss	-2217
mask	-2218
angri	-2219
brott	-2220
givas	-2221
helga	-2222
brutit	-2223
djuret	-2224
ljuset	-2225
strids	-2226
sänder	-2227
abimelek	-2228
angående	-2229
drickoffer	-2230
lut	-2231
esau	-2232
horn	-2233
hölj	-2234
klar	-2235
sera	-2236
tjur	-2237
vikt	-2238
åsyn	-2239
ödel	-2240
dryck	-2241
vilse	-2242
honung	-2243
lovade	-2244
städes	-2245
betryck	-2246
gjordes	-2247
ljussta	-2248
mästare	-2249
abrahams	-2250
hungersn	-2251
ars	-2252
bak	-2253
drö	-2254
rak	-2255
säl	-2256
lyck	-2257
rytt	-2258
sköl	-2259
skön	-2260
darna	-2261
frimo	-2262
hände	-2263
trösk	-2264
vapen	-2265
ålder	-2266
bedröv	-2267
hebron	-2268
hemsök	-2269
tjurar	-2270
utföra	-2271
vandrar	-2272
upprätta	-2273
varifrån	-2274
eldsoffer	-2275
ku	-2276
pat	-2277
färd	-2278
förg	-2279
hämn	-2280
jubl	-2281
mika	-2282
suck	-2283
tram	-2284
tror	-2285
glada	-2286
murar	-2287
stjän	-2288
äkten	-2289
djuren	-2290
husets	-2291
sätter	-2292
galileen	-2293
tungomål	-2294
förgården	-2295
konungars	-2296
människan	-2297
sanningen	-2298
äktenskap	-2299
ogudaktigas	-2300
förskräckelse	-2301
uk	-2302
båt	-2303
osy	-2304
por	-2305
vna	-2306
våg	-2307
borg	-2308
förm	-2309
gent	-2310
läck	-2311
lägg	-2312
mörk	-2313
även	-2314
abner	-2315
fäste	-2316
storm	-2317
titen	-2318
furste	-2319
förfär	-2320
förråd	-2321
smorde	-2322
trodde	-2323
bittida	-2324
förutom	-2325
förvand	-2326
skänker	-2327
väsende	-2328
fängelse	-2329
omtalade	-2330
bergsbygd	-2331
tackoffer	-2332
alltsammans	-2333
skriftlärde	-2334
sia	-2335
bens	-2336
bile	-2337
ktet	-2338
vred	-2339
ätta	-2340
femte	-2341
handa	-2342
kamel	-2343
bedjen	-2344
bileam	-2345
bosatt	-2346
helgat	-2347
änglar	-2348
ångest	-2349
översteprästerna	-2350
ris	-2351
éen	-2352
▁»;	-2353
foro	-2354
helt	-2355
lyft	-2356
nuft	-2357
otvå	-2358
skål	-2359
abram	-2360
basan	-2361
fröjd	-2362
föras	-2363
judar	-2364
palat	-2365
begått	-2366
damask	-2367
förden	-2368
gjorda	-2369
kastat	-2370
ovanpå	-2371
seende	-2372
vänden	-2373
ängeln	-2374
förtära	-2375
markens	-2376
visning	-2377
babyloni	-2378
damaskus	-2379
äktenskaps	-2380
fåfänglighet	-2381
nö	-2382
nal	-2383
pas	-2384
skt	-2385
ljuv	-2386
lågo	-2387
pass	-2388
vänt	-2389
växa	-2390
borta	-2391
gräns	-2392
gästa	-2393
inner	-2394
löfte	-2395
mordo	-2396
predi	-2397
psalm	-2398
tiska	-2399
besvär	-2400
föddes	-2401
kallar	-2402
befästa	-2403
budskap	-2404
förfölj	-2405
huvudet	-2406
förbliva	-2407
dödsriket	-2408
trofasthet	-2409
välsignelse	-2410
lot	-2411
sko	-2412
fäst	-2413
jude	-2414
kast	-2415
lova	-2416
tänk	-2417
givna	-2418
herde	-2419
tacka	-2420
trygg	-2421
åsnor	-2422
östra	-2423
beskär	-2424
lyssna	-2425
lägger	-2426
trälar	-2427
fruktar	-2428
hjärtat	-2429
oomskur	-2430
predika	-2431
salomos	-2432
skatter	-2433
frambära	-2434
oförnuft	-2435
träffade	-2436
övergivit	-2437
jat	-2438
tas	-2439
dnes	-2440
ffar	-2441
krön	-2442
lukt	-2443
matt	-2444
sikt	-2445
utty	-2446
ernas	-2447
fören	-2448
kades	-2449
linne	-2450
mätte	-2451
orent	-2452
sutto	-2453
vädur	-2454
nelsen	-2455
samhet	-2456
sjunga	-2457
slagit	-2458
tretti	-2459
utgjut	-2460
väldig	-2461
dnessar	-2462
mäktiga	-2463
evärdlig	-2464
händerna	-2465
kanhända	-2466
ningsmän	-2467
skyndade	-2468
undervisa	-2469
brännoffret	-2470
nebukadnessar	-2471
tu	-2472
fog	-2473
gul	-2474
plö	-2475
såt	-2476
elän	-2477
hård	-2478
höga	-2479
isma	-2480
rakt	-2481
rann	-2482
vete	-2483
vist	-2484
ditin	-2485
ester	-2486
funno	-2487
slipp	-2488
tonde	-2489
fattig	-2490
förnäm	-2491
mmelse	-2492
iternas	-2493
mäktige	-2494
synagog	-2495
sabbaten	-2496
fördenskull	-2497
sångmästaren	-2498
ci	-2499
brä	-2500
iak	-2501
jde	-2502
job	-2503
ked	-2504
amen	-2505
byar	-2506
fisk	-2507
hugg	-2508
inre	-2509
kamm	-2510
ceder	-2511
delar	-2512
hedna	-2513
komme	-2514
latus	-2515
liten	-2516
nådig	-2517
räkna	-2518
sadok	-2519
sinne	-2520
förvär	-2521
vilkas	-2522
fattiga	-2523
förstår	-2524
händers	-2525
kroppen	-2526
ordning	-2527
pilatus	-2528
mordokai	-2529
småboskap	-2530
förståndig	-2531
upptecknat	-2532
babyloniske	-2533
döp	-2534
gan	-2535
gil	-2536
rym	-2537
vel	-2538
beer	-2539
brud	-2540
dans	-2541
drar	-2542
född	-2543
garn	-2544
gjut	-2545
jehu	-2546
väll	-2547
domen	-2548
drott	-2549
fullt	-2550
fåren	-2551
lehem	-2552
mjölk	-2553
orter	-2554
sebul	-2555
unnen	-2556
midjan	-2557
plundr	-2558
stjärn	-2559
stötte	-2560
helgade	-2561
samlade	-2562
tjänade	-2563
vingård	-2564
detsamma	-2565
världens	-2566
övertäck	-2567
hemlighet	-2568
upptändes	-2569
förkunnade	-2570
gudsmannen	-2571
jef	-2572
ket	-2573
nya	-2574
slö	-2575
besp	-2576
from	-2577
gods	-2578
otro	-2579
delen	-2580
flytt	-2581
förel	-2582
hatar	-2583
reste	-2584
skada	-2585
tamar	-2586
träng	-2587
tyrus	-2588
barnen	-2589
blotta	-2590
förlos	-2591
jeriko	-2592
lämnat	-2593
trädet	-2594
fullkom	-2595
hemsöka	-2596
kroppar	-2597
messias	-2598
vinning	-2599
ansikten	-2600
skaffade	-2601
araméerna	-2602
tjänstgör	-2603
fariséerna	-2604
bö	-2605
löv	-2606
väp	-2607
bala	-2608
band	-2609
fort	-2610
gads	-2611
ståt	-2612
äger	-2613
maria	-2614
orten	-2615
sköld	-2616
synda	-2617
varna	-2618
avfäll	-2619
dörren	-2620
frågar	-2621
förvar	-2622
kallat	-2623
purpur	-2624
rubens	-2625
räknas	-2626
klädnad	-2627
libanon	-2628
tjänste	-2629
vädurar	-2630
överflö	-2631
bröderna	-2632
försking	-2633
bedrövelse	-2634
konungarna	-2635
ks	-2636
pu	-2637
su	-2638
gag	-2639
kin	-2640
ler	-2641
nät	-2642
anat	-2643
gren	-2644
reha	-2645
amale	-2646
brunn	-2647
bästa	-2648
fästa	-2649
joram	-2650
råder	-2651
bjuder	-2652
förlor	-2653
förmår	-2654
glädja	-2655
gossen	-2656
herrar	-2657
sidkia	-2658
varmed	-2659
betyder	-2660
dottern	-2661
förakta	-2662
ryttare	-2663
rehabeam	-2664
sändebud	-2665
därutöver	-2666
kvinnorna	-2667
ala	-2668
ced	-2669
dru	-2670
saf	-2671
sod	-2672
bete	-2673
hals	-2674
kare	-2675
ljud	-2676
sker	-2677
flera	-2678
flick	-2679
ihjäl	-2680
krets	-2681
riken	-2682
anklag	-2683
dödade	-2684
familj	-2685
fiende	-2686
lammet	-2687
sextio	-2688
ställt	-2689
räddade	-2690
offereld	-2691
tillhörande	-2692
missgärningar	-2693
översteprästen	-2694
him	-2695
rit	-2696
behö	-2697
fjor	-2698
glöd	-2699
kort	-2700
lätt	-2701
ofem	-2702
ogär	-2703
pest	-2704
sema	-2705
seru	-2706
säll	-2707
ätte	-2708
anför	-2709
förmå	-2710
jisre	-2711
nader	-2712
närma	-2713
sista	-2714
sodom	-2715
vande	-2716
brände	-2717
fångar	-2718
följer	-2719
mankön	-2720
synden	-2721
söners	-2722
berömma	-2723
fattade	-2724
förlåta	-2725
skullen	-2726
enlighet	-2727
spetälska	-2728
avkomlingar	-2729
gos	-2730
grå	-2731
kry	-2732
käm	-2733
pil	-2734
vas	-2735
asaf	-2736
etio	-2737
fota	-2738
korn	-2739
påsk	-2740
sänd	-2741
bestå	-2742
hydda	-2743
rycka	-2744
rörde	-2745
upphä	-2746
etiopi	-2747
hoppas	-2748
livets	-2749
munnen	-2750
skilja	-2751
antalet	-2752
förstod	-2753
hämtade	-2754
uppstån	-2755
ödemark	-2756
eländiga	-2757
högtiden	-2758
iakttaga	-2759
strömmar	-2760
övermått	-2761
furstarna	-2762
främlingen	-2763
välbehaglig	-2764
ara	-2765
gal	-2766
pry	-2767
räd	-2768
syd	-2769
vik	-2770
ägo	-2771
höjd	-2772
ihop	-2773
ocka	-2774
skan	-2775
slöt	-2776
spän	-2777
tyck	-2778
barna	-2779
derna	-2780
dräpt	-2781
dödas	-2782
gärna	-2783
härom	-2784
konst	-2785
laban	-2786
lovad	-2787
oljan	-2788
sions	-2789
skänd	-2790
skära	-2791
ström	-2792
välde	-2793
beslut	-2794
draban	-2795
eligen	-2796
förbun	-2797
hyddor	-2798
sinnet	-2799
tjugut	-2800
tänder	-2801
vittne	-2802
fastmer	-2803
förundr	-2804
lydande	-2805
utgjuta	-2806
bättring	-2807
krossade	-2808
skickade	-2809
ståndakt	-2810
särskilt	-2811
jerobeams	-2812
undervisade	-2813
aln	-2814
bly	-2815
ela	-2816
kvi	-2817
las	-2818
lja	-2819
ves	-2820
äpp	-2821
drev	-2822
fred	-2823
gide	-2824
hjor	-2825
stöd	-2826
vise	-2827
andar	-2828
behöv	-2829
jelse	-2830
kläda	-2831
låtom	-2832
menar	-2833
plåga	-2834
profe	-2835
stoft	-2836
svårt	-2837
voren	-2838
barnet	-2839
bereda	-2840
fördri	-2841
syndar	-2842
hjärtas	-2843
stoftet	-2844
syndare	-2845
vällukt	-2846
ståndare	-2847
överträdelser	-2848
ky	-2849
bek	-2850
ged	-2851
myn	-2852
elja	-2853
gift	-2854
säck	-2855
änka	-2856
blods	-2857
burit	-2858
dömen	-2859
ftali	-2860
föret	-2861
gilea	-2862
hopen	-2863
innor	-2864
jebus	-2865
levan	-2866
loven	-2867
namns	-2868
berett	-2869
delade	-2870
frälst	-2871
häpnad	-2872
sjätte	-2873
altaren	-2874
bespott	-2875
däremot	-2876
fattige	-2877
naftali	-2878
orenhet	-2879
fienders	-2880
minnelse	-2881
ståthåll	-2882
förbannad	-2883
hövitsman	-2884
verkligen	-2885
övermåttan	-2886
inmönstrades	-2887
bb	-2888
dår	-2889
lån	-2890
noa	-2891
rad	-2892
rum	-2893
tav	-2894
tyg	-2895
bedr	-2896
hasa	-2897
hero	-2898
jämt	-2899
löft	-2900
pade	-2901
salt	-2902
stes	-2903
väkt	-2904
ätit	-2905
bekym	-2906
blått	-2907
fläck	-2908
fylla	-2909
klädd	-2910
utväl	-2911
velat	-2912
bryter	-2913
mindre	-2914
nödgas	-2915
räcker	-2916
rätten	-2917
tronen	-2918
folkens	-2919
förloss	-2920
herodes	-2921
isaskar	-2922
sabbats	-2923
folkslag	-2924
gästabud	-2925
tjänaren	-2926
keruberna	-2927
amoréernas	-2928
förbundsar	-2929
hungersnöd	-2930
ljusstaken	-2931
allsmäktige	-2932
begynnelsen	-2933
underlydande	-2934
drå	-2935
fön	-2936
ims	-2937
set	-2938
bena	-2939
dare	-2940
ford	-2941
glad	-2942
grön	-2943
gård	-2944
köpa	-2945
nads	-2946
omer	-2947
plet	-2948
sara	-2949
ssla	-2950
torr	-2951
dömer	-2952
heten	-2953
lunda	-2954
mötes	-2955
asarja	-2956
enligt	-2957
fältet	-2958
gården	-2959
likaså	-2960
person	-2961
sabbat	-2962
skjuta	-2963
slippa	-2964
stenen	-2965
tältet	-2966
bestämt	-2967
broders	-2968
hjältar	-2969
klippan	-2970
krönika	-2971
stycket	-2972
vinträd	-2973
förrätta	-2974
härefter	-2975
judarnas	-2976
tillfäll	-2977
underdån	-2978
förföljde	-2979
mörkblått	-2980
offergåva	-2981
huvudmännen	-2982
hövitsmännen	-2983
kn	-2984
nam	-2985
pal	-2986
ppa	-2987
tvi	-2988
▁'?	-2989
amas	-2990
båge	-2991
näst	-2992
strå	-2993
sökt	-2994
ttag	-2995
armar	-2996
bakom	-2997
behör	-2998
brett	-2999
gibea	-3000
haman	-3001
natan	-3002
skinn	-3003
varom	-3004
gideon	-3005
havets	-3006
lotten	-3007
pelare	-3008
skapat	-3009
bosatte	-3010
innande	-3011
profeti	-3012
utvalda	-3013
alltjämt	-3014
begraven	-3015
därjämte	-3016
översten	-3017
välsignad	-3018
åminnelse	-3019
fotstycken	-3020
sammalunda	-3021
israeliterna	-3022
do	-3023
fas	-3024
ors	-3025
tår	-3026
vål	-3027
yra	-3028
ytt	-3029
ebja	-3030
isai	-3031
lysa	-3032
lärt	-3033
löse	-3034
rott	-3035
ssar	-3036
urit	-3037
åsna	-3038
edoms	-3039
fyrti	-3040
komst	-3041
ljung	-3042
lycka	-3043
utför	-3044
utski	-3045
vinet	-3046
ägare	-3047
elsens	-3048
filipp	-3049
fördol	-3050
gilgal	-3051
ingång	-3052
mmarna	-3053
ringar	-3054
skräck	-3055
skugga	-3056
tuktan	-3057
arbetet	-3058
berätta	-3059
jojakim	-3060
nitälsk	-3061
plägade	-3062
templet	-3063
väldiga	-3064
vänstra	-3065
kärleken	-3066
någonsin	-3067
invånarna	-3068
tillbehör	-3069
uppenbarat	-3070
förbannelse	-3071
ogudaktighet	-3072
beh	-3073
dub	-3074
gir	-3075
hju	-3076
mel	-3077
pin	-3078
sma	-3079
tig	-3080
brut	-3081
döme	-3082
jesa	-3083
käll	-3084
känt	-3085
ovän	-3086
silo	-3087
skäl	-3088
skåd	-3089
svek	-3090
utta	-3091
besin	-3092
förne	-3093
hugga	-3094
husen	-3095
merar	-3096
modig	-3097
samme	-3098
söken	-3099
upphö	-3100
visst	-3101
avguda	-3102
fattas	-3103
fröjda	-3104
ismael	-3105
jungfr	-3106
styrka	-3107
tappra	-3108
träffa	-3109
tågade	-3110
förklar	-3111
högtids	-3112
jisreel	-3113
skrivit	-3114
bestämda	-3115
förlåten	-3116
huvudmän	-3117
tjugufem	-3118
allahanda	-3119
myndighet	-3120
offergärd	-3121
inmönstrade	-3122
ms	-3123
ub	-3124
eus	-3125
kol	-3126
rot	-3127
sur	-3128
bäva	-3129
dnad	-3130
grop	-3131
gäng	-3132
oliv	-3133
seir	-3134
skog	-3135
aktar	-3136
balak	-3137
bruka	-3138
båten	-3139
drevo	-3140
dömet	-3141
faren	-3142
föder	-3143
guden	-3144
hemma	-3145
leder	-3146
lutit	-3147
månad	-3148
ofärd	-3149
rakel	-3150
tarna	-3151
undfå	-3152
benaja	-3153
främst	-3154
förtor	-3155
judeen	-3156
klädde	-3157
saliga	-3158
allting	-3159
behöver	-3160
föremål	-3161
grunden	-3162
sakarja	-3163
vittnen	-3164
anförare	-3165
överallt	-3166
förgjorde	-3167
härskaror	-3168
hövdingen	-3169
vingårdar	-3170
kananéerna	-3171
föreskrivet	-3172
gensträviga	-3173
hövitsmannen	-3174
undervisning	-3175
▁)	-3176
efo	-3177
uns	-3178
kain	-3179
leda	-3180
oxar	-3181
rama	-3182
säng	-3183
vall	-3184
ädla	-3185
betän	-3186
boken	-3187
breda	-3188
envar	-3189
följd	-3190
hanan	-3191
hämnd	-3192
likna	-3193
norra	-3194
plöts	-3195
ruben	-3196
simei	-3197
sjuka	-3198
begjut	-3199
behöva	-3200
besatt	-3201
budbär	-3202
förord	-3203
tillsy	-3204
vittna	-3205
husfolk	-3206
kammare	-3207
väduren	-3208
förbarma	-3209
förlossa	-3210
gräshopp	-3211
gudstjän	-3212
tillfälle	-3213
vedergäll	-3214
tjänarinna	-3215
drabanterna	-3216
förskräckta	-3217
orättfärdighet	-3218
ers	-3219
jav	-3220
kna	-3221
mag	-3222
ägg	-3223
halv	-3224
kale	-3225
kalk	-3226
mäng	-3227
pres	-3228
spri	-3229
stäm	-3230
värn	-3231
assur	-3232
bredd	-3233
bring	-3234
jutit	-3235
krona	-3236
ktiga	-3237
mispa	-3238
saken	-3239
satan	-3240
uttyd	-3241
högste	-3242
jesaja	-3243
kreter	-3244
lämnas	-3245
skynda	-3246
släppa	-3247
stadga	-3248
svarar	-3249
ungdom	-3250
västra	-3251
begärde	-3252
behålla	-3253
fränder	-3254
israeli	-3255
omvända	-3256
tillred	-3257
väpnade	-3258
åttonde	-3259
dörrvakt	-3260
sekreter	-3261
styckena	-3262
talenter	-3263
amoréerna	-3264
hedningar	-3265
smörjelse	-3266
särskilda	-3267
fullbordas	-3268
stjärnorna	-3269
avdelningar	-3270
bergsbygden	-3271
förbundsark	-3272
välluktande	-3273
konungshuset	-3274
äktenskapsbrott	-3275
ib	-3276
kla	-3277
mme	-3278
mon	-3279
sis	-3280
bott	-3281
dråp	-3282
klok	-3283
kull	-3284
segg	-3285
topp	-3286
tvär	-3287
esaus	-3288
fånga	-3289
födda	-3290
gripa	-3291
hadad	-3292
härpå	-3293
kakor	-3294
räckt	-3295
skaff	-3296
syner	-3297
värde	-3298
åkern	-3299
aktade	-3300
amasja	-3301
angrip	-3302
arbeta	-3303
bitter	-3304
blygas	-3305
bröden	-3306
djupet	-3307
falska	-3308
fordom	-3309
föröka	-3310
herdar	-3311
hesbon	-3312
semaja	-3313
simson	-3314
själar	-3315
skaran	-3316
åkalla	-3317
beläten	-3318
boskaps	-3319
dagarna	-3320
gileads	-3321
liknade	-3322
pelarna	-3323
straffa	-3324
utrotas	-3325
vänster	-3326
framgent	-3327
förfölja	-3328
trygghet	-3329
hövitsmän	-3330
svärdsegg	-3331
kaldéernas	-3332
visserligen	-3333
överstepräst	-3334
ät	-3335
bom	-3336
hil	-3337
oro	-3338
plå	-3339
sai	-3340
sed	-3341
ahit	-3342
alja	-3343
förr	-3344
gagn	-3345
grät	-3346
jare	-3347
kant	-3348
keha	-3349
lopp	-3350
muns	-3351
mäns	-3352
röra	-3353
språ	-3354
tåga	-3355
ätas	-3356
ahabs	-3357
bered	-3358
betal	-3359
bords	-3360
böjde	-3361
elias	-3362
frisk	-3363
fritt	-3364
förhä	-3365
haden	-3366
hungr	-3367
intog	-3368
pilar	-3369
sihon	-3370
träff	-3371
tukta	-3372
utkrä	-3373
yttre	-3374
änden	-3375
anslag	-3376
betäck	-3377
blinda	-3378
bordet	-3379
bredde	-3380
kirjat	-3381
löften	-3382
skriva	-3383
ödelag	-3384
ögonen	-3385
härliga	-3386
jungfru	-3387
trolösa	-3388
upprätt	-3389
ödmjuka	-3390
härifrån	-3391
härskara	-3392
kallades	-3393
slaktade	-3394
brinnande	-3395
förbränna	-3396
storligen	-3397
djä	-3398
kru	-3399
lug	-3400
sir	-3401
sus	-3402
vul	-3403
öva	-3404
bett	-3405
cken	-3406
hall	-3407
ligg	-3408
länd	-3409
mmen	-3410
måst	-3411
uria	-3412
vett	-3413
vida	-3414
baner	-3415
följt	-3416
huden	-3417
höger	-3418
lägra	-3419
rosen	-3420
salen	-3421
skrym	-3422
skörd	-3423
slätt	-3424
snara	-3425
trång	-3426
ullen	-3427
vänta	-3428
begiva	-3429
djävul	-3430
dyrbar	-3431
förmer	-3432
guldet	-3433
handla	-3434
kamrar	-3435
kunnat	-3436
slutit	-3437
vandel	-3438
vinner	-3439
befallt	-3440
osyrade	-3441
sporten	-3442
stänger	-3443
tillbör	-3444
ävensom	-3445
cederträ	-3446
filippus	-3447
fötterna	-3448
kamrarna	-3449
lyssnade	-3450
molnskyn	-3451
uppstått	-3452
yttersta	-3453
årsgamla	-3454
avdelning	-3455
drottning	-3456
välsignat	-3457
leviternas	-3458
tabernakel	-3459
tillstädes	-3460
ak	-3461
jt	-3462
vu	-3463
ern	-3464
fre	-3465
inv	-3466
isk	-3467
maa	-3468
mos	-3469
näp	-3470
oxe	-3471
ved	-3472
abia	-3473
ares	-3474
dres	-3475
famn	-3476
hell	-3477
högg	-3478
raka	-3479
råds	-3480
ägde	-3481
ödda	-3482
blind	-3483
ensam	-3484
fatta	-3485
föräl	-3486
hälsa	-3487
jubla	-3488
lösen	-3489
skrev	-3490
stått	-3491
södra	-3492
tårar	-3493
undra	-3494
utsag	-3495
ändar	-3496
betala	-3497
dödens	-3498
fästen	-3499
jojada	-3500
kastar	-3501
ljudet	-3502
nalkas	-3503
nionde	-3504
ryktet	-3505
samari	-3506
trolös	-3507
brunnen	-3508
dressar	-3509
dyrbara	-3510
frivill	-3511
frälsar	-3512
gudarna	-3513
hjordar	-3514
lidande	-3515
penning	-3516
sjungen	-3517
ställen	-3518
utvalde	-3519
vandrat	-3520
befallde	-3521
begjutet	-3522
övergiva	-3523
förbundet	-3524
förkunnat	-3525
förnämsta	-3526
förstfött	-3527
tillrätta	-3528
förtröstar	-3529
moderlivet	-3530
tiondedels	-3531
upptecknade	-3532
överträdelse	-3533
nebukadressar	-3534
bat	-3535
buk	-3536
dor	-3537
kej	-3538
rab	-3539
jaga	-3540
knän	-3541
kära	-3542
mare	-3543
möta	-3544
rebe	-3545
sall	-3546
städ	-3547
trum	-3548
vita	-3549
angår	-3550
baals	-3551
benen	-3552
borde	-3553
duvor	-3554
dårar	-3555
falsk	-3556
innas	-3557
kötts	-3558
lorna	-3559
lyfta	-3560
strar	-3561
tröst	-3562
utplå	-3563
välan	-3564
begrov	-3565
bockar	-3566
botade	-3567
brödet	-3568
ditned	-3569
offren	-3570
rening	-3571
räddat	-3572
sattes	-3573
skörde	-3574
stoden	-3575
störta	-3576
tränga	-3577
uppsåt	-3578
vunnit	-3579
väggen	-3580
bevarar	-3581
dricker	-3582
frambär	-3583
frälsta	-3584
gammalt	-3585
gedalja	-3586
kameler	-3587
lovligt	-3588
sköldar	-3589
stadens	-3590
stående	-3591
trumpet	-3592
uppstod	-3593
österut	-3594
beslutit	-3595
kläderna	-3596
länderna	-3597
portarna	-3598
straffas	-3599
ägodelar	-3600
kaldéerna	-3601
plötsligt	-3602
stridbara	-3603
sydlandet	-3604
uppenbara	-3605
vedergälla	-3606
uppenbarade	-3607
vittnesbördet	-3608
cyp	-3609
dab	-3610
kys	-3611
lin	-3612
ryg	-3613
spr	-3614
tad	-3615
tär	-3616
uja	-3617
vde	-3618
ypp	-3619
grip	-3620
lita	-3621
nitt	-3622
sien	-3623
sinn	-3624
spel	-3625
vilo	-3626
änkt	-3627
allas	-3628
arter	-3629
beser	-3630
böner	-3631
börda	-3632
högre	-3633
ledde	-3634
märke	-3635
månen	-3636
nasar	-3637
sköna	-3638
stöte	-3639
sålde	-3640
sörja	-3641
veros	-3642
vålla	-3643
bestån	-3644
delsen	-3645
dubbel	-3646
flytta	-3647
gibeon	-3648
hållas	-3649
lemmar	-3650
märkte	-3651
måltid	-3652
svurit	-3653
utgöra	-3654
visdom	-3655
begrava	-3656
dagliga	-3657
däröver	-3658
förbrän	-3659
förgäta	-3660
handlat	-3661
skaffar	-3662
sträcka	-3663
frälsare	-3664
försmäkt	-3665
tillbådo	-3666
utskifta	-3667
utväljer	-3668
ahasveros	-3669
belägrade	-3670
sorgdräkt	-3671
apostlarna	-3672
förundrade	-3673
purpurrött	-3674
avfällighet	-3675
beståndande	-3676
rättfärdighetens	-3677
gö	-3678
bri	-3679
dod	-3680
jet	-3681
met	-3682
sjö	-3683
spi	-3684
tur	-3685
▁'.	-3686
adon	-3687
bliv	-3688
bund	-3689
elam	-3690
häst	-3691
hårt	-3692
nåda	-3693
obed	-3694
svår	-3695
veck	-3696
äkta	-3697
övre	-3698
befäl	-3699
betes	-3700
dödsk	-3701
eviga	-3702
femti	-3703
finge	-3704
gråta	-3705
jande	-3706
karna	-3707
lagan	-3708
levit	-3709
lycko	-3710
längd	-3711
lögna	-3712
ramot	-3713
stöta	-3714
säker	-3715
vakna	-3716
vikit	-3717
visat	-3718
växer	-3719
växte	-3720
andras	-3721
bugade	-3722
dårakt	-3723
dörrar	-3724
finger	-3725
förgry	-3726
gläder	-3727
grenar	-3728
hälsar	-3729
kejsar	-3730
lyfter	-3731
lämnar	-3732
månads	-3733
ryckte	-3734
sjutti	-3735
stolen	-3736
tjuren	-3737
tjänat	-3738
trösta	-3739
andarna	-3740
avkomma	-3741
ebjatar	-3742
flickan	-3743
platser	-3744
prisade	-3745
räkning	-3746
ungtjur	-3747
bekymmer	-3748
berättat	-3749
framgång	-3750
fåglarna	-3751
förbanna	-3752
förgäves	-3753
förtälja	-3754
jungfrur	-3755
kastning	-3756
skriften	-3757
störtade	-3758
tillstad	-3759
vederkvi	-3760
förkastat	-3761
förstling	-3762
helgedoms	-3763
nitälskan	-3764
oomskurna	-3765
dödsklagan	-3766
orenlighet	-3767
ostrafflig	-3768
skuldoffer	-3769
hövdingarna	-3770
penningarna	-3771
sabbatsdagen	-3772
efterkommande	-3773
--	-3774
rs	-3775
deg	-3776
gom	-3777
jed	-3778
nio	-3779
pad	-3780
sib	-3781
▁»?	-3782
brok	-3783
ebin	-3784
eden	-3785
glan	-3786
grep	-3787
heti	-3788
hets	-3789
löst	-3790
neba	-3791
nuns	-3792
spär	-3793
äten	-3794
akaci	-3795
begår	-3796
bjuda	-3797
bleve	-3798
bojor	-3799
brist	-3800
forna	-3801
gjuta	-3802
grann	-3803
grepo	-3804
hamat	-3805
källa	-3806
netan	-3807
vakta	-3808
yngre	-3809
änkor	-3810
öppet	-3811
▁----	-3812
avskil	-3813
begåvo	-3814
betyda	-3815
fettet	-3816
flyter	-3817
frågen	-3818
förste	-3819
hallel	-3820
insikt	-3821
mottag	-3822
nelser	-3823
omgjor	-3824
skörda	-3825
starkt	-3826
stigar	-3827
tjänen	-3828
uppslu	-3829
vinnas	-3830
ältets	-3831
ämbete	-3832
öjligt	-3833
dårskap	-3834
fyrfota	-3835
förströ	-3836
förvill	-3837
hustrun	-3838
rebecka	-3839
stunden	-3840
tacksäg	-3841
terebin	-3842
hörsamma	-3843
räddning	-3844
sångarna	-3845
tillsade	-3846
tillstäd	-3847
vilddjur	-3848
avkomling	-3849
människas	-3850
stötesten	-3851
tillhörde	-3852
barmhärtig	-3853
förhärliga	-3854
förskräckt	-3855
fruktansvär	-3856
förståndiga	-3857
himmelriket	-3858
ningsmännen	-3859
småboskapen	-3860
vittnesbördets	-3861
tå	-3862
vt	-3863
aim	-3864
bna	-3865
fun	-3866
gol	-3867
grö	-3868
ivr	-3869
jar	-3870
kos	-3871
ror	-3872
örn	-3873
bada	-3874
dagg	-3875
dåre	-3876
döpa	-3877
elns	-3878
gavs	-3879
sido	-3880
snör	-3881
unge	-3882
utgå	-3883
vift	-3884
vägg	-3885
allra	-3886
baesa	-3887
buden	-3888
budet	-3889
grott	-3890
gröda	-3891
kaleb	-3892
lidan	-3893
ljuda	-3894
naken	-3895
njuta	-3896
pelar	-3897
sidon	-3898
stjär	-3899
stret	-3900
synes	-3901
säden	-3902
väder	-3903
vålds	-3904
åkall	-3905
åttio	-3906
består	-3907
brudgu	-3908
druvor	-3909
fromma	-3910
förhus	-3911
förvir	-3912
ganska	-3913
helgar	-3914
hindra	-3915
hälsen	-3916
högmod	-3917
josias	-3918
kännen	-3919
räknat	-3920
samlar	-3921
stolta	-3922
akaciet	-3923
begynna	-3924
dragare	-3925
drömmen	-3926
därnäst	-3927
härtill	-3928
johanan	-3929
skaffen	-3930
upphöjd	-3931
ansiktet	-3932
arbetade	-3933
barnabas	-3934
högtider	-3935
korsfäst	-3936
liknelse	-3937
manasses	-3938
plantera	-3939
utrotade	-3940
änglarna	-3941
överdrog	-3942
överflöd	-3943
fullborda	-3944
förkunnar	-3945
rosenrött	-3946
berömmelse	-3947
fullbordan	-3948
gudstjänst	-3949
tillstadde	-3950
motståndare	-3951
yx	-3952
amn	-3953
ant	-3954
arn	-3955
ddo	-3956
fen	-3957
göt	-3958
lea	-3959
nju	-3960
når	-3961
besö	-3962
esra	-3963
falt	-3964
inäl	-3965
känd	-3966
like	-3967
nord	-3968
ussi	-3969
vari	-3970
vård	-3971
aktat	-3972
akten	-3973
avund	-3974
eiska	-3975
gamle	-3976
gemen	-3977
häpna	-3978
jefta	-3979
josia	-3980
lande	-3981
maced	-3982
melek	-3983
orden	-3984
ormen	-3985
språk	-3986
still	-3987
stört	-3988
tagas	-3989
törst	-3990
varde	-3991
adonia	-3992
betjän	-3993
framåt	-3994
försmä	-3995
godhet	-3996
hellre	-3997
kallad	-3998
kanten	-3999
kedjor	-4000
kärlen	-4001
lärare	-4002
ofrukt	-4003
omskär	-4004
sallum	-4005
samlat	-4006
sträng	-4007
stänka	-4008
tarsis	-4009
täckes	-4010
tänken	-4011
vagnen	-4012
värdig	-4013
älskat	-4014
borgare	-4015
fienden	-4016
hananja	-4017
hjorden	-4018
inälvor	-4019
judiska	-4020
kiterna	-4021
meraris	-4022
räknade	-4023
sebaots	-4024
skriver	-4025
slätten	-4026
tecknet	-4027
upphöjt	-4028
anseende	-4029
dörrarna	-4030
hjärtans	-4031
macedoni	-4032
psaltare	-4033
särskild	-4034
vadhelst	-4035
akacieträ	-4036
förtäljde	-4037
halleluja	-4038
hedmarken	-4039
ögonblick	-4040
profeterade	-4041
skändlighet	-4042
befallningar	-4043
sekreteraren	-4044
tjänstgöring	-4045
sc	-4046
aja	-4047
bla	-4048
efi	-4049
gap	-4050
ise	-4051
mil	-4052
mät	-4053
sni	-4054
spä	-4055
stu	-4056
ager	-4057
begå	-4058
ehas	-4059
hänt	-4060
itta	-4061
kran	-4062
käre	-4063
köpt	-4064
löpa	-4065
stas	-4066
stat	-4067
torn	-4068
andan	-4069
baruk	-4070
binda	-4071
hagel	-4072
heder	-4073
hänga	-4074
hären	-4075
lades	-4076
legat	-4077
medel	-4078
menen	-4079
rådde	-4080
rådet	-4081
skott	-4082
smäda	-4083
stjäl	-4084
talas	-4085
tomma	-4086
troll	-4087
ätter	-4088
bilder	-4089
drucko	-4090
falskt	-4091
förgör	-4092
förval	-4093
gällde	-4094
hilkia	-4095
härlig	-4096
intaga	-4097
intogo	-4098
karmel	-4099
klädda	-4100
läggen	-4101
mesull	-4102
nästas	-4103
palats	-4104
plågor	-4105
skogen	-4106
sluter	-4107
syntes	-4108
sätten	-4109
alltför	-4110
egendom	-4111
kryddor	-4112
pinehas	-4113
skaffat	-4114
talrika	-4115
vandren	-4116
vattnen	-4117
behagade	-4118
handfyll	-4119
innersta	-4120
kvarleva	-4121
kvinnans	-4122
personer	-4123
stranden	-4124
vederfar	-4125
visheten	-4126
västerut	-4127
faderlöse	-4128
hednafolk	-4129
klädnaden	-4130
lovsjunga	-4131
predikade	-4132
stridsmän	-4133
tjugufyra	-4134
uppfyllda	-4135
förtörnade	-4136
spisoffret	-4137
tillbörligt	-4138
rättfärdigas	-4139
tj	-4140
hiv	-4141
kni	-4142
kus	-4143
log	-4144
mus	-4145
snö	-4146
vux	-4147
▁';	-4148
▁.)	-4149
abel	-4150
aska	-4151
boas	-4152
bäst	-4153
böja	-4154
evad	-4155
fält	-4156
kias	-4157
krar	-4158
stru	-4159
syss	-4160
tiga	-4161
vret	-4162
åren	-4163
bröll	-4164
gator	-4165
gömde	-4166
höjde	-4167
inbär	-4168
inseg	-4169
isaks	-4170
jämra	-4171
långa	-4172
missk	-4173
mängd	-4174
perna	-4175
plikt	-4176
pröva	-4177
safan	-4178
stick	-4179
tande	-4180
trapp	-4181
ugnen	-4182
utmed	-4183
vrång	-4184
ahasja	-4185
befäst	-4186
harpor	-4187
hunnit	-4188
källor	-4189
modiga	-4190
räddar	-4191
sikems	-4192
simeon	-4193
slagen	-4194
svärja	-4195
sånger	-4196
tidsål	-4197
törnen	-4198
vackla	-4199
älsken	-4200
äventy	-4201
bedriva	-4202
fjorton	-4203
frälste	-4204
förmana	-4205
hjälper	-4206
nasaret	-4207
sebulon	-4208
silvret	-4209
simeons	-4210
sjukdom	-4211
skrivna	-4212
spetsen	-4213
stannen	-4214
uppbygg	-4215
upphöja	-4216
övermod	-4217
bedrövad	-4218
förkasta	-4219
förklara	-4220
förstöra	-4221
mesullam	-4222
närmaste	-4223
sabbater	-4224
tjugutvå	-4225
trångmål	-4226
övergåvo	-4227
assyriske	-4228
budbärare	-4229
fikonträd	-4230
fängelset	-4231
försmäkta	-4232
förtrösta	-4233
överlämna	-4234
nådastolen	-4235
uppfylldes	-4236
tacksägelse	-4237
underdåniga	-4238
förgrymmelse	-4239
uppståndelse	-4240
ståndaktighet	-4241
församlingarna	-4242
ns	-4243
oh	-4244
tö	-4245
myr	-4246
rod	-4247
ron	-4248
sas	-4249
sem	-4250
tak	-4251
teg	-4252
tir	-4253
arma	-4254
dags	-4255
feta	-4256
hala	-4257
heta	-4258
jota	-4259
kaka	-4260
knor	-4261
kora	-4262
läst	-4263
maje	-4264
mmet	-4265
noga	-4266
nämn	-4267
peri	-4268
sakt	-4269
skul	-4270
snär	-4271
sömn	-4272
amnon	-4273
asdod	-4274
asers	-4275
drack	-4276
dånet	-4277
dölja	-4278
fräck	-4279
gives	-4280
havsl	-4281
härda	-4282
ingal	-4283
jabes	-4284
javes	-4285
klaga	-4286
kores	-4287
lakis	-4288
maaka	-4289
publi	-4290
påska	-4291
semes	-4292
sinai	-4293
skilj	-4294
slöto	-4295
stnad	-4296
timot	-4297
ungar	-4298
vilar	-4299
ändan	-4300
åkrar	-4301
örter	-4302
amalek	-4303
begära	-4304
bygger	-4305
driver	-4306
drivit	-4307
efoden	-4308
förlit	-4309
försåt	-4310
härbär	-4311
härmed	-4312
joahas	-4313
märken	-4314
nebats	-4315
osyrat	-4316
seraja	-4317
timmen	-4318
verket	-4319
öppnar	-4320
behövde	-4321
felfria	-4322
förblev	-4323
förråds	-4324
hedning	-4325
jojadas	-4326
kunniga	-4327
lovsång	-4328
majestä	-4329
rannsak	-4330
serujas	-4331
sikelns	-4332
skapade	-4333
skapare	-4334
skörden	-4335
stridde	-4336
stränga	-4337
uträcka	-4338
djävulen	-4339
fiskarna	-4340
förmådde	-4341
handlade	-4342
lyckosam	-4343
misskund	-4344
oniterna	-4345
oskyldig	-4346
ständigt	-4347
timoteus	-4348
upphörde	-4349
varhelst	-4350
vingårds	-4351
äventyrs	-4352
darejaves	-4353
fjortonde	-4354
fördärvet	-4355
heligaste	-4356
himmelska	-4357
hjältarna	-4358
ingalunda	-4359
plundring	-4360
stängerna	-4361
uppfyllde	-4362
viftoffer	-4363
fullbordat	-4364
förföljare	-4365
havsländer	-4366
hemsökelse	-4367
israeliter	-4368
vilddjuret	-4369
egyptiernas	-4370
människornas	-4371
uppenbarelse	-4372
tjänstekvinna	-4373
tillsyningsmän	-4374
helgedomssikelns	-4375
böl	-4376
dug	-4377
jot	-4378
lon	-4379
nil	-4380
reg	-4381
röd	-4382
amos	-4383
efes	-4384
kill	-4385
larm	-4386
olje	-4387
osju	-4388
pund	-4389
rimm	-4390
seja	-4391
stry	-4392
tvin	-4393
bespe	-4394
bevar	-4395
därur	-4396
dåren	-4397
farna	-4398
gomor	-4399
gosse	-4400
höjer	-4401
höras	-4402
klago	-4403
nasir	-4404
oskyl	-4405
seirs	-4406
sexti	-4407
svaga	-4408
taket	-4409
torra	-4410
varpå	-4411
vilda	-4412
värre	-4413
älten	-4414
babels	-4415
behåll	-4416
betänk	-4417
borgen	-4418
bäckar	-4419
ersätt	-4420
fattat	-4421
färdas	-4422
fångna	-4423
förbin	-4424
förmör	-4425
gjutna	-4426
granat	-4427
gårdar	-4428
huggen	-4429
larnas	-4430
namnen	-4431
ohelga	-4432
periss	-4433
rikets	-4434
sanden	-4435
sinnes	-4436
smörja	-4437
sommar	-4438
tligen	-4439
tolfte	-4440
träder	-4441
uppman	-4442
vilade	-4443
andliga	-4444
bringar	-4445
drömmar	-4446
förbitt	-4447
grottan	-4448
ktighet	-4449
likadan	-4450
olyckan	-4451
redliga	-4452
rådslag	-4453
rådslut	-4454
söderut	-4455
undfått	-4456
upphäva	-4457
uppstår	-4458
utkräva	-4459
väntade	-4460
yngling	-4461
altarets	-4462
förgäter	-4463
förgöras	-4464
herdarna	-4465
stenarna	-4466
strömmen	-4467
uppfylla	-4468
uppväckt	-4469
utgjutit	-4470
begärelse	-4471
evigheter	-4472
filistéen	-4473
förfärdig	-4474
församlat	-4475
föräldrar	-4476
granatäpp	-4477
kvarlevan	-4478
svärfader	-4479
utgjordes	-4480
begynnelse	-4481
frälsnings	-4482
fördärvade	-4483
gräshoppor	-4484
påskhögtid	-4485
tackoffret	-4486
tillspillo	-4487
fyrfotadjur	-4488
förstlingen	-4489
hemsökelsen	-4490
hedningarnas	-4491
hövdingdömen	-4492
ogärningsmän	-4493
tjänstgöringen	-4494
oa	-4495
ask	-4496
dis	-4497
eme	-4498
kad	-4499
mut	-4500
sea	-4501
arme	-4502
asas	-4503
bega	-4504
bjäl	-4505
bokr	-4506
dröj	-4507
elva	-4508
godo	-4509
gäst	-4510
hasi	-4511
häft	-4512
jens	-4513
lamp	-4514
mena	-4515
mild	-4516
nere	-4517
ofel	-4518
orol	-4519
orop	-4520
rygg	-4521
spar	-4522
stal	-4523
stre	-4524
tisk	-4525
tvag	-4526
vaka	-4527
betyg	-4528
blive	-4529
drade	-4530
dödat	-4531
fågel	-4532
fånge	-4533
glans	-4534
isais	-4535
jning	-4536
locka	-4537
makir	-4538
nabal	-4539
nabot	-4540
natur	-4541
ofyra	-4542
peres	-4543
rikes	-4544
salig	-4545
skjut	-4546
stads	-4547
stego	-4548
stena	-4549
store	-4550
stång	-4551
svart	-4552
svåra	-4553
synen	-4554
sälja	-4555
tanke	-4556
änkan	-4557
bbabel	-4558
breder	-4559
bräder	-4560
elände	-4561
esaias	-4562
fallna	-4563
fogade	-4564
försyn	-4565
gravar	-4566
gudens	-4567
himlar	-4568
hängen	-4569
hårdna	-4570
kastas	-4571
kropps	-4572
kysste	-4573
lammen	-4574
omkull	-4575
sikten	-4576
sjunka	-4577
ägaren	-4578
aderton	-4579
antända	-4580
avstånd	-4581
bakhåll	-4582
bortför	-4583
brännas	-4584
förrätt	-4585
gränser	-4586
kunnigt	-4587
kvinnas	-4588
mannens	-4589
misshag	-4590
släppte	-4591
sålunda	-4592
tillbad	-4593
trakten	-4594
upphöra	-4595
uträckt	-4596
angripna	-4597
bedrivit	-4598
förbunds	-4599
förgätit	-4600
glädjens	-4601
isaskars	-4602
kejsaren	-4603
klagorop	-4604
levandes	-4605
lidanden	-4606
liggande	-4607
omskurna	-4608
publikan	-4609
sebulons	-4610
starkare	-4611
tjänsten	-4612
alltefter	-4613
förödelse	-4614
synagogan	-4615
underbara	-4616
ynglingar	-4617
förgårdens	-4618
förvirring	-4619
jebuséerna	-4620
serubbabel	-4621
vederkvick	-4622
fäkreaturen	-4623
hednafolken	-4624
offerhöjder	-4625
övermäktiga	-4626
evigheternas	-4627
förbannelser	-4628
rättfärdiges	-4629
allraheligaste	-4630
mul	-4631
adab	-4632
agit	-4633
akis	-4634
anda	-4635
bbar	-4636
druv	-4637
fest	-4638
fira	-4639
gasa	-4640
give	-4641
häll	-4642
höre	-4643
klen	-4644
lets	-4645
läkt	-4646
noom	-4647
otre	-4648
pall	-4649
regi	-4650
rund	-4651
saba	-4652
sköt	-4653
svor	-4654
unna	-4655
äran	-4656
arvsl	-4657
bävan	-4658
dring	-4659
dödad	-4660
eliab	-4661
förli	-4662
gatan	-4663
gifta	-4664
hands	-4665
hetta	-4666
hiram	-4667
hurud	-4668
höres	-4669
joabs	-4670
koras	-4671
korna	-4672
köpte	-4673
lagar	-4674
mmade	-4675
skona	-4676
skrif	-4677
skänk	-4678
smort	-4679
sädes	-4680
torrt	-4681
trätt	-4682
vagns	-4683
vaken	-4684
vning	-4685
ypper	-4686
äldre	-4687
bindel	-4688
bägare	-4689
cypres	-4690
farits	-4691
friska	-4692
förför	-4693
förväg	-4694
gräset	-4695
hängde	-4696
isebel	-4697
itamar	-4698
kalvar	-4699
kastad	-4700
kehats	-4701
lagens	-4702
lyster	-4703
makten	-4704
närvar	-4705
ockade	-4706
sexton	-4707
stiger	-4708
tackar	-4709
tidens	-4710
tronar	-4711
utfört	-4712
vävnad	-4713
belägra	-4714
drabbas	-4715
keruber	-4716
krossat	-4717
leviter	-4718
närmast	-4719
orättrå	-4720
ouppsåt	-4721
redskap	-4722
skeppet	-4723
tvinnat	-4724
uppdrag	-4725
upplyft	-4726
vredgas	-4727
väldige	-4728
åkallan	-4729
arbetare	-4730
bihustru	-4731
boskapen	-4732
fullbord	-4733
förstodo	-4734
genombor	-4735
härbärge	-4736
ordspråk	-4737
palatser	-4738
underbar	-4739
uppfyllt	-4740
vistades	-4741
föraktade	-4742
förbannar	-4743
hungersnö	-4744
ställning	-4745
uppenbart	-4746
ödmjukade	-4747
begärelser	-4748
därbredvid	-4749
ersättning	-4750
fåfängliga	-4751
macedonien	-4752
planterade	-4753
syndoffers	-4754
brännoffers	-4755
människoson	-4756
påskalammet	-4757
stadsporten	-4758
ståthållare	-4759
konungadömet	-4760
välbehagligt	-4761
offerhöjderna	-4762
ostrafflighet	-4763
vedergällning	-4764
fro	-4765
kel	-4766
knä	-4767
mik	-4768
nin	-4769
orm	-4770
rom	-4771
skr	-4772
enai	-4773
flod	-4774
form	-4775
frat	-4776
giss	-4777
mant	-4778
obad	-4779
rafa	-4780
reka	-4781
rett	-4782
riva	-4783
soba	-4784
spår	-4785
stid	-4786
tist	-4787
ulor	-4788
unno	-4789
övar	-4790
andet	-4791
elfte	-4792
födsl	-4793
förök	-4794
gröna	-4795
hasta	-4796
horon	-4797
håret	-4798
invig	-4799
knapp	-4800
lider	-4801
marja	-4802
märka	-4803
neder	-4804
ormar	-4805
satta	-4806
sköte	-4807
stapp	-4808
tände	-4809
utslä	-4810
varav	-4811
virke	-4812
ahikam	-4813
behaga	-4814
bommar	-4815
brevet	-4816
bunden	-4817
byggas	-4818
elkana	-4819
fallen	-4820
femton	-4821
frihet	-4822
fågeln	-4823
fördes	-4824
förtro	-4825
hjulen	-4826
huggna	-4827
jämmer	-4828
ledare	-4829
menade	-4830
märker	-4831
norrut	-4832
offras	-4833
regera	-4834
sinnen	-4835
skådar	-4836
skålar	-4837
slutat	-4838
snaror	-4839
staven	-4840
stoder	-4841
strand	-4842
sången	-4843
tavlor	-4844
toppen	-4845
verkar	-4846
yngste	-4847
apostel	-4848
bedraga	-4849
bevisat	-4850
drucken	-4851
druckit	-4852
druckna	-4853
drycker	-4854
dubbelt	-4855
emellan	-4856
fönster	-4857
fördrag	-4858
förgäng	-4859
förvara	-4860
gatorna	-4861
gomorra	-4862
högstes	-4863
leviten	-4864
meddela	-4865
samvete	-4866
släkten	-4867
stolpar	-4868
talrikt	-4869
ungdoms	-4870
utförde	-4871
vartill	-4872
densamme	-4873
fariséer	-4874
färdades	-4875
kommelse	-4876
majestät	-4877
rikligen	-4878
spetälsk	-4879
sörjande	-4880
trampade	-4881
varelser	-4882
överdrag	-4883
betalning	-4884
bröstsköl	-4885
ingenting	-4886
inälvorna	-4887
livsdagar	-4888
planterat	-4889
släktregi	-4890
tidsålder	-4891
uppväckte	-4892
väsendena	-4893
övergiven	-4894
övertäcka	-4895
familjerna	-4896
förstlings	-4897
förtröstan	-4898
omgjordade	-4899
prästernas	-4900
sammansvär	-4901
sannfärdig	-4902
skrifterna	-4903
tillkommer	-4904
årsgammalt	-4905
tjänarinnor	-4906
vederfarits	-4907
dörrvaktarna	-4908
härskarornas	-4909
tabernaklets	-4910
tillkommelse	-4911
mak	-4912
nim	-4913
ogs	-4914
sab	-4915
sat	-4916
sun	-4917
tat	-4918
tof	-4919
ugn	-4920
avel	-4921
edag	-4922
fina	-4923
glän	-4924
jear	-4925
jona	-4926
kruk	-4927
list	-4928
läsa	-4929
pant	-4930
plug	-4931
prov	-4932
revo	-4933
skrä	-4934
svin	-4935
tyst	-4936
tåla	-4937
törn	-4938
angre	-4939
antio	-4940
arens	-4941
boset	-4942
bytet	-4943
bären	-4944
deman	-4945
djupt	-4946
ekron	-4947
empel	-4948
fälla	-4949
färde	-4950
haran	-4951
hasor	-4952
hiski	-4953
härsk	-4954
hårda	-4955
lidit	-4956
låder	-4957
mutor	-4958
mötte	-4959
nadab	-4960
nedan	-4961
oholi	-4962
orygg	-4963
regna	-4964
sande	-4965
skugg	-4966
skåde	-4967
snöre	-4968
stift	-4969
timna	-4970
tänkt	-4971
törne	-4972
ussia	-4973
valar	-4974
vinge	-4975
åklag	-4976
önska	-4977
dessas	-4978
fallet	-4979
fiskar	-4980
förnam	-4981
itiska	-4982
jagade	-4983
jordbä	-4984
kriget	-4985
krukma	-4986
kungör	-4987
läggas	-4988
lämnad	-4989
löftes	-4990
någons	-4991
palmer	-4992
plägar	-4993
provin	-4994
rummet	-4995
saltar	-4996
slutet	-4997
stryka	-4998
suckot	-4999
surdeg	-5000
timmer	-5001
bereder	-5002
bevisar	-5003
blommor	-5004
endräkt	-5005
farande	-5006
förbida	-5007
hetiten	-5008
härskri	-5009
kungöra	-5010
lyssnar	-5011
manskap	-5012
manteln	-5013
seglade	-5014
skyarna	-5015
träffar	-5016
tålamod	-5017
utbrett	-5018
vittnar	-5019
vänligt	-5020
öppning	-5021
antiokia	-5022
frimodig	-5023
föraktar	-5024
förlorat	-5025
förlåtet	-5026
hjälpare	-5027
hundarna	-5028
hårdnack	-5029
jonatans	-5030
larmande	-5031
libanons	-5032
lustgård	-5033
personen	-5034
rodnaden	-5035
rättsinn	-5036
rökelsen	-5037
täckelse	-5038
upptagen	-5039
uppväcka	-5040
återhåll	-5041
anställde	-5042
försvinna	-5043
livsfrukt	-5044
provinsen	-5045
stormvind	-5046
vedermöda	-5047
grundvalar	-5048
framställde	-5049
fördärvligt	-5050
överlämnade	-5051
amalekiterna	-5052
hungersnöden	-5053
vapendragare	-5054
kraftgärningar	-5055
morgonrodnaden	-5056
rättfärdighets	-5057
brännoffersaltar	-5058
gl	-5059
up	-5060
fjä	-5061
hån	-5062
mde	-5063
naa	-5064
oav	-5065
påt	-5066
tob	-5067
åst	-5068
abin	-5069
ahia	-5070
ammi	-5071
area	-5072
bese	-5073
elon	-5074
flyg	-5075
gett	-5076
halm	-5077
havs	-5078
idel	-5079
joel	-5080
kalv	-5081
kegi	-5082
khet	-5083
kost	-5084
kräl	-5085
ktes	-5086
lagd	-5087
lutt	-5088
maas	-5089
näsa	-5090
oxen	-5091
pare	-5092
rovo	-5093
ruin	-5094
sake	-5095
sist	-5096
skra	-5097
skym	-5098
tand	-5099
ulle	-5100
uset	-5101
väga	-5102
▁'?»	-5103
asafs	-5104
bbade	-5105
beröm	-5106
besky	-5107
daren	-5108
eldsl	-5109
flyga	-5110
flyta	-5111
frest	-5112
förnu	-5113
glatt	-5114
hopar	-5115
härav	-5116
jesua	-5117
köpen	-5118
libna	-5119
mahel	-5120
mikal	-5121
minst	-5122
månne	-5123
nahor	-5124
nande	-5125
noomi	-5126
ofört	-5127
panna	-5128
parna	-5129
persi	-5130
simri	-5131
skill	-5132
skipa	-5133
sorge	-5134
stalt	-5135
stolt	-5136
tagna	-5137
talet	-5138
teman	-5139
tirsa	-5140
trött	-5141
uppåt	-5142
utstå	-5143
viker	-5144
abisai	-5145
avföll	-5146
bedrev	-5147
besöka	-5148
busken	-5149
följen	-5150
försag	-5151
gerson	-5152
hasael	-5153
helgad	-5154
hitupp	-5155
hornen	-5156
löftet	-5157
redlig	-5158
samlas	-5159
stiden	-5160
stödde	-5161
stöter	-5162
tacken	-5163
umgäng	-5164
utsaga	-5165
anklaga	-5166
begrovo	-5167
besitta	-5168
bestämd	-5169
bestånd	-5170
brodern	-5171
bröllop	-5172
flykten	-5173
fröjdar	-5174
fäderne	-5175
förhäng	-5176
förtärt	-5177
heligas	-5178
hiskias	-5179
kungjor	-5180
ledning	-5181
maaseja	-5182
möjligt	-5183
otrogna	-5184
plundra	-5185
portens	-5186
sbygden	-5187
skriade	-5188
skuggan	-5189
skönhet	-5190
stadgat	-5191
strumen	-5192
stänkte	-5193
störtar	-5194
syndade	-5195
träffas	-5196
upphört	-5197
överens	-5198
apostlar	-5199
femtonde	-5200
fördriva	-5201
förfarna	-5202
förfäran	-5203
gällande	-5204
jojakims	-5205
landsmän	-5206
ljuvligt	-5207
omgjorda	-5208
ostraffa	-5209
ovänners	-5210
starkhet	-5211
stjärnor	-5212
tecknade	-5213
tjänarna	-5214
utgjuter	-5215
basunerna	-5216
bedrövade	-5217
bestämmer	-5218
fördrivna	-5219
förtrycka	-5220
högeligen	-5221
högheligt	-5222
klagosång	-5223
nilfloden	-5224
skrivelse	-5225
svärmoder	-5226
frivilliga	-5227
förkastade	-5228
förlåtelse	-5229
förskräcka	-5230
korteligen	-5231
nordlandet	-5232
drottningen	-5233
frimodighet	-5234
sammankomst	-5235
skördetiden	-5236
fångenskapen	-5237
föreståndare	-5238
förskingrade	-5239
orättfärdiga	-5240
sammansvärjning	-5241
0¦	-5242
ex	-5243
kå	-5244
öv	-5245
ale	-5246
alt	-5247
brå	-5248
ces	-5249
cym	-5250
eve	-5251
ges	-5252
gru	-5253
hul	-5254
jam	-5255
jok	-5256
lur	-5257
möd	-5258
nag	-5259
ofa	-5260
oms	-5261
one	-5262
söm	-5263
adam	-5264
atal	-5265
bero	-5266
böra	-5267
dden	-5268
flyr	-5269
ftar	-5270
gase	-5271
geba	-5272
gömt	-5273
hitt	-5274
ktig	-5275
lare	-5276
mera	-5277
pung	-5278
rast	-5279
sede	-5280
skin	-5281
skäm	-5282
sova	-5283
stum	-5284
stöt	-5285
umma	-5286
värd	-5287
▁?»,	-5288
andes	-5289
arnon	-5290
asien	-5291
astar	-5292
betro	-5293
dömda	-5294
eldar	-5295
fostr	-5296
harpa	-5297
hasab	-5298
inföd	-5299
kenas	-5300
lydde	-5301
maten	-5302
måtte	-5303
olika	-5304
renas	-5305
svall	-5306
tordö	-5307
utfär	-5308
vifta	-5309
vägde	-5310
östan	-5311
avföda	-5312
begynt	-5313
begärt	-5314
beläte	-5315
brutet	-5316
böljor	-5317
cedrar	-5318
cymbal	-5319
dröjer	-5320
döljer	-5321
förelä	-5322
gladde	-5323
gropen	-5324
hankön	-5325
hatade	-5326
infria	-5327
klagan	-5328
lyckas	-5329
lydnad	-5330
längst	-5331
maskar	-5332
molnen	-5333
nineve	-5334
nödens	-5335
oavlåt	-5336
obadja	-5337
oniten	-5338
prövar	-5339
rannsa	-5340
sidoni	-5341
skicka	-5342
skända	-5343
sättas	-5344
trogen	-5345
tungor	-5346
vinter	-5347
värtes	-5348
ångrar	-5349
befäste	-5350
cesarea	-5351
dricken	-5352
exempel	-5353
fridens	-5354
frukter	-5355
förråda	-5356
förtram	-5357
hustrus	-5358
hänryck	-5359
härligt	-5360
hårdhet	-5361
närmare	-5362
orenade	-5363
skådade	-5364
släpper	-5365
somnade	-5366
ställer	-5367
systrar	-5368
tillför	-5369
trolöst	-5370
trängde	-5371
utplåna	-5372
vägarna	-5373
älskare	-5374
ahimelek	-5375
blomster	-5376
hästarna	-5377
jeremias	-5378
kammaren	-5379
krigsmän	-5380
lamporna	-5381
lärjunge	-5382
rättvisa	-5383
skålarna	-5384
tavlorna	-5385
tillrett	-5386
uppfylld	-5387
utgjuten	-5388
utseende	-5389
vagnarna	-5390
bihustrur	-5391
frimodigt	-5392
förföljer	-5393
förkunnen	-5394
förmaning	-5395
förvärvat	-5396
korsfästa	-5397
krigsfolk	-5398
kunskapen	-5399
levitiska	-5400
mäktigare	-5401
oförtänkt	-5402
ordningen	-5403
profeters	-5404
tillfalla	-5405
undergång	-5406
uppsikten	-5407
förlossare	-5408
ljungeldar	-5409
moabiterna	-5410
skonsamhet	-5411
strumenter	-5412
strömmarna	-5413
vederfaras	-5414
hänryckning	-5415
uttydningen	-5416
handfyllning	-5417
härhövitsman	-5418
lottkastning	-5419
tillrättavisning	-5420
ög	-5421
aro	-5422
fam	-5423
iot	-5424
mir	-5425
orn	-5426
pär	-5427
sif	-5428
sov	-5429
sua	-5430
tyn	-5431
urs	-5432
äga	-5433
anan	-5434
anas	-5435
arvs	-5436
atta	-5437
bida	-5438
blan	-5439
bota	-5440
dogo	-5441
drak	-5442
eber	-5443
edde	-5444
gode	-5445
hamm	-5446
ingi	-5447
jehi	-5448
krok	-5449
lock	-5450
lyte	-5451
låga	-5452
mana	-5453
nåde	-5454
ofär	-5455
regu	-5456
reho	-5457
rest	-5458
ssen	-5459
sått	-5460
tänt	-5461
vann	-5462
värt	-5463
våll	-5464
övat	-5465
amasa	-5466
asael	-5467
blåsa	-5468
darra	-5469
edaja	-5470
flöde	-5471
förän	-5472
gjord	-5473
gulds	-5474
gömma	-5475
hagar	-5476
hakal	-5477
hanok	-5478
hälle	-5479
jefun	-5480
jotam	-5481
karen	-5482
kloka	-5483
koret	-5484
ktigt	-5485
melse	-5486
näpst	-5487
nöden	-5488
påbud	-5489
rinna	-5490
silla	-5491
sköka	-5492
sning	-5493
sover	-5494
unnar	-5495
vuxit	-5496
vårda	-5497
åsnan	-5498
öppen	-5499
övade	-5500
amarja	-5501
anatot	-5502
besked	-5503
blivna	-5504
brinna	-5505
efesus	-5506
förhud	-5507
förmån	-5508
förstr	-5509
griper	-5510
gäster	-5511
hitned	-5512
hjälte	-5513
hämnas	-5514
hämtat	-5515
hållet	-5516
höljde	-5517
hördes	-5518
ikläda	-5519
kasten	-5520
kämpar	-5521
lagbok	-5522
lampor	-5523
mening	-5524
modigt	-5525
myckna	-5526
offrar	-5527
omtala	-5528
pansar	-5529
regnet	-5530
ryckas	-5531
rövare	-5532
sassar	-5533
signet	-5534
skurna	-5535
stjäla	-5536
streck	-5537
sträck	-5538
stängd	-5539
säljer	-5540
sängen	-5541
tvådde	-5542
utgått	-5543
utropa	-5544
väntar	-5545
ödeläg	-5546
övrigt	-5547
arbeten	-5548
barnlös	-5549
begäran	-5550
bespeja	-5551
brödets	-5552
dråpare	-5553
eldslåg	-5554
etéerna	-5555
färdigt	-5556
förhäva	-5557
förneka	-5558
försvar	-5559
grannar	-5560
grönska	-5561
gudsman	-5562
hungrig	-5563
hälsade	-5564
häpnade	-5565
insegel	-5566
kaperna	-5567
krossad	-5568
krossar	-5569
kvistar	-5570
lystnad	-5571
murarna	-5572
närvaro	-5573
otrohet	-5574
rytande	-5575
smädade	-5576
spjutet	-5577
stormen	-5578
strider	-5579
styggel	-5580
träldom	-5581
upptänd	-5582
vacklar	-5583
villigt	-5584
väktare	-5585
översta	-5586
angripen	-5587
baalerna	-5588
betryckt	-5589
bevarade	-5590
bevisade	-5591
boningar	-5592
cymbaler	-5593
därunder	-5594
felfritt	-5595
framsida	-5596
förgjort	-5597
glödande	-5598
kräldjur	-5599
mattanja	-5600
nalkades	-5601
nedanför	-5602
ningsman	-5603
njurarna	-5604
oförgäng	-5605
olivträd	-5606
skillnad	-5607
titernas	-5608
undkomma	-5609
åkallade	-5610
blodskuld	-5611
budskapet	-5612
förbrutit	-5613
förtörnad	-5614
jubelåret	-5615
kapernaum	-5616
liknelser	-5617
nedgjorde	-5618
ofruktsam	-5619
oomskuren	-5620
ostraffad	-5621
plundrade	-5622
sjukdomar	-5623
skriftens	-5624
tredjedel	-5625
uttydning	-5626
åklagaren	-5627
överdraga	-5628
dödsrikets	-5629
fullkomlig	-5630
försmäktar	-5631
landsflykt	-5632
människans	-5633
sanningens	-5634
tillbedjen	-5635
uppenbarad	-5636
överlämnat	-5637
församlings	-5638
förskräckas	-5639
helgedomens	-5640
huvudbindel	-5641
huvudmannen	-5642
krigsmännen	-5643
ogudaktiges	-5644
perisséerna	-5645
tredjedelen	-5646
havsländerna	-5647
ouppsåtligen	-5648
fruktansvärda	-5649
uppståndelsen	-5650
mu	-5651
äk	-5652
äv	-5653
bit	-5654
dof	-5655
gai	-5656
gne	-5657
häg	-5658
jöd	-5659
kiv	-5660
lad	-5661
put	-5662
rig	-5663
rut	-5664
sof	-5665
svä	-5666
▁!'	-5667
abed	-5668
allo	-5669
arta	-5670
aväl	-5671
bela	-5672
bärg	-5673
efer	-5674
gall	-5675
grun	-5676
hjul	-5677
ills	-5678
jade	-5679
jeru	-5680
jämn	-5681
koka	-5682
kula	-5683
lugn	-5684
lyda	-5685
låte	-5686
löje	-5687
medi	-5688
mefi	-5689
palm	-5690
refa	-5691
rida	-5692
siba	-5693
skas	-5694
slit	-5695
smak	-5696
stul	-5697
sväm	-5698
sålt	-5699
tage	-5700
tera	-5701
ärar	-5702
avstå	-5703
barak	-5704
beror	-5705
brand	-5706
brast	-5707
bågar	-5708
danat	-5709
dömde	-5710
enträ	-5711
farts	-5712
framt	-5713
furst	-5714
födas	-5715
förse	-5716
geser	-5717
gesur	-5718
gosen	-5719
gräto	-5720
horeb	-5721
höjen	-5722
hölja	-5723
höljt	-5724
hölls	-5725
innes	-5726
jedut	-5727
klätt	-5728
krans	-5729
kruka	-5730
lampa	-5731
lasar	-5732
ljusa	-5733
lösas	-5734
manna	-5735
manoa	-5736
mesak	-5737
mikas	-5738
modet	-5739
myrra	-5740
nebus	-5741
orsak	-5742
rabba	-5743
rabbi	-5744
reser	-5745
romer	-5746
rykte	-5747
röken	-5748
sarai	-5749
skaka	-5750
slock	-5751
sport	-5752
spott	-5753
stock	-5754
synas	-5755
sägas	-5756
tahas	-5757
tobia	-5758
torka	-5759
trolo	-5760
uppeg	-5761
veden	-5762
visen	-5763
vävda	-5764
andres	-5765
annars	-5766
aradan	-5767
artasa	-5768
atalja	-5769
befann	-5770
bleven	-5771
brända	-5772
bävade	-5773
bådade	-5774
dammen	-5775
elifas	-5776
fyllde	-5777
fästet	-5778
förbor	-5779
förlän	-5780
försmå	-5781
förtal	-5782
givare	-5783
gråten	-5784
hesron	-5785
hugnad	-5786
källan	-5787
lydiga	-5788
mirjam	-5789
naaman	-5790
nämner	-5791
nätter	-5792
omsorg	-5793
orenat	-5794
provet	-5795
renade	-5796
ringen	-5797
räddad	-5798
rösten	-5799
sanher	-5800
saulus	-5801
siklag	-5802
sisera	-5803
självt	-5804
smädar	-5805
solens	-5806
spänna	-5807
spåmän	-5808
turtur	-5809
töcken	-5810
villen	-5811
ådraga	-5812
ömkade	-5813
ahimaas	-5814
beskärm	-5815
bittert	-5816
blickar	-5817
bringas	-5818
domaren	-5819
elieser	-5820
eljakim	-5821
emeller	-5822
förbjöd	-5823
fördolt	-5824
gestalt	-5825
glädjas	-5826
hasabja	-5827
klokhet	-5828
kransar	-5829
krossas	-5830
lasarus	-5831
lastade	-5832
lejonet	-5833
lyssnen	-5834
längtar	-5835
mildhet	-5836
ovanför	-5837
riktigt	-5838
slaktas	-5839
smycken	-5840
svaghet	-5841
såframt	-5842
troende	-5843
träffat	-5844
upplåta	-5845
utrotat	-5846
vaknade	-5847
åkallar	-5848
övergav	-5849
ahitofel	-5850
anskaffa	-5851
enträget	-5852
falskhet	-5853
flyttade	-5854
fångarna	-5855
fördolda	-5856
förhuset	-5857
förtärde	-5858
förvärva	-5859
hivéerna	-5860
härskare	-5861
jefunnes	-5862
kungliga	-5863
mottagit	-5864
mäktiges	-5865
omhängen	-5866
ringaste	-5867
tjugutre	-5868
trolldom	-5869
trälinna	-5870
underord	-5871
upphäver	-5872
utbredde	-5873
ödelagda	-5874
överträd	-5875
avfälliga	-5876
belägring	-5877
delaktiga	-5878
fartssång	-5879
fördrivit	-5880
förfärade	-5881
förhänget	-5882
förlossat	-5883
förordnat	-5884
församlen	-5885
glänsande	-5886
hebreiska	-5887
lärjungen	-5888
låglandet	-5889
medbröder	-5890
oskyldigt	-5891
slutligen	-5892
smädelser	-5893
stammarna	-5894
trumpeter	-5895
träffades	-5896
uppfyllas	-5897
barnaföder	-5898
brudgummen	-5899
emellertid	-5900
endräktigt	-5901
folkslagen	-5902
härlighets	-5903
livklädnad	-5904
oljeberget	-5905
trettiotvå	-5906
uppenbaras	-5907
överlämnad	-5908
övertäckte	-5909
fikonträdet	-5910
förståndige	-5911
gensträvigt	-5912
hövdingdöme	-5913
konungarnas	-5914
nebusaradan	-5915
offerhöjden	-5916
synagogorna	-5917
tempelsalen	-5918
församlingar	-5919
överflödande	-5920
vallfartssång	-5921
landshövdingen	-5922
smörjelseoljan	-5923
återhållsamhet	-5924
rättfärdigheten	-5925
ji	-5926
kv	-5927
agt	-5928
ame	-5929
bun	-5930
bur	-5931
bäl	-5932
dna	-5933
don	-5934
duc	-5935
döv	-5936
efr	-5937
iti	-5938
joa	-5939
klö	-5940
lud	-5941
lup	-5942
måg	-5943
ods	-5944
ppe	-5945
rag	-5946
rog	-5947
tyd	-5948
▁¦2	-5949
amon	-5950
bryt	-5951
debi	-5952
duva	-5953
dölj	-5954
elis	-5955
flyt	-5956
hama	-5957
höja	-5958
ingå	-5959
jätt	-5960
lönn	-5961
miga	-5962
mäta	-5963
peor	-5964
pion	-5965
reda	-5966
sena	-5967
slet	-5968
ssan	-5969
svän	-5970
säge	-5971
teko	-5972
titt	-5973
tomt	-5974
tryg	-5975
abiga	-5976
amram	-5977
annor	-5978
aroer	-5979
bbaal	-5980
botad	-5981
dalar	-5982
delat	-5983
dyrka	-5984
edens	-5985
faror	-5986
fyllt	-5987
föred	-5988
halva	-5989
hanna	-5990
hädan	-5991
höljd	-5992
lusta	-5993
läste	-5994
marks	-5995
mörkt	-5996
pläga	-5997
ppade	-5998
påmin	-5999
rader	-6000
riven	-6001
ropen	-6002
ryckt	-6003
rövar	-6004
sanna	-6005
sefat	-6006
sides	-6007
skild	-6008
skrud	-6009
skyar	-6010
skydd	-6011
skytt	-6012
skägg	-6013
spira	-6014
späda	-6015
stadd	-6016
stams	-6017
styra	-6018
sucka	-6019
tages	-6020
tegel	-6021
trons	-6022
träde	-6023
tungt	-6024
utgår	-6025
utgöt	-6026
visas	-6027
andens	-6028
avsked	-6029
avstod	-6030
bruten	-6031
bundna	-6032
byggen	-6033
dräper	-6034
festus	-6035
finnen	-6036
fostra	-6037
frände	-6038
fälten	-6039
förött	-6040
gersom	-6041
gripen	-6042
gripit	-6043
gudars	-6044
gördel	-6045
hämtar	-6046
hämten	-6047
höghet	-6048
höljer	-6049
ivrigt	-6050
jishar	-6051
jämren	-6052
kanaan	-6053
kareas	-6054
korgen	-6055
kunnig	-6056
ledsag	-6057
meller	-6058
middag	-6059
minsta	-6060
rimmon	-6061
räknad	-6062
räknar	-6063
sadduc	-6064
siaren	-6065
smädat	-6066
starke	-6067
stigit	-6068
stödja	-6069
svavel	-6070
sömnen	-6071
talrik	-6072
trötta	-6073
uppror	-6074
upprör	-6075
utgick	-6076
vakten	-6077
vanära	-6078
villig	-6079
vändas	-6080
önskar	-6081
abigail	-6082
arbetat	-6083
befälet	-6084
besinna	-6085
betäcka	-6086
blottad	-6087
bosatta	-6088
bördiga	-6089
domarna	-6090
drabbar	-6091
efodens	-6092
elisama	-6093
fastade	-6094
frambar	-6095
fyllest	-6096
fäderna	-6097
förjaga	-6098
gåvorna	-6099
handlar	-6100
inbärga	-6101
josabad	-6102
livkläd	-6103
mättade	-6104
oförfär	-6105
oholiba	-6106
redligt	-6107
rörande	-6108
schakal	-6109
skjuter	-6110
stenade	-6111
strödde	-6112
strömma	-6113
ställda	-6114
störste	-6115
synders	-6116
tackade	-6117
tröstar	-6118
upphäng	-6119
upptaga	-6120
uträtta	-6121
vardera	-6122
vinpres	-6123
värdigt	-6124
våderna	-6125
arvslott	-6126
barnbarn	-6127
befaller	-6128
befinnas	-6129
bördeman	-6130
etiopien	-6131
fotapall	-6132
fönstret	-6133
förlidna	-6134
förvaras	-6135
himlarna	-6136
hittills	-6137
knorrade	-6138
ljuvliga	-6139
nederlag	-6140
netanjas	-6141
ringarna	-6142
skorpion	-6143
skrifter	-6144
skyldiga	-6145
sträckte	-6146
tillreda	-6147
tillsagt	-6148
uppbygga	-6149
uppehöll	-6150
yppersta	-6151
ödmjukar	-6152
avgudarna	-6153
evangelii	-6154
framtiden	-6155
fyrtiofem	-6156
fyrtiotvå	-6157
förbarmar	-6158
förhärlig	-6159
förlorade	-6160
hetiterna	-6161
jerubbaal	-6162
mellersta	-6163
murpelare	-6164
mönstrade	-6165
rättstjän	-6166
silverfat	-6167
skrymtare	-6168
spåmännen	-6169
underbart	-6170
väldighet	-6171
övergiver	-6172
frivilligt	-6173
förbundets	-6174
förlossade	-6175
förståndet	-6176
lovsjungen	-6177
tahasskinn	-6178
återstoden	-6179
berättelsen	-6180
boskapsdjur	-6181
förbarmande	-6182
gudsfruktan	-6183
kananéernas	-6184
landsbygden	-6185
rannsakning	-6186
strängaspel	-6187
vedergäller	-6188
bröstskölden	-6189
livklädnader	-6190
tillkommande	-6191
välbehagliga	-6192
bäckenställen	-6193
ea	-6194
pt	-6195
adu	-6196
dia	-6197
eri	-6198
hot	-6199
hum	-6200
int	-6201
jim	-6202
kem	-6203
kes	-6204
lil	-6205
mam	-6206
mna	-6207
obe	-6208
oga	-6209
out	-6210
pis	-6211
ssy	-6212
söt	-6213
uas	-6214
ymn	-6215
agag	-6216
alle	-6217
ania	-6218
arpa	-6219
asri	-6220
bede	-6221
bind	-6222
bruk	-6223
edda	-6224
efod	-6225
flät	-6226
fåll	-6227
grus	-6228
hams	-6229
harm	-6230
hinn	-6231
hyll	-6232
jans	-6233
krän	-6234
late	-6235
mång	-6236
nego	-6237
noas	-6238
ofir	-6239
omri	-6240
ords	-6241
safi	-6242
seal	-6243
spej	-6244
taim	-6245
tjuv	-6246
uels	-6247
utse	-6248
utsä	-6249
växt	-6250
ynne	-6251
▁!»,	-6252
allmo	-6253
ansen	-6254
askan	-6255
avläg	-6256
begag	-6257
björn	-6258
bälte	-6259
bågen	-6260
demän	-6261
djupa	-6262
drist	-6263
dröja	-6264
dömas	-6265
eglon	-6266
elfen	-6267
fager	-6268
foten	-6269
gåvan	-6270
halta	-6271
hamor	-6272
hedar	-6273
heman	-6274
hitin	-6275
härar	-6276
höves	-6277
kehat	-6278
kläde	-6279
komna	-6280
kulor	-6281
lagda	-6282
levat	-6283
mahan	-6284
mista	-6285
nätet	-6286
nåden	-6287
ondsk	-6288
raden	-6289
rahab	-6290
redde	-6291
remal	-6292
resor	-6293
rista	-6294
rygga	-6295
räken	-6296
ränta	-6297
saden	-6298
satra	-6299
seras	-6300
sikel	-6301
titus	-6302
trakt	-6303
tvist	-6304
umman	-6305
uttor	-6306
viken	-6307
vånda	-6308
ammina	-6309
annans	-6310
aseran	-6311
aseror	-6312
avbild	-6313
borgar	-6314
bördes	-6315
ddorna	-6316
draken	-6317
ertapp	-6318
felfri	-6319
fräcka	-6320
funnen	-6321
fyller	-6322
greker	-6323
gripas	-6324
grävde	-6325
handel	-6326
helgen	-6327
hovman	-6328
hovmän	-6329
hugger	-6330
hungra	-6331
hänger	-6332
härsta	-6333
hörnen	-6334
jaeser	-6335
jearim	-6336
josada	-6337
kallen	-6338
kegila	-6339
klagar	-6340
klövar	-6341
liljor	-6342
lägrat	-6343
länges	-6344
malkia	-6345
måsten	-6346
netofa	-6347
nästen	-6348
olycks	-6349
pashur	-6350
planer	-6351
prisar	-6352
renhet	-6353
sadrak	-6354
samlen	-6355
sinais	-6356
skänkt	-6357
skökan	-6358
sluten	-6359
sprang	-6360
tjugus	-6361
trampa	-6362
trogne	-6363
tycker	-6364
tyckte	-6365
uppför	-6366
utsett	-6367
uttala	-6368
vackra	-6369
varvid	-6370
värdet	-6371
vållat	-6372
öppnat	-6373
öronen	-6374
andreas	-6375
basunen	-6376
behagar	-6377
beredde	-6378
bergens	-6379
blandat	-6380
brudgum	-6381
bröders	-6382
bägaren	-6383
dödades	-6384
fortfor	-6385
fängsla	-6386
fåfängt	-6387
förebrå	-6388
företog	-6389
hinnoms	-6390
häftigt	-6391
insatte	-6392
killing	-6393
lammets	-6394
lerkärl	-6395
ljuvlig	-6396
lögnens	-6397
mantlar	-6398
midjans	-6399
mäktigt	-6400
männens	-6401
omskära	-6402
rustade	-6403
saktmod	-6404
skonade	-6405
släktet	-6406
smådjur	-6407
ssyssla	-6408
stadigt	-6409
storhet	-6410
sysslor	-6411
säcktyg	-6412
tretton	-6413
tvärtom	-6414
utefter	-6415
uthärda	-6416
vanligt	-6417
ångrade	-6418
ödelagt	-6419
aiternas	-6420
arvedels	-6421
avfallit	-6422
bestämde	-6423
bestämma	-6424
dagligen	-6425
drabbade	-6426
fädernas	-6427
föraktad	-6428
föraktat	-6429
förestån	-6430
försvara	-6431
mahanaim	-6432
predikat	-6433
remaljas	-6434
samarias	-6435
samarien	-6436
terebint	-6437
trälarna	-6438
träldoms	-6439
tröskeln	-6440
upphöjer	-6441
vandring	-6442
ättföljd	-6443
öppnades	-6444
avgrunden	-6445
betjänade	-6446
betryckta	-6447
fullgjort	-6448
fördärvar	-6449
fördärvat	-6450
hovmannen	-6451
kamelerna	-6452
köpenskap	-6453
mefiboset	-6454
ohörsamma	-6455
rikedomar	-6456
räkenskap	-6457
rådgivare	-6458
ståndarna	-6459
tillbeder	-6460
tillträde	-6461
tjuguåtta	-6462
underhåll	-6463
välsignar	-6464
ödemarken	-6465
allestädes	-6466
avkastning	-6467
besvärjare	-6468
misshagade	-6469
profeterar	-6470
rådsherrar	-6471
syndoffret	-6472
sändebuden	-6473
uppehåller	-6474
förlossning	-6475
förstockade	-6476
konungadöme	-6477
medarbetare	-6478
rubeniterna	-6479
rättfärdigt	-6480
skådebröden	-6481
trumpeterna	-6482
offergärdsom	-6483
oförståndiga	-6484
tjänstgjorde	-6485
avkomlingarna	-6486
träldomshuset	-6487
arvsbesittning	-6488
människohänder	-6489
apo	-6490
ats	-6491
dja	-6492
fag	-6493
hjä	-6494
läk	-6495
nea	-6496
odi	-6497
ori	-6498
räg	-6499
sli	-6500
ssa	-6501
uti	-6502
▁),	-6503
▁).	-6504
abis	-6505
andr	-6506
cien	-6507
ddes	-6508
dera	-6509
deri	-6510
etam	-6511
etan	-6512
fats	-6513
flyn	-6514
forn	-6515
gala	-6516
gran	-6517
gruv	-6518
göre	-6519
jair	-6520
kidr	-6521
kitt	-6522
kust	-6523
leka	-6524
lien	-6525
made	-6526
megi	-6527
mese	-6528
nebo	-6529
nåds	-6530
ofha	-6531
ppen	-6532
rust	-6533
rämn	-6534
sack	-6535
skov	-6536
slum	-6537
snår	-6538
somt	-6539
ståg	-6540
ungt	-6541
ussa	-6542
vant	-6543
veko	-6544
vems	-6545
ånga	-6546
åtti	-6547
ögat	-6548
▁?'»	-6549
abihu	-6550
apoll	-6551
befri	-6552
begiv	-6553
berek	-6554
beslö	-6555
bespo	-6556
bevis	-6557
bohag	-6558
bränt	-6559
eslag	-6560
faten	-6561
fjätt	-6562
fläkt	-6563
följe	-6564
gehen	-6565
gomer	-6566
gåtts	-6567
hasar	-6568
heber	-6569
husai	-6570
håvor	-6571
höggo	-6572
igare	-6573
intag	-6574
kalde	-6575
kedes	-6576
kleno	-6577
lyser	-6578
lären	-6579
marta	-6580
melki	-6581
munna	-6582
nagel	-6583
nitti	-6584
ockat	-6585
ondas	-6586
oning	-6587
paran	-6588
parti	-6589
pukor	-6590
rande	-6591
rippa	-6592
runda	-6593
rämna	-6594
selom	-6595
silas	-6596
skyla	-6597
skynd	-6598
sorga	-6599
sänka	-6600
tabor	-6601
timme	-6602
träta	-6603
utgör	-6604
utkor	-6605
vecko	-6606
vältr	-6607
värda	-6608
vågar	-6609
allmän	-6610
bedeus	-6611
bedräg	-6612
bekant	-6613
bjudna	-6614
blåste	-6615
brukar	-6616
bärare	-6617
domens	-6618
drivas	-6619
fingen	-6620
fogdar	-6621
forska	-6622
friskt	-6623
fyrfat	-6624
förgät	-6625
gasell	-6626
gehasi	-6627
grytan	-6628
gärden	-6629
gångar	-6630
gömmer	-6631
hadade	-6632
hämnar	-6633
hörden	-6634
jesuas	-6635
jordag	-6636
judisk	-6637
kalven	-6638
knappt	-6639
korgar	-6640
korset	-6641
kuvade	-6642
levnad	-6643
mikael	-6644
mister	-6645
mitten	-6646
mättad	-6647
nittio	-6648
omring	-6649
orenar	-6650
oxarna	-6651
pannan	-6652
prästa	-6653
pärlor	-6654
samlad	-6655
skuren	-6656
skökor	-6657
slaget	-6658
slitna	-6659
sorter	-6660
stavar	-6661
stöten	-6662
susans	-6663
syssla	-6664
säkert	-6665
sörjer	-6666
tordön	-6667
tornet	-6668
trogna	-6669
trygga	-6670
tärnor	-6671
verkat	-6672
visare	-6673
väggar	-6674
väldet	-6675
ynnest	-6676
överst	-6677
ahasjas	-6678
avsides	-6679
betania	-6680
betjäna	-6681
betygar	-6682
bönhöra	-6683
djupare	-6684
domstol	-6685
dugliga	-6686
därovan	-6687
döpelse	-6688
fingrar	-6689
flodens	-6690
fröjdas	-6691
fyrkant	-6692
fördrev	-6693
förgång	-6694
gersons	-6695
hemliga	-6696
hemsökt	-6697
hjälpte	-6698
innorna	-6699
jonadab	-6700
leverne	-6701
netanel	-6702
nyttigt	-6703
persien	-6704
selofha	-6705
skiljas	-6706
stängde	-6707
störtas	-6708
tillade	-6709
uppbära	-6710
utbreda	-6711
utsläck	-6712
utvälja	-6713
vaktade	-6714
vanvett	-6715
värdiga	-6716
ödelägg	-6717
ansiktes	-6718
barsilla	-6719
begynner	-6720
bespotta	-6721
betlehem	-6722
blottade	-6723
bortfört	-6724
bräderna	-6725
dörrpost	-6726
fördölja	-6727
förfärad	-6728
förvilla	-6729
hemligen	-6730
hjärtats	-6731
kungjort	-6732
omskuren	-6733
predikan	-6734
rannsaka	-6735
salmunna	-6736
sanherib	-6737
sebedeus	-6738
skyldige	-6739
stolthet	-6740
sträcker	-6741
synagoga	-6742
tillhåll	-6743
trävirke	-6744
upplyfta	-6745
uppträda	-6746
vaktaren	-6747
äntligen	-6748
ålderdom	-6749
avgudadyr	-6750
betesmark	-6751
betryckte	-6752
beväpnade	-6753
bortförda	-6754
byggnaden	-6755
förbrände	-6756
förkastar	-6757
förnämste	-6758
gaditerna	-6759
gemenskap	-6760
hadadeser	-6761
himmelske	-6762
högheliga	-6763
långmodig	-6764
nymånader	-6765
någonting	-6766
samariens	-6767
skickliga	-6768
stadsport	-6769
tillsluta	-6770
vinträdet	-6771
värdighet	-6772
våldsverk	-6773
ödmjukhet	-6774
araméernas	-6775
avskaffade	-6776
bespottare	-6777
fruktsamma	-6778
förrättade	-6779
förstöring	-6780
förtryckte	-6781
förtärande	-6782
förvandlas	-6783
konungslig	-6784
lögnaktiga	-6785
offergåvor	-6786
silverskål	-6787
tillräknas	-6788
upprättade	-6789
blodshämnar	-6790
dörrvaktare	-6791
fariséernas	-6792
fullbordade	-6793
förvandlade	-6794
krigsfolket	-6795
ostraffliga	-6796
profeternas	-6797
tillförsikt	-6798
allsmäktiges	-6799
arbetssyssla	-6800
fettstyckena	-6801
frälsningens	-6802
instrumenter	-6803
kehatiternas	-6804
midjanitiska	-6805
ståthållarna	-6806
vattenbäckar	-6807
släktregister	-6808
fängelsegården	-6809
syndoffersbock	-6810
tempelträlarna	-6811
vingårdsmännen	-6812
tillspillogivna	-6813
översteprästens	-6814
af	-6815
tv	-6816
bab	-6817
dim	-6818
frö	-6819
gde	-6820
gni	-6821
gog	-6822
gro	-6823
göd	-6824
hol	-6825
hät	-6826
idi	-6827
lek	-6828
lyd	-6829
mad	-6830
mai	-6831
oam	-6832
rid	-6833
spy	-6834
sva	-6835
våd	-6836
agar	-6837
akan	-6838
bani	-6839
beri	-6840
beta	-6841
brus	-6842
bråd	-6843
dala	-6844
ddar	-6845
ebed	-6846
flug	-6847
flöt	-6848
förk	-6849
grek	-6850
grym	-6851
gäck	-6852
gömd	-6853
hack	-6854
korg	-6855
kyss	-6856
lige	-6857
loss	-6858
meri	-6859
miel	-6860
mott	-6861
musi	-6862
nare	-6863
ners	-6864
nått	-6865
onio	-6866
onyx	-6867
peka	-6868
rand	-6869
saft	-6870
sipp	-6871
skyg	-6872
sköv	-6873
slås	-6874
stju	-6875
tiot	-6876
tull	-6877
unst	-6878
usen	-6879
usla	-6880
▁?',	-6881
abbas	-6882
aktas	-6883
allat	-6884
begri	-6885
bekrä	-6886
beors	-6887
bistå	-6888
bräck	-6889
bävar	-6890
debir	-6891
dödss	-6892
döpta	-6893
ebrev	-6894
elihu	-6895
feber	-6896
flöda	-6897
fullo	-6898
föres	-6899
galen	-6900
hanen	-6901
hanun	-6902
homer	-6903
hosea	-6904
iskar	-6905
jafet	-6906
jerop	-6907
jeter	-6908
kloke	-6909
kvarn	-6910
lemek	-6911
levis	-6912
lyste	-6913
läder	-6914
löses	-6915
mitta	-6916
målen	-6917
nakna	-6918
nedre	-6919
nådde	-6920
pipor	-6921
resin	-6922
safir	-6923
sarna	-6924
sjuke	-6925
själs	-6926
skilt	-6927
smord	-6928
smält	-6929
spela	-6930
sunem	-6931
susan	-6932
syrat	-6933
sågen	-6934
tekoa	-6935
tjock	-6936
tomas	-6937
uppsy	-6938
utväg	-6939
verka	-6940
vildå	-6941
ångra	-6942
ögons	-6943
örnen	-6944
abiram	-6945
adulla	-6946
ballat	-6947
bedrag	-6948
befria	-6949
bilden	-6950
blinde	-6951
bortom	-6952
bönhör	-6953
bördan	-6954
drarna	-6955
dräpta	-6956
dårars	-6957
fyllas	-6958
gissel	-6959
gissla	-6960
gjuten	-6961
glömde	-6962
gråter	-6963
hamans	-6964
hornet	-6965
husbon	-6966
insatt	-6967
jedaja	-6968
jublen	-6969
kalken	-6970
lämnen	-6971
mikmas	-6972
nekade	-6973
offrat	-6974
oliver	-6975
paddan	-6976
plocka	-6977
pparna	-6978
rankor	-6979
rycker	-6980
rötter	-6981
sadoks	-6982
sihons	-6983
själen	-6984
skökol	-6985
spände	-6986
stänga	-6987
stötta	-6988
suckan	-6989
summan	-6990
suttit	-6991
säckar	-6992
sänden	-6993
sättet	-6994
sörjde	-6995
tapper	-6996
tillre	-6997
tistel	-6998
trohet	-6999
tändas	-7000
uttyda	-7001
varest	-7002
vattna	-7003
viljes	-7004
vistas	-7005
åstund	-7006
agrippa	-7007
ananias	-7008
askelon	-7009
avvända	-7010
behöves	-7011
bekänna	-7012
blandar	-7013
blottar	-7014
bringan	-7015
brokiga	-7016
byggnad	-7017
dalarna	-7018
döparen	-7019
elserna	-7020
fläcken	-7021
förestå	-7022
förleda	-7023
försagd	-7024
förödda	-7025
gehenna	-7026
intagit	-7027
jerikos	-7028
jojakin	-7029
kärleks	-7030
lögnare	-7031
magdala	-7032
medelst	-7033
motsvar	-7034
mängden	-7035
mönster	-7036
nedtill	-7037
nätverk	-7038
olyckor	-7039
pluggar	-7040
sidkias	-7041
skickat	-7042
skriven	-7043
skrämma	-7044
skördar	-7045
stillar	-7046
stormän	-7047
straffe	-7048
ståndet	-7049
sångare	-7050
titerna	-7051
tjurens	-7052
törstig	-7053
uppgift	-7054
utlovat	-7055
varande	-7056
vittnat	-7057
vändigt	-7058
ytterst	-7059
överhov	-7060
antingen	-7061
aserorna	-7062
avskilde	-7063
barabbas	-7064
begrunda	-7065
beslutet	-7066
bildstod	-7067
bokrulle	-7068
bäckenet	-7069
delsedag	-7070
dråparen	-7071
dåraktig	-7072
eleasars	-7073
flygande	-7074
flytning	-7075
fädernes	-7076
förgäten	-7077
förlåter	-7078
förstått	-7079
förstört	-7080
förtorka	-7081
förökade	-7082
grundval	-7083
grämelse	-7084
helgelse	-7085
huruvida	-7086
huvudhår	-7087
hängivet	-7088
hörnsten	-7089
imsdalen	-7090
iskariot	-7091
jordiska	-7092
josadaks	-7093
kallelse	-7094
konungas	-7095
likadana	-7096
mörkrets	-7097
nymånads	-7098
olyckans	-7099
omöjligt	-7100
sakarias	-7101
sommaren	-7102
stadgade	-7103
sträckan	-7104
tillföll	-7105
tillhört	-7106
upplåter	-7107
varnagel	-7108
vilostad	-7109
väktaren	-7110
väktarna	-7111
välsigne	-7112
våningen	-7113
adertonde	-7114
arbetarna	-7115
avsomnade	-7116
bedrifter	-7117
bokrullen	-7118
dagsresor	-7119
egyptiern	-7120
etiopiern	-7121
föremålen	-7122
försyndat	-7123
galenskap	-7124
glädjerop	-7125
gossebarn	-7126
jordagods	-7127
kunnighet	-7128
livsmedel	-7129
offerhöjd	-7130
oniternas	-7131
samtalade	-7132
skördemän	-7133
sonhustru	-7134
strömmade	-7135
trettonde	-7136
uppehälle	-7137
uppkallat	-7138
vinträden	-7139
vädurarna	-7140
ynglingen	-7141
aftontiden	-7142
däromkring	-7143
femtedelen	-7144
förbannade	-7145
fördärvets	-7146
förrådshus	-7147
förskingra	-7148
förstfödda	-7149
förströdda	-7150
förvaltare	-7151
gärningars	-7152
hetiternas	-7153
lustgården	-7154
lägerplats	-7155
mångahanda	-7156
oförnuftig	-7157
publikaner	-7158
terebinten	-7159
undervisar	-7160
uppenbarar	-7161
vederstygg	-7162
övermäktig	-7163
betesmarker	-7164
bitterligen	-7165
förföljelse	-7166
förtröstade	-7167
menighetens	-7168
oförnuftiga	-7169
stamfurstar	-7170
tvärstänger	-7171
vilddjurets	-7172
fotställning	-7173
fruktansvärd	-7174
förvandlades	-7175
häravdelning	-7176
landshövding	-7177
månadsrening	-7178
vattenkällor	-7179
konstförfarna	-7180
nebukadressars	-7181
svärdbeväpnade	-7182
ogärningsmännen	-7183
äktenskapsbryter	-7184
jd	-7185
ari	-7186
asi	-7187
bni	-7188
edd	-7189
fle	-7190
gåv	-7191
its	-7192
itu	-7193
ium	-7194
jab	-7195
jun	-7196
jus	-7197
kno	-7198
ktt	-7199
kör	-7200
llo	-7201
lod	-7202
nef	-7203
rei	-7204
tål	-7205
töm	-7206
ubs	-7207
ula	-7208
äll	-7209
åga	-7210
ört	-7211
alex	-7212
arab	-7213
axen	-7214
bora	-7215
dena	-7216
ehud	-7217
eläg	-7218
emja	-7219
eröv	-7220
giel	-7221
harp	-7222
hass	-7223
häkt	-7224
hövi	-7225
iver	-7226
jeus	-7227
ksad	-7228
kval	-7229
last	-7230
lena	-7231
läte	-7232
mest	-7233
neko	-7234
nyss	-7235
ogrä	-7236
ossa	-7237
prat	-7238
sats	-7239
skäg	-7240
sler	-7241
soar	-7242
speg	-7243
stef	-7244
stär	-7245
urim	-7246
utåt	-7247
varm	-7248
éens	-7249
örat	-7250
aktad	-7251
behov	-7252
belte	-7253
bergs	-7254
beten	-7255
bräde	-7256
datan	-7257
ddais	-7258
degen	-7259
derop	-7260
dibon	-7261
dolde	-7262
dundr	-7263
efron	-7264
eliel	-7265
esers	-7266
fjäll	-7267
gades	-7268
grädd	-7269
hadar	-7270
hakar	-7271
harla	-7272
hedra	-7273
hefer	-7274
huram	-7275
hyddo	-7276
immer	-7277
jonas	-7278
joppe	-7279
kelse	-7280
kerub	-7281
köper	-7282
lejde	-7283
leven	-7284
lända	-7285
malki	-7286
milka	-7287
millo	-7288
miste	-7289
mogen	-7290
molok	-7291
måtto	-7292
nahas	-7293
nahes	-7294
prakt	-7295
resan	-7296
ribla	-7297
rivet	-7298
rivna	-7299
rovet	-7300
rymma	-7301
råden	-7302
sabad	-7303
sekan	-7304
skade	-7305
skäpp	-7306
slarm	-7307
slita	-7308
slöja	-7309
spena	-7310
splat	-7311
stack	-7312
strut	-7313
strål	-7314
ströv	-7315
sunda	-7316
sådde	-7317
tiels	-7318
tofet	-7319
trott	-7320
tryck	-7321
tubal	-7322
tvång	-7323
tyget	-7324
uttåg	-7325
vanar	-7326
väger	-7327
ärade	-7328
öglor	-7329
assurs	-7330
balsam	-7331
barnea	-7332
blyges	-7333
brista	-7334
brokig	-7335
byarna	-7336
dagars	-7337
debora	-7338
delvis	-7339
dunder	-7340
flicka	-7341
foster	-7342
frågat	-7343
frågor	-7344
funnes	-7345
föredö	-7346
förhat	-7347
förlik	-7348
getter	-7349
giriga	-7350
grotta	-7351
hamats	-7352
herden	-7353
hermon	-7354
hjälpt	-7355
honkön	-7356
hoppet	-7357
huggit	-7358
härska	-7359
illfun	-7360
inbjöd	-7361
jehiel	-7362
jerame	-7363
jorams	-7364
järnet	-7365
kläden	-7366
läglar	-7367
makter	-7368
meniga	-7369
minnes	-7370
mången	-7371
måttet	-7372
nedböj	-7373
njurar	-7374
nämnda	-7375
otiten	-7376
pannor	-7377
ruiner	-7378
ryckes	-7379
saknas	-7380
senare	-7381
sjöngo	-7382
skilde	-7383
slunga	-7384
släcka	-7385
släppt	-7386
sodoms	-7387
splikt	-7388
spärra	-7389
styres	-7390
stämma	-7391
störst	-7392
svarta	-7393
sättes	-7394
såddes	-7395
teckna	-7396
tjuvar	-7397
tjuven	-7398
torgen	-7399
troner	-7400
tungan	-7401
upphör	-7402
upplåt	-7403
ussiel	-7404
uträck	-7405
utsäde	-7406
vaknar	-7407
vaktar	-7408
vanlig	-7409
varnat	-7410
vältra	-7411
väntan	-7412
vållar	-7413
vården	-7414
återfå	-7415
ankomst	-7416
apollos	-7417
befanns	-7418
befläck	-7419
begivit	-7420
begrund	-7421
behöven	-7422
besatta	-7423
bosätta	-7424
brinner	-7425
brister	-7426
brunnar	-7427
brytare	-7428
drabbat	-7429
dödliga	-7430
efteråt	-7431
eljasib	-7432
ersätta	-7433
faderns	-7434
färdiga	-7435
färgade	-7436
förgick	-7437
förmåga	-7438
förvärv	-7439
glädjen	-7440
grundat	-7441
härskar	-7442
högljud	-7443
hörande	-7444
ismaels	-7445
jagande	-7446
jedutun	-7447
kansler	-7448
läkedom	-7449
läppars	-7450
mediens	-7451
medlare	-7452
midnatt	-7453
misstan	-7454
mottaga	-7455
ondskas	-7456
pelaren	-7457
pilarna	-7458
prydnad	-7459
rättvis	-7460
rörelse	-7461
scharla	-7462
skiljer	-7463
skägget	-7464
slipper	-7465
slockna	-7466
spejare	-7467
spridda	-7468
stappla	-7469
syndens	-7470
tecknen	-7471
torkade	-7472
trakter	-7473
tränger	-7474
tröskel	-7475
utrotad	-7476
ådragit	-7477
absaloms	-7478
anställa	-7479
bedragit	-7480
behållen	-7481
bekänner	-7482
betygade	-7483
döttrars	-7484
elfenben	-7485
fattades	-7486
fruktsam	-7487
fördrevo	-7488
förelagt	-7489
förmanar	-7490
förskjut	-7491
förtäras	-7492
girighet	-7493
gravarna	-7494
gråtande	-7495
gudfrukt	-7496
gårdarna	-7497
helighet	-7498
hemsökte	-7499
huvudena	-7500
huvudman	-7501
hälsning	-7502
inföding	-7503
klenoder	-7504
lovoffer	-7505
lämnades	-7506
lövhyddo	-7507
mulåsnor	-7508
ohelgade	-7509
pliktiga	-7510
räknades	-7511
skalliga	-7512
skökolön	-7513
stillhet	-7514
strängel	-7515
tillbett	-7516
tiotusen	-7517
trädgård	-7518
uppmanar	-7519
uppsluka	-7520
utslitna	-7521
utvärtes	-7522
vemhelst	-7523
vittnade	-7524
våldsamt	-7525
ädlingar	-7526
åsninnan	-7527
avståndet	-7528
bespottar	-7529
efterfölj	-7530
eldslågor	-7531
faderlösa	-7532
farbroder	-7533
femtiotvå	-7534
folkhopen	-7535
frimodiga	-7536
fröjderop	-7537
förbliven	-7538
förgångna	-7539
förlossar	-7540
förmörkas	-7541
församlar	-7542
förtjänar	-7543
förtörnat	-7544
gemensamt	-7545
gästabuds	-7546
hopfogade	-7547
husbonden	-7548
härigenom	-7549
oförfärad	-7550
oryggligt	-7551
planterar	-7552
profetisk	-7553
redlighet	-7554
ridhästar	-7555
sanballat	-7556
schakaler	-7557
skatterna	-7558
skriftlär	-7559
skyndsamt	-7560
stamfader	-7561
strålande	-7562
tillfrisk	-7563
tillredde	-7564
täckelset	-7565
upplyfter	-7566
uppträdde	-7567
upptändas	-7568
uppväcker	-7569
varthelst	-7570
villebråd	-7571
vingården	-7572
berättelse	-7573
efterföljt	-7574
fjärdedels	-7575
fåfängligt	-7576
födslorätt	-7577
förordnade	-7578
förskoning	-7579
försvunnit	-7580
kvarblivna	-7581
lögnaktigt	-7582
medtjänare	-7583
omskärelse	-7584
scharlakan	-7585
styggeliga	-7586
tillsluter	-7587
tillstädja	-7588
trettiofem	-7589
tröskplats	-7590
törnbusken	-7591
umgängelse	-7592
underrätta	-7593
uppslukade	-7594
vilddjuren	-7595
övermodiga	-7596
arbetsplikt	-7597
beltesassar	-7598
frälsningen	-7599
förhärligad	-7600
hårdnackade	-7601
jordbävning	-7602
leverfettet	-7603
löftesoffer	-7604
lösaktighet	-7605
motsvarande	-7606
oavlåtligen	-7607
olivplanter	-7608
skattkamrar	-7609
tjänarinnas	-7610
turturduvor	-7611
understödde	-7612
överträdare	-7613
främlingarna	-7614
fädernesland	-7615
förbannelsen	-7616
gräshopporna	-7617
ljusstakarna	-7618
midjaniterna	-7619
skördemännen	-7620
strängeligen	-7621
tempelkamrar	-7622
tröskplatsen	-7623
välsignelser	-7624
föreståndarna	-7625
rättstjänarna	-7626
syndofferstju	-7627
tillrättavisa	-7628
häravdelningar	-7629
landshövdingar	-7630
rökelsealtaret	-7631
förstfödslorätt	-7632
härhövitsmannen	-7633
silverpenningar	-7634
ei	-7635
asm	-7636
bag	-7637
big	-7638
byn	-7639
cef	-7640
dry	-7641
dyg	-7642
eds	-7643
fän	-7644
gur	-7645
gäl	-7646
hod	-7647
jit	-7648
kit	-7649
lab	-7650
lår	-7651
mmo	-7652
naf	-7653
pol	-7654
rim	-7655
säm	-7656
väm	-7657
ösa	-7658
adar	-7659
adet	-7660
agte	-7661
anti	-7662
avun	-7663
axel	-7664
bill	-7665
bull	-7666
bädd	-7667
börd	-7668
damm	-7669
dige	-7670
dömd	-7671
eisk	-7672
elim	-7673
elix	-7674
eljo	-7675
fots	-7676
gaal	-7677
gata	-7678
gera	-7679
glup	-7680
gnat	-7681
golv	-7682
halt	-7683
hosa	-7684
häri	-7685
inhy	-7686
kamp	-7687
kniv	-7688
ktat	-7689
kvad	-7690
lags	-7691
lame	-7692
lera	-7693
linn	-7694
luta	-7695
låna	-7696
mack	-7697
malm	-7698
mmit	-7699
mull	-7700
mygg	-7701
ogos	-7702
omsi	-7703
plåt	-7704
rene	-7705
rens	-7706
röse	-7707
sala	-7708
semi	-7709
sibe	-7710
smär	-7711
svan	-7712
sväl	-7713
syri	-7714
säte	-7715
sött	-7716
teri	-7717
tion	-7718
trot	-7719
tunn	-7720
tviv	-7721
tvår	-7722
usel	-7723
utpl	-7724
väva	-7725
ädel	-7726
ömma	-7727
agnar	-7728
akaja	-7729
armod	-7730
asmav	-7731
avsön	-7732
axeln	-7733
baana	-7734
bberi	-7735
begrä	-7736
bekän	-7737
beräk	-7738
besal	-7739
betra	-7740
bloss	-7741
brann	-7742
bäras	-7743
cefas	-7744
dager	-7745
dedan	-7746
diten	-7747
ditut	-7748
djurs	-7749
drypa	-7750
dödar	-7751
felix	-7752
ftade	-7753
geber	-7754
gerar	-7755
gonde	-7756
gåven	-7757
gåvos	-7758
gödda	-7759
gömda	-7760
halal	-7761
hatat	-7762
hinna	-7763
hitut	-7764
hjort	-7765
horma	-7766
hålor	-7767
insåg	-7768
jakin	-7769
jarib	-7770
jekon	-7771
jetro	-7772
jobab	-7773
juden	-7774
junde	-7775
kande	-7776
klart	-7777
korer	-7778
kämpa	-7779
kämpe	-7780
liksi	-7781
ljuga	-7782
lykta	-7783
lysen	-7784
lägel	-7785
läran	-7786
löper	-7787
marna	-7788
meder	-7789
mogna	-7790
märkt	-7791
mäten	-7792
målet	-7793
norri	-7794
nämnt	-7795
ofalt	-7796
ornas	-7797
prydd	-7798
rehob	-7799
renar	-7800
renat	-7801
river	-7802
rivit	-7803
roten	-7804
rätts	-7805
sebna	-7806
siare	-7807
simea	-7808
siste	-7809
sjönk	-7810
skapa	-7811
skönt	-7812
sköta	-7813
slung	-7814
slutt	-7815
smaka	-7816
smörj	-7817
sobal	-7818
spänt	-7819
sslar	-7820
stode	-7821
stren	-7822
stämp	-7823
svagt	-7824
säkra	-7825
togen	-7826
trots	-7827
utlän	-7828
vakar	-7829
varor	-7830
velse	-7831
vises	-7832
våder	-7833
årets	-7834
ahitub	-7835
ammoni	-7836
angrep	-7837
avfall	-7838
betyga	-7839
bjuden	-7840
borden	-7841
botten	-7842
bragte	-7843
brutna	-7844
bryten	-7845
bundit	-7846
driven	-7847
drivet	-7848
drivna	-7849
drogen	-7850
därute	-7851
flöden	-7852
frågan	-7853
fångad	-7854
fångas	-7855
födslo	-7856
gingen	-7857
grymma	-7858
haggai	-7859
haglet	-7860
halsen	-7861
helade	-7862
hettan	-7863
hinder	-7864
hundar	-7865
höljda	-7866
hörsam	-7867
iklätt	-7868
infatt	-7869
jegiel	-7870
josuas	-7871
kaifas	-7872
kalebs	-7873
kinden	-7874
köpmän	-7875
liknar	-7876
ljuder	-7877
lärdom	-7878
maheli	-7879
malört	-7880
mandel	-7881
merari	-7882
minste	-7883
oaktat	-7884
ombord	-7885
omgiva	-7886
orolig	-7887
oskära	-7888
plågas	-7889
prydde	-7890
rekabs	-7891
rullen	-7892
ryggen	-7893
räddas	-7894
salmon	-7895
simons	-7896
skapar	-7897
skenet	-7898
skepps	-7899
skidan	-7900
skifte	-7901
skåden	-7902
skötet	-7903
slutna	-7904
smälta	-7905
snabba	-7906
spring	-7907
spräck	-7908
stumma	-7909
talent	-7910
tessal	-7911
tillst	-7912
torget	-7913
trätor	-7914
tuktat	-7915
uppblå	-7916
ussias	-7917
utpost	-7918
utsänd	-7919
verken	-7920
vindar	-7921
vrånga	-7922
väckte	-7923
väpnad	-7924
ärende	-7925
åtlöje	-7926
övergå	-7927
ahikams	-7928
altarna	-7929
ammihud	-7930
angeläg	-7931
anstift	-7932
arbetar	-7933
avskilt	-7934
avundas	-7935
bedrevo	-7936
befalla	-7937
bekände	-7938
berömme	-7939
¦	-7940
▁	-7941
a	-7942
e	-7943
n	-7944
r	-7945
t	-7946
s	-7947
d	-7948
l	-7949
o	-7950
i	-7951
h	-7952
m	-7953
g	-7954
k	-7955
𐋇	-7956
v	-7957
ä	-7958
f	-7959
u	-7960
å	-7961
c	-7962
,	-7963
ö	-7964
b	-7965
j	-7966
p	-7967
.	-7968
y	-7969
»	-7970
;	-7971
:	-7972
𐊣	-7973
𐊼	-7974
?	-7975
-	-7976
'	-7977
é	-7978
!	-7979
x	-7980
(	-7981
)	-7982
2	-7983
0	-7984
4	-7985
6	-7986
1	-7987
8	-7988
9	-7989
ó	-7990
3	-7991
5	-7992
7	-7993
í	-7994
]	-7995
á	-7996
