<pad>	0
</s>	0
<unk>	0
▁p	-0
ti	-1
ai	-2
ri	-3
os	-4
▁k	-5
▁s	-6
in	-7
au	-8
as	-9
ar	-10
▁t	-11
ir	-12
al	-13
▁n	-14
is	-15
im	-16
an	-17
en	-18
▁d	-19
am	-20
us	-21
▁v	-22
▁ir	-23
at	-24
ei	-25
ad	-26
▁b	-27
om	-28
ij	-29
▁m	-30
es	-31
ro	-32
ių	-33
on	-34
ės	-35
ek	-36
tin	-37
▁g	-38
er	-39
oj	-40
uri	-41
li	-42
▁š	-43
ra	-44
▁su	-45
▁kad	-46
▁j	-47
▁į	-48
eik	-49
▁pa	-50
▁E	-51
tų	-52
▁r	-53
tik	-54
či	-55
iš	-56
yb	-57
▁pri	-58
aus	-59
▁ne	-60
▁a	-61
st	-62
em	-63
▁l	-64
um	-65
uo	-66
ėl	-67
uro	-68
av	-69
▁T	-70
▁pas	-71
et	-72
▁at	-73
rin	-74
▁iš	-75
▁P	-76
▁kuri	-77
▁tai	-78
urop	-79
ijos	-80
ki	-81
▁Europ	-82
or	-83
ta	-84
arb	-85
aug	-86
to	-87
ant	-88
▁K	-89
ur	-90
▁ši	-91
▁Europos	-92
ži	-93
▁bū	-94
ėj	-95
end	-96
ais	-97
el	-98
▁y	-99
imo	-100
▁ž	-101
id	-102
▁ap	-103
▁vis	-104
eis	-105
omis	-106
▁dėl	-107
yv	-108
▁u	-109
ali	-110
▁pat	-111
gi	-112
▁pr	-113
▁tik	-114
▁po	-115
▁už	-116
▁kai	-117
ien	-118
ink	-119
ym	-120
▁pro	-121
ab	-122
eš	-123
min	-124
▁yra	-125
▁to	-126
oje	-127
▁S	-128
yti	-129
ėm	-130
▁-	-131
cij	-132
usi	-133
ok	-134
uos	-135
ak	-136
un	-137
aik	-138
ie	-139
imą	-140
si	-141
ent	-142
▁re	-143
čiau	-144
iek	-145
▁val	-146
▁in	-147
imas	-148
▁teis	-149
io	-150
▁gal	-151
ui	-152
▁B	-153
pr	-154
▁sk	-155
yk	-156
ama	-157
ia	-158
tr	-159
▁pir	-160
▁par	-161
▁kl	-162
▁A	-163
▁sv	-164
▁M	-165
▁f	-166
aud	-167
▁pad	-168
tu	-169
▁turi	-170
ci	-171
ūs	-172
auj	-173
ame	-174
▁pag	-175
▁reik	-176
lam	-177
styb	-178
ing	-179
▁Komis	-180
ąj	-181
tas	-182
ung	-183
od	-184
vo	-185
cijos	-186
tis	-187
▁valstyb	-188
rim	-189
minink	-190
čių	-191
▁(	-192
ys	-193
te	-194
▁daug	-195
il	-196
▁kaip	-197
▁V	-198
▁klaus	-199
▁J	-200
ams	-201
kai	-202
je	-203
inti	-204
až	-205
▁sav	-206
▁bend	-207
▁veik	-208
ari	-209
ik	-210
▁lab	-211
▁taip	-212
toj	-213
▁per	-214
ime	-215
▁poli	-216
tar	-217
and	-218
ėtų	-219
ūr	-220
▁svarb	-221
aneš	-222
▁darb	-223
ąjung	-224
og	-225
▁nes	-226
▁šal	-227
tos	-228
ūsų	-229
ov	-230
▁tur	-231
eg	-232
▁N	-233
▁o	-234
▁Par	-235
iu	-236
sti	-237
uvo	-238
▁G	-239
▁pirminink	-240
▁Parlam	-241
▁kon	-242
iai	-243
▁D	-244
▁praneš	-245
▁Sąjung	-246
▁2	-247
alb	-248
tą	-249
ija	-250
▁ES	-251
▁būtų	-252
amas	-253
▁did	-254
▁būti	-255
yje	-256
▁Š	-257
▁sus	-258
ans	-259
▁ats	-260
ėti	-261
▁Tai	-262
▁nar	-263
ol	-264
▁pasi	-265
dži	-266
▁man	-267
tat	-268
▁nor	-269
eli	-270
esn	-271
jų	-272
uom	-273
oms	-274
▁susi	-275
▁labai	-276
ami	-277
▁ki	-278
mon	-279
▁savo	-280
yg	-281
▁ek	-282
me	-283
▁vien	-284
rink	-285
eng	-286
inių	-287
anči	-288
▁tar	-289
▁nep	-290
umo	-291
▁bendr	-292
ūl	-293
iau	-294
▁buvo	-295
▁siek	-296
sl	-297
ej	-298
uk	-299
▁apie	-300
ul	-301
▁dar	-302
ybos	-303
ems	-304
auk	-305
eig	-306
▁pak	-307
emon	-308
▁galim	-309
▁prie	-310
▁ar	-311
▁mūsų	-312
onom	-313
tim	-314
ėčiau	-315
ekt	-316
tink	-317
▁laik	-318
▁pl	-319
ačiau	-320
▁L	-321
inės	-322
▁met	-323
šk	-324
ank	-325
▁dal	-326
▁nuo	-327
▁įv	-328
▁nari	-329
▁20	-330
▁Komisijos	-331
▁R	-332
ties	-333
ios	-334
▁priemon	-335
ist	-336
▁tr	-337
▁politik	-338
▁rink	-339
ius	-340
▁ver	-341
ed	-342
ėms	-343
▁ekonom	-344
▁pirmininke	-345
▁spr	-346
oti	-347
▁Tar	-348
amos	-349
tai	-350
ori	-351
tum	-352
▁bet	-353
pa	-354
tikrin	-355
aid	-356
raš	-357
▁gali	-358
avimo	-359
ento	-360
inans	-361
uoti	-362
▁nauj	-363
▁kom	-364
one	-365
▁reikal	-366
▁tarp	-367
ili	-368
▁pasiūl	-369
ome	-370
žv	-371
vir	-372
isk	-373
ymo	-374
als	-375
▁veiks	-376
▁klausim	-377
men	-378
▁finans	-379
oma	-380
▁net	-381
acij	-382
yst	-383
ums	-384
orm	-385
odėl	-386
▁mok	-387
ter	-388
▁mes	-389
▁užtikrin	-390
▁bus	-391
▁įg	-392
jos	-393
▁gyv	-394
▁naud	-395
▁I	-396
▁gr	-397
▁proc	-398
▁sri	-399
ap	-400
▁pav	-401
▁1	-402
▁kar	-403
rind	-404
ang	-405
var	-406
▁jų	-407
▁aps	-408
▁sprend	-409
ag	-410
ėk	-411
ėjo	-412
▁str	-413
▁es	-414
▁žmon	-415
uose	-416
▁sud	-417
uoj	-418
▁jau	-419
▁kurios	-420
bl	-421
iaus	-422
▁nus	-423
▁kalb	-424
▁vyk	-425
abar	-426
eri	-427
▁są	-428
▁darbo	-429
▁kurie	-430
▁vi	-431
▁pateik	-432
lik	-433
▁valstybės	-434
▁tikr	-435
▁"	-436
▁var	-437
▁reikia	-438
▁Sąjungos	-439
tarim	-440
▁norėčiau	-441
▁pagrind	-442
▁kri	-443
▁Parlament	-444
▁ger	-445
▁sieki	-446
▁dir	-447
ektyv	-448
imų	-449
cial	-450
iškai	-451
▁skir	-452
▁taik	-453
▁turėtų	-454
ch	-455
tina	-456
eči	-457
▁e	-458
▁susij	-459
kl	-460
kur	-461
form	-462
tume	-463
oki	-464
blem	-465
▁prieš	-466
▁tiksl	-467
▁pirm	-468
oli	-469
stitu	-470
▁Parlamento	-471
▁disk	-472
erg	-473
tori	-474
uomen	-475
istem	-476
▁Todėl	-477
▁galimyb	-478
do	-479
▁paž	-480
▁problem	-481
tyje	-482
ūros	-483
▁turime	-484
tus	-485
▁saug	-486
yvend	-487
▁pili	-488
▁Man	-489
ini	-490
rak	-491
▁sistem	-492
▁Komisija	-493
gr	-494
kr	-495
eto	-496
ting	-497
▁kur	-498
▁maž	-499
it	-500
▁Ši	-501
▁rez	-502
▁sut	-503
▁pasiūlym	-504
tinės	-505
išk	-506
▁as	-507
▁ak	-508
▁keli	-509
▁jos	-510
▁neg	-511
ški	-512
žvel	-513
▁atv	-514
▁įgyvend	-515
▁i	-516
▁narių	-517
▁bals	-518
ėmis	-519
▁toki	-520
▁susitarim	-521
▁ypa	-522
▁dabar	-523
▁apsaug	-524
dž	-525
▁me	-526
imus	-527
veik	-528
▁atsi	-529
▁im	-530
energ	-531
iz	-532
enk	-533
▁teisės	-534
▁įsi	-535
▁Pir	-536
▁valstybių	-537
▁šį	-538
▁energ	-539
lyg	-540
ėje	-541
ocial	-542
▁pal	-543
▁priv	-544
ūk	-545
ėra	-546
▁ai	-547
▁prek	-548
▁ji	-549
▁neb	-550
▁institu	-551
▁ti	-552
▁atsak	-553
▁priim	-554
▁nustat	-555
tį	-556
yn	-557
tinių	-558
▁Tačiau	-559
▁regi	-560
umą	-561
▁pab	-562
▁metu	-563
inę	-564
ming	-565
▁žin	-566
▁mums	-567
▁šiuo	-568
▁pasau	-569
▁Pone	-570
dėl	-571
▁narės	-572
▁sek	-573
▁ypač	-574
rė	-575
aip	-576
atin	-577
▁tink	-578
▁200	-579
▁daugiau	-580
dami	-581
inio	-582
▁social	-583
ateg	-584
▁šios	-585
erb	-586
▁pon	-587
tau	-588
cija	-589
adarb	-590
du	-591
▁sp	-592
ikos	-593
link	-594
▁suteik	-595
▁reg	-596
erin	-597
▁užtikrinti	-598
ob	-599
amą	-600
acijos	-601
▁bendradarb	-602
▁min	-603
▁išs	-604
ykl	-605
▁tačiau	-606
.,	-607
▁Vis	-608
▁dem	-609
▁kuris	-610
▁pan	-611
ančių	-612
▁nėra	-613
tari	-614
ud	-615
trauk	-616
▁pasak	-617
▁pasiek	-618
imai	-619
▁Taryb	-620
imu	-621
aisv	-622
▁prad	-623
avimas	-624
aš	-625
iudž	-626
▁diskus	-627
▁tam	-628
▁veiksm	-629
▁siekiant	-630
▁nei	-631
▁region	-632
iją	-633
ėtume	-634
▁politikos	-635
kir	-636
inimo	-637
amų	-638
uotoj	-639
ose	-640
▁kriz	-641
ybės	-642
▁bei	-643
pras	-644
▁todėl	-645
aig	-646
virtin	-647
▁aplink	-648
▁nuom	-649
mog	-650
amai	-651
▁aš	-652
ojo	-653
ėmes	-654
▁strateg	-655
andien	-656
ciją	-657
▁sutar	-658
inink	-659
▁mano	-660
ęs	-661
riaus	-662
ėn	-663
▁laisv	-664
por	-665
ijoje	-666
▁padar	-667
▁be	-668
▁dėmes	-669
▁kiek	-670
▁svarbu	-671
par	-672
avimą	-673
▁poži	-674
▁te	-675
▁lyg	-676
▁demok	-677
▁šalių	-678
▁inform	-679
sn	-680
▁mo	-681
▁kas	-682
▁Taip	-683
cion	-684
▁vid	-685
▁bendradarbi	-686
▁visi	-687
▁biudž	-688
▁der	-689
liau	-690
▁atvej	-691
▁Be	-692
▁sum	-693
▁teisių	-694
tab	-695
▁ati	-696
▁gam	-697
▁sektori	-698
vark	-699
▁Gerb	-700
▁žmog	-701
▁li	-702
▁vy	-703
uosi	-704
▁manau	-705
▁atsižvel	-706
ėme	-707
cijų	-708
ečių	-709
▁C	-710
▁ab	-711
anti	-712
eid	-713
▁Nor	-714
▁šių	-715
▁komit	-716
ūri	-717
ųjų	-718
▁jis	-719
eitim	-720
▁frak	-721
uv	-722
▁dv	-723
▁plė	-724
arba	-725
▁visų	-726
▁sąlyg	-727
▁tarptau	-728
▁kol	-729
▁ly	-730
imui	-731
oliu	-732
▁ties	-733
▁viet	-734
▁kel	-735
iausia	-736
rov	-737
auti	-738
▁iki	-739
▁nuos	-740
▁didel	-741
inį	-742
▁na	-743
▁rem	-744
▁Pirminink	-745
rėž	-746
vien	-747
▁šio	-748
antis	-749
▁teik	-750
▁ekonomikos	-751
mės	-752
▁gyven	-753
rib	-754
▁si	-755
klaus	-756
▁veikl	-757
▁Parlamentas	-758
eip	-759
▁žem	-760
▁tais	-761
ep	-762
▁visiškai	-763
▁klausimas	-764
yrim	-765
▁direktyv	-766
aniz	-767
▁srityje	-768
▁tiek	-769
▁ko	-770
▁sudar	-771
yta	-772
dama	-773
▁mėn	-774
▁vad	-775
▁inter	-776
▁or	-777
giant	-778
▁galima	-779
ato	-780
▁naudoj	-781
ęsti	-782
▁auk	-783
▁padė	-784
▁progr	-785
ėg	-786
ūki	-787
▁raš	-788
▁sveik	-789
▁Tarybos	-790
tro	-791
ymą	-792
yse	-793
čia	-794
▁Mes	-795
▁kurį	-796
▁šiandien	-797
avo	-798
ausi	-799
▁metų	-800
▁žmogaus	-801
ež	-802
asi	-803
▁jie	-804
▁kurių	-805
rag	-806
▁prival	-807
osi	-808
ukt	-809
▁pask	-810
▁požiūri	-811
tek	-812
umas	-813
damas	-814
▁rezoliu	-815
▁kov	-816
▁vykd	-817
▁didži	-818
▁pasaul	-819
▁taisykl	-820
inga	-821
osios	-822
▁arba	-823
▁demokra	-824
▁šią	-825
cional	-826
▁kr	-827
inis	-828
▁suk	-829
▁šis	-830
▁pagal	-831
mo	-832
▁ką	-833
20	-834
▁dalyv	-835
cip	-836
▁st	-837
onos	-838
▁kok	-839
▁užd	-840
▁proj	-841
▁įmon	-842
▁vertin	-843
▁Manau	-844
▁skatin	-845
▁žmonių	-846
▁jo	-847
▁laiko	-848
▁pranešimą	-849
ausiai	-850
tip	-851
ncip	-852
▁pagalb	-853
▁princip	-854
▁el	-855
▁pap	-856
▁susijusi	-857
ub	-858
teb	-859
ymas	-860
zi	-861
▁pakeitim	-862
tn	-863
engti	-864
aist	-865
ijai	-866
▁nepri	-867
▁pasir	-868
▁priemonių	-869
gal	-870
inius	-871
▁plan	-872
kiai	-873
▁įst	-874
rijos	-875
▁patvirtin	-876
ici	-877
▁jei	-878
▁sun	-879
▁Sąjunga	-880
ystės	-881
▁įvai	-882
pareig	-883
▁raštu	-884
eigu	-885
▁prod	-886
▁Ž	-887
ada	-888
čio	-889
▁vald	-890
▁visuomen	-891
sp	-892
paž	-893
▁veiksmų	-894
uli	-895
ybę	-896
▁aiški	-897
▁nacional	-898
▁org	-899
tijos	-900
▁sukur	-901
sta	-902
▁atst	-903
▁tyrim	-904
▁ry	-905
▁pilieči	-906
ib	-907
▁fon	-908
▁prekybos	-909
▁įgyvendin	-910
atyv	-911
▁jog	-912
up	-913
▁atlik	-914
▁politin	-915
eisti	-916
▁pasakyti	-917
▁sumaž	-918
▁toliau	-919
aliz	-920
eidži	-921
▁dirb	-922
sid	-923
tij	-924
laug	-925
▁išl	-926
▁asmen	-927
ėš	-928
arin	-929
▁rinkos	-930
▁Pr	-931
onės	-932
▁būtina	-933
▁padėti	-934
ies	-935
▁klausimą	-936
eb	-937
▁proces	-938
vz	-939
giu	-940
usių	-941
▁šalim	-942
▁klim	-943
▁kuriuos	-944
žin	-945
tais	-946
▁tap	-947
▁konkur	-948
▁Norėčiau	-949
▁darbuotoj	-950
▁veiksming	-951
▁nu	-952
▁Pon	-953
▁energijos	-954
ves	-955
▁rei	-956
▁sak	-957
ijų	-958
elio	-959
▁ned	-960
▁galėtų	-961
ūp	-962
▁trans	-963
▁žemės	-964
rik	-965
▁Pri	-966
▁nori	-967
▁vyriaus	-968
yl	-969
isab	-970
kait	-971
▁padėk	-972
▁paslaug	-973
ens	-974
porto	-975
▁geri	-976
▁įvyk	-977
ina	-978
aišk	-979
▁įtrauk	-980
ytų	-981
▁201	-982
▁skai	-983
▁Lisab	-984
▁pranešėj	-985
olog	-986
▁lėš	-987
ančios	-988
▁kartą	-989
▁vaid	-990
▁varto	-991
▁susitik	-992
čiai	-993
▁atei	-994
▁nors	-995
lament	-996
▁produk	-997
▁klimato	-998
chn	-999
ult	-1000
ig	-1001
rij	-1002
vai	-1003
▁ūki	-1004
alies	-1005
▁Lisabonos	-1006
tiprin	-1007
▁kurią	-1008
pareigoj	-1009
▁organiz	-1010
▁apsaugos	-1011
▁klausimu	-1012
▁no	-1013
avau	-1014
omas	-1015
umat	-1016
▁aug	-1017
▁koki	-1018
▁pati	-1019
▁atstov	-1020
▁negali	-1021
▁pabrėž	-1022
lio	-1023
▁il	-1024
ultat	-1025
▁aukš	-1026
▁du	-1027
iuosi	-1028
▁rezultat	-1029
▁vartotoj	-1030
▁tok	-1031
▁moter	-1032
▁frakcijos	-1033
yz	-1034
▁ml	-1035
▁koleg	-1036
▁vardu	-1037
▁padėkoti	-1038
▁tarptautin	-1039
imt	-1040
ven	-1041
utin	-1042
▁jūsų	-1043
▁dėlto	-1044
▁kartu	-1045
▁padid	-1046
▁poveik	-1047
bū	-1048
žas	-1049
▁An	-1050
▁At	-1051
▁Aš	-1052
▁atveju	-1053
▁didesn	-1054
▁dėmesį	-1055
ima	-1056
tikos	-1057
▁Bend	-1058
▁sveikat	-1059
▁konkuren	-1060
ines	-1061
ingas	-1062
▁vyst	-1063
▁inves	-1064
▁ištek	-1065
▁techn	-1066
▁Ki	-1067
iais	-1068
acija	-1069
▁vaik	-1070
▁Šiuo	-1071
▁plėtr	-1072
▁kontro	-1073
rod	-1074
▁dalyk	-1075
žvil	-1076
▁pam	-1077
iniai	-1078
▁Kaip	-1079
▁atžvil	-1080
▁pritari	-1081
▁di	-1082
kiri	-1083
entoj	-1084
▁Europoje	-1085
▁padaryti	-1086
▁Pirmininke	-1087
▁išv	-1088
▁priežas	-1089
etą	-1090
etas	-1091
▁moksl	-1092
▁ponai	-1093
▁susid	-1094
▁gyventoj	-1095
▁politiką	-1096
fik	-1097
▁pozi	-1098
▁pram	-1099
▁ūkio	-1100
▁imtis	-1101
▁pranešime	-1102
▁inici	-1103
etin	-1104
liek	-1105
rodo	-1106
▁nel	-1107
▁Ponia	-1108
▁partn	-1109
▁kiekvien	-1110
▁priemones	-1111
▁mokes	-1112
▁numat	-1113
▁dr	-1114
▁žod	-1115
▁maist	-1116
▁iniciatyv	-1117
▁deryb	-1118
▁projek	-1119
▁svarbus	-1120
▁piliečių	-1121
▁atžvilgiu	-1122
▁sm	-1123
angi	-1124
▁Dėl	-1125
▁ant	-1126
▁pvz	-1127
▁aišk	-1128
▁pirma	-1129
▁biudžeto	-1130
ut	-1131
▁F	-1132
lob	-1133
man	-1134
▁rag	-1135
▁Turi	-1136
▁pateikti	-1137
lių	-1138
▁sant	-1139
▁konkr	-1140
eigi	-1141
▁tuo	-1142
▁vadov	-1143
lės	-1144
▁paj	-1145
▁kitų	-1146
▁praš	-1147
▁tvark	-1148
▁palaik	-1149
▁įsipareigoj	-1150
▁grei	-1151
▁nusi	-1152
▁darbą	-1153
▁įgyvendinti	-1154
▁H	-1155
mok	-1156
auja	-1157
▁čia	-1158
tarti	-1159
▁grup	-1160
▁pavyz	-1161
▁pažang	-1162
aciją	-1163
inimą	-1164
00	-1165
ažn	-1166
ild	-1167
tok	-1168
čius	-1169
▁mat	-1170
▁steb	-1171
▁vert	-1172
▁visiems	-1173
▁turėtume	-1174
DE	-1175
riz	-1176
aipsn	-1177
audži	-1178
kreip	-1179
▁siūl	-1180
▁duomen	-1181
▁aplinkos	-1182
▁Ar	-1183
omos	-1184
▁svar	-1185
▁Taryba	-1186
▁vienas	-1187
▁politika	-1188
iam	-1189
okum	-1190
▁rib	-1191
ingai	-1192
▁būtin	-1193
▁labiau	-1194
▁pareig	-1195
▁vidaus	-1196
ain	-1197
tel	-1198
▁pripaž	-1199
rį	-1200
▁vieš	-1201
▁dokum	-1202
▁negal	-1203
▁Europa	-1204
▁priimti	-1205
aži	-1206
iniu	-1207
tent	-1208
▁ner	-1209
▁kult	-1210
▁lygi	-1211
esi	-1212
▁įs	-1213
▁jūs	-1214
ėjimo	-1215
ėja	-1216
šti	-1217
▁neturi	-1218
▁svarst	-1219
▁įvairi	-1220
▁aiškiai	-1221
▁atitink	-1222
▁teigi	-1223
▁ponios	-1224
elb	-1225
tarp	-1226
▁asp	-1227
▁Jung	-1228
▁proced	-1229
▁O	-1230
▁U	-1231
▁gri	-1232
UR	-1233
▁ank	-1234
▁pra	-1235
erinti	-1236
▁saugumo	-1237
ino	-1238
omi	-1239
škia	-1240
▁Bals	-1241
▁niek	-1242
▁jeigu	-1243
▁galime	-1244
▁nuomon	-1245
▁prieži	-1246
▁tikrųjų	-1247
▁klausimus	-1248
▁ef	-1249
džio	-1250
▁past	-1251
▁galimybę	-1252
▁3	-1253
ąją	-1254
ūrin	-1255
▁nuol	-1256
▁netur	-1257
▁viena	-1258
▁lygmen	-1259
▁pasiekti	-1260
▁au	-1261
inaud	-1262
▁šioje	-1263
▁atliek	-1264
▁finansų	-1265
▁sukurti	-1266
▁institucijos	-1267
ūrim	-1268
▁energe	-1269
▁priori	-1270
▁tikrai	-1271
▁siekiama	-1272
vaiz	-1273
inimas	-1274
▁skiri	-1275
▁šiame	-1276
▁atskir	-1277
▁pastang	-1278
▁priklaus	-1279
ug	-1280
kal	-1281
▁Gr	-1282
ijas	-1283
sime	-1284
▁pui	-1285
▁sėk	-1286
▁dažn	-1287
▁fond	-1288
▁pras	-1289
▁sunk	-1290
▁interes	-1291
ūn	-1292
ūrų	-1293
ertin	-1294
▁pavoj	-1295
▁panaik	-1296
▁pabrėžti	-1297
▁nustatyti	-1298
aliai	-1299
žiaug	-1300
fer	-1301
ietų	-1302
isak	-1303
▁lai	-1304
▁por	-1305
▁pre	-1306
▁maisto	-1307
ras	-1308
▁kil	-1309
▁tek	-1310
▁abej	-1311
▁pači	-1312
▁vaidmen	-1313
▁sistemos	-1314
▁transporto	-1315
ūrą	-1316
▁Tur	-1317
▁šiuos	-1318
▁atkreip	-1319
alų	-1320
dar	-1321
rime	-1322
▁dien	-1323
▁gerb	-1324
▁sudė	-1325
▁turin	-1326
▁papild	-1327
▁komiteto	-1328
▁laikotarp	-1329
ytas	-1330
škai	-1331
▁EUR	-1332
▁nen	-1333
▁jums	-1334
▁moterų	-1335
▁Sąjungoje	-1336
▁sveikatos	-1337
yr	-1338
met	-1339
eišk	-1340
▁būd	-1341
ingsn	-1342
usijos	-1343
▁skaid	-1344
▁požiūriu	-1345
▁reikalav	-1346
▁ge	-1347
auki	-1348
▁Pirm	-1349
▁kain	-1350
▁komp	-1351
kaitant	-1352
▁reform	-1353
▁žingsn	-1354
▁nuostat	-1355
▁pirmininkauj	-1356
▁atsižvelgiant	-1357
oji	-1358
val	-1359
▁maži	-1360
▁pers	-1361
▁rek	-1362
acijų	-1363
andar	-1364
▁skur	-1365
▁energetikos	-1366
ėte	-1367
▁kit	-1368
ienio	-1369
▁krizės	-1370
▁kuriuo	-1371
▁nariai	-1372
▁pasaulyje	-1373
▁įskaitant	-1374
▁z	-1375
▁Val	-1376
tinai	-1377
ėjimą	-1378
aisant	-1379
▁valdži	-1380
▁šalies	-1381
▁žinoma	-1382
▁plėtros	-1383
▁standar	-1384
tyv	-1385
uje	-1386
timi	-1387
ėsime	-1388
▁srit	-1389
▁pagrį	-1390
▁savai	-1391
▁reguli	-1392
▁atsižvelg	-1393
▁reglament	-1394
▁valstybėms	-1395
▁valstybėse	-1396
ko	-1397
▁5	-1398
din	-1399
▁Iš	-1400
▁Su	-1401
▁šv	-1402
kivaiz	-1403
▁parod	-1404
▁tiesio	-1405
▁Tarybai	-1406
▁pasinaud	-1407
▁priemonės	-1408
▁op	-1409
▁mas	-1410
▁nuro	-1411
▁priėm	-1412
▁efektyv	-1413
▁technolog	-1414
tvark	-1415
▁tvir	-1416
▁griež	-1417
▁šalys	-1418
▁nebuvo	-1419
▁atsakom	-1420
su	-1421
▁c	-1422
gai	-1423
omų	-1424
yba	-1425
istr	-1426
▁mln	-1427
▁pos	-1428
▁šalims	-1429
▁pasiūlymą	-1430
▁vyriausyb	-1431
lo	-1432
oja	-1433
▁jį	-1434
▁Pas	-1435
cijas	-1436
▁kurio	-1437
▁ragin	-1438
▁visos	-1439
▁daugel	-1440
▁prisid	-1441
▁straipsn	-1442
gn	-1443
ate	-1444
▁jud	-1445
▁juos	-1446
▁remi	-1447
sižvel	-1448
▁šalyse	-1449
▁Parlamente	-1450
▁h	-1451
▁reiškia	-1452
▁žv	-1453
džiai	-1454
▁Gali	-1455
▁poreik	-1456
▁strukt	-1457
▁produktų	-1458
tra	-1459
▁ūk	-1460
dyti	-1461
▁nek	-1462
▁bank	-1463
▁pini	-1464
▁metais	-1465
▁nuomone	-1466
op	-1467
yp	-1468
ano	-1469
laud	-1470
▁Šis	-1471
ėjusi	-1472
▁apib	-1473
▁kitos	-1474
▁žmonės	-1475
▁pareišk	-1476
▁užs	-1477
ingumo	-1478
▁kurioje	-1479
▁srityse	-1480
▁paslaugų	-1481
▁diskusijos	-1482
umų	-1483
alog	-1484
▁lik	-1485
▁oro	-1486
▁tol	-1487
▁sien	-1488
▁padėtį	-1489
anc	-1490
ris	-1491
unk	-1492
uol	-1493
▁Bū	-1494
gent	-1495
ytos	-1496
▁mėnes	-1497
▁vieną	-1498
▁įstat	-1499
▁skaidr	-1500
▁kuriose	-1501
▁pasaulio	-1502
▁direktyvos	-1503
gų	-1504
ūm	-1505
▁4	-1506
▁br	-1507
▁neį	-1508
▁Mano	-1509
▁patik	-1510
▁versl	-1511
▁daugum	-1512
▁kuriame	-1513
str	-1514
▁ją	-1515
entų	-1516
taik	-1517
▁rim	-1518
▁Teis	-1519
▁inte	-1520
▁Dabar	-1521
racijos	-1522
▁papras	-1523
pl	-1524
ymu	-1525
ėjau	-1526
Europ	-1527
▁euro	-1528
▁stab	-1529
▁noriu	-1530
▁išlaid	-1531
▁svarbi	-1532
▁vietos	-1533
▁veiklos	-1534
▁metus	-1535
▁partner	-1536
▁dokument	-1537
▁pagalbos	-1538
▁pranešimas	-1539
už	-1540
ati	-1541
yki	-1542
ytis	-1543
agrin	-1544
antys	-1545
varst	-1546
▁form	-1547
▁Turime	-1548
▁pareng	-1549
▁išteklių	-1550
▁svarbiaus	-1551
▁taisyklių	-1552
▁visuomenės	-1553
",	-1554
".	-1555
▁Af	-1556
▁atas	-1557
▁lėšų	-1558
▁agent	-1559
▁jiems	-1560
▁teisę	-1561
▁šalis	-1562
▁dialog	-1563
▁kuriais	-1564
▁reikalų	-1565
▁spręsti	-1566
▁skatinti	-1567
▁Bendrijos	-1568
▁pranešimo	-1569
ėd	-1570
amo	-1571
šal	-1572
▁am	-1573
engi	-1574
rikos	-1575
tokol	-1576
ymosi	-1577
▁2009	-1578
▁Taigi	-1579
▁bendrov	-1580
ūz	-1581
abai	-1582
ingi	-1583
▁išr	-1584
▁spe	-1585
tinio	-1586
▁trūk	-1587
▁lygio	-1588
▁tiesų	-1589
▁pakank	-1590
▁skirti	-1591
▁suteikti	-1592
ver	-1593
ūra	-1594
▁al	-1595
asis	-1596
▁leis	-1597
olidar	-1598
▁narys	-1599
▁kurias	-1600
▁narėms	-1601
▁norime	-1602
▁pastar	-1603
▁įvertin	-1604
aj	-1605
ete	-1606
voti	-1607
ingos	-1608
ėjimas	-1609
▁jūros	-1610
▁narėse	-1611
▁tikslas	-1612
▁gyventojų	-1613
▁sumažinti	-1614
ac	-1615
▁Pag	-1616
▁prak	-1617
ančius	-1618
▁patir	-1619
▁investi	-1620
▁stiprin	-1621
▁ateityje	-1622
▁mokesčių	-1623
▁problema	-1624
▁piliečiams	-1625
▁institucijų	-1626
inta	-1627
liai	-1628
ėtoj	-1629
▁ras	-1630
usios	-1631
▁baig	-1632
▁teises	-1633
▁sistemą	-1634
▁vaidmenį	-1635
iama	-1636
irūp	-1637
▁Bal	-1638
▁kal	-1639
▁kuo	-1640
ešimt	-1641
omend	-1642
▁visas	-1643
▁žodži	-1644
▁bendrą	-1645
▁panaud	-1646
▁lygmeniu	-1647
▁pritariu	-1648
log	-1649
tinę	-1650
▁Jei	-1651
ancūz	-1652
▁Turk	-1653
▁gerai	-1654
▁prisi	-1655
▁priežiūros	-1656
▁susitarimas	-1657
ji	-1658
ump	-1659
engv	-1660
▁mir	-1661
▁Vien	-1662
▁aktų	-1663
▁jaun	-1664
▁šias	-1665
promis	-1666
pręsti	-1667
▁visus	-1668
▁būtent	-1669
▁geresn	-1670
▁vartotojų	-1671
▁susitarimo	-1672
ic	-1673
ąjį	-1674
▁19	-1675
▁ad	-1676
▁fak	-1677
▁išk	-1678
▁nuk	-1679
▁vėl	-1680
▁geriau	-1681
▁pažeid	-1682
▁įsitik	-1683
▁protokol	-1684
▁rekomend	-1685
re	-1686
▁id	-1687
▁is	-1688
akar	-1689
enka	-1690
▁Nep	-1691
▁šie	-1692
▁nary	-1693
▁neat	-1694
tiškai	-1695
▁kelia	-1696
▁akivaiz	-1697
▁padėtis	-1698
▁pagrindinių	-1699
▁rezoliucijos	-1700
yd	-1701
eja	-1702
mas	-1703
onių	-1704
▁Kai	-1705
▁ter	-1706
▁stat	-1707
▁mažiau	-1708
▁reikėtų	-1709
▁žmonėms	-1710
▁susijusių	-1711
ine	-1712
kti	-1713
inam	-1714
▁išš	-1715
▁mod	-1716
▁pus	-1717
▁sub	-1718
▁joki	-1719
▁skub	-1720
▁dalis	-1721
▁esame	-1722
▁kovos	-1723
▁suderin	-1724
▁tiesiog	-1725
▁kompromis	-1726
▁darbuotojų	-1727
eln	-1728
iant	-1729
naud	-1730
taip	-1731
uotų	-1732
▁esu	-1733
tarin	-1734
▁rodo	-1735
▁žvej	-1736
uosius	-1737
▁nusikal	-1738
▁sudėting	-1739
▁tinkamai	-1740
▁pirmiausia	-1741
mę	-1742
▁Kar	-1743
▁aut	-1744
▁gar	-1745
prend	-1746
▁perd	-1747
▁rinką	-1748
▁tokia	-1749
▁turės	-1750
▁kadangi	-1751
▁padarin	-1752
▁paramos	-1753
▁konkreči	-1754
▁problemų	-1755
▁strategijos	-1756
atų	-1757
oju	-1758
umu	-1759
uoja	-1760
alioj	-1761
inant	-1762
▁išsi	-1763
▁nurod	-1764
lamento	-1765
▁dažnai	-1766
▁intern	-1767
▁paramą	-1768
▁priorit	-1769
▁klausimų	-1770
▁tikiuosi	-1771
▁problemos	-1772
▁nepriklaus	-1773
▁sprendimus	-1774
FR	-1775
az	-1776
tak	-1777
uod	-1778
ėse	-1779
kite	-1780
▁buv	-1781
▁mil	-1782
▁prof	-1783
▁tikslų	-1784
▁Prancūz	-1785
▁konkurenc	-1786
▁sprendimo	-1787
▁Galiausiai	-1788
umui	-1789
▁Vid	-1790
▁viz	-1791
▁šia	-1792
▁2020	-1793
▁tari	-1794
▁gauti	-1795
▁krite	-1796
▁turėti	-1797
▁vartoj	-1798
▁poveikį	-1799
▁solidar	-1800
▁Balsavau	-1801
▁kuriomis	-1802
▁Komisijai	-1803
▁darbotvark	-1804
lig	-1805
yla	-1806
laus	-1807
rėži	-1808
▁Tik	-1809
▁ket	-1810
ėjome	-1811
▁Kalb	-1812
▁leid	-1813
▁gamin	-1814
▁treči	-1815
▁paaišk	-1816
▁savait	-1817
▁sistema	-1818
▁galimybes	-1819
▁kontrolės	-1820
ES	-1821
ani	-1822
eno	-1823
ito	-1824
ėta	-1825
▁EP	-1826
autų	-1827
iejų	-1828
ingą	-1829
istų	-1830
timo	-1831
▁Kon	-1832
cijai	-1833
▁visą	-1834
▁kodėl	-1835
▁tyrimų	-1836
▁sąlygas	-1837
▁valdymo	-1838
▁valdžios	-1839
▁privalome	-1840
▁klausimais	-1841
iki	-1842
ird	-1843
uot	-1844
tesn	-1845
eikti	-1846
ordin	-1847
prant	-1848
▁vand	-1849
▁aspek	-1850
▁esmės	-1851
▁privalo	-1852
aun	-1853
būt	-1854
ymų	-1855
lius	-1856
okių	-1857
▁band	-1858
▁pris	-1859
▁teri	-1860
▁europ	-1861
▁bendro	-1862
▁daryti	-1863
▁ataskai	-1864
▁ekonomik	-1865
▁pramonės	-1866
▁problemas	-1867
▁sustiprin	-1868
omą	-1869
ėsi	-1870
žiūr	-1871
▁dvi	-1872
▁sen	-1873
▁tem	-1874
▁tarn	-1875
▁atlikti	-1876
▁koordin	-1877
žiaugiuosi	-1878
▁sprendimą	-1879
vok	-1880
▁bi	-1881
džių	-1882
tišk	-1883
▁riz	-1884
▁ryš	-1885
▁sug	-1886
▁vyr	-1887
▁ilgal	-1888
▁pavad	-1889
anglaud	-1890
▁sąjung	-1891
▁vienod	-1892
▁įtraukti	-1893
mą	-1894
imi	-1895
▁Ai	-1896
▁įt	-1897
▁še	-1898
uota	-1899
▁šeš	-1900
tinis	-1901
▁Veng	-1902
▁kons	-1903
▁perk	-1904
ančias	-1905
▁Graik	-1906
▁aktyv	-1907
▁kelią	-1908
▁krizę	-1909
iausiai	-1910
▁neteis	-1911
▁dėmesio	-1912
▁Atsižvel	-1913
▁pasiūlymas	-1914
▁pasinaudoti	-1915
),	-1916
ėjų	-1917
tija	-1918
▁būs	-1919
▁pok	-1920
ausia	-1921
▁cent	-1922
▁reikš	-1923
▁aukšči	-1924
▁naujas	-1925
▁pramon	-1926
▁vyksta	-1927
▁parengti	-1928
▁pasirink	-1929
▁atkreipti	-1930
▁Į	-1931
irš	-1932
yko	-1933
▁de	-1934
arbo	-1935
▁išg	-1936
▁žuv	-1937
eikia	-1938
iamas	-1939
▁Tarp	-1940
▁glob	-1941
▁kiti	-1942
▁tero	-1943
▁kuria	-1944
▁sudaro	-1945
▁įmonių	-1946
▁paskelb	-1947
▁susirūp	-1948
▁sėkming	-1949
▁balsavau	-1950
▁susitarimą	-1951
▁informacijos	-1952
kri	-1953
orės	-1954
tuoj	-1955
ėjus	-1956
▁Bar	-1957
▁gai	-1958
ančią	-1959
rimin	-1960
▁grės	-1961
▁toks	-1962
anijos	-1963
▁pajėg	-1964
▁leidži	-1965
▁vertyb	-1966
▁visada	-1967
▁pradėti	-1968
▁6	-1969
siu	-1970
enkl	-1971
eten	-1972
okie	-1973
▁Tiki	-1974
▁laiv	-1975
cijoms	-1976
▁Jeigu	-1977
▁tekst	-1978
▁dirbti	-1979
▁sutink	-1980
▁tikslus	-1981
▁padėties	-1982
▁pasireng	-1983
erd	-1984
oso	-1985
▁mus	-1986
▁Žin	-1987
iniais	-1988
minist	-1989
uojant	-1990
▁klaid	-1991
▁naujų	-1992
▁nebus	-1993
▁trump	-1994
▁pagalbą	-1995
▁pagrįst	-1996
▁galėtume	-1997
▁gyvenimo	-1998
▁sprendži	-1999
▁padidinti	-2000
▁finansinių	-2001
▁pakankamai	-2002
▁sprendimas	-2003
ber	-2004
muo	-2005
▁Ir	-2006
iams	-2007
▁Vad	-2008
▁abi	-2009
▁jas	-2010
▁kli	-2011
▁zon	-2012
▁lank	-2013
▁nebū	-2014
▁reag	-2015
▁smur	-2016
cijoje	-2017
▁Labai	-2018
▁ketin	-2019
▁vietų	-2020
▁derybų	-2021
▁pradži	-2022
▁šalyje	-2023
▁ministr	-2024
▁projekt	-2025
▁užsienio	-2026
eda	-2027
ote	-2028
▁Ne	-2029
iems	-2030
uria	-2031
▁Kin	-2032
eglob	-2033
▁Mūsų	-2034
▁dalį	-2035
▁parem	-2036
▁vaikų	-2037
▁ženkl	-2038
▁patenk	-2039
▁siekti	-2040
▁stabil	-2041
▁atsisak	-2042
▁skirtum	-2043
▁piliečiai	-2044
▁vystymosi	-2045
alio	-2046
toti	-2047
▁dėk	-2048
▁žal	-2049
▁2008	-2050
▁itin	-2051
▁Vadov	-2052
▁ankst	-2053
▁nelai	-2054
▁nepak	-2055
▁palan	-2056
▁pastab	-2057
▁dauguma	-2058
▁regiono	-2059
▁pasiūlymų	-2060
▁sutarties	-2061
ron	-2062
tal	-2063
zid	-2064
šči	-2065
▁Tr	-2066
▁et	-2067
▁ra	-2068
▁tą	-2069
▁jėg	-2070
▁kryp	-2071
▁poky	-2072
anduol	-2073
▁Antra	-2074
▁fondo	-2075
▁metod	-2076
▁naują	-2077
▁bendra	-2078
▁kaitos	-2079
▁laikas	-2080
▁susijęs	-2081
▁taikyti	-2082
▁tvarkos	-2083
▁šalimis	-2084
▁administ	-2085
▁žingsnis	-2086
ininkystės	-2087
▁sektoriaus	-2088
▁rezoliuciją	-2089
AV	-2090
est	-2091
ias	-2092
ybą	-2093
▁ci	-2094
▁ta	-2095
abej	-2096
iame	-2097
▁Per	-2098
atori	-2099
ausio	-2100
▁Daug	-2101
▁pamin	-2102
▁išorės	-2103
▁vertus	-2104
▁prieglob	-2105
▁išspręsti	-2106
▁pasiūlymo	-2107
▁sektoriuje	-2108
▁Parlamentui	-2109
ejų	-2110
pro	-2111
žem	-2112
▁om	-2113
▁įd	-2114
▁išp	-2115
▁kor	-2116
alios	-2117
entas	-2118
esnis	-2119
sčiau	-2120
▁besi	-2121
▁kaim	-2122
▁mies	-2123
▁pali	-2124
▁įtak	-2125
▁žini	-2126
▁elekt	-2127
▁rasti	-2128
▁tinkl	-2129
▁keletą	-2130
▁konven	-2131
▁profes	-2132
▁veiklą	-2133
▁veikti	-2134
▁didžiul	-2135
▁duomenų	-2136
▁pabrėži	-2137
▁Sąjungai	-2138
▁diskrimin	-2139
PL	-2140
▁vė	-2141
▁Esu	-2142
▁elg	-2143
▁tas	-2144
▁dujų	-2145
▁plat	-2146
▁aprib	-2147
▁panaš	-2148
▁spaud	-2149
▁galbūt	-2150
▁nuolat	-2151
▁laisvės	-2152
▁rinkoje	-2153
anglaudos	-2154
▁laikytis	-2155
▁prioritet	-2156
▁priežasčių	-2157
000	-2158
iet	-2159
irb	-2160
▁10	-2161
egal	-2162
rint	-2163
▁atn	-2164
avimu	-2165
uotos	-2166
▁konf	-2167
▁šiam	-2168
▁išvad	-2169
▁nepas	-2170
▁Vadovų	-2171
▁papraš	-2172
▁ūkinink	-2173
▁gamintoj	-2174
▁sprendimų	-2175
▁diskusijas	-2176
pri	-2177
žių	-2178
apus	-2179
esti	-2180
vyst	-2181
ėtis	-2182
▁JAV	-2183
▁ang	-2184
▁inf	-2185
ausių	-2186
intas	-2187
▁Mums	-2188
▁jame	-2189
▁mote	-2190
▁prid	-2191
▁situ	-2192
▁atvir	-2193
▁išmet	-2194
▁Valsti	-2195
▁apibrėž	-2196
▁klausimo	-2197
▁kompeten	-2198
▁neturėtų	-2199
▁pritarti	-2200
▁skirting	-2201
▁finansavimo	-2202
▁Ap	-2203
obil	-2204
▁Bri	-2205
▁išd	-2206
▁tau	-2207
uotas	-2208
▁mech	-2209
▁nesu	-2210
▁tada	-2211
▁įman	-2212
eikšti	-2213
yriaus	-2214
▁jokių	-2215
▁lauki	-2216
▁milij	-2217
▁Praneš	-2218
▁naujov	-2219
▁pavyzd	-2220
▁nutrauk	-2221
▁aplinkyb	-2222
▁dabartin	-2223
▁pakeisti	-2224
▁pažeidži	-2225
▁poveikio	-2226
▁klausimai	-2227
▁programos	-2228
▁ekonominės	-2229
▁av	-2230
baig	-2231
iškų	-2232
uoju	-2233
▁Toki	-2234
▁kliū	-2235
iniams	-2236
▁integ	-2237
▁relig	-2238
▁remti	-2239
▁speci	-2240
▁dešimt	-2241
▁pabaig	-2242
▁susiję	-2243
anitarin	-2244
▁kokybės	-2245
▁branduol	-2246
▁greičiau	-2247
▁kriterij	-2248
▁mechaniz	-2249
▁mokslinių	-2250
▁nepaisant	-2251
▁administra	-2252
▁8	-2253
ins	-2254
yra	-2255
umun	-2256
▁Ame	-2257
▁Kad	-2258
esnės	-2259
tariu	-2260
▁2010	-2261
▁oper	-2262
▁pard	-2263
▁pobū	-2264
▁įrod	-2265
▁šiol	-2266
▁Vokie	-2267
▁įvykd	-2268
▁Europą	-2269
▁kovoti	-2270
▁matyti	-2271
▁kalbėti	-2272
▁pasitik	-2273
▁vertinu	-2274
▁strategiją	-2275
ūd	-2276
aliu	-2277
sčio	-2278
▁Bet	-2279
džiui	-2280
ojimo	-2281
torij	-2282
trukt	-2283
▁kita	-2284
▁truk	-2285
▁švie	-2286
▁persp	-2287
▁invest	-2288
▁saugos	-2289
▁apsauga	-2290
▁Tikiuosi	-2291
▁persvarst	-2292
▁strategija	-2293
▁svarbiausia	-2294
IT	-2295
rd	-2296
uz	-2297
nel	-2298
giai	-2299
ingų	-2300
ytoj	-2301
ūkst	-2302
▁000	-2303
▁Jis	-2304
▁Lib	-2305
▁hum	-2306
mokes	-2307
tinti	-2308
▁Nors	-2309
▁kitą	-2310
▁Sutar	-2311
▁autom	-2312
▁kaimyn	-2313
▁Tarptau	-2314
▁apsaugą	-2315
▁nariams	-2316
▁pasiraš	-2317
▁politinių	-2318
▁rezultatų	-2319
▁bendruomen	-2320
▁tarptautinės	-2321
ind	-2322
varb	-2323
ymus	-2324
▁Dar	-2325
▁rod	-2326
ančio	-2327
eikal	-2328
imais	-2329
▁neiš	-2330
▁visk	-2331
▁viso	-2332
acijas	-2333
imtumo	-2334
▁lengv	-2335
▁teisė	-2336
▁atrodo	-2337
▁teikti	-2338
▁sąlygos	-2339
▁anksčiau	-2340
▁partneri	-2341
▁pastangas	-2342
amus	-2343
eiti	-2344
erdv	-2345
abejo	-2346
eniai	-2347
tinas	-2348
ykius	-2349
▁Ital	-2350
▁kyla	-2351
▁mlrd	-2352
▁tvar	-2353
uojama	-2354
▁Rumun	-2355
▁padės	-2356
▁refer	-2357
▁išlaik	-2358
▁nagrin	-2359
▁naudos	-2360
▁paskir	-2361
▁pinigų	-2362
▁supras	-2363
▁bendros	-2364
▁kuriems	-2365
igracijos	-2366
▁nuomonės	-2367
▁pažangos	-2368
▁poziciją	-2369
▁protokolą	-2370
▁atsižvelgti	-2371
anų	-2372
inu	-2373
lov	-2374
tys	-2375
▁In	-2376
▁Šv	-2377
alių	-2378
ieji	-2379
▁Rūm	-2380
▁jam	-2381
aujin	-2382
ausią	-2383
esnio	-2384
inėje	-2385
tifik	-2386
▁būdu	-2387
▁erdv	-2388
▁kreip	-2389
▁kūrim	-2390
▁nerim	-2391
▁tokių	-2392
antiems	-2393
▁aspekt	-2394
▁žinome	-2395
▁žmones	-2396
▁Europai	-2397
▁derybos	-2398
▁vykdyti	-2399
▁negalime	-2400
▁apsaugoti	-2401
▁dalyvauti	-2402
▁galimybių	-2403
▁pagerinti	-2404
▁reikalauj	-2405
▁remiantis	-2406
▁taisykles	-2407
▁informacija	-2408
▁informaciją	-2409
▁demokratijos	-2410
▁prieglobsčio	-2411
ga	-2412
▁7	-2413
inč	-2414
isi	-2415
rių	-2416
▁kv	-2417
imės	-2418
inkl	-2419
tinį	-2420
▁gyn	-2421
feren	-2422
ojant	-2423
torin	-2424
tugal	-2425
▁tiks	-2426
▁atsir	-2427
▁esmin	-2428
▁kelių	-2429
▁beveik	-2430
▁įmonės	-2431
▁galutin	-2432
▁gamybos	-2433
▁ilgalaik	-2434
▁valstybes	-2435
▁perspektyv	-2436
▁sanglaudos	-2437
▁humanitarin	-2438
ekl	-2439
inei	-2440
iška	-2441
laik	-2442
▁Isp	-2443
▁del	-2444
▁jus	-2445
▁pot	-2446
▁rūp	-2447
intel	-2448
krain	-2449
▁apim	-2450
rindži	-2451
▁Kitas	-2452
▁kaita	-2453
▁medži	-2454
▁tapti	-2455
ortugal	-2456
▁asmenų	-2457
▁dalies	-2458
▁pritar	-2459
▁santyk	-2460
▁derybas	-2461
▁nuomonę	-2462
▁pasveik	-2463
▁pažangą	-2464
▁regionų	-2465
▁suprant	-2466
▁taikymo	-2467
▁balsuoti	-2468
▁Šiandien	-2469
▁balsavimo	-2470
▁diskusijų	-2471
▁finansinės	-2472
▁patvirtinti	-2473
▁įgyvendinimo	-2474
raf	-2475
ąsi	-2476
giau	-2477
▁nem	-2478
▁sur	-2479
amasi	-2480
uomet	-2481
▁link	-2482
ausias	-2483
▁aišku	-2484
▁kaimo	-2485
▁pasik	-2486
ančioms	-2487
valstyb	-2488
▁demokr	-2489
▁besivyst	-2490
▁direktyva	-2491
▁socialinės	-2492
▁susijusius	-2493
mu	-2494
žr	-2495
200	-2496
mių	-2497
▁an	-2498
▁ch	-2499
alon	-2500
▁užm	-2501
tines	-2502
▁blog	-2503
▁Šios	-2504
papras	-2505
▁liber	-2506
▁taigi	-2507
▁šiais	-2508
▁prezid	-2509
▁grindži	-2510
▁frakcija	-2511
▁Nepaisant	-2512
▁galimybės	-2513
▁veiksmingai	-2514
▁partnerystės	-2515
▁reikalavimus	-2516
).	-2517
mų	-2518
įž	-2519
esp	-2520
cien	-2521
enki	-2522
gail	-2523
imis	-2524
stat	-2525
tiją	-2526
ymui	-2527
yven	-2528
▁Rus	-2529
nelyg	-2530
▁laiką	-2531
▁mastu	-2532
▁naudo	-2533
▁nieko	-2534
▁turiu	-2535
▁užkir	-2536
▁leisti	-2537
▁nebūtų	-2538
▁pacien	-2539
▁tokios	-2540
▁aptarti	-2541
▁konflik	-2542
▁medžiag	-2543
▁paklaus	-2544
▁įgalioj	-2545
▁Komisiją	-2546
▁Portugal	-2547
▁komitete	-2548
▁konferen	-2549
▁direktyvą	-2550
▁struktūrin	-2551
▁priemonėmis	-2552
▁nacionalinių	-2553
ev	-2554
ni	-2555
eiv	-2556
ūrį	-2557
atas	-2558
fici	-2559
išką	-2560
rijų	-2561
▁ilg	-2562
▁uos	-2563
▁vai	-2564
žemio	-2565
▁Deja	-2566
▁bent	-2567
▁kred	-2568
▁nare	-2569
▁pone	-2570
▁visuo	-2571
Europos	-2572
▁parlam	-2573
▁visoms	-2574
yriausyb	-2575
▁dalykas	-2576
▁naudoti	-2577
▁požiūrį	-2578
▁sutartį	-2579
▁visapus	-2580
▁daugelio	-2581
▁daugelis	-2582
▁kultūros	-2583
▁partijos	-2584
▁užimtumo	-2585
▁įsitikinę	-2586
▁reglamento	-2587
▁pasveikinti	-2588
▁reguliavimo	-2589
ado	-2590
elež	-2591
imos	-2592
ėtas	-2593
aliau	-2594
esnių	-2595
inama	-2596
klaid	-2597
rovės	-2598
▁2007	-2599
▁amži	-2600
▁baus	-2601
▁nukr	-2602
▁pien	-2603
▁pusi	-2604
▁užsi	-2605
rijoje	-2606
▁neigi	-2607
▁pasek	-2608
▁Ukrain	-2609
▁atitik	-2610
▁iššūki	-2611
▁sustab	-2612
▁verslo	-2613
▁tariant	-2614
▁įmonėms	-2615
▁įvairių	-2616
▁sutartis	-2617
▁komitetas	-2618
▁daugiausia	-2619
▁galiausiai	-2620
ard	-2621
sak	-2622
tov	-2623
▁JT	-2624
ausv	-2625
idži	-2626
riai	-2627
umus	-2628
▁bio	-2629
▁eur	-2630
▁kam	-2631
▁rež	-2632
▁ten	-2633
inter	-2634
ykiai	-2635
▁Lenk	-2636
▁kito	-2637
▁puik	-2638
▁tarš	-2639
▁teig	-2640
▁įsig	-2641
tinius	-2642
▁kainų	-2643
▁nares	-2644
▁pažym	-2645
▁sugeb	-2646
▁Rusijos	-2647
▁atliekų	-2648
▁neabejo	-2649
▁paremti	-2650
▁svarbūs	-2651
iskusijos	-2652
▁Pritariu	-2653
▁paskatin	-2654
▁problemą	-2655
▁demokratų	-2656
▁vienintel	-2657
▁pripažinti	-2658
▁investicijų	-2659
eti	-2660
igr	-2661
iui	-2662
rės	-2663
tyn	-2664
▁įr	-2665
▁sti	-2666
ograf	-2667
▁joms	-2668
▁pens	-2669
alifik	-2670
▁apima	-2671
▁sąžin	-2672
▁užduo	-2673
▁Būtent	-2674
▁augimo	-2675
▁išsaug	-2676
▁kuriai	-2677
▁netink	-2678
▁parama	-2679
▁priver	-2680
▁sritis	-2681
▁veikla	-2682
▁Žinoma	-2683
▁Kalbant	-2684
▁kontrol	-2685
▁nepriim	-2686
▁pasisak	-2687
▁regione	-2688
▁savaitę	-2689
▁Amerikos	-2690
▁atvejais	-2691
▁globaliz	-2692
▁pareigas	-2693
▁pernelyg	-2694
▁sudaryti	-2695
▁žvejybos	-2696
▁Jungtinių	-2697
▁panaikinti	-2698
NL	-2699
ein	-2700
▁atk	-2701
▁eks	-2702
▁jai	-2703
▁juo	-2704
▁naš	-2705
▁pla	-2706
inėms	-2707
iršti	-2708
tuose	-2709
▁2011	-2710
▁Slov	-2711
▁pats	-2712
▁tapo	-2713
▁vais	-2714
obilių	-2715
tiniai	-2716
▁Pirma	-2717
▁rengi	-2718
▁sunki	-2719
▁sąraš	-2720
▁uždav	-2721
interes	-2722
▁norint	-2723
▁pačios	-2724
▁prasid	-2725
rastrukt	-2726
▁Afrikos	-2727
▁milijon	-2728
▁taikoma	-2729
▁nepakank	-2730
▁nuolatin	-2731
▁programą	-2732
▁sektorių	-2733
▁skaičius	-2734
▁supapras	-2735
▁suinteres	-2736
▁taisyklės	-2737
▁nusikaltim	-2738
▁socialinių	-2739
201	-2740
ytą	-2741
įst	-2742
▁Už	-2743
alis	-2744
daug	-2745
tras	-2746
ymai	-2747
▁civ	-2748
iškas	-2749
inėmis	-2750
ojimai	-2751
tingai	-2752
▁Prieš	-2753
▁komun	-2754
▁tenka	-2755
▁uždar	-2756
ausiojo	-2757
eležink	-2758
▁dalykų	-2759
▁kitaip	-2760
▁preven	-2761
▁turėjo	-2762
▁užbaig	-2763
▁didelis	-2764
▁kolegos	-2765
▁mirties	-2766
▁ratifik	-2767
▁skirtas	-2768
▁teroriz	-2769
▁vaidmuo	-2770
▁vidutin	-2771
▁įveikti	-2772
▁interesų	-2773
▁išvengti	-2774
▁negalima	-2775
▁veiksmus	-2776
▁sąlygomis	-2777
▁infrastrukt	-2778
▁organizacijos	-2779
mė	-2780
ulg	-2781
▁PP	-2782
▁Po	-2783
auju	-2784
elių	-2785
▁Net	-2786
▁ses	-2787
espub	-2788
ydama	-2789
ysime	-2790
▁gero	-2791
▁posė	-2792
▁virš	-2793
avimui	-2794
▁aktus	-2795
▁artim	-2796
▁tampa	-2797
▁Šiame	-2798
▁pasteb	-2799
▁siekia	-2800
▁skaiči	-2801
▁tikras	-2802
▁veiksn	-2803
▁rinkimų	-2804
▁prieštar	-2805
▁priorite	-2806
▁pusiausv	-2807
▁pavaduotoj	-2808
▁pirmininko	-2809
▁solidarumo	-2810
▁laikotarpiu	-2811
▁reikalingas	-2812
RO	-2813
amb	-2814
ana	-2815
eks	-2816
mes	-2817
▁12	-2818
▁Al	-2819
antų	-2820
arij	-2821
eliu	-2822
imti	-2823
raus	-2824
▁Jie	-2825
▁jūrų	-2826
Europa	-2827
kritai	-2828
ėkūros	-2829
▁biuro	-2830
▁ginkl	-2831
▁išmok	-2832
▁kitas	-2833
▁rinka	-2834
▁rizik	-2835
uržemio	-2836
▁baudži	-2837
▁kitais	-2838
▁lankst	-2839
▁žinias	-2840
▁Valstyb	-2841
▁europie	-2842
▁kalbėjo	-2843
▁puikiai	-2844
▁tvirtai	-2845
▁projektą	-2846
▁įtvirtin	-2847
▁palankiai	-2848
▁iniciatyva	-2849
▁pranešėjas	-2850
▁susirūpinimą	-2851
ūš	-2852
alo	-2853
egz	-2854
ieg	-2855
tam	-2856
▁14	-2857
▁Ji	-2858
apit	-2859
elis	-2860
land	-2861
ąžin	-2862
▁nev	-2863
▁ren	-2864
augos	-2865
iniam	-2866
▁Serb	-2867
▁Visi	-2868
▁galv	-2869
▁inov	-2870
▁nepa	-2871
▁visa	-2872
▁šiai	-2873
▁abejo	-2874
▁angli	-2875
▁aptar	-2876
▁atsin	-2877
▁deleg	-2878
▁gyvūn	-2879
▁vakar	-2880
▁Respub	-2881
▁apgail	-2882
▁atvejų	-2883
▁dviejų	-2884
▁išnaud	-2885
▁keturi	-2886
▁kitose	-2887
▁veikia	-2888
▁išlaidų	-2889
▁kalbant	-2890
▁biudžetą	-2891
▁galėsime	-2892
▁neseniai	-2893
▁nusprend	-2894
▁pastangų	-2895
▁požiūrio	-2896
▁siekdami	-2897
▁priklauso	-2898
▁Pirmininko	-2899
▁Viduržemio	-2900
▁bendrosios	-2901
pn	-2902
▁9	-2903
ąja	-2904
antį	-2905
iami	-2906
ienį	-2907
intų	-2908
ėjai	-2909
▁Pal	-2910
▁išn	-2911
▁lig	-2912
andid	-2913
anori	-2914
▁Siek	-2915
▁daro	-2916
▁elem	-2917
▁skol	-2918
▁Šiau	-2919
▁atvyk	-2920
▁kalba	-2921
▁karin	-2922
▁naujo	-2923
▁neati	-2924
▁pašal	-2925
▁rytoj	-2926
▁skait	-2927
▁keleiv	-2928
▁kilmės	-2929
▁sakant	-2930
▁termin	-2931
▁atsitik	-2932
▁gerinti	-2933
▁Turkijos	-2934
▁geležink	-2935
▁kultūrin	-2936
▁požiūris	-2937
▁santykių	-2938
▁Vengrijos	-2939
▁padarinių	-2940
▁skaidrumo	-2941
▁priežastis	-2942
▁automobilių	-2943
▁reikalavimų	-2944
▁konkurencing	-2945
▁Atsižvelgiant	-2946
▁bendradarbiau	-2947
erc	-2948
pag	-2949
und	-2950
▁Re	-2951
▁ke	-2952
▁sl	-2953
iliz	-2954
ybai	-2955
▁Aud	-2956
▁Jūs	-2957
▁sąs	-2958
▁tel	-2959
avome	-2960
damos	-2961
▁Bulg	-2962
▁Ties	-2963
▁negu	-2964
▁stip	-2965
▁tokį	-2966
▁tuos	-2967
▁šiek	-2968
tumėte	-2969
▁Pietų	-2970
▁gyvyb	-2971
▁kokyb	-2972
▁visai	-2973
▁darbas	-2974
▁kandid	-2975
▁naujos	-2976
▁svarbą	-2977
▁visose	-2978
▁Sąjungą	-2979
▁garanti	-2980
▁kalbama	-2981
▁procesą	-2982
▁projekto	-2983
▁referend	-2984
▁vadovauj	-2985
▁Respublik	-2986
▁interesus	-2987
▁stiprinti	-2988
▁susiduria	-2989
▁vartojimo	-2990
▁pasiūlymus	-2991
▁džiaugiuosi	-2992
▁27	-2993
eiči	-2994
enos	-2995
▁rūš	-2996
▁stu	-2997
ijung	-2998
ydami	-2999
▁eksp	-3000
▁gird	-3001
▁nuoš	-3002
ančiai	-3003
stituc	-3004
tinėje	-3005
▁fondų	-3006
▁sienų	-3007
▁sutik	-3008
▁tikrų	-3009
▁tokio	-3010
▁tūkst	-3011
▁ekolog	-3012
▁grupės	-3013
▁integr	-3014
▁mokykl	-3015
▁nuosav	-3016
▁dėmesys	-3017
▁sistemų	-3018
▁skaičių	-3019
▁tikslai	-3020
▁ypating	-3021
▁atitinka	-3022
▁elektron	-3023
▁procesas	-3024
▁interneto	-3025
▁įvertinti	-3026
▁atsinaujin	-3027
▁įsitikinęs	-3028
▁Prancūzijos	-3029
▁atsakomybės	-3030
▁sustiprinti	-3031
▁neabejotinai	-3032
▁nepriklausom	-3033
▁aukščiausiojo	-3034
▁institucijoms	-3035
▁žuvininkystės	-3036
VĮ	-3037
ne	-3038
eji	-3039
ert	-3040
irž	-3041
pač	-3042
▁11	-3043
esni	-3044
tika	-3045
urin	-3046
vari	-3047
▁Kro	-3048
▁bai	-3049
▁lyd	-3050
▁sta	-3051
inamas	-3052
racija	-3053
▁Svarb	-3054
▁atsid	-3055
▁geras	-3056
▁kokia	-3057
▁nario	-3058
▁nedel	-3059
▁palyg	-3060
▁parag	-3061
▁priek	-3062
iacijos	-3063
▁diskut	-3064
▁konsul	-3065
▁manome	-3066
▁pavyko	-3067
▁visoje	-3068
▁vėliau	-3069
čiausiai	-3070
▁greitai	-3071
▁kurioms	-3072
▁Šiaurės	-3073
▁atsakyti	-3074
▁kvalifik	-3075
▁pagrindą	-3076
▁patikrin	-3077
▁pobūdžio	-3078
▁suprasti	-3079
▁Jungtinės	-3080
▁išteklius	-3081
▁naudojimo	-3082
▁sėkmingai	-3083
▁Pirmiausia	-3084
▁labiausiai	-3085
▁reikalinga	-3086
▁sprendimai	-3087
▁straipsnio	-3088
▁teisingumo	-3089
▁teisėkūros	-3090
▁tarpvalstyb	-3091
▁vyriausybės	-3092
▁įsipareigojimų	-3093
la	-3094
etu	-3095
tui	-3096
čiū	-3097
▁25	-3098
▁tų	-3099
ikai	-3100
kiau	-3101
roso	-3102
truk	-3103
usav	-3104
▁paš	-3105
▁ryž	-3106
▁tie	-3107
minti	-3108
uktyv	-3109
▁išim	-3110
▁neap	-3111
▁omen	-3112
▁vyks	-3113
ausios	-3114
ečiųjų	-3115
uojami	-3116
▁draud	-3117
▁kurti	-3118
▁malon	-3119
▁mažai	-3120
▁pabėg	-3121
▁pieno	-3122
▁reišk	-3123
▁sutel	-3124
▁tikrą	-3125
▁zonos	-3126
irželio	-3127
▁dalimi	-3128
▁didelį	-3129
▁kuriam	-3130
▁nerimą	-3131
▁subsid	-3132
▁sąlygų	-3133
▁anglies	-3134
▁moteris	-3135
▁vandens	-3136
▁įmanoma	-3137
▁naudotis	-3138
▁parlamen	-3139
▁paskutin	-3140
▁praėjusi	-3141
▁principų	-3142
▁taikomos	-3143
▁kriterijus	-3144
▁standartus	-3145
▁sprendžiant	-3146
PT	-3147
ią	-3148
elg	-3149
enh	-3150
ešk	-3151
zra	-3152
▁CO	-3153
dien	-3154
ėlių	-3155
▁Nes	-3156
▁Pak	-3157
▁naf	-3158
▁Šie	-3159
ėdami	-3160
▁Kita	-3161
▁punk	-3162
▁Šved	-3163
engeno	-3164
▁Vakar	-3165
▁dieną	-3166
▁planą	-3167
▁praei	-3168
▁stipr	-3169
▁tokie	-3170
▁Audito	-3171
▁laisvę	-3172
▁manymu	-3173
▁pagarb	-3174
▁patiri	-3175
▁sukeli	-3176
▁tikslo	-3177
▁įstaig	-3178
▁Barroso	-3179
▁Pagrind	-3180
▁kalbame	-3181
▁moterys	-3182
▁nukreip	-3183
▁pristat	-3184
▁program	-3185
▁naudinga	-3186
▁paminėti	-3187
▁parodyti	-3188
▁reaguoti	-3189
▁tarpusav	-3190
▁švietimo	-3191
▁Graikijos	-3192
▁susitarimų	-3193
oc	-3194
po	-3195
aro	-3196
ėst	-3197
▁As	-3198
alus	-3199
ektr	-3200
rija	-3201
vimo	-3202
ytus	-3203
▁Kop	-3204
▁MVĮ	-3205
▁Mar	-3206
▁Pro	-3207
▁apg	-3208
▁lem	-3209
▁rad	-3210
▁sal	-3211
aukti	-3212
edant	-3213
enhag	-3214
giama	-3215
tingų	-3216
▁2006	-3217
▁dviš	-3218
▁etap	-3219
▁penk	-3220
▁romų	-3221
▁spor	-3222
▁stud	-3223
▁vizų	-3224
adienį	-3225
encial	-3226
▁galės	-3227
▁nepag	-3228
▁pačių	-3229
▁priva	-3230
▁sukel	-3231
▁sunku	-3232
ščionių	-3233
žiūrėti	-3234
▁sausio	-3235
▁skirta	-3236
▁skirtų	-3237
▁svarbų	-3238
▁tikrin	-3239
▁dialogą	-3240
▁didelių	-3241
▁niekada	-3242
▁omenyje	-3243
▁siūloma	-3244
▁tiekimo	-3245
▁numatyta	-3246
▁pareigūn	-3247
▁teisinga	-3248
▁atstovauj	-3249
▁liberaliz	-3250
▁pakeitimų	-3251
▁pasiektas	-3252
▁pozicijos	-3253
▁santykius	-3254
▁pusiausvyr	-3255
▁regionuose	-3256
▁susijusios	-3257
▁pagrindinis	-3258
▁žiniasklaid	-3259
▁darbuotojams	-3260
▁pastaruosius	-3261
oz	-3262
iln	-3263
uoš	-3264
yks	-3265
eikš	-3266
esnę	-3267
etui	-3268
ingo	-3269
iško	-3270
jans	-3271
čios	-3272
▁Jos	-3273
▁amb	-3274
▁gav	-3275
▁geb	-3276
▁rug	-3277
amųjų	-3278
▁Izra	-3279
▁abip	-3280
▁atsp	-3281
▁spar	-3282
▁tris	-3283
▁2020"	-3284
▁Negal	-3285
▁būdas	-3286
▁išlik	-3287
▁kapit	-3288
▁lyčių	-3289
▁skurd	-3290
▁sritį	-3291
▁tvari	-3292
▁valiu	-3293
▁viską	-3294
uojamos	-3295
▁Baltar	-3296
▁Vienas	-3297
▁kelias	-3298
▁vanden	-3299
▁žinote	-3300
▁Kadangi	-3301
▁saugumą	-3302
▁Kopenhag	-3303
▁birželio	-3304
▁kontroli	-3305
▁pavyzdys	-3306
▁priemonė	-3307
▁principo	-3308
▁savanori	-3309
▁suteikta	-3310
▁trečiųjų	-3311
▁užkirsti	-3312
▁prisitaik	-3313
▁atsakomybę	-3314
▁Džiaugiuosi	-3315
▁vartotojams	-3316
▁bendradarbiauti	-3317
rų	-3318
ern	-3319
mos	-3320
pas	-3321
▁15	-3322
▁gl	-3323
inys	-3324
obul	-3325
roje	-3326
ūras	-3327
▁aud	-3328
▁bal	-3329
▁byl	-3330
▁tos	-3331
tingi	-3332
tinka	-3333
▁Juod	-3334
▁Kroa	-3335
▁deja	-3336
▁funk	-3337
▁gaun	-3338
▁ginč	-3339
▁gruo	-3340
▁koks	-3341
▁liep	-3342
▁prar	-3343
▁ribų	-3344
▁trad	-3345
▁atlyg	-3346
▁atsar	-3347
▁nepam	-3348
▁nepav	-3349
▁pakar	-3350
▁posėd	-3351
▁puiki	-3352
▁rinkų	-3353
▁tęsti	-3354
aisiais	-3355
ininkai	-3356
▁ketina	-3357
▁laikom	-3358
▁minėjo	-3359
▁nuošir	-3360
▁pastat	-3361
▁taikos	-3362
▁special	-3363
▁tyrimus	-3364
▁Šengeno	-3365
▁gruodžio	-3366
▁gyvenimą	-3367
▁padaryta	-3368
▁atsakomyb	-3369
▁parlament	-3370
▁pateiktas	-3371
▁prisidėti	-3372
▁prisijung	-3373
▁socialinę	-3374
▁ekonomikai	-3375
▁pavyzdžiui	-3376
▁susitikimo	-3377
▁užtikrinant	-3378
▁nacionalinės	-3379
▁konkurencijos	-3380
Pl	-3381
go	-3382
cid	-3383
elį	-3384
lok	-3385
ąst	-3386
▁13	-3387
▁30	-3388
▁ži	-3389
/200	-3390
esnį	-3391
omus	-3392
tern	-3393
urti	-3394
▁gim	-3395
▁rūm	-3396
▁sul	-3397
▁vil	-3398
imams	-3399
tijai	-3400
▁Buvo	-3401
▁Rytų	-3402
▁tema	-3403
ydamas	-3404
▁Darbo	-3405
▁iššūk	-3406
▁kokių	-3407
▁lėšas	-3408
▁nepat	-3409
▁netgi	-3410
▁patek	-3411
▁atnauj	-3412
▁konstr	-3413
▁patais	-3414
▁sričių	-3415
▁įsteig	-3416
▁Airijos	-3417
▁amžiaus	-3418
▁aplinką	-3419
▁didesnį	-3420
▁patobul	-3421
▁proceso	-3422
▁stebėti	-3423
▁sutinku	-3424
▁teisėms	-3425
▁vadinam	-3426
▁išlaidas	-3427
▁paskirst	-3428
▁priminti	-3429
▁apskritai	-3430
▁balsavimą	-3431
▁bendrovių	-3432
▁pagrindas	-3433
▁pakeitimą	-3434
▁sektorius	-3435
▁teisingai	-3436
▁teritorij	-3437
▁informuoti	-3438
▁susitikime	-3439
▁administrac	-3440
▁priežasties	-3441
▁integracijos	-3442
▁įgyvendinant	-3443
ry	-3444
rą	-3445
ane	-3446
aup	-3447
eil	-3448
iej	-3449
mus	-3450
oks	-3451
ton	-3452
anaš	-3453
oriu	-3454
umis	-3455
ėjos	-3456
▁Gal	-3457
▁gen	-3458
▁mis	-3459
▁teb	-3460
ančia	-3461
iamos	-3462
▁Baig	-3463
▁grįž	-3464
▁karo	-3465
▁terš	-3466
▁žali	-3467
arijos	-3468
ininkų	-3469
▁laivų	-3470
▁nežin	-3471
▁pasid	-3472
▁sužin	-3473
ančiais	-3474
▁Reikia	-3475
▁aljans	-3476
▁autori	-3477
▁daugyb	-3478
▁džiaug	-3479
▁išdėst	-3480
▁kokybę	-3481
▁priekį	-3482
▁sąskai	-3483
Plojimai	-3484
▁bendras	-3485
▁kitomis	-3486
▁mažinti	-3487
▁pavojus	-3488
▁priimtas	-3489
▁priėmimo	-3490
▁rengiant	-3491
▁veiksmai	-3492
▁žmonėmis	-3493
▁imigracijos	-3494
▁akivaizdžiai	-3495
▁svarbiausias	-3496
▁technologijų	-3497
▁aplinkosaugos	-3498
▁technologijas	-3499
le	-3500
kio	-3501
ota	-3502
usį	-3503
zmo	-3504
▁Az	-3505
▁ob	-3506
eido	-3507
eral	-3508
site	-3509
tams	-3510
uotą	-3511
ėjas	-3512
ėtos	-3513
▁Pvz	-3514
▁kvo	-3515
erius	-3516
mingi	-3517
▁2013	-3518
▁laim	-3519
▁mane	-3520
▁peln	-3521
▁taps	-3522
enarin	-3523
istano	-3524
onijos	-3525
trauki	-3526
uodami	-3527
▁Didži	-3528
▁iškel	-3529
▁lėšos	-3530
▁patys	-3531
▁steng	-3532
▁tiems	-3533
▁veiki	-3534
▁įpras	-3535
▁šioms	-3536
▁šiose	-3537
▁žinių	-3538
▁analiz	-3539
▁didelę	-3540
▁galioj	-3541
▁kalbos	-3542
▁raginu	-3543
▁taršos	-3544
▁daugelį	-3545
▁komunik	-3546
▁rizikos	-3547
▁užmokes	-3548
▁ateities	-3549
▁mažinimo	-3550
▁nepapras	-3551
▁siekdama	-3552
▁taikomas	-3553
▁teigiama	-3554
▁teikiama	-3555
▁teisinės	-3556
▁tinkamas	-3557
▁Atsižvelg	-3558
▁ekonomiką	-3559
▁išlaikyti	-3560
▁konkrečių	-3561
▁paprašyti	-3562
▁potencial	-3563
▁projektas	-3564
▁sektoriui	-3565
▁standartų	-3566
▁diskusijose	-3567
▁pagrindinės	-3568
bul	-3569
kil	-3570
kra	-3571
lan	-3572
otų	-3573
▁Ek	-3574
▁Es	-3575
▁em	-3576
▁Dėk	-3577
▁PPE	-3578
▁bes	-3579
▁egz	-3580
▁kaž	-3581
▁ori	-3582
▁sil	-3583
▁šil	-3584
eklar	-3585
inimu	-3586
ąsias	-3587
ūrimo	-3588
▁gera	-3589
▁sand	-3590
▁sank	-3591
▁vidu	-3592
ekonom	-3593
osioms	-3594
ėdamas	-3595
▁Biudž	-3596
▁civil	-3597
▁dirba	-3598
▁minim	-3599
▁suvok	-3600
torijos	-3601
▁jokios	-3602
▁vienos	-3603
▁visame	-3604
▁būtinas	-3605
▁kitiems	-3606
▁prekyba	-3607
▁skubiai	-3608
▁Taryboje	-3609
▁atidžiai	-3610
▁atstovai	-3611
▁biurokra	-3612
▁kuriuose	-3613
▁programa	-3614
▁raginama	-3615
▁Pranešime	-3616
▁agentūros	-3617
▁paslaugas	-3618
▁politinės	-3619
▁stabilumo	-3620
▁didžiausią	-3621
▁paaiškinti	-3622
▁pranešėjui	-3623
▁procedūros	-3624
▁rezultatus	-3625
▁konstruktyv	-3626
▁susitarimus	-3627
▁svarbiausių	-3628
▁aplinkybėmis	-3629
▁darbotvarkės	-3630
▁tarptautinių	-3631
▁globalizacijos	-3632
HU	-3633
fi	-3634
are	-3635
cep	-3636
ims	-3637
lav	-3638
vis	-3639
yno	-3640
ęsi	-3641
▁50	-3642
alai	-3643
anda	-3644
cent	-3645
iamą	-3646
savo	-3647
sėjo	-3648
▁Tuo	-3649
▁įsp	-3650
inami	-3651
tiniu	-3652
tomis	-3653
▁Nauj	-3654
▁Brius	-3655
▁galiu	-3656
▁gerin	-3657
▁indėl	-3658
▁laiku	-3659
▁lygiu	-3660
▁miškų	-3661
▁rodik	-3662
▁tikra	-3663
▁tokią	-3664
▁vertę	-3665
encijos	-3666
▁išsami	-3667
▁ketvir	-3668
▁nukent	-3669
▁perkėl	-3670
▁sienos	-3671
▁apriboj	-3672
▁bendrai	-3673
▁dialogo	-3674
▁didinti	-3675
▁glaudži	-3676
▁kompens	-3677
▁laisvių	-3678
▁mokėtoj	-3679
▁pagalba	-3680
▁plėtoti	-3681
▁srities	-3682
▁tinkamą	-3683
▁abejonių	-3684
▁aplinkai	-3685
▁duomenis	-3686
▁nuomonei	-3687
▁pagrindu	-3688
▁bendrovės	-3689
▁biudžetas	-3690
▁ekonomika	-3691
▁nustatyta	-3692
▁politikai	-3693
▁Diskusijos	-3694
▁pakeitimus	-3695
▁finansavimą	-3696
▁pirmininkas	-3697
▁supaprastin	-3698
..	-3699
EB	-3700
EL	-3701
mi	-3702
zd	-3703
imb	-3704
omo	-3705
stų	-3706
tol	-3707
uds	-3708
vyn	-3709
▁Nr	-3710
▁sr	-3711
alią	-3712
teis	-3713
tojo	-3714
▁Jap	-3715
▁Sch	-3716
▁rėm	-3717
▁Žem	-3718
estin	-3719
utuoj	-3720
▁Visų	-3721
▁apsi	-3722
▁atid	-3723
▁kovo	-3724
▁reng	-3725
▁šalį	-3726
inamos	-3727
▁Treči	-3728
▁Turiu	-3729
▁impor	-3730
▁kitus	-3731
▁kredi	-3732
▁lygis	-3733
▁masto	-3734
▁penki	-3735
▁susis	-3736
▁vykst	-3737
ategori	-3738
▁Dėkoju	-3739
▁abiejų	-3740
▁malonu	-3741
▁nuosek	-3742
▁statis	-3743
▁tikslą	-3744
▁vietov	-3745
▁įtakos	-3746
▁žinoti	-3747
▁žodžio	-3748
▁dalykai	-3749
▁taikant	-3750
▁teising	-3751
▁tikimės	-3752
▁trumpai	-3753
▁uždraus	-3754
▁viešųjų	-3755
▁vykdant	-3756
▁abejonės	-3757
▁apsvarst	-3758
▁galimybe	-3759
▁reformas	-3760
▁saugumas	-3761
▁suteikia	-3762
▁tikslais	-3763
▁įvykdymo	-3764
▁diskusija	-3765
▁naudingas	-3766
▁nuostatas	-3767
▁Vokietijos	-3768
▁kiekvienos	-3769
▁patenkinti	-3770
▁rezultatas	-3771
▁darbotvarkę	-3772
▁iniciatyvos	-3773
ced	-3774
jek	-3775
▁No	-3776
alia	-3777
ario	-3778
buds	-3779
gnoz	-3780
lams	-3781
stas	-3782
tame	-3783
toms	-3784
tose	-3785
▁Jau	-3786
▁Pat	-3787
▁atl	-3788
▁išb	-3789
▁mui	-3790
▁nuv	-3791
▁sup	-3792
elyje	-3793
odami	-3794
siant	-3795
▁Brit	-3796
▁dipl	-3797
▁iešk	-3798
▁krik	-3799
▁spek	-3800
▁vyko	-3801
▁vyrų	-3802
audies	-3803
ektros	-3804
imuose	-3805
tingas	-3806
▁Ispan	-3807
▁Karal	-3808
▁Kodėl	-3809
▁Pasau	-3810
▁atein	-3811
▁esant	-3812
▁pilie	-3813
▁tobul	-3814
▁tokiu	-3815
budsmen	-3816
igrantų	-3817
osiomis	-3818
▁Kinija	-3819
▁Rusija	-3820
▁baigti	-3821
▁biolog	-3822
▁garant	-3823
▁kokios	-3824
▁liepos	-3825
▁mažumų	-3826
▁pajamų	-3827
▁plėtrą	-3828
▁sąnaud	-3829
▁tuomet	-3830
▁kasdien	-3831
▁pensijų	-3832
▁plataus	-3833
▁registr	-3834
▁vietoje	-3835
▁Biudžeto	-3836
▁išnagrin	-3837
▁kategori	-3838
▁mėnesius	-3839
▁norėtume	-3840
▁pasiekta	-3841
▁plenarin	-3842
▁skiriasi	-3843
▁Sutarties	-3844
▁diskutuoj	-3845
▁ekonominę	-3846
▁pareikšti	-3847
▁pradžioje	-3848
▁pranešimu	-3849
▁pranešėja	-3850
▁sutartimi	-3851
▁pakeitimas	-3852
▁prioritetus	-3853
▁reikalaujama	-3854
ef	-3855
oh	-3856
etų	-3857
čiu	-3858
▁18	-3859
▁40	-3860
▁tė	-3861
anki	-3862
emok	-3863
rims	-3864
usio	-3865
ysiu	-3866
▁Aus	-3867
▁Kas	-3868
▁Kor	-3869
▁Rem	-3870
▁atš	-3871
▁ein	-3872
▁kūr	-3873
▁lap	-3874
▁mak	-3875
▁med	-3876
▁pik	-3877
entai	-3878
inusi	-3879
▁Balk	-3880
▁Gruz	-3881
▁dvej	-3882
▁gair	-3883
▁kova	-3884
▁lygį	-3885
▁įtik	-3886
▁Štai	-3887
▁žino	-3888
ojimas	-3889
uosime	-3890
uotojų	-3891
▁elges	-3892
▁esama	-3893
▁nauja	-3894
▁pačiu	-3895
▁pinig	-3896
▁silpn	-3897
▁skelb	-3898
▁sukči	-3899
▁taptų	-3900
▁vaist	-3901
tinėmis	-3902
▁ateitį	-3903
▁augimą	-3904
▁dideli	-3905
▁kritik	-3906
▁prekių	-3907
▁prisim	-3908
▁reikės	-3909
▁skurdu	-3910
riausiai	-3911
ternatyv	-3912
▁didelės	-3913
▁prekybą	-3914
▁sandori	-3915
▁sukurta	-3916
▁sunkumų	-3917
▁susipaž	-3918
▁suteiks	-3919
▁duomenys	-3920
▁keleivių	-3921
▁kontrolę	-3922
▁nagrinėj	-3923
▁pagaliau	-3924
▁pilietin	-3925
▁susiduri	-3926
▁svarbios	-3927
▁sąjungos	-3928
▁valstybn	-3929
▁Valstybės	-3930
▁daugelyje	-3931
▁energetin	-3932
▁finansinę	-3933
▁išreikšti	-3934
▁naudojimą	-3935
▁nuostatos	-3936
▁palaikyti	-3937
▁politinio	-3938
▁poreikius	-3939
▁projektus	-3940
▁iniciatyvą	-3941
▁nedelsiant	-3942
▁reikalauti	-3943
▁tiesiogiai	-3944
▁veiksmingą	-3945
▁konvencijos	-3946
▁laikotarpio	-3947
▁organizacijų	-3948
▁įsipareigojimus	-3949
.)	-3950
ūt	-3951
arų	-3952
eki	-3953
gip	-3954
gum	-3955
lai	-3956
ozi	-3957
ėją	-3958
anks	-3959
anta	-3960
eguž	-3961
umos	-3962
▁Pra	-3963
▁lin	-3964
▁tęs	-3965
Komis	-3966
arank	-3967
asiūl	-3968
intos	-3969
iškos	-3970
ojoje	-3971
rašau	-3972
tinku	-3973
tuoja	-3974
▁eurų	-3975
▁kamp	-3976
▁klas	-3977
▁neuž	-3978
aujant	-3979
iniame	-3980
tojimo	-3981
▁Pagal	-3982
▁Stras	-3983
▁derin	-3984
▁draug	-3985
▁nemaž	-3986
▁pagam	-3987
▁pamat	-3988
▁proga	-3989
▁Žemės	-3990
cijomis	-3991
▁Ekonom	-3992
▁Ponios	-3993
▁Prival	-3994
▁Slovak	-3995
▁Vakarų	-3996
▁asmens	-3997
▁bendrų	-3998
▁dėkoju	-3999
▁išplės	-4000
▁išrink	-4001
▁išskir	-4002
▁keitim	-4003
▁kolega	-4004
▁kolegų	-4005
▁padėtų	-4006
▁paketo	-4007
▁prieig	-4008
▁skurdo	-4009
▁tikrov	-4010
▁vaistų	-4011
▁zonoje	-4012
▁Kinijos	-4013
▁aukštos	-4014
▁pritaik	-4015
▁spekuli	-4016
▁įvairov	-4017
▁kandidat	-4018
▁konsulta	-4019
▁kovojant	-4020
▁liaudies	-4021
▁pastabas	-4022
▁susisiek	-4023
▁transpor	-4024
▁apgailest	-4025
▁ombudsmen	-4026
▁panaudoti	-4027
▁policijos	-4028
▁reikšming	-4029
▁suderinti	-4030
▁Parlamentą	-4031
▁ekonominių	-4032
▁pabrėžiama	-4033
▁priklausom	-4034
▁pritariame	-4035
▁socialinio	-4036
▁susijusias	-4037
▁susitikimą	-4038
▁rezoliucija	-4039
▁susitikimas	-4040
VP	-4041
ach	-4042
erv	-4043
prę	-4044
ybė	-4045
ybų	-4046
žio	-4047
bals	-4048
iamų	-4049
orin	-4050
peln	-4051
timą	-4052
tiną	-4053
▁pop	-4054
▁tun	-4055
▁vas	-4056
atina	-4057
imasi	-4058
inimų	-4059
ojimą	-4060
tabil	-4061
tinga	-4062
ymąsi	-4063
ytina	-4064
yčiau	-4065
ėdama	-4066
ėjams	-4067
ėjimu	-4068
ūroje	-4069
▁2012	-4070
▁Egip	-4071
▁char	-4072
▁dvid	-4073
▁gana	-4074
▁reak	-4075
▁taup	-4076
▁žaid	-4077
egužės	-4078
▁Kartu	-4079
▁ambic	-4080
▁argum	-4081
▁bankų	-4082
▁išsam	-4083
▁jokio	-4084
▁keiči	-4085
▁nepal	-4086
▁opozi	-4087
▁vyksi	-4088
ančiųjų	-4089
irektyv	-4090
uojamas	-4091
▁Būtina	-4092
▁aptari	-4093
▁didėja	-4094
▁leistų	-4095
▁naftos	-4096
▁netruk	-4097
▁neįman	-4098
▁niekas	-4099
▁pateis	-4100
▁smurto	-4101
▁status	-4102
▁stipri	-4103
▁vietas	-4104
▁įgalio	-4105
▁aspektų	-4106
▁atstovų	-4107
▁gerokai	-4108
▁istorin	-4109
▁lygybės	-4110
▁patikim	-4111
▁pradžių	-4112
▁prievar	-4113
▁procese	-4114
▁produkt	-4115
▁rinkose	-4116
▁Negalime	-4117
▁Siekiant	-4118
▁Visiškai	-4119
▁didesnio	-4120
▁griežtai	-4121
▁medžiagų	-4122
▁numatyti	-4123
▁pažymėti	-4124
▁pozicija	-4125
▁priimant	-4126
▁tarnybos	-4127
▁turėsime	-4128
▁dokumentų	-4129
▁paklausti	-4130
▁pasiūlymu	-4131
▁principas	-4132
▁procedūrą	-4133
▁procedūrų	-4134
▁programas	-4135
▁Balsavimas	-4136
▁Teisingumo	-4137
▁alternatyv	-4138
▁atsisakyti	-4139
▁dabartinės	-4140
▁finansuoti	-4141
▁investuoti	-4142
▁neatsižvel	-4143
▁pakeitimai	-4144
▁prezidento	-4145
▁reikalauja	-4146
▁valstybėje	-4147
▁visuomenei	-4148
▁darbuotojai	-4149
▁pareiškimai	-4150
▁vyriausybių	-4151
▁tarptautiniu	-4152
▁paprasčiausiai	-4153
AT	-4154
CO	-4155
dė	-4156
lų	-4157
...	-4158
kiu	-4159
old	-4160
sis	-4161
uož	-4162
▁ja	-4163
▁ėm	-4164
-201	-4165
erių	-4166
inus	-4167
jung	-4168
kime	-4169
trof	-4170
ystę	-4171
▁199	-4172
▁Ind	-4173
▁Reg	-4174
▁Tam	-4175
▁baz	-4176
▁log	-4177
▁sep	-4178
▁sky	-4179
kurti	-4180
▁išpl	-4181
▁kada	-4182
▁kažk	-4183
▁narė	-4184
▁pirk	-4185
▁smul	-4186
▁stov	-4187
▁tenk	-4188
▁trag	-4189
avimus	-4190
kričio	-4191
▁Tautų	-4192
▁aktai	-4193
▁atsis	-4194
▁išsak	-4195
▁įvyko	-4196
tnaudži	-4197
▁Social	-4198
▁dalyje	-4199
▁grupių	-4200
▁gyvūnų	-4201
▁kaltin	-4202
▁narius	-4203
▁pageid	-4204
▁plėtra	-4205
▁skirtą	-4206
▁turint	-4207
▁viduje	-4208
▁žengti	-4209
▁Turkija	-4210
▁aljanso	-4211
▁atspind	-4212
▁geograf	-4213
▁gerovės	-4214
▁leidžia	-4215
▁palikti	-4216
▁pareiga	-4217
▁perseki	-4218
▁rugsėjo	-4219
▁skatina	-4220
▁sustabd	-4221
▁svarbos	-4222
▁žingsnį	-4223
▁Italijos	-4224
▁aspektus	-4225
▁dešimtme	-4226
▁eksporto	-4227
▁elektros	-4228
▁kolegoms	-4229
▁kryptimi	-4230
▁pabaigos	-4231
▁savarank	-4232
▁skiriama	-4233
▁užbaigti	-4234
▁Ispanijos	-4235
▁laikomasi	-4236
▁lapkričio	-4237
▁pagrindin	-4238
▁pasiūlyti	-4239
▁priežiūrą	-4240
▁socialinį	-4241
▁valstybei	-4242
▁neturėtume	-4243
▁pasiūlymai	-4244
▁regioninės	-4245
▁rezultatai	-4246
▁straipsnis	-4247
▁Respublikos	-4248
▁demokratiją	-4249
▁gyventojams	-4250
▁atsižvelgiama	-4251
▁įsipareigojimą	-4252
ez	-4253
ąs	-4254
art	-4255
atą	-4256
gan	-4257
ijo	-4258
ono	-4259
pad	-4260
ėję	-4261
▁BŽ	-4262
▁Si	-4263
▁įn	-4264
amio	-4265
iųjų	-4266
rauk	-4267
tens	-4268
urio	-4269
▁Ash	-4270
▁Iki	-4271
▁kiš	-4272
▁kod	-4273
▁mėg	-4274
▁ton	-4275
▁tri	-4276
albūt	-4277
džius	-4278
eistų	-4279
kotik	-4280
▁Kiek	-4281
▁gerą	-4282
▁išsk	-4283
▁jaus	-4284
▁prim	-4285
▁supr	-4286
▁tend	-4287
▁įved	-4288
aujame	-4289
mogaus	-4290
tensyv	-4291
▁Afrik	-4292
▁Bendr	-4293
▁Viena	-4294
▁apsis	-4295
▁didėj	-4296
▁geros	-4297
▁išpuo	-4298
▁kartų	-4299
▁nedid	-4300
▁nelyg	-4301
▁nepad	-4302
▁ofici	-4303
▁patyr	-4304
▁pažad	-4305
▁rūpes	-4306
▁dienos	-4307
▁komerc	-4308
▁mokymo	-4309
▁nenori	-4310
▁norėtų	-4311
▁paskol	-4312
▁pranaš	-4313
▁rimtai	-4314
▁stebės	-4315
▁tikisi	-4316
▁tinkam	-4317
▁vaikai	-4318
▁visais	-4319
▁šaliai	-4320
▁šeimos	-4321
▁šiuose	-4322
atastrof	-4323
kivaizdu	-4324
▁diploma	-4325
▁gaminių	-4326
▁istorij	-4327
▁kartais	-4328
▁palengv	-4329
▁pažanga	-4330
▁poreikį	-4331
▁susitar	-4332
▁sutarim	-4333
▁taikomi	-4334
▁Direktyv	-4335
▁agentūrų	-4336
▁derybose	-4337
▁elektrin	-4338
▁instituc	-4339
▁intensyv	-4340
▁naujovių	-4341
▁pateikta	-4342
▁politinį	-4343
▁posėdyje	-4344
▁pritaria	-4345
▁reformos	-4346
▁rinkimus	-4347
▁vaidmens	-4348
▁Akivaizdu	-4349
▁Vyriausyb	-4350
▁griežtesn	-4351
▁nusikalst	-4352
▁pavyzdžių	-4353
▁principus	-4354
▁svarstyti	-4355
▁sveikatai	-4356
▁mokslinius	-4357
▁programoje	-4358
▁sustabdyti	-4359
▁organizacij	-4360
▁tikriausiai	-4361
▁pagrindiniai	-4362
▁pagrindinius	-4363
▁infrastruktūros	-4364
CS	-4365
SE	-4366
jo	-4367
ąž	-4368
aiš	-4369
aną	-4370
atv	-4371
eka	-4372
erk	-4373
kia	-4374
liu	-4375
ond	-4376
pir	-4377
urn	-4378
▁17	-4379
▁Ab	-4380
▁Ch	-4381
ambl	-4382
džiu	-4383
krik	-4384
lank	-4385
ugeb	-4386
▁Gaz	-4387
▁eil	-4388
▁eis	-4389
▁sau	-4390
▁uni	-4391
▁vež	-4392
▁šim	-4393
alans	-4394
alius	-4395
eliui	-4396
imosi	-4397
ingus	-4398
čiams	-4399
ėtina	-4400
▁Leis	-4401
▁akto	-4402
▁joje	-4403
▁jung	-4404
▁krov	-4405
▁pama	-4406
▁trys	-4407
▁tęsi	-4408
▁užim	-4409
eidžia	-4410
eiškia	-4411
ficial	-4412
ijomis	-4413
inimus	-4414
▁Rūmai	-4415
▁antra	-4416
▁dienų	-4417
▁dviem	-4418
▁išgir	-4419
▁labui	-4420
▁nesėk	-4421
▁perži	-4422
▁pirmą	-4423
▁pridė	-4424
▁sukėl	-4425
▁tikiu	-4426
▁vienu	-4427
▁vieta	-4428
traukti	-4429
▁Ashton	-4430
▁Galbūt	-4431
▁Tarybą	-4432
▁atliko	-4433
▁deklar	-4434
▁fondas	-4435
▁laipsn	-4436
▁mėnesį	-4437
▁nepais	-4438
▁nuveik	-4439
▁padeda	-4440
▁pavojų	-4441
▁privat	-4442
▁sakyti	-4443
▁sėkmės	-4444
▁univer	-4445
▁vaikus	-4446
▁šiomis	-4447
aiškinti	-4448
igracija	-4449
▁apmokes	-4450
▁gegužės	-4451
▁integra	-4452
▁pagerin	-4453
▁pokyčių	-4454
▁prašymą	-4455
▁skirtos	-4456
▁tvirtin	-4457
▁Airijoje	-4458
▁Izraelio	-4459
▁aspektas	-4460
▁netrukus	-4461
▁pamiršti	-4462
▁pareikal	-4463
▁priemonę	-4464
▁stengtis	-4465
▁šaltinių	-4466
▁akivaizdu	-4467
▁ataskaitą	-4468
▁aviacijos	-4469
▁garantijų	-4470
▁nustatant	-4471
▁nutraukti	-4472
▁palyginti	-4473
▁paraginti	-4474
▁pasirengę	-4475
▁pasiūlyme	-4476
▁patirtimi	-4477
▁prisiimti	-4478
▁santykiai	-4479
▁sutartyje	-4480
▁Parlamentu	-4481
▁balsavimas	-4482
▁didžiausia	-4483
▁kiekvienas	-4484
▁nuosavybės	-4485
▁patvirtino	-4486
▁piktnaudži	-4487
▁pranešimui	-4488
▁reglamentą	-4489
▁socialistų	-4490
▁iniciatyvas	-4491
▁nepaprastai	-4492
▁nuoširdžiai	-4493
▁pusiausvyrą	-4494
▁vienintelis	-4495
▁įgyvendinimą	-4496
na	-4497
eit	-4498
ign	-4499
lug	-4500
nyg	-4501
omu	-4502
pat	-4503
rio	-4504
tur	-4505
tės	-4506
uop	-4507
vid	-4508
amės	-4509
bend	-4510
igub	-4511
jame	-4512
kalb	-4513
pręs	-4514
▁Mak	-4515
▁Mok	-4516
▁Sud	-4517
▁abs	-4518
▁fiz	-4519
▁ide	-4520
▁ign	-4521
▁ken	-4522
▁mor	-4523
▁vie	-4524
akiau	-4525
entus	-4526
tiški	-4527
▁Belg	-4528
▁asoc	-4529
▁knyg	-4530
▁lauk	-4531
▁nesi	-4532
▁siej	-4533
▁vair	-4534
inimai	-4535
iškumo	-4536
tijoje	-4537
tinėms	-4538
usiems	-4539
▁Afgan	-4540
▁Noriu	-4541
▁antai	-4542
▁dalių	-4543
▁išaug	-4544
▁komis	-4545
▁neats	-4546
▁pavel	-4547
▁remia	-4548
▁ryšių	-4549
▁rūšių	-4550
▁surin	-4551
▁suvar	-4552
▁sąvok	-4553
▁įrang	-4554
▁įtaką	-4555
▁Svarbu	-4556
▁galite	-4557
▁gyvena	-4558
▁išanks	-4559
▁kainos	-4560
▁kitoms	-4561
▁kontek	-4562
▁laukia	-4563
▁naujus	-4564
▁paketą	-4565
▁pirmin	-4566
▁prasme	-4567
▁specif	-4568
▁teikia	-4569
▁tinklo	-4570
▁tokias	-4571
▁tyrimą	-4572
▁atvejus	-4573
▁didelio	-4574
▁išgyven	-4575
▁kliūčių	-4576
▁laisvai	-4577
▁minėjau	-4578
▁pasirod	-4579
▁patiria	-4580
▁pinigai	-4581
▁praėjus	-4582
▁priimta	-4583
▁tarybos	-4584
▁teikimo	-4585
▁teršalų	-4586
▁turizmo	-4587
▁įvykiai	-4588
▁Valstijų	-4589
▁akivaizd	-4590
▁aktyviai	-4591
▁atskirai	-4592
▁būtinybę	-4593
▁draudimo	-4594
▁leiskite	-4595
▁lengviau	-4596
▁ministrų	-4597
▁narkotik	-4598
▁nuostatų	-4599
▁nurodyta	-4600
▁pacientų	-4601
▁padėtyje	-4602
▁pirmasis	-4603
▁pokyčius	-4604
▁pritarim	-4605
▁sparčiai	-4606
▁svarbius	-4607
▁valiutos	-4608
▁Švedijos	-4609
▁Privalome	-4610
▁Rumunijos	-4611
▁apibrėžti	-4612
▁glaudžiai	-4613
▁išsaugoti	-4614
▁kiekvieną	-4615
▁naudojant	-4616
▁pabėgėlių	-4617
▁pripažįst	-4618
▁skirtumus	-4619
▁įsigalioj	-4620
▁įsipareig	-4621
▁migracijos	-4622
▁parlamento	-4623
▁pranešėjai	-4624
▁procedūras	-4625
▁Pirmininkas	-4626
▁apsvarstyti	-4627
▁darbuotojus	-4628
▁gamintojams	-4629
▁institucija	-4630
▁nepriimtina	-4631
▁pagrindines	-4632
▁pažeidžiami	-4633
▁susitarimai	-4634
▁Tarptautinės	-4635
▁geležinkelių	-4636
▁prisitaikymo	-4637
▁struktūrinių	-4638
-0	-4639
SV	-4640
he	-4641
sk	-4642
▁0	-4643
raz	-4644
alas	-4645
imok	-4646
ingu	-4647
tųsi	-4648
umai	-4649
ūrai	-4650
▁Nuo	-4651
▁Raš	-4652
▁apr	-4653
▁deg	-4654
▁deš	-4655
▁dis	-4656
▁kyl	-4657
▁įgū	-4658
▁žym	-4659
iausi	-4660
istai	-4661
ojame	-4662
yrimo	-4663
ytume	-4664
▁Cent	-4665
▁gerų	-4666
▁kari	-4667
▁naik	-4668
▁namų	-4669
▁pasm	-4670
▁sako	-4671
▁toli	-4672
ausius	-4673
iantis	-4674
uojame	-4675
ystėje	-4676
▁Sveik	-4677
▁banko	-4678
▁ginti	-4679
▁jėgos	-4680
▁kiekį	-4681
▁minut	-4682
▁pasis	-4683
▁paver	-4684
▁puikų	-4685
▁trijų	-4686
▁vieno	-4687
▁Šioje	-4688
▁žalos	-4689
ančiose	-4690
▁Kitaip	-4691
▁daroma	-4692
▁ekspor	-4693
▁elgtis	-4694
▁kūrimo	-4695
▁maistu	-4696
▁matome	-4697
▁nedarb	-4698
▁pakeis	-4699
▁palank	-4700
▁paspar	-4701
▁septyn	-4702
▁sulauk	-4703
▁žaliav	-4704
ančiomis	-4705
▁Balkanų	-4706
▁Valstij	-4707
▁asmenys	-4708
▁atlieka	-4709
▁gyventi	-4710
▁ilgalai	-4711
▁jaunimo	-4712
▁palanki	-4713
▁savaime	-4714
▁teisinę	-4715
▁Žmogaus	-4716
▁Baltijos	-4717
▁Leiskite	-4718
▁Lenkijos	-4719
▁daugeliu	-4720
▁didesnis	-4721
▁frakcijų	-4722
▁kontekst	-4723
▁kreiptis	-4724
▁pagarbos	-4725
▁pagrįsta	-4726
▁posėdžio	-4727
▁programų	-4728
▁tikslams	-4729
▁užduotis	-4730
▁vertinti	-4731
▁vienodai	-4732
▁Baigdamas	-4733
▁ataskaita	-4734
▁inovacijų	-4735
▁partnerių	-4736
▁patirties	-4737
▁pranešėjo	-4738
▁produktus	-4739
▁skaičiaus	-4740
▁susitarti	-4741
▁terorizmu	-4742
▁vertinimą	-4743
krikščionių	-4744
▁Kopenhagos	-4745
▁gyvybiškai	-4746
▁pasiūlymui	-4747
▁savanorišk	-4748
▁užmokesčio	-4749
▁vartotojai	-4750
▁demokratija	-4751
▁kompromisas	-4752
▁patvirtinta	-4753
▁valstybėmis	-4754
▁Portugalijos	-4755
ge	-4756
kų	-4757
yž	-4758
ši	-4759
ATO	-4760
iar	-4761
osn	-4762
ret	-4763
sik	-4764
tuv	-4765
uma	-4766
umi	-4767
urd	-4768
vys	-4769
yto	-4770
▁16	-4771
▁Mo	-4772
▁įk	-4773
eiks	-4774
erio	-4775
ovos	-4776
tine	-4777
tini	-4778
unis	-4779
usią	-4780
yrus	-4781
▁Pad	-4782
▁blo	-4783
▁etn	-4784
▁gau	-4785
▁gyd	-4786
▁Šių	-4787
ajame	-4788
edama	-4789
ečiai	-4790
ijoms	-4791
timas	-4792
timis	-4793
tinei	-4794
žvelg	-4795
▁Ačiū	-4796
▁Euro	-4797
▁Koki	-4798
▁aktu	-4799
▁blok	-4800
▁kovą	-4801
▁prag	-4802
▁prot	-4803
▁smar	-4804
▁įsik	-4805
▁žais	-4806
▁žuvų	-4807
eikėtų	-4808
esnius	-4809
tnamio	-4810
vienas	-4811
ėjusių	-4812
▁Tokia	-4813
▁atskl	-4814
▁glaud	-4815
▁kovai	-4816
▁motin	-4817
▁neman	-4818
▁palik	-4819
▁pusės	-4820
istuoja	-4821
▁atsarg	-4822
▁erdvės	-4823
▁galėjo	-4824
▁grėsmę	-4825
▁ištais	-4826
▁kortel	-4827
▁modern	-4828
▁nariui	-4829
▁parodė	-4830
▁perkel	-4831
▁planas	-4832
▁plėtoj	-4833
▁sąlyga	-4834
▁sąrašą	-4835
▁tebėra	-4836
▁užmojo	-4837
▁ankstyv	-4838
▁balsavo	-4839
▁daugybę	-4840
▁išsivys	-4841
▁neteisė	-4842
▁partija	-4843
▁priimtų	-4844
▁sukūrim	-4845
▁teisinį	-4846
▁tinkama	-4847
▁trūksta	-4848
▁visomis	-4849
▁vykdymo	-4850
▁įtrauki	-4851
▁Bulgarij	-4852
▁iššūkius	-4853
▁moterims	-4854
▁nelaimių	-4855
▁nusipeln	-4856
▁pagrindų	-4857
▁pateiktą	-4858
▁pramonei	-4859
▁siekiame	-4860
▁sistemas	-4861
▁susirink	-4862
▁sutelkti	-4863
▁teisėmis	-4864
balsavimas	-4865
▁dabartinę	-4866
▁diskusiją	-4867
▁kiekviena	-4868
▁kriterijų	-4869
▁lankstumo	-4870
▁neįmanoma	-4871
▁pabaigoje	-4872
▁pagrįstas	-4873
▁pakeitimo	-4874
▁principai	-4875
▁priversti	-4876
▁ryžtingai	-4877
▁teritorin	-4878
▁įtrauktas	-4879
▁Bulgarijos	-4880
▁apmokestin	-4881
▁asmeniškai	-4882
▁diskutuoti	-4883
▁kompromisą	-4884
▁nustatytas	-4885
▁nustatytos	-4886
▁principais	-4887
▁standartai	-4888
▁valstybnar	-4889
▁šiandienos	-4890
▁problemomis	-4891
▁pasitikėjimą	-4892
▁prieštarauja	-4893
▁visapusiškai	-4894
▁humanitarinės	-4895
▁rezoliucijoje	-4896
▁žiniasklaidos	-4897
▁rekomendacijas	-4898
AL	-4899
KR	-4900
alą	-4901
ers	-4902
ite	-4903
omp	-4904
tir	-4905
ybe	-4906
ynų	-4907
žud	-4908
▁Pa	-4909
atai	-4910
atūr	-4911
etai	-4912
eviz	-4913
išku	-4914
otos	-4915
sual	-4916
tasi	-4917
tijų	-4918
toje	-4919
trūk	-4920
tųjų	-4921
▁100	-4922
▁500	-4923
▁Kol	-4924
▁Pav	-4925
▁Sar	-4926
▁bar	-4927
amojo	-4928
inėse	-4929
iskal	-4930
labai	-4931
mečio	-4932
obili	-4933
oksid	-4934
prieš	-4935
telek	-4936
▁2000	-4937
▁NATO	-4938
▁antr	-4939
▁jais	-4940
▁main	-4941
▁patį	-4942
▁rams	-4943
▁real	-4944
▁sign	-4945
▁siun	-4946
▁srau	-4947
▁sugr	-4948
ankiai	-4949
inistr	-4950
linkos	-4951
sienio	-4952
ymuisi	-4953
▁Maked	-4954
▁Trans	-4955
▁asign	-4956
▁eismo	-4957
▁esate	-4958
▁kalbu	-4959
▁kokiu	-4960
▁korup	-4961
▁neleg	-4962
▁ponia	-4963
▁supra	-4964
▁vykti	-4965
▁įdieg	-4966
▁šešėl	-4967
amosios	-4968
tiniais	-4969
tiniams	-4970
▁Finans	-4971
▁Pastar	-4972
▁Slovėn	-4973
▁Teismo	-4974
▁Trečia	-4975
▁aukšto	-4976
▁keisti	-4977
▁pasakė	-4978
▁pirmyn	-4979
▁propag	-4980
▁režimo	-4981
▁rinkas	-4982
▁sulaik	-4983
▁sureng	-4984
▁tikros	-4985
▁tikslu	-4986
▁tokius	-4987
▁vadovų	-4988
▁Ministr	-4989
▁Sutinku	-4990
▁atkurti	-4991
▁atliktą	-4992
▁baigtos	-4993
▁centrin	-4994
▁didesnę	-4995
▁gynybos	-4996
▁išvadas	-4997
▁kliūtis	-4998
▁mėnesių	-4999
▁nesugeb	-5000
▁norėjau	-5001
▁plėtrai	-5002
▁reformų	-5003
▁įvykius	-5004
▁ženklas	-5005
▁Serbijos	-5006
▁ataskait	-5007
▁kolektyv	-5008
▁neturime	-5009
▁nurodyti	-5010
▁pagrįsti	-5011
▁palaikau	-5012
▁projektų	-5013
▁reitingų	-5014
▁saugumui	-5015
▁sesijoje	-5016
▁skaitmen	-5017
▁smarkiai	-5018
▁surengti	-5019
▁sutarčių	-5020
▁sužinoti	-5021
▁teigiamą	-5022
▁tiksliai	-5023
▁valstybę	-5024
▁vertybes	-5025
▁įstatymų	-5026
▁įtraukta	-5027
▁Italijoje	-5028
▁dokumentą	-5029
▁išsivysči	-5030
▁katastrof	-5031
▁leidžiama	-5032
▁nustatytų	-5033
▁parengtas	-5034
▁pašalinti	-5035
▁procedūra	-5036
▁skaidrumą	-5037
▁sudėtinga	-5038
▁susijusią	-5039
▁įpareigoj	-5040
▁šiltnamio	-5041
▁Briuselyje	-5042
▁duomenimis	-5043
▁efektyvumą	-5044
▁ekonominio	-5045
▁priemonėms	-5046
▁struktūros	-5047
▁užtikrinta	-5048
▁aukščiausio	-5049
▁panaikinimo	-5050
▁užtikrintas	-5051
▁Baltarusijos	-5052
▁koordinavimo	-5053
▁nacionaliniu	-5054
▁persvarstyti	-5055
ER	-5056
PS	-5057
so	-5058
są	-5059
ėt	-5060
ema	-5061
ich	-5062
jai	-5063
ord	-5064
ėli	-5065
▁21	-5066
▁EB	-5067
▁To	-5068
▁įž	-5069
▁Šį	-5070
ajai	-5071
inos	-5072
osto	-5073
otas	-5074
turi	-5075
virš	-5076
ūkes	-5077
▁Kan	-5078
▁Mad	-5079
▁Nem	-5080
▁dom	-5081
▁duj	-5082
▁suž	-5083
aktyv	-5084
amumo	-5085
esnes	-5086
osovo	-5087
strem	-5088
tuoti	-5089
usias	-5090
usius	-5091
veren	-5092
▁Mold	-5093
▁darn	-5094
▁drąs	-5095
▁eiti	-5096
▁išei	-5097
▁kokį	-5098
▁rank	-5099
▁stok	-5100
▁šeim	-5101
▁žurn	-5102
emokra	-5103
oksido	-5104
▁Atsak	-5105
▁aprūp	-5106
▁buvau	-5107
▁demon	-5108
▁dirbo	-5109
▁kalbą	-5110
▁kelis	-5111
▁keliu	-5112
▁lūkes	-5113
▁nesuk	-5114
▁plano	-5115
▁užuot	-5116
▁šiems	-5117
eticijų	-5118
iliečių	-5119
iniuose	-5120
▁Strasb	-5121
▁Vidaus	-5122
▁aiškus	-5123
▁atosto	-5124
▁defici	-5125
▁eksper	-5126
▁imtasi	-5127
▁kodeks	-5128
▁milžin	-5129
▁prašau	-5130
▁preced	-5131
▁smurtą	-5132
▁suvien	-5133
▁tenden	-5134
▁tvirtą	-5135
▁valand	-5136
▁valdys	-5137
▁viskas	-5138
▁atskirų	-5139
▁bausmės	-5140
▁galioja	-5141
▁kreditų	-5142
▁maždaug	-5143
▁negaliu	-5144
▁nuosekl	-5145
▁pažangi	-5146
▁pereiti	-5147
▁pinigus	-5148
▁sutinka	-5149
▁suveren	-5150
▁svarbių	-5151
▁televiz	-5152
▁tikėtis	-5153
▁vaikams	-5154
▁Aplinkos	-5155
▁Komisare	-5156
▁Konstitu	-5157
▁Pagaliau	-5158
▁konstitu	-5159
▁nuveikti	-5160
▁pridurti	-5161
▁principą	-5162
▁sandorių	-5163
▁spaudimą	-5164
▁speciali	-5165
▁ypatingą	-5166
▁žodžiais	-5167
▁Juodosios	-5168
▁Valstijos	-5169
▁geriausia	-5170
▁nepalanki	-5171
▁prisidėjo	-5172
▁skiriamas	-5173
▁subsidiar	-5174
▁visuomenę	-5175
▁Britanijos	-5176
▁dokumentas	-5177
▁finansinio	-5178
▁konkrečiai	-5179
▁padarinius	-5180
▁pasirinkti	-5181
▁paskatinti	-5182
▁skaidrumas	-5183
▁tarpusavio	-5184
▁kaimynystės	-5185
▁prevencijos	-5186
▁susisiekimo	-5187
▁tarpusavyje	-5188
▁visuomenėje	-5189
▁įgaliojimus	-5190
▁konkurencija	-5191
▁konkurenciją	-5192
▁patvirtinimo	-5193
▁reikalavimas	-5194
▁kompetencijos	-5195
▁nacionalinius	-5196
▁įgyvendinimas	-5197
50	-5198
SK	-5199
ah	-5200
ALE	-5201
ask	-5202
ata	-5203
bur	-5204
cen	-5205
ena	-5206
gia	-5207
per	-5208
rai	-5209
rei	-5210
ukš	-5211
žym	-5212
▁0,	-5213
▁Gv	-5214
▁II	-5215
▁Ką	-5216
alyv	-5217
cidų	-5218
enta	-5219
iški	-5220
rank	-5221
tinų	-5222
ėsiu	-5223
▁AKR	-5224
▁BVP	-5225
▁Kos	-5226
▁Mat	-5227
▁Rag	-5228
▁rin	-5229
ančiu	-5230
avimų	-5231
iname	-5232
umais	-5233
uotis	-5234
ustat	-5235
ytojų	-5236
ėjimų	-5237
▁2004	-5238
▁Antr	-5239
▁Irak	-5240
▁Jame	-5241
▁Laik	-5242
▁Rūmų	-5243
▁ačiū	-5244
▁aštu	-5245
▁baud	-5246
▁būdų	-5247
▁dieg	-5248
▁efek	-5249
▁garb	-5250
▁irgi	-5251
▁ligų	-5252
▁simb	-5253
▁suma	-5254
▁žalą	-5255
▁žiau	-5256
andžio	-5257
dešimt	-5258
ekijos	-5259
osiose	-5260
▁Pavyz	-5261
▁Tunis	-5262
▁abiem	-5263
▁grand	-5264
▁ignor	-5265
▁jumis	-5266
▁kalbų	-5267
▁kokie	-5268
▁kokią	-5269
▁krize	-5270
▁natūr	-5271
▁nesil	-5272
▁pobūd	-5273
▁ryšio	-5274
▁skund	-5275
▁tikri	-5276
▁tradi	-5277
▁turto	-5278
▁vietą	-5279
▁ėmėsi	-5280
▁įreng	-5281
iamieji	-5282
tekcion	-5283
ygtinai	-5284
▁Kosovo	-5285
▁daugia	-5286
▁gaires	-5287
▁gamyba	-5288
▁išorin	-5289
▁judėti	-5290
▁komand	-5291
▁laikin	-5292
▁naujai	-5293
▁netaik	-5294
▁nuorod	-5295
▁rinkai	-5296
▁sienas	-5297
▁spalio	-5298
▁sporto	-5299
▁stengi	-5300
▁sujung	-5301
▁teismo	-5302
ininkams	-5303
irminink	-5304
uotojams	-5305
▁Europol	-5306
▁aspektą	-5307
▁intelek	-5308
▁kredito	-5309
▁laikyti	-5310
▁neturin	-5311
▁pagarba	-5312
▁palaiko	-5313
▁partijų	-5314
▁patenka	-5315
▁pirmąjį	-5316
▁pradėjo	-5317
▁saugoti	-5318
▁viešojo	-5319
▁dalyvauj	-5320
▁dioksido	-5321
▁išskyrus	-5322
▁narystės	-5323
▁nereikia	-5324
▁numatoma	-5325
▁pradžios	-5326
▁principu	-5327
▁statybos	-5328
▁ūkininkų	-5329
diskusijos	-5330
▁civilinės	-5331
▁papildomą	-5332
▁paprastai	-5333
▁paskelbti	-5334
▁pažeidimų	-5335
▁politinis	-5336
▁pradedant	-5337
▁pranešimų	-5338
▁produktai	-5339
▁skirtingų	-5340
▁teigiamai	-5341
▁uždrausti	-5342
▁vystymąsi	-5343
▁ataskaitos	-5344
▁atitinkamų	-5345
▁efektyvumo	-5346
▁egzistuoja	-5347
▁gyventojai	-5348
▁naudojamas	-5349
▁naudojamos	-5350
▁opozicijos	-5351
▁pasaulinio	-5352
▁pilietinės	-5353
▁potencialą	-5354
▁prioritetų	-5355
▁suteikiama	-5356
▁tūkstančių	-5357
▁ūkininkams	-5358
▁kiekvienoje	-5359
▁užtikrinimo	-5360
▁branduolinės	-5361
▁demokratijai	-5362
▁finansavimas	-5363
▁institucijas	-5364
▁nusikaltimus	-5365
▁pavaduotojas	-5366
▁perspektyvos	-5367
▁pastaraisiais	-5368
ja	-5369
ou	-5370
ėp	-5371
šv	-5372
amp	-5373
arm	-5374
dav	-5375
eną	-5376
lis	-5377
rab	-5378
tiz	-5379
uel	-5380
ūre	-5381
erts	-5382
gion	-5383
ikar	-5384
jekt	-5385
liui	-5386
loat	-5387
roji	-5388
tims	-5389
▁Bus	-5390
▁Ver	-5391
▁ban	-5392
▁deb	-5393
▁gab	-5394
▁vir	-5395
▁šak	-5396
▁žud	-5397
blema	-5398
eigti	-5399
intis	-5400
iuose	-5401
liais	-5402
lieka	-5403
ojama	-5404
ojimu	-5405
onien	-5406
ykime	-5407
▁2005	-5408
▁aukų	-5409
▁būdą	-5410
▁išme	-5411
▁kuro	-5412
▁liko	-5413
▁pakr	-5414
▁prat	-5415
▁prir	-5416
▁saus	-5417
▁skry	-5418
▁smer	-5419
▁tašk	-5420
▁tose	-5421
▁vari	-5422
▁ūkis	-5423
acijai	-5424
inimui	-5425
praneš	-5426
retori	-5427
▁Tiesą	-5428
▁Tūkst	-5429
▁atneš	-5430
▁balsų	-5431
▁centr	-5432
▁darbų	-5433
▁fondą	-5434
▁ilgai	-5435
▁iškėl	-5436
▁išlyg	-5437
▁kitur	-5438
▁leido	-5439
▁likti	-5440
▁makro	-5441
▁naudą	-5442
▁naštą	-5443
▁neišs	-5444
▁nemok	-5445
▁nesud	-5446
▁ribos	-5447
▁siūlo	-5448
▁sprag	-5449
▁sukūr	-5450
▁tautų	-5451
▁vadin	-5452
▁žinia	-5453
tariame	-5454
▁absurd	-5455
▁darbui	-5456
▁efektą	-5457
▁faktas	-5458
▁kampan	-5459
▁koment	-5460
▁koncep	-5461
▁lengva	-5462
▁manyti	-5463
▁metodą	-5464
▁neveik	-5465
▁nuosto	-5466
▁pajėgų	-5467
▁pavyks	-5468
▁potvyn	-5469
▁puikus	-5470
▁sukuri	-5471
▁svarba	-5472
▁tinklų	-5473
▁tradic	-5474
▁įvykių	-5475
antmečio	-5476
tabilumo	-5477
▁Centrin	-5478
▁Vidurio	-5479
▁asmenis	-5480
▁importo	-5481
▁išlikti	-5482
▁keletas	-5483
▁kuriant	-5484
▁neišven	-5485
▁nemažai	-5486
▁nepagrį	-5487
▁pasitel	-5488
▁pavyzdį	-5489
▁peržiūr	-5490
▁pirmojo	-5491
▁pradžia	-5492
▁prognoz	-5493
▁seksual	-5494
▁skurdži	-5495
▁tikslui	-5496
▁užimtum	-5497
▁vasario	-5498
Komisijos	-5499
▁atitiktų	-5500
▁atkūrimo	-5501
▁bendrąją	-5502
▁dalyvavo	-5503
▁daugumos	-5504
▁deryboms	-5505
▁eksploat	-5506
▁išlaidos	-5507
▁išplėsti	-5508
▁nesilaik	-5509
▁pateiktų	-5510
▁subalans	-5511
▁suprantu	-5512
▁sveikinu	-5513
▁vertybių	-5514
▁visuomet	-5515
▁įstatymo	-5516
▁Kroatijos	-5517
▁Pakistano	-5518
▁dalyvauja	-5519
▁klausimui	-5520
▁komitetui	-5521
▁konstituc	-5522
▁operatori	-5523
▁politines	-5524
▁praėjusią	-5525
▁situacija	-5526
▁situaciją	-5527
▁straipsnį	-5528
▁vertinimo	-5529
▁vidutinės	-5530
▁įvairovės	-5531
▁Prancūzija	-5532
▁grindžiama	-5533
▁išmetamųjų	-5534
▁laikotarpį	-5535
▁pareiškimą	-5536
▁pasaulinės	-5537
▁pateikiama	-5538
▁praktiškai	-5539
▁solidarumą	-5540
▁suprantama	-5541
▁veiksminga	-5542
▁vystymuisi	-5543
▁dalyvavimas	-5544
▁nacionalinę	-5545
▁pasirengusi	-5546
▁pirmininkui	-5547
▁susiduriame	-5548
▁tarptautinę	-5549
▁teritorijos	-5550
▁diskutuojame	-5551
▁investicijas	-5552
▁tarptautinio	-5553
▁trečiosiomis	-5554
▁tarptautinėje	-5555
▁kvalifikacijos	-5556
▁diskriminacijos	-5557
FI	-5558
IS	-5559
ją	-5560
kš	-5561
LDE	-5562
kar	-5563
oci	-5564
ros	-5565
ume	-5566
vež	-5567
▁23	-5568
▁24	-5569
▁26	-5570
▁De	-5571
▁Gu	-5572
▁ro	-5573
▁žr	-5574
2010	-5575
alsi	-5576
anas	-5577
kius	-5578
lika	-5579
olio	-5580
omai	-5581
sias	-5582
teik	-5583
tiką	-5584
tojų	-5585
uoto	-5586
yder	-5587
ėmės	-5588
▁Ber	-5589
▁Did	-5590
▁Ger	-5591
▁Hai	-5592
▁Str	-5593
▁apy	-5594
▁kan	-5595
▁mon	-5596
▁skl	-5597
-2013	-5598
Darbo	-5599
amoms	-5600
dėlio	-5601
egali	-5602
eiški	-5603
iamės	-5604
iečių	-5605
iktat	-5606
inome	-5607
iškus	-5608
mingų	-5609
razil	-5610
ykite	-5611
zoliu	-5612
ėtoją	-5613
ščion	-5614
▁ALDE	-5615
▁bais	-5616
▁chem	-5617
▁ding	-5618
▁kilo	-5619
▁lyti	-5620
▁pral	-5621
▁ženg	-5622
▁žodį	-5623
ąžinti	-5624
ėjimai	-5625
▁Esame	-5626
▁Kipro	-5627
▁Nyder	-5628
▁Tiesa	-5629
▁Verts	-5630
▁apmok	-5631
▁asmuo	-5632
▁atgal	-5633
▁atėjo	-5634
▁dinam	-5635
▁erdvę	-5636
▁motyv	-5637
▁nebuv	-5638
▁netik	-5639
▁radik	-5640
▁suras	-5641
▁sąmon	-5642
▁tarif	-5643
▁verta	-5644
▁vidur	-5645
padėtis	-5646
virtina	-5647
ėtumėte	-5648
▁Brazil	-5649
▁dvigub	-5650
▁galios	-5651
▁gamtos	-5652
▁gerbti	-5653
▁ilgiau	-5654
▁išband	-5655
▁išveng	-5656
▁kiekio	-5657
▁metams	-5658
▁mieste	-5659
▁narėje	-5660
▁reklam	-5661
▁riziką	-5662
▁sąveik	-5663
▁teisus	-5664
▁tekstą	-5665
▁tvarką	-5666
▁vertės	-5667
▁įsikiš	-5668
esticidų	-5669
▁atvirai	-5670
▁atvykti	-5671
▁draudži	-5672
▁ekstrem	-5673
▁iššūkių	-5674
▁laikais	-5675
▁lygmens	-5676
▁nesąžin	-5677
▁paketas	-5678
▁pasikar	-5679
▁pastabą	-5680
▁patekti	-5681
▁susidar	-5682
▁susidom	-5683
▁vykdoma	-5684
▁žodžius	-5685
Pirminink	-5686
▁Baltarus	-5687
▁Pasaulio	-5688
▁aspektai	-5689
▁aukštesn	-5690
▁ekonomin	-5691
▁išgirsti	-5692
▁judėjimo	-5693
▁judėjimą	-5694
▁krovinių	-5695
▁mokesčio	-5696
▁padėčiai	-5697
▁pasakyta	-5698
▁pasienio	-5699
▁politinę	-5700
▁poveikis	-5701
▁prekybai	-5702
▁reikalas	-5703
▁socialin	-5704
▁stebėtoj	-5705
▁tinkamos	-5706
▁trūkumas	-5707
▁įsteigti	-5708
▁įvairias	-5709
▁įvairovę	-5710
▁Japonijos	-5711
▁Nyderland	-5712
▁Reglament	-5713
▁atsakymas	-5714
▁balandžio	-5715
▁ekonominį	-5716
▁imigrantų	-5717
▁mažinimas	-5718
▁ministras	-5719
▁neišvengi	-5720
▁pagrįstai	-5721
▁papildomų	-5722
▁piliečius	-5723
▁religijos	-5724
▁skatinimo	-5725
▁socialine	-5726
▁sprendimu	-5727
▁terorizmo	-5728
▁vertiname	-5729
▁įtrauktos	-5730
▁Pavyzdžiui	-5731
▁atsakingos	-5732
▁europiečių	-5733
▁gamintojai	-5734
▁gyvenančių	-5735
▁interesams	-5736
▁nepamiršti	-5737
▁protekcion	-5738
▁užtikrintų	-5739
▁dažniausiai	-5740
▁paslaugomis	-5741
▁pranešėjams	-5742
▁prioritetai	-5743
▁prioritetas	-5744
▁sukeliančių	-5745
▁susipažinti	-5746
▁įsitikinusi	-5747
▁demokratinės	-5748
▁strategijoje	-5749
▁subsidiarumo	-5750
▁apgailestauju	-5751
▁supaprastinti	-5752
,5	-5753
IB	-5754
eč	-5755
jį	-5756
ka	-5757
koh	-5758
kon	-5759
lap	-5760
pus	-5761
sim	-5762
stį	-5763
ygi	-5764
zon	-5765
▁22	-5766
▁60	-5767
▁En	-5768
▁JK	-5769
▁St	-5770
▁dy	-5771
atos	-5772
ezid	-5773
gaiv	-5774
gali	-5775
icij	-5776
opol	-5777
rius	-5778
tral	-5779
uoda	-5780
uris	-5781
čias	-5782
įsta	-5783
▁Bir	-5784
▁ind	-5785
▁tro	-5786
▁užk	-5787
atlan	-5788
autis	-5789
irbti	-5790
iųsti	-5791
tojai	-5792
torių	-5793
uojau	-5794
uosiu	-5795
uotus	-5796
▁Aust	-5797
▁Bosn	-5798
▁darž	-5799
▁elgi	-5800
▁galo	-5801
▁gaus	-5802
▁keis	-5803
▁siau	-5804
▁suvo	-5805
▁žlug	-5806
aujama	-5807
avimai	-5808
finans	-5809
gyvend	-5810
igrant	-5811
pręsta	-5812
tingos	-5813
uotųjų	-5814
▁Irano	-5815
▁Kosov	-5816
▁Liber	-5817
▁dalij	-5818
▁darbe	-5819
▁forma	-5820
▁gyvul	-5821
▁idėja	-5822
▁islam	-5823
▁jaunų	-5824
▁kūryb	-5825
▁mumis	-5826
▁našta	-5827
▁neram	-5828
▁pašto	-5829
▁rimta	-5830
▁suman	-5831
▁šešis	-5832
▁žinią	-5833
ininkus	-5834
mingiau	-5835
▁abipus	-5836
▁anksto	-5837
▁antras	-5838
▁apskai	-5839
▁audito	-5840
▁būsime	-5841
▁fiskal	-5842
▁grąžin	-5843
▁indėlį	-5844
▁kenčia	-5845
▁kokias	-5846
▁miestų	-5847
▁pakenk	-5848
▁paties	-5849
▁ragina	-5850
▁skurdą	-5851
▁surink	-5852
▁sutaup	-5853
▁traged	-5854
▁įvesti	-5855
▁žodžiu	-5856
tvarkyti	-5857
▁Libijos	-5858
▁bendrus	-5859
▁dalykus	-5860
▁general	-5861
▁geresnę	-5862
▁klaidos	-5863
▁konkret	-5864
▁laikosi	-5865
▁narėmis	-5866
▁oficial	-5867
▁pasidal	-5868
▁pasimok	-5869
▁santyki	-5870
▁sukelia	-5871
▁sunkiai	-5872
▁sveikin	-5873
▁tarnyba	-5874
▁tinkamo	-5875
▁trūkumų	-5876
▁tyrimai	-5877
▁valdžia	-5878
▁Afrikoje	-5879
▁Ukrainos	-5880
▁agentūra	-5881
▁asmenims	-5882
▁atsakymą	-5883
▁autorius	-5884
▁didesnės	-5885
▁einantis	-5886
▁gyvenime	-5887
▁mokyklos	-5888
▁pasaulis	-5889
▁perduoti	-5890
▁poreikis	-5891
▁priemone	-5892
▁reikalus	-5893
▁remdamas	-5894
▁sistemai	-5895
▁skirtumų	-5896
▁sudarymo	-5897
▁susitaik	-5898
▁teisinių	-5899
▁uždaryti	-5900
▁vykdomas	-5901
▁įvykdyti	-5902
▁šaltinis	-5903
▁artimiaus	-5904
▁atsakinga	-5905
▁faktiškai	-5906
▁gamintojų	-5907
▁internetu	-5908
▁kontekste	-5909
▁nepakanka	-5910
▁numatytas	-5911
▁nusipelno	-5912
▁nuspręsti	-5913
▁paslaugos	-5914
▁prasidėjo	-5915
▁pridėtinę	-5916
▁protokolo	-5917
▁stabilumą	-5918
▁svarstymą	-5919
▁įvairiose	-5920
▁Socialistų	-5921
▁Transporto	-5922
▁atsakingas	-5923
▁didžiausių	-5924
▁iniciatyvų	-5925
▁klausimams	-5926
▁lygmenimis	-5927
▁mažiausiai	-5928
▁pasisakyti	-5929
▁pateikiami	-5930
▁politiniai	-5931
▁politinius	-5932
▁pritaikyti	-5933
▁reikalingi	-5934
▁sudėtingas	-5935
▁susitarimu	-5936
▁svarstomas	-5937
▁vertybėmis	-5938
▁asociacijos	-5939
▁ataskaitoje	-5940
▁demokratišk	-5941
▁didžiausias	-5942
▁direktyvoje	-5943
▁mechanizmus	-5944
▁paspartinti	-5945
▁primygtinai	-5946
▁reikalingos	-5947
▁straipsnyje	-5948
▁humanitarinę	-5949
▁išsiaiškinti	-5950
▁teritorijoje	-5951
▁vadovaujantis	-5952
▁diskriminacija	-5953
▁konkurencingumo	-5954
▁konkurencingumą	-5955
LT	-5956
ald	-5957
did	-5958
eta	-5959
mar	-5960
mui	-5961
nai	-5962
urs	-5963
ykd	-5964
ytu	-5965
yži	-5966
čią	-5967
▁El	-5968
dugn	-5969
entu	-5970
esia	-5971
ifik	-5972
igra	-5973
ikro	-5974
liav	-5975
mano	-5976
metį	-5977
onas	-5978
porc	-5979
pres	-5980
tiko	-5981
▁149	-5982
▁And	-5983
▁Buv	-5984
▁Pos	-5985
▁art	-5986
▁fil	-5987
▁for	-5988
▁gra	-5989
▁kos	-5990
▁lob	-5991
▁men	-5992
▁mės	-5993
▁nam	-5994
▁pli	-5995
▁res	-5996
▁sam	-5997
▁vos	-5998
bendr	-5999
esion	-6000
iskus	-6001
istro	-6002
kirst	-6003
omojo	-6004
oslav	-6005
uosel	-6006
usiai	-6007
▁Jūsų	-6008
▁Nuol	-6009
▁Savo	-6010
▁Taik	-6011
▁Toks	-6012
▁anti	-6013
▁atim	-6014
▁atom	-6015
▁būdo	-6016
▁mąst	-6017
▁norm	-6018
▁pusę	-6019
▁save	-6020
▁serg	-6021
▁tonų	-6022
▁uždr	-6023
▁įraš	-6024
aliųjų	-6025
amomis	-6026
ančiam	-6027
istane	-6028
pagalb	-6029
prašau	-6030
tosios	-6031
ymasis	-6032
▁aiškų	-6033
▁apgal	-6034
▁atkak	-6035
▁atmet	-6036
▁atoki	-6037
▁diena	-6038
▁idėją	-6039
▁iškil	-6040
▁jomis	-6041
▁kaden	-6042
▁kelio	-6043
▁kelti	-6044
▁kilti	-6045
▁krauj	-6046
▁krizė	-6047
▁metai	-6048
▁nauda	-6049
▁nauji	-6050
▁rimtą	-6051
▁siaub	-6052
▁teise	-6053
▁šešių	-6054
▁žinau	-6055
acijoms	-6056
acional	-6057
ančiame	-6058
damiesi	-6059
tadienį	-6060
▁Azijos	-6061
▁Norint	-6062
▁Raginu	-6063
▁Sudano	-6064
▁aiškią	-6065
▁atgaiv	-6066
▁aukoms	-6067
▁bankas	-6068
▁bendri	-6069
▁darbus	-6070
▁formul	-6071
▁gresia	-6072
▁kažkas	-6073
▁kitoje	-6074
▁klaidų	-6075
▁linkme	-6076
▁modelį	-6077
▁mokslo	-6078
▁neties	-6079
▁orient	-6080
▁sakiau	-6081
▁sakoma	-6082
▁seniai	-6083
▁skiria	-6084
▁skirst	-6085
▁teigia	-6086
▁teismų	-6087
▁tekste	-6088
▁trumpą	-6089
instituc	-6090
▁Ukraina	-6091
▁atsidūr	-6092
▁augimas	-6093
▁dažniau	-6094
▁išreikš	-6095
▁nemanau	-6096
▁pagarbą	-6097
▁pajamas	-6098
▁paraišk	-6099
▁reforma	-6100
▁spaudos	-6101
▁sudarys	-6102
▁suvokti	-6103
▁sąjunga	-6104
▁teismin	-6105
▁teroris	-6106
▁tokiais	-6107
▁trukmės	-6108
▁vadovai	-6109
▁valdyti	-6110
▁veiklai	-6111
▁įstaigų	-6112
▁įstatym	-6113
▁žaliavų	-6114
kalbėtoją	-6115
vyriausyb	-6116
▁Gruzijos	-6117
▁Piliečių	-6118
▁Raštiški	-6119
▁Vengrija	-6120
▁baudžiam	-6121
▁dialogas	-6122
▁ketiname	-6123
▁milijonų	-6124
▁mokėtojų	-6125
▁nelaimės	-6126
▁nepavyko	-6127
▁nuosekli	-6128
▁padėtimi	-6129
▁pasekmių	-6130
▁rinkimai	-6131
▁savaites	-6132
▁teisinio	-6133
▁turėjome	-6134
▁tvarkymo	-6135
▁valdymas	-6136
▁valstybė	-6137
▁vyriausi	-6138
▁įstatymą	-6139
▁Palankiai	-6140
▁Stabilumo	-6141
▁daugeliui	-6142
▁išnaudoti	-6143
▁kiekvieno	-6144
▁konflikto	-6145
▁krikščion	-6146
▁nereiškia	-6147
▁operacijų	-6148
▁palaikymo	-6149
▁pastangos	-6150
▁pesticidų	-6151
▁pozicijas	-6152
▁sistemoje	-6153
▁skatinama	-6154
▁skirtumai	-6155
▁stebėjimo	-6156
▁sudarytos	-6157
▁suteikimo	-6158
▁teigiamas	-6159
▁tikrinimo	-6160
▁vietovėse	-6161
▁Ekonomikos	-6162
▁apribojimų	-6163
▁efektyviai	-6164
▁ekonomines	-6165
▁geriausiai	-6166
▁konkrečius	-6167
▁laisvosios	-6168
▁motinystės	-6169
▁neatidėlio	-6170
▁neatitinka	-6171
▁pasakytina	-6172
▁produktais	-6173
▁profesinės	-6174
▁projektams	-6175
▁reguliuoti	-6176
▁situacijos	-6177
▁vadovautis	-6178
▁vertinimas	-6179
▁vidutinėms	-6180
▁Jungtinėmis	-6181
▁Vokietijoje	-6182
▁krikščionių	-6183
▁pareiškimas	-6184
▁patenkintas	-6185
▁prisijungti	-6186
▁reglamentas	-6187
▁tarptautinį	-6188
▁visapusišką	-6189
▁įgyvendinta	-6190
▁geležinkelio	-6191
▁kontroliuoti	-6192
▁reikalavimai	-6193
▁veiksmingiau	-6194
▁veiksmingumą	-6195
▁Tūkstantmečio	-6196
▁konferencijos	-6197
▁savarankiškai	-6198
▁diskriminaciją	-6199
DS	-6200
GL	-6201
UE	-6202
gu	-6203
šį	-6204
NGL	-6205
amu	-6206
ann	-6207
aul	-6208
bus	-6209
dai	-6210
das	-6211
eso	-6212
ečd	-6213
gas	-6214
gen	-6215
ieš	-6216
jam	-6217
lin	-6218
mei	-6219
oro	-6220
tri	-6221
uis	-6222
umb	-6223
uok	-6224
▁80	-6225
▁Ry	-6226
anau	-6227
anga	-6228
aros	-6229
eder	-6230
elia	-6231
erre	-6232
izmo	-6233
joje	-6234
mūsų	-6235
omun	-6236
totų	-6237
tynų	-6238
tąją	-6239
učių	-6240
ėjęs	-6241
▁198	-6242
▁GUE	-6243
▁Kub	-6244
▁det	-6245
▁lėk	-6246
▁mar	-6247
▁nub	-6248
▁vak	-6249
▁Šio	-6250
alias	-6251
rijai	-6252
tinos	-6253
čiais	-6254
▁Jums	-6255
▁Lond	-6256
▁Pask	-6257
▁Susi	-6258
▁Tema	-6259
▁aktą	-6260
▁areš	-6261
▁dėti	-6262
▁gelb	-6263
▁kraš	-6264
▁liūd	-6265
▁slap	-6266
▁soci	-6267
▁teko	-6268
▁veng	-6269
▁įnaš	-6270
▁štai	-6271
acinės	-6272
albėti	-6273
entams	-6274
esiems	-6275
ingumą	-6276
insime	-6277
iškumą	-6278
omybės	-6279
stilės	-6280
ydamos	-6281
ėjimui	-6282
▁Galiu	-6283
▁Japon	-6284
▁Moter	-6285
▁alkoh	-6286
▁baigi	-6287
▁darbu	-6288
▁fakto	-6289
▁gaben	-6290
▁gaila	-6291
▁grėsm	-6292
▁imasi	-6293
▁kainą	-6294
▁medic	-6295
▁nedar	-6296
▁nemat	-6297
▁nusis	-6298
▁padal	-6299
▁pakto	-6300
▁priel	-6301
▁ribas	-6302
▁suded	-6303
▁sugri	-6304
▁sumok	-6305
▁susil	-6306
▁tapat	-6307
▁toler	-6308
▁trečd	-6309
▁uostų	-6310
▁vieni	-6311
▁visam	-6312
▁įveik	-6313
▁švies	-6314
▁Žinau	-6315
uodamas	-6316
▁Pasiūl	-6317
▁Vertin	-6318
▁daliai	-6319
▁didina	-6320
▁diktat	-6321
▁inicij	-6322
▁išaišk	-6323
▁jūroje	-6324
▁kovoje	-6325
▁lyties	-6326
▁matėme	-6327
▁mažųjų	-6328
▁mintis	-6329
▁minėta	-6330
▁mokėti	-6331
▁organų	-6332
▁pirmen	-6333
▁plačia	-6334
▁rizika	-6335
▁turite	-6336
▁tvarka	-6337
cionaliz	-6338
vencijos	-6339
▁atsirad	-6340
▁atvejis	-6341
▁elgesio	-6342
▁galvoje	-6343
▁išsilav	-6344
▁karinių	-6345
▁konserv	-6346
▁kūrimas	-6347
▁laisves	-6348
▁leidimų	-6349
▁nedalyv	-6350
▁nedarbo	-6351
▁nuodugn	-6352
▁orienta	-6353
▁pakarto	-6354
▁paskolų	-6355
▁patrauk	-6356
▁plačiai	-6357
▁pramonę	-6358
▁reikėjo	-6359
▁remiame	-6360
▁sričiai	-6361
▁stovykl	-6362
▁sukuria	-6363
▁susidūr	-6364
▁tekstas	-6365
▁tikrais	-6366
▁veikimo	-6367
▁vertina	-6368
▁vietose	-6369
▁įrangos	-6370
▁įrodyti	-6371
ančiosios	-6372
▁Daugelis	-6373
▁Neseniai	-6374
▁Užsienio	-6375
▁ankstesn	-6376
▁demograf	-6377
▁didžiuli	-6378
▁energiją	-6379
▁galėčiau	-6380
▁išsamiai	-6381
▁kalbomis	-6382
▁kapitalo	-6383
▁laukiame	-6384
▁milijard	-6385
▁nereikal	-6386
▁nuomonių	-6387
▁parduoti	-6388
▁pasiruoš	-6389
▁praktika	-6390
▁pranešti	-6391
▁priimtos	-6392
▁procesus	-6393
▁sukurtos	-6394
▁susilaik	-6395
▁sveikata	-6396
▁sąskaita	-6397
▁teigiamų	-6398
▁teisingą	-6399
▁teisėtai	-6400
▁tokiomis	-6401
▁tolesnių	-6402
▁turinčių	-6403
▁veikloje	-6404
▁Remiantis	-6405
▁Strasbūre	-6406
▁bendrijos	-6407
▁didžiulis	-6408
▁dirbančių	-6409
▁dokumente	-6410
▁dokumento	-6411
▁elementas	-6412
▁istorijos	-6413
▁ištaisyti	-6414
▁iššūkiais	-6415
▁mažosioms	-6416
▁mokėtojai	-6417
▁naudojami	-6418
▁nesuprant	-6419
▁numatytos	-6420
▁palaikome	-6421
▁papildyti	-6422
▁pateiktus	-6423
▁perdavimo	-6424
▁praktikos	-6425
▁pranešėją	-6426
▁profesion	-6427
▁sekretori	-6428
▁svarstome	-6429
▁veiksmais	-6430
▁vidutinių	-6431
▁įstatymus	-6432
▁Pranešimas	-6433
▁aplinkybes	-6434
▁atnaujinti	-6435
▁automobili	-6436
▁dokumentai	-6437
▁geriausias	-6438
▁kadencijos	-6439
▁konkrečios	-6440
▁mechanizmą	-6441
▁pakeitimui	-6442
▁pasimokyti	-6443
▁pažeidimus	-6444
▁politikoje	-6445
▁socialines	-6446
▁suderintas	-6447
▁vertinamas	-6448
▁vyriausybę	-6449
▁Valstijomis	-6450
▁diskusijoje	-6451
▁išnagrinėti	-6452
▁patobulinti	-6453
▁referendumo	-6454
▁reikalavimą	-6455
▁televizijos	-6456
▁įgaliojimai	-6457
▁įsipareigojo	-6458
▁Atsižvelgdamas	-6459
▁administravimo	-6460
▁pirmininkavimo	-6461
▁besivystančioms	-6462
AS	-6463
GF	-6464
TE	-6465
co	-6466
gą	-6467
ho	-6468
jū	-6469
št	-6470
eic	-6471
igi	-6472
lim	-6473
mai	-6474
mis	-6475
nes	-6476
oto	-6477
ovo	-6478
reg	-6479
son	-6480
▁3.	-6481
▁EC	-6482
▁Lo	-6483
▁Mc	-6484
▁Or	-6485
▁lo	-6486
▁ri	-6487
▁up	-6488
angl	-6489
anui	-6490
atui	-6491
auna	-6492
avus	-6493
dymo	-6494
erim	-6495
ijau	-6496
ileg	-6497
kios	-6498
main	-6499
olid	-6500
omet	-6501
pild	-6502
poli	-6503
prie	-6504
toji	-6505
ybių	-6506
ėlyn	-6507
ėtum	-6508
▁Aps	-6509
▁Der	-6510
▁Jug	-6511
▁Ket	-6512
▁Liu	-6513
▁Mal	-6514
▁PPO	-6515
▁Pap	-6516
▁gėd	-6517
▁imp	-6518
▁kin	-6519
▁mit	-6520
▁nul	-6521
▁rep	-6522
▁tad	-6523
▁tėv	-6524
▁Šią	-6525
▁žad	-6526
alaus	-6527
amais	-6528
avusi	-6529
iamus	-6530
orime	-6531
rinti	-6532
taria	-6533
tauti	-6534
varbu	-6535
šveln	-6536
▁Atro	-6537
▁Būtų	-6538
▁Herc	-6539
▁Pram	-6540
▁Sach	-6541
▁dreb	-6542
▁dvas	-6543
▁ekos	-6544
▁gatv	-6545
▁iškr	-6546
▁jėgų	-6547
▁minė	-6548
▁pere	-6549
▁ruoš	-6550
▁ruož	-6551
▁skyr	-6552
▁tipo	-6553
albant	-6554
entais	-6555
obiliz	-6556
odamas	-6557
turėtų	-6558
▁Klaus	-6559
▁Tikiu	-6560
▁Visos	-6561
▁aktas	-6562
▁apkal	-6563
▁atšil	-6564
▁dirvo	-6565
▁drąsi	-6566
▁faktą	-6567
▁ištir	-6568
▁kairi	-6569
▁kaitą	-6570
▁kenki	-6571
▁lemia	-6572
▁lieka	-6573
▁mobil	-6574
▁nenor	-6575
▁nesus	-6576
▁netek	-6577
▁netol	-6578
▁paded	-6579
▁pager	-6580
▁pagir	-6581
▁palūk	-6582
▁popie	-6583
▁rimtų	-6584
▁skamb	-6585
▁tolim	-6586
▁tvarų	-6587
▁vykdo	-6588
▁Šveic	-6589
▁šeimų	-6590
▁žemyn	-6591
acijoje	-6592
žvelgti	-6593
▁Amerik	-6594
▁Manome	-6595
▁Norime	-6596
▁Prezid	-6597
▁Reikal	-6598
▁Teisės	-6599
▁apytik	-6600
▁atsako	-6601
▁aštuon	-6602
▁dydžio	-6603
▁išgird	-6604
▁išvadų	-6605
▁kasmet	-6606
▁keleto	-6607
▁krizių	-6608
▁lyderi	-6609
▁mažėja	-6610
▁miesto	-6611
▁nepiln	-6612
▁pagrei	-6613
▁pamirš	-6614
▁partij	-6615
▁paskui	-6616
▁pirmas	-6617
▁planus	-6618
▁pobūdį	-6619
▁rengti	-6620
▁repres	-6621
▁sutelk	-6622
▁taryba	-6623
▁teksto	-6624
▁triukš	-6625
▁vakarą	-6626
▁viešai	-6627
▁švaist	-6628
▁žurnal	-6629
amblėjos	-6630
▁Austral	-6631
▁Indijos	-6632
▁ateitis	-6633
▁atskait	-6634
▁būtinyb	-6635
▁darbdav	-6636
▁esminis	-6637
▁išlaisv	-6638
▁išlieka	-6639
▁kultūrą	-6640
▁metodas	-6641
▁misijos	-6642
▁modelio	-6643
▁naujųjų	-6644
▁neatsak	-6645
▁nenumat	-6646
▁pasiryž	-6647
▁pasirūp	-6648
▁pačioje	-6649
▁prieigą	-6650
▁rinkėjų	-6651
▁rūmuose	-6652
▁stojimo	-6653
▁surasti	-6654
▁susieti	-6655
▁svarbiu	-6656
▁tinkami	-6657
▁valdymą	-6658
▁vienodą	-6659
▁Žaliųjų	-6660
▁žmogišk	-6661
▁Jugoslav	-6662
▁Kiekvien	-6663
▁Libijoje	-6664
▁Peticijų	-6665
▁Rumunija	-6666
▁atnaujin	-6667
▁atskirti	-6668
▁baronien	-6669
▁bendrais	-6670
▁didžiulį	-6671
▁kelionės	-6672
▁moderniz	-6673
▁naujoves	-6674
▁neigiamą	-6675
▁nenorime	-6676
▁nepavyks	-6677
▁nusiteik	-6678
▁pabrėžia	-6679
▁pagrindo	-6680
▁pasekmes	-6681
▁paversti	-6682
▁pavojing	-6683
▁prieinam	-6684
▁privileg	-6685
▁regionai	-6686
▁regionui	-6687
▁stabiliz	-6688
▁studentų	-6689
▁sudarytų	-6690
▁supranta	-6691
▁susijusį	-6692
▁suteiktų	-6693
▁teisinis	-6694
▁tikėtina	-6695
▁tvirtesn	-6696
▁veiksnys	-6697
▁vykdomos	-6698
▁įstaigos	-6699
▁ekosistem	-6700
▁ištekliai	-6701
▁judėjimas	-6702
▁lūkesčius	-6703
▁perkėlimo	-6704
▁prisideda	-6705
▁regionams	-6706
▁siekdamos	-6707
▁skatinant	-6708
▁svarstymo	-6709
▁tekstilės	-6710
▁vertinama	-6711
▁viešosios	-6712
▁šaltinius	-6713
▁ūkininkai	-6714
▁Jungtinėje	-6715
▁Slovakijos	-6716
▁dalyvavimo	-6717
▁dokumentus	-6718
▁finansines	-6719
▁inovacijas	-6720
▁kompromiso	-6721
▁naudojimas	-6722
▁patikrinti	-6723
▁patvirtina	-6724
▁politiškai	-6725
▁prieštarin	-6726
▁suderinimo	-6727
▁sugebėsime	-6728
▁transatlan	-6729
▁vyriausybė	-6730
▁įtvirtinti	-6731
▁Karalystėje	-6732
▁atitinkamai	-6733
▁atitinkamas	-6734
▁atsižvelgta	-6735
▁delegacijos	-6736
▁gerbiamieji	-6737
▁informavimo	-6738
▁koordinuoti	-6739
▁palengvinti	-6740
▁socialinius	-6741
▁Prancūzijoje	-6742
▁įgyvendinama	-6743
▁parlamentinės	-6744
▁rekomendacijų	-6745
▁institucijomis	-6746
▁konferencijoje	-6747
▁rekomendacijos	-6748
▁suinteresuotos	-6749
NR	-6750
ck	-6751
dą	-6752
ks	-6753
nu	-6754
pų	-6755
se	-6756
6-0	-6757
NTE	-6758
Par	-6759
ack	-6760
all	-6761
alu	-6762
dik	-6763
ell	-6764
ero	-6765
iog	-6766
jer	-6767
pjū	-6768
rob	-6769
sit	-6770
sto	-6771
ten	-6772
yšk	-6773
šta	-6774
▁2.	-6775
▁31	-6776
▁Bo	-6777
▁Br	-6778
▁Jo	-6779
▁Ob	-6780
▁Sm	-6781
▁TV	-6782
▁ac	-6783
anai	-6784
apie	-6785
asti	-6786
atus	-6787
blog	-6788
esnė	-6789
ioms	-6790
onor	-6791
skir	-6792
stos	-6793
tali	-6794
tino	-6795
tumo	-6796
ūdin	-6797
žiai	-6798
▁Alb	-6799
▁Ank	-6800
▁Bro	-6801
▁Eur	-6802
▁PSE	-6803
▁Tau	-6804
▁Tib	-6805
▁dyd	-6806
▁dži	-6807
▁jun	-6808
▁neu	-6809
▁num	-6810
▁rak	-6811
/2008	-6812
/2010	-6813
ausiu	-6814
iamet	-6815
ietuv	-6816
imens	-6817
jektų	-6818
minga	-6819
ojami	-6820
ontro	-6821
otiek	-6822
čiuop	-6823
▁Visa	-6824
▁audi	-6825
▁biur	-6826
▁dang	-6827
▁emis	-6828
▁farm	-6829
▁ilgą	-6830
▁kank	-6831
▁menk	-6832
▁nepr	-6833
▁pais	-6834
▁rašy	-6835
▁rūmų	-6836
▁rūpi	-6837
▁tunų	-6838
▁varž	-6839
▁vyno	-6840
▁įkal	-6841
▁Žmon	-6842
eliant	-6843
emijos	-6844
intume	-6845
istams	-6846
pjūčio	-6847
ravimo	-6848
utinės	-6849
ytojai	-6850
ėliams	-6851
▁Aišku	-6852
▁Gazos	-6853
▁Kongo	-6854
▁Nepri	-6855
▁atrod	-6856
▁būdai	-6857
▁daugi	-6858
▁dešim	-6859
▁donor	-6860
▁duoti	-6861
▁galią	-6862
▁idėjų	-6863
▁jokiu	-6864
▁lanks	-6865
▁ligos	-6866
▁lyder	-6867
▁mikro	-6868
▁moral	-6869
▁noras	-6870
▁nužud	-6871
▁papli	-6872
▁sakau	-6873
▁skand	-6874
▁spręs	-6875
▁stamb	-6876
▁taiko	-6877
▁tarsi	-6878
▁Atrodo	-6879
▁Lietuv	-6880
▁Paryži	-6881
▁Prašau	-6882
▁Tokios	-6883
▁apimtų	-6884
▁atstat	-6885
▁augalų	-6886
▁būtinų	-6887
▁dalyką	-6888
▁dvejus	-6889
▁dvišal	-6890
▁fondai	-6891
▁gamybą	-6892
▁ginklų	-6893
▁grįžti	-6894
▁imtųsi	-6895
▁laukti	-6896
▁lygiai	-6897
▁minėtų	-6898
▁nedels	-6899
▁nukryp	-6900
▁padėjo	-6901
▁pasmer	-6902
▁platin	-6903
▁ryšius	-6904
▁simbol	-6905
▁suform	-6906
▁sugrįž	-6907
▁sunaik	-6908
▁susigr	-6909
▁sutiko	-6910
▁turinį	-6911
▁tyrimo	-6912
▁viršūn	-6913
▁įmones	-6914
▁šalimi	-6915
▁žinios	-6916
ausiomis	-6917
problema	-6918
▁Dauguma	-6919
▁Demokra	-6920
▁Nemanau	-6921
▁Serbija	-6922
▁Solidar	-6923
▁Sutartį	-6924
▁apginti	-6925
▁apibend	-6926
▁apčiuop	-6927
▁atidėti	-6928
▁baigtas	-6929
▁būtinai	-6930
▁dideliu	-6931
▁ieškoti	-6932
▁išklaus	-6933
▁iškreip	-6934
▁išraišk	-6935
▁išreišk	-6936
▁keliais	-6937
▁kituose	-6938
▁koncent	-6939
▁kryptis	-6940
▁kultūrų	-6941
▁laikomi	-6942
▁lėšomis	-6943
▁metinės	-6944
▁mobiliz	-6945
▁nariais	-6946
▁naujoji	-6947
▁pastatų	-6948
▁patirtį	-6949
▁paveldo	-6950
▁perdirb	-6951
▁platesn	-6952
▁prašoma	-6953
▁prašyti	-6954
▁proporc	-6955
▁reikalo	-6956
▁reikšmę	-6957
▁stabili	-6958
▁sutikti	-6959
▁sušveln	-6960
▁taikomų	-6961
▁teismas	-6962
▁tinklus	-6963
▁turinio	-6964
▁užduoti	-6965
▁užuojau	-6966
▁įdiegti	-6967
▁žodžiai	-6968
▁Antrasis	-6969
▁Moldovos	-6970
▁Palestin	-6971
▁Sveikinu	-6972
▁agentūrą	-6973
▁apriboti	-6974
▁atostogų	-6975
▁biudžete	-6976
▁daugumai	-6977
▁didžioji	-6978
▁didžiulę	-6979
▁geresnio	-6980
▁geresnis	-6981
▁išmetamų	-6982
▁išpuolių	-6983
▁kalbėtoj	-6984
▁ketinama	-6985
▁konkretų	-6986
▁migrantų	-6987
▁nepageid	-6988
▁nepripaž	-6989
▁nesvarbu	-6990
▁padidėjo	-6991
▁pagrįstą	-6992
▁paprasta	-6993
▁patirtis	-6994
▁pavojaus	-6995
▁poreikio	-6996
▁posėdžių	-6997
▁potvynių	-6998
▁pradėtas	-6999
▁prielaid	-7000
▁pritarta	-7001
▁procesui	-7002
▁raginame	-7003
▁regionas	-7004
▁reikalai	-7005
▁sankcijų	-7006
▁savaičių	-7007
▁sumažėjo	-7008
▁sunkumus	-7009
▁svarbiau	-7010
▁teisėtos	-7011
▁trūkumus	-7012
▁tyrimams	-7013
▁veiksnių	-7014
ekonomikos	-7015
▁atsiranda	-7016
▁balsavome	-7017
▁daugiamet	-7018
▁dvidešimt	-7019
▁ilgalaikį	-7020
▁internete	-7021
▁kalbėjote	-7022
▁milijonai	-7023
▁nagrinėti	-7024
▁narkotikų	-7025
▁naudojama	-7026
▁naudojasi	-7027
▁nepilname	-7028
▁nereikėtų	-7029
▁nesuderin	-7030
▁nesutarim	-7031
▁nukreipti	-7032
▁nuolatinį	-7033
▁pagalvoti	-7034
▁pardavimo	-7035
▁pasauliui	-7036
▁pasiekėme	-7037
▁pasiūlyta	-7038
▁pastebėti	-7039
▁politiniu	-7040
▁pozicijai	-7041
▁požiūriui	-7042
▁priežiūra	-7043
▁projektai	-7044
▁reiškinys	-7045
▁sankcijas	-7046
▁socialiai	-7047
▁struktūrą	-7048
▁suteiktas	-7049
▁uždavinių	-7050
▁uždavinys	-7051
▁užtikrina	-7052
▁įstatymas	-7053
▁įvairiais	-7054
▁Karalystės	-7055
▁Rumunijoje	-7056
▁Tarptautin	-7057
▁aplinkybių	-7058
▁bendrovėms	-7059
▁dabartinių	-7060
▁dalyvavimą	-7061
▁ekonominiu	-7062
▁garantuoti	-7063
▁gyventojus	-7064
▁komunikatą	-7065
▁konvencija	-7066
▁kriterijai	-7067
▁netinkamas	-7068
▁nuolatinis	-7069
▁pacientams	-7070
▁pagrindinį	-7071
▁papildomos	-7072
▁parlamentų	-7073
▁patenkinta	-7074
▁pranešimai	-7075
▁pranešimus	-7076
▁priežastys	-7077
▁prioritetu	-7078
▁pripažįsta	-7079
▁profesinių	-7080
▁stebėsenos	-7081
▁ženklinimo	-7082
▁Afganistano	-7083
▁Makedonijos	-7084
▁Pagrindinis	-7085
▁atitinkamos	-7086
▁europiečiai	-7087
▁galimybėmis	-7088
▁grindžiamas	-7089
▁kiekvienais	-7090
▁nevyriausyb	-7091
▁nusikalstam	-7092
▁paskirstymo	-7093
▁pavaduotoja	-7094
▁prezidentas	-7095
▁rezoliucijų	-7096
▁solidarumas	-7097
▁vyriausybei	-7098
▁bendruomenės	-7099
▁intelektinės	-7100
▁investicijos	-7101
▁kompetencija	-7102
▁koordinavimą	-7103
▁nepakankamai	-7104
▁pasitikėjimo	-7105
▁pusiausvyros	-7106
▁atskaitomybės	-7107
▁institucijose	-7108
▁nepriklausomą	-7109
▁suinteresuotųjų	-7110
.-	-7111
2,	-7112
BT	-7113
DA	-7114
IP	-7115
IV	-7116
OL	-7117
VM	-7118
af	-7119
dų	-7120
gl	-7121
no	-7122
COS	-7123
IDS	-7124
abv	-7125
arą	-7126
dak	-7127
hol	-7128
lus	-7129
sel	-7130
tuk	-7131
tęs	-7132
ulz	-7133
viz	-7134
štų	-7135
▁29	-7136
▁70	-7137
▁CE	-7138
▁Dv	-7139
▁Jų	-7140
▁Ko	-7141
▁Le	-7142
▁Pl	-7143
▁Šk	-7144
ampa	-7145
araš	-7146
aver	-7147
egov	-7148
enes	-7149
entą	-7150
iasi	-7151
inėj	-7152
izmu	-7153
kaid	-7154
kaln	-7155
nauj	-7156
praš	-7157
reip	-7158
riją	-7159
riki	-7160
rumo	-7161
saug	-7162
sich	-7163
unoj	-7164
yktų	-7165
yvar	-7166
zito	-7167
žiau	-7168
žval	-7169
▁EIB	-7170
▁FRO	-7171
▁Isl	-7172
▁Kom	-7173
▁MER	-7174
▁Mek	-7175
▁Min	-7176
▁PVM	-7177
▁Sep	-7178
▁Sus	-7179
▁akl	-7180
▁bed	-7181
▁dav	-7182
▁dia	-7183
▁juk	-7184
▁neo	-7185
▁nov	-7186
▁ord	-7187
▁raj	-7188
▁ram	-7189
▁vyn	-7190
COSUR	-7191
atsak	-7192
austi	-7193
enoje	-7194
gauti	-7195
ijimo	-7196
inasi	-7197
inėti	-7198
iomis	-7199
iteto	-7200
mesti	-7201
odama	-7202
orius	-7203
osime	-7204
tingo	-7205
tingą	-7206
tiška	-7207
uojam	-7208
uotės	-7209
yboje	-7210
ystei	-7211
ėdžio	-7212
▁Esti	-7213
▁Joje	-7214
▁Praš	-7215
▁Saug	-7216
▁Stok	-7217
▁Tada	-7218
▁Vaik	-7219
▁Viet	-7220
▁cikl	-7221
▁etik	-7222
▁gais	-7223
▁liud	-7224
▁norą	-7225
▁piet	-7226
▁renk	-7227
▁savi	-7228
▁toje	-7229
▁toms	-7230
▁zoną	-7231
▁šiau	-7232
▁šimt	-7233
▁ūkių	-7234
audami	-7235
eityje	-7236
imbabv	-7237
indami	-7238
mingas	-7239
omunik	-7240
orizon	-7241
pasiūl	-7242
uodama	-7243
▁Antro	-7244
▁Dunoj	-7245
▁Energ	-7246
▁Irane	-7247
▁Tokiu	-7248
▁atmes	-7249
▁blogi	-7250
▁būsim	-7251
▁galių	-7252
▁ištik	-7253
▁jauči	-7254
▁kitok	-7255
▁kruop	-7256
▁kvotų	-7257
▁ligon	-7258
▁mastą	-7259
▁mažos	-7260
▁mažum	-7261
▁mėsos	-7262
▁pasit	-7263
▁patar	-7264
▁plane	-7265
▁planų	-7266
▁redak	-7267
▁sauga	-7268
▁saugą	-7269
▁smulk	-7270
▁taiky	-7271
▁telef	-7272
▁tiesa	-7273
▁vaizd	-7274
▁įdomu	-7275
▁įvyki	-7276
▁Škoti	-7277
estauti	-7278
tacijos	-7279
ultūros	-7280
ėtumėme	-7281
▁Airija	-7282
▁Diskus	-7283
▁FRONTE	-7284
▁Ketvir	-7285
▁Lotynų	-7286
▁Meksik	-7287
▁Schulz	-7288
▁atrank	-7289
▁būdais	-7290
▁derėtų	-7291
▁dienas	-7292
▁dvejop	-7293
▁galimą	-7294
▁galimų	-7295
▁imperi	-7296
▁išmokų	-7297
▁išryšk	-7298
▁išties	-7299
▁kalbas	-7300
▁kartoj	-7301
▁krizei	-7302
▁lėktuv	-7303
▁nebėra	-7304
▁nekant	-7305
▁nenaud	-7306
▁paband	-7307
▁padėsi	-7308
▁parodo	-7309
▁paveik	-7310
▁pavien	-7311
▁pertek	-7312
▁prarad	-7313
▁puosel	-7314
▁reiški	-7315
▁rengia	-7316
▁rimtas	-7317
▁sakėte	-7318
▁salėje	-7319
▁skland	-7320
▁skolos	-7321
▁smurtu	-7322
▁sutrik	-7323
▁tautos	-7324
▁tikrus	-7325
▁tolesn	-7326
▁turbūt	-7327
▁vykusi	-7328
▁Šiomis	-7329
▁žodžių	-7330
asdešimt	-7331
uosiuose	-7332
▁Stokhol	-7333
▁Teismas	-7334
▁Tikimės	-7335
▁aplinka	-7336
▁apsirib	-7337
▁apsirūp	-7338
▁atliktų	-7339
▁bandymų	-7340
▁būtinos	-7341
▁dalytis	-7342
▁daugumą	-7343
▁dėkinga	-7344
▁fondais	-7345
▁geresnį	-7346
▁indėlis	-7347
▁išimčių	-7348
▁iškraip	-7349
▁išplėti	-7350
▁klastoj	-7351
▁leidimo	-7352
▁naudoja	-7353
▁naujien	-7354
▁nedidel	-7355
▁nepadar	-7356
▁pajamos	-7357
▁pareigą	-7358
▁pasisek	-7359
▁patentų	-7360
▁pirmiau	-7361
▁prašymų	-7362
▁prireik	-7363
▁prisiėm	-7364
▁privači	-7365
▁skirtus	-7366
▁skurdas	-7367
▁sritims	-7368
▁susilpn	-7369
▁svarbią	-7370
▁tarnybų	-7371
▁termino	-7372
▁transli	-7373
▁tvarios	-7374
▁tvarumo	-7375
▁vaistus	-7376
▁verslui	-7377
▁vienoje	-7378
▁visuose	-7379
▁vykdomą	-7380
▁Baigdama	-7381
▁Hercegov	-7382
▁MERCOSUR	-7383
▁Nacional	-7384
▁Posėdžio	-7385
▁Turėtume	-7386
▁apibūdin	-7387
▁apsaugai	-7388
▁atsirado	-7389
▁dujotiek	-7390
▁dėkingas	-7391
▁galutinį	-7392
▁istoriją	-7393
▁mokestis	-7394
▁neigiamų	-7395
▁nepamirš	-7396
▁nepateik	-7397
▁neįtrauk	-7398
▁nuomones	-7399
▁nuostata	-7400
▁pasikeit	-7401
▁pasitelk	-7402
▁perkelti	-7403
▁pokyčiai	-7404
▁projekte	-7405
▁signalas	-7406
▁skrydžių	-7407
▁suvartoj	-7408
▁teikiant	-7409
▁tikimasi	-7410
▁valdymui	-7411
▁vertybės	-7412
▁viršūnių	-7413
▁įtikinti	-7414
▁Graikijai	-7415
▁aspektais	-7416
▁galutinis	-7417
▁interesai	-7418
▁kalbėjusi	-7419
▁kapitaliz	-7420
▁korupcija	-7421
▁miestuose	-7422
▁naujosios	-7423
▁neteisėta	-7424
▁pakalbėti	-7425
▁pakartoti	-7426
▁pakeitimu	-7427
▁paskatino	-7428
▁pastarųjų	-7429
▁pateiksiu	-7430
▁pateiktos	-7431
▁pavyzdžiu	-7432
▁penkerius	-7433
▁perskirst	-7434
▁praeities	-7435
▁rugpjūčio	-7436
▁siekdamas	-7437
▁sumažinta	-7438
▁supratimo	-7439
▁sutarčiai	-7440
▁sutinkame	-7441
▁sėkmingas	-7442
▁tarpinink	-7443
▁turinčios	-7444
▁universit	-7445
▁užtikrins	-7446
▁Graikijoje	-7447
▁Komisijoje	-7448
▁Palestinos	-7449
▁atskirtimi	-7450
▁atstovauja	-7451
▁balsuojama	-7452
▁biologinės	-7453
▁ilgalaikio	-7454
▁konvenciją	-7455
▁moksliniai	-7456
▁nepritariu	-7457
▁oficialiai	-7458
▁padariniai	-7459
▁pareigūnai	-7460
▁pasirašyti	-7461
▁pažeidimas	-7462
▁peržiūrėti	-7463
▁piliečiais	-7464
▁profesinio	-7465
▁reglamente	-7466
▁susitarime	-7467
▁įgaliojimų	-7468
▁Kopenhagoje	-7469
▁Svarbiausia	-7470
▁džiaugiamės	-7471
▁laikotarpis	-7472
▁laipsniškai	-7473
▁mechanizmas	-7474
▁organizuoti	-7475
▁praėjusiais	-7476
▁reguliavimą	-7477
▁taisyklėmis	-7478
▁tiesioginių	-7479
▁užtikrinama	-7480
▁Jugoslavijos	-7481
▁Pirmininkauj	-7482
▁darbuotojais	-7483
▁demokratinių	-7484
▁diskusijomis	-7485
▁konsultacijų	-7486
▁laikotarpiui	-7487
▁patvirtinimą	-7488
▁tarpinstituc	-7489
▁apgailestauti	-7490
▁apmokestinimo	-7491
▁darbotvarkėje	-7492
▁investicijoms	-7493
▁patvirtinimas	-7494
▁tarptautinius	-7495
▁technologijos	-7496
▁infrastruktūrą	-7497
▁nepriklausomai	-7498
▁neatsižvelgiant	-7499
AF	-7500
BG	-7501
ND	-7502
de	-7503
ot	-7504
tę	-7505
abų	-7506
adą	-7507
aks	-7508
eiš	-7509
els	-7510
mėn	-7511
pak	-7512
pid	-7513
pre	-7514
ski	-7515
yme	-7516
ardo	-7517
aukš	-7518
buvo	-7519
džią	-7520
etos	-7521
eško	-7522
gios	-7523
gąst	-7524
ilio	-7525
ivid	-7526
pret	-7527
stai	-7528
ydov	-7529
yste	-7530
ąlyg	-7531
ūdis	-7532
ūriz	-7533
▁Ark	-7534
▁Ati	-7535
▁Gen	-7536
▁Jem	-7537
▁SIS	-7538
▁Van	-7539
▁apl	-7540
▁než	-7541
▁tes	-7542
▁ved	-7543
aikau	-7544
anaud	-7545
anija	-7546
ankūn	-7547
arija	-7548
ateis	-7549
eista	-7550
engia	-7551
iantį	-7552
omais	-7553
prasm	-7554
tenka	-7555
tiems	-7556
vaizd	-7557
vieno	-7558
voliu	-7559
ėjais	-7560
▁Darb	-7561
▁Lank	-7562
▁Nesu	-7563
▁Nėra	-7564
▁Stav	-7565
▁atsk	-7566
▁beje	-7567
▁būkl	-7568
▁gili	-7569
▁liga	-7570
▁mand	-7571
▁pain	-7572
▁test	-7573
▁trak	-7574
▁tran	-7575
▁trej	-7576
▁voki	-7577
▁zona	-7578
▁Žali	-7579
eginio	-7580
ingais	-7581
istema	-7582
jektyv	-7583
pręstų	-7584
tinink	-7585
usioms	-7586
utinių	-7587
ėjimus	-7588
ėjusią	-7589
▁Venes	-7590
▁akmen	-7591
▁arabų	-7592
▁augin	-7593
▁brang	-7594
▁bruož	-7595
▁dalys	-7596
▁domin	-7597
▁esamą	-7598
▁galin	-7599
▁gauna	-7600
▁gerov	-7601
▁ilgas	-7602
▁išvyk	-7603
▁juris	-7604
▁kaina	-7605
▁mėlyn	-7606
▁narei	-7607
▁nesut	-7608
▁norim	-7609
▁normų	-7610
▁nusiv	-7611
▁pavėl	-7612
▁pačią	-7613
▁pelno	-7614
▁psich	-7615
▁radio	-7616
▁riboj	-7617
▁savęs	-7618
▁sunkų	-7619
▁taršą	-7620
▁teisį	-7621
▁telek	-7622
▁tiesą	-7623
▁tikro	-7624
▁tikru	-7625
▁turim	-7626
▁tėvai	-7627
▁užmoj	-7628
▁užter	-7629
▁įvaik	-7630
▁Šiais	-7631
▁žodis	-7632
anijoje	-7633
ančioje	-7634
kaityti	-7635
priemon	-7636
uotojus	-7637
▁Galime	-7638
▁Haičio	-7639
▁Island	-7640
▁Kankūn	-7641
▁Septin	-7642
▁Teisių	-7643
▁akcent	-7644
▁apibūd	-7645
▁apsunk	-7646
▁apyvar	-7647
▁atidar	-7648
▁atvejį	-7649
▁baigta	-7650
▁buvome	-7651
▁būčiau	-7652
▁daržov	-7653
▁didele	-7654
▁dimens	-7655
▁dislok	-7656
▁islamo	-7657
▁kokius	-7658
▁kontak	-7659
▁kūrimą	-7660
▁laikau	-7661
▁mokymą	-7662
▁neginč	-7663
▁nesame	-7664
▁norite	-7665
▁pablog	-7666
▁paketu	-7667
▁paliek	-7668
▁pasist	-7669
▁person	-7670
▁piliet	-7671
▁pradės	-7672
▁prekės	-7673
▁primen	-7674
▁protes	-7675
▁sritys	-7676
▁sąvoka	-7677
▁teigti	-7678
▁teisei	-7679
▁tinklą	-7680
▁trukdo	-7681
▁verslą	-7682
▁verčia	-7683
▁vietoj	-7684
▁viziją	-7685
▁įvykti	-7686
igraciją	-7687
inančios	-7688
ininkais	-7689
uojančių	-7690
▁General	-7691
▁Kalbame	-7692
▁Rūmuose	-7693
▁aiškios	-7694
▁autonom	-7695
▁biudžet	-7696
▁esminių	-7697
▁grupėms	-7698
▁grėsmės	-7699
▁horizon	-7700
▁ideolog	-7701
▁individ	-7702
▁ištirti	-7703
▁išvados	-7704
▁iššūkis	-7705
▁komitet	-7706
▁kultūra	-7707
▁mažumos	-7708
▁metodus	-7709
▁minučių	-7710
▁netoler	-7711
▁nuogąst	-7712
▁nustato	-7713
▁pabrėžė	-7714
▁pajėgos	-7715
▁panašių	-7716
▁pasaulį	-7717
▁pasmerk	-7718
▁pastabų	-7719
▁pirmoji	-7720
▁prasmės	-7721
▁prisiim	-7722
▁privati	-7723
▁reformą	-7724
▁saugumu	-7725
▁sesijos	-7726
▁statykl	-7727
▁sukelti	-7728
▁susitel	-7729
▁taupymo	-7730
▁tokiose	-7731
▁tęsiasi	-7732
▁užduotį	-7733
▁vienodo	-7734
▁visišką	-7735
truktūriz	-7736
uojančios	-7737
▁Belgijos	-7738
▁Dabartin	-7739
▁Dunojaus	-7740
▁Liberalų	-7741
▁Pramonės	-7742
▁Venesuel	-7743
▁apibrėži	-7744
▁atliktas	-7745
▁bendroji	-7746
▁daugybės	-7747
▁demonstr	-7748
▁didelius	-7749
▁didinant	-7750
▁didžiuoj	-7751
▁dvišalių	-7752
▁elementų	-7753
▁gamtinių	-7754
▁imigrant	-7755
▁išreiški	-7756
▁jurisdik	-7757
▁keliamas	-7758
▁kelionių	-7759
▁mokymosi	-7760
▁mokėjimo	-7761
▁nedarbas	-7762
▁neleidži	-7763
▁neleisti	-7764
▁nelygybę	-7765
▁novatori	-7766
▁nusikalt	-7767
▁nusistat	-7768
▁pajėgumų	-7769
▁palestin	-7770
▁paminėjo	-7771
▁pasakėte	-7772
▁pasekmės	-7773
▁patikimą	-7774
▁prisimen	-7775
▁raginimą	-7776
▁reklamos	-7777
▁spaudimo	-7778
▁sudarant	-7779
▁susidoro	-7780
▁taikymas	-7781
▁teikiamų	-7782
▁teikimas	-7783
▁tolesnio	-7784
▁vienodas	-7785
▁šiuolaik	-7786
▁2007-2013	-7787
▁Direktyva	-7788
▁Ispanijai	-7789
▁Turkijoje	-7790
▁alkoholio	-7791
▁atsakingi	-7792
▁ekonomine	-7793
▁išdėstyti	-7794
▁laikantis	-7795
▁laikymosi	-7796
▁nekalbant	-7797
▁nukentėjo	-7798
▁nuspręsta	-7799
▁nustatymo	-7800
▁pacientai	-7801
▁pareigūnų	-7802
▁pateikiau	-7803
▁pavojingų	-7804
▁pažeidimo	-7805
▁plėtojant	-7806
▁priešingu	-7807
▁pritarimo	-7808
▁reikalams	-7809
▁skirtingi	-7810
▁sutaupyti	-7811
▁teikiamas	-7812
▁tobulinti	-7813
▁veiksniai	-7814
▁vieningai	-7815
▁visuotinį	-7816
▁įgaliotin	-7817
▁Didžiosios	-7818
▁Ispanijoje	-7819
▁Jungtinėse	-7820
▁Priešingai	-7821
▁Solidarumo	-7822
▁apsisprend	-7823
▁atsakingai	-7824
▁delegacija	-7825
▁dvideginio	-7826
▁elektrinės	-7827
▁imigracija	-7828
▁neteisėtai	-7829
▁neturtingi	-7830
▁operacijos	-7831
▁papildomas	-7832
▁pasiektume	-7833
▁paslaugoms	-7834
▁pažangiojo	-7835
▁pažeidimai	-7836
▁perdavimas	-7837
▁perkėlimas	-7838
▁pirmininką	-7839
▁prevenciją	-7840
▁priešingai	-7841
▁pripažinta	-7842
▁radioaktyv	-7843
▁referentas	-7844
▁reikalingų	-7845
▁remdamasis	-7846
▁skatinamas	-7847
▁socialiniu	-7848
▁sukčiavimu	-7849
▁sumažintas	-7850
▁svarbesnis	-7851
▁valdysenos	-7852
▁Pagrindinių	-7853
▁Portugalija	-7854
▁ateinančius	-7855
▁ekonomiškai	-7856
▁finansinius	-7857
▁makroekonom	-7858
▁panaudojimo	-7859
▁partnerystę	-7860
▁pasirinkimo	-7861
▁pasirūpinti	-7862
▁pastangomis	-7863
▁pateikiamas	-7864
▁pripažinimo	-7865
▁rezultatais	-7866
▁sektoriuose	-7867
▁specialistų	-7868
▁Tarptautinio	-7869
▁branduolinių	-7870
▁konferencija	-7871
▁konferenciją	-7872
▁nacionalinio	-7873
▁restruktūriz	-7874
▁veiksmingumo	-7875
▁atsižvelgdama	-7876
▁demokratinius	-7877
▁ketvirtadienį	-7878
▁kompetencijai	-7879
▁priklausomybę	-7880
▁bankininkystės	-7881
▁reglamentavimo	-7882
▁pirmininkavimas	-7883
▁tarptautinbendr	-7884
▁įsipareigojimas	-7885
,2	-7886
-1	-7887
."	-7888
IF	-7889
KP	-7890
SL	-7891
ip	-7892
uc	-7893
žu	-7894
žū	-7895
7-0	-7896
Kar	-7897
LAF	-7898
adi	-7899
ash	-7900
emp	-7901
ene	-7902
eor	-7903
fob	-7904
inė	-7905
jus	-7906
las	-7907
nik	-7908
nuo	-7909
oko	-7910
rog	-7911
rūs	-7912
sen	-7913
užd	-7914
▁1.	-7915
▁28	-7916
▁Ad	-7917
▁Il	-7918
▁Th	-7919
▁er	-7920
▁ty	-7921
aizd	-7922
ajam	-7923
akis	-7924
atau	-7925
brėž	-7926
dymą	-7927
eiga	-7928
eina	-7929
ešim	-7930
gres	-7931
inau	-7932
indi	-7933
inte	-7934
juos	-7935
kilo	-7936
ksem	-7937
laiv	-7938
rios	-7939
vald	-7940
verg	-7941
ybas	-7942
ystė	-7943
yčių	-7944
čiui	-7945
ėsti	-7946
ėtra	-7947
šiuo	-7948
▁197	-7949
▁300	-7950
▁Ben	-7951
▁Doh	-7952
▁Gar	-7953
▁Joh	-7954
▁Juo	-7955
▁Kel	-7956
▁Lai	-7957
▁Luk	-7958
▁Mau	-7959
▁Mon	-7960
▁PNR	-7961
▁Pab	-7962
▁abu	-7963
▁bud	-7964
▁fik	-7965
▁gil	-7966
▁kab	-7967
▁kūn	-7968
▁sch	-7969
▁įkv	-7970
▁Šia	-7971
Karal	-7972
aisto	-7973
amoji	-7974
ariai	-7975
arijų	-7976
balsi	-7977
burge	-7978
cinės	-7979
didži	-7980
džiau	-7981
ekija	-7982
eštar	-7983
ganiz	-7984
imąsi	-7985
kaiči	-7986
kuren	-7987
lanto	-7988
otume	-7989
risti	-7990
ronte	-7991
stume	-7992
tinus	-7993
tišką	-7994
tobus	-7995
vimas	-7996
ymusi	-7997
ėkite	-7998
ūroms	-7999
▁2002	-8000
▁2003	-8001
▁Apie	-8002
▁Dažn	-8003
▁Latv	-8004
▁Mane	-8005
▁Niek	-8006
▁OLAF	-8007
▁Prek	-8008
▁auga	-8009
▁avių	-8010
▁bazę	-8011
▁biod	-8012
▁esmę	-8013
▁eurą	-8014
▁gaiv	-8015
▁gene	-8016
▁jėga	-8017
▁kaln	-8018
▁mato	-8019
▁mažų	-8020
▁merg	-8021
▁meto	-8022
▁narį	-8023
▁neli	-8024
▁nere	-8025
▁neįv	-8026
▁noro	-8027
▁piln	-8028
▁rytą	-8029
▁scen	-8030
▁skyl	-8031
▁sukr	-8032
▁supl	-8033
▁sėkm	-8034
▁teks	-8035
▁vaiz	-8036
▁vard	-8037
▁veid	-8038
▁įpro	-8039
▁įves	-8040
adarbi	-8041
džiais	-8042
ektori	-8043
etinės	-8044
inamai	-8045
indama	-8046
inkime	-8047
iogiai	-8048
tariau	-8049
tavimo	-8050
tiškas	-8051
uojamą	-8052
yrimas	-8053
ytomis	-8054
▁Artim	-8055
▁Dimas	-8056
▁Kalbu	-8057
▁Kubos	-8058
▁Mokes	-8059
▁Moksl	-8060
▁Veiks	-8061
▁anglų	-8062
▁antrą	-8063
▁artėj	-8064
▁atmos	-8065
▁bando	-8066
▁bijau	-8067
▁draus	-8068
▁formą	-8069
▁formų	-8070
▁grupė	-8071
▁ieško	-8072
▁imsis	-8073
▁infek	-8074
▁iškas	-8075
▁išvar	-8076
▁jūrin	-8077
▁klest	-8078
▁kolon	-8079
▁kurdų	-8080
▁minti	-8081
▁muitų	-8082
▁nekal	-8083
▁nepaj	-8084
▁nesul	-8085
▁neutr	-8086
▁pamok	-8087
▁paraš	-8088
▁pavas	-8089
▁pietų	-8090
▁pražū	-8091
▁preki	-8092
▁remiu	-8093
▁sukil	-8094
▁svyra	-8095
▁trunk	-8096
▁vesti	-8097
▁įrodo	-8098
▁įžeid	-8099
▁ūkiui	-8100
▁žvejų	-8101
ančioji	-8102
ereikia	-8103
ininkas	-8104
pagalba	-8105
registr	-8106
žiaugti	-8107
▁Antras	-8108
▁Barsel	-8109
▁Birmos	-8110
▁Kanada	-8111
▁Kolumb	-8112
▁Korėja	-8113
▁Region	-8114
▁Tunise	-8115
▁aplank	-8116
▁atveri	-8117
▁būtini	-8118
▁degalų	-8119
▁etapas	-8120
▁etiket	-8121
▁formos	-8122
▁galias	-8123
▁gamykl	-8124
▁grėsmė	-8125
▁iškart	-8126
▁išsisk	-8127
▁kartos	-8128
▁kelyje	-8129
▁kenkia	-8130
▁kovoja	-8131
▁kruopš	-8132
▁kvotas	-8133
▁kvotos	-8134
▁laukiu	-8135
▁linijų	-8136
▁modeli	-8137
▁neapsi	-8138
▁nebals	-8139
▁neįtik	-8140
▁padirb	-8141
▁padėką	-8142
▁pardav	-8143
▁pavirš	-8144
▁posėdį	-8145
▁praras	-8146
▁priims	-8147
▁pusėje	-8148
▁remtis	-8149
▁režimą	-8150
▁rodyti	-8151
▁skubių	-8152
▁skyrių	-8153
▁smulki	-8154
▁suvarž	-8155
▁teismą	-8156
▁užsien	-8157
▁veiktų	-8158
▁įstoti	-8159
▁įvykis	-8160
▁ženklų	-8161
tinKaral	-8162
▁Atlanto	-8163
▁Finansų	-8164
▁Kartais	-8165
▁Komisar	-8166
▁Lenkija	-8167
▁Liuksem	-8168
▁Reikėtų	-8169
▁Rezoliu	-8170
▁Suprant	-8171
▁analizę	-8172
▁arenoje	-8173
▁atmesti	-8174
▁aukomis	-8175
▁autobus	-8176
▁besąlyg	-8177
▁blogiau	-8178
▁būsimos	-8179
▁civiliz	-8180
▁dalyvių	-8181
▁demonst	-8182
▁deramai	-8183
▁derėtis	-8184
▁esančių	-8185
▁galimas	-8186
▁girdime	-8187
▁griežtą	-8188
▁gyvulių	-8189
▁imamasi	-8190
▁išimtis	-8191
▁iškelti	-8192
▁keturių	-8193
▁konstat	-8194
▁konverg	-8195
▁krypčių	-8196
▁laivams	-8197
▁modifik	-8198
▁mokyklų	-8199
▁monopol	-8200
▁mėnesio	-8201
▁namuose	-8202
▁nelegal	-8203
▁nepasir	-8204
▁nesusij	-8205
▁nusivyl	-8206
▁padidės	-8207
▁pagyven	-8208
▁palydov	-8209
▁pareikš	-8210
▁pirkimų	-8211
▁prekiau	-8212
▁prekėms	-8213
▁privers	-8214
▁priėmus	-8215
▁prižiūr	-8216
▁reikšti	-8217
▁remiant	-8218
▁režimas	-8219
▁rinktis	-8220
▁siūlyti	-8221
▁skatins	-8222
▁skubiau	-8223
▁statuso	-8224
▁statusą	-8225
▁stiprus	-8226
▁sunkvež	-8227
▁sąjungų	-8228
▁taikymą	-8229
▁tiekimą	-8230
▁tokioms	-8231
▁turėjau	-8232
▁tyrimas	-8233
▁uždraud	-8234
▁vystymo	-8235
▁įpareig	-8236
▁įrodymų	-8237
▁žiūrėti	-8238
▁Graikija	-8239
▁Juodkaln	-8240
▁Kinijoje	-8241
▁Paskutin	-8242
▁Pirmasis	-8243
▁aktyviau	-8244
▁ateičiai	-8245
▁atitikti	-8246
▁atsitiko	-8247
▁bendrojo	-8248
▁didesnių	-8249
▁didinimą	-8250
▁ekspertų	-8251
▁energija	-8252
▁gebėjimą	-8253
▁gerbiami	-8254
▁geresnės	-8255
▁informac	-8256
▁išgyvena	-8257
▁išmetamo	-8258
▁išvadose	-8259
▁išvengta	-8260
▁iššūkiai	-8261
▁jaunimas	-8262
▁konsolid	-8263
▁kreipėsi	-8264
▁mažinant	-8265
▁mažumoms	-8266
▁minėjote	-8267
▁objektyv	-8268
▁padengti	-8269
▁palaipsn	-8270
▁parengta	-8271
▁pasibaig	-8272
▁pasitaik	-8273
▁pažymėjo	-8274
▁pilietis	-8275
▁pozicijų	-8276
▁praktiką	-8277
▁pratęsti	-8278
▁prieigos	-8279
▁reikiamą	-8280
▁reikšmės	-8281
▁stipriai	-8282
▁sukurtas	-8283
▁sutarimą	-8284
▁svarbaus	-8285
▁sąnaudas	-8286
▁turintys	-8287
▁uostuose	-8288
▁užsibrėž	-8289
▁valandas	-8290
▁valstybe	-8291
▁įgūdžius	-8292
▁įvairius	-8293
alizacijos	-8294
▁Apskritai	-8295
▁Susitarim	-8296
▁Valstybių	-8297
▁atliekant	-8298
▁atstovais	-8299
▁būtinybės	-8300
▁daugiašal	-8301
▁formuluot	-8302
▁galiojimo	-8303
▁galutinai	-8304
▁galėdamas	-8305
▁gelbėjimo	-8306
▁importuoj	-8307
▁interpret	-8308
▁kadenciją	-8309
▁kariuomen	-8310
▁ketinimus	-8311
▁komisijos	-8312
▁konfliktų	-8313
▁leidimais	-8314
▁ministrai	-8315
▁mėnesiais	-8316
▁neturting	-8317
▁nustatomi	-8318
▁pasmerkti	-8319
▁peržiūros	-8320
▁praktinių	-8321
▁pripažino	-8322
▁programai	-8323
▁reikalavo	-8324
▁reikiamus	-8325
▁religinių	-8326
▁rinkimams	-8327
▁sulaikymo	-8328
▁susitarta	-8329
▁vartojimą	-8330
▁vertingas	-8331
▁vertybėms	-8332
▁švietimas	-8333
omunikacijų	-8334
▁Sanglaudos	-8335
▁apytikriai	-8336
▁atliekamas	-8337
▁atskirties	-8338
▁draudžiama	-8339
▁geriausios	-8340
▁ištekliais	-8341
▁mechanizmo	-8342
▁netinkamai	-8343
▁neužtikrin	-8344
▁nukreiptas	-8345
▁nuodugniai	-8346
▁ombudsmeno	-8347
▁partneriai	-8348
▁pasauliniu	-8349
▁pateiktame	-8350
▁precedento	-8351
▁priimtinas	-8352
▁priklausys	-8353
▁prisiminti	-8354
▁privalomas	-8355
▁prižiūrėti	-8356
▁problemoms	-8357
▁produktams	-8358
▁ratifikavo	-8359
▁skatinimas	-8360
▁skirtingas	-8361
▁skirtingos	-8362
▁stiprinant	-8363
▁susidoroti	-8364
▁susitikimų	-8365
▁svarbiausi	-8366
▁teisingumą	-8367
▁vadinamąjį	-8368
▁vairuotojų	-8369
▁veiksmingi	-8370
▁įtraukties	-8371
▁aplinkosaug	-8372
▁dalyvaujant	-8373
▁diskusijoms	-8374
▁ekonominius	-8375
▁integruotos	-8376
▁išlaisvinti	-8377
▁moksliniams	-8378
▁nukentėjusi	-8379
▁parlamentas	-8380
▁pasiūlymais	-8381
▁pasiūlymams	-8382
▁ratifikuoti	-8383
▁socialiniai	-8384
▁strateginių	-8385
▁veiksmingas	-8386
▁bendruomenių	-8387
▁deklaracijos	-8388
▁demokratinio	-8389
▁dokumentuose	-8390
▁elektroninės	-8391
▁finansavimui	-8392
▁greičiausiai	-8393
▁konservatori	-8394
▁plenariniame	-8395
▁prisitaikyti	-8396
▁reikalaujame	-8397
▁rezoliucijas	-8398
▁susitarimais	-8399
▁įgyvendinami	-8400
▁žiniasklaida	-8401
▁Atsižvelgdama	-8402
▁Baltarusijoje	-8403
▁Konstitucijos	-8404
▁Portugalijoje	-8405
▁baudžiamosios	-8406
▁konsultacijos	-8407
▁pasitikėjimas	-8408
▁tarptautiniai	-8409
▁supaprastinimo	-8410
▁besivystančiose	-8411
,3	-8412
-2	-8413
30	-8414
45	-8415
6,	-8416
BŽ	-8417
EA	-8418
bų	-8419
ru	-8420
ue	-8421
zy	-8422
ūg	-8423
▁/	-8424
-20	-8425
.),	-8426
DEM	-8427
Pos	-8428
ail	-8429
ars	-8430
cho	-8431
ekv	-8432
enz	-8433
erį	-8434
inn	-8435
int	-8436
iri	-8437
irk	-8438
jas	-8439
lią	-8440
nep	-8441
ryp	-8442
sus	-8443
ulk	-8444
ved	-8445
vin	-8446
zmą	-8447
▁(1	-8448
▁35	-8449
▁75	-8450
▁Am	-8451
▁GM	-8452
▁Mi	-8453
▁kt	-8454
▁lė	-8455
▁ok	-8456
-200	-8457
aino	-8458
akte	-8459
alūs	-8460
amam	-8461
ante	-8462
anto	-8463
būro	-8464
ildo	-8465
inas	-8466
ioto	-8467
irba	-8468
kiek	-8469
klos	-8470
kred	-8471
leks	-8472
mėms	-8473
nier	-8474
orid	-8475
tins	-8476
tumą	-8477
usis	-8478
usiu	-8479
vert	-8480
vies	-8481
ynių	-8482
ėjui	-8483
ėrim	-8484
šald	-8485
▁250	-8486
▁Alz	-8487
▁Cor	-8488
▁IND	-8489
▁Jac	-8490
▁Kur	-8491
▁Neg	-8492
▁Nel	-8493
▁Sak	-8494
▁Taj	-8495
▁cuk	-8496
▁ded	-8497
▁eli	-8498
▁grį	-8499
▁kat	-8500
▁kir	-8501
▁lėm	-8502
▁pig	-8503
▁sem	-8504
▁sin	-8505
▁ugn	-8506
▁užg	-8507
▁Įsi	-8508
▁Žen	-8509
▁Žuv	-8510
agask	-8511
amumą	-8512
anden	-8513
andos	-8514
aukia	-8515
aviet	-8516
didel	-8517
dėmes	-8518
eikės	-8519
ianti	-8520
ienos	-8521
iskol	-8522
istus	-8523
kiant	-8524
liaus	-8525
oliau	-8526
omoji	-8527
onoje	-8528
opoli	-8529
rimis	-8530
sifik	-8531
tasis	-8532
urime	-8533
vesti	-8534
ysite	-8535
čiama	-8536
ėkime	-8537
▁2050	-8538
▁Char	-8539
▁Keli	-8540
▁Pats	-8541
▁Suom	-8542
▁akad	-8543
▁bang	-8544
▁buve	-8545
▁daik	-8546
▁duos	-8547
▁eina	-8548
▁gale	-8549
▁gras	-8550
▁jaut	-8551
▁jose	-8552
▁karą	-8553
▁kenk	-8554
▁kvie	-8555
▁lais	-8556
▁leng	-8557
▁lenk	-8558
▁maža	-8559
▁nesk	-8560
▁patr	-8561
▁pono	-8562
▁raid	-8563
▁rytų	-8564
▁slyp	-8565
▁stai	-8566
▁taus	-8567
▁vilk	-8568
▁įkur	-8569
▁įneš	-8570
▁šird	-8571
amiems	-8572
eidimo	-8573
etinių	-8574
galioj	-8575
iausių	-8576
imasis	-8577
imerio	-8578
inanti	-8579
inantį	-8580
inėsiu	-8581
oliber	-8582
region	-8583
tarimą	-8584
torijų	-8585
usiais	-8586
ėdamos	-8587
▁Dohos	-8588
▁Irako	-8589
▁Panaš	-8590
▁Teigi	-8591
▁Užuot	-8592
▁antro	-8593
▁apdai	-8594
▁atver	-8595
▁aukos	-8596
▁buvęs	-8597
▁būdus	-8598
▁detal	-8599
▁drama	-8600
▁duotų	-8601
▁esamų	-8602
▁galia	-8603
▁grupę	-8604
▁infli	-8605
▁kilmę	-8606
▁kitam	-8607
▁klyst	-8608
▁knygą	-8609
▁kovoj	-8610
▁nariu	-8611
▁nešal	-8612
▁norin	-8613
▁nutuk	-8614
▁orumą	-8615
▁paktą	-8616
▁perim	-8617
▁pragm	-8618
▁pusių	-8619
▁reali	-8620
▁recep	-8621
▁sieną	-8622
▁skaus	-8623
▁stich	-8624
▁sumos	-8625
▁sėkmę	-8626
▁vaiko	-8627
▁vyktų	-8628
▁vyrai	-8629
▁zonai	-8630
▁įdarb	-8631
▁įstoj	-8632
▁įteis	-8633
▁įvyks	-8634
▁šalia	-8635
ameriki	-8636
engiama	-8637
ompeten	-8638
prendži	-8639
uodamos	-8640
uotojai	-8641
valifik	-8642
▁Buvusi	-8643
▁Egipte	-8644
▁Maisto	-8645
▁Moterų	-8646
▁Nuolat	-8647
▁Toliau	-8648
▁aiškių	-8649
▁apimti	-8650
▁arešto	-8651
▁atskai	-8652
▁atvyko	-8653
▁atšauk	-8654
▁aukštą	-8655
▁bedarb	-8656
▁blogai	-8657
▁būsima	-8658
▁centre	-8659
▁centro	-8660
▁centrų	-8661
▁darome	-8662
▁dvasia	-8663
▁fondus	-8664
▁galimo	-8665
▁grupes	-8666
▁gydymo	-8667
▁gyvybę	-8668
▁išeiti	-8669
▁išsamų	-8670
▁išsprę	-8671
▁iššūkį	-8672
▁kartus	-8673
▁kelios	-8674
▁kiekis	-8675
▁knygos	-8676
▁laikui	-8677
▁laisve	-8678
▁laisvą	-8679
▁maksim	-8680
▁miršta	-8681
▁moters	-8682
▁nedaug	-8683
▁nesusi	-8684
▁nežino	-8685
▁norėjo	-8686
▁nuošal	-8687
▁paslap	-8688
▁pačius	-8689
▁pašarų	-8690
▁pergal	-8691
▁pernai	-8692
▁persik	-8693
▁planai	-8694
▁prekes	-8695
▁priima	-8696
▁prilyg	-8697
▁procen	-8698
▁provok	-8699
▁ragino	-8700
▁rezerv	-8701
▁rūšies	-8702
▁suplan	-8703
▁suvoki	-8704
▁tikėti	-8705
▁tokiam	-8706
▁tvarią	-8707
▁tvirta	-8708
▁užimti	-8709
▁užmegz	-8710
▁užsiim	-8711
▁vienaš	-8712
▁vėliav	-8713
▁žaislų	-8714
acijomis	-8715
tikrinti	-8716
versifik	-8717
▁Arkties	-8718
▁Bendras	-8719
▁Korėjos	-8720
▁Makedon	-8721
▁Paslaug	-8722
▁Rytuose	-8723
▁Saugumo	-8724
▁Strateg	-8725
▁amžiuje	-8726
▁apgalvo	-8727
▁aspektu	-8728
▁atlikto	-8729
▁atlikus	-8730
▁autorių	-8731
▁balsuos	-8732
▁centras	-8733
▁dalyvav	-8734
▁diagnoz	-8735
▁galvoti	-8736
▁griežti	-8737
▁griežtų	-8738
▁grėsmių	-8739
▁kančias	-8740
▁klestin	-8741
▁kliūtys	-8742
▁konsult	-8743
▁laisvos	-8744
▁leidimą	-8745
▁lengvai	-8746
▁medicin	-8747
▁modelis	-8748
▁mokestį	-8749
▁naujoms	-8750
▁nekreip	-8751
▁nelieči	-8752
▁nuolaid	-8753
▁nuostab	-8754
▁nvienas	-8755
▁pabaiga	-8756
▁pajėgas	-8757
▁pakrant	-8758
▁pareigų	-8759
▁pasižym	-8760
▁patirti	-8761
▁pirmąją	-8762
▁pradėtų	-8763
▁prašymo	-8764
▁prevenc	-8765
▁pritars	-8766
▁procesu	-8767
▁protest	-8768
▁regionu	-8769
▁reikštų	-8770
▁rūpestį	-8771
▁saugios	-8772
▁siūlomų	-8773
▁subjekt	-8774
▁sukeltų	-8775
▁sukurtų	-8776
▁sumažės	-8777
▁sunkias	-8778
▁sąjungą	-8779
▁taupyti	-8780
▁teikiam	-8781
▁terminą	-8782
▁tikrovė	-8783
▁tokioje	-8784
▁turimas	-8785
▁turinti	-8786
▁tvaraus	-8787
▁vadovas	-8788
▁vaistai	-8789
▁valdymu	-8790
▁valdžią	-8791
▁vyrauja	-8792
▁įgūdžių	-8793
▁įmonėse	-8794
▁įsigali	-8795
▁žengtas	-8796
▁žvejyba	-8797
▁žvejybą	-8798
▁Ateityje	-8799
▁Bosnijos	-8800
▁Kroatija	-8801
▁Lenkijai	-8802
▁Madagask	-8803
▁Ministre	-8804
▁Negalima	-8805
▁Palaikau	-8806
▁Pateikti	-8807
▁Rusijoje	-8808
▁Sutartis	-8809
▁apsilank	-8810
▁atsakymo	-8811
▁atsirand	-8812
▁atspindi	-8813
▁atstovas	-8814
▁atžvilgi	-8815
▁buvusios	-8816
▁dalyvaus	-8817
▁dalyviai	-8818
▁didelėms	-8819
▁didinimo	-8820
▁galimybė	-8821
▁galėjome	-8822
▁geresnių	-8823
▁gerinimo	-8824
▁išdavimo	-8825
▁išmetimą	-8826
▁išsamios	-8827
▁jaunimui	-8828
▁kitokios	-8829
▁komitetą	-8830
▁kovojama	-8831
▁kuriamos	-8832
▁laikomės	-8833
▁mokėjimų	-8834
▁nepasiek	-8835
▁nepasteb	-8836
▁nepastov	-8837
▁nestabil	-8838
▁norėdami	-8839
▁pabrėžta	-8840
▁padarėme	-8841
▁padėtume	-8842
▁palūkanų	-8843
▁paminėta	-8844
▁pateikia	-8845
▁pertrauk	-8846
▁platform	-8847
▁politikų	-8848
▁poreikių	-8849
▁pradėtos	-8850
▁praėjusį	-8851
▁prašymas	-8852
▁priimami	-8853
▁privalau	-8854
▁priėmimą	-8855
▁sanglaud	-8856
▁sausumos	-8857
▁skiriame	-8858
▁skiriant	-8859
▁sugebėjo	-8860
▁sujungti	-8861
▁sukūrimo	-8862
▁sukūrimą	-8863
▁sulaukti	-8864
▁sumokėti	-8865
▁susiklos	-8866
▁sutartys	-8867
▁sąnaudos	-8868
▁sėkmingą	-8869
▁teisingi	-8870
▁viduryje	-8871
▁įsivaizd	-8872
▁įvairios	-8873
▁Bulgarija	-8874
▁Gerbiamas	-8875
▁Konstituc	-8876
▁Pakistane	-8877
▁Stokholmo	-8878
▁Ukrainoje	-8879
▁Vokietija	-8880
▁apskaitos	-8881
▁atliekamą	-8882
▁atsitinka	-8883
▁bendromis	-8884
▁centraliz	-8885
▁dalyvautų	-8886
▁didžiulių	-8887
▁direktyvų	-8888
▁džiaugtis	-8889
▁europinės	-8890
▁girdėjome	-8891
▁glaudžiau	-8892
▁ilgalaikę	-8893
▁investuoj	-8894
▁kampaniją	-8895
▁ketinimai	-8896
▁kritiškai	-8897
▁migracija	-8898
▁neapsirib	-8899
▁nepasikar	-8900
▁pagaminti	-8901
▁pageidauj	-8902
▁pajėgumus	-8903
▁palaikymą	-8904
▁papildoma	-8905
▁parengėme	-8906
▁pasaulinę	-8907
▁paskutinę	-8908
▁pastarojo	-8909
▁patikinti	-8910
▁pavojinga	-8911
▁pažeidimą	-8912
▁pažvelgti	-8913
▁principui	-8914
▁prisidėtų	-8915
▁priėmimas	-8916
▁problemai	-8917
▁projektui	-8918
▁raginamos	-8919
▁rodikliai	-8920
▁skirtumas	-8921
▁stebėseną	-8922
▁sudėtingą	-8923
▁sukūrimas	-8924
▁susitikti	-8925
▁suteiktos	-8926
▁sąskaitas	-8927
▁techninių	-8928
▁teisingas	-8929
▁teisiškai	-8930
▁teroristų	-8931
▁turinčias	-8932
▁tvarkaraš	-8933
▁vidutinio	-8934
▁vienbalsi	-8935
▁visuomenė	-8936
▁įstatymai	-8937
Pirmininkas	-8938
▁Nyderlandų	-8939
▁Respublika	-8940
▁Slovėnijos	-8941
▁Vengrijoje	-8942
▁akivaizdus	-8943
▁atsitikimų	-8944
▁balsuodami	-8945
▁balsuojant	-8946
▁balsuosime	-8947
▁darbininkų	-8948
▁energetinį	-8949
▁farmacijos	-8950
▁ilgalaikių	-8951
▁ilgalaikės	-8952
▁imperialis	-8953
▁kampanijos	-8954
▁komunikate	-8955
▁konfliktus	-8956
▁naudojimui	-8957
▁nelaimingų	-8958
▁novatorišk	-8959
▁nuosekliai	-8960
▁nustatytus	-8961
▁panaikinta	-8962
▁pasirengti	-8963
▁pavojingas	-8964
▁plačiajuos	-8965
▁remdamiesi	-8966
▁standartiz	-8967
▁suderintos	-8968
▁sudėtingos	-8969
▁sumažinimo	-8970
▁tiesioginį	-8971
▁trečiosios	-8972
▁visuotinai	-8973
▁įsitikinti	-8974
▁įtvirtinta	-8975
▁Prancūzijai	-8976
▁atnaujinimo	-8977
▁dešimtmečių	-8978
▁diskutavome	-8979
▁naudojamasi	-8980
▁neatsižvelg	-8981
▁nuostatomis	-8982
▁pabrėžiamas	-8983
▁palaipsniui	-8984
▁panaikintos	-8985
▁panaudojimą	-8986
▁partneriais	-8987
▁partneriams	-8988
▁pasirinkimą	-8989
▁politiniais	-8990
▁pusiausvyra	-8991
▁referendumą	-8992
▁reglamentus	-8993
▁sukčiavimas	-8994
▁susitikimui	-8995
▁trečiadienį	-8996
▁veiksmingos	-8997
▁JungtinKaral	-8998
▁Portugalijai	-8999
▁ateinančiais	-9000
▁branduolinio	-9001
▁konstruktyvų	-9002
▁nepakankamas	-9003
▁nepritariame	-9004
▁organizacija	-9005
▁paaiškinimai	-9006
▁pagrindinėms	-9007
▁panaikinimas	-9008
▁pasidžiaugti	-9009
▁patvirtintas	-9010
▁patvirtintos	-9011
▁referendumas	-9012
▁savanoriškai	-9013
▁susitvarkyti	-9014
▁svarbiausios	-9015
▁sveikintinas	-9016
▁užtikrinamas	-9017
▁įsigaliojimo	-9018
▁biurokratijos	-9019
▁neišvengiamai	-9020
▁organizacijas	-9021
▁pagrindinėmis	-9022
▁susirūpinimas	-9023
▁susitarimuose	-9024
▁tarptautinėse	-9025
▁tarpvyriausyb	-9026
▁įgyvendinamos	-9027
▁Žuvininkystės	-9028
▁atsinaujinanči	-9029
▁besivystančios	-9030
▁investuotojams	-9031
▁liberalizavimo	-9032
▁nusikalstamumu	-9033
▁įsipareigojimai	-9034
AR	-9035
DO	-9036
EN	-9037
EP	-9038
KK	-9039
LS	-9040
NP	-9041
SP	-9042
VO	-9043
ke	-9044
uy	-9045
uš	-9046
zo	-9047
žų	-9048
.00	-9049
Cre	-9050
aki	-9051
aln	-9052
arį	-9053
eam	-9054
eld	-9055
hum	-9056
ika	-9057
jun	-9058
kui	-9059
lėp	-9060
maž	-9061
onų	-9062
orė	-9063
ova	-9064
res	-9065
rėp	-9066
tad	-9067
tap	-9068
uni	-9069
ure	-9070
uto	-9071
vak	-9072
ček	-9073
ėtą	-9074
šio	-9075
▁90	-9076
▁Bi	-9077
▁Du	-9078
▁ET	-9079
▁Li	-9080
▁Ug	-9081
▁hi	-9082
▁iz	-9083
▁pi	-9084
Bend	-9085
ados	-9086
aikš	-9087
alib	-9088
auta	-9089
būtų	-9090
eksu	-9091
erta	-9092
intą	-9093
inęs	-9094
iršk	-9095
iste	-9096
izmą	-9097
jose	-9098
kozy	-9099
liep	-9100
limp	-9101
lios	-9102
lyga	-9103
mstr	-9104
mums	-9105
mąst	-9106
onui	-9107
oros	-9108
pirm	-9109
ring	-9110
stad	-9111
tyse	-9112
umaž	-9113
vers	-9114
ybei	-9115
ysis	-9116
ėdis	-9117
ūrus	-9118
ženg	-9119
▁150	-9120
▁196	-9121
▁Auk	-9122
▁Dav	-9123
▁ECB	-9124
▁EPS	-9125
▁Fak	-9126
▁Lab	-9127
▁Maž	-9128
▁Med	-9129
▁Mit	-9130
▁NVO	-9131
▁Neb	-9132
▁Nek	-9133
▁Nic	-9134
▁Pui	-9135
▁Rob	-9136
▁SOL	-9137
▁Sal	-9138
▁Sek	-9139
▁Som	-9140
▁ato	-9141
▁cun	-9142
▁dol	-9143
▁rom	-9144
▁ser	-9145
▁tab	-9146
▁ūkį	-9147
▁Žod	-9148
admis	-9149
adoks	-9150
aiški	-9151
anamo	-9152
arius	-9153
aukaz	-9154
centr	-9155
eguli	-9156
eilės	-9157
ektor	-9158
esnir	-9159
gyven	-9160
iskas	-9161
izmas	-9162
kiria	-9163
mėmis	-9164
oment	-9165
omite	-9166
ompuy	-9167
ryčių	-9168
stant	-9169
tikai	-9170
ulmon	-9171
yboms	-9172
ėjoje	-9173
ėliai	-9174
žiųjų	-9175
▁1997	-9176
▁2001	-9177
▁AIDS	-9178
▁Arab	-9179
▁Atsi	-9180
▁Bank	-9181
▁Darf	-9182
▁Jaun	-9183
▁Jose	-9184
▁Kitų	-9185
▁Mich	-9186
▁Naud	-9187
▁Tiek	-9188
▁Vykd	-9189
▁aikš	-9190
▁bado	-9191
▁brut	-9192
▁bylų	-9193
▁demp	-9194
▁dydį	-9195
▁dėka	-9196
▁epid	-9197
▁kils	-9198
▁negr	-9199
▁poil	-9200
▁puol	-9201
▁raun	-9202
▁ryšį	-9203
▁sakė	-9204
▁ster	-9205
▁sukl	-9206
▁sumą	-9207
▁unik	-9208
▁vizi	-9209
▁įkai	-9210
▁įsid	-9211
▁Šiam	-9212
▁ženk	-9213
aliame	-9214
amumas	-9215
asifik	-9216
atifik	-9217
augoti	-9218
elieka	-9219
errero	-9220
ijuoti	-9221
imtina	-9222
jektas	-9223
metyje	-9224
mingai	-9225
plėtra	-9226
teikti	-9227
tesnis	-9228
tinimo	-9229
tojoje	-9230
uotais	-9231
veikla	-9232
▁Alzhe	-9233
▁Gvant	-9234
▁Kioto	-9235
▁Kokia	-9236
▁Konkr	-9237
▁Lukaš	-9238
▁Tiksl	-9239
▁Trump	-9240
▁advok	-9241
▁aprėp	-9242
▁atsig	-9243
▁būsto	-9244
▁duoda	-9245
▁eilut	-9246
▁etapą	-9247
▁falsi	-9248
▁gerus	-9249
▁grupe	-9250
▁incid	-9251
▁instr	-9252
▁izoli	-9253
▁ištis	-9254
▁karto	-9255
▁kenči	-9256
▁korid	-9257
▁logis	-9258
▁lygių	-9259
▁manęs	-9260
▁mažas	-9261
▁metrų	-9262
▁miško	-9263
▁neper	-9264
▁nevyk	-9265
▁nutar	-9266
▁nutik	-9267
▁oblig	-9268
▁pasen	-9269
▁pasių	-9270
▁patog	-9271
▁planu	-9272
▁prašo	-9273
▁progą	-9274
▁rūmai	-9275
▁siekį	-9276
▁slypi	-9277
▁stalo	-9278
▁steig	-9279
▁stoka	-9280
▁stygi	-9281
▁teigė	-9282
▁temos	-9283
▁tikėj	-9284
▁tomis	-9285
▁trokš	-9286
▁uosto	-9287
▁užima	-9288
▁užsim	-9289
▁vargu	-9290
▁visko	-9291
▁visur	-9292
▁vizos	-9293
▁įtaka	-9294
▁įtamp	-9295
▁įtari	-9296
▁įvaži	-9297
▁Ženev	-9298
Posėdis	-9299
amblėja	-9300
daugiau	-9301
entinės	-9302
iausias	-9303
inantis	-9304
inančių	-9305
irškime	-9306
lamentų	-9307
ontroli	-9308
rezoliu	-9309
tiniame	-9310
ąžinimo	-9311
▁Afrika	-9312
▁Apgail	-9313
▁Bendro	-9314
▁Gazoje	-9315
▁Kaukaz	-9316
▁Martin	-9317
▁Nustat	-9318
▁Paaišk	-9319
▁Pasaul	-9320
▁Pasiek	-9321
▁Rompuy	-9322
▁Rusiją	-9323
▁Tajani	-9324
▁Tikrai	-9325
▁akadem	-9326
▁apžval	-9327
▁asocia	-9328
▁atsisp	-9329
▁automa	-9330
▁bankai	-9331
▁bausmę	-9332
▁bendru	-9333
▁blogas	-9334
▁būsimą	-9335
▁darbai	-9336
▁diegti	-9337
▁esamas	-9338
▁faktai	-9339
▁fondui	-9340
▁gairių	-9341
▁idėjai	-9342
▁iškilo	-9343
▁išliks	-9344
▁išsiun	-9345
▁jaučia	-9346
▁judumo	-9347
▁judumą	-9348
▁krizes	-9349
▁kryptį	-9350
▁laisvė	-9351
▁leista	-9352
▁likimo	-9353
▁mažoms	-9354
▁mergai	-9355
▁minutę	-9356
▁naštos	-9357
▁nebent	-9358
▁neleis	-9359
▁nepasi	-9360
▁neįgal	-9361
▁niekur	-9362
▁norima	-9363
▁normos	-9364
▁nurodo	-9365
▁nusteb	-9366
▁pakeit	-9367
▁pačias	-9368
▁penkių	-9369
▁pervež	-9370
▁priedą	-9371
▁radijo	-9372
▁realis	-9373
▁realią	-9374
▁ruožtu	-9375
▁ryšiai	-9376
▁savimi	-9377
▁siekis	-9378
▁siūlau	-9379
▁skolas	-9380
▁skundų	-9381
▁skurde	-9382
▁smerki	-9383
▁stokos	-9384
▁sudėtį	-9385
▁sukaup	-9386
▁sveiko	-9387
▁svyrav	-9388
▁sąlygą	-9389
▁sąraše	-9390
▁sąrašo	-9391
▁tarifų	-9392
▁teršal	-9393
▁tokiai	-9394
▁totali	-9395
▁užkert	-9396
▁vaisių	-9397
▁vaizdo	-9398
▁valios	-9399
▁vengti	-9400
▁vienam	-9401
▁viltis	-9402
▁šeimai	-9403
▁šimtai	-9404
▁Žmonės	-9405
▁žymiai	-9406
Komisija	-9407
eidžiant	-9408
politika	-9409
tiesiems	-9410
tinkamai	-9411
▁Barnier	-9412
▁Eurojus	-9413
▁Italija	-9414
▁Kankūne	-9415
▁Londone	-9416
▁Malmstr	-9417
▁Neabejo	-9418
▁Sarkozy	-9419
▁aiškaus	-9420
▁aiškius	-9421
▁ameriki	-9422
▁antroji	-9423
▁apklaus	-9424
▁atotrūk	-9425
▁atsargų	-9426
▁atskirą	-9427
▁atviros	-9428
▁bandoma	-9429
▁bendram	-9430
▁cukraus	-9431
▁eksport	-9432
▁elgesys	-9433
▁erdvėje	-9434
▁gaminti	-9435
▁gamybai	-9436
▁gatvėse	-9437
▁išsamią	-9438
▁kalboje	-9439
▁kartoju	-9440
▁klaidas	-9441
▁kolegas	-9442
▁kortelę	-9443
▁kūrimui	-9444
▁laikoma	-9445
▁laisvas	-9446
▁lyderės	-9447
▁minėtas	-9448
▁mitybos	-9449
▁nenoriu	-9450
▁papildo	-9451
▁planuoj	-9452
▁plačiau	-9453
▁prancūz	-9454
▁prašome	-9455
▁priimtą	-9456
▁punktas	-9457
▁ramstis	-9458
▁ramsčių	-9459
▁readmis	-9460
▁regioną	-9461
▁remiasi	-9462
▁revoliu	-9463
▁rinkinį	-9464
▁siūlome	-9465
▁skyrimo	-9466
▁smurtas	-9467
▁steigti	-9468
▁sudėtis	-9469
▁sugriež	-9470
▁sunkiau	-9471
▁sutarta	-9472
▁sąnaudų	-9473
▁tinklas	-9474
▁trūkumą	-9475
▁univers	-9476
▁veikimą	-9477
▁vykdytų	-9478
▁Įgyvend	-9479
▁įprasta	-9480
▁šaltinį	-9481
▁šalutin	-9482
▁žmogžud	-9483
▁žodinio	-9484
▁Ispanija	-9485
▁Kultūros	-9486
▁Ministrų	-9487
▁Neturime	-9488
▁Paslaugų	-9489
▁Remdamas	-9490
▁Užimtumo	-9491
▁atominės	-9492
▁atrankos	-9493
▁atsakyta	-9494
▁atvyksta	-9495
▁autobusų	-9496
▁cheminių	-9497
▁daržovių	-9498
▁deficito	-9499
▁esančias	-9500
▁falsifik	-9501
▁formuoti	-9502
▁funkcion	-9503
▁geresnes	-9504
▁gerinant	-9505
▁grąžinti	-9506
▁gyvename	-9507
▁individu	-9508
▁iškeltas	-9509
▁iškeltus	-9510
▁kalbėjau	-9511
▁kalbėsiu	-9512
▁kalėjimą	-9513
▁kelerius	-9514
▁keliauti	-9515
▁keliuose	-9516
▁keturios	-9517
▁komandir	-9518
▁kompleks	-9519
▁liberalų	-9520
▁lygiaver	-9521
▁mažosios	-9522
▁ministre	-9523
▁ministro	-9524
▁mobilumą	-9525
▁mėnesiai	-9526
▁naudingi	-9527
▁naujasis	-9528
▁neatitik	-9529
▁nedeklar	-9530
▁negalėtų	-9531
▁neoliber	-9532
▁nepanaud	-9533
▁neveikia	-9534
▁pamatyti	-9535
▁panašios	-9536
▁paprastų	-9537
▁paragino	-9538
▁partijas	-9539
▁partnerė	-9540
▁pasiektą	-9541
▁pasiektų	-9542
▁pasiteis	-9543
▁paskelbė	-9544
▁paveikti	-9545
▁pereinam	-9546
▁piliečio	-9547
▁planuoti	-9548
▁popierių	-9549
▁pragyven	-9550
▁privačių	-9551
▁reakcija	-9552
▁regionus	-9553
▁religija	-9554
▁rengiami	-9555
▁surinkti	-9556
▁susidaro	-9557
▁sveikatą	-9558
▁sąskaitų	-9559
▁sėkminga	-9560
▁teisines	-9561
▁teisiniu	-9562
▁tenkinti	-9563
▁tikrinti	-9564
▁tranzito	-9565
▁turėdama	-9566
▁vienašal	-9567
▁vienodos	-9568
▁vietovių	-9569
▁įsikišti	-9570
▁įvedimas	-9571
▁Škotijos	-9572
▁Austrijos	-9573
▁Centrinės	-9574
▁Diskusija	-9575
▁Pagrindin	-9576
▁Paryžiuje	-9577
▁Rumunijai	-9578
▁Strasbūro	-9579
▁Teigiamai	-9580
▁ambicingi	-9581
▁aplinkoje	-9582
▁aptariame	-9583
▁atliekami	-9584
▁atsakingą	-9585
▁atstovams	-9586
▁baroniene	-9587
▁biudžetui	-9588
▁didelėmis	-9589
▁dvišalius	-9590
▁elementai	-9591
▁frakcijai	-9592
▁funkcijas	-9593
▁galutinio	-9594
▁gyvenimas	-9595
▁informavo	-9596
▁keitimosi	-9597
▁keliančių	-9598
▁milijonus	-9599
▁naudingos	-9600
▁naudojimu	-9601
▁neleidžia	-9602
▁neratifik	-9603
▁netinkamo	-9604
▁nuošalyje	-9605
▁nustatoma	-9606
▁nutraukta	-9607
▁paaiškina	-9608
▁pagrįstos	-9609
▁paklausos	-9610
▁pasiprieš	-9611
▁paskatins	-9612
▁pateikimo	-9613
▁pateiktam	-9614
▁personalo	-9615
▁pilietinę	-9616
▁pirmenybę	-9617
▁platesnio	-9618
▁pokyčiams	-9619
▁poreikiai	-9620
▁praeityje	-9621
▁pramonėje	-9622
▁prievartą	-9623
▁priimtina	-9624
▁privaloma	-9625
▁privalomi	-9626
▁privačios	-9627
▁reagavimo	-9628
▁reiškinio	-9629
▁rodiklius	-9630
▁skiriamos	-9631
▁skirstymo	-9632
▁sprendžia	-9633
▁suderintą	-9634
▁sudėtingi	-9635
▁sunkumais	-9636
▁sunkvežim	-9637
▁surengtas	-9638
▁taikytina	-9639
▁teikiamos	-9640
▁teisinius	-9641
▁vadinamas	-9642
▁vairavimo	-9643
▁veiksmams	-9644
▁vieningos	-9645
▁vystomojo	-9646
▁ypatingas	-9647
▁įsigalios	-9648
▁Brazilijos	-9649
▁Direktyvos	-9650
▁Gvantanamo	-9651
▁Regioninės	-9652
▁aplinkybės	-9653
▁dabartines	-9654
▁dujotiekio	-9655
▁ekonominei	-9656
▁ekonominis	-9657
▁genetiškai	-9658
▁grindžiami	-9659
▁imigraciją	-9660
▁istorijoje	-9661
▁išaiškinti	-9662
▁kandidatės	-9663
▁kategoriją	-9664
▁klastojimu	-9665
▁komercinių	-9666
▁koncepciją	-9667
▁kruopščiai	-9668
▁nacionaliz	-9669
▁nesugebėjo	-9670
▁pakankamas	-9671
▁pakankamos	-9672
▁panaudotos	-9673
▁papildomai	-9674
▁pareiškimų	-9675
▁pasirašius	-9676
▁pastaruoju	-9677
▁pateikiant	-9678
▁perdirbimo	-9679
▁pilietybės	-9680
▁pristatyti	-9681
▁pritariama	-9682
▁privačiojo	-9683
▁programose	-9684
▁reglamentų	-9685
▁reikšmingą	-9686
▁rinkimuose	-9687
▁socialinei	-9688
▁solidarumu	-9689
▁stiprinimo	-9690
▁straipsniu	-9691
▁strategijų	-9692
▁suprantame	-9693
▁sustiprins	-9694
▁sąžiningai	-9695
▁transportą	-9696
▁užmokestis	-9697
▁vadinamoji	-9698
▁vartotojus	-9699
▁vertinimus	-9700
▁vertybinių	-9701
▁visuotinio	-9702
▁visuotinės	-9703
▁vyriausybe	-9704
▁vystymasis	-9705
▁įtraukiant	-9706
▁Alzheimerio	-9707
▁Gerbiamasis	-9708
▁apribojimus	-9709
▁atsakomybėn	-9710
▁atžvilgiais	-9711
▁ekonomikoje	-9712
▁energetinio	-9713
▁finansavimu	-9714
▁griežtesnių	-9715
▁integraciją	-9716
▁kriterijais	-9717
▁neabejotina	-9718
▁nusikaltimų	-9719
▁ombudsmenas	-9720
▁padariniais	-9721
▁pakeitimais	-9722
▁panaudojant	-9723
▁patikimumas	-9724
▁patikrinimo	-9725
▁patvirtintų	-9726
▁prieglobstį	-9727
▁priklausomi	-9728
▁prisidedama	-9729
▁readmisijos	-9730
▁sistemingai	-9731
▁sprendžiami	-9732
▁statistikos	-9733
▁susitaikyti	-9734
▁susitarimui	-9735
▁suteikiamas	-9736
▁teritorinės	-9737
▁tiesioginės	-9738
▁transportas	-9739
▁tūkstančiai	-9740
▁užtikrintos	-9741
▁valstybnarė	-9742
▁vienbalsiai	-9743
▁Respublikoje	-9744
▁atkreipiamas	-9745
▁atstovaujama	-9746
▁bendruomenes	-9747
▁dešimtmetyje	-9748
▁dešimtmečius	-9749
▁elektroninių	-9750
▁išsilavinimą	-9751
▁kategoriškai	-9752
▁koordinatori	-9753
▁nacionalines	-9754
▁nepriimtinas	-9755
▁nusprendžiau	-9756
▁organizaciją	-9757
▁organizavimo	-9758
▁patvirtinome	-9759
▁persvarstymo	-9760
▁pripažįstama	-9761
▁susidomėjimą	-9762
▁susijusiomis	-9763
▁suvereniteto	-9764
▁tarptautinei	-9765
▁užtikrinimas	-9766
▁įgyvendintas	-9767
▁ūkininkavimo	-9768
▁Atsižvelgdami	-9769
▁Pastaraisiais	-9770
▁besivystančių	-9771
▁eksploatavimo	-9772
▁intervencijos	-9773
▁konkurencijai	-9774
▁koordinavimas	-9775
▁kvalifikaciją	-9776
▁palestiniečių	-9777
▁plačiajuosčio	-9778
▁rekomendaciją	-9779
▁įgyvendindami	-9780
▁įgyvendinimui	-9781
▁atsižvelgdamas	-9782
▁nepriklausomas	-9783
▁organizacijoje	-9784
▁įsipareigojusi	-9785
▁administracinės	-9786
▁atsinaujinančių	-9787
▁nevyriausybinių	-9788
▁tarpvalstybinių	-9789
29	-9790
CD	-9791
da	-9792
dv	-9793
th	-9794
ua	-9795
žo	-9796
▁.	-9797
EAC	-9798
Nab	-9799
ade	-9800
agv	-9801
alį	-9802
atz	-9803
bar	-9804
con	-9805
enų	-9806
evy	-9807
gim	-9808
gio	-9809
gus	-9810
hof	-9811
iką	-9812
inų	-9813
iuj	-9814
izų	-9815
kos	-9816
leo	-9817
les	-9818
muk	-9819
mun	-9820
neb	-9821
oną	-9822
pvz	-9823
rit	-9824
rus	-9825
sio	-9826
suk	-9827
yne	-9828
šru	-9829
ūro	-9830
žad	-9831
žos	-9832
▁4.	-9833
▁45	-9834
▁48	-9835
▁65	-9836
▁Do	-9837
▁Dr	-9838
▁Fl	-9839
▁Go	-9840
▁Kr	-9841
▁OE	-9842
▁Ro	-9843
▁Sp	-9844
▁Te	-9845
▁Tą	-9846
▁Vė	-9847
▁ru	-9848
▁ug	-9849
agos	-9850
amet	-9851
anos	-9852
antą	-9853
aras	-9854
arch	-9855
arus	-9856
asak	-9857
asią	-9858
ačių	-9859
eikv	-9860
ekti	-9861
elti	-9862
emor	-9863
emos	-9864
enai	-9865
enas	-9866
enci	-9867
ente	-9868
eoti	-9869
ežas	-9870
ieno	-9871
imyb	-9872
inai	-9873
iose	-9874
iros	-9875
iute	-9876
jaus	-9877
kaip	-9878
kiep	-9879
ogrą	-9880
omės	-9881
onai	-9882
osof	-9883
seno	-9884
tipr	-9885
ucco	-9886
ulis	-9887
ulki	-9888
unol	-9889
uotu	-9890
usia	-9891
valg	-9892
vano	-9893
ynai	-9894
ynne	-9895
ytai	-9896
zmas	-9897
▁...	-9898
▁1,5	-9899
▁11.	-9900
▁Abu	-9901
▁Die	-9902
▁EGF	-9903
▁GMO	-9904
▁Gai	-9905
▁Mus	-9906
▁Ose	-9907
▁Pam	-9908
▁Pan	-9909
▁Paž	-9910
▁Red	-9911
▁Sav	-9912
▁Suk	-9913
▁TVF	-9914
▁Tas	-9915
▁Tol	-9916
▁Tri	-9917
▁Var	-9918
▁bur	-9919
▁gan	-9920
▁kuk	-9921
▁miš	-9922
▁mom	-9923
▁muz	-9924
▁nyk	-9925
▁rud	-9926
▁rūk	-9927
▁tak	-9928
▁tal	-9929
▁tir	-9930
▁tra	-9931
▁van	-9932
▁vėž	-9933
▁ŽIV	-9934
/2009	-9935
aišku	-9936
alaik	-9937
alyje	-9938
burgo	-9939
egalų	-9940
ensus	-9941
entui	-9942
eriui	-9943
esniu	-9944
grama	-9945
ilnoj	-9946
inote	-9947
ipuli	-9948
itetų	-9949
iujor	-9950
liams	-9951
likos	-9952
oldst	-9953
omoms	-9954
omąjį	-9955
riuje	-9956
stadt	-9957
timui	-9958
tokia	-9959
uolių	-9960
uotai	-9961
uočių	-9962
ydyti	-9963
čioms	-9964
ėjama	-9965
ėjusį	-9966
šalio	-9967
ūliau	-9968
ūrint	-9969
▁(200	-9970
▁1990	-9971
▁2014	-9972
▁2015	-9973
▁Berl	-9974
▁Hans	-9975
▁Jūrų	-9976
▁Pari	-9977
▁Pati	-9978
▁Piet	-9979
▁Prad	-9980
▁Rašy	-9981
▁SOLV	-9982
▁Siūl	-9983
▁Vyst	-9984
▁akis	-9985
▁alyv	-9986
▁angl	-9987
▁balt	-9988
▁baug	-9989
▁dels	-9990
▁disb	-9991
▁fiks	-9992
▁gavo	-9993
▁imun	-9994
▁indė	-9995
▁jūra	-9996
▁kaup	-9997
▁kebl	-9998
▁ketv	-9999
▁kitu	-10000
▁lems	-10001
▁liet	-10002
▁liks	-10003
▁logi	-10004
▁ląst	-10005
▁maiš	-10006
▁moka	-10007
▁nebe	-10008
▁nusk	-10009
▁pajė	-10010
▁paki	-10011
▁paži	-10012
▁peti	-10013
▁post	-10014
▁prem	-10015
▁riba	-10016
▁ribą	-10017
▁rieb	-10018
▁samd	-10019
▁smūg	-10020
▁staž	-10021
▁temą	-10022
▁toną	-10023
▁trib	-10024
▁užkr	-10025
▁valg	-10026
▁verg	-10027
▁vers	-10028
▁įsis	-10029
▁įvež	-10030
▁šven	-10031
▁žala	-10032
Creevy	-10033
aikiau	-10034
amasis	-10035
anuose	-10036
atinės	-10037
atskir	-10038
dėmesį	-10039
eidimų	-10040
esijos	-10041
eterin	-10042
iečiai	-10043
ininko	-10044
iosios	-10045
irties	-10046
leisti	-10047
mingos	-10048
ogrąžų	-10049
tebina	-10050
tingus	-10051
tiniam	-10052
tojams	-10053
ulmonų	-10054
uotume	-10055
čiausi	-10056
ėkimės	-10057
▁Ankst	-10058
▁Atvir	-10059
▁Atėjo	-10060
▁Barro	-10061
▁Gerai	-10062
▁Harbo	-10063
▁Irake	-10064
▁Komit	-10065
▁Kovos	-10066
▁Laisv	-10067
▁Lynne	-10068
▁Nepak	-10069
▁Netgi	-10070
▁Romos	-10071
▁Talib	-10072
▁Tokie	-10073
▁Turin	-10074
▁adres	-10075
▁ambas	-10076
▁amžių	-10077
▁balsu	-10078
▁banką	-10079
▁besik	-10080
▁devyn	-10081
▁džiug	-10082
▁etape	-10083
▁euras	-10084
▁gautų	-10085
▁jokia	-10086
▁koali	-10087
▁laiky	-10088
▁laikų	-10089
▁laišk	-10090
▁licen	-10091
▁lygyb	-10092
▁metas	-10093
▁mintį	-10094
▁nehum	-10095
▁nelik	-10096
▁nepaž	-10097
▁parėm	-10098
▁pastr	-10099
▁pažab	-10100
▁pelną	-10101
▁priži	-10102
▁retai	-10103
▁salos	-10104
▁sekun	-10105
▁senas	-10106
▁senyv	-10107
▁skolą	-10108
▁stoti	-10109
▁sąvar	-10110
▁taiką	-10111
▁tarpu	-10112
▁trošk	-10113
▁tuose	-10114
▁turkų	-10115
▁užsak	-10116
▁valdo	-10117
▁įdomi	-10118
▁įgyti	-10119
▁šveln	-10120
▁švent	-10121
▁ūkyje	-10122
amąsias	-10123
ancijos	-10124
ausiems	-10125
ausioms	-10126
avusios	-10127
emonstr	-10128
emorand	-10129
ežastis	-10130
iančios	-10131
igienos	-10132
indamas	-10133
ingumas	-10134
iškumas	-10135
kiriami	-10136
laikiau	-10137
omitetų	-10138
omosios	-10139
tabiliz	-10140
tingumą	-10141
traukia	-10142
vencija	-10143
ėjimais	-10144
▁Aukšči	-10145
▁Bendra	-10146
▁Dažnai	-10147
▁Egipto	-10148
▁Goldst	-10149
▁Indija	-10150
▁Laikas	-10151
▁Manuel	-10152
▁Maroko	-10153
▁Maurit	-10154
▁Niujor	-10155
▁Reding	-10156
▁Reform	-10157
▁Stream	-10158
▁Verhof	-10159
▁Viskas	-10160
▁Vėliau	-10161
▁anksti	-10162
▁atvirą	-10163
▁balsas	-10164
▁brangi	-10165
▁buvusi	-10166
▁būdami	-10167
▁chemik	-10168
▁dvasią	-10169
▁egzist	-10170
▁elgesį	-10171
▁esanti	-10172
▁formas	-10173
▁ginčus	-10174
▁idėjas	-10175
▁import	-10176
▁išaugs	-10177
▁iškyla	-10178
▁išlygų	-10179
▁išvard	-10180
▁kartas	-10181
▁kitame	-10182
▁klaida	-10183
▁kompon	-10184
▁konfid	-10185
▁kraujo	-10186
▁kraštu	-10187
▁likvid	-10188
▁lygybę	-10189
▁manimi	-10190
▁maršru	-10191
▁mažina	-10192
▁misija	-10193
▁misiją	-10194
▁neapyk	-10195
▁neform	-10196
▁nesant	-10197
▁nevien	-10198
▁nvieno	-10199
▁pakete	-10200
▁pažiūr	-10201
▁penkio	-10202
▁pirštų	-10203
▁planui	-10204
▁plėsti	-10205
▁popiet	-10206
▁pralai	-10207
▁punktą	-10208
▁punktų	-10209
▁rankas	-10210
▁sesiją	-10211
▁siunči	-10212
▁skirto	-10213
▁srautų	-10214
▁susiej	-10215
▁sutruk	-10216
▁sužlug	-10217
▁teisin	-10218
▁tekstų	-10219
▁terori	-10220
▁teroro	-10221
▁trejus	-10222
▁trečia	-10223
▁trišal	-10224
▁tyrime	-10225
▁vakarų	-10226
▁valiai	-10227
▁vienuo	-10228
▁vilčių	-10229
▁viršij	-10230
▁įtampą	-10231
▁žmogus	-10232
▁žodinį	-10233
atsižvel	-10234
aujančių	-10235
iskrimin	-10236
prendimą	-10237
visuomen	-10238
▁Azijoje	-10239
▁Padėtis	-10240
▁Taivano	-10241
▁Trumpai	-10242
▁Ukrainą	-10243
▁Vyriaus	-10244
▁aikštel	-10245
▁aiškiau	-10246
▁antrąjį	-10247
▁aptarta	-10248
▁atlikta	-10249
▁atsiras	-10250
▁atvejai	-10251
▁atverti	-10252
▁auginti	-10253
▁aukštas	-10254
▁avarijų	-10255
▁baigėsi	-10256
▁bausmių	-10257
▁daugybe	-10258
▁decentr	-10259
▁derinti	-10260
▁dideles	-10261
▁dėkingi	-10262
▁esantys	-10263
▁etapais	-10264
▁filosof	-10265
▁fondams	-10266
▁galimos	-10267
▁galvoja	-10268
▁geopoli	-10269
▁girdėti	-10270
▁griauna	-10271
▁išeitis	-10272
▁išmokos	-10273
▁kalbėta	-10274
▁keturis	-10275
▁kodeksą	-10276
▁kolegai	-10277
▁laikams	-10278
▁laikraš	-10279
▁ligomis	-10280
▁linijos	-10281
▁lyderių	-10282
▁mažumas	-10283
▁ministe	-10284
▁neaiški	-10285
▁nedarbą	-10286
▁neketin	-10287
▁neįtikė	-10288
▁nuosmuk	-10289
▁padarys	-10290
▁pagirti	-10291
▁paisoma	-10292
▁pakvies	-10293
▁pasiekę	-10294
▁pateiks	-10295
▁patiems	-10296
▁patiksl	-10297
▁pavyktų	-10298
▁permain	-10299
▁pradėta	-10300
▁prarand	-10301
▁pridėti	-10302
▁realiai	-10303
▁rengimo	-10304
▁rinkimo	-10305
▁siejama	-10306
▁siekius	-10307
▁siekėme	-10308
▁siunčia	-10309
▁skelbti	-10310
▁skyrius	-10311
▁statyti	-10312
▁sudėtin	-10313
▁svarsto	-10314
▁sąveiką	-10315
▁sąvokos	-10316
▁taikiai	-10317
▁teisėje	-10318
▁tiesiai	-10319
▁tikrove	-10320
▁tinkamų	-10321
▁tvirtos	-10322
▁valandų	-10323
▁vartoti	-10324
▁vidurio	-10325
▁vienkar	-10326
▁vienodų	-10327
▁vietoms	-10328
▁viešąją	-10329
▁vykdymą	-10330
▁vystyti	-10331
▁Švedija	-10332
▁šiaurin	-10333
▁žvejoti	-10334
Parlament	-10335
pasiūlymą	-10336
▁Graikiją	-10337
▁Komitetų	-10338
▁Kroatiją	-10339
▁McCreevy	-10340
▁Pasinaud	-10341
▁aklaviet	-10342
▁aptartas	-10343
▁asmeninį	-10344
▁atidžiau	-10345
▁atmosfer	-10346
▁atogrąžų	-10347
▁atsipraš	-10348
▁atskiros	-10349
▁bendroje	-10350
▁besiform	-10351
▁biudžetų	-10352
▁bruožais	-10353
▁chartija	-10354
▁didžiųjų	-10355
▁dirvožem	-10356
▁draudimą	-10357
▁dvigubai	-10358
▁europinį	-10359
▁finansin	-10360
▁funkciją	-10361
▁griežtos	-10362
▁istorija	-10363
▁išeities	-10364
▁išsiųsti	-10365
▁jauniems	-10366
▁kainomis	-10367
▁kairiųjų	-10368
▁keitimas	-10369
▁keliauja	-10370
▁keturias	-10371
▁klasifik	-10372
▁klimatui	-10373
▁komitetų	-10374
▁laivybos	-10375
▁manipuli	-10376
▁moratori	-10377
▁mėlynąją	-10378
▁nebegali	-10379
▁negalėjo	-10380
▁nekilnoj	-10381
▁nenustat	-10382
▁nereikės	-10383
▁nuostatą	-10384
▁padidins	-10385
▁pakenkti	-10386
▁paprasti	-10387
▁paradoks	-10388
▁pareigos	-10389
▁pareiškė	-10390
▁parengtų	-10391
▁partijai	-10392
▁paskelbs	-10393
▁paskolas	-10394
▁patekimo	-10395
▁pačiomis	-10396
▁persikėl	-10397
▁pertvark	-10398
▁perėjimą	-10399
▁peticijų	-10400
▁politine	-10401
▁pragmati	-10402
▁prisided	-10403
▁pritartų	-10404
▁privatiz	-10405
▁religiją	-10406
▁sakydama	-10407
▁santrauk	-10408
▁savaitės	-10409
▁septynių	-10410
▁sertifik	-10411
▁skaičiui	-10412
▁skatintų	-10413
▁stiprios	-10414
▁subjektų	-10415
▁sukeltos	-10416
▁suprastų	-10417
▁susidurs	-10418
▁susijung	-10419
▁susivien	-10420
▁sąžining	-10421
▁sėkmingi	-10422
▁tariamai	-10423
▁tautinių	-10424
▁teigiami	-10425
▁teikiamą	-10426
▁tikromis	-10427
▁tribunol	-10428
▁tyrimais	-10429
▁užimtumą	-10430
▁užmegzti	-10431
▁vietinės	-10432
▁visiškas	-10433
▁vokiečių	-10434
▁vykdytos	-10435
▁įmanomas	-10436
▁įspėjimo	-10437
▁žingsnių	-10438
▁Albanijos	-10439
▁Apgailest	-10440
▁Balsavimo	-10441
▁Brazilija	-10442
▁Energijos	-10443
▁Pritariau	-10444
▁agentūras	-10445
▁apgalvoti	-10446
▁aptarsime	-10447
▁atkakliai	-10448
▁atostogas	-10449
▁atsakymus	-10450
▁atsargumo	-10451
▁atskirose	-10452
▁balsavimu	-10453
▁balsuosiu	-10454
▁baudžiama	-10455
▁biologinę	-10456
▁biudžetus	-10457
▁chartijos	-10458
▁deficitas	-10459
▁demonstra	-10460
▁didinimas	-10461
▁didžiausi	-10462
▁didžiulės	-10463
▁dimensiją	-10464
▁direktori	-10465
▁disbalans	-10466
▁drebėjimo	-10467
▁geriausią	-10468
▁grąžinimo	-10469
▁jungtinės	-10470
▁kalbėjome	-10471
▁keitimąsi	-10472
▁kišimasis	-10473
▁kolegomis	-10474
▁konkrečiu	-10475
▁lankstumą	-10476
▁medžiagos	-10477
▁mokesčius	-10478
▁naikinimo	-10479
▁naudodami	-10480
▁naudojamų	-10481
▁neatskiri	-10482
▁nebuvimas	-10483
▁nelegalių	-10484
▁neoficial	-10485
▁nepaisoma	-10486
▁nesutinku	-10487
▁neteisėtą	-10488
▁neįgyvend	-10489
▁nuostolių	-10490
▁nurodytas	-10491
▁paaiškėjo	-10492
▁pagrindus	-10493
▁pakrančių	-10494
▁palankios	-10495
▁paminėsiu	-10496
▁pasaulinį	-10497
▁pasirinko	-10498
▁pasiruošę	-10499
▁pasiturin	-10500
▁pateikėme	-10501
▁pavojingi	-10502
▁pažeidžia	-10503
▁planavimo	-10504
▁prievarta	-10505
▁pritariau	-10506
▁pritarimą	-10507
▁privataus	-10508
▁produktas	-10509
▁profesinį	-10510
▁protingai	-10511
▁redakcija	-10512
▁reikiamas	-10513
▁saugojimo	-10514
▁spaudimas	-10515
▁spaudimui	-10516
▁stengiasi	-10517
▁struktūra	-10518
▁subsidijų	-10519
▁suderintų	-10520
▁sudėtingų	-10521
▁surinkimo	-10522
▁sutarimas	-10523
▁suvienyti	-10524
▁svarbiais	-10525
▁svarstant	-10526
▁svarstoma	-10527
▁taikydami	-10528
▁tapatybės	-10529
▁techninio	-10530
▁uždrausta	-10531
▁užregistr	-10532
▁užuojautą	-10533
▁vadovauti	-10534
▁valdžioje	-10535
▁vandenyno	-10536
▁vandenyse	-10537
▁vidutines	-10538
▁visuomene	-10539
▁įvertintų	-10540
▁įžeidimas	-10541
▁žingsnius	-10542
Pirmininknu	-10543
▁Asamblėjos	-10544
▁Bendrosios	-10545
▁Japonijoje	-10546
▁Kiekvienas	-10547
▁Makedonija	-10548
▁Pirmininkų	-10549
▁Pranešėjas	-10550
▁Reglamentą	-10551
▁Valstijose	-10552
▁Venesuelos	-10553
▁absurdiška	-10554
▁apibrėžimo	-10555
▁aprūpinimo	-10556
▁argumentus	-10557
▁asamblėjos	-10558
▁atgaivinti	-10559
▁atitinkamą	-10560
▁atsakingus	-10561
▁atsiprašau	-10562
▁dirvožemio	-10563
▁diversifik	-10564
▁efektyvaus	-10565
▁efektyviau	-10566
▁finansinei	-10567
▁garantijas	-10568
▁inicijuoti	-10569
▁integruotą	-10570
▁interesais	-10571
▁kaimyninių	-10572
▁kiekvienam	-10573
▁konfliktas	-10574
▁konkrečias	-10575
▁konkuruoti	-10576
▁konsultuoj	-10577
▁korupcijos	-10578
▁laimėjimas	-10579
▁nekantriai	-10580
▁neteisinga	-10581
▁nuomonėmis	-10582
▁nuoširdžią	-10583
▁pareiškimo	-10584
▁parlamente	-10585
▁pasirengęs	-10586
▁pasiūlytas	-10587
▁paskutinis	-10588
▁pataisymai	-10589
▁pateisinti	-10590
▁patikimumą	-10591
▁pavadinimo	-10592
▁potencialo	-10593
▁pranešėjos	-10594
▁prevencija	-10595
▁pritarimas	-10596
▁pritraukti	-10597
▁privalomus	-10598
▁reaguojant	-10599
▁regioniniu	-10600
▁specialiai	-10601
▁sprendimui	-10602
▁stabilumui	-10603
▁strateginį	-10604
▁sugebėjome	-10605
▁sukčiavimo	-10606
▁susidūrėme	-10607
▁susigrąžin	-10608
▁susitelkti	-10609
▁suteikiant	-10610
▁taisyklėms	-10611
▁teritorija	-10612
▁teritoriją	-10613
▁teritorijų	-10614
▁turėtumėte	-10615
▁uždavinius	-10616
▁vykstančių	-10617
▁įgyvendina	-10618
▁įvairiomis	-10619
adarbiavimas	-10620
▁Afganistane	-10621
▁Reglamentas	-10622
▁Vyriausybei	-10623
▁apribojimai	-10624
▁apsisaugoti	-10625
▁atskleidžia	-10626
▁branduolinę	-10627
▁demokratinę	-10628
▁didžiausios	-10629
▁efektyvumas	-10630
▁ekonominiam	-10631
▁galiojančių	-10632
▁griežtesnės	-10633
▁gyventojais	-10634
▁investavimo	-10635
▁išankstinio	-10636
▁konkrečiose	-10637
▁moksliniais	-10638
▁narkotikais	-10639
▁nedalyvauja	-10640
▁nepageidauj	-10641
▁padidinimas	-10642
▁pagreitinti	-10643
▁pagrindiniu	-10644
▁pareikalavo	-10645
▁pasirengimą	-10646
▁perspektyvų	-10647
▁plenarinėje	-10648
▁produkcijos	-10649
▁savanorišką	-10650
▁situacijoje	-10651
▁standartais	-10652
▁strategijai	-10653
▁strateginis	-10654
▁sumažinimas	-10655
▁susijusiems	-10656
▁trečiosiose	-10657
▁vyriausioji	-10658
▁šešėliniams	-10659
▁Hercegovinos	-10660
▁Juodkalnijos	-10661
▁apsirūpinimo	-10662
▁automatiškai	-10663
▁bendruomenei	-10664
▁europiečiams	-10665
▁gyvenantiems	-10666
▁kalbėjusieji	-10667
▁kompetenciją	-10668
▁nagrinėjamas	-10669
▁nepalankioje	-10670
▁nusikaltimai	-10671
▁operatoriams	-10672
▁pakartotinai	-10673
▁pasitelkdami	-10674
▁pažeidžiamos	-10675
▁persekiojimo	-10676
▁ratifikavimo	-10677
▁rezoliucijai	-10678
▁tarptautinis	-10679
▁teritorijose	-10680
▁užtikrintume	-10681
▁įsipareigoti	-10682
▁atkreipdėmesį	-10683
▁atsižvelgdami	-10684
▁dalyvaujančių	-10685
▁finansuojamos	-10686
▁globalizacija	-10687
▁išsivysčiusių	-10688
▁koncentracija	-10689
▁konstitucijos	-10690
▁liberalizuoti	-10691
▁pagrindiniais	-10692
▁spekuliacijos	-10693
▁suinteresuoti	-10694
▁susitikimuose	-10695
▁išsivysčiusios	-10696
▁konvergencijos	-10697
▁nepriklausomos	-10698
▁organizacijoms	-10699
▁struktūriniais	-10700
▁tarptautiniais	-10701
▁įsipareigojimo	-10702
▁administracijos	-10703
▁administracines	-10704
▁administracinių	-10705
▁bendradarbiauja	-10706
▁neatsižvelgiama	-10707
▁technologijomis	-10708
,6	-10709
,7	-10710
10	-10711
19	-10712
27	-10713
40	-10714
96	-10715
AN	-10716
EĮ	-10717
FD	-10718
PO	-10719
SA	-10720
be	-10721
cu	-10722
cz	-10723
fe	-10724
hl	-10725
hn	-10726
ku	-10727
ly	-10728
pu	-10729
sh	-10730
ve	-10731
vų	-10732
ze	-10733
agr	-10734
ako	-10735
akų	-10736
anu	-10737
arp	-10738
atu	-10739
aut	-10740
auš	-10741
bai	-10742
bol	-10743
enį	-10744
era	-10745
eva	-10746
gil	-10747
gių	-10748
iko	-10749
jau	-10750
kom	-10751
liū	-10752
nek	-10753
ner	-10754
nis	-10755
ohn	-10756
omb	-10757
ors	-10758
orų	-10759
pik	-10760
pra	-10761
rąs	-10762
tes	-10763
urų	-10764
usz	-10765
veg	-10766
vil	-10767
viu	-10768
yle	-10769
ėda	-10770
įsp	-10771
ška	-10772
▁-.	-10773
▁Im	-10774
▁Je	-10775
▁Ją	-10776
▁Ma	-10777
▁Sh	-10778
▁Sz	-10779
▁km	-10780
▁se	-10781
▁Įv	-10782
▁žū	-10783
Euro	-10784
acto	-10785
alap	-10786
alūn	-10787
arai	-10788
arim	-10789
būti	-10790
cinį	-10791
davo	-10792
dirb	-10793
džia	-10794
epia	-10795
eris	-10796
escu	-10797
frak	-10798
gras	-10799
iojo	-10800
ityv	-10801
krat	-10802
kuri	-10803
laid	-10804
mann	-10805
myra	-10806
ojon	-10807
oliz	-10808
orių	-10809
otoj	-10810
plės	-10811
prom	-10812
siai	-10813
stum	-10814
tapo	-10815
tarn	-10816
timu	-10817
timų	-10818
tner	-10819
uram	-10820
urtų	-10821
utti	-10822
vens	-10823
vimą	-10824
ybes	-10825
ypač	-10826
ąmon	-10827
ėlio	-10828
ėmus	-10829
žvej	-10830
▁13.	-10831
▁142	-10832
▁400	-10833
▁Bur	-10834
▁Cas	-10835
▁Gam	-10836
▁Gri	-10837
▁Hel	-10838
▁LPS	-10839
▁Mil	-10840
▁Ned	-10841
▁Nen	-10842
▁Nig	-10843
▁Oet	-10844
▁Pek	-10845
▁San	-10846
▁Sta	-10847
▁TBT	-10848
▁Tad	-10849
▁UEN	-10850
▁akc	-10851
▁bej	-10852
▁bėg	-10853
▁die	-10854
▁dov	-10855
▁dyk	-10856
▁fut	-10857
▁gir	-10858
▁har	-10859
▁ili	-10860
▁kėl	-10861
▁kūd	-10862
▁loš	-10863
▁maf	-10864
▁mai	-10865
▁nug	-10866
▁pai	-10867
▁rus	-10868
▁skr	-10869
▁sod	-10870
▁sėd	-10871
▁tip	-10872
▁įgy	-10873
▁Šri	-10874
Hamas	-10875
ainių	-10876
alams	-10877
amąją	-10878
amąst	-10879
anais	-10880
antus	-10881
arovo	-10882
atams	-10883
audon	-10884
eičia	-10885
emokr	-10886
engva	-10887
eriop	-10888
ečius	-10889
giame	-10890
ibend	-10891
ibrėž	-10892
inamą	-10893
inamų	-10894
indin	-10895
insiu	-10896
iskut	-10897
linio	-10898
metim	-10899
monių	-10900
omųjų	-10901
ostat	-10902
rumas	-10903
tintų	-10904
tojus	-10905
tosiu	-10906
tumas	-10907
ukryp	-10908
undam	-10909
uokos	-10910
uolis	-10911
uošti	-10912
vorių	-10913
ygiai	-10914
ylika	-10915
ytųsi	-10916
ėjant	-10917
žemės	-10918
▁1989	-10919
▁Angl	-10920
▁Anot	-10921
▁Birm	-10922
▁Cohn	-10923
▁Geor	-10924
▁Geri	-10925
▁Kriz	-10926
▁Lein	-10927
▁Mari	-10928
▁Pack	-10929
▁Pasi	-10930
▁Poli	-10931
▁Prie	-10932
▁Rami	-10933
▁Rich	-10934
▁Ster	-10935
▁Tink	-10936
▁Tvir	-10937
▁Vieš	-10938
▁Vizų	-10939
▁akim	-10940
▁akte	-10941
▁arch	-10942
▁arti	-10943
▁byla	-10944
▁bylą	-10945
▁būna	-10946
▁data	-10947
▁emoc	-10948
▁esmė	-10949
▁gavę	-10950
▁ilgų	-10951
▁lent	-10952
▁mini	-10953
▁narę	-10954
▁nedv	-10955
▁peri	-10956
▁pigi	-10957
▁plak	-10958
▁porą	-10959
▁rems	-10960
▁skep	-10961
▁svet	-10962
▁temų	-10963
▁vakc	-10964
▁varg	-10965
▁veda	-10966
▁vyro	-10967
▁ypat	-10968
▁įdom	-10969
▁įgij	-10970
▁įmok	-10971
▁šito	-10972
▁švar	-10973
▁žuvo	-10974
aigtas	-10975
aiptol	-10976
aliais	-10977
alioje	-10978
alistų	-10979
analiz	-10980
ardyti	-10981
audama	-10982
damosi	-10983
egalės	-10984
eisime	-10985
eitime	-10986
eitimi	-10987
elbėti	-10988
enocid	-10989
eriems	-10990
iančių	-10991
iejose	-10992
inčiau	-10993
kščiai	-10994
odamos	-10995
odinti	-10996
omomis	-10997
onuose	-10998
parama	-10999
partam	-11000
prasti	-11001
preced	-11002
sitetų	-11003
social	-11004
tabili	-11005
tinimą	-11006
tinėse	-11007
tiškos	-11008
tiškus	-11009
uodant	-11010
uomeng	-11011
uomenų	-11012
uotame	-11013
uotina	-11014
uočiau	-11015
usiame	-11016
ytojas	-11017
čiuose	-11018
ūromis	-11019
▁Agent	-11020
▁Claud	-11021
▁David	-11022
▁Esant	-11023
▁Inter	-11024
▁Karas	-11025
▁Karin	-11026
▁Kokių	-11027
▁Lauki	-11028
▁Nikar	-11029
▁Obama	-11030
▁Padar	-11031
▁Skaid	-11032
▁Susid	-11033
▁Tokių	-11034
▁akvak	-11035
▁apraš	-11036
▁atpaž	-11037
▁atras	-11038
▁bakte	-11039
▁bazės	-11040
▁bepro	-11041
▁beviz	-11042
▁bloga	-11043
▁degal	-11044
▁dujas	-11045
▁dvejų	-11046
▁facto	-11047
▁feder	-11048
▁gauta	-11049
▁išnyk	-11050
▁išsis	-11051
▁išėjo	-11052
▁jautr	-11053
▁kalėj	-11054
▁kažką	-11055
▁kenks	-11056
▁kseno	-11057
▁kurst	-11058
▁lieči	-11059
▁liktų	-11060
▁mainų	-11061
▁matau	-11062
▁nafta	-11063
▁nepro	-11064
▁nerib	-11065
▁neįsi	-11066
▁nutol	-11067
▁olimp	-11068
▁paini	-11069
▁pasig	-11070
▁pirat	-11071
▁plači	-11072
▁pliur	-11073
▁plėto	-11074
▁požym	-11075
▁puiku	-11076
▁regis	-11077
▁renov	-11078
▁susir	-11079
▁taika	-11080
▁tarša	-11081
▁tašką	-11082
▁teisi	-11083
▁tinka	-11084
▁trauk	-11085
▁trejų	-11086
▁trukd	-11087
▁užaug	-11088
▁užraš	-11089
▁užsid	-11090
▁valią	-11091
▁visok	-11092
▁vizas	-11093
▁vėlai	-11094
▁zonas	-11095
▁įlank	-11096
▁įspūd	-11097
▁įšald	-11098
▁Šiose	-11099
▁žvalg	-11100
▁žvelg	-11101
Nabucco	-11102
abejoju	-11103
atoriai	-11104
eigiant	-11105
esniems	-11106
finansų	-11107
gyventi	-11108
iesiems	-11109
inenerg	-11110
ingiems	-11111
iškumui	-11112
stančių	-11113
tininkų	-11114
tvirtin	-11115
ukcijos	-11116
ulkiojo	-11117
uotomis	-11118
▁2020",	-11119
▁Fronte	-11120
▁Galima	-11121
▁Galite	-11122
▁Jemeno	-11123
▁Libija	-11124
▁Niekas	-11125
▁SOLVIT	-11126
▁Svarst	-11127
▁Tibete	-11128
▁Tuniso	-11129
▁Turint	-11130
▁Vietoj	-11131
▁aktais	-11132
▁apgaul	-11133
▁baudas	-11134
▁bausme	-11135
▁biomet	-11136
▁buvote	-11137
▁byloja	-11138
▁bylose	-11139
▁būklės	-11140
▁būsimo	-11141
▁būsimų	-11142
▁būtiną	-11143
▁būtume	-11144
▁civili	-11145
▁drauge	-11146
▁drąsos	-11147
▁esamos	-11148
▁etikos	-11149
▁fundam	-11150
▁futbol	-11151
▁gaival	-11152
▁gerovę	-11153
▁gerąją	-11154
▁grafik	-11155
▁gynybą	-11156
▁harmon	-11157
▁išvien	-11158
▁išvyst	-11159
▁jautri	-11160
▁kaitai	-11161
▁kanalų	-11162
▁karjer	-11163
▁ketinu	-11164
▁kilimo	-11165
▁kokiai	-11166
▁laivai	-11167
▁linkiu	-11168
▁manote	-11169
▁menkai	-11170
▁metodo	-11171
▁minima	-11172
▁mirčių	-11173
▁mobili	-11174
▁mėgino	-11175
▁naudai	-11176
▁naujam	-11177
▁neatsp	-11178
▁nenuos	-11179
▁neprad	-11180
▁nevykd	-11181
▁norėti	-11182
▁nuosmu	-11183
▁nutiko	-11184
▁orlaiv	-11185
▁padaug	-11186
▁parems	-11187
▁paskub	-11188
▁pastov	-11189
▁pažadą	-11190
▁pažįst	-11191
▁pietus	-11192
▁pokalb	-11193
▁populi	-11194
▁protas	-11195
▁ramstį	-11196
▁rašoma	-11197
▁regist	-11198
▁riboti	-11199
▁romams	-11200
▁rudenį	-11201
▁rėmimo	-11202
▁sakote	-11203
▁santuo	-11204
▁saugių	-11205
▁saugus	-11206
▁senyvo	-11207
▁siekio	-11208
▁sinerg	-11209
▁skalūn	-11210
▁skubią	-11211
▁sporte	-11212
▁sueiga	-11213
▁suklas	-11214
▁sunkią	-11215
▁surenk	-11216
▁teisme	-11217
▁tekstu	-11218
▁trimis	-11219
▁tvarus	-11220
▁tvirto	-11221
▁uostus	-11222
▁užsikr	-11223
▁užterš	-11224
▁vengrų	-11225
▁vertas	-11226
▁vežimo	-11227
▁vizija	-11228
▁zonose	-11229
▁įnašas	-11230
▁įrangą	-11231
▁įsisav	-11232
▁įtampa	-11233
▁įvyktų	-11234
▁Žinome	-11235
▁ženklą	-11236
agrinėti	-11237
eidžiami	-11238
ešimties	-11239
metimais	-11240
▁Antroji	-11241
▁Antrojo	-11242
▁Apibend	-11243
▁Atkreip	-11244
▁Harbour	-11245
▁Keletas	-11246
▁Naujoji	-11247
▁Negaliu	-11248
▁Oetting	-11249
▁Pirmoji	-11250
▁Prekyba	-11251
▁Ramiojo	-11252
▁Reformų	-11253
▁Rusijai	-11254
▁Tiesiog	-11255
▁Turkiją	-11256
▁absoliu	-11257
▁aiškumo	-11258
▁antrojo	-11259
▁apsaugo	-11260
▁atkūrim	-11261
▁atsakas	-11262
▁atspaud	-11263
▁atviras	-11264
▁augimui	-11265
▁bendrap	-11266
▁būdamas	-11267
▁būdinga	-11268
▁būsimas	-11269
▁civilių	-11270
▁daromos	-11271
▁daugėja	-11272
▁debatai	-11273
▁didelei	-11274
▁dirbant	-11275
▁drąsiai	-11276
▁elgiasi	-11277
▁etninių	-11278
▁fizinio	-11279
▁gairėse	-11280
▁gaisrai	-11281
▁galimus	-11282
▁galvijų	-11283
▁griežto	-11284
▁grėsmes	-11285
▁ilguoju	-11286
▁instrum	-11287
▁išmokas	-11288
▁išskiri	-11289
▁jaunimą	-11290
▁jausmas	-11291
▁jaustis	-11292
▁jėgomis	-11293
▁kalbose	-11294
▁kalbėję	-11295
▁kalinių	-11296
▁keistis	-11297
▁klausiu	-11298
▁kodekso	-11299
▁kolonij	-11300
▁kritika	-11301
▁kūrybos	-11302
▁logiška	-11303
▁mafijos	-11304
▁metodai	-11305
▁minutės	-11306
▁minčiai	-11307
▁nedarbu	-11308
▁negalės	-11309
▁nehuman	-11310
▁nekelia	-11311
▁neleido	-11312
▁nelygyb	-11313
▁nemalon	-11314
▁nepasid	-11315
▁nepasit	-11316
▁neveiks	-11317
▁nustaty	-11318
▁objektų	-11319
▁pakeiči	-11320
▁papasak	-11321
▁partiją	-11322
▁paskata	-11323
▁pastaba	-11324
▁pažiūrų	-11325
▁penkias	-11326
▁pervirš	-11327
▁pobūdis	-11328
▁poilsio	-11329
▁popietę	-11330
▁posėdži	-11331
▁pradinį	-11332
▁pradžią	-11333
▁praktik	-11334
▁pramonė	-11335
▁prieiga	-11336
▁priskir	-11337
▁procesų	-11338
▁rankose	-11339
▁ribotas	-11340
▁signalą	-11341
▁siūlomi	-11342
▁skaidri	-11343
▁skaudži	-11344
▁statybų	-11345
▁stebime	-11346
▁stebina	-11347
▁stiprią	-11348
▁sulauks	-11349
▁sutvark	-11350
▁sužinoj	-11351
▁svarbia	-11352
▁sąrašas	-11353
▁taikomą	-11354
▁teikimą	-11355
▁teisėtą	-11356
▁tikroji	-11357
▁tikrose	-11358
▁tinklai	-11359
▁tolesnį	-11360
▁trūkumo	-11361
▁trūkumu	-11362
▁turizmą	-11363
▁tvarumą	-11364
▁vadinti	-11365
▁valiutų	-11366
▁veikiau	-11367
▁verslas	-11368
▁veterin	-11369
▁vienybę	-11370
▁viešąjį	-11371
▁vilties	-11372
▁visiško	-11373
▁visišku	-11374
▁vizijos	-11375
▁vykdomi	-11376
▁įsidarb	-11377
▁įvairūs	-11378
▁žinomas	-11379
formacija	-11380
inamosios	-11381
insistema	-11382
omentuoti	-11383
▁Anksčiau	-11384
▁Branduol	-11385
▁Ketvirta	-11386
▁Korėjoje	-11387
▁Lukašenk	-11388
▁Nepakank	-11389
▁Nikaragv	-11390
▁Problema	-11391
▁Sacharos	-11392
▁Serbijai	-11393
▁Siekdama	-11394
▁Siekdami	-11395
▁Sirijoje	-11396
▁Suprantu	-11397
▁Turėsime	-11398
▁anaiptol	-11399
▁antrasis	-11400
▁artimoje	-11401
▁atleisti	-11402
▁atotrūkį	-11403
▁atsiliep	-11404
▁atskleid	-11405
▁atstovus	-11406
▁auginimo	-11407
▁bendrųjų	-11408
▁biudžetu	-11409
▁darysime	-11410
▁departam	-11411
▁didesniu	-11412
▁didėjimą	-11413
▁diegimas	-11414
▁direktor	-11415
▁drausmės	-11416
▁dvišalės	-11417
▁esančios	-11418
▁esminiai	-11419
▁gaminiai	-11420
▁gerbiama	-11421
▁girdėjau	-11422
▁grandinę	-11423
▁griežtas	-11424
▁higienos	-11425
▁išbristi	-11426
▁išgirdau	-11427
▁išleisti	-11428
▁jaučiasi	-11429
▁kainuoja	-11430
▁kairieji	-11431
▁kalbėtis	-11432
▁kalinius	-11433
▁keičiama	-11434
▁ketvirta	-11435
▁konkreti	-11436
▁kortelės	-11437
▁ksenofob	-11438
▁kylančių	-11439
▁laikomas	-11440
▁laisvėms	-11441
▁leidimas	-11442
▁lyderiai	-11443
▁lyginant	-11444
▁maloniai	-11445
▁mažinimą	-11446
▁mažąsias	-11447
▁medienos	-11448
▁medžiagą	-11449
▁memorand	-11450
▁mokytojų	-11451
▁muitinių	-11452
▁naujiems	-11453
▁naujiena	-11454
▁neatsiej	-11455
▁nebaudži	-11456
▁neginčij	-11457
▁nepalaik	-11458
▁nepritar	-11459
▁neprival	-11460
▁neramumų	-11461
▁nesulauk	-11462
▁nesuteik	-11463
▁nubausti	-11464
▁numatant	-11465
▁numatytų	-11466
▁nuorodas	-11467
▁orientac	-11468
▁padarytų	-11469
▁padedant	-11470
▁padidino	-11471
▁pagalbai	-11472
▁pageidau	-11473
▁pagrįsto	-11474
▁paleisti	-11475
▁panaudoj	-11476
▁panašiai	-11477
▁paneigti	-11478
▁parengtą	-11479
▁parodytą	-11480
▁pasaulin	-11481
▁pasisako	-11482
▁pastabos	-11483
▁pastraip	-11484
▁pavasarį	-11485
▁pažeidin	-11486
▁penkerių	-11487
▁pensijos	-11488
▁peržiūrą	-11489
▁pinigais	-11490
▁pirmuoju	-11491
▁policija	-11492
▁poveikiu	-11493
▁prancūzų	-11494
▁prasidės	-11495
▁produktą	-11496
▁projektu	-11497
▁reakciją	-11498
▁remiamas	-11499
▁rodiklis	-11500
▁rytojaus	-11501
▁rūpestis	-11502
▁savivald	-11503
▁siejamas	-11504
▁siūlomas	-11505
▁siūlomos	-11506
▁skirtumą	-11507
▁specialų	-11508
▁statusas	-11509
▁stebimas	-11510
▁stengėsi	-11511
▁stereoti	-11512
▁sumažino	-11513
▁sutarimo	-11514
▁suteiktą	-11515
▁taikomus	-11516
▁taisyklė	-11517
▁tikėjimo	-11518
▁tolesnės	-11519
▁tolimojo	-11520
▁trūkumai	-11521
▁turėčiau	-11522
▁tvarkyti	-11523
▁vadinama	-11524
▁veidmain	-11525
▁veikimas	-11526
▁vieningą	-11527
▁vietinių	-11528
▁vykstant	-11529
▁įstaigas	-11530
▁įstojimo	-11531
▁įvedimui	-11532
▁įvertino	-11533
▁įvertins	-11534
▁Žodiniai	-11535
▁žingsnio	-11536
▁žiniomis	-11537
▁žmonijai	-11538
▁žuvinink	-11539
inenergija	-11540
▁Amerikoje	-11541
▁Atsakymas	-11542
▁Direktyvą	-11543
▁Goldstone	-11544
▁Gruzijoje	-11545
▁Jungtines	-11546
▁Pietryčių	-11547
▁Praėjusių	-11548
▁Priešingu	-11549
▁Slovakija	-11550
▁Strasbūrą	-11551
▁Sutartyje	-11552
▁Valstijas	-11553
▁Vengrijai	-11554
▁Vienintel	-11555
▁Vokietiją	-11556
▁apdairiai	-11557
▁argumentų	-11558
▁atsargiai	-11559
▁atskyrimo	-11560
▁bendroves	-11561
▁biodegalų	-11562
▁daugumoje	-11563
▁dideliais	-11564
▁dirbantys	-11565
▁draudimas	-11566
▁ekspertai	-11567
▁finansinį	-11568
▁gaivinimo	-11569
▁gebėjimas	-11570
▁gerbiamas	-11571
▁geriausių	-11572
▁grandinės	-11573
▁gyvenimui	-11574
▁gyvenimus	-11575
▁ignoruoti	-11576
▁išimtinai	-11577
▁išplėtimą	-11578
▁išpuoliai	-11579
▁išspręstų	-11580
▁judėjimui	-11581
▁kandidatų	-11582
▁keičiamas	-11583
▁keliantis	-11584
▁komunistų	-11585
▁konsensus	-11586
▁kontrolei	-11587
▁kultūrinę	-11588
▁leidžiami	-11589
▁matydamas	-11590
▁medicinos	-11591
▁milijardų	-11592
▁minimalus	-11593
▁musulmonų	-11594
▁naujajame	-11595
▁nedidelis	-11596
▁neigiamas	-11597
▁nelegalia	-11598
▁nestebina	-11599
▁netaikyti	-11600
▁norėdamas	-11601
▁nukreipta	-11602
▁nuolatinę	-11603
▁nuomonėje	-11604
▁nuosavybę	-11605
▁nustatytą	-11606
▁organizac	-11607
▁padarytas	-11608
▁padidinta	-11609
▁padidintų	-11610
▁pakeitime	-11611
▁paprašiau	-11612
▁pasiekimų	-11613
▁pasikeitė	-11614
▁pasiūliau	-11615
▁pasiūlytą	-11616
▁pasiūlytų	-11617
▁pasiūlėme	-11618
▁pastatyti	-11619
▁patraukti	-11620
▁pirmosios	-11621
▁planavimą	-11622
▁plėtojimo	-11623
▁praleisti	-11624
▁pranešėju	-11625
▁prasideda	-11626
▁prekiauti	-11627
▁prieinama	-11628
▁priešingų	-11629
▁prilygsta	-11630
▁procentas	-11631
▁produktyv	-11632
▁protokole	-11633
▁registras	-11634
▁reiškiame	-11635
▁religinės	-11636
▁rezultatą	-11637
▁sankcijos	-11638
▁sekundžių	-11639
▁sistemoms	-11640
▁skaidrumu	-11641
▁struktūrų	-11642
▁sudarytas	-11643
▁sudėtingu	-11644
▁sulaukėme	-11645
▁susidurti	-11646
▁sutinkate	-11647
▁sąžininga	-11648
▁teigiamos	-11649
▁tinklalap	-11650
▁tragedija	-11651
▁užbaigtas	-11652
▁uždraudži	-11653
▁užimtumas	-11654
▁užkertant	-11655
▁vaidmeniu	-11656
▁vertinant	-11657
▁viešąsias	-11658
▁Atsiprašau	-11659
▁Austrijoje	-11660
▁Barselonos	-11661
▁Bulgarijai	-11662
▁Darbuotojų	-11663
▁Lisabonoje	-11664
▁Pastaruoju	-11665
▁Rašytiniai	-11666
▁Reglamento	-11667
▁ankstesnių	-11668
▁ankstesnės	-11669
▁apibendrin	-11670
▁apkaltinti	-11671
▁ataskaitas	-11672
▁atitikties	-11673
▁atsisakymo	-11674
▁atsisakyta	-11675
▁atskleisti	-11676
▁dabartinis	-11677
▁delegacijų	-11678
▁dešimtmetį	-11679
▁direktyvas	-11680
▁efektyvios	-11681
▁elektrinių	-11682
▁galėtumėte	-11683
▁garantijos	-11684
▁ilgalaikes	-11685
▁ilgalaikis	-11686
▁kalbėdamas	-11687
▁kategorijų	-11688
▁kiekvienai	-11689
▁klausiausi	-11690
▁kompromisu	-11691
▁koncepcija	-11692
▁konvencijų	-11693
▁kreipiuosi	-11694
▁monopolijų	-11695
▁naujosioms	-11696
▁naujosiose	-11697
▁nedelsdami	-11698
▁negalėsime	-11699
▁nelegaliai	-11700
▁nepasireng	-11701
▁nepritaria	-11702
▁neteisėtos	-11703
▁nuoseklios	-11704
▁nuoseklumo	-11705
▁nuostolius	-11706
▁nustatymas	-11707
▁nutraukimo	-11708
▁oficialaus	-11709
▁pademonstr	-11710
▁pagrindinę	-11711
▁panaikinus	-11712
▁paprastesn	-11713
▁parduodami	-11714
▁pareiškime	-11715
▁partneryst	-11716
▁pasibaigus	-11717
▁pasikartoj	-11718
▁pasirodyti	-11719
▁pasitikėti	-11720
▁paskirties	-11721
▁patikimumo	-11722
▁patikinimo	-11723
▁pašalintos	-11724
▁penkiolika	-11725
▁pirmadienį	-11726
▁planavimas	-11727
▁poreikiams	-11728
▁praėjusius	-11729
▁prieinamos	-11730
▁prievartos	-11731
▁priešinasi	-11732
▁priverstos	-11733
▁programoms	-11734
▁rašytiniai	-11735
▁reformuoti	-11736
▁regioninio	-11737
▁regioninių	-11738
▁reikalingą	-11739
▁santykiais	-11740
▁santykiams	-11741
▁seksualinę	-11742
▁sektoriams	-11743
▁siekiančių	-11744
▁stabilumas	-11745
▁stiprinimą	-11746
▁strateginę	-11747
▁sumetimais	-11748
▁susidaryti	-11749
▁susitarėme	-11750
▁sustabdymo	-11751
▁sąžiningos	-11752
▁techniniai	-11753
▁uždaviniai	-11754
▁užuojautos	-11755
▁vadinamųjų	-11756
▁vadovavimo	-11757
▁vartojimas	-11758
▁veikiančią	-11759
▁veiksmingo	-11760
▁veiksmingų	-11761
▁viršutinės	-11762
▁visokeriop	-11763
▁įtraukimas	-11764
▁įvaikinimo	-11765
▁įvairiuose	-11766
▁įvertinimą	-11767
▁Šveicarija	-11768
▁Konvencijos	-11769
▁Nepriimtina	-11770
▁Pirmininkui	-11771
▁Prezidentas	-11772
▁Verhofstadt	-11773
▁apibrėžimas	-11774
▁aplinkybėms	-11775
▁asignavimai	-11776
▁atgaivinimo	-11777
▁atlyginimus	-11778
▁atsakomybuž	-11779
▁atstovavimo	-11780
▁dabartiniai	-11781
▁daugiametės	-11782
▁decentraliz	-11783
▁demokratinį	-11784
▁finansinėje	-11785
▁geografinės	-11786
▁iniciatyvai	-11787
▁integravimo	-11788
▁integruotas	-11789
▁išnaudojimu	-11790
▁išnaudojimą	-11791
▁katastrofos	-11792
▁laikotarpių	-11793
▁medžiagomis	-11794
▁neleidžiama	-11795
▁nepripažįst	-11796
▁nusprendėme	-11797
▁pabėgėliams	-11798
▁pagrindinio	-11799
▁pakeitimams	-11800
▁pasaulinėje	-11801
▁pasinaudoja	-11802
▁pasinaudojo	-11803
▁pasirašytas	-11804
▁pasirengimo	-11805
▁pateisinama	-11806
▁perskaityti	-11807
▁perspektyvą	-11808
▁pertvarkyti	-11809
▁pripažinimą	-11810
▁reglamentai	-11811
▁socialinėje	-11812
▁stengiamasi	-11813
▁stiprinimas	-11814
▁strategijas	-11815
▁suderinimas	-11816
▁susilaikiau	-11817
▁sustabdytas	-11818
▁tendencijos	-11819
▁trečiosioms	-11820
▁tūkstančius	-11821
▁veikiančios	-11822
▁įgyvendintų	-11823
▁įsigaliojus	-11824
▁įtvirtintas	-11825
▁Tarptautinis	-11826
▁apibendrinti	-11827
▁baudžiamojon	-11828
▁besąlygiškai	-11829
▁didžiuojuosi	-11830
▁diskutuojant	-11831
▁ekonominiais	-11832
▁institucijai	-11833
▁institucinės	-11834
▁investuotojų	-11835
▁išsaugojimas	-11836
▁kompensavimo	-11837
▁kompetenting	-11838
▁konstituciją	-11839
▁modernizuoti	-11840
▁nacionalinis	-11841
▁nesuprantama	-11842
▁nesąžiningos	-11843
▁netiesiogiai	-11844
▁pakomentuoti	-11845
▁panaudojimas	-11846
▁pareikalauti	-11847
▁paskirstymas	-11848
▁persekiojami	-11849
▁pirmininkavo	-11850
▁pranešimuose	-11851
▁prioritetais	-11852
▁prisijungimo	-11853
▁reguliavimas	-11854
▁skurdžiausių	-11855
▁statistiniai	-11856
▁struktūrinio	-11857
▁subalansuotą	-11858
▁sunkiasvorių	-11859
▁susigrąžinti	-11860
▁sustiprintas	-11861
▁svarbiausius	-11862
▁universitetų	-11863
▁vyksiančiame	-11864
▁vyriausybėms	-11865
▁įgyvendintos	-11866
▁įsipareigoję	-11867
▁įsivaizduoti	-11868
▁Apgailestauju	-11869
▁Nyderlanduose	-11870
▁apsisprendimo	-11871
▁automobiliams	-11872
▁bendruomenėms	-11873
▁dešimtmečiais	-11874
▁klaidinančios	-11875
▁konservatorių	-11876
▁konstitucinio	-11877
▁kvalifikacijų	-11878
▁neišvengiamas	-11879
▁organizacijai	-11880
▁pasinaudojant	-11881
▁pasirengusios	-11882
▁penkiasdešimt	-11883
▁proporcingumo	-11884
▁ratifikavimas	-11885
▁rekomendacija	-11886
▁subalansuotas	-11887
▁suinteresuota	-11888
▁technologinės	-11889
▁verslininkams	-11890
▁administracija	-11891
▁bendradarbiaus	-11892
▁bendradarbiavo	-11893
▁infrastruktūra	-11894
▁nusikalstamumo	-11895
▁protekcionizmo	-11896
Pirmininknutrauk	-11897
▁bendradarbiautų	-11898
▁liberalizavimas	-11899
▁nepriklausomumo	-11900
▁organizacijomis	-11901
▁piktnaudžiavimo	-11902
▁reglamentavimas	-11903
▁tarptautiniuose	-11904
▁tarpvalstybinės	-11905
";	-11906
)0	-11907
15	-11908
38	-11909
41	-11910
42	-11911
8/	-11912
Ai	-11913
As	-11914
BO	-11915
BP	-11916
CC	-11917
CT	-11918
ET	-11919
In	-11920
Ne	-11921
OP	-11922
PV	-11923
Ru	-11924
SD	-11925
TP	-11926
va	-11927
ėr	-11928
▁,	-11929
-00	-11930
EGF	-11931
Jud	-11932
Nor	-11933
Pri	-11934
aiv	-11935
aje	-11936
alg	-11937
ase	-11938
aub	-11939
auz	-11940
avę	-11941
bes	-11942
bėg	-11943
der	-11944
ele	-11945
emą	-11946
enu	-11947
ilg	-11948
iro	-11949
kel	-11950
kov	-11951
ley	-11952
lop	-11953
myn	-11954
nei	-11955
nem	-11956
net	-11957
okį	-11958
ons	-11959
otą	-11960
pav	-11961
pui	-11962
pul	-11963
rav	-11964
ria	-11965
rut	-11966
sai	-11967
sli	-11968
svo	-11969
top	-11970
udo	-11971
ula	-11972
upa	-11973
uth	-11974
vad	-11975
vel	-11976
yną	-11977
zar	-11978
ėtr	-11979
įsi	-11980
šią	-11981
ško	-11982
žal	-11983
žti	-11984
▁-;	-11985
▁32	-11986
▁37	-11987
▁41	-11988
▁42	-11989
▁53	-11990
▁55	-11991
▁6.	-11992
▁8.	-11993
▁85	-11994
▁Ah	-11995
▁Av	-11996
▁Co	-11997
▁Fr	-11998
▁Gi	-11999
▁IM	-12000
▁Ky	-12001
▁La	-12002
▁Ml	-12003
▁Sa	-12004
▁UN	-12005
▁gi	-12006
2011	-12007
EACH	-12008
Gali	-12009
Ruij	-12010
adda	-12011
agog	-12012
agys	-12013
aidž	-12014
aigi	-12015
ailg	-12016
ajon	-12017
alti	-12018
alui	-12019
ando	-12020
anus	-12021
ariz	-12022
atir	-12023
aval	-12024
avos	-12025
avęs	-12026
ašta	-12027
berg	-12028
coni	-12029
efic	-12030
egul	-12031
elės	-12032
ener	-12033
enti	-12034
entė	-12035
erai	-12036
eter	-12037
galį	-12038
heug	-12039
iešk	-12040
iltų	-12041
inir	-12042
iolo	-12043
irut	-12044
itai	-12045
kelb	-12046
kult	-12047
menų	-12048
moso	-12049
omen	-12050
ostr	-12051
pusi	-12052
reag	-12053
skio	-12054
skos	-12055
tant	-12056
tikų	-12057
trin	-12058
tvar	-12059
tąjį	-12060
vaid	-12061
viet	-12062
vieš	-12063
ytam	-12064
ytuv	-12065
yusz	-12066
ėtai	-12067
ėtus	-12068
įvai	-12069
ūrio	-12070
▁110	-12071
▁132	-12072
▁195	-12073
▁600	-12074
▁Abi	-12075
▁Ari	-12076
▁Ats	-12077
▁BLS	-12078
▁BNP	-12079
▁Bud	-12080
▁BŽP	-12081
▁Cos	-12082
▁Del	-12083
▁ECR	-12084
▁EFD	-12085
▁Fig	-12086
▁III	-12087
▁Juk	-12088
▁Jun	-12089
▁Kaz	-12090
▁Lin	-12091
▁Lėš	-12092
▁Mui	-12093
▁Neį	-12094
▁Pie	-12095
▁Pit	-12096
▁Ras	-12097
▁Ros	-12098
▁Sil	-12099
▁TDO	-12100
▁Tie	-12101
▁alk	-12102
▁atr	-12103
▁des	-12104
▁dub	-12105
▁dės	-12106
▁eig	-12107
▁fed	-12108
▁kul	-12109
▁lav	-12110
▁leg	-12111
▁maš	-12112
▁nut	-12113
▁pes	-12114
▁pie	-12115
▁poz	-12116
▁ryt	-12117
▁sez	-12118
▁sos	-12119
▁sto	-12120
▁tyl	-12121
▁von	-12122
▁ček	-12123
▁įpl	-12124
▁šni	-12125
/2004	-12126
Judus	-12127
adekv	-12128
ainio	-12129
aislų	-12130
akalb	-12131
alumo	-12132
angos	-12133
apate	-12134
ariau	-12135
aribų	-12136
audos	-12137
aulio	-12138
aunos	-12139
avime	-12140
edame	-12141
ekaiš	-12142
etais	-12143
europ	-12144
galvo	-12145
iajai	-12146
ijaus	-12147
imtas	-12148
imusi	-12149
itęsi	-12150
jekto	-12151
jungi	-12152
kiais	-12153
lėpti	-12154
nauja	-12155
nesėk	-12156
oblig	-12157
ojimų	-12158
omasi	-12159
omoje	-12160
omsen	-12161
sauga	-12162
sliai	-12163
sliau	-12164
strel	-12165
tampa	-12166
terat	-12167
timus	-12168
tiškų	-12169
tuoju	-12170
tynių	-12171
uoksn	-12172
uotes	-12173
veiks	-12174
verči	-12175
viena	-12176
vigub	-12177
ybėje	-12178
ygard	-12179
ytojo	-12180
čiant	-12181
ėjame	-12182
ėlius	-12183
ėtasi	-12184
ėtros	-12185
ūdžio	-12186
ūkime	-12187
žinės	-12188
▁1000	-12189
▁1998	-12190
▁Garc	-12191
▁Gird	-12192
▁Gros	-12193
▁Gvin	-12194
▁Helm	-12195
▁Joki	-12196
▁Jord	-12197
▁Kamb	-12198
▁Kito	-12199
▁Klin	-12200
▁Made	-12201
▁Nuos	-12202
▁OECD	-12203
▁Rein	-12204
▁Sant	-12205
▁abor	-12206
▁alia	-12207
▁apėm	-12208
▁atme	-12209
▁atėm	-12210
▁baim	-12211
▁barb	-12212
▁bažn	-12213
▁bili	-12214
▁dera	-12215
▁dirv	-12216
▁dosn	-12217
▁drab	-12218
▁dugn	-12219
▁durų	-12220
▁elgs	-12221
▁frag	-12222
▁galą	-12223
▁gina	-12224
▁grūd	-12225
▁hier	-12226
▁idėj	-12227
▁igno	-12228
▁inst	-12229
▁junt	-12230
▁juod	-12231
▁jėgą	-12232
▁jūrą	-12233
▁kasd	-12234
▁kryž	-12235
▁kurą	-12236
▁kūno	-12237
▁mais	-12238
▁okup	-12239
▁opon	-12240
▁pand	-12241
▁perl	-12242
▁perž	-12243
▁puse	-12244
▁repu	-12245
▁salų	-12246
▁serb	-12247
▁slov	-12248
▁smog	-12249
▁smuk	-12250
▁spūs	-12251
▁stoj	-12252
▁sver	-12253
▁sąsa	-12254
▁tamp	-12255
▁tigr	-12256
▁trik	-12257
▁tuoj	-12258
▁tėra	-12259
▁vili	-12260
▁visu	-12261
▁vynų	-12262
▁šakų	-12263
▁šeši	-12264
▁šiur	-12265
▁šūki	-12266
▁žiūr	-12267
addafi	-12268
aldner	-12269
ancija	-12270
antišk	-12271
arinių	-12272
atinis	-12273
demokr	-12274
didelę	-12275
dienos	-12276
edamas	-12277
eliais	-12278
emonės	-12279
esniam	-12280
etikos	-12281
galėtų	-12282
iantys	-12283
ingiau	-12284
inkriz	-12285
inčyti	-12286
izaino	-12287
kurenc	-12288
minimo	-12289
nustat	-12290
oriaus	-12291
prieži	-12292
rasmus	-12293
svorio	-12294
taciją	-12295
totojų	-12296
tovaiz	-12297
ugsėjo	-12298
uojamų	-12299
uoliai	-12300
uotoje	-12301
uriant	-12302
usieji	-12303
ūrinių	-12304
▁Azerb	-12305
▁Ciolo	-12306
▁Dalai	-12307
▁Doyle	-12308
▁EURES	-12309
▁Feder	-12310
▁Frank	-12311
▁Gaila	-12312
▁Garri	-12313
▁Gavau	-12314
▁Hagos	-12315
▁Jiems	-12316
▁Madri	-12317
▁Monti	-12318
▁Nepam	-12319
▁Netur	-12320
▁Oomen	-12321
▁Priim	-12322
▁Prisi	-12323
▁Rytoj	-12324
▁Ugand	-12325
▁Visas	-12326
▁antid	-12327
▁antis	-12328
▁apims	-12329
▁apsik	-12330
▁asbes	-12331
▁balsą	-12332
▁blokų	-12333
▁bylas	-12334
▁didės	-12335
▁dujos	-12336
▁duris	-12337
▁dydis	-12338
▁eilės	-12339
▁elget	-12340
▁elito	-12341
▁funkc	-12342
▁ginčy	-12343
▁graik	-12344
▁iliuz	-12345
▁išmin	-12346
▁išmon	-12347
▁išrad	-12348
▁jauni	-12349
▁jėgas	-12350
▁karas	-12351
▁kilus	-12352
▁korek	-12353
▁laivo	-12354
▁lenkų	-12355
▁minas	-12356
▁muito	-12357
▁namus	-12358
▁nebeb	-12359
▁nebep	-12360
▁nebes	-12361
▁nebet	-12362
▁neder	-12363
▁nemin	-12364
▁nepar	-12365
▁nereg	-12366
▁nerūp	-12367
▁nesak	-12368
▁neskr	-12369
▁nesum	-12370
▁nuram	-12371
▁nusių	-12372
▁nuvyl	-12373
▁optim	-12374
▁pakak	-12375
▁pakil	-12376
▁pamėg	-12377
▁pasib	-12378
▁pasyv	-12379
▁paukš	-12380
▁pačia	-12381
▁pieną	-12382
▁plati	-12383
▁postų	-12384
▁prist	-12385
▁romai	-12386
▁sampr	-12387
▁saugų	-12388
▁savir	-12389
▁semin	-12390
▁serga	-12391
▁siena	-12392
▁skolų	-12393
▁sprog	-12394
▁suaug	-12395
▁subti	-12396
▁sulyg	-12397
▁sumas	-12398
▁tarti	-12399
▁tebes	-12400
▁trims	-12401
▁tėvyn	-12402
▁tęsis	-12403
▁virto	-12404
▁vyrus	-12405
▁vėžio	-12406
▁įeina	-12407
▁įgytų	-12408
▁įmonę	-12409
▁įnašą	-12410
▁įrank	-12411
▁įrodė	-12412
▁įtemp	-12413
▁šeima	-12414
▁šeimą	-12415
▁šimtų	-12416
▁švari	-12417
▁žaizd	-12418
▁žemas	-12419
▁žvilg	-12420
Galileo	-12421
Ruijten	-12422
aliomis	-12423
ančiams	-12424
apatero	-12425
apsauga	-12426
atsakom	-12427
avimąsi	-12428
didžiul	-12429
eficien	-12430
eliuose	-12431
engiant	-12432
esniais	-12433
iausios	-12434
iausius	-12435
inančio	-12436
indamos	-12437
istanui	-12438
iškomis	-12439
organiz	-12440
pažanga	-12441
rindama	-12442
tavimas	-12443
tingumo	-12444
tinimas	-12445
tinkame	-12446
tiškumo	-12447
trauktų	-12448
tumėmės	-12449
vystymo	-12450
ytojams	-12451
ėjusios	-12452
▁Anders	-12453
▁Beveik	-12454
▁Būčiau	-12455
▁Daugyb	-12456
▁Derybų	-12457
▁Estrel	-12458
▁Intern	-12459
▁Iranas	-12460
▁Jemene	-12461
▁Karibų	-12462
▁Kokios	-12463
▁Kosove	-12464
▁Linkiu	-12465
▁Matome	-12466
▁Moldov	-12467
▁Nigeri	-12468
▁Norveg	-12469
▁Pateik	-12470
▁Prisim	-12471
▁Sprend	-12472
▁Sterck	-12473
▁Tautos	-12474
▁Tibeto	-12475
▁Tuomet	-12476
▁Vaikai	-12477
▁Vienos	-12478
▁aiškiu	-12479
▁aiškūs	-12480
▁aktams	-12481
▁aktyvų	-12482
▁amžius	-12483
▁antraš	-12484
▁apmąst	-12485
▁artėja	-12486
▁atgras	-12487
▁atliks	-12488
▁atsaką	-12489
▁atvejo	-12490
▁atvira	-12491
▁atviri	-12492
▁atviro	-12493
▁autorė	-12494
▁avarij	-12495
▁baimės	-12496
▁baltym	-12497
▁bankui	-12498
▁bankus	-12499
▁baudos	-12500
▁biuras	-12501
▁dalyse	-12502
▁darytų	-12503
▁derasi	-12504
▁didelė	-12505
▁domina	-12506
▁einame	-12507
▁etapus	-12508
▁faktus	-12509
▁gairės	-12510
▁garbės	-12511
▁gavėjų	-12512
▁geostr	-12513
▁glaudų	-12514
▁greito	-12515
▁gydyti	-12516
▁gynimo	-12517
▁išaugo	-12518
▁išnaik	-12519
▁jūrose	-12520
▁kabota	-12521
▁kalend	-12522
▁kareiv	-12523
▁karinę	-12524
▁keista	-12525
▁kelion	-12526
▁kertin	-12527
▁kitoki	-12528
▁kištis	-12529
▁klysta	-12530
▁kokybe	-12531
▁kokybė	-12532
▁kontra	-12533
▁kovojo	-12534
▁laisvo	-12535
▁lietuv	-12536
▁lygios	-12537
▁lygmuo	-12538
▁maistą	-12539
▁maržos	-12540
▁moksli	-12541
▁mokslų	-12542
▁negrįž	-12543
▁nelaik	-12544
▁nemažą	-12545
▁nepali	-12546
▁nepeln	-12547
▁neperd	-12548
▁nereag	-12549
▁nesiek	-12550
▁neskir	-12551
▁nesupr	-12552
▁neteks	-12553
▁netenk	-12554
▁niekam	-12555
▁nubaus	-12556
▁numato	-12557
▁nurodė	-12558
▁nuteis	-12559
▁nutrūk	-12560
▁objekt	-12561
▁orderį	-12562
▁padrąs	-12563
▁pagars	-12564
▁pakait	-12565
▁paliko	-12566
▁palink	-12567
▁pamąst	-12568
▁panašu	-12569
▁paplit	-12570
▁pasisk	-12571
▁patirs	-12572
▁pavard	-12573
▁pačiai	-12574
▁penkis	-12575
▁pigiau	-12576
▁plauki	-12577
▁plačiu	-12578
▁plačių	-12579
▁plinta	-12580
▁prasti	-12581
▁pratęs	-12582
▁praėjo	-12583
▁prievo	-12584
▁prigim	-12585
▁primin	-12586
▁punkto	-12587
▁puslap	-12588
▁pusėms	-12589
▁retųjų	-12590
▁riboto	-12591
▁rimtos	-12592
▁ruonių	-12593
▁sakėme	-12594
▁saugai	-12595
▁senųjų	-12596
▁siekiu	-12597
▁skiriu	-12598
▁skirsn	-12599
▁skubos	-12600
▁skyrim	-12601
▁spektr	-12602
▁spragų	-12603
▁staiga	-12604
▁stiprų	-12605
▁suirut	-12606
▁sukels	-12607
▁sukrėt	-12608
▁sunaud	-12609
▁sveika	-12610
▁teiktų	-12611
▁teisūs	-12612
▁trunka	-12613
▁turimų	-12614
▁užmirš	-12615
▁užpild	-12616
▁užtruk	-12617
▁vadovo	-12618
▁vasarą	-12619
▁įvaizd	-12620
▁įvyksi	-12621
▁šešias	-12622
▁žadėjo	-12623
▁žemyne	-12624
▁žemyno	-12625
▁ženklo	-12626
▁žiūrim	-12627
amuosius	-12628
aujantys	-12629
frakcija	-12630
kultūrin	-12631
nacional	-12632
priemonė	-12633
užduotis	-12634
užsienio	-12635
virtinti	-12636
ėjančios	-12637
▁Birmoje	-12638
▁Busutti	-12639
▁Danijos	-12640
▁Daugiau	-12641
▁Duomenų	-12642
▁Ferrero	-12643
▁Gaddafi	-12644
▁Galimyb	-12645
▁Gruzija	-12646
▁Institu	-12647
▁Izraelį	-12648
▁Kanados	-12649
▁Kaukazo	-12650
▁Kosovas	-12651
▁Lenkiją	-12652
▁Moterys	-12653
▁Organiz	-12654
▁Prašome	-12655
▁Puikiai	-12656
▁Saryusz	-12657
▁Serbiją	-12658
▁Thomsen	-12659
▁Tvirtai	-12660
▁Verheug	-12661
▁abejoju	-12662
▁aktuali	-12663
▁aktuose	-12664
▁aktyvūs	-12665
▁ambasad	-12666
▁aptarin	-12667
▁apygard	-12668
▁artimas	-12669
▁asignav	-12670
▁atgauti	-12671
▁atminti	-12672
▁atskiru	-12673
▁atstovo	-12674
▁atstumu	-12675
▁atvėrim	-12676
▁bandymo	-12677
▁bankams	-12678
▁beprasm	-12679
▁būsimus	-12680
▁centrus	-12681
▁demagog	-12682
▁dialogu	-12683
▁diegimo	-12684
▁dienraš	-12685
▁dirbame	-12686
▁dirbome	-12687
▁draugai	-12688
▁dvigubų	-12689
▁emisijų	-12690
▁etninės	-12691
▁federal	-12692
▁galioti	-12693
▁galvoju	-12694
▁gaminio	-12695
▁gamyklą	-12696
▁gaunama	-12697
▁gauname	-12698
▁gausime	-12699
▁genocid	-12700
▁greitos	-12701
▁indėliu	-12702
▁išrinko	-12703
▁karjerą	-12704
▁kitokia	-12705
▁kitokių	-12706
▁kodifik	-12707
▁kokiais	-12708
▁kolegės	-12709
▁kosmoso	-12710
▁kuriama	-12711
▁laikome	-12712
▁laimėti	-12713
▁laisvei	-12714
▁lemiamą	-12715
▁literat	-12716
▁liudija	-12717
▁mainais	-12718
▁mažesnį	-12719
▁migrant	-12720
▁mintyje	-12721
▁minutes	-12722
▁minėtos	-12723
▁modeliu	-12724
▁mokymas	-12725
▁mokymus	-12726
▁mokytis	-12727
▁narystę	-12728
▁nauding	-12729
▁naujais	-12730
▁naujoje	-12731
▁naujojo	-12732
▁naująją	-12733
▁neadekv	-12734
▁neaišku	-12735
▁neatsir	-12736
▁nelabai	-12737
▁nelaimę	-12738
▁nepaiso	-12739
▁nepajėg	-12740
▁netiesa	-12741
▁netinka	-12742
▁neturės	-12743
▁nežinau	-12744
▁norinti	-12745
▁nuoroda	-12746
▁nuotaik	-12747
▁nuspręs	-12748
▁optimis	-12749
▁pabaigą	-12750
▁pagamin	-12751
▁paketui	-12752
▁panašus	-12753
▁paramet	-12754
▁parodys	-12755
▁pasekmė	-12756
▁pasieks	-12757
▁pasielg	-12758
▁pasilik	-12759
▁pasipik	-12760
▁pasižad	-12761
▁pateikG	-12762
▁pačiose	-12763
▁pažvelg	-12764
▁perkeli	-12765
▁pervers	-12766
▁pirminį	-12767
▁pirmųjų	-12768
▁potenci	-12769
▁pozityv	-12770
▁pradeda	-12771
▁praeitą	-12772
▁praeitį	-12773
▁pranešė	-12774
▁prastos	-12775
▁premiją	-12776
▁primena	-12777
▁privalu	-12778
▁privert	-12779
▁punktus	-12780
▁pusmetį	-12781
▁reagavo	-12782
▁realios	-12783
▁reikšmė	-12784
▁riebalų	-12785
▁rinkoms	-12786
▁ryšiams	-12787
▁saugaus	-12788
▁siūlomą	-12789
▁skyrėme	-12790
▁sluoksn	-12791
▁sportas	-12792
▁statuto	-12793
▁sugebės	-12794
▁suklaid	-12795
▁sukurtą	-12796
▁sukūrus	-12797
▁sunkius	-12798
▁suskaid	-12799
▁sustipr	-12800
▁teikėjų	-12801
▁teisine	-12802
▁teisėta	-12803
▁teisėtų	-12804
▁tikroms	-12805
▁tikrąją	-12806
▁transpl	-12807
▁turėtoj	-12808
▁tvirtov	-12809
▁uždirba	-12810
▁užsitęs	-12811
▁valdant	-12812
▁valiuta	-12813
▁vandenį	-12814
▁vertimo	-12815
▁vienaip	-12816
▁įmanomą	-12817
▁įsigyti	-12818
▁įsiskol	-12819
▁įspūdis	-12820
▁įvairin	-12821
▁šeimoms	-12822
▁Ženevos	-12823
▁žaidimo	-12824
▁žvejams	-12825
▁žvelgti	-12826
atskirtis	-12827
uojančius	-12828
▁Anglijos	-12829
▁Artimųjų	-12830
▁Balsuoju	-12831
▁Bendrijų	-12832
▁Briuselį	-12833
▁Europolo	-12834
▁Eurostat	-12835
▁Indijoje	-12836
▁Japonija	-12837
▁Lietuvos	-12838
▁Meksikos	-12839
▁Ministro	-12840
▁Mokesčių	-12841
▁Nereikia	-12842
▁Protokol	-12843
▁Tokiomis	-12844
▁Turkijai	-12845
▁Ukrainai	-12846
▁Vengriją	-12847
▁Visuomen	-12848
▁abipusio	-12849
▁aljansas	-12850
▁analizės	-12851
▁apgyvend	-12852
▁apskaiči	-12853
▁asmeniui	-12854
▁atliekos	-12855
▁atsaking	-12856
▁atsikrat	-12857
▁atsiliek	-12858
▁atsistat	-12859
▁atšaukti	-12860
▁aukštojo	-12861
▁baigiant	-12862
▁bandymai	-12863
▁bandymas	-12864
▁bepreced	-12865
▁dialogui	-12866
▁didesnes	-12867
▁galimybį	-12868
▁gavėjams	-12869
▁ginklais	-12870
▁greitojo	-12871
▁griežtus	-12872
▁hierarch	-12873
▁importas	-12874
▁išimties	-12875
▁išleidži	-12876
▁išorinių	-12877
▁išpuolis	-12878
▁išraiška	-12879
▁išrinkti	-12880
▁išsamaus	-12881
▁išsiaišk	-12882
▁kalėjime	-12883
▁ketinate	-12884
▁ketinimų	-12885
▁kiekiais	-12886
▁kišimosi	-12887
▁kliūtimi	-12888
▁kokiomis	-12889
▁komitetu	-12890
▁kompiute	-12891
▁krypties	-12892
▁laikausi	-12893
▁laikomos	-12894
▁laikysis	-12895
▁laukiant	-12896
▁leidimus	-12897
▁leidybos	-12898
▁lemiamas	-12899
▁liberali	-12900
▁likusios	-12901
▁lygybyra	-12902
▁mažesnės	-12903
▁ministru	-12904
▁ministrą	-12905
▁narystei	-12906
▁naujienų	-12907
▁naujomis	-12908
▁nelaimes	-12909
▁nenukryp	-12910
▁nepagarb	-12911
▁nepateis	-12912
▁nesinaud	-12913
▁nesusiję	-12914
▁nevienod	-12915
▁nežinome	-12916
▁norintys	-12917
▁norėjome	-12918
▁nuolatos	-12919
▁nuosmukį	-12920
▁nurodoma	-12921
▁pabrėžiu	-12922
▁padarytą	-12923
▁padedama	-12924
▁padvigub	-12925
▁pajėgumą	-12926
▁pakartoj	-12927
▁paklausą	-12928
▁palaikys	-12929
▁pamiršta	-12930
▁paplitęs	-12931
▁paraiška	-12932
▁pareiški	-12933
▁pasiektu	-12934
▁pasiekus	-12935
▁pasirodo	-12936
▁paskatas	-12937
▁pataisas	-12938
▁pateikto	-12939
▁patikimi	-12940
▁patraukl	-12941
▁paveldas	-12942
▁pavienių	-12943
▁pažeisti	-12944
▁perskait	-12945
▁pirmieji	-12946
▁pirminis	-12947
▁planuoja	-12948
▁požiūrių	-12949
▁praktinį	-12950
▁praranda	-12951
▁prašymai	-12952
▁prekėmis	-12953
▁premijos	-12954
▁primesti	-12955
▁prisidės	-12956
▁prisiima	-12957
▁procentų	-12958
▁procesai	-12959
▁produkto	-12960
▁protinga	-12961
▁reikiamų	-12962
▁rengdami	-12963
▁rengiasi	-12964
▁rinkinio	-12965
▁rinkliav	-12966
▁scenarij	-12967
▁skleisti	-12968
▁stipraus	-12969
▁stiprina	-12970
▁stygiaus	-12971
▁suformul	-12972
▁sugrįžti	-12973
▁sukūrėme	-12974
▁sumažėja	-12975
▁sunkiais	-12976
▁sunkumai	-12977
▁supratau	-12978
▁susietos	-12979
▁susiskal	-12980
▁sutelkta	-12981
▁sąvartyn	-12982
▁tarnybai	-12983
▁tarpinis	-12984
▁teisėtas	-12985
▁telefono	-12986
▁terminas	-12987
▁tiekimas	-12988
▁tikrovės	-12989
▁tiksliau	-12990
▁tikėtasi	-12991
▁tinkamus	-12992
▁tokiuose	-12993
▁tolesnis	-12994
▁trečiąjį	-12995
▁trukdyti	-12996
▁tvarkymą	-12997
▁tvarumui	-12998
▁tvirtina	-12999
▁tvirtino	-13000
▁tėvystės	-13001
▁užmiršti	-13002
▁užsiimti	-13003
▁valdžiai	-13004
▁varomoji	-13005
▁veikimui	-13006
▁vengiama	-13007
▁vieninga	-13008
▁vieningo	-13009
▁vieninte	-13010
▁vyresnio	-13011
▁vyresnių	-13012
▁vystytis	-13013
▁įmonėmis	-13014
▁įprastas	-13015
▁įrodsavo	-13016
▁įsiklaus	-13017
▁įvardyti	-13018
▁įvykiais	-13019
▁šaltinio	-13020
▁švietimą	-13021
▁žaidynių	-13022
▁ženkliai	-13023
▁žinodami	-13024
▁žurnalis	-13025
Parlamento	-13026
▁Agentūros	-13027
▁Azerbaidž	-13028
▁Belgijoje	-13029
▁Bosnijoje	-13030
▁Centrinis	-13031
▁Daugelyje	-13032
▁Europolui	-13033
▁Juodojoje	-13034
▁Kiekviena	-13035
▁Kiekvieną	-13036
▁Latvijoje	-13037
▁Lenkijoje	-13038
▁Nepakanka	-13039
▁Paryžiaus	-13040
▁Priemonės	-13041
▁Remdamasi	-13042
▁Sacharovo	-13043
▁Slovėnija	-13044
▁Smulkiojo	-13045
▁Suomijoje	-13046
▁Vertinant	-13047
▁abipusiai	-13048
▁antsvorio	-13049
▁aplankyti	-13050
▁apsunkina	-13051
▁atliksime	-13052
▁atmosferą	-13053
▁atokiausi	-13054
▁atsakingų	-13055
▁atsiduria	-13056
▁atsilieka	-13057
▁atsirasti	-13058
▁atstatyti	-13059
▁aštuonios	-13060
▁besiverči	-13061
▁biometrin	-13062
▁būtinybei	-13063
▁centrinis	-13064
▁dabartine	-13065
▁dalyviams	-13066
▁darbdavių	-13067
▁derinimas	-13068
▁derybomis	-13069
▁elementus	-13070
▁elgiamasi	-13071
▁esančioms	-13072
▁eurooblig	-13073
▁fundament	-13074
▁galutiniu	-13075
▁galutinių	-13076
▁gaunančių	-13077
▁gerbiamos	-13078
▁grupuotės	-13079
▁istorinis	-13080
▁istorinių	-13081
▁išgirstas	-13082
▁išraiškos	-13083
▁išreikštą	-13084
▁išreiškia	-13085
▁išskyrimo	-13086
▁išvadomis	-13087
▁kiekvienu	-13088
▁koeficien	-13089
▁kokybišką	-13090
▁komentarų	-13091
▁konkretus	-13092
▁konkretūs	-13093
▁kultūroje	-13094
▁laikytųsi	-13095
▁laisvėmis	-13096
▁lanksčios	-13097
▁lygiateis	-13098
▁mažinamos	-13099
▁mažėjimas	-13100
▁medžiagas	-13101
▁mokesčiai	-13102
▁mokyklose	-13103
▁mokėjimai	-13104
▁naujausią	-13105
▁negalėjau	-13106
▁neigiamai	-13107
▁nelygybės	-13108
▁neramumus	-13109
▁nerimauju	-13110
▁netiesiog	-13111
▁numatytus	-13112
▁nuosprend	-13113
▁nusiteikę	-13114
▁nusprendė	-13115
▁nustatyto	-13116
▁operaciją	-13117
▁pagerinta	-13118
▁pakeistas	-13119
▁pakeliant	-13120
▁palaikant	-13121
▁parengimą	-13122
▁parengtos	-13123
▁pasauline	-13124
▁pasikliau	-13125
▁pasirodes	-13126
▁paskutinį	-13127
▁pastarąjį	-13128
▁patikimos	-13129
▁patikimus	-13130
▁patraukli	-13131
▁pavojingą	-13132
▁piliečiui	-13133
▁platinimo	-13134
▁prasidėti	-13135
▁prielaida	-13136
▁priimamas	-13137
▁priimdama	-13138
▁privalomą	-13139
▁privalomų	-13140
▁prognozės	-13141
▁protokola	-13142
▁raginimui	-13143
▁rajonuose	-13144
▁reaktorių	-13145
▁reikiamos	-13146
▁remdamasi	-13147
▁rengiamas	-13148
▁rezultato	-13149
▁rinkėjams	-13150
▁sandorius	-13151
▁santuokos	-13152
▁sektoriai	-13153
▁skaičiumi	-13154
▁skelbiama	-13155
▁spręsdami	-13156
▁suderinta	-13157
▁sukuriama	-13158
▁sulaikyti	-13159
▁sumanymas	-13160
▁supratimą	-13161
▁sutartyse	-13162
▁suteikimą	-13163
▁sąžiningi	-13164
▁sąžiningą	-13165
▁technines	-13166
▁techninės	-13167
▁teigdamas	-13168
▁teikėjams	-13169
▁teisingos	-13170
▁tikrosios	-13171
▁tikslinga	-13172
▁tolesnius	-13173
▁trečdalis	-13174
▁trumpalai	-13175
▁turinčius	-13176
▁uždarytas	-13177
▁uždarytos	-13178
▁užimtumui	-13179
▁užkirstas	-13180
▁užsienyje	-13181
▁vadovauja	-13182
▁vairuotoj	-13183
▁valdysena	-13184
▁valdyseną	-13185
▁valdytojų	-13186
▁vartojama	-13187
▁veiksnius	-13188
▁vertinimu	-13189
▁visuomeng	-13190
▁vyksiantį	-13191
▁įrenginių	-13192
▁įsteigtas	-13193
▁įvykdytas	-13194
▁Švedijoje	-13195
▁žvalgybos	-13196
Parlamentas	-13197
rezoliuciją	-13198
▁Ankstesnio	-13199
▁Australija	-13200
▁Balkanuose	-13201
▁Bendrijoje	-13202
▁Didžiojoje	-13203
▁Jungtinėms	-13204
▁Labiausiai	-13205
▁Neturėtume	-13206
▁Paskutinis	-13207
▁Prancūziją	-13208
▁Priežastis	-13209
▁Septintąją	-13210
▁Slovėnijai	-13211
▁agentūroms	-13212
▁aklavietės	-13213
▁apsiriboti	-13214
▁asignavimų	-13215
▁ateinančių	-13216
▁atitinkama	-13217
▁atsidavimą	-13218
▁atsižvelgs	-13219
▁atspindėti	-13220
▁atstovauti	-13221
▁balsuojame	-13222
▁bendravimo	-13223
▁bendrojoje	-13224
▁biologinių	-13225
▁destabiliz	-13226
▁didžiulius	-13227
▁dokumentui	-13228
▁ekologinių	-13229
▁energetika	-13230
▁frakcijoms	-13231
▁galutiniai	-13232
▁geostrateg	-13233
▁gyvenantys	-13234
▁importuoti	-13235
▁infliacija	-13236
▁informuota	-13237
▁integruoti	-13238
▁investuoja	-13239
▁išbandymas	-13240
▁išgyvename	-13241
▁iškastinio	-13242
▁išklausiau	-13243
▁išsiskiria	-13244
▁išspręstas	-13245
▁kaltinimai	-13246
▁kandidačių	-13247
▁katastrofa	-13248
▁katastrofų	-13249
▁kompromise	-13250
▁konkretaus	-13251
▁kraštovaiz	-13252
▁kritikuoti	-13253
▁kultūrinio	-13254
▁kultūrinės	-13255
▁mechanizmų	-13256
▁minimalios	-13257
▁mokestiniu	-13258
▁naikinimas	-13259
▁natūraliai	-13260
▁neatspindi	-13261
▁nekontroli	-13262
▁neprieštar	-13263
▁nesuprantu	-13264
▁neturintys	-13265
▁neįmanomas	-13266
▁nuostatoms	-13267
▁nustatomas	-13268
▁obligacijų	-13269
▁pabrėžčiau	-13270
▁padidintas	-13271
▁pageidauja	-13272
▁pamatysime	-13273
▁paprastųjų	-13274
▁parengtame	-13275
▁pasakyčiau	-13276
▁pasekmėmis	-13277
▁pasidalyti	-13278
▁pasiekimas	-13279
▁pasiekimus	-13280
▁pasieksime	-13281
▁pasirinkta	-13282
▁pasiryžimą	-13283
▁pasiūlytos	-13284
▁pateikiamą	-13285
▁pateiktais	-13286
▁pavyzdžius	-13287
▁pilietinio	-13288
▁pirmininkų	-13289
▁pirmuosius	-13290
▁požiūriais	-13291
▁pranašumus	-13292
▁praradimas	-13293
▁principams	-13294
▁produkciją	-13295
▁projektais	-13296
▁reformuota	-13297
▁regioninei	-13298
▁reikšmingi	-13299
▁savaitgalį	-13300
▁savaitėmis	-13301
▁sistemomis	-13302
▁skatindama	-13303
▁skatinimui	-13304
▁skirtingai	-13305
▁sklandžiai	-13306
▁socialinis	-13307
▁specialios	-13308
▁stebėtojai	-13309
▁stiprinama	-13310
▁stovyklose	-13311
▁struktūras	-13312
▁sudedamoji	-13313
▁susiklosči	-13314
▁susipažinę	-13315
▁susirūpinę	-13316
▁susivienij	-13317
▁sustiprino	-13318
▁suteikimas	-13319
▁sutrukdyti	-13320
▁svarstymas	-13321
▁svarstymui	-13322
▁svarstymus	-13323
▁sąmoningai	-13324
▁teisingumu	-13325
▁teisiniais	-13326
▁tendencijų	-13327
▁tobulinimo	-13328
▁tradicijas	-13329
▁tragedijos	-13330
▁trumpalaik	-13331
▁turėtumėme	-13332
▁vadinamojo	-13333
▁veikiančių	-13334
▁visuotiniu	-13335
▁įsigalioti	-13336
▁įtraukdami	-13337
▁šaltiniais	-13338
▁Atsakydamas	-13339
▁Baltarusija	-13340
▁Bulgarijoje	-13341
▁Buvusiosios	-13342
▁Energetikos	-13343
▁Generalinės	-13344
▁Gerbiamieji	-13345
▁Neabejotina	-13346
▁Vienintelis	-13347
▁akivaizdoje	-13348
▁alternatyva	-13349
▁apsispręsti	-13350
▁argumentais	-13351
▁asignavimus	-13352
▁ataskaitose	-13353
▁atitinkamus	-13354
▁atnaujintos	-13355
▁atsisakymas	-13356
▁autonomijos	-13357
▁bendruosius	-13358
▁biudžetinės	-13359
▁dabartiniam	-13360
▁darbotvarkė	-13361
▁daugiausiai	-13362
▁dirbantiems	-13363
▁dirbančiųjų	-13364
▁direktorius	-13365
▁dokumentais	-13366
▁ekonominėje	-13367
▁energetinis	-13368
▁finansiškai	-13369
▁generalinio	-13370
▁generalinis	-13371
▁išankstinių	-13372
▁išsaugojimo	-13373
▁išskirtinai	-13374
▁kariuomenės	-13375
▁kategorijos	-13376
▁komitetuose	-13377
▁konkrečiais	-13378
▁konvencijas	-13379
▁mechanizmai	-13380
▁mobilizuoti	-13381
▁nagrinėjama	-13382
▁naudojantis	-13383
▁naudojimosi	-13384
▁nereglament	-13385
▁nesąžininga	-13386
▁neteisingai	-13387
▁nusikaltimą	-13388
▁paaiškinimo	-13389
▁padidėjimas	-13390
▁panaikinimą	-13391
▁panaudojimu	-13392
▁pareigūnams	-13393
▁pareikalaus	-13394
▁pareiškimus	-13395
▁parlamentai	-13396
▁pasikartoti	-13397
▁pasinaudota	-13398
▁pasirašymas	-13399
▁pasistengti	-13400
▁perkvalifik	-13401
▁perspektyva	-13402
▁politinėmis	-13403
▁potencialas	-13404
▁priežastimi	-13405
▁prisimename	-13406
▁regioninius	-13407
▁registruoti	-13408
▁reguliariai	-13409
▁reikalavimo	-13410
▁skirtingose	-13411
▁socialinėms	-13412
▁sprendimais	-13413
▁sprendžiama	-13414
▁statistinių	-13415
▁stiprinamos	-13416
▁strateginės	-13417
▁sunkvežimių	-13418
▁susiduriama	-13419
▁susilaikyti	-13420
▁susirinkimų	-13421
▁sustiprintų	-13422
▁suteikiamos	-13423
▁sveikintina	-13424
▁sąmoningumą	-13425
▁teisingumas	-13426
▁totalitarin	-13427
▁tvirtinimas	-13428
▁užtikrinimą	-13429
▁visapusiško	-13430
▁įgaliotinei	-13431
▁įgyvendinus	-13432
▁įvertinimas	-13433
▁Šveicarijos	-13434
lobalizacijos	-13435
▁Demokratinės	-13436
▁Konstituciją	-13437
▁Liuksemburge	-13438
▁Liuksemburgo	-13439
▁Nepamirškime	-13440
▁Paaiškinimai	-13441
▁Pagrindiniai	-13442
▁ankstesniais	-13443
▁ataskaitomis	-13444
▁demonstrantų	-13445
▁diplomatinių	-13446
▁ekonominėmis	-13447
▁elektroniniu	-13448
▁finansiniais	-13449
▁galiojančius	-13450
▁integracijai	-13451
▁konfidencial	-13452
▁nepilnamečių	-13453
▁orientacijos	-13454
▁paaiškinimus	-13455
▁pasidalijimo	-13456
▁pasirinkimas	-13457
▁pasitikėjimu	-13458
▁pažeidžiamas	-13459
▁perspektyvas	-13460
▁persvarstymą	-13461
▁prieštarauju	-13462
▁prieštarautų	-13463
▁priklausomai	-13464
▁priklausomos	-13465
▁ratifikavimą	-13466
▁savanoriškos	-13467
▁skaičiavimus	-13468
▁socialdemokr	-13469
▁socialiniais	-13470
▁sugriežtinti	-13471
▁susirūpinimo	-13472
▁suvartojamos	-13473
▁tarptautines	-13474
▁teroristinių	-13475
▁užsitikrinti	-13476
▁vairuotojams	-13477
▁veikiančioms	-13478
▁veiksmingesn	-13479
▁vidutiniškai	-13480
▁visuomeninių	-13481
▁įsigaliojimą	-13482
▁žurnalistams	-13483
▁Demokratinėje	-13484
▁Rezoliucijoje	-13485
▁bendruomenėje	-13486
▁demokratiškas	-13487
▁humanitarinių	-13488
▁investuotojai	-13489
▁jurisdikcijos	-13490
▁komandiravimo	-13491
▁konsultacijas	-13492
▁nacionalinėms	-13493
▁nekilnojamojo	-13494
▁nepasikartotų	-13495
▁nepriklausomų	-13496
▁nuogąstavimus	-13497
▁parlamentinio	-13498
▁pasinaudodami	-13499
▁patvirtinamas	-13500
▁persekiojimas	-13501
▁perspektyvoje	-13502
▁pirmininkauja	-13503
▁prioritetinis	-13504
▁prioritetiniu	-13505
▁pripažįstamas	-13506
▁reikalavimais	-13507
▁sertifikavimo	-13508
▁stabilizavimo	-13509
▁sąjungininkai	-13510
▁tarptautinėms	-13511
▁vyriausybėmis	-13512
▁administracinę	-13513
▁atstovaujantys	-13514
▁besivystančias	-13515
▁demokratiniams	-13516
▁globalizuotame	-13517
▁keturiasdešimt	-13518
▁konkurencingos	-13519
▁konstitucijoje	-13520
▁konstruktyviai	-13521
▁nacionaliniais	-13522
▁piktnaudžiauti	-13523
▁pirmininkavusi	-13524
▁priklausomybės	-13525
▁profesionaliai	-13526
▁radioaktyviųjų	-13527
▁reglamentavimą	-13528
▁rekomenduojama	-13529
▁veiksmingesnės	-13530
▁JungtinKaralyst	-13531
▁dabartinpadėtis	-13532
▁gyvulininkystės	-13533
▁konsultuojamasi	-13534
▁nepriklausomybę	-13535
▁supaprastinimas	-13536
▁tarpvalstybiniu	-13537
")	-13538
"?	-13539
,4	-13540
,9	-13541
/6	-13542
/7	-13543
4,	-13544
6/	-13545
8,	-13546
80	-13547
95	-13548
DR	-13549
ED	-13550
PF	-13551
Pr	-13552
RT	-13553
RU	-13554
TS	-13555
TV	-13556
Už	-13557
br	-13558
bu	-13559
ce	-13560
ff	-13561
ls	-13562
lę	-13563
lį	-13564
nd	-13565
ną	-13566
oi	-13567
sy	-13568
ts	-13569
ėž	-13570
šn	-13571
ūž	-13572
ŽV	-13573
žą	-13574
▁?	-13575
963	-13576
IFT	-13577
IVT	-13578
KPS	-13579
SEC	-13580
TVF	-13581
Tar	-13582
ale	-13583
arš	-13584
ban	-13585
bet	-13586
bri	-13587
dor	-13588
dos	-13589
dys	-13590
eci	-13591
egu	-13592
eib	-13593
eku	-13594
erš	-13595
erų	-13596
evo	-13597
for	-13598
gar	-13599
gli	-13600
gos	-13601
got	-13602
grę	-13603
her	-13604
hut	-13605
idr	-13606
iel	-13607
ile	-13608
ilų	-13609
iną	-13610
ipl	-13611
ira	-13612
isp	-13613
ita	-13614
kių	-13615
lia	-13616
lie	-13617
liz	-13618
los	-13619
mat	-13620
mit	-13621
nez	-13622
nią	-13623
nus	-13624
ock	-13625
oll	-13626
onu	-13627
pel	-13628
pių	-13629
pėj	-13630
rez	-13631
rie	-13632
riu	-13633
stą	-13634
sul	-13635
sut	-13636
tem	-13637
til	-13638
tre	-13639
tėj	-13640
ues	-13641
urk	-13642
ute	-13643
van	-13644
vaz	-13645
yrė	-13646
ėdų	-13647
ėnų	-13648
ėto	-13649
ūtų	-13650
žiu	-13651
žod	-13652
▁("	-13653
▁-,	-13654
▁47	-13655
▁51	-13656
▁64	-13657
▁66	-13658
▁7.	-13659
▁81	-13660
▁9.	-13661
▁EA	-13662
▁EM	-13663
▁Ed	-13664
▁Ge	-13665
▁Gy	-13666
▁KG	-13667
▁Kh	-13668
▁Mu	-13669
▁Ol	-13670
▁Se	-13671
▁Są	-13672
▁TF	-13673
▁Ta	-13674
▁fl	-13675
▁gv	-13676
▁gė	-13677
▁hl	-13678
▁ik	-13679
▁tu	-13680
▁įp	-13681
7-02	-13682
AIDS	-13683
Bals	-13684
ITES	-13685
Jung	-13686
Kalb	-13687
Nord	-13688
SEAN	-13689
aida	-13690
aime	-13691
ainų	-13692
aktį	-13693
alos	-13694
angų	-13695
apeš	-13696
arie	-13697
arių	-13698
audo	-13699
aulo	-13700
avig	-13701
azir	-13702
ažai	-13703
bach	-13704
chaz	-13705
chto	-13706
cker	-13707
dalį	-13708
doro	-13709
dujų	-13710
ekst	-13711
ektų	-13712
elig	-13713
elle	-13714
enui	-13715
erci	-13716
eriu	-13717
eruz	-13718
esne	-13719
ezai	-13720
feld	-13721
grei	-13722
grup	-13723
iamo	-13724
iate	-13725
ieti	-13726
inpr	-13727
ioti	-13728
irem	-13729
irst	-13730
kmar	-13731
lian	-13732
liej	-13733
menk	-13734
nuos	-13735
olis	-13736
omer	-13737
ondo	-13738
oreg	-13739
otis	-13740
otus	-13741
pozi	-13742
prat	-13743
pris	-13744
ries	-13745
rumą	-13746
soni	-13747
stis	-13748
teir	-13749
tero	-13750
tikl	-13751
tinu	-13752
tvir	-13753
ulio	-13754
urta	-13755
utės	-13756
verž	-13757
viln	-13758
visi	-13759
visų	-13760
ybir	-13761
yklų	-13762
ynes	-13763
zias	-13764
ūkio	-13765
žius	-13766
▁1,2	-13767
▁120	-13768
▁121	-13769
▁27,	-13770
▁800	-13771
▁Ant	-13772
▁Bat	-13773
▁Bel	-13774
▁Bor	-13775
▁Car	-13776
▁CŽV	-13777
▁DTP	-13778
▁Est	-13779
▁Far	-13780
▁Gra	-13781
▁Gre	-13782
▁Ist	-13783
▁Jan	-13784
▁Jus	-13785
▁Kab	-13786
▁Kal	-13787
▁Kam	-13788
▁Kat	-13789
▁Kit	-13790
▁Kun	-13791
▁Kuo	-13792
▁Lar	-13793
▁Mas	-13794
▁Mik	-13795
▁Nob	-13796
▁Oro	-13797
▁Sut	-13798
▁TVT	-13799
▁Ten	-13800
▁USD	-13801
▁Vas	-13802
▁Vaš	-13803
▁Vyk	-13804
▁Vėl	-13805
▁alb	-13806
▁apd	-13807
▁ber	-13808
▁bro	-13809
▁com	-13810
▁dev	-13811
▁dil	-13812
▁dog	-13813
▁dyz	-13814
▁ekr	-13815
▁esą	-13816
▁hek	-13817
▁isp	-13818
▁koj	-13819
▁lau	-13820
▁led	-13821
▁liū	-13822
▁roj	-13823
▁rož	-13824
▁sių	-13825
▁sūn	-13826
▁til	-13827
▁vel	-13828
▁šūk	-13829
▁žav	-13830
(2010	-13831
)0963	-13832
adien	-13833
adome	-13834
agreb	-13835
aikos	-13836
akius	-13837
aliam	-13838
aliej	-13839
alnio	-13840
amame	-13841
amped	-13842
amąja	-13843
aniją	-13844
ankst	-13845
anome	-13846
antos	-13847
arais	-13848
aryti	-13849
atome	-13850
atyva	-13851
aukas	-13852
blino	-13853
chell	-13854
chner	-13855
dabar	-13856
džios	-13857
ekiją	-13858
ektro	-13859
elius	-13860
enama	-13861
enktų	-13862
ensen	-13863
entės	-13864
enčia	-13865
ernob	-13866
estor	-13867
galės	-13868
gomis	-13869
greso	-13870
hutto	-13871
ijimu	-13872
ijusi	-13873
imoje	-13874
imtys	-13875
imybę	-13876
integ	-13877
inyje	-13878
inčij	-13879
iolog	-13880
iplėš	-13881
itams	-13882
itetą	-13883
jeigu	-13884
jokių	-13885
kartu	-13886
kurdo	-13887
likai	-13888
minis	-13889
muose	-13890
ojamų	-13891
okime	-13892
olski	-13893
omagn	-13894
omisi	-13895
parod	-13896
pasak	-13897
perat	-13898
pijos	-13899
pulti	-13900
sitės	-13901
stama	-13902
sterd	-13903
stimi	-13904
taptų	-13905
tariz	-13906
terio	-13907
tinsą	-13908
tipri	-13909
uliai	-13910
umams	-13911
umoje	-13912
undes	-13913
undus	-13914
undži	-13915
uniok	-13916
uogių	-13917
uomon	-13918
uošir	-13919
usiam	-13920
varta	-13921
ybnuo	-13922
ydavo	-13923
yklių	-13924
ymais	-13925
ymams	-13926
ystir	-13927
ysčių	-13928
ytoje	-13929
čiųjų	-13930
ėsite	-13931
ėties	-13932
šiuos	-13933
▁(142	-13934
▁1975	-13935
▁1979	-13936
▁1999	-13937
▁Atas	-13938
▁Audy	-13939
▁Beje	-13940
▁Bent	-13941
▁Blai	-13942
▁Blok	-13943
▁Boel	-13944
▁Dirb	-13945
▁Fras	-13946
▁Galų	-13947
▁Gauz	-13948
▁Jean	-13949
▁KKPS	-13950
▁Kada	-13951
▁Kall	-13952
▁Kamp	-13953
▁Klim	-13954
▁Koks	-13955
▁Kyla	-13956
▁Lama	-13957
▁Lang	-13958
▁Lich	-13959
▁Mask	-13960
▁Mian	-13961
▁Mins	-13962
▁Neap	-13963
▁Neiš	-13964
▁Neuž	-13965
▁Penk	-13966
▁Pits	-13967
▁Rehn	-13968
▁Reng	-13969
▁Seiš	-13970
▁Teik	-13971
▁Tokį	-13972
▁akių	-13973
▁ambi	-13974
▁arog	-13975
▁azar	-13976
▁bijo	-13977
▁biok	-13978
▁buvę	-13979
▁cenz	-13980
▁ekon	-13981
▁entu	-13982
▁gars	-13983
▁gimt	-13984
▁grob	-13985
▁grįš	-13986
▁homo	-13987
▁jaud	-13988
▁joks	-13989
▁juda	-13990
▁kanc	-13991
▁kant	-13992
▁laid	-13993
▁mažo	-13994
▁mažą	-13995
▁meno	-13996
▁namo	-13997
▁nenu	-13998
▁nesm	-13999
▁neto	-14000
▁nuod	-14001
▁nuot	-14002
▁paci	-14003
▁pato	-14004
▁pirš	-14005
▁plėš	-14006
▁porn	-14007
▁prab	-14008
▁pros	-14009
▁rado	-14010
▁rand	-14011
▁salę	-14012
▁sfer	-14013
▁slop	-14014
▁slėp	-14015
▁stim	-14016
▁stum	-14017
▁sutr	-14018
▁tame	-14019
▁tiki	-14020
▁tipų	-14021
▁tram	-14022
▁tuną	-14023
▁tuom	-14024
▁turk	-14025
▁turt	-14026
▁upių	-14027
▁važi	-14028
▁vizą	-14029
▁vėli	-14030
▁įsiv	-14031
▁Šiai	-14032
▁Šias	-14033
▁šaud	-14034
▁šnip	-14035
acinių	-14036
aidymo	-14037
ainiui	-14038
alizmo	-14039
aliąją	-14040
amblio	-14041
areikš	-14042
artėti	-14043
asisek	-14044
atinių	-14045
atuose	-14046
bendra	-14047
didelį	-14048
dviejų	-14049
eibori	-14050
eidimą	-14051
eistos	-14052
eitimo	-14053
feroje	-14054
iamasi	-14055
ietimo	-14056
inieji	-14057
iniųjų	-14058
inkite	-14059
isteng	-14060
iškais	-14061
jungti	-14062
kiamas	-14063
kurdas	-14064
nebuvo	-14065
negali	-14066
odaros	-14067
ojamas	-14068
ojimui	-14069
ometro	-14070
omiems	-14071
ontrol	-14072
orinis	-14073
pasaul	-14074
reikal	-14075
rutavo	-14076
sijung	-14077
tajame	-14078
tinant	-14079
tintos	-14080
turėjo	-14081
uosite	-14082
ursime	-14083
veikia	-14084
vokime	-14085
ymuose	-14086
žmonių	-14087
▁2006/	-14088
▁ASEAN	-14089
▁Aleks	-14090
▁Antar	-14091
▁Arabų	-14092
▁Balio	-14093
▁Banko	-14094
▁Biuro	-14095
▁Broko	-14096
▁Buvau	-14097
▁Dievo	-14098
▁Euras	-14099
▁Griež	-14100
▁Jeruz	-14101
▁Kaimo	-14102
▁Kapit	-14103
▁Kaulo	-14104
▁Ketin	-14105
▁Kipre	-14106
▁Klinz	-14107
▁Kokie	-14108
▁Kroes	-14109
▁Lėšos	-14110
▁Nauja	-14111
▁Nicos	-14112
▁Numat	-14113
▁Pirmą	-14114
▁Praei	-14115
▁REACH	-14116
▁Remiu	-14117
▁Saudo	-14118
▁Schly	-14119
▁Techn	-14120
▁Vieną	-14121
▁Visuo	-14122
▁adekv	-14123
▁agres	-14124
▁airių	-14125
▁akred	-14126
▁antpl	-14127
▁apgau	-14128
▁atkur	-14129
▁atsim	-14130
▁aukas	-14131
▁baudų	-14132
▁bejėg	-14133
▁besid	-14134
▁bever	-14135
▁biurą	-14136
▁brand	-14137
▁būklę	-14138
▁ciklą	-14139
▁darau	-14140
▁darnų	-14141
▁drąsą	-14142
▁fondu	-14143
▁forum	-14144
▁galas	-14145
[...]
