<pad>	0
</s>	0
<unk>	0
▁	-2.15551
ကို	-3.85329
၊	-3.90803
သော	-4.02413
သည်	-4.22959
မ	-4.43467
အ	-4.44475
ရ	-4.56303
▁အ	-4.64331
၌	-4.68684
၍	-4.75612
နှင့်	-4.86549
း	-4.90377
ကြ	-4.95469
တ	-5.04819
လ	-5.11468
▁မ	-5.1444
တော်	-5.21907
့	-5.22057
၏	-5.22543
သ	-5.22999
င်	-5.23125
က်	-5.24846
်	-5.25735
၍၊	-5.32043
က	-5.3323
ု	-5.33699
တို့ကို	-5.38352
ထ	-5.40525
တို့သည်	-5.4077
စေ	-5.41929
စ	-5.43495
▁ထို	-5.44104
ကြ၏။	-5.45393
၏။	-5.48225
သား	-5.49655
▁ငါ	-5.50399
ို	-5.5118
ပါ	-5.53159
ရှ	-5.54497
သို့	-5.54933
တော်မူ	-5.55339
မှ	-5.57995
န်	-5.61659
ခ	-5.62137
န	-5.62949
ခြင်း	-5.63125
ရာ	-5.64045
ရှိ	-5.64896
တို့	-5.65154
ပ	-5.67139
ဲ	-5.68103
ဖြစ်	-5.6879
။	-5.70267
ပြု	-5.71277
သောသူ	-5.72749
ဝ	-5.73242
င်း	-5.7352
ွ	-5.74004
ောက်	-5.7423
ဆ	-5.75806
ောင်	-5.76178
ဒ	-5.76587
မြို့	-5.76852
ပ်	-5.78437
ံ	-5.80026
ာ	-5.80715
ဟု	-5.81517
▁တ	-5.83214
ပြည်	-5.84445
ဖ	-5.84601
ေ	-5.87323
အား	-5.8935
တ်	-5.90155
ိ	-5.95857
▁ထာဝရဘုရား	-5.98967
▁သင်တို့	-6.02212
ပေး	-6.03069
သွား	-6.04237
များ	-6.05703
နေ	-6.07409
လာ	-6.08461
ေး	-6.08632
ော	-6.09055
သူ	-6.10808
ဗ	-6.11021
ချ	-6.1295
ည်	-6.12998
▁အကျွန်ုပ်	-6.1565
ယ	-6.17517
ထား	-6.17771
လေ၏။	-6.18035
သေ	-6.19812
ကြီး	-6.20207
ုံ	-6.20995
လျှင်၊	-6.21017
ဘ	-6.21451
နာ	-6.21745
▁ငါ့	-6.21751
▁လူ	-6.24566
▁သူတို့	-6.24575
နှစ်	-6.25971
မည်။	-6.27542
စား	-6.28393
၎င်း၊	-6.30398
သိ	-6.30851
ခံ	-6.31031
▁ပ	-6.32472
ူ	-6.34224
လည်း	-6.35119
မည်	-6.35148
မ်း	-6.35481
ပြီ။	-6.35577
န်း	-6.35758
လျက်	-6.36512
အရာ	-6.36893
▁ဤ	-6.37728
တော်မူ၏။	-6.37822
ယ်	-6.37976
ှ	-6.39158
မြင်	-6.40584
လိမ့်မည်။	-6.41232
နား	-6.41869
▁ဘုရားသခင်	-6.42148
ုတ်	-6.42344
ပြ	-6.42386
▁မိမိ	-6.42626
တွင်	-6.44114
▁သူ	-6.44297
္	-6.44301
ပြော	-6.45593
ကျ	-6.46159
▁ကိုယ်	-6.46161
ဆောင်	-6.46383
သာ	-6.46409
လက်	-6.46562
ဟ	-6.4724
သက်	-6.47351
ပင်	-6.48771
ဆို	-6.49327
မြ	-6.50467
▁အာ	-6.51242
ုန်	-6.51963
အမှု	-6.52518
▁ကိုယ်တော်	-6.53058
တတ်	-6.53309
တော်ကို	-6.54623
စွာ	-6.55204
မိ	-6.56859
လူ	-6.56894
အမျိုး	-6.57506
ုပ်	-6.57595
လျက်၊	-6.60155
ကျွန်	-6.60567
ဂ	-6.61226
ရိ	-6.62442
မျှ	-6.64393
မှာ	-6.65583
ခြင်းကို	-6.65683
ကြောင့်	-6.65789
လိုက်	-6.66887
လျှင်	-6.66955
▁ထိုသူ	-6.67726
တောင်	-6.67917
ဘက်	-6.68248
နိုင်	-6.68734
ရော	-6.71584
ကြား	-6.71861
အိမ်	-6.72023
ူး	-6.72388
က၊	-6.72732
မင်း	-6.72813
ယော	-6.73014
ီး	-6.73773
ရမည်။	-6.73921
လုပ်	-6.74345
▁ငါသည်	-6.74846
▁ထ	-6.74901
မရှိ	-6.74971
လုံး	-6.76304
▁န	-6.76571
လေ	-6.77028
ရှု	-6.7723
ပေါ်မှာ	-6.77347
အရပ်	-6.77963
စေခြင်းငှါ	-6.77965
နေ့	-6.78064
လော့။	-6.78345
ိတ်	-6.78688
▁သင်၏	-6.78907
လော	-6.79005
ထွက်	-6.79064
▁သင်သည်	-6.79086
ါ	-6.79393
ကဲ့သို့	-6.79398
အားဖြင့်	-6.80014
ဘဲ	-6.80594
စိတ်	-6.80868
ျ	-6.81584
နှုတ်	-6.81674
ဆယ်	-6.81777
ဇ	-6.8214
ရောက်	-6.83568
ကြလော့။	-6.83807
မာ	-6.84128
ည	-6.84236
နှ	-6.84794
သခင်	-6.85366
ယူ	-6.85804
ရှိသော	-6.86027
▁သင်	-6.86177
▁သင်တို့သည်	-6.86282
▁နေ	-6.86381
ခြင်းငှါ	-6.8657
▁ထိုသို့	-6.87404
နည်း	-6.87407
သဖြင့်၊	-6.8797
▁ပြု	-6.88312
တည်	-6.88465
▁သူတို့သည်	-6.88574
ရှိ၏။	-6.88584
စ်	-6.88812
၎င်း	-6.89265
သောအခါ၊	-6.89701
နောက်	-6.90801
ခါ	-6.90928
▁ကျ	-6.9126
စီရင်	-6.91695
အတိုင်း	-6.92274
ငယ်	-6.92786
ောင်း	-6.93071
ွေ	-6.93574
ဝင်	-6.94106
ဦး	-6.94578
▁သ	-6.94876
တပါး	-6.95549
ကား	-6.9576
အဘ	-6.95804
ကာလ	-6.95878
ပါ၏။	-6.95896
▁သူ၏	-6.96291
တရား	-6.96454
ကြလိမ့်မည်။	-6.96637
စုံ	-6.96785
▁ငါတို့	-6.9704
လှ	-6.97579
ကလည်း၊	-6.9817
▁ယုဒ	-6.98325
▁ထာဝရဘုရားသည်	-6.98332
▁ရောက်	-6.9901
စကား	-7.00114
တယောက်	-7.00453
▁က	-7.00597
တော်မူသော	-7.01673
စာ	-7.01812
မည်ဟု	-7.01867
ိမ်	-7.01915
ြ	-7.02605
မဟုတ်	-7.0279
ပေါ်	-7.02944
သံ	-7.03646
ရှိသမျှ	-7.03813
▁အပြစ်	-7.04506
ော်	-7.06111
များကို	-7.0627
ား	-7.06362
မိန်းမ	-7.06654
အပေါင်းတို့	-7.06775
▁ဘုရား	-7.06839
တိ	-7.07005
လမ်း	-7.07094
လျှောက်	-7.07117
ရေ	-7.07469
သည်လည်း	-7.07554
စကားကို	-7.07626
▁တဖန်	-7.07833
ဆင်း	-7.0791
ထက်	-7.08144
ဖြစ်၏။	-7.08552
အကြောင်း	-7.08657
▁သား	-7.08677
စု	-7.08891
▁လက်	-7.09721
ရှာ	-7.10723
ီ	-7.10831
ချင်း	-7.1107
တိုင်အောင်	-7.11279
ဆုံး	-7.11876
စောင့်	-7.13079
ခွ	-7.13453
တို့အား	-7.13811
သုံး	-7.14198
ဘုရားသခင်	-7.14647
ပြီး	-7.15226
အဘို့	-7.15732
ရ။	-7.1581
န့်	-7.16086
▁ထာဝရဘုရား၏	-7.16134
သတ်	-7.16164
ပြင်	-7.16424
ရက်	-7.16587
ခေါ်	-7.16759
▁ဖြစ်	-7.16836
ကို၎င်း၊	-7.1697
▁ထိုအခါ	-7.17182
သည်ဟု	-7.17474
တ္တ	-7.17722
▁ရေ	-7.18373
စရာ	-7.19143
ငါ	-7.19247
သည်ကား၊	-7.19344
ဖြင့်	-7.1962
တို့၏	-7.19936
ေါ	-7.20143
▁ပြ	-7.20248
ဘုရား	-7.20411
ရဲ	-7.2141
▁ဣသရေလ	-7.21801
ဟာ	-7.21851
မှီ	-7.22136
ပြန်	-7.22517
ရှင်ဘုရင်	-7.22545
ွား	-7.22898
ပေါင်း	-7.23021
အသီး	-7.23046
အမျိုးသား	-7.23187
စဉ်	-7.23224
တိုင်	-7.24434
သတည်း။	-7.2445
▁သူ့	-7.24503
ကြည့်	-7.24804
ခဲ့	-7.25141
စစ်	-7.25314
▁ဧ	-7.25561
နှင့်။	-7.25646
▁မိန့်တော်မူ၏။	-7.25887
ကား၊	-7.25896
▁ယေ	-7.25905
ကျင့်	-7.25947
ရှေ့	-7.26099
ခံရ	-7.26115
▁အသက်	-7.26359
ဝတ်	-7.26827
ဘို့	-7.26843
ဝေး	-7.27545
ယေရှု	-7.27756
ဏ	-7.27774
ကျေးဇူး	-7.28009
လင်	-7.28009
▁ပြန်	-7.28708
▁သင့်	-7.28806
ယဇ်	-7.29181
▁သန့်ရှင်း	-7.29385
▁အကြောင်းမူကား၊	-7.29427
တွေ့	-7.29788
မည်အကြောင်း	-7.29881
▁ကောင်းကင်	-7.30614
ရသော	-7.30618
▁ကောင်း	-7.30753
မျိုး	-7.3083
▁ရှင်ဘုရင်	-7.31223
အပေါင်းတို့သည်	-7.31264
အမှုကို	-7.31422
▁မြို့	-7.31447
တည်း	-7.31777
လည်	-7.318
▁ငါ့ကို	-7.32041
ဆက်	-7.32254
ကောင်	-7.32439
▁အဘယ်သူ	-7.32512
▁ဒါဝိဒ်	-7.32628
အပြစ်	-7.32664
တံ	-7.32705
တင်	-7.33159
▁အို	-7.33236
သောသူသည်	-7.33671
သောကြောင့်၊	-7.33953
▁မိန့်တော်မူ	-7.33967
တတ်၏။	-7.33978
င	-7.33985
သမျှ	-7.34036
လယ်	-7.34701
▁သူသည်	-7.35061
▁ရှိ	-7.3531
တူ	-7.35458
လိ	-7.36098
▁ယဇ်ပုရောဟိတ်	-7.36789
လေး	-7.37307
အလို	-7.37401
သနည်း။	-7.37818
တိုက်	-7.37872
ခြင်း၊	-7.37907
ကိုလည်း	-7.3793
မျက်နှာ	-7.38202
▁ဘုရားသခင်၏	-7.38446
ေလ	-7.38853
ရပ်	-7.39011
▁အဘယ်	-7.39188
ကောင်း	-7.3934
သမီး	-7.4044
▁တရား	-7.40448
▁ဣသရေလအမျိုး	-7.40452
တို့၌	-7.42066
▁ငါ၏	-7.42383
မင်းကြီး	-7.42597
ခြေ	-7.4269
နေရာ	-7.42798
▁သိုး	-7.42976
စီး	-7.43018
▁မြေ	-7.4311
အခွင့်	-7.43239
▁ယခု	-7.44333
ပျက်	-7.44342
တံခါး	-7.44471
▁မောရှေ	-7.44472
ဗာ	-7.44491
ထဲက	-7.45893
ထံသို့	-7.46724
ကြောင်းကို	-7.46818
ဇာ	-7.4698
▁ဆို	-7.47404
မှတ်	-7.48135
နိုင်ငံ	-7.48688
မှန်	-7.48705
ကြွ	-7.48854
သွား၍	-7.49003
နိ	-7.49075
ခြ	-7.49188
ချက်	-7.49439
ရှေ့မှာ	-7.50618
▁ခံရ	-7.50769
သော်၊	-7.51019
လူတို့	-7.52548
မ္မ	-7.52692
▁မိ	-7.52869
▁အဘယ်သို့	-7.53087
တွင်း	-7.53378
မှစ၍	-7.5368
ပူဇော်	-7.54602
သောအခါ	-7.54646
▁မီး	-7.54669
သဖြင့်	-7.5495
ဝိညာဉ်	-7.55042
သိမ်း	-7.55214
သကဲ့သို့	-7.55388
တည်း။	-7.5549
ရန်	-7.56068
တိုင်း	-7.5633
ဣ	-7.56757
ဆီ	-7.56996
▁အလွန်	-7.58306
အချိန်	-7.58404
▁ဣသရေလအမျိုးသား	-7.5853
သော်လည်း၊	-7.58766
▁ယေရုရှလင်မြို့	-7.59599
▁သူတို့ကို	-7.59606
လော့ဟု	-7.59763
သည်ကို	-7.60025
မူကား၊	-7.60125
ဥစ္စာ	-7.60241
ကုန်	-7.60247
ပြီးမှ၊	-7.60576
လွှတ်	-7.60768
နှင့်အတူ	-7.609
ဟော	-7.61
▁သင့်ကို	-7.6126
ရွှေ	-7.61539
▁ထာဝရ	-7.61567
တည်းဟူသော	-7.62524
စေလွှတ်	-7.62646
မတ်	-7.63206
ပြီးလျှင်၊	-7.64016
နှင့်တကွ	-7.64019
ျာ	-7.64165
တော်မူပါ။	-7.64175
ွယ်	-7.6435
ငွေ	-7.65166
▁မြေကြီး	-7.65305
၏သား	-7.65947
ပညာ	-7.66571
ဇိ	-7.66583
သည်အတိုင်း၊	-7.67139
အပ်	-7.67198
ပညတ်	-7.67259
ခုနစ်	-7.67596
ကြ။	-7.67714
ွန်း	-7.67986
ဘေး	-7.68037
ပို	-7.68084
ကာ	-7.68631
ကျိန်	-7.68682
လူမျိုး	-7.68752
အရှင်	-7.69085
လွတ်	-7.69181
ထဲသို့	-7.69184
မြောက်	-7.69196
မင်္ဂလာ	-7.70233
တမန်	-7.70554
လိမ့်	-7.70854
ဘော်	-7.71303
မြေ	-7.71341
လိမ့်မည်ဟု	-7.71759
အံ့	-7.7182
▁အစဉ်	-7.71845
ချစ်	-7.71997
ငါး	-7.72438
ဆိုး	-7.72951
ထံ	-7.73604
▁ငါတို့သည်	-7.74446
ထိ	-7.74732
အရပ်၌	-7.74826
ဥ	-7.74974
ယာ	-7.75059
ပြား	-7.75321
ဘွယ်	-7.75575
ခြင်းသို့	-7.75606
ရှေ့တော်၌	-7.76109
လွန်	-7.7627
မြို့သို့	-7.76445
ဟေ	-7.77019
ဆိုင်	-7.77981
မြစ်	-7.78198
မိန့်တော်မူ	-7.79175
လျက်ရှိ	-7.80275
▁ကိုယ်တော်သည်	-7.80376
ကျိုး	-7.80756
ယူ၍	-7.80796
အမျက်	-7.8106
လဲ	-7.81488
ပွဲ	-7.81953
သလော။	-7.8214
▁လူများ	-7.82451
တို့တွင်	-7.82687
ဟူမူကား၊	-7.83345
ညီ	-7.83414
ပြီဟု	-7.83549
ကြွင်း	-7.83831
ယုံကြည်	-7.83956
လူတို့သည်	-7.84124
▁မိမိတို့	-7.84238
?????????	-7.84507
▁အဲဂုတ္တုပြည်	-7.85396
ပါ။	-7.85457
▁ထိုကြောင့်	-7.86627
▁မိုဃ်း	-7.86647
ဖျက်ဆီး	-7.86858
ပယ်	-7.88252
မြတ်	-7.88614
ဂါ	-7.88957
ညီအစ်ကို	-7.88983
ဘုန်း	-7.88993
ရွေး	-7.89454
မယား	-7.89458
န္	-7.89873
သစ်	-7.90195
တန်ဆာ	-7.9028
မုန့်	-7.90642
ပိုင်	-7.91212
ဖြောင့်	-7.91815
ခေါင်း	-7.91818
ထာဝရဘုရား	-7.92257
ဒုစရိုက်	-7.93599
ထင်ရှား	-7.93599
ဘိ	-7.93758
ကယ်	-7.93772
မိုက်	-7.93824
ဘွား	-7.93825
ပြစ်မှား	-7.94277
တန်ခိုး	-7.94958
ရွာ	-7.95443
ဟူ၍	-7.95655
ဝမ်းမြောက်	-7.968
▁သို့ဖြစ်၍	-7.97075
ဆို၏။	-7.97166
မှာထား	-7.97652
လှည့်	-7.97736
ရိုး	-7.97838
ခြောက်	-7.98263
မြင့်	-7.98655
အတွက်	-7.99388
သည်ဖြစ်၍၊	-7.99462
တော်မမူ	-7.99627
ချီးမွမ်း	-7.99866
ပစ်	-8.00069
▁ရှေ	-8.01692
ဗိုလ်	-8.0229
သဘော	-8.02302
▁အသက်ရှင်	-8.0254
▁အဘယ်ကြောင့်	-8.0352
ပူဇော်သက္ကာ	-8.03773
ယောက်ျား	-8.04023
ပတ်လုံး	-8.04027
ချီ	-8.04553
▁သို့သော်လည်း	-8.05752
စိတ်နှလုံး	-8.05786
▁ဧလ	-8.06336
သနည်းဟု	-8.06813
သူရဲ	-8.06846
ဘူး	-8.07584
▁ကယ်တင်	-8.0837
အမွေ	-8.08664
နားမှာ	-8.09041
ဇေ	-8.0923
အကြံ	-8.10071
ဖွဲ့	-8.10202
▁ဗေ	-8.10636
▁ဂိ	-8.11215
ထိုင်	-8.11238
ရွက်	-8.11867
မျက်စိ	-8.1208
▁ယနေ့	-8.12715
အမိန့်တော်	-8.13168
▁ယာကုပ်	-8.13441
မျက်	-8.13607
ကြိုး	-8.14618
▁ရှောလု	-8.1538
စွန့်	-8.15384
▁နောက်တဖန်	-8.15661
▁ကျွန်တော်	-8.15876
▁သစ္စာ	-8.15941
▁ဗိမာန်တော်	-8.16223
ဖြေ	-8.16512
အမျိုးသားတို့	-8.16649
ခမည်းတော်	-8.17073
ငြိမ်	-8.17358
▁သို့ရာတွင်	-8.17359
ညှဉ်းဆဲ	-8.17644
ဒဏ်	-8.17648
ပလ္လင်	-8.17922
အိပ်	-8.18709
▁အခြားသော	-8.19795
အချို့	-8.20547
အဆွေအမျိုး	-8.21109
ဧ	-8.21157
▁ခရစ်တော်	-8.2263
ဖြစ်စေ၊	-8.24587
တိရစ္ဆာန်	-8.25374
▁မီးရှို့	-8.25683
▁ပြည့်စုံ	-8.25684
အခြား	-8.26182
ဘိုးဘေး	-8.26306
အသွေး	-8.2662
▁မတရားသော	-8.27562
▁ယဇ်ပလ္လင်	-8.2757
စွဲ	-8.28214
အောက်မေ့	-8.28833
▁ပြောဆို	-8.29449
ရကြမည်။	-8.29608
ဌာန	-8.29703
▁အာရုန်	-8.29808
ထဲမှာ	-8.29813
ခန့်ထား	-8.30124
သွင်း	-8.31466
ညဉ့်	-8.36134
နှစ်ယောက်	-8.36144
ချမ်းသာ	-8.36827
ဖြတ်	-8.37175
▁တဲတော်	-8.37241
▁????????????	-8.3752
ရုပ်တု	-8.38573
မည်နည်း။	-8.39283
▁ဗာဗုလုန်	-8.40712
သော်လည်း	-8.41018
▁စစ်တိုက်	-8.41096
▁ဟောပြော	-8.41115
ိညာဉ်	-8.42205
ဖျက်	-8.42537
ပါစေသော။	-8.43267
ခရီး	-8.43658
မွေး	-8.44474
အဝတ်ကို	-8.44909
▁တပါးအမျိုးသား	-8.45059
သီချင်း	-8.45136
ပေါက်	-8.45149
▁ဆုတောင်း	-8.4551
ပျောက်	-8.45525
ကြောက်ရွံ့	-8.47418
ကိုးကွယ်	-8.47419
ငှာ	-8.47424
ရှောလမုန်	-8.47804
▁ခပ်သိမ်းသော	-8.48192
▁ဖိလိတ္တိ	-8.48192
ကဲ့ရဲ့	-8.48972
ဗျာဒိတ်	-8.49758
ပယ်ရှင်း	-8.50155
မြော်လင့်	-8.5055
ပျို	-8.5056
နှင့်အညီ	-8.50966
ဆင့်ဆို	-8.51348
လွှဲ	-8.5175
ဖုံး	-8.51772
ဥာဏ်	-8.52558
သိတင်း	-8.52988
သေတ္တာ	-8.53375
ကရုဏာ	-8.54194
စပျစ်ရည်	-8.55439
လျော့	-8.55439
▁အရှင်ထာဝရဘုရား	-8.55867
ထံတော်သို့	-8.56704
ငိုကြွေး	-8.57123
အသရေ	-8.57257
▁လေဝိသား	-8.57548
▁ယောသပ်	-8.57977
ချိုး	-8.58871
ချီးမြှောက်	-8.6014
ဖန်ဆင်း	-8.60371
ရှိရာသို့	-8.61052
ဖွင့်	-8.61907
ဌ	-8.63382
ကျမ်းစာ	-8.63711
ချိန်	-8.64104
တစုံတခု	-8.64615
အံ့သောငှါ	-8.65074
ဆွဲ	-8.65094
ကျွေး	-8.66046
တောင်းပန်	-8.66463
▁ပရိသတ်	-8.66464
လျောက်	-8.66475
သန့်ရှင်း	-8.66599
▁သက်သေခံ	-8.674
မူကား	-8.68174
▁တပည့်တော်တို့	-8.69312
အမျိုးအနွယ်	-8.69348
▁အာဗြဟံ	-8.70749
နှင်ထုတ်	-8.71727
▁မိုဃ်းကောင်းကင်	-8.71727
တပည့်	-8.72208
အော်ဟစ်	-8.72715
▁အိုထာဝရဘုရား၊	-8.73216
သင်္ဘော	-8.73712
အုပ်စိုး	-8.7472
ညစ်ညူး	-8.75228
မြည်တမ်း	-8.75228
▁အကယ်စင်စစ်	-8.75228
▁ပေါလု	-8.75738
▁နံနက်	-8.76766
ချိုင့်	-8.76766
ကျိပ်	-8.77292
နံ့သာ	-8.77805
ငြင်း	-8.7833
ဤ	-9.6835
ဩ	-9.74885
ဃ	-9.74895
ဦ	-9.74905
ဉ	-9.74915
၎	-9.74925
?	-9.74935
