<pad>	0
</s>	0
<unk>	0
▁p	-0
ti	-1
ai	-2
ri	-3
os	-4
▁k	-5
▁s	-6
in	-7
au	-8
as	-9
ar	-10
▁t	-11
ir	-12
al	-13
▁n	-14
is	-15
im	-16
an	-17
en	-18
▁d	-19
am	-20
us	-21
▁v	-22
▁ir	-23
at	-24
ei	-25
ad	-26
▁b	-27
om	-28
ij	-29
▁m	-30
es	-31
ro	-32
ių	-33
on	-34
ės	-35
ek	-36
tin	-37
▁g	-38
er	-39
oj	-40
uri	-41
li	-42
▁š	-43
ra	-44
▁su	-45
▁kad	-46
▁j	-47
▁į	-48
eik	-49
▁pa	-50
▁E	-51
tų	-52
▁r	-53
tik	-54
či	-55
iš	-56
yb	-57
▁pri	-58
aus	-59
▁ne	-60
▁a	-61
st	-62
em	-63
▁l	-64
um	-65
uo	-66
ėl	-67
uro	-68
av	-69
▁T	-70
▁pas	-71
et	-72
▁at	-73
rin	-74
▁iš	-75
▁P	-76
▁kuri	-77
▁tai	-78
urop	-79
ijos	-80
ki	-81
▁Europ	-82
or	-83
ta	-84
arb	-85
aug	-86
to	-87
ant	-88
▁K	-89
ur	-90
▁ši	-91
▁Europos	-92
ži	-93
▁bū	-94
ėj	-95
end	-96
ais	-97
el	-98
▁y	-99
imo	-100
▁ž	-101
id	-102
▁ap	-103
▁vis	-104
eis	-105
omis	-106
▁dėl	-107
yv	-108
▁u	-109
ali	-110
▁pat	-111
gi	-112
▁pr	-113
▁tik	-114
▁po	-115
▁už	-116
▁kai	-117
ien	-118
ink	-119
ym	-120
▁pro	-121
ab	-122
eš	-123
min	-124
▁yra	-125
▁to	-126
oje	-127
▁S	-128
yti	-129
ėm	-130
▁-	-131
cij	-132
usi	-133
ok	-134
uos	-135
ak	-136
un	-137
aik	-138
ie	-139
imą	-140
si	-141
ent	-142
▁re	-143
čiau	-144
iek	-145
▁val	-146
▁in	-147
imas	-148
▁teis	-149
io	-150
▁gal	-151
ui	-152
▁B	-153
pr	-154
▁sk	-155
yk	-156
ama	-157
ia	-158
tr	-159
▁pir	-160
▁par	-161
▁kl	-162
▁A	-163
▁sv	-164
▁M	-165
▁f	-166
aud	-167
▁pad	-168
tu	-169
▁turi	-170
ci	-171
ūs	-172
auj	-173
ame	-174
▁pag	-175
▁reik	-176
lam	-177
styb	-178
ing	-179
▁Komis	-180
ąj	-181
tas	-182
ung	-183
od	-184
vo	-185
cijos	-186
tis	-187
▁valstyb	-188
rim	-189
minink	-190
čių	-191
▁(	-192
ys	-193
te	-194
▁daug	-195
il	-196
▁kaip	-197
▁V	-198
▁klaus	-199
▁J	-200
ams	-201
kai	-202
je	-203
inti	-204
až	-205
▁sav	-206
▁bend	-207
▁veik	-208
ari	-209
ik	-210
▁lab	-211
▁taip	-212
toj	-213
▁per	-214
ime	-215
▁poli	-216
tar	-217
and	-218
ėtų	-219
ūr	-220
▁svarb	-221
aneš	-222
▁darb	-223
ąjung	-224
og	-225
▁nes	-226
▁šal	-227
tos	-228
ūsų	-229
ov	-230
▁tur	-231
eg	-232
▁N	-233
▁o	-234
▁Par	-235
iu	-236
sti	-237
uvo	-238
▁G	-239
▁pirminink	-240
▁Parlam	-241
▁kon	-242
iai	-243
▁D	-244
▁praneš	-245
▁Sąjung	-246
▁2	-247
alb	-248
tą	-249
ija	-250
▁ES	-251
▁būtų	-252
amas	-253
▁did	-254
▁būti	-255
yje	-256
▁Š	-257
▁sus	-258
ans	-259
▁ats	-260
ėti	-261
▁Tai	-262
▁nar	-263
ol	-264
▁pasi	-265
dži	-266
▁man	-267
tat	-268
▁nor	-269
eli	-270
esn	-271
jų	-272
uom	-273
oms	-274
▁susi	-275
▁labai	-276
ami	-277
▁ki	-278
mon	-279
▁savo	-280
yg	-281
▁ek	-282
me	-283
▁vien	-284
rink	-285
eng	-286
inių	-287
anči	-288
▁tar	-289
▁nep	-290
umo	-291
▁bendr	-292
ūl	-293
iau	-294
▁buvo	-295
▁siek	-296
sl	-297
ej	-298
uk	-299
▁apie	-300
ul	-301
▁dar	-302
ybos	-303
ems	-304
auk	-305
eig	-306
▁pak	-307
emon	-308
▁galim	-309
▁prie	-310
▁ar	-311
▁mūsų	-312
onom	-313
tim	-314
ėčiau	-315
ekt	-316
tink	-317
▁laik	-318
▁pl	-319
ačiau	-320
▁L	-321
inės	-322
▁met	-323
šk	-324
ank	-325
▁dal	-326
▁nuo	-327
▁įv	-328
▁nari	-329
▁20	-330
▁Komisijos	-331
▁R	-332
ties	-333
ios	-334
▁priemon	-335
ist	-336
▁tr	-337
▁politik	-338
▁rink	-339
ius	-340
▁ver	-341
ed	-342
ėms	-343
▁ekonom	-344
▁pirmininke	-345
▁spr	-346
oti	-347
▁Tar	-348
amos	-349
tai	-350
ori	-351
tum	-352
▁bet	-353
pa	-354
tikrin	-355
aid	-356
raš	-357
▁gali	-358
avimo	-359
ento	-360
inans	-361
uoti	-362
▁nauj	-363
▁kom	-364
one	-365
▁reikal	-366
▁tarp	-367
ili	-368
▁pasiūl	-369
ome	-370
žv	-371
vir	-372
isk	-373
ymo	-374
als	-375
▁veiks	-376
▁klausim	-377
men	-378
▁finans	-379
oma	-380
▁net	-381
acij	-382
yst	-383
ums	-384
orm	-385
odėl	-386
▁mok	-387
ter	-388
▁mes	-389
▁užtikrin	-390
▁bus	-391
▁įg	-392
jos	-393
▁gyv	-394
▁naud	-395
▁I	-396
▁gr	-397
▁proc	-398
▁sri	-399
ap	-400
▁pav	-401
▁1	-402
▁kar	-403
rind	-404
ang	-405
var	-406
▁jų	-407
▁aps	-408
▁sprend	-409
ag	-410
ėk	-411
ėjo	-412
▁str	-413
▁es	-414
▁žmon	-415
uose	-416
▁sud	-417
uoj	-418
▁jau	-419
▁kurios	-420
bl	-421
iaus	-422
▁nus	-423
▁kalb	-424
▁vyk	-425
abar	-426
eri	-427
▁są	-428
▁darbo	-429
▁kurie	-430
▁vi	-431
▁pateik	-432
lik	-433
▁valstybės	-434
▁tikr	-435
▁"	-436
▁var	-437
▁reikia	-438
▁Sąjungos	-439
tarim	-440
▁norėčiau	-441
▁pagrind	-442
▁kri	-443
▁Parlament	-444
▁ger	-445
▁sieki	-446
▁dir	-447
ektyv	-448
imų	-449
cial	-450
iškai	-451
▁skir	-452
▁taik	-453
▁turėtų	-454
ch	-455
tina	-456
eči	-457
▁e	-458
▁susij	-459
kl	-460
kur	-461
form	-462
tume	-463
oki	-464
blem	-465
▁prieš	-466
▁tiksl	-467
▁pirm	-468
oli	-469
stitu	-470
▁Parlamento	-471
▁disk	-472
erg	-473
tori	-474
uomen	-475
istem	-476
▁Todėl	-477
▁galimyb	-478
do	-479
▁paž	-480
▁problem	-481
tyje	-482
ūros	-483
▁turime	-484
tus	-485
▁saug	-486
yvend	-487
▁pili	-488
▁Man	-489
ini	-490
rak	-491
▁sistem	-492
▁Komisija	-493
gr	-494
kr	-495
eto	-496
ting	-497
▁kur	-498
▁maž	-499
it	-500
▁Ši	-501
▁rez	-502
▁sut	-503
▁pasiūlym	-504
tinės	-505
išk	-506
▁as	-507
▁ak	-508
▁keli	-509
▁jos	-510
▁neg	-511
ški	-512
žvel	-513
▁atv	-514
▁įgyvend	-515
▁i	-516
▁narių	-517
▁bals	-518
ėmis	-519
▁toki	-520
▁susitarim	-521
▁ypa	-522
▁dabar	-523
▁apsaug	-524
dž	-525
▁me	-526
imus	-527
veik	-528
▁atsi	-529
▁im	-530
energ	-531
iz	-532
enk	-533
▁teisės	-534
▁įsi	-535
▁Pir	-536
▁valstybių	-537
▁šį	-538
▁energ	-539
lyg	-540
ėje	-541
ocial	-542
▁pal	-543
▁priv	-544
ūk	-545
ėra	-546
▁ai	-547
▁prek	-548
▁ji	-549
▁neb	-550
▁institu	-551
▁ti	-552
▁atsak	-553
▁priim	-554
▁nustat	-555
tį	-556
yn	-557
tinių	-558
▁Tačiau	-559
▁regi	-560
umą	-561
▁pab	-562
▁metu	-563
inę	-564
ming	-565
▁žin	-566
▁mums	-567
▁šiuo	-568
▁pasau	-569
▁Pone	-570
dėl	-571
▁narės	-572
▁sek	-573
▁ypač	-574
rė	-575
aip	-576
atin	-577
▁tink	-578
▁200	-579
▁daugiau	-580
dami	-581
inio	-582
▁social	-583
ateg	-584
▁šios	-585
erb	-586
▁pon	-587
tau	-588
cija	-589
adarb	-590
du	-591
▁sp	-592
ikos	-593
link	-594
▁suteik	-595
▁reg	-596
erin	-597
▁užtikrinti	-598
ob	-599
amą	-600
acijos	-601
▁bendradarb	-602
▁min	-603
▁išs	-604
ykl	-605
▁tačiau	-606
.,	-607
▁Vis	-608
▁dem	-609
▁kuris	-610
▁pan	-611
ančių	-612
▁nėra	-613
tari	-614
ud	-615
trauk	-616
▁pasak	-617
▁pasiek	-618
imai	-619
▁Taryb	-620
imu	-621
aisv	-622
▁prad	-623
avimas	-624
aš	-625
iudž	-626
▁diskus	-627
▁tam	-628
▁veiksm	-629
▁siekiant	-630
▁nei	-631
▁region	-632
iją	-633
ėtume	-634
▁politikos	-635
kir	-636
inimo	-637
amų	-638
uotoj	-639
ose	-640
▁kriz	-641
ybės	-642
▁bei	-643
pras	-644
▁todėl	-645
aig	-646
virtin	-647
▁aplink	-648
▁nuom	-649
mog	-650
amai	-651
▁aš	-652
ojo	-653
ėmes	-654
▁strateg	-655
andien	-656
ciją	-657
▁sutar	-658
inink	-659
▁mano	-660
ęs	-661
riaus	-662
ėn	-663
▁laisv	-664
por	-665
ijoje	-666
▁padar	-667
▁be	-668
▁dėmes	-669
▁kiek	-670
▁svarbu	-671
par	-672
avimą	-673
▁poži	-674
▁te	-675
▁lyg	-676
▁demok	-677
▁šalių	-678
▁inform	-679
sn	-680
▁mo	-681
▁kas	-682
▁Taip	-683
cion	-684
▁vid	-685
▁bendradarbi	-686
▁visi	-687
▁biudž	-688
▁der	-689
liau	-690
▁atvej	-691
▁Be	-692
▁sum	-693
▁teisių	-694
tab	-695
▁ati	-696
▁gam	-697
▁sektori	-698
vark	-699
▁Gerb	-700
▁žmog	-701
▁li	-702
▁vy	-703
uosi	-704
▁manau	-705
▁atsižvel	-706
ėme	-707
cijų	-708
ečių	-709
▁C	-710
▁ab	-711
anti	-712
eid	-713
▁Nor	-714
▁šių	-715
▁komit	-716
ūri	-717
ųjų	-718
▁jis	-719
eitim	-720
▁frak	-721
uv	-722
▁dv	-723
▁plė	-724
arba	-725
▁visų	-726
▁sąlyg	-727
▁tarptau	-728
▁kol	-729
▁ly	-730
imui	-731
oliu	-732
▁ties	-733
▁viet	-734
▁kel	-735
iausia	-736
rov	-737
auti	-738
▁iki	-739
▁nuos	-740
▁didel	-741
inį	-742
▁na	-743
▁rem	-744
▁Pirminink	-745
rėž	-746
vien	-747
▁šio	-748
antis	-749
▁teik	-750
▁ekonomikos	-751
mės	-752
▁gyven	-753
rib	-754
▁si	-755
klaus	-756
▁veikl	-757
▁Parlamentas	-758
eip	-759
▁žem	-760
▁tais	-761
ep	-762
▁visiškai	-763
▁klausimas	-764
yrim	-765
▁direktyv	-766
aniz	-767
▁srityje	-768
▁tiek	-769
▁ko	-770
▁sudar	-771
yta	-772
dama	-773
▁mėn	-774
▁vad	-775
▁inter	-776
▁or	-777
giant	-778
▁galima	-779
ato	-780
▁naudoj	-781
ęsti	-782
▁auk	-783
▁padė	-784
▁progr	-785
ėg	-786
ūki	-787
▁raš	-788
▁sveik	-789
▁Tarybos	-790
tro	-791
ymą	-792
yse	-793
čia	-794
▁Mes	-795
▁kurį	-796
▁šiandien	-797
avo	-798
ausi	-799
▁metų	-800
▁žmogaus	-801
ež	-802
asi	-803
▁jie	-804
▁kurių	-805
rag	-806
▁prival	-807
osi	-808
ukt	-809
▁pask	-810
▁požiūri	-811
tek	-812
umas	-813
damas	-814
▁rezoliu	-815
▁kov	-816
▁vykd	-817
▁didži	-818
▁pasaul	-819
▁taisykl	-820
inga	-821
osios	-822
▁arba	-823
▁demokra	-824
▁šią	-825
cional	-826
▁kr	-827
inis	-828
▁suk	-829
▁šis	-830
▁pagal	-831
mo	-832
▁ką	-833
20	-834
▁dalyv	-835
cip	-836
▁st	-837
onos	-838
▁kok	-839
▁užd	-840
▁proj	-841
▁įmon	-842
▁vertin	-843
▁Manau	-844
▁skatin	-845
▁žmonių	-846
▁jo	-847
▁laiko	-848
▁pranešimą	-849
ausiai	-850
tip	-851
ncip	-852
▁pagalb	-853
▁princip	-854
▁el	-855
▁pap	-856
▁susijusi	-857
ub	-858
teb	-859
ymas	-860
zi	-861
▁pakeitim	-862
tn	-863
engti	-864
aist	-865
ijai	-866
▁nepri	-867
▁pasir	-868
▁priemonių	-869
gal	-870
inius	-871
▁plan	-872
kiai	-873
▁įst	-874
rijos	-875
▁patvirtin	-876
ici	-877
▁jei	-878
▁sun	-879
▁Sąjunga	-880
ystės	-881
▁įvai	-882
pareig	-883
▁raštu	-884
eigu	-885
▁prod	-886
▁Ž	-887
ada	-888
čio	-889
▁vald	-890
▁visuomen	-891
sp	-892
paž	-893
▁veiksmų	-894
uli	-895
ybę	-896
▁aiški	-897
▁nacional	-898
▁org	-899
tijos	-900
▁sukur	-901
sta	-902
▁atst	-903
▁tyrim	-904
▁ry	-905
▁pilieči	-906
ib	-907
▁fon	-908
▁prekybos	-909
▁įgyvendin	-910
atyv	-911
▁jog	-912
up	-913
▁atlik	-914
▁politin	-915
eisti	-916
▁pasakyti	-917
▁sumaž	-918
▁toliau	-919
▁	-920
i	-921
a	-922
s	-923
t	-924
r	-925
o	-926
e	-927
n	-928
u	-929
k	-930
m	-931
p	-932
l	-933
d	-934
j	-935
v	-936
g	-937
,	-938
b	-939
ų	-940
y	-941
ė	-942
.	-943
š	-944
ą	-945
ž	-946
į	-947
ū	-948
c	-949
č	-950
E	-951
P	-952
T	-953
z	-954
S	-955
f	-956
K	-957
ę	-958
-	-959
0	-960
A	-961
B	-962
M	-963
2	-964
V	-965
(	-966
)	-967
D	-968
N	-969
J	-970
R	-971
G	-972
"	-973
1	-974
L	-975
h	-976
Š	-977
I	-978
:	-979
C	-980
9	-981
?	-982
O	-983
5	-984
U	-985
F	-986
3	-987
4	-988
;	-989
7	-990
8	-991
Ž	-992
6	-993
H	-994
/	-995
Į	-996
