<pad>	0
</s>	0
<unk>	0
s	-3.12784
▁	-3.36309
▁the	-3.49452
.	-3.60316
,	-3.78295
e	-4.00556
t	-4.08446
▁of	-4.17228
▁to	-4.25708
▁in	-4.2739
o	-4.31413
ed	-4.48218
ing	-4.49464
a	-4.53782
▁a	-4.53993
d	-4.5924
y	-4.64923
▁and	-4.65974
c	-4.73403
p	-4.7729
n	-4.79035
m	-4.86496
g	-4.86569
al	-4.95609
▁is	-5.02858
er	-5.07438
i	-5.081
u	-5.09186
ar	-5.09397
in	-5.17101
or	-5.17608
▁be	-5.27051
▁for	-5.29503
▁The	-5.29863
f	-5.3477
h	-5.3693
ur	-5.37185
-	-5.42295
re	-5.4512
▁A	-5.45933
ly	-5.47313
▁c	-5.47529
▁are	-5.47832
l	-5.47952
r	-5.48898
k	-5.51472
▁f	-5.52279
b	-5.54207
▁S	-5.57913
an	-5.59979
es	-5.63125
▁that	-5.63186
▁has	-5.64035
at	-5.64796
▁on	-5.64992
le	-5.64997
on	-5.6526
▁p	-5.66655
en	-5.68008
▁have	-5.72607
it	-5.72966
▁re	-5.76339
▁with	-5.78154
st	-5.78717
▁m	-5.81303
'	-5.81757
ation	-5.81979
ri	-5.82989
▁w	-5.85175
ic	-5.89851
▁b	-5.92532
▁will	-5.94326
▁corona	-5.95719
▁from	-5.96425
ir	-5.96598
se	-5.97372
▁was	-5.98352
ent	-5.98371
us	-5.9928
w	-5.99934
▁P	-6.00433
v	-6.02126
ter	-6.02927
▁not	-6.04448
▁l	-6.04912
▁C	-6.05865
il	-6.06354
▁1	-6.08965
ro	-6.10566
ad	-6.1139
▁M	-6.13438
as	-6.13492
▁by	-6.13805
▁been	-6.16129
is	-6.16989
▁patients	-6.19475
▁as	-6.19861
▁vaccine	-6.20681
▁it	-6.22222
▁at	-6.23579
▁this	-6.24172
th	-6.24209
ve	-6.24454
ol	-6.26423
▁or	-6.29517
▁state	-6.31813
▁T	-6.3222
▁B	-6.32638
▁said	-6.33712
5	-6.35153
ive	-6.35692
)	-6.36153
am	-6.36296
▁co	-6.37066
id	-6.37823
ch	-6.38238
un	-6.38531
ul	-6.39175
▁ex	-6.40007
▁In	-6.40719
j	-6.41221
▁government	-6.41541
▁(	-6.41721
▁"	-6.41796
la	-6.41972
▁people	-6.42495
te	-6.429
ha	-6.43457
li	-6.43966
ig	-6.44579
ce	-6.44693
0	-6.45865
if	-6.45998
▁also	-6.48088
▁de	-6.48703
ac	-6.5
ra	-6.51264
1	-6.52026
sh	-6.52422
out	-6.53093
2	-6.53593
▁g	-6.55428
▁number	-6.56805
?	-6.57266
ion	-6.57445
▁an	-6.57995
vi	-6.5819
ment	-6.59163
▁were	-6.59386
ate	-6.5983
▁do	-6.60081
▁D	-6.60168
▁virus	-6.60565
ne	-6.61362
▁can	-6.61663
el	-6.61966
▁test	-6.6225
op	-6.62309
▁2	-6.62932
9	-6.64162
C	-6.65222
8	-6.6556
▁con	-6.6582
ut	-6.66702
im	-6.67618
-19	-6.68004
tion	-6.69302
ity	-6.7039
▁d	-6.70595
▁K	-6.71209
▁Corona	-6.71676
ers	-6.72277
▁I	-6.7573
mp	-6.75838
x	-6.76218
▁G	-6.76466
ect	-6.77072
▁h	-6.77157
▁pro	-6.77272
4	-6.78653
om	-6.7889
▁should	-6.79572
▁H	-6.80521
▁other	-6.81117
I	-6.81295
ist	-6.81611
ll	-6.81649
▁he	-6.8181
▁India	-6.82278
S	-6.82378
va	-6.82673
▁health	-6.82744
▁no	-6.82862
▁Minister	-6.83702
▁tr	-6.84167
▁so	-6.8446
and	-6.85408
age	-6.85463
▁E	-6.85778
wa	-6.85919
▁ab	-6.86075
▁had	-6.86118
me	-6.87029
▁you	-6.87485
▁me	-6.87589
▁R	-6.91144
▁hospital	-6.9134
um	-6.91889
ant	-6.9318
▁e	-6.93373
qu	-6.93595
▁who	-6.94148
A	-6.94709
:	-6.94782
ies	-6.95862
▁we	-6.96243
3	-6.97538
he	-6.98093
▁all	-6.98205
▁after	-6.98361
▁Maharashtra	-6.98766
▁oxygen	-6.98906
▁ca	-6.9918
▁pre	-6.99377
"	-7.00005
▁COVID	-7.00178
▁W	-7.00332
ho	-7.00619
▁there	-7.01652
▁time	-7.0219
end	-7.02366
da	-7.03093
CoV	-7.03422
▁Dr	-7.03668
▁hand	-7.03842
▁infection	-7.03943
▁F	-7.0401
ial	-7.04802
E	-7.04976
ide	-7.05978
▁J	-7.06384
ta	-7.08467
di	-7.08932
▁disease	-7.09092
ill	-7.09423
▁It	-7.10182
▁more	-7.10407
6	-7.10534
▁3	-7.119
tic	-7.12965
▁This	-7.13225
▁app	-7.13803
har	-7.1396
ction	-7.13999
▁L	-7.15255
▁r	-7.1594
▁lockdown	-7.16676
▁per	-7.16694
ever	-7.16812
▁than	-7.16935
▁vaccination	-7.17181
▁But	-7.17505
▁some	-7.17521
ak	-7.17706
▁O	-7.17786
ther	-7.17827
▁new	-7.18043
▁work	-7.18056
7	-7.18164
ry	-7.20461
vir	-7.20607
han	-7.20751
ach	-7.21238
z	-7.21424
ver	-7.21984
▁under	-7.22036
ab	-7.22791
ated	-7.23101
ia	-7.24001
ical	-7.24481
▁year	-7.26725
ance	-7.27157
tra	-7.27361
▁country	-7.27838
▁Health	-7.2784
ack	-7.28458
▁V	-7.28993
▁days	-7.29803
ard	-7.31624
▁He	-7.31807
hich	-7.31918
ence	-7.33387
▁U	-7.33478
ted	-7.33593
▁need	-7.33916
▁go	-7.34184
▁being	-7.34195
▁4	-7.34215
▁one	-7.34619
O	-7.34806
▁out	-7.35058
hi	-7.35565
▁So	-7.3616
▁but	-7.36242
▁district	-7.37473
▁On	-7.38617
▁N	-7.38759
▁first	-7.38935
ould	-7.39431
▁high	-7.3956
▁vaccines	-7.39623
M	-7.39927
▁many	-7.40236
▁increase	-7.40618
com	-7.40683
▁sp	-7.41005
est	-7.41193
▁Co	-7.41671
▁dis	-7.41787
T	-7.42022
D	-7.42796
ten	-7.43819
▁spread	-7.44086
▁found	-7.4409
▁these	-7.44544
lu	-7.44597
P	-7.44632
▁use	-7.44676
▁may	-7.44805
low	-7.44905
▁un	-7.45196
R	-7.45323
▁second	-7.45417
▁day	-7.46759
▁two	-7.46997
▁We	-7.4702
▁get	-7.47995
▁last	-7.48437
▁cases	-7.48887
▁over	-7.49585
▁such	-7.50226
▁ra	-7.50358
up	-7.50504
%	-7.50693
▁up	-7.50942
▁start	-7.51668
able	-7.51797
hief	-7.51889
▁March	-7.526
N	-7.52752
iv	-7.531
▁Mumbai	-7.53319
▁symptoms	-7.53319
▁develop	-7.53561
▁SARS	-7.53561
ip	-7.54239
▁sta	-7.54802
H	-7.55031
▁2020	-7.55272
ang	-7.55307
▁According	-7.55519
ok	-7.56251
und	-7.56423
▁'	-7.56663
▁death	-7.56774
00	-7.57134
▁any	-7.57458
▁Re	-7.57494
▁given	-7.58028
due	-7.5834
▁says	-7.58457
▁situation	-7.58531
ize	-7.58873
▁20	-7.6058
▁children	-7.6085
tric	-7.60992
ine	-7.61439
▁treatment	-7.61685
▁wave	-7.61926
▁Na	-7.62529
▁like	-7.63231
▁person	-7.63255
▁dose	-7.63347
▁Wh	-7.63967
old	-7.64144
ities	-7.64784
ary	-7.65324
▁There	-7.66464
▁Ra	-7.66746
▁However	-7.66786
▁Covid	-7.67038
▁school	-7.67871
▁system	-7.68432
▁7	-7.68768
own	-7.68924
▁only	-7.68988
▁doctor	-7.68996
▁10	-7.69299
▁home	-7.69302
▁countries	-7.69848
▁take	-7.70166
▁coronavirus	-7.70422
man	-7.70582
▁available	-7.70708
▁your	-7.70811
▁sc	-7.70845
▁6	-7.71224
war	-7.72713
▁infected	-7.72743
▁April	-7.73037
▁part	-7.73333
▁even	-7.73671
▁world	-7.73925
▁see	-7.73988
ik	-7.7452
▁If	-7.74943
ness	-7.76594
▁during	-7.76655
▁his	-7.76725
▁What	-7.76759
very	-7.76829
▁An	-7.77132
▁cent	-7.77852
▁against	-7.77864
▁De	-7.78125
-2	-7.78782
▁risk	-7.78802
▁how	-7.79451
ell	-7.79655
▁when	-7.80386
▁every	-7.80922
;	-7.81004
▁while	-7.81326
▁mask	-7.81332
▁now	-7.81666
▁week	-7.81984
▁care	-7.82097
▁used	-7.82424
▁Pune	-7.82637
▁No	-7.82853
▁those	-7.83264
▁vaccinated	-7.83795
ood	-7.84576
▁medical	-7.87266
▁taken	-7.87567
line	-7.87592
▁Thackeray	-7.87938
,000	-7.87948
▁public	-7.88969
▁through	-7.89662
▁cause	-7.89985
▁reported	-7.89999
▁provide	-7.90366
▁State	-7.90751
▁place	-7.9107
▁rate	-7.91471
▁outbreak	-7.92484
▁large	-7.92845
▁drug	-7.93202
▁made	-7.93602
▁effective	-7.94035
▁restrictions	-7.94289
▁come	-7.94795
▁China	-7.96128
▁patient	-7.96202
▁imp	-7.96305
▁center	-7.97586
▁lakh	-7.98762
▁beds	-7.99089
▁workers	-7.99861
/	-7.99909
▁know	-7.99918
▁plan	-7.99994
▁report	-8.00695
▁issue	-8.01003
▁current	-8.01072
▁contact	-8.01072
▁For	-8.01481
▁including	-8.02248
▁covid	-8.02653
▁Hospital	-8.0304
▁announced	-8.0304
▁travel	-8.03041
unicipal	-8.0424
▁control	-8.05049
▁important	-8.05455
▁month	-8.05462
▁Center	-8.05481
ndra	-8.05715
▁say	-8.06029
W	-8.06119
▁human	-8.06687
▁information	-8.07097
▁follow	-8.07099
▁prevent	-8.071
▁most	-8.07566
▁condition	-8.08768
▁well	-8.09542
▁relat	-8.09611
▁result	-8.09615
▁what	-8.10082
▁same	-8.10488
▁affect	-8.10895
▁include	-8.11326
The	-8.12005
▁closed	-8.12194
▁help	-8.12649
▁level	-8.1307
▁our	-8.13358
▁did	-8.13688
▁show	-8.14284
▁positive	-8.14843
▁decision	-8.15292
▁respirator	-8.15292
▁supply	-8.15742
▁increasing	-8.16194
▁few	-8.1626
▁body	-8.17107
▁administration	-8.17564
▁crore	-8.17581
▁meeting	-8.18027
▁million	-8.1849
▁demand	-8.18961
▁between	-8.19421
ology	-8.19421
activ	-8.19449
▁where	-8.19896
though	-8.20362
▁Uddhav	-8.20836
based	-8.20839
▁office	-8.21445
▁anti	-8.21743
▁data	-8.21841
▁students	-8.22271
▁present	-8.22311
V	-8.22474
▁Modi	-8.22764
▁question	-8.2324
▁service	-8.24218
▁died	-8.24383
▁Delhi	-8.25206
▁make	-8.25816
▁50	-8.25906
▁direct	-8.26206
▁central	-8.26209
▁three	-8.2772
▁around	-8.27724
▁citizens	-8.28228
▁period	-8.28228
▁before	-8.2823
▁BBC	-8.29257
▁reduce	-8.29257
▁set	-8.29503
▁Prim	-8.30491
Y	-8.31867
▁thousand	-8.31874
▁UK	-8.31901
L	-8.32159
▁campaign	-8.32941
▁change	-8.32951
▁social	-8.34023
▁order	-8.34115
▁safe	-8.34564
▁require	-8.34565
▁different	-8.35659
▁private	-8.35659
▁recommend	-8.35659
▁study	-8.35659
▁hours	-8.35663
▁Unit	-8.3622
cross	-8.36275
B	-8.36668
▁shortage	-8.37325
peaking	-8.3733
▁January	-8.38452
▁education	-8.38452
▁allowed	-8.38453
▁sample	-8.3902
▁possible	-8.40166
▁research	-8.40166
▁Institute	-8.40744
▁rules	-8.40748
▁percent	-8.40753
▁effect	-8.41734
▁local	-8.41912
▁grow	-8.42509
▁open	-8.42578
▁continue	-8.43091
▁Raje	-8.43718
▁washing	-8.43747
▁group	-8.44888
▁sub	-8.4612
refore	-8.47988
F	-8.48265
▁Government	-8.4858
▁February	-8.49209
▁consider	-8.49842
▁reason	-8.49857
▁Many	-8.50518
▁protect	-8.50645
▁discuss	-8.5112
▁company	-8.51765
▁addition	-8.52414
▁quarantine	-8.53068
▁pandemic	-8.54388
▁village	-8.54388
▁produce	-8.54762
▁Union	-8.55059
▁blood	-8.55728
▁learn	-8.5573
▁regard	-8.55735
▁held	-8.5576
▁because	-8.57082
▁closure	-8.57082
▁become	-8.57134
▁department	-8.58456
▁ventilator	-8.58456
▁official	-8.58456
▁still	-8.58516
▁fact	-8.58612
▁limit	-8.59157
▁since	-8.59159
▁transmission	-8.5985
▁much	-8.59869
▁face	-8.6028
light	-8.60556
▁process	-8.61267
▁response	-8.61978
▁clinical	-8.61978
▁Medic	-8.62316
▁conduct	-8.62697
▁among	-8.62699
G	-8.62875
▁recover	-8.63425
▁Kovid	-8.64152
▁problem	-8.64152
▁phase	-8.6417
▁production	-8.6489
▁Ministry	-8.65628
▁population	-8.65628
▁implement	-8.65629
▁contain	-8.65632
▁emergency	-8.66374
▁Nagpur	-8.66374
▁treat	-8.66564
▁avoid	-8.67126
▁third	-8.67127
▁house	-8.67129
▁market	-8.67883
▁surveillance	-8.67883
▁next	-8.67884
▁media	-8.67984
▁difficult	-8.68647
▁World	-8.70191
▁imposed	-8.70193
▁release	-8.70987
▁How	-8.71704
▁according	-8.7176
ability	-8.71776
U	-8.72292
▁support	-8.72553
▁register	-8.72554
▁fight	-8.72554
▁another	-8.73364
▁remain	-8.74161
▁New	-8.74186
▁Commission	-8.74973
▁serious	-8.74973
▁keep	-8.75793
▁crisis	-8.75794
▁type	-8.75794
▁approved	-8.76619
▁experienc	-8.76619
▁immediate	-8.76619
▁further	-8.76629
▁crowd	-8.77453
▁family	-8.7914
▁small	-8.7914
▁police	-8.79141
▁staff	-8.79148
Z	-8.79995
▁Organization	-8.79995
▁least	-8.80003
▁Corporation	-8.80857
▁Chinese	-8.81727
▁You	-8.81738
▁admitted	-8.82604
▁essential	-8.82604
▁distance	-8.82609
▁University	-8.83489
▁strain	-8.83494
▁transport	-8.85282
▁injection	-8.85283
▁breath	-8.85283
PCR	-8.85291
espec	-8.86938
▁global	-8.88035
▁similar	-8.88035
▁People	-8.88035
▁concern	-8.88035
▁epidemic	-8.88969
▁major	-8.8897
▁common	-8.8897
▁happen	-8.89913
▁Pradesh	-8.89913
▁monitor	-8.89913
▁critical	-8.91827
▁minister	-8.91827
▁collect	-8.91837
▁community	-8.92798
▁immune	-8.92798
▁suggest	-8.92798
▁Office	-8.94768
▁employ	-8.94768
▁cough	-8.94768
▁decided	-8.94768
▁parents	-8.9477
▁capacity	-8.95768
▁return	-8.9577
▁general	-8.96778
▁medicine	-8.96778
▁Biotech	-8.97799
▁antibodies	-8.97799
▁companies	-8.97799
▁expected	-8.97799
▁2019	-8.97799
▁BJP	-8.9883
▁received	-8.9883
▁daily	-8.98831
▁evidence	-8.99871
▁distribut	-9.00924
▁tweet	-9.00924
▁MERS	-9.01988
▁Marathi	-9.01988
▁Vaccine	-9.01988
▁ICU	-9.01988
▁Amravati	-9.03063
▁passenger	-9.03063
▁estimate	-9.03064
▁Europe	-9.0415
▁Meanwhile	-9.0636
▁check	-9.07484
produc	-9.07988
K	-9.22487
J	-9.89847
q	-10.438
(	-11.5072
