<pad>	0
</s>	0
<unk>	0
¦	-1.43848
▁¦	-1.62382
▁,	-3.63304
▁	-3.88063
ꭲ	-4.12508
𐊼	-4.21337
𐊣	-4.21338
ꭰꮄ	-4.31947
▁.	-4.35002
ꮓ	-4.46707
ꮎꮝꭹ	-4.54916
ꮧ	-4.7291
▁;	-4.74889
ꭹ	-4.81858
ꭴ	-4.99183
ꮎ	-5.01748
ꮫ	-5.0458
ꮣ	-5.15633
ꮒ	-5.15807
ᏹ	-5.16175
ꭶ	-5.17234
ꭰ	-5.20035
ꮵ	-5.21313
ꭿꭰ	-5.2448
ꭿ	-5.25716
ꭸꮢ	-5.29983
ꮕ	-5.30833
ꮅ	-5.39737
ꮥ	-5.48051
ꭽ	-5.48362
ꮿ	-5.67272
ꮻ	-5.73449
ꮙ	-5.74797
ꮝꮧ	-5.75968
ꭼ	-5.79859
ꮈ	-5.81228
ꮪ	-5.8139
ꮟ	-5.83023
ꭵꮭ	-5.83248
ꮳ	-5.83524
ꭸꮢꭲ	-5.85941
ᏸꮓ	-5.87714
ꮩ	-5.9204
ꮷ	-5.93246
ꭴꮑꮃꮕꭿ	-5.97992
ꭺ	-5.98669
ᏼ	-5.99685
ᏻ	-6.00172
ꮢ	-6.01264
ꮑ	-6.01274
ꮃ	-6.04855
ꭸ	-6.06629
ꭱ	-6.11185
ꮞ	-6.11981
ꭴꮒ	-6.14034
ᏺ	-6.17104
ꮄ	-6.2131
ꭵ	-6.21956
ꮝꭹ	-6.23033
ꭼꮹ	-6.2435
ꭾ	-6.24724
ꮸ	-6.25269
ꮝꭹꮒ	-6.26052
ꮴ	-6.27571
ꮹ	-6.31132
ꮧᏹ	-6.32379
ꭹꮆ	-6.34431
ꭰꮒ	-6.35432
▁?	-6.3648
ꭰꮞ	-6.37444
ꭸꮞꮝꮧ	-6.37666
ꮆ	-6.41475
ꮂ	-6.42045
ꮎꮝꮙ	-6.45758
ᏼꮻ	-6.46713
ꮵꮜ	-6.4847
ꮲ	-6.50062
ꭲᏻ	-6.50138
ꮔ	-6.50416
ꮜ	-6.51249
ꮎꮝꭹꮿ	-6.53453
ꭰᏼ	-6.53945
-	-6.56774
ᏸ	-6.57356
ꮝꭺ	-6.5768
ꮏꮙ	-6.58307
ꭴꮎ	-6.60251
ꮝꭶ	-6.64148
ꮤ	-6.64248
ꮨ	-6.64469
ꮒꭿ	-6.65733
ꮒꭸꮢꮎ	-6.65785
ꮵꭹ	-6.65853
ꭴꭼꮻᏻꭿ	-6.66352
ꮖ	-6.67062
ꭲᏻꮝꮧ	-6.69847
ꮝꮣ	-6.70347
ꮼ	-6.76979
ꭶꮩ	-6.78461
ꮠ	-6.78815
ꮺ	-6.80036
ꮎꮏ	-6.8163
ꭶꮆꮑꮫ	-6.82951
ꮝꮧᏹ	-6.83025
ꭲꮵ	-6.8507
ꭰꭹ	-6.89857
ᏹꭹ	-6.90584
ꮶ	-6.94252
ꭺꮁꮝꮧ	-6.96169
ꮒꭶꮫ	-6.97175
ꭲꭶ	-6.97514
ꮇ	-6.97576
ꮝꮫ	-6.99007
ꮕꭿ	-7.04985
ꭳꮝꮫ	-7.05936
ꭾꮝꮧ	-7.06569
ꮈꭹ	-7.07048
ꭴᏺ	-7.09515
ꭳ	-7.10151
ꭲᏻꮓ	-7.1266
ꮕꭹ	-7.13225
ꮽ	-7.13478
ꭸꮵ	-7.13751
ꮑꮈ	-7.1499
ꮝꭸꮝꮧ	-7.1537
ꮀ	-7.1569
ꮡ	-7.16804
ꮪꮒ	-7.16888
ꭷ	-7.17741
ꭺꭿ	-7.18378
ꭴꮺ	-7.18389
ꮮꮝꮧ	-7.1983
ꮘ	-7.20059
ꭲꮸ	-7.20143
ꮈꮻꮝꮣꮑ	-7.2073
ꮎꮝꭹꮓ	-7.2332
ꮂꭲ	-7.25727
ꮑꭲ	-7.25916
ꮩꮧ	-7.25926
ꭴꮺꮵ	-7.26388
ꭱꮆꭿ	-7.26423
ꭿᏻ	-7.27181
ꭴꮳꮨ	-7.28301
ꮢꭹ	-7.2969
ꭴꮹꮢ	-7.30216
ꮈꭿ	-7.30482
ꮩꮣ	-7.31175
ꮯ	-7.31845
ꮒꭶꭵ	-7.3285
ꮦ	-7.32978
ꮄꭲ	-7.33949
ᏸꮈ	-7.3438
ꮰ	-7.36751
ꮣꮕ	-7.37442
ꮝꮖ	-7.39209
ꮧꭶ	-7.40372
ꮔꮺꮞ	-7.41646
ꭶꮅ	-7.42286
ꭰꮎ	-7.43196
ꮷꮎ	-7.43268
ꭼꮒꭸꮢ	-7.43816
ꭲꮳ	-7.44516
ꭰꮵꮈ	-7.45249
ꮔꮝꮫ	-7.46581
ꭰꮣꮕꮩ	-7.46872
ꮧꮒ	-7.47429
ꭰꮖ	-7.48061
ꮣꮒ	-7.48243
ꭷꮓꭾꮫ	-7.48412
ꭰꮣ	-7.49019
ꮑꮧᏹ	-7.49289
ꭸꮞ	-7.49338
ꭶꮈꮙꮧᏻ	-7.5003
ꮝꭼ	-7.50095
ꭶꮈꮃꮧ	-7.51667
ꭴꮯ	-7.52131
ᏸꮅ	-7.52621
ꭶꮤ	-7.52757
ꮎꭿᏻ	-7.53893
ꮹꮫ	-7.53983
ꮤꮕꭿ	-7.54606
ꭸꮝꮧ	-7.55096
ꭱꭿ	-7.55357
ꭻ	-7.55566
ꮷꮒ	-7.55755
ꮝꭼꭲ	-7.55937
ꭴꮑ	-7.56196
ꮧꭷꮏꮹꮫꮝꮧ	-7.56212
ꭳꮟᏻ	-7.56213
ꮪꮅ	-7.56301
ꭿꭰꮓ	-7.57544
ꭲᏼꮫ	-7.57703
ꭰꮵ	-7.58093
ꮤꮕ	-7.58169
ꮏ	-7.59296
ꮝ	-7.6101
ꮅꮝꮣ	-7.61084
ꮑꮄ	-7.62306
ꭴꮣ	-7.62395
ꮈꭲ	-7.63727
ꭲᏻꮅꮝꮩꮧ	-7.63773
ꮎꮒꭵ	-7.64048
ꮕꮣ	-7.64199
ꭰꮝꭶꮿ	-7.64804
ꮑꮅ	-7.6608
ꮝꮤꮕ	-7.66461
ꮜꮙ	-7.67477
ꮝꮪ	-7.68726
ꮗ	-7.7082
ꭶꮨ	-7.70879
ꭴꮴꮅꭶ	-7.71776
ꮺꮞ	-7.72217
ꭴꮅ	-7.72906
ꭴꮼ	-7.73135
ꭿꮝꮧ	-7.7614
ꭴꮴꮅ	-7.77096
ꭼꮒᏻꮙ	-7.77238
ꮑꮈꭿ	-7.77297
ꮥꮳ	-7.78808
ꮇꮴ	-7.78928
ꮝꮩꮧ	-7.79542
ꮥꮵ	-7.79556
ꮝꭸ	-7.80374
ꮣꮄ	-7.80816
ꮩꮅ	-7.80816
ꮕꮫ	-7.80922
ꮪꮎ	-7.80994
ꮔꮺꮢ	-7.81318
ꮂꭹ	-7.81392
ꮔꭺ	-7.83375
ꮩꮧᏹ	-7.83853
ᏺꮅ	-7.84235
ꮵꮜꮓ	-7.8432
ꭶꮫ	-7.84475
ꮪᏻꭺꮫ	-7.85514
ꮤꮑ	-7.85535
ꮵꭺ	-7.85605
ꮝꮥ	-7.86239
ꮒꭺ	-7.87838
[	-7.88438
ꭱꮵ	-7.88598
ꮥꭶ	-7.89537
ꮑꮧ	-7.90464
ꭴꮒꮳꮨ	-7.90941
ꮑꭽ	-7.91471
ꮒꭶ	-7.92005
ꮝꭸꭲ	-7.9219
ꮝꮥꮈ	-7.92222
ꮧꮳ	-7.92491
ꮢꭲ	-7.9253
ꮩꭿ	-7.9323
ꮵꮿ	-7.93412
ꮔꮎ	-7.93842
ꭼꭹ	-7.94362
ꮋ	-7.94547
ꮑꭿ	-7.9516
ꭶꮈ	-7.95307
ꮸꭿ	-7.95878
ꭰꮑꭿ	-7.96016
ꮒꮪꮺꮞꮄ	-7.96134
ꮑꮂ	-7.96902
ꮅꭾꮅ	-7.9714
ꭼꭲ	-7.9765
ꮔꮺꮞꮄ	-7.97676
ꮤꮅꮑ	-7.9802
ꮧꮵ	-7.98182
ꭰꮒꮷꮟ	-7.98841
ꮝꮩ	-7.98952
ꮧꮝꭹ	-7.99292
ꭳꭹ	-7.9948
ꭲꮿ	-8.00014
ꮳꮣ	-8.00277
ꮷꮣꮄꮕꮫ	-8.00495
ꮙꮃ	-8.00511
ꮉ	-8.01063
ꭲꭹ	-8.01095
ꭼꮹꮝꮣꮹꮧꮩꭿ	-8.01115
ꮳꮒ	-8.02284
ꭿꮝꮧᏹ	-8.03021
ꭴꭼꮹꮅ	-8.03913
ꮣꮒꮈ	-8.05578
ꭴꮑꮸ	-8.06289
ꮔꮼ	-8.07369
ꭴꮎꮣ	-8.07439
ᏺꭿ	-8.07836
ꭶꮪꮂ	-8.09023
ꮴꮅ	-8.09383
ꮘꮣ	-8.09468
ꭶꮪ	-8.10452
ꭲꮴ	-8.12089
ꮣꮎ	-8.12176
ꮢꭿ	-8.12189
ꭶꭺ	-8.12667
ꭺꭿᏻꮧ	-8.1298
ꭸꮳ	-8.13203
ꭰꮟ	-8.14114
ꮒꭺꭿꮈ	-8.14226
ꮝꭶꮕꮸ	-8.14243
ꮂꮎ	-8.14589
ꮝꮩꮧᏹ	-8.14725
ꭺꮂ	-8.14832
ꭰꮉ	-8.14836
ꭷꮏ	-8.1498
ꮝꭼꮎ	-8.15281
ꮒꭼ	-8.15905
ꮧꭽ	-8.15944
ꮕꮟꮣꮝꮧ	-8.16202
ꮎꭵ	-8.16326
ꮩꮄ	-8.16835
ꭺꭲ	-8.1702
ꮵꭶꮤꭽ	-8.17041
ꮕꮧꭶꮅꮝꮩꮧꭽ	-8.17453
ꭴꮩꭿᏻꭿꮿ	-8.17694
ꮶꭲ	-8.19112
ꮒꮪꮺꮞꮈ	-8.19454
ꮭꮝꭺ	-8.20094
ꮶꭿᏻ	-8.20381
ꮣꮅ	-8.20451
ꮫꮎ	-8.20842
ꭷꮑ	-8.21092
ꮧꭶꮃꮻꭲꮝꮧᏹ	-8.21494
ꭲꮷꮃꭽ	-8.22298
ꮝꮤꮑ	-8.22805
ꭼꮒ	-8.22909
ꮠꮕ	-8.23245
ꮕꮞ	-8.23623
ꭼꮹꮒ	-8.23627
ꮵꮇꮟꮅꮋ	-8.24282
ꭴꮕꮢ	-8.24283
ꭲꭼᏹ	-8.24517
ꮁ	-8.24627
ꮱ	-8.24811
ꭳꭶ	-8.25429
ꭷꮅ	-8.25987
ꭰꮅ	-8.27292
ꮞꮝꮧ	-8.2748
ꮫꭹ	-8.27768
ꭼꮒꮫ	-8.27867
ꭰꮑ	-8.27977
ꮤꮅ	-8.28189
ꭱꮳ	-8.2844
ꮳꭼꮻᏻꭿ	-8.28615
ꭰᏸꮈ	-8.29332
ꭸꭶ	-8.29461
ꮀꭲ	-8.29511
▁]	-8.29632
ꭱꮝꭶ	-8.29769
ꮧꭸ	-8.29953
ꭰꭸᏼ	-8.30114
ꭵꭹ	-8.30657
ꮑꮃ	-8.30991
ꮭ	-8.31201
ꮒꮳ	-8.3137
ꮕꮹꮣꮄ	-8.31613
ꮤꮒ	-8.3169
ꭲꭶꮫ	-8.32273
ꭰꮥꮈ	-8.32402
ꮑꮈꭹ	-8.32795
ꮔꮅꮝꮤꮕ	-8.3392
ꭰᏸꮅ	-8.34063
ꭲꮿꮒ	-8.34099
ꭲꮳꮣ	-8.34477
ꮅꮝꮩꮧ	-8.35255
ꮇꮸ	-8.36242
ꭰꭶᏼꮅꭸ	-8.36642
ꭴꮣꮩꮅꮝꮧ	-8.37123
ꮒꭶꮧᏻ	-8.37891
ꮽꮒ	-8.37905
ꮿꮕ	-8.3833
ꮷꮺꮵ	-8.39527
ꮧꮝꭸꮝꮧ	-8.39582
ꭰꭶ	-8.40304
ꮷꮎꮣꮄꮕꮫ	-8.40347
ꭺꮺꮅ	-8.41186
ꮧꭼꮹ	-8.42694
ꭱꮅ	-8.43029
ꭳꮒ	-8.43739
ꮑꮆ	-8.43943
ꮵꮩ	-8.44142
ꭼꮎ	-8.44154
ꭴꮝꮧ	-8.44447
ꮝꮤꮕꭿ	-8.44722
ꭼꮧ	-8.44802
ꮝꮥꮝꮧ	-8.45216
ꮝꮤꮒ	-8.45483
ꮣꮕꮩ	-8.4585
ꮕꮣᏻ	-8.45983
ꮝꭼꭹ	-8.46136
ꮣꮣ	-8.46344
ꭰꮻ	-8.46724
ꮮ	-8.46903
ꮷꮑ	-8.47494
ꭻᏼ	-8.47824
ᏹꭸꮞ	-8.4816
ꮒꮸꮺꮞ	-8.49012
ꮔꮝꮧ	-8.49478
ꮣꮑꮧ	-8.49606
ꮑꮯᏼ	-8.49923
ꮧꮝꭼ	-8.50157
ꮤꮕꭹ	-8.50492
ꭲᏻꮹꮒꮜ	-8.50837
ꭰꮟᏼꮻ	-8.51077
ꭴꮣꮕ	-8.51118
ꮔꮺꮞꮈ	-8.51126
ꮷꮩ	-8.51399
ꮵꮑ	-8.51499
ꮅꮝꮣᏼꮧ	-8.51851
ꮙꮝꭹꮒ	-8.52508
ꭼꮹꭶꮨꮿ	-8.52699
ꮣꮄꮕ	-8.52805
ꭴꮩꭿᏻꭿ	-8.53562
ꭹꮃꮙ	-8.53671
ꭰꮑꮂ	-8.54805
ꮔꮒꮺꮞ	-8.55556
ꮣꮕꮦꮝꭼ	-8.55967
ꭰꮟꮙ	-8.56069
ꮪꮣ	-8.56192
ꮑꭾꮝꮧ	-8.56245
ꭴꮕ	-8.56396
ꮷꮎꮑꮆꮧ	-8.56526
ꮂꮝꭹ	-8.56903
ꮕꮯ	-8.57361
ꮒꭶꮺ	-8.57404
"	-8.57506
ꮒꭼꮕ	-8.57586
ꮆꮢ	-8.58154
ꮈꮙꮧ	-8.58421
ꮷꮴꮅ	-8.58945
ꭴᏺꮁꮢ	-8.59839
ꮧꭷꮏꮹꮧꮩꭿ	-8.60506
ꮔꭼꮻᏻꮢ	-8.60506
ꭴꮗꮣꮅ	-8.60506
ꮳꮴꮅ	-8.6084
ꮆꮧ	-8.61188
ꭲꭶꭲ	-8.61509
ꮔꮒꮺꮢ	-8.61527
ꮵᏸꮈ	-8.6186
ꮑꮀ	-8.61883
ꭺꮹꮫꮧ	-8.62868
ꮂꭶ	-8.6321
ꮫꮑꮧ	-8.63248
ꮩꮅꮝꮧ	-8.63327
ꭴꮇꮸ	-8.63464
ꭶꮤꭽ	-8.63519
ꮬ	-8.63599
ꭴꮅꮒꭹꮫ	-8.63599
ꮧꭶꮈꮻꮝꮣꮑꮧ	-8.63607
ꭲꮣꮅꮕꮯ	-8.64652
ꭲꮧꮲ	-8.64773
ꭶꮣꭽ	-8.64824
ꭲꮳꮫ	-8.65088
ꮣꮩꮅꮝꮣꮑ	-8.65727
ꭹꭼ	-8.65852
ꮹꮧꮢ	-8.66927
ꭴꮆ	-8.67154
ꭴꮎꮅ	-8.6721
ꮔꮹ	-8.67291
ꮴꮂ	-8.67336
ꭸᏻꭿ	-8.68493
ꭸꮠꭲ	-8.68645
ꮪꮈ	-8.69142
ꭲꭶꮴꮅ	-8.69172
ꮝꮖꮈ	-8.69829
ꮕꮧꭶꮅꮝꮩꮧꮝꭸ	-8.70088
ꮾ	-8.71211
ꭶꮅꮙꭹ	-8.71221
ꭴꮪꭹ	-8.7131
ꮝꮧꮝꭹ	-8.71906
ꮔꮅꮝꮤꮑ	-8.72349
ꮫꮕꭲꮝ	-8.72429
ꭴꮝꮖꮒꭺꮧ	-8.72695
ꮕꮹꮩꭿꮿꮫ	-8.73497
ꭴꮥꮅꮫ	-8.73497
ꮷꭼꮹꮆꮧ	-8.73497
ꮅꮝꮣᏼꮂ	-8.73519
ꮊꮅ	-8.73579
ꭱꮩꮣ	-8.74444
ꮇꭹ	-8.74706
ꭺꮺꮃ	-8.74715
ᏸꮒ	-8.75036
ꮕꮿ	-8.7557
ꮝꮧꮝꭼ	-8.75587
ꭰꮒꮝꭶꮿ	-8.75841
ꭰꮑꮆ	-8.76885
ᏸꮅꮙ	-8.7777
ꭴꮑꮃꭹ	-8.78247
ꭶꮤꮂ	-8.78808
ꭶᏼꮅꭸ	-8.78898
ꮑꮃꮕꭿ	-8.78925
ꭶᏸ	-8.79075
ꭰꮎꮩꮄꮀꮝꭹ	-8.79451
ꭴꮎꮣꮕꮨ	-8.79453
ꮪꮩꭵ	-8.79463
ꮱꭼ	-8.7973
ꮔꭺꮸ	-8.80247
ꭲꭼᏹᏹ	-8.80457
ꮤꮃꮪ	-8.81942
ꮕꮟꮫ	-8.81957
ꮕꮣᏻꮣꮄꮕ	-8.81973
ꭼꮧꮝꭼ	-8.82125
ꮂꮝꭶ	-8.82403
ꭶꮑꮈ	-8.82559
ꮇꮴꮈ	-8.83164
ꭲꮈꭿᏻ	-8.83244
ꮎꮭꭲ	-8.84594
ꭲꮟꮅ	-8.85934
ꭰꮒꮤꮅ	-8.86107
ꮵꭸꮞ	-8.87028
ꮔꭺꮻꮢ	-8.87075
ꭱꮖꭽꮋ	-8.87098
ᏹꮀꮹ	-8.87104
ꮜꮹꮒ	-8.87109
ꭱꮃꮧ	-8.87134
ꮅꮝꮥꮈꮩꮧ	-8.87141
ꮹꮨꮝ	-8.87373
ꮝꮧꮝꭸꮝꮧ	-8.88036
ꮕꮢꭹ	-8.8842
ꮔꮒꭼꮻᏻꮢ	-8.88431
ꭴꮎꮫꭶꮕ	-8.88433
ꮼꮒꭿꮝꮧ	-8.89382
ꭰꮝꭶꮒ	-8.89813
ꭸꮅꮅ	-8.89817
ꮣꮝꮧᏹ	-8.90174
ꭰꭶꮤꮂ	-8.90475
ᏺꮞꭽ	-8.91167
ꭼꮻᏻ	-8.91186
ꮌꮟ	-8.91195
ꮑꮴꮈ	-8.91653
ꭴꮎꮴꮅꭶ	-8.91714
ꮨꮒꮩ	-8.91813
ꭴꮎꮴꮅ	-8.9231
ꮈꮙꮩꮧ	-8.92447
ꭰꮒꮖꮅꮟ	-8.92541
ꮎꮔꭺꮻꮞ	-8.92547
ꭸꮆꭿ	-8.92556
ꭴꮎꮣꮱꭼ	-8.92578
ꮒꮳꮫꮑ	-8.92747
ꭶꮈꮙꮧ	-8.93868
ꭰꮩꮄꮀꮝꭹ	-8.9395
ꮧꮒꭷꮏꮹꮧꮩꭿ	-8.9395
ᏺꮁꭿ	-8.94209
ꭴꮒᏺ	-8.94837
ꭳꮵ	-8.95816
ꮔꭺꮻꮝ	-8.9676
ꮒꭼꮑ	-8.96817
ꭴꮑꮴ	-8.96951
ꭲꮳꮅ	-8.97284
ꮥᏺꮂꮝꭹ	-8.983
ꭰᏺꮁꭿꮝꮧ	-8.98303
ꮫꮏꮥ	-8.99017
ꮫꭶꮑ	-8.99768
ꮜꮃ	-8.99879
ꮒꭶꮅꮝꮧ	-8.99936
ꭴꭺꮂ	-9.00077
ꭰꮣꮑꮈ	-9.00373
ꮒꮵꮺ	-9.00482
]	-9.00739
ᏺꮺꮃ	-9.0131
ꮓꭾꮝꭼ	-9.01651
ꮕꭶꮈ	-9.02409
ꭷꮑꭼ	-9.02531
ꮹꮫꮂ	-9.02738
ꭼꮻᏻꮜꮥꭹ	-9.02844
ꭺꮺꮈ	-9.02923
ꭲꮿꭶᏼꮅ	-9.04407
ꭷꮕ	-9.05369
ꭰꮝꭹꮎ	-9.06056
ꭴꮄꮕ	-9.06217
ꭴꮫꮕ	-9.06561
ꭰꮣꭸᏻꮧ	-9.07607
ꭶᏻꮃ	-9.07636
ꭲᏻꮎꮅꮝ	-9.07712
ꮿꮕꮂ	-9.07767
ꮵꭸꮠ	-9.08141
ꭶꮤꮂꮎ	-9.08651
ꭶꮎꮔꭺ	-9.08862
ꭴꮅꮒꭹꮧᏻ	-9.09246
ꮒꭼꮎꮫ	-9.09265
ꭲᏻꮎꮝꮧ	-9.09275
ꮝꮖꮧꮝ	-9.09843
ꭰꮝꮣꮿ	-9.10934
ꭲꮎꭸ	-9.11136
ꮒꮧᏻ	-9.11791
ꭰꮎꮅꮕꮯ	-9.12608
ꭶꮆꭿꮝꮧᏹ	-9.12612
ꮝꮣꮹꮥ	-9.12624
ꭰꮝꭺꭿ	-9.12647
ꭴꮓꭿᏻ	-9.12659
ꭰꮖꮴꮅ	-9.12775
ꭰꮒꮝꭹꮎ	-9.14354
ꭴꮰᏹ	-9.14355
ꮞꮄ	-9.15551
ꮝꮣꮹꮧꮩꭿ	-9.15892
ꮟᏼꮻꭽ	-9.16105
ꮒꮵꭵ	-9.16146
ꭸꮵꮕꮟꮫ	-9.16202
ꮒꭶꮺꮝꭼ	-9.17097
ꭰꮓꭿᏻꮂꮝꭹ	-9.17872
ꮖꮄꮧ	-9.17921
ꮵᏻꭿ	-9.17941
ꭹꭶꭸ	-9.18015
ꮕꮹꮎꮣꮄ	-9.1969
ꮷꮒᏺꮁꮢꭿ	-9.19691
ꭰꮵꮈꮙꮧ	-9.1981
ꭰꮖꮣꮕ	-9.20354
ꭴꮩꭿᏻ	-9.21036
ꭶᏸꭺꭹ	-9.21546
ꭰꮒꭸᏼ	-9.21553
ꭹꮅᏺꭲꮝꮧ	-9.21745
ꭴꮣꮕꮨ	-9.21817
ꭶꮝꭹꮈ	-9.22181
ꮧꮓꮺꮅꮝꭹ	-9.23429
ꭲꭼᏹꮧꮲ	-9.23433
ꮯꮆꮫ	-9.23452
ꮢꮓᏹ	-9.23595
ꭴꮒꮇꮴ	-9.237
ꭲꭼꮑ	-9.23915
ꮔꮣꮄꮢ	-9.25354
ꮡᏸꮫ	-9.25359
ꭰꮒꭶꮤꮂ	-9.25667
ꮅꮓꭾ	-9.26083
ꭷꮓꭾ	-9.26118
ꮣꮄꮂꮝ	-9.26123
ꮪꮣꮄꮝ	-9.26451
ꮆꮔꭾ	-9.27332
ꭴꮴꮅꭺꭿ	-9.27668
ᏺꮁꮢ	-9.28653
ꮣꮣꮕꮯ	-9.29014
ꭰꮊꮙꭿ	-9.29313
ꭴꮎꮩꮣꮖꮝꭼ	-9.29313
ꭶꮅꮝꮩꮣ	-9.29315
ꭴꮒꭼꮻᏻꭿ	-9.29315
ꭱꮆꮫ	-9.29338
ꮝꭶꮕꮎ	-9.29364
ꭴꮣꮅꭲ	-9.29389
ꭴꮣꮕꮦ	-9.29463
ꮧꮤꮝ	-9.29643
ꭴᏸꮈꮫ	-9.31385
ꭱꮊ	-9.31426
(	-9.33437
ꮕꮧꭶꮅꮝꮩꮧꮝꭼ	-9.33437
ꮵꭴꮝꮥꮞ	-9.33438
ꮪꮎꮣꮕꮫ	-9.3344
ꮎꮎꮫꮑ	-9.35216
ꭴꮫꭶꮕ	-9.3557
ꭰꮧꮤꮝꮧ	-9.35579
ᏺꭿꮞꮈ	-9.35637
ꮅꮵꮩꮑ	-9.37732
ꮕꮣꭶꮅꮝꮩꮧꮝꭼ	-9.37739
ꮕꮣꭼꮹꮣꮄꮕ	-9.37739
ꭲꮈꭿꮲ	-9.37759
ꮝꮖꮒꭺꮧ	-9.39307
ꮷꮒꮈꮻꮝꮣꮑꭿ	-9.39963
ꮹꮧꮩ	-9.40367
ꭺꮅᏸꮝ	-9.40757
ꭲꮳꮅꮝꮣꮑꮧ	-9.42236
ꮓꭾꮝꭹ	-9.43585
ꭸꮃꮝꮧ	-9.43724
ꭰꭶꮩꭵꭿꮝꮧ	-9.44559
ꭺꭿᏻꮂꮝ	-9.44665
ꮅꮝꭺꮈꮣꮑꮈ	-9.45003
ꭰꮝꭺꭿꮷꮘ	-9.4694
ꮄꭿꮠꮧ	-9.4694
ꭰꮗꮵ	-9.46965
ꮒꮖꮨ	-9.47044
ꮹꮎꭶꮃ	-9.49379
ꭴꮅꮝꮖꮈꮧ	-9.4938
ꮎꮒꮺꮝꭸ	-9.49382
ꮪꮈꮻꮝꮣꮑꮂ	-9.49472
ꭲꮷꮃ	-9.51599
ꮩꮄꮀꭿꮝꮧ	-9.51661
ꭰꮒꮿꮻꮝꭹ	-9.51879
ꮧꮣꮝꮪꮧᏹ	-9.51879
ꮅᏸꭲꮆ	-9.51881
ꭴꮒꮳꮦ	-9.51886
ꮔꮫꮑꮈ	-9.5195
ꭲꮈꮝꭹ	-9.5201
ꮅꮝꭺꮈꮣ	-9.53969
ꮣꮆꮒꭸ	-9.54443
ꮻꮎꮝꮫꮎ	-9.54443
ꮧꭻꭺꮩꮧ	-9.54444
ꭺꮲꮤꮕꭿ	-9.54446
ꮣꮩꮅꮝꮧꮝꭼ	-9.54676
ꭴꮇꭿꮝꮧ	-9.54718
ꮅꮒꭺꭿꮝ	-9.54939
ꮒꮼꮒꮝ	-9.55385
ꮅꮝꭺꮈꮤꮕꭿ	-9.56921
ꭲᏻꮎꮫꮑꮧ	-9.5708
ꮰꭸꮟ	-9.57081
ꭴᏸꮈꮧ	-9.57182
ꮦꮈꮃꮧ	-9.59778
ꭴꮓꮥꮎ	-9.59781
ꮥꮀꭿꮝ	-9.59999
ꭻꭺꮣ	-9.60079
ꭰꮒꮩꮎ	-9.60162
ꭴꮩꮄꮀꮢ	-9.62555
ꭽꮻꮒꮧꮲ	-9.62555
ꮥꮆꮖ	-9.62568
ꮷꮒꮎꮻ	-9.62573
ꭰꮴꮅꮝꮫ	-9.65415
ꭴꮳꮤꮕꭿ	-9.65429
ꮒꮪᏻꭺꮫꮎ	-9.65439
ꮕꮟꮩꭿ	-9.65446
ꭴꮪꮅꮝꭼ	-9.65462
ꭸᏻꮢ	-9.65535
ꭲᏻꮹꮑ	-9.6685
ꭴꮒꮝꮖꮒꭺꮞ	-9.68354
ꭲꮸꭸᏻꭲ	-9.68355
ꮒꮸꮑ	-9.68392
ꭰꮒꮝꭶꮎ	-9.68552
ꮕꭼꮹꮺꮞꮈ	-9.71385
ꭴꭹꮸꮫ	-9.71385
ꮑꭻꮵꮫ	-9.71385
ꮧꮅꮝꮣᏼꮧᏹ	-9.71401
ꮅꮟꮎꭿꮝ	-9.71484
ᏺꮁꮝ	-9.72347
ꮵꭹꮅᏺ	-9.74201
ꭴꭷꮅꮸꭿ	-9.7451
ꮄꭿꮜꮕ	-9.7451
ꮣꮑꮹꮧꮢ	-9.74513
ꮵꭺꮹꮨ	-9.74574
ꮵꭸᏻꭲ	-9.74622
ꮳꮣꮕꮦ	-9.76424
𐋇	-9.77735
ꮥꭴꮩꭵ	-9.77735
ꭶꮇꮸꭽ	-9.77748
ꮧꮵꮎꮻ	-9.7775
ꭻᏼꭱꮧ	-9.778
ꭴꮤꮃꮼꭿꮝꮧ	-9.81068
ꭰᏸꮃꮝꮧ	-9.81068
ꮝꮣꮹꮫꮞ	-9.81074
ꮧꮖꮴꮅ	-9.81075
ꮊ	-10.4473
ꮌ	-10.8404
.	-11.0335
'	-11.1795
,	-11.4681
~	-12.2723
;	-12.7517
ꮍ	-12.7723
?	-13.753
ꮚ	-13.7719
:	-13.772
)	-13.7721
!	-13.7722
\	-13.7723
ꮛ	-13.7723
