<pad>	0
</s>	0
<unk>	0
▁	-2.14138
ကို	-3.82885
၊	-3.91344
သော	-4.07602
သည်	-4.15253
ရ	-4.23231
မ	-4.41887
အ	-4.43582
▁အ	-4.5912
း	-4.59968
၌	-4.70567
ကြ	-4.75807
လ	-4.76687
င်	-4.78548
၍	-4.79341
က်	-4.80697
နှင့်	-4.87903
သ	-4.89833
ွ	-4.92637
တ	-4.95352
့	-5.0272
▁မ	-5.06838
ာ	-5.09725
ို	-5.10159
။	-5.11265
က	-5.13596
၏	-5.17083
တော်	-5.1995
ထ	-5.2322
ပ	-5.23607
်	-5.24618
သား	-5.26997
စ	-5.2915
ု	-5.29836
သို့	-5.29922
န်	-5.29949
င်း	-5.33405
မှ	-5.34084
စေ	-5.34254
၍၊	-5.34482
ဆ	-5.35724
ိ	-5.36272
ရှ	-5.36484
န	-5.39097
တို့	-5.4018
တို့သည်	-5.41262
ဲ	-5.42029
▁ငါ	-5.43013
ခ	-5.44634
ခြင်း	-5.47226
ဖြစ်	-5.47292
တို့ကို	-5.47506
▁ထို	-5.47571
တ်	-5.48512
ပ်	-5.48927
ံ	-5.49661
ရှိ	-5.51121
ောက်	-5.51402
ပါ	-5.51544
ချ	-5.51735
ဘ	-5.5201
ေ	-5.5219
ယ်	-5.54143
၏။	-5.55123
ဖ	-5.57472
ကြ၏။	-5.58083
မြို့	-5.59387
သောသူ	-5.61192
ရာ	-5.67924
တော်မူ	-5.68119
ဆို	-5.68234
ေး	-5.68747
▁တ	-5.72929
ဝ	-5.75641
ဒ	-5.77794
ပြု	-5.81259
ဗ	-5.8537
ယ	-5.85701
ောင်	-5.85739
မြ	-5.86737
စ်	-5.92686
ည်	-5.92804
ဟု	-5.93739
သွား	-5.95866
ပြည်	-5.96909
မ်း	-5.97041
မည်	-6.0033
ဇ	-6.01414
▁ပ	-6.02081
များ	-6.03771
ျ	-6.03883
အား	-6.04436
ထား	-6.05245
▁ငါ့	-6.05987
န်း	-6.0787
လည်း	-6.08699
သူ	-6.10116
တွင်	-6.10822
လျှင်၊	-6.12036
သိ	-6.1317
▁ထာဝရဘုရား	-6.13372
▁သင်တို့	-6.13836
နေ	-6.15468
လက်	-6.15681
ော	-6.16304
ပေး	-6.16589
▁သူတို့	-6.17004
▁လူ	-6.17089
သေ	-6.17264
လာ	-6.18941
ုံ	-6.18948
▁သူ	-6.19008
ုန်	-6.20323
ီး	-6.21099
ပြ	-6.2117
မှာ	-6.22011
ှ	-6.24368
နှစ်	-6.27067
လျက်	-6.2733
အမှု	-6.27549
္	-6.27657
မည်။	-6.27852
နာ	-6.28067
▁အကျွန်ုပ်	-6.28139
▁သ	-6.28315
ဂ	-6.29168
ပြော	-6.29627
လေ၏။	-6.30575
ခံ	-6.3216
ကြီး	-6.33318
▁မိမိ	-6.33341
မြင်	-6.33469
ီ	-6.33721
ကြောင့်	-6.34329
ရေ	-6.35789
ရောက်	-6.36053
ူ	-6.36537
ကျ	-6.37359
နား	-6.37682
သာ	-6.3854
▁ကိုယ်တော်	-6.40526
မိ	-6.40569
န့်	-6.40845
စား	-6.41235
ကား	-6.43984
တရား	-6.44038
ါ	-6.44124
ော်	-6.44226
၎င်း၊	-6.45293
ုတ်	-6.46312
ပြီး	-6.46714
ပြီ။	-6.48067
အရာ	-6.50003
▁အာ	-6.50181
▁ဤ	-6.50227
တော်မူ၏။	-6.50252
နှ	-6.51017
ဟ	-6.5137
သက်	-6.52855
ကျွန်	-6.53329
ကဲ့သို့	-6.53492
လိမ့်မည်။	-6.53568
▁ဘုရားသခင်	-6.5522
ဘုရား	-6.56535
အရပ်	-6.56915
ရိ	-6.59223
ဆောင်	-6.5933
▁ကိုယ်	-6.59496
အမျိုး	-6.59529
အပြစ်	-6.60768
အကြောင်း	-6.61019
စွာ	-6.62133
ူး	-6.62217
▁န	-6.62898
လူ	-6.63557
ုပ်	-6.63949
▁အဘယ်	-6.64146
ယော	-6.64282
အတိုင်း	-6.64899
ပင်	-6.65222
တော်ကို	-6.65565
ယူ	-6.65699
လော	-6.65823
ကောင်း	-6.66715
ဧ	-6.66925
တတ်	-6.67207
နေ့	-6.67613
ြ	-6.68489
ပြန်	-6.68978
ရှင်ဘုရင်	-6.69935
လျက်၊	-6.73253
ိမ်	-6.73275
လေ	-6.73322
တောင်	-6.75246
ခံရ	-6.75436
မျှ	-6.76633
အမျိုးသား	-6.77312
င	-6.77384
▁က	-6.77992
ိတ်	-6.78882
ခြင်းကို	-6.79137
လျှင်	-6.79439
ဖြင့်	-6.7957
ရော	-6.7996
တိုင်	-6.80041
နည်း	-6.80065
လုံး	-6.80136
▁ထိုသူ	-6.80169
လိုက်	-6.8029
နိုင်	-6.81237
တ္တ	-6.81997
ဘက်	-6.82799
ား	-6.83571
ကြား	-6.84723
ွား	-6.86088
အိမ်	-6.86238
▁ထ	-6.86553
တည်း	-6.86615
ွေ	-6.86822
ရမည်။	-6.86838
▁သင့်	-6.86959
လုပ်	-6.87175
စဉ်	-6.87747
တပါး	-6.87808
▁ကျ	-6.87921
က၊	-6.88192
▁ငါတို့	-6.88278
ည	-6.88305
▁ငါသည်	-6.88645
မရှိ	-6.89285
မင်း	-6.89303
ပေါ်မှာ	-6.89852
လှ	-6.90238
ရှု	-6.90291
စေခြင်းငှါ	-6.90487
လော့။	-6.90684
ငါ	-6.90767
▁သင်၏	-6.90875
ရှိသော	-6.91358
▁သင်သည်	-6.91506
ထွက်	-6.91594
ေါ	-6.92153
ရှိ၏။	-6.92446
အားဖြင့်	-6.92648
စိတ်	-6.93501
ဘဲ	-6.94247
နှုတ်	-6.94247
ောင်း	-6.94553
ယဇ်	-6.95632
ဆယ်	-6.95667
အဘ	-6.95756
ကြလော့။	-6.96457
▁နေ	-6.96954
မိန့်တော်မူ	-6.97417
စာ	-6.97668
သခင်	-6.97917
▁ဣသရေလအမျိုး	-6.97985
▁သင်တို့သည်	-6.98895
ခြင်းငှါ	-6.99023
သဖြင့်၊	-6.99447
မြေ	-6.9976
▁ထိုသို့	-7.00552
ချင်း	-7.0169
၎င်း	-7.01767
ခြ	-7.018
ရဲ	-7.01888
ဆင်း	-7.02112
▁သူတို့သည်	-7.02147
သောအခါ၊	-7.02184
တည်	-7.02312
▁ပြု	-7.02424
ခါ	-7.03781
▁သင်	-7.03864
စီရင်	-7.04184
မာ	-7.04629
နောက်	-7.0475
လွှတ်	-7.04835
ငယ်	-7.05678
▁သူ၏	-7.0705
ဦး	-7.07067
ကာလ	-7.07637
ဝင်	-7.08005
ပြင်	-7.08128
ပါ၏။	-7.08528
ကြလိမ့်မည်။	-7.09391
လွန်	-7.09656
စုံ	-7.09678
ကလည်း၊	-7.10673
▁ယုဒ	-7.10814
▁ထာဝရဘုရားသည်	-7.10848
ရှာ	-7.11163
စစ်	-7.11579
တိ	-7.12085
သတ်	-7.12175
တယောက်	-7.12966
စကား	-7.12989
ဝတ်	-7.13129
တော်မူသော	-7.13237
များကို	-7.14525
မည်ဟု	-7.1461
မဟုတ်	-7.15291
ပေါ်	-7.15415
ရှိသမျှ	-7.16188
သည်လည်း	-7.18753
မိန်းမ	-7.1914
သံ	-7.19293
အပေါင်းတို့	-7.19323
လျှောက်	-7.19605
တို့အား	-7.19649
တိုက်	-7.19909
စကားကို	-7.19933
▁တဖန်	-7.20281
ဖြစ်၏။	-7.20954
လမ်း	-7.21196
စု	-7.22078
ယေရှု	-7.23211
တိုင်အောင်	-7.2377
ထက်	-7.23811
လူတို့	-7.23818
ကို၎င်း၊	-7.23942
▁ဣသရေလ	-7.24037
ဆုံး	-7.24373
ဒါဝိဒ်	-7.25257
စောင့်	-7.25572
သုံး	-7.2671
ခွ	-7.26722
ဘုရားသခင်	-7.26914
▁အို	-7.27765
အဘို့	-7.28254
▁ထာဝရဘုရား၏	-7.2872
ခေါ်	-7.29249
ဏ	-7.29453
▁ထိုအခါ	-7.2967
ထာဝရဘုရား	-7.30092
သည်ကား၊	-7.30174
သည်ဟု	-7.30408
အလို	-7.30814
တို့၏	-7.31991
စရာ	-7.32203
လိ	-7.32685
ဟော	-7.35053
ဟာ	-7.35065
ပေါင်း	-7.35547
မှီ	-7.3556
အသီး	-7.35615
သတည်း။	-7.36501
▁ယေ	-7.36893
ကြည့်	-7.37304
ခဲ့	-7.3764
▁သူ့	-7.3792
ရှေ့	-7.37999
▁မိန့်တော်မူ၏။	-7.38031
ကျင့်	-7.38458
မျက်	-7.39168
▁အသက်	-7.39203
ဘို့	-7.39316
ကျေးဇူး	-7.40497
ဝေး	-7.40664
▁အကြောင်းမူကား၊	-7.4192
တွေ့	-7.42287
မျိုး	-7.43051
▁ကောင်းကင်	-7.43101
အပေါင်းတို့သည်	-7.43641
ကောင်	-7.45302
▁အဘယ်သူ	-7.45313
လည်	-7.45737
တတ်၏။	-7.46422
သောကြောင့်၊	-7.46521
အရှင်	-7.46737
ဣ	-7.47134
သမျှ	-7.47186
တူ	-7.48451
တံ	-7.49009
▁ယဇ်ပုရောဟိတ်	-7.49278
▁ဘုရားသခင်၏	-7.49666
သနည်း။	-7.50313
မျက်နှာ	-7.50691
သမီး	-7.52959
ညီ	-7.54891
မင်းကြီး	-7.55046
ခြေ	-7.55191
နေရာ	-7.55259
▁သိုး	-7.55489
အခွင့်	-7.55728
စီး	-7.56567
▁ယခု	-7.56822
ပျက်	-7.5687
တံခါး	-7.5696
▁မောရှေ	-7.5696
ဖြောင့်	-7.57373
ထဲက	-7.58402
ထံသို့	-7.58927
ဌ	-7.59326
နိုင်ငံ	-7.61177
ကြောင်းကို	-7.61579
ရှေ့မှာ	-7.63174
▁မိုဃ်း	-7.635
သော်၊	-7.63609
ဟေ	-7.647
မ္မ	-7.65069
ပလ္လင်	-7.65729
အခြား	-7.66047
ပြား	-7.66196
မှစ၍	-7.66252
ပူဇော်	-7.6709
သောအခါ	-7.67142
ဝိညာဉ်	-7.67527
အချိန်	-7.69714
သော်လည်း၊	-7.70093
မူကား၊	-7.7148
▁ယေရုရှလင်မြို့	-7.72087
လော့ဟု	-7.72253
ဥစ္စာ	-7.7273
နှင့်အတူ	-7.73388
▁ထာဝရ	-7.73988
ရွှေ	-7.74028
တည်းဟူသော	-7.75012
တော်မူပါ။	-7.7633
နှင့်တကွ	-7.76508
▁မြေကြီး	-7.77564
ငွေ	-7.7784
ပညာ	-7.79079
ပညတ်	-7.79759
ခုနစ်	-7.80085
လူမျိုး	-7.81311
ကျိန်	-7.81402
ထဲသို့	-7.81689
လွတ်	-7.8172
မင်္ဂလာ	-7.82721
တမန်	-7.83147
လိမ့်	-7.83362
လိမ့်မည်ဟု	-7.84237
အံ့	-7.84444
ပိုင်	-7.8714
ဥ	-7.87462
ရှေ့တော်၌	-7.88597
ငြိမ်	-7.88779
ကျိုး	-7.93271
▁မီးရှို့	-7.94222
ပွဲ	-7.94515
သလော။	-7.94642
ဟူမူကား၊	-7.95833
ပြီဟု	-7.96039
ယုံကြည်	-7.96444
?????????	-7.97004
▁အဲဂုတ္တုပြည်	-7.97884
ဖျက်ဆီး	-7.99346
ညီအစ်ကို	-8.01471
ဘုန်း	-8.0151
မယား	-8.01935
ရွေး	-8.02056
တန်ဆာ	-8.02769
မုန့်	-8.03292
ခေါင်း	-8.0431
အိပ်	-8.0451
ဒုစရိုက်	-8.06087
ထင်ရှား	-8.06088
ပြစ်မှား	-8.06765
တန်ခိုး	-8.07446
ရွာ	-8.08098
ဟူ၍	-8.08144
ဝမ်းမြောက်	-8.09288
▁သို့ဖြစ်၍	-8.09597
လှည့်	-8.10227
အတွက်	-8.11879
တော်မမူ	-8.12115
ချီးမွမ်း	-8.12354
အမွေ	-8.13967
ဗိုလ်	-8.14778
သဘော	-8.14818
▁အသက်ရှင်	-8.15032
ပူဇော်သက္ကာ	-8.16262
ယောက်ျား	-8.16511
ပတ်လုံး	-8.16522
စိတ်နှလုံး	-8.18275
▁သို့သော်လည်း	-8.18679
သနည်းဟု	-8.19305
▁ကယ်တင်	-8.20849
ဖွဲ့	-8.22691
မျက်စိ	-8.24573
အမိန့်တော်	-8.25658
▁ယာကုပ်	-8.2593
▁ရှောလု	-8.27869
စွန့်	-8.27892
▁နောက်တဖန်	-8.28149
▁သစ္စာ	-8.2843
▁ဗိမာန်တော်	-8.28712
ဖြေ	-8.29005
ခမည်းတော်	-8.29562
▁သို့ရာတွင်	-8.29848
ဩ	-9.80494
ဃ	-9.80504
ဦ	-9.80514
ဉ	-9.80524
၎	-9.80534
?	-9.80544
ဤ	-9.80544
