<pad>	0
</s>	0
<unk>	0
¦	-1.46929
▁¦	-1.48277
ᓐ	-3.25504
ᒡ	-3.59334
ᒃ	-3.7144
▁᙮	-3.83155
▁,	-3.93349
ᑕᔥ	-4.33615
ᕽ	-4.45295
ᓂ	-4.65692
ᑳ	-4.895
ᑲᔦ	-4.933
ᒦ	-4.94348
ᐙ	-5.06169
ᒋ	-5.13248
ᐞ	-5.14865
ᐃ	-5.2781
ᑮ	-5.28763
ᐁ	-5.29549
ᔥ	-5.47649
ᑭᔐᒪᓂᑑ	-5.48348
▁:	-5.589
ᑳᐐ	-5.60246
ᓴ	-5.63053
ᐃᐃ	-5.64877
ᔅ	-5.68637
ᑭ	-5.69806
ᑫ	-5.71913
ᒻ	-5.72959
ᓇ	-5.7434
ᐗ	-5.80554
ᐁᑮ	-5.80752
ᑕ	-5.90759
ᑯ	-5.91227
ᒋᓴ	-5.93351
ᐋᓃ	-5.93504
ᐃᐃᒫ	-5.94993
ᐅ	-5.98765
ᑳᑮ	-5.9968
ᐃᓂ	-6.01157
ᐐᓐ	-6.01519
ᒫ	-6.04498
ᐊᐎᔭ	-6.07737
ᐅᑮ	-6.13718
ᑲᑭᓇ	-6.1798
ᑖ	-6.18109
ᐊᐲ	-6.20764
ᐊᐊ	-6.21443
ᑳᐃᔑ	-6.25513
ᔭ	-6.28941
ᔦ	-6.29
ᐅᐅ	-6.30118
ᐃᑭ	-6.33177
ᓰ	-6.38473
ᓃ	-6.39603
ᔮ	-6.41633
▁?	-6.56432
ᒥ	-6.60009
ᓯ	-6.60894
ᑫᑰ	-6.61644
ᐁᔑ	-6.65037
ᐃᑯ	-6.65885
▁	-6.66864
ᐸ	-6.70406
▁!	-6.79419
ᒥᓐ	-6.83359
ᓅ	-6.86225
ᐌ	-6.87141
ᐐ	-6.87802
ᔥᐱ	-6.88045
ᐎᓐ	-6.88687
ᑭᑲ	-6.89943
ᑮᓇᐙ	-6.91966
ᐅᑮᐃᓈ	-6.93061
ᒪ	-6.93729
x	-6.94249
𐋇	-6.94416
ᐃᔑ	-6.95085
ᐊ	-6.95655
ᑦ	-6.97465
ᓈ	-6.97523
ᐊᑮ	-6.98613
ᑎ	-6.99218
ᓲ	-7.03672
ᑲ	-7.04544
ᐅᒋ	-7.04573
ᑭᒋ	-7.06068
ᐎ	-7.06908
ᐱᔥᑰ	-7.09125
ᐋ	-7.10663
ᓀ	-7.12753
ᐯᔑ	-7.13673
ᒣ	-7.15091
ᐁᑕ	-7.15431
ᑐ	-7.16251
ᐃᐌ	-7.18219
ᐌᑎ	-7.18789
ᐅᑲ	-7.19063
ᐋᔕ	-7.19523
ᒥᓂ	-7.20085
ᐃᓇ	-7.22509
ᐱ	-7.22618
ᐁᐐ	-7.24726
ᑰ	-7.24865
ᑳᑎᐯᒋᑫ	-7.25532
ᒦᓇᐙ	-7.26397
ᐃᓂᓂ	-7.31542
ᑳᑮᐃᔑ	-7.31726
ᓈᓐ	-7.32589
ᐃᒫ	-7.34481
ᓂᓂ	-7.34523
ᑮᐃᑭᑐ	-7.34857
ᑭᐸ	-7.39982
ᔑ	-7.4038
ᑌ	-7.41281
ᓄ	-7.41369
ᐄ	-7.42831
ᒀ	-7.43821
ᓂᑮ	-7.44832
ᑳᔑ	-7.4485
ᑳᐅᒋ	-7.45332
ᑌᐺ	-7.47177
ᑫᑯ	-7.47373
ᑣ	-7.48042
ᐊᐌ	-7.4826
ᐃᐃᐌ	-7.48679
ᐲ	-7.49557
ᐯᔑᑾ	-7.51075
ᑯᑕ	-7.53774
ᐅᔕ	-7.55592
ᑭᑮ	-7.55745
ᐹ	-7.55989
ᑴ	-7.56223
ᓈᐙ	-7.57235
ᐁᑳ	-7.58406
ᐃᓂᓂᐗ	-7.60307
ᑾ	-7.60682
ᓂᑲ	-7.61617
ᔑᑾ	-7.62931
ᐅᐌ	-7.63004
ᐎᓂ	-7.65186
ᐋᐱᒋ	-7.65297
ᓂᓂᒻ	-7.66222
ᐱᑯ	-7.71187
ᐆᑌᓈ	-7.71444
ᒫᐗ	-7.74234
ᒎᐗ	-7.7441
ᒥᓯᐌ	-7.77315
ᐐᑫ	-7.79037
ᐊᔮ	-7.79949
ᐅᑮᐃᑰ	-7.80156
ᒣᒀ	-7.81038
ᐋᓂ	-7.83265
ᐤ	-7.84925
ᐊᐌᓀ	-7.85102
ᐌᑯᓀ	-7.86171
ᑾᔭ	-7.87131
ᐊᐊᐌ	-7.88305
ᑕᑲ	-7.89604
ᑮᐃᔑ	-7.89976
ᑳᑮᐅᒋ	-7.90286
ᓇᐗ	-7.91216
ᐅᐅᐌ	-7.91645
ᑫᐅᒋ	-7.93448
ᐅᑯ	-7.94291
ᒋᐅᒋ	-7.94512
ᐃᑭᑐ	-7.94911
ᐅᑌᐺᑕᒨ	-7.94976
ᓱ	-7.95177
ᓭ	-7.96034
ᐌᒋ	-7.96343
ᑮᐊᓂ	-7.96695
ᒨᔕ	-7.96748
ᑫᔮᐱ	-7.97196
ᐗᐊ	-7.97975
ᐅᑭᑭᓄᐊᒪᐙᑲᓇ	-7.99668
ᐅᑯᓯᓴ	-8.01482
ᓃᐱᐗ	-8.01482
ᑫᔑ	-8.01775
ᓯᒀ	-8.0188
ᒪᒋ	-8.02981
ᑑ	-8.0436
ᐅᑖ	-8.05226
ᐯᒫᑎᓯᓂ	-8.06008
ᐃᓇᔥᑫ	-8.06519
ᐯ	-8.06573
ᑲᑴ	-8.06775
ᒪᓐ	-8.07478
ᓂᑕ	-8.07976
ᒧ	-8.08496
ᐃᓀᑖᑯᓯ	-8.09015
ᑭᑖ	-8.09031
ᒞ	-8.0906
ᐊᐗᔑᒣ	-8.0906
ᑯᐙ	-8.09261
ᐐᓇᐙ	-8.09594
ᔐ	-8.09927
ᐁᑮᐃᔑ	-8.12761
ᒨ	-8.13094
ᐌᓂᐗ	-8.13143
ᐲᑕᕒ	-8.13358
ᓂᑖ	-8.13626
ᒪᔮ	-8.13888
ᓯᐌ	-8.1448
ᐲᓂ	-8.14562
ᒫᒑ	-8.14678
ᑳᐃᓈ	-8.14865
ᑉ	-8.15008
ᑮᐅᒋ	-8.15131
ᒦᐗ	-8.1552
ᒥᓄ	-8.15579
ᒌ	-8.15877
ᐅᓄ	-8.16063
ᑭᒋᑮᔑᑯ	-8.18458
ᓵ	-8.20068
ᐯᒫᑎᓯᐙ	-8.20188
ᑲᓇ	-8.20815
ᑮᔑ	-8.20952
ᑕᔑ	-8.21241
ᑮᐃᑭᑐᐗ	-8.21568
ᓯᓂ	-8.2215
ᐃᔑᒋᑫ	-8.22228
ᐃᔖ	-8.22411
ᑮᐌ	-8.22552
ᓇᑰ	-8.23162
ᓯᓅ	-8.23601
ᑲᓅᓈ	-8.25497
ᑳᑕᔑ	-8.26053
ᑎᓄ	-8.26086
ᒧᐙ	-8.26315
ᑲᔥᑭᑑ	-8.26639
ᐃᑴ	-8.26889
ᐸᑳ	-8.27297
ᐊᔮᓂ	-8.27338
ᐅᓇᔓᐌᐎ	-8.28179
ᓰᐗ	-8.28435
ᐁᐊᓂ	-8.28942
ᐁᐃᔑ	-8.29266
ᔔᓂᔮ	-8.30989
ᒪᑲ	-8.31769
ᐙᐸ	-8.31866
ᒉᕒᐆᓴᓬᐊ	-8.32629
ᑆᓬ	-8.33205
ᓃᔑ	-8.33452
ᑫᑰᓂᓂ	-8.35175
ᑭᒋᐅᑭᒫ	-8.35209
ᐊᓂ	-8.35278
ᓯᓂᓂ	-8.35288
ᐅᑕᒑᑾ	-8.36008
ᐱᒫᑎᓯ	-8.36244
ᓈᓂ	-8.38613
ᐋᓇ	-8.39581
ᐎᓂᐙ	-8.40903
ᐃᓇᑫ	-8.41672
ᐋᑎ	-8.42387
ᐁᑮᐃᓈ	-8.42894
ᐃᓈ	-8.43041
ᐃᓂᐌᓂᐗ	-8.43468
ᐃᑴᐗ	-8.43488
ᔕ	-8.43806
ᑮᔑᑲᓂᓂ	-8.43854
ᑯᐸᓀ	-8.43896
ᓯᐙ	-8.44289
ᒥᓍᒋᒧᐎ	-8.45497
ᐃᓴ	-8.46387
ᓀᒀ	-8.46784
ᐐᒌᐙ	-8.47105
ᐱᒫᑎᓯᐎ	-8.47501
ᐃᔑᓭ	-8.4771
ᐎᓇ	-8.47937
ᑳᐱ	-8.48623
ᑕᑯ	-8.48825
ᐌᐌᓂ	-8.50053
ᒫᒌ	-8.5008
ᐐᒌᐎ	-8.50155
ᑯᒫ	-8.50849
ᒥᒋ	-8.50988
ᒋᐃᔑ	-8.51708
ᐊᒦ	-8.51908
ᐊᑭ	-8.53577
ᑭᒋᐊᓇᒥᐁᐎᑭᒫ	-8.55576
▁;	-8.55694
ᐹᓂᒫ	-8.557
ᑮᐊᔮ	-8.56474
ᓯᐗ	-8.56512
ᓂᓯ	-8.56514
ᐃᐃᐌᓂ	-8.56999
ᒦᒋ	-8.58784
ᓯᓄ	-8.58922
ᐁᐱ	-8.59754
ᒨᓯ	-8.59845
ᒪᒋᐊᒑᑾ	-8.59984
ᓂᐳ	-8.60363
ᑕᒪᐙ	-8.6079
ᔂ	-8.6213
ᐅᑮᐃᔑ	-8.62316
ᓃᓇ	-8.62626
ᑰᔦ	-8.62836
ᑳᑮᐱ	-8.63238
ᑫᓂ	-8.63733
ᓈᑯᓯ	-8.63812
ᑭᑭᓄᐊᒫᑫ	-8.63998
ᐋᐸᒋᑑ	-8.64437
ᔖᑰ	-8.64516
ᓂᑖᐎᑭ	-8.65521
ᑭᑭ	-8.66816
ᐅᑕ	-8.67357
ᒪᒋᑑᑕᒧᐎ	-8.67656
ᐯᐸᑳ	-8.68204
ᐃᓈᑯᓂᑫᐎ	-8.68561
ᔒ	-8.6873
ᐁᒐᓬᐊ	-8.69175
ᐐᒋ	-8.69255
ᑕᑯᔑ	-8.69351
ᒋᑳᑌ	-8.69367
ᑮᐱ	-8.69928
ᐊᓇᒥᐋ	-8.70037
ᔥᑲ	-8.70786
ᔭᐄ	-8.70794
ᐅᑑ	-8.70998
ᑳᓂ	-8.71618
ᑭᑑ	-8.7201
ᒦᓴ	-8.72541
ᐊᔮᐙ	-8.72797
ᑳᐊᔮ	-8.73255
ᐲᑎᑫ	-8.73623
ᑲᒥ	-8.74124
ᑕᐌ	-8.74321
ᕒ	-8.74909
ᓂᑯ	-8.75044
ᑳᐊᔮᐙ	-8.75433
ᑳᒎᐎᐎᓯ	-8.75445
ᐁᑮᐊᓂ	-8.75566
ᐲᔖ	-8.75716
ᑮᓇᐎ	-8.76272
ᐸᐹ	-8.76303
ᑖᑯᓯ	-8.7633
ᐆ	-8.77059
ᑭᒋᐊᓇᒥᐁᐎᑲᒥᑯ	-8.7744
ᑎᐸ	-8.77483
ᐐᓯᓂ	-8.77532
ᑮᔑᑲ	-8.77589
ᒦᐃ	-8.77798
ᒋᑫ	-8.77877
ᑭᑭᓄᐊᒪᐙᑲᓇ	-8.77942
ᓂᑌᑌ	-8.78115
ᐐᑕᒪᐎ	-8.78304
ᐃᔑᐲᐃᑳᑌ	-8.79476
ᓵᑭ	-8.79494
ᑮᑭᒋ	-8.79812
ᑯᓯ	-8.80882
ᑌᐯᒋᑫ	-8.81304
ᒋᑮ	-8.81967
ᐐᑕᒪᐙ	-8.83111
ᐊᑕ	-8.8316
ᐅᒫ	-8.83308
ᐸᑭᑎᓈ	-8.83429
ᐊᔮᔦ	-8.83508
ᑌᐱ	-8.84291
ᒪᐎ	-8.84413
ᐊᓄᑮ	-8.84726
ᒋᑆ	-8.84748
ᐃᓀᑕ	-8.8481
ᒪᔑ	-8.85009
ᓈᐱ	-8.85162
ᐃᔥᒀ	-8.85452
ᑳᐃᑭᑐ	-8.85847
ᐅᑕᒑᑯᓂ	-8.85943
ᑲᓂᐎ	-8.86341
ᐋᓇᐐ	-8.86428
ᐙᐸᒫ	-8.86472
ᑑᑕ	-8.86674
ᑫᓃ	-8.8687
ᐁᐸᕒᐊᐋ	-8.87872
ᑫᐃᔑ	-8.87941
ᒋᐱ	-8.88734
ᐅᑖᐱᓇ	-8.88748
ᐯᕒᐊᓰ	-8.89169
ᐱᓵ	-8.89232
ᐃᔑᓭᓂ	-8.89355
ᔖ	-8.89958
ᓂᑎ	-8.90142
ᑭᑫᓂᒫ	-8.9028
ᒥᓂᑴ	-8.9045
ᑫᒋᓈ	-8.90584
ᐁᑮᐅᒋ	-8.90976
ᐃᓀᑖᑾ	-8.91039
ᐅᔥᑭ	-8.91798
ᒦᓈ	-8.92233
ᑑᑕᐎ	-8.923
ᐯᑭ	-8.93014
ᐁᐃᑭᑐ	-8.93071
ᐅᓵ	-8.9324
ᓇᑫ	-8.93294
ᒥᑰ	-8.93582
ᑭᑎᔑ	-8.94965
ᑮᐅᑌᑌ	-8.95394
ᑌᐺᐎ	-8.95397
ᐃᔑᓈᑾ	-8.95806
ᒋᑲᓂᐎ	-8.9588
ᑭᓯ	-8.96012
ᑳᑭᒋ	-8.9644
ᔑᒫᑲᓂᔕ	-8.96452
ᑭᒋᒪᓯᓇᐃᑲ	-8.96885
ᐅᑎ	-8.97131
ᐃᑯᐙ	-8.97223
ᒥᑯ	-8.97549
ᑳᐊᔮᓂ	-8.98244
ᐊᓇᒥᐁ	-8.98521
ᐙᐱ	-8.98531
ᓇᑭ	-8.98669
ᑳᐅᒌ	-8.98699
ᓍ	-8.98996
ᒥᓉᑕ	-8.98997
ᑰᔭ	-8.99163
ᑖᑾ	-8.99291
ᑌᐺᑕ	-8.99665
ᐊᐱ	-8.99744
ᐅᑯᓯᓯ	-9.01344
ᐁᒐᓬ	-9.01517
ᐁᐅᒋ	-9.02131
ᐐᒋᐃ	-9.0232
ᒑ	-9.02374
ᓃᐸᐎ	-9.02449
ᑳᐃᔑᒋᑫ	-9.02572
ᐯᔓ	-9.02782
ᒫᐗᒋᐃᑎ	-9.02786
ᓵᐃᒪ	-9.02954
ᑳᐃᔥᒀ	-9.03133
ᐄᓴ	-9.03204
ᐅᑭᒋ	-9.03209
ᐱᒫᑎᓯᐙ	-9.0343
ᑕᒫ	-9.03433
ᐁᑕᔑ	-9.04101
ᐗᓂᓂ	-9.04143
ᐃᑎᓱ	-9.04634
ᐁᑮᐱ	-9.04827
ᓃᑳᓂ	-9.05347
ᐅᔑ	-9.05542
ᐴ	-9.056
ᐙᓭᔮ	-9.05816
ᒥᑖ	-9.06012
ᒫᐙ	-9.06225
ᐸᑮ	-9.06867
ᐊᐱᓅᒌᔕ	-9.07061
ᑮᑭᑐ	-9.07712
ᐗᑭ	-9.07842
ᐯᔑᑯ	-9.0789
ᐐᒌᐎᑯ	-9.0815
ᔫ	-9.08463
ᐃᔥᑯᑌ	-9.08496
ᓰᒥ	-9.08516
ᑲᓇᐌᑕ	-9.08881
ᐲᐎ	-9.08904
ᐁᑭᒋ	-9.09077
ᐅᒌ	-9.09403
▁¦3	-9.0944
ᓈᑯ	-9.09804
ᐹᐃᓬᐊ	-9.09892
ᐙᐸᑕ	-9.10076
ᐱᒫᒋᐃ	-9.10231
ᑕᓱ	-9.10302
ᐅᒫᒫ	-9.10408
ᐋᐱ	-9.10491
ᒥᐙ	-9.10581
ᑕᒧᐙ	-9.10617
ᐋᐙ	-9.114
ᒎᑕ	-9.11488
ᑭᑌ	-9.11777
▁¦2	-9.11846
ᑭᑭᑫᑖ	-9.11874
ᓬ	-9.1195
ᓂᓂᑭ	-9.12466
ᑭᑕ	-9.12482
ᐐᑕᒪᐎᓇᑰ	-9.12491
ᒦᓂᑰ	-9.12511
ᐅᑭᑭᓄᐊᒫᑫ	-9.12554
ᐃᑰ	-9.12681
ᓅᒋᑯ	-9.12827
ᐊᔮᐗ	-9.13141
ᐁᕒᐊ	-9.13192
ᐁᑕᓱ	-9.13682
ᑕᒪᐎ	-9.13825
ᓈᓂᐗ	-9.14407
ᒪᔥᑲᐎᓰ	-9.14436
ᑲᑴᒋᒫ	-9.15285
ᐅᑌᑌ	-9.15319
ᐅᑮᐅᒋ	-9.15324
ᐙᐸᒥ	-9.1546
ᐃᔥᐱ	-9.15792
ᐎᓂᓂ	-9.16219
ᒪᑲᓂᓂ	-9.16859
ᐃᔑᐌᐸ	-9.17131
ᐊᓯᓃ	-9.17302
ᑭᑎ	-9.17331
ᐁᑭᑐ	-9.17371
ᔕᐌᑖᑯᓯ	-9.17373
ᐆᑌᓇ	-9.17475
ᐅᐙᑳᐃᑲᓂ	-9.17576
ᓵᑭᐋ	-9.18455
ᓭᓂ	-9.18837
ᐁᐊᔮ	-9.18863
ᑳᐃᑯ	-9.19309
ᐅᒋᒋᓭ	-9.19596
ᑭᐐ	-9.19767
ᑎᓱ	-9.20361
ᐌᔫᓯᒥ	-9.20508
ᐸᑭᑎᓂ	-9.2104
ᐁᔑᒋᑫ	-9.21461
ᑌᓂ	-9.21477
ᒪᒋᐊᔭᐋ	-9.21604
ᓇᑴᑕ	-9.21646
ᑎᐱ	-9.21865
ᓈᑾ	-9.21884
ᐁᓈᓴᒦ	-9.22121
ᑭᑫᓂᒥ	-9.22178
ᐁᔮ	-9.22278
ᐁᔑᓈᑾ	-9.22287
ᒋᐋ	-9.2237
ᐅᐱᒫᑎᓯᐎ	-9.22395
ᐊᐎ	-9.23302
ᑳᑭᑭᓄᐊᒫᑫ	-9.23393
ᒨᔥᑭᓀ	-9.23619
ᐃᑭᑑᒪᑲ	-9.23788
ᒥᓴᐙ	-9.23792
ᐃᔑᐊᔮ	-9.23894
ᑳᓂᑖ	-9.23899
ᑫᑮ	-9.24908
ᑭᑎᑳᓀ	-9.24935
ᑮᐃᔖ	-9.25333
ᐃᔅᕒᐃᔭᓬᐊ	-9.25458
ᓅᑌᓭ	-9.25631
ᐁᐲᒋ	-9.25792
ᒫᒥᑲᐎ	-9.26906
ᑫᑌ	-9.2697
ᒧᐗ	-9.27052
ᐅᑕᓄᑮᐋᑲᓇ	-9.27122
ᐃᔑᓂᔕᐙᑲᓇ	-9.27207
ᐐᐸ	-9.2722
ᓈᑯᑑ	-9.27589
ᐁᔑᓈᑯᓯ	-9.27614
ᑭᐐᑕᒪᐎ	-9.27687
ᐌᓂ	-9.27727
ᐙᐸᒫᐙ	-9.28158
ᐊᑕᐌᑕ	-9.28438
ᒪᔥᑲᐎ	-9.28488
ᒋᑳᑌᓂ	-9.28897
ᐅᓄᐌᓂᐗ	-9.28938
ᑖᓈᐙ	-9.29085
ᐃᓀ	-9.29305
ᑲᔥᑭᑑᓰ	-9.29475
ᐙᐸᑕᒧᐙ	-9.30025
ᐃᔑᒋᑫᔦ	-9.30099
ᐃᔑᓂᔕᐅ	-9.30277
ᐁᑮᐃᑭᑐ	-9.30488
ᐃᔑᒋᑫᐙ	-9.30507
ᓂᓯᑐᑕ	-9.30581
ᒣᐎᔕ	-9.306
ᐸᑴᔑᑲᓇ	-9.30841
ᓇᐎ	-9.31157
ᔑᓈ	-9.31182
ᓃᐎ	-9.31346
ᐌᐱᓈ	-9.31634
ᓬᐃ	-9.31835
ᒣᕒᐃ	-9.32386
ᐅᔑᑑ	-9.32419
ᒥᓇ	-9.32447
ᓵᑭᐃ	-9.32498
ᓂᑎᔑ	-9.32518
ᑆᓬᐊ	-9.32644
ᑳᐊᓂ	-9.3275
ᒥᑲᐙ	-9.32841
ᓉ	-9.33382
ᑯᓰ	-9.33523
ᑭᑫᑖ	-9.33637
ᐙᑳᐃᑲᓂ	-9.33658
ᑲᒀᑕᑭᑑ	-9.33714
ᐸᑭᑎᓇ	-9.33727
ᐊᐌᓀᓇ	-9.33807
ᑯᓂ	-9.33843
ᒦᑭᐌ	-9.33855
ᓯᐙᐙ	-9.33878
ᓅᑕᒧᐙ	-9.34
ᒦᓂᑰᐎᓯ	-9.34207
ᐱᔑᔑ	-9.34207
ᑲᑭᑐ	-9.3424
ᑎᐯᓂᒥᑯ	-9.34296
ᓈᑲ	-9.3443
ᐅᑯᓯᓯᒫ	-9.34536
ᐱᓵᓂ	-9.34571
ᐅᑎᓯ	-9.34781
ᓈᐸ	-9.34823
ᐅᓇ	-9.3488
ᐅᑮᐱ	-9.35367
ᐱᒧᓭ	-9.35431
ᐃᔑᓈᑯᓯ	-9.35505
ᓂᓯᓐ	-9.35626
ᑳᓵᑭᐃ	-9.35854
ᐅᑖᐱᓈ	-9.3586
ᑕᐎ	-9.3589
ᑎᐱᓇᐌ	-9.36055
ᑳᐸᐎ	-9.36076
ᐊᑲ	-9.36081
ᒫᒪ	-9.36261
ᓃᔣᓱ	-9.36277
ᐐᑕᒫᑫ	-9.3632
ᑕᒧ	-9.36949
ᑮᐌᐱᒫᑎᓯ	-9.37027
ᑭᑭᔥᑳᑯ	-9.37125
ᑫᑳ	-9.37151
ᓂᐐ	-9.37264
ᓈᑾᓂᓂ	-9.37441
ᑳᓬᐊᓬᐄ	-9.37775
ᑳᑎᐯᑕ	-9.37875
ᐋᐸ	-9.37935
ᐋᔑᑌᔮᑎ	-9.37943
ᐗᔦᔑ	-9.38078
ᒎᓴ	-9.38197
ᒦᓂᑯ	-9.38221
ᐹᑏᓄ	-9.38323
ᒫᒪᐎ	-9.39074
ᑕᓯ	-9.39443
ᓂᐳᐎᓂ	-9.39451
ᐅᑮᐃᓈᐙ	-9.39641
ᔔᒥᓈᐳ	-9.39866
ᐙᑳᐃᑲ	-9.40177
ᑭᒋᑲ	-9.40241
ᐃᓀᓂᒥ	-9.40317
ᐅᑎᑭᑐᐎ	-9.40332
ᑎᐯᑖᑯᓯ	-9.4095
ᐅᐅᐌᓂ	-9.41135
ᓂᑭ	-9.41175
ᐱᒥᓂᔕᐅ	-9.4141
ᔥᑳᑯ	-9.41471
ᐅᑎᔑ	-9.41727
ᓂᐳᐎ	-9.42183
ᑳᑌ	-9.42851
ᑕᐅᒋ	-9.43056
ᐊᐙ	-9.43205
ᕒᐊ	-9.43244
ᐁᑮᐃᑯ	-9.43288
ᐱᒥ	-9.43294
ᑭᐱ	-9.43824
ᓇᑴᑕᐙ	-9.44409
ᑲᑴᒋᒥ	-9.44527
ᓃᑳ	-9.44562
ᑭᑫᑕᒧ	-9.44621
ᑕᐙ	-9.44788
ᑖᑯ	-9.44842
ᑭᑑᒋ	-9.44892
ᐴᓂ	-9.44897
ᐁᔮᓂ	-9.45573
ᑌᐺᔦᑕ	-9.45729
ᐁᑮᐃᔖ	-9.45859
ᓇᑲᓈ	-9.46038
ᑭᓉ	-9.46443
ᒋᑲ	-9.46443
ᑳᐊᐲᒋ	-9.46521
ᒫᔑ	-9.46533
ᐱᒫᒋᐃᑰᐎ	-9.46858
ᐃᔑᐌᐱᓯ	-9.46992
ᑕᒣ	-9.47036
ᓵᑲᐊ	-9.4725
ᒋᐃᔖ	-9.47355
ᐊᔨ	-9.47438
ᓂᐱ	-9.47842
ᐅᑖᐱᓂ	-9.47938
ᒬ	-9.47951
ᒫᑭᔖ	-9.47952
ᔑᒫᑲᓂᔒᐎᑭᒫ	-9.47952
▁¦7	-9.48298
ᑑᑕᒧᐙ	-9.48562
ᓂᑳᑌ	-9.48576
ᐅᐐᓱᐎᓂ	-9.49236
ᐊᐸ	-9.49683
ᐊᓄᑮᐋᑲ	-9.4981
ᐐᒋᐋ	-9.50051
ᒫᓇᒑᓂᔐ	-9.50078
ᒥᓈ	-9.50335
ᐁᑮᐊᐎ	-9.50482
ᑎᐹᒋᒧᐎ	-9.50822
ᑾᔭᑯ	-9.50825
ᑲᓅ	-9.51399
ᐱᓯᑕ	-9.51484
ᒋᐃᔑᒋᑫ	-9.51598
ᐊᓇᒥᐁᐎᑲᒥᑯ	-9.51813
ᐅᑮᐙᐸᒫ	-9.51909
ᑲᓅᓂ	-9.51926
ᐊᒀ	-9.51941
ᐌᒌ	-9.51946
ᓯᔅ	-9.52231
ᐁᔑᓂᑳᓱ	-9.52254
ᑲᑴᑗ	-9.52277
ᐅᑎᓯᑯ	-9.52732
ᒥᓀ	-9.5283
ᐙᐸᑖ	-9.52861
ᐃᓀᑖᑯᓯᐎ	-9.52985
ᑳᑑᑕ	-9.53131
ᓭᑕ	-9.53208
ᕒᐄ	-9.53329
ᐊᔮᔮ	-9.53445
ᐌᑖᑯᓯ	-9.53488
ᐅᒌᒪᑲ	-9.53727
ᐊᑐᒥ	-9.53745
ᑮᐊᔮᐗ	-9.5382
ᓵᑭᐃᑎ	-9.53912
ᐅᑎᑭᑐᐎᓂ	-9.53938
ᒥᓄᐊᔮ	-9.54303
ᐱᒌᓇ	-9.54476
ᐅᓵᐎ	-9.54635
ᐃᓀᓂᒫ	-9.547
ᐅᑭᒫ	-9.55041
ᒫᒪᑳᒋᒋᑫᐎ	-9.55064
ᐱᐴ	-9.55126
ᔕᐌᓂᒥ	-9.55174
ᒣᑴ	-9.55337
ᐲᑑ	-9.55392
ᑎᐹᒋᒧ	-9.55684
ᑲᓂ	-9.55733
ᑫᒫ	-9.56109
ᓅᑕ	-9.56146
ᐱᓯ	-9.56153
ᐸᓯᑸ	-9.5623
ᑳᑮᐃᑭᑐ	-9.5654
ᐃᓂᓃ	-9.56562
ᐱᒫᑎᓯᓂ	-9.56628
ᐐᑾᑎ	-9.56867
ᐅᑮᓇᑴᑕᐙ	-9.56999
ᐌᐱᓂ	-9.57024
ᐁᐊ	-9.57057
ᐎᑲᒥᑯ	-9.57109
ᒋᑕᔑ	-9.57144
ᐊᔮᔭ	-9.57161
ᒎᐎ	-9.57178
ᑮᒨᒋ	-9.57191
ᓇᑲᑕ	-9.57262
ᓯᐎᓐ	-9.57523
ᓰᓈᐙ	-9.58232
ᐴᓯ	-9.58572
ᑰᔮ	-9.58961
ᐅᑕᓇᒥᐋ	-9.59073
ᐅᔑᐲᐃᑳᑌ	-9.59073
ᑮᒫᒌ	-9.59102
ᒋᑑ	-9.59108
ᒥᑯᔥᑳᑌᑕ	-9.5912
ᒋᐱᒫᒋᐃᐌ	-9.59121
ᒪᔥᑲᐎᓰᐎ	-9.59157
ᑌᐱᓇ	-9.59248
ᐊᒋ	-9.59282
ᐱᓀ	-9.59315
ᑲᐎ	-9.5945
ᔮᐹ	-9.59497
ᐊᔕ	-9.59891
ᐸᑴᔑᑲ	-9.60156
ᐅᑎᐯᒋᑫᐎ	-9.60503
ᐱᒫᑎᓰᒪ	-9.60677
ᑎᐯᓂᒫ	-9.60694
ᑎᐯᒋᑫ	-9.60743
ᒦᐃᐌ	-9.60908
ᒧᐎ	-9.6096
ᒥᓴᐌᑕ	-9.61227
ᔓ	-9.6124
ᐙᐸᑕᐃ	-9.61301
ᒣᔥᑾ	-9.61456
ᓇᓈᑯᒫ	-9.61476
ᑳᓃᑳᓂᓯ	-9.61494
ᐊᐸᓀ	-9.61547
ᑳᑎᐯᓂᒥᓇ	-9.619
ᐊᑾ	-9.62185
ᒋᐊᓂ	-9.63103
ᑲᓅᓂᑰ	-9.63179
ᒉ	-9.63179
ᒪᓈ	-9.63294
ᐲᒋ	-9.63329
ᐃᑣ	-9.63332
ᐗᐐᑫ	-9.63374
ᑌᐺᔦᓂᒥ	-9.63446
ᓂᑎᓱ	-9.63604
ᒪᓂᑑ	-9.63704
ᑮᐃᔥᒀ	-9.6376
ᐊᔮᒪᑲ	-9.63827
ᑑᑖ	-9.63901
ᐊᑖᐌ	-9.63902
ᓂᔑᐗᓈᑕ	-9.63994
ᑭᑭᓄᐊᒪᐙ	-9.64072
ᑯᐸ	-9.64299
ᒫᒋ	-9.64345
ᐐᒌᐙᐙ	-9.64423
ᐁᑎᓄᐎ	-9.64454
ᐐᒋᐃᑯ	-9.6458
ᐲᑎ	-9.64602
ᑳᐹᑏᓄ	-9.64867
ᐙᐸᑕᒣ	-9.65062
ᓂᓵᐙ	-9.65267
ᑭᑮᐃᔑ	-9.65389
ᐌᒀ	-9.65534
ᐊᓯᓐ	-9.65707
ᐱᒫᑎᓯᐎᓂ	-9.65858
ᐌᐱᓇ	-9.65865
ᑕᑯᔑᓅ	-9.65876
ᔨ	-9.66051
ᔖᑯᐌ	-9.66062
ᐌᓅᑎᓯ	-9.66182
ᑲᓂᓂ	-9.66219
ᑎᐯᓂᒥᑯᐙ	-9.6622
ᐅᑎᓀᑕᒧᐎ	-9.66387
ᓈᓈ	-9.66422
ᑭᑫᑕᒣ	-9.66441
ᑰᐎ	-9.66542
ᐳ	-9.66736
ᐅᑕᔮ	-9.66782
ᑮᑕᔑ	-9.66795
ᑎᓄᐎ	-9.6687
ᓅᑌ	-9.67088
ᐐᑎᑫ	-9.67397
ᐃᓂᓇᑰ	-9.67587
ᒌᒫᓂ	-9.67953
ᐃᔥᒀᑌ	-9.68195
ᐁᓂ	-9.68503
ᔪ	-9.686
ᐊᔓᑕᒫᑫ	-9.68697
ᑭᒋᐅᑭᒫᐎ	-9.68709
ᐊᓉ	-9.68727
ᐊᑐᒫ	-9.68746
ᐃᔑᓈᑾᓂᓂ	-9.6885
ᐴᔔ	-9.68864
ᐅᑎᓈᑯᓂᑫᐎ	-9.68957
ᑮᐃᓀᑕ	-9.68993
ᐊᔮᒀᒥᓯ	-9.69084
ᐃᑭᑐᔭ	-9.69109
ᒥᔅ	-9.69288
ᐋᐸᑕ	-9.69342
ᓂᑕᔮ	-9.69865
ᒥᑲ	-9.70056
ᓃᒋ	-9.70119
ᑭᑎᓂ	-9.70244
ᐸᑭᑌ	-9.70249
ᑮᐃᔑᒋᑫ	-9.70315
ᐐᐗ	-9.70401
ᔥᑲᐙ	-9.70569
ᐊᓄᑮᐎ	-9.70622
ᑎᐹᑯᓂ	-9.70756
ᓂᑑᒋ	-9.70835
ᓂᐹ	-9.70967
ᔥᑲᐎ	-9.71098
ᐱᓬᐊ	-9.71597
ᑭᔒᐌ	-9.71693
ᑎᐸᐊᒪᐙ	-9.71773
ᓂᔑ	-9.72212
ᓈᑫ	-9.72291
ᐁᔑᓈᑾᓂᓂ	-9.72361
ᐃᑭᑐᔮ	-9.72373
ᑌᐺᔦᑕᒧᐎ	-9.72555
ᐗᒀ	-9.72831
ᒎ	-9.72837
ᒥᓄᒋᑫ	-9.73042
ᐅᓂᔑᔑ	-9.73122
ᐅᒋᒋᓭᓂ	-9.73238
ᐱᓱ	-9.73283
ᑭᓱ	-9.735
ᓈᓯᑲ	-9.73585
ᒋᐅᑌᐺᑕᒨ	-9.73905
ᐋᑯᓯ	-9.73939
ᒥᓉᑕᒧ	-9.74073
ᑑᑕᐙ	-9.74196
ᐅᓃᑳᓂᓰ	-9.7429
ᒎᑏᔭ	-9.74291
ᐗᓂᔥᑳ	-9.74293
ᐸᑭᔑ	-9.74448
ᑮᔑᑯ	-9.74952
ᐱᐅᒋ	-9.74971
ᓵᑭᒋ	-9.7574
ᒋᔑ	-9.75805
ᑲᒀᑕᑭᐃ	-9.75827
ᑎᐹᒋᒥ	-9.76312
ᒋᑲᑴ	-9.76485
ᐃᐌᓂ	-9.76545
ᑲᓅᓂᑯ	-9.76632
ᑎᒪ	-9.76768
ᐅᑭᔐᐙᑎᓯᐎ	-9.76849
ᐱᓇᒫ	-9.76908
ᑎᐱᑲ	-9.76982
ᐙᓴ	-9.77059
ᐅᑎᐹᒋᒧᐎᓂᓃᒪ	-9.7707
ᐋᒋᑯ	-9.77092
ᐅᑌᐺᑕᒧᐎᓂ	-9.7727
ᑭᑫᑕᒫ	-9.77325
ᐃᓇᑭᒥ	-9.77382
ᐃᓈᑎᓯ	-9.77415
ᑲᑖ	-9.77758
ᐱᑑ	-9.78186
ᒪᒋᑑᑕ	-9.78279
ᑲᑴᒋᒫᐙ	-9.78282
ᒋᑑᑕ	-9.78289
ᐃᔥᒀᓭ	-9.78368
ᒥᑣ	-9.78442
ᓂᑯᓯ	-9.78546
ᐅᑎᓈ	-9.78653
ᒥᑎ	-9.78766
ᒋᐊ	-9.7883
ᑖᐙ	-9.79044
ᑕᐱ	-9.79211
ᑎᐙ	-9.79239
ᐎᓈ	-9.79311
ᑕᒫᓱ	-9.79571
ᑳᐅᓂᔑᔑ	-9.79593
ᑳᑮᐃᔑᒋᑫ	-9.79706
ᓭᑭᓯ	-9.79842
ᒐᔭᐄ	-9.79931
ᐱᒫᒋᐋ	-9.79946
ᐊᐴᔥᑫ	-9.79964
ᐅᐐᔭᐎ	-9.79999
ᓂᔑᐗᓈᒋᐃ	-9.80045
ᐅᓂᒌ	-9.80108
ᑑᑕᒣ	-9.80248
ᐐᓯᓂᐙ	-9.80352
ᑌᐺᑕᐙ	-9.80619
ᐃᔑᒋᑫᔮ	-9.8072
ᒫᐗᒋ	-9.80727
ᐱᓈ	-9.80783
ᓂᑭᑫᑖ	-9.80838
ᑳᐱᒫᑎᓯ	-9.80973
ᐃᔑᓂᔕᐙ	-9.81361
ᔔᓂᔮᓴ	-9.81546
ᑳᓅᑕ	-9.81665
ᐸᑭᑎᓂᑫ	-9.81907
ᐁᐃᓈ	-9.82128
ᐸᑭᓯ	-9.82165
ᒌᑫᑕ	-9.82289
ᑕᐙᐙ	-9.8255
ᓈᑯᓂ	-9.82737
ᐹᕒᓇᐸ	-9.82867
ᐱᑾᑕᑲᒥ	-9.82868
ᑌᐺᔦᓂᒫ	-9.82868
ᐅᔥᑭᓃᑭᑴ	-9.82889
ᐃᔖᐙ	-9.8292
ᐊᓂᔖ	-9.8293
ᑕᐃᔑ	-9.82981
ᒌᒫ	-9.83062
ᐱᒫᑎᓰ	-9.83234
ᓈᓂᐗᓂᓂ	-9.83313
ᐃᑭᑐᐎᓐ	-9.83539
ᒋᐐᒋ	-9.83635
4	-9.83702
ᑲᔥᑭᐁᐎᓯᐎ	-9.83786
ᐊᓇᒥᐁᐎᑭᒫ	-9.84055
ᑭᑭᓄᐃᑫ	-9.84337
ᐁᑌᐺ	-9.84822
ᓃᔣ	-9.84995
ᑭᑫᑕᒧᐙ	-9.85223
ᓂᑮᐃ	-9.85229
ᐙᐸᒪ	-9.85259
ᑫᑕ	-9.85527
ᐌᑕ	-9.85744
ᐊᒧ	-9.85768
ᔭᐸ	-9.85801
ᑭᑎᑫ	-9.85834
ᐅᑎᔑᒋᑫᐎ	-9.85898
ᑎᐱᓇᐌᐎᓯ	-9.859
ᐊᒑᑾ	-9.85911
ᒪᑭ	-9.85935
ᐐᔭᐎᒫ	-9.86022
ᑫᒋ	-9.86081
ᒨᔥᑭᓀᔥᑳᑯ	-9.86162
ᑫᐃᔑᒋᑫ	-9.86253
ᓂᑮᐃᔑ	-9.86376
ᐊᐲᒋ	-9.86598
ᐃᓀᑕᒧᐙ	-9.8671
ᒋᑕᑯ	-9.86792
ᑳᑮᔑᑲ	-9.87071
ᑭᑫᑖᑾ	-9.87142
ᑳᐅᔫᓯᒥ	-9.87212
ᒪᓯᓇᐃᑲ	-9.87238
ᐅᐱᒫᑎᓰ	-9.87631
ᐃᓂᓃᐎ	-9.8774
ᓇᒪᑕᐱ	-9.8774
ᑕᓄ	-9.87934
ᓬᐊ	-9.87991
ᐃᑳᑌ	-9.88012
ᒋᐲ	-9.88193
ᐅᒋᑕ	-9.88243
ᑾᔭᒀᑎᓯ	-9.88279
ᓯᐎ	-9.88433
ᐃᔑᐱᒫᑎᓯ	-9.88691
ᐅᑖᐎᓂ	-9.88827
ᓇᒀ	-9.88835
ᓂᑲᒧ	-9.89013
ᐊᐯᓂᒧ	-9.89021
ᑭᓇᑕᐌᓂᒥ	-9.89023
ᐸᑭᑎᓂᑎᓱ	-9.89043
ᒦᑲᓈ	-9.89066
ᐐᒋᑭᐌᔭ	-9.89126
ᑲᓇᐙᐸᒫ	-9.89187
ᓂᑮᐙᐸᒫ	-9.89203
ᐅᑭᑭᔥᑭᑲ	-9.89245
ᓀᐱᒋ	-9.89263
ᓂᔑᐌ	-9.89297
ᑑᐙ	-9.89359
ᐅᑮᐅᑖᐱᓈ	-9.89399
ᑮᐹᑏᓄᐗ	-9.8942
ᐊᓄᑮᐋᑲᓇ	-9.89506
ᓂᓇᑰ	-9.8962
ᑎᔦ	-9.89672
ᓂᓱ	-9.89906
ᐐᔭᐎ	-9.90022
ᐁᐙᐸᒫ	-9.90027
ᑫᑮᓇᐎ	-9.90092
ᒥᓄᓭ	-9.90184
ᑕᔑᒫ	-9.90192
ᐋᐱᑕ	-9.9021
ᐁᑮᐃᑭᑐᐙ	-9.90243
ᑭᑲᐅᒋ	-9.90438
ᒥᑖᔑ	-9.90511
ᑲᑴᒋᒥᑯ	-9.90603
ᑲᓇᐌᓂᒥ	-9.90795
ᓀᑕᒣ	-9.90805
ᑏ	-9.90828
ᑫᒀ	-9.9133
ᑮᐐ	-9.91463
ᑮᐃᔑᓂᑳᓱ	-9.91696
ᒥᔅᑸ	-9.91996
ᒦᓂᓀ	-9.91997
ᒦᓂᓐ	-9.92011
ᑭᒨᑎ	-9.92253
ᑎᐸᐃᑫ	-9.92253
ᐸᑭᒌ	-9.92263
ᐅᑌᐃ	-9.92319
ᑲᕒᐄ	-9.92379
ᐅᑭᒋᓂᑭ	-9.92389
ᑳᐃᒋᑳᑌ	-9.92422
ᒋᐐ	-9.92434
ᐴᓀᑕᒪᐎ	-9.9247
ᑭᑭᓄᐊᒪᐎ	-9.92844
ᒧᔐ	-9.93002
ᐊᓇᒥᐁᑕᐙ	-9.93038
ᑕᒪ	-9.93057
ᐃᓇᑭᒫ	-9.93331
ᒋᐅ	-9.93333
ᑕᑶᔑ	-9.93385
ᑯᓰᐙ	-9.94376
ᐊᒑ	-9.94393
ᑮᑎᓄᐎ	-9.94413
ᐐᒋᐃᐌ	-9.9443
ᒥᑖᔑᓃᔑ	-9.94837
ᑕᒫᑯ	-9.94855
ᑴᑭ	-9.94911
ᓂᐳᓂ	-9.94919
ᑳᐐᐃᔑ	-9.95161
ᑌᐺᒪᑲ	-9.95227
ᐃᔑᐎᓂ	-9.95516
ᑎᐸᐃᑲ	-9.95572
,000	-9.95582
ᐊᑕᐌᓂᒥ	-9.95583
ᑴᑳᑎᓯ	-9.95589
ᔕᐌᓂᒫ	-9.95593
ᐐᐎ	-9.95621
ᓵᒥᓈ	-9.95642
ᐲᒋᓂᔕᐅ	-9.95676
ᐊᒸ	-9.95677
ᑭᒋᐊᓇᒥᐁᐎᑲᒥ	-9.95684
ᑮᒦᓈ	-9.95812
ᐆᑌᓇᐌ	-9.95812
ᓃᔓ	-9.95821
ᑭᒋᐊᐱᐎᓂ	-9.96047
ᐗᓀ	-9.96072
ᑳᐃᔑᓂᑳᓱ	-9.96097
ᓂᓯᒥᓐ	-9.96127
ᒋᑫᐙ	-9.96272
ᔑᔭ	-9.96281
ᐅᓈᐯᒥ	-9.9636
ᓀᐱ	-9.96473
ᑎᐹ	-9.96532
ᓂᔕᐙ	-9.96755
ᑯᓵ	-9.96799
ᑭᑫᑕᓰ	-9.9692
ᑲᓅᑕᒪᐙ	-9.96945
ᐸᑴᔑᑲᓂ	-9.96964
ᐗᓂᔑ	-9.97387
ᐁᑮᓂᐳ	-9.97569
ᑲᔥᑭᐋ	-9.97754
ᑭᑭᑫᓂᒥ	-9.97932
ᐸᐹᒥ	-9.9817
ᒋᐊᔮ	-9.9832
ᒪᑗ	-9.98609
ᑮᔑᑑ	-9.9878
ᑎᐯᓂᒥ	-9.98846
ᓈᓴᕒᐃ	-9.9903
ᐃᓬᐋᐃᒐ	-9.9903
ᐅᑑᑭᒫᒪ	-9.9903
ᐁᔑᐲᐃᑳᑌ	-9.9903
ᐗᑎᑾ	-9.99033
ᑎᐹᒋᒫ	-9.99035
ᑮᐗᓂᒧ	-9.99067
ᐁᑎᐱᑲᓂ	-9.99085
ᐅᑎᑕ	-9.9922
ᐅᕒᐆᒥ	-9.99222
ᐙᐸᒥᑯ	-9.99251
ᑭᑭᔥᑲᐙ	-9.99456
ᑎᔭ	-9.99545
ᓯᓄᑭ	-9.9955
ᒋᑭᒋ	-9.99797
ᐁᒣ	-9.99961
ᑳᐊ	-10.0034
ᓅᑎ	-10.0048
ᐎᓂᓂᐗ	-10.0069
ᐸᑭᑎᓈᓱ	-10.0072
ᓂᐲ	-10.0085
ᔂᓬ	-10.0098
ᐱᑕᑯᔑ	-10.0119
ᑕᑭᒋ	-10.012
ᓈᓇ	-10.0136
ᐯᐯᔑ	-10.0152
ᐃᔑᒋᑫᐗ	-10.0178
ᐅᑕᑳᓀᓯ	-10.0184
ᑭᑲᐃᔑ	-10.0189
ᒥᓍᐸᒥ	-10.0192
ᑕᔑᑕᒫ	-10.0204
ᔩ	-10.0231
ᐃᓇᓄᑮ	-10.0232
ᑭᑭᔥᑭᑲ	-10.0235
ᑫᑮᐃᔑ	-10.0244
ᓂᔑᐗᓈᑎᓯ	-10.0245
ᑭᑫᒋᑳᑌ	-10.0256
ᑶ	-10.0259
ᓲᑭᑌᐁ	-10.026
ᐙᐹᐱᑯ	-10.0261
ᑭᑌᐃᐙ	-10.0261
ᐅᓈᐸᒥ	-10.0261
ᐃᓀᓂᑎᓱ	-10.0262
ᓰᑲᐊᑖᓱ	-10.0264
ᑲᔥᑭᑕᒫᓱ	-10.0266
ᓵᑲᐃᑲᓃ	-10.0267
ᐐᒌᐗ	-10.0284
ᐌᔩ	-10.0289
ᒪᑲᑭ	-10.0299
ᑎᐸᐊᒪᐎ	-10.0325
ᓂᑑ	-10.0327
ᐊᒑᑯ	-10.0341
ᑭᑭᔥᑲ	-10.0345
ᐁᑲᑴ	-10.0365
ᐅᔑᒋᑳᑌ	-10.0386
ᑲᑲᓅᓈ	-10.04
ᒋᐊᐎ	-10.0404
ᑕᒪᐗ	-10.0418
ᐃᔑᒋᑫᓰ	-10.043
ᐱᑮᐌ	-10.0435
ᓈᓈᑲᑕᐌᑕ	-10.0472
ᓰᐲ	-10.0475
ᐁᓀᑕ	-10.0493
ᒋᑮᐌ	-10.0504
ᐃᔑᒋᑫᔭ	-10.0547
ᐅᑮᐊᓂ	-10.0586
ᓅᑕᒫ	-10.0604
ᐐᒌᑎ	-10.0624
ᒑᑭ	-10.0628
1	-10.063
ᓶ	-10.0631
▁¦12	-10.0631
ᐅᔑᐲᐃᑲ	-10.0631
ᐄᒋᐸᑮ	-10.0631
ᐋᔩᒋ	-10.0631
ᐅᓇᐱ	-10.065
ᓂᑮᐅᒋ	-10.0658
ᑳᐃᓇᑌᓂ	-10.0686
ᑲᓇᐌᓂᒫ	-10.0691
ᐁᐊᓉ	-10.0706
ᒪᒋᒋᑫ	-10.0708
ᐃᔖᔮ	-10.0718
ᑮᐃᔖᐗ	-10.0738
ᒦᔑ	-10.0775
ᐅᑎᒀᓂ	-10.0781
ᐊᔓᑕᒫᑎᐎ	-10.0791
ᑖᑰ	-10.0794
ᑳᐃᓂ	-10.0817
ᐐᒌᐎᑰ	-10.082
ᐃᓀᑖᑾᓂᓂ	-10.0828
ᑳᐃᔑᓈᑯᓯ	-10.086
ᐲᓈ	-10.0873
ᔥᑳᑰ	-10.0882
ᓂᑯᒋ	-10.0893
ᑳᐃᔑᐲᐃᑳᑌ	-10.0901
ᐊᓈᒥᒥ	-10.0902
ᐐᔭ	-10.0906
ᓵᑭᐃᐌ	-10.0928
ᓂᑳᑌᓂ	-10.0939
ᓂᓵ	-10.0957
ᑳᑲᓅᑕᒪᐙ	-10.0968
ᓀᓂᒥ	-10.0969
ᐅᔑᐲᐊ	-10.1004
ᒫᒪᑳᑌᑕ	-10.1012
ᒫᓇᒑᓂᔕ	-10.1015
ᐱᓈᓯᑳᑰ	-10.1015
ᐐᑑᑳᓱ	-10.1019
ᐙᓴᑯᓀᒋᑲ	-10.1022
ᐅᐱᒣ	-10.1023
ᓂᐴᒪᑲ	-10.1025
ᑭᑎᔑᒋᑫ	-10.1026
ᑭᑌᓂᒥ	-10.1031
ᒪᓯᓇᐃᑲᓂ	-10.1033
ᐅᒑᓂᒥᓯ	-10.1035
ᑳᑮᐊᔮ	-10.1038
ᐊᔓᑕᒪᐙ	-10.1042
ᑌᐱᑎ	-10.1048
ᐱᓵᓂᓯᐎ	-10.1054
ᐐᑕ	-10.1059
ᑳᐙᐱᓯ	-10.1063
ᐅᑑᓇᔓᐌᐎᓂ	-10.1064
ᒥᒋᐯᔑᑯ	-10.1071
ᐹᐱ	-10.1078
ᐁᐃᔑᒋᑫ	-10.1105
ᑳᐃᔑᓂᑳᑌ	-10.1122
ᐊᔮᓰ	-10.1131
ᐅᑭᒫᐎ	-10.1144
ᐱᓯᑕᐎ	-10.115
ᑲᔥᑭᑑᔦ	-10.1158
ᓅᑖᑯᓯ	-10.1179
ᐙᐸᑕᒪ	-10.1213
ᑳᒥᓄ	-10.1229
ᐁᑮᐃᑭᑐᓂ	-10.1243
ᐁᑮᒫᒌ	-10.1255
ᐁᑑᑕ	-10.1256
ᑳᑮᐊᔮᓂ	-10.1282
ᒪᔥᑲᐌᑕ	-10.1289
ᐁᓂᑯ	-10.1291
ᐅᐐᔭ	-10.1292
ᐅᑎᐹᒋᒧᐎ	-10.1304
ᐅᔑᐲᐊᒪᐎ	-10.1314
ᓀᑖ	-10.1357
ᒌᒥ	-10.1371
ᑲᑮᑖᐌᑕ	-10.1414
ᐅᓇᔓᐙ	-10.1415
ᐸᒦᑖᑫ	-10.1415
ᐱᑾᑎᓈ	-10.1415
ᑭᑑᔑᐲᐊᒪᐎ	-10.1416
ᒦᑴᒋᐌᓂᒫ	-10.1416
ᓃᔣᒋ	-10.1418
ᓇᐃᓂᑏᐎᑲᒥᑯ	-10.1421
ᐹᑏᓄᐗ	-10.143
ᐸᑭᑎᓇᒪᐙ	-10.1431
ᐸᓂᓂ	-10.1431
ᓱᓂ	-10.1439
ᑴᑕ	-10.145
ᑕᑯᓂ	-10.1487
ᐊᐯ	-10.1491
ᑲᐯ	-10.1494
ᐱᐊᑕ	-10.1503
ᐆᑌᓇᐗ	-10.1509
ᑎᐯᑖᑯᓯᐙ	-10.1518
ᑳᑎᓄᐎ	-10.1524
ᐊᓈᒥ	-10.1534
ᐅᒪᔥᑲᐎᓰᐎ	-10.156
ᓇᐃᑕ	-10.1562
ᐎᑭᒫ	-10.162
ᓇᑲᓂᑯ	-10.1621
ᓬᐋ	-10.1634
ᐸᑭᑎᓈᓱᐎ	-10.1653
ᓅᑖᑯ	-10.1663
ᐅᑮᒫᒌ	-10.1684
ᒫᒑᐙ	-10.1729
ᑳᑮᑭᑐ	-10.1734
ᑮᐱᐅᒋ	-10.176
ᑆ	-10.177
ᐐᓱᐎ	-10.1787
ᐸᑫ	-10.1802
ᒦᓂᓇ	-10.1822
ᑾᔭᑾ	-10.1823
ᐅᑎᔑᓂᔕᐙᑲᓇ	-10.1832
ᔛ	-10.1832
ᐋᐃᓭᔭ	-10.1832
ᐸᒀᓀᑲᒥ	-10.1832
ᑌᐺᔦᑖᑯᓯ	-10.1832
ᐹᑏᓇᑎ	-10.1832
ᐊᑖᐙᑫ	-10.1832
ᐐᓀᑕ	-10.1834
ᐴᓀᑕᒪᐙ	-10.1847
ᑳᑮᐅᓈᐸᒫ	-10.1852
ᐅᓀᑕ	-10.1853
ᓰᑲᐊᑖᑫᐎᓂᓂ	-10.1862
ᐅᑮᐊᑐᒫ	-10.1868
ᐐᑕᒫᑫᔮ	-10.1871
ᑭᑭᑫᑕᓰ	-10.1875
ᒦᑳᑎ	-10.1876
ᐎᓰ	-10.1878
ᐱᔑᒀᑎᓯ	-10.1879
ᓭᑭᓯᑫ	-10.1881
ᑾᔭᒀᑎᓯᐎ	-10.1881
ᐁᑮᑭᒋ	-10.1882
ᓈᐯ	-10.1884
ᑭᑕᔮ	-10.1884
ᑕᑾ	-10.1885
ᐱᒫᑎᓯᔦ	-10.1901
ᐁᒀ	-10.1903
ᑌᐺᑕᒣ	-10.1907
ᑳᐅᑕᑳᓀᓯ	-10.1921
ᑳᑮᒦᔑ	-10.1923
ᒋᒥᓄ	-10.1939
ᒥᑖᓱ	-10.194
ᓇᓈᑕ	-10.1961
ᐱᒫᑎᓯᔭ	-10.1974
ᐅᐐᒋ	-10.1994
ᑫᒋᓈᐅ	-10.1998
ᓯᑑ	-10.1998
ᑑᑕᒪ	-10.2
ᐅᓂᔑᔑᓂᓂ	-10.2032
ᓅᑕᐎ	-10.2063
ᑫᑕᔑ	-10.2068
ᑳᑮᐃᓂ	-10.2075
ᑳᐅᓂᔑᔑᓂᓂ	-10.2076
ᑳᒎᐎᐎ	-10.2083
ᑳᐃᑭᑐᐙ	-10.2084
ᑭᑫᑕ	-10.2085
ᑭᑫᑕᓯ	-10.2087
ᓈᓯᑳᑯ	-10.2109
ᑫᐃᔑᒋᑫᔮ	-10.2112
ᑌᐺᑕᐎ	-10.2127
ᐐᑎᑫᒫ	-10.2163
ᑎᐯᑕ	-10.2178
ᐎᔭ	-10.2185
ᑮᑮᐌ	-10.2199
ᒋᐐᒋᐃ	-10.2201
ᓄᐙ	-10.2208
ᑮᐲᑎᑫ	-10.2232
ᓇᓈ	-10.2243
ᐐᒌᐌ	-10.2257
ᔕᔒᐱᑕ	-10.2266
ᐅᑌᒐᓬᐃᒪ	-10.2267
ᐗᓇᑯᔕ	-10.2267
ᐅᓵᐙᐱᑯ	-10.2267
ᑭᒋᐅᔑᐲᐃᑫᐎ	-10.2267
ᐁᓀᑖᑯᓯ	-10.2267
ᐋᓇᐌᓂᒥ	-10.2267
ᑲᔥᑭᒋᑫ	-10.2267
ᑭᐴᔔᐃᑯᐙ	-10.2267
ᑲᑮᐹᑎᓯ	-10.2268
ᒥᑕᑲᒥ	-10.2268
ᐋᐃᓯ	-10.2268
ᐱᑾᒋᐊᔭᐋᐎᔕ	-10.2268
ᐅᐱ	-10.2269
ᐲᑎᑲᓂ	-10.2269
ᓬᐄ	-10.228
ᐋᓬᐃ	-10.2287
ᑭᑫᑕᒪ	-10.2302
ᐅᒪᒋᑑᑕᒧᐎᓂᐙ	-10.2303
ᐅᑮᐃᔑᓂᔕᐙ	-10.2303
ᐗᐙᓀᑕ	-10.2304
ᑳᓬᐊᓬᐄᐎ	-10.2306
ᐊᑑ	-10.2319
ᑎᐹᑐᑕ	-10.232
ᒪᒀ	-10.2367
ᐁᐱᒥ	-10.2371
ᒋᑲᓇ	-10.2398
ᑕᔑᑕ	-10.2405
ᑳᑎᐯᓂᒫ	-10.2408
ᑭᑭᒋ	-10.2412
ᑭᒋᐊᓇᒥᐁᐎᑭᒫᐎ	-10.2422
ᐅᑮᑲᑴ	-10.2457
ᐱᒥᓂᔕᐅᑯ	-10.2458
ᐅᒋᑎᐯᑖᑯᓯ	-10.2461
ᐊᑯᓴᑲᐅ	-10.2474
ᑮᓂᐳ	-10.2501
ᑲᒀᑕᑭ	-10.2505
ᐁᐊᔮᓂ	-10.2524
ᒋᐊᑕ	-10.2526
ᐱᓯᑕᒧ	-10.2529
ᑕᒫᑫ	-10.2534
ᐗᑭᐸ	-10.2539
ᒀᐸ	-10.2542
ᑭᑫᓂᒥᑰ	-10.2559
ᐌᓅᒋ	-10.256
ᐊᑌᓂ	-10.2576
ᑭᑎᑫᐎᓂ	-10.2603
ᐁᒥᒋ	-10.2616
ᒋᐃᔑᓭ	-10.2617
ᓇᑲᓂ	-10.2626
ᔕᔒᐯᑕ	-10.2627
ᒋᑎᓄᐎ	-10.2632
ᐁᐅᒌ	-10.2635
ᓈᓯᑲᐙ	-10.2671
ᕒᐃᔭ	-10.2687
ᑭᑭᓄᐊᒫᑫᐎ	-10.2696
ᑲᑮᑴ	-10.2703
ᒪᔥᑲᐌᑖᑯᓯ	-10.2721
ᔔᒥᓈᑎ	-10.2721
ᐊᓇᒥᑑ	-10.2721
ᐅᔕᐌᒋᑫᐎ	-10.2721
ᑳᐐᒋᐅᑌᐺᑕᒨᒥ	-10.2721
ᐅᔥᑮᔑᑯ	-10.2721
ᑮᐊᓅᑮ	-10.2721
ᐴᓀᑕᒫ	-10.2722
ᑭᐱᒫᑎᓯᐎᓂᐙ	-10.2722
ᐅᑎᔑᒋᑫᐎᓂᐙ	-10.2722
ᓰᑲᐊᑖᑫ	-10.2722
ᐸᑭᑎᓇᒪᐎ	-10.2725
ᔔᒥᓂ	-10.2726
ᑎᐹᑯᓈ	-10.2726
ᑭᑎᑳᑕ	-10.2727
ᑰᓰ	-10.2727
ᐲᑯᓇ	-10.2728
ᑌᓴᐱ	-10.2731
ᓭᓯ	-10.2736
ᑭᑫᑖᓈᐙ	-10.2737
ᔥᑳᑯᐙ	-10.2758
ᐃᑎᐗ	-10.2767
ᐁᐋᐎ	-10.2784
ᒫᒋᓭ	-10.2788
ᒪᑲᓂᓂᑭ	-10.279
ᑯᓈᓂ	-10.2796
ᐐᑕᒫᑰ	-10.2797
ᐅᒥᔅᑸ	-10.2811
ᐅᑎᐯᒋᑫᐎᓂ	-10.2813
ᐙᐸᑕᐃᐌ	-10.2817
ᐅᑎᐯᒋᑫᐎᓂᓂ	-10.2833
ᑕᒦᓈ	-10.2837
ᑭᔒ	-10.2875
ᑑᔦ	-10.289
ᓵᑭᐃᐌᐎ	-10.2908
ᑑᑖᑯ	-10.2922
ᒋᐃᑭᑐ	-10.2936
ᓈᑯᓯᓂ	-10.2955
ᒋᑲᔥᑭ	-10.2956
ᐸᑭᑎᓂᑰ	-10.3005
ᐅᑭᔐᒪᓂᑑᒥ	-10.3043
0	-10.3061
ᓃᔮ	-10.3064
ᒫᒪᑳᒋᒋᑫ	-10.3071
ᓵᑭᐃᐌᐎᓂ	-10.3073
ᐃᑰᔦ	-10.3099
ᒋᑲᓂᐎᓂ	-10.311
ᑮᐃᓈ	-10.3125
ᑳᑮᐅᒌ	-10.3142
ᑭᒋᐊᓄᑮ	-10.3156
ᓯᓅᓇ	-10.3157
ᐊᑲᒋ	-10.3164
ᕒᐋ	-10.3171
ᓅᑕᐙ	-10.3174
ᑭᑭᓄᐊᒪᐙᑲ	-10.3181
ᐱᒫᑎᓯᔮ	-10.3188
ᐅᑕᓇᒥᐁᐎᑲᒥᑯ	-10.3197
ᓃᑕᓇᒥᐋ	-10.3197
ᓵᐃᓬᐊ	-10.3197
ᐴᑖᒋᑲ	-10.3197
ᒪᒫᔒ	-10.3197
ᑭᐸᐅᑏᐎᑲᒥ	-10.3198
ᐸᑯᐲ	-10.3198
ᑲᑲᓅᓂᑎ	-10.3198
ᐊᓄᑮᑕᐗ	-10.3199
ᐁᑎᔮ	-10.32
ᐙᐱᔥᑭ	-10.3201
ᑯᓇᔦ	-10.3202
ᐱᒥᐊᔮ	-10.3206
ᒉᑲ	-10.3214
ᐐᑕᒫᑰᔦ	-10.3222
ᓅᑖᑾ	-10.3243
ᐸᓃ	-10.3244
ᒋᐲᑎᑫ	-10.3261
ᐅᓇᔓᐌᐎᓂ	-10.3265
ᑳᓃᑳᓀᑖᑯᓯ	-10.3267
ᑳᑮᐅᔑᑑ	-10.3267
ᑎᐱᓭ	-10.327
ᒋᑎᐯᑕ	-10.3275
ᐁᑭᑭᔥᑲ	-10.3292
ᐅᑮᐐᑕᒪᐙ	-10.3296
ᐁᔑᐊᔮᓂ	-10.3303
ᓇᒧᐙ	-10.3342
ᐲᑎᑫᐙ	-10.3349
ᐐᑕᒪ	-10.3349
ᐸᑯᓭᓂᒥ	-10.3359
ᐅᑮᑲᓅᓈ	-10.3374
ᑭᒋᑮᔑ	-10.3387
ᒥᓍᐸᑕ	-10.3404
ᐁᔮᐙ	-10.3409
ᓵᑭᑑ	-10.3427
ᒌᑭ	-10.344
ᐅᓃᒑᓂᓯ	-10.344
ᑳᐃᔑᐊᔮᓂ	-10.3456
ᑲᑴᒋ	-10.3511
ᓂᓯᑯ	-10.352
ᐱᑕᑶᔑ	-10.3523
ᓯᐙᓈ	-10.3531
ᑳᓇᑲ	-10.354
ᐅᓃᒑᓂ	-10.354
ᓂᐗᓂᓂ	-10.3547
ᐃᔑᒋᑫᓯ	-10.3555
ᐐᔭᐎᓂ	-10.3563
ᑳᐃᔑᐊᔮ	-10.3571
ᐃᑕᐙ	-10.3573
ᐅᑯᓯᓯᒥᑯ	-10.3591
ᒦᓂᑯᐙ	-10.3592
ᒥᑕᑎ	-10.3597
ᓂᓯᑰ	-10.3598
ᑳᓂᑖᐎᑭ	-10.3609
ᓰᑭᓇ	-10.3614
ᓃᒋᑭᐌ	-10.3632
ᐅᑑᓇᔓᐌᐎ	-10.3634
ᑳᐃᑭᑐᓂ	-10.3635
ᐃᔅᕒᐃᔭᓬ	-10.3641
ᐃᓀᑕᒫ	-10.3651
ᐃᔑᓂᑳᓱ	-10.3656
ᒋᐱᒫᑎᓯ	-10.367
ᓂᑯᑣ	-10.3674
ᑲᑮᑖᐎ	-10.368
ᐊᐱᓅᒌ	-10.3689
ᑲᔥᑮᑎᐱᑲ	-10.369
ᑎᓄᐗ	-10.369
ᐅᑑᑭᒫᒥ	-10.3697
ᐅᑕᔓᑕᒫᑫᐎ	-10.3697
5	-10.3697
ᐅᑌᒐᓬᐃᒥ	-10.3697
ᓃᑳᓇᔭᐄ	-10.3697
ᑭᑌᐺᑕᒧᐎᓂᐙ	-10.3698
ᒪᓂᑑᑳᓇ	-10.3698
ᑲᑳᓱ	-10.3699
ᐊᔭᐋᐎᔕ	-10.3699
ᓈᑾᑭ	-10.37
ᐋᓉᑕ	-10.3702
ᐊᓇᒥᐁᑕᐎ	-10.3702
ᑳᓂᐳᐙ	-10.3705
ᓈᓯᑲᐙᐙ	-10.3705
ᒥᑎᑰ	-10.3711
ᓂᑑᑭᒫ	-10.3718
ᐅᓀᓂᒫ	-10.3722
ᑲᒀᑕᑭᐋ	-10.3736
ᐁᓅᑕ	-10.3747
ᐅᑭᔐᐙᑎᓯᐎᓂ	-10.3751
ᒥᑎᑯ	-10.3753
ᐃᓇᓵ	-10.3763
ᐁᐐᒌᐗ	-10.377
ᐊᓉᐱ	-10.3779
ᑲᒥᑲᓂᓂ	-10.3784
ᐊᓄᑮᑕᐙ	-10.3786
ᑎᐯᑕᒥᓂ	-10.3794
ᑎᔅ	-10.3799
ᒋᒥᓄᐊᔮ	-10.3811
ᑮᐸᓯᑸ	-10.3814
ᑕᔑᑕᒧᐙ	-10.3874
ᒋᑎᐹᑯᓂ	-10.3877
ᑭᑎᑳᓇ	-10.3879
ᐃᑭᑐᐗ	-10.3881
ᐊᔮᐎᓂ	-10.389
ᐁᓃᐸᐎ	-10.3895
ᐗᑭᒋ	-10.3922
ᐁᐐᐅᒋ	-10.3926
ᒋᐙᐸᒥ	-10.3937
ᑳᒪᒋ	-10.394
ᐃᔖᐗ	-10.3941
ᒪᒥᔑ	-10.3949
ᐊᑮᐎ	-10.3958
ᑫᐱ	-10.3959
ᑳᐃᑕ	-10.3964
ᒋᑫᐎ	-10.3985
ᐱᒫᒋᐃᑰᐎᓯ	-10.401
ᑑᑖᑰ	-10.4012
ᒋᐐᒌᐎᑯ	-10.4031
ᒥᓂᒀᑲ	-10.4032
ᑲᓅᑕᒪᐙᐙ	-10.4079
ᓇᓇᐊ	-10.4096
ᐃᓀᑖᑯ	-10.412
ᐅᑕᒑᑯ	-10.412
ᒌᑫᑕᒧ	-10.4124
ᓃᑳᓀᑖᑯᓯ	-10.4147
ᐱᒫᑎᓯᐗ	-10.415
ᐅᒌᒪᑲᓂᓂ	-10.4166
ᐱᔑᒀᑎᓯᐎ	-10.4167
ᓀᓂᒫ	-10.4182
ᑭᑮᐱ	-10.4187
ᐊᓇᒥᐋᐎ	-10.4192
ᐅᓈᐸᒫ	-10.4198
ᒋᒦᓂ	-10.4209
ᑌᐺᑕᒨ	-10.421
ᑑᑕᒫ	-10.4217
ᔖᑯᐌᐗ	-10.4218
ᓂᑎᑭᑐᐎ	-10.4224
ᓬᐋᓴᕒᐊ	-10.4224
ᐃᔥᐯᑖᑯᓯ	-10.4224
ᐙᐱᔥᑮᑭ	-10.4224
ᐱᓵᓀᑕᒧᐎ	-10.4224
ᓃᒥᑕᓇ	-10.4224
ᐃᓍᓂᑎᓱ	-10.4224
ᔒᑫᓂᒫ	-10.4224
ᓂᓯᑕᐎᓇ	-10.4224
ᐲᑎᑲᓈ	-10.4224
ᓀᑕᒥᓂ	-10.4224
ᐊᓇᒥᐁᐙᑎᓯ	-10.4224
ᐐᓴᑫᑕ	-10.4225
ᑭᑫᑌᔭᐋᒥᓈᐸᓃ	-10.4225
ᐊᔭᔮ	-10.4227
ᐁᑕᓱᐯᔑᑯ	-10.4228
ᓬᐆ	-10.4229
ᒥᓉᑖ	-10.423
ᑭᐱᒌ	-10.4232
ᑮᔖ	-10.4232
ᐱᓯᑕᐎᔑ	-10.4232
ᐲᐎᑌ	-10.4247
ᒪᒫᔑ	-10.4254
ᑌᐺᑕᒥᓂ	-10.4256
ᑣᐸ	-10.4258
ᔖᐳ	-10.4267
ᒌᒥᓴ	-10.4275
ᐁᔖ	-10.4278
ᐁᐃᔑᓂᑳᓱ	-10.4279
ᑳᑭᑎᒫᑭᓯ	-10.4281
ᐊᓄᑮᒪᑲᓂᓂ	-10.4317
ᐅᑮᐃᑯᐙ	-10.4327
ᑳᑮᑕᔑ	-10.4328
ᒫᒌᑑ	-10.4357
ᐱᒥᓂᔕᐙᐙ	-10.4359
ᑳᐌᓅᑎᓯ	-10.4387
ᑮᒫᒪᐎ	-10.4387
ᐅᔑᐋ	-10.44
ᑲᑴᒋᒥᑰ	-10.4407
ᒋᐴᓂ	-10.4418
ᐸᕒ	-10.443
ᐸᔦ	-10.4465
ᐐᒌᐎᑯᐙ	-10.4467
ᐁᑮᐊᑕ	-10.4467
ᐌᒌᓂ	-10.4468
ᓂᔥᑳᑎᓯ	-10.4481
ᐐᑕᒫ	-10.4504
ᒪᒥᔑᒥ	-10.4507
ᐃᑭᑐᐎ	-10.4515
ᒪᒋᑑᑕᒥ	-10.4538
ᑭᑖᐸ	-10.4548
ᑾᓂᓂ	-10.4558
ᑑᒋᑳᑌ	-10.456
ᐸᑑ	-10.4586
ᐱᓈᓯᑲᐙ	-10.459
ᒥᒥᓐ	-10.4613
ᐱᑾ	-10.4623
ᒋᑑᑕᒫ	-10.4676
ᐅᓈᐯ	-10.4684
ᐃᑰᔭ	-10.472
ᑸ	-10.4725
ᑭᑲᐐᒌᐎᑯ	-10.4728
ᐐᑕᒪᐎᔑ	-10.4742
ᓇᔥᑫ	-10.4744
ᓯᑌ	-10.4745
ᐊᓄᑮᒪᑲ	-10.4752
ᑳᐱᒥ	-10.4768
ᓈᑲᑕᐌᑕ	-10.477
ᐱᑾᒋᐊᔭᐋᐎ	-10.4777
ᐃᔑᑮᔗᐎ	-10.4779
ᐱᓀᔒᔕ	-10.4779
ᐸᔑᐸᐃᑫᐎᑯᒫ	-10.4779
ᒎᑏᔮ	-10.4779
ᒥᓴᐌᒋᑫ	-10.4779
ᒪᒦᒀᓂᑎᓱ	-10.4779
ᓭᓴᕒᐄᔭ	-10.4779
ᑲᑮᓇᐎᔥᑭ	-10.4779
ᐊᑕᐌᓂᒫ	-10.4779
ᐋᐸᑎᓯ	-10.4779
ᓇᓈᑯᒧ	-10.478
ᑭᑭᔐᒪᓂᑑᒥᓈ	-10.478
ᒪᔥᑯᓰ	-10.478
ᐅᑌᐺᔦᑕᒧᐎᓂ	-10.478
ᐲᒋᓂᔕᐙ	-10.478
ᐱᒥᐎᑑ	-10.4781
ᐅᑕᓄᑮᐎᓂᐙ	-10.4782
ᐊᑳᒥ	-10.4783
ᐱᒥᔑᓂᓂ	-10.4784
ᐊᓇᒥᐁᑕᒪᐎ	-10.4784
ᑭᑫᑕᒥᓂ	-10.479
ᐅᑎᓵ	-10.4792
ᐅᓂᔥᑳᑎᓯᐎ	-10.4798
ᐊᑕᐌᑕᒥᓂ	-10.4805
ᑌᐺᑕᒧᐙ	-10.4814
ᑳᑮᐊᔓᑕᒫᑫ	-10.4837
ᓂᐴᔔᐋ	-10.4838
ᑳᔒᑫᓂᒥ	-10.4847
ᑲᓇᐙᐸᒥ	-10.4865
ᑕᑯᔑᓄᐙ	-10.4885
ᓂᓱᑮᔑ	-10.4889
ᔕᔒᐯᑕᒧ	-10.4896
ᐊᒦᐗ	-10.4897
ᑲᔥᑮ	-10.4898
ᑌᐱᓭ	-10.4913
ᑲᒀᑕᑭᑑᐎ	-10.4926
ᐅᓇᔓᐌᐎᓂᓂ	-10.4931
ᑾᔭᑯᒋᑫ	-10.4952
ᐊᓇᒥᐋᔮ	-10.4961
ᑫᐃᔑᓭ	-10.4979
ᑌᐺᑕᒧᐎ	-10.4984
ᓂᑭᑫᓂᒫ	-10.5001
ᑭᑎᑫᐎ	-10.5064
ᓅᑕᒥᓂ	-10.5066
ᑭᑫᓂᒫᓰ	-10.5075
ᑭᑭᓄᐃᑫᐎ	-10.5076
ᒫᒑᐗ	-10.5111
ᐁᑮᒦᓈ	-10.5113
ᑮᒋᐱᒫᑎ	-10.5151
ᐃᔥᒀᐱᒫᑎᓯ	-10.5153
ᓭᔮ	-10.516
ᑳᑮᒦᓂ	-10.5175
ᑮᐱᐅᒌ	-10.5176
ᑮᔖᒋ	-10.5182
ᑮᒋᑭᐌ	-10.5186
ᐸᑲᒥ	-10.5191
ᐯᑕ	-10.5196
ᔑᔮ	-10.5198
ᐴᓂᑑ	-10.5233
ᐁᐊᓇᒥᐋ	-10.5233
ᐁᐙᐸᑕ	-10.5247
ᒪᐎᓀ	-10.5248
ᐐᐱ	-10.5274
ᓈᑲᒋᑑ	-10.5294
ᒋᐙᐱ	-10.5299
ᐊᑕᐙᐸᒥ	-10.5305
ᓈᓯᑲᐎ	-10.5307
ᑸᐎᓭ	-10.533
ᓇᔓᐌ	-10.5345
ᐃᓇᑌ	-10.5363
ᒋᒥᓄᐐᒌ	-10.5366
ᑲᑮᑖᐌᑕᒧᐎ	-10.5367
ᐅᓃᑭᐃᑰ	-10.5367
ᑲᓅᒋᑫᑕᒪᐙ	-10.5367
ᐅᒋᒌᑾᓃᑕ	-10.5367
ᒦᒋᓈᑳᑌ	-10.5367
ᑭᐐᔭᐎᐙ	-10.5368
▁–	-10.5368
ᑮᐙᒋᑴ	-10.5368
ᔑᒫᑲᓂᔒ	-10.5368
ᔔᒥᓇ	-10.5368
ᐅᓯᑎ	-10.5369
ᐅᐐᑎᑫᒫᑲ	-10.537
ᓂᓯᑐᑖ	-10.537
ᐸᑯᓭ	-10.5374
ᐋᐌᒋᑲ	-10.5376
ᑯᑖᒋ	-10.538
ᓂᓯᑐᑕᓰ	-10.5381
ᐁᑭᑑᒪᑲ	-10.5381
ᑕᐃᑕ	-10.5382
ᑌᐱᓈ	-10.5386
ᐅᑖᐱᓇᒪᐙ	-10.5389
ᒪᔥᑲᐙ	-10.5391
ᑭᑌᓂᒫ	-10.5396
ᑮᐃᓀᑕᒨ	-10.5405
ᒫᓀᑕᒧ	-10.5412
ᐁᐸᐹ	-10.5415
ᐅᓇᑑ	-10.5419
ᑌᐁ	-10.5419
ᐃᔅᕒᐃᔭᓬᐃ	-10.5423
ᑭᐐᓱᐎ	-10.5424
ᐅᒪᓂᑑ	-10.5431
ᑭᑫᑖᓱ	-10.5431
ᐁᐃᔑᓂᑳᑌᓂ	-10.5438
ᐅᑌᑌᒫ	-10.5471
ᑕᓱᐱᐴ	-10.5473
ᑳᑌᐺᑕᓯ	-10.5475
ᐱᓯᑲ	-10.5478
ᑌᐺᑕᒧᐎᓂ	-10.5478
ᑳᓃᔣᒋ	-10.5482
ᐁᐐᐃᔑ	-10.5494
ᒪᒋᐊᒑ	-10.5498
ᑯᑎ	-10.551
ᐙᐸᑕᐋ	-10.5524
ᒥᓄᐊᔮᐋ	-10.5528
ᑭᐐᒋ	-10.5537
00	-10.5538
ᑳᐋᑯᓯ	-10.5539
ᓂᐐᔭᐎ	-10.5555
ᐗᔭᐄ	-10.5556
ᐃᓈᐸᑕ	-10.556
ᓅᑕᐙᐙ	-10.5561
ᒫᒑᔮ	-10.5567
ᑳᐃᓀᑕ	-10.5568
ᓀᑖᑾᓂᓂ	-10.557
ᑳᒦᑭᐌ	-10.5621
ᒋᐃᔑᓈᑯᓯ	-10.5631
ᐅᐐᓱᐎ	-10.5647
ᑫᒦᒋ	-10.5659
ᐸᓂᐅ	-10.5689
ᐙᐸᑕᒫ	-10.5709
ᐌᓂᔑᔑ	-10.5763
ᑳᑎᐯᓂᒥ	-10.5765
ᐅᑭᒫᐎᐎ	-10.5773
ᐅᒌᐗ	-10.5776
ᐙᐸᒥᑰ	-10.578
ᑎᓄᐎᔮ	-10.5781
ᐅᑕᓄᑮᐎ	-10.5827
ᑮᐃᓀᑕᓰ	-10.5848
ᐋᐎ	-10.5852
ᐌᓅᑎᓯᐎ	-10.5858
ᑕᕒ	-10.5884
ᐱᒥᓂᔕᐙ	-10.5884
ᐁᑮᔑᑲ	-10.5893
ᑭᑭᓄᐊᒫ	-10.5899
ᔒᑫᓂᒥ	-10.5916
ᐸᒥᐃ	-10.5917
ᐊᔮᒀᒥ	-10.5922
ᔔᓂᔮᐗ	-10.595
ᑎᐹᑯᓂᑫ	-10.5959
ᐃᑰᐎᓯ	-10.597
ᐗᓂᑑ	-10.5986
ᓇᐃᑖ	-10.599
ᒐ	-10.5991
ᒫᓇᒑᓂᔑ	-10.5992
ᑳᒫᒪᐌᓄ	-10.5992
8	-10.5992
ᐸᐸᔕᔐᐅ	-10.5992
ᒣᓬᑭᓯᑌ	-10.5992
ᓵᒐᓰ	-10.5992
ᐅᑾᔭᒀᑎᓰᒪ	-10.5992
ᑰᐹᓯᓈ	-10.5992
ᑰᑰᔕ	-10.5992
ᐴᓀᒋᑳᑌ	-10.5992
ᓇᑴᑖᑯ	-10.5993
ᐸᑭᓈᑫ	-10.5993
ᓇᑭᒋᑳᓱ	-10.5993
ᔖᑰᒋᑣ	-10.5993
ᒥᓈᑾᐅ	-10.5993
ᐅᑎᔑᓂᑳᓱᐎᓂ	-10.5993
ᒫᕒᑕ	-10.5993
ᑭᓅᔐ	-10.5993
ᓂᔑᐗᓈᒋᑑ	-10.5993
ᐅᑕᔭᐄᒥ	-10.5993
ᐅᔒᑖ	-10.5993
ᑫᑌᐃᓈᑎᓯᐎ	-10.5994
ᑭᑫᓂᒪ	-10.5994
ᑮᐋᐸᒋᐋ	-10.5995
ᐊᔕᐙᐱ	-10.5996
ᐊᓅᓈ	-10.5997
ᑲᓇᐌᒋᑫᐎ	-10.5998
ᑲᑮᒀ	-10.5998
ᑮᐌᐱᒫᑎᓯᐋ	-10.6003
ᒥᔕᑳ	-10.6006
ᑕᔑᑕᒥᓂ	-10.6009
ᒫᒌᔮᔑ	-10.6013
ᒥᓯᐌᑲᒥ	-10.6021
ᐃᔑᓂᑳᓈ	-10.6021
ᑭᑎᑰ	-10.6024
ᐗᑸ	-10.6028
ᑸᐎᓭᓴ	-10.6032
ᐱᒥᓂᔕᐊ	-10.6038
ᑳᑮᓂᐳᓂ	-10.6046
ᑲᒀᑕᑭᑑᔮ	-10.6052
ᑭᑌᑌᐙ	-10.6054
ᐐᒋᐊᔮᒥ	-10.6057
ᑲᐎᓭ	-10.6058
ᒥᓴᐌᑕᒫ	-10.6058
ᓂᑯᑣᓱ	-10.6065
ᐁᐸᕒᐊᐋᒥ	-10.607
ᑮᑕᓇᒥᐋᓈ	-10.6075
ᐃᔑᒋᑫᐎ	-10.6086
ᐊᔓᑕᒪᐎ	-10.6088
ᒋᒥᒋ	-10.6133
ᑳᑮᐅᒌᓂ	-10.6147
ᐅᑕᓄᑮ	-10.6159
ᐁᐱᒧᓭ	-10.6173
ᑮᐅᒌ	-10.6188
ᑮᐱᑕᑯᔑ	-10.619
ᑕᑯᔑᓈ	-10.6196
ᐊᔭᐋᐎ	-10.6198
ᐁᑮᓅᑕ	-10.6204
ᐊᔑ	-10.6215
ᒦᓂᑰᔦ	-10.6249
ᑳᒫᒪᐎ	-10.6254
ᑭᑯᓯ	-10.6276
ᒋᐃᔑᐱᒫᑎᓯ	-10.628
ᐁᐃᔑᓈᑯᓯ	-10.6285
ᒥᑖᒋ	-10.6287
ᑳᑮᐃᓈ	-10.6287
ᑳᑮᐃᑭᑐᓂ	-10.6296
ᑳᑮᐐᒌᐎᑯ	-10.6323
ᑖᐅᓂᔑᔑ	-10.6328
ᒋᑮᐌᐱᒫᑎᓯ	-10.6346
ᐅᑮᒦᓈ	-10.6355
ᑲᓇᐌᑖ	-10.6355
ᓱᑮᔑ	-10.6371
ᑕᑯᓈ	-10.6381
ᒥᓍᐸ	-10.6389
ᑌᐺᑕᐙᐙ	-10.6393
ᑑᑕᒧ	-10.6397
ᐁᒥᓄ	-10.6399
ᑭᒋᐆᑌᓇ	-10.6405
ᐁᑮᑲᑴ	-10.6407
ᐁᑭᑫᓂᒥ	-10.6413
ᑳᐅᔫᓯ	-10.6425
ᑎᐹᑯᓂᐌ	-10.6427
ᓂᑮᐃᓈ	-10.6434
ᑕᑯᔑᓂ	-10.6448
ᐗᓂᑑᑕ	-10.6493
ᑮᑮᐌᐱᒫᑎᓯᐃ	-10.652
ᓈᑾᓂᓂᑭ	-10.6531
ᓂᑲᐱ	-10.6536
ᐊᑯᓴᑲᐙ	-10.6542
ᓂᔑᐗᓈ	-10.6544
ᑳᔑᐊᔮ	-10.6563
ᑭᑎᒫᑭ	-10.6574
ᓇᒪᐙ	-10.6591
ᑎᐯᓂᒥᓀ	-10.6603
ᑭᑫᑕᒨ	-10.6621
ᑭᑌᑌ	-10.6624
ᒋᒥᓄᓭ	-10.6626
ᐴᓂᓭᓯᓂᓂ	-10.6659
ᑎᒫᔅᑲ	-10.6659
ᓭᑲᕒᐋᔭ	-10.6659
ᓅᑌᔅᑲᑌ	-10.6659
ᐌᓅᑕᓂᓂ	-10.6659
ᐸᑴᐱᓈ	-10.6659
ᒥᒋᓇᐌᓯ	-10.6659
ᑭᓀᐱᑰ	-10.6659
ᒞᕒᑕ	-10.6659
ᑫᐃᔥᒀᓭᓯᓄ	-10.6659
ᐅᑕᓄᑮᐋᑲᓂ	-10.6659
ᑭᑫᓂᑎᓱ	-10.6659
ᑫᓅᑕᒪᐙ	-10.666
ᓂᑮᓅᑖ	-10.666
ᐸᑯᓭᓂᒫ	-10.666
ᐅᓀᓂᒥᑯ	-10.666
ᑮᐲᔖᐗ	-10.666
ᐐᓈᑎᓯ	-10.666
ᑭᑎᑫᐎᓂᓂᐗ	-10.6661
ᐯᑳᑎᓯ	-10.6661
ᐅᔑᓯᑑ	-10.6661
ᐅᑎᑎᓈ	-10.6662
ᑲᓅᑕᒫᑯ	-10.6662
ᐐᒋᐊᔮᒫ	-10.6663
ᐃᓉᐎ	-10.6664
ᐌᐱᓂᑳᑌ	-10.6665
ᐅᓇᑭᒥ	-10.6666
ᐐᑾᑫ	-10.6667
ᓬᐄᐹ	-10.6667
ᑭᑎᑳᓂ	-10.6668
ᐹᑌ	-10.6668
ᓂᑮᓅᑕᐙ	-10.6669
ᓅᑕᒨ	-10.6669
ᐃᔥᑯ	-10.6669
ᒪᓂᔑᑫ	-10.6669
ᒫᓯᑑᓂᔮ	-10.6669
ᑭᐸᐅᑰᔮ	-10.6669
ᒦᓂᑣ	-10.6674
ᑳᓵᑭᐊ	-10.6675
ᐸᑯᓭᓂᒥᑰ	-10.6676
ᓂᑮᐙᐸᑖ	-10.668
ᑕᐸᓰ	-10.6686
ᐙᐸᑖᓈᐙ	-10.6686
ᐃᑴᓭ	-10.6699
ᑭᒥᐗ	-10.6708
ᑕᐱᓇ	-10.6725
ᐐᒋᐱᒫᑎᓰ	-10.6725
ᑲᓅᔑ	-10.6727
ᐊᔭᐄ	-10.673
ᒋᓂᔑᐗᓈᑎᓯ	-10.6745
ᐯᔓᓈᑾ	-10.6752
ᑫᐊᐲᒋ	-10.6753
ᐱᐅᒌ	-10.6757
ᓈᑾᓯᓅ	-10.6768
ᐁᓇᒪᑕᐱ	-10.6772
ᐱᓯᑲᒧ	-10.6786
ᐁᐐᐃᔑᒋᑫ	-10.6793
ᓈᓯᑳ	-10.6804
ᑳᑮᓅᑕ	-10.6804
ᐅᓇᔓᐌ	-10.6805
ᒥᒋᓃ	-10.6813
ᐅᓇᔓᐌᐎᑭᒫ	-10.6816
ᐌᑖᑾᓂᓂ	-10.6824
ᑳᓇᒪᑕᐱ	-10.6828
ᐱᐊᔮ	-10.6843
ᓂᔑᑫ	-10.6849
ᒋᓇᐃᑕ	-10.6867
ᐃᔑᐌᐱᓯᐙ	-10.688
ᐃᓂᑖᑯᓯ	-10.689
ᐃᔑᐌᐱᓯᐎ	-10.69
ᑳᑮᐃᔑᒋᑫᓂ	-10.6905
ᐊᔨᑎ	-10.6923
ᐅᑎᐹᒋᒧᐎᓂ	-10.6936
ᓈᓈᑲᑕᐌᑕᒧ	-10.6967
ᐱᓈᓯᑳᑯ	-10.7
ᑲᐯᔑ	-10.7028
ᑑᑕᐙᐙ	-10.7064
ᐳᐗ	-10.7085
ᑳᓱᐙ	-10.7107
ᐅᒪᒋ	-10.7111
ᐅᑎᒀ	-10.7119
ᐅᑮᓈᓯᑲᐙ	-10.7129
ᐊᐲᑌᑖᑾ	-10.7131
ᔕᐌᓂᒥᓇ	-10.7147
ᒪᐙᐙ	-10.7195
ᓂᔥᑭ	-10.7197
ᐅᒪᔥᑲᐎᓰᐎᓂ	-10.72
ᐐᑕᒫᑫᐙ	-10.7215
ᑮᐅᔑᒋᑳᑌ	-10.7217
ᐅᓃᒑᓂᓯᒥ	-10.7237
ᓰᑲᐊᑖᑰ	-10.7254
ᐊᓵ	-10.7258
ᐁᔑᓭ	-10.7269
ᒪᒋᒋᑫᐎ	-10.7313
ᒫᒪᑳᑌᑕᒨ	-10.7327
ᐅᕒᐆ	-10.7333
ᑎᐯᒋᑫᐎ	-10.7337
ᔔ	-10.7363
ᑳᐃᓇᑌ	-10.7364
ᐴᔥᑫ	-10.7365
ᐅᔥᑭᓃᑭ	-10.7368
ᐅᒻᐺ	-10.7373
ᑎᔑᓂᑳᓱᐎ	-10.7373
ᐄᐸᕒᐆ	-10.7373
ᐐᑕᓄᑮᒫᑲ	-10.7373
ᑭᑭᓇᐙᑕᔕᑫᔑᑲᓂᐎ	-10.7373
ᑭᑭᓇᐙᑕᔕᑫᔣ	-10.7373
ᑲᒀᑕᑫᑕ	-10.7373
ᐅᒪᒋᑑᑕᒨ	-10.7373
ᑫᑎᒫᑭᓯ	-10.7373
ᑭᑎᑭᑐ	-10.7374
ᒥᓋ	-10.7374
ᒫᔑᒥᑕᑎᒨ	-10.7374
ᐅᐱᔥᑳ	-10.7374
ᐐᑕᐱᒫ	-10.7375
ᐅᑭᑭᓄᐊᒪᐙᑲᓂ	-10.7376
ᓂᔣᓱ	-10.7376
ᐅᑕᐌᒫ	-10.7376
ᐯᕒᐊᓰᐎᓂᓂᐗ	-10.7376
ᒪᔥᑲᐎᑳᐸᐎ	-10.7377
ᑲᐋᒀ	-10.7378
ᓇᓈᑯᒥ	-10.7378
ᐱᓯᑖᑯ	-10.7379
ᐅᓈᑯᔑᓂᓂ	-10.7379
ᐅᑖᐱᓂᑳᑌ	-10.7381
ᑳᑾᔭᑯᓈᑾ	-10.7387
ᑭᑎᒫᑭᓯ	-10.7388
ᒥᓉᑕᒨ	-10.7391
ᓇᐁᑕᒥ	-10.7391
ᑳᒫᐗᑑᓈ	-10.7399
ᒪᔭᑭ	-10.7403
ᐃᓈᐸᑕᓯ	-10.7411
ᐊᓯᓃᐎ	-10.7416
ᑕᒫᑯᓈ	-10.7418
ᐃᔑᐱᒧᓭ	-10.7419
ᑮᒫᒪᑳᑌᑕᒨ	-10.7426
ᐁᔑᑖᓂ	-10.7431
ᐸᕒᐊ	-10.7433
ᐋᕒ	-10.7435
ᒦᔑᔑ	-10.7448
ᐐᑕᒫᑯᐙ	-10.745
ᑭᑭᑫᑖᓈᐙ	-10.7456
ᒪᒋᑫᑰ	-10.7459
ᐯᑌ	-10.7462
ᐱᑕᑯᔑᓂ	-10.7476
ᑳᒥᓍᐸᑕ	-10.7489
ᑌᓂᑭ	-10.7493
ᐁᑾᔭᒀᑎᓯ	-10.7495
ᒋᐃᓇᓄᑮ	-10.7498
ᑭᒫᐎ	-10.7502
ᐃᔑᐌᐸᓂᓂ	-10.7511
ᐅᑮᓅᑖ	-10.7515
ᑭᒋᓂᑭ	-10.7523
ᐊᐱᒧ	-10.7534
ᑳᒥᑖᔑᓃᔑ	-10.7544
ᐲᐙᐱ	-10.7544
ᐅᐱᑭ	-10.7559
ᐁᑮᐅᒌ	-10.7559
ᐁᐹᑏᓄ	-10.7561
ᐎᓇᑰ	-10.759
ᒥᓂᒀᑲᓂ	-10.7644
ᒋᑲᒀᑕᑭᐃ	-10.768
ᑲᓇᐙᐸᑕ	-10.7695
ᐋᐲ	-10.7725
ᑎᐯᓂᒥᑯᓰ	-10.7763
ᐃᔑᐎᓈ	-10.7769
ᐸᑭᑎᓂᑫᐎ	-10.7774
ᒫᑰᔦ	-10.7796
ᐐᒋᑭᐌ	-10.7799
ᑲᓅᓇ	-10.7842
ᔕᔒᐱᑕᒧ	-10.7921
ᒪᒋᑑᑕᐎ	-10.7921
ᐊᑣ	-10.7942
ᐃᔑᐲᐊ	-10.8001
ᑳᐅᒋᑎᐯᑖᑯᓯ	-10.8018
ᐐᑕᒫᑯ	-10.8071
ᓇᑲᒋ	-10.8075
ᐅᒪᒋᑑᑕᒧᐎᓂ	-10.8087
ᐃᔑᓂᔕᐅᑯ	-10.809
ᑗ	-10.8111
ᐊᑕᐙᐸ	-10.8116
ᑭᑭᓄᐊᒫᑰ	-10.812
ᐃᓀᑖ	-10.8124
ᑯᑖᓀᑖᑾ	-10.8135
ᓵᑭᒋᓂᔕᐊᒪ	-10.8143
ᐸᑾᒋᐱᑑ	-10.8143
ᐊᔦᒀᒥ	-10.8143
ᐐᑕᓇᒥᐋ	-10.8143
ᓃᓵᑕᐌ	-10.8143
ᐯᔑᑴᑖᑯᓯ	-10.8143
ᐹᐱᓄᑕᐙ	-10.8143
ᔮᐸᒋᑑ	-10.8143
ᔂᓬᐊᒪ	-10.8143
ᑳᐃᔑᒫᒫᐗᒋᐃᑎ	-10.8143
ᒥᓄᑑᑖᑫ	-10.8143
ᓴᒣᕒᐃᔭ	-10.8143
ᐐᒋᑭᐌᔨ	-10.8143
ᓵᑭᒋᓂᔕᐙ	-10.8144
ᑲᔥᑮᑮᐎ	-10.8145
ᐅᑕᐗᑳ	-10.8146
ᑮᐗᔥᑴᐲ	-10.8149
ᐃᔑᓂᔕᐙᑲ	-10.815
ᑮᐌᓄᑕ	-10.8151
ᑲᓇᐌᑕᒧᐙ	-10.8158
ᐅᑖᑯᓰ	-10.8158
ᐹᐱᓬᐊ	-10.816
ᓂᑎᓀᑕᓰ	-10.816
ᑳᐃᔑᑖᓂ	-10.8162
ᓅᑳᑎᓯ	-10.8167
ᐃᓈᐸᒋᑑ	-10.817
ᐃᔑᓭᓯᓅ	-10.8173
ᐅᑮᐃᔑᐎᓈ	-10.8174
ᓴᓭᑳ	-10.8174
ᐃᓈᑯᓂᑫ	-10.8184
ᑮᒪᒋᑑᑕ	-10.8186
ᓈᓈᑲᒋᐃ	-10.8186
ᐅᓇᔓᐌᐎᓂᓂᐗ	-10.8187
ᑭᑫᑕᒨᓈ	-10.8193
ᑳᑕᓶᐙᓇᑭᓯᐙ	-10.8193
ᑎᐸᐃᑲᓀᔮᓂ	-10.8194
ᐁᓀᑕᒫ	-10.8196
ᑭᒪᒋᑑᑕᒧᐎᓂᐙ	-10.8199
ᓰᑲᐊᑖ	-10.8206
ᒦᑭᐙ	-10.8221
ᐃᔑᐌᐱ	-10.8222
ᒑᐸ	-10.8222
ᐐᓂᑯ	-10.8241
ᐅᑮᐊᐎ	-10.8253
ᐊᔪ	-10.8253
ᐁᒪᑗ	-10.8262
ᐁᐙᐸᒥᑯ	-10.8263
ᑳᐃᔑᒫᐗᒋᐃᑎ	-10.8263
ᐊᓂᒫᒑ	-10.8266
ᔖᔖᑯᐌ	-10.8268
ᒥᓂᑴᔦ	-10.8274
ᐊᔕᒫ	-10.8275
ᑎᐹᑯᓂᑫᐎ	-10.8303
ᐲᑎᑫᔥᑳ	-10.8326
ᑮᐌᐱᒫᑎ	-10.835
ᔖᑲ	-10.836
ᐅᑎᑖ	-10.8362
ᐐᑎᑫᑎ	-10.8384
ᑭᑭᓇᐙᑕᔕᑫᔓᑰ	-10.8411
ᒋᑎᐯᓂᒥᓀ	-10.846
ᑏᒪ	-10.8484
ᑕᒫᑯᐙ	-10.8507
ᑕᓰᓈᐙ	-10.8525
ᑳᑮᐊᑐᒥ	-10.8525
ᑌᓂᒫ	-10.8558
ᑑᑕᓰ	-10.8583
ᑎᓇᐌᒫᑲᓇ	-10.8604
ᑳᓂᐎ	-10.8636
ᒥᓄᓈᑾ	-10.8641
ᑭᒋᐐᑎᑫ	-10.8683
ᐃᔑᒦᓈ	-10.8698
ᑮᓂᐳᐗ	-10.8699
ᐲᔖᔮ	-10.8704
ᑮᐊᐸᑭ	-10.8734
ᑕᒪᐎᓇᑰ	-10.8798
ᑕᔑᒥᑰ	-10.8836
ᒋᒥᓄᐐᒌᐎᑯ	-10.8843
ᑎᓄᐎᓰ	-10.8945
ᔣ	-10.8956
ᐹᑏ	-10.8967
ᐱᒫᑎ	-10.8969
ᑌᐐᓯᓂ	-10.897
ᐅᔑᐲᐃᑫ	-10.8976
ᓶᐙᓇᑭᓯ	-10.8976
ᑭᔐᐹᐗᑲ	-10.8976
ᐋᑲᕒᐃᐸ	-10.8976
ᐸᔥᑴᑭᓄ	-10.8976
ᒫᒥᑲᐎᓄᑕᐎ	-10.8976
ᓂᓃᒑᓂᓴ	-10.8976
ᐃᓬᐃᓯᐸ	-10.8976
ᑭᒋᐅᑳᑏᑭᓀᐱ	-10.8976
ᑰᐹᑌᓂᒥ	-10.8976
ᒥᑴᓂᒥ	-10.8976
ᒪᒑᑎᓯ	-10.8976
ᓂᓯᒥᑕᓇ	-10.8976
ᐁᑕᕒᐆ	-10.8976
ᐊᔓᑕᒫᑯ	-10.8976
ᐁᓈᑎᓯ	-10.8976
ᐅᑭᒋᐅᑭᒫᒥᐙ	-10.8976
ᔒᐎᑖᑲ	-10.8976
ᓂᔑᐗᓈᒋᒋᑳᑌ	-10.8976
ᑲᔥᑭᒫ	-10.8976
ᐋᓇᓈᔭ	-10.8976
ᒥᓴᐌᓂ	-10.8976
ᑳᒋᑎᓂ	-10.8976
ᑾᔮᒌ	-10.8976
ᑕᔭᕒ	-10.8976
ᔖᐳᔥᑳ	-10.8976
ᐃᔥᐯᓂᑎᓱ	-10.8977
ᐱᔑᑭ	-10.8977
ᐱᑾᒐᔭᐄ	-10.8977
ᐅᓈᑯᓂᑫ	-10.8977
ᑫᐃᑭᑐᔦ	-10.8977
ᐸᕒᐋᐸ	-10.8977
ᐯᔅᑕ	-10.8978
ᐯᑳᓂᓯ	-10.8978
ᒫᒋᓂᔕᐙ	-10.8978
ᐱᓂᔅᑴ	-10.8979
ᓇᑭᔥᑲᐙ	-10.8981
ᐸᑭᑎᓂᑳᑌ	-10.8981
ᓈᑐᓀ	-10.8982
ᐊᑕᐌᑖᑯᓯ	-10.8982
ᑭᑫᓂᒫᓯᐙᐙ	-10.8983
ᑲᔥᑮᑎᐱᑲᓂᓂ	-10.8989
ᑲᓅᓂᓇᑰ	-10.8989
ᔖᑰᒋᐋ	-10.899
ᐊᓄᑳᑕ	-10.8992
ᓵᒥᓇ	-10.8993
ᑭᑎᓀᑖ	-10.8999
ᑳᑮᐃᔑᐲᐃᑫ	-10.9
ᑯᑖᑎ	-10.9003
ᐐᑾᑎᓈᓂᐗ	-10.9007
ᐐᒌᐎᓇᑰ	-10.9007
ᑸᓄ	-10.9009
ᑲᐸᕒᓂᔭᒦ	-10.9012
ᐅᑲᑲᔥᑭᑑᓰ	-10.9021
ᐁᑮᐃᔑᐎᓈ	-10.9028
ᐅᑭᒫᐗᐱ	-10.903
ᐊᔮᒀᒥᒫ	-10.9031
ᑲᒀᑕᑭᐃᑰ	-10.904
ᓅᑖᑯᑑ	-10.9043
ᒋᑌᐱᓇᒧ	-10.9052
ᐅᑖᐱᓇᒧᐙ	-10.9054
ᒦᓂᑰᔮ	-10.906
ᑭᑭᓄᐊᒫᑎ	-10.9061
ᐅᐱᒫᒋᐃᐌ	-10.9065
ᑭᑲᒦᓂᑯ	-10.9076
ᒌᑲ	-10.9116
ᓈᑯᒋᑳᑌ	-10.9117
ᐱᒫᒋᐃᑣ	-10.9123
ᒦᐗᑭ	-10.9142
ᑲᑴᔖᑰᓱ	-10.9148
ᒥᑕᑎᒨ	-10.915
ᐱᒥᑌ	-10.9178
ᐱᓈᓯᑲᐎ	-10.9183
ᐁᐐᑲᑴ	-10.9194
ᑌᐺᐎᓂᐗ	-10.9196
ᑎᐹᒋᒥᑯ	-10.9217
ᓇᐃᑕᐎ	-10.9236
ᐅᔑᐲᐊᒪ	-10.925
ᑳᑎᐯᓂᒥᒥ	-10.9307
ᐃᓀᑕᒧ	-10.9335
ᒪᒋᑑᑕᒧ	-10.9364
ᑳᒪᒋᑑᑕ	-10.9368
ᒥᓄᑑᑕ	-10.9379
ᒥᓇᐋ	-10.9386
ᐸᒥᐃᑯ	-10.9392
ᒨᒋᑫᑕ	-10.9397
ᔑᑑ	-10.9446
ᐐᒋᑣ	-10.9474
ᑮᐃᓈᑯᓂᑫ	-10.9496
ᑎᐸᐊᒫ	-10.9537
ᐙᐸᒥᓇᑰ	-10.9547
ᑭᐸᑯᓭᓂᒥ	-10.9558
ᑭᑭᓇᐙᑕᔕᑫᔓ	-10.9575
ᐁᐃᓈᐱ	-10.9575
ᑲᔥᑭᐁᐎᓯ	-10.9594
ᑭᑭᓄᐊᒪ	-10.9602
▁¦40	-10.9623
ᐃᔑᒋᑫᒪᑲ	-10.9629
ᐃᔑᐎᓂᑰ	-10.9629
ᑎᐸᐊᒪ	-10.9652
ᑭᔥᑮᔑ	-10.9686
ᐃᓀᑕᒧᐎ	-10.9696
ᐅᓵᑭᐃᐌᐎ	-10.9706
ᐊᓇᒥᐁᐎᑲᒥ	-10.9718
ᑌᐊᐲᑌᑖᑯᓯ	-10.9734
ᐃᓇᑲᒥᑲ	-10.9734
ᐃᔑᐱᒫᑎᓯᐗ	-10.9775
ᑭᒋᐊᐱᐎ	-10.9777
ᐅᒥᔅᑸᒥ	-10.9777
ᐅᔫᓯ	-10.9808
ᐴᔔᐋ	-10.9818
ᑭᒪᒋᑑᑕᒧᐎᓂ	-10.9822
ᐸᔭᑌ	-10.9824
ᒋᓂᔕᐅ	-10.9852
ᑮᑮᐌᐱᒫᑎᓯᐋ	-10.9856
ᐃᔑᐲᐃᑫ	-10.9865
ᑳᑮᐃᓈᑯᓂ	-10.9865
ᓂᑎᓀᑕ	-10.9865
ᐅᑎᓯᓀ	-10.9868
ᓵᑲᐃᑲ	-10.9868
ᑲᓇᐌᒋᑫ	-10.9877
ᐅᓈᑯᔑ	-10.9878
ᑌᓴᓬᐊᓇᐃ	-10.9885
ᑕᐸᓭᓂᒧ	-10.9885
ᐃᔅᑏᐱ	-10.9885
ᐅᑳᐎᒥᓇᑲᔒ	-10.9885
ᐅᒻᐺᑲᒥᑭᓯ	-10.9885
ᐸᐸᑭᑌᐙᐙ	-10.9885
ᑑᐳᐎᓈᑯ	-10.9885
ᒀᕒᓃᓬᐃᔭ	-10.9885
ᒪᐗᑎᓯ	-10.9885
ᓭᐸᑏ	-10.9885
ᔾ	-10.9885
ᒪᒍᑌ	-10.9885
ᐗᓂᔥᑴ	-10.9885
ᐅᑑᑭᒫᐎᐎ	-10.9885
ᐅᒌᒫᑲᓇ	-10.9885
ᒣᒥᑕᑫ	-10.9885
ᐲᑯᐱᑑ	-10.9885
ᐲᓬᐃᑭ	-10.9885
ᑳᑎᐸᐃᑫᐃᐌ	-10.9885
ᐸᑯᓭᓂᒧ	-10.9886
ᐐᑕᓄᑮᒥ	-10.9886
ᑳᒋᑎᓈ	-10.9886
ᑲᓇᐌᓂᑎᓱ	-10.9886
ᓃᓇᒥᓯ	-10.9886
ᐅᓈᑯᓈ	-10.9886
ᓯᑌᑳᐸᐎ	-10.9887
ᓵᐃᑕ	-10.9887
ᐅᑎᓀᑕᒧᐎᓂᐙ	-10.9887
ᒥᓋᑭᒥ	-10.9888
ᓵᑭᒋᐌᐱᓈ	-10.9888
ᐃᔑᓂᔕᐗ	-10.9888
ᑭᑎᑳᓈ	-10.9889
ᑭᑎᓀᑕᒧᐎ	-10.989
ᑭᑭᓄᐊᒫᑯᐙ	-10.989
ᐸᑭᑎᓈᓱᐎᓈᐱ	-10.9892
ᐃᔥᒀᓭᓯᓂᓂ	-10.9893
ᐗᓃᑫ	-10.9894
ᒥᓴᐌᑕᒧᐙ	-10.9896
ᐃᔥᒀᑌᒥᐗ	-10.9897
ᐊᐌᒋᑫᐎ	-10.9898
ᒑᑭᓱ	-10.9899
ᓂᓯᑐᑕᒧᐙ	-10.99
ᑭᒫᒫ	-10.9905
ᐁᓀᑖᑾ	-10.9908
ᐅᑕᔮᓰ	-10.9912
ᐁᔑᓂᑳᑌᓂ	-10.9919
ᐋᓇᐌᑕ	-10.9919
ᐅᑮᐙᐸᒥᑰ	-10.992
ᑭᑎᑳᑌ	-10.9926
ᒥᓍᒋᒥ	-10.9932
ᑲᓇᐌᑕᒥᓂ	-10.9938
ᒥᓉᑕᒥᐃ	-10.9941
ᓈᑕᒪᐎ	-10.9947
ᑭᑲᐙᐸᒥ	-10.9952
ᐅᑭᑫᑕᓰ	-10.9961
ᒪᑲᑌ	-10.9976
ᑮᐃᓈᐱ	-10.9984
ᔑᓄᐙ	-10.9994
ᑳᑭᑫᓂᒫᓯ	-11.0048
ᑰᓯᐙ	-11.0079
ᑭᔥᑮᔑᑯ	-11.0091
ᐅᒦᒦ	-11.0099
ᑭᔐᐙᑎᓯᐎ	-11.0123
ᒉᕒ	-11.0129
ᒥᑯᔥᑳᒋᐃ	-11.0139
ᐊᑕᐌᑕᒧ	-11.0156
ᔕᔒᐱ	-11.0157
ᐸᐃᐌᐗ	-11.0174
ᒪᔥᑲᐌᑕᒧ	-11.0174
ᐅᓀᑖ	-11.0183
ᐅᑌᐺᑕᒧ	-11.0184
ᐙᐸᒋᑳᑌ	-11.0218
ᑌᐺᑕᒪ	-11.0255
ᐊᓇᒥᐁᐎᑭᒫᐎ	-11.0275
ᐱᒥᔑ	-11.0283
ᑌᑖᑾᓂᓂ	-11.0283
ᐊᐲᑌᑖᑯᓯᓰ	-11.0312
ᑭᒋᐎᓇ	-11.0402
ᑎᐸᐊᒫᑰ	-11.0424
ᐅᑖᐱᓇᒧ	-11.0456
ᑭᑮᒦᓂᑯ	-11.0488
ᑲᑕᐎ	-11.0573
ᒥᑯᔥᑳ	-11.0599
ᑭᔐᐙᑎᓯ	-11.0601
ᑾᔭᒀᑎᓰ	-11.0628
ᒋᐱᒫᒋᐃᑰ	-11.0644
ᑌᐺᔦᑕᒧ	-11.0657
ᑎᐸᐊᒫᑰᐎ	-11.0699
ᐯᒫᑎᓯ	-11.0722
ᐸᐃᑎ	-11.079
ᔑᓂᑳᓂ	-11.0794
ᑳᑕᓶᐙᓇᑭᓯ	-11.0819
ᐃᓀᑕᒨ	-11.0861
ᐙᓴᑯᓀ	-11.0866
ᒥᓴᐌᑕᒪ	-11.0866
ᑮᐗᔥᑴ	-11.0877
ᑭᑎᓀᑕ	-11.088
ᐱᔑᒀ	-11.0883
ᑳᐯᐸᑳᓉᐙᓇᑭᓯ	-11.0885
ᐋᓬᐃᑭᓵᑕᕒ	-11.0885
ᐲᐌᓰᒪ	-11.0885
ᑭᑭᓇᐙᒋᐃ	-11.0885
ᐃᓈᐸᑎᓯ	-11.0885
ᐅᑑᑌᓈᒥ	-11.0885
ᐅᒋᒌᑾᓇᐱ	-11.0885
ᐅᔅᑲᑎᑯ	-11.0885
ᐲᐙᐱᑴᔮᐲ	-11.0885
ᑭᐱᔥᑭᐗᓯᑲ	-11.0885
ᑭᑎᑳᓈᑎᑯᑳ	-11.0885
ᑮᔖᐯᐎ	-11.0885
ᑲᒀᓂᓴᑫᑖᑾ	-11.0885
ᓇᒪᑎᓂᑭ	-11.0885
ᔕᔒᐯᓂᒥ	-11.0885
6	-11.0885
ᐃᔥᐸᑎᓈ	-11.0885
ᐅᑭᒫᑲᑖᑫ	-11.0885
ᑳᐅᔥᑳᑎᓯ	-11.0885
ᒪᒫᒋᑾᐱᓂ	-11.0885
ᐃᔅᑫᕒᐃᔭ	-11.0885
ᐯᑕᓬᐃᐁ	-11.0885
ᑭᑌᐺᔦᑕᒧᐎᓂᐙ	-11.0885
ᒦᑴᒋᐎ	-11.0885
ᐅᑮᒨᒋᔥᑲ	-11.0885
ᑕᐱᔑᒧ	-11.0885
ᑭᑭᓇᐙᒋᒋᑲ	-11.0885
ᐱᔑᒀᒋᑴ	-11.0885
ᐱᑕᐊᓈ	-11.0885
ᔖᐗᓄ	-11.0885
ᒥᓍᑎᓯ	-11.0885
ᐁᓈᒋᒥ	-11.0885
▁¦14	-11.0885
ᑭᑌᑖᑯᓯᐎ	-11.0885
ᐅᑌᔥᑲ	-11.0886
ᑯᑖᓀᓂᒫ	-11.0886
ᑮᒫᐗᒋᐃᑎᐗ	-11.0886
ᒉᑲᐴ	-11.0888
ᑴᑭᑳᐸᐎ	-11.0888
ᑭᐱᒫᑎᓯᐎᓂᓈ	-11.0888
ᑌᓄᐎ	-11.0889
ᑭᑎᑳᓇᑲᒥ	-11.0889
ᐅᑲᔥᑭᐁᐎᓯᐎᓂ	-11.089
ᑳᓃᑳᓂᔥᑲ	-11.0892
ᐸᑭᑕᐙ	-11.0894
ᐱᓀᓯᐗ	-11.0895
ᓈᑲᒋᐋ	-11.0895
ᒥᑲᒧᐙ	-11.0896
ᑕᓂᐳᓰ	-11.0897
ᐊᐱᓅᒌᔑ	-11.0898
ᓀᓈᐎ	-11.0901
ᑭᑌᓂᒧ	-11.0902
ᓂᑖᐸᒋ	-11.0908
ᑳᑮᑭᑫᒋᑳᑌᓯ	-11.091
ᐊᓅᓂ	-11.0912
ᐅᒦᑭᐌᐎ	-11.0913
ᑌᐺᐎᓂᐎ	-11.0913
ᐐᑑᑲ	-11.0917
ᑲᑴᒋᒪ	-11.0918
ᑭᑫᓂᒣ	-11.0918
ᓂᑖᓇᑮ	-11.0928
ᐃᔑᓂᔕᐊᒪᐎ	-11.0942
ᐅᒌᒪᑲᓯᓅ	-11.0947
ᐋᐸᒋᐃ	-11.0955
ᑭᑫᑕᓯᒀ	-11.0978
ᐊᑯᓈᑾ	-11.0988
ᔑᒫᑲᓂ	-11.0989
ᑲᑴᒋᑎ	-11.1011
ᔥᑳᒪᑲ	-11.1011
ᒫᔑᓭ	-11.1042
ᐙᐱᓰ	-11.1059
ᑌᐺᔦᓂᒥᑰ	-11.1078
ᑌᐺᑖᑯ	-11.1129
ᑮᔑᓈᑾᓂᓂ	-11.1155
ᒦᑳᓈ	-11.1186
ᐙᐸᑕᓰ	-11.1189
ᑲᓇᐌᓂ	-11.1264
ᓇᐃᑕᒧ	-11.1329
ᑮᒫᓀᑕ	-11.1359
ᓇᓃᓵᓂᓯ	-11.1433
ᒥᓄᒋᑫᐎ	-11.1443
ᒫᒌᓈ	-11.149
ᐊᔓᑕᒫᑎ	-11.1514
ᐹᑭᓇ	-11.1608
ᑕᑯᓂᑰ	-11.1619
ᑭᑕᓇᒥ	-11.1665
ᐊᑳᓯ	-11.1671
ᒫᒌᐸᐃᐌ	-11.172
ᔖᑰᓱᒫ	-11.1773
ᐁᓇᓄᑮ	-11.1875
ᐁᐃᔑᓂᑳᑌ	-11.1883
ᒫᓯᑑᓂ	-11.198
ᐁᑲᑮᐹ	-11.1993
ᐅᑮᓇᑴᑖᑰ	-11.1996
ᐯᐸᑳᓂᑮᔗ	-11.1996
ᑭᑕᓄᑮᐋᑲ	-11.1996
ᑭᓰᐲᑭᓯᑌ	-11.1996
ᒪᒫᒋᑾᐱᓱ	-11.1996
ᐅᑲᓇᐎᒫᓇᒑᓂᔑᐌ	-11.1996
ᐅᒑᓂᒣᑕ	-11.1996
ᐐᑾᑎᐗᑲᒥᑭᓯ	-11.1996
ᑭᑎᑫᐗᑲᒥᑯ	-11.1996
ᓴᑭᓂᑫᓈ	-11.1996
ᐅᐲᐌᓰᒥ	-11.1996
ᐅᑎᐹᒋᒨ	-11.1996
ᐅᔒᒣᔑ	-11.1996
ᐱᔑᑮᓴ	-11.1996
ᑕᐸᓭᑖᑯᓯ	-11.1996
ᒌᐯᑲᒥ	-11.1996
ᑭᐐᔭᐎᓈᓂ	-11.1996
ᑆᓇᐎᒋᑫ	-11.1996
ᑭᒋᒨᑯᒫ	-11.1996
ᓂᓇᑕᐌᑖ	-11.1996
ᑾᔮᒋᑑ	-11.1996
ᓂᓱᑮᔑᑾᑳ	-11.1996
ᐅᑲᓅᑕᒫᑫ	-11.1996
ᐅᓂᑖᐎᑭᑑ	-11.1996
ᐋᓇᐌᓂᒫ	-11.1996
ᑌᐺᔦᓂᒪ	-11.1996
ᒀᕒᐃ	-11.1997
ᐋᓇᐌᒋᑫ	-11.1997
ᐅᑴᓄ	-11.1997
ᐙᑳᐃᑫ	-11.1997
ᑮᓭᑭᓯᐗ	-11.1997
ᓭᓴᑰ	-11.1997
ᑎᐱᑭᑮᓯ	-11.1997
ᑳᑮᐅᓈᐸᒥᑯ	-11.1997
ᑭᐸᐅᑰ	-11.1997
ᐗᐌᔑ	-11.1997
ᐊᓈᒪ	-11.1998
ᑌᐸᑫᑖᑯᓯ	-11.1998
ᑭᑎᑳᓱ	-11.1998
ᐋᐌᒋᑫ	-11.1998
ᑸᓇᐎ	-11.1998
ᓴᓇᑲᓂᓂ	-11.1998
ᓯᒥᔭ	-11.1999
ᒨᑭᒋᐗ	-11.1999
ᓂᓯᑕᐎᓈ	-11.1999
ᑲᓅᑕᒪᐎ	-11.2002
ᑭᑮᓅᑖ	-11.2006
ᐅᔑᑕᒪᐎ	-11.2006
ᐊᑰᒋ	-11.2006
ᑯᑖᓀᑖᑾᓂᓂ	-11.2008
ᑭᐱᑎᓂ	-11.2008
ᑮᐊᑕᐌᑖ	-11.2008
ᒋᑾᔭᑾᑭᒥ	-11.2009
ᓇᑲᔑ	-11.2009
ᐸᑲᒥᔥᑳᑯ	-11.201
ᐐᒋᐐᓯᓃᒫ	-11.2015
ᓂᓯᑐᑕᒨ	-11.2017
ᐊᓄᑮᑕᐌ	-11.2018
ᔒᑫᑕ	-11.2024
ᐱᓱᑫᔑ	-11.2027
ᑲᑮᑖᐎᓯᐎ	-11.2041
ᐱᒥᐎᓈ	-11.2042
ᐁᓇᑌ	-11.2071
ᐊᐌᓀᓂᐎ	-11.208
ᒋᓈᓈᑲᒋ	-11.2084
ᑮᐅᒋᐅᔑᒋᑳᑌ	-11.21
ᑳᐅᑌᐺᑕᒧᐎᓂᓯ	-11.2101
ᐸᑭᑎᓇᒫᑰ	-11.2251
ᑌᐸᑫ	-11.2251
ᐁᐅᑯᓯᓯᒥ	-11.2274
ᒥᓄᑑᑕᐎ	-11.2278
ᑲᑴᒋᐃᑰ	-11.231
ᑲᒀᑕᑭᐃᑰᐎ	-11.2323
ᑕᐙᓯᐙᐙ	-11.2336
ᑕᓇᑖ	-11.2382
ᓵᑲᐊᒧ	-11.24
ᐌᓂᔑᔑᓂᓂ	-11.2429
ᐙᓄᒀ	-11.2444
ᒌᑫᑕᒧᐎ	-11.2482
ᓂᔥᑳᑎᓯᐎ	-11.2599
ᑳᐐᓀᑖᑾ	-11.268
ᓂᑖᒪᒋᑑᑕ	-11.2684
ᒥᓍᒋᐋ	-11.2841
ᑾᔭᑯᒋᑫᐎ	-11.2894
ᒦᑭᐌᐎ	-11.2946
ᐅᑎᓇᒧ	-11.2996
ᐱᓯᑕᐙᓯ	-11.3051
ᑎᓯᐎᓂ	-11.3064
ᐊᓉᐱᐎ	-11.3076
ᑎᐯᑖᑯ	-11.3134
ᒦᑴᒋᐌᑕ	-11.3149
ᑮᐊᑐᒥᑯ	-11.3163
ᒪᒋᑭᑎᑳ	-11.318
ᐃᓈᑯᓂᑰ	-11.3218
ᑎᐹᑯᓂᑫᐎᑮᔑᑲ	-11.322
ᓂᓇᑕᐌᓂᒫ	-11.3225
ᐸᔕᔐᐙ	-11.3246
ᒥᔑᐱᔑ	-11.3246
ᓃᔥᑕᓇᔑᓃᐎ	-11.3246
ᐅᑖᔑᑌᔮᑎᑯ	-11.3246
ᐅᒋᑎᐯᑖᑾ	-11.3246
ᐅᓇᑕᐌᓂᒫ	-11.3246
ᐌᑕᑳᓀᓯ	-11.3246
ᑎᑎᐯᔩᑭ	-11.3246
ᑳᑎᐯᓂᒪ	-11.3246
ᒪᑕᐐᐃᑎᓱ	-11.3246
ᔔᒥᓈᐴ	-11.3246
9	-11.3246
ᐱᒫᑎᓰᔥᑳᑫᒪᑲ	-11.3246
ᐸᓯᑴᐱᓱ	-11.3246
ᑭᑑᔑᐲᐊᒫᑰ	-11.3246
ᑭᑫᑌᔭᐋᒥᐙ	-11.3246
ᒫᑲᑕᓬᐊᐎᑴ	-11.3246
ᓈᓂᒥᑕᓇ	-11.3246
ᓰᑲᐊᑕᐙ	-11.3246
ᐐᓴᑳᐱᓀ	-11.3246
ᑆᓇᐎᑑ	-11.3246
ᑭᓰᓂᒌ	-11.3246
ᑲᒀᓂᓴ	-11.3246
ᒪᒫᑳᔥᑳ	-11.3246
ᑳᐅᑭᒫᐌᑖᑯᓯ	-11.3246
ᐊᑳᓰᓄ	-11.3246
ᑭᑭᓇᐙᐸᒥ	-11.3246
ᓇᓇᐁᑕᒥᐋ	-11.3246
ᑯᔥᒀᐙ	-11.3246
ᓅᑕᔮᐹᑴ	-11.3246
ᑳᑕᓱᐯᔑᑯ	-11.3246
ᐸᑫᐎᓂᑎ	-11.3246
ᐸᑲᒫᔑ	-11.3246
ᐊᔨᑭᑐ	-11.3246
ᑭᐐᒋᐅᑌᐺᑕᒨᒥ	-11.3246
ᓂᐴᑕᒪᐙ	-11.3246
ᐃᔑᓇᒧᐎ	-11.3246
ᐊᔨᔑᓭ	-11.3246
ᑭᑭᔥᑲᐙᐗᓱ	-11.3246
ᑭᓰᓯᐸ	-11.3246
ᐱᒥᓂᔕᐃᑫ	-11.3246
ᑭᐱᑎᓈ	-11.3247
ᐸᑕᑯᔥᑳᑯ	-11.3247
ᑴᑮᓄᑕ	-11.3247
ᓇᒥᐁᐗᓄᑮ	-11.3247
ᐊᑲᐙᑌ	-11.3247
ᐱᒋᑯᓇᔦ	-11.3247
ᑮᑳᑎᐎ	-11.3247
ᐙᓭᓈᑯᓯ	-11.3247
ᓈᐗᑴ	-11.3247
ᒪᐎᓀᔥᑲᐙ	-11.3248
ᒪᔥᑲᐌᑖᑾ	-11.3248
ᐅᑲᔥᑮᑮᐎᓂ	-11.3248
ᑲᔥᑭᒋᑳᑌ	-11.3248
ᐅᓂᐴ	-11.3249
ᑳᑮᐋᓂᑫ	-11.3249
ᒋᐅᑭᒫᑲᑕ	-11.3249
ᑮᐃᔑᐎᒋᑲᓂᐎ	-11.3249
ᓵᑭᒋᐌᐱᓂ	-11.325
ᑲᓇᐌᑕᒫᑯ	-11.325
ᐗᓂᒋᑫ	-11.3251
ᐯᔑᑯᑎᐸᐃᑲ	-11.3251
ᐙᑌᓭ	-11.3252
ᑭᑕᑭᒥ	-11.3253
ᑭᑎᔑᑲᓅᓂ	-11.3255
ᑭᑕᑭᒫ	-11.3255
ᑳᐱᒥᓭ	-11.3255
ᐃᔥᑾ	-11.3256
ᑖᐸᒋᑑᓰ	-11.3256
ᐅᑮᒥᑲᓰ	-11.3256
ᓂᐴᒥ	-11.3256
ᓈᑯᐃᑎᓱ	-11.3258
ᐊᓴᐲ	-11.3259
ᑰᓯᓈ	-11.326
ᒥᓍᐸᒥᑯᐙ	-11.3261
ᑭᑫᑖᑯᓯ	-11.3262
ᐐᒋᐐᓯᓃᒥ	-11.3262
ᔖᑯᐙᓈ	-11.3264
ᒫᔑᒋᑫ	-11.3268
ᐹᑏᓄᓈᓂᐗᓂᓂ	-11.3275
ᐅᑭᒫᑲᑕᐙ	-11.3283
ᑳᔖᓂ	-11.3284
ᒥᓂᒀᑕ	-11.3292
ᐁᑎᐯᓂᒥᓇ	-11.3305
ᒣᓂᑲᓈ	-11.3307
ᑯᒋᐃᑰᐎ	-11.3311
ᒥᓄᐐᒌᑎ	-11.3322
ᒋᑭᐌᓯᐗ	-11.3401
ᐐᑑᑳ	-11.341
ᐃᓈᐸᒋ	-11.3421
ᑾᐃᑲ	-11.3439
ᔑᐲᐊᒪᐎ	-11.348
ᑫᑌᒪᓯᓇᐃᑲ	-11.3482
ᑎᐹᑯᓂᑲᓂᐎ	-11.3497
ᒋᐅᑎᓇ	-11.3884
ᑳᐊᐲᑌᑖᑯᓯ	-11.3924
ᒦᑳᓱᐎ	-11.3943
ᐊᑐᓀᐊ	-11.411
ᑳᒪᒋᓈᑾ	-11.424
ᐱᒫᒋᐃᐌᐎ	-11.4496
ᓅᑖᑎᓯ	-11.4544
ᑎᐸᐃᑲᓀᔮ	-11.4576
ᐊᑯᓈ	-11.4604
ᐐᓯᓃᒫ	-11.465
ᐃᔥᐯᓂ	-11.4674
ᒍ	-11.4675
ᐊᑶᓬᐊ	-11.4675
ᐌᑭᒫᐌᑖᑯᓯ	-11.4675
ᐸᐲᑾᑎᓈ	-11.4675
ᐸᕒᐃᓯᓬᐊ	-11.4675
ᒥᓍᑐᑌ	-11.4675
ᐅᐱᓯᑲᓂᐎᓯ	-11.4675
ᐅᒋᒌᑾᓇᐲᑖ	-11.4675
ᐐᓴᑳᐸᓱᐌ	-11.4675
ᐸᐸᑭᓀ	-11.4675
ᑭᔑᓱᐙᐱᓀ	-11.4675
ᑳᐅᓅᑕᒫᐎᓂ	-11.4675
ᑳᒥᓍᑎᓰᔑᑑ	-11.4675
ᒌᑲᑲᒥᑭᓯ	-11.4675
ᒥᔕᑮᔮᓯ	-11.4675
ᒦᑴᒋᐌᓂᒥ	-11.4675
ᓂᑯᑣᓯᒥᑕᓇ	-11.4675
ᔀ	-11.4675
ᐅᑎᓇᐌᒫᑲᓂ	-11.4675
ᐊᑳᓭᑖᑾ	-11.4675
ᐗᓯᑖᐎᓭ	-11.4675
ᐸᐹᒣᓂᒥ	-11.4675
ᐸᐹᒣᓂᒫ	-11.4675
ᐹᐹᐗᐃᑫ	-11.4675
ᑭᑕᒑᑯᐙ	-11.4675
ᒪᓯᓇᐊᒪᐙ	-11.4675
ᒫᒫᑕᐆ	-11.4675
ᒶ	-11.4675
ᓂᑎᓀᑕᒧᐎᓂ	-11.4675
ᓂᑖᐎᑭᓈᐗᓱ	-11.4675
ᓰᑲᐊᑕᐎ	-11.4675
ᐱᐁᓬᓯᐳᓬ	-11.4675
ᑕᓇᓄᑮ	-11.4675
ᒋᐸᐹᒣᑕᓯ	-11.4675
ᒪᔥᑭᑮᐎᓂᓂ	-11.4675
ᓂᑕᓄᑮᐋᑲ	-11.4675
ᐃᓈᓴᒥᑳᐸᐎ	-11.4675
ᐅᑰᐹᓯᓈᑫᐎ	-11.4675
ᐅᒥᓴᑖ	-11.4675
ᐱᓬᐃᐹ	-11.4675
ᐱᔑᒀᑎᓰ	-11.4675
ᑲᒀᑕᑫᑖ	-11.4675
ᓃᑳᓇᑭᓱ	-11.4675
ᑎᑎᐲᑭᓂᑲᓂ	-11.4675
ᐊᔨᔑᒋᑫ	-11.4675
ᐅᑎᑎᓂᑯ	-11.4675
ᐱᔅᑲᓀ	-11.4675
ᐴᓂᓭᓯᓄ	-11.4675
ᓂᓵᐹᐌ	-11.4675
ᐅᐱᓯᑲᓀ	-11.4675
ᐅᒥᓍᑎᓰᔑᑑ	-11.4675
ᒀᐱᑭᓯ	-11.4675
ᑮᔥᑭᔑᑲ	-11.4675
ᐁᔑᐌᐱᓯ	-11.4675
ᐸᐹᐱᓯᔅ	-11.4675
ᑳᑭᑌᑖᑯᓯ	-11.4675
ᐅᔥᑲᔭᐄ	-11.4675
ᐊᑐᒪᒀ	-11.4675
ᑯᔥᑯᓭ	-11.4675
ᐅᑳᑭᑲᓂ	-11.4675
ᐊᔨᔑᑖ	-11.4675
ᐅᓃᑭᐃᑯ	-11.4675
ᓂᒫᓇᒑᓂᔑᒪ	-11.4675
ᐙᐱᔥᑳᓂ	-11.4675
ᐃᓇᑭᑎᓱ	-11.4675
ᓃᒥᓂᑫᓂ	-11.4675
ᑭᑌᐃᓈᓂ	-11.4675
ᐸᑕᑭᑌ	-11.4675
ᐙᐸᒫᐗᓱ	-11.4675
ᑌᐺᔦᑖᑾ	-11.4675
ᑭᑎᑫᐗᑮ	-11.4676
ᐃᔑᓂᑳᒋᑲᓂᐎ	-11.4676
ᓯᔮᑭᐃ	-11.4676
ᓂᐯᐎᓂ	-11.4676
ᑲᓇᐌᒋᑳᑌ	-11.4676
ᑎᓄᐙᑎ	-11.4676
ᑳᐃᓇᒧ	-11.4676
ᐗᓃᑫᓄᑕ	-11.4677
ᑭᑌᐺᑕᒧᐎᓂᓈ	-11.4677
ᑮᑮᔑᒋᑳᑌ	-11.4677
ᐁᑲᓇᐙᐸᒥᑯ	-11.4677
ᑯᑖᓀᓂᒥ	-11.4677
ᑳᐅᓃᒑᓂᓯᒥᑯ	-11.4678
ᓂᔑᐗᓈᒋᐋ	-11.4678
ᑳᐅᑌᑌᒫᐎ	-11.4679
ᑭᓇᑕᐌᑖ	-11.4679
ᑲᓅᑕᒫᓱ	-11.4679
ᓃᓀᑕ	-11.468
ᐙᓭᔥᑲ	-11.4681
ᑭᔑᑌ	-11.4682
ᐅᒋᐱᓂᑯ	-11.4682
ᑕᓀᑖᑯᓯ	-11.4683
ᐱᓬᐃᔭ	-11.4683
ᑕᑾᑭᒥ	-11.4688
ᒋᒪᔥᑲᐌᑕᒥ	-11.4691
ᐃᓇᓯᑯ	-11.4699
ᑭᑭᔥᑳ	-11.47
ᐸᑫᒋᑲ	-11.4703
ᑯᐹᑌᓂ	-11.4706
ᑭᐸᐅᒥ	-11.4715
ᐋᑲᐗ	-11.4731
ᐊᓂᑲᑮᔑᑲ	-11.4733
ᒋᒫᓀᑕ	-11.4739
ᑮᐊᐸᑑ	-11.4741
ᓇᐃᓭ	-11.477
ᒋᐙᐸᒋᑳᑌᓂ	-11.4807
ᑮᔐᑕ	-11.4871
ᐸᑫᓯᐎ	-11.4877
ᐱᑭᔑ	-11.4878
ᔥᒀᑌᒥ	-11.5205
2	-11.5734
ᐱᒥᓂᔕ	-11.5772
ᐎᓂᓃᒪ	-11.5821
ᐃᓈᑯᓈ	-11.6006
ᒥᓍᒋᐃ	-11.603
ᑮᑕᓇᒥᐋ	-11.6113
ᐴᓀᑕᒪ	-11.6154
ᑲᐸᕒᓂᔭ	-11.6267
ᑲᔥᑭᐊ	-11.6277
ᒸ	-11.6291
ᓇᐃᓂᑏᐎᑲᒥ	-11.6314
ᔖᑰᓱᒥ	-11.6336
ᐌᑭᒫᐙᑎᓯ	-11.6341
ᑰᐹᓯᓇᐙ	-11.6341
ᐅᔑᐲᐃᑳᓱ	-11.6341
ᐅᔖᐗᔥ	-11.6341
ᐅᔥᑲᐱᓅᒌ	-11.6341
ᐲᓯᑲᐙᑲ	-11.6341
ᑰᐹᑌᓂᒫ	-11.6341
ᓃᔗᐙᓇᑭᓯ	-11.6341
ᐃᕒᐆᑎᔭ	-11.6341
ᐋᐃᑰᓂᔭ	-11.6341
ᐙᓴᑯᓀᒋᑲᓈᑎᑯ	-11.6341
ᐱᒀᐎᑲᓀ	-11.6341
ᐸᐲᒶᓯᓇᐃ	-11.6341
ᐹᑭᑌᓇᒫ	-11.6341
ᑕᐸᓭᓂᑎᓱ	-11.6341
ᑕᑌᐱᓇᒫᓱ	-11.6341
ᑭᑭᓇᐙᒋᒋᑫ	-11.6341
ᑭᓰᔩᑴ	-11.6341
ᑲᓬᐁᔑᔭ	-11.6341
ᒋᐃᔑᐊᓈᒣᑖᑯᓯᓯ	-11.6341
ᒐᕒᐆᐗ	-11.6341
ᒪᓯᓇᐃᑫ	-11.6341
ᓂᑎᑭᑐᓰ	-11.6341
ᓇᓃᓵᓀᑕ	-11.6341
ᓬᐃᔅᑕᕒᐊ	-11.6341
ᐊᔮᒀᒥᓰᑲᑕ	-11.6341
ᐋᐸᒋᑖᐗ	-11.6341
ᐌᑯᓯᓯᒥ	-11.6341
ᐐᓯᓂᐎᓈᑎ	-11.6341
ᐋᔕᐎᔥᑳ	-11.6341
ᐐᑯᐲᒪᑲ	-11.6341
ᑑᓇᔓᐌᐎᓂᓈ	-11.6341
ᑭᑭᔥᑭᑫ	-11.6341
ᑳᐊᑳᓭᑖᑯᓯ	-11.6341
ᒑᑭᓯᑳᑌ	-11.6341
ᓂᑌᐃᓈᓂ	-11.6341
ᐐᒋᑳᐸᐎᑖᑯ	-11.6341
ᐲᑕᒪᐎᔑ	-11.6341
ᑌᐯᓂᒥ	-11.6341
ᑳᐅᑭᒫᑲᑕ	-11.6341
ᑭᑎᒫᑫᓂ	-11.6341
ᒫᒪᑳᓯᓈᑾ	-11.6341
ᒨᔕᑭᓂᑫ	-11.6341
ᐅᑎᐯᑖ	-11.6341
ᐃᓉᒪᑲ	-11.6342
ᐊᑐᑕᒫᑫ	-11.6342
ᐊᓄᑲᐗ	-11.6342
ᐐᒋᔭᔮᒥ	-11.6342
ᑳᐊᒑᑴᑖ	-11.6342
ᑳᑮᐙᐱᓯᓂ	-11.6342
ᓵᑭᐃᑎᓱᔭ	-11.6342
ᑕᐎᓇᒪᐎ	-11.6342
ᓵᒥᓇᒪᐙ	-11.6342
ᓂᑕᓄᑮᐎ	-11.6342
ᐅᒫᓇᒑᓂᔑᒪ	-11.6342
ᑳᐊᐯᓂᒧᓄᑕ	-11.6342
ᓂᐱᒫᑎᓯᐎᓂᓈᓂ	-11.6342
ᐊᑑᐹᓇ	-11.6342
ᒥᓴᐌᑖ	-11.6342
ᐲᑎᑲᔑ	-11.6342
ᐙᑳᔮᐱᑭ	-11.6342
ᐅᑮᔑᑳᒥ	-11.6342
ᐸᑕᑭᓱ	-11.6342
ᐸᐹᐱᓯᔅᑫᑕᓰ	-11.6342
ᑲᑮᐹᓯ	-11.6342
ᒪᒐᑭ	-11.6342
ᑎᐹᑐᑌ	-11.6342
ᐅᑲᐱᓯᑕᐙ	-11.6342
ᓂᒥᑲᒧᐙᓰ	-11.6342
ᐲᑎᑲᐙ	-11.6342
ᑾᔮᒋᑕᒫ	-11.6342
ᐸᑕᑭᑑ	-11.6342
ᐃᓇᒪᒋᐅ	-11.6342
ᓈᓯᐲ	-11.6342
ᐅᑎᓇᓰ	-11.6342
ᓈᐱᔥᑭᑲ	-11.6342
ᑕᐃᔥᒀᓭᓯᓅ	-11.6342
ᒥᔕᐗ	-11.6342
ᐅᐸᑴᔑᑲᓂᒪ	-11.6343
ᑭᐹᑾ	-11.6343
ᐸᑴᔑᑲᓂᑳᓇ	-11.6343
ᑮᒥᓄᐊᔮᐗ	-11.6343
ᐗᑫᑕᒧ	-11.6343
ᑫᐅᑎᓇ	-11.6343
ᐅᑌᑎ	-11.6343
ᒫᒪᑳᑌᑖ	-11.6343
ᓂᑕᒑᑯ	-11.6343
ᐲᑕᒪᐙᐙ	-11.6344
ᐋᒋᒋᑳᑌ	-11.6346
ᐅᑲᑮᑖᐌᑕᒧᐎᓂ	-11.6346
ᑭᐴᔔᐃ	-11.6347
ᐱᑾᑕᑮ	-11.6347
ᐊᓂᒥᑯᑖ	-11.6348
ᐊᐗᓱ	-11.6348
ᐁᑾᔭᑴ	-11.6348
ᑮᑭᑑᑕᒪᐙ	-11.6355
ᑆᑕᐐ	-11.6355
ᐱᒥᐗᓈ	-11.6362
ᑕᐲᑎᑫᓰ	-11.6365
ᐅᓈᑯᓇ	-11.6366
ᒥᑴᑖ	-11.6368
ᓇᑕᐌᓂᒫᓯᐙᓈ	-11.637
ᐐᒌᐎᔭᒥ	-11.6372
ᐃᔑᑣᐎ	-11.6374
ᓵᑭᓯᐃ	-11.6424
ᒋᑭᐌᔭ	-11.6427
ᑲᑮᑴᓄᑕ	-11.6445
ᐁᑮᐊᔮᐙᓯ	-11.646
ᐁᒦᑴᒋᐌ	-11.6461
ᒋᓂᐳᓯ	-11.6474
ᐙᓭᔥᑳ	-11.6497
ᑮᓅᑖᑎ	-11.6499
ᐅᑎᔑᐊᔮᐎ	-11.6506
ᐲᕒᐃ	-11.6525
ᐅᒋᒫᒌᑭ	-11.6618
ᐐᒋᐊᔮᒪ	-11.6641
ᐅᑾᔭᒀᑎ	-11.6725
ᓂᔕᐅᑣ	-11.6832
ᑌᑕᒨ	-11.7426
ᐊᐯᓂᒧᓄᑕᐎ	-11.7772
ᐊᔓᑕᒪ	-11.7875
ᑲᑴᑲᔥᑭ	-11.7925
ᐃᔑᓂᔕᐊᒪ	-11.8222
ᒫᐗᑑᓈ	-11.8275
ᒥᓍᒋᒧ	-11.8282
ᐊᔭᐋᒥᓈᐸ	-11.8311
ᐐᓯᓃᒥ	-11.8315
ᐲᐃᑫᔮ	-11.8331
ᑎᑎᐲᑭ	-11.8341
ᐁᓈᓴᒪᐱ	-11.8341
ᐋᐹᐱᑲᐃᑲ	-11.8341
ᑭᐲᑭᓂᑲ	-11.8341
ᑰᐹᓯᓇᐎᔑ	-11.8341
ᑲᔥᑭᐃᑯᓰ	-11.8341
ᒪᒋᑭᓀᐱᑯ	-11.8341
ᐅᑑᓃᒑᓂᓯᒥ	-11.8341
ᐅᒋᒌᑾᓇᐲᑕᐙ	-11.8341
ᐅᓈᑲᑕᐌᑕᒧᐎᓂᐙ	-11.8341
ᐊᔨᔑᑮᔗ	-11.8341
ᐲᑴᑕᒧᐎ	-11.8341
ᐸᑯᓀᔮ	-11.8341
ᑭᒋᐊᔭᐋᒥᐙ	-11.8341
ᒪᑗᔮᐲᑭᐱᒋ	-11.8341
ᒪᒫᒋᑾᐱᓈ	-11.8341
ᒪᓂᒎᔕ	-11.8341
ᓂᔑᐗᓈᑕᑲᒥᑭᓯ	-11.8341
ᐁᕒᐃᔅᑖᕒᑲ	-11.8341
ᐅᑎᑎᓂᑰ	-11.8341
ᐅᑕᐱᓅᒌᔑᒥ	-11.8341
ᐅᑮᐙᑎᓰᑴ	-11.8341
ᐅᑮᒫᒪᑳᓯᑖ	-11.8341
ᐙᓭᒋᑲᓈᐱ	-11.8341
ᐸᐲᒶᓯᓇᐋᐙ	-11.8341
ᐸᑭᑕᓈᒧ	-11.8341
ᐸᓰᑴᑲᓈᒥ	-11.8341
ᐹᐱᓄᑖᑫ	-11.8341
ᑕᐸᓭᓂᒫ	-11.8341
ᑖᔥᑮᑭᓭ	-11.8341
ᑭᑕᔮᒀᒥᒥ	-11.8341
ᑭᑭᓄᐎᓈ	-11.8341
ᑭᒋᐙᒥᑲᐃᑲ	-11.8341
ᑭᓃᒑᓂᓯᐙ	-11.8341
ᑲᒀᑕᑲᓄᑮ	-11.8341
ᑲᔥᑭᐁᐎᓰᒪᑲ	-11.8341
ᑳᑲᑴᓇᑳᔥᑲᐙ	-11.8341
ᒨᔥᑭᓇᑑ	-11.8341
ᓇᑖᓂᔭᓬ	-11.8341
ᓈᒋᐐᑯᐱ	-11.8341
ᓵᑲᐃᑲᓂᑳᓀ	-11.8341
ᔕᔒᐯᓂᒫ	-11.8341
ᐃᓈᓴᒥᑳᐸᐐᑕ	-11.8341
ᐃᔥᐯᑖᑾᓂᓂ	-11.8341
ᐊᑕᐗᓄᑮ	-11.8341
ᑭᑕᐯᓂᒧᐎᓂ	-11.8341
3	-12.1778
ᐺ	-12.4151
ᓋ	-12.4161
(	-12.4175
)	-12.4175
7	-13.6748
–	-13.9163
.	-13.9166
ᔡ	-13.9167
ᐾ	-13.9168
;	-13.9169
ᔗ	-13.917
!	-13.9171
?	-13.9172
:	-13.9173
,	-13.9174
/	-13.9175
u	-13.9175
ᒒ	-13.9175
"	-13.9175
[	-13.9175
]	-13.9175
a	-13.9175
z	-13.9175
~	-13.9175
ᐧ	-13.9175
ᑡ	-13.9175
ᐼ	-13.9175
᙮	-13.9175
