<pad>	0
</s>	0
<unk>	0
▁¦	-0
▁𐋇	-1
an	-2
ma	-3
ch	-4
ˈ¦	-5
▁̈	-6
in	-7
aj	-8
co	-9
is	-10
▁,	-11
al	-12
naj	-13
yu	-14
et	-15
mam	-16
eb	-17
il	-18
▁.	-19
comam	-20
ca	-21
ha	-22
to	-23
un	-24
ay	-25
tz	-26
tu	-27
ni	-28
chi	-29
yin	-30
ti	-31
hun	-32
ebnaj	-33
xin	-34
ta	-35
caw	-36
el	-37
ab	-38
ah	-39
ey	-40
tx	-41
anma	-42
ul	-43
ax	-44
yul	-45
oj	-46
te	-47
wal	-48
can	-49
hune	-50
os	-51
di	-52
yet	-53
dios	-54
yeb	-55
ak	-56
tet	-57
tzet	-58
en	-59
mach	-60
yal	-61
yi	-62
xa	-63
es	-64
han	-65
isc	-66
che	-67
pax	-68
ya	-69
at	-70
▁:	-71
ẍi	-72
ix	-73
wi	-74
wa	-75
he	-76
ol	-77
haca	-78
unil	-79
ban	-80
ye	-81
mac	-82
isb	-83
no	-84
ic	-85
▁―	-86
yalni	-87
on	-88
taj	-89
jes	-90
sat	-91
paxo	-92
oc	-93
yuto	-94
yaj	-95
sunil	-96
bal	-97
isk	-98
yuxin	-99
con	-100
tato	-101
isto	-102
hey	-103
lah	-104
cha	-105
ico	-106
oh	-107
cano	-108
haw	-109
chal	-110
hac	-111
watx	-112
ilo	-113
ob	-114
cat	-115
tzo	-116
bey	-117
chu	-118
tek	-119
huntek	-120
jan	-121
yel	-122
hunu	-123
isba	-124
xol	-125
inal	-126
man	-127
ap	-128
uy	-129
yil	-130
chej	-131
bay	-132
yaja	-133
om	-134
tan	-135
cr	-136
ra	-137
cam	-138
cristo	-139
qu	-140
lax	-141
ojan	-142
ús	-143
jesús	-144
inan	-145
ju	-146
yiban	-147
je	-148
chis	-149
▁?	-150
ahan	-151
ulal	-152
yun	-153
yak	-154
machi	-155
ec	-156
hex	-157
ex	-158
chey	-159
niman	-160
hal	-161
jesu	-162
jesucristo	-163
col	-164
chin	-165
tey	-166
ism	-167
bil	-168
maẍ	-169
chah	-170
ayco	-171
hayet	-172
sa	-173
istx	-174
we	-175
lahwi	-176
itz	-177
tic	-178
teyet	-179
ischej	-180
yoc	-181
tzoti	-182
banil	-183
lo	-184
na	-185
win	-186
ayic	-187
isra	-188
israel	-189
ho	-190
cuy	-191
yanma	-192
wet	-193
ro	-194
otx	-195
um	-196
ojab	-197
oche	-198
▁¿	-199
la	-200
yip	-201
ayto	-202
chiwal	-203
ischejab	-204
yahaw	-205
wan	-206
ri	-207
wom	-208
em	-209
ej	-210
yan	-211
ayo	-212
hi	-213
ba	-214
tinan	-215
wu	-216
▁“	-217
tel	-218
im	-219
banile	-220
as	-221
yab	-222
xahan	-223
matx	-224
am	-225
yij	-226
isp	-227
istz	-228
lan	-229
chex	-230
matxa	-231
ojal	-232
heb	-233
bi	-234
hunun	-235
er	-236
isma	-237
isya	-238
tajil	-239
ib	-240
nihan	-241
anto	-242
iscuy	-243
iswi	-244
do	-245
emp	-246
tiemp	-247
ton	-248
▁,”	-249
anil	-250
ebil	-251
tut	-252
atan	-253
yilal	-254
uj	-255
▁;	-256
cham	-257
esp	-258
chij	-259
haxa	-260
yelap	-261
mo	-262
iswatx	-263
nimanil	-264
xi	-265
ebix	-266
tzotel	-267
heyanma	-268
yatut	-269
ablo	-270
chico	-271
heba	-272
inti	-273
ayxa	-274
juẍ	-275
nab	-276
wil	-277
pablo	-278
pni	-279
xan	-280
yilni	-281
tak	-282
íri	-283
ohtaj	-284
íritu	-285
espíritu	-286
us	-287
walil	-288
lahan	-289
pe	-290
tzal	-291
maca	-292
yapni	-293
hul	-294
ixim	-295
yalan	-296
texol	-297
chiwalan	-298
hol	-299
jet	-300
sata	-301
quin	-302
satcan	-303
icham	-304
ley	-305
yute	-306
da	-307
án	-308
tit	-309
ja	-310
amb	-311
yelapno	-312
yahawil	-313
hunel	-314
le	-315
chon	-316
santo	-317
chiw	-318
ahol	-319
yehi	-320
ar	-321
apni	-322
chak	-323
maẍto	-324
iscuywom	-325
és	-326
howal	-327
ón	-328
istzoti	-329
quex	-330
yaben	-331
ibn	-332
▁―¿	-333
istak	-334
nan	-335
ohtan	-336
abe	-337
ismaj	-338
isbi	-339
cab	-340
yah	-341
hach	-342
dro	-343
mul	-344
ulch	-345
teyin	-346
wax	-347
hel	-348
pedro	-349
cuybanile	-350
matz	-351
juẍta	-352
yo	-353
isés	-354
moisés	-355
▁!	-356
matzwalil	-357
ohal	-358
wetan	-359
▁‐	-360
mal	-361
tom	-362
waxan	-363
yinta	-364
choche	-365
yebpaxo	-366
nico	-367
tojan	-368
ayxaco	-369
bab	-370
etic	-371
yije	-372
li	-373
chel	-374
hec	-375
iss	-376
ismul	-377
ismajul	-378
hil	-379
gel	-380
iloj	-381
nich	-382
ángel	-383
chiak	-384
yuninal	-385
janma	-386
jin	-387
juan	-388
chahni	-389
chioc	-390
aco	-391
canoj	-392
amben	-393
istan	-394
yeli	-395
yalnipaxo	-396
itzitz	-397
mi	-398
tiempohal	-399
babel	-400
yuxinto	-401
ilni	-402
yechel	-403
ea	-404
mun	-405
ip	-406
maẍtaj	-407
én	-408
▁¡	-409
ilal	-410
macta	-411
sac	-412
camic	-413
cach	-414
ci	-415
cu	-416
jer	-417
ila	-418
isti	-419
ohta	-420
anmahil	-421
eh	-422
nabal	-423
camical	-424
eo	-425
mar	-426
go	-427
heyu	-428
cawan	-429
hawil	-430
mamin	-431
chiyij	-432
yanico	-433
chiswatx	-434
het	-435
obal	-436
chihal	-437
xil	-438
alén	-439
isyel	-440
jerus	-441
maẍtic	-442
jerusalén	-443
yay	-444
anxa	-445
haxin	-446
haxinwal	-447
dote	-448
sacer	-449
ismunil	-450
sacerdote	-451
yaw	-452
ẍtaj	-453
tiempo	-454
mel	-455
winaj	-456
isnimanil	-457
ik	-458
munil	-459
aypaxo	-460
alni	-461
ayex	-462
isley	-463
chalni	-464
ala	-465
chiyu	-466
anico	-467
istohol	-468
inmam	-469
txum	-470
isnabal	-471
yec	-472
ayoj	-473
ac	-474
xe	-475
rey	-476
tawet	-477
chil	-478
chito	-479
hanin	-480
abal	-481
elico	-482
hunelxa	-483
wuhan	-484
inc	-485
ujan	-486
elo	-487
cheyute	-488
cap	-489
ten	-490
ehal	-491
tzalah	-492
ji	-493
aben	-494
yum	-495
cuywa	-496
isyelal	-497
ham	-498
jak	-499
eso	-500
ano	-501
istzotel	-502
alax	-503
paxojan	-504
machojab	-505
pr	-506
ub	-507
jahawil	-508
xiw	-509
camom	-510
iscol	-511
ismam	-512
coj	-513
inmaman	-514
ink	-515
ito	-516
chihul	-517
xahanbal	-518
yen	-519
wuẍtaj	-520
cob	-521
ayon	-522
lin	-523
chala	-524
diosal	-525
anc	-526
pan	-527
bican	-528
me	-529
pay	-530
ule	-531
elax	-532
ican	-533
omal	-534
payat	-535
machoj	-536
itzc	-537
ocan	-538
ayical	-539
tzettaj	-540
bar	-541
aban	-542
txah	-543
chmam	-544
ẍiayoj	-545
haj	-546
wak	-547
ías	-548
haninti	-549
chik	-550
chute	-551
cuywawom	-552
colbanile	-553
toj	-554
tax	-555
iscaw	-556
ebilcano	-557
isye	-558
preso	-559
aris	-560
tzujan	-561
helanil	-562
intijan	-563
wah	-564
chul	-565
nilo	-566
chiec	-567
wanma	-568
ía	-569
chalo	-570
chiwak	-571
coc	-572
tzuj	-573
ishowal	-574
hes	-575
oji	-576
cheyil	-577
ij	-578
yoj	-579
coba	-580
iscu	-581
faris	-582
lahon	-583
ach	-584
chiwa	-585
hanic	-586
tzala	-587
fariseo	-588
quil	-589
tohan	-590
matzet	-591
wanmahan	-592
ech	-593
camo	-594
chic	-595
paxoj	-596
walni	-597
wanab	-598
jud	-599
xal	-600
abra	-601
barco	-602
chicol	-603
abraham	-604
car	-605
ino	-606
ulan	-607
islah	-608
munla	-609
cheyak	-610
chitan	-611
hunuxa	-612
cul	-613
yaco	-614
isbej	-615
xu	-616
ayc	-617
des	-618
chitit	-619
nipaxo	-620
ena	-621
yeco	-622
canojan	-623
huj	-624
alil	-625
ismi	-626
chaco	-627
icojan	-628
ochehan	-629
sunilbal	-630
lek	-631
tam	-632
xinto	-633
za	-634
unin	-635
eybal	-636
heyalni	-637
aybal	-638
iscam	-639
nimanc	-640
walxinto	-641
capil	-642
culus	-643
yijen	-644
hetx	-645
chim	-646
dado	-647
yoche	-648
axto	-649
wohtaj	-650
hunxa	-651
tawin	-652
yulaj	-653
oldado	-654
ist	-655
niẍ	-656
eta	-657
bisc	-658
ehan	-659
chisje	-660
conimanil	-661
tzalahilal	-662
uc	-663
noj	-664
saj	-665
melyu	-666
istoholal	-667
itzitzbican	-668
aw	-669
sel	-670
yik	-671
niẍte	-672
juẍtaj	-673
cancano	-674
id	-675
inb	-676
sim	-677
paxto	-678
chejab	-679
chihalni	-680
chischah	-681
ox	-682
hawu	-683
aybalc	-684
chuquil	-685
nok	-686
ulo	-687
nicano	-688
heye	-689
tzen	-690
pitzc	-691
jichmam	-692
isn	-693
chitz	-694
issaj	-695
yixal	-696
bilcano	-697
soldado	-698
beh	-699
haba	-700
hacpax	-701
hantan	-702
istiempohal	-703
tijan	-704
wilal	-705
bilintijan	-706
eto	-707
yuch	-708
yetbi	-709
chawal	-710
yichico	-711
israeloj	-712
bak	-713
hek	-714
inalo	-715
yijem	-716
eni	-717
len	-718
mas	-719
simón	-720
yohta	-721
istxum	-722
tocanoj	-723
ok	-724
eli	-725
ẍta	-726
chaẍ	-727
carta	-728
tajan	-729
iscutx	-730
istzab	-731
chiwochehan	-732
sic	-733
hero	-734
hitz	-735
wute	-736
heyak	-737
wej	-738
potx	-739
ispaj	-740
aycano	-741
vid	-742
maría	-743
ayicto	-744
chielico	-745
xahanbalil	-746
sak	-747
web	-748
naha	-749
galil	-750
hacoj	-751
heyet	-752
canico	-753
galilea	-754
inbahan	-755
ishelanil	-756
tio	-757
ia	-758
aya	-759
huno	-760
tzujno	-761
chiapni	-762
cutx	-763
icto	-764
mule	-765
chiel	-766
janab	-767
paxico	-768
haninan	-769
heyohtaj	-770
walnihan	-771
ahto	-772
david	-773
ismel	-774
cowatx	-775
chewatx	-776
mil	-777
laxi	-778
xaco	-779
nahat	-780
wehan	-781
capilla	-782
iswalil	-783
cablahon	-784
chitzala	-785
hay	-786
nam	-787
aycan	-788
ixnam	-789
jacob	-790
jilni	-791
yayto	-792
anan	-793
ulta	-794
cocol	-795
habil	-796
hanta	-797
tebil	-798
johtaj	-799
yohtan	-800
herodes	-801
masanto	-802
ischahni	-803
wintajan	-804
chejbanile	-805
machiswalil	-806
cir	-807
hen	-808
cawxi	-809
hewatx	-810
yenilo	-811
cheyaco	-812
cheyala	-813
xewilal	-814
isbeybal	-815
uch	-816
nino	-817
pila	-818
yabe	-819
chiil	-820
inale	-821
nojan	-822
ayojab	-823
cheyal	-824
chicam	-825
ilojan	-826
pilato	-827
txahli	-828
wohtajan	-829
pa	-830
ann	-831
halni	-832
andiosal	-833
jah	-834
say	-835
ajan	-836
anni	-837
ayin	-838
mame	-839
chahi	-840
majan	-841
chiwalti	-842
ilk	-843
jos	-844
mak	-845
poh	-846
yetxa	-847
yinito	-848
chihallax	-849
chitzotel	-850
jal	-851
sub	-852
anta	-853
balto	-854
ismay	-855
hununex	-856
wilnihan	-857
ek	-858
bej	-859
ahil	-860
ayilo	-861
chaho	-862
jetan	-863
yocto	-864
chijal	-865
hetxum	-866
isyeni	-867
hacojab	-868
hawanma	-869
ischuquil	-870
cun	-871
tri	-872
alom	-873
yala	-874
walex	-875
xubal	-876
yinilo	-877
uk	-878
way	-879
yic	-880
etaj	-881
coxol	-882
taxca	-883
tohol	-884
circun	-885
hawalni	-886
yelapnoj	-887
cok	-888
iti	-889
ión	-890
nim	-891
cawx	-892
witz	-893
yila	-894
chach	-895
trigo	-896
wican	-897
chiwatx	-898
hitzico	-899
ana	-900
hum	-901
cheb	-902
chen	-903
eloj	-904
ischi	-905
yunin	-906
beybal	-907
isa	-908
olo	-909
uil	-910
wec	-911
ewan	-912
josé	-913
weco	-914
insat	-915
isbel	-916
huneln	-917
islahobal	-918
ás	-919
ber	-920
▁―¡	-921
ilti	-922
roma	-923
tzab	-924
ayayo	-925
telax	-926
yijni	-927
inwatx	-928
quexchi	-929
mon	-930
yeh	-931
apno	-932
erna	-933
isch	-934
nito	-935
ejhol	-936
iscab	-937
judea	-938
titna	-939
chamil	-940
chitxum	-941
chicowatx	-942
ẍa	-943
walan	-944
yawten	-945
bin	-946
noh	-947
xay	-948
oxeb	-949
comul	-950
yalno	-951
baytet	-952
chijil	-953
etojan	-954
issajilk	-955
halbilcano	-956
axa	-957
hujeb	-958
chiyak	-959
apnihan	-960
henabal	-961
hak	-962
ahli	-963
ambe	-964
txon	-965
bilxa	-966
isbak	-967
jahno	-968
alomal	-969
chislo	-970
cosunil	-971
it	-972
jo	-973
eba	-974
mato	-975
hecol	-976
hulan	-977
iscon	-978
chiyal	-979
ispotx	-980
isyijen	-981
chisyije	-982
ismeltzo	-983
ilto	-984
maẍn	-985
rato	-986
chink	-987
cojan	-988
wilan	-989
yalax	-990
chicuy	-991
hunxan	-992
hawi	-993
iban	-994
anayo	-995
ishaj	-996
yabil	-997
ayayto	-998
abxubal	-999
cobahan	-1000
hununon	-1001
teyiban	-1002
yespíritu	-1003
caj	-1004
moh	-1005
xaj	-1006
ahul	-1007
chab	-1008
chaw	-1009
helan	-1010
istit	-1011
jiban	-1012
selel	-1013
abehan	-1014
nimeta	-1015
cachann	-1016
tzotelo	-1017
yichamil	-1018
ischejbanil	-1019
ahwi	-1020
anab	-1021
anch	-1022
islo	-1023
yipo	-1024
yitz	-1025
chiah	-1026
hesat	-1027
nican	-1028
wipan	-1029
haywan	-1030
ischiq	-1031
awtebil	-1032
chicawxi	-1033
heyanico	-1034
munlahan	-1035
tzalahan	-1036
cay	-1037
macn	-1038
nabé	-1039
uxan	-1040
comon	-1041
enilo	-1042
hawet	-1043
jalni	-1044
juhan	-1045
saulo	-1046
wiban	-1047
ejholo	-1048
ischah	-1049
occano	-1050
yintaj	-1051
yohtaj	-1052
bernabé	-1053
yalnicano	-1054
uh	-1055
cis	-1056
cor	-1057
ina	-1058
ilxa	-1059
meba	-1060
octo	-1061
tioẍ	-1062
labal	-1063
tzetc	-1064
heyehi	-1065
jacobo	-1066
isyenilo	-1067
iscamical	-1068
chiwaltojan	-1069
dor	-1070
ije	-1071
nia	-1072
toh	-1073
bilo	-1074
feli	-1075
judas	-1076
mulum	-1077
payxa	-1078
felipe	-1079
hallax	-1080
xahann	-1081
cheyabe	-1082
iscawxi	-1083
ispitzc	-1084
israelo	-1085
chicolwa	-1086
chiocnico	-1087
iscawilal	-1088
chiitzitzbican	-1089
cuar	-1090
enta	-1091
maxa	-1092
nayo	-1093
umal	-1094
baytu	-1095
chabe	-1096
halwe	-1097
chawil	-1098
chintz	-1099
janico	-1100
chilahwi	-1101
circuncis	-1102
aho	-1103
bel	-1104
elk	-1105
pon	-1106
yox	-1107
buch	-1108
ento	-1109
isca	-1110
isnan	-1111
laxto	-1112
niloj	-1113
ayinan	-1114
meltzo	-1115
chinwatx	-1116
chintohan	-1117
iscutxban	-1118
circuncisión	-1119
fr	-1120
va	-1121
hin	-1122
ita	-1123
jehi	-1124
jute	-1125
lago	-1126
naxa	-1127
canto	-1128
colwa	-1129
ispoh	-1130
issay	-1131
techa	-1132
waben	-1133
canilo	-1134
yulbal	-1135
tzalaho	-1136
cheyoche	-1137
iscapilla	-1138
eg	-1139
yuc	-1140
chek	-1141
erto	-1142
iscan	-1143
yilax	-1144
yuẍta	-1145
chijak	-1146
canocan	-1147
chimunla	-1148
eho	-1149
eno	-1150
etx	-1151
pas	-1152
tze	-1153
meẍa	-1154
wahi	-1155
yeto	-1156
chiay	-1157
wayan	-1158
isyije	-1159
yilaxto	-1160
cuybanil	-1161
subchaho	-1162
yahawilo	-1163
ux	-1164
ada	-1165
oro	-1166
tzeh	-1167
yich	-1168
cawxo	-1169
chisk	-1170
cosat	-1171
hayeb	-1172
ilweb	-1173
anayto	-1174
anican	-1175
chexoc	-1176
inchej	-1177
chalilo	-1178
heyohta	-1179
ilwebal	-1180
chipitzc	-1181
munlawom	-1182
chichahni	-1183
ischejabo	-1184
ishitzico	-1185
be	-1186
ep	-1187
ui	-1188
aso	-1189
cua	-1190
gob	-1191
jex	-1192
txi	-1193
egip	-1194
enan	-1195
hato	-1196
vaso	-1197
chisc	-1198
heyoc	-1199
hinan	-1200
howeb	-1201
istxi	-1202
nabil	-1203
pulta	-1204
toxan	-1205
wahan	-1206
egipto	-1207
ichico	-1208
pascua	-1209
yángel	-1210
ernador	-1211
hesunil	-1212
intohan	-1213
gobernador	-1214
alo	-1215
maj	-1216
nuk	-1217
anci	-1218
anex	-1219
desi	-1220
elan	-1221
hawe	-1222
haban	-1223
chawak	-1224
chixiw	-1225
encano	-1226
machim	-1227
yettax	-1228
chawute	-1229
desierto	-1230
istxahli	-1231
tzotelan	-1232
ed	-1233
alc	-1234
ato	-1235
sam	-1236
xah	-1237
▁?”	-1238
atil	-1239
ayti	-1240
ulla	-1241
aweco	-1242
chiet	-1243
hemul	-1244
isbis	-1245
jahaw	-1246
yelti	-1247
yicta	-1248
yilalo	-1249
alaxico	-1250
chawala	-1251
inmunil	-1252
iscuyni	-1253
yanayto	-1254
ayexxaco	-1255
eintijan	-1256
cutxanico	-1257
aba	-1258
asi	-1259
est	-1260
how	-1261
ria	-1262
tes	-1263
zar	-1264
fren	-1265
hetz	-1266
ayoco	-1267
ismak	-1268
ismun	-1269
moyan	-1270
yalnic	-1271
chiyute	-1272
conabal	-1273
hunujex	-1274
nananta	-1275
wabenan	-1276
hechahni	-1277
heyohtan	-1278
janmahan	-1279
ín	-1280
gri	-1281
oco	-1282
oya	-1283
rio	-1284
teo	-1285
eban	-1286
hata	-1287
heya	-1288
naba	-1289
vino	-1290
waco	-1291
cabcon	-1292
chican	-1293
frenda	-1294
johtan	-1295
ocnico	-1296
yanayo	-1297
isbisil	-1298
ispulta	-1299
paxocan	-1300
walpaxo	-1301
istxumni	-1302
istzabnico	-1303
dán	-1304
hoj	-1305
xam	-1306
etza	-1307
hewi	-1308
ijen	-1309
ixal	-1310
ohyi	-1311
olax	-1312
umel	-1313
yani	-1314
camoj	-1315
cawil	-1316
elías	-1317
hasat	-1318
nazar	-1319
espada	-1320
anciano	-1321
ispaxto	-1322
quexwil	-1323
yeniloj	-1324
yoccano	-1325
chaliloj	-1326
tohlabal	-1327
ispultahil	-1328
ef	-1329
ahi	-1330
ayn	-1331
lem	-1332
tac	-1333
uva	-1334
lahi	-1335
yayc	-1336
chilo	-1337
hujwan	-1338
insatan	-1339
chicuywi	-1340
hawohtaj	-1341
chinhulan	-1342
or	-1343
si	-1344
ani	-1345
atr	-1346
etz	-1347
hab	-1348
xuk	-1349
alan	-1350
dena	-1351
hawa	-1352
quía	-1353
wano	-1354
antio	-1355
wanoj	-1356
itojan	-1357
walnic	-1358
yayilo	-1359
chicolo	-1360
chijaco	-1361
chisbej	-1362
ichamta	-1363
chichiwa	-1364
ischejni	-1365
iscutxba	-1366
antioquía	-1367
cocolomal	-1368
henimanil	-1369
istxiquin	-1370
po	-1371
vo	-1372
loj	-1373
apax	-1374
axep	-1375
ilax	-1376
isje	-1377
toxa	-1378
waca	-1379
xiwi	-1380
ayach	-1381
chiyo	-1382
lebil	-1383
ayojan	-1384
titnaj	-1385
xiwcan	-1386
camnaxa	-1387
chiaben	-1388
chijute	-1389
esteban	-1390
heyijen	-1391
iscolwa	-1392
nazaret	-1393
walinan	-1394
chianico	-1395
chiyijen	-1396
chiyoche	-1397
hetxumni	-1398
itzbican	-1399
chahnihan	-1400
wohtajojan	-1401
hon	-1402
ixa	-1403
tij	-1404
ilan	-1405
nime	-1406
timo	-1407
wala	-1408
weti	-1409
xilk	-1410
balil	-1411
coman	-1412
hawak	-1413
ispuj	-1414
jehan	-1415
tajca	-1416
trato	-1417
wocan	-1418
yawte	-1419
ayinic	-1420
binaho	-1421
camnaj	-1422
chicok	-1423
hactic	-1424
heyila	-1425
wecano	-1426
yanito	-1427
timoteo	-1428
yinican	-1429
nimanile	-1430
iln	-1431
isl	-1432
joc	-1433
pla	-1434
sil	-1435
ante	-1436
itán	-1437
yech	-1438
yelo	-1439
cabeb	-1440
wacax	-1441
xayak	-1442
ayahto	-1443
eniloj	-1444
maquex	-1445
yallax	-1446
yehico	-1447
capitán	-1448
hatatic	-1449
heyilni	-1450
ismunla	-1451
masanta	-1452
cheyayto	-1453
chintzalahan	-1454
lá	-1455
wo	-1456
edo	-1457
eti	-1458
oli	-1459
halt	-1460
unub	-1461
bocan	-1462
chati	-1463
chiin	-1464
dante	-1465
echma	-1466
lobal	-1467
wahil	-1468
chisye	-1469
chiyan	-1470
edonia	-1471
isaías	-1472
iscuyu	-1473
ixahaw	-1474
laxayo	-1475
paxilo	-1476
cheyije	-1477
coyijen	-1478
iscuywa	-1479
yohtajo	-1480
yulajla	-1481
cochahni	-1482
innimanil	-1483
insatajan	-1484
iscancano	-1485
macedonia	-1486
comandante	-1487
itzitzbocan	-1488
,”	-1489
gu	-1490
tr	-1491
ape	-1492
ati	-1493
bit	-1494
won	-1495
xew	-1496
yok	-1497
▁“¿	-1498
acan	-1499
esar	-1500
hatx	-1501
láza	-1502
nabn	-1503
atrón	-1504
chiti	-1505
chiyi	-1506
isnuk	-1507
matan	-1508
nanxa	-1509
olivo	-1510
chahan	-1511
chayto	-1512
hawehi	-1513
lázaro	-1514
chijala	-1515
chitecha	-1516
chicabcon	-1517
ayinicojan	-1518
chinapnihan	-1519
isbejnicano	-1520
chitxumchalo	-1521
haltebilcano	-1522
chiwalcanojan	-1523
machiswalilal	-1524
bet	-1525
ene	-1526
muj	-1527
til	-1528
aymi	-1529
intz	-1530
sama	-1531
yebi	-1532
eojab	-1533
hunix	-1534
ilcha	-1535
inmul	-1536
xahey	-1537
yalte	-1538
cachni	-1539
ayexico	-1540
iscolni	-1541
samaria	-1542
yanican	-1543
heyohtajo	-1544
machipaxo	-1545
chitxumcha	-1546
quinchiyan	-1547
se	-1548
awi	-1549
ein	-1550
och	-1551
puj	-1552
umb	-1553
ucal	-1554
yilo	-1555
hawoc	-1556
hunep	-1557
isbey	-1558
ixtan	-1559
lahti	-1560
silas	-1561
chejni	-1562
cotxum	-1563
ebilxa	-1564
ehojab	-1565
hawatx	-1566
selelo	-1567
aytojan	-1568
cheyila	-1569
chiocto	-1570
chiwute	-1571
inmamtu	-1572
yahcano	-1573
yalcano	-1574
colwahan	-1575
istopaxo	-1576
heyohtaxa	-1577
istzoteli	-1578
ez	-1579
iw	-1580
so	-1581
nic	-1582
tar	-1583
utz	-1584
asia	-1585
into	-1586
iswa	-1587
itah	-1588
jala	-1589
lena	-1590
tajo	-1591
tzij	-1592
yilw	-1593
ancan	-1594
balax	-1595
efeso	-1596
hacuy	-1597
ijbal	-1598
isbal	-1599
ismuj	-1600
mujan	-1601
nahul	-1602
ojlax	-1603
oxwan	-1604
yichi	-1605
cachwa	-1606
ciento	-1607
colwal	-1608
eybaln	-1609
haquin	-1610
ilaxto	-1611
ixobal	-1612
tzelax	-1613
ulojab	-1614
uninal	-1615
yuẍtaj	-1616
ẍicano	-1617
buchwal	-1618
chechah	-1619
chicami	-1620
islahti	-1621
istrato	-1622
lahanex	-1623
nilojan	-1624
tzijxan	-1625
chiwilan	-1626
haltebil	-1627
yuninalo	-1628
tzettaxca	-1629
chicancano	-1630
chiwabehan	-1631
iscawxican	-1632
atz	-1633
isw	-1634
lev	-1635
que	-1636
sad	-1637
acti	-1638
beyc	-1639
cheh	-1640
chew	-1641
chix	-1642
ixto	-1643
uilo	-1644
bihan	-1645
biloj	-1646
bilon	-1647
cesar	-1648
haman	-1649
hulic	-1650
isaac	-1651
isbil	-1652
ochen	-1653
testi	-1654
aholan	-1655
axepic	-1656
chebej	-1657
cuarto	-1658
elicoj	-1659
hajxam	-1660
heyabe	-1661
istxam	-1662
alaxcan	-1663
cesarea	-1664
inmulan	-1665
isbelwi	-1666
munlahi	-1667
yahwano	-1668
yetbiho	-1669
yichmam	-1670
yocpaxo	-1671
yohtaxa	-1672
alaxicto	-1673
chawoche	-1674
chijalan	-1675
cobeybal	-1676
coxahann	-1677
japnihan	-1678
tawintaj	-1679
cheyohtan	-1680
dr	-1681
ald	-1682
cos	-1683
era	-1684
jon	-1685
tec	-1686
tuc	-1687
wik	-1688
yax	-1689
ahni	-1690
ayan	-1691
cami	-1692
exxa	-1693
eyab	-1694
mano	-1695
wuti	-1696
ahole	-1697
aldea	-1698
behal	-1699
caman	-1700
canan	-1701
chejn	-1702
hawip	-1703
heyip	-1704
majal	-1705
ojtam	-1706
omilo	-1707
halbil	-1708
ispeto	-1709
istzil	-1710
isyelo	-1711
yalten	-1712
babelal	-1713
camojan	-1714
iscayel	-1715
issayni	-1716
sunilej	-1717
chijoche	-1718
echmabil	-1719
paxtojan	-1720
yalaxico	-1721
yictabal	-1722
nipaxojan	-1723
yahawiloj	-1724
yitzitzbican	-1725
ur	-1726
ego	-1727
ich	-1728
qui	-1729
ayna	-1730
balo	-1731
ejbi	-1732
elti	-1733
esto	-1734
ixwi	-1735
laba	-1736
mayu	-1737
uceo	-1738
uloj	-1739
yeho	-1740
axpon	-1741
aytic	-1742
chexa	-1743
hemam	-1744
heyil	-1745
ibcan	-1746
ilwec	-1747
nacan	-1748
nitam	-1749
nohna	-1750
telaj	-1751
xacon	-1752
xiwqu	-1753
yehan	-1754
zacar	-1755
chiway	-1756
ernaum	-1757
griego	-1758
iscami	-1759
isnani	-1760
intzoti	-1761
isxahan	-1762
saduceo	-1763
chexxiwi	-1764
mohyilal	-1765
quexwila	-1766
zacarías	-1767
capernaum	-1768
chicochah	-1769
isxahanil	-1770
txahlihan	-1771
xiwquilal	-1772
chiyeniloj	-1773
iscutxbanico	-1774
ismachiswalilal	-1775
jec	-1776
lom	-1777
yor	-1778
ahti	-1779
ebxa	-1780
elap	-1781
erub	-1782
hayo	-1783
jila	-1784
leví	-1785
migo	-1786
nann	-1787
quis	-1788
ubal	-1789
ulmi	-1790
uxni	-1791
yeni	-1792
ahlax	-1793
ayico	-1794
chibe	-1795
chitx	-1796
festo	-1797
hecal	-1798
issic	-1799
jetbi	-1800
johta	-1801
masan	-1802
paxti	-1803
cadena	-1804
canayo	-1805
chacan	-1806
chuman	-1807
erubín	-1808
hunban	-1809
macach	-1810
romano	-1811
txitam	-1812
utelax	-1813
antotic	-1814
chawatx	-1815
chiilax	-1816
chiilni	-1817
chiyiyo	-1818
comunil	-1819
hecawil	-1820
hexahan	-1821
ichamil	-1822
inbihan	-1823
ishajlo	-1824
ismelyu	-1825
ofrenda	-1826
yecheln	-1827
yehobal	-1828
yilnito	-1829
circunci	-1830
jalnihan	-1831
querubín	-1832
chijilico	-1833
inmunilan	-1834
yuninaloj	-1835
inchejaban	-1836
up	-1837
cto	-1838
dra	-1839
jip	-1840
noc	-1841
omp	-1842
opo	-1843
sal	-1844
alto	-1845
amte	-1846
bawe	-1847
chma	-1848
edec	-1849
ejla	-1850
hatz	-1851
isme	-1852
ixli	-1853
palc	-1854
yito	-1855
belwi	-1856
chelo	-1857
etxum	-1858
incuy	-1859
islin	-1860
nayto	-1861
seman	-1862
ulalo	-1863
walon	-1864
wetbi	-1865
yahto	-1866
yecoj	-1867
yilno	-1868
chexec	-1869
chimuj	-1870
haquex	-1871
hunelo	-1872
ichmam	-1873
istzal	-1874
lahano	-1875
ompeta	-1876
orahil	-1877
sunilo	-1878
yahawo	-1879
ananías	-1880
chawaco	-1881
chiyaco	-1882
cotohan	-1883
hamanil	-1884
heyaben	-1885
ishajni	-1886
melquis	-1887
sunilal	-1888
txahlan	-1889
yechman	-1890
chabilxa	-1891
chilolax	-1892
chianayto	-1893
chicoyije	-1894
chitxahli	-1895
ewantajil	-1896
yuninalxa	-1897
ischejnito	-1898
chijochehan	-1899
innimanilan	-1900
melquisedec	-1901
aca	-1902
dar	-1903
ele	-1904
gón	-1905
ija	-1906
ite	-1907
jil	-1908
jor	-1909
mag	-1910
paj	-1911
utx	-1912
xca	-1913
yom	-1914
adán	-1915
alxa	-1916
isho	-1917
laxo	-1918
lolo	-1919
yati	-1920
yuli	-1921
abayo	-1922
aycoj	-1923
banic	-1924
cheyu	-1925
chiok	-1926
chuhi	-1927
damas	-1928
ecano	-1929
islok	-1930
lemna	-1931
mahul	-1932
paxtu	-1933
salom	-1934
sataj	-1935
womal	-1936
acojan	-1937
ambeno	-1938
chinan	-1939
dragón	-1940
hulnaj	-1941
jordán	-1942
tzabno	-1943
walach	-1944
yinayo	-1945
chialax	-1946
chispoh	-1947
damasco	-1948
incarta	-1949
innabal	-1950
wetojan	-1951
chiahilo	-1952
chimohyi	-1953
chinocan	-1954
hetxahli	-1955
hexahann	-1956
isbalico	-1957
johtajan	-1958
mactaxca	-1959
matxatic	-1960
inmunilti	-1961
innabalan	-1962
txumchalo	-1963
yettaxtic	-1964
chiwacojan	-1965
heyofrenda	-1966
istzabnayo	-1967
chicolchahi	-1968
circuncidar	-1969
chiwalpaxojan	-1970
cia	-1971
fil	-1972
ibo	-1973
isx	-1974
mos	-1975
rab	-1976
yub	-1977
zeb	-1978
andr	-1979
anno	-1980
ixan	-1981
jope	-1982
magd	-1983
motx	-1984
ojon	-1985
taca	-1986
tzon	-1987
yuho	-1988
abewe	-1989
cuyni	-1990
ehayo	-1991
elaxi	-1992
hajlo	-1993
iscaj	-1994
ishel	-1995
ixloj	-1996
marta	-1997
sahab	-1998
walca	-1999
wuẍta	-2000
xiwan	-2001
anojab	-2002
babilo	-2003
bililo	-2004
buchwa	-2005
cachan	-2006
chisna	-2007
inaloj	-2008
iscawx	-2009
istxah	-2010
tocano	-2011
wepaxo	-2012
xolbal	-2013
chetxum	-2014
chijabe	-2015
cutxban	-2016
hawatut	-2017
ismohyi	-2018
paxcano	-2019
techaho	-2020
yalpaxo	-2021
chicuyni	-2022
chisyelo	-2023
elcanico	-2024
ispatrón	-2025
babilonia	-2026
chalniloj	-2027
ebilcanoj	-2028
elapnojan	-2029
israelita	-2030
issajbilo	-2031
yijnicano	-2032
chiscutxba	-2033
cocolbanil	-2034
yanipaxico	-2035
él	-2036
ale	-2037
aqu	-2038
cio	-2039
iyo	-2040
max	-2041
noé	-2042
oni	-2043
oti	-2044
txk	-2045
yeq	-2046
zab	-2047
agri	-2048
cata	-2049
chan	-2050
corn	-2051
elto	-2052
heto	-2053
icoj	-2054
ilno	-2055
mutz	-2056
tito	-2057
yuni	-2058
ahuln	-2059
bilti	-2060
chetz	-2061
coron	-2062
enico	-2063
hamul	-2064
ishol	-2065
isnoh	-2066
laxan	-2067
sucal	-2068
tetej	-2069
wahni	-2070
xatic	-2071
xolaj	-2072
yamak	-2073
abehal	-2074
agripa	-2075
andrés	-2076
bilico	-2077
chexak	-2078
chimyu	-2079
chintx	-2080
quexin	-2081
ulalan	-2082
xaquex	-2083
yelilo	-2084
yillax	-2085
yochen	-2086
annihan	-2087
ayxatic	-2088
beybaln	-2089
chicotz	-2090
chihuli	-2091
chipotx	-2092
chixcab	-2093
chucano	-2094
corinto	-2095
ejbiyal	-2096
hawuẍta	-2097
iscawan	-2098
laxpaxo	-2099
magdala	-2100
salomón	-2101
winajli	-2102
cawxican	-2103
chiillax	-2104
chinchej	-2105
cuarenta	-2106
elicojan	-2107
isyijeni	-2108
wuẍtajan	-2109
yawtenti	-2110
camnajilo	-2111
chielicoj	-2112
chuquilan	-2113
hunepixto	-2114
chextxahli	-2115
hununtajil	-2116
istxumnilo	-2117
titnajinan	-2118
haquinpaxtu	-2119
ischejlaxto	-2120
chinchahnihan	-2121
eq	-2122
su	-2123
sá	-2124
ace	-2125
ajo	-2126
ebo	-2127
ewe	-2128
fél	-2129
isj	-2130
nin	-2131
pom	-2132
pra	-2133
tol	-2134
wte	-2135
abil	-2136
alle	-2137
ania	-2138
anwe	-2139
apol	-2140
bana	-2141
bayo	-2142
bihe	-2143
chec	-2144
cotx	-2145
higu	-2146
nene	-2147
oxel	-2148
txih	-2149
welo	-2150
xalo	-2151
yini	-2152
alcal	-2153
aytoj	-2154
belén	-2155
chayo	-2156
epaxo	-2157
félix	-2158
hayto	-2159
heyeh	-2160
heyoj	-2161
hunex	-2162
isman	-2163
ispax	-2164
issom	-2165
isyah	-2166
jaben	-2167
nilto	-2168
tomás	-2169
wohta	-2170
yanab	-2171
yebej	-2172
ahojab	-2173
apolos	-2174
chexto	-2175
chilni	-2176
chinec	-2177
chiwil	-2178
colcha	-2179
heyije	-2180
isbili	-2181
isvaso	-2182
laxcan	-2183
maquin	-2184
ocpaxo	-2185
sábana	-2186
txahlo	-2187
tzolax	-2188
yelcan	-2189
yicheb	-2190
betania	-2191
chachoc	-2192
higuera	-2193
ilchalo	-2194
ispixan	-2195
iswayan	-2196
laxcano	-2197
nimajal	-2198
testigo	-2199
winajil	-2200
yalnilo	-2201
yanahto	-2202
yorahil	-2203
chiwalni	-2204
colchahi	-2205
cotxumni	-2206
hacojtam	-2207
hatzotel	-2208
iscolcha	-2209
isnaniti	-2210
itzitzon	-2211
presowom	-2212
yabxubal	-2213
yofrenda	-2214
ambenpaxo	-2215
bejwecano	-2216
chihalnic	-2217
chiyenilo	-2218
hehelanil	-2219
isbejcano	-2220
chitzoteli	-2221
chiwatojan	-2222
intzotelan	-2223
ismunlawom	-2224
welapnojan	-2225
yichebanil	-2226
hetxumniloj	-2227
inchuquilan	-2228
ischahnicano	-2229
oẍ	-2230
bur	-2231
cho	-2232
hoy	-2233
iro	-2234
per	-2235
puh	-2236
reo	-2237
sid	-2238
som	-2239
wuc	-2240
xul	-2241
atro	-2242
bili	-2243
chay	-2244
diez	-2245
ecan	-2246
elio	-2247
habi	-2248
haco	-2249
hajl	-2250
hami	-2251
isla	-2252
isxe	-2253
metx	-2254
ojex	-2255
tiro	-2256
tona	-2257
txte	-2258
ulxa	-2259
weto	-2260
acaya	-2261
ajano	-2262
anabi	-2263
apaxo	-2264
axtoj	-2265
burro	-2266
chawi	-2267
chexk	-2268
encan	-2269
etato	-2270
hacon	-2271
hawin	-2272
hawoj	-2273
haxan	-2274
hesay	-2275
heyal	-2276
hunta	-2277
ijatz	-2278
ilwal	-2279
incol	-2280
inito	-2281
ismal	-2282
ixale	-2283
jocan	-2284
lenan	-2285
lepra	-2286
nimej	-2287
peyab	-2288
rabás	-2289
sello	-2290
sidón	-2291
wiloj	-2292
wulan	-2293
xahul	-2294
xilxa	-2295
yanil	-2296
yelax	-2297
yeton	-2298
yuten	-2299
aceite	-2300
andios	-2301
baytic	-2302
cantil	-2303
chahwe	-2304
chalte	-2305
cheyik	-2306
chiyik	-2307
enpaxo	-2308
hebreo	-2309
jalnic	-2310
lahico	-2311
marcos	-2312
semana	-2313
xahano	-2314
yilcha	-2315
beybale	-2316
canicoj	-2317
chahlax	-2318
ebilico	-2319
heyayto	-2320
ilaxcan	-2321
istecha	-2322
istzumb	-2323
jabehan	-2324
majanxa	-2325
tzujcha	-2326
xawalan	-2327
yijenan	-2328
yillaxi	-2329
barrabás	-2330
chejaboj	-2331
cheyalni	-2332
chistxum	-2333
cornelio	-2334
ichamile	-2335
tzalacan	-2336
chietanto	-2337
chimeltzo	-2338
toholojab	-2339
wanitojan	-2340
chebeybaln	-2341
hulnajinan	-2342
iscolbanil	-2343
iscuybanil	-2344
maẍtajinan	-2345
gobernadoral	-2346
sacerdotehal	-2347
bo	-2348
if	-2349
nu	-2350
cac	-2351
eck	-2352
etu	-2353
eyo	-2354
heq	-2355
ish	-2356
lok	-2357
pre	-2358
waj	-2359
xab	-2360
▁?:	-2361
ajna	-2362
arti	-2363
atna	-2364
bitn	-2365
caif	-2366
chac	-2367
cono	-2368
ebal	-2369
incu	-2370
ispa	-2371
noyo	-2372
wayi	-2373
xayu	-2374
yuhi	-2375
ahilo	-2376
awten	-2377
aypax	-2378
chiab	-2379
china	-2380
einta	-2381
ejtzo	-2382
elcan	-2383
hamam	-2384
hojan	-2385
hopon	-2386
ishuj	-2387
istaj	-2388
istoh	-2389
istuc	-2390
isxan	-2391
jairo	-2392
japni	-2393
jonás	-2394
mataj	-2395
maxey	-2396
meltz	-2397
plata	-2398
reyal	-2399
riote	-2400
tonan	-2401
tutan	-2402
ultic	-2403
waxaj	-2404
yulic	-2405
caifás	-2406
chahoj	-2407
chexin	-2408
chipre	-2409
chitaj	-2410
chiyah	-2411
chiyil	-2412
cuywal	-2413
echman	-2414
elojan	-2415
ismotx	-2416
ismulo	-2417
matxam	-2418
sajilk	-2419
saywal	-2420
xayaco	-2421
yamigo	-2422
yijewe	-2423
ambehan	-2424
chexxiw	-2425
chielti	-2426
chipalc	-2427
denario	-2428
hanabal	-2429
hatelax	-2430
hemunil	-2431
heyetbi	-2432
heyuẍta	-2433
ispohni	-2434
istzala	-2435
iswayic	-2436
janayto	-2437
ohtabil	-2438
treinta	-2439
tzenilo	-2440
wacojan	-2441
yabelax	-2442
yehayto	-2443
yijcano	-2444
chiinilo	-2445
chijalic	-2446
hebeybal	-2447
hoyanico	-2448
sajhopon	-2449
chahnayto	-2450
chejbanil	-2451
chexcolwa	-2452
chicolcha	-2453
chietaxto	-2454
chiichico	-2455
halwepaxo	-2456
haquexpax	-2457
heyahawil	-2458
heyanayto	-2459
inpaxojan	-2460
inyijenan	-2461
isbeybaln	-2462
iscariote	-2463
ishoyanil	-2464
xahanojab	-2465
yijemojab	-2466
chahnicano	-2467
hanintonan	-2468
hunmajanxa	-2469
istoholban	-2470
istzalanil	-2471
chijaltojan	-2472
chiwalnihan	-2473
quexwilnojan	-2474
wohtapaxojan	-2475
ag	-2476
ce	-2477
iq	-2478
ir	-2479
lu	-2480
ve	-2481
ayx	-2482
bul	-2483
eón	-2484
har	-2485
may	-2486
ohi	-2487
oma	-2488
oxa	-2489
pet	-2490
xaw	-2491
abel	-2492
awte	-2493
ches	-2494
cien	-2495
como	-2496
coto	-2497
cowi	-2498
edeo	-2499
inmi	-2500
judá	-2501
loco	-2502
olal	-2503
otel	-2504
subu	-2505
toco	-2506
toti	-2507
unni	-2508
uwan	-2509
yelk	-2510
binah	-2511
calle	-2512
enayo	-2513
estam	-2514
halno	-2515
ishec	-2516
issak	-2517
istey	-2518
lehan	-2519
macon	-2520
mohyi	-2521
najil	-2522
sajxa	-2523
ubcha	-2524
wawte	-2525
weloj	-2526
xulno	-2527
zabet	-2528
ẍixan	-2529
aholti	-2530
artido	-2531
aytoco	-2532
biltic	-2533
chabil	-2534
chinto	-2535
comono	-2536
corona	-2537
intxum	-2538
isdiez	-2539
issajn	-2540
istioẍ	-2541
istxon	-2542
istzuj	-2543
itijan	-2544
jechma	-2545
mohyom	-2546
naweti	-2547
patrón	-2548
paxtoj	-2549
quilta	-2550
txahul	-2551
wanico	-2552
xewbal	-2553
yabeni	-2554
yahilo	-2555
chejabo	-2556
chiscaj	-2557
chishel	-2558
ewantic	-2559
hawetbi	-2560
hawilni	-2561
hehowal	-2562
incaman	-2563
islahwi	-2564
ixwican	-2565
joccano	-2566
johtaxa	-2567
mataxca	-2568
sabehal	-2569
tzalahi	-2570
uninale	-2571
watutan	-2572
yictajo	-2573
yijehan	-2574
yiptzen	-2575
zebedeo	-2576
axponayo	-2577
chexapni	-2578
cheyilni	-2579
chicuywa	-2580
chiilcha	-2581
chiwalic	-2582
elizabet	-2583
hacuywom	-2584
hetzotel	-2585
heyijeni	-2586
isbejtzo	-2587
iscachni	-2588
istocano	-2589
istxolal	-2590
isxiwcan	-2591
yacanico	-2592
yilaxilo	-2593
awtebilon	-2594
chinyehan	-2595
cohelanil	-2596
heyichmam	-2597
heyuninal	-2598
iscuywahi	-2599
tzujnojan	-2600
wanicojan	-2601
xiwquilta	-2602
chalnipaxo	-2603
chialaxico	-2604
chiilaxilo	-2605
chiilchalo	-2606
chinachalo	-2607
chisbalico	-2608
hecolbanil	-2609
hetxumnilo	-2610
heyohtajoj	-2611
ischibehal	-2612
ismeltzoto	-2613
istzilnilo	-2614
isyenipaxo	-2615
tzujanilxa	-2616
walnitojan	-2617
chisbejcano	-2618
inchahnihan	-2619
istxumchalo	-2620
chintzotelan	-2621
io	-2622
re	-2623
uq	-2624
xn	-2625
aló	-2626
ami	-2627
ayi	-2628
baj	-2629
cas	-2630
dem	-2631
dia	-2632
eco	-2633
hti	-2634
ida	-2635
leb	-2636
otz	-2637
pol	-2638
rco	-2639
sar	-2640
ses	-2641
tro	-2642
uba	-2643
yac	-2644
▁!”	-2645
abti	-2646
acto	-2647
ajil	-2648
asón	-2649
ayal	-2650
baco	-2651
chet	-2652
chiq	-2653
doma	-2654
días	-2655
enal	-2656
hacn	-2657
inwi	-2658
istr	-2659
jeto	-2660
nahi	-2661
nato	-2662
nica	-2663
oban	-2664
sara	-2665
taza	-2666
tzun	-2667
vein	-2668
wila	-2669
xico	-2670
yexn	-2671
abico	-2672
aniti	-2673
aynaj	-2674
cachi	-2675
cheja	-2676
chiwi	-2677
chuco	-2678
cocon	-2679
colni	-2680
gohal	-2681
helin	-2682
heyik	-2683
heyin	-2684
howan	-2685
hunon	-2686
ijban	-2687
ishac	-2688
isjob	-2689
islow	-2690
issat	-2691
issel	-2692
iwelo	-2693
juten	-2694
naban	-2695
nahan	-2696
paxan	-2697
perla	-2698
siria	-2699
tijab	-2700
tzewe	-2701
wejna	-2702
wetij	-2703
wojan	-2704
yacan	-2705
yahwi	-2706
yecan	-2707
yelto	-2708
yiche	-2709
yoxel	-2710
alejan	-2711
aquila	-2712
chaẍto	-2713
chiayc	-2714
chicon	-2715
chotan	-2716
haninn	-2717
inalax	-2718
isbeyc	-2719
lahann	-2720
simeón	-2721
sodoma	-2722
tesaló	-2723
walnoc	-2724
yilwen	-2725
bilxalo	-2726
camojab	-2727
checach	-2728
cheyito	-2729
cheyiyo	-2730
chinhey	-2731
chintak	-2732
cosataj	-2733
hecolni	-2734
isbajil	-2735
isbarco	-2736
isbejni	-2737
iscawil	-2738
ishelni	-2739
ispalan	-2740
lahanxa	-2741
maxawal	-2742
mostaza	-2743
natijan	-2744
nicojan	-2745
ochebil	-2746
quexbey	-2747
sesenta	-2748
tawiban	-2749
wahawil	-2750
watojan	-2751
yahawoj	-2752
yelcano	-2753
chahojan	-2754
chiwacan	-2755
chiwican	-2756
cotxahli	-2757
hachejab	-2758
halbilxa	-2759
herodías	-2760
inbeybal	-2761
israelan	-2762
itzitzto	-2763
jintajan	-2764
maẍtotic	-2765
teyintaj	-2766
tzujanxa	-2767
tzujtzun	-2768
yawtelax	-2769
yichitax	-2770
aycanocan	-2771
chiabelax	-2772
chutepaxo	-2773
hawuninal	-2774
heyeniloj	-2775
iscolomal	-2776
issoldado	-2777
isyenican	-2778
lahaninan	-2779
nimanojab	-2780
ojlaxayto	-2781
sunilojab	-2782
chewchotan	-2783
chiwaltoti	-2784
chiwinajli	-2785
chiyijpaxo	-2786
comunlahan	-2787
hecuybanil	-2788
inmunlahan	-2789
istrompeta	-2790
isxahanbal	-2791
itzitzinan	-2792
munlawomal	-2793
tesalónica	-2794
chihallaxic	-2795
innimanilti	-2796
witzitzbican	-2797
chinchejtojan	-2798
aẍ	-2799
ga	-2800
pu	-2801
▁‘	-2802
ajn	-2803
ara	-2804
gua	-2805
num	-2806
ojo	-2807
paf	-2808
pah	-2809
pal	-2810
pis	-2811
suc	-2812
tia	-2813
toc	-2814
ulu	-2815
uni	-2816
unu	-2817
uxu	-2818
wap	-2819
weh	-2820
▁“¡	-2821
ajon	-2822
baln	-2823
caẍa	-2824
elna	-2825
hunp	-2826
icia	-2827
ilom	-2828
jabe	-2829
sajb	-2830
sajn	-2831
uban	-2832
uico	-2833
wilo	-2834
xilo	-2835
xito	-2836
yetc	-2837
yixi	-2838
ẍtan	-2839
abeto	-2840
altar	-2841
amuch	-2842
arena	-2843
balam	-2844
bulna	-2845
camna	-2846
catto	-2847
chato	-2848
chawa	-2849
chich	-2850
chieq	-2851
chija	-2852
chiju	-2853
chuli	-2854
coley	-2855
creta	-2856
culto	-2857
ehalo	-2858
hajan	-2859
hatax	-2860
hexxa	-2861
incon	-2862
ispit	-2863
istel	-2864
istin	-2865
isxec	-2866
isyox	-2867
legua	-2868
mayan	-2869
nilti	-2870
ojabn	-2871
prisc	-2872
pujan	-2873
satil	-2874
tolab	-2875
ulaln	-2876
uslax	-2877
walax	-2878
xacam	-2879
yetan	-2880
yocxa	-2881
anpaxo	-2882
bajxan	-2883
cawina	-2884
chexwa	-2885
chibej	-2886
chicaj	-2887
chihel	-2888
chilok	-2889
chinil	-2890
chipoh	-2891
chiwik	-2892
conani	-2893
etanto	-2894
harina	-2895
hunoxa	-2896
ichiti	-2897
inchiq	-2898
ispich	-2899
issaya	-2900
istzub	-2901
laxico	-2902
licano	-2903
maapni	-2904
machmi	-2905
macxan	-2906
olojan	-2907
oxelxa	-2908
quinec	-2909
subuta	-2910
wipaxo	-2911
yacano	-2912
yettic	-2913
yiniti	-2914
balaxic	-2915
challax	-2916
chawabe	-2917
chiwaco	-2918
chiyala	-2919
coxolan	-2920
cuartel	-2921
entojan	-2922
hatzoti	-2923
hawohta	-2924
hemelyu	-2925
heyixal	-2926
inmelyu	-2927
inxahan	-2928
iscuyno	-2929
ispeyab	-2930
ixwilal	-2931
lebahil	-2932
matanil	-2933
seleloj	-2934
txahloj	-2935
uslaxto	-2936
veintic	-2937
yechelo	-2938
yespada	-2939
yilweno	-2940
yiximal	-2941
aypaxico	-2942
chejniti	-2943
chetxumu	-2944
chiohtan	-2945
chistxon	-2946
cocachni	-2947
colbilon	-2948
hantatic	-2949
haquintu	-2950
hawanico	-2951
heyenilo	-2952
iscamilo	-2953
iscantil	-2954
ischahno	-2955
istzejla	-2956
niẍtejal	-2957
palamuch	-2958
priscila	-2959
trompeta	-2960
tzujanex	-2961
yanicano	-2962
chibuchwa	-2963
chicotxum	-2964
chiillaxi	-2965
chilolaxi	-2966
chioccano	-2967
chitzejla	-2968
hebeybaln	-2969
incartati	-2970
iscayelal	-2971
iscolnilo	-2972
isjobnayo	-2973
islahnico	-2974
istzujcha	-2975
quinhulan	-2976
uxantaxca	-2977
wacanojan	-2978
yanicojan	-2979
yilaxilti	-2980
yilnipaxo	-2981
bejbilcano	-2982
checutxban	-2983
chietaxtoj	-2984
ebilcanayo	-2985
hecolchahi	-2986
inbeybalan	-2987
islahwilal	-2988
ispujbanic	-2989
nanantaxan	-2990
testigohal	-2991
yanicanico	-2992
anmahilinan	-2993
hachcachann	-2994
chinanicojan	-2995
chinelicojan	-2996
quinhawohtaj	-2997
chihallaxpaxo	-2998
chintxahlihan	-2999
quinyanicojan	-3000
xaitzitzbican	-3001
az	-3002
de	-3003
hu	-3004
ut	-3005
ér	-3006
ól	-3007
ael	-3008
awe	-3009
cil	-3010
emi	-3011
imo	-3012
ini	-3013
lun	-3014
nio	-3015
oho	-3016
oto	-3017
set	-3018
sto	-3019
woc	-3020
wul	-3021
xac	-3022
▁,’	-3023
achi	-3024
alib	-3025
aloj	-3026
cabe	-3027
cand	-3028
chub	-3029
coln	-3030
ebto	-3031
gala	-3032
gión	-3033
heti	-3034
irla	-3035
isna	-3036
isxu	-3037
jeco	-3038
juez	-3039
list	-3040
nawe	-3041
noto	-3042
sión	-3043
teón	-3044
tico	-3045
tzoc	-3046
uchc	-3047
ulon	-3048
uluj	-3049
upni	-3050
yaln	-3051
yato	-3052
yatu	-3053
yela	-3054
acano	-3055
amigo	-3056
anoto	-3057
betsa	-3058
beyan	-3059
cawxe	-3060
chiuc	-3061
cincu	-3062
cobej	-3063
elaxo	-3064
elero	-3065
etzan	-3066
filip	-3067
hawik	-3068
hetxi	-3069
heyuc	-3070
hoyno	-3071
hunba	-3072
icano	-3073
ilbil	-3074
isyeb	-3075
jalan	-3076
jilan	-3077
jinan	-3078
lanza	-3079
lubal	-3080
natan	-3081
ojabi	-3082
oxebo	-3083
polis	-3084
sayic	-3085
tiado	-3086
tzebo	-3087
uatro	-3088
uilan	-3089
uylun	-3090
yeloj	-3091
yitxk	-3092
alaxto	-3093
anmaho	-3094
bejtzo	-3095
chejto	-3096
chelah	-3097
chepoh	-3098
chepuh	-3099
chimal	-3100
chinak	-3101
chinoc	-3102
chisay	-3103
cirene	-3104
conaba	-3105
elcano	-3106
henani	-3107
hetzab	-3108
heyaco	-3109
iconio	-3110
ijbali	-3111
isbuch	-3112
iscach	-3113
ischil	-3114
iscutz	-3115
isloni	-3116
istxih	-3117
isxuma	-3118
isyahb	-3119
laxilo	-3120
listra	-3121
matolo	-3122
ojnito	-3123
patzab	-3124
tenico	-3125
tzenan	-3126
wohtan	-3127
yalnoc	-3128
yaniti	-3129
albalax	-3130
ayictoj	-3131
aynatoj	-3132
banilan	-3133
binahoj	-3134
camomxa	-3135
campaxo	-3136
cawilxa	-3137
chacano	-3138
chejbil	-3139
chiixli	-3140
chisman	-3141
chissay	-3142
chisyah	-3143
cilicia	-3144
cocolwa	-3145
diosalo	-3146
galacia	-3147
hamataj	-3148
hamelyu	-3149
hecolwa	-3150
howalan	-3151
hunujon	-3152
ijbalom	-3153
ismujli	-3154
issucal	-3155
itzitzn	-3156
jetbiho	-3157
lahanon	-3158
nawetij	-3159
ojabico	-3160
ojlaxto	-3161
panteón	-3162
quinyin	-3163
tesataj	-3164
tzehtaj	-3165
wanmati	-3166
yelojan	-3167
yetanto	-3168
yijemex	-3169
yilaxti	-3170
ẍicanoj	-3171
betsaida	-3172
chawalic	-3173
chawayto	-3174
chianayo	-3175
chiixtan	-3176
chijilan	-3177
chimujli	-3178
diosalan	-3179
diosaloj	-3180
enilojan	-3181
epaxojan	-3182
hawuẍtaj	-3183
hecolwal	-3184
heyabeni	-3185
hunlahon	-3186
hunpilan	-3187
inchejab	-3188
iscachwa	-3189
ischahan	-3190
ismajilo	-3191
isxahann	-3192
lahanxan	-3193
lemnahan	-3194
mantiado	-3195
maxawaco	-3196
natanael	-3197
pujbanic	-3198
sajsatil	-3199
uninalan	-3200
wapnihan	-3201
yabenilo	-3202
yalaxcan	-3203
bipaxocan	-3204
candelero	-3205
chejbilti	-3206
chepuhilo	-3207
chextzala	-3208
chijanico	-3209
chitocano	-3210
chiwahlax	-3211
chucanico	-3212
cincuenta	-3213
cosunilan	-3214
cristohal	-3215
hechuquil	-3216
hetxiquin	-3217
hetzoteli	-3218
istzabayo	-3219
jichmaman	-3220
maẍtajach	-3221
quiniscol	-3222
tzelaxilo	-3223
wahawilan	-3224
xaheyayto	-3225
xatzujcha	-3226
yalaxicto	-3227
cancanojan	-3228
chichiwaco	-3229
chinchahan	-3230
chiwilojan	-3231
cobeybalan	-3232
cuywawomal	-3233
iscawxobal	-3234
iscutxbaco	-3235
ismeltzoco	-3236
ispichnico	-3237
isxumaquil	-3238
johtajojan	-3239
machijinan	-3240
pohlebahil	-3241
cheyalpaxoj	-3242
chijalnihan	-3243
chinnatijan	-3244
chinyijehan	-3245
chisbeybaln	-3246
halbilcanoj	-3247
chinmunlahan	-3248
iscutxbanayo	-3249
veinticuatro	-3250
quinhawohtajojan	-3251
ew	-3252
op	-3253
tí	-3254
óf	-3255
▁(	-3256
aar	-3257
abo	-3258
bac	-3259
cea	-3260
chí	-3261
diá	-3262
ewi	-3263
hob	-3264
icó	-3265
imi	-3266
lao	-3267
lib	-3268
lot	-3269
mat	-3270
mir	-3271
moc	-3272
mol	-3273
mpa	-3274
nas	-3275
obo	-3276
oyo	-3277
paq	-3278
sab	-3279
tal	-3280
uel	-3281
uln	-3282
unn	-3283
wip	-3284
woj	-3285
wub	-3286
xak	-3287
yix	-3288
▁.”	-3289
anás	-3290
apan	-3291
axpo	-3292
cabo	-3293
chiu	-3294
coch	-3295
comi	-3296
demo	-3297
ehon	-3298
ello	-3299
elwi	-3300
ente	-3301
epaf	-3302
etax	-3303
hati	-3304
hayc	-3305
hech	-3306
inaí	-3307
intx	-3308
ista	-3309
latz	-3310
lico	-3311
lino	-3312
litx	-3313
maná	-3314
nanc	-3315
ojni	-3316
ojoj	-3317
onan	-3318
opía	-3319
queo	-3320
ulus	-3321
uman	-3322
xahe	-3323
xato	-3324
yawi	-3325
yaxn	-3326
aarón	-3327
alibe	-3328
aytoc	-3329
bacan	-3330
balxa	-3331
berea	-3332
caret	-3333
chawu	-3334
chena	-3335
chiik	-3336
chiwu	-3337
cojab	-3338
comaj	-3339
diana	-3340
dicea	-3341
hawan	-3342
hecuy	-3343
hehel	-3344
heyaw	-3345
inilo	-3346
initi	-3347
inlah	-3348
isbab	-3349
isbah	-3350
isbit	-3351
isbuj	-3352
isheq	-3353
islob	-3354
ispak	-3355
issiq	-3356
iswah	-3357
isxuk	-3358
isyay	-3359
iweti	-3360
jipan	-3361
machn	-3362
miyay	-3363
mohal	-3364
ojaln	-3365
ojoch	-3366
paxic	-3367
sinaí	-3368
troas	-3369
utxwi	-3370
wabal	-3371
walic	-3372
wettu	-3373
wiyom	-3374
woman	-3375
wuten	-3376
yalil	-3377
yican	-3378
yihti	-3379
yoqui	-3380
yuton	-3381
ahnico	-3382
alnayo	-3383
anohal	-3384
ayalil	-3385
batxte	-3386
bilayo	-3387
chalic	-3388
chalto	-3389
chebal	-3390
chetak	-3391
chexap	-3392
chextz	-3393
cheyah	-3394
cheyuc	-3395
chinhe	-3396
chinwa	-3397
chisya	-3398
chixan	-3399
chixew	-3400
chiyoc	-3401
cochah	-3402
comonn	-3403
cotioẍ	-3404
ejtzon	-3405
etajil	-3406
hawute	-3407
hechah	-3408
heyeco	-3409
ipaxto	-3410
ishitz	-3411
ismeck	-3412
ismeẍa	-3413
istohi	-3414
jericó	-3415
jlenan	-3416
laxtoj	-3417
munlah	-3418
obojan	-3419
paxayo	-3420
quinhe	-3421
toholn	-3422
topaxo	-3423
tuclen	-3424
tzabni	-3425
ulpaxo	-3426
uninto	-3427
wamigo	-3428
wenico	-3429
yabelo	-3430
yabeto	-3431
yahcan	-3432
yehilo	-3433
zaqueo	-3434
ẍiayti	-3435
ambebal	-3436
ancanoj	-3437
awtelax	-3438
bancano	-3439
camello	-3440
chabeto	-3441
chalico	-3442
chawila	-3443
chaẍhul	-3444
chexayc	-3445
chiahti	-3446
chibili	-3447
chichon	-3448
chielto	-3449
chiloni	-3450
chimhaw	-3451
chinhes	-3452
chishaj	-3453
chismak	-3454
chitita	-3455
chiyabe	-3456
chiyeni	-3457
comajul	-3458
comatan	-3459
comonal	-3460
diácono	-3461
ejtzoni	-3462
elaxilo	-3463
etiopía	-3464
hacuyni	-3465
hecuyni	-3466
helanex	-3467
hetxumu	-3468
heyatut	-3469
heyuten	-3470
ichamxa	-3471
ichmame	-3472
iltojan	-3473
inmayan	-3474
iscapil	-3475
isreyal	-3476
iswahni	-3477
isyawub	-3478
isyayil	-3479
isyecan	-3480
laxilti	-3481
maswatx	-3482
mawalan	-3483
nimanxa	-3484
nolojan	-3485
ojabilo	-3486
pujanto	-3487
quexyak	-3488
setenta	-3489
txumcha	-3490
tzoteli	-3491
wabehan	-3492
wewanoj	-3493
xapitzc	-3494
yahbalo	-3495
yallaxi	-3496
yanicto	-3497
yitzitz	-3498
ambenilo	-3499
aycanilo	-3500
cambehal	-3501
camnajon	-3502
chexilni	-3503
chiinito	-3504
chijayto	-3505
chinalax	-3506
chinapni	-3507
chiwuhan	-3508
chucanoj	-3509
cocolcha	-3510
ejholilo	-3511
encanilo	-3512
eojabtaj	-3513
etajinan	-3514
hapaxtoj	-3515
heyinilo	-3516
ishunban	-3517
isnanilo	-3518
israelal	-3519
istioẍli	-3520
istzablo	-3521
istzabni	-3522
isyelaln	-3523
laodicea	-3524
majwahan	-3525
maxawute	-3526
munlabal	-3527
nicanilo	-3528
nicodemo	-3529
ohchacan	-3530
ohtabilo	-3531
pujnacan	-3532
quinchin	-3533
winajloj	-3534
xaheyabe	-3535
yaxcamic	-3536
yetbihoj	-3537
yetxatic	-3538
yilaltic	-3539
anipaxico	-3540
anpaxojan	-3541
awtebilex	-3542
chalpaxto	-3543
chechahni	-3544
chenahuln	-3545
cheyetato	-3546
chiijbali	-3547
chijechma	-3548
chimujlax	-3549
chincaman	-3550
chisubcha	-3551
chiutelax	-3552
colchahan	-3553
ejbiyalil	-3554
helanilan	-3555
helanojab	-3556
ijbalomal	-3557
inhowalan	-3558
ismajchen	-3559
ispohnilo	-3560
isyeniloj	-3561
machojabn	-3562
meltzohan	-3563
paxilojan	-3564
subchahoj	-3565
titnajach	-3566
txumweloj	-3567
wehicojan	-3568
winitojan	-3569
chexcolcha	-3570
hawichamil	-3571
heyichamil	-3572
incartahan	-3573
ispujnacan	-3574
matxahojab	-3575
quinhetzab	-3576
chalnipaxoj	-3577
chexmunlahi	-3578
inhelanilan	-3579
isdiezmohal	-3580
machojabtaj	-3581
nimanilehal	-3582
chicabconcan	-3583
chinischahan	-3584
chisyijepaxo	-3585
hechahnipaxo	-3586
ispujbalaxic	-3587
istzablaxayo	-3588
isyahbetajil	-3589
isyenicanilo	-3590
chiwalnitojan	-3591
inchejbanilan	-3592
istiempohalxa	-3593
ad	-3594
ud	-3595
ug	-3596
alf	-3597
aln	-3598
ate	-3599
chc	-3600
cla	-3601
ebi	-3602
ela	-3603
eve	-3604
fan	-3605
fre	-3606
gen	-3607
hik	-3608
hoc	-3609
ipc	-3610
jik	-3611
juc	-3612
món	-3613
pak	-3614
pat	-3615
pit	-3616
ser	-3617
siq	-3618
sur	-3619
tin	-3620
tra	-3621
uju	-3622
uma	-3623
ven	-3624
wab	-3625
xic	-3626
yaẍ	-3627
▁.)	-3628
alem	-3629
alia	-3630
alti	-3631
alwi	-3632
anti	-3633
ataj	-3634
awey	-3635
bala	-3636
beel	-3637
btan	-3638
chuc	-3639
clau	-3640
coti	-3641
elek	-3642
elen	-3643
enoc	-3644
feni	-3645
gada	-3646
gayo	-3647
hier	-3648
hora	-3649
iloé	-3650
isaí	-3651
jaco	-3652
jech	-3653
leno	-3654
mago	-3655
mali	-3656
mata	-3657
moto	-3658
nalo	-3659
ohan	-3660
onja	-3661
patr	-3662
pich	-3663
piso	-3664
seis	-3665
siqu	-3666
tulo	-3667
tíqu	-3668
ufre	-3669
ulex	-3670
utni	-3671
wabe	-3672
wayo	-3673
xaak	-3674
xain	-3675
yeno	-3676
yeti	-3677
yija	-3678
yint	-3679
yiyo	-3680
zebú	-3681
abeni	-3682
abeno	-3683
alfeo	-3684
ancla	-3685
aquim	-3686
ayxic	-3687
babil	-3688
balon	-3689
camiẍ	-3690
camto	-3691
cawex	-3692
cayel	-3693
chiip	-3694
chila	-3695
chinc	-3696
colah	-3697
colin	-3698
ebtaj	-3699
elilo	-3700
eweco	-3701
filia	-3702
hachn	-3703
heyec	-3704
howla	-3705
hujel	-3706
imeta	-3707
innan	-3708
ismoh	-3709
ispuh	-3710
isten	-3711
istir	-3712
isyij	-3713
iweyo	-3714
jecoj	-3715
jelan	-3716
lecan	-3717
lohal	-3718
lohan	-3719
mateo	-3720
mawal	-3721
mayal	-3722
mayor	-3723
nocan	-3724
nueve	-3725
ohcha	-3726
omati	-3727
pahaw	-3728
plato	-3729
pojoj	-3730
quetz	-3731
reina	-3732
satac	-3733
sayan	-3734
siloé	-3735
tarco	-3736
tarso	-3737
titan	-3738
tolto	-3739
wacan	-3740
wajeb	-3741
wetti	-3742
wihan	-3743
xecan	-3744
xican	-3745
yehic	-3746
yelmi	-3747
yuchc	-3748
yumal	-3749
ẍicoj	-3750
ahcano	-3751
alomex	-3752
alpaxo	-3753
ambeni	-3754
anajon	-3755
anilto	-3756
anxaco	-3757
atenas	-3758
aweyto	-3759
aynato	-3760
banico	-3761
camtoj	-3762
chacoj	-3763
chacto	-3764
chacuy	-3765
checuy	-3766
chejan	-3767
cheman	-3768
chepaj	-3769
chexel	-3770
chexok	-3771
chiawi	-3772
chijik	-3773
chijni	-3774
chilin	-3775
chinha	-3776
chipax	-3777
chistz	-3778
chitac	-3779
chitoh	-3780
chiwej	-3781
coloni	-3782
cuatro	-3783
cutxba	-3784
dorcas	-3785
elapno	-3786
etalax	-3787
gadara	-3788
halilo	-3789
hawala	-3790
helano	-3791
hetxah	-3792
heyala	-3793
heyilw	-3794
hitzan	-3795
holbil	-3796
hulcan	-3797
intzab	-3798
isbiho	-3799
ishatx	-3800
islowi	-3801
lahwin	-3802
macato	-3803
mohyin	-3804
mujlax	-3805
nocano	-3806
ocheto	-3807
poncio	-3808
quinan	-3809
salmos	-3810
tohlan	-3811
tzehan	-3812
tzetal	-3813
tzujnu	-3814
vidrio	-3815
xaapni	-3816
yallen	-3817
yecano	-3818
yetato	-3819
yetbin	-3820
yijatz	-3821
yijlen	-3822
yinolo	-3823
yixtan	-3824
yulcan	-3825
yupaxo	-3826
yuteco	-3827
ápolis	-3828
ẍipaxo	-3829
axepxac	-3830
axponic	-3831
balcano	-3832
belwito	-3833
bilexxa	-3834
canayoj	-3835
cawxico	-3836
chanayo	-3837
chayije	-3838
chiahto	-3839
chicani	-3840
chijila	-3841
chinhul	-3842
chismaj	-3843
chitxon	-3844
chiyila	-3845
chiyilo	-3846
chiyuni	-3847
cocawil	-3848
comunla	-3849
cosatan	-3850
ebilayo	-3851
eligión	-3852
esponja	-3853
filipos	-3854
habilxa	-3855
hacawil	-3856
hamunil	-3857
hantato	-3858
hantaxa	-3859
hawunin	-3860
hewayan	-3861
heyahaw	-3862
heyoche	-3863
icobtan	-3864
ilaxilo	-3865
inbelan	-3866
inyehan	-3867
iptzewe	-3868
iscabil	-3869
ischiwa	-3870
isculus	-3871
isjepla	-3872
ismajil	-3873
ismalil	-3874
ismatan	-3875
ismilal	-3876
isniman	-3877
istucle	-3878
iswinaj	-3879
isyelax	-3880
ixnamxa	-3881
jechman	-3882
johtajo	-3883
lencano	-3884
maxawil	-3885
mulumon	-3886
munilal	-3887
nahatil	-3888
nayojan	-3889
nicanto	-3890
ninojan	-3891
ohchahi	-3892
pajtzen	-3893
partido	-3894
pohnilo	-3895
tasataj	-3896
telajil	-3897
txutxwi	-3898
tíquico	-3899
upnican	-3900
wahawan	-3901
womojan	-3902
xajalan	-3903
xajayto	-3904
yacojan	-3905
yetaxto	-3906
yetexxa	-3907
yilnico	-3908
yilniti	-3909
yocnico	-3910
yubojab	-3911
ayachico	-3912
baytaxca	-3913
beelzebú	-3914
chalpaxo	-3915
chebalan	-3916
chexapno	-3917
chexixli	-3918
chexwayi	-3919
cheyalic	-3920
chiochen	-3921
chipaxto	-3922
chisayni	-3923
chiyahni	-3924
chiyalic	-3925
chiyelax	-3926
colchalo	-3927
elaxcano	-3928
hachahni	-3929
hawaybal	-3930
hawohtan	-3931
haxapaxo	-3932
henimanc	-3933
heyehico	-3934
isbuchwa	-3935
ischejto	-3936
iscolilo	-3937
islahico	-3938
istohlan	-3939
istzilmo	-3940
majaltam	-3941
matxataj	-3942
¦	-3943
▁	-3944
a	-3945
n	-3946
i	-3947
c	-3948
t	-3949
e	-3950
o	-3951
h	-3952
y	-3953
l	-3954
ˈ	-3955
m	-3956
u	-3957
𐋇	-3958
j	-3959
s	-3960
b	-3961
x	-3962
̈	-3963
w	-3964
,	-3965
.	-3966
k	-3967
z	-3968
p	-3969
r	-3970
d	-3971
ẍ	-3972
:	-3973
―	-3974
q	-3975
ú	-3976
?	-3977
¿	-3978
g	-3979
í	-3980
é	-3981
“	-3982
”	-3983
á	-3984
;	-3985
f	-3986
ó	-3987
v	-3988
!	-3989
¡	-3990
‐	-3991
‘	-3992
’	-3993
(	-3994
)	-3995
ñ	-3996
