<pad>	0
</s>	0
<unk>	0
,	-3.11956
▁e	-3.62689
▁di	-3.71971
▁il	-4.0919
a	-4.10162
▁la	-4.34224
▁a	-4.36468
'	-4.41346
i	-4.50684
▁che	-4.5082
e	-4.56953
o	-4.62815
:	-4.68743
▁	-4.69339
▁i	-4.69887
▁in	-4.70075
▁per	-4.75572
re	-4.82523
▁del	-4.85036
▁non	-4.89708
▁Signore	-4.94151
▁le	-5.03056
▁si	-5.0662
▁con	-5.10826
to	-5.16814
;	-5.16934
▁un	-5.19942
▁«	-5.21983
▁è	-5.29107
▁dell	-5.30658
▁loro	-5.34103
▁l	-5.35177
.	-5.37182
te	-5.38333
▁al	-5.45097
▁gli	-5.47303
▁Dio	-5.48755
▁da	-5.50665
r	-5.51831
n	-5.53966
no	-5.56985
▁re	-5.57568
ri	-5.68614
ti	-5.69109
ò	-5.72471
»	-5.72927
▁perché	-5.74759
▁come	-5.76073
ta	-5.76158
▁dei	-5.80975
▁lo	-5.81381
▁nel	-5.85877
▁ma	-5.8633
▁ha	-5.91262
u	-5.91425
▁se	-5.92577
▁vi	-5.94996
▁suo	-5.96093
va	-5.96233
▁sono	-5.97357
▁una	-6.00286
▁mi	-6.02066
s	-6.0338
la	-6.03771
ro	-6.08517
▁nell	-6.10541
m	-6.11181
▁d	-6.13303
b	-6.15202
rà	-6.15806
le	-6.1717
▁disse	-6.1756
▁te	-6.18024
g	-6.18166
▁io	-6.18541
▁alla	-6.1941
f	-6.19438
▁sua	-6.19953
▁ti	-6.20352
▁mio	-6.20538
▁me	-6.22134
▁tutti	-6.22168
▁tuo	-6.22892
▁figlio	-6.23891
gli	-6.24001
di	-6.24382
▁Il	-6.26038
▁voi	-6.29213
▁o	-6.29723
▁figli	-6.31041
rono	-6.31326
▁E	-6.31371
▁ne	-6.31585
na	-6.33661
l	-6.34186
t	-6.34464
▁dal	-6.35536
ra	-6.35609
▁suoi	-6.36022
▁Ma	-6.36502
▁aveva	-6.37275
ato	-6.38257
ci	-6.39048
li	-6.39166
▁popolo	-6.41569
▁lui	-6.42423
de	-6.42698
ni	-6.43248
▁dall	-6.43442
▁li	-6.43577
▁tu	-6.43738
▁era	-6.48129
▁su	-6.49675
▁questo	-6.50445
▁A	-6.51015
▁ai	-6.51786
se	-6.53496
▁più	-6.55889
▁I	-6.56499
▁terra	-6.56694
▁sarà	-6.59847
si	-6.60301
▁contro	-6.60646
▁fu	-6.61837
▁Israele	-6.61894
▁paese	-6.62548
▁ri	-6.62615
ne	-6.63515
ca	-6.6364
▁chi	-6.64755
▁tua	-6.64795
▁città	-6.66016
▁ho	-6.66177
▁egli	-6.66534
ndo	-6.67243
so	-6.6751
▁tutto	-6.67639
mi	-6.68118
vano	-6.71089
rò	-6.71336
z	-6.71974
nti	-6.72388
erà	-6.72478
▁giorno	-6.72513
à	-6.73582
▁c	-6.73824
▁mia	-6.74498
sse	-6.74642
▁casa	-6.74914
vi	-6.74976
me	-6.75026
▁anche	-6.76014
c	-6.76353
sa	-6.76867
?	-6.78117
ce	-6.78312
ranno	-6.7845
▁sull	-6.78722
ma	-6.79972
▁ad	-6.80384
▁davanti	-6.81682
▁quando	-6.82618
▁Davide	-6.83309
▁Non	-6.83534
nte	-6.83848
▁tra	-6.83863
mo	-6.84585
rai	-6.84729
▁Se	-6.8474
p	-6.85966
ve	-6.87851
d	-6.88253
▁s	-6.88433
ogni	-6.89363
▁de	-6.90104
▁Allora	-6.902
tto	-6.90641
▁ci	-6.90988
▁uomini	-6.91478
are	-6.93554
▁Gesù	-6.93577
▁hai	-6.93612
▁fatto	-6.93772
▁degl	-6.94632
lo	-6.94901
gi	-6.97118
▁così	-6.97914
▁tuoi	-6.97944
▁noi	-6.98236
vo	-6.99415
è	-7.00559
▁né	-7.00588
▁fa	-7.00904
▁all	-7.01073
co	-7.01787
▁secondo	-7.02616
ì	-7.02642
uomo	-7.049
▁sul	-7.0543
▁erano	-7.06278
▁ed	-7.07443
tte	-7.07468
▁Giuda	-7.09778
▁mezzo	-7.10509
▁due	-7.10848
da	-7.11001
▁Mosè	-7.11214
▁tutte	-7.11547
po	-7.12588
▁La	-7.13661
▁Gerusalemme	-7.1415
ati	-7.14358
zione	-7.15383
▁hanno	-7.15405
▁mano	-7.15816
ssi	-7.18076
tti	-7.19188
do	-7.19438
▁sta	-7.19574
▁fino	-7.19613
erò	-7.20266
▁padre	-7.20691
or	-7.20779
▁Israeliti	-7.21776
ate	-7.2217
▁C	-7.22347
▁occhi	-7.22463
ga	-7.2354
▁essi	-7.24166
▁Si	-7.24565
▁sue	-7.24742
▁vita	-7.24806
▁vers	-7.24913
▁sc	-7.25773
▁pro	-7.2578
▁nome	-7.26045
▁cuore	-7.26194
▁ciò	-7.26196
du	-7.27084
chi	-7.29178
-	-7.29653
▁cui	-7.29709
▁questa	-7.2989
▁porta	-7.29977
▁Io	-7.30656
▁va	-7.30794
▁tempio	-7.31135
▁alle	-7.31652
bi	-7.31681
che	-7.3197
▁grande	-7.32092
sti	-7.32933
▁co	-7.33097
▁parola	-7.33394
▁Quando	-7.33474
▁Egli	-7.33481
▁giorni	-7.343
go	-7.34603
▁b	-7.35274
ggi	-7.3555
▁quel	-7.35757
▁dunque	-7.36639
▁mani	-7.36729
▁cosa	-7.36731
▁dice	-7.37134
eranno	-7.37134
▁sei	-7.3726
▁tutta	-7.37623
tu	-7.37719
▁poi	-7.37859
!	-7.38898
▁quant	-7.38922
v	-7.39312
▁quelli	-7.39549
ar	-7.40389
▁uno	-7.404
▁miei	-7.40955
▁dove	-7.40986
al	-7.4203
▁-	-7.42414
▁fra	-7.42454
tà	-7.42489
ste	-7.43405
?»	-7.43678
!»	-7.43896
tta	-7.44097
».	-7.45253
▁In	-7.45565
pa	-7.45938
un	-7.46001
sta	-7.4605
▁senz	-7.46562
sci	-7.4689
▁cose	-7.4691
▁fece	-7.47195
▁capo	-7.4839
zza	-7.48816
▁capi	-7.50057
gu	-7.50268
▁servi	-7.50364
▁tempo	-7.50593
▁infatti	-7.50951
nza	-7.50974
arono	-7.51128
▁Per	-7.51854
rlo	-7.52326
▁parole	-7.52944
▁so	-7.52961
▁rispose	-7.53077
er	-7.5332
▁Chi	-7.53514
▁sp	-7.53965
ano	-7.54551
▁Poi	-7.54951
▁uomo	-7.54995
▁ancora	-7.5506
lla	-7.55347
▁nostro	-7.56109
▁tre	-7.56788
▁Cristo	-7.56862
in	-7.57
▁parte	-7.57069
▁fratelli	-7.57434
▁cielo	-7.58205
rti	-7.58686
▁vostro	-7.58977
▁saranno	-7.59282
▁sotto	-7.59283
▁poiché	-7.59379
▁mentre	-7.60347
▁quale	-7.60589
▁sopra	-7.61203
▁sempre	-7.61337
▁Mi	-7.61343
▁quello	-7.62146
▁detto	-7.63155
▁legge	-7.63754
▁allora	-7.63841
pi	-7.64142
▁vostri	-7.64368
▁fuoco	-7.6437
rete	-7.64411
▁Così	-7.65047
▁male	-7.65233
an	-7.65649
sso	-7.65731
▁Gli	-7.6577
▁pre	-7.66032
▁dopo	-7.66076
▁sia	-7.66711
▁sacerdote	-7.67101
▁sa	-7.67311
▁stato	-7.67601
anno	-7.67668
▁bene	-7.67826
▁tue	-7.68339
erai	-7.68672
▁Di	-7.68719
k	-7.68771
▁avete	-7.68785
▁G	-7.68997
▁Ora	-7.69156
▁f	-7.70043
▁luogo	-7.70719
sce	-7.71135
rsi	-7.71141
Israele	-7.71786
nto	-7.72088
▁po	-7.72305
▁pu	-7.72376
Egitto	-7.72679
▁essa	-7.72754
▁peccato	-7.73179
▁forse	-7.73204
▁Ecco	-7.73764
▁ecco	-7.73837
per	-7.73967
▁servo	-7.74281
▁O	-7.74537
▁S	-7.7454
▁pot	-7.75512
▁queste	-7.75531
▁giustizia	-7.75656
ver	-7.75965
▁pi	-7.77057
▁morte	-7.7742
▁sangue	-7.78205
nta	-7.78238
▁Saul	-7.78464
oro	-7.78597
▁anni	-7.795
el	-7.79601
ssa	-7.79998
▁questi	-7.80014
▁padri	-7.80348
▁solo	-7.80439
▁essere	-7.80482
▁pe	-7.80709
▁spada	-7.81318
▁L	-7.81643
sto	-7.82081
▁nessuno	-7.8263
▁sacerdoti	-7.83814
nda	-7.84131
A	-7.84331
ata	-7.8438
▁sette	-7.85622
▁voce	-7.85791
▁altri	-7.86049
bo	-7.86329
▁là	-7.86491
▁regno	-7.868
▁stesso	-7.86811
▁dai	-7.8714
presso	-7.87153
▁dato	-7.87466
▁fratello	-7.87584
ba	-7.87862
amo	-7.88661
▁insieme	-7.88885
▁prima	-7.88886
▁prese	-7.89187
▁mette	-7.89607
▁via	-7.89936
pe	-7.90135
▁mie	-7.9124
Non	-7.9126
▁Giacobbe	-7.91811
▁Le	-7.92305
▁furono	-7.92754
▁gloria	-7.92918
rmi	-7.93397
▁tribù	-7.93444
▁Perché	-7.93544
tevi	-7.93554
▁fare	-7.93654
▁bocca	-7.93719
▁acc	-7.94263
▁donna	-7.94286
mento	-7.94368
ru	-7.94531
llo	-7.95338
▁ora	-7.96494
io	-7.96802
▁moglie	-7.97337
▁deserto	-7.99087
▁Aronne	-7.99087
▁quella	-7.99948
▁dicendo	-8.00354
▁ascolta	-8.00432
iti	-8.00717
fa	-8.01259
▁Tu	-8.0166
▁trova	-8.01807
▁quali	-8.0216
▁invece	-8.02709
▁oggi	-8.03013
▁siete	-8.03173
▁ve	-8.03193
uto	-8.0397
▁vesti	-8.04217
ul	-8.04228
▁gener	-8.04357
▁popoli	-8.04454
lle	-8.04926
▁mondo	-8.05382
▁piedi	-8.05404
▁Su	-8.0544
▁mai	-8.06309
▁Al	-8.06388
▁monte	-8.06627
▁p	-8.06831
▁abbiamo	-8.06884
▁tenda	-8.06889
▁causa	-8.07249
▁posto	-8.07309
altare	-8.07563
fer	-8.07939
▁far	-8.08198
▁faccia	-8.08884
oni	-8.09217
▁dov	-8.09917
erete	-8.10044
iamo	-8.10478
▁mare	-8.1063
era	-8.11003
▁nulla	-8.1143
rvi	-8.1147
▁notte	-8.11507
▁colui	-8.11789
▁Da	-8.11952
▁ra	-8.12359
▁Babilonia	-8.12752
▁carne	-8.12754
▁B	-8.12911
▁Salomone	-8.13755
h	-8.13808
▁fede	-8.14049
▁eserciti	-8.14092
▁madre	-8.141
▁gente	-8.14133
▁comp	-8.14191
?».	-8.14253
▁nostri	-8.14444
▁passa	-8.14766
mila	-8.1481
ch	-8.1502
im	-8.15375
▁and	-8.1617
▁ama	-8.16491
▁lascia	-8.16564
▁gia	-8.16899
▁ver	-8.169
▁spirito	-8.17174
▁do	-8.17298
▁dissero	-8.17383
one	-8.17446
▁Un	-8.1746
▁nemici	-8.17524
ava	-8.17689
▁ce	-8.17828
▁Poiché	-8.17973
▁vostra	-8.18224
▁sacrificio	-8.18812
ad	-8.18992
▁quanti	-8.19678
▁aver	-8.19975
▁aff	-8.20294
▁abitanti	-8.20435
E	-8.20491
am	-8.20632
lli	-8.20824
▁farò	-8.21499
stru	-8.21623
▁cerca	-8.21693
▁faraone	-8.21802
▁pane	-8.21807
▁vostre	-8.22167
▁molto	-8.22533
▁Lo	-8.22574
▁Sa	-8.23119
▁color	-8.23141
▁qui	-8.23412
cu	-8.23422
ssero	-8.23501
▁andò	-8.23621
▁finché	-8.23646
tori	-8.2389
ene	-8.24738
▁avrà	-8.25202
▁visto	-8.25932
mente	-8.25964
▁Ti	-8.26436
▁vol	-8.26511
▁grazia	-8.26654
cco	-8.26906
▁u	-8.27183
▁figlia	-8.28172
▁Padre	-8.28195
▁leviti	-8.28206
▁pace	-8.28588
lu	-8.28723
▁Me	-8.29014
▁fi	-8.29335
▁verità	-8.29761
▁Quest	-8.30139
▁U	-8.3044
zia	-8.30449
▁compi	-8.30502
▁fuori	-8.30575
▁prende	-8.30707
▁profeta	-8.30951
▁cioè	-8.30954
▁nuovo	-8.30968
tura	-8.31027
▁quattro	-8.31163
▁diede	-8.31317
▁acque	-8.31354
min	-8.31593
▁altro	-8.31746
cchi	-8.31879
▁Giudei	-8.32155
▁Giosuè	-8.3256
▁molti	-8.3256
▁ar	-8.3259
pre	-8.32694
▁no	-8.32777
▁Che	-8.32843
▁Abramo	-8.33211
Ecco	-8.33305
▁profeti	-8.33318
▁fronte	-8.33375
▁Giuseppe	-8.33785
▁sap	-8.33819
▁Con	-8.34382
ando	-8.34461
sca	-8.34676
sco	-8.34741
col	-8.3485
argento	-8.34933
arca	-8.35022
gno	-8.35092
▁senti	-8.35163
▁Essi	-8.35197
▁Vi	-8.3529
▁Filistei	-8.35441
▁luce	-8.35867
▁gioia	-8.36292
altra	-8.36368
▁farà	-8.36425
▁col	-8.36436
▁Come	-8.36923
▁viene	-8.37067
▁volta	-8.37176
▁discepoli	-8.37551
▁par	-8.37558
ete	-8.37672
▁P	-8.37939
▁Spirito	-8.37978
con	-8.38172
▁Ri	-8.38396
ino	-8.384
▁nazioni	-8.38409
▁grida	-8.38502
▁siamo	-8.3858
cc	-8.39074
ero	-8.39219
acqua	-8.3942
▁V	-8.39706
▁mese	-8.3971
tra	-8.39771
on	-8.39942
▁porte	-8.4041
▁numero	-8.40442
▁crede	-8.40589
▁grandi	-8.4118
▁por	-8.41719
▁Anch	-8.41723
▁salva	-8.41844
▁giusto	-8.41909
▁sui	-8.41911
▁opere	-8.41918
M	-8.41966
▁Ed	-8.42112
sero	-8.42303
rci	-8.42648
▁Figli	-8.42722
men	-8.42756
▁guerra	-8.42804
▁cinque	-8.42977
▁Figlio	-8.43207
▁alcun	-8.43451
▁Be	-8.43474
ghe	-8.43493
▁chiama	-8.43707
▁primo	-8.43707
▁stati	-8.44905
▁corpo	-8.45078
▁forza	-8.45093
▁sé	-8.45541
▁De	-8.45562
▁mangia	-8.45864
▁Rispose	-8.46
▁signore	-8.46006
mmi	-8.46025
▁dico	-8.46259
▁sali	-8.46418
▁uscire	-8.46471
altro	-8.46482
èl	-8.4684
▁cal	-8.47208
ono	-8.47237
Se	-8.47579
ghi	-8.47919
▁Perciò	-8.48349
us	-8.48501
zioni	-8.48642
▁costrui	-8.48828
▁fine	-8.48861
ab	-8.4949
▁abbia	-8.49675
cento	-8.49956
endo	-8.50102
▁cubiti	-8.50266
▁famiglia	-8.50266
!».	-8.50831
bile	-8.50997
▁t	-8.51152
zio	-8.51614
▁F	-8.51699
▁donne	-8.5176
▁gr	-8.51763
▁osserva	-8.51965
udi	-8.52017
ira	-8.52168
▁cieli	-8.52234
▁Ne	-8.52503
▁bestiame	-8.52769
cca	-8.53091
▁rende	-8.53105
spi	-8.53165
▁m	-8.53172
remo	-8.53489
▁mangiare	-8.53616
▁divenne	-8.53718
▁dimora	-8.53746
▁figlie	-8.53834
▁parti	-8.53958
▁Ha	-8.54218
▁riferi	-8.54727
▁libera	-8.54742
▁testa	-8.54854
▁fecero	-8.54896
▁offri	-8.55489
▁dis	-8.55666
▁Giordano	-8.5574
▁campo	-8.55741
▁ciascuno	-8.56455
▁mandò	-8.56769
▁anziani	-8.56771
▁strada	-8.57288
▁alcuni	-8.57518
T	-8.5759
▁entra	-8.58025
ppi	-8.58177
▁vino	-8.58472
▁n	-8.58584
rne	-8.58669
▁venti	-8.58879
alleanza	-8.58995
stra	-8.59071
▁Na	-8.59082
nne	-8.59297
▁Pa	-8.59539
▁Eli	-8.59682
▁Moab	-8.59941
▁proprio	-8.60217
▁Dopo	-8.60487
▁qual	-8.60618
edi	-8.60692
▁morti	-8.60715
za	-8.60928
▁Efraim	-8.60991
▁santuario	-8.60991
▁scritto	-8.60992
▁mise	-8.61127
▁nostra	-8.61559
▁servizio	-8.61593
Che	-8.617
▁parla	-8.61712
▁colpi	-8.6183
▁be	-8.61939
mon	-8.62044
▁messo	-8.62058
mmo	-8.62076
▁ven	-8.62184
amente	-8.62289
▁gran	-8.6247
▁Ci	-8.62584
▁destra	-8.63279
▁R	-8.63417
▁modo	-8.63729
rli	-8.63852
zzi	-8.63892
▁abita	-8.63914
ù	-8.64236
dur	-8.64379
▁intorno	-8.64489
▁ebbe	-8.64546
▁presenza	-8.64955
▁Tutti	-8.65513
▁Questi	-8.65851
▁riguardo	-8.65964
▁lontano	-8.65967
▁potenza	-8.6601
▁stata	-8.66217
▁vede	-8.66279
▁santi	-8.66869
▁getta	-8.67071
q	-8.67103
▁Tutt	-8.67256
▁alza	-8.67293
▁que	-8.6751
▁opera	-8.67634
▁stava	-8.67867
▁andare	-8.67891
▁Re	-8.67929
▁alzò	-8.68267
▁sole	-8.683
▁genti	-8.68309
▁potere	-8.68368
▁Voi	-8.685
▁present	-8.68862
▁uccide	-8.68991
▁trono	-8.69076
cò	-8.69121
C	-8.69152
▁Paolo	-8.69424
▁chiamò	-8.69575
▁sacrifici	-8.69617
▁fosse	-8.69781
▁vide	-8.69973
▁cammina	-8.69985
▁libro	-8.70016
▁morire	-8.70018
▁abit	-8.70105
Il	-8.70449
▁peccati	-8.70754
▁Li	-8.71038
▁pass	-8.71058
▁guarda	-8.71235
▁segui	-8.7137
▁possesso	-8.71797
▁salvezza	-8.71797
▁Achi	-8.71819
▁ordinato	-8.71975
▁famiglie	-8.72399
▁fin	-8.72434
▁salv	-8.7253
▁santo	-8.72543
▁vedere	-8.72655
▁quelle	-8.72921
▁pal	-8.73166
▁dieci	-8.7324
▁Mentr	-8.73616
P	-8.73649
▁Fa	-8.73792
▁diventa	-8.74476
▁comunità	-8.74846
▁padrone	-8.74846
▁lavoro	-8.74866
▁Te	-8.75315
▁fuggi	-8.75389
▁mandato	-8.75397
▁Giovanni	-8.75467
▁venire	-8.7548
▁venuto	-8.7566
tò	-8.758
avano	-8.75964
nna	-8.75972
▁Dice	-8.76055
▁monti	-8.76105
▁gio	-8.76108
stri	-8.7633
▁parlare	-8.764
▁cant	-8.76458
▁Elia	-8.76474
▁Pietro	-8.76721
▁N	-8.77066
▁Egitto	-8.77431
▁Sion	-8.77479
azione	-8.77593
▁però	-8.77648
cci	-8.77881
▁Beniamino	-8.77991
▁quindi	-8.78302
▁verrà	-8.7839
▁venne	-8.78601
▁pietra	-8.78632
▁cento	-8.78663
▁for	-8.78829
▁preso	-8.79033
▁cap	-8.79053
▁Santo	-8.79362
▁manda	-8.79452
▁oltre	-8.79926
▁dodici	-8.79927
▁convegno	-8.79927
▁sorte	-8.79936
▁empi	-8.80002
▁folla	-8.80025
▁appar	-8.8046
▁Ta	-8.8055
▁misericordia	-8.8058
▁sapienza	-8.8058
▁Abi	-8.80628
▁annunzia	-8.80769
▁chiamato	-8.80842
▁giusti	-8.81213
▁cost	-8.81637
ccia	-8.81639
▁buon	-8.81932
▁gett	-8.8194
anni	-8.81944
▁rovina	-8.82567
▁Bet	-8.82579
▁So	-8.83188
▁ognuno	-8.83238
▁lingua	-8.83914
rla	-8.83966
glio	-8.83981
▁avev	-8.8442
▁iniquità	-8.84486
▁esso	-8.8454
▁lei	-8.8484
▁Geremia	-8.85279
▁conosce	-8.85343
▁Sono	-8.85454
▁terzo	-8.85493
▁inter	-8.8596
▁mura	-8.85969
▁Ioab	-8.86086
▁udito	-8.86325
▁risponde	-8.86681
▁acqua	-8.86752
▁eredità	-8.8697
Perché	-8.87152
▁allo	-8.8728
▁mor	-8.87416
▁Quant	-8.87509
▁brucia	-8.87761
▁fatti	-8.8786
▁ritorn	-8.87957
▁frutto	-8.88068
▁timore	-8.88079
▁generazione	-8.88105
▁rivolta	-8.88271
cur	-8.88354
▁volte	-8.88932
telo	-8.88939
ora	-8.89159
▁nessun	-8.89224
sione	-8.89485
▁tale	-8.89911
▁pote	-8.89918
az	-8.9019
▁qua	-8.90204
ach	-8.90254
▁resto	-8.90539
▁lungo	-8.90542
▁quell	-8.90572
rebbe	-8.9065
▁Samuele	-8.90934
▁pietre	-8.90934
▁ministri	-8.90934
▁scende	-8.90942
▁vicino	-8.90947
▁teme	-8.91036
▁insegna	-8.91382
▁benedi	-8.91489
▁bere	-8.91837
bili	-8.92311
▁malvagi	-8.92339
▁testimonianza	-8.924
▁prov	-8.924
accampamento	-8.92402
▁Mo	-8.9244
▁sarai	-8.92802
angelo	-8.92959
▁morto	-8.92997
▁condotta	-8.93142
▁incontro	-8.93143
fica	-8.93151
▁avr	-8.93461
▁quest	-8.93584
▁distrugge	-8.93654
▁siano	-8.93673
▁com	-8.93719
▁sabato	-8.93889
▁denaro	-8.9389
▁discendenza	-8.93907
▁altre	-8.93933
▁diritto	-8.93951
▁valle	-8.94056
gra	-8.9442
▁cavalli	-8.94638
▁Isacco	-8.94638
▁voglio	-8.94639
▁rimase	-8.94669
▁sappia	-8.94684
▁Pe	-8.9495
▁pure	-8.94953
▁prega	-8.95115
▁Ezechia	-8.95396
▁uscì	-8.95445
Tu	-8.95625
▁fate	-8.95753
▁Asa	-8.96092
▁vento	-8.96111
Io	-8.9612
▁Gàlaad	-8.96159
▁perciò	-8.96196
▁marito	-8.96203
▁chiunque	-8.96261
▁darò	-8.96266
▁territorio	-8.96285
▁sera	-8.96364
▁anch	-8.96673
▁consegn	-8.96757
▁Ho	-8.96928
▁immondo	-8.9693
gni	-8.96936
▁simile	-8.96942
par	-8.97136
▁regione	-8.97704
▁subito	-8.97708
▁mattino	-8.9771
▁farai	-8.97755
▁quegli	-8.97967
▁Manàsse	-8.98485
▁neppure	-8.98485
▁idoli	-8.98494
▁sazi	-8.98569
▁possa	-8.98635
▁forma	-8.98655
▁diceva	-8.98673
▁anno	-8.98918
▁forte	-8.98995
▁pecore	-8.99275
▁ricord	-8.99509
▁stabili	-8.99575
empio	-9.00057
▁festa	-9.00068
▁esser	-9.00083
▁condusse	-9.00242
bbiamo	-9.00378
Chi	-9.00752
▁Baal	-9.00869
▁riscatt	-9.00877
▁pietà	-9.00899
▁morì	-9.00967
offerta	-9.0156
▁dietro	-9.01673
▁carri	-9.01675
▁andarono	-9.01817
▁piant	-9.02055
▁ira	-9.02275
V	-9.02276
▁purifica	-9.02486
▁Fece	-9.02487
ha	-9.02791
▁pare	-9.0295
▁qualcuno	-9.03305
▁onore	-9.03369
▁divora	-9.0339
▁giudizio	-9.03686
▁volto	-9.03714
▁dà	-9.03839
▁Nell	-9.03963
▁trovato	-9.04061
ccio	-9.04656
ale	-9.04919
▁orecchi	-9.04933
▁Samaria	-9.04965
▁parlato	-9.05012
▁faceva	-9.05066
▁espiatorio	-9.05144
▁vennero	-9.05268
▁cibo	-9.05321
▁entr	-9.05784
▁decim	-9.05956
▁pascoli	-9.06096
ho	-9.06511
▁Ar	-9.06513
▁sorge	-9.06653
▁rimane	-9.06654
▁tocca	-9.06664
▁dura	-9.06921
stro	-9.07134
▁prendere	-9.07211
▁scor	-9.07279
▁vot	-9.07425
▁son	-9.07488
▁Giònata	-9.07507
▁olocausti	-9.07507
ingresso	-9.07507
▁Oracolo	-9.07508
arsi	-9.07746
▁pensa	-9.0809
▁soff	-9.08183
▁fior	-9.08284
▁pose	-9.08509
▁passi	-9.08966
don	-9.08975
▁olio	-9.09167
▁battaglia	-9.09239
▁gregge	-9.09239
▁polvere	-9.09239
▁bestie	-9.0924
▁stessa	-9.09243
▁commett	-9.09247
▁cari	-9.09284
▁alleanza	-9.09893
▁avvicina	-9.10116
▁nemico	-9.10118
▁nostre	-9.1014
▁speranza	-9.10143
▁dicevano	-9.10396
scono	-9.10586
▁radun	-9.10829
▁case	-9.10939
F	-9.10971
▁campagna	-9.11001
▁giudica	-9.11001
▁pratica	-9.11001
▁soltanto	-9.11001
▁giovani	-9.11001
Assiria	-9.11004
▁lavora	-9.11036
▁sarete	-9.11236
▁collo	-9.11427
▁Am	-9.11503
▁prova	-9.11537
▁stavano	-9.11556
atore	-9.11864
ordine	-9.11872
▁comandi	-9.11894
▁giovane	-9.11894
▁eterna	-9.11895
▁Ad	-9.12001
▁riceve	-9.12172
▁ben	-9.1247
▁entrare	-9.12491
olocausto	-9.12777
▁avvi	-9.12803
▁fame	-9.12899
▁Questa	-9.12976
▁veniva	-9.13102
▁All	-9.13116
▁Disse	-9.1317
S	-9.13186
assemblea	-9.13704
▁paura	-9.13704
▁Dimora	-9.13705
▁sicli	-9.13715
▁anzi	-9.13719
▁Can	-9.13782
I	-9.13875
tato	-9.14026
▁legno	-9.14297
▁arriva	-9.14492
▁venga	-9.14495
▁Ogn	-9.14594
▁Assalonne	-9.14621
▁Daniele	-9.14621
▁cambi	-9.14624
▁prossimo	-9.14662
▁bruc	-9.14686
▁metà	-9.14845
▁tenebre	-9.14928
▁Essa	-9.15329
▁allontan	-9.1554
▁sapere	-9.15571
avrai	-9.15956
▁settimo	-9.16484
B	-9.16508
▁colpa	-9.16617
impu	-9.16719
▁Ammoniti	-9.17425
▁villaggi	-9.17426
▁sorella	-9.17427
▁gradi	-9.17435
▁Zi	-9.17451
▁custodi	-9.18243
▁grano	-9.18307
▁settentrione	-9.18377
▁sventura	-9.18377
▁uccelli	-9.18377
▁umili	-9.18378
▁To	-9.18395
Quest	-9.18417
ud	-9.18483
▁Nel	-9.18719
▁terre	-9.18847
bbero	-9.19252
▁misero	-9.19327
▁dinanzi	-9.19339
▁preghiera	-9.19339
▁giunse	-9.19339
▁labbra	-9.19339
▁piena	-9.19348
▁ordine	-9.19364
▁Ghe	-9.19372
R	-9.19387
▁dare	-9.1963
▁resta	-9.19825
▁torna	-9.20294
ent	-9.20515
▁trenta	-9.20533
▁lode	-9.20734
unque	-9.20891
▁sarò	-9.20917
ngono	-9.20956
▁cammino	-9.21036
▁mille	-9.21092
▁rito	-9.21164
▁propria	-9.2122
▁testimoni	-9.21289
▁tanto	-9.21306
▁disprezza	-9.21322
▁sto	-9.21403
▁aiuto	-9.21847
▁tratt	-9.22111
▁attravers	-9.2228
▁tornò	-9.2228
▁Infatti	-9.22281
▁presenta	-9.22289
esercito	-9.22354
ndosi	-9.22408
▁leggi	-9.22605
bbene	-9.22694
▁beni	-9.22823
▁divent	-9.22982
▁amore	-9.2313
▁obbedi	-9.2327
▁bronzo	-9.2328
▁montagne	-9.2328
▁uccise	-9.23282
▁spavent	-9.23288
▁stessi	-9.23288
▁vigna	-9.23291
▁profan	-9.23314
▁D	-9.23574
▁sdegno	-9.23596
ntro	-9.23726
▁buona	-9.23779
▁Cor	-9.24203
ché	-9.24251
▁presero	-9.24283
▁vergogna	-9.2429
▁assi	-9.24344
O	-9.2439
▁grido	-9.24613
▁tende	-9.24769
isce	-9.24791
▁oriente	-9.24799
stre	-9.24917
▁dono	-9.25011
▁bell	-9.25038
▁comunione	-9.25311
▁prodigi	-9.25312
▁momento	-9.25315
▁ferro	-9.25318
▁costoro	-9.25381
pu	-9.25607
▁ingann	-9.25646
vranno	-9.25729
▁poco	-9.25744
▁Quelli	-9.25931
▁Quindi	-9.26342
▁vuol	-9.26342
▁campi	-9.26342
▁domanda	-9.26342
▁Esaù	-9.26342
▁scelto	-9.26344
▁allontana	-9.26352
G	-9.26462
▁potente	-9.2651
▁raduna	-9.26547
▁prostra	-9.26714
olio	-9.26751
▁passare	-9.26894
▁Fu	-9.26934
▁Geroboamo	-9.27384
▁misura	-9.27384
▁frutti	-9.27386
▁costui	-9.27388
▁favore	-9.27391
▁confid	-9.27391
▁rimast	-9.27462
▁sarebbe	-9.27492
▁posso	-9.27614
Signore	-9.27737
▁vivo	-9.27893
▁giunge	-9.28436
▁primogenito	-9.28436
angoscia	-9.28436
▁comando	-9.28474
▁partori	-9.28784
▁abbandona	-9.29032
▁canto	-9.29221
▁porpora	-9.295
▁toglie	-9.29529
▁accost	-9.29547
Và	-9.29698
▁entrò	-9.29924
▁cinquanta	-9.29938
▁preda	-9.29948
▁odia	-9.30082
▁ricorda	-9.30253
estremità	-9.30575
▁piange	-9.30575
▁parlò	-9.30577
▁povero	-9.30579
▁seguito	-9.30753
▁Gad	-9.30781
erba	-9.30875
▁comandato	-9.3114
▁chiamava	-9.31203
▁vie	-9.31468
▁cura	-9.31797
▁risposero	-9.31957
▁comanda	-9.32189
Per	-9.32314
endi	-9.32631
▁Egiziani	-9.32761
▁angeli	-9.32761
▁mezzogiorno	-9.32761
▁ordinò	-9.32761
▁avver	-9.32765
▁rivel	-9.32809
Di	-9.3285
iniquità	-9.32949
▁certo	-9.33031
albero	-9.33179
▁Ruben	-9.33872
▁Canaan	-9.33873
▁deve	-9.33966
▁Ave	-9.34138
▁Nessuno	-9.34219
Dov	-9.34287
No	-9.34319
età	-9.34422
opera	-9.34478
▁nomi	-9.34531
▁portato	-9.34545
aia	-9.34624
▁darà	-9.34862
▁ucciso	-9.34996
▁Acab	-9.35001
▁ricevuto	-9.35015
▁Ze	-9.35015
▁mogli	-9.35114
▁lega	-9.35119
dotto	-9.35149
▁verranno	-9.35374
▁segno	-9.35759
▁udi	-9.35923
▁sterminio	-9.36132
▁commesso	-9.36132
▁dimentica	-9.36132
orecchio	-9.3618
▁reggia	-9.3618
▁offerta	-9.3629
▁meglio	-9.36517
▁ascoltato	-9.36589
▁forti	-9.36743
▁peso	-9.36755
▁combatt	-9.36852
L	-9.36888
▁vive	-9.37036
▁meno	-9.37156
▁bestia	-9.37164
▁tavola	-9.37282
▁buoi	-9.37282
▁fiume	-9.37283
▁leone	-9.37286
▁Edom	-9.37291
▁persone	-9.37306
▁chiede	-9.37311
▁ripos	-9.37526
▁riempi	-9.37544
▁ferm	-9.37589
▁mostr	-9.37978
ber	-9.38064
▁ossa	-9.38229
▁temere	-9.38277
▁Giòsafat	-9.38444
▁Nabucodònosor	-9.38444
▁farisei	-9.38444
▁giovenco	-9.38444
▁indietro	-9.38444
▁messaggeri	-9.38444
▁raccoglie	-9.38444
▁schiava	-9.38445
▁vangelo	-9.38445
▁guid	-9.38447
▁facendo	-9.38458
▁manca	-9.38464
▁perenne	-9.38465
▁nascosto	-9.38798
lmente	-9.38814
▁buono	-9.3901
▁andava	-9.39062
▁braccio	-9.39362
▁cas	-9.39402
▁conoscere	-9.39449
▁Ben	-9.39508
▁colonne	-9.39622
▁alture	-9.39647
▁vivente	-9.39737
▁sommo	-9.39744
▁arriv	-9.39823
anima	-9.39939
▁scese	-9.4005
▁osserv	-9.40253
▁tratta	-9.40318
▁Sal	-9.40449
▁saggio	-9.40502
▁trovava	-9.40638
▁sposa	-9.4075
▁nube	-9.40811
▁partorì	-9.40811
▁spiega	-9.40811
▁riconosc	-9.40812
▁mattina	-9.40816
▁pieno	-9.40832
▁immol	-9.40851
▁Ascolta	-9.40859
▁scaccia	-9.40893
▁dentro	-9.40935
▁rest	-9.41095
▁fanno	-9.41097
▁semina	-9.41126
acqu	-9.41423
erano	-9.41453
▁oro	-9.41455
Si	-9.41483
▁pascol	-9.416
▁azioni	-9.4168
▁fil	-9.41857
Z	-9.41874
▁agnelli	-9.42016
▁stranieri	-9.42016
ndovi	-9.42023
▁sol	-9.42081
▁inferi	-9.42085
▁reso	-9.42117
▁pelle	-9.42181
▁offrire	-9.423
▁castig	-9.42552
▁Levi	-9.42555
uno	-9.42603
▁convoc	-9.42861
Guarda	-9.43236
▁grazie	-9.43236
▁schiavo	-9.43236
▁celebr	-9.43236
▁strapp	-9.43237
▁condanna	-9.43237
▁venuti	-9.43238
▁piace	-9.43247
▁seppelli	-9.43253
▁Noi	-9.43268
▁segue	-9.4333
▁tempi	-9.43488
▁vende	-9.43556
▁avanz	-9.43646
▁sola	-9.4399
Giu	-9.44001
▁consacra	-9.44099
▁Po	-9.44347
▁bambino	-9.4447
▁profumo	-9.4447
▁sepolcro	-9.4447
▁regnò	-9.4447
▁comincia	-9.4447
▁rifiut	-9.4447
▁esult	-9.44473
▁stermina	-9.4449
▁dichiar	-9.44517
▁discendenti	-9.44546
▁torrente	-9.44549
▁presi	-9.45308
▁puro	-9.4545
▁prepara	-9.45568
▁Ebron	-9.4572
▁desideri	-9.4572
▁ribelli	-9.4572
▁pioggia	-9.4572
▁stolto	-9.45722
▁maestro	-9.45725
▁bracci	-9.46005
▁partire	-9.46135
▁abbandonato	-9.46558
▁quaranta	-9.46627
▁stabilito	-9.46633
▁parlava	-9.46646
mbi	-9.46661
▁molte	-9.46986
▁spezza	-9.4699
▁qualunque	-9.4701
▁predica	-9.47134
▁chiam	-9.47172
▁perdona	-9.47213
▁vista	-9.47706
La	-9.48054
▁appena	-9.48087
▁cerc	-9.48147
▁scribi	-9.4827
▁concesso	-9.48272
▁bastone	-9.48292
▁Dan	-9.48455
gano	-9.48508
▁Ieu	-9.48541
Figlio	-9.48645
▁velo	-9.487
▁giura	-9.48776
▁mente	-9.49139
amore	-9.49372
▁schiavi	-9.49567
▁censimento	-9.49567
▁circoncisi	-9.49567
▁confini	-9.49567
▁grasso	-9.4957
▁avuto	-9.4957
▁scamp	-9.49573
▁batte	-9.49581
▁consola	-9.49596
profond	-9.49654
ndolo	-9.49702
▁fatta	-9.50294
▁Era	-9.50566
▁ferma	-9.50678
▁Do	-9.50715
▁fedeltà	-9.50883
▁coro	-9.509
▁salut	-9.50935
▁vorr	-9.50964
▁avere	-9.51
▁animali	-9.51033
▁casati	-9.51072
▁cammin	-9.51286
▁saggi	-9.51657
▁negli	-9.51707
▁fedele	-9.51719
▁pecca	-9.51842
ariete	-9.51932
▁tornare	-9.51987
▁predi	-9.51988
▁accamp	-9.52154
▁pat	-9.52209
▁Quegli	-9.52216
▁volontà	-9.52216
▁confine	-9.52216
▁Eliseo	-9.5222
▁farina	-9.52236
▁lutto	-9.52237
▁vent	-9.52363
▁pur	-9.5237
▁priv	-9.52373
eremo	-9.52565
▁usa	-9.53203
▁vivere	-9.5321
▁principe	-9.53567
▁larghezza	-9.53567
ombra	-9.53568
▁salì	-9.53569
▁cresce	-9.53573
▁basi	-9.53595
▁affid	-9.53611
▁possed	-9.53627
▁oggetto	-9.53752
▁usc	-9.54118
▁avversari	-9.54133
▁giurato	-9.54294
▁suolo	-9.54366
▁consiglio	-9.54392
▁bac	-9.54416
▁aspett	-9.54779
▁decreti	-9.54937
▁attorno	-9.54937
▁contamina	-9.54938
▁piomb	-9.54939
▁sinistra	-9.5494
▁alberi	-9.54943
▁stanno	-9.54955
▁portò	-9.54988
▁sommi	-9.55106
▁Forse	-9.55201
▁veste	-9.55223
▁chiese	-9.55632
▁vedi	-9.55942
▁mut	-9.56206
▁devo	-9.56306
▁tromba	-9.56326
▁cadde	-9.56327
▁copri	-9.56329
▁terrore	-9.56335
▁legna	-9.56362
▁viola	-9.56424
▁sogno	-9.56521
▁visione	-9.56843
olui	-9.56902
▁manifesta	-9.56993
▁fà	-9.57131
▁deport	-9.57649
▁Caldei	-9.57734
▁bambini	-9.57734
▁rifugio	-9.57734
▁Libano	-9.57735
▁mantello	-9.57736
▁oracolo	-9.57736
▁catene	-9.57736
▁viaggio	-9.57738
Prendi	-9.5774
▁maggior	-9.5775
▁elimin	-9.57752
lità	-9.57828
▁Parol	-9.57831
▁Car	-9.57834
▁pagani	-9.57856
amm	-9.5794
▁devi	-9.58089
▁ritorna	-9.58095
▁benedetto	-9.58153
▁consacrato	-9.58467
▁volle	-9.58554
▁abitare	-9.58658
anche	-9.58659
▁tali	-9.58801
▁abbandon	-9.5884
intelligenza	-9.59163
▁ricchezze	-9.59163
▁piccolo	-9.59163
▁muro	-9.59165
▁greggi	-9.59165
▁spalle	-9.59169
▁và	-9.59173
▁piede	-9.59174
▁gem	-9.59182
▁persona	-9.59193
▁nazione	-9.59237
▁Betel	-9.5926
▁digiun	-9.59305
▁settanta	-9.59365
▁riusci	-9.59618
▁vero	-9.6014
▁abbatt	-9.60415
▁troppo	-9.60612
▁specie	-9.60612
▁addosso	-9.60613
▁guardie	-9.60623
▁Ioas	-9.60653
▁sapete	-9.60713
▁avendo	-9.60725
▁alcuno	-9.60884
▁fissa	-9.60947
▁incenso	-9.61164
▁god	-9.61274
▁nato	-9.61355
▁consum	-9.61623
▁fianchi	-9.62083
▁giudice	-9.62083
▁offerte	-9.62083
▁fossa	-9.62086
▁Aramei	-9.62094
▁conosci	-9.62103
▁altare	-9.6214
▁Za	-9.62188
▁angelo	-9.62443
▁portarono	-9.62468
▁adora	-9.62595
▁muove	-9.63332
D	-9.63335
▁loda	-9.63465
▁duran	-9.63496
▁comprende	-9.63575
▁cominciò	-9.63575
▁saggezza	-9.63575
▁stirpe	-9.63575
▁promessa	-9.63576
▁Sichem	-9.63577
▁secoli	-9.63593
▁spogli	-9.63598
▁accamparono	-9.63641
▁apri	-9.63647
▁Maria	-9.63726
ppena	-9.63788
▁farete	-9.63976
▁videro	-9.64188
▁ber	-9.64275
▁regni	-9.6436
▁rami	-9.64438
▁vedendo	-9.64454
▁insegui	-9.6458
▁anima	-9.64621
▁Pi	-9.64657
▁riposo	-9.64866
▁pianta	-9.64898
▁Amorrei	-9.65091
▁Eppure	-9.65091
▁trovò	-9.65091
▁motivo	-9.65091
▁rivolg	-9.65091
▁tavole	-9.65091
▁consult	-9.65091
▁venuta	-9.65093
atrio	-9.65094
▁Madian	-9.65094
▁sollev	-9.65168
▁manderò	-9.65301
▁santa	-9.65426
▁argento	-9.65428
arco	-9.65475
▁vecchio	-9.6577
In	-9.663
zzo	-9.66359
▁esercito	-9.66515
▁conosco	-9.66549
▁continua	-9.6662
▁Balaam	-9.66629
▁Galilea	-9.66629
▁bisogno	-9.66629
▁raccolt	-9.66629
▁scienza	-9.66629
▁rallegr	-9.66629
▁proprietà	-9.66637
▁pani	-9.6666
▁riuni	-9.66682
▁taglia	-9.66709
▁acquista	-9.66725
▁benedizione	-9.66797
▁sigill	-9.66854
▁orm	-9.66859
Sa	-9.66994
▁consumat	-9.67114
▁bat	-9.67155
▁cuori	-9.67291
▁assal	-9.67459
▁And	-9.67519
▁guard	-9.67683
▁annunzi	-9.6774
▁spars	-9.67929
Da	-9.68085
▁Abimèlech	-9.68192
▁Giudea	-9.68192
▁giardino	-9.68192
▁oggetti	-9.68192
▁piuttosto	-9.68192
▁vuoi	-9.68192
▁schiere	-9.68192
▁Guai	-9.68192
▁collera	-9.68194
▁prendi	-9.68198
▁uscito	-9.682
▁tesori	-9.68207
▁avrete	-9.68258
▁Aram	-9.68277
▁faranno	-9.68517
▁guardia	-9.68594
att	-9.68615
▁battezz	-9.6868
▁Cam	-9.68996
▁presto	-9.69127
▁rivolt	-9.69318
▁spos	-9.69374
▁proclama	-9.69417
▁sì	-9.69692
▁stende	-9.69765
abbondanza	-9.69779
▁Gerico	-9.69779
▁Qual	-9.69779
▁moltitudine	-9.69779
▁sguardo	-9.69779
▁quarto	-9.69784
innocente	-9.69784
▁impar	-9.69786
▁olocausto	-9.69811
Alzati	-9.69825
▁lavori	-9.69847
▁accett	-9.69903
▁apparve	-9.70077
▁Salmo	-9.70126
▁bast	-9.70194
▁tal	-9.7026
▁mangiato	-9.70322
▁mostra	-9.70491
Sono	-9.70514
ssimo	-9.70665
▁cadaveri	-9.71392
▁domandò	-9.71392
▁flagell	-9.71392
▁forestiero	-9.71392
▁violenza	-9.71392
▁Isaia	-9.71393
▁raccont	-9.71394
▁nubi	-9.71394
▁poveri	-9.71398
▁circa	-9.71401
▁continu	-9.71402
▁invoca	-9.71413
▁corre	-9.71441
sessanta	-9.71449
▁altari	-9.7147
▁fol	-9.71807
▁Abram	-9.72045
▁consigli	-9.72067
▁poteva	-9.72071
▁Pres	-9.72211
▁fedeli	-9.72219
▁metti	-9.72302
▁colli	-9.72376
▁considera	-9.72795
▁compra	-9.72799
▁dicono	-9.73003
▁Abner	-9.73031
▁Sedecìa	-9.73031
▁cherubini	-9.73031
▁circonda	-9.73031
▁germogli	-9.73031
▁straniero	-9.73031
▁partì	-9.73032
▁calpest	-9.73032
▁primi	-9.73034
▁uscirono	-9.73034
▁eterno	-9.73035
▁provoca	-9.73036
▁turba	-9.73038
▁seduto	-9.73051
▁finito	-9.73053
▁lasciò	-9.73073
▁macchia	-9.73093
▁pezzi	-9.73155
▁udire	-9.7324
▁Pu	-9.73258
▁cima	-9.73388
Andate	-9.73454
▁maschio	-9.73701
▁Sara	-9.73765
▁cadere	-9.7377
U	-9.73776
▁presta	-9.74188
▁miele	-9.74457
occhio	-9.74515
▁fiducia	-9.74698
▁innalza	-9.74698
▁lunghezza	-9.74698
▁vedova	-9.74699
▁possied	-9.747
▁cessa	-9.74701
▁registrati	-9.74716
▁rimarr	-9.74727
▁amici	-9.74746
▁segret	-9.74747
▁volge	-9.74887
▁andate	-9.75136
▁avesse	-9.75155
▁combattere	-9.75329
▁rame	-9.75345
▁fossero	-9.75368
▁renderò	-9.75431
▁passò	-9.75646
▁apostoli	-9.76393
▁fortezze	-9.76393
▁prigione	-9.76393
▁trasport	-9.76393
▁significa	-9.76393
▁maledizione	-9.76394
▁Intanto	-9.76395
▁lancia	-9.764
▁accanto	-9.76401
▁Natan	-9.76464
▁conoscenza	-9.7653
▁colpe	-9.76554
▁giogo	-9.76576
▁morta	-9.77176
quattro	-9.77195
▁abominio	-9.77223
Parla	-9.77693
aria	-9.77725
▁prostr	-9.77983
▁torre	-9.78013
▁Mardocheo	-9.78117
▁addorment	-9.78117
▁schiera	-9.78118
▁fiumi	-9.78118
▁dolore	-9.78121
▁strade	-9.78122
▁caccia	-9.78128
▁bue	-9.7815
▁ricad	-9.78377
▁vieni	-9.78464
▁beve	-9.78467
▁abitavano	-9.78559
▁principio	-9.78944
▁porterà	-9.78972
▁pesa	-9.79116
▁trema	-9.79413
interno	-9.7976
▁Giosia	-9.79871
▁Ricord	-9.79871
▁menzogna	-9.79871
▁sopport	-9.79871
▁splendore	-9.79871
▁perseguit	-9.79871
▁Damasco	-9.79871
▁bottino	-9.79871
▁ordini	-9.79871
▁possiamo	-9.79871
▁promesso	-9.79872
▁fretta	-9.79875
▁conosciuto	-9.79912
▁furore	-9.79916
▁supplica	-9.7996
▁nasconde	-9.79974
▁tagli	-9.80045
▁faccio	-9.8007
▁essendo	-9.80081
▁mangi	-9.80165
▁tornarono	-9.80204
▁prostrò	-9.80209
asino	-9.80431
Come	-9.80739
▁propri	-9.80795
▁preparato	-9.80844
▁Tiro	-9.80959
▁Giobbe	-9.81657
▁adempi	-9.81657
▁ribella	-9.81657
▁luoghi	-9.81657
▁gesta	-9.81657
▁inform	-9.81658
▁interroga	-9.81658
▁Pilato	-9.81659
▁arieti	-9.8166
▁carro	-9.81661
▁roccia	-9.81663
▁morirà	-9.81663
costruì	-9.8169
▁sacco	-9.81893
aveva	-9.8194
Vieni	-9.81951
▁sale	-9.82108
▁perire	-9.82114
▁peste	-9.82119
▁ricco	-9.82309
▁prenderà	-9.82629
▁cade	-9.8277
▁convert	-9.83114
▁spera	-9.83128
▁chiamati	-9.83147
"	-9.83475
▁Làbano	-9.83475
▁giunto	-9.83475
▁demoli	-9.83479
▁vigne	-9.83489
▁base	-9.83515
▁carità	-9.83602
▁compiuto	-9.83636
▁gridò	-9.83669
▁Gat	-9.83707
▁rapi	-9.83782
oriente	-9.83918
▁oblazione	-9.84257
▁Eleazaro	-9.85327
▁Zaccaria	-9.85327
▁occup	-9.85327
▁fianco	-9.85327
▁nutr	-9.85328
▁attacca	-9.8533
▁arredi	-9.85336
▁concede	-9.85352
▁median	-9.85359
▁giuramento	-9.85379
▁avanti	-9.85411
▁benedisse	-9.85468
▁nati	-9.85798
▁second	-9.86396
▁nascos	-9.86642
▁pasqua	-9.87214
▁descritt	-9.87214
▁pastori	-9.87214
▁ricchezza	-9.87214
▁piccoli	-9.87214
▁domani	-9.87215
▁Noè	-9.87218
▁Simone	-9.87219
▁vicini	-9.87228
▁pieni	-9.87228
efod	-9.8723
▁intanto	-9.87244
▁cess	-9.87342
aspetto	-9.87434
▁procur	-9.87472
▁abbatte	-9.87473
▁occidente	-9.8749
▁potenti	-9.87561
▁Ver	-9.87656
▁consegnato	-9.87662
▁creato	-9.87891
▁separ	-9.88188
▁ordina	-9.88564
▁paga	-9.89031
▁seppe	-9.89115
▁Betlemme	-9.89137
▁Zadòk	-9.89137
▁benevolenza	-9.89137
▁Cananei	-9.89137
▁coppa	-9.89138
▁medesim	-9.89138
▁ardente	-9.89138
▁Ester	-9.89146
▁governatore	-9.89149
▁stima	-9.89163
▁aperto	-9.89201
espiazione	-9.89223
▁risuscitato	-9.89269
▁bagn	-9.89274
▁Aser	-9.89288
ttanta	-9.89374
▁profetizza	-9.89406
▁concep	-9.89411
▁duecento	-9.89471
▁numerosi	-9.89756
▁alzarono	-9.89768
▁segni	-9.89844
▁presa	-9.90266
▁Quell	-9.90294
▁crea	-9.91012
▁Nèftali	-9.91098
▁Roboamo	-9.91098
▁appartiene	-9.91098
▁comandamenti	-9.91098
▁superbi	-9.91098
▁cedro	-9.91099
▁accoglie	-9.91101
▁uscirà	-9.91102
▁piaga	-9.91109
▁viscere	-9.91117
▁domina	-9.91133
▁inviato	-9.91137
▁giur	-9.91205
▁resterà	-9.91311
▁usciva	-9.91344
▁entrerà	-9.91392
▁manifest	-9.92142
▁prepar	-9.92466
▁ricev	-9.92662
▁discende	-9.9292
▁Gàbaa	-9.93098
▁desidera	-9.93098
▁frontiera	-9.93098
▁mangerete	-9.93098
▁moltiplica	-9.93098
▁raggiunge	-9.93098
▁ricostrui	-9.93098
▁bontà	-9.93098
▁colpevole	-9.93098
orgoglio	-9.93098
▁dispersi	-9.93098
▁Simeone	-9.93098
▁Amàn	-9.93099
Altissimo	-9.931
▁Ioram	-9.93106
▁distrutto	-9.93111
▁regina	-9.93112
▁tesoro	-9.93115
▁rotol	-9.93117
▁aiuta	-9.93141
▁vendetta	-9.93196
oppresso	-9.93224
▁viventi	-9.9332
▁nuova	-9.93351
▁dirgli	-9.93492
▁agita	-9.93774
▁capro	-9.93837
insegn	-9.94053
▁abomini	-9.94148
vestì	-9.95138
▁Ioiadà	-9.95138
▁compassione	-9.95138
▁dottrina	-9.95138
▁ricerca	-9.95138
▁fondamenta	-9.95139
▁stepp	-9.95139
▁cadranno	-9.95139
▁fonda	-9.95142
▁fatica	-9.95149
▁confusi	-9.95149
▁Chiesa	-9.95152
▁lettera	-9.9516
▁vanno	-9.95166
▁compiere	-9.95186
▁vengono	-9.95211
seguì	-9.9529
▁dimostr	-9.95343
▁quarant	-9.95374
▁corona	-9.95445
▁punto	-9.95581
▁principi	-9.96229
eredità	-9.96299
▁avrebbe	-9.96379
Su	-9.96445
nderò	-9.96453
termin	-9.96546
▁nuo	-9.96917
▁govern	-9.97208
▁prigioni	-9.97217
▁Zàbulon	-9.97222
▁trombe	-9.97222
▁aggiunse	-9.97222
▁banchetto	-9.97222
▁schiavitù	-9.97222
▁ascolto	-9.97222
▁insulta	-9.97222
▁prostitut	-9.97222
▁sacro	-9.97225
▁stelle	-9.97229
orzo	-9.97248
▁accusa	-9.97253
▁prezzo	-9.97287
▁agito	-9.97374
▁esalt	-9.97456
▁devast	-9.98261
▁giudizi	-9.98361
Port	-9.98814
▁ridott	-9.98953
▁lung	-9.99023
▁glori	-9.99171
▁sacri	-9.9934
▁Keat	-9.99349
▁Rachele	-9.99349
▁cammelli	-9.99349
▁giovinezza	-9.99349
▁menzogne	-9.99349
▁Azaria	-9.9935
▁Basan	-9.9935
▁rigett	-9.9935
▁notizia	-9.9935
▁ufficiali	-9.99351
▁altrimenti	-9.99351
▁scriba	-9.99352
▁riserv	-9.99354
▁Tra	-9.99357
▁satana	-9.99357
▁glorifica	-9.99363
▁bisso	-9.99364
▁prelev	-9.99408
▁pens	-10.0024
venterà	-10.0059
oblazione	-10.006
▁Sòdoma	-10.0152
▁demòni	-10.0152
▁desolazione	-10.0152
▁guadagn	-10.0152
▁risurrezione	-10.0152
▁sconfisse	-10.0152
▁lebbra	-10.0152
▁niente	-10.0152
▁colpì	-10.0152
▁tolto	-10.0152
▁prigionieri	-10.0153
▁deciso	-10.0153
▁recinto	-10.0153
▁selva	-10.0155
▁Iesse	-10.0156
▁ritira	-10.0157
▁veglia	-10.0171
▁marcia	-10.0174
▁trecento	-10.0176
▁quinto	-10.018
▁Fara	-10.019
▁talenti	-10.019
▁vendic	-10.0222
▁pronunzi	-10.0233
▁agisc	-10.0278
▁vecchi	-10.0294
▁elev	-10.0349
centocinquanta	-10.0375
▁Ismaele	-10.0375
▁cavalieri	-10.0375
▁giudici	-10.0375
▁pensieri	-10.0375
▁scarlatto	-10.0375
▁successo	-10.0375
▁aggiung	-10.0375
▁qualcosa	-10.0375
▁fiamme	-10.0375
▁carcer	-10.0375
▁vanità	-10.0375
▁impost	-10.0375
▁voglia	-10.0375
▁statua	-10.0376
▁soave	-10.0377
▁vacill	-10.0378
▁onora	-10.038
Maestro	-10.0386
▁soffio	-10.0386
▁indoss	-10.0397
seguirono	-10.0407
▁barca	-10.0411
▁Cas	-10.0411
▁andati	-10.0435
▁sapeva	-10.0445
▁capac	-10.0454
▁rimand	-10.0478
Dice	-10.0534
Onnipotente	-10.0602
▁carestia	-10.0602
▁offrì	-10.0602
▁pubblic	-10.0602
▁superstiti	-10.0602
▁aprì	-10.0602
▁sepolto	-10.0602
▁nudità	-10.0602
▁ragione	-10.0602
▁stanze	-10.0602
▁sfugg	-10.0602
▁Venne	-10.0602
▁ripudi	-10.0602
▁compagni	-10.0602
▁destinat	-10.0602
▁debole	-10.0602
▁portico	-10.0602
▁conduce	-10.0603
▁venticinque	-10.0604
▁strument	-10.0606
▁siede	-10.0631
▁punir	-10.0715
▁devastat	-10.0725
Voi	-10.0745
▁Kiriat	-10.0834
▁Balak	-10.0834
▁cadavere	-10.0834
▁coraggio	-10.0834
▁innanzi	-10.0834
▁inoltre	-10.0834
▁sinagoga	-10.0834
▁valorosi	-10.0834
▁Benaià	-10.0834
▁precipit	-10.0834
▁Partirono	-10.0834
▁soldati	-10.0834
▁vedrà	-10.0835
▁generazioni	-10.0835
▁imped	-10.0835
▁libero	-10.0835
▁Prende	-10.0835
▁peggio	-10.0835
occasione	-10.0835
▁sacrifica	-10.0836
▁miseria	-10.0837
▁antichi	-10.0837
▁amico	-10.0838
▁asini	-10.0842
▁chiude	-10.0842
▁spunt	-10.0843
▁strett	-10.0852
▁malvagità	-10.0854
▁stese	-10.087
cinque	-10.0937
centotrenta	-10.0978
Quando	-10.098
▁insist	-10.0998
▁Gedeone	-10.1072
▁Giacomo	-10.1072
▁orientale	-10.1072
▁ragazzo	-10.1072
▁risparmi	-10.1072
▁decreto	-10.1072
▁vergine	-10.1073
▁migliaia	-10.1073
▁difesa	-10.1073
▁Ghi	-10.1073
▁falso	-10.1073
▁grave	-10.1074
▁conclus	-10.1074
▁corna	-10.1074
▁Erode	-10.1074
▁feci	-10.1075
▁santifica	-10.1078
▁rendi	-10.1081
▁diletto	-10.1085
▁Fino	-10.1086
▁sovr	-10.1089
▁liberer	-10.1091
▁voluto	-10.1094
nunc	-10.1141
▁cav	-10.1167
▁maschi	-10.1218
incenso	-10.1224
intorno	-10.1225
Ascolt	-10.1308
▁Acaz	-10.1315
▁cancell	-10.1316
▁quattordici	-10.1316
▁ricompens	-10.1316
▁tribun	-10.1316
▁attenzione	-10.1316
▁sorvegli	-10.1316
▁vedranno	-10.1316
▁precetti	-10.1316
▁precede	-10.1317
▁cintura	-10.1317
▁Nilo	-10.1317
▁vittima	-10.1317
▁scudo	-10.1317
▁culto	-10.1317
▁rialz	-10.1317
▁minuto	-10.1317
▁scrive	-10.1317
▁anelli	-10.1318
▁serve	-10.1319
▁simili	-10.132
▁navi	-10.1322
▁corse	-10.1324
▁deportati	-10.1331
▁fortezza	-10.1334
▁coric	-10.1416
▁tener	-10.1419
incontr	-10.1433
animo	-10.1434
▁spia	-10.1443
▁ciascun	-10.1468
▁Issacar	-10.1566
▁avvenne	-10.1566
▁guerrieri	-10.1566
▁stabilì	-10.1566
▁mangerà	-10.1566
▁rovine	-10.1566
▁Tuttavia	-10.1566
omicida	-10.1566
▁Osserv	-10.1566
▁giubil	-10.1566
▁impor	-10.1566
▁Merari	-10.1567
▁Rama	-10.1567
▁siclo	-10.1568
▁tuttavia	-10.157
▁rivers	-10.1572
▁pozzo	-10.1574
▁inviò	-10.1576
▁senno	-10.1577
▁diecimila	-10.1579
▁Tal	-10.1594
▁prest	-10.1682
▁Amat	-10.1776
▁Gherson	-10.1823
▁Gàbaon	-10.1823
▁Inoltre	-10.1823
▁rispetto	-10.1823
▁creduto	-10.1823
▁lingue	-10.1823
▁rumore	-10.1823
▁scioglie	-10.1823
Bàal	-10.1823
▁spiriti	-10.1823
▁riferì	-10.1823
▁disonora	-10.1823
▁capelli	-10.1823
▁stolti	-10.1823
▁sacra	-10.1823
▁croce	-10.1824
▁cieco	-10.1825
▁termine	-10.1826
Benedett	-10.1826
▁sicuro	-10.1826
esterno	-10.1827
▁pezzo	-10.183
▁Col	-10.1852
▁cuor	-10.187
▁proclam	-10.1882
▁Seir	-10.1907
▁Entr	-10.191
istante	-10.2008
▁Pot	-10.2054
▁risuscit	-10.2068
▁disprezz	-10.2078
▁Gàlgala	-10.2086
▁Izreèl	-10.2086
▁Sansone	-10.2086
▁candelabro	-10.2086
▁conquist	-10.2086
▁crocifiss	-10.2086
▁giudicher	-10.2086
▁opprime	-10.2086
▁primizie	-10.2086
▁sacerdozio	-10.2086
▁superiore	-10.2086
▁salario	-10.2086
▁Anania	-10.2086
▁caduta	-10.2086
▁risult	-10.2086
▁selvatiche	-10.2086
▁libazioni	-10.2086
▁sparge	-10.2086
▁guarir	-10.2086
▁minaccia	-10.2086
▁malizia	-10.2086
▁ruba	-10.2087
ronache	-10.2087
▁edifica	-10.2088
▁piega	-10.2089
▁sorta	-10.2089
▁Uria	-10.209
▁Sinai	-10.209
▁usciti	-10.2093
▁sedere	-10.2096
▁inarid	-10.2109
▁fiss	-10.2143
▁suscit	-10.2211
Con	-10.2235
acquist	-10.2343
sosten	-10.2351
▁impadron	-10.2356
Costui	-10.2356
▁autorità	-10.2356
▁giovenchi	-10.2356
▁grembo	-10.2356
▁necessario	-10.2356
▁piazze	-10.2356
▁prescrizion	-10.2356
▁qualsiasi	-10.2356
▁riguarda	-10.2356
▁troverà	-10.2356
▁toccò	-10.2356
▁lacrime	-10.2356
▁inciamp	-10.2356
▁trovi	-10.2356
▁uccisi	-10.2356
▁stanghe	-10.2356
▁cortile	-10.2356
Venite	-10.2357
▁pecora	-10.2357
▁calice	-10.2357
▁sedette	-10.2357
▁forze	-10.2358
▁intris	-10.2358
▁condizione	-10.2359
▁credi	-10.2362
▁Persia	-10.2363
ottavo	-10.2364
▁dovunque	-10.2365
▁percosse	-10.2399
▁riten	-10.2423
▁serva	-10.2598
▁finir	-10.2616
▁suppli	-10.262
omini	-10.2621
Hadàd	-10.2634
▁Filippo	-10.2634
▁meraviglie	-10.2634
▁muoia	-10.2634
▁riguardi	-10.2634
▁risposta	-10.2634
▁risposto	-10.2634
▁rugiada	-10.2634
▁sconvol	-10.2634
▁soddisf	-10.2634
▁stoltezza	-10.2634
▁muore	-10.2634
▁rivolse	-10.2634
▁paterni	-10.2634
▁paesi	-10.2634
▁Caleb	-10.2634
▁triste	-10.2634
▁armenti	-10.2634
▁torni	-10.2634
▁dolori	-10.2634
▁focacc	-10.2634
▁vittime	-10.2635
▁svegli	-10.2635
▁vivrà	-10.2635
posizione	-10.2635
▁torment	-10.2635
▁ciechi	-10.2636
▁Acazia	-10.2636
▁vicina	-10.2636
▁rientr	-10.2638
▁irrit	-10.2645
▁fossi	-10.2662
▁voleva	-10.2718
N	-10.2753
▁Kades	-10.292
▁fanciullo	-10.292
▁frecce	-10.292
▁gelosia	-10.292
▁rettitudine	-10.292
▁testimone	-10.292
▁immondi	-10.292
▁saccheggia	-10.292
▁tomba	-10.292
▁ricondur	-10.292
▁Negheb	-10.292
▁vedrete	-10.292
▁stupi	-10.292
▁Amazia	-10.292
▁regioni	-10.292
▁rupe	-10.292
▁condotti	-10.2921
▁corni	-10.2921
▁conged	-10.2922
▁rossa	-10.2922
▁sentieri	-10.2923
▁venite	-10.2923
▁spine	-10.2924
▁vigore	-10.2924
▁levita	-10.2927
▁odio	-10.2931
abisso	-10.2956
▁Dall	-10.2989
▁tutt	-10.3027
▁eseguir	-10.3197
▁nascon	-10.3203
▁divenut	-10.3207
▁Bersabea	-10.3214
▁Costoro	-10.3214
▁Ioiakìm	-10.3214
▁Obed	-10.3214
▁cisterna	-10.3214
▁davvero	-10.3214
▁dipendenze	-10.3214
▁mangeranno	-10.3214
▁montagna	-10.3214
▁scongiur	-10.3214
▁serpente	-10.3214
▁vantaggio	-10.3214
▁cattivo	-10.3214
▁molta	-10.3214
▁diavolo	-10.3214
▁cavallo	-10.3214
▁difetto	-10.3214
▁cadrà	-10.3214
▁saldo	-10.3214
▁visioni	-10.3214
▁realtà	-10.3214
▁stracci	-10.3214
▁liberi	-10.3214
▁basso	-10.3216
▁dirige	-10.3216
▁aperta	-10.322
▁stele	-10.322
▁esiste	-10.3221
▁visita	-10.3222
▁protegg	-10.3226
▁tace	-10.3227
▁avessi	-10.3263
▁assegnat	-10.3369
Così	-10.3425
▁disperde	-10.3425
vrebbero	-10.3439
▁scacci	-10.3508
▁Filisteo	-10.3517
▁Scrittura	-10.3517
▁mangerai	-10.3517
▁pazienza	-10.3517
▁pianura	-10.3517
▁provincia	-10.3517
▁schiave	-10.3517
▁soggiunse	-10.3517
▁ultimi	-10.3517
▁agguato	-10.3517
▁appunt	-10.3517
▁frumento	-10.3517
▁ruote	-10.3517
▁vittoria	-10.3517
▁discute	-10.3517
▁dolce	-10.3517
▁compagno	-10.3517
▁torto	-10.3518
▁vitello	-10.3518
▁valore	-10.3519
▁Simei	-10.3521
▁corri	-10.3521
▁restaur	-10.3527
▁afflitt	-10.3528
▁cuoc	-10.3603
▁grid	-10.3657
▁assegn	-10.3667
▁tenebr	-10.3725
▁sdegn	-10.3731
▁terz	-10.3762
▁irr	-10.3825
Agnello	-10.3829
▁Rebecca	-10.3829
▁coscienza	-10.3829
▁oppure	-10.3829
▁scherno	-10.3829
▁spezzer	-10.3829
▁giunta	-10.3829
▁membra	-10.3829
▁riparazione	-10.3829
▁caduti	-10.3829
▁percuote	-10.3829
▁perfetta	-10.3829
▁cittadin	-10.3829
▁mietitura	-10.3829
ultimo	-10.383
▁carni	-10.383
▁vedono	-10.383
▁arresta	-10.383
▁norme	-10.383
▁sabati	-10.383
▁spazio	-10.383
▁falsi	-10.383
▁attenta	-10.3831
▁sincer	-10.3832
sentì	-10.3833
Ritorn	-10.3837
▁tard	-10.3837
▁isole	-10.3838
▁ripet	-10.3867
▁stesse	-10.3892
▁ridurr	-10.391
▁ammon	-10.3929
▁Chelkia	-10.4152
▁Sidòne	-10.4152
▁bestemmia	-10.4152
▁lampade	-10.4152
▁messaggero	-10.4152
▁parabola	-10.4152
▁preghiere	-10.4152
▁profumi	-10.4152
▁ascolti	-10.4152
▁afferma	-10.4152
▁piccola	-10.4152
▁deposit	-10.4152
▁fiamma	-10.4152
▁Giona	-10.4152
▁Zerach	-10.4153
orfano	-10.4153
▁lontani	-10.4153
▁spetta	-10.4153
▁aument	-10.4153
▁chiesto	-10.4154
▁accade	-10.4157
Ezer	-10.4159
▁Chiese	-10.416
▁scrisse	-10.4168
▁manten	-10.4172
edero	-10.431
uscita	-10.4349
▁domande	-10.4351
▁cerv	-10.4385
▁benedett	-10.4402
immagine	-10.4485
obbrobrio	-10.4485
▁Safàn	-10.4485
▁accessori	-10.4485
▁discepolo	-10.4485
▁felice	-10.4485
▁miracoli	-10.4485
▁rimprovera	-10.4485
▁schiacciat	-10.4485
▁tribolazione	-10.4485
▁congiura	-10.4485
▁trafitti	-10.4485
▁Booz	-10.4485
▁Anzi	-10.4485
▁memoria	-10.4485
Araba	-10.4485
▁palazzi	-10.4485
▁colonna	-10.4485
▁Pertanto	-10.4486
▁dominio	-10.4486
▁udì	-10.4486
▁azzimi	-10.4486
ingiustizia	-10.4486
▁cenere	-10.4487
▁fondo	-10.4487
▁canna	-10.4487
▁lascerò	-10.4488
▁accende	-10.449
▁benefic	-10.4499
scendono	-10.4505
▁inizi	-10.4702
▁pronunziat	-10.4703
▁consacr	-10.4755
▁fabbrica	-10.483
Hittita	-10.483
infedeltà	-10.483
▁Barnaba	-10.483
▁Hittiti	-10.483
▁Kis	-10.483
▁Pasqua	-10.483
▁coperchio	-10.483
▁fuggì	-10.483
▁rafforz	-10.483
▁settentrionale	-10.483
▁tranquilli	-10.483
uccello	-10.483
▁Legge	-10.483
▁bevuto	-10.483
▁eppure	-10.483
▁cattivi	-10.483
▁libertà	-10.483
▁toccher	-10.483
▁Iefte	-10.483
▁penetra	-10.483
▁preziose	-10.483
▁barba	-10.483
▁Dodici	-10.483
▁difetti	-10.483
▁prodotti	-10.483
▁Semaia	-10.483
▁esorta	-10.483
▁libazione	-10.4831
▁tramonto	-10.4831
▁scaccer	-10.4831
▁fragore	-10.4831
▁migliore	-10.4831
▁eravamo	-10.4832
▁Carmel	-10.4832
▁ricopr	-10.4833
▁accorse	-10.4833
▁nasce	-10.4833
▁Torn	-10.4835
Elam	-10.491
▁stend	-10.4927
Anch	-10.5129
accompagna	-10.5187
▁Amnòn	-10.5187
▁Godolia	-10.5187
▁ministero	-10.5187
▁occidentale	-10.5187
▁primogeniti	-10.5187
▁rattrist	-10.5187
▁sciagura	-10.5187
▁tranquillo	-10.5187
▁portieri	-10.5187
▁spegne	-10.5187
▁strage	-10.5187
▁Baasa	-10.5187
▁Cesare	-10.5187
▁Alcuni	-10.5187
▁lievito	-10.5187
▁mormora	-10.5187
▁vergini	-10.5187
▁esilio	-10.5187
▁percorre	-10.5188
ruppe	-10.5188
▁coppier	-10.5188
▁radici	-10.5188
▁comune	-10.5188
▁esamina	-10.5188
▁martell	-10.5188
▁cinge	-10.5188
▁piazza	-10.5189
▁riprese	-10.519
▁annienta	-10.519
▁desist	-10.521
▁proced	-10.5219
▁gust	-10.5222
▁difend	-10.5227
▁consider	-10.524
▁scoprir	-10.5287
errore	-10.5391
▁ancor	-10.5393
▁url	-10.5427
▁uccid	-10.5461
venuto	-10.547
▁fanciulla	-10.5558
▁prìncipi	-10.5558
▁raggiunse	-10.5558
▁tempesta	-10.5558
aquila	-10.5558
▁cattura	-10.5558
▁lassù	-10.5558
▁frantum	-10.5558
▁giaciglio	-10.5558
▁offre	-10.5558
▁apparteneva	-10.5558
▁zelo	-10.5558
▁sbran	-10.5558
▁caduto	-10.5558
▁vedove	-10.5558
▁paglia	-10.5558
▁vedrai	-10.5558
▁richiest	-10.5558
▁governatori	-10.5558
▁Adonia	-10.5558
stituì	-10.5558
▁scelti	-10.5558
▁smarr	-10.5558
▁saldi	-10.5559
▁pregò	-10.5559
▁confort	-10.5559
▁Sull	-10.5559
occorre	-10.556
▁comunic	-10.5562
▁resping	-10.5566
▁trascin	-10.5569
▁gen	-10.5579
nvece	-10.5656
▁distrugg	-10.5737
Poiché	-10.585
roprio	-10.5939
immondezza	-10.5942
oscurità	-10.5942
▁Abisài	-10.5942
▁Amalek	-10.5942
▁Assuero	-10.5942
▁Chesbon	-10.5942
▁Zeruià	-10.5942
▁bianco	-10.5942
▁cherubino	-10.5942
▁esplorar	-10.5942
▁meraviglia	-10.5942
▁meridionale	-10.5942
▁messaggio	-10.5942
▁straniere	-10.5942
▁cavalca	-10.5942
▁felici	-10.5942
▁giusta	-10.5942
▁contrario	-10.5942
▁maestà	-10.5942
▁caverna	-10.5942
▁oppor	-10.5942
▁Ramot	-10.5942
▁coppe	-10.5942
▁Riprese	-10.5942
▁sandali	-10.5942
▁acacia	-10.5942
▁bellezza	-10.5942
▁radice	-10.5943
▁Rosso	-10.5943
▁scruta	-10.5943
▁realizz	-10.5943
angolo	-10.5943
▁migliori	-10.5943
▁tolse	-10.5943
infamia	-10.5943
▁riport	-10.5943
assedio	-10.5943
▁corda	-10.5943
▁preferi	-10.5945
▁avvenut	-10.5947
▁scont	-10.5996
▁addett	-10.6002
▁fost	-10.6053
▁permett	-10.6088
milacinquecento	-10.6342
▁Esdra	-10.6342
▁Mesullàm	-10.6342
▁Nebàt	-10.6342
▁Sallùm	-10.6342
▁concubina	-10.6342
▁fanciulli	-10.6342
▁magistrati	-10.6342
▁malfattori	-10.6342
▁raccolse	-10.6342
▁ringrazi	-10.6342
▁scherni	-10.6342
▁splende	-10.6342
▁virtù	-10.6342
▁misurò	-10.6342
▁montone	-10.6342
▁rovesci	-10.6342
▁soggiorn	-10.6342
▁giunti	-10.6342
▁cresciut	-10.6342
▁estende	-10.6342
▁abbass	-10.6342
▁preziosi	-10.6342
▁vestibolo	-10.6342
▁impose	-10.6342
▁Ebrei	-10.6342
▁Baruc	-10.6342
▁Maledett	-10.6342
▁umana	-10.6342
▁immonda	-10.6343
▁predetto	-10.6343
▁diffus	-10.6343
▁coperta	-10.6343
▁foresta	-10.6343
▁scelta	-10.6343
▁vicenda	-10.6343
▁riprende	-10.6343
▁tenut	-10.6431
▁oliv	-10.6485
▁colpisc	-10.658
empietà	-10.6624
▁cert	-10.6696
improvviso	-10.6759
▁Gebusei	-10.6759
▁abominevoli	-10.6759
▁pettorale	-10.6759
▁prescritt	-10.6759
▁proposito	-10.6759
▁rispondi	-10.6759
▁scompars	-10.6759
▁volontari	-10.6759
▁Ioacaz	-10.6759
▁genitori	-10.6759
▁sostegno	-10.6759
▁costruzione	-10.6759
▁palazzo	-10.6759
▁materno	-10.6759
▁succed	-10.6759
▁partecipa	-10.6759
▁parlerò	-10.6759
▁cedri	-10.6759
▁romp	-10.676
▁rivestir	-10.6761
▁relativ	-10.6761
▁dispost	-10.6763
afflizione	-10.6769
Arnon	-10.6791
insegnamento	-10.6949
▁oppressi	-10.704
▁quand	-10.7095
Quant	-10.7101
▁Quel	-10.7107
seguito	-10.7115
manderà	-10.7177
▁votat	-10.7183
▁Ebiatàr	-10.7194
▁Gomorra	-10.7194
▁Testimonianza	-10.7194
▁ascoltò	-10.7194
▁fanciulle	-10.7194
▁femmina	-10.7194
▁ginocchia	-10.7194
▁superstite	-10.7194
▁circoncid	-10.7194
▁divinità	-10.7194
▁trionf	-10.7194
▁eunuchi	-10.7194
▁Salutate	-10.7194
▁angoli	-10.7194
▁possibile	-10.7194
▁battesimo	-10.7194
▁pensiero	-10.7194
▁celeste	-10.7194
▁trascur	-10.7194
▁doppio	-10.7194
impegn	-10.7196
▁sterminer	-10.7208
▁narr	-10.7212
▁sarem	-10.727
▁gall	-10.7299
▁espiatori	-10.7549
▁Cazaèl	-10.7648
▁Macedonia	-10.7648
▁Timòteo	-10.7648
▁centinaia	-10.7648
▁misfatti	-10.7648
▁scettro	-10.7648
▁sinagoghe	-10.7648
▁sinedrio	-10.7648
▁stringe	-10.7648
▁veggente	-10.7648
comandò	-10.7648
▁progetti	-10.7648
▁scoperto	-10.7648
Fratelli	-10.7648
iniquo	-10.7648
investitura	-10.7648
▁esercita	-10.7648
▁rimanga	-10.7648
▁cattiva	-10.7648
▁rocce	-10.7648
▁Venut	-10.7648
▁bevanda	-10.7648
▁riflett	-10.7648
▁diciotto	-10.7648
▁maltratt	-10.7649
▁sceglie	-10.765
▁confess	-10.765
▁arricch	-10.7655
▁croll	-10.7662
▁plac	-10.7671
▁custodisc	-10.7714
▁muov	-10.7724
frutt	-10.7856
▁Rend	-10.787
▁cinquant	-10.7927
Forse	-10.8032
1	-10.8124
Eufrate	-10.8124
Oltrefiume	-10.8124
▁Alleluia	-10.8124
▁Iabes	-10.8124
▁Mizpà	-10.8124
▁Scritture	-10.8124
▁Soltanto	-10.8124
▁appoggia	-10.8124
▁capifamiglia	-10.8124
▁designat	-10.8124
▁funzionari	-10.8124
▁gonfi	-10.8124
▁guarito	-10.8124
▁inginocchi	-10.8124
▁padroni	-10.8124
▁prostituzione	-10.8124
▁splendid	-10.8124
▁tributo	-10.8124
▁troverete	-10.8124
▁truppa	-10.8124
▁contempl	-10.8124
▁giovinett	-10.8124
▁giuste	-10.8124
▁lampada	-10.8124
▁violento	-10.8124
▁incaricat	-10.8124
(	-10.9151
)	-10.9706
é	-11.9586
’	-11.9602
]	-12.9102
j	-13.4102
J	-14.4089
9	-14.409
0	-14.4091
8	-14.4092
7	-14.4093
5	-14.4094
4	-14.4095
3	-14.4096
2	-14.4097
6	-14.4098
K	-14.4099
H	-14.41
Q	-14.4101
}	-14.4102
«	-14.4102
