<pad>	0
</s>	0
<unk>	0
▁¦	-0
्य	-1
्या	-2
▁क	-3
्र	-4
ार	-5
▁आ	-6
▁स	-7
ां	-8
ना	-9
▁प	-10
ात	-11
▁म	-12
र्	-13
हे	-14
ला	-15
▁अ	-16
▁व	-17
च्या	-18
क्	-19
▁त	-20
ले	-21
ही	-22
ण्या	-23
ल्या	-24
चा	-25
वा	-26
ती	-27
्ह	-28
रो	-29
ची	-30
िक	-31
▁द	-32
▁य	-33
▁.	-34
सा	-35
▁ज	-36
स्	-37
▁ह	-38
▁आहे	-39
ली	-40
ने	-41
ून	-42
णि	-43
रा	-44
ता	-45
ंत	-46
▁ल	-47
▁प्र	-48
▁न	-49
्ये	-50
मध	-51
णा	-52
मा	-53
कर	-54
ित	-55
क्ष	-56
▁अस	-57
चे	-58
का	-59
ठी	-60
▁कर	-61
्यां	-62
▁ब	-63
मध्ये	-64
वर	-65
▁आणि	-66
▁श	-67
नी	-68
प्र	-69
साठी	-70
▁,	-71
रोना	-72
▁को	-73
▁हो	-74
ते	-75
या	-76
▁र	-77
▁सं	-78
वि	-79
सं	-80
▁के	-81
पा	-82
झा	-83
ग्	-84
लं	-85
ंद	-86
ील	-87
आहे	-88
▁का	-89
व्ह	-90
मु	-91
▁या	-92
कार	-93
शी	-94
्ट	-95
▁उ	-96
▁ग	-97
के	-98
पर	-99
ेश	-100
ण्यात	-101
▁वि	-102
ुग्	-103
ुर	-104
णे	-105
हि	-106
िं	-107
ेत	-108
को	-109
ाय	-110
त्	-111
चं	-112
▁ए	-113
सी	-114
▁घ	-115
री	-116
लेल्या	-117
तात	-118
वी	-119
नि	-120
हो	-121
ळे	-122
नाही	-123
कड	-124
ान	-125
ाण	-126
भा	-127
▁वा	-128
ांनी	-129
▁रा	-130
▁दि	-131
▁झा	-132
ारी	-133
द्	-134
ष्ट	-135
आणि	-136
▁नि	-137
ांना	-138
की	-139
रोग	-140
मी	-141
ोक	-142
से	-143
▁ड	-144
ारा	-145
सि	-146
▁ट	-147
वे	-148
ार्	-149
स्थ	-150
▁कोरोना	-151
▁ला	-152
सर्	-153
▁त्या	-154
ुग्ण	-155
णी	-156
ऱ्या	-157
त्या	-158
मुळे	-159
बा	-160
जन	-161
▁जा	-162
ंत्र	-163
गा	-164
▁इ	-165
तर	-166
▁म्ह	-167
ण्यासाठी	-168
▁स्	-169
तो	-170
▁पर	-171
▁मा	-172
ांच्या	-173
ल्	-174
▁आहेत	-175
अस	-176
ंतर	-177
न्	-178
▁फ	-179
स्त	-180
शा	-181
▁सा	-182
तील	-183
्यात	-184
ुस	-185
ळा	-186
जे	-187
20	-188
▁नाही	-189
ांग	-190
िती	-191
रकार	-192
▁(	-193
टी	-194
हा	-195
19	-196
▁पा	-197
िंवा	-198
णार	-199
▁भ	-200
िल	-201
▁"	-202
रोग्य	-203
▁शक	-204
्रा	-205
ति	-206
जा	-207
▁राज	-208
पास	-209
्ही	-210
म्ह	-211
धी	-212
▁मु	-213
धिक	-214
क्र	-215
स्ट	-216
दि	-217
▁त्यां	-218
▁रुग्ण	-219
ातील	-220
▁ठ	-221
जी	-222
ळी	-223
्यंत	-224
नंतर	-225
ंट	-226
चार	-227
▁हे	-228
ांची	-229
ूर्	-230
▁ते	-231
ये	-232
▁ये	-233
▁दे	-234
ाणू	-235
▁ख	-236
षाणू	-237
पे	-238
▁सुर	-239
व्हि	-240
्यू	-241
करण	-242
वस	-243
क्षा	-244
कोरोना	-245
द्ध	-246
ण्याची	-247
▁चा	-248
ंद्र	-249
▁लोक	-250
▁उप	-251
णाऱ्या	-252
-19	-253
ऊन	-254
मे	-255
ंध	-256
ांमध्ये	-257
क्त	-258
ंब	-259
िट	-260
दी	-261
यो	-262
▁1	-263
ृत	-264
▁एक	-265
दा	-266
रे	-267
जार	-268
शि	-269
णं	-270
र्ष	-271
लय	-272
▁लस	-273
क्सि	-274
▁ऑ	-275
बत	-276
▁म्हण	-277
ताना	-278
▁पु	-279
ख्या	-280
▁सर्	-281
ज्	-282
देश	-283
गी	-284
▁लाग	-285
श्	-286
पर्यंत	-287
माण	-288
▁सरकार	-289
द्या	-290
ेल	-291
ंड	-292
ईल	-293
▁च	-294
▁'	-295
▁मो	-296
▁किंवा	-297
▁तर	-298
वार	-299
ष्ट्र	-300
ेव	-301
सर्ग	-302
तं	-303
मो	-304
हिती	-305
मान	-306
▁आरोग्य	-307
पासून	-308
क्ट	-309
बंध	-310
टा	-311
▁मह	-312
ुग्णा	-313
▁काही	-314
र्म	-315
▁परि	-316
ोन	-317
दे	-318
ांचा	-319
व्हिड	-320
रात	-321
▁कार	-322
▁डॉ	-323
▁सांग	-324
शक	-325
ायर	-326
▁यांनी	-327
▁ध	-328
▁ना	-329
र्थ	-330
▁वाढ	-331
डे	-332
मंत्र	-333
त्र	-334
▁असल्या	-335
▁तु	-336
डी	-337
ोल	-338
आहेत	-339
▁करण्यात	-340
कडा	-341
▁की	-342
▁कमी	-343
टे	-344
प्	-345
▁वे	-346
▁व्य	-347
गर	-348
पूर्	-349
▁देश	-350
सार	-351
क्ती	-352
्यु	-353
क्सिजन	-354
▁आप	-355
▁बा	-356
राज	-357
▁जात	-358
ब्	-359
▁सर्व	-360
क्षण	-361
▁असं	-362
▁लशी	-363
▁निर्	-364
नेक	-365
्यांना	-366
▁मि	-367
वारी	-368
वड	-369
स्थिती	-370
कडे	-371
ठा	-372
ॉकडा	-373
▁विषाणू	-374
▁केली	-375
▁ही	-376
्स	-377
्रे	-378
▁हा	-379
▁लसी	-380
िका	-381
द्य	-382
खा	-383
म्ही	-384
▁घे	-385
▁गे	-386
▁चाच	-387
व्य	-388
ायरस	-389
▁पण	-390
िया	-391
दल	-392
▁भार	-393
सो	-394
ूर	-395
भाग	-396
र्स	-397
▁अधिक	-398
गे	-399
ृत्यू	-400
िंग	-401
पु	-402
रुग्ण	-403
ात्र	-404
▁20	-405
थे	-406
ुसार	-407
ण्याचा	-408
▁𐊣	-409
तिक	-410
ाराष्ट्र	-411
ज्ञ	-412
कीय	-413
च्	-414
ढळ	-415
▁व्ह	-416
िल्ह	-417
ीय	-418
बाबत	-419
▁करोना	-420
्यक	-421
ुग्णालय	-422
▁आले	-423
▁माहिती	-424
मंत्री	-425
शन	-426
ल्यानंतर	-427
मि	-428
दर	-429
ण्यास	-430
▁लक्ष	-431
ांत	-432
ांवर	-433
▁क्	-434
व्ही	-435
▁होते	-436
सुर	-437
लोक	-438
वात	-439
▁करा	-440
▁शि	-441
पेक्षा	-442
ख्य	-443
ॉकडाऊन	-444
ोध	-445
▁सुरू	-446
णाम	-447
औष	-448
ंभ	-449
▁केले	-450
स्प	-451
नुसार	-452
▁:	-453
िय	-454
▁मार्	-455
▁¦1	-456
▁संसर्ग	-457
व्हा	-458
वश	-459
▁2	-460
यु	-461
मधील	-462
ध्य	-463
▁वापर	-464
▁स्थ	-465
ेड	-466
वश्यक	-467
औषध	-468
उप	-469
ाप	-470
एक	-471
लस	-472
ाला	-473
त्यां	-474
स्क	-475
वेश	-476
▁कोव्हिड	-477
दर्	-478
ध्या	-479
नं	-480
कडून	-481
पण	-482
▁C	-483
तु	-484
परि	-485
नो	-486
बी	-487
▁शा	-488
क्रम	-489
▁बंद	-490
जात	-491
▁घेत	-492
▁सु	-493
लाग	-494
म्हण	-495
खी	-496
सरकार	-497
सह	-498
यार	-499
▁केंद्र	-500
ठ्या	-501
टलं	-502
▁दिवस	-503
▁)	-504
▁उत्	-505
▁इतर	-506
▁ऑक्सिजन	-507
पी	-508
▁काम	-509
▁वर्ष	-510
लब्	-511
0¦	-512
किंवा	-513
वळ	-514
लब्ध	-515
्हे	-516
▁-	-517
ंबई	-518
ष्	-519
▁कु	-520
मह	-521
ंप	-522
क्के	-523
▁ज्या	-524
र्क	-525
▁अनेक	-526
ांसाठी	-527
ीर	-528
▁से	-529
ल्याचं	-530
▁आली	-531
▁हात	-532
काही	-533
▁आज	-534
ाणी	-535
आरोग्य	-536
वाढ	-537
णाले	-538
ओव्ही	-539
वं	-540
वत	-541
ाल	-542
ऱ्यां	-543
▁ने	-544
हिन	-545
▁ती	-546
▁केला	-547
▁होती	-548
▁असलेल्या	-549
▁एका	-550
गळ	-551
न्स	-552
▁जे	-553
▁दिस	-554
ांचे	-555
धार	-556
ोस	-557
▁प्रति	-558
▁दुस	-559
▁जास्त	-560
भार	-561
व्या	-562
▁करण्यासाठी	-563
सर	-564
प्रिल	-565
योग	-566
▁?	-567
▁काय	-568
डॉ	-569
लक्ष	-570
▁येत	-571
सर्गा	-572
▁काळ	-573
यांनी	-574
▁मृत्यू	-575
ण्याच्या	-576
ूग्	-577
वस्थ	-578
ष्टी	-579
क्टर	-580
धान	-581
सांग	-582
▁नो	-583
▁निय	-584
▁पो	-585
सु	-586
कमी	-587
▁आता	-588
्यता	-589
पो	-590
त्वा	-591
▁दु	-592
विक	-593
सीओव्ही	-594
▁प्रा	-595
निर्	-596
▁मान	-597
म्हाला	-598
▁पुर	-599
लेले	-600
विषाणू	-601
वाय	-602
वास	-603
▁यु	-604
▁आढळ	-605
▁रो	-606
▁सो	-607
▁झाला	-608
करण्यात	-609
लेली	-610
▁च्या	-611
▁महाराष्ट्र	-612
▁दा	-613
▁प्रमाण	-614
ल्याने	-615
विड	-616
▁झाली	-617
▁होता	-618
रि	-619
▁मध	-620
▁चाचणी	-621
वीन	-622
ैद्य	-623
▁रे	-624
पणे	-625
▁रुग्णालय	-626
ैकी	-627
मार्	-628
ातून	-629
VI	-630
OVI	-631
होत	-632
मक	-633
ैद्यकीय	-634
▁करत	-635
संख्या	-636
OVID	-637
हर	-638
▁व्यक्ती	-639
म्या	-640
िके	-641
▁होत	-642
पूर्ण	-643
▁दोन	-644
▁जिल्ह	-645
लशी	-646
बंद	-647
▁सांगित	-648
▁3	-649
चाच	-650
डा	-651
असं	-652
▁असे	-653
▁राह	-654
▁त्यांच्या	-655
लक	-656
शे	-657
▁नस	-658
घे	-659
▁कोण	-660
लो	-661
दु	-662
करणा	-663
िन	-664
लसी	-665
ंभीर	-666
असे	-667
शास	-668
ख्ये	-669
▁म्हणून	-670
▁व्हायरस	-671
▁गर	-672
▁लॉकडाऊन	-673
सेस	-674
co	-675
्यातील	-676
▁समा	-677
मच्या	-678
▁पूर्	-679
गरिक	-680
▁असेल	-681
▁COVID	-682
चीन	-683
केली	-684
वान	-685
▁औषध	-686
▁परिणाम	-687
▁झालेल्या	-688
ल्यास	-689
00	-690
हेर	-691
विध	-692
नु	-693
ूक	-694
ोग	-695
▁क्ष	-696
िम	-697
पुर	-698
▁संख्या	-699
ढे	-700
वर्ष	-701
▁करून	-702
काळ	-703
▁सम	-704
भाव	-705
िव्ह	-706
▁लसीकरण	-707
पाद	-708
लाव	-709
हान	-710
-19¦	-711
▁मार्च	-712
▁ठेव	-713
द्यार्थ	-714
▁यांच्या	-715
ास	-716
▁मिळ	-717
▁दिली	-718
णय	-719
▁टा	-720
▁असा	-721
▁5	-722
अधिक	-723
▁तयार	-724
बर	-725
लेला	-726
▁अशा	-727
▁उपचार	-728
सर्व	-729
िस	-730
▁परिस्थिती	-731
करा	-732
▁¦20	-733
▁दर	-734
▁उपलब्ध	-735
▁देण्यात	-736
शोध	-737
पैकी	-738
▁माग	-739
करे	-740
्री	-741
चित	-742
▁गो	-743
पूर	-744
द्दल	-745
्ल	-746
घट	-747
ठव	-748
ंदा	-749
ईन	-750
पर्क	-751
▁टक्के	-752
करोना	-753
क्स	-754
▁नोंद	-755
▁राज्य	-756
ात्	-757
ांचं	-758
ूग्ण	-759
▁थ	-760
▁म्हटलं	-761
वारे	-762
▁१	-763
▁त्यांना	-764
▁म्हणजे	-765
हात	-766
सोबत	-767
मडे	-768
म्यान	-769
भ्या	-770
▁आला	-771
▁आपल्या	-772
ुवात	-773
व्हायरस	-774
▁भाग	-775
▁मुंबई	-776
च्छ	-777
▁जो	-778
▁विक	-779
▁म्हणाले	-780
खील	-781
हीर	-782
▁मुख्य	-783
कोव्हिड	-784
्याय	-785
माहिती	-786
्हा	-787
गतिक	-788
त्त्वा	-789
धित	-790
▁केलं	-791
पाल	-792
▁त्यामुळे	-793
▁¦2	-794
साय	-795
पाय	-796
विष	-797
मडेसि	-798
बद्दल	-799
▁गेल्या	-800
संसर्ग	-801
आप	-802
प्रमा	-803
▁सार्	-804
▁पहि	-805
▁तो	-806
▁करणे	-807
▁सू	-808
▁रोग	-809
भरात	-810
भू	-811
िटल	-812
▁अशी	-813
वानगी	-814
कु	-815
▁तरी	-816
▁आजार	-817
दत	-818
ंना	-819
क्षित	-820
▁आम्ही	-821
▁राज्यात	-822
▁महिन	-823
▁हजार	-824
RS	-825
▁2020	-826
होते	-827
▁मात्र	-828
खल	-829
ण्याचे	-830
▁एप्रिल	-831
▁त्यांनी	-832
▁4	-833
ॉस्प	-834
न्हा	-835
ठवड	-836
वेळी	-837
काम	-838
मेर	-839
▁पे	-840
णारे	-841
फे	-842
वापर	-843
सुरू	-844
▁असून	-845
ंबर	-846
ोका	-847
▁बोल	-848
ज्या	-849
वरील	-850
मिक	-851
्रु	-852
▁चाचण्या	-853
ॉल	-854
प्प	-855
▁पड	-856
▁संसर्गा	-857
▁ठा	-858
▁सि	-859
निय	-860
र्ड	-861
भागा	-862
▁मुल	-863
ज्ज्ञ	-864
▁महा	-865
▁शकतो	-866
▁भारतात	-867
▁मोठ्या	-868
▁असल्याचं	-869
यत्	-870
▁होतं	-871
भर	-872
हु	-873
ूप	-874
▁स्प	-875
केंद्र	-876
▁कार्य	-877
ंचा	-878
पूर्वी	-879
."	-880
च्च	-881
टर	-882
▁कंप	-883
बंधित	-884
पड	-885
▁सांगतात	-886
लया	-887
िकाणी	-888
▁डि	-889
डि	-890
पत्र	-891
▁पुरव	-892
जि	-893
दर्भ	-894
▁ओ	-895
रोध	-896
▁जाण	-897
▁कर्म	-898
द्वारे	-899
▁सह	-900
परा	-901
▁लाख	-902
▁स्ट	-903
व्हॅ	-904
▁डॉक्टर	-905
उत्	-906
वली	-907
▁साथ	-908
ोट	-909
्यांनी	-910
▁सरकारने	-911
यत्न	-912
व्हे	-913
▁मध्ये	-914
▁शकतात	-915
▁सध्या	-916
ऑक्सिजन	-917
येत	-918
योज	-919
दिवस	-920
▁होऊ	-921
घेत	-922
ग्र	-923
▁डोस	-924
ॉस्पिटल	-925
अर	-926
▁जी	-927
▁धु	-928
▁श्	-929
▁येईल	-930
▁वैद्यकीय	-931
वर्	-932
म्	-933
अनेक	-934
ेत्र	-935
संख्ये	-936
▁मंत्र	-937
इतर	-938
मार	-939
▁आलं	-940
▁झाल्या	-941
श्न	-942
▁होतो	-943
▁आवश्यक	-944
ंच्या	-945
प्रति	-946
▁सांगितलं	-947
आज	-948
ंग	-949
ल्ली	-950
ीच्या	-951
प्रधान	-952
▁कोविड	-953
▁वेग	-954
दुस	-955
▁𐋇	-956
▁जग	-957
रण	-958
काय	-959
▁आण	-960
▁प्रकार	-961
▁लोकांना	-962
रोप	-963
द्धव	-964
प्रा	-965
5¦	-966
▁भा	-967
बीसी	-968
नात	-969
▁नवीन	-970
▁गंभीर	-971
विषय	-972
▁नागरिक	-973
ंटर	-974
र्ट	-975
िकल	-976
त्ये	-977
द्रे	-978
▁मे	-979
मान्य	-980
आली	-981
वलं	-982
खे	-983
दार	-984
केला	-985
एका	-986
दान	-987
करून	-988
ढा	-989
फार	-990
ंतप्रधान	-991
▁गरज	-992
जास्त	-993
▁मिळा	-994
ोष	-995
▁S	-996
मधून	-997
द्धती	-998
▁कारण	-999
▁२	-1000
▁अॅ	-1001
ंतु	-1002
संच	-1003
▁बी	-1004
▁महाराष्ट्रात	-1005
vi	-1006
भावी	-1007
वण्यात	-1008
प्रमाणे	-1009
ातळी	-1010
महाराष्ट्र	-1011
दिस	-1012
शेष	-1013
हून	-1014
▁मी	-1015
सित	-1016
जून	-1017
होती	-1018
▁समावेश	-1019
असलेल्या	-1020
आले	-1021
▁चीन	-1022
▁विद्यार्थ	-1023
जिल्ह	-1024
▁अँ	-1025
▁स्व	-1026
ैठ	-1027
ांब	-1028
ित्	-1029
र्चा	-1030
भ्यास	-1031
▁स्थिती	-1032
वजन	-1033
▁गा	-1034
▁शाळा	-1035
▁ह्या	-1036
▁निर्णय	-1037
-2	-1038
गो	-1039
क्षम	-1040
▁बदल	-1041
ंत्रण	-1042
वजनिक	-1043
▁शकते	-1044
नेवारी	-1045
▁गु	-1046
▁मास्क	-1047
ंची	-1048
▁करू	-1049
करण्यासाठी	-1050
आता	-1051
मुख	-1052
्याच्या	-1053
ॉझ	-1054
ेशन	-1055
मृत्यू	-1056
▁घट	-1057
▁नाहीत	-1058
▁6	-1059
र्ग	-1060
▁फे	-1061
▁ठर	-1062
्यांच्या	-1063
केले	-1064
सू	-1065
शासना	-1066
ष्ट्रा	-1067
▁ठाकरे	-1068
▁केल्या	-1069
▁दुसऱ्या	-1070
करणे	-1071
▁उत्पाद	-1072
ष्ट्रीय	-1073
वाई	-1074
चना	-1075
सम	-1076
वाह	-1077
प्रमाण	-1078
ष्ठ	-1079
ानिक	-1080
ात्मक	-1081
▁व्या	-1082
रुग्णालय	-1083
▁7	-1084
वाल	-1085
द्धा	-1086
ॉझिट	-1087
मुख्य	-1088
ुप	-1089
▁रि	-1090
ध्यम	-1091
▁झाले	-1092
▁पूर्ण	-1093
नस	-1094
जन्य	-1095
▁ति	-1096
▁रूग्ण	-1097
टु	-1098
ूण	-1099
ृती	-1100
▁प्रवा	-1101
Co	-1102
माग	-1103
▁चे	-1104
लॉकडाऊन	-1105
▁वाट	-1106
▁शक्यता	-1107
▁सुरुवात	-1108
vid	-1109
आढळ	-1110
▁डे	-1111
झाला	-1112
चाचणी	-1113
परिणाम	-1114
निट	-1115
मोर	-1116
झाली	-1117
▁संपर्क	-1118
▁आलेल्या	-1119
▁¦3	-1120
दर्भात	-1121
▁विचार	-1122
र्या	-1123
होता	-1124
▁आपण	-1125
▁जाहीर	-1126
ळख	-1127
जो	-1128
covid	-1129
वीर	-1130
व्यक्ती	-1131
दोन	-1132
▁बेड	-1133
कोण	-1134
राव	-1135
कल	-1136
बाधित	-1137
▁पाहि	-1138
गु	-1139
▁जागतिक	-1140
▁निर्बंध	-1141
▁महत्त्वा	-1142
ुन	-1143
त्यांच्या	-1144
▁मू	-1145
ीत	-1146
तरी	-1147
समा	-1148
करत	-1149
वले	-1150
व्र	-1151
▁परवानगी	-1152
योजन	-1153
▁म्हणतात	-1154
ायला	-1155
ांपासून	-1156
ठे	-1157
ॅन	-1158
▁8	-1159
▁असते	-1160
मिळ	-1161
गळ्या	-1162
▁पुढे	-1163
्यांमध्ये	-1164
▁केलेल्या	-1165
▁छ	-1166
▁पसर	-1167
▁करण्याची	-1168
4¦	-1169
म्हणून	-1170
ARS	-1171
कारक	-1172
निया	-1173
बाहेर	-1174
ुक	-1175
▁टे	-1176
ब्रु	-1177
▁चाल	-1178
सांगित	-1179
▁आजारा	-1180
▁तुम्हाला	-1181
▁व्हे	-1182
्फ	-1183
दरम्यान	-1184
ऱ्यांना	-1185
ट्र	-1186
▁खा	-1187
▁भर	-1188
▁मदत	-1189
▁आठवड	-1190
▁काळात	-1191
▁लक्षणे	-1192
होच	-1193
क्षणा	-1194
दाय	-1195
स्त्र	-1196
▁रुग्णा	-1197
▁निर्माण	-1198
झर	-1199
त्येक	-1200
लावधी	-1201
धा	-1202
णारी	-1203
▁जि	-1204
▁सी	-1205
▁योग	-1206
कार्य	-1207
तिकार	-1208
जर	-1209
▁परी	-1210
▁शोध	-1211
▁दिसून	-1212
▁बोलताना	-1213
आर	-1214
CoV	-1215
▁लागू	-1216
तीत	-1217
थील	-1218
ाच्या	-1219
▁अमेर	-1220
ब्रुवारी	-1221
▁रुग्णालयात	-1222
▁झ	-1223
न्ट	-1224
▁जाते	-1225
यांच्या	-1226
▁रेमडेसि	-1227
ंनी	-1228
वस्था	-1229
▁नमु	-1230
▁प्रसार	-1231
▁प्रमाणात	-1232
ार्थ	-1233
ंद्रा	-1234
▁रोजी	-1235
ॉझिटिव्ह	-1236
ाराष्ट्रा	-1237
बाब	-1238
▁कोटी	-1239
ंगा	-1240
विर	-1241
क्सिन	-1242
असेल	-1243
चि	-1244
र्श	-1245
▁उपाय	-1246
▁जाईल	-1247
विषयी	-1248
▁ऑफ	-1249
राज्य	-1250
▁पहिल्या	-1251
बो	-1252
ेट	-1253
िले	-1254
मुंबई	-1255
न्य	-1256
▁10	-1257
लसीकरण	-1258
ायो	-1259
त्यांना	-1260
झालेल्या	-1261
न्न	-1262
▁संस्थ	-1263
सारख्या	-1264
घड	-1265
भव	-1266
रोधी	-1267
▁SARS	-1268
▁दाखल	-1269
▁देशात	-1270
लगी	-1271
ल्प	-1272
ॅक्ट	-1273
युक्त	-1274
असल्या	-1275
▁कोणत्या	-1276
मार्च	-1277
जग	-1278
▁9	-1279
वसन	-1280
▁पत्र	-1281
▁रुग्णांची	-1282
सेच	-1283
गेल्या	-1284
▁मागणी	-1285
राज्यात	-1286
कारण	-1287
्रास	-1288
शिवाय	-1289
▁जर	-1290
▁अर्थ	-1291
प्रकार	-1292
▁प्रयत्न	-1293
▁काढ	-1294
▁वर्	-1295
अशा	-1296
ल्स	-1297
आम्ही	-1298
▁तपास	-1299
▁कंपनी	-1300
▁“	-1301
ठेव	-1302
न्ही	-1303
ायझर	-1304
परिस्थिती	-1305
rs	-1306
मू	-1307
▁गर्	-1308
आपल्या	-1309
लि	-1310
दिली	-1311
मल	-1312
▁शरी	-1313
▁हॉस्पिटल	-1314
वरून	-1315
तयार	-1316
▁ट्र	-1317
शय	-1318
टवड	-1319
ध्यक्ष	-1320
▁अति	-1321
▁देखील	-1322
▁योग्य	-1323
टुंब	-1324
निरी	-1325
ॉट	-1326
क्शन	-1327
▁वेळ	-1328
▁प्रश्न	-1329
वेग	-1330
एस	-1331
उपचार	-1332
▁धोका	-1333
▁काळजी	-1334
▁कोरोनाची	-1335
ल्ड	-1336
कडेव	-1337
गाने	-1338
स्टिट	-1339
कडेवारी	-1340
णारा	-1341
▁लाट	-1342
▁जन	-1343
सार्	-1344
र्मिती	-1345
▁पुरवठा	-1346
▁संक्रम	-1347
▁ग्रा	-1348
▁लसीकरणा	-1349
आय	-1350
ुफ	-1351
असा	-1352
देण्यात	-1353
▁अनु	-1354
▁इन्	-1355
▁तीन	-1356
उपलब्ध	-1357
▁मुख्यमंत्री	-1358
टक्के	-1359
र्थिक	-1360
प्ट	-1361
ोन्ही	-1362
▁पुन्हा	-1363
ात्री	-1364
चारा	-1365
त्यांनी	-1366
राह	-1367
चारी	-1368
ल्ला	-1369
म्हणजे	-1370
नेत	-1371
नोंद	-1372
▁नियम	-1373
▁उद्धव	-1374
क्रिया	-1375
पहि	-1376
▁महि	-1377
ण्याचं	-1378
ंज	-1379
ांशी	-1380
वण्यासाठी	-1381
साद	-1382
▁तेव्हा	-1383
म्हटलं	-1384
िर	-1385
▁इं	-1386
▁याचा	-1387
▁बीबीसी	-1388
▁करणाऱ्या	-1389
महा	-1390
वून	-1391
त्यामुळे	-1392
ड्र	-1393
ांश	-1394
णावर	-1395
फारस	-1396
▁मोदी	-1397
▁उद्रे	-1398
▁बाहेर	-1399
▁वापरा	-1400
▁क्षेत्र	-1401
एन	-1402
आला	-1403
शाळा	-1404
वाला	-1405
्युट	-1406
▁करता	-1407
▁यांना	-1408
घा	-1409
देशात	-1410
▁टेस्ट	-1411
म्हणाले	-1412
▁कर्मचा	-1413
▁पंतप्रधान	-1414
ंटा	-1415
ुफ्फ	-1416
ंमध्ये	-1417
▁असू	-1418
▁असताना	-1419
▁संबंधित	-1420
▁कोरोनाचा	-1421
नाच्या	-1422
मीण	-1423
ोपे	-1424
▁ताप	-1425
▁दिला	-1426
केलं	-1427
मात्र	-1428
मोठ्या	-1429
▁%	-1430
▁I	-1431
▁जवळ	-1432
▁भारत	-1433
▁संशोध	-1434
संसर्गा	-1435
ालया	-1436
आधी	-1437
लाख	-1438
▁वाह	-1439
▁किती	-1440
▁सार्स	-1441
▁दिल्ली	-1442
एप्रिल	-1443
त्व	-1444
▁आय	-1445
▁पाल	-1446
सध्या	-1447
▁येणार	-1448
▁अभ्यास	-1449
▁विकसित	-1450
उन	-1451
लीन	-1452
भारतात	-1453
▁बैठ	-1454
8¦	-1455
महिन	-1456
हजार	-1457
्यूट	-1458
20¦	-1459
अशी	-1460
काळी	-1461
ग्रस्त	-1462
▁‘	-1463
्रेन	-1464
▁खास	-1465
कोविड	-1466
▁विशेष	-1467
टली	-1468
आजार	-1469
संदर्भात	-1470
1¦	-1471
रिय	-1472
लिक	-1473
▁दिव	-1474
▁नव्ह	-1475
▁तुम्ही	-1476
▁असल्याचे	-1477
▁जानेवारी	-1478
वाद	-1479
अॅ	-1480
▁शह	-1481
▁क्र	-1482
▁जाऊ	-1483
▁तास	-1484
▁शहर	-1485
▁ठिकाणी	-1486
जिक	-1487
बोल	-1488
▁सेवा	-1489
ॉकडाउन	-1490
▁प्रमा	-1491
शिष्ट	-1492
बॉ	-1493
▁R	-1494
शील	-1495
▁घ्या	-1496
▁उत्तर	-1497
▁पातळी	-1498
▁सार्वजनिक	-1499
ीती	-1500
▁घरी	-1501
▁करतात	-1502
▁रुग्णांना	-1503
चाचण्या	-1504
धन	-1505
नला	-1506
साथ	-1507
▁कि	-1508
▁जण	-1509
▁टप्प	-1510
लगीकरण	-1511
▁भारता	-1512
▁होणार	-1513
▁शिक्षण	-1514
ोर	-1515
क्क	-1516
नाय	-1517
विद्या	-1518
कट	-1519
वाधिक	-1520
ँग	-1521
असून	-1522
▁स्वत	-1523
धु	-1524
▁वर	-1525
ंदाज	-1526
रोबर	-1527
▁पाह	-1528
▁डेटा	-1529
▁आढळून	-1530
2¦	-1531
कंप	-1532
मुल	-1533
वेत	-1534
▁आधी	-1535
देखील	-1536
▁महिन्यात	-1537
गपूर	-1538
▁इत	-1539
▁उच्च	-1540
▁राज्या	-1541
▁नियंत्रण	-1542
▁अड	-1543
वारंटा	-1544
▁तज्ज्ञ	-1545
चसीओव्ही	-1546
ळू	-1547
वय	-1548
शकतो	-1549
असल्याचं	-1550
कि	-1551
शल	-1552
होतं	-1553
▁बहु	-1554
▁होईल	-1555
डॉक्टर	-1556
▁पद्धती	-1557
▁स्पष्ट	-1558
जय	-1559
क्षे	-1560
व्हॅक्सिन	-1561
लॉ	-1562
यला	-1563
वाट	-1564
घटने	-1565
▁नये	-1566
▁आल्या	-1567
▁लक्षणं	-1568
ोषणा	-1569
▁मार्ग	-1570
▁संपूर्ण	-1571
▁यो	-1572
▁चर्चा	-1573
सरकारने	-1574
▁करण्या	-1575
▁जिल्हा	-1576
▁परीक्षा	-1577
▁प्रभावी	-1578
▁."	-1579
क्सी	-1580
रिक्त	-1581
तज्ज्ञ	-1582
सांगतात	-1583
वैद्यकीय	-1584
कालीन	-1585
▁तसंच	-1586
▁विविध	-1587
▁याबाबत	-1588
पुरव	-1589
▁¦2020¦	-1590
▁उद्	-1591
▁झालं	-1592
▁असतात	-1593
▁करण्यास	-1594
परी	-1595
बंदी	-1596
पोर्ट	-1597
मत	-1598
▁अह	-1599
कर्म	-1600
▁तुल	-1601
षण	-1602
ाऱ्यां	-1603
वारंटाईन	-1604
स्टिट्यूट	-1605
7¦	-1606
जवळ	-1607
जाण	-1608
सिंग	-1609
▁असतो	-1610
प्रतिकार	-1611
एम	-1612
फो	-1613
००	-1614
▁19	-1615
▁घाल	-1616
▁आहोत	-1617
अँ	-1618
सिक	-1619
▁आम	-1620
▁याची	-1621
▁दुसरी	-1622
▁प्रवास	-1623
मुख्यमंत्री	-1624
महाराष्ट्रात	-1625
श्व	-1626
ियन	-1627
थमिक	-1628
सेवा	-1629
गंभीर	-1630
ॅट	-1631
ृत्	-1632
▁लहान	-1633
मन	-1634
रोज	-1635
ीला	-1636
बॉडी	-1637
ृह	-1638
द्द	-1639
वकर	-1640
खाली	-1641
वसाय	-1642
शकतात	-1643
डोस	-1644
टेक	-1645
संब	-1646
दारी	-1647
▁ओळख	-1648
▁प्रतिबंध	-1649
होऊ	-1650
्राझ	-1651
▁मृत	-1652
▁गोष्टी	-1653
मास्क	-1654
रम	-1655
नवीन	-1656
येईल	-1657
ंटिले	-1658
धारित	-1659
आवश्यक	-1660
▁तीव्र	-1661
आण	-1662
निक	-1663
लोकांना	-1664
▁कॉ	-1665
▁प्रशासना	-1666
6¦	-1667
भाव्य	-1668
रेंद्र	-1669
आलं	-1670
▁दिले	-1671
झाल्या	-1672
▁पोहोच	-1673
ावर	-1674
होतो	-1675
चाल	-1676
टवडा	-1677
र्गत	-1678
▁एखा	-1679
▁मला	-1680
त्यंत	-1681
संस्थ	-1682
िकित्	-1683
▁घेतला	-1684
▁पर्यंत	-1685
सांगितलं	-1686
ांपेक्षा	-1687
त्यावश्यक	-1688
▁करण्याचा	-1689
गार	-1690
▁शे	-1691
▁पुढ	-1692
▁केसेस	-1693
कॉ	-1694
बल	-1695
तीय	-1696
दित	-1697
वणी	-1698
्लू	-1699
पुढे	-1700
मेंट	-1701
माजिक	-1702
▁ची	-1703
▁क्षम	-1704
सुद्धा	-1705
▁कालावधी	-1706
▁राज्यातील	-1707
्ड	-1708
▁सात	-1709
ित्या	-1710
ांकडून	-1711
ठिकाणी	-1712
सारा	-1713
▁विभागा	-1714
▁फेब्रुवारी	-1715
म्य	-1716
▁¦5	-1717
▁बन	-1718
स्थित	-1719
▁एकूण	-1720
नागरिक	-1721
त्य	-1722
पणा	-1723
भूत	-1724
काळात	-1725
तः	-1726
ॉड	-1727
थेट	-1728
सेल	-1729
▁अं	-1730
▁गेले	-1731
▁तुमच्या	-1732
▁दरम्यान	-1733
▁त्यानंतर	-1734
बदल	-1735
▁लागण	-1736
▁त्यात	-1737
बे	-1738
िकित्सा	-1739
▁खूप	-1740
▁दुका	-1741
▁प्रकरण	-1742
▁पॉझिटिव्ह	-1743
▁कोरोनाच्या	-1744
वला	-1745
मिळा	-1746
राष्ट्रीय	-1747
प्त	-1748
कल्प	-1749
ुहान	-1750
▁फक्त	-1751
▁लाटे	-1752
संपर्क	-1753
▁यासाठी	-1754
▁केंद्रा	-1755
▁असल्याने	-1756
गरज	-1757
खीम	-1758
▁वै	-1759
धारण	-1760
्याने	-1761
▁कार्या	-1762
▁प्रत्येक	-1763
वलंब	-1764
▁बो	-1765
▁सरकारी	-1766
▁केंद्रीय	-1767
▁त्याच्या	-1768
▁महाराष्ट्रा	-1769
ईट	-1770
ीन	-1771
ंच	-1772
ंधी	-1773
यारी	-1774
ंत्रणा	-1775
▁बेड्स	-1776
▁भागात	-1777
आपण	-1778
राठी	-1779
पालिके	-1780
करू	-1781
ट्ट	-1782
▁कुठ	-1783
▁पाठव	-1784
▁सामान्य	-1785
वडण	-1786
ह्या	-1787
जेक्शन	-1788
▁बस	-1789
याची	-1790
▁केवळ	-1791
याच्या	-1792
▁पाहिजे	-1793
▁होत्या	-1794
विद्यार्थ	-1795
काश	-1796
फ्र	-1797
ांड	-1798
▁अंत	-1799
▁देत	-1800
▁रोख	-1801
सेंबर	-1802
ूग्णा	-1803
▁द्या	-1804
शिक्षण	-1805
समावेश	-1806
▁जेव्हा	-1807
▁संख्ये	-1808
▁स्वच्छ	-1809
स्व	-1810
उत्पाद	-1811
निर्णय	-1812
तीन	-1813
▁50	-1814
▁चार	-1815
▁पाच	-1816
▁संर	-1817
▁जातो	-1818
▁तसेच	-1819
जण	-1820
ॅब	-1821
मराव	-1822
ुद्ध	-1823
योजना	-1824
बाद	-1825
र्च	-1826
शकते	-1827
▁साध	-1828
▁खासगी	-1829
▁श्वसन	-1830
रेमडेसि	-1831
▁रुग्णसंख्या	-1832
ेन	-1833
क्षक	-1834
दुर्	-1835
भूमी	-1836
ल्वे	-1837
ठाकरे	-1838
▁दिसत	-1839
केल्या	-1840
्यांची	-1841
▁असतील	-1842
▁गर्दी	-1843
▁व्यवस्थ	-1844
ठर	-1845
र्ज	-1846
दुसऱ्या	-1847
निर्माण	-1848
ूल	-1849
▁ठे	-1850
्यांचा	-1851
▁व्यक्त	-1852
▁कोणत्याही	-1853
लीस	-1854
ांक	-1855
दाहर	-1856
प्रवा	-1857
विचार	-1858
▁येऊ	-1859
नाहीत	-1860
माय	-1861
तूक	-1862
लंड	-1863
ळ्या	-1864
ौम्य	-1865
योगशा	-1866
श्चित	-1867
▁वाढत	-1868
जागतिक	-1869
▁त्रास	-1870
▁सूचना	-1871
▁लशीच्या	-1872
▁आकडेवारी	-1873
लाय	-1874
रूग्ण	-1875
▁जीव	-1876
▁परत	-1877
द्याप	-1878
▁घेऊन	-1879
▁मर्या	-1880
झ्या	-1881
विधा	-1882
ांमधील	-1883
विरोध	-1884
▁आदेश	-1885
▁गरजे	-1886
▁चांग	-1887
हित	-1888
संबंधी	-1889
सुरुवात	-1890
ांपर्यंत	-1891
अंत	-1892
कशी	-1893
वाघ	-1894
▁कड	-1895
ग्रा	-1896
तांश	-1897
न्या	-1898
क्रिय	-1899
शक्ती	-1900
▁अजून	-1901
▁आढळले	-1902
▁कुटुंब	-1903
▁उत्पादन	-1904
▁कर्मचारी	-1905
▁आर	-1906
योग्य	-1907
▁लागेल	-1908
▁दोन्ही	-1909
▁सुरक्षित	-1910
ूम	-1911
विन	-1912
दर्श	-1913
भागी	-1914
▁४	-1915
झाले	-1916
▁इंड	-1917
▁साब	-1918
▁शिफारस	-1919
sa	-1920
बेड	-1921
▁डो	-1922
टवाघ	-1923
याचा	-1924
▁योज	-1925
▁शक्य	-1926
ुफ्फुस	-1927
▁त्याचा	-1928
▁प्रमुख	-1929
जित	-1930
▁¦4	-1931
▁M	-1932
▁दूर	-1933
शक्यता	-1934
▁राजेश	-1935
▁सेंटर	-1936
▁करताना	-1937
▁प्रवेश	-1938
▁माध्यम	-1939
▁अधिकारी	-1940
खव	-1941
दृ	-1942
टेड	-1943
णाली	-1944
ैविक	-1945
भावित	-1946
ांपैकी	-1947
▁P	-1948
▁दिलेल्या	-1949
इत	-1950
द्र	-1951
चालक	-1952
क्षमता	-1953
आलेल्या	-1954
in	-1955
घर	-1956
▁३	-1957
,00	-1958
▁टी	-1959
समोर	-1960
▁बायो	-1961
भरातील	-1962
▁येणाऱ्या	-1963
▁सांगितले	-1964
तून	-1965
मला	-1966
जाहीर	-1967
3¦	-1968
हार	-1969
▁14	-1970
▁घेतली	-1971
संबंधित	-1972
निरीक्षण	-1973
▁ग्रामीण	-1974
ताप	-1975
ुकी	-1976
दाहरण	-1977
द्योग	-1978
यांना	-1979
योजित	-1980
रियंट	-1981
्यांवर	-1982
परवानगी	-1983
महत्त्वा	-1984
टक	-1985
ुल	-1986
▁कॅ	-1987
पालिका	-1988
▁येथील	-1989
▁आर्थिक	-1990
पाहि	-1991
बरोबर	-1992
प्रसार	-1993
श्च	-1994
नियम	-1995
तेवाई	-1996
▁आणखी	-1997
ांमुळे	-1998
▁करावी	-1999
▁नव्या	-2000
निर्बंध	-2001
▁आमच्या	-2002
▁स्थानिक	-2003
दर्शक	-2004
श्वास	-2005
आठवड	-2006
▁तिस	-2007
▁होण्याची	-2008
जू	-2009
ंचे	-2010
शिक	-2011
करता	-2012
प्टे	-2013
ान्स	-2014
िंता	-2015
िकास	-2016
ॅनिट	-2017
आजारा	-2018
मोनिया	-2019
तुम्हाला	-2020
▁A	-2021
पसर	-2022
▁बि	-2023
▁लि	-2024
▁नंतर	-2025
पद्धती	-2026
▁जाणार	-2027
पहिल्या	-2028
म्हणतात	-2029
▁रात्री	-2030
करण्याची	-2031
▁उद्रेका	-2032
असते	-2033
लक्षणे	-2034
क्षेत्र	-2035
घरी	-2036
▁ट्	-2037
क्रि	-2038
क्षि	-2039
▁पास	-2040
▁कामा	-2041
▁गेली	-2042
▁टोपे	-2043
▁पेशी	-2044
▁प्रो	-2045
केलेल्या	-2046
रुग्णालयात	-2047
sars	-2048
वायू	-2049
काळजी	-2050
कोरोनाची	-2051
▁W	-2052
मदत	-2053
▁बरे	-2054
▁निष्	-2055
▁पुणे	-2056
प्रमाणात	-2057
▁मंत्रालया	-2058
वेळ	-2059
दायक	-2060
मार्ग	-2061
▁15	-2062
▁पेक्षा	-2063
▁प्रदेश	-2064
▁घेण्यात	-2065
▁कार्यक्रम	-2066
▁राष्ट्रीय	-2067
▁माहितीनुसार	-2068
जीव	-2069
लाही	-2070
HO	-2071
पि	-2072
▁;	-2073
गदी	-2074
तोय	-2075
लये	-2076
कर्ष	-2077
्रिट	-2078
्रेस	-2079
▁न्यू	-2080
▁पालक	-2081
तेवाईक	-2082
▁अंदाज	-2083
▁¦9	-2084
दाखल	-2085
रुग्णा	-2086
एन्	-2087
तास	-2088
डिया	-2089
▁अन्य	-2090
ल्यावर	-2091
▁परंतु	-2092
▁नागपूर	-2093
▁प्रवाश	-2094
▁यामुळे	-2095
▁ऑक्सिजनची	-2096
ापन	-2097
िता	-2098
अमेर	-2099
अर्थ	-2100
क्षिण	-2101
भागात	-2102
वेगळ्या	-2103
फत	-2104
▁शास	-2105
दिसून	-2106
वर्षी	-2107
स्ट्र	-2108
जिल्हा	-2109
मधल्या	-2110
▁शहरात	-2111
बोलताना	-2112
▁पर्याय	-2113
▁लॉकडाउन	-2114
टो	-2115
बजा	-2116
त्ता	-2117
लागू	-2118
सामान्य	-2119
ra	-2120
नोम	-2121
▁ता	-2122
मारे	-2123
वाहन	-2124
▁फार	-2125
▁करणं	-2126
▁थांब	-2127
प्टेंबर	-2128
व्यवस्थ	-2129
▁जगभरात	-2130
रुग्णांची	-2131
▁सर्वाधिक	-2132
▁होणाऱ्या	-2133
▁एचसीओव्ही	-2134
पाट	-2135
जाते	-2136
म्यु	-2137
ऱ्याच	-2138
00¦	-2139
नमु	-2140
वीस	-2141
▁रुप	-2142
▁शकत	-2143
▁येथे	-2144
▁घोषणा	-2145
▁त्याच	-2146
कोणत्या	-2147
▁अमेरिके	-2148
▁पत्रकार	-2149
ंतू	-2150
शरी	-2151
ाचा	-2152
रोजी	-2153
लयीन	-2154
पूर्व	-2155
पुरवठा	-2156
ाणवायू	-2157
▁फो	-2158
कोटी	-2159
▁कधी	-2160
▁अंतर	-2161
▁जातं	-2162
▁साथी	-2163
लसीकरणा	-2164
▁उपचारा	-2165
▁सर्वात	-2166
▁आतापर्यंत	-2167
▁जिल्ह्यात	-2168
गर्	-2169
णाऱ्यां	-2170
ंवर	-2171
खरे	-2172
हीम	-2173
जाईल	-2174
▁त्याची	-2175
ऑफ	-2176
उपाय	-2177
सिद्ध	-2178
▁यात	-2179
▁साठी	-2180
▁सुरु	-2181
▁स्वर	-2182
▁बाधित	-2183
▁लक्षात	-2184
▁प्रतिसाद	-2185
काढ	-2186
ट्स	-2187
मतर	-2188
कारात्मक	-2189
यू	-2190
१९	-2191
▁टाळ	-2192
▁सहा	-2193
मागणी	-2194
▁भीती	-2195
▁असंही	-2196
▁त्यांची	-2197
▁कर्मचाऱ्यां	-2198
फॉ	-2199
अनु	-2200
सारखी	-2201
कीत	-2202
टले	-2203
▁चौ	-2204
▁थो	-2205
▁पार	-2206
▁विष	-2207
शलक्ष	-2208
संक्रम	-2209
िकित्सालयीन	-2210
तपास	-2211
सिटी	-2212
कंपनी	-2213
दय	-2214
अति	-2215
इन्	-2216
▁बात	-2217
▁मते	-2218
▁करते	-2219
▁करणार	-2220
प्रयत्न	-2221
▁प्रमाणावर	-2222
▁रुग्णालया	-2223
▁झाल्यानंतर	-2224
ॅक	-2225
चिव	-2226
देत	-2227
सात	-2228
ढावा	-2229
रिया	-2230
ल्को	-2231
ंसिंग	-2232
व्हान	-2233
पुन्हा	-2234
हॉस्पिटल	-2235
इन	-2236
▁12	-2237
▁30	-2238
धोका	-2239
▁संप	-2240
पातळी	-2241
▁वर्षा	-2242
▁विषाणूच्या	-2243
▁इन्स्टिट्यूट	-2244
ाने	-2245
क्सफ	-2246
णाने	-2247
स्तू	-2248
ोलिस	-2249
▁युके	-2250
बजावणी	-2251
▁लशीचा	-2252
क्सफर्ड	-2253
▁पुष्टी	-2254
▁असणाऱ्या	-2255
▁निर्मिती	-2256
मुक्त	-2257
मोदी	-2258
▁वाच	-2259
▁सोड	-2260
वापरा	-2261
सार्स	-2262
▁तपासणी	-2263
▁त्याला	-2264
▁मुंबईत	-2265
▁विषाणूचा	-2266
डो	-2267
पक	-2268
ांध	-2269
क्या	-2270
स्या	-2271
व्हिर	-2272
दिव	-2273
▁इटली	-2274
प्रश्न	-2275
▁सल्ला	-2276
▁तुटवडा	-2277
▁म्हटलंय	-2278
▁आपल्याला	-2279
लाट	-2280
श्र	-2281
▁५	-2282
नेट	-2283
लिन	-2284
▁कळ	-2285
▁घर	-2286
▁पी	-2287
टप्प	-2288
▁सगळ	-2289
▁रक्त	-2290
मरावती	-2291
ार्श्व	-2292
▁कोणती	-2293
▁यांचा	-2294
▁संघटने	-2295
मलबजावणी	-2296
ॅनिटायझर	-2297
▁प्राथमिक	-2298
▁व्हेंटिले	-2299
▁आरोग्यमंत्री	-2300
घटना	-2301
भारत	-2302
टेस्ट	-2303
निवार	-2304
पंतप्रधान	-2305
जप	-2306
तीने	-2307
▁अँटी	-2308
▁ठेवा	-2309
▁मोठा	-2310
▁यावर	-2311
▁एकत्र	-2312
▁अत्यंत	-2313
कोरोनाचा	-2314
▁एखाद्या	-2315
▁नरेंद्र	-2316
▁रेमडेसिवीर	-2317
डण	-2318
▁¦1¦	-2319
उद्धव	-2320
डणवीस	-2321
विष्ट	-2322
ारावी	-2323
ांवरील	-2324
CE	-2325
इं	-2326
घात	-2327
बात	-2328
वित	-2329
नाची	-2330
▁ड्र	-2331
▁दहा	-2332
▁शेव	-2333
▁साम	-2334
▁सार	-2335
कार्या	-2336
तुम्ही	-2337
▁क्षमता	-2338
▁मृत्यु	-2339
▁अध्यक्ष	-2340
▁असल्यास	-2341
▁लोकांच्या	-2342
▁क्वारंटाईन	-2343
),	-2344
्व	-2345
नीय	-2346
पार	-2347
▁मत	-2348
टर्स	-2349
▁मोठी	-2350
नायटेड	-2351
बीबीसी	-2352
▁करावा	-2353
▁लक्षण	-2354
▁शरीरात	-2355
निर्मिती	-2356
▁देशातील	-2357
तत	-2358
था	-2359
वू	-2360
महि	-2361
जनक	-2362
टीन	-2363
▁11	-2364
▁खोक	-2365
▁दुख	-2366
▁मेड	-2367
▁साय	-2368
उद्रे	-2369
▁चालू	-2370
▁लवकर	-2371
तेव्हा	-2372
दिल्ली	-2373
▁वेगाने	-2374
▁आम्हाला	-2375
▁संभाव्य	-2376
▁ज्यामध्ये	-2377
▁सरकारच्या	-2378
ँड	-2379
चणी	-2380
क्ता	-2381
विशेष	-2382
ंत्रज्ञ	-2383
कवा	-2384
बहु	-2385
▁शु	-2386
घ्या	-2387
▁थेट	-2388
▁बाब	-2389
▁मध्य	-2390
विकसित	-2391
सार्वजनिक	-2392
शह	-2393
शहर	-2394
ंक	-2395
दीप	-2396
▁मग	-2397
▁सिं	-2398
भारता	-2399
▁¦10¦	-2400
▁करतो	-2401
▁पक्ष	-2402
▁सोशल	-2403
भूमीवर	-2404
▁जोखीम	-2405
▁पूर्व	-2406
▁असलेले	-2407
▁तुलनेत	-2408
▁नोंदणी	-2409
▁स्पर्श	-2410
▁लोकांनी	-2411
▁अत्यावश्यक	-2412
हळू	-2413
संशोध	-2414
कर्मचा	-2415
प्रभावी	-2416
कर्	-2417
किती	-2418
वर्त	-2419
▁हाय	-2420
असताना	-2421
▁सामाजिक	-2422
चल	-2423
ुण	-2424
असू	-2425
ठोर	-2426
तेने	-2427
ळाशी	-2428
ांतर	-2429
िकेत	-2430
नलाईन	-2431
मुदाय	-2432
भ्यासा	-2433
वलंबून	-2434
्युटेशन	-2435
करणाऱ्या	-2436
on	-2437
हन	-2438
नव्ह	-2439
▁WHO	-2440
▁फाय	-2441
येणार	-2442
सारखे	-2443
▁तोंड	-2444
रोग्या	-2445
▁अहवाल	-2446
▁मराठी	-2447
▁जवळपास	-2448
जानेवारी	-2449
▁असल्याची	-2450
▁त्यासाठी	-2451
).	-2452
बि	-2453
उच्च	-2454
रुग्णांना	-2455
मद	-2456
रल	-2457
खास	-2458
र्न	-2459
ताही	-2460
▁¦19	-2461
▁छात	-2462
▁फ्र	-2463
मतरता	-2464
्रिटन	-2465
▁दिलं	-2466
▁समोर	-2467
अभ्यास	-2468
▁स्वतः	-2469
▁रूग्णा	-2470
▁इंजेक्शन	-2471
▁प्रक्रिया	-2472
▁लोकसंख्ये	-2473
▁रुग्णांच्या	-2474
ti	-2475
फा	-2476
बैठ	-2477
साध	-2478
यावर	-2479
स्पष्ट	-2480
ce	-2481
जरी	-2482
▁घात	-2483
▁लाव	-2484
▁तिथे	-2485
▁मधील	-2486
्यायला	-2487
▁तयारी	-2488
▁विरोध	-2489
▁संशोधन	-2490
ल्यामुळे	-2491
▁परिणामकारक	-2492
लग	-2493
ल्थ	-2494
डेटा	-2495
त्ती	-2496
मारी	-2497
पेक्षित	-2498
विण्यात	-2499
खान	-2500
यात	-2501
▁¦6	-2502
▁200	-2503
होणार	-2504
▁लाटेत	-2505
परीक्षा	-2506
विरोधात	-2507
असल्याचे	-2508
आम	-2509
शु	-2510
जाऊ	-2511
▁¦7	-2512
दिला	-2513
उत्तर	-2514
ण्यापूर्वी	-2515
ईड	-2516
भि	-2517
पाह	-2518
लेख	-2519
वीट	-2520
▁24	-2521
▁हि	-2522
वृत्	-2523
शासन	-2524
स्ता	-2525
ारंभ	-2526
ित्र	-2527
▁पाळ	-2528
मावली	-2529
▁आरोप	-2530
▁पालन	-2531
▁होऊन	-2532
ंत्रणे	-2533
▁निवडण	-2534
▁वुहान	-2535
स्ट्राझ	-2536
▁डिसेंबर	-2537
▁विलगीकरण	-2538
टन	-2539
२०	-2540
पुढ	-2541
रेट	-2542
दुसरी	-2543
विरोधी	-2544
टाळ	-2545
▁लढ	-2546
नाचा	-2547
लहान	-2548
स्वत	-2549
▁¦2¦	-2550
करतात	-2551
▁जबाब	-2552
▁आजारी	-2553
▁करावं	-2554
▁मंत्री	-2555
21	-2556
य़	-2557
खमी	-2558
नंद	-2559
कृती	-2560
पक्ष	-2561
लेशन	-2562
दाहरणार्थ	-2563
एच	-2564
तुल	-2565
वर्क	-2566
▁मॉड	-2567
मर्या	-2568
▁आंतर	-2569
▁आधार	-2570
▁पासून	-2571
▁युरोप	-2572
▁विमान	-2573
▁प्रयोगशा	-2574
▁लोकांमध्ये	-2575
▁हॉस्पिटलमध्ये	-2576
क्वे	-2577
रित्या	-2578
लक्षणं	-2579
राज्यातील	-2580
शनल	-2581
▁अप	-2582
▁चि	-2583
▁दृ	-2584
आढळून	-2585
याबाबत	-2586
▁जातात	-2587
▁पोलीस	-2588
▁भारतीय	-2589
स्त्रज्ञ	-2590
▁यामध्ये	-2591
▁घेण्यासाठी	-2592
▁विद्यार्थी	-2593
ंवार	-2594
प्रो	-2595
तल्या	-2596
दुर्भाव	-2597
नियंत्रण	-2598
प्रतिबंध	-2599
प्रत्येक	-2600
महिन्यात	-2601
▁ढ	-2602
उद्	-2603
घाल	-2604
मृत	-2605
▁यू	-2606
▁घटक	-2607
▁टाक	-2608
▁तुम	-2609
▁मंज	-2610
▁मात	-2611
▁2019	-2612
▁पुरा	-2613
▁फ्लू	-2614
क्रिये	-2615
▁टास्क	-2616
▁प्रकाश	-2617
▁रेल्वे	-2618
▁त्यांचे	-2619
▁मुलांना	-2620
▁संक्रमण	-2621
▁सुरक्षा	-2622
ho	-2623
अड	-2624
झी	-2625
थम	-2626
दस	-2627
ंचं	-2628
नाथ	-2629
ळेत	-2630
लयात	-2631
क्सीन	-2632
क्टर्स	-2633
वसायिक	-2634
ोक्यात	-2635
अह	-2636
सरी	-2637
ुरु	-2638
▁दी	-2639
होईल	-2640
▁जनते	-2641
▁टक्क	-2642
▁पवार	-2643
▁नमुने	-2644
▁वटवाघ	-2645
▁सकाळी	-2646
▁उपस्थित	-2647
▁प्रवासा	-2648
▁प्रसारा	-2649
▁प्रॅक्ट	-2650
▁फुफ्फुस	-2651
▁बहुतांश	-2652
▁अधिकाऱ्यां	-2653
नये	-2654
देशी	-2655
ळेल	-2656
सेव	-2657
▁18	-2658
▁वॉ	-2659
ंभमे	-2660
लेलं	-2661
शयित	-2662
ृष्ठ	-2663
▁खरे	-2664
▁वित	-2665
▁खाली	-2666
राज्या	-2667
लिनिकल	-2668
ार्मिक	-2669
▁आलेली	-2670
▁बाजार	-2671
▁सौम्य	-2672
संपूर्ण	-2673
▁अद्याप	-2674
▁कामगार	-2675
▁झालेली	-2676
ार्श्वभूमीवर	-2677
▁कोव्हॅक्सिन	-2678
▁कोरोनाग्रस्त	-2679
चर्चा	-2680
विविध	-2681
त्कालीन	-2682
रं	-2683
तसंच	-2684
शिया	-2685
श्ले	-2686
▁दाख	-2687
▁नका	-2688
▁बंध	-2689
▁रद्द	-2690
▁राहि	-2691
▁साठा	-2692
▁दुसरा	-2693
▁मानवी	-2694
▁लशीची	-2695
▁वाहतूक	-2696
▁टप्प्यात	-2697
▁देशांमध्ये	-2698
▁माध्यमातून	-2699
▁रोगप्रतिकार	-2700
थं	-2701
ोम	-2702
दरा	-2703
ायल	-2704
झालं	-2705
स्ती	-2706
ोटोक	-2707
असतात	-2708
र्मनी	-2709
ँग्रेस	-2710
करण्यास	-2711
▁६	-2712
वेल	-2713
िरी	-2714
▁जसे	-2715
माध्यम	-2716
▁दररोज	-2717
▁होतात	-2718
▁सुविधा	-2719
▁तिसऱ्या	-2720
▁करोनाच्या	-2721
नक	-2722
वै	-2723
असतो	-2724
सोबतच	-2725
..	-2726
CG	-2727
चन	-2728
आहोत	-2729
जाती	-2730
फक्त	-2731
रोक्	-2732
शक्य	-2733
साला	-2734
तीव्र	-2735
▁येते	-2736
▁वाढव	-2737
▁होणे	-2738
▁लशीचे	-2739
▁नियोजन	-2740
▁प्रतिक	-2741
▁माझ्या	-2742
▁मान्यता	-2743
ओळख	-2744
ेने	-2745
केसेस	-2746
बन	-2747
▁७	-2748
▁अश	-2749
▁मज	-2750
▁यश	-2751
▁जून	-2752
गोष्टी	-2753
प्रवास	-2754
▁श्वास	-2755
▁राहतील	-2756
त्याच्या	-2757
▁ज्यामुळे	-2758
▁संपर्कात	-2759
▁रुग्णांचा	-2760
▁केल्यानंतर	-2761
एखा	-2762
म्प	-2763
रोख	-2764
्रि	-2765
तिहा	-2766
नावर	-2767
ॉटेल	-2768
श्चिम	-2769
ासाठी	-2770
लोरोक्	-2771
ाची	-2772
िंक	-2773
िंड	-2774
▁कोड	-2775
एन्झा	-2776
▁कराय	-2777
▁चिंता	-2778
प्रशासना	-2779
▁प्रभावित	-2780
▁व्हेरियंट	-2781
कॅ	-2782
-2¦	-2783
,000	-2784
सरकारी	-2785
कालावधी	-2786
कोरोनाच्या	-2787
महाराष्ट्रा	-2788
अप	-2789
पद	-2790
ष्य	-2791
ुरी	-2792
ोनू	-2793
▁IC	-2794
च्छा	-2795
शारा	-2796
स्वी	-2797
ॅशनल	-2798
▁अर्	-2799
▁कशी	-2800
▁राख	-2801
कांनी	-2802
▁कंपन	-2803
▁खर्च	-2804
▁पाळी	-2805
▁वेळा	-2806
▁करावे	-2807
▁दिवशी	-2808
▁झालेला	-2809
▁झालेले	-2810
▁मिळाली	-2811
▁राजकीय	-2812
▁म्हणजेच	-2813
▁आवश्यकता	-2814
▁नागरिकांना	-2815
पाच	-2816
स्वर	-2817
▁¦5¦	-2818
व्हर्	-2819
स्थितीत	-2820
मंत्र्यांनी	-2821
▁N	-2822
▁¦8	-2823
▁घड	-2824
▁२०	-2825
ापित	-2826
▁कडक	-2827
▁बाल	-2828
▁माण	-2829
पोहोच	-2830
आर्थिक	-2831
नावाला	-2832
प्रकरण	-2833
▁लागली	-2834
▁सुद्धा	-2835
केंद्रीय	-2836
▁बायोटेक	-2837
▁सरकारला	-2838
▁नातेवाईक	-2839
▁मर्यादित	-2840
▁करण्याच्या	-2841
▁कोरोनाव्हायरस	-2842
al	-2843
णू	-2844
यन	-2845
ाळ	-2846
ैर	-2847
थाप	-2848
र्घ	-2849
सिस	-2850
दिले	-2851
निधी	-2852
नेते	-2853
बायो	-2854
ायरल	-2855
यासाठी	-2856
सोलेशन	-2857
करण्याचा	-2858
त्यानंतर	-2859
ic	-2860
te	-2861
कृत	-2862
पीठ	-2863
वेद	-2864
मध्य	-2865
याचे	-2866
कांना	-2867
धान्य	-2868
▁जिथे	-2869
▁बंदी	-2870
▁व्हॅ	-2871
▁डिस्ट	-2872
▁पुढील	-2873
▁दिवसात	-2874
▁बऱ्याच	-2875
▁आठवड्यात	-2876
▁करण्याचे	-2877
▁झाल्याचं	-2878
दू	-2879
त्रा	-2880
अंतर्गत	-2881
पॉझिटिव्ह	-2882
me	-2883
वढ	-2884
ँकर	-2885
एनए	-2886
जन्	-2887
▁पद	-2888
▁बे	-2889
ंट्र	-2890
कारी	-2891
थापि	-2892
पेशी	-2893
वासी	-2894
▁किं	-2895
बाजार	-2896
ांकडे	-2897
▁दर्श	-2898
साधारण	-2899
ांनाही	-2900
्यांचे	-2901
्येष्ठ	-2902
▁दक्षिण	-2903
▁पुण्यात	-2904
निरीक्षणा	-2905
▁व्यवस्था	-2906
▁क्षेत्रात	-2907
अं	-2908
बस	-2909
मग	-2910
ॉन	-2911
ानं	-2912
माना	-2913
लागण	-2914
क्रमा	-2915
विभागा	-2916
फेब्रुवारी	-2917
भे	-2918
गाव	-2919
फ्ल	-2920
▁16	-2921
एकूण	-2922
दुका	-2923
▁100	-2924
▁सां	-2925
▁मानव	-2926
▁योजना	-2927
▁संस्था	-2928
▁त्यांचा	-2929
▁प्राणवायू	-2930
▁संसर्गाचा	-2931
▁सांगण्यात	-2932
▁कर्मचाऱ्यांना	-2933
लट	-2934
तंय	-2935
संर	-2936
डीने	-2937
द्धी	-2938
ांतील	-2939
काच्या	-2940
णाच्या	-2941
वाच्या	-2942
ोटोकॉल	-2943
केंद्रा	-2944
तुमच्या	-2945
9¦	-2946
कुठ	-2947
रुप	-2948
▁ज्	-2949
▁फॉ	-2950
जंतु	-2951
ावरण	-2952
▁गृह	-2953
▁घेऊ	-2954
▁तात	-2955
▁याच	-2956
▁सीर	-2957
▁पुरे	-2958
▁वेळी	-2959
▁फोर्स	-2960
▁मोहीम	-2961
▁कोव्हि	-2962
▁पूर्वी	-2963
▁महत्वा	-2964
▁रिपोर्ट	-2965
▁सप्टेंबर	-2966
गत	-2967
खूप	-2968
केवळ	-2969
गेले	-2970
जैविक	-2971
बेड्स	-2972
एशन	-2973
ड्या	-2974
त्मक	-2975
लाटे	-2976
▁मूळ	-2977
▁शिक	-2978
▁अन्न	-2979
▁घरात	-2980
▁नमुन	-2981
आमच्या	-2982
जेव्हा	-2983
विवारी	-2984
▁खरेदी	-2985
▁यांची	-2986
निव्हर्	-2987
राबाहेर	-2988
स्थानिक	-2989
▁उद्रेक	-2990
▁करणारे	-2991
▁केलेली	-2992
▁त्याचे	-2993
असल्याने	-2994
ांपूर्वी	-2995
▁ज्यांना	-2996
▁महिन्या	-2997
▁पूर्णपणे	-2998
निव्हर्सिटी	-2999
ऐव	-3000
पान	-3001
राख	-3002
ऐवजी	-3003
आल्या	-3004
स्वच्छ	-3005
केट	-3006
▁घा	-3007
घेतला	-3008
▁वर्त	-3009
▁श्वस	-3010
करण्या	-3011
▁तरीही	-3012
▁वर्षी	-3013
▁असलेली	-3014
▁इंडिया	-3015
▁दशलक्ष	-3016
▁विरोधी	-3017
▁पातळीवर	-3018
▁महापालिके	-3019
▁संसर्गाची	-3020
रुग्णसंख्या	-3021
▁मार्गदर्शक	-3022
बळ	-3023
ंटे	-3024
ग्न	-3025
पाळ	-3026
िकन	-3027
बाणी	-3028
र्डा	-3029
ांसह	-3030
टिव्ह	-3031
त्याने	-3032
नासाठी	-3033
ल्कोहो	-3034
व्यवस्था	-3035
दुखी	-3036
पाठव	-3037
▁सापड	-3038
▁साबण	-3039
दोन्ही	-3040
रात्री	-3041
व्यक्त	-3042
▁वाढली	-3043
▁संसर्गजन्य	-3044
लर	-3045
ौर	-3046
इंड	-3047
गृह	-3048
नगर	-3049
प्रे	-3050
खासगी	-3051
शिल्ड	-3052
श्वसन	-3053
पाहिजे	-3054
होत्या	-3055
ोप	-3056
लेज	-3057
▁गट	-3058
करणं	-3059
पारी	-3060
शिंद	-3061
सीआर	-3062
ॉन्स	-3063
▁ज्ञ	-3064
▁वार	-3065
▁करुन	-3066
▁क्रम	-3067
▁नसेल	-3068
▁बैठक	-3069
कुटुंब	-3070
▁अधिका	-3071
▁आवाहन	-3072
▁पहिला	-3073
उत्पादन	-3074
▁अजूनही	-3075
▁आव्हान	-3076
▁यावेळी	-3077
आकडेवारी	-3078
्यांसाठी	-3079
▁विशिष्ट	-3080
▁असल्याचा	-3081
▁चिकित्सालयीन	-3082
कटा	-3083
ब्ल	-3084
मते	-3085
मात	-3086
जातो	-3087
तसेच	-3088
त्याच	-3089
क्षणिक	-3090
त्यक्ष	-3091
कोणत्याही	-3092
मंत्रालया	-3093
व्हॅक्सीन	-3094
▁ई	-3095
ोसि	-3096
मागे	-3097
योगा	-3098
रावर	-3099
▁अॅप	-3100
यांचा	-3101
▁2021	-3102
▁अगदी	-3103
▁संकट	-3104
▁आढावा	-3105
▁पोलिस	-3106
▁फायझर	-3107
▁वस्तू	-3108
▁दिल्या	-3109
▁विद्या	-3110
▁देशांनी	-3111
▁शहरातील	-3112
▁देण्यासाठी	-3113
यत	-3114
▁’	-3115
िलो	-3116
अजून	-3117
दिसत	-3118
असतील	-3119
गर्दी	-3120
हऱ्या	-3121
तिरिक्त	-3122
निश्चित	-3123
क्वेंसिंग	-3124
दूर	-3125
▁1.	-3126
▁अन	-3127
▁मन	-3128
स्को	-3129
▁¦3¦	-3130
▁उल्	-3131
▁देऊ	-3132
▁पाठ	-3133
▁प्ल	-3134
▁भूम	-3135
▁¦50¦	-3136
▁दावा	-3137
▁परिष	-3138
▁सोबत	-3139
▁आधारित	-3140
▁प्रणाली	-3141
▁नसलेल्या	-3142
▁अंमलबजावणी	-3143
▁करोनाबाधित	-3144
▁वेगवेगळ्या	-3145
▁सुरुवातीला	-3146
कधी	-3147
येऊ	-3148
पन्न	-3149
विकास	-3150
ोत	-3151
गोल	-3152
जसे	-3153
नाव	-3154
ोबर	-3155
ोरण	-3156
ोली	-3157
▁(1	-3158
योगट	-3159
वाढत	-3160
▁फोन	-3161
▁हवा	-3162
▁होम	-3163
त्रास	-3164
दाचित	-3165
सूचना	-3166
▁नेते	-3167
त्याचा	-3168
प्रमुख	-3169
लशीच्या	-3170
ैक्षणिक	-3171
▁गरजेचं	-3172
▁फडणवीस	-3173
कर्मचारी	-3174
जेपर्यंत	-3175
▁संरक्षण	-3176
▁नसल्याचं	-3177
▁संक्रमित	-3178
▁परिस्थितीत	-3179
▁संनिरीक्षण	-3180
▁रुग्णांमध्ये	-3181
-1	-3182
he	-3183
अन	-3184
तू	-3185
मज	-3186
करी	-3187
हाय	-3188
घेऊन	-3189
पुणे	-3190
फॉर्म	-3191
राजेश	-3192
वॉ	-3193
आदेश	-3194
गरजे	-3195
चांग	-3196
र्ना	-3197
▁गुण	-3198
▁नुक	-3199
स्थान	-3200
▁काळा	-3201
▁महिल	-3202
▁मुळे	-3203
▁व्ही	-3204
प्रदेश	-3205
▁विभाग	-3206
त्यांची	-3207
लॉकडाउन	-3208
▁करायला	-3209
▁सगळ्या	-3210
▁दिवसांत	-3211
▁विशेषतः	-3212
▁ऑक्सफर्ड	-3213
▁प्रतिकार	-3214
▁प्राण्या	-3215
▁व्यक्तीला	-3216
▁सॅनिटायझर	-3217
or	-3218
इड	-3219
ुमे	-3220
ंगाल	-3221
जूला	-3222
नशील	-3223
न्यू	-3224
ल्हे	-3225
ानगर	-3226
करावी	-3227
जन्सी	-3228
सायटी	-3229
ोट्या	-3230
ंट्रोल	-3231
ानुसार	-3232
ांनुसार	-3233
विलगीकरण	-3234
विद्यालये	-3235
NA	-3236
▁औ	-3237
टाक	-3238
▁सग	-3239
णाला	-3240
पुरा	-3241
▁ACE	-3242
▁कसं	-3243
▁सतत	-3244
आढळले	-3245
लागेल	-3246
▁जागा	-3247
▁बांध	-3248
▁येतो	-3249
▁सचिव	-3250
▁सिरम	-3251
▁सीरम	-3252
यामुळे	-3253
▁अडचणी	-3254
अधिकारी	-3255
ग्रामीण	-3256
▁मेडिकल	-3257
सुरक्षित	-3258
▁झाल्याचे	-3259
▁झाल्याने	-3260
▁निष्कर्ष	-3261
▁पद्धतीने	-3262
▁प्रकारच्या	-3263
▁संसर्गाच्या	-3264
वण	-3265
िश	-3266
पाठ	-3267
साब	-3268
कामा	-3269
यक्त	-3270
त्यात	-3271
यक्तिक	-3272
शिफारस	-3273
क्वारंटाईन	-3274
ईक	-3275
ट्	-3276
▁९	-3277
केत	-3278
चंड	-3279
टका	-3280
मूद	-3281
हीत	-3282
▁हृ	-3283
ट्टी	-3284
णाचा	-3285
पालक	-3286
लॉजी	-3287
वादी	-3288
ट्रिक	-3289
णीभूत	-3290
फेक्ट	-3291
लक्षण	-3292
वर्धन	-3293
ार्मा	-3294
▁होणं	-3295
क्टोबर	-3296
बरदारी	-3297
▁येतील	-3298
▁वाटतं	-3299
ण्यातील	-3300
निवार्य	-3301
प्रकारे	-3302
ल्कोहोल	-3303
▁म्हणणं	-3304
▁साधारण	-3305
▁सुमारे	-3306
▁निश्चित	-3307
▁यंत्रणा	-3308
▁कार्यालय	-3309
▁महत्त्वाचं	-3310
▁रोखण्यासाठी	-3311
लम	-3312
रोधक	-3313
▁¦4¦	-3314
सेंटर	-3315
करताना	-3316
कोरोनाव्हायरस	-3317
%)	-3318
▁८	-3319
मित	-3320
सहा	-3321
▁टन	-3322
▁पॅ	-3323
▁वय	-3324
▁हॅ	-3325
▁उघड	-3326
▁ताल	-3327
▁पुन	-3328
▁कठोर	-3329
▁कमीत	-3330
▁गेला	-3331
▁घेता	-3332
▁तात्	-3333
▁निका	-3334
▁भाजप	-3335
▁शकतं	-3336
प्रवेश	-3337
साठीची	-3338
▁आलेला	-3339
▁ज्यात	-3340
▁स्त्र	-3341
▁बैठकीत	-3342
▁होण्या	-3343
दिलेल्या	-3344
येणाऱ्या	-3345
▁अभ्यासा	-3346
▁अमरावती	-3347
▁अवलंबून	-3348
▁समाविष्ट	-3349
विषाणूच्या	-3350
▁व्यक्तींना	-3351
▁दिवसांपासून	-3352
थो	-3353
केल	-3354
राय	-3355
क्ष्	-3356
टोपे	-3357
दस्य	-3358
त्त्व	-3359
नव्या	-3360
णेकरून	-3361
न्सिंग	-3362
्राझील	-3363
गेटिव्ह	-3364
यश	-3365
परत	-3366
भरा	-3367
रिक	-3368
हमी	-3369
▁17	-3370
▁कच	-3371
▁मार	-3372
▁मोठ	-3373
▁वात	-3374
घेतली	-3375
लयाने	-3376
▁दुर्	-3377
▁बंधन	-3378
▁साठव	-3379
त्यावर	-3380
▁संबंध	-3381
वलेल्या	-3382
▁उद्योग	-3383
▁ऑनलाईन	-3384
▁कमतरता	-3385
▁समस्या	-3386
▁साथरोग	-3387
होण्याची	-3388
▁अँटीबॉडी	-3389
▁दुसरीकडे	-3390
▁बीबीसीशी	-3391
▁म्युटेशन	-3392
▁युनायटेड	-3393
्यांपर्यंत	-3394
▁प्रशासनाने	-3395
▁व्हायरसच्या	-3396
काला	-3397
साईट	-3398
खालील	-3399
येथील	-3400
शील्ड	-3401
आधारित	-3402
सांगितले	-3403
कार्यक्रम	-3404
जिल्ह्यात	-3405
जेन	-3406
मती	-3407
वंत	-3408
सिन	-3409
▁60	-3410
आणखी	-3411
चानक	-3412
नंती	-3413
ायचं	-3414
ृद्ध	-3415
▁नाव	-3416
▁विर	-3417
ंदाजे	-3418
जाणार	-3419
ेत्रा	-3420
▁केअर	-3421
▁मिळत	-3422
ल्यांक	-3423
ांबाबत	-3424
▁चौकशी	-3425
▁रुपये	-3426
▁हेल्थ	-3427
क्रवारी	-3428
▁कारवाई	-3429
▁ब्रिटन	-3430
▁भूमिका	-3431
▁म्हटले	-3432
▁लागणार	-3433
पाट्याने	-3434
▁याविषयी	-3435
▁ऑक्सिजनचा	-3436
▁रुग्णसंख्ये	-3437
रक	-3438
हॅ	-3439
बरे	-3440
अन्य	-3441
फ्लू	-3442
मीटर	-3443
तेय	-3444
म्ब	-3445
लंय	-3446
▁31	-3447
▁खे	-3448
▁टो	-3449
▁ले	-3450
नाला	-3451
साथी	-3452
ार्ड	-3453
▁201	-3454
▁जोड	-3455
▁फिर	-3456
▁वगळ	-3457
्यावर	-3458
▁एकाच	-3459
▁घटना	-3460
▁टीका	-3461
▁धुणे	-3462
▁वेळे	-3463
▁निदान	-3464
▁नव्हती	-3465
▁मूळाशी	-3466
▁संचालक	-3467
▁महत्त्वाची	-3468
▁रेमडेसिव्हिर	-3469
ंगळ	-3470
ंटी	-3471
ठीण	-3472
पात	-3473
गेली	-3474
जरात	-3475
हिमे	-3476
क्षता	-3477
रातील	-3478
रासरी	-3479
व्यात	-3480
्याला	-3481
ातल्या	-3482
ोसिएशन	-3483
प्राथमिक	-3484
साठीच्या	-3485
्यामध्ये	-3486
कोव्हॅक्सिन	-3487
गड	-3488
यं	-3489
्य़	-3490
▁40	-3491
▁आत	-3492
▁उड	-3493
▁खु	-3494
नाने	-3495
निष्	-3496
▁जेव	-3497
▁अजित	-3498
▁इंटर	-3499
▁न्यु	-3500
▁किमान	-3501
आम्हाला	-3502
▁आरोग्या	-3503
रेमडेसिवीर	-3504
▁रुग्णांवर	-3505
▁घेतल्यानंतर	-3506
बु	-3507
टीस	-3508
मंड	-3509
अंतर	-3510
फोर्स	-3511
शहरात	-3512
घेण्यात	-3513
माहितीनुसार	-3514
is	-3515
धि	-3516
CGP	-3517
ंडर	-3518
जगी	-3519
णीय	-3520
नास	-3521
वता	-3522
ॉजी	-3523
कवाड	-3524
जिकल	-3525
तुकी	-3526
फोर्	-3527
▁त्व	-3528
अंदाज	-3529
ग्लंड	-3530
लशीचा	-3531
▁आकडा	-3532
▁पाणी	-3533
▁स्वा	-3534
जगभरात	-3535
वेंद्र	-3536
साच्या	-3537
ायकवाड	-3538
▁अनुभव	-3539
▁चित्र	-3540
ज्ञानिक	-3541
व्हेंबर	-3542
▁घ्यावी	-3543
सर्वाधिक	-3544
▁प्रकारे	-3545
▁प्राप्त	-3546
▁मार्चला	-3547
▁वारंवार	-3548
▁सर्वांत	-3549
▁सीओव्ही	-3550
एचसीओव्ही	-3551
स्ट्राझेन	-3552
अत्यावश्यक	-3553
▁प्रादुर्भाव	-3554
हल	-3555
खोक	-3556
पती	-3557
गिरी	-3558
करणार	-3559
परंतु	-3560
यांची	-3561
ळ्यात	-3562
नागपूर	-3563
प्रवाश	-3564
अमेरिके	-3565
संभाव्य	-3566
सामाजिक	-3567
ऑक्सिजनची	-3568
DC	-3569
गण	-3570
पट	-3571
हक	-3572
म्स	-3573
सिं	-3574
▁25	-3575
▁जु	-3576
▁भेट	-3577
वेगळे	-3578
▁कायम	-3579
▁कुठे	-3580
▁जारी	-3581
पर्याय	-3582
सर्वात	-3583
▁ट्वीट	-3584
▁म्हणा	-3585
▁येतात	-3586
आपल्याला	-3587
▁चीनच्या	-3588
▁शिक्षणा	-3589
आतापर्यंत	-3590
▁चीनमध्ये	-3591
▁नियमावली	-3592
▁राज्याचे	-3593
▁होण्याचा	-3594
▁उदाहरणार्थ	-3595
▁रेमडेसिविर	-3596
चौ	-3597
गेच	-3598
प्स	-3599
लेय	-3600
संप	-3601
थांब	-3602
म्बो	-3603
रक्त	-3604
लाईन	-3605
वाळी	-3606
▁¦6¦	-3607
ानंतर	-3608
ुफ्फु	-3609
त्याची	-3610
पुष्टी	-3611
ha	-3612
कळ	-3613
दै	-3614
पन	-3615
ERS	-3616
RSC	-3617
who	-3618
याम	-3619
शकत	-3620
सोड	-3621
▁80	-3622
अँटी	-3623
याला	-3624
येथे	-3625
सुरु	-3626
▁अखे	-3627
▁जरी	-3628
▁नवा	-3629
घोषणा	-3630
▁असली	-3631
▁वृत्	-3632
त्याला	-3633
▁पहिली	-3634
▁पृष्ठ	-3635
▁विस्त	-3636
▁स्टेट	-3637
पत्रकार	-3638
▁धार्मिक	-3639
▁प्रसिद्ध	-3640
▁स्वच्छता	-3641
▁विषाणूजन्य	-3642
▁पार्श्वभूमीवर	-3643
इटली	-3644
जातं	-3645
तोंड	-3646
असंही	-3647
▁¦20¦	-3648
उपचारा	-3649
मृत्यु	-3650
शासकीय	-3651
प्रणाली	-3652
सल	-3653
ॉप	-3654
▁•	-3655
कोर	-3656
खळी	-3657
गरी	-3658
▁आग	-3659
▁कसा	-3660
▁कोर	-3661
▁ग्र	-3662
▁लढा	-3663
कीकडे	-3664
वुहान	-3665
▁अर्ज	-3666
▁एकदा	-3667
▁जंतू	-3668
लिफोर्	-3669
ल्याची	-3670
▁वर्षे	-3671
▁शरीरा	-3672
देशातील	-3673
यामध्ये	-3674
विरुद्ध	-3675
▁उद्देश	-3676
▁करोनाची	-3677
▁घेण्यास	-3678
▁पुढच्या	-3679
▁तंत्रज्ञ	-3680
▁प्रकाशित	-3681
▁भारतातील	-3682
▁साथीच्या	-3683
लिफोर्निया	-3684
▁कोरोनाबाधित	-3685
▁महाराष्ट्राला	-3686
डिओ	-3687
वर्षा	-3688
ण्याने	-3689
लक्षात	-3690
संचालक	-3691
नरेंद्र	-3692
प्रतिसाद	-3693
प्रमाणावर	-3694
कं	-3695
यी	-3696
...	-3697
दहा	-3698
वाच	-3699
▁(2	-3700
▁मद	-3701
भीती	-3702
▁RSC	-3703
▁नगर	-3704
▁पाट	-3705
▁समू	-3706
▁हळू	-3707
▁RCGP	-3708
▁असता	-3709
▁आलंय	-3710
▁जाऊन	-3711
▁अतिशय	-3712
▁खोकला	-3713
▁परिणा	-3714
▁मानवा	-3715
▁मिळेल	-3716
▁सिस्ट	-3717
▁आयुक्त	-3718
▁कुंभमे	-3719
▁केलेले	-3720
▁त्यावर	-3721
होणाऱ्या	-3722
▁महामारी	-3723
▁झाल्याची	-3724
▁ठेवण्यात	-3725
▁डॉक्टर्स	-3726
▁विषाणूची	-3727
कर्मचाऱ्यां	-3728
▁मुलांमध्ये	-3729
▁मंत्रालयाने	-3730
▁व्हेंटिलेटर	-3731
ँक	-3732
षा	-3733
निल	-3734
ब्द	-3735
ल्य	-3736
साम	-3737
ोत्	-3738
तेचे	-3739
ोषित	-3740
क्ष्म	-3741
ीबॉडी	-3742
संघटने	-3743
सर्गिक	-3744
टोक्यात	-3745
क्लोरोक्	-3746
0.	-3747
CR	-3748
▁लॉ	-3749
▁लो	-3750
मोठा	-3751
लवकर	-3752
श्वस	-3753
▁ICU	-3754
▁आयु	-3755
▁गाव	-3756
▁रेड	-3757
▁रोज	-3758
पत्रक	-3759
▁एकमे	-3760
▁ट्वि	-3761
▁सेवे	-3762
अत्यंत	-3763
तपासणी	-3764
तेच्या	-3765
▁जैविक	-3766
▁बातमी	-3767
▁लागला	-3768
▁जर्मनी	-3769
▁दृष्टी	-3770
▁मीडिया	-3771
विषाणूचा	-3772
▁कंपनीने	-3773
▁त्यावेळी	-3774
▁नसल्याने	-3775
झाल्यानंतर	-3776
▁व्हायरसचा	-3777
▁विद्यार्थ्यांना	-3778
टि	-3779
फाय	-3780
मेड	-3781
वणे	-3782
ज्ञान	-3783
सल्ला	-3784
जवळपास	-3785
इन्स्टिट्यूट	-3786
,"	-3787
२२	-3788
जेत	-3789
थळा	-3790
रेज	-3791
लेट	-3792
िकी	-3793
ोंड	-3794
▁23	-3795
▁28	-3796
▁कृ	-3797
▁द्	-3798
पालन	-3799
युके	-3800
वाणू	-3801
वेळा	-3802
ापना	-3803
▁जगा	-3804
▁निक	-3805
▁सल्	-3806
करिता	-3807
कोणती	-3808
ड्रोम	-3809
वाखान	-3810
्यकर्	-3811
▁आधीच	-3812
▁	-3813
ा	-3814
¦	-3815
्	-3816
र	-3817
य	-3818
त	-3819
े	-3820
क	-3821
ी	-3822
स	-3823
ल	-3824
न	-3825
ं	-3826
ि	-3827
व	-3828
ह	-3829
म	-3830
च	-3831
ण	-3832
प	-3833
ो	-3834
आ	-3835
द	-3836
ग	-3837
ज	-3838
ु	-3839
.	-3840
ट	-3841
श	-3842
अ	-3843
ू	-3844
ध	-3845
ब	-3846
ड	-3847
,	-3848
ष	-3849
ळ	-3850
ठ	-3851
ख	-3852
भ	-3853
थ	-3854
उ	-3855
घ	-3856
ए	-3857
झ	-3858
ॉ	-3859
फ	-3860
-	-3861
0	-3862
1	-3863
ढ	-3864
2	-3865
इ	-3866
ई	-3867
ऱ	-3868
ॅ	-3869
ऊ	-3870
ृ	-3871
"	-3872
9	-3873
ै	-3874
)	-3875
(	-3876
ऑ	-3877
'	-3878
5	-3879
?	-3880
C	-3881
ओ	-3882
3	-3883
4	-3884
o	-3885
:	-3886
c	-3887
i	-3888
१	-3889
8	-3890
ँ	-3891
7	-3892
I	-3893
6	-3894
२	-3895
a	-3896
०	-3897
e	-3898
r	-3899
S	-3900
ञ	-3901
𐊣	-3902
𐊼	-3903
s	-3904
V	-3905
औ	-3906
R	-3907
छ	-3908
O	-3909
ौ	-3910
D	-3911
A	-3912
t	-3913
𐋇	-3914
d	-3915
n	-3916
v	-3917
%	-3918
४	-3919
३	-3920
५	-3921
ः	-3922
९	-3923
E	-3924
P	-3925
h	-3926
p	-3927
/	-3928
;	-3929
६	-3930
८	-3931
l	-3932
m	-3933
H	-3934
M	-3935
७	-3936
N	-3937
u	-3938
T	-3939
g	-3940
“	-3941
़	-3942
w	-3943
‘	-3944
’	-3945
W	-3946
!	-3947
U	-3948
G	-3949
b	-3950
f	-3951
y	-3952
ऐ	-3953
”	-3954
‍	-3955
ऩ	-3956
B	-3957
L	-3958
F	-3959
k	-3960
–	-3961
•	-3962
x	-3963
[	-3964
]	-3965
#	-3966
ऍ	-3967
K	-3968
$	-3969
ऋ	-3970
z	-3971
q	-3972
<	-3973
≥	-3974
j	-3975
Y	-3976
>	-3977
+	-3978
Q	-3979
Z	-3980
*	-3981
ॲ	-3982
X	-3983
_	-3984
×	-3985
J	-3986
α	-3987
=	-3988
β	-3989
ऎ	-3990
—	-3991
~	-3992
ß	-3993
γ	-3994
Å	-3995
å	-3996
