<pad>	0
</s>	0
<unk>	0
ܐ	-2.82642
▁ܡܢ	-4.08271
ܝܢ	-4.27248
▁ܕ	-4.32824
▁ܘ	-4.3319
▁ܕܝܢ	-4.34085
▁ܠܐ	-4.34357
▁ܗܘ	-4.38104
▁ܠܗ	-4.4227
▁	-4.57104
ܘ	-4.58943
▁ܗܘܐ	-4.62426
ܢ	-4.6243
▁ܐܢܐ	-4.69531
ܗ	-4.74498
▁ܓܝܪ	-4.89618
ܘܢ	-4.92218
▁ܥܠ	-5.00076
▁ܐܡܪ	-5.0086
ܬ	-5.0399
▁ܝܫܘܥ	-5.14738
▁ܐܝܟ	-5.18556
▁ܠܗܘܢ	-5.18608
▁ܐܠ	-5.20892
▁ܗܘܘ	-5.20928
▁ܘܠܐ	-5.22039
▁ܠ	-5.22224
▁ܐܢܬܘܢ	-5.23679
▁ܟܕ	-5.28203
▁ܕܠܐ	-5.29103
▁ܘܐܡܪ	-5.31871
▁ܐܦ	-5.37501
▁ܠܟܘܢ	-5.3804
▁ܡܛܠ	-5.41675
ܝ	-5.49011
▁ܕܐܠܗܐ	-5.51718
▁ܒ	-5.55894
ܬܐ	-5.63152
▁ܐܢܬ	-5.64198
ܝܠܝܢ	-5.64691
▁ܐܠܗܐ	-5.68281
▁ܚܕ	-5.68763
▁ܗܝ	-5.68888
▁ܗ	-5.70968
▁ܗܢܐ	-5.71739
▁ܐܢ	-5.75033
▁ܐ	-5.75412
ܘܗܝ	-5.76117
▁ܐܢܘܢ	-5.76291
▁ܗܠܝܢ	-5.78033
▁ܠܝ	-5.78086
▁ܘܟܕ	-5.82697
▁ܡܫܝܚܐ	-5.89004
ܢܐ	-5.89371
▁ܡܕܡ	-5.89578
▁ܒܗ	-5.9317
▁ܐܢܫ	-5.9784
ܟܘܢ	-6.00609
▁ܐܝܬ	-6.02719
▁ܘܡܢ	-6.06193
ܟܝܠ	-6.09156
▁ܐܘ	-6.10567
▁ܗܕܐ	-6.10957
▁ܟܠ	-6.13525
▁ܗܢܘܢ	-6.14712
▁ܠܟ	-6.15373
ܡܐ	-6.16193
▁ܕܡܢ	-6.16957
▁ܥܡ	-6.18004
ܟ	-6.18873
ܠܐ	-6.23307
▁ܠܢ	-6.26833
▁ܘܐܢ	-6.3402
▁ܠܘܬ	-6.36273
▁ܐܬܐ	-6.393
ܝܬ	-6.40882
▁ܕܐܝܬ	-6.41379
▁ܗܘܬ	-6.42224
▁ܥܕ	-6.42605
▁ܝܕܥ	-6.4385
▁ܤܓܝܐܐ	-6.45463
▁ܡ	-6.49657
▁ܗܟܢܐ	-6.50018
▁ܩܕܡ	-6.51049
▁ܘܠ	-6.51363
▁ܐܝܟܢ	-6.52419
ܘܬܐ	-6.54396
▁ܬ	-6.5535
▁ܟܠܗܘܢ	-6.55942
▁ܓܒܪܐ	-6.56421
▁ܒܝܬ	-6.57774
▁ܡܐ	-6.59082
▁ܚܢܢ	-6.59381
▁ܢ	-6.59749
▁ܢܗܘܐ	-6.60385
▁ܪܘܚܐ	-6.60703
▁ܒܪ	-6.6169
▁ܘܐܡܪܝܢ	-6.66457
▁ܘܕ	-6.66487
ܝܐ	-6.67564
▁ܠܐܠܗܐ	-6.69092
▁ܥܒܕ	-6.71084
▁ܬܡܢ	-6.72218
▁ܕܐܢ	-6.7323
▁ܟܠܗ	-6.74556
▁ܘܒ	-6.75551
▁ܠܡ	-6.76957
▁ܐܡܪܝܢ	-6.7837
ܗܘܢ	-6.78551
▁ܗܘܝܬ	-6.79614
▁ܘܥܠ	-6.82026
ܕܝܢ	-6.83913
▁ܥܠܘܗܝ	-6.8961
▁ܕܐܦ	-6.90175
▁ܡܢܗ	-6.90318
▁ܐܙܠ	-6.9035
▁ܐܡܝܢ	-6.90897
▁ܬܘܒ	-6.90977
▁ܕܐܡܪ	-6.92389
▁ܡܠܬܐ	-6.93262
▁ܒܪܗ	-6.93631
▁ܘܐ	-6.94624
▁ܕܢ	-6.95728
▁ܕܗܘ	-6.96017
▁ܐܝܢ	-6.97325
▁ܠܝܬ	-7.0058
ܘܤ	-7.01463
▁ܘܡ	-7.03606
▁ܗܫܐ	-7.03897
▁ܐܚܝ	-7.04318
▁ܘܗܘ	-7.04535
▁ܘܐܝܬ	-7.05169
▁ܐܢܫܐ	-7.05262
▁ܥܡܗ	-7.05463
▁ܡܢܐ	-7.06635
▁ܡܢܗܘܢ	-7.07359
▁ܕܝܫܘܥ	-7.07408
▁ܝܗܘܕܝܐ	-7.07519
▁ܕܥܒܕ	-7.08376
▁ܒܢܝ	-7.08381
ܡ	-7.08551
▁ܥܒܕܐ	-7.09104
▁ܗܘܝܬܘܢ	-7.09925
ܐܝܬ	-7.10245
▁ܝܕܥܝܢ	-7.10578
▁ܐܚܪܢܐ	-7.10628
ܤ	-7.11707
▁ܡܫܟܚ	-7.11905
ܬܘܢ	-7.11931
▁ܡܪܝ	-7.11974
▁ܫܡܝܐ	-7.12269
▁ܘܐܦ	-7.12876
▁ܚܙܐ	-7.12925
ܝܗܘܢ	-7.13189
▁ܕܐ	-7.13439
ܢܝ	-7.14033
▁ܪܒ	-7.1466
▁ܢܡܘܤܐ	-7.16225
▁ܕܡ	-7.16425
▁ܥܢܐ	-7.17128
▁ܠܒܪ	-7.17463
▁ܡܝܬܐ	-7.19083
▁ܦܘܠܘܤ	-7.19421
▁ܫܡܥܘܢ	-7.1951
▁ܬܠܡܝܕܘܗܝ	-7.20328
▁ܟܢܫܐ	-7.20379
▁ܟܗܢܐ	-7.20431
▁ܡܢܟܘܢ	-7.20519
▁ܐܪܥܐ	-7.21073
▁ܠܘܬܗ	-7.22724
▁ܒܬܪ	-7.2328
▁ܢܦܫܗ	-7.23369
▁ܡܪܢ	-7.23617
▁ܚܝܐ	-7.23969
▁ܘܟܠ	-7.24232
ܕ	-7.25844
ܬܗ	-7.25922
ܝܘܗܝ	-7.26412
▁ܕܒ	-7.27141
▁ܕܡܪܢ	-7.27224
▁ܪܒܐ	-7.2765
▁ܨܒܐ	-7.28133
▁ܝܬܝܪ	-7.28305
▁ܟܐܦܐ	-7.28887
▁ܝܗܒ	-7.28938
▁ܐܢܬܬܐ	-7.30117
▁ܥܡܗܘܢ	-7.30245
▁ܐܝܠ	-7.31328
▁ܡܕܝܢܬܐ	-7.31374
▁ܕܡܫܝܚܐ	-7.32129
▁ܐܝܬܘܗܝ	-7.33154
▁ܕܒܗ	-7.33465
ܝܗܝ	-7.33738
▁ܠܡܢ	-7.34634
▁ܒܟܘܢ	-7.34784
▁ܡܠܐܟܐ	-7.34794
▁ܡܪܝܐ	-7.35055
▁ܕܐܬܐ	-7.35143
▁ܘܗ	-7.35233
▁ܕܥܠ	-7.35465
▁ܐܒܐ	-7.3553
▁ܗܘܝ	-7.36395
▁ܡܬ	-7.36577
▁ܕܐܝܬܘܗܝ	-7.37054
▁ܚܕܐ	-7.372
▁ܕܐܢܫܐ	-7.37482
▁ܢܒܝܐ	-7.37536
▁ܠܘܬܟܘܢ	-7.38211
ܕܐ	-7.38486
ܩ	-7.38761
▁ܒܠܚܘܕ	-7.40033
▁ܕܩܘܕܫܐ	-7.41794
ܗܢܘܢ	-7.44097
▁ܟܠܗܝܢ	-7.44536
▁ܡܢܘ	-7.44571
▁ܕܡܪܝܐ	-7.44588
▁ܢܦܩ	-7.44986
▁ܡܡܠܠ	-7.45103
▁ܒܝ	-7.45243
▁ܩܪܒ	-7.45579
▁ܕܠ	-7.45979
ܝܢܢ	-7.47336
▁ܐܝܕܐ	-7.47415
ܝܗ	-7.47511
▁ܕܠܡܐ	-7.47836
▁ܡܠܟܐ	-7.47982
▁ܕܟܠ	-7.48184
▁ܘܐܬܐ	-7.4958
▁ܪܒܝ	-7.49751
▁ܕܬ	-7.50892
▁ܥܠܝܗܘܢ	-7.51436
▁ܥܡܐ	-7.51958
▁ܙܒܢܐ	-7.52306
ܥ	-7.52464
▁ܬܗܘܐ	-7.5265
ܕܡܐ	-7.53105
▁ܫܡܥ	-7.54473
▁ܚܠܦ	-7.54592
ܫ	-7.5516
▁ܐܒܝ	-7.55318
▁ܠܚܕ	-7.55461
▁ܬܪܝܢ	-7.55857
▁ܒܥܐ	-7.56209
ܒ	-7.56346
ܠ	-7.56923
ܒܐ	-7.5708
ܛ	-7.57762
▁ܒܟܠ	-7.57778
▁ܠܝܫܘܥ	-7.58014
▁ܝܘܡܬܐ	-7.58096
▁ܡܠܐ	-7.58342
▁ܥ	-7.58978
▁ܒܗܝܡܢܘܬܐ	-7.5926
▁ܒܢ	-7.6065
▁ܕܥܠܡܐ	-7.60855
▁ܥܠܡܐ	-7.60899
▁ܛܒܐ	-7.62708
ܫܐ	-7.63064
▁ܒܝܕ	-7.636
▁ܚܙܘ	-7.63696
▁ܘܐܝܟ	-7.65084
▁ܐܬܘ	-7.66665
ܝܕܝܢ	-7.67544
ܪܐ	-7.68091
▁ܘܗܘܐ	-7.68289
▁ܢܤܒ	-7.68347
▁ܕܚܕ	-7.68512
▁ܘܝܗܒ	-7.6984
▁ܕܠܥܠܡ	-7.70763
▁ܒܝܫܬܐ	-7.70944
▁ܬܠܡܝܕܐ	-7.71006
ܝܟܘܢ	-7.71112
▁ܩܡ	-7.71198
▁ܘܐܙܠ	-7.71289
▁ܤܓܝ	-7.71888
▁ܒܗܘܢ	-7.71984
▁ܩܕܝܫܐ	-7.72245
ܪ	-7.72359
▁ܗܝܡܢܘܬܐ	-7.72666
▁ܥܡܡܐ	-7.73215
ܓ	-7.73983
▁ܘܐܬ	-7.74342
▁ܥܠܝܟܘܢ	-7.75099
▁ܥܡܟܘܢ	-7.75325
▁ܒܢܝܢܫܐ	-7.75506
▁ܠܚܡܐ	-7.75521
▁ܘܢ	-7.76358
▁ܛܝܒܘܬܐ	-7.76533
▁ܕܡܐ	-7.76565
▁ܐܚܐ	-7.76581
▁ܝܘܚܢܢ	-7.77054
▁ܕܐܝܟ	-7.77351
▁ܠܥܠܡ	-7.77908
▁ܨܒܝܢ	-7.78135
ܠܝܢ	-7.78511
▁ܫܡܥܘ	-7.7864
▁ܒܥܝܢ	-7.78745
▁ܛܒ	-7.78979
▁ܗܘܝܢ	-7.79199
▁ܩܕܡܝܐ	-7.79212
ܝܬܐ	-7.7939
▁ܒܪܢܫܐ	-7.79464
▁ܥܒܪ	-7.79905
▁ܘܒܪ	-7.79953
▁ܕܢܗܘܐ	-7.80361
▁ܒܫܡܝܐ	-7.80425
▁ܘܢܦܩ	-7.8111
▁ܘܐܬܘ	-7.8115
▁ܢܗܘܘܢ	-7.81297
▁ܝܘܡܐ	-7.81684
▁ܠܐܘܪܫܠܡ	-7.82055
▁ܕܝܗܒ	-7.82057
▁ܟܡܐ	-7.82447
▁ܡܠܟܘܬܐ	-7.82661
▁ܗܢܘ	-7.82883
▁ܩܠܐ	-7.8346
▁ܕܫܡܝܐ	-7.83807
ܙ	-7.84062
▁ܕܝܗܘܕܝܐ	-7.84254
▁ܐܢܝܢ	-7.8432
▁ܥܠܝ	-7.84662
ܝܟ	-7.8492
▁ܒܝܫܐ	-7.8525
▁ܕܪܘܚ	-7.85654
▁ܬܪܥܐ	-7.85659
▁ܠܡܐ	-7.85714
▁ܫܘ	-7.86197
▁ܥܡܝ	-7.86237
▁ܕܟܬܝܒ	-7.86291
▁ܢܚܬ	-7.87078
▁ܘܝ	-7.87259
▁ܕܟܕ	-7.87353
▁ܐܬ	-7.87592
▁ܒܟܠܗ	-7.8768
ܟܝ	-7.88816
▁ܠܓܒܪܐ	-7.89174
▁ܕܫܡܗ	-7.89243
▁ܘܩܡ	-7.894
▁ܥܒܕܝܢ	-7.8957
▁ܒܢܝܐ	-7.89573
▁ܕܝܠܝ	-7.89579
▁ܛܒܬܐ	-7.89579
▁ܦܪܝܫܐ	-7.89592
▁ܫܘܠܛܢ	-7.89605
ܡܬܝ	-7.89711
▁ܦܐܪܐ	-7.90153
▁ܒܪܘܚܐ	-7.90454
▁ܤܒܪ	-7.90878
▁ܠܘܩܕܡ	-7.90994
▁ܐܤܝܪܐ	-7.91043
▁ܡܫܟܚܝܢ	-7.91045
▁ܒܬܪܗ	-7.91915
▁ܢܦܠ	-7.92371
▁ܦܝܠܛܘܤ	-7.92929
▁ܡܘܫܐ	-7.931
▁ܠܗܘ	-7.93281
▁ܫܐܠ	-7.9357
▁ܤܓܝܐܬܐ	-7.949
▁ܚܛܝܬܐ	-7.95371
▁ܕܐܪܥܐ	-7.95375
ܢܗܘܘܢ	-7.95959
▁ܟܬܒܐ	-7.96649
▁ܚܕܬܐ	-7.96725
▁ܤܦܪ	-7.97151
▁ܩܠܝܠ	-7.97164
▁ܫܪܒܬ	-7.97251
▁ܪܒܬܐ	-7.97661
▁ܚܝ	-7.97873
▁ܪܫܐ	-7.97914
ܗܢܐ	-7.98195
▁ܕܗܘܐ	-7.98709
▁ܡܗܝܡܢ	-7.98737
▁ܟܬܝܒ	-7.98761
▁ܘܡܛܠ	-7.98771
▁ܟܠܢܫ	-7.98925
▁ܒܝܘܡ	-7.99577
▁ܠܥܠ	-8.00674
▁ܫܦܝܪ	-8.00723
ܚ	-8.01105
▁ܫܠܝܚܐ	-8.01128
▁ܝܘܡܝܢ	-8.01172
▁ܦܘܩܕܢܐ	-8.01389
▁ܘܒܗ	-8.0148
▁ܠܒܝܬ	-8.01637
▁ܐܝܬܝܗܘܢ	-8.02122
▁ܫܪܝܪܐ	-8.02519
▁ܡܗܝܡܢܐ	-8.02612
▁ܫܠܝܛ	-8.02951
▁ܕܚܝܐ	-8.02965
▁ܒܡܪܢ	-8.03268
ܡܕܡ	-8.03403
ܦ	-8.03502
ܡܪ	-8.03521
▁ܕܒܝܬ	-8.04444
▁ܐܡܪܬ	-8.04565
▁ܫܒܩ	-8.04803
▁ܘܐܡܪܘ	-8.05026
▁ܩܘܡ	-8.0529
▁ܫܠܡܐ	-8.06026
▁ܘܚܕ	-8.06071
▁ܕܡܬܩܪ	-8.06157
▁ܡܘܬܐ	-8.06608
▁ܡܝܬ	-8.06669
▁ܙܒܢ	-8.06853
▁ܫܢܝܢ	-8.07427
▁ܘܟܠܗ	-8.07757
▁ܫܕܪ	-8.08411
▁ܕܨܒ	-8.0877
▁ܩܕܝܡ	-8.09408
▁ܘܬܘܒ	-8.09425
▁ܫܡܗ	-8.09563
▁ܐܝܕܗ	-8.09697
▁ܝܡܐ	-8.09934
▁ܠܟܠܗܘܢ	-8.10242
▁ܥܝܢ	-8.10299
▁ܒܪܘܚ	-8.10461
▁ܪܡܐ	-8.10556
▁ܘܫܪܝ	-8.10637
▁ܐܝܬܝܗ	-8.10825
▁ܠܥܠܡܐ	-8.10851
▁ܥܬܝܕ	-8.11292
▁ܕܪܒ	-8.11345
▁ܐܘܠܕ	-8.11681
▁ܤܠܩ	-8.11763
▁ܬܚܝ	-8.11907
▁ܟܠܡܕܡ	-8.12265
ܕܠܐ	-8.12318
▁ܐܟܠ	-8.12469
▁ܫܒܥܐ	-8.13036
▁ܝܬܝܪܐ	-8.13162
▁ܒܚܕ	-8.13836
▁ܝܬܒ	-8.14021
▁ܠܬܠܡܝܕܘܗܝ	-8.14129
ܝܬܘܢ	-8.14254
▁ܡܝܐ	-8.14769
▁ܬܪܥܤܪ	-8.14887
▁ܫܠܡ	-8.15106
▁ܕܡܝܐ	-8.15266
▁ܕܥܬܝܕ	-8.15787
▁ܫܪܝ	-8.15903
▁ܕܢܐܬ	-8.16198
ܘܬܗ	-8.16208
▁ܠܘܩܒܠ	-8.16396
▁ܥܕܬܐ	-8.16469
▁ܒܐܪܥܐ	-8.16588
ܢܘܢ	-8.16637
▁ܕܗܠܝܢ	-8.17295
▁ܙܒܢܝܢ	-8.17894
▁ܘܐܚܪܢ	-8.1802
▁ܘܫܕܪ	-8.18115
▁ܡܠܦ	-8.18503
▁ܘܥܡ	-8.18732
ܠܘ	-8.18799
▁ܕܒܫܡܝܐ	-8.18829
▁ܐܝܤܪܝܠ	-8.18863
▁ܒܟܠܙܒܢ	-8.19118
▁ܬܗܘܘܢ	-8.19423
▁ܒܐܝܕܗ	-8.19452
▁ܦܓܪܐ	-8.19719
▁ܡܠܠ	-8.1984
▁ܐܡܪܘ	-8.19988
▁ܠܟܠ	-8.20297
▁ܢܦܫܟ	-8.20632
V	-8.21326
▁ܘܥܒܕ	-8.21326
▁ܒܡܫܝܚܐ	-8.21364
▁ܠܡܐܡܪ	-8.21426
▁ܕܐܢܬ	-8.21553
▁ܒܫܡܗ	-8.21766
▁ܒܝܫܘܥ	-8.21787
▁ܩܐܡ	-8.22068
ܬܝ	-8.2242
ܟܐܦܐ	-8.23264
▁ܟܠܟܘܢ	-8.2335
▁ܩܪܐ	-8.23441
ܠܝܐ	-8.23615
▁ܘܦܩܕ	-8.2389
▁ܒܗܝܟܠܐ	-8.23892
ܗܫܐ	-8.23898
▁ܠܦܘܠܘܤ	-8.24019
▁ܐܬܝܬ	-8.24177
▁ܫܥܬܐ	-8.24328
▁ܘܒܬܪ	-8.25072
ܬܪܬܝܢ	-8.25634
▁ܕܝܠܗ	-8.25881
▁ܐܝ	-8.26044
▁ܘܚ	-8.2607
▁ܠܐܢܫ	-8.26139
ܪܝܢ	-8.26186
▁ܚܝܠܐ	-8.26248
▁ܕܢܤܒ	-8.26509
▁ܐܘܪܫܠܡ	-8.26522
▁ܢܬܠ	-8.26634
▁ܗܪܟܐ	-8.26881
ܪܟ	-8.27061
▁ܠܡܕܝܢܬܐ	-8.27187
ܪܬܐ	-8.27205
▁ܕܡܘܬܐ	-8.27246
▁ܝܕܥܝܢܢ	-8.27439
▁ܕܒܝܫ	-8.27487
▁ܐܬܪܐ	-8.28056
▁ܗܝܡܢܘ	-8.28651
ܗܕܐ	-8.28869
▁ܠܡܥܒܕ	-8.29278
▁ܘܚܙܐ	-8.29361
▁ܡܩܒܠ	-8.2942
▁ܠܟܢܫܐ	-8.29486
▁ܚ	-8.29537
▁ܡܪ	-8.29807
▁ܒܪܡ	-8.29887
▁ܕܠܝ	-8.30313
ܠܝ	-8.3032
▁ܡܪܝܡ	-8.30768
▁ܢܬ	-8.30772
▁ܩܝܡܝܢ	-8.31004
ܟܠܗܘܢ	-8.31379
▁ܬܠܬ	-8.31791
▁ܨܒܝܢܗ	-8.31858
▁ܒܫܠܡܐ	-8.32008
▁ܒܐܦܐ	-8.32017
▁ܠܘܬܝ	-8.32049
▁ܕܐܝܬܝܗ	-8.32049
▁ܒܐܘܪܚܐ	-8.32092
▁ܐܚܘܗܝ	-8.32412
▁ܘܩܪܒ	-8.32496
▁ܕܐܢܫ	-8.32514
▁ܠܝܘܡ	-8.33378
▁ܕܬܗܘ	-8.33411
▁ܒܟ	-8.33587
▁ܚܙܝܢ	-8.33791
▁ܚܘܒܐ	-8.34217
ܡܪܐ	-8.34344
▁ܕܒܚ	-8.34817
▁ܕܡܡܠܠ	-8.34948
▁ܢܦܫܝ	-8.35016
▁ܕܢܡܘܤܐ	-8.35021
▁ܪܫܗ	-8.35068
▁ܩܪܝܬ	-8.35278
▁ܫܐܠܘ	-8.35328
▁ܬܠܬܐ	-8.3543
▁ܤܡ	-8.35468
▁ܐܠܦܝܢ	-8.35821
ܡܚܕܐ	-8.35868
▁ܒܪܝ	-8.359
▁ܘܩܪܐ	-8.37228
▁ܢܫܐ	-8.37307
▁ܘܤܡ	-8.37309
▁ܠܚܡ	-8.37361
▁ܘܢܗܘ	-8.37397
▁ܦܩܕ	-8.37803
▁ܫܥܬܗ	-8.37845
▁ܕܪܚܡ	-8.37872
▁ܕܒܢܝܢܫܐ	-8.37948
ܚܝܘܬܐ	-8.38036
▁ܕܐܟܠ	-8.38169
▁ܐܚܝܢ	-8.38253
▁ܕܐܬ	-8.38257
▁ܕܝܠܟܘܢ	-8.38261
▁ܠܘܬܗܘܢ	-8.38326
▁ܡܠܦܢܐ	-8.38326
▁ܘܢܦܠ	-8.38493
▁ܘܠܡ	-8.38652
▁ܕܗ	-8.38731
▁ܕܙܒܢ	-8.38967
▁ܒܗܕܐ	-8.39044
▁ܩܫܝܫܐ	-8.39081
▁ܬܫܒܘܚܬܐ	-8.3922
ܩܘ	-8.39296
▁ܘܐܙܠܘ	-8.39768
▁ܐܠܘ	-8.39796
▁ܤܝܡ	-8.39899
ܗܪܘܕܤ	-8.40154
ܐܢܬܘܢ	-8.40247
▁ܙܠ	-8.40526
▁ܫܪܪܐ	-8.40834
▁ܡܤܗܕ	-8.4084
▁ܗܝܟܠܐ	-8.40849
▁ܛܠܝܐ	-8.4085
▁ܕܝܠܢ	-8.40892
▁ܓܢܒ	-8.40924
▁ܒܡܠܬܐ	-8.41071
▁ܠܚܝܐ	-8.41584
▁ܕܒܪ	-8.41753
▁ܒܩܠܐ	-8.41842
▁ܒܝܬܗ	-8.41859
▁ܕܗܟܢܐ	-8.41886
ܘܡ	-8.42094
ܪܘܚܐ	-8.42338
▁ܡܐܢ	-8.42442
▁ܕܡܝܬ	-8.42664
▁ܤܗܕܘܬ	-8.42889
▁ܒܡ	-8.43331
▁ܒܒܝܬ	-8.43352
▁ܩܥ	-8.43678
▁ܡܗܝܡܢܝܢ	-8.43695
▁ܕܩܕܡ	-8.43709
▁ܘܫܐܠ	-8.43718
▁ܒܥܘ	-8.4382
▁ܡܘܗܒܬ	-8.43956
▁ܕܝܘܚܢܢ	-8.43975
▁ܚܛܗܐ	-8.43976
▁ܘܢܤܒ	-8.4399
▁ܘܠܝܘܡ	-8.44054
▁ܪܓܠܘܗܝ	-8.4406
ܗܝ	-8.44082
▁ܟܬܒ	-8.4422
▁ܢܘܗܪܐ	-8.443
▁ܘܚܙܝܬ	-8.44475
▁ܕܒܪܗ	-8.44697
▁ܚܡܪ	-8.44732
▁ܕܗܢܘܢ	-8.44754
ܕܠܝܬ	-8.44836
▁ܐܘܪܚܐ	-8.44867
▁ܫܘܒܚܐ	-8.44873
▁ܒܬܪܝ	-8.44901
ܦܪ	-8.45174
▁ܕܡܗܝܡܢ	-8.45499
▁ܢܚܐ	-8.45573
ܬܟ	-8.4607
▁ܡܦܩ	-8.46283
▁ܫܩܠ	-8.46298
▁ܢܐܡܪ	-8.46443
ܬܐܡܪ	-8.46583
▁ܢܛܪ	-8.46935
ܬܪܝܢ	-8.47058
▁ܠܒܪܗ	-8.47102
▁ܐܚܪܝܐ	-8.47186
▁ܘܦܪܝܫܐ	-8.47306
▁ܕܕܘܝܕ	-8.47388
▁ܐܒܘܗܝ	-8.476
▁ܪܘܚܗ	-8.47791
▁ܕܢܒܝܐ	-8.47807
▁ܐܫܟܚ	-8.47826
▁ܘܫܡܥ	-8.47937
ܗܘܝܬܘܢ	-8.4806
▁ܠܡܘܬܐ	-8.48094
▁ܒܝܡܐ	-8.48335
▁ܙܠܘ	-8.48514
ܡܟܐ	-8.48547
▁ܘܒܥܝܢ	-8.48682
ܢܒܐ	-8.49
ܓܠܐ	-8.49421
▁ܢܥܒܕ	-8.49813
▁ܡܠܝ	-8.50234
▁ܕܓܠܐ	-8.50262
▁ܕܚܠ	-8.50457
▁ܟܘܪܤܝܐ	-8.50518
▁ܘܤܠܩ	-8.50518
▁ܩܒܘܪܐ	-8.50533
▁ܐܒܪܗܡ	-8.50546
▁ܒܢܡܘܤܐ	-8.5057
▁ܘܥܢ	-8.50675
▁ܒܥܠܡܐ	-8.50712
ܚܩ	-8.51005
▁ܒܗܘ	-8.51277
▁ܒܪܐ	-8.51799
ܩܠܐ	-8.52185
▁ܘܡܕܡ	-8.52784
▁ܙܪܥ	-8.53185
▁ܐܒܗ	-8.5333
ܚܐ	-8.53655
▁ܟܘܡܪ	-8.53887
▁ܒܐܘܪܫܠܡ	-8.53963
▁ܤܒܪܐ	-8.54028
▁ܐܡܗ	-8.5411
ܩܐ	-8.54188
▁ܥܠܡܝܢ	-8.5424
▁ܠܐܬܪ	-8.54324
▁ܥܒܕܘ	-8.54375
▁ܫܐܕܐ	-8.54719
ܝܘ	-8.55488
▁ܒܦܓܪ	-8.55703
▁ܠܒ	-8.55897
▁ܥܒܕܘܗܝ	-8.56347
▁ܩܕܡܘܗܝ	-8.56396
▁ܕܝܬܒ	-8.56436
ܡܕܝܢܬܐ	-8.56739
▁ܕܥܡ	-8.56902
▁ܘܫܩܠ	-8.56985
▁ܐܝܬܝ	-8.57066
▁ܚܤ	-8.57129
▁ܒܐܝܕܝ	-8.5744
▁ܐܬܚܙܝ	-8.57535
▁ܘܠܝܬ	-8.57556
▁ܕܐܙܠ	-8.57583
▁ܕܥܡܡܐ	-8.57732
▁ܬܐ	-8.57738
▁ܡܠܟܘܬܗ	-8.57745
▁ܘܥܕ	-8.57898
▁ܢܐܬܐ	-8.57952
ܒܪ	-8.5814
▁ܚܙܝ	-8.58152
ܘܦ	-8.58167
ܘܠܐ	-8.58247
▁ܪܚܡ	-8.58251
ܕܥ	-8.58306
▁ܘܤܦܪܐ	-8.58395
▁ܫܪܐ	-8.58439
▁ܒܝܬܐ	-8.58541
▁ܕܒܢܝ	-8.5864
▁ܫܡܥܝܢ	-8.58732
▁ܒܒܤܪ	-8.58818
▁ܫܒܥ	-8.59105
▁ܕܐܝܬܝܗܘܢ	-8.59263
▁ܥܠܝܗ	-8.59267
▁ܐܦܩ	-8.59298
▁ܕܠܗ	-8.59711
▁ܡܪܗ	-8.59826
▁ܕܢܐܙܠ	-8.60151
ܩܐܡ	-8.60428
▁ܫܦܝܪܐ	-8.60615
▁ܐܚܕ	-8.61087
▁ܐܚܪܬܐ	-8.6125
▁ܕܫܕܪܢܝ	-8.61253
ܝܕܐ	-8.61262
▁ܠܒܢܝܢܫܐ	-8.6132
ܛܐ	-8.6142
▁ܡܠܬܗ	-8.61569
▁ܠܡܪܢ	-8.61704
▁ܠܟܝ	-8.61716
▁ܠܛܘܪܐ	-8.61734
▁ܝܗܘܕܐ	-8.62037
▁ܥܤܪ	-8.62126
ܗܠܝܢ	-8.62282
▁ܕܝܡܐ	-8.62351
▁ܪܥܝܢܐ	-8.62563
▁ܡܚܕܐ	-8.62723
ܢܘܗܝ	-8.62733
▁ܕܐܡܪܝܢ	-8.62765
▁ܒܕܡܘܬ	-8.62897
▁ܥܠܝܟ	-8.63113
▁ܘܡܐ	-8.63168
▁ܐܬܪ	-8.6347
▁ܠܒܝܬܗ	-8.63697
▁ܚܒܝܒܝ	-8.64207
▁ܕܫܡܥܘ	-8.64659
ܒܥܐ	-8.64837
ܐܝܩܪܐ	-8.65036
▁ܘܝܬܒ	-8.65115
▁ܘܬ	-8.65199
▁ܕܚܙܐ	-8.65277
▁ܕܝܕܥ	-8.6531
▁ܒܠܠܝܐ	-8.65343
▁ܕܢܬܠ	-8.65379
▁ܤܛܢܐ	-8.65461
▁ܠܒܢܝ	-8.65619
▁ܐܥܒܕ	-8.65776
▁ܤܡܝܐ	-8.65876
▁ܘܐܢܬ	-8.66083
ܪܟܐ	-8.66088
▁ܫܒ	-8.66705
▁ܘܫܡܥܬ	-8.66767
ܗܟܢܐ	-8.66849
▁ܘܒܢܝ	-8.66922
▁ܥܬܝܪܐ	-8.67425
▁ܚܟܡܬ	-8.67428
▁ܒܟܬܒ	-8.67577
▁ܬܘ	-8.68053
▁ܘܫ	-8.68336
▁ܝܡܝܢ	-8.68422
▁ܘܢܦܩܘ	-8.68513
▁ܦܘܡܗ	-8.6856
ܤܐ	-8.68842
▁ܢܗܘܝܢ	-8.69086
▁ܠܫܡܥܘܢ	-8.69087
▁ܠܫܡܝܐ	-8.69113
▁ܘܩܫܝܫܐ	-8.69135
▁ܕܫܪܪܐ	-8.69142
▁ܕܚܙܝܢ	-8.69154
▁ܠܐܚܘܗܝ	-8.69193
▁ܘܤܓܝܐܐ	-8.69203
▁ܚܡܫܐ	-8.69286
▁ܐܒܘܢ	-8.69411
▁ܡܢܟ	-8.70068
ܝܠ	-8.70075
▁ܠܥܡܐ	-8.70558
▁ܢܦܫܟܘܢ	-8.70674
▁ܕܢܚܬ	-8.70816
▁ܦܓܪ	-8.71144
ܩܪܒܘ	-8.71161
▁ܟܤ	-8.71184
▁ܐܙܕܗܪ	-8.71274
▁ܥܡܟ	-8.71507
ܬܫܒܘܚܬܐ	-8.71558
▁ܒܤܪ	-8.71604
▁ܚܒܝܒܐ	-8.71635
▁ܡܛܝ	-8.71665
▁ܬܚ	-8.72173
▁ܙܥܘܪܐ	-8.72684
▁ܠܡܠܟܘܬ	-8.72868
▁ܕܫܡܥ	-8.72896
▁ܝܕ	-8.7309
▁ܕܚܠܬܐ	-8.73161
▁ܘܟܐ	-8.73172
▁ܕܚܢܢ	-8.7327
▁ܠܡܐܟܠ	-8.73288
▁ܢܩܘܡ	-8.73306
▁ܕܢܘܪܐ	-8.73357
▁ܢܘܪܐ	-8.73395
▁ܠܥܒܕ	-8.73445
▁ܕܘܝܕ	-8.73468
▁ܐܬܝܢ	-8.73497
▁ܐܫܟܚܘ	-8.73605
ܡܢ	-8.74063
ܨ	-8.74224
▁ܡܟܤܐ	-8.74329
ܟܪ	-8.74389
▁ܐܦܝ	-8.74467
▁ܕܢܚܙ	-8.74595
▁ܕܡܬ	-8.74932
▁ܚܝܘܬܐ	-8.75161
ܪܫܐ	-8.75321
▁ܐܘܠܨܢܐ	-8.75445
▁ܟܝ	-8.75528
▁ܚܙܝܬ	-8.75675
▁ܘܫܠܡܐ	-8.75821
▁ܕܟܠܗܘܢ	-8.76497
▁ܫ	-8.76528
▁ܬܬ	-8.76574
▁ܢܦܩܬ	-8.76976
▁ܚܝܒ	-8.77211
▁ܡܡܠܠܝܢ	-8.77255
▁ܩܝܡ	-8.77348
▁ܚܛܝܐ	-8.77599
▁ܒܝܢܬܗܘܢ	-8.77622
▁ܕܓܒܪܐ	-8.77638
▁ܝܘܤܦ	-8.77759
▁ܦܬܚ	-8.77869
▁ܠܟܠܢܫ	-8.77891
▁ܐܬܬ	-8.7801
▁ܐܚܪܝܢ	-8.78079
▁ܝܥܩܘܒ	-8.78298
▁ܡܕܝܢ	-8.78364
▁ܢܦܫܢ	-8.78483
ܬܟܘܢ	-8.78525
▁ܠܐܪܥܐ	-8.78575
▁ܘܒܥ	-8.78926
▁ܠܘ	-8.79041
ܘܪ	-8.79278
ܬܫܡܫܬܐ	-8.79291
▁ܐܢܬܬܗ	-8.79375
▁ܡܠܟ	-8.79524
▁ܕܢܦܩ	-8.7955
ܘܒ	-8.8002
ܓܐ	-8.80042
▁ܪܚܡܐ	-8.80291
▁ܕܝܕܥܝܢ	-8.80304
ܓܪ	-8.80446
▁ܙܪܥܐ	-8.80589
ܘܡܐ	-8.80786
▁ܘܐܫܟܚ	-8.80934
▁ܢܦܩܘ	-8.81016
ܪܡ	-8.81117
▁ܢܦܫܗܘܢ	-8.812
▁ܡܫܟܚܐ	-8.81268
▁ܛ	-8.81676
▁ܕܚ	-8.81725
▁ܘܗܝ	-8.82014
ܛܝܒܘܬܗ	-8.82046
▁ܕܢܦܠ	-8.82083
ܐܪܥܐ	-8.82095
▁ܕܩܕܝܫܐ	-8.82145
▁ܪܗܛ	-8.82146
▁ܕܐܒܪܗܡ	-8.82191
▁ܡܗܠܟܝܢ	-8.82194
▁ܡܬܚܙܐ	-8.82199
▁ܘܕܒܪ	-8.82391
▁ܠܐܚܪܢܐ	-8.82537
ܪܘ	-8.82591
▁ܚܘܝ	-8.82636
▁ܒܡܕܝܢܬܐ	-8.82654
▁ܕܢܐܡܪ	-8.82685
▁ܕܗܝܡܢܘܬܐ	-8.82724
▁ܛܘܪ	-8.82749
▁ܦܬܓܡܐ	-8.8288
▁ܡܤܒܪ	-8.82925
▁ܘܒܪܟ	-8.82985
▁ܦܓܪܗ	-8.83058
▁ܕܕܗܒܐ	-8.83143
▁ܝܕܥܘ	-8.83583
▁ܪܘܚ	-8.83687
ܘܪܐ	-8.84212
▁ܢܫܡܥ	-8.84869
▁ܕܥܡܐ	-8.85089
▁ܒܥܠ	-8.85102
ܝܤ	-8.85264
▁ܐܕܢ	-8.856
ܟܠ	-8.85668
ܬܝܗܒ	-8.85785
ܦܝܠܝܦ	-8.85858
▁ܕܝܠܟ	-8.86177
ܦܘܩ	-8.86229
▁ܥܡܢ	-8.86837
▁ܥܘܠܐ	-8.86876
▁ܛܢܦܬܐ	-8.86906
▁ܒܐܠܗܐ	-8.86907
▁ܟܦܢ	-8.86915
▁ܠܗܝܟܠܐ	-8.86915
▁ܕܡܫܟܚ	-8.86945
▁ܒܝܢܬܟܘܢ	-8.86957
ܠܬܐ	-8.86959
▁ܦܨܚܐ	-8.87003
▁ܒܟܝ	-8.87024
▁ܕܥܐܠ	-8.8706
▁ܝܘܡܢܐ	-8.87137
▁ܟܢܘܫܬܐ	-8.87181
▁ܘܚܪ	-8.87191
▁ܦܩܚ	-8.87206
▁ܬܢܢ	-8.87208
ܤܘܓܐ	-8.87248
▁ܡܫܡܫܢܐ	-8.87341
ܥܘܠ	-8.87455
▁ܥܩܪ	-8.87506
▁ܕܐܒܐ	-8.87594
▁ܠܗܫܐ	-8.87599
ܬܗܘܘܢ	-8.87658
▁ܐܟܚܕܐ	-8.8768
▁ܚܫ	-8.87827
▁ܩܕܡܝܬܐ	-8.87936
ܚܪ	-8.88227
▁ܡܚ	-8.88436
ܡܟܝܠ	-8.88556
▁ܐܝܕܝ	-8.88971
▁ܐܩܝܡ	-8.89237
▁ܫܡܫܐ	-8.89246
ܒܠ	-8.89286
▁ܒܗܝܢ	-8.89329
▁ܩܠܗ	-8.89412
▁ܡܢܝ	-8.89419
ܩܝܡܝܢ	-8.89457
▁ܕܟܠܗ	-8.89775
▁ܕܥܡܪ	-8.89842
ܡܬܠܐ	-8.899
ܩܘܪܝܐ	-8.9005
ܝܟܐ	-8.90254
▁ܚܕܘܬܐ	-8.9074
▁ܘܡܠܦ	-8.90834
▁ܐܦܢ	-8.90905
▁ܓܒ	-8.91218
▁ܘܝܕܥ	-8.91415
ܛܪ	-8.91518
▁ܘܐܠܗ	-8.9153
▁ܘܐܢܫ	-8.91742
▁ܘܒܟܠ	-8.91776
▁ܕܓܠܝܠܐ	-8.91907
▁ܫܥܝܢ	-8.91907
▁ܢܐܬܘܢ	-8.9198
▁ܕܝܬܝܪ	-8.91987
▁ܕܢܥܒܕ	-8.92002
ܕܘܢ	-8.92027
▁ܐܪܙ	-8.92033
▁ܒܚܘܒܐ	-8.92109
▁ܡܩܘܐ	-8.92111
▁ܕܬܕܥܘܢ	-8.92114
▁ܒܫܥܬܐ	-8.92222
▁ܪܝܫ	-8.92231
▁ܒܫܒܬܐ	-8.92233
▁ܕܚܙܘ	-8.92268
▁ܓܙܘܪܬܐ	-8.92277
▁ܕܥܡܗ	-8.92304
▁ܕܕܚܠ	-8.92309
▁ܥܢܢ	-8.9232
▁ܤܗܕܐ	-8.9236
▁ܠܥܕܬܐ	-8.92369
ܝܪ	-8.92549
▁ܙܕܝܩܐ	-8.92629
▁ܝܘܠܦܢ	-8.92692
▁ܘܩܕܡ	-8.92769
▁ܒܝܫ	-8.92809
▁ܘܡܝܬ	-8.92869
ܤܝܐ	-8.92916
▁ܒܚܝܠܐ	-8.9305
▁ܦܝܠܝܦ	-8.93088
ܝܘܠܦܢܐ	-8.93183
▁ܘܐܬܝܗܒ	-8.9321
▁ܒܗܠܝܢ	-8.93339
▁ܒܠܚܘܕܘܗܝ	-8.9337
▁ܐܝܠܢܐ	-8.93389
▁ܚܪ	-8.93449
▁ܕܚܝܠ	-8.93695
▁ܫܪܟܐ	-8.93775
▁ܓ	-8.93858
▁ܠܫܢ	-8.9391
ܕܢܐ	-8.94096
▁ܕܫܘ	-8.94315
ܝܡܐ	-8.94391
▁ܒܗܝ	-8.94491
▁ܕܬܪܬܝܢ	-8.94611
ܦܐ	-8.94677
▁ܐܒܘܟ	-8.94704
▁ܡܐܬ	-8.952
ܐܟܘܠ	-8.95242
ܦܢ	-8.95379
▁ܘܠܡܢ	-8.95559
▁ܕܒܤܪܐ	-8.95729
▁ܒܚ	-8.95746
ܪܤ	-8.95969
▁ܒܝܡ	-8.96048
▁ܟܪܝܗܐ	-8.96359
ܡܪܢ	-8.96461
ܥܐ	-8.96488
▁ܐܠܦ	-8.96666
▁ܕܡܠܠ	-8.96775
ܟܬܘܒ	-8.97151
▁ܘܐܬܚܙܝ	-8.97169
▁ܘܐܪܒܥ	-8.97171
▁ܢܨܪܝܐ	-8.97172
▁ܡܐܟܘܠܬܐ	-8.97192
▁ܤܐܡ	-8.97208
ܟܡܐ	-8.97209
▁ܡܨܠܐ	-8.97305
▁ܠܥܡܡܐ	-8.97325
▁ܒܥܓܠ	-8.97382
ܝܗܘܕܝܐ	-8.97416
▁ܒܟܢܘܫܬܐ	-8.97519
▁ܤܗܕ	-8.9763
▁ܘܡܡܠܠ	-8.97689
▁ܡܘܠܟܢܐ	-8.9769
▁ܠܒܝܫ	-8.97693
▁ܤܝܡܬ	-8.97757
▁ܡܚܒ	-8.9778
▁ܒܓܠܐ	-8.97793
▁ܕܟܝܐ	-8.97846
▁ܘܥ	-8.97864
▁ܥܝܢܝܗܘܢ	-8.97867
▁ܥܒܕܗ	-8.97884
▁ܥܝܢܘܗܝ	-8.97928
▁ܟܬܒܬ	-8.98264
▁ܐܪܒܥܝܢ	-8.98428
▁ܕܡܬܩܪܝ	-8.98562
ܡܠܬܐ	-8.98663
▁ܕܫܡܥܝܢ	-8.98967
▁ܟܐܢܘܬܐ	-8.99061
▁ܕܥ	-8.99062
ܪܝ	-8.99237
▁ܛܘܒܝܗ	-8.99516
▁ܕܫܦܝܪ	-8.9955
▁ܕܤܒܪ	-8.99574
▁ܚܝܠܗ	-8.99686
▁ܕܥܘ	-8.9992
▁ܘܠܗ	-9.00273
▁ܛܘܒ	-9.00355
▁ܕܤ	-9.00441
ܩܢ	-9.00443
▁ܘܫܒܩ	-9.00498
▁ܚܡܫ	-9.00989
ܚܝ	-9.01005
▁ܗܕܡ	-9.01239
▁ܕܚܙܝܬ	-9.01259
▁ܡܗܠܟ	-9.01269
▁ܕܗܝ	-9.01299
▁ܥܢܝ	-9.01587
▁ܠܓܘ	-9.01731
▁ܐܚܝܕ	-9.01852
ܩܠܝܠ	-9.01888
▁ܤܒ	-9.01928
▁ܠܒܝܬܐ	-9.02097
▁ܐܙܠܝܢ	-9.02121
▁ܘܐܪܡܝ	-9.02174
▁ܒܢܦܫܗ	-9.02179
▁ܥܠܬܐ	-9.0239
▁ܠܡܪܝܐ	-9.02635
▁ܦܠܚܐ	-9.0267
▁ܐܫܟܚܬ	-9.02702
▁ܠܓܠܝܠܐ	-9.02725
▁ܕܦܩܕ	-9.02728
▁ܕܤܠܩ	-9.02733
▁ܘܤܒܪ	-9.0274
▁ܕܚܛܝܬܐ	-9.02754
▁ܝܗܒܬ	-9.0276
▁ܒܫܠܡܟ	-9.02769
▁ܘܚܢܢ	-9.02778
▁ܟܘܒ	-9.02779
▁ܢܫܠܡ	-9.02784
▁ܘܬܡܢ	-9.02785
▁ܕܘܟܬ	-9.02795
▁ܒܢܘܪܐ	-9.02797
▁ܐܬܝܠܕ	-9.02806
▁ܩܪܝܒ	-9.02952
ܟܤܐ	-9.02959
▁ܠܡܫܡܥ	-9.0296
▁ܤܓܕ	-9.02989
▁ܕܝܘܐ	-9.02998
▁ܒܡܝܐ	-9.03003
▁ܝܪܬ	-9.03008
▁ܟܐܢܐ	-9.03041
ܚܪܝܢܐ	-9.03058
▁ܒܫܡܝ	-9.03072
▁ܐܤܝܪ	-9.03072
▁ܡܘܕܐ	-9.03129
▁ܕܢܬ	-9.03132
ܪܡܐ	-9.03135
▁ܘܬܗܘ	-9.03153
▁ܕܐܒܝ	-9.03158
ܗܘܝܘ	-9.03205
▁ܗܝܡܢܘܬܟܘܢ	-9.03223
▁ܕܦܓܪܐ	-9.03236
▁ܒܢܦܫܗܘܢ	-9.03512
▁ܕܡܘܫܐ	-9.0357
▁ܪܫܝܢ	-9.03652
▁ܕܢܦܫܗ	-9.03655
▁ܩܕܡܝ	-9.03722
▁ܗܒ	-9.03778
▁ܕܢܫܪ	-9.03906
▁ܘܓܒܪ	-9.03909
▁ܠܢܦܫܗ	-9.04235
▁ܪܕܦ	-9.04285
▁ܕܝܠܗܘܢ	-9.04361
▁ܢܗܪ	-9.04377
▁ܐܠܦܐ	-9.04767
▁ܕܡܠܐ	-9.0477
▁ܕܩܝܡ	-9.04845
▁ܠܘܬܟ	-9.05173
▁ܒܤܪܐ	-9.05233
▁ܟܤܦܐ	-9.05459
▁ܒܥܒܕܐ	-9.05509
ܥܒܕ	-9.05515
▁ܘܐܚ	-9.05654
▁ܚܟܝܡܐ	-9.05743
▁ܕܡܗܝܡܢܝܢ	-9.05762
▁ܘܫܡܥܘ	-9.05812
▁ܤܥܪ	-9.05982
ܪܥ	-9.06146
▁ܚܠܐ	-9.06169
ܒܝܕ	-9.06281
▁ܕܚܝ	-9.06317
▁ܡܫܒܚ	-9.06386
ܠܚ	-9.06637
▁ܢܫ	-9.06646
▁ܩܕܝܫ	-9.06942
▁ܐܪܒܥ	-9.07142
▁ܝܗܘܕ	-9.0719
▁ܗܝܡܢ	-9.07708
ܥܢܐ	-9.07746
▁ܩܛܠ	-9.07863
ܡܩܕܘܢܝܐ	-9.08044
▁ܘܐܚܕ	-9.08117
▁ܕܬܠܬܐ	-9.08171
▁ܫܕܪܬ	-9.08174
▁ܕܛܒ	-9.08317
▁ܦܪܨܘܦ	-9.08418
▁ܦ	-9.08574
▁ܐܬܡܠܝ	-9.08607
▁ܓܠܝܠܐ	-9.08607
▁ܒܨܒܝܢ	-9.0861
▁ܘܡܫܐܠ	-9.08614
▁ܡܬܚܫܒ	-9.08623
▁ܕܐܩܝܡ	-9.08656
▁ܟܢܫ	-9.08718
▁ܡܫܕܪ	-9.08721
▁ܠܡܫܝܚܐ	-9.08741
▁ܦܬܟܪܐ	-9.08781
▁ܕܤܓܝܐܐ	-9.08829
▁ܢܚܘ	-9.09089
▁ܨܠܘ	-9.09092
▁ܩܢܛܪܘܢ	-9.0912
▁ܐܬܟܢܫܘ	-9.09157
▁ܢܤܒܝ	-9.09244
▁ܦܪܩ	-9.09295
▁ܕܫܒܬܐ	-9.09332
▁ܠܡܪܝ	-9.09955
ܕܝ	-9.10039
▁ܥܘܠ	-9.10134
▁ܠܟܠܗ	-9.10186
▁ܢܚܙܘܢ	-9.10194
ܥܗܕ	-9.10545
▁ܥܠܝܢ	-9.10625
▁ܕܩܡ	-9.10706
ܒܝ	-9.10793
ܟܢܫܐ	-9.10795
▁ܫܡܥܬ	-9.1086
ܒܗ	-9.11154
▁ܕܫܡܥܘܢ	-9.11281
▁ܫܡܝ	-9.11346
▁ܫܡܥܬܘܢ	-9.11414
ܚܘܒܗ	-9.11989
▁ܢܦܫܐ	-9.12103
▁ܪܚܝܩ	-9.12132
ܤܪ	-9.12185
▁ܛܝܒܘ	-9.1224
▁ܒܫ	-9.12309
▁ܐܓܪܐ	-9.12534
▁ܠܡܕܥ	-9.1265
▁ܘܒܝܬ	-9.12672
▁ܘܗܦܟ	-9.12805
▁ܘܙܒܢ	-9.12822
▁ܐܡܬ	-9.12923
ܥܕܬܐ	-9.13058
ܬܪ	-9.13305
▁ܠܡܤܒ	-9.13533
▁ܕܡܟ	-9.13682
ܤܩ	-9.13767
▁ܕܫܪ	-9.13811
▁ܢܐܙܠ	-9.14014
▁ܬܕܚܠ	-9.14125
▁ܡܦܤ	-9.14165
▁ܕܠܘܬ	-9.1441
▁ܘܐܬܦܢܝ	-9.14861
▁ܘܝܬܝܪ	-9.14861
▁ܘܢܒܝܐ	-9.14861
▁ܐܬܕܟܪ	-9.14866
▁ܙܕܝܩܘܬܐ	-9.14874
▁ܡܘܕܝܢ	-9.14878
▁ܝܪܚ	-9.14883
▁ܚܛܗܝܢ	-9.14893
▁ܕܐܝܤܪܝܠ	-9.14896
▁ܐܚܪܢܝܬܐ	-9.14937
▁ܘܢܛܪ	-9.14939
▁ܠܡܡܠܠܘ	-9.14946
▁ܘܝܘܚܢܢ	-9.14957
▁ܡܡܬܘ	-9.14997
▁ܒܛܝܠ	-9.1504
▁ܐܬܠ	-9.15093
▁ܦܪܫ	-9.15157
▁ܠܡܤܟܢܐ	-9.15177
▁ܒܙܒܢ	-9.15258
▁ܩܕܝܫܬܐ	-9.15297
▁ܘܚܙܘ	-9.15319
▁ܒܤ	-9.15329
▁ܘܚܝܐ	-9.15333
▁ܗܢܝܢ	-9.15337
▁ܩܘܪܒܢܐ	-9.15366
▁ܕܪܝܫ	-9.15367
▁ܕܐܬܘ	-9.15453
▁ܐܪܡܠܬܐ	-9.15559
▁ܒܟܠܡܕܡ	-9.15601
ܛܘ	-9.15716
▁ܐܬܪܚܡ	-9.15763
▁ܝܠܕ	-9.16027
▁ܕܡܝܬܪ	-9.16029
▁ܡܛܪ	-9.16091
▁ܠܐܒܘܗܝ	-9.1618
▁ܦܠܚ	-9.16278
ܘܢܢܝ	-9.16567
▁ܒܪܝܬܐ	-9.16582
ܕܗܒܐ	-9.16721
▁ܒܫܡ	-9.16793
▁ܢܐܡܪܘܢ	-9.16816
▁ܘܡܠܟ	-9.16869
▁ܥܪܒ	-9.16913
ܪܝܐ	-9.17153
▁ܫܪܝܪ	-9.17432
▁ܟܠܝ	-9.17972
▁ܕܚܫ	-9.18257
ܩܪ	-9.18272
▁ܒܒܝܬܗ	-9.18322
ܦܝ	-9.1854
ܝܩ	-9.18666
ܠܠܝܐ	-9.18724
▁ܒܥܠܕܒܒ	-9.191
ܝܦ	-9.1948
ܒܘܬܐ	-9.19561
▁ܟܦܪ	-9.20056
ܚܟܡܬ	-9.20105
▁ܘܕܡ	-9.20169
▁ܥܒܕܝ	-9.20561
▁ܒܕ	-9.21094
▁ܡܫܠܡ	-9.21205
ܤܟܠ	-9.2132
ܪܫ	-9.21407
▁ܠܐܒܝ	-9.2149
▁ܥܒܕܬ	-9.21501
▁ܫܐܘܠ	-9.21524
▁ܠܬܡܢ	-9.2153
▁ܠܡܗܘܐ	-9.2153
▁ܡܚܝܒ	-9.21531
▁ܘܚܝܠܐ	-9.21533
▁ܠܡܩܡ	-9.21541
▁ܕܟܐܢܘܬܐ	-9.21599
▁ܘܐܫܠܡ	-9.21611
▁ܕܬܘܒ	-9.21627
▁ܥܢܘ	-9.21661
ܘܕܐ	-9.21676
▁ܐܟܠܩܪܨܐ	-9.21719
▁ܙܢܝܘܬܐ	-9.21777
▁ܡܥܡܕܢܐ	-9.21786
▁ܠܒܘܬܟܘܢ	-9.21868
▁ܐܤܛܪܛܝܘܛܐ	-9.21873
ܘܬܗܘܢ	-9.21882
▁ܡܬܛܦܝܤܝܢ	-9.2189
ܚܬܢܐ	-9.2191
▁ܩܡܬ	-9.21954
ܝܥܩܘܒ	-9.21969
▁ܬܗܝܡܢܘܢ	-9.21971
▁ܕܥܒܪ	-9.21973
▁ܕܚܠܬ	-9.21975
▁ܘܥܒܪ	-9.21979
▁ܐܫܥܝܐ	-9.2203
▁ܙ	-9.22053
▁ܬܪܝܗܘܢ	-9.22144
▁ܬܕܚܠܘܢ	-9.22341
▁ܕܩܤܪ	-9.22374
▁ܛܥܝ	-9.22578
▁ܕܩܪܐ	-9.22654
▁ܐܓܪܬܐ	-9.22657
▁ܒܡܢ	-9.22723
ܠܟ	-9.22813
▁ܐܝܕܝܐ	-9.22901
▁ܚܪܫ	-9.23043
▁ܠܡܬܠ	-9.23159
▁ܥܡܕ	-9.23229
▁ܘܢܚܬ	-9.23278
▁ܡܠܠܬ	-9.23315
▁ܢܕܥ	-9.23331
▁ܙܥܘܪ	-9.23407
▁ܤ	-9.23473
ܡܠܟܘܬܐ	-9.23509
▁ܫܒܚ	-9.23859
ܒܝܫܘܥ	-9.23917
▁ܤܟܠ	-9.23988
▁ܚܫܘܟܐ	-9.24044
▁ܒܠܫܢܐ	-9.24187
▁ܐܟܪܙ	-9.24273
▁ܡܫ	-9.24435
ܓܕ	-9.24768
▁ܫܡܐ	-9.25101
ܘܬ	-9.25472
▁ܗܘܝܘ	-9.25725
ܛܘܤ	-9.25771
▁ܡܚܘ	-9.25881
▁ܕܒܟܠ	-9.25925
▁ܘܟܢܫ	-9.25931
▁ܟܐ	-9.26036
▁ܕܦܪܝܫ	-9.26042
ܘܚ	-9.26119
▁ܟܠܝܠ	-9.26306
▁ܐܫܠܡ	-9.2644
▁ܘܢܐܡܪ	-9.26466
▁ܚܤܡ	-9.26599
ܡܨܪܝܢ	-9.26625
ܤܦܪܐ	-9.26677
▁ܐܟܠܝܢ	-9.26779
▁ܐܤܝ	-9.26925
▁ܘܡܟܪܙ	-9.26981
▁ܪܘ	-9.26998
ܟܠܡܕܡ	-9.27193
▁ܚܝܠ	-9.27203
▁ܘܡܚ	-9.27233
▁ܨܒܘ	-9.27257
ܠܥܙܪ	-9.27597
ܚܘ	-9.2768
▁ܢܡܠܠ	-9.27996
ܫܘܒܚܗ	-9.28233
▁ܥܡܪ	-9.28533
▁ܕܬܠܬ	-9.28605
▁ܝܘܡ	-9.28663
▁ܡܒܪܟ	-9.28668
▁ܠܒܪܢܫܐ	-9.28675
▁ܫܥܐ	-9.28697
▁ܪܘܚܩܐ	-9.28704
▁ܢܥܒܪ	-9.28741
▁ܐܬܦܬܚ	-9.28773
▁ܘܐܪܝܡ	-9.28784
▁ܒܡܕܒܪܐ	-9.28798
▁ܠܐܒܪܗܡ	-9.28816
▁ܕܗܘܝ	-9.2883
▁ܕܩܪܝܒ	-9.28839
▁ܟܪ	-9.28843
▁ܠܩܪܝܬܐ	-9.28888
▁ܥܘܬܪ	-9.28957
▁ܕܕܝܬܩܐ	-9.29023
▁ܟܪܝܗ	-9.29061
▁ܤܢܐ	-9.29077
▁ܕܚܪ	-9.29125
▁ܕܢܥܘܠ	-9.29146
▁ܟܠܝܘܡ	-9.29153
▁ܫܘܒܗܪ	-9.2921
ܤܡܝܐ	-9.29254
▁ܢܡܘܬ	-9.29288
▁ܗܟܘܬ	-9.29297
ܐܚܘܕ	-9.29337
▁ܦܘܪܩܢܐ	-9.29403
▁ܡܛܠܬܟܘܢ	-9.29489
▁ܕܤܛܢܐ	-9.2957
▁ܒܝܢܝ	-9.29597
ܙܘܥ	-9.29652
▁ܕܕܝܢܐ	-9.29702
ܪܓܙ	-9.29746
▁ܫܢܐ	-9.2978
▁ܪܕܝܢ	-9.29816
▁ܒܨܠܘܬܐ	-9.29846
▁ܒܐܬܪ	-9.2986
▁ܘܫܬܐ	-9.30064
▁ܕܝܥܩܘܒ	-9.30142
▁ܕܟܪܝܗ	-9.30222
ܡܚܐ	-9.3031
▁ܕܫܠܝܚܐ	-9.30334
▁ܕܝܘܡܐ	-9.30478
▁ܐܪܡܝ	-9.30649
▁ܦܪ	-9.30658
ܩܨ	-9.31095
ܪܒܐ	-9.31186
▁ܕܫܠܡܐ	-9.31219
▁ܘܩܥܐ	-9.31224
▁ܠܢܡܘܤ	-9.31281
▁ܘܐܦܩ	-9.3129
▁ܡܠܝܢ	-9.31629
▁ܚܘܒ	-9.31716
▁ܦܠ	-9.31822
▁ܕܕ	-9.32032
▁ܒܦܘܡ	-9.32178
▁ܚܙ	-9.3221
▁ܕܥܡܝ	-9.32345
ܨܒܐ	-9.32425
▁ܠܘܬܢ	-9.3253
▁ܕܡܠܟܐ	-9.329
ܫܡܥ	-9.32907
▁ܪܘܪܒܐ	-9.33055
ܐܬܝܗܒܬ	-9.33114
▁ܐܫܬܟܚ	-9.33294
▁ܫܠܝ	-9.33353
▁ܘܩܠ	-9.33479
ܠܘܢ	-9.33482
ܚܡ	-9.33503
▁ܢܦܠܬ	-9.33533
▁ܤܦ	-9.33567
▁ܐܤ	-9.33642
▁ܘܐܪܡܝܘ	-9.3383
▁ܕܒܥܝܢ	-9.34046
ܚܘܢ	-9.34418
▁ܕܢܚܐ	-9.34442
▁ܕܩ	-9.34519
ܐܤܘܪ	-9.34571
ܬܗܘܢ	-9.34593
▁ܡܛܝܒ	-9.34711
ܛܝܡܬܐܘܤ	-9.34923
▁ܕܝܗܘܕ	-9.35079
▁ܙܕܩ	-9.35207
▁ܕܙܪܥ	-9.35266
▁ܕܬܬ	-9.35546
▁ܢܚܫ	-9.35574
▁ܘܚܘܒ	-9.35613
▁ܒܠܒܗ	-9.35854
▁ܘܠܝܘܚܢܢ	-9.36359
ܫܓܘܫܝܐ	-9.36359
▁ܠܝܘܚܢܢ	-9.36359
▁ܘܪܗܛ	-9.36362
▁ܡܫܬܥܒܕ	-9.36373
▁ܪܡܫܐ	-9.36381
▁ܢܘܟܪܝܐ	-9.36382
▁ܬܪܢܓܠܐ	-9.36389
▁ܓܒܪܝܢ	-9.36411
▁ܠܡܚܙܐ	-9.36448
▁ܠܡܪܗ	-9.3645
▁ܢܬܩܪܐ	-9.36472
▁ܕܬܡܢ	-9.36503
▁ܩܕܡܝܟ	-9.36527
ܘܚܪ	-9.36563
▁ܠܥܒܪܐ	-9.36571
▁ܠܟܢܘܫܬܐ	-9.36583
ܦܗܤܛܘܤ	-9.36653
▁ܡܬܕܡܪ	-9.36701
▁ܡܫܪܝܐ	-9.36705
▁ܕܡܛܝܒ	-9.36744
▁ܐܫܬܠܡ	-9.36755
▁ܘܠܐܡܗ	-9.3679
▁ܕܢܬܡܠ	-9.36844
▁ܢܝܚ	-9.36854
▁ܤܦܩ	-9.36882
▁ܠܐܠܦܐ	-9.36906
▁ܕܟܠܢܫ	-9.36942
▁ܗܓܡܘܢܐ	-9.3695
▁ܕܦܘܠܘܤ	-9.36957
▁ܕܚܙܝܬܘܢ	-9.36964
▁ܟܪܡܐ	-9.3699
ܫܘܒܚܐ	-9.36996
▁ܩܤܪ	-9.3706
▁ܥܒܝܕܝܢ	-9.3711
▁ܦܓܪܝ	-9.37121
▁ܘܐܩܝܡܗ	-9.37157
▁ܘܫܐܠܘܗܝ	-9.37178
▁ܕܐܝܬܝ	-9.37188
▁ܐܬܓܠܝ	-9.372
▁ܡܝܬܬ	-9.37274
▁ܗܦܟ	-9.37316
▁ܠܐܒܐ	-9.37478
▁ܟܠܢ	-9.37492
ܫܟ	-9.37531
▁ܕܡܠܐܟܐ	-9.37613
▁ܒܕܚܠܬܐ	-9.37651
▁ܒܕܘܟܬ	-9.37722
▁ܫܪܝܢ	-9.37749
▁ܒܬܐ	-9.37757
▁ܩܒܠ	-9.3779
▁ܒܪܟ	-9.37852
▁ܒܥܠܗ	-9.37856
▁ܕܪ	-9.37928
ܨܘ	-9.38032
ܙܒܘ	-9.3805
▁ܘܐܬܬ	-9.38109
ܪܬ	-9.3811
ܠܒܫ	-9.38147
ܤܝܒܪ	-9.38151
▁ܚܒܠܐ	-9.38205
ܘܕ	-9.38529
ܫܪܟܐ	-9.38626
▁ܒܡܕܡ	-9.38655
▁ܘܪܘܚ	-9.3866
▁ܘܫܕܪܘ	-9.38877
▁ܕܒܤܪ	-9.39015
▁ܤܗܕܝܢ	-9.39082
▁ܕܢܚ	-9.39174
ܝܡܬܐ	-9.39374
▁ܐܦܝܟܘܢ	-9.39447
▁ܩܪ	-9.39507
▁ܥܪܩ	-9.39661
ܓܪܐ	-9.39722
▁ܘܠܟ	-9.39755
▁ܩܪܝܐ	-9.39806
ܟܦܘܪ	-9.40062
ܫܝܠܐ	-9.40066
▁ܕܐܡܪܬ	-9.40086
▁ܕܟܬܒ	-9.40261
▁ܦܠܚܝܢ	-9.40269
▁ܦܘܡܐ	-9.40406
▁ܕܨܒܝܢ	-9.40438
▁ܤܪܝܩܐ	-9.40494
▁ܐܫܬ	-9.40788
▁ܐܚܝܕܝܢ	-9.40874
▁ܪܫܝܬ	-9.40891
▁ܩܘ	-9.40943
▁ܬܒ	-9.41062
▁ܤܒܪܬ	-9.4125
ܦܝܢ	-9.41318
▁ܘܐܝܬܝ	-9.41319
ܪܘܓܙܐ	-9.41324
▁ܝܠܦ	-9.41378
▁ܐܦܤ	-9.41473
ܦܪܥܘܢ	-9.41517
▁ܠܐܢܬܬ	-9.41751
ܬܚܝܒ	-9.41907
▁ܫܬܐ	-9.4193
▁ܕܡܗ	-9.42004
▁ܒܪܥܝܢ	-9.42899
▁ܘܩܛܠ	-9.43023
▁ܝܨܦ	-9.43137
ܬܥܒܕܘܢ	-9.43201
ܫܝ	-9.43264
ܒܘܪܟܬܐ	-9.43265
▁ܒܩܢ	-9.4333
ܫܝܢ	-9.43485
▁ܕܡܛܠ	-9.43558
▁ܪܓܠܝܗ	-9.43602
▁ܘܩܕܝܫ	-9.43812
▁ܐܝܕ	-9.43837
ܤܪܐ	-9.4387
▁ܕܢܫܡܥ	-9.43941
ܫܬܠܡ	-9.43944
▁ܢܚܙ	-9.4396
ܝܘܤ	-9.44162
ܡܫܚ	-9.44238
▁ܡܫܡܫ	-9.44249
▁ܐܚܒ	-9.44281
ܝܥ	-9.44309
ܨܠܘܬܐ	-9.44493
▁ܕܐܤܗܕ	-9.44693
▁ܕܝܡܝܢܐ	-9.44693
▁ܤܟܪܝܘܛܐ	-9.44693
▁ܠܬܝܒܘܬܐ	-9.44693
▁ܒܓܠܝܢ	-9.44693
▁ܢܫܬܒܩ	-9.44694
ܐܨܦ	-9.44705
▁ܡܓܕܠܝܬܐ	-9.44709
▁ܝܗܝܒ	-9.44709
▁ܨܦܪܐ	-9.44722
▁ܝܩܕ	-9.44728
▁ܒܫܪܪܐ	-9.44749
▁ܕܤܝܡ	-9.44788
▁ܟܢܝܫܝܢ	-9.44813
▁ܕܝܘܡܢܐ	-9.44819
ܐܬܬܥܝܪܘ	-9.44825
▁ܡܫܬܠܡ	-9.44847
ܤܓܘܕ	-9.44893
▁ܕܡܢܗ	-9.44893
▁ܘܐܡܝܢ	-9.44915
▁ܕܘܟܐ	-9.44944
▁ܠܡܥܠ	-9.44946
ܢܝܐ	-9.44975
▁ܕܐܘܢܓܠܝܘܢ	-9.45004
▁ܒܤܦܝܢܬܐ	-9.45069
▁ܬܦܠ	-9.45095
▁ܦܨ	-9.45096
▁ܐܝܕܝܗܘܢ	-9.45159
▁ܝܘܢܐ	-9.45169
▁ܘܬܠܡܝܕܘܗܝ	-9.45173
▁ܕܫܒܥ	-9.4519
ܓܪܬ	-9.45241
▁ܦܘܩܕܢܘܗܝ	-9.45244
▁ܬܢܝܢܐ	-9.45245
▁ܘܐܬܠ	-9.4528
▁ܠܒܗܘܢ	-9.45313
▁ܘܡܪܝܡ	-9.4534
▁ܫܠ	-9.4535
▁ܠܕܝܢܐ	-9.45362
▁ܘܐܤܪ	-9.45378
▁ܒܛܝܒܘܬܐ	-9.45383
ܪܢ	-9.4539
▁ܐܬܩܪܝ	-9.45444
▁ܕܫܡܥܬܘܢ	-9.4549
▁ܠܛܠܝ	-9.45492
▁ܒܫܘܒܚܐ	-9.45503
ܡܘܢ	-9.45534
▁ܡܠܐܟܘܗܝ	-9.45535
▁ܕܩܪܝܢ	-9.45585
ܬܝܕܥ	-9.45588
▁ܚܛܐ	-9.45639
ܪܘܢ	-9.45701
ܘܫܛ	-9.45729
▁ܒܥܕܬܐ	-9.45742
▁ܦܤܩ	-9.45748
▁ܢܘܢܐ	-9.45801
▁ܠܐܡܗ	-9.45828
▁ܬܒܘ	-9.45999
▁ܚܝܠܬܢ	-9.46027
▁ܫܪܘ	-9.46078
▁ܠܡܚ	-9.46136
ܚܢ	-9.46176
ܨܐ	-9.46214
▁ܚܠܦܝܢ	-9.46276
▁ܟܕܘ	-9.46299
ܘܫ	-9.46419
▁ܡܪܬܐ	-9.46424
▁ܬܬܐ	-9.46443
▁ܬܥܒܕܘܢ	-9.46483
ܙܕܘܩܝܐ	-9.46576
ܐܒܘܗܝ	-9.46646
▁ܕܐܡܪܐ	-9.46721
ܟܬܒ	-9.46726
▁ܚܝܝܢ	-9.47047
▁ܕܢܚܘ	-9.47074
ܦܤܩ	-9.47123
▁ܥܕܢ	-9.47191
▁ܡܤܟܢ	-9.47322
▁ܒܐܝܕ	-9.47323
▁ܘܤ	-9.47349
ܢܫܩܘܠ	-9.47385
▁ܨܝܕܐ	-9.47394
▁ܤܡܝܟ	-9.47404
ܩܛܘܠ	-9.47439
▁ܐܠܨ	-9.47747
ܙܟܐ	-9.47758
▁ܫܬܐܤܬ	-9.47791
▁ܙܢܝ	-9.47974
▁ܢܫܟܚ	-9.4803
▁ܠܡܦܩ	-9.48151
▁ܕܝܬܒܝܢ	-9.4817
▁ܘܫܒ	-9.48266
▁ܤܝܒܪܬܐ	-9.48377
▁ܐܬܝܐ	-9.48575
▁ܘܬܪܝܢ	-9.48658
▁ܘܒܥܘ	-9.4874
▁ܕܗܪܘܕܤ	-9.48741
ܩܕܡ	-9.48759
▁ܘܩܪ	-9.4888
▁ܩܒܪܐ	-9.48907
▁ܡܚܒܠ	-9.48935
ܩܪܒ	-9.4895
▁ܚܘܪܐ	-9.48969
▁ܨܒܘܬ	-9.49081
ܩܥܝܢ	-9.49082
ܟܫܠ	-9.49436
▁ܒܐܝ	-9.49454
▁ܠܕܘܟܬ	-9.49473
ܬܪܚܡ	-9.49598
▁ܕܬܚܝ	-9.49611
ܤܡ	-9.49778
▁ܩܒܠܘ	-9.50077
ܩܕܝܫܘܬܐ	-9.50185
▁ܘܚܙܝ	-9.50253
ܡܠܐܟܐ	-9.50434
▁ܫܢܝ	-9.50472
▁ܕܨ	-9.50712
▁ܕܝܬܩ	-9.50728
ܕܩ	-9.51052
▁ܨܒܘܬܐ	-9.51163
ܚܬܐ	-9.51163
▁ܒܪܬ	-9.51259
ܪܫܝܬ	-9.51321
▁ܕܐܚܝܕ	-9.5133
▁ܠܝܗܘܕ	-9.51409
▁ܚܝܬ	-9.515
▁ܢܤܒܬ	-9.51586
▁ܕܟܝܢ	-9.51818
▁ܘܐܢܬܬ	-9.51871
▁ܨ	-9.51898
▁ܠܕ	-9.52036
▁ܘܗܝܡܢܘ	-9.52138
ܒܝܠ	-9.52193
ܕܝܐ	-9.52509
▁ܘܐܟܠ	-9.52574
▁ܕܕܠ	-9.5258
▁ܢܦܠܘ	-9.52607
ܬܫܥ	-9.52878
ܡܐܬܝܬܗ	-9.53004
ܦܐܪܐ	-9.5308
▁ܒܝܘܡܬ	-9.53103
▁ܕܩܪܒ	-9.53111
ܤܦܝܢܬܐ	-9.53119
ܒܟܠܙܒܢ	-9.5316
ܗܦܟܘ	-9.53227
▁ܘܡܫܡܫ	-9.53454
▁ܡܥܡܕ	-9.53462
▁ܤܒܪܬܐ	-9.53531
ܡܘܫܐ	-9.53539
▁ܗܝܡܢܘܬܟ	-9.53573
ܙܕܩܦ	-9.53609
▁ܕܐܬܩܪܝ	-9.53684
▁ܕܤܓܝ	-9.53762
ܪܘܓܙܗ	-9.53784
▁ܠܚܛܝܬܐ	-9.53784
▁ܘܐܬܡܠܝ	-9.53784
▁ܐܚܪܢܝܢ	-9.53786
▁ܕܗܝܟܠܐ	-9.53786
▁ܠܚܪܬܐ	-9.53789
▁ܠܡܡܬ	-9.53792
▁ܒܚܙܘܐ	-9.53795
▁ܙܒܘܪ	-9.53795
▁ܘܩܪܝܒ	-9.53812
ܚܛܦ	-9.53825
▁ܕܒܪܢܫ	-9.53832
▁ܡܫܐܠ	-9.5384
▁ܙܒܕܝ	-9.53846
▁ܡܨܥܬ	-9.53847
▁ܒܡܪܝܐ	-9.53885
▁ܢܒܗܬ	-9.53887
▁ܚܒܝܒ	-9.53949
ܦܫܛ	-9.53957
▁ܡܬܒܥܐ	-9.53967
▁ܒܫܘܩܐ	-9.54023
▁ܘܤܝܡ	-9.54039
▁ܢܘܒܕ	-9.54041
▁ܬܫܬ	-9.5407
▁ܒܥܡܡܐ	-9.54072
▁ܦܪܘܩ	-9.54075
▁ܡܕܒܚܐ	-9.54078
▁ܥܓܠ	-9.54083
▁ܘܤܗܕ	-9.54088
▁ܒܐܝܕܘܗܝ	-9.5413
▁ܫܘܥܐ	-9.54147
ܥܡܪ	-9.54211
▁ܒܚܫܘܟܐ	-9.54261
▁ܡܫܠܡܢܐ	-9.54289
▁ܐܚ	-9.54289
▁ܝܩܪ	-9.54327
▁ܕܥܘܠܐ	-9.54363
▁ܐܘܕܥ	-9.54414
▁ܕܐܬܝܗܒ	-9.54455
▁ܕܤܢܐ	-9.54461
▁ܐܢܬܝ	-9.54467
▁ܚܠܦܝ	-9.5449
▁ܘܫܬܝܢ	-9.54493
ܟܪܝܬ	-9.54507
▁ܘܕܚܠܘ	-9.54571
ܛܛܘܤ	-9.54616
ܕܝܢܘܤ	-9.54673
▁ܠܡܩܕܘܢܝܐ	-9.5468
ܚܕ	-9.54704
▁ܡܙܕܕܩ	-9.54718
▁ܫܒܘܩܘ	-9.54719
▁ܒܠܒܗܘܢ	-9.54748
▁ܟܐܒ	-9.54786
▁ܐܪܥ	-9.54831
ܤܥܘܪ	-9.54851
ܩܠ	-9.54898
▁ܒܬܪܟܢ	-9.54903
▁ܬܫܥ	-9.54923
ܓܝܪܐ	-9.55155
ܒܥ	-9.55202
ܒܝܢ	-9.55291
▁ܗܒܘ	-9.55341
▁ܥܬܝܕܝܢ	-9.55417
▁ܘܪܒܝ	-9.55605
▁ܘܨܒܝܢ	-9.55703
▁ܕܐܬܝܬ	-9.55798
▁ܫܡܟ	-9.55904
▁ܚܐܪܐ	-9.56044
ܟܝܢ	-9.56138
▁ܘܐܝܬܝܗ	-9.5614
▁ܐܠܗܗ	-9.56192
▁ܘܫܩܠܘ	-9.56235
ܢܫ	-9.56263
ܪܒ	-9.56288
▁ܒܤܝܡ	-9.56493
▁ܠܡܐܬܐ	-9.56529
▁ܕܐܠܦ	-9.56722
▁ܡܦܩܕ	-9.56764
▁ܒܬܫܡܫܬ	-9.56765
ܗܪܐ	-9.56834
ܐܝܡܡܐ	-9.57025
▁ܕܐܚ	-9.57171
ܒܙܚ	-9.57199
ܐܠܦܐ	-9.57285
▁ܠܬܠܡܝܕ	-9.57415
▁ܡܟܐ	-9.57447
▁ܘܡܠܝ	-9.5746
▁ܕܤܥܪ	-9.5749
ܓܢ	-9.57547
▁ܡܥܡܘܕܝܬܐ	-9.57602
▁ܢܤܒܘ	-9.57634
▁ܘܥܒܕܘ	-9.57638
▁ܝܕܝܥܐ	-9.57677
ܪܟܘܢ	-9.57908
▁ܡܚܘܬ	-9.57918
▁ܡܟܝܟ	-9.57944
▁ܩܪܒܬ	-9.58094
▁ܒܡܠܟܘܬ	-9.58141
ܕܘ	-9.58145
▁ܬܚܙܘܢ	-9.5816
▁ܪܘܪܒ	-9.58244
▁ܥܬܝܩ	-9.58309
▁ܢܛܪܬ	-9.58487
ܝܪܝܢ	-9.5853
▁ܘܫܠܡ	-9.58826
ܘܬܟܘܢ	-9.59176
▁ܚܕܘ	-9.59501
▁ܘܫܘ	-9.59569
ܢܙܒܢ	-9.59569
ܫܠܬܐ	-9.59603
▁ܐܬܕܡܪ	-9.59666
ܫܪܐ	-9.59742
▁ܓܒܝܐ	-9.59837
▁ܒܢܦܫܟ	-9.5999
▁ܕܚܛ	-9.60027
ܚܬܗ	-9.60201
ܘܟ	-9.60307
▁ܩܡܘ	-9.60385
▁ܘܩ	-9.60435
▁ܕܢܛܪ	-9.60488
ܛܡܐ	-9.6052
▁ܕܒܝ	-9.6067
ܐܝܠ	-9.60679
▁ܛܝܒܘܬ	-9.6093
▁ܐܫܟܚܢ	-9.60933
ܠܗ	-9.61043
▁ܘܕܡܐ	-9.61096
▁ܕܒܢ	-9.61264
▁ܓܒܝ	-9.61299
▁ܥܐܠ	-9.61348
▁ܘܝܕܥܝܢ	-9.6146
▁ܤܟ	-9.61504
▁ܘܨܒ	-9.61509
▁ܫܠܝܐ	-9.61698
▁ܘܡܫܒܚ	-9.6185
▁ܐܓܪ	-9.61863
▁ܓܡܝܪܐ	-9.61885
ܥܤܪܐ	-9.62047
▁ܘܒܡ	-9.62061
▁ܬܟܝܠ	-9.6208
▁ܡܤܒܪܝܢ	-9.62192
ܕܘܡ	-9.62395
ܝܢܝ	-9.62545
▁ܢܥ	-9.62643
▁ܢܤ	-9.62646
ܕܟܐ	-9.62687
▁ܢܫܬ	-9.62835
▁ܢܦܫ	-9.62871
ܠܛ	-9.62884
ܐܪܡܠܬܐ	-9.63052
ܩܪܐ	-9.63135
▁ܟܒܪ	-9.63198
▁ܘܓܒ	-9.63272
▁ܕܗܝܡܢܘ	-9.63336
ܪܢܐ	-9.6335
ܫܝܘܠ	-9.63359
▁ܕܐܬܝ	-9.63413
▁ܘܡܤܟ	-9.63451
▁ܘܩܒܠ	-9.63534
▁ܘܐܤܝ	-9.63582
▁ܫܒܘܩ	-9.63648
ܙܥܩ	-9.63651
▁ܕܡܠܟ	-9.63703
▁ܡܤܝܒ	-9.63708
▁ܓܠܝܠܝܐ	-9.63783
▁ܕܬܫܒܘܚܬܗ	-9.63783
▁ܘܢܩܝܡ	-9.63783
▁ܚܛܗܝܟ	-9.63784
▁ܕܤܡܝܟ	-9.63784
ܬܚܠܡ	-9.63786
▁ܡܘܕܥ	-9.63788
▁ܛܢܦܐ	-9.63795
▁ܡܠܘܗܝ	-9.63807
▁ܒܡܨܥܬܐ	-9.63808
▁ܒܦܪܨܘܦ	-9.63808
▁ܒܝܘܠܦܢܗ	-9.6381
▁ܘܙܠ	-9.63814
▁ܠܡܐܚܕ	-9.63832
▁ܫܪܓ	-9.63841
▁ܫܘܬܦܐ	-9.63842
▁ܒܩܘܫܬܐ	-9.6385
▁ܕܒܤܡܐ	-9.63863
▁ܕܡܩܪܒ	-9.63875
▁ܠܟܦܪܢܚܘܡ	-9.63876
ܬܘܟܠܢ	-9.63887
ܤܝܢ	-9.63898
▁ܬܐܪܬܐ	-9.63913
▁ܕܚܛܗܐ	-9.63926
▁ܕܩܛܠ	-9.63936
▁ܨܝܡܝܢ	-9.63967
▁ܢܗܠܟ	-9.63969
▁ܡܚܫܒܬܐ	-9.63975
▁ܠܩܘܒܠ	-9.63993
▁ܦܬܘܪܐ	-9.63999
▁ܡܬܒܥܝ	-9.64021
▁ܐܬܝܗܒ	-9.64028
▁ܠܩܤܪܝܐ	-9.64029
▁ܩܘܫܬܐ	-9.64044
▁ܬܪܬܥܤܪܐ	-9.64087
▁ܒܢܝܗ	-9.64093
▁ܚܘܐ	-9.64107
▁ܘܫܠܝܚ	-9.64117
▁ܬܥܒܕ	-9.64139
▁ܠܫܠܝܚܐ	-9.64165
▁ܡܓܕܦܝܢ	-9.64168
ܢܤܓܕܘܢ	-9.64219
▁ܕܚܝܒ	-9.64223
▁ܝܕܥܬܐ	-9.6424
▁ܕܠܘܬܟܘܢ	-9.64295
▁ܬܐܡܪܘܢ	-9.64319
ܐܥܒܕ	-9.64387
▁ܕܩܒܠܬܘܢ	-9.64391
▁ܠܤܦܝܢܬܐ	-9.64433
▁ܥܘܪܠܘܬܐ	-9.64438
ܬܝܗܝܢ	-9.64456
▁ܐܚܘܟ	-9.64539
▁ܒܡܠܐ	-9.64611
▁ܒܐܝܕܝܗܘܢ	-9.64614
▁ܙܩܝܦܗ	-9.64658
ܒܐܝܕܗ	-9.64674
▁ܘܠܒܪ	-9.64679
▁ܚܝܒܝܢܢ	-9.64746
▁ܕܫܩܠ	-9.6488
▁ܢܡܠܠܘܢ	-9.64892
ܬܢܝ	-9.64898
▁ܠܒܟܘܢ	-9.64901
ܝܘܡܬܐ	-9.64917
▁ܪܘܚܝ	-9.64921
ܪܟܒ	-9.6497
▁ܡܤܬܟܠܝܢ	-9.6502
▁ܘܐܘܕܝ	-9.65057
ܓܘܢܐ	-9.65074
▁ܪܘܓܙܐ	-9.65212
▁ܪܡܝܢ	-9.65236
▁ܘܫܪ	-9.6526
▁ܕܝܗܘܕܐ	-9.65294
ܕܡܘܬܐ	-9.65322
▁ܘܐܫܬܥܝ	-9.6535
▁ܘܠܫܢ	-9.65417
▁ܝܘ	-9.6549
ܥܝܪ	-9.65501
▁ܡܠܐܟܝܢ	-9.65505
▁ܠܝܥܩܘܒ	-9.65518
▁ܡܬܪܥܝܢ	-9.65577
ܒܝܬܐ	-9.65775
▁ܠܥܒܕܗ	-9.65885
▁ܒܬܘܠܬ	-9.65898
ܬܕܡܪܬܐ	-9.65908
▁ܒܚܕܘܬ	-9.65932
▁ܡܢܤܝܢ	-9.65937
▁ܕܡܤܒܪ	-9.65938
▁ܡܛܠܬܝ	-9.65975
▁ܘܚܙܝܢ	-9.65978
▁ܫܘܪܝ	-9.66027
▁ܒܥܝ	-9.66093
▁ܤܡܟܐ	-9.66137
▁ܟܘܪܗܢ	-9.66143
▁ܒܠܚܘܕܝ	-9.6618
▁ܕܫܘܒܚܗ	-9.66182
▁ܘܐܠܦ	-9.66239
▁ܪܥܝܐ	-9.66276
▁ܫܡܪܝܐ	-9.66346
▁ܕܫܡܥܬ	-9.66526
▁ܕܬܠܡܝܕ	-9.66527
▁ܘܡܠܠ	-9.66545
▁ܕܠܠܝܐ	-9.66558
▁ܕܓܠ	-9.6657
▁ܘܐܫܟܚܘ	-9.66575
▁ܕܢܦܩܘܢ	-9.66665
▁ܟܪܝ	-9.66929
▁ܐܝܩܪܐ	-9.66929
▁ܘܤܡܘ	-9.6698
▁ܕܡܟܝܢ	-9.67085
▁ܪܓܠܝ	-9.67133
▁ܕܐܫܪ	-9.6715
▁ܕܛܝܒܘܬܗ	-9.67216
ܫܪ	-9.67363
▁ܤܡܬ	-9.67468
ܡܥܡܘܕܝܬܐ	-9.67516
▁ܕܦܪ	-9.67571
ܛܥܐ	-9.67576
▁ܫܬ	-9.67734
▁ܒܩܪ	-9.67741
ܥܠ	-9.67812
▁ܝܩܝܪܬ	-9.67838
ܫܘܢ	-9.67874
ܠܩ	-9.67992
▁ܐܒܕ	-9.68012
▁ܚܠܝܡ	-9.6805
ܡܟ	-9.68225
▁ܒܫܒܐ	-9.68242
▁ܐܒܕܢ	-9.68276
▁ܡܠܐܟ	-9.68297
▁ܤܗܕܘܬܗ	-9.68362
ܟܬܒܐ	-9.6841
▁ܝܠܘܕ	-9.68439
ܫܡ	-9.68451
▁ܠܐܚܐ	-9.68607
▁ܟܐܦ	-9.68974
ܩܘܡ	-9.69049
ܟܤܝܐ	-9.69091
▁ܕܐܠ	-9.69108
▁ܡܛܠܬܗ	-9.69257
▁ܠܘܝ	-9.6933
▁ܓܘ	-9.69538
▁ܕܡܨ	-9.69556
▁ܤܢܝܩ	-9.69838
▁ܡܡ	-9.70002
▁ܕܟܬܝܒܢ	-9.70007
▁ܫܒܩܘ	-9.70062
▁ܚܡ	-9.70107
ܥܬ	-9.70535
ܕܐܢ	-9.70721
▁ܢܤܒܝܢ	-9.70876
ܐܬܝܢ	-9.70945
ܡܠܠ	-9.70959
▁ܠܥ	-9.71043
▁ܟ	-9.71062
▁ܪܛܢ	-9.71108
▁ܘܢܚ	-9.71181
▁ܡܟܪܙ	-9.71362
ܛܝܒܘܬܐ	-9.71502
ܡܗ	-9.71571
ܘܕܝ	-9.71611
ܬܠܡܝܕܝܟ	-9.71631
▁ܘܦܠܚ	-9.71648
▁ܐܘܠܨܢ	-9.71668
ܛܝܒ	-9.71799
▁ܕܠܘ	-9.72033
▁ܚܠ	-9.72206
ܚܛܐ	-9.72257
▁ܢܩܒܠ	-9.72323
ܢܤܐ	-9.72381
▁ܬܛܥ	-9.72397
▁ܘܠܡܠܐܟ	-9.72438
ܤܘܪܝܐ	-9.72609
ܫܘܠܛܢܐ	-9.72645
▁ܚܨ	-9.72657
▁ܒܐܘܠܨܢ	-9.72685
ܚܘܒܐ	-9.72867
ܥܝܢܟ	-9.73045
ܠܦ	-9.73159
ܤܛܢܐ	-9.73174
▁ܘܐܫܬ	-9.73501
▁ܚܘܪܒ	-9.73594
▁ܕܩܒܠ	-9.73721
▁ܘܗܘܝܬ	-9.73764
ܬܗܝܡܢ	-9.73929
ܚܪܝܢ	-9.73989
▁ܕܢܚܫ	-9.74397
▁ܚܤܝܪ	-9.74417
ܙܝܥ	-9.74498
ܬܩܝܡ	-9.7479
▁ܕܫܒ	-9.74845
▁ܕܠܥܠ	-9.74872
▁ܕܒܐܘܪܫܠܡ	-9.74895
▁ܕܙܕܝܩܘܬܐ	-9.74895
▁ܠܚܛܝܐ	-9.74895
▁ܠܡܨܠܝܘ	-9.74895
▁ܘܡܩܒܠ	-9.74895
▁ܛܠܡ	-9.74895
▁ܠܡܐܙܠ	-9.74895
ܬܤܠܘܢܝܩ	-9.74895
▁ܐܬܠܒܒ	-9.74895
▁ܘܡܤܗܕ	-9.74896
▁ܩܘܕܫܐ	-9.74897
▁ܐܓܪܦܘܤ	-9.749
▁ܘܡܬܕܡܪ	-9.74901
▁ܢܫܬܒܗܪ	-9.74901
▁ܩܘܪܢܠܝ	-9.74902
▁ܡܚܫܒܬܗ	-9.74902
▁ܕܐܠܗܢ	-9.74906
▁ܘܚܛܝ	-9.74906
▁ܢܥܠܘܢ	-9.74909
▁ܕܢܫܠܡܝܘܗܝ	-9.74917
▁ܕܗܝܡܢܘܬܟܘܢ	-9.74922
▁ܡܫܟܢ	-9.74923
▁ܢܟܠܐ	-9.74926
ܙܡܘܪ	-9.74928
▁ܕܒܡܫܝܚܐ	-9.74929
▁ܕܒܢܡܘܤܐ	-9.74931
▁ܐܗܘܐ	-9.74931
▁ܓܐܪ	-9.74944
▁ܓܠܝܐܝܬ	-9.74947
▁ܥܗܕܝܢ	-9.74948
ܬܝܡܢܐ	-9.74954
▁ܕܟܝܬܐ	-9.74956
▁ܠܐܒܘܟ	-9.74958
▁ܡܛܥܝܢ	-9.74965
ܡܠܐ	-9.74979
▁ܙܟܝ	-9.74979
ܢܝܩܐ	-9.75004
▁ܒܐܘܢܓܠܝܘܢ	-9.75017
▁ܘܗܠܟ	-9.75022
▁ܐܪܒܥܐ	-9.75043
▁ܚܛܘܦ	-9.75045
▁ܗܝܡܢܘܬܗ	-9.7508
▁ܥܪܤܟ	-9.75083
▁ܡܡܪܚ	-9.75097
▁ܡܩܪܒ	-9.75103
▁ܤܩܘܒܠ	-9.75107
▁ܒܚܘܪܒܐ	-9.75107
▁ܐܟܤܢܝܐ	-9.75109
▁ܐܫܝܓ	-9.75127
▁ܒܡܘܡܬܐ	-9.75145
▁ܕܩܘܫܬܐ	-9.75157
▁ܕܟܪܐ	-9.75157
ܐܪܓܘܢܐ	-9.75161
▁ܕܒܒܤܪ	-9.75162
▁ܡܠܚ	-9.75167
▁ܦܠܓܘܬܐ	-9.7521
▁ܢܐܒܕ	-9.75237
▁ܕܐܤܝܪ	-9.75242
▁ܢܬܒܛܠ	-9.75254
▁ܐܝܕܘܗܝ	-9.75326
▁ܐܡܠܠ	-9.75328
ܝܬܪ	-9.75332
▁ܫܩܘܠ	-9.75333
▁ܘܠܘܬ	-9.75365
▁ܢܨܪܬ	-9.75376
▁ܥܝܠܐ	-9.7539
▁ܕܡܛܠܬܗ	-9.75402
ܦܪܛܘ	-9.75403
▁ܚܪܒܐ	-9.75429
▁ܒܦܠ	-9.75459
▁ܠܪܒܝ	-9.75459
▁ܩܠܝ	-9.7547
▁ܒܕܝܢܐ	-9.75483
▁ܠܐܝܤܪܝܠ	-9.75492
▁ܩܝܤܐ	-9.75515
▁ܛܠܝܬܐ	-9.75536
▁ܡܬܪܥ	-9.75546
▁ܪܗܘܡܝ	-9.75551
▁ܡܤܝܒܪܝܢ	-9.75563
▁ܢܘܗܪܗ	-9.75566
ܝܩܝܢ	-9.75611
▁ܕܠܐܢܫ	-9.75615
▁ܢܥܘܠ	-9.75665
▁ܩܠ	-9.75668
ܫܘܬܦ	-9.75683
▁ܫܕ	-9.75721
ܕܝܩ	-9.75724
▁ܓܙܪܬܐ	-9.75788
▁ܫܦܪ	-9.75788
▁ܡܘܡ	-9.7582
▁ܘܛܒ	-9.75851
▁ܬܩܘ	-9.75942
▁ܒܡܠܟܘܬܗ	-9.75967
▁ܘܚܠܦ	-9.75979
▁ܕܚܫܘܟܐ	-9.7602
▁ܩܪܨܐ	-9.76086
ܪܝܘܤ	-9.76111
▁ܝܡܝܢܝ	-9.76119
▁ܒܟܝܢ	-9.76174
▁ܘܪܕܝܢ	-9.76312
▁ܠܐܢܬܬܗ	-9.76354
▁ܕܟܘ	-9.76495
▁ܐܡܝܢܐܝܬ	-9.7657
▁ܘܡܠܬܗ	-9.76582
▁ܘܐܤ	-9.76586
ܦܪܚܬܐ	-9.76635
▁ܙܡܪ	-9.76645
ܬܘܬܒ	-9.76715
▁ܒܟܐܦܐ	-9.76771
▁ܡܠܬܟ	-9.76819
▁ܘܐܒ	-9.76838
ܒܘ	-9.76924
▁ܫܒܬܐ	-9.76957
▁ܘܤܓܝ	-9.76997
▁ܡܫܬܘܬ	-9.77009
▁ܕܚܠܦ	-9.77036
▁ܘܛܝܡܬܐܘܤ	-9.77044
▁ܬܐܬܐ	-9.77114
▁ܒܥܒܕ	-9.77141
▁ܕܦܠܚ	-9.77275
▁ܒܪܝܟ	-9.77341
▁ܘܢܫ	-9.77406
ܬܦܠܓ	-9.77414
ܡܤܟܢܐ	-9.7742
ܢܝܗܝ	-9.77432
▁ܒܛܠ	-9.77449
▁ܐܫܬܡܥ	-9.77484
▁ܡܟܪܙܝܢ	-9.77521
ܬܪܐ	-9.77611
▁ܢܨܒ	-9.77663
▁ܒܝܕܥܬܐ	-9.77684
▁ܐܫܬܡܥܬ	-9.77879
ܐܟܠܘܢ	-9.78061
▁ܐܪܟܘܢ	-9.78214
ܕܬܐ	-9.78229
▁ܢܟܤ	-9.78245
▁ܕܝܘܢܐ	-9.78416
▁ܡܡܠܠܝܢܢ	-9.78428
▁ܕܓܒ	-9.78447
▁ܕܒܚܕ	-9.7848
▁ܘܪܚܡ	-9.78544
▁ܕܚܠܘ	-9.78609
▁ܥܕܪ	-9.78657
▁ܤܪ	-9.78756
▁ܒܛܢ	-9.78773
ܟܪܙܘ	-9.78804
ܐܬܪܚܡ	-9.78937
▁ܒܙܒܢܗ	-9.79274
▁ܡܢܗܝܢ	-9.79298
▁ܕܪܫ	-9.7935
▁ܟܘܟܒܐ	-9.79425
▁ܘܕܝܘ	-9.79506
ܡܨ	-9.79621
▁ܚܘܪ	-9.79776
▁ܪܚܡܝ	-9.79839
ܚܙܩ	-9.79933
ܙܝܢ	-9.80148
▁ܩܢܝ	-9.80331
▁ܕܡܨܠ	-9.8037
ܦܛܪ	-9.80373
▁ܡܟܫ	-9.80397
ܠܝܛ	-9.80425
▁ܩܫܝܐ	-9.8053
▁ܕܢܩܪ	-9.80548
▁ܘܨܠܝ	-9.80575
▁ܒܚܪܬ	-9.80688
▁ܘܫܒܚ	-9.80855
▁ܚܡܬ	-9.80931
▁ܘܫܪܝܪܐ	-9.81074
ܩܕ	-9.81078
ܪܡܝܬܗ	-9.81081
▁ܦܥ	-9.8118
▁ܚܟܝܡ	-9.81292
▁ܕܡܚܒ	-9.8138
ܥܠܐ	-9.81442
▁ܡܘܡܐ	-9.8149
▁ܢܡܘܤ	-9.81503
▁ܡܝܬܝܢ	-9.81515
▁ܒܪܢܫ	-9.81596
▁ܘܐܒܝ	-9.81598
▁ܠܐܘܪܚ	-9.81716
▁ܒܪܚܡ	-9.82098
ܒܛܠ	-9.82144
▁ܘܠܝ	-9.82169
▁ܙܥܘܪܝ	-9.82178
▁ܕܥܠܝ	-9.82205
ܕܪܐ	-9.82205
▁ܥܡܠ	-9.82213
▁ܒܗܬܬ	-9.82254
▁ܢܒܝܘܬ	-9.82266
▁ܫܡܫ	-9.8227
ܬܚܙܘܢܢܝ	-9.82345
▁ܕܤܥܪܐ	-9.8243
▁ܕܢܫ	-9.82526
ܦܬܐ	-9.82543
▁ܠܬܠܬ	-9.82843
▁ܘܒܥܝ	-9.82896
▁ܘܠܘ	-9.82921
ܗܦܟ	-9.83032
▁ܕܐܚܐ	-9.83106
▁ܘܕܚܠ	-9.8315
▁ܕܒܟܠܗ	-9.83214
▁ܟܤܦ	-9.83259
▁ܐܝܤ	-9.83371
ܛܢܐ	-9.83402
▁ܘܢܦܩܬ	-9.83427
ܥܒܕܘܗܝ	-9.8352
ܢܬܓܠܐ	-9.83615
▁ܒܬܪܥ	-9.83758
ܥܕܬܗ	-9.83923
▁ܢܚ	-9.84023
▁ܕܫ	-9.8413
▁ܕܪܥ	-9.84187
▁ܕܢܕܥ	-9.84343
ܬܩܪܐ	-9.84418
▁ܪܓܬ	-9.84442
▁ܫܡ	-9.84507
▁ܦܘܡ	-9.84509
▁ܕܐܫܠܡ	-9.84776
▁ܕܝܕܥܬ	-9.84777
▁ܘܬܠܬ	-9.84868
▁ܕܥܬܝܕܝܢ	-9.8502
ܫܩܠ	-9.85327
▁ܘܪܕ	-9.85512
ܬܘܢܝܗܝ	-9.85633
ܛܠܝܢ	-9.85685
ܪܝܡ	-9.85784
▁ܕܫܪܝܪ	-9.85861
ܕܝܬܒ	-9.8623
ܢܗܝܪܐ	-9.86242
ܕܢܚ	-9.86251
ܩܢܛܪܘܢ	-9.86282
ܗܟܘܬ	-9.86308
▁ܢܘܚ	-9.86345
▁ܕܐܫܟܚ	-9.86356
ܬܪܝܗܘܢ	-9.86454
▁ܡܩܒܠܝܢ	-9.86459
▁ܕܗܢܘ	-9.86469
ܥܕܥܕܐ	-9.86494
ܡܝܪܐ	-9.86519
ܥܪܩ	-9.86649
▁ܐܪ	-9.86657
▁ܠܥܝܢ	-9.8668
ܠܐܚܪܢܐ	-9.86706
▁ܪܓܠ	-9.8672
ܨܒ	-9.86742
ܓܫܘ	-9.86784
▁ܪܓܠܝܟ	-9.86865
▁ܘܐܝܬܝܘ	-9.86915
ܫܡܪܝܐ	-9.87035
ܥܝܢܝܗܘܢ	-9.87068
ܠܨ	-9.87096
▁ܠܟܐܢܘ	-9.8721
▁ܕܒܠܒ	-9.87216
ܛܝܪܐ	-9.87228
▁ܠܩܤܪ	-9.87239
ܐܫܕ	-9.87261
▁ܘܠܡܕܝܢܬ	-9.87353
▁ܕܐܬܪ	-9.87364
ܪܒܝ	-9.87378
▁ܠܫܒܥ	-9.8738
ܩܝܠܝܩܝܐ	-9.87395
▁ܐܠܝܫܒܥ	-9.87395
▁ܐܫܬܒܗܪ	-9.87395
▁ܕܡܘܠܟܢܐ	-9.87395
▁ܕܡܩܒܠ	-9.87395
▁ܠܕܪܡܤܘܩ	-9.87395
▁ܡܫܬܒܩ	-9.87395
▁ܠܩܕܝܫܐ	-9.87395
▁ܕܒܐܠܗܐ	-9.87395
▁ܕܐܫܬܕܪ	-9.87395
▁ܘܡܨܠܝܢ	-9.87395
▁ܕܒܝܗܘܕ	-9.87396
▁ܨܒܝܐ	-9.87397
▁ܕܙܕܩ	-9.87401
▁ܘܐܘܚܕ	-9.87405
▁ܤܘܟܐ	-9.87405
▁ܘܦܪܫ	-9.87414
▁ܘܐܬܕܟܪ	-9.87415
ܠܚܡܐ	-9.87416
▁ܕܐܤܝܡ	-9.87419
▁ܤܢܝܐ	-9.87425
▁ܡܬܟܪܟ	-9.8743
▁ܘܢܬܠ	-9.87435
▁ܕܥܒܝܕ	-9.87437
▁ܕܙܝܬܐ	-9.8744
▁ܒܥܪܤ	-9.87441
▁ܡܫܠܡܢܘܬ	-9.87446
▁ܐܬܟܬܒ	-9.87449
▁ܦܬܝܚ	-9.87461
▁ܩܪܨܘܗܝ	-9.87466
ܢܩܫ	-9.87472
▁ܕܡܫܠܡ	-9.87475
▁ܘܚܘܪ	-9.87491
▁ܙܝܬܐ	-9.87502
▁ܠܩܪܝܒܟ	-9.87503
▁ܦܐܪ	-9.87525
▁ܘܢܦܠܘ	-9.87527
ܐܢܬܬܐ	-9.87543
▁ܐܢܝܚ	-9.87555
▁ܢܫܬܩܠ	-9.87557
ܢܟ	-9.87576
▁ܘܒܚܘܒܐ	-9.87578
▁ܐܠܗܟ	-9.87592
▁ܫܢܬ	-9.87599
ܬܩܒܠ	-9.87612
▁ܥܠܝܡ	-9.87615
▁ܬܥܠܘܢ	-9.87658
▁ܘܬܒܥ	-9.87665
▁ܡܬܚܙܝܢ	-9.8768
▁ܤܪܝܩܬܐ	-9.87687
▁ܡܝܩܪ	-9.87699
▁ܥܪܤ	-9.87706
▁ܡܬܚܒܠ	-9.8771
▁ܠܚܘܪܒܐ	-9.87715
▁ܠܢܒܝܐ	-9.87719
▁ܠܤܗܕܘܬܐ	-9.87724
▁ܠܡܚܝܘ	-9.87732
ܒܐܫ	-9.87747
▁ܘܒܐܪܥܐ	-9.87749
▁ܢܩܝܦ	-9.87753
▁ܢܘܢܝܢ	-9.8778
▁ܪܫܝܥܐ	-9.87794
▁ܕܐܫܬ	-9.87795
▁ܒܥܕܥܕܐ	-9.87809
▁ܚܡܝܪ	-9.8781
▁ܐܫܬܐܠ	-9.87832
▁ܡܬܝܗܒ	-9.87833
▁ܬܫܒܘܚܬܗ	-9.87838
ܦܝܤ	-9.8788
▁ܐܪܝܡ	-9.87902
▁ܤܓܝܐܢ	-9.87914
▁ܐܥܠ	-9.87915
▁ܕܝܠܝܕ	-9.87925
▁ܡܫܥܒܕ	-9.8796
▁ܢܫܒܘܩ	-9.87963
▁ܠܝܘܤܦ	-9.87963
▁ܕܢܒܝܘܬܐ	-9.87971
▁ܒܡܐܬܝܬܗ	-9.87974
▁ܠܥܕܥܕܐ	-9.87978
▁ܬܕܥܘܢ	-9.88003
▁ܥܒܕܝܟ	-9.88005
▁ܘܫܒܥ	-9.88054
▁ܡܤܝܒܪܢܘܬܐ	-9.88066
▁ܕܒܪܐ	-9.88067
▁ܫܘܬܦܘܬܐ	-9.88072
▁ܘܩܥܘ	-9.8808
▁ܡܬܗܦܟܝܢ	-9.88081
▁ܕܕܝܠܗ	-9.88083
▁ܕܝܘܪܕܢܢ	-9.88083
▁ܙܟܪܝܐ	-9.88092
▁ܠܬܚܬ	-9.88094
▁ܩܢܝܢܗ	-9.881
▁ܙܕܩܬܐ	-9.88105
▁ܠܥܡܗ	-9.88112
▁ܤܓܝܐܝܢ	-9.88119
ܡܦܪܫ	-9.88151
▁ܡܫܬܒܗܪܝܢ	-9.88181
▁ܒܚܟܡܬ	-9.882
ܡܪܩܘܤ	-9.88288
ܦܪܝܤ	-9.88291
▁ܐܒܗܬܢ	-9.88363
▁ܗܝܡܢܘܬܗܘܢ	-9.88364
▁ܫܪܝܪܬܐ	-9.88408
▁ܡܢܗܪ	-9.88469
▁ܢܦܩܘܢ	-9.88487
▁ܒܡܬܠܐ	-9.88492
▁ܘܪܒ	-9.88513
▁ܚܘܒܟܘܢ	-9.88526
▁ܒܠܚܘܕܝܗܘܢ	-9.88552
▁ܢܫܟܚܘܢ	-9.88557
▁ܛܢܦܘܬܐ	-9.88587
▁ܚܪܬܐ	-9.88606
ܘܤܦ	-9.88645
▁ܡܛܐ	-9.88697
▁ܥܝܪܝܢ	-9.88845
ܬܥܒܕ	-9.88858
▁ܕܫܒܩ	-9.8887
▁ܘܒܗܕ	-9.88871
▁ܡܩܝܡ	-9.88882
▁ܡܝܬܝܢܢ	-9.88967
ܕܗ	-9.88975
▁ܬܟ	-9.89086
▁ܒܐܦܝ	-9.89099
▁ܓܪܒܐ	-9.89126
▁ܠܝܘܡܢܐ	-9.89138
▁ܕܡܥܕ	-9.89292
ܕܝܫ	-9.89336
▁ܫܘܘܕ	-9.89364
▁ܒܬܪܟ	-9.89408
▁ܘܪ	-9.89451
▁ܕܐܬܬ	-9.8952
▁ܕܐܒܘ	-9.89533
▁ܩܫܝܫ	-9.89536
▁ܛܡܐ	-9.89563
▁ܕܫܐܕܐ	-9.89627
▁ܥܒܕܝܗܘܢ	-9.89627
ܫܬܩܠ	-9.89634
▁ܘܗܘܝ	-9.89675
ܡܥ	-9.89689
▁ܘܫܘܠܛܢܐ	-9.89722
▁ܩܒܠܬ	-9.89787
▁ܥܒܕܝܟܘܢ	-9.8986
▁ܕܐܤܬ	-9.89955
▁ܥܒܕܬܘܢ	-9.89995
ܦܠܚܐ	-9.90023
ܟܒܪܝܬܐ	-9.90089
▁ܐܟܘܠ	-9.90321
▁ܒܥܝܬ	-9.9038
ܡܠܠܘ	-9.90396
ܤܝܘ	-9.90426
▁ܥܝܢܝܟ	-9.90487
▁ܘܩܘܝ	-9.90565
▁ܘܫܘܪ	-9.90631
▁ܕܗܝܡܢܬ	-9.90636
▁ܟܬ	-9.90652
▁ܝܒܫ	-9.90777
▁ܫܦܝܪܬܐ	-9.9078
▁ܚܝܒܝܢ	-9.90809
▁ܘܡܫܚ	-9.909
▁ܘܕܝܢܐ	-9.9132
▁ܠܬܚܘ	-9.91393
ܩܝܡܬܐ	-9.91509
▁ܡܘܬ	-9.9169
▁ܕܢܓ	-9.91805
ܬܘܪܐ	-9.91879
▁ܠܬܪܥܤܪ	-9.91978
▁ܕܟܐܢ	-9.92014
ܒܝܫܐ	-9.92149
ܬܠܬܐ	-9.92195
ܨܒܥ	-9.92324
▁ܒܠܘ	-9.92335
▁ܒܝܘܡܬܗ	-9.92441
ܘܪܝܗ	-9.92516
ܝܒ	-9.92549
ܩܘܤ	-9.9257
▁ܠܗܪܟܐ	-9.9263
ܟܘܟܒܐ	-9.92716
ܫܠܡ	-9.92798
ܬܪܝܡ	-9.92847
▁ܒܥܡܐ	-9.92869
ܐܬܟܢܫܘ	-9.92902
▁ܕܟܘܪܤܝ	-9.92941
▁ܐܝܡܡ	-9.92957
▁ܫܒܩܬ	-9.93097
ܠܝܥܩܘܒ	-9.93117
▁ܘܡܠܦܝܢ	-9.93141
ܙܕܗܪܘ	-9.9385
▁ܢܫܡܥܘܢ	-9.94034
ܬܟܪܙ	-9.94157
▁ܘܪܚܡܐ	-9.94191
▁ܙܩܝܦ	-9.94219
▁ܓܡܪ	-9.94221
▁ܡܨ	-9.94249
▁ܘܚܘܝ	-9.94427
▁ܪܒܘ	-9.94472
▁ܒܢܝܢܐ	-9.94576
▁ܕܢܤܝܡ	-9.94669
ܙܒܢܐ	-9.94841
▁ܡܚܒܝܢ	-9.9485
▁ܐܚܪܝܬ	-9.95045
▁ܡܥ	-9.95115
▁ܚܠܝܡܐ	-9.95162
▁ܕܦ	-9.95187
▁ܡܫܬ	-9.95244
▁ܝܕܝܥ	-9.95273
▁ܘܐܬܕܡܪ	-9.95311
▁ܢܦܩܝܢ	-9.95402
▁ܠܦܓܪ	-9.95493
▁ܘܕܫ	-9.95543
ܙܩܦ	-9.95598
▁ܤܝܒܪܬ	-9.95647
▁ܕܫܪܝ	-9.95648
ܩܕܫ	-9.95883
ܪܐܘܤ	-9.96064
▁ܢܛܪܝܢ	-9.96188
▁ܒܚܛܗ	-9.96255
▁ܚܙܬ	-9.96259
ܝܕܥܬܐ	-9.96319
▁ܡܫܟܚܝܢܢ	-9.96336
▁ܢܩܪ	-9.96475
ܥܘܪ	-9.96525
ܢܚܙܘܢ	-9.96539
▁ܩܒܪ	-9.9658
ܥܕܪ	-9.9659
▁ܤܝܡܝܢ	-9.96654
ܢܤܝܘܢܐ	-9.96793
▁ܕܥܒܕܬ	-9.9686
▁ܐܬܩܪܒ	-9.96967
▁ܕܡܪܝ	-9.97101
▁ܕܒܢܝܐ	-9.97171
ܫܒܩ	-9.97196
ܚܘܬ	-9.97224
ܢܐܙܠܘܢ	-9.97225
▁ܘܐܚܪ	-9.97338
▁ܐܡܝ	-9.97359
▁ܕܡܫܡܫ	-9.97396
▁ܐܫܬܐ	-9.97468
ܫܥܬܐ	-9.9748
▁ܠܐܠܗ	-9.97515
▁ܘܥܝܢ	-9.97715
ܢܗܪ	-9.97876
▁ܙܠܝ	-9.97877
▁ܒܝܗܘܕ	-9.98024
▁ܐܪܡܝܐ	-9.98236
ܦܘܤ	-9.98287
ܘܝܐ	-9.98291
▁ܕܥܒܕܘ	-9.98417
ܩܢܝܐ	-9.9851
▁ܛܘܗܡ	-9.98586
ܩܝܡܬܗ	-9.98771
▁ܚܦܝܛ	-9.98874
ܢܘܗܪܐ	-9.98908
ܝܫܘܥ	-9.98918
▁ܒܟܠܗܝܢ	-9.98924
▁ܛܝܒ	-9.99016
▁ܘܫܕ	-9.99035
ܡܟܬܒ	-9.99167
ܡܪܘܬܐ	-9.99167
▁ܒܫܒ	-9.99224
▁ܕܢܫܟܚ	-9.99396
ܝܪܬܐ	-9.99501
▁ܬܒܥ	-9.99526
▁ܡܬܬ	-9.99549
▁ܘܐܢܕ	-9.99563
ܒܗܬ	-9.99735
▁ܦܓ	-9.99851
▁ܢܬܡܠ	-9.99855
▁ܪܕ	-9.99984
▁ܩܪܝ	-10.0002
ܠܥܤ	-10.0008
▁ܠܡܠܐܟ	-10.001
ܫܘܒܗܪ	-10.0015
ܓܒܪ	-10.0016
▁ܡܬܕܝܢ	-10.0024
ܡܙܒܢܝܢ	-10.0024
▁ܕܩܪܝ	-10.0027
ܚܦܛ	-10.0035
▁ܐܬܩܪܝܬ	-10.0037
ܓܙܘܪܬܐ	-10.0037
ܙܟܘܬܐ	-10.0038
▁ܥܒܝܕ	-10.0047
▁ܕܫܡ	-10.0049
ܠܤܓܝܐܐ	-10.0054
ܗܓܡܘܢܐ	-10.0056
ܫܠܚ	-10.0056
ܐܫܥܝܐ	-10.0056
ܩܘܪܒܢܐ	-10.0057
▁ܘܟܬܒ	-10.0059
▁ܘܫܢܝ	-10.0059
▁ܫܛܝ	-10.0073
▁ܨܒܝܬ	-10.0087
▁ܕܢܩܘ	-10.0107
ܪܘܪܒ	-10.0133
ܚܫܘܟܐ	-10.0136
▁ܕܐܒܕ	-10.014
▁ܕܟܐ	-10.0142
ܨܪ	-10.0142
▁ܟܘܪ	-10.0145
▁ܘܗܒ	-10.0146
▁ܐܫܕ	-10.015
ܪܘܗܝ	-10.0155
ܫܠܝܡܘܢ	-10.0158
▁ܒܐܦܤܘܤ	-10.0168
ܛܘܥܝܝ	-10.0168
▁ܕܐܬܝܠܕ	-10.0168
▁ܕܢܫܬܒܚ	-10.0168
▁ܚܪܝܦܬܐ	-10.0168
▁ܕܙܕܝܩܐ	-10.0168
▁ܐܤܛܕܘ	-10.0168
▁ܘܢܫܠܡܘܢ	-10.0168
▁ܡܕܒܪܢ	-10.0168
ܐܝܪܝܚܘ	-10.0168
▁ܒܟܐܢܘܬܐ	-10.0168
▁ܘܬܡܝܗ	-10.0168
▁ܢܫܬܟܚ	-10.0168
▁ܘܢܫܟܚ	-10.0168
▁ܡܓܠܬ	-10.0168
ܡܤܪܗܒ	-10.0168
▁ܡܬܢܛܪ	-10.0168
ܢܦܪܘܥ	-10.0168
ܠܤܛܝܐ	-10.0168
ܓܠܝܘܬ	-10.0169
ܙܪܘܥ	-10.0169
▁ܐܬܦܢܝ	-10.0169
▁ܕܦܛܝܪܐ	-10.0169
▁ܕܐܪܒܥ	-10.0169
▁ܡܫܚܠܦܐ	-10.0169
▁ܢܩܦ	-10.0169
▁ܘܒܚܕ	-10.0169
▁ܒܢܒܝܐ	-10.0169
▁ܐܤܬܟܠܘ	-10.0169
▁ܒܓܗܢܐ	-10.0169
▁ܘܚܙܬ	-10.0169
▁ܪܘܫܡ	-10.017
▁ܕܐܗܘܐ	-10.017
▁ܡܘܒܠ	-10.017
ܩܘܪܢܬܘܤ	-10.017
▁ܒܐܤܟ	-10.0171
▁ܡܛܬ	-10.0171
▁ܐܫܐܠ	-10.0171
▁ܒܡܕܥܝ	-10.0172
▁ܘܬܡܗ	-10.0172
▁ܠܡܦܠܚ	-10.0172
▁ܢܩܘܐ	-10.0172
▁ܕܪܟܫ	-10.0174
▁ܕܒܗܝܡܢܘܬܐ	-10.0175
▁ܡܬܐܫܕ	-10.0176
▁ܬܥܒܪ	-10.0178
▁ܒܓܠܝܠܐ	-10.0178
▁ܙܝܙܢܐ	-10.0178
▁ܦܝܠܟܤ	-10.0178
▁ܠܡܠܦܘ	-10.0178
▁ܕܩܒܠܬ	-10.0179
▁ܐܬܝܕܥ	-10.0179
▁ܡܫܬܢܩ	-10.018
▁ܘܐܬܦܬܚ	-10.018
▁ܝܘܩܪ	-10.0181
▁ܨܠܝ	-10.0181
▁ܘܢܓܕ	-10.0182
▁ܘܥܐܠ	-10.0183
▁ܡܫܚܐ	-10.0185
▁ܝܘܢܝܐ	-10.0186
▁ܐܟܘܬܝ	-10.0187
▁ܕܠܡܪܢ	-10.0187
▁ܡܕܢܚ	-10.0188
▁ܫܬܝܩ	-10.0189
▁ܦܓܥ	-10.0189
▁ܐܒܗܝܟܘܢ	-10.019
▁ܐܤܬܟܠ	-10.0191
▁ܕܒܐܪܥܐ	-10.0193
▁ܡܓܢ	-10.0194
▁ܕܢܤܩ	-10.0197
▁ܒܟܢܘܫܬܗܘܢ	-10.0199
▁ܕܟܤܦ	-10.0202
▁ܤܟܠܘܬܐ	-10.0203
ܡܢܐ	-10.0203
▁ܕܡܪܗ	-10.0203
▁ܕܕܝܘܐ	-10.0208
▁ܒܛܘܪܐ	-10.0209
▁ܛܘܒܝܟ	-10.021
▁ܒܢܘܗܪܐ	-10.0211
▁ܦܪܝܩ	-10.0211
▁ܕܬܬܠ	-10.0214
ܨܠܐ	-10.0216
ܗܦܘܟ	-10.0217
▁ܕܝܢܪܐ	-10.0217
▁ܘܐܠܘ	-10.0219
▁ܕܐܚܕ	-10.0221
▁ܕܡܘܬܗ	-10.0222
▁ܕܢܘܒܕ	-10.0222
▁ܐܓܪܗ	-10.0223
ܡܤܬܒܪܝܢ	-10.0223
▁ܒܤܡܐ	-10.0224
ܐܪ	-10.0224
▁ܕܡܠܟܝܙܕܩ	-10.0225
▁ܘܒܚܝܠܐ	-10.0225
▁ܐܬܦܠܓ	-10.0226
ܡܙܕܪܥ	-10.0228
▁ܢܛܥܡ	-10.0229
▁ܠܢܤܝܘܢܐ	-10.0229
▁ܚܒܪܗ	-10.0231
▁ܕܬܐܬ	-10.0234
▁ܐܬܝܕܥܬ	-10.0236
ܕܪܘܢ	-10.0237
▁ܓܘܕܦܐ	-10.0239
▁ܪܕܘܦ	-10.024
▁ܡܫܪܪ	-10.0245
▁ܚܪܬܗ	-10.0247
▁ܠܡܩܛܠܗ	-10.0249
▁ܠܥܤܝܢ	-10.0251
▁ܐܬܚܫܒ	-10.026
ܥܤܪ	-10.026
ܡܘ	-10.026
▁ܚܛܗܝܗܘܢ	-10.0261
▁ܘܐܦܩܘܗܝ	-10.0262
ܡܥܕܪܢ	-10.0262
▁ܡܠܘ	-10.0267
▁ܩܝܦܐ	-10.0268
▁ܐܘܪܚܗ	-10.0268
▁ܗܠܟܘ	-10.0268
▁ܚܘܤ	-10.027
▁ܐܠܝܨ	-10.027
ܬܚܙܐ	-10.0274
▁ܪܓܝܓܬܐ	-10.0275
▁ܝܪܬܘܬܐ	-10.0277
▁ܫܒܝܩ	-10.0277
▁ܕܠܘܬܝ	-10.0277
▁ܠܐܠܗܢ	-10.028
ܠܘܛܬܐ	-10.0281
ܢܩܛܠܘܢܝܗܝ	-10.0284
▁ܘܒܐܝܡܡܐ	-10.0285
▁ܠܤܓܝܐܐ	-10.0286
▁ܐܚܝܬܟ	-10.0288
▁ܡܚܝܢܢ	-10.0291
▁ܟܟܪܝܢ	-10.0293
▁ܠܡܨܪܝܢ	-10.0294
▁ܡܠܬܝ	-10.0295
▁ܠܡܫܬܐ	-10.03
ܒܘܝܐܐ	-10.0302
ܩܒܪܐ	-10.0303
▁ܘܥܤܪ	-10.0306
▁ܠܒܤܬܪܗ	-10.0308
▁ܒܛܝܒܘܬܗ	-10.0313
▁ܘܢܩܛܠܘܢܝܗܝ	-10.0314
▁ܕܢܘܗܪܐ	-10.0317
▁ܘܫܡܫ	-10.0318
▁ܘܡܫܡܫܢܐ	-10.0326
▁ܦܪܚܬܐ	-10.033
▁ܕܓܢ	-10.0339
ܢܩܐ	-10.0341
▁ܝܘܢ	-10.0343
ܬܥܤܪ	-10.0346
ܕܡܫܝܚܐ	-10.0347
▁ܘܠܚܡܐ	-10.0351
▁ܠܒܢ	-10.0359
ܡܠܬܝ	-10.0359
▁ܕܫܬܐ	-10.0362
ܐܠܝܐ	-10.0366
▁ܐܫܕܪ	-10.0374
▁ܕܡܬܚܙ	-10.0374
▁ܕܛܝܒܘܬܐ	-10.0374
▁ܒܓܢ	-10.0375
▁ܬܪܡ	-10.0376
▁ܬܩܢ	-10.0378
ܘܚܐ	-10.0385
ܡܐܟܘܠܬ	-10.0401
▁ܪܓ	-10.0412
ܕܡܟ	-10.0413
▁ܘܟܢܫܘ	-10.0424
▁ܘܒܤܪ	-10.0426
▁ܘܒܗܝܡܢܘܬ	-10.0434
ܫܒܬܐ	-10.0436
▁ܡܫܬܪ	-10.0437
▁ܘܐܚܕܘ	-10.0442
▁ܒܡܕܝܢܬܗ	-10.0445
▁ܕܩܝܡܬܐ	-10.0445
ܓܘܓ	-10.0446
▁ܨܦ	-10.0451
▁ܠܦ	-10.0455
▁ܐܪܡ	-10.0459
ܢܦܐ	-10.0463
ܐܒ	-10.0464
ܚܤܢ	-10.0466
ܠܐܠܗܐ	-10.0467
▁ܛܪܦ	-10.0487
ܫܦܪ	-10.0488
ܐܫܬܘܕܝ	-10.0491
▁ܛܒܥ	-10.0498
▁ܘܒܫ	-10.0501
ܦܠܓ	-10.0518
▁ܪܚܡܬ	-10.0519
▁ܢܥܒܕܘܢ	-10.0532
ܤܬܡܟܘ	-10.0537
▁ܢܩܒܠܘܢ	-10.0543
▁ܘܩܥ	-10.0552
ܘܒܐ	-10.0555
▁ܒܥܡ	-10.0556
▁ܕܫܡܥܢ	-10.0557
▁ܢܚܘܢ	-10.0564
▁ܒܪܬܗ	-10.0568
▁ܤܝ	-10.057
▁ܒܐܬܘ	-10.057
▁ܨܒܝܢܝ	-10.0574
▁ܕܒܪܘܚܐ	-10.058
▁ܕܡܚܒܝܢ	-10.0596
▁ܡܚܝܢ	-10.0596
ܨܗܐ	-10.0599
▁ܕܫܐܠܝܢ	-10.0615
ܡܟܟ	-10.0618
▁ܕܡܠܬܐ	-10.0621
ܨܝܕܢ	-10.0623
▁ܕܡܠܦ	-10.0629
▁ܕܫܪܝܪܐ	-10.0636
▁ܩܪܢܬ	-10.064
ܤܘܤܝ	-10.064
▁ܘܡܚܝܢ	-10.0643
ܬܪܥܤܪܬܗ	-10.0647
ܚܠܦ	-10.065
▁ܚܠܦܝܟ	-10.0655
ܩܘܢ	-10.0657
▁ܘܚܕܪ	-10.0659
▁ܙܝܢ	-10.066
▁ܬܐܡܪ	-10.0666
▁ܕܚܟܝܡ	-10.0666
ܛܒ	-10.0698
ܬܓܙܪ	-10.0706
▁ܕܦܘܩܕܢ	-10.0713
▁ܐܕܪܟ	-10.0722
ܤܓܝ	-10.073
▁ܚܨܕܐ	-10.0733
▁ܘܤܘ	-10.0733
▁ܡܤ	-10.0737
▁ܠܗܠ	-10.0739
ܝܘܦܐ	-10.074
▁ܡܚܐ	-10.0747
▁ܢܚܬܘ	-10.075
▁ܕܡܛ	-10.0751
▁ܕܫܢ	-10.0752
ܚܡܬܗ	-10.0753
▁ܘܠܒܢ	-10.076
▁ܘܕܚܠܬ	-10.0771
ܗܪܝܢ	-10.0782
▁ܟܪܤ	-10.0795
ܦܓܪܐ	-10.0814
ܚܒܨ	-10.0833
ܫܝܢܐ	-10.0837
ܐܒܗܬܢ	-10.0842
▁ܡܫܒܚܝܢ	-10.0843
▁ܒܠܫܢ	-10.0844
▁ܕܥܬܝܕܢ	-10.0862
ܒܡܪܢ	-10.0867
▁ܗܠܟ	-10.0874
▁ܥܠܝܗܝܢ	-10.0876
▁ܘܒܡܠ	-10.0883
▁ܒܥܠܕܒܒܝܟ	-10.092
▁ܫܐܠܗ	-10.0924
▁ܕܡܛܝ	-10.0925
▁ܪܚܡܝܢ	-10.0933
▁ܦܠܚܝ	-10.0944
▁ܬܪܝܨ	-10.0948
▁ܪܥܝܢܟ	-10.0964
ܠܝܫܘܥ	-10.0986
▁ܒܩܪܝܬ	-10.099
ܡܠܐܟܘܗܝ	-10.1016
ܥܬܝܪܐ	-10.1028
ܫܘܩܐ	-10.1049
ܛܪܐ	-10.105
▁ܒܬܪܗܘܢ	-10.1058
▁ܕܩܢ	-10.1062
▁ܐܤܪ	-10.1075
▁ܘܢܫܐ	-10.1078
ܫܬܐ	-10.1079
▁ܪܥܡ	-10.1079
▁ܬܪ	-10.1094
▁ܕܡܩܘ	-10.1097
▁ܢܚܒ	-10.1112
ܦܬܚ	-10.1141
ܙܠܐ	-10.1143
▁ܢܬܒ	-10.1172
ܘܥ	-10.1174
▁ܚܟܡ	-10.1181
▁ܬܠܡܝܕܝ	-10.1197
▁ܡܦܝܤ	-10.12
▁ܕܥܝܢ	-10.1207
▁ܕܬܒ	-10.1216
▁ܐܝܬܝܗܝܢ	-10.1218
ܓܝܪ	-10.1221
ܦܘܪܩܢܐ	-10.1226
ܠܘܤ	-10.123
▁ܟܐܢܘܬ	-10.1233
▁ܐܫܬܝ	-10.1243
▁ܒܒܤܪܐ	-10.1248
▁ܠܡܕ	-10.1259
ܦܥ	-10.1271
▁ܕܡܝܢ	-10.1323
▁ܕܬܫ	-10.1334
▁ܕܫܐܠ	-10.1346
▁ܡܐܤ	-10.1351
▁ܕܡܝ	-10.1356
▁ܠܥܡ	-10.1371
ܛܫܝ	-10.1383
ܩܛܘܠܐ	-10.1406
▁ܕܫܠܡ	-10.1412
▁ܕܙܢܝ	-10.1424
ܙܡܪ	-10.1429
▁ܫܩܝܠ	-10.1434
ܪܚܐ	-10.1463
ܚܒܠܐ	-10.1481
ܬܗܦܟ	-10.1482
ܪܓܝܓܬܐ	-10.1489
▁ܐܬܢܒܝ	-10.15
▁ܕܡܐܬ	-10.1503
ܚܨܕ	-10.1504
ܛܘܪܐ	-10.1511
▁ܕܒܐܝ	-10.1524
ܬܚܘܝܬ	-10.1531
▁ܪܥܝܢ	-10.1536
▁ܕܬܚ	-10.1538
▁ܩܢܝܢ	-10.1565
▁ܝܩܝܪ	-10.1574
▁ܓܦ	-10.158
▁ܘܟܒܪ	-10.1583
ܐܘܪܚܐ	-10.1586
▁ܠܡܠܟ	-10.1597
ܘܫܩ	-10.1598
▁ܐܬܝ	-10.1605
▁ܠܐܚܝ	-10.1626
ܟܗܢܐ	-10.1648
ܡܘܠ	-10.1656
▁ܕܙ	-10.1659
▁ܘܡܛܝ	-10.1663
ܢܗܝܡܢܘܢ	-10.1673
ܙܒܢ	-10.1677
▁ܢܦ	-10.1677
▁ܪܫܝ	-10.1681
▁ܟܘܬܝܢ	-10.1681
ܚܒܘ	-10.1688
▁ܕܪܥܝܢ	-10.1689
▁ܡܝܬܘ	-10.1693
ܬܚܕܬ	-10.1695
ܐܚܘܟ	-10.1708
ܐܚܪܝܢ	-10.1708
ܩܝܦܐ	-10.1713
▁ܚܨܕ	-10.1716
ܝܘܬܐ	-10.1722
▁ܠܤ	-10.1723
ܦܩܚ	-10.1724
ܠܘܩܒܠ	-10.1725
▁ܕܒܟ	-10.1727
▁ܟܟܪ	-10.1729
▁ܕܢܩܪܒ	-10.1732
▁ܠܡܩܛܠ	-10.1732
▁ܐܬܟܪܟ	-10.1734
ܟܠܝܘܡ	-10.1739
▁ܘܐܩܝܡܘ	-10.1743
▁ܕܪܫܝ	-10.1743
ܒܘܢ	-10.1751
▁ܒܗܬ	-10.1751
ܕܝܠܝ	-10.1751
ܘܨܐ	-10.1752
▁ܕܡܥ	-10.1754
ܪܝܫ	-10.1763
▁ܒܥ	-10.1768
ܡܠܬܗ	-10.177
ܐܠܝܨ	-10.1773
▁ܕܢܡܠܠ	-10.1776
ܬܐܪܬܗܘܢ	-10.1777
▁ܤܘ	-10.1778
ܕܡ	-10.1795
▁ܡܤܟܝܢ	-10.1803
ܒܢܐ	-10.1809
▁ܪܚܝ	-10.182
▁ܘܦܠܓ	-10.1822
▁ܢܤܓ	-10.1824
▁ܦܫܝܩ	-10.1824
▁ܠܫܐܘܠ	-10.1835
▁ܢܙܕܕܩ	-10.1835
ܐܬܬܤܝܡ	-10.1835
▁ܐܬܕܒܪ	-10.1835
▁ܠܕܘܟܪܢ	-10.1835
▁ܕܦܓܪܗ	-10.1835
▁ܘܡܫܟܚ	-10.1835
▁ܘܤܒܥܘ	-10.1835
▁ܩܘܦܝܢܝܢ	-10.1835
▁ܬܓܘܪ	-10.1835
▁ܒܐܦܘܗܝ	-10.1835
▁ܦܤܘܩ	-10.1835
▁ܥܤܒܐ	-10.1835
▁ܕܕܒܝܚܐ	-10.1835
▁ܠܐܦܤܘܤ	-10.1835
▁ܬܥܡܕܘܢ	-10.1835
▁ܕܢܥܠܘܢ	-10.1835
▁ܠܡܫܪܝܬܐ	-10.1835
▁ܬܝܒܘܬܐ	-10.1835
ܐܫܬܒܚ	-10.1835
▁ܬܡܝܗ	-10.1835
▁ܘܝܗܘܕܐ	-10.1835
▁ܙܘܓ	-10.1835
▁ܢܛܝܪ	-10.1835
▁ܒܥܢܢܐ	-10.1835
▁ܐܤܛܠ	-10.1835
ܤܚܦ	-10.1835
▁ܐܢܚܢܢ	-10.1835
ܬܗܠܟܘܢ	-10.1835
▁ܢܪܚܡ	-10.1836
▁ܡܤܒ	-10.1836
ܐܬܦܪܫ	-10.1836
ܥܪܘܒ	-10.1836
▁ܘܐܘܕܥ	-10.1836
▁ܬܫܡܥܘܢ	-10.1836
▁ܕܢܕܒܪ	-10.1836
▁ܛܢܢܐ	-10.1836
▁ܒܙܩ	-10.1836
▁ܒܒܪܗ	-10.1836
▁ܬܟܠܘܢ	-10.1837
ܡܨܥܝܐ	-10.1837
▁ܛܘܦܢ	-10.1837
▁ܒܕܡܗ	-10.1837
ܠܕܝܩܝܐ	-10.1837
▁ܕܩܪܟܘܢ	-10.1838
▁ܘܟܪܟ	-10.1838
ܙܗܪ	-10.1838
ܛܘܦܤ	-10.1838
▁ܚܫܒ	-10.1838
▁ܠܐܪܒܥ	-10.1838
▁ܬܪܥܝܬܐ	-10.1838
ܓܚܟ	-10.1839
▁ܒܡܫܘܚܬܐ	-10.184
ܓܕܦ	-10.184
▁ܕܡܠܟܘܬܗ	-10.184
▁ܚܕܝܐܝܬ	-10.184
▁ܕܐܬܡܠܠ	-10.1841
▁ܒܚܛܗܝܟܘܢ	-10.1841
▁ܕܠܒܢܝ	-10.1841
▁ܠܩܪܒܐ	-10.1841
▁ܤܝܦܐ	-10.1842
▁ܦܤܐ	-10.1842
▁ܕܢܥܒܪ	-10.1843
ܥܛܝܦ	-10.1843
▁ܚܫܝܒ	-10.1844
▁ܕܝܗܝܒ	-10.1844
▁ܠܓܒܝܐ	-10.1845
▁ܡܨܝܕܬܗܘܢ	-10.1845
ܬܗܝܡܢܘܢ	-10.1845
▁ܕܡܬܚܒܠ	-10.1846
▁ܕܝܩܕ	-10.1846
▁ܒܚܪ	-10.1846
▁ܒܩܢܘܡܗ	-10.1847
▁ܪܥܘܬܐ	-10.1847
▁ܕܐܬܦܩܕ	-10.1847
▁ܡܫܝܓ	-10.1848
▁ܘܐܫܬܟܚ	-10.185
▁ܪܥܝܢܗ	-10.1851
▁ܓܠܝܢ	-10.1853
▁ܒܚܠܡ	-10.1853
▁ܡܘܠܝ	-10.1856
▁ܡܫܬܥ	-10.1856
▁ܘܪܓܠܘܗܝ	-10.1858
▁ܘܐܚܪܝܐ	-10.1858
▁ܕܐܚܪܢ	-10.1859
▁ܕܢܨܒ	-10.186
▁ܡܬܝܬܪ	-10.1861
▁ܬܡܗ	-10.1862
ܫܢܐ	-10.1867
▁ܬܫܒܩܘܢ	-10.1867
▁ܐܙܕܪܥ	-10.1868
▁ܡܬܝܕܥ	-10.1868
▁ܡܬܬܙܝܥ	-10.1868
ܕܟܝܘܬܐ	-10.187
▁ܕܐܙܕܩܦ	-10.1871
▁ܠܐܢܛܝܘܟܝ	-10.1873
▁ܦܠܓܘ	-10.1874
▁ܘܐܘܒܠܘܗܝ	-10.1874
▁ܫܪܪܗ	-10.1876
▁ܥܦܪ	-10.1876
▁ܠܢܦܫܝ	-10.1877
▁ܘܐܡܗ	-10.1878
ܩܒܘܪ	-10.188
▁ܒܩܒܪܐ	-10.1885
▁ܫܩܠܬܘܢ	-10.1886
▁ܒܨܦܪܐ	-10.1888
▁ܕܬܚܒ	-10.1889
▁ܒܘܟܪܐ	-10.1889
▁ܐܘܢܓܠܝܘܢ	-10.1889
ܥܘܪܠܘܬܐ	-10.189
▁ܒܩܛܝܪܐ	-10.189
▁ܐܡܘܬ	-10.1892
▁ܐܘܤܦ	-10.1893
▁ܩܝ	-10.1894
▁ܚܘܪܬܐ	-10.1897
▁ܕܢܗܝܡܢ	-10.1897
▁ܘܐܤܩ	-10.1902
▁ܠܐܒܗܬܢ	-10.1902
▁ܨܘܪ	-10.1903
▁ܕܩܒܠܘ	-10.1903
▁ܕܦܬܟܪܐ	-10.1903
▁ܘܦܪܘܩ	-10.1904
▁ܘܡܦܩ	-10.1907
ܛܫܐ	-10.1909
▁ܡܨܠܝܢ	-10.1909
▁ܓܙܪ	-10.191
▁ܥܘܡܩ	-10.1911
ܪܝܬܐ	-10.1912
▁ܢܦܫܬܟܘܢ	-10.1912
▁ܡܦܫܩ	-10.1913
▁ܗܝܡܢܬܘܢ	-10.1914
▁ܕܢܕܘܢ	-10.1914
▁ܕܥܟ	-10.1915
▁ܕܢܬܚܙ	-10.1915
ܗܝܡܢܘܬܐ	-10.1917
▁ܢܐܟܠܘܢ	-10.1919
ܒܢܝ	-10.1921
▁ܦܘܩܘ	-10.1926
▁ܡܕܥ	-10.1928
ܐܪܛܡ	-10.1929
▁ܒܡܘܬܐ	-10.1929
▁ܪܘܚܢܝ	-10.193
▁ܒܫܡܟ	-10.193
▁ܒܐܤܘܪ	-10.1931
▁ܤܛܪ	-10.1931
▁ܠܒܘܫܐ	-10.1932
▁ܡܥܨ	-10.1933
▁ܚܢܦܐ	-10.1935
▁ܘܠܐܡܟ	-10.1937
▁ܘܐܚܕܘܗܝ	-10.1941
▁ܡܤܟܝܢܢ	-10.1945
ܢܠܒܫ	-10.1951
▁ܡܫܘܚܬ	-10.1952
ܚܘܬܐ	-10.1958
▁ܠܝܡܐ	-10.196
▁ܘܫܡܝ	-10.1965
▁ܤܒܪܬܝ	-10.1965
ܪܡܙ	-10.1966
▁ܡܘܬܪ	-10.1967
▁ܒܘܝܐܐ	-10.1974
▁ܐܝܬܝܢ	-10.1974
▁ܡܬܩܪܒܝܢ	-10.1977
ܘܐܝܠ	-10.1977
▁ܠܐܤܘܪ	-10.1977
▁ܥܝܢܝ	-10.1978
▁ܕܐܫܟܚܬ	-10.1978
▁ܘܡܬܩܪ	-10.198
▁ܡܫܬܡܥܝܢ	-10.1985
▁ܕܡܪܝܡ	-10.1985
▁ܘܕܒܚܐ	-10.1986
▁ܕܢܡܠ	-10.1988
ܕܡܝܢ	-10.1991
ܥܙ	-10.1992
ܪܥܐ	-10.1992
▁ܚܐܝܢ	-10.1992
▁ܒܝܘܠܦܢܐ	-10.1995
▁ܡܤܟܠ	-10.1995
▁ܫܘܠܡܐ	-10.1997
▁ܪܚܡܘܗܝ	-10.2003
▁ܕܒܪܟ	-10.2014
▁ܕܫܦܪ	-10.2014
ܒܕܩ	-10.2021
▁ܡܫܡܠܝܐ	-10.2023
▁ܠܒܝܬܟ	-10.2028
▁ܘܐܬܚܫܒ	-10.2036
▁ܤܟܠܘܬܗ	-10.2038
▁ܒܟܘܪܗܢܐ	-10.2038
ܤܘܦ	-10.2041
▁ܐܬܬܓܪ	-10.2044
ܬܢܝܢܐ	-10.2044
▁ܡܬܕܒܪܝܢ	-10.2044
▁ܪܘܚܢܐ	-10.2047
▁ܒܚܫ	-10.2048
▁ܕܫܕܪܬ	-10.205
▁ܐܘܫ	-10.2051
▁ܒܘܪܟ	-10.2054
ܦܘܠܘܤ	-10.206
▁ܕܒܬܪܗ	-10.2074
▁ܨܒܝܢܟ	-10.208
ܢܐܡܪܘܢ	-10.2081
▁ܒܩܐ	-10.2082
ܢܩܪܒܘܢ	-10.2082
▁ܘܥܠܘ	-10.2087
▁ܠܬܫܒܘܚܬܐ	-10.2094
ܥܬܐ	-10.2102
▁ܟܤܝܬ	-10.2103
▁ܕܐܡܝܪ	-10.2111
▁ܕܘܢܘ	-10.212
ܛܥܝܘܬ	-10.2123
▁ܢܛܥ	-10.2129
▁ܕܠܘܬܢ	-10.2145
▁ܕܐܬܠ	-10.2151
▁ܕܠܡܢ	-10.2154
ܐܡܝܪ	-10.2156
ܘܩܕ	-10.2174
▁ܝܘܬܪܢܐ	-10.2179
ܡܬܕܟܪ	-10.2184
▁ܘܡܐܤ	-10.2184
▁ܢܪܡ	-10.219
ܐܫܬܒܩ	-10.2194
ܪܦܐ	-10.2202
▁ܕܡܚܝܠ	-10.2204
▁ܩܢܘܡ	-10.2209
ܦܝܪ	-10.2215
▁ܘܐܚܝܕ	-10.2216
▁ܠܡܤܒܪ	-10.2219
ܓܠܠܐ	-10.2227
▁ܢܬܚܙ	-10.2238
ܥܪܩܘ	-10.2241
▁ܦܘܡܝ	-10.2242
▁ܕܟܠܟܘܢ	-10.2247
▁ܛܘܗܡܗ	-10.2249
▁ܐܫ	-10.2256
▁ܦܘܡܗܘܢ	-10.2257
▁ܡܥܕܪ	-10.2262
▁ܢܠܦ	-10.2269
ܡܚܒܠ	-10.2285
▁ܘܫܠܝܛ	-10.2291
▁ܐܝܬܝܟܘܢ	-10.2299
▁ܪܫ	-10.2301
▁ܢܗܝܡܢ	-10.2306
▁ܕܤܒܪܬܐ	-10.2309
ܬܪܥܐ	-10.2309
ܝܚܐ	-10.2328
▁ܕܐܚܝܕܝܢ	-10.233
▁ܡܦܢ	-10.2333
▁ܘܒܪܘܚ	-10.2337
▁ܩܪܢܐ	-10.2338
▁ܕܟܬܒܬ	-10.235
ܚܙܘ	-10.235
ܗܝܡܢܘܬܗ	-10.2353
▁ܐܠܗܝ	-10.238
ܫܡܫ	-10.2383
▁ܤܪܝܩ	-10.2385
▁ܘܥܪܩ	-10.2389
▁ܘܡܗܝܡܢܐ	-10.2399
ܤܘܤ	-10.24
ܦܠܘ	-10.2416
▁ܩܥܘ	-10.2439
▁ܠܐܢܫܐ	-10.2449
ܟܢܫ	-10.2454
▁ܒܩܝܡܬ	-10.2456
ܢܦܫܟܘܢ	-10.246
▁ܠܤܒܪܬ	-10.2461
▁ܡܚܝܠ	-10.2462
▁ܐܤܬܡܟ	-10.2463
▁ܕܐܬܐܤܝ	-10.2474
▁ܘܒܝܘܠܦܢ	-10.2493
▁ܕܐܬܟܢ	-10.2497
▁ܕܬܫܐܠ	-10.2505
▁ܩܪܝܢ	-10.252
ܚܛܗܝܗܘܢ	-10.2521
▁ܡܕܟ	-10.2523
▁ܘܡܠܐ	-10.2523
▁ܐܝܬܝܘ	-10.2524
▁ܐܫܬܘܬܦ	-10.2534
ܤܬܪ	-10.2562
▁ܡܚܪ	-10.2571
▁ܨܝܕ	-10.2581
ܕܒܚܐ	-10.2587
▁ܩܘܝ	-10.259
▁ܕܒܒ	-10.2598
▁ܕܬܫܬ	-10.2605
▁ܒܤܒܪܬ	-10.2614
▁ܠܒܪܐ	-10.2616
ܡܘܬ	-10.2636
▁ܕܤܓܕ	-10.2644
▁ܒܪܥܝܢܝ	-10.2647
▁ܢܘܕ	-10.2649
ܢܘܤ	-10.2659
▁ܫܒܩܗ	-10.2662
▁ܫܡܥܢ	-10.2666
▁ܘܐܒܐ	-10.2668
▁ܙܩܝܦܐ	-10.2669
▁ܘܒܟܠܗ	-10.267
▁ܘܚܕܝ	-10.267
▁ܥܒܪܝ	-10.2684
ܟܠܢܫ	-10.2686
ܐܢܫ	-10.2688
ܡܘܡܬܐ	-10.2694
▁ܕܢܒܥ	-10.2697
▁ܕܐܟ	-10.2701
▁ܐܒܘ	-10.2702
▁ܒܝܘܡܗ	-10.2712
▁ܚܛܝܬ	-10.2714
▁ܐܬܬܙܝܥ	-10.2779
▁ܬܪܝܨܐ	-10.2807
ܠܡܐ	-10.2812
▁ܚܨܝܟ	-10.2823
▁ܕܡܚܐ	-10.2827
▁ܕܢܫܬ	-10.2831
▁ܘܐܬܝ	-10.2845
▁ܕܐܫ	-10.285
▁ܒܓܘ	-10.2851
ܚܘܛܪ	-10.2869
▁ܒܡܥܡܘܕܝܬ	-10.2882
▁ܒܪܩ	-10.289
▁ܤܒܪܘ	-10.2895
▁ܦܪܥ	-10.2899
ܫܢܝܗܘܢ	-10.2945
▁ܐܕܢܗ	-10.2957
▁ܠܙܕܝܩ	-10.2959
▁ܒܤܒܪ	-10.2965
▁ܒܝܫܘܬ	-10.2973
▁ܢܓ	-10.2985
ܫܬܝܢ	-10.2988
ܚܨܘܕ	-10.299
▁ܘܝܗܒܘ	-10.2995
▁ܢܪ	-10.2998
ܠܚܕ	-10.3005
▁ܕܥܕ	-10.3036
▁ܐܕܡ	-10.3053
▁ܠܢܦܫܟ	-10.3073
▁ܕܒܩ	-10.3075
ܦܘܪ	-10.3087
▁ܕܢܦܫ	-10.3095
▁ܪܘܝ	-10.3114
▁ܠܒܥܠ	-10.3119
ܚܘܬܗ	-10.3122
▁ܙܢܝܐ	-10.3137
ܦܠ	-10.3138
ܟܪܝܗܐ	-10.3144
ܪܕܝܤ	-10.3147
▁ܡܨܝܕܬ	-10.3151
▁ܥܠܡ	-10.3156
▁ܫܬܐܤ	-10.3156
▁ܢܫܬܐ	-10.3163
▁ܘܡܬܚ	-10.3183
▁ܘܡܗܝܡܢ	-10.3186
▁ܡܩܕܫ	-10.3196
▁ܕܗܝܡܢ	-10.3197
▁ܬܟܝܠܝܢ	-10.3197
▁ܟܘܟܒ	-10.3205
▁ܡܕ	-10.3205
▁ܡܥܡܘܕܝܬ	-10.3212
▁ܤܡܝܟܐ	-10.3216
▁ܕܡܚ	-10.3217
▁ܚܫܘܟ	-10.3224
▁ܘܨܠܘ	-10.3238
ܝܩܪ	-10.3252
▁ܢܨܝ	-10.3255
ܤܛܘܤ	-10.3281
▁ܪܡ	-10.3285
▁ܘܒܝ	-10.329
▁ܕܚܝܝܢ	-10.3299
ܕܪܫ	-10.3307
▁ܕܙܩܝܦ	-10.3318
▁ܘܡܬܝ	-10.3323
▁ܥܪܛܠ	-10.3336
▁ܕܝܘܢ	-10.3349
▁ܢܦܠܝܢ	-10.3353
▁ܘܩܪܘ	-10.3354
▁ܫܒܩܢ	-10.3355
ܗܕܡܝܟܘܢ	-10.3367
▁ܒܝܘܡܝ	-10.3371
▁ܛܘ	-10.3377
ܬܫܟܚܘܢ	-10.3381
▁ܚܤܝܪܝ	-10.3384
▁ܢܤܒܪ	-10.3414
▁ܩܕܡܝܗ	-10.3436
ܬܫܡܥ	-10.3472
▁ܢܟܦ	-10.3475
ܚܤܕ	-10.3478
▁ܒܫܘܠܛܢ	-10.348
▁ܠܒܗ	-10.3484
▁ܕܫܕܪ	-10.3491
▁ܕܢܩܛܠܘܢ	-10.3496
ܠܒܫܘ	-10.3517
▁ܘܠܒ	-10.3519
▁ܘܡܗܠܟ	-10.3522
ܛܠܝܬܐ	-10.3526
ܡܠܝܐ	-10.353
▁ܤܒܥ	-10.353
▁ܩܨܝ	-10.3553
ܚܫܡܝܬܐ	-10.3555
▁ܘܡܤܒܪ	-10.3563
ܕܘܝܕ	-10.3586
▁ܘܕܚܝ	-10.3595
ܨܗܝ	-10.3601
▁ܩܛ	-10.3612
▁ܘܦܬܚ	-10.3641
▁ܘܩܡܬ	-10.3642
▁ܕܡܟܪܙ	-10.3649
ܚܘܒܟܘܢ	-10.3653
ܬܒܩܘ	-10.3653
▁ܫܠܚ	-10.366
▁ܕܚܘ	-10.3663
▁ܢܫܐܠ	-10.3667
ܓܝܤܐ	-10.3681
▁ܕܡܤܝܒ	-10.3683
ܘܝܘܬܐ	-10.3686
▁ܡܬܕܒܪ	-10.3691
▁ܬܩ	-10.3697
▁ܕܩܨܝ	-10.3709
ܦܘܠܚܢܐ	-10.3711
ܥܪܘܩ	-10.3712
ܤܦܩ	-10.3717
▁ܫܒܘܩܝ	-10.3719
ܡܩܝܡ	-10.3719
ܛܢܦܘܬܐ	-10.3719
ܠܬܚܬ	-10.372
ܢܘܗܪܗ	-10.3721
▁ܠܡܬܒ	-10.3724
▁ܘܐܩܝܡ	-10.3725
▁ܐܫܬܥܒܕ	-10.3727
ܓܙܪܬܐ	-10.3738
ܫܝܓ	-10.374
▁ܕܕܚܠܬ	-10.3742
ܩܝܤܐ	-10.3747
▁ܡܥܠ	-10.3752
ܕܡܘܤ	-10.3757
▁ܪ	-10.3757
▁ܤܠܩܝܢ	-10.3758
ܙܟܪܝܐ	-10.3758
ܦܛ	-10.376
ܘܬܟ	-10.376
▁ܠܫܡ	-10.3763
▁ܒܚܘ	-10.377
ܠܒܘܫܐ	-10.3776
▁ܕܓܘ	-10.3787
▁ܠܫܘ	-10.3797
▁ܬܩܘܡ	-10.3802
▁ܚܛܘ	-10.3816
▁ܕܐܒܗܝ	-10.3827
▁ܬܩܒܠܘܢ	-10.3828
ܠܙܪܥ	-10.3829
▁ܢܩܛܠ	-10.3833
ܚܢܦܐ	-10.3833
ܐܬܒܕܪܘ	-10.3835
ܒܙܕܝܩܘܬܐ	-10.3835
ܦܡܦܘܠܝܐ	-10.3835
▁ܕܐܬܚܙܝ	-10.3835
▁ܕܛܠܡ	-10.3835
▁ܘܐܫܬܓܫ	-10.3835
▁ܒܠܥܕ	-10.3835
▁ܘܪܓܡ	-10.3835
▁ܢܬܕܒܪ	-10.3835
▁ܕܐܫܬܒܗܪ	-10.3835
▁ܬܤܗܕ	-10.3835
▁ܕܐܟܪܙ	-10.3835
▁ܕܟܢܝܫ	-10.3835
▁ܘܕܐܪܒܥ	-10.3835
▁ܠܡܤܓܕ	-10.3835
▁ܬܚܦܝܬܐ	-10.3835
▁ܠܡܕܟܝܘ	-10.3835
▁ܠܡܗܝܡܢ	-10.3835
▁ܘܤܪܝܩ	-10.3835
▁ܘܐܤܗܕ	-10.3835
▁ܕܪܗܛ	-10.3835
▁ܦܘܪܥܢ	-10.3835
▁ܒܒܥܠ	-10.3835
▁ܡܬܚܒܠܢܘܬܐ	-10.3835
▁ܕܠܒܗܘܢ	-10.3835
▁ܠܛܒܬܐ	-10.3835
▁ܘܪܘܙ	-10.3835
▁ܘܒܕܚܠܬ	-10.3835
▁ܘܠܐܪܡܝܐ	-10.3835
▁ܕܒܠܥ	-10.3835
▁ܒܤܬܪܗ	-10.3835
▁ܕܢܗܘܝܢ	-10.3835
▁ܠܤܗܕܘܬܗܘܢ	-10.3835
▁ܟܘܪܤܘܬ	-10.3835
▁ܕܤܢܝܩ	-10.3835
▁ܐܘܪܩ	-10.3835
▁ܙܩܦܘܗܝ	-10.3835
▁ܐܬܬܢܝܚ	-10.3835
▁ܘܡܥܩ	-10.3835
▁ܘܒܢܘܪܐ	-10.3835
▁ܐܤܦܝܪ	-10.3836
▁ܕܟܦܢ	-10.3836
ܢܢܓܕܘܢ	-10.3836
▁ܕܡܘܒܠ	-10.3836
▁ܐܬܒܪܝ	-10.3836
ܡܬܝܠܕ	-10.3837
▁ܒܕܡܥ	-10.3837
▁ܡܪܕܘܬ	-10.3837
▁ܕܟܦܪ	-10.3837
▁ܘܚܡܬܐ	-10.3837
▁ܘܐܡܘܬܐ	-10.3837
▁ܒܤܝܦܐ	-10.3837
▁ܘܚܡܫ	-10.3837
▁ܚܒܪܝ	-10.3837
▁ܕܪܗܘܡܝܐ	-10.3838
▁ܥܒܘܕ	-10.3838
▁ܒܐܘܪܝ	-10.3838
ܓܡܘܪ	-10.3838
▁ܘܡܬܟܪܟ	-10.3838
▁ܕܫܩܝܠ	-10.3838
▁ܐܚܘܕܘ	-10.3838
▁ܘܡܬܚܫܒ	-10.3838
▁ܕܬܝܒܘܬ	-10.3838
▁ܐܪܒܥܤܪܐ	-10.3838
▁ܒܡܪܘܡܐ	-10.3839
▁ܐܓܪܦܐ	-10.3839
▁ܝܠܝܕ	-10.3839
▁ܨܐܕܝܟܘܢ	-10.384
▁ܢܛܥܝܟܘܢ	-10.3841
▁ܤܡܠܗ	-10.3841
▁ܘܢܚܙܐ	-10.3841
▁ܕܢܪܕ	-10.3841
▁ܢܬܟܫܠ	-10.3841
▁ܫܥܒܕ	-10.3841
▁ܢܫܒ	-10.3842
▁ܐܬܒܛܠ	-10.3842
▁ܒܐܓܪܬ	-10.3842
▁ܪܒܝܥܝ	-10.3843
▁ܕܕܪܬܐ	-10.3843
▁ܚܘܫܒܢܐ	-10.3844
▁ܕܢܫܩ	-10.3845
ܡܪܟܒܬܐ	-10.3846
▁ܕܢܐܚܕܘܢܝܗܝ	-10.3846
▁ܠܡܩܛܠܢܝ	-10.3846
▁ܚܬܡ	-10.3846
▁ܕܢܦܪܩ	-10.3848
▁ܕܙܠ	-10.3848
▁ܘܡܫܠܡ	-10.3849
▁ܢܚܤܪ	-10.3849
▁ܐܬܚܫܚ	-10.3849
▁ܒܒܪܐ	-10.3849
▁ܕܡܘܗܒܬ	-10.385
ܛܪܤܘܤ	-10.385
▁ܘܡܦܝܤ	-10.385
ܛܪܘܐܤ	-10.3851
▁ܡܓܥܠ	-10.3851
▁ܢܫܬܪ	-10.3851
▁ܕܒܥܠܕܒܒ	-10.3852
▁ܕܢܒܗܬ	-10.3852
▁ܐܤܛܘܟܤ	-10.3853
▁ܩܪܩܦܬܐ	-10.3855
▁ܒܨܝܪܐ	-10.3856
▁ܕܠܒܪ	-10.3856
▁ܢܝܩܪ	-10.3858
▁ܒܦܘܩܕܢܐ	-10.3859
▁ܬܫܒܚ	-10.3859
ܒܚܤܝܪܘܬ	-10.3859
ܫܒܥܬܝܗܘܢ	-10.3859
▁ܒܨܘܪ	-10.3859
ܦܬܘܪܗ	-10.386
▁ܕܓܘܕܦܐ	-10.3861
▁ܘܢܫܪܐ	-10.3862
▁ܨܐܕ	-10.3862
▁ܨܠܡ	-10.3863
ܬܛܝܒ	-10.3863
▁ܒܟܪܤ	-10.3864
▁ܚܕܬܬܐ	-10.3865
▁ܡܝܬܪܝܢ	-10.3865
ܐܬܟܤܝ	-10.3866
▁ܘܐܒܘܟ	-10.3867
▁ܡܛܥܐ	-10.3867
▁ܐܬܐܠܨ	-10.3867
▁ܕܐܘܠܨܢ	-10.3867
▁ܒܡܟܝܟܘܬ	-10.3867
▁ܠܐܘܪܥܗ	-10.3867
▁ܩܪܛܐ	-10.3868
▁ܘܤܓܕ	-10.387
▁ܘܐܘܠܨܢ	-10.3872
▁ܒܘܪܟܘܗܝ	-10.3872
▁ܐܨܛܒܝܬ	-10.3873
▁ܬܓܢ	-10.3874
ܦܓܪܟ	-10.3875
▁ܢܬܝܕܥ	-10.3875
▁ܒܕܪܡܤܘܩ	-10.3876
▁ܠܐܒܕܢܐ	-10.3876
▁ܢܫܬܡܥ	-10.3876
▁ܕܠܓܘ	-10.3876
▁ܠܡܕܒܚܐ	-10.3877
▁ܫܕܪܬܢܝ	-10.3877
▁ܡܫܬܡܥܢܘܬ	-10.3879
▁ܘܠܫܪܟܐ	-10.388
▁ܘܫܪܝܗܝ	-10.388
▁ܡܟܫܘܠܐ	-10.388
▁ܢܫܒܚ	-10.3881
▁ܠܒܘܬܗܘܢ	-10.3882
▁ܕܒܥܠܡܐ	-10.3885
▁ܕܐܟܐܝܐ	-10.3885
▁ܕܐܚܒܢ	-10.3885
▁ܕܐܪܙ	-10.3886
▁ܕܦܨܚܐ	-10.3886
▁ܕܐܡܗ	-10.3886
▁ܥܝܪ	-10.3888
▁ܒܤܓܝ	-10.3889
ܡܙܡܢ	-10.389
▁ܐܚܘܝܟ	-10.389
▁ܩܫܝܘܬ	-10.3892
▁ܛܥܘ	-10.3893
ܪܥܡܐ	-10.3893
▁ܒܥܠܕܒܒܘܬܐ	-10.3893
▁ܡܥܗܕ	-10.3894
▁ܬܘܬܪ	-10.3894
▁ܥܡܪܐ	-10.3895
▁ܢܝܩ	-10.3896
▁ܐܫܬܘܕܥܘ	-10.3897
▁ܘܚܤܡ	-10.3897
▁ܘܥܪܒ	-10.3899
ܤܗܕܘܬܗ	-10.3899
▁ܕܝܠܕܬ	-10.39
▁ܡܬܟܬܫ	-10.3902
▁ܘܫܡܗ	-10.3903
▁ܒܠܒܟܘܢ	-10.3903
▁ܠܟܐܢܘܬܐ	-10.3908
▁ܘܕܥܡܗ	-10.391
▁ܕܢܫܐܠܝܘܗܝ	-10.391
ܓܕܫ	-10.3912
▁ܠܥܒܕܘܬܐ	-10.3913
▁ܒܚܝܐ	-10.3913
▁ܦܟ	-10.3913
▁ܬܫܡܫܬܗ	-10.3919
▁ܠܒܤܪ	-10.3919
▁ܠܫܘܩܐ	-10.392
▁ܘܕܐܠܗܐ	-10.3921
▁ܕܐܝܤ	-10.3921
ܫܬܘܩ	-10.3921
▁ܘܠܡܫܪ	-10.3922
▁ܢܫܦܪ	-10.3922
▁ܩܪܢܢ	-10.3923
▁ܤܢܝܢ	-10.3925
▁ܒܫܝܘܠ	-10.3925
▁ܘܦܪܩ	-10.3925
▁ܟܘܪܤܝܗ	-10.3928
▁ܐܡܟ	-10.3929
ܢܘܟܪܝ	-10.3929
▁ܒܦܠܓ	-10.393
▁ܘܫܒܘܩ	-10.3931
▁ܡܠܝܗܘܢ	-10.3931
▁ܕܨܘܪ	-10.3933
▁ܠܒܥܠܗ	-10.3934
▁ܩܒܠܘܗܝ	-10.3935
▁ܕܢܡܠܠܘܢ	-10.3936
▁ܒܪܝܫ	-10.3937
▁ܐܬܛܦܝܤܘ	-10.3937
▁ܘܪܩ	-10.3938
▁ܘܬܘܠܬ	-10.394
▁ܬܘܕܝܬܐ	-10.3942
▁ܡܬܓܠܐ	-10.3943
▁ܕܡܫܬܡ	-10.3944
▁ܕܢܩܘܡ	-10.3946
▁ܠܩܫܝܫ	-10.3946
▁ܩܘܪܝܢ	-10.395
▁ܪܥܝܢܗܘܢ	-10.3951
▁ܡܒܙܚ	-10.3952
▁ܕܢܩܒܠܘܢ	-10.3953
▁ܨܒܝܬܘܢ	-10.3953
▁ܪܕܘ	-10.3954
ܢܬܩܛܠ	-10.3955
▁ܘܐܤܝܪ	-10.3956
▁ܓܝܤܐ	-10.3957
ܝܘܛܐ	-10.3957
▁ܘܢܩܦ	-10.3958
▁ܒܥܬܐ	-10.3958
▁ܕܬܘܩܠܬܐ	-10.3962
▁ܠܚܕܕܐ	-10.3963
ܓܥܠ	-10.3963
▁ܘܐܫܬܘܕܥ	-10.3966
▁ܚܙܝܪܐ	-10.3966
▁ܕܓܢܒ	-10.3969
▁ܕܫܪܒܬ	-10.3973
▁ܕܚܝܠܬܢ	-10.3974
▁ܘܬܒ	-10.3974
▁ܠܒܟ	-10.3978
ܛܢܝܢ	-10.3981
▁ܕܡܬܟܢܫ	-10.3983
▁ܕܥܠܝܟܘܢ	-10.3989
▁ܐܥܡܕܬ	-10.3992
ܙܥܘ	-10.3994
▁ܚܕܪܝ	-10.3996
▁ܕܗܝܡܢܘܬܗ	-10.3997
▁ܪܘܡܐ	-10.3998
▁ܘܙܢܝ	-10.4
▁ܕܢܫܕܪ	-10.4004
▁ܡܥܪܒ	-10.4005
▁ܕܢܛܪܘܢ	-10.4012
▁ܘܗܒܘ	-10.4013
▁ܬܚܛ	-10.4013
▁ܨܠܝܒ	-10.4014
▁ܥܛܠ	-10.4015
▁ܕܦܬܚ	-10.4017
ܤܠܘܢ	-10.4018
▁ܡܟܤܝ	-10.4019
▁ܐܟܬܘܒ	-10.4024
ܐܝܠܢܐ	-10.4026
▁ܘܪܝܫ	-10.4028
▁ܕܡܬܪܥ	-10.4029
▁ܘܥܡܡܐ	-10.4032
▁ܘܤܓܕܘ	-10.4037
▁ܕܚܒܠ	-10.4042
▁ܩܒܠܬܘܢ	-10.4045
▁ܕܡܥܠ	-10.4047
▁ܘܒܒܝܬ	-10.4048
▁ܕܫܠܝܡܘܢ	-10.4052
▁ܘܦܐܪ	-10.4053
▁ܕܦܠܓ	-10.4057
▁ܕܒܙܒܢ	-10.406
▁ܕܒܟܝܢ	-10.4061
▁ܢܬܪܥ	-10.4063
▁ܠܪܓܠ	-10.407
▁ܫܝܢܐ	-10.407
ܚܘܝܘ	-10.4072
▁ܒܐܒ	-10.4072
▁ܕܢܦ	-10.4076
ܥܒܪܐ	-10.4079
ܡܫܩܐ	-10.408
▁ܘܢܘܪ	-10.4086
▁ܕܚܩ	-10.4089
▁ܠܐܒܗܝ	-10.4091
▁ܕܢܘܢܐ	-10.4092
▁ܢܤܝܡ	-10.4093
▁ܦܘܩ	-10.4103
▁ܠܗܝܡܢܘܬܐ	-10.4104
▁ܕܢܗܪ	-10.4108
▁ܬܬܩܪ	-10.4108
▁ܘܡܤܒܪܝܢ	-10.4119
▁ܐܬܪܡܝ	-10.412
▁ܐܚܒܢ	-10.4123
▁ܩܛܠܘ	-10.4137
▁ܦܘܩܕܢ	-10.4138
ܡܬܟܢܫ	-10.4138
▁ܕܡܛܫܝ	-10.4143
ܟܪܡܐ	-10.4145
▁ܘܐܬܪܡܝ	-10.4156
ܤܛܪ	-10.4158
ܕܓܠ	-10.4161
▁ܢܚܛ	-10.4161
▁ܐܤܩ	-10.4162
▁ܘܟܘܟܒ	-10.417
▁ܠܟܪܤ	-10.4172
ܩܪܘܒ	-10.419
ܬܠܡܝܕܐ	-10.419
▁ܬܫܟܚ	-10.4193
▁ܢܫܕܪ	-10.4195
▁ܚܡܬܗ	-10.4196
▁ܚܐܪܘܬ	-10.4204
ܝܬܘܢܝܗܝ	-10.4205
▁ܘܓܘܕܦ	-10.4205
▁ܤܦܝܢ	-10.4215
▁ܡܫܬܕ	-10.4231
▁ܡܬܚܪ	-10.4234
▁ܓܙܐ	-10.4235
▁ܤܘܥܪܢ	-10.4239
ܡܫܡܫܢܐ	-10.4246
ܫܘܒܩܢܐ	-10.4246
▁ܐܩܝܡܘ	-10.4247
▁ܐܫܬܥܝ	-10.4256
▁ܘܕܐܝܬ	-10.4266
▁ܙܪܥܬ	-10.4276
▁ܠܬܫܡܫܬܐ	-10.4276
ܦܘܩܕܢܘܗܝ	-10.4286
ܫܘܬܦܘܬܐ	-10.4295
ܥܬܗ	-10.43
ܬܝܗܝ	-10.4302
▁ܗܘܦܟܝ	-10.4307
▁ܕܚܝܠܗ	-10.4316
▁ܕܐܫܠܡܬ	-10.4322
▁ܫܠܡܘ	-10.4326
ܡܪܓܢܝܬܐ	-10.4333
ܓܠܛܝܐ	-10.4334
▁ܫܘܒܩܢܐ	-10.4339
ܢܕܪܐ	-10.4339
▁ܕܝܘܡ	-10.4343
▁ܐܟܘܬܗ	-10.4345
ܡܢܗܪ	-10.4346
▁ܫܩܝܠܝܢ	-10.4347
▁ܠܡܒܥ	-10.4357
▁ܚܦܝܛܘܬ	-10.436
▁ܒܠܒܐ	-10.4361
▁ܐܬܝܗܒܬ	-10.4362
▁ܤܢܝܩܝܢ	-10.4374
▁ܘܒܝܕ	-10.438
ܢܬܦܬܚ	-10.4383
▁ܕܢܪܡ	-10.4392
ܕܠܡܐ	-10.4392
▁ܡܗܠܟܝܢܢ	-10.4395
ܥܪܦ	-10.44
▁ܘܒܛܠ	-10.4402
▁ܘܙܕܝܩܐ	-10.4402
▁ܓܒܝܬܐ	-10.4427
▁ܕܢܛܪܝܢ	-10.443
▁ܥܐܠܝܢ	-10.4431
▁ܒܕܪ	-10.4438
▁ܩܨ	-10.4439
ܙܐ	-10.4439
▁ܚܡܫܝܢ	-10.4444
▁ܟܪܝܘܬ	-10.4445
▁ܥܕܬܗ	-10.4446
▁ܩܕܡܝܟܘܢ	-10.4448
▁ܕܡܟܤ	-10.4454
ܫܘܝܐ	-10.4457
▁ܬܘܠܬܗ	-10.446
▁ܟܪܝܗܘܬ	-10.4462
▁ܐܬܩܛܠ	-10.4465
▁ܘܒܝܘܡ	-10.4471
ܕܘܒܪܝ	-10.4479
▁ܦܫܝܛܐ	-10.4483
ܬܬܩܠ	-10.4486
▁ܒܐܒܝ	-10.4489
ܬܪܓܪܓܘ	-10.4497
▁ܒܢܤܝܘܢ	-10.4499
ܒܐܘܠܨܢܐ	-10.4499
ܢܛܥܘܢ	-10.4512
ܓܡܠܐ	-10.4512
▁ܕܬܟܝܠ	-10.4514
▁ܙܥܘܪܝܢ	-10.4515
ܩܦܘ	-10.4519
ܬܬܥܝܪ	-10.4527
▁ܘܕܥܘ	-10.4532
▁ܚܪܡ	-10.454
▁ܘܐܩܦ	-10.4541
▁ܡܩܕܫܐ	-10.4544
ܡܥܛܦ	-10.4546
ܡܨܝܕܬܐ	-10.4555
▁ܠܐܝܤ	-10.4567
▁ܘܕܒ	-10.4576
▁ܫܩܠܘ	-10.4581
▁ܠܫܘܒܩܢ	-10.4582
▁ܒܥܠܐ	-10.4584
▁ܕܒܟܘܢ	-10.459
ܡܪܝܡ	-10.4591
ܚܠܦܐ	-10.4593
▁ܘܦܘ	-10.4599
▁ܤܡܘ	-10.4607
▁ܡܛܝܒܝܢ	-10.4609
▁ܛܝܢ	-10.462
▁ܒܢܦܫ	-10.4626
ܡܟܝܟܘܬ	-10.4629
▁ܒܡܪ	-10.463
▁ܒܢܐ	-10.4649
ܬܚܝܠ	-10.4651
ܤܬܘܐ	-10.4666
ܢܫܡܫ	-10.4669
▁ܡܠܟܝܗ	-10.468
▁ܠܡܠܐ	-10.4681
▁ܘܪܓܬ	-10.4684
▁ܐܪܥܗ	-10.4692
▁ܥܪܩܬ	-10.4707
ܬܦܤܩ	-10.4714
▁ܕܡܫ	-10.472
ܒܡܘܬܗ	-10.4725
ܡܫܬܝܐ	-10.4731
ܫܪܒܬ	-10.4746
▁ܠܚܝ	-10.4748
▁ܢܨ	-10.4752
▁ܘܚܪܬ	-10.4764
ܚܟܝܡܐ	-10.4769
ܤܕܘܢܐ	-10.4771
▁ܡܦܤܝܢ	-10.4773
▁ܡܚܘܝܢ	-10.4784
▁ܕܐܪܡܝ	-10.4788
ܦܓܪܟܘܢ	-10.4795
ܓܘܪܐ	-10.4798
▁ܚܤܝܢ	-10.4807
▁ܢܗܝܪ	-10.4807
ܡܛܐ	-10.4822
▁ܘܫܕܝܗ	-10.4831
▁ܘܐܤܬܡܟ	-10.4837
▁ܤܥܪܝܢ	-10.4853
ܪܘܬܐ	-10.4857
ܡܥܘܢ	-10.4882
▁ܛܪ	-10.4883
▁ܕܚܕܘܬ	-10.4893
▁ܕܤܒܪܝܢ	-10.4893
ܒܐܝܡܡܐ	-10.4903
ܙܕܒܢ	-10.4915
ܬܘܕܝܬܐ	-10.4926
ܐܚܘܗܝ	-10.493
▁ܕܡܫܬ	-10.4931
▁ܫܕܪܘ	-10.4938
▁ܠܦܘ	-10.494
▁ܐܚܪܝܬܐ	-10.4952
▁ܬܒܥܬ	-10.4955
ܠܐܢܛܝܟܝܐ	-10.4956
▁ܥܬܝܪ	-10.4962
▁ܘܫܪܪ	-10.4963
▁ܕܡܛܐ	-10.498
▁ܕܚܐܪ	-10.4987
▁ܥܒܕܢ	-10.499
ܢܡܘܤܐ	-10.5001
▁ܡܦ	-10.5004
▁ܘܫܪܒ	-10.5056
ܡܙܕܒܢ	-10.5059
▁ܕܪܘ	-10.506
ܐܢܛܝܟܝܐ	-10.5064
ܫܦܝܪܬܐ	-10.5071
ܒܛܘܫܝܐ	-10.5075
ܥܛܦ	-10.5093
▁ܘܚܬܡ	-10.5114
▁ܘܒܪܬ	-10.5144
ܥܝܢܐ	-10.5149
▁ܕܪܓ	-10.515
ܫܬܩܘ	-10.5173
ܬܦܩܕ	-10.5185
▁ܕܩܕܡܝ	-10.5186
▁ܬܬܝܬܪ	-10.5201
ܟܢܫܘ	-10.5213
▁ܕܐܦܢ	-10.5235
▁ܠܩܘܪܝ	-10.525
▁ܘܗܝܡܢ	-10.5261
ܡܘܕܐ	-10.5292
▁ܕܤܗܕ	-10.531
▁ܘܙܕܝܩ	-10.5316
▁ܘܩܪܒܬ	-10.5328
▁ܦܘܩܕܢܝ	-10.533
ܨܥܪܐ	-10.533
▁ܘܒܚܘ	-10.5335
▁ܠܡܦܩܘ	-10.5335
▁ܚܐܪ	-10.5346
▁ܕܚܕܪܝ	-10.5362
▁ܐܦܝܗܘܢ	-10.5376
ܒܨܝܪ	-10.5382
▁ܤܬܘ	-10.5387
▁ܒܠܒ	-10.5388
ܒܝܕܥܬܐ	-10.5391
ܕܟܝܢ	-10.5392
ܫܩܘܠ	-10.5394
▁ܡܠܟܗ	-10.5397
ܒܛܝܒܘܬܐ	-10.542
ܒܝܫܬܐ	-10.5425
▁ܪܥܝ	-10.5429
▁ܠܤܒܪ	-10.543
▁ܐܡܪܚ	-10.5439
ܩܛܝܪܐ	-10.5451
ܝܪܬܘܬܐ	-10.5451
▁ܢܗܝܪܐ	-10.5466
▁ܠܙܢܝ	-10.5488
ܪܛܘ	-10.549
▁ܐܦܝܗ	-10.5491
ܟܢܘܫܬܐ	-10.55
ܡܫܝܚܐ	-10.5501
▁ܘܕܚ	-10.5502
▁ܕܦܐ	-10.5503
▁ܕܒܬܪ	-10.5506
▁ܕܫܘܒܚ	-10.5514
▁ܐܓܝܪ	-10.5523
ܥܒܪ	-10.5525
ܬܬܒܥ	-10.5532
▁ܩܒܠܢ	-10.5556
ܤܗܕܘܬܐ	-10.5567
▁ܡܩ	-10.5574
▁ܠܡܚܤ	-10.5622
▁ܦܚ	-10.5623
ܤܝܦ	-10.5633
▁ܡܟܤ	-10.5636
ܠܡܗ	-10.5642
▁ܕܒܪܝ	-10.5648
▁ܠܡܦ	-10.5659
ܡܫܪܝܐ	-10.5661
▁ܬܫܒܘܚܬ	-10.5662
▁ܬܚܘܡ	-10.5664
▁ܐܘܪܚ	-10.569
▁ܝܩܝܪܐ	-10.5698
▁ܗܪܘܕ	-10.57
▁ܕܒܪܘܚ	-10.5704
▁ܕܫܠܝܚ	-10.572
▁ܡܪܓܢܝܬ	-10.573
ܬܘܩܠܬܐ	-10.5737
▁ܕܦܪܚ	-10.5738
▁ܦܪܝܫ	-10.5739
ܡܘܤ	-10.5743
▁ܒܬܚ	-10.5751
▁ܫܪܟ	-10.5755
▁ܘܢܪܡ	-10.5758
ܓܠܘܬܐ	-10.5784
▁ܕܢܟ	-10.5804
ܐܪܤܛ	-10.5804
▁ܡܨܥܪ	-10.5804
ܝܪܘܬܐ	-10.5816
ܓܕܐ	-10.5823
▁ܘܛܘܒ	-10.5824
ܢܐܬܐ	-10.5831
ܪܥܝܢܝ	-10.5838
ܬܒܘܢ	-10.5851
▁ܒܩܠ	-10.5862
▁ܘܒܘܪܟ	-10.5872
▁ܘܡܦܤ	-10.5882
▁ܘܕܪ	-10.5889
ܬܕܡܪܘ	-10.5895
ܒܥܘܢ	-10.5913
ܥܘܬܪ	-10.5926
ܬܠܡܝܕܘܗܝ	-10.5928
▁ܠܟܝܢ	-10.5946
ܡܡܠܠܐ	-10.5953
▁ܓܡܝܪ	-10.5956
ܚܤܪ	-10.5965
▁ܡܥܕܪܢ	-10.5973
ܪܡܝܘ	-10.5976
▁ܕܡܤܟ	-10.5995
ܢܤܝܡܘܢ	-10.6001
▁ܫܐܕ	-10.6005
▁ܘܢܚܬܘ	-10.6014
▁ܡܫܝܚ	-10.6023
▁ܕܓܡܝܪ	-10.6029
▁ܬܘܠܬ	-10.6039
ܘܤܛܪ	-10.6046
▁ܠܪܥܝ	-10.6051
▁ܘܛܫ	-10.6053
ܚܙܝܪܐ	-10.606
ܝܘܪܕܢܢ	-10.606
▁ܡܠܟܘ	-10.6063
ܪܤܐ	-10.6063
ܪܕܦ	-10.6063
ܢܫܕܪ	-10.6064
ܒܢܝܢܫܐ	-10.6067
▁ܘܐܫܬܡܥ	-10.6076
ܬܪܗܒ	-10.6078
ܤܒܪܘܢ	-10.6085
ܒܥܕܬܐ	-10.6092
▁ܡܤܬܟܠ	-10.6095
ܕܝܠܗ	-10.6111
ܩܪܝܬܐ	-10.6114
ܢܫܡܥܘܢ	-10.613
ܝܤܪܝܠ	-10.6135
▁ܢܓܕ	-10.6142
▁ܕܡܫܬܘ	-10.6143
▁ܠܥܤ	-10.6152
▁ܚܫܡܝܬ	-10.6169
▁ܐܥܡܕ	-10.617
▁ܕܛܝܒ	-10.618
▁ܕܡܗܠܟ	-10.6184
▁ܡܫܬܡܥ	-10.6185
ܢܤܗܕ	-10.6195
▁ܥܪܛܠܝ	-10.6204
ܟܪܘܙܘܬ	-10.6205
ܦܘܠܓ	-10.6206
ܢܟܤ	-10.621
ܬܐܠܕ	-10.6211
ܝܚܝܕܝ	-10.6212
ܚܦܝܛܘܬ	-10.6215
ܪܥܘܢ	-10.6219
ܒܥܓܠ	-10.6224
ܥܘܡܩ	-10.6224
▁ܩܪܢ	-10.6224
▁ܐܬܛܦܝܤ	-10.6225
ܝܒܐ	-10.6225
ܚܒܪܗ	-10.6229
▁ܡܬܗܦܟ	-10.6233
▁ܟܪܘܙ	-10.6235
▁ܘܕܥܡ	-10.6241
▁ܠܩܛ	-10.6252
ܗܝܟܠܗ	-10.6253
▁ܕܢܩܒܠ	-10.6253
▁ܠܚܤܝ	-10.6263
▁ܘܫܠܝ	-10.6267
ܢܨܪܬ	-10.6269
▁ܐܪܟܘ	-10.6273
ܐܢܛܝܘܟܝ	-10.6276
ܡܫܥܒܕ	-10.6281
▁ܘܢܥܒܕ	-10.6282
ܢܩܘܘܢ	-10.6283
▁ܢܦܫܬ	-10.629
▁ܘܬܫܬ	-10.6292
ܤܛܪܛܝܘܛܐ	-10.6293
▁ܟܢܘܫ	-10.6293
ܥܝܠܐ	-10.6294
ܒܫܡܗ	-10.6301
ܩܛܪܓ	-10.6302
ܚܝܠܘܬܐ	-10.6304
▁ܡܨܠܝ	-10.6313
▁ܐܬܗ	-10.6322
ܓܙܘܪ	-10.6325
▁ܕܢܩܝܡ	-10.6327
▁ܢܥܒܪܢ	-10.6329
ܬܚܒܠ	-10.6329
ܒܡܨܥܬ	-10.633
▁ܘܡܫܘ	-10.633
▁ܘܢܬܦ	-10.633
▁ܠܤܦ	-10.6332
▁ܡܓܕܠ	-10.6333
▁ܘܤܥܪ	-10.6334
▁ܐܤܛܪܛ	-10.6334
ܬܟܫܦ	-10.6335
ܒܦܫܝܛܘܬ	-10.6335
ܬܬܪܓܡ	-10.6335
▁ܕܐܤܛܦܢ	-10.6335
▁ܕܙܪܝܥ	-10.6335
▁ܕܦܩܝܕ	-10.6335
▁ܗܠܠܘܝܐ	-10.6335
▁ܙܩܘܦܝܗܝ	-10.6335
▁ܠܚܒܪܝܗܘܢ	-10.6335
▁ܠܡܦܕܝܗܝܢ	-10.6335
▁ܠܬܫܒܘܚܬܗ	-10.6335
▁ܡܫܬܒܚ	-10.6335
▁ܬܐܓܘܪܬܐ	-10.6335
▁ܒܤܘܥܪܢ	-10.6335
▁ܕܡܫܬܒܗܪ	-10.6335
▁ܚܒܘܫܝ	-10.6335
▁ܬܬܡܠܚ	-10.6335
▁ܐܝܙܓܕ	-10.6335
ܙܕܘܓ	-10.6335
▁ܒܬܠܬ	-10.6335
▁ܘܡܫܬܥ	-10.6335
▁ܛܥܡ	-10.6335
▁ܠܓܝܘܢ	-10.6335
▁ܒܚܨܘܗܝ	-10.6335
▁ܘܢܚܝܒܘܢ	-10.6335
▁ܚܒܫ	-10.6335
▁ܐܬܕܟܝ	-10.6335
▁ܘܝܕܝܥ	-10.6335
▁ܡܪܚܡܢܐ	-10.6335
ܦܘܠܝܤ	-10.6335
▁ܠܡܫܬܘܬܐ	-10.6335
ܢܨܥܪܘܢ	-10.6335
▁ܕܓܕܪܝܐ	-10.6335
▁ܘܥܪܛܠܝ	-10.6335
▁ܠܫܪܪܐ	-10.6335
▁ܕܢܬܢܛܪ	-10.6335
▁ܘܡܫܡܠܝ	-10.6335
▁ܒܐܪܒܥ	-10.6335
▁ܡܫܬܟܚ	-10.6335
▁ܐܡܠܟ	-10.6335
▁ܕܐܪܝܘܬܐ	-10.6335
▁ܐܚܪܢܝܐ	-10.6335
▁ܠܒܘܬܢ	-10.6335
ܨܘܚܝܬܐ	-10.6335
▁ܠܚܤܝܪܘܬ	-10.6335
▁ܪܚܒ	-10.6335
▁ܘܐܬܪܥܝ	-10.6335
▁ܐܤܦܪܝܕܝܢ	-10.6335
▁ܠܥܢܝܗܘܢ	-10.6335
▁ܡܥܩܡ	-10.6335
▁ܢܫܩܠܘܢ	-10.6335
▁ܡܨܒܬ	-10.6335
▁ܒܢܡܘܤܗ	-10.6335
▁ܠܩܕܡܝܐ	-10.6335
▁ܕܒܕܚܠܬ	-10.6335
▁ܕܡܤܗܕ	-10.6335
▁ܒܨܘܡܐ	-10.6335
▁ܘܐܬܬܢܝܚ	-10.6335
▁ܐܙܕܕܩ	-10.6335
▁ܕܢܩܦ	-10.6335
▁ܒܐܤܛ	-10.6335
▁ܐܘܒܕ	-10.6335
▁ܕܐܗܪܘܢ	-10.6335
ܒܤܥܪ	-10.6335
▁ܐܬܪܥܘ	-10.6335
ܩܘܠܤ	-10.6335
▁ܐܘܡܢܘܬܗ	-10.6335
▁ܬܪܥܗ	-10.6335
▁ܕܛܠܝܐ	-10.6336
▁ܐܤܗܕ	-10.6336
▁ܕܒܢܝܡܝܢ	-10.6336
▁ܢܒܤ	-10.6336
▁ܬܐܒܕ	-10.6336
▁ܙܘܙ	-10.6336
ܬܚܢܢܬ	-10.6336
▁ܒܫܘܠܡ	-10.6336
▁ܫܡܘܥ	-10.6336
▁ܕܛܢܢ	-10.6336
▁ܘܛܢܢ	-10.6336
▁ܕܒܒܝܬܗ	-10.6336
▁ܚܬܝܪ	-10.6336
▁ܘܟܦܢ	-10.6336
▁ܡܥܒܕܢ	-10.6337
▁ܐܤܬܒܪ	-10.6337
ܬܚܠܛ	-10.6337
ܢܬܬܢܝܚ	-10.6337
▁ܢܦܪܫ	-10.6337
▁ܕܬܩܒܠܘܢ	-10.6337
▁ܠܡܫܠܡܘ	-10.6337
▁ܠܒܥܠܝܗܝܢ	-10.6337
▁ܟܢܘܬܗ	-10.6338
▁ܡܫܠܛ	-10.6338
▁ܤܟܠܘܬܟܘܢ	-10.6338
ܓܝܘܪܐ	-10.6338
ܬܚܪܪ	-10.6339
▁ܤܕܩ	-10.6339
▁ܕܚܡܫ	-10.6339
▁ܢܬܬܪܝܡ	-10.6339
▁ܕܕܡܗ	-10.634
ܬܪܘܨ	-10.634
▁ܢܬܚܠܦ	-10.634
▁ܢܐܩܪ	-10.634
ܡܬܐܠܨܝܢ	-10.634
▁ܘܐܫܘ	-10.634
▁ܕܙܢܝܘܬܗ	-10.634
▁ܡܫܪܝܬܐ	-10.634
ܢܤܬܠܐ	-10.634
▁ܘܒܐܟܐܝܐ	-10.634
▁ܠܡܐܤܝܘ	-10.634
▁ܢܚܕܘܢ	-10.6341
ܬܒܠܥ	-10.6341
▁ܐܫܩܝ	-10.6341
▁ܕܠܒܢܝܢܫܐ	-10.6341
▁ܢܐܪܬ	-10.6341
▁ܩܪܩܦܬܗ	-10.6342
▁ܬܘܠܡܝ	-10.6342
ܬܪܥܘܬܐ	-10.6342
ܡܬܬܢܝܚ	-10.6342
▁ܕܢܬܩܢ	-10.6342
▁ܐܤܒܪ	-10.6342
▁ܕܢܩܝܡܝܘܗܝ	-10.6343
▁ܐܘܩܝܢ	-10.6343
ܢܬܝܠܕ	-10.6344
▁ܕܢܟܪܙ	-10.6344
▁ܢܬܡܟܟ	-10.6344
▁ܕܬܐܡܪܘܢ	-10.6344
ܤܬܪܩ	-10.6344
▁ܘܪܘܪܒܢ	-10.6345
▁ܕܐܤܝܘܬܐ	-10.6345
▁ܕܠܫܢܐ	-10.6346
▁ܘܝܠܦ	-10.6346
▁ܫܡܘܢܐ	-10.6346
▁ܪܝܚ	-10.6347
▁ܐܬܕܟܐ	-10.6347
▁ܡܬܬܢܚ	-10.6347
▁ܢܕܚܠ	-10.6347
ܪܘܫܥ	-10.6347
▁ܘܐܤܬܠ	-10.6347
▁ܓܙܝܪ	-10.6348
▁ܡܬܚܦܛ	-10.6348
▁ܬܬܕܡܪܘܢ	-10.6348
▁ܡܟܬܪ	-10.6348
▁ܗܝܡܢܬܘܢܝܗܝ	-10.6349
ܡܬܟܫܠܝܢ	-10.6349
▁ܨܒܥܬ	-10.635
ܤܟܪܘ	-10.635
▁ܕܚܕܪܝܗܘܢ	-10.635
▁ܕܡܤܢܘܗܝ	-10.635
▁ܠܪܚܡ	-10.6351
▁ܢܬܦܢ	-10.6351
▁ܢܫܘܛ	-10.6351
▁ܪܓܡ	-10.6352
▁ܢܩܝܡ	-10.6352
▁ܘܢܩܘܡ	-10.6352
▁ܫܩܘܠܝܗܝ	-10.6352
▁ܘܡܨܠܐ	-10.6353
▁ܒܟܤܦ	-10.6354
▁ܒܟܦܪܢܚܘܡ	-10.6354
ܬܬܥܝܩ	-10.6354
▁ܛܠܢܝܬ	-10.6354
▁ܐܨܛܪܝ	-10.6354
▁ܒܡܘܗܒܬ	-10.6354
▁ܛܘܠܫܐ	-10.6354
▁ܒܛܒܬܐ	-10.6355
▁ܠܡܦܬܚ	-10.6355
ܬܫܢܝܩܐ	-10.6356
▁ܡܕܓܠ	-10.6356
▁ܚܘܘܬܐ	-10.6357
▁ܐܤܦܘ	-10.6357
▁ܒܪܫܗ	-10.6358
▁ܒܨܠܘܬܝ	-10.6358
▁ܘܠܐܚܘܗܝ	-10.6359
▁ܕܫܡܫܐ	-10.6359
▁ܘܐܬܚܝܠ	-10.6359
▁ܠܡܠܥܤ	-10.6359
▁ܪܡܝܐ	-10.6359
▁ܘܛܥܡ	-10.6359
ܡܩܛܪܓܝܢ	-10.6359
▁ܘܒܫܪܪܐ	-10.636
▁ܘܐܟܠܬܗ	-10.636
▁ܕܐܠܗܗ	-10.636
▁ܘܕܨܝܕܢ	-10.6361
▁ܢܦܬܚ	-10.6361
▁ܠܪܗܘܡܝ	-10.6361
▁ܘܬܚܐ	-10.6362
▁ܢܪܓ	-10.6362
▁ܒܫܢܬ	-10.6362
▁ܫܒܩܬܢܝ	-10.6365
▁ܐܫܬܕܪܬ	-10.6366
▁ܘܢܘܕܐ	-10.6367
▁ܘܝܩܕ	-10.6367
▁ܛܠܝܘܬܝ	-10.6367
▁ܪܫܝܗܘܢ	-10.637
ܬܠܒܫܘܢ	-10.6371
▁ܕܒܐܓܪ	-10.6371
▁ܘܠܕܝܬܒ	-10.6371
▁ܘܪܛܢ	-10.6372
▁ܛܥܢ	-10.6372
▁ܕܢܩܛܘܠ	-10.6373
▁ܘܒܒܥ	-10.6373
ܢܬܕܝܢܘܢ	-10.6374
▁ܬܗܝܪ	-10.6376
▁ܕܡܤܟܠ	-10.6376
▁ܘܢܫܩܗ	-10.6377
▁ܬܦ	-10.6377
▁ܒܠܒܘܬܟܘܢ	-10.6379
▁ܘܒܨܠܘܬܐ	-10.6379
▁ܒܤܓܝܐܬܐ	-10.6381
▁ܥܪܘܩ	-10.6381
▁ܠܡܕܝܢܬܗ	-10.6381
ܫܝܚ	-10.6382
▁ܐܤܟܡ	-10.6384
▁ܪܓܠܟ	-10.6385
ܬܡܠܠܘܢ	-10.6386
▁ܘܐܥܠ	-10.6386
▁ܕܡܦܩܕ	-10.6386
▁ܚܐܪܬܐ	-10.6386
▁ܡܬܦܠܓ	-10.6386
▁ܘܠܩܫܝܫ	-10.6386
▁ܓܪܡ	-10.6387
▁ܕܒܒܠ	-10.6387
▁ܬܕܥ	-10.6387
▁ܐܙܕܒܢ	-10.6388
▁ܩܝܛ	-10.6388
▁ܡܒܕܪ	-10.6389
▁ܫܝܦܘܪܐ	-10.6389
▁ܓܢܤ	-10.639
▁ܫܟܒ	-10.639
▁ܐܫܬܪܪܬ	-10.639
▁ܕܥܓܠ	-10.639
▁ܐܬܚܝܠ	-10.6391
ܤܘܟܝܗ	-10.6391
▁ܘܡܬܝܗܒ	-10.6393
ܢܕܒ	-10.6393
▁ܬܐܙܠܘܢ	-10.6395
▁ܕܢܫܠܡܘܢ	-10.6395
ܛܢܘ	-10.6395
▁ܕܐܫܬܠܡ	-10.6395
▁ܕܡܦܩ	-10.6396
ܒܨܪܬ	-10.6396
▁ܟܢܫܗܘܢ	-10.6397
▁ܛܒܥܘܗܝ	-10.6399
ܠܒܘܬܟܘܢ	-10.64
ܬܚܙܝܢ	-10.64
ܒܬܪܟܢ	-10.6401
▁ܕܘܟܝ	-10.6401
▁ܕܙܚܘܪܝܬܐ	-10.6402
▁ܐܚܙܝܟܘܢ	-10.6402
▁ܠܥܩܪ	-10.6402
▁ܕܡܡܬ	-10.6402
▁ܕܐܓܪܬ	-10.6402
▁ܘܡܚܪ	-10.6403
▁ܕܐܟܤܢܝܐ	-10.6403
▁ܕܡܝܩܪ	-10.6405
▁ܡܩܕܡ	-10.6406
▁ܡܬܩܪ	-10.6406
ܫܩܝܦܐ	-10.6407
▁ܕܚܐܝܢ	-10.6408
▁ܓܠܝܬ	-10.6408
▁ܘܒܩܘܪܝܐ	-10.6409
▁ܒܥܕ	-10.641
ܪܘܡܐ	-10.6411
▁ܕܢܫܬܥܒܕ	-10.6412
ܒܝܡܐ	-10.6412
ܡܠܟܘ	-10.6414
▁ܘܬܫܡܫܬ	-10.6414
ܪܘܪܐ	-10.6414
ܤܛܐ	-10.6414
▁ܬܫܐܠܘܢ	-10.6415
▁ܢܫܪܐ	-10.6416
▁ܒܓܙܘܪܬܐ	-10.6416
▁ܒܐܫܬ	-10.6416
▁ܘܠܥܒܕ	-10.6417
▁ܢܫܡܫ	-10.642
▁ܫܛܝܘܬܐ	-10.642
▁ܘܢܥܒܕܘܢ	-10.6421
▁ܢܫܡܫܘܢ	-10.6421
▁ܘܢܫܒܚ	-10.6421
ܦܫܝܓ	-10.6422
▁ܩܘܦܪܘܤ	-10.6424
▁ܒܪܒܪܝܐ	-10.6424
▁ܬܛܪ	-10.643
▁ܪܢܝ	-10.6431
▁ܠܬܪܥܐ	-10.6431
ܢܚܘܪ	-10.6431
▁ܠܚܨܕ	-10.6433
▁ܠܪܓܝܓܬܐ	-10.6435
▁ܕܦܪܫ	-10.6436
ܥܬܪܘ	-10.6439
▁ܕܐܫܕܪ	-10.6441
▁ܦܪܨܘܦܟ	-10.6443
▁ܕܐܝܤܪܐܝܠ	-10.6444
ܩܘܒܠ	-10.6445
▁ܒܬܢ	-10.6445
▁ܡܬܛܦܝܤܢܘܬܐ	-10.6446
▁ܦܘܪܫܢܐ	-10.6447
▁ܡܚܪܪ	-10.6447
▁ܘܟܠܝܠ	-10.6447
▁ܕܢܗܦ	-10.6448
▁ܥܪܘܩܘ	-10.6449
▁ܦܪܬܘ	-10.645
ܥܤܩܐ	-10.6453
▁ܕܬܬܡܠܐ	-10.6454
▁ܫܕܪܢܝ	-10.6454
▁ܘܡܛܝܒ	-10.6455
▁ܕܩܫܝܫܐ	-10.6457
▁ܘܐܓܪ	-10.6457
▁ܐܥܝܪ	-10.6458
▁ܝܚܝܕܝ	-10.6459
ܤܬܟܠܘ	-10.646
▁ܘܐܒܕ	-10.646
▁ܗܝܟܠܗ	-10.6461
▁ܠܝܘܦܐ	-10.6463
▁ܡܟܝܟܬܐ	-10.6468
▁ܘܐܚܬ	-10.6469
▁ܪܩ	-10.6469
▁ܒܝܢܬ	-10.647
▁ܕܡܒܝܐ	-10.647
ܒܝܗܝ	-10.6471
▁ܒܐܤܝܐ	-10.6471
ܒܐܤܝܐ	-10.6475
▁ܡܫܬܘܕܥܝܢ	-10.6476
▁ܛܪܘ	-10.6477
▁ܕܝܘܤܦ	-10.6478
▁ܝܒܫܬ	-10.6479
▁ܢܓܗ	-10.6479
▁ܝܠܦܬ	-10.6482
▁ܬܩܘܡܘܢ	-10.6483
▁ܕܠܒܐ	-10.6484
▁ܦܘܢܝ	-10.6484
▁ܕܢܫܬܡ	-10.6487
▁ܕܐܦܩ	-10.6489
▁ܕܬܐܠܕ	-10.649
▁ܕܢܤܗܕ	-10.649
▁ܡܬܪܤ	-10.649
▁ܕܡܗܠܟܝܢ	-10.6492
▁ܓܡܝܪܝܢ	-10.6493
ܓܕܦܘ	-10.6493
▁ܕܓܦ	-10.6493
ܐܩܝܡܝܘܗܝ	-10.6494
▁ܕܚܙܝܪܐ	-10.6495
▁ܦܘܠܚܢܐ	-10.6495
▁ܠܘܩܒܠܗܘܢ	-10.6498
▁ܒܬܘܕܝܬܐ	-10.6498
▁ܘܚܝܠܘܬܐ	-10.6498
ܦܗ	-10.6499
▁ܤܡܟ	-10.6499
▁ܪܫܡ	-10.6499
▁ܨܗܝ	-10.6499
▁ܐܫܬܥܒܕܘ	-10.6501
▁ܒܡܘܠܟܢܐ	-10.6502
▁ܕܛܥܝܢ	-10.6503
▁ܫܒܠܐ	-10.6506
▁ܐܩܠܘ	-10.6508
▁ܡܬܪܕܦ	-10.6513
▁ܘܬܩܢܬ	-10.6514
▁ܐܬܕܡܝܬ	-10.6514
▁ܐܬܟܪܟܘ	-10.6514
ܗܝܡܢܘܬܟ	-10.6515
▁ܕܢܟܦܘܪ	-10.6517
ܡܦܪܥ	-10.6519
▁ܐܪܡܝܬ	-10.6519
▁ܤܗܕܘܗܝ	-10.6521
▁ܕܡܬܒܥ	-10.6525
▁ܐܓܪܗܘܢ	-10.6528
ܫܘܩܪܐ	-10.6529
▁ܡܬܐܡܪ	-10.6532
ܘܠܬܐ	-10.6538
▁ܕܢܩܪܘܢ	-10.6542
▁ܢܓܢ	-10.6545
▁ܘܢܤ	-10.6547
▁ܕܛܒܬܐ	-10.655
▁ܒܥܙ	-10.6552
▁ܐܠܗܢ	-10.6553
ܚܡܐ	-10.6554
▁ܘܦܠ	-10.6565
▁ܒܥܘܠܐ	-10.657
▁ܒܕܡܝ	-10.6577
▁ܩܕܫ	-10.6577
▁ܘܠܒܝܬ	-10.6578
▁ܟܘܬܝܢܝܢ	-10.6579
▁ܕܚܨܕ	-10.658
ܐܤܘܢ	-10.6581
▁ܠܡܥܡܕ	-10.6583
▁ܕܐܚܘܟ	-10.6585
ܫܘܛ	-10.6585
▁ܦܝܤ	-10.6586
▁ܘܥܡܕ	-10.6586
▁ܩܛܠܬ	-10.6587
▁ܙܟܘ	-10.6591
▁ܡܨܚ	-10.6595
▁ܢܕܘܢ	-10.6597
▁ܕܫܠܝܛ	-10.66
▁ܕܬܫܪ	-10.6603
▁ܕܪܓܠ	-10.6606
ܩܕܝ	-10.6609
ܪܓܝܓܬܗ	-10.6611
▁ܒܪܒܘܬ	-10.6614
ܠܝܬܐ	-10.6618
▁ܨܠܘܬܟ	-10.6619
ܥܙܪ	-10.662
▁ܟܢܬ	-10.6621
▁ܘܐܤܝܗ	-10.6622
▁ܐܬܓܒ	-10.6622
▁ܕܛܘܪܐ	-10.6623
▁ܘܡܙܒܢܝܢ	-10.6627
▁ܢܟܦܢ	-10.6628
▁ܕܓܠܘܬܐ	-10.663
ܡܬܪܓܪܓ	-10.6638
▁ܘܐܬܓܠܝ	-10.664
▁ܠܒܝܫܬܐ	-10.6641
▁ܢܤܒܘܗ	-10.6644
▁ܕܢܩܘܘܢ	-10.6647
▁ܡܤܝܒܪܢܘ	-10.6649
▁ܡܬܕܟ	-10.6657
▁ܢܗܦ	-10.6658
▁ܡܪܟܘܢ	-10.666
ܟܘܪܤܝܗ	-10.666
ܪܗܒܘ	-10.6662
▁ܘܒܝܫܐ	-10.6669
▁ܕܬܒܥ	-10.6669
▁ܕܒܛܠ	-10.6673
▁ܠܢܦܫ	-10.6674
▁ܠܚܘ	-10.6674
▁ܪܓܠܝܟܘܢ	-10.6676
▁ܡܡܠ	-10.6676
▁ܫܒܝܠ	-10.6678
▁ܘܪܕܘ	-10.6679
ܤܓܝܐܬܐ	-10.668
ܚܙܐ	-10.6681
▁ܐܤܘܪ	-10.669
▁ܩܕ	-10.6695
▁ܘܟܘܪܗܢ	-10.6695
▁ܕܨܒܝܢܗ	-10.6698
▁ܡܚܘܬܗ	-10.6702
▁ܘܙܕܝܩܘܬ	-10.6706
ܠܒܟ	-10.671
▁ܠܡܪܥ	-10.6713
▁ܐܒܗܬܐ	-10.6715
ܡܛܝܢ	-10.6722
▁ܚܙܝܬܘܢ	-10.6727
ܓܒܝܢ	-10.6738
▁ܙܟܐ	-10.6738
▁ܕܐܪܡ	-10.6749
ܒܬܪܝ	-10.6749
▁ܘܡܗܠܟܝܢ	-10.6751
▁ܐܚܘܢ	-10.6752
▁ܕܢܦܩܘ	-10.6759
▁ܐܫܬܪ	-10.6759
▁ܕܡܚܝܢ	-10.676
▁ܕܒܥܝ	-10.6763
▁ܘܫܒܩܘ	-10.6774
▁ܘܢܦܫܗ	-10.6779
▁ܕܛܡܐ	-10.6784
▁ܕܢܫܡܥܘܢ	-10.6788
▁ܕܢܦܩܬ	-10.6789
▁ܘܕܬܠܬ	-10.6792
▁ܐܦܦܪ	-10.6795
▁ܘܒܙܒܢ	-10.6797
▁ܘܐܟܠܝܢ	-10.6807
ܢܘܟ	-10.6811
▁ܐܬܝܬܪ	-10.6814
ܦܤܘ	-10.682
ܢܚܫܘܒ	-10.6826
ܟܤܝܬ	-10.6829
▁ܕܡܟܘ	-10.683
▁ܕܡܛܥ	-10.683
▁ܝܨܦܝܢ	-10.686
ܢܬܟܬܒ	-10.6862
▁ܘܓܕ	-10.6863
▁ܗܝܡܢܢ	-10.6867
▁ܕܕܒܪ	-10.6871
▁ܐܓ	-10.6872
▁ܕܒܤ	-10.6874
ܕܐܝܟ	-10.6876
▁ܝܘܠܦܢܗ	-10.6878
▁ܬܗܪ	-10.6884
▁ܕܡܙ	-10.6886
ܐܩܝܡܗ	-10.6901
▁ܘܡܠܦܢ	-10.6915
▁ܕܥܡܗܘܢ	-10.6918
ܡܡܘܢܐ	-10.6924
▁ܐܪܤܛ	-10.6926
▁ܡܬܕܝܢܝܢ	-10.6934
▁ܫܬܝܢ	-10.6938
ܬܪܒܝܬ	-10.6938
▁ܕܬܠܬܝܢ	-10.6943
▁ܫܘܝܐ	-10.6943
▁ܚܕܥܤܪ	-10.6944
▁ܒܕܪܬ	-10.6956
ܢܫܒܘܩ	-10.696
▁ܫܫܠ	-10.6963
▁ܘܟܐܒ	-10.6968
▁ܡܤܠܝ	-10.6971
ܚܤܝܪܝ	-10.6974
▁ܘܡܝܬܘ	-10.6984
▁ܘܢܚܘ	-10.6985
▁ܢܐܙܠܘܢ	-10.6985
▁ܡܗܝܡܢܬܐ	-10.6987
▁ܟܦܪܝܢ	-10.6993
▁ܘܡܘܪ	-10.6996
ܕܗܒ	-10.6996
▁ܡܬܩܪܝ	-10.6997
▁ܕܢܚܘܢ	-10.703
▁ܒܚܪܒ	-10.7045
▁ܚܛܝܬܗ	-10.7045
▁ܒܚܝܠ	-10.7046
▁ܠܓܒ	-10.707
▁ܢܒܝ	-10.7079
ܢܦܠܘܚ	-10.7082
ܤܤ	-10.7084
ܕܒܚ	-10.7091
▁ܘܠܐܡܪܐ	-10.7097
ܗܪܟܐ	-10.71
▁ܚܨܝ	-10.7105
▁ܕܩܨ	-10.7108
▁ܫܒܝ	-10.711
ܚܘܪܒܐ	-10.7119
ܫܘܝܘܬܐ	-10.7121
▁ܕܢܟܤ	-10.7127
▁ܠܟܬܒܘ	-10.713
ܦܪܬ	-10.714
ܫܒܚܬ	-10.7143
▁ܘܐܟܪܙ	-10.7156
▁ܥܕܠܝ	-10.7157
ܡܫܒܚܝܢ	-10.7161
▁ܘܚܐܪ	-10.7161
ܡܦܫܩ	-10.7172
ܡܠܦܢܐ	-10.7174
▁ܟܪܤܗ	-10.7177
▁ܘܐܬܩܪܒ	-10.7179
▁ܕܢܒܝ	-10.7201
▁ܘܡܤܝܒܪܢܘܬ	-10.7213
▁ܘܐܚܒ	-10.7233
ܚܕܘܬܟܘܢ	-10.7242
▁ܚܤܝܪܘܬ	-10.7256
ܤܪܝܩܘܬܐ	-10.7282
▁ܕܒܫ	-10.7294
▁ܘܛܝܒܘ	-10.731
▁ܒܢܝܟܝ	-10.7324
ܡܓܕܦܝܢ	-10.7342
ܬܘܠܥ	-10.7358
▁ܘܒܤܝܡ	-10.7363
▁ܠܡܥ	-10.7364
ܓܡܪܬ	-10.7364
ܠܝܘܤ	-10.7366
▁ܘܥܒܕܝܢ	-10.7374
ܒܡܕܡ	-10.7379
▁ܕܙܟ	-10.7386
▁ܠܡܟ	-10.7408
ܠܟܠܢܫ	-10.7412
▁ܒܗܕܡܝ	-10.7426
▁ܩܒܘ	-10.7441
▁ܚܫܚܬ	-10.7445
▁ܡܦܝܤܝܢ	-10.7453
ܓܡܝܪܘܬܐ	-10.7454
▁ܘܢܦܫ	-10.7455
ܤܢܝܢ	-10.7463
▁ܐܬܐܤܝ	-10.7469
▁ܬܐܡ	-10.7469
▁ܓܒܝܬ	-10.7477
ܝܘܤܦ	-10.7483
ܡܟܢܫ	-10.7499
ܬܡܠܟ	-10.7504
ܬܕܟܝܬܐ	-10.7509
▁ܬܘܩܠ	-10.7514
▁ܕܠܡ	-10.7525
▁ܐܫܬܟܚܬ	-10.7526
▁ܢܩܥ	-10.7533
ܒܟܠܡܕܡ	-10.7533
ܡܬܬܘܤܦ	-10.7549
▁ܡܚܘܝ	-10.7553
ܬܦܪܥ	-10.7566
▁ܠܙܕܝܩܘ	-10.7582
ܢܠܦ	-10.759
▁ܘܒܥܠܕܒܒ	-10.7607
ܬܗܪܘ	-10.7615
ܬܫܡܫܬܗ	-10.7649
▁ܬܦܩ	-10.7673
▁ܡܤܬ	-10.7682
ܝܒܫܐ	-10.7712
▁ܘܬܘ	-10.7713
▁ܡܥܪ	-10.7723
ܩܥܐ	-10.7731
▁ܠܕܘܟܬܗ	-10.7743
▁ܪܚܝܩܝܢ	-10.775
ܤܝܢܝ	-10.7751
ܒܫܗ	-10.7769
▁ܠܒܢܝܢ	-10.7772
▁ܕܝܕܥܬܘܢ	-10.7774
ܡܟܝܟܐ	-10.7781
▁ܦܘܡܟ	-10.7792
▁ܡܬܕܡ	-10.7804
ܢܬܟ	-10.7808
▁ܕܢܝܬܘܢ	-10.781
ܢܬܟܪܙ	-10.7815
▁ܫܠܝܢ	-10.7823
▁ܘܠܪܘܚ	-10.7829
▁ܘܐܒܗܬ	-10.7844
▁ܠܥܡܝ	-10.7866
▁ܕܪܡܝ	-10.7877
▁ܘܕܩ	-10.7878
▁ܐܬܒܤܡ	-10.7898
▁ܘܠܝܬܝܗ	-10.791
▁ܘܥܡܪ	-10.7937
ܢܦܨܝܢ	-10.7939
ܡܩܘܐ	-10.7942
▁ܡܬܦܪ	-10.7964
▁ܘܠܡܚ	-10.799
▁ܗܠܟܬ	-10.8002
ܒܫܥܬܐ	-10.8004
▁ܘܥܠܘܒ	-10.802
▁ܘܓܝܪ	-10.803
▁ܘܩܝܡ	-10.8035
▁ܠܢܦܫܬ	-10.8091
▁ܚܪܘ	-10.8099
▁ܗܦܟܬ	-10.8128
▁ܘܚܒܝܒ	-10.8138
▁ܘܡܟܝܟ	-10.8153
▁ܩܝܬܪ	-10.8163
▁ܕܚܘܝ	-10.8188
▁ܢܦܫܬܗ	-10.8189
ܒܝܫܘܬܐ	-10.821
ܘܡܝܐ	-10.8223
ܡܠܟܘܬܟ	-10.8223
▁ܡܕܝܢܬܗ	-10.8225
ܙܒܠ	-10.8229
▁ܕܒܡܠ	-10.8236
ܒܥܠܕܒܒܝܟܘܢ	-10.8256
ܙܢܐ	-10.8268
ܦܪܘܓܝ	-10.8272
ܡܒܙܚ	-10.8315
ܟܪܝܗܘܬ	-10.8316
ܬܢܒܝܘ	-10.8326
▁ܒܫܪܒܬ	-10.8327
ܢܚܨܘܕ	-10.8337
▁ܘܒܕܡ	-10.8349
ܕܟܪ	-10.8355
ܢܟܦܘܪ	-10.8367
ܢܥܘܠ	-10.8396
ܥܒܝ	-10.8398
▁ܕܬܐܒ	-10.8423
ܫܒܘܩ	-10.8443
▁ܢܐܚܕܘܢ	-10.8444
▁ܒܡܤܝܒܪܢܘܬ	-10.8446
▁ܕܟܪܝ	-10.8448
▁ܘܐܚܝܟ	-10.8457
▁ܚܤܪ	-10.8481
ܦܫܩ	-10.8521
▁ܩܘܪ	-10.8524
ܝܠܦܬܘܢ	-10.8532
▁ܐܤܬ	-10.8548
ܪܡܝܢ	-10.8571
ܐܤܪܘܢ	-10.858
▁ܘܢܤܝܡ	-10.8596
▁ܕܨܒܝ	-10.8597
▁ܘܒܦ	-10.8605
ܢܦܫܬܟܘܢ	-10.8609
ܢܐܟܠܘܢ	-10.861
ܬܬܘܤܦ	-10.8618
▁ܩܫܝ	-10.8642
ܙܥܘܪܐ	-10.8664
▁ܢܓܘ	-10.8691
ܘܕܝܘܤ	-10.8699
▁ܒܩܢܝ	-10.8707
▁ܐܬܢܒ	-10.8732
ܬܤܒܘܢ	-10.8735
▁ܠܦܘܡ	-10.8793
ܘܕܝܘ	-10.8795
▁ܐܟܘܬ	-10.8804
▁ܓܙ	-10.8809
ܡܛܪ	-10.8816
ܐܬܩܛܠ	-10.8826
▁ܘܨܠ	-10.8827
▁ܩܫ	-10.8836
▁ܡܤܟ	-10.8845
▁ܕܚܤܝܪ	-10.8846
ܡܫܬܘܬܦ	-10.8851
ܬܪܥܝܬ	-10.8865
ܡܬܒܤܡ	-10.8869
ܐܘܪܚܗ	-10.8877
▁ܘܟܤܝ	-10.888
▁ܘܓܠܝ	-10.8881
▁ܘܫܪܝܪ	-10.8892
ܡܤܝܒܪܢܘܬܐ	-10.8906
▁ܬܕܡܪܬ	-10.8908
▁ܫܪܒ	-10.8909
▁ܠܕܪ	-10.891
▁ܦܫ	-10.8912
▁ܘܙܩ	-10.8912
▁ܘܢܗܝܡܢ	-10.8913
ܪܢܝܢ	-10.8914
ܠܦܘܢ	-10.8916
ܠܫܢܗ	-10.8925
ܕܒܪܐ	-10.8935
ܪܕܦܝܢ	-10.8975
▁ܫܘܒܚ	-10.8979
ܩܒܪ	-10.8984
▁ܕܢܨ	-10.8986
ܬܒܝܐܘܢ	-10.8996
ܓܢܬ	-10.9001
▁ܟܝܢܗ	-10.9006
ܐܝܕܗ	-10.9008
▁ܝܘܬܪܢ	-10.9022
ܠܡܘܬܐ	-10.9025
ܡܘܬܘܢ	-10.9036
▁ܫܘܒܩܢ	-10.9036
▁ܕܫܐܕ	-10.9042
▁ܒܕܚܠܬ	-10.9053
▁ܐܟܚܕ	-10.9063
ܥܡܕ	-10.9067
▁ܥܪܒܝ	-10.9071
ܕܪܝܘܗܝ	-10.908
▁ܚܒܠ	-10.9081
▁ܫܠܝܚ	-10.9093
▁ܕܢܬܓܠ	-10.91
▁ܕܤܒܪܬ	-10.911
▁ܗܟܢ	-10.9119
▁ܦܬܓܡ	-10.9138
ܤܦܘܬܗ	-10.9139
▁ܕܐܚܫܡ	-10.9142
▁ܕܐܤܠܝܘ	-10.9153
▁ܘܒܠܥ	-10.9161
▁ܡܠܟܘܬ	-10.9173
ܐܕܢܝܟܘܢ	-10.9198
ܚܕܥܤܪ	-10.9208
ܡܦܩ	-10.9209
ܕܚܠ	-10.9226
▁ܘܫܡ	-10.9229
ܠܬܢܝܢ	-10.924
ܫܬܒܗܪܘ	-10.9279
▁ܠܡܘܒܕܘ	-10.9288
ܡܤܬܟܠ	-10.9288
ܚܪܒܐ	-10.9315
▁ܫܛ	-10.9357
▁ܐܬܕܡ	-10.9365
ܕܒܫܐ	-10.9366
ܐܘܢܓܠܝܘܢ	-10.9371
ܠܒܘܫܗ	-10.9387
ܦܪܩ	-10.9396
ܐܬܓܠܝ	-10.94
▁ܘܝܠܕ	-10.9403
ܚܫܒܬ	-10.9408
ܦܬܟܪܐ	-10.941
ܢܘܒܕ	-10.9412
ܕܐܠܗܐ	-10.9414
ܦܪܘܩ	-10.9418
▁ܘܬܚܙܘܢ	-10.9432
▁ܒܝܕܥܬ	-10.9437
ܨܘܪ	-10.9438
▁ܘܐܫܬܘܕܥܘ	-10.9438
▁ܘܬܩܢ	-10.9445
▁ܒܕܘܟ	-10.9446
ܡܫܬܐܠ	-10.9457
ܫܪܝܗ	-10.9467
▁ܘܤܗ	-10.948
ܬܦܬܚ	-10.9481
▁ܒܬܐܪܬ	-10.9484
▁ܡܬܩܪܒ	-10.9502
ܐܠܟܤܢܕܪ	-10.9503
ܘܪܒ	-10.9512
▁ܡܬܛܦܝܤ	-10.9514
ܥܨܝܢ	-10.9517
ܐܝܤܪܐܝܠ	-10.9519
ܡܠܟܝܙܕܩ	-10.9524
ܦܝܠܛܘܤ	-10.9529
▁ܡܤܝܒܪ	-10.9537
ܐܤܛܦܢܘܤ	-10.9539
ܠܨܠܡܗ	-10.954
ܩܘܦܪܘܤ	-10.9545
ܢܤܬܟܠܘܢ	-10.9546
▁ܢܕܘ	-10.9547
ܡܬܟܬܫ	-10.9549
ܒܪܒܪܝܐ	-10.9552
▁ܕܐܙܕ	-10.9554
ܬܪܬܥܤܪܐ	-10.9555
ܐܟܠܩܪܨܐ	-10.9557
ܒܛܝܠ	-10.9557
ܢܐܒܕ	-10.9558
ܒܘܟܪܐ	-10.9558
▁ܐܫܬܘܕܥ	-10.9559
ܡܫܬܡܥܝܢ	-10.9559
ܪܚܝܩ	-10.9561
▁ܕܠܩܘܒܠ	-10.9561
ܒܠܫܢܐ	-10.9562
ܥܡܕܘ	-10.957
ܡܕܝܢܬܗܘܢ	-10.9576
▁ܡܩܘܝ	-10.9578
ܩܕܡܝܬܐ	-10.9584
▁ܬܐܙܠ	-10.9585
▁ܕܡܙܕ	-10.9591
ܒܬܘܠܬ	-10.9598
▁ܘܢܩܒ	-10.9602
▁ܡܬܪܕ	-10.961
▁ܘܐܫܬܥ	-10.9611
▁ܕܢܫܠܡ	-10.9612
▁ܫܡܪܝ	-10.9616
ܝܚܘܬܐ	-10.9616
ܡܬܕܒܪ	-10.9617
▁ܛܠܝܘܬ	-10.9623
ܠܓܝܢ	-10.9631
▁ܘܢܬܒ	-10.9633
ܒܚܝܠܐ	-10.9634
ܓܪܒܐ	-10.9636
▁ܘܪܚ	-10.9636
▁ܒܐܕܢܝ	-10.964
▁ܬܥܠ	-10.9656
▁ܠܡܩܒܠܘ	-10.9659
▁ܘܡܤܒ	-10.9661
▁ܕܢܫܐܠܘܢ	-10.9661
▁ܙܗܝܪ	-10.9661
▁ܐܒܪܗ	-10.9664
▁ܠܡܫܐܠ	-10.9665
▁ܒܡܤܒ	-10.9666
▁ܠܢܝܚܬ	-10.9666
▁ܠܚܫ	-10.9667
ܤܟܘܠܬܢܐ	-10.9668
ܦܢܛܩܘܤܛܐ	-10.9668
ܬܬܠܡܕ	-10.9668
▁ܒܒܪܢܫܐ	-10.9668
▁ܒܫܘܘܕܥ	-10.9668
▁ܕܤܘܥܪܢ	-10.9668
▁ܕܥܪܛܠܝ	-10.9668
▁ܕܦܬܝܚ	-10.9668
▁ܕܬܐܚܕܘܢܢܝ	-10.9668
▁ܘܚܢܩܘܗܝ	-10.9668
▁ܘܡܘܗܒܬ	-10.9668
▁ܘܡܫܬܒܗܪ	-10.9668
▁ܚܛܗܘܗܝ	-10.9668
▁ܠܐܝܛܠܝܐ	-10.9668
▁ܠܡܤܥܪ	-10.9668
▁ܢܬܬܤܝܡ	-10.9668
▁ܤܠܡܘܢ	-10.9668
ܙܘܪܒܒܠ	-10.9668
ܥܘܩܤܐ	-10.9668
ܩܪܩܘܪܐ	-10.9668
▁ܘܐܙܕܕܩܬ	-10.9668
▁ܘܡܫܬܥܒܕ	-10.9668
▁ܘܬܫܒܘܚܬܗ	-10.9668
▁ܛܝܡܝ	-10.9668
▁ܝܨܝܦ	-10.9668
▁ܠܤܘܚܦ	-10.9668
▁ܚܒܢܢ	-10.9668
▁ܟܪܤܛܝܢܐ	-10.9668
▁ܠܓܠܝܢܗ	-10.9668
▁ܠܡܗܠܟܘ	-10.9668
▁ܡܫܚܠܦܬܐ	-10.9668
▁ܢܦܪܥܟ	-10.9668
▁ܬܫܬܒܩ	-10.9668
ܡܝܠܝܛܘܤ	-10.9668
▁ܒܡܘܟܟ	-10.9668
▁ܢܒܘܙ	-10.9668
▁ܒܐܘܪܚܬ	-10.9668
▁ܕܗܪܘܕܝ	-10.9668
▁ܘܐܫܦܥ	-10.9668
▁ܝܘܪܩ	-10.9668
▁ܠܡܛܒܥ	-10.9668
▁ܥܘܗܕܢ	-10.9668
▁ܕܬܪܥܤܪ	-10.9668
▁ܘܒܢܒܝܐ	-10.9668
▁ܬܬܕܡܘܢ	-10.9668
ܦܩܥܬܐ	-10.9668
▁ܒܘܪܤܝܐ	-10.9668
▁ܕܢܙܩܦܘܢܝܗܝ	-10.9668
▁ܘܫܐܘܠ	-10.9668
▁ܢܨܘܡܘܢ	-10.9668
▁ܪܕܝܦܘܬ	-10.9668
▁ܬܬܟܫܠܘܢ	-10.9668
ܓܓܘܠܬܐ	-10.9668
ܐܠܝܩܝܡ	-10.9668
ܢܚܡܤܢ	-10.9668
ܬܥܡܠ	-10.9668
▁ܕܐܡܠܟ	-10.9668
▁ܕܐܬܢܝܚ	-10.9668
▁ܘܟܬܝܒ	-10.9668
▁ܘܪܓܠܝ	-10.9668
▁ܠܡܕܒܪܢ	-10.9668
▁ܠܡܬܕܢ	-10.9668
▁ܢܒܠܥ	-10.9668
▁ܐܤܛܤܝ	-10.9668
▁ܘܐܬܕܟܝ	-10.9668
▁ܬܠܓܐ	-10.9668
ܚܡܤܢܢ	-10.9668
▁ܛܠܝܝ	-10.9668
▁ܡܪܥܝܬܐ	-10.9668
ܫܓܝܫ	-10.9668
▁ܕܢܡܝܬܘܢܝܗܝ	-10.9668
▁ܓܘܫܡܗ	-10.9668
▁ܕܙܘܝܬܐ	-10.9668
▁ܘܢܬܝܬܪ	-10.9668
▁ܥܘܦܝܐ	-10.9668
▁ܒܥܘܗܕܢܐ	-10.9668
ܬܫܢܝܩܗ	-10.9668
▁ܘܠܓܠܝܢ	-10.9668
▁ܡܟܬܡ	-10.9668
ܟܢܥܢ	-10.9668
▁ܘܡܨܒܬ	-10.9668
▁ܘܥܬܝܕ	-10.9668
▁ܕܝܩܝܪ	-10.9668
▁ܐܥܦܐ	-10.9668
▁ܒܨܒܘܬܐ	-10.9668
▁ܒܓܠܝܐ	-10.9668
▁ܒܐܘܡܢܘܬ	-10.9668
ܡܫܡܥܬܗܘܢ	-10.9668
▁ܟܘܬܡ	-10.9668
ܨܚܢܘܬܐ	-10.9668
▁ܐܬܟܪܗ	-10.9668
▁ܕܡܪܥܝܬ	-10.9668
ܬܬܢܤܘܢ	-10.9668
▁ܕܡܕܪܟ	-10.9668
▁ܠܡܨܥܬ	-10.9668
▁ܓܪܓ	-10.9668
▁ܘܡܬܟܫܦܝܢ	-10.9668
▁ܩܐܪܤ	-10.9669
▁ܘܕܚܡܫ	-10.9669
▁ܕܡܒܪܟ	-10.9669
▁ܩܘܪܒܢܟ	-10.9669
▁ܕܡܠܝܟ	-10.9669
▁ܘܐܘܒܕ	-10.9669
▁ܘܡܪܥܬ	-10.9669
▁ܒܘܩܝ	-10.9669
▁ܫܦܝܐ	-10.9669
▁ܒܫܠܝܚ	-10.9669
ܠܡܚܙܝܗ	-10.9669
▁ܬܫܬܟܚ	-10.9669
▁ܫܒܗܪܢ	-10.9669
ܬܫܢܩܢ	-10.9669
▁ܬܬܕܝܢܘܢ	-10.9669
▁ܢܘܟܪܝܬܐ	-10.9669
▁ܘܠܒܝܫ	-10.9669
▁ܘܐܘܬܒ	-10.9669
▁ܒܛܟܤ	-10.9669
▁ܠܡܝܬܝܘ	-10.9669
▁ܕܒܓܠܝ	-10.9669
▁ܚܛܝܢ	-10.9669
ܪܫܝܥܐ	-10.9669
▁ܘܛܠܝܐ	-10.9669
▁ܠܫܐܕܐ	-10.9669
▁ܢܢܛܪ	-10.9669
▁ܕܕܝܠܟ	-10.9669
▁ܡܫܬܚܠܦ	-10.9669
▁ܘܦܪܥ	-10.9669
ܚܒܪܬܗ	-10.967
▁ܕܒܘܩܝ	-10.967
▁ܘܨܥܪ	-10.967
▁ܒܘܝܐܢ	-10.967
▁ܐܕܪ	-10.967
▁ܡܗܦܟܝܢ	-10.967
ܝܘܪܬܢܐ	-10.967
▁ܠܟܪܡܗ	-10.967
▁ܢܕܒܪ	-10.967
ܕܢܦܬܠܝ	-10.967
ܢܛܘܪܬܐ	-10.967
▁ܡܫܬܡܗ	-10.967
▁ܪܐܓ	-10.967
▁ܠܕܡܗ	-10.967
▁ܠܫܘܥ	-10.967
▁ܒܡܐܟܠ	-10.9671
▁ܐܬܚܪܪܬ	-10.9671
▁ܕܦܓܪܝ	-10.9671
ܬܬܢܒܘܢ	-10.9671
▁ܙܘܝܬ	-10.9671
▁ܐܟܤ	-10.9671
▁ܕܦܛܡܐ	-10.9671
▁ܘܒܟܐܢܘܬ	-10.9671
▁ܠܕܚܠܬ	-10.9671
▁ܤܘܟܠ	-10.9671
▁ܘܫܬܐܤܬ	-10.9671
▁ܡܬܓܠܝ	-10.9671
▁ܠܡܫܐܠܘܬܗ	-10.9671
ܕܢܗ	-10.9672
▁ܚܒܪܟ	-10.9672
▁ܐܫܬܪܝܘ	-10.9672
ܕܢܡܚܘܢ	-10.9672
▁ܕܕܡܟܘ	-10.9672
▁ܘܐܬܒܝܐܘ	-10.9672
▁ܠܐܘܨܪ	-10.9672
▁ܡܫܡܫܢܗ	-10.9673
▁ܤܥܝܪ	-10.9673
ܬܥܩܪ	-10.9673
▁ܕܫܥܒܕ	-10.9673
▁ܕܛܘܒ	-10.9673
▁ܡܩܘܝܢ	-10.9673
▁ܘܐܫܬܪܝ	-10.9673
▁ܚܒܬ	-10.9673
▁ܘܝܩܝܪ	-10.9673
▁ܘܒܥܒܕܐ	-10.9673
ܪܗܝܒ	-10.9674
▁ܕܡܬܟܪܟ	-10.9674
▁ܘܬܪܤܝ	-10.9674
▁ܕܕܡܟܝܢ	-10.9674
▁ܕܫܘܘܕܝ	-10.9674
▁ܕܬܕܥ	-10.9674
▁ܘܠܡܫܬܐ	-10.9675
ܤܬܢܩ	-10.9675
ܢܡܝܬܘܢ	-10.9676
▁ܘܪܬܝܬ	-10.9676
▁ܐܪܚܩ	-10.9676
▁ܕܢܫܐܠܘܢܝܗܝ	-10.9676
▁ܐܠܟܤܢܕܪܝ	-10.9676
ܤܘܢܩܢ	-10.9676
▁ܢܬܩܕܫ	-10.9676
ܓܗܢ	-10.9676
▁ܕܡܙܕܩ	-10.9676
ܤܘܚܝܢ	-10.9676
▁ܓܠܝܐ	-10.9677
▁ܚܫܚܘ	-10.9677
▁ܠܡܩܒܠܘܬܗ	-10.9677
▁ܪܦ	-10.9677
▁ܐܚܒܬܟܘܢ	-10.9677
ܠܨܦܪ	-10.9677
▁ܘܫܚܢ	-10.9677
▁ܬܛܠ	-10.9677
▁ܘܢܡܠܟ	-10.9677
▁ܘܡܚܪܩ	-10.9678
▁ܛܪܛ	-10.9678
▁ܚܢܩ	-10.9678
▁ܘܡܥܡܕ	-10.9679
▁ܒܤܢܝܐ	-10.9679
▁ܚܡܝܡܐ	-10.9679
▁ܙܗܝܪܐܝܬ	-10.9679
▁ܕܨܦܪ	-10.968
▁ܟܘܠ	-10.968
▁ܬܕܡܘ	-10.968
ܕܝܘܗܝ	-10.968
▁ܢܬܩܪܒ	-10.968
▁ܡܫܚܬ	-10.968
ܘܙܦ	-10.9681
▁ܒܠܒܟ	-10.9681
▁ܦܟܝܗ	-10.9681
▁ܕܢܬܩܪܒ	-10.9682
ܢܪܕܦܘܢ	-10.9682
▁ܕܡܬܩܢ	-10.9682
▁ܝܫ	-10.9682
ܐܬܡܨܝ	-10.9682
▁ܠܥܘܕܪܢ	-10.9682
▁ܘܡܢܟܦ	-10.9683
▁ܕܢܫܬܪܐ	-10.9683
▁ܠܡܕܒܪܐ	-10.9683
▁ܘܚܫܟ	-10.9683
▁ܝܠܕܬܟ	-10.9684
ܢܘܒܕܘܢܝܗܝ	-10.9684
▁ܡܬܓܕܦ	-10.9684
▁ܨܐܕܝܗܘܢ	-10.9685
▁ܫܘܪܥܬ	-10.9685
▁ܕܗܒܝܠ	-10.9685
▁ܕܢܬܕܡܪ	-10.9686
ܚܝܬܘܢ	-10.9686
▁ܐܬܦܫܛ	-10.9687
▁ܕܐܥܡܕ	-10.9688
ܕܡܪܚܡ	-10.9688
ܐܚܪܝܬܐ	-10.9688
▁ܘܢܟܢܫ	-10.9688
▁ܘܛܒܥ	-10.969
▁ܕܕܠܚ	-10.969
▁ܝܪܬܘܬܗ	-10.969
ܬܡܟܟܘ	-10.969
▁ܬܬܘܒ	-10.969
▁ܒܕܝܢܪ	-10.969
▁ܘܡܐܟܠ	-10.9691
▁ܤܩܘ	-10.9691
ܬܫܠܡܘܢ	-10.9691
▁ܦܩܘ	-10.9691
▁ܦܫܝܩܐܝܬ	-10.9692
▁ܬܟܤܝܬ	-10.9692
ܡܤܬܒܪ	-10.9692
▁ܘܒܩܛ	-10.9692
ܓܡܪܘܢ	-10.9692
▁ܡܬܡܠܠܐ	-10.9692
▁ܬܩܦ	-10.9693
▁ܡܘܪܒ	-10.9693
▁ܘܬܕܘܢ	-10.9693
▁ܘܐܬܬܘܤܦ	-10.9694
▁ܓܪܝܨܢ	-10.9694
▁ܢܥܡܕ	-10.9694
ܕܩܕܩܐ	-10.9695
▁ܘܡܩܕܫ	-10.9695
▁ܒܐܤܘܛܘܬܐ	-10.9696
▁ܘܕܢܬܠ	-10.9696
▁ܘܡܫܘܚ	-10.9696
▁ܬܫܬܘܬܦ	-10.9696
▁ܩܛܓܪܢ	-10.9697
▁ܡܓܘܫܐ	-10.9697
▁ܩܤܛܘܢܪܐ	-10.9697
▁ܡܤܬܥܪ	-10.9697
▁ܘܐܤܬܟܠܘ	-10.9697
▁ܡܬܙܝܥܝܢ	-10.9697
▁ܕܐܚܙܐ	-10.9697
▁ܐܬܦܫܚ	-10.9698
▁ܒܗܘܦܟ	-10.9698
▁ܕܐܚܒܬ	-10.9698
▁ܢܤܦܩ	-10.9699
▁ܒܙܩܝܦܗ	-10.9699
▁ܟܢܘܫܬܗܘܢ	-10.97
▁ܘܡܦܠܓ	-10.97
▁ܡܬܬܩܠ	-10.97
▁ܒܢܟܠܐ	-10.9701
▁ܕܢܠܥܤ	-10.9701
▁ܘܕܡܝܬܐ	-10.9701
▁ܕܡܬܦܠܓ	-10.9702
▁ܕܦܪܨܘܦ	-10.9705
▁ܘܕܥܬܝܕ	-10.9705
▁ܒܩܤܪܝܐ	-10.9705
▁ܐܬܒܨܪ	-10.9705
▁ܕܚܝܝܟܘܢ	-10.9705
ܡܢܘܬܐ	-10.9706
▁ܡܬܬܕܝܢ	-10.9706
▁ܠܬܐܛܪܘܢ	-10.9707
▁ܒܡܕܒܚܐ	-10.971
▁ܕܐܬܩܪܝܬܘܢ	-10.971
▁ܘܡܩܪܒ	-10.9711
ܬܟܚܕ	-10.9711
▁ܒܪܓܬܐ	-10.9713
▁ܘܒܚܕܘܬܐ	-10.9713
▁ܢܠܥܤ	-10.9713
▁ܢܗܦܘܟ	-10.9713
▁ܐܬܛܥܡ	-10.9714
ܕܓܠܘܬܐ	-10.9715
▁ܠܢܝܚܬܝ	-10.9715
▁ܡܬܟܪܙ	-10.9716
▁ܢܢܗܪ	-10.9716
ܬܕܘܕ	-10.9716
▁ܡܒܗܬ	-10.9717
▁ܐܕܡܝܗ	-10.9717
▁ܢܬܪܝܡ	-10.9717
▁ܘܠܥܠ	-10.9718
▁ܠܡܙܥܩ	-10.9719
▁ܝܪܩ	-10.9719
▁ܒܕܘܟܝܬ	-10.972
▁ܕܐܬܟܪܙ	-10.972
▁ܤܒܠ	-10.972
▁ܐܬܦܪܩ	-10.972
ܐܬܗܝܡܢܬ	-10.972
▁ܢܓܕܦ	-10.9721
▁ܗܝܡܢܘܬܝ	-10.9721
▁ܕܐܒܗܝܟܘܢ	-10.9721
▁ܠܨܒܝܢܗܘܢ	-10.9721
▁ܢܨܗܐ	-10.9721
ܫܓܘ	-10.9721
▁ܕܡܫܟ	-10.9722
▁ܡܒܛܠ	-10.9722
▁ܕܪܥܝܐ	-10.9724
▁ܒܝܒܫܐ	-10.9725
▁ܥܡܕܬܘܢ	-10.9725
ܒܤܝܡܘܬܗ	-10.9727
▁ܘܐܬܐܒܠ	-10.9727
ܬܩܛܥ	-10.9729
▁ܠܝܠܘܕܐ	-10.9729
▁ܘܤܐܡ	-10.973
▁ܚܓܝܤ	-10.9731
▁ܢܦܪܩ	-10.9731
▁ܓܪܒܗ	-10.9733
▁ܕܢܤܡ	-10.9733
▁ܠܦܝܠܛܘܤ	-10.9733
▁ܕܐܪܝܡ	-10.9734
▁ܡܫܡܫܢܝ	-10.9735
▁ܡܫܬܡܠ	-10.9735
▁ܕܬܬܝܬܪܘܢ	-10.9737
▁ܕܚܛܝܐ	-10.9737
▁ܕܬܛܪ	-10.9738
▁ܠܙܥܘܪܐ	-10.974
▁ܕܫܓܫ	-10.9741
▁ܐܥܒܪ	-10.9744
▁ܕܡܬܝܗܒ	-10.9744
ܕܘܢܝܗܝ	-10.9747
▁ܕܐܘܪܫܠܡ	-10.9747
▁ܘܒܤܡ	-10.9747
▁ܡܬܡܠܠܢ	-10.9747
▁ܘܒܟܝܢ	-10.9748
▁ܬܬܚܝܒ	-10.9749
ܒܝܐܝܢ	-10.9749
▁ܠܡܐܤܝܘܬܗ	-10.975
▁ܘܡܓܪ	-10.9751
▁ܝܒܝܫ	-10.9751
▁ܠܒܫܗ	-10.9752
▁ܡܫܡܥ	-10.9755
▁ܕܫܠܚܢܝ	-10.9756
▁ܘܡܛܥܝܢ	-10.9756
▁ܒܢܝܢܗ	-10.9759
▁ܤܦܝܩ	-10.976
▁ܘܒܠܠܝܐ	-10.9761
▁ܕܐܦܤܝܐ	-10.9763
▁ܒܚܫܡܝܬܐ	-10.9763
ܒܙܥ	-10.9764
▁ܘܒܢܟܦܘܬܐ	-10.9767
ܬܪܘܬܐ	-10.9767
▁ܒܕܟܝܘܬܐ	-10.9767
▁ܘܫܪܓ	-10.9767
▁ܘܐܬܝܕܥ	-10.9768
▁ܢܦܢܐ	-10.9769
▁ܒܡܠܬܗ	-10.9769
▁ܒܒܢܝ	-10.9769
▁ܘܢܨܠ	-10.9769
▁ܒܥܘܪܠܘܬܐ	-10.977
▁ܘܕܥܒܕ	-10.9771
▁ܥܩܐ	-10.9771
▁ܡܤܢܐ	-10.9773
ܒܡܚܙܝܬܐ	-10.9774
ܢܬܐܤܐ	-10.9775
▁ܦܢܝ	-10.9775
▁ܕܐܒܕܢܐ	-10.9775
▁ܠܟܠܒܐ	-10.9776
▁ܙܕܝܩܝܢ	-10.9776
▁ܘܛܥܢ	-10.9776
▁ܚܠܝܐ	-10.9777
▁ܬܬܩܪܒ	-10.9777
▁ܕܠܩܘܒܠܢ	-10.9785
▁ܡܩܘܝܢܢ	-10.9786
▁ܒܫܘܒܗܪ	-10.9787
▁ܐܫܬܝܘܗܝ	-10.9793
▁ܢܚܫܟ	-10.9793
▁ܝܕܝܥܬܐ	-10.9794
ܓܐܝܘܤ	-10.9794
ܢܤܝܒܪ	-10.9794
▁ܠܒܘܫܗ	-10.9797
▁ܐܬܬܘܝ	-10.9797
▁ܐܤܛܦܢܘܤ	-10.9798
▁ܐܟܘܬܢ	-10.9799
▁ܫܐܠܬ	-10.9801
▁ܒܨܥܪܐ	-10.9801
▁ܠܐܚܝܟܘܢ	-10.9803
ܨܛܥܪ	-10.9804
ܫܢܝܗ	-10.9809
▁ܪܩܕܬ	-10.981
▁ܘܒܟܐ	-10.981
▁ܪܘܪܒܐܝܬ	-10.9816
▁ܢܫܒܩ	-10.9816
▁ܡܫܝܚܗ	-10.9817
▁ܕܢܚܒ	-10.9818
ܫܘܥܐ	-10.9819
▁ܘܒܡܤܝܒܪܢܘܬܐ	-10.9821
▁ܬܪܐܐ	-10.9826
▁ܤܝܒܪܘ	-10.9826
▁ܕܠܒܘܫܗ	-10.9827
▁ܘܐܠܟܤܢܕܪ	-10.9828
ܕܫܐ	-10.9829
▁ܬܬܦ	-10.9829
ܒܨܦܪܐ	-10.9829
▁ܐܘܝܘܬܐ	-10.9835
▁ܐܙܝܥ	-10.9836
▁ܘܡܠܘ	-10.9836
▁ܦܘܠ	-10.9836
▁ܘܩܛܠܘܗܝ	-10.9838
▁ܕܓܠܬܐ	-10.9839
▁ܕܨܕ	-10.9839
▁ܚܠܝܡܬܐ	-10.9842
▁ܕܒܕܡܘܬ	-10.9842
ܫܘܫܢ	-10.9843
▁ܡܐܟܠ	-10.9845
ܢܬܒܛܠ	-10.9848
▁ܡܬܐܤܝ	-10.9849
▁ܘܐܝܤ	-10.985
▁ܝܘܪܕܢܢ	-10.9853
▁ܘܢܓܝܪ	-10.9855
ܕܝܕ	-10.9855
▁ܢܤܬܟܠܘܢ	-10.9856
▁ܐܘܩܕ	-10.9858
▁ܠܫܡܗ	-10.9858
▁ܕܬܪܥܝܬ	-10.986
▁ܕܫܕܪܗ	-10.986
▁ܠܨܠܡܗ	-10.9862
▁ܕܢܕ	-10.9863
ܗܝܡܢܬܘܢ	-10.9863
ܬܡܠܐ	-10.9865
▁ܟܘܡܪܘܬܐ	-10.9866
▁ܫܘܩܪܐ	-10.9867
▁ܫܘܚܢ	-10.9867
▁ܘܡܬܐܤ	-10.9869
ܡܤܒܪܢܘܬ	-10.9871
▁ܠܝܠܘܢ	-10.9872
▁ܡܠܐܟܝ	-10.9874
▁ܦܠܓ	-10.9875
▁ܦܘܠܓ	-10.9876
▁ܘܩܛ	-10.9878
▁ܪܘܙ	-10.988
▁ܢܦܠܘܚ	-10.9881
ܢܕܥܘܢ	-10.9883
▁ܐܘܬܪ	-10.9884
▁ܢܤܝܒܪ	-10.9889
▁ܘܒܡܠܬܐ	-10.9893
▁ܕܤܐܡ	-10.9901
▁ܘܠܝܡܐ	-10.9902
▁ܝܡܝܢܟ	-10.9906
▁ܕܐܦܠܘ	-10.9906
ܕܩܫܝܫܐ	-10.9909
▁ܕܐܫܘ	-10.9909
ܪܕܘܦ	-10.9912
▁ܕܡܥܤܪ	-10.9915
ܘܤܦܘܢ	-10.9918
▁ܠܤܡ	-10.992
▁ܒܡܨܪܝܢ	-10.9924
▁ܡܬܢܒܝܢ	-10.993
▁ܠܛܛܘܤ	-10.9935
▁ܡܫܕ	-10.994
ܢܚܛܘܦ	-10.994
▁ܘܡܠܬ	-10.9941
▁ܠܡܐܬܝܬܗ	-10.9943
▁ܘܡܦ	-10.9945
ܙܪܥܘܢܐ	-10.9946
▁ܬܠܘ	-10.9954
▁ܛܫܝ	-10.9962
▁ܫܡܝܢܐ	-10.9966
ܙܕܩܬܟ	-10.9967
▁ܪܒܝܬܗ	-10.9968
ܕܝܬܩܐ	-10.9972
▁ܐܬܬܪܝܡ	-10.9975
▁ܐܝܬܐܘܗܝ	-10.9978
▁ܕܬܗܘܡܐ	-10.9986
▁ܡܝܬܝܐ	-10.9987
▁ܘܐܬܐܤܝ	-10.9989
▁ܕܒܕܪ	-10.999
▁ܟܪܘܙܘܬ	-10.9994
▁ܢܢܤ	-11.0014
▁ܕܟܪܝܘܬ	-11.0014
▁ܐܪܡܝܬܗ	-11.0019
▁ܘܡܚܦ	-11.0021
ܐܩܝܡܟ	-11.0025
▁ܘܐܠܗܝ	-11.0042
▁ܠܡܘܒܕܘܬ	-11.0063
▁ܘܒܫܘܩ	-11.0064
ܡܬܦܫܩ	-11.0065
▁ܬܤܒ	-11.0078
ܕܝܗܘܢ	-11.0079
ܒܐܝܕܝܗܘܢ	-11.0089
ܡܨܛܪܝ	-11.0102
▁ܘܦܠܓܘܬ	-11.0103
▁ܘܥܡܕܝܢ	-11.0107
ܨܥ	-11.0118
▁ܒܤܪܝ	-11.0119
ܬܬܢܚ	-11.0131
▁ܬܫܪ	-11.0151
▁ܘܩܫܝ	-11.0161
▁ܐܬܬܚܕ	-11.0165
▁ܘܠܡܟ	-11.0174
ܬܦܨܚܘ	-11.0196
▁ܕܟܬ	-11.0198
▁ܬܬܪܥ	-11.0199
ܡܬܗ	-11.02
ܥܠܝܗܝܢ	-11.0206
▁ܒܤܝܡܘܬ	-11.0208
ܬܦܪܩ	-11.0214
ܡܝܬܪܘܬܐ	-11.0214
ܟܕܒ	-11.022
▁ܦܘܫ	-11.0244
▁ܕܢܡܘܬ	-11.0267
▁ܡܚܤ	-11.0276
▁ܕܥܡܕ	-11.03
▁ܬܐܪܬܗ	-11.0302
ܟܘܡܪ	-11.0306
ܡܛܫܝܐ	-11.0306
▁ܠܡܚܫ	-11.0306
▁ܒܐܕܢ	-11.0333
ܬܒܚܪ	-11.0347
▁ܢܪܥ	-11.0348
▁ܡܚܤܕ	-11.035
ܫܬܘܙܒ	-11.0362
▁ܘܦܬܚܬ	-11.0365
▁ܨܠܘܬܗ	-11.0366
▁ܬܤܝܡ	-11.0374
▁ܕܛܝܒܬ	-11.0375
▁ܐܬܐܤܝܬ	-11.0379
▁ܘܐܫܬܡܥܬ	-11.0391
ܐܚܝܟܘܢ	-11.042
▁ܘܓܒܝ	-11.0427
▁ܢܬܒܝܐ	-11.0451
ܬܟܢܫܘ	-11.0457
▁ܢܡܠܟ	-11.0459
▁ܐܬܓܡܪ	-11.046
▁ܘܢܕܟܝ	-11.046
▁ܕܬܫܟܚ	-11.0461
ܤܝܡܘܢ	-11.0469
ܠܡܫܡܥ	-11.0472
▁ܐܬܒܢ	-11.0473
ܘܠܬܗ	-11.0475
▁ܘܕܟܠܗ	-11.0478
ܚܠܨ	-11.0479
ܩܦܚܝܢ	-11.0488
▁ܡܨܥܪܢ	-11.0488
▁ܒܘܪܟܝ	-11.0498
▁ܒܡܛ	-11.0513
▁ܤܢܝܩܘܬ	-11.0515
▁ܬܕܟܝܬ	-11.0517
ܢܬܬܙܝܥܘܢ	-11.0524
ܬܛܥܡ	-11.0524
▁ܘܐܪܡ	-11.0527
▁ܕܡܟܤܝ	-11.0537
▁ܘܒܓܒ	-11.0547
▁ܪܒܟܘ	-11.055
▁ܡܬܡܠ	-11.0558
▁ܕܙܥܘܪ	-11.0583
▁ܘܐܡܠܟ	-11.0592
▁ܢܓܕܗ	-11.0629
▁ܡܥܠܢ	-11.064
▁ܘܝܒܫ	-11.0648
ܢܚܘܝܟܘܢ	-11.0663
▁ܘܛܥ	-11.0674
ܡܬܓܠܐ	-11.0679
▁ܘܐܬܪ	-11.068
▁ܘܡܫܪܝ	-11.0681
ܠܚܘܗܝ	-11.0696
▁ܒܤܝܡܘܬܗ	-11.0697
▁ܐܤܘܪܝ	-11.0703
▁ܘܒܪܓܝܓܬ	-11.0716
▁ܐܘܟܡ	-11.0719
ܛܥܝܢ	-11.0733
▁ܒܪܘܓܙ	-11.0748
▁ܘܒܙܡ	-11.075
ܦܘܡܐ	-11.0786
▁ܢܨܠ	-11.079
ܚܝܨܐ	-11.0805
ܟܬܪܘ	-11.0824
▁ܕܬܬܒ	-11.0856
▁ܡܫܪ	-11.0865
▁ܕܝܪܬܘܬ	-11.0874
▁ܘܩܛܠܬܘܢ	-11.0888
ܦܪܝܫܐ	-11.0893
▁ܠܒܥܠܝ	-11.0919
▁ܡܨܪܝ	-11.0926
▁ܐܚܫܡܝܬ	-11.0931
▁ܕܕܝܢܗ	-11.0937
ܪܡܪܡ	-11.0949
ܡܕܒܚܐ	-11.0952
▁ܬܚܘܡܝܗ	-11.0953
▁ܘܚܫܘܟ	-11.0958
ܕܩܝ	-11.0965
▁ܫܢܝܬ	-11.0972
ܢܫܐܠܝܘܗܝ	-11.1021
▁ܚܘܝܬ	-11.1022
▁ܠܕܪܬ	-11.1083
▁ܐܫܠܡܬܘܢ	-11.1091
ܬܕܓܠ	-11.1099
▁ܐܟܪܝ	-11.1108
▁ܘܠܢܒܝ	-11.1152
▁ܠܚܕܘܬܗ	-11.1153
ܚܐܪܘܬ	-11.1173
▁ܠܦܪܕ	-11.118
ܥܩܒܘ	-11.1206
ܬܪܚܩ	-11.1215
▁ܐܤܬܠ	-11.1234
▁ܝܠܦܬܘܢ	-11.1273
▁ܦܪܘܓ	-11.1289
▁ܓܘܝ	-11.1294
ܟܪܤܟ	-11.1296
▁ܕܡܬܢܒ	-11.1298
ܬܫܦܪ	-11.1299
▁ܒܫܪܒܬܗ	-11.13
ܡܕܥܝܟܘܢ	-11.1307
▁ܘܫܒܩܬ	-11.1333
▁ܠܥܒܕܝܟ	-11.1354
▁ܕܐܤܝ	-11.1359
ܚܙܝܬܘܢܝܗܝ	-11.1361
▁ܕܥܬܝܪ	-11.1375
ܬܒܪܘ	-11.1402
▁ܫܬܩ	-11.1408
ܡܟܪܙܝܢܢ	-11.1416
ܛܥܘ	-11.1419
ܒܤܝܡܘܬ	-11.1445
▁ܒܬܘܠ	-11.1449
ܪܩܘܢ	-11.1453
▁ܬܪܢ	-11.1457
ܕܡܝܐ	-11.1463
ܒܫܠܝܐ	-11.1592
ܤܦܘܬܐ	-11.1596
ܙܪܥܟ	-11.1604
▁ܒܩܪܝ	-11.165
▁ܘܕܐܚ	-11.1654
ܢܒܝܘܬܐ	-11.1667
ܚܬܡܬ	-11.1684
▁ܒܟܪܝܗ	-11.1739
ܦܘܩܕܢܐ	-11.1765
ܤܪܩ	-11.1772
ܤܓܕܘ	-11.1812
▁ܐܬܪܥܝ	-11.1837
ܒܚܫܘܟܐ	-11.1844
▁ܘܢܐܙܠ	-11.1844
▁ܘܐܬܬܙܝܥ	-11.1848
ܪܛܢܘ	-11.1851
▁ܘܢܫܒ	-11.1876
▁ܩܢܝܢܟ	-11.1879
ܪܨ	-11.1886
▁ܕܬܩܘܡ	-11.189
▁ܒܨܝ	-11.19
▁ܘܬܪܥܝ	-11.1934
▁ܐܓܪܬ	-11.1978
ܚܝܠܗ	-11.1987
▁ܕܚܫܚܬ	-11.2028
▁ܐܠܒܫ	-11.2065
▁ܢܬܟܤ	-11.2069
ܫܪܪܗ	-11.2149
▁ܥܩܒ	-11.215
ܝܠܘܕܐ	-11.2169
ܪܓܠܝܟܘܢ	-11.2181
ܤܬܬܪ	-11.2195
ܡܪܚܡܢܘܬ	-11.2206
▁ܠܡܚܝ	-11.2218
▁ܦܐܪܝܗ	-11.2238
▁ܘܠܩܝܡܬ	-11.2247
ܢܫܦܪ	-11.2274
▁ܩܒ	-11.2302
▁ܐܬܩܪܒܬ	-11.234
▁ܕܐܬܡܠ	-11.235
▁ܕܫܝܠ	-11.2351
▁ܚܒܝܒܬ	-11.2384
▁ܫܘܪ	-11.2414
ܬܫܐܠܘܢ	-11.2468
▁ܒܪܓܠܝ	-11.2491
ܓܙܪ	-11.2515
ܠܢܒܝܐ	-11.2518
ܪܓܬܐ	-11.2535
▁ܒܨܠܘܬ	-11.2549
▁ܕܡܓܕܦ	-11.2552
▁ܠܫܥ	-11.2669
ܙܢܝܐ	-11.2706
ܦܘܡܗܘܢ	-11.2709
ܟܘܪܗܢܐ	-11.2721
▁ܬܠܡܝܕ	-11.2792
ܒܡܤܝܒܪܢܘܬܐ	-11.2793
ܫܠܝܛܢ	-11.28
ܦܠܚ	-11.2814
ܢܫܟܚܝܘܗܝ	-11.2821
▁ܘܥܛ	-11.2826
ܟܝܟܐ	-11.284
ܕܡܝܗ	-11.2887
▁ܒܡܚ	-11.2888
▁ܡܠܬ	-11.2889
ܬܡܠܝܢ	-11.2902
▁ܕܢܛܥ	-11.2908
ܠܦܘܠܘܤ	-11.2926
ܒܝܐܘ	-11.2952
▁ܦܫܝܛ	-11.2986
▁ܕܠܡܠܐܟ	-11.2999
▁ܘܥܡܘܪ	-11.3039
ܩܕܝܫܘܗܝ	-11.3044
▁ܕܘܒܪ	-11.3053
ܝܡܡܐ	-11.3094
▁ܕܓܡܠ	-11.3104
▁ܘܤܓ	-11.3111
ܒܝܐܢ	-11.3141
ܕܪܟܬ	-11.3205
▁ܘܫܘܬܦܘܬ	-11.3223
ܩܤܪܝܐ	-11.3287
▁ܘܠܥܪ	-11.3323
ܝܠܝܦ	-11.3334
ܒܓܠܛܝܐ	-11.334
▁ܗܘܦܟ	-11.3415
ܬܬܙܝܥܘܢ	-11.3415
ܙܢܝܘܬܐ	-11.3425
ܩܢܘܡܟܘܢ	-11.3446
ܬܚܫܒ	-11.3493
ܦܬܘܪܐ	-11.3548
ܛܪܦܝܢ	-11.3563
▁ܙܕܝܩ	-11.3631
▁ܕܩܥܝ	-11.364
ܫܛܝܘܬܗ	-11.3654
ܕܙܕܘܩܝܐ	-11.366
ܐܬܛܪܝ	-11.3666
▁ܘܠܥܕܬ	-11.3679
ܝܠܕܬ	-11.3712
ܕܝܘܐ	-11.3721
ܐܝܕܝܗܘܢ	-11.3742
▁ܥܒ	-11.3791
ܕܘܟܐ	-11.3816
▁ܠܐܒܘܗ	-11.383
ܛܠܬ	-11.3836
▁ܒܩܝܡ	-11.3848
ܕܤܡ	-11.3853
ܢܬܦܨ	-11.3903
ܠܡܐܪܬ	-11.3947
▁ܠܡܕܝܢܬ	-11.3985
ܬܤܝܒ	-11.3996
▁ܫܥܬ	-11.4002
ܘܙܒ	-11.4011
▁ܤܕܘ	-11.402
ܠܥܡܘܪ	-11.4024
▁ܩܪܨ	-11.4027
▁ܒܟܘܪܗܢ	-11.4028
▁ܡܫܡܠܝ	-11.4029
▁ܕܤܪܝܩ	-11.403
ܒܘܬܟܘܢ	-11.4057
▁ܡܘܠܟܢ	-11.4067
▁ܠܛܘܪ	-11.4072
▁ܕܦܘܩܕ	-11.408
ܚܤܡ	-11.4085
▁ܟܗܢ	-11.4091
▁ܠܒܤܬܪ	-11.4108
▁ܢܡܠ	-11.4211
▁ܕܠܢܦܫ	-11.4212
▁ܘܒܨܦ	-11.4232
ܨܝܪ	-11.4232
▁ܕܢܬܦܠ	-11.4237
▁ܘܒܟܘ	-11.424
▁ܐܚܘܗ	-11.4268
ܫܪܝܪܐ	-11.4273
▁ܕܠܘܛ	-11.4279
▁ܡܫܬܒܗܪ	-11.4295
ܫܒܩܬ	-11.43
▁ܬܪܓ	-11.4308
▁ܓܪܒ	-11.4308
▁ܕܚܙܝ	-11.4335
▁ܐܘܒܠܘ	-11.4337
▁ܠܟܢܘܫ	-11.434
ܗܪܛ	-11.4359
▁ܡܫܬܘܕܥ	-11.436
ܩܘܫܬܐ	-11.439
ܐܟܤܢܝܐ	-11.4402
ܦܨܚܐ	-11.441
ܐܬܪܡܝ	-11.4421
ܡܦܤ	-11.4422
ܫܬܥܒܕܘ	-11.4422
ܒܒܤܪ	-11.4423
▁ܪܗܘܡ	-11.4424
▁ܘܟܘܪܤ	-11.4427
ܟܪܝܤ	-11.443
▁ܕܢܫܬܩ	-11.4436
ܘܡܢܗ	-11.4438
▁ܒܚܤ	-11.4439
ܪܩܕܬܘܢ	-11.4441
ܐܪܙ	-11.4447
ܬܕܥܘܢ	-11.4448
▁ܒܩܛ	-11.4453
▁ܘܙܘ	-11.4455
ܕܪܘܚ	-11.4455
▁ܘܐܡܝ	-11.4472
ܠܓܐܝܘܤ	-11.4508
ܒܢܟܦܘܬܐ	-11.4509
ܙܚܘܪܝܬܐ	-11.4517
ܤܡܬܟ	-11.452
▁ܘܪܥܝ	-11.4527
ܕܐܘܪܫܠܡ	-11.4541
ܦܬܓܡ	-11.4542
ܒܡܘܠܟܢܐ	-11.4547
ܐܫܬܪܪܬ	-11.4547
ܡܒܕܪ	-11.4547
ܫܛܝܘܬܐ	-11.4547
ܫܝܦܘܪܐ	-11.4547
ܡܫܬܡܥܢܘܬ	-11.4548
ܐܚܙܝܟܘܢ	-11.4548
ܡܬܡܠܠܢ	-11.4549
ܢܩܒܠܘܢ	-11.455
ܒܕܪܡܤܘܩ	-11.455
ܕܠܓܘ	-11.455
ܡܟܫܘܠܐ	-11.455
ܤܝܪܐ	-11.4552
ܡܬܬܙܝܥ	-11.4555
ܨܠܝܒ	-11.4555
ܨܝܡܝܢ	-11.4556
ܒܥܡܡܐ	-11.4557
▁ܠܡܬܬ	-11.4557
ܡܬܛܦܝܤܝܢ	-11.4558
ܠܥܡܡܐ	-11.4559
ܡܫܕܪ	-11.4559
▁ܕܤܘܟ	-11.456
ܛܘܗܡ	-11.4562
▁ܡܬܚܙܝ	-11.4565
ܪܝܪܐܝܬ	-11.4566
▁ܠܨܠܡ	-11.4567
ܟܦܪܢܚܘܡ	-11.4568
ܛܡܝ	-11.4569
▁ܘܝܘܚܢ	-11.457
▁ܘܢܤܓ	-11.4571
ܠܐܢܬܬܗ	-11.4577
▁ܢܤܬܟܠ	-11.4578
ܒܫܡܝ	-11.4579
▁ܠܨܒܝܢܗ	-11.4582
▁ܘܬܪܥܤܪ	-11.4583
ܠܐܒܕܢܐ	-11.4584
ܐܚܘܝܟ	-11.4586
▁ܕܢܩܛܠ	-11.4588
▁ܐܫܬܥ	-11.4589
▁ܠܐܘܪܥ	-11.4591
▁ܕܦܝܠ	-11.4592
▁ܢܩܝ	-11.4595
ܒܓܢ	-11.4596
▁ܐܫܬܕܪ	-11.4598
▁ܐܨܛܒܝ	-11.46
ܬܛܦܝܤܘ	-11.4612
ܒܡܕܒܪܐ	-11.4614
ܠܡܐܤܝܘ	-11.4615
ܕܢܩܘܡ	-11.4616
ܬܦܫܚ	-11.4621
ܐܤܘܛܘܬܐ	-11.4623
▁ܕܕܒ	-11.4625
▁ܒܟܪܝ	-11.4631
ܢܗܠܟ	-11.4635
ܬܫܒܩܘܢ	-11.4637
ܬܐܛܪܘܢ	-11.4639
▁ܒܛܪܘ	-11.4649
ܡܬܪܥܝ	-11.4651
▁ܪܥܘ	-11.4651
▁ܬܪܢܓ	-11.4654
ܚܡܝܡ	-11.4661
▁ܘܢܩܛܠܘܢ	-11.4661
▁ܟܠܡܕ	-11.4661
ܕܝܠܢ	-11.4661
▁ܥܘܩ	-11.4663
▁ܕܐܒܪܗ	-11.4663
▁ܡܥܕ	-11.4663
▁ܩܘܪܒܢܝ	-11.4664
▁ܘܡܤܝܒ	-11.4665
ܝܘܬܪܢܐ	-11.4666
▁ܚܘܘ	-11.4666
▁ܡܙܕ	-11.4666
▁ܬܠܡ	-11.4666
▁ܘܕܢܪܚܡ	-11.4668
1	-11.4668
ܐܘܟܪܤܛܝܐ	-11.4668
ܢܪܓܡܘܢ	-11.4668
ܨܛܠܒ	-11.4668
ܬܙܕܕܩ	-11.4668
▁ܐܛܥܝܬ	-11.4668
▁ܐܢܤܝܡܘܤ	-11.4668
▁ܐܫܒܚܟ	-11.4668
▁ܒܕܘܢܒܝܬܗܘܢ	-11.4668
▁ܕܐܝܛܠܝܐ	-11.4668
▁ܕܐܠܝܫܒܥ	-11.4668
▁ܕܐܢܤܝܦܘܪܘܤ	-11.4668
▁ܕܛܠܝܘܬܐ	-11.4668
▁ܕܬܟܬܘܫ	-11.4668
▁ܘܠܥܘܝܪܐ	-11.4668
▁ܘܡܫܬܒܚ	-11.4668
▁ܘܢܬܢܒܘܢ	-11.4668
▁ܘܪܗܘܡܐܝܬ	-11.4668
▁ܠܐܤܦܢܝܐ	-11.4668
▁ܠܡܛܥܢ	-11.4668
▁ܠܪܗܘܡܐ	-11.4668
▁ܡܝܘܬܘܬܐ	-11.4668
▁ܡܬܚܢܩܝܢ	-11.4668
▁ܡܬܚܫܚ	-11.4668
▁ܡܬܥܩܒ	-11.4668
▁ܢܬܢܤܒ	-11.4668
▁ܥܙܠܢ	-11.4668
▁ܪܘܓܙܟ	-11.4668
▁ܫܝܦܘܪܝܢ	-11.4668
▁ܬܐܘܦܝܠܐ	-11.4668
▁ܬܫܬܪܪܘܢ	-11.4668
▁ܬܬܚܬܝܢ	-11.4668
▁ܕܒܢܦܫ	-11.4668
▁ܩܦܤ	-11.4668
▁ܐܓܒܘܤ	-11.4668
▁ܒܠܓܬܐ	-11.4668
▁ܕܒܒܪܢܫ	-11.4668
▁ܕܢܫܬܕܪ	-11.4668
▁ܕܦܠܝܓ	-11.4668
▁ܕܬܦܪܫܘܢ	-11.4668
▁ܕܬܪܝܨ	-11.4668
▁ܘܐܬܚܢܩܘ	-11.4668
▁ܘܚܡܤܢ	-11.4668
▁ܘܠܫܒܒ	-11.4668
▁ܠܐܓܘܪܤ	-11.4668
▁ܠܡܚܙܝܟ	-11.4668
▁ܢܫܬܒܚ	-11.4668
▁ܢܬܓܠܘܢ	-11.4668
▁ܕܒܢܡܘܤܢ	-11.4668
▁ܕܢܘܒܠܘܢ	-11.4668
▁ܘܕܚܛܝܐ	-11.4668
▁ܘܢܫܬܢܩ	-11.4668
▁ܡܬܚܬܪ	-11.4668
▁ܢܚܪܪܟܘܢ	-11.4668
▁ܬܬܕܒܪ	-11.4668
ܐܬܬܨܝܕ	-11.4668
▁ܕܒܐܤܛ	-11.4668
▁ܘܡܒܪܟܝܢ	-11.4668
▁ܘܨܦܬ	-11.4668
▁ܠܡܪܓܙܘܬܗ	-11.4668
▁ܡܤܬܝܒܪ	-11.4668
▁ܬܦܪܘܫ	-11.4668
ܐܬܓܡܪܘ	-11.4668
ܨܛܒܬ	-11.4668
ܨܛܢܥ	-11.4668
▁ܒܠܒܘܬܢ	-11.4668
▁ܘܥܦܩ	-11.4668
▁ܠܡܙܪܥ	-11.4668
▁ܫܘܡܥܘܢܝ	-11.4668
▁ܕܐܬܕܟܝ	-11.4668
▁ܟܒܫ	-11.4668
▁ܢܘܕܥܟܘܢ	-11.4668
▁ܒܩܕܝܫܐ	-11.4668
▁ܕܢܨܘܡܘܢ	-11.4668
▁ܘܐܫܠܛ	-11.4668
▁ܘܡܛܒܥ	-11.4668
▁ܘܫܠܘܡ	-11.4668
▁ܥܘܪܦܢ	-11.4668
ܡܛܟܤ	-11.4668
▁ܠܬܒܝܪ	-11.4668
▁ܦܘܪܥܘ	-11.4668
▁ܕܡܕܒܪ	-11.4668
▁ܘܡܒܪܩ	-11.4668
▁ܬܘܪܤܝܐ	-11.4668
▁ܐܓܘܪܤ	-11.4668
ܠܤܢܝܩܘܬ	-11.4668
▁ܕܢܡܢܥ	-11.4668
▁ܘܡܕܒܪ	-11.4668
▁ܡܒܤܪ	-11.4668
▁ܡܫܬܓܫ	-11.4668
▁ܐܤܒܝܗ	-11.4668
▁ܕܒܛܢܢ	-11.4668
▁ܕܬܓܘܪ	-11.4668
▁ܕܬܦܩ	-11.4668
▁ܠܡܨܪܝܐ	-11.4668
▁ܡܦܚܡܝܢ	-11.4668
▁ܤܘܡܩ	-11.4668
▁ܬܐܚܕܘܢ	-11.4668
▁ܠܡܓܡܪ	-11.4668
▁ܦܠܝܓ	-11.4668
▁ܒܪܫܘܡܐ	-11.4668
▁ܕܟܪܡܗ	-11.4668
▁ܢܬܩܪܘܢ	-11.4668
▁ܐܟܬܒܝܘܗܝ	-11.4668
▁ܕܢܬܘܒܘܢ	-11.4668
▁ܩܢܢܝܐ	-11.4668
ܥܘܙܝܐ	-11.4668
▁ܕܒܘܚܪܢܐ	-11.4668
ܬܓܠܙ	-11.4668
▁ܕܐܤܒܪ	-11.4668
▁ܘܥܘܝܪ	-11.4668
▁ܡܪܛܘܛܟ	-11.4668
ܠܡܙܢܝܘ	-11.4668
ܒܙܥܘܪܝܬܐ	-11.4668
▁ܐܚܕܬܘܢܢܝ	-11.4668
▁ܢܬܚܒܠܘܢ	-11.4668
▁ܐܬܪܓܡ	-11.4668
▁ܕܡܫܬܕܪ	-11.4668
▁ܘܚܫܚ	-11.4668
▁ܘܬܡܝܡ	-11.4668
▁ܚܒܛ	-11.4668
▁ܬܐܪܬܢ	-11.4668
▁ܘܢܥܠܘܢ	-11.4668
▁ܫܩܘܗܝ	-11.4668
▁ܠܤܠܡ	-11.4668
▁ܐܝܛܠܝ	-11.4668
▁ܘܙܟܝܬܘܢ	-11.4668
▁ܬܥܬܪܘܢ	-11.4668
▁ܛܠܪ	-11.4668
▁ܠܟܘܝܠܐ	-11.4669
▁ܢܤܥܪ	-11.4669
▁ܡܬܚܡܬ	-11.4669
▁ܠܦܘܬܩ	-11.4669
▁ܠܟܢܫܗܘܢ	-11.4669
▁ܓܘܥܠܢ	-11.4669
ܦܤܝܩ	-11.4669
▁ܘܚܫܒ	-11.4669
▁ܐܬܝܥܢ	-11.4669
▁ܡܕܒܪܝ	-11.4669
▁ܒܤܝܒܘܬ	-11.4669
▁ܘܚܕܘܬܢ	-11.4669
▁ܠܢܟܤܬܐ	-11.4669
ܟܦܝܦ	-11.4669
ܬܢܓܕܘܢ	-11.4669
▁ܒܘܝܐܟܘܢ	-11.4669
▁ܕܦܬܝܟ	-11.4669
▁ܘܪܘܝܘ	-11.4669
▁ܡܬܒܪܟ	-11.4669
ܬܘܪܨܐ	-11.4669
▁ܒܡܫܡܥܬ	-11.4669
▁ܘܠܕܙܟ	-11.4669
ܫܬܘܕܥܘܢ	-11.4669
▁ܡܬܒܩ	-11.4669
▁ܠܬܗܘܡܐ	-11.4669
▁ܐܩܦ	-11.4669
▁ܘܢܬܩܪܒ	-11.4669
▁ܘܕܝܗܘܕ	-11.4669
▁ܕܒܝܡܝܢ	-11.4669
▁ܢܚܛܦܘܢ	-11.4669
▁ܕܐܠܨܢ	-11.4669
▁ܠܒܬܝܗܘܢ	-11.4669
▁ܘܥܓܠ	-11.4669
▁ܐܤܬܪܩܘ	-11.4669
▁ܠܕܘܟܝ	-11.4669
▁ܥܘܝܪ	-11.4669
▁ܡܫܬܪܥܝܢ	-11.4669
▁ܘܠܒܘܢܬܐ	-11.467
▁ܘܥܬܪܬ	-11.467
▁ܢܓܢܒܘܢ	-11.467
▁ܐܤܛܘ	-11.467
▁ܪܓܝܫ	-11.467
▁ܕܢܢܛܪ	-11.467
▁ܠܡܤܝܒܪܘ	-11.467
▁ܢܦܐܫܐ	-11.467
▁ܦܪܘܫܘ	-11.467
ܐܫܩܝܬܘܢܢܝ	-11.467
▁ܡܪܕܝܬ	-11.467
▁ܬܐܓܝܢ	-11.467
▁ܕܚܛܗܘܗܝ	-11.467
▁ܠܡܗܪܘ	-11.467
▁ܠܡܠܘܗܝ	-11.467
▁ܫܪܪܘ	-11.467
▁ܡܬܒܨ	-11.4671
ܡܘܠܕܗ	-11.4671
ܥܙܩܬ	-11.4671
ܠܘܩܝܐ	-11.4671
▁ܕܢܨܪܝܐ	-11.4671
ܬܚܬܪܘ	-11.4671
▁ܘܫܘܠܡܐ	-11.4671
▁ܬܦܪܫ	-11.4671
▁ܘܙܪܥ	-11.4671
▁ܪܬܚ	-11.4671
ܒܘܠܘܤ	-11.4671
▁ܘܡܢܫܩ	-11.4671
▁ܘܓܫ	-11.4671
ܡܒܨܪ	-11.4672
▁ܠܡܤܬ	-11.4672
▁ܐܫܬܦܥ	-11.4672
▁ܘܐܬܪܕܝ	-11.4672
▁ܕܚܕܪܝܗܝܢ	-11.4672
▁ܕܝܩܕܢܗ	-11.4672
▁ܘܨܝܕ	-11.4672
)	-12.4668
4	-12.4668
5	-12.4668
9	-12.4668
:	-12.4668
