<pad>	0
</s>	0
<unk>	0
,	-2.68532
.	-3.6916
▁	-4.24042
:	-4.40363
;	-4.44831
▁“	-4.49542
▁u	-4.70284
ni	-4.76581
▁e	-4.7899
▁na	-4.80769
a	-4.88961
yo	-5.02345
▁i	-5.07097
▁ba	-5.09226
.”	-5.11113
▁o	-5.13002
-	-5.19661
▁ukuba	-5.19697
▁ku	-5.21598
▁wa	-5.24811
▁ukuthi	-5.37894
▁ngokuba	-5.41233
ke	-5.42701
e	-5.46144
▁a	-5.51835
▁uku	-5.52067
nga	-5.52149
▁Kepha	-5.53482
▁wathi	-5.54739
▁kepha	-5.5786
le	-5.58263
la	-5.58607
na	-5.59318
▁aba	-5.61054
zi	-5.64143
▁ngi	-5.66866
▁kuye	-5.68872
si	-5.70207
▁ni	-5.70369
▁be	-5.70419
▁si	-5.70682
li	-5.72529
ku	-5.72845
?	-5.77669
o	-5.77728
se	-5.79338
▁Ngokuba	-5.80244
ba	-5.80271
▁U	-5.81235
m	-5.82131
▁no	-5.82552
n	-5.85046
wa	-5.93571
▁ng	-5.98838
▁oku	-5.99128
▁kubo	-6.0158
ne	-6.02325
ka	-6.03929
▁uJesu	-6.05061
▁uma	-6.08437
▁uNkulunkulu	-6.08475
lo	-6.09177
▁ne	-6.12143
▁kwa	-6.13156
ze	-6.15627
za	-6.1763
▁n	-6.19657
▁bonke	-6.19687
▁khona	-6.20134
we	-6.21004
yi	-6.21192
▁nga	-6.22224
▁ya	-6.22691
▁kini	-6.23334
▁‘	-6.25631
u	-6.26676
▁kodwa	-6.26985
sa	-6.27158
▁noku	-6.29292
▁ngoku	-6.31251
▁konke	-6.34251
?”	-6.35426
▁ukuze	-6.3659
be	-6.38563
▁ka	-6.39523
kho	-6.43892
▁nge	-6.44816
thi	-6.4579
ya	-6.46093
▁lokho	-6.46344
▁noma	-6.46627
ma	-6.48531
mi	-6.48966
enxa	-6.5164
▁Ba	-6.52883
▁bathi	-6.53479
bi	-6.5393
▁kaNkulunkulu	-6.5466
▁esi	-6.54946
i	-6.56461
▁zi	-6.56624
▁ngo	-6.56948
▁sa	-6.58895
▁ezi	-6.59217
nye	-6.60579
ngi	-6.60761
lwa	-6.62168
▁lapho	-6.64692
▁kwe	-6.65655
Jesu	-6.66389
▁kanye	-6.66399
bu	-6.66675
so	-6.67202
U	-6.67754
hla	-6.68213
▁Ngakho	-6.70382
▁kube	-6.70501
▁lokhu	-6.70681
▁yakhe	-6.7109
ngena	-6.72591
▁yena	-6.72999
fika	-6.74361
nge	-6.75539
thanda	-6.7559
▁umuntu	-6.76076
▁yi	-6.76193
▁kwaba	-6.76387
▁li	-6.76949
zwa	-6.7937
▁futhi	-6.82093
▁nina	-6.82364
.’	-6.83268
khuluma	-6.83283
▁naba	-6.83907
▁Kwathi	-6.85571
▁eli	-6.8601
kholwa	-6.86917
phi	-6.87343
▁izwi	-6.87681
thu	-6.88489
▁mina	-6.89004
lu	-6.89386
▁phakathi	-6.89592
sho	-6.90821
▁bakhe	-6.91169
▁phambi	-6.91812
vela	-6.92413
weni	-6.93049
khona	-6.93832
▁isi	-6.93915
▁naye	-6.94225
▁kwakhe	-6.94645
▁ye	-6.94678
bo	-6.94698
▁kakhulu	-6.97026
▁ese	-6.98057
▁kwenu	-6.99443
tha	-7.0015
▁phezu	-7.00187
▁iNkosi	-7.00563
▁yini	-7.01297
▁za	-7.01342
fa	-7.02188
bona	-7.02988
the	-7.0367
▁ngithi	-7.04031
hle	-7.04741
pha	-7.05318
▁zonke	-7.05771
▁izi	-7.05899
▁A	-7.06898
funa	-7.08183
▁waba	-7.08184
ngo	-7.08291
▁Khona	-7.08916
▁I	-7.09119
▁se	-7.09697
Nkosi	-7.10297
▁kimi	-7.10798
▁kwabo	-7.12764
▁owa	-7.13628
▁uya	-7.13901
▁lo	-7.14257
▁abe	-7.14334
▁babe	-7.15017
hamba	-7.15997
▁y	-7.16069
▁uyaku	-7.16278
▁Wa	-7.16308
▁muntu	-7.1655
▁waye	-7.16785
dla	-7.17042
wu	-7.17275
▁um	-7.17349
hlala	-7.18036
▁kuNkulunkulu	-7.19371
me	-7.20251
▁nalowo	-7.21753
ko	-7.21991
▁enga	-7.22387
wo	-7.22388
kha	-7.22429
▁we	-7.23355
N	-7.23465
▁Kristu	-7.24189
▁Uma	-7.24492
▁ko	-7.2457
ngu	-7.25089
▁aku	-7.27202
▁phansi	-7.27235
kwazi	-7.27641
▁ama	-7.27879
▁njengalokh	-7.28166
▁la	-7.2818
▁nani	-7.28224
▁lu	-7.28345
ye	-7.28436
mva	-7.28463
mbe	-7.28625
ki	-7.2909
▁nxa	-7.29109
▁wena	-7.2944
▁nami	-7.29526
▁angi	-7.30073
phuma	-7.3098
▁omunye	-7.32317
kwa	-7.33049
▁ngakho	-7.33156
zwe	-7.33493
mu	-7.3352
▁nabo	-7.33965
▁em	-7.34719
▁lakhe	-7.36077
▁kuze	-7.36805
▁ezulwini	-7.36832
▁kuwe	-7.3693
▁abanye	-7.37599
ile	-7.37902
▁abafundi	-7.39042
▁ninga	-7.39573
▁Ku	-7.39856
▁Wathi	-7.4044
▁lowo	-7.40721
▁N	-7.40992
▁abantu	-7.4121
khulu	-7.41438
leyo	-7.4149
▁yami	-7.4166
kwe	-7.41919
khu	-7.4205
▁aka	-7.42335
▁kuphela	-7.42905
▁nezi	-7.43222
▁njalo	-7.44595
zo	-7.45409
▁ngaye	-7.45673
A	-7.46493
▁asi	-7.47309
phe	-7.47692
▁engi	-7.47956
hlezi	-7.48007
▁ani	-7.48687
▁ngiya	-7.4979
▁zakhe	-7.49854
I	-7.50066
eni	-7.50445
lowo	-7.50951
fanele	-7.51543
▁eni	-7.5156
▁iNdodana	-7.51985
M	-7.52075
▁masinyane	-7.52587
▁omkhulu	-7.52644
khonza	-7.52921
▁yethu	-7.53717
f	-7.53876
▁kwami	-7.54139
▁ngokuthi	-7.55032
tho	-7.55057
▁O	-7.55444
zaku	-7.55496
▁yilowo	-7.55603
▁ngu	-7.55643
▁uKristu	-7.55683
▁wam	-7.56133
khuleka	-7.56183
▁manje	-7.56465
kwenza	-7.56559
▁njengokuba	-7.566
▁lutho	-7.56723
▁E	-7.57478
▁ze	-7.58599
▁nguye	-7.58869
zwi	-7.59174
lele	-7.59378
phendula	-7.5959
lwe	-7.59898
▁ababe	-7.60059
▁eJerusalema	-7.6058
▁Kodwa	-7.61587
vu	-7.62776
▁w	-7.63093
▁kuyo	-7.63464
▁oNgcwele	-7.63596
qa	-7.63686
▁anga	-7.64152
▁thina	-7.64677
ela	-7.64833
▁bazalwane	-7.6504
▁uMoya	-7.65063
▁eku	-7.65295
,”	-7.6555
▁yakho	-7.65887
▁s	-7.66953
▁le	-7.67035
kile	-7.67348
▁ethi	-7.67394
▁Jesu	-7.67553
▁yoku	-7.67801
▁yomuntu	-7.67956
▁ezweni	-7.67967
▁ngiyaku	-7.68225
ng	-7.69037
▁kanjani	-7.69064
mba	-7.69144
hl	-7.69199
▁wakhe	-7.69315
khe	-7.69811
yaku	-7.70114
▁ayi	-7.70125
▁uPawulu	-7.70156
▁Ngalokho	-7.70286
njalo	-7.70523
▁l	-7.70662
▁bam	-7.70894
▁labo	-7.71161
yakuba	-7.71318
▁likaNkulunkulu	-7.71344
thiwa	-7.71466
nza	-7.71529
▁wami	-7.72077
▁yonke	-7.72476
▁Wayese	-7.72635
▁Wayesethi	-7.72692
melwe	-7.72964
▁waphendula	-7.74208
muntu	-7.74708
▁sakhe	-7.74923
s	-7.75212
fundisa	-7.75261
▁loku	-7.75331
▁sebe	-7.75399
▁izwe	-7.75745
beka	-7.76364
▁kulo	-7.76545
▁nase	-7.77082
▁kanjalo	-7.77356
▁kwakho	-7.7751
▁kwaku	-7.77615
▁igama	-7.77725
▁yathi	-7.77917
Israyeli	-7.78395
shumayela	-7.78438
▁endlini	-7.78474
,’	-7.78835
▁ngaphandle	-7.78865
Nkulunkulu	-7.78919
▁abaningi	-7.78964
nde	-7.79093
▁imi	-7.7926
▁eNkosini	-7.79644
▁koku	-7.79674
Ngi	-7.79723
biza	-7.79789
▁yenu	-7.80903
▁bayaku	-7.8097
▁uzaku	-7.80984
vuka	-7.81156
▁kukhona	-7.81189
▁Na	-7.81307
su	-7.81923
▁nambili	-7.82148
▁wethu	-7.82649
▁zabo	-7.82811
▁munye	-7.83081
▁Ngi	-7.83163
▁wo	-7.83248
bani	-7.83437
▁lonke	-7.83452
Ku	-7.8375
▁umthetho	-7.84059
gcina	-7.84175
yala	-7.84218
▁okukhulu	-7.84558
qonda	-7.8479
qala	-7.85253
sha	-7.85681
muka	-7.85918
leli	-7.86059
▁kwabafileyo	-7.86085
lokhu	-7.86093
buye	-7.86267
gama	-7.86481
▁naku	-7.86789
▁okuhle	-7.87302
▁zenu	-7.87387
▁ivangeli	-7.87471
mashumi	-7.87748
nika	-7.88122
dwa	-7.88211
g	-7.88618
Abrahama	-7.88727
iwe	-7.89135
c	-7.89142
hlu	-7.89317
▁nokuthi	-7.89499
▁kukaNkulunkulu	-7.90357
dle	-7.90525
▁wayese	-7.90574
▁siya	-7.90594
▁abaJuda	-7.90608
mazi	-7.90978
thuma	-7.911
swa	-7.91152
Ni	-7.91355
▁emhlabeni	-7.91486
Lo	-7.91496
thela	-7.91649
▁baba	-7.9221
▁soku	-7.92271
▁ma	-7.9236
▁waya	-7.9269
▁baya	-7.92812
▁awu	-7.92866
▁ngalo	-7.92998
▁Nga	-7.93122
▁lami	-7.93202
▁amandla	-7.93247
nyama	-7.93261
▁z	-7.93267
S	-7.93806
ningi	-7.9407
▁abakhulu	-7.94948
de	-7.95159
fumana	-7.95474
ngcwele	-7.95536
du	-7.9554
O	-7.95756
▁ngezwi	-7.95995
▁lapha	-7.96306
z	-7.96406
▁nang	-7.96652
▁nokuba	-7.96713
▁ethempelini	-7.97247
▁olu	-7.97278
▁uPetru	-7.97403
▁maka	-7.97583
Si	-7.97739
▁abo	-7.97744
lelo	-7.98139
ndlu	-7.98313
▁uqobo	-7.98736
▁imisebenzi	-7.98777
▁isikhathi	-7.9914
phila	-7.99141
▁umbuso	-7.99252
▁njengo	-7.99417
▁onga	-7.99513
▁lwe	-7.99547
lela	-7.99575
sebenzi	-7.99795
▁Yi	-8.00064
▁bethi	-8.00268
▁ngani	-8.00374
▁—	-8.01789
thatha	-8.01852
▁isixuku	-8.02148
▁kuKristu	-8.02615
tshe	-8.02743
▁ngaba	-8.02765
▁kw	-8.04672
▁laba	-8.04823
!	-8.04932
mbi	-8.05075
Kepha	-8.05075
▁Ese	-8.05331
cela	-8.05371
vuma	-8.05445
thokoza	-8.05642
▁yabo	-8.06175
▁wakho	-8.06293
minyaka	-8.06383
ndi	-8.0671
k	-8.07001
▁umusa	-8.07238
sh	-8.07253
Uma	-8.0732
▁nathi	-8.07357
kuzwa	-8.07494
mandla	-8.07628
da	-8.07654
khala	-8.07739
ga	-8.08201
▁wonke	-8.08222
fakaza	-8.08314
▁bheka	-8.08337
amazwi	-8.08613
mo	-8.08668
Yi	-8.08741
sile	-8.08792
▁banga	-8.08959
▁niyaku	-8.09036
▁ukuphila	-8.091
▁uthi	-8.09119
siye	-8.09391
▁wazi	-8.09466
fike	-8.09854
▁nonke	-8.09997
▁nibe	-8.10065
▁Kwa	-8.10389
di	-8.10762
▁ukudla	-8.1088
lezo	-8.11172
▁yo	-8.11264
bonile	-8.11413
▁lwa	-8.11462
▁njenga	-8.11493
▁sonke	-8.11583
K	-8.1159
▁k	-8.11784
▁”	-8.11858
Ndodana	-8.12072
ngazi	-8.12451
▁sesi	-8.1282
bulala	-8.12832
▁unga	-8.12994
▁kuqala	-8.13282
▁ngosuku	-8.13367
ngene	-8.13395
▁nguNkulunkulu	-8.13537
qo	-8.13672
▁uBaba	-8.13721
▁kwethu	-8.13724
▁indoda	-8.13735
▁izinsuku	-8.13776
▁kahle	-8.13778
▁kukho	-8.13893
ngaba	-8.13894
▁esa	-8.13911
ngathi	-8.14433
khanda	-8.14553
▁kuwo	-8.14598
▁elikhulu	-8.1477
▁indodana	-8.15406
▁kungabi	-8.15527
▁bona	-8.16008
▁zinto	-8.16033
qinisile	-8.16059
fana	-8.16149
sindiswa	-8.16817
▁kubantu	-8.16912
suka	-8.1707
E	-8.17149
hlanganyel	-8.17185
q	-8.17386
▁Bathi	-8.1762
bafundi	-8.17693
▁onke	-8.17785
▁sikhathi	-8.17958
▁okwa	-8.17987
▁ukukholwa	-8.18312
fikile	-8.18544
!”	-8.18642
▁zoku	-8.18701
▁Kuthe	-8.18829
gcwele	-8.18909
▁enye	-8.18911
mthetho	-8.18954
▁kunge	-8.19058
tsha	-8.19071
▁ingelosi	-8.19243
▁bami	-8.19647
moya	-8.20246
▁nesi	-8.20318
shiya	-8.20496
nikela	-8.21107
zwile	-8.21204
andleni	-8.21284
ngelosi	-8.21704
▁emi	-8.21908
khipha	-8.22193
dlula	-8.22392
▁aye	-8.22513
▁nangoku	-8.22808
ho	-8.22873
▁so	-8.22969
Johane	-8.23085
▁lakho	-8.23631
nze	-8.2364
gu	-8.23792
▁eziningi	-8.24497
lunga	-8.24568
▁Bheka	-8.24658
▁namandla	-8.24802
▁phakade	-8.25022
▁kuyi	-8.25095
namandla	-8.25194
▁uyi	-8.25304
munye	-8.25334
▁enda	-8.25758
▁esikhulu	-8.25798
▁ngiku	-8.25969
labo	-8.26073
phela	-8.26245
▁amabili	-8.26259
▁emzini	-8.26265
▁sobukhosi	-8.26266
▁njenge	-8.26497
▁abanga	-8.2662
▁kinina	-8.27072
▁nguku	-8.27087
▁woku	-8.27311
▁kungathi	-8.27338
▁K	-8.27386
ngeni	-8.27719
baJuda	-8.27754
thwa	-8.28085
landela	-8.28217
▁eziyishumi	-8.28257
▁kun	-8.28331
mvu	-8.28403
busi	-8.28406
▁amehlo	-8.28445
buza	-8.28591
sebenza	-8.28705
▁ngalokho	-8.28774
fi	-8.28777
▁niya	-8.28788
lesi	-8.28861
▁othile	-8.28921
▁owaye	-8.29419
▁seku	-8.2942
▁ukufa	-8.29671
kubona	-8.29733
ando	-8.29779
thumela	-8.30247
hlobo	-8.30299
mukela	-8.30439
▁benga	-8.30714
▁kuthi	-8.30725
▁nawe	-8.30736
▁ngase	-8.30908
Ba	-8.31082
nda	-8.31706
▁mhla	-8.31962
▁inkosi	-8.32071
▁base	-8.32262
nto	-8.32425
▁okuphakade	-8.32516
lile	-8.32561
▁abantwana	-8.32766
▁ngokukholwa	-8.33172
▁en	-8.33283
▁funa	-8.33302
memeza	-8.33331
▁kunga	-8.33451
khulume	-8.33814
r	-8.34031
▁ubu	-8.34155
musa	-8.34173
busisiwe	-8.34207
▁egam	-8.34246
kwenze	-8.34442
buthakathaka	-8.34509
fun	-8.34592
letha	-8.34694
▁iqiniso	-8.34785
Juda	-8.3484
▁kithi	-8.35054
▁indlu	-8.3541
kini	-8.35475
▁umoya	-8.35546
Simoni	-8.3558
▁abayi	-8.35619
sezulwini	-8.36075
mbona	-8.36426
ce	-8.36583
▁eziyisikhombisa	-8.36683
phenduka	-8.36733
▁kwalokho	-8.36765
▁ngaphambili	-8.36787
▁ababili	-8.36893
yazi	-8.36909
▁Be	-8.37303
hlale	-8.37429
▁nginga	-8.37733
bantwana	-8.37778
▁ngokwe	-8.37782
themba	-8.37814
▁sibe	-8.38524
sizi	-8.38711
nje	-8.3885
sondela	-8.3888
▁am	-8.38989
▁owesifazane	-8.39155
▁weNkosi	-8.39173
yise	-8.39174
zinsuku	-8.39181
▁kulotshiwe	-8.39303
hambe	-8.39489
▁m	-8.39575
▁Nkosi	-8.39738
bonga	-8.4017
▁lona	-8.40236
▁sami	-8.404
▁nange	-8.40469
thempeli	-8.40526
▁wayi	-8.40536
▁wabo	-8.40821
▁ali	-8.41171
▁ngoMoya	-8.41313
▁yebo	-8.41579
muzi	-8.42044
nziwe	-8.42112
swe	-8.4213
▁bu	-8.42135
lula	-8.42291
d	-8.42541
▁bayi	-8.42576
sikhathi	-8.42624
mbethe	-8.42782
▁lezo	-8.4334
mhlophe	-8.43504
zinkulungwane	-8.43504
▁esiphambanweni	-8.43504
▁umzimba	-8.43504
Bheka	-8.43536
▁leNkosi	-8.43699
▁izono	-8.43736
baningi	-8.43801
▁Ngase	-8.43991
▁wangena	-8.44058
▁ena	-8.44111
▁wazal	-8.44117
Moya	-8.44407
▁uJohane	-8.44621
▁bakho	-8.44687
Mose	-8.44793
busweni	-8.45033
▁nje	-8.45076
ny	-8.4523
kuqala	-8.45534
▁nazi	-8.45736
▁amadoda	-8.4575
▁Kanjalo	-8.45885
bonakala	-8.45939
▁in	-8.45958
▁bazi	-8.45971
muke	-8.45984
▁izingubo	-8.46015
nhliziyo	-8.46043
ti	-8.46216
ngakholwa	-8.4643
▁sasi	-8.46488
bheka	-8.46923
Kwase	-8.47037
baFarisi	-8.47063
▁yayo	-8.4725
mbuso	-8.47409
▁Ngiya	-8.47476
▁ube	-8.47582
▁zo	-8.47637
▁ema	-8.47748
lungile	-8.47883
▁ezinga	-8.47961
beni	-8.48141
▁kaba	-8.48193
▁singa	-8.48235
▁beza	-8.48242
file	-8.48261
shilo	-8.48324
Wena	-8.48336
▁wezulu	-8.48387
▁ibandla	-8.48619
▁akakho	-8.48793
phatha	-8.4896
leni	-8.4904
▁akhe	-8.49201
hlela	-8.49277
lelwa	-8.4943
▁eya	-8.4944
ngekho	-8.49441
isa	-8.49553
ge	-8.49776
▁njeng	-8.49859
▁nanga	-8.50108
baphostoli	-8.50476
▁No	-8.50724
▁Sebe	-8.50929
qonde	-8.50938
▁izandla	-8.51042
▁sikaNkulunkulu	-8.51132
▁umzalwane	-8.51135
▁nithi	-8.51148
baba	-8.51293
hi	-8.51317
ezinyawo	-8.51616
xa	-8.51712
pho	-8.52461
kazi	-8.52501
hora	-8.52762
ndle	-8.52818
lalela	-8.52906
kela	-8.5293
J	-8.53359
hlambalaza	-8.53388
phonsa	-8.53388
▁Bon	-8.53422
kuthula	-8.53514
?’	-8.53549
Mfundisi	-8.53552
▁omuhle	-8.53569
▁kalokhu	-8.53723
Li	-8.5373
▁ize	-8.53742
▁akukho	-8.53959
nike	-8.54026
phika	-8.54073
▁yona	-8.54102
▁Ni	-8.5425
ndaba	-8.54301
phansi	-8.54542
▁zami	-8.54804
▁es	-8.54834
▁kuzo	-8.54985
vi	-8.55089
thandekayo	-8.55171
nya	-8.55309
▁nango	-8.55742
limi	-8.55768
▁uYise	-8.56024
bekezela	-8.56026
oko	-8.56097
zile	-8.56108
▁babo	-8.56126
▁Futhi	-8.56201
▁iyaku	-8.56368
▁wasi	-8.57398
abapristi	-8.57543
sixuku	-8.58092
t	-8.58445
▁kwathi	-8.58492
zelwe	-8.58597
suku	-8.58655
ngcebo	-8.58723
ncane	-8.58732
thele	-8.58874
▁njengoku	-8.58901
▁lokuthi	-8.59082
yiNdodana	-8.59268
▁inkazimulo	-8.59292
▁ukulunga	-8.59296
▁azi	-8.59409
▁zakho	-8.59515
▁kubafundi	-8.59556
▁ngubani	-8.59617
sela	-8.59651
▁nom	-8.59723
kh	-8.59917
sokunene	-8.59973
Ngiqinisile	-8.60062
nkosi	-8.60259
ta	-8.60351
saba	-8.60421
▁ngayo	-8.6053
khanya	-8.60664
▁ngesi	-8.60843
▁wahlala	-8.60934
▁lithi	-8.61212
phezu	-8.61243
thole	-8.61293
lizwa	-8.61362
ngabi	-8.61472
▁izithelo	-8.61501
go	-8.61586
▁kaKristu	-8.61617
▁wabona	-8.61627
▁njengaba	-8.61668
▁izixuku	-8.61671
▁akusi	-8.61952
zibonga	-8.6211
nyeni	-8.62115
zalwa	-8.62185
▁kuyaku	-8.6251
onke	-8.62559
▁int	-8.6262
siza	-8.62801
▁kuya	-8.62949
baprofethi	-8.63095
▁nokho	-8.63118
kude	-8.63134
x	-8.63342
nikwa	-8.63388
Mariya	-8.63428
kusho	-8.63433
zulu	-8.63475
▁okubi	-8.63501
ph	-8.64089
w	-8.64153
mangala	-8.64165
▁eng	-8.6431
Filiphu	-8.64357
▁emkhunjini	-8.64357
▁ehlane	-8.64371
▁ngama	-8.64383
▁namalunga	-8.64384
▁kuba	-8.64394
ngabe	-8.64439
▁inceku	-8.64769
▁enkulu	-8.64809
▁zethu	-8.65104
▁othi	-8.65156
▁kuso	-8.65198
▁isizwe	-8.65207
▁amane	-8.65219
nazi	-8.6531
funda	-8.65389
j	-8.65416
thile	-8.65514
mpumputhe	-8.65543
▁weza	-8.6555
ra	-8.65651
▁obu	-8.65901
▁ngawo	-8.65906
▁bem	-8.66467
yisa	-8.66618
Th	-8.66637
hlupheka	-8.6718
▁ekudleni	-8.67299
omzimba	-8.67313
esono	-8.67345
owenza	-8.67556
thathu	-8.67589
▁wayesethi	-8.67638
▁yayisi	-8.6764
▁nokuthula	-8.67642
zonda	-8.67777
▁abangcwele	-8.68054
▁inga	-8.68352
▁ngini	-8.68437
▁yimi	-8.68463
▁yayi	-8.68485
nj	-8.68547
nani	-8.68771
Mina	-8.68819
kusukela	-8.68819
njeng	-8.69028
▁izin	-8.69055
nkazimulo	-8.69119
▁siyi	-8.6912
▁makub	-8.69577
bela	-8.6971
kuphila	-8.70187
▁nabafundi	-8.70232
seGalile	-8.70328
phulukisa	-8.70328
▁ezintathu	-8.70329
Eliya	-8.70329
▁bodwa	-8.70358
▁ngizaku	-8.7042
▁umfowabo	-8.70456
▁izinto	-8.70463
khumbula	-8.70513
▁abaprofethi	-8.70773
zisa	-8.70813
ise	-8.71022
faka	-8.71094
manga	-8.71142
lotshiwe	-8.7128
l	-8.7133
▁b	-8.71343
umpristi	-8.71376
kaNkulunkulu	-8.71397
▁okunga	-8.7141
ri	-8.71482
▁wamuka	-8.7158
lani	-8.71598
▁ngize	-8.7161
▁zwi	-8.71624
▁yibo	-8.71768
bele	-8.71927
nqa	-8.72164
▁ebe	-8.72227
▁eza	-8.72297
▁uyise	-8.72307
lisa	-8.72318
▁nama	-8.72562
mise	-8.72646
bamba	-8.72832
▁lesi	-8.73331
nxusa	-8.73453
guqu	-8.73454
▁isono	-8.73454
▁elwandle	-8.73455
▁kwabantu	-8.73482
▁unina	-8.73628
▁isandla	-8.73647
▁Kwakukhona	-8.73741
▁ngamandla	-8.7385
▁uthando	-8.73866
phuza	-8.74045
vula	-8.74096
Maye	-8.74223
▁umprofethi	-8.74256
thwe	-8.74398
▁Aba	-8.74702
▁Ng	-8.74753
▁usuku	-8.74787
▁waqala	-8.74806
buka	-8.74883
▁ngaso	-8.75042
nakho	-8.75066
mpristi	-8.75078
▁ezine	-8.7521
▁zaba	-8.75248
busa	-8.753
▁ungu	-8.75328
boni	-8.75334
phathi	-8.75465
leka	-8.7548
ndoda	-8.75533
▁zinsuku	-8.75576
▁amanga	-8.75624
sinkwa	-8.7615
▁Bhekani	-8.76199
▁ngezi	-8.76239
khulek	-8.76364
P	-8.76556
qinise	-8.76559
▁Yena	-8.76679
▁eGalile	-8.76679
▁enhliziyweni	-8.76679
tu	-8.76683
▁umyalo	-8.76738
khombisa	-8.76794
dli	-8.76933
▁lawo	-8.77022
▁wakhuluma	-8.77053
▁izulu	-8.77395
▁kambe	-8.77446
▁ez	-8.77792
▁suku	-8.77882
▁siyaku	-8.77936
langa	-8.77943
▁leyo	-8.77965
▁umuzi	-8.77995
▁kule	-8.78012
zanga	-8.78049
▁ukum	-8.78317
▁uba	-8.78358
▁bhekani	-8.78398
▁Ngiqinisile	-8.78532
▁pho	-8.78567
▁sithi	-8.78617
▁ngami	-8.78627
▁ifa	-8.7865
▁nakho	-8.79004
tsh	-8.79021
hambi	-8.79125
leso	-8.79274
nitshela	-8.79318
makhosi	-8.79622
nzalo	-8.79796
▁zwe	-8.79944
▁ukukhuluma	-8.80012
profetha	-8.80013
▁okungukuthi	-8.80013
▁ethuneni	-8.80013
zela	-8.80065
▁lwakhe	-8.80106
▁UPetru	-8.80137
▁ezimbili	-8.80152
▁izingelosi	-8.80169
▁naseku	-8.80252
▁ngiyi	-8.80266
mnika	-8.80268
▁abayishumi	-8.80269
Angi	-8.80326
phethe	-8.80352
▁abazalwane	-8.80353
▁indlela	-8.80512
▁noJohane	-8.80539
▁ngakwe	-8.80567
phakathi	-8.80633
▁isinkwa	-8.80673
▁naphakade	-8.80729
sivumelwano	-8.80784
khwe	-8.80826
▁noNkulunkulu	-8.80829
lutho	-8.80921
gubani	-8.8094
sazi	-8.8097
fundiso	-8.81505
lelwe	-8.8151
bhapathiza	-8.81605
B	-8.81635
linga	-8.81672
lungis	-8.8173
▁ngibona	-8.81974
▁masi	-8.82054
yeka	-8.82074
kithi	-8.82698
qondi	-8.82905
▁athi	-8.82929
H	-8.83448
▁esihlalweni	-8.83461
▁ekukholweni	-8.83461
▁kanti	-8.83461
nqoba	-8.83463
Madoda	-8.83471
▁engena	-8.83472
qinisa	-8.83479
sabatha	-8.83483
▁kwabezizwe	-8.83492
ngalaleli	-8.83495
▁ngesandla	-8.83515
▁Waba	-8.83522
mfazi	-8.83614
▁emihle	-8.83634
▁umsebenzi	-8.83645
▁ngemisebenzi	-8.83724
▁amademoni	-8.83741
▁lingu	-8.83939
▁kwase	-8.84005
mpi	-8.84106
lahla	-8.84162
lahle	-8.84293
▁yizi	-8.84334
sukuma	-8.84362
bapristi	-8.84452
misa	-8.8463
mncenga	-8.84639
phume	-8.8464
Baba	-8.84786
▁yaba	-8.84787
▁ebona	-8.84862
▁wabuye	-8.84886
laba	-8.84895
ngwa	-8.84934
▁inyama	-8.85028
vunyelw	-8.85056
butha	-8.8511
zinhliziyo	-8.85176
lweni	-8.85394
▁beni	-8.85453
▁nemi	-8.85493
emisebenzi	-8.85651
phambi	-8.85704
dumo	-8.85888
mprofethi	-8.86104
▁usi	-8.86347
▁kuka	-8.86583
▁utho	-8.86731
▁bengi	-8.86757
▁ukwenza	-8.86772
Bhekani	-8.8684
▁layo	-8.86936
lungileyo	-8.87007
▁lase	-8.8701
mafutha	-8.87032
nembeza	-8.87035
▁emhlabathini	-8.87035
seduze	-8.87041
▁entabeni	-8.87044
▁izinyawo	-8.87068
▁ngezandla	-8.87112
▁kaDavide	-8.87118
▁ubuso	-8.87258
▁ezint	-8.87311
buthana	-8.87416
fileyo	-8.87695
▁nababhali	-8.87737
▁umntwana	-8.87823
gazi	-8.87856
▁inhliziyo	-8.87942
ileyo	-8.87948
dala	-8.88
chitha	-8.88109
▁sakho	-8.88218
p	-8.88257
▁uMose	-8.88432
bufakazi	-8.88455
kufike	-8.8872
khula	-8.8889
▁iya	-8.89112
▁ukuya	-8.89356
ele	-8.89462
tshele	-8.89619
lapho	-8.89635
▁kuhle	-8.89931
ngayiku	-8.90152
qh	-8.90348
phiwa	-8.90604
sizwe	-8.90668
kuKristu	-8.90682
▁etilongweni	-8.90736
nsindiso	-8.90736
▁Lokho	-8.90742
phuze	-8.90759
▁wenu	-8.90779
hlukanis	-8.90836
mesaba	-8.9085
vuswa	-8.90863
▁mazwi	-8.90867
▁baze	-8.90979
▁abampofu	-8.9101
▁Ya	-8.9129
▁yeNkosi	-8.9132
▁igazi	-8.91401
bhubha	-8.91446
▁uSathane	-8.91594
▁udumo	-8.91701
khiphe	-8.91742
▁Yebo	-8.91742
mfanekiso	-8.91744
▁ngabo	-8.91755
phinda	-8.9176
kaMoya	-8.91803
▁wona	-8.91853
vuna	-8.92055
▁ningaba	-8.92071
▁kuJesu	-8.92151
ci	-8.92178
siwe	-8.92281
thuka	-8.92369
mangalela	-8.92572
▁seni	-8.92653
awu	-8.92658
yini	-8.92723
thola	-8.92952
mela	-8.93002
hlaka	-8.93024
vusa	-8.9308
ngaphandle	-8.93101
zange	-8.93106
▁sika	-8.93222
Ng	-8.93263
mbamba	-8.93464
▁ngokw	-8.93639
gcwalis	-8.93655
▁Ninga	-8.93926
▁wenza	-8.94005
▁Angi	-8.94145
▁uM	-8.94301
R	-8.94581
altare	-8.94582
veza	-8.94582
▁ezinhliziyweni	-8.94582
khethiweyo	-8.94582
▁ayisikhombisa	-8.94582
thethelela	-8.94583
sondele	-8.94588
▁sengi	-8.94608
abezizwe	-8.94624
funga	-8.94641
▁enhle	-8.94759
▁impela	-8.94823
▁ngesikhathi	-8.94851
▁Amen	-8.94852
enyukela	-8.9488
▁siyazi	-8.94922
keni	-8.94957
▁indawo	-8.95035
▁oyaku	-8.95148
▁ukukhanya	-8.95159
▁kuBaba	-8.95194
shaya	-8.95428
kileyo	-8.95484
▁ngazo	-8.95487
madoda	-8.95513
▁bamangala	-8.95708
Sathane	-8.95766
cala	-8.95788
ezingelosi	-8.95998
phakade	-8.96056
Kristu	-8.96135
tshela	-8.96151
▁boku	-8.96481
▁eyi	-8.96554
omhlaba	-8.96831
abatha	-8.96834
ngegama	-8.97012
ncenga	-8.97114
Ngakho	-8.97137
▁Aku	-8.97464
▁kunguku	-8.97659
busuku	-8.97674
mp	-8.97748
▁ngibe	-8.9776
▁ange	-8.9778
▁Se	-8.97801
fakazi	-8.98197
ndodakazi	-8.9835
mvusa	-8.98564
khuthazela	-8.98582
▁esinagogeni	-8.98586
▁bethu	-8.98656
▁izinkwa	-8.98668
▁ngum	-8.98759
▁ngesabatha	-8.98769
▁kuvela	-8.98838
phind	-8.98921
▁uphawu	-8.98982
▁abafileyo	-8.99002
▁imali	-8.99095
ezindlebe	-8.99208
▁uHerode	-8.99241
ayo	-8.99261
▁bakaNkulunkulu	-8.99418
bazalwane	-8.99499
▁izizwe	-8.99552
zakuba	-8.99569
▁usu	-8.99596
nguye	-8.99602
phiwe	-8.99626
▁oyi	-8.99702
▁nim	-8.99762
▁nababe	-9.0006
▁ami	-9.00105
▁itshe	-9.00228
dabul	-9.00383
▁kwezi	-9.00691
khaphela	-9.00928
▁Si	-9.012
wokuqala	-9.01383
▁waphuma	-9.01464
▁okwe	-9.017
wini	-9.01728
▁kwayo	-9.01809
mntwana	-9.01831
▁wawu	-9.0189
ndlela	-9.02364
wela	-9.02449
nceku	-9.02523
sibo	-9.02543
qiniso	-9.02549
▁ngaku	-9.02574
sila	-9.02575
melana	-9.02588
lahlwa	-9.02592
omlilo	-9.02622
bhapathizwa	-9.02749
▁enyameni	-9.02749
G	-9.02749
▁iwayini	-9.02751
▁ingubo	-9.02752
▁lukaNkulunkulu	-9.02847
▁amathathu	-9.0285
▁ndawonye	-9.02867
qin	-9.02914
soka	-9.02973
▁nomhlaba	-9.02978
▁noKristu	-9.03058
▁ngomthetho	-9.03076
▁sizukulwane	-9.0317
enze	-9.03201
▁uye	-9.0324
nguKristu	-9.0332
▁isitsha	-9.03457
▁nakanye	-9.03466
uku	-9.03494
▁abathile	-9.03543
▁uPilatu	-9.03565
;’	-9.03759
loba	-9.03796
▁yikho	-9.03929
▁bo	-9.03966
▁Pho	-9.04215
▁ukuthula	-9.04259
khetha	-9.04383
▁libe	-9.0444
▁M	-9.04451
▁kwavela	-9.04582
▁ngathi	-9.04818
hluleli	-9.04831
re	-9.04888
▁komhlaba	-9.05054
Y	-9.0515
Pho	-9.05624
▁abaku	-9.05689
demoni	-9.05847
nduna	-9.05913
▁ziyaku	-9.06041
golide	-9.06527
▁Uku	-9.06637
iswe	-9.06868
ngabantwana	-9.06902
mehlo	-9.06996
F	-9.07083
kwenzile	-9.07094
▁Khonza	-9.07097
Sawulu	-9.07097
boshiwe	-9.07101
Isaya	-9.07104
yindoda	-9.07124
▁ngokwenyama	-9.07169
▁izinceku	-9.07185
▁ngomkhumbi	-9.07197
▁kwalo	-9.07202
▁benu	-9.07245
▁komunye	-9.07257
banga	-9.07311
kakhulu	-9.07319
▁yedwa	-9.07407
▁incwadi	-9.07457
▁namuhla	-9.0746
Hambani	-9.07579
▁kaningi	-9.0766
▁Kwaku	-9.0781
dalwa	-9.07824
▁abaFarisi	-9.07856
▁Petru	-9.07895
kade	-9.08022
okwesithathu	-9.08262
▁Lokhu	-9.08288
bize	-9.08331
▁zathi	-9.08369
hlwanyela	-9.08409
▁linye	-9.08508
▁nabaFarisi	-9.08635
▁wathatha	-9.08647
nikele	-9.08668
mphendula	-9.0879
▁eba	-9.08865
▁abezizwe	-9.08925
▁enu	-9.08934
▁Mina	-9.09321
▁nakuba	-9.09388
▁wafa	-9.09521
mbuza	-9.09583
▁leso	-9.0965
Ngo	-9.09931
▁owazi	-9.09963
lukhuni	-9.10034
▁nas	-9.10078
▁ngisho	-9.10211
▁Ma	-9.10417
zazi	-9.10543
manzi	-9.10638
yenza	-9.10852
▁ab	-9.11201
phelele	-9.11236
naka	-9.11334
linda	-9.11435
thelisi	-9.11472
▁lezi	-9.11509
▁nizaku	-9.1155
▁ngemihla	-9.11624
D	-9.11641
gcwala	-9.11642
▁kwasekuqaleni	-9.11642
▁emasinagogeni	-9.11642
▁eziyisihlanu	-9.11642
▁emoyeni	-9.11642
▁endleleni	-9.11642
▁umvuzo	-9.11643
memezel	-9.11651
▁ngabe	-9.11746
thathe	-9.1181
▁emthethweni	-9.1186
▁maye	-9.11864
▁nenkazimulo	-9.11989
▁amanzi	-9.1207
ngenisa	-9.12129
▁ophilayo	-9.12225
mehl	-9.12314
kwahlulela	-9.12364
▁Qha	-9.12531
▁yiNkosi	-9.12535
dabuka	-9.12788
ntand	-9.12869
nami	-9.12961
▁maba	-9.13227
▁abu	-9.13255
▁baku	-9.13424
▁nawo	-9.13492
fundisi	-9.13717
▁ithi	-9.13941
enu	-9.13969
zizwe	-9.14151
yalo	-9.14265
abantu	-9.14734
▁lali	-9.14835
Pilatu	-9.14907
Ngokuba	-9.14934
▁nasezi	-9.14956
▁W	-9.151
ndulela	-9.15176
▁sabo	-9.15263
▁wase	-9.15338
▁use	-9.15589
mdumisa	-9.1567
amukele	-9.15745
khulula	-9.16101
gula	-9.16183
bonwa	-9.16233
ngenzi	-9.16289
Efesu	-9.16404
Isaka	-9.16406
lungisiswa	-9.16417
lungele	-9.16424
▁ngezilimi	-9.16434
▁nalokho	-9.16434
▁Sa	-9.16441
iyu	-9.16485
kwamukela	-9.16566
sobala	-9.16593
lazi	-9.16616
▁isibindi	-9.16618
▁ngin	-9.16638
hlakaniphileyo	-9.1665
▁niba	-9.16714
▁niye	-9.16724
▁Waphendula	-9.16784
bheke	-9.16807
thande	-9.16807
▁ngomusa	-9.16951
mthanda	-9.17048
▁umbhalo	-9.17064
susa	-9.17139
muzwa	-9.17168
kuzwile	-9.1724
▁kithina	-9.17257
▁ngamazwi	-9.17278
▁Le	-9.17409
▁benza	-9.17426
▁un	-9.17567
▁ndawo	-9.176
naye	-9.17684
elani	-9.17891
▁ngoJesu	-9.18149
▁Nina	-9.18168
gcine	-9.18548
philayo	-9.18763
qhube	-9.18825
▁ungo	-9.18905
▁ngangi	-9.19056
▁seli	-9.19162
▁bebona	-9.1924
khonze	-9.19266
▁yisi	-9.19751
▁yam	-9.19809
vule	-9.1994
Ngiyaku	-9.19956
lana	-9.19968
babhali	-9.20219
▁ebu	-9.20233
nyaka	-9.20313
▁sayo	-9.20489
▁obe	-9.2062
phonse	-9.20621
mlandela	-9.20625
’	-9.20637
necala	-9.20655
Wundlu	-9.20744
nquma	-9.20841
▁okuyi	-9.20846
mpofu	-9.21033
kwesaba	-9.21249
▁UPawulu	-9.21404
▁umkhumbi	-9.21404
zenzisi	-9.21404
mpande	-9.21404
▁umlomo	-9.21405
▁kungesikho	-9.21405
landisa	-9.21406
buthene	-9.21407
sindise	-9.21407
▁waseNazaretha	-9.2141
▁yalokho	-9.21414
▁likaKristu	-9.21414
▁ayisihlanu	-9.21432
▁izithombe	-9.21439
Asiya	-9.21538
lahlekelwa	-9.21573
bethelwe	-9.21573
ntaba	-9.21623
▁ngabantu	-9.21671
ezinto	-9.21673
▁mawu	-9.21722
▁izibonakaliso	-9.21753
▁isithelo	-9.21786
▁ongu	-9.21874
oze	-9.21884
yakuthi	-9.21902
▁imihla	-9.21941
▁isibonakaliso	-9.21952
▁yekhulu	-9.21984
fisa	-9.21991
▁ukubona	-9.22045
▁kwezwe	-9.22256
▁olungileyo	-9.22274
▁Noma	-9.22391
▁besaba	-9.22426
yinkosi	-9.22482
▁kweNkosi	-9.22496
▁uyakuba	-9.22592
muthi	-9.22636
▁osezulwini	-9.22837
▁ikhanda	-9.23283
kubo	-9.23297
▁zinga	-9.23408
▁bazaku	-9.23463
kanye	-9.24191
▁wakhuleka	-9.24245
sukela	-9.24316
▁akho	-9.24387
ahlulela	-9.24461
bandla	-9.24555
Uya	-9.24561
▁ethile	-9.24616
▁esinga	-9.24764
mphathi	-9.24768
vumela	-9.25063
Akakho	-9.2515
zenza	-9.25195
▁aze	-9.25241
▁kung	-9.25389
▁umhlaba	-9.25431
▁yawo	-9.2556
▁ngawe	-9.25613
nkulu	-9.25793
wesifazane	-9.25941
mali	-9.26013
thembekile	-9.26169
▁abase	-9.26171
▁kugcwalisek	-9.26202
zikhonzi	-9.26432
phambene	-9.26577
Antiyokiya	-9.26667
sishiyagalolunye	-9.26667
yingcosana	-9.26667
▁emzimbeni	-9.26667
▁noJakobe	-9.26667
▁ukuhlakanipha	-9.26667
hlushwa	-9.26667
kusindisa	-9.2667
▁ezinhle	-9.26671
▁Lowo	-9.26671
▁Ngokukholwa	-9.26693
fakazela	-9.26697
anga	-9.26698
▁nonina	-9.26765
▁alu	-9.26799
▁Omunye	-9.26813
Woza	-9.2683
lungisela	-9.26857
▁Abanye	-9.26901
▁ngegazi	-9.26908
vukile	-9.2691
zinyanga	-9.26926
▁umkakhe	-9.26993
▁ngalutho	-9.26995
ubufakazi	-9.27003
▁ezinda	-9.27065
ezimvu	-9.27079
▁nothando	-9.2709
busisa	-9.27172
▁yamandla	-9.27336
▁ngent	-9.27362
isi	-9.27436
;”	-9.27455
▁bamanga	-9.27518
dumisa	-9.27545
▁okuningi	-9.2769
khathaz	-9.27709
ndawo	-9.27828
buya	-9.27884
▁kungok	-9.27961
▁ngiye	-9.2798
induna	-9.28103
Ngiya	-9.28166
▁ithemba	-9.28221
▁nabanye	-9.2823
▁nabaprofethi	-9.28269
▁bamemeza	-9.28289
▁kubaJuda	-9.28298
▁bakholwa	-9.28419
nesibindi	-9.28497
▁nokuphila	-9.28581
kimi	-9.2861
▁kabi	-9.28944
ngithanda	-9.28959
▁kaJesu	-9.29031
▁bafika	-9.29133
jengokuba	-9.29134
▁kade	-9.29171
▁liyaku	-9.29199
Herode	-9.29238
thuba	-9.29597
ngomuso	-9.30035
thobela	-9.30068
▁muzi	-9.30262
ngane	-9.30328
seJerusalema	-9.30443
▁Wayeseba	-9.30646
Yebo	-9.30719
thandi	-9.30882
Lokhu	-9.30957
sitsha	-9.30962
▁aya	-9.31197
▁ase	-9.31303
▁nize	-9.31322
landa	-9.31403
Aba	-9.31443
sekhona	-9.31446
▁ongi	-9.31469
sikhashana	-9.31574
▁Isi	-9.31639
kholwe	-9.31647
hlali	-9.31698
bayishumi	-9.31839
▁kwesihla	-9.31984
ngcwelis	-9.32035
▁kwawo	-9.32145
▁waze	-9.32173
▁izaku	-9.32174
sishiyagalombili	-9.32223
▁ngasezinyaweni	-9.32223
▁yenkulungwane	-9.32223
shisekel	-9.32225
▁esizweni	-9.32243
madodana	-9.3226
▁ibe	-9.32263
gunya	-9.32283
▁ulaka	-9.3231
▁ozayo	-9.32314
▁niyazi	-9.32363
mkhosi	-9.32399
▁komthetho	-9.32448
▁olukhulu	-9.32464
▁amaningi	-9.3252
▁esefikile	-9.32532
hawukela	-9.3254
▁lwakho	-9.328
▁uDavide	-9.32946
▁isilo	-9.3299
phakamisa	-9.32998
▁kuthe	-9.33
▁icala	-9.33145
▁bezi	-9.33274
swela	-9.33319
▁ukuza	-9.33336
nalo	-9.33362
▁unguKristu	-9.33495
fundise	-9.33624
▁kwazo	-9.33652
feze	-9.33669
▁umfanekiso	-9.33672
▁wamemeza	-9.33682
fumananga	-9.33839
▁neye	-9.33965
▁uMariya	-9.34078
bonakaliswa	-9.34121
▁nokukholwa	-9.3447
▁baye	-9.3447
Niya	-9.35022
ngcono	-9.35191
▁kungaba	-9.35416
dlule	-9.35604
▁ekhona	-9.35605
▁engcwele	-9.35636
▁ngiba	-9.35876
▁phambili	-9.3593
L	-9.36174
▁ningabi	-9.36247
phenduk	-9.36296
Awu	-9.36311
bha	-9.36357
njani	-9.36358
▁iyi	-9.36699
bulale	-9.36926
▁wahamba	-9.3693
INkosi	-9.37121
uma	-9.37176
ncinyane	-9.37329
▁nginge	-9.37452
sibonakaliso	-9.37463
fihl	-9.37611
▁abathi	-9.37633
thethelelwa	-9.37681
bezwa	-9.37763
Barnaba	-9.37799
phikisana	-9.3791
thokozi	-9.37927
▁Yayisi	-9.37946
makhulu	-9.37962
Be	-9.38001
hawukele	-9.38105
▁ebumnyameni	-9.38105
▁kaJakobe	-9.38105
kwamukeliswa	-9.38105
▁Njalo	-9.38105
semhlabeni	-9.38105
mukisa	-9.38106
kafiki	-9.38106
thengisa	-9.38108
hlukene	-9.3811
miphefumulo	-9.3811
ntokozo	-9.3811
▁umlilo	-9.38112
gijimela	-9.38117
bulawa	-9.38128
lungisele	-9.38145
▁zabantu	-9.38153
zinhlupheko	-9.38153
thukulul	-9.38154
▁lenu	-9.3817
▁ngesibindi	-9.38172
zingela	-9.38182
shelwa	-9.38216
▁kangakanani	-9.38222
khohlisa	-9.38273
▁ngamatshe	-9.38355
▁nabantu	-9.38368
▁zikaNkulunkulu	-9.38401
khubeka	-9.38423
shumayele	-9.38446
▁isithembiso	-9.38451
▁ngenhliziyo	-9.38491
akushoyo	-9.38499
▁nabesifazane	-9.38548
dingi	-9.38592
▁elisha	-9.3862
chithe	-9.38717
Lapho	-9.38758
pheleleyo	-9.38796
▁Zi	-9.3893
▁ukuhlupheka	-9.38951
fund	-9.39057
▁abakholwayo	-9.39214
▁mkhulu	-9.39267
thokoze	-9.39456
gcwalisa	-9.39546
▁imizi	-9.39879
▁siba	-9.40009
bekwa	-9.40313
▁nabantwana	-9.40407
Z	-9.40438
ngumuntu	-9.40448
lapha	-9.40511
nele	-9.40547
ani	-9.4085
mina	-9.40924
phumele	-9.41049
▁yaso	-9.4113
nilobela	-9.41147
▁yiyo	-9.41165
vusel	-9.415
▁okw	-9.41543
▁mani	-9.42008
▁ngikhona	-9.42259
Asi	-9.42601
ngesabi	-9.427
▁bebe	-9.42743
Khona	-9.42875
hlwanyel	-9.42989
Ngizaku	-9.4305
eqiniso	-9.43271
mvelo	-9.433
▁ethanda	-9.43325
bhe	-9.43388
▁kungeng	-9.43437
zono	-9.43496
▁kayi	-9.43614
omusa	-9.43626
▁neze	-9.43735
shu	-9.4378
▁Maku	-9.43829
jabula	-9.44161
▁nenza	-9.44256
seJudiya	-9.44277
siliva	-9.44298
sayiku	-9.44323
kukhuluma	-9.44342
▁aso	-9.44352
denariyu	-9.44355
▁uJakobe	-9.44355
sigqila	-9.44355
qeda	-9.44356
mvubelo	-9.44356
sindiswe	-9.44356
thandwa	-9.44356
▁makezwe	-9.44356
zinkanyezi	-9.44358
thumele	-9.44359
mkhiwane	-9.44361
▁ongithumileyo	-9.44366
▁kolwandle	-9.44376
▁akayiku	-9.44413
miselwe	-9.44472
▁likaJesu	-9.44485
▁kwezono	-9.44489
▁eminingi	-9.44494
▁ngezikhathi	-9.4451
▁ngokwesaba	-9.44592
▁lokuqala	-9.44793
khwelwe	-9.4486
hlwa	-9.44929
Aku	-9.45013
bikela	-9.45045
ngweni	-9.4505
misile	-9.4508
▁umphefumulo	-9.45113
cele	-9.45191
▁umbusi	-9.45236
sebenze	-9.4524
▁ngenza	-9.45241
▁kulokho	-9.4525
▁wayenga	-9.45333
▁kubapristi	-9.45339
mademoni	-9.4543
omubi	-9.45444
▁Kanti	-9.45502
kwambulwa	-9.45508
okwakhulunywa	-9.45573
▁ncwadi	-9.45598
▁ahlale	-9.45619
▁ebusuku	-9.45702
▁esasi	-9.45709
▁linga	-9.4573
▁ngaphezu	-9.45772
▁abaphostoli	-9.45789
▁wema	-9.45808
▁sokuba	-9.45811
kwenziwa	-9.46037
▁besi	-9.46102
▁Baba	-9.46149
▁elinye	-9.46225
▁besa	-9.46243
thando	-9.46251
njengo	-9.46336
enziwa	-9.4639
▁onamandla	-9.46403
▁abani	-9.46404
▁omoya	-9.46447
othando	-9.46497
▁ebusweni	-9.46674
▁Siya	-9.4674
iswa	-9.46847
ngomunye	-9.46985
▁mfanekiso	-9.46996
dela	-9.47047
▁kumuntu	-9.47417
▁unamandla	-9.47482
benza	-9.47495
lala	-9.47504
▁kunjalo	-9.47533
bubele	-9.47651
▁behamba	-9.47734
phonsw	-9.47838
khuphukel	-9.4797
zaneni	-9.48123
▁ngingo	-9.48156
▁kufanele	-9.48259
ninika	-9.4844
bika	-9.48674
▁La	-9.48863
khubeki	-9.4889
bonisi	-9.49004
T	-9.49076
ngubani	-9.49419
veli	-9.49746
▁nane	-9.49808
kaBaba	-9.49938
ngqondo	-9.50058
▁lika	-9.50071
mbhalo	-9.50106
ngithumile	-9.5014
▁ababi	-9.50147
phostoli	-9.50371
▁ukhuluma	-9.50416
Ani	-9.50425
▁bese	-9.50526
mabutho	-9.50613
mnene	-9.50626
sinda	-9.50692
▁niyi	-9.50719
phuzi	-9.50905
khohli	-9.50992
2	-9.51022
Lazaru	-9.51022
mfowenu	-9.51022
shaywa	-9.51022
talenta	-9.51022
vame	-9.51022
▁eJudiya	-9.51022
Ngumuphi	-9.51022
namahloni	-9.51022
cilongo	-9.51022
▁emlilweni	-9.51022
▁kunalokho	-9.51023
▁icebo	-9.51024
Rabi	-9.51024
thukuthela	-9.51024
phuc	-9.51025
▁ngokwami	-9.51026
ziphendulela	-9.51029
▁kwenzeka	-9.51034
nkulunkulu	-9.51034
bhubhisa	-9.51043
▁abazali	-9.51055
▁asiyiku	-9.51056
kholekile	-9.51057
▁isidumbu	-9.51075
▁bukaNkulunkulu	-9.51079
▁Owesifazane	-9.51092
▁ngaphambi	-9.51101
▁ngokoku	-9.51107
ndlala	-9.51111
amanyala	-9.51157
fumani	-9.51226
▁isipho	-9.51295
▁ngangomuso	-9.51361
▁uyeza	-9.51384
▁amabandla	-9.51386
▁ngaselwandle	-9.51395
bumnene	-9.51517
▁wabanika	-9.51517
▁ngomoya	-9.51547
▁wokuthi	-9.51572
▁nodumo	-9.51605
mbeka	-9.5166
▁isikhashana	-9.5181
▁yabaJuda	-9.51811
dukisa	-9.51909
▁ekwazi	-9.52027
▁awa	-9.52047
▁ngokunjalo	-9.52155
▁bambuza	-9.52165
mnike	-9.52178
ngukukhanya	-9.52269
▁ayaku	-9.52305
▁sezi	-9.52352
▁ukwahlulela	-9.52398
▁sona	-9.52458
▁zayo	-9.5246
▁ubusuku	-9.52632
▁lokuba	-9.52827
yimi	-9.52939
▁nasema	-9.52944
▁ithempeli	-9.52983
▁nomoya	-9.53045
▁nceku	-9.53375
▁into	-9.53449
▁umka	-9.53563
Nina	-9.53715
▁uJuda	-9.53743
▁INkosi	-9.53765
wazi	-9.53838
▁Seku	-9.53857
▁uSimoni	-9.53993
▁ukuzi	-9.54006
olaka	-9.54075
▁sathi	-9.54075
▁imiyal	-9.54099
▁ngabona	-9.54153
▁nenze	-9.54329
kaSathane	-9.54343
▁babuye	-9.544
▁zibe	-9.54403
▁eyisi	-9.54491
misela	-9.54524
▁Th	-9.54579
bazi	-9.54731
obuso	-9.54851
bulo	-9.54981
hlamba	-9.5505
nishumaye	-9.55255
kuphi	-9.55293
chith	-9.55301
wamukela	-9.55344
bonayo	-9.5535
zith	-9.55387
indlalifa	-9.55506
ngasho	-9.55789
faneleyo	-9.55854
▁wath	-9.55911
Ar	-9.56437
bhubh	-9.56756
▁sizwe	-9.56824
▁baphuma	-9.5688
Davide	-9.57062
lingi	-9.57109
Wa	-9.5713
Le	-9.57194
▁sinye	-9.5729
zandla	-9.57458
zindla	-9.57497
nkemba	-9.57517
▁nokwa	-9.57634
isikhonzi	-9.57663
▁lini	-9.57677
Thimothewu	-9.57856
▁ukungena	-9.57862
▁kunokub	-9.57874
▁bakwa	-9.57899
zibonakalis	-9.57907
▁uyazi	-9.58054
elene	-9.58067
1	-9.58165
abaSadusi	-9.58165
funyanwa	-9.58165
nzuzo	-9.58165
ziphambeko	-9.58165
▁uMbhapathizi	-9.58165
▁ukungalungi	-9.58165
ngamesabi	-9.58165
zamazama	-9.58165
▁ekukhanyeni	-9.58165
▁ngemifanekiso	-9.58165
Sukuma	-9.58165
phumula	-9.58165
▁eKesariya	-9.58165
thabathe	-9.58168
▁emabandleni	-9.58173
siswini	-9.58174
lungiselwe	-9.5818
▁abakhile	-9.58187
▁lwesithathu	-9.58189
bukhali	-9.58192
mzalwane	-9.58199
ngesiso	-9.58204
zinwele	-9.58209
phumile	-9.58209
mvini	-9.58215
finyelel	-9.58217
nzima	-9.58219
sabelo	-9.58223
▁eKapernawume	-9.58262
▁nguMoya	-9.58334
kwemisebenzi	-9.58421
▁izipho	-9.58422
sezweni	-9.58427
philisa	-9.5843
nsizwa	-9.58495
▁izimvu	-9.58496
qamba	-9.58502
▁ngamanzi	-9.58506
izuze	-9.58615
▁eMakedoniya	-9.58677
▁uhlangothi	-9.58755
▁ekhaya	-9.58842
▁hamba	-9.58879
▁babone	-9.58884
▁eside	-9.58936
▁lethu	-9.58941
▁zazo	-9.58957
sendlini	-9.58989
hlangana	-9.59008
Jerusalema	-9.5908
▁abagulayo	-9.59126
▁wali	-9.5915
▁neNdodana	-9.59159
Wo	-9.59164
phendul	-9.59244
bizela	-9.593
iya	-9.5963
fumane	-9.59658
yihlo	-9.59723
▁ziya	-9.59733
ngathandi	-9.59766
▁benze	-9.59767
seGibithe	-9.59868
▁engiku	-9.59942
▁livela	-9.59948
sango	-9.59952
wamukele	-9.60136
enzo	-9.60188
betha	-9.60246
bayala	-9.6031
fanis	-9.60384
nawo	-9.60508
kungenjalo	-9.60529
lwi	-9.60606
qinisileyo	-9.60989
▁esinye	-9.61081
khulekela	-9.61192
▁ozaku	-9.61326
▁babona	-9.61331
enzile	-9.61447
mbiza	-9.61529
thwele	-9.61662
nabo	-9.61855
yiphi	-9.61866
▁ow	-9.61873
▁yilo	-9.62005
lungu	-9.62026
bethele	-9.6205
ncwadi	-9.62243
▁sokunene	-9.62334
yimpumputhe	-9.62657
bemi	-9.62657
nipha	-9.62855
luleka	-9.62899
▁ukwa	-9.62953
esabe	-9.6296
▁abakholwa	-9.63213
wehlela	-9.6332
▁Nani	-9.63425
hlanganis	-9.6349
dlulile	-9.63576
ses	-9.63617
yeni	-9.63654
▁ibi	-9.63702
▁ben	-9.63712
bambelel	-9.63931
▁awo	-9.63941
zimangaliso	-9.64154
▁eyaku	-9.6419
Qha	-9.64346
siphuza	-9.64413
seleyo	-9.64485
Ngu	-9.64533
zuza	-9.64643
Josefa	-9.64737
esibili	-9.64804
mphefumulo	-9.64931
Hamba	-9.64996
elwe	-9.65209
mkhonza	-9.6523
bekezele	-9.65278
nte	-9.65373
bhali	-9.65396
thokozisa	-9.65424
▁badla	-9.65426
▁engum	-9.65438
okulotshiweyo	-9.65513
aqondan	-9.65593
shiye	-9.65759
sinagoge	-9.65771
Andreya	-9.65857
bhujiswa	-9.65857
drako	-9.65857
mfelokazi	-9.65857
tabernakele	-9.65857
▁emuva	-9.65857
▁othandweni	-9.65857
Marta	-9.65857
obufebe	-9.65857
Festu	-9.65857
▁kungenzeka	-9.65857
shiwo	-9.65857
▁ekuphileni	-9.65857
▁iphasika	-9.65857
mqondo	-9.65858
▁bebodwa	-9.65859
▁okwenzekileyo	-9.65859
gcoba	-9.65859
▁kangaka	-9.65861
lotshwe	-9.65872
▁sikaKristu	-9.65886
lambile	-9.65891
nyiswa	-9.65893
tabeni	-9.65895
ngozini	-9.65896
▁umqhele	-9.6592
zingelwa	-9.65946
silinganis	-9.65952
Ya	-9.65968
minikelo	-9.65997
▁ngomlomo	-9.66018
mnqum	-9.66021
xway	-9.66033
shunyayelwa	-9.66039
▁sebezwile	-9.6605
▁eGibithe	-9.66053
mfundi	-9.6606
guqa	-9.66063
▁Yayisithi	-9.66069
gijima	-9.66081
yinhloko	-9.66111
▁kukaJesu	-9.66162
▁baphenduke	-9.66183
▁esihle	-9.66197
▁saba	-9.66224
▁ngempela	-9.6623
▁ezimbi	-9.66244
namathel	-9.66245
bingelela	-9.66295
▁ngomlilo	-9.6636
▁ngothando	-9.66366
bekezelela	-9.66464
▁kanje	-9.66469
▁kaSimoni	-9.66504
▁noBaba	-9.66545
▁kokukholwa	-9.66567
▁inkemba	-9.66567
▁uJosefa	-9.66807
▁ngokuthokoza	-9.66809
thenga	-9.66863
▁amakhosi	-9.66867
▁nendlu	-9.67081
▁ungubani	-9.67101
mamukela	-9.67105
▁uzakuba	-9.67127
▁nakubo	-9.67154
▁sakwa	-9.67308
▁wenze	-9.67438
▁nayo	-9.67466
embathisa	-9.67494
ngenamthetho	-9.67495
esithembiso	-9.67509
▁ilanga	-9.67544
boshwa	-9.67589
phumela	-9.67604
▁nemini	-9.67718
egazini	-9.67775
dinga	-9.67805
imbewu	-9.67846
▁njani	-9.67927
suke	-9.68052
omyalo	-9.68355
▁ezazi	-9.68382
Naku	-9.68415
amukeli	-9.6878
miso	-9.68821
lalele	-9.69123
▁ongcwele	-9.69252
▁ukuzwa	-9.69294
Ninga	-9.69296
▁nendoda	-9.69312
tsheli	-9.69334
zindawo	-9.69429
ofe	-9.6944
▁owaba	-9.6959
okungalungi	-9.69633
bopha	-9.69902
”	-9.69979
emikhawul	-9.70057
nethemba	-9.70071
▁iso	-9.70096
▁nasemi	-9.70152
Petru	-9.70217
▁lama	-9.7036
yibamba	-9.70551
isiwe	-9.70613
▁Babe	-9.70709
ntombi	-9.70916
Nami	-9.70942
ngaphakathi	-9.71006
suse	-9.71017
▁mayi	-9.7123
ukuba	-9.71581
thuli	-9.71689
▁abangena	-9.71692
ngiphe	-9.71769
▁enani	-9.71829
shumi	-9.71868
sizo	-9.72218
▁eninga	-9.72479
vangeli	-9.72488
lingwa	-9.72519
mlalela	-9.72537
Kanti	-9.72666
yakufika	-9.72666
khululekile	-9.73222
mpahla	-9.73535
mfihlakalo	-9.73536
kuye	-9.73582
▁owathi	-9.73678
▁bahamba	-9.73762
sithelo	-9.73923
belwa	-9.7408
▁ano	-9.74092
sihlanu	-9.7415
Solomoni	-9.7419
Vuka	-9.7419
daliweyo	-9.7419
hlambulula	-9.7419
hlanjululwa	-9.7419
ncekwini	-9.7419
ngaphesheya	-9.7419
nkohliso	-9.7419
ntwanyana	-9.7419
zincom	-9.7419
▁ayisithupha	-9.7419
zithembiso	-9.7419
▁imibhalo	-9.7419
langazelela	-9.7419
qhude	-9.7419
nduneni	-9.74191
thethelelwe	-9.74191
cabanga	-9.74191
ngilandele	-9.74191
▁Bazalwane	-9.74191
zingulube	-9.74192
ngumzimba	-9.74192
mninindlu	-9.74192
▁umnikelo	-9.74194
ganwa	-9.74194
▁naseNkosini	-9.74196
obumnyama	-9.74197
Inkosi	-9.74197
▁uJo	-9.742
magatsha	-9.74202
▁eyishumi	-9.74206
▁Za	-9.74207
▁Ngokunjalo	-9.74208
phelelisw	-9.74211
▁ngokwesibili	-9.74213
Levi	-9.74214
kuzenzisa	-9.74219
Hlala	-9.74221
▁Manje	-9.74232
▁senu	-9.74291
▁umyeni	-9.74292
▁nguBaba	-9.74325
▁zezulu	-9.74356
▁esixukwini	-9.74396
empela	-9.74424
▁ezinkulu	-9.74426
besilisa	-9.74439
thinta	-9.74441
▁ngiyethemba	-9.7445
▁eDamaseku	-9.74455
▁ngukuphila	-9.74494
▁ngoKristu	-9.74496
▁abangcolileyo	-9.74508
▁abesifazane	-9.74509
▁sikaJesu	-9.74514
▁bemi	-9.74516
qondileyo	-9.7452
▁kuKesari	-9.74522
▁lombuso	-9.74529
▁Yathi	-9.74562
muhle	-9.74582
▁ekuvu	-9.74616
phendukel	-9.74619
▁noBarnaba	-9.74631
▁engiyaku	-9.74658
▁njalonjalo	-9.74659
cebileyo	-9.74698
▁izisebenzi	-9.74703
▁umhawu	-9.74706
▁kathathu	-9.74707
▁ongcolileyo	-9.74707
▁negazi	-9.74747
thandile	-9.74781
▁ngubufakazi	-9.7479
▁Abant	-9.74817
▁oPetru	-9.74835
▁imfihlakalo	-9.74849
▁nabafowabo	-9.749
▁ngeqiniso	-9.74911
▁Waye	-9.74925
gcwaliseka	-9.74949
▁ingqondo	-9.75006
▁lwami	-9.7502
▁ukulahlwa	-9.7505
▁uMsindisi	-9.75058
womoya	-9.75062
▁sekuyi	-9.7507
malusi	-9.7507
okhokho	-9.75181
▁uyihlo	-9.75274
▁noMoya	-9.75301
▁bamlandela	-9.75502
▁nomunye	-9.75518
▁ngok	-9.75684
▁Ngalo	-9.75981
▁nabazalwane	-9.76002
mangalis	-9.76068
kaKesari	-9.76091
▁ngaphakathi	-9.76336
▁uhlaka	-9.76375
▁ihora	-9.76395
▁nomuntu	-9.76446
khulumile	-9.76488
▁ningabe	-9.7705
diliz	-9.77057
▁lukhuni	-9.77104
mshaya	-9.77374
owasi	-9.77398
▁omhlaba	-9.77446
▁cala	-9.77568
▁uhambe	-9.77807
tholile	-9.77905
wesibili	-9.77959
linganisa	-9.78104
duka	-9.78105
omsebenzi	-9.78158
ngokuba	-9.78489
▁embona	-9.78768
▁Esa	-9.78974
lusizi	-9.78992
▁ngiyazi	-9.79133
amagama	-9.79144
sika	-9.79266
▁zona	-9.79567
gq	-9.79874
▁Kuyaku	-9.80024
bungcwele	-9.80205
dadewabo	-9.80302
▁Aka	-9.80375
mhlabathi	-9.80488
nyawo	-9.80542
yinto	-9.80555
amatshe	-9.80606
sithembiso	-9.80818
▁engaka	-9.80888
senze	-9.81051
dabuki	-9.81324
▁nez	-9.81854
khulunywa	-9.82039
▁okwaku	-9.82306
Msindisi	-9.82339
sala	-9.8242
hlwanyelw	-9.82681
▁iz	-9.82741
zibonakaliso	-9.82819
yiz	-9.8306
nzini	-9.83162
ombuso	-9.83271
Agripha	-9.83281
Babiloni	-9.83281
Iskariyothe	-9.83281
Sidoni	-9.83281
Tomase	-9.83281
Zakariya	-9.83281
kuvele	-9.83281
phulukiswa	-9.83281
vama	-9.83281
▁Magdalena	-9.83281
▁Pawulu	-9.83281
▁isihawu	-9.83281
▁isiphambano	-9.83281
▁ubufebe	-9.83281
▁ekufeni	-9.83281
Ananiya	-9.83282
Apholo	-9.83282
chilo	-9.83282
xosha	-9.83282
abafokazi	-9.83282
duduze	-9.83282
sithunzi	-9.83282
▁ngokomthetho	-9.83282
shesha	-9.83282
sifebe	-9.83282
khonona	-9.83282
zifebe	-9.83283
hlatshelwe	-9.83283
▁omusha	-9.83284
▁Ayese	-9.83284
sawoti	-9.83285
▁phandle	-9.83286
▁bantu	-9.83286
thethelele	-9.83287
qaphele	-9.83287
mFarisi	-9.83288
khululiwe	-9.83289
▁ukwahlukana	-9.83289
▁encwadini	-9.8329
▁lwenu	-9.83294
▁okweshumi	-9.83296
philileyo	-9.83297
▁emizini	-9.83297
bongwe	-9.83297
fundiswa	-9.83297
hloniph	-9.833
▁nezoni	-9.83305
sikhubekiso	-9.83306
▁nakwaba	-9.83311
▁babantu	-9.83316
yiqiniso	-9.8333
kukhubekisa	-9.83333
▁sokwahlulela	-9.83341
vumele	-9.83368
ezinkwa	-9.83378
▁ukumbulala	-9.8338
bekiwe	-9.83389
▁umphostoli	-9.83391
▁Esakhuluma	-9.83401
fowethu	-9.83402
yihlane	-9.83407
▁kowesifazane	-9.83412
kaYise	-9.83412
lineni	-9.83418
kubongwa	-9.83439
▁yabantu	-9.83441
▁nolwandle	-9.83485
enduduzo	-9.83489
abokugcina	-9.83506
▁amalunga	-9.83635
▁ngobuso	-9.83644
▁ebandleni	-9.83656
phawu	-9.83665
▁kunoku	-9.83694
▁Wasuka	-9.83712
▁yamanzi	-9.83713
▁inxenye	-9.83753
bomvu	-9.83813
balekela	-9.83814
▁ngokuthula	-9.83825
▁nabezizwe	-9.83841
▁amabutho	-9.83875
▁kabili	-9.83882
babili	-9.83893
▁ngaleso	-9.83914
yizigqila	-9.83929
▁nobusuku	-9.83987
dliwa	-9.83997
▁impahla	-9.84006
▁uYihlo	-9.84056
▁iJerusalema	-9.84087
▁Sesi	-9.84088
qondisa	-9.84104
cindezela	-9.84108
ru	-9.84175
▁yilokhu	-9.84234
▁Thina	-9.84252
uleni	-9.84266
egolide	-9.84352
▁wakubo	-9.84354
akhiwe	-9.84407
▁kuPilatu	-9.84413
nikelwa	-9.84431
thumileyo	-9.84497
khaya	-9.84508
thembekileyo	-9.84566
▁abenza	-9.84581
▁nguJesu	-9.84605
ahlulele	-9.84672
▁yimina	-9.84708
mhlangabeza	-9.84743
▁sihambe	-9.8476
▁amakhulu	-9.84774
▁nenyama	-9.84834
abaphangi	-9.84952
▁Ababe	-9.8502
ngofakazi	-9.85248
gcin	-9.85251
amanje	-9.85339
▁okunjalo	-9.85476
▁ithole	-9.85575
enyanga	-9.85663
▁isihla	-9.85689
▁nidle	-9.8576
Ungesabi	-9.85781
▁ekuphum	-9.85854
hola	-9.85962
▁yikhona	-9.86366
▁inamandla	-9.86542
▁nohlezi	-9.86586
▁liya	-9.8662
yibona	-9.86632
qede	-9.86897
▁lolo	-9.86921
anu	-9.87014
▁kokuthi	-9.87087
thembisa	-9.87219
▁umfundi	-9.87222
▁wabonga	-9.87459
enzele	-9.87603
delela	-9.87659
▁azo	-9.8786
nq	-9.88166
ngesibo	-9.88344
umahluleli	-9.88617
▁ungow	-9.88645
khawul	-9.8878
mfundisi	-9.88925
yeki	-9.88979
lindele	-9.89056
mkhulu	-9.89159
amukeliswa	-9.89167
nezingelosi	-9.89363
▁eyayi	-9.89679
mamukele	-9.897
londa	-9.89849
ngaboni	-9.90241
wezwa	-9.90272
libo	-9.90557
geza	-9.90578
lobela	-9.90648
▁ngokufa	-9.90842
isisa	-9.91147
mpela	-9.91512
W	-9.91581
ngalokho	-9.91636
ingakhathazeki	-9.91932
Wathi	-9.92031
ngcolileyo	-9.92279
hluphek	-9.92355
bafowabo	-9.92429
ezidalwa	-9.92449
ehlisa	-9.92492
sandla	-9.92509
shisa	-9.9255
▁wayeba	-9.92587
zixuku	-9.92648
nyathel	-9.92836
ondo	-9.92854
inyoka	-9.92908
▁Besa	-9.93027
▁and	-9.93085
ngakanani	-9.93138
nkanuko	-9.93172
▁ezon	-9.93186
qhele	-9.93249
Nazaretha	-9.93268
ameva	-9.93281
bafowenu	-9.93281
bhapathizwe	-9.93281
cwebezela	-9.93281
eHayidese	-9.93281
esiHeberu	-9.93281
gqolozela	-9.93281
hlwith	-9.93281
mGreki	-9.93281
ngcola	-9.93281
zizukulwane	-9.93281
▁ekwahlulelweni	-9.93281
▁ensimini	-9.93281
▁esihogweni	-9.93281
▁imvuthuluka	-9.93281
▁inkonzo	-9.93281
▁phesheya	-9.93281
menyiwe	-9.93281
ngasoleki	-9.93281
ntanami	-9.93281
▁inkanyezi	-9.93281
▁ekulingweni	-9.93281
▁ubumnyama	-9.93282
Jopha	-9.93282
zinhlupho	-9.93282
▁edwaleni	-9.93283
▁noyedwa	-9.93283
▁emphakathini	-9.93283
▁izikhathi	-9.93283
bongeka	-9.93287
zicathulo	-9.93292
▁kwelinye	-9.93293
▁emkhosini	-9.93295
notho	-9.93298
▁nakalokhu	-9.93298
▁sekupheleni	-9.933
▁intombazana	-9.93301
▁Yon	-9.93301
bubula	-9.93306
▁ezizweni	-9.93314
▁emanzini	-9.93324
▁ungumprofethi	-9.9333
▁mihla	-9.93338
▁ayishumi	-9.93341
Akhaya	-9.93349
▁izoni	-9.93349
bonakalisiwe	-9.93362
Adam	-9.93404
▁laseJudiya	-9.93409
olwandle	-9.93414
▁obala	-9.93419
▁Labo	-9.93437
▁muni	-9.9346
khulumisa	-9.93474
▁Esefikile	-9.93475
▁anothi	-9.93478
▁ngevangeli	-9.93478
mbuz	-9.93478
▁akubanga	-9.93483
▁nezinhlanzi	-9.93491
muhla	-9.93493
▁ngemvelo	-9.93554
▁namanje	-9.93602
▁nokuphikisana	-9.93622
phuzisa	-9.93634
wenze	-9.93701
dakwa	-9.93707
▁noThimothewu	-9.9372
thengisi	-9.93732
▁umakhelwane	-9.93735
▁Maka	-9.93821
fundile	-9.93829
▁nababusi	-9.93874
ezithelo	-9.93886
▁umhlambi	-9.93921
▁ukwahlulelwa	-9.93937
vukela	-9.93946
▁nikholwe	-9.93956
giyanincenga	-9.93956
zikhali	-9.93964
bamukele	-9.93973
▁kuPetru	-9.94002
▁kaMose	-9.94067
▁kunabo	-9.94143
▁kwabangcwele	-9.94159
▁izitho	-9.94186
ngumoya	-9.94261
▁kwenyama	-9.94281
▁wezwe	-9.94301
▁ukusoka	-9.94361
▁abalungileyo	-9.94408
▁ngizakuku	-9.94449
▁esisha	-9.94517
▁sokuthi	-9.9452
yizinceku	-9.94534
▁iWundlu	-9.94649
▁zawo	-9.947
▁anakho	-9.94728
▁benhliziyo	-9.94731
▁kubazalwane	-9.94738
▁ngokuningi	-9.94759
▁hambani	-9.94772
▁seNkosi	-9.9484
▁Ubusisiwe	-9.94848
▁wambuza	-9.94877
engubo	-9.94939
awobaba	-9.9496
bizile	-9.94972
▁ngikhulume	-9.95082
gqok	-9.95105
▁phezulu	-9.953
▁ukuphenduka	-9.9532
▁onakho	-9.95388
▁ngalokhu	-9.95442
▁ziye	-9.95442
▁ukuphela	-9.95551
mabandla	-9.956
▁amadodana	-9.95777
ndwe	-9.95823
▁yazini	-9.95841
kubola	-9.96381
▁kungengoku	-9.96394
ongolo	-9.96475
mbonga	-9.9663
▁ethandekayo	-9.96701
amahhashi	-9.9674
ngaphezu	-9.97477
akhi	-9.97642
buyisela	-9.97844
khuphuk	-9.98124
khumbule	-9.98166
Zi	-9.98482
shiswa	-9.98888
ezikhathi	-9.99179
sendle	-9.99332
▁ung	-9.99369
▁now	-9.99389
iphu	-9.99447
ngamukela	-9.99826
▁ifu	-10.0002
njwe	-10.0029
okuhlakanipha	-10.0055
▁nasem	-10.0069
khiwa	-10.011
▁uphons	-10.0147
valel	-10.0165
ziboshwa	-10.0189
phum	-10.0213
thuthumela	-10.0226
ngikusho	-10.0258
thwale	-10.0267
Noma	-10.0289
nokuphila	-10.029
nomoya	-10.0291
Kwathi	-10.0299
sahamba	-10.0304
besifazane	-10.0311
Yihlo	-10.0313
cindezel	-10.0335
hlangothi	-10.0347
Makedoniya	-10.0363
cebile	-10.0371
omkhumbi	-10.0386
zingubo	-10.0399
sendleleni	-10.042
enyuka	-10.043
obukhosi	-10.0431
asinyane	-10.0436
nqume	-10.0437
5	-10.0439
Khefase	-10.0439
Elisabethe	-10.0439
Kayafase	-10.0439
Khana	-10.0439
Qaphelani	-10.0439
Sodoma	-10.0439
Xwayani	-10.0439
bupristi	-10.0439
chasisel	-10.0439
esiphambano	-10.0439
funyanwe	-10.0439
hlambulule	-10.0439
nochoko	-10.0439
oPhezukonke	-10.0439
phelelisiwe	-10.0439
siprofetho	-10.0439
tafula	-10.0439
vamile	-10.0439
zigabisa	-10.0439
▁Yeminqumo	-10.0439
▁izizindlo	-10.0439
▁uBaraba	-10.0439
sikhwama	-10.0439
▁ekuqaleni	-10.0439
▁nxazonke	-10.0439
Ngilandele	-10.0439
Siriya	-10.0439
▁amazinyo	-10.0439
▁emnyango	-10.0439
khathalela	-10.0439
▁zombili	-10.0439
obuhlungu	-10.0439
thembekayo	-10.0439
▁zikaKristu	-10.0439
dumileyo	-10.0439
thunyiwe	-10.0439
▁insimu	-10.0439
phelelise	-10.0439
▁Nguye	-10.0439
mfula	-10.0439
dumaza	-10.044
Yeka	-10.044
phula	-10.044
nqunywa	-10.044
yigugu	-10.044
balekele	-10.044
▁kuYise	-10.044
▁eniyakuku	-10.0441
kuhlwile	-10.0441
nendlebe	-10.0441
yiziwula	-10.0441
khandleka	-10.0441
mikhumbi	-10.0441
▁izinyoni	-10.0441
thengise	-10.0442
▁qha	-10.0443
Luk	-10.0443
▁Njengalokh	-10.0443
Kalokhu	-10.0444
▁ngokuhunyushwa	-10.0444
▁kaZebedewu	-10.0445
zibopho	-10.0445
ingadukiswa	-10.0446
lungelo	-10.0446
▁ngamadolo	-10.0447
▁bambulale	-10.0449
▁lwesabatha	-10.0451
▁abayisikhombisa	-10.0452
thinti	-10.0453
▁izincwadi	-10.0453
▁lomlilo	-10.0453
njiwe	-10.0454
▁yezono	-10.0458
▁lakubo	-10.0458
ngakwesokhohlo	-10.0461
busiswa	-10.0462
▁zamlandela	-10.0462
▁nokuhlakanipha	-10.0463
mkhuza	-10.0464
▁yomthetho	-10.0465
▁ngenkemba	-10.0466
▁somusa	-10.0466
▁kaJosefa	-10.0466
kolweni	-10.0466
▁nezilimi	-10.0467
▁ngokuhlakanipha	-10.0468
▁yokulunga	-10.0469
▁ngokufaneleyo	-10.0472
▁yodwa	-10.0473
suswa	-10.0474
kugcineni	-10.0474
▁wokuphila	-10.0476
gcinile	-10.0477
ngcolisa	-10.0477
▁yenkazimulo	-10.0478
▁ngesihle	-10.0478
▁isisekelo	-10.0482
▁ngamademoni	-10.0483
ngumJuda	-10.0484
▁Akukho	-10.0489
▁yokuphila	-10.0494
▁nempela	-10.0497
▁ezithile	-10.0497
▁ebengi	-10.0497
▁kwamanzi	-10.0498
hlanya	-10.0499
▁lokuphila	-10.0506
Namuhla	-10.0512
▁engizaku	-10.0512
▁Wabuye	-10.0513
vuleka	-10.0518
▁angis	-10.052
▁yenyama	-10.0522
▁ukuthethelelwa	-10.0522
nxanel	-10.0529
▁wabafundisa	-10.053
fanekiso	-10.0531
hlabelel	-10.0533
▁okungaka	-10.0536
lamukele	-10.0541
vutha	-10.0545
▁ngabanye	-10.0548
khuthalela	-10.0554
kwevangeli	-10.0564
abagulayo	-10.0568
ewayini	-10.057
▁ucez	-10.0581
ngadli	-10.0596
▁anis	-10.0678
ezinye	-10.0694
▁sengiya	-10.0702
Lawo	-10.0719
ngukufa	-10.0729
amacala	-10.0745
▁lw	-10.076
khathazeka	-10.0821
mboz	-10.084
pholi	-10.0944
nikelwe	-10.0975
kungcono	-10.103
okuba	-10.1061
omphakathi	-10.107
Ungubani	-10.1133
ngabaza	-10.1139
▁nikhuleke	-10.1188
yenze	-10.1192
ngenhla	-10.1216
buth	-10.1231
nilobel	-10.1258
ezindlela	-10.1287
▁okoku	-10.1327
abafelokazi	-10.1339
amasango	-10.1353
ombusi	-10.1446
ndlini	-10.1461
dukis	-10.1477
dluli	-10.1514
khathini	-10.1568
wezizwe	-10.162
hlakaniphile	-10.1622
nxenye	-10.1624
yinceku	-10.1629
bheki	-10.1665
esihawu	-10.1666
oPawulu	-10.1666
khand	-10.1667
omlomo	-10.1669
dumbu	-10.1679
valo	-10.1682
esithupha	-10.1683
hlukana	-10.1684
tombazana	-10.1687
londoloz	-10.1689
mbhinq	-10.1689
zanyazanyiswa	-10.1689
Betlehema	-10.1689
Khupro	-10.1689
Korneliyu	-10.1689
Melkisedeki	-10.1689
dodeni	-10.1689
kaPawulu	-10.1689
mshado	-10.1689
ngqongqotha	-10.1689
qhutshwa	-10.1689
qhuzu	-10.1689
▁ababiziweyo	-10.1689
▁eqinisweni	-10.1689
▁eyinkulungwane	-10.1689
▁eziyisithupha	-10.1689
▁ingcosana	-10.1689
▁kweJordani	-10.1689
nkambo	-10.1689
▁lweviki	-10.1689
▁indwangu	-10.1689
hlangulisa	-10.1689
qondweni	-10.1689
mbongolo	-10.1689
▁makungabi	-10.1689
duduza	-10.1689
ezinyembezi	-10.1689
endwangu	-10.1689
tamasa	-10.1689
▁nganhliziyonye	-10.1689
yisono	-10.1689
qhweba	-10.1689
sibabule	-10.169
▁engikwenzayo	-10.169
kuswelekile	-10.169
▁ezinkan	-10.169
obuwula	-10.169
hlakazekile	-10.169
fuba	-10.169
▁uyaphinga	-10.169
▁noSila	-10.169
mukise	-10.169
Far	-10.1691
feza	-10.1691
buyisane	-10.1691
ngabhubhi	-10.1691
zithoba	-10.1691
▁bobabili	-10.1691
▁nibone	-10.1691
▁imvula	-10.1692
▁emthini	-10.1692
minyango	-10.1692
minyanis	-10.1692
ukweni	-10.1693
▁akwenzayo	-10.1693
mikhuleko	-10.1694
▁emseni	-10.1694
▁kukaKristu	-10.1694
▁ubone	-10.1695
▁bomhlaba	-10.1695
▁ukuyobona	-10.1696
diyu	-10.1696
ezinyoni	-10.1697
▁lokwahlulelwa	-10.1697
zithiba	-10.1698
mthwalo	-10.1698
mangalelwa	-10.1699
endulo	-10.1699
▁okholwayo	-10.17
▁izinkanuko	-10.1701
▁wesinagoge	-10.1702
▁siphile	-10.1704
▁ngukwesaba	-10.1704
buyisel	-10.1704
dumise	-10.1705
wammisa	-10.1706
Lab	-10.1706
▁angithandi	-10.1706
hluleka	-10.1707
fakelwa	-10.1708
▁namaGreki	-10.1709
▁zokulunga	-10.171
▁nemihlatshelo	-10.171
▁nesihawu	-10.1712
▁noPawulu	-10.1712
▁ngasendleleni	-10.1714
▁yebandla	-10.1715
▁mnyama	-10.172
▁nezibonakaliso	-10.1723
▁wenkazimulo	-10.1723
▁noYihlo	-10.1725
bulukhuni	-10.1728
phelile	-10.1729
▁ngokujabula	-10.1729
▁isifundiso	-10.173
ngatheli	-10.173
▁ngokupheleleyo	-10.1732
▁amanetha	-10.1734
▁izilimi	-10.1737
bhekile	-10.1739
▁wamthatha	-10.174
ezimpond	-10.1746
▁nezikhonzi	-10.1748
mfumene	-10.1748
▁okuyize	-10.175
sayikuba	-10.1754
▁esithile	-10.1758
hlangan	-10.1759
▁ngenkazimulo	-10.1763
kubonileyo	-10.1763
▁labaJuda	-10.1764
bikele	-10.1764
khalela	-10.1765
phule	-10.1771
▁izindlu	-10.1771
mukile	-10.1772
▁ngelika	-10.178
sekelwa	-10.1781
▁nezikhulu	-10.1786
wile	-10.1794
okuduma	-10.1808
▁akenz	-10.1808
khethile	-10.1826
bonwe	-10.1832
mncinyane	-10.1862
kukuhle	-10.1871
fafaz	-10.1908
abangasoki	-10.1916
mlind	-10.1981
zakwenzani	-10.2044
zinhlanzi	-10.2069
eyodwa	-10.2148
vikel	-10.2153
Nawe	-10.2166
▁kaHerod	-10.2194
khaphele	-10.2196
nkosikazi	-10.2235
ebutho	-10.224
ngesilo	-10.2253
nguNkulunkulu	-10.2276
lodwa	-10.2362
kwethemb	-10.2446
dede	-10.248
lungisisi	-10.2484
sibindi	-10.2545
ngufakazi	-10.2566
▁ning	-10.2594
hhashi	-10.2633
Kesari	-10.2725
obukhulu	-10.2753
nomhawu	-10.2786
wabantu	-10.2799
mbopha	-10.2816
wesithathu	-10.2837
▁afe	-10.288
benzela	-10.2932
Thina	-10.2963
sizukulwane	-10.2967
Ngalokho	-10.297
yethemba	-10.3014
kwahlulelwa	-10.3021
ithini	-10.3025
ezinsuk	-10.3032
mngcolis	-10.3068
▁kuyint	-10.3069
amaGreki	-10.3095
hube	-10.3098
mihlatshelo	-10.3102
buqili	-10.3103
gcini	-10.3103
mnandi	-10.3115
zishaya	-10.3116
Belzebule	-10.3118
Betsayida	-10.3118
Galathiya	-10.3118
Simeyoni	-10.3118
Stefanu	-10.3118
amaparele	-10.3118
aseKhurene	-10.3118
habhu	-10.3118
hudulel	-10.3118
humush	-10.3118
msindo	-10.3118
nesihe	-10.3118
ngumfokazi	-10.3118
ombhapathizo	-10.3118
phulukise	-10.3118
umtetrarki	-10.3118
▁emshadweni	-10.3118
▁enkazimulweni	-10.3118
▁ezixukwini	-10.3118
▁iPhasika	-10.3118
▁nakwabezizwe	-10.3118
▁umbono	-10.3118
▁yisibonelo	-10.3118
Krethe	-10.3118
bhapathizelwa	-10.3118
egcekeni	-10.3118
gingq	-10.3118
▁emikhulekweni	-10.3118
▁kukusindisile	-10.3118
ekusithekeni	-10.3118
hlanzekileyo	-10.3118
siqhingi	-10.3118
obuqotho	-10.3118
qhwaga	-10.3118
▁umnyango	-10.3118
▁lukaKristu	-10.3118
▁eliphezulu	-10.3118
▁ezinyaweni	-10.3118
▁isithombe	-10.3118
thukuthelel	-10.3118
lahliwe	-10.3118
ngapheliyo	-10.3118
tshengisa	-10.3118
▁ngokwakhe	-10.3118
▁ekuhambeni	-10.3118
nikhumbuza	-10.3118
thandiweyo	-10.3118
dons	-10.3118
▁emibili	-10.3118
duduzwa	-10.3118
sihlephula	-10.3118
▁ebubini	-10.3118
▁ukungibulala	-10.3118
▁eziyikhulu	-10.3118
▁isivini	-10.3118
kungasoki	-10.3118
babulali	-10.3118
▁indlebe	-10.3119
▁ulwandle	-10.3119
hlatshwa	-10.3119
▁linjenge	-10.3119
zungez	-10.3119
▁omncane	-10.3119
nakekela	-10.3119
ensimbi	-10.3119
lotshwa	-10.3119
▁akuyiku	-10.3119
▁uFe	-10.3119
▁isibili	-10.3119
andulele	-10.312
yalisis	-10.312
▁owahlulela	-10.312
▁ngezinkanuko	-10.312
▁abezwayo	-10.312
zibonge	-10.3121
qiniswa	-10.3121
nqobe	-10.3121
zindwangu	-10.3121
▁sibone	-10.3122
▁ekuseni	-10.3122
▁siyeza	-10.3122
▁zobukhosi	-10.3123
▁okokuqala	-10.3124
▁lesithupha	-10.3124
dabukiswa	-10.3124
▁utshani	-10.3125
▁isiyaluyalu	-10.3125
▁luvalo	-10.3126
▁levangeli	-10.3127
▁kwenzeni	-10.3128
cish	-10.3129
▁elimnandi	-10.3129
▁kubalimi	-10.313
▁zesiliva	-10.3131
▁ngobuqili	-10.3133
▁sabantu	-10.3134
zibekelel	-10.3134
ngaqondiyo	-10.3135
▁Kunjani	-10.3135
▁yevangeli	-10.3135
nzalweni	-10.314
▁nezinduna	-10.314
▁zegolide	-10.3143
ngavumi	-10.3146
▁sokulunga	-10.3149
vuswe	-10.3152
lamani	-10.3153
bethelw	-10.3154
kheth	-10.3165
▁ikamel	-10.3168
abakhululekileyo	-10.3179
▁wadabu	-10.3187
▁abonakalis	-10.319
▁eyenziw	-10.3196
ngumfundi	-10.3204
yaliwe	-10.3208
owodwa	-10.3223
ombango	-10.3249
mhawu	-10.328
luthando	-10.3286
ababhali	-10.3358
onile	-10.3371
kwenzekile	-10.3387
vulekile	-10.3413
mhlambi	-10.3459
bafelokazi	-10.3537
nokudla	-10.3656
shumayez	-10.3708
omusi	-10.3791
nokuthokoza	-10.3809
abangalungile	-10.3832
ezinceku	-10.3887
njengalokh	-10.3963
▁edabu	-10.3971
▁nilinde	-10.4112
endodana	-10.4129
▁asenz	-10.4159
mkhiphel	-10.4176
▁yath	-10.4216
▁kubonakalisw	-10.4289
kubonakalis	-10.439
hlola	-10.4452
mhlanga	-10.4483
Wayesethi	-10.4636
Kodwa	-10.4636
untu	-10.4692
ngcwelisiwe	-10.4695
mthethweni	-10.47
khuthalel	-10.4701
enyukel	-10.4702
fumene	-10.4705
abonakali	-10.4712
ahlulelwe	-10.4713
▁ethembe	-10.4719
sisekelo	-10.4721
qedi	-10.4741
abafowethu	-10.4762
boshwe	-10.4784
eSamariya	-10.4784
Khul	-10.4784
funyaniswa	-10.4784
ABA	-10.4784
Akwila	-10.4784
Aleksandru	-10.4784
Hosiyana	-10.4784
INKOSI	-10.4784
Ikoniyu	-10.4784
Listra	-10.4784
Nathanayeli	-10.4784
aseTire	-10.4784
enkonzo	-10.4784
hlanjalazwa	-10.4784
khazimulayo	-10.4784
kuhuhek	-10.4784
ngumqambimanga	-10.4784
nqumile	-10.4784
phunyuka	-10.4784
seBethaniya	-10.4784
seThesalonika	-10.4784
semkhunjini	-10.4784
setilongweni	-10.4784
shiywa	-10.4784
▁Elokugcina	-10.4784
▁akunakwenzeka	-10.4784
▁eJeriko	-10.4784
▁eTrowa	-10.4784
▁echibini	-10.4784
▁emeveni	-10.4784
▁emgodini	-10.4784
▁empumalanga	-10.4784
▁ezigcawini	-10.4784
▁imivimbo	-10.4784
▁kaJona	-10.4784
▁nanhlanu	-10.4784
▁oJakobe	-10.4784
amajuba	-10.4784
aseningizimu	-10.4784
phelekezela	-10.4784
semzimbeni	-10.4784
senyameni	-10.4784
▁engutsheni	-10.4784
▁esivinini	-10.4784
▁esonweni	-10.4784
▁qaphelani	-10.4784
Pont	-10.4784
khafulel	-10.4784
ngumbulali	-10.4784
amaRoma	-10.4784
▁sekufeni	-10.4784
njabulo	-10.4784
phakanyiswa	-10.4785
▁esingenamvubelo	-10.4785
kwambulwe	-10.4785
▁nonyoko	-10.4785
empepho	-10.4785
esambatho	-10.4785
▁nomkakhe	-10.4785
Yenza	-10.4785
fihliweyo	-10.4785
▁niqinile	-10.4785
▁ogwini	-10.4785
▁inkatho	-10.4785
shiyi	-10.4785
ste	-10.4785
▁inkolo	-10.4785
khanyisa	-10.4785
gxum	-10.4785
viniga	-10.4785
▁ezintabeni	-10.4785
▁efwini	-10.4785
▁zezibani	-10.4785
yisiboniso	-10.4785
▁lwalokho	-10.4785
Athene	-10.4785
▁ubukhosi	-10.4785
▁izifo	-10.4785
Suka	-10.4785
mlamuleli	-10.4785
▁anenani	-10.4785
mbisisa	-10.4785
▁omdala	-10.4785
▁noYise	-10.4786
▁azenzayo	-10.4786
hloli	-10.4786
▁ukukhululwa	-10.4786
▁bakaJohane	-10.4786
▁ngokungafanele	-10.4786
Lungisa	-10.4786
koyedwa	-10.4786
▁asibeke	-10.4786
▁ihlazo	-10.4786
ahlulelwa	-10.4786
ngaziwayo	-10.4788
valelisa	-10.4788
▁ekamu	-10.4789
▁enkosini	-10.4789
ezimbuzi	-10.4789
funisisa	-10.4789
▁ukuyokhuleka	-10.479
umbusi	-10.479
ngafuni	-10.479
▁inetha	-10.479
ngaphenduki	-10.479
▁kwenzeke	-10.4791
▁yenzani	-10.4791
nyakazisa	-10.4791
qinileyo	-10.4791
▁bathula	-10.4793
ekusweleni	-10.4794
▁angiyiku	-10.4794
zibophe	-10.4794
nikiwe	-10.4796
nasono	-10.4796
vunyiwe	-10.4796
hlolisis	-10.4797
▁thokozani	-10.48
▁nenhlam	-10.4805
esibusiso	-10.4809
vumeli	-10.4811
bambile	-10.482
▁wehlelw	-10.4821
libala	-10.4821
sindile	-10.4825
kwabangakholwayo	-10.4825
ngangabazi	-10.4826
ngakhali	-10.4828
kungcweliswa	-10.4831
omnikelo	-10.4843
Buy	-10.4847
jok	-10.4848
ubuwula	-10.4848
sekuboshweni	-10.485
kuthobeka	-10.4854
esihlabathi	-10.4863
ngengqondo	-10.487
yizoni	-10.4872
ezinyoka	-10.4881
okubonwayo	-10.4903
baphathe	-10.4913
unywa	-10.4994
tol	-10.5011
lindel	-10.5018
▁umum	-10.5023
olunye	-10.5047
bingelel	-10.5054
Makungabi	-10.5062
ompristi	-10.5067
hlole	-10.5145
ishaye	-10.5198
wenziwa	-10.5204
▁obizw	-10.5265
ogange	-10.5297
abakholwayo	-10.531
sakhiw	-10.5322
ezelwa	-10.5343
shunyaye	-10.5377
gangomuso	-10.5427
▁ningez	-10.5507
ibonelo	-10.5549
izindlela	-10.5592
nguyise	-10.5625
klebhul	-10.5657
amileyo	-10.5729
▁bamyis	-10.5744
▁bayishay	-10.5824
wesilisa	-10.5918
phakamisel	-10.5924
▁bayibulal	-10.5979
▁eseqed	-10.6041
▁ukubiz	-10.6093
mlandele	-10.6138
nhlanzi	-10.6142
boshelw	-10.6207
▁Njeng	-10.6282
dokodo	-10.633
ingafanele	-10.6445
hlangabeza	-10.6453
akwaJuda	-10.6496
ululela	-10.6566
ziphakamis	-10.6597
Abant	-10.6633
Amen	-10.6635
Kwakukhona	-10.6635
Futhi	-10.6635
makhelwane	-10.669
mfowabo	-10.6693
bandleni	-10.6698
Jud	-10.67
sekel	-10.6721
▁yinhl	-10.6773
yaluyalu	-10.6774
▁Ngoku	-10.6779
phefumul	-10.6781
▁esifu	-10.6784
enyusel	-10.6784
godl	-10.6784
cabangi	-10.6784
4	-10.6784
Alfewu	-10.6784
Aristarku	-10.6784
Bantwana	-10.6784
Gayu	-10.6784
Italiya	-10.6784
Kubantu	-10.6784
Thikhiku	-10.6784
chachileyo	-10.6784
dadewethu	-10.6784
dunyiswe	-10.6784
ePhamfiliya	-10.6784
emihelo	-10.6784
gwaqweni	-10.6784
hawukelwe	-10.6784
khazimulisa	-10.6784
krist	-10.6784
maSamariya	-10.6784
madiyakoni	-10.6784
mzuzu	-10.6784
ncintisana	-10.6784
ncithakalo	-10.6784
nezinhloni	-10.6784
ngesiphambeko	-10.6784
ngumRoma	-10.6784
numzane	-10.6784
profethe	-10.6784
qalekisa	-10.6784
seKorinte	-10.6784
sensimini	-10.6784
sentshonalanga	-10.6784
vivinya	-10.6784
vivinyw	-10.6784
yamukeliswa	-10.6784
yizinhlobonhlobo	-10.6784
▁ashiywe	-10.6784
▁ebuthakathakeni	-10.6784
▁ekubhujisweni	-10.6784
▁elicolekileyo	-10.6784
▁emibhalweni	-10.6784
▁entanyeni	-10.6784
▁induduzo	-10.6784
▁intukuthelo	-10.6784
▁izinyembezi	-10.6784
▁kuPawulu	-10.6784
▁kungakenzeki	-10.6784
▁kweliphezulu	-10.6784
▁lingakakhali	-10.6784
▁nezinduku	-10.6784
▁ngephupho	-10.6784
▁ngesifungo	-10.6784
▁nguPawulu	-10.6784
▁nkonzo	-10.6784
▁onothileyo	-10.6784
▁sakwaBenjamini	-10.6784
▁uMarku	-10.6784
▁uThithu	-10.6784
▁umbhapathizo	-10.6784
▁umhlatshelo	-10.6784
▁umninisivini	-10.6784
Ephafr	-10.6784
Jasoni	-10.6784
Phuma	-10.6784
Shesha	-10.6784
hlambuluka	-10.6784
khukhumele	-10.6784
mlobokazi	-10.6784
nqolobane	-10.6784
▁emaphandleni	-10.6784
▁wazihlephula	-10.6784
▁yesinaphi	-10.6784
Diyana	-10.6784
zinganekwane	-10.6784
▁ekukhulekeni	-10.6784
▁ngasesangweni	-10.6784
▁waseSamariya	-10.6784
umkhuhlane	-10.6785
▁yegumbi	-10.6785
▁obekuzaku	-10.6785
▁yongithumileyo	-10.6785
ngakabikho	-10.6785
ngafungi	-10.6785
Somandla	-10.6785
isindisiwe	-10.6785
ntambo	-10.6785
tilongo	-10.6785
mthenwa	-10.6785
khulelweyo	-10.6785
▁engikuthandayo	-10.6785
cebisa	-10.6785
ifundisweni	-10.6785
bajezis	-10.6785
▁kasikhombisa	-10.6785
khiphi	-10.6785
▁enikubonayo	-10.6785
Susa	-10.6785
▁amasimu	-10.6785
linqaba	-10.6785
gubuzel	-10.6785
Aroni	-10.6785
▁okomoya	-10.6785
gxil	-10.6785
▁eyedwa	-10.6785
▁basutha	-10.6786
dosi	-10.6786
▁agcwalise	-10.6786
Eno	-10.6786
fushane	-10.6786
▁akwenzileyo	-10.6786
▁kwalasha	-10.6786
kujezis	-10.6786
▁noBar	-10.6786
▁bukaJesu	-10.6786
▁aniyiku	-10.6786
dangali	-10.6786
▁ningethu	-10.6786
▁zibone	-10.6787
▁langakhona	-10.6787
khishw	-10.6787
mhlwanyeli	-10.6787
▁inyanga	-10.6788
▁liyisi	-10.6788
abazidlayo	-10.6789
menyezelw	-10.6789
ezinyosi	-10.6789
▁ongakholwayo	-10.6789
emfuleni	-10.6789
amacebo	-10.679
ngenabala	-10.6791
kuyihlazo	-10.6791
amaphiko	-10.6791
ngokaKristu	-10.6791
yisiwula	-10.6793
bendiswa	-10.6794
bathobele	-10.6794
enkathi	-10.6798
kutuswa	-10.6802
zwakale	-10.6805
Yizwani	-10.6806
sikebhe	-10.681
kholiwe	-10.6811
▁wayenamadoda	-10.6811
okuhlengwa	-10.6814
ezithombe	-10.682
ngakucela	-10.6823
qhoth	-10.6829
khazimulisiwe	-10.683
semzini	-10.6832
amasiko	-10.685
ezifweni	-10.685
khombis	-10.6857
aseKhilikhiya	-10.6864
abelusi	-10.6868
ezilwane	-10.6869
esikhonzi	-10.6879
vunguz	-10.6894
nceng	-10.6899
okhululekileyo	-10.695
wakhuza	-10.6952
bakhuza	-10.698
bafazi	-10.7022
ngokwabantu	-10.7111
jabhiswa	-10.7253
▁kulaw	-10.7261
songel	-10.7263
enezela	-10.7272
bonakalisile	-10.7292
emibhalo	-10.731
phikis	-10.7389
shanel	-10.7429
khulunyw	-10.7663
mbong	-10.7689
yahlulela	-10.7738
dodakazi	-10.7811
qhubekel	-10.787
kuvuza	-10.7873
ifazane	-10.7898
wokugcina	-10.7926
▁ngelakh	-10.7926
▁Abazal	-10.7938
▁nganelis	-10.7955
aneliswa	-10.7976
▁akuvel	-10.8016
Kuvuny	-10.8101
njengokulotshiwe	-10.8104
eyakhe	-10.8234
ngikhuleke	-10.8328
okuphinga	-10.8352
awoyihlo	-10.8382
▁uyakuthath	-10.8386
mfuma	-10.8456
eqe	-10.847
▁izakukh	-10.8505
hlanganisel	-10.8519
▁amvus	-10.857
kukaMoya	-10.8607
igax	-10.8704
akhazimulisw	-10.8717
phumule	-10.8766
mbuyise	-10.8807
▁baduk	-10.8925
kulidl	-10.8936
▁uyakwamuk	-10.8998
shumayel	-10.9101
iyakuzond	-10.9128
ngaselwandle	-10.9132
kubantu	-10.9137
izahlulel	-10.914
umkakhe	-10.9164
ufakazile	-10.9176
▁ngezind	-10.9183
▁Ekus	-10.9184
Damaseku	-10.9198
gijim	-10.92
kwahlukan	-10.9221
lahlekelw	-10.9239
ginitshelile	-10.9264
▁Wenz	-10.9272
aseMakedoniya	-10.9273
ekupheleni	-10.9282
cathul	-10.9283
bhula	-10.9283
qalekisiwe	-10.9284
kaJose	-10.9284
6	-10.9284
Tiberiy	-10.9284
Aleksandriya	-10.9284
Arimatheya	-10.9284
Gomora	-10.9284
Klawudiy	-10.9284
Mamona	-10.9284
UJakobe	-10.9284
Ungaphingi	-10.9284
abaseLawodikeya	-10.9284
bhantshi	-10.9284
eDerbe	-10.9284
ebugqileni	-10.9284
entukuthelo	-10.9284
hahayo	-10.9284
haqe	-10.9284
hloniphekayo	-10.9284
hlotshis	-10.9284
jabulisa	-10.9284
jaspi	-10.9284
julileyo	-10.9284
khanyisela	-10.9284
khukhumeza	-10.9284
kwambulela	-10.9284
mntanakhe	-10.9284
mphikukristu	-10.9284
mpindiselo	-10.9284
nxusela	-10.9284
oSilvanu	-10.9284
obuntwana	-10.9284
phakanyiselw	-10.9284
phulukiswe	-10.9284
phuphuthek	-10.9284
proselite	-10.9284
sangulukile	-10.9284
sebumnyameni	-10.9284
shwabeneyo	-10.9284
sichotho	-10.9284
sivunguvung	-10.9284
umhume	-10.9284
▁Khumbula	-10.9284
▁amaqabunga	-10.9284
▁ebantwini	-10.9284
▁emkhombeni	-10.9284
▁esebhapathiziwe	-10.9284
▁etafuleni	-10.9284
▁inkululeko	-10.9284
▁isihenqo	-10.9284
▁isiphithiphithi	-10.9284
▁nezinhlanzana	-10.9284
▁ngombono	-10.9284
▁ngoqwembe	-10.9284
▁nisangibona	-10.9284
▁njengejuba	-10.9284
▁noMathewu	-10.9284
▁noqhabo	-10.9284
▁owamkhaphelayo	-10.9284
▁oyisimungulu	-10.9284
▁uMduduzi	-10.9284
▁uzamcolo	-10.9284
▁yaseSinayi	-10.9284
emphongolweni	-10.9284
ngubumnyama	-10.9284
omhlatshelo	-10.9284
▁ekuhluphekeni	-10.9284
▁emafwini	-10.9284
▁omkhaphelayo	-10.9284
▁ongacimekiyo	-10.9284
▁ukwamukelwa	-10.9284
▁yaseSiyoni	-10.9284
gudluk	-10.9284
jabule	-10.9284
ngakhononi	-10.9284
phakemeyo	-10.9284
sitaladi	-10.9284
isiphambeko	-10.9284
▁lwanamuhla	-10.9284
mhlubula	-10.9284
▁engakasoki	-10.9284
▁uNowa	-10.9284
ngenazithelo	-10.9285
zimungulu	-10.9285
▁Nginilobele	-10.9285
ncelisa	-10.9285
▁ebubende	-10.9285
▁okwaphezulu	-10.9285
Zanini	-10.9285
cunul	-10.9285
▁ungowaseGalile	-10.9285
amathambo	-10.9285
phindisela	-10.9285
sikhundla	-10.9285
▁ngoqalekisiweyo	-10.9285
mmukula	-10.9285
nyumba	-10.9285
▁zokubukwa	-10.9285
bhekisisa	-10.9285
mqamekel	-10.9285
ngizingele	-10.9285
▁ezihlalweni	-10.9285
phephetha	-10.9285
▁okomzimba	-10.9285
▁izindlebe	-10.9285
aseRoma	-10.9285
setshenzw	-10.9285
kwandisa	-10.9285
▁isidlo	-10.9285
▁owayenom	-10.9285
kuzakwenzeka	-10.9285
▁ambone	-10.9285
jonge	-10.9285
▁imibuso	-10.9285
kulinganiselw	-10.9285
▁aphul	-10.9285
ingelelan	-10.9285
owomileyo	-10.9285
mkhwelisa	-10.9285
lidlulisel	-10.9285
xutsh	-10.9285
okushinga	-10.9285
amhlanje	-10.9286
sambatheka	-10.9286
emfuy	-10.9286
ogibe	-10.9286
ngasenaku	-10.9286
sithibez	-10.9286
kuyakwenzeka	-10.9287
amakhiwane	-10.9287
zisekelo	-10.9287
embathani	-10.9287
bayalile	-10.9288
yisiboshwa	-10.9289
ezinhluphek	-10.9289
eSiyoni	-10.9291
kwandisw	-10.9293
kungokwami	-10.9293
kulangazela	-10.9293
ngoyedwa	-10.9293
hlunyelelw	-10.9295
gwema	-10.9295
impethu	-10.9295
Lung	-10.9296
kuthunjelw	-10.9297
qongelel	-10.9298
sekhulile	-10.9299
njengonyazi	-10.9299
kuzwisis	-10.9303
Jer	-10.9311
▁ngabalingis	-10.9313
akwalasha	-10.9316
mbuq	-10.9321
nokwethemba	-10.9324
hoboz	-10.9329
esiphambeneyo	-10.9333
chichima	-10.9333
esizotha	-10.935
▁ningikhumbul	-10.9368
awukhathal	-10.9371
hambisan	-10.9373
ukuqiniseka	-10.9402
ibonakalis	-10.9403
abangenacala	-10.9409
abathengayo	-10.9454
▁ningibon	-10.9458
atom	-10.9459
ayesemthatha	-10.951
iphilile	-10.9523
emizana	-10.9524
siqashi	-10.9526
kumthokozisa	-10.9532
unju	-10.9588
yizingane	-10.9611
ayinike	-10.9637
7	-11.2618
9	-11.2618
'	-11.7618
0	-11.7618
8	-12.0579
C	-12.058
3	-12.0581
X	-12.0582
V	-12.0583
Q	-12.0584
—	-12.0585
‘	-12.0586
v	-12.0587
“	-12.0588
y	-12.0589
b	-12.059
h	-12.0591
