<pad>	0
</s>	0
<unk>	0
▁a	-0
ch	-1
ea	-2
ai	-3
▁d	-4
th	-5
▁s	-6
in	-7
na	-8
▁c	-9
▁l	-10
▁t	-11
▁g	-12
bh	-13
▁f	-14
ir	-15
▁m	-16
▁ag	-17
ar	-18
il	-19
▁an	-20
is	-21
dh	-22
mh	-23
ío	-24
▁ch	-25
▁n	-26
us	-27
▁i	-28
ta	-29
▁agus	-30
▁ar	-31
an	-32
id	-33
▁le	-34
▁r	-35
air	-36
la	-37
▁bh	-38
ra	-39
gh	-40
▁co	-41
▁na	-42
on	-43
each	-44
▁b	-45
▁go	-46
eo	-47
éa	-48
ás	-49
nn	-50
▁do	-51
ao	-52
ach	-53
the	-54
iú	-55
áil	-56
▁th	-57
▁o	-58
▁p	-59
ain	-60
inn	-61
ine	-62
ear	-63
▁chu	-64
ei	-65
eas	-66
áin	-67
▁dh	-68
ia	-69
▁fh	-70
▁h	-71
aí	-72
te	-73
19	-74
ais	-75
co	-76
ean	-77
▁de	-78
▁bhf	-79
▁cov	-80
ig	-81
▁2	-82
▁T	-83
it	-84
cht	-85
▁é	-86
uair	-87
▁covid	-88
ír	-89
as	-90
-19	-91
▁nó	-92
tá	-93
io	-94
aithe	-95
▁v	-96
ile	-97
éad	-98
im	-99
▁ó	-100
▁’	-101
eadh	-102
▁in	-103
▁e	-104
igh	-105
aigh	-106
or	-107
eag	-108
abh	-109
ail	-110
anna	-111
▁seo	-112
adh	-113
íonn	-114
▁is	-115
▁C	-116
al	-117
▁du	-118
▁1	-119
▁D	-120
eann	-121
ithe	-122
▁gh	-123
▁mar	-124
▁mh	-125
aidh	-126
án	-127
▁fé	-128
▁gc	-129
ín	-130
aoine	-131
▁tú	-132
uil	-133
▁sh	-134
óg	-135
óir	-136
▁lá	-137
▁chun	-138
▁cho	-139
▁A	-140
íos	-141
▁eile	-142
áir	-143
▁I	-144
ad	-145
▁sa	-146
▁M	-147
áid	-148
ac	-149
▁bhfuil	-150
láin	-151
eacht	-152
ro	-153
tha	-154
▁(	-155
▁mb	-156
íodh	-157
▁ro	-158
▁or	-159
ian	-160
ic	-161
isc	-162
aith	-163
sc	-164
fh	-165
▁sé	-166
ur	-167
▁tá	-168
eal	-169
▁dt	-170
íoch	-171
▁cás	-172
ib	-173
ála	-174
eamh	-175
▁atá	-176
ith	-177
ol	-178
idir	-179
re	-180
▁níos	-181
▁mó	-182
ug	-183
cha	-184
▁aon	-185
▁tr	-186
▁vír	-187
▁N	-188
taí	-189
▁fao	-190
cov	-191
ús	-192
▁B	-193
▁má	-194
▁ná	-195
éana	-196
ial	-197
▁20	-198
▁ph	-199
éir	-200
▁sc	-201
arth	-202
ann	-203
▁comh	-204
rú	-205
▁Tá	-206
uir	-207
▁lea	-208
imh	-209
eith	-210
▁féidir	-211
▁á	-212
saí	-213
▁ion	-214
éim	-215
▁sláin	-216
ion	-217
ró	-218
mp	-219
dir	-220
eidh	-221
eanna	-222
ud	-223
aint	-224
▁io	-225
▁daoine	-226
uairisc	-227
tach	-228
éadf	-229
lú	-230
nach	-231
▁faoi	-232
saín	-233
▁leis	-234
▁duine	-235
acsaín	-236
▁sláinte	-237
▁Is	-238
▁sin	-239
éan	-240
▁u	-241
airt	-242
fhabh	-243
ars	-244
áis	-245
▁tás	-246
táil	-247
taithe	-248
▁vacsaín	-249
eagmh	-250
aibh	-251
▁víreas	-252
íon	-253
▁am	-254
tear	-255
▁bás	-256
iún	-257
le	-258
un	-259
▁tar	-260
úsáid	-261
ís	-262
▁S	-263
▁raibh	-264
raí	-265
os	-266
▁cú	-267
tar	-268
agh	-269
▁dhéana	-270
if	-271
▁as	-272
▁air	-273
▁ionfhabh	-274
▁chomh	-275
arthaí	-276
íomh	-277
ill	-278
▁dó	-279
▁F	-280
▁roinn	-281
▁4	-282
éar	-283
ua	-284
▁rá	-285
eoir	-286
▁ort	-287
teach	-288
▁sars	-289
▁ach	-290
eir	-291
▁3	-292
íocht	-293
sp	-294
ibh	-295
20	-296
▁st	-297
▁bheith	-298
éadfadh	-299
er	-300
▁dhéanamh	-301
▁úsáid	-302
áth	-303
▁idir	-304
▁agh	-305
▁aghaidh	-306
▁rud	-307
▁Má	-308
▁amh	-309
uairiscíodh	-310
idh	-311
íor	-312
▁iad	-313
▁An	-314
▁cl	-315
▁éis	-316
ip	-317
aid	-318
ras	-319
éal	-320
▁gach	-321
eola	-322
inne	-323
▁gur	-324
dú	-325
▁féin	-326
at	-327
▁im	-328
thair	-329
▁meas	-330
▁rial	-331
úir	-332
rta	-333
▁chóir	-334
thu	-335
▁nach	-336
ainn	-337
lach	-338
▁chur	-339
▁2020	-340
▁duit	-341
▁ann	-342
▁bhí	-343
▁ní	-344
ógra	-345
oir	-346
▁rio	-347
▁Ní	-348
▁nd	-349
aist	-350
aip	-351
reis	-352
▁comharthaí	-353
úil	-354
▁sia	-355
▁dhaoine	-356
▁L	-357
tas	-358
▁roinnt	-359
thar	-360
▁siad	-361
▁sco	-362
eabh	-363
▁ina	-364
▁den	-365
▁5	-366
nadh	-367
▁don	-368
▁fr	-369
eall	-370
▁san	-371
▁orthu	-372
íne	-373
▁ón	-374
óis	-375
iom	-376
▁ts	-377
▁G	-378
▁w	-379
ghl	-380
▁sr	-381
aile	-382
▁trí	-383
nacht	-384
▁fhéadfadh	-385
00	-386
aon	-387
eart	-388
▁líon	-389
▁thug	-390
▁sp	-391
▁ac	-392
radh	-393
da	-394
eachta	-395
acha	-396
ítear	-397
eagmháil	-398
▁gco	-399
int	-400
-2	-401
▁márta	-402
vir	-403
iúil	-404
lí	-405
▁ráig	-406
▁tástáil	-407
rom	-408
ásanna	-409
ag	-410
▁lena	-411
▁thar	-412
aim	-413
tála	-414
onraí	-415
eachtaí	-416
eidhm	-417
▁su	-418
▁to	-419
aine	-420
▁có	-421
▁po	-422
acht	-423
ru	-424
▁iar	-425
▁roimh	-426
▁ath	-427
▁dear	-428
vír	-429
en	-430
eic	-431
▁gn	-432
ist	-433
eacha	-434
▁amach	-435
naí	-436
▁gal	-437
▁cos	-438
▁lámh	-439
▁oib	-440
dach	-441
eá	-442
reisin	-443
▁freisin	-444
▁isteach	-445
aind	-446
▁scaip	-447
▁dóibh	-448
aindéim	-449
navir	-450
ianta	-451
▁neamh	-452
▁domh	-453
▁leat	-454
▁fáil	-455
nas	-456
▁amháin	-457
lán	-458
chtúir	-459
sh	-460
inic	-461
▁nuair	-462
▁bun	-463
ronavir	-464
▁mór	-465
rach	-466
▁lagh	-467
anacht	-468
aol	-469
ram	-470
uid	-471
abhairt	-472
se	-473
▁gheall	-474
▁tástála	-475
ronavirus	-476
▁ionfhabhtaithe	-477
tú	-478
▁chuig	-479
▁/	-480
▁mo	-481
eor	-482
▁br	-483
▁mí	-484
▁sonraí	-485
▁stá	-486
▁bhíonn	-487
fach	-488
mpla	-489
íochta	-490
▁coronavirus	-491
ois	-492
de	-493
▁gan	-494
▁áit	-495
áiste	-496
▁leor	-497
▁Tuairiscíodh	-498
▁tinn	-499
ráid	-500
▁tea	-501
nad	-502
▁linn	-503
aidir	-504
▁scoil	-505
ghlaigh	-506
st	-507
achta	-508
eabhra	-509
ura	-510
▁Mar	-511
▁chl	-512
▁nua	-513
▁hiom	-514
▁fanacht	-515
ór	-516
íortha	-517
ma	-518
ead	-519
▁Ch	-520
▁fháil	-521
eoirí	-522
▁lámha	-523
▁dá	-524
▁tír	-525
invír	-526
áirítear	-527
▁-	-528
▁cé	-529
▁Ag	-530
▁réir	-531
ll	-532
▁acu	-533
▁ard	-534
▁éig	-535
▁chuid	-536
▁ng	-537
úla	-538
iblí	-539
▁leith	-540
ún	-541
▁dho	-542
▁dul	-543
▁fud	-544
▁tug	-545
ialta	-546
aghaidh	-547
▁roimhe	-548
▁cásanna	-549
artha	-550
iúnta	-551
▁measc	-552
▁maidir	-553
eagmhála	-554
▁aontaithe	-555
▁2020,	-556
▁bhain	-557
pa	-558
▁feabhra	-559
▁scaipeadh	-560
ath	-561
éin	-562
-19.	-563
▁dtí	-564
▁teaghlaigh	-565
och	-566
sca	-567
▁sao	-568
aig	-569
▁fó	-570
eirbh	-571
▁chás	-572
▁uair	-573
▁aghaidhe	-574
anta	-575
▁aip	-576
▁Cuir	-577
▁haghaidh	-578
airle	-579
eirbhís	-580
ph	-581
▁6	-582
asc	-583
easta	-584
▁chéad	-585
ábh	-586
▁Déan	-587
ál	-588
▁bp	-589
iúla	-590
▁iom	-591
lúdach	-592
▁ba	-593
▁fo	-594
▁sna	-595
uithe	-596
▁R	-597
ait	-598
▁lean	-599
▁víris	-600
am	-601
aitheamh	-602
úis	-603
▁fógra	-604
eac	-605
▁tugadh	-606
ho	-607
▁bl	-608
aire	-609
dáil	-610
▁ean	-611
▁gla	-612
illiún	-613
▁riosp	-614
▁taist	-615
▁eanáir	-616
ios	-617
éil	-618
▁Ba	-619
spid	-620
scail	-621
▁chos	-622
▁rian	-623
eachas	-624
áirithe	-625
▁cuir	-626
▁bhaile	-627
▁éa	-628
ráide	-629
únadh	-630
▁leigh	-631
▁hiomláin	-632
chur	-633
eáil	-634
▁ghn	-635
▁ospid	-636
éis	-637
▁riospráide	-638
▁lu	-639
▁tsín	-640
▁tuairiscíodh	-641
éile	-642
oláth	-643
▁cinn	-644
▁poiblí	-645
▁thabhairt	-646
oc	-647
▁”	-648
▁déana	-649
óirí	-650
▁for	-651
▁mbeadh	-652
úr	-653
reag	-654
▁siú	-655
▁bhfeidhm	-656
▁7	-657
▁pr	-658
eala	-659
▁aois	-660
▁hcov	-661
iachta	-662
iar	-663
sco	-664
▁ain	-665
▁cur	-666
▁oibr	-667
▁maith	-668
▁chor	-669
ástáil	-670
▁faoin	-671
óisialta	-672
▁Co	-673
uais	-674
álacha	-675
tr	-676
liú	-677
▁cúram	-678
▁“	-679
▁Th	-680
▁agat	-681
ne	-682
▁9	-683
▁cu	-684
▁ei	-685
▁me	-686
faidh	-687
ard	-688
mhn	-689
▁déan	-690
▁choinne	-691
).	-692
ár	-693
aic	-694
▁10	-695
▁tu	-696
▁fad	-697
▁sha	-698
▁galar	-699
▁náis	-700
▁chuir	-701
ibre	-702
▁pháiste	-703
ló	-704
▁8	-705
tais	-706
▁leo	-707
▁bear	-708
▁tion	-709
▁feadh	-710
▁mhéad	-711
▁leighis	-712
▁bhaineann	-713
ae	-714
tí	-715
▁stáit	-716
fidh	-717
fhógra	-718
▁aibre	-719
▁leanaí	-720
▁éigean	-721
▁shampla	-722
000	-723
anda	-724
ca	-725
▁Bh	-726
▁gcásanna	-727
▁paindéim	-728
▁dhochtúir	-729
▁ionfhabhtú	-730
arr	-731
uigh	-732
▁tíortha	-733
han	-734
▁al	-735
,000	-736
ifig	-737
▁eis	-738
▁staid	-739
▁othair	-740
invíreas	-741
mpar	-742
orth	-743
▁oir	-744
stach	-745
▁ghal	-746
▁léir	-747
▁chaitheamh	-748
éid	-749
-19,	-750
bair	-751
▁clúdach	-752
▁scoileanna	-753
ladh	-754
▁éif	-755
uairt	-756
),	-757
▁14	-758
▁éir	-759
▁leibh	-760
▁srianta	-761
tóg	-762
▁Dí	-763
▁gá	-764
▁lé	-765
eimhn	-766
▁cóir	-767
▁teagmháil	-768
ob	-769
eog	-770
íní	-771
eath	-772
▁daon	-773
▁síne	-774
ábháil	-775
▁seirbhís	-776
▁Ná	-777
íobh	-778
mhair	-779
▁ionad	-780
eol	-781
▁lua	-782
▁fhor	-783
▁chéile	-784
▁4,	-785
▁Ar	-786
▁dí	-787
▁iomlán	-788
▁aibreán	-789
ón	-790
▁"	-791
ige	-792
pid	-793
char	-794
▁dhá	-795
▁fol	-796
▁seacht	-797
▁domhain	-798
▁rialtas	-799
gs	-800
ealt	-801
▁siúd	-802
íochaine	-803
iabh	-804
▁cor	-805
▁eag	-806
▁mhí	-807
racha	-808
orthaí	-809
áireamh	-810
▁dearbh	-811
▁toradh	-812
ub	-813
aoi	-814
róit	-815
▁who	-816
▁mbeidh	-817
aigheann	-818
▁Dífhógra	-819
▁Dífhógraíodh	-820
rón	-821
earr	-822
▁dearfach	-823
ers	-824
nann	-825
▁bhr	-826
▁fhóg	-827
íochtaí	-828
far	-829
▁cr	-830
romch	-831
▁beag	-832
asacht	-833
▁ospidéal	-834
▁sóisialta	-835
ims	-836
rao	-837
▁déanaí	-838
ní	-839
▁–	-840
iath	-841
uhan	-842
éigh	-843
▁las	-844
áinig	-845
aintín	-846
aíocht	-847
▁thástáil	-848
ss	-849
▁éags	-850
▁luath	-851
▁cuairt	-852
▁fhógair	-853
óm	-854
▁19	-855
▁dé	-856
eana	-857
iain	-858
▁aer	-859
▁tho	-860
▁mura	-861
▁frith	-862
▁fuair	-863
el	-864
▁ial	-865
▁minic	-866
gn	-867
all	-868
imp	-869
▁bu	-870
▁sio	-871
racht	-872
laíonn	-873
▁bunús	-874
▁thart	-875
amh	-876
ite	-877
éas	-878
▁dhear	-879
▁náisiúnta	-880
▁ho	-881
▁ré	-882
aisc	-883
▁tos	-884
▁ghla	-885
▁srian	-886
▁wuhan	-887
▁cosúil	-888
▁ghnáth	-889
▁ialtóg	-890
▁milliún	-891
▁chosaint	-892
uas	-893
eolas	-894
muigh	-895
▁bhás	-896
▁mbaol	-897
róitéin	-898
▁teagmhála	-899
▁ís	-900
aill	-901
ithr	-902
▁bia	-903
▁léinn	-904
iabhras	-905
▁bearta	-906
▁gníomh	-907
▁vacsaíní	-908
úirt	-909
▁aith	-910
raíonn	-911
▁leath	-912
▁éagsúla	-913
og	-914
oirm	-915
luais	-916
▁háirithe	-917
▁tionchar	-918
▁comhairle	-919
▁bhféadfadh	-920
onn	-921
▁24	-922
▁Bhí	-923
íonna	-924
pidéim	-925
▁choró	-926
▁sábháil	-927
▁lasmuigh	-928
▁O	-929
iúl	-930
paí	-931
▁11	-932
dála	-933
▁Níl	-934
▁mers	-935
▁theas	-936
eachais	-937
ág	-938
lan	-939
igiú	-940
▁lae	-941
lacha	-942
▁oibre	-943
▁cheart	-944
▁riosca	-945
▁thoradh	-946
sa	-947
um	-948
namh	-949
uine	-950
▁ans	-951
▁con	-952
▁cúr	-953
daigh	-954
scoil	-955
▁deir	-956
▁suas	-957
▁Beidh	-958
▁freag	-959
▁céanna	-960
ealtaine	-961
▁láthair	-962
▁riachta	-963
▁thuairisc	-964
▁fhaigheann	-965
▁fhé	-966
ainne	-967
▁láimh	-968
▁obair	-969
inneadh	-970
▁laghdú	-971
▁fhéidir	-972
▁ghalair	-973
ghn	-974
▁os	-975
eist	-976
ionn	-977
▁dír	-978
▁oid	-979
eanta	-980
nacha	-981
▁méad	-982
▁Chuir	-983
▁dúnadh	-984
▁leibhéal	-985
▁15	-986
▁De	-987
▁Go	-988
▁nós	-989
▁éad	-990
▁imdh	-991
scailte	-992
▁tinnis	-993
thú	-994
▁Cé	-995
isce	-996
▁géar	-997
▁gcuid	-998
▁teacht	-999
▁taistil	-1000
▁eipidéim	-1001
róinvíreas	-1002
▁bealtaine	-1003
▁choinneáil	-1004
ce	-1005
mó	-1006
rá	-1007
ich	-1008
▁lú	-1009
▁um	-1010
iana	-1011
▁eor	-1012
▁mac	-1013
▁laghad	-1014
▁príomh	-1015
▁casacht	-1016
▁cuireadh	-1017
▁fu	-1018
▁lár	-1019
▁dáil	-1020
ealach	-1021
tuithe	-1022
▁oifig	-1023
eolaíoch	-1024
▁torthaí	-1025
ara	-1026
▁masc	-1027
▁ceann	-1028
achtach	-1029
oireann	-1030
▁bliain	-1031
▁óstach	-1032
▁dearbhaithe	-1033
▁dr	-1034
▁átha	-1035
▁airde	-1036
▁bharr	-1037
▁tarchur	-1038
fa	-1039
▁j	-1040
▁ta	-1041
▁fós	-1042
bairt	-1043
gnóis	-1044
▁2019	-1045
▁cabh	-1046
▁tábh	-1047
▁garth	-1048
▁leanú	-1049
luaiseachtaí	-1050
▁P	-1051
ang	-1052
▁23	-1053
▁tac	-1054
▁deac	-1055
▁imní	-1056
mhithe	-1057
nachta	-1058
▁othar	-1059
▁dochtúir	-1060
▁éigeandála	-1061
cs	-1062
es	-1063
aoin	-1064
éamh	-1065
iaidh	-1066
▁Mura	-1067
▁sain	-1068
▁mheas	-1069
aistigh	-1070
op	-1071
aisn	-1072
aobh	-1073
▁más	-1074
álach	-1075
▁ceal	-1076
▁eolas	-1077
aisnéis	-1078
▁cheann	-1079
óireacht	-1080
sí	-1081
▁12	-1082
▁chó	-1083
▁nol	-1084
▁cosc	-1085
▁síos	-1086
▁teor	-1087
▁cliath	-1088
▁iompar	-1089
▁láithr	-1090
eitheamh	-1091
eastaíonn	-1092
▁rialtais	-1093
▁coraintín	-1094
náis	-1095
▁thr	-1096
▁tóg	-1097
áistí	-1098
▁iarr	-1099
▁líne	-1100
daithe	-1101
▁iodáil	-1102
▁soláth	-1103
▁taisteal	-1104
▁meitheamh	-1105
ene	-1106
faí	-1107
tra	-1108
ách	-1109
éit	-1110
▁13	-1111
▁oll	-1112
▁leag	-1113
eastal	-1114
▁clinic	-1115
▁fiabhras	-1116
oil	-1117
óil	-1118
▁ár	-1119
éimh	-1120
▁Cuireadh	-1121
dar	-1122
tiú	-1123
▁ae	-1124
aisp	-1125
iond	-1126
▁ais	-1127
▁chú	-1128
▁cru	-1129
▁fss	-1130
raith	-1131
ugtar	-1132
▁fliú	-1133
▁meán	-1134
▁2020.	-1135
▁Nuair	-1136
▁sampla	-1137
▁dáileog	-1138
▁gcoinne	-1139
▁ndaoine	-1140
náisiúnta	-1141
▁laistigh	-1142
▁dteagmháil	-1143
1,	-1144
ná	-1145
eis	-1146
ing	-1147
íol	-1148
▁22	-1149
▁ró	-1150
ears	-1151
uill	-1152
áirt	-1153
▁pob	-1154
agann	-1155
▁héir	-1156
▁cionn	-1157
▁rianú	-1158
itianta	-1159
▁fhéadf	-1160
fr	-1161
oig	-1162
▁cuid	-1163
▁drug	-1164
iagnóis	-1165
rachtaí	-1166
▁imdhío	-1167
airíonna	-1168
▁dhiaidh	-1169
▁tháinig	-1170
▁bunaithe	-1171
▁chomharthaí	-1172
▁idirnáisiúnta	-1173
eap	-1174
eil	-1175
ibr	-1176
óid	-1177
▁Sc	-1178
aigin	-1179
chtaí	-1180
▁fair	-1181
abhair	-1182
aighde	-1183
▁Léigh	-1184
▁chloig	-1185
▁cúraim	-1186
▁mhéadar	-1187
▁iarracht	-1188
▁ainmhithe	-1189
om	-1190
▁18	-1191
▁pl	-1192
aise	-1193
obal	-1194
▁gcó	-1195
tharl	-1196
▁baint	-1197
▁chosc	-1198
raothar	-1199
▁fhreag	-1200
▁áirithe	-1201
▁oibrithe	-1202
mpt	-1203
▁30	-1204
▁thu	-1205
▁thóg	-1206
▁daonna	-1207
▁dhuine	-1208
▁galair	-1209
▁sholáth	-1210
▁freastal	-1211
▁seirbhísí	-1212
laí	-1213
lín	-1214
▁16	-1215
áirg	-1216
éann	-1217
eatha	-1218
▁tapa	-1219
staint	-1220
▁ndéan	-1221
▁pears	-1222
▁díreach	-1223
▁deireadh	-1224
árta	-1225
▁200	-1226
▁fiú	-1227
▁mho	-1228
aithn	-1229
aíonn	-1230
▁céim	-1231
▁stát	-1232
▁tíre	-1233
raithe	-1234
▁réamh	-1235
▁bhaint	-1236
▁staidéar	-1237
raothartach	-1238
▁chomhairle	-1239
▁í	-1240
ioc	-1241
aoil	-1242
údar	-1243
▁Ach	-1244
ógais	-1245
▁cúis	-1246
▁fhág	-1247
éimhse	-1248
invíris	-1249
iúltach	-1250
▁sheach	-1251
ionfhabh	-1252
▁dhearbh	-1253
▁thagann	-1254
▁básmhair	-1255
▁próitéin	-1256
▁áiteanna	-1257
▁coitianta	-1258
▁imdhíonachta	-1259
.3	-1260
aif	-1261
omh	-1262
rúpa	-1263
tair	-1264
▁Tar	-1265
ghabh	-1266
ineál	-1267
reise	-1268
▁dara	-1269
▁rogh	-1270
achtar	-1271
innigh	-1272
▁eagra	-1273
▁rialú	-1274
▁glaoch	-1275
eachtach	-1276
▁bunúsacha	-1277
▁pearsanta	-1278
▁foláireamh	-1279
iv	-1280
úl	-1281
tae	-1282
▁2,	-1283
fear	-1284
lúth	-1285
únta	-1286
ailiú	-1287
aradh	-1288
oltar	-1289
▁fíne	-1290
▁méid	-1291
arthas	-1292
iscint	-1293
osaigh	-1294
▁caith	-1295
▁déine	-1296
▁fearr	-1297
▁gcomh	-1298
▁bheidh	-1299
▁cabhrú	-1300
aireacht	-1301
▁ialtóga	-1302
▁z	-1303
eán	-1304
fra	-1305
nna	-1306
▁26	-1307
iúmó	-1308
▁eit	-1309
▁rna	-1310
▁pian	-1311
ealamh	-1312
▁chinn	-1313
▁chúis	-1314
▁mbaile	-1315
ubstaint	-1316
▁mbásanna	-1317
rán	-1318
▁sí	-1319
bhar	-1320
▁Amh	-1321
▁Ina	-1322
▁cón	-1323
▁eas	-1324
▁sla	-1325
aonrú	-1326
iúint	-1327
untas	-1328
▁Faoi	-1329
▁gcás	-1330
▁teas	-1331
▁timp	-1332
láinte	-1333
ruithe	-1334
▁antas	-1335
▁seach	-1336
ialacha	-1337
iúmóine	-1338
▁amhras	-1339
▁mhárta	-1340
uilleadh	-1341
▁saotharl	-1342
▁hairíonna	-1343
dc	-1344
▁Ú	-1345
iúr	-1346
ost	-1347
▁25	-1348
▁nú	-1349
▁dea	-1350
▁dta	-1351
▁dtr	-1352
▁ainm	-1353
▁aire	-1354
▁fola	-1355
▁níor	-1356
▁uait	-1357
scailt	-1358
▁ansin	-1359
▁beidh	-1360
▁ceart	-1361
eantair	-1362
lúdaigh	-1363
▁cheana	-1364
▁daonra	-1365
▁feidhm	-1366
▁domhanda	-1367
▁víreasach	-1368
▁thuairiscigh	-1369
0%	-1370
sta	-1371
chúr	-1372
eang	-1373
rain	-1374
▁lig	-1375
▁éil	-1376
▁arís	-1377
▁bhrí	-1378
▁forl	-1379
▁sula	-1380
▁ndear	-1381
eiceáil	-1382
ianaise	-1383
íobháid	-1384
▁Amhail	-1385
▁leanbh	-1386
▁mbíonn	-1387
▁éadrom	-1388
romchúis	-1389
▁neamhsh	-1390
eagmhálaí	-1391
▁héireann	-1392
mhíochaine	-1393
▁míochaine	-1394
▁sraothartach	-1395
▁ghluaiseachtaí	-1396
bhr	-1397
▁1,	-1398
▁Ús	-1399
eich	-1400
rtha	-1401
▁uir	-1402
mptóm	-1403
▁Níor	-1404
▁aims	-1405
▁eorp	-1406
víreas	-1407
▁gcuir	-1408
▁measa	-1409
▁Úsáid	-1410
álaithe	-1411
▁deimhn	-1412
▁ionaid	-1413
▁pobail	-1414
▁cosanta	-1415
▁covanna	-1416
eolaíocht	-1417
▁chásanna	-1418
eolaíochta	-1419
▁bpaindéim	-1420
▁géarmhíochaine	-1421
▁ionfhabhtuithe	-1422
3,	-1423
ifr	-1424
nat	-1425
▁17	-1426
itiú	-1427
laig	-1428
mhór	-1429
ógas	-1430
▁202	-1431
▁ama	-1432
cháin	-1433
lanna	-1434
▁Lean	-1435
▁baol	-1436
▁mhór	-1437
eánach	-1438
▁conas	-1439
▁drugaí	-1440
▁sláint	-1441
▁treoir	-1442
▁nollaig	-1443
▁dhéanann	-1444
▁láithreach	-1445
▁tábhachtach	-1446
ns	-1447
to	-1448
che	-1449
pad	-1450
▁28	-1451
aois	-1452
aolú	-1453
eicn	-1454
rath	-1455
zene	-1456
éarm	-1457
▁eol	-1458
▁hio	-1459
chuir	-1460
eoidh	-1461
▁scag	-1462
▁súil	-1463
athair	-1464
zeneca	-1465
▁cófra	-1466
▁dhéan	-1467
eachtain	-1468
ubstaintí	-1469
▁ollscoil	-1470
▁ospidéil	-1471
▁rianaire	-1472
▁sheachaint	-1473
lo	-1474
▁k	-1475
ghal	-1476
nama	-1477
▁sín	-1478
▁Agus	-1479
▁bain	-1480
▁dtús	-1481
ghlaim	-1482
teacht	-1483
▁chéim	-1484
▁gcéad	-1485
▁laeth	-1486
▁rinne	-1487
ataigin	-1488
▁dtugtar	-1489
trazeneca	-1490
óireachta	-1491
▁timpeall	-1492
▁eagraíocht	-1493
▁choróinvíris	-1494
ga	-1495
róm	-1496
▁21	-1497
▁3,	-1498
▁pá	-1499
▁sm	-1500
imid	-1501
llmh	-1502
oibr	-1503
oigh	-1504
▁dío	-1505
▁phl	-1506
fraic	-1507
ibear	-1508
lacht	-1509
tráil	-1510
íochán	-1511
▁dheir	-1512
▁dhomh	-1513
iondróm	-1514
▁againn	-1515
▁breise	-1516
▁gceart	-1517
▁siopad	-1518
▁niúmóine	-1519
ior	-1520
éif	-1521
▁Dh	-1522
▁mu	-1523
cadh	-1524
fadh	-1525
itis	-1526
onad	-1527
áine	-1528
éacs	-1529
▁fás	-1530
▁phr	-1531
ardaí	-1532
eiric	-1533
iméad	-1534
▁aige	-1535
▁bhun	-1536
▁fion	-1537
▁fios	-1538
▁stop	-1539
▁Dúirt	-1540
▁córas	-1541
▁rudaí	-1542
inneach	-1543
▁láimhe	-1544
▁reatha	-1545
▁suntas	-1546
▁chibear	-1547
▁comhair	-1548
▁áireamh	-1549
▁faisnéis	-1550
▁tuairisc	-1551
▁fhorbairt	-1552
▁sábháilte	-1553
nú	-1554
irí	-1555
lat	-1556
únú	-1557
▁Ro	-1558
▁di	-1559
▁dhí	-1560
▁eac	-1561
▁ear	-1562
▁str	-1563
iosta	-1564
róidh	-1565
▁cúig	-1566
▁dian	-1567
▁fada	-1568
▁glan	-1569
▁nasc	-1570
▁údar	-1571
eannta	-1572
ghlach	-1573
▁athrú	-1574
▁bhéal	-1575
▁dlúth	-1576
▁dúnta	-1577
▁gnáth	-1578
▁méadú	-1579
mparáid	-1580
▁amhail	-1581
▁bliana	-1582
▁oiread	-1583
▁spreag	-1584
eachtais	-1585
▁cosaint	-1586
▁chinntiú	-1587
▁diagnóis	-1588
▁diúltach	-1589
▁riochtaí	-1590
▁tréimhse	-1591
▁dhomhanda	-1592
▁imeachtaí	-1593
▁oideachais	-1594
29	-1595
ter	-1596
▁aic	-1597
▁pol	-1598
airtí	-1599
arasc	-1600
eocht	-1601
shlat	-1602
éanna	-1603
▁nádú	-1604
▁saor	-1605
eithre	-1606
scoile	-1607
▁díobh	-1608
▁maisc	-1609
▁scamh	-1610
▁shrón	-1611
▁taobh	-1612
▁thugann	-1613
▁uachtar	-1614
▁paindéime	-1615
▁seirbhíse	-1616
▁tromchúis	-1617
▁seachtaine	-1618
▁theastaíonn	-1619
▁vacsaínithe	-1620
▁éifeachtach	-1621
▁chibearshlat	-1622
aib	-1623
idí	-1624
lis	-1625
eáin	-1626
ghla	-1627
álta	-1628
▁Tug	-1629
rúpaí	-1630
thóir	-1631
▁bith	-1632
▁chon	-1633
▁fhad	-1634
▁Caith	-1635
▁uisce	-1636
aithnid	-1637
▁aonair	-1638
▁leagan	-1639
▁eacnama	-1640
▁cóireáil	-1641
▁dtíortha	-1642
▁oscailte	-1643
▁trealamh	-1644
▁phaindéim	-1645
▁sholáthar	-1646
▁tástálacha	-1647
▁astrazeneca	-1648
▁coróinvíreas	-1649
br	-1650
me	-1651
ghd	-1652
▁50	-1653
▁In	-1654
▁il	-1655
▁tí	-1656
eadú	-1657
itic	-1658
róis	-1659
éach	-1660
▁Más	-1661
▁cum	-1662
▁gar	-1663
▁gnó	-1664
▁nár	-1665
▁tob	-1666
ailís	-1667
ochta	-1668
▁atho	-1669
▁cath	-1670
▁uimh	-1671
ialach	-1672
mhainn	-1673
naíonn	-1674
éanann	-1675
▁uirth	-1676
▁cruinn	-1677
▁eisigh	-1678
▁gardaí	-1679
▁idirmh	-1680
▁liosta	-1681
▁phobal	-1682
▁scamhóg	-1683
▁scaradh	-1684
▁seachas	-1685
▁Oscailte	-1686
▁hcovanna	-1687
▁staidéir	-1688
▁tabhairt	-1689
▁vacsaíniú	-1690
▁úsáideann	-1691
▁cliniciúla	-1692
cr	-1693
iz	-1694
▁'	-1695
ilt	-1696
▁at	-1697
▁so	-1698
chán	-1699
lann	-1700
úile	-1701
▁cro	-1702
▁ind	-1703
olann	-1704
▁ráta	-1705
▁samh	-1706
áraigh	-1707
▁bhfad	-1708
▁bíonn	-1709
▁dócha	-1710
▁taire	-1711
▁toisc	-1712
illeadh	-1713
lachtaí	-1714
riachta	-1715
▁curtha	-1716
▁fionraí	-1717
▁samplaí	-1718
▁fhéadfaí	-1719
▁thosaigh	-1720
▁fhoireann	-1721
▁rianaithe	-1722
ge	-1723
ein	-1724
▁29	-1725
rais	-1726
▁100	-1727
▁Cén	-1728
▁gin	-1729
chéim	-1730
línte	-1731
oladh	-1732
▁deara	-1733
▁gcaoi	-1734
▁monat	-1735
▁rátaí	-1736
▁speis	-1737
aíochta	-1738
▁dromch	-1739
▁gcónaí	-1740
▁suíomh	-1741
▁uirthi	-1742
▁anailís	-1743
▁chlinic	-1744
▁taighde	-1745
▁thógáil	-1746
▁tinneas	-1747
iallaíonn	-1748
▁teastáil	-1749
▁tógálach	-1750
▁seachtain	-1751
▁antasubstaintí	-1752
.5	-1753
ab	-1754
.30	-1755
eim	-1756
▁27	-1757
▁31	-1758
▁gr	-1759
▁nu	-1760
aite	-1761
alar	-1762
eans	-1763
▁inn	-1764
▁scr	-1765
dáile	-1766
eicis	-1767
oirch	-1768
éanóm	-1769
íocha	-1770
▁céad	-1771
▁difr	-1772
▁shoc	-1773
▁tosú	-1774
aifead	-1775
duithe	-1776
iteach	-1777
bhreith	-1778
eiriceá	-1779
▁domhan	-1780
▁ghalar	-1781
▁thaist	-1782
▁éirinn	-1783
aíochtaí	-1784
itheoirí	-1785
▁Déantar	-1786
▁bhfaigh	-1787
▁hiodáile	-1788
▁nádúrtha	-1789
▁theannta	-1790
▁leanúnach	-1791
▁coronaviruses	-1792
2,	-1793
eam	-1794
ism	-1795
▁rc	-1796
nais	-1797
óidh	-1798
úram	-1799
▁Gla	-1800
▁the	-1801
iorra	-1802
nithe	-1803
▁coró	-1804
▁foir	-1805
▁marg	-1806
▁muid	-1807
▁slán	-1808
▁srón	-1809
▁tríd	-1810
▁ísle	-1811
aitéis	-1812
▁Bíonn	-1813
▁anois	-1814
▁dúirt	-1815
▁eacht	-1816
▁fhios	-1817
▁stair	-1818
▁teach	-1819
▁éigin	-1820
ghníomh	-1821
iomptóm	-1822
▁coinne	-1823
▁iaráin	-1824
▁Tháinig	-1825
▁tosaigh	-1826
▁beagnach	-1827
▁leibhéil	-1828
▁tuiscint	-1829
▁fhreagairt	-1830
▁shóisialta	-1831
▁neamhriachta	-1832
▁choróinvíreas	-1833
▁gartheagmhálaí	-1834
arc	-1835
lár	-1836
ong	-1837
rio	-1838
▁Mh	-1839
▁no	-1840
reid	-1841
tran	-1842
▁Fan	-1843
▁bhu	-1844
▁brú	-1845
▁iúl	-1846
▁oil	-1847
▁pho	-1848
▁tag	-1849
covid	-1850
ealaí	-1851
rasaí	-1852
throm	-1853
▁Léir	-1854
▁coim	-1855
▁ithe	-1856
▁modh	-1857
▁thea	-1858
daíonn	-1859
oiléir	-1860
▁anseo	-1861
▁anála	-1862
▁ráige	-1863
▁íseal	-1864
covanna	-1865
earálta	-1866
tacháin	-1867
teachas	-1868
▁cinnte	-1869
▁gceist	-1870
▁leithr	-1871
▁oiriún	-1872
▁théann	-1873
▁bhailiú	-1874
▁ceithre	-1875
▁hiomlán	-1876
▁iarraidh	-1877
▁siondróm	-1878
▁tharchur	-1879
▁éifeacht	-1880
▁suntasach	-1881
▁speisialta	-1882
▁saotharlainne	-1883
▁básmhaireachta	-1884
18	-1885
7,	-1886
ed	-1887
eid	-1888
icl	-1889
ire	-1890
las	-1891
ord	-1892
tao	-1893
ána	-1894
▁ua	-1895
inse	-1896
ubei	-1897
éine	-1898
▁ant	-1899
▁níl	-1900
▁soc	-1901
▁tor	-1902
earta	-1903
feadh	-1904
tanas	-1905
▁Bain	-1906
▁Thug	-1907
▁chru	-1908
▁faid	-1909
▁inst	-1910
▁mbás	-1911
chtain	-1912
ástála	-1913
▁Fuair	-1914
▁fásta	-1915
chúraim	-1916
▁cúnamh	-1917
aitheann	-1918
aoiseach	-1919
iúrthóir	-1920
▁chineál	-1921
▁fíneáil	-1922
▁tuarasc	-1923
▁rinneadh	-1924
▁teorainn	-1925
▁anaithnid	-1926
▁caitheamh	-1927
▁dhearfach	-1928
▁deimhnithe	-1929
▁idirmheánach	-1930
▁monatóireacht	-1931
▁neamhshiomptóm	-1932
▁0	-1933
irt	-1934
áit	-1935
▁Cl	-1936
▁Sa	-1937
▁ea	-1938
▁jo	-1939
chtú	-1940
ille	-1941
insí	-1942
irim	-1943
iste	-1944
mhar	-1945
íche	-1946
▁beo	-1947
▁cdc	-1948
▁dlí	-1949
▁fho	-1950
▁rsc	-1951
▁shu	-1952
▁tús	-1953
▁zón	-1954
othar	-1955
uaire	-1956
▁gcon	-1957
▁iomp	-1958
▁móra	-1959
▁pang	-1960
▁páip	-1961
eartha	-1962
eathan	-1963
pháirt	-1964
▁anuas	-1965
▁cóire	-1966
▁dhaon	-1967
▁gnách	-1968
▁hubei	-1969
▁núicl	-1970
▁tobac	-1971
teachta	-1972
▁déanta	-1973
▁géanóm	-1974
▁nochta	-1975
▁slaghd	-1976
▁uimhir	-1977
▁zónóis	-1978
aispeáin	-1979
eimhnigh	-1980
▁básanna	-1981
▁eorpach	-1982
▁ghníomh	-1983
▁Coinnigh	-1984
▁shláinte	-1985
▁chuireann	-1986
▁dheireadh	-1987
▁hionfhabh	-1988
▁faireachas	-1989
▁riachtanach	-1990
%)	-1991
.2	-1992
1.	-1993
ap	-1994
gp	-1995
ast	-1996
hon	-1997
orn	-1998
íse	-1999
airí	-2000
▁Tóg	-2001
▁abh	-2002
▁chr	-2003
▁col	-2004
▁éin	-2005
abhar	-2006
aíodh	-2007
liana	-2008
raoin	-2009
▁Chun	-2010
▁cead	-2011
▁dtos	-2012
▁páir	-2013
▁riar	-2014
▁siar	-2015
▁trom	-2016
▁tríú	-2017
abhadh	-2018
riosca	-2019
▁Féadf	-2020
▁coinn	-2021
íocháin	-2022
▁afraic	-2023
▁chóiré	-2024
▁eoraip	-2025
▁gharth	-2026
▁leanas	-2027
▁ligean	-2028
▁mhaolú	-2029
▁rialta	-2030
▁réigiú	-2031
▁ríocht	-2032
▁scaoil	-2033
▁nóiméad	-2034
▁Rinneadh	-2035
▁clúdaigh	-2036
▁sháraigh	-2037
▁straitéis	-2038
▁tuilleadh	-2039
ismitheoirí	-2040
▁éigeantach	-2041
,8	-2042
."	-2043
.4	-2044
13	-2045
ie	-2046
iu	-2047
cho	-2048
fen	-2049
ins	-2050
ipe	-2051
óca	-2052
▁Dá	-2053
▁Le	-2054
▁hu	-2055
aimh	-2056
ealú	-2057
isic	-2058
izer	-2059
álaí	-2060
▁par	-2061
▁tru	-2062
ailte	-2063
aimid	-2064
llach	-2065
seáil	-2066
▁Comh	-2067
▁Meas	-2068
▁aice	-2069
▁chum	-2070
▁dáta	-2071
▁héif	-2072
▁sine	-2073
▁siúl	-2074
aiscum	-2075
uashon	-2076
▁baile	-2077
▁chorp	-2078
▁figiú	-2079
▁ghear	-2080
▁seich	-2081
▁teicn	-2082
▁theor	-2083
▁táirg	-2084
▁ullmh	-2085
tranais	-2086
▁cógais	-2087
▁tharla	-2088
▁aithint	-2089
▁cónaith	-2090
▁phoiblí	-2091
▁údaráis	-2092
eisteanna	-2093
▁vacsaíne	-2094
▁altranais	-2095
▁chóireáil	-2096
▁ndearnadh	-2097
▁rialuithe	-2098
▁athoscailt	-2099
▁chomhartha	-2100
▁tseachtain	-2101
▁dhearbhaigh	-2102
▁riachtanais	-2103
ba	-2104
ut	-2105
der	-2106
hio	-2107
▁dú	-2108
-229	-2109
asta	-2110
cair	-2111
chum	-2112
scrú	-2113
éirí	-2114
óirt	-2115
▁cal	-2116
▁joh	-2117
stáin	-2118
▁Nigh	-2119
▁bhro	-2120
▁clár	-2121
▁croí	-2122
▁féid	-2123
▁rcgp	-2124
▁réim	-2125
▁séas	-2126
▁téar	-2127
eoladh	-2128
onrach	-2129
▁aonrú	-2130
▁brath	-2131
▁facht	-2132
▁faide	-2133
▁ngach	-2134
▁tirim	-2135
▁áfach	-2136
eannach	-2137
uarthas	-2138
unaithe	-2139
▁critic	-2140
▁húsáid	-2141
▁sciath	-2142
anntanas	-2143
▁dhúnadh	-2144
▁fómhair	-2145
▁áitiúil	-2146
▁áitiúla	-2147
▁léiríonn	-2148
▁tarchuir	-2149
▁buinneach	-2150
▁oideachas	-2151
▁tacaíocht	-2152
▁forleathan	-2153
▁deacrachtaí	-2154
▁gartheagmháil	-2155
43	-2156
8,	-2157
eád	-2158
lag	-2159
niú	-2160
olg	-2161
tac	-2162
tán	-2163
éag	-2164
▁ur	-2165
▁ío	-2166
▁ós	-2167
inte	-2168
iúin	-2169
líne	-2170
▁míl	-2171
danna	-2172
fizer	-2173
níodh	-2174
obail	-2175
oifig	-2176
rainc	-2177
rnach	-2178
▁díot	-2179
▁fóin	-2180
▁teir	-2181
lachta	-2182
lúnach	-2183
naíodh	-2184
reacha	-2185
▁Conas	-2186
▁foirm	-2187
▁johns	-2188
▁seala	-2189
▁díghal	-2190
▁siopaí	-2191
▁tháirg	-2192
▁toirch	-2193
eachtadh	-2194
eirbhísí	-2195
iocfaidh	-2196
raoiníní	-2197
▁billiún	-2198
▁eisíodh	-2199
▁fhrainc	-2200
▁folláin	-2201
▁acmhainn	-2202
▁fianaise	-2203
▁figiúirí	-2204
▁filleadh	-2205
▁fuarthas	-2206
▁leanúint	-2207
▁mhilliún	-2208
▁teoranta	-2209
▁seicheamh	-2210
▁beartaithe	-2211
▁ginearálta	-2212
▁frithvíreas	-2213
ól	-2214
drá	-2215
ind	-2216
mra	-2217
ort	-2218
▁cá	-2219
▁ra	-2220
alta	-2221
lóid	-2222
tigh	-2223
▁bhl	-2224
▁cad	-2225
▁cén	-2226
▁lán	-2227
▁mic	-2228
▁shr	-2229
▁trá	-2230
▁breo	-2231
▁fear	-2232
▁gcor	-2233
▁glas	-2234
▁mhic	-2235
▁tiom	-2236
aispeá	-2237
óstach	-2238
▁agóid	-2239
▁bhfor	-2240
▁moill	-2241
▁oibrí	-2242
▁uathu	-2243
eananna	-2244
▁Tugann	-2245
▁chóras	-2246
▁contae	-2247
▁úsáide	-2248
▁abhaile	-2249
▁frithdh	-2250
▁hothair	-2251
▁níochán	-2252
▁shonraí	-2253
▁éileamh	-2254
▁dhearbhú	-2255
▁institiú	-2256
▁leanacht	-2257
▁leithlis	-2258
▁éineacht	-2259
▁aitheanta	-2260
▁freagairt	-2261
▁gallúnach	-2262
▁príobháid	-2263
▁ráigeanna	-2264
▁faireachais	-2265
▁treoirlínte	-2266
5,	-2267
63	-2268
ku	-2269
ít	-2270
nal	-2271
nar	-2272
riú	-2273
wab	-2274
árú	-2275
éig	-2276
óra	-2277
▁”.	-2278
aing	-2279
▁cam	-2280
▁spá	-2281
▁íos	-2282
▁óna	-2283
aisin	-2284
isiún	-2285
▁báis	-2286
▁luan	-2287
▁shao	-2288
▁treo	-2289
aibéit	-2290
▁aisce	-2291
▁cónaí	-2292
▁fisic	-2293
▁mheán	-2294
▁rogha	-2295
▁thair	-2296
éarmach	-2297
▁amuigh	-2298
▁chúram	-2299
▁foirne	-2300
▁giorra	-2301
▁huaire	-2302
▁mhéadú	-2303
▁shocrú	-2304
▁spóirt	-2305
▁thaobh	-2306
▁theach	-2307
▁bhféadf	-2308
▁chéanna	-2309
▁fheidhm	-2310
▁nuashon	-2311
▁náisiún	-2312
▁pháistí	-2313
▁soiléir	-2314
▁taifead	-2315
▁éiríonn	-2316
aibéiteas	-2317
▁bhealach	-2318
▁chathair	-2319
▁ghlanadh	-2320
▁leathadh	-2321
▁rochtain	-2322
▁scaipthe	-2323
▁sheoladh	-2324
aireachtaí	-2325
▁próitéiní	-2326
▁sealadach	-2327
▁uaireanta	-2328
▁Dheimhnigh	-2329
▁féideartha	-2330
▁sláintiúil	-2331
▁frithdhúnadh	-2332
.,	-2333
50	-2334
cm	-2335
et	-2336
ul	-2337
-2.	-2338
ata	-2339
bla	-2340
feá	-2341
icí	-2342
ils	-2343
órt	-2344
▁60	-2345
▁Do	-2346
▁Gh	-2347
▁Tr	-2348
▁ha	-2349
▁mú	-2350
▁se	-2351
annú	-2352
eirt	-2353
máin	-2354
tech	-2355
áise	-2356
▁201	-2357
▁fan	-2358
▁mná	-2359
▁mol	-2360
▁phe	-2361
aisle	-2362
asamh	-2363
raigh	-2364
ánach	-2365
íomhá	-2366
órais	-2367
▁Cabh	-2368
▁acla	-2369
▁bhia	-2370
▁fáth	-2371
▁hion	-2372
▁infh	-2373
▁póca	-2374
▁rith	-2375
▁séir	-2376
rasaíl	-2377
ualadh	-2378
▁eagla	-2379
▁fhliú	-2380
▁scoth	-2381
▁trump	-2382
▁pfizer	-2383
▁scoile	-2384
▁teocht	-2385
▁tionsc	-2386
aiscumar	-2387
eannacht	-2388
éarchéim	-2389
▁Léirigh	-2390
▁bhfuair	-2391
▁luaithe	-2392
▁léirigh	-2393
▁mbliana	-2394
▁rialach	-2395
▁bhainist	-2396
▁chlúdach	-2397
▁dhéantar	-2398
▁foghlaim	-2399
▁bhrollach	-2400
▁láimhseáil	-2401
▁stiúrthóir	-2402
▁éifeachtaí	-2403
▁básmhaireacht	-2404
.8	-2405
94	-2406
fí	-2407
go	-2408
ue	-2409
ise	-2410
mpl	-2411
▁Cu	-2412
▁re	-2413
▁sl	-2414
eách	-2415
ichí	-2416
nell	-2417
osta	-2418
éite	-2419
▁dro	-2420
▁lim	-2421
▁pro	-2422
aighd	-2423
aosta	-2424
iforn	-2425
ionad	-2426
lúine	-2427
áirtí	-2428
éithe	-2429
▁asat	-2430
▁dhír	-2431
▁dtar	-2432
▁ghin	-2433
▁hath	-2434
▁mall	-2435
▁rúis	-2436
bartha	-2437
hiodrá	-2438
naithe	-2439
úlacht	-2440
▁caill	-2441
▁foils	-2442
▁ghabh	-2443
▁ghlas	-2444
▁grúpa	-2445
▁meáin	-2446
▁seans	-2447
▁téigh	-2448
▁íomhá	-2449
ialanna	-2450
imsíonn	-2451
úlachta	-2452
▁Braith	-2453
▁eolais	-2454
▁gcaith	-2455
▁ngarth	-2456
▁óstáin	-2457
íollacha	-2458
▁bualadh	-2459
▁déanamh	-2460
▁glaoigh	-2461
▁thuaidh	-2462
ineálacha	-2463
▁californ	-2464
▁dromchla	-2465
▁labhairt	-2466
▁meiriceá	-2467
▁scornach	-2468
▁thíortha	-2469
eoireachta	-2470
▁thaisteal	-2471
▁trialacha	-2472
▁Ciallaíonn	-2473
▁athbhreith	-2474
▁bhfoireann	-2475
▁fíneálacha	-2476
▁laghdaithe	-2477
▁scothaosta	-2478
▁suíomhanna	-2479
▁víreasacha	-2480
coróinvíreas	-2481
▁sábháilteachta	-2482
▁siopadóireachta	-2483
".	-2484
..	-2485
60	-2486
65	-2487
9,	-2488
95	-2489
bo	-2490
cp	-2491
cu	-2492
fó	-2493
si	-2494
tu	-2495
ant	-2496
fho	-2497
lac	-2498
org	-2499
pro	-2500
rna	-2501
tic	-2502
tin	-2503
ual	-2504
ódh	-2505
▁(3	-2506
▁40	-2507
▁só	-2508
▁úr	-2509
chta	-2510
eafó	-2511
eict	-2512
eobh	-2513
gann	-2514
impl	-2515
laim	-2516
oils	-2517
onch	-2518
phen	-2519
sars	-2520
▁4,9	-2521
▁gcl	-2522
▁lee	-2523
▁pló	-2524
▁ste	-2525
▁uas	-2526
▁óga	-2527
asach	-2528
illiú	-2529
ospid	-2530
rótac	-2531
thach	-2532
▁ardú	-2533
▁arna	-2534
▁chol	-2535
▁dóch	-2536
▁fhón	-2537
▁géin	-2538
▁hiar	-2539
▁swab	-2540
chúram	-2541
eannas	-2542
eapáin	-2543
ghlama	-2544
scrúdú	-2545
▁easpa	-2546
▁eitil	-2547
▁ionas	-2548
▁leoch	-2549
▁mórán	-2550
▁neart	-2551
▁plean	-2552
▁tarlú	-2553
▁téacs	-2554
iontech	-2555
ránaigh	-2556
▁chumas	-2557
▁ghrúpa	-2558
▁mheabh	-2559
▁nollag	-2560
▁saoire	-2561
eobhaidh	-2562
eolaithe	-2563
inteoirí	-2564
▁Déanann	-2565
▁Glaoigh	-2566
▁Tabhair	-2567
▁freagra	-2568
▁johnson	-2569
▁phobail	-2570
oifigeach	-2571
▁Cuireann	-2572
▁aireacht	-2573
▁amhrasta	-2574
▁ceantair	-2575
▁imeachta	-2576
▁ndéantar	-2577
▁pataigin	-2578
▁shrianta	-2579
▁tseapáin	-2580
aispeánann	-2581
uairiscigh	-2582
▁taiscumar	-2583
▁taoiseach	-2584
▁cleachtais	-2585
▁cliniciúil	-2586
▁gcomparáid	-2587
▁zónóiseach	-2588
▁éigeandáil	-2589
▁diaibéiteas	-2590
▁dianchúraim	-2591
▁Thuairiscigh	-2592
▁sábháilteacht	-2593
▁tromchúiseacha	-2594
.7	-2595
4,	-2596
6,	-2597
ti	-2598
-2,	-2599
eat	-2600
eál	-2601
iní	-2602
▁Sp	-2603
▁ne	-2604
▁”,	-2605
-19)	-2606
adhb	-2607
eamó	-2608
east	-2609
iail	-2610
éanó	-2611
▁4,8	-2612
▁Ath	-2613
▁ail	-2614
▁alc	-2615
▁dar	-2616
▁fhr	-2617
▁fón	-2618
▁nas	-2619
naigh	-2620
tacha	-2621
▁ains	-2622
▁ball	-2623
▁chug	-2624
▁gabh	-2625
▁gair	-2626
▁mich	-2627
▁scrú	-2628
▁thír	-2629
aicéit	-2630
athúil	-2631
aítear	-2632
bhlóid	-2633
chtúra	-2634
ineach	-2635
▁2021,	-2636
▁Chomh	-2637
▁Seach	-2638
▁aonad	-2639
▁béite	-2640
▁cógas	-2641
▁dháil	-2642
▁dhíon	-2643
▁gcéim	-2644
▁india	-2645
▁moder	-2646
▁nocht	-2647
▁núíos	-2648
▁roghn	-2649
▁slabh	-2650
▁toirm	-2651
▁veict	-2652
▁éasca	-2653
róiseas	-2654
▁Deimhn	-2655
▁Moltar	-2656
▁bpobal	-2657
▁gcóras	-2658
▁láidir	-2659
▁martin	-2660
▁páistí	-2661
▁scagth	-2662
▁spáinn	-2663
ghabháil	-2664
▁bhliain	-2665
▁buailte	-2666
▁chruthú	-2667
▁chórais	-2668
▁deacair	-2669
▁dtagann	-2670
▁fhágann	-2671
▁fhéadfá	-2672
▁ndearna	-2673
▁phríomh	-2674
▁riarach	-2675
▁seachad	-2676
▁stephen	-2677
▁stopadh	-2678
▁éadroma	-2679
▁aimsíodh	-2680
▁coinnigh	-2681
▁cóireála	-2682
▁domhnach	-2683
▁leathair	-2684
▁leigheas	-2685
▁leochail	-2686
▁réigiúin	-2687
▁toirchis	-2688
▁Féadfaidh	-2689
▁análaithe	-2690
▁athruithe	-2691
▁dochtúirí	-2692
▁fachtóirí	-2693
▁gceantair	-2694
▁ghearmáin	-2695
▁plódaithe	-2696
▁teaghlach	-2697
▁éifeachta	-2698
▁iarrachtaí	-2699
▁leithlisiú	-2700
▁rialacháin	-2701
▁tharlaíonn	-2702
▁theaghlach	-2703
▁víreolaíoch	-2704
▁coinníollacha	-2705
▁ngluaiseachtaí	-2706
▁siopadóireacht	-2707
%.	-2708
.1	-2709
eip	-2710
oid	-2711
álú	-2712
íce	-2713
▁(2	-2714
▁37	-2715
▁Sh	-2716
▁ci	-2717
▁en	-2718
easc	-2719
eora	-2720
inbh	-2721
roid	-2722
íola	-2723
▁ana	-2724
▁bog	-2725
▁mhu	-2726
▁tur	-2727
eamól	-2728
inneo	-2729
leách	-2730
mhach	-2731
nelly	-2732
níomh	-2733
oirth	-2734
raing	-2735
scéal	-2736
áilte	-2737
▁Iarr	-2738
▁Lagh	-2739
▁airg	-2740
▁aist	-2741
▁atos	-2742
▁chón	-2743
▁coic	-2744
▁fíor	-2745
▁ghnó	-2746
▁mhol	-2747
▁rang	-2748
▁raon	-2749
▁tacú	-2750
ileáin	-2751
▁Faigh	-2752
▁análú	-2753
▁beart	-2754
▁beirt	-2755
▁bhonn	-2756
▁chead	-2757
▁naíon	-2758
eithimh	-2759
speicis	-2760
▁Molann	-2761
▁Tugtar	-2762
▁breith	-2763
▁earraí	-2764
▁fhoils	-2765
▁haoine	-2766
▁istigh	-2767
▁limist	-2768
▁réimsí	-2769
▁scrios	-2770
▁trácht	-2771
shláinte	-2772
▁chuairt	-2773
▁clainne	-2774
▁margadh	-2775
▁mholtar	-2776
▁micheál	-2777
▁moderna	-2778
aireachas	-2779
▁donnelly	-2780
▁forbairt	-2781
▁braoiníní	-2782
▁ganntanas	-2783
▁paraicéit	-2784
▁phróitéin	-2785
▁sciatháin	-2786
▁theorannú	-2787
▁uachtarán	-2788
▁cineálacha	-2789
▁cruinnithe	-2790
▁eacnamaíoch	-2791
▁riachtanacha	-2792
▁tuismitheoirí	-2793
▁paraicéiteamól	-2794
0,	-2795
48	-2796
66	-2797
ec	-2798
ik	-2799
nl	-2800
mar	-2801
tor	-2802
▁48	-2803
▁ad	-2804
▁fl	-2805
▁gl	-2806
▁ir	-2807
▁rt	-2808
▁ól	-2809
cúnú	-2810
iall	-2811
iamh	-2812
iúna	-2813
olog	-2814
ordú	-2815
osca	-2816
thas	-2817
treo	-2818
áinl	-2819
▁Cad	-2820
▁For	-2821
▁Ion	-2822
▁ace	-2823
▁asl	-2824
▁dtu	-2825
▁hom	-2826
▁ins	-2827
▁ndú	-2828
▁pcr	-2829
andam	-2830
chomh	-2831
earbh	-2832
facha	-2833
igiún	-2834
tharn	-2835
ínigh	-2836
▁Glan	-2837
▁bhrú	-2838
▁fadt	-2839
▁fadú	-2840
▁mbun	-2841
▁mhar	-2842
▁mrna	-2843
▁shin	-2844
▁tair	-2845
▁thit	-2846
▁tuir	-2847
▁éirí	-2848
raíodh	-2849
▁2019,	-2850
▁Ionad	-2851
▁Rinne	-2852
▁ailse	-2853
▁athmh	-2854
▁bheag	-2855
▁linbh	-2856
▁mbain	-2857
▁meabh	-2858
▁meách	-2859
▁ríomh	-2860
▁ábhar	-2861
amáiste	-2862
fheidhm	-2863
áineadh	-2864
▁Tabhar	-2865
▁bailiú	-2866
▁choinn	-2867
▁chógas	-2868
▁cocúnú	-2869
▁dtithe	-2870
▁ghéanó	-2871
▁grúpaí	-2872
▁moladh	-2873
▁paisin	-2874
▁pangol	-2875
▁randam	-2876
▁scoite	-2877
▁shúile	-2878
aibheath	-2879
▁bealach	-2880
▁coimeád	-2881
▁imeacht	-2882
▁iompair	-2883
▁nósanna	-2884
▁oiriúnú	-2885
▁ordaigh	-2886
▁réigiún	-2887
▁saoráid	-2888
▁satharn	-2889
▁sonrach	-2890
▁Seachain	-2891
▁bhrasaíl	-2892
▁dochtúra	-2893
▁fhorbair	-2894
▁ghlacadh	-2895
▁laethúla	-2896
▁leithris	-2897
▁macasamh	-2898
▁ndéanann	-2899
▁slaghdán	-2900
▁éabhlóid	-2901
ábhachtach	-2902
▁chinneadh	-2903
▁limistéar	-2904
▁méadaithe	-2905
▁nuashonrú	-2906
▁scriosadh	-2907
▁soláthair	-2908
airshláinte	-2909
▁freagartha	-2910
▁sheirbhísí	-2911
▁straitéisí	-2912
aibheathaigh	-2913
▁chliniciúil	-2914
▁gcoróinvíreas	-2915
▁ollscoileanna	-2916
▁teicneolaíocht	-2917
07	-2918
37	-2919
pp	-2920
sú	-2921
yl	-2922
yn	-2923
dla	-2924
fss	-2925
hku	-2926
iam	-2927
ros	-2928
róg	-2929
tad	-2930
usa	-2931
úin	-2932
úsh	-2933
▁38	-2934
▁Na	-2935
▁Rá	-2936
▁ab	-2937
▁bó	-2938
▁te	-2939
aird	-2940
alla	-2941
idhm	-2942
iomp	-2943
ivet	-2944
róif	-2945
rúil	-2946
scla	-2947
íniú	-2948
▁Sna	-2949
▁aig	-2950
▁clo	-2951
▁deo	-2952
▁ith	-2953
▁lit	-2954
▁ról	-2955
aiste	-2956
atáin	-2957
chadh	-2958
mheas	-2959
íteas	-2960
▁chlé	-2961
▁cian	-2962
▁cáis	-2963
▁gurb	-2964
▁iúil	-2965
▁leic	-2966
▁nigh	-2967
▁rann	-2968
▁teag	-2969
▁éard	-2970
▁óige	-2971
aidhme	-2972
arsáid	-2973
daíodh	-2974
eangal	-2975
iseadh	-2976
stacha	-2977
▁aidhm	-2978
▁chill	-2979
▁civet	-2980
▁coisc	-2981
▁cothú	-2982
▁fadhb	-2983
▁faigh	-2984
▁fheic	-2985
▁féach	-2986
▁gasta	-2987
▁mílte	-2988
▁sceid	-2989
▁sheol	-2990
▁thion	-2991
iocfadh	-2992
lastach	-2993
ochtúir	-2994
thaíonn	-2995
▁Maidir	-2996
▁braith	-2997
▁chugat	-2998
▁chuige	-2999
▁córais	-3000
▁éadach	-3001
aisteach	-3002
▁Fanacht	-3003
▁Meastar	-3004
▁astráil	-3005
▁déantar	-3006
▁eitiltí	-3007
▁fhágáil	-3008
▁glacadh	-3009
▁imdhíon	-3010
▁scagadh	-3011
aispeáint	-3012
eolaíocha	-3013
▁Fuarthas	-3014
▁biontech	-3015
▁bunúsach	-3016
▁dáileoga	-3017
▁fhreagra	-3018
▁iontráil	-3019
▁mbealach	-3020
▁oifigigh	-3021
▁shábháil	-3022
▁torracha	-3023
scoileanna	-3024
▁Déanfaidh	-3025
▁comparáid	-3026
▁céimeanna	-3027
▁deacracht	-3028
▁forbartha	-3029
▁rialaithe	-3030
eagmhálacha	-3031
▁bhfaighidh	-3032
▁chaitheann	-3033
▁gcaithfidh	-3034
▁mheánoirth	-3035
eagmhálaithe	-3036
▁dearbhaíodh	-3037
▁meastacháin	-3038
▁soláthairtí	-3039
▁thuairisciú	-3040
▁athbhreithniú	-3041
▁tromchúiseach	-3042
▁gníomhaíochtaí	-3043
▁ngartheagmháil	-3044
10	-3045
14	-3046
25	-3047
36	-3048
47	-3049
68	-3050
nó	-3051
íd	-3052
olo	-3053
oth	-3054
pla	-3055
scr	-3056
ula	-3057
who	-3058
▁70	-3059
▁Im	-3060
▁oc	-3061
agra	-3062
ailí	-3063
ainm	-3064
dars	-3065
eill	-3066
itim	-3067
onna	-3068
éard	-3069
▁car	-3070
▁cul	-3071
▁fág	-3072
▁ios	-3073
▁new	-3074
▁ábh	-3075
anann	-3076
arsúr	-3077
iarmh	-3078
iméir	-3079
laigh	-3080
roich	-3081
taigh	-3082
taofa	-3083
teist	-3084
tábla	-3085
tóirí	-3086
uaise	-3087
ábhar	-3088
▁Nach	-3089
▁alfa	-3090
▁béal	-3091
▁chúr	-3092
▁cloí	-3093
▁coth	-3094
▁dhún	-3095
▁dífh	-3096
▁earn	-3097
▁gcur	-3098
▁heag	-3099
▁muin	-3100
▁seas	-3101
▁soch	-3102
▁teil	-3103
▁tusa	-3104
▁uile	-3105
▁éire	-3106
ghleac	-3107
tachán	-3108
▁Roinn	-3109
▁atosú	-3110
▁bhfón	-3111
▁cille	-3112
▁druga	-3113
▁fhost	-3114
▁gearr	-3115
▁iomar	-3116
▁oiriú	-3117
▁siúil	-3118
▁spíce	-3119
▁thuas	-3120
churtha	-3121
eachtas	-3122
ghluais	-3123
rótacal	-3124
éalainn	-3125
▁Dúnadh	-3126
▁aslonn	-3127
▁breoit	-3128
▁bronch	-3129
▁cealla	-3130
▁chealú	-3131
▁cineál	-3132
▁comhdh	-3133
▁críoch	-3134
▁eiseam	-3135
▁imoibr	-3136
▁matáin	-3137
▁minice	-3138
▁ndeach	-3139
▁riocht	-3140
▁sraith	-3141
▁sreabh	-3142
▁séasúr	-3143
▁100,000	-3144
▁chógais	-3145
▁cothrom	-3146
▁dtosach	-3147
▁gcontae	-3148
▁leathnú	-3149
▁mhaithe	-3150
▁páipéar	-3151
▁páipéir	-3152
▁samhain	-3153
aireachta	-3154
▁aibreáin	-3155
▁cinneadh	-3156
▁cúramach	-3157
▁damáiste	-3158
▁díhiodrá	-3159
▁fhormhór	-3160
▁hiaráine	-3161
▁modhanna	-3162
▁níocháin	-3163
▁pangolin	-3164
▁scamhóga	-3165
teistiméir	-3166
áinliachta	-3167
▁Cleachtaí	-3168
▁acmhainní	-3169
▁cathracha	-3170
▁cónaidhme	-3171
▁fhoilsigh	-3172
▁leithreas	-3173
▁maireacht	-3174
▁ndochtúir	-3175
▁roinneann	-3176
▁spreagadh	-3177
ghleacaithe	-3178
▁Deimhníodh	-3179
▁ainsealach	-3180
▁braitheadh	-3181
▁california	-3182
▁criticiúla	-3183
▁meánscoile	-3184
▁ndeachaigh	-3185
▁phríobháid	-3186
▁scrúduithe	-3187
▁tháirgeadh	-3188
▁tuarascáil	-3189
▁Taispeánann	-3190
▁hionfhabhtú	-3191
▁maireachtáil	-3192
▁éifeachtúlacht	-3193
▁hionfhabhtuithe	-3194
%,	-3195
35	-3196
5%	-3197
cl	-3198
dr	-3199
fá	-3200
mo	-3201
uí	-3202
anc	-3203
cdc	-3204
eit	-3205
ina	-3206
irp	-3207
lam	-3208
nan	-3209
ony	-3210
ton	-3211
tús	-3212
íbh	-3213
íde	-3214
▁bí	-3215
▁lo	-3216
▁mé	-3217
aipe	-3218
cann	-3219
imhe	-3220
ions	-3221
ithn	-3222
iuch	-3223
nigh	-3224
onta	-3225
sála	-3226
ueto	-3227
ácha	-3228
éilí	-3229
óige	-3230
▁Cor	-3231
▁Cos	-3232
▁San	-3233
▁cúl	-3234
▁has	-3235
▁lag	-3236
▁ocs	-3237
▁orf	-3238
▁orm	-3239
▁pat	-3240
▁sul	-3241
▁thú	-3242
▁tán	-3243
▁uil	-3244
▁áis	-3245
▁íoc	-3246
balta	-3247
innte	-3248
loiní	-3249
lóidh	-3250
naimh	-3251
ogene	-3252
ology	-3253
roigh	-3254
uaigh	-3255
▁2021	-3256
▁Fliú	-3257
▁Níos	-3258
▁Sula	-3259
▁agam	-3260
▁aird	-3261
▁bail	-3262
▁bean	-3263
▁haon	-3264
▁háit	-3265
▁reil	-3266
▁réas	-3267
▁shuí	-3268
▁sórt	-3269
chumas	-3270
eantar	-3271
eiceas	-3272
fraice	-3273
rafach	-3274
taíonn	-3275
thacht	-3276
éigean	-3277
éitíde	-3278
íneach	-3279
▁Scaip	-3280
▁beaga	-3281
▁ceath	-3282
▁chabh	-3283
▁deich	-3284
▁dtreo	-3285
▁dúinn	-3286
▁eitle	-3287
▁fuinn	-3288
▁léana	-3289
▁maolú	-3290
▁marbh	-3291
▁mhéid	-3292
▁tithe	-3293
▁tráth	-3294
aintíní	-3295
ealtair	-3296
eilleag	-3297
inneoin	-3298
itheach	-3299
uetooth	-3300
▁Tugadh	-3301
▁antash	-3302
▁bhrath	-3303
▁breath	-3304
▁eitilt	-3305
▁fheabh	-3306
▁hoifig	-3307
▁polait	-3308
▁seomra	-3309
▁tagtha	-3310
achtarán	-3311
ostaithe	-3312
teachais	-3313
▁Casacht	-3314
▁airgead	-3315
▁braisle	-3316
▁ciarsúr	-3317
▁dhaonra	-3318
▁dtabhar	-3319
▁gcuirfí	-3320
▁iomarca	-3321
▁neamhch	-3322
▁príomha	-3323
▁speicis	-3324
aithníodh	-3325
darsnacht	-3326
eachtanna	-3327
phataigin	-3328
▁Bunaithe	-3329
▁ainneoin	-3330
▁hafraice	-3331
▁imscrúdú	-3332
▁iontaofa	-3333
▁oibríonn	-3334
▁reiligiú	-3335
▁seachain	-3336
▁speiceas	-3337
tarchurtha	-3338
▁ainmnithe	-3339
▁ardriosca	-3340
▁bhformhór	-3341
▁caithfidh	-3342
▁dhiagnóis	-3343
▁dromchlaí	-3344
▁faisnéise	-3345
▁fhaisnéis	-3346
▁fhianaise	-3347
▁laethanta	-3348
▁pleananna	-3349
▁Úsáideann	-3350
▁úsáidtear	-3351
▁Comharthaí	-3352
▁bhainistiú	-3353
▁múinteoirí	-3354
▁nochtaithe	-3355
▁roghnaíonn	-3356
▁scaoileadh	-3357
▁sheachtain	-3358
▁sláintiúla	-3359
▁taifeadadh	-3360
▁thógálacha	-3361
▁cuairteanna	-3362
▁dteastaíonn	-3363
▁idirghníomh	-3364
▁máinliachta	-3365
▁núicléitíde	-3366
▁saotharlann	-3367
▁sláinteachas	-3368
.0	-3369
16	-3370
17	-3371
27	-3372
57	-3373
6%	-3374
92	-3375
be	-3376
fe	-3377
ps	-3378
tt	-3379
ve	-3380
úb	-3381
-20	-3382
aca	-3383
ana	-3384
and	-3385
ent	-3386
ibé	-3387
lta	-3388
lío	-3389
man	-3390
nea	-3391
sin	-3392
thr	-3393
▁Br	-3394
▁ca	-3395
▁ct	-3396
▁cy	-3397
▁gu	-3398
▁ii	-3399
aidr	-3400
aoir	-3401
eata	-3402
eoga	-3403
eoil	-3404
fíor	-3405
iach	-3406
iche	-3407
lais	-3408
ligh	-3409
líon	-3410
ragh	-3411
raid	-3412
túil	-3413
áint	-3414
éara	-3415
▁4,7	-3416
▁Seo	-3417
▁adh	-3418
▁bis	-3419
▁cel	-3420
▁cin	-3421
▁céa	-3422
▁dhó	-3423
▁him	-3424
▁icu	-3425
▁int	-3426
▁iol	-3427
▁lon	-3428
▁mem	-3429
▁prá	-3430
▁sol	-3431
▁sub	-3432
▁une	-3433
ainní	-3434
chtúr	-3435
ithre	-3436
ríomh	-3437
seach	-3438
uaisc	-3439
óthar	-3440
▁Mhol	-3441
▁aipe	-3442
▁brus	-3443
▁char	-3444
▁cong	-3445
▁deis	-3446
▁dona	-3447
▁drom	-3448
▁díol	-3449
▁hong	-3450
▁leas	-3451
▁mian	-3452
▁ndún	-3453
▁ordú	-3454
▁phac	-3455
▁phyl	-3456
▁póil	-3457
▁tras	-3458
agairt	-3459
amaigh	-3460
eanach	-3461
eirthe	-3462
inneas	-3463
iomlán	-3464
▁Galar	-3465
▁Téigh	-3466
▁caint	-3467
▁ceana	-3468
▁cumas	-3469
▁cóiré	-3470
▁dhíth	-3471
▁dóigh	-3472
▁fhonn	-3473
▁féadf	-3474
▁haipe	-3475
▁lucht	-3476
▁mhair	-3477
▁miond	-3478
▁nithe	-3479
▁oíche	-3480
▁páirt	-3481
▁réidh	-3482
▁sular	-3483
▁titim	-3484
▁uasló	-3485
aoinigh	-3486
eabhrac	-3487
íneacha	-3488
▁Cuairt	-3489
▁Spreag	-3490
▁aeráil	-3491
▁comhch	-3492
▁céatad	-3493
▁dtéann	-3494
▁ionann	-3495
▁molann	-3496
▁orainn	-3497
▁phlean	-3498
▁smacht	-3499
▁thuras	-3500
▁unesco	-3501
▁éirigh	-3502
ogenetic	-3503
ospidéal	-3504
róitéine	-3505
sclaíodh	-3506
▁Scaradh	-3507
▁Tástáil	-3508
▁bainist	-3509
▁biseach	-3510
▁chonair	-3511
▁chuaigh	-3512
▁coicíse	-3513
▁coiscth	-3514
▁eabhrac	-3515
▁héirinn	-3516
▁leanann	-3517
▁marfach	-3518
▁measúnú	-3519
▁nasctha	-3520
▁oscailt	-3521
▁pangóil	-3522
▁tabhair	-3523
▁úrscéal	-3524
ardriosca	-3525
bhunaithe	-3526
eadúlacht	-3527
uaireanta	-3528
▁Baineadh	-3529
▁Cuirfidh	-3530
▁beartais	-3531
▁bialanna	-3532
▁comhairl	-3533
▁céadaoin	-3534
▁eorpacha	-3535
▁homology	-3536
▁laethúil	-3537
▁ndéanfaí	-3538
▁seiceáil	-3539
▁thorthaí	-3540
▁trialach	-3541
ghabhálach	-3542
iarmhairtí	-3543
▁Cabhróidh	-3544
▁aclaíocht	-3545
▁bluetooth	-3546
▁bunscoile	-3547
▁ceadaithe	-3548
▁chuirtear	-3549
▁coimeádta	-3550
▁fhoghlaim	-3551
▁gníomhach	-3552
▁mheiriceá	-3553
▁mheithimh	-3554
▁oifigiúla	-3555
▁oiriúnach	-3556
▁páirteach	-3557
▁riarachán	-3558
▁slaghdáin	-3559
cheisteanna	-3560
▁géiniteach	-3561
▁tacaíochta	-3562
thábhachtach	-3563
▁bhfaigheann	-3564
▁chleachtadh	-3565
▁comhaireamh	-3566
▁cuairteoirí	-3567
▁institiúidí	-3568
▁theaghlaigh	-3569
▁leochaileach	-3570
▁mheánoirthir	-3571
▁phylogenetic	-3572
▁saineolaithe	-3573
▁ghníomhaíocht	-3574
▁leitheadúlacht	-3575
▁teachtaireacht	-3576
▁fheidhmeannacht	-3577
▁príomhoifigeach	-3578
12	-3579
39	-3580
58	-3581
bú	-3582
▁y	-3583
500	-3584
ace	-3585
afa	-3586
ibe	-3587
maí	-3588
pcr	-3589
rar	-3590
rop	-3591
tok	-3592
ímh	-3593
óin	-3594
▁33	-3595
▁43	-3596
▁To	-3597
▁rí	-3598
earc	-3599
fort	-3600
iarr	-3601
ilip	-3602
inch	-3603
labh	-3604
mpor	-3605
ruth	-3606
sius	-3607
thír	-3608
tóga	-3609
áidí	-3610
éire	-3611
éise	-3612
▁80%	-3613
▁Gan	-3614
▁and	-3615
▁cla	-3616
▁fia	-3617
▁nao	-3618
▁rté	-3619
▁tcm	-3620
aidis	-3621
chlár	-3622
eolaí	-3623
iripe	-3624
sanna	-3625
taobh	-3626
▁9.30	-3627
▁Forb	-3628
▁cuar	-3629
▁dtír	-3630
▁dtóg	-3631
▁dúsh	-3632
▁físe	-3633
▁goir	-3634
▁holo	-3635
▁iobú	-3636
▁iona	-3637
▁laid	-3638
▁lorg	-3639
▁léar	-3640
▁mair	-3641
▁rach	-3642
▁sins	-3643
▁thac	-3644
▁tony	-3645
aiméar	-3646
aoiniú	-3647
chúrsa	-3648
faimid	-3649
imheas	-3650
iotóga	-3651
iseamh	-3652
rasóil	-3653
ránach	-3654
tokine	-3655
túrtha	-3656
éadann	-3657
▁Cháin	-3658
▁Roghn	-3659
▁camel	-3660
▁ceadú	-3661
▁chaoi	-3662
▁droch	-3663
▁feabh	-3664
▁gabhd	-3665
▁gcúis	-3666
▁inter	-3667
▁ionch	-3668
▁iontr	-3669
▁leaba	-3670
▁mhodh	-3671
▁nuabh	-3672
▁páirc	-3673
▁riamh	-3674
▁scála	-3675
▁súile	-3676
aisteal	-3677
aithigh	-3678
eineafó	-3679
iteacha	-3680
ithníní	-3681
ruchtúr	-3682
▁Daoine	-3683
▁Sonraí	-3684
▁bheadh	-3685
▁bhuail	-3686
▁boladh	-3687
▁chreid	-3688
▁comhsh	-3689
▁fhéile	-3690
▁ghearr	-3691
▁guaise	-3692
▁margaí	-3693
▁moltar	-3694
▁ngalar	-3695
▁nuacht	-3696
▁salach	-3697
▁teirip	-3698
▁thairg	-3699
▁ullmhú	-3700
▁ábalta	-3701
▁óstáil	-3702
aitheach	-3703
mpordach	-3704
próitéin	-3705
áirteach	-3706
▁Gabhadh	-3707
▁bhealaí	-3708
▁celsius	-3709
▁cúrsála	-3710
▁gcéanna	-3711
▁gnéithe	-3712
▁holohan	-3713
▁idirlín	-3714
▁innéacs	-3715
▁leabhar	-3716
▁láithre	-3717
▁measadh	-3718
▁meáchan	-3719
▁neamhsp	-3720
▁pháirtí	-3721
▁rabhadh	-3722
▁síneadh	-3723
▁theacht	-3724
▁uathúil	-3725
fhoghlama	-3726
uaisceart	-3727
▁ceathrar	-3728
▁cytokine	-3729
▁cáineadh	-3730
▁eisiúint	-3731
▁nochtadh	-3732
▁náisiúin	-3733
▁núíosach	-3734
▁ranganna	-3735
▁sceideal	-3736
▁siomptóm	-3737
aidisiúnta	-3738
aighdeoirí	-3739
aiméaráise	-3740
▁Caithfidh	-3741
▁Roghnaigh	-3742
▁bhféadfaí	-3743
▁cheannach	-3744
▁cumarsáid	-3745
▁céimnithe	-3746
▁dhiúltach	-3747
▁difríocht	-3748
▁faoiseamh	-3749
▁fhiabhras	-3750
▁héifeacht	-3751
▁measartha	-3752
▁oifigeach	-3753
▁oifigiúil	-3754
▁próitéine	-3755
▁saoránach	-3756
▁toirmeasc	-3757
▁tseirbhís	-3758
▁tuairiscí	-3759
ghabhálacha	-3760
▁ceisteanna	-3761
▁coraintíní	-3762
▁institiúid	-3763
▁laidineach	-3764
▁macasamhlú	-3765
▁paisinéirí	-3766
▁randamacha	-3767
▁thrialacha	-3768
▁tuairisciú	-3769
▁tuarascála	-3770
▁fhaireachas	-3771
▁nuabheirthe	-3772
ionfhabhtuithe	-3773
▁sainaithníodh	-3774
teistiméireachta	-3775
▁antaibheathaigh	-3776
▁saincheisteanna	-3777
▁éifeachtúlachta	-3778
30	-3779
45	-3780
53	-3781
69	-3782
74	-3783
91	-3784
av	-3785
ay	-3786
óp	-3787
100	-3788
aiw	-3789
amp	-3790
ane	-3791
ash	-3792
caí	-3793
irg	-3794
mha	-3795
oph	-3796
par	-3797
uro	-3798
óga	-3799
▁39	-3800
▁99	-3801
▁be	-3802
▁ib	-3803
▁km	-3804
▁ma	-3805
▁rb	-3806
▁us	-3807
aígh	-3808
eodh	-3809
intí	-3810
istí	-3811
lána	-3812
náth	-3813
róir	-3814
ínte	-3815
▁Bhu	-3816
▁bac	-3817
▁bru	-3818
▁clu	-3819
▁cód	-3820
▁ghá	-3821
▁héa	-3822
▁mbr	-3823
▁mon	-3824
▁org	-3825
▁rad	-3826
▁rat	-3827
▁río	-3828
▁spr	-3829
▁tam	-3830
▁tap	-3831
▁tra	-3832
aiwan	-3833
asana	-3834
brane	-3835
caigh	-3836
chair	-3837
dlata	-3838
ealla	-3839
eimic	-3840
eithe	-3841
eomra	-3842
icind	-3843
ictiú	-3844
iltír	-3845
iocht	-3846
iteas	-3847
laidh	-3848
láine	-3849
neach	-3850
olait	-3851
thain	-3852
éanta	-3853
▁Cuid	-3854
▁Oibr	-3855
▁Seas	-3856
▁atru	-3857
▁bhfo	-3858
▁bord	-3859
▁buid	-3860
▁cibé	-3861
▁cáil	-3862
▁eala	-3863
▁fhan	-3864
▁fuar	-3865
▁hard	-3866
▁hind	-3867
▁inar	-3868
▁long	-3869
▁mara	-3870
▁mhná	-3871
▁pail	-3872
▁post	-3873
▁réit	-3874
▁saol	-3875
▁stoc	-3876
▁sách	-3877
▁tasc	-3878
aigine	-3879
aiginí	-3880
bhaint	-3881
ghalrú	-3882
gneamh	-3883
náithe	-3884
uairim	-3885
▁Ansin	-3886
▁Duine	-3887
▁Fógra	-3888
▁alcól	-3889
▁atreo	-3890
▁baill	-3891
▁bhail	-3892
▁breis	-3893
▁ceang	-3894
▁choim	-3895
▁dheas	-3896
▁dhiúl	-3897
▁dhíol	-3898
▁gcóir	-3899
▁ghéin	-3900
▁gnéas	-3901
▁gréas	-3902
▁inniu	-3903
▁laghd	-3904
▁litir	-3905
▁mothú	-3906
▁ngall	-3907
▁poist	-3908
▁scéim	-3909
▁triúr	-3910
eantais	-3911
eálacha	-3912
eánacha	-3913
iantúil	-3914
illithe	-3915
isteach	-3916
ivíreas	-3917
oblacht	-3918
teritis	-3919
éileáil	-3920
▁aigéad	-3921
▁amharc	-3922
▁atáirg	-3923
▁bhunús	-3924
▁cearta	-3925
▁chaith	-3926
▁cheadú	-3927
▁choirp	-3928
▁chónaí	-3929
▁coiste	-3930
▁céadta	-3931
▁foinse	-3932
▁foinsí	-3933
▁huisce	-3934
▁iarrth	-3935
▁léiriú	-3936
▁líonra	-3937
▁mhaith	-3938
▁oibriú	-3939
▁pháirt	-3940
▁táirgí	-3941
▁tógála	-3942
aolaithe	-3943
éarmacha	-3944
▁Clúdach	-3945
▁Iarrfar	-3946
▁Labhair	-3947
▁aistriú	-3948
▁anacair	-3949
▁bhreise	-3950
▁codlata	-3951
▁dóchúil	-3952
▁easnamh	-3953
▁formhór	-3954
▁lárnach	-3955
▁mamaigh	-3956
▁mbraith	-3957
▁mholadh	-3958
▁miotóga	-3959
▁ngrúpaí	-3960
▁shroich	-3961
▁spleách	-3962
▁síneach	-3963
▁sócháin	-3964
▁teiripe	-3965
▁thugtar	-3966
▁tiomána	-3967
▁éilíonn	-3968
▁ísiltír	-3969
aighdeáin	-3970
ainmhithe	-3971
aitheoirí	-3972
eilleagar	-3973
ghluaiste	-3974
raitheach	-3975
théarmach	-3976
▁Baineann	-3977
▁Clúdaigh	-3978
▁Cuirfear	-3979
▁Thosaigh	-3980
▁aerasóil	-3981
▁airíonna	-3982
▁atruacha	-3983
▁cealtair	-3984
▁cheangal	-3985
▁cholainn	-3986
▁dhíreach	-3987
▁dtástáil	-3988
▁fheabhsú	-3989
▁fhostóir	-3990
▁freagraí	-3991
▁gcathair	-3992
▁iontrála	-3993
▁lárionad	-3994
▁membrane	-3995
▁mhoilliú	-3996
▁neamhghn	-3997
▁roghanna	-3998
▁soláthar	-3999
▁téarnamh	-4000
eineafóibe	-4001
luaiseacht	-4002
pháirteach	-4003
▁Tuilleadh	-4004
▁caithfear	-4005
▁cláraithe	-4006
▁coimisiún	-4007
▁comhartha	-4008
▁cultúrtha	-4009
▁dháileadh	-4010
▁dromlaigh	-4011
▁foilsíodh	-4012
▁mbaineann	-4013
▁sheiceáil	-4014
▁spreagann	-4015
láinteachas	-4016
▁Thaispeáin	-4017
▁athmholadh	-4018
▁bhfuarthas	-4019
▁dtrialacha	-4020
▁eachtracha	-4021
▁eolaíochta	-4022
▁gcoraintín	-4023
▁gcuirfeadh	-4024
▁gheobhaidh	-4025
▁hoifigiúil	-4026
▁phleananna	-4027
▁pháirtithe	-4028
▁smaoiseach	-4029
▁thuilleadh	-4030
▁éagsúlacht	-4031
▁úsáideoirí	-4032
▁chleachtais	-4033
▁coróinvíris	-4034
▁cothaithigh	-4035
▁cóireálacha	-4036
▁dhiagnóisiú	-4037
▁láithreacht	-4038
▁soghluaiste	-4039
▁taighdeoirí	-4040
▁thairiscint	-4041
▁díhiodráitiú	-4042
▁eacnamaíocha	-4043
▁gcodarsnacht	-4044
▁réamhchúraim	-4045
▁traidisiúnta	-4046
▁tuairiscithe	-4047
▁polaiméaráise	-4048
▁víreolaíochta	-4049
▁príobháideacha	-4050
▁thuairiscítear	-4051
▁ghartheagmhálaí	-4052
",	-4053
21	-4054
40	-4055
64	-4056
70	-4057
84	-4058
ck	-4059
íc	-4060
▁x	-4061
.4%	-4062
43,	-4063
cam	-4064
cas	-4065
com	-4066
cás	-4067
das	-4068
fan	-4069
gas	-4070
gen	-4071
ide	-4072
ona	-4073
osc	-4074
scú	-4075
uis	-4076
yng	-4077
íre	-4078
▁(5	-4079
▁80	-4080
▁85	-4081
▁Bí	-4082
▁Io	-4083
▁Pl	-4084
▁he	-4085
▁pa	-4086
▁rú	-4087
agus	-4088
ctha	-4089
ease	-4090
geap	-4091
ghdú	-4092
ipir	-4093
iúsc	-4094
land	-4095
lena	-4096
mraí	-4097
nass	-4098
ovir	-4099
rian	-4100
ráin	-4101
éasc	-4102
éith	-4103
▁1,0	-4104
▁120	-4105
▁20,	-4106
▁Lea	-4107
▁Tac	-4108
▁all	-4109
▁alp	-4110
▁cap	-4111
▁dig	-4112
▁dom	-4113
▁gov	-4114
▁ham	-4115
▁han	-4116
▁léi	-4117
▁muc	-4118
▁plé	-4119
▁rib	-4120
▁sam	-4121
▁ser	-4122
▁shl	-4123
▁shá	-4124
▁tal	-4125
airne	-4126
aithí	-4127
ampas	-4128
ardas	-4129
aryng	-4130
astro	-4131
eataí	-4132
eolch	-4133
eorpa	-4134
gaidh	-4135
lasma	-4136
próif	-4137
ruinn	-4138
róirí	-4139
tithe	-4140
uaite	-4141
ugann	-4142
▁Cinn	-4143
▁Ráig	-4144
▁cion	-4145
▁cuma	-4146
▁cóid	-4147
▁gaol	-4148
▁iniú	-4149
▁luas	-4150
▁luim	-4151
▁láid	-4152
▁mála	-4153
▁news	-4154
▁phlé	-4155
▁wash	-4156
dhealú	-4157
geapór	-4158
ialann	-4159
laghdú	-4160
éarmaí	-4161
éaróid	-4162
íochas	-4163
▁2021.	-4164
▁Cúram	-4165
▁Féach	-4166
▁achar	-4167
▁araib	-4168
▁bhrón	-4169
▁bhunú	-4170
▁choth	-4171
▁creid	-4172
▁cíche	-4173
▁cúige	-4174
▁fhill	-4175
▁fnass	-4176
▁fóill	-4177
▁gnóth	-4178
▁huimh	-4179
▁háise	-4180
▁iarra	-4181
▁iarth	-4182
▁nasal	-4183
▁próis	-4184
▁sampl	-4185
▁shain	-4186
▁séasú	-4187
▁thiar	-4188
▁thras	-4189
▁troma	-4190
▁trína	-4191
▁uaire	-4192
▁éascú	-4193
▁óstán	-4194
ithíoch	-4195
pháirtí	-4196
rasaíle	-4197
scríobh	-4198
thanach	-4199
▁Scaoil	-4200
▁Soláth	-4201
▁bogadh	-4202
▁branda	-4203
▁civets	-4204
▁dóichí	-4205
▁fliuch	-4206
▁heorpa	-4207
▁héasca	-4208
▁idanna	-4209
▁ionsaí	-4210
▁mhoill	-4211
▁roghnú	-4212
▁taiwan	-4213
▁throid	-4214
achtacha	-4215
aireanta	-4216
athracha	-4217
próifein	-4218
romchlaí	-4219
▁Déanfar	-4220
▁aeriomp	-4221
▁airíonn	-4222
▁aslonnú	-4223
▁bhfreag	-4224
▁cathair	-4225
▁chontae	-4226
▁dearbhú	-4227
▁dhaonna	-4228
▁dtugann	-4229
▁déanach	-4230
▁déanann	-4231
▁déantús	-4232
▁eisithe	-4233
▁eitleán	-4234
▁feabhas	-4235
▁ghloiní	-4236
▁glaonna	-4237
▁glasáil	-4238
▁hóstach	-4239
▁míleata	-4240
▁ndúnfaí	-4241
▁shádach	-4242
▁soicind	-4243
eografach	-4244
eolchoirm	-4245
ástálacha	-4246
éaróidigh	-4247
úsáideann	-4248
▁Taisteal	-4249
▁ardaithe	-4250
▁brasaíle	-4251
▁bruscair	-4252
▁difriúil	-4253
▁dtorthaí	-4254
▁feiceáil	-4255
▁feidhmiú	-4256
▁foireann	-4257
▁ghéanóim	-4258
▁imoibriú	-4259
▁leataobh	-4260
▁ndéanfar	-4261
▁oiliúint	-4262
▁orduithe	-4263
▁prognóis	-4264
▁prótacal	-4265
▁réasúnta	-4266
▁saoráidí	-4267
▁sochraid	-4268
▁sreabhán	-4269
▁teaglaim	-4270
▁éillithe	-4271
ostaíochta	-4272
theagmháil	-4273
▁aithníodh	-4274
▁antaiginí	-4275
▁cheantair	-4276
▁chlúdaigh	-4277
▁cleachtas	-4278
▁cáithníní	-4279
▁dearfacha	-4280
▁fadhbanna	-4281
▁fisiceach	-4282
▁singeapór	-4283
▁treochtaí	-4284
▁tábhairne	-4285
▁táirgeadh	-4286
▁téarnaimh	-4287
▁íoslaghdú	-4288
coronavirus	-4289
▁Braitheann	-4290
▁Gheobhaidh	-4291
▁Teastaíonn	-4292
▁aclaíochta	-4293
▁airgeadais	-4294
▁cleachtadh	-4295
▁dtiocfaidh	-4296
▁ghéarchéim	-4297
▁hathruithe	-4298
▁meastachán	-4299
▁ndochtúirí	-4300
▁práinneach	-4301
▁seachtainí	-4302
▁suntasacha	-4303
▁uachtarach	-4304
pháirtíochta	-4305
▁Tabharfaidh	-4306
▁aisghabháil	-4307
▁cónaitheoir	-4308
▁dlúthbhaint	-4309
▁fadtéarmach	-4310
▁leathnaithe	-4311
▁láithreacha	-4312
▁oibríochtaí	-4313
▁shaoránaigh	-4314
▁stéaróidigh	-4315
▁thaispeáint	-4316
phataigineach	-4317
▁cónaitheoirí	-4318
▁eagraíochtaí	-4319
▁héifeachtach	-4320
▁scagthástáil	-4321
▁séireolaíoch	-4322
▁éifeachtacha	-4323
▁éifeachtacht	-4324
▁eacnamaíochta	-4325
▁gartheagmhála	-4326
▁reiligiúnacha	-4327
▁sláinteachais	-4328
▁teorainneacha	-4329
▁feidhmeannacht	-4330
▁thaistealaithe	-4331
▁frithvíreasacha	-4332
);	-4333
.9	-4334
24	-4335
38	-4336
4)	-4337
75	-4338
99	-4339
cy	-4340
dó	-4341
lá	-4342
po	-4343
xf	-4344
íl	-4345
%),	-4346
300	-4347
ama	-4348
cep	-4349
cla	-4350
cor	-4351
cos	-4352
gaí	-4353
ice	-4354
iol	-4355
lei	-4356
mhí	-4357
nia	-4358
▁(1	-4359
▁34	-4360
▁45	-4361
▁Pr	-4362
▁St	-4363
▁ao	-4364
▁eo	-4365
▁fe	-4366
▁fú	-4367
▁ig	-4368
▁mc	-4369
▁mi	-4370
▁nh	-4371
▁sá	-4372
▁sú	-4373
▁tf	-4374
aige	-4375
aoll	-4376
arla	-4377
báin	-4378
chaí	-4379
dhío	-4380
eimh	-4381
ghin	-4382
ionc	-4383
lisí	-4384
mers	-4385
nald	-4386
nóir	-4387
ogle	-4388
rimh	-4389
roim	-4390
tion	-4391
traí	-4392
tábh	-4393
táit	-4394
untá	-4395
íosa	-4396
ófaí	-4397
óist	-4398
▁112	-4399
▁300	-4400
▁90%	-4401
▁Bia	-4402
▁Ith	-4403
▁Lig	-4404
▁Scr	-4405
▁app	-4406
▁cas	-4407
▁dhú	-4408
▁dár	-4409
▁fda	-4410
▁fen	-4411
▁hei	-4412
▁hua	-4413
▁imp	-4414
▁lom	-4415
▁lúb	-4416
▁mel	-4417
▁mis	-4418
▁nor	-4419
▁oxf	-4420
▁pas	-4421
▁rem	-4422
▁rún	-4423
▁sca	-4424
▁sos	-4425
▁tcp	-4426
▁ted	-4427
▁teo	-4428
▁tic	-4429
▁tim	-4430
▁téa	-4431
aimhn	-4432
altaí	-4433
chael	-4434
eamar	-4435
eicní	-4436
eifeá	-4437
eland	-4438
itíní	-4439
iáine	-4440
oirse	-4441
áille	-4442
ídíní	-4443
íreas	-4444
▁Aith	-4445
▁Cath	-4446
▁Cóir	-4447
▁Féin	-4448
▁aeir	-4449
▁arda	-4450
▁beta	-4451
▁cear	-4452
▁chao	-4453
▁chúl	-4454
▁cumh	-4455
▁diúl	-4456
▁dola	-4457
▁gear	-4458
▁inis	-4459
▁ions	-4460
▁moil	-4461
▁rabh	-4462
▁raid	-4463
▁ratg	-4464
▁sail	-4465
▁seic	-4466
▁seol	-4467
▁stór	-4468
▁todh	-4469
▁uill	-4470
achtaí	-4471
ailliú	-4472
aitear	-4473
aitist	-4474
ceptor	-4475
eafóin	-4476
eapann	-4477
easach	-4478
iciúil	-4479
ictiúr	-4480
ington	-4481
lannaí	-4482
omharc	-4483
onavir	-4484
▁Coinn	-4485
▁Mhéad	-4486
▁Roimh	-4487
▁Toisc	-4488
▁aimpl	-4489
▁anáil	-4490
▁bhear	-4491
▁bhfan	-4492
▁bholg	-4493
▁brais	-4494
▁buaic	-4495
▁béilí	-4496
▁caite	-4497
▁chair	-4498
▁delta	-4499
▁déard	-4500
▁garda	-4501
▁ghair	-4502
▁húdar	-4503
▁iomad	-4504
▁léith	-4505
▁lóist	-4506
▁patrú	-4507
▁phian	-4508
▁pobal	-4509
▁príos	-4510
▁saoil	-4511
▁scáil	-4512
▁solúb	-4513
▁strus	-4514
▁teoir	-4515
▁threo	-4516
▁throm	-4517
▁thuar	-4518
▁treal	-4519
▁uaidh	-4520
▁árann	-4521
▁éadaí	-4522
acsaíní	-4523
aispeán	-4524
braíonn	-4525
imhnigh	-4526
itheoir	-4527
teartha	-4528
ualainn	-4529
únaithe	-4530
▁Giorra	-4531
▁Tharla	-4532
▁alcóil	-4533
▁ardoid	-4534
▁bealaí	-4535
▁chuims	-4536
▁deacra	-4537
▁dhálaí	-4538
▁donald	-4539
▁duitse	-4540
▁gcionn	-4541
▁google	-4542
▁hindia	-4543
▁mbosca	-4544
▁mbrais	-4545
▁moltaí	-4546
▁míonna	-4547
▁nasoph	-4548
▁oideas	-4549
▁réimse	-4550
▁scaoll	-4551
▁sprioc	-4552
▁spéise	-4553
▁stádas	-4554
▁sóchán	-4555
▁tedros	-4556
▁táthar	-4557
▁ábhair	-4558
aryngeal	-4559
lastacha	-4560
▁Cathain	-4561
▁Chuaigh	-4562
▁Féadfar	-4563
▁bhearta	-4564
▁bpáiste	-4565
▁breoite	-4566
▁cathain	-4567
▁ceanada	-4568
▁chomhth	-4569
▁chritic	-4570
▁deiridh	-4571
▁earnáil	-4572
▁fhoinse	-4573
▁hamanna	-4574
▁ireland	-4575
▁itheann	-4576
▁labhair	-4577
▁léargas	-4578
▁maoiniú	-4579
▁mbeifeá	-4580
▁michael	-4581
▁naíonán	-4582
▁ndiaidh	-4583
▁ngníomh	-4584
▁oileáin	-4585
▁oilithr	-4586
▁oiliúna	-4587
▁póilíní	-4588
▁radagra	-4589
▁róthrom	-4590
▁scanadh	-4591
▁seomraí	-4592
▁sheomra	-4593
▁throigh	-4594
▁torrach	-4595
▁tuairim	-4596
earthacht	-4597
oirgneamh	-4598
shéalainn	-4599
▁Fiabhras	-4600
▁Ionfhabh	-4601
▁amhlaidh	-4602
▁bhféadfá	-4603
▁cathaoir	-4604
▁charnach	-4605
▁chomhair	-4606
▁chomhlío	-4607
▁cuireann	-4608
▁céatadán	-4609
▁cóimheas	-4610
▁deimhniú	-4611
▁dháileog	-4612
▁dhéanfar	-4613
▁déileáil	-4614
▁díolúine	-4615
▁foghlama	-4616
▁ghlacann	-4617
▁ghlasáil	-4618
▁gréasáin	-4619
▁hoileáin	-4620
▁húdaráis	-4621
▁iolracha	-4622
▁léirithe	-4623
▁naíonáin	-4624
▁pangóilí	-4625
▁receptor	-4626
▁spásanna	-4627
▁staitist	-4628
▁todhchaí	-4629
athlastach	-4630
ionfhabhtú	-4631
ruchtúrtha	-4632
stiúrthóir	-4633
▁Cuimsíonn	-4634
▁Fógraíodh	-4635
▁Príobháid	-4636
▁aimplithe	-4637
▁bliantúil	-4638
▁bpoblacht	-4639
▁cheadaigh	-4640
▁cleachtaí	-4641
▁coinneáil	-4642
▁comhsheas	-4643
▁dtiocfadh	-4644
▁déardaoin	-4645
▁eagraithe	-4646
▁eiseamail	-4647
▁ghiniúint	-4648
▁iniúchadh	-4649
▁maolaithe	-4650
▁mhéadaigh	-4651
▁ocsaigine	-4652
▁seachadta	-4653
▁séasúrach	-4654
▁tairseach	-4655
▁trealaimh	-4656
eastalaíonn	-4657
eolaíochtaí	-4658
tábhachtach	-4659
▁Cabhraíonn	-4660
▁Forbraíodh	-4661
▁Laghdaíonn	-4662
▁bronchitis	-4663
▁deireanach	-4664
▁dianchúram	-4665
▁gcomhairle	-4666
▁geografach	-4667
▁leanúnacha	-4668
▁mhéadaithe	-4669
▁minicíocht	-4670
▁seachadadh	-4671
▁thromchúis	-4672
▁tuachtarán	-4673
▁washington	-4674
▁breoiteacht	-4675
▁chiallaíonn	-4676
▁feidhmeanna	-4677
▁huimhreacha	-4678
▁muinteartha	-4679
▁seineafóibe	-4680
▁aeriompartha	-4681
▁athraitheach	-4682
▁neamhghnácha	-4683
▁pataigineach	-4684
▁soláthraithe	-4685
▁éabhlóideach	-4686
▁seachtainiúil	-4687
▁nasopharyngeal	-4688
▁ríthábhachtach	-4689
▁thuismitheoirí	-4690
▁léitheoireachta	-4691
08	-4692
32	-4693
4.	-4694
61	-4695
80	-4696
9.	-4697
90	-4698
fn	-4699
he	-4700
nd	-4701
ry	-4702
▁ú	-4703
600	-4704
ala	-4705
aom	-4706
bia	-4707
chl	-4708
clú	-4709
dhe	-4710
eod	-4711
fhr	-4712
fiú	-4713
gar	-4714
hen	-4715
hou	-4716
hse	-4717
iog	-4718
mid	-4719
nár	-4720
ora	-4721
ork	-4722
phe	-4723
raf	-4724
roí	-4725
rug	-4726
tal	-4727
tre	-4728
tóm	-4729
ust	-4730
vid	-4731
ymp	-4732
ysp	-4733
éam	-4734
úsa	-4735
▁(6	-4736
▁(7	-4737
▁35	-4738
▁42	-4739
▁44	-4740
▁47	-4741
▁5,	-4742
▁55	-4743
▁65	-4744
▁Or	-4745
▁cn	-4746
▁et	-4747
▁ex	-4748
▁ip	-4749
▁pe	-4750
▁ul	-4751
▁wm	-4752
▁óc	-4753
aice	-4754
ailt	-4755
alóg	-4756
chas	-4757
desi	-4758
fhad	-4759
gáir	-4760
ians	-4761
idge	-4762
inal	-4763
inge	-4764
ings	-4765
iobr	-4766
ionó	-4767
ipid	-4768
kins	-4769
lamh	-4770
mhín	-4771
nasa	-4772
neas	-4773
oirt	-4774
ostú	-4775
rael	-4776
ttps	-4777
táin	-4778
uimh	-4779
utum	-4780
áirc	-4781
éige	-4782
óidí	-4783
óras	-4784
▁-19	-4785
▁500	-4786
▁95%	-4787
▁Aon	-4788
▁Atá	-4789
▁Dar	-4790
▁Fág	-4791
▁Tos	-4792
▁bol	-4793
▁dod	-4794
▁fer	-4795
▁fhu	-4796
▁frá	-4797
▁féa	-4798
▁fír	-4799
▁gcú	-4800
▁gly	-4801
▁hku	-4802
▁ibu	-4803
▁iii	-4804
▁mad	-4805
▁med	-4806
▁nig	-4807
▁pre	-4808
▁rbd	-4809
▁sru	-4810
▁síc	-4811
▁súg	-4812
▁tub	-4813
▁var	-4814
▁wiv	-4815
▁áir	-4816
aidhl	-4817
aince	-4818
amáin	-4819
annaí	-4820
darás	-4821
dháil	-4822
draig	-4823
duine	-4824
eirde	-4825
ghafa	-4826
iangh	-4827
ianna	-4828
intir	-4829
iopaí	-4830
laghd	-4831
laisí	-4832
loine	-4833
oscló	-4834
proif	-4835
roinn	-4836
treon	-4837
ympho	-4838
▁4.30	-4839
▁Cúis	-4840
▁Méad	-4841
▁Sain	-4842
▁Scrú	-4843
▁acad	-4844
▁astu	-4845
▁blas	-4846
▁cill	-4847
▁coir	-4848
▁crua	-4849
▁códú	-4850
▁dhig	-4851
▁dtea	-4852
▁gcol	-4853
▁gcos	-4854
▁geal	-4855
▁impl	-4856
▁iris	-4857
▁lear	-4858
▁liom	-4859
▁láir	-4860
▁moon	-4861
▁neod	-4862
▁stró	-4863
▁thos	-4864
▁tonn	-4865
▁zhan	-4866
▁áise	-4867
arthai	-4868
bhuntá	-4869
chtana	-4870
chéime	-4871
dhíola	-4872
earach	-4873
eicníc	-4874
eithic	-4875
eorach	-4876
itinne	-4877
itithe	-4878
labhra	-4879
lainne	-4880
meacha	-4881
neacha	-4882
raingt	-4883
yspnea	-4884
éimeag	-4885
úsaeim	-4886
▁2019.	-4887
▁Bhuel	-4888
▁Faoin	-4889
▁aistr	-4890
▁altra	-4891
▁apple	-4892
▁bhaol	-4893
▁bíodh	-4894
▁charr	-4895
▁chlár	-4896
▁chosa	-4897
▁cláir	-4898
▁cúigí	-4899
▁cúpla	-4900
▁dalta	-4901
▁dhifr	-4902
▁fhadú	-4903
▁fúthu	-4904
▁gaill	-4905
▁gairm	-4906
▁gclár	-4907
▁géine	-4908
▁hipir	-4909
▁luach	-4910
▁luain	-4911
▁mharú	-4912
▁mórch	-4913
▁naisc	-4914
▁rúise	-4915
▁rúnaí	-4916
▁scoir	-4917
▁shárú	-4918
▁socrú	-4919
▁thinn	-4920
▁uilig	-4921
aiceann	-4922
ardasho	-4923
bhannaí	-4924
desivir	-4925
eastail	-4926
fanacht	-4927
iobraid	-4928
iomáint	-4929
irítear	-4930
laimint	-4931
laítear	-4932
lóthach	-4933
oscailt	-4934
▁Bóthar	-4935
▁Cógais	-4936
▁agóide	-4937
▁beagán	-4938
▁beatha	-4939
▁bheart	-4940
▁chiall	-4941
▁chúrsa	-4942
▁comhrá	-4943
▁fhacht	-4944
▁fhailí	-4945
▁fhilip	-4946
▁fhoirm	-4947
▁gcógas	-4948
▁ghabhd	-4949
▁luaigh	-4950
▁lympho	-4951
▁lúnasa	-4952
▁meiric	-4953
▁mheicn	-4954
▁mhiond	-4955
▁mhéara	-4956
▁oxford	-4957
▁pointe	-4958
▁samhal	-4959
▁stoirm	-4960
▁taidhl	-4961
▁tapúla	-4962
▁teilif	-4963
▁triail	-4964
▁tréimh	-4965
▁tugtha	-4966
▁turais	-4967
▁éiligh	-4968
aibhithe	-4969
aineacht	-4970
impléasc	-4971
ospidéil	-4972
shnáithe	-4973
íoltóirí	-4974
▁aerlíne	-4975
▁aerálaí	-4976
▁atreorú	-4977
▁bhunadh	-4978
▁braislí	-4979
▁buidéil	-4980
▁caillte	-4981
▁chaomhn	-4982
▁cluichí	-4983
▁costais	-4984
▁críocha	-4985
▁dhúnann	-4986
▁dtreoir	-4987
▁dírithe	-4988
▁faighte	-4989
▁fraince	-4990
▁frídíní	-4991
▁féadfar	-4992
▁fíochán	-4993
▁glanadh	-4994
▁hionaid	-4995
▁innealt	-4996
▁iosrael	-4997
▁leithne	-4998
▁neamhdh	-4999
▁neamhst	-5000
▁ollmhar	-5001
▁pádraig	-5002
▁rathúil	-5003
▁rialála	-5004
▁roinnte	-5005
▁ráiteas	-5006
▁réitigh	-5007
▁ríochta	-5008
▁sinsear	-5009
▁sluaite	-5010
▁tagairt	-5011
▁threoir	-5012
▁threorú	-5013
▁uillinn	-5014
▁óstacha	-5015
chuirtear	-5016
raghsanna	-5017
▁Léiríonn	-5018
▁Tógfaidh	-5019
▁aipeanna	-5020
▁aisghafa	-5021
▁bailíodh	-5022
▁cardasho	-5023
▁cheapann	-5024
▁cliseadh	-5025
▁coláiste	-5026
▁corónach	-5027
▁cuardach	-5028
▁cuirfidh	-5029
▁dtarchur	-5030
▁dáileadh	-5031
▁fachtóir	-5032
▁fíocháin	-5033
▁ghéanóma	-5034
▁príomhch	-5035
▁shoiléir	-5036
▁tagartha	-5037
▁thaifead	-5038
▁thaistil	-5039
▁tionscad	-5040
▁toirmisc	-5041
▁tánaiste	-5042
eanglaíonn	-5043
lapróitéin	-5044
▁Athraíonn	-5045
▁Mhéadaigh	-5046
▁Tabharfar	-5047
▁Tarlaíonn	-5048
▁athraíonn	-5049
▁atáirgthe	-5050
▁chónaíonn	-5051
▁dhíghalrú	-5052
▁dtarlóidh	-5053
▁eachtrach	-5054
▁fheiceáil	-5055
▁fhreastal	-5056
▁fisiciúil	-5057
▁foirmiúil	-5058
▁fostaithe	-5059
▁fógraíodh	-5060
▁gcoitinne	-5061
▁gcuirfear	-5062
▁ghearradh	-5063
▁háiteanna	-5064
▁leictreon	-5065
▁leithligh	-5066
▁láithreán	-5067
▁lámhainní	-5068
▁meabhrach	-5069
▁mórdhíola	-5070
▁núíosacha	-5071
▁phataigin	-5072
▁phróiseas	-5073
▁scaipfidh	-5074
▁scaiptear	-5075
▁slabhrúil	-5076
▁smaoinigh	-5077
▁staidrimh	-5078
▁thiocfadh	-5079
▁tosaíocht	-5080
▁treoracha	-5081
▁ullmhacht	-5082
▁íomháithe	-5083
pháirtíocht	-5084
▁athlastach	-5085
▁bhfaighfeá	-5086
▁caighdeáin	-5087
▁ceolchoirm	-5088
▁choraintín	-5089
▁chuimsíonn	-5090
▁criticiúil	-5091
▁gnólachtaí	-5092
▁mhíochaine	-5093
▁ngéarchéim	-5094
▁oilithrigh	-5095
▁remdesivir	-5096
▁saoránaigh	-5097
▁uimhreacha	-5098
▁ullmhachta	-5099
éidearthacht	-5100
▁aireachtáil	-5101
▁aitheantais	-5102
▁bhfaigheadh	-5103
▁bhraitheann	-5104
▁chriticiúil	-5105
▁difríochtaí	-5106
▁dtuaisceart	-5107
▁díobhálacha	-5108
▁ghnólachtaí	-5109
▁ghéiniteach	-5110
▁impleachtaí	-5111
▁mbraitheann	-5112
▁oiriúnaithe	-5113
▁Sláinteachas	-5114
▁coisctheacha	-5115
▁comhairleach	-5116
▁fadthéarmach	-5117
▁fadtéarmacha	-5118
▁gníomhaíocht	-5119
▁neamhspleách	-5120
▁scagthástála	-5121
▁ardoideachais	-5122
▁fhilipíneacha	-5123
▁smachtbhannaí	-5124
▁comhsheasmhach	-5125
▁rannpháirteach	-5126
▁antashubstaintí	-5127
▁cardashoithíoch	-5128
▁ghnáthuaireanta	-5129
▁idirghabhálacha	-5130
▁teicneolaíochta	-5131
15	-5132
44	-5133
67	-5134
79	-5135
bc	-5136
di	-5137
do	-5138
ey	-5139
ió	-5140
pd	-5141
pt	-5142
rh	-5143
rt	-5144
%).	-5145
adk	-5146
aiv	-5147
ans	-5148
ase	-5149
bas	-5150
ber	-5151
bhu	-5152
gov	-5153
icn	-5154
les	-5155
mic	-5156
oic	-5157
olw	-5158
rac	-5159
ret	-5160
rós	-5161
ted	-5162
use	-5163
vac	-5164
val	-5165
war	-5166
óim	-5167
óip	-5168
▁00	-5169
▁1.	-5170
▁41	-5171
▁6,	-5172
▁7,	-5173
▁86	-5174
▁90	-5175
▁Bu	-5176
▁Sm	-5177
▁lt	-5178
▁of	-5179
▁sy	-5180
▁té	-5181
▁vó	-5182
▁wo	-5183
.8%)	-5184
aera	-5185
aict	-5186
anra	-5187
bola	-5188
chor	-5189
ecal	-5190
ence	-5191
flam	-5192
idhr	-5193
ilte	-5194
imín	-5195
inim	-5196
itío	-5197
lean	-5198
lánú	-5199
ncov	-5200
rial	-5201
scaí	-5202
túir	-5203
éala	-5204
íoll	-5205
íoló	-5206
órsa	-5207
úlra	-5208
▁(1)	-5209
▁(3)	-5210
▁30%	-5211
▁999	-5212
▁Aer	-5213
▁Fiú	-5214
▁Sco	-5215
▁Sin	-5216
▁Tag	-5217
▁abc	-5218
▁bor	-5219
▁bpo	-5220
▁bro	-5221
▁cis	-5222
▁cuí	-5223
▁dic	-5224
▁dif	-5225
▁fío	-5226
▁gao	-5227
▁gcr	-5228
▁hid	-5229
▁hop	-5230
▁ifr	-5231
▁lan	-5232
▁lío	-5233
▁mas	-5234
▁mbu	-5235
▁mhú	-5236
▁mur	-5237
▁mín	-5238
▁nba	-5239
▁nhs	-5240
▁nid	-5241
▁pac	-5242
▁rol	-5243
▁scí	-5244
▁sea	-5245
▁son	-5246
▁vir	-5247
▁íog	-5248
-19),	-5249
adkar	-5250
airte	-5251
aonad	-5252
ascun	-5253
bhrón	-5254
bhéil	-5255
dchum	-5256
eilge	-5257
eline	-5258
eofar	-5259
insím	-5260
iomad	-5261
itéir	-5262
leath	-5263
mptom	-5264
orths	-5265
tacht	-5266
thear	-5267
áillí	-5268
ásach	-5269
▁2002	-5270
▁Acla	-5271
▁Inis	-5272
▁Ráta	-5273
▁Srón	-5274
▁aill	-5275
▁bhfr	-5276
▁bolg	-5277
▁caif	-5278
▁ceap	-5279
▁cirt	-5280
▁coro	-5281
▁dath	-5282
▁deas	-5283
▁dhos	-5284
▁earr	-5285
▁glac	-5286
▁grós	-5287
▁ilch	-5288
▁inch	-5289
▁lond	-5290
▁mhac	-5291
▁mhal	-5292
▁morn	-5293
▁móil	-5294
▁naoi	-5295
▁néar	-5296
▁oird	-5297
▁scan	-5298
▁seis	-5299
▁stru	-5300
▁sárú	-5301
▁taom	-5302
▁thús	-5303
abháil	-5304
aicint	-5305
aigéad	-5306
annach	-5307
antáin	-5308
astáin	-5309
bridge	-5310
chtáil	-5311
eatain	-5312
eithne	-5313
ianadh	-5314
irimid	-5315
laithe	-5316
mheasa	-5317
scaoil	-5318
stinal	-5319
tachta	-5320
tráile	-5321
ustaim	-5322
íreach	-5323
▁1,000	-5324
▁Anois	-5325
▁Bíodh	-5326
▁Ghlac	-5327
▁aimín	-5328
▁airmh	-5329
▁ambas	-5330
▁aoise	-5331
▁aosta	-5332
▁balls	-5333
▁breat	-5334
▁caird	-5335
▁chódú	-5336
▁conte	-5337
▁cuims	-5338
▁dhéag	-5339
▁dtaca	-5340
▁dtuig	-5341
▁eatra	-5342
▁eisia	-5343
▁fecal	-5344
▁fhuil	-5345
▁fiche	-5346
▁foley	-5347
▁gaire	-5348
▁gcoim	-5349
▁ghéar	-5350
▁imigh	-5351
▁iontu	-5352
▁longa	-5353
▁línte	-5354
▁mbéal	-5355
▁ndaon	-5356
▁norma	-5357
▁ocras	-5358
▁ríofa	-5359
▁serop	-5360
▁siopa	-5361
▁sráid	-5362
▁suímh	-5363
▁talún	-5364
▁tearc	-5365
▁thoil	-5366
▁tholg	-5367
▁thábh	-5368
▁tsamh	-5369
▁tuirc	-5370
▁turas	-5371
▁téann	-5372
▁urlár	-5373
▁woolw	-5374
▁zhang	-5375
▁íocht	-5376
aictéar	-5377
airíonn	-5378
aistriú	-5379
aithint	-5380
bhliana	-5381
chumais	-5382
iolitis	-5383
ionchar	-5384
liúchán	-5385
thachta	-5386
éileamh	-5387
▁Gníomh	-5388
▁aerála	-5389
▁agóidí	-5390
▁aonaid	-5391
▁ardáin	-5392
▁athróg	-5393
▁bheaga	-5394
▁braite	-5395
▁chothú	-5396
▁chúige	-5397
▁comhla	-5398
▁costas	-5399
▁cuidiú	-5400
▁cumann	-5401
▁dhlúth	-5402
▁dochar	-5403
▁einsím	-5404
▁ferret	-5405
▁fhearr	-5406
▁fiáine	-5407
▁gascun	-5408
▁gastro	-5409
▁gceann	-5410
▁ghairm	-5411
▁gloine	-5412
▁glúine	-5413
▁gobhar	-5414
▁imscrú	-5415
▁insint	-5416
▁iomarc	-5417
▁ioncam	-5418
▁ionchó	-5419
▁linnte	-5420
▁luatha	-5421
▁mbeart	-5422
▁mhaígh	-5423
▁máithr	-5424
▁neartú	-5425
▁ngrúpa	-5426
▁peataí	-5427
▁ráitis	-5428
▁samhna	-5429
▁theicn	-5430
▁thithe	-5431
▁thrian	-5432
▁téarma	-5433
arascáil	-5434
eachtúil	-5435
fhabhtán	-5436
inchille	-5437
leibhéil	-5438
oibríonn	-5439
osclófaí	-5440
ástáladh	-5441
úlachtaí	-5442
▁2019-20	-5443
▁Dhearbh	-5444
▁Féadann	-5445
▁Seachas	-5446
▁Tarchur	-5447
▁Tinneas	-5448
▁aontais	-5449
▁breithe	-5450
▁buartha	-5451
▁bunaidh	-5452
▁cabhair	-5453
▁carnach	-5454
▁ceannas	-5455
▁chealla	-5456
▁chríoch	-5457
▁chúnamh	-5458
▁chúraim	-5459
▁cillian	-5460
▁cuirfiú	-5461
▁cumhach	-5462
▁cúigear	-5463
▁duánach	-5464
▁dyspnea	-5465
▁dóthain	-5466
▁ealaíon	-5467
▁feithic	-5468
▁féatais	-5469
▁gclinic	-5470
▁ghrúpaí	-5471
▁glasála	-5472
▁hopkins	-5473
▁iliomad	-5474
▁iomlána	-5475
▁meastar	-5476
▁morning	-5477
▁nascadh	-5478
▁ndeimhn	-5479
▁neamhfh	-5480
▁reachta	-5481
▁riaradh	-5482
▁réamhth	-5483
▁shasana	-5484
▁teicníc	-5485
▁teorann	-5486
▁thionsc	-5487
▁thoirch	-5488
▁túdarás	-5489
▁uilíoch	-5490
▁éireann	-5491
▁íochtar	-5492
aitheacha	-5493
chuireann	-5494
fhaisnéis	-5495
tóireacht	-5496
óinvíreas	-5497
úsáidtear	-5498
▁Paindéim	-5499
▁ceannach	-5500
▁chabhair	-5501
▁chosanta	-5502
▁cruinniú	-5503
▁códaithe	-5504
▁dteannta	-5505
▁earraigh	-5506
▁eiseamal	-5507
▁eolaithe	-5508
▁gceantar	-5509
▁gclúdach	-5510
▁gcodanna	-5511
▁ghlanann	-5512
▁grósaera	-5513
▁infhaigh	-5514
▁lagaithe	-5515
▁leictreo	-5516
▁mhantáin	-5517
▁mheastar	-5518
▁mhórthír	-5519
▁míchumas	-5520
▁núicléas	-5521
▁oiriúint	-5522
▁oirthear	-5523
▁poblacht	-5524
▁rochtana	-5525
▁sampláil	-5526
▁scáileán	-5527
▁shonrach	-5528
▁slabhraí	-5529
▁súgartha	-5530
▁theiripe	-5531
▁téalainn	-5532
▁varadkar	-5533
▁ábhartha	-5534
▁áiseanna	-5535
▁éiginnte	-5536
abharfaidh	-5537
choraintín	-5538
iméadaithe	-5539
ustaiméirí	-5540
▁Aclaíocht	-5541
▁Aithníodh	-5542
▁Comhairle	-5543
▁Cuimhnigh	-5544
▁Imeachtaí	-5545
▁Leanfaidh	-5546
▁Osclaíodh	-5547
▁Teagmháil	-5548
▁Tástáladh	-5549
▁achomharc	-5550
▁ainmníodh	-5551
▁bhainimid	-5552
▁bhfanfadh	-5553
▁bpróiseas	-5554
▁breataine	-5555
▁cailleadh	-5556
▁cambridge	-5557
▁choláiste	-5558
▁dtosaíonn	-5559
▁dtréimhse	-5560
▁déanfaidh	-5561
▁foriomlán	-5562
▁féachaint	-5563
▁gcuireann	-5564
▁hastráile	-5565
▁heipidéim	-5566
▁imdhíonta	-5567
▁luimneach	-5568
▁mhíchumas	-5569
▁miondíola	-5570
▁míchumais	-5571
▁ndéanfadh	-5572
▁phacáiste	-5573
▁scaipeann	-5574
▁shiondróm	-5575
▁socruithe	-5576
▁theoranta	-5577
▁toircheas	-5578
▁tráchtála	-5579
▁Úsáidtear	-5580
▁úsáideach	-5581
▁úsáideadh	-5582
athlastacha	-5583
chtaineacht	-5584
ictiúrlanna	-5585
▁bhfianaise	-5586
▁bhforbairt	-5587
▁chabhróidh	-5588
▁comhpháirt	-5589
▁compordach	-5590
▁cógaslanna	-5591
▁deimhníodh	-5592
▁dheimhnigh	-5593
▁dhromchlaí	-5594
▁earnálacha	-5595
▁forleithne	-5596
▁gcaitheann	-5597
▁gcéimeanna	-5598
▁ghanntanas	-5599
▁gníomhacha	-5600
▁gobharnóir	-5601
▁hainmhithe	-5602
▁idirdhealú	-5603
▁leachtanna	-5604
▁leathnaigh	-5605
▁phacastáin	-5606
▁riaracháin	-5607
▁réigiúnach	-5608
▁taispeáint	-5609
▁theagmháil	-5610
▁thiocfaidh	-5611
▁thurasóirí	-5612
▁woolworths	-5613
▁Dhearbhaigh	-5614
▁aimínaigéad	-5615
▁amharclanna	-5616
▁cheadaítear	-5617
▁chothabháil	-5618
▁chógaiseoir	-5619
▁comhcheilge	-5620
▁comhlachtaí	-5621
▁dteaghlaigh	-5622
▁fóillíochta	-5623
▁ghinearálta	-5624
▁gnáthchúrsa	-5625
▁gníomhartha	-5626
▁mhuinchille	-5627
▁réamhscoile	-5628
▁staitisticí	-5629
▁tánaisteach	-5630
▁veicteorach	-5631
▁zónóiseacha	-5632
▁breathnaíodh	-5633
▁breoiteachta	-5634
▁californians	-5635
▁chógaslannaí	-5636
▁díghalraithe	-5637
▁iobúpróifein	-5638
▁leabharlanna	-5639
▁polapróitéin	-5640
▁soláthraíonn	-5641
▁tábhachtacha	-5642
▁bronchiolitis	-5643
▁chónaitheoirí	-5644
▁phaindéimeach	-5645
▁réamhchúraimí	-5646
▁sholáthraithe	-5647
▁antashubstaint	-5648
▁infhaighteacht	-5649
▁príobháideacht	-5650
▁shábháilteacht	-5651
▁Príobháideachas	-5652
23	-5653
8.	-5654
93	-5655
ah	-5656
au	-5657
ct	-5658
gu	-5659
gó	-5660
ha	-5661
ii	-5662
ix	-5663
lr	-5664
mi	-5665
mr	-5666
nc	-5667
sl	-5668
su	-5669
...	-5670
.3%	-5671
.5%	-5672
.7%	-5673
162	-5674
63,	-5675
653	-5676
aer	-5677
amb	-5678
apa	-5679
art	-5680
dim	-5681
dro	-5682
dán	-5683
enz	-5684
gan	-5685
gúl	-5686
ike	-5687
ino	-5688
iop	-5689
ipt	-5690
iti	-5691
ity	-5692
lex	-5693
lúd	-5694
mat	-5695
nac	-5696
obú	-5697
oll	-5698
ond	-5699
onu	-5700
orp	-5701
ren	-5702
san	-5703
tes	-5704
uag	-5705
ísh	-5706
ísp	-5707
úna	-5708
▁1%	-5709
▁32	-5710
▁49	-5711
▁51	-5712
▁52	-5713
▁57	-5714
▁68	-5715
▁77	-5716
▁79	-5717
▁97	-5718
▁Cú	-5719
▁Dé	-5720
▁Gl	-5721
▁bo	-5722
▁cd	-5723
▁un	-5724
▁ww	-5725
▁óg	-5726
▁’.	-5727
-19;	-5728
aims	-5729
airg	-5730
angl	-5731
anom	-5732
arda	-5733
chan	-5734
chos	-5735
cyte	-5736
dúil	-5737
eais	-5738
eilf	-5739
eoit	-5740
gadh	-5741
imhs	-5742
ince	-5743
mhal	-5744
niac	-5745
níor	-5746
ocal	-5747
oilg	-5748
orta	-5749
ptid	-5750
páil	-5751
páin	-5752
ramh	-5753
ruit	-5754
réir	-5755
róid	-5756
sona	-5757
tril	-5758
udaí	-5759
utin	-5760
áram	-5761
ófar	-5762
▁(2)	-5763
▁(20	-5764
▁(38	-5765
▁1).	-5766
▁1.4	-5767
▁400	-5768
▁50%	-5769
▁60%	-5770
▁96%	-5771
▁Nap	-5772
▁Soc	-5773
▁Trí	-5774
▁adv	-5775
▁amp	-5776
▁ang	-5777
▁bag	-5778
▁bat	-5779
▁bce	-5780
▁blú	-5781
▁bró	-5782
▁cea	-5783
▁clg	-5784
▁com	-5785
▁dis	-5786
▁díd	-5787
▁eil	-5788
▁ens	-5789
▁ful	-5790
▁gae	-5791
▁hac	-5792
▁ifn	-5793
▁log	-5794
▁mal	-5795
▁mún	-5796
▁ndí	-5797
▁ost	-5798
▁per	-5799
▁sná	-5800
▁suí	-5801
▁sás	-5802
▁ual	-5803
▁www	-5804
▁éan	-5805
▁éic	-5806
-19).	-5807
achtú	-5808
adadh	-5809
aipín	-5810
allaí	-5811
aoise	-5812
bheag	-5813
check	-5814
dacha	-5815
eanas	-5816
eimhr	-5817
eiste	-5818
eofaí	-5819
fimid	-5820
foirt	-5821
igear	-5822
ileán	-5823
implí	-5824
iompú	-5825
ionós	-5826
mhara	-5827
mhóra	-5828
neaic	-5829
nuair	-5830
ochaí	-5831
onadh	-5832
onucl	-5833
phost	-5834
raidh	-5835
reval	-5836
shaol	-5837
singe	-5838
tasaí	-5839
túirt	-5840
víris	-5841
álann	-5842
éasúr	-5843
únach	-5844
▁2012	-5845
▁2018	-5846
▁8.30	-5847
▁Aims	-5848
▁Cill	-5849
▁Deac	-5850
▁Feic	-5851
▁Glac	-5852
▁Iobú	-5853
▁Iomp	-5854
▁Mair	-5855
▁Nuro	-5856
▁Rian	-5857
▁Stop	-5858
▁aici	-5859
▁anal	-5860
▁ardt	-5861
▁asma	-5862
▁bard	-5863
▁bhío	-5864
▁bonn	-5865
▁buna	-5866
▁béim	-5867
▁carr	-5868
▁chód	-5869
▁corp	-5870
▁dhea	-5871
▁diam	-5872
▁doic	-5873
▁dtit	-5874
▁ecdc	-5875
▁face	-5876
▁fall	-5877
▁feir	-5878
▁fuil	-5879
▁féar	-5880
▁haer	-5881
▁iata	-5882
▁intl	-5883
▁mach	-5884
▁ocht	-5885
▁pait	-5886
▁phar	-5887
▁rath	-5888
▁réad	-5889
▁siom	-5890
▁sist	-5891
▁slua	-5892
▁spás	-5893
▁tadh	-5894
▁thrí	-5895
▁uath	-5896
▁uibh	-5897
▁uíbh	-5898
20,000	-5899
ainéal	-5900
anacha	-5901
chláir	-5902
eantas	-5903
earraí	-5904
eathrú	-5905
eáilte	-5906
fraigh	-5907
ghrúpa	-5908
imdhío	-5909
inimic	-5910
iteáil	-5911
iúradh	-5912
lódáil	-5913
lúchta	-5914
mhacht	-5915
náimhs	-5916
profen	-5917
saíonn	-5918
sonaro	-5919
stitiú	-5920
thairn	-5921
uimhir	-5922
utóige	-5923
áirimh	-5924
áiríre	-5925
áthair	-5926
éagach	-5927
éamach	-5928
éanamh	-5929
íostaí	-5930
íosúin	-5931
íríonn	-5932
úsáide	-5933
▁7,162	-5934
▁Abair	-5935
▁Aonad	-5936
▁Garth	-5937
▁Gnáth	-5938
▁Srian	-5939
▁abair	-5940
▁aerbh	-5941
▁aithn	-5942
▁aonar	-5943
▁athch	-5944
▁athsh	-5945
▁buail	-5946
▁ceist	-5947
▁ceoil	-5948
▁cheil	-5949
▁chian	-5950
▁clárú	-5951
▁clóis	-5952
▁coles	-5953
▁consa	-5954
▁cúlch	-5955
▁cúrsa	-5956
▁dhísp	-5957
▁dtimp	-5958
▁ebola	-5959
▁fhual	-5960
▁gcead	-5961
▁gcéin	-5962
▁glynn	-5963
▁gruag	-5964
▁guang	-5965
▁géire	-5966
▁hidir	-5967
▁hoibr	-5968
▁imirt	-5969
▁laige	-5970
▁léamh	-5971
▁líomh	-5972
▁malar	-5973
▁mhóra	-5974
▁mions	-5975
▁máirt	-5976
▁mícho	-5977
▁naofa	-5978
▁nádúr	-5979
▁orgán	-5980
▁phost	-5981
▁phóca	-5982
▁polar	-5983
▁píoló	-5984
▁ronan	-5985
▁shaol	-5986
▁shiúl	-5987
▁stróc	-5988
▁swabs	-5989
▁sínte	-5990
▁thapa	-5991
▁theag	-5992
▁their	-5993
▁thíos	-5994
▁tordú	-5995
▁trian	-5996
▁triom	-5997
▁ísliú	-5998
anglaid	-5999
eánaigh	-6000
faíocht	-6001
illeann	-6002
ipidéim	-6003
iúlacht	-6004
lacháin	-6005
lándáil	-6006
pholait	-6007
phríomh	-6008
reagadh	-6009
romchla	-6010
thaíodh	-6011
▁Bhíonn	-6012
▁Campas	-6013
▁Ionaid	-6014
▁Luaigh	-6015
▁Moladh	-6016
▁Táimid	-6017
▁achain	-6018
▁alpaca	-6019
▁amanna	-6020
▁antaig	-6021
▁aontas	-6022
▁bhalla	-6023
▁bhfeic	-6024
▁bhfíor	-6025
▁bhéilí	-6026
▁breast	-6027
▁caighd	-6028
▁ceimic	-6029
▁ceirde	-6030
▁chaill	-6031
▁chláir	-6032
▁chúpla	-6033
▁coicís	-6034
▁comhio	-6035
▁coróin	-6036
▁cupáin	-6037
▁dhroim	-6038
▁dteach	-6039
▁eachtr	-6040
▁faoina	-6041
▁fasach	-6042
▁feiste	-6043
▁feline	-6044
▁fhaigh	-6045
▁fhocal	-6046
▁fhrith	-6047
▁fhógra	-6048
▁folamh	-6049
▁frámaí	-6050
▁imithe	-6051
▁ionada	-6052
▁mhothú	-6053
▁misean	-6054
▁ngnáth	-6055
▁nigéir	-6056
▁oileán	-6057
▁orgáin	-6058
▁oscail	-6059
▁ostair	-6060
▁phears	-6061
▁pionós	-6062
▁plasma	-6063
▁prince	-6064
▁páiste	-6065
▁rouhan	-6066
▁shíniú	-6067
▁simplí	-6068
▁smaoin	-6069
▁snámha	-6070
▁sputum	-6071
▁sruthú	-6072
▁tamall	-6073
▁ticéad	-6074
▁tobann	-6075
▁troigh	-6076
▁tréith	-6077
▁tugann	-6078
▁tugtar	-6079
▁táirge	-6080
▁áitigh	-6081
▁éanúil	-6082
aidreamh	-6083
aighdeán	-6084
eáchtáil	-6085
iabhrach	-6086
iúscairt	-6087
lúdaíonn	-6088
mhínithe	-6089
oibrithe	-6090
oibríoch	-6091
onraithe	-6092
ordaithe	-6093
proifein	-6094
rótacail	-6095
theannas	-6096
tógálach	-6097
▁Cásanna	-6098
▁Nurofen	-6099
▁Sábháil	-6100
▁adhanom	-6101
▁ailléir	-6102
▁aosaigh	-6103
▁beartas	-6104
▁bhreith	-6105
▁cailliú	-6106
▁chairde	-6107
▁chosúil	-6108
▁chúinsí	-6109
▁claonta	-6110
▁cogaidh	-6111
▁conaire	-6112
▁critéir	-6113
▁dheimhn	-6114
▁diamond	-6115
▁dtosódh	-6116
▁dtriail	-6117
▁déimeag	-6118
▁dúshlán	-6119
▁eisiata	-6120
▁fhuacht	-6121
▁forlíon	-6122
▁fulaing	-6123
▁gabhadh	-6124
▁gcineál	-6125
▁gconair	-6126
▁gcorróg	-6127
▁giniúna	-6128
▁gnóthaí	-6129
▁heagrán	-6130
▁iarthar	-6131
▁indiach	-6132
▁leathan	-6133
▁láidriú	-6134
▁líonadh	-6135
▁líonraí	-6136
▁lóistín	-6137
▁meascán	-6138
▁mholann	-6139
▁mórthír	-6140
▁músaeim	-6141
▁nuachta	-6142
▁oibrigh	-6143
▁patrúin	-6144
▁pholait	-6145
▁pirimid	-6146
▁rachadh	-6147
▁scagtha	-6148
▁shuíomh	-6149
▁shéasúr	-6150
▁shínigh	-6151
▁slabhra	-6152
▁stóráil	-6153
▁suaimhn	-6154
▁symptom	-6155
▁tamaill	-6156
▁theocht	-6157
▁tuáillí	-6158
▁téarmaí	-6159
▁uirlisí	-6160
▁éagsúil	-6161
ainneacha	-6162
aiscumair	-6163
chtúracha	-6164
dchumainn	-6165
enteritis	-6166
fheidhmiú	-6167
ghiniúint	-6168
imeachtaí	-6169
inicíocht	-6170
oláireamh	-6171
revalence	-6172
ruinnithe	-6173
uairisciú	-6174
íobhálach	-6175
▁Cinntigh	-6176
▁Cuidíonn	-6177
▁Cuirtear	-6178
▁Cáineadh	-6179
▁Fanfaidh	-6180
▁Laistigh	-6181
▁Trealamh	-6182
▁aerlínte	-6183
▁aimsithe	-6184
▁aimsíonn	-6185
▁bacainní	-6186
▁baictéar	-6187
▁cabhrach	-6188
▁casachta	-6189
▁cathrach	-6190
▁chaomhnú	-6191
▁cheanada	-6192
▁cheithre	-6193
▁choimeád	-6194
▁chomhrac	-6195
▁chonradh	-6196
▁claonadh	-6197
▁coláistí	-6198
▁cónaithe	-6199
▁díghalrú	-6200
▁eachtraí	-6201
▁himeacht	-6202
▁idirlíon	-6203
▁indéanta	-6204
▁infheist	-6205
▁iomadúla	-6206
▁leantach	-6207
▁leithéid	-6208
▁mascanna	-6209
▁mbainist	-6210
▁mbraisle	-6211
▁meáchain	-6212
▁mheasúnú	-6213
▁mhuintir	-6214
▁mháthair	-6215
▁mórchuid	-6216
▁ocsaigin	-6217
▁ollmhóra	-6218
▁próiseas	-6219
▁rabhaidh	-6220
▁rachaidh	-6221
▁rialacha	-6222
▁réiteach	-6223
▁sathairn	-6224
▁shamplaí	-6225
▁shliocht	-6226
▁socróidh	-6227
▁soiléire	-6228
▁sraithth	-6229
▁srianadh	-6230
▁teoiricí	-6231
▁tiomáint	-6232
▁tionscal	-6233
▁treasach	-6234
aispeántar	-6235
bhuntáiste	-6236
eathnaíodh	-6237
iarrachtaí	-6238
idhreachta	-6239
intestinal	-6240
isceachtaí	-6241
neaiceanna	-6242
ruitíneach	-6243
scaoileadh	-6244
▁Caithfear	-6245
▁Géarchéim	-6246
▁Scaipeann	-6247
▁Scaiptear	-6248
▁Seirbhísí	-6249
▁Smaoinigh	-6250
▁Tagraíonn	-6251
▁Tiocfaidh	-6252
▁athraithe	-6253
▁ballstáit	-6254
▁bhailíonn	-6255
▁bhreatain	-6256
▁bolsonaro	-6257
▁chomhordú	-6258
▁chúramóir	-6259
▁digiteach	-6260
▁diúltacha	-6261
▁enteritis	-6262
▁feithiclí	-6263
▁fheiceann	-6264
▁fheictear	-6265
▁fhreagair	-6266
▁foláirimh	-6267
▁fuinneamh	-6268
▁féadfaidh	-6269
▁gabhdóirí	-6270
▁gaillimhe	-6271
▁gcorcaigh	-6272
▁gcuirtear	-6273
▁ghabhdóir	-6274
▁ghualainn	-6275
▁hospidéil	-6276
▁iarratais	-6277
▁iarrthóra	-6278
▁infheidhm	-6279
▁iomarcach	-6280
▁leithlise	-6281
▁meánscoil	-6282
▁paisinéir	-6283
▁pataiginí	-6284
▁phleanáil	-6285
▁príomhúil	-6286
▁radagrafa	-6287
▁shaotharl	-6288
▁substaint	-6289
▁taibhithe	-6290
▁tarlaíonn	-6291
▁thiomáint	-6292
▁thionchar	-6293
▁threalamh	-6294
▁tionscail	-6295
▁uaslódála	-6296
▁uibheacha	-6297
▁veicteoir	-6298
▁veicteora	-6299
▁úsáideoir	-6300
astrazeneca	-6301
▁Braitheadh	-6302
▁Braithfidh	-6303
▁ainmneacha	-6304
▁cailliúint	-6305
▁choimisiún	-6306
▁choinníonn	-6307
▁chraiceann	-6308
▁chógaslann	-6309
▁comhdhúile	-6310
▁cruthaíonn	-6311
▁cumarsáide	-6312
▁cumhachtaí	-6313
▁cúlpháirtí	-6314
▁dífhabhtán	-6315
▁fhachtóirí	-6316
▁fhaightear	-6317
▁fhostaithe	-6318
▁gcathracha	-6319
▁hanaithnid	-6320
▁iarrthóirí	-6321
▁laghdaíonn	-6322
▁leathanach	-6323
▁leigheasra	-6324
▁mheabhrach	-6325
▁mheicniúil	-6326
▁páirceanna	-6327
▁riachtanas	-6328
▁roghnaithe	-6329
▁shocraíonn	-6330
▁shoiléiriú	-6331
▁shábháilte	-6332
▁sistéamach	-6333
▁soláthróir	-6334
▁teileafóin	-6335
▁thairgeann	-6336
▁tharraingt	-6337
▁tráchtairí	-6338
▁tábhachtaí	-6339
ghníomhartha	-6340
▁Cuairteanna	-6341
▁airmheánach	-6342
▁breastcheck	-6343
▁chliniciúla	-6344
▁coisctheach	-6345
▁coróivíreas	-6346
▁cuideachtaí	-6347
▁dtuarascáil	-6348
▁díghalraigh	-6349
▁fhorbraíonn	-6350
▁gcomharthaí	-6351
▁glantacháin	-6352
▁mhúinteoirí	-6353
▁mífhaisnéis	-6354
▁sheachadadh	-6355
▁siomptómach	-6356
▁Coróinvíreas	-6357
▁Soláthraíonn	-6358
▁Sraothartach	-6359
▁athosclaíodh	-6360
▁bhfaireachas	-6361
▁chomhlíonadh	-6362
▁chuairteoirí	-6363
▁cuimsitheach	-6364
▁dhíspreagadh	-6365
▁diagnóiseach	-6366
▁foghlaimeoir	-6367
▁ghluaiseacht	-6368
▁idirghabháil	-6369
▁intleachtúil	-6370
▁mheasúnaithe	-6371
▁sainmhínithe	-6372
▁solúbthachta	-6373
▁ceardchumainn	-6374
▁cianfhoghlama	-6375
▁hipirtheannas	-6376
▁meastóireacht	-6377
▁mhíbhuntáiste	-6378
▁struchtúracha	-6379
▁theagmhálacha	-6380
▁cothromaíochta	-6381
▁doiciméadaithe	-6382
▁dífhostaíochta	-6383
▁fhéidearthacht	-6384
▁meánscoileanna	-6385
▁oiriúnaitheach	-6386
▁phríobháideach	-6387
▁seroprevalence	-6388
▁siarghabhálach	-6389
▁séireolaíochta	-6390
phríomhoifigeach	-6391
▁athbhreithnithe	-6392
▁ceolchoirmeacha	-6393
▁ghníomhaireacht	-6394
'.	-6395
,0	-6396
,3	-6397
-3	-6398
-4	-6399
-7	-6400
41	-6401
42	-6402
62	-6403
72	-6404
77	-6405
88	-6406
96	-6407
98	-6408
ak	-6409
ax	-6410
ci	-6411
dá	-6412
em	-6413
hi	-6414
ji	-6415
ks	-6416
ok	-6417
ou	-6418
ov	-6419
pe	-6420
ws	-6421
.2%	-6422
19-	-6423
19.	-6424
405	-6425
566	-6426
63.	-6427
700	-6428
9,3	-6429
arm	-6430
aím	-6431
bai	-6432
bhé	-6433
ced	-6434
cet	-6435
dhó	-6436
drp	-6437
efa	-6438
eif	-6439
ell	-6440
fer	-6441
for	-6442
hom	-6443
icu	-6444
ive	-6445
leá	-6446
lin	-6447
lua	-6448
mad	-6449
mer	-6450
mit	-6451
miú	-6452
msa	-6453
nap	-6454
ney	-6455
obh	-6456
oco	-6457
oim	-6458
per	-6459
ppe	-6460
rey	-6461
rrt	-6462
rti	-6463
sha	-6464
sia	-6465
tcp	-6466
uim	-6467
urg	-6468
usp	-6469
uth	-6470
vel	-6471
way	-6472
xia	-6473
yan	-6474
áip	-6475
édh	-6476
íbe	-6477
óic	-6478
▁".	-6479
▁(0	-6480
▁36	-6481
▁4)	-6482
▁4.	-6483
▁63	-6484
▁69	-6485
▁71	-6486
▁73	-6487
▁95	-6488
▁Cá	-6489
▁Dó	-6490
▁Ph	-6491
▁Tu	-6492
▁af	-6493
▁ep	-6494
▁fá	-6495
▁gi	-6496
▁hy	-6497
▁ie	-6498
▁iv	-6499
▁li	-6500
▁my	-6501
▁ru	-6502
▁vs	-6503
-2).	-6504
07.1	-6505
aegu	-6506
ailc	-6507
anss	-6508
ards	-6509
book	-6510
béil	-6511
chen	-6512
chon	-6513
ctor	-6514
earn	-6515
edia	-6516
eilg	-6517
eála	-6518
flaí	-6519
ghrá	-6520
iage	-6521
iang	-6522
ibil	-6523
ical	-6524
icís	-6525
inda	-6526
itus	-6527
itín	-6528
iúir	-6529
leag	-6530
leic	-6531
léid	-6532
lódh	-6533
mhch	-6534
nálú	-6535
núil	-6536
oird	-6537
olta	-6538
omit	-6539
onji	-6540
orib	-6541
rion	-6542
rith	-6543
ruga	-6544
réas	-6545
réit	-6546
scóp	-6547
sell	-6548
sáil	-6549
tain	-6550
tama	-6551
tero	-6552
ther	-6553
thlú	-6554
tinn	-6555
tura	-6556
tóir	-6557
uain	-6558
véis	-6559
ware	-6560
zhou	-6561
áire	-6562
áras	-6563
éada	-6564
éill	-6565
éime	-6566
ónna	-6567
úpaí	-6568
▁(27	-6569
▁(4)	-6570
▁14,	-6571
▁15%	-6572
▁196	-6573
▁2,3	-6574
▁2,4	-6575
▁229	-6576
▁250	-6577
▁290	-6578
▁3,1	-6579
▁3.8	-6580
▁4,3	-6581
▁40%	-6582
▁70%	-6583
▁Aip	-6584
▁Air	-6585
▁Ais	-6586
▁Ant	-6587
▁Bog	-6588
▁Brú	-6589
▁Dea	-6590
▁Fia	-6591
▁Ins	-6592
▁amú	-6593
▁atr	-6594
▁bon	-6595
▁bus	-6596
▁buí	-6597
▁bán	-6598
▁cai	-6599
▁ceo	-6600
▁cil	-6601
▁dan	-6602
▁dia	-6603
▁dow	-6604
▁dán	-6605
▁far	-6606
▁fóg	-6607
▁gor	-6608
▁hae	-6609
▁hen	-6610
▁hin	-6611
▁hor	-6612
▁hse	-6613
▁hun	-6614
▁ili	-6615
▁ing	-6616
▁isp	-6617
▁jae	-6618
▁lio	-6619
▁lop	-6620
▁luí	-6621
▁lón	-6622
▁mhó	-6623
▁nce	-6624
▁nsp	-6625
▁ola	-6626
▁ord	-6627
▁pub	-6628
▁rin	-6629
▁rit	-6630
▁sic	-6631
▁sil	-6632
▁sta	-6633
▁sár	-6634
▁tin	-6635
▁wik	-6636
▁éit	-6637
2,000	-6638
2,653	-6639
ailin	-6640
aillí	-6641
ailín	-6642
ainiú	-6643
ansom	-6644
aolta	-6645
aonar	-6646
aontú	-6647
apáil	-6648
bhuan	-6649
chana	-6650
dheon	-6651
dladh	-6652
drocs	-6653
dóidh	-6654
ealbh	-6655
eansú	-6656
eimid	-6657
eipit	-6658
feron	-6659
fhada	-6660
ghais	-6661
ghlao	-6662
gnamh	-6663
https	-6664
iarth	-6665
icítí	-6666
ileog	-6667
ional	-6668
iopló	-6669
laise	-6670
leach	-6671
lithe	-6672
luath	-6673
málta	-6674
neamh	-6675
nóidh	-6676
nóirí	-6677
ogadh	-6678
oimre	-6679
osúla	-6680
pacha	-6681
raoth	-6682
reasc	-6683
rofen	-6684
rácht	-6685
scáil	-6686
spóid	-6687
tease	-6688
teric	-6689
ticos	-6690
uisín	-6691
virus	-6692
éagró	-6693
éimsí	-6694
éinte	-6695
óirín	-6696
óisir	-6697
▁1930	-6698
▁2003	-6699
▁269,	-6700
▁4,90	-6701
▁Bhío	-6702
▁Cnap	-6703
▁Deir	-6704
▁Fill	-6705
▁Seol	-6706
▁admh	-6707
▁aldi	-6708
▁asta	-6709
▁bair	-6710
▁banc	-6711
▁bhfu	-6712
▁bhog	-6713
▁bric	-6714
▁chuí	-6715
▁cúlú	-6716
▁déth	-6717
▁easc	-6718
▁euro	-6719
▁fhul	-6720
▁fhío	-6721
▁foch	-6722
▁fóir	-6723
▁gael	-6724
▁gafa	-6725
▁glao	-6726
▁gáma	-6727
▁héad	-6728
▁iasc	-6729
▁ilmh	-6730
▁imir	-6731
▁inné	-6732
▁loch	-6733
▁lrti	-6734
▁luch	-6735
▁léim	-6736
▁mais	-6737
▁marc	-6738
▁mear	-6739
▁meit	-6740
▁mell	-6741
▁mhao	-6742
▁mill	-6743
▁mídh	-6744
▁nato	-6745
▁nóim	-6746
▁osha	-6747
▁paid	-6748
▁paul	-6749
▁peir	-6750
▁phol	-6751
▁rccp	-6752
▁reid	-6753
▁rúin	-6754
▁sean	-6755
▁seip	-6756
▁sera	-6757
▁shíc	-6758
▁shíl	-6759
▁sint	-6760
▁sual	-6761
▁suir	-6762
▁taif	-6763
▁teip	-6764
▁tocs	-6765
▁tsao	-6766
▁uaig	-6767
▁uefa	-6768
▁áite	-6769
▁íoca	-6770
acanna	-6771
aidrid	-6772
aithne	-6773
annamh	-6774
anssen	-6775
clúidí	-6776
dachas	-6777
dhúlra	-6778
eabhar	-6779
eacair	-6780
eallta	-6781
eimirí	-6782
eitril	-6783
enzhen	-6784
fhreag	-6785
iceáil	-6786
illeán	-6787
imintí	-6788
inavir	-6789
iompar	-6790
iseann	-6791
istéir	-6792
ivíris	-6793
leácha	-6794
lúdódh	-6795
mhairg	-6796
mptóim	-6797
ovirus	-6798
pheile	-6799
phlean	-6800
rianta	-6801
réasán	-6802
rúpáil	-6803
taíodh	-6804
thaire	-6805
thráth	-6806
ualach	-6807
useppe	-6808
éalach	-6809
éilliú	-6810
éising	-6811
íbhinn	-6812
▁2,000	-6813
▁2003,	-6814
▁2009.	-6815
▁2012,	-6816
▁2020)	-6817
▁4,000	-6818
▁5,000	-6819
▁Baile	-6820
▁Brais	-6821
▁Chead	-6822
▁Covid	-6823
▁Creid	-6824
▁Dóibh	-6825
▁Gearr	-6826
▁Ghlan	-6827
▁Mheas	-6828
▁Páirc	-6829
▁Sheol	-6830
▁Suigh	-6831
▁Téann	-6832
▁aiste	-6833
▁araon	-6834
▁athló	-6835
▁bháis	-6836
▁bpost	-6837
▁béile	-6838
▁caoin	-6839
▁catar	-6840
▁chois	-6841
▁chroí	-6842
▁chách	-6843
▁ciall	-6844
▁creat	-6845
▁cruth	-6846
▁cuimh	-6847
▁cásca	-6848
▁céadf	-6849
▁daegu	-6850
▁daing	-6851
▁deoch	-6852
▁dhúsh	-6853
▁dátaí	-6854
▁díriú	-6855
▁eagrú	-6856
▁feola	-6857
▁fhada	-6858
▁fhorl	-6859
▁fhéin	-6860
▁fhóin	-6861
▁franc	-6862
▁gcarr	-6863
▁gcill	-6864
▁gcinn	-6865
▁ghlan	-6866
▁gorta	-6867
▁greim	-6868
▁haith	-6869
▁isced	-6870
▁lasta	-6871
▁lucha	-6872
▁léigh	-6873
▁meais	-6874
▁meicn	-6875
▁mhala	-6876
▁mhíle	-6877
▁mhóil	-6878
▁monar	-6879
▁monoc	-6880
▁murta	-6881
▁naomh	-6882
▁ranna	-6883
▁róimh	-6884
▁rúnda	-6885
▁saill	-6886
▁saint	-6887
▁sanit	-6888
▁schen	-6889
▁seilf	-6890
▁seoil	-6891
▁serum	-6892
▁sheas	-6893
▁stoic	-6894
▁síoch	-6895
▁thomh	-6896
▁troid	-6897
▁uasdá	-6898
▁vomit	-6899
▁árach	-6900
▁éadan	-6901
▁ólann	-6902
aillimh	-6903
aisleán	-6904
asamhlú	-6905
cheonji	-6906
chosúil	-6907
chuntas	-6908
chógais	-6909
dhéanta	-6910
ealacha	-6911
ealladh	-6912
eathana	-6913
ghrúpaí	-6914
ileanna	-6915
ireacht	-6916
labhraí	-6917
oláthar	-6918
raítear	-6919
reascóp	-6920
seachas	-6921
tómacha	-6922
vacsaín	-6923
édhearc	-6924
úsáidfí	-6925
▁(2019-	-6926
▁(5.8%)	-6927
▁10,000	-6928
▁50,000	-6929
▁Cosain	-6930
▁Cosúil	-6931
▁Dearbh	-6932
▁Déanta	-6933
▁Fanann	-6934
▁Scrios	-6935
▁Siopaí	-6936
▁Teacht	-6937
▁Tógtar	-6938
▁achair	-6939
▁aimsiú	-6940
▁aithne	-6941
▁allais	-6942
▁aláram	-6943
▁bainne	-6944
▁bhaill	-6945
▁bheilg	-6946
▁bhfliú	-6947
▁bhuaic	-6948
▁blúirí	-6949
▁bréige	-6950
▁caillt	-6951
▁cairte	-6952
▁calraí	-6953
▁camáin	-6954
▁carrsh	-6955
▁ceanna	-6956
▁chainn	-6957
▁chairt	-6958
▁chlann	-6959
▁chloch	-6960
▁chonas	-6961
▁chruth	-6962
▁chófra	-6963
▁cianda	-6964
▁cionta	-6965
▁coinní	-6966
▁croith	-6967
▁cruthú	-6968
▁cóisir	-6969
▁cúigiú	-6970
▁cúrsaí	-6971
▁daltaí	-6972
▁deoise	-6973
▁dhíriú	-6974
▁diopló	-6975
▁dtaobh	-6976
▁dúradh	-6977
▁eagrán	-6978
▁exorib	-6979
▁fheist	-6980
▁fhisic	-6981
▁fhéach	-6982
▁forluí	-6983
▁fágtha	-6984
▁gairis	-6985
▁garman	-6986
▁gcoinn	-6987
▁gcóiré	-6988
▁gcúige	-6989
▁ghorta	-6990
▁gloiní	-6991
▁hassan	-6992
▁imíonn	-6993
▁intíre	-6994
▁ioslam	-6995
▁logáil	-6996
▁láidre	-6997
▁maipín	-6998
▁mballa	-6999
▁mearbh	-7000
▁measta	-7001
▁mhaisc	-7002
▁mhonar	-7003
▁ndlúth	-7004
▁ndálaí	-7005
▁ngleic	-7006
▁nochtú	-7007
▁oilimp	-7008
▁pailin	-7009
▁phróis	-7010
▁ransom	-7011
▁saille	-7012
▁sasana	-7013
▁scríbe	-7014
▁scrúdú	-7015
▁scíthe	-7016
▁seasta	-7017
▁siamsa	-7018
▁stailc	-7019
▁tagann	-7020
▁taithí	-7021
▁triage	-7022
▁tréada	-7023
▁trúpaí	-7024
▁tuirse	-7025
▁táimid	-7026
▁vótáil	-7027
▁áirith	-7028
▁éigipt	-7029
▁íomháú	-7030
▁ócáidí	-7031
▁údarás	-7032
ailteach	-7033
aitheoir	-7034
aivíreas	-7035
asachtaí	-7036
bhreithe	-7037
ealaíonn	-7038
eallacht	-7039
eastóidh	-7040
eirbhíse	-7041
gúltacht	-7042
iabhrais	-7043
ianghraf	-7044
ineachán	-7045
inneamar	-7046
laghdáin	-7047
llmhaigh	-7048
nachtain	-7049
nachtana	-7050
national	-7051
niúmóine	-7052
onavirus	-7053
ordaíonn	-7054
ruthaigh	-7055
tréimhse	-7056
áireofaí	-7057
éifeacht	-7058
éireoidh	-7059
▁122,653	-7060
▁200,000	-7061
▁Leabhar	-7062
▁Leanann	-7063
▁Measann	-7064
▁Scríobh	-7065
▁Shínigh	-7066
▁anatama	-7067
▁ardaigh	-7068
▁atáthar	-7069
▁bagairt	-7070
▁bainise	-7071
▁bhainne	-7072
▁bheagán	-7073
▁bhearna	-7074
▁bhfoirm	-7075
▁bhreath	-7076
▁bhreoit	-7077
▁blianta	-7078
▁bonneag	-7079
▁bpríomh	-7080
▁chamáin	-7081
▁cheansú	-7082
▁chearta	-7083
▁choicís	-7084
▁chomhdh	-7085
▁ciníoch	-7086
▁cnáimhs	-7087
▁conradh	-7088
▁contúir	-7089
▁dearadh	-7090
▁deartha	-7091
▁dhoirse	-7092
▁drochth	-7093
▁ealaíne	-7094
▁eatramh	-7095
▁eilvéis	-7096
▁eitilte	-7097
▁enteric	-7098
▁fhanann	-7099
▁fírinne	-7100
▁gcealla	-7101
▁ghaolta	-7102
▁ghardaí	-7103
▁gheimhr	-7104
▁homalóg	-7105
▁iarmhar	-7106
▁iolrach	-7107
▁ionchur	-7108
▁ionrach	-7109
▁janssen	-7110
▁leagann	-7111
▁leagtha	-7112
▁leordhó	-7113
▁londain	-7114
▁mbileog	-7115
▁mhapáil	-7116
▁mhargaí	-7117
▁mhodhnú	-7118
▁milleán	-7119
▁montain	-7120
▁ndoirse	-7121
▁neamhbh	-7122
▁núicléa	-7123
▁phaisin	-7124
▁phianta	-7125
▁rioscaí	-7126
▁rolladh	-7127
▁rouhani	-7128
▁sailéid	-7129
▁sceidil	-7130
▁scrínte	-7131
▁seachtú	-7132
▁seisear	-7133
▁seoladh	-7134
▁shraith	-7135
▁spáinne	-7136
▁suirbhé	-7137
▁teastas	-7138
▁teiripí	-7139
▁theirip	-7140
▁thrasnú	-7141
▁thógann	-7142
▁trádáil	-7143
▁virions	-7144
aitheanta	-7145
aiticiúil	-7146
fhoghlaim	-7147
iúscartha	-7148
mhairithe	-7149
oideachas	-7150
onuclease	-7151
raíochtaí	-7152
▁Bhíothas	-7153
▁Cóireáil	-7154
▁Cúisíodh	-7155
▁Ordaíodh	-7156
▁Scornach	-7157
▁Seiceáil	-7158
▁Sháraigh	-7159
▁Tacaíonn	-7160
▁adhartha	-7161
▁airdeall	-7162
▁aisiompú	-7163
▁anailíse	-7164
▁bhagairt	-7165
▁bhfanann	-7166
▁bholgach	-7167
▁bhásanna	-7168
▁chasacht	-7169
▁chothrom	-7170
▁corticos	-7171
▁cuirtear	-7172
▁córasach	-7173
▁cúiseach	-7174
▁difriúla	-7175
▁dtéarmaí	-7176
▁déthaobh	-7177
▁dífhostú	-7178
▁eolaíoch	-7179
▁eorpaigh	-7180
▁facebook	-7181
▁feithimh	-7182
▁fhorchur	-7183
▁fhulaing	-7184
▁folláine	-7185
▁fulaingt	-7186
▁gabhdóir	-7187
▁gclúdódh	-7188
▁ghineann	-7189
▁giuseppe	-7190
▁glóthach	-7191
▁hiodrocs	-7192
▁iarratas	-7193
▁ilmheáin	-7194
▁iomláine	-7195
▁ionanálú	-7196
▁leapacha	-7197
▁leithead	-7198
▁luaitear	-7199
▁lánfhada	-7200
▁maireann	-7201
▁mbrasaíl	-7202
▁mellitus	-7203
▁mhalairt	-7204
▁ndáiríre	-7205
▁neamhord	-7206
▁plaicint	-7207
▁princess	-7208
▁romhainn	-7209
▁samhaltú	-7210
▁saothair	-7211
▁scaoilte	-7212
▁schengen	-7213
▁shenzhen	-7214
▁shlabhra	-7215
▁shíleann	-7216
▁síochána	-7217
▁teastais	-7218
▁teilifís	-7219
▁teorannú	-7220
▁theagasc	-7221
▁thinneas	-7222
▁tosaithe	-7223
▁tosaíonn	-7224
▁trilliún	-7225
▁tráthúil	-7226
▁tréimhsí	-7227
▁tuairimí	-7228
▁tubaiste	-7229
▁turgnamh	-7230
▁turraing	-7231
▁tábhacht	-7232
▁tástálaí	-7233
▁uaigneas	-7234
▁vomiting	-7235
aispeánadh	-7236
anglaidéis	-7237
athscríobh	-7238
bhreithniú	-7239
eimiceacha	-7240
▁Cúramóirí	-7241
▁Roinneann	-7242
▁Roinntear	-7243
▁aimsítear	-7244
▁aithníonn	-7245
▁alpacanna	-7246
▁bainteach	-7247
▁bardasach	-7248
▁bhfreagra	-7249
▁bhréagach	-7250
▁caidreamh	-7251
▁ceadaíodh	-7252
▁ceallacha	-7253
▁ceanadach	-7254
▁ciníochas	-7255
▁cispheile	-7256
▁coronavir	-7257
▁creidtear	-7258
▁cumannach	-7259
▁cáilíocht	-7260
▁céatadáin	-7261
▁danmhairg	-7262
▁deiseanna	-7263
▁dhifriúla	-7264
▁dtuigeann	-7265
▁díghalrán	-7266
▁eipidéime	-7267
▁fairsinge	-7268
▁fhilleadh	-7269
▁fhostóirí	-7270
▁fisiciúla	-7271
▁foraithne	-7272
▁fóirdheon	-7273
▁gcoláistí	-7274
▁guangzhou	-7275
▁hoibrithe	-7276
▁iarrthóir	-7277
▁ibuprofen	-7278
▁ionsaithe	-7279
▁iriseoirí	-7280
▁lopinavir	-7281
▁mbialanna	-7282
▁mearbhall	-7283
▁mhaireann	-7284
▁mhairfidh	-7285
▁mídhleath	-7286
▁mífheidhm	-7287
▁neamhaird	-7288
▁phríosúin	-7289
▁prótacail	-7290
▁randamach	-7291
▁reáchtáil	-7292
▁ritonavir	-7293
▁seipteach	-7294
▁sheirbhís	-7295
▁soiléiriú	-7296
▁tabhairne	-7297
▁thacaíonn	-7298
▁tharlóidh	-7299
▁thionscal	-7300
▁thosaíonn	-7301
▁tiocfaidh	-7302
▁tionchair	-7303
▁urlabhraí	-7304
▁úsáideora	-7305
ghlaimeoirí	-7306
phleanáilte	-7307
vacsaínithe	-7308
▁Athoscailt	-7309
▁Déanfaimid	-7310
▁Foláireamh	-7311
▁Ionfhabhtú	-7312
▁Leanfaimid	-7313
▁aistrítear	-7314
▁ceachtanna	-7315
▁chaithfidh	-7316
▁chathracha	-7317
▁choinníoll	-7318
▁choitianta	-7319
▁chúiseanna	-7320
▁ciallaíonn	-7321
▁comhionann	-7322
▁cruthaíodh	-7323
▁dhiúltaigh	-7324
▁dhiúscairt	-7325
▁dtabharfar	-7326
▁díghalráin	-7327
▁díolacháin	-7328
▁fhorbartha	-7329
▁gcoimisiún	-7330
▁geilleagar	-7331
▁gníomhaire	-7332
▁grianghraf	-7333
▁géarchéime	-7334
▁interferon	-7335
▁lymphocyte	-7336
▁láithreáin	-7337
▁líneálacha	-7338
▁malartacha	-7339
▁mbunuimhir	-7340
▁mheánscoil	-7341
▁neamhchinn	-7342
▁ollmhargaí	-7343
▁paidreacha	-7344
▁phearsanra	-7345
▁phríomhúil	-7346
▁polaitiúil	-7347
▁polaitiúla	-7348
▁ransomware	-7349
▁riospróirí	-7350
▁scaoiltear	-7351
▁seilfeanna	-7352
▁sinsearach	-7353
▁smaoineamh	-7354
▁síntómacha	-7355
▁taistealaí	-7356
▁teiripeach	-7357
▁tionscnamh	-7358
▁tosaíochta	-7359
▁trascríobh	-7360
▁tsamhraidh	-7361
▁uachtaráin	-7362
▁íochtarach	-7363
imdhíonachta	-7364
mheastacháin	-7365
ochtaineacht	-7366
uashonruithe	-7367
▁Coronavirus	-7368
▁Deacrachtaí	-7369
▁Dearbhaíonn	-7370
▁achainíocha	-7371
▁ainsealacha	-7372
▁astaíochtaí	-7373
▁bhfreagairt	-7374
▁chliabhrach	-7375
▁chomharthai	-7376
▁chomhpháirt	-7377
▁chruthaíonn	-7378
▁comhchosúla	-7379
▁cónaitheach	-7380
▁dhigiteacha	-7381
▁dtreoirlíne	-7382
▁déantúsóirí	-7383
▁feidhmchlár	-7384
▁forleathana	-7385
▁fáilteachas	-7386
▁gcomhthráth	-7387
▁gheilleagar	-7388
▁gluaiseacht	-7389
▁hathbhliana	-7390
▁instealladh	-7391
▁leathnaíodh	-7392
▁mhacasamhlú	-7393
▁mhoilleanna	-7394
▁mhothúcháin	-7395
▁núicléasach	-7396
▁phaisinéirí	-7397
▁pharlaimint	-7398
▁polaiteoirí	-7399
▁réamhchúram	-7400
▁sainaithint	-7401
▁shincheonji	-7402
▁sláintíocht	-7403
▁tacaíochtaí	-7404
▁thaifeadadh	-7405
▁thuaisceart	-7406
▁tionscadail	-7407
▁éigeandálaí	-7408
chógaisíochta	-7409
ghníomhaíocht	-7410
▁Breathnaíodh	-7411
▁bainistíocht	-7412
▁bhanglaidéis	-7413
▁bhfoirgneamh	-7414
▁cathaoireach	-7415
▁chreidmheasa	-7416
▁chuairteanna	-7417
▁imscrúduithe	-7418
▁meiriceánach	-7419
▁montainéagró	-7420
▁neamhshiméad	-7421
▁reachtaíocht	-7422
▁saotharlanna	-7423
▁siamsaíochta	-7424
▁teagmhálacha	-7425
▁thábhachtach	-7426
phataigineacha	-7427
▁caighdeánacha	-7428
▁déimeagrafach	-7429
▁gníomhaíochta	-7430
▁idirmheánacha	-7431
▁infheidhmithe	-7432
▁international	-7433
▁máithreachais	-7434
▁nuashonruithe	-7435
▁shaotharlanna	-7436
▁sholáthraíonn	-7437
▁sláintitheoir	-7438
▁séireolaíocht	-7439
▁tuarascálacha	-7440
▁carrsheirbhíse	-7441
▁chianfhoghlama	-7442
▁comhairliúchán	-7443
▁drochthionchar	-7444
▁díhiodráitithe	-7445
▁fhreastalaíonn	-7446
▁gníomhaireacht	-7447
▁mbunscoileanna	-7448
▁mhiondíoltóirí	-7449
▁monatóireachta	-7450
▁thromchúiseach	-7451
▁Antaibheathaigh	-7452
▁betacoronavirus	-7453
▁bhfoghlaimeoirí	-7454
▁bhfreastalaíonn	-7455
▁exoribonuclease	-7456
▁príobháideachas	-7457
▁rannpháirtíocht	-7458
▁thromchúiseacha	-7459
):	-7460
.6	-7461
4%	-7462
54	-7463
73	-7464
8%	-7465
82	-7466
az	-7467
bi	-7468
gi	-7469
ih	-7470
ls	-7471
má	-7472
ot	-7473
pl	-7474
pr	-7475
tc	-7476
,88	-7477
-17	-7478
.1.	-7479
057	-7480
078	-7481
1,8	-7482
108	-7483
3,5	-7484
4,8	-7485
5%)	-7486
5,8	-7487
576	-7488
6,8	-7489
687	-7490
9,7	-7491
948	-7492
95%	-7493
alc	-7494
bán	-7495
cal	-7496
car	-7497
eav	-7498
gra	-7499
yt	-7500
7,6	-7501
cca	-7502
dis	-7503
fío	-7504
gha	-7505
gia	-7506
hin	-7507
iat	-7508
ics	-7509
igí	-7510
ild	-7511
inf	-7512
inp	-7513
iob	-7514
ita	-7515
ití	-7516
ivo	-7517
lic	-7518
lim	-7519
loí	-7520
med	-7521
mph	-7522
nob	-7523
nom	-7524
ock	-7525
ogh	-7526
ome	-7527
oom	-7528
ore	-7529
pen	-7530
res	-7531
sfe	-7532
sil	-7533
tag	-7534
tan	-7535
tip	-7536
uba	-7537
ugh	-7538
vic	-7539
whe	-7540
xas	-7541
áta	-7542
éib	-7543
ící	-7544
íoc	-7545
óta	-7546
▁2)	-7547
▁5.	-7548
▁94	-7549
▁As	-7550
▁Cv	-7551
▁Gn	-7552
▁em	-7553
▁eu	-7554
▁ga	-7555
▁ka	-7556
▁la	-7557
▁nm	-7558
▁on	-7559
▁rl	-7560
▁xi	-7561
,336	-7562
-19:	-7563
-2),	-7564
-200	-7565
.5%.	-7566
ailf	-7567
ains	-7568
alon	-7569
asti	-7570
bail	-7571
bard	-7572
bheo	-7573
birt	-7574
bott	-7575
bour	-7576
chuí	-7577
dhar	-7578
dhír	-7579
eamú	-7580
eofá	-7581
gins	-7582
hiod	-7583
iatr	-7584
idim	-7585
ilat	-7586
inel	-7587
inis	-7588
iníl	-7589
iosp	-7590
iote	-7591
isin	-7592
iter	-7593
iúnú	-7594
leve	-7595
llar	-7596
léad	-7597
ment	-7598
mtha	-7599
ly	-7600
191	-7601
534	-7602
aen	-7603
aio	-7604
▁72	-7605
▁8:	-7606
▁Lá	-7607
▁ob	-7608
▁pé	-7609
cach	-7610
csaí	-7611
dara	-7612
iliú	-7613
mier	-7614
nsin	-7615
nóna	-7616
ofen	-7617
orua	-7618
osis	-7619
otic	-7620
rabh	-7621
raim	-7622
ráta	-7623
róga	-7624
saen	-7625
scag	-7626
súil	-7627
tadh	-7628
tart	-7629
tein	-7630
tend	-7631
tius	-7632
ular	-7633
umas	-7634
veol	-7635
ywhe	-7636
íoca	-7637
íofa	-7638
▁(13	-7639
▁(18	-7640
▁0.1	-7641
▁0.2	-7642
▁1,2	-7643
▁1,3	-7644
▁1.1	-7645
▁1.7	-7646
▁18-	-7647
▁2,2	-7648
▁2.4	-7649
▁3,3	-7650
▁358	-7651
▁4.8	-7652
▁60,	-7653
▁8,8	-7654
▁Cru	-7655
▁Cás	-7656
▁Dhá	-7657
▁Lei	-7658
▁Lúb	-7659
▁Oid	-7660
▁alt	-7661
▁ass	-7662
▁ban	-7663
▁bhú	-7664
▁bpu	-7665
▁bup	-7666
▁can	-7667
▁cao	-7668
▁clú	-7669
▁cmr	-7670
▁cnn	-7671
▁cír	-7672
▁del	-7673
▁dna	-7674
▁dor	-7675
▁ema	-7676
▁fau	-7677
▁fle	-7678
▁gcu	-7679
▁gcá	-7680
▁ghr	-7681
▁grá	-7682
▁hel	-7683
▁hsa	-7684
▁igg	-7685
▁igm	-7686
▁jix	-7687
▁kor	-7688
▁lab	-7689
▁mul	-7690
▁mág	-7691
▁nov	-7692
▁osc	-7693
▁psp	-7694
▁res	-7695
▁rus	-7696
▁rás	-7697
▁sal	-7698
▁scá	-7699
2%	-7700
.00	-7701
bat	-7702
kov	-7703
nny	-7704
rox	-7705
▁3%	-7706
▁59	-7707
▁Fo	-7708
▁da	-7709
iomú	-7710
irse	-7711
mhat	-7712
ondú	-7713
rase	-7714
▁14%	-7715
▁cór	-7716
▁gru	-7717
▁ióg	-7718
▁sho	-7719
▁sor	-7720
▁srí	-7721
▁sró	-7722
▁sun	-7723
▁sól	-7724
▁súl	-7725
▁tat	-7726
▁tom	-7727
▁tro	-7728
▁vla	-7729
▁you	-7730
▁zim	-7731
▁úcr	-7732
adóir	-7733
aidhm	-7734
aille	-7735
ainte	-7736
aionn	-7737
arthu	-7738
aráid	-7739
aslag	-7740
athsh	-7741
bhirt	-7742
bride	-7743
chais	-7744
chine	-7745
clúid	-7746
demic	-7747
dhíon	-7748
dimir	-7749
ealth	-7750
earma	-7751
eartú	-7752
eisia	-7753
fhill	-7754
genóm	-7755
ghlac	-7756
gáire	-7757
ibliú	-7758
igine	-7759
ision	-7760
itico	-7761
itíop	-7762
iúirí	-7763
lacan	-7764
lainn	-7765
leata	-7766
leura	-7767
liuch	-7768
línsí	-7769
líonn	-7770
mharú	-7771
mhéid	-7772
navac	-7773
nomed	-7774
nsaid	-7775
níoch	-7776
oibrí	-7777
oirte	-7778
oloph	-7779
oncho	-7780
opine	-7781
reabh	-7782
roith	-7783
rosyn	-7784
rugaí	-7785
rutha	-7786
scadh	-7787
scála	-7788
siúil	-7789
threo	-7790
uaird	-7791
uichí	-7792
urais	-7793
írigh	-7794
íseal	-7795
ógadh	-7796
óiríd	-7797
úinse	-7798
▁(6.5	-7799
cia	-7800
ies	-7801
ocs	-7802
pho	-7803
▁78	-7804
▁we	-7805
-7.2	-7806
idae	-7807
inae	-7808
ocia	-7809
ocyt	-7810
rell	-7811
éama	-7812
▁2,8	-7813
▁5.7	-7814
▁bpl	-7815
▁mao	-7816
▁wen	-7817
achar	-7818
ailse	-7819
baird	-7820
chead	-7821
intín	-7822
istic	-7823
mpord	-7824
orgán	-7825
rúnaí	-7826
▁(95%	-7827
▁10%.	-7828
▁1890	-7829
▁1960	-7830
▁2010	-7831
▁221,	-7832
▁223,	-7833
▁231,	-7834
▁238,	-7835
▁240,	-7836
▁243,	-7837
▁247,	-7838
▁3.89	-7839
▁4,13	-7840
▁4,58	-7841
▁4,78	-7842
▁4.7%	-7843
▁6.30	-7844
▁Bail	-7845
▁Béal	-7846
▁Dhún	-7847
▁Dáil	-7848
▁Idir	-7849
▁Líon	-7850
▁Masc	-7851
▁Port	-7852
▁Sars	-7853
▁Scan	-7854
▁Teip	-7855
▁Tion	-7856
▁abhc	-7857
▁airí	-7858
▁amne	-7859
▁ards	-7860
▁beir	-7861
▁bhur	-7862
▁bpac	-7863
▁béil	-7864
▁cait	-7865
▁cast	-7866
▁cata	-7867
▁chac	-7868
▁chin	-7869
▁club	-7870
▁colm	-7871
▁copd	-7872
▁crao	-7873
▁cuim	-7874
▁cóip	-7875
▁data	-7876
▁dhlí	-7877
▁doch	-7878
▁déag	-7879
▁dúla	-7880
▁fabh	-7881
▁fast	-7882
▁fein	-7883
▁fema	-7884
▁fhás	-7885
▁fost	-7886
▁gcúl	-7887
▁giom	-7888
▁guth	-7889
▁hypo	-7890
▁ibug	-7891
▁impí	-7892
▁inte	-7893
▁inár	-7894
▁ióga	-7895
▁jinp	-7896
▁lead	-7897
▁leos	-7898
▁limf	-7899
hsa	-7900
níl	-7901
oma	-7902
aicl	-7903
shan	-7904
uard	-7905
áite	-7906
▁dru	-7907
▁fae	-7908
▁onn	-7909
aipit	-7910
amhsa	-7911
antas	-7912
eoige	-7913
thadh	-7914
ártaí	-7915
▁1860	-7916
▁1918	-7917
▁242,	-7918
▁251,	-7919
▁Luim	-7920
▁Thit	-7921
▁alla	-7922
▁barr	-7923
▁	-7924
a	-7925
i	-7926
h	-7927
n	-7928
r	-7929
e	-7930
t	-7931
s	-7932
o	-7933
c	-7934
l	-7935
d	-7936
g	-7937
á	-7938
m	-7939
u	-7940
í	-7941
b	-7942
f	-7943
é	-7944
ú	-7945
ó	-7946
.	-7947
,	-7948
p	-7949
v	-7950
-	-7951
1	-7952
2	-7953
0	-7954
9	-7955
T	-7956
’	-7957
C	-7958
3	-7959
D	-7960
4	-7961
A	-7962
I	-7963
M	-7964
5	-7965
)	-7966
(	-7967
N	-7968
B	-7969
6	-7970
8	-7971
7	-7972
S	-7973
w	-7974
:	-7975
F	-7976
L	-7977
y	-7978
G	-7979
%	-7980
"	-7981
/	-7982
k	-7983
z	-7984
“	-7985
R	-7986
;	-7987
”	-7988
'	-7989
–	-7990
j	-7991
O	-7992
x	-7993
P	-7994
?	-7995
Ú	-7996
