<pad>	0
</s>	0
<unk>	0
▁the	-2.9309
,	-3.28062
.	-3.51684
s	-3.57109
▁of	-3.62652
▁to	-3.71979
▁and	-3.83585
▁in	-4.06244
▁a	-4.27689
▁that	-4.40373
▁is	-4.4363
ing	-4.5428
▁	-4.59288
▁for	-4.71224
▁I	-4.75853
▁on	-4.90158
ed	-5.01342
▁this	-5.04128
▁be	-5.04744
▁we	-5.06834
▁are	-5.21874
▁European	-5.2871
▁it	-5.29946
ly	-5.30513
▁with	-5.31387
▁have	-5.3198
▁not	-5.34762
d	-5.36396
▁The	-5.42769
▁as	-5.44777
e	-5.5414
-	-5.57395
▁will	-5.57927
▁which	-5.59632
▁by	-5.61258
'	-5.63419
m	-5.69248
▁-	-5.73702
▁has	-5.77878
a	-5.90206
c	-5.93019
y	-5.93968
▁also	-5.94089
t	-5.95963
▁an	-5.97847
al	-5.98613
▁would	-5.99709
n	-6.01871
▁(	-6.03579
)	-6.03722
▁all	-6.03729
▁at	-6.04405
▁Mr	-6.09216
ir	-6.10341
▁Commission	-6.10593
▁from	-6.12633
▁our	-6.13628
▁President	-6.13867
▁should	-6.14105
▁We	-6.14635
▁EU	-6.16501
o	-6.17147
er	-6.19575
p	-6.20844
▁Member	-6.2107
▁must	-6.23632
▁but	-6.2395
in	-6.24944
▁Union	-6.25809
r	-6.2708
l	-6.30674
▁you	-6.33042
i	-6.33473
▁report	-6.33724
▁States	-6.35359
▁been	-6.35624
▁more	-6.38706
▁Parliament	-6.39396
▁like	-6.41447
▁can	-6.43496
▁It	-6.44245
▁Europe	-6.45082
re	-6.46557
▁was	-6.47424
▁or	-6.49668
en	-6.49947
▁In	-6.51151
▁very	-6.52112
ar	-6.52625
▁This	-6.53339
▁do	-6.54056
g	-6.55318
▁its	-6.55549
▁these	-6.55808
▁need	-6.58021
es	-6.58113
u	-6.58612
▁countries	-6.60597
▁us	-6.61755
▁who	-6.62475
▁so	-6.63367
▁S	-6.64375
b	-6.64838
▁one	-6.67068
▁important	-6.67948
:	-6.68423
▁people	-6.70683
▁there	-6.72206
▁time	-6.73344
▁other	-6.73643
▁support	-6.73787
▁new	-6.75362
ation	-6.76007
▁Council	-6.76567
or	-6.7762
▁about	-6.78667
▁policy	-6.79555
▁they	-6.81883
▁work	-6.849
it	-6.85564
k	-6.8559
▁because	-6.85623
▁my	-6.86586
▁re	-6.86936
▁only	-6.87816
ic	-6.88638
▁out	-6.89585
an	-6.89755
▁what	-6.9333
ies	-6.93542
▁economic	-6.94591
▁am	-6.95005
▁A	-6.95106
st	-6.95127
f	-6.95581
▁make	-6.96225
▁take	-6.964
▁up	-6.97864
ose	-6.99462
▁no	-7.00051
h	-7.01051
ri	-7.0139
▁particular	-7.01847
▁between	-7.0207
▁th	-7.03926
▁rights	-7.04215
▁now	-7.06249
▁into	-7.06976
▁such	-7.09013
ro	-7.09438
ion	-7.09689
▁M	-7.10321
▁market	-7.10631
▁un	-7.10694
▁some	-7.12454
▁if	-7.1287
▁m	-7.13157
▁therefore	-7.13668
?	-7.13918
ent	-7.14017
on	-7.14367
▁de	-7.14599
at	-7.1523
▁b	-7.15538
▁think	-7.15952
▁when	-7.18027
▁financial	-7.18816
▁citizens	-7.19092
se	-7.20939
▁energy	-7.20953
▁political	-7.21494
ra	-7.21979
▁f	-7.24451
▁'	-7.24493
▁social	-7.24524
▁against	-7.24573
th	-7.24778
▁believe	-7.24805
il	-7.25143
▁situation	-7.25933
▁first	-7.25933
▁many	-7.25934
▁want	-7.25945
▁B	-7.26186
▁good	-7.26223
▁p	-7.26322
ur	-7.26332
te	-7.26526
▁see	-7.27306
w	-7.28033
▁debate	-7.28236
▁country	-7.28264
ers	-7.28402
▁were	-7.29321
▁than	-7.30306
able	-7.30516
▁order	-7.31205
▁development	-7.31485
ch	-7.3161
ity	-7.32333
▁way	-7.3254
▁However	-7.32681
▁fact	-7.33586
▁made	-7.33614
▁say	-7.33752
▁C	-7.33889
tion	-7.33961
▁well	-7.34501
▁crisis	-7.34828
;	-7.35138
▁under	-7.35453
▁being	-7.35784
▁Commissioner	-7.35937
▁any	-7.36084
▁human	-7.37022
▁today	-7.37475
▁P	-7.38082
▁even	-7.38604
li	-7.39178
▁e	-7.39291
▁part	-7.39378
▁proposal	-7.39438
▁right	-7.39908
▁national	-7.40003
▁issue	-7.40091
▁most	-7.40196
le	-7.40322
ted	-7.40522
ul	-7.40533
▁vote	-7.40551
▁G	-7.40749
ive	-7.4122
ce	-7.42305
▁over	-7.43716
▁me	-7.44235
▁just	-7.44591
▁use	-7.44735
▁c	-7.44744
▁measures	-7.45086
▁F	-7.45188
ment	-7.45515
▁budget	-7.45968
▁That	-7.47014
z	-7.4807
▁agreement	-7.48179
▁cannot	-7.48781
▁through	-7.49127
▁world	-7.49138
▁them	-7.49531
▁clear	-7.49669
ol	-7.499
▁Mada	-7.50233
el	-7.50467
▁E	-7.50505
▁future	-7.50579
▁years	-7.51225
▁already	-7.51308
▁ensure	-7.51308
▁view	-7.51308
▁public	-7.51313
ate	-7.51961
▁international	-7.52043
▁cooperation	-7.52045
▁As	-7.52228
▁point	-7.52705
▁resolution	-7.53153
▁where	-7.53166
▁here	-7.53473
▁know	-7.53526
▁area	-7.54134
et	-7.55152
0	-7.55345
▁sector	-7.55794
▁common	-7.55795
▁two	-7.56178
▁same	-7.56562
▁regard	-7.56651
▁level	-7.58154
us	-7.58348
▁help	-7.58508
ist	-7.58639
▁law	-7.58917
▁change	-7.59308
▁question	-7.59714
▁d	-7.60241
▁both	-7.60894
▁respect	-7.6255
▁year	-7.62609
▁does	-7.63784
▁con	-7.63802
▁had	-7.64196
un	-7.6428
▁system	-7.64314
is	-7.64457
▁how	-7.65018
▁much	-7.65438
▁favour	-7.65843
▁protection	-7.65887
v	-7.66231
▁Committee	-7.66267
▁possible	-7.66267
▁could	-7.67549
▁put	-7.6775
▁Treaty	-7.68413
▁own	-7.68416
▁place	-7.68943
▁call	-7.68988
▁case	-7.69163
as	-7.69545
▁pro	-7.69973
%	-7.70066
▁rapporteur	-7.70163
▁last	-7.70636
ary	-7.70889
▁hope	-7.71498
▁why	-7.72396
am	-7.72455
ter	-7.72794
▁said	-7.72848
▁continue	-7.73303
▁still	-7.73303
P	-7.73656
▁example	-7.73759
▁course	-7.73759
▁process	-7.73759
▁number	-7.73762
▁result	-7.74681
▁end	-7.74684
▁women	-7.75142
▁writing	-7.75274
▁voted	-7.76272
▁your	-7.76466
▁security	-7.76547
▁T	-7.76909
ance	-7.77354
▁trade	-7.7751
▁Group	-7.78925
ous	-7.80337
▁able	-7.80626
▁thank	-7.80727
▁information	-7.80907
▁problem	-7.81061
▁Lisbon	-7.81364
S	-7.81392
2	-7.81495
▁co	-7.81808
▁provide	-7.81893
▁role	-7.82358
▁legal	-7.82856
▁climate	-7.82861
▁since	-7.82861
▁welcome	-7.83359
▁D	-7.83784
▁including	-7.84372
▁agree	-7.84867
▁necessary	-7.85407
ig	-7.85865
▁directive	-7.85934
▁give	-7.85993
▁r	-7.86365
▁areas	-7.86375
▁issues	-7.86673
▁problems	-7.87806
▁too	-7.87851
▁gentlemen	-7.87999
E	-7.88467
ia	-7.88474
▁global	-7.88503
ful	-7.88683
▁he	-7.88692
▁position	-7.8906
vi	-7.89296
ta	-7.89935
▁better	-7.90134
▁action	-7.90693
ad	-7.91071
▁his	-7.91272
▁h	-7.92047
im	-7.92261
C	-7.92305
▁There	-7.925
ou	-7.92988
ow	-7.93182
▁means	-7.93194
▁concern	-7.93324
▁step	-7.93421
▁For	-7.93614
est	-7.93674
▁million	-7.93979
sion	-7.93981
if	-7.943
ck	-7.94463
▁aim	-7.95404
▁progress	-7.95674
▁come	-7.95789
▁next	-7.96245
▁health	-7.96245
▁may	-7.96247
▁long	-7.96308
▁taken	-7.96319
ten	-7.96504
▁behalf	-7.9682
▁freedom	-7.9682
▁needs	-7.96872
▁set	-7.97411
▁every	-7.97447
ne	-7.97973
▁Presidency	-7.97979
▁look	-7.98119
▁matter	-7.98728
▁again	-7.99051
om	-7.99202
▁g	-7.99228
▁without	-7.99904
ence	-8.00008
▁H	-8.0009
▁large	-8.00339
▁act	-8.00361
▁increase	-8.00469
▁rules	-8.00657
▁dis	-8.00831
▁strategy	-8.00938
▁state	-8.01363
ting	-8.01408
▁deal	-8.0154
▁find	-8.01544
▁however	-8.01557
▁force	-8.01569
▁regulation	-8.01795
▁W	-8.01938
▁adopted	-8.02553
▁account	-8.02757
▁opinion	-8.02757
▁products	-8.0296
▁services	-8.03152
▁If	-8.03364
▁terms	-8.03368
▁after	-8.03654
▁State	-8.0368
▁decision	-8.03681
▁approach	-8.03987
▁economy	-8.03987
▁whether	-8.03987
▁legislation	-8.03997
▁current	-8.04108
1	-8.04177
A	-8.04379
▁further	-8.04608
I	-8.04828
▁negotiations	-8.05029
ut	-8.05315
ot	-8.05316
▁great	-8.05619
▁allow	-8.06101
▁institutions	-8.0638
▁before	-8.06506
▁lad	-8.06673
▁On	-8.06844
id	-8.07057
▁main	-8.07123
▁Mrs	-8.07731
os	-8.0787
▁far	-8.08102
▁high	-8.08385
▁funds	-8.08754
ll	-8.08831
▁food	-8.09094
▁EUR	-8.09409
um	-8.10668
ud	-8.10717
▁framework	-8.11041
▁dur	-8.11203
5	-8.11283
▁environmental	-8.11624
▁open	-8.11709
▁K	-8.11848
▁Members	-8.12002
j	-8.12379
▁guarantee	-8.12379
▁serious	-8.12379
▁form	-8.12398
▁hand	-8.12409
▁certain	-8.12555
▁What	-8.13055
▁bring	-8.1306
▁conditions	-8.13649
ial	-8.13651
▁control	-8.13735
▁present	-8.138
ant	-8.13826
▁real	-8.14083
▁working	-8.14178
▁Uni	-8.14343
▁start	-8.14423
▁essential	-8.1511
ge	-8.15274
▁resources	-8.15358
ite	-8.15863
▁interest	-8.16596
▁L	-8.16843
▁second	-8.17208
▁small	-8.17208
▁different	-8.17215
▁transport	-8.17224
ast	-8.17411
▁ask	-8.17601
▁importance	-8.17934
▁forward	-8.18251
▁towards	-8.18656
▁specific	-8.19324
▁authorities	-8.1936
ise	-8.19476
▁given	-8.19731
▁w	-8.19734
▁go	-8.19879
ors	-8.19891
▁access	-8.19989
▁individual	-8.20075
▁opportunity	-8.20075
▁play	-8.20075
▁policies	-8.20075
ations	-8.20165
▁power	-8.20239
▁then	-8.20364
▁used	-8.20677
▁impact	-8.20805
▁third	-8.20809
T	-8.21015
▁effective	-8.211
▁risk	-8.21541
▁back	-8.21553
▁show	-8.22068
▁2	-8.22193
▁prevent	-8.22195
ill	-8.22441
▁done	-8.22505
▁com	-8.2282
▁plan	-8.23034
DE	-8.23063
▁workers	-8.23328
▁relat	-8.23335
▁t	-8.23365
▁proposals	-8.23416
▁less	-8.23529
▁represent	-8.23765
▁Community	-8.23779
▁general	-8.23779
▁research	-8.23779
▁become	-8.23783
▁commitment	-8.23786
▁based	-8.24087
ian	-8.24433
ness	-8.24973
▁especially	-8.253
▁attention	-8.25301
▁children	-8.25301
▁strengthen	-8.25312
▁aid	-8.25459
▁whole	-8.25618
▁significant	-8.2607
▁euro	-8.2607
▁day	-8.2653
▁fundamental	-8.26858
ling	-8.26909
ry	-8.27428
▁society	-8.27626
▁tax	-8.27626
▁implementation	-8.27711
▁quality	-8.27917
▁going	-8.28002
▁consider	-8.28199
▁sp	-8.29067
▁subject	-8.2921
▁safety	-8.29214
▁did	-8.29277
▁region	-8.2937
▁making	-8.29486
▁O	-8.29631
D	-8.29745
he	-8.29799
▁basis	-8.30008
▁internal	-8.30008
▁wish	-8.30024
▁each	-8.30031
port	-8.30126
ally	-8.30144
▁improve	-8.30283
▁interests	-8.30741
▁together	-8.30814
▁fight	-8.30814
▁J	-8.30949
▁pre	-8.30956
ism	-8.31306
▁protect	-8.31541
▁addition	-8.31627
isation	-8.31949
6	-8.32233
▁vari	-8.32477
and	-8.33253
▁democratic	-8.33273
▁Re	-8.33497
▁strong	-8.33603
tor	-8.33889
▁draft	-8.34106
▁positive	-8.34106
▁House	-8.34106
▁free	-8.3412
▁At	-8.34424
ern	-8.34637
▁democracy	-8.34946
▁responsibility	-8.34946
▁demand	-8.34958
▁create	-8.35322
▁reason	-8.35491
ag	-8.35651
▁industry	-8.35794
▁three	-8.35796
▁down	-8.35797
▁proposed	-8.36111
▁full	-8.36389
▁really	-8.36536
igh	-8.36609
▁Therefore	-8.36649
▁few	-8.36649
▁combat	-8.36651
age	-8.3687
ised	-8.37088
ctually	-8.37245
3	-8.37355
▁greater	-8.37793
▁itself	-8.38381
ru	-8.39004
ver	-8.39201
▁while	-8.39257
▁clearly	-8.396
nt	-8.39707
F	-8.40006
▁life	-8.40142
▁money	-8.40143
▁understand	-8.40448
▁agreements	-8.40862
▁always	-8.41035
▁growth	-8.41053
ability	-8.41119
ber	-8.41669
M	-8.41833
▁difficult	-8.41836
▁2009	-8.41945
▁efforts	-8.42289
▁speak	-8.42592
up	-8.4272
▁major	-8.42778
▁something	-8.42848
▁objectives	-8.43123
ated	-8.43449
4	-8.43629
9	-8.43633
▁standards	-8.43647
▁programme	-8.43745
▁principle	-8.43747
▁Fund	-8.43762
▁key	-8.43763
▁single	-8.43763
▁pay	-8.43941
▁another	-8.44004
ual	-8.44393
ha	-8.44438
▁dialogue	-8.44689
▁among	-8.44689
▁data	-8.44689
▁group	-8.44699
▁v	-8.4507
▁best	-8.45079
▁lead	-8.45411
line	-8.45454
7	-8.45499
▁ex	-8.45567
▁package	-8.45623
▁transparency	-8.45623
▁Court	-8.45623
▁focus	-8.45623
▁civil	-8.45636
ical	-8.4578
str	-8.45851
op	-8.46108
co	-8.4627
▁stress	-8.46567
▁let	-8.46616
▁get	-8.46662
▁words	-8.46936
▁recent	-8.47018
▁achieve	-8.47192
▁agricultural	-8.47519
▁live	-8.47525
▁week	-8.47531
▁environment	-8.47639
▁establish	-8.47748
▁idea	-8.48242
▁rather	-8.4848
▁employment	-8.48497
ound	-8.48522
ec	-8.48842
ine	-8.4917
▁20	-8.49401
▁companies	-8.49451
▁context	-8.49451
▁close	-8.49531
ied	-8.49923
▁qui	-8.49982
▁period	-8.50432
▁once	-8.50688
▁fully	-8.50744
▁happen	-8.50755
ating	-8.51287
▁Directive	-8.51422
▁sever	-8.51439
▁adopt	-8.51667
▁regions	-8.51901
▁equal	-8.52354
▁text	-8.52421
▁Government	-8.52422
▁compromise	-8.52422
▁potential	-8.52422
▁taking	-8.52429
▁concerned	-8.52617
▁war	-8.52624
ve	-8.5289
▁inter	-8.53097
▁meeting	-8.53311
▁3	-8.53374
▁exist	-8.53454
▁due	-8.5353
ev	-8.5372
▁challenges	-8.53735
▁regional	-8.53753
▁hav	-8.53771
▁sh	-8.54013
▁air	-8.54167
▁1	-8.5432
▁groups	-8.5444
▁poverty	-8.54452
▁promote	-8.54452
▁least	-8.54453
▁share	-8.54491
▁Ch	-8.54772
▁amendment	-8.54781
man	-8.54871
20	-8.55107
▁non	-8.55118
▁relations	-8.55314
▁To	-8.55384
▁population	-8.55483
▁answer	-8.55483
▁apply	-8.5549
▁management	-8.55504
me	-8.55594
x	-8.56103
▁developing	-8.56179
ure	-8.56273
▁concerns	-8.56502
▁activities	-8.56525
▁encourage	-8.56525
▁principles	-8.56543
▁lack	-8.56547
all	-8.56789
▁sta	-8.56931
N	-8.57489
▁amendments	-8.58325
▁often	-8.5835
▁labour	-8.58642
▁investment	-8.58682
▁found	-8.58722
▁consumers	-8.58814
▁implement	-8.58928
pp	-8.58939
▁markets	-8.58966
▁require	-8.59187
de	-8.59586
▁mean	-8.59596
▁accept	-8.59648
til	-8.59698
▁extreme	-8.59717
▁innovation	-8.59717
▁2020	-8.59738
ty	-8.60083
▁solution	-8.60189
▁care	-8.60234
▁al	-8.60509
▁R	-8.60603
▁trans	-8.6076
▁document	-8.60804
▁pass	-8.60945
▁draw	-8.61037
▁decisions	-8.61346
R	-8.61731
▁results	-8.61897
fellow	-8.61902
▁available	-8.61902
▁contribution	-8.6192
FR	-8.61972
▁sc	-8.62008
ti	-8.62365
▁costs	-8.6256
▁They	-8.62725
▁nu	-8.62936
▁provided	-8.62946
▁application	-8.63014
▁competition	-8.6302
▁solidarity	-8.6302
▁majority	-8.63096
▁states	-8.63637
▁success	-8.64099
▁Minister	-8.64137
▁Finally	-8.64137
▁With	-8.64138
▁short	-8.64139
▁sustainable	-8.64144
▁legislative	-8.6415
▁indeed	-8.64151
▁production	-8.64183
U	-8.64198
8	-8.64207
▁per	-8.64295
▁V	-8.64453
▁parties	-8.64484
▁involved	-8.64659
▁car	-8.64763
▁initiative	-8.64947
▁Russia	-8.65031
▁violence	-8.65273
O	-8.65648
▁cases	-8.65659
▁offer	-8.65877
▁project	-8.65939
▁following	-8.65992
▁De	-8.66067
▁pa	-8.662
▁jobs	-8.66346
▁contribute	-8.66367
▁enough	-8.66423
clear	-8.66576
▁express	-8.66826
▁needed	-8.6712
▁reduction	-8.67625
most	-8.67761
▁expect	-8.6809
▁remain	-8.68328
▁regarding	-8.68489
▁He	-8.68647
▁education	-8.68772
▁shall	-8.68785
▁Let	-8.69057
▁fl	-8.69151
▁consequences	-8.69256
▁Africa	-8.69953
▁responsible	-8.69953
▁simply	-8.69953
▁request	-8.69953
▁yet	-8.69961
EC	-8.70107
rs	-8.7063
our	-8.70651
▁reform	-8.70784
▁objective	-8.70802
▁sign	-8.70903
▁move	-8.71111
▁keep	-8.71157
▁local	-8.71157
▁response	-8.71157
▁origin	-8.71158
▁cut	-8.71276
▁her	-8.71332
▁cultural	-8.71374
▁meet	-8.71503
▁government	-8.7157
va	-8.71865
ts	-8.71922
▁systems	-8.7194
▁Rights	-8.72377
▁assistance	-8.72377
▁values	-8.72541
▁No	-8.72835
ip	-8.72862
▁projects	-8.72893
ture	-8.73043
▁enable	-8.73063
ble	-8.73309
led	-8.73362
▁things	-8.73398
▁achieved	-8.73435
▁aware	-8.73585
▁Affairs	-8.73612
▁highlight	-8.73612
▁road	-8.73614
mission	-8.73834
G	-8.73852
ese	-8.74049
▁limit	-8.74186
▁months	-8.74382
▁10	-8.74395
▁currently	-8.74616
▁So	-8.74692
▁author	-8.74846
▁Second	-8.74862
▁natural	-8.74862
▁cross	-8.74862
term	-8.75234
▁include	-8.75397
▁cause	-8.75666
land	-8.75675
ncy	-8.75727
▁certainly	-8.75795
▁business	-8.75977
▁Development	-8.76127
▁criteria	-8.76127
▁committee	-8.76128
▁external	-8.76142
▁sure	-8.76164
▁joint	-8.76337
ities	-8.76772
ard	-8.76777
▁consumer	-8.77201
spect	-8.77282
▁living	-8.77409
▁sea	-8.77411
▁bank	-8.77517
▁ban	-8.77554
▁vi	-8.77888
ade	-8.78167
▁rest	-8.78305
▁La	-8.78308
▁gas	-8.7838
▁value	-8.78533
▁special	-8.78708
▁depend	-8.78708
▁emissions	-8.7871
▁threat	-8.78715
▁line	-8.78804
▁cover	-8.78806
▁young	-8.78855
▁2008	-8.78925
▁reasons	-8.7907
▁mentioned	-8.79224
▁address	-8.79349
cu	-8.7942
▁increasing	-8.79521
▁face	-8.79552
ake	-8.79595
▁Pa	-8.798
rant	-8.79826
▁experience	-8.80024
▁billion	-8.80024
▁item	-8.80073
▁direct	-8.80849
to	-8.80882
▁cl	-8.80942
ural	-8.81073
▁Minutes	-8.81357
▁Thank	-8.81357
▁priorities	-8.81357
▁kind	-8.81357
▁broad	-8.81357
▁true	-8.81357
▁feel	-8.81358
▁talk	-8.81631
ff	-8.81724
ish	-8.82443
▁One	-8.82495
one	-8.82552
▁reduce	-8.82646
▁target	-8.82687
▁Turkey	-8.82709
▁priority	-8.82709
▁pleased	-8.82846
L	-8.82918
▁points	-8.83331
▁soon	-8.83452
▁benefit	-8.84049
▁fair	-8.84081
▁comment	-8.84187
▁carrie	-8.84249
▁members	-8.8433
▁tri	-8.84488
▁4	-8.84566
for	-8.84865
▁regulations	-8.84881
▁funding	-8.84885
▁discuss	-8.85026
ide	-8.85297
▁imp	-8.85452
▁absolute	-8.85467
▁agenda	-8.85467
▁appropriate	-8.85467
▁field	-8.85467
▁language	-8.85467
▁little	-8.85467
▁suffer	-8.85467
▁visa	-8.85495
ative	-8.85796
ov	-8.85828
▁Co	-8.85931
▁person	-8.86472
▁matters	-8.86481
▁term	-8.86589
▁Agreement	-8.86876
▁illegal	-8.86876
▁operation	-8.86876
▁opportunities	-8.86876
▁But	-8.87032
▁All	-8.87207
na	-8.87796
▁instruments	-8.87924
▁requirements	-8.87962
ES	-8.88166
▁questions	-8.88229
▁crucial	-8.88304
▁function	-8.88304
▁reflect	-8.88304
▁above	-8.88305
▁medium	-8.88305
▁hard	-8.88357
▁job	-8.884
be	-8.88621
▁longer	-8.88823
▁congratulate	-8.8903
▁seen	-8.89515
▁relevant	-8.89754
▁might	-8.89754
▁creation	-8.89754
body	-8.89755
▁gra	-8.89761
coming	-8.89773
▁hold	-8.89793
▁procedure	-8.89889
▁discussion	-8.89973
ond	-8.90357
▁Le	-8.90896
▁cohesion	-8.91224
▁previous	-8.91224
▁respond	-8.91224
▁themselves	-8.91224
▁held	-8.91227
▁crime	-8.91258
▁US	-8.91261
PL	-8.91272
▁vital	-8.91307
ph	-8.91422
▁2010	-8.9152
▁conclude	-8.92717
▁network	-8.92717
▁task	-8.92717
▁disaster	-8.92718
▁motion	-8.92718
▁Ireland	-8.92718
▁Romania	-8.92721
▁governance	-8.92735
▁contain	-8.92755
▁relation	-8.93116
rea	-8.93337
▁side	-8.93734
less	-8.93866
▁elections	-8.94043
▁invest	-8.94059
tic	-8.94159
ie	-8.94218
▁enterprises	-8.94232
▁financing	-8.94232
▁amount	-8.94232
▁finance	-8.94233
▁water	-8.94234
▁perhaps	-8.94246
▁aspects	-8.94278
ory	-8.94289
▁try	-8.94293
▁actions	-8.94412
▁stand	-8.94643
▁waste	-8.94989
ification	-8.95202
▁borders	-8.95232
▁final	-8.95271
▁add	-8.95343
▁increased	-8.95435
side	-8.95468
▁join	-8.95516
▁total	-8.95542
com	-8.95605
▁conflict	-8.9577
▁ensuring	-8.9577
▁review	-8.9577
▁entire	-8.9577
▁basic	-8.95774
▁movement	-8.95845
▁fall	-8.95891
▁provisions	-8.95979
IT	-8.96179
▁inform	-8.96489
here	-8.96749
old	-8.96923
▁ca	-8.97106
▁ambitious	-8.97333
▁foreign	-8.97333
▁supply	-8.97333
▁learn	-8.97333
nternational	-8.97333
▁emerg	-8.97333
▁extend	-8.97333
▁000	-8.97334
▁maintain	-8.97359
▁successful	-8.97386
▁four	-8.97468
▁rate	-8.97515
B	-8.97909
▁seek	-8.97914
▁tra	-8.98489
▁Do	-8.98514
ub	-8.98532
▁develop	-8.9872
▁8	-8.98762
▁procedures	-8.98772
▁agreed	-8.98785
▁changes	-8.98875
▁Republic	-8.9892
▁avoid	-8.9892
▁culture	-8.9892
▁element	-8.9892
▁farmers	-8.98921
▁defend	-8.98921
▁stop	-8.98923
▁firm	-8.98925
▁assessment	-8.98949
▁ago	-8.98956
▁test	-8.99024
▁efficient	-8.99043
▁conclusion	-8.99339
▁instrument	-8.99345
no	-8.99415
▁hear	-8.99509
H	-8.99522
▁off	-8.99618
der	-8.99983
▁she	-9.0001
▁19	-9.00528
Christian	-9.00533
humanitarian	-9.00533
▁Strategy	-9.00533
▁coordination	-9.00533
▁credit	-9.00533
▁efficiency	-9.00533
▁purpose	-9.00533
▁When	-9.00534
▁leave	-9.00534
▁voting	-9.00534
▁moment	-9.00534
▁emphasise	-9.00553
▁programmes	-9.00564
▁benefits	-9.00568
▁poor	-9.00605
▁7	-9.0065
▁indicat	-9.00669
gen	-9.00799
▁Democrats	-9.00932
ner	-9.01276
▁la	-9.01432
▁U	-9.01931
▁thing	-9.02037
▁asked	-9.02104
▁peace	-9.02134
▁Hungarian	-9.02172
▁suggest	-9.02172
▁technical	-9.02172
Office	-9.02173
▁death	-9.02174
▁tell	-9.02175
▁six	-9.02186
▁An	-9.0226
▁outside	-9.02284
▁adoption	-9.02314
▁reality	-9.02337
bo	-9.02526
▁Man	-9.02673
▁fishing	-9.02811
▁solutions	-9.03109
hip	-9.03143
ga	-9.03419
▁organisations	-9.03777
▁5	-9.03808
▁return	-9.03839
▁sitting	-9.03839
▁doubt	-9.0384
▁enter	-9.03865
▁defin	-9.03911
▁businesses	-9.04038
per	-9.04131
▁heard	-9.04384
▁reached	-9.04413
▁service	-9.04437
▁monitoring	-9.04543
▁mention	-9.04928
▁effectively	-9.0499
ex	-9.05362
▁border	-9.05393
▁Convention	-9.05534
▁immigration	-9.05534
▁model	-9.05534
▁ourselves	-9.05534
▁private	-9.05534
▁providing	-9.05534
▁China	-9.05535
▁discrimination	-9.05548
▁stability	-9.05551
▁pressure	-9.05553
▁everyone	-9.05578
▁seems	-9.0559
log	-9.05624
day	-9.05666
▁involve	-9.05901
▁exp	-9.06075
▁victims	-9.06151
▁practice	-9.06176
▁correct	-9.06399
call	-9.06531
▁50	-9.07164
▁follow	-9.07255
▁Article	-9.07258
▁agriculture	-9.07258
▁detail	-9.07258
▁travel	-9.07258
▁South	-9.07259
▁Centr	-9.07297
▁Mo	-9.07329
▁East	-9.07393
ug	-9.07511
ple	-9.07827
ba	-9.08012
▁required	-9.0802
▁po	-9.08065
▁cost	-9.08355
▁partners	-9.08785
▁list	-9.08875
▁French	-9.09013
▁across	-9.09013
▁excellent	-9.09013
▁structure	-9.09013
▁message	-9.09013
▁summit	-9.09013
▁turn	-9.09013
▁media	-9.09018
▁mind	-9.09019
▁UN	-9.09033
▁carry	-9.09054
▁grant	-9.09101
▁comes	-9.09122
▁ten	-9.09185
▁Rule	-9.09406
▁namely	-9.09409
▁speaker	-9.09505
▁cap	-9.09678
▁6	-9.09702
border	-9.09778
▁read	-9.09801
ood	-9.10695
▁import	-9.1073
que	-9.10798
▁Greece	-9.10798
▁asylum	-9.10798
▁capacity	-9.10798
▁tomorrow	-9.10798
▁others	-9.11039
▁Roma	-9.1122
▁And	-9.11453
ng	-9.11519
▁achiev	-9.11563
▁building	-9.11596
ave	-9.11606
▁rule	-9.11687
▁along	-9.11979
▁proper	-9.12144
▁low	-9.12414
▁fund	-9.12433
▁Internet	-9.12616
▁integration	-9.12616
▁reject	-9.12616
▁huge	-9.12617
▁oppos	-9.12617
▁send	-9.12618
▁strategic	-9.1262
▁around	-9.12624
▁nothing	-9.12665
▁12	-9.12698
rought	-9.12799
▁past	-9.12975
▁ref	-9.13044
▁desp	-9.13231
▁prices	-9.13394
qui	-9.13459
▁effect	-9.13461
▁effects	-9.13555
ever	-9.13658
riv	-9.13722
way	-9.13944
▁balance	-9.13997
▁talking	-9.14089
ious	-9.14121
▁community	-9.14468
▁exchange	-9.14468
▁animal	-9.1447
ily	-9.14507
▁throughout	-9.14526
har	-9.14756
▁took	-9.14906
her	-9.14917
▁personal	-9.15008
▁calls	-9.15131
V	-9.15343
▁saying	-9.15385
out	-9.15664
▁recognise	-9.15896
▁powers	-9.15929
tain	-9.15982
▁though	-9.16048
▁Furthermore	-9.16355
▁administrative	-9.16355
▁possibility	-9.16355
▁2007	-9.16373
▁payment	-9.16477
▁rise	-9.16493
▁press	-9.16521
▁propose	-9.16601
▁men	-9.16669
▁times	-9.16673
▁raised	-9.1674
▁colleagues	-9.16889
▁reduc	-9.16955
▁mis	-9.17096
▁introduce	-9.17399
▁measure	-9.1742
tract	-9.17519
▁implemented	-9.17551
▁affect	-9.17604
▁dem	-9.17646
istic	-9.17719
ward	-9.17842
▁MEPs	-9.18278
▁appear	-9.18278
▁company	-9.18278
▁immediate	-9.18278
▁obligation	-9.18278
▁technologies	-9.18278
▁attack	-9.18278
▁Bank	-9.18279
▁sub	-9.18313
▁14	-9.18321
▁improvement	-9.1842
▁accession	-9.18507
▁according	-9.19199
▁closed	-9.19217
▁price	-9.19407
hol	-9.19646
▁reach	-9.19662
▁doing	-9.19667
▁Mon	-9.19913
▁nor	-9.20114
▁2011	-9.20239
▁communication	-9.20239
▁infrastructure	-9.20239
▁speech	-9.20239
▁capital	-9.20239
▁June	-9.2024
▁home	-9.20241
▁partnership	-9.20253
▁parliament	-9.20273
▁Sea	-9.20284
▁stage	-9.20301
▁him	-9.20372
▁impose	-9.20409
▁Firstly	-9.20613
▁completely	-9.20653
▁30	-9.20663
▁Com	-9.20927
00	-9.21366
part	-9.21384
▁effort	-9.21455
▁word	-9.21457
▁thanks	-9.21536
▁statement	-9.21634
▁produce	-9.21815
▁parliamentar	-9.22124
▁supported	-9.22131
uch	-9.22212
▁Ukraine	-9.22239
▁conduct	-9.22239
▁knowledge	-9.22239
▁remind	-9.22239
▁official	-9.22239
▁Human	-9.22239
▁self	-9.22239
▁spoke	-9.22239
▁never	-9.22243
▁competitiveness	-9.22261
NL	-9.22267
▁treatment	-9.22292
▁export	-9.22296
▁11	-9.22304
▁levels	-9.22337
▁age	-9.22642
▁thus	-9.22736
▁reforms	-9.22865
▁prepared	-9.22903
▁active	-9.23083
▁win	-9.23287
▁met	-9.23315
ang	-9.2371
ick	-9.24002
▁sources	-9.24266
▁urge	-9.24267
▁Serbia	-9.2428
▁applied	-9.2428
▁family	-9.2428
▁left	-9.2428
▁regime	-9.2428
sized	-9.2428
▁fisheries	-9.2428
▁nature	-9.2428
▁quickly	-9.2428
▁received	-9.24636
▁five	-9.24738
▁wide	-9.24878
▁supporting	-9.24974
▁initiatives	-9.25217
▁bear	-9.2525
▁product	-9.25324
▁land	-9.2594
fi	-9.26044
▁presented	-9.26344
▁Bulgaria	-9.26363
▁agencies	-9.26363
▁convince	-9.26363
▁minimum	-9.26363
▁sufficient	-9.26363
▁behind	-9.26363
▁honour	-9.26363
▁Vice	-9.26364
▁lot	-9.26369
▁oil	-9.26379
▁deep	-9.26381
▁committed	-9.26383
▁targets	-9.26397
▁direction	-9.26499
▁post	-9.26522
▁May	-9.26594
▁weak	-9.27041
▁recently	-9.27477
▁representatives	-9.278
▁old	-9.27826
▁conclusions	-9.2793
▁decide	-9.2802
long	-9.28273
▁Justice	-9.28491
▁unacceptable	-9.28491
▁damage	-9.28491
▁trust	-9.28491
▁type	-9.28491
▁Party	-9.28491
▁instead	-9.28491
▁serve	-9.28491
▁defence	-9.28491
▁reference	-9.28516
▁9	-9.28698
▁challenge	-9.29094
▁governments	-9.29154
▁consideration	-9.29212
▁included	-9.2929
▁recommendations	-9.29913
erous	-9.29991
▁colleague	-9.30053
▁urgent	-9.30184
over	-9.30218
lthough	-9.30567
▁safe	-9.30644
▁child	-9.30664
▁demonstrate	-9.30665
▁pursu	-9.30665
▁recovery	-9.30665
▁terrorism	-9.30665
▁mutual	-9.30665
▁voice	-9.30665
▁ground	-9.30665
▁pension	-9.30665
▁fuel	-9.30665
▁half	-9.30666
minute	-9.30666
▁participation	-9.30684
▁introduction	-9.3072
▁27	-9.30729
▁sum	-9.3076
▁Now	-9.30788
▁mechanisms	-9.3084
▁coming	-9.30915
▁leading	-9.30986
▁anti	-9.31257
scale	-9.3179
▁expressed	-9.31943
The	-9.31952
▁away	-9.32317
▁name	-9.32388
▁treat	-9.32574
▁late	-9.3288
bilateral	-9.32887
▁burden	-9.32887
▁industrial	-9.32887
▁neighbour	-9.32887
▁Belarus	-9.32887
▁creating	-9.32887
▁session	-9.32887
▁France	-9.32887
▁Euro	-9.32889
▁structural	-9.32897
▁alone	-9.32927
▁ship	-9.32969
fin	-9.33014
▁CO	-9.33017
▁goes	-9.33357
▁decided	-9.33382
pt	-9.33562
rror	-9.33605
ski	-9.33696
▁15	-9.33961
▁accord	-9.3408
▁Bar	-9.34321
RO	-9.3446
▁highly	-9.34642
▁Con	-9.35008
▁200	-9.35126
▁plant	-9.35129
▁Czech	-9.3516
▁Regulation	-9.3516
▁criminal	-9.3516
▁fulfil	-9.3516
▁improving	-9.3516
▁light	-9.3516
▁method	-9.3516
▁military	-9.3516
▁renewable	-9.3516
▁Trade	-9.3516
▁extent	-9.3516
▁Nations	-9.35162
▁training	-9.35163
▁justice	-9.35163
▁minorities	-9.35167
▁dangerous	-9.35178
▁gender	-9.3518
▁North	-9.35201
▁Some	-9.35202
▁goals	-9.35214
▁allowed	-9.35305
▁2006	-9.35409
▁tabled	-9.35601
ach	-9.35824
▁caused	-9.36012
▁developed	-9.3613
▁giv	-9.36135
▁closely	-9.36347
President	-9.36476
▁fail	-9.3679
▁raise	-9.37017
oreover	-9.37032
▁member	-9.37037
▁party	-9.37046
▁discussions	-9.37277
▁exploit	-9.37485
▁Barroso	-9.37485
▁December	-9.37485
▁dimension	-9.37485
▁disease	-9.37485
▁perspective	-9.37485
▁referendum	-9.37485
▁technology	-9.37485
▁sense	-9.37486
▁violation	-9.37486
▁visit	-9.37491
carbon	-9.37503
▁transfer	-9.3753
▁Mediterranean	-9.37642
▁events	-9.37669
▁difficulties	-9.37746
etary	-9.37784
▁includes	-9.3797
▁factor	-9.38323
▁bad	-9.3833
▁patients	-9.38338
▁remains	-9.38354
▁upon	-9.3837
▁ever	-9.38743
▁established	-9.39145
▁complete	-9.39366
▁Croatia	-9.39866
▁Economic	-9.39866
▁Foreign	-9.39866
▁Partnership	-9.39866
▁Schengen	-9.39866
▁activity	-9.39866
▁central	-9.39866
▁confirm	-9.39866
▁independent	-9.39866
▁integrated	-9.39866
▁practical	-9.39866
▁remember	-9.39866
▁school	-9.39866
▁facing	-9.39866
▁repeat	-9.39866
▁thousand	-9.39866
▁Israel	-9.39866
promoting	-9.39867
▁relationship	-9.39895
▁head	-9.40041
▁growing	-9.40405
▁affected	-9.40709
▁union	-9.40724
European	-9.41315
▁provision	-9.41974
▁table	-9.42082
▁amend	-9.42255
▁competitive	-9.42278
▁Copenhagen	-9.42305
▁January	-9.42305
▁Nevertheless	-9.42305
▁People	-9.42305
▁adapt	-9.42305
▁attempt	-9.42305
▁bodies	-9.42305
▁negative	-9.42305
▁obtain	-9.42305
▁unemployment	-9.42305
▁loss	-9.42305
▁history	-9.42306
▁green	-9.42306
▁easy	-9.42306
▁ahead	-9.42307
▁entry	-9.42308
▁everything	-9.42308
▁explain	-9.4231
▁early	-9.42311
▁content	-9.42311
▁trading	-9.42313
▁Today	-9.42334
▁13	-9.42362
▁unfortunately	-9.42374
▁office	-9.42393
▁Ro	-9.42683
▁big	-9.42779
▁ba	-9.42799
▁realise	-9.42909
▁properly	-9.42987
▁Al	-9.43066
▁topic	-9.43185
▁statements	-9.43291
▁concept	-9.43607
▁differences	-9.43705
▁practices	-9.43862
ka	-9.43863
▁link	-9.4413
▁discussing	-9.44229
▁Mar	-9.44312
▁choice	-9.44805
▁comprehensive	-9.44805
▁economies	-9.44805
▁genuine	-9.44805
▁interpret	-9.44805
▁rapid	-9.44805
▁regulator	-9.44805
▁religious	-9.44805
▁vehicle	-9.44805
▁wrong	-9.44805
▁fraud	-9.44805
▁compar	-9.44806
▁25	-9.44806
▁solve	-9.44807
▁spend	-9.44807
stock	-9.44808
▁Swed	-9.44813
▁initial	-9.44813
▁rail	-9.44813
▁desire	-9.44838
▁Italy	-9.44867
▁endorse	-9.44886
▁Germany	-9.45037
▁signal	-9.45339
▁balanced	-9.45448
▁increasingly	-9.45774
▁introduc	-9.45898
▁react	-9.46196
▁monitor	-9.46291
▁Ma	-9.46367
▁resolve	-9.46621
▁40	-9.46674
▁mechanism	-9.47162
▁multi	-9.47254
Applause	-9.47369
▁Amendment	-9.47369
▁Auditors	-9.47369
▁concrete	-9.47369
▁consistent	-9.47369
▁mobility	-9.47369
▁probably	-9.47369
▁scientific	-9.47369
▁mandate	-9.47369
▁scope	-9.47369
▁Green	-9.47371
▁beginning	-9.47371
▁abuse	-9.47373
▁forget	-9.47388
▁Iran	-9.47411
▁option	-9.47437
▁consultation	-9.47576
acy	-9.47797
▁intended	-9.4789
▁shown	-9.48213
▁rightly	-9.48754
▁strongly	-9.48947
rime	-9.49133
▁bio	-9.49463
▁First	-9.49501
▁citizen	-9.49885
▁restrict	-9.49998
▁Kosovo	-9.50001
▁Libya	-9.50001
▁Summit	-9.50001
▁constitution	-9.50001
▁contact	-9.50001
▁similar	-9.50001
▁study	-9.50001
▁binding	-9.50001
▁police	-9.50001
▁Alliance	-9.50001
▁precise	-9.50001
▁Even	-9.50006
▁debt	-9.50007
▁duty	-9.50014
▁Socialist	-9.50025
ought	-9.50049
▁Of	-9.50054
▁specifically	-9.50099
▁setting	-9.50169
▁sent	-9.50312
▁finally	-9.50874
▁Ra	-9.51063
▁prov	-9.51147
▁discussed	-9.51296
quality	-9.51629
▁reading	-9.51632
▁receive	-9.52233
▁secure	-9.52631
▁Unfortunately	-9.52704
▁conference	-9.52704
▁connection	-9.52704
▁consensus	-9.52704
▁quota	-9.52704
▁record	-9.52704
▁sensitive	-9.52704
▁strict	-9.52704
▁succeed	-9.52704
▁supervision	-9.52704
▁tackle	-9.52704
▁transaction	-9.52704
▁vulnerable	-9.52704
▁deliver	-9.52704
▁ignor	-9.52704
▁launch	-9.52704
▁centre	-9.52705
▁observe	-9.52705
aritime	-9.52706
▁safeguard	-9.52707
▁harm	-9.52708
▁delegation	-9.52724
▁drive	-9.52848
▁Portugal	-9.52861
▁How	-9.52864
▁expression	-9.52907
▁equality	-9.52954
rain	-9.53011
▁fo	-9.53359
▁linked	-9.53439
▁failed	-9.53496
▁higher	-9.53583
▁goal	-9.53613
▁added	-9.53907
use	-9.53949
▁improved	-9.54318
W	-9.5447
gue	-9.54493
▁fish	-9.54563
vote	-9.54596
▁considered	-9.55063
▁SMEs	-9.55481
▁Spanish	-9.55481
▁appeal	-9.55481
▁candidate	-9.55481
▁domestic	-9.55481
▁guidelines	-9.55481
▁modern	-9.55481
▁plenary	-9.55481
▁substantial	-9.55481
▁check	-9.55481
▁definition	-9.55482
▁spirit	-9.55482
▁gain	-9.55488
▁consumption	-9.55501
▁source	-9.55502
▁competence	-9.55513
▁producers	-9.55514
▁Action	-9.55524
put	-9.55556
▁sport	-9.55584
▁greatest	-9.55654
ton	-9.56025
ua	-9.56194
range	-9.56542
▁Lad	-9.57027
▁created	-9.5706
ince	-9.57577
▁German	-9.58074
▁nation	-9.58263
▁organ	-9.58293
▁regret	-9.58338
▁2013	-9.58338
▁Brussels	-9.58338
▁clause	-9.58338
▁constructive	-9.58338
▁Market	-9.58339
▁exercise	-9.58339
▁proportion	-9.58339
▁claim	-9.58339
▁constant	-9.58339
▁manner	-9.58339
▁chance	-9.58343
▁mass	-9.5836
▁failure	-9.58365
▁income	-9.58381
▁eye	-9.58401
▁manage	-9.58404
▁Although	-9.58467
▁organisation	-9.58471
▁overall	-9.58511
▁investigat	-9.58571
▁prevention	-9.58675
▁later	-9.58676
▁obviously	-9.58713
▁Ne	-9.58753
▁recognised	-9.59065
▁faced	-9.59381
▁directly	-9.59437
▁worth	-9.59735
▁refer	-9.59754
▁addressed	-9.59832
▁limited	-9.59912
▁allocat	-9.59929
▁Ou	-9.60455
▁led	-9.6103
▁Can	-9.61061
▁Greek	-9.6128
▁Turkish	-9.6128
▁advance	-9.6128
▁advantage	-9.6128
▁brief	-9.6128
▁charge	-9.6128
▁complex	-9.6128
▁condemn	-9.6128
▁continuing	-9.6128
▁discharge	-9.6128
▁manufactur	-9.6128
▁publish	-9.6128
▁regular	-9.6128
▁Securit	-9.6128
▁determine	-9.6128
▁mistake	-9.6128
▁opposition	-9.6128
▁milk	-9.61281
▁wait	-9.61281
▁zone	-9.61281
▁historic	-9.61285
▁intell	-9.61286
▁influence	-9.61289
▁instance	-9.61291
▁199	-9.6132
▁dai	-9.61333
▁establishment	-9.61463
▁listen	-9.61537
▁fast	-9.61617
▁Ver	-9.62043
▁mon	-9.62185
▁except	-9.6283
▁Na	-9.6337
fter	-9.63535
making	-9.6355
▁mission	-9.63794
▁Constitution	-9.6431
▁Hungary	-9.6431
▁accident	-9.6431
▁adequate	-9.6431
▁block	-9.6431
▁circumstances	-9.6431
▁commercial	-9.6431
▁declaration	-9.6431
▁families	-9.6431
▁independence	-9.6431
▁migration	-9.6431
▁taxpayer	-9.6431
▁annual	-9.64312
▁examin	-9.64324
▁18	-9.64365
elect	-9.64367
▁mark	-9.65025
▁followed	-9.65508
ritt	-9.65773
▁happened	-9.66401
▁reduced	-9.6648
▁base	-9.67171
▁Agriculture	-9.67435
▁Balkan	-9.67435
▁Budget	-9.67435
▁Pakistan	-9.67435
▁alternative	-9.67435
▁applies	-9.67435
▁associated	-9.67435
▁diversity	-9.67435
▁enjoy	-9.67435
▁excessive	-9.67435
▁intervention	-9.67435
▁professional	-9.67435
▁Agency	-9.67435
▁Whil	-9.67435
▁Poland	-9.67435
▁status	-9.67435
▁transition	-9.67436
▁floor	-9.67436
▁restrictions	-9.67438
shadow	-9.67439
▁fear	-9.67441
▁anything	-9.67443
▁UK	-9.67443
▁flexibility	-9.67446
▁planning	-9.67446
▁compliance	-9.67455
▁collective	-9.67479
▁came	-9.67485
house	-9.67554
mination	-9.67565
▁globalisation	-9.67584
active	-9.67584
▁path	-9.67662
EA	-9.67678
▁election	-9.67829
▁condition	-9.67837
▁standard	-9.6787
▁ready	-9.6791
▁partner	-9.67953
eight	-9.68118
▁institutional	-9.68215
ium	-9.6841
▁prepar	-9.68795
▁expected	-9.69262
▁heart	-9.69399
▁build	-9.69582
tability	-9.70278
CS	-9.70584
▁assess	-9.70616
▁custom	-9.70661
▁engage	-9.70661
▁Ombudsman	-9.70661
▁Protection	-9.70661
▁September	-9.70661
▁Service	-9.70661
▁campaign	-9.70661
▁communities	-9.70661
▁confidence	-9.70661
▁electronic	-9.70661
▁medicines	-9.70661
▁passengers	-9.70661
▁register	-9.70661
▁regulate	-9.70661
▁scheme	-9.70661
▁student	-9.70661
▁either	-9.70661
▁substance	-9.70661
▁Why	-9.70662
▁temp	-9.70662
General	-9.70662
▁gap	-9.70668
▁combin	-9.70671
▁promise	-9.7072
▁contract	-9.70744
▁rating	-9.70807
▁American	-9.7084
▁achievement	-9.70864
▁underline	-9.70889
▁considerable	-9.70944
▁useful	-9.71031
▁produced	-9.71438
▁Or	-9.71505
standing	-9.71917
▁employ	-9.71918
▁date	-9.72159
employed	-9.72651
▁intend	-9.73368
▁opt	-9.73975
▁traffic	-9.73993
pproval	-9.73994
▁Japan	-9.73994
▁Strasbourg	-9.73994
▁World	-9.73994
▁argument	-9.73994
▁delighted	-9.73994
▁fiscal	-9.73994
▁happy	-9.73994
▁innovative	-9.73994
▁penalty	-9.73994
▁religion	-9.73994
▁figure	-9.73994
▁margin	-9.73994
▁negotiating	-9.73994
▁PPE	-9.73994
▁primar	-9.73994
▁pillar	-9.73995
▁court	-9.73998
▁normal	-9.74004
▁recognition	-9.74006
EL	-9.74089
olish	-9.74134
▁code	-9.74272
▁institution	-9.74358
▁insist	-9.74432
djustment	-9.74544
▁managed	-9.74866
▁facilitate	-9.76019
(	-9.76433
▁govern	-9.77342
▁electric	-9.77442
▁Egypt	-9.77442
▁Programme	-9.77442
▁analysis	-9.77442
▁construction	-9.77442
▁distribution	-9.77442
▁exclusion	-9.77442
▁hundred	-9.77442
▁liberalisation	-9.77442
▁obstacle	-9.77442
▁thorough	-9.77442
▁transparent	-9.77442
tlantic	-9.77443
▁Western	-9.77443
▁trafficking	-9.77444
▁July	-9.77446
▁Indeed	-9.77446
▁comply	-9.77447
▁Irish	-9.77447
▁dispute	-9.7745
▁elected	-9.7745
▁else	-9.77453
▁negotiate	-9.77455
▁begin	-9.77471
▁staff	-9.77493
▁identifi	-9.77503
▁referred	-9.77507
▁spent	-9.77799
▁Georgia	-9.78133
▁urgently	-9.78255
▁num	-9.78511
▁involv	-9.78589
ix	-9.80321
ught	-9.80468
▁recommend	-9.80867
▁harmonis	-9.809
responsibilities	-9.81014
▁According	-9.81014
▁November	-9.81014
▁Procedure	-9.81014
▁Representative	-9.81014
▁acknowledg	-9.81014
▁consolidat	-9.81014
▁deserve	-9.81014
▁enormous	-9.81014
▁separate	-9.81014
▁sexual	-9.81014
▁simple	-9.81014
▁fruit	-9.81014
▁drug	-9.81014
▁Italian	-9.81016
▁leadership	-9.81025
cycl	-9.81042
▁minority	-9.81064
▁17	-9.81092
▁wage	-9.81152
▁India	-9.81277
▁reasonable	-9.81306
▁critical	-9.81307
class	-9.81379
▁designed	-9.81423
▁treaty	-9.81445
▁via	-9.81627
▁Russian	-9.81788
raw	-9.82043
▁requirement	-9.82087
▁former	-9.82226
nyone	-9.82337
TA	-9.83381
▁writ	-9.83778
▁Black	-9.84717
▁Chamber	-9.84717
▁Policy	-9.84717
▁Spain	-9.84717
▁delay	-9.84717
▁earlier	-9.84717
▁evaluation	-9.84717
▁exactly	-9.84717
▁inclusion	-9.84717
▁industries	-9.84717
▁minister	-9.84717
▁operator	-9.84717
▁promotion	-9.84717
▁saving	-9.84717
▁statistics	-9.84717
▁terrorist	-9.84717
▁ultimate	-9.84717
▁generation	-9.84718
▁operate	-9.84718
▁Ashton	-9.84718
▁territory	-9.84718
▁execut	-9.84718
▁revision	-9.84718
▁Korea	-9.84718
▁employees	-9.84718
▁overcome	-9.84718
▁spread	-9.84718
▁space	-9.84718
▁remove	-9.84719
▁permit	-9.84719
▁sustainability	-9.84726
▁near	-9.84727
▁explanation	-9.84731
▁labelling	-9.84735
▁organised	-9.84749
ological	-9.84756
▁submitted	-9.84775
▁stable	-9.84791
▁March	-9.84821
▁paid	-9.84838
▁approved	-9.84961
▁run	-9.85107
▁lower	-9.85147
▁told	-9.85189
▁fine	-9.8533
5%	-9.85554
▁prove	-9.85722
▁100	-9.86371
related	-9.86794
▁bi	-9.87146
▁obvious	-9.88059
▁emphasis	-9.88515
▁Energy	-9.88564
▁Environment	-9.88564
▁crises	-9.88564
▁declare	-9.88564
▁flexible	-9.88564
▁identify	-9.88564
▁impossible	-9.88564
▁incentive	-9.88564
▁mobilis	-9.88564
▁ordinary	-9.88564
▁prison	-9.88564
▁secret	-9.88564
▁strategies	-9.88564
▁2012	-9.88564
▁mother	-9.88564
▁ratification	-9.88564
▁seven	-9.88564
operating	-9.88564
▁Baltic	-9.88564
▁truly	-9.88564
▁Every	-9.88564
▁super	-9.88564
iddle	-9.88571
▁planned	-9.88573
▁tele	-9.88576
▁speed	-9.88576
▁constitute	-9.88597
▁remark	-9.88666
▁attitude	-9.88685
▁assure	-9.88698
▁effectiveness	-9.88708
▁21	-9.88738
▁prepare	-9.89014
▁preparation	-9.89086
▁thought	-9.89336
governmental	-9.90022
▁Nor	-9.91002
stone	-9.91248
spit	-9.91261
point	-9.91552
economic	-9.91554
based	-9.91605
time	-9.91672
wide	-9.91782
▁count	-9.92327
tradition	-9.92559
▁Framework	-9.92564
▁Gaza	-9.92564
▁NATO	-9.92564
▁Organisation	-9.92564
▁Third	-9.92564
▁administration	-9.92564
▁continent	-9.92564
▁encouraging	-9.92564
▁evidence	-9.92564
▁exclusive	-9.92564
▁judge	-9.92564
▁myself	-9.92564
▁occasion	-9.92564
▁politics	-9.92564
▁truth	-9.92564
▁Charter	-9.92564
▁push	-9.92564
▁terri	-9.92573
▁audit	-9.92574
▁feed	-9.92602
▁property	-9.92605
▁lies	-9.9262
▁awareness	-9.92652
▁sort	-9.92665
▁harmonisation	-9.92697
▁counter	-9.92781
▁gone	-9.9288
▁leaders	-9.92886
aking	-9.93225
drawn	-9.9328
mark	-9.93443
▁Giv	-9.93645
▁negotiation	-9.93907
▁representative	-9.93969
location	-9.94463
ender	-9.9478
▁reinforce	-9.95269
look	-9.95719
▁participate	-9.95909
▁du	-9.96043
▁lai	-9.96127
▁plu	-9.96299
undamental	-9.96662
▁submit	-9.96666
▁British	-9.9673
▁afford	-9.9673
▁contrary	-9.9673
▁convention	-9.9673
▁equipment	-9.9673
▁expenditure	-9.9673
▁observation	-9.9673
▁paragraph	-9.9673
▁revenue	-9.9673
▁size	-9.9673
▁surprise	-9.9673
▁territorial	-9.9673
▁voluntary	-9.9673
▁coherent	-9.9673
▁permanent	-9.9673
precedent	-9.96731
▁Women	-9.96731
▁release	-9.96731
▁Region	-9.96731
▁Those	-9.96731
▁break	-9.96732
▁sometimes	-9.96733
▁patent	-9.96734
▁appreciate	-9.96736
▁sell	-9.96741
▁aviation	-9.96743
surance	-9.96748
▁reply	-9.96753
▁worse	-9.96757
gible	-9.96769
▁paper	-9.96787
▁replace	-9.96801
▁poorest	-9.96832
▁16	-9.96835
▁sound	-9.96866
▁arise	-9.96871
▁recommendation	-9.98377
debate	-10.0007
▁Portug	-10.0082
▁America	-10.0084
▁collect	-10.0102
ivil	-10.0102
matic	-10.0107
ographic	-10.0108
▁February	-10.0108
▁Iraq	-10.0108
▁Macedonia	-10.0108
▁abandon	-10.0108
▁currency	-10.0108
▁decisive	-10.0108
▁judicial	-10.0108
▁maxim	-10.0108
▁refugees	-10.0108
▁yesterday	-10.0108
▁CAP	-10.0108
▁generate	-10.0108
▁wonder	-10.0108
▁admit	-10.0108
▁Pact	-10.0108
▁exceptional	-10.0108
▁phase	-10.0108
▁hours	-10.0108
▁decent	-10.0108
ology	-10.0109
▁settle	-10.0109
urban	-10.0113
▁2005	-10.0114
▁pollution	-10.0114
▁reaction	-10.0123
▁flee	-10.0128
▁unless	-10.0133
▁acceptable	-10.0136
▁Hom	-10.0142
tally	-10.0146
▁Ni	-10.0169
▁Slovakia	-10.0171
▁month	-10.029
place	-10.045
Rule	-10.0461
work	-10.0462
▁please	-10.0515
▁macro	-10.0562
friendly	-10.0562
▁April	-10.0562
▁Assembly	-10.0562
▁Kingdom	-10.0562
▁October	-10.0562
▁Slovenia	-10.0562
▁association	-10.0562
▁character	-10.0562
▁cooperate	-10.0562
▁correspond	-10.0562
▁deficit	-10.0562
▁describe	-10.0562
▁enlargement	-10.0562
▁exempt	-10.0562
▁facilities	-10.0562
▁geographical	-10.0562
▁phenomenon	-10.0562
▁physical	-10.0562
▁punish	-10.0562
▁unanimous	-10.0562
▁experts	-10.0562
▁weapon	-10.0562
▁undertaking	-10.0562
▁expense	-10.0562
▁tuna	-10.0562
▁appoint	-10.0563
▁undermine	-10.0563
▁assume	-10.0566
▁agency	-10.0566
▁flood	-10.0567
▁peaceful	-10.0573
▁New	-10.0573
reby	-10.0574
▁existence	-10.0578
▁2000	-10.0578
▁lu	-10.0786
▁grow	-10.0923
K	-10.0932
▁60	-10.0958
▁incorporat	-10.0997
▁minor	-10.1033
olidarity	-10.1036
petition	-10.1036
▁proceed	-10.1036
▁Afghanistan	-10.1039
▁Liberal	-10.1039
▁beneficial	-10.1039
▁blue	-10.1039
▁complement	-10.1039
▁concentrate	-10.1039
▁degree	-10.1039
▁digital	-10.1039
▁disadvantage	-10.1039
▁ethnic	-10.1039
▁heavy	-10.1039
▁journalist	-10.1039
▁ratified	-10.1039
▁subsidiarity	-10.1039
▁technological	-10.1039
▁vessel	-10.1039
▁heritage	-10.1039
▁courage	-10.1039
▁diplomat	-10.1039
▁arrest	-10.1039
▁slow	-10.1039
▁otherwise	-10.1039
▁duties	-10.1039
▁gradual	-10.1039
▁abolish	-10.1039
ectual	-10.1039
▁arrive	-10.1039
▁tourism	-10.104
▁wealth	-10.1041
▁performance	-10.1042
▁speculation	-10.1043
▁eliminati	-10.1043
▁198	-10.1044
▁realistic	-10.1046
▁save	-10.1047
▁24	-10.1053
▁rac	-10.1153
grad	-10.1226
▁difference	-10.1256
▁coordinate	-10.1371
2010	-10.1437
efore	-10.153
ublic	-10.1532
▁satisf	-10.1539
▁stimul	-10.1539
▁Brazil	-10.1539
▁Conference	-10.1539
▁Investment	-10.1539
▁Moldova	-10.1539
▁Palestinian	-10.1539
▁Transport	-10.1539
▁Tunisia	-10.1539
▁abolition	-10.1539
▁advocate	-10.1539
▁ambition	-10.1539
▁appropriations	-10.1539
▁arrangements	-10.1539
▁complaint	-10.1539
▁destroy	-10.1539
▁divide	-10.1539
▁easier	-10.1539
▁experiencing	-10.1539
▁persecut	-10.1539
▁radio	-10.1539
▁reiterate	-10.1539
▁sensible	-10.1539
▁trend	-10.1539
▁GDP	-10.1539
▁creative	-10.1539
▁ACP	-10.1539
▁definitely	-10.1539
▁chain	-10.1539
▁accus	-10.1539
▁chair	-10.1539
▁double	-10.1539
▁systematic	-10.1539
▁referring	-10.1539
determination	-10.1539
▁earn	-10.154
▁rising	-10.154
killed	-10.154
▁proceedings	-10.1542
SK	-10.1543
▁membership	-10.1543
▁2004	-10.1544
▁lose	-10.1544
▁sale	-10.1544
▁mix	-10.155
AL	-10.1551
driving	-10.1554
logue	-10.1559
▁prefer	-10.1744
▁facilitat	-10.175
▁propos	-10.1773
nother	-10.1926
▁critic	-10.2019
▁consult	-10.2022
produc	-10.2043
▁legislat	-10.205
▁danger	-10.2061
▁explicit	-10.2065
▁Control	-10.2065
▁Frontex	-10.2065
▁Instead	-10.2065
▁Safety	-10.2065
▁accelerat	-10.2065
▁component	-10.2065
▁confront	-10.2065
▁corruption	-10.2065
▁credibility	-10.2065
▁eliminate	-10.2065
▁enforcement	-10.2065
▁extensive	-10.2065
▁healthcare	-10.2065
▁legitimate	-10.2065
▁length	-10.2065
▁neither	-10.2065
▁nevertheless	-10.2065
▁prohibit	-10.2065
▁qualifications	-10.2065
▁reserve	-10.2065
▁simplify	-10.2065
▁struggle	-10.2065
▁symbol	-10.2065
▁troops	-10.2065
▁unfair	-10.2065
▁universit	-10.2065
▁witness	-10.2065
▁Europol	-10.2065
▁morning	-10.2065
▁honest	-10.2065
▁System	-10.2065
▁revised	-10.2065
▁Health	-10.2065
▁preserv	-10.2065
▁Sudan	-10.2065
▁board	-10.2065
▁average	-10.2065
▁teach	-10.2065
▁Arab	-10.2065
▁clean	-10.2065
▁impress	-10.2065
▁traditional	-10.2066
▁Also	-10.2066
▁criticism	-10.2067
▁Plan	-10.2069
▁expand	-10.2073
▁Paris	-10.2081
▁contribut	-10.2087
▁striv	-10.212
▁counterfeit	-10.2148
formal	-10.249
cultural	-10.2519
xternal	-10.2614
ooperation	-10.2614
▁Social	-10.2615
stitute	-10.2616
▁Cohesion	-10.262
▁Cyprus	-10.262
▁Globalis	-10.262
▁Lithuania	-10.262
▁Research	-10.262
▁announced	-10.262
▁choose	-10.262
▁elsewhere	-10.262
▁female	-10.262
▁incident	-10.262
▁leaving	-10.262
▁oblige	-10.262
▁percentage	-10.262
▁pesticide	-10.262
▁pipeline	-10.262
▁presidency	-10.262
▁surveillance	-10.262
▁await	-10.262
▁Freedom	-10.262
▁piece	-10.262
▁radical	-10.262
▁Haiti	-10.262
▁intensive	-10.262
▁ALDE	-10.262
▁acquis	-10.262
▁latter	-10.262
▁murder	-10.262
▁Islam	-10.262
▁Thus	-10.262
▁predict	-10.2621
▁worst	-10.2621
▁protest	-10.2621
▁moving	-10.2621
▁outcome	-10.2621
mposition	-10.2621
▁lend	-10.2621
▁sovereignty	-10.2621
▁sharing	-10.2621
▁perfect	-10.2622
▁host	-10.2622
▁withdraw	-10.2986
institutional	-10.3106
J	-10.3107
▁design	-10.3141
▁pollut	-10.32
ollowing	-10.3201
▁competen	-10.3202
▁object	-10.3203
tribute	-10.3204
tructural	-10.3206
▁label	-10.3206
▁Act	-10.3207
▁occur	-10.3208
democrat	-10.3209
▁accompan	-10.3209
illennium	-10.3209
▁Authority	-10.3209
▁Liberties	-10.3209
▁affairs	-10.3209
▁beneficiar	-10.3209
▁dignity	-10.3209
▁foodstuffs	-10.3209
▁forgotten	-10.3209
▁inequalities	-10.3209
▁multilateral	-10.3209
▁privacy	-10.3209
▁significance	-10.3209
▁societies	-10.3209
▁unnecessary	-10.3209
▁welfare	-10.3209
▁Austria	-10.3209
▁Financi	-10.3209
▁chosen	-10.3209
valuable	-10.3209
▁anticipat	-10.3209
▁lost	-10.3209
▁glad	-10.3209
▁Common	-10.3209
▁Work	-10.3209
▁reliable	-10.3209
▁micro	-10.3209
▁version	-10.3209
▁persist	-10.321
▁Congo	-10.321
▁argue	-10.321
▁farming	-10.3212
▁etc	-10.3226
rning	-10.3231
lain	-10.3239
▁resolv	-10.3385
ferred	-10.3559
▁extra	-10.3684
▁presen	-10.3728
initiative	-10.3732
2008	-10.3732
national	-10.3735
ception	-10.3808
▁perform	-10.3829
rowth	-10.383
▁Bosnia	-10.3834
▁Burma	-10.3834
▁Fisheries	-10.3834
▁Like	-10.3834
▁Progress	-10.3834
▁Thursday	-10.3834
▁Tibet	-10.3834
▁advertising	-10.3834
▁applicable	-10.3834
▁behaviour	-10.3834
▁biodiversity	-10.3834
▁celebrat	-10.3834
▁cheap	-10.3834
▁clarify	-10.3834
▁detriment	-10.3834
▁disagree	-10.3834
▁dynamic	-10.3834
▁frequent	-10.3834
▁imbalance	-10.3834
▁infringement	-10.3834
▁neighbourhood	-10.3834
▁possibilities	-10.3834
▁prosperity	-10.3834
▁redundan	-10.3834
▁reservation	-10.3834
▁supplement	-10.3834
▁suspen	-10.3834
▁uncertain	-10.3834
▁London	-10.3834
▁categor	-10.3834
▁dossier	-10.3834
▁dramatic	-10.3834
▁storage	-10.3834
▁surviv	-10.3834
▁Britain	-10.3834
▁abstain	-10.3834
▁biggest	-10.3834
▁section	-10.3834
▁species	-10.3834
▁finish	-10.3834
▁electora	-10.3834
▁sorry	-10.3834
EGF	-10.3834
▁route	-10.3834
▁camp	-10.3834
load	-10.3834
▁south	-10.3834
▁postpon	-10.3835
▁Free	-10.3835
▁root	-10.3835
▁team	-10.3835
▁warning	-10.3835
▁moral	-10.3835
▁guid	-10.3836
▁united	-10.3836
▁rich	-10.3836
marine	-10.3841
▁geo	-10.3908
fect	-10.3992
▁consequence	-10.4217
level	-10.4399
▁commit	-10.4488
limate	-10.4495
sumption	-10.4495
ubject	-10.4498
▁president	-10.45
▁Petitions	-10.45
▁boost	-10.45
▁century	-10.45
▁changing	-10.45
▁chapter	-10.45
▁credible	-10.45
▁disposal	-10.45
▁ecosystem	-10.45
▁envisage	-10.45
▁necessity	-10.45
▁politicians	-10.45
▁reciproc	-10.45
▁residence	-10.45
▁stakeholders	-10.45
▁subsequent	-10.45
▁supervisor	-10.45
▁supposed	-10.45
▁uniform	-10.45
▁universal	-10.45
▁vocation	-10.45
▁volume	-10.45
▁whilst	-10.45
▁absurd	-10.45
▁comparison	-10.45
▁extension	-10.45
▁simplification	-10.45
▁ownership	-10.45
▁excuse	-10.45
▁science	-10.45
▁couple	-10.45
▁valid	-10.45
▁breach	-10.45
▁reveal	-10.4501
▁dump	-10.4501
▁analyse	-10.4501
▁tonnes	-10.4501
▁image	-10.4501
▁foster	-10.4501
▁shift	-10.4501
▁inspection	-10.4501
▁Cuba	-10.4506
▁tough	-10.4512
abour	-10.4557
satisfactory	-10.4566
▁debat	-10.4649
coordinated	-10.473
▁reinforc	-10.4742
▁enabl	-10.4814
▁congratulat	-10.485
▁manag	-10.4996
▁approve	-10.5167
erhaps	-10.5208
▁black	-10.5215
▁confident	-10.5215
▁disappear	-10.5215
▁neutral	-10.5215
▁slight	-10.5215
▁straight	-10.5215
▁Agenda	-10.5215
▁Australia	-10.5215
▁Belgian	-10.5215
▁Netherlands	-10.5215
▁Protocol	-10.5215
▁approximate	-10.5215
▁built	-10.5215
▁commend	-10.5215
▁conservation	-10.5215
▁considerably	-10.5215
▁contradict	-10.5215
▁convergence	-10.5215
▁destruction	-10.5215
▁elderly	-10.5215
▁endeavour	-10.5215
▁fishermen	-10.5215
▁inhabitants	-10.5215
▁judgment	-10.5215
▁mandatory	-10.5215
▁occupation	-10.5215
▁principal	-10.5215
▁qualified	-10.5215
▁quantit	-10.5215
▁restructuring	-10.5215
▁spectrum	-10.5215
▁tragedy	-10.5215
▁WTO	-10.5215
▁commodit	-10.5215
▁penalise	-10.5215
▁intervene	-10.5215
▁Canada	-10.5215
▁Regard	-10.5215
▁notably	-10.5215
▁absence	-10.5215
▁blood	-10.5215
▁watch	-10.5215
▁Speci	-10.5215
▁woman	-10.5215
▁hung	-10.5215
▁running	-10.5215
▁obs	-10.5215
▁arising	-10.5216
guard	-10.5217
▁exert	-10.523
▁assert	-10.5234
estimated	-10.5491
▁patient	-10.5699
▁victim	-10.57
▁resource	-10.5701
what	-10.5883
▁differ	-10.5972
▁initiat	-10.5979
▁disgrace	-10.5984
imbabwe	-10.5984
mobile	-10.5984
netheless	-10.5984
▁Access	-10.5984
▁Albania	-10.5984
▁August	-10.5984
▁Consumer	-10.5984
▁Industry	-10.5984
▁Information	-10.5984
▁Obviously	-10.5984
▁Switzerland	-10.5984
▁bureaucracy	-10.5984
▁chemicals	-10.5984
▁collapse	-10.5984
▁complicated	-10.5984
▁constituent	-10.5984
▁deprived	-10.5984
▁entrepreneurs	-10.5984
▁extraordinar	-10.5984
▁hazardous	-10.5984
▁identity	-10.5984
▁inadequate	-10.5984
▁inclusive	-10.5984
▁interference	-10.5984
▁jurisdiction	-10.5984
▁legitimacy	-10.5984
▁penalties	-10.5984
▁pharmaceutical	-10.5984
▁repression	-10.5984
▁separati	-10.5984
▁supplies	-10.5984
▁trouble	-10.5984
▁vegetables	-10.5984
▁volatility	-10.5984
▁EIB	-10.5984
▁VAT	-10.5984
▁blind	-10.5984
▁lobby	-10.5984
▁resident	-10.5984
▁accessible	-10.5984
visible	-10.5984
▁Goals	-10.5984
▁freight	-10.5984
▁regrettable	-10.5984
▁discover	-10.5984
▁mitigat	-10.5984
▁ecological	-10.5984
▁convey	-10.5984
▁Syria	-10.5984
▁justify	-10.5984
▁occurred	-10.5984
nternal	-10.5984
▁textile	-10.5984
▁birth	-10.5984
uestion	-10.5985
▁translate	-10.5985
truck	-10.5986
▁drop	-10.5988
titude	-10.5995
productive	-10.6084
▁interconnect	-10.6118
connected	-10.6674
country	-10.6716
▁controvers	-10.6817
ugoslav	-10.6817
▁Arctic	-10.6817
▁English	-10.6817
▁Obama	-10.6817
▁continuous	-10.6817
▁deliberate	-10.6817
▁familiar	-10.6817
▁frank	-10.6817
▁multiannual	-10.6817
▁purchas	-10.6817
AIDS	-10.6817
compatible	-10.6817
evolution	-10.6817
▁NGOs	-10.6817
▁Resolution	-10.6817
▁Schulz	-10.6817
▁Stockholm	-10.6817
▁afraid	-10.6817
▁anniversary	-10.6817
▁battle	-10.6817
▁compulsory	-10.6817
▁consistency	-10.6817
▁delicate	-10.6817
▁dioxi	-10.6817
▁earthquake	-10.6817
▁equivalen	-10.6817
▁exacerbate	-10.6817
▁feature	-10.6817
▁heavily	-10.6817
▁misleading	-10.6817
▁motivate	-10.6817
▁prevail	-10.6817
▁procurement	-10.6817
▁satellite	-10.6817
▁stabilis	-10.6817
▁strike	-10.6817
▁transposition	-10.6817
▁whatsoever	-10.6817
▁Estonia	-10.6817
▁Under	-10.6817
▁rescue	-10.6817
▁solving	-10.6817
▁stream	-10.6817
▁virtu	-10.6817
▁Tourism	-10.6817
▁PSE	-10.6817
▁deadline	-10.6817
▁understood	-10.6817
▁website	-10.6817
▁hydro	-10.6817
▁prompt	-10.6817
▁confuse	-10.6817
▁rape	-10.6819
▁secur	-10.6834
corporate	-10.6891
building	-10.7302
direct	-10.7625
▁strength	-10.7711
▁speculat	-10.7718
ompliance	-10.772
▁deploy	-10.7726
▁habit	-10.7726
▁tariff	-10.7726
▁Because	-10.7726
▁Belgium	-10.7726
▁Herzegovina	-10.7726
▁Mercosur	-10.7726
▁Mexico	-10.7726
▁Neighbourhood	-10.7726
▁Otherwise	-10.7726
▁Treaties	-10.7726
▁Venezuela	-10.7726
▁activists	-10.7726
▁article	-10.7726
▁artificial	-10.7726
▁calculat	-10.7726
▁compensate	-10.7726
▁competitors	-10.7726
▁consequently	-10.7726
▁diverse	-10.7726
▁drink	-10.7726
▁encounter	-10.7726
▁estimates	-10.7726
▁evident	-10.7726
▁expensive	-10.7726
▁horizontal	-10.7726
▁immunity	-10.7726
▁implications	-10.7726
▁modified	-10.7726
▁newspaper	-10.7726
▁overwhelming	-10.7726
▁platform	-10.7726
▁pleasure	-10.7726
▁possibly	-10.7726
▁ratify	-10.7726
▁schedule	-10.7726
▁swift	-10.7726
▁tremendous	-10.7726
▁volunteer	-10.7726
▁coherence	-10.7726
▁denounc	-10.7726
▁eurozone	-10.7726
▁everywhere	-10.7726
▁stringent	-10.7726
▁desirable	-10.7726
▁earmark	-10.7726
▁tape	-10.7726
▁distortion	-10.7726
▁silence	-10.7726
▁suspect	-10.7726
▁violent	-10.7726
▁Dimas	-10.7726
▁reconciliation	-10.7726
▁pilot	-10.7726
▁broke	-10.7726
▁lift	-10.7726
▁violate	-10.7727
tolerance	-10.7728
▁dedicat	-10.7729
▁replac	-10.7733
▁participat	-10.7904
worthy	-10.8235
▁Slovak	-10.8578
2006	-10.8624
▁necessar	-10.87
q	-12.2016
