<pad>	0
</s>	0
<unk>	0
▁the	-2.95937
,	-3.25009
.	-3.50785
s	-3.51675
▁of	-3.62447
▁to	-3.70248
▁and	-3.81729
▁in	-4.03501
▁a	-4.28963
▁that	-4.40468
▁is	-4.41199
▁	-4.69711
▁for	-4.72084
▁I	-4.76868
ing	-4.86113
▁on	-4.92073
▁this	-5.03328
▁be	-5.05325
▁we	-5.06159
ed	-5.10832
▁are	-5.20782
d	-5.21485
▁European	-5.28133
▁have	-5.29266
▁it	-5.31388
▁not	-5.32894
▁with	-5.38487
▁as	-5.41973
ly	-5.50006
▁The	-5.50177
▁will	-5.54776
▁which	-5.55887
-	-5.55978
'	-5.61034
▁by	-5.61729
▁has	-5.77186
▁-	-5.79046
▁also	-5.95611
▁an	-5.95649
e	-5.98555
▁(	-6.00206
)	-6.00544
t	-6.01705
er	-6.03266
al	-6.04381
▁all	-6.04669
▁would	-6.05054
▁at	-6.05857
n	-6.06272
▁Mr	-6.07684
▁Commission	-6.08864
▁from	-6.10521
y	-6.11001
▁We	-6.11813
c	-6.12451
▁President	-6.13148
▁should	-6.14337
▁our	-6.15447
▁EU	-6.15526
▁must	-6.18449
▁Member	-6.21669
▁but	-6.24089
▁Union	-6.25536
in	-6.33375
▁been	-6.33872
▁report	-6.34282
r	-6.34822
▁States	-6.35731
▁Parliament	-6.36165
▁you	-6.36647
▁It	-6.3726
▁more	-6.38055
▁can	-6.38536
p	-6.41759
▁their	-6.41837
▁do	-6.44201
▁or	-6.45628
▁like	-6.45934
▁was	-6.47011
▁Europe	-6.47402
m	-6.48289
▁In	-6.50384
▁This	-6.50833
u	-6.50969
▁very	-6.51642
re	-6.53962
▁need	-6.54684
▁its	-6.55906
▁re	-6.56678
b	-6.57036
▁so	-6.57369
es	-6.58493
▁these	-6.62153
ation	-6.62441
▁important	-6.62739
ar	-6.63086
a	-6.63112
▁who	-6.63223
▁there	-6.64689
▁countries	-6.65592
▁one	-6.67639
:	-6.68223
▁Council	-6.68749
▁people	-6.71733
or	-6.72172
▁new	-6.73286
▁they	-6.73325
▁about	-6.74392
▁other	-6.76041
▁us	-6.7608
g	-6.77425
▁support	-6.77684
▁de	-6.779
▁time	-6.78949
▁my	-6.8345
▁because	-6.83508
l	-6.84014
▁what	-6.84273
▁policy	-6.85971
▁am	-6.86433
ri	-6.86573
o	-6.87769
▁only	-6.89208
ic	-6.89285
▁work	-6.90074
▁out	-6.90296
it	-6.91163
▁up	-6.92932
▁economic	-6.9507
▁rights	-6.96139
i	-6.9765
▁no	-6.98424
▁S	-6.9955
▁such	-7.00412
▁take	-7.00811
ent	-7.00835
▁between	-7.01506
h	-7.03245
▁into	-7.03366
st	-7.03796
▁make	-7.05497
ur	-7.06778
▁if	-7.06888
f	-7.07087
▁A	-7.07141
▁now	-7.07409
an	-7.07447
?	-7.07779
w	-7.08512
▁p	-7.09044
th	-7.10139
k	-7.12317
en	-7.12474
▁market	-7.13558
ment	-7.13817
▁those	-7.1423
▁c	-7.14258
▁some	-7.15162
▁when	-7.15919
ion	-7.16026
▁believe	-7.17003
ra	-7.17093
▁therefore	-7.1714
ate	-7.1741
▁financial	-7.17425
▁citizens	-7.17864
▁un	-7.17963
▁'	-7.18512
ro	-7.1974
le	-7.20391
▁think	-7.20855
▁political	-7.21165
▁social	-7.21346
▁f	-7.21612
▁against	-7.21919
▁any	-7.22783
▁way	-7.22916
▁energy	-7.2322
li	-7.23571
▁development	-7.23592
il	-7.2431
able	-7.24435
on	-7.25593
;	-7.26204
▁want	-7.27101
at	-7.27885
▁many	-7.27887
▁situation	-7.27909
ive	-7.28179
se	-7.28208
▁being	-7.28637
▁crisis	-7.29139
ers	-7.29406
▁than	-7.30746
▁However	-7.30798
▁well	-7.30823
▁were	-7.30925
▁made	-7.30925
▁them	-7.31268
▁me	-7.31753
ity	-7.31755
▁right	-7.31973
▁first	-7.32258
▁fact	-7.32292
ce	-7.32508
▁Commissioner	-7.32601
▁human	-7.32829
et	-7.32956
▁debate	-7.33415
▁just	-7.33955
▁say	-7.34541
ch	-7.34703
ul	-7.35228
▁order	-7.35354
▁issue	-7.35975
▁country	-7.36253
▁M	-7.37435
▁part	-7.38592
▁see	-7.3869
▁measures	-7.39035
▁st	-7.39424
▁over	-7.41538
ence	-7.4176
▁ensure	-7.42331
▁future	-7.42706
▁national	-7.4299
▁As	-7.43135
▁agreement	-7.43241
▁where	-7.43279
▁years	-7.44603
▁con	-7.44666
▁proposal	-7.45559
▁under	-7.45807
▁even	-7.45981
▁b	-7.46129
▁most	-7.47019
▁good	-7.47032
▁level	-7.48183
▁vote	-7.48209
▁today	-7.48329
▁public	-7.48816
▁use	-7.48918
▁same	-7.48919
▁system	-7.49666
▁point	-7.49676
▁here	-7.51865
lo	-7.5206
▁Madam	-7.52264
▁T	-7.5271
▁sector	-7.5283
ir	-7.52867
▁clear	-7.52982
la	-7.53259
▁area	-7.53572
te	-7.53961
▁possible	-7.54033
▁cannot	-7.54546
tion	-7.54797
▁That	-7.55306
▁C	-7.55507
▁question	-7.56119
ies	-7.56257
▁respect	-7.56531
▁help	-7.56614
▁protection	-7.56906
▁world	-7.57112
ist	-7.57237
▁international	-7.57578
▁could	-7.58067
▁know	-7.58102
▁change	-7.58132
▁cooperation	-7.5821
ter	-7.58438
▁two	-7.58482
▁G	-7.58495
▁resolution	-7.58952
▁particular	-7.58987
▁law	-7.59311
▁much	-7.59557
0	-7.59693
▁place	-7.59748
▁year	-7.59751
ol	-7.59963
▁does	-7.60073
el	-7.60983
▁how	-7.61071
▁common	-7.61268
est	-7.61303
z	-7.61558
▁favour	-7.61722
▁rapporteur	-7.62578
▁E	-7.62635
▁already	-7.63639
▁t	-7.6404
▁process	-7.64452
▁said	-7.64871
▁both	-7.64972
E	-7.65085
▁had	-7.65215
▁voted	-7.65442
▁view	-7.6621
▁hope	-7.66275
▁your	-7.6644
A	-7.66447
im	-7.66837
▁still	-7.67132
▁Treaty	-7.6769
▁within	-7.68125
us	-7.68145
▁budget	-7.68189
▁through	-7.69108
▁own	-7.69237
un	-7.69554
ia	-7.6973
▁e	-7.70041
as	-7.70373
▁There	-7.70828
▁security	-7.7094
▁F	-7.72188
▁writing	-7.72622
▁Committee	-7.72784
▁course	-7.73425
▁provide	-7.73477
▁end	-7.73655
▁example	-7.73862
▁co	-7.74381
▁case	-7.74395
▁why	-7.74641
ne	-7.74794
ta	-7.75991
end	-7.76412
▁information	-7.7677
▁too	-7.76917
▁regard	-7.77153
▁put	-7.77326
▁gentlemen	-7.77538
ance	-7.77626
▁continue	-7.77663
▁thank	-7.77671
▁able	-7.77741
▁number	-7.7829
P	-7.7856
▁last	-7.78853
ad	-7.78858
%	-7.78994
▁ex	-7.79252
▁P	-7.79737
▁Group	-7.79775
▁problem	-7.79889
▁women	-7.79938
▁role	-7.80021
▁give	-7.80227
▁he	-7.80432
▁trade	-7.80451
▁legal	-7.8057
▁particularly	-7.80957
▁dis	-7.81451
▁action	-7.81739
um	-7.8192
▁necessary	-7.83103
▁result	-7.84956
▁without	-7.8512
▁welcome	-7.85139
▁long	-7.85238
ut	-7.85621
▁taken	-7.87524
▁health	-7.87806
▁Lisbon	-7.88298
▁climate	-7.88767
▁means	-7.89459
▁g	-7.89534
▁may	-7.89842
▁issues	-7.89877
S	-7.90021
▁directive	-7.9011
▁se	-7.90195
2	-7.90571
▁d	-7.90657
▁problems	-7.91146
▁set	-7.91188
▁l	-7.91209
em	-7.91236
am	-7.9125
▁For	-7.91629
ine	-7.91779
▁better	-7.92021
▁global	-7.92062
▁account	-7.92163
I	-7.92537
▁comp	-7.92608
▁form	-7.92904
▁strategy	-7.92954
▁behalf	-7.93139
▁agree	-7.93145
▁areas	-7.93219
▁since	-7.93738
C	-7.93772
▁call	-7.93901
▁access	-7.93932
▁his	-7.94139
ful	-7.94188
ight	-7.94267
▁increase	-7.94609
de	-7.95253
pe	-7.95608
ous	-7.9595
▁w	-7.95959
▁position	-7.96183
ating	-7.96787
ated	-7.96827
▁great	-7.96835
ve	-7.97064
▁allow	-7.9707
▁needs	-7.97643
▁force	-7.97737
▁Re	-7.97767
ise	-7.97838
▁ladies	-7.97935
▁current	-7.97973
▁far	-7.98014
j	-7.98465
▁rules	-7.98707
▁If	-7.98815
▁D	-7.99178
▁different	-7.9964
▁step	-7.99798
▁framework	-7.99803
▁approach	-8.00072
▁however	-8.00248
▁act	-8.00457
ant	-8.00729
▁legislation	-8.00829
▁institutions	-8.00875
▁On	-8.01339
▁state	-8.01343
▁including	-8.01461
▁freedom	-8.01547
▁ask	-8.01808
▁Mrs	-8.01935
▁high	-8.01939
ver	-8.01997
ig	-8.0206
▁v	-8.02147
ally	-8.02392
▁again	-8.02587
▁next	-8.02708
▁come	-8.03095
▁terms	-8.0311
▁real	-8.03244
▁million	-8.03294
ci	-8.03327
▁2	-8.03414
▁pay	-8.03487
▁further	-8.03573
▁m	-8.03785
▁given	-8.04026
op	-8.04507
▁certain	-8.04618
▁large	-8.04847
▁services	-8.04917
▁decision	-8.05539
▁opinion	-8.05626
▁whether	-8.05806
▁progress	-8.05866
id	-8.05961
▁before	-8.05987
▁find	-8.06337
▁pro	-8.06548
▁economy	-8.06881
▁W	-8.07094
▁pre	-8.07133
▁transport	-8.07354
ot	-8.0757
ge	-8.07633
▁present	-8.07734
▁guarantee	-8.07783
▁matter	-8.07952
▁go	-8.08061
▁adopted	-8.08066
▁State	-8.08386
ou	-8.09129
▁food	-8.0915
▁after	-8.09317
po	-8.0957
▁Presidency	-8.10034
▁play	-8.1005
▁open	-8.10098
▁regulation	-8.10155
▁hand	-8.10239
▁B	-8.10242
▁per	-8.10467
term	-8.10535
▁resources	-8.10779
▁fundamental	-8.10886
1	-8.11174
ac	-8.11325
ian	-8.12018
▁products	-8.12472
and	-8.12495
DE	-8.12799
▁consider	-8.1283
▁authorities	-8.13154
▁policies	-8.13307
▁effective	-8.1373
ations	-8.13994
▁wish	-8.14024
▁especially	-8.1404
▁main	-8.14352
▁reason	-8.14547
9	-8.14617
▁every	-8.14737
ti	-8.14839
▁conditions	-8.14926
▁towards	-8.15021
▁K	-8.15297
▁essential	-8.15406
▁protect	-8.15494
com	-8.15499
ting	-8.15612
▁small	-8.15638
▁basis	-8.15688
▁opportunity	-8.15937
▁start	-8.15959
ted	-8.16314
▁bring	-8.16695
▁importance	-8.16843
▁done	-8.17188
▁forward	-8.17235
▁plan	-8.17469
▁risk	-8.17974
▁What	-8.18451
ism	-8.18524
is	-8.18697
▁during	-8.18726
▁interest	-8.19009
▁going	-8.19326
ha	-8.19342
▁Community	-8.20313
bo	-8.20344
▁become	-8.20354
▁free	-8.2044
▁working	-8.20518
▁third	-8.2061
▁deal	-8.20642
▁environmental	-8.20679
▁few	-8.2068
me	-8.20696
▁United	-8.21135
▁lead	-8.2141
▁implementation	-8.21425
ill	-8.21457
▁aid	-8.21504
▁EUR	-8.21647
om	-8.21758
ma	-8.21804
vi	-8.2182
ow	-8.21957
▁control	-8.2198
▁region	-8.22102
▁proposals	-8.22155
▁together	-8.22229
▁safety	-8.22361
▁subject	-8.22442
▁workers	-8.22713
▁negotiations	-8.22809
ability	-8.22918
▁specific	-8.23247
age	-8.23345
ary	-8.23465
▁three	-8.23496
▁data	-8.23496
▁greater	-8.23619
T	-8.23999
▁r	-8.24106
▁research	-8.24326
▁car	-8.24344
▁mo	-8.2444
▁used	-8.24491
▁second	-8.24544
▁aim	-8.24613
▁difficult	-8.24764
ty	-8.2484
▁general	-8.24962
▁back	-8.2524
one	-8.25248
▁show	-8.25886
▁tax	-8.25952
▁serious	-8.26154
▁impact	-8.26188
▁L	-8.26492
▁commitment	-8.26572
3	-8.2659
ag	-8.26851
▁power	-8.26852
▁strong	-8.27291
▁represent	-8.27339
▁funds	-8.27501
F	-8.27588
D	-8.27627
▁Members	-8.27687
▁based	-8.27798
▁House	-8.2781
▁growth	-8.27862
port	-8.28267
▁attention	-8.28432
▁really	-8.28676
▁text	-8.28753
▁fight	-8.288
▁industry	-8.2898
▁children	-8.29095
tra	-8.29279
▁efforts	-8.29579
v	-8.29588
▁achieve	-8.29601
▁whole	-8.29698
▁At	-8.29732
▁education	-8.29953
▁major	-8.30328
▁O	-8.30534
▁less	-8.30665
▁responsibility	-8.30819
▁look	-8.30978
mo	-8.31037
▁prevent	-8.31383
▁democracy	-8.31596
▁principle	-8.31844
▁significant	-8.31927
ness	-8.31995
▁di	-8.32047
▁did	-8.32259
▁while	-8.32339
▁internal	-8.32655
form	-8.33077
M	-8.33191
▁clearly	-8.33999
▁then	-8.34234
▁understand	-8.34247
no	-8.34283
▁making	-8.34988
x	-8.35347
▁society	-8.35368
ising	-8.3559
ities	-8.35634
▁democratic	-8.35738
▁H	-8.35773
▁down	-8.35817
▁another	-8.35977
cu	-8.36156
▁To	-8.36301
▁These	-8.36432
▁standards	-8.36439
▁address	-8.36569
▁investment	-8.37004
ud	-8.37093
4	-8.37511
▁positive	-8.37971
▁get	-8.38008
▁programme	-8.38262
▁euro	-8.38283
5	-8.3878
▁create	-8.38854
▁consumers	-8.38885
ial	-8.39015
6	-8.39106
iv	-8.39198
▁taking	-8.39457
▁something	-8.39839
ative	-8.39911
▁V	-8.3992
8	-8.40083
▁money	-8.40112
▁group	-8.40428
▁least	-8.4067
▁interests	-8.40791
▁include	-8.40962
▁proposed	-8.40986
▁expect	-8.41135
▁3	-8.41244
▁They	-8.41305
isation	-8.41323
▁agricultural	-8.4135
▁improve	-8.41441
ling	-8.4148
ry	-8.41549
va	-8.41643
ised	-8.41655
▁regions	-8.41707
▁among	-8.4176
R	-8.41769
ni	-8.41908
▁idea	-8.41956
▁life	-8.42041
▁imp	-8.42272
▁always	-8.42278
▁Russia	-8.425
▁war	-8.42765
tor	-8.42768
ck	-8.42858
up	-8.43343
▁employment	-8.43394
▁demand	-8.4361
ions	-8.43672
▁companies	-8.43763
mi	-8.43778
na	-8.43789
▁Fund	-8.43915
▁care	-8.4396
▁inter	-8.4404
di	-8.44054
ator	-8.45058
ru	-8.45163
ke	-8.45249
▁quality	-8.45295
▁key	-8.45519
▁draw	-8.45539
▁environment	-8.45651
▁recent	-8.45784
to	-8.45796
▁focus	-8.45899
▁fully	-8.46054
▁offer	-8.46129
▁production	-8.46258
▁discussion	-8.46584
▁once	-8.46803
▁concerned	-8.46892
▁full	-8.46971
▁sp	-8.46982
▁various	-8.47006
▁each	-8.47047
▁solution	-8.47074
▁jobs	-8.47341
▁period	-8.47347
▁individual	-8.47393
▁19	-8.47445
▁promote	-8.47668
ok	-8.47753
▁No	-8.47935
ard	-8.48132
▁Therefore	-8.48195
▁itself	-8.48218
▁week	-8.48224
ship	-8.48354
▁share	-8.48602
▁1	-8.48857
▁mean	-8.48926
▁practice	-8.49235
▁government	-8.49582
▁face	-8.4962
▁objectives	-8.49627
▁let	-8.49758
▁speak	-8.49758
tic	-8.49833
7	-8.50683
▁sustainable	-8.50719
vis	-8.50965
▁N	-8.5097
▁best	-8.51054
und	-8.5107
▁accept	-8.51088
▁non	-8.51162
▁things	-8.51474
▁So	-8.51799
fi	-8.51852
▁agreements	-8.51881
ning	-8.51891
▁context	-8.51992
gra	-8.52048
▁developing	-8.52096
▁2009	-8.52677
pa	-8.5274
▁concerns	-8.52778
▁4	-8.52847
▁o	-8.52891
▁yet	-8.53032
ll	-8.53225
▁amendments	-8.5347
N	-8.53705
▁trans	-8.5371
▁su	-8.53829
str	-8.5383
▁relations	-8.53839
▁Government	-8.53995
▁words	-8.54211
ho	-8.54225
▁meeting	-8.54415
▁initiative	-8.54514
▁package	-8.54754
nt	-8.55462
all	-8.55626
▁single	-8.55692
▁groups	-8.55769
▁having	-8.5584
▁Directive	-8.55865
▁regional	-8.5593
▁remain	-8.55939
▁dialogue	-8.56189
▁often	-8.56485
▁solidarity	-8.56713
▁draft	-8.5714
▁currently	-8.57146
▁rather	-8.57543
ure	-8.577
EC	-8.58083
oc	-8.58091
▁short	-8.58204
▁mechanism	-8.5884
▁lack	-8.59039
▁talk	-8.59068
our	-8.5916
▁adopt	-8.59428
▁management	-8.59486
▁involved	-8.59534
ture	-8.59574
per	-8.59747
▁following	-8.60011
ification	-8.6005
▁actually	-8.60087
▁response	-8.60413
ap	-8.60431
ide	-8.60765
▁request	-8.60934
▁compromise	-8.61012
ring	-8.61021
▁local	-8.61065
▁With	-8.61143
▁population	-8.61169
▁sign	-8.61297
▁young	-8.61513
lu	-8.61675
hi	-8.61677
▁De	-8.6172
▁objective	-8.61845
▁contribution	-8.61905
▁competition	-8.62249
▁strengthen	-8.62312
▁procedure	-8.62381
▁labour	-8.62567
▁results	-8.62831
▁her	-8.63014
▁poverty	-8.63153
▁transparency	-8.63179
▁reform	-8.63206
ors	-8.63234
▁systems	-8.63303
▁legislative	-8.63877
▁funding	-8.63904
rs	-8.63907
▁appropriate	-8.64038
▁majority	-8.64051
▁equal	-8.64215
▁Let	-8.64427
less	-8.6444
▁document	-8.64579
▁challenges	-8.64758
▁Court	-8.64796
▁states	-8.64896
ical	-8.64957
▁available	-8.65013
▁cohesion	-8.65149
▁ago	-8.65162
▁encourage	-8.65177
▁found	-8.653
▁mentioned	-8.65353
▁extremely	-8.65502
▁He	-8.65544
▁civil	-8.65721
act	-8.65723
▁answer	-8.65833
man	-8.65985
▁costs	-8.66246
O	-8.66262
▁US	-8.66304
ran	-8.66307
ts	-8.66473
od	-8.66809
▁markets	-8.66993
ak	-8.66996
land	-8.67139
▁concerning	-8.67432
ev	-8.67531
▁feel	-8.67662
▁follow	-8.6773
▁conclusion	-8.67772
rm	-8.67828
▁stress	-8.67857
▁2008	-8.68149
ber	-8.68161
▁line	-8.68225
▁sure	-8.68433
ified	-8.68473
▁Con	-8.68491
▁field	-8.68559
▁emissions	-8.68588
▁air	-8.6867
▁responsible	-8.68672
▁off	-8.68707
▁happen	-8.68749
▁simply	-8.68926
▁10	-8.6898
▁apply	-8.69269
▁ca	-8.69539
▁projects	-8.69583
▁joint	-8.69654
▁priority	-8.69883
▁assistance	-8.69936
▁project	-8.69946
qu	-8.69978
▁benefit	-8.70101
▁concern	-8.70191
▁quit	-8.7023
▁fair	-8.70294
▁move	-8.70347
con	-8.70463
▁reduce	-8.7056
▁2020	-8.70623
▁needed	-8.70652
▁express	-8.70654
ile	-8.70766
▁Mo	-8.70806
▁potential	-8.7084
▁activities	-8.70927
ear	-8.71071
▁principles	-8.71136
▁Minister	-8.71216
▁programmes	-8.71216
▁China	-8.71332
▁An	-8.71533
▁nuclear	-8.71535
fe	-8.7171
▁contribute	-8.71826
ven	-8.71901
▁due	-8.72119
▁months	-8.72177
▁ho	-8.72203
▁billion	-8.72235
▁points	-8.72255
▁6	-8.72296
▁application	-8.7241
▁regarding	-8.73204
▁Finally	-8.73205
FR	-8.73443
▁several	-8.73976
▁cases	-8.73983
▁aware	-8.74011
▁business	-8.74156
▁review	-8.74244
sh	-8.7443
bu	-8.74557
▁kind	-8.74633
▁thing	-8.74964
▁instruments	-8.7504
▁keep	-8.75627
▁committee	-8.75717
▁conflict	-8.7599
▁natural	-8.76021
▁recognise	-8.76021
ff	-8.76088
▁decisions	-8.76379
ible	-8.76437
▁innovation	-8.7663
side	-8.76773
▁fellow	-8.76814
▁shall	-8.76833
B	-8.76916
▁20	-8.76942
line	-8.77503
▁sh	-8.77521
▁road	-8.77522
▁integration	-8.77551
▁special	-8.77564
ie	-8.77908
▁certainly	-8.77934
▁exist	-8.78098
▁depend	-8.78295
PL	-8.78309
▁enable	-8.78392
her	-8.78541
▁values	-8.78559
led	-8.78708
▁tri	-8.78866
co	-8.78952
▁seek	-8.79094
▁addition	-8.79172
▁true	-8.79546
▁consumer	-8.79614
▁origin	-8.7964
ite	-8.79657
▁rate	-8.79679
▁day	-8.79754
▁parties	-8.79857
red	-8.80019
▁amendment	-8.80038
▁cover	-8.80092
uc	-8.80093
▁provided	-8.80502
▁achieved	-8.80565
▁pleased	-8.80618
▁entire	-8.80749
▁gas	-8.80751
▁success	-8.80777
▁increasing	-8.80819
▁operation	-8.80844
▁enough	-8.80855
▁illegal	-8.80876
▁fail	-8.80953
▁crime	-8.81005
▁person	-8.8106
▁experience	-8.81068
ell	-8.81133
▁farmers	-8.81484
gen	-8.81555
▁But	-8.81669
▁8	-8.8167
▁Affairs	-8.81709
▁foreign	-8.8171
▁creation	-8.82001
▁R	-8.82014
ca	-8.82043
▁maintain	-8.82193
▁7	-8.82366
▁cause	-8.82375
he	-8.82444
▁Turkey	-8.82451
L	-8.82518
istic	-8.82558
ga	-8.82581
▁themselves	-8.82906
be	-8.83082
▁crucial	-8.83264
▁2010	-8.83399
▁violence	-8.83461
▁indeed	-8.8352
▁final	-8.83612
Rule	-8.83967
▁direct	-8.84068
▁prices	-8.84093
▁develop	-8.84446
▁rule	-8.8469
▁stability	-8.84762
▁contain	-8.84779
ten	-8.8493
av	-8.85028
▁consequences	-8.85133
▁2007	-8.85194
▁cross	-8.85277
▁Euro	-8.85354
▁instrument	-8.85358
▁000	-8.85411
▁increased	-8.85545
▁cut	-8.85568
▁congratulate	-8.85577
▁meet	-8.85713
▁questions	-8.85809
▁moment	-8.85854
▁Rights	-8.8588
▁J	-8.86122
▁existing	-8.86412
▁reach	-8.86468
▁highlight	-8.86518
IT	-8.86534
▁relation	-8.86547
▁reduction	-8.86585
▁efficiency	-8.86619
▁turn	-8.8679
▁limit	-8.86895
▁avoid	-8.87094
cl	-8.87197
▁side	-8.87742
▁value	-8.87757
bi	-8.87893
▁term	-8.87895
▁Thank	-8.87979
▁suffer	-8.88117
▁above	-8.88289
▁doing	-8.88347
▁medium	-8.88425
ph	-8.88478
▁cost	-8.888
▁past	-8.88918
▁members	-8.89085
▁mention	-8.89182
▁excellent	-8.89185
▁Republic	-8.8922
▁requirements	-8.89488
▁basic	-8.89498
▁personal	-8.89615
gr	-8.89629
ex	-8.89803
▁Minutes	-8.9002
▁soon	-8.90028
ncy	-8.90097
20	-8.90187
▁water	-8.90232
▁longer	-8.90366
▁vital	-8.90478
ish	-8.90481
▁amount	-8.90687
▁reasons	-8.90688
▁seen	-8.90828
▁matters	-8.90968
▁en	-8.91091
▁actions	-8.91279
▁elections	-8.91491
▁opportunities	-8.91499
▁All	-8.91532
ably	-8.91533
G	-8.91622
▁Ch	-8.91733
▁ma	-8.91757
▁previous	-8.91925
▁poor	-8.92536
▁goal	-8.92551
▁invest	-8.9257
▁everyone	-8.92768
▁voting	-8.92785
▁establish	-8.92891
over	-8.92997
▁disaster	-8.93
▁external	-8.93036
go	-8.93209
▁mind	-8.93255
if	-8.93268
▁ensuring	-8.93361
▁One	-8.93429
▁pass	-8.93444
▁differ	-8.93524
▁governments	-8.93541
day	-8.93625
▁active	-8.93936
▁Article	-8.9394
▁5	-8.93967
har	-8.94003
▁job	-8.94132
▁aspects	-8.94254
▁priorities	-8.94349
▁assessment	-8.94421
▁communication	-8.94524
▁task	-8.94633
▁ban	-8.9484
▁Ireland	-8.95075
▁procedures	-8.95147
▁comes	-8.95164
▁mis	-8.95164
▁changes	-8.95306
▁criteria	-8.95331
▁My	-8.9545
▁stand	-8.95451
▁peace	-8.9548
▁Co	-8.95512
▁across	-8.95626
▁governance	-8.95718
▁agreed	-8.95796
▁businesses	-8.95846
▁regards	-8.95887
▁visa	-8.9593
▁might	-8.96204
▁enterprises	-8.96219
▁victims	-8.96248
▁around	-8.96295
▁recommendation	-8.96503
▁hard	-8.96524
▁Romania	-8.96525
lic	-8.96548
▁conclude	-8.96555
▁Our	-8.96571
▁grant	-8.96589
▁element	-8.96629
▁provisions	-8.96655
▁live	-8.96987
▁efficient	-8.97093
▁finance	-8.97229
▁close	-8.97277
▁agenda	-8.97303
▁technical	-8.97303
ub	-8.97307
▁balance	-8.97518
▁partnership	-8.97691
▁implement	-8.98103
▁successful	-8.98328
▁capital	-8.98361
00	-8.98424
▁adoption	-8.98499
▁little	-8.98514
ious	-8.98612
▁emphasise	-8.98698
▁import	-8.98711
ever	-8.98786
▁man	-8.98827
▁La	-8.98869
ns	-8.99016
▁living	-8.99201
ES	-8.99242
▁author	-8.99341
▁suggest	-8.99392
▁total	-8.99452
ang	-8.99769
▁regulations	-8.99889
▁method	-8.9997
▁she	-8.99976
ice	-9.00019
▁strategic	-9.00124
▁item	-9.00168
▁Do	-9.00313
▁stop	-9.00365
▁urgent	-9.00494
▁private	-9.00551
▁purpose	-9.00551
app	-9.00591
▁Development	-9.00628
▁9	-9.00658
▁relating	-9.00707
▁competitiveness	-9.00723
▁learn	-9.00941
▁obligation	-9.00979
au	-9.01028
▁media	-9.01054
▁organisations	-9.01066
▁reflect	-9.01135
▁required	-9.01348
▁along	-9.01408
▁regime	-9.01604
▁UN	-9.01855
▁partners	-9.01919
▁carried	-9.0192
▁comment	-9.0196
▁doubt	-9.01998
▁additional	-9.02081
▁perhaps	-9.02195
▁Ma	-9.02286
▁speech	-9.02392
▁respond	-9.02511
▁using	-9.0263
▁fo	-9.02654
cre	-9.02725
▁Agreement	-9.02749
▁target	-9.02769
▁thus	-9.02871
▁four	-9.02872
▁colleagues	-9.0291
▁14	-9.02988
▁function	-9.03027
▁agriculture	-9.03067
▁network	-9.03067
▁supply	-9.03067
▁nothing	-9.03178
▁effect	-9.03188
▁reject	-9.03266
▁times	-9.0329
▁fall	-9.03395
▁sitting	-9.03519
▁sub	-9.03521
▁product	-9.03524
▁200	-9.03527
▁pressure	-9.0356
▁movement	-9.03577
vo	-9.03615
▁Africa	-9.03733
▁enter	-9.03759
Office	-9.03787
▁waste	-9.0386
▁defend	-9.03867
▁affect	-9.04106
ip	-9.04159
▁talking	-9.04273
ep	-9.04301
▁urge	-9.04336
mon	-9.04353
▁sea	-9.04467
▁supported	-9.04578
pol	-9.04681
tu	-9.04725
▁detail	-9.04754
▁broad	-9.04835
▁model	-9.04957
▁throughout	-9.05039
▁cultural	-9.05144
▁Roma	-9.05226
▁hold	-9.05337
pre	-9.05425
▁death	-9.05527
▁others	-9.05554
▁quickly	-9.05655
▁Pa	-9.05679
▁tomorrow	-9.05689
gg	-9.05713
▁borders	-9.05723
ern	-9.05764
ba	-9.05886
▁animal	-9.05896
▁improvement	-9.05922
▁When	-9.06099
way	-9.06402
ify	-9.06454
▁training	-9.06502
▁solutions	-9.06511
▁extend	-9.06717
▁qua	-9.06788
▁service	-9.06977
▁ten	-9.07073
▁sc	-9.0732
▁infrastructure	-9.07379
▁message	-9.07504
▁12	-9.0758
▁firm	-9.07797
▁Secondly	-9.07844
▁motion	-9.08
▁although	-9.08005
▁Greece	-9.08047
▁though	-9.08081
▁building	-9.08202
ward	-9.08248
▁financing	-9.08325
U	-9.08338
▁community	-9.08424
▁absolutely	-9.08452
for	-9.08599
▁discrimination	-9.08654
▁accession	-9.08824
▁huge	-9.08845
▁correct	-9.08845
▁coming	-9.08869
▁price	-9.08877
50	-9.0911
▁add	-9.09494
▁treatment	-9.0959
stitution	-9.09614
▁immigration	-9.0965
▁never	-9.09653
▁International	-9.09692
▁tell	-9.09717
▁initiatives	-9.09735
▁until	-9.09779
▁monitoring	-9.09856
mission	-9.09888
▁direction	-9.10092
▁join	-9.10092
▁everything	-9.10163
▁fund	-9.10189
ough	-9.1024
▁ambitious	-9.10375
▁namely	-9.10497
ler	-9.10646
▁return	-9.10718
▁implemented	-9.10759
▁home	-9.10761
tre	-9.10976
▁stage	-9.11347
▁carry	-9.11464
▁coordination	-9.11538
▁affected	-9.1167
▁creating	-9.11713
▁Com	-9.11767
▁low	-9.11811
▁ever	-9.11897
▁St	-9.12097
▁fishing	-9.12187
▁seems	-9.12262
▁language	-9.12322
ner	-9.12484
▁military	-9.12715
▁effects	-9.12769
▁aimed	-9.13019
▁rest	-9.13075
▁saying	-9.13205
▁exchange	-9.13243
rant	-9.13281
▁speaker	-9.13401
▁humanitarian	-9.13508
▁providing	-9.13508
▁criminal	-9.13685
▁threat	-9.1369
▁reached	-9.13904
▁sense	-9.13996
▁remind	-9.14173
▁leave	-9.14173
▁challenge	-9.14323
▁attempt	-9.14485
▁attack	-9.1453
ov	-9.14631
sized	-9.14635
▁effort	-9.14643
▁lot	-9.14693
out	-9.14712
▁structure	-9.14888
▁Regulation	-9.14932
▁terrorism	-9.14977
▁age	-9.15054
▁propose	-9.15111
▁outside	-9.15132
▁combat	-9.1533
Christian	-9.15517
▁asked	-9.15618
▁Ba	-9.15646
▁Of	-9.15653
▁held	-9.15655
▁improving	-9.15697
▁ourselves	-9.15697
▁sufficient	-9.15743
▁list	-9.15797
▁refer	-9.15811
▁hear	-9.15824
ign	-9.16001
mark	-9.16127
▁ground	-9.16468
ack	-9.16481
▁Israel	-9.16514
▁test	-9.16585
▁And	-9.16712
▁measure	-9.16829
PT	-9.16915
▁passenger	-9.16925
▁Iran	-9.16948
▁credit	-9.16971
▁complete	-9.17117
▁nor	-9.17365
▁powers	-9.17537
▁closed	-9.17629
▁summit	-9.17705
▁old	-9.17737
▁factor	-9.17805
▁relevant	-9.1789
▁demonstrate	-9.18075
RO	-9.18268
▁export	-9.18315
▁light	-9.18337
▁30	-9.18364
The	-9.18413
▁promoting	-9.18445
▁French	-9.18631
▁included	-9.18775
▁rise	-9.1879
▁win	-9.18923
▁bl	-9.18988
ition	-9.19018
▁recently	-9.19198
▁type	-9.19239
▁effectively	-9.19848
▁Ha	-9.19891
▁independent	-9.19943
▁called	-9.20005
▁travel	-9.20084
▁December	-9.20131
▁makes	-9.20148
▁five	-9.2026
▁men	-9.20283
▁resolve	-9.20368
▁wide	-9.20389
▁justice	-9.20449
border	-9.20454
▁culture	-9.20463
▁Al	-9.20523
▁possibility	-9.20557
▁levels	-9.20658
▁repeat	-9.20762
▁budgetary	-9.20919
▁nature	-9.20938
▁Democrats	-9.21176
▁produce	-9.21184
▁anti	-9.21258
▁Today	-9.21445
ki	-9.21484
▁reality	-9.21587
▁South	-9.21607
▁Ca	-9.21861
▁completely	-9.21889
▁almost	-9.21894
▁according	-9.2199
▁send	-9.2206
▁burden	-9.22087
▁fisheries	-9.22521
▁thanks	-9.22937
▁try	-9.23079
▁proper	-9.23316
▁Le	-9.23327
▁prove	-9.23349
▁lives	-9.23546
▁Now	-9.23575
▁him	-9.23695
▁family	-9.23786
▁goods	-9.24014
▁agencies	-9.24081
▁statement	-9.24125
▁Strategy	-9.24179
▁decided	-9.24447
▁receive	-9.24577
▁safeguard	-9.2487
▁treat	-9.24918
▁applied	-9.25068
▁Belarus	-9.25167
qui	-9.25256
▁reducing	-9.25267
▁strengthening	-9.25323
▁administrative	-9.25366
▁industrial	-9.25416
▁presented	-9.25434
▁comprehensive	-9.25466
▁head	-9.25494
▁established	-9.25606
▁Ukraine	-9.25615
▁left	-9.25616
amp	-9.25661
▁received	-9.25912
▁Czech	-9.25965
fl	-9.25996
▁adapt	-9.26016
▁developed	-9.26129
▁react	-9.26149
▁official	-9.26166
▁benefits	-9.26252
▁Bank	-9.26266
io	-9.26306
▁Internet	-9.26618
▁vehicle	-9.26669
▁six	-9.26669
▁impose	-9.26824
▁committed	-9.26933
▁heard	-9.27114
▁land	-9.27158
part	-9.27254
▁Bo	-9.27362
old	-9.27362
▁combating	-9.27436
▁deep	-9.27716
▁prepared	-9.27766
▁either	-9.27784
▁technology	-9.27835
atic	-9.2792
rg	-9.27941
▁Convention	-9.27988
▁neighbour	-9.27988
▁border	-9.28006
▁brought	-9.2809
▁child	-9.28243
▁targets	-9.2832
▁15	-9.28371
▁run	-9.28441
▁reforms	-9.28512
▁capacity	-9.28912
▁provision	-9.28928
▁cr	-9.28934
▁finally	-9.28934
leg	-9.29005
▁implementing	-9.29137
▁discuss	-9.29324
▁knowledge	-9.29377
▁remains	-9.29432
▁Firstly	-9.29469
▁equality	-9.29483
▁name	-9.29593
▁weak	-9.29666
▁self	-9.29793
log	-9.29945
▁modern	-9.30105
▁facing	-9.30211
▁U	-9.30214
▁obtain	-9.30471
▁statements	-9.30608
▁Furthermore	-9.30628
▁parliament	-9.30653
▁renewable	-9.3068
▁post	-9.30738
▁giving	-9.30786
ick	-9.3079
▁Hungarian	-9.30891
▁unacceptable	-9.30943
▁events	-9.30965
▁shown	-9.31019
▁behind	-9.31154
▁May	-9.3141
▁sum	-9.31522
▁unemployment	-9.31577
▁organ	-9.31959
▁tackle	-9.32108
▁parliamentary	-9.32135
pro	-9.32145
▁conduct	-9.32214
▁rural	-9.32215
▁oil	-9.32278
▁raised	-9.32586
▁tabled	-9.32757
▁genuine	-9.32963
▁27	-9.33038
▁patient	-9.33124
▁transfer	-9.33125
▁days	-9.33141
▁sent	-9.33562
▁supporting	-9.33592
▁concrete	-9.33609
▁consideration	-9.33703
▁Unfortunately	-9.33826
▁met	-9.33903
▁technologies	-9.33934
▁North	-9.33935
▁minimum	-9.33988
▁requires	-9.34089
▁raise	-9.34158
▁disease	-9.34206
▁expressed	-9.34259
▁alternative	-9.3426
▁created	-9.34354
▁contract	-9.34369
▁material	-9.34532
▁adequate	-9.34641
▁multi	-9.35026
▁introduce	-9.35033
▁representatives	-9.35066
▁remember	-9.35079
▁similar	-9.35299
▁Human	-9.35299
▁introduction	-9.35409
▁Barroso	-9.35629
▁economies	-9.35739
▁deliver	-9.35905
▁Po	-9.36041
▁2006	-9.36047
▁debt	-9.36313
▁asylum	-9.36348
▁caused	-9.36386
▁practical	-9.36404
▁upon	-9.3649
che	-9.36507
▁choice	-9.36738
▁confirm	-9.36794
▁school	-9.36794
▁Green	-9.3685
▁scope	-9.36961
▁competitive	-9.36993
▁recovery	-9.37129
▁activity	-9.37185
▁mass	-9.37196
▁France	-9.37298
▁Social	-9.37358
▁colleague	-9.37463
▁Economic	-9.37465
▁Party	-9.37466
▁option	-9.37492
▁coordinate	-9.37578
▁content	-9.37581
▁safe	-9.37607
▁mark	-9.3767
▁confidence	-9.3769
▁sources	-9.37691
Applause	-9.37747
▁11	-9.37765
▁damage	-9.37803
▁intend	-9.37912
▁Bulgaria	-9.37972
▁spoke	-9.37981
▁producers	-9.38001
▁rail	-9.38035
fa	-9.38042
empt	-9.3811
▁Mediterranean	-9.38171
▁closely	-9.38188
▁away	-9.38243
▁figure	-9.38255
▁June	-9.38255
▁difficulties	-9.38306
▁extent	-9.38426
▁condemn	-9.38482
▁appear	-9.38539
▁mobility	-9.38595
▁Pro	-9.38692
▁banks	-9.38758
▁delay	-9.38824
▁spec	-9.38857
val	-9.38979
▁higher	-9.39046
▁transparent	-9.39051
▁competence	-9.39165
▁decide	-9.39197
▁Ro	-9.39204
▁negative	-9.39222
▁begin	-9.39274
▁scheme	-9.39394
▁Italy	-9.39433
▁pension	-9.39451
▁instead	-9.39451
men	-9.39468
▁link	-9.39535
▁exception	-9.39565
▁influence	-9.39565
▁beyond	-9.39623
▁read	-9.39655
ple	-9.39666
scale	-9.39688
▁trying	-9.39789
▁advantage	-9.39853
▁word	-9.39922
▁harm	-9.39982
▁expert	-9.40026
▁plant	-9.40057
▁achieving	-9.40141
▁nation	-9.4015
▁scientific	-9.40198
▁unfortunately	-9.40466
▁Schengen	-9.40487
▁design	-9.40492
▁SMEs	-9.40661
▁circumstances	-9.40661
▁despite	-9.40824
ib	-9.40967
▁Sea	-9.41022
▁Nations	-9.41033
▁voice	-9.41127
▁Vice	-9.41278
▁Central	-9.41301
iz	-9.41398
▁2011	-9.41418
▁perspective	-9.41418
▁precisely	-9.41683
NL	-9.41707
▁restrict	-9.41804
▁rapid	-9.41945
▁mutual	-9.42004
▁mandate	-9.42123
ai	-9.4214
▁standard	-9.42293
▁else	-9.42303
▁Some	-9.4231
the	-9.42359
▁discussed	-9.42398
President	-9.42514
▁People	-9.42593
▁defence	-9.42594
▁Agency	-9.42653
▁Germany	-9.42722
▁worth	-9.42771
▁Amendment	-9.42949
▁central	-9.42949
▁establishing	-9.42976
rv	-9.43072
▁tradition	-9.43305
ach	-9.43332
para	-9.43354
▁serve	-9.43374
▁increasingly	-9.43411
▁CO	-9.43419
▁Irish	-9.43429
▁involve	-9.43461
▁duty	-9.43485
▁connection	-9.43485
▁intention	-9.43546
▁history	-9.43723
▁Moreover	-9.43783
▁trust	-9.43843
▁substance	-9.43843
ef	-9.43873
▁violation	-9.44022
▁beginning	-9.44044
European	-9.44076
▁fulfil	-9.44082
▁Justice	-9.44147
▁Go	-9.44202
▁opposition	-9.44202
▁launch	-9.44203
▁press	-9.44286
▁First	-9.44336
▁oppose	-9.44383
▁accordance	-9.44564
▁paid	-9.44746
▁wrong	-9.44926
▁event	-9.44927
▁status	-9.44987
▁half	-9.45047
▁complex	-9.45108
▁Georgia	-9.45168
▁reference	-9.45188
▁bio	-9.45504
▁Poland	-9.45858
▁income	-9.45889
▁forget	-9.46222
5%	-9.46281
▁properly	-9.46289
▁integrated	-9.4634
▁Last	-9.46372
▁strict	-9.46451
▁participation	-9.46512
▁annual	-9.46512
▁early	-9.46523
▁check	-9.46574
▁strongly	-9.4668
▁prison	-9.46758
▁office	-9.4682
▁Ladies	-9.46944
▁define	-9.46945
▁Sa	-9.46954
▁considered	-9.47088
▁relationship	-9.47228
▁explain	-9.47252
▁fuel	-9.47316
▁loss	-9.47383
▁date	-9.47388
▁claim	-9.47749
▁migration	-9.47811
▁World	-9.47874
▁balanced	-9.47894
▁Jo	-9.48005
▁calling	-9.48123
▁regret	-9.48186
▁highly	-9.48435
▁Copenhagen	-9.48436
▁profit	-9.48438
▁overall	-9.48592
H	-9.4861
▁improved	-9.48753
▁big	-9.48779
▁allowed	-9.48866
▁independence	-9.48876
ttle	-9.48962
▁Market	-9.49002
where	-9.49045
▁bodies	-9.49065
▁directly	-9.49088
▁bank	-9.49151
▁listen	-9.49308
▁Action	-9.49365
▁sanctions	-9.49381
▁specifically	-9.49437
elect	-9.49456
▁centre	-9.4951
▁intervention	-9.49571
▁require	-9.49981
▁visit	-9.50146
▁bilateral	-9.50207
▁enhance	-9.50207
▁Croatia	-9.50271
▁concept	-9.50271
▁paragraph	-9.50334
que	-9.50447
spite	-9.50489
point	-9.50604
▁How	-9.5073
▁approved	-9.50893
▁Although	-9.50911
▁delegation	-9.5104
▁reading	-9.51206
▁dimension	-9.51362
▁looking	-9.51413
▁growing	-9.51436
▁manner	-9.51576
▁Mar	-9.51581
▁discharge	-9.5162
▁discussing	-9.5168
▁consultation	-9.51688
▁useful	-9.51698
▁campaign	-9.5175
▁sovereign	-9.5175
▁signal	-9.51799
▁setting	-9.51844
▁member	-9.51853
General	-9.5188
▁secure	-9.52075
▁consistent	-9.52334
▁March	-9.52336
▁monitor	-9.5241
vote	-9.52497
▁intended	-9.52578
▁declaration	-9.52726
▁professional	-9.52792
▁gender	-9.52923
▁minorities	-9.52932
▁mission	-9.53144
▁seriously	-9.53452
▁facilitate	-9.53514
▁build	-9.53533
▁Brussels	-9.5358
▁charge	-9.53647
▁wait	-9.53648
▁Be	-9.5373
▁organisation	-9.5379
▁dealing	-9.53808
▁manage	-9.53829
called	-9.54126
▁African	-9.54131
▁fear	-9.54155
▁establishment	-9.54456
▁assess	-9.54508
▁added	-9.54663
▁chance	-9.54712
▁goes	-9.54824
▁outcome	-9.54979
▁alone	-9.54993
▁guidelines	-9.5511
▁expression	-9.55142
▁Kosovo	-9.55177
▁emphasis	-9.55255
▁employ	-9.55341
V	-9.55354
▁accident	-9.55378
▁Trade	-9.55378
use	-9.55429
▁convinced	-9.55513
▁referendum	-9.55917
▁solve	-9.55986
▁promise	-9.55996
▁Serbia	-9.56052
▁failure	-9.56096
▁engage	-9.5612
▁East	-9.56177
▁Programme	-9.56187
▁families	-9.56255
▁abuse	-9.56344
▁recognition	-9.56663
▁generation	-9.56731
▁occur	-9.56731
▁reduced	-9.56781
▁institutional	-9.56877
▁court	-9.5701
▁drive	-9.57038
▁appeal	-9.57345
▁citizen	-9.57452
▁aspect	-9.57508
▁13	-9.57561
▁party	-9.57648
▁German	-9.57677
minute	-9.5769
▁advance	-9.57757
▁structural	-9.57842
rect	-9.58113
▁quota	-9.5824
▁commercial	-9.58379
▁gain	-9.58384
▁January	-9.58448
▁maritime	-9.58517
▁collect	-9.58656
▁police	-9.58656
▁Russian	-9.5871
▁18	-9.58725
▁led	-9.58812
▁introduced	-9.59062
▁Charter	-9.59073
▁stock	-9.59143
▁thought	-9.59365
▁topic	-9.59421
commun	-9.59422
▁proportion	-9.59563
▁Since	-9.59564
▁transition	-9.59663
▁After	-9.59703
▁vulnerable	-9.59913
▁regulatory	-9.59969
▁Service	-9.59984
▁instance	-9.60064
▁India	-9.60146
▁Prime	-9.60336
▁bad	-9.6034
▁constructive	-9.60477
▁limited	-9.60537
▁managed	-9.60702
▁fish	-9.60783
▁study	-9.60832
▁succeed	-9.60902
▁binding	-9.61045
pproval	-9.61045
▁High	-9.61116
▁heart	-9.61155
▁union	-9.61176
▁UK	-9.61263
▁obviously	-9.61459
▁becoming	-9.61851
▁Bu	-9.61859
▁Di	-9.62578
▁related	-9.62613
▁Balkan	-9.62621
▁consensus	-9.62621
▁known	-9.62658
▁endorse	-9.62677
▁Security	-9.62693
▁Indeed	-9.62698
EL	-9.62995
▁simple	-9.632
▁Or	-9.63213
▁leaders	-9.63227
▁linked	-9.6324
▁critical	-9.63273
▁domestic	-9.63273
▁prevention	-9.63341
▁friend	-9.63528
▁prefer	-9.63639
▁conference	-9.6393
▁record	-9.6393
▁partner	-9.64023
▁near	-9.64089
▁constant	-9.6437
▁spirit	-9.64443
▁dangerous	-9.64547
▁exercise	-9.6459
▁promotion	-9.64738
▁entry	-9.64815
▁treaty	-9.6499
▁Energy	-9.65033
▁expenditure	-9.65182
▁November	-9.65256
▁electric	-9.65478
▁Foreign	-9.65479
responsibilities	-9.65776
▁contact	-9.65776
▁inclusion	-9.65851
ibility	-9.65925
▁occasion	-9.65925
▁happened	-9.65945
▁permanent	-9.66
▁truly	-9.66001
▁Many	-9.66227
▁involvement	-9.66549
▁Ra	-9.66657
▁religious	-9.66675
▁Can	-9.66728
▁custom	-9.67051
▁terrorist	-9.67127
▁ahead	-9.67128
▁announce	-9.67278
▁extra	-9.67296
▁table	-9.67668
▁substantial	-9.67733
▁closer	-9.67774
▁regular	-9.67885
▁Un	-9.68101
▁initial	-9.68121
▁immediate	-9.68164
▁evaluation	-9.6819
▁later	-9.68273
▁constitution	-9.68448
▁administration	-9.68496
▁supervision	-9.68496
▁Partnership	-9.68573
▁Representative	-9.68573
▁produced	-9.68596
▁analysis	-9.68726
▁enjoy	-9.68803
▁Western	-9.68804
▁sometimes	-9.68806
▁indicate	-9.68808
▁Chamber	-9.6888
▁trafficking	-9.68958
▁ready	-9.69099
▁company	-9.69189
▁Nevertheless	-9.69265
▁counter	-9.69403
▁Policy	-9.6942
▁Socialist	-9.69491
▁territory	-9.69574
time	-9.69584
▁observe	-9.69652
▁consumption	-9.69652
(	-9.6991
▁path	-9.69976
▁Pakistan	-9.70118
▁lower	-9.70184
▁plenary	-9.70196
▁Hungary	-9.70274
▁lost	-9.7036
▁liberalisation	-9.70599
employed	-9.70693
▁milk	-9.70743
▁speed	-9.70749
▁immediately	-9.70769
▁organised	-9.70776
▁negotiate	-9.70899
▁saving	-9.709
▁October	-9.70978
▁British	-9.71135
▁acknowledge	-9.71135
▁Eastern	-9.7115
▁Spain	-9.71451
▁considerable	-9.71482
▁shadow	-9.71529
▁easy	-9.71609
▁Ex	-9.71641
▁PPE	-9.71687
▁By	-9.71722
▁historic	-9.7185
▁fraud	-9.71925
▁While	-9.72084
▁enormous	-9.72322
▁election	-9.72342
▁exactly	-9.72482
▁sport	-9.72518
▁traffic	-9.7256
▁25	-9.72598
hold	-9.72701
▁Spanish	-9.72721
▁probably	-9.72881
▁sensitive	-9.73362
▁communities	-9.73362
▁staff	-9.73362
▁body	-9.73362
▁operate	-9.73523
▁desire	-9.73532
W	-9.73662
▁flexibility	-9.73846
▁submitted	-9.73869
▁Why	-9.73927
ritten	-9.73973
▁assist	-9.74012
▁anything	-9.74015
▁Chinese	-9.74088
▁globalisation	-9.74226
▁realise	-9.74259
▁lay	-9.74271
▁happy	-9.74332
ological	-9.74433
▁transaction	-9.74495
▁brief	-9.74576
▁interpret	-9.74658
▁informed	-9.74701
quality	-9.74847
▁publish	-9.74902
▁reinforce	-9.74983
▁collective	-9.75065
ruct	-9.75088
based	-9.75187
▁Slovak	-9.75229
▁minister	-9.75311
▁minority	-9.7551
▁trading	-9.7564
▁candidate	-9.75722
CS	-9.75826
▁21	-9.76056
▁Portugal	-9.76134
▁argument	-9.76383
HU	-9.76493
▁16	-9.76549
▁examine	-9.76632
▁contrary	-9.76798
▁worse	-9.76804
▁Auditors	-9.77048
▁17	-9.7729
▁permit	-9.77383
▁constitute	-9.77466
▁healthcare	-9.7755
▁deficit	-9.77718
▁insist	-9.77861
▁threaten	-9.78045
▁sound	-9.78053
▁enlargement	-9.78307
▁came	-9.7831
▁obvious	-9.78322
▁regulate	-9.78476
▁Ashton	-9.78646
▁authority	-9.78709
▁Free	-9.78717
▁taxpayer	-9.78731
▁danger	-9.78866
▁referred	-9.79019
▁continent	-9.79241
▁obstacle	-9.79583
▁participate	-9.79583
standing	-9.79644
national	-9.79716
▁deserve	-9.79754
▁decade	-9.79758
▁Framework	-9.80012
▁continuing	-9.80184
▁green	-9.80184
▁Italian	-9.80186
▁immigrants	-9.80442
▁According	-9.80615
▁register	-9.80788
▁remove	-9.80789
▁complain	-9.80789
▁Alliance	-9.80875
▁break	-9.80962
▁sexual	-9.81396
▁clause	-9.81396
▁100	-9.81472
▁dispute	-9.81571
▁thereby	-9.81579
▁Summit	-9.81746
debate	-9.81802
▁easier	-9.81833
▁effectiveness	-9.81878
▁refugees	-9.81888
▁underline	-9.81998
▁release	-9.82096
▁Even	-9.82156
▁numerous	-9.82184
▁America	-9.82194
▁Budget	-9.82272
▁earlier	-9.82272
▁count	-9.82539
▁block	-9.82624
▁achievement	-9.82638
▁mistake	-9.828
▁source	-9.83067
▁myself	-9.83155
▁ambition	-9.83155
▁replace	-9.8318
▁pursue	-9.83243
▁applies	-9.83421
making	-9.83505
connect	-9.83511
▁honourable	-9.83562
▁greatest	-9.83567
▁Egypt	-9.83599
▁govern	-9.8366
▁territorial	-9.83956
▁rating	-9.8396
▁elected	-9.84143
▁character	-9.84225
▁excessive	-9.84314
▁Japan	-9.84404
▁definition	-9.84404
▁investigation	-9.84404
SV	-9.84748
▁separate	-9.84764
▁Swedish	-9.85035
▁harmonisation	-9.85035
▁tourism	-9.85046
▁sustainability	-9.85229
▁ethnic	-9.85488
▁relate	-9.85496
▁Afghanistan	-9.85578
▁awareness	-9.85654
▁revision	-9.8567
▁hit	-9.8579
▁merely	-9.85859
▁Ombudsman	-9.85943
▁Fundamental	-9.86034
▁statistics	-9.86125
▁month	-9.86218
▁condition	-9.86309
▁Iraq	-9.864
▁September	-9.864
▁gap	-9.86727
▁innovative	-9.86767
▁yesterday	-9.86859
▁wage	-9.86874
▁construction	-9.87043
▁prospect	-9.87043
▁abstain	-9.87135
▁evidence	-9.87135
▁compliance	-9.87135
▁Palestinian	-9.87228
▁overcome	-9.87414
▁incentive	-9.87505
▁spent	-9.87592
▁super	-9.87957
▁getting	-9.88112
▁estimate	-9.88156
▁sort	-9.88284
▁mid	-9.8849
▁Na	-9.88697
▁Libya	-9.88811
▁20%	-9.88939
▁execut	-9.88998
▁Health	-9.88999
▁2005	-9.89052
▁identify	-9.89092
▁membership	-9.89122
▁WTO	-9.89281
▁feed	-9.8951
▁American	-9.89553
▁hundred	-9.89564
▁undertake	-9.89564
▁cooperate	-9.89943
▁withdraw	-9.90038
▁Protection	-9.90133
▁encouraging	-9.90228
▁planning	-9.90344
▁class	-9.9042
▁flow	-9.90611
▁fire	-9.90791
▁Greek	-9.90801
▁diversity	-9.90801
▁eye	-9.91142
▁barriers	-9.91185
▁attitude	-9.91473
▁credibility	-9.91474
▁decisive	-9.91763
▁wonder	-9.91763
▁restrictions	-9.91803
▁corruption	-9.9186
▁negotiating	-9.9186
▁Baltic	-9.9186
▁emerge	-9.91947
▁range	-9.92347
▁space	-9.92443
▁2013	-9.92539
▁recommend	-9.92577
▁normal	-9.92846
▁Environment	-9.9293
▁CAP	-9.9293
▁Slovenia	-9.93028
▁fiscal	-9.93126
▁maximum	-9.93126
▁fast	-9.93195
▁criticism	-9.93224
▁assure	-9.93262
▁emergency	-9.93532
▁ignore	-9.93618
▁Pact	-9.93672
▁NATO	-9.93715
▁Organisation	-9.93715
▁requirement	-9.93767
▁associated	-9.9411
▁degree	-9.9411
▁strategies	-9.94308
▁vision	-9.94313
▁save	-9.94345
▁sit	-9.94403
▁involving	-9.94408
▁welfare	-9.94408
▁acceptable	-9.94507
▁ought	-9.94512
▁convention	-9.94606
▁Polish	-9.94706
▁aviation	-9.94716
▁punish	-9.95205
▁house	-9.95335
▁Monetary	-9.95405
▁2012	-9.95506
▁Safety	-9.95606
▁penalty	-9.95706
▁push	-9.95708
▁Given	-9.95709
▁simplify	-9.95807
economic	-9.95908
ology	-9.96104
▁lose	-9.96113
▁Lithuania	-9.9621
▁Moldova	-9.9621
▁Procedure	-9.9621
▁exploitation	-9.96631
▁preparation	-9.96819
▁enforcement	-9.9687
▁prior	-9.96934
▁Such	-9.97024
▁property	-9.97079
▁employees	-9.97125
▁average	-9.97127
▁association	-9.97328
▁arrest	-9.97329
▁declare	-9.97329
▁Every	-9.97431
▁Portuguese	-9.97635
▁base	-9.97826
▁industries	-9.97943
▁ongoing	-9.9796
▁appreciate	-9.98149
▁impossible	-9.98252
▁laid	-9.98256
▁April	-9.98356
▁harmonise	-9.98359
▁told	-9.98359
putting	-9.98412
▁series	-9.98565
▁Conference	-9.98769
▁civilian	-9.98779
▁subsidiarity	-9.98873
▁Brazil	-9.99081
▁judicial	-9.99289
▁distribution	-9.99393
▁severe	-9.99398
▁ratification	-9.99498
▁grateful	-9.99602
▁afford	-9.99602
▁flexible	-9.99707
▁clean	-9.99708
▁electronic	-9.99812
▁moving	-10.0002
▁symbol	-10.0013
▁peaceful	-10.0033
▁boost	-10.0065
▁urban	-10.0065
▁presence	-10.0067
▁fruit	-10.0129
▁July	-10.014
▁Plan	-10.0141
SK	-10.0171
▁currency	-10.0172
▁destroy	-10.0193
▁Work	-10.0193
▁religion	-10.0204
▁opt	-10.0206
▁unfair	-10.0214
▁attract	-10.0225
▁Tunisia	-10.0236
▁truth	-10.0247
ploy	-10.0247
▁leadership	-10.0257
▁exclusion	-10.0268
▁From	-10.0268
▁primarily	-10.029
▁zone	-10.029
▁grow	-10.0291
▁affairs	-10.0301
▁describe	-10.0301
▁arrangement	-10.0311
▁perfect	-10.0322
▁introducing	-10.0333
▁GDP	-10.0333
▁allocated	-10.0333
▁capable	-10.0333
▁route	-10.0355
▁assume	-10.0358
▁Another	-10.0366
▁2004	-10.0372
▁Stability	-10.0372
▁Kingdom	-10.0398
▁drug	-10.0398
▁Middle	-10.0409
▁courage	-10.042
▁representative	-10.0425
▁submit	-10.0428
▁politics	-10.0431
▁Food	-10.0431
▁legitimate	-10.0442
▁board	-10.0464
▁definitely	-10.0486
▁explanation	-10.0486
▁chair	-10.0486
▁slow	-10.0486
▁External	-10.0497
▁proposing	-10.0497
▁written	-10.0513
▁February	-10.0519
▁please	-10.052
▁labelling	-10.0521
▁agency	-10.0534
▁pillar	-10.0553
▁equipment	-10.0564
▁planned	-10.0565
▁advocate	-10.0575
▁delighted	-10.0575
▁compared	-10.0575
place	-10.06
▁belong	-10.0619
▁arise	-10.0634
▁behaviour	-10.0653
▁century	-10.0653
▁greenhouse	-10.0664
▁Those	-10.0664
▁generate	-10.0675
▁protest	-10.0687
▁ALDE	-10.0698
▁pose	-10.0708
▁morning	-10.0709
▁voluntary	-10.072
▁Tibet	-10.072
▁micro	-10.0732
▁otherwise	-10.0732
▁undermine	-10.0732
▁phase	-10.0732
▁hours	-10.0744
▁refuse	-10.0777
▁decent	-10.0777
▁honest	-10.0788
▁Gaza	-10.08
▁Korea	-10.08
▁forthcoming	-10.0811
ould	-10.0843
▁crises	-10.0868
▁exploit	-10.0912
▁murder	-10.0937
▁spread	-10.0937
▁floor	-10.096
▁paper	-10.096
▁Islam	-10.0972
tructural	-10.098
▁thorough	-10.0995
▁New	-10.0995
aught	-10.1018
▁choose	-10.103
▁Thus	-10.103
▁prepare	-10.1034
▁disadvantage	-10.1065
▁Paper	-10.107
▁Before	-10.1088
▁dignity	-10.1088
▁concentrate	-10.1111
▁proceed	-10.1133
▁actual	-10.1153
▁retain	-10.1159
▁mother	-10.1159
▁500	-10.1163
▁eliminate	-10.117
▁coast	-10.1182
▁buy	-10.1195
▁biodiversity	-10.1206
▁Research	-10.1229
▁gave	-10.1241
▁gradual	-10.1253
▁invite	-10.126
▁breach	-10.1265
▁Financial	-10.1289
▁Under	-10.1289
▁adjust	-10.1301
▁Turkish	-10.1313
▁Women	-10.1313
▁stay	-10.1373
▁subsidies	-10.1385
▁technological	-10.1385
▁operating	-10.1397
▁united	-10.1398
▁dictator	-10.1409
▁flood	-10.1457
▁reliable	-10.1458
▁honour	-10.1475
▁temporary	-10.1506
▁demographic	-10.1531
▁uncertain	-10.1543
▁undertaking	-10.1555
▁Strasbourg	-10.1555
▁front	-10.1555
▁formula	-10.1576
▁medical	-10.158
▁wealth	-10.1595
▁skills	-10.1629
▁undoubtedly	-10.1629
▁preparing	-10.1641
▁whilst	-10.1641
▁universal	-10.1654
▁Sudan	-10.1703
▁error	-10.1703
▁Globalisation	-10.1716
▁president	-10.1728
▁glad	-10.1729
▁prosperity	-10.1741
▁coherent	-10.1753
▁exclusive	-10.1766
▁pollution	-10.1803
▁proceedings	-10.1844
▁Act	-10.185
▁clarify	-10.1866
▁Cooperation	-10.1879
▁admit	-10.1879
▁audit	-10.188
▁double	-10.193
▁Consumer	-10.1943
▁Sweden	-10.1943
▁incorporate	-10.1955
▁procurement	-10.1955
▁entitled	-10.1981
▁secret	-10.1994
▁divide	-10.2007
▁studies	-10.2019
▁revenue	-10.2045
▁latter	-10.2045
▁witness	-10.2058
▁Haiti	-10.206
▁multilateral	-10.2071
▁rich	-10.2074
▁recall	-10.2075
▁changing	-10.2084
▁manufacturers	-10.2084
▁Investment	-10.2097
▁subsequent	-10.2123
▁teach	-10.2123
▁facilities	-10.2136
▁Black	-10.2136
▁Austria	-10.2149
▁object	-10.2155
▁worldwide	-10.2162
▁macro	-10.2162
▁analyse	-10.2162
ultural	-10.2167
▁monetary	-10.2175
related	-10.2189
▁Agriculture	-10.2201
▁usual	-10.2219
▁compensation	-10.2266
▁simplification	-10.2266
▁reiterate	-10.2266
▁restore	-10.2277
▁neither	-10.228
▁suspend	-10.228
▁insurance	-10.228
▁lobby	-10.2293
▁Arctic	-10.2319
▁Instead	-10.2319
▁Baroness	-10.2319
▁Frontex	-10.2346
▁Public	-10.2359
▁commit	-10.2361
▁liberal	-10.2383
▁margin	-10.2386
product	-10.2388
▁train	-10.2396
▁version	-10.2399
▁Solidarity	-10.2426
▁diplomatic	-10.2426
▁surveillance	-10.2426
recast	-10.2434
▁primary	-10.2452
▁Civil	-10.2453
▁blue	-10.247
▁stakeholders	-10.2479
▁emerging	-10.2493
▁unanimous	-10.2493
▁abandon	-10.2506
▁geographical	-10.2506
▁extension	-10.252
▁surprise	-10.252
▁vessel	-10.252
▁radical	-10.252
▁intellectual	-10.2533
▁valuable	-10.2547
▁raw	-10.2549
▁uniform	-10.2574
▁frequent	-10.2588
▁moral	-10.259
▁Canada	-10.2601
▁VAT	-10.2615
▁reserve	-10.2615
▁infringement	-10.2628
▁reply	-10.2631
▁journalist	-10.2642
▁piece	-10.2642
▁expand	-10.267
▁consult	-10.2683
▁phenomenon	-10.2683
▁preserve	-10.2683
▁suitable	-10.2683
▁expense	-10.2711
▁Macedonia	-10.2724
▁remarks	-10.2726
▁chain	-10.2738
▁built	-10.2752
▁prohibit	-10.2752
▁poll	-10.2787
▁extreme	-10.2794
▁Arab	-10.2808
-2013	-10.2821
▁Transport	-10.2821
▁judge	-10.2821
▁supposed	-10.2821
▁exclude	-10.2849
▁disposal	-10.2863
▁feature	-10.2863
▁identity	-10.2863
▁nevertheless	-10.2891
▁incident	-10.2905
▁ordinary	-10.2919
▁complement	-10.2919
▁biggest	-10.2933
▁Bosnia	-10.2947
▁couple	-10.2948
▁bureaucracy	-10.2962
▁Chair	-10.2962
▁contradict	-10.2976
▁felt	-10.299
K	-10.2998
▁debating	-10.3004
▁Thursday	-10.3018
▁judgment	-10.3018
▁negotiation	-10.3023
▁tackling	-10.3032
▁complicated	-10.3032
▁confident	-10.3032
▁size	-10.3046
▁identified	-10.3061
▁ACP	-10.3075
▁airlines	-10.3075
▁disagree	-10.3089
▁finish	-10.3089
EGF	-10.309
▁acquis	-10.3118
▁flag	-10.3147
▁housing	-10.3161
▁attach	-10.3162
▁Cuba	-10.3163
▁Cyprus	-10.3176
▁deadline	-10.3176
▁presidency	-10.319
▁weapons	-10.319
▁duties	-10.319
▁significance	-10.3204
▁parents	-10.3204
▁cheap	-10.3204
▁attend	-10.3249
▁approve	-10.3252
▁consolidate	-10.3262
▁PSE	-10.3262
▁Adjustment	-10.3277
▁science	-10.3277
▁advertising	-10.3335
▁societies	-10.3335
▁Fisheries	-10.335
▁criticise	-10.3365
▁farming	-10.3366
▁digital	-10.3394
▁Perhaps	-10.3409
▁Burma	-10.3409
▁worst	-10.3409
▁Latin	-10.3409
▁fishermen	-10.3468
▁experiencing	-10.3483
serving	-10.35
▁belief	-10.3513
▁dynamic	-10.3528
▁initiate	-10.3543
▁room	-10.3543
▁allocation	-10.3558
friendly	-10.3565
▁restructuring	-10.3588
▁distort	-10.3593
▁supplement	-10.3603
▁Growth	-10.3648
▁speculation	-10.3648
▁physical	-10.3678
▁chosen	-10.3709
▁mix	-10.3724
▁appropriations	-10.3739
▁dairy	-10.3739
▁patent	-10.3739
▁dramatic	-10.3754
▁Internal	-10.3754
▁strength	-10.3761
▁enabling	-10.3785
▁absolute	-10.379
east	-10.3797
▁Liberal	-10.3816
▁abolish	-10.3816
▁sensible	-10.3846
▁driving	-10.3862
▁arrive	-10.3862
▁applicable	-10.3877
▁National	-10.3878
▁radio	-10.3885
▁chemical	-10.3893
ultiannual	-10.3908
▁System	-10.3908
▁strike	-10.3908
▁team	-10.394
▁beneficial	-10.3955
▁evaluate	-10.3955
▁Time	-10.3971
▁catch	-10.3987
▁label	-10.4
▁pesticide	-10.4002
▁possibilities	-10.4002
▁counterfeit	-10.4033
▁daily	-10.4033
▁observation	-10.4049
▁pipeline	-10.4049
▁imbalance	-10.4065
▁heavy	-10.4065
▁minor	-10.4088
▁saw	-10.4128
▁sale	-10.4134
▁enforce	-10.4136
▁swift	-10.4144
▁envisage	-10.416
▁section	-10.416
▁logic	-10.4169
▁valid	-10.4176
▁stake	-10.4176
▁approximat	-10.4192
▁understood	-10.4208
▁Control	-10.424
▁resource	-10.4252
free	-10.4254
▁impression	-10.4256
▁regrettable	-10.4288
▁precise	-10.4295
▁foremost	-10.4304
▁neighbourhood	-10.4304
▁EIB	-10.4304
▁Where	-10.4304
▁apparent	-10.432
▁Follow	-10.4352
▁kept	-10.4352
▁southern	-10.4369
▁loans	-10.4369
▁extensive	-10.4385
▁supplies	-10.4385
▁absence	-10.4385
▁raising	-10.4386
▁birth	-10.4401
▁detriment	-10.445
▁Just	-10.4466
▁struggle	-10.4467
▁inspection	-10.4483
▁purchase	-10.4483
▁Assembly	-10.4516
▁supervisory	-10.4516
▁demonstration	-10.4516
level	-10.4524
▁recession	-10.4532
▁detention	-10.4566
▁sphere	-10.4582
▁bound	-10.4582
▁Latvia	-10.4615
▁correspond	-10.4615
▁disappear	-10.4632
▁credible	-10.4632
▁argue	-10.4666
▁bureaucratic	-10.4682
▁channel	-10.4699
▁utmost	-10.4699
▁quote	-10.4699
▁somewhat	-10.4716
▁ruling	-10.4717
▁Albania	-10.4733
▁Employment	-10.4733
▁Netherlands	-10.4733
▁background	-10.4733
▁codecision	-10.4733
▁component	-10.4733
▁indication	-10.475
▁mandatory	-10.4766
▁tragic	-10.4766
▁postpone	-10.4766
▁penalties	-10.4783
▁possibly	-10.4783
▁easily	-10.4817
▁born	-10.4855
tabilisation	-10.4868
▁chapter	-10.4868
▁intelligent	-10.4868
▁necessity	-10.4868
▁dossier	-10.4885
▁qualified	-10.4885
▁legitimacy	-10.4903
▁confront	-10.492
▁unnecessary	-10.4937
ALE	-10.4937
cycle	-10.4937
▁ratified	-10.4971
▁fleet	-10.4972
▁Sarkozy	-10.4989
▁contributing	-10.4989
▁tragedy	-10.5006
▁Verts	-10.5006
▁mobilise	-10.5023
▁Progress	-10.5023
▁Subject	-10.5058
▁await	-10.5075
imbabwe	-10.5093
▁Regard	-10.5093
▁NGOs	-10.511
▁faith	-10.511
▁Consequently	-10.5128
▁tariff	-10.5128
▁leaving	-10.5145
▁Director	-10.5163
▁tobacco	-10.5163
▁proof	-10.5163
▁eastern	-10.5181
▁heritage	-10.5181
▁division	-10.5181
▁sorry	-10.5181
▁privacy	-10.5198
print	-10.5207
ugoslav	-10.5216
▁satisfied	-10.5216
▁predict	-10.5216
▁intervene	-10.5218
relatively	-10.5234
2010	-10.5249
▁Protocol	-10.5251
▁collapse	-10.5251
▁Agenda	-10.5269
terinstitutional	-10.5287
▁afraid	-10.5287
▁Legal	-10.5287
▁alcohol	-10.5305
▁convergence	-10.5305
▁Home	-10.5305
▁petition	-10.5323
▁shame	-10.5323
▁Belgium	-10.5412
legislator	-10.543
▁widespread	-10.543
▁occupation	-10.5449
placing	-10.5449
▁Belgian	-10.5467
▁Climate	-10.5485
▁inadequate	-10.5485
▁expensive	-10.5503
▁commission	-10.5503
▁clarity	-10.5521
▁mobilisation	-10.5521
▁guide	-10.5521
▁storage	-10.5521
▁Information	-10.554
▁producing	-10.5558
▁resident	-10.5558
▁female	-10.5576
▁insufficient	-10.5576
▁compulsory	-10.5613
▁Because	-10.5631
▁length	-10.5668
▁entail	-10.5668
▁Left	-10.5668
▁lift	-10.5669
▁sustain	-10.5677
▁battle	-10.5705
2008	-10.5707
▁Britain	-10.5761
▁assurance	-10.5761
2009	-10.5764
▁Millennium	-10.5798
▁engine	-10.5798
ermost	-10.5801
▁Authority	-10.5817
▁Cohesion	-10.5817
▁Atlantic	-10.5836
▁universities	-10.5836
▁inequalities	-10.5855
▁marine	-10.5855
▁optimis	-10.5858
▁quick	-10.5871
▁scrutiny	-10.5874
▁40%	-10.5874
▁watch	-10.5893
▁Second	-10.5909
▁earthquake	-10.5912
▁Petitions	-10.5931
▁anniversary	-10.5931
▁percentage	-10.5931
▁abroad	-10.595
▁stipulat	-10.595
▁expansion	-10.5969
▁investigate	-10.5969
▁satisfactory	-10.5988
▁Montenegro	-10.6064
▁automatic	-10.6064
▁article	-10.6084
▁picture	-10.6084
▁Neighbourhood	-10.6122
▁revolution	-10.6122
▁blame	-10.6125
▁maternity	-10.6142
▁Conservative	-10.6161
▁Obviously	-10.6181
▁opposite	-10.62
▁violate	-10.622
▁tangible	-10.6239
▁intensive	-10.6239
▁unique	-10.6239
▁commend	-10.6259
▁ratify	-10.6278
▁shift	-10.6279
▁distinct	-10.6298
country	-10.6306
▁explicit	-10.6318
▁Schulz	-10.6338
▁protocol	-10.6338
▁platform	-10.6357
▁ecological	-10.6357
▁victim	-10.6362
▁scandal	-10.6377
tergovernmental	-10.6417
▁consequence	-10.6423
▁Soviet	-10.6437
▁GUE	-10.6497
▁Please	-10.6497
▁shortcomings	-10.6497
▁collaboration	-10.6517
▁conviction	-10.6517
▁stimulate	-10.6517
▁integrity	-10.6537
▁irregular	-10.6537
▁prompt	-10.6558
discrimination	-10.6568
▁terrible	-10.6578
▁electoral	-10.6598
▁transposition	-10.6598
▁killed	-10.6598
▁depriv	-10.6598
▁imagine	-10.6639
▁inhabitants	-10.6639
▁sake	-10.6639
▁Industry	-10.6659
▁consistency	-10.668
▁advice	-10.668
▁Olympic	-10.67
▁Estonia	-10.6721
▁clarification	-10.6721
▁Dutch	-10.6721
▁shape	-10.6723
▁evident	-10.6741
NGL	-10.6762
▁supplier	-10.6762
▁Galileo	-10.6783
▁destruction	-10.6783
▁endeavour	-10.6783
▁cease	-10.6783
▁Danube	-10.6803
▁territories	-10.6803
▁himself	-10.6824
▁shock	-10.6866
▁Secretary	-10.6886
▁prevail	-10.6887
▁2015	-10.6907
▁brutal	-10.6928
▁London	-10.6992
▁reconciliation	-10.6992
▁volume	-10.6992
▁afternoon	-10.7013
Constitutional	-10.7015
▁extraordinary	-10.7055
J	-10.9221
q	-12.5881
