<pad>	0
</s>	0
<unk>	0
▁¦	-0
्य	-1
्या	-2
▁.	-3
्र	-4
ार	-5
ां	-6
ना	-7
ात	-8
र्	-9
हे	-10
ला	-11
▁,	-12
कर	-13
क्	-14
च्या	-15
वा	-16
आहे	-17
ले	-18
प्र	-19
ही	-20
का	-21
ण्या	-22
ल्या	-23
सा	-24
स्	-25
चा	-26
ती	-27
सं	-28
्ह	-29
ची	-30
वि	-31
मा	-32
के	-33
या	-34
रो	-35
आण	-36
ली	-37
ने	-38
को	-39
ून	-40
आणि	-41
ता	-42
हो	-43
मध	-44
अस	-45
त्या	-46
ंत	-47
रा	-48
नि	-49
्ये	-50
णा	-51
ते	-52
पा	-53
क्ष	-54
पर	-55
कार	-56
चे	-57
ठी	-58
मध्ये	-59
मु	-60
वर	-61
नी	-62
साठी	-63
ित	-64
दे	-65
व्ह	-66
िक	-67
रु	-68
दि	-69
जा	-70
झा	-71
ग्	-72
लं	-73
वे	-74
ील	-75
ंद	-76
शी	-77
तर	-78
कोरो	-79
कोरोना	-80
म्ह	-81
ये	-82
करण्या	-83
यां	-84
्ट	-85
की	-86
सर्	-87
हि	-88
बा	-89
हा	-90
सी	-91
रुग्	-92
णे	-93
तात	-94
सि	-95
त्	-96
सु	-97
चं	-98
ळे	-99
कड	-100
वी	-101
स्थ	-102
लेल्या	-103
ऱ्या	-104
आहेत	-105
नाही	-106
पु	-107
शा	-108
सर	-109
भा	-110
मी	-111
णी	-112
िं	-113
गा	-114
द्	-115
जे	-116
ष्ट	-117
से	-118
शक	-119
लो	-120
ज्या	-121
तो	-122
सां	-123
सार	-124
णार	-125
0¦	-126
त्यां	-127
ाय	-128
रोग	-129
वार	-130
▁𐊣	-131
णां	-132
▁¦2	-133
▁¦1	-134
कां	-135
मुळे	-136
मो	-137
ति	-138
घे	-139
न्	-140
ंत्र	-141
मि	-142
ारा	-143
जन	-144
दा	-145
रे	-146
त्र	-147
री	-148
ल्	-149
उप	-150
ंतर	-151
ण्यात	-152
शि	-153
एक	-154
पू	-155
देश	-156
गे	-157
स्ट	-158
▁"	-159
ळा	-160
यो	-161
तील	-162
किं	-163
विष	-164
क्र	-165
रू	-166
लस	-167
▁(	-168
दु	-169
म्हण	-170
जी	-171
टी	-172
पे	-173
▁)	-174
9¦	-175
आरोग	-176
सरकार	-177
व्य	-178
्यां	-179
मे	-180
पास	-181
किंवा	-182
वर्	-183
पण	-184
परि	-185
टा	-186
▁'	-187
टे	-188
ार्	-189
तु	-190
आरोग्य	-191
निर्	-192
काही	-193
चार	-194
नंतर	-195
स्त	-196
्ही	-197
णू	-198
जात	-199
लाग	-200
मान	-201
यांनी	-202
मह	-203
धी	-204
रि	-205
वाढ	-206
संसर्	-207
डॉ	-208
▁?	-209
ंद्र	-210
िल	-211
सांग	-212
ळी	-213
असल्या	-214
श्	-215
रात	-216
करण्यात	-217
कमी	-218
िती	-219
जार	-220
अध	-221
्यंत	-222
सो	-223
होत	-224
णाऱ्या	-225
बं	-226
लक्ष	-227
व्हि	-228
संख	-229
विषा	-230
धा	-231
खा	-232
डे	-233
राज्या	-234
पूर्	-235
ष्ट्र	-236
णं	-237
विषाणू	-238
सर्व	-239
भार	-240
लशी	-241
-1	-242
दी	-243
्यू	-244
द्या	-245
गर	-246
असे	-247
क्षा	-248
असं	-249
लोकां	-250
पर्यंत	-251
मंत्र	-252
लसी	-253
ऊन	-254
केली	-255
ण्यासाठी	-256
चाच	-257
प्रमा	-258
रुग्णां	-259
नु	-260
क्त	-261
ंब	-262
ज्	-263
लि	-264
-19¦	-265
ृत	-266
दिव	-267
क्सि	-268
co	-269
ठा	-270
बत	-271
ताना	-272
गी	-273
नो	-274
्यात	-275
यु	-276
लॉ	-277
पो	-278
ोना	-279
पासून	-280
केंद्र	-281
ंट	-282
िट	-283
स्थिती	-284
मार्	-285
ईल	-286
कोव्हि	-287
बंध	-288
ांना	-289
करोना	-290
ंड	-291
दर	-292
ातील	-293
माहि	-294
माहिती	-295
आले	-296
कडे	-297
वारी	-298
करण	-299
क्ट	-300
बंद	-301
प्रति	-302
्स	-303
रुग्णा	-304
द्ध	-305
होते	-306
▁:	-307
आप	-308
सुरू	-309
▁¦20	-310
डी	-311
मृत	-312
संसर्ग	-313
प्रा	-314
दो	-315
केले	-316
वर्ष	-317
कोव्हिड	-318
ठे	-319
महारा	-320
रुग्ण	-321
आम	-322
र्थ	-323
शन	-324
मुख	-325
वापर	-326
व्हाय	-327
बो	-328
प्	-329
महाराष्ट्र	-330
कु	-331
कडा	-332
ण्याची	-333
हात	-334
स्प	-335
स्था	-336
काम	-337
लय	-338
राज	-339
्यु	-340
ऑक्सि	-341
काळ	-342
ब्	-343
क्ती	-344
उत्	-345
व्हायर	-346
ऑक्सिजन	-347
बी	-348
ग्र	-349
इतर	-350
वड	-351
करा	-352
झाल्या	-353
अने	-354
घेत	-355
संख्या	-356
कर्	-357
▁𐋇	-358
मात	-359
5¦	-360
डि	-361
सह	-362
लॉकडा	-363
आली	-364
केला	-365
आढ	-366
शे	-367
निय	-368
द्य	-369
व्हा	-370
एका	-371
ज्ञ	-372
काय	-373
दल	-374
होती	-375
जास्त	-376
दिस	-377
असलेल्या	-378
महि	-379
व्हायरस	-380
निक	-381
मंत्री	-382
पेक्षा	-383
करण्यासाठी	-384
अनेक	-385
भाग	-386
ांच्या	-387
व्या	-388
गो	-389
मृत्यू	-390
आता	-391
थे	-392
नं	-393
्रे	-394
ंना	-395
व्ही	-396
िका	-397
प्रमाण	-398
▁-	-399
vi	-400
नुसार	-401
कीय	-402
परिणा	-403
तय	-404
नस	-405
च्	-406
तयार	-407
बाबत	-408
योग	-409
आज	-410
क्षण	-411
मधील	-412
आढळ	-413
करत	-414
झाला	-415
2¦	-416
दर्	-417
जिल	-418
जिल्ह	-419
ाला	-420
▁¦3	-421
झाली	-422
झाले	-423
ांनी	-424
होता	-425
चाचणी	-426
पी	-427
र्स	-428
भी	-429
covi	-430
टक्	-431
शो	-432
अधिक	-433
कं	-434
covid	-435
पूर्ण	-436
डो	-437
व्यक्ती	-438
वात	-439
दोन	-440
वै	-441
करून	-442
ांमध्ये	-443
ीय	-444
4¦	-445
त्यांच्या	-446
कोण	-447
ंग	-448
लॉकडाऊन	-449
श्य	-450
सांगित	-451
औष	-452
समा	-453
स्क	-454
स्व	-455
म्हट	-456
क्रम	-457
परिणाम	-458
म्हणून	-459
कडून	-460
यांच्या	-461
मिळ	-462
पड	-463
सू	-464
फे	-465
लाव	-466
लोक	-467
आजार	-468
विद्या	-469
जि	-470
वश्य	-471
घट	-472
असेल	-473
वश्यक	-474
राह	-475
ांची	-476
म्हणा	-477
▁¦202	-478
झालेल्या	-479
तं	-480
पुढ	-481
ध्या	-482
विक	-483
लसीकरण	-484
बे	-485
तरी	-486
पुर	-487
मुख्य	-488
प्रवा	-489
मार्च	-490
तुम	-491
जो	-492
वळ	-493
केल्या	-494
ठेव	-495
सम	-496
असा	-497
दिली	-498
गेल्या	-499
गत	-500
अशा	-501
करणे	-502
महा	-503
मोठ	-504
कार्य	-505
न्स	-506
माग	-507
परिस्थिती	-508
वं	-509
राज्य	-510
त्यांना	-511
वेग	-512
उपचार	-513
उपल	-514
शोध	-515
ब्ध	-516
्हे	-517
देण्यात	-518
मुंब	-519
उपलब्ध	-520
मुंबई	-521
आपल्या	-522
खी	-523
गु	-524
टक्के	-525
टो	-526
नोंद	-527
शक्य	-528
म्हणजे	-529
सीओ	-530
पत्र	-531
धार	-532
म्हटलं	-533
राज्यात	-534
ष्	-535
आला	-536
मात्र	-537
आम्ही	-538
डॉक्ट	-539
येत	-540
सीओव्ही	-541
rs	-542
म्हणाले	-543
क्षे	-544
त्यामुळे	-545
शास	-546
पहि	-547
केलं	-548
दुस	-549
ण्याचा	-550
त्यांनी	-551
ब्र	-552
पै	-553
संप	-554
कोवि	-555
शह	-556
व्हे	-557
8¦	-558
सुरु	-559
अशी	-560
घा	-561
महिन	-562
हजार	-563
संसर्गा	-564
एप्र	-565
एप्रिल	-566
वेश	-567
1¦	-568
हॉ	-569
महत्	-570
रुग्णालय	-571
वाय	-572
▁%	-573
औषध	-574
रूग्	-575
ष्टी	-576
चाचण्या	-577
अभ	-578
चाल	-579
ारी	-580
मोठ्या	-581
बोल	-582
भारतात	-583
असून	-584
00¦	-585
कि	-586
व्यव	-587
क्रि	-588
सध्या	-589
डा	-590
मुल	-591
लया	-592
धो	-593
म्हाला	-594
शकतो	-595
असल्याचं	-596
धु	-597
लाख	-598
होतं	-599
प्रकार	-600
नवी	-601
कंप	-602
पुरव	-603
दाख	-604
जग	-605
ंभी	-606
श्व	-607
▁."	-608
सांगतात	-609
साथ	-610
प्रत	-611
वरील	-612
सात	-613
▁¦2020¦	-614
अॅ	-615
आठ	-616
माण	-617
भरात	-618
डॉक्टर	-619
वैद्य	-620
7¦	-621
धान	-622
कर्म	-623
पात	-624
पणे	-625
सरकारने	-626
फ्	-627
पैकी	-628
भू	-629
दिवसां	-630
फो	-631
मू	-632
कोविड	-633
वैद्यकीय	-634
निर्ण	-635
शकतात	-636
करणा	-637
ट्र	-638
प्रसार	-639
मद	-640
देख	-641
सुर	-642
होऊ	-643
डोस	-644
ण्यास	-645
येईल	-646
प्रभा	-647
चि	-648
म्या	-649
शाळा	-650
महाराष्ट्रात	-651
6¦	-652
चित	-653
आलं	-654
करे	-655
ांत	-656
आवश्यक	-657
होतो	-658
सांगितलं	-659
र्क	-660
आल्या	-661
फु	-662
बर	-663
साय	-664
ंभीर	-665
गंभीर	-666
सोबत	-667
लोकांना	-668
भर	-669
नवीन	-670
वाट	-671
मान्य	-672
संख्ये	-673
सेस	-674
▁¦5	-675
ंच्या	-676
योज	-677
अँ	-678
वान	-679
गरिक	-680
नागरिक	-681
चीन	-682
पॉ	-683
पूर	-684
ठिका	-685
मिळा	-686
कॉ	-687
देशात	-688
कारण	-689
होणार	-690
गरज	-691
दुसऱ्या	-692
जर	-693
ंदा	-694
हेर	-695
मास्क	-696
क्षम	-697
वेळी	-698
्री	-699
ांचा	-700
बाहेर	-701
पाल	-702
बदल	-703
पाद	-704
वाह	-705
्हा	-706
सारख	-707
विद्यार्थ	-708
असले	-709
ह्या	-710
यांना	-711
करू	-712
हान	-713
द्वार	-714
व्हॅ	-715
शकते	-716
महत्त्	-717
ंनी	-718
संबंध	-719
ण्याच्या	-720
पूर्वी	-721
परी	-722
निर्णय	-723
फार	-724
घ्या	-725
नाहीत	-726
धित	-727
उत्पाद	-728
मक	-729
पुन	-730
ळ्या	-731
ठाकरे	-732
िव्ह	-733
ईन	-734
ंचा	-735
द्दल	-736
पुढे	-737
क्षेत्र	-738
आय	-739
आपण	-740
मडे	-741
बद्दल	-742
म्यान	-743
राष्ट्र	-744
विरो	-745
उपा	-746
विचार	-747
संपर्क	-748
नियंत्र	-749
सुरुवात	-750
िंग	-751
▁¦4	-752
काळात	-753
दरम्यान	-754
च्छ	-755
हीर	-756
देखील	-757
शक्यता	-758
समावेश	-759
गतिक	-760
जागतिक	-761
हु	-762
क्स	-763
अभ्या	-764
परवान	-765
रेमडे	-766
आलेल्या	-767
बेड	-768
sa	-769
जाहीर	-770
3¦	-771
सरी	-772
पाहि	-773
निर्माण	-774
महत्त्वा	-775
सग	-776
िटल	-777
क्षित	-778
परवानगी	-779
जून	-780
आजारा	-781
द्वारे	-782
रेमडेसि	-783
मुख्यमंत्री	-784
ंची	-785
पसर	-786
ांवर	-787
आधी	-788
येणार	-789
म्हणतात	-790
असते	-791
स्त्र	-792
ल्यानंतर	-793
रुग्णालयात	-794
आर	-795
दिवस	-796
हॉस्प	-797
करण्याची	-798
केलेल्या	-799
मार	-800
्रा	-801
sars	-802
तुम्हाला	-803
जवळ	-804
आठवड	-805
लाटे	-806
बाधित	-807
अमे	-808
ग्रा	-809
लक्षणे	-810
मदत	-811
प्रशास	-812
निर्बंध	-813
ंबर	-814
मिक	-815
टप्	-816
भागा	-817
टर	-818
परा	-819
करणार	-820
अनु	-821
पाठ	-822
याचा	-823
ज्ज्ञ	-824
दिसून	-825
बोलताना	-826
प्रमाणात	-827
म्	-828
ध्य	-829
यत्	-830
लागू	-831
सेवा	-832
तीन	-833
हाय	-834
पहिल्या	-835
मर	-836
ूर	-837
जाते	-838
पद्ध	-839
प्रयत्	-840
ठर	-841
काढ	-842
नमु	-843
संच	-844
प्रश्	-845
योग्य	-846
अर	-847
रोजी	-848
तज्ज्ञ	-849
यी	-850
कोटी	-851
्व	-852
दाखल	-853
नियम	-854
िकार	-855
इं	-856
जाईल	-857
प्रो	-858
श्वस	-859
ऑफ	-860
गर्	-861
ठिकाणी	-862
ांसाठी	-863
अर्थ	-864
कोणत्या	-865
रुग्णांची	-866
मरा	-867
वली	-868
हवा	-869
च्च	-870
दर्भ	-871
अव	-872
पि	-873
ात्	-874
काळजी	-875
कोरोनाची	-876
मागणी	-877
शरी	-878
▁;	-879
दार	-880
र्ड	-881
प्रधान	-882
प्रयत्न	-883
बाब	-884
तपास	-885
पालि	-886
कंपनी	-887
उद	-888
अति	-889
करणाऱ्या	-890
बि	-891
पुरवठा	-892
हॉस्पिटल	-893
कारक	-894
याची	-895
लसीकरणा	-896
संबंधित	-897
करता	-898
विकस	-899
शिक्षण	-900
प्रमाणे	-901
धोका	-902
संक्रम	-903
ताप	-904
उद्ध	-905
इन्	-906
प्रश्न	-907
पुन्हा	-908
वले	-909
मधून	-910
ल्ली	-911
विध	-912
सूच	-913
▁¦1¦	-914
स्थाप	-915
रूग्णां	-916
नात	-917
दिले	-918
बीसी	-919
इत	-920
संक	-921
उद्धव	-922
घरी	-923
मोदी	-924
टेस्ट	-925
वापरा	-926
तः	-927
ंटर	-928
पंत	-929
भागात	-930
संदर्भ	-931
बै	-932
र्ट	-933
तेव्हा	-934
बीबीसी	-935
प्रत्ये	-936
घड	-937
साध	-938
नसल्या	-939
पंतप्रधान	-940
मला	-941
शेष	-942
मिती	-943
उद्रे	-944
सार्स	-945
चाऱ्या	-946
पद्धती	-947
कोरोनाचा	-948
भारत	-949
ांचे	-950
मार्ग	-951
कॅ	-952
▁¦10¦	-953
पातळी	-954
वण्यात	-955
कर्मचाऱ्या	-956
एन	-957
खो	-958
दान	-959
सार्व	-960
असताना	-961
दिल्ली	-962
ंतु	-963
असू	-964
र्म	-965
दिला	-966
स्थे	-967
संशोध	-968
जिल्हा	-969
जु	-970
चर्	-971
किती	-972
अमेरि	-973
तुम्ही	-974
विकसित	-975
अन	-976
वत	-977
जाने	-978
साथी	-979
विशेष	-980
हून	-981
बैठ	-982
टप्प	-983
शहरात	-984
सार्वज	-985
एच	-986
खास	-987
फाय	-988
आकडे	-989
नव्ह	-990
जानेवारी	-991
वाई	-992
ंमध्ये	-993
सार्वजनिक	-994
अं	-995
यन	-996
▁¦6	-997
भारता	-998
असल्याचे	-999
जाऊ	-1000
पॉझ	-1001
वास	-1002
▁¦7	-1003
डेटा	-1004
रुग्णांना	-1005
अंत	-1006
खे	-1007
घो	-1008
बहु	-1009
उपाय	-1010
उत्तर	-1011
टु	-1012
▁¦2¦	-1013
करतात	-1014
शिवाय	-1015
आधार	-1016
न्या	-1017
्यांनी	-1018
वेळ	-1019
उच्च	-1020
स्पष्ट	-1021
प्रभावी	-1022
राष्ट्रीय	-1023
वृ	-1024
्रो	-1025
द्धा	-1026
बंदी	-1027
सिंग	-1028
आढळून	-1029
अधिकार	-1030
मत	-1031
मल	-1032
जीव	-1033
फ्ल	-1034
यावर	-1035
वारं	-1036
महिन्यात	-1037
ूप	-1038
तुल	-1039
योजन	-1040
पॉझिट	-1041
माध्य	-1042
परीक्षा	-1043
सारख्या	-1044
अड	-1045
जन्य	-1046
निरी	-1047
लक्षणं	-1048
्यांना	-1049
यात	-1050
ांब	-1051
ृती	-1052
निया	-1053
होईल	-1054
कार्या	-1055
पाहिजे	-1056
ूक	-1057
नये	-1058
दुर्	-1059
ात्मक	-1060
सामान्य	-1061
ांग	-1062
ब्रु	-1063
म्यु	-1064
याबाबत	-1065
संपूर्ण	-1066
ओळ	-1067
मोर	-1068
चर्चा	-1069
दुसरी	-1070
उद्	-1071
तसंच	-1072
लहान	-1073
निट	-1074
झालं	-1075
पोहो	-1076
असतात	-1077
विविध	-1078
बन	-1079
ूण	-1080
अंदा	-1081
गेले	-1082
घोष	-1083
असतो	-1084
जगभरात	-1085
प्रतिबंध	-1086
ित्	-1087
▁¦9	-1088
आहोत	-1089
खाली	-1090
यंत्र	-1091
करण्यास	-1092
प्रक्रि	-1093
िकाऱ्या	-1094
तीव	-1095
कुटु	-1096
एस	-1097
यू	-1098
घाल	-1099
तीव्र	-1100
ण्याचे	-1101
जिक	-1102
त्रा	-1103
संघट	-1104
राज्यातील	-1105
ष्ठ	-1106
गोष्टी	-1107
बॉ	-1108
मॉ	-1109
-2¦	-1110
ओळख	-1111
तसे	-1112
नाग	-1113
रम	-1114
प्रशासना	-1115
एखा	-1116
तून	-1117
सल्	-1118
राजे	-1119
▁¦5¦	-1120
केसेस	-1121
कोव्हॅ	-1122
वट	-1123
जाण	-1124
भाव	-1125
▁¦8	-1126
क्षणा	-1127
पोहोच	-1128
प्रवास	-1129
झर	-1130
बायो	-1131
कालाव	-1132
घेतला	-1133
कालावधी	-1134
करण्याचा	-1135
संदर्भात	-1136
ज्ञा	-1137
देशा	-1138
विषयी	-1139
विभागा	-1140
सुद्धा	-1141
प्रत्येक	-1142
ब्रुवारी	-1143
शु	-1144
साद	-1145
सामा	-1146
योजना	-1147
्यक्ष	-1148
मंत्रा	-1149
यासाठी	-1150
तीत	-1151
थील	-1152
वीर	-1153
फक्त	-1154
समोर	-1155
▁¦201	-1156
सरकारी	-1157
क्षमता	-1158
त्यानंतर	-1159
कोरोनाच्या	-1160
फेब्रुवारी	-1161
एकूण	-1162
गाने	-1163
रुग्णाल	-1164
त्याच्या	-1165
पॉझिटिव्ह	-1166
वाद	-1167
विल	-1168
लागण	-1169
युक्त	-1170
शिफार	-1171
तुमच्या	-1172
नियंत्रण	-1173
पॅ	-1174
भे	-1175
धिक	-1176
दुका	-1177
मध्य	-1178
जाणार	-1179
मर्या	-1180
केंद्रीय	-1181
खूप	-1182
तुट	-1183
रोख	-1184
क्सिन	-1185
ग्रस्त	-1186
अमेरिके	-1187
न्न	-1188
पार	-1189
िया	-1190
कराय	-1191
ांचं	-1192
असल्याने	-1193
वण्यासाठी	-1194
लढ	-1195
अर्	-1196
पाच	-1197
बेड्स	-1198
विरोध	-1199
उन	-1200
जय	-1201
गेल	-1202
घर	-1203
दृ	-1204
बस	-1205
रोज	-1206
केवळ	-1207
पूर्व	-1208
वर्षी	-1209
कल	-1210
फि	-1211
िले	-1212
आढळले	-1213
जेव्हा	-1214
भव	-1215
मन	-1216
▁“	-1217
कुठ	-1218
संर	-1219
न्ही	-1220
वर्षा	-1221
स्वच्छ	-1222
होत्या	-1223
केंद्रा	-1224
कशी	-1225
चिक	-1226
तां	-1227
नेत	-1228
वून	-1229
प्रयोग	-1230
शरीरात	-1231
्यांच्या	-1232
रुग्णसंख्या	-1233
इट	-1234
ल्स	-1235
चारा	-1236
जातो	-1237
तसेच	-1238
कांना	-1239
खासगी	-1240
रिक्त	-1241
शय	-1242
टाळ	-1243
बात	-1244
अहवा	-1245
क्शन	-1246
तुटवड	-1247
व्यक्त	-1248
हर	-1249
२०	-1250
प्ट	-1251
रोप	-1252
ल्ड	-1253
दिसत	-1254
असतील	-1255
गर्दी	-1256
यांचा	-1257
स्टिट	-1258
कर्मचार	-1259
कोणत्याही	-1260
माझ	-1261
यला	-1262
निवड	-1263
▁¦3¦	-1264
▁¦50¦	-1265
याच्या	-1266
आकडेवारी	-1267
निर्मिती	-1268
ho	-1269
पाह	-1270
मां	-1271
येऊ	-1272
आर्थ	-1273
सूचना	-1274
अधिकाऱ्या	-1275
ce	-1276
शिक	-1277
वाढत	-1278
आर्थिक	-1279
दोन्ही	-1280
रात्री	-1281
उत्पादन	-1282
लशीच्या	-1283
एम	-1284
इंड	-1285
अजून	-1286
गरजे	-1287
घेऊन	-1288
जणां	-1289
नावा	-1290
श्वसन	-1291
येणाऱ्या	-1292
पट	-1293
परत	-1294
क्या	-1295
त्याचा	-1296
प्रमाणा	-1297
कर्मचारी	-1298
ड्र	-1299
दाय	-1300
चांग	-1301
श्वास	-1302
सांगितले	-1303
दूर	-1304
न्ट	-1305
साब	-1306
करणं	-1307
पेशी	-1308
ातून	-1309
कांनी	-1310
गीकरण	-1311
त्यात	-1312
त्रास	-1313
लागेल	-1314
आमच्या	-1315
कुटुंब	-1316
प्रमुख	-1317
सुरक्षित	-1318
सुरुवाती	-1319
ल्प	-1320
दर्श	-1321
वरून	-1322
राजेश	-1323
शिफारस	-1324
टि	-1325
यक	-1326
घात	-1327
रुप	-1328
विका	-1329
अधिकारी	-1330
शल	-1331
नगर	-1332
फुफ्	-1333
▁¦4¦	-1334
पर्या	-1335
सेंटर	-1336
करताना	-1337
स्थानिक	-1338
गृ	-1339
था	-1340
मीण	-1341
ग्रामीण	-1342
दिलेल्या	-1343
द्र	-1344
कामा	-1345
स्टे	-1346
स्वर	-1347
करणां	-1348
करावी	-1349
तंत्र	-1350
इन्स्टिट	-1351
मंत्रालया	-1352
ट्	-1353
लॅ	-1354
काळी	-1355
ट्या	-1356
घेतली	-1357
स्थित	-1358
फॉ	-1359
ुन	-1360
त्व	-1361
दक्ष	-1362
न्यू	-1363
पक्ष	-1364
पुणे	-1365
नव्या	-1366
येथील	-1367
शिष्ट	-1368
अभ्यास	-1369
फुफ्फु	-1370
थो	-1371
बु	-1372
▁‘	-1373
आणखी	-1374
हाता	-1375
महिन्या	-1376
होण्याची	-1377
▁’	-1378
000¦	-1379
टोपे	-1380
ॅक्ट	-1381
त्याच	-1382
नाच्या	-1383
महापालि	-1384
ंभ	-1385
शील	-1386
यामुळे	-1387
उद्रेका	-1388
लॉकडाउन	-1389
कधी	-1390
बरे	-1391
गेली	-1392
शक्ती	-1393
त्यांची	-1394
ीत	-1395
सहा	-1396
निष्	-1397
शाळे	-1398
्यूट	-1399
सर्वा	-1400
स्पर्	-1401
कम	-1402
मं	-1403
सॅ	-1404
मते	-1405
लीन	-1406
अन्य	-1407
पुरे	-1408
पोर्ट	-1409
वर्षां	-1410
संनिरी	-1411
घेण्यात	-1412
होणाऱ्या	-1413
माहितीनुसार	-1414
षण	-1415
नका	-1416
विर	-1417
रोबर	-1418
उपचारा	-1419
लव	-1420
लु	-1421
शहर	-1422
परंतु	-1423
क्वारं	-1424
नागपूर	-1425
प्रवाश	-1426
ल्याने	-1427
असणाऱ्या	-1428
ऑक्सिजनची	-1429
जिल्ह्यात	-1430
्यांमध्ये	-1431
ic	-1432
in	-1433
कळ	-1434
देत	-1435
रिय	-1436
संभा	-1437
यांची	-1438
क्वारंटा	-1439
सर्वाधिक	-1440
एचसीओव्ही	-1441
अत	-1442
झे	-1443
लंब	-1444
लाट	-1445
शकत	-1446
सेल	-1447
अंतर	-1448
▁¦6¦	-1449
त्याची	-1450
सौ	-1451
who	-1452
ट्स	-1453
बाल	-1454
णारे	-1455
येथे	-1456
घोषणा	-1457
सर्वात	-1458
पत्रकार	-1459
आतापर्यंत	-1460
विषाणूच्या	-1461
बल	-1462
हळ	-1463
िम	-1464
वलं	-1465
सिक	-1466
करतो	-1467
क्सी	-1468
जातं	-1469
विधा	-1470
▁¦20¦	-1471
यामध्ये	-1472
चौ	-1473
एन्	-1474
नला	-1475
लिक	-1476
वर्त	-1477
कालीन	-1478
सत	-1479
नरे	-1480
श्र	-1481
साम	-1482
प्रथ	-1483
बॉडी	-1484
अत्या	-1485
असंही	-1486
बाजार	-1487
ण्याचं	-1488
लक्षात	-1489
प्रतिकार	-1490
प्रतिसाद	-1491
क्वारंटाईन	-1492
अल्	-1493
टेक	-1494
नाय	-1495
वेत	-1496
ट्रे	-1497
पुरा	-1498
भीती	-1499
लशीचा	-1500
त्याला	-1501
स्ट्रे	-1502
आपल्याला	-1503
जू	-1504
पाळ	-1505
वणी	-1506
वाच	-1507
थमिक	-1508
युके	-1509
रोगा	-1510
पुष्टी	-1511
प्रदेश	-1512
विरोधी	-1513
प्राथमिक	-1514
कार्यक्रम	-1515
प्रमाणावर	-1516
ठो	-1517
ोग	-1518
चिं	-1519
द्द	-1520
वित	-1521
करते	-1522
थांब	-1523
दारी	-1524
वेळे	-1525
अंदाज	-1526
व्हेंट	-1527
रुग्णालया	-1528
झाल्यानंतर	-1529
रेमडेसिवीर	-1530
टन	-1531
इटली	-1532
रक्त	-1533
आव्हा	-1534
बैठकी	-1535
मुंबईत	-1536
इन्स्टिट्यूट	-1537
अप	-1538
वॉ	-1539
उदा	-1540
टेड	-1541
्टी	-1542
अँटी	-1543
कामग	-1544
प्राण	-1545
तपासणी	-1546
आम्हाला	-1547
प्रकरणां	-1548
विषाणूचा	-1549
जै	-1550
्ड	-1551
ंगा	-1552
दहा	-1553
भाज	-1554
लंड	-1555
ल्यास	-1556
सल्ला	-1557
मृत्यु	-1558
वेगवेग	-1559
संघटने	-1560
नरेंद्र	-1561
संभाव्य	-1562
विलगीकरण	-1563
पद	-1564
खोक	-1565
फ्र	-1566
इंजे	-1567
मोठा	-1568
र्गत	-1569
वृत्	-1570
कोणती	-1571
▁¦30¦	-1572
अत्यंत	-1573
चिकित्	-1574
तुटवडा	-1575
संस्थे	-1576
देशातील	-1577
म्हटलंय	-1578
व्हेंटिले	-1579
अत्यावश्यक	-1580
मॅ	-1581
वु	-1582
▁!	-1583
सगळ	-1584
सोड	-1585
आदेश	-1586
मेंट	-1587
एकत्र	-1588
सामाजिक	-1589
आरोग्यमंत्री	-1590
me	-1591
झो	-1592
जसे	-1593
टाक	-1594
ठेवा	-1595
धारण	-1596
लवकर	-1597
एखाद्या	-1598
मार्गदर्	-1599
दित	-1600
पणा	-1601
रक्	-1602
राख	-1603
सचि	-1604
हळू	-1605
तोंड	-1606
मोठी	-1607
लेले	-1608
सिद्ध	-1609
अध्यक्ष	-1610
असल्यास	-1611
ज्यामध्ये	-1612
लोकांच्या	-1613
जरी	-1614
थेट	-1615
दुख	-1616
▁¦14¦	-1617
▁¦15¦	-1618
लोकांनी	-1619
शास्त्र	-1620
व्यवस्था	-1621
मग	-1622
नेट	-1623
म्य	-1624
चालू	-1625
डिसे	-1626
फ्लू	-1627
भागी	-1628
वाहत	-1629
जवळपास	-1630
वेगाने	-1631
चिकित्सा	-1632
सरकारच्या	-1633
धन	-1634
खर्	-1635
वला	-1636
समस	-1637
सोशल	-1638
स्वी	-1639
करावा	-1640
बरोबर	-1641
वुहान	-1642
नोंदणी	-1643
स्पर्श	-1644
ace	-1645
ंचे	-1646
गृह	-1647
नेते	-1648
पार्	-1649
▁¦19	-1650
असलेले	-1651
तुलनेत	-1652
लोकसंख्ये	-1653
कोव्हॅक्सिन	-1654
रण	-1655
१९	-1656
ंवर	-1657
प्त	-1658
पालन	-1659
संबं	-1660
▁¦7¦	-1661
सुरक्षा	-1662
त्यासाठी	-1663
na	-1664
वय	-1665
तास	-1666
रिक	-1667
रेट	-1668
वती	-1669
तिथे	-1670
अवलंब	-1671
अहवाल	-1672
भारती	-1673
मराठी	-1674
स्वतः	-1675
रूग्णा	-1676
असल्याची	-1677
रुग्णांच्या	-1678
कोरोनाव्हायरस	-1679
पं	-1680
वढ	-1681
काश	-1682
खीम	-1683
छात	-1684
जबाब	-1685
दिलं	-1686
भूमी	-1687
▁¦8¦	-1688
जोखीम	-1689
तयारी	-1690
पर्याय	-1691
संशोधन	-1692
साधारण	-1693
डिसेंबर	-1694
इंजेक्शन	-1695
प्रक्रिया	-1696
तिस	-1697
शिं	-1698
अमरा	-1699
प्रवेश	-1700
ल्याचं	-1701
संबंधी	-1702
परिणामकारक	-1703
दू	-1704
अनि	-1705
खरे	-1706
बाद	-1707
वाघ	-1708
िकल	-1709
प्रे	-1710
बहुतां	-1711
्यातील	-1712
महाराष्ट्रा	-1713
अंमल	-1714
आरोप	-1715
ऑनला	-1716
औषधा	-1717
जनते	-1718
पोली	-1719
प्रक	-1720
रेल्	-1721
होऊन	-1722
उदाहर	-1723
विमान	-1724
▁¦19¦	-1725
त्यांचे	-1726
इन	-1727
गाव	-1728
भूत	-1729
आंतर	-1730
लेली	-1731
वायू	-1732
आजारी	-1733
करावं	-1734
मातून	-1735
श्चित	-1736
सौम्य	-1737
वाहतूक	-1738
हॉस्पिटलमध्ये	-1739
ीन	-1740
कोड	-1741
बजा	-1742
समु	-1743
जातात	-1744
फोर्स	-1745
मुलांना	-1746
लोकांमध्ये	-1747
हार	-1748
▁),	-1749
मोही	-1750
वाहन	-1751
वेळा	-1752
अद्या	-1753
तासां	-1754
दररोज	-1755
पोलीस	-1756
संचाल	-1757
प्रकाश	-1758
रेल्वे	-1759
बहुतांश	-1760
घेण्यासाठी	-1761
विद्यार्थी	-1762
यश	-1763
खात	-1764
डाय	-1765
नोम	-1766
णारी	-1767
नाते	-1768
रिया	-1769
टास्क	-1770
मुक्त	-1771
लाटेत	-1772
सकाळी	-1773
आधारित	-1774
माझ्या	-1775
करोनाच्या	-1776
कोरोनाग्रस्त	-1777
हॅ	-1778
काँ	-1779
काल	-1780
लाय	-1781
उद्य	-1782
पवार	-1783
वाढव	-1784
नमुने	-1785
बऱ्या	-1786
मानवी	-1787
वटवाघ	-1788
अद्याप	-1789
सुविधा	-1790
उपस्थित	-1791
प्रवासा	-1792
प्रॅक्ट	-1793
विरोधात	-1794
संक्रमण	-1795
नॉ	-1796
कसा	-1797
णूक	-1798
क्लो	-1799
घरात	-1800
टक्क	-1801
आलेली	-1802
क्यात	-1803
दिवशी	-1804
दुसरा	-1805
लशीची	-1806
झालेली	-1807
दिवसात	-1808
मान्यता	-1809
सरकारला	-1810
००	-1811
ावर	-1812
▁).	-1813
काळा	-1814
रद्द	-1815
राहि	-1816
साठा	-1817
प्रणा	-1818
▁¦24¦	-1819
नियोजन	-1820
प्रतिक	-1821
तिसऱ्या	-1822
टप्प्यात	-1823
प्रॅक्टि	-1824
व्यवस्थाप	-1825
देशांमध्ये	-1826
माध्यमातून	-1827
rt	-1828
चु	-1829
जित	-1830
तोय	-1831
माल	-1832
ावा	-1833
आपत्	-1834
ार्थ	-1835
योजित	-1836
रियंट	-1837
लशीचे	-1838
होतात	-1839
राजकीय	-1840
प्रणाली	-1841
संपर्कात	-1842
व्हेरियंट	-1843
विद्यार्थ्यां	-1844
cg	-1845
ra	-1846
ूल	-1847
अडच	-1848
मेड	-1849
हित	-1850
क्लि	-1851
पाळी	-1852
येते	-1853
लेला	-1854
वितर	-1855
होणे	-1856
पुढील	-1857
▁¦12¦	-1858
मधल्या	-1859
नातेवाई	-1860
प्रकारे	-1861
ज्यामुळे	-1862
नाव	-1863
लां	-1864
शाळ	-1865
पोलि	-1866
प्टे	-1867
याचे	-1868
संशय	-1869
चिंता	-1870
निटाय	-1871
सारखी	-1872
राहतील	-1873
पातळीवर	-1874
सॅनिटाय	-1875
स्थितीत	-1876
रुग्णांचा	-1877
केल्यानंतर	-1878
बायोटेक	-1879
म्हणजेच	-1880
आवश्यकता	-1881
मर्यादित	-1882
he	-1883
फा	-1884
िण	-1885
निधी	-1886
मानव	-1887
सिटी	-1888
करावे	-1889
जैविक	-1890
कामगार	-1891
झालेला	-1892
झालेले	-1893
भारतीय	-1894
मिळाली	-1895
संस्था	-1896
करण्याच्या	-1897
नागरिकांना	-1898
रुग्णालयां	-1899
फत	-1900
कडक	-1901
गदी	-1902
खर्च	-1903
लॉजी	-1904
ब्रिट	-1905
लागली	-1906
सारखे	-1907
त्यावर	-1908
रिपोर्ट	-1909
्याच्या	-1910
क्षेत्रात	-1911
दश	-1912
लर	-1913
साई	-1914
कंपन	-1915
त्ता	-1916
दिवसा	-1917
त्याचे	-1918
दक्षिण	-1919
अंतर्गत	-1920
पुण्यात	-1921
विशिष्ट	-1922
आठवड्यात	-1923
करण्याचे	-1924
झाल्याचं	-1925
गळ	-1926
साठ	-1927
जिथे	-1928
न्यु	-1929
मारे	-1930
ज्ञान	-1931
विकास	-1932
सप्टे	-1933
म्युटे	-1934
ज्यांना	-1935
त्यांचा	-1936
पूर्णपणे	-1937
प्रभावित	-1938
सप्टेंबर	-1939
जण	-1940
ंतू	-1941
अॅप	-1942
दरा	-1943
दीप	-1944
ग्रे	-1945
लयीन	-1946
,000¦	-1947
निदान	-1948
दिल्या	-1949
नमध्ये	-1950
प्राणवायू	-1951
संसर्गाचा	-1952
संसर्गाची	-1953
सांगण्यात	-1954
मुख्यमंत्र	-1955
कर्मचाऱ्यांना	-1956
करि	-1957
कोर	-1958
घेऊ	-1959
जोड	-1960
फोन	-1961
राय	-1962
कर्ष	-1963
महत्वा	-1964
परिस्थितीत	-1965
संसर्गजन्य	-1966
गट	-1967
ड्	-1968
बां	-1969
माय	-1970
मित	-1971
मूळ	-1972
ांक	-1973
▁%)	-1974
अन्न	-1975
कमतर	-1976
संकट	-1977
खरेदी	-1978
चित्र	-1979
इंडिया	-1980
करणारे	-1981
केलेली	-1982
दशलक्ष	-1983
बऱ्याच	-1984
देशभरात	-1985
कारात्मक	-1986
कच	-1987
नॅ	-1988
भो	-1989
अभि	-1990
कॉल	-1991
लये	-1992
वाल	-1993
▁..	-1994
ऑक्स	-1995
करुन	-1996
कृती	-1997
केअर	-1998
णारा	-1999
तीने	-2000
फर्ड	-2001
याला	-2002
लाही	-2003
ट्राय	-2004
डिस्ट	-2005
तरीही	-2006
फायझर	-2007
मोनिया	-2008
मार्गदर्शक	-2009
संसर्गाच्या	-2010
चिकित्सालयीन	-2011
कृ	-2012
फड	-2013
ंचं	-2014
अगदी	-2015
जंतू	-2016
परिष	-2017
भूमि	-2018
सचिव	-2019
सापड	-2020
ंसिंग	-2021
खालील	-2022
मानवा	-2023
मोहीम	-2024
वाटतं	-2025
वाढली	-2026
असलेली	-2027
यावेळी	-2028
निश्चित	-2029
विद्यापी	-2030
महापालिके	-2031
खर	-2032
वू	-2033
अँप	-2034
होम	-2035
जारी	-2036
नसेल	-2037
मागे	-2038
वस्त	-2039
सिरम	-2040
आवाहन	-2041
पहिला	-2042
अजूनही	-2043
बजावणी	-2044
स्ट्रा	-2045
होण्या	-2046
शहरातील	-2047
असल्याचा	-2048
ऑक्सफर्ड	-2049
सुरुवातीला	-2050
नेम	-2051
मंड	-2052
दावा	-2053
▁¦9¦	-2054
अल्को	-2055
आढावा	-2056
ज्ञात	-2057
वस्तू	-2058
व्हिर	-2059
▁¦11¦	-2060
उद्रेक	-2061
मेडिकल	-2062
ल्यावर	-2063
देशांनी	-2064
प्राप्त	-2065
यंत्रणा	-2066
संक्रमित	-2067
व्यक्तीला	-2068
संनिरीक्षण	-2069
दय	-2070
उल्	-2071
णवी	-2072
देऊ	-2073
गेला	-2074
ट्वी	-2075
सीरम	-2076
सेवे	-2077
अमरावती	-2078
पार्श्व	-2079
नसलेल्या	-2080
प्रादुर्	-2081
सॅनिटायझर	-2082
अंमलबजावणी	-2083
करोनाबाधित	-2084
देण्यासाठी	-2085
वेगवेगळ्या	-2086
▁्	-2087
अखे	-2088
कसं	-2089
केत	-2090
सेव	-2091
नाची	-2092
पालक	-2093
बाजू	-2094
ज्यात	-2095
तातडी	-2096
फडणवी	-2097
विष्ट	-2098
सोबतच	-2099
ारावी	-2100
क्षमते	-2101
गरजेचं	-2102
प्रोटी	-2103
संचालक	-2104
सगळ्या	-2105
सुमारे	-2106
संरक्षण	-2107
नसल्याचं	-2108
पद्धतीने	-2109
प्राण्या	-2110
रुग्णांमध्ये	-2111
खु	-2112
टँ	-2113
शै	-2114
सल	-2115
अपे	-2116
असो	-2117
नीय	-2118
याच	-2119
घटना	-2120
निकल	-2121
बैठक	-2122
विश्	-2123
युनाय	-2124
विभाग	-2125
्याने	-2126
कांच्या	-2127
दिवसांत	-2128
विशेषतः	-2129
संख्येत	-2130
प्रकारच्या	-2131
रेमडेसिव्हिर	-2132
cr	-2133
ँड	-2134
दस	-2135
पक	-2136
पृ	-2137
यं	-2138
हृ	-2139
टेल	-2140
तथा	-2141
सतत	-2142
आयसो	-2143
जागा	-2144
णाने	-2145
तात्	-2146
बांध	-2147
भाजप	-2148
मारी	-2149
युरो	-2150
साबण	-2151
अडचणी	-2152
जिनोम	-2153
नियमा	-2154
येतील	-2155
उद्योग	-2156
करायला	-2157
बाबतीत	-2158
प्रसारा	-2159
शिक्षणा	-2160
झाल्याचे	-2161
झाल्याने	-2162
निष्कर्ष	-2163
महत्त्वाचं	-2164
शं	-2165
्थ	-2166
एवढ	-2167
कठो	-2168
गुण	-2169
जाग	-2170
वाज	-2171
वेल	-2172
क्री	-2173
जर्म	-2174
होणं	-2175
कोणता	-2176
नच्या	-2177
भूमीवर	-2178
म्हणणं	-2179
युनायटेड	-2180
ऑक्सिजनचा	-2181
फुफ्फुसां	-2182
रोखण्यासाठी	-2183
छो	-2184
फर	-2185
उघड	-2186
चेह	-2187
रोध	-2188
र्ष	-2189
शनल	-2190
सरा	-2191
सोन	-2192
कठोर	-2193
कमीत	-2194
घेता	-2195
तालु	-2196
नमुन	-2197
ब्रा	-2198
महिल	-2199
मिळे	-2200
शकतं	-2201
स्वा	-2202
ांशी	-2203
आलेला	-2204
हायला	-2205
ऑनलाईन	-2206
बैठकीत	-2207
अभ्यासा	-2208
अवलंबून	-2209
पोलिसां	-2210
म्युटेशन	-2211
समाविष्ट	-2212
प्रशासनाने	-2213
व्यक्तींना	-2214
दिवसांपासून	-2215
कन	-2216
रल	-2217
रॉ	-2218
हन	-2219
▁़	-2220
जन्	-2221
दिन	-2222
निर	-2223
पां	-2224
वगळ	-2225
सदस	-2226
क्षक	-2227
जंतु	-2228
जाती	-2229
टर्स	-2230
दायक	-2231
धुणे	-2232
बंधन	-2233
मर्स	-2234
मूळा	-2235
हेल्	-2236
ंसाठी	-2237
व्हर्	-2238
सुधार	-2239
आव्हान	-2240
कमतरता	-2241
दृष्टी	-2242
समस्या	-2243
्यांवर	-2244
▁¦100¦	-2245
आरोग्या	-2246
याविषयी	-2247
अँटीबॉडी	-2248
कार्यालय	-2249
दुसरीकडे	-2250
बीबीसीशी	-2251
रेमडेसिविर	-2252
व्हायरसच्या	-2253
अल	-2254
चल	-2255
बॅ	-2256
आयो	-2257
घरा	-2258
जगा	-2259
तत्	-2260
पाट	-2261
पिं	-2262
रशि	-2263
रस्	-2264
आधीच	-2265
इंटर	-2266
मिळत	-2267
स्पे	-2268
चौकशी	-2269
णार्थ	-2270
रुपये	-2271
शरीरा	-2272
सिस्ट	-2273
हेल्थ	-2274
▁¦18¦	-2275
कारवाई	-2276
त्याने	-2277
भूमिका	-2278
म्हटले	-2279
लागणार	-2280
्यांचा	-2281
विण्यात	-2282
साथीच्या	-2283
ti	-2284
आत	-2285
इथ	-2286
दै	-2287
नव	-2288
जनक	-2289
नवा	-2290
मॉड	-2291
रवि	-2292
अजित	-2293
एकाच	-2294
कुठे	-2295
टीका	-2296
तिहा	-2297
नाचा	-2298
युनि	-2299
विरु	-2300
▁...	-2301
रूग्ण	-2302
व्याव	-2303
नव्हती	-2304
मूळाशी	-2305
विरुद्ध	-2306
अॅस्ट्रा	-2307
व्यवस्थे	-2308
महाविद्या	-2309
महत्त्वाची	-2310
प्रतिकारशक्ती	-2311
आग	-2312
य़	-2313
icu	-2314
खमी	-2315
तिथ	-2316
मूल	-2317
राब	-2318
कुंभ	-2319
क्वे	-2320
छाती	-2321
पाणी	-2322
लेशन	-2323
वयोग	-2324
वर्क	-2325
्युट	-2326
ग्रेस	-2327
ट्वीट	-2328
प्रथम	-2329
संस्थ	-2330
▁¦60¦	-2331
चीनच्या	-2332
प्राधान	-2333
▁¦2019¦	-2334
रुग्णांवर	-2335
उदाहरणार्थ	-2336
घेतल्यानंतर	-2337
महाराष्ट्राला	-2338
-2	-2339
अश	-2340
टक	-2341
मज	-2342
cgp	-2343
केट	-2344
भेट	-2345
मती	-2346
लेख	-2347
वेद	-2348
rcgp	-2349
आकडा	-2350
उत्प	-2351
कोणा	-2352
निंग	-2353
अनुभव	-2354
एन्झा	-2355
किमान	-2356
खोकला	-2357
▁¦31¦	-2358
घ्यावी	-2359
ांकडून	-2360
आठवड्या	-2361
मार्चला	-2362
लक्षणां	-2363
सर्वांत	-2364
▁¦2021¦	-2365
प्रसिद्ध	-2366
विषाणूजन्य	-2367
dc	-2368
गि	-2369
▁”	-2370
खान	-2371
गाल	-2372
नाक	-2373
पश्	-2374
फिर	-2375
राम	-2376
कायम	-2377
देशी	-2378
मीटर	-2379
मीडि	-2380
क्रमा	-2381
पहिली	-2382
पुरवठ	-2383
येतात	-2384
विस्त	-2385
सायिक	-2386
पुढच्या	-2387
वारंवार	-2388
चीनमध्ये	-2389
नियमावली	-2390
राज्याचे	-2391
होण्याचा	-2392
प्रादुर्भाव	-2393
इश	-2394
णु	-2395
हल	-2396
rsc	-2397
गुं	-2398
लिं	-2399
समू	-2400
असली	-2401
धार्	-2402
मोहि	-2403
अतिशय	-2404
चंद्र	-2405
जातील	-2406
पृष्ठ	-2407
वर्षे	-2408
स्थान	-2409
स्वरु	-2410
▁¦16¦	-2411
▁¦40¦	-2412
कुंभमे	-2413
प्रोटो	-2414
रित्या	-2415
वातावर	-2416
संशयित	-2417
ांमधील	-2418
करोनाची	-2419
घेण्यास	-2420
धार्मिक	-2421
क्लिनिकल	-2422
भारतातील	-2423
स्वच्छता	-2424
कोरोनाबाधित	-2425
पार्श्वभूमीवर	-2426
चर	-2427
१५	-2428
२४	-2429
आयु	-2430
किट	-2431
गां	-2432
लढा	-2433
mers	-2434
अर्ज	-2435
एकदा	-2436
जगात	-2437
टाळा	-2438
प्रि	-2439
याने	-2440
वेशा	-2441
पश्चि	-2442
वृत्त	-2443
शाळेत	-2444
जर्मनी	-2445
्यांची	-2446
कोणताही	-2447
प्रकाशित	-2448
विषाणूची	-2449
शास्त्रज्ञ	-2450
मंत्रालयाने	-2451
लसीकरणासाठी	-2452
is	-2453
ंच	-2454
उल	-2455
rna	-2456
अना	-2457
वटी	-2458
समज	-2459
असता	-2460
आलंय	-2461
जाऊन	-2462
फ्रा	-2463
रोक्	-2464
विना	-2465
स्ता	-2466
स्ती	-2467
पोस्ट	-2468
मिळेल	-2469
आयुक्त	-2470
केलेले	-2471
फडणवीस	-2472
सिक्वे	-2473
जिल्ह्य	-2474
टप्प्या	-2475
महामारी	-2476
वलेल्या	-2477
काँग्रेस	-2478
झाल्याची	-2479
ठेवण्यात	-2480
डॉक्टर्स	-2481
त्यावेळी	-2482
व्हायरसचा	-2483
मुलांमध्ये	-2484
व्हेंटिलेटर	-2485
re	-2486
गै	-2487
जल	-2488
बळ	-2489
१०	-2490
करी	-2491
म्प	-2492
वडे	-2493
ष्य	-2494
▁,"	-2495
एकमे	-2496
ट्वि	-2497
नाने	-2498
बातमी	-2499
लागला	-2500
शुक्र	-2501
संवाद	-2502
▁¦200	-2503
क्रिया	-2504
पश्चिम	-2505
पुण्या	-2506
कंपनीने	-2507
लोकांची	-2508
क्लोरोक्	-2509
नसल्याने	-2510
वापरासाठी	-2511
अॅस्ट्राझे	-2512
राज्याच्या	-2513
विद्यार्थ्यांना	-2514
te	-2515
ंध	-2516
गड	-2517
गण	-2518
pcr	-2519
एनए	-2520
तरु	-2521
वाड	-2522
आफ्र	-2523
च्छा	-2524
नावर	-2525
पोशि	-2526
मुद्	-2527
वाजे	-2528
वाढू	-2529
शन्स	-2530
सोनू	-2531
इशारा	-2532
क्सीन	-2533
तुलना	-2534
नॅशनल	-2535
फॉर्म	-2536
समिती	-2537
सर्वे	-2538
हॉटेल	-2539
असलेला	-2540
दुकाने	-2541
प्राणी	-2542
कोणतीही	-2543
अतिरिक्त	-2544
अपेक्षित	-2545
देण्याची	-2546
व्हायरसची	-2547
टॅ	-2548
धर	-2549
cdc	-2550
अडथ	-2551
इथे	-2552
गेट	-2553
र्घ	-2554
सिस	-2555
हवे	-2556
असाल	-2557
आयसी	-2558
कारी	-2559
चिनी	-2560
शेवट	-2561
स्तर	-2562
ायला	-2563
उपयोग	-2564
क्रिय	-2565
प्रार	-2566
महिला	-2567
रक्ता	-2568
हाताळ	-2569
▁¦28¦	-2570
▁¦80¦	-2571
खात्री	-2572
नावाला	-2573
प्रदान	-2574
सहभागी	-2575
जिल्हाध	-2576
दिल्लीत	-2577
निवडणूक	-2578
प्रशासन	-2579
भागातील	-2580
व्हायरल	-2581
स्ट्रेन	-2582
आयसोलेशन	-2583
आपत्कालीन	-2584
आल्यानंतर	-2585
राज्यांना	-2586
व्यावसायिक	-2587
ma	-2588
तू	-2589
जेव	-2590
नाई	-2591
ब्ल	-2592
विन	-2593
असतं	-2594
आपली	-2595
चुकी	-2596
ज्ये	-2597
टँकर	-2598
तक्र	-2599
दिवा	-2600
पर्य	-2601
फार्	-2602
मांड	-2603
येतो	-2604
लिहि	-2605
सहाय	-2606
स्वत	-2607
जोखमी	-2608
तथापि	-2609
दीर्घ	-2610
लक्षण	-2611
वेगळे	-2612
सर्दी	-2613
उद्देश	-2614
लागतील	-2615
विश्ले	-2616
कुठल्या	-2617
ज्येष्ठ	-2618
त्यांचं	-2619
असण्याची	-2620
जबाबदारी	-2621
जाणाऱ्या	-2622
संख्येने	-2623
pp	-2624
इम	-2625
नक	-2626
यत	-2627
१८	-2628
कदा	-2629
घटक	-2630
तिक	-2631
पती	-2632
होल	-2633
्रि	-2634
द्धी	-2635
ब्रे	-2636
लयात	-2637
सादर	-2638
▁¦10	-2639
▁¦12	-2640
कुमार	-2641
नाशिक	-2642
प्रथि	-2643
मध्यम	-2644
यांचे	-2645
सूचित	-2646
स्वरू	-2647
ाच्या	-2648
णाच्या	-2649
नासाठी	-2650
पाट्या	-2651
पालिका	-2652
निर्देश	-2653
जगभरातील	-2654
प्रोटोकॉल	-2655
कोरोनामुळे	-2656
नियंत्रणात	-2657
al	-2658
ुल	-2659
एशन	-2660
कंट	-2661
डिओ	-2662
वेब	-2663
कोणी	-2664
त्मक	-2665
दुखी	-2666
नाला	-2667
बाबी	-2668
बोर्	-2669
लागत	-2670
स्को	-2671
इतिहा	-2672
कांची	-2673
पाटील	-2674
सांगा	-2675
▁¦25¦	-2676
यशस्वी	-2677
झाल्यास	-2678
यंत्रणे	-2679
रविवारी	-2680
वातावरण	-2681
स्थापित	-2682
यांच्याशी	-2683
युनिव्हर्	-2684
व्यवस्थापन	-2685
जिल्ह्यातील	-2686
संनिरीक्षणा	-2687
आंतरराष्ट्रीय	-2688
युनिव्हर्सिटी	-2689
ऐव	-2690
नल	-2691
इरा	-2692
केस	-2693
कोल	-2694
डेल	-2695
धोर	-2696
शनि	-2697
सोम	-2698
ऐवजी	-2699
कॉले	-2700
जुरी	-2701
ड्या	-2702
द्रा	-2703
पीसी	-2704
बाणी	-2705
माजी	-2706
येतं	-2707
लांब	-2708
स्टॉ	-2709
स्टो	-2710
आलेले	-2711
कोणते	-2712
गोष्ट	-2713
मागील	-2714
मिनिट	-2715
लागते	-2716
शिल्ड	-2717
▁¦23¦	-2718
अधिकृत	-2719
क्षणिक	-2720
देताना	-2721
देशांत	-2722
प्रचार	-2723
मानसिक	-2724
राहणार	-2725
वयाच्या	-2726
सरकारनं	-2727
त्यामध्ये	-2728
सरकारकडून	-2729
क्षेत्रातील	-2730
ha	-2731
चो	-2732
डर	-2733
थक	-2734
२२	-2735
▁/	-2736
phe	-2737
ढकल	-2738
राव	-2739
आपले	-2740
इतकी	-2741
पारी	-2742
लोकल	-2743
हर्ष	-2744
▁¦1.	-2745
कारणी	-2746
पत्रक	-2747
वर्धन	-2748
वार्य	-2749
वितरण	-2750
संकटा	-2751
▁¦17¦	-2752
▁¦70¦	-2753
▁¦90¦	-2754
कारणां	-2755
पीसीआर	-2756
प्रभाव	-2757
बारावी	-2758
ांमुळे	-2759
करोनाचा	-2760
झपाट्या	-2761
प्रकल्प	-2762
प्रजाती	-2763
फ्रान्स	-2764
मर्यादा	-2765
संयुक्त	-2766
अनिवार्य	-2767
अल्कोहोल	-2768
मृत्यूदर	-2769
प्राधान्य	-2770
महापालिका	-2771
व्हॅक्सिन	-2772
सकारात्मक	-2773
मार्चपर्यंत	-2774
तज्ज्ञांच्या	-2775
ro	-2776
रॅ	-2777
कता	-2778
गटा	-2779
गैर	-2780
जिम	-2781
टिक	-2782
नमू	-2783
भरा	-2784
घेणं	-2785
भरती	-2786
वर्ग	-2787
स्थग	-2788
हिवा	-2789
ॉन्स	-2790
आधारे	-2791
जाणवत	-2792
दृष्ट	-2793
ब्राझ	-2794
मासिक	-2795
मेट्र	-2796
लागलं	-2797
विकार	-2798
शेवटी	-2799
सोसाय	-2800
दुकानं	-2801
नाहीये	-2802
पुरावा	-2803
बोर्डा	-2804
मोहिमे	-2805
शासकीय	-2806
कंपन्या	-2807
घ्यायला	-2808
चेहऱ्या	-2809
तिरिक्त	-2810
याबद्दल	-2811
सुरूवात	-2812
घेतलेल्या	-2813
प्रत्यक्ष	-2814
विद्यापीठ	-2815
उपचारासाठी	-2816
ण्यापूर्वी	-2817
ठेवण्यासाठी	-2818
रुग्णांसाठी	-2819
लॉकडाऊनच्या	-2820
सिक्वेंसिंग	-2821
रुग्णालयातील	-2822
रूग्णांमध्ये	-2823
महाराष्ट्रातील	-2824
खव	-2825
आशा	-2826
केल	-2827
दवा	-2828
बरा	-2829
बाळ	-2830
सुच	-2831
हमी	-2832
ोबर	-2833
▁़्	-2834
याचं	-2835
वाटत	-2836
शकता	-2837
सद्य	-2838
्रोम	-2839
उद्भव	-2840
करिता	-2841
तापमा	-2842
दहावी	-2843
पाहता	-2844
लच्या	-2845
वयोगट	-2846
संचार	-2847
कदाचित	-2848
नव्हते	-2849
नियमित	-2850
मिळाला	-2851
साबणाने	-2852
टक्क्यां	-2853
लावण्यात	-2854
शैक्षणिक	-2855
सध्याच्या	-2856
वाजेपर्यंत	-2857
व्यतिरिक्त	-2858
आई	-2859
नै	-2860
वस	-2861
िस	-2862
अँड	-2863
अॅड	-2864
ठरू	-2865
मधु	-2866
यची	-2867
साव	-2868
हवी	-2869
अद्य	-2870
इंग्	-2871
गोळा	-2872
ग्री	-2873
जेणे	-2874
नशील	-2875
मनात	-2876
राहा	-2877
ल्हे	-2878
संकल	-2879
समान	-2880
सर्ग	-2881
घेतले	-2882
जन्सी	-2883
जाणून	-2884
यांचं	-2885
सामना	-2886
अहवाला	-2887
कंट्रो	-2888
नोव्हे	-2889
बाजूला	-2890
महानगर	-2891
तातडीने	-2892
नेटवर्क	-2893
सोसायटी	-2894
कोरोनाचे	-2895
घराबाहेर	-2896
प्रतिकारक	-2897
असल्यामुळे	-2898
महत्त्वाचे	-2899
रुग्णालयांमध्ये	-2900
एं	-2901
गॅ	-2902
छा	-2903
फू	-2904
बद	-2905
्म	-2906
ंडे	-2907
खबर	-2908
चंड	-2909
ताण	-2910
संघ	-2911
हीत	-2912
उभार	-2913
ऑक्ट	-2914
क्रो	-2915
देणे	-2916
नमूद	-2917
निका	-2918
फोर्	-2919
साधन	-2920
असोसि	-2921
ड्राय	-2922
फेक्ट	-2923
बंगाल	-2924
मधुमे	-2925
योजने	-2926
इतक्या	-2927
जणांना	-2928
न्याया	-2929
प्रचंड	-2930
फार्मा	-2931
ब्रिटन	-2932
मार्गा	-2933
लक्षणी	-2934
हळूहळू	-2935
होणारा	-2936
एकत्रित	-2937
ऑक्टोबर	-2938
क्टिव्ह	-2939
खबरदारी	-2940
प्रवासी	-2941
प्रोटीन	-2942
मराठीशी	-2943
ांपासून	-2944
कारणीभूत	-2945
निर्जंतु	-2946
सर्वांना	-2947
आजाराच्या	-2948
उपाययोजना	-2949
यासंदर्भात	-2950
महत्त्वाच्या	-2951
ct	-2952
पन	-2953
फट	-2954
कृत	-2955
खाज	-2956
जनु	-2957
पडू	-2958
पान	-2959
मंग	-2960
लग्	-2961
वैय	-2962
सुट	-2963
आमची	-2964
करेल	-2965
जनरल	-2966
टाळे	-2967
पेपर	-2968
वादी	-2969
विनं	-2970
सूचन	-2971
हृदय	-2972
आयोगा	-2973
कॉलेज	-2974
ठेवणे	-2975
नमुना	-2976
निगेट	-2977
लागले	-2978
वल्या	-2979
शील्ड	-2980
सक्षम	-2981
सदस्य	-2982
सूक्ष	-2983
स्वयं	-2984
हजारो	-2985
होतील	-2986
▁¦22¦	-2987
ंड्रोम	-2988
उपक्रम	-2989
निवडणु	-2990
न्सिंग	-2991
मंजुरी	-2992
यापैकी	-2993
विक्री	-2994
व्याया	-2995
संघटना	-2996
ब्राझील	-2997
वाढत्या	-2998
सरकारची	-2999
जेणेकरून	-3000
टाळेबंदी	-3001
दिवसांचा	-3002
कार्यालया	-3003
निगेटिव्ह	-3004
मुलांच्या	-3005
डॉक्टरांनी	-3006
सामान्यपणे	-3007
महिन्याच्या	-3008
on	-3009
इड	-3010
ईड	-3011
कौ	-3012
अचा	-3013
कॅन	-3014
बाय	-3015
रेख	-3016
शेत	-3017
गेलं	-3018
गोवा	-3019
जाता	-3020
ठाणे	-3021
तुकी	-3022
रावर	-3023
अचानक	-3024
निकाल	-3025
मॉडर्	-3026
ल्यां	-3027
विषयक	-3028
वेळेत	-3029
साधला	-3030
अंदाजे	-3031
नव्हता	-3032
मिळणार	-3033
विनंती	-3034
केल्यास	-3035
सूक्ष्म	-3036
घेणाऱ्या	-3037
संघटनेने	-3038
केंद्राने	-3039
झपाट्याने	-3040
शुक्रवारी	-3041
राज्यांमध्ये	-3042
डॅ	-3043
सव	-3044
ीट	-3045
ॅब	-3046
कठी	-3047
खंड	-3048
टीस	-3049
नर्	-3050
शब्	-3051
असला	-3052
कठीण	-3053
किलो	-3054
जरात	-3055
जोशी	-3056
मुले	-3057
मोफत	-3058
मोबा	-3059
यूके	-3060
क्तिक	-3061
दुकान	-3062
नेहमी	-3063
फायदा	-3064
वृद्ध	-3065
व्यात	-3066
्रिया	-3067
▁¦21¦	-3068
▁¦45¦	-3069
अमेरिक	-3070
आयोजित	-3071
इफेक्ट	-3072
णासाठी	-3073
दक्षता	-3074
पदार्थ	-3075
फ्ल्यु	-3076
शस्त्र	-3077
सरासरी	-3078
साथीचा	-3079
होणारी	-3080
मागच्या	-3081
मेट्रिक	-3082
व्यवसाय	-3083
असोसिएशन	-3084
निरीक्षण	-3085
वैयक्तिक	-3086
प्रक्रिये	-3087
भारतामध्ये	-3088
वर्षांवरील	-3089
कोव्हिशिल्ड	-3090
त्यांच्यावर	-3091
दिवसांपूर्वी	-3092
टॉ	-3093
ोल	-3094
ंडर	-3095
आटो	-3096
उचल	-3097
कसे	-3098
कित	-3099
गोप	-3100
चना	-3101
चेन	-3102
नास	-3103
निम	-3104
यचं	-3105
वटे	-3106
वता	-3107
साख	-3108
सिं	-3109
सिन	-3110
ियन	-3111
इमार	-3112
औषधं	-3113
काला	-3114
गर्भ	-3115
गायक	-3116
जिकल	-3117
राही	-3118
रोजग	-3119
लाईन	-3120
कारणं	-3121
किंमत	-3122
खाजगी	-3123
गावात	-3124
राहुल	-3125
वाढते	-3126
वेगळी	-3127
काच्या	-3128
छोट्या	-3129
ध्यक्ष	-3130
पुरावे	-3131
म्युनि	-3132
वेंद्र	-3133
वैज्ञा	-3134
व्यापक	-3135
इंग्लंड	-3136
गायकवाड	-3137
वाहतुकी	-3138
होण्यास	-3139
मुंबईतील	-3140
ल्यामुळे	-3141
शरीरातील	-3142
साठीच्या	-3143
ांपेक्षा	-3144
नोव्हेंबर	-3145
प्रॅक्टिस	-3146
मुलांसाठी	-3147
डॉक्टरांना	-3148
नागरिकांनी	-3149
प्रवाशांना	-3150
कोव्हिशील्ड	-3151
रुग्णालयाच्या	-3152
ge	-3153
ii	-3154
mr	-3155
ps	-3156
कँ	-3157
ऩ्	-3158
षा	-3159
है	-3160
१३	-3161
अधि	-3162
अली	-3163
गेच	-3164
चूक	-3165
जम्	-3166
दंड	-3167
नार	-3168
बुध	-3169
लेय	-3170
सोप	-3171
हवं	-3172
आपला	-3173
गुंत	-3174
घरीच	-3175
घेणे	-3176
ट्रा	-3177
नर्स	-3178
मोठं	-3179
यादी	-3180
रोधी	-3181
लगेच	-3182
लन्स	-3183
वर्ण	-3184
वाढी	-3185
संधी	-3186
झालाय	-3187
परिसर	-3188
मानले	-3189
वस्था	-3190
वास्त	-3191
शकतील	-3192
सर्वो	-3193
केच्या	-3194
गुजरात	-3195
ट्रायल	-3196
लशींचा	-3197
पाहायला	-3198
ांनुसार	-3199
अमेरिकेत	-3200
एप्रिलला	-3201
रुग्णांचे	-3202
विभागाच्या	-3203
कोव्हिडच्या	-3204
0.	-3205
an	-3206
बँ	-3207
▁•	-3208
कशा	-3209
डिज	-3210
थंड	-3211
नवे	-3212
नाट	-3213
नाथ	-3214
पडत	-3215
अखेर	-3216
कॅलि	-3217
ट्रॅ	-3218
ड्रॉ	-3219
णाचा	-3220
प्लॅ	-3221
येणं	-3222
रोधक	-3223
शकेल	-3224
शहरा	-3225
शिंक	-3226
श्री	-3227
संजय	-3228
संबो	-3229
असणार	-3230
काढून	-3231
केलंय	-3232
कोविन	-3233
प्राय	-3234
महिने	-3235
लशीचं	-3236
वाढला	-3237
शालेय	-3238
संख्य	-3239
साखळी	-3240
उल्लेख	-3241
कचऱ्या	-3242
जणांचा	-3243
प्रकरण	-3244
येत्या	-3245
उत्पन्न	-3246
अभ्यासात	-3247
कॅलिफोर्	-3248
सिंड्रोम	-3249
त्यानुसार	-3250
दिल्यानंतर	-3251
अधिकाऱ्यांनी	-3252
सुरुवातीच्या	-3253
ळं	-3254
अंश	-3255
अग्	-3256
अदर	-3257
एकी	-3258
काग	-3259
घडी	-3260
तित	-3261
नंद	-3262
नको	-3263
फॉर	-3264
मरण	-3265
लॅब	-3266
वसई	-3267
कक्ष	-3268
गुरु	-3269
गोंध	-3270
टेन्	-3271
ड्डा	-3272
मंगळ	-3273
लेलं	-3274
साईट	-3275
सुना	-3276
सेंट	-3277
ग्राह	-3278
घोषित	-3279
पालघर	-3280
बहुते	-3281
लशीला	-3282
ळ्यात	-3283
विश्व	-3284
अर्थात	-3285
एकीकडे	-3286
गरजेचे	-3287
टफॉर्म	-3288
मार्फत	-3289
जबाबदार	-3290
लोकांचा	-3291
केंद्रात	-3292
कोरोनावर	-3293
देणाऱ्या	-3294
देवेंद्र	-3295
विभागाचे	-3296
प्रतिनिधी	-3297
म्हणाल्या	-3298
संचारबंदी	-3299
होण्यासाठी	-3300
कोव्हॅक्सीन	-3301
रुग्णसंख्ये	-3302
रूग्णांच्या	-3303
व्हेंटिलेटर्स	-3304
il	-3305
डू	-3306
बघ	-3307
ौर	-3308
जिओ	-3309
टोच	-3310
रेज	-3311
शिव	-3312
सेट	-3313
आरटी	-3314
इतका	-3315
इतके	-3316
खोली	-3317
दुसर	-3318
पियन	-3319
राहू	-3320
लढाई	-3321
वाणू	-3322
वादा	-3323
शब्द	-3324
स्पि	-3325
हस्त	-3326
▁¦11	-3327
आलेलं	-3328
उड्डा	-3329
करतील	-3330
जम्बो	-3331
पुरात	-3332
शोधून	-3333
सांगत	-3334
सामान	-3335
्यावर	-3336
▁¦27¦	-3337
केलेला	-3338
ण्याने	-3339
वापरून	-3340
वृत्ती	-3341
समुदाय	-3342
अमेरिका	-3343
परिवर्त	-3344
प्रकरणे	-3345
बातम्या	-3346
मूल्यां	-3347
व्यायाम	-3348
कार्यकर्	-3349
रुग्णाला	-3350
संस्थेने	-3351
पुण्यातील	-3352
व्यक्तीच्या	-3353
ँग	-3354
३०	-3355
ंदू	-3356
आघा	-3357
उलट	-3358
जलद	-3359
टर्	-3360
टाई	-3361
डेट	-3362
त्य	-3363
पुट	-3364
पॅन	-3365
मनो	-3366
वते	-3367
सभा	-3368
हाल	-3369
ंडवे	-3370
आमचा	-3371
आश्र	-3372
कँडी	-3373
गाडी	-3374
त्ती	-3375
दैनं	-3376
पीपी	-3377
बिघड	-3378
रंगा	-3379
वासा	-3380
विमा	-3381
विले	-3382
शारी	-3383
सेल्	-3384
स्ना	-3385
अडथळा	-3386
असेही	-3387
छातीत	-3388
देणार	-3389
युनिट	-3390
स्वॅब	-3391
िकारी	-3392
▁¦13¦	-3393
आयसीयू	-3394
गोपनीय	-3395
डिजिटल	-3396
भोंडवे	-3397
रक्तात	-3398
लागतात	-3399
विशेषत	-3400
सर्गिक	-3401
सहाय्य	-3402
साठीची	-3403
साथरोग	-3404
अमेरिकन	-3405
उत्पादक	-3406
परिणामी	-3407
वैशिष्ट	-3408
्टीबॉडी	-3409
आटोक्यात	-3410
जाण्याची	-3411
त्यापैकी	-3412
बंधनकारक	-3413
येण्याची	-3414
लशींच्या	-3415
त्याशिवाय	-3416
नियंत्रित	-3417
प्रावस्था	-3418
सर्वेक्षण	-3419
सातत्याने	-3420
हर्षवर्धन	-3421
उपचारांसाठी	-3422
उपमुख्यमंत्री	-3423
ht	-3424
us	-3425
कण	-3426
घन	-3427
ढा	-3428
रळ	-3429
वन	-3430
सळ	-3431
१६	-3432
२५	-3433
ंटी	-3434
आखा	-3435
एऩ्	-3436
जमा	-3437
जुर	-3438
तोड	-3439
देव	-3440
नक्	-3441
नुक	-3442
मेल	-3443
रहा	-3444
ाने	-3445
इतकं	-3446
कल्प	-3447
धुवा	-3448
प्ला	-3449
फटका	-3450
फोटो	-3451
भविष	-3452
मदती	-3453
मिळव	-3454
लग्न	-3455
वाहि	-3456
विजय	-3457
सीमा	-3458
स्पा	-3459
ांती	-3460
आफ्रि	-3461
ठेवून	-3462
दिष्ट	-3463
पीपीई	-3464
राहील	-3465
सारखा	-3466
▁¦29¦	-3467
इंडियन	-3468
दिवाळी	-3469
मागोवा	-3470
यानंतर	-3471
वटवाघळ	-3472
विकासा	-3473
व्हर्स	-3474
होताना	-3475
ट्रान्स	-3476
तात्पुर	-3477
प्रवेशा	-3478
याशिवाय	-3479
लक्षणीय	-3480
लोकांचं	-3481
स्टेट्स	-3482
स्वीकार	-3483
जिल्ह्या	-3484
दृष्टीने	-3485
नैसर्गिक	-3486
विभागाने	-3487
आणण्यासाठी	-3488
न्यूमोनिया	-3489
शहरांमध्ये	-3490
सेंटरमध्ये	-3491
ऑक्सिजनच्या	-3492
प्रतिक्रिया	-3493
कॅलिफोर्निया	-3494
रोगप्रतिकारक	-3495
iv	-3496
एफ	-3497
बू	-3498
ुं	-3499
50¦	-3500
ंदर	-3501
अवय	-3502
आणी	-3503
उशी	-3504
गमा	-3505
तंय	-3506
ताब	-3507
दाब	-3508
दोघ	-3509
पोट	-3510
भ्र	-3511
यिक	-3512
रीस	-3513
षित	-3514
सोल	-3515
ह्र	-3516
▁.'	-3517
आलाय	-3518
एक्स	-3519
करीत	-3520
क्ति	-3521
डब्ल	-3522
डीसी	-3523
दुष्	-3524
देऊन	-3525
माला	-3526
वरही	-3527
वेगा	-3528
सगळी	-3529
समूह	-3530
सोला	-3531
▁¦2.	-3532
ंपैकी	-3533
अश्या	-3534
आघाडी	-3535
कऱ्या	-3536
कांचा	-3537
काहीच	-3538
कुटुं	-3539
कोरडे	-3540
कोसिस	-3541
पत्रं	-3542
पद्धत	-3543
बोर्ड	-3544
माहीत	-3545
युरोप	-3546
समुदा	-3547
स्कार	-3548
▁¦26¦	-3549
आल्यास	-3550
द्यावी	-3551
पोशिंद	-3552
मोबाईल	-3553
रोगजनक	-3554
वापरले	-3555
आजाराची	-3556
आणीबाणी	-3557
ऑस्ट्रे	-3558
खान्यात	-3559
त्यातील	-3560
दैनंदिन	-3561
लोकांचे	-3562
सामायिक	-3563
देण्याचा	-3564
नियमांचं	-3565
महिन्यां	-3566
युरोपियन	-3567
स्वतंत्र	-3568
ऑस्ट्रेलि	-3569
करोनामुळे	-3570
पृष्ठभागा	-3571
लॉकडाऊनची	-3572
वयोगटातील	-3573
विषाणूमुळे	-3574
अधिकाऱ्यांना	-3575
फेब्रुवारीला	-3576
वर्षांपेक्षा	-3577
उभ	-3578
गम	-3579
झी	-3580
तम	-3581
फी	-3582
फॅ	-3583
रत	-3584
आदी	-3585
उतर	-3586
एअर	-3587
एसी	-3588
जेन	-3589
तार	-3590
देह	-3591
पोह	-3592
फेस	-3593
रुष	-3594
लाई	-3595
लात	-3596
लूक	-3597
अवयव	-3598
आकार	-3599
एकही	-3600
औषधे	-3601
कुणा	-3602
कुणी	-3603
देता	-3604
द्रव	-3605
धानी	-3606
पसरत	-3607
प्रौ	-3608
मेडि	-3609
मोठे	-3610
लूकस	-3611
विकत	-3612
स्टि	-3613
हानी	-3614
आढळला	-3615
आपात्	-3616
कार्ड	-3617
गुंता	-3618
गोंधळ	-3619
ट्रेन	-3620
ट्विट	-3621
पुरुष	-3622
वर्गा	-3623
विरार	-3624
सायटो	-3625
सुविध	-3626
आपत्ती	-3627
ण्यावर	-3628
प्रथिन	-3629
मधुमेह	-3630
वेगानं	-3631
शिक्षक	-3632
्यांचे	-3633
नमुन्या	-3634
प्रस्ता	-3635
बाजारात	-3636
मध्येही	-3637
यांनीही	-3638
लशीमुळे	-3639
उपलब्धता	-3640
उपाययोजन	-3641
क्षेत्रा	-3642
जिल्ह्य़	-3643
देशाच्या	-3644
मायकोसिस	-3645
यापूर्वी	-3646
रोगाच्या	-3647
सरकारकडे	-3648
कुठल्याही	-3649
लोकांसाठी	-3650
धुण्याच्या	-3651
रूग्णालयात	-3652
सुरक्षितता	-3653
गेल्यावर्षी	-3654
मंत्र्यांनी	-3655
मिळवण्यासाठी	-3656
रुग्णालयांना	-3657
ar	-3658
ईक	-3659
डन	-3660
धि	-3661
पथ	-3662
लै	-3663
११	-3664
▁]	-3665
▁–	-3666
-19	-3667
win	-3668
आगी	-3669
इथं	-3670
कडॉ	-3671
कात	-3672
खेळ	-3673
गरी	-3674
घसा	-3675
टेन	-3676
दबा	-3677
पटी	-3678
पाव	-3679
पॉल	-3680
भाल	-3681
र्य	-3682
लंय	-3683
लॉक	-3684
सवि	-3685
सूद	-3686
सें	-3687
किरा	-3688
केरळ	-3689
ड्डी	-3690
धोरण	-3691
नाचे	-3692
पचार	-3693
पोहच	-3694
प्ता	-3695
प्पी	-3696
प्री	-3697
बोलत	-3698
भाजी	-3699
र्टा	-3700
लांट	-3701
लिके	-3702
वाचा	-3703
श्रे	-3704
सादा	-3705
सुपर	-3706
िमंड	-3707
अंतिम	-3708
आदेशा	-3709
औरंगा	-3710
कडॉऊन	-3711
कॅनडा	-3712
डोसेस	-3713
नक्की	-3714
नातील	-3715
पक्षा	-3716
पावले	-3717
रहिवा	-3718
रेटरी	-3719
लावला	-3720
वाटते	-3721
वाढता	-3722
व्हरी	-3723
सोडून	-3724
ारावर	-3725
एजन्सी	-3726
करायची	-3727
कोडिंग	-3728
घ्यावा	-3729
जनुकीय	-3730
ज्याला	-3731
देखरेख	-3732
देशमुख	-3733
न्टिले	-3734
पुरेसा	-3735
प्लांट	-3736
सक्रिय	-3737
सिस्टम	-3738
▁¦2019	-3739
कोणतेही	-3740
तक्रारी	-3741
तात्काळ	-3742
दिवसाला	-3743
पाहिजेत	-3744
राजकारण	-3745
लॉकडॉऊन	-3746
विश्वास	-3747
सामग्री	-3748
सुरक्षे	-3749
उद्दिष्ट	-3750
गुरुवारी	-3751
झाल्यावर	-3752
ठाकरेंनी	-3753
तुटवड्या	-3754
फुफ्फुसा	-3755
विश्लेषण	-3756
संसर्गित	-3757
स्वच्छते	-3758
अॅक्टिव्ह	-3759
प्रतिसादा	-3760
प्रशिक्षण	-3761
राहणाऱ्या	-3762
न्युमोनिया	-3763
प्लॅटफॉर्म	-3764
कार्यक्षमता	-3765
लसीकरणाच्या	-3766
जिल्हाधिकारी	-3767
त्याचप्रमाणे	-3768
लोकसंख्येच्या	-3769
मुख्यमंत्र्यांनी	-3770
अह	-3771
ऑग	-3772
षी	-3773
ॉट	-3774
ॉन	-3775
५०	-3776
आंद	-3777
आशि	-3778
कोन	-3779
ग्ज	-3780
फरक	-3781
बरं	-3782
बार	-3783
िरी	-3784
अग्र	-3785
अचूक	-3786
ऑफिस	-3787
कर्स	-3788
तज्ञ	-3789
तेने	-3790
त्सा	-3791
पट्ट	-3792
पैसे	-3793
माझी	-3794
मिशन	-3795
व्हल	-3796
सगळं	-3797
सिका	-3798
सेरो	-3799
ोगिक	-3800
▁¦14	-3801
अंत्य	-3802
आंदोल	-3803
आरएनए	-3804
ऑगस्ट	-3805
घेणार	-3806
त्वचे	-3807
देतात	-3808
नाकार	-3809
नुकसा	-3810
याकडे	-3811
यातील	-3812
संकेत	-3813
सर्वच	-3814
हैदरा	-3815
कोर्टा	-3816
चांगला	-3817
तापमान	-3818
निमित्	-3819
रेड्डी	-3820
रेस्पि	-3821
विल्हे	-3822
स्थगित	-3823
▁¦200¦	-3824
▁¦2020	-3825
आजाराचा	-3826
क्रमांक	-3827
नामध्ये	-3828
म्हणूनच	-3829
वण्याची	-3830
घेण्याची	-3831
धोकादायक	-3832
प्रकारचे	-3833
प्रतिपिं	-3834
प्रदेशात	-3835
प्रमाणेच	-3836
प्रोत्सा	-3837
मृत्युदर	-3838
ांपर्यंत	-3839
¦	-3840
▁	-3841
ा	-3842
्	-3843
र	-3844
य	-3845
त	-3846
े	-3847
क	-3848
ी	-3849
स	-3850
ल	-3851
न	-3852
ं	-3853
ि	-3854
व	-3855
ह	-3856
म	-3857
च	-3858
ण	-3859
प	-3860
ो	-3861
आ	-3862
द	-3863
ग	-3864
ज	-3865
ु	-3866
.	-3867
ट	-3868
श	-3869
अ	-3870
ू	-3871
ध	-3872
ब	-3873
ड	-3874
,	-3875
ष	-3876
ळ	-3877
ठ	-3878
ख	-3879
भ	-3880
थ	-3881
उ	-3882
घ	-3883
ए	-3884
झ	-3885
ॉ	-3886
फ	-3887
-	-3888
0	-3889
1	-3890
ढ	-3891
2	-3892
इ	-3893
ई	-3894
ॅ	-3895
ऱ	-3896
ऊ	-3897
ृ	-3898
c	-3899
"	-3900
𐊣	-3901
𐊼	-3902
9	-3903
ै	-3904
i	-3905
o	-3906
)	-3907
(	-3908
ऑ	-3909
'	-3910
𐋇	-3911
s	-3912
r	-3913
5	-3914
?	-3915
a	-3916
ओ	-3917
3	-3918
4	-3919
v	-3920
e	-3921
d	-3922
:	-3923
१	-3924
8	-3925
ँ	-3926
7	-3927
6	-3928
२	-3929
०	-3930
ञ	-3931
t	-3932
n	-3933
औ	-3934
p	-3935
छ	-3936
h	-3937
ौ	-3938
m	-3939
%	-3940
४	-3941
३	-3942
५	-3943
ः	-3944
९	-3945
l	-3946
u	-3947
/	-3948
;	-3949
g	-3950
w	-3951
६	-3952
८	-3953
७	-3954
़	-3955
b	-3956
f	-3957
“	-3958
‘	-3959
’	-3960
!	-3961
y	-3962
ऐ	-3963
”	-3964
‍	-3965
ऩ	-3966
k	-3967
x	-3968
–	-3969
•	-3970
[	-3971
]	-3972
#	-3973
ऍ	-3974
$	-3975
z	-3976
ऋ	-3977
q	-3978
j	-3979
<	-3980
≥	-3981
>	-3982
+	-3983
*	-3984
ॲ	-3985
_	-3986
×	-3987
α	-3988
=	-3989
β	-3990
ऎ	-3991
—	-3992
~	-3993
ß	-3994
å	-3995
γ	-3996
