<pad>	0
</s>	0
<unk>	0
▁¦	-0
▁Ꭰ	-1
▁Ꭴ	-2
▁Ꮎ	-3
ᏍᎩ	-4
ᏍᏗ	-5
▁Ꭲ	-6
▁ᎠᎴ	-7
▁,	-8
▁ᎾᏍᎩ	-9
▁Ꭸ	-10
ꮝꭹ	-11
▁Ꮒ	-12
ꮝꮧ	-13
▁ᎨᏒ	-14
▁𐊣	-15
▁Ꮵ	-16
▁Ꭶ	-17
▁Ꮧ	-18
ꭰꮄ	-19
▁Ꭿ	-20
▁.	-21
ꮎꮝꭹ	-22
▁ᎯᎠ	-23
ᎵᏍ	-24
▁Ꮷ	-25
ꭸꮢ	-26
ᏅᎯ	-27
▁Ꮔ	-28
▁Ꭼ	-29
▁;	-30
▁ᎢᏳ	-31
▁Ᏹ	-32
▁Ꭱ	-33
ᏗᏱ	-34
▁ᎤᏁ	-35
▁Ꮪ	-36
▁Ꭵ	-37
ᏓᏁ	-38
▁ᎠᏂ	-39
ᏓᏅ	-40
▁ᎤᏂ	-41
ᏍᎬ	-42
▁Ꮕ	-43
ᏍᎦ	-44
ᎯᏳ	-45
▁Ꭳ	-46
▁ᎥᏝ	-47
ꭿꭰ	-48
▁ᎨᏒᎢ	-49
ꮅꮝ	-50
ᏰᏃ	-51
ᏪᏎ	-52
ᎳᏅᎯ	-53
▁ᎤᎾ	-54
▁Ꮥ	-55
▁Ꮣ	-56
ᏍᏛ	-57
▁Ꭺ	-58
▁ᎤᏁᎳᏅᎯ	-59
ꮕꭿ	-60
ᏙᏗ	-61
▁ᏂᎦ	-62
ꭲᏻ	-63
ᏍᏗᏱ	-64
ᏤᎵ	-65
ᎬᏫ	-66
▁Ꭹ	-67
ᏍᎨ	-68
ᎬᏫᏳ	-69
ᎨᏒ	-70
ᏍᎩᏂ	-71
▁Ꮳ	-72
ᏓᎴ	-73
ꮧᏹ	-74
ᏎᏍᏗ	-75
▁ᎬᏩ	-76
ꭴꮑ	-77
ᎸᎩ	-78
ᏍᎪ	-79
▁ᏥᏌ	-80
ᏴᏫ	-81
ꭼꮹ	-82
ᎬᏩ	-83
ᏍᏓ	-84
▁ᎩᎶ	-85
▁ᎠᏎ	-86
▁ᎢᎦ	-87
ᎬᏫᏳᎯ	-88
ᏍᏉ	-89
ꮒꭶ	-90
ᏛᏁ	-91
ꮣꮑ	-92
ᏙᎯ	-93
▁ᎾᏍᏉ	-94
ꮣꮕ	-95
ᎸᎯ	-96
ꭴꮒ	-97
ᏔᏅ	-98
▁ᏴᏫ	-99
ꮝꭼ	-100
ᎴᎢ	-101
▁ᎬᏂ	-102
ᎦᏔ	-103
ꭿᏻ	-104
▁ᎾᏍᎩᏯ	-105
ꮝꭶ	-106
ꭸꮢꭲ	-107
ꭵꮭ	-108
▁ᎠᏴ	-109
ᏍᏓᏁ	-110
▁ᎤᏪ	-111
ᏩᏛ	-112
▁Ꮻ	-113
ꭰꮒ	-114
ᎸᏉ	-115
▁Ꮏ	-116
ꭴꮎ	-117
ᏸꮓ	-118
ᏃᎮ	-119
ꮺꮞ	-120
ꮃꮕꭿ	-121
▁ᎢᏥ	-122
ᏒᎩ	-123
ᎶᎯ	-124
▁ᎿᏉ	-125
▁ᎨᏎᏍᏗ	-126
▁ᎢᏣ	-127
ᏗᏳ	-128
▁ᎠᏥ	-129
ᏎᎢ	-130
ꭸꮞ	-131
ᏍᎨᏍᏗ	-132
ᎨᏒᎾ	-133
▁ᏥᎩ	-134
▁ᏂᎨᏒᎾ	-135
▁ᎤᎬᏫᏳᎯ	-136
ꮝꮫ	-137
ꭴꮑꮃꮕꭿ	-138
▁ᏂᎯ	-139
ᏩᏗ	-140
ᏙᏗᏱ	-141
ᎲᎢ	-142
▁ᎠᏎᏃ	-143
▁ᎢᏳᏍᏗ	-144
ꮩꮧ	-145
ᎸᎢ	-146
ꮝꮧᏹ	-147
ᎦᎵᏍ	-148
▁Ꭷ	-149
ᏣᏘ	-150
ᎶᏁ	-151
ꮴꮅ	-152
ᎧᎿ	-153
ᏁᎢ	-154
ᎸᏫ	-155
ꭼꮻ	-156
ꮝꭸ	-157
ᎮᏍᏗ	-158
▁ᎾᎿ	-159
ꭼꮻᏻ	-160
ᎶᏁᏛ	-161
▁ᏄᏪᏎ	-162
ᎸᏫᏍᏓᏁ	-163
ᎳᏗ	-164
ᏍᏕ	-165
ᏄᎪ	-166
ᎯᏍᏗ	-167
ᏍᏆ	-168
ꮣꮄ	-169
▁ᎦᎶᏁᏛ	-170
▁ᎤᏲ	-171
ꮝꭹꮒ	-172
▁ᎠᎩ	-173
ᏙᏓ	-174
ᏰᎸ	-175
▁ᏱᎩ	-176
▁Ꮤ	-177
ꭶꮈ	-178
▁ᏧᎾ	-179
▁ᏂᏚ	-180
ᏅᏛ	-181
ᏔᏅᎯ	-182
ꮵꮜ	-183
ᎱᏍᏗ	-184
▁ᎤᏤᎵ	-185
ꮈꭹ	-186
▁ᎠᎾ	-187
ꮝꭺ	-188
ꮒꭸꮢ	-189
▁ᎪᎱᏍᏗ	-190
ᏼꮻ	-191
ᏰᎵ	-192
ᏍᎬᎢ	-193
ᎵᏍᏗ	-194
ꭹꮆ	-195
▁ᎠᏁ	-196
▁ᏅᏓ	-197
▁ᏂᎦᏛ	-198
▁ᎢᏨ	-199
▁Ꮽ	-200
▁?	-201
ꭰꮞ	-202
ꭸꮞꮝꮧ	-203
ᏓᏙ	-204
▁ᎣᏍᏛ	-205
ꮧꭶ	-206
ꮝꮣ	-207
▁Ꮜ	-208
ꭲꭶ	-209
ᏓᏅᏙ	-210
▁ᎾᏍᎩᏃ	-211
▁ᎤᏩ	-212
ꭼꮻᏻꭿ	-213
▁ᎠᏆ	-214
▁ᎢᏳᏃ	-215
▁ᎢᏯ	-216
▁ᎦᏙ	-217
ꮝꮙ	-218
▁ᎤᎵ	-219
ꮫꮑ	-220
▁Ꮶ	-221
▁ᏗᎦ	-222
ᏓᎵ	-223
▁Ꮮ	-224
ꮩꭿ	-225
ᏂᎪ	-226
ꮎꮝꮙ	-227
▁ᎠᏍᎦ	-228
▁ᏧᏂ	-229
ꮤꮕ	-230
ᏩᏗᏙᎯ	-231
ꮈꭿ	-232
ᎦᎵᏍᏙᏗ	-233
▁ᎿᏉᏃ	-234
ꮄꭲ	-235
▁ᎢᎬ	-236
ᎨᏳ	-237
ᏓᎴᏅᏛ	-238
ꮎꮝꭹꮿ	-239
ᏅᎩ	-240
▁ᎤᏙ	-241
ꮒꭿ	-242
ꭴꮺ	-243
ꭰᏼ	-244
ꮝꮣꮑ	-245
▁ᏗᎧᎿ	-246
ꮵꭹ	-247
▁ᏗᏂ	-248
▁ᎦᎸ	-249
ᎦᏘ	-250
ꮹꮫ	-251
▁ᎤᏪᏥ	-252
▁ᎾᏂ	-253
ꮓꭾ	-254
ᏴᏛ	-255
▁ᏞᏍᏗ	-256
▁ᎡᎶᎯ	-257
▁ᎦᎸᏉ	-258
ꮏꮙ	-259
ꮢꭹ	-260
ᏅᏏ	-261
ꮆꭿ	-262
▁-	-263
▁ᎤᏣᏘ	-264
ᏛᎦ	-265
ꭲꮳ	-266
ꭲꮵ	-267
▁ᎠᏏ	-268
▁ᎤᏩᏒ	-269
ᎴᎰ	-270
ꮧᏻ	-271
ꭰꮵ	-272
ᎶᏗ	-273
ꮝꭸꮝꮧ	-274
ᏒᎯ	-275
▁ᏂᎦᎥ	-276
▁ᎧᏃᎮ	-277
ꮒꭸꮢꮎ	-278
ꭴꭼꮻᏻꭿ	-279
ᏗᎦᎵᏍᏙᏗ	-280
▁Ᏻ	-281
▁ᏚᏂ	-282
ᎷᏤ	-283
ᎲᎩ	-284
ᏒᎢ	-285
▁ᏄᏂ	-286
▁Ꮿ	-287
ꮹꮧ	-288
ꭲᏻꮝꮧ	-289
ꭶꮆ	-290
▁ᏂᏚᏪᏎ	-291
ᏅᎢ	-292
ꭺꭿ	-293
ᎪᎯ	-294
ᏓᏂ	-295
ᎵᏍᏓ	-296
ꮩꮧᏹ	-297
ꮂꭲ	-298
ꭰꮞꮓ	-299
▁ᎨᏥ	-300
▁ᏔᎵ	-301
ᏙᎥ	-302
ꭶꮤ	-303
▁ᎬᏂᎨᏒ	-304
ᎳᏫ	-305
ᏁᎸ	-306
▁ᎤᏙᎯᏳ	-307
ꮈꭲ	-308
▁ᎠᎦ	-309
ꮳꮨ	-310
ꮔꮺꮞ	-311
▁ᎯᎠᏃ	-312
▁ᏅᏩ	-313
ᏳᎪ	-314
▁ᎢᏳᎵᏍ	-315
▁[	-316
▁ᎠᏓᏅᏙ	-317
ᏴᎵ	-318
ꭷꮏ	-319
ᏍᏆᏂᎪ	-320
▁ᏄᏍᏛ	-321
ꮕꮫ	-322
ꮑꭲ	-323
▁ᎧᏃᎮᏛ	-324
ꮑꮫ	-325
ꭾꮝꮧ	-326
ꭶꮩ	-327
▁ᎣᏏ	-328
▁ᎠᏥᎸ	-329
ᏨᎯ	-330
ꮎꮏ	-331
ᏙᎴᎰ	-332
▁ᎠᏓ	-333
▁ᎦᎸᏉᏗᏳ	-334
ꮻꮝꮣꮑ	-335
ꭰꭹ	-336
▁ᎤᏟ	-337
ꭴᏺ	-338
ꭶꮆꮑꮫ	-339
ᏗᏢ	-340
ꮃꮧ	-341
ꮝꮥ	-342
ᎬᎢ	-343
ꮔꭺ	-344
ᏲᎱ	-345
ꭸꮵ	-346
ꮕꮣ	-347
ꭰꮑ	-348
ꮝꮖ	-349
▁ᏰᎵ	-350
▁Ꮴ	-351
ꮒꮪ	-352
▁ᎾᎯᏳ	-353
▁ᏅᏗᎦᎵᏍᏙᏗ	-354
ᏹꭹ	-355
ᏓᏅᏖ	-356
ꮷꮎ	-357
ᏛᎢ	-358
▁ᎣᏏᏳ	-359
ᏸꮈ	-360
ꮩꮣ	-361
▁ᏗᎧᎿᏩᏛ	-362
ᏔᏂ	-363
ᏄᎪᏫ	-364
▁ᎪᎯ	-365
ᎵᏍᏓᏴ	-366
▁ᎢᏴᏛ	-367
▁ᎢᎬᏱ	-368
ꭼꮒ	-369
ᏍᏙᏗ	-370
▁ᎦᎸᎳᏗ	-371
ᎵᏍᏓᏁ	-372
ᎲᎾ	-373
ᎲᏍᎩ	-374
▁Ꮩ	-375
▁ᎤᏕ	-376
ᏩᏂ	-377
▁ᎢᎩ	-378
ꮤꮕꭿ	-379
ᎨᏥ	-380
ᏔᏅᎩ	-381
ꮁꮝꮧ	-382
ᎨᏍᏗ	-383
ꭴꮴꮅ	-384
ᏪᏒᎩ	-385
▁ᎤᏅ	-386
▁ᎦᏚ	-387
▁ᎤᏙᎯᏳᎯ	-388
ꮕꭹ	-389
ꮅꮝꮩꮧ	-390
ꭰꮎ	-391
▁ᎾᏂᎥ	-392
ꭺꮁꮝꮧ	-393
▁ᏗᎧᎿᏩᏛᏍᏗ	-394
ᏐᎢ	-395
▁ᏚᎾ	-396
▁ᎠᏍᎦᏯ	-397
ᏸꮅ	-398
▁ᏌᏉ	-399
ꮣꮒ	-400
ᏂᎩ	-401
ᎦᏔᎭ	-402
ꮝꭼꭲ	-403
ᎷᏨ	-404
ᏔᏁ	-405
ꮅꮝꮧ	-406
ᏤᎵᎦ	-407
▁ᏱᎨ	-408
ꭿꮝꮧ	-409
ꮒꭶꮫ	-410
ᏍᎦᏅ	-411
▁ᎡᎯ	-412
▁ᎢᏤ	-413
▁ᎤᏬ	-414
▁ᏄᏪᏎᎢ	-415
ᎢᏍᏗᏱ	-416
▁ᎤᏤᎵᎦ	-417
ᏏᎵ	-418
▁Ꭽ	-419
▁Ꮘ	-420
ᏍᎨᎢ	-421
▁ᎤᏚ	-422
ᏍᎪᎢ	-423
ꮈꮻꮝꮣꮑ	-424
▁ᏅᏓᏳ	-425
ᏍᏓᏩᏗᏙᎯ	-426
ꭲꮸ	-427
ᏍᎬᎩ	-428
▁ᏕᏥ	-429
ᏗᏍᎩ	-430
▁ᏂᎬ	-431
▁ᏄᎵᏍ	-432
ᏓᏙᎵᏍᏗ	-433
ꭳꮝꮫ	-434
▁ᎢᏧ	-435
ᎮᎢ	-436
ꮣꮩ	-437
ᏍᏚ	-438
ᏕᎸ	-439
ᏳᏉ	-440
ᏛᎩ	-441
ᎯᏍᏗᏱ	-442
▁ᎡᏥ	-443
▁ᏍᎩ	-444
ꮎꮝꭹꮓ	-445
ꮣꮕꮩ	-446
ꭴꮹ	-447
ᏳᎪᏛ	-448
▁ᎬᏂᏳᏉ	-449
ꭴꮅ	-450
ᏓᏍᏗ	-451
ꭰꮖ	-452
ᎢᏳ	-453
ꭲꮿ	-454
ꭲᏻꮓ	-455
ꮣꮅ	-456
ᏁᎸᎯ	-457
▁ᏥᏌᏃ	-458
ᏅᏟ	-459
ꭴꮩ	-460
▁ᏕᏣ	-461
ꭰꮝꭶ	-462
ᎨᏴ	-463
ᏕᎩ	-464
ᏧᏏ	-465
ᎪᎸ	-466
▁ᎢᏳᎵᏍᏙᏗᏱ	-467
ᏲᎵ	-468
ꮒꭼ	-469
ᏔᏁᎢ	-470
ᏪᎵ	-471
ᏴᎵᎨ	-472
ꭶꮈꮙ	-473
▁Ꮭ	-474
▁ᏗᏥ	-475
ꮹꮧꮩꭿ	-476
ᏁᏗᏱ	-477
ꮏꮙꮓ	-478
ꮅꮝꮣ	-479
ᏲᎯ	-480
ꮷꮒ	-481
ꭲꭼ	-482
ꭸᏻ	-483
ꮮꮝꮧ	-484
ꮣꮄꮕꮫ	-485
ᏬᏂ	-486
ꮤꮅ	-487
▁ᏗᏣ	-488
▁ᎤᏂᏣᏘ	-489
▁ᎤᎵᏍ	-490
ꮧꭷꮏ	-491
▁ᎤᏓ	-492
ᏁᏤ	-493
ᏕᏲ	-494
▁ᏕᎦ	-495
ꮎꮒ	-496
▁ᎨᏎᎢ	-497
ᏗᎦ	-498
▁ᎤᎬᏩ	-499
ᎾᏛ	-500
ꮪꮒ	-501
ꮧꮒ	-502
ᏟᎶ	-503
▁ᏥᏂ	-504
ᎵᏏ	-505
ᏗᎭ	-506
ᏲᏎ	-507
ꭴꮺꮵ	-508
ꭰꮟ	-509
▁ᎪᎯᏳ	-510
ᏼꮫ	-511
ꭱꮆꭿ	-512
▁ᎤᏃ	-513
▁ᎠᏁᎯ	-514
ꮒꭺ	-515
ꮕꮟ	-516
▁ᏂᏥ	-517
ᎵᏰ	-518
ꭴꮳꮨ	-519
▁ᏚᏳᎪᏛ	-520
ᏓᏡ	-521
▁Ꮹ	-522
ꮞꭲ	-523
ꭰꮵꮈ	-524
ᏉᎳ	-525
ꮫꭶ	-526
▁ᎦᎵ	-527
▁ᎠᏂᏧᏏ	-528
ꮕꮹ	-529
ꭴꮹꮢ	-530
ꮄꮀ	-531
ᏪᎳ	-532
▁ᏂᏣ	-533
▁ᏥᎪ	-534
ꭷꮓꭾ	-535
▁ᏧᏓᎴᏅᏛ	-536
ᎰᎢ	-537
▁ᎤᏛ	-538
▁ᏔᎵᏁ	-539
ᎬᏫᏳᏒ	-540
ꮧꭶꮅꮝꮩꮧ	-541
▁ᎬᏩᏍᏓᏩᏗᏙᎯ	-542
ꮒꭶꭵ	-543
▁ᎢᏧᎳ	-544
ᎸᏗ	-545
▁ᏥᎨ	-546
ᎪᎲ	-547
ꮢꭿ	-548
▁ᏓᏂ	-549
▁ᏣᏂ	-550
▁ᎤᎬᏩᎵ	-551
ᏁᏗ	-552
▁ᏧᏪ	-553
ᏓᏗ	-554
ᏙᎵ	-555
ꮔꮒ	-556
ꮒꮪꮺꮞ	-557
▁Ꮸ	-558
ꮇꮴ	-559
ꭶꮪ	-560
ꮂꭹ	-561
ꮆꮧ	-562
ꮢꭲ	-563
▁ᎣᎩ	-564
▁ᏂᏨ	-565
▁ᎤᏓᏅ	-566
▁ᏉᎳ	-567
▁ᎢᏳᎾ	-568
▁ᎨᏒᎩ	-569
ᏛᏃ	-570
ꭶꮨ	-571
ᏍᎬᎾ	-572
ꭸꮞꭲ	-573
ꮕꮧꭶꮅꮝꮩꮧ	-574
ᏯᏅ	-575
ᎳᏫᎢᏍᏗᏱ	-576
ꮕꭲ	-577
▁ᎦᎪ	-578
▁ᏈᏓ	-579
ᏁᎶᏗ	-580
▁ᎤᎵᏂᎩ	-581
ᎧᎵ	-582
ᎵᏥ	-583
▁ᏂᎪᎯ	-584
ᏌᏛ	-585
ᏍᎪᎯ	-586
ᎵᏲ	-587
ᎾᏫ	-588
▁Ꮫ	-589
ꭼꮒꭸꮢ	-590
ꮃꮻ	-591
ꮑꮈ	-592
ᎮᎵ	-593
ᏻꭺ	-594
ꭴꮩꭿᏻ	-595
▁ᏂᏚᏪᏎᎴᎢ	-596
ᏁᎭ	-597
ᏙᎴᎰᏍᎩ	-598
ꭿꭰꮓ	-599
ꮔꮝꮫ	-600
ᏅᏏᏛ	-601
▁ᏄᎾ	-602
ꭰꮣꮕꮩ	-603
▁ᏄᏪᏒᎩ	-604
▁ᎠᎹ	-605
▁ᎬᏗ	-606
▁ᎦᏙᏃ	-607
ꮅꮝꮣꮑ	-608
ᏅᏏᏓᏍᏗ	-609
▁ᎤᏙᎯᏳᎯᏯ	-610
ᏼꮅ	-611
ꭰꮣ	-612
ꭷꮓꭾꮫ	-613
ᎢᏍᏗ	-614
▁ᎢᎨ	-615
▁ᎤᏁᏨ	-616
ꮝꮖꮒꭺ	-617
ᏄᏬ	-618
ᏍᏙᏗᏱ	-619
▁ᏄᏪᏎᎴᎢ	-620
ꭳꮟ	-621
▁Ᏼ	-622
▁ᎤᏰᎸ	-623
ꭶꮈꮙꮧᏻ	-624
ꭴꮯ	-625
ꭶꮅ	-626
▁ᎤᎩ	-627
▁ᏝᏍᎪ	-628
ᏁᎵ	-629
ꮸꭿ	-630
▁ᏥᎷ	-631
ꭺꮺ	-632
ꮅꮝꮩꮧᏹ	-633
ᏒᏃ	-634
▁Ꮡ	-635
▁ᏱᏥ	-636
▁ᎤᏲᎱ	-637
ꮎꭿᏻ	-638
ꮧꮲ	-639
ᎦᏘᏯ	-640
ꮩꮄꮀ	-641
▁ᎠᏂᏍᎦ	-642
ᎪᎢ	-643
ᏏᎵᎻ	-644
ꮅꮝꮣᏼ	-645
ꮪꮎ	-646
ᎴᏅ	-647
ᏺꮁ	-648
ᎥᎢ	-649
ᏍᏙ	-650
ᏯᏛ	-651
ᎬᎩ	-652
ᏂᏴ	-653
ꭼꭲ	-654
▁ᏦᎢ	-655
ꮣꮕꮦ	-656
▁ᎢᏧᎳᎭ	-657
▁ᏥᎷᏏᎵᎻ	-658
ᏉᏃ	-659
ꮈꮙ	-660
ꮫꭲ	-661
▁ᎩᎳ	-662
ꭳꮟᏻ	-663
▁ᏗᎬᏩ	-664
ꮧꭷꮏꮹꮫ	-665
ꮔꭺꮻ	-666
ꭶꮈꮃꮧ	-667
ᎦᎸ	-668
ꭲᏼꮫ	-669
ꭲꭼᏹ	-670
▁ᎢᏳᏩᏂ	-671
▁ᎪᎯᏳᏗ	-672
ᎫᏴ	-673
ꮝꮩꮧ	-674
ᎵᏍᎪᎸ	-675
▁Ꮖ	-676
ꭱꭿ	-677
▁ᎡᏍᎦ	-678
▁ᏣᎬᏫᏳᎯ	-679
ꮤꮒ	-680
▁ᎡᏣ	-681
▁ᎣᎦ	-682
ꮂꮝꭹ	-683
ꭴꮥ	-684
ꮂꮎ	-685
ᏂᎬ	-686
▁ᎠᎨᏴ	-687
▁ᏂᏚᏪᏎᎸᎩ	-688
ꭴꮕ	-689
ꮧꮵ	-690
▁ᏙᏓ	-691
▁ᎤᏅᏒ	-692
▁ᎬᏂᏛ	-693
ᏗᏔ	-694
ꭲꭹ	-695
ꮔꮅꮝ	-696
ꮤꮕꭹ	-697
ᏪᏎᎸᎩ	-698
▁ᎠᏰᎵ	-699
ꮔꮺꮞꭲ	-700
▁ᏅᏩᏓᎴ	-701
ꭸꮝꮧ	-702
▁ᎢᏯᏂ	-703
▁ᎾᏍᎩᏰᏃ	-704
ꭰꭶ	-705
ꮎꮒꭵ	-706
ᎲᏍᎦ	-707
ꮧꮝꭹ	-708
ꮺꮢꭹ	-709
ꭴꮩꭿᏻꭿ	-710
▁ᏄᏪᏎᎸᎩ	-711
ꭰꮝꭶꮿ	-712
ᎬᎾ	-713
ᏩᏘ	-714
ᏍᎩᎾ	-715
▁ᏗᏓ	-716
▁ᎠᎦᏔ	-717
ꮧꭷꮏꮹꮫꮝꮧ	-718
ꮥꮳ	-719
ꮥꮵ	-720
▁ᎤᏣ	-721
ꮜꮙ	-722
ꮠꭲ	-723
ᏃᎯᏳ	-724
▁ᎠᎦᏴᎵᎨ	-725
ᏦᎯᏳ	-726
ᏍᏔᏅᎯ	-727
ꮒꭹ	-728
ᏪᏎᎭ	-729
▁ᏕᎤ	-730
▁ᏂᎦᏗᏳ	-731
▁ᎤᏓᏙᎵᏍᏗ	-732
ꮤꮑ	-733
ꭲꮴ	-734
ꮇꮸ	-735
▁ᏗᎨ	-736
▁ᏥᏄ	-737
ꮹꮒ	-738
ᎳᎩ	-739
ꭴꮼ	-740
▁ᎠᏫ	-741
▁ᏥᏚ	-742
▁ᎠᏕᎸ	-743
▁ᎤᏍᏗ	-744
▁ᏧᏪᏥ	-745
▁ᏅᏗᎦᎵᏍᏙᏗᎭ	-746
ꮵꭺ	-747
ᏓᏂᎸ	-748
▁ᏓᎾ	-749
ꮝꭶꮕ	-750
ꮴꮅꭶ	-751
▁ᎤᎾᏓᏅ	-752
ꭴꮪ	-753
ꮥꭹ	-754
ꮧꮳ	-755
▁ᎢᎸ	-756
ꮪᏻꭺ	-757
ᏍᏕᏍᏗ	-758
▁ᏂᎦᏪ	-759
ꭲꮝꮧᏹ	-760
ꭴꮴꮅꭶ	-761
▁ᏧᎾᏓᎴᏅᏛ	-762
ꮟꮅ	-763
ᏍᏔᏅ	-764
ꮝꭸꭲ	-765
▁ᎾᏍᎩᏯᎢ	-766
ꮝꭺꭲ	-767
ꭼꮹꮝꮣ	-768
ꮒꮳ	-769
ᎵᏥᏙ	-770
▁ᎦᏰ	-771
ꮕꮣᏻ	-772
ᎾᏄᎪᏫ	-773
▁ᏂᎪᎯᎸ	-774
ꮝꭼꭹ	-775
ᎪᎩ	-776
ᎰᏩ	-777
ᏁᎯ	-778
▁ᎣᏂ	-779
▁ᏅᎩ	-780
▁ᎢᏯᏂᏛ	-781
ᎸᏫᏍᏓᏁᏗ	-782
ꭲꮷ	-783
ᏓᏁᏗ	-784
ᏓᏅᏟ	-785
ᏪᏎᎢ	-786
▁ᎤᏇ	-787
▁ᏱᏗ	-788
ꮣꮩꮅꮝꮧ	-789
ᏟᏴ	-790
ꭾꭲ	-791
ᎪᎵᏰ	-792
ᏚᎵᏍ	-793
ꭼꮒᏻ	-794
ꮅꮝꭺ	-795
ꮥꮈ	-796
ꮣꮝꮧ	-797
ᏙᎢ	-798
ᏛᎾ	-799
ᏛᏁᏗ	-800
▁ᎾᎥ	-801
▁ᏗᎾ	-802
▁ᎤᏍᏆᏂᎪ	-803
ꭸꮢꭹ	-804
ꭼꮒᏻꮙ	-805
ᏃᎯ	-806
ᏨᎩ	-807
ᎪᏩᏛ	-808
▁ᏗᎩ	-809
▁ᏱᎦ	-810
▁ᏱᏂ	-811
ᏗᏍᎨᏍᏗ	-812
ᏐᏅ	-813
ᏒᎾ	-814
▁Ꮓ	-815
▁Ꮟ	-816
ꮝꮪ	-817
ᏛᎦᏅ	-818
ꭱꮵ	-819
ᏓᎸ	-820
ꮷꮟ	-821
ᏁᎸᎩ	-822
▁ᎤᎶ	-823
▁ᎦᏓ	-824
ᏍᎦᏅᏨ	-825
▁ᎢᏓᎵ	-826
ꮵꮜꮓ	-827
ᏃᏅ	-828
▁ᎥᏝᏰᏃ	-829
ᎵᏛ	-830
ꮕꮯ	-831
▁ᏫᏚ	-832
ꮑꮈꭿ	-833
▁ᎠᏏᏴᏫ	-834
ᎲᎦ	-835
ᏺꭿ	-836
ꭺꭿᏻ	-837
ᏉᏍᎩᏂ	-838
ꭸᏼ	-839
ꭶꮤꭽ	-840
ꭼꮧ	-841
ᎸᏉᏗ	-842
ꭼꮹꮅ	-843
▁ᎢᎦᎢ	-844
▁ᎪᏪᎵ	-845
ꭲᏻꮅꮝꮩꮧᏹ	-846
ᏁᎴᎢ	-847
ꮤꮑꭲ	-848
ᏓᎴᏅᎯ	-849
▁ᎬᏩᎦᏘᏯ	-850
ᏺꮅ	-851
ꮒꭺꭿ	-852
ᏠᏱ	-853
▁Ꮑ	-854
▁ᎧᏁ	-855
▁ᏥᏳ	-856
ᎨᎢ	-857
ᏤᎢ	-858
ᏥᏯ	-859
ᎵᎮᎵ	-860
ᏍᏛᎾ	-861
ᏔᏲᏎ	-862
ᏼꮅꭸ	-863
ꭼꭹ	-864
ꮑꮧᏹ	-865
ᏖᎸ	-866
▁ᎡᏆ	-867
ᏁᎴ	-868
ᎵᏅᏟ	-869
ꭲᏻꮎ	-870
ᎶᎯᏍᏗᏱ	-871
▁ᏧᎾᏁᎶᏗ	-872
ᎾᏰ	-873
ᏲᎯᏎ	-874
▁ᏭᏂ	-875
▁ᎩᎶᏃ	-876
ꮒꮵ	-877
ᏐᏢ	-878
▁ᎠᏓᏁ	-879
▁ᎠᏲᎱ	-880
ᏍᎩᏂᏃᏅ	-881
ꮫꭹ	-882
ꮫꮎ	-883
ᎫᎪ	-884
ꮔꮎ	-885
▁ᎨᏣ	-886
ꭴꮒꮳꮨ	-887
▁ᎠᏂᎦᏔ	-888
▁ᏄᎬᏫᏳᏒ	-889
ꭴꮣ	-890
▁ᎢᏗ	-891
ᎬᏩᎶᏗ	-892
ᏁᎳᏅᎯ	-893
▁ᏂᏨᏪᏎᎭ	-894
▁ᎢᏳᏩᏂᏌᏛ	-895
ꮥᏺ	-896
ꮑꮴ	-897
▁ᎣᏥ	-898
▁ᎤᏇᏓᎵ	-899
▁ᏗᎧᎿᏩᏗᏙᎯ	-900
ꮒꮸ	-901
ᎾᏝ	-902
ᏍᏕᎸ	-903
▁ᎠᏰ	-904
▁ᎠᏍᏓ	-905
▁ᎡᏍᎦᏉ	-906
ꮯꮆ	-907
ᏑᏰ	-908
ꭴꮓ	-909
ꮥꭶ	-910
ᎪᏩᏘ	-911
ᏗᏍᏗ	-912
ᏛᏅᎢ	-913
ꭰꮑꭿ	-914
ᏓᏅᏛᎢ	-915
ᏛᏁᏗᏱ	-916
▁ᎢᏓᎵᏅᏟ	-917
ꭿꮝꮧᏹ	-918
ꮅꮝꭺꮈ	-919
▁ᏱᏣ	-920
ꮪᏻꭺꮫ	-921
ᏓᏙᎵᏍᏓᏁ	-922
ᏺꮞ	-923
ꮣꮱ	-924
▁Ꮉ	-925
▁ᎠᏰᎸ	-926
▁ᎤᏂᏣ	-927
▁ᏅᏩᏙᎯ	-928
ᏌᏯ	-929
▁Ꮠ	-930
ꭳꭹ	-931
ꮅꮟ	-932
ꮩꭵ	-933
ᏕᏍᏗ	-934
ᏙᎢᏛ	-935
▁ᎤᎦ	-936
▁ᏥᏕ	-937
▁ᎤᎾᏓ	-938
ꮅᏸ	-939
ꮙꮃ	-940
ꭰꮒꮷꮟ	-941
ᏉᎩ	-942
ᏁᎶᎯ	-943
▁ᎤᎵᏂᎩᏛ	-944
ꮣꮎ	-945
ꭲꮷꮃ	-946
ᎵᏙ	-947
ᏰᏂ	-948
▁ᏅᏯ	-949
ꮤꮅꮑ	-950
▁ᎠᏍᎪᎯ	-951
ꮷꮣꮄꮕꮫ	-952
▁ᏱᎨᏎᏍᏗ	-953
ꮀꭲ	-954
ꮑꮧ	-955
ꮫꮓ	-956
ꭼꮹꮝꮣꮹꮧꮩꭿ	-957
ᎳᏏ	-958
ᏅᏎ	-959
ᏯᏫ	-960
ꮎꭵ	-961
▁ᎢᎬᏩ	-962
▁ᎤᏚᎩ	-963
ꭼꮻᏻꮢ	-964
▁ᎦᎵᏉᎩ	-965
ᎸᏫᏍᏓᏁᎯ	-966
▁ᏗᎦᎸᏫᏍᏓᏁᏗ	-967
ᎵᎪ	-968
▁ᎦᏁ	-969
▁ᎦᏚᎲ	-970
ꭺꮂ	-971
ᎷᎩ	-972
ᎺᎵ	-973
ᏚᎵ	-974
ꮷꮺ	-975
ᏆᎵᏏ	-976
▁ᎠᏂᏔ	-977
▁ᎡᏙᏓ	-978
ꭴꭼꮹꮅ	-979
ꮈꮧ	-980
ꮵꮩ	-981
ꭴꮣꮕ	-982
ꮵꮿ	-983
ᏗᏍᎬ	-984
▁ᏔᎳ	-985
▁ᏱᏚ	-986
▁ᎠᎵᏍ	-987
▁ᎤᏕᎵᏛ	-988
ꮳꮒ	-989
ᎴᎯ	-990
ᏁᏨ	-991
ᏅᏃ	-992
ᏓᏕ	-993
ꮧꮎ	-994
ᎩᎵᏲ	-995
▁ᎨᎵ	-996
▁ᏗᎪ	-997
▁ᎢᏗᏢ	-998
ᎵᏍᏓᏁᏗ	-999
▁ᎤᎵᏍᏆ	-1000
▁ᏧᏙᎢᏛ	-1001
▁ᎠᏂᏍᎦᏯ	-1002
▁ᏧᎬᏩᎶᏗ	-1003
▁ᏅᏩᏙᎯᏯᏛ	-1004
ꮔꮼ	-1005
ꭴꮅꮝ	-1006
ᎨᏳᏗ	-1007
ᏩᏗᏒ	-1008
▁ᎢᎨᏎᏍᏗ	-1009
▁ᏄᏂᏪᏒᎩ	-1010
ᎸᎭ	-1011
ꭸꭶ	-1012
ꭸꮳ	-1013
ꮘꮣ	-1014
ꮵꮇ	-1015
▁ᏂᏗ	-1016
ꮝꭼꮎ	-1017
▁ᎤᏁᎳᎩ	-1018
▁ᏄᏂᏪᏎᎢ	-1019
ꭷꮅ	-1020
ꮃꮻꭲꮝꮧᏹ	-1021
ꮧꭽ	-1022
ᎾᏛᏁ	-1023
ᏓᏅᏛ	-1024
▁ᏓᎦ	-1025
ᏍᏔᏅᎩ	-1026
▁ᎠᏏᏉ	-1027
▁ᎤᎷᏨ	-1028
▁ᎢᎬᏱᏱ	-1029
▁ᎤᎾᏓᏅᏘ	-1030
▁ᎠᎾᏙᎴᎰᏍᎩ	-1031
ꭲꮝꮧ	-1032
ᏩᏕ	-1033
ꭶꭺ	-1034
ᏂᏙᎯ	-1035
▁ᎠᏇ	-1036
ꮑꮆꮧ	-1037
▁ᏰᎵᏉ	-1038
ꭴꮅꮒꭹ	-1039
ᏂᏙ	-1040
▁ᎠᏗ	-1041
ᎠᏁᎶᎯ	-1042
▁ᎦᎸᎶ	-1043
▁ᏔᎳᏚ	-1044
ᎵᏍᏙᏗᏱ	-1045
▁ᎢᏳᏰᏃ	-1046
▁ᎯᎠᏰᏃ	-1047
ꭾꮅ	-1048
ꮅᏺ	-1049
ꮎꮻ	-1050
ꮜꮫ	-1051
ꮝꭺꭿ	-1052
ᏕᎾ	-1053
▁ᎠᏋ	-1054
▁ᎨᏎ	-1055
ꭰꮒꭶ	-1056
ᎦᏴᎵᎨ	-1057
ᏓᏍᏗᏱ	-1058
ꮔꮺꮢꭹ	-1059
▁ᎢᎸᎯᏳ	-1060
▁ᏗᏂᎧᎿ	-1061
ꮒꮪꮺꮞꮄꭲ	-1062
▁ᏚᎸᏫᏍᏓᏁ	-1063
ꭰꮉ	-1064
ꭴꮑꮸ	-1065
ᏪᏎᎴᎢ	-1066
▁ᏗᎦᎳᏫᎢᏍᏗᏱ	-1067
ꭶꮩꮓ	-1068
ꮩꮄꮀꮝꭹ	-1069
ᏂᏆ	-1070
ᏠᎾ	-1071
ᏪᏒ	-1072
▁"	-1073
▁Ᏺ	-1074
ꮑꭽ	-1075
ꮕꮟꮫ	-1076
▁ᎠᏂᏔᎵ	-1077
ꭷꮑ	-1078
ꮔꮺꮞꮄꭲ	-1079
ᎡᎵ	-1080
ᎥᎩ	-1081
ᎦᏛ	-1082
ᎭᎻ	-1083
ᏁᎶ	-1084
ᏎᎵ	-1085
ᏧᏈ	-1086
ᏎᎸᎯ	-1087
▁ᎢᎦᏛ	-1088
▁ᏌᏩᏂ	-1089
▁ᎤᎾᏓᏡ	-1090
ꮕꮟꮣꮝꮧ	-1091
▁ᏄᎵᏍᏔᏅ	-1092
ꭴꮩꭿᏻꭿꮿ	-1093
ꮕꮧꭶꮅꮝꮩꮧꭽ	-1094
ꭴꭹ	-1095
ꮿꮫ	-1096
ꮒꭶꮺ	-1097
ᎷᏥ	-1098
ᏚᎢ	-1099
▁Ꮌ	-1100
▁ᏓᏓ	-1101
▁ᏥᎦ	-1102
▁ᏱᏅ	-1103
ꮧꭼꮹ	-1104
ᏕᎸᏙᏗ	-1105
▁ᎡᎳᏗ	-1106
▁ᎢᏏᎵ	-1107
ꮝꮩꮧᏹ	-1108
▁ᏄᏂᎬᏫᏳᏒ	-1109
ꭹꮃ	-1110
ꮩꮅ	-1111
ꭴᏸꮈ	-1112
ꮑꮅ	-1113
ꮤꮃ	-1114
ꮶꭲ	-1115
ᎾᏄᎪ	-1116
ꭴᏺꮁ	-1117
ꮧꮝꮧ	-1118
ꮭꮝꭺ	-1119
ꮶꭿᏻ	-1120
▁ᏱᎰᏩ	-1121
▁ᎡᏆᎭᎻ	-1122
▁ᏅᏓᏳᏓᎴᏅᎯ	-1123
ᏹꭶ	-1124
ᎴᏗ	-1125
ꮢꮓ	-1126
ᎳᏗᏙ	-1127
ᎴᏍᏗ	-1128
▁ᎦᏓᎭ	-1129
▁ᎨᎵᎵ	-1130
▁ᏥᎨᏒ	-1131
▁ᎠᏍᎦᏂ	-1132
▁ᎤᏍᏆᏂᎪᏗ	-1133
ꮧꭶꮃꮻꭲꮝꮧᏹ	-1134
ꭰꮒꮝꭶ	-1135
ꭲꮷꮃꭽ	-1136
▁(	-1137
ᎨᎶᎯ	-1138
ᏍᏔᏂ	-1139
ᏛᏁᎸ	-1140
▁ᎤᏥ	-1141
ꮟꮅꮋ	-1142
ᎬᏫᏳᏌ	-1143
ᎸᏉᏗᏳ	-1144
ᏲᎱᏒᎯ	-1145
▁ᏚᏙᎥ	-1146
▁ᎢᎦᏤᎵ	-1147
▁ᎤᎾᏤᎵ	-1148
▁ᎠᏂᏆᎵᏏ	-1149
▁ᎤᎾᏤᎵᎦ	-1150
ꭴꮫ	-1151
ᏌᏗ	-1152
ꮝꮩ	-1153
ꮧꮤ	-1154
ᏙᏓᏆ	-1155
▁ᎥᎩ	-1156
▁ᎼᏏ	-1157
▁ᏧᏓ	-1158
ᏍᏓᏩᏛ	-1159
▁ᎥᏝᏃ	-1160
▁ᏂᎬᏩ	-1161
ꭺꭿᏻꮧ	-1162
▁ᏱᎨᏎᎢ	-1163
ꮵꮇꮟꮅꮋ	-1164
▁ᏗᏂᎧᎿᏩᏗᏙᎯ	-1165
ꮄꮕ	-1166
ꮝꭹꮎ	-1167
ᏛᏅ	-1168
ᏪᎭ	-1169
ꮙꮓ	-1170
ꮿꮕ	-1171
ᎲᏍᎬ	-1172
ᏍᎦᎢ	-1173
▁ᎠᎪ	-1174
▁ᎣᏣ	-1175
ꮞꮝꮧ	-1176
ꭱꮳ	-1177
ᎸᏃ	-1178
▁]	-1179
▁Ꭾ	-1180
ᎾᏓᎴ	-1181
▁ᎪᏪ	-1182
▁ᎢᏯᎦ	-1183
▁ᎤᏂᏲ	-1184
ꭲᏻꮹꮒ	-1185
ᏓᏅᏖᏍᎬ	-1186
ꮒꮪꮺꮞꮈꭹ	-1187
▁ᎠᏙᎴᎰᏍᎩ	-1188
ꭵꭹ	-1189
ꭻᏼ	-1190
ꮒᏼ	-1191
ᎴᏃ	-1192
▁Ꮨ	-1193
ꮧꮣ	-1194
ᏍᏛᎢ	-1195
▁ᏕᎨ	-1196
▁ᏫᏥ	-1197
ꭱꮝꭶ	-1198
▁ᏗᎨᏥ	-1199
ᏕᏲᎲᏍᎩ	-1200
ꮳꭼꮻᏻꭿ	-1201
ᏗᎦᎳᏫᎢᏍᏗᏱ	-1202
ꭼꮎ	-1203
ꭼꮒꮫ	-1204
ᏁᏃ	-1205
ᏫᏂ	-1206
ᎵᏍᏙ	-1207
ᏍᏔᏁ	-1208
▁ᎨᎦ	-1209
▁ᎬᎩ	-1210
ꭰꭸᏼ	-1211
ꭴꮕꮢ	-1212
▁ᎠᏎᏉ	-1213
▁ᎦᏙᎯ	-1214
▁ᎢᏦᎯᏳ	-1215
▁ᏂᎯᏍᎩᏂ	-1216
ᏕᏘ	-1217
ꭶꮣ	-1218
ꭺꭲ	-1219
ꮧꭹ	-1220
ᎨᏳᎢ	-1221
ᏍᎩᏃ	-1222
ᏍᏆᎸ	-1223
▁ᎠᏛ	-1224
▁ᎾᎩ	-1225
ꭰᏸꮅ	-1226
ꭰꭶꮤ	-1227
▁ᎤᎾᎵ	-1228
ꮕꮹꮣꮄ	-1229
ꮎꮝꭹᏸꮓ	-1230
▁ᎠᏲᎱᎯᏍᏗ	-1231
ꭶᏸ	-1232
ꭶꮎ	-1233
ꭺꭹ	-1234
ꭺꮲ	-1235
ꮃꭹ	-1236
ꮔꮺꮞꮈꭹ	-1237
ᎵᎩ	-1238
ᎾᎦ	-1239
ꭲꮈ	-1240
ᎳᏍᏗ	-1241
ᏲᏪᎳ	-1242
ꭰꮥꮈ	-1243
ꭲꮿꮒ	-1244
ᏢᏔᏅᎯ	-1245
▁ᎦᏬᏂ	-1246
ᎵᏍᏓᏴᏗ	-1247
▁ᏂᎦᏛᏃ	-1248
▁ᏅᏓᎬᏩ	-1249
ᎬᏫᏳᏌᏕᎩ	-1250
ᎵᏍᏓᏴᏗᏱ	-1251
ꭲꮫ	-1252
ꮹꮨ	-1253
ꮂꮝꭶ	-1254
ꮣꮒꮈ	-1255
ᎶᏂ	-1256
▁Ꮗ	-1257
ꮼꮒ	-1258
ᎦᏔᎲ	-1259
ᎾᏝᎢ	-1260
ᏅᏒᎩ	-1261
ᏓᎴᏒ	-1262
ᏓᎵᎢ	-1263
▁ᎠᏤ	-1264
▁ᎡᏙ	-1265
▁ᎤᏗ	-1266
▁ᏗᏆ	-1267
▁ᏱᏄ	-1268
▁ᎢᏨᏒ	-1269
▁ᎭᏫᏂ	-1270
▁ᎾᎿᏃ	-1271
▁ᎾᏂᏪ	-1272
▁ᎢᏯᎦᏴᎵ	-1273
ꭴꮳ	-1274
ꭴꮝꮧ	-1275
ᎥᎾ	-1276
ᎵᏱ	-1277
ᏳᎳ	-1278
ᏹꮵ	-1279
▁Ꮀ	-1280
ꮕꮓ	-1281
▁ᎢᎾ	-1282
▁ᏥᏥ	-1283
▁ᏧᏁ	-1284
ᎦᎵᏍᏓ	-1285
▁ᏂᎬᏅ	-1286
▁ᏄᏍᏗ	-1287
▁ᎠᏍᎩᎾ	-1288
▁ᎩᎳᏉᏃ	-1289
ꭰꭶᏼꮅꭸ	-1290
ꮎꮫ	-1291
ꮓꭿᏻ	-1292
ꮝꮤꮕꭿ	-1293
ᏔᎳ	-1294
ᎦᏙᎥ	-1295
▁ᎺᎵ	-1296
▁ᏂᏕ	-1297
▁ᏓᏳ	-1298
ꮺꮞꭽ	-1299
ᏁᎢᏍᏗ	-1300
▁ᎤᏁᏤ	-1301
▁ᎦᏳᎳ	-1302
ꮒꭶꮧᏻ	-1303
ꮺꮞꮈꭹ	-1304
ꭴꮣꮩꮅꮝꮧ	-1305
▁ᎾᏍᎩᏍᎩᏂ	-1306
ꭰꮻ	-1307
ꮧꮝꭸꮝꮧ	-1308
ᏁᎲ	-1309
ᏌᎳ	-1310
▁ᏕᏫ	-1311
▁ᏱᏙ	-1312
ꮷꮺꮵ	-1313
ᎵᏍᏔᏅ	-1314
ᏍᏔᏁᎢ	-1315
ᏓᏅᏓᏗ	-1316
ᏗᏍᎬᎢ	-1317
ᏩᏗᏒᎢ	-1318
▁ᎤᏚᎵᏍ	-1319
▁ᎠᏓᎨᏳᏗ	-1320
▁ᎠᎦᏴᎵᎨᎢ	-1321
▁ᎤᎵᏂᎩᏗᏳ	-1322
ꭴꮆ	-1323
ꮃꮟ	-1324
ꭶꮨꮿ	-1325
ꭴꮎꮣꮕ	-1326
ꮷꮎꮣꮄꮕꮫ	-1327
ᎾᎢ	-1328
ᏃᎩ	-1329
ᏎᎭ	-1330
ꮣꮣ	-1331
▁ᏧᏬ	-1332
ꮝꮥꮝꮧ	-1333
▁ᎠᏃᎯᏳ	-1334
▁ᎠᏍᏓᏯ	-1335
ꮅꮝꭹ	-1336
ꮝꮤꮕ	-1337
ꮒꭺꭿꮈ	-1338
ꮎꮝꭹꮿꭲ	-1339
ᏓᏛ	-1340
ᏠᏯ	-1341
ᏴᎯ	-1342
ꭳꮒ	-1343
▁ᎦᏥ	-1344
▁ᏗᏃ	-1345
▁ᏥᏯ	-1346
ᏗᏔᏍᏗ	-1347
▁ᎤᎵᏏ	-1348
▁ᎤᎷᏤ	-1349
▁ᎤᏙᏓ	-1350
ᎲᏍᎨᏍᏗ	-1351
▁ᎠᎾᎵᏅᏟ	-1352
▁ᎤᏂᏍᏆᏂᎪ	-1353
ꭴꮗ	-1354
ꭶꮫ	-1355
ꮀꮹ	-1356
ꮸꭹ	-1357
ꭲꮿꮒꮫ	-1358
ꮅꮝꮣꮑꮧ	-1359
ᎦᎨ	-1360
ᎰᎵ	-1361
ᏂᏏ	-1362
ᏐᏗ	-1363
ꭵꭲ	-1364
ᏏᏴᏫ	-1365
▁ᏓᏥ	-1366
ꮣꮕꮯ	-1367
▁ᎤᏠᏱ	-1368
▁ᎤᏃᎯᏳ	-1369
▁ᎠᏂᏍᎩᎾ	-1370
ꮯᏼ	-1371
ꭸꮠꭲ	-1372
ꮎꮫꮑ	-1373
ᏎᏗ	-1374
ᏯᎢ	-1375
ᏴᎩ	-1376
ꭰꮅ	-1377
ꮑꭿ	-1378
ᏅᎯᏛ	-1379
ᏔᎳᏬ	-1380
▁ᎠᎺ	-1381
▁ᎤᏴ	-1382
▁ᎦᏃ	-1383
▁ᎾᏆ	-1384
▁ᏓᏆ	-1385
ꭰꮣꮑ	-1386
ᎦᏔᎲᎾ	-1387
ᏏᏴᏫᎭ	-1388
ᏘᏂᏙᎯ	-1389
▁ᎠᏁᎲ	-1390
▁ᎨᏐᎢ	-1391
ᏛᏁᎮᏍᏗ	-1392
ꭴꮝꮖꮒꭺ	-1393
ꮔꮝꮧ	-1394
ᎦᎵ	-1395
ᎶᏄ	-1396
▁Ᏸ	-1397
ꮢꮎ	-1398
ᏍᎦᏯ	-1399
▁ᎢᎳ	-1400
▁ᏓᎩ	-1401
▁ᏗᏤ	-1402
▁ᏱᏓ	-1403
ꭺꮺꮅ	-1404
ᎵᏍᏙᏗ	-1405
ᏪᎵᏍᎩ	-1406
▁ᎠᎦᏘ	-1407
▁ᎢᏳᏩ	-1408
▁ᎦᏍᎩ	-1409
▁ᏧᏤᎵ	-1410
▁ᎢᎦᏛᏃ	-1411
▁ᎦᎶᎯᏍᏗᏱ	-1412
ꭰꮎꮅ	-1413
ꭲꮣꮅ	-1414
ꭵꮭᏸꮓ	-1415
ꮝꭶꮕꮸ	-1416
ᎶᏛ	-1417
ᎿᎢ	-1418
ᏌᏂ	-1419
ᏰᎯ	-1420
ꭶꮑ	-1421
ᏁᎸᎢ	-1422
ᏁᏟᏴ	-1423
ᏐᏗᏱ	-1424
▁ᎤᎷ	-1425
ꮑꮈꭹ	-1426
▁ᏗᎫᎪ	-1427
▁ᏥᏳᎯ	-1428
▁ᏅᏩᎾᏓᎴ	-1429
▁ᏧᏂᏲᎱᏒᎯ	-1430
▁ᎠᏃᎯᏳᎲᏍᎩ	-1431
ꭸꭲ	-1432
ꮷꮩ	-1433
ꮫꮑꮧ	-1434
ꭰꮟᏼꮻ	-1435
ꮝꭹꮒꮓ	-1436
ᎨᏫ	-1437
ꮂꭶ	-1438
ᏍᏕᎵ	-1439
ᏢᏅᎯ	-1440
▁ᎠᏲ	-1441
▁ᎢᏓ	-1442
▁ᏐᎢ	-1443
ᏍᏕᎸᏗ	-1444
▁ᎤᎧᎵ	-1445
▁ᏆᎴᏗ	-1446
▁ᎠᏂᎨᏴ	-1447
▁ᎤᏂᎷᏤ	-1448
▁ᎦᏰᎪᎩ	-1449
▁ᏥᎨᏒᎩ	-1450
▁ᏂᎦᎵᏍᏗ	-1451
ꭶꮈꮻꮝꮣꮑ	-1452
ᎸᏫᏍᏓᏁᏗᏱ	-1453
ꭱꮖ	-1454
ꮠꮕ	-1455
ꮵᏻ	-1456
ꭲꭶꭲ	-1457
ꭶꮩꭵ	-1458
ꮣꮄꮕꭿ	-1459
ꭼꮹꭶꮨꮿ	-1460
ᎡᏗ	-1461
ᏁᏉ	-1462
▁Ꮼ	-1463
ꮅꮫ	-1464
ᎦᏌᏯ	-1465
ᏍᏚᎢ	-1466
ᏒᏃᏱ	-1467
▁ᎡᎳ	-1468
▁ᏑᎾ	-1469
▁ᏒᏃᏱ	-1470
ꮙꮝꭹꮒ	-1471
▁ᎤᏓᏅᏘ	-1472
▁ᎦᎸᎶᎢ	-1473
▁ᎬᏩᎷᏤ	-1474
▁ᎢᎬᏱᏗᏢ	-1475
▁ᏄᎵᏍᏔᏁᎢ	-1476
ꭱꮅ	-1477
ꮣꮈ	-1478
ꮧꮓ	-1479
ꮪꮅ	-1480
ꮤᏺꮞ	-1481
ꭰꮒꭶꮤ	-1482
ᏉᎯ	-1483
ᏍᎫ	-1484
▁Ꮰ	-1485
ᏟᎶᏛ	-1486
▁ᎠᎬ	-1487
▁ᏗᎧ	-1488
▁ᏧᏃ	-1489
▁ᏭᎶ	-1490
ꭺꮹꮫ	-1491
ꮑꮄꭲ	-1492
ᎲᏍᎬᎢ	-1493
ᏍᏗᏍᎩ	-1494
▁ᎬᏩᏂ	-1495
▁ᎢᏳᏍᎩᏂ	-1496
▁ᎤᎾᏛᎦᏅ	-1497
▁ᎤᏁᎳᏅᎯᏰᏃ	-1498
ꮦꮈ	-1499
ꭶꮪꮂ	-1500
ꭺꮅᏸ	-1501
ꮝꮫꮎ	-1502
ꮷꮎꮑꮆꮧ	-1503
ᎴᏂ	-1504
ᏅᏒ	-1505
ᏛᎯ	-1506
ᏛᏂ	-1507
ꮑꮄ	-1508
ꮰᏹ	-1509
ꮴꭲ	-1510
ᏑᏰᏛ	-1511
ᏛᏁᎢ	-1512
▁ᎥᎥ	-1513
▁ᏗᎬ	-1514
ꭴꮎꮅ	-1515
ꮪꮅꮝ	-1516
▁ᎤᏄᎪ	-1517
▁ᏕᎬᏩ	-1518
▁ᎤᏙᎴᎰ	-1519
▁ᏥᎨᏎᎢ	-1520
ᎸᏫᏍᏓᏁᎲ	-1521
▁ᎤᎾᏓᏡᎬ	-1522
▁ᎤᎾᏙᏓᏆ	-1523
▁ᎤᏤᎵᎪᎯ	-1524
ꮽꮒ	-1525
ꭰᏺꮁ	-1526
ꭹꮆꮓ	-1527
ꭰꮝꭺꭿ	-1528
ꮆꭿꮝꮧᏹ	-1529
ꮝꭹꮒꮓꮕ	-1530
ᎡᎢ	-1531
ᏕᏂ	-1532
ꮠꮲ	-1533
ᎵᏍᎦ	-1534
ᎶᏒᎯ	-1535
ᎷᏨᎭ	-1536
ᏚᏓᎴ	-1537
ꮫꭶꮕ	-1538
ᏁᎮᏍᏗ	-1539
ᏅᏍᏗᏱ	-1540
ᏍᎦᏅᎾ	-1541
▁ᎠᏋᏒ	-1542
▁ᎤᏂᎩ	-1543
▁ᏕᎨᏥ	-1544
ᎦᎵᏍᏙᏓ	-1545
ᎪᏩᏛᏗᏱ	-1546
▁ᎠᎺᏉᎯ	-1547
▁ᎤᏓᎵᎢ	-1548
▁ᎤᏓᏅᏖ	-1549
▁ᎤᏲᎢᏳ	-1550
▁ᏄᏓᎴᏒ	-1551
▁ᎢᏳᎾᏍᏗ	-1552
▁ᎤᏂᎬᏫᏳᎯ	-1553
ᏹꮳ	-1554
▁!	-1555
ꭻꭺ	-1556
ꮜꮿ	-1557
ꮒꮸꮺꮞꭽ	-1558
ꮔꭼꮻᏻꮢ	-1559
ꮧꭷꮏꮹꮧꮩꭿ	-1560
ᎴᏛ	-1561
ᎵᏯ	-1562
ᎾᏓ	-1563
ᏎᎸ	-1564
ᏙᏂ	-1565
ᏯᏔ	-1566
ᏯᏙ	-1567
▁Ꮞ	-1568
ꭰᏸ	-1569
ꮣꭶ	-1570
ꮣꭹ	-1571
ᎤᏍᏕ	-1572
ᎥᏍᎩ	-1573
ᎧᎵᎢ	-1574
ᎪᏓᏁ	-1575
ᎿᏕᎩ	-1576
ᏉᎯᏳ	-1577
ᏬᎯᏳ	-1578
ᏰᎸᎭ	-1579
ᏰᎸᎯ	-1580
ᏺꭿꮞ	-1581
▁ᎠᏃ	-1582
▁ᎡᎩ	-1583
▁ᎡᎺ	-1584
▁ᎤᎪ	-1585
▁ᎤᏢ	-1586
▁ᎩᎬ	-1587
▁ᏂᏓ	-1588
▁ᏚᏃ	-1589
▁ᏫᎾ	-1590
ꭰꮝꮣ	-1591
ꮒꭼꮕ	-1592
ꮷꭼꮹ	-1593
ᏠᎾᏍᏗ	-1594
▁ᎯᏍᎩ	-1595
ꭴꮗꮣꮅ	-1596
ᏍᏕᎸᏗᏱ	-1597
ꭲᏻꮹꮒꮜꮫ	-1598
ꮪꮈꮻꮝꮣꮑ	-1599
▁ᏔᏕᏲᎲᏍᎩ	-1600
ꮧꭶꮈꮻꮝꮣꮑ	-1601
ꭳꭶ	-1602
ꮒꮩ	-1603
ᏰᎢ	-1604
ᏍᎦᎩ	-1605
ᏩᏛᎲ	-1606
▁ᎠᎵ	-1607
▁ᏨᏒ	-1608
ꮕꮣꭶ	-1609
ᏕᏘᏴᏛ	-1610
▁ᎠᏲᎵ	-1611
▁ᎡᎺᏅ	-1612
▁ᎢᎪᎯ	-1613
▁ᎤᎪᎲ	-1614
▁ᎤᎴᏅ	-1615
▁ᎩᎦᎨ	-1616
ꭱꮝꭶꮙ	-1617
ꮔꮒꮺꮞ	-1618
ᏙᎥᎯᏍᏗ	-1619
▁ᎠᏓᏁᎸ	-1620
▁ᎤᏂᏃᎮ	-1621
▁ᏂᎬᎾᏛ	-1622
▁ᎨᏥᏅᏏᏛ	-1623
ꮘꮅ	-1624
ꮡᏸ	-1625
ꭰᏸꮈ	-1626
ꭲꮧꮲ	-1627
ꮝꮥꮈ	-1628
ꮣꮕꮫꭲ	-1629
ꭲꮣꮅꮕꮯ	-1630
ᎲᏏ	-1631
▁Ꭻ	-1632
ꮔꮺ	-1633
ꮕꮿ	-1634
ᏍᏗᏰ	-1635
ᏩᎾᎦ	-1636
ᏯᏅᎲ	-1637
▁ᎠᏯ	-1638
▁ᏚᏅ	-1639
ꮫꮕꭲ	-1640
ᎨᏳᎯᏳ	-1641
ᎯᏍᏙᏗ	-1642
▁ᎠᎩᎾ	-1643
▁ᎠᏗᎾ	-1644
▁ᎦᎵᏦ	-1645
▁ᏗᎨᏒ	-1646
ꮫꮑꮧᏹ	-1647
▁ᎢᎪᎯᏛ	-1648
▁ᎤᎾᏄᎪᏫ	-1649
ᎦᎵᏍᏙᏗᏍᎬᎩ	-1650
ꮓꭿ	-1651
ꭴꮒꮳ	-1652
ꮥꮝꮧ	-1653
ꮕꮹꮩꭿ	-1654
ᎿᏩ	-1655
ᏓᏓ	-1656
ᏲᏏ	-1657
ꭸꮅ	-1658
ꮑꮸ	-1659
ᎸᎯᏢ	-1660
▁ᎦᏅ	-1661
▁ᏫᎦ	-1662
▁ᏫᏂ	-1663
▁ᏯᎩ	-1664
ꭴꮇꮸ	-1665
ᎳᏏᏕᏂ	-1666
▁ᎤᏛᏅ	-1667
▁ᏥᏂᎬ	-1668
▁ᏧᏗᏱ	-1669
ᏍᎦᏅᏨᎢ	-1670
▁ᎠᏂᏯᏫ	-1671
▁ᎢᎸᎯᏢ	-1672
▁ᎤᏲᎱᏒ	-1673
ꮔꮅꮝꮤꮕ	-1674
▁ᎢᏳᎵᏍᏙᏗ	-1675
ꮙꭹ	-1676
ᏹꭸꮞꮝꮧ	-1677
ꭴꮅꮒꭹꮫ	-1678
ᏁᎬ	-1679
ᏸꮒ	-1680
ᎨᏳᎯ	-1681
ᏔᏂᏙ	-1682
ᏛᏁᎯ	-1683
ᏲᏎᎭ	-1684
▁ᏗᏨ	-1685
▁ᎤᎩᏨ	-1686
▁ᎤᏂᏴ	-1687
▁ᏄᏪᏒ	-1688
▁ᏗᎨᎦ	-1689
▁ᏗᏓᎴ	-1690
▁ᏥᏂᎦ	-1691
▁ᎠᏂᏐᎢ	-1692
ꮧꭶꮈꮻꮝꮣꮑꮧ	-1693
▁ᏅᏓᎬᏩᏓᎴᏅᏛ	-1694
▁ᏅᏗᎦᎵᏍᏙᏗᏍᎨᏍᏗ	-1695
ꮅꮩ	-1696
ꮒꮧ	-1697
ꮿꮻ	-1698
ꭲꭼꮹ	-1699
ꭴꮎꮣ	-1700
ꭴꮪꭹ	-1701
ꭶꮅꮙꭹ	-1702
ꮈꮻꮝꮣꮑꭿ	-1703
ᎨᏏ	-1704
ᏈᏗ	-1705
ᏌᏅ	-1706
ᏏᏱ	-1707
ᏒᎭ	-1708
ꭸꮠ	-1709
ᎳᏍᏓ	-1710
ᏛᏁᎵ	-1711
▁ᏅᏙ	-1712
▁ᏓᏁ	-1713
▁ᏙᏗ	-1714
ᏎᎮᏍᏗ	-1715
▁ᎤᏐᏅ	-1716
▁ᏧᏤᎵᎦ	-1717
ᎵᏍᎪᎸᏔᏅᎯ	-1718
▁ᏗᏃᏪᎵᏍᎩ	-1719
ꮊꮅ	-1720
ꮔꮹ	-1721
ꮕꮞ	-1722
ꭱꮩꮣ	-1723
ꮷꮩꭲꮫ	-1724
ꮷꭼꮹꮆꮧ	-1725
ᏚᎲ	-1726
ꭳꮵ	-1727
ꮎꭹ	-1728
ꮵꮪ	-1729
ᎪᏗᏱ	-1730
ᎶᏄᎮ	-1731
ᏚᎵᎭ	-1732
▁ᏣᎦ	-1733
▁ᏱᏨ	-1734
ꭰꮅꮝ	-1735
ꮖꮅꮟ	-1736
ᎮᎵᏍᏗ	-1737
ᏓᏁᎸᎯ	-1738
▁ᎢᎾᎨ	-1739
▁ᎩᎳᏉ	-1740
▁ᏚᏁᏤ	-1741
ꭴꮥꮅꮫ	-1742
▁ᎠᏁᎲᎢ	-1743
ꮔꮒꮺꮢꭹ	-1744
ᎵᏍᏕᎸᏙᏗ	-1745
▁ᎢᏳᏟᎶᏛ	-1746
ꮣꮩꮅꮝꮣꮑ	-1747
▁ᎤᎾᏙᏓᏆᏍᎬ	-1748
ꭼꮹꮒ	-1749
ꮧꮝꭼ	-1750
ꭴꮅꮝꮖ	-1751
ꭰꮒꮝꭶꮿ	-1752
ꮕꮹꮩꭿꮿꮫ	-1753
ᏛᏛ	-1754
ᏬᏁ	-1755
▁Ꮱ	-1756
ꮇꭹ	-1757
ꮎꮭ	-1758
ᎡᏗᏱ	-1759
ᏅᏌᏗ	-1760
ᏒᏍᏗ	-1761
ᏯᏅᏛ	-1762
ᏯᏙᏗ	-1763
▁ᎠᏅ	-1764
▁ᎡᏗ	-1765
▁ᏚᏪ	-1766
▁ᏥᏓ	-1767
▁ᏫᏨ	-1768
ꮹꮧꮢ	-1769
ᏍᏚᏗᏱ	-1770
▁ᎡᎶᏛ	-1771
▁ᎤᏓᏙ	-1772
▁ᏫᎬᏩ	-1773
ꭰꮑꮆꭿ	-1774
▁ᎤᏂᏰᎸ	-1775
▁ᎦᏚᎲᎢ	-1776
ꭲꭸꮞꮝꮧ	-1777
ꮔꮒꮺꮞꭲ	-1778
▁ᎠᏍᎪᎯᏧᏈ	-1779
▁ᎾᏍᏉᏍᎩᏂ	-1780
▁ᎠᎦᏙᎥᎯᏍᏗ	-1781
▁ᏧᏂᎸᏫᏍᏓᏁᎯ	-1782
ꮈꭽ	-1783
ꮥꮎ	-1784
ꮥꮻ	-1785
ꮧꭸ	-1786
ꭺꮹꮨ	-1787
ꮅꮝꮩ	-1788
ꭴꮑꮃꭹ	-1789
ᎡᎸ	-1790
ᏒᏂ	-1791
ꭰꮗ	-1792
ꭱꮧ	-1793
ꮒꭸ	-1794
ᎴᎲᎦ	-1795
ᎾᏫᏱ	-1796
ᏁᏍᏗ	-1797
ᏃᎮᎭ	-1798
ᏳᎪᏗ	-1799
ᏸꮅꮙ	-1800
▁ᎡᎭ	-1801
▁ᎾᏥ	-1802
▁ᏕᎯ	-1803
▁ᏤᏥ	-1804
ꭰꮟꮙ	-1805
ꭸᏻꮧ	-1806
ꮒꮩꭿ	-1807
ꮣꮕꮫ	-1808
ᎴᎯᏐᏗ	-1809
ᏃᎮᏍᎩ	-1810
ᏗᏍᏗᏱ	-1811
▁ᏂᏥᎥ	-1812
▁ᏈᎵᎩ	-1813
▁ᏈᏓᏃ	-1814
ꭲꭼᏹᏹ	-1815
ꮝꮤꮕꭹ	-1816
ᏬᏂᎯᏍᏗ	-1817
▁ᎤᏓᏅᏙ	-1818
▁ᎤᏛᎦᏅ	-1819
▁ᏄᏪᏎᎴ	-1820
ꭴꮎꮣꮕꮨ	-1821
▁ᎠᎦᏔᎲᎢ	-1822
▁ᎤᎵᏍᏆᎸᏗ	-1823
ꭰꮎꮩꮄꮀꮝꭹ	-1824
▁ᎢᏣᎵᏍᏓᏁᏗ	-1825
▁ᎤᏁᎳᏅᎯᏍᎩᏂ	-1826
▁ᏅᏓᎦᎵᏍᏙᏗᏍᎬᎩ	-1827
ꮄꭿ	-1828
ꮣꮖ	-1829
ꮷꮣ	-1830
ꭲᏻᏸꮓ	-1831
ᏓᎳ	-1832
ᏕᎵ	-1833
ᏣᏓ	-1834
ᏣᏗ	-1835
ᏥᎪ	-1836
ᏫᏛ	-1837
ꭶꮓ	-1838
ᎷᏨᎩ	-1839
ᏎᏗᏱ	-1840
▁ᎨᏐ	-1841
▁ᏓᏰ	-1842
▁ᏥᎻ	-1843
▁ᏥᏁ	-1844
▁ᏦᎩ	-1845
ꭶꮈꮆ	-1846
ꮤꮃꮪ	-1847
ᏛᎦᏅᎩ	-1848
▁ᎠᏇᏥ	-1849
▁ᎤᏂᏃ	-1850
▁ᎤᏍᏆ	-1851
▁ᎤᏪᎷ	-1852
▁ᎧᏁᎬ	-1853
ꭿꭰᏸꮓ	-1854
ꮎꮔꭺꮻ	-1855
▁ᎤᏂᏣᏖ	-1856
▁ᎾᎾᏛᏁ	-1857
▁ᏗᏓᏍᏚᏗᏱ	-1858
ꭰꮛ	-1859
ꮻꮒ	-1860
ꭲꮈꭿᏻ	-1861
ꮣꮝꮧᏹ	-1862
ꮧꮒꭷꮏ	-1863
ᏁᎫ	-1864
ᏏᏛ	-1865
ᏚᎸ	-1866
ᏤᎸ	-1867
ꭽꮋ	-1868
ꮒꮖ	-1869
ᏍᏓᏩ	-1870
ᏎᎪᎩ	-1871
ᏓᎴᎩ	-1872
▁ᏏᏌ	-1873
▁ᏤᎦ	-1874
▁ᏥᏅ	-1875
▁ᏱᎬ	-1876
ꮣꮑꮧ	-1877
ᎶᎯᏍᏗ	-1878
ᎷᏤᏗᏱ	-1879
▁ᏌᏉᏉ	-1880
ᎠᏗᏔᏍᏗ	-1881
▁ᎦᎸᏉᏗ	-1882
▁ᏗᏂᏲᎵ	-1883
▁ᎤᎾᏙᎴᎰ	-1884
▁ᎩᎶᏍᎩᏂ	-1885
▁ᏫᎾᏍᏛᎾ	-1886
▁ᏱᏥᎦᏔᎭ	-1887
ꭶꮃ	-1888
ꭲꮟꮅ	-1889
ꭰꮒꮤꮅ	-1890
ꭴꮎꮣꮱ	-1891
."	-1892
ᎩᏏ	-1893
ᏃᏛ	-1894
ᏄᏩ	-1895
ᏅᎾ	-1896
ᏙᎾ	-1897
ᏥᏴ	-1898
ꮞꮅ	-1899
ꮰꮎ	-1900
ꮷꮑ	-1901
ꮷꮘ	-1902
ᎦᏙᎵ	-1903
ᎲᏍᎨ	-1904
ᎵᏰᎢ	-1905
ᎾᏍᎩ	-1906
ᏛᏁᎭ	-1907
ᏹꮀꮹ	-1908
▁ᏭᏴ	-1909
ꭲꭶꮫ	-1910
ꭺꮺꮃ	-1911
ꮒꭼꮹ	-1912
ꮜꮹꮒ	-1913
ꮞꮈꭿ	-1914
ᏅᎢᏍᏗ	-1915
ᏍᏓᏩᏕ	-1916
ᏍᏕᎸᎯ	-1917
ᏙᎮᏍᏗ	-1918
▁ᏄᏛᏁ	-1919
ꭱꮖꭽꮋ	-1920
▁ᎾᏍᎩᏉ	-1921
▁ᏥᎦᏔᎭ	-1922
▁ᎠᏥᎸᏉᏗᏳ	-1923
▁ᎬᏩᏍᏓᏩᏗᏙᎯᏃ	-1924
ꮣꮧ	-1925
ꮫꮒ	-1926
ꭱꮃꮧ	-1927
ꭶꮣꭽ	-1928
ꮥꮈꮩꮧ	-1929
ꮔꮒꭼꮻᏻꮢ	-1930
ᎧᏂ	-1931
ᎶᏆ	-1932
ᎾᎵ	-1933
ᏁᎰ	-1934
ᏈᎵ	-1935
ᏕᎰ	-1936
ᏥᏛ	-1937
ᏫᏒ	-1938
ꭶꭸ	-1939
ꭹꭼ	-1940
ꮜꮧ	-1941
ᏎᎴᎢ	-1942
ᏓᎸᎢ	-1943
ᏓᏁᎸ	-1944
▁ᎰᏩ	-1945
▁ᏅᏧ	-1946
▁ᏖᎸ	-1947
ꮧꭸꮵ	-1948
ꮪꮩꭵ	-1949
ᎪᏩᏛᏗ	-1950
ᏆᏗᏍᎩ	-1951
▁ᎠᎾᏓ	-1952
▁ᏥᎨᏐ	-1953
▁ᏱᎨᏎ	-1954
ꭰꮝꭶꮒ	-1955
▁ᎠᏎᏉᏉ	-1956
▁ᎤᏰᎸᏗ	-1957
▁ᎩᎶᏰᏃ	-1958
▁ᎬᏔᏅᎯ	-1959
▁ᏔᎵᏁᏃ	-1960
▁ᏖᎸᎳᏗ	-1961
▁ᏥᎨᏐᎢ	-1962
▁ᎤᏂᏣᏘᏃ	-1963
▁ᎬᏂᏳᏉᏃ	-1964
▁ᏄᎵᏍᏔᏅᎩ	-1965
ꮕꮣᏻꮣꮄꮕꭿ	-1966
▁ᏚᏂᎸᏫᏍᏓᏁ	-1967
ꭶꮵ	-1968
ꮌꮟ	-1969
ꭲꮳꮅ	-1970
ꭸꮅꮅ	-1971
ꮃꮧꮩ	-1972
ꮄꮝꮧ	-1973
ꮧꮣꮄ	-1974
ꮼꮒꭿ	-1975
ꭴꮎꮴꮅꭶ	-1976
ꭴꮝꮖꮒꭺꮧ	-1977
ᎩᏳ	-1978
ᎬᎦ	-1979
ᎭᎷ	-1980
ᎿᏕ	-1981
ᏑᎶ	-1982
ᏔᏲ	-1983
ᏥᏙ	-1984
ᏯᏂ	-1985
ꮥꮨ	-1986
ꮻꮪ	-1987
ᎡᏍᏗ	-1988
ᎳᏫᎩ	-1989
ᎶᏂᎨ	-1990
ᏍᎪᎵ	-1991
▁ᎢᎪ	-1992
▁ᎭᏢ	-1993
▁ᏄᏩ	-1994
▁ᏙᏱ	-1995
▁ᏣᏓ	-1996
▁ᏫᏗ	-1997
ꭸꮆꭿ	-1998
ꮂꮝꭼ	-1999
ꮎꮒꮺ	-2000
ꮝꮣꮹ	-2001
ꮝꮤꮒ	-2002
ꮫꮑꮈ	-2003
ᎲᏍᎬᎾ	-2004
ᏓᏂᎸᎢ	-2005
ᏛᎦᏅᎯ	-2006
ᏩᎾᎦᎳ	-2007
ᏳᎪᏛᎾ	-2008
ᏺꮁꮢꭿ	-2009
▁ᎾᎿᏂ	-2010
▁ᏂᎯᏃ	-2011
▁ᏠᎨᏏ	-2012
ꭲꭶꮴꮅ	-2013
ꭴꮎꮴꮅ	-2014
ꭼꮻᏻꮜ	-2015
ꮺꮞꮄꭲ	-2016
ᏃᎮᏍᎬᎢ	-2017
ᏍᏕᎵᏍᎩ	-2018
▁ᎠᎦᏘᏏ	-2019
▁ᎤᏃᏕᎾ	-2020
▁ᏥᎪᏪᎳ	-2021
ꭰꮒꮖꮅꮟ	-2022
ᏔᎳᏬᎯᏍᏗ	-2023
▁ᎠᏴᏍᎩᏂ	-2024
▁ᎤᏕᏁᎴᎢ	-2025
▁ᎭᏫᏂᏗᏢ	-2026
▁ᏗᎾᏓᏅᏟ	-2027
▁ᏅᏗᎦᎵᏍᏙᏗᏍᎬ	-2028
ꭲꮧ	-2029
ꭴꮵ	-2030
ꭸꮃ	-2031
ꮎᏸ	-2032
ꮥꭿ	-2033
ꮹꮎ	-2034
ꭵꮭꮓ	-2035
ꭶꮩꭿ	-2036
ꮝꭹꮓ	-2037
ꮩꮣꮖ	-2038
ᏹꭸꮞꭲ	-2039
ꭰꮩꮄꮀꮝꭹ	-2040
ꮅꮝꭺꮈꮣꮑ	-2041
ꮧꮒꭷꮏꮹꮧꮩꭿ	-2042
ᎨᎳ	-2043
ᏂᏗ	-2044
ᏠᎯ	-2045
ᏺꮺ	-2046
▁Ꮾ	-2047
ꭳꮳ	-2048
ꮑꮆ	-2049
ꮫꮏ	-2050
ꮫꮕ	-2051
ᏍᏗᎭ	-2052
ᏔᏅᎢ	-2053
ᏕᎶᏆ	-2054
▁ᎤᎴ	-2055
▁ᏂᎨ	-2056
▁ᏣᏥ	-2057
▁ᏦᏩ	-2058
▁ᏫᏄ	-2059
ꮎꮣꮄ	-2060
ꮝꭶꭲ	-2061
ᎧᎿᏩᏗ	-2062
▁ᎠᏁᏙ	-2063
▁ᎢᎾᏛ	-2064
▁ᏍᎩᏯ	-2065
▁ᏕᏣᏓ	-2066
▁ᎠᏤᎵᏍ	-2067
▁ᎤᏰᎸᏛ	-2068
▁ᎬᏗᏍᎬ	-2069
▁ᏗᎬᏩᏂ	-2070
▁ᎤᏣᏔᏅᎯ	-2071
▁ᎤᏲᎱᏒᎯ	-2072
▁ᎠᏂᏯᏫᏍᎩ	-2073
▁ᎾᏂᏪᏍᎨᎢ	-2074
▁ᏂᏚᏳᎪᏛᎾ	-2075
ꮈꮓ	-2076
ꮓꭹ	-2077
ꮪꮣ	-2078
ꭲꮿꭶ	-2079
ꭴꮒᏺ	-2080
ꮣꮕꮦꮝꭼ	-2081
ᎦᏓ	-2082
ᎧᏅ	-2083
ᎩᏨ	-2084
ꮄꮓ	-2085
ᏍᎪᏂ	-2086
ᏎᎸᎩ	-2087
ᏜᏏᏛ	-2088
ᏟᏂᎬ	-2089
▁ᎤᎸ	-2090
▁ᎤᎿ	-2091
ꭰꮞꮙ	-2092
ꮝꮫꭲ	-2093
ᏚᎵᏍᎬ	-2094
▁ᎤᎦᏔ	-2095
▁ᏎᏓᏂ	-2096
▁ᏓᏕᏲ	-2097
ꭰꮵꮈꮙ	-2098
ꭲꮶꭿᏻ	-2099
ꮑꮃꮕꭿ	-2100
ᎨᏳᏎᏍᏗ	-2101
▁ᎠᏴᏰᏃ	-2102
▁ᎤᏣᏘᏂ	-2103
▁ᎤᏬᎯᏳ	-2104
▁ᏥᏂᎬᏅ	-2105
ꮥᏺꮂꮝꭹ	-2106
ᎸᏫᏍᏓᏁᎭ	-2107
ꮅꮝꮣᏼꮧᏹ	-2108
▁ᎠᎵᏍᏓᏴᏗ	-2109
ꭱꮩ	-2110
ꭴꮇ	-2111
ꮕꭶ	-2112
ꮻꮵ	-2113
ꮝꮤꮑ	-2114
ꮒꭶꮅꮝꮧ	-2115
ꮒꭿꮝꭹꮒ	-2116
ᎥᏂ	-2117
ᏕᎢ	-2118
ᏚᎦ	-2119
ᏢᏈ	-2120
ꭰꮫ	-2121
ꭲꮎ	-2122
ꮖꮄ	-2123
ᎵᎡᎵ	-2124
ᎵᏂᎩ	-2125
ᏂᏆᏘ	-2126
ᏂᏗᏳ	-2127
ᏖᎵᏙ	-2128
▁ᎦᏛ	-2129
▁ᏣᎾ	-2130
▁ᏥᎾ	-2131
▁ᏥᏣ	-2132
▁ᏥᏫ	-2133
▁ᏬᎩ	-2134
ꭸᏻꭲ	-2135
ꮝꮖꮈ	-2136
ᏅᏏᏙᎯ	-2137
ᏍᏓᏩᏗ	-2138
▁ᎤᎾᏛ	-2139
▁ᎤᏁᎷ	-2140
▁ᏦᎢᏁ	-2141
▁ᏱᏗᏥ	-2142
▁ᏴᏫᏉ	-2143
ꭶꮈꮙꮧ	-2144
ꮒꭶꮫꮓ	-2145
▁ᎠᏰᎸᎢ	-2146
▁ᎢᎸᏍᎩ	-2147
▁ᎤᎾᏄᎪ	-2148
ꮅꮝꮣᏼꮧ	-2149
ᏓᏅᏖᏍᎬᎢ	-2150
▁ᎢᏥᏍᎦᏯ	-2151
▁ᏄᏍᏕᏍᏗ	-2152
ꭰᏺꮁꭿꮝꮧ	-2153
ᏗᎦᎵᏍᏙᏗᎭ	-2154
ᏹꮩ	-2155
ꮑꮓ	-2156
ꮣᏻ	-2157
ꮣꮵ	-2158
ꮪꭲ	-2159
ꮵꭶꮤꭽ	-2160
ꭼꮻᏻꮜꮥꭹ	-2161
ᎦᏯ	-2162
ᎧᏁ	-2163
ᎩᎯ	-2164
ᏏᏔ	-2165
ᏛᏗ	-2166
ᏢᎩ	-2167
ᏱᎵ	-2168
ᏻꮃ	-2169
ꭰꮴ	-2170
ꭴꭶ	-2171
ꮕꮩ	-2172
ꮧꮖ	-2173
ᎵᏃᎮ	-2174
ᏁᎲᎢ	-2175
ᏩᏛᎮ	-2176
▁ᏄᏅ	-2177
ꭲꮸꮢ	-2178
ꭴꮣꮅ	-2179
ꭽꮻꮒ	-2180
ꮎꮏꮓ	-2181
ꮣꮄꮢ	-2182
▁ᎠᎰᎵ	-2183
▁ᎠᏄᏬ	-2184
▁ᎢᎳᏯ	-2185
▁ᎢᏳᏅ	-2186
▁ᎤᎾᏁ	-2187
▁ᎦᏁᎸ	-2188
▁ᎬᏃᏛ	-2189
▁ᏅᎬᏩ	-2190
▁ᏣᏁᎭ	-2191
▁ᏧᏓᏏ	-2192
ᏗᎦᏅᏌᏗ	-2193
▁ᎠᏆᏤᎵ	-2194
▁ᎢᏣᏓᏅ	-2195
▁ᎤᏂᎪᎲ	-2196
▁ᎤᏩᏒᏉ	-2197
ꭲꮿꭶᏼꮅ	-2198
▁ᎤᎧᎵᏨᎯ	-2199
▁ᏅᏩᏓᎴᏃ	-2200
▁ᎤᎬᏫᏳᎯᏃ	-2201
▁ᏧᏅᏏᏓᏍᏗ	-2202
ᏼꭹ	-2203
ꮎꮖ	-2204
ꭴꮑꮴ	-2205
ꮕꮢꭹ	-2206
ꭰꮝꭹꮎ	-2207
ꭹꮃꮙꮓ	-2208
ꮎꮝꭹꮝꭹꮒ	-2209
,]	-2210
--	-2211
ᎨᏛ	-2212
ᎯᎯ	-2213
ᏚᎩ	-2214
ᏟᏌ	-2215
ᏯᎠ	-2216
ᏰᎩ	-2217
ꭼꮼ	-2218
ꮈꮎ	-2219
ᎪᎲᎩ	-2220
ᎵᏂᎪ	-2221
ᏉᏰᏃ	-2222
ᏍᏓᏱ	-2223
ᏍᏛᏗ	-2224
ᏙᎵᎩ	-2225
▁ᎠᎢ	-2226
▁ᎤᎬ	-2227
▁ᎾᏃ	-2228
▁ᏚᏓ	-2229
▁ᏤᎭ	-2230
▁ᏳᏂ	-2231
ꭴꮇꮴ	-2232
ꭶᏻꮃ	-2233
ꮈꮙꮧ	-2234
ꮝꭹꮿ	-2235
ᏰᎳᏗᏙ	-2236
ᏲᏪᎳᏏ	-2237
▁ᎠᏴᏃ	-2238
▁ᎢᏣᏓ	-2239
▁ᎢᏤᎲ	-2240
▁ᎢᏨᏯ	-2241
▁ᎤᏛᎾ	-2242
ꮑꭲꮝꮧ	-2243
ᎦᏴᎵᎨᎢ	-2244
ᏍᎦᏅᏨᎯ	-2245
▁ᎠᏍᏓᏱ	-2246
▁ᎤᎴᏅᎮ	-2247
▁ᎤᎷᏨᎩ	-2248
▁ᎦᏁᎸᎢ	-2249
▁ᏂᎦᏪᎭ	-2250
▁ᏚᎾᏓᏡ	-2251
▁ᏥᏄᏍᏗ	-2252
▁ᎢᏥᎦᏔᎭ	-2253
▁ᎤᏙᎴᎰᏒ	-2254
▁ᏂᎪᎯᎸᎢ	-2255
▁ᎢᏣᏛᏁᏗᏱ	-2256
▁ᎢᏣᏓᏙᎵᏍᏗ	-2257
▁ᏂᎬᏩᏪᏎᎴᎢ	-2258
▁ᏅᎬᏩᏪᏎᎸᎩ	-2259
▁ᏗᎵᏍᏓᏴᏗᏱ	-2260
▁ᏅᏗᎦᎵᏍᏙᏗᏍᎨ	-2261
ꭴꮄ	-2262
ꭴꮩꮣ	-2263
ꭴꮪꮅꮝ	-2264
ꭶᏼꮅꭸ	-2265
ꮝꮤꮑꭲ	-2266
ꮹꮧꮢꭲ	-2267
ꭲᏻꮎꮝꮧ	-2268
ꮂꮝꭸꮝꮧ	-2269
ꮼꮒꭿꮝꮧ	-2270
ꭰꭶᏼꮅꭸꭲ	-2271
ꭴꮅꮒꭹꮧᏻ	-2272
ᎡᎯ	-2273
ᎬᏂ	-2274
ᏈᏏ	-2275
ᏏᏗ	-2276
ᏘᏃ	-2277
ᏢᏅ	-2278
ᏺꭹ	-2279
ꭴꮧ	-2280
ꮇꮵ	-2281
ꮑꮂ	-2282
ꮞꭽ	-2283
ꮧꮴ	-2284
ꮪꭺ	-2285
ꮴꭽ	-2286
ꮷꮼ	-2287
ᎵᎥᏂ	-2288
ᏁᏍᎨ	-2289
ᏅᏗᏱ	-2290
ᏛᏁᎲ	-2291
ᏢᏔᏅ	-2292
ᏤᎵᏛ	-2293
ᏰᎸᎢ	-2294
▁ᎥᏆ	-2295
▁ᏄᏪ	-2296
▁ᏅᏛ	-2297
▁ᏙᎯ	-2298
▁ᏧᏩ	-2299
▁ᏴᎦ	-2300
ꭴꮅꮟ	-2301
ᏓᏁᏗᏱ	-2302
▁ᎡᎳᏪ	-2303
▁ᎤᏁᏉ	-2304
▁ᎤᏪᎵ	-2305
▁ᎦᏥᏯ	-2306
▁ᎾᏎᎵ	-2307
ꭰꮓꭿᏻ	-2308
ꭰꮝꮣꮿ	-2309
ꮺꮅꮝꭹ	-2310
ᎵᏍᎦᏍᏙ	-2311
▁ᎢᏥᎦᏔ	-2312
▁ᎤᏟᎯᏳ	-2313
▁ᎾᎯᏳᏃ	-2314
▁ᏔᎴᎲᎦ	-2315
ᎤᏍᏕᏎᎸᎯ	-2316
ᏟᎶᏍᏔᏅᎯ	-2317
▁ᎠᏰᎳᏍᏗ	-2318
▁ᎤᎵᏍᎪᎸ	-2319
▁ᏗᏂᎳᏫᎩ	-2320
▁ᎠᏂᏏᏴᏫᎭ	-2321
▁ᏄᎵᏍᏔᏂᏙ	-2322
▁ᏱᎦᎵᏍᏙᏓ	-2323
▁ᎤᏔᎳᏬᎯᏍᏗ	-2324
ᏼꭿ	-2325
ꭴᏼ	-2326
ꮀꮅ	-2327
ꮰꮿ	-2328
ꮟᏼꮻ	-2329
ꭴꮓꭿᏻ	-2330
ꭼꮹꮇꮴ	-2331
ꮧꮤꮝꮧ	-2332
ꭰꮎꮅꮕꮯ	-2333
ꭰꮣꭸᏻꮧ	-2334
ꭴꮒꮝꮖꮒꭺ	-2335
ᎥᎯ	-2336
ᏈᏱ	-2337
ᏍᏘ	-2338
ᏎᏃ	-2339
ᏗᏂ	-2340
ᏘᏅ	-2341
ᏤᎭ	-2342
ᏪᏏ	-2343
ᏪᏛ	-2344
ꮅꭺ	-2345
ꮠꮧ	-2346
ᎶᏎᎢ	-2347
ᏃᎮᎮ	-2348
ᏃᎲᏏ	-2349
ᏅᏃᏛ	-2350
ᏍᎫᏕ	-2351
ᏲᎢᏳ	-2352
▁ᎢᎤ	-2353
▁ᎤᏄ	-2354
▁ᎬᏅ	-2355
▁ᏓᎬ	-2356
▁ᏕᎪ	-2357
▁ᏡᎬ	-2358
▁ᏤᏣ	-2359
▁ᏧᎦ	-2360
▁ᏧᏭ	-2361
▁ᏯᏆ	-2362
ꭰꮑꮂ	-2363
ꭴꮝꮥ	-2364
ꭴꮰᏹ	-2365
ꮒꮵꮺ	-2366
ᎲᏍᎨᎢ	-2367
ᏓᏁᏟᏴ	-2368
ᏡᏗᏍᎩ	-2369
▁ᎠᎫᏴ	-2370
▁ᎠᎹᏟ	-2371
▁ᎠᏣᏗ	-2372
▁ᎧᏃᎯ	-2373
▁ᎬᏩᎾ	-2374
ᏯᏔᎮᏍᏗ	-2375
▁ᎠᏓᏁᎯ	-2376
▁ᎦᎷᏨᎭ	-2377
▁ᏕᎤᏙᎥ	-2378
ꭰꮒꮝꭹꮎ	-2379
ᏍᏗᏍᎨᏍᏗ	-2380
▁ᎦᎸᏉᏙᏗ	-2381
▁ᎨᏥᎸᏉᏗ	-2382
ꮔꮅꮝꮤꮑꭲ	-2383
▁ᎠᏓᏅᏖᏍᎬ	-2384
▁ᎢᏳᏓᎴᏅᏛ	-2385
▁ᏂᎦᎵᏍᏗᎭ	-2386
▁ᏕᏣᏓᏅᏛᎢ	-2387
ꮪꮒꮈꮻꮝꮣꮑ	-2388
ꭰꭺ	-2389
ꭰꮊ	-2390
ꭱꭽ	-2391
ꮞꮧ	-2392
ꮿꭲ	-2393
ꭰꭶꮨ	-2394
ꮕꭿꮫ	-2395
ꮤꮃꮼ	-2396
ꮧꭻꭺ	-2397
ꮷꮴꮅ	-2398
ꮒꮳꮫꮑ	-2399
ꮟᏼꮻꭽ	-2400
ꮨꮒꮩꭿ	-2401
ꭶꮆꭿꮝꮧᏹ	-2402
ᏅᏗ	-2403
ᏑᏯ	-2404
ᏑᏴ	-2405
▁Ꮢ	-2406
ꭲꮃ	-2407
ꭼꮓ	-2408
ꮜꮒ	-2409
ꮣꮫ	-2410
ᎵᏏᎾ	-2411
ᏍᎪᎸ	-2412
ᏐᏅᎯ	-2413
ᏓᏛᎩ	-2414
ᏗᏓᎴ	-2415
ᏟᏍᏗ	-2416
ᏣᎴᏛ	-2417
ᏰᎸᎾ	-2418
▁ᎡᏈ	-2419
▁ᏕᏨ	-2420
▁ᏗᏦ	-2421
ꭲᏻꮹ	-2422
ꭶꮝꭹ	-2423
ꭶꮤꮂ	-2424
ꮵᏻꭿ	-2425
ᎬᏁᎸᎯ	-2426
ᎲᏍᎪᎢ	-2427
ᏍᏕᎵᏍ	-2428
ᏔᏲᏎᎭ	-2429
ᏗᏍᎪᎢ	-2430
▁ᎣᏂᏃ	-2431
▁ᎤᎩᎬ	-2432
▁ᎤᎾᏕ	-2433
▁ᎤᏪᏙ	-2434
▁ᎦᏛᎦ	-2435
▁ᏃᏈᏏ	-2436
▁ᏅᏛᎩ	-2437
▁ᏆᏂᏆ	-2438
▁ᏱᏍᎩ	-2439
ꭲꭶꮫꮓ	-2440
ꭴꮒꮇꮴ	-2441
ꮕꮣꭼꮹ	-2442
▁ᎠᎩᎵᏲ	-2443
▁ᎢᏤᎲᎢ	-2444
▁ᏄᏃᎯᏳ	-2445
▁ᏓᏓᎿᏩ	-2446
▁ᏗᏅᏃᏛ	-2447
▁ᏗᏓᏅᏙ	-2448
▁ᏙᏱᏗᏢ	-2449
▁ᎠᏂᏍᎦᎾ	-2450
▁ᎢᎬᏁᎸᎯ	-2451
▁ᎢᏓᏓᏅᏟ	-2452
▁ᎤᎦᎵᏍᏗ	-2453
▁ᎾᏍᎦᏅᎾ	-2454
▁ᏂᎦᏪᏍᎬ	-2455
▁ᏂᏚᏪᏎᎴ	-2456
▁ᎠᏂᎦᏔᎲᎢ	-2457
▁ᎬᏩᏍᏓᏩᏛ	-2458
▁ᏅᏓᏳᎶᏒᎯ	-2459
ꭲꮣ	-2460
ꭵꮎ	-2461
ꮆꮫ	-2462
ꮏꭲ	-2463
ꮵꮑ	-2464
ꮠꮧᏹ	-2465
ꮕꮹꮎꮣꮄ	-2466
ꮝꮣꮹꮧꮩꭿ	-2467
ꮷꮒᏺꮁꮢꭿ	-2468
ꭰꮓꭿᏻꮂꮝꭹ	-2469
ᎯᎠ	-2470
ᎵᏒ	-2471
ᏑᎴ	-2472
ᏛᏓ	-2473
ᏨᏃ	-2474
ᏪᏐ	-2475
ᏱᏃ	-2476
ᏸꭿ	-2477
▁Ꮺ	-2478
ꮎꭲ	-2479
ꮣᏺ	-2480
ꮿꮒ	-2481
ᎶᏒᎩ	-2482
ᏁᎸᎭ	-2483
ᏘᏃᎮ	-2484
▁ᎢᏅ	-2485
▁ᎤᎧ	-2486
▁ᎮᎾ	-2487
▁ᏕᎩ	-2488
▁ᏙᏧ	-2489
▁ᏩᎦ	-2490
▁ᏭᎾ	-2491
▁ᏯᏂ	-2492
ꭰꭹꮎ	-2493
ꭴꭷꮅ	-2494
ꮎꮭꭲ	-2495
ꮑꮯᏼ	-2496
ᎧᎿᏩᏛ	-2497
ᎪᏩᏘᎭ	-2498
ᎸᏉᏙᏗ	-2499
ᏢᏔᏅᏛ	-2500
ᏬᏂᏍᎬ	-2501
▁ᎠᏓᏰ	-2502
▁ᎢᏯᏆ	-2503
▁ᎥᏓᎵ	-2504
▁ᏉᎳᏃ	-2505
▁ᏐᏈᎵ	-2506
▁ᏗᏓᏬ	-2507
▁ᏭᎷᏤ	-2508
ꭰꮒꭸᏼ	-2509
ꭴꮣꮕꮨ	-2510
ꭶᏸꭺꭹ	-2511
ꮵꭸꮢꭹ	-2512
▁ᎢᎩᏙᏓ	-2513
▁ᎤᎵᎮᎵ	-2514
▁ᎪᏪᎵᎯ	-2515
▁ᎬᏬᎯᏳ	-2516
▁ᎾᏎᎵᏗ	-2517
▁ᏓᏆᏙᎥ	-2518
▁ᏧᏂᏢᎩ	-2519
▁ᎠᏆᏤᎵᎦ	-2520
▁ᎢᏨᎨᏳᎢ	-2521
▁ᎢᏨᏲᏎᎭ	-2522
▁ᎤᎵᏍᏈᏗ	-2523
▁ᎾᎩᏪᏎᎸᎩ	-2524
▁ᏅᏓᏳᎵᏍᏙ	-2525
▁ᏗᎨᎦᏁᎶᏗ	-2526
▁ᎢᏳᎾᎵᏍᏓᏁᏗ	-2527
ꭱꮃ	-2528
ꭸꮻ	-2529
ꮡꮎ	-2530
ꮤꮄ	-2531
ꮥꭼ	-2532
ꮪꮈ	-2533
ꮪꮺ	-2534
ꭴꮄꮕ	-2535
ꭵꮝꭹ	-2536
ꮢꮓᏹ	-2537
ꭶꮈꮆꭲ	-2538
ꮝꮥꮈꮧ	-2539
ꮧꮝꭼꭲ	-2540
ꭲꭼᏹꮧꮲ	-2541
ꭴꮑꮃꮕꭿᏸꮓ	-2542
ᎥᏏ	-2543
ᎨᏂ	-2544
ᎪᎮ	-2545
ᎶᎻ	-2546
ᏂᏒ	-2547
ᏨᎢ	-2548
ꮙꭿ	-2549
ꮝꭻ	-2550
ꮥꮒ	-2551
ꮪꮓ	-2552
ꮳꭶ	-2553
ꮷꮓ	-2554
ꮽꮆ	-2555
ꮿꭹ	-2556
ᎥᏍᎬ	-2557
ᏂᏍᎬ	-2558
ᏔᏲᎯ	-2559
ᏕᏲᏗ	-2560
ᏞᏍᏗ	-2561
▁ᎣᎬ	-2562
▁ᎪᏢ	-2563
▁ᎯᏯ	-2564
▁ᏅᎦ	-2565
▁ᏐᎳ	-2566
▁ᏓᏲ	-2567
▁ᏗᎹ	-2568
▁ᏥᏨ	-2569
▁ᏫᎬ	-2570
ꭴꮔꭺ	-2571
ꭺꭿꮫ	-2572
ꭿꮝꭹ	-2573
ꮪꮣꮄ	-2574
ꮯꮆꮫ	-2575
ᎦᏅᎯᏛ	-2576
ᎨᏳᎢᏳ	-2577
ᎾᏝᎥᎾ	-2578
ᏌᎳᏓᏅ	-2579
ᏑᎶᏨᎯ	-2580
ᏛᏁᎲᎢ	-2581
ᏩᏛᏗᏱ	-2582
▁ᎠᏂᏃ	-2583
▁ᎠᏗᎭ	-2584
▁ᎤᏍᎦ	-2585
▁ᏅᏲᎯ	-2586
▁ᏕᎨᎦ	-2587
▁ᏤᎦᏈ	-2588
▁ᏥᎨᏎ	-2589
▁ᏧᏓᎴ	-2590
▁ᏱᏂᎦ	-2591
ꮂꮝꭼꭲ	-2592
ᎾᏛᎿᏕᎩ	-2593
ᏟᎶᏍᏓᏁ	-2594
▁ᎠᏂᎪᎢ	-2595
▁ᎠᏂᏙᎾ	-2596
▁ᎡᎯᏍᏗ	-2597
▁ᎢᏥᏈᏱ	-2598
▁ᎢᏥᏙᏓ	-2599
▁ᎤᎵᏏᎬ	-2600
▁ᎤᏠᏱᏉ	-2601
▁ᏂᎦᎥᏉ	-2602
ꭴꮎꮣꮱꭼ	-2603
▁ᎠᏆᏓᏅᏙ	-2604
▁ᎢᏯᏛᏁᎯ	-2605
▁ᎤᏕᏯᏙᏗ	-2606
▁ᏄᎵᏍᏔᏁ	-2607
ꮧꮓꮺꮅꮝꭹ	-2608
▁ᎢᏳᎾᏛᏁᏗ	-2609
ꮅꮝꭺꮈꮤꮕꭿ	-2610
▁ᎠᏥᏅᏏᏓᏍᏗ	-2611
▁ᎢᏳᏩᏂᏐᏗᏱ	-2612
▁ᏧᎸᏫᏍᏓᏁᎯ	-2613
ꭰꮓ	-2614
ꭱꭹ	-2615
ꭵꭵ	-2616
ꮒꮣ	-2617
ꮔꭾ	-2618
ꮣᏸ	-2619
ꮵꮥ	-2620
ꮸꮢ	-2621
ꮿꮩ	-2622
ꭴꭺꮂ	-2623
ꮑꮈꭲ	-2624
ꮝꭶꮿ	-2625
ꮡᏸꮫ	-2626
ꮫꮑꭲ	-2627
ꭴꮩꮄꮀ	-2628
ꮑꭾꮝꮧ	-2629
ꮵꭸꮞꭲ	-2630
ꭴꮎꮩꮣꮖ	-2631
ꭴꮴꮅꭺꭿ	-2632
ꭸꮵꮕꮟꮫ	-2633
ꭶꮩꭵꭿꮝꮧ	-2634
ᎦᎶ	-2635
ᎸᎾ	-2636
ᏚᎪ	-2637
ᏹꮧ	-2638
ꭱꭲ	-2639
ꭴꭺ	-2640
ꭶꮕ	-2641
ꮜꮃ	-2642
ꮟꮜ	-2643
ꮿꮤ	-2644
ᎨᏳᎭ	-2645
ᏁᎰᎢ	-2646
ᏅᏓᏗ	-2647
ᏍᏗᏉ	-2648
ᏩᏒᎩ	-2649
▁ᎨᎳ	-2650
▁ᏄᏓ	-2651
▁ᏕᎭ	-2652
▁ᏙᎩ	-2653
▁ᏚᎴ	-2654
▁ᏚᏬ	-2655
▁ᏛᏂ	-2656
▁ᏥᎬ	-2657
▁ᏦᏥ	-2658
▁ᏴᎬ	-2659
ꭰꮛꮢ	-2660
ꭶꮅꮶ	-2661
ꭹꭶꭸ	-2662
ꮃꮝꮧ	-2663
ꮇꮸꭽ	-2664
ꮥꭸꮵ	-2665
ꮹꮝꮫ	-2666
ᎳᏍᏓᎸ	-2667
ᏍᏆᎸᎲ	-2668
ᏍᏗᏍᎬ	-2669
▁ᎠᏍᏚ	-2670
▁ᎠᏲᎩ	-2671
▁ᎦᎬᏩ	-2672
▁ᏂᏙᏓ	-2673
▁ᏐᎢᏃ	-2674
▁ᏗᎨᏫ	-2675
▁ᏚᎴᏅ	-2676
ꭰꮊꮙꭿ	-2677
ꭴꮣꮅꭲ	-2678
ꭴꮣꮕꮦ	-2679
ꮅꮝꮩꮣ	-2680
ꮔꮣꮄꮢ	-2681
ꮕꮝꮧᏹ	-2682
ꮝꮧꮝꭹ	-2683
▁ᎠᎦᏔᎲ	-2684
▁ᎠᎵᏥᏙ	-2685
▁ᎠᏍᎦᎾ	-2686
▁ᎠᏙᎴᎰ	-2687
▁ᎤᏬᏰᏂ	-2688
▁ᎦᏍᎩᎸ	-2689
ᎩᎵᏲᎢᏍᏗ	-2690
ᏓᏂᎸᎢᏍᏗ	-2691
▁ᎢᏣᎵᎮᎵ	-2692
▁ᎧᏃᎯᏰᎩ	-2693
▁ᎾᏍᎩᏯᏉ	-2694
▁ᏚᎾᏓᏅᏛ	-2695
ꭴꮒꭼꮻᏻꭿ	-2696
ᏓᏙᎵᏍᏓᏁᎯ	-2697
▁ᎠᏆᏛᎦᏅᎩ	-2698
▁ᎤᏅᏏᏓᏍᏗ	-2699
▁ᎤᎵᏍᏆᏗᏍᏗ	-2700
ꮕꮧꭶꮅꮝꮩꮧꮝꭸꮝꮧ	-2701
ꭱꮊ	-2702
ꭴꮲ	-2703
ꭷꮒ	-2704
ꮕꮢ	-2705
ꮧꭷ	-2706
ꮪꮻ	-2707
ᏸꮈꭽ	-2708
ᏸꮈꭿ	-2709
ꭰᏺꮅ	-2710
ꭴꮒᏼ	-2711
ꭷꮅꭲ	-2712
ꮆꮢꭿ	-2713
ꮔꮺꮢ	-2714
ꮙꭿᏻ	-2715
ꮝꮪꭲ	-2716
ꮹꮫꮂ	-2717
ꮅꮝꮤꮕ	-2718
ꮎꮎꮫꮑ	-2719
ꮝꭶꮕꮎ	-2720
ꮰꮎꮝꮧ	-2721
ꮝꮥꮈꮧᏹ	-2722
ꮤꮥᏺꮂꮝꭹ	-2723
ᎨᏣ	-2724
ᎩᎸ	-2725
ᎳᏅ	-2726
ᏆᏗ	-2727
ᏠᎠ	-2728
ꭿꮿ	-2729
ꮂꮟ	-2730
ꮄꮫ	-2731
ꮑꮙ	-2732
ꮥꭸ	-2733
ꮧꮸ	-2734
ꮩꮒ	-2735
ꮫꭿ	-2736
ꮻꮸ	-2737
ᎦᎸᏛ	-2738
ᏅᏎᎢ	-2739
ᏌᏅᎯ	-2740
ᏍᏓᏏ	-2741
ᏍᏓᏕ	-2742
ᏏᏙᏂ	-2743
ᏗᏍᎪ	-2744
ᏩᏛᎯ	-2745
ᏩᏛᏗ	-2746
▁ᎢᏕ	-2747
▁ᎢᏲ	-2748
▁ᎾᎬ	-2749
▁ᏗᏗ	-2750
▁ᏙᏛ	-2751
▁ᏫᎤ	-2752
▁ᏱᏕ	-2753
ꭱꮊꮕ	-2754
ꭹꮅᏺ	-2755
ꮅꮝꭶ	-2756
ꮝꭶꭹ	-2757
ᎫᏴᎡᏗ	-2758
ᏃᎮᏍᎬ	-2759
▁ᎠᏂᏁ	-2760
▁ᎠᏚᎢ	-2761
▁ᎬᏙᏗ	-2762
▁ᎬᏩᏚ	-2763
▁ᏂᏚᏂ	-2764
▁ᏚᏳᎪ	-2765
▁ᏩᏍᏛ	-2766
ꭰꮣꮑꮈ	-2767
ꭴᏺꭲᏻ	-2768
ꭴꮒꮓꭾ	-2769
ꮥꮨᏼꮫ	-2770
ᏍᏓᏁᎸᎯ	-2771
▁ᎠᎾᏛᎩ	-2772
▁ᎤᎬᏫᏳ	-2773
▁ᎪᏪᎸᎢ	-2774
▁ᏧᏂᎾᏫ	-2775
ꭺꮹꮫꮧᏹ	-2776
▁ᎢᏦᎯᏳᏒ	-2777
▁ᎢᏯᏛᏁᏗ	-2778
▁ᎯᎠᏍᎩᏂ	-2779
ᎸᏫᏍᏓᏁᎲᎢ	-2780
▁ᏄᏃᎯᏳᏒᎾ	-2781
▁ᏅᏛᎩᏅᏏᏛ	-2782
▁ᏗᎫᎪᏙᏗᏱ	-2783
ꮈꮻꮝꮣꮑꮧᏹ	-2784
▁ᎠᎵᏍᏆᏗᏍᎩ	-2785
▁ᎢᏳᎾᏛᎿᏕᎩ	-2786
▁ᏗᎧᎿᏩᏛᏍᏗᏱ	-2787
▁ᏅᏓᏳᎵᏍᏙᏔᏅᎩ	-2788
ꭲꭸ	-2789
ꭲꮕ	-2790
ꮢꭽ	-2791
ꮣꮆ	-2792
ꮻꮎ	-2793
ꭰꮧꮎ	-2794
ꭼꮹꮫ	-2795
ꭲꭺꭿꮫ	-2796
ꭸᏻꭿᏻ	-2797
ꮒꭼꮎꮫ	-2798
ꭲᏻꮝꭹꮒ	-2799
ꭴꮎꮔꭺꮻ	-2800
ꮅꮝꮩꮧꮝꭼꭹ	-2801
ᎵᎢ	-2802
ᎶᏒ	-2803
ᏏᎾ	-2804
ᏚᎶ	-2805
ᏥᏌ	-2806
▁Ꮂ	-2807
ꭸꮟ	-2808
▁	-2809
¦	-2810
Ꮝ	-2811
Ꮧ	-2812
Ꭰ	-2813
,	-2814
Ꭹ	-2815
Ꭲ	-2816
Ꮎ	-2817
ꮝ	-2818
Ꮒ	-2819
Ꭿ	-2820
Ꭴ	-2821
Ꭶ	-2822
Ꮣ	-2823
ꮧ	-2824
Ꮅ	-2825
Ꮕ	-2826
Ꭸ	-2827
ꭰ	-2828
Ꮄ	-2829
Ꮑ	-2830
Ꮫ	-2831
ꭹ	-2832
.	-2833
ꭲ	-2834
Ꮓ	-2835
Ꮵ	-2836
ꮎ	-2837
Ꮢ	-2838
Ꭼ	-2839
ꮒ	-2840
Ꮈ	-2841
Ᏻ	-2842
ꭿ	-2843
ꭴ	-2844
Ꮩ	-2845
ꭶ	-2846
Ᏹ	-2847
;	-2848
Ꭺ	-2849
ꮣ	-2850
ꮅ	-2851
ꮕ	-2852
ꭸ	-2853
Ꮞ	-2854
Ꮹ	-2855
ꮄ	-2856
ꮑ	-2857
ꮫ	-2858
Ꮻ	-2859
Ꮙ	-2860
ꮓ	-2861
ꮵ	-2862
ꮢ	-2863
Ꮃ	-2864
ꭼ	-2865
Ꮳ	-2866
Ꮪ	-2867
Ᏼ	-2868
Ꮿ	-2869
Ꮥ	-2870
ꮈ	-2871
Ꮤ	-2872
ᏻ	-2873
Ꮺ	-2874
𐊣	-2875
𐊼	-2876
Ꮆ	-2877
ꮩ	-2878
Ᏸ	-2879
Ꮔ	-2880
Ꭵ	-2881
Ꮷ	-2882
ᏹ	-2883
Ꭽ	-2884
Ꮂ	-2885
Ꮟ	-2886
ꭺ	-2887
Ꮴ	-2888
ꮞ	-2889
Ꭱ	-2890
ꮹ	-2891
Ᏺ	-2892
ꮻ	-2893
Ꮸ	-2894
ꮙ	-2895
Ꮜ	-2896
Ꭾ	-2897
Ꮏ	-2898
ꮃ	-2899
ꮳ	-2900
ꮪ	-2901
Ꮖ	-2902
ᏼ	-2903
ꮿ	-2904
ꮥ	-2905
ꮤ	-2906
ꮺ	-2907
Ꮨ	-2908
ꮆ	-2909
ᏸ	-2910
Ꮭ	-2911
ꮔ	-2912
ꭵ	-2913
Ꭷ	-2914
ꮷ	-2915
ꭽ	-2916
ꮂ	-2917
Ꭳ	-2918
ꮟ	-2919
ꮴ	-2920
ꭱ	-2921
ᏺ	-2922
?	-2923
Ꮇ	-2924
ꮸ	-2925
Ꮼ	-2926
ꮜ	-2927
ꭾ	-2928
Ꮯ	-2929
ꮏ	-2930
Ꮲ	-2931
-	-2932
ꮖ	-2933
Ꮀ	-2934
Ꮁ	-2935
ꮨ	-2936
Ꮠ	-2937
ꮭ	-2938
ꭷ	-2939
ꭳ	-2940
Ꮶ	-2941
ꮇ	-2942
Ꮘ	-2943
Ꮦ	-2944
ꮼ	-2945
ꮯ	-2946
ꮲ	-2947
Ꮽ	-2948
Ꭻ	-2949
Ꮮ	-2950
ꮀ	-2951
ꮁ	-2952
ꮠ	-2953
Ꮡ	-2954
Ꮰ	-2955
Ꮋ	-2956
ꮶ	-2957
Ꮗ	-2958
Ꮉ	-2959
Ꮱ	-2960
ꮘ	-2961
ꮦ	-2962
[	-2963
]	-2964
ꮽ	-2965
ꭻ	-2966
ꮮ	-2967
ꮡ	-2968
ꮰ	-2969
ꮋ	-2970
Ꮊ	-2971
ꮗ	-2972
ꮉ	-2973
ꮱ	-2974
Ꮛ	-2975
"	-2976
!	-2977
Ꮬ	-2978
ꮊ	-2979
Ꮾ	-2980
Ꮌ	-2981
ꮛ	-2982
(	-2983
)	-2984
ꮬ	-2985
ꮾ	-2986
ꮌ	-2987
:	-2988
𐋇	-2989
'	-2990
Ꮚ	-2991
~	-2992
ꮚ	-2993
Ꮍ	-2994
\	-2995
ꮍ	-2996
