<pad>	0
</s>	0
<unk>	0
¦	-1.97989
▁	-2.32741
▁¦	-2.56681
ˈ	-2.72868
̈	-3.83102
𐋇	-4.05174
,	-4.07754
a	-4.34746
.	-4.38805
an	-4.41868
e	-4.51365
▁Comam	-4.58266
k	-4.70642
▁̈	-4.8638
▁naj	-4.9384
j	-4.95775
o	-4.96873
n	-5.01505
c	-5.04444
▁,	-5.08545
▁tu	-5.12425
▁ebnaj	-5.1245
▁yin	-5.12902
to	-5.17882
i	-5.18679
comam	-5.27351
ni	-5.27426
naj	-5.35378
▁chi	-5.36241
ti	-5.42453
▁is	-5.49492
▁.	-5.51544
is	-5.53971
▁xin	-5.54215
yin	-5.54909
tu	-5.55625
ul	-5.58375
ta	-5.65058
ebnaj	-5.65241
▁yul	-5.65818
ch	-5.6625
il	-5.66728
▁caw	-5.68881
ay	-5.70235
al	-5.70527
u	-5.70714
chi	-5.71089
▁ha	-5.72355
m	-5.73118
ab	-5.78897
xa	-5.80036
▁Dios	-5.80631
▁hune	-5.80915
▁he	-5.83673
caw	-5.84186
co	-5.85418
▁yu	-5.8569
yu	-5.85905
han	-5.87758
ha	-5.88755
▁yeb	-5.91947
▁tet	-5.93476
he	-5.95427
▁ti	-5.95606
▁anma	-5.96421
en	-6.02773
xin	-6.03543
in	-6.03657
paxo	-6.07231
▁―	-6.07353
▁ay	-6.11014
tz	-6.1177
h	-6.12783
te	-6.13416
p	-6.14265
▁tzet	-6.14292
lax	-6.15628
yet	-6.16535
yul	-6.18244
▁mach	-6.18845
s	-6.20998
can	-6.21636
ya	-6.22682
bal	-6.27203
hune	-6.27717
▁yet	-6.28254
w	-6.28575
wal	-6.31768
on	-6.3179
oj	-6.32943
▁ẍi	-6.34107
wi	-6.35447
▁isc	-6.35513
:	-6.35936
tzet	-6.36256
anma	-6.36817
yeb	-6.37979
ob	-6.38461
cano	-6.38737
dios	-6.39287
▁mac	-6.39811
ˈ,	-6.4013
no	-6.40212
tet	-6.41367
lo	-6.41867
r	-6.45866
ek	-6.48374
▁haca	-6.49145
▁Ha	-6.49186
oc	-6.49371
b	-6.53435
ic	-6.54106
▁ch	-6.56135
mach	-6.57222
l	-6.5737
bil	-6.5922
t	-6.59358
isc	-6.59497
we	-6.61627
ah	-6.66108
tx	-6.66378
▁ya	-6.67764
yiban	-6.70575
che	-6.71366
el	-6.72267
▁sat	-6.73607
na	-6.74219
?	-6.74973
inal	-6.76354
▁ta	-6.77928
▁sunil	-6.7886
mac	-6.79271
▁tato	-6.79864
ye	-6.7998
▁isk	-6.81547
ulal	-6.82026
▁con	-6.84021
▁yuto	-6.84045
ma	-6.84306
ba	-6.84911
yalni	-6.85528
ẍi	-6.85976
▁c	-6.86164
sat	-6.8665
d	-6.86844
om	-6.87369
ec	-6.87502
H	-6.87821
ojan	-6.88433
▁che	-6.8877
▁ye	-6.8896
cha	-6.89314
▁ix	-6.90949
▁isba	-6.91197
tic	-6.91439
▁cat	-6.91797
y	-6.92387
la	-6.9279
haca	-6.93907
ix	-6.94477
▁te	-6.95458
ilo	-6.95808
xol	-6.96279
watx	-6.97141
▁hunu	-6.97162
▁Y	-6.97945
▁Wal	-6.9807
wa	-6.98194
▁hunt	-7.0092
sunil	-7.02066
▁:	-7.02424
▁chu	-7.02479
bi	-7.03133
▁tx	-7.03412
ojab	-7.04823
▁bey	-7.05444
▁co	-7.05861
ayic	-7.06101
▁chal	-7.07093
▁yalni	-7.07399
hal	-7.07729
ca	-7.08548
▁in	-7.09189
yanma	-7.09389
ico	-7.10059
con	-7.10125
lan	-7.1091
um	-7.11865
▁Jesús	-7.12789
otx	-7.13435
yil	-7.13523
▁bay	-7.14076
tzoti	-7.1525
ho	-7.15436
▁Is	-7.16221
yuto	-7.16983
yaj	-7.17212
▁cha	-7.17289
hunu	-7.1951
▁tz	-7.20164
tato	-7.20168
bey	-7.20205
pax	-7.20249
isk	-7.22537
hac	-7.26672
ayo	-7.27859
▁yaj	-7.28453
iswatx	-7.28906
▁Jesucristo	-7.28956
wan	-7.29534
▁ma	-7.2956
tan	-7.296
un	-7.2986
▁Caw	-7.30575
lah	-7.32443
chal	-7.3491
”	-7.35081
yabe	-7.35169
cam	-7.36651
yuxin	-7.36957
▁yuxin	-7.37026
▁Yaj	-7.37998
le	-7.38372
mam	-7.3929
maẍt	-7.39839
▁hac	-7.40906
ap	-7.42414
isba	-7.43698
cat	-7.43983
▁machi	-7.44015
▁Yalni	-7.44795
tinan	-7.44824
▁ayco	-7.45276
T	-7.45574
▁wal	-7.45752
▁teyet	-7.46224
hunt	-7.47534
ˈ:	-7.47895
▁Hac	-7.47969
wet	-7.48376
tajil	-7.48614
ojal	-7.49091
chu	-7.49818
▁Israel	-7.51486
;	-7.52094
ej	-7.52324
xan	-7.52417
atan	-7.538
lahwi	-7.53851
bay	-7.54313
yehi	-7.54706
▁Yuxin	-7.55011
hul	-7.56862
▁yal	-7.57526
▁xol	-7.57931
yohta	-7.58096
ban	-7.5811
yelapno	-7.5829
apni	-7.59328
yatut	-7.59378
yilni	-7.59581
tzotel	-7.59597
▁A	-7.59615
▁istx	-7.60144
▁chin	-7.60531
taj	-7.61174
win	-7.61366
g	-7.61777
▁yun	-7.62343
ayto	-7.62379
▁Lahwi	-7.62644
yo	-7.62957
ebix	-7.63029
▁yoc	-7.63728
yi	-7.63852
munil	-7.64305
juẍta	-7.64599
eb	-7.64719
yal	-7.65372
mi	-7.65462
aj	-7.6559
▁yanma	-7.65867
inan	-7.67008
▁yip	-7.67398
tojan	-7.68716
▁ischejab	-7.6907
sa	-7.69653
▁no	-7.69884
me	-7.70044
ixim	-7.71575
quin	-7.73271
yahawil	-7.74851
icham	-7.75151
jet	-7.75166
as	-7.7518
hayet	-7.75526
xahan	-7.76301
yapni	-7.77911
ro	-7.78742
▁Ch	-7.78801
satcan	-7.79698
q	-7.79786
yije	-7.80683
yute	-7.80729
▁Yet	-7.80851
chiwalan	-7.80881
jesús	-7.81781
yoc	-7.82415
quex	-7.82486
ahol	-7.82527
C	-7.83172
▁chex	-7.85866
▁chis	-7.86287
machi	-7.8638
iscuywom	-7.86703
howal	-7.87451
yalan	-7.87638
▁yi	-7.88099
anil	-7.88151
chon	-7.89001
ibn	-7.90864
▁isya	-7.91571
▁cam	-7.92738
!	-7.93186
▁iswi	-7.93789
ip	-7.93827
▁yel	-7.93906
‐	-7.94775
▁hun	-7.96692
chiwa	-7.97114
▁niman	-7.97242
▁hunun	-7.97524
matzwalil	-7.97616
ayco	-7.98154
esucristo	-7.98305
yel	-7.98358
▁matxa	-7.99304
li	-7.99593
yah	-7.99703
choche	-7.9975
teyet	-8.00458
chahni	-8.01465
istx	-8.02209
▁istz	-8.02243
tzala	-8.0246
ayxaco	-8.0259
niman	-8.03617
chin	-8.04259
ismajul	-8.04433
anico	-8.04544
▁heba	-8.04762
ismul	-8.04851
Mach	-8.04943
▁ton	-8.05375
uy	-8.05585
ángel	-8.05764
▁Pablo	-8.06062
▁Ay	-8.0659
▁yilal	-8.07057
yip	-8.07073
▁Ma	-8.07406
yanico	-8.0881
yuninal	-8.09101
E	-8.1096
nich	-8.11809
iloj	-8.11854
amben	-8.12711
israel	-8.13341
cach	-8.15386
nilo	-8.15615
babel	-8.15959
z	-8.16105
tiempohal	-8.1668
hanin	-8.18315
hun	-8.19168
colwa	-8.20885
yechel	-8.20898
istan	-8.21276
W	-8.21507
xiw	-8.22307
ischejab	-8.22477
yaco	-8.24213
saj	-8.24542
anmahil	-8.26054
waxan	-8.26569
yahaw	-8.2686
▁Yuto	-8.27288
camical	-8.27656
▁Ta	-8.28466
erusalén	-8.31044
chiyij	-8.31695
sacerdote	-8.32201
maẍtaj	-8.32345
haxinwal	-8.32441
tiempo	-8.32698
M	-8.32974
▁Espíritu	-8.3416
colbanil	-8.34557
isnimanil	-8.34572
▁cuybanile	-8.36245
▁teyin	-8.36498
▁Pedro	-8.37377
▁Haxa	-8.37476
▁Moisés	-8.37787
haxa	-8.3796
isley	-8.38636
isnabal	-8.38852
▁wetan	-8.39359
yoche	-8.39793
munla	-8.39913
rey	-8.40198
hunelxa	-8.41187
lin	-8.41569
matxa	-8.4196
▁Ista	-8.42131
elico	-8.4307
wuhan	-8.43275
espíritu	-8.43701
ischah	-8.43784
ley	-8.46738
isyelal	-8.48169
Tzet	-8.49066
▁janma	-8.49177
f	-8.49757
paxojan	-8.51171
▁Santo	-8.51389
ebilcano	-8.5298
xahanbal	-8.53228
▁Juan	-8.53287
txumni	-8.53718
▁Yin	-8.5461
chejbanil	-8.54978
yuxinto	-8.55811
wuẍtaj	-8.56203
ispa	-8.56973
cuybanil	-8.57088
payat	-8.57944
cheyal	-8.58172
yayto	-8.58596
cuywawom	-8.587
beh	-8.59238
isyije	-8.59264
ẍiayoj	-8.61082
tohol	-8.61799
tzettaj	-8.63872
isyeni	-8.64323
itzitzbican	-8.66589
tijan	-8.66808
preso	-8.67413
txahli	-8.68253
barco	-8.69127
Mamin	-8.69367
itzitz	-8.70782
A	-8.71139
ohtan	-8.71257
fariseo	-8.7338
hawil	-8.74569
Y	-8.75006
wanmahan	-8.7516
chejab	-8.75943
melyu	-8.76059
ías	-8.76829
braham	-8.76957
I	-8.78137
L	-8.83867
í	-8.90532
K	-9.14
N	-9.15324
O	-9.70347
’	-11.4101
ñ	-11.7023
U	-11.7024
Q	-11.7025
(	-11.7026
‘	-11.7027
Z	-11.7028
X	-11.7029
R	-11.703
F	-11.7031
G	-11.7032
B	-11.7033
¡	-11.7034
v	-11.7035
ó	-11.7036
á	-11.7037
“	-11.7038
S	-11.7039
P	-11.704
é	-11.7041
¿	-11.7042
ú	-11.7043
―	-11.7044
J	-11.7045
D	-11.7046
ẍ	-11.7047
)	-11.7048
x	-11.7048
