<pad>	0
</s>	0
<unk>	0
▁¦	-0
▁、	-1
なた	-2
あなた	-3
って	-4
たし	-5
わたし	-6
▁。	-7
その	-8
った	-9
であ	-10
ない	-11
して	-12
から	-13
こと	-14
われ	-15
である	-16
彼ら	-17
あなたが	-18
たち	-19
よう	-20
あなたがた	-21
また	-22
した	-23
られ	-24
」。	-25
なら	-26
わたしは	-27
エル	-28
これ	-29
いる	-30
あなたの	-31
それ	-32
ように	-33
さい	-34
言った	-35
ため	-36
この	-37
の子	-38
いた	-39
する	-40
、「	-41
され	-42
べて	-43
ので	-44
わたしの	-45
いて	-46
ならない	-47
ろう	-48
すべて	-49
なる	-50
イス	-51
ラエル	-52
イスラエル	-53
ある	-54
ために	-55
れば	-56
主は	-57
かし	-58
人々	-59
びと	-60
あなたは	-61
には	-62
彼らは	-63
であろう	-64
主の	-65
もの	-66
言われ	-67
ことを	-68
者は	-69
すべての	-70
そこ	-71
なさい	-72
エス	-73
イスラエルの	-74
をも	-75
によ	-76
イエス	-77
彼は	-78
うち	-79
られた	-80
ければ	-81
なければ	-82
こう	-83
自分	-84
しかし	-85
られる	-86
ます	-87
かった	-88
そして	-89
これを	-90
くだ	-91
あなたがたの	-92
もろ	-93
しい	-94
なければならない	-95
ことが	-96
んで	-97
▁、「	-98
あなたがたは	-99
われわれ	-100
なわ	-101
えて	-102
れる	-103
なかった	-104
んだ	-105
れた	-106
わが	-107
のために	-108
わたしを	-109
▁」。	-110
わたしが	-111
わたしたち	-112
れて	-113
によって	-114
すなわ	-115
すなわち	-116
どう	-117
させ	-118
人の	-119
をもって	-120
ンの	-121
からである	-122
わたしに	-123
きて	-124
ょう	-125
およ	-126
ください	-127
言葉	-128
を見	-129
える	-130
ユダ	-131
された	-132
とり	-133
のうち	-134
では	-135
言われた	-136
および	-137
でき	-138
につ	-139
そこで	-140
もし	-141
神の	-142
ころ	-143
なく	-144
のように	-145
っている	-146
前に	-147
に言った	-148
共に	-149
のか	-150
ダビ	-151
ダビデ	-152
それを	-153
彼らの	-154
はならない	-155
えた	-156
まで	-157
らせ	-158
とを	-159
とな	-160
きた	-161
▁その	-162
彼らを	-163
ました	-164
であった	-165
とき	-166
主が	-167
のである	-168
とに	-169
自分の	-170
ささ	-171
祭司	-172
これは	-173
人を	-174
あなたを	-175
そう	-176
神は	-177
ひとり	-178
つか	-179
ことは	-180
しょう	-181
ゆえ	-182
人は	-183
たちは	-184
リヤ	-185
ところ	-186
主に	-187
アブ	-188
上に	-189
あなたに	-190
ことができ	-191
です	-192
があ	-193
べき	-194
として	-195
おの	-196
ささげ	-197
らの	-198
モー	-199
モーセ	-200
ませ	-201
される	-202
者の	-203
と共に	-204
にな	-205
物を	-206
だれ	-207
の中	-208
おり	-209
レム	-210
サレム	-211
事を	-212
エルサレム	-213
兄弟	-214
者を	-215
みな	-216
▁また	-217
かって	-218
行って	-219
もろの	-220
シャ	-221
と言	-222
彼を	-223
彼らに	-224
のです	-225
もろもろの	-226
める	-227
はその	-228
▁「	-229
受け	-230
エジ	-231
地に	-232
言われる	-233
出て	-234
プト	-235
エジプト	-236
人々は	-237
めた	-238
つの	-239
ならば	-240
めて	-241
のは	-242
とい	-243
▁わたしは	-244
の王	-245
にある	-246
人が	-247
かに	-248
彼女	-249
イエスは	-250
それは	-251
彼に	-252
者が	-253
取り	-254
命じ	-255
見よ	-256
預言	-257
キリ	-258
滅ぼ	-259
とその	-260
彼の	-261
ロン	-262
にも	-263
行った	-264
▁しかし	-265
しも	-266
▁そこで	-267
の家	-268
スト	-269
多く	-270
らは	-271
あなたがたに	-272
の子孫	-273
であって	-274
しく	-275
けて	-276
にあ	-277
ごと	-278
しもべ	-279
キリスト	-280
ただ	-281
わせ	-282
について	-283
こうして	-284
、『	-285
ている	-286
でしょう	-287
しみ	-288
にお	-289
たちの	-290
与え	-291
サウ	-292
王の	-293
▁主は	-294
地の	-295
所に	-296
ません	-297
▁そして	-298
ごとく	-299
りを	-300
主よ	-301
言葉を	-302
ける	-303
びとの	-304
行き	-305
るであろう	-306
▁それ	-307
りの	-308
ルの	-309
ムの	-310
わざ	-311
食べ	-312
をあ	-313
いつ	-314
いに	-315
したが	-316
彼らが	-317
言う	-318
告げ	-319
とし	-320
とは	-321
あなたがたが	-322
ことごとく	-323
とおり	-324
ような	-325
の間	-326
これらの	-327
かの	-328
います	-329
人に	-330
民は	-331
立って	-332
王は	-333
いを	-334
さば	-335
罪を	-336
かな	-337
行く	-338
主を	-339
モン	-340
イスラエルの人々	-341
もとに	-342
来る	-343
▁」	-344
シュ	-345
ヤコ	-346
者に	-347
ヤコブ	-348
よい	-349
に住	-350
われわれの	-351
かた	-352
彼が	-353
捨て	-354
祭壇	-355
けた	-356
名を	-357
を受け	-358
手に	-359
聞き	-360
われわれは	-361
すると	-362
▁彼らは	-363
民を	-364
より	-365
ではない	-366
でも	-367
らない	-368
手を	-369
たちを	-370
あなたがたを	-371
▁あなたは	-372
わたしたちは	-373
を得	-374
エリ	-375
▁』	-376
るぎ	-377
のうちに	-378
立ち	-379
たちが	-380
となる	-381
多くの	-382
日に	-383
主なる	-384
のだ	-385
律法	-386
とする	-387
の上に	-388
▁彼は	-389
いなる	-390
つかわ	-391
している	-392
っていた	-393
いだ	-394
かつ	-395
あり	-396
身を	-397
地を	-398
とが	-399
先祖	-400
心を	-401
しる	-402
ニヤ	-403
その子	-404
ルは	-405
立て	-406
むかって	-407
たちに	-408
あが	-409
つるぎ	-410
民の	-411
いの	-412
と言った	-413
レビ	-414
一緒	-415
すれば	-416
いなさい	-417
聖なる	-418
まえ	-419
なが	-420
聞いて	-421
大いなる	-422
しき	-423
定め	-424
しま	-425
正しい	-426
をお	-427
を行	-428
つかさ	-429
かせ	-430
神に	-431
という	-432
となり	-433
にいる	-434
ぶどう	-435
ふた	-436
パン	-437
部族	-438
んな	-439
ここ	-440
ものは	-441
かわ	-442
のに	-443
がある	-444
建て	-445
対して	-446
ラム	-447
ユダヤ	-448
なお	-449
呼ば	-450
▁この	-451
ゆる	-452
ものを	-453
は言った	-454
知恵	-455
時に	-456
にはい	-457
どうして	-458
ども	-459
る者は	-460
リシ	-461
のを	-462
いは	-463
のですか	-464
わたしたちの	-465
ると	-466
引き	-467
預言者	-468
さて	-469
にしたが	-470
になった	-471
はい	-472
弟子	-473
のを見	-474
ソロ	-475
であり	-476
を守	-477
のない	-478
契約	-479
よりも	-480
あなたの神	-481
軍の	-482
らに	-483
生き	-484
ダビデは	-485
喜び	-486
ためである	-487
町々	-488
アロン	-489
る者	-490
幕屋	-491
に従	-492
追い	-493
恵み	-494
そこに	-495
るように	-496
とど	-497
打ち	-498
氏族	-499
ないで	-500
ユダの	-501
おのおの	-502
いで	-503
ビト	-504
栄光	-505
一緒に	-506
キュ	-507
キュビト	-508
神を	-509
取って	-510
バビ	-511
なり	-512
ヨセ	-513
からだ	-514
連れて	-515
ものである	-516
神が	-517
ゆえに	-518
げて	-519
キヤ	-520
パロ	-521
信じ	-522
恐れ	-523
ヨセフ	-524
ひとりの	-525
これに	-526
ペリシ	-527
ペリシテ	-528
なぜ	-529
燔祭	-530
荒野	-531
となった	-532
ることができ	-533
同じ	-534
祝福	-535
があり	-536
ンは	-537
一つ	-538
なった	-539
ること	-540
▁、『	-541
いと	-542
りに	-543
レア	-544
他の	-545
シュア	-546
にしたがって	-547
らを	-548
ラハ	-549
の中に	-550
信仰	-551
とした	-552
一つの	-553
ことはない	-554
との	-555
大き	-556
万軍の	-557
向かって	-558
エジプトの	-559
道を	-560
そうすれば	-561
アビ	-562
こう言われる	-563
てください	-564
に言われた	-565
人の子	-566
よく	-567
を造	-568
心に	-569
おまえ	-570
ほかの	-571
スリヤ	-572
まず	-573
ライ	-574
ロンの	-575
帰って	-576
しえ	-577
もまた	-578
と言う	-579
罪を犯	-580
さばき	-581
ではないか	-582
エフ	-583
日の	-584
前で	-585
良い	-586
をささげ	-587
アル	-588
十二	-589
だけ	-590
入れ	-591
思い	-592
われた	-593
われる	-594
があった	-595
ましょう	-596
ケル	-597
宮の	-598
アブラハ	-599
られて	-600
とも	-601
家に	-602
尋ね	-603
ことを知	-604
をつ	-605
アハ	-606
ソロモン	-607
供え	-608
うちに	-609
ってはならない	-610
だから	-611
しなさい	-612
びとは	-613
主なる神は	-614
主の前に	-615
の木	-616
子を	-617
どこ	-618
悪しき	-619
の前に	-620
かり	-621
のが	-622
民に	-623
▁もし	-624
出して	-625
んでいる	-626
のある	-627
上って	-628
かえ	-629
ながら	-630
むべき	-631
二十	-632
かれた	-633
どうぞ	-634
▁あなたがたは	-635
の上	-636
死んだ	-637
聞いた	-638
サム	-639
きょう	-640
滅び	-641
マリヤ	-642
ところが	-643
所で	-644
だれが	-645
どうか	-646
答えて	-647
ところに	-648
たちよ	-649
なん	-650
嗣業	-651
主は言われる	-652
を取り	-653
とおりである	-654
▁こうして	-655
せよ	-656
がよい	-657
されて	-658
ヨシュア	-659
ムは	-660
しない	-661
と一緒に	-662
モーセは	-663
▁あなたの	-664
人々が	-665
出た	-666
るべき	-667
殺した	-668
イエスの	-669
とこ	-670
仰せ	-671
助け	-672
とこしえ	-673
者である	-674
ってお	-675
まだ	-676
それゆえ	-677
町の	-678
オン	-679
のでは	-680
または	-681
国の	-682
その時	-683
アン	-684
下さ	-685
パウ	-686
常に	-687
パウロ	-688
与える	-689
はや	-690
投げ	-691
愛する	-692
してはならない	-693
と思	-694
のよう	-695
ルダ	-696
必ず	-697
ろうか	-698
あわれ	-699
ベア	-700
次の	-701
犠牲	-702
持って	-703
の方	-704
撃ち	-705
者も	-706
いつく	-707
あら	-708
満ち	-709
えられた	-710
ことがない	-711
』。	-712
▁さて	-713
ことに	-714
になって	-715
そむ	-716
悪い	-717
とどま	-718
▁すなわち	-719
あかし	-720
アシ	-721
国々	-722
導き	-723
集ま	-724
おお	-725
に至	-726
の長	-727
を知	-728
攻め	-729
してください	-730
の一	-731
会衆	-732
あった	-733
▁それゆえ	-734
りは	-735
呼び	-736
小羊	-737
水を	-738
ようか	-739
サウル	-740
モアブ	-741
生きて	-742
あるいは	-743
あの	-744
らず	-745
死ぬ	-746
安息	-747
を建て	-748
イエスを	-749
このように	-750
それに	-751
再び	-752
周囲	-753
救い	-754
ずから	-755
とって	-756
またその	-757
テロ	-758
彼女は	-759
すぐ	-760
のうちから	-761
のろ	-762
ベテ	-763
地は	-764
させた	-765
携えて	-766
▁イエスは	-767
近づ	-768
をする	-769
ダビデの	-770
をか	-771
ヨルダ	-772
なし	-773
戒め	-774
父の	-775
それで	-776
からです	-777
名は	-778
群れ	-779
いない	-780
させる	-781
与えた	-782
カル	-783
わなければならない	-784
カナ	-785
目に	-786
びとを	-787
もない	-788
いつくしみ	-789
のすべての	-790
タン	-791
感謝	-792
手から	-793
いや	-794
など	-795
れている	-796
▁・	-797
群衆	-798
金の	-799
わせて	-800
ありません	-801
命じられた	-802
エルサレムに	-803
ヨハ	-804
かれ	-805
つく	-806
をし	-807
神よ	-808
わった	-809
わたしはあなたの	-810
まさ	-811
ザル	-812
ミヤ	-813
来て	-814
油を	-815
ニヤミ	-816
下って	-817
恐れる	-818
これらは	-819
エフライ	-820
らなければならない	-821
わず	-822
宿営	-823
らせた	-824
すで	-825
互に	-826
出し	-827
言い	-828
ユダの王	-829
ヨナ	-830
神々	-831
かれる	-832
ついに	-833
を見て	-834
の子らは	-835
ベニヤミ	-836
主である	-837
あげ	-838
異邦	-839
主の言葉	-840
はず	-841
がその	-842
できない	-843
にあって	-844
▁すると	-845
いま	-846
命を	-847
聖所	-848
自身	-849
血を	-850
高き	-851
おきて	-852
ペテロ	-853
与えて	-854
ではなく	-855
▁『	-856
捕え	-857
聞く	-858
求める	-859
あなたと	-860
きなさい	-861
ないように	-862
マナ	-863
中に	-864
求め	-865
滅ぼす	-866
しろ	-867
の下	-868
者と	-869
になる	-870
を行う	-871
ることを	-872
逃げ	-873
みが	-874
人々に	-875
語り	-876
答えた	-877
しめ	-878
レク	-879
王に	-880
に住む	-881
ほめた	-882
みを	-883
ここに	-884
すでに	-885
とこしえに	-886
バビロンの	-887
おう	-888
イエスが	-889
エルサレムの	-890
わた	-891
目を	-892
していた	-893
ほめたた	-894
長老	-895
みずから	-896
言いなさい	-897
▁その時	-898
じて	-899
切り	-900
時は	-901
してお	-902
せて	-903
まま	-904
エレ	-905
天幕	-906
しるし	-907
られます	-908
その日	-909
祭の	-910
どんな	-911
二つの	-912
りなさい	-913
イスラエルの人々は	-914
とめ	-915
サイ	-916
不義	-917
離れ	-918
であろうか	-919
すみ	-920
モンの	-921
から出て	-922
されている	-923
アッ	-924
カイ	-925
仕え	-926
真実	-927
雄羊	-928
を見た	-929
ほど	-930
怒り	-931
たちと	-932
臨んだ	-933
を結	-934
アヒ	-935
エホ	-936
永遠	-937
あなたがたの神	-938
三十	-939
がない	-940
を与え	-941
命じて	-942
レビびと	-943
ことができる	-944
アマ	-945
バル	-946
貧しい	-947
▁これは	-948
るために	-949
アブラハム	-950
しよう	-951
にか	-952
物は	-953
による	-954
おこ	-955
もう	-956
やぎ	-957
一頭	-958
初め	-959
奴隷	-960
子供	-961
ったので	-962
に従って	-963
らなかった	-964
キリストの	-965
のぼ	-966
エド	-967
テの	-968
デヤ	-969
入口	-970
国を	-971
家の	-972
ヨアブ	-973
出す	-974
道に	-975
もはや	-976
マナセ	-977
と言って	-978
サムエル	-979
きを	-980
たく	-981
ヨハネ	-982
呼ばわ	-983
サウルは	-984
主にささげ	-985
焼き	-986
ゼル	-987
の幕屋	-988
こう仰せ	-989
エレミヤ	-990
▁わたしの	-991
ろば	-992
心は	-993
約束	-994
われらの	-995
雄牛	-996
青銅	-997
出した	-998
いている	-999
イサ	-1000
偶像	-1001
これが	-1002
ったが	-1003
愚かな	-1004
のほ	-1005
むす	-1006
めぐ	-1007
わし	-1008
ジヤ	-1009
ッパ	-1010
強く	-1011
殺し	-1012
の中で	-1013
イサク	-1014
レアデ	-1015
主の宮	-1016
仕える	-1017
大きな	-1018
があって	-1019
ユダヤ人	-1020
と言われた	-1021
にむかって	-1022
アッスリヤ	-1023
かが	-1024
声を	-1025
御使	-1026
軍勢	-1027
顔を	-1028
勇士	-1029
喜ば	-1030
持ち	-1031
苦しみ	-1032
にはいって	-1033
を生	-1034
会見	-1035
悩み	-1036
落ち	-1037
前から	-1038
かい	-1039
五十	-1040
住む	-1041
命じた	-1042
自分を	-1043
ギレアデ	-1044
モーセに言われた	-1045
セラ	-1046
者よ	-1047
と言い	-1048
パンを	-1049
汚れた	-1050
イスラエルの王	-1051
▁見よ	-1052
その人は	-1053
の門	-1054
ごとに	-1055
により	-1056
るまで	-1057
わない	-1058
滅ぼし	-1059
につかわ	-1060
われわれを	-1061
知っている	-1062
さき	-1063
らい	-1064
シメ	-1065
国に	-1066
女は	-1067
離れて	-1068
わい	-1069
もなく	-1070
人々の	-1071
人々を	-1072
地から	-1073
わたしたちが	-1074
彼らに言った	-1075
えを	-1076
さない	-1077
産んだ	-1078
イスラエルを	-1079
▁主よ	-1080
くる	-1081
アサ	-1082
若い	-1083
およびその	-1084
彼に言った	-1085
▁わたしが	-1086
よろ	-1087
城壁	-1088
悪を	-1089
王が	-1090
属する	-1091
ヒゼ	-1092
割礼	-1093
家畜	-1094
心の	-1095
集め	-1096
はまた	-1097
らかに	-1098
生れた	-1099
ヒゼキヤ	-1100
つかわして	-1101
のではない	-1102
衣服	-1103
たちも	-1104
たとい	-1105
だれも	-1106
のような	-1107
サマリヤ	-1108
合わせて	-1109
次のとおりである	-1110
ああ	-1111
えよ	-1112
すわ	-1113
事は	-1114
来た	-1115
見て	-1116
あって	-1117
のかた	-1118
かす	-1119
しし	-1120
書き	-1121
ルの子	-1122
分の一	-1123
したので	-1124
のゆえに	-1125
って言った	-1126
会見の幕屋	-1127
ことはできない	-1128
▁わが	-1129
行う	-1130
にいた	-1131
ようと	-1132
知らせ	-1133
食べて	-1134
られない	-1135
わたしと	-1136
イスラエルの神	-1137
に帰	-1138
リブ	-1139
出る	-1140
のを見て	-1141
だからである	-1142
世の	-1143
人と	-1144
知識	-1145
いった	-1146
おられる	-1147
へ行って	-1148
バビロン	-1149
われわれに	-1150
天の	-1151
女の	-1152
荒れ	-1153
見た	-1154
いのち	-1155
ことである	-1156
▁神は	-1157
さま	-1158
もと	-1159
カデ	-1160
叫び	-1161
んでいた	-1162
の日	-1163
の時	-1164
ヘブ	-1165
四十	-1166
強い	-1167
戦車	-1168
所を	-1169
において	-1170
をあげて	-1171
エリシャ	-1172
ないでください	-1173
サロ	-1174
天に	-1175
死に	-1176
語る	-1177
身に	-1178
高ぶ	-1179
ただし	-1180
の前で	-1181
ほかに	-1182
むすこ	-1183
非常に	-1184
のうちの	-1185
知らない	-1186
答えて言った	-1187
堅く	-1188
供え物	-1189
取った	-1190
あがない	-1191
むな	-1192
上の	-1193
山に	-1194
望み	-1195
町を	-1196
行い	-1197
』」。	-1198
すべき	-1199
エリヤ	-1200
大いに	-1201
それから	-1202
ふたりの	-1203
こう仰せられる	-1204
ナイ	-1205
手の	-1206
かない	-1207
怒りを	-1208
ことのない	-1209
年の	-1210
ラッパ	-1211
聞き従	-1212
はずかし	-1213
▁ところが	-1214
ことができない	-1215
されるであろう	-1216
かも	-1217
福音	-1218
耳を	-1219
びとが	-1220
新しい	-1221
のもとに	-1222
わたしたちを	-1223
さは	-1224
たび	-1225
に乗	-1226
ベル	-1227
何を	-1228
分け	-1229
れない	-1230
彼らはその	-1231
平安	-1232
素祭	-1233
遠く	-1234
かつて	-1235
なって	-1236
シケル	-1237
かなければならない	-1238
さん	-1239
しば	-1240
まわ	-1241
めと	-1242
ラン	-1243
過ぎ	-1244
食い	-1245
あいだ	-1246
くださ	-1247
たので	-1248
わざを	-1249
をその	-1250
天から	-1251
立てて	-1252
ぶどう酒	-1253
憎むべき	-1254
このような	-1255
いう	-1256
と同じ	-1257
去って	-1258
悲しみ	-1259
えている	-1260
のかたわ	-1261
に向かって	-1262
いな	-1263
らん	-1264
宣べ	-1265
教会	-1266
しえた	-1267
オンの	-1268
を取って	-1269
あなたの子	-1270
の子である	-1271
彼はその	-1272
シマ	-1273
ラバ	-1274
事が	-1275
命令	-1276
国民	-1277
所有	-1278
なんの	-1279
えられる	-1280
アブサロ	-1281
それが	-1282
うた	-1283
ひと	-1284
びる	-1285
れを	-1286
マル	-1287
全く	-1288
地で	-1289
散ら	-1290
飲み	-1291
になり	-1292
去った	-1293
対する	-1294
▁それで	-1295
められる	-1296
ペリシテびとの	-1297
と戦	-1298
高く	-1299
となって	-1300
人であった	-1301
おのおのその	-1302
わたしたちに	-1303
▁ア	-1304
くじ	-1305
の娘	-1306
立つ	-1307
聞け	-1308
進み	-1309
の間に	-1310
手に渡	-1311
イスラエルは	-1312
――	-1313
ほふ	-1314
までも	-1315
恐れて	-1316
かえって	-1317
主の言葉が	-1318
れるであろう	-1319
となるであろう	-1320
せず	-1321
ねて	-1322
救う	-1323
町に	-1324
絶え	-1325
の子孫は	-1326
でしょうか	-1327
イスラエルの人々の	-1328
をた	-1329
パテ	-1330
国は	-1331
目は	-1332
霊が	-1333
さらに	-1334
に告げ	-1335
の入口	-1336
バアル	-1337
あわれみ	-1338
の中から	-1339
イスラエルに	-1340
かけ	-1341
ヤラ	-1342
去り	-1343
待ち	-1344
放牧	-1345
物の	-1346
言え	-1347
かしら	-1348
エホヤ	-1349
代って	-1350
宣べ伝	-1351
▁それから	-1352
くち	-1353
のち	-1354
れの	-1355
書に	-1356
とその子	-1357
主なる神はこう言われる	-1358
さあ	-1359
シバ	-1360
スマ	-1361
ネブ	-1362
ンを	-1363
女を	-1364
最も	-1365
月の	-1366
にして	-1367
ふたり	-1368
造った	-1369
人たちは	-1370
としている	-1371
しむ	-1372
せた	-1373
プテ	-1374
後に	-1375
聖別	-1376
高い	-1377
だれか	-1378
激しい	-1379
モーセと	-1380
兄弟たちよ	-1381
しなければならない	-1382
わたしはあなたを	-1383
きき	-1384
さえ	-1385
を治	-1386
を着	-1387
父は	-1388
ほしい	-1389
メレク	-1390
言葉は	-1391
しえたげ	-1392
ヤラベア	-1393
られている	-1394
ることができる	-1395
わたしのために	-1396
あざ	-1397
かる	-1398
所へ	-1399
羊の	-1400
いたが	-1401
わせた	-1402
ひとりも	-1403
イエスに	-1404
人である	-1405
兄弟たち	-1406
その家	-1407
▁』。	-1408
と名	-1409
を開	-1410
殺す	-1411
注ぎ	-1412
間に	-1413
えさせ	-1414
ごらん	-1415
書いて	-1416
とをもって	-1417
ヨルダンの	-1418
アモ	-1419
シケ	-1420
シヤ	-1421
右の	-1422
年に	-1423
願い	-1424
けない	-1425
のでき	-1426
の子を	-1427
エサウ	-1428
者たちは	-1429
生きている	-1430
さし	-1431
らく	-1432
ハマ	-1433
七日	-1434
ニエル	-1435
向こう	-1436
王となった	-1437
ても	-1438
どり	-1439
やみ	-1440
上げ	-1441
置き	-1442
金を	-1443
と名づ	-1444
のため	-1445
の子ら	-1446
の家に	-1447
リサイ	-1448
あだ	-1449
つけ	-1450
バラ	-1451
何も	-1452
答え	-1453
します	-1454
を得る	-1455
祭司は	-1456
食物を	-1457
さいわい	-1458
とおりに	-1459
パリサイ	-1460
ヨセフは	-1461
出された	-1462
して言った	-1463
られました	-1464
アナ	-1465
この事を	-1466
とお	-1467
立た	-1468
バプテ	-1469
くちびる	-1470
だろうか	-1471
なぜなら	-1472
のうちで	-1473
言ってお	-1474
びとの氏族	-1475
バプテスマ	-1476
なかったので	-1477
いっ	-1478
せる	-1479
の者	-1480
ふさ	-1481
れ伏	-1482
わる	-1483
をま	-1484
ノア	-1485
ルベ	-1486
吹き	-1487
正義	-1488
からは	-1489
と呼ば	-1490
をあげ	-1491
を行い	-1492
アハブ	-1493
契約を	-1494
捨てて	-1495
から出た	-1496
にはいる	-1497
殺された	-1498
名によって	-1499
に及	-1500
使徒	-1501
民が	-1502
さばく	-1503
におる	-1504
ものが	-1505
小さい	-1506
放牧地	-1507
永遠の	-1508
その上に	-1509
のを見た	-1510
ヤコブは	-1511
そのように	-1512
のう	-1513
びに	-1514
を持	-1515
ラヤ	-1516
寄留	-1517
踏み	-1518
食物	-1519
を見る	-1520
年の間	-1521
けれ	-1522
ねた	-1523
エヒ	-1524
ムに	-1525
憎む	-1526
日が	-1527
その中	-1528
ままに	-1529
をした	-1530
求めて	-1531
けれども	-1532
のだから	-1533
カルデヤ	-1534
下さった	-1535
人の子よ	-1536
▁それは	-1537
そば	-1538
ダン	-1539
ミカ	-1540
三日	-1541
罪祭	-1542
肉を	-1543
の部族	-1544
進んで	-1545
食べる	-1546
まことに	-1547
ようとする	-1548
行きなさい	-1549
いてはならない	-1550
としなければならない	-1551
子は	-1552
わたしはあなたに	-1553
そのすべての	-1554
のみ	-1555
入り	-1556
死体	-1557
臨む	-1558
にあり	-1559
彼女を	-1560
死んで	-1561
置いた	-1562
そこから	-1563
彼と共に	-1564
に対して	-1565
いち	-1566
モテ	-1567
妻を	-1568
海の	-1569
満た	-1570
真理	-1571
連れ	-1572
もので	-1573
を造り	-1574
ヨシャ	-1575
ンびと	-1576
主のみ	-1577
しまった	-1578
ネブカデ	-1579
集まって	-1580
▁ダビデは	-1581
あなたの前に	-1582
をことごとく	-1583
彼らに言われた	-1584
さなければならない	-1585
▁あなたが	-1586
上が	-1587
女が	-1588
平和	-1589
災を	-1590
聖徒	-1591
霊を	-1592
ですか	-1593
安息日	-1594
耳を傾	-1595
のひとり	-1596
するであろう	-1597
ってください	-1598
エルサレムで	-1599
ベニヤミンの	-1600
イスラエルの人々に	-1601
家来	-1602
こそ	-1603
テル	-1604
今日	-1605
外に	-1606
歩み	-1607
深い	-1608
言を	-1609
おのの	-1610
がなく	-1611
ひれ伏	-1612
シオン	-1613
所から	-1614
正しく	-1615
決して	-1616
賜わった	-1617
ヨシュアは	-1618
犠牲をささげ	-1619
あなたがたのうち	-1620
イスラエルのすべての	-1621
きよ	-1622
なす	-1623
らが	-1624
を通	-1625
ハテ	-1626
断ち	-1627
の上で	-1628
エレア	-1629
ラムは	-1630
モアブの	-1631
アッスリヤの王	-1632
▁時に	-1633
▁その日	-1634
マア	-1635
働き	-1636
だろう	-1637
ていた	-1638
まれる	-1639
よみが	-1640
ことなく	-1641
にあった	-1642
たちと共に	-1643
と主は言われる	-1644
いく	-1645
に当	-1646
の声	-1647
はな	-1648
まい	-1649
をう	-1650
報い	-1651
飲む	-1652
らせる	-1653
偽りを	-1654
契約の	-1655
ささげる	-1656
主の宮の	-1657
造られた	-1658
しなかった	-1659
言っておく	-1660
とその放牧地	-1661
われわれの神	-1662
くな	-1663
たが	-1664
を築	-1665
人も	-1666
奪い	-1667
村々	-1668
見る	-1669
造り	-1670
選ば	-1671
野の	-1672
飲ませ	-1673
弟子たちは	-1674
いれ	-1675
かを	-1676
ぶん	-1677
同様	-1678
泣き	-1679
流れ	-1680
物に	-1681
しても	-1682
むしろ	-1683
をおお	-1684
呼んで	-1685
国から	-1686
語った	-1687
あらゆる	-1688
だれでも	-1689
つるぎを	-1690
ヤコブの	-1691
わたしはこの	-1692
あなたはわたしの	-1693
を出	-1694
んじ	-1695
ガリ	-1696
何か	-1697
場合	-1698
教え	-1699
父が	-1700
銀の	-1701
ききん	-1702
までは	-1703
みんな	-1704
らせて	-1705
ならびに	-1706
のほとり	-1707
については	-1708
主なる神は言われる	-1709
▁第	-1710
アモリ	-1711
その子は	-1712
ふる	-1713
ほめ	-1714
ムと	-1715
力を	-1716
寄り	-1717
尊い	-1718
水の	-1719
ことも	-1720
全会衆	-1721
満たし	-1722
行かせ	-1723
カナンの	-1724
モーセに	-1725
にはいった	-1726
与えられた	-1727
主はこう言われる	-1728
たる	-1729
に座	-1730
ねば	-1731
エズ	-1732
スコ	-1733
手は	-1734
ついて	-1735
に投げ	-1736
やかに	-1737
わざわ	-1738
追い払	-1739
▁すべて	-1740
しました	-1741
のことを	-1742
へ行った	-1743
ダニエル	-1744
主はその	-1745
主イエス	-1746
ではありません	-1747
イスラエルの家	-1748
をは	-1749
ゼデ	-1750
タル	-1751
ヤは	-1752
ヨアシ	-1753
入れた	-1754
ぶどう畑	-1755
を受ける	-1756
なのである	-1757
われわれが	-1758
ソロモンは	-1759
書いてある	-1760
あなたがたも	-1761
わたしはその	-1762
あなたのしもべ	-1763
しるされている	-1764
あなたがたのために	-1765
さず	-1766
つえ	-1767
とう	-1768
キシ	-1769
バア	-1770
ペル	-1771
事の	-1772
全き	-1773
水は	-1774
につけ	-1775
の小羊	-1776
七つの	-1777
入れて	-1778
激しく	-1779
者ども	-1780
集めて	-1781
わたしも	-1782
ダビデに	-1783
供え物を	-1784
立ちあが	-1785
ヨシャパテ	-1786
生きながら	-1787
エフライムの	-1788
▁主の	-1789
それぞ	-1790
あなたのために	-1791
おも	-1792
やめ	-1793
らわ	-1794
わき	-1795
ガド	-1796
ルデ	-1797
口に	-1798
嘆き	-1799
地と	-1800
王を	-1801
送り	-1802
過越	-1803
さきに	-1804
っても	-1805
はみな	-1806
ばかり	-1807
サムソ	-1808
ヤの子	-1809
手を伸	-1810
着物を	-1811
きたので	-1812
ささげた	-1813
ガリラヤ	-1814
はずかしめ	-1815
るようになる	-1816
させてください	-1817
▁モーセは	-1818
くび	-1819
ダデ	-1820
ピラ	-1821
レバ	-1822
二百	-1823
人間	-1824
先に	-1825
喜ぶ	-1826
器を	-1827
地方	-1828
こころ	-1829
エドム	-1830
エヒウ	-1831
帰った	-1832
青銅の	-1833
モーセが	-1834
もろもろの国	-1835
られるであろう	-1836
アム	-1837
メル	-1838
七十	-1839
授け	-1840
日は	-1841
注が	-1842
解き	-1843
さして	-1844
つまず	-1845
の家の	-1846
テびと	-1847
時には	-1848
神のみ	-1849
祭司の	-1850
すであろう	-1851
わなかった	-1852
ユダヤ人の	-1853
数えられた	-1854
わたしの前に	-1855
おく	-1856
らし	-1857
わけ	-1858
一同	-1859
水が	-1860
の下に	-1861
パロの	-1862
四つの	-1863
引いて	-1864
祭壇の	-1865
立てた	-1866
▁だから	-1867
ませんで	-1868
モーセの	-1869
あなたがたのうちに	-1870
主はこう仰せられる	-1871
ほか	-1872
らう	-1873
わな	-1874
を作	-1875
を負	-1876
ベツ	-1877
二千	-1878
思う	-1879
敵の	-1880
深く	-1881
火で	-1882
聖霊	-1883
設け	-1884
起き	-1885
足を	-1886
隣り	-1887
世を治	-1888
人たち	-1889
倒れる	-1890
彼女の	-1891
従って	-1892
死人の	-1893
殺そう	-1894
見ると	-1895
起きて	-1896
サウルの	-1897
ヨナタン	-1898
ようになる	-1899
あなたと共に	-1900
ことができようか	-1901
その兄弟	-1902
じく	-1903
偽り	-1904
多い	-1905
帰り	-1906
所の	-1907
手で	-1908
酒を	-1909
長く	-1910
いって	-1911
すぐに	-1912
ときは	-1913
ともに	-1914
アハズ	-1915
ザリヤ	-1916
ンの子	-1917
者には	-1918
聞かせ	-1919
行こう	-1920
いたので	-1921
に聞き従	-1922
るならば	-1923
シオンの	-1924
されたので	-1925
されました	-1926
中から	-1927
じめ	-1928
ハナ	-1929
ラテ	-1930
宮に	-1931
御霊	-1932
愛し	-1933
携え	-1934
物と	-1935
石を	-1936
罪の	-1937
いつも	-1938
ピラト	-1939
楽しみ	-1940
残りの	-1941
祭司長	-1942
その所で	-1943
はいって	-1944
ダビデが	-1945
そのとき	-1946
そし	-1947
の神	-1948
ひき	-1949
ブの	-1950
歩む	-1951
清い	-1952
礼拝	-1953
国々の	-1954
実を結	-1955
求めた	-1956
▁彼らが	-1957
を造った	-1958
安らかに	-1959
語られた	-1960
ことがある	-1961
のではなく	-1962
ソロモンの	-1963
▁このように	-1964
ませんでした	-1965
自分のために	-1966
▁そのとき	-1967
ンに	-1968
去る	-1969
民と	-1970
義と	-1971
の言葉	-1972
ラント	-1973
レバノ	-1974
偽りの	-1975
者たち	-1976
血を流	-1977
雄やぎ	-1978
っています	-1979
つかわされた	-1980
主をほめたた	-1981
わたしに言われた	-1982
▁彼が	-1983
その氏族	-1984
まち	-1985
ルに	-1986
悲し	-1987
町は	-1988
▁王は	-1989
かけて	-1990
かれて	-1991
しまう	-1992
ユダと	-1993
喜んで	-1994
彼らと	-1995
律法学	-1996
の言葉を	-1997
立っている	-1998
人をつかわして	-1999
あなたがたの先祖	-2000
二つ	-2001
勝利	-2002
実を	-2003
断食	-2004
足の	-2005
いても	-2006
そのみ	-2007
その父	-2008
ともし	-2009
オリブ	-2010
シモン	-2011
生ける	-2012
荒野で	-2013
重ねて	-2014
食事を	-2015
おこない	-2016
よみがえ	-2017
ゼデキヤ	-2018
タラント	-2019
出てきた	-2020
アンモンの	-2021
あなたがたと	-2022
モーセとアロン	-2023
▁彼らの	-2024
すぎ	-2025
そそ	-2026
まり	-2027
ギデ	-2028
ゼブ	-2029
一万	-2030
他国	-2031
大声	-2032
恥じ	-2033
病気	-2034
頭に	-2035
したら	-2036
の日に	-2037
ケルビ	-2038
シャン	-2039
力ある	-2040
誓いを	-2041
する者は	-2042
むなしい	-2043
目の前に	-2044
ようとして	-2045
アビメレク	-2046
定められた	-2047
自分たちの	-2048
さいわいである	-2049
アズ	-2050
この世	-2051
ごろ	-2052
ラの	-2053
下の	-2054
火を	-2055
生れ	-2056
者で	-2057
見え	-2058
計り	-2059
近く	-2060
に住み	-2061
らい病	-2062
カリヤ	-2063
人には	-2064
命じる	-2065
絶える	-2066
荒野に	-2067
その名を	-2068
ヘブロン	-2069
なりません	-2070
はいけない	-2071
悪しき者の	-2072
てはならない	-2073
と言ったので	-2074
主の言葉を	-2075
々の	-2076
いご	-2077
かさ	-2078
にし	-2079
に着	-2080
を張	-2081
ダマ	-2082
二万	-2083
今は	-2084
四方	-2085
女に	-2086
死な	-2087
清く	-2088
頭を	-2089
まさる	-2090
ります	-2091
をつく	-2092
捕えて	-2093
立った	-2094
いちじく	-2095
いったい	-2096
せられる	-2097
パウロは	-2098
ましょうか	-2099
彼のために	-2100
はだ	-2101
むち	-2102
めい	-2103
ツロ	-2104
使う	-2105
六十	-2106
獲た	-2107
買い	-2108
身の	-2109
おおい	-2110
くれた	-2111
にした	-2112
のがれ	-2113
はない	-2114
周囲に	-2115
残った	-2116
集める	-2117
つかわし	-2118
に臨んだ	-2119
のようだ	-2120
ましたが	-2121
ますます	-2122
ラッパを	-2123
と名づけた	-2124
ベニヤミン	-2125
聞きなさい	-2126
のかたわらに	-2127
つるぎをもって	-2128
▁あなたがたの	-2129
が起	-2130
っと	-2131
に向	-2132
の柱	-2133
りと	-2134
んの	-2135
ミデ	-2136
メン	-2137
レハ	-2138
ロデ	-2139
取る	-2140
心が	-2141
消え	-2142
近寄	-2143
頼み	-2144
ゆるし	-2145
をして	-2146
アブネ	-2147
エリコ	-2148
タンは	-2149
ハダデ	-2150
バラク	-2151
パロは	-2152
人の長	-2153
仕えた	-2154
ところへ	-2155
十分の一	-2156
者たちを	-2157
エフライム	-2158
エレアザル	-2159
びとの氏族が	-2160
バビロンの王	-2161
主にささげる	-2162
▁主は言われる	-2163
代って王となった	-2164
ささげなければならない	-2165
くつ	-2166
の父	-2167
ひろ	-2168
エパ	-2169
ベデ	-2170
メラ	-2171
山の	-2172
知り	-2173
臨み	-2174
選び	-2175
ときに	-2176
にまで	-2177
ばしい	-2178
ものと	-2179
らくだ	-2180
モルデ	-2181
ヨシヤ	-2182
告げた	-2183
告げて	-2184
周囲の	-2185
恵みを	-2186
攻めて	-2187
神から	-2188
衣服を	-2189
▁』」。	-2190
いと高き	-2191
があれば	-2192
ってきて	-2193
はこれを	-2194
ダマスコ	-2195
サムエルは	-2196
モルデカイ	-2197
エジプトから	-2198
ペリシテびと	-2199
ったからである	-2200
家を	-2201
まれ	-2202
めを	-2203
ダブ	-2204
忘れ	-2205
戦い	-2206
望む	-2207
頭の	-2208
あがな	-2209
こさせ	-2210
の子は	-2211
イシマ	-2212
受ける	-2213
見える	-2214
しばらく	-2215
家を建て	-2216
▁これらの	-2217
はあなたの	-2218
世を治めた	-2219
罪を犯した	-2220
彼に言われた	-2221
ことのないように	-2222
わたしが主である	-2223
わたしはまた	-2224
あす	-2225
う者	-2226
おろ	-2227
なさ	-2228
に下	-2229
の祭	-2230
ロテ	-2231
一千	-2232
主君	-2233
先生	-2234
敵を	-2235
母の	-2236
清め	-2237
置く	-2238
まれた	-2239
下さい	-2240
大祭司	-2241
彼女に	-2242
犯した	-2243
かたくな	-2244
それぞれ	-2245
ペテロは	-2246
わたしをお	-2247
残っている	-2248
滅ぼされる	-2249
ことによって	-2250
ねばならない	-2251
彼らのために	-2252
ではありませんか	-2253
その他の	-2254
いろ	-2255
アテ	-2256
イザ	-2257
イル	-2258
バテ	-2259
レブ	-2260
公平	-2261
六百	-2262
大ぜ	-2263
得た	-2264
手が	-2265
歳の	-2266
火祭	-2267
示す	-2268
空の	-2269
終り	-2270
▁主が	-2271
おもて	-2272
さんび	-2273
その後	-2274
の家来	-2275
まった	-2276
をあが	-2277
をつけ	-2278
信じる	-2279
去らせ	-2280
大きい	-2281
聖所の	-2282
あなたも	-2283
おまえは	-2284
に住んだ	-2285
ダビデを	-2286
恐るべき	-2287
さなかった	-2288
のうちでは	-2289
彼は言った	-2290
立っていた	-2291
言うことを	-2292
アブラハムは	-2293
答えて言われた	-2294
かず	-2295
くず	-2296
なき	-2297
な子	-2298
のし	-2299
もど	-2300
シロ	-2301
ビヤ	-2302
ヨブ	-2303
ロス	-2304
不思	-2305
会う	-2306
前の	-2307
石が	-2308
示し	-2309
金で	-2310
たれた	-2311
でない	-2312
る者の	-2313
んでも	-2314
アビヤ	-2315
不思議	-2316
倒れた	-2317
選んだ	-2318
いっさい	-2319
われらは	-2320
を生んだ	-2321
契約を結	-2322
異邦人の	-2323
目の前で	-2324
神である	-2325
見ている	-2326
イシマエル	-2327
ネブカデネ	-2328
持っている	-2329
祭司はその	-2330
わたしに臨んだ	-2331
あと	-2332
いば	-2333
な者	-2334
へや	-2335
アダ	-2336
一度	-2337
何事	-2338
名の	-2339
守り	-2340
宮殿	-2341
悪霊	-2342
時が	-2343
王よ	-2344
自ら	-2345
裂き	-2346
こない	-2347
させて	-2348
と思う	-2349
の書に	-2350
ものの	-2351
ゼブル	-2352
十二人	-2353
恐れた	-2354
教えて	-2355
殺され	-2356
生きる	-2357
絶えず	-2358
賜わる	-2359
願いを	-2360
つかさど	-2361
とすれば	-2362
アンモン	-2363
人たちが	-2364
られたので	-2365
わたしの父	-2366
いつくしみは	-2367
イエスに言った	-2368
食べてはならない	-2369
たず	-2370
ラは	-2371
内に	-2372
加え	-2373
場に	-2374
娘を	-2375
子よ	-2376
川の	-2377
所は	-2378
栄え	-2379
王と	-2380
道は	-2381
驚き	-2382
魂は	-2383
あとに	-2384
うしろ	-2385
ための	-2386
につき	-2387
へ行く	-2388
まこと	-2389
まない	-2390
らって	-2391
を生み	-2392
ドニヤ	-2393
大きく	-2394
置いて	-2395
を受けた	-2396
レハベア	-2397
者がある	-2398
いつまでも	-2399
日のあいだ	-2400
モーセに命じられた	-2401
イエスは言われた	-2402
それらの	-2403
あなたの父	-2404
エポ	-2405
シボ	-2406
タリ	-2407
ドク	-2408
半ば	-2409
少し	-2410
数え	-2411
日を	-2412
歌を	-2413
民衆	-2414
神と	-2415
過ご	-2416
除き	-2417
おいて	-2418
くれる	-2419
にそむ	-2420
エポデ	-2421
入れる	-2422
戦いに	-2423
渡って	-2424
誓った	-2425
いつまで	-2426
されない	-2427
万軍の主	-2428
地に住む	-2429
民はみな	-2430
出て行って	-2431
名のために	-2432
祭司たちは	-2433
▁わたしたちは	-2434
々に	-2435
すが	-2436
づけ	-2437
ひざ	-2438
ひそ	-2439
めの	-2440
わり	-2441
イッ	-2442
タイ	-2443
ナフ	-2444
ペレ	-2445
マッ	-2446
ルガ	-2447
レヘ	-2448
三百	-2449
信頼	-2450
四百	-2451
声が	-2452
憤り	-2453
汚れ	-2454
石で	-2455
苦し	-2456
部隊	-2457
しかも	-2458
ちまた	-2459
はした	-2460
ほどの	-2461
われて	-2462
を捨て	-2463
助ける	-2464
時から	-2465
はなはだ	-2466
エホヤキ	-2467
エホヤダ	-2468
悪を行う	-2469
しましょう	-2470
ようとした	-2471
られるように	-2472
この人は	-2473
そのうち	-2474
わたしはわが	-2475
彼らの上に	-2476
わたしはこれを	-2477
のと	-2478
まっ	-2479
やも	-2480
ギベ	-2481
火の	-2482
知る	-2483
罪は	-2484
あとを	-2485
いれる	-2486
おとめ	-2487
かおり	-2488
そんな	-2489
り物を	-2490
ザドク	-2491
口から	-2492
子を産	-2493
尋ねた	-2494
滅びる	-2495
神々に	-2496
福音を	-2497
終った	-2498
香をた	-2499
といった	-2500
のがれる	-2501
ベツレヘ	-2502
手にわた	-2503
行かれた	-2504
行われた	-2505
▁主はまた	-2506
いなかった	-2507
であったが	-2508
ぶどうの木	-2509
同じように	-2510
者のために	-2511
わたしのしもべ	-2512
アロンとその子	-2513
アザリヤ	-2514
あれ	-2515
がて	-2516
さを	-2517
じた	-2518
たき	-2519
らす	-2520
中で	-2521
事に	-2522
人で	-2523
国で	-2524
血の	-2525
迎え	-2526
およそ	-2527
これら	-2528
たれる	-2529
にきた	-2530
やがて	-2531
ルびと	-2532
上った	-2533
使者を	-2534
宿営の	-2535
東の方	-2536
自分が	-2537
があるか	-2538
と答えた	-2539
なされた	-2540
ナフタリ	-2541
ヨアブは	-2542
今日まで	-2543
知恵ある	-2544
ことを知る	-2545
すみやかに	-2546
するように	-2547
キリストは	-2548
ギレアデの	-2549
人のために	-2550
これを聞いて	-2551
恐れてはならない	-2552
イスラエルの人々が	-2553
主の使	-2554
▁彼はまた	-2555
その人を	-2556
えば	-2557
へび	-2558
べた	-2559
やぐ	-2560
やり	-2561
ゆだ	-2562
わら	-2563
をこ	-2564
エブ	-2565
十四	-2566
戦争	-2567
族長	-2568
牛を	-2569
物が	-2570
箱を	-2571
近い	-2572
銀を	-2573
長子	-2574
いたく	-2575
いただ	-2576
たくわ	-2577
ちょう	-2578
にあず	-2579
に使う	-2580
はいる	-2581
シャル	-2582
タニヤ	-2583
一歳の	-2584
守って	-2585
律法を	-2586
神の子	-2587
立して	-2588
群衆が	-2589
自分で	-2590
言って	-2591
言葉が	-2592
つるぎに	-2593
であるか	-2594
ひとりは	-2595
ふたりは	-2596
められた	-2597
をあらわ	-2598
救われる	-2599
したように	-2600
わたしには	-2601
万軍の主は	-2602
悪しき者は	-2603
者のように	-2604
いつくしみを	-2605
らせてください	-2606
▁人々は	-2607
おる	-2608
か月	-2609
どの	-2610
の妻	-2611
五百	-2612
倒れ	-2613
分を	-2614
動か	-2615
召し	-2616
境は	-2617
起る	-2618
いなご	-2619
う者は	-2620
かけた	-2621
に行き	-2622
ましい	-2623
もその	-2624
りなく	-2625
ユダは	-2626
信じた	-2627
入れぬ	-2628
捕え移	-2629
栄光を	-2630
燃える	-2631
自分に	-2632
送った	-2633
食べた	-2634
その人の	-2635
られると	-2636
アマレク	-2637
ゼカリヤ	-2638
明らかに	-2639
者たちが	-2640
耳を傾け	-2641
近づいて	-2642
香ばしい	-2643
ことのでき	-2644
べきである	-2645
わたしの子	-2646
手から救い	-2647
ごらんなさい	-2648
ためであった	-2649
地のすべての	-2650
主をほめたたえよ	-2651
アラ	-2652
第二	-2653
▁ただ	-2654
もしあなたが	-2655
しもべは	-2656
あふ	-2657
ぎを	-2658
ずつ	-2659
はて	-2660
ゲル	-2661
シド	-2662
ソド	-2663
上着	-2664
不信	-2665
世々	-2666
全体	-2667
家族	-2668
水に	-2669
洗い	-2670
用意	-2671
神殿	-2672
第一	-2673
見つ	-2674
降り	-2675
香を	-2676
かなう	-2677
こうべ	-2678
にする	-2679
ますか	-2680
らして	-2681
を守り	-2682
ヘロデ	-2683
三つの	-2684
治める	-2685
町々を	-2686
部族の	-2687
ないのか	-2688
にはいり	-2689
ぶんどり	-2690
ほむべき	-2691
われらを	-2692
を受けて	-2693
種入れぬ	-2694
預言者の	-2695
かなかった	-2696
ことがなく	-2697
つかわした	-2698
わたしから	-2699
なるであろう	-2700
わが民	-2701
▁どうか	-2702
▁あなたがたが	-2703
いさ	-2704
くれ	-2705
よこ	-2706
ヅパ	-2707
上り	-2708
害を	-2709
数は	-2710
木の	-2711
砕き	-2712
行け	-2713
そうと	-2714
とがを	-2715
を打ち	-2716
ギベア	-2717
下さる	-2718
以上の	-2719
作った	-2720
汚した	-2721
注いで	-2722
目には	-2723
解き明	-2724
進んだ	-2725
集めた	-2726
からきた	-2727
に属する	-2728
の供え物	-2729
まさって	-2730
あなたのみ	-2731
きて言った	-2732
つかさたち	-2733
ヨルダンを	-2734
事について	-2735
このすべての	-2736
と書いてある	-2737
知らなかった	-2738
ペリシテびとは	-2739
ることができない	-2740
ことができなかった	-2741
主がモーセに命じられた	-2742
さお	-2743
ちら	-2744
やす	-2745
ムが	-2746
ンが	-2747
住民	-2748
光を	-2749
務を	-2750
妻に	-2751
恐ろ	-2752
敵は	-2753
牛の	-2754
目の	-2755
肉の	-2756
荒布	-2757
足り	-2758
いたし	-2759
ことで	-2760
に至る	-2761
ふさわ	-2762
シャイ	-2763
タマル	-2764
御使が	-2765
怒りの	-2766
追いや	-2767
かわいた	-2768
主の宮に	-2769
安息日に	-2770
心をつく	-2771
アモリびと	-2772
バビロンに	-2773
たちに言った	-2774
に住んでいる	-2775
のようになる	-2776
主にむかって	-2777
信仰によって	-2778
いたからである	-2779
んではならない	-2780
アカ	-2781
▁エ	-2782
彼はまた	-2783
これらの事を	-2784
わたしは彼らを	-2785
かく	-2786
かま	-2787
けに	-2788
ごも	-2789
しと	-2790
すえ	-2791
つぶ	-2792
まし	-2793
わす	-2794
シホ	-2795
ピリ	-2796
ベナ	-2797
四千	-2798
山で	-2799
庭に	-2800
母は	-2801
生か	-2802
目が	-2803
羊を	-2804
いた時	-2805
の中の	-2806
まって	-2807
ものも	-2808
エズレ	-2809
コハテ	-2810
シメイ	-2811
ッサイ	-2812
ナダブ	-2813
主人は	-2814
叫んで	-2815
定めた	-2816
彼女が	-2817
撃って	-2818
攻める	-2819
教える	-2820
知恵を	-2821
ことがあ	-2822
と言われ	-2823
みんなの	-2824
シャンの	-2825
罪を犯し	-2826
行ったが	-2827
に至るまで	-2828
の子たちの	-2829
これによって	-2830
っておられる	-2831
られなかった	-2832
エルサレムを	-2833
主は言われた	-2834
絶えることがない	-2835
▁今	-2836
第三	-2837
▁ただし	-2838
この言葉を	-2839
わが神	-2840
わが主よ	-2841
うる	-2842
きの	-2843
きら	-2844
ひじ	-2845
みの	-2846
を歩	-2847
ザレ	-2848
ナバ	-2849
ムリ	-2850
以上	-2851
彼と	-2852
木を	-2853
枝を	-2854
死を	-2855
獣の	-2856
罪に	-2857
義を	-2858
頼む	-2859
あげて	-2860
ばない	-2861
ものに	-2862
をなし	-2863
エブス	-2864
ギルガ	-2865
ムの子	-2866
リエル	-2867
定めと	-2868
焼いた	-2869
知って	-2870
自身を	-2871
起った	-2872
選んで	-2873
離れる	-2874
おおよそ	-2875
そこには	-2876
ってきた	-2877
アハジヤ	-2878
マナセの	-2879
出てきて	-2880
大ぜいの	-2881
殺される	-2882
選ばれた	-2883
おこなった	-2884
を出立して	-2885
主のために	-2886
五キュビト	-2887
ことをしない	-2888
であることを	-2889
ほむべきかな	-2890
イスラエルよ	-2891
死人の中から	-2892
その神	-2893
おそ	-2894
さら	-2895
ンと	-2896
ンナ	-2897
下に	-2898
主人	-2899
外の	-2900
訴え	-2901
誓い	-2902
間は	-2903
ここで	-2904
ごとを	-2905
の子供	-2906
ゲルシ	-2907
ミヅパ	-2908
叫んだ	-2909
同様に	-2910
宿営し	-2911
尋ねて	-2912
律法の	-2913
用いる	-2914
空の鳥	-2915
逃げて	-2916
おのれを	-2917
であれば	-2918
のがれて	-2919
ひそかに	-2920
をつけて	-2921
アマジヤ	-2922
一歳の雄	-2923
人たちを	-2924
出される	-2925
滅ぼした	-2926
誓われた	-2927
おられます	-2928
というのは	-2929
のかたわら	-2930
弟子たちに	-2931
の子孫である	-2932
またあなたの	-2933
▁神よ	-2934
このかた	-2935
▁主はモーセに言われた	-2936
わたしは彼らの	-2937
あた	-2938
あや	-2939
かで	-2940
くら	-2941
なに	-2942
の音	-2943
る時	-2944
世に	-2945
備え	-2946
像を	-2947
呼ぶ	-2948
問う	-2949
寄せ	-2950
御座	-2951
暗く	-2952
汚す	-2953
淫行	-2954
現れ	-2955
誓願	-2956
▁神の	-2957
く者は	-2958
ずかし	-2959
そばに	-2960
つかえ	-2961
エゼル	-2962
導いて	-2963
捕われ	-2964
救われ	-2965
暗やみ	-2966
永遠に	-2967
燔祭の	-2968
男の子	-2969
町々と	-2970
答える	-2971
設けた	-2972
送って	-2973
▁正しい	-2974
いました	-2975
おきてを	-2976
その中に	-2977
だれにも	-2978
ともしび	-2979
みこころ	-2980
示された	-2981
立ち上が	-2982
者たちよ	-2983
聖なる物	-2984
かっている	-2985
レビびとは	-2986
地のおもて	-2987
帰ってきて	-2988
約束された	-2989
言いました	-2990
あなたの子孫	-2991
あなたはその	-2992
命じて言った	-2993
ことができるか	-2994
わたしと一緒に	-2995
会見の幕屋の入口	-2996
の書にしるされている	-2997
わたしたちの主イエス	-2998
アイ	-2999
▁たとい	-3000
くす	-3001
とび	-3002
はげ	-3003
ふり	-3004
めき	-3005
を打	-3006
シの	-3007
ヤの	-3008
三度	-3009
五千	-3010
伝え	-3011
墓に	-3012
次に	-3013
父よ	-3014
男子	-3015
起し	-3016
長さ	-3017
あざけ	-3018
あだを	-3019
いらせ	-3020
ういご	-3021
へ行き	-3022
まえに	-3023
められ	-3024
ょうに	-3025
る者を	-3026
わから	-3027
を呼び	-3028
を得た	-3029
アサフ	-3030
イッサ	-3031
国民を	-3032
報いを	-3033
心から	-3034
怒りは	-3035
殺して	-3036
民は皆	-3037
燔祭と	-3038
確かに	-3039
祭壇に	-3040
りました	-3041
人たちの	-3042
わざわいだ	-3043
アブサロム	-3044
与えられる	-3045
声に聞き従	-3046
声をあげて	-3047
王に言った	-3048
あなたの兄弟	-3049
と同じように	-3050
アブラハムの	-3051
あなたがたと共に	-3052
▁これらは	-3053
それによって	-3054
あわ	-3055
おび	-3056
くろ	-3057
つづ	-3058
みて	-3059
めよ	-3060
ヘル	-3061
ホル	-3062
ラマ	-3063
上で	-3064
全部	-3065
力と	-3066
口は	-3067
実な	-3068
救の	-3069
良き	-3070
いくさ	-3071
おのが	-3072
くべき	-3073
であれ	-3074
ならず	-3075
ののし	-3076
ろうと	-3077
を撃ち	-3078
オンは	-3079
タンの	-3080
ベテル	-3081
ンから	-3082
主から	-3083
切り倒	-3084
嗣業を	-3085
戦いの	-3086
日から	-3087
父なる	-3088
現れて	-3089
群れを	-3090
この地に	-3091
に与えた	-3092
に乗って	-3093
もしその	-3094
ものです	-3095
よこしま	-3096
をとって	-3097
ヘテびと	-3098
七日の間	-3099
神の前に	-3100
祭の犠牲	-3101
祭壇を築	-3102
主なる神よ	-3103
名をもって	-3104
わたしと共に	-3105
▁わたしはまた	-3106
これらのことを	-3107
カルデヤびとの	-3108
生きておられる	-3109
万軍の主は言われる	-3110
わたしはあなたがたの	-3111
あなたの民	-3112
その日には	-3113
あなたはわたしを	-3114
わたしがあなたに	-3115
。「	-3116
▁われわれは	-3117
そのいつくしみは	-3118
くと	-3119
ぜた	-3120
てて	-3121
ねく	-3122
みに	-3123
オピ	-3124
スの	-3125
テラ	-3126
ロト	-3127
一生	-3128
下り	-3129
五頭	-3130
会い	-3131
及び	-3132
場所	-3133
救を	-3134
渡し	-3135
用い	-3136
聖書	-3137
魂を	-3138
かたわ	-3139
こんな	-3140
つけた	-3141
でなく	-3142
の方に	-3143
びとに	-3144
むかい	-3145
わせる	-3146
ベエル	-3147
メラリ	-3148
ヨラム	-3149
ルベン	-3150
口を開	-3151
場所に	-3152
怒って	-3153
罰する	-3154
葬った	-3155
きました	-3156
こういう	-3157
その人に	-3158
その家族	-3159
ところで	-3160
はしため	-3161
めとった	-3162
を持って	-3163
を造って	-3164
エドムの	-3165
シメオン	-3166
初めから	-3167
男の子を	-3168
神の宮の	-3169
罪を犯す	-3170
集まった	-3171
であるから	-3172
どこにいる	-3173
ヒゼキヤは	-3174
ヨナタンは	-3175
レビびとの	-3176
主を恐れる	-3177
貧しい者を	-3178
はなりません	-3179
エジプトの王	-3180
びとの氏族が出	-3181
わたしの言葉を	-3182
イスラエルの神は	-3183
行わなければならない	-3184
主の言葉がわたしに臨んだ	-3185
エデ	-3186
▁あなたの神	-3187
エッサイ	-3188
わたしはあなたがたを	-3189
主はモーセに言われた	-3190
いえ	-3191
きび	-3192
ざま	-3193
たい	-3194
ひも	-3195
ネゲ	-3196
ベカ	-3197
二度	-3198
分の	-3199
後の	-3200
柱の	-3201
火に	-3202
燃え	-3203
石の	-3204
苦難	-3205
通り	-3206
遠い	-3207
いやし	-3208
がれた	-3209
くじを	-3210
ながく	-3211
にその	-3212
やもめ	-3213
ゆだね	-3214
を守る	-3215
ウリヤ	-3216
エルは	-3217
ルキヤ	-3218
工事を	-3219
日には	-3220
現れた	-3221
町々は	-3222
▁彼女は	-3223
おのれの	-3224
おまえの	-3225
それでは	-3226
ちょうど	-3227
の子孫の	-3228
みもとに	-3229
むなしく	-3230
ミデアン	-3231
王の前に	-3232
者たちに	-3233
▁なぜなら	-3234
▁またその	-3235
あるように	-3236
っていたが	-3237
はわたしの	-3238
ひじょうに	-3239
わたしの民	-3240
バシャンの	-3241
人を殺した	-3242
見ていると	-3243
解き明かし	-3244
連れてきて	-3245
ならなかった	-3246
ることのでき	-3247
主の目の前に	-3248
部族のうちから	-3249
は次のとおりである	-3250
とこしえに絶えることがない	-3251
家は	-3252
▁ハ	-3253
▁もろもろの	-3254
そのもろもろの	-3255
ちり	-3256
の道	-3257
もす	-3258
ら穴	-3259
ホリ	-3260
七百	-3261
側に	-3262
力は	-3263
十五	-3264
叫ぶ	-3265
天を	-3266
娘よ	-3267
御子	-3268
手と	-3269
数を	-3270
時の	-3271
歩き	-3272
長い	-3273
がきて	-3274
する者	-3275
つえを	-3276
どもを	-3277
ならぬ	-3278
に従い	-3279
の名は	-3280
の家を	-3281
まねく	-3282
ままで	-3283
るのは	-3284
ギリシ	-3285
シナイ	-3286
ピリポ	-3287
ベルの	-3288
ラムの	-3289
呼んだ	-3290
建てた	-3291
知恵と	-3292
起して	-3293
うために	-3294
おられた	-3295
から取り	-3296
くすしき	-3297
のぼって	-3298
よろしく	-3299
を守って	-3300
エリヤは	-3301
主はまた	-3302
者はみな	-3303
聞きいれ	-3304
食べさせ	-3305
うであろう	-3306
ることなく	-3307
エリシャは	-3308
レバノンの	-3309
目をあげて	-3310
聞いている	-3311
これがために	-3312
つかさたちは	-3313
ものではない	-3314
香ばしいかおり	-3315
あなたがたに言う	-3316
あなたがたに言っておく	-3317
をささげなければならない	-3318
今日に	-3319
主がその	-3320
ようになった	-3321
父に	-3322
この町	-3323
この地を	-3324
すべてその	-3325
彼らは言った	-3326
いか	-3327
うせ	-3328
たれ	-3329
の町	-3330
は皆	-3331
るな	-3332
をと	-3333
ガテ	-3334
七年	-3335
働く	-3336
北の	-3337
口を	-3338
向か	-3339
歩く	-3340
火が	-3341
祈り	-3342
耳に	-3343
衣を	-3344
その妻	-3345
だれの	-3346
なのか	-3347
に満ち	-3348
るとき	-3349
カナン	-3350
ザルの	-3351
ヘシボ	-3352
人から	-3353
大声で	-3354
寄留の	-3355
幕屋の	-3356
祝福し	-3357
者です	-3358
自身が	-3359
荒れ地	-3360
言葉の	-3361
語って	-3362
▁	-3363
の	-3364
¦	-3365
、	-3366
た	-3367
に	-3368
は	-3369
な	-3370
を	-3371
し	-3372
。	-3373
て	-3374
い	-3375
と	-3376
る	-3377
あ	-3378
れ	-3379
ら	-3380
が	-3381
わ	-3382
で	-3383
っ	-3384
か	-3385
そ	-3386
こ	-3387
う	-3388
も	-3389
ま	-3390
す	-3391
よ	-3392
さ	-3393
き	-3394
り	-3395
彼	-3396
ち	-3397
く	-3398
え	-3399
言	-3400
エ	-3401
め	-3402
人	-3403
ル	-3404
主	-3405
者	-3406
お	-3407
だ	-3408
つ	-3409
ろ	-3410
け	-3411
イ	-3412
ス	-3413
ア	-3414
せ	-3415
び	-3416
み	-3417
「	-3418
」	-3419
ラ	-3420
べ	-3421
ば	-3422
子	-3423
ン	-3424
神	-3425
ん	-3426
ヤ	-3427
行	-3428
シ	-3429
ム	-3430
リ	-3431
ど	-3432
々	-3433
ダ	-3434
王	-3435
見	-3436
地	-3437
む	-3438
げ	-3439
サ	-3440
レ	-3441
ロ	-3442
ビ	-3443
出	-3444
デ	-3445
ず	-3446
民	-3447
ブ	-3448
じ	-3449
テ	-3450
一	-3451
祭	-3452
分	-3453
や	-3454
日	-3455
上	-3456
時	-3457
ト	-3458
自	-3459
物	-3460
モ	-3461
知	-3462
家	-3463
所	-3464
手	-3465
ヨ	-3466
セ	-3467
前	-3468
事	-3469
ひ	-3470
マ	-3471
ハ	-3472
立	-3473
バ	-3474
十	-3475
国	-3476
パ	-3477
女	-3478
ナ	-3479
聞	-3480
キ	-3481
ご	-3482
ほ	-3483
心	-3484
ベ	-3485
大	-3486
中	-3487
取	-3488
ゆ	-3489
生	-3490
食	-3491
二	-3492
葉	-3493
ぎ	-3494
町	-3495
ょ	-3496
ユ	-3497
『	-3498
』	-3499
カ	-3500
悪	-3501
命	-3502
父	-3503
ぶ	-3504
死	-3505
名	-3506
弟	-3507
罪	-3508
与	-3509
ウ	-3510
下	-3511
共	-3512
ジ	-3513
聖	-3514
来	-3515
タ	-3516
へ	-3517
長	-3518
目	-3519
ふ	-3520
ク	-3521
間	-3522
ぼ	-3523
司	-3524
族	-3525
ざ	-3526
殺	-3527
身	-3528
ね	-3529
全	-3530
滅	-3531
天	-3532
プ	-3533
オ	-3534
ミ	-3535
ー	-3536
三	-3537
会	-3538
住	-3539
兄	-3540
コ	-3541
思	-3542
帰	-3543
フ	-3544
ペ	-3545
ネ	-3546
入	-3547
信	-3548
道	-3549
恐	-3550
ザ	-3551
従	-3552
ャ	-3553
語	-3554
受	-3555
宮	-3556
孫	-3557
メ	-3558
年	-3559
水	-3560
ュ	-3561
多	-3562
救	-3563
今	-3564
呼	-3565
ニ	-3566
羊	-3567
ゼ	-3568
先	-3569
喜	-3570
造	-3571
ケ	-3572
高	-3573
口	-3574
恵	-3575
去	-3576
万	-3577
山	-3578
七	-3579
四	-3580
得	-3581
ド	-3582
正	-3583
預	-3584
守	-3585
愛	-3586
答	-3587
頭	-3588
使	-3589
義	-3590
霊	-3591
力	-3592
戦	-3593
起	-3594
書	-3595
荒	-3596
ぐ	-3597
何	-3598
声	-3599
方	-3600
向	-3601
告	-3602
金	-3603
実	-3604
部	-3605
五	-3606
持	-3607
光	-3608
軍	-3609
火	-3610
ヒ	-3611
同	-3612
世	-3613
後	-3614
百	-3615
野	-3616
ッ	-3617
集	-3618
幕	-3619
・	-3620
木	-3621
ヘ	-3622
御	-3623
ホ	-3624
仰	-3625
仕	-3626
定	-3627
怒	-3628
教	-3629
着	-3630
求	-3631
供	-3632
娘	-3633
ソ	-3634
不	-3635
妻	-3636
足	-3637
法	-3638
栄	-3639
対	-3640
安	-3641
石	-3642
数	-3643
残	-3644
汚	-3645
ガ	-3646
づ	-3647
皆	-3648
約	-3649
追	-3650
牛	-3651
雄	-3652
門	-3653
引	-3654
打	-3655
敵	-3656
歩	-3657
祖	-3658
離	-3659
ギ	-3660
衆	-3661
海	-3662
福	-3663
血	-3664
渡	-3665
ぜ	-3666
小	-3667
壇	-3668
捨	-3669
連	-3670
他	-3671
近	-3672
ぬ	-3673
良	-3674
合	-3675
置	-3676
撃	-3677
産	-3678
ぞ	-3679
場	-3680
捕	-3681
満	-3682
屋	-3683
臨	-3684
千	-3685
律	-3686
苦	-3687
代	-3688
群	-3689
飲	-3690
第	-3691
犯	-3692
肉	-3693
男	-3694
緒	-3695
建	-3696
寄	-3697
誓	-3698
夜	-3699
強	-3700
香	-3701
望	-3702
次	-3703
銀	-3704
助	-3705
焼	-3706
倒	-3707
願	-3708
遠	-3709
顔	-3710
平	-3711
座	-3712
月	-3713
油	-3714
切	-3715
真	-3716
祈	-3717
ズ	-3718
若	-3719
酒	-3720
六	-3721
導	-3722
ノ	-3723
器	-3724
攻	-3725
祝	-3726
母	-3727
憎	-3728
契	-3729
囲	-3730
流	-3731
示	-3732
進	-3733
息	-3734
氏	-3735
偽	-3736
終	-3737
結	-3738
ピ	-3739
注	-3740
報	-3741
川	-3742
内	-3743
外	-3744
像	-3745
君	-3746
悩	-3747
老	-3748
獣	-3749
宿	-3750
燔	-3751
断	-3752
叫	-3753
耳	-3754
病	-3755
至	-3756
畑	-3757
過	-3758
重	-3759
ゲ	-3760
伏	-3761
常	-3762
清	-3763
治	-3764
携	-3765
気	-3766
選	-3767
歌	-3768
必	-3769
明	-3770
衣	-3771
伝	-3772
拝	-3773
種	-3774
異	-3775
ボ	-3776
服	-3777
放	-3778
尋	-3779
災	-3780
箱	-3781
青	-3782
当	-3783
業	-3784
落	-3785
営	-3786
戒	-3787
破	-3788
初	-3789
賜	-3790
送	-3791
絶	-3792
悲	-3793
及	-3794
投	-3795
牧	-3796
柱	-3797
通	-3798
開	-3799
嗣	-3800
現	-3801
礼	-3802
隠	-3803
負	-3804
感	-3805
用	-3806
歳	-3807
互	-3808
悟	-3809
愚	-3810
逃	-3811
楽	-3812
意	-3813
争	-3814
作	-3815
永	-3816
恥	-3817
返	-3818
理	-3819
―	-3820
働	-3821
別	-3822
風	-3823
土	-3824
勇	-3825
体	-3826
夫	-3827
車	-3828
牲	-3829
犠	-3830
ツ	-3831
解	-3832
再	-3833
右	-3834
徒	-3835
話	-3836
以	-3837
度	-3838
東	-3839
奪	-3840
待	-3841
馬	-3842
朝	-3843
罰	-3844
備	-3845
証	-3846
音	-3847
グ	-3848
堅	-3849
周	-3850
最	-3851
激	-3852
貧	-3853
富	-3854
士	-3855
加	-3856
壁	-3857
深	-3858
頼	-3859
麦	-3860
八	-3861
謝	-3862
害	-3863
泣	-3864
無	-3865
獲	-3866
諸	-3867
谷	-3868
勢	-3869
城	-3870
宣	-3871
新	-3872
動	-3873
工	-3874
束	-3875
邦	-3876
成	-3877
兵	-3878
庭	-3879
ポ	-3880
利	-3881
穴	-3882
乗	-3883
台	-3884
伸	-3885
砕	-3886
北	-3887
糸	-3888
雲	-3889
権	-3890
除	-3891
属	-3892
寝	-3893
布	-3894
淫	-3895
魂	-3896
境	-3897
暗	-3898
乳	-3899
親	-3900
少	-3901
広	-3902
戸	-3903
洗	-3904
非	-3905
側	-3906
嘆	-3907
畜	-3908
和	-3909
務	-3910
勝	-3911
吹	-3912
払	-3913
空	-3914
変	-3915
夕	-3916
殿	-3917
移	-3918
隷	-3919
岩	-3920
様	-3921
奴	-3922
銅	-3923
裂	-3924
僕	-3925
官	-3926
決	-3927
留	-3928
偶	-3929
割	-3930
皮	-3931
買	-3932
ヅ	-3933
墓	-3934
宝	-3935
散	-3936
有	-3937
誇	-3938
燃	-3939
葬	-3940
議	-3941
召	-3942
驚	-3943
売	-3944
計	-3945
設	-3946
半	-3947
学	-3948
訴	-3949
善	-3950
果	-3951
降	-3952
令	-3953
消	-3954
隣	-3955
張	-3956
憤	-3957
授	-3958
位	-3959
尊	-3960
隊	-3961
確	-3962
労	-3963
角	-3964
踏	-3965
ゴ	-3966
傾	-3967
役	-3968
眠	-3969
築	-3970
素	-3971
相	-3972
鳥	-3973
傷	-3974
枝	-3975
花	-3976
識	-3977
公	-3978
南	-3979
好	-3980
難	-3981
復	-3982
指	-3983
納	-3984
領	-3985
骨	-3986
村	-3987
迎	-3988
妹	-3989
首	-3990
問	-3991
舟	-3992
越	-3993
込	-3994
保	-3995
忘	-3996
