<pad>	0
</s>	0
<unk>	0
,	-3.17005
᙮	-3.57508
▁	-3.57857
▁ᑕᔥ	-4.15985
▁ᑲᔦ	-4.17126
▁ᒦ	-4.33636
ᒡ	-4.55193
▁ᑳ	-4.56922
▁ᐁ	-4.59285
▁ᒋ	-4.65734
ᓂ	-4.65855
ᓐ	-4.67062
:	-4.82564
▁ᑳᐐᓐ	-4.85869
▁ᐃᐃ	-4.88328
▁ᐁᑮ	-5.02437
ᑕᔥ	-5.06562
▁ᐃᑕᔥ	-5.09115
ᒃ	-5.11075
ᐙᒡ	-5.12836
▁ᓴ	-5.14383
▁ᑳᑮ	-5.14582
ᑭ	-5.15139
▁ᐃᐃᒫ	-5.18751
ᑯ	-5.21536
ᑲ	-5.24309
▁ᑮ	-5.26274
▁ᑭᔐᒪᓂᑑ	-5.26337
▁ᐃᓂ	-5.26371
▁ᐅᑮ	-5.29462
ᒥ	-5.30986
ᑳ	-5.33351
▁ᐅ	-5.35034
ᓂᒡ	-5.35812
ᓯ	-5.38489
ᑎ	-5.39665
▁ᑳᐃᔑ	-5.40535
ᑕ	-5.41503
▁ᑲᑭᓇ	-5.42572
▁ᐊᐊ	-5.4519
ᐎ	-5.47151
▁ᐊᐲ	-5.48075
▁ᒋᓴᔅ	-5.49132
ᒫ	-5.5057
ᓈ	-5.52118
ᐱ	-5.52756
ᔥ	-5.55951
▁ᐃᑭ	-5.56582
▁ᐐᓐ	-5.56842
ᐙ	-5.59359
ᔑ	-5.60768
ᒋ	-5.64459
ᐸ	-5.6571
ᓇ	-5.6867
ᑖ	-5.71176
▁ᐁᔑ	-5.73106
ᐃ	-5.73449
▁ᐋᓃᔥ	-5.74665
▁ᐅᐅ	-5.77942
▁ᐊᐎᔭ	-5.78219
?	-5.80078
▁ᑭ	-5.80526
ᐗᒃ	-5.82294
ᐌ	-5.85342
ᐊ	-5.87746
▁ᑭᔐᒪᓂᑑᓐ	-5.94703
ᕽ	-5.95927
▁ᑫ	-5.96742
▁ᑕ	-5.99066
ᓰ	-6.0139
!	-6.03058
ᑌ	-6.03063
ᔦᒃ	-6.03837
▁ᑫᑰᓐ	-6.07374
▁ᓂ	-6.08242
▁ᐋᓃᓐ	-6.08754
▁ᑮᔥ	-6.10484
ᐗ	-6.10578
▁ᑭᑲ	-6.11559
ᒻ	-6.11757
ᐱᓐ	-6.12064
ᒪ	-6.12092
▁ᐃ	-6.14237
ᑫ	-6.14624
ᐎᓐ	-6.1732
▁X	-6.18216
ᑮ	-6.19082
ᓀ	-6.19132
ᒡ᙮	-6.22173
ᐅ	-6.23593
▁ᐃᑯ	-6.24904
▁ᐃᔑ	-6.25239
ᑑ	-6.25493
▁ᒦᔥ	-6.26141
ᐲ	-6.29622
ᐞ	-6.30429
▁ᐊ	-6.31662
▁ᑖᐱᔥᑰ	-6.33527
ᐋ	-6.34866
▁ᑮᓇᐙ	-6.34902
▁ᓃᓐ	-6.35984
▁ᐅᑲ	-6.3753
ᔅ	-6.37885
ᓄ	-6.38058
▁ᐐ	-6.39117
ᐹ	-6.41017
▁ᓂᑮ	-6.43028
▁ᐁᐐ	-6.43298
▁ᐋᔕ	-6.44841
▁ᐁᑕ	-6.45933
▁ᐯᔑᒃ	-6.46167
▁ᑳᑮᐃᔑ	-6.46362
ᒀ	-6.48026
ᑾ	-6.49394
▁ᒦᓇᐙ	-6.50004
▁ᐌᑎ	-6.50797
▁ᐊᑮᕽ	-6.51098
ᔭᓐ	-6.53132
▁ᐃᐌ	-6.5377
ᔮᓐ	-6.54964
▁ᐃᓂᓂ	-6.54981
ᓭ	-6.55661
▁ᑭᒋ	-6.56234
ᐯ	-6.57291
ᓂᒡ᙮	-6.61088
ᓱ	-6.62333
ᐊᔮ	-6.62458
ᑴ	-6.62879
ᒦ	-6.65787
▁ᐃᒫ	-6.66313
ᓵ	-6.67433
▁ᑳᔑ	-6.67802
▁ᑳᐅᒋ	-6.68712
▁ᐅᒋ	-6.68888
ᐙᒡ᙮	-6.69089
▁ᐃᐃᐌ	-6.6945
ᔮ	-6.70142
ᓴ	-6.70482
▁ᑫᑯ	-6.70591
▁ᐃᓇ	-6.70675
ᐗᓐ	-6.72551
ᔭ	-6.73024
▁ᑭᑮ	-6.7576
▁ᐊᐌ	-6.76319
ᑐ	-6.76733
▁ᑌᐺ	-6.77048
▁ᐁᑳ	-6.78199
▁ᐅᔕ	-6.78758
ᐐ	-6.80009
ᐙᓐ	-6.82254
ᓅ	-6.82649
▁ᒋᓴᓲᓐ	-6.82883
▁ᐄᑐᒃ	-6.8348
▁ᓅᑯᒻ	-6.83481
▁ᐯᔑᑾᓐ	-6.8445
▁ᑯ	-6.85019
▁ᑯᑕᒃ	-6.86083
▁ᔑᑾ	-6.88426
▁ᐋᐱᒋ	-6.8875
ᑣ	-6.88903
ᑰ	-6.90101
▁ᑳᑎᐯᒋᑫᒡ	-6.90458
▁ᑮᓐ	-6.90576
ᔕ	-6.91104
▁ᐅᐌ	-6.92163
ᒌ	-6.9448
ᐎᓂᕽ	-6.95524
▁ᑮᐃᔑ	-6.95766
▁ᐱ	-6.96561
ᓈᓐ	-6.97334
▁ᑳᐐ	-6.98156
▁ᐅᐅᒫ	-6.98928
ᓃ	-6.99521
ᒋᑫ	-7.00691
▁ᐊᐌᓀ	-7.00962
▁ᓂᑲ	-7.01295
ᒧ	-7.01543
▁ᐱᑯ	-7.02367
ᓯᒃ	-7.0308
▁ᐐᑫ	-7.03298
ᔮᕽ	-7.07552
▁ᒫᐗᒡ	-7.07698
▁ᒥᓯᐌ	-7.09139
ᐸᓐ	-7.09354
▁ᐁᑮᐃᔑ	-7.10274
ᔭᕽ	-7.10694
ᒃ᙮	-7.11582
▁ᐊᐊᐌ	-7.1165
ᐙᐞ	-7.11764
ᒥᓐ	-7.11866
▁ᑳᑮᐅᒋ	-7.13158
ᐗᐞ	-7.1458
▁ᑫᐅᒋ	-7.14669
▁ᐅᐅᐌ	-7.15354
▁ᒋᐅᒋ	-7.16314
ᑌᐺ	-7.16455
ᓇᓐ	-7.1662
▁ᑕᑲ	-7.18602
▁ᐌᒋ	-7.19082
▁ᑾᔭᒃ	-7.19366
ᔥᑲ	-7.19942
▁ᑫᔮᐱ	-7.20755
ᔥᑭ	-7.2121
▁ᓇᐗ	-7.21328
ᐱᒫᑎᓯ	-7.21932
ᓰᓐ	-7.22396
▁ᒣᒀ	-7.23777
▁ᒨᔕᒃ	-7.24067
ᓐ᙮	-7.25178
ᐅᒋ	-7.25742
▁ᑫᔑ	-7.25899
ᐎᓇᓐ	-7.26462
▁ᑮᐃᑭᑐ᙮	-7.26774
▁ᐗᐊ	-7.27139
▁ᐅᑮᐃᓈᐞ᙮	-7.27989
ᒨ	-7.28569
▁ᐅᑭᑭᓄᐊᒪᐙᑲᓇᐞ	-7.29
▁ᑮᐃᑭᑐ	-7.29635
▁ᐊᐎᔭᒃ	-7.29696
▁ᐃᓇᔥᑫ	-7.30018
▁ᐁᐃᔑ	-7.30018
ᔦᒃ᙮	-7.30692
ᐐᒋ	-7.30922
▁ᓃᐱᐗᐞ	-7.31044
▁ᐆᑌᓈᕽ	-7.31339
▁ᑮᐊᓂ	-7.32089
▁ᐌᑯᓀᓐ	-7.32318
ᑕᕽ	-7.33219
▁ᐃᔑᒋᑫ	-7.33245
ᐗᕽ	-7.34833
ᒪᐎ	-7.34886
▁ᓇ	-7.35085
▁ᑭᔐᒪᓂᑑᓐ᙮	-7.35175
▁ᐊᐗᔑᒣ	-7.3526
ᒥᓐᒡ	-7.35353
▁ᐊᔮ	-7.35402
ᐐᒌ	-7.35607
ᑕᐎ	-7.36294
▁ᐅᑯᓯᓴᓐ	-7.36343
▁ᐅᓄ	-7.36527
ᓯᒀ	-7.37249
ᐳ	-7.37508
ᐴ	-7.38141
ᔖ	-7.3915
▁ᐅᑮᐃᓈᓐ᙮	-7.39662
ᐎᓂᓂ	-7.39901
ᑳᓱ	-7.40053
ᒣ	-7.40181
▁ᐋᓂᑕ	-7.40231
▁ᑭᑎ	-7.41006
▁ᐃᑴ	-7.41156
ᐎᓂ	-7.41164
ᑕᐌ	-7.41396
ᑭᒋ	-7.42249
▁ᐊᐎᔭᐞ	-7.42278
ᑭᓐ	-7.42691
▁ᒫ	-7.43009
▁ᑳᐱ	-7.43179
▁ᒪᔮ	-7.43196
ᓂᒃ	-7.4349
▁ᑭᒋᑮᔑᑯᕽ	-7.4368
▁ᒋᐃᔑ	-7.43712
▁ᐯᒫᑎᓯᐙᒡ	-7.44337
ᒣᒃ	-7.44351
ᑫᒃ	-7.44634
▁ᐋ	-7.44667
▁ᑭᑖ	-7.4592
▁ᐊᐎᔭᓐ	-7.48224
ᑰᓐ	-7.4844
ᐗᒃ᙮	-7.49565
ᑕᒪ	-7.49981
ᒫᒃ	-7.50538
▁ᐅᑎ	-7.51661
▁ᐁᐊᓂ	-7.53174
ᓈᑯᓯ	-7.53217
ᒪᒋ	-7.53222
ᑕᔑ	-7.53268
▁ᐃᑭᑐ	-7.53867
ᑕᒧᐙᒡ	-7.54501
▁ᐯᒫᑎᓯᓂᒡ	-7.5463
▁ᒥᓂᒃ	-7.54883
▁ᐸ	-7.553
▁ᑆᓬ	-7.56801
ᔒ	-7.56961
▁ᐲᓂ	-7.57077
▁ᑳᐃᓈᒡ	-7.57086
ᓂᑯ	-7.57424
▁ᑮᐅᒋ	-7.5804
ᐙᐱ	-7.58168
ᑎᓄᐎ	-7.58617
▁ᐊᒦ	-7.58618
▁ᐸᑳ	-7.59237
ᓯᐌᒃ	-7.59735
▁ᒋᑮ	-7.60654
ᓈᐙ	-7.60705
▁ᓃ	-7.60735
▁ᐅᑯ	-7.6074
ᑕᓐ	-7.6076
▁ᐅᑕᒑᑾᓐ	-7.60893
▁ᒎᐗᒃ	-7.60893
▁ᑫᑰᓂᓂ	-7.60893
▁ᐲᑕᕒ	-7.60894
▁ᑳᑎᐯᒋᑫᓂᒡ	-7.609
ᑭᐸᓐ	-7.61214
▁ᑫᑰᓇᓐ	-7.62294
▁ᑎᓄ	-7.62781
ᑲᓇᐌ	-7.6285
ᑕᒧ	-7.63137
▁ᐃᓴ	-7.63567
▁ᐃᓇᑫ	-7.6426
▁ᐅᑕ	-7.64717
ᑲᓐ	-7.65278
ᑲᑴ	-7.65881
▁ᐃᓂᓂᐗᓐ	-7.66119
▁ᐋᑎ	-7.66487
ᑭᑭ	-7.66511
ᑭᒫ	-7.67168
▁ᓂᑕᒻ	-7.67447
ᐎᓐ᙮	-7.68229
ᕽ᙮	-7.68285
▁ᐅᓇᔓᐌᐎᓐ	-7.68431
ᐌᓂᐗᒃ	-7.68818
ᑯᒡ	-7.68976
ᒧᐙᒡ	-7.6908
▁ᐅᑖ	-7.69325
▁ᒋᓴᓲᓐ᙮	-7.69509
▁ᑫᐃᔑ	-7.70037
▁ᒦᐃ	-7.70246
▁ᒉᕒᐆᓴᓬᐊᒥᕽ	-7.70372
ᓀᒃ	-7.70383
ᐊᓄᑮ	-7.70515
▁ᒪ	-7.71964
ᓉ	-7.7212
ᑫᓂ	-7.72506
ᐃᔑ	-7.72691
▁ᑫᐐ	-7.72825
▁ᔐ	-7.73175
ᐌᐌᓂ	-7.73559
ᑕᑯ	-7.73784
ᑭᓯ	-7.73886
▁ᐅᑮᐃᔑ	-7.73886
ᓇᐃ	-7.73912
ᓇᕽ	-7.73969
ᐋᒡ	-7.74104
ᓀᒀ	-7.74106
▁ᑲ	-7.74299
ᕒ	-7.74651
ᓰᒻ	-7.75545
ᑕᒪᐙ	-7.76491
ᓅᑕ	-7.77436
▁ᒞᓐ	-7.77504
ᒪᓐ	-7.7755
ᔮᓐ᙮	-7.77603
▁ᑯᒫ	-7.77854
▁ᒎᐗᐞ	-7.78328
ᐃᐌ	-7.78757
ᑴᓐ	-7.78924
▁ᑳᐃ	-7.78997
▁ᑮᐊᔮ	-7.79092
▁ᑳᑮᐱ	-7.79134
ᑦ	-7.79145
;	-7.7916
▁ᐹᓂᒫ	-7.79163
ᒥᒋ	-7.79668
▁ᐃᐃᐌᓂ	-7.80184
▁ᐊᓂ	-7.80245
ᒥᓂᒡ	-7.8032
ᒥᓄ	-7.80711
ᐁ	-7.81046
ᑮᐌ	-7.81116
▁ᐅᑑ	-7.81553
ᒫᒋ	-7.81643
ᒥᓴᐌ	-7.81703
ᑖᓐ	-7.83076
ᐃᑯ	-7.8318
ᔦ	-7.83401
▁ᐯ	-7.83816
ᐌᒃ	-7.84186
▁ᐅᑌᐺᑕᒨᒃ	-7.84395
▁ᑭᒋᐅᑭᒫ	-7.84439
▁ᑲᑴ	-7.84948
▁ᐐᓇᐙ	-7.85188
▁ᒦᓴ	-7.85762
▁ᑳᑕᔑ	-7.85842
▁ᒫᒑ	-7.8585
ᑯᐙ	-7.86134
▁ᒪᒋ	-7.86231
ᒫᒡ	-7.86309
▁ᐃᔖ	-7.86553
▁ᐱᒫᑎᓯ	-7.87632
ᑕᒥᓂᒡ	-7.87719
ᓈᐱ	-7.88362
▁ᑳᐅ	-7.88657
▁ᑕᔑ	-7.88897
ᒥᑯᒡ	-7.88927
ᐸᒥ	-7.89543
ᐙᒃ	-7.8965
ᑾᒃ	-7.89717
▁ᑫᑮᓇᐙ	-7.8972
▁ᒋᐱ	-7.89942
▁ᐱᒫᑎᓯᐎᓐ	-7.90363
▁ᑮᐌ	-7.9052
▁ᒥᓍᒋᒧᐎᓐ	-7.90651
ᔫ	-7.90651
▁ᐃᓀᑖᑯᓯ	-7.90755
ᓯᓂᒃ	-7.90886
ᑯᐸᓀᓐ	-7.91562
▁ᐅᑮᐃᓈᐞ	-7.91639
▁ᐅᑮᐃᓈᓐ	-7.91779
ᑕᒫᓐ	-7.91957
ᐗᓂ	-7.92106
▁ᐁᐱ	-7.92232
▁ᓂᑖ	-7.9234
▁ᐅᑭᒋ	-7.92411
▁ᐊᑭ	-7.92662
ᑫᓐ	-7.92703
ᑲᓂᐎ	-7.92971
ᐅᑎᓯ	-7.93119
ᓰ᙮	-7.93593
▁ᐃᓂᓂᐗᒃ	-7.93673
ᓯᓅᓐ	-7.93701
▁ᐅᑮᐃᑰᓐ᙮	-7.94075
ᓍ	-7.94455
ᓭᒃ	-7.94582
▁ᒣ	-7.9518
ᑑᒡ	-7.95704
ᓃᔑᓐ	-7.96147
▁ᓃᓇᐎᓐᑦ	-7.96436
▁ᐁᑮᐃᓈᒡ	-7.96438
ᑰᔦᒃ	-7.96505
ᐸᑕ	-7.96888
▁ᐃᓈ	-7.96974
▁ᐋᓇ	-7.97485
ᐃᑎᓱ	-7.97507
▁ᒋᐅ	-7.97797
ᓂᔑ	-7.97905
ᓃᕽ	-7.9864
▁ᓈ	-7.98825
ᓂᓂ	-7.98889
ᓴᓐ	-7.99271
ᓈᒡ	-7.99448
ᐤ	-7.99502
▁ᑳᐊ	-7.99593
▁ᐁᑮᐊᓂ	-7.99689
ᓵᑭᐃ	-8.00103
ᑯᕽ	-8.00358
ᐃᑰ	-8.00417
▁ᐯᐸᑳ	-8.00519
▁ᐋᓇᐐ	-8.00543
ᑎᐱ	-8.01091
▁ᑭᑎᔑ	-8.01249
ᓯᕽ	-8.01272
▁ᔖᑰ	-8.01508
▁ᑮᓇᐎᓐᑦ	-8.01526
▁ᓂᑌᑌ	-8.01531
ᒥᓉ	-8.01577
ᐃᓇ	-8.01806
ᐊᔨ	-8.01858
ᑮᑭᑐ	-8.02037
▁ᑳᐊᔮᐙᒡ	-8.02184
▁ᐁᐃ	-8.02321
ᒫᓐ	-8.02668
ᔐ	-8.0298
ᒫᒌ	-8.03237
ᐊᔮᒡ	-8.03322
ᑲᔥᑭᑑ	-8.03486
ᓯᓄᒃ	-8.03671
ᓂᓂᒻ	-8.0382
ᓰᐗᒃ	-8.04269
ᑕᒣᒃ	-8.04436
ᐊᓇᒥᐋ	-8.04485
ᓇᐌ	-8.05243
ᐸᐹ	-8.0536
ᓂᓂᒃ	-8.05742
ᓂᕽ	-8.06888
▁ᒋᑆ	-8.07326
ᒻ᙮	-8.07656
ᒪᑲᒃ	-8.0793
▁ᐁᔮ	-8.08003
ᑳᐸᐎ	-8.08254
▁ᑮᐱ	-8.08284
▁ᑳᑭᒋ	-8.08625
▁ᐅᑕᒑᑯᓂ	-8.09118
ᐐᑎᑫ	-8.0934
ᑰᐞ	-8.09409
▁ᐁᑮᐅᒋ	-8.0972
ᒦᓂᑰ	-8.09722
ᕒᐊ	-8.09908
▁ᐹ	-8.1023
ᑾᔭᑯ	-8.10254
ᔭᓐ᙮	-8.10413
ᒥᑰ	-8.10547
ᐆ	-8.10806
ᓀᑕ	-8.11885
▁ᑫᑮ	-8.1193
▁ᑭᐐ	-8.12385
▁ᒨᓯᔅ	-8.12557
ᓇᑰᒃ	-8.1289
▁ᔔᓂᔮ	-8.12896
ᐃᔖ	-8.12952
ᑌᒃ	-8.12991
ᒫᒪᐎ	-8.13153
▁ᐗ	-8.13339
▁ᐁᐅ	-8.14015
ᓯᐎᓐ	-8.14024
▁ᑕᐃᔑ	-8.14139
▁ᑖ	-8.14245
▁ᐙᐸ	-8.14477
ᔓ	-8.14736
ᐱᒧᓭ	-8.14934
ᐊᑕᐌᑕ	-8.151
ᒫᔑ	-8.1512
ᓂᑖ	-8.15243
ᓂᓯᑐᑕ	-8.1556
ᑳᑌ	-8.15661
▁ᑳᑮᐃ	-8.15711
▁ᐌ	-8.15841
ᐲᐎ	-8.15902
ᒥᓄᐊᔮ	-8.15966
ᑮᐅᑌᑌ	-8.15987
▁ᑌᐯᒋᑫᔭᓐ	-8.16118
▁ᑭᒋᐊᓇᒥᐁᐎᑲᒥᑯᕽ	-8.16118
▁ᐁᐅᒋ	-8.16236
▁ᐲ	-8.16927
▁ᒋᐊ	-8.17115
▁ᑮᑭᒋ	-8.17266
ᐎᒡ	-8.17435
ᒋᑳᑌᒃ	-8.1754
▁ᑭᑕ	-8.17567
ᒪᔥᑲᐎᓰ	-8.17729
ᓰᒥᓐ	-8.18654
▁ᐙ	-8.18707
▁ᑕᑯ	-8.18894
▁ᐁᑮᐱ	-8.19241
ᑌᓂᒃ	-8.19274
ᐊᑕ	-8.19334
ᓱᒡ	-8.19337
▁ᐁᑕᔑ	-8.19719
▁ᒥ	-8.20245
ᑲᓇᓐ	-8.20485
ᒦᑭᐌ	-8.20669
ᐯᔑᑯ	-8.20817
▁ᓅ	-8.21048
▁ᐃᓂᐌᓂᐗᐞ	-8.21221
▁ᐊᑮᕽ᙮	-8.21348
▁ᐅᒫ	-8.21725
ᓂᓂᑭᓐ	-8.21879
▁ᐃᓈᑯᓂᑫᐎᓐ	-8.22355
ᐎᓂᐙᓐ	-8.22394
ᒪᒃ	-8.22417
▁ᐅᑌᐺᑕᒨᐞ	-8.22419
▁ᐐᒋ	-8.22767
ᐴᓂ	-8.22779
ᔭᐄ	-8.23456
ᑕᐙ	-8.23626
ᔔ	-8.2364
▁ᑫᐐᓇᐙ	-8.23647
ᓂᑎᓱ	-8.2372
ᓯᐙᓐ	-8.2416
▁ᑮᐃᔖ	-8.24235
ᐃᑯᒡ	-8.24272
ᒪᕽ	-8.24475
ᑭᑭᓄᐊᒫᑫ	-8.24491
▁ᐊᔮᓂᒡ	-8.24581
ᑭᑑ	-8.2462
ᐞ᙮	-8.24667
▁ᐆᑌᓇ	-8.24755
ᓇᐎ	-8.25146
ᑖᓈᐙ	-8.26091
▁ᐯᔓ	-8.26334
▁ᑳᐃᔥᒀ	-8.26639
ᑮᐌᐱᒫᑎᓯ	-8.26768
ᑰᒻ	-8.26971
ᑑᓐ	-8.27082
▁ᐁᒐᓬ	-8.27626
ᑖᒻ	-8.27641
▁ᑫᓃᓐ	-8.27641
▁ᐄᓴᓐ	-8.27649
▁ᑭᑭ	-8.27742
ᐙᐸᓐ	-8.27767
ᒥᓂ	-8.28318
ᑳᕽ	-8.28725
ᑕᒪᐙᒡ	-8.28956
ᓃᑳᓂ	-8.29123
ᒪᔑ	-8.29254
ᑲᓅᓈ	-8.29288
▁ᐸᑮ	-8.29502
▁ᐁᑭᒋ	-8.29582
ᐎᓂᐙ	-8.29782
▁ᐅᑮᐃᑰᐞ᙮	-8.29791
▁ᐅᑎᔑ	-8.29791
ᑲᓂᓂ	-8.29943
ᓈᐙᓐ	-8.30222
ᐲᐃ	-8.30253
▁ᐱᓵᓐ	-8.30386
▁ᒥᓄ	-8.30825
ᒧᒃ	-8.31142
ᒋᑳᑌ	-8.31224
ᓅᓐ	-8.31595
▁3	-8.31896
ᑑᐙᒡ	-8.32807
ᓂᓐᒡ	-8.32949
▁2	-8.33404
ᓬᐃ	-8.33485
ᓰᓈᐙ	-8.33571
▁ᑳᐃᑭᑐᒡ	-8.33637
▁ᑌᐺᐎᓐ	-8.33689
ᐅᑖᐱᓈ	-8.33776
ᓂᒥᓐᒡ	-8.33947
ᑎᐹᒋᒧ	-8.34637
▁ᐅᑖᓈᕽ	-8.34693
▁ᑭᒋᒪᓯᓇᐃᑲᓐ	-8.347
▁ᓂᑎ	-8.34835
ᑰᒃ	-8.34954
ᓭᓂᒃ	-8.35117
▁ᐅᑮᐅᒋ	-8.35119
▁ᐃᑴᐗᓐ	-8.35394
▁ᐅᒌ	-8.35455
ᐊᔮᔦᒃ	-8.35515
ᐐᑕᒫᑫ	-8.35552
ᐌᐱᓈ	-8.35581
▁ᑭᑭᓄᐊᒪᐙᑲᓇᒃ	-8.36118
ᐸᑭᑎᓈ	-8.36288
ᓅᒋᑯ	-8.36503
▁ᐲᑎᑫ	-8.36557
▁ᔔᓂᔮᓐ	-8.36574
ᐗᓐ᙮	-8.36591
▁ᐅᑭᑭᓄᐊᒫᑫ	-8.36663
ᐐᑕᒪᐎᓇᑰᒃ	-8.36689
ᓈᑾᓂᓂᒃ	-8.36699
▁ᓇᑫ	-8.36792
ᑲᒀᑕᑭᐃ	-8.36919
▁ᒋᐃᔑᒋᑫ	-8.36984
ᐐᒌᐎᑯᒡ	-8.37068
ᐗᒡ	-8.37444
▁ᒫᒌ	-8.37957
▁ᒋᐐ	-8.38068
ᒪᑲᓂᓂᒃ	-8.3886
ᒦᓈ	-8.39003
▁ᒞᓇᓐ	-8.39114
▁ᐃᔑᐲᐃᑳᑌ	-8.39114
▁ᑕᓱ	-8.39145
▁ᒦᒋᒻ	-8.39186
ᑎᐯᒋᑫ	-8.39187
ᐎᓂᕽ᙮	-8.39294
ᐗᓂᓂᒃ	-8.40377
ᑲᐎ	-8.40497
ᓯᒡ	-8.40548
ᐃᓀᑕ	-8.40573
ᒫᐗᒋ	-8.40706
▁ᑳᓂᑖ	-8.40774
▁ᑮᐃᑭᑐᐗᒃ᙮	-8.41196
ᑲᓂᕽ	-8.41521
ᒋᑫᒡ	-8.41627
▁ᑫᑳ	-8.41653
▁ᐸᑭᑎᓈ	-8.42023
ᒋᑫᐙᒡ	-8.42532
ᓂᑖᐎᑭ	-8.42635
ᐐᒌᐙ	-8.42744
ᑲᑴᒋᒫ	-8.42898
ᐲᑎᑫ	-8.43065
▁ᐃᓂᓂᐗᐞ	-8.43091
ᓈᑾᒃ	-8.43111
ᑸ	-8.43776
ᑏ	-8.43783
ᑉ	-8.43784
▁ᑫᒋᓈᒡ	-8.43809
ᓯᓂᓂᒃ	-8.4419
ᒥᓂᑴ	-8.44404
ᒥᓍᐸ	-8.44446
ᓂᑭᓐ	-8.44487
ᔑᓐ	-8.44679
ᒪᔥᑲᐎ	-8.44697
ᐋᐙᒡ	-8.44703
ᓈᓯᑲ	-8.45063
ᑎᐯᓂᒥ	-8.45287
▁ᑮᔑᑲᓂᓂᒃ	-8.45309
ᐌᓅᑎᓯ	-8.4539
ᓈᓂᐗᕽ	-8.45402
▁ᐋᓃ	-8.46136
▁ᐅᔥᑭ	-8.46166
ᑖᑾᒃ	-8.46224
ᔦᑭᐸᓐ	-8.46253
ᒨᔥᑭᓀ	-8.46441
ᒋᑳᑌᓂᒃ	-8.46612
ᑫᒡ	-8.4668
ᐙᐸᒫᒡ	-8.46707
▁ᑳᑭᑭᓄᐊᒫᑫ	-8.46712
ᔮᕽ᙮	-8.46838
▁ᑳᐃᑯᒡ	-8.46841
▁ᒥᓴᐙ	-8.47026
ᓈᓂᒃ	-8.47138
ᒦᓈᒡ	-8.47193
▁ᐁᔑᓈᑾᒃ	-8.47369
ᓬ	-8.47697
▁ᓂᐐ	-8.4835
▁ᐁᐊ	-8.48499
▁ᑭᔐᒪᓂᑑ᙮	-8.48633
ᐗᒀ	-8.48649
ᒉ	-8.48683
▁ᒪᒋᑑᑕᒧᐎᓐ	-8.48701
ᑯᓈᓐ	-8.48779
ᐙᐸᒫ	-8.49032
ᓅᑌᓭ	-8.49651
▁ᐁᐲᒋ	-8.49675
▁ᐁᑕᓱ	-8.49693
ᑮᔗ	-8.49707
▁ᐅᔑ	-8.5014
▁ᓇᐃ	-8.50217
ᓲ	-8.5034
▁ᐃᔥᐱᒥᕽ	-8.50371
▁ᓵᐃᒪᓐ	-8.50371
ᔖᑰᒋ	-8.50417
▁ᑳᐊᔮᓂᒡ	-8.50551
▁ᓂᑎᔑ	-8.50819
▁ᑮᔑᒃ	-8.5102
ᓂᔕᐅ	-8.51684
ᓈᐙᒡ	-8.5179
ᐊᔮᓂᒃ	-8.51966
▁ᑭᑑ	-8.52064
▁ᐁᐸᕒᐊᐋᒻ	-8.52088
▁ᐋᓂᓐᑦ	-8.52088
▁ᒥᑖᔂᒃ	-8.52088
ᐲᒋ	-8.5209
ᐅᓇ	-8.52186
▁ᐁᓂ	-8.52687
▁ᐁᑮᐅ	-8.5278
ᓯᓂᓂ	-8.52952
ᒥᓈ	-8.52953
ᒧᐎᓐ	-8.52975
▁ᑳᑕᔑᔦᒃ	-8.53184
ᑎᐙᒡ	-8.53688
ᑰᔭᓐ	-8.53767
▁ᐃᓂᐌᓂᐗᓐ	-8.53835
ᓵᒥ	-8.54153
▁ᑭᑭᓄᐊᒫᑫ	-8.5432
ᑖᑾᓐ	-8.54489
▁ᐅᑮᐃᑰᓐ	-8.54568
ᑎᐯᓂᒥᑯ	-8.54808
ᑎᒃ	-8.54811
▁ᐲᔖ	-8.54813
ᓐᒡ	-8.5483
▁ᐃᔥᒀᒡ	-8.54934
▁ᒋᒥᓄ	-8.55098
▁ᑳᐊᓂ	-8.55377
ᐴᓀ	-8.55569
▁ᐅᑕᓄᑮ	-8.55614
ᓅᓂ	-8.55681
ᑑᑕᕽ	-8.56219
ᓂᑳᑌ	-8.56527
ᐃᓀᑖᑯᓯ	-8.56714
ᒫᐞ	-8.57262
▁ᒣᐎᔕ	-8.57423
▁ᒫᐐᓐ	-8.57427
ᒦᓂᑰᐎᓯ	-8.57438
▁ᐱᓵᓂ	-8.57459
ᑲᑭᑐ	-8.57504
ᐎᓂᐙᕽ	-8.57515
▁ᐅᓵ	-8.5788
ᐊᔮᐙᒡ	-8.5797
ᓰᐞ	-8.58245
ᓈᕽ	-8.58276
ᐃᓇᑭ	-8.58321
ᒥᒃ	-8.58903
ᒥᒡ	-8.58965
ᐃᑯᐙ	-8.59022
▁ᒋᐃᔖ	-8.59023
▁ᑎᐱᓇᐌ	-8.59245
ᑾᔭᒀᑎᓯ	-8.59248
ᒫᒥᑲᐎ	-8.59256
ᒥᓀᒃ	-8.59549
ᐃᑯᐙᒡ	-8.5955
ᑎᕽ	-8.59562
ᒪᒋᑑᑕ	-8.59572
ᐱᒥᓂᔕᐅ	-8.59599
ᐲᔖ	-8.59679
ᑮᒨᒋ	-8.59817
▁ᐁᐋ	-8.60177
ᑲᒀᑕᑭᑑ	-8.60225
▁ᐅᑮᐱ	-8.60269
ᑎᐸᓐ	-8.60348
ᑯᓂᒡ	-8.60523
ᑭᑭᔥᑳ	-8.60578
ᐱᒫᑎᓯᐙᒡ	-8.60788
ᐱᓈ	-8.60909
▁ᒪᒋᐊᒑᑾᐞ	-8.61144
ᐗᔦᔑ	-8.61147
ᓵᑭᐋ	-8.61152
▁ᑳᒎᐎᐎᓯᒀ	-8.61182
▁ᐁᑮᐃᑭᑐᒡ	-8.61246
▁ᐯᕒᐊᓰᒃ	-8.61392
ᓂᐳᒡ	-8.61456
ᐐᑕᒪᐎ	-8.61657
ᓅᑕᒧᐙᒡ	-8.61723
▁ᐁᑮᐊ	-8.61929
▁ᑭᐱ	-8.62054
▁ᐅᑯᓯᓯ	-8.62074
▁ᓇᑴᑕ	-8.62115
▁ᒥᒋ	-8.62478
ᐸᓐ᙮	-8.6258
ᓈᓂᕽ	-8.62818
ᐊᒀ	-8.6303
ᔭᕽ᙮	-8.63064
ᑭᑖ	-8.63067
▁ᐅᐅᐌᓂ	-8.63222
ᕒᐃ	-8.6324
▁ᐐᓯᓂ	-8.63619
▁ᑮᐊ	-8.63842
ᑮᔑᑲᒃ	-8.6385
ᐙᐸᑕᐃ	-8.63851
ᑖᑯᓯᒡ	-8.63861
▁ᑕᐅᒋ	-8.64062
▁ᐅᒋ᙮	-8.64192
ᐃᑣ	-8.64227
ᓈᓯᑲᐙ	-8.64232
▁ᑳᐅᒌ	-8.64419
ᒋᑲᓂᐎ	-8.64488
ᐙᐙᒡ	-8.64532
▁ᓂᐱ	-8.64813
ᔩ	-8.65004
▁ᐹᐃᓬᐊᑦ	-8.65009
▁ᐋᐱᑎᕽ	-8.65009
▁ᑳᑮᐃᔑᒋᑫ	-8.65025
▁ᐁᑭ	-8.65041
▁ᑭᐐᑕᒪᐎᓂᓂᒻ	-8.65152
▁ᒋᓂ	-8.65295
ᑲᓇ	-8.65424
ᑖᒥᓐ	-8.65838
▁ᑭᑑᒋ	-8.66128
▁ᐐᐸ	-8.66135
▁ᐃᑴᐗᒃ	-8.66432
ᒪᒋᑑᑕᒧ	-8.66719
ᑭᑫᑕᒧ	-8.66735
ᑭᓐ᙮	-8.6675
ᐎᓂᓃᕽ	-8.66778
ᐐᒌᐙᒡ	-8.66853
▁ᐋᔑᑌᔮᑎᑯᕽ	-8.66999
▁ᐅᓄᐌᓂᐗᓐ	-8.66999
▁ᐱᔑᔑᒃ	-8.66999
ᓯᐗᓐ	-8.67027
ᑎᐗᒃ	-8.67133
▁ᐃᔑᓂᔕᐅ	-8.67227
ᐊᐲᒋ	-8.67658
▁ᐅᑮᐙᐸᒫ	-8.67967
ᓰᒻ᙮	-8.6847
ᔭᔮ	-8.6868
ᑕᒫᕽ	-8.68691
ᐸᑫ	-8.68864
ᒋᑫᓂᒡ	-8.68951
▁ᐅᒫᒫᓐ	-8.69097
▁ᓃᔣᓱ	-8.69118
ᐸᑭᑎᓇ	-8.69262
▁ᑌ	-8.69459
ᓭᑭᓯ	-8.69502
ᑲᒥᒃ	-8.69674
ᐊᔮᒃ	-8.69761
ᓇᒃ	-8.69901
▁ᐃᔑᓭᒃ	-8.69982
▁ᑳᐊᐲᒋ	-8.70139
▁ᐊᐙᒡ	-8.70157
▁ᐌᑯᓀ	-8.7016
ᑯᐙᓐ	-8.70533
ᑾᓐ	-8.70791
ᑭᑫᑖᓐ	-8.70872
ᒬ	-8.71102
▁ᒫᑭᔖ	-8.71103
ᐃᓐᒡ	-8.71141
▁ᒣᕒᐃ	-8.71142
▁7	-8.71148
ᐅᑖᐱᓂ	-8.71409
▁ᑭᑮᐃᔑ	-8.71426
ᓂᐳᓂᒡ	-8.71552
ᓈᑯᓯᒡ	-8.72003
ᔕᔒ	-8.72086
ᐹᑏᓄ	-8.72102
ᑑᑕᒧᐙᒡ	-8.72103
▁ᐁᑮᐃᑯᒡ	-8.72216
ᒥᓇ	-8.72717
▁ᑳᓵᑭ	-8.72847
ᔂ	-8.73188
ᑲᑮᑖᐌ	-8.73218
ᐸᑯᓭᓂᒥ	-8.7322
▁ᑆᓬᐊᓐ	-8.73228
ᑎᐯᓂᒫ	-8.73464
▁ᓃᒋ	-8.73513
ᓂᓇᑰᒃ	-8.73787
▁ᐅᑯᓯᓯᒫ	-8.73816
ᑕᓄ	-8.73836
ᐗᐞ᙮	-8.74003
ᒪᑲᓐ	-8.74193
▁ᐁᑮᐊᐎ	-8.74258
ᑕᒫᓱ	-8.7435
ᐙᐸᑕᒧᐙᒡ	-8.74431
ᔐᒪᓂᑑ	-8.7506
▁ᒋᑕᔑ	-8.75319
ᑕᓇᒥᐋ	-8.75373
ᓈᓂᐗᓂᓂᒃ	-8.75387
ᔑᓈᒻ	-8.75466
ᓬᐊ	-8.75717
ᔭᔅ	-8.75853
ᐃᓀᑕᕽ	-8.75981
ᐊᐱ	-8.76025
▁ᓂᑕ	-8.76303
ᐸᑭᑎᓂᑫ	-8.76307
ᓇᒀ	-8.76426
▁ᓰ	-8.76431
ᑕᒪᕽ	-8.7644
▁ᐆᑌᓈᕽ᙮	-8.76475
ᑑᑕᐙ	-8.77492
ᑕᒧᒃ	-8.77508
ᑕᒫᑰ	-8.77563
4	-8.77583
▁ᐌᔫᓯᒥᓐᒡ	-8.77591
▁ᒪᒋᐊᒑᑾᓐ	-8.77591
▁ᔑᒫᑲᓂᔕᒃ	-8.77591
▁ᓂᐳᐎᓐ	-8.77597
▁ᑲᓇᑫ	-8.776
ᒪᑗ	-8.77629
▁ᐅᑕᔮ	-8.77631
ᒣᒀ	-8.77661
▁ᐸᑭᑎᓂ	-8.77688
ᐙᓐ᙮	-8.77856
▁ᐙᓴ	-8.77887
▁ᐃᔥᒀ	-8.78066
ᐱᒫᑎᓯᓂᒡ	-8.7827
▁ᐐᒌᐎ	-8.7845
▁ᑫᒫ	-8.7864
ᓇᓈ	-8.78671
ᓇᑴ	-8.78924
ᒫᐙᒡ	-8.78969
▁ᐊᐌᓀᓇ	-8.79136
ᒥᓄᓭ	-8.79318
ᐃᕽ	-8.79564
▁ᐊᐱ	-8.79582
ᒥᓈᓐ	-8.79712
▁ᒦᐃᐌ	-8.79815
▁ᐅᑎᑭᑐᐎᓐ	-8.79851
▁ᐱᒌᓇᒃ	-8.79851
ᐃᓇᓄᑮ	-8.79868
▁ᐊᓈᒥ	-8.79875
ᒋᑲᓂᐎᒡ	-8.79935
▁ᐐᑾᑎ	-8.79959
▁ᐅᐐ	-8.80212
▁ᐃᑭᑐᒡ	-8.80439
▁ᑮᐃᑭᑐᐗᒃ	-8.80637
ᑌᐺᑕᐙ	-8.80649
ᑲᔥᑭᑑᓰᓐ	-8.8099
▁ᒋᐐᒋ	-8.8131
ᑰᔮᓐ	-8.81317
ᓯᐗᒃ	-8.81399
ᓰᐗᒃ᙮	-8.81514
ᓵᑭᒋ	-8.81994
ᓯᐗᕽ	-8.82056
ᒐ	-8.82162
ᑶ	-8.82162
ᒥᑯᔥᑳᑌᑕ	-8.82163
ᓂᔑᐗᓈᑎᓯ	-8.82163
▁ᐅᑌᑌᓐ	-8.82163
ᐃᔑᐌᐸᒃ	-8.82172
ᓇᑰᒃ᙮	-8.82347
▁ᓂᑑᒋ	-8.82525
▁ᓂᑮᐃᔑ	-8.82535
▁ᑳᐐᐃᔑ	-8.82764
ᐃᓀᓂᒥ	-8.82775
▁ᓂᑑ	-8.82803
▁ᐯᒫᑎᓯᓂᒡ᙮	-8.83019
ᐗᓂᓂ	-8.83403
ᓇᓐ᙮	-8.83494
ᑯᐸᓐ	-8.83692
▁ᐃᔥᑯᑌ	-8.8375
▁ᐊᔮᐙᒡ	-8.83763
▁ᐊᓄᑮ	-8.8444
▁ᐸᑴᔑᑲᓇᓐ	-8.8453
▁ᐗᐐᑫ	-8.8453
▁ᓂᐳᐎᓂᕽ	-8.84533
▁ᐅᑎᐯᒋᑫᐎᓐ	-8.84535
▁ᐊᐸᓀ	-8.84539
ᓇᓈᑯᒫ	-8.84545
▁ᐁᐃᑭᑐᒡ	-8.84729
▁ᑳᐊᔮᒡ	-8.84785
ᐸᑭᑌ	-8.84847
ᓈᓈᑲᑕᐌᑕ	-8.84922
ᑲᓇᐞ	-8.85039
ᐋᐞ	-8.85351
ᓃᔑ	-8.85484
▁ᒋᐊᓂ	-8.85502
ᐗᑭᒡ	-8.8555
▁ᑮᔑᑲᒃ	-8.85606
ᐋᑯᓯ	-8.85763
ᑆ	-8.85986
▁ᑮᔑ	-8.86138
▁ᑳᐃᔑᒋᑫ	-8.86175
ᑖᐱᓇ	-8.8619
ᓃᔣᒋ	-8.86285
ᓅᒋ	-8.8644
▁ᑳᐐᒋ	-8.86466
ᑎᐎᓐ	-8.86571
▁ᑭᔐᒪᓂᑑᕽ	-8.86727
▁ᑭᑎᑳᓀᓴᓐ	-8.86954
▁ᐊᓄᑮᐋᑲᓐ	-8.86954
▁ᐁᕒᐊᑦ	-8.86955
▁ᑲᓅ	-8.8697
▁ᐊᑮᓂ	-8.8698
▁ᑳᑎᐯᓂᒥᓇᕽ	-8.87042
▁ᑲᔥᑭᑑ	-8.87104
▁ᑫᓂ	-8.8719
ᐊᑖᐌ	-8.872
▁ᑫᐃᔑᒋᑫ	-8.87486
ᒥᓄᒋᑫ	-8.8758
▁ᑎ	-8.87627
▁ᓂᑖᐎᑭ	-8.87711
ᒥᓐ᙮	-8.87783
ᒥᑯᐙ	-8.87988
▁ᑌᐱ	-8.88318
ᐌᒀ	-8.88677
▁ᐸᑴᔑᑲᓐ	-8.89439
▁ᒎᑕᔅ	-8.89439
▁ᒎᓴᑉ	-8.89439
▁ᔔᒥᓈᐳ	-8.89439
▁ᐁᒐᓬᐊᒃ	-8.89443
▁ᐅᐱᒫᑎᓯᐎᓐ	-8.89448
▁ᐊᒋᓇ	-8.89455
ᑎᔦᒃ	-8.8947
ᐱᐴᓐ	-8.89557
ᐐᓱᐎᓐ	-8.89644
ᑲᐊᑖ	-8.89718
▁ᑫᐃ	-8.89739
ᓯᑌ	-8.89823
▁ᑳᐅᓂᔑᔑ	-8.90187
ᐙᐸᑕᒣᒃ	-8.90452
ᑕᒨᒃ	-8.90496
ᔨ	-8.90557
ᐙᐸᑕᕽ	-8.90635
ᑑᑕᒥᓂᒡ	-8.90826
▁ᒋᑲᑴ	-8.90945
ᓈᓐ᙮	-8.91092
ᐊᐲ	-8.91197
▁ᐊᓇᒥᐁ	-8.9128
▁ᐅᑭᒫ	-8.91296
▁ᐱᒫᒋᐃᑰᐎ	-8.91353
▁ᐸᐹ	-8.91501
▁ᐃᓀᑖᑯᓯᐎᓐ	-8.91542
ᐅᓈ	-8.91802
ᑖᑾᓂᓂᒃ	-8.91857
▁ᐙᐱ	-8.91867
▁ᐲᑕᕒᐆᓐ	-8.91988
▁ᐅᓃᑳᓂᓰ	-8.92
▁ᐅᐱᒫᑎᓰᒪᐞ	-8.92034
▁ᑕᐱ	-8.92115
ᐙᐸᑖᓐ	-8.92155
▁ᐐᐗᓐ	-8.92448
▁ᑭᒋᐊᓇᒥᐁᐎᑭᒫᒃ	-8.9247
▁ᑮᐃᔥᒀ	-8.92549
▁ᑖᑮ	-8.92603
ᐃᔑᑮᔗ	-8.92995
ᓃᐎ	-8.93232
ᓅᑌ	-8.93564
ᓭᓂ	-8.93667
▁ᑫᒋ	-8.93673
ᐙᕽ	-8.93713
ᑕᑯᔑᕽ	-8.94051
ᑖᑯᒡ	-8.94228
ᓂᑯᒡ	-8.94368
ᒪᒀ	-8.94544
ᒣᔥᑾᒡ	-8.94602
▁ᑭᓉᔥ	-8.94605
▁ᑳᒎᐎᐎᓯᓂᒃ	-8.94646
ᑭᔒᐌ	-8.94652
ᐅᑭᒫ	-8.94676
ᒪᒥᔑ	-8.94676
ᑯᓇᔦ	-8.94745
ᒪᓂ	-8.94881
ᔕᔒᐱᑕ	-8.94895
ᑕᒫᑯᒡ	-8.95012
ᐊᔮᔮᓐ	-8.95065
ᒋᑫᐎᓇᓐ	-8.95354
▁ᑳᑎᐯᑕᕽ	-8.95646
ᐊᐎ	-8.95866
ᐯᑖ	-8.95962
ᓯᑳ	-8.96187
ᓈᑾᓂᓂ	-8.9623
ᒪᒡ	-8.96307
ᑭᑭᓄᐊᒪᐙ	-8.96372
▁ᑫᑌ	-8.96427
ᓈᑯᓯᓂᒡ	-8.96542
ᐅᑯ	-8.96696
▁ᓂᑕᔮ	-8.96983
▁ᐁᐃᔑᒋᑫ	-8.97243
▁ᐃᑯᒋ	-8.97273
▁ᒎᑏᔭ	-8.97286
ᑲᓅᓈᒡ	-8.97489
▁ᒋᑕᑯ	-8.97926
ᓯᒀ᙮	-8.97942
▁ᑭᑲᐃᔑ	-8.98026
ᓯᐙᐙᓐ	-8.98028
ᐹᑏᓄᐙᒡ	-8.982
ᐅᒋᒋᓭᒃ	-8.98217
▁ᐁᑮᔑᑲᓂᓂᒃ	-8.98237
▁ᐃᔑᐊᔮ	-8.98316
▁ᑳᒪᒋ	-8.98525
ᑕᐙᐙᒡ	-8.9862
▁ᐃᔑᐌᐱᓯ	-8.98691
ᓱᓂᒡ	-8.98847
ᑑᔦᒃ	-8.98981
ᑖᑯᓯᐙᒡ	-8.99057
ᑕᑯᔑᓐ	-8.99224
ᑎᐸᐊᒪᐙ	-8.99518
ᐃᑭᑐᔮᓐ	-8.99533
▁ᐙᓭᔮ	-8.9955
ᓂᑳᑌᒃ	-8.99765
ᒫᐗᒋᐃᑎᐙᒡ	-8.9997
ᓅᑕᕽ	-9.00021
▁ᑭᒋᑲᒦᕽ	-9.00044
▁ᐊᓇᒥᐁᐎᑭᒫ	-9.00046
ᔓᑕᒫᑫ	-9.00047
ᓇᑲᓈ	-9.00053
▁ᐋᒋᑯ	-9.00064
ᑭᑫᑖᓈᐙ	-9.00073
ᐙᐸᒫᐙᒡ	-9.00114
▁ᐁᑭᑫᓂ	-9.00151
ᓯᓂᒃ᙮	-9.00202
ᑑᑕᒫᓐ	-9.00205
ᒪᒋᒋᑫ	-9.00228
ᒪᑲᑭᓐ	-9.00247
▁ᐱᓯᑕ	-9.00508
ᓈᑯᓂ	-9.00888
▁ᑭᑎᑫ	-9.00899
ᑲᔥᑭᑑᒡ	-9.00972
ᑮᔑᒃ	-9.01012
▁ᒪᒋᐊᔭᐋ	-9.0125
▁ᓃᑳ	-9.0136
▁ᑲᑴᒋᒥ	-9.01576
ᐎᓂᓈᓐ	-9.0164
▁ᐃᓀᑖᑯᓯᒡ	-9.0181
▁ᑲᒀᑕᑭᑑ	-9.01888
ᓇᑲᑕ	-9.01947
ᐅᔑᑑᒡ	-9.02021
ᓂᐗᓐ	-9.02044
ᔑᕽ	-9.02073
▁ᒥᓂᑴ	-9.02157
ᓇᕽ᙮	-9.02232
ᐅᔑᑑ	-9.02277
ᐸᑭᔑ	-9.0251
▁ᐊᑕ	-9.02745
▁ᒎᐎ	-9.02881
▁ᐊᓇᒥᐁᐎᑲᒥᑯᕽ	-9.02882
▁ᐅᑭᔐᐙᑎᓯᐎᓐ	-9.02884
▁ᐅᑎᔑᒋᑫᐎᓂ	-9.02936
▁ᐊᐴᔥᑫ	-9.02956
▁ᑫᑮᐃᔑ	-9.02971
▁ᐊᓯᓐ	-9.02974
ᓀᒃ᙮	-9.03057
▁ᐅᑯᐌᓂᐗᒃ	-9.03085
ᒫᕽ	-9.03383
ᑭᒋᐅᑭᒫᐎ	-9.03467
▁ᐯᔑᑯ	-9.03489
▁ᐁᑲ	-9.03489
ᔭᒥᓐᒡ	-9.0355
▁ᐯᑭ	-9.03572
ᓯᐙᐙ	-9.03621
ᔮᐹᓐ	-9.03796
▁ᑭᑲᐅᒋ	-9.04195
ᑕᓰᓐ	-9.04278
▁ᑮᑕᔑ	-9.0452
▁ᐁᔮᓂᒡ	-9.0464
ᒥᑰᔦᒃ	-9.04664
▁ᐄ	-9.04727
▁ᐅᒋᑕ	-9.0488
ᑮᔑᑲᓂᓂᒃ	-9.04954
ᑳᑌᒃ	-9.05101
ᓂᐸᓐ	-9.0521
▁ᒫᒑᒡ	-9.05286
▁ᑎᐯᑖᑯᓯ	-9.05336
ᓄᕽ	-9.05483
▁ᑫᐱ	-9.05487
ᑌᐺᔦᓂᒫ	-9.05803
▁ᐁᒐᓬᐊᓐ	-9.0581
▁ᐱᓇᒫ	-9.05814
▁ᐙᑳᐃᑲᓂᕽ	-9.05815
▁ᑭᑭᑫᓂᒥ	-9.05823
▁ᐅᓂᒌ	-9.05839
▁ᑌᐱᑦ	-9.05851
▁ᑮᔑᑯᕽ	-9.05851
ᓇᒧᐙᒡ	-9.05914
ᔒᑫᓂᒥ	-9.05935
▁ᑳᓬᐊᓬᐄᕽ	-9.05936
ᒫᒪᑳᒋ	-9.06192
▁ᐊᐤ	-9.0635
ᓰᒃ	-9.06582
ᐗᑭᐸᓐ	-9.06776
ᓈᓂᓐ	-9.06806
ᑲᐌ	-9.06938
ᑲᓅᓈᓐ	-9.07185
ᐸᐹᒥ	-9.07248
▁ᑮᐅ	-9.07253
▁ᐅᓵᐎ	-9.07437
▁ᒋᐋ	-9.07451
▁ᐁᑲᑴ	-9.0791
ᐅᒋᒋᓭ	-9.0826
▁ᐃᔑᓭ	-9.08268
ᑫᐙᒡ	-9.08434
ᑎᐸᐊ	-9.08732
ᑭᔐᐙᑎᓯ	-9.08807
▁ᓃᒋᐅᑌᐺᑕᒨᒃ	-9.08809
ᑕᑯᔑᓂᓂᒡ	-9.0881
ᓂᔥᑳᑎᓯ	-9.08827
▁ᐁᑮᐃᔖᒡ	-9.08846
ᑎᐱᓇᐌᐎᓯ	-9.08846
ᐃᑯᓈᓐ	-9.08966
ᑖᓇᓐ	-9.09126
ᑭᑫᑕᒨ	-9.09273
ᐃᓈᑎᓯ	-9.09441
ᑑᑕᒣᒃ	-9.09473
▁ᓃᔣ	-9.09554
ᓅᑕᒣᒃ	-9.09668
ᒨᔥᑭᓀᔥᑳᑯ	-9.09902
▁ᐅᐱ	-9.10271
ᑭᑫᑕᒫ	-9.10289
ᒦᓂᑯᒡ	-9.10401
ᐐᑕᒫ	-9.10422
▁ᐅᑮᐃᓈᐙᓐ᙮	-9.10507
ᓀᐱᒋ	-9.10679
ᓯᒃ᙮	-9.10983
ᐃᒃ	-9.11277
▁ᐃᓀᑖ	-9.11332
▁ᒋᐲ	-9.11361
ᒋᑲᓐ	-9.11506
ᒧᐌᒃ	-9.11571
▁ᐁᑮᒫᒌ	-9.11677
ᐱᔑᒀᑎᓯ	-9.11893
▁ᐅᑎᑭᑐᐎᓂᓂ	-9.1191
▁ᐅᑕᓄᑮᐋᑲᓇᐞ	-9.1191
▁ᐊᑾᒌᕽ	-9.1191
▁ᑲᔥᑭᐁᐎᓯᐎᓐ	-9.1191
▁ᒫᓇᒑᓂᔐᔅ	-9.1191
▁ᐐᔭᐎᒫ	-9.1191
▁ᐃᔅᕒᐃᔭᓬᐊᒃ	-9.11911
ᑫᒀᓂᒃ	-9.11912
▁ᑲᓅᓈᐞ	-9.11925
ᐸᑭᑎᓂᑎᓱ	-9.11941
▁ᔂᓬ	-9.11954
ᓂᑳᑌᓂᒃ	-9.11967
ᑑᓂᒡ	-9.11994
▁ᓂᓯ	-9.12031
ᐱᐅᒌ	-9.12036
ᐱᒫᒋᐋ	-9.12046
▁ᓂᑮᐙᐸᒫ	-9.1222
▁ᑮᐹᑏᓄᐗ	-9.12262
ᓯᐌᒃ᙮	-9.1235
ᑕᐙᐙᓐ	-9.12446
▁ᓵᑭ	-9.12646
ᐃᓀᒃ	-9.12851
ᑲᓅᑕᒪᐙᒡ	-9.12912
ᐊᓂᔖ	-9.13257
ᑲᑲᓅᓂ	-9.13314
▁ᑮᐐ	-9.1338
ᐐᒋᐃᐌ	-9.13478
▁ᓂᓱ	-9.135
▁ᑳᑮᔑᑲᒃ	-9.13651
▁ᐋᐸ	-9.13653
▁ᐅᓇᔓᐌᐎ	-9.13694
ᓂᔑᐌ	-9.1378
ᐐᓯᓂᐙᒡ	-9.13804
▁ᐃᑭᑐᐎᓐ	-9.13919
ᒪᐤ	-9.14374
▁ᑕᓂ	-9.1484
▁ᑭᒋᐊᓇᒥᐁᐎᑭᒫ	-9.14988
▁ᑫᑮᓇᐎᓐᑦ	-9.1511
▁ᐅᐙᑳᐃᑲᓂᓃᕽ	-9.1511
▁ᑭᑭᑫᑖᒻ	-9.1511
ᓇᒪᐙ	-9.15199
ᐸᑭᒌ	-9.15218
ᐅᒋᒋᓭᓂᒃ	-9.15224
ᐯᔑᑾ	-9.15283
ᒌᑫ	-9.15301
ᒦᓂᑯᐙ	-9.15359
ᑭᒨᑎ	-9.15414
ᓬᐋ	-9.15455
▁ᑳᓂ	-9.15638
ᑰᐎᓐ	-9.15648
▁ᑮᒫᒌ	-9.157
ᑕᒧᐙ	-9.15797
ᒫᐙᓐ	-9.15832
▁ᓂᓯᓐ	-9.16165
▁ᐃᓀᓂᒫ	-9.16175
ᒨᒃ	-9.16418
ᒋᑫᔦᒃ	-9.16862
▁ᑳᐃᓈ	-9.17151
▁ᐱᒥ	-9.17163
ᒥᑣ	-9.17437
▁ᑑᑕ	-9.17521
ᒦᓂᓐᒡ	-9.17558
▁ᒋᑭᒋ	-9.17559
ᐊᔮᔭᓐ	-9.17713
ᓂᐙᓐ	-9.17737
ᓈᑯᓂᑫ	-9.17852
▁ᑭᑭᒋ	-9.17915
ᕒᐄ	-9.18391
0	-9.18395
ᒫᓇᒑᓂᔑ	-9.18416
▁ᐊᐱᓅᒌᔕᓐ	-9.18416
,000	-9.18417
ᑫᒋᓈᐅ	-9.18427
ᑴᑳᑎᓯ	-9.18433
▁ᐃᓀᑖᑾᒃ	-9.18459
▁ᑲᕒᐄ	-9.18475
▁ᐲᑎᒃ	-9.18493
▁ᐐᑕᒪᐎ	-9.18552
ᑕᓐ᙮	-9.18608
▁ᑲᓅᓈᒡ	-9.18634
ᓂᒪᒃ	-9.18655
▁ᓂᑮᐃᒃ	-9.18687
▁ᐅᓇᔓᐌᐎᓂᓂ	-9.18744
ᓂᓯᒥᓐᒡ	-9.19143
ᑯᓰᐙ	-9.19773
ᐊᕽ	-9.19895
▁ᑳᑎᐯᓂᒥ	-9.2017
ᑌᓂᑭᓐ	-9.20283
ᐊᓇᒥᐁᑕᐙ	-9.20463
ᐃᓈᑯᓂᑫ	-9.20987
▁ᑳᐃᔑᒋᑫᐙᒡ	-9.21233
▁ᒥᓉᑕ	-9.21243
ᑌᑭᓐ	-9.21298
ᐙᐸᒥᑯᒡ	-9.21371
▁ᓀ	-9.21412
ᑲᓇᐌᓂᒥ	-9.21465
ᓂᓀᒃ	-9.21577
ᐋᓐ	-9.21606
ᑲᓇᐙᐸᒫ	-9.2169
▁ᐁᐸᕒᐊᐋᒪᓐ	-9.21835
▁ᐁᑮᐃᑭᑐᐙᒡ	-9.21835
▁ᐃᓬᐋᐃᒐ	-9.21835
▁ᐊᒑᒃ	-9.21835
▁ᒨᓯᓲᓐ	-9.21835
▁ᒣᑴᔭᐄ	-9.21835
▁ᒫᒪᑳᒋᒋᑫᐎᓇᓐ	-9.21836
ᓯᓅᓂᓂᒻ	-9.21837
▁ᐁᒐᓬᐊᐞ	-9.21838
ᑎᐹᒋᒫ	-9.21839
ᑲᑮᑖᐎ	-9.21839
▁ᐅᔥᑭᓃᑭᑴ	-9.2184
▁ᐃᔑᓂᔕᐙᑲᓇᒃ	-9.21842
ᓂᐳᐙᒡ	-9.21978
ᒪᑭᒡ	-9.22093
▁ᑕᑯᔑᕽ	-9.22098
ᒥᓂᒀ	-9.22355
ᓂᓵᐙᒡ	-9.22492
ᓂᑲᒧ	-9.22508
ᐅᑯᓯᓯᒥ	-9.22692
▁ᑳᒥᓄ	-9.22699
▁ᑕᑭᒋ	-9.22795
▁ᑳᐅᒌᒡ	-9.22856
▁ᓂᑮᐅᒋ	-9.22988
ᔕᓐ	-9.23105
▁ᐊᔮᒡ	-9.23284
▁ᒋᑮᐌ	-9.23401
ᔑᓄᐙᒡ	-9.23539
ᑐᓀ	-9.23547
ᑮᐗᓂᒧ	-9.23855
▁ᑮᐃᔑᒋᑫ	-9.23876
▁ᐅᐐᒋ	-9.23942
▁ᑳᐱᒫᑎᓯᐙᒡ	-9.23968
▁ᐃᔑᐱᒫᑎᓯ	-9.24165
▁ᒋᐱᒫᒋ	-9.24836
ᔑᓈᑾᓂᓂᒃ	-9.24937
▁ᒫᒪᑳ	-9.25054
ᒥᓇᑰᒃ	-9.25152
▁ᐁᑎᐱᑲᓂᓂᒃ	-9.25375
▁ᐅᑎᓀᑕᒧᐎᓐ	-9.25375
ᓲᑭᑌᐁ	-9.25375
ᓶ	-9.25375
▁ᐙᑳᐃᑲᓐ	-9.25375
▁ᐅᕒᐆᒥᕽ	-9.25376
▁ᐃᔅᕒᐃᔭᓬᐊᐞ	-9.25376
ᐙᐹᐱᑯ	-9.25377
▁ᐃᑭᑑᒪᑲᓐ	-9.25377
▁ᐃᔑᓂᔕᐙᑲᓇᐞ	-9.25389
▁ᒪᔥᑲᐎᓰᐎᓐ	-9.25398
▁ᑳᓵᑭᐃᓇᑰᒃ	-9.25403
ᐃᓀᓂᑎᓱ	-9.25451
ᐊᓉᐱ	-9.25461
ᑲᔥᑭᑕᒫᓱ	-9.25461
▁ᑮᐃᑭᑐᐗᐞ᙮	-9.25506
ᒋᑳᑌᑭᓐ	-9.25607
ᐅᑭᒫᑲᑕ	-9.25613
▁ᑎᐹᑯᓂ	-9.25663
▁ᐐᒌᐙ	-9.25784
▁ᑮᐃᓈ	-9.2597
ᑭᑭᔥᑲᐙ	-9.26042
▁ᑳᐃᔑᒋᑫᒡ	-9.26077
▁ᔖᑯᐌ	-9.26354
▁ᓵᑭᒋ	-9.26383
▁ᑭᑕᔮ	-9.26744
ᐃᑰᔦᒃ	-9.26795
ᑲᑴᒋᒥᑯᒡ	-9.26826
ᒪᐎᓐᒡ	-9.27291
ᐐᒌᐙᐙᒡ	-9.27551
▁ᒋᐊᐎ	-9.2809
▁ᐅᑮᐊᓂ	-9.28391
▁ᐁᔖ	-9.28398
ᐱᒥᓂᔕ	-9.28462
ᑕᔅ	-9.28483
ᐸᓯᑸ	-9.28501
ᒫᐗᒋᐃᑎᓂᒡ	-9.28997
ᑎᐸᐃᑫ	-9.29045
▁ᐅᑑᑭᒫᒪᓐ	-9.29045
▁ᓂᑯᓯᔅ	-9.29046
▁12	-9.29047
ᐋᔩᒋ	-9.29054
ᓈᑾᑭᓐ	-9.29059
▁ᐋᐱᑕ	-9.29072
▁ᑎᐹᒋᒧᐎᓐ	-9.29083
▁ᐃᔑᓂᔕᐙ	-9.29116
ᑌᐺᔦᑕᒧ	-9.29127
▁ᓂᑯᒋ	-9.29153
▁ᐁᐊᓉ	-9.29159
▁ᑭᑫᓂᒫ	-9.29165
ᑰᔭᕽ	-9.29189
ᔒᑫ	-9.29259
▁ᐁᓈᓴᒦᓂᒡ	-9.29363
ᒦᔑᒡ	-9.29757
▁ᑳᑮᐃᑭᑐ	-9.29761
ᑲᓇᐌᓂᒫ	-9.30083
▁ᐁᒥᒋ	-9.30098
▁ᐐᑕᒪᐙ	-9.30338
ᐙᑳᐃᑲᓂ	-9.30381
ᓰᒥᓐ᙮	-9.30527
▁ᐊᐎ	-9.30605
ᑮᔑᑲ	-9.30699
▁ᑮᐊᔮᐗᒃ	-9.31056
ᑎᐯᑕᕽ	-9.3112
ᐐᒋᑭᐌ	-9.31272
ᓃᐸ	-9.31672
▁ᐃᐌᓂ	-9.31678
ᑮᐌᐱᒫᑎᓯᐋ	-9.31859
▁ᑳᐊᔮᔦᒃ	-9.31874
▁ᑳᐃᓇ	-9.31891
ᑎᐹᑯᓂ	-9.32777
▁ᑫᓃᓇᐎᓐᑦ	-9.32855
▁ᒌᒫᓂᕽ	-9.32855
▁ᓂᑭᑫᓂᒫ	-9.32855
▁ᐅᑕᓄᑮᐋᑲᓇᓐ	-9.32855
ᒋᐱᒫᑎᓰ	-9.32856
ᑭᒋᓂᑭᕽ	-9.32865
ᓯᓄᑭᓐ	-9.32873
▁ᑳᐃᓇᑌᓂᒃ	-9.32885
▁ᐊᔮᒀᒥᓯᒃ	-9.32907
ᓂᓯᓐᒡ	-9.33035
▁ᐁᐊᔮᒡ	-9.33105
▁ᐃᑭᑐᐎᓇᓐ	-9.33288
ᑯᓈᓂᒃ	-9.33341
ᐅᓇᐱ	-9.33462
▁ᐁᔑᓈᑯᓯᒡ	-9.33506
ᕒᐋ	-9.33718
ᑭᑌᓂᒥ	-9.33952
▁ᑭᑌᐺ	-9.341
ᓂᐙᕽ	-9.34104
▁ᑮᓯᔅ	-9.3434
▁ᑫᑕᔑ	-9.34491
ᐊᓯᓃ	-9.34616
ᑯᓯᒃ	-9.34652
ᐱᒫᒋᐃᑰᐎ	-9.34761
ᑭᑫᑕᒧᐙᒡ	-9.34834
▁ᐅᑮᑲᑴ	-9.34937
ᐐᑾ	-9.35147
▁ᒪᒋᐊᔭᐋᓐ	-9.35198
▁ᑳᓇᑲ	-9.35345
▁ᒋᑭᑭ	-9.35503
▁ᐅᑮᒫᒌ	-9.35587
▁ᑳᑲᑴ	-9.35604
ᔭᐸᓐ	-9.35612
ᐙᐸᓂᓂᒃ	-9.35631
ᒦᓂᓇᕽ	-9.36208
ᐐᒌᐎᑯᐙ	-9.36448
▁ᑭᑎᔑᒋᑫ	-9.36501
ᔣ	-9.36754
▁ᐃᔅᕒᐃᔭᓬ	-9.36813
▁ᐁᑮᐃᑭᑐᓂᒡ	-9.36816
▁ᐄᒋᐸᑮᕽ	-9.36816
▁ᐌᔩᑉ	-9.36816
▁ᐱᓬᐊᑉ	-9.36816
ᐅᓇᔓᐙ	-9.36817
▁ᐁᔑᓂᑳᓱᓂᒡ	-9.36817
▁ᐅᑌᐺᑕᒧᐎᓂ	-9.36817
▁ᐌᓂᔑᔑ	-9.36819
▁ᐅᐙᑳᐃᑲᓂᕽ	-9.3682
▁ᑳᐹᑏᓄᓂᒡ	-9.36826
ᓬᐄ	-9.36831
▁ᓭᑕᓐ	-9.36841
ᑎᓯᐙᒡ	-9.36894
ᐸᑭᑎᓇᒪᐙ	-9.36903
▁ᐴᓯ	-9.36979
▁ᓃᐸᐎ	-9.37175
ᒣᑭᐸᓐ	-9.37183
▁ᐁᑮᑭᒋ	-9.373
▁ᐃᓀᑕᒧ	-9.37331
ᐃᔑᐲᐃᑫ	-9.37492
▁ᐁᓈᓴᒦᒡ	-9.37918
▁ᑭᑮᐱ	-9.38213
▁ᐅᐱᒫᑎᓯᐎᓂ	-9.38223
ᐱᓯᑕᐙ	-9.38384
ᒥᑰᐞ	-9.38706
ᒥᓉᑕᒻ	-9.39006
▁ᑳᓬᐊᓬᐄᐎ	-9.3931
ᒦᑴᒋᐌᓂᒫ	-9.3931
▁ᑫᐃᑭᑐ	-9.39434
▁ᐁᐅᒌ	-9.39511
ᓯᑭᐸᓐ	-9.39599
ᒪᐎᓀᒃ	-9.39759
▁ᐊᐯ	-9.39945
▁ᔑᒫᑲᓂᔒᐎᑭᒫ	-9.39985
ᓂᓂᐗᓐ	-9.40153
ᐅᓃᒑᓂᓯ	-9.40224
▁ᒋᐐᒋᐃ	-9.40308
▁ᐅᑎᓈ	-9.40452
ᐋᐸᒋᑑᒡ	-9.40488
▁ᑳᓵᑭᐃ	-9.40692
▁ᐁᓂᑯ	-9.40747
ᔛ	-9.4094
▁ᐋᐃᓭᔭ	-9.4094
▁ᐹᕒᓇᐸᔅ	-9.4094
▁ᓇᐃᓂᑏᐎᑲᒥᑯᕽ	-9.4094
ᐹᑏᓇᑎ	-9.4094
▁ᒋᐱᒫᒋᐃᐌᓂᒡ	-9.40941
▁ᐃᔑᓈᑾᓐ	-9.40942
▁ᓰᑲᐊᑖᑫᐎᓂᓂ	-9.40942
▁ᑎᒪᑎ	-9.40943
▁ᓂᑯᑎᕽ	-9.40947
▁ᐅᒪᔥᑲᐎᓰᐎᓐ	-9.40947
▁ᐅᑎᐹᒋᒧᐎᓐ	-9.40948
ᐗᔥᑴ	-9.40954
ᐊᑖᐙᑫ	-9.40956
▁ᑎᐹᑯᓂᑫᐎ	-9.40965
▁ᒥᑖᔑᓃᔑᓐ	-9.40973
ᑌᐺᔦᑖᑯᓯ	-9.4098
ᓯᓅᓇᓐ	-9.40987
▁ᑳᑮᐊᔮᓂᒡ	-9.4114
ᓯᔮᓐ	-9.41155
▁ᑭᒋᐊᓇᒥᐁᐎᑭᒫᐞ	-9.41181
▁ᐁᐐᒌᐎ	-9.41185
▁ᑫᑑᑕ	-9.41405
▁ᐃᔑᒋᑫᒡ	-9.41422
ᐅᑌᑌᒫ	-9.41458
▁ᐐᓀᑕ	-9.41705
ᒥᓄᑑᑖ	-9.41706
ᑕᒫᑯᐙ	-9.41985
ᑌᐁ	-9.42139
ᐗᑫ	-9.42236
ᐄ	-9.42251
ᑯᔥᑯ	-9.42266
▁ᐃᔥᑯᑌᕽ	-9.42326
ᑲᔥᑭᑑᔦᒃ	-9.4269
ᕒᐃᔭ	-9.42719
▁ᒋᑎᐯ	-9.42763
ᐐᑕᒪᐙᐞ	-9.43075
▁ᐙᑳ	-9.43194
▁ᑭᒋᐅᑭᒫᓐ	-9.43327
▁ᑲᑴᑗ	-9.43625
ᐃᔑᓈᑾᒃ	-9.43892
▁ᑮᐲᑎᑫ	-9.44061
▁ᑭᑭᓄᐊᒪ	-9.44085
▁ᑮᑎᓄᐎ	-9.44275
ᑯᓵ	-9.44417
▁ᑭᑭᓇᐙ	-9.44703
▁ᐁᐱᒥ	-9.44762
▁ᑳᑎᐯᑕ	-9.44785
▁ᑭᑫᑕ	-9.44884
▁ᐆᑌᓈ	-9.44939
ᒪᓯᓇᐃᑲᓐ	-9.45097
ᐊᔓᑕᒪᐙ	-9.45138
ᑖᑯᓯᓰ	-9.4516
ᐊᔓᑕᒫᑎ	-9.45232
ᑖᑯᔅ	-9.45236
▁ᐅᐱᒫᑎᓰ	-9.45241
ᐊᑯᓴᑲᐅ	-9.45242
▁ᐅᑌᒐᓬᐃᒪ	-9.45242
▁ᑭᑌᐃᐙᕽ	-9.45242
▁ᓵᑲᐃᑲᓃᕽ	-9.45242
ᑲᒥᑲᓂᓂᒃ	-9.45242
▁ᐅᐐᔭᐤ	-9.45242
▁ᓃᒥᑕᓇ	-9.45242
▁ᒌᒥᔅ	-9.45242
▁ᑭᑎᓂᓂᓂᒻ	-9.45244
ᓃᑳᓀᑖᑯᓯᓂᒡ	-9.45246
ᒪᑲᓯᓅᓐ	-9.45247
▁ᒧᔐ	-9.45252
▁ᑭᐴᔔᐃᑯᐙ	-9.45254
ᐙᓴᑯᓀ	-9.45266
▁ᑌᐱᑎᕽ	-9.45277
ᐊᐯᓂᒧᓄᑕ	-9.4531
▁ᐱᓵᓂᓯᐎᓐ	-9.45317
▁ᑭᑎᑫᐎᓂᓂ	-9.45343
ᐐᑕᒪᐎᓂᓂᒻ	-9.45398
ᐲᑎᑲᓂ	-9.45401
▁ᑭᑭᑫᑖᒥᓐ	-9.45423
▁ᐅᑮᐃᔑᓂᔕᐙ	-9.45431
▁ᐋᓬᐃ	-9.45437
ᐃᓀᑕᒣᒃ	-9.45472
▁ᐅᑮᓇᑴᑕᐙᐞ	-9.4548
▁ᐌᐱᓂ	-9.45513
▁ᐁᓀᑖᑯᓯ	-9.4558
ᐐᒌᐌᒃ	-9.45635
ᐗᐙᓀᑕ	-9.45677
▁1	-9.45702
▁ᓂᑭᑫᑖᓐ	-9.45787
▁ᓈᓇᓐ	-9.45848
▁ᑳᐃᑭᑐᐙᒡ	-9.45873
ᐅᓂᔑᔑᓂᓂ	-9.45994
▁ᓃᔮ	-9.46068
▁ᐃᔖᒡ	-9.46106
ᓯᐙᕽ	-9.46191
▁ᐃᓂᓃᐎ	-9.46332
ᑲᑴᑗ	-9.46944
▁ᑳᓅᑕᕽ	-9.46962
ᓇᒥᐁᐎᑲᒥ	-9.47093
▁ᑮᓂᐳ	-9.473
ᓇᓈᑕ	-9.47468
▁ᒋᑎᐯᓂᒥᑯ	-9.47722
▁ᑳᑮᐅᔑ	-9.47756
ᑌᐱᓇᒧ	-9.47806
▁ᐱᒫᒋᐃ	-9.47807
ᑌᐺᑕᒣᒃ	-9.47812
ᐅᑖᐱᓇᕽ	-9.47849
▁ᑳᑑᑕᕽ	-9.47893
ᐴᓀᑕᒪᐙ	-9.48007
ᐋᒋ	-9.48023
ᐃᓂᑣ	-9.48049
▁ᒪᓂᑑ	-9.48077
ᐅᓈᐸᒫ	-9.48172
ᑖᑯᓰ	-9.48306
▁ᒌᑫᑕ	-9.48434
ᐅᒌᒪᑲᒃ	-9.48663
ᑲᓇᒃ	-9.48824
▁ᓂᑲᐱ	-9.48826
▁ᒋᐃᑭᑐ	-9.48836
ᓂᔑᐗᓈᒋᐃ	-9.4887
ᐌᓂᐗᐞ	-9.48946
▁ᔕᐌᑖᑯᓯ	-9.49189
ᑾᐞ	-9.49561
▁ᒥᑖᔑ	-9.49707
ᑭᑎᒫᑭᓯ	-9.49724
▁ᐅᑯᓯᓴᐞ	-9.49737
▁ᐊᐱᓅᒌᔕᐞ	-9.49737
▁ᐊᒑᑾᓐ	-9.49737
▁ᐱᑾᑕᑲᒥᒃ	-9.49737
▁ᑭᒋᐊᓇᒥᐁᐎᑲᒥᒃ	-9.49737
ᑫᑌᔭᐋᒥ	-9.49737
ᒪᔥᑲᐌᑖᑯᓯ	-9.49737
▁ᐅᑎᐯᒋᑫᐎᓂᓂ	-9.49738
ᑕᑶᔑᕽ	-9.49738
▁ᔔᓂᔮᓴᐞ	-9.49738
ᓰᑲᐊᑖᑫ	-9.4974
ᑎᐹᑯᓈ	-9.49741
ᐅᑭᔐᒪᓂᑑᒥ	-9.49743
ᐊᓇᒥᑑ	-9.49751
▁ᒦᑲᓈᕽ	-9.49757
ᑮᐊᓅᑮ	-9.4976
▁ᐗᓂᔥᑳ	-9.49786
▁ᑳᑎᐯᓂᒥᑯᐙᒡ	-9.49809
▁ᑳᑕᓱ	-9.49819
▁ᑳᐃᓂᓇᑰᒃ	-9.4984
ᒪᑲᓅᓐ	-9.49856
▁ᐃᓀᑖᑾᓂᓂ	-9.49896
▁ᑮᐅᒌ	-9.49896
▁ᑳᐃᒋᑳᑌᒃ	-9.49906
ᔭᒥᑣ	-9.49912
▁ᐯᐯᔑ	-9.50025
ᑭᑫᑕᓰᓐ	-9.5012
ᑲᓇᐌᑕᕽ	-9.50171
▁ᑮᐃᓀᑕᒻ	-9.50171
ᒪᑲᓂᓂᑭᓐ	-9.50398
ᐙᐸᑕᐃᐌ	-9.50428
▁ᑕᒦᓈ	-9.50577
▁ᐸᑴᔑᑲᓂ	-9.50657
▁ᓈᑫ	-9.51046
ᓇᒪᑕᐱ	-9.5129
ᔥᑳᑯᐙᒡ	-9.51307
ᑭᒋᐊᓇᒥᐁᐎᑭᒫᐎ	-9.51376
▁ᒋᑎᐹᑯᓂ	-9.51434
ᒥᓯᐌ	-9.51711
▁ᑖᑭ	-9.51713
ᐱᒥᐊᔮ	-9.51733
ᒦᓂᒃ	-9.51923
ᐱᐊᑕ	-9.52175
▁ᑭᐱᒫᑎᓯᐎ	-9.52273
▁ᓵᑭᐃᑎ	-9.52539
▁ᐁᑌᐺᑕ	-9.52579
ᐊᓇᒥᐋᐙᒡ	-9.5282
ᑲᔥᑭᒋᑫ	-9.53115
▁ᐊᔮᐗᒃ	-9.53216
▁ᐁᓵᑭ	-9.53385
ᑖᑾᑭᓐ	-9.53394
ᑴᒋᒥ	-9.53623
ᔥᑳᑯᒡ	-9.53957
ᓂᒫᐙᒡ	-9.54
▁ᑭᐐᒋ	-9.54093
▁ᑮᒋᑭᐌ	-9.54257
▁ᐱᑾᒋᐊᔭᐋᐎᔕᓐ	-9.54443
▁ᑳᐐᒋᐅᑌᐺᑕᒨᒥᑰᔦᒃ	-9.54443
▁ᔑᒫᑲᓂᔕᐞ	-9.54443
▁ᓵᑭᐃᐌᐎᓐ	-9.54444
▁ᑭᒋᐊᐱᐎᓂᕽ	-9.54444
ᑲᒀᑕᑫ	-9.54445
ᑰᐹᑌᓂ	-9.54449
ᑎᐸᐊᒫᑰ	-9.54465
ᒪᒫᔒ	-9.54465
▁ᐊᓯᓃᓐ	-9.54488
▁ᐹᑏᓄᓂᒡ	-9.54518
▁ᒥᑎᒃ	-9.54583
ᐸᑯᐲ	-9.54593
▁ᐲᑑ	-9.54689
▁ᐲᐙᐱ	-9.54691
▁ᐅᒪᒋᑑᑕᒧᐎᓂᐙᓐ	-9.54731
▁ᓇᑴᑕᒻ	-9.55128
▁ᐆᑌᓇᐗᓐ	-9.55183
ᐴᓂᑑ	-9.55287
▁ᐊᓄᑮᐎᓐ	-9.55423
▁ᔑᒫᑲᓂᔒᐎᑭᒫᓐ	-9.55547
ᑫᐎᑭᒫ	-9.55699
ᑭᑌᑖᑯ	-9.55904
ᓇᒪᑕᐱᒡ	-9.56198
▁ᐅᑮᐃᑰᐞ	-9.56524
ᒪᒋᑑᑕᕽ	-9.56688
ᐊᑲᒋ	-9.56699
▁ᓂᑌᐺ	-9.56994
ᐱᒫᑎᓯᔭᕽ	-9.58011
ᐃᓇᑭᒥ	-9.58066
ᐃᑰᐎᓯ	-9.58506
ᐊᓄᑮᑕᐗ	-9.58538
▁ᐯᕒᐊᓰ	-9.5854
▁ᑮᒦᓈ	-9.5919
5	-9.59382
▁ᐅᓃᒑᓂᓴᐞ	-9.59382
▁ᐊᐱᓅᒌᔕᒃ	-9.59382
ᐅᒋᒌᑾᓃ	-9.59382
▁ᐅᐐᓱᐎᓂᓂ	-9.59382
▁ᑳᓃᑳᓂᓯᐙᒡ	-9.59382
▁ᓃᑳᓇᔭᐄ	-9.59382
▁ᐆᑌᓇᐌᓯᕽ	-9.59383
▁ᐅᑎᓈᑯᓂᑫᐎᓐ	-9.59383
▁ᑭᑌᐺᑕᒧᐎᓂᐙ	-9.59383
▁ᑭᑭᑫᓂᒫ	-9.59384
▁ᐅᓵᐙᐱᑯ	-9.59385
▁ᓈᓈᑫ	-9.59388
▁ᑌᐺᔦᑕᒧᐎᓐ	-9.59394
▁ᒌᒫᓐ	-9.59398
▁ᐊᑮᐎ	-9.59406
▁ᐃᓀᑖᑾᓐ	-9.59415
▁ᑕᑯᔑᓅ	-9.59419
ᓈᑯᑑᒡ	-9.59419
▁ᒫᒥᑲᐎᒃ	-9.59428
ᐅᔑᐲᐊᒪᐎᓇᑰᒃ	-9.59429
▁ᐅᓇᔓᐌᐎᓂᕽ	-9.59441
▁ᒋᐊᑕ	-9.59441
ᓇᓇᐊ	-9.59496
▁ᒋᐙᐸᒥ	-9.59547
ᐱᒥᓂᔕᐅᑯᒡ	-9.59579
ᑌᐺᑕᒧᐎᓐ	-9.59604
▁ᐁᑭᑭᔥᑲ	-9.59637
ᔥᑭᓃᑭ	-9.59647
▁ᐗᑭᒋ	-9.59712
ᓈᑾᓂᓂᑭᓐ	-9.59745
▁ᐸᔦ	-9.59747
▁ᑮᐃᑭᑐᐗᓐ	-9.59769
▁ᑳᐃᑭᑐᓂᒡ	-9.59979
ᓰᑭᓇ	-9.60006
▁ᑮᐸᓯᑸ	-9.60107
▁ᐃᔑᓭᓂᒃ	-9.60196
▁ᑳᐃᔑᓂᑳᑌᒃ	-9.60242
ᔕᐌᓂᒫᒡ	-9.6026
▁ᒋᑭᑫᑕᒣᒃ	-9.60261
ᔭᑭᐸᓐ	-9.60281
ᓇᐁᑕ	-9.60291
▁ᐋᓇᑮ	-9.60437
ᓂᔥᑳ	-9.60889
ᓇᒪᑕᐱᓂᒡ	-9.60938
ᐊᓇᒥᐁᐎ	-9.61044
▁ᐁᐐᐅᒋ	-9.61069
ᔑᔮᕽ	-9.61092
ᐅᔑᒋᑳᑌᒃ	-9.6142
▁ᐴᔔ	-9.61585
▁ᑭᒋᐊᓇᒥᐁᐎᑭᒫᓐ	-9.61636
ᐃᓇᕽ	-9.6179
▁ᐅᑮᐃᓈᐙᓐ	-9.61813
▁ᒦᐗᑭ	-9.62712
ᓂᑖᐎᑭᒡ	-9.62773
▁ᓀᐱ	-9.62973
ᑭᒋᐊᓄᑮ	-9.6316
▁ᐅᑮᐃᓈ	-9.63354
▁ᑲᒀᑕᑭ	-9.63747
▁ᐲᓈ	-9.63979
ᒋᑲᓂᐎᓂᒡ	-9.6425
ᓂᓃᐎ	-9.6443
ᑖᑯᓯᔦᒃ	-9.64468
ᐱᒫᑎᔅ	-9.64577
▁ᐊᐱᓅᒌᔥ	-9.64578
▁ᐹᐃᓬᐊᑑᓐ	-9.64578
▁ᑳᐅᔫᓯᒥᓐᒡ	-9.64578
▁ᒉᑲᑉ	-9.64578
▁ᒌᒥᓴᓐ	-9.64578
▁ᐁᑎᔮᒃ	-9.64578
ᒫᐗᑑᓈ	-9.64579
▁ᑳᐃᔑᓂᑳᓱᒡ	-9.64579
ᐃᔥᐯᑖᑯᓯ	-9.6458
▁ᒥᑖᓱ	-9.64581
ᐲᑎᑲᓈ	-9.64584
▁ᐁᑮᐃᓈᐙᒡ	-9.64586
ᓂᑯᑣᒃ	-9.64587
▁ᓈᓴᕒᐃᑎᕽ	-9.64588
ᐊᑐᒫᒡ	-9.64598
ᐐᓴᑫᑕ	-9.64601
ᓂᑭᓃᕽ	-9.64607
ᓂᓯᑕᐎᓇ	-9.64611
▁ᐅᑑᓇᔓᐌᐎᓂᓂ	-9.64614
▁ᐁᑕᓱᐯᔑᑯ	-9.64666
▁ᑳᑮᐃᑭᑐᒡ	-9.64668
▁ᓃᔓ	-9.64815
ᔒᑫᓂᒫ	-9.64822
ᓃᑳᓀᑖᑯ	-9.65045
▁ᑴᑭ	-9.65075
▁ᒋᐃᓈ	-9.65119
ᑲᓅᑕᒪᐙᐙᒡ	-9.65189
ᐐᑕᒫᑰᔦᒃ	-9.65206
ᐸᑭᑎᓇᕽ	-9.65257
ᑲᓅᑕᒪᐙ	-9.65266
▁ᐃᔑᓈᑯᓯ	-9.65559
ᑎᐸᐊᒪ	-9.65625
ᓅᑕᒥᓂᒡ	-9.66086
▁ᐁᐐᐃᔑᒋᑫ	-9.66185
ᑕᒫᑫᒡ	-9.66517
▁ᐅᑖᐎᓂᕽ	-9.66817
▁ᒋᓂᐳ	-9.66893
ᐊᓇᒥᐋᔦᒃ	-9.66919
ᑲᒀᑕᑭᐋ	-9.67006
ᒋᐃᑯᒡ	-9.67009
ᓇᑭᒡ	-9.67423
ᐙᐸᒫᐙ	-9.6793
▁ᐁᑲᓇᐙᐸ	-9.68061
ᐸᑭᑎᓇᒫ	-9.68604
ᐊᑕᐙᐸᒥ	-9.68764
ᑕᑾᑭ	-9.68841
ᓈᑲᑕᐌᑕ	-9.69163
ᑖᑾᓂᓂᑭᓐ	-9.69304
ᐐᐊᓂ	-9.69668
▁ᑳᒎᐎᐎ	-9.69767
▁ᐱᒫᑎᓰ	-9.69836
ᐊᐯᓂᒧ	-9.69962
ᐃᔑᒋᑫᔮᓐ	-9.70005
ᑭᑫᑕᒣᒃ	-9.70008
▁ᑭᓇᑕᐌᓂᒥ	-9.70025
▁ᒎᑏᔮ	-9.70058
–	-9.70058
▁ᐁᐃᑭᑐᐙᒡ	-9.70058
▁ᐅᑎᐹᒋᒧᐎᓂᓃᒪᐞ	-9.70058
▁ᐅᑎᐹᒋᒧᐎᓂᓃᒪᓐ	-9.70058
▁ᐅᓈᐯᒪᓐ	-9.70058
▁ᐅᔑᐲᐃᑲᓐ	-9.70058
▁ᑭᐸᐅᑏᐎᑲᒥᑯᕽ	-9.70058
▁ᓭᓴᕒᐄᔭ	-9.70058
ᑲᑮᓇᐎᔥᑭ	-9.70059
▁ᐁᔑᐲᐃᑳᑌᒃ	-9.70059
▁ᑳᐃᔑᐲᐃᑳᑌᒃ	-9.70059
▁ᑳᓃᑳᓂᓯᓂᒡ	-9.70059
▁ᒥᑕᑲᒥᒃ	-9.70059
▁ᐁᔑᓂᑳᓱᒡ	-9.70059
ᐲᒋᓂᔕᐙ	-9.7006
ᒥᑕᑎᒻ	-9.7006
ᓇᓈᑯᒧ	-9.70061
▁ᐐᔭᐎᓂ	-9.70061
▁ᓇᔥᑫ	-9.70068
00	-9.70075
▁ᑭᑎᑳᓇᓐ	-9.70075
ᐊᓇᒥᐁᑕᒪᐎ	-9.70076
ᓯᐙᓈᓐ	-9.70093
▁ᐁᑕᓱᑮᔑᒃ	-9.701
ᐗᓃᑫ	-9.70112
▁ᑳᑮᐅᓈᐸᒫᒡ	-9.70114
▁ᑳᐊᔮᑭᓐ	-9.70115
▁ᑳᑎᐯᓂᒫᒡ	-9.70131
ᐗᓀᓐ	-9.70139
ᐋᐸᑎᓯ	-9.70144
ᐐᒋᐋᒡ	-9.70154
▁ᓂᐴᔔᐋ	-9.70178
ᔥᑳᒃ	-9.70209
ᐱᒥᐎᑑ	-9.70237
▁ᒥᑎᑯ	-9.70255
▁ᐁᐃᔑᓭᓂᒃ	-9.70328
▁ᑌᐺᒪᑲᓐ	-9.70368
ᓅᑖᑯᒡ	-9.70407
▁ᑭᑫᓂᒥ	-9.70453
ᑲᓅᓂᑯᒡ	-9.70473
ᒥᓄᑑᑕ	-9.70553
ᑮᔖᒋ	-9.70599
ᐋᐸᑕᓂᓂ	-9.70781
ᐃᓀᑕᒻ	-9.70837
▁ᑑᑕᐎ	-9.70914
▁ᐁᐊᐞ	-9.70969
▁ᓂᔑᐗᓈᒋ	-9.70974
ᐅᓃᒑᓂᓯᒥ	-9.71025
ᐗᔭᐄ	-9.71037
▁ᒋᑲᔥᑭ	-9.71335
ᒦᒋᒡ	-9.71553
ᑑᓈᐙᓐ	-9.71715
ᒌᑫᑕᒧ	-9.71863
ᐐᑕᒫᑫᔮᓐ	-9.71867
▁ᑳᓬᐊᓬᐄ	-9.72023
▁ᐊᔮᐎᓂᕽ	-9.72083
▁ᐁᐙᐸ	-9.72112
ᑕᒫᑯᓈᓐ	-9.7246
ᐃᔖᔮᓐ	-9.72463
ᑌᐱᓭ	-9.72582
ᐲᑎᑫᐙᒡ	-9.72957
▁ᐅᓈᐯᒥ	-9.7307
ᒥᓍᐸᒥᑯ	-9.73482
▁ᑖᐃ	-9.73979
ᑭᐱᒌ	-9.74366
ᓂᑖᐎᑭᑑ	-9.74573
▁ᑮᐱᑕᑯᔑ	-9.74992
ᓈᑲᒋᑑ	-9.75381
ᑑᑖᑯ	-9.75443
ᐺ	-9.75453
▁ᐅᑮᓇᑴᑕᐙᓐ	-9.75857
▁ᐅᒑᓂᒥᓯᒻ	-9.75857
▁ᐌᔫᓯᒥᒥᓐᒡ	-9.75857
▁ᐱᑾᒋᐊᔭᐋᐎᔥ	-9.75857
▁ᒪᓯᓇᐃᑲᓂᕽ	-9.75857
▁ᓂᑎᑭᑐᐎᓇᓐ	-9.75857
▁ᑭᐐᔭᐎᐙ	-9.75857
▁ᒣᕒᐄᓐ	-9.75857
▁ᐲᒋᓂᔕᐅ	-9.75859
ᐱᒥᔑᓂᓂᒡ	-9.7586
▁ᑮᓃᐸᐎ	-9.7586
▁ᒪᔥᑯᓰ	-9.75862
▁ᒥᓂᓯᕽ	-9.75863
ᓇᑰᑭᐸᓐ	-9.75864
▁ᐐᒋᑭᐌᔭᓐ	-9.75869
▁ᑎᐸᐃᑲᓐ	-9.75873
▁ᐌᒌᓂᒡ	-9.75876
ᒋᒥᒥᓐᒡ	-9.75876
ᑲᓅᒋᑫᑕᒪᐙ	-9.75882
ᓯᐎᑣ	-9.75891
▁ᒉᕒᐆᓴᓬᐊᒻ	-9.75904
▁ᐸᓯᑸᓐ	-9.75906
ᑰᐹᓯᓈ	-9.7591
▁ᐱᓯᑕᒧᒃ	-9.75912
ᐸᓂᐅ	-9.75969
ᐲᐊᒫ	-9.76003
▁ᑳᐱᒫᑎᓯᒡ	-9.76053
▁ᐁᐃᓈᒡ	-9.76092
ᐃᓀᑕᒥᓂᒡ	-9.76141
ᕒᐁ	-9.76164
▁ᒥᒋᓃ	-9.76167
▁ᒋᐃᔑᓭᓂᒃ	-9.76176
ᐙᐸᑕᐋ	-9.76181
ᑯᑖᒋ	-9.7624
ᑕᒫᑯ	-9.76341
▁ᑎᐸᐊᒪᐎ	-9.76468
ᑎᐱᓭ	-9.76479
ᐊᔭᔮ	-9.76489
ᐙᐸᑕᒪᕽ	-9.76525
▁ᐁᐐᐃᔑ	-9.76601
ᓈᑲᒋᐃ	-9.76771
▁ᒋᐃᔑᓭ	-9.76857
▁ᒋᓇᐃᑕ	-9.7689
ᒫᓀᑕᒧ	-9.76914
ᐅᑖᐱᓇᒪᐙ	-9.77083
ᒪᔥᑲᐙ	-9.77304
ᐙᐸᒪᒃ	-9.77432
ᓀᑕᒨᒃ	-9.775
ᐅᔥᑭ	-9.77502
▁ᑫᐃᔑᒋᑫᔮᓐ	-9.77571
ᑌᓂᒫ	-9.7765
▁ᑭᑭᓄᐃᑫ	-9.77925
▁ᐃᑕᐙ	-9.78054
ᐙᐸᒋᑳᑌ	-9.78063
ᒋᑳᑌᐗᓐ	-9.78084
▁ᑳᑭᑫ	-9.78478
ᒋᑳᑌᓂᑭᓐ	-9.78794
ᓬᐆ	-9.78969
ᐸᑳᓂ	-9.79118
ᓂᐳᓰ	-9.79216
ᐸᑭᑎᓂᑰ	-9.79737
ᐊᑌᓂᒃ	-9.79755
ᑭᑌᓂᒫ	-9.7979
ᓂᓯᑐᑖ	-9.81137
ᐅᔑᐋ	-9.81248
▁ᒋᐃᔑᐱᒫᑎᓯ	-9.81482
▁ᐊᑕᐌᓂ	-9.81612
8	-9.82012
ᐊᑯᓴᑲᐙ	-9.82012
ᐸᐸᔕᔐᐅ	-9.82012
▁ᐁᐸᕒᐊᐋᒥ	-9.82012
▁ᐅᑮᐊᑐᒫᐞ	-9.82012
▁ᑭᑑᔑᐲᐊᒪᐎᓂᓂᒻ	-9.82012
▁ᑭᑭᑫᑕᓰᒻ	-9.82012
▁ᑭᒋᐆᑌᓇ	-9.82012
▁ᑸᐎᓭᓴ	-9.82012
▁ᒣᓬᑭᓯᑌ	-9.82012
ᐐᑕᓄᑮᒫ	-9.82012
▁ᒫᓯᑑᓂ	-9.82012
▁ᒦᐗᓄᓄ	-9.82012
▁ᐊᑳᒥᕽ	-9.82012
▁ᑳᑮᐅᒌᒡ	-9.82012
ᐸᑭᓈᑫ	-9.82014
▁ᒫᕒᑕ	-9.82015
▁ᒥᓂᒀᑲᓐ	-9.82015
▁ᑭᑭᓄᐊᒪᐙᑲᓐ	-9.82016
▁ᐃᔥᒀᑌᒻ	-9.82016
ᓈᑾᓯᓅᓐ	-9.82018
ᐊᑐᒥᓀᒃ	-9.82019
▁ᐁᕒᐊᑕᓐ	-9.82019
▁ᐅᑎᐯᒋᑫᐎᓂᕽ	-9.82022
▁ᐅᑮᐅᑖᐱᓈᓐ	-9.8204
▁ᑾᔭᒀᑎᓯᐎᓐ	-9.82072
ᐸᓃᓐ	-9.82086
▁ᑳᐅᓂᔑᔑᓂᓂᒃ	-9.82113
ᓈᑾᓯᓂᓂ	-9.8215
ᒥᓋ	-9.82152
ᒥᑖᒋ	-9.82183
ᑲᑮᒀ	-9.82202
▁ᑭᒋᑮᔑᒃ	-9.82338
▁ᐅᑑᓇᔓᐌᐎᓐ	-9.8244
▁ᐃᔑᓈᑾᓂᓂ	-9.8248
▁ᑖᐅᓂᔑᔑ	-9.82482
ᐱᒥᓂᔕᐊ	-9.82494
ᓂᓯᑣ	-9.82639
▁ᑭᑌᑌᐙ	-9.8272
▁ᓵᒥᓈ	-9.82753
▁ᔕᐌᑖᑯᓯᐗᒃ	-9.82774
▁ᓂᑲᐃᔑ	-9.82782
ᑲᔥᑭᑑᓰᓈᐙ	-9.83008
▁ᑳᑮᒦᓂ	-9.83145
ᐅᒌᐙᒡ	-9.83817
ᒥᑲᒧᐙ	-9.84053
ᒦᓂᑣ	-9.84485
ᑮᒥᑲ	-9.85567
ᑎᐹᑯᓂᐌ	-9.85697
ᐙᐸᒥᑯ	-9.86112
ᔥᑳᒪᑲ	-9.86567
ᓂᓯᑰ	-9.86589
▁ᑳᐙᐸ	-9.86599
ᑭᑫᑕᕽ	-9.87716
▁ᑭᑌᑌ	-9.87857
ᒫᒌᑑ	-9.88221
ᒶ	-9.88571
ᓅᑌᔅᑲᑌ	-9.88571
▁ᐅᑎᔑᓂᔕᐙᑲᓇᐞ	-9.88571
▁ᐱᓀᔒᔕᒃ	-9.88571
▁ᐱᓯᑕᐎᔑᒃ	-9.88571
▁ᑎᒫᔅᑲ	-9.88571
▁ᑭᒋᐅᔑᐲᐃᑫᐎᓐ	-9.88571
▁ᑸᐎᓭᔅ	-9.88571
▁ᒞᕒᑕ	-9.88571
▁ᒪᒋᐊᒑᑾᒃ	-9.88571
▁ᒪᒋᐊᒑᒃ	-9.88571
▁ᓭᑲᕒᐋᔭ	-9.88571
▁ᑭᑭᔥᑭᑲᓇᓐ	-9.88571
▁ᓂᑯᑣᓱ	-9.88571
▁ᑮᐙᒋᑴ	-9.88572
ᐸᑯᓭᓂᒫ	-9.88573
▁ᐅᑎᔑᒋᑫᐎᓐ	-9.88575
▁ᒋᐱᒫᒋᐃᐌᒡ	-9.88575
▁ᑫᑫᑦ	-9.88576
▁ᐅᑕᓇᒥᐋᐞ	-9.88578
▁ᒪᒋᑑᑕᒧᐎᓇᓐ	-9.88578
▁ᓬᐄᐹ	-9.88579
▁ᐐᓯᓃ	-9.88586
▁ᐊᓯᓃᐞ	-9.88586
▁ᓂᑮᓅᑕᐙ	-9.88595
ᒥᒋᓇᐌᓯ	-9.88596
ᒪᓂᔑᑫ	-9.88599
ᔑᐌᐸᓂᓂᒃ	-9.88601
ᑭᑫᓂᑎᓱ	-9.88608
ᐅᓈᑯᔑ	-9.88617
ᓯᓄᐎ	-9.88639
▁ᐅᒪᒋᑑᑕᒧᐎᓂ	-9.88657
ᒪᓈᒋ	-9.88689
▁ᑲᑴᒋᒫᒡ	-9.887
▁ᐁᐃᔑᓂᑳᑌᓂᒃ	-9.88721
ᒪᑲᑌ	-9.88729
▁ᑳᐃᔑᐊᔮᓂᒡ	-9.88743
ᐅᒌᒪᑲᓂᓂ	-9.88784
ᐅᑭᒫᐌᑖᑯᓯ	-9.88797
▁ᐯᕒᐊᓰᐞ	-9.88824
▁ᓂᑮᓅᑖ	-9.88827
ᐃᓀᑕᒫᓐ	-9.88848
▁ᒥᓯᐌᑲᒥᒃ	-9.88853
ᐅᓈᑯᓂ	-9.88942
▁ᑳᐃᑭᑐᔭᓐ	-9.88996
▁ᐱᓈᓯᑲᐙ	-9.89016
▁ᑮᐱᐅᒋ	-9.89033
▁ᑮᐲᔖᐗ	-9.8917
▁ᐅᒪᔥᑲᐎᓰᐎᓂ	-9.89311
▁ᐊᓇᒥᐋᒡ	-9.89324
ᐙᐸᑖᓈᐙ	-9.89367
ᑭᑫᑕᒥᓂ	-9.89401
ᐊᐲᑌᑖᑾ	-9.89485
ᐅᓇᑭᒥ	-9.90223
▁ᒋᐐᒌᐎ	-9.90808
ᐐᓈᑎᓯ	-9.91088
ᒫᒑᔮᓐ	-9.91497
ᐱᓈᓯᑳᑰᐞ	-9.91869
▁ᓂᓱᑮᔑ	-9.91974
ᑲᓅᔑ	-9.92403
ᐅᔑᐲᐃᑳᑌᓂ	-9.92557
ᐅᑭᑭᓄᐊᒪᐙᑲ	-9.9272
ᒨᒪᑲ	-9.93343
ᐙᓭᔮᒃ	-9.93531
ᐃᓈᓂᒡ	-9.93561
▁ᒋᐅᑖᐱᓇ	-9.93986
▁ᐙᐃᔑ	-9.94207
▁ᐅᑌᐺᑕᒨ	-9.94422
▁ᓂᓯᑐ	-9.94427
ᐋᓂᑫ	-9.94607
ᐅᓀᓂᒥ	-9.94839
ᐃᑭᑐᓰ	-9.94998
ᑕᒪᐎᓇᕽ	-9.95386
ᐴᔥᑫ	-9.95413
▁ᐊᔭᐋ	-9.95542
▁ᐅᕒᐆ	-9.95591
ᐅᑕᑳᓀᓯᒡ	-9.95591
ᑭᑭᓇᐙᑕᔕᑫᔣ	-9.95591
ᑾᔭᒀᑎᓰ	-9.95591
ᒫᔑᒥᑕᑎᒨ	-9.95591
ᔾ	-9.95591
▁ᐄᐸᕒᐆ	-9.95591
▁ᐅᑭᑭᔥᑭᑲᓇᓐ	-9.95591
▁ᐅᑾᔭᒀᑎᓰᒪᐞ	-9.95591
▁ᐅᓃᑭᐃᑰᐞ	-9.95591
▁ᐅᔕᐌᒋᑫᐎᓐ	-9.95591
▁ᐐᒋᑭᐌᔭᐞ	-9.95591
▁ᐱᓵᓀᑕᒧᐎᓐ	-9.95591
▁ᑫᐃᔥᒀᓭᓯᓄᒃ	-9.95591
▁ᐊᓄᑮᐋᑲᓇᓐ	-9.95591
▁ᔕᔒᐯᑕᒧ	-9.95591
▁ᓰᑲᐊᑖᓱ	-9.95591
▁ᐸᑭᑎᓈᓱᐎᓇᓐ	-9.95591
▁ᓃᑕᓇᒥᐋᒃ	-9.95592
▁ᑌᐺᑕᒧᐎᓂᕽ	-9.95592
▁ᐐᔭᐤ	-9.95592
▁ᑮᐃᓀᑕᒨᒃ	-9.95593
▁ᑳᒦᓂᓀᒃ	-9.95594
▁ᓰᐲᕽ	-9.95594
▁ᓈᓯᑳᑯ	-9.95595
▁ᓭᑭᓯᑫᒃ	-9.95597
▁ᐊᔓᑕᒫᑫᒡ	-9.95599
▁ᑳᐅᑯᓯᓯ	-9.95603
▁ᑭᐱᒫᑎᓯᐎᓂᐙᕽ	-9.95606
ᓂᔣᓱ	-9.95608
▁ᐊᓯᓃᐎ	-9.95615
ᐐᑕᐱᒫ	-9.95616
▁ᐐᑕᒪᐎᔑᓈᒻ	-9.95627
ᐱᒥᓂᔕᐙᐙᒡ	-9.95633
▁ᑭᓇᑕᐌᓂᒥᓂᓂᒻ	-9.95634
ᓇᑳᔥᑲ	-9.95637
ᑎᐸᐃᑲᓀᔮᓂᒃ	-9.95642
ᐅᐱᔥᑳ	-9.95658
▁ᑮᐃᓀᑕᓰ	-9.95664
▁ᓂᐲᓂ	-9.95686
▁ᐁᔑᐊᔮᓂᒡ	-9.957
ᔕᐌᓂᒥᓇᕽ	-9.95748
ᒪᔭᑭ	-9.95759
▁ᐁᐊᔮᓂᒡ	-9.95833
ᑭᐸᐅᑰᔮᓐ	-9.95925
▁ᐃᓀᓂ	-9.95928
ᐅᑖᐱᓂᑳᑌ	-9.96425
ᐱᒥᑌ	-9.96442
ᑑᑕᐎᓐᒡ	-9.96532
▁ᐅᑮᓅᑖ	-9.96692
ᑕᔑᑕᒧᐙᒡ	-9.96917
ᑕᐸᓰ	-9.97058
ᓀᓂᒥᑯᒡ	-9.9724
ᓀᓂᒫᒡ	-9.9725
ᑮᐌᓄᑕ	-9.97851
ᐐᐃᔖ	-9.98211
ᒪᓂᑑᑳ	-9.9835
ᒋᑭᐌᔨ	-9.99123
▁ᐃᔑᐌᐱ	-9.99291
ᔖᔖᑯᐌ	-9.99318
ᐱᓯᑖᑯ	-9.99448
ᑕᔑᑕᕽ	-9.99743
ᑮᓯᔅ	-10.0033
ᑮᐅᓀᓂᒫ	-10.0069
ᑲᔥᑭᐃᑯ	-10.0228
▁ᐱᑾᑎᓈ	-10.0247
▁ᐅᑮᑭᑫᓂᒫ	-10.0262
ᑭᑫᑖᒥᓐ	-10.0284
ᐸᑾᒋᐱᑑ	-10.0314
▁ᐸᑴᔑᑲᓇᐞ	-10.0314
▁ᑳᑌᐺᔦᓂᒥ	-10.0314
▁ᒎᓴᐴᓐ	-10.0314
▁ᒫᓇᒑᓂᔕᐞ	-10.0314
ᐊᓈᒣᑖᑯᓯ	-10.0314
ᐯᐸᑳᓉᐙᓇᑭᓯ	-10.0314
▁ᐐᔭᐎᕽ	-10.0314
▁ᑭᑯᓯᔅ	-10.0314
▁ᑳᑮᐊᔓᑕᒫᑫᒡ	-10.0314
▁ᓴᒣᕒᐃᔭ	-10.0314
▁ᐱᓯᑲᒧ	-10.0314
▁ᐅᐐᓱᐎᓂᕽ	-10.0314
▁ᓂᑑᑭᒫᒻ	-10.0314
ᐌᓅᑕᓂᓂᒃ	-10.0314
▁ᑲᓅᓂᑰᓐ	-10.0314
▁ᐁᐱᓴᔅ	-10.0314
▁ᒋᑭᑫᓂᒥ	-10.0314
▁ᐁᑭᑐᔦᒃ	-10.0314
▁ᑭᓀᐱᑰ	-10.0314
▁ᐅᑌᐃᕽ	-10.0315
▁ᐯᔑᒀ	-10.0315
▁ᐌᒌᒃ	-10.0315
ᓃᓵᑕᐌ	-10.0315
ᔥᑳᓂᒃ	-10.0315
▁ᓂᑎᓀᑕᓰ	-10.0315
▁ᐁᑭᑐᒡ	-10.0315
ᑮᐅᑎᑎᓈ	-10.0315
▁ᑲᔥᑭᐋ	-10.0316
▁ᐊᔓᑕᒫᑎᐎᓐ	-10.0316
ᐃᔥᒀᓭᑭᓐ	-10.0316
ᓅᑳᑎᓯ	-10.0317
▁ᐌᓅᑎᓯᐎᓐ	-10.0319
▁ᓂᐲᕽ	-10.032
▁ᐁᑮᐃᔖᐙᒡ	-10.032
▁ᑳᔕᐌ	-10.0321
▁ᑳᐃᓇᑌᒃ	-10.0321
ᐃᓈᐸᒋᑑ	-10.0321
ᐊᓂᐅᒋ	-10.0322
▁ᐁᑎᓄᐎᔮᓐ	-10.0325
▁ᑳᒎᐎᐎᓯᐌᒃ	-10.0325
ᑭᑫᑕᓰᓈᐙ	-10.0337
▁ᑳᑮᐅᓈᐸ	-10.0344
▁ᑳᐃᔑᒫᒫᐗᒋᐃᑎ	-10.035
▁ᐅᑮᐃᔑᐎᓈ	-10.035
ᐃᔑᐎᓈᒡ	-10.0359
▁ᑳᑕᓶᐙᓇᑭᓯᐙ	-10.0366
▁ᑲᓇᐙᐸᒥ	-10.0369
ᐌᐱᓇᕽ	-10.037
ᐸᐃᑎ	-10.0376
ᑲᓅᑕᒫᑯᒡ	-10.0384
ᓵᑭᐃᑎᔦᒃ	-10.0432
ᐅᑖᐱᓇᒫ	-10.0437
ᑭᑭᓄᐊᒫᑰ	-10.0442
▁ᐴᓀᑕᒪ	-10.0457
▁ᑳᐃᑭᑐ	-10.0512
ᓴᓭᑳ	-10.0519
▁ᐊᔮᒀᒥ	-10.0522
ᐐᓯᓂᓂᒡ	-10.0571
ᔮᐸᒋᑑ	-10.069
ᒋᔥᑲᐎ	-10.0699
▁ᐙᐃᔑᒋᑫ	-10.0741
ᓇᑲᒋ	-10.0814
ᑎᓯᐎᓂ	-10.0885
▁ᐯᒫᑎᓯ	-10.0969
ᐅᑕᐌᒫ	-10.1039
ᐅᓇᔓᐌ	-10.1039
ᑕᓶᐙᓇᑭᓯ	-10.1072
ᑮᐋᐸᒋᐋ	-10.1078
ᐅᑎᑕᕽ	-10.1078
▁ᑲᔥᑮᑎᐱᑲ	-10.1086
▁ᑳᑮᐃᔥᒀ	-10.1092
ᐲᑎᑫᔥᑳ	-10.1119
▁ᑳᐅᑌᐺᑕᒧᐎᓂ	-10.1131
ᐸᔥᑴᑭᓄ	-10.1131
▁ᐁᐃᔑᐲᐃᑳᑌᒃ	-10.1131
▁ᐃᓬᐃᓯᐸ	-10.1131
▁ᐅᑕᓇᒥᐁᐎᑲᒥᑯᓃᕽ	-10.1131
▁ᐋᑲᕒᐃᐸ	-10.1131
▁ᐗᑭᒐᔭᐄ	-10.1131
▁ᐱᑾᒐᔭᐄ	-10.1131
▁ᐲᒐᔭᐄ	-10.1131
▁ᑭᑎᑳᓀᔅ	-10.1131
▁ᒎᑕᓴᓐ	-10.1131
▁ᒫᓇᒑᓂᔕᒃ	-10.1131
▁ᓂᐐᔭᐎᕽ	-10.1131
▁ᓂᓯᒥᑕᓇ	-10.1131
▁ᔔᒥᓇᐞ	-10.1131
ᐃᓍᓂᑎᓱᐙᒡ	-10.1131
ᐃᔥᐯᓂᑎᓱ	-10.1131
ᑭᑫᒋᑳᑌᓯᓂᓂᒃ	-10.1131
ᒥᑮᐙᐱᓀ	-10.1131
▁ᐅᑕᔭᐄᒥᓂ	-10.1131
▁ᐅᑲᔥᑭᐁᐎᓯ	-10.1131
▁ᑭᐐᒋᐅᑌᐺᑕᒨ	-10.1131
▁ᑭᒋᐆᑌᓈ	-10.1131
▁ᐃᔅᕒᐃᔭᓬᐃᑳᕽ	-10.1131
▁ᑳᑮᒦᔑᔭᓐ	-10.1131
▁ᓂᐐᔭᐤ	-10.1131
▁ᓵᑭᐃᐌᐎᓂᕽ	-10.1131
▁ᓂᑎᓄᐤ	-10.1131
▁ᑳᑮᐅᒌᓂᒡ	-10.1131
▁ᐁᑕᕒᐆ	-10.1131
▁ᐙᓴᑯᓀᒋᑲᓐ	-10.1131
ᔒᐎᑖᑲ	-10.1131
ᐱᓂᔅᑴ	-10.1131
▁ᐅᑕᔓᑕᒫᑫᐎᓐ	-10.1131
▁ᑕᐃᑕᔅ	-10.1131
▁ᐅᑭᑭᓄᐊᒪᐙᑲᓇᓐ	-10.1131
ᒫᒋᓂᔕᐙ	-10.1131
▁ᐅᑮᐃᑯᐙᓐ᙮	-10.1131
ᑾᔮᒌ	-10.1131
▁ᐋᐃᓯᒃ	-10.1131
▁ᐅᓂᔥᑳᑎᓯᐎᓐ	-10.1131
▁ᐃᓈᑯᓂᑫᐎᓇᓐ	-10.1131
ᓇᑭᔥᑲᐙ	-10.1131
▁ᐃᓈᑯᓂᑫᐎᓂᕽ	-10.1131
▁ᐃᓉᐎᓐ	-10.1132
▁ᑕᔭᕒ	-10.1132
▁ᓂᑖᐸᒋ	-10.1132
▁ᐅᑕᓇᒥᐋᒃ	-10.1132
ᓃᐸᐎᐙᒡ	-10.1132
▁ᑳᐙᐱᓯᓂᒃ	-10.1133
▁ᐁᓀᑕᒫᓐ	-10.1133
▁ᑲᑴᒋᒫᐞ	-10.1134
ᐸᓭᓂᒧ	-10.1134
ᓇᒥᐁᑕᐎᓐᒡ	-10.1135
ᒪᑕᐐ	-10.1137
▁ᑳᐋᑯᓯᓂᒡ	-10.1137
ᐸᔭᑌ	-10.1138
▁ᑕᑯᔑᓄᐙᒡ	-10.1138
▁ᑭᒋᑲᒻ	-10.1138
▁ᑳᑮᐃᑭᑐᑯᐸᓀᓐ	-10.1139
▁ᐙᐸᓄᕽ	-10.1139
ᑮᓈᑯᓰ	-10.1143
ᐗᐌᔑ	-10.1143
ᐱᓱᑫ	-10.1148
▁ᓈᓯᑲᐎ	-10.115
▁ᓇᑲᓈᒡ	-10.115
▁ᑭᑎᓂᓐ	-10.1151
ᐃᔑᐎᓈᐙᒡ	-10.1155
▁ᐁᔑᑖᓂᒡ	-10.1166
ᐊᓄᑳᑕ	-10.1181
ᑭᑫᑕᒪᕽ	-10.1181
ᐃᔑᓭᓯᓅᓐ	-10.1203
ᐅᑭᒫᐗᐱ	-10.1228
ᒨᒋᑫᑕ	-10.1247
ᐱᒫᒋᐃᑣ	-10.1261
ᐙᐸᒥᑰᐞ	-10.1265
ᑑᑕᐎᑣ	-10.1273
ᓅᑖᑯᑑ	-10.1316
ᔖᑯᐌᐗᒃ	-10.1326
ᓂᒥᓂᓂᒻ	-10.1376
ᐐᐃᔑ	-10.1377
ᑌᐺᑕᓰ	-10.1456
ᒦᑭᐙ	-10.1555
▁ᓯᓬ	-10.1621
ᐊᔮᒀᒥᓯ	-10.164
ᐃᔑᓈᑯ	-10.1673
ᑭᑭᓇᐙᑕᔕᑫᔓᑰ	-10.1709
▁ᑭᑭᓄᐊᒫ	-10.1734
ᐐᑕᒪᐙᐙᒡ	-10.1767
ᐅᓵᐎ	-10.1784
ᐅᓂᔑᔑᕽ	-10.1841
ᓃᐸᐎᒡ	-10.1963
▁ᑌᓴᓬᐊᓇᐃ	-10.202
▁ᓂᓇᑕᐌᓂᒫ	-10.202
ᐅᑳᐎᒥᓇᑲᔒ	-10.202
ᐅᒻᐺᑲᒥᑭᓯ	-10.202
ᐸᑯᓭᓂᒧ	-10.202
ᑯᑖᓀᑖᑾᒃ	-10.202
ᑲᔥᑮᑮᐎᓐ	-10.202
ᒥᑯᔥᑳᒋᐃ	-10.202
▁ᐁᐃᑭᑐᓂᒡ	-10.202
▁ᐁᔑᐲᐃᑳᑌᓂᒃ	-10.202
▁ᐅᑌᒐᓬᐃᒥᓂ	-10.202
▁ᐅᒥᔅᑸᒥ	-10.202
▁ᐅᒥᔅᑸᒻ	-10.202
▁ᐊᔕᐙᐱᒃ	-10.202
▁ᐗᓇᑯᔕᒃ	-10.202
▁ᐙᓴᑯᓀᒋᑲᓈ	-10.202
▁ᑫᐴᓂᓭᓯᓂᓂᒃ᙮	-10.202
▁ᑳᐅᒋᑎᐯᑖᑯᓯᐙᒡ	-10.202
▁ᒣᒥᑕᑫ	-10.202
▁ᒥᓈᑾᐅᓐ	-10.202
▁ᒥᔅᑸᓂ	-10.202
▁ᒫᓇᒑᓂᔐᓴ	-10.202
▁ᓂᓃᒑᓂᓴᒃ	-10.202
▁ᓃᒋᑭᐌᔭᒃ	-10.202
▁ᓵᐃᓬᐊᓴᓐ	-10.202
▁ᐅᐱᒫᒋᐃᐌ	-10.202
▁ᐅᑎᓀᑕᒧᐎᓂᐙ	-10.202
▁ᑭᑭᑭᓄᐊᒪᐙᑲᓇᒃ	-10.202
▁ᑲᓇᐌᒋᑫᐎ	-10.202
▁ᓭᐸᑏ	-10.202
▁ᑲᐸᕒᓂᔭᒦᕽ	-10.202
▁ᑳᐃᑭᑑᒪᑲᒃ	-10.202
ᓵᑲᐊᒻ	-10.202
▁ᒥᔅᑶ	-10.202
ᐐᐸᑲᒥᑳ	-10.202
ᒪᐗᑎᓯ	-10.202
▁ᐃᔅᑏᐱ	-10.202
▁ᐃᔥᒀᑌᒪᓐ	-10.202
▁ᑮᐃᑎᐗᒃ᙮	-10.202
▁ᓭᑕᓇᓐ	-10.202
▁ᐋᓇᓈᔭᔅ	-10.202
▁ᒪᓂᑑᑳᓇᒃ	-10.202
ᓃᓇᒥᓯ	-10.202
▁ᐸᑭᓯᑭᓐ	-10.202
▁ᑳᑎᐸᐃᑫᐃᐌ	-10.202
▁ᑾᔭᑾ	-10.202
▁ᐲᓬᐃᑭ	-10.202
ᐃᓈᐸᑕᓯᓅᓐ	-10.202
▁ᑳᐃᔑᓂᑳᓱᓂᒡ	-10.202
ᓵᑲᐊᕽ	-10.202
▁ᐅᑎᐹᒋᒧᐎᓂᓂ	-10.202
ᒪᔥᑲᐌᑕᒧ	-10.202
ᐋᐸᒋᑑᓐ	-10.202
▁ᑌᒥᓂᒃ	-10.202
▁ᑳᒥᓍᐸᑕᕽ	-10.2021
ᓵᑭᐁᒀ	-10.2021
▁ᐊᓇᒥᐁᐎᑲᒥᒃ	-10.2021
ᐗᓂᔥᑴ	-10.2021
▁ᔔᒥᓂ	-10.2021
ᐐᑕᓄᑮᒥ	-10.2021
▁ᐁᓀᑖᑾᓂᓂᒃ	-10.2021
▁ᓵᐃᑕ	-10.2021
ᐲᑯᐱᑑ	-10.2021
ᑌᐺᔦᑕᕽ	-10.2021
▁ᑳᑭᑫᓂᒫᓯ	-10.2021
ᓇᐁᑕᒥᐋ	-10.2022
▁ᑲᑴᒋᒫᐙᓐ	-10.2022
▁ᐅᒦᒦ	-10.2022
▁ᐊᐯᓂᒧᐎᓐ	-10.2023
▁ᐋᑕᒻ	-10.2023
▁ᐅᑖᐱᓇᓐ	-10.2023
▁ᐃᔑᓂᑳᓱ	-10.2023
ᑎᐹᑐᑖ	-10.2024
▁ᑳᑭᑎᒫᑭᓯᐙᒡ	-10.2024
▁ᐱᔑᒀᑎᓯᐎᓐ	-10.2026
▁ᐱᔑᑭ	-10.2026
▁ᑳᐃᔑᓈᑯᓯᐙᒡ	-10.2029
ᑭᑭᓄᐊᒫᑯᐙ	-10.2034
ᐃᔥᒀᓭᓯᓂᓂ	-10.2034
▁ᐅᑑᓇᔓᐌ	-10.2038
ᓃᑳᓂᔥᑲᐙ	-10.2038
ᒪᑲᓯᓂᓂ	-10.2039
ᐃᔑᓂᔕᐙᒡ	-10.206
ᐐᒌᐎᓂᓂᒻ	-10.2064
ᑳᒋᑎᓈ	-10.2067
ᑲᔥᑮᑎᐱᑲᓂᓂᒃ	-10.2069
ᐊᑕᐌᓂᒫᒡ	-10.2083
▁ᑳᑮᐊᔓᑕᒪ	-10.2088
ᑮᓂᓯᑯ	-10.2103
ᐅᓈᑯᓈ	-10.2113
ᑑᑕᐎᓀᒀ	-10.2122
ᓈᑯᒋᑳᑌ	-10.2129
ᑭᑫᑕᓯᒃ	-10.2144
▁ᒋᓈᓈᑲᒋ	-10.2148
ᓇᑭᑣ	-10.2192
ᑌᐺᑕᐌᒃ	-10.2235
ᒥᓉᑕᒥᐃ	-10.2268
ᐙᐸᑕᒥᓂᒡ	-10.242
ᓇᑴᑕᐙᐞ	-10.2431
ᒋᐸᑭᑎᓂ	-10.2533
ᒥᓄᐐᒌᐎ	-10.2605
ᑑᑕᐎᒃ	-10.2616
▁ᐁᓈᓴᒦ	-10.2638
ᐃᔥᒀᓭᒃ	-10.2718
ᒋᑫᒪᑲᓂᓂ	-10.2763
ᑲᓅᓂᓇᑰᒃ	-10.2827
ᔕᐌᓂᒫ	-10.2843
ᐸᑭᑎᓂᑳᑌ	-10.2901
ᓅᑕᒪᐙᓂᒡ	-10.2914
ᑮᐊᓇᒥᐁ	-10.2933
▁ᐌᐱᓇ	-10.2944
ᑭᐸᐅᑰ	-10.2953
ᐙᐸᑕᒧᐙ	-10.2971
ᑎᐸᐃᑲᓀᔮ	-10.2989
ᒫᐗᒋᐃᑎᔦᒃ	-10.299
▁ᓈᓴᕒᐃ	-10.2994
ᐸᐃᑲᓐ	-10.2995
ᐱᔑᒀᒋᑴ	-10.2996
6	-10.2996
ᐅᒋᒌᑾᓇᐱ	-10.2996
ᐸᐹᐱᓯᔅᑫᑕ	-10.2996
ᑭᔐᐹᐗᑲᓂᓂᒃ	-10.2996
ᓵᑲᐊᒥᓂᒡ	-10.2996
▁ᐅᐐᔭᐎᕽ	-10.2996
▁ᐅᑌᐃᐙᕽ	-10.2996
▁ᐅᑭᒋᐅᑭᒫᒥᐙᓐ	-10.2996
▁ᐅᒥᔅᑸᓂ	-10.2996
▁ᐋᓬᐃᑭᓵᑕᕒ	-10.2996
▁ᐯᑳᓂᓯᐙᒡ	-10.2996
▁ᐱᑾᑕᑲᒥᑳᕽ	-10.2996
▁ᐹᕒᓇᐸᓴᓐ	-10.2996
▁ᑫᓅᑕᒪᐙᐙᒡ	-10.2996
▁ᑭᑫᑌᔭᐋᒥᓈᐸᓃᒃ	-10.2996
▁ᑭᑲᐐᒌᐎᑯᒻ	-10.2996
▁ᑭᒪᒋᑑᑕᒧᐎᓂᓈᓂᓐ	-10.2996
▁ᑳᐅᔥᑳᑎᓯ	-10.2996
▁ᑳᐅᔫᓯᒥᒥᓐᒡ	-10.2996
▁ᓂᑭᔐᒪᓂᑑᒻ	-10.2996
▁ᓬᐋᓴᕒᐊᔅ	-10.2996
▁ᓵᐃᒪᓇᓐ	-10.2996
▁ᓵᐃᓬᐊᔅ	-10.2996
▁ᓵᑲᐃᑲᓐ	-10.2996
▁ᐅᐐᓱᐎᓂᓃᕽ	-10.2996
▁ᐅᒥᓍᑎᓰ	-10.2996
▁ᐊᓄᑮᐋᑲᓇᒃ	-10.2996
▁ᐯᑕᓬᐃᐁ	-10.2996
▁ᑳᐱᒫᒋᐃᓇᕽ	-10.2996
▁ᒌᑲᔭᐄ	-10.2996
▁ᐁᓇᓄᑮ	-10.2996
▁ᑭᒪᒋᑑᑕᒧᐎᓂᐙᓐ	-10.2996
▁ᔂᓬᐊᒪᓐ	-10.2996
▁ᐁᐃᔑᓂᑳᓱᒡ	-10.2996
▁ᐗᑸᕽ	-10.2996
ᒪᑲᑗ	-10.2996
▁ᐅᑭᑎᑫ	-10.2996
ᐃᓈᐸᑎᓯ	-10.2996
▁ᓂᑎᓀᑕᒻ	-10.2996
▁ᐁᑭᑐᔮᓐ	-10.2996
▁ᐅᓈᑯᔑᓂᓂᒃ	-10.2996
ᒥᓍᑎᓯ	-10.2996
ᒪᔥᑲᐎᑳᐸᐎᔦᒃ	-10.2996
ᒦᑴᒋᐎ	-10.2997
▁ᐁᑭᑑᒪᑲᒃ	-10.2997
▁ᑮᒋᐱᒫᑎᔅ	-10.2997
▁ᐃᓂᓃᑳᕽ	-10.2997
ᐅᑑᑌᓈᒥ	-10.2997
▁ᔖᐗᓄ	-10.2997
▁ᓭᑭᓯᑫᓐ	-10.2997
ᑮᔖᐯᐎ	-10.2997
▁ᓂᑖᓇᑮ	-10.2997
▁ᑌᓄᐎ	-10.2997
▁ᑲᐯᔑ	-10.2997
ᑭᑭᓇᐙᒋᐃ	-10.2997
▁ᐐᑕᓇᒥᐋᓐ	-10.2997
▁ᐊᐌᒋᑫᐎᓐ	-10.2997
▁ᑭᑌᐺᔦᑕᒧᐎᓂᐙ	-10.2998
▁ᒫᒌᔮᔑ	-10.2999
▁ᐁᔑᓈᑯᓯᐙᒡ	-10.2999
ᔖᑲᓱ	-10.3
▁ᑫᔭᐸ	-10.3
ᐋᓍᐸ	-10.3
▁14	-10.3
ᑭᓀᐱᑯ	-10.3
▁ᐊᓇᒥᐋᐎᓂᕽ	-10.3001
ᓰᑭᓈᓐ	-10.3005
▁ᐌᒌᒪᑲ	-10.3005
ᑭᑌᓂᒧ	-10.3007
ᑌᐺᐎᓂᐎ	-10.3008
▁ᐅᑮᒥᑲᐙ	-10.301
ᐸᑭᑕᐙ	-10.3013
ᑯᑖᓀᓂᒫ	-10.3018
▁ᑕᐹᑏᓄᐗ	-10.306
ᐊᓄᑮᑕᐙᒡ	-10.3098
ᑭᑫᑕᓯᒀ	-10.31
ᑭᑭᓄᐃᑫᐎᓇᓐ	-10.3124
ᐊᔮᒀᒥᒫ	-10.3143
ᑌᐺᑕᓯᒃ	-10.3174
ᐐᑑᑲ	-10.32
ᐅᔑᒋᑳᑌᓂᒃ	-10.3283
ᐅᒌᒪᑲᓐ	-10.3289
ᐃᔑᐌᐱᓯᐙᒡ	-10.3324
ᑑᑕᐎᓀᒃ	-10.3341
▁ᐅᒦᑭᐌᐎ	-10.3363
▁ᔕᐌᓂᒥ	-10.3366
▁ᒋᓂᔑᐗᓈᑕ	-10.3512
ᐱᓀᓯᐗ	-10.3557
ᐹᐱᓄᑕᐙ	-10.3592
▁ᑕᐃᑭᑐ	-10.3655
ᑲᓅᓂᓀᒃ	-10.3827
ᑮᐃᔑᓂᔕᐙ	-10.396
ᑕᑯᔑᓅᒪᑲ	-10.4044
▁ᑌᐺᔦᓂᒥ	-10.4068
ᐅᒑᓂᒣᑕ	-10.4078
ᐋᐸᒋᑑᓇᓐ	-10.4078
ᐐᑾᑎᐗᑲᒥᑭᓯ	-10.4078
ᑭᓰᐲᑭᓯᑌ	-10.4078
ᒪᒫᒋᑾᐱᓱ	-10.4078
ᓇᒪᑎᓂᑭᕽ	-10.4078
▁ᐃᔅᑫᕒᐃᔭᑦ	-10.4078
▁ᐅᑌᔥᑲᓇᐞ	-10.4078
▁ᐅᑎᔑᓂᑳᓱᐎᓂᓃᕽ	-10.4078
▁ᐅᑎᔑᓂᔕᐙᑲᓇᓐ	-10.4078
▁ᐅᑭᑭᔥᑭᑲᓂᓂ	-10.4078
▁ᐅᒥᓍᒋᒧᐎᓐ	-10.4078
▁ᐋᐃᓯᑰᓐ	-10.4078
▁ᐋᐌᒋᑲᓇᓐ	-10.4078
▁ᐙᐱᔥᑮᑭᓐ	-10.4078
▁ᐱᓬᐊᐴᓐ	-10.4078
▁ᐸᑭᑎᓈᓱᐎᓈᐱᑯᕽ	-10.4078
▁ᑑᐳᐎᓈᑯᕽ	-10.4078
▁ᑫᑎᒫᑭᓯᐙᒡ	-10.4078
▁ᑭᑎᑳᓈᑎᑯᑳᕽ	-10.4078
▁ᑭᑑᔑᐲᐊᒪᐎᓐ	-10.4078
▁ᑭᒋᒪᓯᓇᐃᑲᓂᕽ	-10.4078
▁ᑰᑰᔕᐞ	-10.4078
▁ᑳᐅᑕᑳᓀᓯᔭᓐ	-10.4078
▁ᑳᒥᑖᔑᓃᔑᓂᒡ	-10.4078
▁ᒉᑲᐴᓐ	-10.4078
▁ᒥᓍᒋᒧᐎᓂᓂ	-10.4078
▁ᒥᔅᑸᕽ	-10.4078
▁ᓬᐋᓴᕒᐊᓴᓐ	-10.4078
▁ᓵᑭᒐᔭᐄ	-10.4078
▁ᔖᐳᔥᑳ	-10.4078
ᐅᐲᐌᓰᒥ	-10.4078
ᐐᒋᐐᓯᓃᒫ	-10.4078
▁ᐅᑎᓈᑯᓂᑫᐎᓂᓂ	-10.4078
▁ᑕᔕᐌᑖᑯᓯ	-10.4078
▁ᑭᑕᓄᑮᐋᑲ	-10.4078
▁ᑳᑌᐺᑕᓯᒀ	-10.4078
▁ᓴᑭᓂᑫᓈ	-10.4078
ᔕᔒᐯᑕᒣᒃ	-10.4078
▁ᐅᑲᓅᑕᒫᑫ	-10.4078
▁ᑫᑌᐃᓈᑎᓯᐎᓐ	-10.4078
ᒥᓍᒋᐋ	-10.4078
▁ᐯᕒᐊᓰᐎᓂᓂᐗᒃ	-10.4078
▁ᐃᑴᓭᓴᓐ	-10.4078
▁ᑫᓅᑕᒫᑯᒡ	-10.4078
▁ᒌᐯᑲᒥ	-10.4078
▁ᐅᓂᔑᔑᓐ	-10.4078
▁ᐅᑭᔐᐙᑎᓯᐎᓂᕽ	-10.4078
▁ᑭᑭᓄᐊᒪᐙᑲᓇᐞ	-10.4078
▁ᓂᑮᒥᑲᐙ	-10.4078
▁ᓇᑴᑖᑯᒡ	-10.4078
ᐊᔮᒀᒥᒥ	-10.4078
▁ᑮᓅᑕᒨᒃ	-10.4078
▁ᒥᓋᑭᒥ	-10.4078
▁ᒥᑎᑰᓐ	-10.4079
ᑆᓇᐎᒋᑫ	-10.4079
ᑕᐸᓭᑖᑯᓯ	-10.4079
ᐙᑳᐃᑫ	-10.4079
▁ᑳᑎᐯᓂᒥᒥᓇᕽ	-10.4079
▁ᑳᓂᑖᐎᑭᑭᓐ	-10.4079
▁ᑳᐃᓀᑕᒧᐙᒡ	-10.4079
ᑯᑖᓀᑖᑾᓂᓂ	-10.4079
▁ᐅᑭᒫᐎᐎᓐ	-10.4079
▁ᐁᓀᑖᑾᒃ	-10.408
▁ᑌᐺᔦᑕᒧᐎᓂᕽ	-10.408
▁ᐅᑕᐗᑳ	-10.408
ᑲᓅᓂᓂᓂᒻ	-10.408
ᓂᐴᒪᑲᒃ	-10.408
ᐊᑮᐗᕽ	-10.408
▁ᓂᐱᒫᑎᓯᐎᓐ	-10.4081
ᑌᐸᑫᑖᑯᓯ	-10.4081
ᐯᐸᑳᓂᑮᔗ	-10.4081
ᑲᓅᓂᑰᐞ	-10.4081
▁ᑳᑕᓶᐙᓇᑭᓯᓂᒡ	-10.4081
▁ᐅᐐᔭᐎᓂ	-10.4082
ᐸᑲᒥᔥᑳᑯ	-10.4082
ᐊᔕᒫᒡ	-10.4084
ᐋᓇᐌᒋᑫ	-10.4085
▁ᑲᔥᑭᒫ	-10.4088
ᑕᒪᐎᓈᓐ	-10.4102
▁ᑰᓯᐙ	-10.4109
ᑭᑫᑖᑾᒃ	-10.412
ᐃᔥᑯᓭ	-10.4124
▁ᑭᑮᒦᓂᑯ	-10.415
▁ᑭᑮᓅᑖ	-10.4152
ᒦᓂᑯᓈ	-10.4152
ᐃᔑᐎᓂᓐᒡ	-10.4152
ᓇᑲᓂᑯᒡ	-10.4167
ᐅᑎᓇᕽ	-10.4177
ᐙᐸᒥᔦᒃ	-10.4183
ᓂᓯᑕᐎᓈ	-10.4223
▁ᑮᓇᑴᑕ	-10.423
ᐃᔑᓈᑯᓯᔮᕽ	-10.4238
ᐋᐌᒋᑫ	-10.4261
ᐐᒌᐎᑰᐞ	-10.4268
ᑌᐺᑕᓯᓂᒃ	-10.4276
▁ᑫᓂᔑᐗᓈᒋ	-10.429
▁ᑳᑮᐅᓈᐸᒥᑯ	-10.4438
ᐙᐸᑕᒫᓐ	-10.4573
ᒫᓀᑕᒥ	-10.4621
▁ᐱᓈᓯᑳᑰ	-10.4692
ᒌᑫᑕᒻ	-10.47
ᐃᔑᒋᑫᔦᑭᐸᓐ	-10.4701
ᐴᔔᐋ	-10.4728
ᐋᐸᒋᑑᐙᒡ	-10.4756
ᐃᑭᑐᒡ	-10.4798
ᐅᓂᔑᔑᓯᓅᓐ	-10.4836
▁ᓂᐙᑳᐃᑲ	-10.4858
ᑲᓅᒋᑫᑕ	-10.4932
ᐐᒌᐎᓀᒃ	-10.4935
ᔨᔑᓭ	-10.4991
▁ᐅᑭᑫᓂᒫ	-10.5121
ᐃᔥᒀᓭᓂᒃ	-10.5223
ᒋᐊᔭᐋᐎ	-10.526
ᑮᐃᔑᐌᐱᓯ	-10.5284
▁ᐅᓇᑕᐌᓂᒫ	-10.5291
▁ᑳᑲᑮᐹᑎᓯ	-10.5291
9	-10.5291
ᐅᑕᓄᑮᐋᑲᓂᒥ	-10.5291
ᐐᒋᐐᓯᓃᒥ	-10.5291
ᐐᓴᑳᐱᓀ	-10.5291
ᐙᓭᔮᓂᒃ	-10.5291
ᐱᒫᑎᓰᔥᑳᑫᒪᑲ	-10.5291
ᐸᓯᑴᐱᓱ	-10.5291
ᑕᐱᔑᒧᓐ	-10.5291
ᒪᔥᑲᐌᑕᒣᒃ	-10.5291
ᒫᒪᑳᑌᑕᒻ	-10.5291
ᓃᔥᑕᓇᔑᓃᐎ	-10.5291
ᓅᑕᔮᐹᑴ	-10.5291
ᓈᓂᒥᑕᓇ	-10.5291
▁ᐅᐐᑎᑫᒫᑲᓂᓂ	-10.5291
▁ᐅᐐᑎᑫᒫᑲᓇᓐ	-10.5291
▁ᐅᐐᔭᐎᐙᓐ	-10.5291
▁ᐅᑌᒐᓬᐃᒥᐙ	-10.5291
▁ᐅᑭᒋᐊᓇᒥᐁᐎᑲᒥᑯ	-10.5291
▁ᐅᑭᒋᐊᓇᒥᐁᐎᑲᒥᒃ	-10.5291
▁ᐅᑲᓇᐎᒫᓇᒑᓂᔑᐌ	-10.5291
▁ᐊᑆᓬᐊᔅ	-10.5291
▁ᐊᔭᐋᐎᔕᒃ	-10.5291
▁ᐌᑕᑳᓀᓯ	-10.5291
▁ᐗᓇᑯᔕᐞ	-10.5291
▁ᐸᕒᐋᐸᔅ	-10.5291
▁ᐹᐱᓬᐊᓐ	-10.5291
▁ᑎᐱᑭᑮᓯᔅ	-10.5291
▁ᑭᑫᑌᔭᐋᒥᓈᐸᓃᐞ	-10.5291
▁ᑭᒋᐊᓇᒥᐁᐸᒀᓀᑲᒥᑯ	-10.5291
▁ᑭᔥᑮᔑᑰᓐ	-10.5291
▁ᑳᐅᑕᑳᓀᓯᐙᒡ	-10.5291
▁ᑳᐸᒦᑖᑫᒡ	-10.5291
▁ᒥᔑᐱᔑ	-10.5291
▁ᒪᐎᓀᔥᑲᐙ	-10.5291
▁ᒪᒋᑫᑰᓇᓐ	-10.5291
▁ᒪᒋᑭᑎᑳᓇᓐ	-10.5291
▁ᒫᑲᑕᓬᐊᐎᑴ	-10.5291
▁ᒫᓯᑑᓂᔮᐗᑮᕽ	-10.5291
▁ᓈᐯᐹᑲᐋᒀᓐ	-10.5291
▁ᓵᐃᐸᕒᐊᔅ	-10.5291
▁ᔑᒫᑲᓂᔕᓐ	-10.5291
▁ᔔᒥᓈᑎᒃ	-10.5291
ᑌᐱᓇᒫᓱ	-10.5291
▁ᐅᐱᒣᔭᐄ	-10.5291
▁ᐅᑑᑭᒫᐎᐎᓐ	-10.5291
▁ᐅᒋᑎᐯᑖᑯᓯ	-10.5291
▁ᐸᐸᑭᑌᐙᐙᒡ	-10.5291
▁ᑭᑭᔐᑉ	-10.5291
▁ᑮᐅᑯᓯᓯ	-10.5291
▁ᑮᐅᒋᐅᔑᒋᑳᑌ	-10.5291
▁ᑳᑲᔥᑭᐁᐎᓯ	-10.5291
ᐅᔑᐲᐃᑳᑌᒃ	-10.5291
ᓂᓱᑮᔑᑾᑳᒃ	-10.5291
▁ᐅᑎᑭᑐᐎᓂᐙ	-10.5291
▁ᐅᑕᔭᐄᒪᓐ	-10.5291
▁ᐁᐃᔑᓂᑳᓱᓂᒡ	-10.5291
▁ᐁᓃᐸᐎᓂᒡ	-10.5291
▁ᑣᒪᔅ	-10.5291
▁ᑭᒋᒨᑯᒫ	-10.5291
ᐸᔕᔐᐙ	-10.5291
▁ᒋᓴᓱᕽ	-10.5291
ᓇᒥᐁᐗᓄᑮ	-10.5291
▁ᐁᐱᓴᓯᕽ	-10.5291
ᔑᐲᐊᒪᐤ	-10.5291
▁ᐁᑮᐃᔑᓂᑳᓱᒡ	-10.5291
▁ᑮᑕᓇᒥᐋᓈᓂᒃ	-10.5291
ᒦᒋᓈᑳᑌᒃ	-10.5291
▁ᑳᐃᔑᑎᐯᑖᑯᓯ	-10.5291
ᐙᐸᑕᒧᐗᕽ	-10.5292
▁ᐅᑌᐺᔦᑕᒧᐎᓂᕽ	-10.5292
▁ᒥᑎᑰᒃ	-10.5292
ᐊᑳᓰᓄ	-10.5292
▁ᐯᑕᓃᕽ	-10.5292
▁ᐊᐲᑌᑖᑯᓯᓰ	-10.5292
▁ᑮᐗᓂᔥᑳ	-10.5292
ᐱᒥᓂᔕᐃᑫ	-10.5292
▁ᑭᒋᐊᐱᐎᓐ	-10.5292
ᑭᓰᓂᒌ	-10.5292
▁ᐁᑭᑐᐙᒡ	-10.5292
ᐃᔑᓂᔕᐗᒃ	-10.5292
▁ᐯᔑᑯᑎᐸᐃᑲ	-10.5292
▁ᐅᑖᑯᓰᐞ	-10.5292
ᑌᐺᔦᑕᒣᒃ	-10.5292
ᑭᑭᔥᑲᐙᐗᓱ	-10.5292
▁ᑕᑯᔑᓈᓐ	-10.5293
ᐸᑫᐎᓂᑎ	-10.5293
ᔑᑖᓂᐗᓂᓂᒃ	-10.5293
ᒪᒫᑳᔥᑳ	-10.5294
ᐃᔑᒋᑫᓰᒥᓐ	-10.5296
ᑮᑮᐌᐱᒫᑎᓯᐃᓐᒡ	-10.53
ᑾᔭᑴᓂ	-10.5302
ᐙᐸᑕᒪᓐ	-10.5304
ᑲᔥᑭᒋᑳᑌ	-10.5304
ᑕᒫᐹᓐ	-10.5304
ᑮᐃᑭᑐᓂᑯᐸᓀᓐ	-10.5304
ᐊᑐᓀᐊ	-10.5308
ᑮᐐᑕᒫᑰ	-10.5311
▁ᑳᐃᓀᑖᑾ	-10.5313
ᑎᓲᒪᑲ	-10.5315
ᑭᑫᓂᒥᑰᒃ	-10.5317
▁ᐃᔑᓇᒧᐎ	-10.5317
ᐐᒋᐃᑯᓰ	-10.5398
ᐅᑖᐱᓇᒧᐙᒡ	-10.5399
ᑭᑕᑭᒥ	-10.5429
ᑭᑭᓇᐙᐸᒥ	-10.5453
ᐗᓂᑭᑭᓄᐃᑫ	-10.5503
ᑮᓇᓈᑐ	-10.5543
ᐋᔕᐗᐊ	-10.5585
ᐴᓀᑕᒪᐎᓐ	-10.5751
ᐅᓈᐯᒥᒡ	-10.5922
ᐸᒋᑑᓰᓐ	-10.5987
▁ᑳᐋᓇᐌᓂᒥ	-10.6168
ᒥᓄᐃᔑᐌᐱᓯ	-10.6222
▁ᑳᐊᐲᑌᑖᑯᓯ	-10.6328
ᔥᑳᑯᓈᐙ	-10.6429
ᐐᒌᐎᑯᓂᒡ	-10.6431
▁ᑲᐸᕒᓂᔭ	-10.6672
ᐱᔑᒀᑎᓰ	-10.6672
ᑭᔑᓱᐙᐱᓀ	-10.6672
▁ᐸᕒᐃᓯᓬᐊ	-10.6672
▁ᑳᐅᓅᑕᒫᐎᓂ	-10.6672
▁ᑳᑭᑭᓄᐊᒪᐎ	-10.6672
▁ᓬᐁᔮᑎᓰ	-10.6672
▁ᓯᔮᑭᐃ	-10.6672
ᐹᐹᐗᐃᑫ	-10.6672
ᑌᐊᐲᑌᑖᑯᓯᓰ	-10.6672
ᑌᐺᔦᓂᒥᑰᐞ	-10.6672
ᑲᔥᑮᑎᐱᑲᒃ	-10.6672
ᒌᑲᑲᒥᑭᓯ	-10.6672
ᒥᓍᑎᓰᔑᑑᔦᒃ	-10.6672
ᒦᑴᒋᐌᓂᒥ	-10.6672
ᒪᓯᓇᐊᒪᐙ	-10.6672
ᒶᓯᓇᐋ	-10.6672
ᓃᑳᓇᑭᓱ	-10.6672
ᓵᑲᐊᒧᐙᒡ	-10.6672
▁ᐃᔥᑾᒋᑲᓇᓐ	-10.6672
▁ᐅᐸᒦᑖᑫ	-10.6672
▁ᐅᑎᓇᐌᒫᑲᓂ	-10.6672
▁ᐅᓵᑭᐃᐌᐎᓐ	-10.6672
▁ᐊᓇᒥᐁᐎᑲᒥᑯᑳᕽ	-10.6672
▁ᐊᔭᐋᐎᔕᐞ	-10.6672
▁ᐗᓯᑖᐎᓭ	-10.6672
▁ᐱᐁᓬᓯᐳᓬ	-10.6672
▁ᑎᑎᐲᑭᓂᑲᓂ	-10.6672
▁ᑭᐱᔥᑭᐗᓯᑲᓐ	-10.6672
▁ᑭᑑᔑᐲᐊᒫᑰᒻ	-10.6672
▁ᑭᒋᐅᓇᔓᐌᐎᑭᒫ	-10.6672
▁ᑭᓅᔐᐞ	-10.6672
▁ᑭᔥᑮᔑᑯᕽ	-10.6672
▁ᑮᑮᔑᒋᑳᑌ	-10.6672
▁ᑮᒫᒪᑳᑌᑕᒨᐞ	-10.6672
▁ᑮᒫᒪᑳᑌᑕᒨᒃ	-10.6672
▁ᑰᑰᔕᒃ	-10.6672
▁ᑳᐃᓇᑭᒋᑳᓱᒡ	-10.6672
▁ᑳᐃᔑᐲᐃᑳᑌᓂᒃ	-10.6672
▁ᑳᐅᑴᓄᓂᒡ	-10.6672
▁ᑳᑌᓴᐱᒡ	-10.6672
▁ᒋᐸᐹᒣᑕᓯ	-10.6672
▁ᒣᓂᑲᓈᐱᒃ	-10.6672
▁ᒥᑕᑎᒨᒃ	-10.6672
▁ᒫᒪᑳᒋᒋᑫᐎᓐ	-10.6672
▁ᓂᑯᑣᓯᒥᑕᓇ	-10.6672
ᐃᓈᓴᒥᑳᐸᐎ	-10.6672
ᑾᔮᒋᑕᒪ	-10.6672
ᓰᔮᐹᐗ	-10.6672
ᔀ	-10.6672
▁ᐁᐃᑭᑑᒪᑲᒃ	-10.6672
▁ᐌᑭᒫᐌᑖᑯᓯ	-10.6672
▁ᐐᓂᓯᓴᓐ	-10.6672
▁ᓭᓴᑰ	-10.6672
▁ᐊᑶᓬᐊ	-10.6672
▁ᐊᓄᑮᐋᑲᓇᐞ	-10.6672
▁ᔂᑕᒻ	-10.6672
▁ᐅᒌᒫᑲᓇᒃ	-10.6672
ᓰᑲᐊᑕᐎ	-10.6672
▁ᐅᑌᐺᔦᑕᒧᐎᓂᐙᕽ	-10.6672
▁ᐅᒪᒋᑑᑕᒨᒃ	-10.6672
▁ᑲᐯᑮᔑᒃ	-10.6672
ᓂᓵᐹᐌ	-10.6672
ᑖᓱᐎᑲᒥ	-10.6672
ᑕᔑᑕᒪᐎᓇᑰᒃ	-10.6672
▁ᐯᔓᓈᑾᓐ	-10.6672
▁ᑰᓯᓈᓐ	-10.6672
▁ᐅᑌᑌᓂ	-10.6672
▁ᑳᑾᔭᑾ	-10.6673
▁ᑭᑎᓀᑕᒧᐎᓂ	-10.6673
▁ᑮᐃᔑᐲᐃᑳᑌ	-10.6673
▁ᐅᔑᐲᐃᑫ	-10.6673
ᐋᐸᒋᑑᔦᒃ	-10.6673
ᐃᓀᑖᑾᓯᓅᓐ	-10.6673
ᒥᓍᑐᑌ	-10.6673
ᒋᐅᑌᐺᑕᒧ	-10.6673
ᑭᒋᐅᓈᑲᓂᕽ	-10.6673
ᑮᓇᑲᓂᑯᓂ	-10.6673
ᑌᐺᔦᑕᒥᓂᒡ	-10.6674
▁ᑯᒋᐃᑰᐎ	-10.6675
▁ᐊᑕᐌᑖᑯᓯ	-10.6675
ᐱᔅᑲᓀ	-10.6677
ᑮᐊᔓᑕᒫᑯ	-10.6678
▁ᑮᑕᑯᔑᓅ	-10.671
ᐃᔑᓂᑳᒋᑲᓂᐎ	-10.6711
ᑮᒋᑯᔥ	-10.6749
ᐅᑎᑎᓂᑯ	-10.6751
ᔕᐌᓂᒥᑯᐙ	-10.6762
ᐋᐸᒋᐋᓐ	-10.6765
ᑯᑖᓀᓂᒥ	-10.6767
▁ᐗᓂᑑᑕ	-10.6795
ᐱᑾᑎᓈᓂᒃ	-10.68
ᑲᑴᒋᒥᓂᓂᒻ	-10.6853
ᓂᔑᐗᓈᒋᐋ	-10.6887
ᑮᐊᐸᑑ	-10.699
ᑕᓀᑖᑯᓯ	-10.7019
ᐅᑖᐱᓇᒣᒃ	-10.7029
ᐱᒫᒋᐃᒥᓐᒡ	-10.7143
▁ᐁᑮᓇᓃᓵᓂ	-10.7233
ᑭᑭᓄᐃᑫᐙᒡ	-10.7237
▁ᐁᒦᑴᒋᐌᓂ	-10.7268
ᒋᑌᐺᑕᒨ	-10.728
ᐐᓯᓂᐗᒃ	-10.7379
ᐙᓭᔮᓯ	-10.7418
ᓂᔑᐗᓈᑕᒃ	-10.7523
ᓈᑎᓯᔦᒃ	-10.7634
ᓇᓃᓵᓂᓯ	-10.7655
ᓂᔑᐗᓈᑕᓐ	-10.775
ᑮᔑᓈᑯ	-10.7817
ᑭᑭᔥᑲᕽ	-10.7968
▁ᑳᐋᐸᒋᑑ	-10.8154
ᐊᓇᒥᐁᑕᒫ	-10.8238
ᐅᔑᐲᐊᒪᐎ	-10.8259
▁ᐃᔑᓂᔕᐊᒪ	-10.8267
▁ᑭᐴᔔᐃ	-10.827
ᐹᑭᑌᓇᒫ	-10.8275
ᓇᓃᓵᓀᑕ	-10.8275
▁ᒐᕒᐆᐗ	-10.8275
ᐃᓇᑲᒥᑲᒃ	-10.8275
ᐅᑕᑳᓀᓯᓂᒡ	-10.8275
ᐸᒀᓀᑲᒥᑯᕽ	-10.8275
ᑕᑶᔑᓂᓂᒡ	-10.8275
ᑭᑫᑖᑾᓯᓅᓐ	-10.8275
ᑭᒋᐅᔑᐲᐃᑫᐎᓂᕽ	-10.8275
ᑯᑖᓀᓂᒣᒃ	-10.8275
ᒨᔕᑭᓂᑫ	-10.8275
ᒫᒪᐐᓄᓂᒡ	-10.8275
ᔔᒥᓈᑎᑰ	-10.8275
▁ᐁᐃᓇᑭᒋᑳᓱᒡ	-10.8275
▁ᐃᔥᐸᑎᓈᓂᒃ	-10.8275
▁ᐅᐴᑖᒋᑲᓐ	-10.8275
▁ᐅᑎᓀᑕᒧᐎᓂᓂ	-10.8275
▁ᐅᑭᑭᔥᑭᑲᓂᐙᓐ	-10.8275
▁ᐅᑮᑲᓅᓂᑰᓐ	-10.8275
▁ᐅᑮᓇᑴᑖᑰᐞ	-10.8275
▁ᐅᑰᐹᓯᓈᑫᐎᓐ	-10.8275
▁ᐅᒪᓂᑑᒪᓐ	-10.8275
▁ᐅᔕᐌᒋᑫᐎᓂᕽ	-10.8275
▁ᐅᔥᑲᐱᓅᒌ	-10.8275
▁ᐊᑫᔮᐗᑮᕽ	-10.8275
▁ᐊᓈᒪᑲᒥᒃ	-10.8275
▁ᐊᔦᒀᒥ	-10.8275
▁ᐋᐃᑰᓂᔭ	-10.8275
▁ᐋᕒᑎᒪᔅ	-10.8275
▁ᐌᑯᓯᓯᒥ	-10.8275
▁ᐙᐱᔥᑮᑭᓅ	-10.8275
▁ᐯᔅᑕᓴᓐ	-10.8275
▁ᐱᒀᐎᑲᓀ	-10.8275
▁ᐲᑕᒪᐎᔑ	-10.8275
▁ᐸᐸᑴᐱᓈᒡ	-10.8275
▁ᐸᐹᒣᓂᒫ	-10.8275
▁ᐸᔑᐸᐃᑫᐎᑯᒫᓐ	-10.8275
▁ᑖᔥᑮᑭ	-10.8275
▁ᑫᐴᓂᓭᓯᓄᒃ	-10.8275
▁ᑭᐐᔭᐎᓈᓂᕽ	-10.8275
▁ᑭᐲᐌᓰᒪᒃ	-10.8275
▁ᑭᐸᐅᑏᐎ	-10.8275
▁ᑭᔕᐌᑖᑯᓯᒻ	-10.8275
▁ᑮᐋᓉᑕᒻ	-10.8275
▁ᑰᐹᓯᓇᐙ	-10.8275
▁ᑲᐯᑎᐱᒃ	-10.8275
▁ᑲᓬᐁᔑᔭ	-10.8275
▁ᑳᐅᑭᒫᑲᑖᑫ	-10.8275
▁ᑳᐱᒥᓭᑭᓐ	-10.8275
▁ᒀᕒᓃᓬᐃᔭᔅ	-10.8275
▁ᒋᒪᔥᑲᐌᑕᒥᓂᒡ	-10.8275
▁ᒥᓍᒋᒧᐎᓂᕽ	-10.8275
▁ᒪᓯᓇᐃᑲᓇᓐ	-10.8275
2	-10.9901
1	-11.226
ᑗ	-11.2465
3	-11.5358
ᓋ	-11.5559
ᒞ	-11.5637
)	-11.564
x	-12.014
.	-12.014
7	-12.8195
(	-12.8465
ᔡ	-12.8466
ᒍ	-12.8467
ᐾ	-12.8468
ᒸ	-12.8469
ᔪ	-12.847
ᔗ	-12.8471
X	-12.8472
ᒎ	-12.8473
Z	-12.8474
"	-12.8474
/	-12.8474
[	-12.8474
]	-12.8474
a	-12.8474
u	-12.8474
~	-12.8474
ᐧ	-12.8474
ᑡ	-12.8474
ᒒ	-12.8474
ᐼ	-12.8474
ᒑ	-12.8474
