<pad>	0
</s>	0
<unk>	0
¦	-1.19895
▁¦	-1.55432
▁	-3.10556
𐋇	-3.56121
▁,	-3.90379
o	-4.00954
s	-4.15693
ch	-4.23098
▁.	-4.68289
i	-4.71536
en	-4.86352
de	-4.92717
t	-5.15489
till	-5.17633
som	-5.21364
han	-5.23374
för	-5.35727
om	-5.47807
a	-5.49496
så	-5.50608
att	-5.52291
▁;	-5.7007
det	-5.75583
jag	-5.7566
r	-5.79389
▁:	-5.84638
den	-5.85707
på	-5.87057
er	-5.87849
skall	-5.89598
av	-5.91092
är	-5.91778
icke	-5.96906
herren	-5.97752
hon	-5.99399
n	-6.01002
med	-6.01664
𐊣	-6.0462
𐊼	-6.04621
du	-6.08279
har	-6.11906
▁»	-6.15789
dem	-6.18297
var	-6.22083
då	-6.22482
men	-6.26655
d	-6.28735
dig	-6.44494
l	-6.44526
mig	-6.462
upp	-6.51941
sig	-6.52196
där	-6.54584
sade	-6.55034
från	-6.55228
eder	-6.58288
ty	-6.59762
ut	-6.60582
▁.»	-6.61826
hade	-6.64131
it	-6.65012
e	-6.65504
k	-6.65507
na	-6.67503
över	-6.68938
g	-6.69676
när	-6.72315
nu	-6.75178
efter	-6.75591
ar	-6.76111
ett	-6.76908
gud	-6.7976
alla	-6.80291
åt	-6.81961
sin	-6.8334
vi	-6.83568
be	-6.84642
f	-6.85064
et	-6.87617
man	-6.88302
ock	-6.90564
min	-6.92389
in	-6.92684
se	-6.94263
vad	-6.96949
din	-6.97084
ja	-6.97875
m	-7.00025
israel	-7.00689
än	-7.02023
h	-7.0399
p	-7.04494
vid	-7.06759
allt	-7.10837
son	-7.11448
an	-7.14658
hava	-7.18195
komm	-7.21309
b	-7.23808
mot	-7.2405
st	-7.25725
eller	-7.27322
barn	-7.29917
dera	-7.30668
ta	-7.318
sina	-7.32034
da	-7.3323
ra	-7.33659
kola	-7.34682
må	-7.38184
hus	-7.4083
sk	-7.41112
re	-7.42232
vara	-7.43131
oss	-7.43272
v	-7.43316
ur	-7.44138
fram	-7.45177
tta	-7.47803
folk	-7.48987
gå	-7.51288
göra	-7.51598
genom	-7.52016
ö	-7.52258
mitt	-7.56317
vill	-7.56335
bliv	-7.56905
edan	-7.57344
konungen	-7.58012
land	-7.58795
el	-7.59108
äger	-7.5977
as	-7.60259
skulle	-7.61617
skol	-7.61966
es	-7.61979
sitt	-7.62377
ord	-7.63442
dina	-7.63556
kom	-7.6367
or	-7.64204
komma	-7.64221
bliva	-7.6469
under	-7.6545
vor	-7.65574
blev	-7.66616
konung	-7.67166
här	-7.67308
▁'	-7.68163
utan	-7.68548
are	-7.70055
ned	-7.70099
få	-7.70174
någon	-7.70505
väl	-7.71721
låt	-7.71918
ju	-7.72761
äro	-7.74303
bort	-7.76241
ande	-7.77583
lig	-7.7846
hör	-7.78517
henne	-7.79381
mer	-7.79943
dess	-7.80292
te	-7.81847
dessa	-7.8217
guds	-7.83633
het	-7.84404
dag	-7.84665
ingen	-7.8478
folket	-7.85451
bland	-7.85571
kan	-7.86011
herre	-7.86265
hand	-7.87089
därför	-7.87791
tid	-7.88102
hela	-7.88413
ditt	-7.89722
ka	-7.90337
mina	-7.9109
män	-7.91138
själv	-7.91856
stor	-7.92119
fader	-7.93026
andra	-7.93969
inför	-7.94102
giva	-7.94782
ning	-7.97316
jesu	-7.97716
jorden	-7.98501
svarade	-7.98552
tjänare	-7.98658
juda	-7.99702
söner	-8.008
å	-8.01304
y	-8.01351
arna	-8.02269
all	-8.02317
ma	-8.02321
vår	-8.04101
gick	-8.04867
lät	-8.05579
gjorde	-8.05807
ända	-8.06089
rätt	-8.06387
stå	-8.06519
david	-8.07584
år	-8.07747
någo	-8.0912
▁--	-8.09213
mose	-8.13051
-	-8.13279
▁?»	-8.13997
us	-8.1415
huru	-8.14356
gör	-8.14563
ej	-8.15348
vin	-8.16272
två	-8.17457
jerusalem	-8.17649
sa	-8.18528
namn	-8.18553
bo	-8.18929
edra	-8.19158
la	-8.19481
ga	-8.20027
gav	-8.21515
u	-8.21958
tt	-8.22813
säga	-8.23747
åter	-8.2381
gjort	-8.25246
sta	-8.25771
får	-8.26117
landet	-8.26645
stod	-8.27333
else	-8.30693
ögon	-8.30887
dagen	-8.32727
denna	-8.32766
låta	-8.32878
tog	-8.32893
hos	-8.33542
denne	-8.33867
▁!	-8.34101
ba	-8.34216
taga	-8.35066
liga	-8.36091
tro	-8.372
liv	-8.3806
höra	-8.38732
väg	-8.39179
lag	-8.39727
tillbaka	-8.41479
tag	-8.41511
dom	-8.41923
haven	-8.42754
jo	-8.42767
del	-8.42964
le	-8.43602
at	-8.44215
himmelen	-8.44334
går	-8.44976
håll	-8.45293
hundra	-8.46976
egypten	-8.47309
lika	-8.47552
hjärta	-8.48644
j	-8.48657
intet	-8.48657
hög	-8.49149
såg	-8.4965
stad	-8.50476
ansikte	-8.5053
ha	-8.50643
ick	-8.51245
samma	-8.51453
ste	-8.51472
talade	-8.5196
kor	-8.52427
tala	-8.52725
huvud	-8.52971
bröder	-8.5313
ne	-8.53187
emot	-8.53868
tre	-8.55086
skull	-8.55106
kring	-8.55293
tusen	-8.56939
fråga	-8.57671
dit	-8.57824
bud	-8.57869
lik	-8.58332
hålla	-8.58451
dö	-8.60038
äta	-8.60399
vär	-8.60415
råd	-8.61223
mycke	-8.6184
kunna	-8.61886
offer	-8.62
sådan	-8.62429
åstad	-8.62442
am	-8.6266
staden	-8.63305
många	-8.63397
sände	-8.63822
vet	-8.64139
kvar	-8.6453
dagar	-8.64941
bet	-8.65674
va	-8.65859
allena	-8.65986
finne	-8.66031
hem	-8.66372
strid	-8.6705
givit	-8.67245
pa	-8.67287
um	-8.67682
ro	-8.68043
erna	-8.68701
nåd	-8.68789
eld	-8.69112
svärd	-8.6937
hustru	-8.70177
sju	-8.70195
blod	-8.70424
sammans	-8.70425
döda	-8.70627
vatten	-8.70705
ren	-8.70783
städer	-8.71327
ig	-8.72478
vilken	-8.74342
red	-8.74479
röst	-8.74788
vem	-8.75527
fäder	-8.75662
im	-8.75694
synd	-8.76026
agt	-8.76174
drag	-8.76479
gång	-8.7656
säg	-8.76572
slag	-8.79005
hörde	-8.79447
måste	-8.79491
älska	-8.7973
ve	-8.8123
saul	-8.81826
syn	-8.82434
äck	-8.8244
prästen	-8.82512
människor	-8.82814
verk	-8.83253
guld	-8.83268
frukt	-8.83314
ns	-8.83439
sätt	-8.83625
före	-8.83766
jakob	-8.83971
ad	-8.84008
vare	-8.8401
ge	-8.84084
mun	-8.84504
tal	-8.84512
lade	-8.84768
förde	-8.84784
djur	-8.85186
satte	-8.85345
ing	-8.85451
fem	-8.86102
broder	-8.86161
mannen	-8.86175
for	-8.87305
sten	-8.87895
bära	-8.88125
händer	-8.884
ken	-8.88462
våra	-8.88493
föra	-8.89003
fast	-8.89434
ska	-8.8999
me	-8.90369
däri	-8.90707
full	-8.90733
bjud	-8.90865
moder	-8.91382
träd	-8.91728
plats	-8.92258
ära	-8.92357
iterna	-8.92715
je	-8.936
br	-8.93622
van	-8.94192
tiden	-8.94228
str	-8.95064
vrede	-8.95177
nad	-8.95408
vilja	-8.9565
vän	-8.95704
tänk	-8.95902
ung	-8.95962
fall	-8.96313
vilka	-8.9652
und	-8.96521
nde	-8.96821
rätta	-8.96902
skap	-8.9702
både	-8.97462
ll	-8.97707
död	-8.98168
ville	-8.98673
aron	-8.98773
fri	-8.99018
födde	-8.99067
draga	-8.99323
bröd	-9.00489
vände	-9.00504
huset	-9.00641
sam	-9.00856
rättfärdighet	-9.00998
tron	-9.01578
il	-9.01841
rus	-9.02223
stam	-9.02248
heliga	-9.02288
öv	-9.02778
offra	-9.03292
gott	-9.03298
själ	-9.03676
sak	-9.04188
inne	-9.04335
slut	-9.0444
människa	-9.04467
kunde	-9.04472
▁.'	-9.04579
gingo	-9.04768
nnerlig	-9.05688
makt	-9.07052
först	-9.07985
nämlig	-9.08076
fly	-9.08102
vandra	-9.08259
kropp	-9.08384
gen	-9.08614
lar	-9.0889
föll	-9.08999
havet	-9.09033
leva	-9.09044
låg	-9.09575
männen	-9.09626
kristus	-9.09635
tjugu	-9.09931
ske	-9.10495
giver	-9.10521
mar	-9.1056
iga	-9.1066
visa	-9.10803
rik	-9.10933
tio	-9.11326
fl	-9.11375
idan	-9.11613
evig	-9.11653
akta	-9.11685
gått	-9.11995
hel	-9.12085
finna	-9.12151
bi	-9.12164
vända	-9.12966
ighet	-9.12985
fyra	-9.13101
annan	-9.13106
morgon	-9.13423
kraft	-9.13423
drog	-9.13547
akt	-9.13877
nas	-9.13943
framför	-9.14213
bar	-9.14364
ke	-9.14382
frukta	-9.14567
dotter	-9.15057
rike	-9.15061
c	-9.1524
veta	-9.15584
mån	-9.15704
räck	-9.15862
båda	-9.15974
kläder	-9.16056
hit	-9.16329
gärningar	-9.16629
ställe	-9.1664
salomo	-9.16712
ran	-9.16785
höj	-9.17235
silver	-9.17715
jäm	-9.17746
far	-9.17956
ont	-9.18296
fyll	-9.18731
förbund	-9.18732
konungar	-9.18848
lämna	-9.1929
tjäna	-9.19301
lova	-9.19605
jämt	-9.19727
sätta	-9.1991
hjälp	-9.20104
igen	-9.20174
pet	-9.20206
fing	-9.20307
höll	-9.2045
sång	-9.20474
bor	-9.2049
rädda	-9.21145
bär	-9.21171
kalla	-9.21693
ed	-9.23126
nej	-9.23165
undan	-9.23394
lång	-9.23619
slog	-9.23981
lägga	-9.24038
ack	-9.24266
tjänst	-9.24271
skaffa	-9.24338
slå	-9.24706
farao	-9.25243
dan	-9.25699
onda	-9.26185
orna	-9.26292
änt	-9.27336
sebaot	-9.28007
talat	-9.28193
vägen	-9.29141
varandra	-9.29148
▁»,	-9.29183
led	-9.29539
stra	-9.29645
berg	-9.29888
arvedel	-9.30276
helig	-9.30721
rän	-9.30778
medan	-9.31005
altaret	-9.31056
lös	-9.31366
kött	-9.31438
säd	-9.31817
kar	-9.32425
mellan	-9.32597
öknen	-9.32597
babel	-9.32597
fann	-9.32605
församling	-9.33383
kasta	-9.33532
stör	-9.34214
prästerna	-9.34664
ljus	-9.35222
bred	-9.35303
josef	-9.35778
filistéerna	-9.35781
kallade	-9.36354
glädje	-9.36589
någ	-9.36815
marken	-9.36826
abraham	-9.36998
hämta	-9.36998
has	-9.37066
hop	-9.37291
ant	-9.37374
bör	-9.37414
ryck	-9.37567
ab	-9.37721
döttrar	-9.37819
fiender	-9.37931
förkunna	-9.38016
följ	-9.38465
trä	-9.38498
mod	-9.38524
sönder	-9.38647
fötter	-9.38911
fåt	-9.39183
stark	-9.39196
skriv	-9.39268
länge	-9.39473
härlighet	-9.39482
söka	-9.39852
ängel	-9.40182
lott	-9.40236
falla	-9.40357
runt	-9.4075
god	-9.41068
hjärtan	-9.41624
rop	-9.42004
davids	-9.42031
bön	-9.42034
alnar	-9.42461
krig	-9.42464
välsigna	-9.42472
kvinnor	-9.42894
döden	-9.4302
giv	-9.43106
bedj	-9.43296
helga	-9.43666
brännoffer	-9.43765
världen	-9.44205
un	-9.44342
barns	-9.44553
gar	-9.44671
släkte	-9.44767
bodde	-9.45099
ena	-9.45163
arbete	-9.4519
gudar	-9.45329
sjun	-9.46105
folken	-9.46133
togo	-9.4626
ropade	-9.46342
sex	-9.46474
fång	-9.46505
vart	-9.46679
rena	-9.46815
nöd	-9.47079
dal	-9.47197
missgärning	-9.47436
förut	-9.47738
fot	-9.47847
josua	-9.4824
leviterna	-9.4824
ny	-9.48655
▁!»	-9.48703
släkt	-9.48723
kvinna	-9.48777
gat	-9.48929
bad	-9.49172
ul	-9.49304
kärlek	-9.49623
natten	-9.49726
bygg	-9.50456
tagit	-9.50491
äldste	-9.50555
furstar	-9.51497
given	-9.51498
ber	-9.51636
grund	-9.51981
dricka	-9.52083
lagen	-9.52236
olja	-9.53443
lamm	-9.53568
öppna	-9.54476
högtid	-9.5461
lid	-9.54736
lov	-9.54966
olv	-9.55053
lägra	-9.55352
följde	-9.5552
frid	-9.556
moab	-9.55847
ningen	-9.56172
begär	-9.5685
sky	-9.56966
asa	-9.57158
räkna	-9.57338
våld	-9.57338
sök	-9.57499
grip	-9.57841
månaden	-9.57846
hopp	-9.57865
jordan	-9.57919
samla	-9.58024
kläd	-9.58297
dörr	-9.58353
ligga	-9.58519
bröt	-9.58854
jord	-9.5913
porten	-9.5923
ären	-9.59269
skam	-9.59335
tredje	-9.59363
mått	-9.59363
goda	-9.59407
par	-9.60259
lit	-9.60669
känna	-9.60763
vittnesbörd	-9.60909
fara	-9.61234
stånd	-9.61384
vakt	-9.61495
arm	-9.61514
besittning	-9.61954
mat	-9.62367
fjär	-9.62481
anden	-9.62559
läng	-9.62588
talar	-9.62898
ligge	-9.63024
rör	-9.63105
olycka	-9.63113
berget	-9.63154
ben	-9.6379
gammal	-9.63863
andre	-9.63922
kal	-9.64475
ytter	-9.65154
trettio	-9.65157
grav	-9.6532
ark	-9.65345
annat	-9.6553
efraim	-9.65697
behag	-9.65706
järn	-9.65713
bygga	-9.66055
lever	-9.66245
köp	-9.66257
evi	-9.66331
stöt	-9.66335
driv	-9.66416
benjamin	-9.66794
länder	-9.66794
gåvo	-9.67049
mur	-9.6706
känn	-9.67514
sorg	-9.67676
träl	-9.67878
snar	-9.67905
vishet	-9.67912
hår	-9.68105
steg	-9.68189
altare	-9.68246
ställde	-9.68294
färd	-9.6876
tempel	-9.69022
ropa	-9.69051
lägg	-9.69491
levande	-9.70182
förstånd	-9.7049
vägar	-9.70678
sabbat	-9.7073
lär	-9.71085
tecken	-9.71301
boskap	-9.71362
fatta	-9.71561
ldrig	-9.71879
judarna	-9.71885
edert	-9.72861
kön	-9.73001
styggelse	-9.73045
sanning	-9.73148
fruktan	-9.73173
stadgar	-9.73662
kär	-9.74148
begynte	-9.74225
ogudaktiga	-9.74225
lat	-9.74524
krist	-9.74791
fröjd	-9.74821
befallning	-9.74839
mål	-9.74905
ram	-9.75049
synder	-9.75709
drogo	-9.75792
ting	-9.75796
sal	-9.75905
sion	-9.76045
abi	-9.76103
sådana	-9.76163
släkter	-9.76428
utval	-9.76635
frälsning	-9.76675
iel	-9.76746
egen	-9.77102
ringa	-9.77122
norr	-9.77361
sido	-9.77407
sida	-9.77537
ställ	-9.77565
uk	-9.78026
fördärva	-9.78053
alt	-9.7806
app	-9.78412
stycken	-9.7844
vattnet	-9.78469
éerna	-9.78476
livet	-9.78895
fyrtio	-9.7909
koppar	-9.7909
övriga	-9.7909
utrota	-9.7909
ax	-9.79206
bok	-9.79488
funno	-9.7971
vila	-9.79762
hedningarna	-9.79768
femtio	-9.79866
lärjungar	-9.802
hugg	-9.80343
skuld	-9.80351
uppstå	-9.80507
ull	-9.80685
vädur	-9.80976
gräns	-9.8098
gäll	-9.81613
ahas	-9.81619
baal	-9.81634
fattig	-9.81692
förstå	-9.82156
profeten	-9.82292
trädde	-9.82893
bjöd	-9.829
tänkte	-9.83051
väx	-9.83549
öde	-9.83561
stycke	-9.83979
bl	-9.84011
träffa	-9.84203
manasse	-9.84204
djup	-9.84251
kvinnan	-9.84749
levi	-9.84836
bestäm	-9.8486
afton	-9.84864
boning	-9.85055
uppenbara	-9.85261
lejon	-9.85523
trösta	-9.85856
lys	-9.8615
förnimma	-9.86189
skörd	-9.86193
jeremia	-9.8686
mäktig	-9.8686
område	-9.86864
x	-9.86957
lagt	-9.87509
följa	-9.87516
spisoff	-9.87539
uppenbarelsetält	-9.88216
penningar	-9.88217
krossa	-9.88217
flykt	-9.88226
sinne	-9.88341
stenar	-9.88563
iska	-9.88678
lära	-9.88784
gilead	-9.88901
heter	-9.88938
märk	-9.89062
lyd	-9.89109
ege	-9.89267
samuel	-9.90285
tält	-9.90285
rygg	-9.90285
kam	-9.90424
yck	-9.90432
vänd	-9.90433
hustrur	-9.90604
häng	-9.9067
ub	-9.90895
fullborda	-9.90986
vingård	-9.90991
joab	-9.91027
sjuk	-9.91173
tåg	-9.91242
mästare	-9.91689
fördärv	-9.91953
viss	-9.9205
träng	-9.92503
vore	-9.92638
bitt	-9.92859
edom	-9.92907
pel	-9.92991
bild	-9.93114
gad	-9.93667
solen	-9.93839
kärl	-9.93906
helgedomen	-9.94196
hata	-9.94505
löfte	-9.94556
människorna	-9.94593
öster	-9.94942
profet	-9.94944
kastade	-9.95171
straff	-9.95269
johann	-9.95319
åker	-9.9532
föda	-9.95875
mörk	-9.9602
▁',	-9.96042
ppa	-9.96053
ham	-9.96058
'»	-9.96299
hästar	-9.96762
floden	-9.96775
isak	-9.96819
lön	-9.96834
ahi	-9.96857
slakta	-9.97515
gån	-9.97558
glad	-9.9767
behöv	-9.97764
vänner	-9.98265
dog	-9.98398
portar	-9.98524
året	-9.98566
byggde	-9.98682
träda	-9.98687
fött	-9.99297
nog	-9.99422
stort	-9.99594
fäste	-9.99749
hiskia	-9.99782
byte	-9.99782
gråt	-9.99861
hopa	-10.0011
mjöl	-10.0055
skyldig	-10.0055
lust	-10.0059
stammar	-10.0059
fadern	-10.0068
rättfärdiga	-10.0112
församlade	-10.0116
sitta	-10.013
ammon	-10.0133
rättfärdig	-10.0149
läger	-10.0151
profeterna	-10.0152
stannade	-10.0158
skara	-10.016
stund	-10.0168
rent	-10.0178
stäng	-10.0192
namnet	-10.0197
platsen	-10.0207
regering	-10.0211
brän	-10.028
tionde	-10.0282
förviss	-10.0282
skåda	-10.0289
frälsa	-10.0301
utgjut	-10.0302
skrift	-10.0369
inga	-10.042
bättre	-10.0449
innan	-10.0458
bringa	-10.0461
efa	-10.0473
arbeta	-10.0474
döm	-10.0497
skrive	-10.0499
elia	-10.0503
jonatan	-10.053
unga	-10.0569
aul	-10.061
utgjorde	-10.063
samt	-10.0643
lyssna	-10.065
egna	-10.066
gåva	-10.0663
lägre	-10.0693
bevara	-10.0727
profetera	-10.0748
gjut	-10.0767
nästa	-10.0775
skänk	-10.0776
vild	-10.0806
bränna	-10.0811
unda	-10.086
högr	-10.0893
upphöj	-10.0896
regn	-10.0899
helige	-10.0919
tunga	-10.0936
hjord	-10.0944
kunn	-10.0948
funnit	-10.0949
döma	-10.1037
högt	-10.1045
vagnar	-10.1046
profeter	-10.107
syster	-10.1113
bergen	-10.1118
himmel	-10.1122
bak	-10.1147
präst	-10.1179
spr	-10.1182
just	-10.1196
evangeli	-10.1199
regera	-10.1199
stig	-10.1235
lösa	-10.1247
mark	-10.1275
gånger	-10.128
ställa	-10.1283
predika	-10.1286
undervisa	-10.131
stån	-10.132
illa	-10.1333
vilket	-10.1374
förbanna	-10.1374
sökte	-10.1389
miss	-10.1396
läppar	-10.1462
fåglar	-10.1462
drev	-10.1463
fasta	-10.1467
hövdingar	-10.1467
slagna	-10.1521
främmande	-10.1552
levde	-10.1553
stanna	-10.1556
präster	-10.1562
bevisa	-10.159
hov	-10.1593
lyft	-10.1606
prisa	-10.162
flydde	-10.1643
rättfärdige	-10.1645
öken	-10.165
särskil	-10.167
driva	-10.1717
siklar	-10.1731
ahab	-10.1734
föd	-10.1789
klippa	-10.1791
hövding	-10.1818
kunskap	-10.1824
utmarker	-10.1824
göm	-10.1825
lukt	-10.1825
syndoffer	-10.1832
stiga	-10.1856
hud	-10.1873
fäll	-10.1916
absalom	-10.1917
sköld	-10.1917
invånare	-10.1924
församla	-10.1932
bord	-10.194
köttet	-10.1942
aft	-10.1973
följande	-10.2022
böj	-10.211
bryta	-10.2171
familjer	-10.2182
lögn	-10.22
dröm	-10.22
mätta	-10.22
släpp	-10.22
människobarn	-10.2206
begrav	-10.2219
vilj	-10.222
é	-10.2294
vagn	-10.2298
borg	-10.2301
resa	-10.2303
förgät	-10.2317
barmhärtighet	-10.2395
försoning	-10.2396
främling	-10.2416
gamla	-10.2471
jerobeam	-10.2491
ödmjuk	-10.2491
räckte	-10.2503
likna	-10.2533
domare	-10.2558
sela	-10.2561
sked	-10.257
bergsbygd	-10.259
esau	-10.2595
öga	-10.2627
samman	-10.2637
aram	-10.2639
fäkreatur	-10.269
fångenskap	-10.269
drabba	-10.269
vittne	-10.2691
;	-10.2759
mal	-10.277
berömm	-10.2791
hölj	-10.2791
skynda	-10.2791
basun	-10.2791
rökelse	-10.2793
kis	-10.283
otukt	-10.2893
brunn	-10.2893
öron	-10.2894
egyptierna	-10.29
ljest	-10.2906
pris	-10.2922
gåvor	-10.2925
port	-10.2989
falsk	-10.2996
sjuttio	-10.2996
skjut	-10.3002
syndat	-10.3007
störta	-10.3024
hor	-10.3064
frälst	-10.309
avgudar	-10.3095
mika	-10.312
lyfte	-10.3142
antal	-10.3241
väv	-10.3312
ingången	-10.3313
seger	-10.3314
samaria	-10.3314
uppteckna	-10.3318
horn	-10.3339
änglar	-10.342
kanaan	-10.342
elisa	-10.3421
klädnad	-10.3426
tacka	-10.3435
överlämna	-10.3459
pelar	-10.3495
bind	-10.3515
offret	-10.3528
bäva	-10.3528
tabernaklet	-10.3528
stoft	-10.3529
fängelse	-10.3529
tukta	-10.3529
handla	-10.3539
blind	-10.3544
kerub	-10.355
vek	-10.3595
ssia	-10.3628
strömma	-10.3638
bäcken	-10.3639
sörj	-10.3639
mantel	-10.364
gjorda	-10.364
plåga	-10.3642
rikedom	-10.3648
befall	-10.3654
ruben	-10.3728
hälft	-10.3749
inbyggare	-10.3749
förståndig	-10.3815
fiende	-10.3841
häpna	-10.3862
förtryck	-10.3863
torka	-10.3866
lärjungarna	-10.3893
visste	-10.3896
josafat	-10.3975
ogudaktige	-10.3975
skål	-10.3977
skaror	-10.3981
brev	-10.3983
åkalla	-10.4065
sköt	-10.4067
dräkt	-10.409
druck	-10.409
dräpa	-10.409
skri	-10.4095
gil	-10.4125
gräs	-10.4207
slöt	-10.4207
ålder	-10.4208
söder	-10.4208
buro	-10.4209
trolös	-10.4248
'	-10.4276
inmönstrade	-10.4324
ondska	-10.4324
överträdelse	-10.4324
jubel	-10.4325
förgården	-10.4325
båg	-10.433
vingar	-10.4334
andar	-10.4365
vänta	-10.4383
född	-10.4397
hövitsman	-10.4443
vedergäll	-10.4443
ugn	-10.4463
färdig	-10.4517
assyrien	-10.4564
fält	-10.4564
väsende	-10.4564
välbehaglig	-10.4564
beslut	-10.4607
främlingar	-10.4657
trösk	-10.4686
förlossa	-10.4686
skicka	-10.4687
daniel	-10.4688
förblive	-10.476
amoréerna	-10.4809
smäda	-10.4809
människosonen	-10.4809
mörkret	-10.4809
fursten	-10.4832
öpp	-10.4914
plantera	-10.4934
moln	-10.4934
tankar	-10.4935
give	-10.5013
hövitsmän	-10.5061
smälek	-10.5061
grep	-10.5061
enlighet	-10.5062
blotta	-10.5063
dräpte	-10.51
blygd	-10.5172
beständig	-10.5189
pläga	-10.5189
sjön	-10.5189
vittna	-10.5189
förskräckt	-10.5191
ofta	-10.5199
välsignelse	-10.5319
simon	-10.5319
berättade	-10.532
förstfödde	-10.5325
varder	-10.5332
stöd	-10.5352
människo	-10.5414
murar	-10.5427
förbannelse	-10.5451
förtälj	-10.5451
hebron	-10.5451
gyll	-10.5451
skepp	-10.5453
förbarma	-10.5454
spott	-10.5455
lite	-10.5468
nytt	-10.5487
yng	-10.5541
kände	-10.5555
dol	-10.5561
dödsriket	-10.5584
evärdlig	-10.5584
förskräckelse	-10.5584
jungfru	-10.5584
slaktoffer	-10.5584
avdelning	-10.5584
kunnig	-10.5603
eleasar	-10.5719
gift	-10.5719
trampa	-10.5719
förfära	-10.572
svag	-10.5742
trodde	-10.5744
förtörna	-10.5856
konst	-10.5856
sextio	-10.5859
båd	-10.5964
gensträvig	-10.5995
skurna	-10.5995
styrk	-10.5996
ostrafflig	-10.5998
föröka	-10.5999
blick	-10.6
skog	-10.6036
smörj	-10.6136
förtörnelse	-10.6136
libanon	-10.6136
glöd	-10.6136
herde	-10.6167
uppenbar	-10.6192
örn	-10.621
hjältar	-10.6279
höjderna	-10.6279
myckenhet	-10.6279
klok	-10.6279
hals	-10.6281
tjurar	-10.6417
smorde	-10.6424
tjän	-10.6454
kaldéerna	-10.6571
sikem	-10.6571
spjut	-10.6571
åsnor	-10.6571
orter	-10.658
ödemark	-10.6624
furste	-10.6692
midjan	-10.672
)	-10.672
dyrbar	-10.672
väster	-10.672
hunger	-10.672
törst	-10.6771
drick	-10.6784
egg	-10.6785
abba	-10.6812
lycka	-10.6842
begynn	-10.6871
glädja	-10.6871
skugga	-10.6871
skriftlärde	-10.6871
brutit	-10.6871
abimelek	-10.6872
person	-10.6872
drickoffer	-10.6873
helgedom	-10.6945
torr	-10.6947
hungersnöd	-10.7025
herrar	-10.7025
psalm	-10.7025
vilse	-10.7026
araméerna	-10.7026
fariséerna	-10.7026
våg	-10.7029
byar	-10.7029
betryck	-10.7032
galileen	-10.7181
tungomål	-10.7181
jeriko	-10.7182
eldsoffer	-10.7182
frimodig	-10.7182
gry	-10.7182
gagn	-10.7198
jehu	-10.7291
tillstäd	-10.734
grön	-10.734
bruka	-10.7341
trakt	-10.7404
möda	-10.75
avkomlingar	-10.7501
bedrövelse	-10.7501
sidkia	-10.7501
tackoffer	-10.7501
herdar	-10.7502
brännoffre	-10.7502
abner	-10.7502
blås	-10.7503
blyg	-10.7523
bryt	-10.755
bileam	-10.7665
grät	-10.7665
ångest	-10.7665
översteprästerna	-10.7665
skilja	-10.7665
damask	-10.7665
åsna	-10.7669
ester	-10.7676
brinn	-10.7699
dräpt	-10.7781
fåfänglighet	-10.7832
förvandla	-10.7832
palats	-10.7832
vakna	-10.7832
basan	-10.7834
gossen	-10.7835
abram	-10.7835
,	-10.7862
spän	-10.7936
hemsökelse	-10.8002
mordokai	-10.8002
trofasthet	-10.8002
snö	-10.8021
betyde	-10.8044
mätte	-10.8174
oförnuft	-10.8174
timm	-10.826
nadab	-10.8348
hämnd	-10.8349
nebukadnessar	-10.8349
nämn	-10.8349
jojada	-10.8349
trött	-10.835
kammare	-10.8352
pest	-10.8353
täcke	-10.8488
apostlar	-10.8528
allsmäktige	-10.8528
försmäkta	-10.8528
ismael	-10.8528
yngling	-10.8528
dölj	-10.8543
skild	-10.8557
topp	-10.8683
funn	-10.8699
maria	-10.871
gästabud	-10.871
plundra	-10.871
ryttare	-10.871
sadok	-10.871
dröj	-10.871
småboskap	-10.871
josia	-10.871
natan	-10.8727
fåfäng	-10.8895
simeon	-10.8895
drottning	-10.8895
kananéerna	-10.8895
hemlighet	-10.8895
vackla	-10.8895
övertäck	-10.8897
oxar	-10.8921
bedröva	-10.9084
främst	-10.9084
hednafolk	-10.9084
källa	-10.9084
felfri	-10.9084
förstling	-10.9086
hadad	-10.9088
herod	-10.9088
korsfäst	-10.9092
brist	-10.9093
oxe	-10.916
rök	-10.9247
överflöd	-10.9276
möte	-10.9276
efod	-10.928
halv	-10.9281
iakttag	-10.9305
krets	-10.9384
förskingra	-10.9472
rykte	-10.9472
amalek	-10.9472
bättring	-10.9472
ljuvlig	-10.9472
naftali	-10.9472
rehabeam	-10.9472
pryd	-10.9472
förlora	-10.9472
tjänstgöring	-10.9472
fräls	-10.9647
begrov	-10.9672
ihjäl	-10.9672
syssl	-10.9672
tjänarinna	-10.9672
druv	-10.9672
eländig	-10.9672
nalka	-10.9673
fiskar	-10.9675
fjorton	-10.9876
hydda	-10.9876
jisreel	-10.9876
väpna	-10.9876
liknelse	-10.9876
åminnelse	-10.9876
mörkblå	-10.9876
rakel	-10.9876
asarja	-10.9877
förundra	-10.9879
göt	-10.9881
dyrka	-10.9992
sebulon	-11.0084
upphäv	-11.0084
gibea	-11.0085
kameler	-11.0085
vunn	-11.0085
himla	-11.0091
löp	-11.0097
årsgam	-11.0212
törne	-11.0217
sjätte	-11.0297
skändlig	-11.0297
tänder	-11.0297
ståndaktig	-11.0298
kyss	-11.0339
ljusstaken	-11.0515
templet	-11.0515
vålla	-11.0515
vederfar	-11.0515
stolt	-11.0516
hövdingdöme	-11.0517
närmast	-11.0537
förnämst	-11.0737
fikonträd	-11.0737
gibeon	-11.0737
gideon	-11.0737
krönika	-11.0737
begynnelsen	-11.0737
ståthållar	-11.0737
fågel	-11.0737
lopp	-11.0746
jubla	-11.076
simei	-11.077
»	-11.4145
2	-11.7556
0	-11.8487
:	-12.5714
!	-12.8075
6	-12.8535
1	-12.9964
ó	-13.1631
9	-13.1631
3	-13.3631
5	-13.3631
7	-13.3631
í	-13.6131
]	-14.4464
8	-15.4459
4	-15.446
(	-15.4461
?	-15.4462
.	-15.4463
á	-15.4464
ä	-15.4464
