<pad>	0
</s>	0
<unk>	0
▁d	-0
▁s	-1
▁c	-2
er	-3
no	-4
▁p	-5
▁a	-6
▁i	-7
▁l	-8
re	-9
to	-10
▁e	-11
▁di	-12
el	-13
ra	-14
ti	-15
on	-16
▁m	-17
li	-18
te	-19
ri	-20
ro	-21
an	-22
▁f	-23
ta	-24
en	-25
▁v	-26
▁t	-27
▁il	-28
gli	-29
ia	-30
la	-31
io	-32
ss	-33
he	-34
▁la	-35
qu	-36
uo	-37
▁del	-38
▁in	-39
▁S	-40
▁per	-41
un	-42
▁co	-43
al	-44
▁g	-45
▁n	-46
es	-47
▁che	-48
▁no	-49
▁al	-50
▁qu	-51
▁con	-52
ar	-53
ch	-54
do	-55
va	-56
in	-57
lo	-58
co	-59
gno	-60
▁o	-61
▁tu	-62
▁Si	-63
▁le	-64
▁lo	-65
▁un	-66
▁I	-67
le	-68
po	-69
▁po	-70
me	-71
gnore	-72
▁non	-73
▁D	-74
▁si	-75
▁Signore	-76
▁su	-77
ci	-78
mo	-79
▁ri	-80
▁G	-81
tto	-82
ca	-83
▁se	-84
▁so	-85
di	-86
▁A	-87
▁pa	-88
▁de	-89
da	-90
ce	-91
de	-92
▁da	-93
▁re	-94
▁h	-95
era	-96
▁fi	-97
▁ca	-98
▁vi	-99
▁b	-100
se	-101
▁«	-102
st	-103
za	-104
ere	-105
▁vo	-106
▁E	-107
▁nel	-108
▁è	-109
ve	-110
▁ma	-111
tti	-112
ché	-113
sa	-114
▁loro	-115
▁te	-116
▁an	-117
vi	-118
▁sa	-119
▁suo	-120
▁M	-121
sse	-122
▁mi	-123
▁fa	-124
▁figli	-125
mp	-126
▁gli	-127
▁ci	-128
▁C	-129
mi	-130
one	-131
ui	-132
▁Dio	-133
zi	-134
ma	-135
tà	-136
gg	-137
ero	-138
iu	-139
▁pre	-140
▁me	-141
ni	-142
▁P	-143
si	-144
na	-145
▁ha	-146
or	-147
vo	-148
▁dal	-149
ran	-150
rono	-151
▁della	-152
▁pi	-153
▁perché	-154
bi	-155
▁ques	-156
▁come	-157
tro	-158
▁pro	-159
bb	-160
▁dei	-161
▁ne	-162
tte	-163
▁tuo	-164
so	-165
▁u	-166
ando	-167
sto	-168
▁gio	-169
ne	-170
anno	-171
ele	-172
sso	-173
ssi	-174
pi	-175
erà	-176
min	-177
hi	-178
▁una	-179
▁sono	-180
sra	-181
▁era	-182
tta	-183
▁N	-184
ale	-185
▁do	-186
eri	-187
▁man	-188
▁ave	-189
▁quel	-190
anti	-191
vano	-192
sc	-193
cco	-194
▁li	-195
che	-196
gi	-197
▁L	-198
ssa	-199
▁mo	-200
▁ti	-201
men	-202
▁io	-203
▁disse	-204
▁Isra	-205
sti	-206
pp	-207
▁sta	-208
▁alla	-209
tra	-210
▁sua	-211
▁ter	-212
▁mio	-213
▁sul	-214
chi	-215
▁popo	-216
▁tutti	-217
cc	-218
Qu	-219
▁figlio	-220
▁av	-221
fi	-222
▁Il	-223
▁fu	-224
cca	-225
go	-226
▁gior	-227
▁par	-228
rà	-229
▁ven	-230
▁B	-231
▁voi	-232
zione	-233
erò	-234
oni	-235
▁sp	-236
ese	-237
arà	-238
▁Qu	-239
▁suoi	-240
con	-241
tu	-242
anto	-243
▁T	-244
▁Ma	-245
zz	-246
ene	-247
tre	-248
enza	-249
▁popolo	-250
ru	-251
▁sac	-252
que	-253
▁lui	-254
tel	-255
▁ai	-256
▁giu	-257
▁por	-258
ul	-259
ff	-260
ue	-261
▁Al	-262
▁nella	-263
lora	-264
ga	-265
▁uo	-266
▁vost	-267
▁sc	-268
ranno	-269
▁fra	-270
▁questo	-271
▁F	-272
zia	-273
▁ris	-274
sì	-275
gni	-276
sco	-277
zza	-278
▁chi	-279
▁tra	-280
▁Giu	-281
sci	-282
▁più	-283
▁fe	-284
ven	-285
▁terra	-286
dre	-287
ba	-288
▁Da	-289
▁sarà	-290
tt	-291
▁dell	-292
▁contro	-293
ggi	-294
▁ser	-295
▁ra	-296
▁Israele	-297
ria	-298
tor	-299
▁aveva	-300
▁col	-301
sta	-302
▁ver	-303
▁egli	-304
▁paese	-305
▁com	-306
▁tua	-307
eli	-308
ttà	-309
rai	-310
▁città	-311
▁ho	-312
▁R	-313
▁tutto	-314
▁for	-315
ron	-316
ente	-317
iamo	-318
▁casa	-319
esti	-320
▁pri	-321
ani	-322
▁O	-323
▁ad	-324
eranno	-325
▁mia	-326
endo	-327
fa	-328
▁giorno	-329
▁paro	-330
du	-331
zzo	-332
oi	-333
ini	-334
uno	-335
mini	-336
▁anche	-337
▁ve	-338
elo	-339
▁degli	-340
▁poi	-341
▁dav	-342
gna	-343
▁pe	-344
▁nost	-345
▁Per	-346
▁Mo	-347
▁davanti	-348
».	-349
vide	-350
enti	-351
▁quando	-352
▁delle	-353
rio	-354
▁ch	-355
▁Davide	-356
▁Io	-357
▁Non	-358
▁all	-359
rò	-360
▁gran	-361
▁abb	-362
ei	-363
▁Co	-364
ten	-365
ine	-366
▁dalla	-367
▁mon	-368
ina	-369
▁Sa	-370
sp	-371
bbe	-372
ento	-373
▁Allora	-374
▁hai	-375
erai	-376
▁ba	-377
▁uomini	-378
lta	-379
▁ogni	-380
▁mor	-381
cchi	-382
esù	-383
unque	-384
▁Gesù	-385
▁fatto	-386
dere	-387
tri	-388
▁Se	-389
mpo	-390
▁des	-391
mme	-392
▁tuoi	-393
▁pie	-394
condo	-395
▁tro	-396
ter	-397
uto	-398
▁così	-399
dò	-400
gge	-401
anza	-402
▁noi	-403
▁gu	-404
ver	-405
erdo	-406
eru	-407
▁sacerdo	-408
▁mezzo	-409
▁né	-410
glio	-411
bo	-412
gu	-413
fe	-414
▁fratel	-415
▁bene	-416
tare	-417
▁na	-418
▁secondo	-419
▁dice	-420
rito	-421
▁ed	-422
▁due	-423
mpa	-424
chia	-425
▁erano	-426
uomo	-427
▁qua	-428
glia	-429
▁sal	-430
rd	-431
▁cuo	-432
sè	-433
▁Giuda	-434
▁V	-435
uni	-436
mento	-437
mpio	-438
▁Di	-439
▁gra	-440
ang	-441
▁Mosè	-442
▁tutte	-443
▁Poi	-444
▁Fi	-445
▁chia	-446
▁La	-447
sale	-448
salemme	-449
▁alle	-450
▁Geru	-451
▁Gerusalemme	-452
▁mano	-453
▁pu	-454
▁abi	-455
▁hanno	-456
pa	-457
ccia	-458
▁ste	-459
▁ar	-460
gn	-461
▁In	-462
lto	-463
▁fo	-464
ura	-465
cia	-466
pose	-467
sce	-468
eliti	-469
▁mani	-470
▁Gio	-471
▁sulla	-472
sero	-473
▁fino	-474
▁sia	-475
mpi	-476
▁cor	-477
glie	-478
▁padre	-479
cci	-480
▁fuo	-481
▁essi	-482
▁ta	-483
▁Israeliti	-484
ssero	-485
▁servi	-486
ste	-487
▁Ba	-488
▁sue	-489
▁porta	-490
▁tre	-491
▁vita	-492
zioni	-493
fatti	-494
rifi	-495
▁Tu	-496
▁ciò	-497
▁tor	-498
▁nome	-499
▁cuore	-500
elli	-501
mpre	-502
▁occhi	-503
▁questa	-504
▁cui	-505
▁pecca	-506
ona	-507
▁tempio	-508
▁tutta	-509
▁es	-510
▁uno	-511
▁grande	-512
lti	-513
▁sei	-514
▁nelle	-515
▁agli	-516
▁Pa	-517
entre	-518
▁Egli	-519
anta	-520
▁Quando	-521
▁parola	-522
erto	-523
▁far	-524
gia	-525
▁senza	-526
▁giorni	-527
zio	-528
mina	-529
▁spa	-530
▁verso	-531
▁cosa	-532
▁dunque	-533
mb	-534
ane	-535
rete	-536
▁die	-537
ana	-538
▁quelli	-539
cora	-540
▁ac	-541
▁stra	-542
mm	-543
▁miei	-544
pe	-545
▁-	-546
▁ten	-547
▁car	-548
▁pad	-549
ab	-550
gitto	-551
▁cre	-552
▁off	-553
▁quanto	-554
▁dove	-555
▁Chi	-556
▁ess	-557
?»	-558
▁nu	-559
qui	-560
eni	-561
!»	-562
▁Z	-563
▁en	-564
▁profe	-565
lla	-566
qua	-567
▁giusti	-568
▁asco	-569
▁capi	-570
▁Ora	-571
▁sop	-572
▁cose	-573
▁vol	-574
▁U	-575
▁fece	-576
▁diven	-577
▁anda	-578
▁capo	-579
▁usci	-580
▁Ri	-581
▁don	-582
esta	-583
▁tri	-584
rato	-585
▁tempo	-586
▁ro	-587
▁lib	-588
▁infatti	-589
ggio	-590
gui	-591
ena	-592
▁male	-593
▁ness	-594
▁parole	-595
▁spi	-596
▁rispose	-597
erci	-598
▁uomo	-599
alo	-600
▁pren	-601
mente	-602
▁ancora	-603
▁gen	-604
▁parte	-605
▁app	-606
su	-607
erete	-608
▁Cri	-609
▁sette	-610
▁nostro	-611
and	-612
▁to	-613
▁Cristo	-614
▁parla	-615
ge	-616
▁fratelli	-617
▁va	-618
tò	-619
▁cielo	-620
▁pres	-621
▁Ab	-622
▁chiama	-623
▁vostro	-624
▁luo	-625
▁sotto	-626
▁saranno	-627
▁poiché	-628
▁sopra	-629
scia	-630
tura	-631
▁quale	-632
▁mentre	-633
▁sacrifi	-634
ciò	-635
▁rico	-636
▁sempre	-637
▁quello	-638
por	-639
tato	-640
▁cono	-641
zo	-642
stru	-643
▁detto	-644
▁gi	-645
▁rif	-646
▁allora	-647
▁fuoco	-648
▁vostri	-649
▁tue	-650
▁scri	-651
anda	-652
▁Così	-653
▁Le	-654
▁alc	-655
menti	-656
▁Gli	-657
▁via	-658
▁Mi	-659
▁dopo	-660
▁stato	-661
▁dall	-662
▁sacerdote	-663
▁ord	-664
▁nei	-665
▁cin	-666
▁trova	-667
▁cu	-668
dici	-669
▁bo	-670
▁glo	-671
▁avete	-672
▁mangia	-673
ete	-674
▁An	-675
alle	-676
▁sor	-677
▁op	-678
ggia	-679
▁essa	-680
▁luogo	-681
▁insi	-682
▁qual	-683
▁Gia	-684
Isra	-685
chio	-686
▁legge	-687
una	-688
▁ecco	-689
▁anni	-690
Israele	-691
▁peccato	-692
▁fin	-693
▁Ecco	-694
ren	-695
▁forse	-696
cendo	-697
Egitto	-698
dia	-699
▁cer	-700
▁trib	-701
▁servo	-702
usa	-703
▁altri	-704
▁queste	-705
ante	-706
▁giustizia	-707
▁dai	-708
▁ucci	-709
▁ora	-710
▁morte	-711
mò	-712
per	-713
angue	-714
▁Eli	-715
▁sangue	-716
▁ascolta	-717
▁mie	-718
▁gri	-719
end	-720
▁questi	-721
▁pot	-722
oro	-723
▁prop	-724
▁solo	-725
▁essere	-726
▁padri	-727
cio	-728
▁cam	-729
▁dato	-730
▁Giaco	-731
▁Be	-732
mici	-733
▁spada	-734
ze	-735
▁nell	-736
onia	-737
eme	-738
▁giudi	-739
▁nessuno	-740
cato	-741
▁besti	-742
▁presso	-743
tevi	-744
▁Saul	-745
▁sacerdoti	-746
more	-747
cento	-748
▁là	-749
mone	-750
str	-751
▁guar	-752
▁eserci	-753
▁voce	-754
mila	-755
▁st	-756
▁regno	-757
▁stesso	-758
▁ge	-759
▁fare	-760
▁fratello	-761
▁lu	-762
stra	-763
▁avevano	-764
▁gia	-765
▁passa	-766
▁prima	-767
▁insieme	-768
ad	-769
▁sco	-770
▁fami	-771
▁H	-772
rda	-773
▁molti	-774
der	-775
tano	-776
▁schia	-777
ulla	-778
▁Giacobbe	-779
Non	-780
▁mis	-781
▁furono	-782
▁dov	-783
▁Perché	-784
▁aff	-785
▁tribù	-786
rire	-787
▁dalle	-788
bil	-789
ppe	-790
▁sca	-791
▁disp	-792
▁bocca	-793
▁donna	-794
▁gloria	-795
ella	-796
vece	-797
▁acc	-798
▁disc	-799
▁bu	-800
bili	-801
ardo	-802
▁ren	-803
▁dire	-804
ttro	-805
▁mai	-806
▁veni	-807
▁vesti	-808
ure	-809
ronne	-810
▁abit	-811
▁giun	-812
▁moglie	-813
rre	-814
ello	-815
▁nuo	-816
▁ce	-817
dito	-818
▁prese	-819
esto	-820
mora	-821
sser	-822
▁quella	-823
▁Do	-824
▁acco	-825
▁Aronne	-826
▁deserto	-827
▁primo	-828
▁Giude	-829
cin	-830
▁poten	-831
▁dicendo	-832
▁Ti	-833
ghi	-834
▁comp	-835
▁lavo	-836
lle	-837
vere	-838
▁quali	-839
▁pia	-840
▁conf	-841
este	-842
▁oggi	-843
▁siete	-844
▁invece	-845
▁mare	-846
▁popoli	-847
▁K	-848
arò	-849
mmo	-850
amo	-851
▁Ne	-852
loca	-853
anni	-854
▁mondo	-855
▁piedi	-856
▁colo	-857
▁distru	-858
▁abbiamo	-859
▁Fili	-860
▁tenda	-861
ont	-862
strui	-863
derà	-864
▁entra	-865
▁posto	-866
cchio	-867
▁causa	-868
▁monte	-869
▁fron	-870
▁sulle	-871
tten	-872
▁prof	-873
altare	-874
dato	-875
▁spe	-876
▁rivo	-877
gento	-878
▁Abra	-879
▁sap	-880
ac	-881
▁Babil	-882
▁notte	-883
▁nulla	-884
▁inse	-885
▁colui	-886
derò	-887
tanto	-888
▁Salo	-889
▁carne	-890
▁Babilonia	-891
?».	-892
▁So	-893
▁giov	-894
ai	-895
▁dico	-896
▁dissero	-897
▁levi	-898
▁Salomone	-899
▁fru	-900
erità	-901
▁anzi	-902
▁gente	-903
▁madre	-904
▁profeti	-905
▁eserciti	-906
▁nostri	-907
tua	-908
dine	-909
be	-910
tore	-911
▁cir	-912
tori	-913
locau	-914
▁faccia	-915
▁figlia	-916
▁guer	-917
▁bestia	-918
▁comuni	-919
at	-920
terà	-921
▁osser	-922
▁quanti	-923
▁spirito	-924
▁fer	-925
▁rim	-926
▁nemici	-927
arti	-928
▁Poiché	-929
▁fede	-930
▁vostra	-931
▁sacrificio	-932
ghe	-933
via	-934
mero	-935
esi	-936
nun	-937
▁Gi	-938
bile	-939
mino	-940
ggiun	-941
arca	-942
▁parti	-943
▁numero	-944
zzi	-945
ltre	-946
▁esp	-947
▁senti	-948
▁Filiste	-949
▁abitanti	-950
am	-951
ppure	-952
▁farò	-953
▁lascia	-954
uta	-955
▁Pi	-956
stri	-957
▁bru	-958
▁inf	-959
care	-960
raone	-961
▁segui	-962
gione	-963
▁mett	-964
▁pane	-965
▁faraone	-966
torno	-967
▁testi	-968
▁vostre	-969
zze	-970
▁Ie	-971
▁molto	-972
▁ama	-973
sione	-974
▁condu	-975
ccio	-976
scepo	-977
▁andò	-978
▁finché	-979
▁discepo	-980
gio	-981
▁Lo	-982
▁lun	-983
ffi	-984
▁ap	-985
▁dom	-986
▁coloro	-987
▁acca	-988
▁avrà	-989
▁visto	-990
ari	-991
▁mal	-992
cò	-993
▁qui	-994
▁be	-995
▁pen	-996
▁grazia	-997
etro	-998
▁imp	-999
▁Gà	-1000
▁venti	-1001
▁genera	-1002
duto	-1003
▁Padre	-1004
▁leviti	-1005
lio	-1006
▁bi	-1007
dità	-1008
indi	-1009
▁pace	-1010
iasc	-1011
▁Vi	-1012
▁cio	-1013
▁aver	-1014
egli	-1015
enta	-1016
mmon	-1017
▁verità	-1018
cero	-1019
rati	-1020
▁ere	-1021
▁Con	-1022
▁fuori	-1023
▁Ef	-1024
▁cioè	-1025
▁rice	-1026
▁rigu	-1027
▁altro	-1028
▁nuovo	-1029
▁quattro	-1030
▁go	-1031
quità	-1032
▁acque	-1033
▁deci	-1034
▁conce	-1035
▁Giudei	-1036
▁benedi	-1037
suè	-1038
biti	-1039
seppe	-1040
▁Giosuè	-1041
▁ru	-1042
▁sic	-1043
▁Abramo	-1044
▁Su	-1045
▁fronte	-1046
ela	-1047
colo	-1048
▁posse	-1049
▁Giuseppe	-1050
èl	-1051
erico	-1052
Ecco	-1053
▁gre	-1054
ssimo	-1055
▁Essi	-1056
▁comme	-1057
cri	-1058
gre	-1059
erta	-1060
▁sto	-1061
▁profeta	-1062
lea	-1063
▁alz	-1064
▁sui	-1065
▁farà	-1066
▁risp	-1067
▁Filistei	-1068
vato	-1069
▁sol	-1070
argento	-1071
▁abband	-1072
elle	-1073
▁cal	-1074
▁cap	-1075
▁può	-1076
versa	-1077
▁gioia	-1078
▁testim	-1079
▁Come	-1080
▁viene	-1081
▁agi	-1082
▁rima	-1083
▁siamo	-1084
lazione	-1085
val	-1086
▁bra	-1087
pirito	-1088
▁ciasc	-1089
▁discepoli	-1090
rlo	-1091
▁consi	-1092
▁Spirito	-1093
lato	-1094
▁mese	-1095
▁nazioni	-1096
rsi	-1097
▁Ris	-1098
▁can	-1099
▁volta	-1100
mia	-1101
▁pes	-1102
▁torna	-1103
acqua	-1104
▁diede	-1105
▁ini	-1106
▁forte	-1107
gne	-1108
arsi	-1109
Per	-1110
▁fed	-1111
▁rad	-1112
▁rov	-1113
▁Figlio	-1114
▁giusto	-1115
▁discend	-1116
nci	-1117
sia	-1118
dete	-1119
▁racco	-1120
lu	-1121
▁or	-1122
▁Ben	-1123
▁opere	-1124
▁cinque	-1125
▁guerra	-1126
▁Ed	-1127
gono	-1128
cce	-1129
▁Che	-1130
▁annun	-1131
▁stati	-1132
gua	-1133
dono	-1134
▁lei	-1135
angelo	-1136
▁offri	-1137
▁spo	-1138
dendo	-1139
▁figlie	-1140
mu	-1141
altra	-1142
▁arri	-1143
▁condo	-1144
▁corpo	-1145
▁santi	-1146
▁sé	-1147
▁san	-1148
▁indi	-1149
▁sali	-1150
▁forza	-1151
▁signore	-1152
bito	-1153
▁vuo	-1154
▁avvi	-1155
▁Figli	-1156
▁matti	-1157
uti	-1158
▁immon	-1159
▁ent	-1160
altro	-1161
▁sull	-1162
▁trov	-1163
▁circon	-1164
▁ordina	-1165
rie	-1166
rno	-1167
▁ric	-1168
▁sti	-1169
▁luce	-1170
▁Perciò	-1171
▁uscire	-1172
▁comanda	-1173
▁Li	-1174
▁alza	-1175
!».	-1176
rare	-1177
posto	-1178
▁abbia	-1179
▁colpi	-1180
deva	-1181
▁super	-1182
▁cubiti	-1183
▁famiglia	-1184
cen	-1185
ppo	-1186
▁scon	-1187
▁cerca	-1188
▁costrui	-1189
▁stabili	-1190
▁dieci	-1191
ppa	-1192
zie	-1193
▁Giò	-1194
▁donne	-1195
▁cieli	-1196
▁pasco	-1197
▁allont	-1198
▁bestiame	-1199
▁mangiare	-1200
▁Am	-1201
onne	-1202
rdano	-1203
scere	-1204
▁vino	-1205
▁diri	-1206
▁caval	-1207
▁grida	-1208
▁testa	-1209
▁fecero	-1210
▁pass	-1211
▁appar	-1212
▁riferi	-1213
▁ster	-1214
▁getta	-1215
gh	-1216
sca	-1217
▁campo	-1218
▁Giordano	-1219
mba	-1220
▁Isa	-1221
▁pio	-1222
▁Anche	-1223
▁conse	-1224
▁alcuni	-1225
▁ciascuno	-1226
acca	-1227
▁and	-1228
▁scel	-1229
▁abita	-1230
▁mandò	-1231
▁generò	-1232
▁santua	-1233
▁anziani	-1234
ram	-1235
▁strada	-1236
iuto	-1237
tati	-1238
▁desi	-1239
▁mini	-1240
▁dimora	-1241
rì	-1242
sac	-1243
▁Ca	-1244
▁Abi	-1245
▁lin	-1246
▁vio	-1247
▁cento	-1248
▁ritor	-1249
▁testimoni	-1250
▁Un	-1251
nò	-1252
edi	-1253
mato	-1254
terno	-1255
ontano	-1256
▁salva	-1257
▁strani	-1258
fica	-1259
raim	-1260
alleanza	-1261
▁proprio	-1262
uro	-1263
telli	-1264
▁Dopo	-1265
▁però	-1266
▁morti	-1267
▁princi	-1268
tui	-1269
minio	-1270
▁padr	-1271
▁sapi	-1272
▁Rispose	-1273
▁scritto	-1274
▁santuario	-1275
mma	-1276
rore	-1277
▁Bet	-1278
detto	-1279
▁sepo	-1280
▁messo	-1281
▁nostra	-1282
▁servizio	-1283
ato	-1284
pre	-1285
▁ani	-1286
▁grandi	-1287
vero	-1288
▁fre	-1289
▁riv	-1290
▁pron	-1291
sul	-1292
▁Ci	-1293
▁fon	-1294
▁tene	-1295
▁destra	-1296
nero	-1297
vole	-1298
▁cen	-1299
▁modo	-1300
▁Efraim	-1301
▁Questo	-1302
▁consac	-1303
▁olocau	-1304
cu	-1305
esa	-1306
nan	-1307
dero	-1308
▁ono	-1309
▁peri	-1310
▁Tutti	-1311
▁malva	-1312
▁Questi	-1313
▁intorno	-1314
Se	-1315
▁Ga	-1316
▁Re	-1317
gnuno	-1318
vezza	-1319
▁stata	-1320
▁presenza	-1321
Che	-1322
anna	-1323
▁incon	-1324
mmi	-1325
rerà	-1326
▁muo	-1327
▁Benia	-1328
▁espia	-1329
▁rispon	-1330
▁lontano	-1331
▁potenza	-1332
▁riguardo	-1333
tì	-1334
▁uni	-1335
▁Eb	-1336
ture	-1337
▁rib	-1338
bbero	-1339
▁mang	-1340
▁stava	-1341
ericord	-1342
▁buo	-1343
▁vide	-1344
▁andare	-1345
▁potere	-1346
bato	-1347
▁Sal	-1348
▁Voi	-1349
▁dis	-1350
▁fal	-1351
▁alzò	-1352
▁compi	-1353
▁genti	-1354
▁divenne	-1355
olo	-1356
usci	-1357
▁fari	-1358
▁simi	-1359
▁trono	-1360
▁misericord	-1361
▁fine	-1362
▁Paolo	-1363
▁oltre	-1364
▁chiamò	-1365
▁libera	-1366
mico	-1367
▁cad	-1368
vanni	-1369
▁parl	-1370
▁soff	-1371
▁fosse	-1372
▁libro	-1373
▁Aca	-1374
▁ebbe	-1375
▁peccati	-1376
▁sacrifici	-1377
Il	-1378
rità	-1379
ster	-1380
▁Nel	-1381
ttere	-1382
stitui	-1383
▁quelle	-1384
anà	-1385
▁vedere	-1386
▁ordinato	-1387
▁possesso	-1388
▁salvezza	-1389
giu	-1390
▁compa	-1391
▁santo	-1392
▁famiglie	-1393
llo	-1394
spe	-1395
doli	-1396
▁cammina	-1397
▁abbandona	-1398
lte	-1399
cina	-1400
date	-1401
▁atten	-1402
cino	-1403
▁Ass	-1404
segui	-1405
▁comin	-1406
▁porte	-1407
▁inter	-1408
▁Egitto	-1409
▁lavoro	-1410
▁mandato	-1411
▁padrone	-1412
▁comunità	-1413
▁Na	-1414
▁ang	-1415
▁ori	-1416
▁venire	-1417
▁venuto	-1418
▁parlare	-1419
▁Giovanni	-1420
veri	-1421
▁allo	-1422
▁esso	-1423
▁mise	-1424
▁tras	-1425
▁monti	-1426
nata	-1427
scono	-1428
▁Dice	-1429
▁sole	-1430
▁messa	-1431
▁Pietro	-1432
Si	-1433
gnò	-1434
▁Sion	-1435
▁pers	-1436
▁Mentre	-1437
sei	-1438
gnato	-1439
▁picco	-1440
▁prepa	-1441
▁verrà	-1442
▁morire	-1443
▁Beniamino	-1444
dà	-1445
cre	-1446
tin	-1447
▁preso	-1448
▁venne	-1449
▁pietra	-1450
▁annunzia	-1451
bbra	-1452
▁teso	-1453
▁Santo	-1454
▁conve	-1455
▁potrà	-1456
▁disper	-1457
▁quei	-1458
▁folla	-1459
▁opera	-1460
▁sorte	-1461
▁dodici	-1462
▁chiamato	-1463
▁convegno	-1464
gato	-1465
cchia	-1466
▁Moab	-1467
▁mori	-1468
▁sapienza	-1469
▁misericordia	-1470
ira	-1471
cherà	-1472
rebbe	-1473
rezza	-1474
▁empi	-1475
▁prodi	-1476
▁Ra	-1477
geni	-1478
▁cop	-1479
▁face	-1480
deranno	-1481
▁udi	-1482
nanzi	-1483
resti	-1484
ede	-1485
ser	-1486
▁abo	-1487
▁asse	-1488
▁ognuno	-1489
scì	-1490
telo	-1491
tene	-1492
▁invi	-1493
▁dagli	-1494
▁lingua	-1495
▁purifi	-1496
▁territo	-1497
▁iniquità	-1498
mbi	-1499
nta	-1500
arla	-1501
boamo	-1502
▁Sono	-1503
▁alcun	-1504
▁comba	-1505
▁predi	-1506
▁prome	-1507
▁rispo	-1508
off	-1509
mbra	-1510
▁Elia	-1511
▁Gere	-1512
▁acqua	-1513
▁terzo	-1514
▁gioven	-1515
▁Geremia	-1516
Co	-1517
▁fiu	-1518
▁rin	-1519
rante	-1520
▁Ioab	-1521
▁mura	-1522
▁schi	-1523
▁udito	-1524
teranno	-1525
gioni	-1526
▁resta	-1527
▁setti	-1528
▁preghi	-1529
▁eredità	-1530
rti	-1531
▁sf	-1532
ttra	-1533
▁men	-1534
▁ved	-1535
▁cost	-1536
▁sper	-1537
quanta	-1538
▁fatti	-1539
▁monta	-1540
▁ricev	-1541
▁rovina	-1542
▁rivolta	-1543
▁ira	-1544
oniti	-1545
▁dena	-1546
▁pote	-1547
Perché	-1548
▁custo	-1549
▁frutto	-1550
▁timore	-1551
▁generazione	-1552
ìa	-1553
vol	-1554
rano	-1555
terò	-1556
▁fan	-1557
estro	-1558
▁addo	-1559
▁ripo	-1560
▁resto	-1561
▁teneb	-1562
udi	-1563
▁Gu	-1564
core	-1565
dano	-1566
maria	-1567
▁impo	-1568
▁fuggi	-1569
▁siano	-1570
▁viven	-1571
mon	-1572
remo	-1573
▁div	-1574
▁ore	-1575
▁Achi	-1576
▁bere	-1577
▁lungo	-1578
▁nasco	-1579
▁du	-1580
asse	-1581
mità	-1582
muele	-1583
▁ogge	-1584
▁proc	-1585
▁sape	-1586
ghezza	-1587
ssione	-1588
▁profu	-1589
▁volte	-1590
▁brucia	-1591
▁pietre	-1592
▁vicino	-1593
▁Samuele	-1594
▁ministri	-1595
▁Fa	-1596
▁Eze	-1597
tando	-1598
tello	-1599
▁compre	-1600
pli	-1601
▁Ia	-1602
bano	-1603
ntri	-1604
dente	-1605
▁darò	-1606
▁sera	-1607
mpagna	-1608
▁morto	-1609
▁prati	-1610
▁sarai	-1611
dizione	-1612
mpamento	-1613
▁testimonianza	-1614
▁pian	-1615
▁condotta	-1616
▁incontro	-1617
▁settentri	-1618
arlo	-1619
ppia	-1620
storo	-1621
▁scen	-1622
▁altre	-1623
▁valle	-1624
▁denaro	-1625
▁sabato	-1626
▁diritto	-1627
▁primogeni	-1628
▁discendenza	-1629
ài	-1630
gere	-1631
rate	-1632
▁agn	-1633
▁consu	-1634
▁quell	-1635
▁vento	-1636
▁Isacco	-1637
▁voglio	-1638
▁cavalli	-1639
▁circonci	-1640
▁distrugg	-1641
cor	-1642
sor	-1643
laad	-1644
▁sde	-1645
torio	-1646
▁anno	-1647
▁divo	-1648
▁uscì	-1649
▁quaran	-1650
▁Ezechia	-1651
Io	-1652
▁pol	-1653
▁Manà	-1654
▁dare	-1655
tudine	-1656
▁coman	-1657
▁Gàlaad	-1658
▁contin	-1659
▁marito	-1660
▁perciò	-1661
▁osserva	-1662
▁chiunque	-1663
▁territorio	-1664
vò	-1665
ati	-1666
▁Ho	-1667
ontà	-1668
verna	-1669
▁fini	-1670
▁pure	-1671
▁decre	-1672
▁farai	-1673
▁simile	-1674
▁immondo	-1675
ave	-1676
▁Me	-1677
posi	-1678
▁alb	-1679
▁anch	-1680
▁avven	-1681
▁diceva	-1682
▁quegli	-1683
▁subito	-1684
▁mattino	-1685
▁regione	-1686
eso	-1687
▁No	-1688
▁cro	-1689
▁mar	-1690
▁idoli	-1691
▁possa	-1692
▁qualc	-1693
▁quest	-1694
▁Manàsse	-1695
▁neppure	-1696
▁qualche	-1697
▁Fe	-1698
▁Ro	-1699
▁Asa	-1700
▁conta	-1701
▁pecore	-1702
dera	-1703
▁Nab	-1704
▁ele	-1705
▁eter	-1706
▁sore	-1707
▁sven	-1708
▁tale	-1709
▁batta	-1710
▁sepol	-1711
enne	-1712
▁morì	-1713
▁pietà	-1714
▁risca	-1715
▁vergo	-1716
▁quindi	-1717
▁ricche	-1718
▁schiavi	-1719
accampamento	-1720
▁dà	-1721
vati	-1722
▁fio	-1723
bbiamo	-1724
▁depor	-1725
▁dietro	-1726
▁andarono	-1727
▁opp	-1728
▁favo	-1729
▁fian	-1730
cinque	-1731
▁manif	-1732
▁volto	-1733
offerta	-1734
▁trovato	-1735
▁prendere	-1736
▁as	-1737
gare	-1738
voca	-1739
▁ado	-1740
▁lar	-1741
▁tem	-1742
gresso	-1743
scolta	-1744
ttanta	-1745
▁carri	-1746
▁festa	-1747
▁porti	-1748
▁giudizio	-1749
▁qualcuno	-1750
Tu	-1751
rei	-1752
coli	-1753
▁Dani	-1754
devano	-1755
ho	-1756
op	-1757
dio	-1758
mati	-1759
▁ucc	-1760
▁umi	-1761
derai	-1762
▁acce	-1763
▁cibo	-1764
▁guarda	-1765
▁presen	-1766
▁Samaria	-1767
▁parlato	-1768
▁pascoli	-1769
▁vennero	-1770
▁presenta	-1771
▁espiatorio	-1772
ub	-1773
armi	-1774
▁tal	-1775
▁cada	-1776
minato	-1777
▁messagg	-1778
gra	-1779
▁Zi	-1780
▁esse	-1781
▁fate	-1782
▁pasto	-1783
▁conosc	-1784
▁raduna	-1785
ur	-1786
cere	-1787
lati	-1788
▁abba	-1789
▁lato	-1790
▁viol	-1791
tarono	-1792
▁onore	-1793
▁Quanto	-1794
▁Giònata	-1795
▁Oracolo	-1796
▁olocausti	-1797
mei	-1798
èle	-1799
▁Baal	-1800
▁Ioia	-1801
▁divi	-1802
▁olio	-1803
▁ripa	-1804
▁Tutto	-1805
▁dello	-1806
ingresso	-1807
▁dimenti	-1808
▁alleanza	-1809
ania	-1810
gano	-1811
▁chiu	-1812
▁anima	-1813
▁manda	-1814
▁ordin	-1815
▁Questa	-1816
▁bestie	-1817
▁gregge	-1818
▁stessa	-1819
▁polvere	-1820
▁dicevano	-1821
▁battaglia	-1822
àn	-1823
Chi	-1824
dom	-1825
ora	-1826
rdi	-1827
mano	-1828
▁esi	-1829
stitu	-1830
▁case	-1831
▁perd	-1832
▁prov	-1833
▁nemico	-1834
▁nostre	-1835
▁stavano	-1836
▁speranza	-1837
due	-1838
rvi	-1839
ttò	-1840
lare	-1841
unto	-1842
▁Ioa	-1843
▁Pre	-1844
▁ben	-1845
rente	-1846
▁Bala	-1847
ssiria	-1848
▁potre	-1849
▁sarete	-1850
▁accampa	-1851
▁continu	-1852
▁entrare	-1853
▁giovani	-1854
▁malvagi	-1855
▁campagna	-1856
▁soltanto	-1857
tate	-1858
anche	-1859
▁fame	-1860
▁rifu	-1861
▁pensa	-1862
▁eterna	-1863
▁comandi	-1864
▁giovane	-1865
into	-1866
▁Amm	-1867
▁cari	-1868
▁spar	-1869
▁teme	-1870
▁vedo	-1871
▁legno	-1872
▁tocca	-1873
censo	-1874
cherò	-1875
mblea	-1876
▁metà	-1877
alonne	-1878
olocau	-1879
ordine	-1880
▁avevo	-1881
▁fanci	-1882
▁paura	-1883
▁sicli	-1884
▁Dimora	-1885
▁conosci	-1886
olocausto	-1887
eb	-1888
rmi	-1889
▁mu	-1890
▁Ara	-1891
▁ing	-1892
▁Essa	-1893
▁Ness	-1894
▁assi	-1895
▁impa	-1896
▁rest	-1897
▁Daniele	-1898
▁insegna	-1899
▁tenebre	-1900
▁prossimo	-1901
▁Assalonne	-1902
Fi	-1903
▁Ch	-1904
▁Ama	-1905
▁fia	-1906
▁rip	-1907
▁son	-1908
▁alta	-1909
▁cond	-1910
▁dovrà	-1911
▁sapere	-1912
▁Go	-1913
eltà	-1914
tere	-1915
▁spl	-1916
▁vie	-1917
▁ango	-1918
▁obbe	-1919
eserci	-1920
quista	-1921
▁attra	-1922
▁colpa	-1923
▁grano	-1924
ggiunse	-1925
▁ricono	-1926
▁settimo	-1927
gerà	-1928
▁mas	-1929
▁spie	-1930
▁colpe	-1931
▁villa	-1932
▁sorella	-1933
▁Ammoniti	-1934
▁disprezza	-1935
bà	-1936
tali	-1937
ttato	-1938
▁avrai	-1939
▁menzo	-1940
▁prece	-1941
▁misero	-1942
▁uccelli	-1943
▁settentrione	-1944
gò	-1945
ccu	-1946
seo	-1947
empi	-1948
▁esa	-1949
▁piena	-1950
▁prova	-1951
▁umili	-1952
▁labbra	-1953
▁dinanzi	-1954
▁sventura	-1955
▁preghiera	-1956
An	-1957
ore	-1958
ppi	-1959
▁Fece	-1960
▁sarò	-1961
▁sepp	-1962
▁batte	-1963
▁leggi	-1964
▁rivol	-1965
▁cammino	-1966
▁propria	-1967
cro	-1968
die	-1969
mbo	-1970
gine	-1971
▁den	-1972
bbene	-1973
▁Nabu	-1974
▁bron	-1975
▁nasc	-1976
▁aiuto	-1977
▁basto	-1978
▁buona	-1979
▁conso	-1980
▁tanto	-1981
▁procla	-1982
▁sconfi	-1983
▁governa	-1984
▁orecchi	-1985
mbe	-1986
nal	-1987
ono	-1988
spi	-1989
zer	-1990
scri	-1991
▁Can	-1992
▁Esa	-1993
▁gua	-1994
▁sen	-1995
▁Gero	-1996
▁tran	-1997
strati	-1998
▁amore	-1999
▁confi	-2000
▁tornò	-2001
blazione	-2002
▁Infatti	-2003
▁conosce	-2004
▁To	-2005
orse	-2006
▁tur	-2007
sioni	-2008
▁Cana	-2009
▁beni	-2010
▁dono	-2011
▁lasc	-2012
▁catti	-2013
▁invia	-2014
▁vende	-2015
▁vigna	-2016
▁bronzo	-2017
▁sdegno	-2018
▁spaven	-2019
▁stessi	-2020
esercito	-2021
▁compren	-2022
▁presero	-2023
▁montagne	-2024
ttu	-2025
▁er	-2026
cati	-2027
gizi	-2028
verà	-2029
vola	-2030
▁dar	-2031
▁affi	-2032
▁stan	-2033
▁grido	-2034
▁liber	-2035
▁passi	-2036
▁primi	-2037
▁pronun	-2038
▁rimase	-2039
▁trenta	-2040
▁oriente	-2041
▁passare	-2042
▁allontana	-2043
Di	-2044
età	-2045
verti	-2046
▁atti	-2047
▁atto	-2048
▁darà	-2049
▁deso	-2050
▁poco	-2051
▁vivo	-2052
▁ferro	-2053
▁Quelli	-2054
▁costoro	-2055
▁momento	-2056
▁comunione	-2057
fo	-2058
im	-2059
fat	-2060
ond	-2061
rdo	-2062
pora	-2063
▁gui	-2064
▁sel	-2065
empio	-2066
erano	-2067
▁Esaù	-2068
▁dimo	-2069
▁dolo	-2070
▁sten	-2071
▁campi	-2072
▁mille	-2073
▁Quindi	-2074
▁scelto	-2075
▁potente	-2076
▁avvicina	-2077
lli	-2078
rgli	-2079
rona	-2080
▁para	-2081
▁supp	-2082
tellig	-2083
▁canto	-2084
▁costru	-2085
▁costui	-2086
▁frutti	-2087
▁misura	-2088
▁proprie	-2089
▁Geroboamo	-2090
rli	-2091
▁Ad	-2092
▁Ki	-2093
▁Là	-2094
andò	-2095
nato	-2096
tata	-2097
▁bev	-2098
▁meno	-2099
▁Disse	-2100
▁posso	-2101
Signore	-2102
▁favore	-2103
▁comando	-2104
▁primogenito	-2105
ìm	-2106
olio	-2107
▁ali	-2108
▁dia	-2109
▁arre	-2110
▁entrò	-2111
▁state	-2112
▁porpora	-2113
▁seguito	-2114
▁cinquanta	-2115
car	-2116
▁Po	-2117
cano	-2118
eleb	-2119
ttri	-2120
vate	-2121
▁All	-2122
▁Amo	-2123
▁viv	-2124
▁dura	-2125
▁gioi	-2126
▁odia	-2127
▁forma	-2128
▁parlò	-2129
▁piang	-2130
▁povero	-2131
▁suppli	-2132
▁comandato	-2133
▁risposero	-2134
ll	-2135
▁De	-2136
arda	-2137
riti	-2138
▁Sia	-2139
▁oro	-2140
rarono	-2141
▁preda	-2142
giziani	-2143
▁durante	-2144
▁ricorda	-2145
▁mezzogio	-2146
▁Fu	-2147
▁est	-2148
ttura	-2149
▁deva	-2150
▁deve	-2151
▁immo	-2152
▁certo	-2153
▁angeli	-2154
▁maggio	-2155
▁ordine	-2156
▁ordinò	-2157
▁sappia	-2158
▁raggiun	-2159
▁Egiziani	-2160
▁mezzogiorno	-2161
▁Cal	-2162
▁Rub	-2163
▁lan	-2164
diamo	-2165
menta	-2166
▁alto	-2167
▁cura	-2168
▁rica	-2169
▁vole	-2170
spetto	-2171
▁mette	-2172
▁Canaan	-2173
▁nessun	-2174
iniquità	-2175
▁Nessuno	-2176
▁custodi	-2177
▁risusci	-2178
assemblea	-2179
tù	-2180
lui	-2181
cate	-2182
rane	-2183
estre	-2184
▁Acab	-2185
▁Gàba	-2186
▁dirà	-2187
▁riti	-2188
▁valo	-2189
▁inten	-2190
▁lasci	-2191
▁leone	-2192
▁possi	-2193
▁segno	-2194
▁prezio	-2195
▁ucciso	-2196
▁offerta	-2197
▁ricevuto	-2198
▁vergogna	-2199
▁verranno	-2200
ha	-2201
dro	-2202
ell	-2203
▁ni	-2204
▁Ghe	-2205
▁pal	-2206
rando	-2207
safat	-2208
▁peso	-2209
▁reso	-2210
▁forti	-2211
▁mogli	-2212
▁venga	-2213
▁meglio	-2214
▁reggia	-2215
▁avranno	-2216
▁chiamava	-2217
▁commesso	-2218
▁sterminio	-2219
san	-2220
▁Ar	-2221
▁am	-2222
duti	-2223
eria	-2224
▁Edom	-2225
▁biso	-2226
▁buoi	-2227
▁ossa	-2228
▁rito	-2229
▁buono	-2230
▁cheru	-2231
▁fiume	-2232
▁retti	-2233
cazione	-2234
▁Nabuco	-2235
▁persone	-2236
▁portato	-2237
▁prodigi	-2238
▁villaggi	-2239
▁ascoltato	-2240
▁Ha	-2241
▁Is	-2242
dòno	-2243
▁Ogni	-2244
▁lode	-2245
▁mali	-2246
▁poss	-2247
dònosor	-2248
▁azioni	-2249
▁nascon	-2250
▁rimane	-2251
▁braccio	-2252
▁farisei	-2253
▁interro	-2254
▁perenne	-2255
▁pratica	-2256
▁scaccia	-2257
▁schiava	-2258
▁vangelo	-2259
▁Giòsafat	-2260
▁giovenco	-2261
▁indietro	-2262
▁nascosto	-2263
▁quaranta	-2264
▁messaggeri	-2265
▁Nabucodònosor	-2266
dur	-2267
rov	-2268
▁Za	-2269
torì	-2270
mbino	-2271
èlech	-2272
▁chie	-2273
▁data	-2274
▁resi	-2275
▁sola	-2276
▁esser	-2277
▁fonda	-2278
▁innal	-2279
▁radun	-2280
▁sommo	-2281
▁alture	-2282
▁saggio	-2283
▁tavola	-2284
gistrati	-2285
▁colonne	-2286
▁foresti	-2287
▁vivente	-2288
▁allontan	-2289
▁prostitu	-2290
»,	-2291
gue	-2292
ande	-2293
cini	-2294
▁fla	-2295
ttero	-2296
▁nube	-2297
▁puni	-2298
▁affer	-2299
▁casti	-2300
▁collo	-2301
▁fanno	-2302
▁pieno	-2303
▁prost	-2304
▁sposa	-2305
▁tende	-2306
▁arriva	-2307
▁dentro	-2308
▁Ascolta	-2309
▁domanda	-2310
▁facendo	-2311
▁partorì	-2312
▁moltipli	-2313
pì	-2314
àm	-2315
ali	-2316
erte	-2317
rrei	-2318
▁ass	-2319
▁dif	-2320
▁ero	-2321
▁dite	-2322
▁segu	-2323
▁ascol	-2324
▁coper	-2325
▁crede	-2326
▁pelle	-2327
▁togli	-2328
▁temere	-2329
▁agnelli	-2330
▁fanciul	-2331
▁mattina	-2332
▁tranqui	-2333
▁conoscere	-2334
▁stranieri	-2335
àb	-2336
dei	-2337
noc	-2338
iore	-2339
mine	-2340
tivo	-2341
▁Noi	-2342
▁avrò	-2343
▁esul	-2344
▁indo	-2345
▁puro	-2346
noltre	-2347
▁Tutta	-2348
▁accor	-2349
▁celeb	-2350
▁conto	-2351
▁mente	-2352
tamente	-2353
▁esegui	-2354
▁grazie	-2355
▁venuti	-2356
▁insegui	-2357
▁ritorna	-2358
▁schiavo	-2359
▁seppelli	-2360
lera	-2361
▁Sei	-2362
▁occi	-2363
▁pose	-2364
▁giura	-2365
▁pensi	-2366
▁presi	-2367
▁regnò	-2368
▁aposto	-2369
▁dichia	-2370
▁riempi	-2371
▁bambino	-2372
▁profumo	-2373
▁sarebbe	-2374
▁sepolcro	-2375
▁torrente	-2376
▁discendenti	-2377
▁Te	-2378
gani	-2379
gore	-2380
squa	-2381
opera	-2382
▁medi	-2383
▁meri	-2384
▁quar	-2385
▁censi	-2386
▁letto	-2387
▁vista	-2388
tazione	-2389
▁casati	-2390
▁stolto	-2391
▁maestro	-2392
▁pioggia	-2393
▁ribelli	-2394
▁prigioni	-2395
▁stabilito	-2396
▁abbandonato	-2397
▁cie	-2398
▁deli	-2399
▁stri	-2400
▁avere	-2401
▁molte	-2402
▁negli	-2403
▁appena	-2404
▁partire	-2405
▁costitui	-2406
▁qualunque	-2407
La	-2408
cie	-2409
sino	-2410
▁Ieu	-2411
▁lie	-2412
▁reg	-2413
terai	-2414
▁atta	-2415
▁scio	-2416
▁torn	-2417
▁velo	-2418
▁guari	-2419
▁solle	-2420
▁tempi	-2421
▁scribi	-2422
▁avversa	-2423
▁bastone	-2424
▁concesso	-2425
av	-2426
mai	-2427
▁ir	-2428
▁sb	-2429
duce	-2430
tosi	-2431
▁App	-2432
▁Ave	-2433
▁Gad	-2434
▁dio	-2435
▁Gali	-2436
▁Levi	-2437
▁Rico	-2438
▁buon	-2439
▁sini	-2440
Figlio	-2441
▁avuto	-2442
▁fatta	-2443
▁parto	-2444
▁perfe	-2445
▁succe	-2446
▁vitti	-2447
▁grasso	-2448
orecchio	-2449
▁confini	-2450
▁devasta	-2451
▁prostra	-2452
▁comincia	-2453
▁condanna	-2454
▁censimento	-2455
ccò	-2456
▁dor	-2457
▁bamb	-2458
▁Ebron	-2459
▁suolo	-2460
▁fedele	-2461
▁pianta	-2462
▁spezza	-2463
▁animali	-2464
▁fedeltà	-2465
▁tornare	-2466
Và	-2467
bia	-2468
gri	-2469
rla	-2470
▁Ai	-2471
ardi	-2472
chem	-2473
diti	-2474
onda	-2475
zaro	-2476
▁Bar	-2477
eremo	-2478
▁assa	-2479
▁vede	-2480
▁corti	-2481
▁lutto	-2482
▁sagge	-2483
▁Eliseo	-2484
▁Quegli	-2485
▁farina	-2486
▁vivere	-2487
▁avvicin	-2488
▁confine	-2489
▁perdona	-2490
▁volontà	-2491
ute	-2492
bbia	-2493
enze	-2494
tale	-2495
dando	-2496
▁Paro	-2497
▁basi	-2498
▁invo	-2499
▁salì	-2500
guardo	-2501
mèlech	-2502
reranno	-2503
▁obbedi	-2504
▁giurato	-2505
▁oggetto	-2506
▁principe	-2507
▁consiglio	-2508
▁larghezza	-2509
mar	-2510
zati	-2511
▁sci	-2512
ssato	-2513
▁coro	-2514
▁devo	-2515
▁inte	-2516
▁vero	-2517
terete	-2518
▁Forse	-2519
▁Ruben	-2520
▁insul	-2521
▁portò	-2522
quattro	-2523
▁alberi	-2524
▁faceva	-2525
▁stanno	-2526
▁attorno	-2527
▁decreti	-2528
▁intellig	-2529
▁sinistra	-2530
▁fà	-2531
bbli	-2532
lata	-2533
mate	-2534
▁fai	-2535
derlo	-2536
eravi	-2537
▁Pren	-2538
▁confu	-2539
▁legna	-2540
▁prega	-2541
▁rifiu	-2542
▁riman	-2543
▁sogno	-2544
▁veste	-2545
▁tromba	-2546
▁abitare	-2547
▁lamento	-2548
▁parlava	-2549
▁portare	-2550
▁prescri	-2551
▁terrore	-2552
▁visione	-2553
Do	-2554
dati	-2555
ende	-2556
ermo	-2557
sten	-2558
▁eli	-2559
▁sch	-2560
amore	-2561
cando	-2562
▁Sime	-2563
▁anti	-2564
▁diso	-2565
▁inca	-2566
▁stir	-2567
▁tali	-2568
▁terre	-2569
▁Caldei	-2570
▁Libano	-2571
▁alcuno	-2572
▁altare	-2573
▁compor	-2574
▁meravi	-2575
▁pagani	-2576
▁bambini	-2577
▁oracolo	-2578
▁rifugio	-2579
▁viaggio	-2580
▁condusse	-2581
▁continua	-2582
▁mantello	-2583
▁benedetto	-2584
▁consacrato	-2585
sò	-2586
dri	-2587
▁Ke	-2588
▁và	-2589
alli	-2590
cche	-2591
cerà	-2592
cipi	-2593
uote	-2594
▁Una	-2595
anima	-2596
ccupa	-2597
esero	-2598
tente	-2599
verso	-2600
▁Nell	-2601
▁muro	-2602
▁nomi	-2603
entale	-2604
▁Betel	-2605
▁ricon	-2606
▁sommi	-2607
▁alcuna	-2608
▁ebbero	-2609
▁greggi	-2610
▁riusci	-2611
▁spalle	-2612
▁nazione	-2613
▁piccolo	-2614
▁settanta	-2615
▁manifesta	-2616
▁ricchezze	-2617
tr	-2618
dita	-2619
duta	-2620
feri	-2621
▁Dal	-2622
▁bal	-2623
▁edi	-2624
letto	-2625
▁Ioas	-2626
▁liba	-2627
▁nato	-2628
▁Colui	-2629
▁divor	-2630
▁ricer	-2631
▁abbond	-2632
▁angelo	-2633
▁avendo	-2634
▁farete	-2635
▁rivela	-2636
▁sapete	-2637
▁specie	-2638
▁troppo	-2639
▁addosso	-2640
▁guardie	-2641
▁incenso	-2642
▁portarono	-2643
In	-2644
erlo	-2645
▁Hai	-2646
▁Pro	-2647
▁Sede	-2648
▁camb	-2649
▁diff	-2650
▁fati	-2651
▁chiam	-2652
▁fossa	-2653
▁gettò	-2654
▁perco	-2655
▁Aramei	-2656
▁osserv	-2657
▁taglia	-2658
▁argento	-2659
▁fianchi	-2660
▁giovine	-2661
▁giudice	-2662
▁offerte	-2663
▁supersti	-2664
Ma	-2665
dì	-2666
bbi	-2667
pio	-2668
rata	-2669
▁Dan	-2670
▁ber	-2671
▁esc	-2672
▁piu	-2673
▁stu	-2674
rdino	-2675
tterà	-2676
▁noti	-2677
▁stel	-2678
ttosto	-2679
▁Maria	-2680
▁oppre	-2681
▁petto	-2682
▁regni	-2683
▁sugli	-2684
▁riposo	-2685
▁secoli	-2686
▁stirpe	-2687
▁videro	-2688
▁vedendo	-2689
▁cominciò	-2690
▁promessa	-2691
▁raccogli	-2692
▁saggezza	-2693
▁accamparono	-2694
▁En	-2695
bbro	-2696
dare	-2697
ensa	-2698
erti	-2699
stro	-2700
voli	-2701
▁ari	-2702
▁dip	-2703
▁sai	-2704
inago	-2705
tezza	-2706
▁Madi	-2707
▁vera	-2708
carono	-2709
▁affli	-2710
▁disco	-2711
▁santa	-2712
▁siate	-2713
▁trovò	-2714
▁vanta	-2715
▁versa	-2716
razione	-2717
▁Eppure	-2718
▁Parola	-2719
▁Sichem	-2720
▁catene	-2721
▁conser	-2722
▁consul	-2723
▁motivo	-2724
▁sinago	-2725
▁tavole	-2726
▁venuta	-2727
▁Amorrei	-2728
▁manderò	-2729
▁trovava	-2730
▁vecchio	-2731
▁esercito	-2732
Al	-2733
drà	-2734
▁ga	-2735
arvi	-2736
bini	-2737
temi	-2738
ulto	-2739
▁Maa	-2740
▁Ven	-2741
▁ade	-2742
▁gro	-2743
atrio	-2744
chele	-2745
▁debo	-2746
▁fidu	-2747
▁flag	-2748
▁pani	-2749
▁sigi	-2750
derete	-2751
▁cuori	-2752
▁ralle	-2753
▁riuni	-2754
▁scudi	-2755
Assiria	-2756
▁Appena	-2757
▁Balaam	-2758
▁compia	-2759
▁decimo	-2760
▁presta	-2761
▁tratta	-2762
▁Galilea	-2763
▁bisogno	-2764
▁faranno	-2765
▁scienza	-2766
▁abbandon	-2767
▁acquista	-2768
▁duecento	-2769
▁proprietà	-2770
▁benedizione	-2771
▁El	-2772
▁sì	-2773
serà	-2774
vata	-2775
▁agg	-2776
▁ard	-2777
denti	-2778
verrà	-2779
▁Guai	-2780
▁demo	-2781
▁dife	-2782
▁scia	-2783
▁uffi	-2784
▁vuoi	-2785
cherai	-2786
▁ferma	-2787
▁saggi	-2788
▁scher	-2789
▁Giudea	-2790
▁andava	-2791
▁avrete	-2792
▁descri	-2793
▁presto	-2794
▁tesori	-2795
▁uscito	-2796
▁veniva	-2797
▁collera	-2798
▁oggetti	-2799
▁giardino	-2800
▁mangiato	-2801
▁Abimèlech	-2802
▁olocausto	-2803
▁piuttosto	-2804
Vi	-2805
ach	-2806
dini	-2807
ttino	-2808
▁Alla	-2809
▁nece	-2810
▁rami	-2811
▁risu	-2812
▁scor	-2813
▁seno	-2814
▁sorg	-2815
ssanta	-2816
▁metti	-2817
▁piede	-2818
▁vitto	-2819
nocente	-2820
▁Gerico	-2821
▁giunse	-2822
▁lavori	-2823
▁provin	-2824
▁quarto	-2825
▁uccise	-2826
▁persona	-2827
▁sguardo	-2828
▁moltitudine	-2829
gro	-2830
ner	-2831
Sono	-2832
ango	-2833
▁aiu	-2834
▁Aram	-2835
▁Scri	-2836
▁cima	-2837
▁cora	-2838
▁gelo	-2839
▁racc	-2840
▁Isaia	-2841
▁circa	-2842
▁colli	-2843
▁dissi	-2844
▁rimar	-2845
lazioni	-2846
▁altari	-2847
▁dicono	-2848
▁fedeli	-2849
▁poveri	-2850
▁domandò	-2851
▁passato	-2852
▁servire	-2853
▁cadaveri	-2854
▁violenza	-2855
▁forestiero	-2856
cìa	-2857
fed	-2858
stò	-2859
▁Bi	-2860
▁Gh	-2861
alto	-2862
cheo	-2863
itti	-2864
onale	-2865
▁calp	-2866
▁nubi	-2867
▁raga	-2868
▁vidi	-2869
▁Abner	-2870
▁Abram	-2871
▁Canan	-2872
▁Farai	-2873
▁desti	-2874
▁germo	-2875
▁miele	-2876
▁partì	-2877
▁perfi	-2878
▁pezzi	-2879
▁prote	-2880
▁scese	-2881
▁segre	-2882
potente	-2883
▁banche	-2884
▁cadere	-2885
▁cammin	-2886
▁eterno	-2887
▁finito	-2888
▁inferi	-2889
▁lasciò	-2890
▁sacche	-2891
▁seduto	-2892
▁spiega	-2893
▁Sedecìa	-2894
▁diranno	-2895
▁maschio	-2896
▁splendo	-2897
▁Chiunque	-2898
▁lasciato	-2899
▁uscirono	-2900
▁cherubini	-2901
▁straniero	-2902
bed	-2903
▁Ni	-2904
Pren	-2905
cava	-2906
dite	-2907
tuto	-2908
vali	-2909
▁Aza	-2910
▁usa	-2911
elice	-2912
ssori	-2913
▁camm	-2914
▁rame	-2915
▁resp	-2916
▁soli	-2917
▁amici	-2918
▁passò	-2919
▁signi	-2920
▁andate	-2921
▁miglio	-2922
▁fiducia	-2923
▁fossero	-2924
▁macchia	-2925
▁renderò	-2926
▁schiere	-2927
▁avversari	-2928
▁considera	-2929
▁lunghezza	-2930
▁registrati	-2931
Ri	-2932
▁Av	-2933
orto	-2934
rode	-2935
sabe	-2936
stin	-2937
▁Nat	-2938
▁sov	-2939
conda	-2940
▁Bene	-2941
▁Elea	-2942
▁aper	-2943
▁date	-2944
▁indu	-2945
▁stru	-2946
▁vive	-2947
goglio	-2948
stante	-2949
▁Mardo	-2950
▁giogo	-2951
▁mangi	-2952
▁sazia	-2953
▁udire	-2954
▁aggiun	-2955
▁avanza	-2956
▁lancia	-2957
▁Intanto	-2958
▁accanto	-2959
▁selvati	-2960
▁traspor	-2961
▁abominio	-2962
▁apostoli	-2963
▁fortezze	-2964
▁prigione	-2965
▁combattere	-2966
▁conoscenza	-2967
▁maledizione	-2968
for	-2969
ori	-2970
▁As	-2971
mare	-2972
tana	-2973
▁bue	-2974
▁pur	-2975
▁Dama	-2976
▁crea	-2977
▁roto	-2978
▁Salmo	-2979
▁Zacca	-2980
▁addor	-2981
▁fiumi	-2982
▁vieni	-2983
▁dolore	-2984
▁giunge	-2985
▁prendi	-2986
▁strade	-2987
cheranno	-2988
▁guardia	-2989
▁porterà	-2990
▁persegui	-2991
▁Mardocheo	-2992
▁abitavano	-2993
▁principio	-2994
▁Ta	-2995
▁Car	-2996
▁Por	-2997
▁Tiro	-2998
▁arie	-2999
▁feri	-3000
▁vedi	-3001
▁danno	-3002
▁trafi	-3003
▁Giosia	-3004
▁Queste	-3005
▁contra	-3006
▁faccio	-3007
▁fretta	-3008
▁furore	-3009
▁soppor	-3010
▁vedova	-3011
▁Damasco	-3012
▁apparve	-3013
▁bottino	-3014
▁essendo	-3015
▁glorifi	-3016
▁offrire	-3017
▁prostrò	-3018
▁chiamare	-3019
▁menzogna	-3020
▁possiamo	-3021
▁promesso	-3022
▁scendere	-3023
▁costruito	-3024
▁preparato	-3025
▁splendore	-3026
▁tornarono	-3027
▁conosciuto	-3028
▁z	-3029
lga	-3030
▁Vo	-3031
Come	-3032
fano	-3033
rava	-3034
▁Ana	-3035
dotto	-3036
tterò	-3037
▁Isma	-3038
▁amma	-3039
▁apri	-3040
▁asso	-3041
▁cali	-3042
▁irri	-3043
▁mesi	-3044
▁pala	-3045
▁sala	-3046
▁scop	-3047
▁vani	-3048
▁Parti	-3049
▁carro	-3050
▁corre	-3051
▁gesta	-3052
▁infor	-3053
▁ricco	-3054
▁sacco	-3055
rebbero	-3056
▁Giobbe	-3057
▁Pilato	-3058
▁arieti	-3059
▁caccia	-3060
▁dottri	-3061
▁luoghi	-3062
▁morirà	-3063
▁roccia	-3064
▁valoro	-3065
▁innalza	-3066
estremità	-3067
nipotente	-3068
▁chiamati	-3069
▁prenderà	-3070
▁ascoltare	-3071
▁Ve	-3072
▁zo	-3073
cifi	-3074
onde	-3075
tela	-3076
ttare	-3077
▁base	-3078
▁impe	-3079
▁lega	-3080
▁lont	-3081
▁sede	-3082
▁stre	-3083
▁Betle	-3084
▁copri	-3085
▁gridò	-3086
▁ormai	-3087
▁spezz	-3088
▁stare	-3089
▁vigne	-3090
volenza	-3091
▁Làbano	-3092
▁carità	-3093
▁demoli	-3094
▁fronti	-3095
▁giunto	-3096
▁semina	-3097
▁ribella	-3098
▁rivesti	-3099
▁ufficia	-3100
▁compiuto	-3101
▁stermina	-3102
▁oblazione	-3103
▁condussero	-3104
ià	-3105
us	-3106
àr	-3107
aff	-3108
mer	-3109
rme	-3110
ssò	-3111
▁Ze	-3112
arco	-3113
sciu	-3114
vera	-3115
▁cla	-3116
sette	-3117
stere	-3118
stero	-3119
ttori	-3120
vegli	-3121
▁fior	-3122
▁salv	-3123
▁citta	-3124
▁intro	-3125
▁peste	-3126
▁vuole	-3127
oriente	-3128
▁arredi	-3129
▁avanti	-3130
▁fianco	-3131
▁occhio	-3132
▁ordini	-3133
▁raccon	-3134
▁accosta	-3135
▁apparti	-3136
▁profana	-3137
▁schiera	-3138
▁Eleazaro	-3139
▁Zaccaria	-3140
▁addormen	-3141
▁peccatori	-3142
▁giuramento	-3143
abi	-3144
bon	-3145
clu	-3146
fod	-3147
imp	-3148
kìm	-3149
son	-3150
uoi	-3151
▁Bo	-3152
▁Nè	-3153
erba	-3154
vamo	-3155
▁Noè	-3156
▁sce	-3157
drete	-3158
gnerà	-3159
messo	-3160
▁Chel	-3161
▁bian	-3162
▁mari	-3163
▁mina	-3164
▁ulti	-3165
andali	-3166
▁canti	-3167
▁dirai	-3168
▁lampa	-3169
▁pieni	-3170
▁retto	-3171
▁sente	-3172
▁Simone	-3173
▁cavali	-3174
▁disono	-3175
▁domani	-3176
▁riceve	-3177
▁vicini	-3178
▁intanto	-3179
▁pastori	-3180
▁piccoli	-3181
▁potenti	-3182
▁vestito	-3183
▁malvagio	-3184
▁occidente	-3185
▁ricchezza	-3186
▁consegnato	-3187
Ho	-3188
dòk	-3189
▁au	-3190
▁sv	-3191
desi	-3192
ersi	-3193
lità	-3194
mana	-3195
tter	-3196
ulti	-3197
vare	-3198
▁Dei	-3199
▁min	-3200
cinto	-3201
estra	-3202
▁mira	-3203
▁visi	-3204
▁Ester	-3205
▁Zadòk	-3206
▁abiti	-3207
▁coppa	-3208
▁estre	-3209
▁perse	-3210
▁presa	-3211
▁segni	-3212
▁albero	-3213
▁aperto	-3214
▁medesi	-3215
▁pianto	-3216
▁Cananei	-3217
▁ardente	-3218
▁Betlemme	-3219
▁alzarono	-3220
▁battezza	-3221
▁mediante	-3222
▁numerosi	-3223
▁uccidere	-3224
▁profetizza	-3225
▁benevolenza	-3226
▁governatore	-3227
▁risuscitato	-3228
àd	-3229
òn	-3230
elab	-3231
nati	-3232
rere	-3233
▁Fra	-3234
▁Gat	-3235
▁Nèf	-3236
▁San	-3237
ttono	-3238
▁aspe	-3239
▁beve	-3240
▁cand	-3241
▁cori	-3242
▁doni	-3243
▁viva	-3244
ccherà	-3245
ppiamo	-3246
strato	-3247
▁cedro	-3248
▁infed	-3249
▁piaga	-3250
▁pasqua	-3251
▁prende	-3252
▁uscirà	-3253
▁Nèftali	-3254
▁Roboamo	-3255
▁braccia	-3256
▁entrerà	-3257
▁inviato	-3258
▁resterà	-3259
▁seconda	-3260
▁viscere	-3261
▁angoscia	-3262
▁apparten	-3263
▁candelab	-3264
▁benedisse	-3265
▁appartiene	-3266
▁comandamenti	-3267
▁r	-3268
bba	-3269
rso	-3270
tio	-3271
udo	-3272
ull	-3273
▁Iz	-3274
▁Or	-3275
gura	-3276
rerò	-3277
sone	-3278
▁Mac	-3279
▁adi	-3280
▁ese	-3281
▁pla	-3282
▁vor	-3283
dotti	-3284
gnati	-3285
▁Amàn	-3286
▁appa	-3287
▁devi	-3288
▁impi	-3289
▁lino	-3290
▁sale	-3291
posero	-3292
▁Gàbaa	-3293
▁Ioram	-3294
▁bontà	-3295
▁convo	-3296
▁farlo	-3297
▁latte	-3298
▁nello	-3299
▁nuova	-3300
▁riser	-3301
▁rispe	-3302
▁vendi	-3303
▁viola	-3304
▁avesse	-3305
▁compiu	-3306
▁dirgli	-3307
▁parabo	-3308
▁regina	-3309
▁tesoro	-3310
▁Simeone	-3311
▁precipi	-3312
▁sentito	-3313
▁viventi	-3314
▁dispersi	-3315
▁dobbiamo	-3316
▁presentò	-3317
▁spavento	-3318
▁trecento	-3319
▁vendetta	-3320
▁colpevole	-3321
▁frontiera	-3322
▁mangerete	-3323
▁significa	-3324
▁Pe	-3325
▁Sò	-3326
estì	-3327
gini	-3328
tera	-3329
trai	-3330
ulon	-3331
▁bre	-3332
▁mer	-3333
▁pun	-3334
renti	-3335
ssare	-3336
ttera	-3337
venti	-3338
▁fugg	-3339
▁pare	-3340
▁rimp	-3341
▁serp	-3342
▁vite	-3343
▁Certo	-3344
▁capro	-3345
▁conte	-3346
▁messi	-3347
▁mieti	-3348
▁punto	-3349
▁rende	-3350
▁trasc	-3351
▁tribo	-3352
▁vanno	-3353
▁Chiesa	-3354
▁Ioiadà	-3355
▁guerri	-3356
▁mostra	-3357
▁perire	-3358
▁ritorn	-3359
▁salire	-3360
▁scarla	-3361
▁abomini	-3362
▁attacca	-3363
▁diedero	-3364
▁gettato	-3365
▁lettera	-3366
▁nessuna	-3367
▁ricordo	-3368
▁vengono	-3369
▁cadranno	-3370
▁compiere	-3371
▁consigli	-3372
▁dottrina	-3373
▁descritte	-3374
▁fondamenta	-3375
▁compassione	-3376
dan	-3377
lse	-3378
tam	-3379
arli	-3380
cciò	-3381
cque	-3382
late	-3383
mani	-3384
mmia	-3385
simo	-3386
▁Ciò	-3387
▁Cor	-3388
▁Ver	-3389
▁Zàb	-3390
▁bri	-3391
prese	-3392
▁arro	-3393
▁atte	-3394
▁fran	-3395
▁misu	-3396
▁temp	-3397
Andate	-3398
▁Amale	-3399
▁agito	-3400
▁sacro	-3401
eredità	-3402
▁domina	-3403
▁prezzo	-3404
▁stelle	-3405
▁trombe	-3406
▁Assiria	-3407
▁Ricorda	-3408
▁Zàbulon	-3409
▁ascolto	-3410
▁desider	-3411
▁mettere	-3412
cinquanta	-3413
▁principi	-3414
▁banchetto	-3415
▁distrutto	-3416
▁ricostrui	-3417
▁schiavitù	-3418
▁intelligenza	-3419
..	-3420
erì	-3421
esp	-3422
rne	-3423
sen	-3424
cata	-3425
deri	-3426
doma	-3427
iate	-3428
▁Era	-3429
▁Miz	-3430
▁amm	-3431
▁pon	-3432
▁rap	-3433
sabea	-3434
▁adul	-3435
▁caso	-3436
▁otto	-3437
▁rige	-3438
▁ripu	-3439
varono	-3440
▁Basan	-3441
▁belle	-3442
▁bisso	-3443
▁concu	-3444
▁edifi	-3445
▁infer	-3446
▁piano	-3447
▁prele	-3448
▁suono	-3449
almente	-3450
▁Azaria	-3451
▁Madian	-3452
▁miglia	-3453
▁ricord	-3454
▁satana	-3455
▁scriba	-3456
▁Rachele	-3457
▁caresti	-3458
▁notizia	-3459
▁offrirà	-3460
▁pastore	-3461
▁possono	-3462
▁salvato	-3463
▁strappa	-3464
▁cammelli	-3465
▁riscatto	-3466
▁diventato	-3467
▁ufficiali	-3468
▁altrimenti	-3469
▁giovinezza	-3470
Ara	-3471
rim	-3472
▁lì	-3473
efod	-3474
mòni	-3475
tero	-3476
▁eri	-3477
gendo	-3478
gerai	-3479
urità	-3480
vesti	-3481
▁pazi	-3482
▁voto	-3483
tabili	-3484
tavano	-3485
▁Iesse	-3486
▁colpì	-3487
▁guada	-3488
▁impre	-3489
▁provo	-3490
▁tolto	-3491
▁Sòdoma	-3492
▁andato	-3493
▁chiese	-3494
▁deciso	-3495
▁demòni	-3496
▁lebbra	-3497
▁niente	-3498
▁quatto	-3499
▁quinto	-3500
▁temete	-3501
rrezione	-3502
▁crocifi	-3503
▁giudizi	-3504
▁recinto	-3505
▁talenti	-3506
oblazione	-3507
▁chiamata	-3508
▁desidera	-3509
▁generato	-3510
▁allontanò	-3511
▁diventerà	-3512
▁passarono	-3513
▁pronunzia	-3514
▁attraversa	-3515
▁desolazione	-3516
▁prigionieri	-3517
▁presentarono	-3518
▁risurrezione	-3519
alb	-3520
ddi	-3521
lam	-3522
tan	-3523
▁Ge	-3524
bilì	-3525
cosa	-3526
ervi	-3527
inse	-3528
minò	-3529
▁Ief	-3530
▁Mes	-3531
▁inc	-3532
▁osc	-3533
▁sie	-3534
Parla	-3535
▁Aser	-3536
▁Mera	-3537
▁affa	-3538
▁armi	-3539
▁auto	-3540
▁azzi	-3541
▁capa	-3542
▁igno	-3543
▁inni	-3544
▁lapi	-3545
▁luna	-3546
▁sazi	-3547
▁vaci	-3548
darono	-3549
gnello	-3550
▁Nella	-3551
▁barca	-3552
▁denti	-3553
▁ingiu	-3554
▁poter	-3555
▁soave	-3556
▁suona	-3557
interno	-3558
▁andati	-3559
▁corona	-3560
▁fiamme	-3561
▁maledi	-3562
▁potrai	-3563
▁soffio	-3564
▁statua	-3565
▁vanità	-3566
▁voglia	-3567
▁Ismaele	-3568
▁giudici	-3569
▁metterà	-3570
▁necessa	-3571
▁partori	-3572
▁ritorno	-3573
▁aggiunse	-3574
▁pensieri	-3575
▁qualcosa	-3576
▁seicento	-3577
▁venivano	-3578
▁cavalieri	-3579
▁innocente	-3580
▁scarlatto	-3581
▁commettere	-3582
▁radunarono	-3583
On	-3584
bu	-3585
là	-3586
mà	-3587
Dice	-3588
roni	-3589
volo	-3590
▁Tra	-3591
▁aro	-3592
▁sfu	-3593
ombra	-3594
riamo	-3595
terni	-3596
▁aprì	-3597
▁digi	-3598
▁esal	-3599
trenta	-3600
▁bella	-3601
▁lievi	-3602
▁offrì	-3603
▁tagli	-3604
▁volle	-3605
▁debole	-3606
▁istrui	-3607
▁marcia	-3608
▁nudità	-3609
▁pubbli	-3610
▁radunò	-3611
▁stanze	-3612
angoscia	-3613
▁annunzi	-3614
▁consegn	-3615
▁portico	-3616
▁ragione	-3617
▁salvare	-3618
▁sepolto	-3619
▁terreno	-3620
▁carestia	-3621
▁potevano	-3622
▁contamina	-3623
▁costruire	-3624
▁entrarono	-3625
▁trovarono	-3626
Onnipotente	-3627
▁circoncisi	-3628
▁superstiti	-3629
▁disprezzato	-3630
▁distruggere	-3631
Ba	-3632
Mi	-3633
Voi	-3634
ate	-3635
dra	-3636
rra	-3637
Alti	-3638
cera	-3639
endi	-3640
merà	-3641
nate	-3642
ppre	-3643
zare	-3644
▁Kad	-3645
▁lav	-3646
enaià	-3647
raneo	-3648
▁Asaf	-3649
▁Gher	-3650
▁Sara	-3651
▁fama	-3652
▁raff	-3653
▁seme	-3654
▁sino	-3655
▁spun	-3656
▁turb	-3657
▁vuol	-3658
edeone	-3659
ssacar	-3660
▁Balak	-3661
▁Kiria	-3662
▁amico	-3663
▁asini	-3664
▁cadde	-3665
▁capri	-3666
▁mando	-3667
▁nutri	-3668
▁piene	-3669
▁resti	-3670
▁scomp	-3671
▁vedrà	-3672
▁Benaià	-3673
▁condur	-3674
▁dipend	-3675
▁libero	-3676
▁peggio	-3677
ccasione	-3678
▁agnello	-3679
▁antichi	-3680
▁avrebbe	-3681
▁castigo	-3682
▁costruì	-3683
▁innanzi	-3684
▁inoltre	-3685
▁miseria	-3686
▁rimasto	-3687
▁soldati	-3688
▁trasgre	-3689
Altissimo	-3690
▁cadavere	-3691
▁coraggio	-3692
▁sinagoga	-3693
▁successo	-3694
▁valorosi	-3695
▁Partirono	-3696
▁malvagità	-3697
▁partirono	-3698
▁trovavano	-3699
▁abbondanza	-3700
▁generazioni	-3701
Pa	-3702
Su	-3703
abb	-3704
ann	-3705
tun	-3706
▁dò	-3707
arci	-3708
bele	-3709
gerò	-3710
inti	-3711
lerà	-3712
pito	-3713
tava	-3714
turi	-3715
▁Ada	-3716
▁Pri	-3717
▁fun	-3718
▁iso	-3719
▁sin	-3720
gherò	-3721
scano	-3722
volto	-3723
▁Fino	-3724
▁Izre	-3725
▁aggu	-3726
▁feci	-3727
▁imma	-3728
▁legg	-3729
▁nati	-3730
▁sete	-3731
Quando	-3732
Questo	-3733
ficato	-3734
▁Erode	-3735
▁abbat	-3736
▁andrà	-3737
▁corna	-3738
▁dormi	-3739
▁falso	-3740
▁mosse	-3741
▁regna	-3742
▁Ebbene	-3743
▁difesa	-3744
▁distin	-3745
▁esseri	-3746
▁percor	-3747
▁riposa	-3748
▁stolte	-3749
▁tramon	-3750
▁voluto	-3751
▁Gedeone	-3752
▁Giacomo	-3753
▁decreto	-3754
▁diletto	-3755
▁prender	-3756
▁ragazzo	-3757
▁vergine	-3758
▁facevano	-3759
▁migliaia	-3760
▁raccolto	-3761
▁sappiamo	-3762
▁ascoltate	-3763
▁orientale	-3764
▁venticinque	-3765
No	-3766
dic	-3767
man	-3768
▁Pu	-3769
altà	-3770
anze	-3771
cono	-3772
inai	-3773
piti	-3774
tino	-3775
▁Geb	-3776
▁Mar	-3777
▁Uno	-3778
▁dol	-3779
▁tru	-3780
gherà	-3781
rdici	-3782
vendo	-3783
▁Acaz	-3784
▁Nilo	-3785
▁canc	-3786
▁navi	-3787
▁recò	-3788
▁rial	-3789
▁sepa	-3790
▁vado	-3791
▁vivi	-3792
ggiare	-3793
minerò	-3794
▁Tutte	-3795
▁beste	-3796
▁cambi	-3797
▁intri	-3798
▁proge	-3799
▁scudo	-3800
▁socco	-3801
geranno	-3802
incenso	-3803
▁Guarda	-3804
▁anelli	-3805
▁ariete	-3806
▁conclu	-3807
▁grosso	-3808
▁maschi	-3809
▁minuto	-3810
▁ricomp	-3811
▁simili	-3812
▁abitano	-3813
▁avverrà	-3814
▁cintura	-3815
▁convocò	-3816
▁manifes	-3817
▁vittima	-3818
▁condotto	-3819
▁fortezza	-3820
▁giunsero	-3821
▁maggiore	-3822
▁precetti	-3823
▁sessanta	-3824
▁vedranno	-3825
▁deportati	-3826
▁annunziato	-3827
▁attenzione	-3828
▁quattordici	-3829
▁quattrocento	-3830
Bà	-3831
inf	-3832
tuo	-3833
▁Zo	-3834
teli	-3835
▁Ber	-3836
▁Dov	-3837
▁bar	-3838
▁fil	-3839
durrò	-3840
gando	-3841
rerai	-3842
ssere	-3843
ttavo	-3844
▁Rama	-3845
▁cade	-3846
▁dici	-3847
▁fumo	-3848
▁mala	-3849
▁osti	-3850
▁rete	-3851
▁riva	-3852
▁suon	-3853
▁tuni	-3854
Prendi	-3855
micida	-3856
sterna	-3857
▁Osser	-3858
▁culto	-3859
▁dallo	-3860
▁fermò	-3861
▁grave	-3862
▁inviò	-3863
▁lacri	-3864
▁leoni	-3865
▁monto	-3866
▁pesci	-3867
▁pozzo	-3868
▁senno	-3869
▁siclo	-3870
▁spera	-3871
intorno	-3872
▁adempi	-3873
▁concub	-3874
▁Issacar	-3875
▁mangerà	-3876
▁stabilì	-3877
▁Tuttavia	-3878
▁commette	-3879
▁converti	-3880
▁tuttavia	-3881
▁camminare	-3882
▁desiderio	-3883
▁diecimila	-3884
▁guerrieri	-3885
▁salvatore	-3886
▁costituito	-3887
il	-3888
oz	-3889
bui	-3890
len	-3891
nòn	-3892
tàn	-3893
▁Es	-3894
▁dì	-3895
Bàal	-3896
acco	-3897
bati	-3898
bbri	-3899
bria	-3900
brio	-3901
essi	-3902
geva	-3903
mono	-3904
▁Baa	-3905
▁Cam	-3906
▁Iab	-3907
▁Lib	-3908
aveva	-3909
carsi	-3910
erach	-3911
lgala	-3912
rovvi	-3913
siasi	-3914
ssima	-3915
versi	-3916
▁Amen	-3917
▁dist	-3918
▁gino	-3919
▁illu	-3920
▁liti	-3921
▁perc	-3922
▁preo	-3923
▁quin	-3924
albero	-3925
minerà	-3926
▁Hanno	-3927
▁Molti	-3928
▁cieco	-3929
▁croce	-3930
▁otten	-3931
▁pezzo	-3932
▁proce	-3933
▁sacra	-3934
▁sacri	-3935
▁Gàbaon	-3936
▁Merari	-3937
▁accusa	-3938
▁conten	-3939
▁distri	-3940
▁doveva	-3941
▁lingue	-3942
▁profon	-3943
▁riferì	-3944
▁rumore	-3945
▁senten	-3946
▁sicuro	-3947
▁stolti	-3948
▁Inoltre	-3949
▁avvenne	-3950
▁cantori	-3951
▁capelli	-3952
▁conduce	-3953
▁creduto	-3954
▁spiriti	-3955
▁spoglia	-3956
▁trovare	-3957
▁calpesta	-3958
▁rispetto	-3959
▁schiaccia	-3960
▁attraverso	-3961
▁seppellirono	-3962
ffa	-3963
sài	-3964
▁Sì	-3965
▁ob	-3966
▁za	-3967
dore	-3968
iano	-3969
onna	-3970
pren	-3971
ssia	-3972
▁Lot	-3973
▁sud	-3974
stato	-3975
viene	-3976
ziona	-3977
▁Ches	-3978
▁Gebu	-3979
▁Seir	-3980
▁Sema	-3981
▁Silo	-3982
▁Uria	-3983
▁cuor	-3984
▁irre	-3985
▁rese	-3986
▁rime	-3987
andosi	-3988
▁Sinai	-3989
▁canta	-3990
▁corse	-3991
▁escla	-3992
▁inari	-3993
▁sorta	-3994
▁susci	-3995
▁terri	-3996
aspetto	-3997
ronache	-3998
unzione	-3999
▁Anania	-4000
▁Izreèl	-4001
▁caduta	-4002
▁cubito	-4003
▁sedere	-4004
▁usciti	-4005
▁volete	-4006
▁Gàlgala	-4007
▁Sansone	-4008
▁malizia	-4009
▁salario	-4010
▁scompar	-4011
▁termine	-4012
▁desideri	-4013
▁liberato	-4014
▁minaccia	-4015
▁primizie	-4016
▁restitui	-4017
▁sapranno	-4018
▁libazioni	-4019
▁superiore	-4020
▁addormentò	-4021
▁candelabro	-4022
▁sacerdozio	-4023
▁selvatiche	-4024
Dio	-4025
cer	-4026
kia	-4027
rma	-4028
une	-4029
▁Az	-4030
adàd	-4031
cità	-4032
erib	-4033
etto	-4034
gete	-4035
pera	-4036
stui	-4037
tico	-4038
▁Mal	-4039
anghe	-4040
enite	-4041
ssimi	-4042
▁Core	-4043
▁Farò	-4044
▁Sarà	-4045
▁dise	-4046
▁ineb	-4047
▁pena	-4048
▁pene	-4049
▁scru	-4050
▁vada	-4051
endono	-4052
grazia	-4053
veglia	-4054
▁degno	-4055
▁impad	-4056
▁incia	-4057
▁prode	-4058
▁rinne	-4059
▁signo	-4060
▁sonno	-4061
▁soste	-4062
▁stese	-4063
▁toccò	-4064
▁ubria	-4065
▁Kiriat	-4066
▁calice	-4067
▁fabbri	-4068
▁fatica	-4069
▁glielo	-4070
▁grembo	-4071
▁invano	-4072
▁meridi	-4073
▁pecora	-4074
▁piazze	-4075
▁render	-4076
tteranno	-4077
▁abbiate	-4078
▁aspetto	-4079
▁cercate	-4080
▁cortile	-4081
▁gradito	-4082
▁inganna	-4083
▁lacrime	-4084
▁passerà	-4085
▁saprete	-4086
▁stanghe	-4087
▁troverà	-4088
▁autorità	-4089
▁avvicinò	-4090
▁dovunque	-4091
▁grandine	-4092
▁quantità	-4093
▁spezzato	-4094
▁uccisero	-4095
▁consumato	-4096
▁estremità	-4097
▁giovenchi	-4098
▁qualsiasi	-4099
▁condizione	-4100
▁necessario	-4101
Ti	-4102
ddo	-4103
lia	-4104
rna	-4105
unu	-4106
àch	-4107
ddis	-4108
gheb	-4109
uono	-4110
▁Ghi	-4111
▁Saf	-4112
▁dra	-4113
▁pru	-4114
Vieni	-4115
detti	-4116
giada	-4117
hanno	-4118
sterà	-4119
▁Amat	-4120
▁Cale	-4121
▁appo	-4122
▁foca	-4123
▁limi	-4124
▁maes	-4125
▁prep	-4126
▁rego	-4127
▁rien	-4128
▁vaso	-4129
gliere	-4130
nunzia	-4131
occhio	-4132
▁buone	-4133
▁capre	-4134
▁forni	-4135
▁forze	-4136
▁massa	-4137
▁muore	-4138
▁muove	-4139
▁paesi	-4140
▁retta	-4141
▁richi	-4142
▁statu	-4143
▁vivrà	-4144
▁Acazia	-4145
▁arrivò	-4146
▁ciechi	-4147
▁congiu	-4148
▁dolori	-4149
▁genero	-4150
▁piomba	-4151
▁poteva	-4152
▁rovine	-4153
▁soddis	-4154
▁triste	-4155
▁uccisi	-4156
▁ventre	-4157
▁Filippo	-4158
▁armenti	-4159
▁colpito	-4160
▁disposi	-4161
▁metterò	-4162
▁paterni	-4163
▁perfino	-4164
▁potrete	-4165
▁procura	-4166
▁rivolto	-4167
▁rugiada	-4168
▁segreto	-4169
▁seguire	-4170
▁vittime	-4171
▁potranno	-4172
▁riguardi	-4173
▁risposta	-4174
▁risposto	-4175
▁Ascoltate	-4176
▁grandezza	-4177
▁mandarono	-4178
▁osservato	-4179
▁prenderai	-4180
▁resistere	-4181
▁riferisci	-4182
▁sconfisse	-4183
▁stoltezza	-4184
▁dimenticato	-4185
lò	-4186
èa	-4187
Con	-4188
cas	-4189
dai	-4190
est	-4191
uri	-4192
▁Ac	-4193
tria	-4194
vono	-4195
▁han	-4196
▁imi	-4197
asino	-4198
terio	-4199
▁Giun	-4200
▁inco	-4201
▁memo	-4202
▁odio	-4203
▁rupe	-4204
▁vasi	-4205
ariete	-4206
posito	-4207
sciuto	-4208
▁Caleb	-4209
▁Kades	-4210
▁colle	-4211
▁conge	-4212
▁corni	-4213
▁diste	-4214
▁fatte	-4215
▁mostr	-4216
▁parli	-4217
▁pochi	-4218
▁prosp	-4219
▁rossa	-4220
▁spine	-4221
▁tomba	-4222
Maestro	-4223
samente	-4224
▁Amazia	-4225
▁Negheb	-4226
▁cambia	-4227
▁creato	-4228
▁dispre	-4229
▁divora	-4230
▁domand	-4231
▁frecce	-4232
▁invoca	-4233
▁levita	-4234
▁pronto	-4235
▁scampa	-4236
▁sembra	-4237
▁travia	-4238
▁venite	-4239
▁vigore	-4240
▁brucerà	-4241
▁convoca	-4242
▁esplora	-4243
▁gelosia	-4244
▁immondi	-4245
▁malatti	-4246
▁maniera	-4247
▁passava	-4248
▁produce	-4249
▁quarant	-4250
▁regioni	-4251
▁sottome	-4252
▁vedrete	-4253
▁Cronache	-4254
▁condotti	-4255
▁menzogne	-4256
▁potrebbe	-4257
▁sentieri	-4258
▁fanciullo	-4259
▁interroga	-4260
▁offrirete	-4261
▁strumenti	-4262
▁testimone	-4263
▁meraviglie	-4264
▁prostituta	-4265
▁rispondere	-4266
▁rettitudine	-4267
▁spiegazione	-4268
Gu	-4269
zò	-4270
dad	-4271
dàb	-4272
gar	-4273
mri	-4274
nai	-4275
ssù	-4276
use	-4277
dino	-4278
male	-4279
tile	-4280
veni	-4281
▁Ele	-4282
▁Lia	-4283
▁Sua	-4284
▁Sul	-4285
▁Tor	-4286
▁vin	-4287
mando	-4288
tenza	-4289
ziano	-4290
▁Obed	-4291
▁Peri	-4292
▁ante	-4293
▁dirò	-4294
▁scal	-4295
▁spal	-4296
▁stai	-4297
▁voti	-4298
ratore	-4299
stizia	-4300
tterai	-4301
urezza	-4302
▁Natan	-4303
▁basso	-4304
▁buoni	-4305
▁cadrà	-4306
▁cosci	-4307
▁giaci	-4308
▁molta	-4309
▁oppri	-4310
▁piace	-4311
▁saldo	-4312
▁stele	-4313
▁verrò	-4314
▁andrai	-4315
▁assali	-4316
▁dovete	-4317
▁dovrai	-4318
▁incari	-4319
▁liberi	-4320
▁occupa	-4321
▁pronti	-4322
▁realtà	-4323
▁stanza	-4324
▁Costoro	-4325
▁Ioiakìm	-4326
▁abomine	-4327
▁carcere	-4328
▁cattivo	-4329
▁cavallo	-4330
▁davvero	-4331
▁diavolo	-4332
▁difetto	-4333
▁diventa	-4334
▁rifugia	-4335
▁rimarrà	-4336
▁scongiu	-4337
▁sentire	-4338
▁visioni	-4339
▁Bersabea	-4340
▁cisterna	-4341
▁compagni	-4342
▁divorerà	-4343
▁dovranno	-4344
▁montagna	-4345
▁presente	-4346
▁rimasero	-4347
▁serpente	-4348
▁supplica	-4349
▁conoscono	-4350
▁fuggirono	-4351
▁insegnare	-4352
▁partorito	-4353
▁portavano	-4354
▁prostitui	-4355
▁vantaggio	-4356
▁annunziare	-4357
▁dipendenze	-4358
▁mangeranno	-4359
▁ricompensa	-4360
▁cominciarono	-4361
...	-4362
cqu	-4363
rci	-4364
trè	-4365
Così	-4366
enni	-4367
gate	-4368
mane	-4369
ucci	-4370
▁Gre	-4371
▁mac	-4372
diate	-4373
durre	-4374
monio	-4375
quila	-4376
▁Qual	-4377
▁conv	-4378
▁esce	-4379
▁esor	-4380
▁fico	-4381
▁merc	-4382
▁mili	-4383
▁risc	-4384
▁tutt	-4385
chiamo	-4386
enderà	-4387
miglia	-4388
▁Simei	-4389
▁amano	-4390
▁avvol	-4391
▁dolce	-4392
▁risul	-4393
▁roves	-4394
▁ruote	-4395
▁sesto	-4396
▁trovi	-4397
Ascolta	-4398
meranno	-4399
▁Contro	-4400
▁Persia	-4401
▁accese	-4402
▁acceso	-4403
▁laccio	-4404
▁prostr	-4405
▁ripren	-4406
▁sosten	-4407
▁ultimi	-4408
▁valore	-4409
orgoglio	-4410
▁agguato	-4411
▁colpiti	-4412
▁confusi	-4413
▁entrati	-4414
▁offerto	-4415
▁pianura	-4416
▁ripudia	-4417
▁sapendo	-4418
▁schiave	-4419
▁tratten	-4420
▁vitello	-4421
▁Filisteo	-4422
▁compagno	-4423
▁frumento	-4424
▁mangerai	-4425
▁pazienza	-4426
▁presenti	-4427
▁quindici	-4428
▁vittoria	-4429
▁Scrittura	-4430
▁direzione	-4431
▁osservare	-4432
▁provincia	-4433
▁soggiunse	-4434
▁riferirono	-4435
▁ventiquattro	-4436
▁circoncisione	-4437
Da	-4438
kk	-4439
sà	-4440
far	-4441
fer	-4442
hai	-4443
mpe	-4444
vvi	-4445
arte	-4446
dolo	-4447
giti	-4448
mmer	-4449
sina	-4450
sper	-4451
▁ove	-4452
▁vir	-4453
becca	-4454
mperà	-4455
stito	-4456
ttati	-4457
▁Abia	-4458
▁Alza	-4459
▁Ebia	-4460
▁Mica	-4461
▁Però	-4462
▁cani	-4463
▁dati	-4464
▁deri	-4465
▁facc	-4466
▁nono	-4467
▁puoi	-4468
▁ripe	-4469
▁scuo	-4470
Alzati	-4471
ravano	-4472
ttenti	-4473
▁Avete	-4474
▁Sicon	-4475
▁carni	-4476
▁darai	-4477
▁falsi	-4478
▁fiori	-4479
▁impor	-4480
▁insor	-4481
▁manca	-4482
▁norme	-4483
▁reali	-4484
▁ripor	-4485
▁sceso	-4486
▁sentì	-4487
▁stima	-4488
▁torni	-4489
▁vicen	-4490
▁visse	-4491
▁Lascia	-4492
▁caduti	-4493
▁comand	-4494
▁conver	-4495
▁giunta	-4496
▁membra	-4497
▁oppure	-4498
▁perdon	-4499
▁sabati	-4500
▁spazio	-4501
▁vedono	-4502
▁Rebecca	-4503
▁conosco	-4504
▁entrato	-4505
▁mossero	-4506
▁parteci	-4507
▁pascolo	-4508
▁rivolse	-4509
▁scherno	-4510
▁accoglie	-4511
▁credenti	-4512
▁crescere	-4513
▁discende	-4514
▁perfetta	-4515
▁sorvegli	-4516
▁coscienza	-4517
▁giudicare	-4518
▁gridarono	-4519
▁mietitura	-4520
▁terribile	-4521
▁arrivarono	-4522
▁riparazione	-4523
Le	-4524
aia	-4525
bal	-4526
lon	-4527
trò	-4528
ttè	-4529
umi	-4530
▁Sc	-4531
▁im	-4532
cito	-4533
dice	-4534
dòne	-4535
gata	-4536
miti	-4537
onta	-4538
rale	-4539
▁Ter	-4540
▁Zer	-4541
▁cel	-4542
▁sfo	-4543
▁val	-4544
mmeno	-4545
mmina	-4546
ranta	-4547
▁Anch	-4548
▁Carm	-4549
▁Dove	-4550
▁arco	-4551
▁arti	-4552
▁nove	-4553
cquero	-4554
orfano	-4555
rerete	-4556
▁Giona	-4557
▁Hitti	-4558
▁avevi	-4559
▁corro	-4560
▁entro	-4561
▁eredi	-4562
▁ester	-4563
▁fichi	-4564
▁fissa	-4565
▁messe	-4566
▁porrò	-4567
▁sante	-4568
▁seppe	-4569
▁sposo	-4570
▁strin	-4571
▁torre	-4572
Agnello	-4573
ssibile	-4574
▁Alzati	-4575
▁Sidòne	-4576
▁avveni	-4577
▁destro	-4578
▁fiamma	-4579
▁malato	-4580
▁potete	-4581
▁respin	-4582
▁rotolo	-4583
▁saputo	-4584
▁Chelkia	-4585
▁abitava	-4586
▁appunto	-4587
▁ascolti	-4588
▁cercano	-4589
▁chiesto	-4590
▁confida	-4591
▁consola	-4592
▁contare	-4593
▁credete	-4594
▁intrisa	-4595
▁lampade	-4596
▁lascerà	-4597
▁lontani	-4598
▁piccola	-4599
▁profumi	-4600
▁sigillo	-4601
▁vestiti	-4602
▁bruciato	-4603
▁consegnò	-4604
▁flagello	-4605
▁metterai	-4606
▁parabola	-4607
▁percosse	-4608
▁trattato	-4609
▁distribui	-4610
▁diventati	-4611
▁preghiere	-4612
▁preoccupa	-4613
▁profanato	-4614
▁mangiarono	-4615
▁messaggero	-4616
▁avvicinarono	-4617
Ne	-4618
lù	-4619
pà	-4620
uf	-4621
chì	-4622
fel	-4623
lan	-4624
rle	-4625
ammi	-4626
anne	-4627
chiu	-4628
cuni	-4629
enda	-4630
moni	-4631
opia	-4632
orzo	-4633
▁Nun	-4634
▁flu	-4635
▁ins	-4636
▁nov	-4637
▁oli	-4638
▁udì	-4639
Araba	-4640
lsero	-4641
manda	-4642
rendo	-4643
trato	-4644
▁Anzi	-4645
▁Booz	-4646
▁Keat	-4647
▁Mare	-4648
▁Uzzi	-4649
▁beff	-4650
▁diva	-4651
▁eunu	-4652
▁pesa	-4653
▁tren	-4654
cavano	-4655
marono	-4656
tiopia	-4657
verete	-4658
▁Canto	-4659
▁Safàn	-4660
▁altra	-4661
▁canna	-4662
▁coppi	-4663
▁corri	-4664
▁esten	-4665
▁malfa	-4666
▁palme	-4667
▁ricor	-4668
▁rifle	-4669
▁riten	-4670
▁tradi	-4671
▁verde	-4672
iazione	-4673
omicida	-4674
▁Chiese	-4675
▁Nazare	-4676
▁azzimi	-4677
▁cenere	-4678
▁comple	-4679
▁esiste	-4680
▁felice	-4681
▁limite	-4682
▁potuto	-4683
▁ralleg	-4684
▁sabbia	-4685
▁scompa	-4686
▁sfuggi	-4687
▁strapp	-4688
▁vicina	-4689
bbrobrio	-4690
▁Abbiamo	-4691
▁altezza	-4692
▁assegna	-4693
▁cercare	-4694
▁colonna	-4695
▁dominio	-4696
▁giurare	-4697
▁lascerò	-4698
▁neanche	-4699
▁palazzi	-4700
▁passati	-4701
▁portano	-4702
▁portate	-4703
▁rendere	-4704
▁rimprov	-4705
▁Pertanto	-4706
▁divenuto	-4707
▁liberati	-4708
▁miracoli	-4709
▁portando	-4710
▁province	-4711
▁trafitti	-4712
▁Risposero	-4713
▁accessori	-4714
▁appartene	-4715
▁bestemmia	-4716
▁discepolo	-4717
▁diventare	-4718
▁gettarono	-4719
▁seguirono	-4720
▁crocifisso	-4721
▁metteranno	-4722
▁saccheggia	-4723
▁prostrarono	-4724
▁tribolazione	-4725
Sì	-4726
▁"	-4727
Dov	-4728
ant	-4729
lie	-4730
teo	-4731
▁Ru	-4732
Bene	-4733
cola	-4734
mito	-4735
naba	-4736
pore	-4737
▁Eno	-4738
▁amo	-4739
▁red	-4740
▁sii	-4741
cacia	-4742
dersi	-4743
esare	-4744
ffici	-4745
ttuto	-4746
tuale	-4747
ullàm	-4748
▁Assu	-4749
▁Bara	-4750
▁Cari	-4751
▁Sisa	-4752
▁Tale	-4753
▁appi	-4754
▁bruc	-4755
▁fuga	-4756
▁inci	-4757
andalo	-4758
andolo	-4759
stenza	-4760
▁Erano	-4761
▁Iefte	-4762
▁Legge	-4763
▁agire	-4764
▁amare	-4765
▁attin	-4766
▁averi	-4767
▁barba	-4768
▁discu	-4769
▁farti	-4770
▁fondo	-4771
▁fuggì	-4772
▁guida	-4773
▁incen	-4774
▁indov	-4775
▁magni	-4776
▁muoia	-4777
▁prego	-4778
▁repli	-4779
▁salvo	-4780
▁scacc	-4781
▁serve	-4782
▁svani	-4783
▁terza	-4784
▁vegli	-4785
▁Dodici	-4786
▁Pasqua	-4787
▁Semaia	-4788
▁bevuto	-4789
▁eppure	-4790
▁insegn	-4791
▁raffor	-4792
▁soggio	-4793
▁soglia	-4794
▁Barnaba	-4795
▁Hittiti	-4796
▁caddero	-4797
▁cattivi	-4798
▁colloca	-4799
▁difetti	-4800
▁duemila	-4801
▁eravamo	-4802
▁fragore	-4803
▁libertà	-4804
▁pregare	-4805
▁rimasti	-4806
▁rivestì	-4807
▁toccato	-4808
▁versato	-4809
ficazione	-4810
▁accaduto	-4811
▁bruciare	-4812
▁comporta	-4813
▁consegna	-4814
▁custodia	-4815
▁migliore	-4816
▁preziose	-4817
▁prodotti	-4818
▁sepolcri	-4819
▁tramonto	-4820
▁vogliono	-4821
espiazione	-4822
▁coperchio	-4823
▁germoglia	-4824
▁libazione	-4825
▁periranno	-4826
▁tranquilli	-4827
▁prescrizioni	-4828
▁settentrionale	-4829
▁Q	-4830
bot	-4831
cat	-4832
efa	-4833
guì	-4834
pri	-4835
uso	-4836
▁ab	-4837
bino	-4838
bolo	-4839
ceva	-4840
chea	-4841
dimi	-4842
ermi	-4843
mata	-4844
meno	-4845
ogni	-4846
sene	-4847
tele	-4848
▁Cai	-4849
▁Caz	-4850
▁Idu	-4851
▁Tre	-4852
▁bor	-4853
▁eff	-4854
▁gru	-4855
abiti	-4856
dezza	-4857
dolia	-4858
llare	-4859
resta	-4860
riate	-4861
sserà	-4862
tendo	-4863
trice	-4864
ttene	-4865
▁Male	-4866
▁Mana	-4867
▁abbi	-4868
▁dete	-4869
▁dito	-4870
▁geni	-4871
▁lati	-4872
▁nave	-4873
▁pari	-4874
▁prem	-4875
▁scol	-4876
▁squi	-4877
ficati	-4878
gevano	-4879
ottavo	-4880
▁Amnòn	-4881
▁Baasa	-4882
▁Beato	-4883
▁Siano	-4884
▁amato	-4885
▁andar	-4886
▁darti	-4887
▁depre	-4888
▁lunga	-4889
▁menti	-4890
▁occid	-4891
▁ombra	-4892
▁pelli	-4893
▁serva	-4894
▁steso	-4895
▁vanto	-4896
▁Alcuni	-4897
▁Cesare	-4898
▁Giudeo	-4899
▁alzerà	-4900
▁bracci	-4901
▁cambio	-4902
▁casato	-4903
▁comune	-4904
▁darete	-4905
▁decima	-4906
▁esilio	-4907
▁glorio	-4908
▁inebri	-4909
▁intere	-4910
▁pianse	-4911
▁piazza	-4912
▁radici	-4913
▁rattri	-4914
▁sentin	-4915
▁sottra	-4916
▁spetta	-4917
▁steppa	-4918
▁strage	-4919
▁tratto	-4920
▁usciva	-4921
▁veglia	-4922
▁Godolia	-4923
▁inganno	-4924
▁lievito	-4925
▁piacere	-4926
▁riversa	-4927
▁servito	-4928
▁tremila	-4929
▁vergini	-4930
▁numeroso	-4931
▁obbedito	-4932
▁portieri	-4933
▁riguarda	-4934
▁sappiate	-4935
▁sciagura	-4936
▁soddisfa	-4937
milacinque	-4938
▁adulterio	-4939
▁conquista	-4940
▁fermarono	-4941
▁ministero	-4942
▁perdonato	-4943
▁tranquillo	-4944
▁comprendere	-4945
▁manifestato	-4946
▁occidentale	-4947
▁prigioniero	-4948
▁primogeniti	-4949
▁comandamento	-4950
▁purificazione	-4951
milacinquecento	-4952
bàt	-4953
mna	-4954
mpò	-4955
mòt	-4956
oli	-4957
reb	-4958
▁eb	-4959
cerò	-4960
gati	-4961
lero	-4962
teri	-4963
▁Cer	-4964
▁Tam	-4965
▁prì	-4966
Hitti	-4967
chino	-4968
eniti	-4969
giuno	-4970
ncipi	-4971
verse	-4972
▁Ozia	-4973
▁dica	-4974
▁impu	-4975
▁into	-4976
▁pelo	-4977
▁pend	-4978
▁pone	-4979
▁smar	-4980
▁spin	-4981
▁stor	-4982
▁veda	-4983
▁zelo	-4984
Lascia	-4985
Questa	-4986
ratori	-4987
ttendo	-4988
ultimo	-4989
▁accre	-4990
▁affre	-4991
▁asten	-4992
▁avrei	-4993
▁basta	-4994
▁cetra	-4995
▁corno	-4996
▁dicio	-4997
▁isole	-4998
▁lassù	-4999
▁pregò	-5000
▁risor	-5001
▁saldi	-5002
▁teste	-5003
Hittita	-5004
cherete	-5005
▁Adonia	-5006
▁Invece	-5007
▁Ognuno	-5008
▁avessi	-5009
▁bruciò	-5010
▁caduto	-5011
▁chiuso	-5012
▁divina	-5013
▁faremo	-5014
▁frantu	-5015
▁paglia	-5016
▁piange	-5017
▁piatto	-5018
▁posero	-5019
▁rappor	-5020
▁scelti	-5021
▁scorre	-5022
▁stesse	-5023
▁vedove	-5024
▁vedrai	-5025
▁Gherson	-5026
▁avvolto	-5027
▁credere	-5028
▁imposto	-5029
▁inviati	-5030
▁mormora	-5031
▁sebbene	-5032
▁signori	-5033
▁superbi	-5034
▁vollero	-5035
▁chiesero	-5036
▁offrirai	-5037
▁orecchio	-5038
▁porzione	-5039
▁pronunzi	-5040
▁prìncipi	-5041
▁riferito	-5042
▁scandali	-5043
▁tempesta	-5044
▁cercavano	-5045
▁divennero	-5046
▁fanciulla	-5047
▁giaciglio	-5048
▁occasione	-5049
▁offrirono	-5050
▁governatori	-5051
Ci	-5052
Poi	-5053
caz	-5054
emi	-5055
lgo	-5056
lùm	-5057
mes	-5058
rot	-5059
uià	-5060
▁Og	-5061
Ezer	-5062
amot	-5063
aria	-5064
ccup	-5065
chis	-5066
nore	-5067
prio	-5068
▁Par	-5069
▁ann	-5070
▁cav	-5071
Anche	-5072
ciamo	-5073
denza	-5074
erito	-5075
esimo	-5076
famia	-5077
mensa	-5078
morra	-5079
oppre	-5080
ssuto	-5081
tarlo	-5082
tture	-5083
verai	-5084
▁alte	-5085
▁alti	-5086
▁erba	-5087
▁feli	-5088
▁mand	-5089
▁palo	-5090
▁salu	-5091
▁sbar	-5092
▁vegg	-5093
▁vele	-5094
▁vent	-5095
Poiché	-5096
abisso	-5097
azione	-5098
▁Dalla	-5099
▁Dario	-5100
▁Passa	-5101
▁Ramot	-5102
▁Rosso	-5103
▁Sarai	-5104
▁allar	-5105
▁archi	-5106
▁cessa	-5107
▁coppe	-5108
▁corda	-5109
▁detta	-5110
▁entri	-5111
▁fiore	-5112
▁gradi	-5113
▁incin	-5114
▁ladro	-5115
▁morta	-5116
▁obbli	-5117
▁oppor	-5118
▁perme	-5119
▁sanno	-5120
▁spiri	-5121
▁vorrà	-5122
▁Abisài	-5123
▁Amalek	-5124
▁Prendi	-5125
▁Saluta	-5126
▁Zeruià	-5127
▁acacia	-5128
▁alzati	-5129
▁bianco	-5130
▁confer	-5131
▁giusta	-5132
▁legato	-5133
▁maestà	-5134
▁possie	-5135
▁profan	-5136
▁radice	-5137
▁saliva	-5138
▁soffer	-5139
▁votato	-5140
▁Assuero	-5141
▁Chesbon	-5142
▁Moabiti	-5143
▁andiamo	-5144
▁apparso	-5145
▁caverna	-5146
▁digiuno	-5147
▁mistero	-5148
▁nemmeno	-5149
▁peccare	-5150
▁provoca	-5151
▁sandali	-5152
▁scrisse	-5153
▁trovano	-5154
▁venduto	-5155
▁affidato	-5156
▁bellezza	-5157
▁discorso	-5158
▁dovevano	-5159
▁migliori	-5160
▁morirono	-5161
▁salirono	-5162
▁scudiero	-5163
▁sentiero	-5164
▁sorgenti	-5165
▁toccherà	-5166
▁avrebbero	-5167
▁cherubino	-5168
▁contrario	-5169
▁distrutti	-5170
▁messaggio	-5171
▁raccoglie	-5172
▁ritornare	-5173
▁straniere	-5174
▁circonciso	-5175
▁meraviglia	-5176
▁allontanato	-5177
▁cinquecento	-5178
▁meridionale	-5179
▁stabilirono	-5180
ka	-5181
rin	-5182
sua	-5183
tàr	-5184
vio	-5185
▁Và	-5186
cali	-5187
cimo	-5188
naia	-5189
onio	-5190
▁Mik	-5191
▁Sen	-5192
▁sgo	-5193
▁tum	-5194
▁ugu	-5195
Hadàd	-5196
dremo	-5197
oroba	-5198
pocri	-5199
posti	-5200
sando	-5201
tiamo	-5202
▁Baru	-5203
▁Ciro	-5204
▁Medi	-5205
▁Vedi	-5206
▁fiss	-5207
▁ingi	-5208
▁memb	-5209
▁posa	-5210
▁quad	-5211
▁teli	-5212
ggiato	-5213
▁Ebrei	-5214
▁Esdra	-5215
▁Nebàt	-5216
▁Testi	-5217
▁acqui	-5218
▁andrò	-5219
▁aromi	-5220
▁asino	-5221
▁cetre	-5222
▁giurò	-5223
▁gover	-5224
▁pento	-5225
▁restò	-5226
▁segue	-5227
▁selva	-5228
▁sovra	-5229
▁umana	-5230
▁unico	-5231
▁virtù	-5232
insegna	-5233
▁Chiram	-5234
▁Michea	-5235
▁Sallùm	-5236
▁Zoroba	-5237
▁ammoni	-5238
▁cittad	-5239
▁deposi	-5240
▁devono	-5241
▁giunti	-5242
▁lebbro	-5243
▁misurò	-5244
▁ricchi	-5245
▁rispar	-5246
▁sapeva	-5247
▁saremo	-5248
▁scelta	-5249
▁vecchi	-5250
▁Riprese	-5251
▁centuri	-5252
▁colpire	-5253
▁coperta	-5254
▁fissato	-5255
▁foresta	-5256
▁immonda	-5257
▁interno	-5258
▁legname	-5259
▁lettere	-5260
▁montone	-5261
▁operato	-5262
▁passate	-5263
▁preferi	-5264
▁scherni	-5265
▁vicenda	-5266
▁Mesullàm	-5267
▁benedica	-5268
▁indovini	-5269
▁predetto	-5270
▁preziosi	-5271
▁riferire	-5272
▁scendono	-5273
▁seguente	-5274
▁Ricordati	-5275
▁concubina	-5276
▁fanciulli	-5277
▁vestibolo	-5278
▁consultare	-5279
▁magistrati	-5280
▁malfattori	-5281
▁passeranno	-5282
▁distruzione	-5283
ud	-5284
gie	-5285
quo	-5286
tar	-5287
ulo	-5288
▁Du	-5289
▁Ek	-5290
▁at	-5291
▁on	-5292
Dove	-5293
arne	-5294
citi	-5295
cura	-5296
erie	-5297
erla	-5298
ggiù	-5299
ppio	-5300
rnon	-5301
turo	-5302
vità	-5303
zaèl	-5304
èzer	-5305
▁Ari	-5306
▁Dav	-5307
▁Ela	-5308
▁Sor	-5309
▁Sta	-5310
▁efa	-5311
▁giù	-5312
▁squ	-5313
dette	-5314
gente	-5315
noach	-5316
posta	-5317
stare	-5318
tiene	-5319
ttano	-5320
▁Usci	-5321
▁accu	-5322
▁avan	-5323
▁cord	-5324
▁dava	-5325
▁esau	-5326
▁inde	-5327
▁orna	-5328
▁rega	-5329
▁spia	-5330
endere	-5331
inizio	-5332
lmente	-5333
stituì	-5334
▁Iotam	-5335
▁Venne	-5336
▁assal	-5337
▁cedri	-5338
▁centi	-5339
▁corde	-5340
▁fonte	-5341
▁forna	-5342
▁manto	-5343
▁mosto	-5344
▁pegno	-5345
▁seguì	-5346
▁steri	-5347
▁udite	-5348
▁vengo	-5349
assedio	-5350
rovviso	-5351
▁Ioacaz	-5352
▁Lachis	-5353
▁appari	-5354
▁benché	-5355
▁benefi	-5356
▁eletti	-5357
▁impedi	-5358
▁intero	-5359
▁lecito	-5360
▁natura	-5361
▁propri	-5362
▁punirò	-5363
▁relati	-5364
▁riparo	-5365
▁ritirò	-5366
▁scopri	-5367
▁seduti	-5368
▁teneva	-5369
▁tunica	-5370
▁uccide	-5371
▁vedete	-5372
▁veleno	-5373
▁viveri	-5374
▁volere	-5375
▁voleva	-5376
▁Dissero	-5377
▁Gebusei	-5378
▁cattura	-5379
▁concepì	-5380
▁digiuna	-5381
▁esterno	-5382
▁focacce	-5383
▁fuggire	-5384
▁fuggito	-5385
▁gridare	-5386
▁materno	-5387
▁opprime	-5388
▁palazzo	-5389
▁parlerò	-5390
▁penetra	-5391
▁prepara	-5392
▁scesero	-5393
▁sedette	-5394
▁seguiva	-5395
▁volonta	-5396
▁andranno	-5397
▁genitori	-5398
▁liberare	-5399
▁permesso	-5400
▁perversa	-5401
▁possiede	-5402
▁profonda	-5403
▁risponde	-5404
▁rivelato	-5405
▁seminato	-5406
▁sostegno	-5407
▁superbia	-5408
▁Testimoni	-5409
▁conoscete	-5410
▁pascolare	-5411
▁pettorale	-5412
▁proposito	-5413
▁risparmia	-5414
▁veramente	-5415
▁centoventi	-5416
▁entreranno	-5417
▁porteranno	-5418
▁testimonio	-5419
▁abominevoli	-5420
▁costruzione	-5421
▁distruggerò	-5422
Ar	-5423
az	-5424
mè	-5425
ùr	-5426
Noi	-5427
ced	-5428
elu	-5429
fiu	-5430
tia	-5431
vid	-5432
ène	-5433
allo	-5434
ghio	-5435
lama	-5436
orlo	-5437
spon	-5438
▁Abd	-5439
▁Cre	-5440
▁Mil	-5441
▁Mio	-5442
▁nar	-5443
▁uva	-5444
bbedi	-5445
inità	-5446
mendo	-5447
struì	-5448
udire	-5449
zzare	-5450
zzato	-5451
▁Eber	-5452
▁Esso	-5453
▁Gaza	-5454
▁Timò	-5455
▁cons	-5456
▁dedi	-5457
▁fila	-5458
▁inva	-5459
▁loda	-5460
▁sbra	-5461
▁sine	-5462
▁udii	-5463
▁vale	-5464
altura	-5465
estate	-5466
lenzio	-5467
ontana	-5468
prensi	-5469
▁Altri	-5470
▁Maced	-5471
▁Noemi	-5472
▁Ritor	-5473
▁Siate	-5474
▁ancor	-5475
▁animo	-5476
▁asciu	-5477
▁calun	-5478
▁confe	-5479
▁corru	-5480
▁diedi	-5481
▁fango	-5482
▁farvi	-5483
▁fossi	-5484
▁largo	-5485
▁lucer	-5486
▁parlo	-5487
▁passo	-5488
▁quand	-5489
▁salvi	-5490
▁secca	-5491
▁siede	-5492
▁tanti	-5493
▁torto	-5494
▁trion	-5495
▁valli	-5496
▁vasso	-5497
▁Canane	-5498
▁angoli	-5499
▁decime	-5500
▁doppio	-5501
▁dovrei	-5502
▁eresse	-5503
▁inghio	-5504
▁liberò	-5505
▁manten	-5506
intellig	-5507
▁Ebiatàr	-5508
▁Gomorra	-5509
▁Perizzi	-5510
▁animale	-5511
▁ascoltò	-5512
▁cavalle	-5513
▁celeste	-5514
▁eunuchi	-5515
▁femmina	-5516
▁giudica	-5517
▁lamenti	-5518
▁morirai	-5519
▁mortale	-5520
▁restare	-5521
▁ritornò	-5522
▁servile	-5523
▁statuti	-5524
▁suocero	-5525
▁vitelli	-5526
▁andavano	-5527
▁battenti	-5528
▁ciascuna	-5529
▁combatte	-5530
▁conviene	-5531
▁discorsi	-5532
▁divinità	-5533
▁facciano	-5534
▁libererà	-5535
▁medesimo	-5536
▁metterlo	-5537
▁nascondi	-5538
▁oppressi	-5539
▁pensiero	-5540
▁pertanto	-5541
▁prenderò	-5542
▁ricadere	-5543
▁ricevere	-5544
▁sorgente	-5545
▁umiliato	-5546
▁Maledetto	-5547
▁battesimo	-5548
▁benessere	-5549
▁fanciulle	-5550
▁ginocchia	-5551
▁moriranno	-5552
▁partecipa	-5553
▁possibile	-5554
▁usciranno	-5555
▁avvicinare	-5556
▁consacrati	-5557
▁espiazione	-5558
▁irreprensi	-5559
▁superstite	-5560
▁Testimonianza	-5561
Me	-5562
Ve	-5563
gon	-5564
lun	-5565
nia	-5566
sol	-5567
▁Eg	-5568
▁Sp	-5569
▁Va	-5570
▁us	-5571
Baal	-5572
alba	-5573
done	-5574
drio	-5575
enso	-5576
erli	-5577
iori	-5578
livi	-5579
schi	-5580
uolo	-5581
▁Aro	-5582
▁Elk	-5583
▁cri	-5584
▁hin	-5585
bileo	-5586
durrà	-5587
eluia	-5588
erare	-5589
genza	-5590
omini	-5591
zzano	-5592
▁Ammi	-5593
▁Eleà	-5594
▁Guar	-5595
▁Solo	-5596
▁Susa	-5597
▁esci	-5598
▁guai	-5599
▁ispi	-5600
▁lang	-5601
▁mela	-5602
▁most	-5603
▁nazi	-5604
▁neve	-5605
▁onde	-5606
▁pali	-5607
▁pila	-5608
▁spre	-5609
▁vigi	-5610
catore	-5611
gliete	-5612
ltanto	-5613
▁Achia	-5614
▁Achis	-5615
▁Beati	-5616
▁Maaca	-5617
▁Mizpa	-5618
▁Prima	-5619
▁Simon	-5620
▁Timna	-5621
▁assol	-5622
▁bello	-5623
▁cella	-5624
▁fammi	-5625
▁palma	-5626
▁prime	-5627
▁rocce	-5628
▁scend	-5629
▁tolse	-5630
▁versò	-5631
duemila	-5632
giziano	-5633
▁Cazaèl	-5634
▁Quanti	-5635
▁agisce	-5636
▁averlo	-5637
▁carico	-5638
▁classi	-5639
▁compie	-5640
▁confor	-5641
▁cresce	-5642
▁maltra	-5643
▁mangiò	-5644
▁minore	-5645
▁miseri	-5646
▁odiano	-5647
▁salita	-5648
▁sedici	-5649
▁sparso	-5650
quaranta	-5651
▁Davanti	-5652
▁Proprio	-5653
▁Timòteo	-5654
▁avverti	-5655
▁bevanda	-5656
▁cattiva	-5657
▁cessare	-5658
▁eravate	-5659
▁istante	-5660
▁parenti	-5661
▁rimanda	-5662
▁riprese	-5663
▁salvami	-5664
▁santità	-5665
▁scettro	-5666
▁stabile	-5667
▁stretto	-5668
▁vengano	-5669
vestitura	-5670
▁cancella	-5671
▁compiuti	-5672
▁diciotto	-5673
▁dimostra	-5674
▁divorato	-5675
▁germogli	-5676
▁giubileo	-5677
▁gridando	-5678
▁guardare	-5679
▁lasciare	-5680
▁misfatti	-5681
▁mostrerò	-5682
▁nacquero	-5683
▁piangere	-5684
▁progetti	-5685
▁purifica	-5686
▁riconosc	-5687
▁rimanere	-5688
▁scoperto	-5689
▁sinedrio	-5690
▁torrenti	-5691
▁veggente	-5692
▁Macedonia	-5693
▁abbattuto	-5694
▁ascoltano	-5695
▁centinaia	-5696
▁cittadini	-5697
▁eliminato	-5698
▁esplorare	-5699
▁guardando	-5700
▁impadroni	-5701
▁inseguire	-5702
▁osservano	-5703
▁rigettato	-5704
▁sinagoghe	-5705
▁centurione	-5706
▁compimento	-5707
▁correzione	-5708
▁lasciarono	-5709
▁risponderà	-5710
▁testimonia	-5711
intelligenza	-5712
▁consiglieri	-5713
Mo	-5714
Un	-5715
òt	-5716
Por	-5717
Sei	-5718
col	-5719
fet	-5720
lei	-5721
mpì	-5722
reo	-5723
sea	-5724
uel	-5725
usi	-5726
▁Fà	-5727
alti	-5728
auro	-5729
mise	-5730
rici	-5731
rirà	-5732
▁Ita	-5733
▁Ner	-5734
▁Qui	-5735
▁Zik	-5736
▁ami	-5737
▁gon	-5738
▁unì	-5739
▁vai	-5740
Forse	-5741
Oltre	-5742
cenza	-5743
ciare	-5744
ciuto	-5745
diano	-5746
dotta	-5747
dusse	-5748
fiume	-5749
llano	-5750
retto	-5751
talia	-5752
▁Casa	-5753
▁Chez	-5754
▁Gala	-5755
▁Matt	-5756
▁Quel	-5757
▁Sali	-5758
▁buio	-5759
▁cala	-5760
▁dile	-5761
▁fuso	-5762
▁leva	-5763
▁plas	-5764
▁rapi	-5765
▁subi	-5766
▁telo	-5767
▁tral	-5768
▁veri	-5769
Questi	-5770
aurora	-5771
minare	-5772
ufrate	-5773
▁Hadad	-5774
▁Iabes	-5775
▁Machi	-5776
▁Mizpà	-5777
▁Quale	-5778
▁Saulo	-5779
▁accon	-5780
▁bugia	-5781
▁capra	-5782
▁cinqu	-5783
▁colti	-5784
▁devia	-5785
▁digni	-5786
▁falla	-5787
▁grado	-5788
▁impie	-5789
▁posti	-5790
▁privo	-5791
▁ruggi	-5792
▁sacre	-5793
▁spade	-5794
▁starà	-5795
▁veder	-5796
▁verga	-5797
▁volge	-5798
▁Costui	-5799
▁Sisara	-5800
▁Zerach	-5801
▁amanti	-5802
▁capifa	-5803
▁costri	-5804
▁deboli	-5805
▁ferita	-5806
▁finire	-5807
▁fuggia	-5808
▁genere	-5809
▁giuste	-5810
▁grasse	-5811
▁guardi	-5812
▁impose	-5813
▁ingino	-5814
▁intona	-5815
▁laverà	-5816
▁orrore	-5817
▁percuo	-5818
▁persua	-5819
▁prenda	-5820
▁regali	-5821
▁steppe	-5822
▁truppa	-5823
▁vacche	-5824
sessanta	-5825
▁Durante	-5826
▁Manasse	-5827
▁accetta	-5828
▁accorse	-5829
▁aspetta	-5830
▁contemp	-5831
▁cortina	-5832
▁daranno	-5833
▁delitto	-5834
▁formato	-5835
▁fornace	-5836
▁guarito	-5837
▁integro	-5838
▁lampada	-5839
▁maggior	-5840
▁manderà	-5841
▁padroni	-5842
▁parente	-5843
▁perdono	-5844
▁portata	-5845
▁renderà	-5846
▁rettili	-5847
▁ritorto	-5848
▁salvati	-5849
▁salverà	-5850
▁sorgere	-5851
▁splendi	-5852
▁sterile	-5853
▁tradito	-5854
▁tributo	-5855
▁Alleluia	-5856
▁Soltanto	-5857
▁annienta	-5858
▁arricchi	-5859
▁circonda	-5860
▁disparte	-5861
▁distingu	-5862
▁flagelli	-5863
▁funziona	-5864
▁pericolo	-5865
▁perversi	-5866
▁prendete	-5867
▁profondo	-5868
▁rallegra	-5869
▁scendeva	-5870
▁seguendo	-5871
▁violento	-5872
Oltrefiume	-5873
▁Scritture	-5874
▁celebrare	-5875
▁maggiordo	-5876
▁peccatore	-5877
▁prendendo	-5878
▁troverete	-5879
▁ucciderlo	-5880
▁consacrate	-5881
▁dichiarerà	-5882
▁dodicimila	-5883
▁riscattare	-5884
▁dimenticare	-5885
▁glorificato	-5886
▁prenderanno	-5887
▁capifamiglia	-5888
▁prostituzione	-5889
Be	-5890
Ie	-5891
Lo	-5892
tè	-5893
Cor	-5894
ama	-5895
ber	-5896
dab	-5897
gor	-5898
rza	-5899
ròn	-5900
Edom	-5901
cazi	-5902
cuto	-5903
daia	-5904
dina	-5905
merò	-5906
nove	-5907
tuna	-5908
verò	-5909
▁Bal	-5910
▁Kis	-5911
▁Tro	-5912
▁ara	-5913
▁dep	-5914
▁din	-5915
▁evi	-5916
▁ino	-5917
▁nef	-5918
▁rie	-5919
▁sfa	-5920
▁sub	-5921
▁uso	-5922
▁van	-5923
aniti	-5924
arsis	-5925
ciato	-5926
detta	-5927
gilla	-5928
giona	-5929
guono	-5930
tario	-5931
vento	-5932
▁Alle	-5933
▁Allo	-5934
▁Camo	-5935
▁Geza	-5936
▁Ioza	-5937
▁Mang	-5938
▁Osea	-5939
▁Refa	-5940
▁Saba	-5941
▁Tali	-5942
▁Zeba	-5943
▁arpe	-5944
▁bran	-5945
▁caro	-5946
▁ecce	-5947
▁inti	-5948
▁lana	-5949
▁lobo	-5950
▁resa	-5951
▁squa	-5952
Eccomi	-5953
abbond	-5954
colare	-5955
ficate	-5956
ggiano	-5957
ggiava	-5958
teremo	-5959
▁Achik	-5960
▁Baruc	-5961
▁Ciasc	-5962
▁Nabal	-5963
▁Tamàr	-5964
▁Vieni	-5965
▁aiuta	-5966
▁amara	-5967
▁breve	-5968
▁copre	-5969
▁cresc	-5970
▁diade	-5971
▁farsi	-5972
▁firma	-5973
▁folle	-5974
▁guarì	-5975
▁infli	-5976
▁istru	-5977
▁mensa	-5978
▁potrò	-5979
▁rinno	-5980
▁saprà	-5981
▁sogni	-5982
▁sorti	-5983
▁turba	-5984
razioni	-5985
▁Eccomi	-5986
▁Elkana	-5987
▁Fecero	-5988
▁Gioele	-5989
▁Itamar	-5990
▁Subito	-5991
▁Tarsis	-5992
▁accumu	-5993
▁affati	-5994
▁almeno	-5995
▁aperta	-5996
▁armati	-5997
▁camera	-5998
▁canale	-5999
▁direte	-6000
▁figura	-6001
▁guardò	-6002
▁impuni	-6003
▁iniqui	-6004
▁provve	-6005
▁saluta	-6006
▁scende	-6007
▁sparse	-6008
▁spighe	-6009
▁svegli	-6010
▁tratti	-6011
duecento	-6012
▁Difatti	-6013
▁Vennero	-6014
▁abbattu	-6015
▁breccia	-6016
▁cercato	-6017
▁colline	-6018
▁colpirà	-6019
▁compirà	-6020
▁confuso	-6021
▁costrin	-6022
▁demonio	-6023
▁deposto	-6024
▁dovrete	-6025
▁esclamò	-6026
▁gettati	-6027
▁inaridi	-6028
▁magnifi	-6029
▁mucchio	-6030
▁nefande	-6031
▁partiti	-6032
▁ribelle	-6033
▁rimasta	-6034
▁santifi	-6035
▁sorelle	-6036
▁tenebra	-6037
▁terremo	-6038
▁tornato	-6039
▁tredici	-6040
▁turbine	-6041
▁vecchia	-6042
▁Eleàzaro	-6043
▁Gezabele	-6044
▁afflitti	-6045
▁apostolo	-6046
▁arrivato	-6047
▁coppiere	-6048
▁eseguito	-6049
▁finestra	-6050
▁finestre	-6051
▁immagine	-6052
▁medesima	-6053
▁mostrato	-6054
▁ottenuto	-6055
▁perfetto	-6056
▁piantato	-6057
▁pilastri	-6058
▁preziosa	-6059
▁radunati	-6060
▁rendendo	-6061
▁sentenza	-6062
▁silenzio	-6063
▁striscia	-6064
▁uscivano	-6065
▁Amaleciti	-6066
▁Beniamini	-6067
▁assemblea	-6068
▁camminano	-6069
▁deportato	-6070
▁distrutte	-6071
▁domandato	-6072
▁giudicato	-6073
▁maledetto	-6074
▁osservate	-6075
▁riferirai	-6076
▁ringrazia	-6077
▁scacciato	-6078
▁sicurezza	-6079
▁stabiliti	-6080
▁Zorobabele	-6081
▁abiteranno	-6082
▁acquistato	-6083
▁cittadella	-6084
▁dichiarato	-6085
▁forestieri	-6086
▁osservando	-6087
▁presentato	-6088
▁centotrenta	-6089
▁maggiordomo	-6090
Po	-6091
Re	-6092
Hai	-6093
Mio	-6094
ano	-6095
ing	-6096
ccot	-6097
ceri	-6098
erez	-6099
lano	-6100
mene	-6101
radi	-6102
rori	-6103
vami	-6104
zerà	-6105
zion	-6106
▁Bel	-6107
▁Off	-6108
▁Pen	-6109
▁Rut	-6110
▁asc	-6111
▁cos	-6112
▁ecc	-6113
▁mes	-6114
animo	-6115
elita	-6116
esima	-6117
ganti	-6118
garlo	-6119
immon	-6120
loria	-6121
rande	-6122
ranza	-6123
reste	-6124
sanna	-6125
spiro	-6126
tanza	-6127
torni	-6128
trerà	-6129
zzerà	-6130
▁Anak	-6131
▁Arri	-6132
▁Esul	-6133
▁Fate	-6134
▁Ieru	-6135
▁Ooli	-6136
▁aggi	-6137
▁apre	-6138
▁musi	-6139
▁muto	-6140
▁ospi	-6141
▁quer	-6142
▁ruba	-6143
▁spor	-6144
enealo	-6145
ennità	-6146
gherai	-6147
minate	-6148
ttanto	-6149
▁Abdia	-6150
▁Antio	-6151
▁Assur	-6152
▁Caino	-6153
▁Efeso	-6154
▁Elisa	-6155
▁Enoch	-6156
▁Manda	-6157
▁Merib	-6158
▁Nacor	-6159
▁Udite	-6160
▁adora	-6161
▁appro	-6162
▁baciò	-6163
▁balìa	-6164
▁braci	-6165
▁cessò	-6166
▁disso	-6167
▁drago	-6168
▁feste	-6169
▁iscri	-6170
▁lembo	-6171
▁occup	-6172
▁ossia	-6173
▁piega	-6174
▁piomb	-6175
▁posta	-6176
▁prete	-6177
▁reale	-6178
▁rendi	-6179
▁salda	-6180
▁sento	-6181
▁sogge	-6182
▁torri	-6183
▁trabo	-6184
▁tuono	-6185
▁voltò	-6186
Abbiamo	-6187
infamia	-6188
tterete	-6189
▁Machir	-6190
▁Succot	-6191
▁Venite	-6192
▁capace	-6193
▁chiede	-6194
▁compra	-6195
▁flutti	-6196
▁foglie	-6197
▁futuro	-6198
▁gruppo	-6199
▁inizia	-6200
▁langui	-6201
▁lodare	-6202
▁piaghe	-6203
▁potrei	-6204
▁salito	-6205
▁scolpi	-6206
▁scrivi	-6207
▁soffia	-6208
▁spezzò	-6209
▁Carmelo	-6210
▁Cercate	-6211
▁Secondo	-6212
▁abbiano	-6213
▁accogli	-6214
▁aromati	-6215
▁avviene	-6216
▁bisogna	-6217
▁cammini	-6218
▁canterò	-6219
▁cessato	-6220
▁comandò	-6221
▁diffici	-6222
▁disegno	-6223
▁esempio	-6224
▁gridava	-6225
▁incinta	-6226
▁inganni	-6227
▁pentola	-6228
▁perduto	-6229
▁portati	-6230
▁portava	-6231
▁pregava	-6232
▁protegg	-6233
▁replicò	-6234
▁rinchiu	-6235
▁rivolti	-6236
▁tornerà	-6237
▁Salutate	-6238
▁arrivati	-6239
▁contamin	-6240
▁dintorni	-6241
▁disperse	-6242
▁distanza	-6243
▁eseguire	-6244
▁estraneo	-6245
▁facciamo	-6246
▁lasciate	-6247
▁lavorare	-6248
▁malattia	-6249
▁mangiano	-6250
▁nascosti	-6251
▁numerosa	-6252
▁parabole	-6253
▁persever	-6254
▁proclama	-6255
▁profezia	-6256
▁radunerò	-6257
▁restaura	-6258
▁riempito	-6259
▁sapienti	-6260
▁traverse	-6261
▁ucciderà	-6262
▁vedevano	-6263
abbondanza	-6264
improvviso	-6265
▁Antiochia	-6266
▁Benedetto	-6267
▁carissimi	-6268
▁costruita	-6269
▁destinato	-6270
▁distrutta	-6271
▁diventata	-6272
▁infedeltà	-6273
▁inferiore	-6274
▁obbrobrio	-6275
▁oblazioni	-6276
▁rifiutato	-6277
▁ristabili	-6278
▁ritornerà	-6279
▁sconfitto	-6280
▁straniera	-6281
▁villaggio	-6282
▁riscattato	-6283
▁sentinella	-6284
▁settecento	-6285
▁tranquilla	-6286
▁apparteneva	-6287
▁inseguirono	-6288
▁disposizione	-6289
▁misericordio	-6290
Ch	-6291
Fa	-6292
Ora	-6293
ala	-6294
dàn	-6295
fra	-6296
meo	-6297
pro	-6298
sur	-6299
▁Cu	-6300
▁gh	-6301
▁ur	-6302
Vedi	-6303
aman	-6304
cine	-6305
lava	-6306
mpli	-6307
rreo	-6308
vino	-6309
zato	-6310
▁Asc	-6311
▁Kei	-6312
▁anc	-6313
▁bel	-6314
▁cov	-6315
▁osa	-6316
asina	-6317
carmi	-6318
ccato	-6319
elech	-6320
incas	-6321
inché	-6322
onita	-6323
ranti	-6324
scina	-6325
ssità	-6326
terrà	-6327
tòfel	-6328
unale	-6329
vestì	-6330
zzati	-6331
▁Anna	-6332
▁Cono	-6333
▁Omri	-6334
▁Pele	-6335
▁Samm	-6336
▁Sela	-6337
▁ammi	-6338
▁dita	-6339
▁leon	-6340
▁levò	-6341
▁lodi	-6342
▁manc	-6343
▁nord	-6344
▁otri	-6345
▁paga	-6346
▁rive	-6347
▁rugg	-6348
▁viso	-6349
Guarda	-6350
Venite	-6351
anderò	-6352
angolo	-6353
aquila	-6354
gliate	-6355
intera	-6356
stanza	-6357
▁Adamo	-6358
▁Canta	-6359
▁Greci	-6360
▁Iechi	-6361
▁Libna	-6362
▁Morto	-6363
▁Nabot	-6364
▁Tirza	-6365
▁Tobia	-6366
▁Valle	-6367
▁allie	-6368
▁asper	-6369
▁assen	-6370
▁beato	-6371
▁debba	-6372
▁farli	-6373
▁idolo	-6374
▁ladri	-6375
▁lieto	-6376
▁metto	-6377
▁notti	-6378
▁offre	-6379
▁olive	-6380
▁prean	-6381
▁renda	-6382
▁ritro	-6383
▁rivel	-6384
▁sciac	-6385
▁sfini	-6386
▁siedi	-6387
▁sorge	-6388
▁squar	-6389
▁stavo	-6390
▁tieni	-6391
▁tuoni	-6392
▁umano	-6393
▁vuoto	-6394
avevano	-6395
veranno	-6396
▁Quello	-6397
▁Sidone	-6398
▁Voglio	-6399
▁aperti	-6400
▁cerchi	-6401
▁classe	-6402
▁dargli	-6403
▁decimi	-6404
▁diviso	-6405
▁durerà	-6406
▁eletto	-6407
▁fargli	-6408
▁guerre	-6409
▁mariti	-6410
▁membro	-6411
▁misure	-6412
▁mostri	-6413
▁narici	-6414
▁parali	-6415
▁regale	-6416
▁rimpro	-6417
▁scelse	-6418
▁sotter	-6419
▁spalla	-6420
▁spogli	-6421
▁tenere	-6422
▁tenuto	-6423
▁travol	-6424
▁undici	-6425
▁uscita	-6426
▁uscite	-6427
gheranno	-6428
oppresso	-6429
seicento	-6430
▁Manoach	-6431
▁Natania	-6432
▁Vedendo	-6433
▁affetto	-6434
▁cercava	-6435
▁colomba	-6436
▁concede	-6437
▁concepi	-6438
▁credono	-6439
▁genealo	-6440
▁mancare	-6441
▁ottanta	-6442
▁partito	-6443
▁piacque	-6444
▁piscina	-6445
▁possano	-6446
▁ridotto	-6447
▁scacciò	-6448
▁scritte	-6449
▁seppero	-6450
▁sigilla	-6451
▁stipiti	-6452
▁suocera	-6453
▁tumulto	-6454
▁vassoio	-6455
▁vignaio	-6456
innocente	-6457
▁Ciascuno	-6458
▁antenato	-6459
▁condurre	-6460
▁condurrò	-6461
▁continuò	-6462
▁creatore	-6463
▁desolata	-6464
▁desolato	-6465
▁guadagno	-6466
▁immolerà	-6467
▁infedeli	-6468
▁invitati	-6469
▁invocato	-6470
▁ministro	-6471
▁nasconde	-6472
▁numerose	-6473
▁percuote	-6474
▁pienezza	-6475
▁prodotto	-6476
▁rapporti	-6477
▁scandalo	-6478
▁toglierà	-6479
▁vogliamo	-6480
▁allontani	-6481
▁camminato	-6482
▁chiamerai	-6483
▁consumati	-6484
▁devastato	-6485
▁espiatori	-6486
▁insegnato	-6487
▁interrogò	-6488
▁necessità	-6489
▁richiesta	-6490
▁riconosce	-6491
▁ricordati	-6492
▁servirono	-6493
▁solennità	-6494
▁tribunale	-6495
▁accompagna	-6496
▁cavallette	-6497
▁credettero	-6498
▁firmamento	-6499
▁mangiavano	-6500
▁proclamare	-6501
▁prosperità	-6502
▁sofferenze	-6503
▁troveranno	-6504
quattrocento	-6505
▁ascoltarono	-6506
▁considerato	-6507
▁distinguere	-6508
▁divoreranno	-6509
▁popolazione	-6510
▁risultarono	-6511
▁consolazione	-6512
▁predicazione	-6513
De	-6514
Fà	-6515
Sa	-6516
Sè	-6517
lì	-6518
ùl	-6519
▁(	-6520
Amo	-6521
bàd	-6522
dàr	-6523
eno	-6524
fia	-6525
lat	-6526
lfo	-6527
sad	-6528
sàn	-6529
van	-6530
vei	-6531
zzò	-6532
▁Er	-6533
Oreb	-6534
Qual	-6535
arèa	-6536
cani	-6537
labo	-6538
mari	-6539
meri	-6540
però	-6541
rite	-6542
uori	-6543
vete	-6544
zzia	-6545
▁Ces	-6546
▁Cur	-6547
▁Del	-6548
▁Mas	-6549
▁Mic	-6550
▁Sca	-6551
▁Sem	-6552
▁Sin	-6553
▁Ste	-6554
▁ast	-6555
▁ban	-6556
▁bro	-6557
▁cru	-6558
▁cur	-6559
▁età	-6560
▁fro	-6561
▁mod	-6562
▁zio	-6563
Certo	-6564
atiti	-6565
carti	-6566
ciata	-6567
dermi	-6568
derti	-6569
erono	-6570
inato	-6571
inive	-6572
llerà	-6573
mbali	-6574
metti	-6575
rdina	-6576
ssime	-6577
stano	-6578
stati	-6579
tiope	-6580
▁Acco	-6581
▁Esse	-6582
▁Gioi	-6583
▁Iona	-6584
▁Oggi	-6585
▁Vidi	-6586
▁cibi	-6587
▁colà	-6588
▁docu	-6589
▁dona	-6590
▁locu	-6591
▁meta	-6592
▁nido	-6593
▁noto	-6594
▁novi	-6595
▁nudo	-6596
▁reni	-6597
▁vana	-6598
▁vane	-6599
bilità	-6600
catori	-6601
figlio	-6602
matevi	-6603
raggio	-6604
ttiamo	-6605
▁Aveva	-6606
▁Diede	-6607
▁Perez	-6608
▁amava	-6609
▁bilan	-6610
▁calma	-6611
▁circo	-6612
▁corpi	-6613
▁dovrò	-6614
▁false	-6615
▁farmi	-6616
▁foste	-6617
▁frode	-6618
▁giova	-6619
▁giubi	-6620
▁lance	-6621
▁maghi	-6622
▁manna	-6623
▁mondi	-6624
▁nuora	-6625
▁penti	-6626
▁pesce	-6627
▁procu	-6628
▁quasi	-6629
▁rendo	-6630
▁ricop	-6631
▁riedi	-6632
▁segua	-6633
▁sussi	-6634
▁tetto	-6635
▁tiene	-6636
▁trema	-6637
▁vinto	-6638
leranno	-6639
vazione	-6640
▁Ancora	-6641
▁Atalia	-6642
▁Pincas	-6643
▁Quella	-6644
▁affari	-6645
▁ammini	-6646
▁appare	-6647
▁armate	-6648
▁calpes	-6649
▁capaci	-6650
▁chiuse	-6651
▁compio	-6652
▁contri	-6653
▁cresci	-6654
▁dispia	-6655
▁dovuto	-6656
▁ebbene	-6657
▁geloso	-6658
▁grappo	-6659
▁lavato	-6660
▁malati	-6661
▁mostrò	-6662
▁nobili	-6663
▁parete	-6664
▁patria	-6665
▁preval	-6666
▁prover	-6667
▁provvi	-6668
▁quarta	-6669
▁scoppi	-6670
▁sempli	-6671
▁sparti	-6672
▁temono	-6673
▁toglie	-6674
▁veduto	-6675
ccidente	-6676
coraggia	-6677
settanta	-6678
▁Cesarèa	-6679
▁Keatiti	-6680
▁Saranno	-6681
▁accolto	-6682
▁adirato	-6683
▁assedia	-6684
▁cantare	-6685
▁capanne	-6686
▁ciascun	-6687
▁conceda	-6688
▁consoli	-6689
▁coperto	-6690
▁coprire	-6691
▁cordoni	-6692
▁diadema	-6693
▁disteso	-6694
▁dormire	-6695
▁fortifi	-6696
▁mandati	-6697
▁memoria	-6698
▁mettiti	-6699
▁notizie	-6700
▁oltrepa	-6701
▁parlano	-6702
▁pensato	-6703
▁pesante	-6704
▁piovere	-6705
▁premura	-6706
▁proferi	-6707
▁redento	-6708
▁rimanga	-6709
▁scavato	-6710
▁sciogli	-6711
▁servirà	-6712
▁trasfor	-6713
▁tremano	-6714
▁trovati	-6715
▁Andarono	-6716
▁Nazareno	-6717
▁affilata	-6718
▁annunzio	-6719
▁arrivare	-6720
▁chiamerà	-6721
▁colpisce	-6722
▁compiute	-6723
▁concesse	-6724
▁congiura	-6725
▁contando	-6726
▁dimorare	-6727
▁disperso	-6728
▁esaltato	-6729
▁giovenca	-6730
▁giungeva	-6731
▁glorioso	-6732
▁mancanza	-6733
▁notabili	-6734
▁orgoglio	-6735
▁parlando	-6736
▁passando	-6737
▁passioni	-6738
▁perverso	-6739
▁piombare	-6740
▁risparmi	-6741
▁sappiano	-6742
▁scellera	-6743
▁tendaggi	-6744
▁troverai	-6745
▁vittorio	-6746
▁Madianiti	-6747
▁Perizziti	-6748
▁assegnato	-6749
▁capitelli	-6750
▁comandava	-6751
▁comparire	-6752
▁distrugge	-6753
▁duramente	-6754
▁parlarono	-6755
▁sciacalli	-6756
▁servivano	-6757
▁settimane	-6758
▁territori	-6759
▁tristezza	-6760
▁vendemmia	-6761
investitura	-6762
▁abbondante	-6763
▁battezzare	-6764
▁circondano	-6765
▁cominciato	-6766
▁insegnando	-6767
▁insistenza	-6768
▁ribellione	-6769
▁rimprovera	-6770
▁serviranno	-6771
▁sopportare	-6772
▁sterminato	-6773
▁abbandonati	-6774
▁impossibile	-6775
▁ingiustizia	-6776
▁osserverete	-6777
▁riparazioni	-6778
▁vendicatore	-6779
▁appartengono	-6780
▁deportazione	-6781
▁insegnamenti	-6782
▁venticinquemila	-6783
Va	-6784
au	-6785
pu	-6786
uz	-6787
àl	-6788
èo	-6789
Sia	-6790
agi	-6791
alò	-6792
dea	-6793
fni	-6794
mul	-6795
nao	-6796
tòt	-6797
unì	-6798
vve	-6799
àim	-6800
Ness	-6801
arso	-6802
erei	-6803
feti	-6804
gnor	-6805
iono	-6806
ltra	-6807
nare	-6808
nàch	-6809
ogge	-6810
rino	-6811
rrea	-6812
seia	-6813
tari	-6814
tono	-6815
unne	-6816
èlet	-6817
▁Abb	-6818
▁Cus	-6819
▁Ger	-6820
▁Gri	-6821
▁Iaa	-6822
▁Men	-6823
▁Seb	-6824
▁Sef	-6825
▁bul	-6826
▁mol	-6827
▁sfi	-6828
Arnon	-6829
Sèmes	-6830
abbia	-6831
aiuto	-6832
alora	-6833
avver	-6834
fatto	-6835
gante	-6836
grane	-6837
luvio	-6838
merai	-6839
mette	-6840
nunzi	-6841
renta	-6842
ssate	-6843
terro	-6844
verne	-6845
zzaro	-6846
▁Agar	-6847
▁Colo	-6848
▁Elam	-6849
▁Eman	-6850
▁Sefa	-6851
▁Zibà	-6852
▁coda	-6853
▁gazz	-6854
▁gono	-6855
▁infi	-6856
▁lava	-6857
▁lite	-6858
▁poca	-6859
▁rila	-6860
▁rimo	-6861
▁risa	-6862
▁risi	-6863
Costui	-6864
andone	-6865
cutori	-6866
essere	-6867
farnao	-6868
ferite	-6869
melech	-6870
ordina	-6871
ssando	-6872
ssegna	-6873
ttando	-6874
▁Aroer	-6875
▁Asaèl	-6876
▁Ierub	-6877
▁Mikal	-6878
▁Quand	-6879
▁Sulla	-6880
▁ademp	-6881
▁asine	-6882
▁attua	-6883
▁aumen	-6884
▁bande	-6885
▁candi	-6886
▁cervi	-6887
▁degna	-6888
▁dette	-6889
▁dirti	-6890
▁dison	-6891
▁disto	-6892
▁espor	-6893
▁lacci	-6894
▁leonc	-6895
▁mezzi	-6896
▁nasci	-6897
▁patri	-6898
▁porgi	-6899
▁razza	-6900
▁retro	-6901
▁spero	-6902
▁trovo	-6903
▁vuote	-6904
▁zoppi	-6905
Amorreo	-6906
cchiere	-6907
ceranno	-6908
seranno	-6909
ttarono	-6910
vimento	-6911
▁Amaria	-6912
▁Anatòt	-6913
▁Ninive	-6914
▁Totale	-6915
▁alcune	-6916
▁attesa	-6917
▁averli	-6918
▁bianca	-6919
▁diffon	-6920
▁dispor	-6921
▁divise	-6922
▁finita	-6923
▁infran	-6924
▁ipocri	-6925
▁marciò	-6926
▁oblati	-6927
▁operai	-6928
▁sbarre	-6929
▁scuote	-6930
▁sorpre	-6931
▁strito	-6932
▁tralci	-6933
▁visita	-6934
ggiavano	-6935
missione	-6936
nàcherib	-6937
▁Achikàm	-6938
▁Avevano	-6939
▁Cantate	-6940
▁Etiopia	-6941
▁Iefunne	-6942
▁Ionadàb	-6943
▁Maaseia	-6944
▁Mediter	-6945
▁accostò	-6946
▁addetti	-6947
▁afferrò	-6948
▁ancelle	-6949
▁attenti	-6950
▁bastoni	-6951
▁cembali	-6952
▁collabo	-6953
▁costumi	-6954
▁deportò	-6955
▁diluvio	-6956
▁diresse	-6957
▁divampa	-6958
▁diventi	-6959
▁elevato	-6960
▁fertile	-6961
▁guarire	-6962
▁individ	-6963
▁insulti	-6964
▁lasciar	-6965
▁lucerna	-6966
▁metallo	-6967
▁milizia	-6968
▁offriva	-6969
▁pensate	-6970
▁pregate	-6971
▁prosciu	-6972
▁proveni	-6973
▁ricordò	-6974
▁sconvol	-6975
▁sorgerà	-6976
▁stupiti	-6977
▁stupore	-6978
▁tribuno	-6979
▁tuniche	-6980
▁turbato	-6981
▁vederlo	-6982
bbedienza	-6983
occasione	-6984
occidente	-6985
▁Cafarnao	-6986
▁Rubeniti	-6987
▁antenati	-6988
▁avvenire	-6989
▁calunnia	-6990
▁canestro	-6991
▁chiedere	-6992
▁consacra	-6993
▁conserva	-6994
▁contiene	-6995
▁giungere	-6996
▁gonorrea	-6997
▁impunito	-6998
▁inciampa	-6999
▁incontra	-7000
▁lavorato	-7001
▁lavorava	-7002
▁malattie	-7003
▁mantelli	-7004
▁mercanti	-7005
▁oppresso	-7006
▁possiate	-7007
▁prendono	-7008
▁progetto	-7009
▁promesse	-7010
▁prudenza	-7011
▁riscatta	-7012
▁sapevano	-7013
▁scaccerò	-7014
▁scamperà	-7015
▁scrivere	-7016
▁sdegnato	-7017
▁sopravvi	-7018
▁trascura	-7019
▁adempisse	-7020
▁colpirono	-7021
▁disgrazia	-7022
▁distrusse	-7023
▁giudicate	-7024
▁innalzato	-7025
▁insultato	-7026
▁melagrane	-7027
▁partorire	-7028
▁predicare	-7029
▁pronunziò	-7030
▁sconfitti	-7031
▁servitori	-7032
▁soggiorna	-7033
▁superiori	-7034
▁vecchiaia	-7035
▁ventimila	-7036
▁vignaioli	-7037
▁avversario	-7038
▁cinquemila	-7039
▁commettono	-7040
▁confusione	-7041
▁continuava	-7042
▁linguaggio	-7043
▁nefandezze	-7044
▁perdizione	-7045
▁pubblicani	-7046
▁purificato	-7047
▁ricondurrò	-7048
▁sentimenti	-7049
▁sottomesso	-7050
▁spirituale	-7051
▁sterminati	-7052
▁torneranno	-7053
▁Sennàcherib	-7054
▁ascolterete	-7055
▁contaminata	-7056
▁contaminato	-7057
▁pronunziata	-7058
▁rivelazione	-7059
▁sacrificare	-7060
▁trasportare	-7061
▁disposizioni	-7062
▁diventeranno	-7063
▁giustificato	-7064
▁intelligente	-7065
▁riconosciuto	-7066
▁sorveglianza	-7067
Ta	-7068
ed	-7069
kò	-7070
èr	-7071
ìt	-7072
▁ò	-7073
Pro	-7074
acc	-7075
ass	-7076
gab	-7077
mòn	-7078
ndo	-7079
oti	-7080
trà	-7081
ucc	-7082
uva	-7083
▁Ah	-7084
▁Ib	-7085
Aram	-7086
Sali	-7087
arma	-7088
dute	-7089
ellò	-7090
fran	-7091
impo	-7092
runi	-7093
tito	-7094
trui	-7095
tuno	-7096
unti	-7097
▁Acc	-7098
▁Iai	-7099
▁Ofi	-7100
▁Pad	-7101
▁Rin	-7102
▁Sii	-7103
▁Sim	-7104
▁Tab	-7105
▁bat	-7106
▁ful	-7107
affli	-7108
chita	-7109
credu	-7110
eraià	-7111
ganza	-7112
ggere	-7113
ggeri	-7114
gnata	-7115
ingiu	-7116
minia	-7117
remmo	-7118
serse	-7119
sulto	-7120
tendi	-7121
tenti	-7122
tizia	-7123
verno	-7124
ènego	-7125
▁Assi	-7126
▁Chia	-7127
▁Farà	-7128
▁baga	-7129
▁bagn	-7130
▁chio	-7131
▁coll	-7132
▁eroi	-7133
▁giro	-7134
▁gola	-7135
▁inta	-7136
▁muta	-7137
▁nipo	-7138
▁regi	-7139
▁regn	-7140
▁sana	-7141
▁sosp	-7142
▁tori	-7143
▁ugua	-7144
▁unto	-7145
▁vali	-7146
▁vasa	-7147
▁voci	-7148
andona	-7149
dranno	-7150
enderò	-7151
endosi	-7152
erebbe	-7153
garono	-7154
minati	-7155
ssioni	-7156
▁Amasà	-7157
▁Barak	-7158
▁Batti	-7159
▁Gosen	-7160
▁Keila	-7161
▁Media	-7162
▁Prese	-7163
▁Siamo	-7164
▁Ulivi	-7165
▁amate	-7166
▁amati	-7167
▁ascen	-7168
▁balsa	-7169
▁bordo	-7170
▁brama	-7171
▁cinta	-7172
▁cipre	-7173
▁corso	-7174
▁darvi	-7175
▁ebrai	-7176
▁gallo	-7177
▁gambe	-7178
▁genìa	-7179
▁inuti	-7180
▁larga	-7181
▁lettu	-7182
▁mirra	-7183
▁nozze	-7184
▁piani	-7185
▁pigro	-7186
▁pongo	-7187
▁prove	-7188
▁quoti	-7189
▁rosso	-7190
▁sangu	-7191
▁sarei	-7192
▁semin	-7193
▁sospi	-7194
▁sradi	-7195
▁trent	-7196
▁utile	-7197
▁vanti	-7198
▁vorre	-7199
▁zolfo	-7200
abbiamo	-7201
altezza	-7202
camente	-7203
cazioni	-7204
esterno	-7205
istante	-7206
oggetto	-7207
secondo	-7208
taserse	-7209
tterono	-7210
▁Diceva	-7211
▁Ghezer	-7212
▁Gloria	-7213
▁Meglio	-7214
▁Mesàch	-7215
▁Oppure	-7216
▁Uomini	-7217
▁altrui	-7218
▁alzare	-7219
▁annien	-7220
▁antico	-7221
▁azione	-7222
▁chiude	-7223
▁depose	-7224
▁eretto	-7225
▁fatelo	-7226
▁palato	-7227
▁picche	-7228
▁prepar	-7229
▁preser	-7230
▁quante	-7231
▁sacchi	-7232
▁salute	-7233
▁scruta	-7234
▁seduta	-7235
▁stanco	-7236
▁totale	-7237
▁trasco	-7238
▁truppe	-7239
▁uguale	-7240
▁vedano	-7241
▁venera	-7242
ggeranno	-7243
▁Cananeo	-7244
▁Iechièl	-7245
▁Michele	-7246
▁Susanna	-7247
▁abbatte	-7248
▁abiterà	-7249
▁affatto	-7250
▁angosce	-7251
▁arrossi	-7252
▁avevate	-7253
▁bevande	-7254
▁condann	-7255
▁congedò	-7256
▁cortili	-7257
▁cuocere	-7258
▁delizie	-7259
▁esposto	-7260
▁gridato	-7261
▁guarita	-7262
▁inavver	-7263
▁insiste	-7264
▁invidia	-7265
▁letizia	-7266
▁lontana	-7267
▁montoni	-7268
▁parlerà	-7269
▁pensava	-7270
▁preparò	-7271
▁profano	-7272
▁rendete	-7273
▁riconci	-7274
▁ridotta	-7275
▁ridotti	-7276
▁ridurrò	-7277
▁rinfran	-7278
▁saziati	-7279
▁scritti	-7280
▁servite	-7281
▁solenne	-7282
▁sposato	-7283
▁sveglia	-7284
▁uccello	-7285
▁udirono	-7286
▁vediamo	-7287
Benedetto	-7288
▁Abdènego	-7289
▁Guardate	-7290
▁Mattania	-7291
▁accadere	-7292
▁alzatosi	-7293
▁appoggia	-7294
▁assicura	-7295
▁attraver	-7296
▁avvenuto	-7297
▁benedire	-7298
▁bruciata	-7299
▁cambierò	-7300
▁commesse	-7301
▁commessi	-7302
▁compiace	-7303
▁conforto	-7304
▁consider	-7305
▁disposto	-7306
▁infelice	-7307
▁interpre	-7308
▁invitato	-7309
▁lebbroso	-7310
▁martello	-7311
▁mettendo	-7312
▁percosso	-7313
▁piangete	-7314
▁plasmato	-7315
▁poterono	-7316
▁precetto	-7317
▁prestito	-7318
▁prezioso	-7319
▁rassegna	-7320
▁serpenti	-7321
▁soffrire	-7322
▁stracciò	-7323
▁Achitòfel	-7324
▁abiterete	-7325
▁accampati	-7326
▁camminava	-7327
▁concubine	-7328
▁discutere	-7329
▁disprezzo	-7330
▁ginocchio	-7331
▁intendere	-7332
▁interesse	-7333
▁passaggio	-7334
▁possedeva	-7335
▁prenderlo	-7336
▁raggiunse	-7337
▁ricordare	-7338
▁rivestiti	-7339
▁sarebbero	-7340
▁settemila	-7341
▁settimana	-7342
▁strappato	-7343
▁terremoto	-7344
▁acquistare	-7345
▁ascensioni	-7346
▁battezzati	-7347
▁camminando	-7348
▁comandante	-7349
▁funzionari	-7350
▁giudicherò	-7351
▁moltiplica	-7352
▁prediletto	-7353
▁raccomanda	-7354
▁santissima	-7355
▁sterminerò	-7356
▁tentazione	-7357
▁allontanati	-7358
▁distruggerà	-7359
▁popolazioni	-7360
▁raccogliere	-7361
▁attraversare	-7362
▁allontanarono	-7363
▁decimosecondo	-7364
▁interrogarono	-7365
Vo	-7366
ua	-7367
!»,	-7368
alm	-7369
bbo	-7370
bbà	-7371
bio	-7372
bià	-7373
bàr	-7374
cli	-7375
fon	-7376
osc	-7377
saf	-7378
sma	-7379
▁Dì	-7380
▁Mà	-7381
Fino	-7382
Oggi	-7383
allu	-7384
arìm	-7385
bbie	-7386
bbre	-7387
chìn	-7388
duci	-7389
elia	-7390
elso	-7391
fani	-7392
ghia	-7393
gina	-7394
igno	-7395
mmòn	-7396
mori	-7397
mpie	-7398
pidi	-7399
polo	-7400
rita	-7401
ronì	-7402
tane	-7403
zerò	-7404
▁Iok	-7405
▁Può	-7406
▁Rad	-7407
▁Rec	-7408
▁Spa	-7409
▁Vol	-7410
▁Zif	-7411
▁fui	-7412
▁imb	-7413
▁ivi	-7414
▁ode	-7415
▁omb	-7416
▁sad	-7417
▁stà	-7418
Tutto	-7419
asciu	-7420
carvi	-7421
ccati	-7422
cerai	-7423
dràch	-7424
ducei	-7425
giani	-7426
gnare	-7427
lgono	-7428
marsi	-7429
monia	-7430
perti	-7431
retti	-7432
serai	-7433
stono	-7434
tarmi	-7435
trapi	-7436
trici	-7437
ttoni	-7438
ttore	-7439
volta	-7440
volti	-7441
ziale	-7442
zietà	-7443
zzini	-7444
▁Arpa	-7445
▁Bani	-7446
▁Bela	-7447
▁Canà	-7448
▁Iair	-7449
▁Misu	-7450
▁Nebo	-7451
▁Ofir	-7452
▁Pasc	-7453
▁cane	-7454
▁carb	-7455
▁disa	-7456
▁inda	-7457
▁maga	-7458
▁mane	-7459
▁occo	-7460
▁orzo	-7461
▁ramo	-7462
▁rane	-7463
▁reti	-7464
▁riso	-7465
▁robu	-7466
▁sgua	-7467
▁tese	-7468
▁zona	-7469
Quanto	-7470
andovi	-7471
ciasse	-7472
decimo	-7473
ficata	-7474
gionia	-7475
giuolo	-7476
gliato	-7477
inello	-7478
ontane	-7479
rinten	-7480
sterai	-7481
tatevi	-7482
▁Amram	-7483
▁Cazor	-7484
▁Efron	-7485
▁Ekron	-7486
▁Eliab	-7487
▁Macli	-7488
▁Prepa	-7489
▁Quell	-7490
▁abitò	-7491
▁aderi	-7492
▁adirò	-7493
▁appli	-7494
▁assai	-7495
▁battè	-7496
▁beati	-7497
▁campa	-7498
▁colei	-7499
▁coprì	-7500
▁corsa	-7501
▁dando	-7502
▁darci	-7503
▁detti	-7504
▁esclu	-7505
▁fallo	-7506
▁farne	-7507
▁forno	-7508
▁innoc	-7509
▁intin	-7510
▁lotta	-7511
▁lungi	-7512
▁metta	-7513
▁norma	-7514
▁nottu	-7515
▁onora	-7516
▁passe	-7517
▁pazzo	-7518
▁pigia	-7519
▁prole	-7520
▁saper	-7521
▁scesi	-7522
▁stupi	-7523
▁tasso	-7524
▁tenne	-7525
Etiopia	-7526
Nessuno	-7527
ciarono	-7528
empietà	-7529
riranno	-7530
ttibile	-7531
uccello	-7532
▁Andate	-7533
▁Avendo	-7534
▁Coloro	-7535
▁Furono	-7536
▁Gaditi	-7537
▁Giaffa	-7538
▁Grande	-7539
▁Idumei	-7540
▁Seraià	-7541
▁Trenta	-7542
▁abissi	-7543
▁accade	-7544
▁adorna	-7545
▁affidò	-7546
▁arrivo	-7547
▁assalì	-7548
▁assass	-7549
▁cadono	-7550
▁chiara	-7551
▁convin	-7552
▁coscia	-7553
▁errore	-7554
▁fatevi	-7555
▁fegato	-7556
▁gemito	-7557
▁gioirà	-7558
▁gliela	-7559
▁govern	-7560
▁infine	-7561
▁ingann	-7562
▁macina	-7563
▁memori	-7564
▁odiato	-7565
▁rapina	-7566
▁regola	-7567
▁retico	-7568
▁risana	-7569
▁saprai	-7570
▁scrivo	-7571
▁sedeva	-7572
▁sicura	-7573
▁sommer	-7574
▁spesso	-7575
▁stella	-7576
▁tortuo	-7577
▁uncini	-7578
▁vasaio	-7579
▁vedeva	-7580
▁vivono	-7581
oscurità	-7582
▁Gebuseo	-7583
▁Iozabàd	-7584
▁Lazzaro	-7585
▁Malchia	-7586
▁Manderò	-7587
▁Profeti	-7588
▁Sadràch	-7589
▁accredi	-7590
▁arresta	-7591
▁avevamo	-7592
▁cancell	-7593
▁cattive	-7594
▁cervice	-7595
▁collocò	-7596
▁confron	-7597
▁detesto	-7598
▁discute	-7599
▁durezza	-7600
▁ebraico	-7601
▁essersi	-7602
▁fatiche	-7603
▁freccia	-7604
▁gettare	-7605
▁giubilo	-7606
▁gradini	-7607
▁gridano	-7608
▁incensi	-7609
▁incomin	-7610
▁insidie	-7611
▁leggere	-7612
▁maligno	-7613
▁novella	-7614
▁pagherà	-7615
▁regnerà	-7616
▁respiro	-7617
▁ricadrà	-7618
▁ricerca	-7619
▁sazietà	-7620
▁seguono	-7621
▁sollevò	-7622
▁stermin	-7623
▁talento	-7624
▁terrete	-7625
▁tessuto	-7626
▁toccare	-7627
▁tornati	-7628
▁tornerò	-7629
▁ungerai	-7630
▁violato	-7631
▁volendo	-7632
ciassette	-7633
struzione	-7634
▁Battista	-7635
▁Ioiachìn	-7636
▁aprirono	-7637
▁cercando	-7638
▁credente	-7639
▁credette	-7640
▁demolito	-7641
▁diffonde	-7642
▁dimorerà	-7643
▁divenuta	-7644
▁infedele	-7645
▁lascerai	-7646
▁mangiate	-7647
▁misurare	-7648
▁morirete	-7649
▁nascosta	-7650
▁passione	-7651
▁proclamò	-7652
▁proviene	-7653
▁riposare	-7654
▁sadducei	-7655
▁salutano	-7656
▁sapiente	-7657
▁scampati	-7658
▁soccorso	-7659
▁stendere	-7660
▁straccia	-7661
▁sventure	-7662
▁tagliato	-7663
▁Artaserse	-7664
▁Prenderai	-7665
▁andarsene	-7666
▁crogiuolo	-7667
▁esaminerà	-7668
▁guardiano	-7669
▁infermità	-7670
▁muovevano	-7671
▁ornamenti	-7672
▁ottocento	-7673
▁piangendo	-7674
▁preparati	-7675
▁prigionia	-7676
▁questione	-7677
▁riconobbe	-7678
▁ricordato	-7679
▁rimangono	-7680
▁scongiuro	-7681
▁sovrinten	-7682
▁stabilita	-7683
▁suppliche	-7684
▁terminato	-7685
▁afflizione	-7686
▁apparterrà	-7687
▁disperderò	-7688
▁immondezza	-7689
▁oppressori	-7690
▁profondità	-7691
▁raccolsero	-7692
▁rimarranno	-7693
▁sterminare	-7694
▁strisciano	-7695
▁apertamente	-7696
▁conversione	-7697
▁partoriente	-7698
▁riconoscere	-7699
▁Mediterraneo	-7700
▁accampamenti	-7701
▁amministrato	-7702
▁appartenenti	-7703
▁circoncidere	-7704
▁inavvertenza	-7705
▁tribolazioni	-7706
▁abbandonarono	-7707
▁irreprensibile	-7708
▁misericordioso	-7709
?»,	-7710
Idu	-7711
Tor	-7712
avo	-7713
bai	-7714
bla	-7715
cam	-7716
crì	-7717
deo	-7718
faz	-7719
gda	-7720
kil	-7721
làg	-7722
rgi	-7723
rto	-7724
sìb	-7725
ume	-7726
àre	-7727
▁zi	-7728
Asia	-7729
Rabb	-7730
cile	-7731
drea	-7732
ecco	-7733
enna	-7734
ereb	-7735
etta	-7736
ette	-7737
ezer	-7738
llia	-7739
nice	-7740
sola	-7741
stre	-7742
tena	-7743
tili	-7744
ttài	-7745
▁Aia	-7746
▁Cad	-7747
▁Col	-7748
▁Com	-7749
▁Gog	-7750
▁Naa	-7751
▁Nei	-7752
▁Ram	-7753
▁Rom	-7754
▁Sel	-7755
▁Zab	-7756
▁Zeb	-7757
▁ido	-7758
▁pin	-7759
Dammi	-7760
Padre	-7761
amato	-7762
archi	-7763
cchiò	-7764
ccome	-7765
chiti	-7766
elato	-7767
grità	-7768
gusti	-7769
lando	-7770
mpani	-7771
ranio	-7772
segna	-7773
tanti	-7774
tezze	-7775
ttiti	-7776
tutto	-7777
vergo	-7778
àreca	-7779
▁Date	-7780
▁Evei	-7781
▁Kena	-7782
▁Neto	-7783
▁Raab	-7784
▁Sila	-7785
▁Tito	-7786
▁adun	-7787
▁ebbi	-7788
▁esca	-7789
▁fero	-7790
▁funi	-7791
▁guan	-7792
▁melo	-7793
▁pale	-7794
▁pesi	-7795
▁pula	-7796
▁pura	-7797
▁puri	-7798
▁reci	-7799
▁rivi	-7800
▁rusc	-7801
▁sano	-7802
▁senz	-7803
▁serv	-7804
▁sgab	-7805
▁sgor	-7806
▁sinc	-7807
▁suss	-7808
▁urla	-7809
▁vien	-7810
Etiope	-7811
cciono	-7812
cevano	-7813
detevi	-7814
elemia	-7815
larono	-7816
minata	-7817
scendo	-7818
ttutto	-7819
▁Basàn	-7820
▁Camor	-7821
▁Consi	-7822
▁Eglon	-7823
▁Festo	-7824
▁Nelle	-7825
▁Parla	-7826
▁Recàb	-7827
▁Sulle	-7828
▁abbra	-7829
▁anime	-7830
▁arida	-7831
▁atter	-7832
▁avver	-7833
▁caldo	-7834
▁cerco	-7835
▁cogli	-7836
▁danza	-7837
▁degni	-7838
▁dimen	-7839
▁dimin	-7840
▁dista	-7841
▁erede	-7842
▁estra	-7843
▁falce	-7844
▁fiere	-7845
▁incor	-7846
▁insol	-7847
▁odore	-7848
▁oltra	-7849
▁perle	-7850
▁porre	-7851
▁prefe	-7852
▁privi	-7853
▁pruni	-7854
▁punte	-7855
▁ravve	-7856
▁ricol	-7857
▁rovin	-7858
▁scopo	-7859
▁scure	-7860
▁senso	-7861
▁soffo	-7862
▁sosti	-7863
▁spigo	-7864
▁suonò	-7865
▁tardi	-7866
▁tigna	-7867
▁usato	-7868
▁volse	-7869
▁volti	-7870
affanno	-7871
agnello	-7872
elmente	-7873
endente	-7874
insulto	-7875
inverno	-7876
▁Ammina	-7877
▁Andrea	-7878
▁Elifaz	-7879
▁Kàreca	-7880
▁Maskil	-7881
▁Misurò	-7882
▁Refaim	-7883
▁Sappia	-7884
▁Terach	-7885
▁Uzziel	-7886
▁Ziklàg	-7887
▁alzato	-7888
▁andata	-7889
▁cambiò	-7890
▁capire	-7891
▁conven	-7892
▁covoni	-7893
▁debito	-7894
▁dimore	-7895
▁divorò	-7896
▁escono	-7897
▁febbre	-7898
▁felici	-7899
▁freddo	-7900
▁iniquo	-7901
▁inseri	-7902
▁invocò	-7903
▁lunghe	-7904
▁orfani	-7905
▁pareti	-7906
▁perirà	-7907
▁piante	-7908
▁piantò	-7909
▁prolun	-7910
▁promul	-7911
▁riempì	-7912
▁rubato	-7913
▁scampo	-7914
▁scenda	-7915
▁scendi	-7916
▁statue	-7917
▁	-7918
e	-7919
i	-7920
a	-7921
o	-7922
r	-7923
n	-7924
l	-7925
t	-7926
s	-7927
c	-7928
d	-7929
u	-7930
p	-7931
m	-7932
g	-7933
v	-7934
,	-7935
h	-7936
f	-7937
b	-7938
z	-7939
S	-7940
q	-7941
à	-7942
'	-7943
ò	-7944
:	-7945
I	-7946
è	-7947
D	-7948
A	-7949
G	-7950
E	-7951
é	-7952
.	-7953
;	-7954
»	-7955
«	-7956
C	-7957
M	-7958
P	-7959
ì	-7960
ù	-7961
N	-7962
L	-7963
?	-7964
B	-7965
Q	-7966
T	-7967
F	-7968
!	-7969
R	-7970
O	-7971
-	-7972
V	-7973
k	-7974
U	-7975
Z	-7976
H	-7977
K	-7978
"	-7979
1	-7980
6	-7981
(	-7982
2	-7983
)	-7984
3	-7985
4	-7986
5	-7987
7	-7988
8	-7989
0	-7990
9	-7991
J	-7992
’	-7993
]	-7994
j	-7995
}	-7996
