<pad>	0
</s>	0
<unk>	0
▁Ꭰ	-0
▁Ꭴ	-1
▁Ꮎ	-2
ᏍᎩ	-3
ᏍᏗ	-4
▁Ꭲ	-5
▁ᎠᎴ	-6
▁ᎾᏍᎩ	-7
▁Ꭸ	-8
▁Ꮒ	-9
▁ᎨᏒ	-10
▁Ꮵ	-11
▁Ꭶ	-12
▁Ꮧ	-13
▁Ꭿ	-14
▁ᎯᎠ	-15
ᎵᏍ	-16
▁Ꮷ	-17
ᏅᎯ	-18
▁Ꮔ	-19
▁Ꭼ	-20
▁ᎢᏳ	-21
▁Ᏹ	-22
▁Ꭱ	-23
ᏗᏱ	-24
▁ᎤᏁ	-25
▁Ꮪ	-26
▁Ꭵ	-27
ᏓᏁ	-28
▁ᎠᏂ	-29
ᏓᏅ	-30
▁ᎤᏂ	-31
ᏍᎬ	-32
▁Ꮕ	-33
ᏍᎦ	-34
ᎯᏳ	-35
▁Ꭳ	-36
▁ᎥᏝ	-37
▁ᎨᏒᎢ	-38
ᏰᏃ	-39
ᏪᏎ	-40
ᎳᏅᎯ	-41
▁ᎤᎾ	-42
▁Ꮥ	-43
▁Ꮣ	-44
ᏍᏛ	-45
▁Ꭺ	-46
▁ᎤᏁᎳᏅᎯ	-47
ᏙᏗ	-48
▁ᏂᎦ	-49
ᏍᏗᏱ	-50
ᏤᎵ	-51
ᎬᏫ	-52
▁Ꭹ	-53
ᏍᎨ	-54
ᎬᏫᏳ	-55
ᎨᏒ	-56
ᏍᎩᏂ	-57
▁Ꮳ	-58
ᏓᎴ	-59
ᏎᏍᏗ	-60
▁ᎬᏩ	-61
ᎸᎩ	-62
ᏍᎪ	-63
▁ᏥᏌ	-64
ᏴᏫ	-65
ᎬᏩ	-66
ᏍᏓ	-67
▁ᎩᎶ	-68
▁ᎠᏎ	-69
▁ᎢᎦ	-70
ᎬᏫᏳᎯ	-71
ᏍᏉ	-72
ᏛᏁ	-73
ᏙᎯ	-74
▁ᎾᏍᏉ	-75
ᎸᎯ	-76
ᏔᏅ	-77
▁ᏴᏫ	-78
ᎴᎢ	-79
▁ᎬᏂ	-80
ᎦᏔ	-81
▁ᎾᏍᎩᏯ	-82
▁ᎠᏴ	-83
ᏍᏓᏁ	-84
▁ᎤᏪ	-85
ᏩᏛ	-86
▁Ꮻ	-87
ᎸᏉ	-88
▁Ꮏ	-89
ᏃᎮ	-90
▁ᎢᏥ	-91
ᏒᎩ	-92
ᎶᎯ	-93
▁ᎿᏉ	-94
▁ᎨᏎᏍᏗ	-95
▁ᎢᏣ	-96
ᏗᏳ	-97
▁ᎠᏥ	-98
ᏎᎢ	-99
ᏍᎨᏍᏗ	-100
ᎨᏒᎾ	-101
▁ᏥᎩ	-102
▁ᏂᎨᏒᎾ	-103
▁ᎤᎬᏫᏳᎯ	-104
▁ᏂᎯ	-105
ᏩᏗ	-106
ᏙᏗᏱ	-107
ᎲᎢ	-108
▁ᎠᏎᏃ	-109
▁ᎢᏳᏍᏗ	-110
ᎸᎢ	-111
ᎦᎵᏍ	-112
▁Ꭷ	-113
ᏣᏘ	-114
ᎶᏁ	-115
ᎧᎿ	-116
ᏁᎢ	-117
ᎸᏫ	-118
ᎮᏍᏗ	-119
▁ᎾᎿ	-120
ᎶᏁᏛ	-121
▁ᏄᏪᏎ	-122
ᎸᏫᏍᏓᏁ	-123
ᎳᏗ	-124
ᏍᏕ	-125
ᏄᎪ	-126
ᎯᏍᏗ	-127
ᏍᏆ	-128
▁ᎦᎶᏁᏛ	-129
▁ᎤᏲ	-130
▁ᎠᎩ	-131
ᏙᏓ	-132
ᏰᎸ	-133
▁ᏱᎩ	-134
▁Ꮤ	-135
▁ᏧᎾ	-136
▁ᏂᏚ	-137
ᏅᏛ	-138
ᏔᏅᎯ	-139
ᎱᏍᏗ	-140
▁ᎤᏤᎵ	-141
▁ᎠᎾ	-142
▁ᎪᎱᏍᏗ	-143
ᏰᎵ	-144
ᏍᎬᎢ	-145
ᎵᏍᏗ	-146
▁ᎠᏁ	-147
▁ᏅᏓ	-148
▁ᏂᎦᏛ	-149
▁ᎢᏨ	-150
▁Ꮽ	-151
ᏓᏙ	-152
▁ᎣᏍᏛ	-153
▁Ꮜ	-154
ᏓᏅᏙ	-155
▁ᎾᏍᎩᏃ	-156
▁ᎤᏩ	-157
▁ᎠᏆ	-158
▁ᎢᏳᏃ	-159
▁ᎢᏯ	-160
▁ᎦᏙ	-161
▁ᎤᎵ	-162
▁Ꮶ	-163
▁ᏗᎦ	-164
ᏓᎵ	-165
▁Ꮮ	-166
ᏂᎪ	-167
▁ᎠᏍᎦ	-168
▁ᏧᏂ	-169
ᏩᏗᏙᎯ	-170
ᎦᎵᏍᏙᏗ	-171
▁ᎿᏉᏃ	-172
▁ᎢᎬ	-173
ᎨᏳ	-174
ᏓᎴᏅᏛ	-175
ᏅᎩ	-176
▁ᎤᏙ	-177
▁ᏗᎧᎿ	-178
▁ᏗᏂ	-179
▁ᎦᎸ	-180
ᎦᏘ	-181
▁ᎤᏪᏥ	-182
▁ᎾᏂ	-183
ᏴᏛ	-184
▁ᏞᏍᏗ	-185
▁ᎡᎶᎯ	-186
▁ᎦᎸᏉ	-187
ᏅᏏ	-188
▁ᎤᏣᏘ	-189
ᏛᎦ	-190
▁ᎠᏏ	-191
▁ᎤᏩᏒ	-192
ᎴᎰ	-193
ᎶᏗ	-194
ᏒᎯ	-195
▁ᏂᎦᎥ	-196
▁ᎧᏃᎮ	-197
ᏗᎦᎵᏍᏙᏗ	-198
▁Ᏻ	-199
▁ᏚᏂ	-200
ᎷᏤ	-201
ᎲᎩ	-202
ᏒᎢ	-203
▁ᏄᏂ	-204
▁Ꮿ	-205
▁ᏂᏚᏪᏎ	-206
ᏅᎢ	-207
ᎪᎯ	-208
ᏓᏂ	-209
ᎵᏍᏓ	-210
▁ᎨᏥ	-211
▁ᏔᎵ	-212
ᏙᎥ	-213
▁ᎬᏂᎨᏒ	-214
ᎳᏫ	-215
ᏁᎸ	-216
▁ᎤᏙᎯᏳ	-217
▁ᎠᎦ	-218
▁ᎯᎠᏃ	-219
▁ᏅᏩ	-220
ᏳᎪ	-221
▁ᎢᏳᎵᏍ	-222
▁ᎠᏓᏅᏙ	-223
ᏴᎵ	-224
ᏍᏆᏂᎪ	-225
▁ᏄᏍᏛ	-226
▁ᎧᏃᎮᏛ	-227
▁ᎣᏏ	-228
▁ᎠᏥᎸ	-229
ᏨᎯ	-230
ᏙᎴᎰ	-231
▁ᎠᏓ	-232
▁ᎦᎸᏉᏗᏳ	-233
▁ᎤᏟ	-234
ᏗᏢ	-235
ᎬᎢ	-236
ᏲᎱ	-237
▁ᏰᎵ	-238
▁Ꮴ	-239
▁ᎾᎯᏳ	-240
▁ᏅᏗᎦᎵᏍᏙᏗ	-241
ᏓᏅᏖ	-242
ᏛᎢ	-243
▁ᎣᏏᏳ	-244
▁ᏗᎧᎿᏩᏛ	-245
ᏔᏂ	-246
ᏄᎪᏫ	-247
▁ᎪᎯ	-248
ᎵᏍᏓᏴ	-249
▁ᎢᏴᏛ	-250
▁ᎢᎬᏱ	-251
ᏍᏙᏗ	-252
▁ᎦᎸᎳᏗ	-253
ᎵᏍᏓᏁ	-254
ᎲᎾ	-255
ᎲᏍᎩ	-256
▁Ꮩ	-257
▁ᎤᏕ	-258
ᏩᏂ	-259
▁ᎢᎩ	-260
ᎨᏥ	-261
ᏔᏅᎩ	-262
ᎨᏍᏗ	-263
ᏪᏒᎩ	-264
▁ᎤᏅ	-265
▁ᎦᏚ	-266
▁ᎤᏙᎯᏳᎯ	-267
▁ᎾᏂᎥ	-268
▁ᏗᎧᎿᏩᏛᏍᏗ	-269
ᏐᎢ	-270
▁ᏚᎾ	-271
▁ᎠᏍᎦᏯ	-272
▁ᏌᏉ	-273
ᏂᎩ	-274
ᎦᏔᎭ	-275
ᎷᏨ	-276
ᏔᏁ	-277
ᏤᎵᎦ	-278
▁ᏱᎨ	-279
ᏍᎦᏅ	-280
▁ᎡᎯ	-281
▁ᎢᏤ	-282
▁ᎤᏬ	-283
▁ᏄᏪᏎᎢ	-284
ᎢᏍᏗᏱ	-285
▁ᎤᏤᎵᎦ	-286
ᏏᎵ	-287
▁Ꭽ	-288
▁Ꮘ	-289
ᏍᎨᎢ	-290
▁ᎤᏚ	-291
ᏍᎪᎢ	-292
▁ᏅᏓᏳ	-293
ᏍᏓᏩᏗᏙᎯ	-294
ᏍᎬᎩ	-295
▁ᏕᏥ	-296
ᏗᏍᎩ	-297
▁ᏂᎬ	-298
▁ᏄᎵᏍ	-299
ᏓᏙᎵᏍᏗ	-300
▁ᎢᏧ	-301
ᎮᎢ	-302
ᏍᏚ	-303
ᏕᎸ	-304
ᏳᏉ	-305
ᏛᎩ	-306
ᎯᏍᏗᏱ	-307
▁ᎡᏥ	-308
▁ᏍᎩ	-309
ᏳᎪᏛ	-310
▁ᎬᏂᏳᏉ	-311
ᏓᏍᏗ	-312
ᎢᏳ	-313
ᏁᎸᎯ	-314
▁ᏥᏌᏃ	-315
ᏅᏟ	-316
▁ᏕᏣ	-317
ᎨᏴ	-318
ᏕᎩ	-319
ᏧᏏ	-320
ᎪᎸ	-321
▁ᎢᏳᎵᏍᏙᏗᏱ	-322
ᏲᎵ	-323
ᏔᏁᎢ	-324
ᏪᎵ	-325
ᏴᎵᎨ	-326
▁Ꮭ	-327
▁ᏗᏥ	-328
ᏁᏗᏱ	-329
ᏲᎯ	-330
▁[	-331
ᏬᏂ	-332
▁ᏗᏣ	-333
▁ᎤᏂᏣᏘ	-334
▁ᎤᎵᏍ	-335
▁ᎤᏓ	-336
ᏁᏤ	-337
ᏕᏲ	-338
▁ᏕᎦ	-339
▁ᎨᏎᎢ	-340
ᏗᎦ	-341
▁ᎤᎬᏩ	-342
ᎾᏛ	-343
ᏟᎶ	-344
▁ᏥᏂ	-345
ᎵᏏ	-346
ᏗᎭ	-347
ᏲᏎ	-348
▁ᎪᎯᏳ	-349
▁ᎤᏃ	-350
▁ᎠᏁᎯ	-351
▁ᏂᏥ	-352
ᎵᏰ	-353
▁ᏚᏳᎪᏛ	-354
ᏓᏡ	-355
▁Ꮹ	-356
ᏉᎳ	-357
▁ᎦᎵ	-358
▁ᎠᏂᏧᏏ	-359
ᏪᎳ	-360
▁ᏂᏣ	-361
▁ᏥᎪ	-362
▁ᏧᏓᎴᏅᏛ	-363
ᎰᎢ	-364
▁ᎤᏛ	-365
▁ᏔᎵᏁ	-366
ᎬᏫᏳᏒ	-367
▁ᎬᏩᏍᏓᏩᏗᏙᎯ	-368
▁ᎢᏧᎳ	-369
ᎸᏗ	-370
▁ᏥᎨ	-371
ᎪᎲ	-372
▁ᏓᏂ	-373
▁ᏣᏂ	-374
▁ᎤᎬᏩᎵ	-375
ᏁᏗ	-376
▁ᏧᏪ	-377
ᏓᏗ	-378
ᏙᎵ	-379
▁Ꮸ	-380
▁ᎣᎩ	-381
▁ᏂᏨ	-382
▁ᎤᏓᏅ	-383
▁ᏉᎳ	-384
▁ᎢᏳᎾ	-385
▁ᎨᏒᎩ	-386
ᏛᏃ	-387
ᏍᎬᎾ	-388
ᏯᏅ	-389
ᎳᏫᎢᏍᏗᏱ	-390
▁ᎦᎪ	-391
▁ᏈᏓ	-392
ᏁᎶᏗ	-393
▁ᎤᎵᏂᎩ	-394
ᎧᎵ	-395
ᎵᏥ	-396
▁ᏂᎪᎯ	-397
ᏌᏛ	-398
ᏍᎪᎯ	-399
ᎵᏲ	-400
ᎾᏫ	-401
▁Ꮫ	-402
ᎮᎵ	-403
▁ᏂᏚᏪᏎᎴᎢ	-404
ᏁᎭ	-405
ᏙᎴᎰᏍᎩ	-406
ᏅᏏᏛ	-407
▁ᏄᎾ	-408
▁ᏄᏪᏒᎩ	-409
▁ᎠᎹ	-410
▁ᎬᏗ	-411
▁ᎦᏙᏃ	-412
ᏅᏏᏓᏍᏗ	-413
▁ᎤᏙᎯᏳᎯᏯ	-414
ᎢᏍᏗ	-415
▁ᎢᎨ	-416
▁ᎤᏁᏨ	-417
ᏄᏬ	-418
ᏍᏙᏗᏱ	-419
▁ᏄᏪᏎᎴᎢ	-420
▁Ᏼ	-421
▁ᎤᏰᎸ	-422
▁ᎤᎩ	-423
▁ᏝᏍᎪ	-424
ᏁᎵ	-425
▁ᏥᎷ	-426
ᏒᏃ	-427
▁Ꮡ	-428
▁ᏱᏥ	-429
▁ᎤᏲᎱ	-430
ᎦᏘᏯ	-431
▁ᎠᏂᏍᎦ	-432
ᎪᎢ	-433
ᏏᎵᎻ	-434
ᎴᏅ	-435
ᎥᎢ	-436
ᏍᏙ	-437
ᏯᏛ	-438
ᎬᎩ	-439
ᏂᏴ	-440
▁ᏦᎢ	-441
▁ᎢᏧᎳᎭ	-442
▁ᏥᎷᏏᎵᎻ	-443
ᏉᏃ	-444
▁ᎩᎳ	-445
▁ᏗᎬᏩ	-446
ᎦᎸ	-447
▁ᎢᏳᏩᏂ	-448
▁ᎪᎯᏳᏗ	-449
ᎫᏴ	-450
ᎵᏍᎪᎸ	-451
▁Ꮖ	-452
▁ᎡᏍᎦ	-453
▁ᏣᎬᏫᏳᎯ	-454
▁ᎡᏣ	-455
▁ᎣᎦ	-456
ᏂᎬ	-457
▁ᎠᎨᏴ	-458
▁ᏂᏚᏪᏎᎸᎩ	-459
▁ᏙᏓ	-460
▁ᎤᏅᏒ	-461
▁ᎬᏂᏛ	-462
ᏗᏔ	-463
ᏪᏎᎸᎩ	-464
▁ᎠᏰᎵ	-465
▁ᏅᏩᏓᎴ	-466
▁ᎢᏯᏂ	-467
▁ᎾᏍᎩᏰᏃ	-468
ᎲᏍᎦ	-469
▁ᏄᏪᏎᎸᎩ	-470
ᎬᎾ	-471
ᏩᏘ	-472
ᏍᎩᎾ	-473
▁ᏗᏓ	-474
▁ᎠᎦᏔ	-475
▁ᎤᏣ	-476
ᏃᎯᏳ	-477
▁ᎠᎦᏴᎵᎨ	-478
ᏦᎯᏳ	-479
ᏍᏔᏅᎯ	-480
ᏪᏎᎭ	-481
▁ᏕᎤ	-482
▁ᏂᎦᏗᏳ	-483
▁ᎤᏓᏙᎵᏍᏗ	-484
▁ᏗᎨ	-485
▁ᏥᏄ	-486
ᎳᎩ	-487
▁ᎠᏫ	-488
▁ᏥᏚ	-489
▁ᎠᏕᎸ	-490
▁ᎤᏍᏗ	-491
▁ᏧᏪᏥ	-492
▁ᏅᏗᎦᎵᏍᏙᏗᎭ	-493
ᏓᏂᎸ	-494
▁ᏓᎾ	-495
▁ᎤᎾᏓᏅ	-496
▁ᎢᎸ	-497
ᏍᏕᏍᏗ	-498
▁ᏂᎦᏪ	-499
▁ᏧᎾᏓᎴᏅᏛ	-500
ᏍᏔᏅ	-501
▁ᎾᏍᎩᏯᎢ	-502
ᎵᏥᏙ	-503
▁ᎦᏰ	-504
ᎾᏄᎪᏫ	-505
▁ᏂᎪᎯᎸ	-506
ᎪᎩ	-507
ᎰᏩ	-508
ᏁᎯ	-509
▁ᎣᏂ	-510
▁ᏅᎩ	-511
▁ᎢᏯᏂᏛ	-512
ᎸᏫᏍᏓᏁᏗ	-513
ᏓᏁᏗ	-514
ᏓᏅᏟ	-515
ᏪᏎᎢ	-516
▁ᎤᏇ	-517
▁ᏱᏗ	-518
ᏟᏴ	-519
ᎪᎵᏰ	-520
ᏚᎵᏍ	-521
ᏙᎢ	-522
ᏛᎾ	-523
ᏛᏁᏗ	-524
▁ᎾᎥ	-525
▁ᏗᎾ	-526
▁ᎤᏍᏆᏂᎪ	-527
ᏃᎯ	-528
ᏨᎩ	-529
ᎪᏩᏛ	-530
▁ᏗᎩ	-531
▁ᏱᎦ	-532
▁ᏱᏂ	-533
ᏗᏍᎨᏍᏗ	-534
ᏐᏅ	-535
ᏒᎾ	-536
▁Ꮓ	-537
▁Ꮟ	-538
ᏛᎦᏅ	-539
ᏓᎸ	-540
ᏁᎸᎩ	-541
▁ᎤᎶ	-542
▁ᎦᏓ	-543
ᏍᎦᏅᏨ	-544
▁ᎢᏓᎵ	-545
ᏃᏅ	-546
▁ᎥᏝᏰᏃ	-547
ᎵᏛ	-548
▁ᏫᏚ	-549
▁ᎠᏏᏴᏫ	-550
ᎲᎦ	-551
ᏉᏍᎩᏂ	-552
ᎸᏉᏗ	-553
▁ᎢᎦᎢ	-554
▁ᎪᏪᎵ	-555
ᏁᎴᎢ	-556
ᏓᎴᏅᎯ	-557
▁ᎬᏩᎦᏘᏯ	-558
ᏠᏱ	-559
▁Ꮑ	-560
▁ᎧᏁ	-561
▁ᏥᏳ	-562
ᎨᎢ	-563
ᏤᎢ	-564
ᏥᏯ	-565
ᎵᎮᎵ	-566
ᏍᏛᎾ	-567
ᏔᏲᏎ	-568
ᏖᎸ	-569
▁ᎡᏆ	-570
ᏁᎴ	-571
ᎵᏅᏟ	-572
ᎶᎯᏍᏗᏱ	-573
▁ᏧᎾᏁᎶᏗ	-574
ᎾᏰ	-575
ᏲᎯᏎ	-576
▁ᏭᏂ	-577
▁ᎩᎶᏃ	-578
ᏐᏢ	-579
▁ᎠᏓᏁ	-580
▁ᎠᏲᎱ	-581
ᏍᎩᏂᏃᏅ	-582
ᎫᎪ	-583
▁ᎨᏣ	-584
▁ᎠᏂᎦᏔ	-585
▁ᏄᎬᏫᏳᏒ	-586
▁ᎢᏗ	-587
ᎬᏩᎶᏗ	-588
ᏁᎳᏅᎯ	-589
▁ᏂᏨᏪᏎᎭ	-590
▁ᎢᏳᏩᏂᏌᏛ	-591
▁ᎣᏥ	-592
▁ᎤᏇᏓᎵ	-593
▁ᏗᎧᎿᏩᏗᏙᎯ	-594
ᎾᏝ	-595
ᏍᏕᎸ	-596
▁ᎠᏰ	-597
▁ᎠᏍᏓ	-598
▁ᎡᏍᎦᏉ	-599
ᏑᏰ	-600
ᎪᏩᏘ	-601
ᏗᏍᏗ	-602
ᏛᏅᎢ	-603
ᏓᏅᏛᎢ	-604
ᏛᏁᏗᏱ	-605
▁ᎢᏓᎵᏅᏟ	-606
▁ᏱᏣ	-607
ᏓᏙᎵᏍᏓᏁ	-608
▁Ꮉ	-609
▁ᎠᏰᎸ	-610
▁ᎤᏂᏣ	-611
▁ᏅᏩᏙᎯ	-612
ᏌᏯ	-613
▁Ꮠ	-614
ᏕᏍᏗ	-615
ᏙᎢᏛ	-616
▁ᎤᎦ	-617
▁ᏥᏕ	-618
▁ᎤᎾᏓ	-619
ᏉᎩ	-620
ᏁᎶᎯ	-621
▁ᎤᎵᏂᎩᏛ	-622
ᎵᏙ	-623
ᏰᏂ	-624
▁ᏅᏯ	-625
▁ᎠᏍᎪᎯ	-626
▁ᏱᎨᏎᏍᏗ	-627
ᎳᏏ	-628
ᏅᏎ	-629
ᏯᏫ	-630
▁ᎢᎬᏩ	-631
▁ᎤᏚᎩ	-632
▁ᎦᎵᏉᎩ	-633
ᎸᏫᏍᏓᏁᎯ	-634
▁ᏗᎦᎸᏫᏍᏓᏁᏗ	-635
ᎵᎪ	-636
▁ᎦᏁ	-637
▁ᎦᏚᎲ	-638
ᎷᎩ	-639
ᎺᎵ	-640
ᏚᎵ	-641
ᏆᎵᏏ	-642
▁ᎠᏂᏔ	-643
▁ᎡᏙᏓ	-644
ᏗᏍᎬ	-645
▁ᏔᎳ	-646
▁ᏱᏚ	-647
▁ᎠᎵᏍ	-648
▁ᎤᏕᎵᏛ	-649
ᎴᎯ	-650
ᏁᏨ	-651
ᏅᏃ	-652
ᏓᏕ	-653
ᎩᎵᏲ	-654
▁ᎨᎵ	-655
▁ᏗᎪ	-656
▁ᎢᏗᏢ	-657
ᎵᏍᏓᏁᏗ	-658
▁ᎤᎵᏍᏆ	-659
▁ᏧᏙᎢᏛ	-660
▁ᎠᏂᏍᎦᏯ	-661
▁ᏧᎬᏩᎶᏗ	-662
▁ᏅᏩᏙᎯᏯᏛ	-663
ᎨᏳᏗ	-664
ᏩᏗᏒ	-665
▁ᎢᎨᏎᏍᏗ	-666
▁ᏄᏂᏪᏒᎩ	-667
ᎸᎭ	-668
▁ᏂᏗ	-669
▁ᎤᏁᎳᎩ	-670
▁ᏄᏂᏪᏎᎢ	-671
ᎾᏛᏁ	-672
ᏓᏅᏛ	-673
▁ᏓᎦ	-674
ᏍᏔᏅᎩ	-675
▁ᎠᏏᏉ	-676
▁ᎤᎷᏨ	-677
▁ᎢᎬᏱᏱ	-678
▁ᎤᎾᏓᏅᏘ	-679
▁ᎠᎾᏙᎴᎰᏍᎩ	-680
ᏩᏕ	-681
ᏂᏙᎯ	-682
▁ᎠᏇ	-683
▁ᏰᎵᏉ	-684
ᏂᏙ	-685
▁ᎠᏗ	-686
ᎠᏁᎶᎯ	-687
▁ᎦᎸᎶ	-688
▁ᏔᎳᏚ	-689
ᎵᏍᏙᏗᏱ	-690
▁ᎢᏳᏰᏃ	-691
▁ᎯᎠᏰᏃ	-692
ᏕᎾ	-693
▁ᎠᏋ	-694
▁ᎨᏎ	-695
ᎦᏴᎵᎨ	-696
ᏓᏍᏗᏱ	-697
▁ᎢᎸᎯᏳ	-698
▁ᏗᏂᎧᎿ	-699
▁ᏚᎸᏫᏍᏓᏁ	-700
ᏪᏎᎴᎢ	-701
▁ᏗᎦᎳᏫᎢᏍᏗᏱ	-702
ᏂᏆ	-703
ᏠᎾ	-704
ᏪᏒ	-705
▁Ᏺ	-706
▁ᎠᏂᏔᎵ	-707
ᎡᎵ	-708
ᎥᎩ	-709
ᎦᏛ	-710
ᎭᎻ	-711
ᏁᎶ	-712
ᏎᎵ	-713
ᏧᏈ	-714
ᏎᎸᎯ	-715
▁ᎢᎦᏛ	-716
▁ᏌᏩᏂ	-717
▁ᎤᎾᏓᏡ	-718
▁ᏄᎵᏍᏔᏅ	-719
ᎷᏥ	-720
ᏚᎢ	-721
▁Ꮌ	-722
▁ᏓᏓ	-723
▁ᏥᎦ	-724
▁ᏱᏅ	-725
ᏕᎸᏙᏗ	-726
▁ᎡᎳᏗ	-727
▁ᎢᏏᎵ	-728
▁ᏄᏂᎬᏫᏳᏒ	-729
ᎾᏄᎪ	-730
▁ᏱᎰᏩ	-731
▁ᎡᏆᎭᎻ	-732
▁ᏅᏓᏳᏓᎴᏅᎯ	-733
ᎴᏗ	-734
ᎳᏗᏙ	-735
ᎴᏍᏗ	-736
▁ᎦᏓᎭ	-737
▁ᎨᎵᎵ	-738
▁ᏥᎨᏒ	-739
▁ᎠᏍᎦᏂ	-740
▁ᎤᏍᏆᏂᎪᏗ	-741
ᎨᎶᎯ	-742
ᏍᏔᏂ	-743
ᏛᏁᎸ	-744
▁ᎤᏥ	-745
ᎬᏫᏳᏌ	-746
ᎸᏉᏗᏳ	-747
ᏲᎱᏒᎯ	-748
▁ᏚᏙᎥ	-749
▁ᎢᎦᏤᎵ	-750
▁ᎤᎾᏤᎵ	-751
▁ᎠᏂᏆᎵᏏ	-752
▁ᎤᎾᏤᎵᎦ	-753
ᏌᏗ	-754
ᏙᏓᏆ	-755
▁ᎥᎩ	-756
▁ᎼᏏ	-757
▁ᏧᏓ	-758
ᏍᏓᏩᏛ	-759
▁ᎥᏝᏃ	-760
▁ᏂᎬᏩ	-761
▁ᏱᎨᏎᎢ	-762
▁ᏗᏂᎧᎿᏩᏗᏙᎯ	-763
ᏛᏅ	-764
ᏪᎭ	-765
ᎲᏍᎬ	-766
ᏍᎦᎢ	-767
▁ᎠᎪ	-768
▁ᎣᏣ	-769
ᎸᏃ	-770
▁Ꭾ	-771
ᎾᏓᎴ	-772
▁ᎪᏪ	-773
▁ᎢᏯᎦ	-774
▁ᎤᏂᏲ	-775
ᏓᏅᏖᏍᎬ	-776
▁ᎠᏙᎴᎰᏍᎩ	-777
ᎴᏃ	-778
▁Ꮨ	-779
ᏍᏛᎢ	-780
▁ᏕᎨ	-781
▁ᏫᏥ	-782
▁ᏗᎨᏥ	-783
ᏕᏲᎲᏍᎩ	-784
ᏗᎦᎳᏫᎢᏍᏗᏱ	-785
ᏁᏃ	-786
ᏫᏂ	-787
ᎵᏍᏙ	-788
ᏍᏔᏁ	-789
▁ᎨᎦ	-790
▁ᎬᎩ	-791
▁ᎠᏎᏉ	-792
▁ᎦᏙᎯ	-793
▁ᎢᏦᎯᏳ	-794
▁ᏂᎯᏍᎩᏂ	-795
ᏕᏘ	-796
ᎨᏳᎢ	-797
ᏍᎩᏃ	-798
ᏍᏆᎸ	-799
▁ᎠᏛ	-800
▁ᎾᎩ	-801
▁ᎤᎾᎵ	-802
▁ᎠᏲᎱᎯᏍᏗ	-803
ᎵᎩ	-804
ᎾᎦ	-805
ᎳᏍᏗ	-806
ᏲᏪᎳ	-807
ᏢᏔᏅᎯ	-808
▁ᎦᏬᏂ	-809
ᎵᏍᏓᏴᏗ	-810
▁ᏂᎦᏛᏃ	-811
▁ᏅᏓᎬᏩ	-812
ᎬᏫᏳᏌᏕᎩ	-813
ᎵᏍᏓᏴᏗᏱ	-814
ᎶᏂ	-815
▁Ꮗ	-816
ᎦᏔᎲ	-817
ᎾᏝᎢ	-818
ᏅᏒᎩ	-819
ᏓᎴᏒ	-820
ᏓᎵᎢ	-821
▁ᎠᏤ	-822
▁ᎡᏙ	-823
▁ᎤᏗ	-824
▁ᏗᏆ	-825
▁ᏱᏄ	-826
▁ᎢᏨᏒ	-827
▁ᎭᏫᏂ	-828
▁ᎾᎿᏃ	-829
▁ᎾᏂᏪ	-830
▁ᎢᏯᎦᏴᎵ	-831
ᎥᎾ	-832
ᎵᏱ	-833
ᏳᎳ	-834
▁Ꮀ	-835
▁ᎢᎾ	-836
▁ᏥᏥ	-837
▁ᏧᏁ	-838
ᎦᎵᏍᏓ	-839
▁ᏂᎬᏅ	-840
▁ᏄᏍᏗ	-841
▁ᎠᏍᎩᎾ	-842
▁ᎩᎳᏉᏃ	-843
ᏔᎳ	-844
ᎦᏙᎥ	-845
▁ᎺᎵ	-846
▁ᏂᏕ	-847
▁ᏓᏳ	-848
ᏁᎢᏍᏗ	-849
▁ᎤᏁᏤ	-850
▁ᎦᏳᎳ	-851
▁ᎾᏍᎩᏍᎩᏂ	-852
ᏁᎲ	-853
ᏌᎳ	-854
▁ᏕᏫ	-855
▁ᏱᏙ	-856
ᎵᏍᏔᏅ	-857
ᏍᏔᏁᎢ	-858
ᏓᏅᏓᏗ	-859
ᏗᏍᎬᎢ	-860
ᏩᏗᏒᎢ	-861
▁ᎤᏚᎵᏍ	-862
▁ᎠᏓᎨᏳᏗ	-863
▁ᎠᎦᏴᎵᎨᎢ	-864
▁ᎤᎵᏂᎩᏗᏳ	-865
ᎾᎢ	-866
ᏃᎩ	-867
ᏎᎭ	-868
▁ᏧᏬ	-869
▁ᎠᏃᎯᏳ	-870
▁ᎠᏍᏓᏯ	-871
ᏓᏛ	-872
ᏠᏯ	-873
ᏴᎯ	-874
▁ᎦᏥ	-875
▁ᏗᏃ	-876
▁ᏥᏯ	-877
ᏗᏔᏍᏗ	-878
▁ᎤᎵᏏ	-879
▁ᎤᎷᏤ	-880
▁ᎤᏙᏓ	-881
ᎲᏍᎨᏍᏗ	-882
▁ᎠᎾᎵᏅᏟ	-883
▁ᎤᏂᏍᏆᏂᎪ	-884
ᎦᎨ	-885
ᎰᎵ	-886
ᏂᏏ	-887
ᏐᏗ	-888
ᏏᏴᏫ	-889
▁ᏓᏥ	-890
▁ᎤᏠᏱ	-891
▁ᎤᏃᎯᏳ	-892
▁ᎠᏂᏍᎩᎾ	-893
ᏎᏗ	-894
ᏯᎢ	-895
ᏴᎩ	-896
ᏅᎯᏛ	-897
ᏔᎳᏬ	-898
▁ᎠᎺ	-899
▁ᎤᏴ	-900
▁ᎦᏃ	-901
▁ᎾᏆ	-902
▁ᏓᏆ	-903
ᎦᏔᎲᎾ	-904
ᏏᏴᏫᎭ	-905
ᏘᏂᏙᎯ	-906
▁ᎠᏁᎲ	-907
▁ᎨᏐᎢ	-908
ᏛᏁᎮᏍᏗ	-909
ᎦᎵ	-910
ᎶᏄ	-911
▁Ᏸ	-912
ᏍᎦᏯ	-913
▁ᎢᎳ	-914
▁ᏓᎩ	-915
▁ᏗᏤ	-916
▁ᏱᏓ	-917
ᎵᏍᏙᏗ	-918
ᏪᎵᏍᎩ	-919
▁ᎠᎦᏘ	-920
▁ᎢᏳᏩ	-921
▁ᎦᏍᎩ	-922
▁ᏧᏤᎵ	-923
▁ᎢᎦᏛᏃ	-924
▁ᎦᎶᎯᏍᏗᏱ	-925
ᎶᏛ	-926
ᎿᎢ	-927
ᏌᏂ	-928
ᏰᎯ	-929
ᏁᎸᎢ	-930
ᏁᏟᏴ	-931
ᏐᏗᏱ	-932
▁ᎤᎷ	-933
▁ᏗᎫᎪ	-934
▁ᏥᏳᎯ	-935
▁ᏅᏩᎾᏓᎴ	-936
▁ᏧᏂᏲᎱᏒᎯ	-937
▁ᎠᏃᎯᏳᎲᏍᎩ	-938
ᎨᏫ	-939
ᏍᏕᎵ	-940
ᏢᏅᎯ	-941
▁ᎠᏲ	-942
▁ᎢᏓ	-943
▁ᏐᎢ	-944
ᏍᏕᎸᏗ	-945
▁ᎤᎧᎵ	-946
▁ᏆᎴᏗ	-947
▁ᎠᏂᎨᏴ	-948
▁ᎤᏂᎷᏤ	-949
▁ᎦᏰᎪᎩ	-950
▁ᏥᎨᏒᎩ	-951
▁ᏂᎦᎵᏍᏗ	-952
ᎸᏫᏍᏓᏁᏗᏱ	-953
ᎡᏗ	-954
ᏁᏉ	-955
▁Ꮼ	-956
ᎦᏌᏯ	-957
ᏍᏚᎢ	-958
ᏒᏃᏱ	-959
▁ᎡᎳ	-960
▁ᏑᎾ	-961
▁ᏒᏃᏱ	-962
▁ᎤᏓᏅᏘ	-963
▁ᎦᎸᎶᎢ	-964
▁ᎬᏩᎷᏤ	-965
▁ᎢᎬᏱᏗᏢ	-966
▁ᏄᎵᏍᏔᏁᎢ	-967
ᏉᎯ	-968
ᏍᎫ	-969
▁Ꮰ	-970
ᏟᎶᏛ	-971
▁ᎠᎬ	-972
▁ᏗᎧ	-973
▁ᏧᏃ	-974
▁ᏭᎶ	-975
ᎲᏍᎬᎢ	-976
ᏍᏗᏍᎩ	-977
▁ᎬᏩᏂ	-978
▁ᎢᏳᏍᎩᏂ	-979
▁ᎤᎾᏛᎦᏅ	-980
▁ᎤᏁᎳᏅᎯᏰᏃ	-981
ᎴᏂ	-982
ᏅᏒ	-983
ᏛᎯ	-984
ᏛᏂ	-985
▁"	-986
ᏑᏰᏛ	-987
ᏛᏁᎢ	-988
▁ᎥᎥ	-989
▁ᏗᎬ	-990
▁ᎤᏄᎪ	-991
▁ᏕᎬᏩ	-992
▁ᎤᏙᎴᎰ	-993
▁ᏥᎨᏎᎢ	-994
ᎸᏫᏍᏓᏁᎲ	-995
▁ᎤᎾᏓᏡᎬ	-996
▁ᎤᎾᏙᏓᏆ	-997
▁ᎤᏤᎵᎪᎯ	-998
ᎡᎢ	-999
ᏕᏂ	-1000
ᎵᏍᎦ	-1001
ᎶᏒᎯ	-1002
ᎷᏨᎭ	-1003
ᏚᏓᎴ	-1004
ᏁᎮᏍᏗ	-1005
ᏅᏍᏗᏱ	-1006
ᏍᎦᏅᎾ	-1007
▁ᎠᏋᏒ	-1008
▁ᎤᏂᎩ	-1009
▁ᏕᎨᏥ	-1010
ᎦᎵᏍᏙᏓ	-1011
ᎪᏩᏛᏗᏱ	-1012
▁ᎠᎺᏉᎯ	-1013
▁ᎤᏓᎵᎢ	-1014
▁ᎤᏓᏅᏖ	-1015
▁ᎤᏲᎢᏳ	-1016
▁ᏄᏓᎴᏒ	-1017
▁ᎢᏳᎾᏍᏗ	-1018
▁ᎤᏂᎬᏫᏳᎯ	-1019
ᎴᏛ	-1020
ᎵᏯ	-1021
ᎾᏓ	-1022
ᏎᎸ	-1023
ᏙᏂ	-1024
ᏯᏔ	-1025
ᏯᏙ	-1026
▁Ꮞ	-1027
ᎤᏍᏕ	-1028
ᎥᏍᎩ	-1029
ᎧᎵᎢ	-1030
ᎪᏓᏁ	-1031
ᎿᏕᎩ	-1032
ᏉᎯᏳ	-1033
ᏬᎯᏳ	-1034
ᏰᎸᎭ	-1035
ᏰᎸᎯ	-1036
▁ᎠᏃ	-1037
▁ᎡᎩ	-1038
▁ᎡᎺ	-1039
▁ᎤᎪ	-1040
▁ᎤᏢ	-1041
▁ᎩᎬ	-1042
▁ᏂᏓ	-1043
▁ᏚᏃ	-1044
▁ᏫᎾ	-1045
ᏠᎾᏍᏗ	-1046
▁ᎯᏍᎩ	-1047
ᏍᏕᎸᏗᏱ	-1048
▁ᏔᏕᏲᎲᏍᎩ	-1049
ᏰᎢ	-1050
▁(	-1051
ᏍᎦᎩ	-1052
ᏩᏛᎲ	-1053
▁ᎠᎵ	-1054
▁ᏨᏒ	-1055
ᏕᏘᏴᏛ	-1056
▁ᎠᏲᎵ	-1057
▁ᎡᎺᏅ	-1058
▁ᎢᎪᎯ	-1059
▁ᎤᎪᎲ	-1060
▁ᎤᎴᏅ	-1061
▁ᎩᎦᎨ	-1062
ᏙᎥᎯᏍᏗ	-1063
▁ᎠᏓᏁᎸ	-1064
▁ᎤᏂᏃᎮ	-1065
▁ᏂᎬᎾᏛ	-1066
▁ᎨᏥᏅᏏᏛ	-1067
ᎲᏏ	-1068
▁Ꭻ	-1069
ᏍᏗᏰ	-1070
ᏩᎾᎦ	-1071
ᏯᏅᎲ	-1072
▁ᎠᏯ	-1073
▁ᏚᏅ	-1074
ᎨᏳᎯᏳ	-1075
ᎯᏍᏙᏗ	-1076
▁ᎠᎩᎾ	-1077
▁ᎠᏗᎾ	-1078
▁ᎦᎵᏦ	-1079
▁ᏗᎨᏒ	-1080
▁ᎢᎪᎯᏛ	-1081
▁ᎤᎾᏄᎪᏫ	-1082
ᎦᎵᏍᏙᏗᏍᎬᎩ	-1083
ᎿᏩ	-1084
ᏓᏓ	-1085
ᏲᏏ	-1086
ᎸᎯᏢ	-1087
▁ᎦᏅ	-1088
▁ᏫᎦ	-1089
▁ᏫᏂ	-1090
▁ᏯᎩ	-1091
ᎳᏏᏕᏂ	-1092
▁ᎤᏛᏅ	-1093
▁ᏥᏂᎬ	-1094
▁ᏧᏗᏱ	-1095
ᏍᎦᏅᏨᎢ	-1096
▁ᎠᏂᏯᏫ	-1097
▁ᎢᎸᎯᏢ	-1098
▁ᎤᏲᎱᏒ	-1099
▁ᎢᏳᎵᏍᏙᏗ	-1100
ᏁᎬ	-1101
ᎨᏳᎯ	-1102
ᏔᏂᏙ	-1103
ᏛᏁᎯ	-1104
ᏲᏎᎭ	-1105
▁ᏗᏨ	-1106
▁ᎤᎩᏨ	-1107
▁ᎤᏂᏴ	-1108
▁ᏄᏪᏒ	-1109
▁ᏗᎨᎦ	-1110
▁ᏗᏓᎴ	-1111
▁ᏥᏂᎦ	-1112
▁ᎠᏂᏐᎢ	-1113
▁ᏅᏓᎬᏩᏓᎴᏅᏛ	-1114
▁ᏅᏗᎦᎵᏍᏙᏗᏍᎨᏍᏗ	-1115
ᎨᏏ	-1116
ᏈᏗ	-1117
ᏌᏅ	-1118
ᏏᏱ	-1119
ᏒᎭ	-1120
ᎳᏍᏓ	-1121
ᏛᏁᎵ	-1122
▁ᏅᏙ	-1123
▁ᏓᏁ	-1124
▁ᏙᏗ	-1125
ᏎᎮᏍᏗ	-1126
▁ᎤᏐᏅ	-1127
▁ᏧᏤᎵᎦ	-1128
ᎵᏍᎪᎸᏔᏅᎯ	-1129
▁ᏗᏃᏪᎵᏍᎩ	-1130
ᏚᎲ	-1131
ᎪᏗᏱ	-1132
ᎶᏄᎮ	-1133
ᏚᎵᎭ	-1134
▁ᏣᎦ	-1135
▁ᏱᏨ	-1136
ᎮᎵᏍᏗ	-1137
ᏓᏁᎸᎯ	-1138
▁ᎢᎾᎨ	-1139
▁ᎩᎳᏉ	-1140
▁ᏚᏁᏤ	-1141
▁ᎠᏁᎲᎢ	-1142
ᎵᏍᏕᎸᏙᏗ	-1143
▁ᎢᏳᏟᎶᏛ	-1144
▁ᎤᎾᏙᏓᏆᏍᎬ	-1145
ᏛᏛ	-1146
ᏬᏁ	-1147
▁Ꮱ	-1148
ᎡᏗᏱ	-1149
ᏅᏌᏗ	-1150
ᏒᏍᏗ	-1151
ᏯᏅᏛ	-1152
ᏯᏙᏗ	-1153
▁ᎠᏅ	-1154
▁ᎡᏗ	-1155
▁ᏚᏪ	-1156
▁ᏥᏓ	-1157
▁ᏫᏨ	-1158
ᏍᏚᏗᏱ	-1159
▁ᎡᎶᏛ	-1160
▁ᎤᏓᏙ	-1161
▁ᏫᎬᏩ	-1162
▁ᎤᏂᏰᎸ	-1163
▁ᎦᏚᎲᎢ	-1164
▁ᎠᏍᎪᎯᏧᏈ	-1165
▁ᎾᏍᏉᏍᎩᏂ	-1166
▁ᎠᎦᏙᎥᎯᏍᏗ	-1167
▁ᏧᏂᎸᏫᏍᏓᏁᎯ	-1168
ᎡᎸ	-1169
ᏒᏂ	-1170
ᎴᎲᎦ	-1171
ᎾᏫᏱ	-1172
ᏁᏍᏗ	-1173
ᏃᎮᎭ	-1174
ᏳᎪᏗ	-1175
▁ᎡᎭ	-1176
▁ᎾᏥ	-1177
▁ᏕᎯ	-1178
▁ᏤᏥ	-1179
ᎴᎯᏐᏗ	-1180
ᏃᎮᏍᎩ	-1181
ᏗᏍᏗᏱ	-1182
▁ᏂᏥᎥ	-1183
▁ᏈᎵᎩ	-1184
▁ᏈᏓᏃ	-1185
ᏬᏂᎯᏍᏗ	-1186
▁ᎤᏓᏅᏙ	-1187
▁ᎤᏛᎦᏅ	-1188
▁ᏄᏪᏎᎴ	-1189
▁ᎠᎦᏔᎲᎢ	-1190
▁ᎤᎵᏍᏆᎸᏗ	-1191
▁ᎢᏣᎵᏍᏓᏁᏗ	-1192
▁ᎤᏁᎳᏅᎯᏍᎩᏂ	-1193
▁ᏅᏓᎦᎵᏍᏙᏗᏍᎬᎩ	-1194
ᏓᎳ	-1195
ᏕᎵ	-1196
ᏣᏓ	-1197
ᏣᏗ	-1198
ᏥᎪ	-1199
ᏫᏛ	-1200
ᎷᏨᎩ	-1201
ᏎᏗᏱ	-1202
▁ᎨᏐ	-1203
▁ᏓᏰ	-1204
▁ᏥᎻ	-1205
▁ᏥᏁ	-1206
▁ᏦᎩ	-1207
ᏛᎦᏅᎩ	-1208
▁ᎠᏇᏥ	-1209
▁ᎤᏂᏃ	-1210
▁ᎤᏍᏆ	-1211
▁ᎤᏪᎷ	-1212
▁ᎧᏁᎬ	-1213
▁ᎤᏂᏣᏖ	-1214
▁ᎾᎾᏛᏁ	-1215
▁ᏗᏓᏍᏚᏗᏱ	-1216
ᏁᎫ	-1217
ᏏᏛ	-1218
ᏚᎸ	-1219
ᏤᎸ	-1220
ᏍᏓᏩ	-1221
ᏎᎪᎩ	-1222
ᏓᎴᎩ	-1223
▁ᏏᏌ	-1224
▁ᏤᎦ	-1225
▁ᏥᏅ	-1226
▁ᏱᎬ	-1227
ᎶᎯᏍᏗ	-1228
ᎷᏤᏗᏱ	-1229
▁ᏌᏉᏉ	-1230
ᎠᏗᏔᏍᏗ	-1231
▁ᎦᎸᏉᏗ	-1232
▁ᏗᏂᏲᎵ	-1233
▁ᎤᎾᏙᎴᎰ	-1234
▁ᎩᎶᏍᎩᏂ	-1235
▁ᏫᎾᏍᏛᎾ	-1236
▁ᏱᏥᎦᏔᎭ	-1237
."	-1238
ᎩᏏ	-1239
ᏃᏛ	-1240
ᏄᏩ	-1241
ᏅᎾ	-1242
ᏙᎾ	-1243
ᏥᏴ	-1244
ᎦᏙᎵ	-1245
ᎲᏍᎨ	-1246
ᎵᏰᎢ	-1247
ᎾᏍᎩ	-1248
ᏛᏁᎭ	-1249
▁ᏭᏴ	-1250
ᏅᎢᏍᏗ	-1251
ᏍᏓᏩᏕ	-1252
ᏍᏕᎸᎯ	-1253
ᏙᎮᏍᏗ	-1254
▁ᏄᏛᏁ	-1255
▁ᎾᏍᎩᏉ	-1256
▁ᏥᎦᏔᎭ	-1257
▁ᎠᏥᎸᏉᏗᏳ	-1258
▁ᎬᏩᏍᏓᏩᏗᏙᎯᏃ	-1259
ᎧᏂ	-1260
ᎶᏆ	-1261
ᎾᎵ	-1262
ᏁᎰ	-1263
ᏈᎵ	-1264
ᏕᎰ	-1265
ᏥᏛ	-1266
ᏫᏒ	-1267
ᏎᎴᎢ	-1268
ᏓᎸᎢ	-1269
ᏓᏁᎸ	-1270
▁ᎰᏩ	-1271
▁ᏅᏧ	-1272
▁ᏖᎸ	-1273
ᎪᏩᏛᏗ	-1274
ᏆᏗᏍᎩ	-1275
▁ᎠᎾᏓ	-1276
▁ᏥᎨᏐ	-1277
▁ᏱᎨᏎ	-1278
▁ᎠᏎᏉᏉ	-1279
▁ᎤᏰᎸᏗ	-1280
▁ᎩᎶᏰᏃ	-1281
▁ᎬᏔᏅᎯ	-1282
▁ᏔᎵᏁᏃ	-1283
▁ᏖᎸᎳᏗ	-1284
▁ᏥᎨᏐᎢ	-1285
▁ᎤᏂᏣᏘᏃ	-1286
▁ᎬᏂᏳᏉᏃ	-1287
▁ᏄᎵᏍᏔᏅᎩ	-1288
▁ᏚᏂᎸᏫᏍᏓᏁ	-1289
ᎩᏳ	-1290
ᎬᎦ	-1291
ᎭᎷ	-1292
ᎿᏕ	-1293
ᏑᎶ	-1294
ᏔᏲ	-1295
ᏥᏙ	-1296
ᏯᏂ	-1297
ᎡᏍᏗ	-1298
ᎳᏫᎩ	-1299
ᎶᏂᎨ	-1300
ᏍᎪᎵ	-1301
▁ᎢᎪ	-1302
▁ᎭᏢ	-1303
▁ᏄᏩ	-1304
▁ᏙᏱ	-1305
▁ᏣᏓ	-1306
▁ᏫᏗ	-1307
ᎲᏍᎬᎾ	-1308
ᏓᏂᎸᎢ	-1309
ᏛᎦᏅᎯ	-1310
ᏩᎾᎦᎳ	-1311
ᏳᎪᏛᎾ	-1312
▁ᎾᎿᏂ	-1313
▁ᏂᎯᏃ	-1314
▁ᏠᎨᏏ	-1315
ᏃᎮᏍᎬᎢ	-1316
ᏍᏕᎵᏍᎩ	-1317
▁ᎠᎦᏘᏏ	-1318
▁ᎤᏃᏕᎾ	-1319
▁ᏥᎪᏪᎳ	-1320
ᏔᎳᏬᎯᏍᏗ	-1321
▁ᎠᏴᏍᎩᏂ	-1322
▁ᎤᏕᏁᎴᎢ	-1323
▁ᎭᏫᏂᏗᏢ	-1324
▁ᏗᎾᏓᏅᏟ	-1325
▁ᏅᏗᎦᎵᏍᏙᏗᏍᎬ	-1326
ᎨᎳ	-1327
ᏂᏗ	-1328
ᏠᎯ	-1329
▁Ꮾ	-1330
ᏍᏗᎭ	-1331
ᏔᏅᎢ	-1332
ᏕᎶᏆ	-1333
▁ᎤᎴ	-1334
▁ᏂᎨ	-1335
▁ᏣᏥ	-1336
▁ᏦᏩ	-1337
▁ᏫᏄ	-1338
ᎧᎿᏩᏗ	-1339
▁ᎠᏁᏙ	-1340
▁ᎢᎾᏛ	-1341
▁ᏍᎩᏯ	-1342
▁ᏕᏣᏓ	-1343
▁ᎠᏤᎵᏍ	-1344
▁ᎤᏰᎸᏛ	-1345
▁ᎬᏗᏍᎬ	-1346
▁ᏗᎬᏩᏂ	-1347
▁ᎤᏣᏔᏅᎯ	-1348
▁ᎤᏲᎱᏒᎯ	-1349
▁ᎠᏂᏯᏫᏍᎩ	-1350
▁ᎾᏂᏪᏍᎨᎢ	-1351
▁ᏂᏚᏳᎪᏛᎾ	-1352
ᎦᏓ	-1353
ᎧᏅ	-1354
ᎩᏨ	-1355
ᏍᎪᏂ	-1356
ᏎᎸᎩ	-1357
ᏜᏏᏛ	-1358
ᏟᏂᎬ	-1359
▁ᎤᎸ	-1360
▁ᎤᎿ	-1361
ᏚᎵᏍᎬ	-1362
▁ᎤᎦᏔ	-1363
▁ᏎᏓᏂ	-1364
▁ᏓᏕᏲ	-1365
ᎨᏳᏎᏍᏗ	-1366
▁ᎠᏴᏰᏃ	-1367
▁ᎤᏣᏘᏂ	-1368
▁ᎤᏬᎯᏳ	-1369
▁ᏥᏂᎬᏅ	-1370
ᎸᏫᏍᏓᏁᎭ	-1371
▁ᎠᎵᏍᏓᏴᏗ	-1372
ᎥᏂ	-1373
ᏕᎢ	-1374
ᏚᎦ	-1375
ᏢᏈ	-1376
ᎵᎡᎵ	-1377
ᎵᏂᎩ	-1378
ᏂᏆᏘ	-1379
ᏂᏗᏳ	-1380
ᏖᎵᏙ	-1381
▁ᎦᏛ	-1382
▁ᏣᎾ	-1383
▁ᏥᎾ	-1384
▁ᏥᏣ	-1385
▁ᏥᏫ	-1386
▁ᏬᎩ	-1387
ᏅᏏᏙᎯ	-1388
ᏍᏓᏩᏗ	-1389
▁ᎤᎾᏛ	-1390
▁ᎤᏁᎷ	-1391
▁ᏦᎢᏁ	-1392
▁ᏱᏗᏥ	-1393
▁ᏴᏫᏉ	-1394
▁ᎠᏰᎸᎢ	-1395
▁ᎢᎸᏍᎩ	-1396
▁ᎤᎾᏄᎪ	-1397
ᏓᏅᏖᏍᎬᎢ	-1398
▁ᎢᏥᏍᎦᏯ	-1399
▁ᏄᏍᏕᏍᏗ	-1400
ᏗᎦᎵᏍᏙᏗᎭ	-1401
ᎦᏯ	-1402
ᎧᏁ	-1403
ᎩᎯ	-1404
ᏏᏔ	-1405
ᏛᏗ	-1406
ᏢᎩ	-1407
ᏱᎵ	-1408
ᎵᏃᎮ	-1409
ᏁᎲᎢ	-1410
ᏩᏛᎮ	-1411
▁ᏄᏅ	-1412
▁ᎠᎰᎵ	-1413
▁ᎠᏄᏬ	-1414
▁ᎢᎳᏯ	-1415
▁ᎢᏳᏅ	-1416
▁ᎤᎾᏁ	-1417
▁ᎦᏁᎸ	-1418
▁ᎬᏃᏛ	-1419
▁ᏅᎬᏩ	-1420
▁ᏣᏁᎭ	-1421
▁ᏧᏓᏏ	-1422
ᏗᎦᏅᏌᏗ	-1423
▁ᎠᏆᏤᎵ	-1424
▁ᎢᏣᏓᏅ	-1425
▁ᎤᏂᎪᎲ	-1426
▁ᎤᏩᏒᏉ	-1427
▁ᎤᎧᎵᏨᎯ	-1428
▁ᏅᏩᏓᎴᏃ	-1429
▁ᎤᎬᏫᏳᎯᏃ	-1430
▁ᏧᏅᏏᏓᏍᏗ	-1431
,]	-1432
ᎨᏛ	-1433
ᎯᎯ	-1434
ᏚᎩ	-1435
ᏟᏌ	-1436
ᏯᎠ	-1437
ᏰᎩ	-1438
ᎪᎲᎩ	-1439
ᎵᏂᎪ	-1440
ᏉᏰᏃ	-1441
ᏍᏓᏱ	-1442
ᏍᏛᏗ	-1443
ᏙᎵᎩ	-1444
▁ᎠᎢ	-1445
▁ᎤᎬ	-1446
▁ᎾᏃ	-1447
▁ᏚᏓ	-1448
▁ᏤᎭ	-1449
▁ᏳᏂ	-1450
ᏰᎳᏗᏙ	-1451
ᏲᏪᎳᏏ	-1452
▁ᎠᏴᏃ	-1453
▁ᎢᏣᏓ	-1454
▁ᎢᏤᎲ	-1455
▁ᎢᏨᏯ	-1456
▁ᎤᏛᎾ	-1457
ᎦᏴᎵᎨᎢ	-1458
ᏍᎦᏅᏨᎯ	-1459
▁ᎠᏍᏓᏱ	-1460
▁ᎤᎴᏅᎮ	-1461
▁ᎤᎷᏨᎩ	-1462
▁ᎦᏁᎸᎢ	-1463
▁ᏂᎦᏪᎭ	-1464
▁ᏚᎾᏓᏡ	-1465
▁ᏥᏄᏍᏗ	-1466
▁ᎢᏥᎦᏔᎭ	-1467
▁ᎤᏙᎴᎰᏒ	-1468
▁ᏂᎪᎯᎸᎢ	-1469
▁ᎢᏣᏛᏁᏗᏱ	-1470
▁ᎢᏣᏓᏙᎵᏍᏗ	-1471
▁ᏂᎬᏩᏪᏎᎴᎢ	-1472
▁ᏅᎬᏩᏪᏎᎸᎩ	-1473
▁ᏗᎵᏍᏓᏴᏗᏱ	-1474
▁ᏅᏗᎦᎵᏍᏙᏗᏍᎨ	-1475
ᎡᎯ	-1476
ᎬᏂ	-1477
ᏈᏏ	-1478
ᏏᏗ	-1479
ᏘᏃ	-1480
ᏢᏅ	-1481
ᎵᎥᏂ	-1482
ᏁᏍᎨ	-1483
ᏅᏗᏱ	-1484
ᏛᏁᎲ	-1485
ᏢᏔᏅ	-1486
ᏤᎵᏛ	-1487
ᏰᎸᎢ	-1488
▁ᎥᏆ	-1489
▁ᏄᏪ	-1490
▁ᏅᏛ	-1491
▁ᏙᎯ	-1492
▁ᏧᏩ	-1493
▁ᏴᎦ	-1494
ᏓᏁᏗᏱ	-1495
▁ᎡᎳᏪ	-1496
▁ᎤᏁᏉ	-1497
▁ᎤᏪᎵ	-1498
▁ᎦᏥᏯ	-1499
▁ᎾᏎᎵ	-1500
ᎵᏍᎦᏍᏙ	-1501
▁ᎢᏥᎦᏔ	-1502
▁ᎤᏟᎯᏳ	-1503
▁ᎾᎯᏳᏃ	-1504
▁ᏔᎴᎲᎦ	-1505
ᎤᏍᏕᏎᎸᎯ	-1506
ᏟᎶᏍᏔᏅᎯ	-1507
▁ᎠᏰᎳᏍᏗ	-1508
▁ᎤᎵᏍᎪᎸ	-1509
▁ᏗᏂᎳᏫᎩ	-1510
▁ᎠᏂᏏᏴᏫᎭ	-1511
▁ᏄᎵᏍᏔᏂᏙ	-1512
▁ᏱᎦᎵᏍᏙᏓ	-1513
▁ᎤᏔᎳᏬᎯᏍᏗ	-1514
ᎥᎯ	-1515
ᏈᏱ	-1516
ᏍᏘ	-1517
ᏎᏃ	-1518
ᏗᏂ	-1519
ᏘᏅ	-1520
ᏤᎭ	-1521
ᏪᏏ	-1522
ᏪᏛ	-1523
ᎶᏎᎢ	-1524
ᏃᎮᎮ	-1525
ᏃᎲᏏ	-1526
ᏅᏃᏛ	-1527
ᏍᎫᏕ	-1528
ᏲᎢᏳ	-1529
▁ᎢᎤ	-1530
▁ᎤᏄ	-1531
▁ᎬᏅ	-1532
▁ᏓᎬ	-1533
▁ᏕᎪ	-1534
▁ᏡᎬ	-1535
▁ᏤᏣ	-1536
▁ᏧᎦ	-1537
▁ᏧᏭ	-1538
▁ᏯᏆ	-1539
ᎲᏍᎨᎢ	-1540
ᏓᏁᏟᏴ	-1541
ᏡᏗᏍᎩ	-1542
▁ᎠᎫᏴ	-1543
▁ᎠᎹᏟ	-1544
▁ᎠᏣᏗ	-1545
▁ᎧᏃᎯ	-1546
▁ᎬᏩᎾ	-1547
ᏯᏔᎮᏍᏗ	-1548
▁ᎠᏓᏁᎯ	-1549
▁ᎦᎷᏨᎭ	-1550
▁ᏕᎤᏙᎥ	-1551
ᏍᏗᏍᎨᏍᏗ	-1552
▁ᎦᎸᏉᏙᏗ	-1553
▁ᎨᏥᎸᏉᏗ	-1554
▁ᎠᏓᏅᏖᏍᎬ	-1555
▁ᎢᏳᏓᎴᏅᏛ	-1556
▁ᏂᎦᎵᏍᏗᎭ	-1557
▁ᏕᏣᏓᏅᏛᎢ	-1558
--	-1559
ᏅᏗ	-1560
ᏑᏯ	-1561
ᏑᏴ	-1562
▁Ꮢ	-1563
ᎵᏏᎾ	-1564
ᏍᎪᎸ	-1565
ᏐᏅᎯ	-1566
ᏓᏛᎩ	-1567
ᏗᏓᎴ	-1568
ᏟᏍᏗ	-1569
ᏣᎴᏛ	-1570
ᏰᎸᎾ	-1571
▁ᎡᏈ	-1572
▁ᏕᏨ	-1573
▁ᏗᏦ	-1574
ᎬᏁᎸᎯ	-1575
ᎲᏍᎪᎢ	-1576
ᏍᏕᎵᏍ	-1577
ᏔᏲᏎᎭ	-1578
ᏗᏍᎪᎢ	-1579
▁ᎣᏂᏃ	-1580
▁ᎤᎩᎬ	-1581
▁ᎤᎾᏕ	-1582
▁ᎤᏪᏙ	-1583
▁ᎦᏛᎦ	-1584
▁ᏃᏈᏏ	-1585
▁ᏅᏛᎩ	-1586
▁ᏆᏂᏆ	-1587
▁ᏱᏍᎩ	-1588
▁ᎠᎩᎵᏲ	-1589
▁ᎢᏤᎲᎢ	-1590
▁ᏄᏃᎯᏳ	-1591
▁ᏓᏓᎿᏩ	-1592
▁ᏗᏅᏃᏛ	-1593
▁ᏗᏓᏅᏙ	-1594
▁ᏙᏱᏗᏢ	-1595
▁ᎠᏂᏍᎦᎾ	-1596
▁ᎢᎬᏁᎸᎯ	-1597
▁ᎢᏓᏓᏅᏟ	-1598
▁ᎤᎦᎵᏍᏗ	-1599
▁ᎾᏍᎦᏅᎾ	-1600
▁ᏂᎦᏪᏍᎬ	-1601
▁ᏂᏚᏪᏎᎴ	-1602
▁ᎠᏂᎦᏔᎲᎢ	-1603
▁ᎬᏩᏍᏓᏩᏛ	-1604
▁ᏅᏓᏳᎶᏒᎯ	-1605
ᎯᎠ	-1606
ᎵᏒ	-1607
ᏑᎴ	-1608
ᏛᏓ	-1609
ᏨᏃ	-1610
ᏪᏐ	-1611
ᏱᏃ	-1612
▁Ꮺ	-1613
ᎶᏒᎩ	-1614
ᏁᎸᎭ	-1615
ᏘᏃᎮ	-1616
▁ᎢᏅ	-1617
▁ᎤᎧ	-1618
▁ᎮᎾ	-1619
▁ᏕᎩ	-1620
▁ᏙᏧ	-1621
▁ᏩᎦ	-1622
▁ᏭᎾ	-1623
▁ᏯᏂ	-1624
ᎧᎿᏩᏛ	-1625
ᎪᏩᏘᎭ	-1626
ᎸᏉᏙᏗ	-1627
ᏢᏔᏅᏛ	-1628
ᏬᏂᏍᎬ	-1629
▁ᎠᏓᏰ	-1630
▁ᎢᏯᏆ	-1631
▁ᎥᏓᎵ	-1632
▁ᏉᎳᏃ	-1633
▁ᏐᏈᎵ	-1634
▁ᏗᏓᏬ	-1635
▁ᏭᎷᏤ	-1636
▁ᎢᎩᏙᏓ	-1637
▁ᎤᎵᎮᎵ	-1638
▁ᎪᏪᎵᎯ	-1639
▁ᎬᏬᎯᏳ	-1640
▁ᎾᏎᎵᏗ	-1641
▁ᏓᏆᏙᎥ	-1642
▁ᏧᏂᏢᎩ	-1643
▁ᎠᏆᏤᎵᎦ	-1644
▁ᎢᏨᎨᏳᎢ	-1645
▁ᎢᏨᏲᏎᎭ	-1646
▁ᎤᎵᏍᏈᏗ	-1647
▁ᎾᎩᏪᏎᎸᎩ	-1648
▁ᏅᏓᏳᎵᏍᏙ	-1649
▁ᏗᎨᎦᏁᎶᏗ	-1650
▁ᎢᏳᎾᎵᏍᏓᏁᏗ	-1651
ᎥᏏ	-1652
ᎨᏂ	-1653
ᎪᎮ	-1654
ᎶᎻ	-1655
ᏂᏒ	-1656
ᏨᎢ	-1657
ᎥᏍᎬ	-1658
ᏂᏍᎬ	-1659
ᏔᏲᎯ	-1660
ᏕᏲᏗ	-1661
ᏞᏍᏗ	-1662
▁ᎣᎬ	-1663
▁ᎪᏢ	-1664
▁ᎯᏯ	-1665
▁ᏅᎦ	-1666
▁ᏐᎳ	-1667
▁ᏓᏲ	-1668
▁ᏗᎹ	-1669
▁ᏥᏨ	-1670
▁ᏫᎬ	-1671
ᎦᏅᎯᏛ	-1672
ᎨᏳᎢᏳ	-1673
ᎾᏝᎥᎾ	-1674
ᏌᎳᏓᏅ	-1675
ᏑᎶᏨᎯ	-1676
ᏛᏁᎲᎢ	-1677
ᏩᏛᏗᏱ	-1678
▁ᎠᏂᏃ	-1679
▁ᎠᏗᎭ	-1680
▁ᎤᏍᎦ	-1681
▁ᏅᏲᎯ	-1682
▁ᏕᎨᎦ	-1683
▁ᏤᎦᏈ	-1684
▁ᏥᎨᏎ	-1685
▁ᏧᏓᎴ	-1686
▁ᏱᏂᎦ	-1687
ᎾᏛᎿᏕᎩ	-1688
ᏟᎶᏍᏓᏁ	-1689
▁ᎠᏂᎪᎢ	-1690
▁ᎠᏂᏙᎾ	-1691
▁ᎡᎯᏍᏗ	-1692
▁ᎢᏥᏈᏱ	-1693
▁ᎢᏥᏙᏓ	-1694
▁ᎤᎵᏏᎬ	-1695
▁ᎤᏠᏱᏉ	-1696
▁ᏂᎦᎥᏉ	-1697
▁ᎠᏆᏓᏅᏙ	-1698
▁ᎢᏯᏛᏁᎯ	-1699
▁ᎤᏕᏯᏙᏗ	-1700
▁ᏄᎵᏍᏔᏁ	-1701
▁ᎢᏳᎾᏛᏁᏗ	-1702
▁ᎠᏥᏅᏏᏓᏍᏗ	-1703
▁ᎢᏳᏩᏂᏐᏗᏱ	-1704
▁ᏧᎸᏫᏍᏓᏁᎯ	-1705
ᎦᎶ	-1706
ᎸᎾ	-1707
ᏚᎪ	-1708
ᎨᏳᎭ	-1709
ᏁᎰᎢ	-1710
ᏅᏓᏗ	-1711
ᏍᏗᏉ	-1712
ᏩᏒᎩ	-1713
▁ᎨᎳ	-1714
▁ᏄᏓ	-1715
▁ᏕᎭ	-1716
▁ᏙᎩ	-1717
▁ᏚᎴ	-1718
▁ᏚᏬ	-1719
▁ᏛᏂ	-1720
▁ᏥᎬ	-1721
▁ᏦᏥ	-1722
▁ᏴᎬ	-1723
ᎳᏍᏓᎸ	-1724
ᏍᏆᎸᎲ	-1725
ᏍᏗᏍᎬ	-1726
▁ᎠᏍᏚ	-1727
▁ᎠᏲᎩ	-1728
▁ᎦᎬᏩ	-1729
▁ᏂᏙᏓ	-1730
▁ᏐᎢᏃ	-1731
▁ᏗᎨᏫ	-1732
▁ᏚᎴᏅ	-1733
▁ᎠᎦᏔᎲ	-1734
▁ᎠᎵᏥᏙ	-1735
▁ᎠᏍᎦᎾ	-1736
▁ᎠᏙᎴᎰ	-1737
▁ᎤᏬᏰᏂ	-1738
▁ᎦᏍᎩᎸ	-1739
ᎩᎵᏲᎢᏍᏗ	-1740
ᏓᏂᎸᎢᏍᏗ	-1741
▁ᎢᏣᎵᎮᎵ	-1742
▁ᎧᏃᎯᏰᎩ	-1743
▁ᎾᏍᎩᏯᏉ	-1744
▁ᏚᎾᏓᏅᏛ	-1745
ᏓᏙᎵᏍᏓᏁᎯ	-1746
▁ᎠᏆᏛᎦᏅᎩ	-1747
▁ᎤᏅᏏᏓᏍᏗ	-1748
▁ᎤᎵᏍᏆᏗᏍᏗ	-1749
ᎨᏣ	-1750
ᎩᎸ	-1751
ᎳᏅ	-1752
ᏆᏗ	-1753
ᏠᎠ	-1754
ᎦᎸᏛ	-1755
ᏅᏎᎢ	-1756
ᏌᏅᎯ	-1757
ᏍᏓᏏ	-1758
ᏍᏓᏕ	-1759
ᏏᏙᏂ	-1760
ᏗᏍᎪ	-1761
ᏩᏛᎯ	-1762
ᏩᏛᏗ	-1763
▁ᎢᏕ	-1764
▁ᎢᏲ	-1765
▁ᎾᎬ	-1766
▁ᏗᏗ	-1767
▁ᏙᏛ	-1768
▁ᏫᎤ	-1769
▁ᏱᏕ	-1770
ᎫᏴᎡᏗ	-1771
ᏃᎮᏍᎬ	-1772
▁ᎠᏂᏁ	-1773
▁ᎠᏚᎢ	-1774
▁ᎬᏙᏗ	-1775
▁ᎬᏩᏚ	-1776
▁ᏂᏚᏂ	-1777
▁ᏚᏳᎪ	-1778
▁ᏩᏍᏛ	-1779
ᏍᏓᏁᎸᎯ	-1780
▁ᎠᎾᏛᎩ	-1781
▁ᎤᎬᏫᏳ	-1782
▁ᎪᏪᎸᎢ	-1783
▁ᏧᏂᎾᏫ	-1784
▁ᎢᏦᎯᏳᏒ	-1785
▁ᎢᏯᏛᏁᏗ	-1786
▁ᎯᎠᏍᎩᏂ	-1787
ᎸᏫᏍᏓᏁᎲᎢ	-1788
▁ᏄᏃᎯᏳᏒᎾ	-1789
▁ᏅᏛᎩᏅᏏᏛ	-1790
▁ᏗᎫᎪᏙᏗᏱ	-1791
▁ᎠᎵᏍᏆᏗᏍᎩ	-1792
▁ᎢᏳᎾᏛᎿᏕᎩ	-1793
▁ᏗᎧᎿᏩᏛᏍᏗᏱ	-1794
▁ᏅᏓᏳᎵᏍᏙᏔᏅᎩ	-1795
ᎵᎢ	-1796
ᎶᏒ	-1797
ᏏᎾ	-1798
ᏚᎶ	-1799
ᏥᏌ	-1800
▁Ꮂ	-1801
ᎴᏂᏙ	-1802
ᏁᎲᎾ	-1803
ᏍᏙᎢ	-1804
ᏬᏁᏗ	-1805
▁ᎠᎲ	-1806
▁ᎾᎦ	-1807
▁ᏕᎬ	-1808
▁ᏫᏓ	-1809
▁ᏱᎾ	-1810
ᎲᏍᎬᎩ	-1811
ᏍᎩᏍᎩ	-1812
ᏪᏍᏗᏱ	-1813
▁ᎤᎾᏫ	-1814
▁ᎤᏃᎴ	-1815
▁ᏄᎾᏛ	-1816
▁ᏕᎦᏚ	-1817
▁ᏗᎹᏗ	-1818
▁ᏗᏍᎩ	-1819
▁ᏚᎧᎿ	-1820
▁ᏥᏂᏣ	-1821
▁ᏦᎯᏳ	-1822
ᎦᏘᏗᏍᏗ	-1823
ᎯᏍᏗᏍᎩ	-1824
▁ᎤᏁᏨᎩ	-1825
▁ᎤᏓᏁᏗ	-1826
▁ᎬᏂᏗᏳ	-1827
▁ᎹᏏᏙᏂ	-1828
▁ᎾᏂᎥᏉ	-1829
▁ᏂᎯᏰᏃ	-1830
▁ᏅᏓᏳᎾ	-1831
▁ᏗᏕᏲᏗ	-1832
ᏍᎦᎢᎮᏍᏗ	-1833
ᏓᏂᎸᎨᏍᏗ	-1834
ᏓᏅᏓᏗᏍᏗ	-1835
ᏗᏓᎴᎲᏍᎦ	-1836
▁ᎤᏚᎵᏍᎬ	-1837
▁ᎤᏣᎴᏍᏗ	-1838
▁ᏅᎦᏍᎪᎯ	-1839
▁ᎠᎦᏘᏏᏗᏢ	-1840
▁ᎠᎾᎵᏍᏓᏴ	-1841
▁ᏓᏓᎿᏩᏍᏛ	-1842
▁ᎢᏤᏯᏔᎮᏍᏗ	-1843
▁ᎢᏳᎵᏍᏓᏁᏗ	-1844
▁ᎤᎾᏄᎪᏫᏒᎯ	-1845
▁ᎨᏥᏅᏏᏓᏍᏗ	-1846
▁ᎤᏂᏍᏆᏂᎪᏎᎢ	-1847
,)	-1848
ᎥᎦ	-1849
ᎧᎾ	-1850
ᎪᏗ	-1851
ᎲᏃ	-1852
ᎸᏌ	-1853
ᎾᏉ	-1854
ᏓᏲ	-1855
ᏔᎴ	-1856
ᏙᎭ	-1857
ᏧᎪ	-1858
ᏲᎢ	-1859
▁Ꮅ	-1860
ᎵᏂᎬ	-1861
ᏓᏅᏔ	-1862
ᏓᏡᎬ	-1863
ᏛᎿᏕ	-1864
ᏦᎢᏳ	-1865
ᏪᏐᎸ	-1866
▁ᎡᎮ	-1867
▁ᎡᎲ	-1868
▁ᎡᏏ	-1869
▁ᎤᏤ	-1870
▁ᎤᏮ	-1871
▁ᎧᎳ	-1872
▁ᎬᏬ	-1873
▁ᏞᎦ	-1874
▁ᏣᏃ	-1875
▁ᏧᏙ	-1876
ᏓᏂᎸᏨ	-1877
ᏟᎶᏍᏗ	-1878
ᏲᎲᏍᎩ	-1879
ᏲᎵᎸᎭ	-1880
▁ᎤᏄᏬ	-1881
▁ᎤᏕᎰ	-1882
▁ᎦᏰᏥ	-1883
▁ᏣᏤᎵ	-1884
▁ᏫᏚᏂ	-1885
▁ᏭᏂᏴ	-1886
ᎤᏁᎳᏅᎯ	-1887
ᎨᎳᏍᏗᏱ	-1888
ᏍᎦᎢᎲᎾ	-1889
▁ᎠᎧᎵᎢ	-1890
▁ᎠᏍᎦᏅ	-1891
▁ᎠᏏᏉᏃ	-1892
▁ᎠᏥᎸᏱ	-1893
▁ᎢᎦᎦᏛ	-1894
▁ᎢᏣᏤᎵ	-1895
▁ᎤᏂᏁᏨ	-1896
▁	-1897
Ꮝ	-1898
Ꮧ	-1899
Ꭰ	-1900
Ꭹ	-1901
Ꭲ	-1902
Ꮎ	-1903
Ꮒ	-1904
Ꭿ	-1905
Ꭴ	-1906
Ꭶ	-1907
,	-1908
Ꮣ	-1909
Ꮅ	-1910
Ꮕ	-1911
Ꭸ	-1912
Ꮄ	-1913
Ꮑ	-1914
Ꮫ	-1915
Ꮓ	-1916
Ꮵ	-1917
Ꮢ	-1918
Ꭼ	-1919
Ꮈ	-1920
Ᏻ	-1921
Ꮩ	-1922
Ᏹ	-1923
.	-1924
Ꭺ	-1925
Ꮞ	-1926
Ꮹ	-1927
Ꮻ	-1928
Ꮙ	-1929
;	-1930
Ꮃ	-1931
Ꮳ	-1932
Ꮪ	-1933
Ᏼ	-1934
Ꮿ	-1935
Ꮥ	-1936
Ꮤ	-1937
Ꮺ	-1938
Ꮆ	-1939
Ᏸ	-1940
Ꮔ	-1941
Ꭵ	-1942
Ꮷ	-1943
Ꭽ	-1944
Ꮂ	-1945
Ꮟ	-1946
Ꮴ	-1947
Ꭱ	-1948
Ᏺ	-1949
Ꮸ	-1950
Ꮜ	-1951
Ꭾ	-1952
Ꮏ	-1953
Ꮖ	-1954
Ꮨ	-1955
Ꮭ	-1956
Ꭷ	-1957
Ꭳ	-1958
Ꮇ	-1959
Ꮼ	-1960
Ꮯ	-1961
Ꮲ	-1962
Ꮀ	-1963
Ꮁ	-1964
Ꮠ	-1965
?	-1966
Ꮶ	-1967
-	-1968
Ꮘ	-1969
Ꮦ	-1970
Ꮽ	-1971
Ꭻ	-1972
Ꮮ	-1973
Ꮡ	-1974
Ꮰ	-1975
Ꮋ	-1976
Ꮗ	-1977
Ꮉ	-1978
Ꮱ	-1979
[	-1980
Ꮊ	-1981
]	-1982
Ꮛ	-1983
Ꮬ	-1984
"	-1985
!	-1986
Ꮾ	-1987
Ꮌ	-1988
(	-1989
)	-1990
:	-1991
'	-1992
Ꮚ	-1993
~	-1994
Ꮍ	-1995
\	-1996
