<pad>	0
</s>	0
<unk>	0
▁¦	-0
th	-1
in	-2
the	-3
re	-4
on	-5
an	-6
at	-7
en	-8
er	-9
or	-10
▁𐋇	-11
▁the	-12
is	-13
ed	-14
al	-15
as	-16
es	-17
▁s	-18
to	-19
of	-20
▁c	-21
ar	-22
ing	-23
▁a	-24
ti	-25
ou	-26
▁w	-27
and	-28
▁in	-29
▁p	-30
▁h	-31
ent	-32
▁of	-33
▁b	-34
ac	-35
it	-36
▁f	-37
▁d	-38
ati	-39
▁to	-40
ic	-41
il	-42
ro	-43
ve	-44
▁.	-45
ec	-46
id	-47
tr	-48
le	-49
▁,	-50
▁m	-51
he	-52
▁and	-53
us	-54
ation	-55
os	-56
ir	-57
om	-58
▁T	-59
▁th	-60
▁n	-61
▁be	-62
ay	-63
ad	-64
ver	-65
▁re	-66
ly	-67
ow	-68
▁v	-69
tion	-70
▁C	-71
▁is	-72
acc	-73
ter	-74
oron	-75
▁M	-76
ave	-77
ch	-78
un	-79
ur	-80
ol	-81
accin	-82
orona	-83
ment	-84
▁l	-85
ill	-86
▁A	-87
▁g	-88
op	-89
▁e	-90
st	-91
ate	-92
▁I	-93
▁t	-94
▁S	-95
am	-96
ot	-97
um	-98
ce	-99
▁The	-100
ted	-101
im	-102
▁for	-103
di	-104
ith	-105
▁on	-106
et	-107
el	-108
oun	-109
are	-110
ak	-111
oc	-112
ig	-113
rom	-114
for	-115
ers	-116
▁st	-117
▁are	-118
ts	-119
be	-120
res	-121
als	-122
over	-123
ents	-124
ut	-125
ul	-126
em	-127
▁vaccin	-128
ld	-129
ab	-130
ag	-131
fec	-132
ere	-133
▁P	-134
▁that	-135
ain	-136
▁has	-137
▁H	-138
se	-139
ap	-140
out	-141
ther	-142
ome	-143
▁have	-144
atients	-145
umb	-146
ion	-147
▁con	-148
all	-149
▁D	-150
ity	-151
vid	-152
▁an	-153
▁with	-154
▁B	-155
iti	-156
iv	-157
▁In	-158
aid	-159
irus	-160
por	-161
▁wh	-162
overn	-163
20	-164
▁corona	-165
▁𐊣	-166
od	-167
alth	-168
our	-169
overnment	-170
if	-171
ess	-172
▁1	-173
▁was	-174
ore	-175
inis	-176
▁as	-177
ase	-178
eop	-179
eople	-180
▁r	-181
▁"	-182
▁will	-183
ould	-184
gen	-185
uc	-186
qu	-187
har	-188
▁from	-189
ear	-190
▁W	-191
est	-192
▁dis	-193
▁pro	-194
▁(	-195
ud	-196
▁y	-197
▁R	-198
ated	-199
▁or	-200
also	-201
up	-202
ew	-203
▁'	-204
igh	-205
own	-206
▁o	-207
▁not	-208
19	-209
av	-210
▁at	-211
wh	-212
ies	-213
▁sh	-214
pl	-215
▁by	-216
me	-217
ash	-218
tric	-219
pit	-220
tions	-221
▁been	-222
ant	-223
corona	-224
▁it	-225
ays	-226
vaccin	-227
pro	-228
co	-229
ep	-230
▁patients	-231
cl	-232
▁ex	-233
con	-234
umber	-235
ospit	-236
ary	-237
any	-238
end	-239
▁this	-240
ork	-241
▁vaccine	-242
-19	-243
has	-244
per	-245
fter	-246
▁tr	-247
▁Th	-248
▁N	-249
that	-250
sp	-251
▁he	-252
sh	-253
inister	-254
tor	-255
ge	-256
▁O	-257
ef	-258
▁com	-259
▁said	-260
med	-261
gh	-262
ous	-263
▁U	-264
ountr	-265
ical	-266
ast	-267
der	-268
ding	-269
com	-270
ure	-271
▁ch	-272
cre	-273
we	-274
ath	-275
▁government	-276
have	-277
ans	-278
tra	-279
ever	-280
one	-281
▁people	-282
ial	-283
fic	-284
ock	-285
ik	-286
ack	-287
ren	-288
with	-289
ough	-290
port	-291
xy	-292
ue	-293
ound	-294
vel	-295
ms	-296
ail	-297
ex	-298
▁also	-299
ose	-300
ub	-301
virus	-302
xygen	-303
pr	-304
▁F	-305
tic	-306
▁de	-307
▁im	-308
dis	-309
ance	-310
▁state	-311
age	-312
▁infec	-313
ahar	-314
ine	-315
dia	-316
use	-317
ven	-318
down	-319
uch	-320
ator	-321
iz	-322
ashtra	-323
aharashtra	-324
this	-325
▁K	-326
▁ac	-327
▁Ch	-328
ost	-329
▁cl	-330
not	-331
▁un	-332
ospital	-333
ip	-334
▁were	-335
▁G	-336
will	-337
ib	-338
▁ad	-339
▁per	-340
▁virus	-341
able	-342
duc	-343
ens	-344
cent	-345
from	-346
▁number	-347
pre	-348
▁¦1	-349
ll	-350
▁le	-351
ockdown	-352
00	-353
▁2	-354
art	-355
▁He	-356
ond	-357
▁ab	-358
▁cont	-359
reat	-360
ard	-361
ia	-362
iss	-363
▁we	-364
pos	-365
ild	-366
time	-367
▁20	-368
ates	-369
ive	-370
▁can	-371
act	-372
ased	-373
ym	-374
ple	-375
▁E	-376
was	-377
ease	-378
▁Corona	-379
by	-380
trict	-381
eed	-382
ong	-383
ile	-384
enti	-385
ases	-386
ations	-387
▁all	-388
ru	-389
▁countr	-390
ass	-391
day	-392
▁should	-393
arch	-394
lo	-395
ach	-396
ire	-397
▁other	-398
▁work	-399
ra	-400
ovid	-401
ight	-402
te	-403
de	-404
▁J	-405
▁health	-406
ell	-407
▁Minister	-408
patients	-409
ist	-410
ai	-411
▁me	-412
ffec	-413
been	-414
tive	-415
ording	-416
ake	-417
▁there	-418
▁had	-419
▁se	-420
clud	-421
pe	-422
ich	-423
▁cent	-424
une	-425
ask	-426
ymp	-427
vaccine	-428
▁res	-429
ympto	-430
oll	-431
▁ap	-432
other	-433
ID	-434
OV	-435
ang	-436
irst	-437
very	-438
▁k	-439
ally	-440
pec	-441
OVID	-442
wo	-443
ike	-444
ence	-445
ress	-446
said	-447
▁pre	-448
ide	-449
ame	-450
ool	-451
government	-452
covid	-453
▁pl	-454
ied	-455
econd	-456
there	-457
used	-458
▁out	-459
▁after	-460
▁Maharashtra	-461
▁oxygen	-462
▁who	-463
velop	-464
form	-465
▁ag	-466
ish	-467
uring	-468
▁COVID	-469
▁India	-470
ief	-471
orld	-472
▁V	-473
ign	-474
▁you	-475
▁incre	-476
0¦	-477
ace	-478
miss	-479
▁Wh	-480
infec	-481
health	-482
people	-483
oV	-484
▁hand	-485
▁L	-486
▁do	-487
▁dec	-488
chool	-489
ice	-490
ubl	-491
ting	-492
ures	-493
inistr	-494
og	-495
erv	-496
ons	-497
ious	-498
ind	-499
▁no	-500
▁3	-501
ities	-502
uation	-503
▁It	-504
state	-505
ymptoms	-506
▁about	-507
af	-508
aw	-509
iven	-510
▁more	-511
▁pr	-512
ort	-513
ildren	-514
mission	-515
umbai	-516
▁Dr	-517
▁test	-518
▁This	-519
▁)	-520
aj	-521
ok	-522
ade	-523
owever	-524
esh	-525
gan	-526
octor	-527
▁their	-528
reatment	-529
ced	-530
ov	-531
CoV	-532
▁lockdown	-533
▁than	-534
▁time	-535
atory	-536
▁But	-537
mun	-538
▁some	-539
fore	-540
here	-541
odi	-542
▁new	-543
cont	-544
aking	-545
ituation	-546
▁so	-547
▁med	-548
ning	-549
RS	-550
▁?	-551
ek	-552
▁5	-553
stem	-554
▁infection	-555
ree	-556
ublic	-557
ystem	-558
ult	-559
cording	-560
han	-561
but	-562
row	-563
▁under	-564
▁disease	-565
▁being	-566
▁vaccination	-567
▁days	-568
▁vaccines	-569
were	-570
work	-571
bre	-572
can	-573
▁year	-574
fere	-575
▁pos	-576
▁one	-577
▁Health	-578
▁country	-579
rough	-580
▁4	-581
▁if	-582
▁¦2	-583
▁these	-584
▁-	-585
so	-586
▁av	-587
ailable	-588
itiz	-589
ainst	-590
ines	-591
▁There	-592
▁al	-593
number	-594
ber	-595
▁resp	-596
isk	-597
rug	-598
▁Pr	-599
red	-600
ute	-601
sti	-602
pread	-603
ne	-604
▁Un	-605
▁need	-606
▁sup	-607
ministr	-608
aken	-609
▁but	-610
anu	-611
noun	-612
▁As	-613
▁go	-614
after	-615
▁qu	-616
▁which	-617
▁includ	-618
cy	-619
had	-620
mit	-621
ported	-622
ves	-623
feren	-624
ating	-625
-19¦	-626
▁reg	-627
rent	-628
ited	-629
▁they	-630
▁first	-631
▁¦20	-632
erson	-633
jec	-634
cr	-635
▁high	-636
▁ar	-637
▁hospital	-638
▁Ac	-639
▁many	-640
minister	-641
ospitals	-642
ered	-643
urrent	-644
gr	-645
itic	-646
olog	-647
dition	-648
ational	-649
ause	-650
mer	-651
who	-652
-2	-653
old	-654
rol	-655
akh	-656
▁spread	-657
mon	-658
no	-659
break	-660
▁may	-661
▁found	-662
hav	-663
countr	-664
▁second	-665
ody	-666
▁effec	-667
ina	-668
formation	-669
hi	-670
acker	-671
trictions	-672
now	-673
ARS	-674
▁two	-675
ackeray	-676
▁up	-677
,00	-678
ral	-679
app	-680
▁get	-681
emic	-682
eng	-683
should	-684
▁comp	-685
eds	-686
▁cases	-687
osed	-688
owed	-689
▁last	-690
aren	-691
▁such	-692
tim	-693
ater	-694
▁day	-695
ply	-696
dr	-697
▁op	-698
▁over	-699
go	-700
its	-701
▁stud	-702
▁March	-703
▁On	-704
read	-705
ision	-706
iver	-707
▁symptoms	-708
▁SARS	-709
▁develop	-710
ible	-711
▁rel	-712
▁tes	-713
▁Mumbai	-714
cess	-715
ural	-716
ility	-717
▁any	-718
▁2020	-719
5¦	-720
▁According	-721
you	-722
▁says	-723
stit	-724
do	-725
▁death	-726
ata	-727
dec	-728
ech	-729
octors	-730
▁due	-731
amp	-732
atient	-733
than	-734
str	-735
many	-736
▁given	-737
eld	-738
▁district	-739
ative	-740
ipal	-741
arge	-742
▁:	-743
pril	-744
oxygen	-745
get	-746
hand	-747
ivir	-748
itive	-749
illion	-750
▁St	-751
▁use	-752
some	-753
care	-754
▁children	-755
portant	-756
▁am	-757
▁situation	-758
▁treatment	-759
anc	-760
nounced	-761
fl	-762
▁us	-763
▁dif	-764
▁7	-765
asing	-766
icipal	-767
year	-768
▁mon	-769
▁sur	-770
new	-771
▁wave	-772
more	-773
▁like	-774
ark	-775
ials	-776
▁bec	-777
▁trans	-778
▁cr	-779
arted	-780
▁6	-781
avel	-782
resent	-783
hy	-784
▁only	-785
test	-786
reg	-787
▁An	-788
▁Chief	-789
these	-790
▁However	-791
eting	-792
maharashtra	-793
ministration	-794
▁Covid	-795
india	-796
▁en	-797
incre	-798
▁school	-799
hospital	-800
ank	-801
▁system	-802
▁offic	-803
arr	-804
ved	-805
about	-806
emand	-807
uss	-808
▁your	-809
▁countries	-810
su	-811
▁coronavirus	-812
▁available	-813
till	-814
ust	-815
▁We	-816
amil	-817
ember	-818
while	-819
itizens	-820
cer	-821
ros	-822
ior	-823
ganiz	-824
tal	-825
lockdown	-826
▁¦3	-827
way	-828
▁infected	-829
ned	-830
ten	-831
▁his	-832
▁April	-833
▁sto	-834
▁Cent	-835
vent	-836
ble	-837
▁If	-838
▁world	-839
par	-840
eral	-841
may	-842
pur	-843
uk	-844
ord	-845
ween	-846
artment	-847
vi	-848
▁gen	-849
ince	-850
ian	-851
▁fac	-852
▁What	-853
▁during	-854
4¦	-855
▁gr	-856
ying	-857
▁j	-858
▁against	-859
oth	-860
▁8	-861
ared	-862
▁risk	-863
epartment	-864
they	-865
▁anti	-866
ime	-867
posed	-868
▁inter	-869
▁provid	-870
dhav	-871
▁10	-872
▁when	-873
ext	-874
rit	-875
oci	-876
ocial	-877
▁used	-878
▁every	-879
peri	-880
▁now	-881
ollow	-882
their	-883
ours	-884
▁mask	-885
▁while	-886
ise	-887
ety	-888
ules	-889
▁exam	-890
vaccination	-891
▁week	-892
educ	-893
iratory	-894
infection	-895
ob	-896
rore	-897
▁Pune	-898
▁care	-899
▁those	-900
elhi	-901
ized	-902
under	-903
ential	-904
ousand	-905
▁vaccinated	-906
▁pol	-907
."	-908
iate	-909
sid	-910
ird	-911
▁take	-912
vere	-913
ended	-914
ness	-915
▁home	-916
rel	-917
arant	-918
quire	-919
disease	-920
▁9	-921
▁str	-922
▁produc	-923
comm	-924
ffic	-925
▁taken	-926
resp	-927
uman	-928
ivate	-929
▁medical	-930
▁hospitals	-931
what	-932
,000	-933
ampa	-934
ering	-935
ars	-936
▁Sh	-937
▁Thackeray	-938
oses	-939
ty	-940
aces	-941
▁public	-942
▁reported	-943
oy	-944
val	-945
▁its	-946
vaccines	-947
rec	-948
sup	-949
ists	-950
ident	-951
ampaign	-952
▁through	-953
ross	-954
▁par	-955
being	-956
ivers	-957
ove	-958
gency	-959
ps	-960
like	-961
anuary	-962
ferent	-963
▁person	-964
ci	-965
eep	-966
sible	-967
urrently	-968
til	-969
days	-970
man	-971
▁outbreak	-972
ised	-973
tain	-974
▁drug	-975
uce	-976
high	-977
stitute	-978
▁made	-979
▁appro	-980
▁bet	-981
▁them	-982
ection	-983
rap	-984
▁restrictions	-985
ages	-986
ocal	-987
fr	-988
▁how	-989
oid	-990
▁rem	-991
ition	-992
ug	-993
▁China	-994
according	-995
line	-996
low	-997
district	-998
eb	-999
ph	-1000
ices	-1001
alled	-1002
munity	-1003
country	-1004
ari	-1005
▁beds	-1006
▁would	-1007
▁Al	-1008
sur	-1009
).	-1010
1¦	-1011
▁lakh	-1012
cep	-1013
▁So	-1014
▁di	-1015
which	-1016
irec	-1017
▁workers	-1018
ax	-1019
anti	-1020
inical	-1021
mitted	-1022
ampl	-1023
vir	-1024
▁patient	-1025
need	-1026
ular	-1027
▁sp	-1028
education	-1029
nown	-1030
▁even	-1031
hether	-1032
pected	-1033
serv	-1034
ful	-1035
▁including	-1036
ustr	-1037
first	-1038
ments	-1039
second	-1040
▁areas	-1041
▁covid	-1042
ators	-1043
ution	-1044
▁announced	-1045
last	-1046
includ	-1047
8¦	-1048
ah	-1049
▁Y	-1050
effec	-1051
ulation	-1052
tes	-1053
▁Com	-1054
▁short	-1055
ebru	-1056
▁Raj	-1057
ebruary	-1058
unicipal	-1059
dian	-1060
▁wash	-1061
air	-1062
comp	-1063
cuss	-1064
ific	-1065
lood	-1066
▁month	-1067
▁important	-1068
int	-1069
alk	-1070
aly	-1071
),	-1072
press	-1073
ret	-1074
pecial	-1075
▁started	-1076
ality	-1077
ology	-1078
perts	-1079
asures	-1080
itical	-1081
ield	-1082
▁information	-1083
two	-1084
ector	-1085
▁most	-1086
ganization	-1087
2¦	-1088
ont	-1089
such	-1090
ason	-1091
plic	-1092
estion	-1093
ffected	-1094
▁well	-1095
offic	-1096
spread	-1097
mediate	-1098
▁travel	-1099
enc	-1100
uid	-1101
ung	-1102
andemic	-1103
▁come	-1104
▁years	-1105
▁Hospital	-1106
world	-1107
ix	-1108
lear	-1109
▁say	-1110
▁same	-1111
develop	-1112
ination	-1113
▁increased	-1114
found	-1115
▁what	-1116
when	-1117
▁hel	-1118
ink	-1119
ser	-1120
▁testing	-1121
▁tests	-1122
▁closed	-1123
▁did	-1124
▁ser	-1125
▁After	-1126
▁states	-1127
▁level	-1128
▁serv	-1129
▁doctors	-1130
▁ro	-1131
ined	-1132
veill	-1133
veillance	-1134
due	-1135
spec	-1136
ick	-1137
▁large	-1138
tern	-1139
cases	-1140
sars	-1141
struc	-1142
▁decision	-1143
march	-1144
rs	-1145
ale	-1146
olle	-1147
ults	-1148
orpor	-1149
▁then	-1150
esivir	-1151
plement	-1152
▁supply	-1153
7¦	-1154
occ	-1155
stud	-1156
▁few	-1157
▁our	-1158
school	-1159
▁hands	-1160
▁increasing	-1161
says	-1162
based	-1163
pol	-1164
body	-1165
li	-1166
ins	-1167
▁ca	-1168
ived	-1169
▁For	-1170
▁body	-1171
▁city	-1172
▁rate	-1173
▁positive	-1174
▁effective	-1175
abor	-1176
BC	-1177
▁increase	-1178
duce	-1179
20¦	-1180
most	-1181
outh	-1182
amples	-1183
▁meeting	-1184
bal	-1185
▁million	-1186
only	-1187
trans	-1188
few	-1189
his	-1190
▁demand	-1191
▁%	-1192
come	-1193
symptoms	-1194
fact	-1195
earch	-1196
▁between	-1197
odies	-1198
▁case	-1199
▁where	-1200
children	-1201
▁control	-1202
▁administration	-1203
▁Ud	-1204
ploy	-1205
chief	-1206
ouse	-1207
▁app	-1208
▁far	-1209
mumbai	-1210
▁Uddhav	-1211
kar	-1212
coronavirus	-1213
tiv	-1214
▁lead	-1215
death	-1216
yn	-1217
▁fl	-1218
▁low	-1219
given	-1220
▁deaths	-1221
ges	-1222
iot	-1223
amily	-1224
ped	-1225
▁Center	-1226
▁contact	-1227
▁students	-1228
how	-1229
during	-1230
▁ph	-1231
▁ass	-1232
▁Modi	-1233
▁into	-1234
▁2020,	-1235
▁present	-1236
aff	-1237
▁¦5	-1238
▁crore	-1239
fir	-1240
ange	-1241
medical	-1242
ha	-1243
rem	-1244
ect	-1245
ric	-1246
▁data	-1247
▁died	-1248
▁contin	-1249
6¦	-1250
bec	-1251
ues	-1252
und	-1253
▁¦4	-1254
where	-1255
however	-1256
▁comple	-1257
elf	-1258
ood	-1259
onse	-1260
opulation	-1261
flu	-1262
▁age	-1263
▁rec	-1264
urther	-1265
▁Delhi	-1266
iod	-1267
infected	-1268
treatment	-1269
agpur	-1270
▁very	-1271
orporation	-1272
thing	-1273
▁could	-1274
▁direc	-1275
▁central	-1276
▁respiratory	-1277
arket	-1278
▁does	-1279
resident	-1280
onom	-1281
br	-1282
dra	-1283
even	-1284
omen	-1285
▁plan	-1286
mall	-1287
view	-1288
▁At	-1289
▁three	-1290
▁around	-1291
imil	-1292
na	-1293
apr	-1294
urs	-1295
▁es	-1296
home	-1297
▁before	-1298
▁period	-1299
ese	-1300
aim	-1301
oup	-1302
▁dr	-1303
▁set	-1304
atives	-1305
imilar	-1306
▁¦2020¦	-1307
april	-1308
ions	-1309
▁BBC	-1310
states	-1311
▁citizens	-1312
acin	-1313
ains	-1314
iving	-1315
ditions	-1316
bo	-1317
▁Ad	-1318
essential	-1319
uth	-1320
▁19	-1321
inese	-1322
asseng	-1323
situation	-1324
att	-1325
risk	-1326
sto	-1327
▁15	-1328
▁dose	-1329
econom	-1330
led	-1331
itor	-1332
quired	-1333
ked	-1334
▁em	-1335
▁dist	-1336
lying	-1337
public	-1338
alf	-1339
▁UK	-1340
▁emer	-1341
▁doses	-1342
anufact	-1343
▁thousand	-1344
▁man	-1345
going	-1346
iversity	-1347
isis	-1348
rowd	-1349
trib	-1350
wash	-1351
wide	-1352
every	-1353
center	-1354
▁	-1355
¦	-1356
e	-1357
t	-1358
a	-1359
i	-1360
o	-1361
n	-1362
s	-1363
r	-1364
h	-1365
d	-1366
c	-1367
l	-1368
u	-1369
m	-1370
p	-1371
f	-1372
g	-1373
v	-1374
y	-1375
w	-1376
b	-1377
.	-1378
𐋇	-1379
,	-1380
k	-1381
C	-1382
T	-1383
0	-1384
-	-1385
1	-1386
I	-1387
A	-1388
2	-1389
S	-1390
M	-1391
x	-1392
'	-1393
D	-1394
P	-1395
9	-1396
H	-1397
j	-1398
"	-1399
R	-1400
B	-1401
O	-1402
z	-1403
5	-1404
V	-1405
𐊣	-1406
𐊼	-1407
W	-1408
4	-1409
q	-1410
3	-1411
)	-1412
(	-1413
N	-1414
E	-1415
?	-1416
U	-1417
8	-1418
6	-1419
7	-1420
K	-1421
F	-1422
G	-1423
:	-1424
J	-1425
L	-1426
%	-1427
;	-1428
/	-1429
Y	-1430
Z	-1431
!	-1432
’	-1433
”	-1434
“	-1435
–	-1436
Q	-1437
X	-1438
[	-1439
]	-1440
&	-1441
$	-1442
#	-1443
—	-1444
‘	-1445
•	-1446
≥	-1447
+	-1448
°	-1449
*	-1450
ा	-1451
_	-1452
×	-1453
武	-1454
肺	-1455
~	-1456
á	-1457
í	-1458
α	-1459
β	-1460
स	-1461
े	-1462
्	-1463
=	-1464
ò	-1465
č	-1466
ş	-1467
γ	-1468
ं	-1469
क	-1470
ब	-1471
र	-1472
汉	-1473
漢	-1474
炎	-1475
Ü	-1476
£	-1477
é	-1478
ó	-1479
ई	-1480
ओ	-1481
च	-1482
त	-1483
द	-1484
प	-1485
ल	-1486
ळ	-1487
व	-1488
श	-1489
ो	-1490
′	-1491
火	-1492
眼	-1493
Å	-1494
ü	-1495
å	-1496
