<pad>	0
</s>	0
<unk>	0
,	-3.30212
▁	-3.52471
᙮	-3.71494
ᓂ	-4.26356
▁ᑕᔥ	-4.29291
▁ᑲᔦ	-4.30335
▁ᒦ	-4.44212
ᒡ	-4.46807
▁ᑳ	-4.5027
▁ᐁ	-4.6089
▁ᒋ	-4.62366
ᓐ	-4.74628
ᑭ	-4.85054
ᓯ	-4.86814
ᑲ	-4.87575
ᒥ	-4.88783
ᑯ	-4.91035
ᑕ	-4.94668
ᐙᒡ	-4.94946
:	-4.95771
▁ᑳᐐᓐ	-4.99083
ᐱ	-4.99586
▁ᐃᐃ	-5.01408
ᑎ	-5.02499
ᑳ	-5.07558
ᒃ	-5.08157
▁ᐁᑮ	-5.08894
ᐎ	-5.10365
▁ᑮ	-5.11082
▁ᐅ	-5.11259
ᓂᒡ	-5.19751
ᑕᔥ	-5.19936
ᒋ	-5.20389
▁ᐅᑮ	-5.20604
ᓈ	-5.21303
ᒫ	-5.21689
▁ᐃᑕᔥ	-5.22328
▁ᑳᑮ	-5.2395
ᔑ	-5.25123
ᐙ	-5.26415
▁ᓴ	-5.26827
ᓇ	-5.2725
ᐸ	-5.28511
ᐃ	-5.31645
▁ᐃᐃᒫ	-5.32145
ᔥ	-5.34437
▁ᑭᔐᒪᓂᑑ	-5.37136
▁ᐃᓂ	-5.37216
ᐊ	-5.39933
ᑖ	-5.44052
▁ᑳᐃᔑ	-5.47018
ᑫ	-5.48839
ᐌ	-5.49456
▁ᑲᑭᓇ	-5.5578
▁ᐊᐊ	-5.58496
▁ᐊᐲ	-5.60704
ᕽ	-5.60862
▁ᒋᓴᔅ	-5.62339
▁ᑭ	-5.64053
ᑌ	-5.67958
ᒪ	-5.69221
▁ᐃᑭ	-5.69915
▁ᐐᓐ	-5.70181
ᓰ	-5.74855
ᐗ	-5.74865
ᓀ	-5.75832
ᑑ	-5.76581
ᑮ	-5.7874
▁ᐁᔑ	-5.79149
▁ᑫ	-5.79598
ᐗᒃ	-5.79903
▁ᓂ	-5.80563
ᐋ	-5.83618
▁ᐊ	-5.86529
ᐅ	-5.8749
▁ᐋᓃᔥ	-5.87879
ᐎᓐ	-5.893
▁ᐅᐅ	-5.9118
▁ᐊᐎᔭ	-5.91243
ᒀ	-5.91554
▁ᑕ	-5.92001
?	-5.93286
ᔦᒃ	-5.95323
ᒻ	-6.041
▁ᐃᔑ	-6.05561
ᓄ	-6.07369
ᒡ᙮	-6.07414
▁ᑭᔐᒪᓂᑑᓐ	-6.08198
ᐲ	-6.09514
ᔅ	-6.11332
ᔭ	-6.13449
▁ᑭᑲ	-6.14233
ᑾ	-6.14736
▁ᐃ	-6.14878
!	-6.16265
ᐊᔮ	-6.16727
ᒦ	-6.16967
ᐞ	-6.16968
▁ᐐ	-6.18545
ᐹ	-6.19434
ᓭ	-6.19623
▁ᑫᑰᓐ	-6.20633
ᓱ	-6.21374
▁ᐋᓃᓐ	-6.21956
▁ᑮᔥ	-6.24171
ᐱᓐ	-6.25008
ᓅ	-6.28483
ᑐ	-6.31299
▁X	-6.31423
ᐯ	-6.31962
▁ᐃᑯ	-6.32102
ᑴ	-6.33561
▁ᓂᑮ	-6.37248
ᔮ	-6.37915
ᓵ	-6.38213
ᔮᓐ	-6.38916
▁ᒦᔥ	-6.40057
ᓃ	-6.40974
ᓴ	-6.43047
ᒋᑫ	-6.43404
▁ᐁᐐ	-6.43949
ᔕ	-6.45731
▁ᑖᐱᔥᑰ	-6.46734
ᐙᓐ	-6.47172
▁ᐅᑲ	-6.47448
▁ᑮᓇᐙ	-6.48116
ᓂᒡ᙮	-6.48566
ᒌ	-6.48826
▁ᓃᓐ	-6.49375
ᐐ	-6.50652
ᑣ	-6.52225
ᐗᓐ	-6.53432
ᔭᓐ	-6.53551
▁ᑭᒋ	-6.54012
▁ᐋᔕ	-6.56872
▁ᑳᑮᐃᔑ	-6.57002
▁ᐁᑕ	-6.57849
▁ᐯᔑᒃ	-6.59375
ᑰ	-6.5952
ᐎᓂᕽ	-6.60089
▁ᐅᒋ	-6.60415
▁ᐃᐌ	-6.61983
▁ᒦᓇᐙ	-6.63224
▁ᐌᑎ	-6.64189
ᐙᒡ᙮	-6.64328
▁ᐊᑮᕽ	-6.64666
ᑌᐺ	-6.68801
▁ᐃᓂᓂ	-6.69694
ᓐ᙮	-6.73673
▁ᑌᐺ	-6.73681
▁ᐱ	-6.74124
▁ᑭᑮ	-6.75264
▁ᑳᐅᒋ	-6.76922
ᐸᓐ	-6.7859
ᓇᓐ	-6.78637
ᓈᓐ	-6.79466
▁ᐃᒫ	-6.79916
▁ᑳᔑ	-6.83006
▁ᐃᐃᐌ	-6.8305
▁ᐃᓇ	-6.83159
▁ᑫᑯ	-6.8449
ᐱᒫᑎᓯ	-6.84883
ᒧ	-6.84951
▁ᐊᐌ	-6.87167
ᔥᑭ	-6.87172
ᔥᑲ	-6.88019
ᓯᒃ	-6.88515
ᔭᕽ	-6.9057
▁ᐅᔕ	-6.90696
▁ᑯ	-6.91806
ᐅᒋ	-6.92105
ᑭᒋ	-6.92984
▁ᐁᑳ	-6.93341
▁ᑮᐃᔑ	-6.9405
ᐐᒋ	-6.94699
ᐎᓇᓐ	-6.95809
▁ᐋ	-6.96317
▁ᒋᓴᓲᓐ	-6.96452
ᑕᒧ	-6.9657
▁ᐄᑐᒃ	-6.96688
▁ᓅᑯᒻ	-6.96688
ᐴ	-6.9692
▁ᐯᔑᑾᓐ	-6.97657
ᑭᓐ	-6.97767
ᐗᐞ	-6.97806
ᒃ᙮	-6.97955
▁ᓂᑲ	-6.98958
▁ᐊᔮ	-6.99054
▁ᑯᑕᒃ	-6.99293
▁ᑳᐐ	-6.99823
▁ᑭᑎ	-7.00885
▁ᔑᑾ	-7.01655
▁ᐋᐱᒋ	-7.0196
ᔖ	-7.02226
ᕒ	-7.03282
▁ᑳᑎᐯᒋᑫᒡ	-7.03668
ᒪᐎ	-7.04025
▁ᑮᓐ	-7.05028
▁ᑳᐃ	-7.05656
ᐙᐞ	-7.05875
ᐎᓂᓂ	-7.06817
▁ᐅᐌ	-7.06897
ᓀᒃ	-7.07276
ᒨ	-7.0728
▁ᐅᐅᐌ	-7.08478
ᑕᔑ	-7.10396
ᐃᔑ	-7.10851
ᔮᕽ	-7.11247
ᑕᕽ	-7.11273
ᑭᐸᓐ	-7.11691
ᑲᑴ	-7.11805
▁ᐊᐌᓀ	-7.12302
▁ᐁᐃᔑ	-7.12563
▁ᐅᐅᒫ	-7.12601
ᒥᓐᒡ	-7.13319
ᑕᐌ	-7.13668
▁ᐁᑮᐃᔑ	-7.14055
ᑳᓱ	-7.14235
▁ᐃᑭᑐ	-7.15004
▁ᒥᓯᐌ	-7.16101
ᐐᒌ	-7.16187
▁ᐱᑯ	-7.16238
ᓈᑯᓯ	-7.16392
ᐙᐱ	-7.16868
▁ᐐᑫ	-7.172
ᓰᓐ	-7.17538
ᒣ	-7.18053
▁ᐸ	-7.18055
ᑭᑭ	-7.18307
ᐗᕽ	-7.18598
▁ᒥ	-7.19479
ᒥᓐ	-7.19501
ᐎᓂ	-7.19656
▁ᑮᐃᑭᑐ	-7.20236
▁ᒫᐗᒡ	-7.20888
ᕽ᙮	-7.21007
ᐳ	-7.21916
ᐁ	-7.21959
ᑰᓐ	-7.22652
ᐃᐌ	-7.22714
▁ᐅᑎ	-7.22736
▁ᐆᑌᓈᕽ	-7.2346
ᓯᒀ	-7.23651
▁ᒋᐅᒋ	-7.23675
▁ᓃ	-7.24217
▁ᒋᐃᔑ	-7.24704
▁ᐊᐊᐌ	-7.25543
▁ᑳᑮᐅᒋ	-7.25811
ᔦᒃ᙮	-7.25941
▁ᑫᐅᒋ	-7.27637
▁ᐲ	-7.29477
▁ᐃᔑᒋᑫ	-7.29483
ᑫᓂ	-7.29726
ᑕᐎ	-7.29952
ᑲᓐ	-7.30974
▁ᑕᑲ	-7.3191
ᓇᕽ	-7.32196
▁ᓇᐗ	-7.32489
▁ᑾᔭᒃ	-7.32573
▁ᐌᒋ	-7.32605
▁ᑫᔮᐱ	-7.33966
ᓂᔑ	-7.34567
ᒣᒃ	-7.34847
ᑲᔥᑭᑑ	-7.3539
▁ᒪ	-7.36477
▁ᒣᒀ	-7.37103
▁ᒨᔕᒃ	-7.37274
▁ᐯ	-7.37772
ᓂᑯ	-7.38449
ᓂᒃ	-7.38614
ᔒ	-7.39818
▁ᓇ	-7.40157
▁ᑮᐃᑭᑐ᙮	-7.40226
ᔦ	-7.40306
▁ᑫᔑ	-7.40416
▁ᐗᐊ	-7.40601
▁ᐅᑮᐃᓈᐞ᙮	-7.41001
ᒫᒌ	-7.41081
▁ᐅᑭᑭᓄᐊᒪᐙᑲᓇᐞ	-7.42207
ᓯᐌᒃ	-7.42322
ᑕᒣᒃ	-7.42355
▁ᑮᐊᓂ	-7.42764
▁ᐯᒫᑎᓯᓂᒡ	-7.43224
▁ᐃᓇᔥᑫ	-7.43228
▁ᐊᐎᔭᒃ	-7.43234
ᐎᓐ᙮	-7.43654
ᑭᒫ	-7.43655
▁ᓃᐱᐗᐞ	-7.44252
▁ᐌᑯᓀᓐ	-7.4551
ᑕᒪᐙ	-7.46552
ᒧᐙᒡ	-7.46684
▁ᑭᔐᒪᓂᑑᓐ᙮	-7.47264
▁ᐊᐗᔑᒣ	-7.47397
ᐗᓂ	-7.47499
ᑫᒃ	-7.47939
ᐗᒃ᙮	-7.48453
▁ᐃᑴ	-7.49448
▁ᐅᑯᓯᓴᓐ	-7.4955
▁ᑳᐱ	-7.49578
▁ᑳᐅ	-7.49799
ᑎᓄᐎ	-7.4991
▁ᓈ	-7.5029
ᑕᒧᐙᒡ	-7.50761
▁ᒫ	-7.50935
▁ᐅᓄ	-7.50972
ᓅᑕ	-7.51018
ᑕᒥᓂᒡ	-7.51195
▁ᐅᑕ	-7.51532
ᐊᓄᑮ	-7.51574
ᒪᓐ	-7.51609
ᑕᓐ	-7.51645
ᒋᑳᑌ	-7.52331
▁ᐅᑮᐃᓈᓐ᙮	-7.52646
ᐸᒥ	-7.52686
ᒫᒡ	-7.52761
ᑭᓯ	-7.52874
ᓰᒻ	-7.53294
▁ᐋᓂᑕ	-7.53453
ᐤ	-7.53459
ᑕᒪ	-7.53475
▁ᒋᐊ	-7.5428
▁ᑲ	-7.54556
ᓉ	-7.54843
ᐋᒡ	-7.55201
ᒫᒋ	-7.5568
▁ᐊᐎᔭᐞ	-7.55897
ᐊᔮᒡ	-7.56399
ᓂᓂᒻ	-7.56441
▁ᒪᔮ	-7.56537
ᐸᐹ	-7.56599
ᑯᒡ	-7.56624
▁ᑭᒋᑮᔑᑯᕽ	-7.56888
ᒪᒋ	-7.57142
▁ᐯᒫᑎᓯᐙᒡ	-7.57475
ᔓ	-7.57786
ᓇᑰᒃ	-7.58004
ᑰᐞ	-7.5804
ᑕᑯ	-7.58286
ᒥᑯᒡ	-7.58409
ᑕᒫᓐ	-7.59541
▁ᑭᑖ	-7.59675
ᔔ	-7.59859
ᓇᐃ	-7.60085
▁ᐌ	-7.60158
ᓍ	-7.60443
ᓯᓅᓐ	-7.60536
ᐃᓀᑕ	-7.60857
▁ᐊᐎᔭᓐ	-7.61563
ᓵᑭᐃ	-7.61747
ᓯᓂᒃ	-7.62093
ᑲᓇᐌ	-7.62138
ᔮᓐ᙮	-7.62162
▁ᐅᑖ	-7.63588
▁ᐁᐱ	-7.64331
ᓈᐙᓐ	-7.64677
ᐊᓇᒥᐋ	-7.64812
ᒫᒃ	-7.65252
ᓈᒡ	-7.65391
▁ᐁᐊᓂ	-7.65524
▁ᑮᐅᒋ	-7.66083
ᑲᓇᓐ	-7.66356
ᓀᑕ	-7.66624
ᐃᑯ	-7.66721
ᐆ	-7.67374
ᔭᐄ	-7.67499
▁ᒋᑮ	-7.67578
ᒫᓐ	-7.67963
ᑯᕽ	-7.68047
▁ᒥᓂᒃ	-7.6821
▁ᑖ	-7.68817
ᐲᐃ	-7.69439
▁ᑆᓬ	-7.70007
▁ᒫᒑ	-7.70011
▁ᑳᐃᓈᒡ	-7.70123
ᓂᑖᐎᑭ	-7.70204
ᓈᐙ	-7.70428
ᓬᐃ	-7.70547
ᒥᒋ	-7.70757
ᐙᐸᒫ	-7.70965
▁ᐙ	-7.71264
▁ᑮᐊᔮ	-7.71848
ᒥᓄ	-7.72158
ᑰᔦᒃ	-7.72283
▁ᐲᓂ	-7.72327
ᒥᓂ	-7.72619
▁ᐸᑳ	-7.72644
▁ᐊᒦ	-7.72723
ᑮᐌ	-7.7335
▁ᐗ	-7.7383
ᒪᑲᒃ	-7.73892
ᑳᑌ	-7.7393
▁ᐅᑕᒑᑾᓐ	-7.741
▁ᒎᐗᒃ	-7.741
▁ᑫᑰᓂᓂ	-7.74101
▁ᐲᑕᕒ	-7.74106
▁ᑳᑎᐯᒋᑫᓂᒡ	-7.74112
ᑑᒡ	-7.74367
▁ᐅᑑ	-7.74511
ᓇᐌ	-7.74639
▁ᐃᓀᑖᑯᓯ	-7.74889
ᓰᐗᒃ	-7.75108
ᑖᓐ	-7.75445
▁ᑫᑰᓇᓐ	-7.75502
ᐌᒃ	-7.75516
ᐸᑕ	-7.75583
▁ᑭᒋᐅᑭᒫ	-7.75861
▁ᑎᓄ	-7.75913
▁ᐁᐊ	-7.76204
ᐯᔑᑯ	-7.76306
ᒥᓂᒡ	-7.76308
▁ᑫᐃᔑ	-7.76351
▁ᐅᑮᐃᔑ	-7.76525
ᒥᑰ	-7.76842
▁ᐃᓴ	-7.77078
▁ᐅᑯ	-7.77123
ᓬ	-7.77307
▁ᐃᓇᑫ	-7.77994
▁ᑭᑭ	-7.78553
ᓭᓂᒃ	-7.78706
ᓴᓐ	-7.78905
▁ᐃᔖ	-7.79305
▁ᐃᓂᓂᐗᓐ	-7.7943
ᓀᒀ	-7.80412
ᑦ	-7.80565
▁ᓂᑕᒻ	-7.80581
▁ᐅᑭᒋ	-7.80608
▁ᐋᑎ	-7.80716
ᐃᓇ	-7.80905
▁ᐁᐅ	-7.80966
ᑕᐙ	-7.8125
ᔐ	-7.81363
▁ᒦᐃ	-7.81793
▁ᒋᓴᓲᓐ᙮	-7.81861
▁ᐅᓇᔓᐌᐎᓐ	-7.82054
ᐌᓂᐗᒃ	-7.82057
▁ᐁᐃ	-7.82489
ᑎᐱ	-7.825
ᐊᑕ	-7.82963
ᓃᕽ	-7.83553
▁ᒉᕒᐆᓴᓬᐊᒥᕽ	-7.83579
▁ᒪᒋ	-7.83615
ᐃᑰ	-7.83621
ᓂᑎᓱ	-7.84043
ᑯᓈᓐ	-7.84103
▁ᑌ	-7.84529
▁ᒋᐅ	-7.8493
▁ᑫᐐ	-7.85348
ᒪᒃ	-7.85552
▁ᐋᓇ	-7.86077
ᓃᔑᓐ	-7.86503
▁ᑭᑕ	-7.86864
ᐌᐌᓂ	-7.86983
ᑲᓂᓂ	-7.8734
▁ᔐ	-7.87419
ᓭᒃ	-7.88146
▁ᓂᑖ	-7.88356
ᑮᔑᑲᒃ	-7.88591
ᑯᐸᓀᓐ	-7.8906
▁ᐙᐸ	-7.89105
ᐐᑕᒪᐎ	-7.89121
▁ᑳᐊ	-7.89677
ᐃᔖ	-7.90281
▁ᐁᔮ	-7.90437
ᓰᒥᓐ	-7.90463
ᓂᓂᒃ	-7.9065
ᑯᐙ	-7.9066
▁ᒞᓐ	-7.90711
▁ᓂᑎ	-7.91311
▁ᒎᐗᐞ	-7.91535
ᐙᒃ	-7.91676
▁ᑯᒫ	-7.91697
▁ᑭᑎᔑ	-7.92033
;	-7.92367
▁ᐹᓂᒫ	-7.92375
ᐞ᙮	-7.92909
ᑴᓐ	-7.93126
▁ᐃᐃᐌᓂ	-7.93569
ᑌᓂᒃ	-7.93693
▁ᑕᔑ	-7.93873
▁ᐊᓂ	-7.94038
▁ᒣ	-7.94087
ᒻ᙮	-7.94335
ᒥᓴᐌ	-7.94931
ᕒᐊ	-7.95077
▁ᑲᑴ	-7.95219
▁ᑳᑮᐱ	-7.95588
ᓯᐎᓐ	-7.95672
ᓇᒃ	-7.95677
ᒧᒃ	-7.96159
ᓯᕽ	-7.96313
ᐹᑏᓄ	-7.96345
ᓈᐱ	-7.96623
▁ᐁᑭ	-7.96739
▁ᑭᒋᐊᓇᒥᐁᐎᑭᒫ	-7.96908
▁ᑳᑕᔑ	-7.97
ᑲᓂᐎ	-7.97102
ᓂᑭᓐ	-7.97169
▁ᐅᑌᐺᑕᒨᒃ	-7.97611
ᑎᒃ	-7.98077
ᓈᓂᒃ	-7.98139
▁ᐐᓇᐙ	-7.98406
▁ᑳᑮᐃ	-7.98868
ᑏ	-7.99279
ᓂᓐᒡ	-7.99606
ᑫᓐ	-7.99736
ᐐᒌᐙ	-8.00161
ᑮᐌᐱᒫᑎᓯ	-8.00255
ᐎᓂᐙᓐ	-8.00373
▁ᒦᓴ	-8.00462
ᕒᐃ	-8.00948
▁ᑮᐌ	-8.01272
▁ᐹ	-8.01725
ᐲᑎᑫ	-8.01839
ᒪᒋᑑᑕ	-8.02158
ᒥᓉ	-8.02815
▁ᑫᑮᓇᐙ	-8.02928
▁ᐱᒫᑎᓯ	-8.03407
ᐃᑎᓱ	-8.03621
ᒋᑳᑌᒃ	-8.03856
ᔫ	-8.03859
▁ᒥᓍᒋᒧᐎᓐ	-8.03859
▁ᐱᒫᑎᓯᐎᓐ	-8.03859
ᓰ᙮	-8.04074
ᑭᑑ	-8.04124
ᑳᐸᐎ	-8.04305
ᑎᐯᓂᒥᑯ	-8.04358
ᑾᒃ	-8.04527
▁ᐅᑮᐃᓈᐞ	-8.05178
▁ᐅᑮᐃᓈᓐ	-8.05188
ᑕᓇᒥᐋ	-8.05752
ᒦᓈ	-8.06004
▁ᑭᐐ	-8.06033
ᐐᑎᑫ	-8.06141
ᐅᓇ	-8.06896
▁ᐃᓈ	-8.07004
▁ᐃᓂᓂᐗᒃ	-8.07043
▁ᐅᐐ	-8.07062
▁ᐅᑮᐃᑰᓐ᙮	-8.07084
ᓬᐊ	-8.07269
ᑸ	-8.07663
ᐊᔨ	-8.08107
ᔭᓐ᙮	-8.08443
▁ᐁᑮᐊᓂ	-8.08782
▁ᔖᑰ	-8.092
ᑲᑴᒋᒫ	-8.09376
ᐴᓂ	-8.09484
ᐅᑭᒫ	-8.09542
▁ᓃᓇᐎᓐᑦ	-8.09643
▁ᐁᑮᐃᓈᒡ	-8.09649
ᓯᓄᒃ	-8.09739
ᑭᑭᓄᐊᒪᐙ	-8.09941
▁ᐊᑭ	-8.10002
▁ᑮᐱ	-8.10048
▁ᒋᐱ	-8.10108
ᑖᑾᒃ	-8.103
ᐅᑎᓯ	-8.106
▁ᐯᐸᑳ	-8.10648
ᐗᓐ᙮	-8.10856
▁ᑕᑯ	-8.1117
ᓰᓈᐙ	-8.11886
ᑌᒃ	-8.12814
▁ᐋᓇᐐ	-8.12889
ᓈᐙᒡ	-8.13052
ᒥᓂᑴ	-8.13071
ᑳᕽ	-8.13193
ᑑᓐ	-8.13302
▁ᐆᑌᓇ	-8.13695
ᒪᔥᑲᐎᓰ	-8.14277
▁ᑲᓅ	-8.14599
▁ᐁᑕᓱ	-8.14699
▁ᑮᓇᐎᓐᑦ	-8.14734
▁ᓂᑌᑌ	-8.14748
▁ᓅ	-8.14775
ᑾᓐ	-8.14823
▁ᑳᐊᔮᐙᒡ	-8.14853
▁ᐅᑎᔑ	-8.1492
ᑖᒥᓐ	-8.14986
ᐴᓀ	-8.15071
ᑎᐯᓂᒥ	-8.15232
ᐎᓂᐙ	-8.15802
ᑮᑭᑐ	-8.15871
ᑎᐹᑯᓂ	-8.16846
ᓂᓯᑐᑕ	-8.16903
ᐃᑯᒡ	-8.16916
▁ᐊᓄᑮ	-8.1724
ᓇᐎ	-8.17414
ᑖᓈᐙ	-8.17525
ᐊᔮᔦᒃ	-8.17671
ᑲᒥᒃ	-8.18338
ᒦᓂᑰ	-8.19008
ᓃᑳᓂ	-8.19234
ᐎᓂᕽ᙮	-8.19249
ᐎᒡ	-8.19401
▁ᒋᑆ	-8.19627
ᑖᐱᓇ	-8.19825
▁ᑳᐃᔑᒋᑫ	-8.19903
▁ᐁᑮᐅᒋ	-8.20079
ᒥᓍᐸ	-8.20137
ᓂᕽ	-8.20507
ᓈᑾᒃ	-8.20579
▁ᑳᑭᒋ	-8.20996
▁ᓂᐐ	-8.21211
ᑲᓅᓈ	-8.21215
▁ᑕᐃᔑ	-8.22104
▁ᐅᑕᒑᑯᓂ	-8.22325
ᓇᑴ	-8.22422
ᒦᑭᐌ	-8.22841
ᓇᓈ	-8.23094
▁ᐅᓵ	-8.23133
ᐄ	-8.23198
ᑾᔭᑯ	-8.23471
ᒫᐞ	-8.23526
ᐎᓂᐙᕽ	-8.23571
ᑰᒃ	-8.23703
▁ᔔᓂᔮ	-8.23793
ᑕᒪᐙᒡ	-8.24077
ᐐᑕᒫᑫ	-8.25181
ᑲᒀᑕᑭᑑ	-8.25364
ᐸᑭᑎᓇ	-8.25698
▁ᒨᓯᔅ	-8.25764
ᓅᓂ	-8.26066
ᑑᐙᒡ	-8.26201
▁ᐁᐅᒋ	-8.26303
ᐅᑖᐱᓈ	-8.2641
▁ᑳᐅᒌ	-8.2649
ᓯᓂᓂ	-8.26742
▁ᐐᒋ	-8.26819
▁ᑮᑭᒋ	-8.27014
▁ᐁᑕᔑ	-8.27178
ᒫᒪᐎ	-8.27604
ᓱᒡ	-8.27848
ᒥᓄᐊᔮ	-8.27958
▁ᓇᑴᑕ	-8.28115
ᐱᒧᓭ	-8.28162
▁ᑫᑮ	-8.28174
ᐙᐸᓐ	-8.28313
ᑖᑯᒡ	-8.28987
ᑮᐅᑌᑌ	-8.29108
▁ᑌᐯᒋᑫᔭᓐ	-8.29325
▁ᑭᒋᐊᓇᒥᐁᐎᑲᒥᑯᕽ	-8.29325
ᑎᐯᒋᑫ	-8.29357
ᐲᐎ	-8.29534
ᐃᓇᑭ	-8.29718
▁ᐅᒌ	-8.30492
▁ᐯᔓ	-8.3068
ᐙᐙᒡ	-8.30681
ᑰᒻ	-8.31
ᑌᐺᔦᑕᒧ	-8.31789
ᑲᓂᕽ	-8.31857
ᔓᑕᒫᑫ	-8.32086
ᓯᓂᓂᒃ	-8.32466
▁ᐊᑮᕽ᙮	-8.32612
ᒪᑲᓐ	-8.32856
ᑎᐹᒋᒧ	-8.32994
ᑑᑕᕽ	-8.33133
ᐊᑕᐌᑕ	-8.33218
ᒋᑲᓂᐎ	-8.33237
ᒋᑳᑌᓂᒃ	-8.33244
ᓂᑖ	-8.33575
▁ᒥᓄ	-8.33599
ᑖᒻ	-8.33811
ᑮᔑᒃ	-8.33815
ᐱᒫᑎᓯᐙᒡ	-8.33857
ᒫᔑ	-8.33873
ᓂᓂᑭᓐ	-8.34252
▁ᐃᓂᐌᓂᐗᐞ	-8.34413
ᓵᑭᒋ	-8.34801
ᒪᒋᑑᑕᒧ	-8.351
ᓃᐎ	-8.35145
ᒐ	-8.35556
▁ᑳᐃᔥᒀ	-8.3556
▁ᐃᓈᑯᓂᑫᐎᓐ	-8.35571
▁ᐸᑭᑎᓈ	-8.35577
▁ᐱᓵᓂ	-8.3563
ᓂᓂ	-8.35649
▁ᐅᑌᐺᑕᒨᐞ	-8.35651
ᒪᕽ	-8.36141
ᓈᓯᑲ	-8.36556
▁ᒋᐐᒋ	-8.36579
▁ᐃᔥᒀ	-8.36588
ᒥᒃ	-8.36611
▁ᑫᐐᓇᐙ	-8.36857
▁ᑭᑑ	-8.37035
▁ᒫᒌ	-8.37151
ᓂᓇᑰᒃ	-8.37234
ᑭᑭᓄᐊᒫᑫ	-8.37409
ᓅᓐ	-8.37824
▁ᑮᐃᔖ	-8.37853
▁ᒋᐐ	-8.37881
ᑮᔑᑲᓂᓂᒃ	-8.37965
▁ᑳᓬᐊᓬᐄ	-8.38164
ᓯᐙᓐ	-8.38208
▁ᐁᑮᐱ	-8.38405
▁ᐅᒫ	-8.3895
ᑕᒨᒃ	-8.3902
ᓂᔕᐅ	-8.39259
ᐌᓅᑎᓯ	-8.39498
▁ᐁᑭᒋ	-8.39503
ᒥᓀᒃ	-8.39601
ᒫᐗᒋ	-8.39602
▁ᐲᑎᑫ	-8.39776
▁ᐊᔮᓂᒡ	-8.39949
ᒋᑫᐙᒡ	-8.40524
ᓈᕽ	-8.40662
▁ᐁᒐᓬ	-8.40827
▁ᐄᓴᓐ	-8.40841
ᒫᒥᑲᐎ	-8.40844
▁ᑫᓃᓐ	-8.40863
ᐊᓯᓃ	-8.40974
▁ᐅᔥᑭ	-8.41072
ᐱᒥᓂᔕᐅ	-8.41121
ᐗᓂᓂᒃ	-8.41593
ᓈᑾᓂᓂ	-8.41781
▁ᐅᑮᐃᑰᐞ᙮	-8.42205
▁ᐅᔑ	-8.42208
ᒪᑲᓂᓂᒃ	-8.42303
▁ᒥᒋ	-8.42334
ᐙᐸᑕᐃ	-8.42464
ᓭᑭᓯ	-8.42806
ᒪᔥᑲᐎ	-8.4282
ᒧᐎᓐ	-8.43318
ᐎᓂᓃᕽ	-8.43362
▁ᐸᑮ	-8.43483
ᓲ	-8.43589
ᒉ	-8.43589
▁ᐱᓵᓐ	-8.43598
ᒥᓈ	-8.43734
▁ᐁᑮᐅ	-8.43857
ᒋᑫᒡ	-8.44071
ᑲᓇᐞ	-8.4408
ᓃᐸ	-8.44131
ᓈᑯᓯᒡ	-8.4423
ᑉ	-8.44992
ᑭᑫᑖᓐ	-8.45035
ᑕᒪᕽ	-8.45036
▁3	-8.4511
ᓈᑾᓂᓂᒃ	-8.45431
ᑾᔭᒀᑎᓯ	-8.46416
▁ᑳᐃᑭᑐᒡ	-8.46416
▁2	-8.46623
ᔦᑭᐸᓐ	-8.46654
▁ᒋᐃᔑᒋᑫ	-8.46852
ᐱᓈ	-8.47045
▁ᑮᐊ	-8.47278
ᐲᔖ	-8.47343
ᑲᓅᑕᒪᐙ	-8.47696
ᔑᓐ	-8.4773
▁ᑭᒋᒪᓯᓇᐃᑲᓐ	-8.4791
▁ᐅᑖᓈᕽ	-8.47921
ᓵᒥ	-8.48123
ᓂᒥᓐᒡ	-8.48505
ᔭᔅ	-8.48707
▁ᐃᑴᐗᓐ	-8.48923
▁ᐅᑮᐅᒋ	-8.49057
▁ᑌᐺᐎᓐ	-8.49072
ᑭᑫᑕᒧ	-8.49199
ᐸᑭᑎᓈ	-8.49307
▁ᑭᑭᓄᐊᒪᐙᑲᓇᒃ	-8.49325
ᐐᑕᒪᐎᓇᑰᒃ	-8.49418
ᓅᒋᑯ	-8.49474
ᐅᒋᒋᓭ	-8.49494
ᓈᓂᕽ	-8.49649
ᐐᒌᐎᑯᒡ	-8.49959
▁ᐅᑭᑭᓄᐊᒫᑫ	-8.50014
ᐌᐱᓈ	-8.50047
ᐃᑯᐙ	-8.50207
▁ᔔᓂᔮᓐ	-8.50374
ᑕᑯᔑᕽ	-8.50483
ᑶ	-8.50812
▁ᓇᑫ	-8.50878
ᑎᐸᐊ	-8.50931
ᒨᒃ	-8.51396
ᒥᑯᐙ	-8.51804
0	-8.52322
▁ᐃᔥᑯᑌ	-8.52322
▁ᒞᓇᓐ	-8.52322
▁ᐃᔑᐲᐃᑳᑌ	-8.52323
ᐱᒫᒋᐃᑰᐎ	-8.52446
▁ᒦᒋᒻ	-8.52454
ᑲᓅᓈᒡ	-8.52583
ᓂᑳᑌ	-8.5323
ᑕᒫᑯᒡ	-8.53451
ᐱᒥᓂᔕ	-8.53588
▁ᑕᓱ	-8.53727
ᑎᐯᓂᒫ	-8.53868
▁ᑳᓂᑖ	-8.53874
ᑳᑌᒃ	-8.53889
ᔮᕽ᙮	-8.54077
▁ᑮᐃᑭᑐᐗᒃ᙮	-8.54202
▁ᑭᔐᒪᓂᑑ᙮	-8.54556
▁ᓂᑎᔑ	-8.54898
ᔭᔮ	-8.54939
▁ᑑᑕ	-8.55074
ᐸᓯᑸ	-8.55435
ᑲᒀᑕᑭᐃ	-8.55873
▁ᐃᓂᓂᐗᐞ	-8.56051
ᐲᒋ	-8.56788
ᓈᓯᑲᐙ	-8.56843
ᑖᑯᓯᒡ	-8.56863
▁ᑫᒋᓈᒡ	-8.56997
ᐋᐙᒡ	-8.57109
▁ᓇᐃ	-8.57736
▁ᓵᑭ	-8.58373
ᓇᒪᑕᐱ	-8.58601
ᓈᓂᐗᕽ	-8.58633
ᐯᑖ	-8.5864
ᓄᕽ	-8.58759
▁ᑫᑳ	-8.59264
▁ᐋᓃ	-8.59766
ᓂᑯᒡ	-8.59832
▁ᑳᑭᑭᓄᐊᒫᑫ	-8.60004
ᒨᔥᑭᓀ	-8.6012
▁ᒪᒋᐊᔭᐋ	-8.60231
▁ᒥᓴᐙ	-8.60243
ᔑᓈᒻ	-8.60362
▁ᑮᔑᑲᓂᓂᒃ	-8.60507
▁ᐁᔑᓈᑾᒃ	-8.60698
▁ᑳᐃᑯᒡ	-8.60716
ᐃᑣ	-8.61143
ᐅᑖᐱᓂ	-8.61314
ᑕᒫᕽ	-8.61407
▁ᑳᑮᐃᑭᑐ	-8.615
ᐃᓐᒡ	-8.61558
ᐸᑫ	-8.61791
ᒦᓈᒡ	-8.61867
ᐙᐸᒫᒡ	-8.61891
▁ᒪᒋᑑᑕᒧᐎᓐ	-8.61933
ᓅᑌᓭ	-8.62024
▁ᐁᐋ	-8.62397
ᑖᑯᓯᐙᒡ	-8.62533
▁ᐁᐲᒋ	-8.63035
ᔐᒪᓂᑑ	-8.63196
ᐗᒀ	-8.63242
ᑖᑾᓂᓂᒃ	-8.63519
▁ᐃᔥᐱᒥᕽ	-8.63578
▁ᓵᐃᒪᓐ	-8.63578
▁ᑳᐊᔮᓂᒡ	-8.64017
ᐅᔑᑑ	-8.64027
ᐐᑕᒫ	-8.6439
ᔖᑰᒋ	-8.64467
ᑭᑭᔥᑳ	-8.64674
ᒋᑲᓐ	-8.64727
▁ᐐᓯᓂ	-8.65103
▁ᐁᐸᕒᐊᐋᒻ	-8.65295
▁ᐋᓂᓐᑦ	-8.65295
▁ᒥᑖᔂᒃ	-8.65295
▁ᑫᐃᔑᒋᑫ	-8.65398
ᑲᐊᑖ	-8.65739
ᓅᑕᕽ	-8.65785
ᓂᐳᒡ	-8.65796
ᑖᑾᓐ	-8.65819
ᑆ	-8.66035
▁ᑮᔑᒃ	-8.66044
▁ᑳᑕᔑᔦᒃ	-8.666
ᐊᔮᓂᒃ	-8.67006
▁ᐅᓇᔓᐌᐎ	-8.67012
▁ᐃᓂᐌᓂᐗᓐ	-8.67042
ᓂᑳᑌᒃ	-8.67079
▁ᑳᐅᓂᔑᔑ	-8.67327
▁ᑭᑭᓄᐊᒫᑫ	-8.67476
▁ᒋᐃᔖ	-8.67484
▁ᑳᐊᓂ	-8.67736
▁ᒋᒥᓄ	-8.67765
ᔕᔒ	-8.6786
▁ᑫᑌ	-8.67998
ᓰᐞ	-8.68065
▁ᐅᑮᐃᑰᓐ	-8.6815
▁ᑳᓵᑭ	-8.68634
ᔂ	-8.6874
ᑎᐯᑕᕽ	-8.68754
▁ᐅᑕᓄᑮ	-8.68822
ᐃᓈᑎᓯ	-8.69008
▁ᐃᓀᑖ	-8.691
▁ᐃᔥᒀᒡ	-8.69197
▁ᐲᔖ	-8.6921
ᑰᔭᓐ	-8.69572
ᐃᓀᑖᑯᓯ	-8.7012
4	-8.7063
▁ᒣᐎᔕ	-8.70632
▁ᒫᐐᓐ	-8.70636
ᒦᓂᑰᐎᓯ	-8.70649
ᑲᑭᑐ	-8.70812
ᑎᐗᒃ	-8.71349
▁ᑳᑮᐃᔑᒋᑫ	-8.71408
ᑎᔦᒃ	-8.71966
ᑕᒫᑰ	-8.72151
▁ᑭᑑᒋ	-8.7218
▁ᑎᐱᓇᐌ	-8.72453
ᓵᑭᐋ	-8.72713
ᑮᒨᒋ	-8.72791
ᑎᐸᓐ	-8.73622
ᐋᑯᓯ	-8.73878
▁ᐱᓯᑕ	-8.73884
ᒪᔑ	-8.73912
ᒥᓈᓐ	-8.74212
▁ᐁᑮᐃᑭᑐᒡ	-8.74351
▁ᒪᒋᐊᒑᑾᐞ	-8.74351
ᑲᑮᑖᐌ	-8.74353
ᐗᔦᔑ	-8.74365
▁ᑳᒎᐎᐎᓯᒀ	-8.74395
ᐃᑯᐙᒡ	-8.74499
▁ᐅᑯᓯᓯ	-8.74533
▁ᐯᕒᐊᓰᒃ	-8.74925
ᐸᑭᑌ	-8.74926
▁ᐐᐸ	-8.75224
ᓅᑕᒧᐙᒡ	-8.75411
▁ᐐᒌᐎ	-8.75834
ᐊᐲᒋ	-8.76618
ᐃᓈᑯᓂᑫ	-8.7662
ᓈᑯᓂ	-8.7742
ᐐᒌᐙᒡ	-8.77728
ᐃᓀᓂᒥ	-8.77952
▁ᑕᐅᒋ	-8.78115
ᔩ	-8.78206
▁ᐹᐃᓬᐊᑦ	-8.78216
▁ᐋᐱᑎᕽ	-8.78216
▁ᑭᐐᑕᒪᐎᓂᓂᒻ	-8.78217
▁ᑭᑮᐃᔑ	-8.78862
▁ᐃᑴᐗᒃ	-8.79803
▁ᐸᑭᑎᓂ	-8.79971
▁ᐅᓄᐌᓂᐗᓐ	-8.80206
▁ᐋᔑᑌᔮᑎᑯᕽ	-8.80206
▁ᐱᔑᔑᒃ	-8.80206
▁ᒥᑖᔑ	-8.8022
ᒪᑗ	-8.80413
▁ᐃᔑᓂᔕᐅ	-8.80568
▁ᓃᒋ	-8.80982
▁ᐅᑮᐙᐸᒫ	-8.81823
▁ᐅᑑᓇᔓᐌ	-8.82237
▁ᐅᒫᒫᓐ	-8.82338
▁ᓃᔣᓱ	-8.82397
ᓂᐳᓂᒡ	-8.82497
ᐗᑭᒡ	-8.82702
▁ᐃᔑᓭᒃ	-8.82887
▁ᐌᑯᓀ	-8.83436
▁ᑳᐊᐲᒋ	-8.83519
ᑕᒫᓱ	-8.83544
ᒌᑫ	-8.84197
ᒬ	-8.84309
▁ᒫᑭᔖ	-8.84313
▁7	-8.84358
▁ᒣᕒᐃ	-8.84398
ᓇᑲᓈ	-8.84909
▁ᐁᑮᐃᑯᒡ	-8.85639
ᐊᐲ	-8.85917
ᓂᑳᑌᓂᒃ	-8.85988
ᓯᐗᓐ	-8.85996
ᐸᑯᓭᓂᒥ	-8.86431
▁ᑆᓬᐊᓐ	-8.86443
ᑖᑯᓯᓰ	-8.86535
▁ᐁᑮᐊᐎ	-8.86545
ᓇᒥᐁᐎᑲᒥ	-8.86897
▁ᒋᐱᒫᒋ	-8.87021
ᐙᐸᑕᒧᐙᒡ	-8.87088
▁ᓂᑮᐃᔑ	-8.87445
▁ᐅᑯᓯᓯᒫ	-8.87729
ᑮᓯᔅ	-8.87813
ᒋᑲᓂᐎᒡ	-8.88093
ᐃᕽ	-8.8813
▁ᐊᓇᒥᐁ	-8.88187
ᐃᔑᑮᔗ	-8.88588
ᓈᓂᐗᓂᓂᒃ	-8.88602
ᔮᐹᓐ	-8.88628
ᑲᑴᑗ	-8.88807
ᐱᒫᑎᓯᓂᒡ	-8.89909
ᒥᓄᒋᑫ	-8.90082
ᐃᓀᑕᕽ	-8.90766
▁ᐌᔫᓯᒥᓐᒡ	-8.90798
▁ᒪᒋᐊᒑᑾᓐ	-8.90798
▁ᔑᒫᑲᓂᔒᐎᑭᒫ	-8.90798
▁ᔑᒫᑲᓂᔕᒃ	-8.90798
ᓂᔥᑳᑎᓯ	-8.90798
▁ᑲᓇᑫ	-8.9081
▁ᓂᐳᐎᓐ	-8.90814
ᐸᑭᑎᓂᑫ	-8.91214
▁ᑭᑫᑕ	-8.91436
▁ᐙᓴ	-8.9149
ᒣᒀ	-8.91583
ᑑᑕᒧᐙᒡ	-8.92068
▁ᐯᕒᐊᓰ	-8.92378
▁ᐅᑎᑭᑐᐎᓐ	-8.93058
▁ᐱᒌᓇᒃ	-8.93059
▁ᐐᑾᑎ	-8.93085
ᐃᓇᓄᑮ	-8.93088
▁ᐊᓈᒥ	-8.93148
ᑲᔥᑭᑑᓰᓐ	-8.9345
ᒥᓄᓭ	-8.94349
ᐐᒋᑭᐌ	-8.9443
▁ᑮᐃᑭᑐᐗᒃ	-8.94591
ᒪᐤ	-8.95266
ᓂᔑᐗᓈᑎᓯ	-8.9537
ᐱᔑᒀᑎᓯ	-8.9537
ᒥᑯᔥᑳᑌᑕ	-8.9537
▁ᐅᑌᑌᓐ	-8.95371
ᐃᔑᐌᐸᒃ	-8.95393
▁ᓂᑑᒋ	-8.95415
ᑕᐙᐙᒡ	-8.95487
ᒪᑲᑭᓐ	-8.95683
▁ᐅᑕᔮ	-8.95857
▁ᑳᐐᐃᔑ	-8.96004
ᐎᓂᓈᓐ	-8.96195
ᑭᔐᐙᑎᓯ	-8.97733
▁ᑮᐃᔥᒀ	-8.97735
ᐅᓃᒑᓂᓯ	-8.97737
▁ᐸᑴᔑᑲᓇᓐ	-8.97737
▁ᐁᐃᑭᑐᒡ	-8.97737
ᑎᐸᐃᑫ	-8.97738
▁ᐗᐐᑫ	-8.9774
▁ᓂᐳᐎᓂᕽ	-8.97745
▁ᐅᑎᐯᒋᑫᐎᓐ	-8.9775
ᓇᓈᑯᒫ	-8.97771
▁ᐊᐸᓀ	-8.97774
ᓈᑯᓂᑫ	-8.97826
▁ᔂᓬ	-8.97843
ᒪᐎᓐᒡ	-8.981
ᑌᐺᑕᐙ	-8.98269
ᓈᓈᑲᑕᐌᑕ	-8.98451
ᓯᐙᐙᓐ	-8.99114
ᑰᔮᓐ	-8.99374
▁ᑭᑎᑳᓀᓴᓐ	-9.00162
▁ᐊᓄᑮᐋᑲᓐ	-9.00162
▁ᐁᕒᐊᑦ	-9.00163
▁ᑳᑎᐯᓂᒥᓇᕽ	-9.00164
▁ᐊᑮᓂ	-9.00262
ᔨ	-9.00298
ᑑᑕᐙ	-9.00325
ᓃᔣᒋ	-9.00672
ᐊᑖᐌ	-9.00936
ᔑᓄᐙᒡ	-9.0108
▁ᐸᑴᔑᑲᓐ	-9.02646
▁ᒎᑕᔅ	-9.02646
▁ᒎᓴᑉ	-9.02646
▁ᔔᒥᓈᐳ	-9.02646
▁ᐁᒐᓬᐊᒃ	-9.02654
▁ᐅᐱᒫᑎᓯᐎᓐ	-9.02674
▁ᐊᒋᓇ	-9.02713
ᓬᐄ	-9.02739
ᐱᐴᓐ	-9.02932
ᐐᓱᐎᓐ	-9.03195
ᐙᐸᑕᕽ	-9.03203
ᒫᒪᑳᒋ	-9.03462
ᐙᐸᑕᒣᒃ	-9.04197
▁ᓃᔣ	-9.04538
▁ᑳᑮᐅᓈᐸ	-9.05092
ᔣ	-9.05116
▁ᐅᐱᒫᑎᓰᒪᐞ	-9.05195
▁ᐲᑕᕒᐆᓐ	-9.05196
▁ᐅᓃᑳᓂᓰ	-9.05206
▁ᐊᐌᓀᓇ	-9.05307
ᐙᐸᑖᓐ	-9.05461
▁ᓂᑕᔮ	-9.063
▁ᐃᓀᑖᑯᓯᐎᓐ	-9.06582
▁ᐁᐃᔑᒋᑫ	-9.06792
ᒫᓇᒑᓂᔑ	-9.07808
▁ᔕᐌᑖᑯᓯ	-9.07808
ᒣᔥᑾᒡ	-9.0781
▁ᑭᓉᔥ	-9.07817
▁ᑳᒎᐎᐎᓯᓂᒃ	-9.07849
ᑎᐸᐊᒪᐙ	-9.07881
ᑭᔒᐌ	-9.07929
ᒪᒥᔑ	-9.08072
ᑯᓇᔦ	-9.08146
ᑭᑫᑕᒣᒃ	-9.08207
ᔕᔒᐱᑕ	-9.08428
ᒪᒋᒋᑫ	-9.08815
▁ᑲᑴᒋᒥ	-9.09347
▁ᐁᑭᑫᓂ	-9.09808
▁ᐃᔑᐌᐱᓯ	-9.09964
▁ᐃᔅᕒᐃᔭᓬ	-9.10487
1	-9.10493
▁ᒎᑏᔭ	-9.10493
▁ᑫᑮᐃᔑ	-9.10693
ᑮᐃᔑᓂᔕᐙ	-9.10862
▁ᐙᓭᔮ	-9.11409
ᑕᐙᐙᓐ	-9.11943
ᑕᑯᔑᓐ	-9.1246
ᐃᑭᑐᔮᓐ	-9.13091
ᒫᐗᒋᐃᑎᐙᒡ	-9.13174
ᐊᔓᑕᒫᑎ	-9.13252
▁ᑭᒋᑲᒦᕽ	-9.13252
▁ᐊᓇᒥᐁᐎᑭᒫ	-9.13255
▁ᐋᒋᑯ	-9.1329
ᑭᑫᑖᓈᐙ	-9.13338
▁ᐅᒪᒋᑑᑕᒧᐎᓂ	-9.13999
ᓈᓂᓐ	-9.15137
ᑭᑭᔥᑲᐙ	-9.15449
▁ᐊᐴᔥᑫ	-9.16089
▁ᐊᓇᒥᐁᐎᑲᒥᑯᕽ	-9.16089
▁ᑎᐯᑖᑯᓯ	-9.16091
▁ᐅᑭᔐᐙᑎᓯᐎᓐ	-9.16094
ᐙᓴᑯᓀ	-9.16144
▁ᐅᑯᐌᓂᐗᒃ	-9.16271
ᐸᑭᔑ	-9.16284
▁ᑳᑮᐅᔑ	-9.16303
▁ᐊᓯᓐ	-9.16413
▁ᐅᑎᔑᒋᑫᐎᓂ	-9.16553
ᓇᑲᑕ	-9.16629
ᑕᓶᐙᓇᑭᓯ	-9.19009
▁ᑌᐱᑦ	-9.1901
ᑌᐺᔦᓂᒫ	-9.19011
▁ᑭᑭᓇᐙ	-9.19021
▁ᑮᔑᑯᕽ	-9.19025
▁ᐁᒐᓬᐊᓐ	-9.19025
▁ᐊᔭᐋ	-9.19027
▁ᐙᑳᐃᑲᓂᕽ	-9.19037
▁ᑭᑭᑫᓂᒥ	-9.19043
▁ᐱᓇᒫ	-9.19047
ᔒᑫᓂᒥ	-9.19084
▁ᐅᓂᒌ	-9.19135
ᐱᐅᒌ	-9.19179
ᓯᐙᐙ	-9.19413
▁ᑫᑑᑕ	-9.1973
ᑌᓂᒫ	-9.20043
ᑖᑯᓰ	-9.20291
ᒦᓂᑯᐙ	-9.21388
▁ᓃᒋᐅᑌᐺᑕᒨᒃ	-9.22016
ᓶ	-9.22017
ᑕᑯᔑᓂᓂᒡ	-9.22019
ᑭᑎᒫᑭᓯ	-9.22023
ᑎᐱᓇᐌᐎᓯ	-9.22056
▁ᐁᑮᐃᔖᒡ	-9.22077
ᑲᑲᓅᓂ	-9.22094
ᒨᔥᑭᓀᔥᑳᑯ	-9.22231
ᑭᑫᑕᒨ	-9.23123
ᑭᒋᐅᑭᒫᐎ	-9.23898
ᓀᐱᒋ	-9.24131
ᓇᒪᐙ	-9.24419
ᒦᓂᑯᒡ	-9.24779
▁ᐅᑎᑭᑐᐎᓂᓂ	-9.25117
▁ᑭᓇᑕᐌᓂᒥ	-9.25117
▁ᑲᔥᑭᐁᐎᓯᐎᓐ	-9.25117
▁ᒫᓇᒑᓂᔐᔅ	-9.25117
▁ᐅᑕᓄᑮᐋᑲᓇᐞ	-9.25117
▁ᐊᑾᒌᕽ	-9.25117
▁ᐐᔭᐎᒫ	-9.25118
▁ᐃᔅᕒᐃᔭᓬᐊᒃ	-9.25121
ᑫᒀᓂᒃ	-9.25127
▁ᑲᓅᓈᐞ	-9.25143
ᐸᑭᑎᓂᑎᓱ	-9.25168
▁ᑳᑎᐯᑕ	-9.25312
ᑕᒫᑯᐙ	-9.25563
▁ᑮᐃᓈ	-9.2579
▁ᑮᐹᑏᓄᐗ	-9.26145
ᑯᓰᐙ	-9.26499
ᓂᔑᐗᓈᒋᐃ	-9.27072
ᑴᒋᒥ	-9.2708
ᑭᑫᑕᒫ	-9.27888
ᐱᒫᒋᐋ	-9.28146
▁ᒥᓉᑕ	-9.28178
▁ᑳᒎᐎᐎ	-9.28192
▁ᓂᓯᓐ	-9.28285
ᐙᑳᐃᑲᓂ	-9.28286
▁ᐃᔑᓂᔕᐙ	-9.28305
▁ᑫᑮᓇᐎᓐᑦ	-9.28318
▁ᐸᑴᔑᑲᓂ	-9.28318
▁ᐅᐙᑳᐃᑲᓂᓃᕽ	-9.28318
▁ᑭᑭᑫᑖᒻ	-9.28318
▁ᐃᓀᓂᒫ	-9.28319
ᒪᓂᑑᑳ	-9.28324
▁ᑭᑌᑌ	-9.28366
ᐅᒋᒋᓭᓂᒃ	-9.28602
ᑭᒨᑎ	-9.28634
ᐐᓯᓂᐙᒡ	-9.28644
ᐸᑭᒌ	-9.28685
ᐯᔑᑾ	-9.28987
ᓇᐁᑕ	-9.29322
▁ᐁᐐᒌᐎ	-9.29507
ᐊᓂᔖ	-9.29843
▁ᒌᑫᑕ	-9.2993
ᑮᔑᑲ	-9.29944
▁ᒫᒪᑳ	-9.30792
▁ᐁᑌᐺᑕ	-9.31117
,000	-9.31624
▁ᐊᐱᓅᒌᔕᓐ	-9.31624
▁ᑲᕒᐄ	-9.31624
▁ᔖᑯᐌ	-9.31625
ᑴᑳᑎᓯ	-9.31626
ᑫᒋᓈᐅ	-9.31627
▁ᐃᓀᑖᑾᒃ	-9.31688
ᔕᐌᓂᒫ	-9.3169
▁ᐅᓇᔓᐌᐎᓂᓂ	-9.31711
▁ᓂᑮᐃᒃ	-9.31829
ᓂᓯᒥᓐᒡ	-9.31922
ᑲᓇᐙᐸᒫ	-9.33239
ᐊᓇᒥᐁᑕᐙ	-9.34206
ᐊᐯᓂᒧ	-9.34932
▁ᐁᐸᕒᐊᐋᒪᓐ	-9.35043
▁ᐁᑮᐃᑭᑐᐙᒡ	-9.35043
▁ᐃᓬᐋᐃᒐ	-9.35043
▁ᒨᓯᓲᓐ	-9.35043
▁ᒫᒪᑳᒋᒋᑫᐎᓇᓐ	-9.35043
▁ᐅᔥᑭᓃᑭᑴ	-9.35043
▁ᐃᔑᓂᔕᐙᑲᓇᒃ	-9.35043
▁ᒣᑴᔭᐄ	-9.35043
ᐱᒫᑎᔅ	-9.35043
ᑎᐹᒋᒫ	-9.35046
▁ᐁᒐᓬᐊᐞ	-9.35048
ᓯᓅᓂᓂᒻ	-9.35051
ᑲᑮᑖᐎ	-9.35052
ᓯᓄᑭᓐ	-9.35064
ᑲᓇᐌᓂᒥ	-9.35092
ᓂᐳᐙᒡ	-9.35257
ᒪᑭᒡ	-9.35767
ᑮᒥᑲ	-9.36049
ᒧᐌᒃ	-9.36089
ᓂᓵᐙᒡ	-9.36238
ᐅᑯᓯᓯᒥ	-9.36342
ᐊᓇᒥᐁᐎ	-9.37549
ᑮᐗᓂᒧ	-9.38293
ᓲᑭᑌᐁ	-9.38583
▁ᐁᑎᐱᑲᓂᓂᒃ	-9.38583
▁ᐅᕒᐆᒥᕽ	-9.38583
▁ᐙᑳᐃᑲᓐ	-9.38583
ᓋ	-9.38583
▁ᐅᑎᓀᑕᒧᐎᓐ	-9.38583
▁ᐃᔅᕒᐃᔭᓬᐊᐞ	-9.38586
▁ᐃᑭᑑᒪᑲᓐ	-9.38586
▁ᑳᓵᑭᐃᓇᑰᒃ	-9.38587
ᑲᔥᑭᑕᒫᓱ	-9.38596
▁ᐃᔑᓂᔕᐙᑲᓇᐞ	-9.38607
▁ᒪᔥᑲᐎᓰᐎᓐ	-9.38621
ᐃᓀᓂᑎᓱ	-9.38667
ᐊᓉᐱ	-9.38871
ᓂᑲᒧ	-9.39077
ᐅᑭᒫᑲᑕ	-9.39499
ᔑᓈᑾᓂᓂᒃ	-9.39501
ᑲᑴᒋᒥᑯᒡ	-9.40315
▁ᐱᒫᒋᐃ	-9.40932
ᐐᒌᐎᑯᐙ	-9.40998
ᒫᐗᒋᐃᑎᓂᒡ	-9.42203
▁12	-9.42253
▁ᐅᑑᑭᒫᒪᓐ	-9.42253
▁ᓂᑯᓯᔅ	-9.42254
ᓈᑾᑭᓐ	-9.4227
ᐋᔩᒋ	-9.42273
ᓯᓅᓇᓐ	-9.42284
▁ᑎᐹᒋᒧᐎᓐ	-9.42317
▁ᐋᐱᑕ	-9.42347
ᑲᓇᐌᓂᒫ	-9.42394
▁ᒋᐃᑭᑐ	-9.42447
▁ᑭᑫᓂᒫ	-9.42521
▁ᓂᑯᒋ	-9.42548
ᒦᔑᒡ	-9.43412
ᐺ	-9.45571
ᑫᑌᔭᐋᒥ	-9.46063
▁ᐊᔮᒀᒥᓯᒃ	-9.46063
▁ᑫᓃᓇᐎᓐᑦ	-9.46063
ᐋᐸᒋᑑᒡ	-9.46063
▁ᒌᒫᓂᕽ	-9.46063
▁ᐅᑕᓄᑮᐋᑲᓇᓐ	-9.46063
▁ᓂᑭᑫᓂᒫ	-9.46063
ᒋᐱᒫᑎᓰ	-9.46063
▁ᑳᐃᓇᑌᓂᒃ	-9.46067
ᑭᒋᓂᑭᕽ	-9.46091
ᒦᓂᓇᕽ	-9.46274
▁ᓃᐸᐎ	-9.46327
ᓂᓯᓐᒡ	-9.46415
ᐊᔓᑕᒪᐙ	-9.46471
▁ᑲᒀᑕᑭ	-9.46743
▁ᑭᑭᓄᐊᒪ	-9.4882
▁ᑫᐃᑭᑐ	-9.48938
ᑭᑌᓂᒥ	-9.49136
ᐅᓂᔑᔑᓂᓂ	-9.49377
ᑖᑯᓯᔦᒃ	-9.49795
ᐱᒥᐊᔮ	-9.49866
ᒦᑴᒋᐌᓂᒫ	-9.50023
▁ᐁᑮᐃᑭᑐᓂᒡ	-9.50023
▁ᐄᒋᐸᑮᕽ	-9.50023
▁ᐌᔩᑉ	-9.50023
▁ᐱᓬᐊᑉ	-9.50024
▁ᐁᔑᓂᑳᓱᓂᒡ	-9.50025
ᐅᓇᔓᐙ	-9.50026
▁ᐌᓂᔑᔑ	-9.50026
▁ᐅᐙᑳᐃᑲᓂᕽ	-9.50033
▁ᐅᑌᐺᑕᒧᐎᓂ	-9.50048
▁ᑳᐹᑏᓄᓂᒡ	-9.50054
▁ᓭᑕᓐ	-9.50073
ᐅᓈᑯᔑ	-9.50078
ᐸᑭᑎᓇᒪᐙ	-9.50276
ᐃᔑᐲᐃᑫ	-9.507
ᐙᐸᓂᓂᒃ	-9.50768
▁ᐃᓀᑕᒧ	-9.51169
ᒥᓉᑕᒻ	-9.52506
ᒥᓄᑑᑕ	-9.5406
ᒪᑲᓂᓂᑭᓐ	-9.54125
ᑎᐸᐃᑲᓀᔮ	-9.54148
ᔛ	-9.54148
▁ᐹᕒᓇᐸᔅ	-9.54148
▁ᓇᐃᓂᑏᐎᑲᒥᑯᕽ	-9.54148
▁ᐋᐃᓭᔭ	-9.54148
ᐹᑏᓇᑎ	-9.54148
▁ᒫᓯᑑᓂ	-9.54148
▁ᓂᑯᑎᕽ	-9.54149
▁ᓰᑲᐊᑖᑫᐎᓂᓂ	-9.5415
▁ᒋᐱᒫᒋᐃᐌᓂᒡ	-9.5415
▁ᐃᔑᓈᑾᓐ	-9.54153
▁ᑎᒪᑎ	-9.54154
▁ᐅᒪᔥᑲᐎᓰᐎᓐ	-9.54162
▁ᐅᑎᐹᒋᒧᐎᓐ	-9.54164
▁ᑎᐹᑯᓂᑫᐎ	-9.54165
ᐗᔥᑴ	-9.54185
ᐊᑖᐙᑫ	-9.54187
ᐐᑕᒪᐙᐞ	-9.542
ᑭᐸᐅᑰ	-9.54202
ᑌᐺᔦᑖᑯᓯ	-9.54221
ᒥᓄᑑᑖ	-9.54826
▁ᐅᐱᒫᑎᓯᐎᓂ	-9.54939
ᐅᑌᑌᒫ	-9.55006
ᐱᓯᑕᐙ	-9.5639
ᑖᑾᓂᓂᑭᓐ	-9.56874
ᓈᑲᑕᐌᑕ	-9.57203
▁ᐆᑌᓈ	-9.57473
ᑖᑾᑭᓐ	-9.57506
ᒪᓯᓇᐃᑲᓐ	-9.58298
▁ᐅᐱᒫᑎᓰ	-9.58447
▁ᐅᑌᒐᓬᐃᒪ	-9.58449
▁ᑭᐴᔔᐃᑯᐙ	-9.58449
▁ᑭᑌᐃᐙᕽ	-9.58449
▁ᓵᑲᐃᑲᓃᕽ	-9.58449
ᐊᑯᓴᑲᐅ	-9.58449
▁ᑳᐃᑭᑐᐙᒡ	-9.58449
▁ᓃᒥᑕᓇ	-9.58449
▁ᐅᐐᔭᐤ	-9.5845
ᑲᒥᑲᓂᓂᒃ	-9.5845
▁ᒌᒥᔅ	-9.5845
ᓃᑳᓀᑖᑯᓯᓂᒡ	-9.58458
▁ᑭᑎᓂᓂᓂᒻ	-9.58459
ᑌᐱᓇᒧ	-9.58462
▁ᒧᔐ	-9.58468
ᒪᑲᓯᓅᓐ	-9.58468
ᐗᐙᓀᑕ	-9.58513
ᑰᐹᓯᓈ	-9.58527
ᑲᔥᑭᒋᑫ	-9.58547
ᐅᑖᐱᓇᕽ	-9.58574
ᐊᐯᓂᒧᓄᑕ	-9.58682
▁ᐯᐯᔑ	-9.58689
ᐅᓈᐸᒫ	-9.5869
ᐲᑎᑲᓂ	-9.58819
▁ᐁᓀᑖᑯᓯ	-9.59113
ᐃᔑᒋᑫᔮᓐ	-9.59439
▁ᐁᑭᑭᔥᑲ	-9.59946
ᔥᑳᑯᐙᒡ	-9.59966
ᐅᒌᒪᑲᒃ	-9.62873
▁ᐊᐱᓅᒌᔕᐞ	-9.62944
▁ᐱᑾᑕᑲᒥᒃ	-9.62944
ᒶ	-9.62944
▁ᐅᑯᓯᓴᐞ	-9.62944
▁ᑭᒋᐊᓇᒥᐁᐎᑲᒥᒃ	-9.62944
ᑕᑶᔑᕽ	-9.62944
ᒪᔥᑲᐌᑖᑯᓯ	-9.62944
▁ᐅᑎᐯᒋᑫᐎᓂᓂ	-9.62946
ᓰᑲᐊᑖᑫ	-9.62947
▁ᔔᓂᔮᓴᐞ	-9.62947
ᓈᑲᒋᑑ	-9.62951
ᑎᐹᑯᓈ	-9.62955
▁ᑮᐃᓀᑕᒻ	-9.62958
ᐅᑭᔐᒪᓂᑑᒥ	-9.62959
ᐊᓇᒥᑑ	-9.62965
ᑮᐊᓅᑮ	-9.62994
▁ᐃᓀᑖᑾᓂᓂ	-9.63253
ᑭᑫᑕᓰᓐ	-9.6366
ᐅᓀᓂᒥ	-9.64571
ᐌᓂᐗᐞ	-9.66601
▁ᑮᒋᑭᐌ	-9.67507
▁ᐱᑾᒋᐊᔭᐋᐎᔕᓐ	-9.67651
▁ᑳᐐᒋᐅᑌᐺᑕᒨᒥᑰᔦᒃ	-9.67651
▁ᔑᒫᑲᓂᔕᐞ	-9.67651
▁ᑭᒋᐊᐱᐎᓂᕽ	-9.67651
▁ᓵᑭᐃᐌᐎᓐ	-9.67653
ᑲᒀᑕᑫ	-9.6766
ᒪᑲᓅᓐ	-9.67662
ᑰᐹᑌᓂ	-9.67664
ᑫᐎᑭᒫ	-9.67682
ᑎᐸᐊᒫᑰ	-9.67687
ᐊᑕᐙᐸᒥ	-9.67691
ᒪᒫᔒ	-9.67706
ᐃᑰᐎᓯ	-9.68046
ᓈᑲᒋᐃ	-9.69021
ᑭᒋᐊᓇᒥᐁᐎᑭᒫᐎ	-9.71
▁ᑕᑯᔑᓅ	-9.71214
5	-9.7259
ᐅᔑᐲᐊᒪᐎᓇᑰᒃ	-9.7259
▁ᐅᓃᒑᓂᓴᐞ	-9.7259
▁ᐊᐱᓅᒌᔕᒃ	-9.7259
▁ᓃᑳᓇᔭᐄ	-9.7259
▁ᑭᑌᐺᑕᒧᐎᓂᐙ	-9.7259
▁ᑳᐃᑭᑐᓂᒡ	-9.7259
▁ᐱᒫᑎᓰ	-9.7259
▁ᑳᓃᑳᓂᓯᐙᒡ	-9.7259
ᐅᒋᒌᑾᓃ	-9.7259
▁ᐅᐐᓱᐎᓂᓂ	-9.72591
▁ᐆᑌᓇᐌᓯᕽ	-9.72591
▁ᐅᑎᓈᑯᓂᑫᐎᓐ	-9.72592
▁ᑭᑭᑫᓂᒫ	-9.72595
▁ᐅᓵᐙᐱᑯ	-9.72597
ᑌᐺᑕᒧᐎᓐ	-9.73111
ᑕᒫᑫᒡ	-9.75448
ᐅᔑᒋᑳᑌᒃ	-9.76224
▁ᐊᐱᓅᒌᔥ	-9.77785
▁ᐹᐃᓬᐊᑑᓐ	-9.77785
▁ᑳᐅᔫᓯᒥᓐᒡ	-9.77785
▁ᒉᑲᑉ	-9.77785
▁ᓈᓴᕒᐃᑎᕽ	-9.77785
▁ᒌᒥᓴᓐ	-9.77786
▁ᐁᑎᔮᒃ	-9.77787
▁ᑳᐃᔑᓂᑳᓱᒡ	-9.77788
ᒫᐗᑑᓈ	-9.77788
ᐃᔥᐯᑖᑯᓯ	-9.77791
ᔒᑫᓂᒫ	-9.77809
ᐲᑎᑲᓈ	-9.77809
ᓂᓯᑕᐎᓇ	-9.77829
ᐐᓴᑫᑕ	-9.77909
ᓃᑳᓀᑖᑯ	-9.77977
▁ᐁᐐᐃᔑᒋᑫ	-9.78259
ᑭᑌᑖᑯ	-9.78783
▁ᓂᔑᐗᓈᒋ	-9.79863
▁ᐁᑲᓇᐙᐸ	-9.81669
▁ᑭᑭᓄᐃᑫ	-9.82298
ᑲᒀᑕᑭᐋ	-9.82568
–	-9.83266
▁ᐅᑎᐹᒋᒧᐎᓂᓃᒪᐞ	-9.83266
▁ᐅᑎᐹᒋᒧᐎᓂᓃᒪᓐ	-9.83266
▁ᑭᐸᐅᑏᐎᑲᒥᑯᕽ	-9.83266
▁ᑲᐸᕒᓂᔭ	-9.83266
▁ᒎᑏᔮ	-9.83266
▁ᓂᐴᔔᐋ	-9.83266
▁ᓭᓴᕒᐄᔭ	-9.83266
ᑲᑮᓇᐎᔥᑭ	-9.83266
▁ᐅᓈᐯᒪᓐ	-9.83266
▁ᐅᔑᐲᐃᑲᓐ	-9.83266
▁ᐁᐃᑭᑐᐙᒡ	-9.83266
▁ᑳᓃᑳᓂᓯᓂᒡ	-9.83266
▁ᐁᔑᐲᐃᑳᑌᒃ	-9.83266
▁ᑳᐃᔑᐲᐃᑳᑌᒃ	-9.83267
▁ᐅᓈᐯᒥ	-9.83267
▁ᐁᔑᓂᑳᓱᒡ	-9.83268
▁ᒥᑕᑲᒥᒃ	-9.83269
ᐲᒋᓂᔕᐙ	-9.83271
ᐋᐸᑎᓯ	-9.83271
ᒥᑕᑎᒻ	-9.83277
ᐊᓇᒥᐁᑕᒪᐎ	-9.83302
ᐱᒥᐎᑑ	-9.83316
ᐋᐸᑕᓂᓂ	-9.84046
ᐸᑭᑎᓂᑰ	-9.88678
ᐅᒌᒪᑲᓂᓂ	-9.8888
▁ᐅᑮᓇᑴᑕᐙᓐ	-9.89064
▁ᐅᒑᓂᒥᓯᒻ	-9.89064
▁ᐌᔫᓯᒥᒥᓐᒡ	-9.89064
▁ᐱᑾᒋᐊᔭᐋᐎᔥ	-9.89064
▁ᑎᐸᐃᑲᓐ	-9.89064
▁ᒉᕒᐆᓴᓬᐊᒻ	-9.89064
▁ᒣᕒᐄᓐ	-9.89064
▁ᒪᓯᓇᐃᑲᓂᕽ	-9.89064
▁ᓂᑎᑭᑐᐎᓇᓐ	-9.89064
ᐅᔑᐲᐃᑳᑌᓂ	-9.89065
ᐱᒥᔑᓂᓂᒡ	-9.89065
▁ᑭᐐᔭᐎᐙ	-9.89065
▁ᑮᐱᑕᑯᔑ	-9.89066
ᑲᓅᒋᑫᑕᒪᐙ	-9.89067
▁ᒪᔥᑯᓰ	-9.89073
ᐅᑖᐱᓇᒪᐙ	-9.89092
ᓂᓯᑐᑖ	-9.91894
8	-9.9522
ᑗ	-10.0733
ᔀ	-10.088
ᔾ	-10.088
6	-10.4317
9	-10.6612
2	-11.1206
3	-11.6663
ᒞ	-11.6958
)	-11.6961
.	-12.1461
x	-12.1461
7	-12.95
(	-12.9785
ᔡ	-12.9786
ᒍ	-12.9787
ᐾ	-12.9788
ᒸ	-12.9789
ᔪ	-12.979
ᔗ	-12.9791
X	-12.9792
ᒎ	-12.9793
ᒒ	-12.9794
~	-12.9794
"	-12.9794
/	-12.9794
Z	-12.9794
[	-12.9794
]	-12.9794
a	-12.9794
u	-12.9794
ᐧ	-12.9794
ᐼ	-12.9794
ᑡ	-12.9794
ᒑ	-12.9794
