<pad>	0
</s>	0
<unk>	0
▁t	-0
he	-1
▁a	-2
in	-3
▁the	-4
▁o	-5
re	-6
er	-7
▁s	-8
nd	-9
▁w	-10
at	-11
on	-12
is	-13
en	-14
▁of	-15
it	-16
▁c	-17
▁b	-18
or	-19
es	-20
▁f	-21
ed	-22
ou	-23
▁p	-24
an	-25
al	-26
ar	-27
▁in	-28
▁and	-29
ing	-30
▁to	-31
▁m	-32
▁d	-33
ion	-34
▁h	-35
as	-36
ic	-37
le	-38
om	-39
▁th	-40
ent	-41
ll	-42
▁n	-43
▁A	-44
▁T	-45
▁be	-46
ve	-47
▁e	-48
▁I	-49
ct	-50
▁re	-51
▁is	-52
▁S	-53
ro	-54
▁l	-55
st	-56
▁y	-57
ot	-58
▁g	-59
ut	-60
id	-61
se	-62
▁for	-63
ation	-64
ur	-65
im	-66
▁wh	-67
ce	-68
ay	-69
ly	-70
ad	-71
▁you	-72
ver	-73
▁u	-74
ow	-75
▁The	-76
am	-77
▁on	-78
▁C	-79
▁P	-80
▁M	-81
et	-82
▁H	-83
ir	-84
il	-85
▁-	-86
ig	-87
▁that	-88
ch	-89
▁he	-90
ment	-91
▁B	-92
ith	-93
ol	-94
▁it	-95
▁as	-96
▁(	-97
ra	-98
ill	-99
▁an	-100
▁or	-101
od	-102
▁not	-103
if	-104
▁W	-105
▁st	-106
ess	-107
ul	-108
▁with	-109
ter	-110
▁are	-111
ri	-112
ge	-113
▁de	-114
▁ha	-115
her	-116
▁pro	-117
▁G	-118
▁D	-119
▁con	-120
ate	-121
▁su	-122
▁we	-123
ld	-124
▁R	-125
▁se	-126
rom	-127
ab	-128
res	-129
op	-130
ers	-131
▁'	-132
th	-133
ak	-134
nt	-135
▁L	-136
▁com	-137
▁by	-138
ist	-139
▁sh	-140
▁1	-141
pe	-142
ain	-143
ht	-144
▁N	-145
▁was	-146
▁have	-147
▁they	-148
▁from	-149
▁ex	-150
iv	-151
▁them	-152
▁will	-153
est	-154
all	-155
ity	-156
us	-157
em	-158
and	-159
▁O	-160
▁who	-161
ah	-162
▁v	-163
▁E	-164
▁F	-165
▁this	-166
ore	-167
ich	-168
ive	-169
ie	-170
ant	-171
ac	-172
um	-173
▁k	-174
▁Ind	-175
qu	-176
▁has	-177
ction	-178
▁r	-179
pp	-180
▁He	-181
ies	-182
▁at	-183
art	-184
ure	-185
os	-186
▁which	-187
un	-188
ia	-189
ould	-190
ort	-191
▁All	-192
▁their	-193
el	-194
ard	-195
oc	-196
▁ne	-197
ight	-198
red	-199
our	-200
▁his	-201
ord	-202
▁al	-203
ind	-204
pt	-205
ous	-206
▁all	-207
ose	-208
▁le	-209
ust	-210
▁ch	-211
te	-212
ther	-213
▁2	-214
▁do	-215
▁In	-216
▁whe	-217
▁K	-218
ong	-219
ud	-220
ag	-221
age	-222
ial	-223
ome	-224
▁Allah	-225
▁Th	-226
▁tr	-227
▁And	-228
▁We	-229
▁wor	-230
cc	-231
ated	-232
▁U	-233
ance	-234
ount	-235
▁your	-236
▁me	-237
▁sa	-238
▁pl	-239
▁go	-240
ip	-241
ect	-242
▁dis	-243
ans	-244
▁ab	-245
rou	-246
av	-247
ast	-248
ear	-249
▁us	-250
▁India	-251
ide	-252
ost	-253
ry	-254
able	-255
▁can	-256
▁any	-257
ff	-258
▁im	-259
▁there	-260
ame	-261
ok	-262
▁pe	-263
▁but	-264
▁un	-265
nder	-266
now	-267
▁comp	-268
▁ad	-269
▁en	-270
▁man	-271
▁up	-272
ish	-273
▁one	-274
ary	-275
▁him	-276
ap	-277
og	-278
▁j	-279
▁so	-280
ult	-281
▁been	-282
ice	-283
▁"	-284
▁other	-285
▁per	-286
▁J	-287
so	-288
▁V	-289
out	-290
ople	-291
one	-292
▁were	-293
▁res	-294
ical	-295
ru	-296
per	-297
ik	-298
ence	-299
au	-300
ions	-301
gh	-302
▁had	-303
▁It	-304
▁cont	-305
ib	-306
ire	-307
pl	-308
▁those	-309
ress	-310
iz	-311
vel	-312
▁am	-313
▁when	-314
are	-315
▁said	-316
ake	-317
▁ag	-318
ime	-319
ine	-320
ail	-321
▁people	-322
▁know	-323
ations	-324
ign	-325
very	-326
▁shall	-327
ue	-328
orm	-329
ase	-330
▁Y	-331
▁inc	-332
▁under	-333
▁out	-334
ile	-335
ade	-336
▁ind	-337
▁part	-338
ang	-339
vers	-340
ath	-341
ings	-342
▁cl	-343
▁no	-344
ub	-345
ens	-346
▁/	-347
▁int	-348
rit	-349
▁its	-350
▁what	-351
▁bel	-352
ace	-353
▁ar	-354
▁God	-355
ach	-356
▁also	-357
ep	-358
▁if	-359
▁co	-360
▁our	-361
ian	-362
ass	-363
▁Ch	-364
act	-365
▁ev	-366
▁19	-367
ber	-368
▁St	-369
▁comm	-370
ious	-371
▁may	-372
ren	-373
▁te	-374
lic	-375
reat	-376
▁Lord	-377
ise	-378
00	-379
▁app	-380
du	-381
ual	-382
vern	-383
▁acc	-384
▁imp	-385
▁sc	-386
fore	-387
ook	-388
ree	-389
erv	-390
fter	-391
▁This	-392
ition	-393
ory	-394
ident	-395
ack	-396
fe	-397
▁year	-398
▁sp	-399
old	-400
urn	-401
▁would	-402
▁sub	-403
▁spe	-404
▁Sh	-405
ike	-406
▁only	-407
▁bec	-408
▁“	-409
▁such	-410
ove	-411
▁rel	-412
hed	-413
ject	-414
form	-415
▁_	-416
▁tw	-417
▁time	-418
▁pre	-419
ause	-420
sel	-421
▁prov	-422
▁work	-423
ater	-424
ted	-425
▁then	-426
▁rec	-427
▁over	-428
ational	-429
▁po	-430
rib	-431
ric	-432
▁Go	-433
▁ear	-434
ities	-435
▁fo	-436
▁made	-437
▁belie	-438
▁day	-439
ild	-440
▁qu	-441
▁As	-442
we	-443
ward	-444
lect	-445
ound	-446
ied	-447
▁should	-448
▁more	-449
▁about	-450
▁like	-451
▁than	-452
vernment	-453
▁my	-454
wn	-455
▁some	-456
ces	-457
▁into	-458
ution	-459
ife	-460
▁Pro	-461
▁new	-462
▁say	-463
▁ass	-464
tern	-465
▁em	-466
▁bet	-467
ert	-468
uth	-469
ite	-470
ful	-471
▁count	-472
ark	-473
▁fe	-474
▁off	-475
▁But	-476
▁rem	-477
▁Wh	-478
▁cons	-479
aj	-480
way	-481
▁They	-482
▁pr	-483
▁Com	-484
velop	-485
ness	-486
iss	-487
▁3	-488
ons	-489
sh	-490
▁Se	-491
stit	-492
own	-493
cept	-494
▁two	-495
ific	-496
gr	-497
▁”	-498
▁reg	-499
oy	-500
ank	-501
hen	-502
▁[	-503
▁good	-504
ments	-505
▁these	-506
ved	-507
me	-508
▁after	-509
▁form	-510
▁ro	-511
▁act	-512
ily	-513
▁So	-514
▁Un	-515
led	-516
▁des	-517
ates	-518
▁before	-519
▁Re	-520
ient	-521
▁pers	-522
▁ent	-523
ond	-524
▁ob	-525
ph	-526
ne	-527
ave	-528
cess	-529
01	-530
▁again	-531
llow	-532
▁De	-533
ts	-534
▁His	-535
ors	-536
▁bl	-537
▁dec	-538
eng	-539
▁right	-540
cy	-541
▁see	-542
ght	-543
▁rep	-544
▁gu	-545
▁fir	-546
ower	-547
ink	-548
row	-549
▁trans	-550
▁ac	-551
▁pres	-552
▁her	-553
▁life	-554
▁sy	-555
rough	-556
cial	-557
erm	-558
ced	-559
aw	-560
▁An	-561
eth	-562
▁call	-563
▁giv	-564
▁Indian	-565
▁world	-566
ob	-567
▁ra	-568
ism	-569
▁Pr	-570
arm	-571
pect	-572
▁fl	-573
▁where	-574
▁Con	-575
resident	-576
▁being	-577
▁set	-578
rent	-579
▁through	-580
ener	-581
▁way	-582
▁develop	-583
),	-584
other	-585
ange	-586
▁You	-587
▁inv	-588
▁cre	-589
▁every	-590
ning	-591
▁great	-592
▁dif	-593
ally	-594
ves	-595
eed	-596
▁There	-597
ating	-598
ever	-599
uring	-600
li	-601
uc	-602
igh	-603
▁If	-604
int	-605
ft	-606
ull	-607
▁Bh	-608
oth	-609
ative	-610
les	-611
nds	-612
▁serv	-613
xt	-614
▁down	-615
▁thou	-616
ween	-617
▁make	-618
ided	-619
▁country	-620
▁att	-621
olog	-622
▁sec	-623
its	-624
).	-625
▁br	-626
▁add	-627
▁pol	-628
ax	-629
▁Is	-630
▁Government	-631
▁President	-632
▁produ	-633
▁cent	-634
ages	-635
▁follow	-636
▁between	-637
ular	-638
▁used	-639
ible	-640
▁exp	-641
▁&	-642
ublic	-643
▁pos	-644
ood	-645
▁ke	-646
ple	-647
ural	-648
ised	-649
▁En	-650
▁well	-651
▁could	-652
pen	-653
▁Min	-654
stem	-655
▁did	-656
▁first	-657
ble	-658
gan	-659
▁Him	-660
▁come	-661
▁inte	-662
▁person	-663
oci	-664
▁Act	-665
als	-666
▁years	-667
ty	-668
▁eff	-669
▁most	-670
▁For	-671
▁ret	-672
▁upon	-673
lp	-674
▁many	-675
▁5	-676
any	-677
pport	-678
▁sign	-679
ving	-680
▁Ex	-681
hi	-682
▁col	-683
ents	-684
▁unt	-685
ility	-686
ature	-687
▁back	-688
▁very	-689
▁even	-690
lud	-691
▁earth	-692
ited	-693
rie	-694
▁dist	-695
▁how	-696
▁Comm	-697
con	-698
▁4	-699
▁ord	-700
▁num	-701
fer	-702
▁among	-703
ven	-704
▁mess	-705
▁pur	-706
ister	-707
▁ed	-708
▁get	-709
ting	-710
▁200	-711
▁own	-712
▁against	-713
ale	-714
self	-715
▁tra	-716
elie	-717
air	-718
iew	-719
▁need	-720
amm	-721
uch	-722
aking	-723
ck	-724
..	-725
ather	-726
▁help	-727
ha	-728
hes	-729
irect	-730
ission	-731
▁inst	-732
ati	-733
▁sent	-734
get	-735
▁take	-736
ute	-737
ision	-738
ures	-739
ased	-740
▁val	-741
chn	-742
▁writ	-743
und	-744
▁does	-745
▁mem	-746
▁char	-747
ract	-748
▁Ad	-749
▁mod	-750
formation	-751
▁disc	-752
▁believe	-753
▁she	-754
▁use	-755
▁Ne	-756
▁given	-757
▁ap	-758
ick	-759
not	-760
▁gr	-761
ants	-762
▁turn	-763
▁system	-764
rong	-765
read	-766
▁just	-767
▁State	-768
▁child	-769
▁bu	-770
ished	-771
ices	-772
▁because	-773
▁end	-774
▁must	-775
▁requ	-776
▁ins	-777
▁import	-778
▁On	-779
▁mat	-780
▁mon	-781
▁cert	-782
▁Sc	-783
▁To	-784
▁ph	-785
ives	-786
ock	-787
belie	-788
▁ye	-789
round	-790
up	-791
▁pass	-792
▁place	-793
▁diffe	-794
▁hum	-795
ash	-796
ital	-797
ctions	-798
of	-799
ides	-800
iness	-801
▁lit	-802
▁account	-803
ari	-804
ror	-805
alth	-806
▁long	-807
▁car	-808
▁When	-809
pr	-810
▁Am	-811
▁equ	-812
rest	-813
ouse	-814
arch	-815
pos	-816
ivers	-817
▁wom	-818
▁give	-819
▁power	-820
ten	-821
▁>	-822
▁sm	-823
ries	-824
tle	-825
▁cap	-826
▁Al	-827
▁av	-828
▁cle	-829
ene	-830
...	-831
ral	-832
▁Day	-833
ix	-834
▁gener	-835
ified	-836
▁min	-837
▁includ	-838
▁sure	-839
pend	-840
▁prom	-841
arn	-842
▁inter	-843
ata	-844
▁water	-845
ES	-846
▁name	-847
uthor	-848
▁cond	-849
▁201	-850
selves	-851
▁<	-852
▁No	-853
▁nor	-854
▁now	-855
▁away	-856
▁gl	-857
▁let	-858
▁Hind	-859
▁found	-860
ork	-861
ars	-862
ined	-863
ug	-864
oun	-865
ee	-866
▁lar	-867
ared	-868
ety	-869
ern	-870
▁want	-871
▁number	-872
roup	-873
ship	-874
conom	-875
▁state	-876
▁men	-877
▁lo	-878
."	-879
ists	-880
▁lead	-881
▁heav	-882
▁Our	-883
▁fin	-884
day	-885
tc	-886
▁conc	-887
▁during	-888
▁conf	-889
▁inf	-890
ana	-891
less	-892
angu	-893
the	-894
▁fam	-895
▁Cent	-896
ters	-897
▁same	-898
ict	-899
▁main	-900
ody	-901
▁fore	-902
▁section	-903
ledge	-904
▁while	-905
ys	-906
▁heart	-907
ruct	-908
imes	-909
iod	-910
▁spec	-911
▁whom	-912
▁cur	-913
▁occ	-914
ology	-915
▁Q	-916
▁present	-917
▁det	-918
▁each	-919
ired	-920
ron	-921
▁rece	-922
▁development	-923
▁case	-924
▁6	-925
▁land	-926
▁ask	-927
ered	-928
▁here	-929
▁est	-930
lim	-931
▁sin	-932
aken	-933
▁art	-934
▁pay	-935
▁cor	-936
ality	-937
▁organ	-938
▁resp	-939
▁process	-940
▁Te	-941
▁book	-942
ption	-943
▁ser	-944
▁called	-945
▁stud	-946
▁cour	-947
▁adv	-948
ains	-949
▁both	-950
▁order	-951
ya	-952
▁another	-953
▁def	-954
▁etc	-955
har	-956
▁loc	-957
su	-958
▁things	-959
▁dem	-960
▁law	-961
▁open	-962
▁comple	-963
▁truth	-964
▁Then	-965
▁word	-966
ience	-967
▁return	-968
ics	-969
▁Res	-970
▁prev	-971
wards	-972
man	-973
▁fac	-974
▁educ	-975
▁sur	-976
lease	-977
amp	-978
ize	-979
▁aff	-980
▁Ar	-981
▁bus	-982
ained	-983
▁start	-984
▁mark	-985
▁ce	-986
port	-987
▁public	-988
▁period	-989
▁indust	-990
▁dev	-991
bers	-992
▁term	-993
▁different	-994
▁list	-995
ention	-996
lish	-997
▁beh	-998
EN	-999
▁partic	-1000
▁indeed	-1001
▁play	-1002
▁Mu	-1003
▁file	-1004
▁Do	-1005
▁best	-1006
▁Par	-1007
▁Mus	-1008
▁ref	-1009
▁find	-1010
▁certain	-1011
▁three	-1012
ov	-1013
▁came	-1014
▁commun	-1015
▁8	-1016
▁without	-1017
▁Mess	-1018
▁Tr	-1019
▁fil	-1020
▁fact	-1021
▁wind	-1022
▁econom	-1023
erg	-1024
▁knowledge	-1025
▁sou	-1026
▁cro	-1027
▁bro	-1028
▁show	-1029
▁7	-1030
▁fa	-1031
▁fear	-1032
▁National	-1033
▁sl	-1034
▁techn	-1035
▁poss	-1036
▁relig	-1037
stitution	-1038
▁0	-1039
ived	-1040
▁read	-1041
▁ext	-1042
ines	-1043
▁‘	-1044
▁means	-1045
mit	-1046
▁support	-1047
▁interest	-1048
▁appro	-1049
▁hand	-1050
▁author	-1051
aid	-1052
▁look	-1053
ai	-1054
▁much	-1055
ament	-1056
▁high	-1057
▁avail	-1058
▁information	-1059
▁progr	-1060
▁except	-1061
ploy	-1062
▁Mah	-1063
▁Shri	-1064
▁grow	-1065
▁ty	-1066
esh	-1067
▁gra	-1068
▁vis	-1069
ner	-1070
ither	-1071
stand	-1072
▁tem	-1073
ination	-1074
▁langu	-1075
ough	-1076
▁stand	-1077
here	-1078
▁pun	-1079
▁respect	-1080
ield	-1081
iving	-1082
crib	-1083
ually	-1084
▁incre	-1085
▁direct	-1086
▁med	-1087
▁contin	-1088
▁disbelie	-1089
▁full	-1090
ized	-1091
▁government	-1092
ccess	-1093
▁Minister	-1094
:%	-1095
rence	-1096
▁(1	-1097
ocial	-1098
▁var	-1099
▁OF	-1100
▁Say	-1101
ffic	-1102
▁human	-1103
▁women	-1104
oh	-1105
ret	-1106
ms	-1107
▁think	-1108
▁oper	-1109
ify	-1110
▁sk	-1111
cl	-1112
▁Or	-1113
▁small	-1114
gg	-1115
▁unto	-1116
▁meet	-1117
▁project	-1118
▁group	-1119
▁clear	-1120
▁At	-1121
▁Man	-1122
▁That	-1123
eds	-1124
▁prof	-1125
▁18	-1126
▁created	-1127
error	-1128
ins	-1129
ware	-1130
▁sim	-1131
▁cannot	-1132
ool	-1133
ried	-1134
thing	-1135
▁last	-1136
▁Le	-1137
olution	-1138
▁ver	-1139
▁exam	-1140
▁effect	-1141
▁appe	-1142
▁som	-1143
▁happ	-1144
▁My	-1145
▁important	-1146
▁che	-1147
▁rest	-1148
ctor	-1149
▁become	-1150
▁cult	-1151
ency	-1152
▁bring	-1153
inal	-1154
lected	-1155
▁proper	-1156
▁–	-1157
ND	-1158
▁What	-1159
▁How	-1160
asht	-1161
stitut	-1162
▁message	-1163
▁div	-1164
ks	-1165
▁Be	-1166
▁ca	-1167
ways	-1168
mb	-1169
▁Book	-1170
▁company	-1171
rap	-1172
▁business	-1173
▁New	-1174
▁amount	-1175
hip	-1176
older	-1177
▁taken	-1178
RB	-1179
▁today	-1180
▁surely	-1181
enef	-1182
erc	-1183
▁never	-1184
▁known	-1185
lf	-1186
ember	-1187
▁These	-1188
por	-1189
▁estab	-1190
▁income	-1191
ider	-1192
▁might	-1193
▁pat	-1194
▁wrong	-1195
▁punish	-1196
ER	-1197
ases	-1198
▁head	-1199
▁pri	-1200
ining	-1201
akes	-1202
gress	-1203
ense	-1204
az	-1205
▁Pl	-1206
AR	-1207
▁children	-1208
den	-1209
bs	-1210
icy	-1211
istr	-1212
ls	-1213
min	-1214
▁various	-1215
▁ele	-1216
▁Me	-1217
▁applic	-1218
▁within	-1219
▁days	-1220
▁Ram	-1221
▁dest	-1222
ote	-1223
▁put	-1224
ID	-1225
▁fun	-1226
orts	-1227
work	-1228
▁forg	-1229
▁9	-1230
▁sch	-1231
▁bank	-1232
▁month	-1233
ss	-1234
▁accept	-1235
tend	-1236
▁four	-1237
▁activ	-1238
▁Muslim	-1239
▁themselves	-1240
▁old	-1241
▁better	-1242
▁view	-1243
reed	-1244
▁times	-1245
ode	-1246
▁PR	-1247
▁frie	-1248
▁faith	-1249
▁den	-1250
put	-1251
▁mind	-1252
ternal	-1253
▁proble	-1254
▁evil	-1255
▁sit	-1256
▁allow	-1257
▁done	-1258
▁large	-1259
▁success	-1260
▁ide	-1261
▁mar	-1262
▁body	-1263
to	-1264
▁Ab	-1265
ething	-1266
▁bas	-1267
▁Raj	-1268
▁left	-1269
▁real	-1270
▁move	-1271
▁window	-1272
rought	-1273
▁social	-1274
avan	-1275
▁Isl	-1276
▁employ	-1277
▁going	-1278
▁others	-1279
▁par	-1280
▁level	-1281
TI	-1282
oin	-1283
▁keep	-1284
▁address	-1285
lished	-1286
▁Eng	-1287
▁education	-1288
ically	-1289
ues	-1290
rol	-1291
▁Gu	-1292
▁10	-1293
▁leg	-1294
ateg	-1295
ulation	-1296
ium	-1297
line	-1298
▁bo	-1299
ization	-1300
ery	-1301
▁too	-1302
▁imm	-1303
▁exper	-1304
ferred	-1305
▁build	-1306
oint	-1307
ator	-1308
par	-1309
ram	-1310
ey	-1311
alf	-1312
▁polit	-1313
ury	-1314
▁soci	-1315
ession	-1316
▁tre	-1317
▁light	-1318
atic	-1319
▁invest	-1320
▁towards	-1321
rah	-1322
▁free	-1323
▁chang	-1324
▁pop	-1325
▁due	-1326
itions	-1327
▁less	-1328
ON	-1329
ran	-1330
▁dra	-1331
▁result	-1332
▁sche	-1333
▁benef	-1334
iron	-1335
▁kind	-1336
▁Who	-1337
eric	-1338
▁available	-1339
▁One	-1340
▁jud	-1341
enger	-1342
▁quest	-1343
ief	-1344
▁dep	-1345
▁hist	-1346
ording	-1347
ailed	-1348
▁rev	-1349
▁Im	-1350
ged	-1351
▁war	-1352
irc	-1353
▁Central	-1354
▁trad	-1355
▁health	-1356
inc	-1357
tt	-1358
alk	-1359
ason	-1360
oss	-1361
▁heavens	-1362
▁issu	-1363
▁offic	-1364
▁Del	-1365
ird	-1366
▁language	-1367
ENT	-1368
▁understand	-1369
▁Ass	-1370
▁brought	-1371
▁prote	-1372
000	-1373
iversity	-1374
▁mo	-1375
▁199	-1376
▁exist	-1377
ering	-1378
na	-1379
ng	-1380
▁value	-1381
▁national	-1382
ances	-1383
▁ri	-1384
▁command	-1385
▁punishment	-1386
ala	-1387
cri	-1388
uss	-1389
▁cause	-1390
201	-1391
▁family	-1392
▁She	-1393
str	-1394
▁poet	-1395
ajor	-1396
▁Dep	-1397
tal	-1398
iful	-1399
▁tas	-1400
▁class	-1401
▁bre	-1402
▁const	-1403
ructure	-1404
▁{	-1405
▁lim	-1406
▁change	-1407
▁food	-1408
ternational	-1409
▁15	-1410
▁str	-1411
▁death	-1412
ately	-1413
▁Sub	-1414
ceed	-1415
ising	-1416
ification	-1417
▁run	-1418
▁associ	-1419
▁something	-1420
▁met	-1421
urity	-1422
▁Bhavan	-1423
aim	-1424
▁market	-1425
hing	-1426
▁Islam	-1427
▁house	-1428
▁special	-1429
▁service	-1430
▁Add	-1431
isions	-1432
ready	-1433
▁plan	-1434
▁non	-1435
rict	-1436
used	-1437
rial	-1438
ocu	-1439
▁vill	-1440
section	-1441
▁self	-1442
▁ru	-1443
phe	-1444
uty	-1445
▁Rs	-1446
ource	-1447
▁supp	-1448
ential	-1449
▁mer	-1450
cut	-1451
▁ey	-1452
ricult	-1453
▁Rasht	-1454
irit	-1455
▁hard	-1456
AN	-1457
▁far	-1458
▁Z	-1459
▁Can	-1460
▁program	-1461
▁father	-1462
ivid	-1463
uk	-1464
▁object	-1465
▁reve	-1466
▁field	-1467
ait	-1468
▁area	-1469
agement	-1470
▁12	-1471
▁comput	-1472
▁subject	-1473
▁provided	-1474
▁matter	-1475
orn	-1476
itte	-1477
iqu	-1478
▁near	-1479
▁data	-1480
▁product	-1481
urther	-1482
nect	-1483
▁ple	-1484
▁love	-1485
ured	-1486
▁net	-1487
▁already	-1488
rapati	-1489
han	-1490
▁op	-1491
▁Americ	-1492
ali	-1493
▁Sec	-1494
▁enc	-1495
▁regard	-1496
▁sw	-1497
ference	-1498
▁date	-1499
▁true	-1500
▁whole	-1501
reng	-1502
▁:	-1503
▁eng	-1504
▁Dis	-1505
gether	-1506
▁together	-1507
▁hig	-1508
▁night	-1509
▁Ag	-1510
▁members	-1511
▁Sing	-1512
▁charact	-1513
ability	-1514
▁few	-1515
▁ann	-1516
▁rese	-1517
▁Gand	-1518
oney	-1519
▁second	-1520
▁gave	-1521
▁capital	-1522
▁common	-1523
▁worship	-1524
raph	-1525
aring	-1526
▁perform	-1527
▁cr	-1528
▁services	-1529
▁Us	-1530
cing	-1531
▁signs	-1532
▁Indeed	-1533
▁countries	-1534
▁Your	-1535
▁following	-1536
reen	-1537
▁Rashtrapati	-1538
io	-1539
▁del	-1540
iding	-1541
ancial	-1542
▁Delhi	-1543
▁care	-1544
ently	-1545
▁20	-1546
▁Cont	-1547
▁expl	-1548
ma	-1549
▁Brit	-1550
▁above	-1551
▁liter	-1552
▁god	-1553
▁tax	-1554
▁hold	-1555
▁Those	-1556
eness	-1557
be	-1558
▁11	-1559
▁pray	-1560
ners	-1561
▁Spe	-1562
▁little	-1563
▁Pre	-1564
▁pract	-1565
come	-1566
land	-1567
▁streng	-1568
▁dou	-1569
▁provide	-1570
▁areas	-1571
liament	-1572
ope	-1573
▁based	-1574
▁himself	-1575
ogn	-1576
▁major	-1577
▁particular	-1578
▁nation	-1579
eous	-1580
ians	-1581
▁age	-1582
▁respons	-1583
itness	-1584
otion	-1585
▁path	-1586
▁economic	-1587
▁cost	-1588
▁Rep	-1589
▁asse	-1590
ying	-1591
▁action	-1592
ems	-1593
itor	-1594
▁test	-1595
val	-1596
aining	-1597
ilities	-1598
oses	-1599
▁making	-1600
▁thought	-1601
▁plac	-1602
▁words	-1603
isation	-1604
▁belong	-1605
▁consider	-1606
▁policy	-1607
artment	-1608
▁eas	-1609
ividual	-1610
▁hearts	-1611
adesh	-1612
HE	-1613
▁init	-1614
▁until	-1615
▁having	-1616
▁Acc	-1617
ger	-1618
▁el	-1619
▁able	-1620
▁Commission	-1621
ilit	-1622
uro	-1623
▁still	-1624
ges	-1625
aled	-1626
▁beg	-1627
istry	-1628
ling	-1629
▁though	-1630
▁pain	-1631
ii	-1632
▁ve	-1633
▁seen	-1634
▁ever	-1635
▁around	-1636
chie	-1637
▁current	-1638
lection	-1639
oura	-1640
osed	-1641
▁sector	-1642
▁sol	-1643
▁took	-1644
iver	-1645
▁society	-1646
viron	-1647
▁type	-1648
idence	-1649
AL	-1650
ards	-1651
ories	-1652
▁sing	-1653
▁instru	-1654
▁necess	-1655
▁%	-1656
▁Cour	-1657
ara	-1658
▁occas	-1659
▁farm	-1660
▁aut	-1661
▁whose	-1662
jee	-1663
akh	-1664
▁States	-1665
ises	-1666
icult	-1667
▁send	-1668
▁always	-1669
▁individual	-1670
▁mus	-1671
uct	-1672
ammad	-1673
els	-1674
▁orig	-1675
▁along	-1676
▁spirit	-1677
play	-1678
▁rul	-1679
▁express	-1680
▁post	-1681
▁repres	-1682
▁seek	-1683
▁believers	-1684
vironment	-1685
▁Cl	-1686
▁nothing	-1687
▁PRES	-1688
▁enter	-1689
▁mult	-1690
ats	-1691
▁therefore	-1692
hy	-1693
▁local	-1694
▁meas	-1695
▁ut	-1696
▁fav	-1697
veral	-1698
▁whether	-1699
▁thing	-1700
cil	-1701
▁contrib	-1702
▁'%	-1703
▁including	-1704
▁clause	-1705
▁Em	-1706
▁deeds	-1707
▁political	-1708
▁guid	-1709
▁creat	-1710
▁thee	-1711
br	-1712
▁folder	-1713
▁mill	-1714
lement	-1715
▁create	-1716
▁achie	-1717
▁Bank	-1718
▁Beng	-1719
oad	-1720
▁With	-1721
▁school	-1722
▁witness	-1723
▁Gener	-1724
arent	-1725
▁religion	-1726
▁further	-1727
▁vers	-1728
▁point	-1729
▁yet	-1730
▁young	-1731
▁mean	-1732
ails	-1733
▁five	-1734
ched	-1735
ames	-1736
▁Reg	-1737
ication	-1738
▁Gandhi	-1739
umb	-1740
▁Rem	-1741
▁Show	-1742
reme	-1743
com	-1744
IN	-1745
▁growth	-1746
bt	-1747
hammad	-1748
▁Col	-1749
ustom	-1750
pportun	-1751
▁Prov	-1752
eration	-1753
▁live	-1754
oard	-1755
▁complete	-1756
pose	-1757
▁side	-1758
cribed	-1759
af	-1760
▁received	-1761
▁control	-1762
▁equal	-1763
ream	-1764
▁later	-1765
▁total	-1766
▁nature	-1767
after	-1768
▁British	-1769
atever	-1770
▁became	-1771
ier	-1772
▁es	-1773
▁institut	-1774
▁Not	-1775
erve	-1776
lling	-1777
▁home	-1778
ta	-1779
ann	-1780
ours	-1781
▁held	-1782
▁peace	-1783
▁Ph	-1784
▁docu	-1785
▁impro	-1786
ources	-1787
rael	-1788
▁since	-1789
▁Please	-1790
▁Sy	-1791
▁hands	-1792
ittee	-1793
ude	-1794
hat	-1795
itional	-1796
illed	-1797
▁inde	-1798
ached	-1799
ministr	-1800
▁cred	-1801
▁circ	-1802
▁leave	-1803
▁opportun	-1804
▁dr	-1805
incip	-1806
▁diff	-1807
ead	-1808
The	-1809
▁friend	-1810
▁Messenger	-1811
▁next	-1812
▁After	-1813
▁Most	-1814
▁THE	-1815
ences	-1816
▁mor	-1817
▁record	-1818
▁occasion	-1819
▁short	-1820
▁question	-1821
▁(2	-1822
▁strong	-1823
▁function	-1824
IDENT	-1825
▁English	-1826
opy	-1827
outh	-1828
herjee	-1829
atch	-1830
▁required	-1831
▁ill	-1832
▁x	-1833
▁mater	-1834
▁knows	-1835
▁region	-1836
▁Hindi	-1837
ches	-1838
for	-1839
▁Prime	-1840
▁PRESIDENT	-1841
▁previous	-1842
▁son	-1843
▁forth	-1844
OR	-1845
▁feel	-1846
▁Israel	-1847
▁key	-1848
ivil	-1849
ergy	-1850
▁brother	-1851
dom	-1852
▁Singh	-1853
▁Develop	-1854
▁share	-1855
▁reward	-1856
▁selected	-1857
▁mis	-1858
▁position	-1859
▁money	-1860
ibility	-1861
▁reason	-1862
▁Pe	-1863
▁text	-1864
omes	-1865
▁possible	-1866
ior	-1867
▁industry	-1868
just	-1869
▁flow	-1870
▁several	-1871
▁foreign	-1872
amb	-1873
▁relations	-1874
ME	-1875
stitute	-1876
▁port	-1877
uation	-1878
udd	-1879
▁dom	-1880
change	-1881
We	-1882
▁connect	-1883
▁priv	-1884
▁either	-1885
cious	-1886
▁activities	-1887
▁application	-1888
IT	-1889
▁certainly	-1890
▁concern	-1891
▁research	-1892
▁Hindu	-1893
▁Ministry	-1894
anab	-1895
ps	-1896
▁authority	-1897
▁mother	-1898
IA	-1899
▁access	-1900
earch	-1901
▁dise	-1902
IS	-1903
▁Offic	-1904
ouncil	-1905
end	-1906
most	-1907
hold	-1908
▁z	-1909
▁Cong	-1910
▁Parliament	-1911
ively	-1912
gu	-1913
aster	-1914
▁face	-1915
▁commit	-1916
▁Some	-1917
▁error	-1918
ony	-1919
▁Sw	-1920
▁sat	-1921
▁contact	-1922
▁character	-1923
▁University	-1924
▁progress	-1925
▁recogn	-1926
icle	-1927
▁itself	-1928
▁technology	-1929
▁sum	-1930
mission	-1931
▁fall	-1932
urely	-1933
ension	-1934
cell	-1935
ross	-1936
▁Comp	-1937
▁financial	-1938
▁plant	-1939
▁fut	-1940
▁obs	-1941
ring	-1942
▁example	-1943
▁went	-1944
cent	-1945
▁anything	-1946
idd	-1947
▁ur	-1948
rodu	-1949
▁inn	-1950
▁link	-1951
▁visit	-1952
▁opp	-1953
▁don	-1954
ault	-1955
uf	-1956
▁air	-1957
▁anim	-1958
augh	-1959
aries	-1960
▁production	-1961
men	-1962
ully	-1963
see	-1964
▁elect	-1965
▁rate	-1966
▁trust	-1967
▁difficult	-1968
▁assess	-1969
▁lab	-1970
▁using	-1971
▁provisions	-1972
bar	-1973
▁grant	-1974
arat	-1975
mber	-1976
▁history	-1977
▁quality	-1978
▁mag	-1979
▁deal	-1980
iation	-1981
▁Af	-1982
une	-1983
▁Here	-1984
isl	-1985
▁agricult	-1986
▁represent	-1987
▁property	-1988
bsite	-1989
▁established	-1990
ibr	-1991
lu	-1992
ilt	-1993
.201	-1994
▁Pradesh	-1995
▁works	-1996
ened	-1997
▁line	-1998
▁nat	-1999
▁stat	-2000
▁working	-2001
imum	-2002
▁purpose	-2003
phet	-2004
▁Ver	-2005
▁Court	-2006
▁ident	-2007
▁16	-2008
ograph	-2009
aps	-2010
ince	-2011
▁enj	-2012
▁harm	-2013
▁Direct	-2014
▁fire	-2015
▁Fin	-2016
▁report	-2017
▁therein	-2018
▁material	-2019
▁Dr	-2020
▁suff	-2021
▁scheme	-2022
▁ded	-2023
▁Co	-2024
by	-2025
ilar	-2026
▁soul	-2027
▁necessary	-2028
▁started	-2029
▁ens	-2030
▁big	-2031
▁behind	-2032
▁course	-2033
ills	-2034
obal	-2035
▁Serv	-2036
ape	-2037
▁image	-2038
▁save	-2039
▁entire	-2040
▁App	-2041
rab	-2042
▁IND	-2043
▁meeting	-2044
▁hy	-2045
▁hath	-2046
▁Could	-2047
▁mercy	-2048
▁’	-2049
▁Des	-2050
aun	-2051
▁files	-2052
▁future	-2053
▁referred	-2054
▁network	-2055
▁Development	-2056
▁hon	-2057
▁top	-2058
itiz	-2059
▁Euro	-2060
▁By	-2061
ably	-2062
▁dri	-2063
acity	-2064
▁demand	-2065
ets	-2066
irth	-2067
know	-2068
▁196	-2069
▁High	-2070
▁ten	-2071
▁fund	-2072
▁continu	-2073
▁vi	-2074
▁close	-2075
▁related	-2076
osp	-2077
▁greater	-2078
▁Congress	-2079
▁security	-2080
▁redu	-2081
erciful	-2082
▁asked	-2083
▁Open	-2084
▁court	-2085
▁Know	-2086
▁fight	-2087
mend	-2088
▁i	-2089
▁25	-2090
▁bar	-2091
mitted	-2092
▁implement	-2093
ethod	-2094
airs	-2095
▁got	-2096
pur	-2097
▁Thus	-2098
▁news	-2099
esides	-2100
edi	-2101
▁mail	-2102
▁institutions	-2103
▁decl	-2104
▁higher	-2105
▁Now	-2106
engers	-2107
▁agree	-2108
▁community	-2109
▁six	-2110
▁General	-2111
▁whatever	-2112
▁000	-2113
▁written	-2114
aged	-2115
▁RRB	-2116
ointed	-2117
▁House	-2118
▁mount	-2119
▁city	-2120
▁treat	-2121
▁revealed	-2122
unt	-2123
▁once	-2124
▁students	-2125
▁198	-2126
▁Europe	-2127
urs	-2128
▁warn	-2129
▁guidance	-2130
ipp	-2131
AT	-2132
▁specified	-2133
▁comes	-2134
rast	-2135
▁living	-2136
olk	-2137
ton	-2138
▁cal	-2139
▁leaders	-2140
▁stri	-2141
▁195	-2142
▁Mar	-2143
▁forward	-2144
side	-2145
▁List	-2146
▁paid	-2147
▁1.	-2148
▁Ev	-2149
▁months	-2150
ani	-2151
fully	-2152
bit	-2153
▁step	-2154
▁modern	-2155
▁website	-2156
▁14	-2157
▁repl	-2158
▁ones	-2159
uly	-2160
▁ans	-2161
▁sal	-2162
ung	-2163
ront	-2164
▁lay	-2165
▁rele	-2166
▁13	-2167
▁Union	-2168
▁Su	-2169
▁soon	-2170
word	-2171
ned	-2172
▁tell	-2173
▁according	-2174
▁told	-2175
poses	-2176
▁past	-2177
ones	-2178
▁Nor	-2179
▁goods	-2180
▁prep	-2181
▁verily	-2182
▁story	-2183
▁believed	-2184
):	-2185
▁righteous	-2186
ruction	-2187
▁role	-2188
▁determ	-2189
atives	-2190
▁Committee	-2191
▁Department	-2192
▁Pol	-2193
▁Sat	-2194
orrow	-2195
▁abs	-2196
▁pot	-2197
hood	-2198
IC	-2199
▁cell	-2200
▁environment	-2201
▁eyes	-2202
der	-2203
▁recom	-2204
anch	-2205
itive	-2206
▁thy	-2207
▁force	-2208
ji	-2209
▁claim	-2210
ison	-2211
▁Er	-2212
▁separ	-2213
▁Such	-2214
▁initi	-2215
▁194	-2216
▁LRB	-2217
▁destro	-2218
ush	-2219
▁wis	-2220
▁king	-2221
▁doing	-2222
ires	-2223
▁problem	-2224
lled	-2225
reedom	-2226
rish	-2227
▁lot	-2228
▁pub	-2229
▁(1)	-2230
▁till	-2231
rop	-2232
▁office	-2233
▁phys	-2234
▁Muslims	-2235
▁computer	-2236
▁Constitution	-2237
▁Sp	-2238
lier	-2239
idered	-2240
ored	-2241
▁method	-2242
▁invol	-2243
aves	-2244
▁ter	-2245
▁building	-2246
abha	-2247
▁Qur	-2248
▁turned	-2249
▁particip	-2250
▁century	-2251
▁design	-2252
acher	-2253
istic	-2254
▁Mad	-2255
ideo	-2256
▁Govern	-2257
▁international	-2258
▁however	-2259
▁Mr	-2260
ek	-2261
▁why	-2262
▁vari	-2263
▁Bengal	-2264
▁ange	-2265
▁party	-2266
▁basis	-2267
▁blood	-2268
soever	-2269
itation	-2270
oid	-2271
▁parts	-2272
▁Let	-2273
▁acqu	-2274
▁appointed	-2275
▁considered	-2276
ival	-2277
▁bea	-2278
ita	-2279
▁speak	-2280
▁problems	-2281
▁X	-2282
irt	-2283
▁needs	-2284
▁Select	-2285
▁htt	-2286
▁energy	-2287
▁administr	-2288
▁purposes	-2289
▁super	-2290
▁197	-2291
▁Sche	-2292
▁loss	-2293
▁learn	-2294
▁arm	-2295
▁sun	-2296
▁movement	-2297
▁ess	-2298
▁arch	-2299
▁Surely	-2300
▁changes	-2301
▁Moses	-2302
▁vol	-2303
▁Part	-2304
ina	-2305
▁trib	-2306
▁Lo	-2307
ript	-2308
▁tree	-2309
▁integr	-2310
▁manner	-2311
essee	-2312
▁fru	-2313
?"	-2314
▁crit	-2315
▁Cor	-2316
▁Verily	-2317
ificate	-2318
▁dele	-2319
▁Council	-2320
▁Fire	-2321
▁discuss	-2322
▁Techn	-2323
sue	-2324
ulf	-2325
▁firm	-2326
with	-2327
▁tor	-2328
▁custom	-2329
▁single	-2330
action	-2331
hether	-2332
acy	-2333
▁persons	-2334
ont	-2335
▁terms	-2336
▁deep	-2337
▁host	-2338
▁pen	-2339
ological	-2340
▁However	-2341
▁trade	-2342
▁princip	-2343
▁citiz	-2344
▁17	-2345
istan	-2346
▁often	-2347
▁scient	-2348
▁assist	-2349
▁gre	-2350
▁check	-2351
▁village	-2352
▁Information	-2353
▁cho	-2354
▁server	-2355
▁spread	-2356
▁mention	-2357
asing	-2358
▁display	-2359
ategory	-2360
ouses	-2361
▁establish	-2362
▁fr	-2363
▁poor	-2364
▁bra	-2365
▁sense	-2366
▁30	-2367
▁carry	-2368
▁destroy	-2369
▁religious	-2370
▁press	-2371
nic	-2372
▁Muk	-2373
▁begin	-2374
▁books	-2375
TION	-2376
▁remember	-2377
▁sac	-2378
▁undert	-2379
▁messages	-2380
▁anc	-2381
▁passed	-2382
▁protect	-2383
▁task	-2384
▁assessee	-2385
cription	-2386
vey	-2387
▁makes	-2388
▁Bl	-2389
aper	-2390
aught	-2391
ixed	-2392
▁general	-2393
imate	-2394
ousand	-2395
▁gives	-2396
aint	-2397
▁issued	-2398
go	-2399
▁wealth	-2400
▁management	-2401
▁terror	-2402
▁America	-2403
ama	-2404
▁mach	-2405
▁allowed	-2406
▁Set	-2407
▁maint	-2408
rect	-2409
▁INDIA	-2410
▁civil	-2411
▁er	-2412
▁low	-2413
▁squ	-2414
▁Muhammad	-2415
▁thus	-2416
▁Ed	-2417
▁none	-2418
▁wish	-2419
▁*	-2420
▁reach	-2421
▁patient	-2422
▁expect	-2423
atory	-2424
▁sound	-2425
▁freedom	-2426
▁aud	-2427
▁compan	-2428
▁viol	-2429
▁http	-2430
▁benefit	-2431
▁everything	-2432
ke	-2433
▁taking	-2434
▁conditions	-2435
sequ	-2436
▁aware	-2437
wer	-2438
▁red	-2439
▁size	-2440
▁conduct	-2441
▁increase	-2442
▁efforts	-2443
▁natural	-2444
▁Chand	-2445
▁fel	-2446
then	-2447
▁norm	-2448
vi	-2449
va	-2450
hara	-2451
inary	-2452
▁extend	-2453
ift	-2454
krit	-2455
uses	-2456
▁fig	-2457
▁matters	-2458
▁institution	-2459
ox	-2460
▁really	-2461
▁neither	-2462
idden	-2463
▁Public	-2464
▁million	-2465
new	-2466
▁reject	-2467
▁alone	-2468
▁global	-2469
▁fast	-2470
itude	-2471
▁pet	-2472
▁duty	-2473
▁partners	-2474
▁enjoy	-2475
▁2.	-2476
ples	-2477
believers	-2478
ots	-2479
▁cover	-2480
use	-2481
▁culture	-2482
▁jour	-2483
over	-2484
▁ant	-2485
▁least	-2486
tax	-2487
itable	-2488
rown	-2489
ental	-2490
▁grie	-2491
▁bur	-2492
▁talk	-2493
▁subs	-2494
ech	-2495
▁thousand	-2496
▁developed	-2497
▁source	-2498
▁search	-2499
▁doubt	-2500
▁followed	-2501
cies	-2502
▁early	-2503
▁parent	-2504
▁exc	-2505
▁consum	-2506
▁industrial	-2507
▁Whether	-2508
rec	-2509
▁Kh	-2510
▁chall	-2511
▁Wor	-2512
▁training	-2513
iles	-2514
attle	-2515
ilk	-2516
nam	-2517
▁Bi	-2518
▁Mon	-2519
▁member	-2520
▁assessment	-2521
rs	-2522
kind	-2523
▁stay	-2524
▁li	-2525
▁transfer	-2526
▁pros	-2527
iveness	-2528
adem	-2529
▁Trans	-2530
▁Cannot	-2531
▁independ	-2532
gment	-2533
▁Where	-2534
▁creation	-2535
▁dead	-2536
▁conv	-2537
▁Are	-2538
▁gen	-2539
iction	-2540
▁opens	-2541
▁temple	-2542
▁Ap	-2543
▁woman	-2544
▁credit	-2545
▁Error	-2546
▁neg	-2547
▁programm	-2548
▁di	-2549
▁saying	-2550
ptions	-2551
▁May	-2552
▁Int	-2553
vere	-2554
▁dire	-2555
tings	-2556
mon	-2557
oke	-2558
alend	-2559
▁log	-2560
▁adop	-2561
uge	-2562
▁outside	-2563
▁literature	-2564
▁eat	-2565
▁san	-2566
],	-2567
app	-2568
▁soft	-2569
▁achieve	-2570
▁capacity	-2571
▁tou	-2572
aste	-2573
ols	-2574
alay	-2575
▁ground	-2576
▁democ	-2577
▁bless	-2578
▁Even	-2579
▁drink	-2580
emed	-2581
▁Prophet	-2582
▁provision	-2583
ew	-2584
▁town	-2585
abad	-2586
rist	-2587
▁birth	-2588
▁half	-2589
▁wife	-2590
▁arr	-2591
▁event	-2592
usion	-2593
▁File	-2594
2.	-2595
▁Qu	-2596
▁disease	-2597
▁gard	-2598
▁sea	-2599
ique	-2600
ulated	-2601
▁charge	-2602
▁payment	-2603
▁population	-2604
▁fem	-2605
▁mass	-2606
▁stra	-2607
ane	-2608
▁mode	-2609
▁Div	-2610
▁Rec	-2611
▁rights	-2612
▁programme	-2613
▁disbelieve	-2614
ows	-2615
omb	-2616
▁aim	-2617
▁saw	-2618
▁remain	-2619
▁sust	-2620
▁personal	-2621
▁angels	-2622
▁wide	-2623
enty	-2624
iddle	-2625
▁write	-2626
▁compet	-2627
▁People	-2628
▁mankind	-2629
▁hope	-2630
alse	-2631
▁insp	-2632
▁lost	-2633
his	-2634
▁pal	-2635
▁Name	-2636
wise	-2637
pecial	-2638
▁document	-2639
▁Mod	-2640
▁immedi	-2641
▁SA	-2642
▁resources	-2643
nding	-2644
ada	-2645
▁ir	-2646
▁Cal	-2647
rastructure	-2648
ares	-2649
▁cut	-2650
▁try	-2651
▁transl	-2652
▁receive	-2653
▁Mukherjee	-2654
ler	-2655
yle	-2656
RA	-2657
▁Per	-2658
▁Aut	-2659
▁include	-2660
▁judge	-2661
▁almost	-2662
▁propos	-2663
▁stru	-2664
undred	-2665
▁sugg	-2666
face	-2667
▁cases	-2668
▁deny	-2669
▁lat	-2670
▁innov	-2671
▁suggest	-2672
ufact	-2673
vert	-2674
estern	-2675
uration	-2676
▁earlier	-2677
▁request	-2678
▁rule	-2679
▁price	-2680
▁kept	-2681
▁Section	-2682
empt	-2683
▁Rel	-2684
▁revel	-2685
▁writing	-2686
aff	-2687
pril	-2688
▁accom	-2689
duc	-2690
▁raised	-2691
anskrit	-2692
▁across	-2693
▁24	-2694
▁deli	-2695
▁lakh	-2696
▁continue	-2697
▁exe	-2698
▁experience	-2699
▁seven	-2700
▁Merciful	-2701
irm	-2702
▁IN	-2703
▁user	-2704
▁similar	-2705
isf	-2706
▁bal	-2707
ging	-2708
▁typ	-2709
▁multip	-2710
▁install	-2711
Ex	-2712
▁strength	-2713
▁cast	-2714
▁Sabha	-2715
▁TO	-2716
▁Project	-2717
▁torment	-2718
//	-2719
://	-2720
▁Afric	-2721
▁says	-2722
▁Mem	-2723
▁enough	-2724
ables	-2725
▁official	-2726
ifest	-2727
▁products	-2728
▁condition	-2729
▁boy	-2730
▁require	-2731
▁fu	-2732
erved	-2733
▁Institute	-2734
gest	-2735
▁ign	-2736
ees	-2737
▁space	-2738
rection	-2739
▁pow	-2740
▁operation	-2741
▁tar	-2742
▁astr	-2743
▁third	-2744
▁district	-2745
▁Mahar	-2746
▁job	-2747
▁Tra	-2748
▁enem	-2749
▁Jan	-2750
▁Che	-2751
▁projects	-2752
rote	-2753
▁farmers	-2754
▁structure	-2755
EC	-2756
▁Fl	-2757
▁West	-2758
▁Republic	-2759
▁affect	-2760
▁private	-2761
uary	-2762
RI	-2763
▁desire	-2764
▁laun	-2765
▁Arab	-2766
rences	-2767
▁hundred	-2768
▁apply	-2769
▁Budd	-2770
▁guard	-2771
lebr	-2772
▁rad	-2773
▁investment	-2774
▁science	-2775
well	-2776
▁lear	-2777
igation	-2778
▁astray	-2779
oly	-2780
let	-2781
▁states	-2782
▁influ	-2783
▁introdu	-2784
▁Board	-2785
▁Jud	-2786
▁below	-2787
▁guide	-2788
anda	-2789
▁pra	-2790
ivity	-2791
▁wait	-2792
oud	-2793
ators	-2794
▁fulf	-2795
▁signific	-2796
alendar	-2797
▁Pers	-2798
▁Work	-2799
▁carried	-2800
▁tour	-2801
▁conne	-2802
▁US	-2803
owed	-2804
▁eight	-2805
ager	-2806
▁forms	-2807
▁front	-2808
ribution	-2809
▁teacher	-2810
▁failed	-2811
haps	-2812
pecially	-2813
ava	-2814
▁guided	-2815
▁United	-2816
fficient	-2817
▁decided	-2818
▁exchange	-2819
▁April	-2820
▁Asia	-2821
▁East	-2822
▁Sur	-2823
ney	-2824
▁draw	-2825
▁rural	-2826
▁hear	-2827
▁Off	-2828
▁id	-2829
▁Med	-2830
▁reform	-2831
▁ancient	-2832
▁attack	-2833
▁Pun	-2834
llah	-2835
▁Brah	-2836
▁depos	-2837
▁provides	-2838
agar	-2839
▁prepared	-2840
▁From	-2841
▁bear	-2842
0,	-2843
▁places	-2844
▁relating	-2845
▁issue	-2846
estic	-2847
▁economy	-2848
▁South	-2849
▁approach	-2850
ades	-2851
ales	-2852
htm	-2853
▁music	-2854
lear	-2855
▁bound	-2856
▁behalf	-2857
▁King	-2858
▁decision	-2859
▁Sanskrit	-2860
▁World	-2861
▁disbelievers	-2862
▁Pal	-2863
▁promise	-2864
▁page	-2865
▁Their	-2866
▁strengthen	-2867
▁improve	-2868
▁coop	-2869
utes	-2870
▁produce	-2871
6.	-2872
mir	-2873
umn	-2874
▁Use	-2875
ban	-2876
▁Ins	-2877
▁issues	-2878
▁dark	-2879
▁built	-2880
▁led	-2881
▁manufact	-2882
gram	-2883
▁defe	-2884
vant	-2885
urance	-2886
▁foc	-2887
iture	-2888
▁Har	-2889
▁Ak	-2890
amed	-2891
▁Gur	-2892
▁actually	-2893
AS	-2894
eral	-2895
▁accord	-2896
ump	-2897
▁situation	-2898
▁stop	-2899
▁proceed	-2900
▁tele	-2901
▁Cert	-2902
▁popular	-2903
▁lives	-2904
▁instrument	-2905
reg	-2906
osop	-2907
inion	-2908
▁whoever	-2909
▁Pranab	-2910
▁prayer	-2911
eb	-2912
▁secret	-2913
ici	-2914
▁Chief	-2915
ourage	-2916
3.	-2917
▁Educ	-2918
ex	-2919
▁Up	-2920
▁Technology	-2921
▁video	-2922
▁rain	-2923
▁meaning	-2924
▁profession	-2925
▁ensure	-2926
bed	-2927
▁da	-2928
▁crore	-2929
aka	-2930
icro	-2931
▁193	-2932
▁study	-2933
▁rich	-2934
▁subst	-2935
▁groups	-2936
▁100	-2937
ening	-2938
▁happy	-2939
chan	-2940
▁Account	-2941
▁Pur	-2942
▁satisf	-2943
▁false	-2944
▁Income	-2945
▁deb	-2946
pri	-2947
uted	-2948
ibrary	-2949
▁besides	-2950
que	-2951
▁unbelievers	-2952
▁values	-2953
▁Every	-2954
▁forb	-2955
▁road	-2956
jab	-2957
▁physical	-2958
▁indic	-2959
▁essential	-2960
▁published	-2961
▁especially	-2962
▁ste	-2963
▁friends	-2964
gar	-2965
▁rules	-2966
▁original	-2967
ume	-2968
▁Def	-2969
mes	-2970
asure	-2971
▁Cons	-2972
ilosop	-2973
▁opportunity	-2974
▁Leg	-2975
adu	-2976
▁har	-2977
▁coming	-2978
▁regular	-2979
▁accepted	-2980
▁Indust	-2981
.,	-2982
band	-2983
mark	-2984
▁univers	-2985
▁wall	-2986
urrection	-2987
▁conscious	-2988
▁river	-2989
▁Child	-2990
▁occur	-2991
▁Right	-2992
▁celebr	-2993
▁vict	-2994
▁providing	-2995
yond	-2996
utions	-2997
oe	-2998
ites	-2999
0.	-3000
ED	-3001
▁sens	-3002
▁evidence	-3003
▁concerned	-3004
'.	-3005
▁load	-3006
▁lower	-3007
anation	-3008
▁Have	-3009
▁Secret	-3010
▁During	-3011
▁caused	-3012
▁Category	-3013
▁Net	-3014
▁letter	-3015
▁increased	-3016
▁dig	-3017
ulate	-3018
▁details	-3019
▁ways	-3020
▁facilities	-3021
▁View	-3022
▁attend	-3023
▁teach	-3024
▁specific	-3025
▁wrote	-3026
▁giving	-3027
light	-3028
hest	-3029
▁easy	-3030
▁reached	-3031
▁becomes	-3032
7.	-3033
▁21	-3034
▁Christ	-3035
▁obt	-3036
▁Under	-3037
▁stage	-3038
▁depend	-3039
▁status	-3040
▁Fore	-3041
aving	-3042
▁fair	-3043
ott	-3044
External	-3045
▁Will	-3046
ley	-3047
osition	-3048
▁dam	-3049
▁While	-3050
▁wid	-3051
▁manifest	-3052
▁names	-3053
▁International	-3054
▁Cre	-3055
▁possess	-3056
cle	-3057
war	-3058
▁citizens	-3059
aughter	-3060
▁began	-3061
▁Sign	-3062
▁Hereafter	-3063
▁break	-3064
▁thereof	-3065
▁prescribed	-3066
▁percent	-3067
▁copy	-3068
▁Dist	-3069
8.	-3070
▁"%	-3071
▁morning	-3072
▁infrastructure	-3073
att	-3074
▁bill	-3075
▁programmes	-3076
load	-3077
iting	-3078
▁arri	-3079
▁belongs	-3080
fort	-3081
▁color	-3082
▁room	-3083
▁feed	-3084
kar	-3085
oday	-3086
▁rather	-3087
▁measure	-3088
▁Sm	-3089
mbly	-3090
▁Save	-3091
ras	-3092
▁die	-3093
▁remind	-3094
ervation	-3095
▁mut	-3096
▁expend	-3097
▁Officer	-3098
hib	-3099
uction	-3100
▁comb	-3101
▁instead	-3102
▁cultural	-3103
abled	-3104
▁appear	-3105
▁Krish	-3106
do	-3107
▁unless	-3108
▁Service	-3109
encies	-3110
▁March	-3111
oon	-3112
head	-3113
▁Guj	-3114
▁yourselves	-3115
▁Commissioner	-3116
▁Ma	-3117
▁lib	-3118
ented	-3119
▁bird	-3120
▁justice	-3121
▁beyond	-3122
5.	-3123
▁Ge	-3124
inn	-3125
ocation	-3126
▁importance	-3127
.)	-3128
▁Expl	-3129
ober	-3130
▁concer	-3131
ev	-3132
▁clean	-3133
▁origin	-3134
▁central	-3135
irst	-3136
▁Governor	-3137
▁coll	-3138
▁shown	-3139
rog	-3140
vest	-3141
cribe	-3142
▁oil	-3143
▁bi	-3144
▁chast	-3145
▁(2)	-3146
▁forest	-3147
UR	-3148
▁prim	-3149
▁Pak	-3150
▁device	-3151
▁Val	-3152
▁placed	-3153
ection	-3154
▁stone	-3155
▁camp	-3156
▁sky	-3157
▁Africa	-3158
▁languages	-3159
▁mere	-3160
▁Art	-3161
▁Hell	-3162
▁song	-3163
▁returned	-3164
▁responsible	-3165
.'	-3166
▁idea	-3167
▁accounts	-3168
▁bit	-3169
▁emerg	-3170
▁prior	-3171
▁takes	-3172
▁fail	-3173
▁fort	-3174
ground	-3175
resh	-3176
▁North	-3177
9.	-3178
▁Director	-3179
abor	-3180
▁disp	-3181
▁weak	-3182
4.	-3183
ration	-3184
▁NA	-3185
7,	-3186
ili	-3187
▁answer	-3188
▁agreement	-3189
▁aver	-3190
▁rivers	-3191
gn	-3192
▁Bal	-3193
▁und	-3194
oice	-3195
▁poin	-3196
raw	-3197
▁Sam	-3198
▁lies	-3199
▁inform	-3200
▁loan	-3201
elf	-3202
sect	-3203
▁schol	-3204
ressed	-3205
▁Other	-3206
▁appoint	-3207
▁Sim	-3208
▁Moh	-3209
▁password	-3210
▁Failed	-3211
▁potential	-3212
▁der	-3213
▁effective	-3214
▁1,	-3215
▁gir	-3216
though	-3217
oted	-3218
ule	-3219
▁(3	-3220
▁heaven	-3221
▁heard	-3222
wh	-3223
▁Gl	-3224
▁Centre	-3225
ell	-3226
omet	-3227
▁govern	-3228
▁Plan	-3229
▁coun	-3230
▁Of	-3231
▁hor	-3232
▁Education	-3233
▁Gang	-3234
▁beginning	-3235
0}	-3236
▁bad	-3237
▁Sup	-3238
▁win	-3239
known	-3240
▁powers	-3241
▁servants	-3242
▁Forg	-3243
2,	-3244
▁spiritual	-3245
▁understanding	-3246
This	-3247
▁round	-3248
▁Ac	-3249
);	-3250
tion	-3251
▁deg	-3252
▁style	-3253
uck	-3254
▁burn	-3255
▁quite	-3256
racy	-3257
inate	-3258
▁added	-3259
▁gone	-3260
AP	-3261
▁Quran	-3262
▁contract	-3263
▁existing	-3264
rug	-3265
▁Evolution	-3266
▁else	-3267
▁default	-3268
▁parents	-3269
▁Scheme	-3270
▁histor	-3271
▁CO	-3272
".	-3273
▁article	-3274
riage	-3275
haraoh	-3276
▁unjust	-3277
▁philosop	-3278
sc	-3279
icles	-3280
▁offer	-3281
▁emb	-3282
▁simple	-3283
▁speech	-3284
▁vision	-3285
▁setting	-3286
▁connection	-3287
▁treatment	-3288
▁Kash	-3289
▁Many	-3290
▁Move	-3291
▁folk	-3292
▁mom	-3293
▁notice	-3294
▁legal	-3295
▁nar	-3296
IL	-3297
rem	-3298
▁ge	-3299
▁obey	-3300
standing	-3301
▁activity	-3302
8,	-3303
▁Sa	-3304
anced	-3305
▁Group	-3306
▁31	-3307
raham	-3308
▁lie	-3309
▁System	-3310
ami	-3311
▁Bar	-3312
▁bond	-3313
▁fif	-3314
▁mot	-3315
ctors	-3316
▁presented	-3317
▁certificate	-3318
▁sn	-3319
▁Unt	-3320
▁youth	-3321
▁Research	-3322
▁Gard	-3323
oo	-3324
▁Author	-3325
▁ship	-3326
▁asset	-3327
▁compl	-3328
▁excell	-3329
arge	-3330
▁existence	-3331
▁colle	-3332
▁exerc	-3333
▁favour	-3334
▁agricultural	-3335
▁Dele	-3336
▁option	-3337
▁black	-3338
▁goes	-3339
20	-3340
▁concerning	-3341
ingu	-3342
▁Out	-3343
▁emp	-3344
▁kill	-3345
▁strugg	-3346
ancy	-3347
amil	-3348
▁proced	-3349
▁basic	-3350
oting	-3351
iff	-3352
antly	-3353
RO	-3354
oom	-3355
▁sle	-3356
▁direction	-3357
▁employment	-3358
▁scale	-3359
].	-3360
▁ris	-3361
▁felt	-3362
▁getting	-3363
▁knew	-3364
▁Punjab	-3365
▁wanted	-3366
▁addition	-3367
▁female	-3368
▁argu	-3369
▁Air	-3370
▁Sar	-3371
▁parties	-3372
▁commer	-3373
nal	-3374
▁anal	-3375
▁beaut	-3376
▁Therefore	-3377
▁plus	-3378
▁virt	-3379
▁running	-3380
▁swe	-3381
▁unit	-3382
▁houses	-3383
▁fixed	-3384
▁verses	-3385
▁learning	-3386
▁Resurrection	-3387
uls	-3388
▁warm	-3389
rim	-3390
▁formed	-3391
▁collect	-3392
▁remove	-3393
▁Trib	-3394
▁Utt	-3395
iva	-3396
body	-3397
ulations	-3398
▁week	-3399
cember	-3400
isement	-3401
▁sil	-3402
▁born	-3403
▁assign	-3404
ils	-3405
▁pack	-3406
▁Corpor	-3407
▁aspect	-3408
▁Prof	-3409
▁engine	-3410
ules	-3411
▁Sch	-3412
road	-3413
▁mentioned	-3414
▁Why	-3415
▁aw	-3416
▁generally	-3417
ze	-3418
▁Ay	-3419
▁Asse	-3420
▁hus	-3421
▁tri	-3422
▁ep	-3423
Allah	-3424
▁Search	-3425
▁systems	-3426
▁produced	-3427
▁poll	-3428
AY	-3429
▁forces	-3430
la	-3431
▁Kal	-3432
lt	-3433
istered	-3434
▁usually	-3435
▁destroyed	-3436
▁Cur	-3437
▁cy	-3438
▁wise	-3439
▁plants	-3440
atures	-3441
▁Chair	-3442
▁ideas	-3443
where	-3444
▁responsibility	-3445
▁novel	-3446
▁sight	-3447
cer	-3448
▁sold	-3449
▁Ved	-3450
▁pie	-3451
▁limit	-3452
▁50	-3453
▁cove	-3454
▁immediately	-3455
sy	-3456
▁sex	-3457
oured	-3458
porary	-3459
▁Today	-3460
oved	-3461
▁practice	-3462
▁Pri	-3463
▁3.	-3464
▁tried	-3465
▁contro	-3466
▁prosper	-3467
▁Supreme	-3468
▁associated	-3469
▁mand	-3470
▁note	-3471
ength	-3472
▁wishes	-3473
▁According	-3474
▁generation	-3475
▁26	-3476
▁animals	-3477
ctober	-3478
▁white	-3479
▁base	-3480
▁safe	-3481
rew	-3482
▁milit	-3483
▁presence	-3484
▁painful	-3485
▁Kashmir	-3486
co	-3487
umbai	-3488
▁Legisl	-3489
▁continued	-3490
oor	-3491
CC	-3492
▁units	-3493
▁content	-3494
▁statement	-3495
▁Enter	-3496
▁dream	-3497
-1	-3498
▁award	-3499
▁blind	-3500
▁II	-3501
▁Tem	-3502
▁ON	-3503
▁opportunities	-3504
▁Just	-3505
▁Mark	-3506
▁Program	-3507
▁banks	-3508
▁Dev	-3509
rick	-3510
▁poetry	-3511
▁regarding	-3512
▁fest	-3513
▁stor	-3514
▁serious	-3515
▁Pat	-3516
▁Any	-3517
▁active	-3518
Ind	-3519
▁pict	-3520
ching	-3521
▁feet	-3522
▁famous	-3523
▁American	-3524
▁correct	-3525
▁symb	-3526
▁forgiveness	-3527
omen	-3528
▁Yet	-3529
▁desp	-3530
▁anyone	-3531
▁Ser	-3532
▁cross	-3533
▁Islamic	-3534
OS	-3535
osing	-3536
▁imag	-3537
▁industries	-3538
▁item	-3539
▁revelations	-3540
▁companies	-3541
▁Explanation	-3542
▁numbers	-3543
IR	-3544
▁includes	-3545
rep	-3546
▁contains	-3547
▁Provided	-3548
▁medical	-3549
▁traditional	-3550
cend	-3551
▁Sri	-3552
▁obl	-3553
▁walk	-3554
ovember	-3555
arily	-3556
▁particularly	-3557
fect	-3558
▁gold	-3559
▁purch	-3560
▁version	-3561
▁greet	-3562
etic	-3563
▁conce	-3564
▁insect	-3565
▁workers	-3566
EL	-3567
▁please	-3568
▁directory	-3569
▁assistance	-3570
▁bow	-3571
▁Wise	-3572
▁legisl	-3573
▁increasing	-3574
▁circum	-3575
▁concept	-3576
right	-3577
aximum	-3578
▁tradition	-3579
▁Pakistan	-3580
enth	-3581
miss	-3582
view	-3583
▁fra	-3584
▁Shah	-3585
▁former	-3586
muk	-3587
▁War	-3588
adise	-3589
▁fully	-3590
▁fold	-3591
▁af	-3592
▁Conf	-3593
▁Address	-3594
▁plug	-3595
set	-3596
▁Only	-3597
▁supply	-3598
aksh	-3599
▁green	-3600
▁Hy	-3601
▁transport	-3602
9,	-3603
iers	-3604
ipur	-3605
▁granted	-3606
▁normal	-3607
▁petition	-3608
▁relevant	-3609
itle	-3610
▁supported	-3611
ties	-3612
rows	-3613
▁attempt	-3614
▁successful	-3615
▁prob	-3616
▁severe	-3617
ply	-3618
vious	-3619
▁Red	-3620
▁accordance	-3621
aches	-3622
▁Tag	-3623
cutta	-3624
5,	-3625
▁autom	-3626
▁session	-3627
▁limited	-3628
▁scientific	-3629
▁Adv	-3630
▁laid	-3631
▁select	-3632
▁Create	-3633
adi	-3634
iet	-3635
icial	-3636
iling	-3637
▁moon	-3638
ateral	-3639
iter	-3640
▁team	-3641
▁perhaps	-3642
▁sons	-3643
▁Tamil	-3644
▁spend	-3645
▁collection	-3646
▁contribution	-3647
▁Uttar	-3648
▁Message	-3649
▁Tur	-3650
▁police	-3651
▁23	-3652
▁ago	-3653
▁minister	-3654
asa	-3655
▁IT	-3656
▁Ty	-3657
▁Last	-3658
athe	-3659
▁respond	-3660
▁worth	-3661
▁software	-3662
▁broad	-3663
▁code	-3664
▁Start	-3665
▁Truth	-3666
▁final	-3667
▁moment	-3668
▁expenditure	-3669
ternet	-3670
▁serve	-3671
ids	-3672
▁Mal	-3673
ini	-3674
▁apost	-3675
text	-3676
▁Calcutta	-3677
▁Mo	-3678
▁distin	-3679
urt	-3680
ero	-3681
ptember	-3682
▁target	-3683
▁husband	-3684
izing	-3685
▁Tw	-3686
▁agriculture	-3687
▁January	-3688
rid	-3689
▁inj	-3690
▁repe	-3691
iverse	-3692
▁announ	-3693
▁Which	-3694
▁consist	-3695
ighty	-3696
lied	-3697
asth	-3698
▁prin	-3699
ellect	-3700
▁format	-3701
▁memory	-3702
itect	-3703
▁directly	-3704
▁film	-3705
▁advance	-3706
aug	-3707
▁dial	-3708
▁Pharaoh	-3709
▁mountains	-3710
apter	-3711
▁Bang	-3712
▁quick	-3713
▁expression	-3714
amental	-3715
▁sufficient	-3716
▁administration	-3717
avi	-3718
▁Pra	-3719
▁assets	-3720
▁jo	-3721
verse	-3722
▁challeng	-3723
dden	-3724
▁cities	-3725
▁attract	-3726
▁Lok	-3727
▁strateg	-3728
▁recommend	-3729
▁medic	-3730
▁looking	-3731
equ	-3732
▁Sah	-3733
▁villages	-3734
▁changed	-3735
▁covered	-3736
▁Thou	-3737
▁sacr	-3738
ores	-3739
uman	-3740
▁middle	-3741
▁paper	-3742
▁relationship	-3743
ugust	-3744
▁gods	-3745
ays	-3746
▁Ob	-3747
▁discip	-3748
▁denied	-3749
▁opinion	-3750
▁measures	-3751
▁Mumbai	-3752
▁prevent	-3753
▁separate	-3754
▁appropri	-3755
▁benefits	-3756
hab	-3757
▁travel	-3758
▁forgive	-3759
▁relation	-3760
ishn	-3761
▁192	-3762
▁laws	-3763
ae	-3764
▁drug	-3765
▁types	-3766
▁attention	-3767
icit	-3768
▁male	-3769
▁phot	-3770
ional	-3771
med	-3772
alty	-3773
hent	-3774
▁inside	-3775
▁speed	-3776
▁Management	-3777
obile	-3778
▁steps	-3779
▁occup	-3780
inite	-3781
▁weight	-3782
▁Abraham	-3783
▁Import	-3784
▁promised	-3785
1.	-3786
▁sides	-3787
▁transgress	-3788
▁Its	-3789
▁Organ	-3790
▁Bab	-3791
▁eye	-3792
order	-3793
▁cooperation	-3794
▁calc	-3795
▁standard	-3796
▁Children	-3797
▁faces	-3798
▁fruit	-3799
▁hours	-3800
▁Messengers	-3801
▁script	-3802
▁largest	-3803
▁sym	-3804
▁opened	-3805
▁effort	-3806
has	-3807
ateful	-3808
▁highest	-3809
▁IS	-3810
hru	-3811
▁officers	-3812
iii	-3813
▁card	-3814
▁qual	-3815
▁Forgiving	-3816
▁beautiful	-3817
▁straight	-3818
▁permission	-3819
▁dy	-3820
▁AND	-3821
▁milk	-3822
▁range	-3823
from	-3824
ulpt	-3825
▁wills	-3826
▁Bas	-3827
▁pred	-3828
hra	-3829
▁prot	-3830
▁Inst	-3831
▁proof	-3832
▁foot	-3833
▁length	-3834
▁arrange	-3835
▁longer	-3836
▁threat	-3837
▁twenty	-3838
▁chastisement	-3839
▁San	-3840
▁release	-3841
▁protection	-3842
▁extent	-3843
▁dram	-3844
▁stream	-3845
▁pattern	-3846
ratic	-3847
▁game	-3848
▁polic	-3849
inent	-3850
▁Western	-3851
▁calendar	-3852
▁esc	-3853
▁taste	-3854
▁connected	-3855
▁Ker	-3856
▁pure	-3857
osis	-3858
▁joint	-3859
▁shows	-3860
▁someone	-3861
▁documents	-3862
▁performance	-3863
yan	-3864
▁corru	-3865
▁extra	-3866
▁Sik	-3867
▁cam	-3868
▁upd	-3869
atha	-3870
add	-3871
arer	-3872
▁deemed	-3873
▁export	-3874
▁pan	-3875
iment	-3876
▁academ	-3877
!"	-3878
▁enemy	-3879
▁mechan	-3880
▁resident	-3881
▁appeal	-3882
pro	-3883
▁Wind	-3884
▁north	-3885
ken	-3886
ole	-3887
▁Port	-3888
▁Tax	-3889
PS	-3890
▁Jew	-3891
▁chief	-3892
▁implementation	-3893
▁June	-3894
▁played	-3895
▁nations	-3896
▁December	-3897
▁entered	-3898
▁fre	-3899
AC	-3900
▁Folder	-3901
▁Form	-3902
▁mental	-3903
It	-3904
▁included	-3905
▁educational	-3906
ously	-3907
▁execut	-3908
istration	-3909
▁completed	-3910
▁Well	-3911
fall	-3912
▁rupe	-3913
▁sins	-3914
tic	-3915
under	-3916
▁Copy	-3917
▁hosp	-3918
▁somet	-3919
▁violence	-3920
▁Inter	-3921
lict	-3922
▁standing	-3923
▁balance	-3924
▁leading	-3925
▁intellect	-3926
▁Char	-3927
▁height	-3928
▁rail	-3929
▁Bharat	-3930
6,	-3931
▁Inf	-3932
▁complex	-3933
▁construction	-3934
In	-3935
My	-3936
▁(%	-3937
▁Ann	-3938
▁centre	-3939
▁0.	-3940
▁exceed	-3941
▁knowing	-3942
▁doers	-3943
▁items	-3944
▁offe	-3945
hens	-3946
▁sudden	-3947
▁chann	-3948
▁Krishna	-3949
▁belief	-3950
And	-3951
▁saved	-3952
ops	-3953
▁furn	-3954
▁advice	-3955
▁struggle	-3956
oga	-3957
icip	-3958
▁funds	-3959
",	-3960
pir	-3961
leg	-3962
board	-3963
ilateral	-3964
▁watch	-3965
▁convey	-3966
▁Gujarat	-3967
▁otherwise	-3968
▁Bill	-3969
▁species	-3970
pper	-3971
ifying	-3972
▁PM	-3973
omin	-3974
pty	-3975
ography	-3976
▁Vis	-3977
▁repent	-3978
▁democracy	-3979
▁Time	-3980
mical	-3981
▁emph	-3982
▁Post	-3983
▁rank	-3984
▁stre	-3985
▁util	-3986
▁contain	-3987
▁Agricult	-3988
▁Ah	-3989
RL	-3990
rene	-3991
▁labour	-3992
▁apprec	-3993
▁ton	-3994
▁journey	-3995
pted	-3996
▁hyp	-3997
▁dwell	-3998
▁south	-3999
ferences	-4000
He	-4001
icated	-4002
▁Indians	-4003
▁Home	-4004
▁ready	-4005
NA	-4006
▁sister	-4007
▁operations	-4008
▁Dh	-4009
erous	-4010
▁config	-4011
▁minus	-4012
▁focus	-4013
▁Policy	-4014
asc	-4015
▁cry	-4016
▁First	-4017
▁pursu	-4018
▁stock	-4019
▁Finance	-4020
EE	-4021
gy	-4022
tered	-4023
▁employees	-4024
▁results	-4025
▁amend	-4026
▁Assist	-4027
press	-4028
▁stories	-4029
▁dece	-4030
▁Langu	-4031
▁Unable	-4032
▁functions	-4033
▁pleasure	-4034
▁drive	-4035
▁Bomb	-4036
▁Text	-4037
▁frame	-4038
▁unique	-4039
▁Sal	-4040
▁imper	-4041
▁Fund	-4042
▁fathers	-4043
▁located	-4044
▁circumst	-4045
▁(4	-4046
stituted	-4047
▁wood	-4048
▁grace	-4049
onse	-4050
▁Sol	-4051
enced	-4052
▁Back	-4053
ensive	-4054
▁October	-4055
▁Law	-4056
If	-4057
html	-4058
▁cou	-4059
▁Pass	-4060
▁hour	-4061
▁suc	-4062
▁significant	-4063
ula	-4064
▁heavy	-4065
▁territ	-4066
▁revolution	-4067
che	-4068
▁rise	-4069
▁commercial	-4070
ipt	-4071
▁tal	-4072
▁situ	-4073
▁domestic	-4074
▁site	-4075
ashtra	-4076
▁growing	-4077
▁Script	-4078
▁schemes	-4079
▁Aud	-4080
▁mighty	-4081
oll	-4082
▁named	-4083
▁Power	-4084
▁recent	-4085
▁table	-4086
▁gardens	-4087
▁consideration	-4088
▁More	-4089
▁perman	-4090
What	-4091
▁hot	-4092
▁useful	-4093
de	-4094
▁rock	-4095
▁Assembly	-4096
atically	-4097
▁Gr	-4098
uled	-4099
▁apart	-4100
▁valid	-4101
▁Ur	-4102
▁Hist	-4103
pranab	-4104
mukherjee	-4105
▁marriage	-4106
pranabmukherjee	-4107
▁facilit	-4108
▁storage	-4109
,"	-4110
▁stated	-4111
▁trees	-4112
ighb	-4113
raft	-4114
▁Nehru	-4115
▁leaves	-4116
CT	-4117
▁vac	-4118
▁staff	-4119
▁Science	-4120
▁adopted	-4121
▁CD	-4122
roud	-4123
odies	-4124
▁secure	-4125
▁block	-4126
▁SAW	-4127
aya	-4128
▁join	-4129
▁tool	-4130
',	-4131
apan	-4132
pense	-4133
▁Remove	-4134
4,	-4135
top	-4136
▁resol	-4137
ruary	-4138
itled	-4139
inery	-4140
▁Contact	-4141
▁Excell	-4142
igr	-4143
▁committed	-4144
▁prec	-4145
▁Delete	-4146
▁leader	-4147
▁divided	-4148
▁contained	-4149
ask	-4150
▁technical	-4151
▁mid	-4152
▁involved	-4153
ebruary	-4154
-201	-4155
resp	-4156
aker	-4157
▁sus	-4158
▁gain	-4159
▁powerful	-4160
▁helped	-4161
▁UN	-4162
▁engaged	-4163
▁pil	-4164
cause	-4165
▁media	-4166
▁Bombay	-4167
iry	-4168
▁Path	-4169
▁figure	-4170
▁temples	-4171
▁Secretary	-4172
▁declared	-4173
▁disob	-4174
osen	-4175
▁appropriate	-4176
▁cells	-4177
▁famil	-4178
▁consult	-4179
▁September	-4180
▁exists	-4181
▁payable	-4182
▁portion	-4183
▁fields	-4184
▁temper	-4185
▁praise	-4186
adh	-4187
▁sculpt	-4188
lication	-4189
▁consequ	-4190
▁Office	-4191
▁causes	-4192
▁questions	-4193
▁Gh	-4194
aters	-4195
fection	-4196
▁emphas	-4197
▁registered	-4198
aran	-4199
▁policies	-4200
▁architect	-4201
▁Head	-4202
▁amongst	-4203
ora	-4204
▁Pand	-4205
▁entry	-4206
▁model	-4207
▁divine	-4208
▁promote	-4209
▁November	-4210
▁thinking	-4211
1,	-4212
ests	-4213
▁Over	-4214
▁hearing	-4215
rust	-4216
▁won	-4217
▁military	-4218
AD	-4219
▁Bus	-4220
▁Nath	-4221
▁fruits	-4222
▁officer	-4223
▁reading	-4224
▁prostr	-4225
ications	-4226
▁processing	-4227
▁Nep	-4228
▁developing	-4229
▁profit	-4230
itch	-4231
▁Ret	-4232
▁withd	-4233
▁review	-4234
▁Edit	-4235
▁cloud	-4236
▁Image	-4237
▁extreme	-4238
▁reference	-4239
You	-4240
athy	-4241
▁capt	-4242
▁depart	-4243
▁neighb	-4244
▁deduction	-4245
▁animal	-4246
▁events	-4247
▁shape	-4248
▁22	-4249
rehens	-4250
▁Enable	-4251
urg	-4252
▁seed	-4253
▁families	-4254
▁4.	-4255
▁Gra	-4256
▁Satan	-4257
▁lines	-4258
▁lived	-4259
▁shares	-4260
mer	-4261
▁ID	-4262
ti	-4263
▁AT	-4264
pid	-4265
▁earn	-4266
▁China	-4267
▁email	-4268
arma	-4269
▁veget	-4270
▁symbol	-4271
nes	-4272
▁miss	-4273
▁track	-4274
▁images	-4275
▁succeed	-4276
▁external	-4277
▁influence	-4278
▁tid	-4279
iled	-4280
cher	-4281
▁seem	-4282
assion	-4283
Mu	-4284
▁Nay	-4285
▁corpor	-4286
▁expressed	-4287
▁gather	-4288
▁sometimes	-4289
iences	-4290
ounty	-4291
▁refuge	-4292
▁messengers	-4293
▁fit	-4294
▁circumstances	-4295
asons	-4296
xy	-4297
ogle	-4298
▁Inc	-4299
▁gar	-4300
umber	-4301
▁incl	-4302
▁likely	-4303
▁standards	-4304
3,	-4305
▁interests	-4306
like	-4307
▁needed	-4308
▁ST	-4309
▁nuc	-4310
▁excl	-4311
▁touch	-4312
▁seems	-4313
▁desires	-4314
▁remained	-4315
▁Car	-4316
▁Stand	-4317
▁Check	-4318
aging	-4319
▁Paradise	-4320
▁response	-4321
OL	-4322
▁magic	-4323
▁square	-4324
▁Unto	-4325
▁Her	-4326
▁waste	-4327
▁expand	-4328
▁Gandhiji	-4329
MS	-4330
uff	-4331
▁box	-4332
▁web	-4333
▁choose	-4334
inet	-4335
ought	-4336
shipp	-4337
▁Bihar	-4338
▁dance	-4339
▁dated	-4340
▁raise	-4341
ING	-4342
▁wel	-4343
▁pric	-4344
▁ignor	-4345
▁August	-4346
▁URL	-4347
▁attach	-4348
▁master	-4349
▁remains	-4350
icate	-4351
lies	-4352
grat	-4353
▁truly	-4354
▁variety	-4355
▁wo	-4356
enge	-4357
ression	-4358
▁Kerala	-4359
▁consciousness	-4360
▁taught	-4361
▁constitution	-4362
aja	-4363
▁fish	-4364
reprene	-4365
lying	-4366
▁compon	-4367
aur	-4368
atma	-4369
▁interp	-4370
▁killed	-4371
▁average	-4372
▁rejected	-4373
▁ball	-4374
▁fill	-4375
▁magn	-4376
▁quar	-4377
▁additional	-4378
llig	-4379
▁trial	-4380
▁Roy	-4381
▁extended	-4382
▁egg	-4383
▁location	-4384
▁worshipp	-4385
▁graph	-4386
▁remark	-4387
Muhammad	-4388
▁Knowing	-4389
unk	-4390
▁column	-4391
oming	-4392
oj	-4393
▁Nar	-4394
▁elements	-4395
▁Ear	-4396
▁mouth	-4397
▁enable	-4398
▁Chairman	-4399
▁calls	-4400
▁sup	-4401
ading	-4402
▁80	-4403
rain	-4404
usive	-4405
▁terrorism	-4406
IV	-4407
▁Also	-4408
▁levels	-4409
unal	-4410
▁School	-4411
▁surface	-4412
▁Conference	-4413
cast	-4414
▁wives	-4415
▁refers	-4416
uous	-4417
iance	-4418
▁Palest	-4419
▁chosen	-4420
olute	-4421
▁Corporation	-4422
▁partnership	-4423
▁191	-4424
▁input	-4425
▁proud	-4426
▁maintain	-4427
▁lack	-4428
▁trying	-4429
▁saf	-4430
icked	-4431
asthan	-4432
▁inaug	-4433
▁Exchange	-4434
aji	-4435
▁advant	-4436
▁evening	-4437
▁sectors	-4438
▁July	-4439
▁voice	-4440
▁cash	-4441
▁print	-4442
▁earned	-4443
▁perfect	-4444
▁whosoever	-4445
▁Fil	-4446
▁cop	-4447
▁Germ	-4448
▁Det	-4449
▁unf	-4450
iring	-4451
▁joy	-4452
▁medium	-4453
sec	-4454
▁skin	-4455
▁store	-4456
▁series	-4457
nded	-4458
vention	-4459
▁settle	-4460
▁poly	-4461
AM	-4462
▁27	-4463
▁Great	-4464
▁Japan	-4465
▁brings	-4466
▁described	-4467
▁difference	-4468
▁Di	-4469
erative	-4470
EM	-4471
▁avoid	-4472
▁28	-4473
▁Buddh	-4474
▁Att	-4475
my	-4476
anges	-4477
▁Turk	-4478
▁dang	-4479
▁worked	-4480
▁distance	-4481
II	-4482
▁2,	-4483
▁Soci	-4484
▁gets	-4485
▁plain	-4486
▁construct	-4487
▁quant	-4488
▁larger	-4489
▁machine	-4490
▁reflect	-4491
▁“”	-4492
▁prem	-4493
▁root	-4494
▁crops	-4495
actions	-4496
▁distribution	-4497
lick	-4498
▁diss	-4499
▁Maharashtra	-4500
▁independence	-4501
atter	-4502
▁hell	-4503
▁mutual	-4504
idy	-4505
ray	-4506
▁risk	-4507
aign	-4508
uries	-4509
▁expected	-4510
▁observed	-4511
▁abroad	-4512
▁Bhag	-4513
▁opening	-4514
▁Inte	-4515
▁died	-4516
▁cultiv	-4517
▁Fr	-4518
▁Som	-4519
ivered	-4520
▁forget	-4521
abh	-4522
▁poems	-4523
▁cattle	-4524
▁associate	-4525
overy	-4526
▁teachers	-4527
▁Elect	-4528
▁borrow	-4529
ube	-4530
eties	-4531
ifice	-4532
▁online	-4533
▁objective	-4534
▁dust	-4535
▁stead	-4536
▁output	-4537
▁Guru	-4538
▁clearly	-4539
▁brothers	-4540
▁applications	-4541
apt	-4542
▁truthful	-4543
▁Pres	-4544
▁fine	-4545
▁looked	-4546
▁sale	-4547
▁Hindus	-4548
ague	-4549
▁sleep	-4550
▁launched	-4551
pped	-4552
▁remem	-4553
▁tidings	-4554
aling	-4555
Our	-4556
▁Pan	-4557
▁Sum	-4558
▁Madh	-4559
▁determined	-4560
▁association	-4561
ught	-4562
▁annual	-4563
▁messenger	-4564
▁Had	-4565
▁listen	-4566
▁Mission	-4567
▁defined	-4568
▁European	-4569
▁introduced	-4570
ndra	-4571
ception	-4572
▁;	-4573
iny	-4574
▁friendly	-4575
▁pill	-4576
▁exercise	-4577
▁hidden	-4578
▁independent	-4579
olid	-4580
▁removed	-4581
▁wisdom	-4582
▁fellow	-4583
▁honour	-4584
▁Services	-4585
ius	-4586
ands	-4587
teen	-4588
▁Nob	-4589
▁deliver	-4590
▁majority	-4591
onal	-4592
▁screen	-4593
▁Chandra	-4594
▁rupees	-4595
▁academic	-4596
▁Description	-4597
verty	-4598
▁burden	-4599
▁February	-4600
▁Av	-4601
ahar	-4602
▁Men	-4603
pan	-4604
ocal	-4605
▁vast	-4606
istics	-4607
ologies	-4608
▁Because	-4609
▁glad	-4610
▁element	-4611
▁remote	-4612
▁poverty	-4613
▁Iran	-4614
▁convers	-4615
▁affairs	-4616
▁spent	-4617
▁Tagore	-4618
▁safety	-4619
▁throughout	-4620
oms	-4621
▁literary	-4622
ij	-4623
ousing	-4624
▁Change	-4625
nel	-4626
▁maximum	-4627
▁km	-4628
▁electric	-4629
For	-4630
▁songs	-4631
▁procedure	-4632
▁Did	-4633
▁hel	-4634
▁homes	-4635
▁Stat	-4636
▁confirm	-4637
▁delivered	-4638
ESS	-4639
alted	-4640
▁army	-4641
▁beauty	-4642
▁easily	-4643
▁station	-4644
▁ourselves	-4645
ARD	-4646
enture	-4647
▁impact	-4648
▁goal	-4649
▁initial	-4650
▁ideal	-4651
▁Sir	-4652
apers	-4653
▁submit	-4654
▁35	-4655
▁Ke	-4656
aram	-4657
ysis	-4658
▁trou	-4659
▁offered	-4660
▁Nav	-4661
▁cat	-4662
▁unc	-4663
▁studies	-4664
▁philosophy	-4665
▁Rail	-4666
▁gains	-4667
heduled	-4668
▁breast	-4669
OP	-4670
amet	-4671
▁equip	-4672
▁characters	-4673
▁Kum	-4674
▁Mag	-4675
itis	-4676
▁unity	-4677
▁contem	-4678
▁disbelieved	-4679
▁Ant	-4680
▁context	-4681
▁Division	-4682
▁assigned	-4683
ixt	-4684
enior	-4685
▁Karn	-4686
▁mort	-4687
▁Khan	-4688
venant	-4689
.0	-4690
▁confidence	-4691
isc	-4692
uties	-4693
▁moving	-4694
▁door	-4695
▁congrat	-4696
▁department	-4697
▁lad	-4698
▁distingu	-4699
▁greatest	-4700
irty	-4701
rone	-4702
▁Display	-4703
▁Rama	-4704
▁heed	-4705
▁birds	-4706
▁suffer	-4707
▁charges	-4708
abilities	-4709
▁fresh	-4710
▁Mahatma	-4711
▁Dem	-4712
▁bed	-4713
▁organisation	-4714
▁points	-4715
ML	-4716
▁views	-4717
▁soil	-4718
ika	-4719
▁dim	-4720
epend	-4721
▁griev	-4722
urate	-4723
TH	-4724
▁fle	-4725
elines	-4726
▁authent	-4727
▁hospital	-4728
▁Web	-4729
▁flag	-4730
▁History	-4731
gen	-4732
▁dry	-4733
▁seeking	-4734
▁approved	-4735
▁40	-4736
▁Prom	-4737
▁empty	-4738
▁Health	-4739
▁Network	-4740
▁District	-4741
ese	-4742
▁enterpr	-4743
ktop	-4744
▁lik	-4745
▁Both	-4746
▁schools	-4747
▁initiatives	-4748
▁Ext	-4749
▁rapid	-4750
▁Special	-4751
▁fert	-4752
▁communication	-4753
▁River	-4754
▁namely	-4755
▁Belie	-4756
era	-4757
cript	-4758
ira	-4759
▁debt	-4760
▁yield	-4761
▁dialog	-4762
▁Ham	-4763
▁inher	-4764
▁Social	-4765
▁divide	-4766
▁settings	-4767
chand	-4768
▁hide	-4769
▁kinds	-4770
▁souls	-4771
una	-4772
▁“%	-4773
▁acts	-4774
▁Rajasthan	-4775
▁Default	-4776
▁replied	-4777
▁articles	-4778
▁forbidden	-4779
▁jur	-4780
▁Akbar	-4781
▁innovation	-4782
oph	-4783
▁blessings	-4784
▁holding	-4785
▁wherein	-4786
AG	-4787
omp	-4788
▁{0}	-4789
▁Google	-4790
▁(3)	-4791
▁1961	-4792
▁Data	-4793
▁reduced	-4794
aped	-4795
▁Ste	-4796
▁mainly	-4797
osh	-4798
▁shr	-4799
▁habit	-4800
▁happen	-4801
▁kingdom	-4802
12	-4803
”.	-4804
mat	-4805
▁2000	-4806
▁oath	-4807
dule	-4808
▁Among	-4809
gra	-4810
▁Bad	-4811
▁gas	-4812
enses	-4813
▁sell	-4814
▁Colle	-4815
▁micro	-4816
▁merely	-4817
▁follows	-4818
▁pleased	-4819
▁profits	-4820
US	-4821
lfare	-4822
▁daily	-4823
▁welfare	-4824
▁machinery	-4825
ronic	-4826
▁conver	-4827
omy	-4828
▁Ra	-4829
▁prop	-4830
▁challenges	-4831
ux	-4832
aneous	-4833
▁season	-4834
▁organization	-4835
▁Lab	-4836
▁Nat	-4837
▁frequ	-4838
▁returns	-4839
▁vital	-4840
▁grand	-4841
▁sections	-4842
▁sort	-4843
BI	-4844
Do	-4845
▁IP	-4846
▁happened	-4847
▁undertaking	-4848
▁grad	-4849
▁Besides	-4850
imal	-4851
▁partner	-4852
▁devotion	-4853
▁appointment	-4854
anged	-4855
▁Himalay	-4856
▁Programme	-4857
▁Bel	-4858
▁neck	-4859
▁carrying	-4860
▁cra	-4861
▁excess	-4862
▁minor	-4863
▁intellig	-4864
▁generations	-4865
▁Since	-4866
osphere	-4867
▁minimum	-4868
▁Lim	-4869
▁ban	-4870
▁feeling	-4871
▁excellent	-4872
▁installed	-4873
▁promotion	-4874
atab	-4875
▁(19	-4876
▁lic	-4877
▁Each	-4878
▁turns	-4879
▁surround	-4880
▁Though	-4881
▁Mary	-4882
▁lest	-4883
▁wrongdo	-4884
▁altern	-4885
▁prison	-4886
▁recompense	-4887
▁Water	-4888
▁Second	-4889
ATION	-4890
venue	-4891
▁utter	-4892
▁sought	-4893
▁sustain	-4894
11	-4895
phone	-4896
▁primary	-4897
▁authorities	-4898
▁fat	-4899
rency	-4900
▁cook	-4901
▁wants	-4902
▁creating	-4903
▁practices	-4904
ja	-4905
arant	-4906
▁slow	-4907
▁Two	-4908
▁mal	-4909
respond	-4910
aying	-4911
▁notification	-4912
▁...	-4913
▁Key	-4914
▁rej	-4915
▁nine	-4916
▁joined	-4917
▁regional	-4918
▁Environment	-4919
ilty	-4920
▁buy	-4921
arati	-4922
▁attrib	-4923
▁keeping	-4924
▁battle	-4925
ET	-4926
▁Mer	-4927
▁Free	-4928
▁urban	-4929
▁encoura	-4930
▁covenant	-4931
▁See	-4932
▁Bengali	-4933
▁Official	-4934
rate	-4935
▁nut	-4936
▁Commun	-4937
▁highly	-4938
izations	-4939
▁mir	-4940
▁library	-4941
achal	-4942
▁cold	-4943
▁prepar	-4944
▁Type	-4945
▁affected	-4946
▁Financial	-4947
▁MS	-4948
▁campaign	-4949
▁thank	-4950
▁ult	-4951
ancing	-4952
▁5.	-4953
▁dispute	-4954
ips	-4955
▁branch	-4956
▁household	-4957
▁huge	-4958
asi	-4959
aces	-4960
▁cance	-4961
vis	-4962
▁Cap	-4963
▁ast	-4964
▁receipt	-4965
▁festival	-4966
▁plat	-4967
conomic	-4968
▁diseases	-4969
▁Aff	-4970
▁resource	-4971
lly	-4972
rees	-4973
▁individuals	-4974
gin	-4975
▁filled	-4976
▁completely	-4977
▁Certificate	-4978
▁destination	-4979
iciency	-4980
▁wonder	-4981
▁Members	-4982
UN	-4983
ataka	-4984
vision	-4985
▁positive	-4986
▁believing	-4987
▁communities	-4988
roll	-4989
▁Hour	-4990
▁mist	-4991
▁degree	-4992
▁prosperity	-4993
▁east	-4994
▁ji	-4995
▁sett	-4996
▁Language	-4997
▁wild	-4998
▁Rules	-4999
▁critic	-5000
ollow	-5001
▁Arch	-5002
▁Aust	-5003
▁cand	-5004
▁tong	-5005
oot	-5006
▁reasons	-5007
▁darkness	-5008
▁Emp	-5009
▁submitted	-5010
▁probably	-5011
▁Authority	-5012
▁drawn	-5013
▁colour	-5014
▁cru	-5015
▁bab	-5016
▁opt	-5017
▁Russ	-5018
▁Assam	-5019
ensation	-5020
▁confident	-5021
▁Date	-5022
▁garden	-5023
▁rare	-5024
▁theme	-5025
▁actual	-5026
▁Gardens	-5027
iate	-5028
▁Excellency	-5029
ander	-5030
▁impl	-5031
ishing	-5032
▁Ganga	-5033
▁delivery	-5034
▁integral	-5035
▁materials	-5036
▁board	-5037
tenance	-5038
▁requirements	-5039
▁latter	-5040
▁reality	-5041
▁guilty	-5042
▁relief	-5043
udget	-5044
▁demon	-5045
▁agreed	-5046
▁learned	-5047
▁entitled	-5048
▁Bu	-5049
▁moral	-5050
een	-5051
▁syn	-5052
▁jinn	-5053
icient	-5054
▁latest	-5055
▁pressure	-5056
seen	-5057
▁distrib	-5058
▁passing	-5059
DE	-5060
▁Non	-5061
▁crim	-5062
▁visible	-5063
▁features	-5064
ura	-5065
▁Est	-5066
▁Kov	-5067
▁sick	-5068
▁Click	-5069
▁greetings	-5070
▁ende	-5071
▁SH	-5072
ertain	-5073
▁wronged	-5074
▁girl	-5075
▁late	-5076
▁leadership	-5077
igible	-5078
▁volunt	-5079
pic	-5080
▁Joh	-5081
arian	-5082
ricts	-5083
▁Panch	-5084
▁Company	-5085
TP	-5086
▁aid	-5087
oseph	-5088
▁Foreign	-5089
▁aspects	-5090
mi	-5091
▁bodies	-5092
▁picture	-5093
▁Speaking	-5094
▁Ib	-5095
ped	-5096
▁duties	-5097
▁everyone	-5098
▁2014	-5099
▁Library	-5100
▁thereby	-5101
Is	-5102
eting	-5103
▁mission	-5104
▁disput	-5105
▁principles	-5106
▁England	-5107
▁yourself	-5108
▁correspond	-5109
ayana	-5110
▁sacred	-5111
▁regions	-5112
▁meant	-5113
▁universal	-5114
▁adequ	-5115
imately	-5116
valid	-5117
▁seized	-5118
▁shared	-5119
▁facility	-5120
amin	-5121
▁reforms	-5122
▁reply	-5123
50	-5124
othe	-5125
▁internal	-5126
▁teaching	-5127
CE	-5128
ayan	-5129
▁juris	-5130
▁performed	-5131
▁selection	-5132
▁fab	-5133
▁fell	-5134
▁hypoc	-5135
▁substant	-5136
▁iron	-5137
▁moved	-5138
▁Andhra	-5139
▁encourage	-5140
▁tiss	-5141
▁Trust	-5142
▁resolution	-5143
▁Park	-5144
▁hair	-5145
▁assum	-5146
▁collabor	-5147
▁description	-5148
hu	-5149
force	-5150
charge	-5151
▁editor	-5152
▁methods	-5153
▁background	-5154
▁Yoga	-5155
▁compr	-5156
▁string	-5157
▁foundation	-5158
▁incident	-5159
AB	-5160
aul	-5161
▁Subs	-5162
▁estim	-5163
▁prices	-5164
▁victory	-5165
▁although	-5166
▁inspired	-5167
▁60	-5168
▁click	-5169
▁College	-5170
ester	-5171
▁dear	-5172
▁participation	-5173
clause	-5174
▁planning	-5175
ifications	-5176
▁Life	-5177
▁button	-5178
box	-5179
cean	-5180
▁Word	-5181
isition	-5182
▁establishment	-5183
iber	-5184
▁beings	-5185
athi	-5186
▁west	-5187
▁title	-5188
▁users	-5189
▁myself	-5190
▁delight	-5191
▁petitioner	-5192
▁ic	-5193
▁tab	-5194
urities	-5195
▁Internet	-5196
▁division	-5197
▁entreprene	-5198
▁governance	-5199
UL	-5200
▁uns	-5201
-2018	-5202
▁bestowed	-5203
▁Governments	-5204
▁inner	-5205
▁Current	-5206
▁released	-5207
▁intellectual	-5208
▁ahead	-5209
▁trave	-5210
▁forever	-5211
▁transform	-5212
asm	-5213
▁Mail	-5214
▁admon	-5215
odes	-5216
▁ang	-5217
inger	-5218
rench	-5219
▁daughter	-5220
▁suitable	-5221
ache	-5222
▁audio	-5223
OC	-5224
ricket	-5225
▁Sun	-5226
oning	-5227
▁Config	-5228
▁double	-5229
▁limits	-5230
ERS	-5231
▁Like	-5232
▁arrest	-5233
▁nearly	-5234
▁channel	-5235
▁options	-5236
▁attached	-5237
▁Scripture	-5238
itt	-5239
grim	-5240
ocol	-5241
sych	-5242
▁tur	-5243
astic	-5244
bell	-5245
rible	-5246
othing	-5247
▁Export	-5248
▁delete	-5249
▁critical	-5250
▁exact	-5251
▁endeav	-5252
▁Reserve	-5253
▁folders	-5254
▁sources	-5255
ka	-5256
▁challenge	-5257
▁insurance	-5258
▁registration	-5259
thy	-5260
▁sacrifice	-5261
▁Self	-5262
▁climate	-5263
▁defence	-5264
▁deposit	-5265
▁Send	-5266
▁crop	-5267
▁grass	-5268
▁plays	-5269
▁consists	-5270
pel	-5271
▁Kar	-5272
ottom	-5273
▁enabled	-5274
▁Custom	-5275
▁Mighty	-5276
VD	-5277
▁plugin	-5278
▁Maj	-5279
▁actions	-5280
▁Docu	-5281
▁Number	-5282
▁changing	-5283
▁HT	-5284
▁stood	-5285
▁Independ	-5286
ams	-5287
mar	-5288
▁atm	-5289
▁hero	-5290
gypt	-5291
▁manager	-5292
▁pi	-5293
▁190	-5294
▁Invalid	-5295
▁subjects	-5296
eks	-5297
▁obst	-5298
▁About	-5299
▁Micro	-5300
▁containing	-5301
▁Color	-5302
▁Ash	-5303
ingly	-5304
ondon	-5305
▁achieved	-5306
india	-5307
atience	-5308
▁Buddha	-5309
ipl	-5310
▁AS	-5311
▁Sk	-5312
▁Autom	-5313
▁waiting	-5314
▁recently	-5315
mn	-5316
▁00	-5317
isms	-5318
writ	-5319
▁Disc	-5320
▁orders	-5321
▁platform	-5322
▁Assistant	-5323
▁reminder	-5324
acter	-5325
ients	-5326
▁upper	-5327
▁Print	-5328
▁charged	-5329
idge	-5330
▁sand	-5331
look	-5332
▁glor	-5333
▁Mount	-5334
▁letters	-5335
▁bilateral	-5336
▁publication	-5337
ifies	-5338
▁reduce	-5339
▁failure	-5340
▁agencies	-5341
▁Nag	-5342
▁nuclear	-5343
using	-5344
orial	-5345
▁surv	-5346
▁Press	-5347
▁centres	-5348
▁historical	-5349
▁Knower	-5350
▁Princip	-5351
▁treated	-5352
▁examination	-5353
rical	-5354
▁Tour	-5355
▁Kovind	-5356
▁insects	-5357
▁mountain	-5358
iy	-5359
▁Met	-5360
iders	-5361
▁proved	-5362
▁proport	-5363
overed	-5364
▁swear	-5365
▁reports	-5366
▁fighting	-5367
iant	-5368
▁Tru	-5369
▁ax	-5370
▁Another	-5371
▁approval	-5372
▁multiple	-5373
ubs	-5374
▁priority	-5375
▁suffering	-5376
▁Proper	-5377
▁counter	-5378
hern	-5379
▁Bah	-5380
▁row	-5381
▁scholar	-5382
▁recorded	-5383
▁sanction	-5384
▁doub	-5385
▁Civil	-5386
diction	-5387
▁extension	-5388
bal	-5389
▁Nepal	-5390
▁thanks	-5391
▁SC	-5392
▁Pet	-5393
▁star	-5394
▁Prote	-5395
▁purchase	-5396
essing	-5397
▁relative	-5398
▁witnesses	-5399
▁Mun	-5400
▁anti	-5401
▁infl	-5402
▁liqu	-5403
▁Party	-5404
▁Palestin	-5405
▁Tribunal	-5406
▁register	-5407
▁advantage	-5408
▁awareness	-5409
▁commanded	-5410
▁forgiving	-5411
hand	-5412
▁flu	-5413
▁Make	-5414
▁Society	-5415
atabase	-5416
▁served	-5417
▁fabric	-5418
▁visited	-5419
▁chemical	-5420
▁tend	-5421
▁distinct	-5422
▁01	-5423
ithm	-5424
▁Egypt	-5425
▁volume	-5426
▁manufacturing	-5427
▁marked	-5428
ho	-5429
▁Ira	-5430
▁plot	-5431
▁requires	-5432
oration	-5433
stitu	-5434
▁reck	-5435
▁Associ	-5436
▁figures	-5437
God	-5438
▁caste	-5439
▁seeing	-5440
▁Pen	-5441
▁Modi	-5442
dess	-5443
▁Class	-5444
▁newsp	-5445
iration	-5446
▁warner	-5447
▁AD	-5448
rant	-5449
▁ren	-5450
▁signed	-5451
▁Enc	-5452
▁hind	-5453
▁president	-5454
fts	-5455
▁refer	-5456
▁courage	-5457
▁instance	-5458
oral	-5459
▁piece	-5460
▁London	-5461
▁guides	-5462
▁situated	-5463
▁Play	-5464
▁whereas	-5465
5)	-5466
back	-5467
▁Creat	-5468
▁Gov	-5469
thern	-5470
▁Code	-5471
▁leaf	-5472
▁minutes	-5473
▁Training	-5474
▁constituted	-5475
▁manufacture	-5476
▁mobile	-5477
▁monitor	-5478
▁universities	-5479
▁Po	-5480
▁fault	-5481
▁match	-5482
▁happiness	-5483
▁Writ	-5484
astern	-5485
▁absolute	-5486
oti	-5487
oose	-5488
hance	-5489
imb	-5490
ammu	-5491
▁Once	-5492
▁preced	-5493
▁contacts	-5494
▁faithful	-5495
▁Cult	-5496
enance	-5497
▁phase	-5498
▁ability	-5499
▁incor	-5500
▁subsequ	-5501
▁BC	-5502
ammed	-5503
otic	-5504
▁lock	-5505
▁privile	-5506
▁proceedings	-5507
alg	-5508
ghan	-5509
plit	-5510
▁eleph	-5511
▁election	-5512
▁Va	-5513
esus	-5514
rief	-5515
▁heat	-5516
▁Prem	-5517
▁poem	-5518
▁Karnataka	-5519
▁commitment	-5520
▁successfully	-5521
esty	-5522
▁Stud	-5523
▁dign	-5524
▁interesting	-5525
▁Benef	-5526
▁healthy	-5527
raid	-5528
athered	-5529
▁Justice	-5530
orthern	-5531
▁appears	-5532
▁banking	-5533
▁replace	-5534
▁showing	-5535
rehensive	-5536
▁officials	-5537
▁Top	-5538
▁hop	-5539
▁descend	-5540
▁Log	-5541
▁Year	-5542
▁decades	-5543
▁records	-5544
▁warning	-5545
▁parliament	-5546
aly	-5547
▁Arabic	-5548
claim	-5549
▁grown	-5550
▁looks	-5551
▁burning	-5552
Pro	-5553
pta	-5554
▁DVD	-5555
plate	-5556
▁Iraq	-5557
▁Jews	-5558
▁weeks	-5559
▁Before	-5560
▁bright	-5561
▁assured	-5562
▁Security	-5563
▁supreme	-5564
▁falsehood	-5565
“”	-5566
▁Next	-5567
inated	-5568
▁defend	-5569
▁student	-5570
▁fundamental	-5571
aded	-5572
going	-5573
▁quot	-5574
mendment	-5575
mod	-5576
▁notes	-5577
▁toward	-5578
▁discussion	-5579
▁announced	-5580
▁2006	-5581
▁delay	-5582
erves	-5583
▁Help	-5584
▁factors	-5585
▁principle	-5586
ses	-5587
rated	-5588
▁2013	-5589
▁bran	-5590
▁Vishn	-5591
▁writer	-5592
▁smaller	-5593
▁Administr	-5594
lal	-5595
▁Don	-5596
▁Page	-5597
▁rates	-5598
▁tonnes	-5599
▁scholars	-5600
greg	-5601
▁Clear	-5602
▁Jammu	-5603
▁admit	-5604
▁scientists	-5605
▁Rad	-5606
ittees	-5607
luding	-5608
▁sitting	-5609
▁friendship	-5610
▁jurisdiction	-5611
▁Find	-5612
▁Brahm	-5613
ibilities	-5614
▁eth	-5615
▁reb	-5616
▁veh	-5617
erted	-5618
▁disk	-5619
anging	-5620
▁spoke	-5621
aughters	-5622
▁accident	-5623
▁Sind	-5624
▁herit	-5625
▁overt	-5626
▁Invest	-5627
▁followers	-5628
▁mur	-5629
▁Noah	-5630
▁coord	-5631
▁helps	-5632
▁democratic	-5633
rel	-5634
eless	-5635
abinet	-5636
ulating	-5637
▁merciful	-5638
▁proposed	-5639
▁Mand	-5640
▁coal	-5641
▁Rajya	-5642
▁abode	-5643
▁efficient	-5644
oken	-5645
▁Human	-5646
▁orient	-5647
▁unable	-5648
▁applied	-5649
▁offline	-5650
▁bringing	-5651
▁transferred	-5652
▁valu	-5653
▁abund	-5654
▁phone	-5655
▁objects	-5656
▁recognised	-5657
▁professional	-5658
bon	-5659
▁bes	-5660
holders	-5661
▁decide	-5662
▁becoming	-5663
▁conflict	-5664
▁uses	-5665
▁Nan	-5666
▁negative	-5667
10	-5668
UT	-5669
▁2005	-5670
▁exec	-5671
▁sole	-5672
det	-5673
▁bene	-5674
▁weap	-5675
pected	-5676
▁deleg	-5677
▁explo	-5678
▁doctor	-5679
▁showed	-5680
▁acquired	-5681
▁Application	-5682
oples	-5683
▁Call	-5684
▁hill	-5685
▁heritage	-5686
▁obtained	-5687
▁whatsoever	-5688
wa	-5689
apur	-5690
▁2007	-5691
▁courts	-5692
▁Process	-5693
▁elected	-5694
▁engineering	-5695
▁translation	-5696
▁skill	-5697
▁Sl	-5698
▁Unknown	-5699
▁married	-5700
▁Legislative	-5701
inity	-5702
▁Bose	-5703
▁abide	-5704
▁sugar	-5705
▁concent	-5706
▁instruments	-5707
▁Nare	-5708
▁Mahab	-5709
last	-5710
▁Down	-5711
▁currently	-5712
▁29	-5713
▁surpr	-5714
▁implemented	-5715
issa	-5716
▁effects	-5717
▁currency	-5718
anya	-5719
vent	-5720
▁Women	-5721
▁withdraw	-5722
▁daughters	-5723
ouch	-5724
▁drop	-5725
▁arrog	-5726
▁sending	-5727
▁Business	-5728
▁download	-5729
▁patience	-5730
▁Ka	-5731
▁eld	-5732
▁enhan	-5733
▁politics	-5734
IP	-5735
▁irr	-5736
▁adult	-5737
isations	-5738
▁FOR	-5739
▁cave	-5740
▁rice	-5741
▁candid	-5742
▁dispos	-5743
▁recall	-5744
▁1961-2018	-5745
▁recon	-5746
▁classes	-5747
quest	-5748
▁decisions	-5749
.—	-5750
ila	-5751
▁3,	-5752
aced	-5753
osit	-5754
▁compassion	-5755
▁Joseph	-5756
▁choice	-5757
▁destruction	-5758
▁administrative	-5759
had	-5760
▁ears	-5761
▁pollution	-5762
VE	-5763
▁Fort	-5764
▁Would	-5765
▁indig	-5766
▁damage	-5767
▁Ben	-5768
▁Mother	-5769
▁skills	-5770
▁dia	-5771
▁sends	-5772
▁hasten	-5773
▁playing	-5774
▁behold	-5775
▁Ent	-5776
No	-5777
▁doesn	-5778
▁attain	-5779
▁factor	-5780
▁obvious	-5781
▁appeared	-5782
▁objectives	-5783
omic	-5784
will	-5785
ormal	-5786
▁Found	-5787
▁technologies	-5788
▁gathered	-5789
ww	-5790
wor	-5791
rier	-5792
▁fee	-5793
rites	-5794
▁lawful	-5795
ployment	-5796
▁compared	-5797
▁equipment	-5798
▁maintenance	-5799
▁Hon	-5800
▁escape	-5801
▁Affairs	-5802
▁ordinary	-5803
▁initiative	-5804
oser	-5805
▁Nadu	-5806
▁bounty	-5807
▁Kan	-5808
▁minds	-5809
▁noted	-5810
▁operating	-5811
lands	-5812
▁recip	-5813
▁permanent	-5814
alt	-5815
ishes	-5816
▁amb	-5817
▁Mugh	-5818
▁Afghan	-5819
▁stands	-5820
▁interpret	-5821
▁organized	-5822
▁university	-5823
iversary	-5824
▁archive	-5825
aman	-5826
▁CON	-5827
▁Yes	-5828
▁thoughts	-5829
MP	-5830
▁-.	-5831
ceeds	-5832
▁drugs	-5833
▁inherit	-5834
▁argument	-5835
▁organised	-5836
▁corruption	-5837
umer	-5838
▁adequate	-5839
▁western	-5840
▁Ministers	-5841
▁conducted	-5842
▁org	-5843
▁Mult	-5844
▁hall	-5845
omever	-5846
pective	-5847
▁Control	-5848
van	-5849
▁Dec	-5850
▁Ref	-5851
▁facts	-5852
▁compar	-5853
▁addressed	-5854
rat	-5855
▁Ali	-5856
▁Tel	-5857
▁rob	-5858
▁Kumar	-5859
▁prose	-5860
▁Chapter	-5861
▁maintained	-5862
inese	-5863
▁holds	-5864
▁afford	-5865
rad	-5866
▁CH	-5867
redit	-5868
ofindia	-5869
▁agency	-5870
▁settled	-5871
▁unknown	-5872
izon	-5873
▁kil	-5874
▁rent	-5875
▁constant	-5876
▁John	-5877
▁afraid	-5878
president	-5879
▁examples	-5880
ossible	-5881
▁enemies	-5882
▁weather	-5883
▁Industrial	-5884
fast	-5885
oned	-5886
▁Das	-5887
▁welcome	-5888
ankar	-5889
ensions	-5890
▁citizen	-5891
▁territory	-5892
▁GN	-5893
▁mos	-5894
▁Load	-5895
▁arms	-5896
▁Vishnu	-5897
▁resist	-5898
▁struct	-5899
▁thirty	-5900
▁suddenly	-5901
▁conference	-5902
)?	-5903
60	-5904
udi	-5905
▁cow	-5906
▁Remember	-5907
▁centuries	-5908
ni	-5909
antic	-5910
▁incur	-5911
▁desert	-5912
▁willed	-5913
▁identified	-5914
,—	-5915
www	-5916
alle	-5917
release	-5918
▁chance	-5919
presidentofindia	-5920
▁32	-5921
▁Tri	-5922
▁didn	-5923
▁pages	-5924
▁covering	-5925
▁dedicated	-5926
ially	-5927
▁lose	-5928
▁solution	-5929
izes	-5930
▁Gaz	-5931
▁evol	-5932
▁blessed	-5933
▁marketing	-5934
RE	-5935
Sh	-5936
itual	-5937
▁Frie	-5938
▁inval	-5939
▁atmosphere	-5940
ros	-5941
anas	-5942
brance	-5943
detail	-5944
▁solar	-5945
▁contents	-5946
arya	-5947
▁stars	-5948
▁transaction	-5949
▁bul	-5950
ourse	-5951
▁motion	-5952
odh	-5953
▁6.	-5954
▁attitude	-5955
▁demonstr	-5956
▁Files	-5957
▁prime	-5958
▁aims	-5959
▁favor	-5960
▁designed	-5961
▁eligible	-5962
▁Kab	-5963
▁rid	-5964
▁feature	-5965
▁finance	-5966
▁thousands	-5967
ST	-5968
▁tom	-5969
▁tasks	-5970
▁branches	-5971
▁wr	-5972
▁Jaw	-5973
▁vir	-5974
▁Flag	-5975
▁Musa	-5976
▁psych	-5977
▁closed	-5978
eal	-5979
▁ment	-5980
▁Whoever	-5981
▁guarant	-5982
▁medicine	-5983
▁terrible	-5984
▁substance	-5985
▁senior	-5986
▁peoples	-5987
▁districts	-5988
▁Hyder	-5989
▁finally	-5990
place	-5991
▁Sard	-5992
▁spot	-5993
▁Engine	-5994
▁Although	-5995
▁Regional	-5996
▁grateful	-5997
▁electricity	-5998
▁Judge	-5999
▁Middle	-6000
▁Austral	-6001
,'	-6002
▁Orissa	-6003
▁enhance	-6004
▁squared	-6005
je	-6006
▁il	-6007
▁Alm	-6008
▁idol	-6009
▁sanct	-6010
▁reported	-6011
atre	-6012
▁Jag	-6013
▁Good	-6014
▁Swami	-6015
▁blame	-6016
▁prayers	-6017
▁Christian	-6018
▁Ha	-6019
▁wage	-6020
▁flowers	-6021
▁pilgrim	-6022
▁2008	-6023
▁brows	-6024
▁Report	-6025
▁respective	-6026
isis	-6027
▁SP	-6028
▁memo	-6029
iments	-6030
▁strike	-6031
luded	-6032
▁costs	-6033
▁launch	-6034
ga	-6035
ette	-6036
▁offices	-6037
▁principal	-6038
▁brain	-6039
▁billion	-6040
▁felicit	-6041
▁identity	-6042
anta	-6043
lets	-6044
▁2002	-6045
▁brief	-6046
▁heads	-6047
▁marry	-6048
▁sweet	-6049
▁configuration	-6050
▁Ter	-6051
▁hrs	-6052
▁Best	-6053
▁User	-6054
ica	-6055
umin	-6056
▁font	-6057
rome	-6058
▁fourth	-6059
▁turning	-6060
iced	-6061
▁Sikh	-6062
▁Forest	-6063
ien	-6064
▁train	-6065
▁Ara	-6066
▁dog	-6067
ndered	-6068
▁ritual	-6069
▁theory	-6070
▁Agriculture	-6071
osers	-6072
▁Close	-6073
▁thereafter	-6074
▁Exe	-6075
▁discl	-6076
▁commod	-6077
ansion	-6078
▁Similar	-6079
▁Choose	-6080
▁whenever	-6081
▁Bin	-6082
▁ble	-6083
cutive	-6084
▁links	-6085
▁throw	-6086
▁ec	-6087
▁mock	-6088
oles	-6089
▁lif	-6090
▁Force	-6091
▁Rural	-6092
▁Small	-6093
▁simpl	-6094
▁width	-6095
▁occurred	-6096
▁committee	-6097
▁Rest	-6098
▁blue	-6099
▁Compan	-6100
▁Nature	-6101
▁fertil	-6102
▁advanced	-6103
elve	-6104
essor	-6105
▁forgot	-6106
▁Chinese	-6107
▁Univers	-6108
▁500	-6109
▁tim	-6110
acific	-6111
▁categ	-6112
▁coast	-6113
EP	-6114
FC	-6115
ster	-6116
▁Produ	-6117
▁broken	-6118
▁whomever	-6119
ranath	-6120
▁temporary	-6121
unction	-6122
▁elections	-6123
▁processes	-6124
ladesh	-6125
▁oblig	-6126
▁adjust	-6127
▁markets	-6128
▁Believers	-6129
agh	-6130
aut	-6131
▁crow	-6132
anj	-6133
▁Muse	-6134
▁Article	-6135
▁properly	-6136
▁penalty	-6137
▁Independence	-6138
▁Id	-6139
▁gate	-6140
▁judgment	-6141
uta	-6142
▁Ye	-6143
▁2016	-6144
▁Adam	-6145
▁Vice	-6146
▁upgr	-6147
▁seemed	-6148
▁mad	-6149
osure	-6150
▁band	-6151
▁analysis	-6152
yl	-6153
pers	-6154
▁backs	-6155
▁union	-6156
▁reveal	-6157
▁arrived	-6158
▁Signs	-6159
▁Command	-6160
▁Eastern	-6161
▁Speaker	-6162
▁creative	-6163
.%	-6164
avid	-6165
▁undertaken	-6166
▁Pay	-6167
▁Sud	-6168
anish	-6169
▁rout	-6170
▁comfort	-6171
▁disbelief	-6172
▁movements	-6173
▁curs	-6174
▁189	-6175
▁Mos	-6176
marks	-6177
▁surre	-6178
▁properties	-6179
wan	-6180
▁suit	-6181
▁absence	-6182
▁accused	-6183
sha	-6184
▁menu	-6185
▁pled	-6186
▁informed	-6187
atio	-6188
ping	-6189
▁loans	-6190
▁functioning	-6191
hus	-6192
▁alt	-6193
▁orph	-6194
olkata	-6195
▁inhab	-6196
▁pride	-6197
▁mostly	-6198
▁displayed	-6199
akti	-6200
▁leads	-6201
▁capable	-6202
▁Divine	-6203
cont	-6204
quiry	-6205
▁roof	-6206
▁runs	-6207
▁Aware	-6208
▁poets	-6209
▁sorrow	-6210
▁accompan	-6211
▁tomorrow	-6212
▁bind	-6213
▁center	-6214
tes	-6215
ipes	-6216
aints	-6217
▁2015	-6218
▁plans	-6219
▁Options	-6220
▁immense	-6221
▁applicable	-6222
▁environmental	-6223
▁Az	-6224
onds	-6225
▁sad	-6226
▁fifty	-6227
▁multi	-6228
▁Judgment	-6229
yr	-6230
ola	-6231
▁aside	-6232
king	-6233
▁End	-6234
▁zero	-6235
▁Limited	-6236
▁organizations	-6237
oked	-6238
oring	-6239
▁filter	-6240
▁liquid	-6241
▁comment	-6242
▁expenses	-6243
pet	-6244
ibly	-6245
asant	-6246
▁Circ	-6247
edient	-6248
▁deity	-6249
ourable	-6250
▁journal	-6251
▁Settings	-6252
▁differences	-6253
30	-6254
SS	-6255
TER	-6256
lude	-6257
mary	-6258
▁afflic	-6259
▁fulfil	-6260
▁temperature	-6261
phets	-6262
▁Read	-6263
▁girls	-6264
▁Hyderabad	-6265
▁possession	-6266
ym	-6267
iger	-6268
ports	-6269
raction	-6270
▁losers	-6271
▁Principal	-6272
▁compensation	-6273
stood	-6274
aviour	-6275
▁employee	-6276
uity	-6277
▁Awards	-6278
▁bottom	-6279
▁governments	-6280
apa	-6281
▁pu	-6282
▁emotion	-6283
▁apostles	-6284
pto	-6285
▁75	-6286
osite	-6287
▁City	-6288
▁Tele	-6289
▁Apost	-6290
▁horse	-6291
▁expert	-6292
▁grieve	-6293
▁Institut	-6294
▁humanity	-6295
zz	-6296
▁.	-6297
uit	-6298
char	-6299
▁fulfilled	-6300
▁sustenance	-6301
▁Oper	-6302
▁sequ	-6303
▁Subhas	-6304
▁category	-6305
▁represents	-6306
▁fed	-6307
▁worlds	-6308
▁outstanding	-6309
urved	-6310
▁French	-6311
▁apostle	-6312
▁El	-6313
while	-6314
criber	-6315
▁concl	-6316
▁exhib	-6317
▁Certain	-6318
▁sculpture	-6319
▁7.	-6320
ested	-6321
gor	-6322
▁Inn	-6323
iated	-6324
isher	-6325
▁hurt	-6326
▁simply	-6327
operative	-6328
▁Bur	-6329
asters	-6330
▁Server	-6331
▁188	-6332
▁mel	-6333
plete	-6334
▁deeply	-6335
▁extremely	-6336
▁automatically	-6337
ena	-6338
uli	-6339
▁decor	-6340
▁walls	-6341
▁deleted	-6342
wered	-6343
▁Food	-6344
▁Museum	-6345
▁formal	-6346
▁entirely	-6347
▁illust	-6348
▁Ban	-6349
▁Nations	-6350
▁equally	-6351
▁creatures	-6352
▁sor	-6353
▁formation	-6354
▁commission	-6355
▁wrongdoers	-6356
▁Gan	-6357
▁Tool	-6358
▁Narendra	-6359
▁4,	-6360
▁(4)	-6361
alam	-6362
otton	-6363
▁sees	-6364
▁arbit	-6365
▁sexual	-6366
▁survey	-6367
▁starting	-6368
▁Lal	-6369
▁Link	-6370
▁narrow	-6371
▁strive	-6372
▁explain	-6373
▁allowance	-6374
▁belonging	-6375
▁Kor	-6376
▁aspir	-6377
▁refused	-6378
▁chargeable	-6379
▁distinguished	-6380
IF	-6381
▁10,	-6382
▁offers	-6383
▁proposal	-6384
▁proportion	-6385
▁flower	-6386
▁impart	-6387
▁opposition	-6388
iform	-6389
active	-6390
▁Password	-6391
▁directed	-6392
▁Scheduled	-6393
PC	-6394
enous	-6395
▁Support	-6396
▁Award	-6397
▁absor	-6398
▁transp	-6399
▁composed	-6400
rd	-6401
▁1999	-6402
▁owners	-6403
▁Related	-6404
▁transactions	-6405
uru	-6406
▁pregn	-6407
▁Apostle	-6408
▁initiated	-6409
▁architecture	-6410
NG	-6411
hel	-6412
▁Init	-6413
▁fuel	-6414
theists	-6415
▁Kolkata	-6416
{0}	-6417
▁Fa	-6418
▁Soft	-6419
▁wicked	-6420
▁calling	-6421
▁Association	-6422
▁Video	-6423
▁solid	-6424
▁Pacific	-6425
▁wherever	-6426
▁Dar	-6427
▁Has	-6428
▁Light	-6429
▁quickly	-6430
▁Mohammed	-6431
▁customer	-6432
▁speaking	-6433
▁improvement	-6434
▁deed	-6435
coming	-6436
▁dynam	-6437
▁equity	-6438
▁Further	-6439
ooth	-6440
▁Tab	-6441
▁hom	-6442
orter	-6443
▁colon	-6444
▁digital	-6445
▁tourism	-6446
yal	-6447
▁115	-6448
▁Line	-6449
▁towns	-6450
▁Mughal	-6451
OM	-6452
▁Jesus	-6453
▁perce	-6454
▁Economic	-6455
▁believes	-6456
▁stones	-6457
▁dealing	-6458
▁specify	-6459
▁prostrate	-6460
▁Lic	-6461
pends	-6462
▁clot	-6463
▁Joint	-6464
▁Deputy	-6465
▁border	-6466
▁steel	-6467
▁twelve	-6468
▁update	-6469
SL	-6470
▁prove	-6471
▁Industry	-6472
▁promoting	-6473
xic	-6474
pring	-6475
▁cool	-6476
▁fought	-6477
▁beneath	-6478
▁Bangladesh	-6479
▁Province	-6480
▁explained	-6481
▁dro	-6482
▁sustainable	-6483
▁instructions	-6484
▁Urdu	-6485
aration	-6486
▁sincere	-6487
▁admitted	-6488
▁hypocrites	-6489
oman	-6490
ename	-6491
▁clay	-6492
▁shad	-6493
▁Trade	-6494
▁theirs	-6495
▁council	-6496
▁pension	-6497
erate	-6498
iplom	-6499
▁Plug	-6500
▁career	-6501
▁railway	-6502
▁recited	-6503
▁remaining	-6504
St	-6505
abet	-6506
edia	-6507
▁Pras	-6508
▁Access	-6509
▁Sardar	-6510
▁befall	-6511
▁Mat	-6512
▁Persian	-6513
▁Through	-6514
▁happens	-6515
▁tro	-6516
▁vig	-6517
▁Build	-6518
▁Garden	-6519
▁conven	-6520
▁tribal	-6521
▁Schedule	-6522
ris	-6523
▁90	-6524
remony	-6525
▁bones	-6526
▁glory	-6527
▁tools	-6528
amation	-6529
▁Jawahar	-6530
▁Something	-6531
▁Chen	-6532
▁race	-6533
▁invited	-6534
▁Christians	-6535
▁5,	-6536
▁soldiers	-6537
▁core	-6538
earing	-6539
▁Never	-6540
▁leaving	-6541
▁Mahabhar	-6542
withstanding	-6543
TS	-6544
oes	-6545
agers	-6546
urb	-6547
oding	-6548
▁bone	-6549
▁pane	-6550
fortun	-6551
▁renew	-6552
▁asking	-6553
▁render	-6554
▁exports	-6555
▁trouble	-6556
▁hur	-6557
▁scope	-6558
▁Common	-6559
▁revenue	-6560
▁Document	-6561
▁Insurance	-6562
▁rising	-6563
▁judgement	-6564
▁respectively	-6565
rary	-6566
▁holy	-6567
▁actor	-6568
▁owner	-6569
▁Tar	-6570
▁obtain	-6571
▁immediate	-6572
aud	-6573
that	-6574
▁pull	-6575
▁cricket	-6576
DA	-6577
▁bag	-6578
▁Look	-6579
▁flat	-6580
▁Israeli	-6581
▁writers	-6582
▁ves	-6583
▁Full	-6584
▁satisfied	-6585
▁contributions	-6586
▁Status	-6587
▁recite	-6588
▁accompl	-6589
HA	-6590
▁hat	-6591
▁spr	-6592
owing	-6593
▁Babu	-6594
▁Geor	-6595
▁Keep	-6596
▁Unit	-6597
▁depth	-6598
▁tissue	-6599
▁palm	-6600
▁breed	-6601
▁overall	-6602
▁recognition	-6603
cts	-6604
▁adj	-6605
▁stick	-6606
OV	-6607
▁2001	-6608
▁cere	-6609
▁twice	-6610
▁crisis	-6611
▁thread	-6612
▁drinking	-6613
▁contribute	-6614
LE	-6615
roc	-6616
▁IC	-6617
aved	-6618
▁drown	-6619
▁counsel	-6620
▁framework	-6621
▁wear	-6622
▁Noble	-6623
▁invalid	-6624
▁offering	-6625
▁contemporary	-6626
De	-6627
ming	-6628
▁hen	-6629
▁unp	-6630
DU	-6631
▁Shiva	-6632
▁drama	-6633
▁rect	-6634
▁evolution	-6635
▁communications	-6636
▁Later	-6637
▁answered	-6638
oval	-6639
inder	-6640
▁pieces	-6641
▁detailed	-6642
▁neighbour	-6643
▁facilitate	-6644
)!	-6645
▁Ans	-6646
▁Note	-6647
▁Take	-6648
▁spect	-6649
▁harvest	-6650
▁employed	-6651
kan	-6652
▁era	-6653
▁labor	-6654
▁lying	-6655
▁split	-6656
▁tongue	-6657
▁depends	-6658
▁settlement	-6659
▁personality	-6660
Al	-6661
IM	-6662
▁tea	-6663
▁legs	-6664
▁stayed	-6665
▁availability	-6666
ads	-6667
▁shar	-6668
▁Except	-6669
▁continues	-6670
▁Vol	-6671
father	-6672
▁understood	-6673
osa	-6674
▁Rab	-6675
▁map	-6676
Indeed	-6677
▁Madhya	-6678
▁Member	-6679
▁couple	-6680
▁intended	-6681
▁restrict	-6682
room	-6683
▁Term	-6684
▁ends	-6685
▁Editor	-6686
▁firmly	-6687
▁Disable	-6688
▁revelation	-6689
pes	-6690
▁kn	-6691
▁shop	-6692
▁Table	-6693
▁chain	-6694
▁trading	-6695
▁behaviour	-6696
▁wa	-6697
▁unl	-6698
▁Malay	-6699
▁affair	-6700
▁equality	-6701
▁hyd	-6702
uality	-6703
▁thick	-6704
▁acknow	-6705
▁desired	-6706
▁consumer	-6707
Moses	-6708
▁flood	-6709
edience	-6710
▁appell	-6711
▁hardly	-6712
▁regarded	-6713
▁Assessing	-6714
ushed	-6715
▁News	-6716
▁Perm	-6717
▁shaped	-6718
▁arising	-6719
▁desktop	-6720
▁judicial	-6721
▁solutions	-6722
mic	-6723
▁icon	-6724
▁charity	-6725
▁repeated	-6726
▁celebrated	-6727
▁Lt	-6728
▁Main	-6729
urally	-6730
▁Local	-6731
▁conceal	-6732
▁derived	-6733
▁preview	-6734
▁sisters	-6735
▁communal	-6736
anka	-6737
ishment	-6738
▁slight	-6739
▁evident	-6740
▁component	-6741
IG	-6742
ds	-6743
care	-6744
ruit	-6745
▁gift	-6746
ded	-6747
▁Oft	-6748
▁gall	-6749
▁alarm	-6750
▁layer	-6751
version	-6752
▁clouds	-6753
▁computing	-6754
▁religions	-6755
▁sam	-6756
▁migr	-6757
▁ties	-6758
▁Comput	-6759
▁arrangement	-6760
ayer	-6761
riya	-6762
▁eggs	-6763
▁lamp	-6764
▁audit	-6765
▁seeds	-6766
▁Himself	-6767
▁interested	-6768
▁database	-6769
ona	-6770
ulty	-6771
ector	-6772
inter	-6773
▁pert	-6774
▁Innov	-6775
▁stake	-6776
▁driven	-6777
▁diverse	-6778
▁comprehensive	-6779
▁KDE	-6780
▁Sem	-6781
▁grain	-6782
▁difficulty	-6783
▁acquisition	-6784
Why	-6785
garh	-6786
▁Ele	-6787
▁Upd	-6788
▁Vir	-6789
▁Tell	-6790
▁alive	-6791
▁apparent	-6792
▁hardship	-6793
▁buildings	-6794
▁traditions	-6795
▁intelligence	-6796
rer	-6797
gent	-6798
▁ease	-6799
ounded	-6800
▁index	-6801
▁waters	-6802
ords	-6803
▁Run	-6804
▁fet	-6805
▁rub	-6806
▁Priv	-6807
ensity	-6808
▁guidelines	-6809
-19	-6810
Who	-6811
▁doll	-6812
▁persist	-6813
▁customers	-6814
▁suggested	-6815
▁Foundation	-6816
▁worshipped	-6817
appe	-6818
▁Dra	-6819
▁crores	-6820
▁Buddhist	-6821
▁hun	-6822
▁Army	-6823
▁Laksh	-6824
▁ships	-6825
▁detail	-6826
▁servant	-6827
▁efficiency	-6828
▁sets	-6829
▁Friends	-6830
▁185	-6831
▁span	-6832
▁symp	-6833
▁disgra	-6834
▁overcome	-6835
▁Ja	-6836
▁Liter	-6837
▁naught	-6838
▁improving	-6839
▁Hand	-6840
▁observe	-6841
▁definite	-6842
▁strategy	-6843
▁estimated	-6844
mun	-6845
▁Card	-6846
▁Gold	-6847
▁budget	-6848
▁entrust	-6849
▁collected	-6850
▁preferred	-6851
▁fram	-6852
▁Green	-6853
▁radio	-6854
▁achievement	-6855
PI	-6856
▁onto	-6857
▁Comment	-6858
▁discussed	-6859
▁enjoyment	-6860
ocks	-6861
▁pit	-6862
▁hills	-6863
▁Academ	-6864
▁victim	-6865
▁numerous	-6866
▁fix	-6867
▁hit	-6868
▁exch	-6869
▁Being	-6870
iel	-6871
▁Due	-6872
▁dan	-6873
rahim	-6874
▁2012	-6875
▁Allow	-6876
▁begins	-6877
▁repentance	-6878
On	-6879
arh	-6880
iche	-6881
▁Test	-6882
▁busy	-6883
▁judges	-6884
▁advised	-6885
▁grew	-6886
▁roads	-6887
▁spite	-6888
▁facing	-6889
▁Palestinian	-6890
▁filed	-6891
▁Houses	-6892
▁Window	-6893
esterday	-6894
▁forests	-6895
iri	-6896
....	-6897
▁Lot	-6898
▁Rece	-6899
▁floor	-6900
▁outer	-6901
▁deliber	-6902
▁expansion	-6903
book	-6904
▁incorpor	-6905
▁proclaim	-6906
▁recognized	-6907
▁consumption	-6908
ums	-6909
▁Lat	-6910
▁lect	-6911
▁aband	-6912
▁allot	-6913
what	-6914
▁Jain	-6915
▁Windows	-6916
▁eval	-6917
▁Pandit	-6918
▁integrated	-6919
▁rot	-6920
iliar	-6921
▁Spec	-6922
▁Count	-6923
▁Annual	-6924
▁millions	-6925
▁permitted	-6926
▁considerable	-6927
UM	-6928
lo	-6929
▁36	-6930
▁Ask	-6931
▁Size	-6932
▁linked	-6933
▁telephone	-6934
irs	-6935
oli	-6936
▁flight	-6937
▁masses	-6938
▁imperial	-6939
▁improved	-6940
▁impossible	-6941
▁inspiration	-6942
opal	-6943
▁Bra	-6944
▁Pad	-6945
▁vit	-6946
▁embra	-6947
▁investments	-6948
▁202	-6949
tical	-6950
▁2017	-6951
▁Commer	-6952
▁highlight	-6953
▁Bet	-6954
▁pious	-6955
ny	-6956
▁Tham	-6957
inating	-6958
▁housing	-6959
▁Deb	-6960
ificial	-6961
welling	-6962
▁decree	-6963
▁Germany	-6964
▁felicitations	-6965
nan	-6966
time	-6967
▁phen	-6968
inance	-6969
▁Chait	-6970
▁David	-6971
▁stages	-6972
▁offence	-6973
▁meetings	-6974
▁Afghanistan	-6975
▁'.	-6976
▁Ce	-6977
▁La	-6978
pelled	-6979
▁Dal	-6980
.2014	-6981
entle	-6982
▁agent	-6983
▁amalg	-6984
▁curse	-6985
▁observ	-6986
▁Accounts	-6987
▁Committees	-6988
mits	-6989
▁buff	-6990
▁pick	-6991
▁Global	-6992
▁spoken	-6993
▁vessel	-6994
▁yellow	-6995
▁deposits	-6996
▁identify	-6997
▁Left	-6998
▁Earth	-6999
▁Energy	-7000
▁mailing	-7001
▁talking	-7002
▁worldly	-7003
▁reasonable	-7004
▁regulations	-7005
ota	-7006
atar	-7007
▁raw	-7008
▁aggreg	-7009
▁commence	-7010
▁completion	-7011
▁excellence	-7012
▁45	-7013
▁Get	-7014
▁Jay	-7015
▁shel	-7016
ashing	-7017
▁toler	-7018
▁guardian	-7019
▁Similarly	-7020
ION	-7021
anga	-7022
▁Dig	-7023
▁Road	-7024
▁prohib	-7025
▁Tourism	-7026
▁disobey	-7027
▁emphasis	-7028
▁steadfast	-7029
▁harmony	-7030
▁incurred	-7031
asw	-7032
▁surg	-7033
▁Asian	-7034
▁adorn	-7035
▁armed	-7036
▁street	-7037
▁criminal	-7038
▁Saty	-7039
▁acting	-7040
▁encomp	-7041
▁farmer	-7042
▁Kingdom	-7043
▁empower	-7044
▁willing	-7045
▁discharge	-7046
▁attachment	-7047
As	-7048
DR	-7049
och	-7050
pens	-7051
▁Gupta	-7052
▁breath	-7053
▁helper	-7054
life	-7055
▁via	-7056
▁describ	-7057
▁Whatever	-7058
icent	-7059
▁thor	-7060
▁Email	-7061
▁Credit	-7062
▁respite	-7063
eer	-7064
otes	-7065
▁edge	-7066
▁idols	-7067
▁mirac	-7068
jection	-7069
justice	-7070
▁Master	-7071
▁demands	-7072
▁remembrance	-7073
▁organisations	-7074
Be	-7075
▁Gree	-7076
▁rebell	-7077
▁quantity	-7078
▁continuous	-7079
▁conservation	-7080
izer	-7081
▁Appe	-7082
iciary	-7083
▁noble	-7084
▁ratio	-7085
▁warned	-7086
1}	-7087
AGE	-7088
utt	-7089
▁bh	-7090
▁mixed	-7091
▁Follow	-7092
▁propag	-7093
▁faithless	-7094
▁constructed	-7095
▁Temple	-7096
▁starts	-7097
ographical	-7098
▁signature	-7099
▁Tor	-7100
anath	-7101
▁Phot	-7102
▁stamp	-7103
▁rulers	-7104
▁stored	-7105
▁reprodu	-7106
▁distributed	-7107
▁representative	-7108
OME	-7109
▁Rev	-7110
▁zone	-7111
▁Ambed	-7112
▁Police	-7113
▁liberal	-7114
▁Jawaharlal	-7115
▁mov	-7116
vation	-7117
orous	-7118
▁Ambedkar	-7119
umes	-7120
icipal	-7121
▁sites	-7122
▁irrigation	-7123
EG	-7124
▁du	-7125
▁allows	-7126
▁violent	-7127
▁encompass	-7128
▁remarkable	-7129
▁whomsoever	-7130
▁Equ	-7131
▁Mac	-7132
▁goals	-7133
▁Capital	-7134
▁touched	-7135
▁appearance	-7136
aks	-7137
ected	-7138
ureau	-7139
▁marks	-7140
▁complaint	-7141
▁electronic	-7142
ued	-7143
▁Fed	-7144
▁impr	-7145
▁crime	-7146
▁encry	-7147
▁eastern	-7148
▁pointed	-7149
▁prepare	-7150
▁interface	-7151
▁satisfaction	-7152
▁33	-7153
asty	-7154
itya	-7155
etary	-7156
essions	-7157
▁Cabinet	-7158
yas	-7159
odal	-7160
▁valley	-7161
▁Manager	-7162
▁Knowledge	-7163
ikh	-7164
ranch	-7165
▁Land	-7166
▁baby	-7167
▁meat	-7168
▁vacc	-7169
▁defin	-7170
▁Integr	-7171
▁college	-7172
▁involve	-7173
▁Himachal	-7174
▁productivity	-7175
otal	-7176
▁sed	-7177
▁hast	-7178
▁scen	-7179
▁disabled	-7180
▁ensuring	-7181
▁transmission	-7182
▁Sab	-7183
▁sav	-7184
▁dawn	-7185
▁notified	-7186
▁securities	-7187
aren	-7188
▁van	-7189
▁doom	-7190
▁Online	-7191
▁struck	-7192
▁Bharati	-7193
▁personnel	-7194
▁difficulties	-7195
uddin	-7196
▁clust	-7197
▁paramet	-7198
▁External	-7199
▁superior	-7200
▁Companies	-7201
▁recognize	-7202
▁Jh	-7203
▁rou	-7204
▁tot	-7205
▁Banks	-7206
▁camel	-7207
▁Ibrahim	-7208
”;	-7209
▁Farm	-7210
▁spring	-7211
imony	-7212
▁Democ	-7213
▁tender	-7214
▁Panchay	-7215
▁convert	-7216
▁windows	-7217
▁categories	-7218
▁competition	-7219
▁Agricultural	-7220
▁determination	-7221
▁enact	-7222
▁falls	-7223
▁silver	-7224
▁Subject	-7225
▁fulfill	-7226
▁Amendment	-7227
▁requested	-7228
▁interpretation	-7229
rum	-7230
▁ocean	-7231
▁theatre	-7232
▁Calendar	-7233
▁corporate	-7234
▁directions	-7235
CH	-7236
▁tag	-7237
▁virtue	-7238
▁relatives	-7239
▁elim	-7240
▁jobs	-7241
▁Ahmed	-7242
▁cried	-7243
▁finds	-7244
▁verse	-7245
▁universe	-7246
emic	-7247
▁bat	-7248
ounter	-7249
▁aught	-7250
▁herself	-7251
▁affection	-7252
▁Od	-7253
▁Lad	-7254
▁Tog	-7255
▁1956	-7256
izontal	-7257
▁planned	-7258
▁discussions	-7259
.“	-7260
▁diversity	-7261
▁mechanism	-7262
▁participate	-7263
aron	-7264
▁Cop	-7265
▁bug	-7266
organ	-7267
▁acid	-7268
▁metal	-7269
▁Territ	-7270
▁trained	-7271
▁writings	-7272
▁injustice	-7273
▁voluntary	-7274
how	-7275
▁jail	-7276
▁Level	-7277
▁Vedic	-7278
▁Source	-7279
▁divers	-7280
▁occurs	-7281
▁degrees	-7282
▁founded	-7283
▁strengthening	-7284
enn	-7285
▁Amb	-7286
▁Dom	-7287
▁upto	-7288
▁Guard	-7289
▁haply	-7290
▁executive	-7291
▁convention	-7292
YS	-7293
▁Fac	-7294
▁pair	-7295
▁sympt	-7296
▁Filter	-7297
▁chapter	-7298
▁enterprise	-7299
their	-7300
▁Chenn	-7301
▁usual	-7302
▁realize	-7303
▁accommod	-7304
ima	-7305
ether	-7306
icted	-7307
▁White	-7308
▁Spirit	-7309
▁Software	-7310
▁vegetables	-7311
▁Ang	-7312
▁None	-7313
▁Peace	-7314
▁addresses	-7315
▁righteousness	-7316
?'	-7317
▁HTML	-7318
▁grat	-7319
▁Super	-7320
▁Prasad	-7321
▁palace	-7322
▁courses	-7323
▁infection	-7324
▁intention	-7325
usal	-7326
bered	-7327
▁Cell	-7328
▁abst	-7329
▁breasts	-7330
▁employer	-7331
▁suffered	-7332
▁gradually	-7333
ALL	-7334
anks	-7335
illa	-7336
▁vain	-7337
▁older	-7338
▁socio	-7339
▁Screen	-7340
’.	-7341
AND	-7342
They	-7343
aked	-7344
▁cart	-7345
▁offs	-7346
▁claimed	-7347
▁liability	-7348
DP	-7349
▁UT	-7350
olic	-7351
wers	-7352
iques	-7353
rance	-7354
▁Vers	-7355
▁draft	-7356
▁saving	-7357
▁devoted	-7358
▁ordered	-7359
▁practical	-7360
▁prominent	-7361
OU	-7362
▁coc	-7363
▁corner	-7364
▁differ	-7365
▁equals	-7366
▁Vij	-7367
▁park	-7368
▁owned	-7369
cession	-7370
▁condem	-7371
▁domain	-7372
▁Ramayana	-7373
▁Parliamentary	-7374
▁8.	-7375
▁10.	-7376
▁Four	-7377
▁alle	-7378
▁silk	-7379
urated	-7380
▁invent	-7381
▁removal	-7382
▁Way	-7383
rease	-7384
▁Cond	-7385
▁needy	-7386
▁Madras	-7387
▁achievements	-7388
Pe	-7389
bles	-7390
▁Var	-7391
▁rhy	-7392
atell	-7393
▁Raja	-7394
▁axis	-7395
▁pard	-7396
▁widely	-7397
▁greatly	-7398
▁duration	-7399
▁anniversary	-7400
▁departments	-7401
chron	-7402
house	-7403
▁subt	-7404
▁Apart	-7405
▁panel	-7406
▁Ayurved	-7407
▁elephant	-7408
aze	-7409
▁Guid	-7410
ulatory	-7411
▁Exalted	-7412
▁stopped	-7413
▁increases	-7414
▁effectively	-7415
▁Wid	-7416
▁2011	-7417
▁resc	-7418
▁eternal	-7419
▁Australia	-7420
ker	-7421
obe	-7422
▁URI	-7423
▁accum	-7424
▁liars	-7425
▁quiet	-7426
▁resolve	-7427
▁attended	-7428
▁distress	-7429
▁acceptance	-7430
”,	-7431
part	-7432
▁sev	-7433
ounds	-7434
▁nurs	-7435
▁advoc	-7436
inations	-7437
▁awarded	-7438
▁equival	-7439
▁arrangements	-7440
▁cos	-7441
▁ran	-7442
lines	-7443
▁Mode	-7444
aching	-7445
▁approx	-7446
▁wholly	-7447
▁inhabit	-7448
▁accurate	-7449
▁significance	-7450
▁York	-7451
▁programs	-7452
▁contributed	-7453
da	-7454
unc	-7455
▁70	-7456
▁Eff	-7457
▁Mir	-7458
▁bell	-7459
▁boys	-7460
orders	-7461
istries	-7462
▁plaint	-7463
▁devices	-7464
▁printed	-7465
▁streams	-7466
▁assembly	-7467
▁southern	-7468
▁forwarded	-7469
yn	-7470
▁300	-7471
▁sake	-7472
▁beside	-7473
▁papers	-7474
chief	-7475
▁glass	-7476
▁disappe	-7477
END	-7478
jan	-7479
▁Exp	-7480
▁Lah	-7481
▁lev	-7482
▁yours	-7483
▁humble	-7484
▁pillars	-7485
▁specially	-7486
▁NPS	-7487
▁nom	-7488
▁2004	-7489
▁Task	-7490
▁Const	-7491
▁flesh	-7492
▁forty	-7493
▁claims	-7494
▁recommendations	-7495
bind	-7496
▁viz	-7497
inces	-7498
iously	-7499
▁Mercy	-7500
▁innoc	-7501
▁Details	-7502
▁drawing	-7503
▁faculty	-7504
▁subjected	-7505
)."	-7506
▁-,	-7507
upon	-7508
▁2003	-7509
▁Perhaps	-7510
▁controlled	-7511
IME	-7512
▁eve	-7513
asures	-7514
ronics	-7515
▁delic	-7516
▁sovere	-7517
14	-7518
off	-7519
urse	-7520
▁Mor	-7521
▁myth	-7522
▁Audio	-7523
▁Russia	-7524
▁shrine	-7525
▁weapons	-7526
▁ignorance	-7527
▁investors	-7528
▁partition	-7529
▁receiving	-7530
ua	-7531
▁determine	-7532
▁terrorist	-7533
▁fly	-7534
reement	-7535
▁recovery	-7536
OT	-7537
▁AN	-7538
rounds	-7539
▁License	-7540
bre	-7541
▁Tir	-7542
▁deaf	-7543
▁scene	-7544
▁usage	-7545
▁components	-7546
▁accompanied	-7547
▁Luc	-7548
▁Lanka	-7549
▁illeg	-7550
▁kings	-7551
▁covers	-7552
▁sentence	-7553
▁companions	-7554
▁Universities	-7555
acc	-7556
▁IM	-7557
tched	-7558
▁ungr	-7559
▁permiss	-7560
▁strange	-7561
umph	-7562
▁Far	-7563
▁Kam	-7564
▁Bhut	-7565
▁phenomen	-7566
Ad	-7567
lihood	-7568
▁unseen	-7569
▁ceremony	-7570
▁educated	-7571
▁monitoring	-7572
zy	-7573
peror	-7574
▁bridge	-7575
▁danger	-7576
▁package	-7577
▁Chaitanya	-7578
▁producing	-7579
▁admonition	-7580
▁ww	-7581
aming	-7582
▁MSME	-7583
▁fasc	-7584
▁Binoy	-7585
gorithm	-7586
▁deities	-7587
▁Location	-7588
▁structures	-7589
▁nav	-7590
▁2009	-7591
▁stress	-7592
▁Connect	-7593
▁profile	-7594
▁ego	-7595
▁www	-7596
allel	-7597
▁Ever	-7598
▁Major	-7599
▁cloth	-7600
▁Action	-7601
▁bacter	-7602
▁Wik	-7603
attered	-7604
▁familiar	-7605
▁strategic	-7606
wing	-7607
▁lege	-7608
▁urge	-7609
▁cotton	-7610
▁aggress	-7611
medi	-7612
▁187	-7613
▁clar	-7614
▁prefer	-7615
▁indirect	-7616
isted	-7617
pping	-7618
▁player	-7619
▁browser	-7620
▁enforce	-7621
down	-7622
long	-7623
▁acce	-7624
▁bears	-7625
▁Download	-7626
▁Certainly	-7627
▁Executive	-7628
▁substantial	-7629
oram	-7630
▁mak	-7631
▁Orig	-7632
▁infinite	-7633
▁reckoning	-7634
het	-7635
azing	-7636
▁proxy	-7637
▁seeks	-7638
ailable	-7639
▁creates	-7640
▁classical	-7641
▁encouraged	-7642
icket	-7643
▁exem	-7644
▁myst	-7645
▁salt	-7646
▁Hence	-7647
▁fluid	-7648
▁worst	-7649
▁wrath	-7650
▁permit	-7651
▁retrie	-7652
▁realise	-7653
▁dwelling	-7654
▁testimony	-7655
gage	-7656
▁Burn	-7657
▁Rights	-7658
▁diplom	-7659
▁eminent	-7660
▁musical	-7661
▁prophet	-7662
HER	-7663
itra	-7664
leum	-7665
▁Short	-7666
▁adopt	-7667
▁chair	-7668
▁ended	-7669
▁League	-7670
▁Sector	-7671
▁imagine	-7672
▁publish	-7673
▁internet	-7674
▁valuable	-7675
▁discipline	-7676
There	-7677
arest	-7678
▁tear	-7679
▁Install	-7680
▁lessons	-7681
▁prevail	-7682
▁ignorant	-7683
▁innovative	-7684
lin	-7685
▁34	-7686
▁cup	-7687
.2016	-7688
▁bull	-7689
▁node	-7690
ashion	-7691
▁sharing	-7692
▁tremend	-7693
▁subsequent	-7694
▁Bo	-7695
iable	-7696
▁Shiv	-7697
▁pron	-7698
akrish	-7699
▁oaths	-7700
ository	-7701
▁testing	-7702
▁arranged	-7703
▁distinction	-7704
▁Sin	-7705
▁vide	-7706
▁northern	-7707
▁Center	-7708
▁Person	-7709
▁Medical	-7710
▁normally	-7711
▁resulting	-7712
ECH	-7713
ham	-7714
liest	-7715
▁Koran	-7716
▁lesson	-7717
▁biggest	-7718
▁despite	-7719
▁constitu	-7720
▁director	-7721
▁authorised	-7722
ITY	-7723
lex	-7724
ding	-7725
ounce	-7726
▁Somet	-7727
▁Forward	-7728
▁mothers	-7729
▁respondent	-7730
pat	-7731
thi	-7732
alore	-7733
▁vary	-7734
expected	-7735
▁quarter	-7736
▁Selection	-7737
▁alternative	-7738
▁Da	-7739
When	-7740
TIONAL	-7741
▁Value	-7742
▁faced	-7743
▁client	-7744
▁slaves	-7745
operation	-7746
▁representatives	-7747
▁(6	-7748
▁Cle	-7749
idences	-7750
▁debate	-7751
▁emerging	-7752
▁narr	-7753
worthy	-7754
▁dreams	-7755
▁constantly	-7756
▁collaboration	-7757
bl	-7758
ria	-7759
artments	-7760
▁combination	-7761
EF	-7762
▁Fe	-7763
▁NAB	-7764
▁bath	-7765
▁bomb	-7766
▁Nagar	-7767
Laughter	-7768
▁falling	-7769
▁killing	-7770
▁knoweth	-7771
▁carefully	-7772
.2015	-7773
▁Said	-7774
▁listed	-7775
▁exactly	-7776
▁entrusted	-7777
▁submission	-7778
▁Legislature	-7779
▁legislation	-7780
▁presentation	-7781
za	-7782
amber	-7783
▁Prot	-7784
▁patri	-7785
▁finding	-7786
▁Officers	-7787
▁qualities	-7788
80	-7789
eper	-7790
▁Ary	-7791
▁Tal	-7792
▁Vidy	-7793
▁compuls	-7794
▁Ek	-7795
▁mun	-7796
being	-7797
▁ring	-7798
▁midst	-7799
pection	-7800
▁minute	-7801
▁historic	-7802
▁painting	-7803
▁competent	-7804
▁cultivation	-7805
▁wed	-7806
angle	-7807
▁airc	-7808
▁beat	-7809
▁tube	-7810
▁unaw	-7811
▁cards	-7812
▁loves	-7813
▁humili	-7814
▁reader	-7815
▁Manipur	-7816
▁missing	-7817
▁pictures	-7818
▁ungrateful	-7819
▁IIT	-7820
▁Ltd	-7821
▁Rah	-7822
acing	-7823
▁diam	-7824
▁snow	-7825
▁Again	-7826
▁flour	-7827
▁closely	-7828
▁terminal	-7829
':%	-7830
rers	-7831
▁Sen	-7832
▁Hide	-7833
encing	-7834
roleum	-7835
▁gradu	-7836
▁solve	-7837
▁forced	-7838
▁injury	-7839
▁imprison	-7840
Re	-7841
husi	-7842
▁Taj	-7843
▁cycle	-7844
▁sales	-7845
▁decade	-7846
▁discrim	-7847
▁mandapa	-7848
▁arrogant	-7849
▁disgrace	-7850
▁reaching	-7851
▁weakness	-7852
▁transformation	-7853
ela	-7854
itud	-7855
omon	-7856
▁Sund	-7857
▁merg	-7858
ipping	-7859
▁advis	-7860
▁France	-7861
▁poetic	-7862
▁preparation	-7863
▁congratulate	-7864
Os	-7865
UG	-7866
▁Kir	-7867
▁anx	-7868
▁hence	-7869
lasting	-7870
▁Plugin	-7871
▁engage	-7872
▁goddess	-7873
oso	-7874
utory	-7875
▁worse	-7876
▁sports	-7877
▁helping	-7878
▁sinners	-7879
▁Japanese	-7880
▁Maharaja	-7881
▁commands	-7882
▁sensitive	-7883
▁represented	-7884
▁grief	-7885
▁motor	-7886
▁eating	-7887
entation	-7888
▁reserve	-7889
▁triumph	-7890
ador	-7891
▁pig	-7892
▁Does	-7893
▁females	-7894
▁raising	-7895
▁vehicle	-7896
▁arguments	-7897
▁authentication	-7898
fl	-7899
▁150	-7900
▁dealt	-7901
▁Courts	-7902
▁traffic	-7903
▁opposite	-7904
▁technique	-7905
wal	-7906
▁44	-7907
▁je	-7908
▁Abd	-7909
▁divor	-7910
▁wages	-7911
▁finger	-7912
▁enthusi	-7913
▁Template	-7914
)]	-7915
asy	-7916
olt	-7917
▁Ach	-7918
▁Durg	-7919
▁alike	-7920
▁anger	-7921
▁roots	-7922
▁resort	-7923
▁declare	-7924
▁ordained	-7925
▁technological	-7926
uv	-7927
rut	-7928
tha	-7929
alaya	-7930
orters	-7931
▁Object	-7932
▁carbon	-7933
▁ending	-7934
▁regularly	-7935
▁entrepreneur	-7936
▁diet	-7937
▁inev	-7938
▁rose	-7939
▁Order	-7940
▁signal	-7941
▁strict	-7942
▁concerns	-7943
▁proposals	-7944
▁requirement	-7945
pent	-7946
▁Working	-7947
▁largely	-7948
▁studied	-7949
▁Interest	-7950
▁offspring	-7951
▁livelihood	-7952
jud	-7953
▁02	-7954
▁kg	-7955
achi	-7956
▁wat	-7957
▁chrom	-7958
▁hosts	-7959
▁seats	-7960
▁advert	-7961
▁invoke	-7962
▁Britain	-7963
▁flowing	-7964
▁inserted	-7965
▁indigenous	-7966
▁consequences	-7967
xts	-7968
▁12.	-7969
▁kid	-7970
▁slave	-7971
▁Railway	-7972
▁pleases	-7973
▁subscribe	-7974
▁experiences	-7975
pad	-7976
araj	-7977
▁kne	-7978
▁keen	-7979
▁mine	-7980
▁deriv	-7981
▁Vaishn	-7982
mentation	-7983
▁reaction	-7984
▁Industries	-7985
▁instruction	-7986
▁constitutional	-7987
iya	-7988
▁Font	-7989
▁Sita	-7990
▁scar	-7991
▁tourist	-7992
▁execution	-7993
▁generated	-7994
▁ben	-7995
▁Miss	-7996
▁keys	-7997
▁NABARD	-7998
iculture	-7999
▁fearing	-8000
▁imposed	-8001
▁passion	-8002
SA	-8003
igned	-8004
▁Resp	-8005
▁closer	-8006
▁uniform	-8007
App	-8008
ashi	-8009
usuf	-8010
India	-8011
▁sixt	-8012
▁admin	-8013
▁royal	-8014
▁prince	-8015
▁worthy	-8016
▁bearing	-8017
▁conferred	-8018
PA	-8019
cles	-8020
power	-8021
▁bats	-8022
▁entity	-8023
▁yesterday	-8024
▁commencement	-8025
Go	-8026
ema	-8027
endra	-8028
▁depri	-8029
▁contrary	-8030
▁consisting	-8031
▁civilization	-8032
mal	-8033
ller	-8034
▁Exam	-8035
▁Supp	-8036
▁chose	-8037
▁route	-8038
▁wings	-8039
▁Majesty	-8040
▁finished	-8041
CD	-8042
iary	-8043
▁Fam	-8044
▁learnt	-8045
▁complic	-8046
▁announce	-8047
akk	-8048
▁od	-8049
ogue	-8050
rors	-8051
▁pix	-8052
▁rom	-8053
ifted	-8054
elfare	-8055
▁deals	-8056
▁tribes	-8057
▁careful	-8058
▁oriented	-8059
adur	-8060
ille	-8061
rase	-8062
▁Nic	-8063
▁PRAN	-8064
▁Sometimes	-8065
Ch	-8066
▁Yoj	-8067
▁Viet	-8068
▁shame	-8069
irement	-8070
▁attacks	-8071
▁farming	-8072
criptions	-8073
▁Resource	-8074
▁DAY	-8075
▁wheat	-8076
▁defeat	-8077
▁wished	-8078
ordinate	-8079
▁managed	-8080
ictionary	-8081
▁tremendous	-8082
▁CRA	-8083
▁Auto	-8084
▁synt	-8085
▁manage	-8086
▁drowned	-8087
▁enlight	-8088
▁feeding	-8089
▁Additional	-8090
nda	-8091
▁Five	-8092
▁react	-8093
▁Chrome	-8094
▁Empire	-8095
▁nutrit	-8096
▁visual	-8097
▁Properties	-8098
▁introduction	-8099
▁representation	-8100
oul	-8101
▁Br	-8102
▁2019	-8103
▁Faith	-8104
▁Quest	-8105
connect	-8106
secution	-8107
▁Hearing	-8108
▁emerged	-8109
▁feelings	-8110
▁succeeded	-8111
ogen	-8112
▁mob	-8113
▁Gita	-8114
▁lady	-8115
▁broke	-8116
▁Labour	-8117
▁Welfare	-8118
▁venture	-8119
▁equivalent	-8120
▁Aj	-8121
▁Holy	-8122
▁aimed	-8123
▁liable	-8124
▁Gazette	-8125
▁realised	-8126
▁consequence	-8127
DI	-8128
rupt	-8129
▁Hor	-8130
▁lakhs	-8131
▁loose	-8132
utation	-8133
▁German	-8134
▁amounts	-8135
▁customs	-8136
▁investig	-8137
▁mischief	-8138
cure	-8139
▁Siva	-8140
▁quit	-8141
▁shell	-8142
▁elabor	-8143
▁fashion	-8144
▁techniques	-8145
▁essentially	-8146
▁participants	-8147
His	-8148
nty	-8149
▁Chat	-8150
▁throne	-8151
▁criticism	-8152
▁Mahabharata	-8153
16	-8154
▁abn	-8155
▁woe	-8156
▁Money	-8157
▁envis	-8158
▁George	-8159
▁Turkey	-8160
▁salary	-8161
ugu	-8162
arita	-8163
▁alter	-8164
▁cease	-8165
▁chest	-8166
▁dress	-8167
▁teeth	-8168
▁ruling	-8169
▁supporting	-8170
▁corresponding	-8171
heb	-8172
▁”“	-8173
amboo	-8174
izers	-8175
vance	-8176
▁monu	-8177
▁gross	-8178
▁carved	-8179
▁Marathi	-8180
▁favours	-8181
▁supposed	-8182
vals	-8183
wood	-8184
your	-8185
▁alleg	-8186
▁dignity	-8187
▁printer	-8188
▁commonly	-8189
▁modified	-8190
▁prospect	-8191
pa	-8192
otheism	-8193
▁earliest	-8194
▁Engineering	-8195
▁strengthened	-8196
-2	-8197
▁Sac	-8198
▁Scient	-8199
▁defect	-8200
▁Chennai	-8201
▁Governance	-8202
▁Protection	-8203
▁healthcare	-8204
PRO	-8205
DUCT	-8206
NAME	-8207
urch	-8208
▁Phys	-8209
▁Nothing	-8210
▁seconds	-8211
▁happening	-8212
▁calculated	-8213
ensus	-8214
▁dread	-8215
▁sheep	-8216
oresaid	-8217
▁Thamud	-8218
▁pledge	-8219
▁united	-8220
▁Defence	-8221
▁causing	-8222
▁fifteen	-8223
▁converted	-8224
▁operational	-8225
ilal	-8226
urit	-8227
inals	-8228
▁Gora	-8229
▁Books	-8230
▁Mohan	-8231
▁sheet	-8232
▁topic	-8233
▁invite	-8234
▁prompt	-8235
▁opposed	-8236
▁rightly	-8237
▁Configure	-8238
IB	-8239
ATE	-8240
▁orn	-8241
eries	-8242
▁Vive	-8243
▁overse	-8244
▁Hinduism	-8245
▁symptoms	-8246
▁aforesaid	-8247
ba	-8248
cers	-8249
onym	-8250
▁enl	-8251
ographic	-8252
HT	-8253
lor	-8254
▁Cy	-8255
chant	-8256
▁Indo	-8257
▁bread	-8258
including	-8259
▁9.	-8260
▁mix	-8261
▁{1}	-8262
ariat	-8263
▁encl	-8264
▁vent	-8265
▁Black	-8266
▁catch	-8267
▁laugh	-8268
▁ideals	-8269
▁Minimum	-8270
▁consumers	-8271
▁tub	-8272
▁NAME	-8273
▁vote	-8274
▁repay	-8275
▁Proced	-8276
▁incent	-8277
▁clothes	-8278
▁telling	-8279
▁ISO	-8280
▁Lib	-8281
▁clubs	-8282
▁fears	-8283
▁atomic	-8284
▁extract	-8285
▁printing	-8286
▁companion	-8287
▁endeavour	-8288
▁secondary	-8289
CS	-8290
DF	-8291
▁—	-8292
HAR	-8293
▁Thy	-8294
▁Pension	-8295
▁exalted	-8296
▁entertain	-8297
▁conclusion	-8298
▁statements	-8299
iso	-8300
yer	-8301
▁48	-8302
▁CS	-8303
▁Yusuf	-8304
▁dependent	-8305
▁performing	-8306
hesis	-8307
ignty	-8308
▁Kann	-8309
picious	-8310
▁belied	-8311
▁cancer	-8312
▁caught	-8313
▁poison	-8314
▁backward	-8315
▁deceased	-8316
▁protected	-8317
▁recommended	-8318
▁Job	-8319
▁isol	-8320
▁honor	-8321
▁lands	-8322
▁pairs	-8323
ificates	-8324
▁consent	-8325
▁rapidly	-8326
▁amendment	-8327
▁integrity	-8328
▁witnessed	-8329
▁/%	-8330
▁lord	-8331
▁seat	-8332
▁Mahal	-8333
▁disse	-8334
▁fever	-8335
▁noise	-8336
adation	-8337
▁intense	-8338
ultaneous	-8339
▁Messages	-8340
▁possessed	-8341
again	-8342
▁Hall	-8343
▁stim	-8344
▁Encry	-8345
▁diagn	-8346
ilation	-8347
▁Throne	-8348
▁Meeting	-8349
▁discovered	-8350
etan	-8351
▁11.	-8352
▁Sea	-8353
▁boat	-8354
ferent	-8355
▁Relig	-8356
▁bonds	-8357
▁secre	-8358
▁Punjabi	-8359
▁passage	-8360
▁restore	-8361
▁grievous	-8362
▁patients	-8363
▁involving	-8364
▁inhabitants	-8365
▁maintaining	-8366
roat	-8367
▁flo	-8368
▁wing	-8369
▁Whoso	-8370
▁Bhutan	-8371
▁decreed	-8372
▁stations	-8373
ih	-8374
key	-8375
▁37	-8376
this	-8377
liness	-8378
▁pipes	-8379
▁stuff	-8380
▁festiv	-8381
▁periods	-8382
▁secular	-8383
▁Selected	-8384
▁disputes	-8385
▁6,	-8386
▁Dw	-8387
itors	-8388
pless	-8389
▁devote	-8390
▁negoti	-8391
▁paying	-8392
▁produces	-8393
▁percentage	-8394
▁questioned	-8395
2)	-8396
CO	-8397
oty	-8398
reet	-8399
▁Anj	-8400
▁vim	-8401
ipher	-8402
▁clim	-8403
▁Solar	-8404
▁rough	-8405
▁Contin	-8406
▁humans	-8407
▁decline	-8408
▁illness	-8409
▁Standard	-8410
▁describe	-8411
▁preserve	-8412
isha	-8413
▁Cam	-8414
▁Fir	-8415
▁pup	-8416
▁Soon	-8417
▁Three	-8418
▁Previous	-8419
▁circular	-8420
▁Professor	-8421
▁implementing	-8422
rin	-8423
▁Sant	-8424
▁flex	-8425
▁bills	-8426
▁ruler	-8427
▁putting	-8428
▁involves	-8429
▁procedures	-8430
▁interaction	-8431
ste	-8432
▁''	-8433
▁Que	-8434
▁bliss	-8435
▁Investment	-8436
▁parliamentary	-8437
ques	-8438
itals	-8439
▁fate	-8440
▁analy	-8441
▁Attach	-8442
ibraries	-8443
▁carries	-8444
▁impress	-8445
▁totally	-8446
▁Projects	-8447
▁ultimate	-8448
▁newspaper	-8449
▁separated	-8450
▁varieties	-8451
▁influenced	-8452
▁declaration	-8453
utch	-8454
▁2010	-8455
▁Space	-8456
▁keeps	-8457
▁insert	-8458
▁inclusive	-8459
▁collective	-8460
▁enterprises	-8461
▁possibility	-8462
sp	-8463
rik	-8464
Then	-8465
asks	-8466
▁cas	-8467
▁dyn	-8468
arency	-8469
▁paras	-8470
▁ranks	-8471
▁empire	-8472
▁Quality	-8473
▁serving	-8474
▁rendered	-8475
▁Allahabad	-8476
▁reduction	-8477
▁Innovation	-8478
▁consultation	-8479
▁genu	-8480
▁tail	-8481
▁Transl	-8482
▁condol	-8483
▁talent	-8484
▁discover	-8485
▁naturally	-8486
▁constitute	-8487
iam	-8488
▁88	-8489
roph	-8490
▁adding	-8491
▁celebrate	-8492
▁privilege	-8493
▁surrender	-8494
bits	-8495
lend	-8496
▁marg	-8497
▁thin	-8498
▁GNOME	-8499
▁Leave	-8500
▁Place	-8501
▁arise	-8502
▁disapp	-8503
▁readers	-8504
▁polytheists	-8505
mp	-8506
IST	-8507
atra	-8508
▁ash	-8509
▁Pack	-8510
▁elder	-8511
▁lasting	-8512
▁Islamist	-8513
dev	-8514
oub	-8515
ipped	-8516
osity	-8517
▁Give	-8518
▁Arabs	-8519
▁grave	-8520
▁stray	-8521
▁seated	-8522
▁kilomet	-8523
▁unaware	-8524
▁attained	-8525
▁childhood	-8526
Se	-8527
gue	-8528
▁Ir	-8529
onts	-8530
▁Sav	-8531
▁boost	-8532
▁proofs	-8533
igration	-8534
▁sequence	-8535
▁achieving	-8536
▁ministers	-8537
▁Monotheism	-8538
AO	-8539
ECT	-8540
▁Field	-8541
▁Region	-8542
▁mistake	-8543
▁guarantee	-8544
▁8,	-8545
▁AM	-8546
▁LD	-8547
asis	-8548
ixture	-8549
▁gained	-8550
▁gentle	-8551
▁enhanced	-8552
kim	-8553
▁(.	-8554
zing	-8555
▁Goa	-8556
▁2020	-8557
▁Agra	-8558
▁Devi	-8559
▁smooth	-8560
▁monthly	-8561
wide	-8562
oking	-8563
onent	-8564
▁Cast	-8565
▁permanently	-8566
▁PAR	-8567
hetic	-8568
▁clip	-8569
actory	-8570
▁Format	-8571
▁thrown	-8572
▁radical	-8573
▁Election	-8574
▁Railways	-8575
ipe	-8576
▁Woe	-8577
▁max	-8578
▁Stop	-8579
▁dict	-8580
agraph	-8581
▁calam	-8582
▁somebody	-8583
▁computers	-8584
▁emotional	-8585
▁experiment	-8586
▁retribution	-8587
▁Bro	-8588
▁pace	-8589
▁pand	-8590
ignment	-8591
▁Yojana	-8592
▁despair	-8593
▁aircraft	-8594
▁hundreds	-8595
▁stronger	-8596
▁Institutions	-8597
▁transgressors	-8598
ships	-8599
▁pret	-8600
ipedia	-8601
▁mouse	-8602
▁Monitor	-8603
▁enjoyed	-8604
▁arrested	-8605
▁aggregate	-8606
▁evidences	-8607
AK	-8608
▁Han	-8609
▁stup	-8610
aryana	-8611
▁Truly	-8612
▁Insert	-8613
▁protocol	-8614
▁inaugurated	-8615
▁BY	-8616
▁186	-8617
write	-8618
▁Game	-8619
▁blank	-8620
chandra	-8621
▁summer	-8622
▁selling	-8623
▁walking	-8624
▁primarily	-8625
▁accordingly	-8626
fil	-8627
▁(*	-8628
▁Tom	-8629
▁rig	-8630
ician	-8631
▁(1),	-8632
▁muse	-8633
▁trend	-8634
▁Should	-8635
▁dismiss	-8636
▁Sil	-8637
▁Fest	-8638
▁fifth	-8639
▁march	-8640
uscript	-8641
▁Valley	-8642
▁Islands	-8643
▁pertaining	-8644
7)	-8645
GP	-8646
uh	-8647
uce	-8648
▁AP	-8649
▁SPE	-8650
▁fib	-8651
▁ric	-8652
▁ancest	-8653
▁reaches	-8654
▁contrast	-8655
▁positions	-8656
▁entrepreneurs	-8657
BC	-8658
▁avo	-8659
▁Verm	-8660
▁Media	-8661
usively	-8662
▁hatred	-8663
▁Private	-8664
▁dynamic	-8665
▁audience	-8666
▁assuredly	-8667
met	-8668
vara	-8669
▁(5)	-8670
ulous	-8671
saying	-8672
▁infid	-8673
▁arrive	-8674
▁awards	-8675
8)	-8676
Th	-8677
▁Und	-8678
Peace	-8679
omous	-8680
▁dies	-8681
ushing	-8682
▁layout	-8683
▁slowly	-8684
▁Creator	-8685
▁peaceful	-8686
name	-8687
▁Zone	-8688
▁mathe	-8689
▁header	-8690
▁entering	-8691
▁algorithm	-8692
▁plaintiff	-8693
ato	-8694
▁Py	-8695
▁Lear	-8696
▁enorm	-8697
▁mould	-8698
▁Having	-8699
▁perpet	-8700
▁worker	-8701
▁Culture	-8702
▁societies	-8703
▁stakeholders	-8704
son	-8705
acob	-8706
▁Brahma	-8707
▁restra	-8708
▁combined	-8709
▁translated	-8710
CA	-8711
kh	-8712
oys	-8713
▁Area	-8714
▁SAYS	-8715
▁charm	-8716
▁worry	-8717
▁circle	-8718
▁driver	-8719
▁novels	-8720
▁imported	-8721
▁stability	-8722
▁conversion	-8723
▁NI	-8724
step	-8725
term	-8726
inced	-8727
▁Hari	-8728
ienced	-8729
▁cheque	-8730
▁islands	-8731
▁Almighty	-8732
▁innocent	-8733
▁definition	-8734
can	-8735
rehe	-8736
▁vibr	-8737
▁wilt	-8738
▁shift	-8739
▁sport	-8740
▁criter	-8741
▁models	-8742
▁Lucknow	-8743
▁summary	-8744
▁confined	-8745
▁exceeding	-8746
▁operative	-8747
▁paintings	-8748
orne	-8749
▁Mang	-8750
lessly	-8751
▁Always	-8752
▁Comple	-8753
▁handic	-8754
▁honoured	-8755
▁Automatic	-8756
▁protector	-8757
▁progressive	-8758
▁characteristic	-8759
▁Notwithstanding	-8760
▁15,	-8761
▁vul	-8762
▁Jour	-8763
▁oral	-8764
▁motiv	-8765
▁pound	-8766
▁deduct	-8767
▁easier	-8768
▁fallen	-8769
▁Natural	-8770
▁remembered	-8771
icity	-8772
▁Togg	-8773
▁asce	-8774
abling	-8775
▁rhyth	-8776
▁returning	-8777
▁representing	-8778
quar	-8779
▁kin	-8780
▁cord	-8781
▁nose	-8782
▁Ident	-8783
▁Survey	-8784
▁Telugu	-8785
▁winter	-8786
▁proviso	-8787
▁Subscriber	-8788
▁surrounded	-8789
▁installation	-8790
▁revolutionary	-8791
-4	-8792
var	-8793
addy	-8794
avas	-8795
▁Bul	-8796
▁mil	-8797
chers	-8798
oving	-8799
erving	-8800
▁winds	-8801
▁Vivekan	-8802
▁factory	-8803
▁Ayurveda	-8804
▁treasure	-8805
▁residence	-8806
▁Organization	-8807
▁connectivity	-8808
▁Fu	-8809
▁MP	-8810
▁NG	-8811
erty	-8812
nity	-8813
▁meal	-8814
▁Anand	-8815
▁ruled	-8816
▁handle	-8817
▁Bahadur	-8818
▁beneficial	-8819
no	-8820
▁dh	-8821
▁py	-8822
guard	-8823
gments	-8824
itative	-8825
▁Remote	-8826
▁channels	-8827
▁legislative	-8828
▁TV	-8829
▁ice	-8830
commun	-8831
▁bigger	-8832
▁regime	-8833
▁Computer	-8834
▁consolid	-8835
▁everywhere	-8836
▁proceeding	-8837
En	-8838
▁(_	-8839
agra	-8840
amma	-8841
atel	-8842
rane	-8843
amese	-8844
▁Bills	-8845
▁Imple	-8846
▁artist	-8847
▁bestow	-8848
▁Hindust	-8849
▁exposed	-8850
▁pilgrimage	-8851
▁adm	-8852
▁shut	-8853
▁expiry	-8854
▁Maximum	-8855
▁Bangalore	-8856
atan	-8857
iven	-8858
▁Nam	-8859
avior	-8860
▁Govt	-8861
▁succ	-8862
▁Chhat	-8863
▁Greek	-8864
▁sixty	-8865
▁forbid	-8866
▁nearer	-8867
▁undertake	-8868
▁Mot	-8869
▁Pop	-8870
▁Sad	-8871
▁Wel	-8872
▁Hard	-8873
ulates	-8874
▁maybe	-8875
▁sharp	-8876
▁tooth	-8877
▁Several	-8878
▁engagement	-8879
dy	-8880
alo	-8881
amy	-8882
inct	-8883
antra	-8884
▁Advis	-8885
▁Update	-8886
▁hunger	-8887
▁subsid	-8888
▁appellant	-8889
▁perfection	-8890
shi	-8891
▁Bre	-8892
▁Isa	-8893
▁Kore	-8894
▁threw	-8895
ruitment	-8896
▁shelter	-8897
▁anywhere	-8898
▁multiply	-8899
▁attribute	-8900
▁associates	-8901
▁commodities	-8902
▁competitive	-8903
▁developments	-8904
▁hunt	-8905
▁texts	-8906
▁refuse	-8907
▁acceler	-8908
▁crucial	-8909
hai	-8910
ida	-8911
apse	-8912
auses	-8913
▁fees	-8914
itting	-8915
▁Nanak	-8916
▁organs	-8917
▁unbelie	-8918
▁believer	-8919
▁Background	-8920
▁institutional	-8921
aph	-8922
▁Cr	-8923
▁fro	-8924
icing	-8925
▁arts	-8926
▁enjo	-8927
▁tells	-8928
▁SPEECH	-8929
▁Summit	-8930
▁Haryana	-8931
▁exceeds	-8932
▁overseas	-8933
▁resulted	-8934
▁thorough	-8935
▁Convention	-8936
▁references	-8937
UK	-8938
gi	-8939
tr	-8940
lig	-8941
lla	-8942
was	-8943
▁Ji	-8944
▁cul	-8945
isite	-8946
▁exit	-8947
▁Saudi	-8948
▁obligation	-8949
▁imagination	-8950
UB	-8951
▁7,	-8952
▁Kol	-8953
▁Stra	-8954
ogether	-8955
▁Airport	-8956
▁distant	-8957
▁precise	-8958
▁spreading	-8959
▁sanctioned	-8960
▁conversation	-8961
▁auton	-8962
▁swift	-8963
▁patron	-8964
▁sinful	-8965
indranath	-8966
▁executed	-8967
▁CC	-8968
alal	-8969
▁Bir	-8970
▁Kap	-8971
▁mart	-8972
▁newly	-8973
▁photo	-8974
naments	-8975
▁organic	-8976
▁invented	-8977
▁Registration	-8978
40	-8979
59	-8980
aha	-8981
olent	-8982
▁swall	-8983
▁wheel	-8984
▁murder	-8985
▁Himalayan	-8986
rian	-8987
rich	-8988
udra	-8989
▁Mur	-8990
▁Sank	-8991
▁rein	-8992
▁prest	-8993
ichever	-8994
▁Basava	-8995
ammation	-8996
▁grounds	-8997
▁occasions	-8998
▁institutes	-8999
▁newspapers	-9000
TING	-9001
ildo	-9002
wara	-9003
▁Wild	-9004
▁ruin	-9005
▁Phone	-9006
▁persu	-9007
▁twain	-9008
▁Centres	-9009
▁applies	-9010
▁outcome	-9011
▁blessing	-9012
▁extensive	-9013
▁attractive	-9014
▁impression	-9015
▁integration	-9016
▁Long	-9017
▁duly	-9018
▁tall	-9019
▁tied	-9020
▁Obama	-9021
▁games	-9022
▁Family	-9023
▁grants	-9024
▁illegal	-9025
▁parallel	-9026
▁replaced	-9027
▁supports	-9028
▁transportation	-9029
tery	-9030
▁EVE	-9031
▁wre	-9032
ystem	-9033
▁Pune	-9034
▁roll	-9035
▁bamboo	-9036
▁Brahman	-9037
▁evolved	-9038
▁massive	-9039
▁maturity	-9040
▁Promotion	-9041
▁sustained	-9042
▁aspirations	-9043
▁Ba	-9044
▁Syn	-9045
▁elev	-9046
▁lust	-9047
▁Aaron	-9048
▁Young	-9049
▁recover	-9050
▁indicate	-9051
▁organisms	-9052
▁Employment	-9053
ENCE	-9054
aria	-9055
▁Tib	-9056
liance	-9057
▁Total	-9058
▁muscle	-9059
▁springs	-9060
▁Transfer	-9061
▁entrance	-9062
▁tourists	-9063
▁countrymen	-9064
mail	-9065
▁25,	-9066
▁bare	-9067
▁Title	-9068
PRODUCT	-9069
▁Sikkim	-9070
▁visits	-9071
▁ascribe	-9072
▁plugins	-9073
▁Personal	-9074
▁keyboard	-9075
▁sacrific	-9076
JP	-9077
▁USA	-9078
ounced	-9079
owered	-9080
▁Times	-9081
▁Nation	-9082
▁golden	-9083
▁experts	-9084
▁payments	-9085
▁Procedure	-9086
▁resistance	-9087
▁connections	-9088
asp	-9089
unch	-9090
eding	-9091
point	-9092
▁calf	-9093
▁brill	-9094
▁doors	-9095
▁immun	-9096
▁posts	-9097
▁genuine	-9098
▁players	-9099
▁Whenever	-9100
▁prevented	-9101
▁Ministries	-9102
01.	-9103
rav	-9104
▁Arun	-9105
▁alph	-9106
▁Grand	-9107
▁bount	-9108
▁lotus	-9109
▁memor	-9110
▁operate	-9111
▁colonial	-9112
▁comments	-9113
▁extraord	-9114
▁virtuous	-9115
▁accessible	-9116
▁candidates	-9117
rue	-9118
ymph	-9119
▁Jer	-9120
▁Kav	-9121
▁bin	-9122
▁pear	-9123
▁adapt	-9124
▁angel	-9125
issions	-9126
ifically	-9127
▁reducing	-9128
▁Wikipedia	-9129
ulus	-9130
▁Gos	-9131
▁hes	-9132
▁Mart	-9133
▁chat	-9134
▁fool	-9135
▁Champ	-9136
▁evildo	-9137
▁immort	-9138
▁module	-9139
▁realized	-9140
▁festivals	-9141
▁ly	-9142
▁ma	-9143
icer	-9144
▁Son	-9145
▁pul	-9146
eping	-9147
▁Java	-9148
▁hire	-9149
inking	-9150
▁Cance	-9151
▁guess	-9152
▁faster	-9153
▁varied	-9154
▁Washing	-9155
▁focused	-9156
▁nearest	-9157
▁dangerous	-9158
▁exclusively	-9159
bh	-9160
wali	-9161
avana	-9162
igarh	-9163
uting	-9164
▁Requ	-9165
▁Sovi	-9166
▁dish	-9167
herent	-9168
▁Indira	-9169
▁Jewish	-9170
▁prestig	-9171
▁unfortun	-9172
▁manuscript	-9173
▁Mas	-9174
▁awa	-9175
aning	-9176
▁SHRI	-9177
▁cust	-9178
▁Patel	-9179
▁loaded	-9180
▁silent	-9181
▁sounds	-9182
chnology	-9183
▁watching	-9184
rete	-9185
acious	-9186
▁Thank	-9187
▁spons	-9188
▁Moreover	-9189
▁presents	-9190
▁convinced	-9191
▁indicated	-9192
’,	-9193
▁younger	-9194
▁perceive	-9195
isan	-9196
atellite	-9197
▁Academy	-9198
▁damaged	-9199
▁Administration	-9200
SE	-9201
ino	-9202
▁Ord	-9203
▁cum	-9204
aired	-9205
▁amid	-9206
▁wave	-9207
▁acted	-9208
▁miles	-9209
▁colleges	-9210
▁organism	-9211
▁permissions	-9212
Did	-9213
inth	-9214
haust	-9215
rogen	-9216
▁Badr	-9217
▁Paper	-9218
ilitation	-9219
▁thankful	-9220
▁frequently	-9221
▁Departments	-9222
19	-9223
▁Je	-9224
eeds	-9225
▁400	-9226
▁Nir	-9227
▁Str	-9228
▁Vid	-9229
ainted	-9230
▁brave	-9231
▁recur	-9232
▁assumed	-9233
▁chromos	-9234
▁earthqu	-9235
▁depending	-9236
▁membership	-9237
BER	-9238
ofs	-9239
anth	-9240
▁Gir	-9241
▁Ish	-9242
▁Ven	-9243
▁lod	-9244
stone	-9245
which	-9246
▁stom	-9247
ricted	-9248
▁Forum	-9249
▁debug	-9250
▁bitter	-9251
▁colors	-9252
lessness	-9253
▁expanded	-9254
▁emergency	-9255
▁gathering	-9256
▁institute	-9257
▁scheduled	-9258
itate	-9259
▁Bhar	-9260
▁Kath	-9261
▁nerve	-9262
▁shade	-9263
▁Behold	-9264
▁binding	-9265
▁Transport	-9266
▁composition	-9267
▁Ru	-9268
asts	-9269
▁Bush	-9270
▁remed	-9271
▁adverse	-9272
▁villagers	-9273
▁suggestions	-9274
IAN	-9275
bing	-9276
▁Dam	-9277
▁LDAP	-9278
▁Mach	-9279
people	-9280
▁exped	-9281
▁shout	-9282
▁Design	-9283
▁disturb	-9284
▁Directory	-9285
▁acceptable	-9286
▁parameters	-9287
▁III	-9288
▁Rao	-9289
▁gri	-9290
.2013	-9291
▁Love	-9292
▁True	-9293
▁bore	-9294
▁magaz	-9295
▁Mosque	-9296
▁Terror	-9297
▁prejud	-9298
▁incorporated	-9299
How	-9300
▁Ve	-9301
▁ho	-9302
▁Smt	-9303
cient	-9304
▁Rule	-9305
▁Kabir	-9306
▁Return	-9307
▁troops	-9308
▁somewhat	-9309
▁Dou	-9310
▁rab	-9311
orses	-9312
▁storm	-9313
▁assert	-9314
▁fairly	-9315
▁resear	-9316
▁amalgam	-9317
▁startup	-9318
▁Gujarati	-9319
▁disorder	-9320
▁Sucharita	-9321
▁forgotten	-9322
ARY	-9323
▁Oh	-9324
▁fan	-9325
▁whis	-9326
▁tests	-9327
▁Mobile	-9328
▁doubts	-9329
▁wooden	-9330
▁Loading	-9331
▁entries	-9332
▁precious	-9333
▁utilised	-9334
▁furnished	-9335
▁corporation	-9336
,%	-9337
hash	-9338
▁loy	-9339
▁fost	-9340
▁Polit	-9341
▁loved	-9342
▁shadow	-9343
▁answers	-9344
▁doctors	-9345
▁loading	-9346
▁singing	-9347
▁belonged	-9348
▁visiting	-9349
▁philosoph	-9350
who	-9351
▁65	-9352
bled	-9353
shan	-9354
▁RBI	-9355
▁tun	-9356
▁Vill	-9357
isible	-9358
ovable	-9359
▁disag	-9360
▁saint	-9361
atories	-9362
▁cancel	-9363
▁batsman	-9364
▁regards	-9365
▁disaster	-9366
▁everybody	-9367
▁exchanges	-9368
▁exclusive	-9369
▁Washington	-9370
▁experienced	-9371
▁investigation	-9372
jun	-9373
ogy	-9374
▁20,	-9375
▁aer	-9376
ocket	-9377
▁doth	-9378
▁penet	-9379
▁snake	-9380
▁Solomon	-9381
▁NATIONAL	-9382
▁Himalayas	-9383
70	-9384
lec	-9385
▁11,	-9386
▁gap	-9387
▁ing	-9388
erals	-9389
orted	-9390
▁Star	-9391
▁seal	-9392
▁conqu	-9393
▁assemb	-9394
▁deprec	-9395
▁headed	-9396
▁holder	-9397
▁nearby	-9398
▁Russian	-9399
▁scattered	-9400
CP	-9401
uri	-9402
▁ju	-9403
pura	-9404
ashed	-9405
▁CALL	-9406
▁Praise	-9407
▁Planning	-9408
▁exception	-9409
ye	-9410
▁CP	-9411
▁Ray	-9412
ifier	-9413
xygen	-9414
ername	-9415
▁Birth	-9416
▁uncle	-9417
▁Sheikh	-9418
▁orphans	-9419
▁dramatic	-9420
▁punished	-9421
▁strongly	-9422
▁Governors	-9423
▁hereafter	-9424
▁derivative	-9425
nut	-9426
▁(5	-9427
▁la	-9428
isal	-9429
▁bef	-9430
ogram	-9431
▁misle	-9432
▁Portug	-9433
▁Review	-9434
▁Soviet	-9435
▁copies	-9436
▁examine	-9437
▁artificial	-9438
▁encouraging	-9439
▁residential	-9440
But	-9441
▁Own	-9442
▁Rot	-9443
incial	-9444
▁taxes	-9445
▁Enterpr	-9446
▁inspire	-9447
▁neglect	-9448
▁occupied	-9449
▁therewith	-9450
▁Beneficent	-9451
▁simultaneous	-9452
15	-9453
▁CA	-9454
erge	-9455
▁1000	-9456
▁Zoom	-9457
▁auth	-9458
▁maid	-9459
▁stro	-9460
screen	-9461
▁Event	-9462
▁Point	-9463
▁Vedas	-9464
▁devil	-9465
▁fright	-9466
▁planet	-9467
▁arrival	-9468
▁barrier	-9469
▁Contacts	-9470
▁generate	-9471
▁financing	-9472
▁Secretariat	-9473
All	-9474
coh	-9475
gal	-9476
aras	-9477
▁jack	-9478
▁Reminder	-9479
▁diamonds	-9480
▁warnings	-9481
▁Agreement	-9482
oa	-9483
ulum	-9484
▁Ber	-9485
apped	-9486
herry	-9487
▁Lead	-9488
▁drag	-9489
▁ward	-9490
retion	-9491
▁spell	-9492
atively	-9493
▁cutting	-9494
▁insight	-9495
▁Festival	-9496
▁wherewith	-9497
▁Literature	-9498
rh	-9499
▁08	-9500
inar	-9501
zone	-9502
▁Mut	-9503
ighth	-9504
▁Prim	-9505
▁calm	-9506
▁mood	-9507
orious	-9508
▁Abdul	-9509
▁Conne	-9510
▁Speech	-9511
▁Toolbar	-9512
▁descendants	-9513
▁appreciation	-9514
EV	-9515
▁AW	-9516
▁Na	-9517
ahan	-9518
anti	-9519
▁asc	-9520
rected	-9521
▁shock	-9522
▁injured	-9523
▁acknowled	-9524
▁agreements	-9525
▁geographical	-9526
▁characteristics	-9527
bra	-9528
soft	-9529
whel	-9530
▁Aur	-9531
▁Jam	-9532
▁1996	-9533
▁Cost	-9534
▁Paul	-9535
▁urged	-9536
▁cursed	-9537
▁retain	-9538
▁pending	-9539
▁eventually	-9540
ifts	-9541
▁mac	-9542
umpet	-9543
▁Until	-9544
▁norms	-9545
▁bought	-9546
▁regret	-9547
▁reflected	-9548
▁recipients	-9549
igg	-9550
emor	-9551
▁1998	-9552
▁pool	-9553
▁suck	-9554
icians	-9555
▁Durga	-9556
▁tribe	-9557
omplete	-9558
▁Branch	-9559
▁inputs	-9560
▁prayed	-9561
▁splend	-9562
ifferent	-9563
▁Without	-9564
▁bondmen	-9565
▁closing	-9566
▁rational	-9567
▁encounter	-9568
▁preceding	-9569
▁approaches	-9570
▁controvers	-9571
kes	-9572
zen	-9573
▁Max	-9574
▁POP	-9575
▁Vik	-9576
▁env	-9577
▁voc	-9578
▁Real	-9579
▁Vish	-9580
▁drum	-9581
▁epic	-9582
▁gates	-9583
▁Ganges	-9584
▁handed	-9585
▁Position	-9586
▁reserved	-9587
▁recording	-9588
▁appreciate	-9589
To	-9590
mans	-9591
▁Put	-9592
▁cav	-9593
▁gun	-9594
▁memb	-9595
▁nerv	-9596
▁piety	-9597
▁plane	-9598
▁grains	-9599
▁island	-9600
▁African	-9601
▁William	-9602
▁acquire	-9603
▁revision	-9604
▁altogether	-9605
▁ll	-9606
xide	-9607
▁Exc	-9608
▁Gar	-9609
▁seas	-9610
▁cater	-9611
▁frust	-9612
▁mining	-9613
▁Protocol	-9614
▁dwellers	-9615
▁patterns	-9616
▁prophets	-9617
▁pest	-9618
▁Activ	-9619
▁diver	-9620
▁relie	-9621
▁freely	-9622
▁warrant	-9623
▁Consider	-9624
▁kindness	-9625
▁clipboard	-9626
▁interview	-9627
So	-9628
ATES	-9629
asion	-9630
▁1992	-9631
▁Band	-9632
▁trek	-9633
▁mixture	-9634
▁silence	-9635
▁whichever	-9636
agon	-9637
▁Inv	-9638
▁drew	-9639
▁intr	-9640
▁lung	-9641
▁repair	-9642
▁Turkish	-9643
▁boiling	-9644
▁dynasty	-9645
▁routine	-9646
▁abundant	-9647
▁applicant	-9648
▁delegation	-9649
▁supplement	-9650
▁extraordinary	-9651
13	-9652
▁aus	-9653
▁kit	-9654
icode	-9655
▁Were	-9656
▁ages	-9657
▁lowest	-9658
▁thrust	-9659
▁attracted	-9660
▁enhancing	-9661
▁ornaments	-9662
oda	-9663
▁1990	-9664
▁breat	-9665
▁brown	-9666
▁dates	-9667
▁moves	-9668
▁Maurit	-9669
▁Movement	-9670
▁Municipal	-9671
uti	-9672
▁EX	-9673
▁gro	-9674
▁pec	-9675
aland	-9676
archy	-9677
lause	-9678
▁Thee	-9679
▁unre	-9680
▁grows	-9681
▁ridic	-9682
▁openly	-9683
▁upright	-9684
▁instruct	-9685
tis	-9686
zer	-9687
airy	-9688
▁rear	-9689
▁shap	-9690
▁slay	-9691
ighter	-9692
▁alloc	-9693
▁indul	-9694
▁label	-9695
▁perish	-9696
▁widget	-9697
▁gn	-9698
anes	-9699
ario	-9700
▁Rich	-9701
▁butt	-9702
▁pour	-9703
▁Topics	-9704
▁partly	-9705
▁purity	-9706
▁helpers	-9707
▁partial	-9708
▁dialogue	-9709
▁handling	-9710
▁necessity	-9711
▁exploitation	-9712
.).	-9713
ademi	-9714
utosh	-9715
▁degr	-9716
▁gest	-9717
itudes	-9718
olence	-9719
▁excav	-9720
▁lease	-9721
▁seize	-9722
▁pretty	-9723
▁Desktop	-9724
▁wearing	-9725
▁reminded	-9726
▁statutory	-9727
▁photograph	-9728
▁capabilities	-9729
1)	-9730
KS	-9731
oz	-9732
pay	-9733
fold	-9734
lock	-9735
▁Draw	-9736
▁Megh	-9737
▁Shall	-9738
▁cache	-9739
▁lingu	-9740
▁Session	-9741
▁profound	-9742
▁television	-9743
▁accommodation	-9744
ffee	-9745
awful	-9746
ulses	-9747
ounder	-9748
▁films	-9749
bour	-9750
film	-9751
▁Lam	-9752
tends	-9753
▁Sult	-9754
▁Estab	-9755
▁deter	-9756
▁Device	-9757
quarters	-9758
▁outlook	-9759
▁actively	-9760
▁indicates	-9761
pert	-9762
▁12,	-9763
osted	-9764
▁Vert	-9765
▁pupp	-9766
▁Amrit	-9767
▁optim	-9768
▁perse	-9769
assador	-9770
▁Switch	-9771
▁arises	-9772
eches	-9773
icide	-9774
▁Prior	-9775
▁Accept	-9776
▁metres	-9777
▁treaty	-9778
▁exhaust	-9779
▁glorify	-9780
▁noticed	-9781
▁commerce	-9782
Ab	-9783
ca	-9784
orse	-9785
araja	-9786
▁1947	-9787
▁Sang	-9788
▁rans	-9789
▁wire	-9790
▁Patna	-9791
▁hotel	-9792
▁reign	-9793
▁Modern	-9794
▁favors	-9795
▁tested	-9796
▁breaking	-9797
▁Directors	-9798
▁ownership	-9799
▁considering	-9800
itan	-9801
▁alms	-9802
▁hung	-9803
▁begun	-9804
▁crowd	-9805
▁merit	-9806
essment	-9807
▁Netaji	-9808
mination	-9809
▁Digital	-9810
▁bacteria	-9811
▁premises	-9812
▁radiation	-9813
▁Ms	-9814
▁Kon	-9815
water	-9816
▁Math	-9817
▁liar	-9818
▁luck	-9819
▁spin	-9820
▁wand	-9821
▁talks	-9822
▁intent	-9823
▁plains	-9824
▁purify	-9825
▁thinks	-9826
▁pursued	-9827
▁vessels	-9828
▁hardware	-9829
▁excessive	-9830
▁increasingly	-9831
▁Infrastructure	-9832
Are	-9833
akar	-9834
more	-9835
rafts	-9836
▁intu	-9837
▁semi	-9838
▁Jacob	-9839
▁larva	-9840
▁emerge	-9841
▁adoption	-9842
▁interact	-9843
▁inaugurate	-9844
▁preference	-9845
▁scriptures	-9846
▁ultimately	-9847
▁dil	-9848
▁Lake	-9849
▁ther	-9850
▁ceremon	-9851
▁equation	-9852
▁overwhel	-9853
▁supplied	-9854
▁wonderful	-9855
▁commencing	-9856
▁unexpected	-9857
▁innovations	-9858
Lord	-9859
mble	-9860
noon	-9861
▁Dri	-9862
▁Gram	-9863
▁outl	-9864
▁depic	-9865
▁dimin	-9866
▁hopes	-9867
▁nomin	-9868
▁Bureau	-9869
▁Narayan	-9870
▁locally	-9871
▁Commerce	-9872
▁travelled	-9873
Where	-9874
olved	-9875
▁Narm	-9876
▁Radh	-9877
▁Trad	-9878
▁puts	-9879
▁camera	-9880
▁castes	-9881
▁videos	-9882
▁furnish	-9883
▁vertical	-9884
▁Technical	-9885
▁originally	-9886
▁celebrations	-9887
▁Configuration	-9888
iga	-9889
▁mm	-9890
they	-9891
icular	-9892
▁holid	-9893
▁Lahore	-9894
▁Period	-9895
▁advers	-9896
▁corrupt	-9897
▁ignored	-9898
▁imports	-9899
▁tribute	-9900
▁volumes	-9901
▁schedule	-9902
▁abundance	-9903
▁evildoers	-9904
▁obtaining	-9905
▁Preferences	-9906
▁realisation	-9907
▁conventional	-9908
▁Beh	-9909
idian	-9910
▁genus	-9911
itarian	-9912
▁Preview	-9913
▁artists	-9914
▁stomach	-9915
▁literacy	-9916
▁obligations	-9917
▁Debug	-9918
▁Ocean	-9919
▁Track	-9920
▁nodes	-9921
▁chiefs	-9922
▁preval	-9923
▁subsidy	-9924
▁Integrated	-9925
▁programming	-9926
but	-9927
▁2)	-9928
iest	-9929
onut	-9930
▁Ken	-9931
▁dow	-9932
verage	-9933
▁Raman	-9934
▁domin	-9935
▁eager	-9936
fathers	-9937
▁complim	-9938
▁genetic	-9939
Ass	-9940
▁43	-9941
▁bulk	-9942
▁intim	-9943
▁Anjuta	-9944
▁bounds	-9945
▁flying	-9946
▁pursue	-9947
▁worksh	-9948
▁Akademi	-9949
▁conflic	-9950
akrishnan	-9951
▁cultures	-9952
▁restored	-9953
▁connecting	-9954
ef	-9955
▁Vig	-9956
▁unb	-9957
.2019	-9958
gramm	-9959
▁pion	-9960
▁Dwark	-9961
▁Urban	-9962
▁fonts	-9963
▁assume	-9964
▁margin	-9965
▁suspend	-9966
▁thunder	-9967
▁disposal	-9968
▁fragment	-9969
odox	-9970
▁Haz	-9971
▁Ign	-9972
▁bio	-9973
aunch	-9974
▁blow	-9975
▁Citiz	-9976
▁Indra	-9977
▁feared	-9978
▁pardon	-9979
▁themes	-9980
▁Instead	-9981
▁comprom	-9982
▁gracious	-9983
▁mathemat	-9984
▁Standards	-9985
▁correctly	-9986
▁decorated	-9987
rob	-9988
▁NH	-9989
Have	-9990
emat	-9991
▁ped	-9992
llate	-9993
▁waves	-9994
istrate	-9995
▁Normal	-9996
▁Cultural	-9997
▁recognise	-9998
▁therefrom	-9999
▁Vivekananda	-10000
fare	-10001
onic	-10002
asted	-10003
plant	-10004
▁Turn	-10005
▁edit	-10006
▁horn	-10007
▁stem	-10008
▁Plant	-10009
▁Width	-10010
▁blown	-10011
▁Effect	-10012
▁mortal	-10013
▁resemb	-10014
▁Authent	-10015
▁enormous	-10016
▁Guidelines	-10017
▁dedication	-10018
atri	-10019
▁tack	-10020
▁tape	-10021
ankind	-10022
▁angry	-10023
▁queen	-10024
▁smoke	-10025
▁tries	-10026
▁Rename	-10027
▁backend	-10028
▁Constitu	-10029
▁protecting	-10030
▁transparency	-10031
alli	-10032
▁Saf	-10033
▁Nand	-10034
▁lake	-10035
oubted	-10036
▁Sahib	-10037
▁login	-10038
▁males	-10039
▁stret	-10040
▁wider	-10041
▁oldest	-10042
▁circuit	-10043
▁networks	-10044
▁requests	-10045
▁bookmarks	-10046
▁idolaters	-10047
▁BAR	-10048
▁Try	-10049
▁Poly	-10050
▁corn	-10051
▁argue	-10052
▁modify	-10053
▁commend	-10054
▁abnormal	-10055
▁invested	-10056
▁slightly	-10057
▁broadcast	-10058
▁patiently	-10059
▁explanation	-10060
sa	-10061
stru	-10062
▁cin	-10063
▁Grie	-10064
▁Prab	-10065
▁Whom	-10066
ologist	-10067
▁Budget	-10068
▁estate	-10069
▁unlike	-10070
iliation	-10071
▁attacked	-10072
▁conveyed	-10073
▁Processing	-10074
vas	-10075
▁1"	-10076
them	-10077
eenth	-10078
oused	-10079
▁Rate	-10080
▁Index	-10081
▁chart	-10082
▁plate	-10083
▁agenda	-10084
▁ignore	-10085
▁intest	-10086
▁stable	-10087
▁summon	-10088
▁enables	-10089
▁skilled	-10090
▁targets	-10091
▁intermedi	-10092
▁Directorate	-10093
eling	-10094
▁movie	-10095
▁horses	-10096
▁Goddess	-10097
▁Vietnam	-10098
▁colours	-10099
▁allotted	-10100
▁computed	-10101
▁glorious	-10102
▁Malayalam	-10103
▁Assistance	-10104
▁grievances	-10105
▁situations	-10106
▁subsequently	-10107
DO	-10108
oma	-10109
yam	-10110
▁42	-10111
MENT	-10112
▁lac	-10113
▁Bhai	-10114
ESSAGE	-10115
▁desir	-10116
▁Column	-10117
▁destiny	-10118
▁testify	-10119
▁dominion	-10120
▁pregnancy	-10121
▁afterwards	-10122
▁allocation	-10123
▁occupation	-10124
▁continuously	-10125
▁Lit	-10126
agues	-10127
▁Chal	-10128
▁wine	-10129
apping	-10130
▁tears	-10131
▁wound	-10132
▁daniel	-10133
▁harmful	-10134
▁updated	-10135
▁separately	-10136
▁developmental	-10137
▁Pu	-10138
_01.	-10139
evil	-10140
pite	-10141
▁Fre	-10142
▁haz	-10143
▁mud	-10144
▁Able	-10145
▁hect	-10146
▁pump	-10147
akhand	-10148
acharya	-10149
▁Record	-10150
▁Swaraj	-10151
▁butter	-10152
▁orphan	-10153
▁photos	-10154
Applause	-10155
▁license	-10156
▁province	-10157
▁reposted	-10158
▁Organisation	-10159
oil	-10160
▁NE	-10161
▁Oil	-10162
▁Care	-10163
▁Appro	-10164
▁Frame	-10165
▁flags	-10166
▁Canada	-10167
▁adults	-10168
▁errors	-10169
▁legend	-10170
▁museum	-10171
▁Oneness	-10172
▁PRESENT	-10173
▁afflict	-10174
▁sovereignty	-10175
▁approximately	-10176
▁identification	-10177
oka	-10178
▁CV	-10179
cond	-10180
▁Miz	-10181
IVERS	-10182
idity	-10183
steps	-10184
▁Poll	-10185
▁rely	-10186
▁awaits	-10187
▁oppress	-10188
▁segment	-10189
▁winning	-10190
▁RA	-10191
▁vag	-10192
▁wal	-10193
▁tank	-10194
▁Agency	-10195
▁native	-10196
▁Iranian	-10197
▁essence	-10198
▁goodness	-10199
▁forefathers	-10200
▁Notification	-10201
dis	-10202
▁Hig	-10203
▁Camp	-10204
iceroy	-10205
▁Basic	-10206
▁gramm	-10207
▁sixth	-10208
▁Prince	-10209
▁advise	-10210
▁spades	-10211
ointment	-10212
oubtedly	-10213
▁MESSAGE	-10214
▁Studies	-10215
▁Consumer	-10216
▁estimate	-10217
▁describes	-10218
▁compassionate	-10219
PL	-10220
ford	-10221
▁adul	-10222
▁borne	-10223
▁feels	-10224
▁infer	-10225
▁risks	-10226
▁Tribes	-10227
▁mosque	-10228
▁credited	-10229
▁variable	-10230
▁Thereafter	-10231
▁complaints	-10232
iki	-10233
▁()	-10234
regard	-10235
▁Torah	-10236
▁fails	-10237
▁jinns	-10238
▁virus	-10239
▁switch	-10240
▁welcom	-10241
▁Neither	-10242
▁enquiry	-10243
▁mineral	-10244
▁defeated	-10245
▁machines	-10246
▁automatic	-10247
orticulture	-10248
cel	-10249
▁sme	-10250
night	-10251
uated	-10252
▁Vict	-10253
▁nurt	-10254
thodox	-10255
▁landl	-10256
▁reass	-10257
▁legacy	-10258
▁resign	-10259
▁rejoice	-10260
▁Advanced	-10261
ishe	-10262
▁spir	-10263
▁Block	-10264
▁logic	-10265
▁Housing	-10266
▁dividend	-10267
▁continuing	-10268
MA	-10269
olf	-10270
▁Old	-10271
▁Suk	-10272
▁Abdu	-10273
▁Come	-10274
▁fing	-10275
▁gland	-10276
▁tight	-10277
▁Employ	-10278
▁Rather	-10279
▁amended	-10280
▁decimal	-10281
PG	-10282
▁38	-10283
▁55	-10284
chen	-10285
▁ICT	-10286
▁Till	-10287
▁loft	-10288
▁Shast	-10289
▁beach	-10290
▁attempts	-10291
▁devotees	-10292
▁enabling	-10293
▁retirement	-10294
▁surrounding	-10295
agn	-10296
▁Pa	-10297
▁SM	-10298
emia	-10299
rine	-10300
thon	-10301
▁ham	-10302
▁mah	-10303
▁Azad	-10304
▁Bach	-10305
abetes	-10306
idency	-10307
▁Indus	-10308
▁foods	-10309
▁manual	-10310
▁heights	-10311
▁vaccine	-10312
clamation	-10313
▁packages	-10314
▁reserves	-10315
otechnology	-10316
▁comprising	-10317
▁succession	-10318
▁territories	-10319
▁establishing	-10320
▁congratulated	-10321
LS	-10322
VIC	-10323
atal	-10324
idal	-10325
soon	-10326
▁ine	-10327
▁Loan	-10328
▁Phil	-10329
▁bold	-10330
cessor	-10331
▁batter	-10332
▁genius	-10333
▁oxygen	-10334
▁Brahmin	-10335
▁Buddhism	-10336
▁Contract	-10337
▁Property	-10338
▁marginal	-10339
aeological	-10340
▁expertise	-10341
▁listening	-10342
▁appreciated	-10343
17	-10344
JEE	-10345
▁Til	-10346
▁sper	-10347
▁Isaac	-10348
against	-10349
▁Sacred	-10350
▁demerg	-10351
▁vimana	-10352
▁formula	-10353
▁premium	-10354
▁Northern	-10355
▁likeness	-10356
▁secretly	-10357
▁Badruddin	-10358
▁cooperative	-10359
▁restrictions	-10360
ele	-10361
▁39	-10362
▁Yam	-10363
▁isn	-10364
▁Chak	-10365
▁Evil	-10366
otions	-10367
▁alien	-10368
▁digit	-10369
▁ports	-10370
sequently	-10371
▁garments	-10372
▁accounting	-10373
▁necessarily	-10374
ago	-10375
▁kh	-10376
▁exh	-10377
These	-10378
nagar	-10379
▁Hosp	-10380
▁Mant	-10381
pector	-10382
▁Chance	-10383
▁repeat	-10384
▁Offices	-10385
▁cooking	-10386
▁denomin	-10387
▁enacted	-10388
▁fortune	-10389
▁resolved	-10390
▁Microsoft	-10391
▁preserved	-10392
▁Connection	-10393
▁Institution	-10394
▁imprisonment	-10395
das	-10396
eem	-10397
elt	-10398
iti	-10399
eers	-10400
okes	-10401
▁VIS	-10402
▁Bhav	-10403
▁Face	-10404
▁fraud	-10405
▁Header	-10406
▁harmon	-10407
▁speaks	-10408
▁utmost	-10409
▁Initial	-10410
▁Subhash	-10411
▁surgery	-10412
▁commodity	-10413
▁tolerance	-10414
gl	-10415
inte	-10416
▁vot	-10417
▁rocks	-10418
▁crafts	-10419
▁nervous	-10420
▁visitors	-10421
▁Islamists	-10422
▁defendant	-10423
habilitation	-10424
▁Implementation	-10425
kal	-10426
nath	-10427
▁Abs	-10428
andra	-10429
field	-10430
there	-10431
▁Issu	-10432
▁MIME	-10433
tended	-10434
▁tales	-10435
▁trick	-10436
▁Bhagat	-10437
▁refund	-10438
▁surprise	-10439
▁disciples	-10440
▁seriously	-10441
▁withdrawal	-10442
▁complicated	-10443
▁certificates	-10444
%.	-10445
ANG	-10446
acco	-10447
rous	-10448
stan	-10449
▁125	-10450
▁30,	-10451
▁Mim	-10452
▁Mis	-10453
▁din	-10454
▁tons	-10455
▁unem	-10456
formed	-10457
▁Clean	-10458
▁crown	-10459
fulness	-10460
▁denial	-10461
▁Replace	-10462
▁designs	-10463
▁dischar	-10464
▁resting	-10465
▁streets	-10466
▁strings	-10467
▁obedient	-10468
▁pregnant	-10469
▁elsewhere	-10470
▁q	-10471
bly	-10472
▁vo	-10473
▁Atl	-10474
▁GNU	-10475
▁PRO	-10476
▁Auro	-10477
▁Heav	-10478
▁Mill	-10479
▁shed	-10480
▁Reply	-10481
▁Royal	-10482
▁vouch	-10483
▁Island	-10484
▁plenty	-10485
▁utility	-10486
▁examined	-10487
▁Resources	-10488
▁teachings	-10489
▁addressing	-10490
▁substituted	-10491
▁‘%	-10492
▁Gen	-10493
▁Rain	-10494
▁Sidd	-10495
▁Chann	-10496
▁guests	-10497
▁protein	-10498
▁Languages	-10499
UD	-10500
Yes	-10501
▁Ast	-10502
▁peak	-10503
▁token	-10504
▁ransom	-10505
▁divorce	-10506
▁outward	-10507
▁thereon	-10508
▁whereof	-10509
assionate	-10510
▁Building	-10511
▁shoulder	-10512
pass	-10513
▁Gas	-10514
▁MUK	-10515
otism	-10516
▁abol	-10517
▁Street	-10518
▁virtual	-10519
▁vehicles	-10520
▁admission	-10521
▁Regulations	-10522
▁Uttarakhand	-10523
▁SE	-10524
▁TH	-10525
That	-10526
iler	-10527
▁resur	-10528
istence	-10529
▁Jagann	-10530
▁purchased	-10531
▁confirming	-10532
▁sculptures	-10533
BS	-10534
list	-10535
▁IPv	-10536
arted	-10537
▁aest	-10538
▁Third	-10539
▁pharm	-10540
▁Forces	-10541
▁protest	-10542
▁savings	-10543
struction	-10544
▁Progress	-10545
▁speeches	-10546
▁withhold	-10547
▁formulation	-10548
▁Rabindranath	-10549
▁specifically	-10550
ANT	-10551
hta	-10552
nex	-10553
you	-10554
▁Sug	-10555
▁Anal	-10556
course	-10557
wealth	-10558
▁Night	-10559
▁Treat	-10560
▁await	-10561
▁Sindhi	-10562
▁detect	-10563
▁nobody	-10564
▁Electric	-10565
▁helpless	-10566
▁striving	-10567
▁colleagues	-10568
umps	-10569
▁600	-10570
▁Ori	-10571
▁Vaj	-10572
▁Hill	-10573
▁Prat	-10574
▁ling	-10575
▁alcoh	-10576
▁writes	-10577
▁deposited	-10578
sole	-10579
▁14.	-10580
ulent	-10581
▁wont	-10582
HERJEE	-10583
stream	-10584
▁acute	-10585
▁uncom	-10586
ificent	-10587
▁couldn	-10588
▁insult	-10589
▁behavior	-10590
▁creature	-10591
▁MUKHERJEE	-10592
log	-10593
▁Os	-10594
nals	-10595
▁1-4	-10596
▁Was	-10597
▁unw	-10598
pread	-10599
▁Bras	-10600
▁Broad	-10601
▁smart	-10602
▁Station	-10603
▁Teacher	-10604
▁drought	-10605
▁advances	-10606
▁empowerment	-10607
uni	-10608
▁>%	-10609
anqu	-10610
hari	-10611
utra	-10612
▁15.	-10613
▁Dest	-10614
▁Rani	-10615
manship	-10616
▁cometh	-10617
▁Unicode	-10618
▁Warning	-10619
▁borders	-10620
▁ancients	-10621
▁breeding	-10622
▁promises	-10623
▁spending	-10624
▁discovery	-10625
▁inevitable	-10626
REE	-10627
▁MA	-10628
rawn	-10629
▁Hot	-10630
▁pag	-10631
DRESS	-10632
itary	-10633
▁IMAP	-10634
▁aged	-10635
▁india	-10636
▁authors	-10637
▁credits	-10638
▁possibly	-10639
▁Americans	-10640
▁dwellings	-10641
▁publications	-10642
4)	-10643
OW	-10644
iot	-10645
olar	-10646
▁14,	-10647
▁SSL	-10648
▁Tim	-10649
▁1948	-10650
▁1950	-10651
▁caut	-10652
agraha	-10653
▁Scale	-10654
▁genes	-10655
onymous	-10656
▁allied	-10657
▁Viceroy	-10658
▁victims	-10659
▁symbolic	-10660
▁dimension	-10661
▁incidents	-10662
▁preparing	-10663
▁conviction	-10664
▁earthquake	-10665
▁inspection	-10666
▁righteously	-10667
▁transparent	-10668
▁shareholders	-10669
MM	-10670
arkar	-10671
▁irre	-10672
erable	-10673
Prophet	-10674
▁Market	-10675
▁Request	-10676
▁satisfy	-10677
▁thereto	-10678
▁Prophets	-10679
▁economies	-10680
▁conducting	-10681
▁enthusiasm	-10682
▁Cooperation	-10683
▁UP	-10684
▁Naz	-10685
▁Nok	-10686
▁flee	-10687
▁lion	-10688
▁wake	-10689
▁trash	-10690
▁append	-10691
▁habits	-10692
▁serves	-10693
▁Express	-10694
▁Journal	-10695
▁explains	-10696
▁fraction	-10697
▁unlawful	-10698
▁transmitted	-10699
▁worshipping	-10700
▁,	-10701
imet	-10702
mand	-10703
▁tum	-10704
▁Sort	-10705
▁fond	-10706
▁tomb	-10707
▁unsu	-10708
icious	-10709
▁Vijay	-10710
▁honey	-10711
▁molec	-10712
▁Unseen	-10713
▁cursor	-10714
▁urgent	-10715
▁vulner	-10716
▁plastic	-10717
▁disputed	-10718
▁enjoined	-10719
▁comprises	-10720
▁judiciary	-10721
▁*.	-10722
▁Ut	-10723
▁Bay	-10724
▁Hus	-10725
uliar	-10726
▁pipe	-10727
▁Roman	-10728
▁agents	-10729
▁losses	-10730
▁specim	-10731
▁Shankar	-10732
▁beliefs	-10733
▁linkages	-10734
▁railways	-10735
▁Appellate	-10736
▁electrical	-10737
▁productive	-10738
uran	-10739
▁Suf	-10740
▁wet	-10741
enary	-10742
▁Junk	-10743
▁Mich	-10744
▁cryst	-10745
▁slain	-10746
November	-10747
▁Benefit	-10748
▁meanings	-10749
▁peculiar	-10750
▁Community	-10751
▁afflicted	-10752
▁compliance	-10753
09	-10754
also	-10755
ilee	-10756
▁mini	-10757
▁shot	-10758
▁Apply	-10759
▁legit	-10760
▁weigh	-10761
▁Multip	-10762
▁bearer	-10763
▁copper	-10764
▁trusted	-10765
▁typical	-10766
▁birthday	-10767
▁generous	-10768
▁passengers	-10769
▁relatively	-10770
▁Radhakrishnan	-10771
CL	-10772
Us	-10773
Mus	-10774
ald	-10775
owers	-10776
▁Jinn	-10777
▁rope	-10778
▁Samaj	-10779
▁labou	-10780
▁paths	-10781
▁tempt	-10782
▁levied	-10783
▁capture	-10784
▁checked	-10785
▁lending	-10786
▁infidels	-10787
▁studying	-10788
▁guardians	-10789
▁mandatory	-10790
▁Governorate	-10791
▁administrator	-10792
▁54	-10793
five	-10794
▁INA	-10795
▁Pub	-10796
▁tap	-10797
Shall	-10798
▁Deep	-10799
▁Death	-10800
▁Nicob	-10801
▁Radio	-10802
aranasi	-10803
▁Arabia	-10804
▁Father	-10805
▁Sultan	-10806
▁thirst	-10807
▁Brasero	-10808
▁execute	-10809
▁Sciences	-10810
▁complain	-10811
▁managing	-10812
▁receives	-10813
▁Corporate	-10814
▁confusion	-10815
▁occurrence	-10816
▁depreciation	-10817
iph	-10818
lam	-10819
▁Obs	-10820
mates	-10821
▁1980	-10822
▁Acts	-10823
▁glac	-10824
▁Bring	-10825
▁paddy	-10826
theless	-10827
▁Mahade	-10828
▁Odisha	-10829
▁accepts	-10830
▁forming	-10831
▁Chhattis	-10832
▁Establish	-10833
▁regulation	-10834
▁suggestion	-10835
▁particulars	-10836
RU	-10837
TO	-10838
mind	-10839
▁Haj	-10840
▁Rai	-10841
ctive	-10842
▁Laws	-10843
▁pixels	-10844
▁scroll	-10845
ologists	-10846
▁demanded	-10847
▁interval	-10848
▁enforcement	-10849
▁Six	-10850
▁nigh	-10851
▁Amount	-10852
▁awaken	-10853
▁barren	-10854
▁coconut	-10855
▁leather	-10856
▁discount	-10857
▁residents	-10858
▁searching	-10859
▁designated	-10860
▁previously	-10861
▁prosperous	-10862
▁restricted	-10863
.),	-10864
kin	-10865
▁ul	-10866
▁”.	-10867
▁Dan	-10868
▁Pot	-10869
▁cha	-10870
apore	-10871
▁clin	-10872
▁dumb	-10873
▁loud	-10874
▁tone	-10875
▁Jaipur	-10876
▁framed	-10877
▁Upanish	-10878
▁jointly	-10879
▁balanced	-10880
▁medicines	-10881
▁incomplete	-10882
▁prosecution	-10883
Un	-10884
aza	-10885
▁51	-10886
▁Age	-10887
▁Fig	-10888
▁sar	-10889
▁Crit	-10890
▁cogn	-10891
igence	-10892
▁Entry	-10893
▁burst	-10894
▁flows	-10895
tlement	-10896
▁deeper	-10897
▁eleven	-10898
▁licence	-10899
▁rituals	-10900
▁toolbar	-10901
▁Partners	-10902
▁Vertical	-10903
▁pandemic	-10904
▁Judgement	-10905
▁Monitoring	-10906
▁complement	-10907
CI	-10908
HO	-10909
bum	-10910
obi	-10911
sar	-10912
udh	-10913
▁56	-10914
▁9,	-10915
▁Ca	-10916
▁MW	-10917
vati	-10918
▁Mys	-10919
▁Squ	-10920
▁gov	-10921
TIONS	-10922
teenth	-10923
▁Queen	-10924
▁crack	-10925
▁advent	-10926
▁emails	-10927
▁talked	-10928
▁Perform	-10929
▁elephants	-10930
▁intensity	-10931
▁processed	-10932
▁affliction	-10933
▁terrorists	-10934
▁experiments	-10935
▁bid	-10936
riers	-10937
▁Conv	-10938
▁Fold	-10939
▁zoom	-10940
▁bride	-10941
▁edited	-10942
▁ADDRESS	-10943
▁Emperor	-10944
▁Programm	-10945
▁prisoners	-10946
▁modification	-10947
▁85	-10948
gged	-10949
ohan	-10950
rious	-10951
urbed	-10952
▁Ayat	-10953
▁Rang	-10954
isting	-10955
urrent	-10956
▁Along	-10957
▁abdom	-10958
▁afore	-10959
▁angle	-10960
arkhand	-10961
▁pestic	-10962
▁Kannada	-10963
▁obviously	-10964
▁functional	-10965
▁Accordingly	-10966
▁determining	-10967
▁discrimination	-10968
25	-10969
isk	-10970
▁BI	-10971
▁cm	-10972
pany	-10973
▁bon	-10974
▁Week	-10975
▁jump	-10976
▁unus	-10977
▁wond	-10978
utical	-10979
▁Nodal	-10980
▁Rajput	-10981
▁Version	-10982
▁affects	-10983
▁Abdullah	-10984
▁Guardian	-10985
▁Religion	-10986
▁sessions	-10987
▁sympathy	-10988
▁verified	-10989
▁Ahmedabad	-10990
▁Whosoever	-10991
▁afternoon	-10992
▁locations	-10993
▁Revolution	-10994
▁involvement	-10995
▁Administrative	-10996
saf	-10997
▁Emb	-10998
▁Occ	-10999
named	-11000
ordan	-11001
▁epis	-11002
aterial	-11003
imental	-11004
▁Prepar	-11005
▁Sharma	-11006
▁enters	-11007
▁relate	-11008
▁Persons	-11009
▁earning	-11010
▁headers	-11011
▁helpful	-11012
▁utterly	-11013
▁Gracious	-11014
▁assessed	-11015
▁coloured	-11016
▁Securities	-11017
▁substitute	-11018
▁threatened	-11019
▁participated	-11020
▁Authentication	-11021
col	-11022
▁64	-11023
▁Jo	-11024
▁Ki	-11025
▁pa	-11026
emen	-11027
▁13.	-11028
neath	-11029
rowse	-11030
scape	-11031
▁Gate	-11032
▁Icon	-11033
▁Lock	-11034
▁Pall	-11035
limate	-11036
▁reven	-11037
wellery	-11038
▁Kanpur	-11039
▁absent	-11040
▁liberty	-11041
▁Aurobind	-11042
▁Straight	-11043
▁monetary	-11044
▁libraries	-11045
▁reception	-11046
▁referring	-11047
▁compulsory	-11048
▁incentives	-11049
▁separation	-11050
▁disobedience	-11051
▁concentration	-11052
▁professionals	-11053
OD	-11054
osc	-11055
▁Gal	-11056
▁Sit	-11057
▁rows	-11058
ifting	-11059
▁Youth	-11060
▁mango	-11061
▁Golden	-11062
▁conspir	-11063
▁endowed	-11064
▁Varanasi	-11065
▁artistic	-11066
▁concrete	-11067
▁candidate	-11068
▁Regulation	-11069
▁absolutely	-11070
▁Compassionate	-11071
:'	-11072
▁13,	-11073
▁tiny	-11074
akings	-11075
itated	-11076
▁query	-11077
▁digest	-11078
▁Primary	-11079
▁relates	-11080
▁respects	-11081
▁generating	-11082
▁invitation	-11083
▁Chhattisgarh	-11084
▁Hem	-11085
▁Rat	-11086
▁Poet	-11087
▁Wait	-11088
▁coin	-11089
▁germ	-11090
▁push	-11091
▁supr	-11092
▁Month	-11093
▁Photo	-11094
▁grade	-11095
uminous	-11096
▁quoted	-11097
▁disable	-11098
▁funding	-11099
▁lecture	-11100
▁symbols	-11101
▁auspicious	-11102
pus	-11103
▁47	-11104
hers	-11105
▁Sou	-11106
ivest	-11107
▁(200	-11108
▁Swed	-11109
▁quad	-11110
usalem	-11111
▁Reset	-11112
▁flame	-11113
▁solemn	-11114
▁tenant	-11115
▁Changes	-11116
▁Singles	-11117
▁vitamin	-11118
▁airports	-11119
▁borrower	-11120
▁intimate	-11121
▁chemicals	-11122
▁constitut	-11123
▁footsteps	-11124
▁initially	-11125
mad	-11126
▁49	-11127
▁Tat	-11128
▁fer	-11129
▁fors	-11130
▁Paris	-11131
▁Prize	-11132
▁Active	-11133
▁Senior	-11134
▁matches	-11135
▁mutually	-11136
▁rainfall	-11137
▁personally	-11138
▁imperialism	-11139
▁architectural	-11140
API	-11141
rix	-11142
▁2:	-11143
▁Sn	-11144
▁COV	-11145
▁Hum	-11146
▁mit	-11147
alled	-11148
pered	-11149
▁Hast	-11150
▁Mong	-11151
▁doct	-11152
▁nest	-11153
▁nice	-11154
▁seiz	-11155
ulator	-11156
▁Pract	-11157
▁surve	-11158
cribers	-11159
▁allies	-11160
▁goodly	-11161
▁honest	-11162
▁upload	-11163
▁seventy	-11164
▁prevention	-11165
▁travelling	-11166
uis	-11167
▁CR	-11168
▁aqu	-11169
▁HTTP	-11170
▁Host	-11171
▁swit	-11172
▁Moosa	-11173
▁Nokia	-11174
▁Works	-11175
▁irres	-11176
▁lists	-11177
▁Within	-11178
▁curric	-11179
▁Acharya	-11180
roduction	-11181
▁interpre	-11182
▁concluded	-11183
▁discourse	-11184
▁perception	-11185
▁philosophical	-11186
HI	-11187
hin	-11188
iac	-11189
amar	-11190
▁50,	-11191
▁Tun	-11192
▁ray	-11193
▁tact	-11194
ubilee	-11195
▁rests	-11196
▁slope	-11197
▁Jordan	-11198
▁Seeing	-11199
▁anyway	-11200
▁ruined	-11201
▁timely	-11202
▁retired	-11203
▁minority	-11204
▁pleasant	-11205
▁Aurobindo	-11206
▁Available	-11207
▁rebellion	-11208
tw	-11209
pal	-11210
▁Ro	-11211
born	-11212
even	-11213
oult	-11214
▁Cut	-11215
▁Vari	-11216
▁maxim	-11217
▁Mysore	-11218
▁Toggle	-11219
▁affirm	-11220
▁picked	-11221
▁Village	-11222
▁rewarded	-11223
▁paragraph	-11224
▁rendering	-11225
ROM	-11226
cons	-11227
isco	-11228
▁Tre	-11229
▁1991	-11230
▁outs	-11231
▁rejo	-11232
▁scan	-11233
▁trig	-11234
▁admir	-11235
▁crude	-11236
▁penis	-11237
▁betray	-11238
▁endure	-11239
▁Schemes	-11240
▁abandon	-11241
▁anybody	-11242
▁pursuit	-11243
▁retreat	-11244
▁humility	-11245
▁immortal	-11246
▁inferior	-11247
▁manpower	-11248
▁withdrawn	-11249
▁Dwarkanath	-11250
Com	-11251
map	-11252
ocy	-11253
ania	-11254
yles	-11255
▁wax	-11256
Bring	-11257
▁1997	-11258
▁Very	-11259
▁lots	-11260
acular	-11261
▁Nobel	-11262
▁enjoin	-11263
▁intend	-11264
▁plural	-11265
▁weapon	-11266
▁Consult	-11267
▁Despite	-11268
▁discard	-11269
▁proceeds	-11270
▁tributes	-11271
▁elaborate	-11272
▁capability	-11273
▁perspective	-11274
TA	-11275
pi	-11276
iah	-11277
itr	-11278
rak	-11279
▁1'	-11280
onia	-11281
▁rat	-11282
▁bent	-11283
▁hole	-11284
▁palms	-11285
▁semin	-11286
▁Govind	-11287
▁extrem	-11288
▁mature	-11289
▁adorned	-11290
▁tissues	-11291
aceutical	-11292
▁captured	-11293
▁immovable	-11294
▁simultaneously	-11295
An	-11296
thren	-11297
▁dupl	-11298
cessors	-11299
▁Econom	-11300
▁Manual	-11301
▁dollar	-11302
▁lesser	-11303
▁nights	-11304
▁Finally	-11305
▁Mizoram	-11306
▁chamber	-11307
▁survive	-11308
▁obedience	-11309
▁recovered	-11310
DM	-11311
unto	-11312
.2017	-11313
isans	-11314
itted	-11315
▁agro	-11316
▁beet	-11317
▁rand	-11318
▁ster	-11319
▁void	-11320
roller	-11321
urable	-11322
▁fount	-11323
▁numer	-11324
▁makers	-11325
▁passes	-11326
▁Writing	-11327
▁muscles	-11328
▁secured	-11329
▁declined	-11330
▁heedless	-11331
▁Arunachal	-11332
▁expanding	-11333
▁safeguard	-11334
▁inheritance	-11335
!'	-11336
cho	-11337
uma	-11338
▁16,	-11339
agari	-11340
feren	-11341
▁Quit	-11342
▁junk	-11343
▁Large	-11344
▁coins	-11345
▁Memory	-11346
▁desist	-11347
▁extends	-11348
▁bounties	-11349
▁checking	-11350
▁romantic	-11351
▁Jerusalem	-11352
▁phenomenon	-11353
▁Environmental	-11354
bab	-11355
▁Ku	-11356
▁sq	-11357
rapy	-11358
▁Sul	-11359
▁hub	-11360
ceans	-11361
cence	-11362
ieval	-11363
▁1993	-11364
▁Alif	-11365
▁Bagh	-11366
itably	-11367
▁PRANAB	-11368
▁rename	-11369
▁anticip	-11370
▁untouch	-11371
▁retrieve	-11372
▁wretched	-11373
▁endeavours	-11374
SC	-11375
bo	-11376
win	-11377
▁Ho	-11378
▁remun	-11379
▁hosted	-11380
▁weaken	-11381
▁Banking	-11382
▁revised	-11383
▁Original	-11384
▁welcomed	-11385
▁Petroleum	-11386
▁narrative	-11387
▁prevalent	-11388
▁indirectly	-11389
▁possibilities	-11390
py	-11391
ROW	-11392
▁AL	-11393
▁Chh	-11394
▁Decl	-11395
▁Moon	-11396
▁Sand	-11397
▁fled	-11398
▁Shakti	-11399
▁blocks	-11400
▁mouths	-11401
economic	-11402
▁Payment	-11403
▁contrad	-11404
▁contempt	-11405
▁controls	-11406
▁extending	-11407
▁liberation	-11408
▁rebellious	-11409
ERN	-11410
isa	-11411
kha	-11412
▁66	-11413
quet	-11414
uate	-11415
anger	-11416
▁Film	-11417
ickets	-11418
▁Glory	-11419
▁vigil	-11420
▁concess	-11421
▁fingers	-11422
▁concepts	-11423
▁coverage	-11424
▁unjustly	-11425
▁vouchsaf	-11426
▁Highlight	-11427
▁evaluation	-11428
▁underneath	-11429
▁scholarship	-11430
ky	-11431
ael	-11432
oqu	-11433
ori	-11434
▁UK	-11435
acle	-11436
akat	-11437
awan	-11438
etus	-11439
phal	-11440
▁16.	-11441
▁XML	-11442
▁bew	-11443
▁que	-11444
▁Shar	-11445
holder	-11446
iative	-11447
illing	-11448
person	-11449
▁ordin	-11450
▁upset	-11451
▁Applic	-11452
▁laying	-11453
ivestock	-11454
▁Sahitya	-11455
▁abiding	-11456
▁avoided	-11457
▁secrets	-11458
▁criteria	-11459
▁assistant	-11460
▁criminals	-11461
▁fertilizers	-11462
aga	-11463
▁AC	-11464
ball	-11465
▁183	-11466
▁Moz	-11467
▁WOR	-11468
▁hol	-11469
anned	-11470
▁Body	-11471
▁Ital	-11472
▁Memo	-11473
▁Veda	-11474
▁mamm	-11475
ressal	-11476
▁Audit	-11477
▁lofty	-11478
▁random	-11479
▁Systems	-11480
▁Particip	-11481
▁Extension	-11482
▁definitely	-11483
▁sanitation	-11484
▁',	-11485
▁WIT	-11486
itime	-11487
ridge	-11488
▁ambit	-11489
▁ought	-11490
reshold	-11491
▁Worlds	-11492
▁riches	-11493
▁stores	-11494
▁explore	-11495
▁mailbox	-11496
▁monsoon	-11497
▁upgrade	-11498
▁whereon	-11499
▁deprived	-11500
▁measured	-11501
▁moderate	-11502
▁receipts	-11503
▁favourite	-11504
▁comparison	-11505
▁Electronics	-11506
▁possessions	-11507
▁accomplished	-11508
PM	-11509
anc	-11510
amba	-11511
fers	-11512
▁cad	-11513
apati	-11514
oints	-11515
▁Mall	-11516
▁Grace	-11517
▁Legal	-11518
▁Stock	-11519
▁hears	-11520
▁nucle	-11521
▁warri	-11522
▁meters	-11523
curement	-11524
iciaries	-11525
▁columns	-11526
▁logical	-11527
▁serpent	-11528
▁Question	-11529
▁magnetic	-11530
▁suggests	-11531
NR	-11532
▁46	-11533
oshi	-11534
▁(6)	-11535
▁Naw	-11536
isive	-11537
ursed	-11538
▁inqu	-11539
▁Menon	-11540
▁Paste	-11541
▁creed	-11542
▁rooms	-11543
▁Output	-11544
▁Saving	-11545
▁averse	-11546
▁explos	-11547
▁Tripura	-11548
▁dollars	-11549
▁neglected	-11550
▁classified	-11551
▁collecting	-11552
▁liabilities	-11553
ki	-11554
eda	-11555
▁50%	-11556
iscal	-11557
▁bits	-11558
▁Following	-11559
▁Secondary	-11560
▁confirmed	-11561
▁greatness	-11562
pex	-11563
uild	-11564
▁aug	-11565
▁Dhar	-11566
▁chol	-11567
▁flav	-11568
▁Shait	-11569
▁accru	-11570
▁greed	-11571
emption	-11572
▁Medium	-11573
▁decent	-11574
▁calamity	-11575
▁comprehe	-11576
▁Reference	-11577
▁lightning	-11578
▁Enterprises	-11579
▁disobedient	-11580
▁entertainment	-11581
ias	-11582
some	-11583
▁Hyd	-11584
▁Vin	-11585
▁Feed	-11586
▁Puri	-11587
icable	-11588
▁Cross	-11589
▁Front	-11590
itaries	-11591
▁excuse	-11592
▁voting	-11593
▁existed	-11594
▁brethren	-11595
▁Mauritius	-11596
▁Palestine	-11597
▁engineers	-11598
▁factories	-11599
▁charitable	-11600
▁convenient	-11601
18	-11602
OST	-11603
OUR	-11604
ket	-11605
▁Tu	-11606
▁Uz	-11607
▁ii	-11608
riend	-11609
▁Fran	-11610
▁disb	-11611
▁Medic	-11612
▁Estate	-11613
hibition	-11614
▁Andaman	-11615
▁Revenue	-11616
▁goodwill	-11617
▁Territory	-11618
▁condemned	-11619
▁Horizontal	-11620
▁households	-11621
▁Partnership	-11622
▁transformed	-11623
08	-11624
aki	-11625
ibh	-11626
▁Lay	-11627
▁Decc	-11628
▁indec	-11629
▁mobil	-11630
▁ninet	-11631
▁purely	-11632
▁sensit	-11633
ternally	-11634
▁Farmers	-11635
▁compact	-11636
▁clothing	-11637
▁Terrorism	-11638
▁satellite	-11639
▁disability	-11640
▁transition	-11641
▁Automatically	-11642
▁significantly	-11643
cca	-11644
mas	-11645
tar	-11646
only	-11647
thal	-11648
▁MIN	-11649
verted	-11650
▁Kalam	-11651
▁stern	-11652
▁armies	-11653
▁rescue	-11654
▁anxious	-11655
▁tongues	-11656
▁Nagaland	-11657
▁predomin	-11658
▁synchron	-11659
▁Allowance	-11660
▁scientist	-11661
▁Ambassador	-11662
▁coordinate	-11663
▁mechanical	-11664
▁nationalism	-11665
▁observation	-11666
▁Op	-11667
usha	-11668
▁Lin	-11669
▁fur	-11670
nders	-11671
▁Base	-11672
onents	-11673
▁Compl	-11674
▁brand	-11675
▁cheap	-11676
▁irrit	-11677
▁repro	-11678
▁Bhagav	-11679
▁Client	-11680
▁Reform	-11681
▁vested	-11682
▁befalls	-11683
▁deserve	-11684
▁prolong	-11685
▁Recovery	-11686
▁Portugues	-11687
▁brilliant	-11688
▁divisions	-11689
▁honourable	-11690
▁intercourse	-11691
lis	-11692
▁gh	-11693
Will	-11694
mity	-11695
wari	-11696
▁lux	-11697
▁sul	-11698
ograp	-11699
▁Gran	-11700
▁INAUG	-11701
▁minim	-11702
▁tiger	-11703
▁coffee	-11704
▁tempor	-11705
remember	-11706
▁exposure	-11707
▁purified	-11708
▁Statement	-11709
▁abandoned	-11710
▁supramental	-11711
eta	-11712
held	-11713
omas	-11714
ptic	-11715
▁Hit	-11716
▁kids	-11717
▁misd	-11718
▁Based	-11719
▁Bless	-11720
▁chick	-11721
fortune	-11722
▁deaths	-11723
▁lights	-11724
▁retail	-11725
Amendment	-11726
▁confused	-11727
▁differed	-11728
▁disclose	-11729
▁shortcut	-11730
▁Copyright	-11731
▁nominated	-11732
▁Production	-11733
23	-11734
gon	-11735
hal	-11736
ajan	-11737
arus	-11738
▁apt	-11739
▁ard	-11740
▁Desh	-11741
▁Vall	-11742
▁enqu	-11743
▁tang	-11744
Script	-11745
▁Gopal	-11746
▁Tasks	-11747
▁Tilak	-11748
▁Trash	-11749
▁disqu	-11750
▁enrich	-11751
▁forged	-11752
▁Hanuman	-11753
▁membrane	-11754
▁accepting	-11755
▁frequency	-11756
▁misfortune	-11757
▁translator	-11758
▁undoubtedly	-11759
▁Palestinians	-11760
▁headquarters	-11761
▁intercession	-11762
anim	-11763
▁Box	-11764
▁Cro	-11765
▁sho	-11766
acles	-11767
▁1986	-11768
▁Thir	-11769
▁stub	-11770
istrar	-11771
▁clock	-11772
▁hyper	-11773
▁whoso	-11774
▁Couldn	-11775
▁loving	-11776
▁subtle	-11777
▁alleged	-11778
▁inmates	-11779
▁subtract	-11780
▁Jharkhand	-11781
▁inflation	-11782
▁renewable	-11783
▁horizontal	-11784
▁reputation	-11785
▁vegetation	-11786
FS	-11787
RC	-11788
▁Ep	-11789
Your	-11790
arse	-11791
ieth	-11792
andum	-11793
itter	-11794
▁Virt	-11795
▁cows	-11796
▁lays	-11797
▁merc	-11798
▁Oriya	-11799
▁Staff	-11800
▁marble	-11801
▁Hamachi	-11802
▁similit	-11803
▁minerals	-11804
▁accompany	-11805
▁formulated	-11806
▁repository	-11807
▁Ya	-11808
▁ov	-11809
link	-11810
▁Den	-11811
▁obe	-11812
gence	-11813
▁Mean	-11814
▁Cause	-11815
▁Sikhs	-11816
▁Chaluk	-11817
▁INDIAN	-11818
▁poster	-11819
▁Penalty	-11820
▁vibrant	-11821
▁earnings	-11822
▁orthodox	-11823
▁promoted	-11824
▁gratitude	-11825
▁worldwide	-11826
▁mechanisms	-11827
▁prevailing	-11828
▁accumulated	-11829
▁1)	-11830
▁GT	-11831
▁tired	-11832
October	-11833
▁fortun	-11834
▁powder	-11835
▁weaker	-11836
▁Copying	-11837
▁Indones	-11838
▁Nicobar	-11839
▁beloved	-11840
▁buttons	-11841
▁conform	-11842
▁Standing	-11843
▁compound	-11844
▁frequent	-11845
▁miracles	-11846
▁mistakes	-11847
▁tendency	-11848
▁Relations	-11849
▁disregard	-11850
▁consistent	-11851
▁vouchsafed	-11852
▁acknowledge	-11853
05	-11854
EST	-11855
agu	-11856
happ	-11857
plus	-11858
rama	-11859
zzle	-11860
▁23.	-11861
▁AIR	-11862
state	-11863
▁Kitt	-11864
ivided	-11865
▁rupee	-11866
▁Cancel	-11867
▁filing	-11868
▁harass	-11869
▁Strateg	-11870
▁guiding	-11871
▁inquiry	-11872
▁Hospital	-11873
▁crossing	-11874
▁everyday	-11875
▁sciences	-11876
▁stressed	-11877
▁equitable	-11878
▁justified	-11879
▁objection	-11880
▁reporting	-11881
▁humiliating	-11882
▁DR	-11883
▁lin	-11884
matic	-11885
▁Input	-11886
▁scrut	-11887
▁Adjust	-11888
▁coastal	-11889
unciation	-11890
▁expressions	-11891
▁confirmation	-11892
▁considerably	-11893
MOR	-11894
Ver	-11895
leep	-11896
loom	-11897
▁Vas	-11898
▁thr	-11899
seless	-11900
▁Khand	-11901
▁buffer	-11902
▁compos	-11903
▁exempt	-11904
▁sealed	-11905
▁conject	-11906
▁ensured	-11907
▁ranging	-11908
▁Universe	-11909
▁cautious	-11910
▁monuments	-11911
▁originated	-11912
▁privileges	-11913
▁intelligent	-11914
draw	-11915
mist	-11916
otee	-11917
▁Beg	-11918
▁DNA	-11919
▁NIT	-11920
▁lag	-11921
▁cher	-11922
▁ride	-11923
▁swim	-11924
advant	-11925
▁spark	-11926
▁trace	-11927
▁Height	-11928
▁chains	-11929
▁enmity	-11930
▁Manilal	-11931
connected	-11932
▁Circular	-11933
▁Creating	-11934
▁forehead	-11935
▁inherent	-11936
▁ministry	-11937
▁presently	-11938
▁provinces	-11939
▁wherefore	-11940
▁advantages	-11941
▁successors	-11942
▁neighbouring	-11943
▁characterized	-11944
▁notifications	-11945
Dep	-11946
▁Dur	-11947
▁Swit	-11948
▁glob	-11949
▁jute	-11950
▁uter	-11951
▁wast	-11952
inding	-11953
proofs	-11954
▁Funds	-11955
▁capac	-11956
▁gifts	-11957
▁rains	-11958
▁widow	-11959
▁Hearer	-11960
▁argued	-11961
▁saints	-11962
▁parable	-11963
▁praises	-11964
▁reveals	-11965
▁Chancell	-11966
▁allowing	-11967
▁lectures	-11968
▁reconcil	-11969
▁medicinal	-11970
▁Portuguese	-11971
▁limitations	-11972
▁subordinate	-11973
▁preservation	-11974
}.	-11975
fig	-11976
▁63	-11977
▁ki	-11978
andi	-11979
▁SOC	-11980
▁SRI	-11981
▁nic	-11982
throp	-11983
▁Dhan	-11984
▁modes	-11985
ropical	-11986
▁Sarasw	-11987
▁buying	-11988
▁excite	-11989
▁hereby	-11990
▁auction	-11991
▁driving	-11992
▁edition	-11993
▁governed	-11994
▁striking	-11995
▁Democratic	-11996
▁wrongdoing	-11997
▁negotiations	-11998
▁beneficiaries	-11999
EB	-12000
Tube	-12001
▁245	-12002
▁Low	-12003
agger	-12004
▁Pars	-12005
▁fare	-12006
▁Impro	-12007
▁James	-12008
▁moist	-12009
Pharaoh	-12010
▁ascend	-12011
▁Climate	-12012
▁Earlier	-12013
▁deceive	-12014
▁joining	-12015
▁diabetes	-12016
▁Europeans	-12017
▁Institutes	-12018
▁affordable	-12019
▁businesses	-12020
▁fulfilment	-12021
▁substances	-12022
▁Constituent	-12023
1%	-12024
ec	-12025
ppe	-12026
inea	-12027
oves	-12028
▁(18	-12029
▁Ten	-12030
reens	-12031
▁Used	-12032
▁heir	-12033
▁stir	-12034
▁vice	-12035
oultry	-12036
▁dense	-12037
angular	-12038
▁Church	-12039
▁Higher	-12040
▁amidst	-12041
▁Asutosh	-12042
▁shrines	-12043
▁traders	-12044
▁basically	-12045
▁Chandigarh	-12046
▁participating	-12047
zil	-12048
uced	-12049
▁Nas	-12050
▁vel	-12051
inety	-12052
▁Baba	-12053
▁cure	-12054
inions	-12055
orship	-12056
▁Empty	-12057
▁Aurang	-12058
▁Launch	-12059
▁minded	-12060
▁revival	-12061
▁dominant	-12062
▁scenario	-12063
▁inclusion	-12064
▁surprised	-12065
▁deficiency	-12066
▁exhibition	-12067
▁quantities	-12068
:—	-12069
uj	-12070
▁EN	-12071
▁GDP	-12072
▁Lol	-12073
ersed	-12074
▁1995	-12075
▁8859	-12076
▁COVID	-12077
▁batch	-12078
▁overs	-12079
▁rises	-12080
▁graves	-12081
▁marine	-12082
▁Various	-12083
▁Weather	-12084
▁instant	-12085
▁Singapore	-12086
▁empowered	-12087
▁Conservation	-12088
god	-12089
▁72	-12090
▁Sha	-12091
atics	-12092
henna	-12093
▁Abhi	-12094
▁brah	-12095
▁soph	-12096
▁Music	-12097
▁burnt	-12098
▁hindi	-12099
▁devils	-12100
▁mirror	-12101
▁Specify	-12102
▁alcohol	-12103
▁crossed	-12104
▁conceived	-12105
▁hospitals	-12106
▁jewellery	-12107
▁meaningful	-12108
▁controlling	-12109
raj	-12110
▁CVS	-12111
aimed	-12112
itage	-12113
▁Gall	-12114
▁Upon	-12115
▁curt	-12116
▁gran	-12117
▁Draft	-12118
▁Final	-12119
▁VISIT	-12120
▁Write	-12121
▁manip	-12122
▁rarely	-12123
▁earnest	-12124
▁magazine	-12125
▁reliable	-12126
▁exercised	-12127
▁qualified	-12128
▁somewhere	-12129
▁boundaries	-12130
▁prohibited	-12131
▁distinguish	-12132
▁intervention	-12133
▁translations	-12134
RD	-12135
Con	-12136
dens	-12137
▁(23	-12138
▁Norm	-12139
▁Sach	-12140
▁sung	-12141
intend	-12142
▁Hamas	-12143
▁Might	-12144
▁cruel	-12145
▁Castes	-12146
▁oceans	-12147
▁topics	-12148
December	-12149
▁shifted	-12150
▁governing	-12151
▁Collection	-12152
▁Federation	-12153
▁discretion	-12154
▁statistics	-12155
▁subscriber	-12156
▁Cooperative	-12157
'%	-12158
DL	-12159
WA	-12160
poly	-12161
rage	-12162
▁(10	-12163
▁Hel	-12164
▁cel	-12165
▁1970	-12166
▁2018	-12167
▁Issue	-12168
▁Latin	-12169
▁Owner	-12170
▁likes	-12171
▁Deccan	-12172
▁breach	-12173
▁propri	-12174
▁Freedom	-12175
▁Success	-12176
▁harness	-12177
▁hostile	-12178
▁reverse	-12179
▁stretch	-12180
▁Chemical	-12181
▁encoding	-12182
▁reflects	-12183
▁intensive	-12184
▁proceeded	-12185
▁repayment	-12186
▁publishing	-12187
▁Territories	-12188
▁acknowledged	-12189
LIC	-12190
due	-12191
▁1%	-12192
olve	-12193
rose	-12194
vity	-12195
▁184	-12196
▁Loc	-12197
▁Lut	-12198
▁tit	-12199
ercul	-12200
▁'{0}	-12201
▁Venk	-12202
▁torn	-12203
▁worn	-12204
ancies	-12205
eshwar	-12206
▁nutri	-12207
▁relax	-12208
▁tract	-12209
▁Lolita	-12210
▁Recent	-12211
▁scales	-12212
▁steady	-12213
▁Summary	-12214
▁critics	-12215
▁custody	-12216
▁Wildlife	-12217
▁emotions	-12218
▁enduring	-12219
▁removing	-12220
▁Commercial	-12221
▁thoroughly	-12222
sis	-12223
wah	-12224
asse	-12225
osph	-12226
rise	-12227
▁Oly	-12228
▁awe	-12229
▁mol	-12230
▁Room	-12231
▁Symb	-12232
▁zeal	-12233
▁Words	-12234
▁owing	-12235
▁parse	-12236
▁Almast	-12237
▁cavity	-12238
▁homage	-12239
▁pillar	-12240
▁traged	-12241
▁walked	-12242
▁corners	-12243
▁foolish	-12244
▁mortgage	-12245
▁spectrum	-12246
▁approached	-12247
▁biological	-12248
▁describing	-12249
▁dignitaries	-12250
▁recommendation	-12251
imp	-12252
▁92	-12253
▁Ren	-12254
ropri	-12255
▁Mahe	-12256
▁Sust	-12257
▁idle	-12258
ortion	-12259
▁smell	-12260
pported	-12261
regular	-12262
▁Gehenna	-12263
▁burdens	-12264
▁leaflet	-12265
▁clusters	-12266
▁Marketing	-12267
▁continent	-12268
▁departure	-12269
▁systematic	-12270
hem	-12271
▁99	-12272
▁KB	-12273
▁PL	-12274
▁Mrs	-12275
▁Yah	-12276
▁adds	-12277
aduate	-12278
cience	-12279
usions	-12280
▁Graph	-12281
▁Label	-12282
▁jihad	-12283
▁necks	-12284
▁shops	-12285
ictions	-12286
▁backup	-12287
▁Believe	-12288
▁cabinet	-12289
▁orientation	-12290
“%	-12291
anz	-12292
esa	-12293
uda	-12294
▁Bug	-12295
▁Kat	-12296
▁Yog	-12297
▁umb	-12298
anchi	-12299
rates	-12300
▁"{0}	-12301
▁peas	-12302
▁sail	-12303
▁stip	-12304
▁Chrom	-12305
▁Mexic	-12306
▁blast	-12307
▁embry	-12308
▁fancy	-12309
▁globe	-12310
▁renow	-12311
istical	-12312
▁Website	-12313
▁YouTube	-12314
▁decrease	-12315
▁delicate	-12316
▁Scientific	-12317
▁credential	-12318
▁devotional	-12319
▁Commonwealth	-12320
VAN	-12321
fly	-12322
Hind	-12323
juna	-12324
▁Pil	-12325
iency	-12326
orest	-12327
▁Cave	-12328
▁FROM	-12329
▁neut	-12330
rupted	-12331
▁Sanct	-12332
▁abuse	-12333
ruption	-12334
▁hollow	-12335
▁impose	-12336
▁infant	-12337
▁ranges	-12338
▁statue	-12339
▁verify	-12340
▁Shaitan	-12341
▁illiter	-12342
▁miracle	-12343
▁Advisory	-12344
▁Heritage	-12345
▁supplies	-12346
▁underlying	-12347
▁Distribution	-12348
▁associations	-12349
':	-12350
'?	-12351
AA	-12352
▁OK	-12353
orph	-12354
▁800	-12355
▁Abu	-12356
▁Gop	-12357
▁HIV	-12358
▁Kaz	-12359
▁raj	-12360
▁ram	-12361
▁tob	-12362
essed	-12363
▁Calc	-12364
erated	-12365
▁Saint	-12366
▁annum	-12367
▁tends	-12368
▁cement	-12369
▁dances	-12370
▁gender	-12371
▁spaces	-12372
▁tranqu	-12373
▁asunder	-12374
▁mislead	-12375
izational	-12376
▁Continue	-12377
▁Function	-12378
▁Memorial	-12379
▁medieval	-12380
▁Documents	-12381
▁directors	-12382
▁introduce	-12383
▁autonomous	-12384
▁conception	-12385
▁regulatory	-12386
▁nationalist	-12387
▁manufactured	-12388
Ms	-12389
▁FDI	-12390
▁Ice	-12391
▁MAPI	-12392
▁Maul	-12393
▁lips	-12394
▁sect	-12395
▁Italy	-12396
▁decre	-12397
▁score	-12398
osystem	-12399
▁Kittur	-12400
▁inward	-12401
▁throat	-12402
▁Empathy	-12403
▁Witness	-12404
▁clauses	-12405
▁founder	-12406
▁disadvant	-12407
▁envisaged	-12408
▁literally	-12409
▁particles	-12410
▁treasures	-12411
▁Communication	-12412
EA	-12413
▁Ta	-12414
▁eg	-12415
achh	-12416
▁Van	-12417
adequ	-12418
roots	-12419
▁conj	-12420
ioxide	-12421
▁Armed	-12422
▁crash	-12423
▁wombs	-12424
Abraham	-12425
icating	-12426
▁confer	-12427
▁Deposit	-12428
▁staying	-12429
▁worried	-12430
▁absorbed	-12431
▁foremost	-12432
▁disobeyed	-12433
";	-12434
200	-12435
ourn	-12436
rium	-12437
▁22.	-12438
▁27,	-12439
▁Pul	-12440
▁Sep	-12441
▁Tea	-12442
ierce	-12443
riday	-12444
▁Coll	-12445
▁Srin	-12446
▁deer	-12447
ananda	-12448
▁Coast	-12449
▁Imper	-12450
▁accur	-12451
▁drain	-12452
▁smile	-12453
▁Corona	-12454
▁breaks	-12455
▁patent	-12456
▁Burning	-12457
▁Country	-12458
▁Cricket	-12459
▁boundary	-12460
▁ideology	-12461
▁template	-12462
▁slaughter	-12463
▁uncertain	-12464
▁amendments	-12465
▁dictionary	-12466
▁dimensions	-12467
▁popularity	-12468
By	-12469
cus	-12470
▁1974	-12471
▁Fear	-12472
▁cant	-12473
▁tort	-12474
▁2000.	-12475
▁Games	-12476
▁alert	-12477
▁haven	-12478
▁nodal	-12479
▁modest	-12480
▁sphere	-12481
▁condemn	-12482
▁envelop	-12483
▁Internal	-12484
▁offences	-12485
▁Political	-12486
▁ancestors	-12487
▁conflicts	-12488
▁expensive	-12489
▁grievance	-12490
▁shoulders	-12491
▁determines	-12492
▁strategies	-12493
▁Examination	-12494
abs	-12495
abil	-12496
arct	-12497
▁17,	-12498
▁Shu	-12499
▁upl	-12500
eline	-12501
liant	-12502
▁wash	-12503
Verily	-12504
▁craft	-12505
▁exempl	-12506
▁sender	-12507
aternity	-12508
▁devotee	-12509
▁nursing	-12510
omination	-12511
▁accorded	-12512
▁Panchayat	-12513
▁delighted	-12514
▁arbitration	-12515
▁collections	-12516
▁Introduction	-12517
▁psychological	-12518
▁relationships	-12519
EX	-12520
him	-12521
▁iv	-12522
adhy	-12523
iety	-12524
▁INS	-12525
thood	-12526
those	-12527
▁Alph	-12528
▁Taur	-12529
▁chap	-12530
▁debts	-12531
▁decay	-12532
▁pests	-12533
▁postp	-12534
▁steep	-12535
▁Thomas	-12536
▁updates	-12537
▁Inspector	-12538
▁Provision	-12539
▁suspended	-12540
▁subsidiary	-12541
▁Unbelievers	-12542
▁resurrection	-12543
▁rehabilitation	-12544
3)	-12545
▁MB	-12546
such	-12547
▁23,	-12548
anmar	-12549
▁1957	-12550
▁brid	-12551
▁nour	-12552
▁arrow	-12553
▁climb	-12554
▁federal	-12555
▁undergo	-12556
▁provider	-12557
▁retained	-12558
▁sickness	-12559
▁wildlife	-12560
▁sponsored	-12561
▁compromise	-12562
▁impressive	-12563
▁controversy	-12564
▁researchers	-12565
awn	-12566
▁1:	-12567
▁Mc	-12568
asim	-12569
▁Bij	-12570
▁Ell	-12571
▁bod	-12572
doers	-12573
▁gene	-12574
▁grid	-12575
▁ware	-12576
idding	-12577
▁Emerg	-12578
▁Mahav	-12579
▁Maybe	-12580
▁Saroj	-12581
▁Valid	-12582
▁shirt	-12583
▁trains	-12584
idespread	-12585
▁abstract	-12586
▁certainty	-12587
▁undivided	-12588
▁attraction	-12589
▁coordination	-12590
▁inflammation	-12591
▁substantially	-12592
24	-12593
PR	-12594
SI	-12595
awa	-12596
ito	-12597
▁07	-12598
▁Infl	-12599
▁hang	-12600
▁jung	-12601
▁slip	-12602
atable	-12603
▁caves	-12604
▁deput	-12605
▁Attend	-12606
▁Little	-12607
▁oppose	-12608
▁speedy	-12609
▁dancing	-12610
▁tobacco	-12611
▁shortage	-12612
▁transcend	-12613
▁sentiments	-12614
▁manuscripts	-12615
INK	-12616
kay	-12617
▁CE	-12618
▁Eat	-12619
TINGS	-12620
resent	-12621
▁Gandh	-12622
▁Kisan	-12623
▁Surya	-12624
▁liked	-12625
▁plead	-12626
▁popup	-12627
▁casual	-12628
isheries	-12629
ferencing	-12630
▁Everyone	-12631
▁pressing	-12632
▁surgical	-12633
▁transmit	-12634
▁breathing	-12635
▁clearance	-12636
▁Encryption	-12637
▁attributes	-12638
▁hospitality	-12639
▁magnificent	-12640
rot	-12641
ints	-12642
▁Hen	-12643
▁Ran	-12644
▁eco	-12645
heast	-12646
unath	-12647
▁Capt	-12648
▁Near	-12649
▁erad	-12650
▁emigr	-12651
▁fract	-12652
▁prede	-12653
▁sects	-12654
▁skins	-12655
▁Notice	-12656
▁Series	-12657
▁infect	-12658
▁senses	-12659
▁ongoing	-12660
▁painted	-12661
▁expelled	-12662
▁husbands	-12663
GR	-12664
May	-12665
uts	-12666
acts	-12667
atta	-12668
urna	-12669
▁250	-12670
▁Alt	-12671
▁Amit	-12672
▁NIOS	-12673
asaheb	-12674
▁dying	-12675
▁incap	-12676
▁preca	-12677
▁sperm	-12678
▁Sports	-12679
▁beware	-12680
▁judged	-12681
▁revive	-12682
▁Myanmar	-12683
▁heavily	-12684
▁surplus	-12685
▁canceled	-12686
▁commemor	-12687
▁inclined	-12688
▁producer	-12689
▁impressed	-12690
▁nutrition	-12691
▁laboratories	-12692
ORT	-12693
bat	-12694
nat	-12695
aunt	-12696
▁Fav	-12697
▁disl	-12698
inence	-12699
▁meets	-12700
▁Compet	-12701
▁ceiling	-12702
▁grammar	-12703
▁graduate	-12704
▁journals	-12705
▁sleeping	-12706
▁Character	-12707
▁contracts	-12708
▁utilization	-12709
aba	-12710
▁AR	-12711
▁ow	-12712
riel	-12713
▁Imm	-12714
▁RTI	-12715
▁Rub	-12716
llers	-12717
▁Navy	-12718
▁mask	-12719
pensed	-12720
ployed	-12721
▁guest	-12722
▁locked	-12723
▁trends	-12724
▁Database	-12725
▁isolated	-12726
▁considers	-12727
▁respected	-12728
▁responded	-12729
▁Programmes	-12730
▁capacities	-12731
▁telecommun	-12732
▁vulnerable	-12733
▁comfortable	-12734
▁recompensed	-12735
▁reservation	-12736
iro	-12737
adha	-12738
▁18,	-12739
▁18.	-12740
▁Fax	-12741
▁Alex	-12742
▁lean	-12743
▁unav	-12744
▁Range	-12745
▁boast	-12746
▁champ	-12747
▁liver	-12748
▁Reload	-12749
▁Yamuna	-12750
▁astron	-12751
▁portra	-12752
▁viable	-12753
▁Folders	-12754
▁Printer	-12755
▁conserv	-12756
▁fasting	-12757
▁strikes	-12758
▁Atlantic	-12759
▁equipped	-12760
▁obstruct	-12761
▁taxation	-12762
▁affecting	-12763
▁disappear	-12764
▁practised	-12765
fortunately	-12766
▁committees	-12767
▁laboratory	-12768
02	-12769
BB	-12770
vag	-12771
oria	-12772
rass	-12773
adhan	-12774
▁Labor	-12775
▁exalt	-12776
▁harsh	-12777
▁lover	-12778
▁quote	-12779
▁Result	-12780
▁Volume	-12781
▁ninety	-12782
▁obeyed	-12783
▁Michael	-12784
▁assault	-12785
▁bellies	-12786
▁kitchen	-12787
▁Philosop	-12788
▁alphabet	-12789
▁Signature	-12790
▁labourers	-12791
▁Entreprene	-12792
▁neighbours	-12793
▁advancement	-12794
▁unfortunate	-12795
_0	-12796
alim	-12797
emon	-12798
itic	-12799
▁Fif	-12800
▁tie	-12801
opard	-12802
payee	-12803
ringe	-12804
▁Scan	-12805
utable	-12806
▁AWARD	-12807
▁Salat	-12808
▁brack	-12809
▁tyran	-12810
fearing	-12811
▁1-4-19	-12812
▁beasts	-12813
▁marvel	-12814
▁gallery	-12815
▁conclude	-12816
▁prejudice	-12817
Wh	-12818
uds	-12819
▁09	-12820
oded	-12821
▁24,	-12822
▁Nuh	-12823
▁SEL	-12824
▁hem	-12825
▁rum	-12826
ardly	-12827
▁Arts	-12828
▁gang	-12829
▁Grant	-12830
▁Sound	-12831
▁bench	-12832
▁Bhopal	-12833
▁robust	-12834
▁tracks	-12835
▁Extract	-12836
▁Opening	-12837
▁confront	-12838
▁Currently	-12839
▁compliment	-12840
▁cultivated	-12841
▁reflection	-12842
▁Everlasting	-12843
▁classification	-12844
%)	-12845
▁Bat	-12846
▁Jat	-12847
▁ours	-12848
▁turm	-12849
▁conse	-12850
▁Belarus	-12851
▁availed	-12852
▁tragedy	-12853
erculosis	-12854
▁Assamese	-12855
▁disposed	-12856
▁touching	-12857
▁Addressing	-12858
▁Hindustani	-12859
▁denominator	-12860
▁legislature	-12861
GN	-12862
▁Mi	-12863
adra	-12864
ayat	-12865
wait	-12866
▁17.	-12867
▁28,	-12868
▁Jal	-12869
words	-12870
▁fart	-12871
drawal	-12872
▁stiff	-12873
▁Wealth	-12874
▁Gandhar	-12875
▁density	-12876
▁sanctum	-12877
▁superst	-12878
▁Brahmins	-12879
▁Rajendra	-12880
▁Starting	-12881
cellaneous	-12882
▁Telephone	-12883
▁compelled	-12884
▁desirable	-12885
▁livestock	-12886
▁passenger	-12887
▁Dictionary	-12888
▁widespread	-12889
▁notwithstanding	-12890
xx	-12891
haz	-12892
▁53	-12893
▁VA	-12894
▁Hom	-12895
▁bot	-12896
▁100%	-12897
▁1989	-12898
▁Dise	-12899
▁asks	-12900
▁lend	-12901
▁Areas	-12902
▁Ghosh	-12903
▁Padma	-12904
▁Still	-12905
▁edges	-12906
▁laden	-12907
▁spots	-12908
▁unpre	-12909
▁2016).	-12910
▁Letter	-12911
▁devour	-12912
▁floral	-12913
▁ticket	-12914
▁centers	-12915
▁consume	-12916
▁Egyptian	-12917
▁Southern	-12918
▁ornament	-12919
▁Important	-12920
▁Socialist	-12921
▁Vaishnava	-12922
▁exemption	-12923
▁diplomatic	-12924
▁structural	-12925
▁everlasting	-12926
26	-12927
Tax	-12928
mael	-12929
▁Sus	-12930
▁Dial	-12931
▁Bhatt	-12932
▁Using	-12933
▁verte	-12934
▁scenes	-12935
itations	-12936
ndranath	-12937
▁Restore	-12938
▁filling	-12939
▁Vajpayee	-12940
▁forgives	-12941
▁Champions	-12942
▁emergence	-12943
▁Panchayats	-12944
▁authorized	-12945
▁linguistic	-12946
▁Convocation	-12947
FIC	-12948
▁-%	-12949
berg	-12950
etch	-12951
▁auto	-12952
▁Early	-12953
▁Style	-12954
▁icons	-12955
▁phrase	-12956
▁inadequ	-12957
▁issuing	-12958
▁Himalaya	-12959
▁applying	-12960
▁username	-12961
▁Premchand	-12962
▁furniture	-12963
▁hostility	-12964
▁variations	-12965
▁recruitment	-12966
▁Unfortunately	-12967
ASHT	-12968
idas	-12969
▁21,	-12970
▁Nal	-12971
▁fame	-12972
▁hier	-12973
▁sync	-12974
others	-12975
rapped	-12976
▁Rober	-12977
▁eaten	-12978
▁naked	-12979
▁urine	-12980
▁reserv	-12981
▁solved	-12982
cedented	-12983
▁Between	-12984
▁cluster	-12985
▁dioxide	-12986
▁expects	-12987
▁permits	-12988
▁winners	-12989
▁Bookmark	-12990
▁Sarojini	-12991
▁professor	-12992
▁correspondence	-12993
eg	-12994
lah	-12995
okh	-12996
▁95	-12997
▁BE	-12998
alih	-12999
rics	-13000
uven	-13001
▁Wal	-13002
▁cyl	-13003
▁jun	-13004
ECTED	-13005
avati	-13006
▁Forb	-13007
▁Step	-13008
▁Wood	-13009
▁lift	-13010
▁yoga	-13011
ailing	-13012
▁autoc	-13013
▁shore	-13014
▁Others	-13015
▁binary	-13016
▁portal	-13017
▁valued	-13018
missible	-13019
▁counted	-13020
▁warming	-13021
▁Pollution	-13022
▁adjustment	-13023
▁measurement	-13024
▁expectations	-13025
▁reconstruction	-13026
ART	-13027
IDS	-13028
apu	-13029
▁Ga	-13030
▁Vr	-13031
▁ol	-13032
arts	-13033
yers	-13034
▁gal	-13035
indra	-13036
▁Mass	-13037
▁NGOs	-13038
▁Pain	-13039
▁Prak	-13040
▁bowl	-13041
ifully	-13042
▁dairy	-13043
▁embod	-13044
▁spare	-13045
▁Ganesh	-13046
▁Jinnah	-13047
▁finest	-13048
▁rhythm	-13049
▁viewed	-13050
▁Arabian	-13051
▁textile	-13052
▁detected	-13053
▁landlord	-13054
▁unbelief	-13055
▁encrypted	-13056
▁supervision	-13057
▁irrespective	-13058
45	-13059
Had	-13060
arna	-13061
aryn	-13062
keys	-13063
lves	-13064
▁Tub	-13065
lings	-13066
▁barg	-13067
▁inex	-13068
inates	-13069
▁acres	-13070
▁aston	-13071
▁canal	-13072
▁embed	-13073
▁toile	-13074
▁walks	-13075
▁Answer	-13076
▁Poresh	-13077
▁deceit	-13078
▁voices	-13079
National	-13080
▁Channel	-13081
▁emperor	-13082
▁pressed	-13083
▁borrowed	-13084
▁preceded	-13085
▁Registrar	-13086
▁oppressed	-13087
▁publicity	-13088
▁meditation	-13089
▁implications	-13090
▁manufacturers	-13091
9)	-13092
adas	-13093
ilst	-13094
▁09.	-13095
▁GOV	-13096
ocity	-13097
▁1976	-13098
▁Ball	-13099
......	-13100
▁Ahmad	-13101
▁grasp	-13102
▁spont	-13103
▁terra	-13104
▁trunk	-13105
▁Intell	-13106
▁hungry	-13107
▁lawyer	-13108
ursement	-13109
▁Lakshmi	-13110
▁airport	-13111
▁expired	-13112
▁varying	-13113
▁reviewed	-13114
▁survival	-13115
▁writable	-13116
▁attempted	-13117
polytheists	-13118
▁challenged	-13119
▁encryption	-13120
▁Educational	-13121
sm	-13122
▁PC	-13123
babu	-13124
pled	-13125
▁Dog	-13126
▁ups	-13127
igate	-13128
▁pars	-13129
▁wasn	-13130
asagar	-13131
ilated	-13132
▁Phase	-13133
▁knees	-13134
entures	-13135
uctions	-13136
▁Origin	-13137
▁camels	-13138
▁intens	-13139
▁kidney	-13140
▁strait	-13141
▁unfair	-13142
ventions	-13143
▁INAUGUR	-13144
▁holders	-13145
▁intends	-13146
▁swallow	-13147
▁Register	-13148
▁assurance	-13149
▁producers	-13150
▁circulation	-13151
BM	-13152
aws	-13153
mah	-13154
spe	-13155
Wise	-13156
rons	-13157
▁SID	-13158
▁fol	-13159
▁Pant	-13160
▁Tree	-13161
▁grey	-13162
▁wars	-13163
▁Brows	-13164
▁Units	-13165
casting	-13166
▁Krishn	-13167
▁bureau	-13168
▁indian	-13169
▁Italian	-13170
▁Package	-13171
▁Seminar	-13172
▁hunting	-13173
▁rotation	-13174
▁Bookmarks	-13175
▁relevance	-13176
▁favourable	-13177
▁imperative	-13178
▁limitation	-13179
06	-13180
PCL	-13181
Reg	-13182
▁0,	-13183
▁52	-13184
reth	-13185
roid	-13186
▁Fun	-13187
▁Row	-13188
▁Wis	-13189
▁imb	-13190
acent	-13191
faces	-13192
inees	-13193
▁(2),	-13194
▁Amar	-13195
▁coat	-13196
▁cycl	-13197
▁laud	-13198
▁lump	-13199
lisher	-13200
▁Preet	-13201
▁annoy	-13202
▁veter	-13203
▁votes	-13204
▁Living	-13205
▁Method	-13206
▁Single	-13207
▁Welcome	-13208
▁appeals	-13209
▁discont	-13210
▁hearted	-13211
eneration	-13212
▁Comments	-13213
▁providers	-13214
▁successor	-13215
▁wandering	-13216
▁Withdrawal	-13217
▁successive	-13218
▁Appointment	-13219
▁electronics	-13220
,.	-13221
vii	-13222
brid	-13223
▁nit	-13224
utter	-13225
▁1960	-13226
▁GREE	-13227
▁Pict	-13228
▁gram	-13229
estone	-13230
ivable	-13231
ometry	-13232
▁Given	-13233
▁Recom	-13234
▁Verma	-13235
▁revol	-13236
▁rival	-13237
▁cosmic	-13238
▁define	-13239
▁eighth	-13240
▁reiter	-13241
▁unwill	-13242
fficiency	-13243
▁Absolute	-13244
▁Creation	-13245
▁Highness	-13246
▁advocate	-13247
▁fourteen	-13248
▁refugees	-13249
▁Architect	-13250
▁Operation	-13251
▁passwords	-13252
▁sanctuary	-13253
▁Settlement	-13254
▁surprising	-13255
▁disbelieving	-13256
erk	-13257
▁Du	-13258
oths	-13259
▁Jab	-13260
▁PDF	-13261
erver	-13262
▁1988	-13263
▁fron	-13264
illary	-13265
raisal	-13266
▁Claim	-13267
▁Leban	-13268
▁pitch	-13269
▁tenth	-13270
▁waist	-13271
▁Target	-13272
▁uncons	-13273
▁Sending	-13274
▁onwards	-13275
▁strayed	-13276
▁favoured	-13277
▁incoming	-13278
▁misdeeds	-13279
▁Saraswati	-13280
▁measuring	-13281
▁committing	-13282
▁fabricated	-13283
▁administered	-13284
▁announcement	-13285
▁facilitating	-13286
▁documentation	-13287
")	-13288
▁BS	-13289
▁SW	-13290
cane	-13291
gian	-13292
▁28.	-13293
▁Niz	-13294
▁Sex	-13295
▁oct	-13296
erson	-13297
iatic	-13298
▁boot	-13299
MORROW	-13300
▁sorry	-13301
▁Guinea	-13302
▁Instru	-13303
▁Prompt	-13304
▁admire	-13305
▁pollut	-13306
▁unhapp	-13307
▁guarded	-13308
▁servers	-13309
▁suicide	-13310
▁Imperial	-13311
▁TOMORROW	-13312
▁conspiracy	-13313
▁pronounced	-13314
04	-13315
iser	-13316
olly	-13317
quer	-13318
▁22,	-13319
▁Sor	-13320
▁Ult	-13321
hered	-13322
range	-13323
▁Drug	-13324
▁Dutt	-13325
▁Grow	-13326
▁Hold	-13327
▁Sale	-13328
▁lone	-13329
▁webs	-13330
▁MSMEs	-13331
▁babies	-13332
▁finish	-13333
▁Ancient	-13334
▁Virtual	-13335
▁chronic	-13336
▁portray	-13337
▁praised	-13338
▁suppose	-13339
▁unusual	-13340
▁watched	-13341
▁Amritsar	-13342
▁interven	-13343
▁strictly	-13344
▁versions	-13345
▁Meghalaya	-13346
▁proclaimed	-13347
▁resurrected	-13348
▁surrendered	-13349
▁constructive	-13350
SH	-13351
URE	-13352
eor	-13353
▁NS	-13354
iban	-13355
▁Bez	-13356
▁Ange	-13357
▁Sent	-13358
Surely	-13359
▁Quick	-13360
▁Spain	-13361
▁Syria	-13362
▁cough	-13363
▁shoes	-13364
▁teams	-13365
▁vocal	-13366
▁Player	-13367
▁eighty	-13368
▁weekly	-13369
jections	-13370
▁Antarct	-13371
▁crooked	-13372
▁oneness	-13373
September	-13374
▁Resident	-13375
▁adversity	-13376
▁ecosystem	-13377
▁electoral	-13378
▁pursuance	-13379
▁grassroots	-13380
▁indicating	-13381
▁condolences	-13382
▁unprecedented	-13383
07	-13384
gic	-13385
jid	-13386
wad	-13387
▁na	-13388
Appe	-13389
case	-13390
outs	-13391
pace	-13392
▁Rul	-13393
print	-13394
▁atom	-13395
▁Break	-13396
▁Deleg	-13397
▁evils	-13398
▁rites	-13399
▁spray	-13400
ilitary	-13401
ipation	-13402
▁Excise	-13403
▁ethnic	-13404
▁herein	-13405
▁Nanalal	-13406
▁constra	-13407
▁discipl	-13408
▁rewards	-13409
▁Keyboard	-13410
▁kilogram	-13411
▁segments	-13412
▁agitation	-13413
▁configure	-13414
▁identical	-13415
▁recipient	-13416
▁aggression	-13417
▁priorities	-13418
▁foundations	-13419
▁practically	-13420
▁disabilities	-13421
▁satisfactory	-13422
▁79	-13423
▁IV	-13424
▁MD	-13425
▁26,	-13426
▁ven	-13427
arman	-13428
break	-13429
class	-13430
odhya	-13431
▁Anti	-13432
▁Fast	-13433
▁tent	-13434
▁Price	-13435
▁avert	-13436
▁penit	-13437
▁County	-13438
▁actors	-13439
▁revolt	-13440
▁safely	-13441
▁wholes	-13442
▁signals	-13443
▁deducted	-13444
▁dreadful	-13445
▁turnover	-13446
▁secretary	-13447
▁configured	-13448
vy	-13449
IAL	-13450
fix	-13451
occ	-13452
▁OS	-13453
ocus	-13454
▁ANN	-13455
▁Mel	-13456
▁Rom	-13457
▁spo	-13458
arium	-13459
▁Atal	-13460
▁Case	-13461
▁Sunday	-13462
▁sevent	-13463
▁styles	-13464
▁tenure	-13465
umerable	-13466
▁Century	-13467
▁Collect	-13468
▁Customs	-13469
▁battery	-13470
▁recalled	-13471
▁Democracy	-13472
▁Generally	-13473
▁Meanwhile	-13474
▁acquiring	-13475
▁adornment	-13476
▁adventure	-13477
▁instances	-13478
▁sentiment	-13479
▁attainment	-13480
▁distressed	-13481
▁legitimate	-13482
▁economically	-13483
▁neighbourhood	-13484
po	-13485
dar	-13486
opl	-13487
bert	-13488
leys	-13489
when	-13490
▁27.	-13491
▁odd	-13492
▁tin	-13493
aksha	-13494
ropol	-13495
▁Gaza	-13496
▁hate	-13497
▁knot	-13498
▁veil	-13499
ussion	-13500
▁Joshi	-13501
▁Manik	-13502
▁curve	-13503
▁enfor	-13504
▁nemat	-13505
atching	-13506
ighters	-13507
▁faults	-13508
▁pagans	-13509
alendars	-13510
▁Profile	-13511
▁deniers	-13512
▁storing	-13513
▁whereby	-13514
▁Citizens	-13515
▁assisted	-13516
▁flexible	-13517
▁prestige	-13518
▁disturbed	-13519
▁inherited	-13520
▁similarly	-13521
▁workshops	-13522
▁Sufficient	-13523
▁accomplish	-13524
DS	-13525
▁""	-13526
▁VI	-13527
gone	-13528
▁19,	-13529
▁Gul	-13530
opter	-13531
▁rehe	-13532
▁slot	-13533
ASHTRA	-13534
umbent	-13535
▁artic	-13536
▁fibre	-13537
▁heirs	-13538
▁paste	-13539
▁larvae	-13540
▁mystic	-13541
▁sample	-13542
▁Masters	-13543
▁Product	-13544
▁couches	-13545
▁generic	-13546
▁greeted	-13547
▁seventh	-13548
▁Physical	-13549
▁dismissed	-13550
▁amalgamation	-13551
▁improvements	-13552
75	-13553
Tr	-13554
Res	-13555
▁68	-13556
good	-13557
▁20.	-13558
rator	-13559
▁Rand	-13560
▁epid	-13561
▁garb	-13562
▁Items	-13563
▁array	-13564
▁cable	-13565
▁inequ	-13566
▁roles	-13567
▁2015).	-13568
▁Ravana	-13569
▁Simple	-13570
▁breeds	-13571
▁fiscal	-13572
▁misery	-13573
▁repaid	-13574
▁Reading	-13575
▁Respons	-13576
▁irregular	-13577
▁perfectly	-13578
▁rejection	-13579
▁dissolution	-13580
▁upgradation	-13581
-200	-13582
ATED	-13583
cery	-13584
▁kms	-13585
▁tip	-13586
ursor	-13587
▁Acqu	-13588
▁COMM	-13589
before	-13590
rating	-13591
terior	-13592
▁Devan	-13593
▁Tools	-13594
▁Varma	-13595
▁desce	-13596
▁sever	-13597
▁sulph	-13598
riminal	-13599
▁Celebr	-13600
▁Module	-13601
▁Python	-13602
▁losing	-13603
▁remedy	-13604
▁riding	-13605
▁remarks	-13606
▁shining	-13607
▁somehow	-13608
▁Terminal	-13609
▁bookmark	-13610
▁destined	-13611
▁militant	-13612
▁socialism	-13613
▁apparently	-13614
▁influences	-13615
▁victorious	-13616
▁compositions	-13617
▁interference	-13618
▁transgression	-13619
NS	-13620
TIC	-13621
ahi	-13622
Come	-13623
▁26.	-13624
▁Nil	-13625
▁yes	-13626
Satan	-13627
cular	-13628
ertil	-13629
▁Deal	-13630
▁Sens	-13631
▁amen	-13632
▁beds	-13633
▁begg	-13634
▁heap	-13635
▁prox	-13636
▁recl	-13637
rolled	-13638
▁BIHAR	-13639
▁dried	-13640
▁enric	-13641
▁monop	-13642
▁panch	-13643
▁Altern	-13644
▁Perman	-13645
▁Tender	-13646
▁Verses	-13647
▁Jubilee	-13648
▁denying	-13649
▁embrace	-13650
▁ethical	-13651
▁Learning	-13652
▁greeting	-13653
▁listened	-13654
▁maternal	-13655
▁momentum	-13656
▁godfearing	-13657
▁enlightened	-13658
▁pharmaceutical	-13659
bi	-13660
dh	-13661
ORE	-13662
UNT	-13663
▁41	-13664
▁58	-13665
▁Es	-13666
▁GU	-13667
aser	-13668
bhar	-13669
igue	-13670
▁Fit	-13671
▁Neg	-13672
▁ink	-13673
▁1994	-13674
▁Jack	-13675
▁Magn	-13676
▁anch	-13677
rified	-13678
▁Ananda	-13679
▁ceased	-13680
▁Machine	-13681
▁Prakrit	-13682
▁ascetic	-13683
▁carrier	-13684
▁scatter	-13685
▁tension	-13686
▁globally	-13687
▁Different	-13688
▁computation	-13689
▁collectively	-13690
PN	-13691
▁74	-13692
cede	-13693
▁700	-13694
▁nay	-13695
odder	-13696
orage	-13697
▁Cash	-13698
▁Milk	-13699
▁Pray	-13700
▁Repe	-13701
▁pond	-13702
▁tune	-13703
eneral	-13704
iketan	-13705
▁Korea	-13706
▁Theme	-13707
▁illum	-13708
▁Boards	-13709
▁Brazil	-13710
▁Martin	-13711
▁campus	-13712
▁cinema	-13713
▁pulses	-13714
▁seller	-13715
▁verbal	-13716
▁mandate	-13717
▁smoking	-13718
penditure	-13719
▁Contents	-13720
▁municipal	-13721
▁Translation	-13722
▁disappeared	-13723
▁exceptional	-13724
DC	-13725
IND	-13726
asha	-13727
ayya	-13728
▁08.	-13729
▁Heb	-13730
▁ail	-13731
areth	-13732
stein	-13733
▁tale	-13734
leness	-13735
rition	-13736
▁Goods	-13737
▁embar	-13738
▁lakes	-13739
▁shalt	-13740
▁shoot	-13741
▁sword	-13742
▁GOVERN	-13743
▁Prayer	-13744
▁asleep	-13745
▁contra	-13746
▁crimes	-13747
▁pearls	-13748
▁storey	-13749
▁Archive	-13750
▁Finland	-13751
▁dialect	-13752
▁threats	-13753
▁infected	-13754
▁opinions	-13755
▁Provinces	-13756
▁copyright	-13757
▁occurring	-13758
▁petroleum	-13759
▁Magistrate	-13760
▁acquainted	-13761
▁instituted	-13762
▁Anniversary	-13763
hot	-13764
city	-13765
udal	-13766
posed	-13767
alinga	-13768
▁Iblis	-13769
▁brass	-13770
▁lymph	-13771
▁thumb	-13772
▁treas	-13773
quisite	-13774
▁Backup	-13775
▁Narmad	-13776
▁foster	-13777
▁progen	-13778
▁uphold	-13779
▁varies	-13780
▁compens	-13781
▁dropped	-13782
▁sorcery	-13783
▁annually	-13784
▁founding	-13785
▁monument	-13786
▁paradise	-13787
▁pleasing	-13788
▁swelling	-13789
▁prospects	-13790
▁vegetable	-13791
▁administer	-13792
▁curriculum	-13793
▁kilometres	-13794
▁supporters	-13795
▁communicate	-13796
▁credentials	-13797
▁differently	-13798
▁accountability	-13799
OG	-13800
AIN	-13801
iat	-13802
yot	-13803
File	-13804
▁Opp	-13805
overe	-13806
▁Role	-13807
▁hymn	-13808
▁Exper	-13809
▁pilot	-13810
▁uncon	-13811
▁Recogn	-13812
▁dishon	-13813
▁humour	-13814
▁lovely	-13815
▁rooted	-13816
▁rubber	-13817
▁spices	-13818
▁excuses	-13819
▁handled	-13820
isticated	-13821
▁formally	-13822
▁peasants	-13823
▁peripher	-13824
▁publicly	-13825
▁Indonesia	-13826
▁incorrect	-13827
▁Prevention	-13828
▁attributed	-13829
▁encompasses	-13830
▁demonstrated	-13831
FA	-13832
EAR	-13833
ups	-13834
▁Bod	-13835
▁Jad	-13836
▁Teh	-13837
▁vow	-13838
Islam	-13839
ariah	-13840
▁Days	-13841
▁apex	-13842
arshan	-13843
opathy	-13844
▁Naval	-13845
▁prize	-13846
▁rebel	-13847
▁sorce	-13848
▁Bhakti	-13849
▁Travel	-13850
▁checks	-13851
▁cooked	-13852
▁instal	-13853
▁notify	-13854
▁ponder	-13855
▁rating	-13856
▁remitt	-13857
▁selves	-13858
▁Reforms	-13859
▁Shastri	-13860
▁premier	-13861
▁spouses	-13862
▁tarried	-13863
▁touches	-13864
▁prevents	-13865
▁allotment	-13866
▁detection	-13867
▁eliminate	-13868
▁innovators	-13869
▁convocation	-13870
▁illustrious	-13871
▁politicians	-13872
FR	-13873
GE	-13874
ype	-13875
Make	-13876
abul	-13877
untu	-13878
▁07.	-13879
▁Ark	-13880
▁Gib	-13881
▁muc	-13882
▁sem	-13883
▁Kind	-13884
▁club	-13885
▁disd	-13886
▁nick	-13887
▁rage	-13888
▁sums	-13889
istani	-13890
▁Purch	-13891
▁boxes	-13892
▁fatal	-13893
▁firms	-13894
▁prone	-13895
▁tower	-13896
▁Serial	-13897
▁puppet	-13898
▁Priority	-13899
▁doctrine	-13900
▁Employees	-13901
▁GREETINGS	-13902
▁concealed	-13903
▁disclosed	-13904
▁indication	-13905
▁termination	-13906
▁unconscious	-13907
▁remuneration	-13908
▁manifestation	-13909
arb	-13910
▁120	-13911
▁pel	-13912
▁spl	-13913
.2012	-13914
arama	-13915
illic	-13916
▁Info	-13917
▁Priy	-13918
▁echo	-13919
▁trip	-13920
ameter	-13921
▁Sangh	-13922
▁https	-13923
▁parad	-13924
▁vivid	-13925
▁zones	-13926
▁Brahmo	-13927
▁Double	-13928
▁Palace	-13929
▁dealer	-13930
▁devout	-13931
chandise	-13932
▁Federal	-13933
▁depicts	-13934
▁peasant	-13935
▁restart	-13936
▁quarters	-13937
▁Attachment	-13938
▁Profession	-13939
▁mathematics	-13940
▁procurement	-13941
Bs	-13942
sl	-13943
OLD	-13944
TIT	-13945
cha	-13946
pre	-13947
rup	-13948
▁Dy	-13949
▁PS	-13950
▁wit	-13951
Enter	-13952
etime	-13953
▁COND	-13954
▁acre	-13955
itious	-13956
▁2000,	-13957
▁Study	-13958
▁exult	-13959
▁Taurat	-13960
▁drinks	-13961
▁metaph	-13962
▁suspic	-13963
▁Missing	-13964
▁Sankara	-13965
▁seizure	-13966
▁wedding	-13967
▁Consolid	-13968
▁Vaishnav	-13969
▁dissemin	-13970
▁embedded	-13971
▁overtook	-13972
▁valuation	-13973
▁physically	-13974
▁sacrifices	-13975
▁celebration	-13976
▁realization	-13977
▁traditionally	-13978
▁multiplication	-13979
MC	-13980
ulc	-13981
via	-13982
inee	-13983
kara	-13984
opia	-13985
pire	-13986
rels	-13987
▁Bag	-13988
▁Cyr	-13989
▁Map	-13990
▁nas	-13991
based	-13992
urday	-13993
▁Mont	-13994
▁cock	-13995
▁Eleph	-13996
▁indis	-13997
▁loyal	-13998
▁Wisdom	-13999
▁preach	-14000
▁pulled	-14001
▁Balance	-14002
▁freight	-14003
▁impetus	-14004
▁mosques	-14005
▁excluded	-14006
▁operated	-14007
▁Wherefore	-14008
▁socialist	-14009
▁Subversion	-14010
▁underground	-14011
▁utilisation	-14012
▁contributing	-14013
mm	-14014
bek	-14015
▁5%	-14016
▁19.	-14017
▁Dak	-14018
▁Fall	-14019
▁Kish	-14020
▁Kumb	-14021
▁Team	-14022
▁prey	-14023
▁tens	-14024
▁wary	-14025
▁Burma	-14026
▁Panel	-14027
▁Pipes	-14028
▁catal	-14029
▁cheer	-14030
lements	-14031
▁Unless	-14032
▁behave	-14033
▁denies	-14034
▁ingred	-14035
▁relent	-14036
▁spouse	-14037
▁Ayodhya	-14038
▁Worship	-14039
▁clearing	-14040
▁compiled	-14041
▁divinity	-14042
▁immunity	-14043
▁insisted	-14044
▁sovereign	-14045
▁attachments	-14046
OI	-14047
}%	-14048
ogl	-14049
she	-14050
ulu	-14051
upa	-14052
abar	-14053
aine	-14054
▁Pap	-14055
▁SEC	-14056
▁ate	-14057
Taste	-14058
ourge	-14059
uster	-14060
▁slew	-14061
▁summ	-14062
▁wool	-14063
atible	-14064
▁Tibet	-14065
▁gases	-14066
▁Gospel	-14067
▁devoid	-14068
▁justly	-14069
▁layers	-14070
▁lifest	-14071
▁lovers	-14072
▁mandap	-14073
▁Sustain	-14074
▁amazing	-14075
▁holiday	-14076
▁artisans	-14077
▁contempl	-14078
▁imagined	-14079
▁investor	-14080
▁maritime	-14081
▁performs	-14082
▁renowned	-14083
▁launching	-14084
▁restraint	-14085
▁Electricity	-14086
▁multilateral	-14087
▁("	-14088
azed	-14089
ipse	-14090
oric	-14091
umni	-14092
▁DAC	-14093
uture	-14094
▁Diff	-14095
▁Half	-14096
▁prol	-14097
▁Meher	-14098
▁Salih	-14099
▁arose	-14100
▁Sovere	-14101
▁Undert	-14102
▁titled	-14103
▁youths	-14104
▁decides	-14105
▁priests	-14106
▁Councils	-14107
▁graphics	-14108
▁pursuing	-14109
▁ridicule	-14110
▁indecency	-14111
▁oppression	-14112
▁pesticides	-14113
▁highlighted	-14114
▁Intelligence	-14115
03	-14116
bhai	-14117
illy	-14118
pora	-14119
▁Gab	-14120
actor	-14121
inous	-14122
▁1987	-14123
▁aunt	-14124
▁bron	-14125
▁guru	-14126
necess	-14127
▁Smart	-14128
▁compe	-14129
▁flash	-14130
Appeals	-14131
tically	-14132
▁Border	-14133
▁aright	-14134
▁buried	-14135
▁fisher	-14136
▁incarn	-14137
▁strain	-14138
▁whilst	-14139
▁clients	-14140
▁constru	-14141
▁devised	-14142
▁masters	-14143
▁supplic	-14144
▁warfare	-14145
▁inviting	-14146
▁appearing	-14147
▁cancelled	-14148
▁magicians	-14149
▁calculation	-14150
▁spontaneous	-14151
zes	-14152
▁".	-14153
▁03.	-14154
isers	-14155
▁Fair	-14156
▁Town	-14157
▁dual	-14158
▁sear	-14159
ergies	-14160
iating	-14161
orical	-14162
▁Cisco	-14163
▁Model	-14164
▁enlar	-14165
▁shake	-14166
▁steam	-14167
limited	-14168
parable	-14169
iability	-14170
▁Minutes	-14171
▁SELECTED	-14172
▁luminous	-14173
▁websites	-14174
▁Gandharva	-14175
▁aesthetic	-14176
▁magnitude	-14177
▁selecting	-14178
▁violation	-14179
▁procession	-14180
▁Expenditure	-14181
▁humiliation	-14182
▁comparatively	-14183
/-	-14184
21	-14185
AV	-14186
hee	-14187
nar	-14188
rao	-14189
▁86	-14190
eros	-14191
▁ATAL	-14192
▁Gulf	-14193
▁Prin	-14194
▁Talk	-14195
raints	-14196
unning	-14197
▁Browse	-14198
▁Fellow	-14199
▁essays	-14200
▁mocked	-14201
▁poured	-14202
▁scarce	-14203
▁chooses	-14204
▁posting	-14205
▁speaker	-14206
▁Students	-14207
▁develops	-14208
▁hectares	-14209
▁rightful	-14210
▁aforetime	-14211
▁alignment	-14212
▁intervals	-14213
▁intestine	-14214
▁perceived	-14215
▁creativity	-14216
▁ordinarily	-14217
▁patriotism	-14218
▁Traditional	-14219
▁challenging	-14220
▁convenience	-14221
Ar	-14222
PO	-14223
oea	-14224
rea	-14225
neys	-14226
▁25.	-14227
▁31,	-14228
▁BJP	-14229
▁Opt	-14230
▁RES	-14231
▁iii	-14232
▁sen	-14233
adeva	-14234
heres	-14235
ullah	-14236
▁Kesh	-14237
▁Less	-14238
▁Ragh	-14239
▁Thak	-14240
▁angu	-14241
▁cruc	-14242
▁hint	-14243
▁turb	-14244
headed	-14245
rishna	-14246
▁Khadi	-14247
▁Plate	-14248
▁Round	-14249
▁brace	-14250
▁delta	-14251
▁expel	-14252
▁impug	-14253
▁Parent	-14254
▁burned	-14255
▁panels	-14256
▁wicket	-14257
ithmetic	-14258
▁Charles	-14259
▁solving	-14260
▁decisive	-14261
▁depicted	-14262
▁portions	-14263
▁inscribed	-14264
▁variation	-14265
▁willingly	-14266
▁equipments	-14267
▁periodical	-14268
▁similitude	-14269
▁concessions	-14270
▁civilisation	-14271
▁deliberately	-14272
▁verification	-14273
ui	-14274
ATH	-14275
▁77	-14276
ends	-14277
▁SER	-14278
apsed	-14279
▁Gamb	-14280
▁Mald	-14281
▁Song	-14282
▁Undo	-14283
▁para	-14284
hatkar	-14285
▁2007,	-14286
▁Zalim	-14287
▁assim	-14288
▁essay	-14289
▁Manage	-14290
▁comply	-14291
▁harder	-14292
▁pocket	-14293
▁Guarant	-14294
▁Receipt	-14295
▁Refresh	-14296
▁microsc	-14297
itiveness	-14298
▁extravag	-14299
▁floating	-14300
▁embarrass	-14301
▁landscape	-14302
▁threshold	-14303
▁Provincial	-14304
▁Upanishads	-14305
▁depression	-14306
▁repeatedly	-14307
▁consecutive	-14308
▁observations	-14309
di	-14310
Gov	-14311
▁OP	-14312
▁Qa	-14313
nage	-14314
wala	-14315
worm	-14316
▁Din	-14317
▁Ill	-14318
▁bee	-14319
akkah	-14320
▁AIDS	-14321
▁Coal	-14322
▁Prob	-14323
▁Ramm	-14324
▁Shik	-14325
▁cars	-14326
▁unin	-14327
Indian	-14328
wahati	-14329
▁bunch	-14330
▁forum	-14331
ulative	-14332
zerland	-14333
▁Compos	-14334
▁Groups	-14335
▁assure	-14336
▁hiding	-14337
▁myster	-14338
▁phones	-14339
▁priest	-14340
▁revert	-14341
▁vagina	-14342
▁wander	-14343
▁Prakash	-14344
▁fearful	-14345
▁horizon	-14346
igibility	-14347
▁Criminal	-14348
▁lighting	-14349
▁Protector	-14350
▁borrowing	-14351
▁resignation	-14352
▁appointments	-14353
▁modifications	-14354
Te	-14355
rey	-14356
▁73	-14357
ayam	-14358
lims	-14359
neum	-14360
oven	-14361
ulla	-14362
▁01.	-14363
▁Bol	-14364
▁Kur	-14365
▁Sak	-14366
▁pip	-14367
ashes	-14368
▁Sure	-14369
▁Maryam	-14370
▁revers	-14371
▁superf	-14372
▁tackle	-14373
liminary	-14374
▁Content	-14375
▁Messiah	-14376
▁Zalimun	-14377
▁confron	-14378
▁editing	-14379
▁mastery	-14380
▁poultry	-14381
▁screens	-14382
▁Checking	-14383
▁Complete	-14384
▁emission	-14385
▁treacher	-14386
▁employers	-14387
▁mentality	-14388
▁miserable	-14389
▁prolonged	-14390
▁Satyagraha	-14391
▁chromosomes	-14392
ITI	-14393
Pre	-14394
▁57	-14395
miki	-14396
luent	-14397
▁plun	-14398
uclear	-14399
▁2001,	-14400
▁Farid	-14401
▁Lower	-14402
▁Split	-14403
▁draws	-14404
▁hydro	-14405
▁tough	-14406
▁Daniel	-14407
▁Nagpur	-14408
▁Option	-14409
▁shapes	-14410
▁Multiple	-14411
▁Teachers	-14412
▁consumed	-14413
ordination	-14414
▁Bharatiya	-14415
▁enlighten	-14416
▁exclusion	-14417
▁Jagannatha	-14418
▁Resolution	-14419
▁plantation	-14420
▁governmental	-14421
.]	-14422
2}	-14423
▁03	-14424
▁Sr	-14425
AYEE	-14426
pher	-14427
uits	-14428
▁Dip	-14429
▁dub	-14430
ocate	-14431
▁bags	-14432
▁bite	-14433
▁nigg	-14434
▁slog	-14435
odhpur	-14436
▁Speed	-14437
▁Vrind	-14438
▁ample	-14439
▁monks	-14440
▁penal	-14441
whether	-14442
▁hazard	-14443
▁superv	-14444
ructural	-14445
▁dislike	-14446
▁doubled	-14447
▁readily	-14448
ifference	-14449
▁dividing	-14450
▁magician	-14451
▁overlook	-14452
▁Assessment	-14453
▁specialized	-14454
▁occasionally	-14455
▁demonstration	-14456
CR	-14457
ASS	-14458
▁TB	-14459
aval	-14460
iana	-14461
▁05.	-14462
▁Cry	-14463
▁HIS	-14464
▁Ras	-14465
▁UTs	-14466
▁rib	-14467
March	-14468
▁VAJP	-14469
mother	-14470
▁snakes	-14471
▁Records	-14472
▁Setting	-14473
▁VAJPAYEE	-14474
▁feedback	-14475
▁shipping	-14476
▁Sanctuary	-14477
▁Universal	-14478
▁Presidency	-14479
▁organizing	-14480
▁merchandise	-14481
ns	-14482
cow	-14483
ugg	-14484
▁AB	-14485
▁Ess	-14486
arter	-14487
astro	-14488
izard	-14489
▁Cant	-14490
▁Saha	-14491
▁gamb	-14492
▁kins	-14493
abhuti	-14494
amount	-14495
insula	-14496
recogn	-14497
▁Griev	-14498
▁Iraqi	-14499
▁meter	-14500
▁Diwali	-14501
▁Friday	-14502
▁evolve	-14503
▁pushed	-14504
ertained	-14505
▁submiss	-14506
▁Guwahati	-14507
▁instinct	-14508
▁arrogance	-14509
▁offerings	-14510
▁projected	-14511
▁displaying	-14512
▁elementary	-14513
▁Entrepreneur	-14514
▁dissemination	-14515
AF	-14516
GC	-14517
FER	-14518
burg	-14519
folk	-14520
opes	-14521
▁hal	-14522
giene	-14523
▁Pill	-14524
August	-14525
ometer	-14526
▁Blood	-14527
▁Mathe	-14528
▁Relie	-14529
▁brick	-14530
▁saith	-14531
▁AWARDS	-14532
▁Animal	-14533
▁Korean	-14534
▁Robert	-14535
▁Safety	-14536
▁basket	-14537
▁fierce	-14538
▁mantra	-14539
▁racial	-14540
▁Purusha	-14541
▁Regular	-14542
▁circles	-14543
▁mindful	-14544
▁washing	-14545
▁whisper	-14546
▁SPEECHES	-14547
▁ambitious	-14548
▁exploited	-14549
▁fashioned	-14550
▁regulated	-14551
PRODUCTNAME	-14552
▁conjecture	-14553
▁fertilizer	-14554
▁exploration	-14555
▁Championship	-14556
▁congratulations	-14557
EAN	-14558
iece	-14559
seud	-14560
umar	-14561
▁10%	-14562
▁Ple	-14563
▁sik	-14564
▁une	-14565
buntu	-14566
▁Iron	-14567
▁Sast	-14568
▁Snow	-14569
▁Tata	-14570
▁hook	-14571
▁mant	-14572
▁tabs	-14573
istent	-14574
▁2015.	-14575
▁Skill	-14576
▁horiz	-14577
General	-14578
▁Hebrew	-14579
▁Retrie	-14580
▁Supply	-14581
▁invari	-14582
▁exagger	-14583
▁guideth	-14584
▁legends	-14585
▁revenge	-14586
▁Recently	-14587
▁operator	-14588
▁pilgrims	-14589
▁validity	-14590
▁dominated	-14591
▁requisite	-14592
▁propaganda	-14593
▁transplant	-14594
▁horticulture	-14595
CII	-14596
igm	-14597
olu	-14598
ESCO	-14599
appa	-14600
bone	-14601
esis	-14602
▁(7)	-14603
▁Mil	-14604
▁ved	-14605
ensed	-14606
orney	-14607
ostic	-14608
▁Gods	-14609
▁Wing	-14610
▁budd	-14611
▁ensh	-14612
▁thri	-14613
icking	-14614
▁Above	-14615
▁Watch	-14616
▁coinc	-14617
▁feeds	-14618
▁Ashram	-14619
▁Harish	-14620
▁Portal	-14621
▁analys	-14622
▁occupy	-14623
▁solely	-14624
▁cleared	-14625
▁restaur	-14626
▁Guidance	-14627
▁illusion	-14628
▁migrated	-14629
▁Kolhatkar	-14630
▁completing	-14631
▁emphasized	-14632
▁counterpart	-14633
UP	-14634
oi	-14635
nis	-14636
▁29,	-14637
▁FIR	-14638
▁Hud	-14639
▁NHS	-14640
▁cub	-14641
rolog	-14642
▁Much	-14643
▁feas	-14644
▁jeal	-14645
▁scal	-14646
▁thir	-14647
▁Heavy	-14648
▁Hills	-14649
▁codes	-14650
▁dozen	-14651
▁flora	-14652
▁Demand	-14653
▁assent	-14654
▁Complex	-14655
▁Ishmael	-14656
▁Pradhan	-14657
▁Vallabh	-14658
▁elderly	-14659
▁escaped	-14660
▁spirits	-14661
▁Printing	-14662
▁likewise	-14663
▁textiles	-14664
obiography	-14665
▁Thereupon	-14666
▁sincerely	-14667
▁translate	-14668
▁Devanagari	-14669
▁conscience	-14670
▁minorities	-14671
▁cleanliness	-14672
▁unemployment	-14673
LD	-14674
Sw	-14675
Now	-14676
Par	-14677
cot	-14678
uan	-14679
▁FL	-14680
▁dos	-14681
erald	-14682
▁1971	-14683
▁Grad	-14684
▁Sadd	-14685
▁deem	-14686
▁verd	-14687
▁Croat	-14688
▁Kabul	-14689
▁Saheb	-14690
▁overr	-14691
▁portf	-14692
▁toxic	-14693
athetic	-14694
▁Judges	-14695
▁uterus	-14696
▁Confirm	-14697
▁approve	-14698
▁percept	-14699
▁physics	-14700
▁progeny	-14701
▁signing	-14702
▁sunrise	-14703
▁Articles	-14704
▁barriers	-14705
▁disciple	-14706
▁imposing	-14707
▁matching	-14708
▁GroupWise	-14709
▁impartial	-14710
▁salvation	-14711
▁deliberate	-14712
tk	-14713
.08	-14714
esc	-14715
sen	-14716
yar	-14717
▁SV	-14718
PATI	-14719
▁kap	-14720
▁pin	-14721
▁urg	-14722
comes	-14723
venth	-14724
▁1949	-14725
▁Arth	-14726
▁Kali	-14727
▁Poon	-14728
▁ferv	-14729
▁foss	-14730
aspora	-14731
erance	-14732
▁CALLS	-14733
▁Dutch	-14734
▁Names	-14735
▁Proxy	-14736
▁Stone	-14737
▁frank	-14738
▁loses	-14739
▁BIHARI	-14740
▁Dharma	-14741
▁Layout	-14742
▁Purana	-14743
▁Scroll	-14744
▁Taking	-14745
▁floods	-14746
▁lifted	-14747
▁Blessed	-14748
▁Spanish	-14749
▁contest	-14750
▁endorse	-14751
▁hanging	-14752
▁invoked	-14753
▁palaces	-14754
rehension	-14755
▁deterior	-14756
▁merchant	-14757
▁Societies	-14758
▁assembled	-14759
▁invention	-14760
▁Publications	-14761
ATI	-14762
III	-14763
ahu	-14764
▁HE	-14765
aret	-14766
bral	-14767
▁30.	-14768
▁Hap	-14769
▁Pud	-14770
▁maj	-14771
▁1930	-14772
▁Lect	-14773
▁SMTP	-14774
▁Bench	-14775
▁Puran	-14776
▁SIDBI	-14777
▁hoped	-14778
▁incub	-14779
▁mines	-14780
▁Almost	-14781
▁Bezbar	-14782
▁derive	-14783
▁fodder	-14784
▁guards	-14785
▁incons	-14786
▁Browser	-14787
▁incline	-14788
▁reduces	-14789
▁eighteen	-14790
▁fruitful	-14791
▁regulate	-14792
▁tropical	-14793
▁unnecess	-14794
▁alternate	-14795
▁economics	-14796
▁estimates	-14797
▁possesses	-14798
▁remainder	-14799
▁requiring	-14800
▁allowances	-14801
▁directories	-14802
▁inscription	-14803
▁instrumental	-14804
▁05	-14805
▁IR	-14806
avil	-14807
olio	-14808
ribe	-14809
▁Bor	-14810
▁jew	-14811
▁rod	-14812
adium	-14813
anyan	-14814
▁1973	-14815
▁clan	-14816
▁rays	-14817
▁trap	-14818
▁twin	-14819
luence	-14820
ulture	-14821
▁Minor	-14822
▁fetch	-14823
▁frames	-14824
▁notion	-14825
▁Convert	-14826
▁lawyers	-14827
▁texture	-14828
▁compiler	-14829
▁entities	-14830
▁initiate	-14831
▁sugarcane	-14832
▁Vidyasagar	-14833
▁distinctive	-14834
▁Nevertheless	-14835
▁Establishment	-14836
DB	-14837
ESH	-14838
Jan	-14839
abi	-14840
▁Ud	-14841
card	-14842
utor	-14843
▁29.	-14844
▁BHA	-14845
▁Jun	-14846
▁Mak	-14847
front	-14848
▁1985	-14849
▁Blue	-14850
▁Rish	-14851
▁Memor	-14852
▁Penal	-14853
▁aided	-14854
▁fauna	-14855
▁knock	-14856
▁scoff	-14857
▁Mantri	-14858
▁Mexico	-14859
▁Sudden	-14860
▁dinner	-14861
▁serial	-14862
▁tragic	-14863
▁Highway	-14864
▁arrives	-14865
[...]
