<pad>	0
</s>	0
<unk>	0
▁¦	-0
in	-1
an	-2
en	-3
ta	-4
si	-5
ka	-6
ja	-7
ll	-8
än	-9
is	-10
tä	-11
va	-12
et	-13
▁s	-14
▁𐋇	-15
▁h	-16
▁k	-17
▁m	-18
on	-19
sa	-20
un	-21
ei	-22
▁,	-23
▁p	-24
▁ja	-25
el	-26
ol	-27
ut	-28
▁t	-29
lle	-30
oi	-31
er	-32
ma	-33
ra	-34
es	-35
jo	-36
la	-37
▁n	-38
▁J	-39
ti	-40
vat	-41
ik	-42
▁hän	-43
as	-44
tu	-45
inä	-46
ki	-47
▁v	-48
ko	-49
uu	-50
iin	-51
ät	-52
▁ol	-53
▁ka	-54
it	-55
sä	-56
aa	-57
te	-58
▁.	-59
se	-60
llä	-61
ää	-62
▁va	-63
▁H	-64
▁jo	-65
ku	-66
mm	-67
▁si	-68
▁l	-69
sta	-70
inun	-71
hän	-72
uo	-73
▁on	-74
ksi	-75
utta	-76
lla	-77
▁"	-78
eid	-79
yt	-80
ul	-81
uh	-82
ke	-83
erra	-84
kä	-85
▁o	-86
▁S	-87
sen	-88
ne	-89
isi	-90
▁san	-91
ansa	-92
al	-93
uma	-94
ten	-95
mi	-96
▁Ja	-97
vi	-98
at	-99
vät	-100
eidän	-101
▁te	-102
▁j	-103
▁M	-104
hd	-105
san	-106
ista	-107
ri	-108
inu	-109
▁a	-110
to	-111
us	-112
että	-113
▁oli	-114
uk	-115
ih	-116
kaa	-117
il	-118
oo	-119
▁ta	-120
ty	-121
ot	-122
▁kun	-123
im	-124
kun	-125
eli	-126
mä	-127
▁minä	-128
een	-129
mme	-130
itä	-131
pa	-132
▁Herra	-133
ssa	-134
ran	-135
▁se	-136
▁niin	-137
▁kaik	-138
▁he	-139
▁hänen	-140
▁ei	-141
ur	-142
kö	-143
▁y	-144
elle	-145
tan	-146
▁ko	-147
äl	-148
▁pa	-149
taa	-150
iv	-151
yn	-152
kaan	-153
▁ku	-154
kin	-155
▁:	-156
▁tä	-157
yö	-158
▁K	-159
umala	-160
▁tul	-161
he	-162
inen	-163
aan	-164
▁joka	-165
kuin	-166
ed	-167
pp	-168
tka	-169
le	-170
li	-171
äh	-172
oit	-173
oli	-174
den	-175
eille	-176
erran	-177
▁N	-178
eh	-179
▁kä	-180
▁sen	-181
maan	-182
niin	-183
eet	-184
so	-185
oin	-186
elin	-187
pä	-188
iset	-189
▁la	-190
ky	-191
▁sanoi	-192
▁A	-193
▁että	-194
eni	-195
▁r	-196
▁;	-197
minä	-198
elä	-199
▁vi	-200
koon	-201
vä	-202
ksen	-203
▁an	-204
▁minun	-205
asta	-206
▁sinun	-207
kan	-208
▁mi	-209
kaik	-210
▁nä	-211
nä	-212
▁as	-213
jan	-214
ole	-215
▁Si	-216
isen	-217
▁kaikki	-218
▁ole	-219
ha	-220
▁E	-221
▁kunin	-222
kää	-223
esi	-224
herra	-225
istä	-226
män	-227
▁kan	-228
essä	-229
lan	-230
istu	-231
▁I	-232
▁Mutta	-233
▁ra	-234
▁pä	-235
ui	-236
▁po	-237
inua	-238
yh	-239
inulle	-240
▁sa	-241
hden	-242
▁et	-243
alv	-244
ee	-245
▁ki	-246
elj	-247
eitä	-248
▁en	-249
nyt	-250
tta	-251
essa	-252
pun	-253
hänen	-254
van	-255
▁jotka	-256
ys	-257
min	-258
uud	-259
lta	-260
ar	-261
ensä	-262
▁vasta	-263
kse	-264
änsä	-265
▁sinä	-266
ille	-267
itse	-268
os	-269
▁Jumala	-270
▁sillä	-271
umalan	-272
mutta	-273
".	-274
isten	-275
tanut	-276
eit	-277
▁heidän	-278
taan	-279
ään	-280
yd	-281
ellä	-282
han	-283
▁kuu	-284
eidät	-285
joka	-286
▁Herran	-287
ni	-288
mmen	-289
issa	-290
▁puh	-291
mu	-292
estä	-293
▁pää	-294
▁läh	-295
▁`	-296
▁Is	-297
assa	-298
▁ovat	-299
▁ne	-300
▁poi	-301
man	-302
▁Niin	-303
▁to	-304
▁saa	-305
upun	-306
▁ni	-307
sillä	-308
▁päiv	-309
ska	-310
ken	-311
stä	-312
änä	-313
llut	-314
po	-315
rin	-316
gas	-317
lloin	-318
▁kuin	-319
pu	-320
tiin	-321
na	-322
raelin	-323
iva	-324
iksi	-325
esta	-326
toi	-327
ud	-328
▁-	-329
ön	-330
▁mutta	-331
."	-332
ensa	-333
onka	-334
pi	-335
pää	-336
maa	-337
tin	-338
ette	-339
alveli	-340
▁is	-341
▁mitä	-342
ks	-343
re	-344
minun	-345
mat	-346
kymmen	-347
▁maa	-348
▁ti	-349
sinun	-350
tän	-351
ihm	-352
▁tuli	-353
sanoi	-354
inut	-355
lä	-356
▁T	-357
kka	-358
ees	-359
▁olen	-360
▁vuo	-361
pe	-362
rj	-363
aavi	-364
aavid	-365
▁ma	-366
kaikki	-367
▁niinkuin	-368
me	-369
yl	-370
▁van	-371
▁mu	-372
▁ha	-373
▁hänelle	-374
tun	-375
jat	-376
▁syn	-377
ura	-378
▁P	-379
yös	-380
kunin	-381
ettu	-382
issä	-383
▁su	-384
▁B	-385
men	-386
uksen	-387
▁Sillä	-388
jen	-389
tel	-390
eru	-391
▁sano	-392
ab	-393
etta	-394
jumala	-395
▁D	-396
▁olivat	-397
sinä	-398
kuu	-399
tso	-400
▁kansa	-401
su	-402
mo	-403
▁suu	-404
▁il	-405
ro	-406
ina	-407
▁Jumalan	-408
▁teidän	-409
kansa	-410
ise	-411
mmä	-412
yttä	-413
▁hänet	-414
▁vastaan	-415
▁ed	-416
laiset	-417
etä	-418
vasta	-419
sivat	-420
tähden	-421
lo	-422
mieh	-423
▁so	-424
köön	-425
ani	-426
▁pu	-427
▁tuo	-428
uon	-429
▁hä	-430
▁häntä	-431
iden	-432
hin	-433
esti	-434
id	-435
päiv	-436
vo	-437
▁vih	-438
laisten	-439
jotka	-440
neet	-441
▁?	-442
eltä	-443
kea	-444
ydä	-445
▁Israelin	-446
yp	-447
oita	-448
▁no	-449
mpp	-450
ho	-451
raeli	-452
vuo	-453
▁men	-454
uuta	-455
yy	-456
▁kaupun	-457
tei	-458
etti	-459
▁heille	-460
herran	-461
ikä	-462
▁jonka	-463
▁kul	-464
▁sitä	-465
▁val	-466
mään	-467
nan	-468
poi	-469
sale	-470
ovat	-471
▁luo	-472
erusale	-473
heidän	-474
▁teh	-475
ssä	-476
▁Hän	-477
äär	-478
▁kuningas	-479
ita	-480
puh	-481
▁jäl	-482
tti	-483
▁poika	-484
▁Joo	-485
▁yl	-486
nut	-487
▁voi	-488
usta	-489
kään	-490
▁pel	-491
▁".	-492
isesti	-493
isin	-494
kymmentä	-495
no	-496
▁käs	-497
▁palveli	-498
▁sanoo	-499
läh	-500
▁Daavid	-501
gyp	-502
▁maan	-503
▁ar	-504
äni	-505
▁eivät	-506
olen	-507
▁ihm	-508
▁kanssa	-509
tto	-510
mitä	-511
▁eikä	-512
▁mieh	-513
tyi	-514
jä	-515
vit	-516
isia	-517
saa	-518
▁olet	-519
▁ty	-520
jaa	-521
▁al	-522
hur	-523
ell	-524
isa	-525
tui	-526
atta	-527
ia	-528
tten	-529
▁äl	-530
onsa	-531
▁pois	-532
tö	-533
eitse	-534
voi	-535
▁me	-536
ir	-537
kas	-538
▁tämä	-539
hä	-540
▁jos	-541
erä	-542
▁minulle	-543
▁Moo	-544
tte	-545
▁itse	-546
▁koko	-547
▁heidät	-548
yv	-549
▁tu	-550
▁meidän	-551
▁lei	-552
▁minua	-553
▁Jees	-554
teen	-555
uudan	-556
▁V	-557
▁nim	-558
val	-559
ihen	-560
▁Kun	-561
eb	-562
▁päivänä	-563
▁Sa	-564
yhä	-565
▁vaan	-566
▁var	-567
ika	-568
sin	-569
ua	-570
kia	-571
onin	-572
kseen	-573
tänyt	-574
kee	-575
nen	-576
ea	-577
var	-578
uden	-579
▁per	-580
▁ky	-581
usko	-582
▁sil	-583
pah	-584
niinkuin	-585
oike	-586
▁kaksi	-587
▁kor	-588
lei	-589
eitsemän	-590
▁toi	-591
ian	-592
▁vä	-593
suu	-594
▁lu	-595
mpä	-596
syn	-597
tuli	-598
iä	-599
las	-600
▁."	-601
▁kol	-602
ikka	-603
▁Jo	-604
lap	-605
▁pal	-606
imo	-607
▁pol	-608
jon	-609
▁kas	-610
▁velj	-611
▁Minä	-612
lleen	-613
tivät	-614
lleet	-615
ella	-616
▁G	-617
?"	-618
ist	-619
▁myös	-620
▁teille	-621
▁kuninkaan	-622
ek	-623
ydäm	-624
da	-625
ppi	-626
asti	-627
hurska	-628
▁suku	-629
▁sinua	-630
▁ri	-631
kelä	-632
jos	-633
hänelle	-634
mit	-635
▁kes	-636
jumalan	-637
▁syö	-638
lu	-639
tule	-640
oni	-641
▁meni	-642
tää	-643
rja	-644
▁heitä	-645
sano	-646
▁Jerusale	-647
▁uh	-648
ristu	-649
aab	-650
olivat	-651
▁sinulle	-652
▁ver	-653
▁tule	-654
▁Silloin	-655
▁li	-656
kaupun	-657
rof	-658
unut	-659
itten	-660
▁O	-661
▁edessä	-662
lli	-663
kunn	-664
eksi	-665
eivät	-666
▁e	-667
haa	-668
▁minut	-669
tämä	-670
katso	-671
▁katso	-672
pet	-673
eljä	-674
▁taiva	-675
ivät	-676
otta	-677
atso	-678
ele	-679
▁kät	-680
teidän	-681
▁elä	-682
asi	-683
tivat	-684
uks	-685
▁R	-686
use	-687
tus	-688
sani	-689
▁tämän	-690
▁hen	-691
hänet	-692
▁teki	-693
uko	-694
▁tykö	-695
ren	-696
vastaan	-697
uut	-698
▁siitä	-699
▁valta	-700
▁käsi	-701
yvä	-702
miin	-703
▁tuh	-704
mia	-705
rit	-706
ino	-707
▁L	-708
▁tempp	-709
esty	-710
▁tulee	-711
▁näin	-712
iste	-713
koi	-714
kul	-715
uun	-716
▁mukaan	-717
olet	-718
uksi	-719
mis	-720
▁nyt	-721
jäl	-722
uka	-723
▁hei	-724
tansa	-725
änne	-726
hta	-727
mpäri	-728
häntä	-729
ettiin	-730
▁tun	-731
do	-732
paa	-733
sia	-734
▁pan	-735
ses	-736
▁tai	-737
teh	-738
rael	-739
palveli	-740
tuo	-741
onut	-742
▁ilm	-743
kuningas	-744
sitä	-745
ksensa	-746
▁vielä	-747
usi	-748
▁seura	-749
etty	-750
poika	-751
koot	-752
pol	-753
vaan	-754
israelin	-755
▁kaupung	-756
▁asti	-757
▁vastasi	-758
joi	-759
pel	-760
▁f	-761
vaa	-762
sansa	-763
hdä	-764
▁mies	-765
ana	-766
luo	-767
▁kaiken	-768
▁israeli	-769
taneet	-770
mies	-771
heille	-772
mon	-773
kob	-774
ria	-775
enne	-776
▁Sen	-777
jonka	-778
▁mikä	-779
isiä	-780
hi	-781
utu	-782
elta	-783
▁Egyp	-784
iseksi	-785
▁maahan	-786
▁Nä	-787
▁tähden	-788
malla	-789
keen	-790
rsi	-791
isille	-792
▁puol	-793
▁Juudan	-794
keli	-795
tul	-796
kki	-797
ver	-798
eikä	-799
▁kirj	-800
dan	-801
mät	-802
ihin	-803
▁sekä	-804
toista	-805
pal	-806
ime	-807
rofeet	-808
ve	-809
mpi	-810
▁!	-811
ltä	-812
näin	-813
ara	-814
tele	-815
▁sanoen	-816
käs	-817
käsi	-818
▁oike	-819
▁lo	-820
silloin	-821
koko	-822
hen	-823
▁juo	-824
▁ettei	-825
▁siihen	-826
rk	-827
oll	-828
▁le	-829
daavid	-830
▁antoi	-831
sanoo	-832
▁na	-833
▁lap	-834
astu	-835
▁sinut	-836
▁usko	-837
iankaik	-838
▁tietä	-839
▁jälkelä	-840
pit	-841
▁jä	-842
teli	-843
kseni	-844
masta	-845
▁tehnyt	-846
mista	-847
del	-848
▁sydäm	-849
▁niiden	-850
kat	-851
uni	-852
uts	-853
▁sanoivat	-854
▁seitsemän	-855
▁pala	-856
▁palvelija	-857
puol	-858
päivänä	-859
kanssa	-860
per	-861
▁otti	-862
ysy	-863
moo	-864
▁tur	-865
kasta	-866
ukoi	-867
▁ul	-868
aik	-869
▁muu	-870
mas	-871
▁kuninkaa	-872
pois	-873
▁mer	-874
muu	-875
▁hyv	-876
yty	-877
▁esi	-878
pan	-879
kol	-880
lin	-881
▁olkoon	-882
▁sota	-883
uivat	-884
oitta	-885
kaksi	-886
▁Kristu	-887
meidän	-888
▁ollut	-889
sataa	-890
▁Ä	-891
unsa	-892
▁sitten	-893
uhtin	-894
minulle	-895
net	-896
▁siellä	-897
laisia	-898
kon	-899
▁kautta	-900
miehet	-901
iten	-902
▁koh	-903
▁Jeesus	-904
ata	-905
kiin	-906
▁olette	-907
oista	-908
llensa	-909
oa	-910
▁eteen	-911
▁sin	-912
▁sur	-913
heidät	-914
▁synti	-915
kaisin	-916
urin	-917
▁kat	-918
▁enää	-919
▁kään	-920
sitten	-921
jees	-922
minua	-923
▁yh	-924
▁Jaa	-925
▁Ab	-926
vilä	-927
massa	-928
iankaikk	-929
tunut	-930
▁vanhurska	-931
rv	-932
ös	-933
▁Herraa	-934
▁ker	-935
▁it	-936
▁olisi	-937
mmär	-938
lainen	-939
▁lä	-940
atte	-941
▁raken	-942
▁ho	-943
maahan	-944
▁He	-945
▁pi	-946
▁min	-947
▁jota	-948
▁kuole	-949
▁Sitten	-950
itsi	-951
kkaa	-952
▁Jos	-953
▁ot	-954
teki	-955
ret	-956
▁kuk	-957
ker	-958
öt	-959
tena	-960
▁koska	-961
▁niitä	-962
jy	-963
eillä	-964
myös	-965
▁teitä	-966
mer	-967
▁nämä	-968
raa	-969
▁kansan	-970
▁kuo	-971
valta	-972
ittä	-973
rta	-974
maassa	-975
▁Katso	-976
oitti	-977
uta	-978
ukse	-979
är	-980
kyn	-981
set	-982
joo	-983
äsi	-984
▁pojan	-985
st	-986
▁siis	-987
▁viin	-988
ah	-989
teille	-990
kselle	-991
▁asu	-992
▁palv	-993
rik	-994
kaat	-995
velj	-996
tävä	-997
ivat	-998
edessä	-999
sil	-1000
meni	-1001
rjan	-1002
una	-1003
▁näki	-1004
▁Herralle	-1005
▁tied	-1006
▁pyh	-1007
▁mitään	-1008
eita	-1009
▁vaimo	-1010
ba	-1011
intö	-1012
kor	-1013
iseen	-1014
iliste	-1015
▁antaa	-1016
llensä	-1017
▁tah	-1018
▁pyhä	-1019
▁siinä	-1020
▁Israel	-1021
kuninkaan	-1022
kes	-1023
ilistea	-1024
eta	-1025
▁ä	-1026
ineen	-1027
kunta	-1028
inulla	-1029
▁tullut	-1030
kaupung	-1031
kymmenen	-1032
llik	-1033
miel	-1034
jansa	-1035
illä	-1036
sti	-1037
▁erä	-1038
▁Daavidin	-1039
ess	-1040
petus	-1041
▁ette	-1042
▁kolme	-1043
nim	-1044
ttouh	-1045
tuu	-1046
▁nuo	-1047
sinua	-1048
ela	-1049
syö	-1050
tykö	-1051
llesi	-1052
▁ään	-1053
▁Saul	-1054
israeli	-1055
öl	-1056
▁ik	-1057
kät	-1058
suku	-1059
tämän	-1060
emme	-1061
ksesi	-1062
yksi	-1063
▁las	-1064
▁maassa	-1065
▁Se	-1066
▁kans	-1067
▁miel	-1068
▁por	-1069
▁hävit	-1070
tuh	-1071
iselle	-1072
▁antanut	-1073
anne	-1074
itta	-1075
▁kunni	-1076
uttaa	-1077
inusta	-1078
ven	-1079
▁?"	-1080
▁yli	-1081
raha	-1082
ib	-1083
heitä	-1084
▁Jaakob	-1085
▁jumala	-1086
tani	-1087
▁annan	-1088
sy	-1089
▁tar	-1090
sef	-1091
toa	-1092
▁Seb	-1093
▁pitä	-1094
▁oleva	-1095
aar	-1096
▁ann	-1097
▁pappi	-1098
▁joi	-1099
▁mur	-1100
kauh	-1101
▁oma	-1102
jerusale	-1103
olla	-1104
▁Tä	-1105
▁kuul	-1106
viä	-1107
sinulle	-1108
rat	-1109
llinen	-1110
isty	-1111
▁älä	-1112
▁Mooses	-1113
viin	-1114
dista	-1115
▁Sentähden	-1116
älä	-1117
▁rik	-1118
vän	-1119
osta	-1120
▁tulivat	-1121
ulta	-1122
vin	-1123
taiva	-1124
isti	-1125
▁altta	-1126
missä	-1127
Minä	-1128
▁Moose	-1129
▁lähti	-1130
▁lih	-1131
▁el	-1132
lapsi	-1133
illa	-1134
▁huu	-1135
lleni	-1136
▁Sinä	-1137
jalle	-1138
öy	-1139
minut	-1140
kana	-1141
olle	-1142
▁lähetti	-1143
siitä	-1144
mpa	-1145
▁viisi	-1146
laa	-1147
moin	-1148
▁pil	-1149
▁ruu	-1150
▁aina	-1151
olella	-1152
▁ennen	-1153
`.	-1154
nes	-1155
▁istu	-1156
▁liit	-1157
▁olemme	-1158
▁kau	-1159
simmä	-1160
rofeetta	-1161
pat	-1162
▁yhd	-1163
dä	-1164
▁päivä	-1165
▁ympäri	-1166
ukko	-1167
ynär	-1168
lee	-1169
tua	-1170
oikea	-1171
▁ruo	-1172
egyp	-1173
vielä	-1174
eliin	-1175
matta	-1176
ota	-1177
▁neljä	-1178
ola	-1179
osa	-1180
ton	-1181
vu	-1182
▁pys	-1183
▁kuts	-1184
lia	-1185
tempp	-1186
▁silloin	-1187
▁Jer	-1188
tar	-1189
▁käy	-1190
▁yksi	-1191
tär	-1192
tava	-1193
▁huo	-1194
tään	-1195
kellä	-1196
▁tapah	-1197
riksi	-1198
kko	-1199
tai	-1200
▁Aar	-1201
mikä	-1202
tulee	-1203
▁Näin	-1204
▁teke	-1205
▁kuinka	-1206
nämä	-1207
▁siel	-1208
essään	-1209
missa	-1210
oon	-1211
sel	-1212
tenä	-1213
alla	-1214
mmat	-1215
seura	-1216
mille	-1217
nus	-1218
imen	-1219
▁lin	-1220
▁mie	-1221
▁tyttä	-1222
▁Egyptin	-1223
isä	-1224
juo	-1225
▁er	-1226
hjo	-1227
▁jul	-1228
essaan	-1229
▁puhui	-1230
kel	-1231
▁sinne	-1232
▁kaikkien	-1233
kööt	-1234
mukaan	-1235
▁kymmen	-1236
▁miehet	-1237
▁paljon	-1238
▁ai	-1239
keut	-1240
▁hyvä	-1241
iankaikkisesti	-1242
oittaa	-1243
lat	-1244
llis	-1245
▁Sal	-1246
▁jal	-1247
▁seis	-1248
tee	-1249
▁vas	-1250
ilm	-1251
matto	-1252
▁huon	-1253
jät	-1254
isivat	-1255
sentähden	-1256
▁hal	-1257
pyh	-1258
▁suo	-1259
▁rauh	-1260
ppa	-1261
utti	-1262
▁rukoi	-1263
▁suuri	-1264
▁ran	-1265
sanne	-1266
▁sana	-1267
ilea	-1268
kuud	-1269
vir	-1270
▁vaim	-1271
▁muuta	-1272
päivä	-1273
kaiken	-1274
oitettu	-1275
din	-1276
▁sää	-1277
kirj	-1278
siihen	-1279
emu	-1280
ynnä	-1281
ettava	-1282
▁pojat	-1283
vastasi	-1284
▁toisen	-1285
oja	-1286
aat	-1287
vien	-1288
ga	-1289
py	-1290
fra	-1291
ona	-1292
ivan	-1293
misen	-1294
▁anta	-1295
▁älkää	-1296
astaan	-1297
ini	-1298
▁meille	-1299
ene	-1300
teet	-1301
öljy	-1302
▁her	-1303
▁kos	-1304
uuden	-1305
▁lähet	-1306
sur	-1307
kani	-1308
ssaan	-1309
por	-1310
jasi	-1311
salo	-1312
kset	-1313
sivät	-1314
▁toinen	-1315
▁viholl	-1316
▁takaisin	-1317
▁sisä	-1318
▁käsky	-1319
▁ymmär	-1320
uksessa	-1321
▁sanon	-1322
▁kukaan	-1323
hei	-1324
älkää	-1325
tuna	-1326
▁aset	-1327
or	-1328
otti	-1329
joita	-1330
kautta	-1331
uin	-1332
asa	-1333
jani	-1334
▁kir	-1335
mp	-1336
ollut	-1337
▁alas	-1338
eevilä	-1339
▁miestä	-1340
reja	-1341
tietä	-1342
juudan	-1343
ira	-1344
▁kauh	-1345
▁tulevat	-1346
▁aa	-1347
isiin	-1348
▁Seba	-1349
▁tekee	-1350
▁ruhtin	-1351
eteen	-1352
tänsä	-1353
kunnan	-1354
jaan	-1355
▁hope	-1356
seitsemän	-1357
▁mon	-1358
▁vir	-1359
▁Salo	-1360
tuhatta	-1361
ai	-1362
hal	-1363
päin	-1364
▁As	-1365
▁päällä	-1366
koska	-1367
▁mene	-1368
pyhä	-1369
sekä	-1370
vaimo	-1371
▁osa	-1372
▁pid	-1373
▁aino	-1374
▁teen	-1375
kenyt	-1376
ksenne	-1377
▁kysy	-1378
▁perintö	-1379
vot	-1380
ukku	-1381
▁Jumalaa	-1382
oh	-1383
olkoon	-1384
▁käd	-1385
▁Juud	-1386
▁voit	-1387
▁teidät	-1388
▁väl	-1389
oivat	-1390
atan	-1391
palv	-1392
istel	-1393
▁ulos	-1394
▁hedel	-1395
▁eivätkä	-1396
rille	-1397
aja	-1398
▁hyl	-1399
▁työ	-1400
sanoen	-1401
▁maasta	-1402
laisen	-1403
laisille	-1404
mmän	-1405
sydäm	-1406
umaan	-1407
udessa	-1408
▁leevilä	-1409
lah	-1410
ettei	-1411
▁isä	-1412
miksi	-1413
itenkin	-1414
nsä	-1415
sinut	-1416
aabelin	-1417
eljät	-1418
jamin	-1419
▁Jeesuksen	-1420
vih	-1421
etään	-1422
niiden	-1423
▁nousi	-1424
mitta	-1425
!"	-1426
siellä	-1427
tut	-1428
▁lö	-1429
alle	-1430
netto	-1431
▁otta	-1432
rella	-1433
▁vall	-1434
gen	-1435
uita	-1436
antoi	-1437
pojan	-1438
▁paik	-1439
▁kanssaan	-1440
kar	-1441
oksi	-1442
tet	-1443
▁Hen	-1444
▁saan	-1445
teeksi	-1446
▁opetus	-1447
▁Jumalasi	-1448
tyy	-1449
▁näh	-1450
▁päälle	-1451
▁filistea	-1452
ossa	-1453
rdan	-1454
▁meitä	-1455
▁minkä	-1456
tur	-1457
juma	-1458
jälkelä	-1459
uti	-1460
abin	-1461
▁isänsä	-1462
vanhurska	-1463
tynyt	-1464
▁us	-1465
▁neu	-1466
▁tee	-1467
Katso	-1468
tehnyt	-1469
▁juuta	-1470
olisi	-1471
hyv	-1472
hdek	-1473
▁vain	-1474
sanoivat	-1475
▁polttouh	-1476
olette	-1477
keä	-1478
enjamin	-1479
uul	-1480
tuivat	-1481
tuksen	-1482
alta	-1483
▁lan	-1484
▁pit	-1485
▁tahd	-1486
llenne	-1487
eks	-1488
▁py	-1489
▁yö	-1490
▁pah	-1491
▁joku	-1492
kristu	-1493
▁puhunut	-1494
gasta	-1495
▁kuuli	-1496
▁Kaik	-1497
▁miehen	-1498
kuninkaa	-1499
puu	-1500
▁Aab	-1501
koja	-1502
hon	-1503
▁sä	-1504
▁Äl	-1505
▁aik	-1506
oihin	-1507
raken	-1508
▁täyt	-1509
kuinka	-1510
mma	-1511
ottu	-1512
udat	-1513
▁fara	-1514
mie	-1515
▁vuor	-1516
▁joita	-1517
insä	-1518
tat	-1519
▁puhu	-1520
oittanut	-1521
▁temppelin	-1522
bin	-1523
▁Sebaot	-1524
▁jälkeen	-1525
itte	-1526
ydän	-1527
sojen	-1528
jeesus	-1529
jal	-1530
tah	-1531
koh	-1532
ystä	-1533
teitä	-1534
peä	-1535
siin	-1536
▁tal	-1537
jensa	-1538
herraa	-1539
tyivät	-1540
vet	-1541
esa	-1542
ruo	-1543
vall	-1544
istus	-1545
▁hall	-1546
▁saat	-1547
▁talo	-1548
anta	-1549
sensä	-1550
tanne	-1551
▁muut	-1552
muksen	-1553
ynärää	-1554
▁älköön	-1555
▁taivaan	-1556
kit	-1557
hv	-1558
kei	-1559
enää	-1560
pin	-1561
isto	-1562
jota	-1563
istaa	-1564
synti	-1565
▁vaikka	-1566
▁sentähden	-1567
varti	-1568
▁Ei	-1569
▁vier	-1570
▁pelas	-1571
ottaa	-1572
mus	-1573
▁har	-1574
▁Tämä	-1575
käy	-1576
kuul	-1577
tänne	-1578
▁isi	-1579
▁vai	-1580
keni	-1581
altta	-1582
miehen	-1583
▁saasta	-1584
▁heit	-1585
ava	-1586
jän	-1587
liit	-1588
▁jout	-1589
▁kaupungin	-1590
lais	-1591
isista	-1592
kansan	-1593
▁Moosekselle	-1594
▁israelilaiset	-1595
her	-1596
▁Joosef	-1597
▁käskyn	-1598
▁ilmesty	-1599
kuole	-1600
siis	-1601
▁mat	-1602
▁määr	-1603
▁päin	-1604
▁tehdä	-1605
▁kaikkia	-1606
paik	-1607
tusta	-1608
viisi	-1609
kuka	-1610
mien	-1611
ann	-1612
▁armo	-1613
▁vuotta	-1614
koa	-1615
▁jät	-1616
▁ken	-1617
tetaan	-1618
▁oikea	-1619
▁Aabraha	-1620
otte	-1621
▁Älä	-1622
niitä	-1623
uutta	-1624
▁kasvo	-1625
▁nouse	-1626
▁sy	-1627
▁ahd	-1628
▁synnyt	-1629
tied	-1630
hdeksan	-1631
▁Beet	-1632
▁maata	-1633
▁pahaa	-1634
isiksi	-1635
▁jossa	-1636
▁kuule	-1637
▁profeetta	-1638
lih	-1639
mur	-1640
▁Pi	-1641
▁un	-1642
▁juma	-1643
▁väär	-1644
▁kymmenen	-1645
ras	-1646
ruu	-1647
yttää	-1648
ksemme	-1649
huon	-1650
muut	-1651
▁tuhatta	-1652
▁Kristuksen	-1653
von	-1654
imin	-1655
▁ylös	-1656
▁sanan	-1657
kivat	-1658
nouse	-1659
ter	-1660
▁hi	-1661
▁tähän	-1662
▁verta	-1663
▁jumalatto	-1664
ob	-1665
näki	-1666
pitä	-1667
kir	-1668
ussa	-1669
pappi	-1670
▁kiin	-1671
otisesti	-1672
▁kuninkaaksi	-1673
puolella	-1674
ak	-1675
▁hu	-1676
▁poikansa	-1677
oma	-1678
pil	-1679
▁jää	-1680
▁sille	-1681
asu	-1682
oille	-1683
siinä	-1684
kseksi	-1685
herralle	-1686
kolme	-1687
▁kuka	-1688
▁tänä	-1689
▁tätä	-1690
de	-1691
▁lau	-1692
▁luon	-1693
▁kuoli	-1694
▁maail	-1695
di	-1696
sar	-1697
rempi	-1698
him	-1699
llaan	-1700
▁kuma	-1701
▁menivät	-1702
ron	-1703
yhd	-1704
mari	-1705
voit	-1706
antaa	-1707
tuvat	-1708
mene	-1709
ylvä	-1710
▁ved	-1711
▁palvel	-1712
my	-1713
jia	-1714
essäni	-1715
mitään	-1716
▁niistä	-1717
aaksi	-1718
▁Ha	-1719
▁kiv	-1720
▁tod	-1721
▁täh	-1722
▁viisa	-1723
▁iankaikkisesti	-1724
täni	-1725
mistä	-1726
tävät	-1727
▁Joka	-1728
▁lain	-1729
miestä	-1730
▁jolla	-1731
▁tytär	-1732
▁lähtivät	-1733
kunni	-1734
nuo	-1735
sma	-1736
kelin	-1737
▁rakasta	-1738
eer	-1739
▁Joosu	-1740
▁tuon	-1741
▁Jerusalemin	-1742
via	-1743
kien	-1744
▁U	-1745
itsee	-1746
▁kuninkaalle	-1747
ppu	-1748
asin	-1749
israel	-1750
palvelija	-1751
▁sul	-1752
▁kuusi	-1753
▁syntyi	-1754
▁tehneet	-1755
ikö	-1756
kku	-1757
sota	-1758
▁aja	-1759
▁pani	-1760
▁Hänen	-1761
yli	-1762
mmi	-1763
uus	-1764
vas	-1765
ivaa	-1766
▁Saa	-1767
▁tyh	-1768
istuim	-1769
toivat	-1770
▁Salomo	-1771
tullut	-1772
don	-1773
▁jouko	-1774
▁asettu	-1775
daavidin	-1776
gon	-1777
sit	-1778
kans	-1779
saul	-1780
tien	-1781
eljän	-1782
petta	-1783
isesta	-1784
▁El	-1785
▁asuk	-1786
▁jälj	-1787
ano	-1788
hävit	-1789
rä	-1790
vana	-1791
Herra	-1792
▁väke	-1793
rdanin	-1794
▁tuomi	-1795
▁päivää	-1796
▁saakka	-1797
ilta	-1798
ksin	-1799
rilla	-1800
▁re	-1801
määr	-1802
▁ota	-1803
▁lähte	-1804
▁Israeli	-1805
▁kätensä	-1806
ettuna	-1807
▁teura	-1808
▁varten	-1809
llansa	-1810
▁kaa	-1811
inuun	-1812
nusta	-1813
met	-1814
vaim	-1815
▁henki	-1816
▁kunnes	-1817
▁ensimmä	-1818
▁sanonut	-1819
utsu	-1820
vali	-1821
täneet	-1822
jälkeen	-1823
pala	-1824
▁väki	-1825
▁Aaron	-1826
▁missä	-1827
olta	-1828
annan	-1829
kalta	-1830
vun	-1831
ukan	-1832
▁peit	-1833
jaakob	-1834
eis	-1835
änyt	-1836
oitse	-1837
sensa	-1838
antanut	-1839
siir	-1840
▁Kaikki	-1841
tia	-1842
saan	-1843
aksi	-1844
ikke	-1845
oilla	-1846
▁Nämä	-1847
viksi	-1848
▁kohd	-1849
kau	-1850
tilä	-1851
oleva	-1852
▁kokoon	-1853
tot	-1854
aina	-1855
itar	-1856
siel	-1857
ennen	-1858
ukset	-1859
▁pakana	-1860
▁vuoden	-1861
ikkeelle	-1862
▁hänellä	-1863
tuneet	-1864
uneet	-1865
▁anna	-1866
▁kiit	-1867
miehiä	-1868
ruhtin	-1869
▁kulta	-1870
▁pitää	-1871
hyvä	-1872
maasta	-1873
Mitä	-1874
▁pur	-1875
▁vael	-1876
mooses	-1877
▁meidät	-1878
▁jokainen	-1879
▁kaikille	-1880
its	-1881
erin	-1882
ätte	-1883
ksessa	-1884
▁muuka	-1885
uhri	-1886
ppuun	-1887
▁aika	-1888
▁kansaa	-1889
▁keskellä	-1890
siä	-1891
kaamme	-1892
tulivat	-1893
eti	-1894
saat	-1895
▁heistä	-1896
▁keskuud	-1897
pih	-1898
tyttä	-1899
llitus	-1900
tal	-1901
▁kar	-1902
moose	-1903
▁emme	-1904
▁paran	-1905
▁kaikesta	-1906
baa	-1907
mpaa	-1908
ppin	-1909
▁päät	-1910
olemme	-1911
▁käski	-1912
▁syntiä	-1913
uuri	-1914
toinen	-1915
▁perhe	-1916
▁samoin	-1917
▁sukukunn	-1918
vää	-1919
anin	-1920
▁Paa	-1921
▁han	-1922
▁lyö	-1923
▁vuod	-1924
isistä	-1925
lähetti	-1926
▁pelkää	-1927
▁Jerusalemiin	-1928
huu	-1929
nnä	-1930
vain	-1931
mänsä	-1932
sille	-1933
yksen	-1934
lö	-1935
isit	-1936
ynyt	-1937
▁siun	-1938
▁suur	-1939
▁kukin	-1940
▁rakka	-1941
huo	-1942
▁`.	-1943
sana	-1944
neljä	-1945
staa	-1946
teke	-1947
▁Sii	-1948
▁kal	-1949
▁taas	-1950
▁ynnä	-1951
miä	-1952
mmoni	-1953
too	-1954
anna	-1955
ympäri	-1956
▁ih	-1957
eensä	-1958
mättä	-1959
▁riemu	-1960
▁onnetto	-1961
▁jälkeläisiä	-1962
kos	-1963
ien	-1964
ile	-1965
mää	-1966
▁kur	-1967
▁kyl	-1968
▁öljy	-1969
▁sanat	-1970
iti	-1971
arin	-1972
eensa	-1973
konsa	-1974
jer	-1975
▁vei	-1976
▁päästä	-1977
`,	-1978
suo	-1979
pys	-1980
mman	-1981
riyty	-1982
▁ylen	-1983
▁kalli	-1984
▁häneen	-1985
ili	-1986
▁Ma	-1987
▁Te	-1988
kuts	-1989
▁sel	-1990
▁tiedä	-1991
▁israelilaisten	-1992
jul	-1993
saf	-1994
idun	-1995
rauh	-1996
olemmat	-1997
▁Ka	-1998
aani	-1999
hellä	-2000
▁viha	-2001
▁enkeli	-2002
▁hänestä	-2003
kaansa	-2004
toisen	-2005
mmin	-2006
▁asi	-2007
▁puhd	-2008
kuntaa	-2009
ettakoon	-2010
jouk	-2011
▁Mi	-2012
tapah	-2013
uinka	-2014
▁enkä	-2015
älköön	-2016
▁häneltä	-2017
▁pelastu	-2018
masi	-2019
isuut	-2020
lähti	-2021
isella	-2022
onatan	-2023
ojen	-2024
▁hyö	-2025
▁vil	-2026
mar	-2027
▁my	-2028
▁elää	-2029
▁silmä	-2030
▁Älkää	-2031
▁liiton	-2032
▁sieltä	-2033
▁kansalle	-2034
▁käskenyt	-2035
▁Jerusalemissa	-2036
elissä	-2037
palvel	-2038
era	-2039
▁vaa	-2040
minkä	-2041
▁pime	-2042
▁nähdä	-2043
▁Baabelin	-2044
▁Jaakobin	-2045
paljon	-2046
▁vesi	-2047
je	-2048
sii	-2049
ytti	-2050
jaksi	-2051
sinne	-2052
eri	-2053
skaa	-2054
tesi	-2055
▁kats	-2056
inussa	-2057
isitte	-2058
",	-2059
ure	-2060
lansa	-2061
hu	-2062
yyd	-2063
▁Efra	-2064
▁Iisa	-2065
▁yhtä	-2066
llisen	-2067
▁hyvää	-2068
▁kauan	-2069
▁ottaa	-2070
▁olleet	-2071
ala	-2072
kesi	-2073
oitu	-2074
seba	-2075
rukoi	-2076
▁nimi	-2077
▁aurin	-2078
▁tulen	-2079
▁suuren	-2080
kaikkien	-2081
▁En	-2082
polv	-2083
▁Baa	-2084
▁lah	-2085
▁vie	-2086
suuri	-2087
▁nuor	-2088
llikkö	-2089
utuvat	-2090
▁hyvin	-2091
▁kärsi	-2092
▁tulla	-2093
egyptin	-2094
Nä	-2095
jää	-2096
tit	-2097
▁os	-2098
jona	-2099
▁olla	-2100
▁tässä	-2101
▁vaatte	-2102
llen	-2103
seis	-2104
aanin	-2105
isenä	-2106
puhui	-2107
valla	-2108
kal	-2109
▁heimo	-2110
▁kyynärää	-2111
▁ainoastaan	-2112
uja	-2113
syt	-2114
erub	-2115
kina	-2116
tola	-2117
oitan	-2118
ukana	-2119
▁kiel	-2120
▁lupa	-2121
▁paika	-2122
▁tekivät	-2123
▁kaksikymmentä	-2124
aseen	-2125
▁oh	-2126
▁juh	-2127
surin	-2128
▁kirkka	-2129
▁kansani	-2130
sää	-2131
etut	-2132
mansa	-2133
muuta	-2134
illeen	-2135
▁Poi	-2136
▁kim	-2137
▁sääd	-2138
jumalaa	-2139
▁päivän	-2140
ny	-2141
utensa	-2142
vuotena	-2143
kirja	-2144
▁kohtaan	-2145
viho	-2146
tyä	-2147
tapp	-2148
▁josta	-2149
▁aikaan	-2150
▁kaikista	-2151
nit	-2152
uur	-2153
jain	-2154
ettävä	-2155
▁ojen	-2156
▁käsiin	-2157
▁leipää	-2158
▁tulleet	-2159
▁veljensä	-2160
käsky	-2161
ymmär	-2162
puolelle	-2163
em	-2164
atin	-2165
immä	-2166
kysy	-2167
keliu	-2168
pojat	-2169
lapset	-2170
vankeliu	-2171
puhu	-2172
jouko	-2173
▁Ah	-2174
▁ajat	-2175
▁linn	-2176
▁vann	-2177
käämme	-2178
▁vettä	-2179
▁teistä	-2180
▁kanssansa	-2181
vasi	-2182
etari	-2183
tistä	-2184
jaansa	-2185
▁An	-2186
▁kiinni	-2187
▁seuraa	-2188
▁anteeksi	-2189
▁ennenkuin	-2190
▁kaupunkiin	-2191
väl	-2192
aino	-2193
obea	-2194
istan	-2195
tyvät	-2196
idunma	-2197
▁kohti	-2198
▁tietää	-2199
llessaan	-2200
muksessa	-2201
▁ihminen	-2202
vel	-2203
juud	-2204
▁Raa	-2205
▁uhri	-2206
▁kuuka	-2207
▁voima	-2208
▁niille	-2209
▁Jumalamme	-2210
voin	-2211
annut	-2212
yyttä	-2213
joukko	-2214
Tä	-2215
▁Mitä	-2216
▁uhra	-2217
▁varti	-2218
meille	-2219
miesten	-2220
jet	-2221
vai	-2222
emen	-2223
hope	-2224
vuor	-2225
▁äär	-2226
lähet	-2227
▁totu	-2228
▁kirja	-2229
▁yhden	-2230
▁asetti	-2231
▁kahden	-2232
▁met	-2233
▁nuh	-2234
▁tapp	-2235
▁vanha	-2236
▁kansat	-2237
▁minusta	-2238
▁todista	-2239
anas	-2240
henki	-2241
uilla	-2242
eeseen	-2243
kukaan	-2244
llänsä	-2245
takaisin	-2246
.`	-2247
▁Ol	-2248
▁kö	-2249
sisä	-2250
uhrin	-2251
vansa	-2252
▁tänne	-2253
alas	-2254
aset	-2255
asun	-2256
iska	-2257
sanon	-2258
vaikka	-2259
Jos	-2260
kalla	-2261
kuule	-2262
▁lähd	-2263
itinsä	-2264
▁teillä	-2265
hedel	-2266
▁sor	-2267
tettu	-2268
▁nime	-2269
▁ihmis	-2270
▁saanut	-2271
▁ottivat	-2272
▁alttarin	-2273
▁kanssasi	-2274
het	-2275
emia	-2276
sten	-2277
kensä	-2278
ydämen	-2279
tulevat	-2280
imme	-2281
jasta	-2282
vaksi	-2283
▁kohta	-2284
▁meren	-2285
leevilä	-2286
▁saavat	-2287
siirtola	-2288
pur	-2289
rei	-2290
aika	-2291
tekee	-2292
eja	-2293
ehti	-2294
muel	-2295
▁lun	-2296
▁pes	-2297
▁jään	-2298
eitten	-2299
kkosiirtola	-2300
lliset	-2301
talo	-2302
▁auti	-2303
▁kark	-2304
päällä	-2305
▁pysyy	-2306
eivätkä	-2307
▁peljät	-2308
▁yhdessä	-2309
innut	-2310
uksensa	-2311
hyl	-2312
käd	-2313
haan	-2314
▁alu	-2315
▁Sinun	-2316
uhriksi	-2317
▁tuleva	-2318
▁taistel	-2319
▁kansojen	-2320
up	-2321
toon	-2322
ttaa	-2323
▁näl	-2324
tuaan	-2325
▁vahv	-2326
teidät	-2327
ileadin	-2328
▁kaikkea	-2329
ksia	-2330
toja	-2331
meitä	-2332
polttouh	-2333
naa	-2334
hall	-2335
ulos	-2336
▁Neb	-2337
▁ene	-2338
▁häpe	-2339
perintö	-2340
▁Joosua	-2341
▁ihmisten	-2342
▁kaupunkia	-2343
nö	-2344
ksa	-2345
▁Sim	-2346
oissa	-2347
▁kalta	-2348
▁syödä	-2349
▁puolella	-2350
▁silmissä	-2351
▁kahdeksan	-2352
▁kuitenkin	-2353
▁kuningasta	-2354
riin	-2355
benjamin	-2356
▁g	-2357
udu	-2358
arise	-2359
▁sata	-2360
▁yhte	-2361
▁johon	-2362
▁kiiva	-2363
▁kaksitoista	-2364
puna	-2365
maata	-2366
llista	-2367
filistea	-2368
▁oman	-2369
varten	-2370
▁herra	-2371
▁papit	-2372
▁pyhit	-2373
▁ilmestysma	-2374
neu	-2375
eeni	-2376
juuta	-2377
rasta	-2378
ottanut	-2379
ansaatta	-2380
idunmaineen	-2381
▁Y	-2382
rien	-2383
▁ala	-2384
▁ter	-2385
▁etsi	-2386
▁tunte	-2387
▁joiden	-2388
▁täynnä	-2389
jumalasi	-2390
jeesuksen	-2391
vut	-2392
kasi	-2393
utte	-2394
paika	-2395
opetus	-2396
ef	-2397
vos	-2398
▁Vi	-2399
jana	-2400
tahd	-2401
▁pet	-2402
jossa	-2403
telee	-2404
▁aamu	-2405
▁kivi	-2406
▁kolman	-2407
▁Jordanin	-2408
▁puolesta	-2409
▁lähettänyt	-2410
▁palvelijasi	-2411
usa	-2412
nalle	-2413
nousi	-2414
mel	-2415
näh	-2416
papit	-2417
▁karit	-2418
▁mennä	-2419
▁kutsui	-2420
▁vaimon	-2421
▁!"	-2422
eliä	-2423
ettää	-2424
takaa	-2425
lau	-2426
ram	-2427
fara	-2428
▁alla	-2429
▁jona	-2430
isänsä	-2431
▁katsel	-2432
▁itsensä	-2433
työ	-2434
kanssaan	-2435
▁näky	-2436
udesta	-2437
▁Manas	-2438
▁nimen	-2439
essänsä	-2440
▁lähten	-2441
▁jälleen	-2442
▁kuullut	-2443
oitettuna	-2444
ahd	-2445
hain	-2446
jolla	-2447
päälle	-2448
ost	-2449
Sinä	-2450
armo	-2451
lain	-2452
▁epä	-2453
mästä	-2454
▁näke	-2455
▁teko	-2456
▁sapat	-2457
▁ketään	-2458
▁sanoin	-2459
▁enemmän	-2460
▁erämaassa	-2461
▁luoksensa	-2462
▁ympärilei	-2463
▁jälkeläiset	-2464
kkö	-2465
joku	-2466
jout	-2467
kuun	-2468
▁Isä	-2469
▁pysy	-2470
▁ruko	-2471
errani	-2472
▁aikaa	-2473
▁lampa	-2474
▁saira	-2475
▁Saulin	-2476
▁nähnyt	-2477
▁Aaronin	-2478
▁asukkaat	-2479
kuusi	-2480
non	-2481
väki	-2482
▁sai	-2483
▁heng	-2484
kaupungin	-2485
▁His	-2486
▁lam	-2487
▁tut	-2488
▁johd	-2489
▁noud	-2490
▁Minun	-2491
▁kysyi	-2492
▁joilla	-2493
▁kesken	-2494
ibe	-2495
oog	-2496
riä	-2497
ukad	-2498
istui	-2499
minen	-2500
himmat	-2501
ksensä	-2502
beet	-2503
▁koo	-2504
▁rin	-2505
kaita	-2506
siksi	-2507
▁miek	-2508
▁äläkä	-2509
puhunut	-2510
▁tykönsä	-2511
▁liikkeelle	-2512
▁temppeliin	-2513
juh	-2514
kuuli	-2515
utesi	-2516
▁[	-2517
mal	-2518
▁sö	-2519
kulta	-2520
oiksi	-2521
tensä	-2522
▁vapa	-2523
▁esiko	-2524
▁korke	-2525
▁pohjo	-2526
ottivat	-2527
▁miehiä	-2528
oittivat	-2529
▁Mooseksen	-2530
vuotta	-2531
jumalatto	-2532
olin	-2533
ikään	-2534
▁profeet	-2535
temppelin	-2536
maton	-2537
estaan	-2538
synnyt	-2539
heit	-2540
▁par	-2541
▁pääs	-2542
saasta	-2543
llisesti	-2544
▁kuulleet	-2545
▁Jumalalle	-2546
▁Jumalanne	-2547
od	-2548
mori	-2549
täyt	-2550
hoja	-2551
insa	-2552
▁nos	-2553
▁oin	-2554
astui	-2555
eksän	-2556
sebaot	-2557
vannut	-2558
taivaan	-2559
▁kasvoi	-2560
▁olevan	-2561
profeetta	-2562
▁hallitus	-2563
▁viinitar	-2564
imet	-2565
jokainen	-2566
ulla	-2567
▁rakas	-2568
▁sella	-2569
▁elämän	-2570
▁lapset	-2571
▁toimit	-2572
▁palvele	-2573
▁Daavidille	-2574
ved	-2575
vier	-2576
rofee	-2577
yyden	-2578
itenkaan	-2579
poikansa	-2580
seni	-2581
suur	-2582
▁kiro	-2583
▁tien	-2584
▁kotiin	-2585
▁myöskin	-2586
Ei	-2587
ttu	-2588
Näin	-2589
▁itä	-2590
▁ked	-2591
kaani	-2592
tonsa	-2593
uksia	-2594
▁olin	-2595
▁voin	-2596
elleen	-2597
estään	-2598
▁niihin	-2599
ket	-2600
yys	-2601
viha	-2602
joosef	-2603
▁Me	-2604
▁täy	-2605
▁nous	-2606
▁minulla	-2607
▁päivinä	-2608
▁leeviläiset	-2609
israelilaiset	-2610
sut	-2611
täh	-2612
ppal	-2613
ville	-2614
päivän	-2615
kaikkia	-2616
aas	-2617
▁Ki	-2618
päät	-2619
tyneet	-2620
▁Miksi	-2621
▁kumar	-2622
▁faraon	-2623
▁pyhäkö	-2624
▁sinulla	-2625
▁Benjamin	-2626
▁Jumalani	-2627
▁sydämensä	-2628
pelas	-2629
ittain	-2630
eesi	-2631
uttua	-2632
samoin	-2633
ukseen	-2634
▁Johan	-2635
▁herät	-2636
▁neuvo	-2637
▁sydän	-2638
aabraha	-2639
▁ruokauh	-2640
▁toimitta	-2641
▁kirjoitettu	-2642
kiel	-2643
▁ov	-2644
tänä	-2645
väär	-2646
▁nis	-2647
tähän	-2648
▁Kuka	-2649
▁arma	-2650
käskyn	-2651
▁kuulla	-2652
▁kimppuun	-2653
pui	-2654
öyr	-2655
isuud	-2656
sanan	-2657
skaan	-2658
muuden	-2659
ilmesty	-2660
moosekselle	-2661
?`	-2662
▁pun	-2663
tehdä	-2664
▁teet	-2665
▁huusi	-2666
▁kutsu	-2667
gyptilä	-2668
▁heillä	-2669
▁korkea	-2670
▁julista	-2671
▁sieluni	-2672
kasvo	-2673
kukin	-2674
tuomi	-2675
netaan	-2676
sai	-2677
▁Ar	-2678
isee	-2679
oska	-2680
post	-2681
▁här	-2682
ukseni	-2683
▁laupe	-2684
▁rikko	-2685
▁varus	-2686
istansa	-2687
▁ammoni	-2688
▁minulta	-2689
▁egyptilä	-2690
har	-2691
tätä	-2692
uusi	-2693
pahaa	-2694
kansat	-2695
keihin	-2696
▁monta	-2697
▁herrani	-2698
▁molemmat	-2699
▁viisikymmentä	-2700
kiit	-2701
maksi	-2702
isessa	-2703
ensimmä	-2704
ben	-2705
seb	-2706
▁Eli	-2707
▁het	-2708
▁poj	-2709
lähte	-2710
▁kulki	-2711
▁lapsi	-2712
▁neljän	-2713
▁Joonatan	-2714
▁etteivät	-2715
▁kaupunki	-2716
kristuksen	-2717
▁valtaistuim	-2718
tyh	-2719
kohd	-2720
llään	-2721
viisa	-2722
ag	-2723
nin	-2724
unu	-2725
Älä	-2726
▁Va	-2727
avat	-2728
kian	-2729
luon	-2730
ylös	-2731
▁pyy	-2732
verta	-2733
▁Eikö	-2734
▁vaik	-2735
stansa	-2736
▁puhut	-2737
▁tästä	-2738
▁uskon	-2739
uksesta	-2740
▁Kristus	-2741
▁sanovat	-2742
tytär	-2743
päästä	-2744
rakasta	-2745
▁Haa	-2746
ramin	-2747
uille	-2748
▁hajo	-2749
▁sala	-2750
▁Kunin	-2751
▁kanta	-2752
▁pelasta	-2753
▁neljäkymmentä	-2754
dea	-2755
sul	-2756
peit	-2757
tuul	-2758
eiden	-2759
eljäs	-2760
kille	-2761
nalla	-2762
upesi	-2763
uteen	-2764
elille	-2765
liiton	-2766
hat	-2767
▁Aa	-2768
utan	-2769
▁vyö	-2770
nessa	-2771
▁kaiv	-2772
▁surma	-2773
▁ymmärr	-2774
▁ihmiset	-2775
▁hallitsi	-2776
▁kanssani	-2777
kuninkaaksi	-2778
seen	-2779
maail	-2780
totisesti	-2781
kiä	-2782
tyt	-2783
▁eh	-2784
ällä	-2785
karit	-2786
▁etkä	-2787
▁laus	-2788
▁Jooja	-2789
▁mistä	-2790
▁takaa	-2791
▁velji	-2792
▁näkivät	-2793
▁pakanain	-2794
▁On	-2795
pani	-2796
▁Naa	-2797
▁Voi	-2798
▁keh	-2799
▁mal	-2800
▁syt	-2801
sella	-2802
▁jouk	-2803
▁pane	-2804
▁ulko	-2805
▁vaat	-2806
▁ystä	-2807
▁palat	-2808
▁yksin	-2809
▁kultaa	-2810
▁Israelia	-2811
▁leiriyty	-2812
▁taivaasta	-2813
kuoli	-2814
niistä	-2815
pelkää	-2816
kyl	-2817
Mene	-2818
enkä	-2819
staan	-2820
▁kaun	-2821
▁saas	-2822
▁kyllä	-2823
menivät	-2824
▁tulisi	-2825
▁tyttär	-2826
▁ruumiin	-2827
▁vastasivat	-2828
▁filistealaisten	-2829
lyö	-2830
tod	-2831
oksen	-2832
olleet	-2833
rs	-2834
halti	-2835
tuksi	-2836
tulla	-2837
päivää	-2838
usivat	-2839
▁paljo	-2840
▁Kuinka	-2841
▁edestä	-2842
▁joukko	-2843
▁kunnia	-2844
▁ihmisen	-2845
▁sinusta	-2846
▁älkääkä	-2847
jesi	-2848
otan	-2849
▁ilo	-2850
▁viis	-2851
▁Jooab	-2852
▁toista	-2853
lähtivät	-2854
▁Assurin	-2855
▁tietämään	-2856
ijy	-2857
meen	-2858
sian	-2859
väke	-2860
vusta	-2861
udella	-2862
jerusalemin	-2863
gal	-2864
▁Ih	-2865
eikö	-2866
elää	-2867
joos	-2868
eista	-2869
▁opet	-2870
▁keske	-2871
▁ruumi	-2872
▁silmi	-2873
▁uhraa	-2874
▁Samari	-2875
▁veljet	-2876
▁viiden	-2877
▁kauhistu	-2878
itu	-2879
vei	-2880
siun	-2881
asuk	-2882
kene	-2883
llys	-2884
estyi	-2885
kanta	-2886
▁viet	-2887
asettu	-2888
keensä	-2889
▁haure	-2890
▁suits	-2891
▁totta	-2892
essanne	-2893
hänellä	-2894
▁esipih	-2895
▁kirjan	-2896
▁olkoot	-2897
▁paimen	-2898
kuninkaalle	-2899
pid	-2900
pii	-2901
iltä	-2902
kats	-2903
main	-2904
valti	-2905
virsi	-2906
syntyi	-2907
vuoden	-2908
tehneet	-2909
kaupungit	-2910
▁liha	-2911
salomo	-2912
väisty	-2913
▁esiin	-2914
▁palvelijoi	-2915
keja	-2916
mpär	-2917
vesi	-2918
vuod	-2919
ihmis	-2920
meren	-2921
senne	-2922
teura	-2923
essäsi	-2924
onille	-2925
istanut	-2926
rofeetat	-2927
pime	-2928
▁haa	-2929
▁rat	-2930
Miksi	-2931
▁laki	-2932
▁lohd	-2933
▁pain	-2934
▁kestä	-2935
▁ylimmä	-2936
▁Pietari	-2937
▁evankeliu	-2938
▁perintöosa	-2939
▁kuningasten	-2940
kil	-2941
vil	-2942
johta	-2943
rakka	-2944
ehu	-2945
ike	-2946
osi	-2947
ettö	-2948
▁Maa	-2949
▁iku	-2950
isään	-2951
monsa	-2952
tässä	-2953
ydell	-2954
▁lepo	-2955
▁näet	-2956
▁tahi	-2957
saakka	-2958
uhreja	-2959
▁ranga	-2960
▁Paavali	-2961
▁päivään	-2962
▁Herralta	-2963
▁kaikessa	-2964
▁paikkaan	-2965
jälj	-2966
joukon	-2967
kätensä	-2968
uri	-2969
▁ve	-2970
elia	-2971
▁Noo	-2972
▁tot	-2973
▁äiti	-2974
kokoon	-2975
kunnes	-2976
▁pylvä	-2977
▁Absalo	-2978
▁kolmen	-2979
▁todistu	-2980
▁kolmekymmentä	-2981
▁israelilaisille	-2982
ju	-2983
mäni	-2984
puoli	-2985
isivät	-2986
tympäri	-2987
uttanut	-2988
▁F	-2989
▁Et	-2990
▁Ne	-2991
▁hy	-2992
▁od	-2993
jään	-2994
▁tei	-2995
tille	-2996
▁kahd	-2997
▁siir	-2998
▁sovi	-2999
▁vang	-3000
▁menee	-3001
▁mihin	-3002
▁muita	-3003
sanonut	-3004
▁veivät	-3005
alttarin	-3006
baabelin	-3007
lapsensa	-3008
▁ottanut	-3009
▁iankaikk	-3010
▁joukossa	-3011
kso	-3012
heen	-3013
yden	-3014
jassa	-3015
muuka	-3016
heistä	-3017
lasten	-3018
▁väh	-3019
▁Baab	-3020
▁papp	-3021
isimme	-3022
▁isäni	-3023
▁runsa	-3024
▁vihaa	-3025
keuteen	-3026
▁aikana	-3027
▁meillä	-3028
▁teuras	-3029
▁jotakin	-3030
▁poikani	-3031
▁tulette	-3032
▁ruhtinas	-3033
teko	-3034
musta	-3035
mana	-3036
ouse	-3037
vahv	-3038
▁kad	-3039
pitää	-3040
▁paha	-3041
▁kuulu	-3042
▁murhe	-3043
▁puhuu	-3044
itsensä	-3045
▁vaelta	-3046
▁Jerobea	-3047
▁äitinsä	-3048
ena	-3049
muus	-3050
nous	-3051
tuja	-3052
isesi	-3053
uteni	-3054
ihmisen	-3055
ettäköön	-3056
hda	-3057
▁kil	-3058
kansaa	-3059
pakana	-3060
vaatte	-3061
▁saada	-3062
▁miekan	-3063
kaikesta	-3064
▁Jeremia	-3065
▁Israelissa	-3066
hoa	-3067
ois	-3068
taas	-3069
tuon	-3070
uiden	-3071
vettä	-3072
par	-3073
heng	-3074
ikin	-3075
kaen	-3076
ytän	-3077
▁Kan	-3078
eseen	-3079
riemu	-3080
tonut	-3081
▁Eesa	-3082
▁kuun	-3083
▁tiet	-3084
joista	-3085
laista	-3086
▁Juuda	-3087
▁häpeä	-3088
▁pahan	-3089
▁perus	-3090
▁turva	-3091
▁tälle	-3092
kaikille	-3093
▁Mooabin	-3094
▁isiensä	-3095
▁nimensä	-3096
▁pakkosiirtola	-3097
of	-3098
kalli	-3099
oppin	-3100
En	-3101
Äl	-3102
vael	-3103
▁hel	-3104
▁roh	-3105
paran	-3106
▁oven	-3107
▁saar	-3108
meidät	-3109
▁Poika	-3110
▁sanot	-3111
▁seiso	-3112
▁sisar	-3113
▁veren	-3114
▁nousee	-3115
▁tunnus	-3116
keskellä	-3117
▁hopeata	-3118
▁sisälle	-3119
hti	-3120
ilo	-3121
kah	-3122
sän	-3123
ulu	-3124
linn	-3125
täkää	-3126
vonsa	-3127
sieltä	-3128
isuuteen	-3129
Tul	-3130
`."	-3131
lam	-3132
▁Ni	-3133
▁av	-3134
kerta	-3135
▁kävi	-3136
jumali	-3137
▁rikka	-3138
▁siuna	-3139
keskuud	-3140
▁ettekä	-3141
▁lapsia	-3142
kansojen	-3143
▁jumalan	-3144
▁nimeltä	-3145
▁tekevät	-3146
▁Gileadin	-3147
▁Niinkuin	-3148
▁Egyptistä	-3149
kuk	-3150
mun	-3151
vie	-3152
kein	-3153
otin	-3154
hot	-3155
uuto	-3156
▁Lee	-3157
▁kah	-3158
sesta	-3159
tette	-3160
▁koet	-3161
▁ryös	-3162
▁tapa	-3163
istiin	-3164
isäksi	-3165
mittaa	-3166
syntiä	-3167
▁Koska	-3168
▁sanoa	-3169
▁valke	-3170
televat	-3171
▁opetta	-3172
▁pakeni	-3173
▁poikia	-3174
▁saatte	-3175
▁toivat	-3176
▁nähneet	-3177
▁sydämen	-3178
yyt	-3179
efra	-3180
ältä	-3181
öitä	-3182
lampa	-3183
perhe	-3184
kunnat	-3185
portin	-3186
vaat	-3187
▁pap	-3188
kammi	-3189
käski	-3190
▁eräs	-3191
▁luku	-3192
▁polv	-3193
▁soti	-3194
llalla	-3195
valtaa	-3196
▁isäsi	-3197
▁tunne	-3198
▁väkevä	-3199
▁auringon	-3200
▁kaikkina	-3201
▁päämiehet	-3202
hoo	-3203
hun	-3204
ikon	-3205
mpaat	-3206
ronin	-3207
enkeli	-3208
ainoastaan	-3209
jerusalemiin	-3210
▁Us	-3211
Tämä	-3212
▁Aha	-3213
▁sat	-3214
▁yhä	-3215
eilla	-3216
▁Myös	-3217
▁astui	-3218
▁Samuel	-3219
▁poikaa	-3220
▁valmis	-3221
▁asuivat	-3222
▁puolelle	-3223
▁kaupungit	-3224
▁temppelissä	-3225
▁laidunmaineen	-3226
nis	-3227
kuitenkin	-3228
ilä	-3229
eser	-3230
kivi	-3231
llan	-3232
yhtä	-3233
▁puu	-3234
eiksi	-3235
llani	-3236
masti	-3237
▁isän	-3238
▁hyvän	-3239
hänestä	-3240
käsivät	-3241
ukanaan	-3242
▁farise	-3243
▁siemen	-3244
▁vuodat	-3245
▁kuulivat	-3246
▁maailman	-3247
▁totisesti	-3248
lun	-3249
uule	-3250
ylen	-3251
heimo	-3252
jalla	-3253
estäsi	-3254
Se	-3255
▁Je	-3256
isän	-3257
▁Hoo	-3258
▁syy	-3259
sanat	-3260
tiedä	-3261
▁kulj	-3262
▁laak	-3263
▁vala	-3264
▁ikinä	-3265
▁pakan	-3266
onnetto	-3267
▁kerran	-3268
▁viiniä	-3269
kunnassa	-3270
▁lähimmä	-3271
▁rukoile	-3272
▁Efraimin	-3273
▁vaimonsa	-3274
▁kuninkaat	-3275
len	-3276
lupa	-3277
lähd	-3278
ttar	-3279
uttu	-3280
utui	-3281
hyvin	-3282
mättö	-3283
koivat	-3284
jälkeläisiä	-3285
israelilaisten	-3286
vis	-3287
yttö	-3288
▁ara	-3289
▁kel	-3290
▁Henki	-3291
▁aivan	-3292
▁panen	-3293
▁vapaa	-3294
myöskin	-3295
▁pakoon	-3296
▁hänessä	-3297
▁kulkivat	-3298
▁synnytti	-3299
▁itsellesi	-3300
▁opetuslapsi	-3301
hyö	-3302
sor	-3303
tämään	-3304
nne	-3305
ytä	-3306
orin	-3307
▁aar	-3308
▁eks	-3309
aurin	-3310
oinen	-3311
usten	-3312
▁asuu	-3313
▁leve	-3314
▁saal	-3315
häneen	-3316
▁iloit	-3317
▁näitä	-3318
▁turmi	-3319
telemaan	-3320
▁hyväksi	-3321
▁rukoili	-3322
▁sinulta	-3323
ner	-3324
puhd	-3325
sitte	-3326
Me	-3327
itsa	-3328
raan	-3329
▁Lib	-3330
▁hur	-3331
▁jon	-3332
▁syv	-3333
enkää	-3334
josta	-3335
▁alle	-3336
▁arvo	-3337
joosua	-3338
▁arkin	-3339
▁pitkä	-3340
▁asuvat	-3341
▁kertaa	-3342
▁seisoi	-3343
▁suuret	-3344
▁tahdon	-3345
▁kuollut	-3346
▁puoleen	-3347
▁oikeuden	-3348
▁tapahtui	-3349
▁kuoliaaksi	-3350
▁vaatteensa	-3351
▁juutalaiset	-3352
▁sukukunnasta	-3353
pua	-3354
ajat	-3355
säni	-3356
ytyi	-3357
etaan	-3358
isena	-3359
yöstä	-3360
llisia	-3361
ellänsä	-3362
pelastu	-3363
kansalle	-3364
kaksikymmentä	-3365
itti	-3366
käär	-3367
kauan	-3368
teita	-3369
tujen	-3370
▁elin	-3371
▁vali	-3372
leipää	-3373
▁luota	-3374
▁toivo	-3375
▁vanhe	-3376
häneltä	-3377
▁edellä	-3378
▁laakso	-3379
▁oikein	-3380
▁jumalia	-3381
▁lähellä	-3382
päämiehet	-3383
▁Aabraham	-3384
▁Kuningas	-3385
▁oikeutta	-3386
▁pelastaa	-3387
▁tekemään	-3388
▁vanhimmat	-3389
▁sanansaatta	-3390
▁palvelijansa	-3391
nuor	-3392
päätä	-3393
jerusalemissa	-3394
▁Pa	-3395
doka	-3396
jeni	-3397
laan	-3398
öksi	-3399
▁sau	-3400
eissa	-3401
estani	-3402
seuraa	-3403
uksesi	-3404
▁armon	-3405
▁istui	-3406
▁papin	-3407
▁virsi	-3408
▁yöllä	-3409
rikukku	-3410
▁kätesi	-3411
▁noudat	-3412
▁tiedän	-3413
▁toiset	-3414
▁tuomit	-3415
käskenyt	-3416
▁Nebukad	-3417
▁häpeään	-3418
▁lähetän	-3419
ennenkuin	-3420
päällikkö	-3421
▁kuoleman	-3422
kaupunkiin	-3423
▁kaikkiaan	-3424
▁`,	-3425
arvo	-3426
onko	-3427
nähdä	-3428
suuren	-3429
täköön	-3430
jaakobin	-3431
eef	-3432
mik	-3433
iisa	-3434
▁les	-3435
kärsi	-3436
stasi	-3437
▁Juma	-3438
▁koho	-3439
▁veis	-3440
vaimon	-3441
▁pella	-3442
▁miekka	-3443
▁palasi	-3444
▁yhteys	-3445
▁Joosefin	-3446
▁annetaan	-3447
▁Jumalansa	-3448
▁tapahtunut	-3449
▁valtakunta	-3450
ban	-3451
kkää	-3452
utaa	-3453
tetään	-3454
alveksi	-3455
▁Na	-3456
eesa	-3457
nimi	-3458
▁Soo	-3459
▁län	-3460
▁ras	-3461
hyvää	-3462
▁ajoi	-3463
▁orja	-3464
▁perä	-3465
▁pään	-3466
▁teit	-3467
▁Siion	-3468
▁levit	-3469
▁lihan	-3470
uutensa	-3471
▁Hiskia	-3472
▁Joosaf	-3473
▁täällä	-3474
▁Ihmisen	-3475
▁asettui	-3476
▁kansasi	-3477
▁nuoruka	-3478
▁pyhäkkö	-3479
▁uhrilah	-3480
▁välillä	-3481
▁keskuudessa	-3482
sääd	-3483
silmä	-3484
teillä	-3485
toni	-3486
▁Edo	-3487
▁Kaa	-3488
▁Tul	-3489
etten	-3490
uhoja	-3491
▁Pyhä	-3492
▁jalo	-3493
teistä	-3494
▁palja	-3495
▁raava	-3496
▁rauha	-3497
▁tahdo	-3498
▁vähän	-3499
▁jolloin	-3500
▁Aabrahamin	-3501
▁kaupungissa	-3502
▁filistealaiset	-3503
emi	-3504
ölj	-3505
▁",	-3506
kkia	-3507
veis	-3508
ittää	-3509
ettilä	-3510
kahden	-3511
kirkka	-3512
uf	-3513
ain	-3514
Niin	-3515
ehab	-3516
vala	-3517
▁vel	-3518
miehe	-3519
simme	-3520
uskon	-3521
▁kerr	-3522
▁pidä	-3523
▁amori	-3524
▁kenen	-3525
▁määrä	-3526
▁salli	-3527
▁toisi	-3528
▁valit	-3529
▁jumali	-3530
▁portti	-3531
kyynärää	-3532
▁huoneen	-3533
▁poikasi	-3534
▁erämaahan	-3535
▁Kristuksessa	-3536
nän	-3537
sal	-3538
stu	-3539
kkiä	-3540
karja	-3541
kitse	-3542
goista	-3543
mmalla	-3544
kansani	-3545
tekivät	-3546
telivat	-3547
ukseksi	-3548
kaikista	-3549
milaiset	-3550
udattiin	-3551
uttamaan	-3552
benjamini	-3553
kahdeksan	-3554
oitettiin	-3555
▁Ko	-3556
▁ir	-3557
seet	-3558
totu	-3559
▁Kar	-3560
▁tel	-3561
▁äid	-3562
tulen	-3563
▁asua	-3564
▁juuri	-3565
▁laske	-3566
▁puhun	-3567
▁tuhat	-3568
▁tuhon	-3569
▁vaiva	-3570
▁muista	-3571
▁päivät	-3572
▁tahtoo	-3573
▁vastaa	-3574
▁miesten	-3575
▁paikassa	-3576
▁sijaansa	-3577
▁kanssanne	-3578
▁kuukauden	-3579
▁itsellensä	-3580
pään	-3581
istaan	-3582
istuimen	-3583
ksu	-3584
▁nu	-3585
muud	-3586
naul	-3587
puun	-3588
soja	-3589
visi	-3590
▁Her	-3591
▁löy	-3592
▁tus	-3593
ikuna	-3594
menna	-3595
reksi	-3596
sänsä	-3597
▁kuiv	-3598
▁köyh	-3599
▁elämä	-3600
▁näkee	-3601
eitsemä	-3602
ihminen	-3603
kohtaan	-3604
kuntien	-3605
miseksi	-3606
▁sisään	-3607
▁tekoja	-3608
▁ylistä	-3609
rjantapp	-3610
▁rakenta	-3611
▁rakastaa	-3612
▁yhdeksän	-3613
▁päällikkö	-3614
dad	-3615
koin	-3616
kohta	-3617
yhden	-3618
aikaan	-3619
ad	-3620
kke	-3621
nat	-3622
opi	-3623
▁at	-3624
esin	-3625
pien	-3626
▁Heb	-3627
jille	-3628
varus	-3629
▁Eikä	-3630
▁Gibe	-3631
käsiin	-3632
toiset	-3633
uulkaa	-3634
▁juoda	-3635
▁karja	-3636
▁sielu	-3637
▁vedet	-3638
tulleet	-3639
▁heiltä	-3640
▁kuolle	-3641
lliseksi	-3642
veljensä	-3643
▁kumarta	-3644
▁Herrassa	-3645
▁Manassen	-3646
▁palvelijat	-3647
alu	-3648
kele	-3649
onta	-3650
vehd	-3651
ässä	-3652
agoog	-3653
voima	-3654
ykset	-3655
niille	-3656
virran	-3657
todista	-3658
uunjohta	-3659
jumalamme	-3660
uunjohtajalle	-3661
nuh	-3662
oina	-3663
kuuka	-3664
tetta	-3665
▁tava	-3666
▁tuom	-3667
▁varj	-3668
▁vien	-3669
▁huuta	-3670
▁kulke	-3671
▁lihaa	-3672
▁monet	-3673
▁sadan	-3674
ottakaa	-3675
▁Salomon	-3676
kanssansa	-3677
▁sydämeni	-3678
▁Israelille	-3679
▁kaupungista	-3680
koo	-3681
elek	-3682
saal	-3683
issaan	-3684
kiinni	-3685
kirjan	-3686
tietää	-3687
anteeksi	-3688
An	-3689
hku	-3690
son	-3691
mmäs	-3692
osan	-3693
pana	-3694
ukka	-3695
▁myö	-3696
eeksi	-3697
hjoja	-3698
kohti	-3699
matka	-3700
▁haud	-3701
ksesta	-3702
miseen	-3703
neksen	-3704
uttava	-3705
▁apost	-3706
▁ettet	-3707
▁huone	-3708
▁ikään	-3709
▁juhla	-3710
▁pasun	-3711
▁ranka	-3712
▁viime	-3713
▁öljyä	-3714
istänsä	-3715
itsevat	-3716
▁poltta	-3717
▁saivat	-3718
▁sanoja	-3719
sukukunn	-3720
▁ahdistu	-3721
▁antoivat	-3722
▁sukupolv	-3723
▁saastainen	-3724
nu	-3725
mor	-3726
kark	-3727
laus	-3728
rven	-3729
tina	-3730
sista	-3731
vanha	-3732
saavat	-3733
istettu	-3734
fta	-3735
rea	-3736
uhu	-3737
yks	-3738
▁Ku	-3739
amas	-3740
lehe	-3741
▁Asa	-3742
▁jäi	-3743
▁set	-3744
▁uud	-3745
▁Aasa	-3746
▁astu	-3747
▁huud	-3748
▁piir	-3749
▁puut	-3750
▁tuul	-3751
joilla	-3752
peljät	-3753
▁etelä	-3754
▁etten	-3755
▁luona	-3756
▁miksi	-3757
▁puhta	-3758
▁sanaa	-3759
▁vaski	-3760
▁Heidän	-3761
▁hyljän	-3762
▁näiden	-3763
▁omaksi	-3764
▁paikka	-3765
▁lähtenyt	-3766
▁asumuksen	-3767
▁ruhtinaat	-3768
▁ilmestysmajan	-3769
▁vanhurskauden	-3770
kik	-3771
aamu	-3772
etyt	-3773
noud	-3774
isäni	-3775
kimpp	-3776
asetti	-3777
kolman	-3778
minusta	-3779
misensa	-3780
hurskaan	-3781
istiinnaul	-3782
ji	-3783
hää	-3784
▁La	-3785
auti	-3786
daan	-3787
▁Jis	-3788
▁Van	-3789
ettel	-3790
kenut	-3791
milla	-3792
▁säil	-3793
▁taid	-3794
▁tart	-3795
muutta	-3796
▁ilman	-3797
▁joutuu	-3798
▁mennyt	-3799
▁rupesi	-3800
▁Egyptiin	-3801
▁Kanaanin	-3802
▁menemään	-3803
▁seurakunnan	-3804
▁juutalaisten	-3805
▁kirjoitettuna	-3806
pes	-3807
sir	-3808
▁.`	-3809
nime	-3810
kojen	-3811
petti	-3812
ssasi	-3813
mmalle	-3814
palvelijasi	-3815
llu	-3816
Kuka	-3817
häpe	-3818
inkä	-3819
llin	-3820
▁huk	-3821
▁kei	-3822
kestä	-3823
kiiva	-3824
▁Dani	-3825
▁paas	-3826
▁tote	-3827
ehabea	-3828
ellesi	-3829
koihin	-3830
ynärän	-3831
▁Tämän	-3832
▁pääse	-3833
▁vaell	-3834
ittäkää	-3835
kuntaan	-3836
▁käteni	-3837
▁portin	-3838
▁pääsiä	-3839
▁seassa	-3840
itsemaan	-3841
kunnalle	-3842
laisista	-3843
▁iloitse	-3844
▁käsistä	-3845
▁pellava	-3846
▁päällik	-3847
▁kuluttua	-3848
▁vuoristo	-3849
▁Totisesti	-3850
▁asettuivat	-3851
▁kaksisataa	-3852
▁kuitenkaan	-3853
not	-3854
väis	-3855
yhte	-3856
etteli	-3857
saanut	-3858
kaikkea	-3859
istakoon	-3860
kanssasi	-3861
kymmenentenä	-3862
nos	-3863
pyy	-3864
▁kr	-3865
▁orj	-3866
aaron	-3867
kyllä	-3868
▁suvu	-3869
tuleva	-3870
▁ennus	-3871
▁pahat	-3872
▁poiki	-3873
päällik	-3874
▁pannut	-3875
▁päähän	-3876
▁saatan	-3877
▁silmät	-3878
▁kaikissa	-3879
▁muutamat	-3880
▁suurella	-3881
▁vuorelle	-3882
▁itselleen	-3883
näl	-3884
etin	-3885
ikku	-3886
kona	-3887
male	-3888
neen	-3889
näky	-3890
udet	-3891
hetta	-3892
manas	-3893
punut	-3894
aikana	-3895
laakso	-3896
rvitse	-3897
yhdessä	-3898
hdessään	-3899
Kun	-3900
his	-3901
opp	-3902
pääs	-3903
▁Ele	-3904
▁kot	-3905
▁päi	-3906
pysyy	-3907
joiden	-3908
▁Elisa	-3909
▁farao	-3910
▁synty	-3911
herrani	-3912
▁leirin	-3913
▁niillä	-3914
▁suuria	-3915
ihmisten	-3916
▁ennusta	-3917
▁hedelmä	-3918
▁panivat	-3919
▁rakensi	-3920
▁vuotena	-3921
kaupunkia	-3922
▁edessäsi	-3923
▁nousivat	-3924
▁silmänsä	-3925
▁palvelijani	-3926
▁leiriytyivät	-3927
abi	-3928
oman	-3929
pysy	-3930
rina	-3931
tuva	-3932
llasi	-3933
minulla	-3934
taistel	-3935
kirjassa	-3936
Jo	-3937
sata	-3938
uhra	-3939
yhky	-3940
▁Kir	-3941
▁paa	-3942
istuu	-3943
konut	-3944
sasta	-3945
ufrat	-3946
utaan	-3947
▁Sela	-3948
tekoja	-3949
▁juoma	-3950
▁tehty	-3951
▁vanno	-3952
▁veden	-3953
oilleen	-3954
▁hylkää	-3955
▁kieltä	-3956
▁nainen	-3957
▁peljäs	-3958
▁sotaan	-3959
▁ylitse	-3960
▁etsivät	-3961
▁pilkkaa	-3962
▁saaneet	-3963
▁kaikelle	-3964
▁temppeli	-3965
▁ikäänkuin	-3966
kaksitoista	-3967
uraa	-3968
väen	-3969
kulki	-3970
tunte	-3971
katsel	-3972
viholl	-3973
▁in	-3974
arma	-3975
ksan	-3976
kalle	-3977
syödä	-3978
uista	-3979
▁asui	-3980
▁lait	-3981
▁nöyr	-3982
hengen	-3983
lapsia	-3984
täynnä	-3985
▁metsä	-3986
▁puhua	-3987
▁tahto	-3988
▁Eleasa	-3989
▁kuulee	-3990
▁poikki	-3991
▁vuoren	-3992
▁Älköön	-3993
silmissä	-3994
▁syntynyt	-3995
kuningasta	-3996
▁Benjaminin	-3997
▁hallitusvuotena	-3998
vyö	-3999
pane	-4000
saar	-4001
sesi	-4002
johon	-4003
jänsä	-4004
keliä	-4005
tissä	-4006
isensa	-4007
stänsä	-4008
aaronin	-4009
jälleen	-4010
ottavaa	-4011
ätoista	-4012
puolesta	-4013
ilmestysma	-4014
neb	-4015
▁ur	-4016
baab	-4017
huud	-4018
johd	-4019
▁koi	-4020
▁kys	-4021
▁Veis	-4022
▁huul	-4023
▁kann	-4024
▁kier	-4025
▁port	-4026
ketään	-4027
määrän	-4028
▁lunas	-4029
▁menen	-4030
▁tappa	-4031
▁tuhan	-4032
▁tulet	-4033
▁työtä	-4034
enemmän	-4035
ottavat	-4036
päivinä	-4037
skaaksi	-4038
▁Hengen	-4039
▁tehkää	-4040
▁tieltä	-4041
▁täytyy	-4042
▁annettu	-4043
▁päällys	-4044
▁tulessa	-4045
▁miehelle	-4046
▁älköönkä	-4047
▁jälkeensä	-4048
▁profeetat	-4049
ide	-4050
elan	-4051
kari	-4052
aikaa	-4053
omaan	-4054
puolen	-4055
jumalia	-4056
profeet	-4057
ympärilei	-4058
Ih	-4059
On	-4060
Hän	-4061
kis	-4062
▁Ta	-4063
ynni	-4064
ypäl	-4065
janne	-4066
kosta	-4067
▁ajan	-4068
▁juur	-4069
▁vase	-4070
essani	-4071
kesken	-4072
llasta	-4073
mmaksi	-4074
▁hopea	-4075
estänsä	-4076
▁hankki	-4077
▁hengen	-4078
▁kaldea	-4079
▁lähtee	-4080
▁surmaa	-4081
▁taloon	-4082
▁yhteen	-4083
jordanin	-4084
▁sanotte	-4085
oittaneet	-4086
▁huusivat	-4087
▁jokaisen	-4088
▁jäljelle	-4089
▁puhdista	-4090
lähettänyt	-4091
▁kolmantena	-4092
edo	-4093
epä	-4094
ahas	-4095
etkä	-4096
hota	-4097
kutsu	-4098
mennä	-4099
pohjo	-4100
kutsui	-4101
poikani	-4102
uttavat	-4103
ser	-4104
ruko	-4105
ttia	-4106
▁Koo	-4107
▁eli	-4108
▁muo	-4109
▁siv	-4110
johan	-4111
saira	-4112
sapat	-4113
▁Ahas	-4114
▁kaur	-4115
▁käär	-4116
▁pita	-4117
▁terv	-4118
kappal	-4119
▁Vielä	-4120
▁aasin	-4121
▁lakia	-4122
▁nosta	-4123
▁puuta	-4124
▁rauni	-4125
▁ympär	-4126
isuuden	-4127
▁minuun	-4128
▁vaivaa	-4129
asukkaat	-4130
ruhtinas	-4131
▁asumaan	-4132
▁kanaani	-4133
▁laskeut	-4134
▁täydell	-4135
▁noudatta	-4136
▁Jerusalemista	-4137
pei	-4138
ajan	-4139
utua	-4140
vapa	-4141
voni	-4142
aalle	-4143
kinsa	-4144
lasta	-4145
nimen	-4146
valin	-4147
äläkä	-4148
lähten	-4149
muista	-4150
ttakaa	-4151
udeksi	-4152
kuullut	-4153
yttävät	-4154
erämaassa	-4155
jumalalle	-4156
näke	-4157
▁sii	-4158
telin	-4159
llekin	-4160
sanoin	-4161
saulin	-4162
▁Eivät	-4163
▁jalka	-4164
▁saman	-4165
▁viini	-4166
sinulla	-4167
▁kuussa	-4168
▁sijaan	-4169
▁sotava	-4170
▁söivät	-4171
kaupunki	-4172
▁kuninka	-4173
▁minäkin	-4174
▁tehtävä	-4175
luoksensa	-4176
▁kotiinsa	-4177
▁luokseni	-4178
▁valmista	-4179
▁yltympäri	-4180
jälkeläiset	-4181
▁katselmuksessa	-4182
kyt	-4183
attu	-4184
hdet	-4185
puut	-4186
kkasi	-4187
nettu	-4188
rakas	-4189
ssään	-4190
sydän	-4191
tetut	-4192
tästä	-4193
vuoti	-4194
itetty	-4195
nähnyt	-4196
poikaa	-4197
gi	-4198
▁u	-4199
iku	-4200
kän	-4201
odo	-4202
hetä	-4203
miek	-4204
utuu	-4205
vann	-4206
▁Gal	-4207
▁löi	-4208
▁näe	-4209
▁oto	-4210
▁tie	-4211
▁vää	-4212
Minun	-4213
istys	-4214
ransa	-4215
ssani	-4216
ttava	-4217
▁piti	-4218
▁pitu	-4219
niihin	-4220
▁Liban	-4221
▁Miika	-4222
▁asuin	-4223
▁katoa	-4224
▁kerub	-4225
▁kovin	-4226
▁omaan	-4227
▁pyhät	-4228
▁vitsa	-4229
▁vuote	-4230
estansa	-4231
▁heimon	-4232
▁kuolee	-4233
▁paitsi	-4234
paikkaan	-4235
▁enkelin	-4236
▁olemaan	-4237
▁pojalle	-4238
▁tulkoon	-4239
▁veljesi	-4240
jumalanne	-4241
kkaamatto	-4242
▁edessäni	-4243
▁rauhassa	-4244
▁toiselle	-4245
▁seurakunta	-4246
▁taisteluun	-4247
heb	-4248
jata	-4249
esiko	-4250
kysyi	-4251
vihan	-4252
toimitta	-4253
sö	-4254
ydy	-4255
▁vap	-4256
laisi	-4257
▁hevo	-4258
▁neit	-4259
▁noin	-4260
▁pell	-4261
▁raja	-4262
▁sarv	-4263
▁valo	-4264
Kuinka	-4265
▁joutu	-4266
kuulkaa	-4267
tykönsä	-4268
▁annoin	-4269
▁lasten	-4270
▁sinuun	-4271
miehille	-4272
▁Siionin	-4273
▁menesty	-4274
▁milloin	-4275
▁parempi	-4276
mooseksen	-4277
▁joutuvat	-4278
liikkeelle	-4279
temppeliin	-4280
hel	-4281
ttä	-4282
etön	-4283
kivät	-4284
mässä	-4285
oilta	-4286
oitus	-4287
palat	-4288
istasi	-4289
tukset	-4290
teisiin	-4291
ppamatto	-4292
viinitar	-4293
punaisista	-4294
muo	-4295
▁pö	-4296
liha	-4297
viis	-4298
▁Ben	-4299
▁Sid	-4300
▁mit	-4301
arkin	-4302
iseni	-4303
lassa	-4304
▁Abim	-4305
▁Baas	-4306
▁asun	-4307
▁omaa	-4308
▁tuho	-4309
neljän	-4310
pyhäkö	-4311
▁lampp	-4312
▁Siihen	-4313
▁alkaen	-4314
miehensä	-4315
▁kaukana	-4316
▁käsivar	-4317
▁vanhurskas	-4318
aha	-4319
här	-4320
etsi	-4321
pylvä	-4322
ellään	-4323
opetta	-4324
ruokauh	-4325
kuulleet	-4326
ste	-4327
keaa	-4328
koit	-4329
mpia	-4330
osaa	-4331
ulle	-4332
▁Gaa	-4333
▁Tee	-4334
▁ryh	-4335
keltä	-4336
kinen	-4337
korke	-4338
nessä	-4339
rikko	-4340
tykää	-4341
utuas	-4342
estyjä	-4343
faraon	-4344
heillä	-4345
kasvoi	-4346
olevan	-4347
▁arkki	-4348
▁käydä	-4349
▁menet	-4350
▁äänen	-4351
▁Galile	-4352
▁lisään	-4353
hallitus	-4354
▁ettette	-4355
▁koskaan	-4356
▁temppel	-4357
▁uskotto	-4358
▁miekalla	-4359
▁valinnut	-4360
daavidille	-4361
tenätoista	-4362
▁vääryyttä	-4363
▁ympärillä	-4364
leeviläiset	-4365
▁alttarilla	-4366
▁perhekunta	-4367
▁jälkeläisten	-4368
keh	-4369
kaiv	-4370
kiro	-4371
utus	-4372
mihin	-4373
monta	-4374
neuvo	-4375
puuta	-4376
tyisi	-4377
kotiin	-4378
palvele	-4379
pelasta	-4380
jumalani	-4381
kirjoitettu	-4382
▁tor	-4383
▁use	-4384
▁ylä	-4385
Nouse	-4386
sadan	-4387
silla	-4388
Älkää	-4389
▁jätä	-4390
▁kuol	-4391
▁tehd	-4392
▁vied	-4393
▁ensin	-4394
▁olkaa	-4395
▁perin	-4396
▁uhrat	-4397
▁syövät	-4398
▁ottamaan	-4399
▁puolelta	-4400
fin	-4401
isu	-4402
kut	-4403
beni	-4404
imei	-4405
itoa	-4406
jäin	-4407
kkin	-4408
mita	-4409
uran	-4410
ellut	-4411
herät	-4412
keita	-4413
lauma	-4414
mpaan	-4415
mätön	-4416
määrä	-4417
nosta	-4418
tenne	-4419
votto	-4420
eitsen	-4421
elleet	-4422
itseva	-4423
nessar	-4424
ssansa	-4425
ydessä	-4426
kristus	-4427
päivään	-4428
ttiiksi	-4429
ukkuvat	-4430
ukselle	-4431
oppineet	-4432
jumalansa	-4433
";	-4434
bal	-4435
hka	-4436
▁raa	-4437
isuus	-4438
isäsi	-4439
kumar	-4440
laupe	-4441
malle	-4442
oniin	-4443
uhrit	-4444
▁olko	-4445
▁suun	-4446
▁turh	-4447
korkea	-4448
▁Bilea	-4449
▁leipä	-4450
isuutta	-4451
▁kutsut	-4452
▁niissä	-4453
▁nimeni	-4454
▁surmat	-4455
▁vaivan	-4456
▁antakaa	-4457
▁eteensä	-4458
▁veljeni	-4459
▁Herramme	-4460
▁ilmoitta	-4461
▁luvannut	-4462
▁mukanaan	-4463
▁voimalla	-4464
▁asettanut	-4465
▁kanssamme	-4466
ase	-4467
elu	-4468
▁?`	-4469
etun	-4470
pain	-4471
veli	-4472
ammoni	-4473
osansa	-4474
puusta	-4475
älkääkä	-4476
sydämensä	-4477
vartijain	-4478
palvelijat	-4479
ipy	-4480
sas	-4481
syy	-4482
iruu	-4483
maja	-4484
teni	-4485
▁Hes	-4486
▁Mer	-4487
▁Mes	-4488
▁Mor	-4489
▁Suu	-4490
ilipp	-4491
latus	-4492
▁rien	-4493
▁tomu	-4494
▁vetä	-4495
Menkää	-4496
inensa	-4497
olkoot	-4498
teetto	-4499
ymmärr	-4500
▁kammi	-4501
▁mitta	-4502
▁nimeä	-4503
▁pidät	-4504
atakaan	-4505
istensa	-4506
istivat	-4507
▁käynyt	-4508
▁puhdas	-4509
▁rauhan	-4510
▁tappaa	-4511
egyptilä	-4512
▁eläimet	-4513
▁lähettä	-4514
▁miekkaan	-4515
▁päivästä	-4516
▁suurempi	-4517
▁suuresti	-4518
▁Aaronille	-4519
▁sovituksen	-4520
viisikymmentä	-4521
laki	-4522
luku	-4523
tahi	-4524
eihin	-4525
puole	-4526
velji	-4527
kuulla	-4528
paikka	-4529
sieluni	-4530
uttakaa	-4531
kimppuun	-4532
ov	-4533
▁i	-4534
pus	-4535
▁iä	-4536
▁Mis	-4537
huusi	-4538
▁ilma	-4539
viiden	-4540
▁nälkä	-4541
▁puoli	-4542
▁ratsu	-4543
▁talon	-4544
▁vihan	-4545
▁ääntä	-4546
▁nimesi	-4547
▁päänsä	-4548
▁Herraan	-4549
▁silmäsi	-4550
▁tavalla	-4551
▁tapahtuu	-4552
▁vastusta	-4553
▁yksikään	-4554
▁ymmärtävä	-4555
▁lähettivät	-4556
▁seitsemäntenä	-4557
des	-4558
fan	-4559
jäni	-4560
muna	-4561
rkky	-4562
tuun	-4563
ulko	-4564
usen	-4565
vaik	-4566
vani	-4567
detta	-4568
hanan	-4569
ilgal	-4570
kenen	-4571
rassa	-4572
tojen	-4573
etuksi	-4574
isevat	-4575
onissa	-4576
puivat	-4577
siemen	-4578
yyteen	-4579
iruusti	-4580
istetty	-4581
minulta	-4582
hallitsi	-4583
molemmat	-4584
palvelijoi	-4585
valtaistuim	-4586
neljäkymmentä	-4587
pät	-4588
hajo	-4589
kaun	-4590
olit	-4591
poja	-4592
▁ell	-4593
▁rut	-4594
▁ven	-4595
oiden	-4596
▁harj	-4597
▁heti	-4598
▁juon	-4599
▁lopp	-4600
▁muka	-4601
▁osan	-4602
▁pauh	-4603
▁sivu	-4604
▁sulo	-4605
▁teot	-4606
▁ääni	-4607
ylistä	-4608
▁kukku	-4609
▁laitu	-4610
▁rauta	-4611
▁kohtaa	-4612
▁metsän	-4613
▁poltti	-4614
▁teette	-4615
▁voinut	-4616
vaimonsa	-4617
▁aamulla	-4618
▁lisäksi	-4619
▁surmasi	-4620
▁tahansa	-4621
▁varhain	-4622
▁vihansa	-4623
Totisesti	-4624
taivaasta	-4625
▁jäljellä	-4626
▁olisivat	-4627
▁ottaneet	-4628
▁päällensä	-4629
▁palvelemaan	-4630
vö	-4631
dab	-4632
väh	-4633
inne	-4634
jalka	-4635
pyhän	-4636
vistä	-4637
ikseen	-4638
menkää	-4639
paimen	-4640
tyttär	-4641
eläimet	-4642
etteivät	-4643
joonatan	-4644
ottakoon	-4645
vy	-4646
dot	-4647
kkä	-4648
tis	-4649
mani	-4650
rsky	-4651
▁Ken	-4652
▁Per	-4653
▁avi	-4654
▁kyn	-4655
ebusi	-4656
etelä	-4657
rissä	-4658
suits	-4659
surma	-4660
uhraa	-4661
▁Anna	-4662
▁Elia	-4663
▁Heng	-4664
▁Sano	-4665
▁eikö	-4666
▁kaat	-4667
▁läpi	-4668
▁omat	-4669
▁onko	-4670
▁pien	-4671
▁vähä	-4672
elakan	-4673
kultaa	-4674
kunnia	-4675
llikka	-4676
llänne	-4677
mpastu	-4678
ytänyt	-4679
▁nosti	-4680
▁tiesi	-4681
▁tuoma	-4682
misesta	-4683
sanovat	-4684
▁Efraim	-4685
▁jonkun	-4686
▁meistä	-4687
▁tyköni	-4688
▁Mordoka	-4689
▁ihmisiä	-4690
▁kuolema	-4691
▁näkevät	-4692
▁vaeltaa	-4693
▁autioksi	-4694
▁oikealle	-4695
▁ottakoon	-4696
▁puhuivat	-4697
▁Jerusalem	-4698
▁Jumalalta	-4699
▁annettiin	-4700
▁kauhistus	-4701
▁Jeesuksessa	-4702
▁ensimmäisenä	-4703
▁polttouhriksi	-4704
ehd	-4705
rot	-4706
tor	-4707
uku	-4708
aadi	-4709
kelle	-4710
rinsä	-4711
kkaani	-4712
veljet	-4713
ihmiset	-4714
ruhtinaat	-4715
bb	-4716
kii	-4717
soo	-4718
lkaa	-4719
perä	-4720
tiet	-4721
▁Loo	-4722
▁hoi	-4723
Ihmis	-4724
ksiin	-4725
mällä	-4726
paljo	-4727
yksin	-4728
▁Hasa	-4729
▁Laab	-4730
▁anti	-4731
▁mole	-4732
▁riko	-4733
edestä	-4734
kuussa	-4735
meillä	-4736
▁Damas	-4737
▁itään	-4738
▁lähde	-4739
▁setri	-4740
▁tekin	-4741
▁vaunu	-4742
sinusta	-4743
▁johdat	-4744
▁leivän	-4745
▁sekaan	-4746
▁uhreja	-4747
kanssani	-4748
pakanain	-4749
▁alttari	-4750
▁armonsa	-4751
▁silmäni	-4752
▁Johannes	-4753
▁halveksi	-4754
▁henkensä	-4755
▁tyttären	-4756
Ihmislapsi	-4757
▁kuusisataa	-4758
uan	-4759
isla	-4760
keat	-4761
kinä	-4762
kuma	-4763
papp	-4764
saas	-4765
eelle	-4766
jooja	-4767
puita	-4768
totta	-4769
elivat	-4770
isensä	-4771
näkivät	-4772
ettäväksi	-4773
Te	-4774
uto	-4775
tkaa	-4776
vihaa	-4777
villa	-4778
▁horj	-4779
▁sama	-4780
▁terä	-4781
ttanut	-4782
▁henke	-4783
▁hevos	-4784
▁istut	-4785
▁makaa	-4786
▁vahin	-4787
▁vuori	-4788
▁isämme	-4789
▁naisen	-4790
▁näistä	-4791
▁sanani	-4792
▁täyttä	-4793
israelia	-4794
leiriyty	-4795
▁hävitän	-4796
▁kääntyi	-4797
▁tekonsa	-4798
▁äänellä	-4799
▁murheell	-4800
▁sydämesi	-4801
▁uhrikukku	-4802
▁valtakunnan	-4803
jis	-4804
dani	-4805
htaa	-4806
näet	-4807
teit	-4808
jooab	-4809
salli	-4810
väksi	-4811
elämän	-4812
ylimmä	-4813
antakaa	-4814
ruumiin	-4815
vastasivat	-4816
filistealaisten	-4817
Voi	-4818
lepo	-4819
näkö	-4820
ston	-4821
uuli	-4822
▁Est	-4823
▁ava	-4824
▁mus	-4825
atkaa	-4826
hojen	-4827
itini	-4828
tinsä	-4829
tiset	-4830
tuhan	-4831
▁Sike	-4832
▁hava	-4833
keavat	-4834
kolmen	-4835
puneet	-4836
tuiksi	-4837
tuista	-4838
vaiset	-4839
▁kahta	-4840
▁lauma	-4841
▁siltä	-4842
▁vanki	-4843
estänne	-4844
julista	-4845
sekelin	-4846
▁Samoin	-4847
▁edusta	-4848
▁kantaa	-4849
▁kohden	-4850
▁lammas	-4851
▁mullik	-4852
▁neuvon	-4853
▁ryöstä	-4854
▁saatta	-4855
▁tuolla	-4856
▁väärin	-4857
joukossa	-4858
▁jauhoja	-4859
▁lähesty	-4860
▁pitävät	-4861
▁taivaat	-4862
▁mukaansa	-4863
▁sanotaan	-4864
▁vuorella	-4865
kunnittain	-4866
▁kunniaksi	-4867
▁Jaakobille	-4868
▁haudattiin	-4869
▁kuolleista	-4870
▁syntiuhriksi	-4871
kot	-4872
osin	-4873
rista	-4874
tavat	-4875
vänsä	-4876
eserin	-4877
esipih	-4878
lleita	-4879
pannut	-4880
tamaan	-4881
assurin	-4882
kaikessa	-4883
tietämään	-4884
kuningasten	-4885
hy	-4886
kad	-4887
sau	-4888
▁Po	-4889
kahd	-4890
opet	-4891
työn	-4892
▁hir	-4893
▁naa	-4894
▁pui	-4895
▁rii	-4896
▁vah	-4897
Sinun	-4898
eksen	-4899
haure	-4900
menee	-4901
ruumi	-4902
silmi	-4903
▁Onko	-4904
▁Siin	-4905
▁Vaan	-4906
▁hävi	-4907
▁nope	-4908
▁nään	-4909
▁olit	-4910
▁poja	-4911
essasi	-4912
kuuden	-4913
miekan	-4914
samari	-4915
tulisi	-4916
viiniä	-4917
▁avasi	-4918
▁hauta	-4919
▁kiusa	-4920
▁pelto	-4921
▁vaino	-4922
▁varas	-4923
▁väkev	-4924
▁kerska	-4925
kauhistu	-4926
▁Myöskin	-4927
▁aurinko	-4928
▁käskyjä	-4929
▁leijona	-4930
▁minussa	-4931
▁sinussa	-4932
▁tykönne	-4933
ettaisiin	-4934
langoista	-4935
▁heettilä	-4936
▁kaikilla	-4937
▁kaikkiin	-4938
▁kullalla	-4939
▁miehensä	-4940
▁benjamini	-4941
▁huoneeseen	-4942
▁kuolemalla	-4943
▁seuraavana	-4944
iankaikkinen	-4945
▁palvelijoita	-4946
eä	-4947
leh	-4948
pap	-4949
eina	-4950
gata	-4951
issi	-4952
sela	-4953
änhä	-4954
emian	-4955
iloit	-4956
juhla	-4957
matan	-4958
pahan	-4959
ranga	-4960
stani	-4961
veren	-4962
estäni	-4963
maleki	-4964
ppuran	-4965
uttansa	-4966
herralta	-4967
ihmislapsi	-4968
:1	-4969
am	-4970
av	-4971
Sano	-4972
leve	-4973
lohd	-4974
oven	-4975
äiti	-4976
▁Mat	-4977
esiin	-4978
muita	-4979
runsa	-4980
tunne	-4981
tälle	-4982
yteen	-4983
▁pese	-4984
▁työn	-4985
kannut	-4986
▁Saado	-4987
▁keihä	-4988
▁pyhän	-4989
▁pääsi	-4990
▁raska	-4991
▁virhe	-4992
▁vuosi	-4993
uudesta	-4994
▁Haaman	-4995
▁henkeä	-4996
▁huomaa	-4997
▁kappal	-4998
▁kolmas	-4999
▁kulkee	-5000
▁mikään	-5001
▁olimme	-5002
▁vaella	-5003
▁Kuulkaa	-5004
▁saattaa	-5005
▁samalla	-5006
evankeliu	-5007
▁häväisty	-5008
▁kansansa	-5009
▁puhumaan	-5010
▁synagoog	-5011
▁tahtonut	-5012
▁käskynhalti	-5013
▁jumalattomat	-5014
▁opetuslapsensa	-5015
kim	-5016
lon	-5017
noo	-5018
paha	-5019
arkki	-5020
täisi	-5021
vista	-5022
absalo	-5023
poikia	-5024
vaelta	-5025
ittävät	-5026
mooabin	-5027
pietari	-5028
todistu	-5029
istetaan	-5030
ottamaan	-5031
perintöosa	-5032
bad	-5033
res	-5034
▁Ri	-5035
Mikä	-5036
ekka	-5037
elee	-5038
isää	-5039
▁Nyt	-5040
▁Tyy	-5041
▁hil	-5042
▁leh	-5043
▁sek	-5044
inten	-5045
majan	-5046
rauha	-5047
▁auta	-5048
▁kuri	-5049
▁luol	-5050
▁veri	-5051
▁ylis	-5052
enttia	-5053
llakin	-5054
mmille	-5055
▁Iisak	-5056
▁Kuule	-5057
▁Siitä	-5058
▁jätti	-5059
▁kasva	-5060
▁kiven	-5061
▁riita	-5062
▁seinä	-5063
estanne	-5064
paavali	-5065
utuivat	-5066
yttänyt	-5067
▁linnut	-5068
▁muiden	-5069
▁vaarin	-5070
▁vaelsi	-5071
mpärinsä	-5072
ppiniska	-5073
▁karitsa	-5074
▁kenelle	-5075
▁leiriin	-5076
▁noussut	-5077
▁ruhtina	-5078
▁äänensä	-5079
▁luokseen	-5080
▁yhtäkään	-5081
▁seisoivat	-5082
▁vihollisi	-5083
▁viisautta	-5084
▁Jerusalemia	-5085
▁kaupunkeihin	-5086
▁kuusikymmentä	-5087
israelilaisille	-5088
orj	-5089
anan	-5090
port	-5091
häpeä	-5092
olkaa	-5093
pyhää	-5094
kerran	-5095
tehkää	-5096
kolmekymmentä	-5097
eg	-5098
ete	-5099
etu	-5100
Puhu	-5101
luja	-5102
sovi	-5103
juuda	-5104
näitä	-5105
▁avaa	-5106
veivät	-5107
▁Pieta	-5108
▁ateri	-5109
▁jolle	-5110
▁puole	-5111
▁vihas	-5112
▁väijy	-5113
isiensä	-5114
jotakin	-5115
▁Siellä	-5116
▁heihin	-5117
▁jäänyt	-5118
▁määrät	-5119
▁oikean	-5120
▁suunsa	-5121
▁tiedät	-5122
▁uhrasi	-5123
▁Absalom	-5124
▁kuulkaa	-5125
▁seurasi	-5126
▁tehtiin	-5127
▁tulella	-5128
▁tuokoon	-5129
▁hedelmää	-5130
▁karitsaa	-5131
▁luoksesi	-5132
▁lähettää	-5133
▁rakentaa	-5134
▁tyttäriä	-5135
▁orjantapp	-5136
▁Jerobeamin	-5137
▁kolmesataa	-5138
▁polttouhri	-5139
▁sukukuntaa	-5140
▁Kaikkivalti	-5141
▁israelilaisia	-5142
▁onnettomuuden	-5143
▁keskuudessanne	-5144
eel	-5145
kus	-5146
mot	-5147
nös	-5148
eräs	-5149
yhän	-5150
dottu	-5151
ennut	-5152
huone	-5153
kuulu	-5154
toisi	-5155
tuisi	-5156
öljyä	-5157
hinten	-5158
inensä	-5159
stanne	-5160
teuras	-5161
jerobea	-5162
keinpyh	-5163
tulette	-5164
matanter	-5165
!`	-5166
▁tö	-5167
aasi	-5168
naan	-5169
risi	-5170
▁aut	-5171
▁ikä	-5172
▁unh	-5173
hasta	-5174
monin	-5175
murhe	-5176
puhuu	-5177
saada	-5178
▁löyd	-5179
▁osta	-5180
▁tark	-5181
▁vaih	-5182
vallan	-5183
▁Saara	-5184
▁rinta	-5185
hänessä	-5186
äitinsä	-5187
▁Muista	-5188
▁katker	-5189
▁lausui	-5190
▁mereen	-5191
▁neuvoa	-5192
▁synnin	-5193
▁Rehabea	-5194
▁ahdista	-5195
▁pappien	-5196
▁toiseen	-5197
▁Joosafat	-5198
▁itseänsä	-5199
▁kuolleet	-5200
▁kysyivät	-5201
▁kyynärän	-5202
▁mielisty	-5203
▁oikealla	-5204
▁totuuden	-5205
▁lähteneet	-5206
▁sukukunta	-5207
▁taivaassa	-5208
▁ihmislapsi	-5209
▁neljäsataa	-5210
▁vankeuteen	-5211
▁amorilaisten	-5212
etko	-5213
kall	-5214
tapa	-5215
vang	-5216
viet	-5217
puhut	-5218
rikka	-5219
viini	-5220
hopeata	-5221
jeremia	-5222
utuksen	-5223
israelissa	-5224
län	-5225
▁Es	-5226
Onko	-5227
kaur	-5228
▁Ruu	-5229
▁Ter	-5230
▁len	-5231
▁myy	-5232
▁taa	-5233
eräjä	-5234
hansa	-5235
lihan	-5236
perus	-5237
puhta	-5238
ressa	-5239
sanoa	-5240
sisar	-5241
siuna	-5242
timme	-5243
▁järj	-5244
▁maja	-5245
▁meri	-5246
▁pian	-5247
▁vasi	-5248
elekin	-5249
nousee	-5250
utunut	-5251
▁autta	-5252
▁kuiva	-5253
▁saata	-5254
▁saisi	-5255
▁sinet	-5256
nimensä	-5257
▁Aramin	-5258
▁Hebron	-5259
▁emmekä	-5260
▁hämmäs	-5261
▁kallis	-5262
▁lampun	-5263
▁lähteä	-5264
▁palaja	-5265
kkasivat	-5266
laiselle	-5267
oittavat	-5268
▁kunnian	-5269
▁lahjoja	-5270
▁noudata	-5271
▁rannalla	-5272
▁tarvitse	-5273
▁pakenivat	-5274
▁pyhäkössä	-5275
▁temppeliä	-5276
▁itsellenne	-5277
▁palvelusta	-5278
▁polttouhrin	-5279
pakkosiirtola	-5280
▁Aabrahamille	-5281
▁vanhurskautta	-5282
kur	-5283
maas	-5284
aivan	-5285
ennus	-5286
sanot	-5287
turva	-5288
piirin	-5289
päivät	-5290
tunnus	-5291
vainen	-5292
väkevä	-5293
sisälle	-5294
miehelle	-5295
puolelta	-5296
egyptistä	-5297
ij	-5298
▁or	-5299
Anna	-5300
arna	-5301
eena	-5302
etan	-5303
kävi	-5304
▁`."	-5305
▁sär	-5306
hyvän	-5307
▁Sime	-5308
▁arpa	-5309
▁kato	-5310
▁kuva	-5311
▁main	-5312
▁ylpe	-5313
ettekä	-5314
joissa	-5315
oikein	-5316
toimit	-5317
tulkaa	-5318
valmis	-5319
vällis	-5320
▁Mooab	-5321
▁annat	-5322
▁hehku	-5323
▁hoita	-5324
▁paino	-5325
▁pilvi	-5326
lähellä	-5327
nimeltä	-5328
päämies	-5329
tekevät	-5330
▁Eufrat	-5331
▁hurska	-5332
▁joista	-5333
▁kuulia	-5334
▁kuulin	-5335
▁suorit	-5336
▁tiellä	-5337
auringon	-5338
gileadin	-5339
oikeutta	-5340
▁Iisakin	-5341
▁oinasta	-5342
▁riemuit	-5343
▁sanansa	-5344
▁siunasi	-5345
▁tarkoin	-5346
▁Moosesta	-5347
▁hedelmän	-5348
▁kutsunut	-5349
▁lampaita	-5350
▁peljätkö	-5351
▁seitsemä	-5352
▁jumalaton	-5353
▁katsomaan	-5354
▁kaupunkeja	-5355
▁tullessaan	-5356
▁varustettu	-5357
▁leeviläisten	-5358
go	-5359
pö	-5360
säh	-5361
eria	-5362
haud	-5363
koni	-5364
mina	-5365
peta	-5366
ryös	-5367
toin	-5368
istet	-5369
laulu	-5370
nestä	-5371
päisi	-5372
uonna	-5373
äneet	-5374
hoista	-5375
isessä	-5376
pakeni	-5377
saatte	-5378
samuel	-5379
soista	-5380
toneet	-5381
laisina	-5382
nähneet	-5383
rukoile	-5384
sydämen	-5385
kuloilla	-5386
ettavaksi	-5387
milaisten	-5388
palvelusta	-5389
Tuo	-5390
tät	-5391
▁Am	-5392
▁Ti	-5393
soti	-5394
tuho	-5395
▁Ota	-5396
▁Tuo	-5397
ikinä	-5398
valke	-5399
▁Beer	-5400
▁koti	-5401
▁käyn	-5402
farise	-5403
▁Sebul	-5404
▁erään	-5405
▁jäsen	-5406
▁loppu	-5407
▁ruoka	-5408
▁saast	-5409
pappien	-5410
▁Ahabin	-5411
▁heikko	-5412
▁koskee	-5413
▁kuuden	-5414
▁ojensi	-5415
▁paikan	-5416
▁puolen	-5417
▁rauhaa	-5418
▁voiton	-5419
aabraham	-5420
kaikkina	-5421
oittakaa	-5422
vuorelle	-5423
▁loppuun	-5424
▁pakanat	-5425
▁valitta	-5426
▁voineet	-5427
▁faraolle	-5428
▁käteensä	-5429
▁Egyptissä	-5430
▁kumartaen	-5431
▁raskaaksi	-5432
vanhurskauden	-5433
▁ammonilaisten	-5434
tenakymmenentenä	-5435
tiä	-5436
asan	-5437
idän	-5438
isan	-5439
ittu	-5440
pidä	-5441
teot	-5442
diani	-5443
juuri	-5444
oitte	-5445
pakan	-5446
pella	-5447
utena	-5448
atkoon	-5449
miekka	-5450
näiden	-5451
onista	-5452
taaksi	-5453
tahdon	-5454
asuivat	-5455
parempi	-5456
uksissa	-5457
maailman	-5458
oikeuden	-5459
kaikkiaan	-5460
kuninkaat	-5461
juutalaiset	-5462
opetuslapsi	-5463
sanansaatta	-5464
temppelissä	-5465
palvelijansa	-5466
laidunmaineen	-5467
tie	-5468
▁Eb	-5469
▁Ra	-5470
edal	-5471
eura	-5472
ilma	-5473
irin	-5474
▁Daa	-5475
▁Huu	-5476
▁Job	-5477
▁iho	-5478
eenne	-5479
elaan	-5480
gatar	-5481
jiksi	-5482
jäksi	-5483
kköön	-5484
monet	-5485
mpien	-5486
peura	-5487
pitkä	-5488
rofet	-5489
tanin	-5490
tetty	-5491
turmi	-5492
vedet	-5493
vähän	-5494
▁ehkä	-5495
▁heil	-5496
▁raat	-5497
▁samm	-5498
▁yötä	-5499
keneet	-5500
takoon	-5501
uketta	-5502
vuodat	-5503
▁Baala	-5504
▁kieli	-5505
▁mieli	-5506
▁nuori	-5507
▁pieni	-5508
▁polve	-5509
▁selit	-5510
▁sukua	-5511
▁suosi	-5512
essänne	-5513
ttakoon	-5514
uksella	-5515
▁Ruuben	-5516
▁iltaan	-5517
▁itsesi	-5518
▁kertoi	-5519
▁kestää	-5520
▁käyvät	-5521
▁nähden	-5522
▁oikeus	-5523
▁siunaa	-5524
▁tykösi	-5525
▁valhet	-5526
▁valkoi	-5527
kuulivat	-5528
▁hautaan	-5529
▁kedolla	-5530
▁punasin	-5531
▁päämies	-5532
▁tulevan	-5533
▁Beetlehe	-5534
▁Samarian	-5535
▁esipihan	-5536
▁hävittää	-5537
▁ilmoitti	-5538
▁säädöksi	-5539
onilaisten	-5540
▁Baabeliin	-5541
▁haureutta	-5542
▁kuolemaan	-5543
▁kutsutaan	-5544
▁saattanut	-5545
▁tuntemaan	-5546
▁Israelista	-5547
▁nähdessään	-5548
▁viisisataa	-5549
▁fariseukset	-5550
▁evankeliumia	-5551
▁opetuslapset	-5552
syv	-5553
kara	-5554
kulj	-5555
täkö	-5556
kanne	-5557
kkaan	-5558
laske	-5559
panen	-5560
vanhe	-5561
vuosi	-5562
yöllä	-5563
elista	-5564
istuin	-5565
maaksi	-5566
mielis	-5567
lähimmä	-5568
sinulta	-5569
efraimin	-5570
paikassa	-5571
vartijat	-5572
vaatteensa	-5573
filistealaiset	-5574
Ota	-5575
kuo	-5576
les	-5577
Tule	-5578
ksaa	-5579
▁Ser	-5580
▁heb	-5581
▁him	-5582
▁laa	-5583
▁ölj	-5584
isina	-5585
temme	-5586
työtä	-5587
vapaa	-5588
▁Isma	-5589
▁Sodo	-5590
▁ansa	-5591
▁itki	-5592
▁sydä	-5593
▁valm	-5594
▁vaun	-5595
▁väen	-5596
maansa	-5597
mereen	-5598
pakoon	-5599
suuret	-5600
tuomit	-5601
vastaa	-5602
▁Ester	-5603
▁jalko	-5604
▁pysty	-5605
▁suvun	-5606
▁tällä	-5607
▁voisi	-5608
häpeään	-5609
issansa	-5610
poikasi	-5611
▁Daniel	-5612
▁isänne	-5613
▁joutui	-5614
▁lepoon	-5615
▁myöten	-5616
▁naiset	-5617
▁ohitse	-5618
▁ovelle	-5619
▁puutar	-5620
▁riivaa	-5621
▁teissä	-5622
▁tuleen	-5623
▁tyynni	-5624
▁vetten	-5625
▁älkööt	-5626
▁ääreen	-5627
kulkivat	-5628
synnytti	-5629
▁ihmistä	-5630
▁kääntyy	-5631
▁lampaat	-5632
▁ottakaa	-5633
▁paikkaa	-5634
▁poikien	-5635
▁saastut	-5636
▁sapatin	-5637
▁sekeliä	-5638
▁tyttäri	-5639
▁viisaus	-5640
itsellesi	-5641
▁Jokainen	-5642
▁joukosta	-5643
▁kasvonsa	-5644
▁keskelle	-5645
▁tiedämme	-5646
▁uskollis	-5647
▁palasivat	-5648
▁sapattina	-5649
▁sellaista	-5650
▁sotajoukko	-5651
▁profeettain	-5652
▁ristiinnaul	-5653
dar	-5654
kua	-5655
poh	-5656
snä	-5657
ula	-5658
asuu	-5659
jätä	-5660
uken	-5661
ästä	-5662
eella	-5663
kiviä	-5664
lläni	-5665
mella	-5666
papin	-5667
uunin	-5668
voton	-5669
yksiä	-5670
ftalin	-5671
istesi	-5672
ittäin	-5673
kieltä	-5674
llanne	-5675
mannut	-5676
nuksen	-5677
umasta	-5678
ätänyt	-5679
hyväksi	-5680
lähetän	-5681
netuksi	-5682
nuoruka	-5683
rukoili	-5684
tulkoon	-5685
kuoleman	-5686
mielinen	-5687
tapahtui	-5688
.`"	-5689
hil	-5690
▁To	-5691
▁Yl	-5692
joen	-5693
▁Jef	-5694
▁ano	-5695
▁yön	-5696
armon	-5697
haara	-5698
ilman	-5699
nasta	-5700
palja	-5701
telen	-5702
toivo	-5703
uhria	-5704
▁Gide	-5705
▁nelj	-5706
▁viat	-5707
asuvat	-5708
elläsi	-5709
kertaa	-5710
kuolle	-5711
seisoi	-5712
tiedän	-5713
täällä	-5714
▁kauka	-5715
▁koske	-5716
▁kruun	-5717
▁köyhä	-5718
▁nimet	-5719
▁rikas	-5720
▁saali	-5721
▁tuoda	-5722
▁tutki	-5723
huoneen	-5724
kuollut	-5725
puoleen	-5726
▁Leevin	-5727
▁heitti	-5728
▁kokosi	-5729
▁murska	-5730
▁tunten	-5731
▁vuoret	-5732
yhdeksän	-5733
▁sanokaa	-5734
▁viikuna	-5735
kuoliaaksi	-5736
valtakunta	-5737
▁kaltainen	-5738
kaupungissa	-5739
sukukunnasta	-5740
▁Johanneksen	-5741
bi	-5742
▁]	-5743
ksy	-5744
baal	-5745
empi	-5746
gibe	-5747
orja	-5748
rkei	-5749
utun	-5750
jamme	-5751
luota	-5752
oitat	-5753
tensa	-5754
assaan	-5755
kätesi	-5756
nebukad	-5757
pyhäkkö	-5758
uhrilah	-5759
pelastaa	-5760
sijaansa	-5761
tekemään	-5762
vanhimmat	-5763
Vi	-5764
aro	-5765
has	-5766
äid	-5767
inän	-5768
köyh	-5769
sang	-5770
ukut	-5771
▁Par	-5772
▁Vai	-5773
▁aiv	-5774
▁opp	-5775
aatti	-5776
dassa	-5777
deltu	-5778
huuta	-5779
maria	-5780
metsä	-5781
neinä	-5782
tehtä	-5783
tenat	-5784
tover	-5785
vaiva	-5786
▁Ahab	-5787
▁Samu	-5788
▁kuor	-5789
▁maas	-5790
▁näkö	-5791
▁riem	-5792
▁suut	-5793
▁veli	-5794
anansa	-5795
elläni	-5796
istään	-5797
llinut	-5798
llisiä	-5799
noudat	-5800
oimaan	-5801
yhteen	-5802
yhteys	-5803
▁Abner	-5804
▁Jeehu	-5805
▁enkel	-5806
▁kerto	-5807
▁taita	-5808
▁tehtä	-5809
▁uuden	-5810
▁venhe	-5811
▁virit	-5812
itsivat	-5813
laisena	-5814
muuteen	-5815
ttaresi	-5816
▁asetta	-5817
▁huudan	-5818
▁juoksi	-5819
▁kunkin	-5820
▁mukana	-5821
▁muurin	-5822
▁näette	-5823
▁paasto	-5824
▁pystyt	-5825
▁vailla	-5826
isillesi	-5827
ranaatti	-5828
▁ihmeitä	-5829
▁kansoja	-5830
▁olleita	-5831
▁pitäkää	-5832
▁pitänyt	-5833
▁ymmärrä	-5834
isuudessa	-5835
▁itseänne	-5836
▁kirkkaus	-5837
▁myöskään	-5838
▁syntivel	-5839
▁tiedätte	-5840
tenatoista	-5841
▁Jumalasta	-5842
▁Kuitenkin	-5843
▁jumalanku	-5844
▁kenenkään	-5845
▁ruumiinsa	-5846
▁taivasten	-5847
▁väkivalta	-5848
▁ylimmäinen	-5849
▁kerrottavaa	-5850
▁kokoontuivat	-5851
▁kaldealaisten	-5852
hik	-5853
piir	-5854
reun	-5855
uvat	-5856
varj	-5857
laski	-5858
mäksi	-5859
viime	-5860
nainen	-5861
päähän	-5862
istuvat	-5863
kansasi	-5864
annetaan	-5865
joosefin	-5866
huoneeseen	-5867
tapahtunut	-5868
Sa	-5869
kr	-5870
myö	-5871
▁ru	-5872
▁uu	-5873
ajoi	-5874
joit	-5875
onne	-5876
unne	-5877
ysin	-5878
öytä	-5879
▁Ahi	-5880
▁pyö	-5881
kisin	-5882
kukku	-5883
kulke	-5884
levit	-5885
lihaa	-5886
lille	-5887
ttekö	-5888
tuhat	-5889
tuuli	-5890
▁Siih	-5891
▁aini	-5892
▁asia	-5893
▁halu	-5894
▁hovi	-5895
▁laul	-5896
▁onne	-5897
▁tein	-5898
▁yönä	-5899
hiskia	-5900
issään	-5901
joosaf	-5902
lammas	-5903
oitsee	-5904
utusta	-5905
▁Simon	-5906
▁laski	-5907
▁lopun	-5908
▁pelkä	-5909
▁pyysi	-5910
▁uskoi	-5911
asettui	-5912
välillä	-5913
▁kasvot	-5914
▁lakkaa	-5915
▁makasi	-5916
▁muille	-5917
▁määrän	-5918
▁opetti	-5919
▁salais	-5920
▁suurta	-5921
▁	-5922
a	-5923
¦	-5924
i	-5925
n	-5926
e	-5927
t	-5928
s	-5929
l	-5930
ä	-5931
k	-5932
u	-5933
o	-5934
m	-5935
h	-5936
j	-5937
v	-5938
r	-5939
,	-5940
p	-5941
y	-5942
.	-5943
d	-5944
𐋇	-5945
J	-5946
"	-5947
ö	-5948
:	-5949
H	-5950
;	-5951
S	-5952
b	-5953
M	-5954
g	-5955
K	-5956
N	-5957
?	-5958
f	-5959
A	-5960
E	-5961
`	-5962
-	-5963
I	-5964
T	-5965
P	-5966
!	-5967
B	-5968
D	-5969
V	-5970
O	-5971
G	-5972
R	-5973
L	-5974
Ä	-5975
U	-5976
Y	-5977
1	-5978
[	-5979
]	-5980
F	-5981
3	-5982
2	-5983
4	-5984
9	-5985
0	-5986
5	-5987
(	-5988
)	-5989
8	-5990
6	-5991
7	-5992
Ö	-5993
Z	-5994
/	-5995
z	-5996
