<pad>	0
</s>	0
<unk>	0
s	-3.45028
▁the	-3.52485
.	-3.53607
,	-3.55312
▁	-3.60511
▁to	-3.99336
▁and	-4.00052
▁of	-4.02209
▁a	-4.35167
ing	-4.3876
▁in	-4.4083
ed	-4.49909
e	-4.75509
-	-4.80258
▁for	-4.99566
▁you	-4.99842
d	-5.11785
t	-5.12213
▁with	-5.12447
y	-5.12884
▁your	-5.16176
▁covid	-5.21641
▁is	-5.22698
▁or	-5.25713
▁The	-5.30751
p	-5.31746
a	-5.32079
-19	-5.33476
ly	-5.34028
n	-5.3707
f	-5.38661
▁be	-5.39167
▁that	-5.39654
▁on	-5.40573
▁are	-5.42982
▁have	-5.48438
▁cases	-5.52622
▁as	-5.53418
al	-5.54751
m	-5.55684
▁from	-5.57939
o	-5.65784
▁(	-5.66024
▁were	-5.70365
▁not	-5.71723
r	-5.72858
▁s	-5.73446
er	-5.75126
u	-5.77228
c	-5.80311
in	-5.86188
i	-5.87457
▁will	-5.95723
▁A	-5.9679
▁by	-5.97893
ir	-5.98379
)	-5.98764
▁people	-5.99568
b	-6.00757
g	-6.01208
▁at	-6.04225
▁can	-6.07881
cov	-6.09657
▁I	-6.10484
▁virus	-6.10579
▁who	-6.14903
▁it	-6.15353
▁if	-6.15393
'	-6.16
▁was	-6.16971
ar	-6.18098
l	-6.18237
▁has	-6.18316
▁health	-6.23277
▁been	-6.2421
▁f	-6.25196
▁deaths	-6.2564
or	-6.25889
re	-6.27107
▁reported	-6.27148
▁may	-6.281
▁an	-6.28181
h	-6.31084
is	-6.33241
:	-6.35831
0	-6.36311
1	-6.37666
▁symptoms	-6.38596
▁de	-6.40278
le	-6.42002
▁other	-6.42124
▁m	-6.42399
▁You	-6.42841
it	-6.44857
▁contact	-6.44998
2	-6.45493
▁w	-6.46216
an	-6.4678
▁sars	-6.47059
es	-6.4724
▁re	-6.50038
ur	-6.51357
st	-6.52357
▁test	-6.52579
k	-6.52654
ation	-6.535
▁do	-6.53807
▁more	-6.54719
▁number	-6.55742
ic	-6.5596
on	-6.5614
▁c	-6.56357
en	-6.57231
▁should	-6.59263
ent	-6.59627
▁this	-6.60324
v	-6.61493
w	-6.6265
▁march	-6.62875
at	-6.63191
▁S	-6.65884
▁disease	-6.66191
4	-6.6766
▁coronavirus	-6.67921
▁also	-6.69369
8	-6.72302
▁vaccine	-6.72703
te	-6.73642
ro	-6.73761
▁In	-6.74438
▁On	-6.75047
se	-6.76236
notified	-6.76542
▁It	-6.77916
▁2020	-6.78059
ce	-6.78504
had	-6.78556
▁outbreak	-6.78877
▁than	-6.78904
▁p	-6.79049
▁P	-6.79312
▁2	-6.79704
▁b	-6.80086
▁countries	-6.80187
▁about	-6.8019
▁g	-6.80922
ri	-6.80959
▁further	-6.8107
▁app	-6.81861
▁all	-6.81887
▁4	-6.82787
7	-6.83302
5	-6.84022
▁This	-6.84718
id	-6.85792
9	-6.86956
ers	-6.87144
▁face	-6.87487
ion	-6.87763
▁"	-6.88072
▁1	-6.88288
▁no	-6.88433
▁home	-6.88441
▁which	-6.88908
▁total	-6.88953
▁when	-6.88979
▁C	-6.90498
6	-6.90546
3	-6.90702
"	-6.90723
▁5	-6.91428
-2	-6.91935
uch	-6.92972
▁they	-6.93306
ve	-6.93434
▁one	-6.9377
▁new	-6.94839
▁3	-6.94913
ol	-6.95118
th	-6.95202
▁pandemic	-6.95346
▁after	-6.96027
▁use	-6.96063
▁spread	-6.96138
il	-6.97621
ad	-6.97891
▁risk	-6.98338
▁time	-6.99266
▁patients	-6.99415
tion	-7.0028
lo	-7.00319
▁B	-7.00595
▁over	-7.01157
▁need	-7.01279
▁public	-7.01391
▁get	-7.02885
ment	-7.03629
▁first	-7.03886
▁confirmed	-7.04096
ight	-7.05449
▁infection	-7.05956
ive	-7.06465
▁some	-7.07252
ies	-7.0803
▁data	-7.08444
▁china	-7.09625
▁work	-7.09694
el	-7.10683
▁person	-7.11617
am	-7.11959
▁hands	-7.12838
▁bring	-7.14213
us	-7.14357
▁government	-7.14452
▁under	-7.14453
▁care	-7.14681
▁including	-7.15281
▁but	-7.157
li	-7.15873
▁travel	-7.17597
▁cover	-7.17676
ine	-7.18371
▁case	-7.19798
▁high	-7.20848
due	-7.21005
ul	-7.21487
▁child	-7.215
▁february	-7.22172
ity	-7.22348
ate	-7.23163
ng	-7.23235
▁us	-7.23538
▁close	-7.23595
▁stay	-7.2384
▁hospital	-7.24199
mo	-7.24369
▁t	-7.24821
▁days	-7.25586
▁n	-7.25588
▁un	-7.2597
et	-7.25974
ry	-7.27027
▁help	-7.27673
▁unit	-7.27841
▁others	-7.27968
un	-7.28222
▁two	-7.28382
▁any	-7.28654
▁go	-7.29218
▁them	-7.29295
▁10	-7.29674
▁these	-7.30292
ct	-7.30867
;	-7.3127
▁/	-7.3127
la	-7.32322
z	-7.32667
▁those	-7.32747
ch	-7.32934
▁v	-7.33122
▁january	-7.33492
um	-7.33893
▁we	-7.34061
▁positive	-7.34244
▁respirator	-7.34244
▁6	-7.3528
out	-7.35698
qu	-7.35805
▁school	-7.36756
▁previously	-7.37364
▁most	-7.37699
▁available	-7.38097
▁gp	-7.38224
▁dur	-7.38232
ck	-7.38412
▁day	-7.38845
▁M	-7.41234
▁protect	-7.41987
▁medical	-7.42092
▁infected	-7.423
▁up	-7.42587
▁include	-7.4291
ia	-7.43412
▁T	-7.43538
ould	-7.4439
▁system	-7.4457
est	-7.44645
▁tested	-7.4487
ra	-7.45702
▁transmission	-7.47113
ac	-7.4731
▁st	-7.47772
▁between	-7.47975
▁illness	-7.47991
ter	-7.48007
▁host	-7.48091
▁7	-7.48153
▁possible	-7.48916
tic	-7.49098
▁advice	-7.49722
▁com	-7.50504
▁F	-7.51304
ig	-7.51432
▁–	-7.51499
▁april	-7.515
able	-7.5198
im	-7.52057
om	-7.52568
▁h	-7.53008
to	-7.53177
▁million	-7.53309
▁children	-7.53341
ary	-7.53487
▁me	-7.53525
▁wear	-7.53576
all	-7.5396
▁its	-7.54349
▁9	-7.54445
▁8	-7.54543
▁there	-7.54585
▁Do	-7.55123
▁di	-7.55759
▁so	-7.5717
).	-7.5718
▁could	-7.57196
▁states	-7.57266
▁out	-7.57392
age	-7.57565
▁restrictions	-7.58007
▁treatment	-7.58013
ne	-7.58213
▁14	-7.58434
ance	-7.58763
rt	-7.58904
▁severe	-7.59268
▁country	-7.59938
-19.	-7.60092
▁response	-7.60896
▁social	-7.61002
▁20	-7.61247
▁only	-7.61367
▁world	-7.61886
▁ireland	-7.61886
▁-	-7.62808
▁announced	-7.62886
as	-7.6335
iv	-7.63614
▁ex	-7.64122
▁into	-7.64325
▁result	-7.64841
▁through	-7.64917
▁call	-7.66057
▁e	-7.66225
▁human	-7.66226
x	-7.66506
),	-7.66897
▁while	-7.66989
ther	-7.6699
▁l	-7.67013
▁well	-7.67148
▁he	-7.6729
▁measures	-7.67382
▁u	-7.67579
▁con	-7.67604
▁death	-7.68081
po	-7.68106
▁ac	-7.68673
ian	-7.69168
ous	-7.69262
▁k	-7.69559
ting	-7.69892
▁control	-7.70099
▁show	-7.70181
ver	-7.70202
ma	-7.7021
▁visit	-7.71262
▁how	-7.71352
many	-7.71499
ll	-7.71591
00	-7.71646
▁take	-7.71943
▁per	-7.71996
ness	-7.72563
▁away	-7.73195
ph	-7.73348
▁before	-7.73527
ide	-7.74155
▁food	-7.74656
▁testing	-7.75451
▁car	-7.75578
▁mask	-7.76029
▁co	-7.76227
▁pa	-7.76334
the	-7.76493
▁make	-7.76631
▁information	-7.76917
▁someone	-7.76926
▁19	-7.76949
ts	-7.76996
ab	-7.77162
ated	-7.77425
▁sh	-7.77927
▁cause	-7.77966
▁same	-7.78058
ence	-7.78109
▁d	-7.78381
▁where	-7.79664
▁vaccines	-7.80033
▁being	-7.80087
▁community	-7.8042
▁national	-7.8042
ge	-7.80493
if	-7.80557
▁As	-7.81018
▁po	-7.81642
▁We	-7.8263
▁i	-7.8269
▁restrict	-7.82811
▁against	-7.82898
▁pro	-7.83299
▁r	-7.83433
▁relat	-7.83684
▁used	-7.84003
▁emergency	-7.84164
▁quarantine	-7.84457
▁ro	-7.84489
▁Re	-7.84675
ial	-7.85059
▁wuhan	-7.85326
▁There	-7.85378
na	-7.854
ok	-7.85403
vi	-7.85452
ute	-7.85809
▁ra	-7.85969
▁hcov	-7.87614
▁education	-7.87874
▁large	-7.87874
▁protein	-7.87874
▁early	-7.87876
▁even	-7.87876
▁fever	-7.87969
▁schools	-7.87971
▁age	-7.88101
▁Co	-7.88233
▁11	-7.89029
▁When	-7.89172
▁ca	-7.89193
▁follow	-7.89224
▁services	-7.89471
▁students	-7.89707
▁hand	-7.89859
our	-7.90221
▁ma	-7.90387
▁immun	-7.90488
▁flu	-7.90492
nt	-7.90493
▁non	-7.90611
▁24	-7.90953
▁report	-7.90957
▁inter	-7.91229
▁order	-7.91897
▁nose	-7.92307
▁conditions	-7.92546
end	-7.92896
cal	-7.92954
▁part	-7.93168
▁support	-7.93173
▁italy	-7.93208
▁phone	-7.93778
▁pre	-7.93907
▁found	-7.94543
▁doctor	-7.94543
▁clean	-7.94546
▁place	-7.9455
▁june	-7.94569
▁effective	-7.94589
ip	-7.94803
ie	-7.94884
▁state	-7.95117
▁live	-7.95433
▁H	-7.95492
up	-7.95516
▁long	-7.95619
▁issued	-7.95933
▁what	-7.95934
▁humans	-7.95989
▁mers	-7.96526
and	-7.96885
▁service	-7.97017
▁least	-7.9734
▁12	-7.97605
▁share	-7.97945
▁areas	-7.98082
▁ho	-7.98407
▁important	-7.98769
▁known	-7.99032
▁give	-7.99115
ally	-7.99714
▁week	-7.99977
▁surveillance	-8.00218
▁south	-8.00221
▁keep	-8.00245
▁clinical	-8.00405
▁see	-8.00545
▁15	-8.00561
less	-8.01158
oc	-8.01264
▁hse	-8.0132
▁movements	-8.01689
▁self	-8.01693
▁chest	-8.01696
act	-8.01711
based	-8.01771
ase	-8.01949
de	-8.02176
▁dis	-8.02431
▁infections	-8.02481
▁prevent	-8.03077
▁chinese	-8.03181
▁population	-8.03181
▁attend	-8.03184
▁2019	-8.03198
▁healthcare	-8.0324
▁don	-8.03358
j	-8.03661
▁tr	-8.04051
,000	-8.0433
?	-8.04696
▁pain	-8.05092
▁open	-8.05133
▁around	-8.05333
▁plan	-8.06142
▁down	-8.0621
▁No	-8.06235
▁appointment	-8.06235
▁avoid	-8.06235
▁until	-8.06236
▁workers	-8.0654
▁much	-8.06784
▁level	-8.07781
▁center	-8.07806
gra	-8.08087
▁For	-8.08139
▁years	-8.08153
▁o	-8.0837
▁affected	-8.08401
▁An	-8.09128
▁bo	-8.09222
▁closures	-8.09384
▁drug	-8.09385
▁remain	-8.09385
▁centre	-8.09416
▁cell	-8.09517
che	-8.09659
co	-8.09832
ha	-8.10602
▁able	-8.10775
▁23	-8.10902
0%	-8.10997
▁collect	-8.10997
▁common	-8.10999
▁allow	-8.11024
▁every	-8.11058
▁bats	-8.12057
ical	-8.1235
▁viruses	-8.12367
▁following	-8.12572
▁global	-8.12637
though	-8.12637
ish	-8.127
not	-8.12859
▁cough	-8.13057
ten	-8.13701
▁masks	-8.13883
▁closed	-8.14116
▁safe	-8.14276
▁feel	-8.14308
▁However	-8.14315
vel	-8.14656
▁receive	-8.15392
▁13	-8.15698
han	-8.15733
ib	-8.1589
▁produc	-8.15998
▁origin	-8.16001
viral	-8.16089
very	-8.16673
ose	-8.17214
way	-8.17332
▁dublin	-8.17722
▁international	-8.17722
▁study	-8.17723
▁mouth	-8.17723
▁hours	-8.17731
▁usual	-8.17759
cu	-8.18357
▁provide	-8.18875
▁18	-8.19451
▁december	-8.19477
▁change	-8.1968
▁par	-8.19952
ru	-8.2081
▁because	-8.21263
▁among	-8.21265
▁recover	-8.21269
▁sub	-8.21274
▁tracking	-8.21644
old	-8.22054
▁recommended	-8.22261
▁contain	-8.2299
▁current	-8.23081
▁major	-8.23081
▁alert	-8.23089
▁our	-8.2314
▁200	-8.2314
▁last	-8.23201
▁results	-8.23218
ions	-8.23457
tra	-8.23627
ci	-8.23643
▁form	-8.23928
land	-8.24312
▁epidemic	-8.24933
▁example	-8.24933
cross	-8.24952
▁often	-8.25026
▁both	-8.25046
▁meter	-8.25117
▁ser	-8.25145
▁weeks	-8.25245
▁way	-8.25862
ell	-8.25901
▁like	-8.25981
▁official	-8.26819
▁blood	-8.2682
▁another	-8.26821
▁body	-8.26824
▁direct	-8.27066
ized	-8.2732
▁group	-8.27482
io	-8.27501
use	-8.27739
▁22	-8.27955
▁bat	-8.28218
ca	-8.28442
▁16	-8.28509
ice	-8.28571
▁Some	-8.28654
▁negative	-8.28742
▁transport	-8.28743
▁great	-8.28745
▁must	-8.28749
▁end	-8.2879
me	-8.28991
▁30	-8.30483
▁continue	-8.30703
▁declar	-8.30703
▁different	-8.30703
▁especially	-8.30703
▁three	-8.30705
▁become	-8.30715
▁made	-8.30774
ty	-8.31054
▁cold	-8.31167
▁higher	-8.31656
▁reduce	-8.3209
▁li	-8.32191
▁second	-8.32648
▁hu	-8.32693
▁family	-8.32703
▁local	-8.32708
▁events	-8.32799
for	-8.32838
▁develop	-8.33399
ating	-8.33588
▁recommend	-8.33613
line	-8.33931
▁less	-8.34306
resident	-8.3462
com	-8.34741
▁department	-8.34744
▁Covid	-8.34745
▁addition	-8.34755
▁impact	-8.34767
▁enter	-8.34864
▁br	-8.35104
▁al	-8.35107
▁lockdown	-8.35385
sure	-8.35749
▁Rea	-8.35819
ld	-8.35826
ill	-8.36548
▁eas	-8.36776
▁similar	-8.36827
▁european	-8.36914
▁cho	-8.37039
▁four	-8.3715
▁To	-8.37829
▁does	-8.37982
▁touch	-8.38462
▁short	-8.38912
▁organization	-8.38955
▁yourself	-8.38955
▁advis	-8.38956
▁since	-8.38961
▁But	-8.38962
▁water	-8.38965
▁safety	-8.38992
▁vari	-8.38997
▁rna	-8.39052
ful	-8.39427
▁26	-8.39657
ven	-8.40057
▁increase	-8.40521
▁come	-8.40542
▁2020.	-8.40927
▁research	-8.41129
▁staff	-8.41129
▁infectious	-8.41129
▁korea	-8.41129
▁phase	-8.41136
isolation	-8.41186
▁still	-8.41198
fen	-8.41671
ex	-8.41973
▁caus	-8.42018
▁eu	-8.4233
cle	-8.42598
▁low	-8.43091
▁De	-8.43351
▁return	-8.43351
▁having	-8.43351
▁normal	-8.43351
▁worldwide	-8.43351
▁fines	-8.43379
▁each	-8.43425
go	-8.43539
▁Mo	-8.43892
▁covs	-8.44221
con	-8.44472
▁limit	-8.44496
▁rate	-8.45138
ugh	-8.456
▁pneumonia	-8.45624
▁period	-8.45624
▁back	-8.45626
▁team	-8.45639
▁25	-8.46211
▁detected	-8.46403
▁required	-8.46427
ach	-8.46657
ake	-8.46712
▁Al	-8.47076
▁concern	-8.4795
▁identified	-8.4795
▁record	-8.4795
▁outside	-8.47953
▁indicat	-8.47956
▁region	-8.47959
▁near	-8.4797
▁tracker	-8.48167
▁right	-8.4817
▁meet	-8.48174
▁specific	-8.48363
▁city	-8.48473
▁likely	-8.48569
0,000	-8.48679
43	-8.48682
▁hcovs	-8.49052
▁Th	-8.49152
▁washing	-8.49209
▁individuals	-8.49229
▁21	-8.50311
▁laboratory	-8.5033
▁said	-8.50341
ability	-8.50356
▁however	-8.5037
▁nurs	-8.50371
▁house	-8.50377
-19,	-8.50572
▁list	-8.50637
▁lower	-8.50682
▁county	-8.50774
▁wash	-8.5102
▁28	-8.51039
▁tests	-8.51176
▁received	-8.51193
▁breath	-8.51494
▁sign	-8.52042
ory	-8.52285
▁17	-8.52342
ize	-8.52381
▁trials	-8.52524
▁equipment	-8.52769
▁genome	-8.52769
▁Stay	-8.5277
▁suspect	-8.5277
▁2021	-8.5277
▁mild	-8.52775
▁stop	-8.52793
isolate	-8.52802
▁late	-8.52883
ttle	-8.53168
▁uk	-8.53192
▁diseases	-8.53209
▁healthy	-8.53717
▁ill	-8.53749
gu	-8.5411
▁developed	-8.54154
▁personal	-8.54382
table	-8.54647
▁done	-8.5465
▁know	-8.54808
inister	-8.55094
▁samples	-8.55183
▁economi	-8.55269
▁suggest	-8.5527
▁corona	-8.55272
▁wait	-8.55276
▁sick	-8.55278
low	-8.55491
▁date	-8.55497
▁online	-8.55838
▁increased	-8.55974
▁signs	-8.56013
▁cons	-8.56386
we	-8.56445
▁sever	-8.57296
▁cha	-8.5767
▁How	-8.57817
5%	-8.57834
▁Wash	-8.57834
▁america	-8.57834
▁associated	-8.57834
▁daily	-8.57834
▁influenza	-8.57834
▁syndrome	-8.57834
▁vaccinated	-8.57834
▁baby	-8.57835
▁iran	-8.5789
▁pass	-8.5809
▁year	-8.58282
▁sure	-8.58424
▁main	-8.58473
▁eat	-8.58896
▁Man	-8.5996
▁learning	-8.60465
▁market	-8.60465
▁vaccination	-8.60465
▁adapt	-8.60465
▁monitor	-8.60465
▁properly	-8.60642
day	-8.60705
▁development	-8.60733
▁later	-8.6089
be	-8.60981
▁five	-8.61445
▁start	-8.62038
ology	-8.62075
▁man	-8.62534
▁far	-8.62818
▁times	-8.6294
▁Open	-8.63168
▁cyberattack	-8.63168
▁distancing	-8.63168
▁evidence	-8.63168
▁involv	-8.63168
▁own	-8.63169
▁recent	-8.63172
tensive	-8.63172
▁small	-8.63173
▁worse	-8.63174
ities	-8.63773
tric	-8.63794
▁arriv	-8.64404
▁stated	-8.64517
covid	-8.64647
eep	-8.65464
one	-8.65484
▁animal	-8.65572
ree	-8.65744
efore	-8.65837
ontact	-8.65839
▁treat	-8.65897
▁cluster	-8.65946
▁happen	-8.65946
▁separation	-8.65946
▁sneezing	-8.65946
▁perform	-8.65946
▁access	-8.65946
▁mobil	-8.65946
▁women	-8.65946
▁few	-8.6596
mental	-8.65994
▁prevention	-8.66141
▁astrazeneca	-8.66154
▁code	-8.66314
▁places	-8.6681
ud	-8.67868
came	-8.68128
▁put	-8.68261
eople	-8.68679
▁occur	-8.68798
▁exercise	-8.68803
▁potential	-8.68803
▁type	-8.68804
▁extend	-8.68804
▁variant	-8.68804
▁source	-8.68805
▁present	-8.68812
▁intermedia	-8.68817
▁effects	-8.68901
▁called	-8.69081
▁name	-8.69141
▁ju	-8.69399
▁And	-8.69917
▁months	-8.70193
ever	-8.70368
▁full	-8.70474
▁affect	-8.7061
▁groups	-8.70715
▁immediate	-8.71254
▁50	-8.71404
▁require	-8.71686
▁doses	-8.71698
▁already	-8.71744
▁antibodies	-8.71744
▁particular	-8.71744
▁distance	-8.71745
▁lung	-8.71745
▁outdoor	-8.71757
▁history	-8.71759
▁add	-8.72112
▁sent	-8.72266
▁j	-8.72303
▁his	-8.7238
▁now	-8.72584
▁anti	-8.73263
ital	-8.7354
▁her	-8.73563
▁needs	-8.74116
▁estimate	-8.74169
▁refer	-8.74205
▁effect	-8.74582
▁em	-8.74738
▁authorities	-8.74774
▁establish	-8.74774
▁exposure	-8.74774
▁natural	-8.74774
▁significant	-8.74774
▁temperature	-8.74774
▁primary	-8.74804
▁free	-8.75038
essential	-8.75239
▁estimated	-8.75384
▁chi	-8.75944
▁media	-8.76212
▁Ch	-8.76377
ccording	-8.76562
round	-8.76592
ition	-8.77143
▁whe	-8.77261
▁essential	-8.77422
▁ask	-8.77652
▁find	-8.77882
▁details	-8.77899
▁effort	-8.77899
▁medication	-8.77899
▁pangolin	-8.77899
▁pregnant	-8.77899
▁arrange	-8.779
▁indoor	-8.779
▁process	-8.779
▁initial	-8.77905
.30	-8.77932
▁levels	-8.77941
37	-8.77997
▁creat	-8.78066
▁31	-8.78129
▁imp	-8.78164
▁general	-8.78221
▁critical	-8.78286
▁protection	-8.78306
like	-8.78481
▁29	-8.78702
▁27	-8.78715
tant	-8.78983
▁mid	-8.79101
▁side	-8.79161
put	-8.79917
▁la	-8.80089
tory	-8.80254
▁'	-8.80333
48	-8.8035
▁practices	-8.80488
▁centres	-8.81064
▁hygiene	-8.81125
▁shopping	-8.81125
▁implement	-8.81125
▁serious	-8.81125
▁means	-8.81143
▁workplace	-8.81158
▁alone	-8.8118
▁sample	-8.81237
▁just	-8.81325
▁stage	-8.81346
part	-8.81584
▁minister	-8.81642
▁immediately	-8.81666
▁slow	-8.81673
coronavirus	-8.8182
▁count	-8.82302
ward	-8.82434
▁rates	-8.82436
▁according	-8.82525
▁spreading	-8.82637
▁dose	-8.82783
▁breathing	-8.82844
▁aged	-8.83031
term	-8.83087
▁detect	-8.83322
ological	-8.83752
▁medicine	-8.84458
▁special	-8.84458
▁Follow	-8.84458
▁household	-8.84458
▁cancelled	-8.8446
▁secondary	-8.84551
▁onset	-8.84555
▁Don	-8.84568
▁area	-8.84983
risk	-8.85309
ative	-8.85375
229	-8.857
▁provided	-8.86026
▁coronaviruses	-8.86089
▁best	-8.86929
▁ten	-8.87319
▁Un	-8.87907
▁adults	-8.87907
▁executive	-8.87907
▁gathering	-8.87907
▁pregnancy	-8.87907
▁crowd	-8.87907
▁hotel	-8.87908
▁link	-8.8791
▁season	-8.87911
▁rsc	-8.87942
▁good	-8.88015
▁president	-8.8812
▁trial	-8.88357
▁animals	-8.88377
▁post	-8.88517
▁leave	-8.88621
▁He	-8.88952
▁factors	-8.89362
▁eyes	-8.89367
▁india	-8.89389
▁east	-8.89536
▁limited	-8.89679
ept	-8.91114
lan	-8.91228
▁again	-8.91309
▁ye	-8.91459
▁Other	-8.91478
▁attack	-8.91478
▁brazil	-8.91478
▁business	-8.91478
▁necessary	-8.91478
▁programme	-8.91478
▁crisis	-8.91478
▁drink	-8.91478
▁location	-8.91478
▁monday	-8.91478
rcgp	-8.91479
▁cloth	-8.9148
▁depend	-8.91481
▁talk	-8.91482
▁gardaí	-8.91534
▁update	-8.91552
▁room	-8.91658
▁published	-8.91667
▁tell	-8.91671
▁officer	-8.91792
▁director	-8.91851
organ	-8.91881
▁screening	-8.92017
▁longer	-8.9231
18	-8.92323
▁read	-8.92552
▁send	-8.92677
relat	-8.92993
63	-8.93843
▁surfaces	-8.93964
pathogenic	-8.94082
▁manag	-8.94173
▁shar	-8.9427
▁causes	-8.94293
▁term	-8.94447
▁difficult	-8.94578
▁europe	-8.95027
▁analysis	-8.95182
▁mortality	-8.95182
▁suspend	-8.95182
▁observ	-8.95182
▁hubei	-8.95182
▁zoono	-8.95182
▁third	-8.95182
▁breach	-8.95183
▁left	-8.95185
▁check	-8.95186
▁delay	-8.95187
▁appear	-8.95199
38	-8.95337
20	-8.9535
▁los	-8.95355
▁north	-8.95389
▁Wear	-8.95833
▁line	-8.96626
▁asked	-8.96629
13	-8.9715
35	-8.97462
▁set	-8.97484
▁coughing	-8.98114
▁office	-8.9871
ocial	-8.98727
▁Use	-8.99028
▁What	-8.99028
▁activity	-8.99028
▁citizens	-8.99028
▁reservoir	-8.99028
▁Lo	-8.99028
▁guidelines	-8.99029
▁pressure	-8.9903
▁life	-8.99038
▁soap	-8.99038
▁paper	-8.9904
▁seven	-8.99041
▁began	-8.99042
▁drive	-8.99043
▁figures	-8.99059
▁deliver	-8.9906
▁lead	-8.99062
▁everyone	-8.99075
▁taking	-8.99087
▁tract	-8.99124
▁beta	-8.99136
▁severity	-8.99143
▁mich	-8.99167
▁That	-8.99254
▁asymptomatic	-8.99319
▁dry	-8.9938
▁handl	-8.99639
▁patient	-8.99833
▁practice	-8.99856
▁experience	-9.00096
▁started	-9.00693
▁cdc	-9.00711
▁try	-9.01112
ix	-9.01656
▁sea	-9.02433
▁approximate	-9.03028
▁certificate	-9.03028
▁complete	-9.03028
▁enough	-9.03028
▁increasing	-9.03028
▁mandatory	-9.03028
▁physical	-9.03028
▁receptor	-9.03028
▁restaurant	-9.03028
▁sequence	-9.03028
▁technology	-9.03028
▁university	-9.03028
▁Ne	-9.03028
▁studies	-9.03028
▁design	-9.03028
▁billion	-9.03028
▁multiple	-9.03028
▁Health	-9.03028
▁feet	-9.03039
▁older	-9.03048
hku	-9.03064
▁step	-9.03071
▁range	-9.03092
▁cities	-9.03249
▁phe	-9.03261
mit	-9.0339
▁six	-9.03468
▁ple	-9.03752
▁died	-9.03843
▁considered	-9.03946
fter	-9.04062
65	-9.04193
▁liv	-9.04486
ified	-9.0487
▁clinic	-9.06704
▁africa	-9.06724
▁prior	-9.07193
▁diagnosis	-9.07195
▁future	-9.07195
▁throat	-9.07195
▁middle	-9.07196
▁protest	-9.07197
▁strain	-9.07198
▁heart	-9.07201
▁toilet	-9.07207
▁isolated	-9.07224
▁single	-9.0727
▁rapidly	-9.07563
ood	-9.07568
▁offer	-9.07624
ility	-9.07733
▁serve	-9.08405
▁taken	-9.09013
▁species	-9.09355
▁infect	-9.10281
sars	-9.10758
▁arr	-9.10906
▁compar	-9.11035
ppe	-9.11081
47	-9.11216
hildren	-9.11397
▁Coronavirus	-9.11542
▁Late	-9.11542
▁certain	-9.11542
▁fatality	-9.11542
▁maintain	-9.11542
▁progress	-9.11542
▁situation	-9.11542
▁unknown	-9.11542
▁foot	-9.11543
▁camels	-9.11543
▁virology	-9.11543
▁address	-9.11543
▁course	-9.11544
▁france	-9.11546
▁prepar	-9.11546
▁outcome	-9.11547
▁ensure	-9.11551
▁walk	-9.11551
▁childcare	-9.11609
▁Sars	-9.1162
▁assessment	-9.11629
▁fast	-9.1165
xim	-9.11778
▁mass	-9.11952
▁soon	-9.12292
▁fall	-9.12559
▁reopening	-9.12609
95	-9.12673
▁disinfect	-9.13256
high	-9.13447
tro	-9.14279
▁method	-9.14294
19	-9.15158
hse	-9.15927
▁assess	-9.1601
▁Vir	-9.16088
▁Get	-9.16088
▁Go	-9.16088
▁describ	-9.16088
▁efficacy	-9.16088
▁elderly	-9.16088
▁province	-9.16088
▁supply	-9.16088
▁tissue	-9.16088
pfizer	-9.16088
▁droplets	-9.16088
▁foreign	-9.16088
▁minutes	-9.16088
▁think	-9.16088
▁text	-9.16089
▁demand	-9.1609
▁swab	-9.1609
▁function	-9.16091
▁guide	-9.16092
via	-9.161
▁warn	-9.16103
▁want	-9.16106
▁genetic	-9.16124
▁antiviral	-9.16133
▁shortage	-9.16201
▁extra	-9.16219
▁containment	-9.16334
▁relative	-9.1643
▁highest	-9.16508
ash	-9.16614
▁chain	-9.16615
▁removed	-9.16619
vas	-9.1671
▁difficulty	-9.16837
▁wide	-9.16986
▁reduced	-9.17515
▁symptom	-9.17562
45	-9.17569
▁surface	-9.1761
count	-9.18198
▁union	-9.18993
▁confirm	-9.19721
▁col	-9.20011
member	-9.20766
▁diarrhea	-9.2085
▁express	-9.2085
▁nationwide	-9.2085
▁saturday	-9.2085
▁supplies	-9.2085
▁college	-9.2085
▁sunday	-9.2085
▁japan	-9.20851
▁reason	-9.20851
▁Clean	-9.20852
▁play	-9.20855
▁occurred	-9.20858
▁things	-9.2086
▁parents	-9.20862
prevalen	-9.20867
▁clear	-9.20867
▁begin	-9.20881
▁else	-9.20883
▁homolog	-9.20886
▁commission	-9.20896
▁ship	-9.2101
▁store	-9.21112
sense	-9.21149
▁reach	-9.21199
▁ja	-9.21876
36	-9.22029
▁provider	-9.22743
▁consider	-9.2471
care	-9.24766
▁leav	-9.24816
q	-9.25545
▁Spe	-9.2564
▁amount	-9.2585
▁approved	-9.2585
▁diabetes	-9.2585
▁expert	-9.2585
▁families	-9.2585
▁november	-9.2585
▁sneeze	-9.2585
▁vulnerable	-9.2585
▁passenger	-9.2585
▁recogni	-9.2585
▁stephen	-9.2585
▁friday	-9.2585
▁message	-9.2585
▁regard	-9.2585
▁crown	-9.2585
central	-9.25851
▁trump	-9.25851
▁straight	-9.25851
▁percent	-9.25852
▁birth	-9.25853
▁model	-9.25856
▁half	-9.25861
▁better	-9.25868
▁smoke	-9.25869
▁entry	-9.25878
▁4,9	-9.25886
▁findings	-9.25915
33	-9.25916
▁members	-9.25939
ometimes	-9.26396
▁generally	-9.26655
row	-9.26762
▁nas	-9.26765
ference	-9.26875
66	-9.27308
▁notice	-9.27788
species	-9.28434
▁mak	-9.28599
most	-9.29711
99	-9.29909
▁reopen	-9.29924
▁Mak	-9.30073
▁remove	-9.305
▁port	-9.30954
aoiseach	-9.31113
expected	-9.31113
▁activities	-9.31113
▁california	-9.31113
▁decrease	-9.31113
▁encourag	-9.31113
▁evacuat	-9.31113
▁feature	-9.31113
▁kingdom	-9.31113
▁retail	-9.31113
▁review	-9.31113
▁schedule	-9.31113
▁universities	-9.31113
▁vector	-9.31113
▁mutation	-9.31113
▁protocol	-9.31113
▁standard	-9.31113
▁training	-9.31113
▁closing	-9.31114
▁determine	-9.31114
▁entire	-9.31114
spect	-9.31116
▁shut	-9.31121
▁chance	-9.31126
▁eea	-9.31146
▁anyone	-9.31264
▁Sever	-9.31371
▁law	-9.31386
▁released	-9.31666
▁weight	-9.31786
▁cancel	-9.31999
app	-9.32529
57	-9.33138
▁emerg	-9.33207
79	-9.33293
▁resu	-9.33453
▁ob	-9.33593
public	-9.34029
who	-9.3404
stay	-9.34082
▁rapid	-9.36178
artin	-9.36253
ports	-9.36266
▁inform	-9.36547
▁regula	-9.36666
diagnosed	-9.36668
▁australia	-9.36668
▁biontech	-9.36668
▁breast	-9.36668
▁distribut	-9.36668
▁facilities	-9.36668
▁failure	-9.36668
▁institute	-9.36668
▁problem	-9.36668
▁quickly	-9.36668
▁receiving	-9.36668
▁teachers	-9.36668
▁themselves	-9.36668
▁ventilation	-9.36668
▁With	-9.36669
▁conduct	-9.36669
▁contract	-9.36669
▁above	-9.36669
▁discuss	-9.36669
▁chron	-9.36669
acetam	-9.36669
▁except	-9.36669
▁russia	-9.36669
▁job	-9.3667
▁johnson	-9.3667
▁germany	-9.3667
▁disinfectant	-9.36671
▁internet	-9.36671
▁regulations	-9.36672
▁prim	-9.36674
▁dispos	-9.3668
▁inciden	-9.36687
nique	-9.36691
▁exist	-9.36698
▁4,8	-9.36715
▁criticis	-9.36795
▁leg	-9.36802
▁identi	-9.36841
planned	-9.37237
▁african	-9.37304
▁cost	-9.37671
▁individual	-9.39329
▁condition	-9.39344
▁swi	-9.39569
phone	-9.40015
aking	-9.40086
▁track	-9.40737
▁release	-9.41936
ymptomatic	-9.42214
mission	-9.42524
▁Avoid	-9.42551
▁alcohol	-9.42551
▁appropriate	-9.42551
▁candidate	-9.42551
▁employer	-9.42551
▁gloves	-9.42551
▁moderna	-9.42551
▁subject	-9.42551
▁widespread	-9.42551
▁worried	-9.42551
knowledge	-9.42551
▁damage	-9.42551
▁difference	-9.42551
▁improve	-9.42551
▁spain	-9.42551
▁understand	-9.42552
▁either	-9.42552
▁privacy	-9.42553
▁reaction	-9.42554
▁decide	-9.42555
▁together	-9.42556
▁transmitted	-9.42557
▁drop	-9.42559
▁fund	-9.42562
▁Comm	-9.42563
▁active	-9.42574
▁cancer	-9.42593
ntigen	-9.42611
▁lack	-9.42698
time	-9.43058
▁More	-9.43085
▁action	-9.43286
▁conv	-9.43988
▁compa	-9.44409
▁Tak	-9.44965
inflammat	-9.45731
cdc	-9.46195
▁Visit	-9.48801
▁Whi	-9.48801
▁building	-9.48801
▁combination	-9.48801
▁envelope	-9.48801
▁mitigation	-9.48801
▁september	-9.48801
▁statistic	-9.48801
▁thousand	-9.48801
▁anonymous	-9.48801
▁material	-9.48801
▁Restrict	-9.48801
▁secret	-9.48801
▁approach	-9.48801
▁federal	-9.48801
▁introduced	-9.48801
▁instead	-9.48802
▁priva	-9.48802
▁focus	-9.48802
▁basis	-9.48803
▁minim	-9.48804
▁From	-9.48806
spite	-9.48806
cular	-9.48809
▁spend	-9.48811
acquir	-9.48813
▁consist	-9.48814
▁look	-9.48814
▁temporary	-9.48823
▁thus	-9.48833
▁visitors	-9.48838
vision	-9.48863
▁disruption	-9.48879
▁kill	-9.48967
▁Thus	-9.49051
▁month	-9.52241
▁previous	-9.54983
cumulati	-9.55432
▁capacity	-9.55468
▁challeng	-9.55468
▁claimed	-9.55468
▁danger	-9.55468
▁exclud	-9.55468
▁institutions	-9.55468
▁investigation	-9.55468
▁policy	-9.55468
▁procedures	-9.55468
▁spike	-9.55468
dependent	-9.55468
▁Protect	-9.55468
▁cultur	-9.55468
▁environment	-9.55468
▁network	-9.55468
▁border	-9.55468
▁muscle	-9.55468
▁imposed	-9.55468
▁space	-9.55468
▁therapy	-9.55468
▁option	-9.5547
▁travellers	-9.5547
▁smell	-9.55474
▁turn	-9.55477
▁hard	-9.55478
▁upper	-9.55482
▁dehydration	-9.55534
ffic	-9.55758
▁trace	-9.55778
▁rise	-9.55808
gov	-9.55934
school	-9.59961
dow	-9.60553
▁minist	-9.61967
▁proper	-9.62132
▁transmit	-9.62603
▁Where	-9.6261
▁prescription	-9.6261
transcript	-9.6261
▁Infect	-9.6261
▁School	-9.6261
▁application	-9.6261
▁discovered	-9.6261
▁gradually	-9.6261
▁pharmacist	-9.6261
▁precaution	-9.6261
▁questions	-9.6261
▁respond	-9.6261
▁separate	-9.6261
▁target	-9.6261
▁typical	-9.6261
▁decision	-9.62611
▁holiday	-9.62611
▁random	-9.62611
▁accept	-9.62611
▁connection	-9.62611
▁shops	-9.62611
▁letter	-9.62611
▁york	-9.62611
▁request	-9.62611
▁reliable	-9.62611
▁video	-9.62612
▁basic	-9.62612
▁regularly	-9.62613
▁alpha	-9.62613
▁mrna	-9.62614
▁version	-9.62615
▁Talk	-9.62616
▁Face	-9.62619
▁successful	-9.62622
▁civet	-9.6264
▁buy	-9.62644
▁coding	-9.62662
▁nations	-9.62672
▁tele	-9.6272
ards	-9.62846
mption	-9.63289
▁pathogen	-9.64804
media	-9.65104
▁gene	-9.65381
▁factor	-9.67085
▁student	-9.67096
▁eye	-9.67122
work	-9.67649
including	-9.67662
▁requir	-9.67715
year	-9.67804
ardaí	-9.70183
hylogenetic	-9.70303
tructural	-9.70303
▁Symptoms	-9.70303
▁agencies	-9.70303
▁authority	-9.70303
▁classes	-9.70303
▁complications	-9.70303
▁cruise	-9.70303
▁domestic	-9.70303
▁explain	-9.70303
▁hazard	-9.70303
▁hundred	-9.70303
▁recombination	-9.70303
▁resources	-9.70303
▁scientific	-9.70303
▁wednesday	-9.70303
▁multi	-9.70303
▁facility	-9.70303
▁contrast	-9.70303
▁routine	-9.70303
▁okay	-9.70303
▁cancellation	-9.70303
▁administration	-9.70303
▁preparedness	-9.70304
▁interaction	-9.70304
▁earlie	-9.70304
▁issues	-9.70304
▁strong	-9.70304
▁next	-9.70305
cubation	-9.70305
▁saying	-9.70305
▁break	-9.70306
▁throw	-9.70307
exposed	-9.70308
▁sitting	-9.70309
▁anything	-9.70317
▁along	-9.70322
▁sites	-9.70324
strand	-9.70332
▁bind	-9.70337
▁signals	-9.70344
▁racis	-9.70345
▁towel	-9.70349
▁surgi	-9.70354
▁barr	-9.71209
▁4,6	-9.7281
town	-9.74134
▁inflamma	-9.74244
▁emergenc	-9.74775
▁measure	-9.75435
place	-9.75918
lockdown	-9.75979
human	-9.75987
where	-9.75992
▁screen	-9.77359
▁critic	-9.77397
▁quarantin	-9.77964
pharmac	-9.7862
irborne	-9.78636
▁Everyone	-9.78636
▁Patients	-9.78636
▁accurate	-9.78636
▁antibody	-9.78636
▁committee	-9.78636
▁construct	-9.78636
▁contaminat	-9.78636
▁coordinat	-9.78636
▁demonstrate	-9.78636
▁electron	-9.78636
▁funeral	-9.78636
▁obtain	-9.78636
▁oxygen	-9.78636
▁specimen	-9.78636
▁ventilator	-9.78636
▁Short	-9.78636
▁advance	-9.78636
▁agency	-9.78636
▁church	-9.78636
▁prompt	-9.78636
political	-9.78636
▁Travel	-9.78636
▁launch	-9.78636
▁smoking	-9.78636
▁ahead	-9.78636
▁communities	-9.78636
▁psych	-9.78636
▁pubs	-9.78637
▁window	-9.78637
▁frame	-9.78637
▁infant	-9.78639
▁settings	-9.7864
▁worry	-9.7864
▁items	-9.7864
▁identify	-9.7864
▁kong	-9.78642
▁Since	-9.78644
▁bann	-9.78652
▁why	-9.78667
▁partner	-9.78673
▁4,7	-9.78699
▁fear	-9.78702
worth	-9.78708
▁rule	-9.7891
uba	-9.79027
▁4,5	-9.79125
▁Medica	-9.79591
▁generate	-9.80486
ilita	-9.80652
chang	-9.8183
▁probabl	-9.8363
open	-9.84365
latin	-9.85495
election	-9.86489
▁practi	-9.87583
utdoor	-9.87686
▁Exercise	-9.87727
▁Work	-9.87727
▁attempt	-9.87727
▁bluetooth	-9.87727
▁bronchitis	-9.87727
▁contagious	-9.87727
▁cytokine	-9.87727
▁distress	-9.87727
▁employee	-9.87727
▁facilitat	-9.87727
▁ibuprofen	-9.87727
▁imaging	-9.87727
▁industry	-9.87727
▁instructions	-9.87727
▁membrane	-9.87727
▁nutrients	-9.87727
▁platform	-9.87727
▁polymerase	-9.87727
▁possibilit	-9.87727
▁postponed	-9.87727
▁preliminary	-9.87727
▁sporting	-9.87727
▁strengthen	-9.87727
▁therapeutic	-9.87727
▁prison	-9.87727
▁relief	-9.87727
▁gastro	-9.87727
▁annual	-9.87727
▁companies	-9.87728
▁pollen	-9.87728
▁secure	-9.87728
▁twice	-9.87728
▁scheme	-9.87728
▁upload	-9.87728
chloro	-9.87729
▁ratio	-9.87729
▁management	-9.87729
▁missing	-9.8773
▁answer	-9.8773
▁sleep	-9.87731
▁Stand	-9.87732
▁bank	-9.87732
▁promis	-9.87733
▁trends	-9.87735
▁cork	-9.87739
▁exceed	-9.8774
▁admission	-9.87744
▁image	-9.87744
▁pharmacy	-9.87745
▁kind	-9.87745
▁mother	-9.8775
▁diverge	-9.87752
▁bag	-9.87755
▁scan	-9.87776
▁suit	-9.8778
onnect	-9.87921
▁Comp	-9.88036
escent	-9.88043
ssiona	-9.91211
agh	-9.91916
generat	-9.91965
▁provid	-9.92582
general	-9.95056
▁possibl	-9.96873
figure	-9.97644
▁threat	-9.97715
▁enforce	-9.97727
▁Additional	-9.97727
▁Antibiotics	-9.97727
▁Privacy	-9.97727
▁aerosol	-9.97727
▁attractions	-9.97727
▁attribut	-9.97727
▁circumstances	-9.97727
▁colleagues	-9.97727
▁complex	-9.97727
▁compound	-9.97727
▁economy	-9.97727
▁epidemiological	-9.97727
▁glasses	-9.97727
▁headache	-9.97727
▁hospitalization	-9.97727
▁implications	-9.97727
▁moderate	-9.97727
▁netherlands	-9.97727
▁permitted	-9.97727
▁project	-9.97727
▁reduction	-9.97727
▁religious	-9.97727
▁replication	-9.97727
▁sampling	-9.97727
▁surpass	-9.97727
▁xenophobia	-9.97727
clusion	-9.97727
▁represent	-9.97727
▁financi	-9.97727
▁growth	-9.97727
▁participati	-9.97727
▁england	-9.97727
▁overweight	-9.97727
▁comparison	-9.97728
▁predict	-9.97728
▁mechani	-9.97728
▁inhibit	-9.97728
▁unesco	-9.97728
comfortable	-9.97728
▁arabia	-9.97728
▁amino	-9.97729
▁task	-9.97729
▁police	-9.97729
▁front	-9.97729
▁decline	-9.9773
length	-9.9773
▁stress	-9.9773
▁charge	-9.97731
▁balance	-9.97732
▁tracing	-9.97733
▁catch	-9.97733
▁alarm	-9.97734
ntroduc	-9.97735
▁worst	-9.97738
▁rbd	-9.97744
ouble	-9.97794
average	-9.97958
▁Hav	-9.98078
drome	-9.98353
▁trade	-9.99328
spira	-9.99848
testin	-10.0162
audi	-10.0167
direct	-10.0616
quarantine	-10.0619
uppression	-10.0722
linical	-10.087
í	-10.0883
▁diploma	-10.0884
▁festival	-10.0884
▁object	-10.0884
ccupational	-10.0884
▁Continue	-10.0884
▁Current	-10.0884
▁Practice	-10.0884
▁alpaca	-10.0884
▁association	-10.0884
▁breastfeeding	-10.0884
▁conclude	-10.0884
▁council	-10.0884
▁energy	-10.0884
▁evaluat	-10.0884
▁extreme	-10.0884
▁joint	-10.0884
▁notification	-10.0884
▁nutrition	-10.0884
▁pattern	-10.0884
▁policies	-10.0884
▁professional	-10.0884
▁purchase	-10.0884
▁respectively	-10.0884
▁society	-10.0884
▁strategy	-10.0884
▁stretch	-10.0884
▁territories	-10.0884
▁ticket	-10.0884
▁traditional	-10.0884
▁unemployment	-10.0884
▁vomiting	-10.0884
▁website	-10.0884
▁particles	-10.0884
▁quality	-10.0884
▁venues	-10.0884
▁delta	-10.0884
▁behind	-10.0884
▁communication	-10.0884
▁patrick	-10.0884
correct	-10.0884
▁Human	-10.0884
▁status	-10.0884
▁taste	-10.0884
▁Check	-10.0884
▁canadian	-10.0884
bridge	-10.0884
▁2012	-10.0884
▁street	-10.0884
▁broad	-10.0884
matical	-10.0889
nctions	-10.0905
probably	-10.1427
▁experienc	-10.1779
▁disrupt	-10.2118
▁communi	-10.2131
▁garda	-10.2133
▁accompan	-10.2134
▁administrator	-10.2134
▁disappear	-10.2134
▁registration	-10.2134
ransmissible	-10.2134
▁Direct	-10.2134
▁Respiratory	-10.2134
▁Similar	-10.2134
▁campus	-10.2134
▁christian	-10.2134
▁concerts	-10.2134
▁consultation	-10.2134
▁contribut	-10.2134
▁curfew	-10.2134
▁examinations	-10.2134
▁google	-10.2134
▁journal	-10.2134
▁libraries	-10.2134
▁limerick	-10.2134
▁municipal	-10.2134
▁october	-10.2134
▁organisation	-10.2134
▁plastic	-10.2134
▁radiograph	-10.2134
▁reflect	-10.2134
▁register	-10.2134
▁responsib	-10.2134
▁sanitizer	-10.2134
▁security	-10.2134
C	-10.6972
I	-11.7802
A	-11.7804
’	-12.7794
V	-12.7795
U	-12.7796
G	-12.7797
–	-12.7798
N	-12.7799
L	-12.78
/	-12.7801
E	-12.7802
R	-12.7803
F	-12.7804
B	-12.7805
%	-12.7806
M	-12.7807
P	-12.7808
D	-12.7809
Y	-12.781
W	-12.7811
O	-12.7812
S	-12.7813
(	-12.7814
H	-12.7815
T	-12.7815
