<pad>	0
</s>	0
<unk>	0
▁¦	-0
▁𐋇	-1
▁,	-2
st	-3
ho	-4
▁.	-5
je	-6
po	-7
ne	-8
li	-9
ch	-10
te	-11
na	-12
se	-13
ro	-14
ov	-15
ní	-16
by	-17
ou	-18
ra	-19
to	-20
al	-21
ak	-22
ře	-23
ti	-24
ni	-25
sv	-26
de	-27
še	-28
do	-29
le	-30
di	-31
že	-32
ně	-33
ce	-34
bo	-35
la	-36
mu	-37
ři	-38
ji	-39
sk	-40
mi	-41
za	-42
kte	-43
rá	-44
ří	-45
▁:	-46
pro	-47
ze	-48
bu	-49
ve	-50
ko	-51
ého	-52
no	-53
od	-54
vy	-55
spo	-56
ví	-57
lo	-58
me	-59
hospo	-60
hospodi	-61
ná	-62
vi	-63
sl	-64
mě	-65
vá	-66
ka	-67
dy	-68
při	-69
jí	-70
vě	-71
jest	-72
dě	-73
či	-74
sy	-75
vše	-76
va	-77
ých	-78
hospodin	-79
ob	-80
ma	-81
jeho	-82
tě	-83
da	-84
▁;	-85
ru	-86
sta	-87
kter	-88
mo	-89
aby	-90
tak	-91
pak	-92
pře	-93
du	-94
be	-95
bude	-96
js	-97
vo	-98
ží	-99
pra	-100
ci	-101
syn	-102
nebo	-103
ta	-104
jak	-105
sti	-106
sem	-107
če	-108
řek	-109
ku	-110
krá	-111
tí	-112
lu	-113
pa	-114
ži	-115
tv	-116
jsem	-117
dí	-118
ova	-119
ky	-120
ale	-121
▁?	-122
el	-123
kdy	-124
cí	-125
své	-126
ha	-127
né	-128
lé	-129
nu	-130
ým	-131
jich	-132
byl	-133
řekl	-134
ši	-135
ší	-136
iz	-137
dá	-138
když	-139
ty	-140
sa	-141
ovi	-142
ny	-143
ové	-144
cho	-145
roz	-146
jako	-147
před	-148
izra	-149
obě	-150
který	-151
všec	-152
má	-153
kterýž	-154
sí	-155
kteří	-156
ný	-157
mí	-158
mé	-159
já	-160
lá	-161
lov	-162
ká	-163
jejich	-164
ste	-165
kteříž	-166
co	-167
lí	-168
dou	-169
zá	-170
ůj	-171
ům	-172
izrael	-173
zal	-174
il	-175
tu	-176
éž	-177
den	-178
tedy	-179
jsou	-180
bě	-181
proto	-182
pá	-183
nou	-184
mlu	-185
dl	-186
bra	-187
kdo	-188
ten	-189
slu	-190
mne	-191
uči	-192
ani	-193
ské	-194
ke	-195
dce	-196
svého	-197
ství	-198
stu	-199
toho	-200
děl	-201
cha	-202
ry	-203
tá	-204
ním	-205
hla	-206
tr	-207
pe	-208
šel	-209
proti	-210
bů	-211
pří	-212
rou	-213
zi	-214
sto	-215
pu	-216
sá	-217
jo	-218
ri	-219
on	-220
dob	-221
kteréž	-222
jsi	-223
jim	-224
nad	-225
bi	-226
pod	-227
bůh	-228
ot	-229
jemu	-230
země	-231
kou	-232
mno	-233
žíš	-234
také	-235
budou	-236
až	-237
re	-238
zemi	-239
stá	-240
hu	-241
dne	-242
jed	-243
vil	-244
lid	-245
protož	-246
áš	-247
nil	-248
ště	-249
byli	-250
ného	-251
praví	-252
což	-253
dal	-254
sly	-255
sr	-256
svě	-257
tobě	-258
té	-259
pr	-260
su	-261
si	-262
mou	-263
tom	-264
vám	-265
alo	-266
jej	-267
ští	-268
pě	-269
kaž	-270
tvé	-271
izraelsk	-272
lik	-273
vý	-274
král	-275
stí	-276
aj	-277
ník	-278
zí	-279
bylo	-280
dli	-281
ba	-282
sou	-283
žeb	-284
he	-285
služeb	-286
odpo	-287
vu	-288
poko	-289
pí	-290
davi	-291
nov	-292
svou	-293
chá	-294
bý	-295
domu	-296
hl	-297
my	-298
každ	-299
žá	-300
kni	-301
boha	-302
zd	-303
hle	-304
val	-305
jmé	-306
svých	-307
ju	-308
boží	-309
jte	-310
čí	-311
sva	-312
něm	-313
tvá	-314
dali	-315
vás	-316
všech	-317
ja	-318
vé	-319
koli	-320
dil	-321
synové	-322
kně	-323
vz	-324
david	-325
ovo	-326
šli	-327
synů	-328
sobě	-329
sm	-330
lově	-331
obět	-332
ův	-333
ráž	-334
člově	-335
vši	-336
stou	-337
vod	-338
stě	-339
so	-340
ných	-341
pl	-342
mezi	-343
zu	-344
lou	-345
nem	-346
vedl	-347
stře	-348
fa	-349
lidu	-350
muž	-351
mně	-352
ly	-353
jste	-354
spra	-355
tří	-356
oval	-357
všecky	-358
che	-359
pů	-360
zná	-361
stří	-362
pi	-363
neb	-364
náro	-365
těch	-366
moj	-367
syna	-368
bez	-369
jící	-370
zalé	-371
můj	-372
vr	-373
nej	-374
sté	-375
jeru	-376
jeruzalé	-377
chu	-378
ckni	-379
všickni	-380
ovati	-381
eg	-382
mluvil	-383
ča	-384
hro	-385
ct	-386
ými	-387
skr	-388
hospodinu	-389
králov	-390
sil	-391
dva	-392
krále	-393
bá	-394
ských	-395
oči	-396
vrá	-397
um	-398
byla	-399
nich	-400
kteráž	-401
sed	-402
aniž	-403
bou	-404
yp	-405
hy	-406
žád	-407
ského	-408
sla	-409
kra	-410
egyp	-411
slou	-412
řka	-413
její	-414
kdož	-415
všecko	-416
jeden	-417
velik	-418
mojžíš	-419
lení	-420
jsme	-421
tři	-422
nost	-423
skrze	-424
jud	-425
stra	-426
nás	-427
bí	-428
nebude	-429
jde	-430
srdce	-431
vš	-432
potom	-433
kní	-434
ruh	-435
jedno	-436
není	-437
kla	-438
jisté	-439
kázal	-440
odpově	-441
proro	-442
vů	-443
zů	-444
zna	-445
hospodina	-446
služební	-447
zajisté	-448
hří	-449
budu	-450
tam	-451
ků	-452
nebe	-453
kr	-454
něho	-455
stalo	-456
zdali	-457
▁(	-458
eli	-459
pou	-460
však	-461
jakž	-462
ježíš	-463
než	-464
tvůj	-465
nech	-466
učinil	-467
sedm	-468
nosti	-469
an	-470
dž	-471
jen	-472
ský	-473
milo	-474
chi	-475
cháze	-476
tel	-477
tek	-478
věci	-479
ode	-480
dům	-481
men	-482
nám	-483
kterou	-484
ovali	-485
pět	-486
měl	-487
tebe	-488
svým	-489
kri	-490
jíce	-491
usta	-492
tře	-493
tý	-494
jméno	-495
há	-496
svému	-497
nepo	-498
živo	-499
ctví	-500
otce	-501
více	-502
již	-503
města	-504
druh	-505
nyní	-506
kterouž	-507
ať	-508
zla	-509
tisí	-510
každý	-511
ová	-512
hospodinov	-513
prostře	-514
řá	-515
sli	-516
ců	-517
hně	-518
naše	-519
prav	-520
vali	-521
ele	-522
králi	-523
něj	-524
bratří	-525
prostřed	-526
pal	-527
shro	-528
mod	-529
ote	-530
vedli	-531
budeš	-532
nili	-533
zo	-534
pil	-535
pla	-536
vaše	-537
mého	-538
tím	-539
vol	-540
dr	-541
til	-542
lil	-543
žil	-544
ol	-545
tomu	-546
jestli	-547
jakož	-548
vel	-549
vati	-550
novi	-551
záko	-552
přišel	-553
zl	-554
hne	-555
aneb	-556
dobr	-557
toto	-558
egypt	-559
jestliže	-560
muži	-561
bohu	-562
desá	-563
pusti	-564
dní	-565
pokolení	-566
ská	-567
moc	-568
dědi	-569
řkou	-570
stal	-571
jenž	-572
fi	-573
nů	-574
vsta	-575
ža	-576
uje	-577
abych	-578
bil	-579
oni	-580
zástu	-581
svo	-582
ještě	-583
hou	-584
posl	-585
budete	-586
tvých	-587
takto	-588
máž	-589
sku	-590
čty	-591
shromáž	-592
řel	-593
posta	-594
man	-595
podlé	-596
ným	-597
živ	-598
prá	-599
spa	-600
němu	-601
slovo	-602
tra	-603
vili	-604
nic	-605
ken	-606
vaši	-607
řekli	-608
buď	-609
kem	-610
hr	-611
vra	-612
děla	-613
obrá	-614
tého	-615
všecken	-616
sau	-617
svá	-618
mnou	-619
kníža	-620
poč	-621
oltá	-622
býti	-623
hli	-624
mil	-625
pos	-626
tebou	-627
tku	-628
odpověděl	-629
zem	-630
kde	-631
nale	-632
ruku	-633
navrá	-634
voj	-635
služebník	-636
uče	-637
dění	-638
set	-639
svůj	-640
br	-641
hospodinova	-642
děli	-643
hřích	-644
nepra	-645
nimi	-646
ostří	-647
království	-648
vez	-649
kol	-650
slova	-651
svobo	-652
vší	-653
syny	-654
poš	-655
též	-656
místo	-657
pravím	-658
neu	-659
zdaliž	-660
spravedl	-661
smr	-662
čele	-663
národ	-664
liž	-665
poslal	-666
aro	-667
hospodine	-668
svém	-669
tvého	-670
slá	-671
žel	-672
dili	-673
ruce	-674
bož	-675
pově	-676
tky	-677
spravedli	-678
ješ	-679
zase	-680
zy	-681
brá	-682
cích	-683
vost	-684
pole	-685
abyste	-686
sty	-687
synu	-688
neči	-689
oby	-690
mr	-691
kněží	-692
abys	-693
ga	-694
zdvi	-695
jáko	-696
bydli	-697
let	-698
přá	-699
všecka	-700
izraelský	-701
šť	-702
dceti	-703
skému	-704
muže	-705
měsí	-706
vní	-707
viděl	-708
člověka	-709
áb	-710
▁)	-711
člověk	-712
uz	-713
žeh	-714
panov	-715
synům	-716
oh	-717
sám	-718
tvr	-719
věky	-720
chle	-721
roze	-722
činí	-723
kři	-724
niti	-725
oběti	-726
dem	-727
slyše	-728
tento	-729
dro	-730
áše	-731
slov	-732
žení	-733
pán	-734
čně	-735
fili	-736
zp	-737
lon	-738
neboť	-739
čtyři	-740
vyš	-741
svými	-742
všelik	-743
vadž	-744
duše	-745
star	-746
veli	-747
bezbož	-748
velmi	-749
stro	-750
nice	-751
alá	-752
dej	-753
dlé	-754
jem	-755
požeh	-756
mž	-757
dám	-758
čas	-759
přikázal	-760
izraelských	-761
mých	-762
izraele	-763
sebe	-764
viti	-765
ským	-766
tř	-767
vza	-768
vosti	-769
as	-770
sob	-771
čež	-772
sko	-773
dělal	-774
jednoho	-775
ano	-776
saul	-777
nství	-778
poně	-779
chvá	-780
pome	-781
vají	-782
měli	-783
ozná	-784
které	-785
rukou	-786
im	-787
loval	-788
dvě	-789
šed	-790
jdou	-791
množ	-792
otec	-793
veliké	-794
bývá	-795
vidí	-796
vysvobo	-797
poněvadž	-798
pení	-799
smlou	-800
šle	-801
pokoj	-802
vůkol	-803
mnoh	-804
dědictví	-805
pána	-806
přišli	-807
jíti	-808
níci	-809
vzal	-810
zvě	-811
dělá	-812
izraelští	-813
kdež	-814
stech	-815
vou	-816
abra	-817
baby	-818
domě	-819
žádného	-820
rodi	-821
vody	-822
ložil	-823
nechť	-824
nepřá	-825
stane	-826
doby	-827
ových	-828
pročež	-829
tů	-830
nemo	-831
žíše	-832
stoupi	-833
slyš	-834
jísti	-835
očima	-836
tohoto	-837
slyšel	-838
nác	-839
zlo	-840
bych	-841
stin	-842
sal	-843
šalo	-844
milosr	-845
šalomou	-846
ruky	-847
svět	-848
nce	-849
nim	-850
řkouce	-851
vese	-852
ženy	-853
přiká	-854
kterého	-855
filistin	-856
mor	-857
stý	-858
chom	-859
podob	-860
zápal	-861
hře	-862
leví	-863
napl	-864
proč	-865
chází	-866
zástupů	-867
mojžíšovi	-868
vámi	-869
tru	-870
vím	-871
fara	-872
žena	-873
činil	-874
jdi	-875
těm	-876
tele	-877
nější	-878
učedl	-879
množství	-880
kudž	-881
chli	-882
dobré	-883
vedlé	-884
obyva	-885
brž	-886
nevě	-887
otc	-888
pane	-889
denství	-890
milosrdenství	-891
abi	-892
psá	-893
zlé	-894
mužů	-895
nevy	-896
tiž	-897
ef	-898
plé	-899
syr	-900
hned	-901
noci	-902
ování	-903
hospodinem	-904
ami	-905
dov	-906
iáš	-907
vola	-908
jákob	-909
zdra	-910
žádný	-911
knížata	-912
opět	-913
zplo	-914
tež	-915
hlas	-916
město	-917
posvě	-918
manžel	-919
hor	-920
soud	-921
tisíc	-922
aza	-923
dím	-924
mení	-925
jehož	-926
ab	-927
nal	-928
mar	-929
žili	-930
každého	-931
dnů	-932
kněz	-933
moci	-934
nému	-935
panovník	-936
byly	-937
léta	-938
pakli	-939
umřel	-940
han	-941
moře	-942
ních	-943
rozu	-944
kníže	-945
dé	-946
mů	-947
míti	-948
am	-949
půj	-950
bože	-951
milu	-952
kteréhož	-953
ač	-954
váš	-955
věč	-956
duch	-957
jeruzaléma	-958
kvr	-959
chem	-960
joze	-961
první	-962
přijde	-963
rak	-964
tvo	-965
posle	-966
ustanov	-967
nes	-968
tma	-969
svěde	-970
bys	-971
šla	-972
děti	-973
abraha	-974
blá	-975
všeho	-976
děv	-977
měsíce	-978
života	-979
meče	-980
naši	-981
vání	-982
působ	-983
ge	-984
py	-985
hů	-986
kro	-987
liko	-988
nežli	-989
jeruzalémě	-990
naz	-991
sím	-992
vla	-993
žen	-994
kové	-995
totiž	-996
všeli	-997
obra	-998
řeči	-999
každé	-1000
kristu	-1001
toliko	-1002
tých	-1003
trá	-1004
ven	-1005
vlá	-1006
diti	-1007
dnes	-1008
stán	-1009
zabi	-1010
mnoho	-1011
tvoji	-1012
boj	-1013
nách	-1014
kal	-1015
ska	-1016
tili	-1017
táhl	-1018
ducha	-1019
jeruzalém	-1020
kry	-1021
teh	-1022
řil	-1023
beni	-1024
tělo	-1025
nebylo	-1026
egyptské	-1027
bro	-1028
jal	-1029
lem	-1030
slyší	-1031
ona	-1032
vej	-1033
času	-1034
nul	-1035
srd	-1036
chrá	-1037
hoře	-1038
volal	-1039
hospodinovo	-1040
dla	-1041
hra	-1042
mluví	-1043
dech	-1044
našeho	-1045
pozdvi	-1046
šti	-1047
nové	-1048
mám	-1049
vět	-1050
této	-1051
stavě	-1052
bet	-1053
věc	-1054
otci	-1055
moudro	-1056
prchli	-1057
podle	-1058
spolu	-1059
tváři	-1060
čer	-1061
mají	-1062
vašich	-1063
hej	-1064
lej	-1065
zaní	-1066
tou	-1067
nená	-1068
druhé	-1069
zue	-1070
řeč	-1071
jozue	-1072
stoupil	-1073
eze	-1074
ďte	-1075
slav	-1076
kraji	-1077
krista	-1078
hem	-1079
ješto	-1080
desáte	-1081
služebníci	-1082
dra	-1083
chet	-1084
jozef	-1085
pustil	-1086
mluviti	-1087
svědectví	-1088
příby	-1089
náš	-1090
půl	-1091
šil	-1092
přes	-1093
těla	-1094
us	-1095
čeho	-1096
spase	-1097
dokudž	-1098
poškvr	-1099
kří	-1100
tato	-1101
věcí	-1102
výcho	-1103
ustanove	-1104
vede	-1105
dří	-1106
tem	-1107
tvář	-1108
šení	-1109
díl	-1110
mla	-1111
ního	-1112
rovi	-1113
tvou	-1114
zení	-1115
dcery	-1116
šlechet	-1117
řekla	-1118
hospodinův	-1119
mat	-1120
dobře	-1121
pohle	-1122
zplodil	-1123
shromáždění	-1124
ké	-1125
nese	-1126
prorok	-1127
babylon	-1128
davidovi	-1129
nutí	-1130
otev	-1131
prvo	-1132
všechněm	-1133
cen	-1134
dni	-1135
šest	-1136
smrti	-1137
izraelského	-1138
místě	-1139
příči	-1140
zlého	-1141
▁),	-1142
poha	-1143
pomí	-1144
kterak	-1145
starší	-1146
em	-1147
dar	-1148
acha	-1149
telé	-1150
ježíše	-1151
způsob	-1152
heň	-1153
jor	-1154
lak	-1155
oheň	-1156
seme	-1157
dobro	-1158
přede	-1159
učiní	-1160
poušti	-1161
prosím	-1162
chy	-1163
chová	-1164
jordá	-1165
nepři	-1166
nácte	-1167
efra	-1168
sebou	-1169
svaty	-1170
nešlechet	-1171
izraelským	-1172
zje	-1173
zko	-1174
jménu	-1175
učině	-1176
kre	-1177
ýma	-1178
modli	-1179
národy	-1180
abraham	-1181
kraloval	-1182
ovu	-1183
sky	-1184
táh	-1185
říka	-1186
chiáš	-1187
abychom	-1188
dlo	-1189
klá	-1190
odí	-1191
pánu	-1192
dosti	-1193
vyšší	-1194
nepravost	-1195
měst	-1196
polo	-1197
pol	-1198
služ	-1199
srdci	-1200
obětovati	-1201
nedo	-1202
odě	-1203
duši	-1204
hova	-1205
nání	-1206
veliký	-1207
blí	-1208
rci	-1209
dává	-1210
umře	-1211
anděl	-1212
oha	-1213
vni	-1214
poto	-1215
lidem	-1216
nichž	-1217
puště	-1218
silný	-1219
gá	-1220
dle	-1221
jsa	-1222
nade	-1223
život	-1224
stánku	-1225
hoj	-1226
mal	-1227
zka	-1228
přední	-1229
oko	-1230
zen	-1231
berá	-1232
hory	-1233
mana	-1234
moáb	-1235
otců	-1236
vyšel	-1237
zákona	-1238
ostříha	-1239
všeliké	-1240
doko	-1241
dlí	-1242
tud	-1243
osta	-1244
chodí	-1245
vnitř	-1246
vyhla	-1247
ovy	-1248
bliž	-1249
neza	-1250
vedu	-1251
psáno	-1252
osm	-1253
sví	-1254
cizí	-1255
jazy	-1256
krev	-1257
vého	-1258
hlasu	-1259
třetí	-1260
slí	-1261
prvé	-1262
pustí	-1263
těl	-1264
nými	-1265
pora	-1266
stup	-1267
lek	-1268
němž	-1269
oblí	-1270
robo	-1271
brány	-1272
svaté	-1273
odpoví	-1274
dve	-1275
vně	-1276
amen	-1277
poma	-1278
vyvo	-1279
ústa	-1280
ar	-1281
meč	-1282
ohav	-1283
svěd	-1284
přikázaní	-1285
hal	-1286
ket	-1287
ují	-1288
níků	-1289
nění	-1290
cesty	-1291
loket	-1292
beniami	-1293
nejvyšší	-1294
spravedlnost	-1295
rej	-1296
moji	-1297
nýbrž	-1298
božího	-1299
učinili	-1300
klo	-1301
ždy	-1302
řeče	-1303
hlavu	-1304
hleda	-1305
ačkoli	-1306
učiním	-1307
mohl	-1308
mord	-1309
necha	-1310
slunce	-1311
odtud	-1312
národů	-1313
druhého	-1314
or	-1315
dny	-1316
hlu	-1317
žal	-1318
vyso	-1319
milost	-1320
řkoucí	-1321
nebudeš	-1322
lič	-1323
achi	-1324
mluv	-1325
námi	-1326
pokr	-1327
sama	-1328
městě	-1329
bratra	-1330
straně	-1331
dů	-1332
zpě	-1333
ání	-1334
ňte	-1335
tvým	-1336
smlouvu	-1337
ční	-1338
jiné	-1339
vždy	-1340
mlá	-1341
levít	-1342
nouti	-1343
egypta	-1344
spravedlnosti	-1345
str	-1346
úst	-1347
žeť	-1348
skut	-1349
vení	-1350
deset	-1351
navra	-1352
počal	-1353
dom	-1354
lep	-1355
pan	-1356
údo	-1357
psal	-1358
jména	-1359
pozna	-1360
zůsta	-1361
činiti	-1362
sse	-1363
nadě	-1364
stupu	-1365
šalomoun	-1366
služebníka	-1367
iza	-1368
nez	-1369
▁.)	-1370
jere	-1371
vytr	-1372
bratr	-1373
postavil	-1374
diž	-1375
bláz	-1376
nádob	-1377
kterýžto	-1378
liti	-1379
tech	-1380
vyko	-1381
berán	-1382
bohem	-1383
oltáře	-1384
izraelské	-1385
ám	-1386
mon	-1387
chlé	-1388
trou	-1389
potře	-1390
údolí	-1391
tisíců	-1392
bel	-1393
dře	-1394
neod	-1395
cestě	-1396
ovoce	-1397
spasení	-1398
mem	-1399
mým	-1400
aron	-1401
cizo	-1402
tito	-1403
izraeli	-1404
prvoroze	-1405
níka	-1406
tuto	-1407
jistě	-1408
poslou	-1409
jdě	-1410
smil	-1411
říká	-1412
nalez	-1413
oblíče	-1414
hel	-1415
ole	-1416
vin	-1417
kana	-1418
ruka	-1419
byste	-1420
takov	-1421
všemu	-1422
efraim	-1423
vyvedl	-1424
lů	-1425
hnu	-1426
bral	-1427
nemá	-1428
náše	-1429
sami	-1430
¦	-1431
▁	-1432
o	-1433
e	-1434
a	-1435
i	-1436
n	-1437
t	-1438
s	-1439
l	-1440
v	-1441
d	-1442
m	-1443
k	-1444
𐋇	-1445
u	-1446
,	-1447
p	-1448
h	-1449
j	-1450
r	-1451
í	-1452
b	-1453
c	-1454
y	-1455
z	-1456
á	-1457
ž	-1458
ě	-1459
ř	-1460
é	-1461
š	-1462
.	-1463
ý	-1464
č	-1465
ů	-1466
:	-1467
ť	-1468
;	-1469
?	-1470
f	-1471
g	-1472
ú	-1473
ň	-1474
ď	-1475
-	-1476
(	-1477
)	-1478
ó	-1479
!	-1480
[	-1481
]	-1482
1	-1483
x	-1484
3	-1485
2	-1486
4	-1487
5	-1488
8	-1489
0	-1490
9	-1491
6	-1492
7	-1493
𐊣	-1494
𐊼	-1495
#	-1496
