<pad>	0
</s>	0
<unk>	0
¦	-1.45327
▁¦	-1.79288
▁	-3.39572
s	-3.6995
𐋇	-3.75054
▁,	-3.88644
i	-3.96376
ų	-4.33495
▁.	-4.33699
o	-4.34853
ir	-4.72357
a	-4.779
e	-4.92533
os	-4.95375
ą	-4.95837
u	-4.99394
ti	-5.03591
p	-5.12422
k	-5.1468
m	-5.19132
n	-5.19906
į	-5.21986
as	-5.26729
pa	-5.30803
t	-5.32895
ne	-5.37438
l	-5.47052
us	-5.47507
kad	-5.48212
g	-5.51331
y	-5.52911
ai	-5.55176
d	-5.6133
tai	-5.63442
su	-5.64106
to	-5.66978
me	-5.68122
iš	-5.71427
es	-5.73569
ta	-5.73755
in	-5.81374
ė	-5.87934
ės	-5.90326
dėl	-5.90407
r	-5.99568
kai	-6.04134
li	-6.04621
ši	-6.04877
je	-6.05429
europo	-6.06409
𐊣	-6.06724
𐊼	-6.06724
v	-6.20246
kuri	-6.25084
b	-6.29143
ma	-6.30161
is	-6.326
vis	-6.36098
š	-6.36366
ja	-6.37324
yra	-6.37368
en	-6.37585
ę	-6.38527
ni	-6.40157
va	-6.4047
te	-6.42598
re	-6.43244
na	-6.43567
ant	-6.4421
▁-	-6.49436
ki	-6.51135
ko	-6.53344
turi	-6.534
at	-6.53827
vi	-6.57437
au	-6.57735
z	-6.57781
ar	-6.58408
čiau	-6.5927
tų	-6.59531
mas	-6.59711
pat	-6.60434
už	-6.64053
ž	-6.6454
tik	-6.65504
ių	-6.66626
ri	-6.68522
mą	-6.74244
mo	-6.74797
ū	-6.75066
ing	-6.76003
ra	-6.77273
f	-6.78907
pra	-6.79139
be	-6.80598
ais	-6.81163
mi	-6.81999
būt	-6.82027
am	-6.82063
mu	-6.83076
da	-6.83111
▁(	-6.87331
jų	-6.87967
iai	-6.88616
dar	-6.88627
j	-6.89094
ga	-6.89229
pri	-6.90548
per	-6.91633
al	-6.92876
▁)	-6.93127
jo	-6.93562
po	-6.95139
oje	-6.95895
ju	-6.97621
ka	-6.98577
c	-6.99645
ro	-7.01629
nt	-7.0251
yti	-7.03675
gali	-7.0431
laik	-7.04659
parlament	-7.06331
lo	-7.06334
ji	-7.06905
vy	-7.08007
api	-7.08114
ams	-7.08264
de	-7.0828
1	-7.09339
nes	-7.09594
ame	-7.1064
iu	-7.11187
tu	-7.11735
yb	-7.12166
ci	-7.12963
būti	-7.13578
buvo	-7.15014
▁"	-7.15156
le	-7.17319
la	-7.17437
žin	-7.18122
labai	-7.1895
tar	-7.18961
gi	-7.21195
ui	-7.23064
ijos	-7.23708
ap	-7.2394
čia	-7.25623
omis	-7.25904
savo	-7.26727
inti	-7.27093
ger	-7.27675
bendr	-7.27742
0	-7.2854
pirmininke	-7.30368
veik	-7.30873
kur	-7.30961
norė	-7.31167
klausim	-7.31192
ži	-7.31538
šali	-7.32678
mūs	-7.33504
pasi	-7.3441
tas	-7.3513
daug	-7.35143
ama	-7.36352
aus	-7.36459
vien	-7.36914
nuo	-7.37537
gr	-7.3779
mes	-7.38075
do	-7.38337
siek	-7.38591
pranešim	-7.39257
kit	-7.40955
ys	-7.4248
tikr	-7.42999
priemon	-7.43185
jos	-7.43616
nari	-7.43648
ems	-7.44227
gal	-7.44798
inės	-7.4565
sak	-7.46518
komisijo	-7.46691
bi	-7.46903
šiuo	-7.48454
oms	-7.4877
jau	-7.48777
bet	-7.48972
iau	-7.5086
nu	-7.50925
rink	-7.51557
ba	-7.51642
kalb	-7.51954
inių	-7.52013
bus	-7.52042
naud	-7.52148
aš	-7.53247
el	-7.53777
turėt	-7.53864
sąjungo	-7.54879
ją	-7.54939
ku	-7.5682
teis	-7.57148
svarb	-7.5856
maž	-7.5887
uoti	-7.59743
auja	-7.59792
reikia	-7.61021
nd	-7.61049
du	-7.62312
acij	-7.63042
or	-7.64237
iausia	-7.6425
toki	-7.64278
aišk	-7.64946
mano	-7.67102
imo	-7.67543
darbo	-7.68314
prieš	-7.69744
20	-7.69779
ėjo	-7.69949
ve	-7.7067
dė	-7.71225
tą	-7.71579
kart	-7.71801
lyg	-7.72419
komisija	-7.73143
vo	-7.73386
prie	-7.74037
tam	-7.74257
pagrind	-7.74304
valstybės	-7.74833
h	-7.7539
pač	-7.76063
tiksl	-7.76644
no	-7.76863
oji	-7.78189
kas	-7.78328
pasiūlym	-7.80331
uose	-7.80521
skirt	-7.80535
min	-7.8057
akt	-7.80583
man	-7.80601
er	-7.81355
reikal	-7.8167
uoja	-7.8217
mok	-7.8227
pateik	-7.82947
kon	-7.83283
ru	-7.83336
2	-7.84635
reik	-7.85339
kurios	-7.85412
č	-7.85495
kurie	-7.86075
uot	-7.86139
sprendim	-7.86156
dž	-7.86323
tur	-7.86719
ose	-7.86923
tini	-7.87358
saug	-7.8769
čių	-7.87793
susi	-7.8801
kr	-7.88051
mum	-7.88187
problem	-7.88225
dama	-7.88401
viet	-7.89052
galimyb	-7.89127
▁:	-7.89196
svarbu	-7.89364
mos	-7.89532
sistem	-7.90189
iki	-7.90681
darb	-7.90798
metu	-7.91308
įgyvendin	-7.9328
ties	-7.94378
nori	-7.94596
nor	-7.96516
pone	-7.96738
eur	-7.96939
ent	-7.97315
ėjim	-7.97452
bu	-7.97555
mana	-7.97981
var	-7.98571
proc	-7.99527
ką	-8.00313
umo	-8.00762
šį	-8.00875
susitarim	-8.00952
pasaul	-8.00955
gerb	-8.01157
region	-8.02318
sociali	-8.02663
ėmi	-8.03536
viena	-8.05227
valstybi	-8.05402
poni	-8.06282
finans	-8.06811
šios	-8.06873
ųjų	-8.07031
teisės	-8.07244
▁¦200	-8.08177
politik	-8.08324
pilieči	-8.08525
5	-8.08892
pro	-8.09228
9	-8.09444
pirm	-8.09711
nti	-8.1013
diskusij	-8.10186
tvirt	-8.10557
jūs	-8.10755
didel	-8.10823
ver	-8.1157
atsi	-8.11629
narės	-8.11885
did	-8.1233
dabar	-8.12605
tarp	-8.12636
srity	-8.12825
kel	-8.13038
vertin	-8.13327
▁?	-8.13463
daugiau	-8.13581
tuo	-8.13759
ch	-8.14694
form	-8.15164
esni	-8.15297
avimo	-8.15971
kar	-8.16137
auk	-8.16278
keli	-8.16512
vykd	-8.16583
inimo	-8.17289
nčio	-8.17922
dami	-8.17976
užtikrint	-8.18967
siekiant	-8.19751
inio	-8.19768
vert	-8.2002
priimt	-8.20249
veiksm	-8.20516
ūki	-8.20934
nėr	-8.21142
inę	-8.21804
sime	-8.2245
kriz	-8.23294
kiek	-8.23341
▁.,	-8.23347
3	-8.23499
susijusi	-8.23712
pirminink	-8.24279
šal	-8.25006
tra	-8.25788
iausi	-8.26001
ojo	-8.26007
reng	-8.26103
.	-8.26218
aplink	-8.26301
laisv	-8.2655
politikos	-8.26762
jie	-8.26809
pagal	-8.26949
tarptautin	-8.26959
biudžet	-8.27179
ymo	-8.27298
tinkam	-8.27764
nčių	-8.28349
atvej	-8.28536
sutart	-8.28708
padėti	-8.29387
galima	-8.30065
dėmes	-8.30451
įsi	-8.30536
šiandien	-8.30543
žmog	-8.30549
teisin	-8.31536
kal	-8.31558
politin	-8.31696
baig	-8.32246
gyv	-8.32702
nuomon	-8.3295
požiūr	-8.33552
ėja	-8.33561
sąlyg	-8.33584
dali	-8.33606
būd	-8.3374
sąjunga	-8.33788
galėt	-8.34339
prisi	-8.34664
komitet	-8.34972
tarybo	-8.3507
taryba	-8.35476
ėms	-8.35647
der	-8.35884
pritari	-8.36212
suteik	-8.36231
ekonomin	-8.36413
tvark	-8.36773
prekyb	-8.36898
arba	-8.37235
4	-8.37385
ter	-8.37666
sektori	-8.38614
frakcij	-8.38861
,	-8.38902
8	-8.39109
visiška	-8.39184
tiek	-8.39418
negali	-8.40397
imti	-8.41413
klausimu	-8.41653
praš	-8.42962
būtina	-8.43413
direktyv	-8.43424
dr	-8.44217
▁;	-8.44356
kovo	-8.44719
nustatyt	-8.45122
valstyb	-8.45529
dirb	-8.45556
mėn	-8.46208
program	-8.46856
osios	-8.47263
kelia	-8.47474
6	-8.47934
pirma	-8.48219
stipr	-8.48595
iuosi	-8.48712
žmoni	-8.49028
-	-8.4924
param	-8.4965
moter	-8.49732
veikl	-8.49827
pabrėž	-8.49852
ekonomiko	-8.5016
strategij	-8.50686
nusi	-8.51225
bendradarbiavim	-8.51245
kreip	-8.51246
taisykl	-8.5209
koki	-8.52124
inink	-8.52198
rd	-8.53077
vyriausyb	-8.53228
projekt	-8.53228
teisi	-8.53368
europa	-8.53527
šalys	-8.54473
rib	-8.54507
žmonė	-8.54672
plan	-8.54837
užtikrin	-8.54937
sek	-8.55089
energij	-8.55252
saugum	-8.55466
rezoliucij	-8.55544
pareig	-8.56132
pakeitim	-8.56426
veiksming	-8.57194
teikia	-8.58017
deryb	-8.58319
naujo	-8.58656
žemė	-8.59751
dien	-8.59799
pranešėj	-8.60342
princip	-8.60342
visuomen	-8.60342
pagalb	-8.60348
įtrauk	-8.60959
nacionalin	-8.62516
pasakyti	-8.641
vadov	-8.64107
tyrim	-8.64419
raštu	-8.65063
atlik	-8.66408
toliau	-8.66706
ragin	-8.66779
teisė	-8.67251
plėtr	-8.68334
reglament	-8.68667
fond	-8.68673
siūl	-8.69206
atsižvelgia	-8.6923
turėtum	-8.69939
balsav	-8.70244
sukurt	-8.70467
informacij	-8.70691
ateit	-8.70693
bals	-8.70915
demokrat	-8.71587
taikom	-8.71858
čio	-8.72532
lank	-8.74196
labiau	-8.74432
vaik	-8.74793
produkt	-8.74865
jūr	-8.75228
asmen	-8.75468
klimat	-8.75941
abejo	-8.76303
paslaug	-8.76657
vartotoj	-8.76657
priklauso	-8.76659
naudoja	-8.76667
darbuotoj	-8.77383
rezultat	-8.78482
lisabono	-8.78851
lėš	-8.78878
nary	-8.79103
apsaugos	-8.80343
vard	-8.80604
sveikat	-8.81127
pozicij	-8.81853
didesn	-8.8266
ministr	-8.84171
balsavim	-8.84187
pažang	-8.85345
jėg	-8.85382
klaus	-8.85617
kontrol	-8.86533
interes	-8.86535
jung	-8.87105
maist	-8.8755
pavyzd	-8.87737
vėl	-8.87799
atstov	-8.89368
koleg	-8.89386
transport	-8.89778
priežas	-8.90194
atsižvelg	-8.90738
padėt	-8.90756
sėkm	-8.91473
atžvilgiu	-8.91862
padėko	-8.92286
remia	-8.92377
atitinka	-8.9249
ryt	-8.93409
ystės	-8.93476
rinkim	-8.93509
gyventoj	-8.9356
iniciatyv	-8.9356
partner	-8.93989
reikalavim	-8.94039
ištekli	-8.94421
duomen	-8.94854
mokesči	-8.95311
vieš	-8.95351
tebė	-8.96307
jungtin	-8.96893
daugeli	-8.97075
reiškia	-8.97491
skaiči	-8.97542
grup	-8.9798
ankst	-8.98424
spręsti	-8.98509
kultūr	-8.98836
įvairi	-8.98977
dabartin	-8.99361
gyvenim	-8.99751
tikim	-9.00105
priežiūr	-9.002
procedūr	-9.00659
susitikim	-9.00703
padaryti	-9.01123
ekonomik	-9.02463
avimas	-9.03418
aspekt	-9.0393
žem	-9.04119
skiria	-9.05429
idėj	-9.0566
dažn	-9.05866
truk	-9.05866
dokument	-9.06334
pastang	-9.07312
/	-9.07804
angi	-9.08727
atliek	-9.08798
teigiam	-9.09297
tiesiog	-9.09297
kokyb	-9.09304
įsipareigojim	-9.10305
pavoj	-9.10353
institucijos	-9.10812
valstybėm	-9.11452
taikyti	-9.11853
puik	-9.12124
skatint	-9.12364
susiję	-9.12869
mokslini	-9.12882
prioritet	-9.1339
standart	-9.1339
bank	-9.1366
atskir	-9.13979
pradėt	-9.14581
parod	-9.14648
valdym	-9.15501
tekst	-9.15544
sumažint	-9.15554
leidžia	-9.16035
konkreči	-9.16035
nuolat	-9.16176
parengt	-9.1635
nčiu	-9.16837
griežt	-9.17113
nuostat	-9.17121
džiaug	-9.17659
minėt	-9.17948
nustat	-9.17949
klaid	-9.18207
struktūr	-9.18753
finansavim	-9.19116
pagrįst	-9.19305
santyki	-9.2042
organizacij	-9.20981
vaidmen	-9.22114
atsakomyb	-9.23839
numatyt	-9.23839
kūr	-9.24415
įskait	-9.24423
patvirtint	-9.24447
kūrim	-9.24468
taikym	-9.24744
efektyv	-9.25005
lygmeni	-9.25009
išlaid	-9.25594
didžiausi	-9.25598
įstatym	-9.26185
w	-9.26185
pinig	-9.26188
centr	-9.26203
energetiko	-9.27981
partij	-9.27999
nepaisant	-9.28588
straipsn	-9.30428
dešimt	-9.30434
pripažin	-9.31054
skyr	-9.31063
narėm	-9.31787
demokratij	-9.31914
atsaking	-9.32304
ataskait	-9.3231
misij	-9.34826
žodži	-9.34859
finansini	-9.35372
augim	-9.35823
vidur	-9.36181
piet	-9.36379
pramonė	-9.36821
posėd	-9.36823
aukšt	-9.38209
pakankama	-9.3882
laikotarpi	-9.3882
nagrinė	-9.38822
sudėting	-9.40176
agentūr	-9.40176
siekdam	-9.40205
sudaryt	-9.403
sutink	-9.41488
technologij	-9.4155
valdžio	-9.42944
institucijų	-9.43648
sprendžia	-9.43648
tinkl	-9.44366
žvej	-9.45096
bendrijo	-9.45338
migracij	-9.46516
rūpi	-9.46731
dialog	-9.47246
investicij	-9.47246
pareiškim	-9.47246
protokol	-9.47246
solidarum	-9.47981
skatina	-9.47982
papildom	-9.48722
greit	-9.496
kompromis	-9.54067
skaidrum	-9.54067
konkurencij	-9.54854
internet	-9.54855
paket	-9.54903
!	-9.80893
x	-9.86157
)	-10.0173
q	-10.3545
é	-10.428
á	-10.4668
ö	-10.6631
"	-10.7573
è	-11.3206
í	-11.4183
ó	-11.5264
;	-11.5511
:	-11.7517
ü	-11.7859
?	-12.1029
ä	-12.137
ă	-12.2481
(	-12.339
&	-12.516
]	-12.6827
ń	-12.6827
ć	-12.8827
ß	-12.8827
°	-13.1327
ú	-13.1327
ţ	-13.1327
à	-13.466
ê	-13.466
ķ	-13.466
ň	-13.466
ł	-13.466
·	-13.966
ý	-13.966
ż	-13.966
ñ	-13.966
ç	-13.966
ő	-14.9652
ï	-14.9653
ø	-14.9654
[	-14.9655
ş	-14.9656
+	-14.9657
'	-14.9658
%	-14.9659
_	-14.966
7	-14.966
ò	-14.966
ī	-14.966
ľ	-14.966
ř	-14.966
ś	-14.966
̨	-14.966
έ	-14.966
π	-14.966
ρ	-14.966
υ	-14.966
”	-14.966
•	-14.966
