<pad>	0
</s>	0
<unk>	0
¦	-1.34648
▁¦	-1.34648
ܐ	-2.52694
ܘ	-3.86321
ܕ	-4.12851
ܘܢ	-4.47329
ܗܘ	-4.75263
ܗ	-4.82531
ܠ	-4.8392
ܢ	-4.85567
ܝ	-4.89076
ܠܐ	-4.89181
ܡܢ	-4.89691
ܝܢ	-4.91616
ܠܗ	-4.9908
ܒ	-5.08634
ܕܝܢ	-5.21857
ܬ	-5.25921
ܘܗܝ	-5.64792
ܐܢܐ	-5.69498
ܥܠ	-5.76069
ܟܘܢ	-5.82736
ܫܘܥ	-5.91873
ܓܝܪ	-5.93335
ܐܡܪ	-5.97706
ܗܘܢ	-6.1127
ܡ	-6.12215
ܬܐ	-6.12996
ܘܐܡܪ	-6.23545
ܠܝ	-6.23603
ܐܝܟ	-6.24204
ܠܟ	-6.27345
ܟ	-6.28997
ܟܕ	-6.29516
ܗܘܘ	-6.31169
ܐܝܬ	-6.3197
ܚܕ	-6.32558
ܘܠܐ	-6.3298
ܕܠܐ	-6.33261
ܢܬܘܢ	-6.35228
ܗܢ	-6.35708
ܟܠ	-6.36937
ܡܛܠ	-6.39785
ܐܦ	-6.42373
ܐܢܬ	-6.44112
ܗܝ	-6.48168
ܢܘܢ	-6.49618
ܒܗ	-6.52625
ܝܠܝܢ	-6.53703
ܠܝܢ	-6.55221
ܕܐܠܗ	-6.55725
ܘܤ	-6.57847
ܡܐ	-6.58959
ܡܕܡ	-6.60768
ܥܒܕ	-6.65381
ܕܢ	-6.70394
ܡܫܝܚ	-6.75437
ܐܢܫ	-6.79364
ܥܡ	-6.81788
ܤ	-6.83342
ܦ	-6.84561
ܘܬܐ	-6.85315
ܠܡ	-6.85664
ܟܠܗ	-6.86668
ܘܟܕ	-6.92887
ܘܠ	-6.94237
ܡܬ	-6.95398
ܠܘܬ	-6.98159
ܐܢ	-7.02981
ܢܐ	-7.03534
ܐܠܗ	-7.04162
ܫܐ	-7.05235
ܛ	-7.05934
ܚܝ	-7.0689
ܫܠܡ	-7.09393
ܘܒ	-7.12944
ܕܐܝܬ	-7.13289
ܪܘܚ	-7.138
ܡܪܢ	-7.16431
ܪ	-7.16953
ܗܕ	-7.17315
ܓ	-7.18187
ܠܢ	-7.19418
ܝܕܥ	-7.19901
ܥܕ	-7.20059
ܤܓܝܐ	-7.21292
ܒܢܝ	-7.22572
ܘܡܢ	-7.25026
ܕܝ	-7.27086
ܟܝܠ	-7.27282
ܕܡ	-7.28988
ܐܝܟܢ	-7.29049
ܢܝ	-7.3019
ܗܘܝܬ	-7.32717
ܙܒܢ	-7.33676
ܒܪ	-7.34795
ܐܡܪܝܢ	-7.34832
ܥ	-7.34974
ܓܒܪ	-7.3502
ܕܡܢ	-7.36639
ܩܕܡ	-7.38548
ܒܝܬ	-7.3857
ܢܫܐ	-7.39662
ܢܗܘ	-7.39854
ܗܘܬ	-7.40135
ܫ	-7.41152
ܚܢܢ	-7.42306
ܗܟܢ	-7.42501
ܒܪܗ	-7.46916
ܡܪܝ	-7.47769
ܒܝ	-7.48113
ܐܪܥ	-7.50388
ܩ	-7.52197
ܐܬܐ	-7.54849
ܬܠܡܝܕ	-7.55224
ܘܡ	-7.5878
ܘܐܢ	-7.58791
ܥܡܗ	-7.61553
ܕܒ	-7.61933
ܡܢܗ	-7.63397
ܬܡܢ	-7.6452
ܨ	-7.65664
ܡܝܬ	-7.67542
ܬܘܢ	-7.68798
ܬܘܒ	-7.68992
ܟܢܫ	-7.69299
ܕܬ	-7.69323
ܐܚܪܢ	-7.69404
ܝܕܥܝܢ	-7.69424
ܝܗܝ	-7.72818
ܝܬܝܪ	-7.73459
ܡܠܬ	-7.74218
ܫܡܥܘܢ	-7.75204
ܙ	-7.78636
ܫܡܝ	-7.79885
ܥܢ	-7.80054
ܠܥܠܡ	-7.80757
ܠܐܠܗ	-7.80843
ܡܠܟ	-7.81152
ܚܙܐ	-7.81351
ܐܡܝܢ	-7.83482
ܝܘܡ	-7.83644
ܡܠܐܟ	-7.85973
ܬܬ	-7.86217
ܛܒ	-7.86303
ܕܡܐ	-7.8683
ܐܙܠ	-7.87651
ܡܫܟܚ	-7.89167
ܘܪ	-7.90863
ܬܗ	-7.90951
ܢܬ	-7.91531
ܢܒܝ	-7.91704
ܘܬ	-7.92019
ܕܐܬ	-7.9221
ܠܝܬ	-7.93111
ܝܗܘܕܝ	-7.94466
ܦܘܠ	-7.94516
ܢܦܫܗ	-7.9515
ܚ	-7.95987
ܟܐܦ	-7.97433
ܟܬܒ	-7.9785
ܕܐܡܪ	-7.98099
ܠܒܪ	-7.98246
ܢܡܘܤ	-7.98328
ܪܐ	-7.98629
ܘܕ	-7.98684
ܕܐܦ	-7.99252
ܚܐ	-7.99619
ܪܚܡ	-7.99728
ܨܒܐ	-8.01539
ܠܘܬܗ	-8.0273
ܕܥ	-8.03001
ܩܕܝܫ	-8.03738
ܘܗ	-8.03849
ܡܠܠ	-8.04003
ܒܟܠ	-8.04262
ܘܥܠ	-8.04504
ܪܒܐ	-8.05486
ܡܪ	-8.05664
ܗܝܡܢܘܬ	-8.06084
ܩܪܒ	-8.06297
ܚܠܦ	-8.08225
ܢܫ	-8.0845
ܐܢܬܬ	-8.08484
ܥܒܪ	-8.09095
ܤܒܪ	-8.09134
ܬܪܝܢ	-8.09542
ܡܠܐ	-8.09692
ܕܥܒܕ	-8.09698
ܘܚܢܢ	-8.10275
ܒܠܚܘܕ	-8.10408
ܪܒܝ	-8.13351
ܚܙܘ	-8.13543
ܒܥܐ	-8.1358
ܫܡܥ	-8.13976
ܕܐܢ	-8.15849
ܛܝܒܘܬ	-8.16352
ܒܢ	-8.1698
ܪܫ	-8.17302
ܝܗ	-8.17408
ܟܗܢ	-8.17909
ܒܟܘܢ	-8.18637
ܪܒ	-8.1935
ܐܚܝ	-8.19395
ܥܠܡ	-8.1954
ܡܗܝܡܢ	-8.19712
ܕܐܢܫ	-8.20177
ܒܬܪ	-8.20233
ܥܠܝܗ	-8.20327
ܩܘ	-8.2079
ܐܝܕ	-8.21572
ܫܒܥ	-8.22063
ܬܪܥ	-8.22422
ܘܟܠ	-8.22455
ܡܕܝܢܬ	-8.23607
ܠܚܡ	-8.2361
ܒܪܘܚ	-8.23671
ܩܝܡ	-8.24603
ܕܫܐ	-8.24799
ܝܬܐ	-8.2588
ܩܕܡܝ	-8.25957
ܫܦܝܪ	-8.26545
ܕܟܠ	-8.26855
ܝܠ	-8.26945
ܦܓܪ	-8.27349
ܗܘܝ	-8.28198
ܦܪܝܫ	-8.28503
ܕܩܘ	-8.28793
ܨܒܝܢ	-8.28859
ܟܝ	-8.29217
ܐܒܐ	-8.2924
ܬܗܘ	-8.29478
ܘܫ	-8.2948
ܝܗܒ	-8.29492
ܐܝܬܝܗ	-8.2954
ܫܥܬ	-8.29722
ܘܐܬ	-8.3024
ܤܝܡ	-8.31035
ܕܚܝ	-8.31213
ܥܡܡ	-8.3128
ܡܡܠܠ	-8.32633
ܕܗܘ	-8.32676
ܢܦܩ	-8.33452
ܘܐܝܬ	-8.33964
ܬܠܬ	-8.34939
ܕܒܪ	-8.35715
ܩܠܐ	-8.35961
ܤܓܝ	-8.37369
ܥܝܢ	-8.3754
ܩܡ	-8.37608
ܫܬ	-8.37933
ܕܢܗܘ	-8.38017
ܕܡܫܝܚ	-8.38456
ܢܤܒ	-8.38977
ܘܐܦ	-8.3917
ܦܪ	-8.40505
ܚܘܒ	-8.40573
ܫܘ	-8.40794
ܤܛ	-8.40869
ܛܪ	-8.41194
ܕܠ	-8.4147
ܫܠܝܚ	-8.41581
ܛܠܝ	-8.42122
ܥܡܐ	-8.43001
ܒܗܝܡܢܘܬ	-8.43067
ܚܛܝܬ	-8.4333
ܦܠܚ	-8.43464
ܦܘܩܕܢ	-8.43648
ܘܗܘ	-8.43703
ܩܒܠ	-8.44439
ܕܡܪܝ	-8.44511
ܐܠܦ	-8.45932
ܐܪܒܥ	-8.46081
ܒܝܕ	-8.46423
ܩܛܠ	-8.46512
ܐܤܝܪ	-8.47134
ܡܠܟܘܬ	-8.47293
ܤܗܕ	-8.47608
ܒܥ	-8.47659
ܐܒܝ	-8.47801
ܕܠܡܐ	-8.48394
ܥܠܝ	-8.4874
ܢܦܫ	-8.49124
ܩܪܐ	-8.50046
ܪܟ	-8.5016
ܪܥܝܢ	-8.50444
ܒܪܢܫ	-8.50784
ܝܡܐ	-8.51161
ܘܐܙܠ	-8.51235
ܡܘܫ	-8.51758
ܥܘܠ	-8.52194
ܠܚܕ	-8.52558
ܠܡܐ	-8.52699
ܚܝܬ	-8.52738
ܐܬܪ	-8.5282
ܙܪܥ	-8.52866
ܡܘܬ	-8.53173
ܡܝ	-8.53243
ܗܘܝܢ	-8.53601
ܥܤܪ	-8.53689
ܬܝ	-8.53723
ܩܐ	-8.53795
ܫܒܩ	-8.5422
ܠܡܢ	-8.54318
ܥܠܝܟ	-8.54339
ܫܕܪ	-8.54669
ܝܬܘܢ	-8.55089
ܒܥܝܢ	-8.56311
ܢܚܬ	-8.56363
ܓܠܝ	-8.56698
ܚܫ	-8.56863
ܦܐܪ	-8.57007
ܚܝܠ	-8.57423
ܕܒܗ	-8.57552
ܫܘܠܛܢ	-8.57644
ܓܪ	-8.57701
ܒܫܡܝ	-8.58743
ܝܟ	-8.59102
ܢܦܫܟ	-8.59146
ܝܘܡܬ	-8.59215
ܫܝ	-8.61404
ܪܡ	-8.61723
ܟܡܐ	-8.62707
ܟܤ	-8.63259
ܕܗ	-8.63588
ܠܒܝܬ	-8.63708
ܦܝܠ	-8.64063
ܒܝܫܬ	-8.64263
ܢܛܪ	-8.64285
ܢܘܪ	-8.64417
ܚܪ	-8.64712
ܫܡܥܘ	-8.65709
ܚܪܬ	-8.66665
ܘܐܬܐ	-8.67002
ܕܐܬܐ	-8.67382
ܒܟܠܗ	-8.67599
ܚܘ	-8.67664
ܢܦܠ	-8.6775
ܐܚܘܗܝ	-8.67802
ܒܡ	-8.67845
ܤܦܪ	-8.67856
ܕܡܬ	-8.68165
ܡܫܬ	-8.68535
ܩܘܡ	-8.68648
ܩܘܒ	-8.69717
ܝܡܝܢ	-8.69858
ܡܫܟܚܝܢ	-8.69905
ܕܥܠܡ	-8.69923
ܕܡܝ	-8.70546
ܕܥܠ	-8.70738
ܪܡܐ	-8.70779
ܒܪܝ	-8.70834
ܩܝܡܝܢ	-8.70916
ܚܛܗ	-8.71305
ܫܪܐ	-8.7144
ܛܒܬ	-8.71665
ܗܦܟ	-8.71688
ܘܬܗ	-8.71844
ܕܝܠܝ	-8.7213
ܫܪܝܪ	-8.72469
ܩܠܝܠ	-8.72637
ܬܫܒܘܚܬ	-8.72663
ܒܬܪܗ	-8.73261
ܘܝܗܒ	-8.73714
ܠܒܢܝ	-8.7395
ܘܚ	-8.74111
ܢܘܗܪ	-8.74223
ܝܥ	-8.74446
ܥܒܕܝܢ	-8.74766
ܠܐܘܪ	-8.74769
ܡܬܝ	-8.75142
ܒܝܫܐ	-8.75626
ܛܥ	-8.75688
ܢܚ	-8.75755
ܫܒ	-8.75885
ܫܪܪ	-8.75921
ܕܚܕ	-8.76283
ܚܤ	-8.76325
ܩܢ	-8.76368
ܥܡܝ	-8.76753
ܙܥܘܪ	-8.77014
ܘܩܕܡ	-8.77213
ܐܬܘ	-8.77487
ܕܒܢܝ	-8.77701
ܕܝܠܗ	-8.78082
ܕܟܬܝܒ	-8.78335
ܙܠ	-8.79185
ܫܘܒܚ	-8.79314
ܚܪܝܢ	-8.79628
ܝܤ	-8.80093
ܘܤܦ	-8.81051
ܕܪܘܚ	-8.81136
ܫܬܐ	-8.81328
ܪܝܢ	-8.81445
ܪܓܠ	-8.81688
ܕܓܠ	-8.81928
ܫܩܠ	-8.82501
ܗܢܘ	-8.82565
ܪܘ	-8.82757
ܬܪܥܤܪ	-8.83337
ܚܡܫ	-8.83438
ܕܐܝܬܝܗ	-8.83543
ܘܡܬ	-8.83594
ܩܝ	-8.83872
ܒܥܘ	-8.84106
ܐܡܗ	-8.843
ܩܫܝܫ	-8.84955
ܘܢܦܩ	-8.85002
ܫܠܝܛ	-8.85021
ܕܝܘ	-8.85089
ܒܠ	-8.85313
ܚܙܝ	-8.85425
ܟܐܢܘܬ	-8.85501
ܒܤܪ	-8.85666
ܘܝܕ	-8.85771
ܒܝܘܡ	-8.85875
ܢܝܢ	-8.86187
ܕܫܡܝ	-8.864
ܕܥܬܝܕ	-8.86614
ܡܥ	-8.86716
ܤܡ	-8.86965
ܫܡܫ	-8.87449
ܡܪܝܡ	-8.87475
ܐܘܪܚ	-8.88168
ܐܘܠܨܢ	-8.88317
ܥܬܝܕ	-8.88355
ܗܝܡܢ	-8.88582
ܗܝܡܢܘ	-8.88603
ܪܓ	-8.8882
ܕܝܠܟ	-8.88939
ܡܠܝ	-8.89332
ܦܬܚ	-8.89716
ܐܡܪܬ	-8.89805
ܫܡ	-8.90067
ܩܥ	-8.91039
ܫܪܝ	-8.91429
ܐܝܤܪ	-8.921
ܠܓܒܪ	-8.92577
ܚܙܝܢ	-8.92786
ܕܝܗܘܕܝ	-8.92864
ܬܪܬ	-8.92932
ܙܟ	-8.93375
ܘܐܬܘ	-8.93484
ܪܒܬ	-8.93696
ܦܠܓ	-8.93924
ܟܘܬ	-8.94165
ܐܠܘ	-8.94364
ܕܥܡ	-8.94623
ܡܦܩ	-8.9472
ܒܟ	-8.94735
ܠܚܝ	-8.95148
ܠܬܠܡܝܕ	-8.9521
ܘܥ	-8.95598
ܫܡܗ	-8.95769
ܨܒܝܢܗ	-8.95796
ܗܪ	-8.95841
ܘܩ	-8.95849
ܡܟܝܠ	-8.95857
ܒܫܠܡ	-8.96256
ܘܩܡ	-8.96257
ܚܘܝ	-8.96879
ܕܫܡܗ	-8.97047
ܟܪܝܗ	-8.971
ܕܐܪܥ	-8.97134
ܐܬܝܬ	-8.97213
ܕܚܠܬ	-8.9738
ܟܬܝܒ	-8.97515
ܩܪ	-8.97528
ܩܪܝܒ	-8.9763
ܥܕܬ	-8.97813
ܕܢܚ	-8.98006
ܕܪ	-8.9825
ܘܒܪ	-8.98346
ܠܟܠܗ	-8.98483
ܕܠܝܬ	-8.9853
ܡܟ	-8.98723
ܕܒܚ	-8.99033
ܠܘܬܟ	-8.99514
ܤܝ	-8.99774
ܦܪܫ	-9.00625
ܠܡܕܝܢܬ	-9.00745
ܤܒܪܬ	-9.00841
ܚܫܘܟ	-9.0107
ܠܘܩܒܠ	-9.011
ܬܫܡܫܬ	-9.01125
ܡܨܠ	-9.01241
ܝܕܥܬ	-9.01329
ܗܪܘܕ	-9.01332
ܚܕܬܐ	-9.01373
ܒܐܦ	-9.01476
ܪܡܝ	-9.01614
ܡܠܦ	-9.0168
ܬܟ	-9.01689
ܐܝܬܝ	-9.01829
ܦܩܕ	-9.02208
ܘܫܕܪ	-9.02219
ܕܝܬܒ	-9.02612
ܒܥܠ	-9.02672
ܪܝܫ	-9.02675
ܕܢܬ	-9.02903
ܚܛܝ	-9.03071
ܤܠܩ	-9.03246
ܝܩ	-9.03576
ܐܦܝ	-9.03915
ܢܝܚ	-9.04264
ܒܐܝܕܗ	-9.04751
ܐܝܕܝ	-9.04853
ܟܘܪܤܝ	-9.05024
ܫܪܒܬ	-9.0509
ܡܨ	-9.05105
ܤܓܝܐܬ	-9.05109
ܕܡܘܬ	-9.05118
ܐܬܝܢ	-9.05948
ܥܝ	-9.05948
ܡܠܟܘܬܗ	-9.05969
ܚܘܪ	-9.0612
ܦܘܡ	-9.06209
ܤܪ	-9.07029
ܘܟܠܗ	-9.07078
ܚܟܡܬ	-9.07553
ܕܝܗܒ	-9.07587
ܤܓܕ	-9.07642
ܩܪܝܬ	-9.08057
ܠܟܠ	-9.0808
ܒܝܢܬ	-9.08209
ܡܩܒܠ	-9.08349
ܘܚܕ	-9.08546
ܤܝܐ	-9.08636
ܕܬܗܘ	-9.09136
ܫܢܝܢ	-9.09154
ܐܫܟܚ	-9.09361
ܘܫܪܝ	-9.09591
ܒܩ	-9.09802
ܘܡܐ	-9.09887
ܐܝܕܗ	-9.10035
ܫܡܥܝܢ	-9.1101
ܤܗܕܘܬ	-9.11115
ܒܝܡ	-9.11318
ܠܐܢܫ	-9.11423
ܕܚܠ	-9.11689
ܛܘܪ	-9.12049
ܐܬܬ	-9.12836
ܡܘܗܒܬ	-9.13448
ܠܠܝ	-9.13464
ܫܒܘܩ	-9.13535
ܒܢܡܘܤ	-9.13629
ܗܪܟ	-9.1404
ܥܡܟ	-9.14105
ܩܪܒܘ	-9.14319
ܗܝܟܠ	-9.1476
ܫܩ	-9.14783
ܚܛ	-9.1484
ܡܡܠܠܝܢ	-9.14872
ܡܤܗܕ	-9.157
ܒܚܕ	-9.15744
ܕܡܟ	-9.1613
ܕܡܬܩܪ	-9.16152
ܡܠܦܢ	-9.16337
ܠܥܠ	-9.16597
ܕܗܒ	-9.16613
ܐܓܪ	-9.1688
ܝܬܒ	-9.16891
ܒܒܤܪ	-9.17588
ܕܟܕ	-9.17723
ܡܚܕ	-9.17841
ܠܝܘܡ	-9.17941
ܕܬܬ	-9.18044
ܠܥܒܕ	-9.18294
ܝܘܠܦܢ	-9.18515
ܫܒܚ	-9.18609
ܐܘܪ	-9.18855
ܡܤ	-9.18911
ܒܫܡܗ	-9.19107
ܡܫܡܫܢ	-9.1915
ܡܫ	-9.19286
ܒܐܘܪ	-9.19333
ܕܫܡܥ	-9.19422
ܪܗܛ	-9.19501
ܕܒܝܬ	-9.19674
ܐܘܠܕ	-9.19682
ܥܓܠ	-9.20173
ܚܡܪ	-9.2045
ܘܒܗ	-9.20666
ܒܐܝܕܝ	-9.20688
ܩܕܝ	-9.21281
ܚܬ	-9.21345
ܒܗܝܟܠ	-9.21606
ܡܛܝ	-9.21642
ܒܐܘܪܚ	-9.21942
ܚܒܝܒ	-9.22398
ܪܫܗ	-9.22527
ܫܐܠ	-9.22739
ܐܒܘܗܝ	-9.22886
ܠܒܘܬ	-9.22909
ܫܪܟ	-9.23021
ܢܬܠ	-9.23242
ܡܤܟܢ	-9.23367
ܬܟܘܢ	-9.23461
ܤܡܝ	-9.23482
ܓܢܒ	-9.2368
ܫܒܬ	-9.24021
ܓܒ	-9.2411
ܪܬ	-9.2412
ܦܝܠܝܦ	-9.25089
ܕܢܒܝ	-9.25331
ܒܝܬܗ	-9.25742
ܘܬܘܒ	-9.2575
ܙܕܩ	-9.25986
ܕܒܫܡܝ	-9.26024
ܢܐܡܪ	-9.26044
ܠܡܐܡܪ	-9.26128
ܠܥܡ	-9.26267
ܓܘ	-9.26517
ܠܦܘܠ	-9.26731
ܐܚܝܢ	-9.26831
ܦܤ	-9.26847
ܦܪܩ	-9.26936
ܡܤܒܪ	-9.26974
ܕܗܢ	-9.2722
v	-9.27587
𐋇	-9.27587
ܤܩ	-9.28051
ܘܥܒܕ	-9.28235
ܡܩܘ	-9.28459
ܡܠܬܗ	-9.28904
ܒܡܠܬ	-9.29167
ܐܚܪܝ	-9.29179
ܚܩ	-9.29523
ܠܦ	-9.2954
ܘܩܪܐ	-9.29592
ܚܟܝܡ	-9.30172
ܥܡܕ	-9.30194
ܟܦܢ	-9.30316
ܘܐܚܪܢ	-9.3033
ܟܪ	-9.30357
ܫܐܠܘ	-9.30403
ܥܪܩ	-9.30524
ܓܒܝ	-9.30681
ܕܦ	-9.30939
ܝܗܘܕܐ	-9.30984
ܟܦܪ	-9.31093
ܟܤܦ	-9.31096
ܤܥܪ	-9.31144
ܡܟܤ	-9.31233
ܕܢܐܬ	-9.31971
ܚܠ	-9.32162
ܘܤܡ	-9.32164
ܐܒܘܟ	-9.3264
ܢܗܪ	-9.3278
ܡܘܠܟܢ	-9.32797
ܪܘܓܙ	-9.32804
ܟܘܡܪ	-9.32809
ܩܒܪ	-9.32809
ܒܓܠ	-9.32845
ܤܪܝܩ	-9.32901
ܘܦܩܕ	-9.32992
ܕܪܒ	-9.33691
ܪܩ	-9.33911
ܪܘܪܒ	-9.33974
ܒܒܝܬ	-9.34117
ܘܫܩܠ	-9.34277
ܦܘܩ	-9.3428
ܠܡܥܒܕ	-9.34517
ܕܬܠܬ	-9.34998
ܒܫ	-9.3513
ܩܪܨ	-9.35555
ܫܢ	-9.35739
ܙܕܝܩܘܬ	-9.36075
ܡܟܐ	-9.36277
ܕܒܝܫ	-9.36526
ܛܐ	-9.37385
ܕܫܕܪ	-9.38252
ܩܒܘܪ	-9.38265
ܢܫܟܚ	-9.38273
ܩܘܪܝ	-9.38345
ܒܬܪܝ	-9.38454
ܡܪܗ	-9.38581
ܘܩܥ	-9.38586
ܙܕܝܩܐ	-9.38692
ܕܐܝܟ	-9.38698
ܢܒܐ	-9.39685
ܒܪܡ	-9.39695
ܘܗܢ	-9.40326
ܙܢܝ	-9.40676
ܫܥ	-9.40725
ܢܦܩܬ	-9.40844
ܒܢܦܫܗ	-9.4107
ܘܠܡ	-9.41116
ܦܪܨܘܦ	-9.41121
ܤܦܝܢܬ	-9.41139
ܓܠ	-9.41425
ܕܗܝܡܢܘܬ	-9.41716
ܡܗܠܟܝܢ	-9.41765
ܕܢܤܒ	-9.41789
ܬܫܬ	-9.41878
ܐܒܗܬ	-9.41927
ܘܫܐܠ	-9.41965
ܘܥܡ	-9.41976
ܡܗܝܡܢܝܢ	-9.41982
ܦܘܡܗ	-9.42093
ܩܠ	-9.42243
ܒܫܒ	-9.42503
ܒܪܐ	-9.42538
ܕܢܫܬ	-9.42611
ܘܢܦܠ	-9.42841
ܚܒܠ	-9.43134
ܤܢܐ	-9.43138
ܒܤܡ	-9.43146
ܠܒܫ	-9.43221
ܥܕܪ	-9.43242
ܘܩܪܒ	-9.43286
ܡܛܝܒ	-9.43661
ܪܝܐ	-9.43857
ܝܗܒܬ	-9.4387
ܦܪܥ	-9.43945
ܒܥܠܕܒܒ	-9.43963
ܚܙܝܬ	-9.44011
ܠܢܫ	-9.44392
ܪܕܦ	-9.44447
ܕܢܦܩ	-9.44494
ܕܢܡܘܤ	-9.45063
ܝܠܕ	-9.45066
ܐܝܩܪ	-9.45078
ܠܡܪܝ	-9.45153
ܛܢܦ	-9.45626
ܪܢ	-9.4586
ܘܚܪ	-9.45869
ܘܚܙܐ	-9.45905
ܩܨ	-9.45928
ܕܩܐ	-9.46144
ܠܫܢ	-9.46324
ܢܥܒܕ	-9.46374
ܫܦܪ	-9.46569
ܥܝܪ	-9.46701
ܚܕܘܬ	-9.46857
ܡܥܡܕ	-9.46881
ܬܪܝ	-9.47065
ܓܙܘܪܬ	-9.47093
ܙܩܝܦ	-9.47165
ܕܩܪ	-9.47259
ܠܟܢܫ	-9.4748
ܘܒܬܪ	-9.47482
ܠܥܤ	-9.47706
ܦܨܚ	-9.47782
ܨܝܕ	-9.47786
ܘܐܝܟ	-9.47789
ܘܐܝܬܝ	-9.48076
ܚܝܒ	-9.48581
ܡܬܚܙ	-9.48704
ܫܢܝ	-9.48935
ܡܫܚ	-9.4896
ܘܡܛܠ	-9.49163
ܘܚܙܝܬ	-9.49358
ܩܪܝ	-9.4951
ܙܠܘ	-9.4968
ܕܒܝ	-9.50038
ܕܒܤܪ	-9.50242
ܒܛܠ	-9.50414
ܕܒܪܗ	-9.50458
ܢܡܠܠ	-9.50493
ܥܡܪ	-9.50674
ܓܕ	-9.5069
ܘܐܪܡܝ	-9.50815
ܫܪܝܪܐ	-9.51085
ܒܚܝܠ	-9.51086
ܒܤ	-9.51162
ܐܬܚܙܝ	-9.51166
ܕܪܚܡ	-9.51195
ܩܝܡܬ	-9.5133
ܫܥܝ	-9.51433
ܐܦܩ	-9.51546
ܕܨܒ	-9.51703
ܐܡܪܘ	-9.51785
ܝܗܘܕ	-9.51952
ܕܚܙܝܬ	-9.52043
ܢܫܡܥ	-9.52277
ܢܩܘܡ	-9.52452
ܒܚܘܒ	-9.52492
ܠܐܬܪ	-9.52543
ܒܥܝ	-9.52552
ܕܟܠܗ	-9.5265
ܕܡܝܬ	-9.52792
ܐܙܠܘ	-9.53075
ܒܡܕܝܢܬ	-9.53299
ܫܡܥܬ	-9.53313
ܡܥܡܘܕܝܬ	-9.53443
ܩܘܪܒܢ	-9.53512
ܥܝܢܝܗ	-9.53598
ܘܠܝܘܡ	-9.53993
ܬܕܚܠ	-9.54374
ܒܟܢܘܫܬ	-9.54432
ܟܪܤ	-9.54874
ܙܒ	-9.54889
ܕܙܒܢ	-9.54937
ܤܟܠ	-9.5497
ܘܠܝܬ	-9.55187
ܕܢܐܙܠ	-9.55282
ܡܫܪܝ	-9.55358
ܒܕܡܘܬ	-9.55369
ܕܠܘܬ	-9.55382
ܕܥܘ	-9.55458
ܕܡܗܝܡܢ	-9.55734
ܬܚ	-9.55739
ܒܙܒܢ	-9.5612
ܠܦܝܢ	-9.56545
ܐܬܩܪܝ	-9.56645
ܕܝܬܩ	-9.56794
ܐܝܡܡ	-9.56812
ܡܤܝܒ	-9.56999
ܫܐܠܝܢ	-9.5703
ܕܗܟܢ	-9.57043
ܡܢܟ	-9.57126
ܪܥܝ	-9.57232
ܤܝܒܪ	-9.57628
ܐܙܠܝܢ	-9.57639
ܐܫܟܚܘ	-9.57679
ܤܘܤ	-9.57855
ܡܗܠܟ	-9.57858
ܢܓܕ	-9.5799
ܨܦܪ	-9.58455
ܐܠܨ	-9.58671
ܫܡܥܬܘܢ	-9.58811
ܦܤܩ	-9.58871
ܟܬܒܬ	-9.59294
ܘܒܥܝܢ	-9.59611
ܥܗܕ	-9.59649
ܐܚܝܕ	-9.59668
ܚܘܪܒ	-9.59742
ܫܠܝ	-9.59757
ܡܤܝܒܪܢܘܬ	-9.60225
ܓܡܝܪ	-9.60226
ܝܘܤ	-9.60228
ܬܝܗܒ	-9.60255
ܫܩܘܠ	-9.60427
ܓܠܝܠ	-9.60507
ܡܟܪܙ	-9.60559
ܘܤܠܩ	-9.60568
ܤܡܝܟ	-9.60651
ܕܘܟ	-9.60721
ܚܡܬ	-9.60764
ܒܪܝܬ	-9.60785
ܘܥܢ	-9.60983
ܡܚܒ	-9.61398
ܕܡܠܟ	-9.61521
ܠܛܘܪ	-9.61524
ܡܚ	-9.61632
ܐܬܡܠܝ	-9.61683
ܟܢܘܫܬ	-9.61916
ܦܨ	-9.62042
ܥܬܝܪܐ	-9.62278
ܕܐܒ	-9.62351
ܡܨܪܝ	-9.62487
ܥܩܪ	-9.62665
ܒܦܓܪ	-9.62961
ܥܒܝܕ	-9.63025
ܟܘܟܒ	-9.63804
ܥܪܤ	-9.6381
ܩܪܢ	-9.63921
ܕܐܚ	-9.64239
ܕܚ	-9.64273
ܬܐܪܬ	-9.64585
ܐܫܟܚܬ	-9.64971
ܥܩ	-9.65028
ܕܢܬܠ	-9.65121
ܩܪܝܢ	-9.65134
ܘܐܚܕ	-9.65198
ܬܟܢܫܘ	-9.65382
ܤܢܝܐ	-9.65414
ܛܝܒ	-9.65465
ܕܐܟܠ	-9.65788
ܢܚܙܘܢ	-9.65885
ܬܐܡܪ	-9.66202
ܘܡܚ	-9.66205
ܝܠܦ	-9.66478
ܠܡܘܬ	-9.66569
ܠܥܕܬ	-9.66824
ܫܕܪܬ	-9.66828
ܢܚܫ	-9.66955
ܕܦܓܪ	-9.66983
ܨܒܘܬ	-9.6727
ܘܤܦܪ	-9.67483
ܦܬܓܡ	-9.675
ܦܩܚ	-9.675
ܚܨ	-9.6752
ܐܪܙ	-9.6754
ܘܢܤܒ	-9.67556
ܬܚܙܘܢ	-9.67612
ܐܪܡܠܬ	-9.67649
ܚܒܝܒܝ	-9.67902
ܙܕܗܪܘ	-9.68134
ܒܠܒܗ	-9.6819
ܐܟܘܠ	-9.68299
ܤܐܡ	-9.68409
ܛܡܐ	-9.68503
ܘܡܠܦ	-9.68519
ܝܪܬ	-9.6857
ܒܟܝ	-9.68623
ܠܓܘ	-9.6881
ܘܗܘܝܬ	-9.69001
ܫܘܪ	-9.6939
ܕܩܕܡ	-9.69699
ܐܓܪܬ	-9.6999
ܘܫܠܡ	-9.7031
ܕܡܡܠܠ	-9.70424
ܡܚܐ	-9.70785
ܡܦܤ	-9.71088
ܘܫܬܐ	-9.71155
ܩܢܝܢ	-9.71271
ܪܓܝܓܬ	-9.71346
ܡܐܟܘܠܬ	-9.71404
ܝܩܝܪ	-9.71609
ܢܦܫܢ	-9.71809
ܕܫܪܪ	-9.71815
ܝܕܝܥ	-9.7196
ܪܫܝܢ	-9.72181
ܦܬܟ	-9.72249
ܥܪܒ	-9.72313
ܒܨܠܘܬ	-9.72421
ܠܒܝܬܗ	-9.72573
ܚܐܪ	-9.72724
ܬܢܢ	-9.72938
ܚܨܕ	-9.73078
ܘܒܟܠ	-9.73676
ܤܒܪܝܢ	-9.73878
ܢܦܩܘ	-9.73913
ܕܡܗ	-9.73916
ܐܝܠܢ	-9.74166
ܟܫܠ	-9.74332
ܥܢܝ	-9.74475
ܘܐܬܬ	-9.74551
ܐܬܪܚܡ	-9.7465
ܒܝܫ	-9.7468
ܐܟܠܝܢ	-9.74766
ܡܫܡܫ	-9.74773
ܓܡܪ	-9.74856
ܤܝܡܬ	-9.75049
ܘܝܬܒ	-9.75197
ܕܫܡܥܘ	-9.7529
ܩܢܛܪܘܢ	-9.75349
ܤܢܝܩ	-9.75357
ܕܗܘܝ	-9.75486
ܨܥܪ	-9.75511
ܐܟܚܕ	-9.75812
ܘܐܩܝܡ	-9.76132
ܒܟܬܒ	-9.76237
ܩܕܡܝܬ	-9.76298
ܐܬܝܠܕ	-9.76329
ܒܩܠ	-9.76365
ܒܥܒܕ	-9.76392
ܪܫܝܬ	-9.76397
ܕܫܘ	-9.76454
ܢܨܪ	-9.7646
ܘܩܫܝܫ	-9.76564
ܒܠܫܢ	-9.77157
ܒܗܝ	-9.77382
ܫܘܒܚܗ	-9.77522
ܙܢܝܘܬ	-9.77618
ܡܛܪ	-9.78483
ܡܘܕܐ	-9.78556
ܤܦ	-9.78625
ܒܛܝܒܘܬ	-9.787
ܠܓܠܝ	-9.78939
ܪܝܡ	-9.79007
ܬܫܒܘܚܬܗ	-9.79142
ܕܚܙܝܢ	-9.79175
ܫܘܝ	-9.79423
ܚܘܢ	-9.79432
ܐܫܬܟܚ	-9.79513
ܛܝܡܬܐ	-9.79513
ܟܘܪܗܢ	-9.79525
ܫܘܒܗܪ	-9.79531
ܚܘܬ	-9.79574
ܒܕܚܠܬ	-9.79584
ܘܫܡܥܬ	-9.7964
ܐܦܢ	-9.79819
ܐܬܕܟܪ	-9.79923
ܩܫܝ	-9.8006
ܡܪܬ	-9.80367
ܐܤܘܪ	-9.80381
ܒܝܘܡܬ	-9.80596
ܚܫܚ	-9.80713
ܕܒܢ	-9.80784
ܘܐܫܟܚ	-9.80845
ܚܒܪ	-9.8085
ܕܡܥ	-9.80857
ܕܐܒܪܗ	-9.80867
ܡܚܝܢ	-9.80998
ܕܢܐܡܪ	-9.81183
ܘܢܦܩܘ	-9.81426
ܩܒܠܘ	-9.81528
ܕܩܕܝܫ	-9.81577
ܬܥܒܕܘܢ	-9.81648
ܕܪܡ	-9.81836
ܕܐܡܪܝܢ	-9.82141
ܦܪܚ	-9.82281
ܢܘܒܕ	-9.82301
ܕܟܝܢ	-9.82543
ܡܠܝܢ	-9.82627
ܕܚܙܐ	-9.82865
ܕܥܡܗ	-9.82905
ܠܐܢܬܬ	-9.83146
ܠܗܝܟܠ	-9.83162
ܠܒܝܫ	-9.83399
ܫܬܝܢ	-9.83434
ܦܘܪܩܢ	-9.8386
ܡܬܚܫܒ	-9.83868
ܪܚܝܩ	-9.83875
ܡܚܫܒܬ	-9.83899
ܬܝܒܘܬ	-9.83905
ܕܬܪܬ	-9.83922
ܡܘܡ	-9.83994
ܒܐܝܕ	-9.84154
ܥܢܢ	-9.84181
ܚܤܡ	-9.8421
ܒܘܝܐ	-9.84229
ܕܬܕܥ	-9.84247
ܡܫܠܡܢ	-9.86001
ܨܦ	-9.8606
ܬܢܝܢ	-9.86398
ܕܢܚܬ	-9.86763
ܒܬܪܟ	-9.8695
ܢܛܪܝܢ	-9.87019
ܕܥܡܪ	-9.87078
ܒܪܟ	-9.87158
ܒܝܘܠܦܢ	-9.87264
ܛܝܪ	-9.87446
ܪܓܡ	-9.87652
ܡܬܕܡܪ	-9.88268
ܡܐܬܝܬ	-9.88489
ܬܝܬܪ	-9.88507
ܚܝܒܝܢ	-9.88523
ܙܝܥ	-9.8853
ܛܘܒܝܗ	-9.88549
ܢܤܝܘܢ	-9.88674
ܕܨ	-9.88753
ܐܒܕܢ	-9.8885
ܚܪܫ	-9.88912
ܛܥܝ	-9.89155
ܡܚܘ	-9.89294
ܩܛܘܠ	-9.89307
ܡܫܒܚ	-9.89332
ܐܟܪܙ	-9.89436
ܥܡܢ	-9.89559
ܒܪܬ	-9.89749
ܫܡܪܝ	-9.89963
ܘܫܒܩ	-9.90019
ܐܫܕ	-9.90134
ܕܟܪ	-9.90197
ܢܥܒܪ	-9.90377
ܝܩܪ	-9.90382
ܕܒܟܠ	-9.9051
ܡܛܠܬܗ	-9.90537
ܚܒܘ	-9.91101
ܘܬܗܘ	-9.91162
ܬܫܥ	-9.91265
ܨܠܘ	-9.9137
ܘܒܪܟ	-9.91531
ܕܐܬܝܗܒ	-9.91905
ܘܐܚ	-9.91973
ܚܤܝܪ	-9.9246
ܡܫܠܡ	-9.92536
ܡܟܝܟ	-9.92549
ܩܛ	-9.92894
ܡܓܕܦ	-9.93174
ܤܘܓܐ	-9.93225
ܬܗܝܡܢܘܢ	-9.93242
ܠܒܘܫ	-9.93247
ܥܘܬܪ	-9.93318
ܤܦܩ	-9.93377
ܢܘܟܪܝ	-9.93537
ܟܐܢܐ	-9.93567
ܪܚ	-9.93618
ܤܛܪ	-9.93653
ܚܠܝܡ	-9.93834
ܡܕܒܚ	-9.94202
ܘܐܬܝܗܒ	-9.94286
ܫܪܘ	-9.94388
ܐܬܦܬܚ	-9.94402
ܪܒܢ	-9.94473
ܒܛܝܠ	-9.94521
ܝܪܚ	-9.94628
ܩܡܬ	-9.94677
ܠܡܫܡܥ	-9.94713
ܦܟ	-9.95326
ܡܬܒܥ	-9.95439
ܡܘܕܝܢ	-9.95487
ܫܪܝܢ	-9.95596
ܒܒܝܬܗ	-9.9564
ܡܝܬܝܢ	-9.95655
ܓܘܪ	-9.95762
ܨܪܬ	-9.95867
ܛܘܒ	-9.95973
ܥܒܕܝܟ	-9.96027
ܪܦ	-9.96064
ܕܝܗܘܕ	-9.96208
ܬܡܗ	-9.96517
ܠܘܝ	-9.9667
ܒܕܪ	-9.96728
ܕܚܠܘ	-9.96904
ܒܟܝܢ	-9.9704
ܫܡܟ	-9.97053
ܟܘܒ	-9.9709
ܕܕܚܠ	-9.97351
ܘܐܦܩ	-9.97515
ܕܡܕܝܢܬ	-9.97565
ܓܡܘܢ	-9.97642
ܤܘܩ	-9.97699
ܩܠܗ	-9.97984
ܡܬܛܦܝܤ	-9.98158
ܐܤܛܪܛܝܘܛ	-9.98167
ܥܘܪܠܘܬ	-9.98184
ܥܙܪ	-9.98228
ܢܐܙܠ	-9.98282
ܦܪܘܩ	-9.98339
ܙܩܦ	-9.9835
ܚܝܠܬܢ	-9.9842
ܐܚܝܕܝܢ	-9.98526
ܛܢ	-9.98571
ܕܡܬܩܪܝ	-9.9858
ܪܗܘܡܝ	-9.98595
ܕܢܦܠ	-9.98766
ܕܐܩܝܡ	-9.98911
ܐܚܘܟ	-9.98916
ܟܦܘܪ	-9.99271
ܡܒܪܟ	-9.99597
ܨܠܘܬ	-9.99661
ܒܡܝ	-10.0014
ܝܩܕ	-10.0039
ܛܝܒܘ	-10.0073
ܩܕܡܝܟ	-10.0073
ܝܒܫ	-10.008
ܐܬܝܐ	-10.0092
ܡܠܘ	-10.012
ܕܟܝܐ	-10.0128
ܩܕܘܢ	-10.0138
ܕܓܠܝ	-10.0179
ܕܥܐܠ	-10.024
ܐܬܓܠܝ	-10.0242
ܡܫܬܘܬ	-10.0252
ܡܡܬܘ	-10.0281
ܫܒܩܬ	-10.0282
ܥܐܠ	-10.0298
ܬܟܝܠ	-10.0298
ܕܐܝܤܪ	-10.0302
ܝܘܪ	-10.0306
ܒܥܕܬ	-10.0331
ܡܫܬܒܗܪ	-10.0344
ܒܙܚ	-10.0345
ܓܘܕܦ	-10.0348
ܫܠܚ	-10.0348
ܫܘܒܩܢ	-10.0349
ܚܙܬ	-10.0353
ܦܬܘܪ	-10.0364
ܫܪܒܬܗ	-10.0391
ܤܝܦ	-10.0393
ܝܪܟ	-10.0417
ܡܬܚܒܠ	-10.0425
ܨܘܪ	-10.0478
ܐܚܘܕ	-10.0487
ܕܢܥܒܕ	-10.0503
ܠܡܠܬ	-10.0519
ܤܟܠܘܬ	-10.0521
ܬܕܡܪܘ	-10.057
ܤܬܟܠܘ	-10.057
ܛܒܥ	-10.0582
ܬܘܪ	-10.0601
ܡܫܕܪ	-10.0621
ܒܠܥ	-10.0629
ܙܝܬ	-10.0651
ܠܢܦܫܗ	-10.0671
ܨܒܘ	-10.0674
ܕܤܥܪ	-10.0687
ܦܝܤ	-10.0714
ܫܘܬܦ	-10.077
ܘܦܐ	-10.078
ܢܤܒܝ	-10.0808
ܘܐܬܚܙܝ	-10.0815
ܩܤܪ	-10.0876
ܗܒܘ	-10.0892
ܤܝܒܪܬ	-10.0898
ܐܫܬܠܡ	-10.0904
ܡܚܘܬ	-10.0911
ܒܫܪܪ	-10.0912
ܟܪܡ	-10.0914
ܢܩܦ	-10.0923
ܥܪܛܠ	-10.0926
ܛܫܝ	-10.0939
ܤܗܕܘܬܗ	-10.0943
ܠܡܩܛܠ	-10.0961
ܠܩܤܪ	-10.098
ܪܛܢ	-10.0989
ܚܪܒ	-10.1015
ܠܡܠܟܘܬ	-10.1018
ܪܓܠܝܗ	-10.1036
ܤܘܟ	-10.1064
ܕܢܩܪ	-10.1083
ܢܦܠܬ	-10.1128
ܤܡܟ	-10.1137
ܤܟܪ	-10.1159
ܡܛܐ	-10.118
ܢܦܫܬ	-10.1191
ܚܡ	-10.1208
ܡܤܒܪܝܢ	-10.1281
ܦܓܪܝ	-10.1287
ܢܟܤ	-10.1306
ܕܘܟܬ	-10.1306
ܕܢܚܙ	-10.1321
ܠܡܠܐܟ	-10.133
ܡܤܬܟܠ	-10.1339
ܠܡܤܒ	-10.134
ܢܬܩܪ	-10.1354
ܡܫܬܡܥ	-10.1366
ܕܡܗܝܡܢܝܢ	-10.1369
ܕܤܠܩ	-10.1384
ܕܦܩܕ	-10.1389
ܢܤܒܬ	-10.1402
ܤܘܪܝ	-10.141
ܬܒܘ	-10.1466
ܡܚܪ	-10.1473
ܬܪܡܝ	-10.1477
ܩܝܦܐ	-10.1481
ܡܫܟܢ	-10.1488
ܬܟܪܙ	-10.1489
ܬܘܕܝܬ	-10.1492
ܕܩܒܠܬ	-10.1513
ܙܕܩܦ	-10.1513
ܠܡܡܠܠܘ	-10.1531
ܟܪܝ	-10.1538
ܡܠܚ	-10.1539
ܥܝܢܟ	-10.1541
ܕܟܝܬ	-10.1547
ܚܘܡ	-10.1551
ܡܤܟ	-10.1559
ܫܬܩ	-10.1569
ܠܡܕܥ	-10.1584
ܡܫܒܚܝܢ	-10.1589
ܝܨܦ	-10.1592
ܪܓܬ	-10.1598
ܛܢܢ	-10.162
ܡܚܒܝܢ	-10.1624
ܢܒܗܬ	-10.1632
ܠܝܥ	-10.1649
ܢܟܦ	-10.1662
ܩܪܒܬ	-10.1665
ܢܗܝܪ	-10.1685
ܕܝܡ	-10.1706
ܐܬܐܤܝ	-10.1743
ܟܠܝܠ	-10.1752
ܝܪܬܘܬ	-10.1758
ܒܘܪܟ	-10.1787
ܚܬܢ	-10.1793
ܠܡܚܙ	-10.1807
ܓܙܪ	-10.1831
ܝܘܛ	-10.1883
ܠܡܦܩ	-10.1896
ܡܚܝܒ	-10.1997
ܓܙ	-10.2073
ܐܫܬܘܕܥ	-10.2112
ܙܕܘܩ	-10.2113
ܡܬܟܪܟ	-10.2113
ܚܦܛ	-10.2115
ܫܬܐܤܬ	-10.2119
ܬܕܡܪܬ	-10.2121
ܒܝܢܝ	-10.2122
ܠܢܦܫ	-10.2133
ܡܓܕܠ	-10.2134
ܡܨܝܕܬ	-10.2137
ܩܘܤ	-10.2146
ܒܝܕܥܬ	-10.2148
ܗܝܡܢܬܘܢ	-10.2158
ܪܓܙ	-10.2175
ܡܤܟܝܢ	-10.2193
ܘܐܬܦܢܝ	-10.2205
ܒܩܢ	-10.2208
ܫܪܓ	-10.2226
ܦܚ	-10.2238
ܡܦܝܤ	-10.2247
ܪܓܠܝܟ	-10.2253
ܫܘܬܦܘܬ	-10.226
ܢܥܠܘܢ	-10.2289
ܤܝܡܝܢ	-10.2293
ܩܝܤ	-10.2295
ܕܩܤܪ	-10.2301
ܫܬܒܩ	-10.2302
ܠܩܘܒܠ	-10.2312
ܘܡܫܐܠ	-10.2317
ܢܨܒ	-10.2353
ܡܩܒܠܝܢ	-10.2358
ܠܐܒܘܗܝ	-10.2381
ܬܪܥܝܬ	-10.2385
ܡܝܬܬ	-10.2424
ܘܝܘܚܢ	-10.2432
ܕܢܫܠܡ	-10.2435
ܡܫܬܥܒܕ	-10.2446
ܢܡܘܬ	-10.2479
ܡܟܫ	-10.2496
ܥܠܝܡ	-10.2497
ܦܠܓܘܬ	-10.2512
ܫܘܠܡ	-10.2524
ܙܕܝܩ	-10.253
ܕܡܝܬܪ	-10.2552
ܙܩ	-10.2614
ܡܨܥܬ	-10.2636
ܐܚܪܝܬ	-10.2644
ܒܐܬܪ	-10.2682
ܡܚܒܠ	-10.2707
ܟܢܝܫܝܢ	-10.2779
ܬܪܢܓ	-10.2779
ܫܠܬܐ	-10.2799
ܛܘܗܡ	-10.2805
ܐܬܚܫܒ	-10.2809
ܚܫܡܝܬ	-10.2822
ܠܡܩܡ	-10.2853
ܬܘܠܬ	-10.2855
ܠܡܬܠ	-10.2857
ܡܬܝܗܒ	-10.2857
ܠܕܘܟܬ	-10.2878
ܙܡܪ	-10.2895
ܡܟܝܟܘܬ	-10.2901
ܬܚܘܡ	-10.2911
ܒܫܘܩ	-10.2925
ܡܟܪܙܝܢ	-10.2929
ܠܘܛ	-10.2933
ܡܫܬܠܡ	-10.2936
ܚܠܦܝܟ	-10.2937
ܠܟܢܘܫܬ	-10.2939
ܝܠܘܕ	-10.2947
ܨܪ	-10.2953
ܕܢܫܪ	-10.298
ܐܪܟܘܢ	-10.3024
ܫܩܝܠ	-10.3029
ܠܩܪܝܬ	-10.309
ܐܫܬܥ	-10.3121
ܬܛܥ	-10.3124
ܒܚܕܘܬ	-10.314
ܓܙܪܬ	-10.317
ܘܐܤܝ	-10.3309
ܪܝܚ	-10.3318
ܕܚܝܠ	-10.3348
ܫܢܬ	-10.3368
ܛܛ	-10.3386
ܟܐܒ	-10.3447
ܬܫܟܚ	-10.3493
ܦܫܛ	-10.3493
ܦܗܤܛ	-10.3494
ܐܫܬܕܪ	-10.3494
ܫܓܘܫ	-10.3498
ܡܛܥܝܢ	-10.3501
ܬܪܝܨ	-10.3505
ܙܒܘܪ	-10.3505
ܙܘܥ	-10.3511
ܐܬܬܥܝܪ	-10.3512
ܬܡܝܗ	-10.3515
ܬܢܤ	-10.3517
ܘܐܪܝܡ	-10.3523
ܐܓܪܦ	-10.3535
ܡܩܕܫ	-10.3548
ܚܡܝܪ	-10.3552
ܥܒܕܝܗ	-10.3561
ܪܘܙ	-10.357
ܥܝܢܝܟ	-10.3582
ܒܡܨܥܬ	-10.3648
ܕܢܬܡܠ	-10.3657
ܢܬܓܠ	-10.3674
ܡܬܕܒܪ	-10.3711
ܚܙܝܪ	-10.3727
ܟܤܝܬ	-10.3738
ܓܦ	-10.3753
ܒܛܢ	-10.3786
ܛܠܡ	-10.38
ܠܡܪܗ	-10.3832
ܡܘܒܠ	-10.3859
ܐܬܩܪܒ	-10.386
ܛܢܦܘܬ	-10.3874
ܬܦܠ	-10.3874
ܒܘܪܟܬ	-10.3923
ܡܫܐܠ	-10.3947
ܟܪܝܬ	-10.4016
ܨܒܝܬ	-10.4046
ܡܩܕ	-10.4076
ܦܠܘܚ	-10.4124
ܒܡܕܒ	-10.4189
ܐܫܬܡܥܬ	-10.4262
ܤܘܥܪܢ	-10.4262
ܐܫܬܒܗܪ	-10.4262
ܥܪܘܩ	-10.4262
ܡܫܘܚܬ	-10.4264
ܐܬܟܪܟ	-10.4264
ܥܬܝܩ	-10.4264
ܠܬܚܬ	-10.4267
ܚܛܘܦ	-10.4269
ܙܥܩ	-10.4272
ܫܘܘܕܝ	-10.4273
ܫܬܪܪ	-10.4279
ܒܤܝܡܘܬ	-10.4293
ܚܛܦ	-10.4304
ܐܠܝܨ	-10.4313
ܫܠܝܡ	-10.4315
ܚܤܪ	-10.4318
ܡܬܗܦܟ	-10.4321
ܡܫܡܠܝ	-10.4324
ܒܬܘܠܬ	-10.4336
ܒܕܘܟܬ	-10.4353
ܚܤܝܪܘܬ	-10.4382
ܬܬܪܝܡ	-10.4408
ܡܝܬܪ	-10.4425
ܫܘܩ	-10.4432
ܩܛܝܪ	-10.4442
ܡܝܩܪ	-10.4517
ܢܕܪܐ	-10.4571
ܬܚܝܒ	-10.4639
ܟܟܪ	-10.4667
ܢܫܬܒܩ	-10.4695
ܚܛܗܝܗ	-10.473
ܪܒܘܬ	-10.476
ܙܕܩܬ	-10.4844
ܒܤܬܪܗ	-10.5095
ܡܙܕܕܩ	-10.5095
ܝܘܬܪܢ	-10.5096
ܬܘܩܠܬ	-10.5096
ܩܛܪܓ	-10.5098
ܚܢܦ	-10.51
ܐܡܝܪ	-10.5105
ܤܓܘܕ	-10.5107
ܡܫܚܠܦ	-10.5111
ܢܬܒܛܠ	-10.5151
ܘܐܤܪ	-10.517
ܕܐܤܗܕ	-10.5198
ܢܗܠܟ	-10.5219
ܪܥܘܬ	-10.5232
ܚܒܬ	-10.529
ܡܕܒܪܢ	-10.5296
ܡܫܥܒܕ	-10.5363
ܨܒܥ	-10.5416
ܨܘܡ	-10.5575
ܕܢܫܐܠ	-10.5658
ܐܒܗܝܟ	-10.5669
ܓܒܝܬ	-10.5709
ܟܤܝܐ	-10.5844
ܡܬܓܠ	-10.5877
ܐܫܬܝ	-10.5906
ܤܕܘ	-10.5934
ܐܦܠܘ	-10.5959
ܦܬܝܚ	-10.6005
ܤܥܘܪ	-10.6006
ܫܒܝܩ	-10.6013
ܙܝܙ	-10.6014
ܚܢܩ	-10.6019
ܡܡܪܚ	-10.6019
ܡܘܕܥ	-10.6021
ܬܩܒܠܘܢ	-10.6024
ܡܢܤܝܢ	-10.6045
ܤܩܘܒܠ	-10.6059
ܥܙ	-10.6236
ܕܪܥ	-10.629
ܐܬܓ	-10.6334
ܢܛܝܟ	-10.6362
ܥܬܝܪ	-10.6414
ܤܦܤ	-10.6632
ܡܫܬܥ	-10.666
ܒܚܛܗܝ	-10.6779
ܐܤܬܟܠ	-10.6833
ܚܛܗܝܟ	-10.6905
ܐܢܛܝܘܟܝ	-10.7004
ܩܪܩܦܬ	-10.7004
ܒܨܝܪ	-10.7004
ܐܤܛܦܢ	-10.7005
ܡܤܬܒܪ	-10.7005
ܢܫܬܒܗܪ	-10.7005
ܡܦܫܩ	-10.7006
ܕܢܩܛܠܘܢ	-10.7006
ܚܪܝܦ	-10.7007
ܘܐܫܬܥܝ	-10.7007
ܐܫܝܓ	-10.701
ܗܦܘܟ	-10.701
ܦܪܝܩ	-10.7018
ܦܪܘܥ	-10.7019
ܬܘܟܠܢ	-10.7021
ܒܘܟܪ	-10.7021
ܡܓܢ	-10.7036
ܡܛܬ	-10.704
ܒܥܠܕܒܒܝܟ	-10.704
ܘܐܘܕܝ	-10.7042
ܥܘܡܩ	-10.7053
ܐܫܬܐܠ	-10.7064
ܒܝܫܘܬ	-10.7109
ܕܐܫܪ	-10.7115
ܩܘܦܝ	-10.7144
ܫܬܡܥܘ	-10.7176
ܚܬܡ	-10.7247
▁	-12.2318
1	-12.5294
)	-13.5294
4	-13.5294
9	-13.5294
:	-13.5294
5	-13.5294
