<pad>	0
</s>	0
<unk>	0
▁the	-3.30126
s	-3.41538
.	-3.43244
,	-3.51673
▁of	-3.69314
▁and	-3.96673
▁to	-4.10283
▁in	-4.29046
▁a	-4.36801
▁is	-4.64856
▁	-4.88345
ed	-4.98486
▁for	-5.03766
ing	-5.06486
▁-	-5.14928
▁that	-5.171
d	-5.27838
▁be	-5.30194
▁you	-5.30837
▁The	-5.37758
▁(	-5.40879
▁not	-5.4811
▁are	-5.56037
▁with	-5.5615
▁on	-5.56583
)	-5.58387
▁it	-5.58661
▁or	-5.59348
▁'	-5.67232
▁as	-5.69702
▁by	-5.69742
t	-5.74317
ly	-5.74641
▁have	-5.76695
:	-5.773
▁was	-5.77723
▁from	-5.78558
▁will	-5.79872
▁they	-5.81322
▁I	-5.8468
y	-5.885
▁them	-5.89856
▁s	-5.90542
▁this	-5.90679
er	-5.90961
▁has	-5.98375
;	-6.00612
▁which	-6.00703
▁who	-6.03489
▁He	-6.0653
▁their	-6.08215
al	-6.09472
▁A	-6.09472
e	-6.10006
▁his	-6.10541
▁an	-6.11875
▁he	-6.12189
n	-6.22157
a	-6.22688
▁all	-6.28936
▁Allah	-6.2918
▁at	-6.29669
r	-6.32036
▁And	-6.32583
▁We	-6.3641
in	-6.37726
▁your	-6.4349
?	-6.43589
i	-6.46189
▁India	-6.47543
-	-6.4962
▁In	-6.51928
▁do	-6.53305
'	-6.53315
▁one	-6.53471
▁but	-6.53912
▁we	-6.54041
re	-6.5491
▁S	-6.59759
▁been	-6.61397
▁"	-6.61708
▁any	-6.63151
m	-6.63557
es	-6.64609
▁were	-6.64951
▁can	-6.65293
▁re	-6.65387
▁had	-6.67805
▁It	-6.69744
▁those	-6.70015
▁him	-6.7024
▁people	-6.7052
▁said	-6.71874
▁when	-6.7388
th	-6.74233
▁shall	-6.74919
▁so	-6.75165
c	-6.77363
▁no	-6.79526
▁other	-6.80207
ation	-6.80722
or	-6.80803
▁/	-6.81313
▁C	-6.82789
▁God	-6.82965
%	-6.83164
▁also	-6.8326
▁if	-6.84531
▁what	-6.85061
b	-6.86105
▁there	-6.86265
st	-6.88044
!	-6.88241
▁may	-6.89859
▁our	-6.89866
S	-6.90631
▁Lord	-6.92288
▁its	-6.93811
le	-6.94087
it	-6.94247
▁up	-6.95641
l	-6.96126
▁out	-6.9728
▁This	-6.97369
an	-6.97458
h	-6.99191
ur	-6.99322
▁me	-6.99621
▁would	-7.01379
▁time	-7.0207
ment	-7.02285
▁such	-7.04243
A	-7.04813
▁only	-7.05118
▁_	-7.05751
▁under	-7.06963
k	-7.08696
o	-7.08786
g	-7.08961
▁“	-7.09064
ity	-7.09989
▁B	-7.10129
il	-7.11041
able	-7.11085
P	-7.11535
▁19	-7.12092
▁made	-7.12405
li	-7.14071
▁de	-7.14466
O	-7.15341
ion	-7.15368
ar	-7.15416
▁should	-7.16185
▁more	-7.16681
on	-7.16682
ri	-7.16869
▁about	-7.17003
▁than	-7.17422
▁like	-7.18289
▁over	-7.18303
▁into	-7.186
▁then	-7.18892
at	-7.19734
▁P	-7.20151
ra	-7.2183
▁So	-7.22377
▁my	-7.22623
▁But	-7.23373
ic	-7.24156
▁us	-7.25417
C	-7.25604
▁1	-7.25872
ma	-7.26169
▁some	-7.26559
▁They	-7.26584
I	-7.26771
▁F	-7.27525
D	-7.27795
p	-7.28054
▁two	-7.28345
▁un	-7.29583
▁”	-7.29968
la	-7.30982
▁Re	-7.31555
▁[	-7.31902
▁new	-7.33176
ive	-7.34299
en	-7.34605
ta	-7.34706
▁after	-7.35391
T	-7.3572
ers	-7.35763
▁before	-7.35798
▁these	-7.36139
ate	-7.36555
▁D	-7.37706
ent	-7.37738
▁G	-7.38614
▁His	-7.39173
▁Indian	-7.39653
▁life	-7.40187
na	-7.41444
]	-7.41458
u	-7.41793
▁day	-7.42216
el	-7.42854
▁say	-7.43499
us	-7.43698
ti	-7.43757
ness	-7.44321
ir	-7.44339
se	-7.44698
ul	-7.46242
f	-7.4662
x	-7.46995
▁world	-7.47369
▁good	-7.47512
’	-7.47811
▁her	-7.47922
as	-7.48079
ro	-7.48111
ol	-7.48217
▁e	-7.48642
vi	-7.49617
▁being	-7.49628
▁T	-7.4983
lo	-7.50798
▁make	-7.50978
w	-7.51713
▁O	-7.53305
B	-7.53344
ter	-7.53937
▁You	-7.54336
ance	-7.55429
▁To	-7.558
▁If	-7.56531
▁man	-7.5689
▁M	-7.57111
"	-7.57872
▁E	-7.57911
▁through	-7.58626
▁country	-7.58705
▁know	-7.58723
▁N	-7.59335
▁come	-7.59598
id	-7.59671
et	-7.59883
▁Government	-7.5993
▁President	-7.6004
M	-7.60981
▁between	-7.6102
ant	-7.61148
▁work	-7.61179
▁K	-7.61362
te	-7.61437
am	-7.62146
ch	-7.62182
▁&	-7.62403
▁used	-7.62832
▁way	-7.63078
▁down	-7.63611
to	-7.63632
▁see	-7.64428
▁could	-7.64491
▁well	-7.64676
▁first	-7.64919
um	-7.65234
▁did	-7.65243
▁Act	-7.653
ll	-7.66529
▁most	-7.67614
▁part	-7.67681
▁year	-7.67836
▁where	-7.67895
▁L	-7.6806
ary	-7.68166
▁per	-7.68304
▁upon	-7.68778
▁many	-7.69028
E	-7.69507
▁d	-7.69519
age	-7.69875
sh	-7.69934
▁years	-7.70303
▁b	-7.70443
▁All	-7.71217
▁There	-7.71391
▁very	-7.71465
▁believe	-7.73
▁2	-7.73667
▁f	-7.73799
▁earth	-7.73953
▁An	-7.74287
▁against	-7.74687
ist	-7.75244
de	-7.75344
▁take	-7.76379
▁right	-7.7765
▁co	-7.78038
z	-7.78072
▁sub	-7.78078
the	-7.78133
▁am	-7.79172
G	-7.79866
▁For	-7.7998
▁back	-7.80238
▁even	-7.81856
▁every	-7.8189
ge	-7.82168
▁State	-7.82399
▁c	-7.82462
ve	-7.82726
),	-7.8297
ha	-7.83282
ne	-7.83356
▁p	-7.83866
un	-7.84226
L	-7.84247
▁go	-7.84345
▁given	-7.84376
▁among	-7.84544
▁dis	-7.84822
ad	-7.85058
▁place	-7.85089
ated	-7.85606
ia	-7.85697
▁because	-7.86234
▁Him	-7.86388
▁own	-7.86556
▁must	-7.86825
▁use	-7.87095
di	-7.87314
▁give	-7.87913
▁great	-7.88051
▁As	-7.88301
ce	-7.88447
▁help	-7.89051
▁water	-7.89106
▁No	-7.89199
im	-7.89509
▁get	-7.89889
man	-7.89918
est	-7.89944
▁H	-7.90592
▁does	-7.90694
ful	-7.90929
U	-7.91255
is	-7.91496
H	-7.91654
R	-7.91722
▁When	-7.91913
▁set	-7.91961
▁ye	-7.9236
ut	-7.925
ty	-7.92525
▁R	-7.92933
▁end	-7.93339
▁section	-7.93378
).	-7.93593
▁>	-7.93703
▁order	-7.93712
▁sent	-7.94066
ni	-7.94276
▁con	-7.95311
▁Day	-7.95593
▁Do	-7.9607
▁she	-7.96334
▁number	-7.96728
▁t	-7.96737
ver	-7.96875
▁<	-7.98073
▁whom	-7.98103
▁away	-7.98935
ting	-7.99057
▁Me	-7.99273
op	-7.99425
▁system	-7.99473
▁3	-7.99599
▁now	-7.99716
▁how	-7.99842
▁person	-8.0006
▁file	-8.0077
va	-8.01283
▁De	-8.01496
."	-8.01643
me	-8.01758
▁development	-8.01871
▁st	-8.02201
▁Our	-8.02661
ish	-8.02858
▁during	-8.03091
ya	-8.03488
▁case	-8.0353
▁power	-8.03746
▁g	-8.04064
▁same	-8.04126
▁4	-8.04385
▁while	-8.05011
▁name	-8.05307
ism	-8.05799
▁just	-8.05992
▁Sa	-8.06025
ry	-8.06063
v	-8.06242
▁each	-8.06368
...	-8.06509
▁5	-8.06621
▁long	-8.0702
om	-8.07028
N	-8.07315
ine	-8.07761
ci	-8.07978
▁men	-8.08191
▁want	-8.08353
and	-8.08474
▁both	-8.08564
▁account	-8.09114
▁nor	-8.09339
tic	-8.09695
go	-8.10061
▁Ra	-8.1017
▁found	-8.10201
ous	-8.10321
▁called	-8.10742
▁came	-8.10958
▁another	-8.10965
▁etc	-8.10982
3	-8.1144
j	-8.11745
▁land	-8.11843
mo	-8.12167
▁Ba	-8.12473
ot	-8.12611
less	-8.12627
tion	-8.12703
▁fear	-8.12777
▁here	-8.12918
▁things	-8.13282
▁form	-8.13963
▁period	-8.14207
wa	-8.14273
V	-8.14303
▁different	-8.14591
ure	-8.1492
▁indeed	-8.15251
▁Then	-8.15765
ian	-8.15863
tra	-8.1594
▁W	-8.1594
F	-8.16051
▁three	-8.16136
▁need	-8.16315
▁find	-8.16403
”	-8.16901
▁turn	-8.1706
▁Ka	-8.171
▁bring	-8.17352
ted	-8.17531
▁without	-8.17672
ak	-8.17906
▁knowledge	-8.18091
ating	-8.18289
up	-8.18562
▁National	-8.18846
▁Shri	-8.19351
ies	-8.19538
▁U	-8.1966
2	-8.20257
▁‘	-8.20774
▁interest	-8.21028
ward	-8.21148
ud	-8.21283
▁means	-8.21597
▁much	-8.21761
▁information	-8.21867
▁call	-8.21878
▁ma	-8.22031
1	-8.22574
▁present	-8.22877
be	-8.22918
pe	-8.23665
▁unto	-8.23801
ho	-8.23968
▁St	-8.23987
co	-8.24832
▁state	-8.24882
ial	-8.24938
he	-8.26604
▁pro	-8.26638
▁government	-8.2666
▁On	-8.27035
▁Minister	-8.27248
ence	-8.27708
▁Ma	-8.27825
▁OF	-8.27975
▁truth	-8.28029
▁women	-8.28125
ng	-8.28504
▁Say	-8.28611
ow	-8.28614
:%	-8.28746
/	-8.2939
▁become	-8.29601
▁My	-8.29859
—	-8.29952
▁That	-8.30379
▁Con	-8.30616
▁di	-8.30723
hi	-8.31
▁human	-8.31094
▁created	-8.31171
▁public	-8.31313
▁message	-8.31482
▁hand	-8.31501
▁pre	-8.31949
▁cannot	-8.32004
ru	-8.32026
▁last	-8.32531
ise	-8.3256
du	-8.32752
▁Lo	-8.32839
5	-8.3312
00	-8.33289
▁important	-8.33308
▁show	-8.33368
▁except	-8.33462
ite	-8.33669
▁let	-8.33746
W	-8.34229
▁vi	-8.34329
▁–	-8.34419
lu	-8.34558
▁What	-8.34583
▁cause	-8.34933
▁income	-8.35259
mb	-8.35306
▁Book	-8.35432
▁company	-8.35471
ip	-8.35674
no	-8.35724
▁business	-8.35819
▁New	-8.35883
▁ex	-8.36072
▁amount	-8.36347
▁surely	-8.36679
K	-8.36716
▁taken	-8.3683
▁list	-8.36982
▁never	-8.37009
min	-8.37276
ac	-8.37301
▁today	-8.37408
▁known	-8.37467
▁process	-8.37889
▁J	-8.38017
▁mo	-8.38099
▁support	-8.38169
ig	-8.38211
▁These	-8.38432
ap	-8.38705
▁head	-8.38871
▁return	-8.3892
▁act	-8.39161
▁children	-8.39405
▁comp	-8.3984
▁love	-8.40102
▁Be	-8.40579
▁Go	-8.40601
▁various	-8.40732
ling	-8.4094
▁best	-8.4124
▁V	-8.41289
▁18	-8.41834
rs	-8.42209
4	-8.42212
pa	-8.42239
▁put	-8.42354
▁Ha	-8.42613
▁Un	-8.42655
▁themselves	-8.42693
har	-8.42789
▁old	-8.42831
▁better	-8.42873
▁small	-8.43154
▁view	-8.43154
land	-8.43165
▁evil	-8.43168
ga	-8.43209
▁large	-8.4327
▁equal	-8.43804
ba	-8.43915
▁clear	-8.44116
▁w	-8.44195
▁mind	-8.44347
▁within	-8.44471
end	-8.44505
mi	-8.44619
▁point	-8.44702
▁done	-8.44955
eth	-8.45167
da	-8.45289
▁La	-8.4531
tri	-8.45349
▁body	-8.45503
▁left	-8.45832
▁level	-8.45846
▁window	-8.46205
▁social	-8.46361
▁10	-8.46411
▁6	-8.46473
▁One	-8.47113
tu	-8.47163
▁high	-8.4718
▁respect	-8.47287
do	-8.47322
▁n	-8.47532
pur	-8.47552
▁address	-8.47605
▁Al	-8.4764
▁education	-8.47658
ving	-8.47799
▁going	-8.47879
▁free	-8.47885
▁Who	-8.47904
ran	-8.47927
▁open	-8.48077
▁book	-8.48541
▁Man	-8.48597
▁due	-8.48641
▁value	-8.48683
▁follow	-8.4874
ck	-8.489
our	-8.48912
one	-8.49184
▁light	-8.49402
▁think	-8.49447
▁At	-8.49676
ities	-8.4969
▁law	-8.50062
Y	-8.50113
ens	-8.50142
per	-8.50338
▁play	-8.50472
nd	-8.50491
▁days	-8.50648
▁fact	-8.50721
iv	-8.50906
▁Na	-8.50918
hu	-8.50984
▁imp	-8.51234
fi	-8.51381
▁sector	-8.51468
▁Ja	-8.51657
ang	-8.51663
gu	-8.51768
▁towards	-8.51893
▁full	-8.51925
▁far	-8.51985
▁en	-8.52083
ction	-8.52157
▁provide	-8.52514
▁language	-8.52567
▁Central	-8.52673
▁kind	-8.52762
ee	-8.52928
▁too	-8.53051
▁Pro	-8.53205
▁available	-8.53409
ally	-8.53595
pr	-8.54028
▁action	-8.54081
▁Mo	-8.54563
▁change	-8.54704
▁Dr	-8.55036
ring	-8.55303
▁off	-8.56011
ell	-8.5607
po	-8.56072
▁home	-8.56208
▁brought	-8.5624
lic	-8.56275
sa	-8.56329
▁heavens	-8.5635
▁thou	-8.56351
ven	-8.56432
▁la	-8.5647
▁worship	-8.56514
▁four	-8.56582
for	-8.56717
▁service	-8.56779
of	-8.5701
▁punishment	-8.57061
nt	-8.5727
▁times	-8.57408
▁send	-8.57477
ning	-8.57497
han	-8.57512
av	-8.5765
▁Vi	-8.57795
▁national	-8.57802
ect	-8.57853
▁ra	-8.58253
▁command	-8.58282
▁again	-8.58289
▁Su	-8.58293
▁date	-8.58415
▁family	-8.58618
▁li	-8.58847
section	-8.58854
men	-8.58958
ations	-8.59142
ible	-8.59385
ill	-8.59402
ified	-8.59669
▁economic	-8.60124
▁food	-8.60181
nic	-8.6023
▁ask	-8.60294
▁k	-8.60325
▁death	-8.60468
▁folder	-8.6047
ay	-8.60505
ag	-8.60586
▁Bhavan	-8.60629
▁non	-8.60723
▁visit	-8.61196
▁something	-8.61263
▁ho	-8.61487
▁line	-8.61523
▁matter	-8.61524
▁might	-8.61753
ual	-8.61757
▁market	-8.61781
▁m	-8.61798
▁special	-8.61923
gi	-8.62258
AR	-8.62275
ship	-8.624
ical	-8.62718
▁whole	-8.62777
ph	-8.63015
ize	-8.63088
▁She	-8.6312
▁self	-8.63216
▁Pa	-8.63216
▁project	-8.63256
The	-8.63371
qui	-8.63465
▁8	-8.63498
▁subject	-8.63761
▁group	-8.64136
▁keep	-8.64172
ious	-8.64216
▁war	-8.64258
▁data	-8.64321
▁art	-8.64488
▁true	-8.64617
▁cr	-8.64623
▁Or	-8.64641
▁application	-8.65207
ana	-8.65354
▁capital	-8.65549
▁others	-8.65579
▁local	-8.65632
▁close	-8.65658
▁look	-8.65711
▁provided	-8.65873
▁already	-8.66091
vo	-8.66126
▁area	-8.66133
ile	-8.66347
con	-8.66464
pi	-8.66583
▁o	-8.66783
▁start	-8.66784
▁gra	-8.66812
▁together	-8.66855
ative	-8.66902
▁night	-8.66911
cu	-8.67049
▁near	-8.67296
▁common	-8.67321
▁Co	-8.67366
▁religion	-8.67423
▁few	-8.67623
▁app	-8.67719
▁create	-8.67744
▁7	-8.6776
▁gave	-8.67827
▁second	-8.67884
▁Ta	-8.6796
ct	-8.68112
▁nation	-8.68137
}	-8.68254
▁control	-8.68626
▁car	-8.68627
▁tr	-8.68629
▁countries	-8.68795
▁sh	-8.68835
▁Indeed	-8.68906
tal	-8.68987
▁Rashtrapati	-8.69278
nk	-8.69476
▁Delhi	-8.69484
▁Your	-8.69552
▁following	-8.69786
▁wrong	-8.69898
▁i	-8.69965
▁po	-8.70016
▁age	-8.70039
▁above	-8.70049
sion	-8.70311
▁Those	-8.70343
▁enter	-8.70357
ard	-8.70372
▁Rs	-8.70472
▁little	-8.70509
▁exp	-8.70515
▁path	-8.70606
▁tax	-8.70768
▁signs	-8.7094
qu	-8.71133
▁type	-8.71166
▁himself	-8.71243
▁bank	-8.71318
▁based	-8.71482
AN	-8.71589
act	-8.7183
ka	-8.71961
ai	-8.72351
▁services	-8.72362
ition	-8.72387
▁cost	-8.72462
▁v	-8.72472
▁term	-8.72508
▁heart	-8.72834
▁flow	-8.72918
▁soul	-8.72929
ke	-8.72934
em	-8.72997
▁making	-8.72998
▁thought	-8.73424
▁15	-8.73706
▁total	-8.73707
▁child	-8.73737
▁policy	-8.73776
dic	-8.73805
led	-8.73948
20	-8.74105
▁court	-8.7429
nu	-8.74354
▁report	-8.74384
▁until	-8.74519
▁Mu	-8.74716
▁having	-8.74739
▁less	-8.7476
▁lo	-8.7484
▁faith	-8.74913
▁rate	-8.75143
ever	-8.75197
ide	-8.75221
▁cent	-8.7524
▁clause	-8.75304
▁individual	-8.75355
▁example	-8.75435
▁still	-8.75437
▁though	-8.7553
▁ch	-8.75797
amp	-8.75881
ten	-8.75925
▁words	-8.76136
▁Ca	-8.76163
▁areas	-8.76184
▁around	-8.76257
ger	-8.76523
ah	-8.76526
▁ever	-8.76643
▁seen	-8.76693
▁society	-8.76737
▁took	-8.76766
▁side	-8.76829
▁ten	-8.7705
▁Th	-8.77059
▁sea	-8.7707
▁inter	-8.77154
▁key	-8.77274
▁hearts	-8.77295
▁va	-8.7768
▁occasion	-8.7771
▁face	-8.7778
▁political	-8.77791
▁plan	-8.77887
▁certain	-8.77982
tro	-8.78102
ja	-8.78272
▁thing	-8.78331
▁Po	-8.78427
▁Fa	-8.78432
▁members	-8.78605
▁pay	-8.78611
▁able	-8.78672
▁result	-8.7874
▁always	-8.78816
▁Bo	-8.79018
▁hard	-8.79069
ors	-8.7917
▁whose	-8.79317
▁position	-8.79578
tor	-8.79663
ight	-8.79679
▁12	-8.79771
▁along	-8.7979
▁nothing	-8.79955
ake	-8.79977
▁believers	-8.80009
▁main	-8.80091
▁Mi	-8.80172
▁therefore	-8.80226
▁text	-8.8029
bo	-8.80346
les	-8.80389
▁cl	-8.80574
bi	-8.80766
▁whether	-8.8077
▁:	-8.81038
▁house	-8.81102
▁reason	-8.81173
▁including	-8.81324
ture	-8.81468
▁deeds	-8.81498
▁Da	-8.81572
ld	-8.81902
▁effect	-8.81931
ration	-8.82108
▁post	-8.82365
▁school	-8.82421
ew	-8.82463
▁Bank	-8.82493
▁%	-8.82593
bu	-8.82654
od	-8.8268
▁further	-8.82849
▁short	-8.82896
uc	-8.8294
▁rule	-8.82986
▁research	-8.83107
▁Show	-8.83116
▁five	-8.83192
▁bo	-8.83468
▁leave	-8.83531
▁Ar	-8.83611
▁British	-8.83624
▁ca	-8.83716
▁accept	-8.83725
▁yet	-8.83873
▁young	-8.83992
ding	-8.84009
▁growth	-8.84183
ner	-8.84399
▁pa	-8.84463
▁Ex	-8.84486
▁Select	-8.8456
▁Messenger	-8.84737
ify	-8.84746
▁nature	-8.84779
▁health	-8.84839
all	-8.85097
ore	-8.85174
▁question	-8.85329
▁reward	-8.85343
▁meeting	-8.85349
▁Court	-8.85369
▁function	-8.85492
▁course	-8.85537
▁error	-8.85588
▁received	-8.85659
▁became	-8.85676
▁test	-8.8569
▁Ro	-8.86047
mp	-8.86047
red	-8.86334
▁9	-8.86336
▁peace	-8.86344
▁Di	-8.86432
▁th	-8.86463
▁deal	-8.86487
▁held	-8.86583
▁care	-8.86624
▁Please	-8.86695
▁ro	-8.8671
ca	-8.8699
▁live	-8.8705
▁THE	-8.87076
▁House	-8.87446
▁money	-8.87456
▁States	-8.87461
▁later	-8.87498
out	-8.87537
cc	-8.87722
▁Hindu	-8.87757
▁word	-8.87873
▁character	-8.87987
▁read	-8.88147
▁ha	-8.88158
ions	-8.88189
▁next	-8.882
▁After	-8.88223
ble	-8.88251
▁With	-8.88388
▁Most	-8.88405
ji	-8.88411
▁office	-8.88522
ze	-8.88556
▁strong	-8.88676
▁English	-8.88789
rt	-8.88949
▁im	-8.88979
▁Ga	-8.89218
▁hold	-8.89223
▁Hindi	-8.89566
▁required	-8.8959
▁Prime	-8.89861
▁Singh	-8.89864
we	-8.90011
pect	-8.90079
▁PRESIDENT	-8.90094
ator	-8.9021
rate	-8.90236
▁bear	-8.90317
▁previous	-8.90348
▁access	-8.90464
ab	-8.90505
ign	-8.9056
▁20	-8.90563
▁rest	-8.90757
▁six	-8.90769
▁brother	-8.90885
▁son	-8.90969
▁Pra	-8.91079
nce	-8.91149
▁Committee	-8.91254
▁several	-8.91325
▁region	-8.9136
▁possible	-8.91417
▁selected	-8.91431
We	-8.91775
▁Cha	-8.91782
ub	-8.91808
▁disc	-8.91825
▁real	-8.91852
▁x	-8.91873
▁industry	-8.91956
▁class	-8.92055
▁movement	-8.92252
▁How	-8.92284
king	-8.92336
way	-8.92444
▁foreign	-8.92451
ized	-8.92636
▁speak	-8.92852
der	-8.92965
▁building	-8.93213
▁Some	-8.93395
▁either	-8.93494
▁activities	-8.93589
▁ba	-8.93624
▁plant	-8.93641
▁High	-8.93709
▁Ministry	-8.93924
▁Parliament	-8.93996
▁certainly	-8.94108
▁field	-8.94112
▁hands	-8.94115
▁mother	-8.94149
▁authority	-8.942
▁fire	-8.94333
ram	-8.94378
▁source	-8.94405
▁tell	-8.94433
▁force	-8.94472
rn	-8.94473
▁task	-8.94501
▁seek	-8.94539
os	-8.94567
▁father	-8.94603
ER	-8.94773
▁disease	-8.94982
ium	-8.95188
ron	-8.95276
▁contact	-8.95347
ec	-8.95502
▁progress	-8.95621
▁University	-8.95639
▁ti	-8.9581
▁(1)	-8.95815
▁itself	-8.95857
▁cons	-8.95873
▁image	-8.95927
▁technology	-8.95932
▁fall	-8.95982
use	-8.96019
▁trade	-8.96108
▁purpose	-8.96168
▁mode	-8.96233
▁financial	-8.96299
▁production	-8.96345
▁forth	-8.96347
ES	-8.96651
mit	-8.96681
▁save	-8.96684
▁anything	-8.96971
▁Le	-8.97027
▁scheme	-8.97045
▁went	-8.97121
kar	-8.97247
▁Ram	-8.97322
▁link	-8.97361
▁Department	-8.97433
AL	-8.97638
▁price	-8.97708
tan	-8.97805
▁computer	-8.97906
tain	-8.98009
▁{	-8.98074
her	-8.98095
▁General	-8.98206
den	-8.98375
ability	-8.98407
▁trust	-8.98583
▁current	-8.98634
▁guide	-8.98695
▁Pre	-8.98767
war	-8.98834
▁history	-8.9896
▁quality	-8.99135
mon	-8.99165
▁pass	-8.9919
gra	-8.99198
▁understand	-8.99264
▁mis	-8.99317
▁property	-8.99582
▁working	-8.99602
ice	-8.99708
▁Pradesh	-8.99844
▁pi	-8.99845
▁File	-8.99955
▁user	-8.9998
▁established	-9.00001
▁success	-9.00028
day	-9.00075
ash	-9.00186
▁Open	-9.00325
▁Ho	-9.00347
au	-9.00538
▁village	-9.00555
cent	-9.00571
▁share	-9.00605
▁major	-9.00782
▁don	-9.00845
▁provisions	-9.01072
▁material	-9.01096
own	-9.01152
▁future	-9.01251
▁website	-9.01432
▁ill	-9.01528
▁credit	-9.01562
IT	-9.01611
▁necessary	-9.01768
▁remember	-9.01783
▁wish	-9.01844
ach	-9.01913
▁behind	-9.02002
▁increase	-9.02014
ification	-9.02015
▁En	-9.02041
▁therein	-9.02136
val	-9.02165
▁bar	-9.02167
▁entire	-9.02183
▁mail	-9.02228
▁using	-9.02262
ex	-9.02303
tation	-9.02304
▁knows	-9.02421
J	-9.02571
▁Development	-9.02585
ization	-9.02643
▁since	-9.02656
ants	-9.02709
port	-9.02751
▁started	-9.02835
line	-9.02866
▁mercy	-9.02888
▁Could	-9.02888
▁hath	-9.02978
▁role	-9.03041
▁experience	-9.03203
▁million	-9.03222
▁record	-9.03239
▁se	-9.03414
▁referred	-9.03444
▁network	-9.03467
▁remain	-9.03684
▁demand	-9.03731
ose	-9.03767
▁run	-9.03899
▁Us	-9.03961
▁Va	-9.03974
▁security	-9.04153
▁Congress	-9.0416
▁related	-9.04172
ctor	-9.04182
▁fa	-9.04205
che	-9.0437
▁past	-9.04481
▁sign	-9.0468
ler	-9.04815
gg	-9.04962
▁000	-9.04966
▁greater	-9.04968
▁protect	-9.0498
ound	-9.05007
▁Thus	-9.05009
▁List	-9.0514
▁By	-9.05337
▁pl	-9.05339
▁reach	-9.0537
oc	-9.05374
▁community	-9.05451
▁Not	-9.05485
▁asked	-9.05519
RB	-9.0566
▁Maha	-9.05674
▁higher	-9.05732
▁le	-9.05807
▁whatever	-9.05848
▁written	-9.05895
▁cha	-9.05896
tre	-9.06107
▁RRB	-9.06119
▁sure	-9.0612
ath	-9.06148
▁got	-9.0633
dy	-9.06343
▁revealed	-9.06447
▁city	-9.06475
fe	-9.06484
▁guidance	-9.06515
▁doubt	-9.06516
ari	-9.06538
▁’	-9.06579
▁specified	-9.06683
▁Now	-9.06759
▁Te	-9.06779
▁living	-9.06795
▁produce	-9.06853
ff	-9.06927
▁11	-9.06935
▁natural	-9.07169
ber	-9.07222
▁object	-9.07351
▁students	-9.07351
ory	-9.07385
▁deep	-9.07397
ists	-9.07479
▁sense	-9.07488
▁once	-9.07573
▁paid	-9.07586
pl	-9.07776
▁Union	-9.07798
▁forward	-9.07817
▁Mar	-9.0788
▁add	-9.07889
▁seven	-9.07956
▁modern	-9.07979
▁institutions	-9.07993
▁Muslim	-9.08061
▁wide	-9.08082
▁district	-9.08158
IC	-9.0841
tent	-9.086
▁witness	-9.08629
▁gain	-9.08736
▁problem	-9.08747
ised	-9.08869
ple	-9.0891
▁regard	-9.08921
▁answer	-9.08939
▁Se	-9.09046
▁lead	-9.09241
press	-9.09281
▁eat	-9.09389
▁Ch	-9.09406
▁firm	-9.09435
▁trans	-9.09462
▁ne	-9.09485
▁member	-9.09576
▁according	-9.09608
ster	-9.09713
▁verily	-9.0983
shi	-9.0985
▁hope	-9.09864
▁story	-9.09895
▁righteous	-9.09957
▁complete	-9.09987
▁stand	-9.10017
▁soon	-9.10057
▁lu	-9.10113
▁desire	-9.10247
ery	-9.10359
▁continue	-9.10365
▁mu	-9.10388
struct	-9.10418
▁decision	-9.10534
int	-9.10613
▁culture	-9.10618
▁poor	-9.10865
▁months	-9.10898
▁server	-9.10937
und	-9.11188
▁lot	-9.11299
cr	-9.113
▁fast	-9.11319
pp	-9.11326
▁thy	-9.11465
▁page	-9.11465
▁till	-9.11508
▁claim	-9.11552
▁limit	-9.11563
▁Y	-9.11635
▁instrument	-9.11671
nal	-9.1172
▁told	-9.11855
▁believed	-9.11868
▁letter	-9.11891
▁Gandhi	-9.11972
▁pur	-9.11997
▁direct	-9.12001
▁Constitution	-9.12015
▁mi	-9.12033
▁INDIA	-9.12072
▁Even	-9.12113
▁16	-9.1214
▁month	-9.12221
▁manner	-9.1223
▁fo	-9.12533
▁eyes	-9.12595
▁method	-9.12822
side	-9.12835
▁talk	-9.12861
▁tree	-9.12865
bha	-9.13099
▁sun	-9.13135
bar	-9.13197
▁century	-9.13257
▁ver	-9.13262
que	-9.1328
▁design	-9.13318
cal	-9.13396
▁Ne	-9.13465
▁qu	-9.13525
▁writing	-9.13584
▁pe	-9.13752
▁international	-9.13839
put	-9.1387
▁why	-9.1392
▁however	-9.13947
▁blood	-9.1422
▁basis	-9.14233
▁benefit	-9.14242
▁hu	-9.1435
▁article	-9.14455
▁prayer	-9.14489
▁receive	-9.14507
let	-9.14639
ton	-9.14645
mark	-9.1478
▁investment	-9.14799
▁appointed	-9.14813
▁setting	-9.14844
▁ground	-9.14875
▁turned	-9.14928
▁Bengal	-9.15021
▁energy	-9.15104
pro	-9.15122
▁http	-9.15135
▁party	-9.15226
▁ob	-9.15241
▁sin	-9.15258
(	-9.15333
▁considered	-9.15334
▁operation	-9.15342
▁files	-9.15399
▁Let	-9.15451
▁size	-9.15462
▁br	-9.15525
▁Mr	-9.15596
▁loss	-9.15604
▁charge	-9.1565
▁single	-9.15661
▁particular	-9.15736
▁Muslims	-9.15774
ency	-9.15818
▁30	-9.15907
▁Surely	-9.15909
▁meet	-9.16101
▁doing	-9.16212
▁Moses	-9.16216
▁Prophet	-9.16239
▁works	-9.16253
▁0	-9.16378
▁transfer	-9.16389
ology	-9.16446
▁practice	-9.16505
▁die	-9.16519
ala	-9.16574
▁Council	-9.16595
IS	-9.16617
van	-9.16667
▁payment	-9.16702
▁approach	-9.16806
▁structure	-9.16866
▁global	-9.17047
▁Verily	-9.17055
▁general	-9.17065
▁Fire	-9.17071
▁para	-9.17364
tax	-9.17472
▁cre	-9.17698
?"	-9.17744
▁Gu	-9.17801
▁exchange	-9.17804
og	-9.17826
hy	-9.17876
▁14	-9.17884
gn	-9.17889
▁program	-9.17938
▁difficult	-9.1805
▁San	-9.1815
▁host	-9.18217
▁However	-9.18221
fa	-9.18241
▁ve	-9.18246
▁Wa	-9.18272
▁25	-9.18272
▁Information	-9.18475
verse	-9.18525
▁problems	-9.18529
▁Asia	-9.18554
▁assessee	-9.18635
par	-9.1865
▁Israel	-9.18663
▁check	-9.18675
▁poet	-9.18761
isation	-9.18806
▁spread	-9.18821
▁display	-9.18843
▁favour	-9.19059
ama	-9.19101
▁purposes	-9.19131
▁search	-9.19193
▁big	-9.19238
▁bi	-9.19373
▁Li	-9.19377
ock	-9.19391
▁crore	-9.19611
▁religious	-9.19615
▁Of	-9.19667
▁stage	-9.1968
▁Gra	-9.19908
▁sp	-9.19921
▁generation	-9.19998
▁Sha	-9.20055
▁ju	-9.20114
▁disbelieve	-9.20136
tt	-9.20224
▁America	-9.20229
med	-9.20264
▁write	-9.20283
▁management	-9.20485
pos	-9.20595
▁music	-9.20738
▁option	-9.20798
▁air	-9.20808
▁conduct	-9.20861
lar	-9.20888
▁passed	-9.20919
▁wealth	-9.21085
mer	-9.21238
▁sum	-9.21238
▁institution	-9.21395
▁issued	-9.21459
):	-9.21478
▁Add	-9.21489
▁harm	-9.21504
▁comes	-9.21613
tar	-9.21666
▁often	-9.21731
▁met	-9.21808
▁maintain	-9.21952
gen	-9.22029
gan	-9.22047
▁none	-9.22093
▁changes	-9.22095
▁Director	-9.2213
▁allowed	-9.22152
▁thus	-9.22183
▁Z	-9.22207
▁na	-9.22246
ick	-9.22271
ep	-9.22271
▁hear	-9.22325
▁patient	-9.22377
▁Muhammad	-9.22404
▁*	-9.22458
▁freedom	-9.22537
▁stone	-9.22573
ind	-9.22745
▁sound	-9.22908
ging	-9.2295
▁everything	-9.22955
▁Sub	-9.22977
▁Bha	-9.23029
▁content	-9.23086
▁terms	-9.231
▁Name	-9.23112
ug	-9.2313
▁taking	-9.23146
▁creation	-9.23192
▁rec	-9.23271
yan	-9.23532
▁advance	-9.24014
▁personal	-9.24022
▁fight	-9.24068
ments	-9.24092
▁needs	-9.24162
lt	-9.24327
mar	-9.24369
▁books	-9.24458
xi	-9.24549
rit	-9.24576
ik	-9.24725
▁loan	-9.24824
▁neither	-9.24826
gar	-9.24841
▁Public	-9.24924
ft	-9.24974
wi	-9.25031
External	-9.25055
▁programme	-9.25076
▁cur	-9.25089
▁alone	-9.25113
anda	-9.25186
▁efforts	-9.2532
▁assessment	-9.25346
▁duty	-9.25419
▁really	-9.25454
IN	-9.25526
za	-9.25541
▁week	-9.2562
▁outside	-9.25661
▁13	-9.25668
▁Per	-9.25723
▁temple	-9.25735
▁space	-9.25787
eg	-9.25933
▁industrial	-9.25941
aries	-9.25977
▁author	-9.26024
▁least	-9.26078
▁Such	-9.26129
▁X	-9.26228
▁population	-9.26239
▁conditions	-9.26291
▁Institute	-9.26338
sk	-9.26391
▁deny	-9.26395
▁Error	-9.26404
▁thousand	-9.26406
▁rain	-9.26481
RA	-9.26515
▁profit	-9.26538
RE	-9.26605
▁Par	-9.26616
▁fe	-9.26624
pt	-9.26652
▁effective	-9.26737
▁com	-9.26741
▁low	-9.26782
q	-9.26783
▁developed	-9.27009
ara	-9.27075
▁early	-9.27115
▁Whether	-9.27136
▁training	-9.27304
▁move	-9.27388
▁Jo	-9.27409
▁goods	-9.27423
▁ensure	-9.27444
▁arm	-9.27454
ature	-9.27557
▁rich	-9.27623
so	-9.27756
ny	-9.27764
▁promise	-9.27939
▁science	-9.27941
▁messages	-9.28002
▁literature	-9.28042
▁stay	-9.28051
▁Where	-9.28086
▁followed	-9.28223
by	-9.28329
▁provision	-9.28364
▁judge	-9.28564
▁video	-9.28646
▁color	-9.28721
▁evidence	-9.28752
▁persons	-9.28788
▁secret	-9.28853
mor	-9.28867
si	-9.28977
▁woman	-9.29024
▁Br	-9.29024
▁original	-9.29054
▁dead	-9.2908
▁Plan	-9.29211
▁Sp	-9.29242
ani	-9.29254
▁spirit	-9.29346
▁parts	-9.29447
▁1.	-9.29541
af	-9.29547
▁consist	-9.29604
▁situation	-9.2974
▁Can	-9.29802
▁Islam	-9.29916
▁South	-9.29947
chan	-9.3013
ie	-9.30185
▁feel	-9.30271
▁Officer	-9.30301
▁consider	-9.30316
nch	-9.30354
▁print	-9.30394
istic	-9.30417
▁Canno	-9.30419
▁travel	-9.30428
▁device	-9.30498
▁capacity	-9.30566
cl	-9.30617
▁organ	-9.30643
▁matters	-9.30788
▁Bi	-9.30797
▁Board	-9.30803
▁specific	-9.30832
▁saying	-9.30863
▁include	-9.30873
▁document	-9.30888
▁par	-9.30935
▁eight	-9.30956
▁People	-9.31086
▁l	-9.311
▁unit	-9.31132
ries	-9.31232
▁Du	-9.31279
▁Raj	-9.31328
▁Tu	-9.31346
▁drink	-9.31468
▁separate	-9.31469
▁prevent	-9.31472
ack	-9.31557
ii	-9.3158
▁town	-9.31713
ved	-9.31756
▁front	-9.31764
▁half	-9.31793
▁export	-9.31853
▁centre	-9.3188
▁birth	-9.31888
▁condition	-9.31973
▁wife	-9.31993
nc	-9.32093
tha	-9.32156
▁Section	-9.32156
ju	-9.32269
7	-9.32298
▁cor	-9.32406
row	-9.32492
0	-9.32526
ki	-9.32536
▁private	-9.3259
▁study	-9.32626
▁Comp	-9.32633
dra	-9.32733
▁meaning	-9.32736
▁pen	-9.3279
▁17	-9.32867
bit	-9.331
chi	-9.33102
▁May	-9.33148
▁fr	-9.33257
▁du	-9.33267
▁gives	-9.33285
ava	-9.33299
▁saw	-9.33348
▁appear	-9.33369
▁win	-9.33469
▁ri	-9.3354
▁conf	-9.33614
▁dec	-9.33644
▁mankind	-9.33654
ern	-9.33672
▁king	-9.33852
▁Qu	-9.3386
▁angels	-9.34037
▁learn	-9.34101
RI	-9.3411
▁lost	-9.34185
▁Mukherjee	-9.34297
▁cut	-9.34525
ably	-9.34534
art	-9.34542
50	-9.34576
▁super	-9.34602
▁almost	-9.35058
▁try	-9.35129
▁Sabha	-9.35139
▁request	-9.3527
▁torment	-9.35593
ned	-9.35646
▁resources	-9.35703
▁break	-9.35713
▁earlier	-9.35778
vis	-9.35791
▁figure	-9.35815
▁kept	-9.35888
▁Project	-9.35997
▁factor	-9.36028
ute	-9.36043
▁lakh	-9.36126
▁al	-9.36137
▁direction	-9.3631
▁Merciful	-9.36326
▁across	-9.36362
▁draw	-9.3639
name	-9.36437
▁Commission	-9.3644
▁def	-9.36441
▁touch	-9.36444
▁issue	-9.36497
form	-9.36501
sur	-9.36503
▁opens	-9.36551
ib	-9.36576
rous	-9.36607
▁North	-9.36628
▁raised	-9.36656
▁strength	-9.36697
▁similar	-9.36729
▁represent	-9.36816
▁measure	-9.36838
▁Bharat	-9.37089
▁happen	-9.37121
://	-9.37136
▁Governor	-9.37171
mm	-9.37178
rr	-9.37231
▁Africa	-9.37282
su	-9.37325
mu	-9.37393
▁environment	-9.37398
▁enough	-9.37406
cept	-9.37508
▁official	-9.37541
▁Ad	-9.37544
▁bit	-9.37725
lam	-9.37843
lin	-9.37874
▁multi	-9.38023
▁challenge	-9.38023
▁cover	-9.38024
▁notice	-9.38081
▁top	-9.38116
▁physical	-9.38138
▁boy	-9.38196
sha	-9.38209
tter	-9.38211
cious	-9.38212
▁third	-9.38247
▁job	-9.38322
OR	-9.38454
▁Use	-9.38487
cha	-9.38638
▁aim	-9.38688
arch	-9.38707
▁farmers	-9.38755
▁port	-9.38767
▁Tri	-9.38827
▁grant	-9.38833
if	-9.38881
aw	-9.38904
▁Republic	-9.38921
son	-9.39085
▁Centre	-9.3911
▁god	-9.39115
▁offer	-9.39128
iya	-9.3923
▁hundred	-9.39259
▁makes	-9.39286
▁App	-9.39303
tive	-9.39314
▁agreement	-9.39399
▁fi	-9.39417
▁depend	-9.39431
ric	-9.39619
▁female	-9.39637
▁Dis	-9.39723
▁astray	-9.39754
▁East	-9.39783
▁fund	-9.39835
▁Ph	-9.39846
▁contribution	-9.39864
▁apply	-9.39958
▁products	-9.40268
cient	-9.40383
ient	-9.40407
▁below	-9.40657
▁allow	-9.40802
▁Work	-9.40819
▁carried	-9.40856
▁please	-9.40857
▁West	-9.4093
▁reform	-9.41031
ada	-9.41142
acy	-9.41155
over	-9.41245
▁Pan	-9.41361
ates	-9.41371
▁Pat	-9.41396
ological	-9.41517
▁Ver	-9.4154
ook	-9.41593
▁connection	-9.41594
▁failed	-9.41602
▁April	-9.41663
▁require	-9.41685
▁fair	-9.41698
▁United	-9.41772
▁decided	-9.41799
ham	-9.41884
▁rural	-9.41902
▁2.	-9.41947
gh	-9.41949
dha	-9.41983
▁Inter	-9.42005
▁US	-9.42077
▁guided	-9.42133
▁attack	-9.42205
▁bound	-9.42231
sis	-9.42281
▁ancient	-9.4239
▁From	-9.42438
▁prepared	-9.42561
▁Bu	-9.42601
▁relating	-9.4275
▁economy	-9.42944
ces	-9.43112
rid	-9.43135
▁Fi	-9.43194
ral	-9.43236
▁ge	-9.43246
▁lives	-9.43359
cor	-9.43456
eration	-9.43467
▁(2)	-9.43502
detail	-9.43517
▁behalf	-9.43533
▁Have	-9.43545
▁ki	-9.43568
▁Sanskrit	-9.43651
▁IN	-9.43686
▁World	-9.43729
▁disbelievers	-9.43776
ue	-9.4396
▁weak	-9.44214
▁strengthen	-9.44277
▁Rama	-9.44466
▁built	-9.44481
hara	-9.44514
▁shape	-9.44536
▁War	-9.44636
tru	-9.44685
with	-9.44727
can	-9.44746
bb	-9.44779
▁Har	-9.44811
▁Pur	-9.44812
▁Ko	-9.44915
▁normal	-9.44919
▁50	-9.44954
▁drive	-9.45146
▁actually	-9.45192
▁lay	-9.45227
▁che	-9.45235
01	-9.45364
emp	-9.455
▁lower	-9.45519
▁speech	-9.45519
▁statement	-9.45525
▁popular	-9.45559
▁wall	-9.45724
▁projects	-9.45743
vel	-9.45747
▁feed	-9.45819
▁Pranab	-9.45881
ps	-9.45935
EN	-9.45975
▁river	-9.4604
▁Chief	-9.46045
▁tri	-9.46108
▁import	-9.46212
▁Technology	-9.46324
▁Scheme	-9.46324
▁copy	-9.46326
▁whoever	-9.46327
▁certificate	-9.46486
nder	-9.46538
▁deposit	-9.46542
▁100	-9.46566
rat	-9.468
12	-9.46835
▁ce	-9.46876
▁hi	-9.46899
ease	-9.46942
▁store	-9.47042
ged	-9.47108
▁cat	-9.47157
▁happy	-9.47218
▁Income	-9.47219
ping	-9.47222
▁Their	-9.47254
ali	-9.47351
▁Account	-9.47425
▁paper	-9.4746
mate	-9.47497
ome	-9.47574
10	-9.47609
▁honour	-9.47668
til	-9.47683
6	-9.4773
▁besides	-9.47733
▁exc	-9.47753
▁unbelievers	-9.47767
▁Tra	-9.47807
▁Ru	-9.47822
▁Every	-9.47874
▁led	-9.47911
▁issues	-9.47934
▁road	-9.47987
▁essential	-9.48038
▁cases	-9.48054
read	-9.48084
▁leaders	-9.48089
▁mark	-9.481
▁Education	-9.48161
▁especially	-9.48161
▁style	-9.48209
AT	-9.48213
▁event	-9.48335
▁published	-9.48409
▁scale	-9.4843
▁skill	-9.48575
▁tradition	-9.48615
rk	-9.48684
▁Commissioner	-9.48697
lit	-9.48737
▁opportunity	-9.48739
▁born	-9.48795
▁Save	-9.4891
▁regular	-9.49196
atory	-9.49252
▁mar	-9.49387
pic	-9.49407
▁relations	-9.49416
▁rights	-9.49446
▁TO	-9.49474
▁clean	-9.49489
▁Trans	-9.49493
▁attend	-9.49501
▁Sri	-9.49593
uch	-9.49611
▁Message	-9.49614
▁Ku	-9.49623
▁basic	-9.49649
like	-9.49834
ev	-9.49965
▁24	-9.50006
▁coming	-9.50012
ea	-9.50056
mal	-9.50084
▁objective	-9.50089
▁Mon	-9.50137
▁Right	-9.50149
▁providing	-9.50158
▁develop	-9.50218
ear	-9.5022
▁morning	-9.50243
▁simple	-9.50411
light	-9.5043
ey	-9.50488
▁accepted	-9.50511
▁provides	-9.50521
▁focus	-9.50632
▁states	-9.50638
br	-9.50788
▁Service	-9.50811
▁red	-9.50862
▁Under	-9.50865
▁Category	-9.50875
hold	-9.50932
▁During	-9.50952
▁award	-9.50959
▁ja	-9.5096
▁details	-9.51071
▁facilities	-9.5113
▁concerned	-9.51151
▁friends	-9.51198
▁View	-9.51207
▁load	-9.51212
▁cultural	-9.51214
vision	-9.51236
▁giving	-9.51301
▁su	-9.51323
▁idea	-9.51336
▁wrote	-9.51342
▁seem	-9.51375
ung	-9.51452
▁active	-9.51457
rd	-9.51459
body	-9.51462
▁grow	-9.51487
▁easy	-9.51514
▁status	-9.51726
▁increased	-9.5179
hood	-9.51846
pu	-9.51884
▁spend	-9.52109
▁central	-9.5213
thi	-9.52194
▁star	-9.52218
],	-9.52237
▁infrastructure	-9.52454
▁caused	-9.52499
fully	-9.5253
▁While	-9.5254
▁Pu	-9.52579
ix	-9.52597
▁reached	-9.526
▁manifest	-9.52626
▁perform	-9.52638
bil	-9.52699
RO	-9.5276
▁International	-9.52842
▁game	-9.52843
▁civil	-9.53219
▁Hereafter	-9.53231
▁influence	-9.53231
▁legal	-9.53237
▁prescribed	-9.53318
set	-9.53372
▁percent	-9.5344
▁Sign	-9.53462
tract	-9.53601
▁thereof	-9.53609
▁ship	-9.53622
▁forms	-9.5366
▁thee	-9.53711
▁began	-9.53796
▁rather	-9.54015
▁American	-9.54155
▁obey	-9.54157
▁improve	-9.54203
▁oil	-9.54272
▁default	-9.54276
▁Time	-9.54304
▁room	-9.54334
▁contract	-9.54403
▁site	-9.54404
▁instead	-9.54408
▁Ni	-9.54502
▁difference	-9.54552
▁March	-9.54608
fer	-9.54614
ier	-9.54653
▁groups	-9.5471
ulation	-9.54742
vol	-9.54746
▁card	-9.54815
▁justice	-9.54816
▁rules	-9.54863
▁root	-9.54864
gin	-9.54896
▁unless	-9.54916
▁cast	-9.54955
▁explain	-9.55024
“	-9.55132
▁base	-9.55144
▁yourselves	-9.552
▁forgive	-9.55251
▁build	-9.55279
▁beyond	-9.55377
▁gene	-9.55606
▁leg	-9.55632
▁importance	-9.55701
ural	-9.55764
ump	-9.55771
try	-9.55883
▁enjoy	-9.55984
▁emb	-9.56212
▁heaven	-9.56281
▁responsible	-9.56356
app	-9.56359
▁film	-9.56431
dar	-9.56446
▁organization	-9.56461
▁belongs	-9.56514
▁sky	-9.56547
▁beginning	-9.56551
▁note	-9.56577
▁principle	-9.5658
▁kill	-9.56598
▁watch	-9.56715
right	-9.56785
▁shown	-9.5686
▁values	-9.56934
▁Bar	-9.57035
▁Bal	-9.57041
16	-9.57074
uck	-9.57089
ular	-9.57138
▁lie	-9.57249
▁serve	-9.57417
▁Si	-9.57498
▁folk	-9.57626
▁session	-9.57709
lock	-9.57777
▁listen	-9.57785
▁permission	-9.57794
▁programmes	-9.57906
▁product	-9.5798
▁Ya	-9.58155
▁remove	-9.58248
▁balance	-9.5839
lay	-9.58392
▁dispute	-9.58405
▁reflect	-9.58526
▁spiritual	-9.58641
time	-9.58689
meter	-9.58691
▁Hell	-9.58702
▁attract	-9.58713
▁da	-9.58713
log	-9.5873
▁Move	-9.59023
▁Other	-9.59036
▁eye	-9.59045
▁ga	-9.5913
▁vision	-9.59169
▁wind	-9.59176
ken	-9.59183
▁password	-9.59218
▁Failed	-9.59261
▁potential	-9.59308
▁places	-9.59381
▁Ye	-9.594
▁Shi	-9.59413
yn	-9.59433
▁fla	-9.59465
▁walk	-9.595
matic	-9.595
▁male	-9.59562
▁step	-9.59621
▁returned	-9.59628
▁exceed	-9.59631
▁El	-9.59631
ST	-9.59647
az	-9.59653
lig	-9.59699
▁Ti	-9.59701
▁placed	-9.59746
▁appeal	-9.59815
▁treatment	-9.59929
▁bad	-9.6002
where	-9.60166
▁Bill	-9.60245
This	-9.6028
▁forest	-9.60281
▁addition	-9.60466
▁round	-9.60474
▁version	-9.60543
▁seed	-9.60635
kha	-9.60728
▁daughter	-9.6079
ets	-9.60818
▁cap	-9.60822
▁farm	-9.60894
mic	-9.60923
▁understanding	-9.60971
▁heard	-9.60986
▁range	-9.6106
▁quite	-9.61157
▁code	-9.6123
▁feature	-9.61272
▁Research	-9.61353
▁girl	-9.61353
▁collection	-9.61386
▁asset	-9.61456
▁Gujarat	-9.61494
▁traditional	-9.61494
fl	-9.61584
▁organisation	-9.61649
▁Quran	-9.61673
▁Evolution	-9.61729
▁scholar	-9.61729
▁model	-9.61738
▁else	-9.61781
▁gone	-9.61852
ek	-9.61879
low	-9.61887
▁servants	-9.62002
▁expression	-9.62003
▁labour	-9.6206
▁friend	-9.6208
▁praise	-9.62099
▁unjust	-9.62107
lan	-9.62128
▁inform	-9.62155
▁correct	-9.62159
▁existing	-9.62198
▁dance	-9.62277
▁mass	-9.62331
▁says	-9.62337
unt	-9.6238
▁prop	-9.62457
under	-9.62556
▁existence	-9.62605
▁added	-9.62623
▁rivers	-9.62632
▁suffer	-9.6272
▁promote	-9.62918
▁activity	-9.62979
▁white	-9.63018
▁Up	-9.63029
▁becomes	-9.63057
▁communication	-9.63059
▁Are	-9.63101
▁Group	-9.63107
▁Set	-9.63121
▁parents	-9.63245
lf	-9.63267
kh	-9.63296
▁establish	-9.63305
io	-9.63332
▁rise	-9.63364
▁lies	-9.6337
fect	-9.6343
▁Pakistan	-9.63442
▁anti	-9.63487
▁System	-9.6349
▁Pri	-9.63513
▁Many	-9.63536
not	-9.63545
operative	-9.63587
ID	-9.63717
▁bond	-9.63732
▁agricultural	-9.63827
▁ru	-9.63913
▁train	-9.63936
▁sha	-9.6397
▁log	-9.63979
▁employment	-9.64171
▁mental	-9.64184
▁str	-9.64214
jo	-9.6428
▁Sc	-9.64303
▁cell	-9.64433
▁mean	-9.64531
SS	-9.64559
▁black	-9.64614
je	-9.64703
▁Rec	-9.64771
lies	-9.64841
oo	-9.6486
iz	-9.64889
ising	-9.64977
▁citizens	-9.64981
▁Search	-9.652
ou	-9.65244
▁Out	-9.65257
▁concerning	-9.65261
▁taste	-9.6529
▁goes	-9.65304
08	-9.65348
▁format	-9.65548
▁felt	-9.65643
▁pain	-9.65669
▁reference	-9.65674
▁21	-9.65824
▁knew	-9.65831
▁Punjab	-9.65921
▁Create	-9.65933
▁plus	-9.65946
▁getting	-9.65982
▁Garden	-9.66069
cular	-9.66098
vation	-9.66137
▁min	-9.66177
▁Therefore	-9.66217
▁parties	-9.66231
▁goal	-9.66243
▁moment	-9.66257
▁running	-9.66303
▁opinion	-9.66315
▁delete	-9.66376
▁news	-9.66471
▁Sam	-9.66482
▁Resurrection	-9.66612
▁verses	-9.66613
▁wise	-9.66699
▁presented	-9.66738
mission	-9.66759
HA	-9.66772
▁learning	-9.66788
eep	-9.66834
▁fixed	-9.66834
▁Krishna	-9.6686
▁gr	-9.66884
▁aware	-9.66912
▁languages	-9.66945
abad	-9.67069
Allah	-9.67358
▁extend	-9.67378
▁warm	-9.6744
ko	-9.67447
▁Europe	-9.67463
▁connect	-9.67479
IR	-9.67484
▁Member	-9.67491
▁secure	-9.67508
▁ear	-9.67574
▁Sat	-9.67577
gro	-9.67597
▁sale	-9.67663
ON	-9.67677
▁Copy	-9.6771
▁Op	-9.67869
▁green	-9.6791
▁auto	-9.67942
▁Ki	-9.67989
▁colour	-9.68009
▁department	-9.68089
▁Why	-9.68201
▁mentioned	-9.68209
▁novel	-9.68303
▁possess	-9.68312
▁gl	-9.68317
▁carry	-9.68385
▁painful	-9.68391
▁generally	-9.68441
▁bus	-9.68494
9	-9.68513
▁Ac	-9.68513
▁police	-9.68614
▁usually	-9.68614
▁Dev	-9.68882
▁responsibility	-9.68917
▁plain	-9.6892
▁produced	-9.691
▁Folder	-9.6912
▁destroyed	-9.6914
nath	-9.6917
▁wanted	-9.69258
▁Car	-9.69305
▁Ju	-9.69343
In	-9.69405
▁immediately	-9.69456
▁Today	-9.69532
▁sight	-9.6964
▁Kar	-9.69659
▁Supreme	-9.6968
▁severe	-9.69731
▁fish	-9.69755
▁ago	-9.69844
▁names	-9.69922
▁collect	-9.69948
▁election	-9.69958
▁presence	-9.69991
▁According	-9.70039
▁warn	-9.70047
▁ideal	-9.70062
▁associate	-9.70147
▁associated	-9.70187
late	-9.70263
▁wishes	-9.70314
▁won	-9.70319
▁item	-9.70328
cus	-9.70356
▁Kashmir	-9.70398
▁Enter	-9.70404
▁tried	-9.70488
ific	-9.70502
ef	-9.7068
▁y	-9.70721
ED	-9.70725
▁Science	-9.70759
▁dream	-9.7076
▁cross	-9.70761
▁31	-9.70852
▁blind	-9.70863
tta	-9.70931
▁opportunities	-9.71018
▁avoid	-9.7102
pen	-9.71024
dhi	-9.71072
▁encourage	-9.71173
11	-9.71174
▁formed	-9.71175
▁Office	-9.7126
▁Sur	-9.71284
▁significant	-9.71329
▁continued	-9.71534
▁perfect	-9.71541
▁belong	-9.71626
▁medical	-9.71698
▁Fund	-9.71722
▁moon	-9.7175
▁join	-9.71766
▁poetry	-9.718
▁sur	-9.71821
▁serious	-9.71852
lip	-9.71864
▁suggest	-9.71999
▁expenditure	-9.72006
▁struggle	-9.72006
▁performance	-9.7207
▁famous	-9.72111
bal	-9.72115
wer	-9.72147
▁Wi	-9.72155
▁fine	-9.72185
esh	-9.72222
ttle	-9.72248
▁forgiveness	-9.72337
▁Islamic	-9.72408
▁feet	-9.72439
▁Explanation	-9.72478
▁industries	-9.7253
▁companies	-9.72531
▁beautiful	-9.72583
▁animals	-9.72599
▁degree	-9.7261
▁scientific	-9.72741
▁accounts	-9.72747
▁anyone	-9.72765
▁ideas	-9.72808
uk	-9.72817
▁exist	-9.72855
▁Yet	-9.7288
▁regarding	-9.72926
▁enable	-9.73045
▁origin	-9.73065
▁exercise	-9.7311
▁procedure	-9.7311
▁Pe	-9.73126
▁Kan	-9.73204
▁pure	-9.73222
▁ON	-9.73236
▁calendar	-9.73269
▁reject	-9.73281
gue	-9.73332
▁King	-9.73341
▁Provided	-9.73371
mber	-9.73399
▁gold	-9.73426
▁final	-9.73447
▁Wise	-9.73466
teen	-9.7352
▁insect	-9.73532
▁youth	-9.73569
▁earn	-9.73606
▁assistance	-9.73628
▁increasing	-9.7364
▁Shah	-9.73644
▁directory	-9.73714
▁concept	-9.73744
▁particularly	-9.73786
▁occur	-9.73787
▁bill	-9.73864
▁punish	-9.73867
▁revelations	-9.73983
IL	-9.74012
▁workers	-9.74042
▁nine	-9.74135
▁attain	-9.74214
▁Min	-9.74215
▁Address	-9.74235
▁pray	-9.74302
▁transport	-9.74304
▁houses	-9.74368
▁Any	-9.7444
▁joint	-9.74472
▁piece	-9.74496
hal	-9.74506
▁press	-9.74546
▁supply	-9.74548
▁ways	-9.74551
ough	-9.74572
▁sat	-9.74579
part	-9.74622
wan	-9.74752
▁email	-9.74763
▁software	-9.74765
II	-9.74787
▁successful	-9.74951
raj	-9.75053
▁journey	-9.75086
▁attempt	-9.7514
▁relevant	-9.7514
▁select	-9.7523
▁station	-9.75236
▁relation	-9.75272
▁fruit	-9.75304
▁Thou	-9.75304
▁proper	-9.75332
▁Ri	-9.75343
AS	-9.75365
▁recommend	-9.75464
▁Which	-9.75464
▁Import	-9.75573
▁symbol	-9.75574
▁accordance	-9.75645
▁units	-9.75698
▁granted	-9.75798
AM	-9.75878
▁23	-9.75951
▁Only	-9.75962
▁team	-9.75966
▁contains	-9.75982
▁concern	-9.76004
▁plants	-9.7601
▁laid	-9.76065
dal	-9.76091
aka	-9.76095
uri	-9.76141
▁2000	-9.76163
▁Start	-9.76166
▁fully	-9.762
▁media	-9.76254
▁release	-9.76331
▁perhaps	-9.76334
▁Tamil	-9.76334
▁forces	-9.76375
▁administration	-9.76443
cult	-9.76505
▁minister	-9.76553
▁Guru	-9.76772
▁feeling	-9.76805
▁former	-9.76816
▁broad	-9.76827
SE	-9.76837
▁Fe	-9.7686
▁Truth	-9.76882
▁location	-9.76898
▁urge	-9.7691
▁Calcutta	-9.76936
▁worth	-9.76942
);	-9.76973
▁speed	-9.77004
▁machine	-9.77014
▁chief	-9.77046
▁Last	-9.77082
▁limited	-9.77135
▁Will	-9.77193
▁picture	-9.77211
▁writer	-9.77225
izing	-9.77251
▁husband	-9.77322
▁target	-9.77322
▁ones	-9.77323
TH	-9.77323
tical	-9.77354
He	-9.77354
▁agriculture	-9.77377
X	-9.77398
▁stop	-9.77403
▁choose	-9.77498
▁January	-9.77542
▁powers	-9.77652
▁includes	-9.77904
▁memory	-9.78018
▁north	-9.7808
▁supported	-9.78142
▁convey	-9.78161
▁risk	-9.78228
graph	-9.78256
▁standard	-9.78399
▁table	-9.78462
▁Pharaoh	-9.78508
02	-9.78517
▁proceed	-9.78523
▁transaction	-9.78542
▁sell	-9.78593
▁effort	-9.78648
▁sufficient	-9.78768
▁directly	-9.78771
70	-9.78811
▁memo	-9.78879
▁voice	-9.78934
▁Enable	-9.78942
▁consideration	-9.78942
▁conv	-9.78994
fo	-9.79045
▁middle	-9.79046
▁cities	-9.79079
▁relative	-9.79102
▁22	-9.79143
▁weight	-9.79153
▁takes	-9.7916
▁Change	-9.79167
▁Ab	-9.79276
▁26	-9.79342
You	-9.79382
▁Mumbai	-9.79383
▁relationship	-9.79458
ties	-9.7956
▁guard	-9.79749
▁hill	-9.79811
▁ban	-9.79813
▁drug	-9.79835
▁quot	-9.79848
▁length	-9.79891
▁denied	-9.79894
▁portion	-9.79932
▁Char	-9.79933
▁grace	-9.80006
lk	-9.80021
▁begin	-9.80096
▁expect	-9.80117
▁attention	-9.80118
ibility	-9.80177
▁covered	-9.80192
▁banks	-9.80266
▁IT	-9.80272
▁master	-9.80298
tem	-9.80343
▁pleasure	-9.80344
▁door	-9.80461
▁Power	-9.80534
▁mountains	-9.80608
▁Lok	-9.807
▁transgress	-9.80749
CC	-9.80887
▁Christian	-9.80924
▁changed	-9.80927
uff	-9.81008
▁looking	-9.81013
▁Management	-9.81029
▁mutual	-9.81029
▁count	-9.81148
LE	-9.81297
▁fit	-9.81329
▁Abraham	-9.81388
▁inside	-9.81491
from	-9.81542
▁waste	-9.81553
▁cooperation	-9.81603
ators	-9.81629
shed	-9.81633
▁solution	-9.8166
EC	-9.81672
09	-9.81681
▁Children	-9.81718
▁match	-9.8172
cation	-9.81757
▁recite	-9.81801
igh	-9.81852
▁decade	-9.81855
▁apostle	-9.81891
▁construction	-9.81891
uring	-9.81906
▁wa	-9.82026
▁script	-9.82035
▁Ge	-9.82053
▁milk	-9.82075
▁highest	-9.82154
88	-9.82163
▁promised	-9.82183
▁largest	-9.82283
▁south	-9.8229
▁discussion	-9.82295
▁Forgiving	-9.82296
▁straight	-9.82354
ban	-9.82375
▁Sal	-9.82422
▁skin	-9.82502
▁AND	-9.8253
▁Schedule	-9.82586
▁Image	-9.8259
hor	-9.82594
▁assets	-9.82677
ancy	-9.82678
▁Sun	-9.82753
▁purchase	-9.82761
▁minute	-9.82773
path	-9.82791
▁innovation	-9.82819
▁Am	-9.82873
▁protection	-9.82994
AC	-9.82996
▁Hu	-9.83014
8	-9.83015
▁cloth	-9.83018
▁invest	-9.83021
▁contain	-9.83026
▁See	-9.83031
▁chastisement	-9.83052
▁proof	-9.83085
▁extent	-9.83097
▁marriage	-9.8311
▁Mad	-9.8311
▁wait	-9.83114
▁Home	-9.83129
▁custom	-9.83193
45	-9.832
ING	-9.83226
▁twenty	-9.83227
▁festival	-9.83403
▁pattern	-9.8352
▁stream	-9.83521
rated	-9.83527
▁Western	-9.83713
char	-9.83869
gram	-9.83973
48	-9.84044
▁Edit	-9.84086
▁implementation	-9.84132
▁someone	-9.84136
yo	-9.842
▁advice	-9.84286
▁deemed	-9.84288
▁Khan	-9.84298
▁gods	-9.84305
UT	-9.84399
▁enemy	-9.84404
pal	-9.84424
▁drama	-9.84484
rup	-9.84488
▁opened	-9.84505
▁convert	-9.84538
▁connected	-9.84561
▁longer	-9.84581
mination	-9.84596
▁appropriate	-9.84654
▁28	-9.84705
▁resident	-9.84723
▁June	-9.84745
cial	-9.84773
▁sons	-9.84773
html	-9.84876
▁hours	-9.84911
▁European	-9.84931
ika	-9.84943
▁December	-9.84959
▁measures	-9.85
hra	-9.85151
▁officers	-9.85158
▁contribute	-9.85176
▁Tax	-9.85197
▁Part	-9.85218
!"	-9.85223
▁Well	-9.85295
▁violence	-9.85296
▁damage	-9.85297
▁steps	-9.85301
▁association	-9.85475
▁Delete	-9.85485
▁Hindus	-9.85572
dia	-9.85606
▁Over	-9.85615
▁net	-9.85711
▁Kha	-9.85821
pha	-9.85841
▁channel	-9.85895
▁complex	-9.85955
long	-9.86047
▁included	-9.8605
▁deduction	-9.86055
cut	-9.86075
▁pu	-9.86205
And	-9.86271
▁habit	-9.86281
but	-9.86334
▁unique	-9.86377
▁completed	-9.86379
▁villages	-9.86384
▁Bihar	-9.86421
▁burden	-9.86437
▁height	-9.86465
It	-9.86501
What	-9.86536
My	-9.86548
▁benefits	-9.86573
▁belief	-9.86591
▁educational	-9.86642
rah	-9.86766
▁27	-9.86767
▁tea	-9.86797
▁standing	-9.86822
▁Em	-9.86912
▁response	-9.86921
ched	-9.86996
▁systems	-9.87035
▁entered	-9.8704
▁species	-9.87119
▁otherwise	-9.87124
▁leading	-9.87135
▁trial	-9.87237
▁hour	-9.87246
▁bone	-9.8729
▁Ran	-9.87295
▁gas	-9.87413
▁PM	-9.87418
▁played	-9.87425
▁democracy	-9.87469
▁wage	-9.87512
▁Free	-9.8753
▁raise	-9.87543
mount	-9.87603
▁Chandra	-9.87621
ace	-9.87656
▁Hi	-9.87719
iii	-9.87887
ATION	-9.87896
AY	-9.87921
▁saved	-9.87941
other	-9.87994
▁revolution	-9.88081
".	-9.88092
▁rank	-9.88122
por	-9.88175
▁Text	-9.8821
▁fill	-9.88248
▁commit	-9.88262
▁distance	-9.88268
▁domestic	-9.88327
▁sister	-9.88423
▁doers	-9.88448
▁Men	-9.88494
▁annual	-9.88522
▁technical	-9.88636
▁Finance	-9.88637
▁storage	-9.88698
qua	-9.88703
▁minus	-9.88718
▁foot	-9.88752
▁ready	-9.88761
▁3.	-9.88831
▁hospital	-9.88883
▁Policy	-9.88883
▁buy	-9.8889
vid	-9.88893
ically	-9.88899
▁plugin	-9.88945
▁apart	-9.88996
▁First	-9.89008
▁stock	-9.89136
▁moral	-9.8919
▁constant	-9.89194
▁hot	-9.89342
▁80	-9.89356
▁magic	-9.89384
▁stories	-9.89408
▁fulfill	-9.89434
jan	-9.89468
www	-9.89511
▁Law	-9.89513
30	-9.89573
▁Post	-9.89596
▁documents	-9.8961
▁throw	-9.89667
version	-9.89714
▁Language	-9.89816
▁Mah	-9.89831
▁located	-9.89878
▁Remove	-9.89878
gal	-9.89952
▁surface	-9.90007
▁Ob	-9.90032
▁powerful	-9.90052
▁screen	-9.90129
▁2014	-9.90139
▁cry	-9.90232
▁items	-9.9024
▁40	-9.90248
If	-9.90288
ura	-9.90297
▁wood	-9.90327
▁October	-9.90345
▁debt	-9.90348
▁invite	-9.90378
▁km	-9.90382
▁useful	-9.9046
▁safe	-9.90487
▁leader	-9.90537
▁heavy	-9.90571
▁commercial	-9.90631
▁customer	-9.90731
▁argument	-9.90757
Q	-9.90768
▁Messengers	-9.90806
▁achieve	-9.90839
scribe	-9.90857
▁Arab	-9.90874
▁sides	-9.90886
ography	-9.90892
cast	-9.90924
mukherjee	-9.90948
▁employees	-9.90963
oth	-9.90995
pranab	-9.91012
CH	-9.91016
▁discuss	-9.91018
▁laws	-9.91048
▁title	-9.91067
▁More	-9.91069
▁partners	-9.91081
▁replace	-9.91106
▁types	-9.91207
▁recent	-9.91264
ov	-9.91286
▁faces	-9.91388
▁Corporation	-9.9139
iff	-9.91478
▁recognize	-9.91517
▁drop	-9.91537
▁rock	-9.91579
▁Assembly	-9.91581
▁deliver	-9.91586
▁valid	-9.91711
▁growing	-9.91756
▁Mode	-9.91778
tom	-9.91802
▁Form	-9.91914
▁Web	-9.91939
▁Nehru	-9.91963
▁owner	-9.91965
▁mighty	-9.91994
ese	-9.92105
▁external	-9.92155
▁discover	-9.92177
▁funds	-9.92199
▁staff	-9.92223
ku	-9.92273
▁succeed	-9.92283
▁devote	-9.92355
EM	-9.92415
▁Nor	-9.92416
AD	-9.92434
▁Programme	-9.92445
▁sins	-9.9245
num	-9.92454
▁sacrifice	-9.92475
▁knowing	-9.92492
▁SAW	-9.92604
▁block	-9.92606
60	-9.92649
▁0.	-9.92703
▁divine	-9.92732
fold	-9.92822
ending	-9.9285
▁officer	-9.92868
▁adopted	-9.92872
▁Here	-9.92895
▁teaching	-9.92896
▁animal	-9.9304
▁Contact	-9.93054
CE	-9.93065
▁recompense	-9.93183
▁enhance	-9.93183
▁Satan	-9.932
▁committed	-9.93224
▁treat	-9.93274
▁numbers	-9.93304
ulated	-9.93324
▁hearing	-9.93387
▁notification	-9.93446
dev	-9.93458
nes	-9.93501
▁divided	-9.93511
gam	-9.93524
▁update	-9.93536
▁mid	-9.9373
▁square	-9.9378
▁bat	-9.93828
ffi	-9.93861
▁involved	-9.93861
▁CD	-9.93861
05	-9.93872
▁Bombay	-9.93897
▁gardens	-9.93902
17	-9.93905
▁string	-9.93972
▁Secretary	-9.93972
bul	-9.93982
▁contained	-9.94003
▁Mal	-9.94033
▁Chairman	-9.94092
▁emerge	-9.94114
▁engaged	-9.94218
zi	-9.94228
▁gather	-9.94262
▁avail	-9.94268
▁declared	-9.94281
tric	-9.94304
com	-9.94355
▁reading	-9.94357
▁consult	-9.94362
▁named	-9.94392
▁payable	-9.94417
▁recover	-9.94437
▁September	-9.94485
ole	-9.9451
▁cash	-9.94522
nam	-9.94529
▁wonder	-9.94571
▁destroy	-9.9459
▁Print	-9.94786
▁Conference	-9.94833
▁stated	-9.95025
▁permanent	-9.95075
▁policies	-9.95273
▁independent	-9.95352
▁volume	-9.95405
▁Uttar	-9.95406
▁China	-9.95408
▁entry	-9.9544
▁Air	-9.95527
▁November	-9.95593
▁operations	-9.95602
▁military	-9.95603
▁registered	-9.95631
▁Comm	-9.95704
▁em	-9.95799
▁(%	-9.95825
▁nations	-9.95868
aya	-9.95903
soever	-9.95927
▁review	-9.95935
▁Window	-9.96001
▁cloud	-9.96002
▁Nath	-9.96011
For	-9.9614
itis	-9.96166
▁Path	-9.9617
▁caste	-9.96187
▁amongst	-9.96267
▁Person	-9.96292
▁average	-9.96338
▁appointment	-9.96404
▁Unto	-9.96565
▁favor	-9.96602
▁families	-9.96668
▁confirm	-9.96757
▁pra	-9.96759
ENT	-9.96773
▁developing	-9.96797
▁warning	-9.96887
▁Send	-9.96937
minate	-9.96996
▁refuge	-9.97003
▁Assam	-9.97155
ened	-9.97282
var	-9.97293
▁track	-9.97373
ood	-9.97452
▁tele	-9.97486
▁intend	-9.97494
MS	-9.97535
▁doctor	-9.97569
▁thinking	-9.976
▁undertaking	-9.97609
▁bow	-9.97749
▁fee	-9.9775
▁1,	-9.97763
▁submit	-9.97767
▁Exchange	-9.97812
▁sometimes	-9.97815
OL	-9.9786
▁circumstances	-9.97948
▁Exp	-9.97954
▁micro	-9.98014
▁install	-9.98023
▁division	-9.98123
▁UN	-9.98226
▁render	-9.98231
▁Para	-9.98237
▁additional	-9.98257
▁reserve	-9.98277
▁expressed	-9.98316
▁academic	-9.98355
▁decree	-9.98365
▁button	-9.9837
▁lived	-9.98402
▁constitution	-9.98491
▁fathers	-9.98555
▁Check	-9.98574
▁Shar	-9.98588
atic	-9.98593
▁exists	-9.98594
▁Paradise	-9.98628
▁publication	-9.98628
▁cells	-9.98629
ker	-9.98763
▁Dec	-9.98764
dress	-9.98775
▁Gandhiji	-9.98798
▁functions	-9.988
▁processing	-9.98822
▁shows	-9.98894
▁mention	-9.98928
▁Nay	-9.99004
▁expand	-9.99017
▁Kerala	-9.99107
▁season	-9.99146
kin	-9.99147
▁helped	-9.9915
▁2007	-9.99195
▁ST	-9.99205
▁August	-9.99244
07	-9.99248
▁(3)	-9.99259
▁proposal	-9.99312
▁utter	-9.99325
pat	-9.99331
▁URL	-9.99381
▁Mission	-9.99383
▁evening	-9.99392
▁ball	-9.99419
▁results	-9.99429
▁trees	-9.99437
▁schemes	-9.99498
▁assist	-9.99578
▁variety	-9.99588
▁truly	-9.99594
▁advise	-9.99672
▁fruits	-9.99724
lusion	-9.99738
▁hide	-9.99742
▁consciousness	-9.99764
▁column	-9.99794
▁box	-9.99797
Muhammad	-9.99805
▁taught	-9.99826
▁mouth	-9.99933
▁u	-9.99935
▁arrangement	-9.99949
▁affect	-9.99997
ware	-10.0004
▁conflict	-10.0007
▁Brahma	-10.0015
▁remained	-10.0017
▁tu	-10.0017
pre	-10.0022
▁foundation	-10.0024
▁Chi	-10.0027
{	-10.003
▁Port	-10.0035
▁AT	-10.0043
▁sort	-10.0049
last	-10.0049
▁graph	-10.0053
▁temples	-10.0058
▁Knowing	-10.0063
▁component	-10.0063
▁egg	-10.0065
▁manufacture	-10.007
▁Ban	-10.007
▁frame	-10.0072
PI	-10.0074
▁achievement	-10.0075
oid	-10.0078
aging	-10.0082
▁rid	-10.0082
▁scr	-10.0088
▁professional	-10.0098
▁instruction	-10.0106
▁Pi	-10.0106
▁rejected	-10.011
▁terrorism	-10.012
▁soil	-10.0122
▁2015	-10.0122
▁killed	-10.0126
▁Roy	-10.0131
▁Also	-10.0131
▁School	-10.0132
▁extended	-10.0137
▁messengers	-10.0139
pho	-10.014
▁wives	-10.0141
▁2006	-10.0141
▁celebrate	-10.0147
▁false	-10.0153
▁chosen	-10.0154
▁opening	-10.0156
▁Art	-10.0158
▁aid	-10.0165
▁dated	-10.0167
▁partnership	-10.0169
▁Prof	-10.0174
▁proud	-10.0177
▁indicate	-10.0182
▁events	-10.0188
▁leaves	-10.0191
ksha	-10.0192
▁lack	-10.0193
▁River	-10.0194
▁messenger	-10.0211
▁sleep	-10.0217
▁standards	-10.0218
▁web	-10.0222
▁advantage	-10.0224
▁distribution	-10.0231
▁ID	-10.0232
ulate	-10.0233
▁remote	-10.0245
▁slave	-10.0246
▁needed	-10.0256
car	-10.0258
▁double	-10.026
▁medium	-10.0267
▁joy	-10.0267
▁burn	-10.027
▁whosoever	-10.0271
▁adult	-10.0274
▁edit	-10.0276
▁July	-10.0281
▁District	-10.0288
▁bra	-10.0291
▁Great	-10.0295
▁cho	-10.0303
▁series	-10.0306
test	-10.0306
▁trying	-10.0307
▁estimate	-10.0309
▁Division	-10.0319
Do	-10.0328
▁glad	-10.033
▁described	-10.033
▁bio	-10.0332
▁repeat	-10.0334
▁earned	-10.0338
nga	-10.0343
▁destination	-10.0345
▁reveal	-10.0349
▁likely	-10.0353
ivity	-10.0355
▁2005	-10.0356
▁60	-10.0361
▁seems	-10.0362
▁fields	-10.0371
▁Maharashtra	-10.0374
▁Ganga	-10.0376
▁suit	-10.0378
▁truthful	-10.0379
▁independence	-10.0381
▁elements	-10.0381
bin	-10.0385
▁fat	-10.0394
2019	-10.0404
▁wear	-10.0405
▁battle	-10.0412
gri	-10.0413
iation	-10.0416
cho	-10.0418
03	-10.0423
▁element	-10.0424
▁refers	-10.0425
▁abroad	-10.0439
▁Rajasthan	-10.0446
▁forget	-10.045
▁larger	-10.0454
▁cattle	-10.0455
▁fail	-10.0455
▁observed	-10.0457
14	-10.0465
▁German	-10.0468
▁context	-10.0469
▁Certificate	-10.0482
▁1961	-10.0482
▁borrow	-10.0482
▁ji	-10.0483
18	-10.0495
▁“”	-10.0497
ET	-10.05
▁slow	-10.0501
hana	-10.0501
▁expected	-10.0504
▁input	-10.0511
▁questions	-10.0516
▁output	-10.052
▁Ali	-10.0528
▁Tagore	-10.0533
▁dust	-10.0535
▁empty	-10.054
▁welcome	-10.0548
▁tidings	-10.0548
▁phase	-10.0548
06	-10.0551
▁Sim	-10.0555
▁shares	-10.0564
▁board	-10.0566
▁holding	-10.0566
▁Type	-10.057
▁vast	-10.0575
▁hell	-10.0576
▁defined	-10.0577
wo	-10.0582
▁resolution	-10.0584
▁desires	-10.0587
▁introduced	-10.0591
▁online	-10.0592
my	-10.0595
▁Raja	-10.0595
▁2013	-10.0595
▁determined	-10.0598
scope	-10.0599
▁expert	-10.0599
▁launched	-10.0605
▁hidden	-10.0606
lab	-10.0607
▁comment	-10.0607
lum	-10.0607
Our	-10.0614
▁Had	-10.0623
▁wisdom	-10.0628
▁danger	-10.0636
▁II	-10.0637
▁Description	-10.0638
▁friendly	-10.0641
▁withdraw	-10.0643
▁fellow	-10.0645
▁Force	-10.0647
▁consumer	-10.0655
▁clearly	-10.0665
▁images	-10.0667
rri	-10.0676
▁representative	-10.0676
▁majority	-10.0682
▁crop	-10.0684
▁alter	-10.069
▁2008	-10.069
grade	-10.0692
fu	-10.0693
▁crops	-10.0694
▁adopt	-10.0694
▁rupees	-10.0695
▁removed	-10.0703
titude	-10.0712
▁Non	-10.0712
▁February	-10.0713
▁font	-10.0715
▁Because	-10.0717
ped	-10.0717
▁poems	-10.0718
▁tend	-10.0723
▁Nepal	-10.0726
▁poverty	-10.0732
▁ka	-10.0734
eries	-10.0739
arian	-10.0744
▁description	-10.0746
▁Akbar	-10.0754
▁fresh	-10.0756
▁safety	-10.0759
rang	-10.0761
▁literary	-10.0762
▁impact	-10.0762
▁Mat	-10.0764
ctic	-10.0767
▁spent	-10.077
▁throughout	-10.0771
▁cave	-10.0771
▁reduce	-10.0771
▁29	-10.0776
comp	-10.0777
▁maximum	-10.0778
▁teachers	-10.0782
▁gate	-10.079
▁flu	-10.0793
No	-10.0794
▁remains	-10.0794
rry	-10.0795
▁looked	-10.0796
ME	-10.0796
▁Though	-10.0802
some	-10.0804
▁easily	-10.0814
▁ourselves	-10.0814
▁beauty	-10.0814
▁Mahatma	-10.0822
▁instance	-10.0824
▁initial	-10.083
▁Water	-10.0843
▁translation	-10.0844
▁strike	-10.0845
▁restrict	-10.0846
▁pressure	-10.0849
▁philosophy	-10.0852
▁je	-10.0854
▁Dh	-10.0855
▁partner	-10.0866
▁studies	-10.0867
▁reply	-10.0868
▁universal	-10.0874
▁army	-10.0875
▁breast	-10.0875
_	-10.0883
▁delivered	-10.0887
▁confidence	-10.0889
80	-10.0896
▁Key	-10.0904
▁assigned	-10.0905
▁phone	-10.0905
▁positive	-10.0935
▁defend	-10.0942
▁Data	-10.0943
▁affairs	-10.0951
load	-10.0954
▁flag	-10.096
▁Color	-10.096
▁moving	-10.0962
▁dark	-10.0962
ache	-10.0965
▁vital	-10.0968
▁died	-10.0972
▁Display	-10.0973
▁distinguish	-10.0973
▁sculpture	-10.0973
▁Ke	-10.0974
cap	-10.0977
▁establishment	-10.0978
▁medicine	-10.0981
▁horse	-10.0981
▁era	-10.0984
▁songs	-10.0986
▁obtain	-10.0992
▁greatest	-10.1001
▁offered	-10.1001
▁border	-10.1004
▁pair	-10.1015
▁manager	-10.1019
ference	-10.102
▁disbelieved	-10.1021
▁Qur	-10.1025
▁Date	-10.1029
▁Sir	-10.1029
▁descend	-10.1034
▁promotion	-10.1034
▁authentic	-10.105
▁History	-10.1057
▁approved	-10.1065
▁extra	-10.1066
04	-10.1069
▁Pal	-10.1069
ories	-10.1069
▁Network	-10.1073
▁Health	-10.1074
▁garden	-10.1087
▁rapid	-10.1088
▁unity	-10.1094
▁examination	-10.1096
▁Special	-10.1103
▁dry	-10.1104
▁petitioner	-10.1106
▁Both	-10.1111
▁covenant	-10.1111
▁launch	-10.1113
board	-10.1113
ordinate	-10.1122
▁worked	-10.1126
▁monitor	-10.1134
▁prison	-10.1134
ential	-10.114
▁yield	-10.1142
▁gift	-10.1142
▁inherit	-10.115
▁decide	-10.1158
▁Social	-10.116
▁Ve	-10.1161
osis	-10.1165
▁Default	-10.1165
▁Bengali	-10.1172
▁mission	-10.1172
▁afflict	-10.1173
▁Com	-10.1179
▁replied	-10.1181
▁Google	-10.1181
▁forbidden	-10.1182
▁minor	-10.1186
▁User	-10.1197
96	-10.1198
▁bla	-10.1204
▁escape	-10.1212
▁opt	-10.1216
▁{0}	-10.122
▁birds	-10.1222
▁Services	-10.1232
▁extension	-10.1236
▁Hour	-10.1237
▁kingdom	-10.1244
▁hair	-10.1248
▁oath	-10.1257
▁subscribe	-10.1258
▁devotion	-10.1259
▁Among	-10.1259
▁seeking	-10.126
▁Auto	-10.1266
▁furnish	-10.1267
▁merely	-10.1268
NAME	-10.1271
▁involve	-10.128
▁reduced	-10.1281
EL	-10.1283
36	-10.1291
▁Bel	-10.1297
▁welfare	-10.1298
▁daily	-10.1299
▁household	-10.1301
▁machinery	-10.1303
▁Control	-10.1314
“”	-10.1315
aught	-10.1317
▁lesson	-10.1322
endra	-10.1325
▁dwell	-10.1327
▁plot	-10.1332
▁blessings	-10.1336
▁Subhas	-10.135
akh	-10.135
▁teacher	-10.1352
▁initiatives	-10.1353
▁mainly	-10.1357
▁excellent	-10.137
▁resource	-10.137
▁editor	-10.1371
▁namely	-10.1372
▁failure	-10.1373
▁Besides	-10.1378
▁pleased	-10.1379
▁Scripture	-10.1386
clause	-10.139
▁Environment	-10.1393
▁substance	-10.1394
▁Since	-10.1404
▁wherein	-10.1407
▁neck	-10.1407
▁excess	-10.1411
▁branch	-10.1421
▁integral	-10.1425
▁minimum	-10.1425
▁cold	-10.1426
▁35	-10.1436
▁Himalaya	-10.1442
box	-10.1446
▁Col	-10.1454
▁dear	-10.1455
▁Each	-10.1458
▁(19	-10.148
▁Second	-10.1481
▁palm	-10.149
▁urban	-10.1497
▁sought	-10.1498
nagar	-10.1498
▁reminder	-10.1499
▁carrying	-10.1501
▁primary	-10.1505
▁grain	-10.1507
▁authorities	-10.151
▁lest	-10.1512
▁installed	-10.1513
▁enterprise	-10.1513
39	-10.1514
▁happened	-10.1516
▁2002	-10.1518
▁creating	-10.1521
▁cook	-10.1523
▁Two	-10.1528
iness	-10.1534
▁warner	-10.1534
▁late	-10.1549
▁regional	-10.155
▁express	-10.1559
encies	-10.1561
▁idol	-10.1563
PC	-10.1567
▁Count	-10.1567
coming	-10.1568
▁grand	-10.157
▁institute	-10.157
▁receipt	-10.157
▁Application	-10.1586
most	-10.159
▁Did	-10.1593
▁Fo	-10.1594
▁internal	-10.1599
▁Official	-10.1602
89	-10.1607
▁vote	-10.1608
eous	-10.1609
▁east	-10.1618
▁implement	-10.1621
▁2016	-10.1621
Re	-10.1623
IP	-10.1625
▁College	-10.1627
▁library	-10.1627
▁Mary	-10.1632
▁elect	-10.1632
▁Financial	-10.1643
▁realise	-10.1645
▁campaign	-10.1651
▁equipment	-10.1659
▁companion	-10.166
▁joined	-10.166
hya	-10.166
▁center	-10.166
▁huge	-10.1671
▁pan	-10.169
▁2001	-10.1692
▁Nav	-10.1695
▁Var	-10.1698
▁spot	-10.1701
▁citizen	-10.1702
mitted	-10.1704
▁employ	-10.1711
95	-10.1716
▁Arch	-10.1722
▁affected	-10.1724
pati	-10.1724
▁finance	-10.1725
▁cancel	-10.1727
▁tur	-10.1744
▁audit	-10.1745
▁lose	-10.1753
▁Gen	-10.1754
▁fundamental	-10.1758
▁Modi	-10.176
▁background	-10.1766
▁Yoga	-10.1766
▁communities	-10.1767
▁believing	-10.1768
▁lit	-10.1775
▁critical	-10.1781
▁possession	-10.1782
▁highly	-10.1785
▁ran	-10.1788
▁prosperity	-10.1788
▁rare	-10.1797
▁upper	-10.18
Peace	-10.1803
▁Rules	-10.1803
▁curse	-10.1813
▁Make	-10.1816
kara	-10.1817
▁Shiva	-10.1824
▁selection	-10.183
▁darkness	-10.183
▁click	-10.1837
▁submitted	-10.1841
▁trouble	-10.1841
▁probably	-10.1841
▁filled	-10.1842
▁completely	-10.1844
▁Authority	-10.1847
▁railway	-10.1849
vy	-10.1851
▁keeping	-10.1851
▁suffering	-10.1858
▁confident	-10.1866
IM	-10.1867
AB	-10.1867
ire	-10.1867
pping	-10.1868
▁actual	-10.187
▁refer	-10.1871
UN	-10.1873
▁committee	-10.1874
▁sanction	-10.1876
▁...	-10.1877
▁Reserve	-10.1878
▁choice	-10.1884
▁technique	-10.1891
▁gui	-10.1891
▁drawn	-10.1893
point	-10.1896
▁spring	-10.1898
▁Excellency	-10.1899
▁Number	-10.1899
wise	-10.1905
▁fell	-10.1905
▁historical	-10.1921
▁consequence	-10.1924
reg	-10.1926
▁requirements	-10.1927
▁latter	-10.1929
▁Bir	-10.193
▁conceal	-10.1933
▁guilty	-10.1941
▁relief	-10.1941
▁college	-10.1941
▁intellectual	-10.1942
▁delivery	-10.1943
▁generate	-10.1949
▁entitled	-10.1949
57	-10.195
▁epi	-10.1958
▁Click	-10.1958
▁Page	-10.1958
▁reality	-10.1963
▁jinn	-10.1966
▁visible	-10.1967
had	-10.1968
▁abide	-10.1969
▁artist	-10.1977
▁blow	-10.1977
▁latest	-10.1981
▁agree	-10.1988
position	-10.1991
99	-10.1992
▁greetings	-10.1993
kan	-10.1997
▁agreed	-10.2
▁delay	-10.2006
▁Russia	-10.2018
▁leadership	-10.2019
▁Company	-10.2034
▁Life	-10.2037
▁emotion	-10.2042
▁Foreign	-10.2042
▁prophet	-10.2042
▁Help	-10.2048
▁Speaking	-10.2051
▁bodies	-10.2051
▁Hari	-10.2055
▁conference	-10.2063
▁breath	-10.2068
▁duties	-10.2069
▁Andhra	-10.207
place	-10.2071
▁Red	-10.2071
▁heat	-10.2072
▁realize	-10.2073
▁sick	-10.2075
▁Library	-10.2076
▁Judge	-10.2076
▁Nar	-10.2077
▁everyone	-10.2081
▁engage	-10.2085
rag	-10.2089
▁correspond	-10.2102
▁England	-10.2102
▁thereby	-10.2105
85	-10.2105
▁Disc	-10.2107
▁learned	-10.211
▁sacred	-10.211
▁yourself	-10.2113
well	-10.2116
▁approval	-10.2119
▁Export	-10.2124
▁Buddha	-10.2128
▁Qa	-10.2128
▁counter	-10.2134
▁admit	-10.2135
▁commitment	-10.2136
▁mal	-10.2136
▁facility	-10.2136
▁Hon	-10.2139
▁seized	-10.2141
▁iron	-10.2152
▁journal	-10.2153
▁Tribunal	-10.2162
▁multiple	-10.2165
▁passing	-10.2185
▁experiment	-10.2188
▁chance	-10.219
▁attitude	-10.2192
▁cow	-10.2194
▁filter	-10.2196
▁tongue	-10.2206
illa	-10.2206
15	-10.221
▁Trust	-10.2214
▁qua	-10.2219
▁tissue	-10.2222
east	-10.2224
▁san	-10.2224
pra	-10.2229
▁insert	-10.2233
34	-10.2242
▁although	-10.2248
▁participation	-10.2248
▁incident	-10.2248
▁blame	-10.225
▁sad	-10.2253
▁victory	-10.2257
▁audio	-10.2259
▁Mark	-10.226
ieve	-10.2267
▁sand	-10.2267
▁chain	-10.2274
▁Mail	-10.228
▁inspired	-10.2281
▁solve	-10.2282
▁Park	-10.2291
▁planning	-10.2291
▁performed	-10.2298
▁Word	-10.2301
▁sold	-10.2303
-2018	-10.2309
▁shared	-10.2311
head	-10.2314
▁tab	-10.2315
▁wronged	-10.2317
▁archive	-10.2318
▁myself	-10.2323
▁Play	-10.2324
▁engine	-10.2326
▁climate	-10.2326
▁moved	-10.2333
▁delight	-10.2334
▁spoke	-10.2334
▁Railway	-10.2335
NA	-10.2341
▁painting	-10.2342
▁prove	-10.2344
▁suitable	-10.2354
▁governance	-10.2361
▁Internet	-10.2361
▁defence	-10.2368
▁Assistant	-10.237
▁registration	-10.237
▁Report	-10.2375
▁Unit	-10.2376
ope	-10.2379
▁Current	-10.2379
▁continuous	-10.2379
▁arise	-10.238
▁profession	-10.2387
▁mountain	-10.2391
▁Clear	-10.2397
▁differ	-10.2398
▁adequate	-10.2405
▁bestowed	-10.2414
▁Like	-10.2419
oke	-10.2425
▁Chand	-10.2426
▁disk	-10.243
▁Kumar	-10.2435
work	-10.2437
▁pillar	-10.2441
▁arrest	-10.2441
▁Article	-10.2449
▁insurance	-10.245
▁sitting	-10.2458
▁released	-10.2461
bol	-10.2476
▁attached	-10.248
▁Read	-10.2484
▁Veda	-10.2493
▁bilateral	-10.2494
▁street	-10.2512
▁Self	-10.2514
▁Bhag	-10.2515
▁ahead	-10.2515
▁repent	-10.2524
▁faithful	-10.2527
▁resolve	-10.2529
▁empower	-10.253
▁desert	-10.253
59	-10.2536
▁Custom	-10.2538
▁Mighty	-10.2538
▁bri	-10.2544
back	-10.2556
▁prior	-10.2557
▁complaint	-10.256
▁west	-10.2565
▁changing	-10.2565
▁reader	-10.2566
▁photo	-10.2573
▁Document	-10.2574
ipp	-10.2579
cycle	-10.2583
▁stood	-10.2588
▁nearly	-10.2595
▁Invalid	-10.261
▁agent	-10.2614
▁enabled	-10.2615
icide	-10.2615
▁swear	-10.2619
▁About	-10.2621
▁pest	-10.2621
▁Press	-10.2624
▁participate	-10.2628
▁chemical	-10.2628
▁sustain	-10.2638
▁Command	-10.265
lish	-10.2661
▁platform	-10.2664
▁regulation	-10.2664
▁guardian	-10.2668
▁forever	-10.2669
▁poll	-10.2679
pad	-10.2682
▁1999	-10.2691
▁radi	-10.2698
▁recently	-10.2701
▁tourist	-10.2702
▁facilitate	-10.2709
▁achieved	-10.2709
▁containing	-10.2716
▁waiting	-10.2716
▁nuclear	-10.2727
▁agencies	-10.2727
ifies	-10.2736
▁shift	-10.2736
uous	-10.2737
train	-10.2753
▁Connect	-10.2757
▁improvement	-10.2761
▁Knower	-10.2763
13	-10.2767
▁Kovind	-10.2773
▁proportion	-10.2782
scription	-10.2782
▁Q	-10.2785
▁package	-10.2786
phe	-10.279
▁Dar	-10.2793
▁BC	-10.2795
▁criminal	-10.2818
▁director	-10.2822
97	-10.2823
▁register	-10.2824
▁Another	-10.2825
▁shop	-10.2829
▁bright	-10.2832
▁priority	-10.2836
▁Civil	-10.2837
▁proved	-10.2842
▁charged	-10.2845
▁pick	-10.2848
▁Cor	-10.285
▁defeat	-10.2857
▁treated	-10.286
▁hum	-10.2861
▁Rajya	-10.2865
▁Code	-10.2868
▁Province	-10.2874
▁neighbour	-10.2883
▁Za	-10.2884
▁2012	-10.2886
▁observe	-10.2888
▁poem	-10.2889
▁Palestinian	-10.2892
▁forgiving	-10.2892
▁Society	-10.2901
▁awareness	-10.2903
▁Mount	-10.2905
▁cease	-10.2906
▁Ji	-10.2913
▁hit	-10.2914
▁distinct	-10.2915
▁fabric	-10.292
▁camp	-10.2926
▁witnesses	-10.2929
▁Back	-10.2932
▁Prem	-10.2934
Ma	-10.2936
God	-10.2937
▁Egypt	-10.2938
▁allowance	-10.2942
▁fighting	-10.2942
▁Ste	-10.2944
▁Party	-10.2945
▁manufacturing	-10.2948
Amendment	-10.2948
▁survey	-10.2957
▁metal	-10.2965
▁pot	-10.2966
▁absolute	-10.2975
▁strive	-10.2981
▁mobile	-10.2985
hri	-10.299
ami	-10.2997
▁student	-10.2997
▁pipe	-10.2998
▁soft	-10.3001
▁Class	-10.3004
▁saving	-10.3005
▁abode	-10.3013
▁served	-10.3015
▁player	-10.302
86	-10.3021
▁emphasis	-10.3022
▁Training	-10.3022
▁ven	-10.3025
▁courage	-10.3032
▁motion	-10.3034
tech	-10.3035
▁breed	-10.3043
▁London	-10.305
▁situated	-10.305
▁sweet	-10.305
ugh	-10.3052
▁hero	-10.3054
▁ruin	-10.3057
38	-10.306
▁layer	-10.3078
▁democratic	-10.3078
▁row	-10.3079
▁leaf	-10.3082
▁recorded	-10.3085
▁coal	-10.3087
▁helper	-10.3088
▁universities	-10.3088
▁Justice	-10.3089
▁icon	-10.309
▁president	-10.3091
▁attribute	-10.3097
▁happiness	-10.3097
▁fault	-10.3098
▁Don	-10.3098
90	-10.3102
▁grieve	-10.3108
▁transform	-10.3114
▁marked	-10.3114
▁constituted	-10.3115
▁ratio	-10.3123
▁sex	-10.3131
▁map	-10.3135
direct	-10.3135
▁newspaper	-10.3135
▁parliament	-10.3145
▁prostrate	-10.3145
▁whereas	-10.3147
▁brain	-10.3149
▁jurisdiction	-10.3154
▁race	-10.3159
▁subsequent	-10.3164
▁mill	-10.3169
▁Karnataka	-10.3173
▁proceedings	-10.3177
▁wave	-10.318
▁Israeli	-10.3181
▁elephant	-10.3183
▁Once	-10.3185
▁tribe	-10.319
▁merciful	-10.3192
▁privilege	-10.3192
▁assume	-10.3195
▁Human	-10.3199
▁edge	-10.3201
▁electronic	-10.3202
▁sugar	-10.3204
72	-10.3215
▁node	-10.322
room	-10.3248
74	-10.325
▁hind	-10.3258
▁successfully	-10.3261
▁signed	-10.3264
▁whi	-10.3283
▁teach	-10.3287
▁Year	-10.3287
▁remind	-10.3287
▁congratulate	-10.3288
▁Arabic	-10.3289
▁Security	-10.3297
▁DVD	-10.3297
▁Before	-10.3297
▁Iraq	-10.3297
▁Line	-10.3298
▁Jews	-10.3298
▁preserve	-10.3299
▁principal	-10.3307
▁supreme	-10.3307
▁falsehood	-10.3308
▁Next	-10.3317
▁offence	-10.3324
▁burning	-10.3325
▁negative	-10.3326
▁terrorist	-10.3327
IF	-10.333
otic	-10.3333
▁grown	-10.3334
▁healthy	-10.3339
▁lock	-10.3347
▁covering	-10.3354
course	-10.336
▁formal	-10.3361
▁200	-10.3375
▁Musa	-10.3379
▁Swami	-10.3384
hin	-10.3389
▁announced	-10.339
▁sentence	-10.3393
▁couple	-10.3394
▁Comment	-10.3397
▁respond	-10.3397
▁tonnes	-10.3404
▁Jammu	-10.3405
▁friendship	-10.3427
76	-10.343
▁ability	-10.343
▁Vishnu	-10.3433
▁32	-10.3438
▁accident	-10.3443
46	-10.3446
▁Find	-10.3467
▁proposed	-10.3472
▁becoming	-10.3474
▁Noah	-10.3482
▁efficient	-10.3482
▁mechanism	-10.3492
▁applied	-10.3492
▁offering	-10.3494
▁restore	-10.3497
▁transferred	-10.3497
▁offline	-10.35
▁Gha	-10.35
▁schedule	-10.3511
▁heritage	-10.3511
▁reckon	-10.3511
▁followers	-10.3517
▁recognised	-10.3526
▁Vo	-10.3528
▁dwelling	-10.3531
▁2017	-10.3533
▁Sen	-10.3547
▁90	-10.355
▁ocean	-10.3551
▁smaller	-10.3551
▁initiative	-10.3552
87	-10.3557
▁exploit	-10.3561
▁weapon	-10.3561
▁Call	-10.3568
▁commence	-10.357
▁union	-10.3572
▁hasten	-10.3577
▁fuel	-10.358
▁engineering	-10.358
▁Process	-10.358
▁fulfil	-10.3581
▁whatsoever	-10.3586
▁tar	-10.3586
▁lawful	-10.3588
▁finger	-10.3589
▁acquired	-10.3589
▁Legislative	-10.359
▁colon	-10.3591
▁characteristic	-10.3594
▁prose	-10.3595
▁Unknown	-10.36
▁married	-10.36
power	-10.36
64	-10.3605
▁Women	-10.361
▁Bose	-10.3614
▁corner	-10.3615
▁band	-10.3615
htm	-10.3618
▁specify	-10.3621
▁menu	-10.364
▁Close	-10.3641
▁vehicle	-10.365
▁currency	-10.365
▁obtained	-10.3659
▁destruction	-10.366
▁elected	-10.3663
▁signal	-10.3665
gress	-10.3665
▁unable	-10.3666
▁pollution	-10.367
▁patience	-10.367
▁Business	-10.367
▁Protect	-10.3675
▁download	-10.3676
▁politics	-10.368
▁Note	-10.3682
▁meant	-10.3684
▁fun	-10.3685
▁rice	-10.3702
▁recall	-10.3706
22	-10.3708
▁billion	-10.3711
▁tribal	-10.3711
▁FOR	-10.372
▁implemented	-10.3723
▁formula	-10.3731
UL	-10.3732
count	-10.3736
bling	-10.3744
▁compassion	-10.375
▁judgment	-10.375
▁Task	-10.3757
▁currently	-10.3757
▁Joseph	-10.376
▁administrative	-10.376
49	-10.3765
▁mistake	-10.377
▁classes	-10.3779
▁Cap	-10.3779
▁ultimate	-10.378
▁Would	-10.378
▁afford	-10.378
▁finish	-10.378
▁Chapter	-10.379
▁75	-10.3792
▁Che	-10.3799
▁Mother	-10.3799
▁scene	-10.3801
▁inaugurate	-10.3803
▁Disable	-10.3804
how	-10.3804
wit	-10.3807
▁Lu	-10.3817
▁Resource	-10.3821
▁Master	-10.3822
Z	-10.3827
▁obvious	-10.3831
▁route	-10.384
▁technologies	-10.3841
▁comfort	-10.3851
▁Standard	-10.3861
▁temperature	-10.3862
▁behold	-10.3868
▁maintenance	-10.3871
▁compared	-10.3872
▁Affairs	-10.3882
▁ordinary	-10.3882
▁bird	-10.3883
▁bounty	-10.3892
▁oppose	-10.3892
▁shrine	-10.3892
23	-10.3898
NE	-10.39
▁Allow	-10.3901
▁operating	-10.3902
▁discharge	-10.3902
▁Nadu	-10.3907
▁organism	-10.3922
▁discipline	-10.3923
▁prime	-10.3923
▁attachment	-10.3924
71	-10.393
▁endeavour	-10.3933
▁university	-10.3933
▁examine	-10.3933
▁weather	-10.3933
▁organized	-10.3937
▁hurt	-10.3938
▁corruption	-10.3939
▁exclusive	-10.3943
▁stress	-10.3955
▁gathered	-10.3958
lves	-10.3961
vara	-10.3963
▁senior	-10.3964
▁mono	-10.3964
▁zone	-10.3964
▁determine	-10.3964
▁organised	-10.3967
▁hall	-10.3967
▁camel	-10.3972
▁describe	-10.3977
▁2009	-10.3977
▁counsel	-10.3984
▁western	-10.3985
release	-10.3992
▁grave	-10.3999
▁doesn	-10.4003
▁crime	-10.4005
▁arrange	-10.4013
cade	-10.4023
▁appeared	-10.4025
sphere	-10.4026
▁Economic	-10.4036
▁Remember	-10.4036
▁grateful	-10.4036
FC	-10.4039
▁Industrial	-10.4046
▁unknown	-10.4046
▁agency	-10.4047
▁John	-10.4057
▁afraid	-10.4067
presidentofindia	-10.4067
▁rent	-10.407
▁settled	-10.4076
▁enemies	-10.4077
25	-10.4087
▁belonging	-10.4089
▁territory	-10.4098
▁Orissa	-10.4098
eva	-10.4107
▁thirty	-10.4109
▁centuries	-10.4119
37	-10.4121
▁quick	-10.4122
▁distribute	-10.4129
▁identified	-10.4129
▁atmosphere	-10.4129
▁suddenly	-10.4132
▁2003	-10.4133
▁detect	-10.4138
▁identify	-10.414
▁Load	-10.4141
▁dedicated	-10.415
▁blue	-10.4172
▁blessed	-10.4172
▁demon	-10.4175
40	-10.4189
even	-10.4196
▁laugh	-10.4196
agon	-10.4199
▁solar	-10.42
66	-10.4202
▁Mughal	-10.4203
▁practical	-10.4213
▁noble	-10.4215
zo	-10.4216
abha	-10.4227
▁decline	-10.424
ATE	-10.4243
▁terrible	-10.4245
▁eligible	-10.4256
▁Flag	-10.4256
▁Jam	-10.4263
worth	-10.4266
▁vegetable	-10.4266
▁appreciate	-10.4266
▁2004	-10.4271
▁irre	-10.4275
▁conscious	-10.4275
new	-10.4276
▁revenue	-10.4277
▁Choose	-10.4278
▁branches	-10.4295
pons	-10.4307
▁substantial	-10.4309
▁distress	-10.4309
77	-10.4317
▁Whoever	-10.432
▁belie	-10.4322
▁pursue	-10.4322
▁Islamist	-10.4325
▁threat	-10.4326
▁Although	-10.433
▁Good	-10.433
▁assess	-10.4332
▁Adam	-10.4335
▁Institution	-10.4341
▁Middle	-10.4341
▁Jan	-10.4346
▁electricity	-10.4348
▁configuration	-10.4351
▁oppress	-10.4352
▁Regional	-10.4357
▁obligation	-10.4362
▁Main	-10.4369
▁Cho	-10.437
▁environmental	-10.4371
▁settlement	-10.4381
▁roll	-10.4382
▁valley	-10.4384
▁finally	-10.4395
▁prevail	-10.4405
▁Server	-10.4406
▁(4)	-10.4407
▁pilgrim	-10.4416
58	-10.442
▁exalt	-10.4423
▁ritual	-10.4427
▁margin	-10.4429
▁Sikh	-10.443
▁respective	-10.443
94	-10.4435
▁Buddhist	-10.4437
▁panel	-10.4446
▁creative	-10.4454
▁squared	-10.4457
▁utilis	-10.4459
▁Mala	-10.446
▁Speaker	-10.4481
▁identity	-10.4481
69	-10.4481
▁brief	-10.4492
TION	-10.4493
▁Author	-10.4494
▁hrs	-10.4503
▁marry	-10.4504
▁500	-10.4513
▁execute	-10.4513
▁liquid	-10.4513
▁operate	-10.4514
house	-10.4518
▁Log	-10.4518
▁formation	-10.4519
▁permit	-10.4521
▁Direct	-10.4535
lib	-10.4544
▁Association	-10.4546
78	-10.455
▁parent	-10.455
▁Agriculture	-10.4557
▁zero	-10.4557
Assessing	-10.4557
▁sexual	-10.4559
▁thereafter	-10.4568
▁palace	-10.4568
firm	-10.4571
terior	-10.4571
▁employer	-10.4571
▁Forest	-10.4593
▁Ven	-10.4597
▁fourth	-10.4603
21	-10.4614
▁prince	-10.4622
▁imagine	-10.4622
▁humble	-10.4624
▁occurred	-10.4626
▁Tab	-10.463
▁digital	-10.4632
▁width	-10.4633
▁Small	-10.4634
▁Rural	-10.4634
▁wild	-10.4634
Regulation	-10.4635
▁coast	-10.4636
▁strange	-10.4639
▁mock	-10.4646
▁retain	-10.4647
▁spin	-10.465
▁Chinese	-10.4655
▁pride	-10.4656
▁Mag	-10.4661
▁whenever	-10.4666
▁Nature	-10.4671
▁ornament	-10.4679
▁temporary	-10.4688
▁judgement	-10.4695
▁broken	-10.4695
▁pack	-10.4696
▁Best	-10.4705
▁Believers	-10.4711
▁adjust	-10.4711
▁ignore	-10.4711
▁commission	-10.4713
fall	-10.4714
▁roof	-10.472
▁invoke	-10.4722
▁employee	-10.4733
▁Vice	-10.4734
▁exception	-10.474
▁Australia	-10.4744
▁Independence	-10.4744
▁penalty	-10.4744
▁Video	-10.4761
▁draft	-10.4766
▁career	-10.4772
▁pension	-10.4784
▁analysis	-10.4788
68	-10.4791
▁properly	-10.4799
▁absence	-10.48
▁capable	-10.4808
▁virtue	-10.4811
▁chapter	-10.4811
▁processes	-10.4812
▁Eastern	-10.4814
▁flat	-10.4822
▁undertaken	-10.4822
▁disbelief	-10.4833
▁song	-10.4839
▁arrived	-10.4843
▁quarter	-10.4845
▁Card	-10.4848
▁properties	-10.4857
dependent	-10.4859
▁narrow	-10.4867
▁Support	-10.4867
poli	-10.4873
▁critic	-10.4878
▁Judgment	-10.4878
▁accused	-10.4878
▁lend	-10.4883
▁tube	-10.4899
▁persist	-10.4907
▁Ham	-10.4922
▁Principal	-10.4923
▁immense	-10.4923
▁Divine	-10.4923
▁publish	-10.4935
▁Babu	-10.4935
▁tomorrow	-10.4946
▁bridge	-10.4946
▁sorrow	-10.4946
▁Multi	-10.4948
▁orphan	-10.4958
▁applicable	-10.4969
▁Options	-10.4969
charya	-10.4972
▁2011	-10.4972
▁compensation	-10.498
▁fifty	-10.498
▁Aware	-10.4983
ographic	-10.4984
▁guarantee	-10.4992
TER	-10.4996
front	-10.4997
chandra	-10.4999
▁expenses	-10.5003
▁Limited	-10.5003
▁befall	-10.5009
▁Shu	-10.5013
▁bottom	-10.5014
▁Tele	-10.5017
▁client	-10.5019
▁Settings	-10.5026
▁spec	-10.5036
▁Narendra	-10.5038
▁Bangladesh	-10.5049
▁Hyderabad	-10.5049
▁database	-10.5049
▁await	-10.505
▁entrepreneur	-10.5053
▁solid	-10.5056
▁talent	-10.5062
▁losers	-10.5066
while	-10.5066
▁depict	-10.5074
▁Provid	-10.5079
▁Local	-10.5082
▁scar	-10.5091
▁outstanding	-10.5095
▁seal	-10.5102
▁sustenance	-10.5118
▁split	-10.5121
▁span	-10.5123
▁category	-10.5129
▁suppose	-10.5129
▁amendment	-10.5129
▁ego	-10.5134
▁Just	-10.5134
▁cricket	-10.5141
▁Take	-10.5149
▁French	-10.5152
▁combine	-10.5154
vati	-10.5156
▁1956	-10.516
▁exhibit	-10.5164
roll	-10.5167
▁Apostle	-10.5176
▁architecture	-10.5176
▁convention	-10.5176
▁humanity	-10.5181
▁Trade	-10.5185
▁simply	-10.5187
face	-10.5189
▁civilization	-10.519
▁automatically	-10.521
▁opposition	-10.521
▁Sardar	-10.5211
▁steel	-10.5212
▁acid	-10.5215
▁enjoin	-10.5222
▁Persian	-10.5222
▁Automatic	-10.5223
▁Light	-10.5225
▁115	-10.5227
▁Museum	-10.5234
▁Madhya	-10.5235
▁extremely	-10.5236
▁Full	-10.5244
▁Food	-10.5248
▁mandapa	-10.5257
▁candidate	-10.5269
▁wrongdoers	-10.5269
raja	-10.527
book	-10.5275
▁chair	-10.5281
-19	-10.5281
lap	-10.5287
▁surrender	-10.5292
▁treasure	-10.5292
62	-10.5293
India	-10.5298
▁Nations	-10.5301
▁frequent	-10.5304
ogen	-10.5305
▁sym	-10.5319
▁Link	-10.5323
▁Micro	-10.5333
▁Game	-10.5337
patri	-10.5338
▁pull	-10.5351
▁impart	-10.5351
▁muscle	-10.5351
▁infection	-10.5352
▁bull	-10.5352
▁chargeable	-10.536
▁Password	-10.5363
▁pledge	-10.5364
▁refused	-10.5366
▁handle	-10.5381
▁cool	-10.5382
▁composed	-10.5387
▁suggestion	-10.5388
▁argue	-10.5388
▁debate	-10.539
▁council	-10.5399
▁eternal	-10.5399
▁Related	-10.5399
▁Lib	-10.5403
▁Kolkata	-10.541
▁initiated	-10.541
▁radio	-10.5429
Who	-10.5434
▁respite	-10.5434
▁Pacific	-10.5434
▁wicked	-10.5434
lateral	-10.5458
▁Mohammed	-10.5458
▁coll	-10.547
▁Further	-10.547
▁equity	-10.547
▁violent	-10.5482
▁tourism	-10.5484
▁affair	-10.5493
▁quickly	-10.5495
▁tender	-10.5496
63	-10.5502
▁Jesus	-10.5506
▁wherever	-10.5508
▁Joint	-10.551
▁prosper	-10.551
▁desktop	-10.553
▁twelve	-10.553
▁Deputy	-10.553
▁Except	-10.5535
tivate	-10.5541
▁Industry	-10.5554
▁promoting	-10.5554
▁comprehensive	-10.5555
▁trend	-10.556
▁bomb	-10.5564
▁fought	-10.5566
▁beneath	-10.5566
▁Vidya	-10.5567
band	-10.5569
▁Mac	-10.557
▁clay	-10.5576
▁sustainable	-10.5601
▁hypocrites	-10.5602
▁Urdu	-10.5602
▁Keep	-10.5604
▁admitted	-10.5608
▁collective	-10.5618
polytheists	-10.5627
▁depart	-10.5631
▁prepare	-10.5637
▁Access	-10.5639
▁reaction	-10.5639
▁sincere	-10.5643
▁rising	-10.5646
▁Hand	-10.5647
▁Through	-10.5651
▁leaving	-10.5651
hand	-10.566
▁Temple	-10.5663
▁Build	-10.5664
▁salt	-10.5665
▁mine	-10.5673
▁Something	-10.5676
▁glory	-10.5678
▁disobey	-10.5688
▁enforce	-10.57
▁soldiers	-10.5702
▁Later	-10.5709
▁recognition	-10.5712
▁floor	-10.5712
▁acquisition	-10.5724
▁Filter	-10.5724
▁Source	-10.5725
▁immediate	-10.5741
▁revelation	-10.5743
▁Insurance	-10.5749
▁pane	-10.5752
▁broke	-10.5756
▁signature	-10.5765
▁Editor	-10.5787
▁Siva	-10.579
▁respectively	-10.5798
▁interface	-10.58
▁venture	-10.58
▁liberal	-10.5811
19	-10.5813
▁satisfied	-10.5823
▁Status	-10.5823
56	-10.5824
▁Look	-10.5827
tude	-10.5835
▁substitute	-10.5835
▁respondent	-10.5843
▁telephone	-10.5848
▁depth	-10.5848
▁invalid	-10.5848
67	-10.5858
▁evolution	-10.586
▁harvest	-10.586
▁murder	-10.586
zar	-10.5867
▁twice	-10.5873
▁Sara	-10.5875
▁neglect	-10.5885
▁preparation	-10.5885
▁crisis	-10.5885
▁overcome	-10.5886
▁fix	-10.5887
▁stick	-10.5887
▁thread	-10.5889
▁Noble	-10.5894
▁divide	-10.5895
▁framework	-10.5898
▁domain	-10.5898
▁overall	-10.5904
▁contemporary	-10.591
▁behaviour	-10.5922
2014	-10.5925
▁inspiration	-10.5935
▁Foundation	-10.5935
▁Sea	-10.5937
▁Test	-10.594
▁2010	-10.5952
▁enjoyment	-10.5952
▁Product	-10.5962
Indeed	-10.5973
▁Pandit	-10.5973
▁saint	-10.5986
▁lamp	-10.5992
amba	-10.5993
▁prefer	-10.6001
▁sheet	-10.6008
▁Japan	-10.601
▁availability	-10.6013
▁bag	-10.6013
▁servant	-10.6013
24	-10.6015
▁electric	-10.6017
▁prompt	-10.6018
▁personality	-10.603
▁horizon	-10.6036
▁understood	-10.6036
▁devil	-10.6036
▁Area	-10.6045
▁lying	-10.6046
▁intelligence	-10.6048
▁KDE	-10.6049
Moses	-10.605
COM	-10.606
▁royal	-10.6061
ologist	-10.6065
▁arbitra	-10.6074
▁communal	-10.6076
active	-10.608
▁jail	-10.6086
▁Credit	-10.6086
▁trading	-10.6087
▁appearance	-10.6118
▁thick	-10.6118
ancing	-10.6123
▁flood	-10.6125
▁tribute	-10.6125
▁circle	-10.6137
▁judicial	-10.6137
▁perceive	-10.6137
▁stretch	-10.6137
▁arising	-10.6139
▁charity	-10.615
▁Run	-10.6155
▁2020	-10.6159
▁preview	-10.6163
▁alive	-10.6168
▁diverse	-10.6173
▁interpretation	-10.6175
▁Global	-10.6176
▁evident	-10.6176
▁Gupta	-10.6176
▁Green	-10.6176
▁Tell	-10.6176
self	-10.6185
▁drag	-10.6188
▁gall	-10.6192
▁competition	-10.6201
▁computing	-10.6202
▁alarm	-10.6203
claim	-10.6205
▁Legislature	-10.6214
Why	-10.6214
▁forbid	-10.6216
▁Himself	-10.6231
EX	-10.6239
▁Calendar	-10.624
▁profile	-10.6253
▁apparent	-10.6279
▁capture	-10.6283
▁preach	-10.6283
▁threaten	-10.6284
▁merit	-10.6286
▁hardship	-10.629
▁constitute	-10.6293
▁index	-10.6297
▁Sita	-10.6304
▁guidelines	-10.6305
▁Center	-10.6307
▁driven	-10.6316
▁accomplish	-10.6318
▁accurate	-10.6318
▁1947	-10.6318
▁scatter	-10.6318
▁Army	-10.6321
▁worshipped	-10.6322
▁executive	-10.6331
▁CON	-10.6333
▁efficiency	-10.6344
▁definite	-10.6344
▁Record	-10.6357
▁declare	-10.6358
bhi	-10.6359
▁Market	-10.6369
▁arrive	-10.6372
▁loose	-10.638
▁Plugin	-10.6383
▁improving	-10.6383
▁switch	-10.6383
▁evolve	-10.6383
▁naught	-10.6387
▁Order	-10.6396
▁strategy	-10.6396
▁prominent	-10.6396
▁budget	-10.6409
,000	-10.641
▁elder	-10.641
▁preferred	-10.6411
▁Term	-10.6413
▁greet	-10.6424
▁numerous	-10.6449
▁victim	-10.6449
▁Manager	-10.6449
▁repentance	-10.6457
▁appoint	-10.6459
▁Afghanistan	-10.6462
▁collaboration	-10.6475
▁mortal	-10.6475
▁honor	-10.6476
▁expansion	-10.6488
▁spite	-10.6499
▁trace	-10.6501
▁facing	-10.6516
▁grew	-10.6519
▁impossible	-10.6528
▁commun	-10.6529
▁comprise	-10.653
▁consumption	-10.6542
▁arrogant	-10.6555
▁disturb	-10.6555
▁legislation	-10.6555
▁traffic	-10.6555
▁terminal	-10.6555
▁proclaim	-10.6558
▁theatre	-10.6561
▁repair	-10.6568
▁Annual	-10.6568
28	-10.657
▁David	-10.6572
&	-10.6573
▁boat	-10.658
▁abandon	-10.6582
75	-10.6583
▁reasonable	-10.6593
▁integrated	-10.6595
▁Earth	-10.6609
word	-10.6616
▁Pass	-10.6619
▁permitted	-10.662
79	-10.6622
▁adapt	-10.6622
▁composition	-10.6623
▁highlight	-10.6628
▁restrain	-10.6636
▁considerable	-10.664
▁dialog	-10.6648
▁corporate	-10.6649
▁disgrace	-10.6649
▁flight	-10.6649
▁representation	-10.6651
▁wound	-10.6659
▁excellence	-10.6662
▁felicitations	-10.6662
▁housing	-10.6662
vari	-10.6671
IVE	-10.6671
▁masses	-10.6675
▁poetic	-10.6675
▁completion	-10.6676
▁sharp	-10.6692
▁raw	-10.6693
comm	-10.6698
*	-10.6709
▁conclude	-10.6716
98	-10.672
▁pious	-10.6722
▁rub	-10.6732
▁Program	-10.6741
▁Screen	-10.6743
▁passage	-10.6754
▁Organization	-10.6757
▁vessel	-10.6757
▁yellow	-10.6757
▁craft	-10.6757
▁Energy	-10.677
▁province	-10.677
▁Email	-10.6771
▁mineral	-10.6772
▁push	-10.6774
▁Left	-10.6776
▁spoken	-10.6787
▁distinction	-10.679
▁shade	-10.6795
▁Similarly	-10.6798
garh	-10.6807
▁prohibit	-10.6811
▁steadfast	-10.6811
▁surprise	-10.6811
▁Tourism	-10.6811
▁incurred	-10.6825
▁Police	-10.6825
▁harmony	-10.6825
▁Road	-10.6835
▁despair	-10.6839
▁silver	-10.6839
EF	-10.684
▁transmission	-10.6842
▁fluid	-10.6848
▁encompass	-10.6852
▁Election	-10.6852
▁Kingdom	-10.6852
▁alternative	-10.6866
▁conservation	-10.6866
▁crowd	-10.6866
▁Font	-10.6872
AYS	-10.6874
▁irrigation	-10.688
▁remembrance	-10.688
▁bestow	-10.6891
▁relate	-10.6892
▁superior	-10.6894
▁Whatever	-10.6896
▁Prasad	-10.6899
▁Capital	-10.6908
▁Value	-10.6908
▁Lanka	-10.6909
▁combination	-10.6921
▁recipient	-10.6921
▁quantity	-10.6921
uce	-10.6937
▁Follow	-10.6949
▁constructed	-10.6949
▁corrupt	-10.6955
▁satisfaction	-10.6963
▁partition	-10.6969
▁faithless	-10.697
▁terror	-10.6972
▁stamp	-10.6974
▁Jawaharlal	-10.6977
▁cheque	-10.6981
▁socio	-10.6981
▁baby	-10.6982
connect	-10.6986
▁injustice	-10.6991
Shall	-10.7
▁Nagar	-10.7007
▁Ambedkar	-10.7018
▁grievance	-10.7018
▁conclusion	-10.7019
▁stray	-10.7025
▁disorder	-10.7032
▁Himachal	-10.7033
▁prospect	-10.7033
▁remarkable	-10.7046
▁logic	-10.7048
26	-10.7049
▁Point	-10.7059
▁White	-10.7061
▁bug	-10.7084
resident	-10.7086
▁Cabinet	-10.7089
▁encrypt	-10.7089
▁snake	-10.7089
▁eastern	-10.709
▁pour	-10.7098
2015	-10.7101
▁determination	-10.7103
▁tag	-10.7109
▁Knowledge	-10.7117
▁Photo	-10.7119
▁affection	-10.712
▁merge	-10.7125
▁productivity	-10.7132
▁universe	-10.7145
▁personnel	-10.7159
▁ensuring	-10.7159
▁disabled	-10.716
▁lord	-10.7166
▁extensive	-10.7173
▁securities	-10.7173
▁1992	-10.7173
▁dawn	-10.7173
▁difficulties	-10.7186
▁lecture	-10.7187
▁struck	-10.719
▁interaction	-10.7201
▁Subject	-10.7202
▁Companies	-10.7202
▁cluster	-10.7202
▁Online	-10.7202
▁Ibrahim	-10.7216
▁march	-10.7222
▁Agricultural	-10.723
▁sudden	-10.7241
▁categories	-10.7244
off	-10.725
▁announce	-10.7251
▁pound	-10.7251
▁aspiration	-10.7259
▁brave	-10.7261
▁duration	-10.7265
▁Panchayat	-10.7287
▁transformation	-10.7296
▁silk	-10.7299
▁cried	-10.7303
▁1998	-10.731
▁Sector	-10.7322
▁herself	-10.7322
▁miles	-10.733
▁competitive	-10.733
▁guest	-10.7331
▁worse	-10.7332
▁Level	-10.7335
▁planned	-10.7338
▁diversity	-10.7345
▁Ramayana	-10.7345
▁barrier	-10.7345
▁eliminat	-10.735
▁voluntary	-10.7359
▁removal	-10.7359
▁shadow	-10.7359
▁Vedic	-10.7363
▁hypo	-10.7374
▁bowl	-10.7376
▁semi	-10.7379
▁acknowledge	-10.7388
▁dynamic	-10.7388
▁Spirit	-10.7388
▁haply	-10.7388
▁Software	-10.7403
▁extreme	-10.7414
▁strategic	-10.7417
▁dollar	-10.7417
▁label	-10.7417
▁regime	-10.742
▁Brahmin	-10.7461
▁HTML	-10.7461
▁Subscriber	-10.7461
▁gradually	-10.7475
83	-10.7485
▁submission	-10.7488
▁protocol	-10.749
▁Madras	-10.7491
▁celebration	-10.7505
▁dimension	-10.7505
▁significance	-10.7505
▁Thank	-10.7505
person	-10.7509
▁liability	-10.7516
▁License	-10.7519
▁Audio	-10.7519
▁throne	-10.7519
▁pond	-10.7523
▁resurrect	-10.7534
▁Location	-10.754
▁browser	-10.7549
▁condemn	-10.7563
▁segment	-10.7564
▁multiply	-10.7578
▁spell	-10.7588
▁anniversary	-10.7593
▁axis	-10.7599
▁lake	-10.7602
▁Place	-10.7611
▁quiet	-10.7611
▁Exalted	-10.7623
▁shelter	-10.7623
▁stopped	-10.7624
▁writ	-10.7637
chari	-10.7637
▁Template	-10.7637
▁encounter	-10.7637
▁Attach	-10.7638
▁URI	-10.7649
▁conversation	-10.7667
▁eminent	-10.7667
▁Jaya	-10.767
complete	-10.7682
▁Additional	-10.7682
▁southern	-10.7685
▁wholly	-10.7687
▁ignorant	-10.7697
▁module	-10.7697
▁York	-10.7697
▁flesh	-10.7697
▁petition	-10.7706
▁assembly	-10.7712
▁disappear	-10.7742
▁outcome	-10.7742
▁glass	-10.7743
write	-10.7743
know	-10.7747
▁Grant	-10.7747
▁valuable	-10.7772
▁NPS	-10.7772
▁nerve	-10.7772
gradation	-10.7775
▁Advance	-10.7787
▁Details	-10.7787
▁Mercy	-10.7787
▁faculty	-10.7787
▁Audit	-10.7787
▁exempt	-10.7789
▁revive	-10.7789
▁Region	-10.7795
▁Perhaps	-10.7802
▁admonition	-10.7802
▁visual	-10.7803
▁tale	-10.7809
▁complain	-10.7811
▁controlled	-10.7816
▁Executive	-10.7817
▁sovereign	-10.7817
▁deserve	-10.7825
gree	-10.7825
▁Zone	-10.7827
▁ignorance	-10.7832
▁infinite	-10.7832
▁receiving	-10.7832
Script	-10.7832
▁Pension	-10.7832
▁investors	-10.7837
▁passenger	-10.7847
▁Innovation	-10.7863
▁Gita	-10.7863
▁mosque	-10.7863
▁attach	-10.7873
▁resort	-10.7878
▁motor	-10.7882
▁accord	-10.7886
▁Chaitanya	-10.7893
▁accompanied	-10.7893
▁proxy	-10.7893
▁wander	-10.7895
▁extract	-10.7904
▁Universities	-10.7908
▁indigenous	-10.7924
▁Major	-10.7924
▁pardon	-10.7924
system	-10.7925
▁Mohan	-10.7927
▁cotton	-10.7939
▁Session	-10.794
▁Issue	-10.7942
▁Koran	-10.7948
▁ceremony	-10.7954
▁unseen	-10.7954
▁producing	-10.797
▁MSME	-10.797
▁Child	-10.7973
▁preference	-10.7978
▁Binoy	-10.7985
▁fifteen	-10.8
▁League	-10.8
29	-10.8001
▁shame	-10.801
▁assert	-10.8016
▁Burn	-10.8029
▁familiar	-10.8031
▁Short	-10.8031
▁technological	-10.8047
▁legend	-10.8054
▁absorb	-10.8062
▁algorithm	-10.8062
jj	-10.8076
▁corporation	-10.8078
▁occupation	-10.8078
▁Certainly	-10.8093
▁Download	-10.8093
▁Collect	-10.8096
▁classical	-10.8108
▁innovative	-10.8109
▁offspring	-10.8109
▁drum	-10.8109
▁refuse	-10.812
41	-10.8123
▁Meeting	-10.8125
▁Maharaja	-10.8126
▁testimony	-10.814
▁triumph	-10.814
▁wrath	-10.814
▁worst	-10.814
▁diploma	-10.8155
▁lift	-10.8166
▁Object	-10.8171
▁internet	-10.8171
▁Install	-10.8187
▁excuse	-10.8195
wood	-10.8196
▁tremendous	-10.8202
▁sequence	-10.8202
serve	-10.8206
▁sharing	-10.8212
▁Medical	-10.8219
▁photograph	-10.8219
▁northern	-10.8221
▁criticism	-10.8238
When	-10.8239
▁airport	-10.8241
▁sensitive	-10.825
▁empire	-10.825
Laughter	-10.825
▁despite	-10.8265
▁ungrateful	-10.8265
▁biggest	-10.8266
▁authorised	-10.8271
▁opposite	-10.8281
worm	-10.8295
▁Single	-10.8297
▁equivalent	-10.8297
▁competent	-10.8298
▁Gazette	-10.8313
▁miracle	-10.8313
▁emerging	-10.8329
▁disciple	-10.8361
▁historic	-10.8368
▁Update	-10.8378
▁entrusted	-10.8393
▁tank	-10.8394
▁qualities	-10.8409
▁tail	-10.8411
▁cultivation	-10.8425
▁Vijay	-10.8426
▁surrounding	-10.8441
▁Manipur	-10.8441
▁dividend	-10.8444
▁woe	-10.8458
▁uncle	-10.8458
▁strict	-10.846
▁missing	-10.8471
▁definition	-10.8473
▁unaware	-10.8473
▁patron	-10.8473
▁Again	-10.8474
▁Ltd	-10.8477
▁audience	-10.8489
▁carbon	-10.8489
▁injury	-10.849
product	-10.8497
▁inclusive	-10.8522
▁goddess	-10.8538
▁smooth	-10.8538
▁interval	-10.8548
▁disaster	-10.8554
▁sinners	-10.8555
▁Japanese	-10.8555
▁grief	-10.857
▁fashion	-10.8571
▁sentiment	-10.8571
▁raising	-10.8577
▁temper	-10.8586
▁diamond	-10.8587
▁Natural	-10.8587
▁execution	-10.8603
▁wheel	-10.8603
▁keen	-10.8604
▁virtual	-10.8636
▁George	-10.8636
▁appellant	-10.8636
▁investigation	-10.8636
▁ordained	-10.8636
▁illegal	-10.8636
▁Branch	-10.8636
▁Media	-10.8637
▁aircraft	-10.8652
▁Narayan	-10.8653
▁plead	-10.8653
believers	-10.8665
▁modification	-10.8669
▁survive	-10.8669
OUR	-10.8675
▁livelihood	-10.8685
▁studied	-10.8685
▁Britain	-10.8685
▁protest	-10.8692
▁ruling	-10.871
▁divorce	-10.8718
▁vertical	-10.8723
▁Industries	-10.8735
▁Empire	-10.8735
▁Labour	-10.8735
▁declaration	-10.8751
▁teeth	-10.8752
▁hydro	-10.8752
▁disclose	-10.8752
▁garment	-10.8753
▁NABARD	-10.8768
▁introduction	-10.8768
▁poison	-10.8768
▁imposed	-10.8768
▁2018	-10.8771
▁radical	-10.8771
▁wheat	-10.8785
▁uniform	-10.8785
▁hang	-10.8795
▁conferred	-10.8801
▁yesterday	-10.8818
▁entity	-10.882
▁Prince	-10.8823
▁Investment	-10.8835
▁contrary	-10.8835
▁Christ	-10.8849
▁Configure	-10.8851
▁Majesty	-10.8851
▁typical	-10.8851
▁Chrome	-10.8868
▁movie	-10.8886
▁oriented	-10.8886
▁Normal	-10.8888
▁PRAN	-10.8902
▁Sometimes	-10.8902
▁gentle	-10.8902
▁Turkey	-10.8919
▁precede	-10.8921
▁Hearing	-10.8926
PRODUCT	-10.8936
responsibilities	-10.8936
▁summer	-10.8942
▁drowned	-10.8953
ordination	-10.896
▁Properties	-10.897
▁enlighten	-10.897
▁Leave	-10.897
▁Greek	-10.8987
▁enrich	-10.8987
▁Faith	-10.8987
▁Welfare	-10.9004
▁rescue	-10.9023
▁(5)	-10.9024
▁grievous	-10.9038
▁mischief	-10.9038
▁silent	-10.9038
▁protein	-10.9055
▁Money	-10.9058
▁sail	-10.9062
▁abundant	-10.9072
▁Organisation	-10.9072
▁blank	-10.9076
2013	-10.9086
▁Marathi	-10.9089
▁salary	-10.9091
▁Vietnam	-10.9106
▁observation	-10.9123
▁gross	-10.9124
▁rebel	-10.9126
▁carved	-10.9132
▁Professor	-10.9141
▁abnormal	-10.9141
▁entrance	-10.9141
▁dignity	-10.9141
▁modified	-10.9141
▁fertilizer	-10.9158
▁earliest	-10.9158
▁Throne	-10.9158
▁Engineering	-10.9158
▁Chennai	-10.9175
▁Governance	-10.9175
▁healthcare	-10.9175
▁monument	-10.9175
▁Durga	-10.9193
▁Nothing	-10.9195
▁Airport	-10.9196
▁Visit	-10.9197
▁interact	-10.9197
including	-10.9204
▁wire	-10.9206
▁Thamud	-10.921
▁Defence	-10.921
▁causing	-10.921
▁Space	-10.9213
▁knee	-10.9214
▁deceive	-10.9227
▁Arabia	-10.9229
metric	-10.9244
▁aforesaid	-10.9245
▁symptoms	-10.9245
▁license	-10.9245
▁Computer	-10.9262
▁guess	-10.9262
▁Saudi	-10.9263
▁intense	-10.9264
▁Deposit	-10.9275
▁aggregate	-10.928
▁widow	-10.928
▁ISO	-10.9281
▁{1}	-10.9297
▁Minimum	-10.9297
▁Black	-10.9297
▁nurse	-10.9298
▁atomic	-10.9299
▁regulate	-10.9318
▁clubs	-10.9333
▁rough	-10.9336
▁Bhutan	-10.935
▁awake	-10.935
▁Yusuf	-10.9368
▁Indira	-10.9368
▁deceased	-10.9385
▁caught	-10.9394
▁integrity	-10.9403
▁envisage	-10.9421
▁embrace	-10.9421
▁Monitor	-10.9421
▁settle	-10.9434
▁inhabitants	-10.9438
▁smoke	-10.9439
▁Question	-10.9456
▁involving	-10.9456
▁acquire	-10.9459
▁Agreement	-10.9474
▁continent	-10.9492
▁serving	-10.9493
▁Insert	-10.9493
▁secular	-10.9497
▁modify	-10.951
cribed	-10.9513
▁Survey	-10.9528
▁Encrypt	-10.9546
▁colleague	-10.9546
▁Previous	-10.9546
▁circular	-10.9546
▁variable	-10.9546
▁Three	-10.9546
▁concession	-10.9564
▁derivative	-10.9564
▁recruit	-10.9564
▁fragment	-10.9564
▁physi	-10.9565
▁EVE	-10.9573
▁consume	-10.9575
▁bliss	-10.9582
▁varieties	-10.96
▁residence	-10.96
▁flee	-10.9615
▁possibility	-10.9618
▁interpret	-10.9619
▁circuit	-10.9636
▁bacteria	-10.9636
▁Private	-10.9636
▁inspire	-10.964
▁Quality	-10.9654
▁estate	-10.9657
▁Transfer	-10.9665
▁impression	-10.9672
▁applicant	-10.9672
▁equation	-10.9691
▁Creator	-10.9691
▁deduct	-10.9697
▁GNOME	-10.9709
▁Yojana	-10.9709
space	-10.9739
▁angel	-10.9745
▁innocent	-10.9745
▁dialogue	-10.9746
▁Monotheism	-10.9764
▁achieving	-10.9764
▁parallel	-10.9764
▁boost	-10.9764
▁Switch	-10.9782
▁Field	-10.9782
▁predict	-10.9786
▁Valley	-10.98
▁administrator	-10.9819
▁vimana	-10.9819
▁resign	-10.9822
▁score	-10.9824
▁Procedure	-10.9837
▁genuine	-10.9837
▁retribution	-10.9837
▁wilt	-10.9838
▁dismiss	-10.9853
▁Convention	-10.9856
▁William	-10.9856
▁honest	-10.9856
pertaining	-10.9867
▁Benefit	-10.9874
▁proviso	-10.9875
▁Initial	-10.9875
▁Basava	-10.9875
text	-10.9876
▁enclos	-10.9893
▁smile	-10.9899
▁tape	-10.9904
▁Culture	-10.9912
▁advocate	-10.993
▁Truly	-10.9931
▁incline	-10.9933
▁primarily	-10.9949
▁Remote	-10.9949
▁Should	-10.9968
▁configure	-10.9968
▁shareholder	-10.9968
▁Municipal	-10.9986
▁fifth	-10.9987
▁larva	-11.0002
▁contrast	-11.0005
▁hatred	-11.0024
▁regret	-11.0043
▁digit	-11.0046
▁artificial	-11.0062
▁swor	-11.0074
▁plaintiff	-11.0081
▁swift	-11.0081
▁Govt	-11.0081
▁administer	-11.01
▁societies	-11.01
▁stakeholders	-11.01
▁mould	-11.0101
▁charm	-11.0103
▁lease	-11.0113
▁worry	-11.0138
▁variation	-11.0139
▁Almighty	-11.0157
▁practise	-11.0157
▁Summit	-11.0157
▁Lucknow	-11.0176
▁Bahadur	-11.0176
▁summary	-11.0176
▁confined	-11.0177
▁Notwithstanding	-11.0195
▁hunger	-11.0195
▁Always	-11.0196
▁Telugu	-11.0214
▁easier	-11.0214
scribing	-11.0215
▁deliberate	-11.0234
▁Ayurveda	-11.0234
▁imagination	-11.0234
▁virus	-11.0235
▁rhythm	-11.0253
▁supplement	-11.0253
▁surrounded	-11.0253
▁intervention	-11.0253
▁binding	-11.0273
▁intimate	-11.0273
▁connectivity	-11.0274
▁beneficial	-11.0292
▁Administration	-11.0292
▁Festival	-11.0292
▁vaccine	-11.0292
▁bamboo	-11.0311
▁legislative	-11.0311
▁shoot	-11.0311
▁blessing	-11.0316
▁Electric	-11.033
▁consolidat	-11.033
▁arrival	-11.033
▁Toggle	-11.033
▁Learn	-11.0332
▁satisfy	-11.035
▁Bangalore	-11.035
▁exposed	-11.035
▁arrow	-11.0352
▁Maximum	-11.0369
▁expiry	-11.0369
▁Background	-11.0389
▁elaborate	-11.0389
▁geographical	-11.0389
▁rejoice	-11.0389
▁Several	-11.0409
▁Title	-11.0409
▁calm	-11.0412
▁distant	-11.0429
▁commodities	-11.0448
▁climb	-11.0448
▁Sikkim	-11.0467
▁crucial	-11.0467
▁museum	-11.0467
▁Haryana	-11.0467
▁Mosque	-11.0468
▁Nanak	-11.0468
▁peasant	-11.0487
▁spouse	-11.0488
▁warrant	-11.0489
▁SPEECH	-11.0507
▁thorough	-11.0507
▁overseas	-11.0507
▁Present	-11.0508
▁lawyer	-11.0511
▁Secretariat	-11.0527
▁delegation	-11.0527
▁decrease	-11.0527
▁precise	-11.0527
▁fortune	-11.0527
▁Registration	-11.0546
▁integration	-11.0546
▁explanation	-11.0546
▁ascend	-11.0572
▁spare	-11.0586
▁licence	-11.0587
▁silence	-11.0587
▁swallow	-11.0606
genera	-11.0622
▁priest	-11.0626
▁Padma	-11.0635
▁twain	-11.0646
title	-11.0661
▁pronounce	-11.0666
▁Speech	-11.0666
▁Family	-11.0666
▁Korea	-11.0673
▁recognise	-11.0676
▁maturity	-11.0686
[	-11.0692
▁Employment	-11.0707
▁Aaron	-11.0708
▁float	-11.0732
krishna	-11.0747
▁Wikipedia	-11.0767
▁virtuous	-11.0767
▁Function	-11.0767
▁Kabir	-11.0768
▁Ministries	-11.0788
▁Reminder	-11.0788
▁suffice	-11.0788
▁Design	-11.0789
▁concentrate	-11.0808
▁essay	-11.0808
▁SHRI	-11.0828
▁reducing	-11.0828
▁queen	-11.0829
film	-11.0842
▁Protocol	-11.0849
▁immortal	-11.0849
▁ticket	-11.0849
▁angle	-11.0861
▁intellect	-11.0868
▁Abdul	-11.0869
▁varied	-11.0871
which	-11.0877
▁Cancel	-11.0887
▁manuscript	-11.089
▁unfortunate	-11.089
▁Jewish	-11.089
▁glorify	-11.089
▁Soviet	-11.089
▁Write	-11.0913
▁sponsor	-11.0931
▁pursuit	-11.0952
▁Academy	-11.0972
▁perception	-11.0973
▁enormous	-11.0993
▁safeguard	-11.0993
▁digest	-11.0994
people	-11.1002
▁decimal	-11.1014
▁eleven	-11.1035
▁Communication	-11.1056
▁accumulate	-11.1056
▁earthquake	-11.1056
▁emergency	-11.1056
▁conceive	-11.1056
▁debug	-11.1056
script	-11.1068
▁womb	-11.1077
▁LDAP	-11.1119
▁True	-11.1119
▁Position	-11.1119
▁Mobile	-11.114
▁Browse	-11.1141
▁admonish	-11.1161
▁somewhat	-11.1161
▁troops	-11.1161
▁magazine	-11.1182
▁Sucharita	-11.1182
▁storm	-11.1185
utonomous	-11.1203
▁entries	-11.1203
▁Desktop	-11.1224
▁satellite	-11.1224
▁Solomon	-11.1224
▁Syria	-11.1225
▁loyal	-11.1226
▁Develop	-11.1236
▁Washington	-11.1246
▁delegate	-11.1246
▁batsman	-11.1246
▁RBI	-11.1246
▁NATIONAL	-11.1267
▁pulse	-11.1267
ndranath	-11.1286
▁routine	-11.1288
▁Sheikh	-11.1288
▁Consider	-11.1289
▁CALL	-11.131
▁retrieve	-11.131
▁hereafter	-11.1331
▁appreciation	-11.1353
▁encouraging	-11.1353
▁mislead	-11.1353
▁vitamin	-11.1353
▁copies	-11.1353
field	-11.1358
▁simultaneous	-11.1374
▁Beneficent	-11.1374
▁Literature	-11.1374
▁occupied	-11.1374
▁financing	-11.1396
▁Zoom	-11.1396
▁Ocean	-11.1396
▁slope	-11.1396
▁Payment	-11.1397
▁dispose	-11.1401
▁Digital	-11.1439
▁Consumer	-11.1439
▁assemble	-11.1439
▁allocation	-11.1439
▁disagree	-11.1461
▁Frame	-11.1462
▁injured	-11.1483
▁Tibet	-11.1484
▁profound	-11.1505
▁eventually	-11.1505
▁inspection	-11.1505
▁acquaint	-11.1526
▁preceding	-11.1526
▁bought	-11.1526
▁closing	-11.1527
▁sample	-11.155
▁accommodation	-11.157
▁occurrence	-11.157
▁conviction	-11.157
▁altogether	-11.1592
▁piety	-11.1593
▁nutrition	-11.1614
▁clipboard	-11.1637
▁Journal	-11.1637
▁suppress	-11.1637
▁drain	-11.1638
▁contend	-11.1638
▁chromosome	-11.1659
▁invitation	-11.1659
▁dynasty	-11.1681
▁extraordinary	-11.1681
▁dominion	-11.1681
▁boiling	-11.1681
▁enhancing	-11.1703
▁thrust	-11.1703
▁crush	-11.1704
▁Technical	-11.1726
▁widget	-11.177
▁cultivate	-11.1793
▁necessity	-11.1793
▁Topics	-11.1794
▁devise	-11.1802
▁capabilities	-11.1815
▁statutory	-11.1815
▁pretty	-11.1816
▁explore	-11.1816
▁Vivekananda	-11.1838
▁migrate	-11.1861
▁Ganesh	-11.1862
AGE	-11.1864
▁perspective	-11.1883
▁outlook	-11.1883
▁Establish	-11.1906
▁admire	-11.1906
▁Infrastructure	-11.1929
▁commerce	-11.1929
▁exhaust	-11.1929
▁statue	-11.1929
▁Sultan	-11.1929
▁adhere	-11.1937
▁Netaji	-11.1952
▁Complete	-11.1958
Where	-11.1968
▁premises	-11.1974
▁scroll	-11.1975
▁quarrel	-11.1997
▁Bureau	-11.1997
▁Arjun	-11.1999
▁Jacob	-11.202
▁unexpected	-11.2043
▁commencing	-11.2043
▁overwhelm	-11.2043
▁supplied	-11.2043
▁Radio	-11.2054
▁Configuration	-11.2066
▁abundance	-11.2066
▁Urban	-11.2066
▁Commerce	-11.2066
▁refund	-11.2067
▁Scale	-11.2082
▁Akademi	-11.209
▁Extension	-11.209
▁Clean	-11.209
▁genus	-11.209
▁flourish	-11.2113
▁evildoers	-11.2113
▁holiday	-11.2113
▁plastic	-11.2113
▁stomach	-11.2113
▁Lahore	-11.2113
▁Preferences	-11.2113
▁Period	-11.2113
▁suspend	-11.2136
▁literacy	-11.2136
▁eager	-11.2137
Have	-11.2155
▁Integrated	-11.2159
▁subsidy	-11.2159
▁Debug	-11.2159
▁bulk	-11.216
▁behave	-11.2168
▁slaughter	-11.2183
▁Cultural	-11.2183
▁regulator	-11.2183
▁Village	-11.2183
▁compliment	-11.2183
break	-11.2202
▁Anjuta	-11.2206
▁disposal	-11.2206
▁workshop	-11.2206
▁communicate	-11.2207
▁inaugura	-11.2224
▁genius	-11.223
▁enlarge	-11.223
▁pioneer	-11.223
▁commend	-11.223
▁Shankar	-11.2231
▁Citizen	-11.2253
▁glorious	-11.2253
▁decorated	-11.2253
▁Queen	-11.2253
▁revere	-11.2267
▁dedication	-11.2277
▁hyper	-11.2277
▁conquer	-11.2277
▁pearl	-11.2279
▁Guidelines	-11.23
▁Effect	-11.23
▁Width	-11.2301
▁transparency	-11.2324
▁whisper	-11.2324
▁angry	-11.2326
friend	-11.2344
▁legislature	-11.2348
▁politician	-11.2348
▁idolaters	-11.2348
▁Sahib	-11.2348
▁Seminar	-11.2348
elecommunication	-11.2372
▁Budget	-11.2396
▁retreat	-11.2397
Prophet	-11.2416
Applause	-11.2419
▁puppet	-11.2419
▁daniel	-11.2419
▁Large	-11.2425
▁Sync	-11.2434
▁Assistance	-11.2443
▁Malayalam	-11.2443
▁concentration	-11.2443
▁Column	-11.2443
▁allotted	-11.2444
▁computed	-11.2444
▁destiny	-11.2467
▁pregnancy	-11.2467
▁neighbor	-11.2492
▁Street	-11.2492
▁identification	-11.2516
▁exclude	-11.2516
▁Request	-11.2516
▁essence	-11.2516
▁PRESENT	-11.254
▁nervous	-11.254
▁procure	-11.254
▁fetch	-11.2541
▁MESSAGE	-11.2564
▁unlawful	-11.2564
▁behavior	-11.2564
▁forefathers	-11.2589
▁Agency	-11.2589
▁circum	-11.2613
▁Studies	-11.2613
▁spades	-11.2613
▁narrative	-11.2637
▁Thereafter	-11.2637
▁phrase	-11.2637
▁maxim	-11.2658
▁Neither	-11.2662
▁enquiry	-11.2662
▁retirement	-11.2686
▁powder	-11.2686
▁Ashok	-11.2691
▁continuing	-11.2711
against	-11.2735
▁HTTP	-11.2736
▁Religion	-11.2736
▁Launch	-11.2736
▁landlord	-11.2761
▁enabling	-11.2761
▁emphasize	-11.2785
▁imprisonment	-11.2785
▁oxygen	-11.2785
▁territories	-11.2785
▁operator	-11.2785
▁comprising	-11.2785
▁pocket	-11.2785
▁endorse	-11.2788
▁Badruddin	-11.281
▁Buddhism	-11.281
▁Corporate	-11.281
▁Property	-11.281
▁relieve	-11.2811
▁devour	-11.2811
▁ransom	-11.2811
▁requite	-11.2816
▁intelligent	-11.2835
▁premium	-11.2835
▁Isaac	-11.2835
▁Sacred	-11.2835
▁Evil	-11.2835
▁demerge	-11.2839
▁membrane	-11.286
▁necessarily	-11.286
▁trunk	-11.286
nthrop	-11.2862
▁sperm	-11.2883
▁Microsoft	-11.2885
▁enacted	-11.2885
▁commodity	-11.291
▁comparison	-11.291
▁surgery	-11.291
▁utmost	-11.291
▁NGO	-11.291
▁compete	-11.2932
▁Implementation	-11.2936
▁Machine	-11.2936
▁striving	-11.2936
▁boast	-11.2938
▁complicated	-11.2961
▁MIME	-11.2961
▁Unicode	-11.2986
▁pregnant	-11.2986
‘	-11.6909
–	-11.7777
<	-12.9314
>	-13.8843
