<pad>	0
</s>	0
<unk>	0
▁the	-3.31432
s	-3.41366
.	-3.43782
,	-3.52664
▁of	-3.70531
▁and	-3.99678
▁to	-4.11021
▁in	-4.3271
▁a	-4.3608
▁	-4.49928
▁is	-4.62675
ing	-4.65778
ed	-4.74861
▁for	-5.08056
▁-	-5.12982
d	-5.13524
▁that	-5.16078
▁The	-5.30559
e	-5.31776
▁be	-5.31859
▁you	-5.31926
▁(	-5.41622
▁with	-5.47727
t	-5.48681
▁not	-5.52621
▁are	-5.55103
▁on	-5.58341
)	-5.60107
al	-5.60689
▁or	-5.60765
▁it	-5.62117
y	-5.62833
ly	-5.64288
▁'	-5.66062
▁as	-5.69015
▁by	-5.70742
▁have	-5.76476
▁from	-5.78803
▁was	-5.79021
▁will	-5.81191
:	-5.82134
▁this	-5.87248
▁them	-5.89682
▁I	-5.91524
▁they	-5.92335
▁who	-5.92399
r	-5.92792
▁which	-5.96637
er	-5.96907
n	-5.98274
▁has	-6.00238
;	-6.02611
a	-6.04992
▁A	-6.06036
i	-6.07061
▁s	-6.08079
▁his	-6.0836
▁their	-6.09231
▁he	-6.10795
▁He	-6.11594
▁an	-6.14416
▁all	-6.26762
▁S	-6.28816
▁at	-6.31243
m	-6.3263
▁Allah	-6.35379
▁We	-6.39251
▁your	-6.40591
es	-6.40811
in	-6.41138
▁And	-6.4172
c	-6.42363
?	-6.43795
p	-6.452
ation	-6.46091
o	-6.48158
▁one	-6.48255
▁T	-6.49233
▁India	-6.49551
-	-6.49889
'	-6.50358
▁we	-6.50414
▁can	-6.50487
ur	-6.50771
▁do	-6.54459
▁but	-6.54595
▁been	-6.58016
▁It	-6.5985
▁were	-6.61671
▁people	-6.63372
▁In	-6.63496
u	-6.63756
or	-6.65932
▁when	-6.66347
▁so	-6.66891
▁C	-6.68449
▁him	-6.68526
re	-6.69152
▁"	-6.69424
ion	-6.69465
b	-6.70405
th	-6.70873
l	-6.71941
g	-6.72138
▁said	-6.72716
▁those	-6.73013
an	-6.74752
▁any	-6.77203
▁also	-6.78969
▁had	-6.79654
▁/	-6.80161
%	-6.82398
it	-6.83651
▁no	-6.83939
▁other	-6.84065
▁shall	-6.84999
ar	-6.85278
▁B	-6.86457
▁what	-6.87965
▁there	-6.89006
st	-6.89048
▁if	-6.91924
▁Lord	-6.92434
▁P	-6.92601
▁out	-6.92837
▁up	-6.94716
▁may	-6.95387
k	-6.95463
▁our	-6.95558
▁O	-6.96592
▁its	-6.9672
on	-6.97111
le	-6.97249
ra	-6.99045
_	-7.00099
▁This	-7.00188
▁God	-7.00556
f	-7.01913
!	-7.02746
▁time	-7.03963
w	-7.04173
ic	-7.04226
able	-7.04322
▁would	-7.04364
ment	-7.05395
▁un	-7.07655
at	-7.08066
▁p	-7.08257
▁G	-7.08976
A	-7.09133
▁only	-7.09594
▁such	-7.10516
▁made	-7.10924
S	-7.11331
se	-7.12255
en	-7.14519
▁F	-7.14628
▁“	-7.15264
▁under	-7.15271
h	-7.1538
▁M	-7.17825
▁then	-7.18118
▁like	-7.1812
▁re	-7.18382
▁more	-7.1931
I	-7.195
▁K	-7.19644
▁over	-7.19889
O	-7.20438
▁E	-7.20592
▁than	-7.20694
▁should	-7.23998
▁me	-7.24878
▁c	-7.24973
il	-7.2561
▁e	-7.25736
▁So	-7.25822
▁into	-7.2619
▁about	-7.26436
et	-7.26615
▁new	-7.27533
▁my	-7.27718
▁R	-7.29006
▁us	-7.29759
▁L	-7.30325
▁D	-7.30593
▁g	-7.30898
ity	-7.30973
▁life	-7.30979
ent	-7.31715
▁two	-7.32015
▁They	-7.32082
▁these	-7.32175
ive	-7.32315
est	-7.32669
ir	-7.32955
C	-7.33331
▁say	-7.33739
T	-7.33916
▁f	-7.35716
▁before	-7.35746
um	-7.3624
ri	-7.36242
▁But	-7.36353
▁some	-7.36452
P	-7.37346
ce	-7.38619
as	-7.39104
▁”	-7.40327
ous	-7.40674
am	-7.40688
▁[	-7.41315
ma	-7.41459
▁b	-7.42708
ers	-7.4316
▁good	-7.4391
us	-7.44647
la	-7.45375
▁after	-7.45432
ul	-7.45764
▁work	-7.45786
▁If	-7.45909
▁world	-7.46004
’	-7.46077
li	-7.46168
▁Indian	-7.47463
▁m	-7.47967
ness	-7.48789
▁d	-7.48922
▁Act	-7.49688
▁President	-7.50316
▁make	-7.50474
▁de	-7.50837
]	-7.51102
▁His	-7.51684
el	-7.5233
ol	-7.53256
▁used	-7.53712
▁N	-7.53917
ate	-7.54508
▁through	-7.54752
▁between	-7.54787
▁where	-7.54932
▁day	-7.55733
ak	-7.562
D	-7.56224
▁country	-7.56778
▁very	-7.56838
▁could	-7.58126
ter	-7.58232
M	-7.58721
▁her	-7.59175
▁To	-7.59398
ch	-7.59531
to	-7.59749
▁well	-7.60383
▁t	-7.60422
▁part	-7.61804
▁Government	-7.62302
is	-7.6237
ad	-7.62489
▁&	-7.63011
▁All	-7.63055
▁being	-7.6331
vi	-7.63661
▁down	-7.63713
▁way	-7.64013
▁did	-7.64487
▁most	-7.65454
▁many	-7.655
▁1	-7.65555
▁see	-7.66445
▁man	-7.66448
▁take	-7.66452
ta	-7.67078
▁come	-7.67183
▁among	-7.67348
▁give	-7.67944
N	-7.68478
▁per	-7.68958
▁You	-7.69467
▁No	-7.69619
ies	-7.69673
).	-7.69733
na	-7.69896
▁Re	-7.69953
▁An	-7.70462
),	-7.70871
E	-7.72224
▁upon	-7.72971
▁years	-7.73484
"	-7.73491
▁H	-7.73495
▁know	-7.73829
▁back	-7.74408
ha	-7.74707
▁first	-7.75073
ut	-7.7508
▁against	-7.75137
ll	-7.75406
ant	-7.75983
ok	-7.76533
▁year	-7.76775
4	-7.76945
2	-7.77247
ry	-7.7743
<	-7.77512
▁>	-7.77512
▁3	-7.77607
H	-7.77762
R	-7.78266
▁earth	-7.79193
not	-7.7922
▁given	-7.79451
id	-7.79814
▁get	-7.80131
▁believe	-7.80403
▁she	-7.80581
▁con	-7.81152
B	-7.81198
▁W	-7.81568
▁go	-7.81951
▁There	-7.82308
▁because	-7.82584
▁set	-7.83002
▁even	-7.83469
3	-7.84299
▁water	-7.85254
less	-7.85457
▁name	-7.85494
▁For	-7.86064
▁every	-7.86208
▁great	-7.86738
G	-7.86778
lo	-7.86922
▁help	-7.86982
1	-7.87211
age	-7.87446
▁k	-7.87909
▁place	-7.88773
x	-7.8888
ine	-7.88927
ru	-7.89116
ance	-7.89433
▁right	-7.89503
▁power	-7.89742
▁number	-7.89755
▁another	-7.89786
ti	-7.89811
▁must	-7.9069
ist	-7.90782
▁When	-7.90883
▁own	-7.91262
▁does	-7.91394
ful	-7.92053
▁use	-7.92777
▁order	-7.92781
▁V	-7.92823
▁away	-7.93041
out	-7.93095
U	-7.93658
▁n	-7.9487
ary	-7.94886
hi	-7.95262
and	-7.9537
▁etc	-7.95503
ve	-7.95657
▁now	-7.95795
▁end	-7.96158
ot	-7.96213
▁Him	-7.96486
▁Do	-7.96626
man	-7.97064
L	-7.97897
▁bring	-7.97918
."	-7.98762
▁sent	-7.98994
9	-7.99118
▁turn	-7.99672
▁here	-7.99909
sh	-7.99959
▁become	-8.0055
un	-8.00774
▁account	-8.01096
▁2	-8.01688
z	-8.01728
ya	-8.01942
▁came	-8.01943
▁ye	-8.02194
5	-8.02356
co	-8.02448
▁5	-8.03021
...	-8.03249
▁nor	-8.03434
▁co	-8.03531
▁fear	-8.03708
ia	-8.03739
▁just	-8.03923
▁want	-8.03936
ting	-8.04219
ow	-8.04994
va	-8.05546
▁large	-8.05938
em	-8.06298
▁Day	-8.07031
▁w	-8.07085
te	-8.07287
op	-8.07994
▁men	-8.08482
▁development	-8.09225
▁State	-8.09358
▁person	-8.09435
▁need	-8.09552
▁am	-8.09876
▁clear	-8.0997
v	-8.10015
ne	-8.10017
▁high	-8.10075
▁De	-8.1027
ther	-8.10279
▁same	-8.10343
ever	-8.10418
7	-8.10835
F	-8.10952
▁called	-8.1098
▁As	-8.11102
6	-8.11512
ave	-8.11806
▁dur	-8.11997
▁open	-8.12001
▁date	-8.12146
▁long	-8.12533
”	-8.1262
▁ex	-8.13453
▁show	-8.13592
ian	-8.13719
▁find	-8.13836
▁different	-8.13836
▁while	-8.13889
▁Nation	-8.14129
▁form	-8.14323
▁land	-8.14571
▁how	-8.15076
▁both	-8.15161
▁What	-8.15202
▁system	-8.15419
▁section	-8.15528
▁On	-8.15639
▁4	-8.16002
▁U	-8.1607
ag	-8.16156
▁provide	-8.16241
▁public	-8.16253
of	-8.16465
▁l	-8.16551
all	-8.16812
▁things	-8.17128
▁OF	-8.17545
ay	-8.18099
8	-8.18482
▁much	-8.18693
ho	-8.19433
▁created	-8.20234
▁present	-8.20311
tion	-8.2077
he	-8.20886
▁Lo	-8.20988
▁found	-8.2108
▁sub	-8.21086
▁information	-8.21224
▁whom	-8.21652
om	-8.21841
ig	-8.22288
ish	-8.22456
/	-8.22656
ge	-8.23089
▁women	-8.23778
▁pre	-8.24041
the	-8.2427
▁Ma	-8.24335
▁service	-8.24437
▁period	-8.2509
▁think	-8.2509
▁10	-8.25668
han	-8.25729
▁J	-8.25773
▁return	-8.26229
ure	-8.26432
▁case	-8.2721
▁truth	-8.27737
▁look	-8.28175
▁Then	-8.28574
▁cause	-8.28601
▁human	-8.2909
▁‘	-8.29145
▁each	-8.29215
▁point	-8.29325
▁file	-8.29457
▁state	-8.2949
▁6	-8.2949
▁Ka	-8.30126
pati	-8.30324
go	-8.30579
▁Be	-8.30652
▁7	-8.31456
▁message	-8.31474
▁consider	-8.31783
▁important	-8.31955
▁taken	-8.32424
▁let	-8.32528
ud	-8.32592
▁Rs	-8.32637
▁dis	-8.32676
▁Shri	-8.32956
▁government	-8.33376
▁Book	-8.33386
▁–	-8.33412
▁amount	-8.33546
▁Al	-8.3365
ab	-8.33795
ang	-8.34356
iv	-8.34703
▁again	-8.34708
0	-8.3475
▁indeed	-8.34832
▁never	-8.34869
▁New	-8.34875
▁put	-8.3497
▁Who	-8.34998
▁My	-8.35004
▁Say	-8.35313
per	-8.35571
ism	-8.35901
me	-8.35957
tra	-8.36242
▁evil	-8.36291
ions	-8.36631
ac	-8.36756
▁hand	-8.3694
▁Me	-8.37289
▁except	-8.3748
W	-8.37636
▁list	-8.37698
▁knowledge	-8.37783
▁social	-8.37783
▁view	-8.37785
har	-8.37954
▁action	-8.38044
av	-8.38205
▁last	-8.38284
▁di	-8.38786
▁ma	-8.39058
▁Bhavan	-8.39298
▁education	-8.39318
▁Ha	-8.39327
▁Un	-8.39621
▁h	-8.39687
ach	-8.39741
▁support	-8.39939
▁today	-8.40047
▁pro	-8.40087
ap	-8.40168
▁means	-8.40435
▁far	-8.40662
▁interest	-8.40697
▁Rashtra	-8.40836
▁report	-8.40865
:%	-8.40902
▁free	-8.40933
▁act	-8.40998
▁old	-8.41222
▁known	-8.41325
▁call	-8.41435
de	-8.41495
▁change	-8.41797
▁send	-8.41983
▁vari	-8.42478
▁four	-8.42541
our	-8.42929
ten	-8.42969
▁r	-8.42976
▁St	-8.43018
▁8	-8.43104
▁9	-8.43337
▁group	-8.43859
▁Central	-8.43986
▁business	-8.43986
▁left	-8.43986
▁children	-8.43987
▁better	-8.43991
▁en	-8.44357
▁ho	-8.44521
ial	-8.44661
be	-8.4492
▁Ra	-8.4495
Y	-8.45117
pa	-8.45586
▁within	-8.45586
tic	-8.45588
▁Minister	-8.45599
▁address	-8.45599
▁income	-8.456
ana	-8.45859
▁She	-8.4605
▁heavens	-8.46403
▁Mo	-8.46469
▁process	-8.46667
ling	-8.46739
ated	-8.46785
pp	-8.47139
▁light	-8.47265
▁control	-8.47286
▁Man	-8.47368
▁surely	-8.47467
ja	-8.4754
qu	-8.47665
▁done	-8.47798
cy	-8.48646
▁command	-8.48905
▁sector	-8.48906
▁level	-8.48913
▁window	-8.48917
▁Show	-8.48922
▁love	-8.49075
▁live	-8.49287
ai	-8.49516
da	-8.49635
ty	-8.50446
▁court	-8.50603
▁something	-8.50647
▁cent	-8.50769
ted	-8.51323
▁One	-8.5145
▁face	-8.51601
▁whole	-8.51824
j	-8.51846
▁best	-8.51858
▁small	-8.52054
nd	-8.52227
▁company	-8.52325
▁true	-8.52325
▁still	-8.52326
▁equal	-8.52353
▁law	-8.52461
ward	-8.52764
ect	-8.52978
▁age	-8.53181
▁ask	-8.5326
hu	-8.53621
▁0	-8.5364
one	-8.54045
▁three	-8.54079
▁pay	-8.54117
▁follow	-8.54139
▁play	-8.54163
▁along	-8.54324
▁matter	-8.54332
ite	-8.54855
▁signs	-8.55776
lu	-8.55806
▁Gandhi	-8.55854
▁punishment	-8.55864
▁keep	-8.55865
nic	-8.55883
▁common	-8.55916
ight	-8.5596
▁based	-8.56067
▁unto	-8.56096
▁rule	-8.56303
▁share	-8.56311
mo	-8.56465
HE	-8.56493
▁Go	-8.56572
▁wrong	-8.56778
ell	-8.57025
▁non	-8.57054
pe	-8.57113
▁Ch	-8.57349
▁market	-8.57722
▁hard	-8.57742
▁current	-8.57784
▁vi	-8.57862
ng	-8.57895
▁body	-8.5811
mi	-8.58604
eth	-8.58715
▁Sa	-8.58743
▁toward	-8.58809
▁i	-8.58831
The	-8.58847
▁fact	-8.591
▁less	-8.59456
▁Pa	-8.59506
▁Hindu	-8.59531
▁family	-8.59534
▁Delhi	-8.59535
▁death	-8.59536
▁near	-8.59537
▁La	-8.59738
▁due	-8.6004
▁thing	-8.60089
▁areas	-8.60104
land	-8.60318
os	-8.6078
ard	-8.60783
▁full	-8.61077
▁members	-8.61413
▁result	-8.61421
▁Pleas	-8.61422
▁general	-8.61423
▁visit	-8.61425
▁held	-8.61432
▁father	-8.61444
▁self	-8.61465
▁That	-8.61559
▁going	-8.61659
ver	-8.61809
▁home	-8.61939
▁seen	-8.622
ical	-8.62341
▁heart	-8.62448
▁reason	-8.62516
hose	-8.62695
ors	-8.63016
up	-8.63048
ast	-8.63169
▁days	-8.63234
ka	-8.63263
▁Messenger	-8.63344
▁Israel	-8.63344
▁together	-8.63345
▁House	-8.63353
▁respect	-8.63381
▁economic	-8.63444
▁position	-8.63546
▁read	-8.63958
▁11	-8.64009
▁whe	-8.64427
▁complete	-8.64861
▁hav	-8.65016
▁already	-8.65305
▁himself	-8.65306
▁local	-8.65314
▁Ex	-8.65321
▁deeds	-8.65395
V	-8.65399
▁Indeed	-8.65453
▁19	-8.65468
▁seek	-8.65561
▁national	-8.65594
amp	-8.65862
▁Ja	-8.65863
ba	-8.65895
▁At	-8.65952
▁value	-8.65969
der	-8.66052
(	-8.66188
▁remain	-8.66401
▁provided	-8.66658
▁start	-8.6699
ari	-8.67095
—	-8.67305
▁themselves	-8.67305
▁path	-8.67309
▁Singh	-8.67313
▁main	-8.67434
▁required	-8.67542
▁book	-8.677
▁close	-8.67744
▁off	-8.68501
▁sh	-8.68756
tri	-8.691
▁little	-8.69346
▁provision	-8.69346
▁data	-8.69348
mp	-8.69536
▁Can	-8.70011
ah	-8.70029
▁Na	-8.70084
di	-8.70864
▁faith	-8.7092
▁v	-8.71132
▁child	-8.71424
▁sense	-8.71432
▁subject	-8.71435
▁food	-8.71469
▁kind	-8.71572
▁exist	-8.71581
▁selected	-8.717
▁special	-8.71872
ally	-8.71956
▁die	-8.72156
▁house	-8.72312
▁project	-8.72349
▁br	-8.72412
▁18	-8.7263
men	-8.73056
▁Bengal	-8.73171
▁certain	-8.73197
mb	-8.73325
ship	-8.73405
▁Dr	-8.7355
▁particular	-8.73557
▁second	-8.73557
▁always	-8.73557
▁security	-8.73562
▁mother	-8.73606
▁al	-8.73714
▁area	-8.73716
▁available	-8.73763
▁times	-8.74052
ious	-8.74345
▁language	-8.74577
ble	-8.74681
pr	-8.74997
▁too	-8.75048
▁war	-8.75167
que	-8.75222
▁effect	-8.75663
▁activities	-8.75731
▁countries	-8.75734
gu	-8.75739
▁brought	-8.75742
pur	-8.75809
▁post	-8.75919
▁words	-8.76262
ug	-8.76794
▁Or	-8.77121
▁believed	-8.77427
▁side	-8.77697
K	-8.77832
for	-8.77854
▁religion	-8.77953
▁above	-8.77953
▁living	-8.77954
▁example	-8.77961
▁link	-8.77961
▁night	-8.78042
▁test	-8.78205
nt	-8.78296
▁000	-8.78392
▁mo	-8.78533
▁young	-8.78561
wards	-8.78592
▁Let	-8.78628
▁Unit	-8.78747
▁j	-8.79014
ph	-8.79036
▁po	-8.79156
▁type	-8.79168
▁15	-8.79175
▁folder	-8.79203
▁reach	-8.79695
▁sea	-8.80009
▁sp	-8.80121
▁occasion	-8.80226
▁scheme	-8.80226
▁mind	-8.8023
▁others	-8.80238
▁25	-8.80342
▁clause	-8.80348
▁key	-8.80446
if	-8.80748
▁includ	-8.81077
tor	-8.81383
ee	-8.81653
▁Co	-8.8209
▁stand	-8.82539
▁benefit	-8.82551
▁material	-8.82551
▁Select	-8.82551
▁witness	-8.82551
▁therefore	-8.82557
▁worship	-8.82557
▁few	-8.82593
ber	-8.82618
ranab	-8.82641
ify	-8.82671
▁ro	-8.8293
ff	-8.8303
tu	-8.83091
▁term	-8.83457
▁yet	-8.8351
▁able	-8.83587
▁rec	-8.83671
▁accept	-8.84005
▁cost	-8.84226
▁major	-8.84861
ence	-8.84913
▁thou	-8.84923
▁English	-8.84932
▁PRESIDENT	-8.84932
▁research	-8.84932
▁next	-8.84932
▁record	-8.84933
▁desire	-8.84935
▁until	-8.84935
▁health	-8.8494
▁further	-8.8494
▁around	-8.8494
▁Sabha	-8.84943
▁image	-8.84948
▁error	-8.84978
▁Bank	-8.85005
▁computer	-8.85013
▁later	-8.8503
▁Z	-8.85111
▁Raj	-8.85259
▁12	-8.85384
▁tax	-8.85581
▁cut	-8.8586
aj	-8.86407
▁Mu	-8.86635
▁create	-8.86774
▁books	-8.86913
▁force	-8.86964
▁short	-8.87366
▁Committee	-8.87371
▁High	-8.87372
▁making	-8.87375
▁ground	-8.87554
gen	-8.87609
ik	-8.87672
▁mail	-8.87775
▁total	-8.87872
▁Po	-8.88056
▁received	-8.88058
▁character	-8.88145
▁either	-8.88316
▁rate	-8.88339
came	-8.88499
act	-8.88602
▁art	-8.88644
▁gu	-8.88692
▁learn	-8.88893
ile	-8.89018
ign	-8.89179
ification	-8.89249
▁o	-8.89314
▁persons	-8.89605
▁States	-8.89614
▁financi	-8.89851
▁enjoy	-8.89871
▁natural	-8.89871
▁several	-8.89874
▁movement	-8.8992
ill	-8.89927
▁million	-8.89933
▁told	-8.89987
▁fall	-8.90011
▁Le	-8.90114
▁line	-8.90182
ible	-8.90207
▁offer	-8.90446
ev	-8.90763
▁:	-8.91309
end	-8.91315
nce	-8.91441
▁Su	-8.91517
▁once	-8.91667
▁hearts	-8.9169
fi	-8.91703
▁nation	-8.91706
▁bank	-8.91779
▁friend	-8.9185
▁ever	-8.92138
We	-8.92162
▁office	-8.92196
referred	-8.92297
bi	-8.92302
▁Y	-8.92316
▁INDIA	-8.92435
▁industry	-8.92435
▁policy	-8.92436
▁website	-8.92436
▁individual	-8.92437
▁Con	-8.92457
▁management	-8.9246
▁temple	-8.92461
▁authority	-8.92488
▁enter	-8.92537
ler	-8.92561
▁plant	-8.92584
▁Most	-8.92616
ition	-8.92661
▁sure	-8.92695
▁five	-8.92776
ise	-8.9284
AL	-8.92912
▁fund	-8.93067
ali	-8.93375
ash	-8.93685
▁Th	-8.937
section	-8.93956
kar	-8.93973
▁disbelieve	-8.94074
▁understand	-8.94091
▁West	-8.94102
▁access	-8.94198
pi	-8.94271
ept	-8.94364
▁though	-8.94674
▁20	-8.94897
▁word	-8.94987
▁transfer	-8.95002
ara	-8.95049
▁community	-8.95067
▁crore	-8.95067
▁happen	-8.95067
▁population	-8.95067
▁remember	-8.95067
▁peace	-8.95067
▁behind	-8.95067
▁money	-8.95068
▁strong	-8.95068
▁patient	-8.95068
▁nothing	-8.951
▁since	-8.95131
▁role	-8.95168
taking	-8.95217
▁leave	-8.95395
▁really	-8.95411
▁Prim	-8.95421
IT	-8.95475
way	-8.95553
▁forth	-8.95609
war	-8.957
▁pass	-8.95796
ier	-8.95953
ga	-8.96147
▁services	-8.96394
▁got	-8.9657
▁30	-8.96912
▁application	-8.97138
▁University	-8.9777
▁district	-8.9777
▁experience	-8.9777
▁school	-8.9777
▁capital	-8.9777
▁creation	-8.97771
▁written	-8.97774
▁Constitution	-8.97775
▁+	-8.97787
▁Fire	-8.9785
▁growth	-8.97853
▁tra	-8.97896
ix	-8.98142
▁Vi	-8.98203
▁17	-8.98264
RB	-8.98291
▁comp	-8.98293
▁Not	-8.98469
▁Your	-8.98761
ern	-8.99005
▁hands	-8.99182
▁following	-8.99262
▁rep	-8.99697
▁head	-9.0009
▁increase	-9.00209
▁might	-9.00264
▁wish	-9.00435
▁text	-9.00531
▁Pradesh	-9.00548
▁political	-9.00548
▁previous	-9.00548
▁network	-9.00549
▁Court	-9.00549
▁(1)	-9.00556
▁wide	-9.00583
▁RRB	-9.00619
▁outside	-9.0063
▁fire	-9.00675
▁lo	-9.00797
▁page	-9.00814
▁meeting	-9.00866
▁1.	-9.00878
▁knows	-9.00901
ified	-9.00936
▁related	-9.01138
▁soul	-9.0115
▁seem	-9.01235
ala	-9.01242
▁ten	-9.01559
line	-9.02058
ush	-9.02089
▁Mr	-9.02257
▁plan	-9.02336
ca	-9.02667
ven	-9.02905
ound	-9.02928
ory	-9.02963
}	-9.03404
▁environment	-9.03405
▁international	-9.03405
▁quality	-9.03405
▁future	-9.03405
▁century	-9.03406
▁prevent	-9.03406
▁anything	-9.03416
▁private	-9.03423
▁investment	-9.03428
ities	-9.03433
▁Ministry	-9.03442
▁technology	-9.03484
▁story	-9.03535
▁carrie	-9.03542
▁don	-9.0356
▁List	-9.0362
▁decide	-9.03624
▁appointed	-9.03624
▁six	-9.03671
▁whatever	-9.03672
▁deposit	-9.03711
▁original	-9.03789
▁certainly	-9.03892
▁established	-9.03934
▁met	-9.03968
▁Parliament	-9.04142
ack	-9.04405
▁trust	-9.04435
ail	-9.04521
▁car	-9.04668
▁working	-9.05162
either	-9.05239
▁ca	-9.05314
most	-9.0543
▁li	-9.05433
▁concern	-9.05458
▁receive	-9.05638
▁question	-9.05958
▁field	-9.05965
▁Muslim	-9.05992
ner	-9.06002
▁run	-9.06133
uk	-9.06142
▁program	-9.06325
▁perform	-9.06331
▁Hindi	-9.06346
▁basis	-9.06346
▁contact	-9.06346
▁fruit	-9.06346
▁task	-9.06346
▁course	-9.06346
▁Congress	-9.06349
▁progress	-9.06352
▁modern	-9.06352
▁capacity	-9.06353
▁thus	-9.06357
▁Development	-9.06398
RA	-9.06463
▁14	-9.06525
▁Pro	-9.0653
▁Union	-9.06592
▁changes	-9.06673
▁thought	-9.06821
▁building	-9.06971
tive	-9.07303
▁rest	-9.07677
▁Sh	-9.07736
00	-9.07759
ani	-9.07866
red	-9.07995
▁size	-9.08068
▁Bha	-9.08313
ex	-9.0854
fer	-9.08698
▁fo	-9.09032
▁Pra	-9.09047
▁tree	-9.09123
▁function	-9.09137
▁problem	-9.09143
▁doing	-9.09326
▁spirit	-9.09376
▁British	-9.09376
▁global	-9.09376
▁instrument	-9.09376
▁necessary	-9.09376
▁credit	-9.09376
▁freedom	-9.09376
▁speak	-9.09377
▁verily	-9.09381
▁drive	-9.09385
▁stage	-9.09385
▁believers	-9.09423
▁Ro	-9.09455
▁production	-9.09477
▁town	-9.0948
lic	-9.09501
▁statement	-9.09572
▁writing	-9.09575
▁revealed	-9.09691
▁Muhammad	-9.09816
own	-9.09851
ists	-9.09891
fic	-9.09901
▁Us	-9.10248
ade	-9.1025
▁soon	-9.10477
amb	-9.10549
▁13	-9.11026
▁Br	-9.11035
▁lead	-9.11197
ram	-9.11301
▁bo	-9.1146
▁sin	-9.11608
▁meet	-9.11986
▁turned	-9.12028
▁Pre	-9.1205
▁region	-9.12122
▁imp	-9.12184
▁using	-9.12219
ating	-9.1237
▁appear	-9.12461
▁represent	-9.12491
▁disease	-9.12501
▁doubt	-9.12501
▁society	-9.12501
▁blood	-9.12501
▁video	-9.12501
▁why	-9.12502
▁paper	-9.12504
▁device	-9.12527
▁profit	-9.12582
▁Prophet	-9.12592
ada	-9.12604
bar	-9.12612
▁fight	-9.12613
▁past	-9.12659
▁charge	-9.12711
▁try	-9.12717
▁By	-9.12779
▁East	-9.12786
▁Com	-9.12802
ought	-9.1293
▁port	-9.13177
▁allowed	-9.13305
oc	-9.13325
ple	-9.13582
▁files	-9.13706
▁26	-9.13736
▁para	-9.13878
▁rights	-9.14241
▁issue	-9.14407
ER	-9.1449
▁rur	-9.14615
ie	-9.14819
use	-9.14873
ator	-9.14942
▁personal	-9.14995
▁son	-9.15095
▁rules	-9.15141
▁guide	-9.15194
▁join	-9.15302
▁entire	-9.15351
▁express	-9.15564
▁Public	-9.15727
▁drink	-9.15727
▁South	-9.1573
▁similar	-9.15736
▁stone	-9.15736
▁vision	-9.15737
▁decision	-9.1574
▁member	-9.15741
▁usual	-9.15759
▁Mukherjee	-9.15762
▁deep	-9.15763
▁Name	-9.15769
sha	-9.15774
▁carry	-9.15777
▁objective	-9.15784
▁operation	-9.15848
▁spread	-9.15859
?"	-9.16402
ji	-9.16429
▁Ba	-9.16525
▁Ram	-9.16552
▁none	-9.16584
▁Di	-9.16703
let	-9.16883
ization	-9.16943
over	-9.17021
▁started	-9.17195
▁comes	-9.17222
▁Are	-9.17304
▁therein	-9.17432
▁hold	-9.17753
cross	-9.1792
▁direct	-9.17988
▁regard	-9.18066
ju	-9.18246
▁author	-9.18482
▁inter	-9.18558
▁du	-9.18593
▁ha	-9.18654
▁bar	-9.18702
▁class	-9.18871
▁months	-9.18919
▁Africa	-9.1906
▁exchange	-9.1906
▁specified	-9.1906
▁demand	-9.19062
▁search	-9.19062
▁Republic	-9.19064
▁literature	-9.1907
▁Board	-9.19077
▁itself	-9.19092
▁alone	-9.19103
▁Mon	-9.19129
giving	-9.19132
▁energy	-9.19141
▁Some	-9.19146
▁month	-9.19203
▁setting	-9.19209
▁server	-9.19231
▁prepared	-9.19235
▁invit	-9.19252
▁Moses	-9.19253
hief	-9.19273
▁problems	-9.19318
▁Mahat	-9.19324
▁Plan	-9.19449
▁below	-9.19522
▁city	-9.19544
▁Now	-9.19617
DE	-9.19662
cal	-9.19787
▁x	-9.19864
gar	-9.19985
▁mark	-9.20019
▁greater	-9.20056
board	-9.20154
▁messages	-9.20187
▁forward	-9.20289
day	-9.20341
▁Ko	-9.20388
ize	-9.20504
▁Dur	-9.20511
unt	-9.20558
CC	-9.20583
ze	-9.20676
IC	-9.20748
▁asked	-9.20815
▁party	-9.20833
▁%	-9.20879
▁War	-9.20919
par	-9.20974
▁trade	-9.20992
▁belongs	-9.21347
▁add	-9.21369
▁sign	-9.2142
▁App	-9.21633
mer	-9.2186
▁produce	-9.21892
▁matters	-9.2201
ised	-9.22035
ative	-9.22116
▁allow	-9.22219
▁treat	-9.22434
▁flow	-9.22498
▁Department	-9.22509
▁document	-9.22509
▁With	-9.22509
▁honour	-9.22509
▁http	-9.2251
▁Open	-9.22511
▁design	-9.22511
▁paid	-9.22511
▁scale	-9.22512
▁saw	-9.22514
▁check	-9.22517
▁disbelievers	-9.22523
▁request	-9.22549
▁Add	-9.22569
graph	-9.22586
▁however	-9.226
▁protection	-9.22649
▁Verily	-9.2265
▁source	-9.22661
▁lost	-9.22663
▁loan	-9.22666
▁Bill	-9.22691
▁Have	-9.22728
▁{	-9.22729
▁failed	-9.22775
ood	-9.22875
▁officer	-9.22903
▁reward	-9.22921
▁institution	-9.22956
▁training	-9.23003
▁disc	-9.23005
▁Use	-9.23105
▁increased	-9.23266
▁issues	-9.233
tan	-9.23368
ES	-9.23561
▁passed	-9.23665
▁terms	-9.23886
ries	-9.23972
do	-9.24238
bo	-9.24337
▁sl	-9.24452
▁pur	-9.24716
ture	-9.25095
▁unit	-9.25116
press	-9.25166
▁works	-9.25264
▁conditions	-9.25265
▁opens	-9.25456
19	-9.2555
▁Ne	-9.25613
▁aid	-9.25819
▁draw	-9.25822
▁eas	-9.25932
▁Ar	-9.25942
ran	-9.25951
soever	-9.2599
▁Calcutta	-9.2608
▁Education	-9.2608
▁General	-9.2608
▁policies	-9.2608
▁happy	-9.2608
▁After	-9.26081
▁culture	-9.26082
▁central	-9.26082
▁content	-9.26084
▁deny	-9.26091
▁practice	-9.26103
▁single	-9.26105
▁describ	-9.26107
▁197	-9.26136
▁possible	-9.26143
▁yourselves	-9.26143
▁tell	-9.26189
▁history	-9.2622
▁eight	-9.26233
▁save	-9.26318
▁early	-9.26342
▁purpose	-9.26376
▁price	-9.26395
side	-9.26399
▁host	-9.26406
▁sound	-9.26422
▁eye	-9.26439
▁measure	-9.26447
▁says	-9.26566
▁issued	-9.26761
ick	-9.26921
▁ab	-9.26946
▁aspect	-9.27231
▁touch	-9.2742
20	-9.27819
son	-9.28188
▁eat	-9.28379
▁placed	-9.28482
mark	-9.28553
▁front	-9.28562
▁Pat	-9.28606
like	-9.28687
▁str	-9.28977
▁Ho	-9.29088
▁eyes	-9.29438
den	-9.29451
▁institutions	-9.29562
▁protect	-9.29633
▁contain	-9.29657
▁che	-9.29706
▁Council	-9.29784
▁unbelievers	-9.29784
▁specific	-9.29784
▁third	-9.29784
▁claim	-9.29784
▁focus	-9.29784
▁color	-9.29787
▁Surely	-9.29787
▁approach	-9.29788
▁mankind	-9.29794
▁bird	-9.29795
nk	-9.29799
▁plus	-9.29799
▁export	-9.29809
▁duty	-9.29809
▁standard	-9.29815
▁till	-9.29893
▁big	-9.29908
▁week	-9.29909
▁fill	-9.29915
▁active	-9.29953
▁How	-9.29994
▁idea	-9.30018
▁Up	-9.3036
ural	-9.30537
spite	-9.30596
▁lot	-9.30725
▁efforts	-9.3076
▁friends	-9.30855
▁concerned	-9.30917
▁leading	-9.30954
ping	-9.30987
▁deal	-9.30994
▁sale	-9.31044
tar	-9.31116
▁Sri	-9.3117
lin	-9.31238
▁students	-9.31415
▁Whe	-9.31554
▁Mar	-9.31569
gan	-9.31591
▁meaning	-9.31683
▁goods	-9.31859
▁parts	-9.32025
▁tri	-9.32268
IS	-9.32471
▁limit	-9.32568
low	-9.32569
gram	-9.32574
▁makes	-9.32614
adi	-9.32746
fully	-9.33325
▁lies	-9.33413
ide	-9.33456
▁continue	-9.33485
▁Islam	-9.33551
▁object	-9.33562
▁International	-9.3363
▁Scheme	-9.3363
▁behalf	-9.3363
▁Section	-9.3363
▁nature	-9.33631
▁mercy	-9.33631
://	-9.33631
▁righteous	-9.33631
▁industrial	-9.33635
▁Power	-9.3364
htm	-9.33642
▁property	-9.33646
▁Error	-9.33653
▁super	-9.33653
▁However	-9.33662
▁percent	-9.33668
▁Could	-9.33678
▁manner	-9.33699
▁Will	-9.33705
▁Pri	-9.3373
▁Even	-9.33739
▁Such	-9.33875
wi	-9.33886
▁dead	-9.33928
):	-9.34108
▁village	-9.34227
▁196	-9.34333
▁Par	-9.34381
▁16	-9.34678
▁Sub	-9.34762
▁lie	-9.34822
gh	-9.34881
▁par	-9.3505
gro	-9.35206
▁Bo	-9.35313
went	-9.35314
▁Kar	-9.35384
▁Where	-9.35398
lest	-9.3541
arch	-9.3573
▁gra	-9.36001
▁Va	-9.36026
▁Is	-9.36067
▁com	-9.36109
cu	-9.36158
mm	-9.36307
RI	-9.36451
▁grow	-9.36561
rn	-9.36568
▁refer	-9.36614
ini	-9.36834
ank	-9.36843
▁’	-9.37141
▁real	-9.37389
AR	-9.37451
▁success	-9.37583
▁seven	-9.3761
▁Institute	-9.3763
▁World	-9.3763
▁advance	-9.3763
▁degree	-9.3763
▁guidance	-9.3763
▁messenger	-9.3763
▁Information	-9.3763
▁display	-9.3763
▁earlier	-9.3763
▁implement	-9.3763
▁job	-9.3763
▁police	-9.3763
▁Work	-9.3763
▁break	-9.37631
▁foreign	-9.37652
▁rain	-9.37675
▁Under	-9.37679
▁fel	-9.37729
▁treatment	-9.37733
▁folk	-9.37842
▁published	-9.37866
ized	-9.37883
▁approv	-9.37885
▁hour	-9.38082
▁legal	-9.381
▁care	-9.38117
▁according	-9.3829
▁developed	-9.38425
External	-9.38548
▁higher	-9.38583
▁Well	-9.38621
▁resources	-9.3883
ck	-9.38883
▁Hell	-9.38947
thi	-9.38978
▁air	-9.39069
ain	-9.39133
▁ver	-9.39232
▁198	-9.39428
ew	-9.39464
lim	-9.39533
▁Asia	-9.39533
bha	-9.39965
▁rivers	-9.39969
▁mis	-9.39976
▁bear	-9.40174
we	-9.40181
▁presented	-9.40519
tax	-9.40525
spect	-9.40618
▁relat	-9.40734
▁expect	-9.40904
▁extend	-9.40905
▁stay	-9.40907
▁saying	-9.41016
verse	-9.4121
▁forms	-9.41219
▁difficult	-9.41369
RE	-9.41433
ugh	-9.41557
From	-9.41621
▁judge	-9.41704
▁enough	-9.41796
▁burden	-9.41797
▁Address	-9.41797
▁lakh	-9.41797
▁session	-9.41797
▁basic	-9.41797
▁beginning	-9.41798
▁birth	-9.41798
▁medical	-9.41799
▁justice	-9.41799
▁least	-9.41799
▁assessee	-9.41802
▁evidence	-9.41815
▁watch	-9.41823
▁round	-9.41833
yond	-9.41833
▁responsibility	-9.41836
▁station	-9.4184
ING	-9.41851
▁hope	-9.41855
▁gain	-9.41877
▁novel	-9.41893
rang	-9.41898
▁litera	-9.41907
▁Krishna	-9.4196
▁fast	-9.41968
uch	-9.41979
▁Officer	-9.42009
▁North	-9.42014
▁spend	-9.42019
▁File	-9.42034
▁enable	-9.42047
▁US	-9.42088
▁king	-9.42145
▁condition	-9.42174
▁connected	-9.42313
▁notice	-9.42393
▁gas	-9.42458
▁table	-9.42541
▁angels	-9.42606
dar	-9.42646
▁banks	-9.43015
ock	-9.43219
▁cross	-9.43246
▁TO	-9.43273
een	-9.43356
▁hear	-9.43417
rat	-9.43431
▁ON	-9.43442
▁states	-9.43458
▁forces	-9.43517
▁relations	-9.43667
▁sw	-9.43911
▁programmes	-9.44239
▁sun	-9.44543
ON	-9.44663
▁Bi	-9.4471
lip	-9.44964
port	-9.4527
▁star	-9.45278
ars	-9.45498
▁promise	-9.45532
▁ideas	-9.45601
▁factor	-9.45632
▁tradition	-9.45766
lay	-9.45885
▁America	-9.45889
cious	-9.46076
▁199	-9.46087
▁Division	-9.46144
▁Group	-9.46144
▁contract	-9.46144
▁marriage	-9.46144
▁prescribed	-9.46144
▁significant	-9.46144
▁symbol	-9.46144
▁staff	-9.46145
▁drop	-9.46145
▁official	-9.46145
▁space	-9.46146
▁style	-9.46146
▁clean	-9.46146
▁talk	-9.46147
▁instead	-9.4615
▁attend	-9.46158
▁reserve	-9.46162
▁woman	-9.4617
ou	-9.46171
▁wife	-9.46171
▁rather	-9.46172
▁born	-9.46172
▁agreement	-9.46198
▁farmers	-9.46213
▁rise	-9.46227
▁March	-9.46292
▁actually	-9.46298
▁generation	-9.46306
▁23	-9.46316
▁ball	-9.46376
▁deem	-9.46381
▁expression	-9.46402
▁prayer	-9.46431
▁anyone	-9.46433
▁print	-9.46433
ump	-9.46452
▁mass	-9.46513
▁Of	-9.46564
▁boy	-9.46668
▁em	-9.46676
log	-9.46735
▁2.	-9.46774
▁powerful	-9.46795
right	-9.46878
▁mean	-9.47023
▁product	-9.47201
▁Arab	-9.47244
▁low	-9.47426
▁cell	-9.47463
▁log	-9.47483
▁coming	-9.47639
bb	-9.47688
▁ch	-9.47875
ikh	-9.47983
▁(%	-9.48081
▁include	-9.48393
uck	-9.48488
▁develop	-9.48716
▁May	-9.49068
▁figure	-9.49321
▁poet	-9.49325
▁bit	-9.49329
ham	-9.49426
▁Mi	-9.49533
J	-9.49614
▁build	-9.49723
with	-9.4974
▁tea	-9.49767
▁feel	-9.49799
▁music	-9.49892
q	-9.49911
ged	-9.49982
▁move	-9.50059
▁shape	-9.5007
AS	-9.50112
▁favour	-9.50187
▁civil	-9.50201
ternal	-9.50269
▁strength	-9.50317
▁secret	-9.50651
▁Resurrection	-9.5069
▁contribution	-9.5069
▁correct	-9.5069
▁husband	-9.5069
▁labour	-9.5069
▁length	-9.5069
▁maxim	-9.5069
▁perfect	-9.5069
▁white	-9.5069
▁Speak	-9.5069
▁committee	-9.5069
▁presence	-9.50692
▁Two	-9.50692
▁religious	-9.50694
▁astray	-9.50694
▁difference	-9.50697
▁(2)	-9.50701
▁sky	-9.50702
▁apply	-9.50702
▁View	-9.50707
▁minim	-9.50714
▁Quran	-9.50805
▁voice	-9.50824
▁effective	-9.50834
▁24	-9.50884
▁op	-9.50935
chi	-9.50986
▁wind	-9.50998
▁pain	-9.51007
▁dance	-9.51018
▁male	-9.51019
aught	-9.51041
▁functions	-9.51069
▁thereof	-9.51115
▁avoid	-9.51139
▁direction	-9.5114
▁servants	-9.51254
▁raised	-9.51274
▁online	-9.51333
▁event	-9.51335
▁Bas	-9.51429
▁Inter	-9.51472
▁red	-9.51483
▁beside	-9.51576
▁weak	-9.517
nch	-9.51836
▁IN	-9.5194
▁Gu	-9.52031
▁brother	-9.52052
bu	-9.52074
pro	-9.52104
▁provid	-9.52129
▁farm	-9.52153
▁Cha	-9.52197
▁Qu	-9.52223
ton	-9.52317
▁Ag	-9.52511
▁Create	-9.52829
▁Sc	-9.52877
10	-9.52984
▁followed	-9.53037
▁houses	-9.53343
fo	-9.53495
vel	-9.53719
▁Every	-9.54151
her	-9.5425
body	-9.54334
from	-9.54402
▁mode	-9.54472
▁suffer	-9.54474
▁establish	-9.54477
▁Rama	-9.54703
▁associate	-9.5484
▁raise	-9.54846
▁sat	-9.54848
aba	-9.54868
▁please	-9.54872
▁contains	-9.54881
▁leg	-9.54899
rd	-9.55015
▁firm	-9.55101
ability	-9.55101
istic	-9.55175
ov	-9.5519
tha	-9.55266
▁depend	-9.55384
▁Technology	-9.55452
▁advice	-9.55452
▁apostle	-9.55452
▁challenge	-9.55452
▁economy	-9.55452
▁expenditure	-9.55452
▁journey	-9.55452
▁perhaps	-9.55452
▁potential	-9.55452
▁software	-9.55452
▁suggest	-9.55452
▁Which	-9.55452
▁column	-9.55452
▁communicat	-9.55452
▁picture	-9.55452
▁While	-9.55452
▁phone	-9.55452
▁cultural	-9.55453
▁Search	-9.55453
▁Provid	-9.55453
▁popular	-9.55453
▁game	-9.55465
▁normal	-9.55469
▁middle	-9.55487
▁thy	-9.55523
▁write	-9.55576
▁aim	-9.55628
▁loss	-9.55668
▁collection	-9.55679
▁poor	-9.55742
▁strengthen	-9.55844
▁lower	-9.55855
▁consideration	-9.56001
▁involved	-9.5604
▁user	-9.56162
▁Ju	-9.56587
▁Bar	-9.5667
▁status	-9.56721
▁mere	-9.56744
yan	-9.56812
▁Per	-9.56877
atic	-9.56895
▁details	-9.57063
cha	-9.57213
cent	-9.57215
ea	-9.57238
▁understanding	-9.57262
▁leaders	-9.57334
▁belong	-9.57359
ef	-9.57514
old	-9.57518
▁pe	-9.5761
efore	-9.5786
▁items	-9.57929
▁animals	-9.58092
rate	-9.58331
▁Fi	-9.58414
▁su	-9.58564
▁pure	-9.58662
some	-9.58821
▁clo	-9.58923
▁Sam	-9.58982
▁sum	-9.59011
▁va	-9.59234
▁Char	-9.5928
▁ste	-9.59288
view	-9.59319
▁news	-9.59379
16	-9.59473
▁ear	-9.59704
▁require	-9.59762
▁laws	-9.5995
▁discuss	-9.59957
▁50	-9.59975
▁Commission	-9.59991
▁Europe	-9.60331
▁reject	-9.60362
▁import	-9.60384
▁3.	-9.60387
▁regulat	-9.60422
▁copy	-9.60447
▁black	-9.60451
▁People	-9.60452
▁Supreme	-9.60452
▁built	-9.60452
▁certificate	-9.60452
▁devotion	-9.60452
▁explain	-9.60452
▁female	-9.60452
▁manifest	-9.60452
▁relevant	-9.60452
▁responsible	-9.60452
▁study	-9.60452
▁wrote	-9.60452
▁solution	-9.60452
▁supply	-9.60452
▁Income	-9.60452
▁morning	-9.60452
▁obey	-9.60452
▁famous	-9.60452
▁border	-9.60452
▁milk	-9.60452
▁skill	-9.60452
▁spiritual	-9.60452
▁Centre	-9.60453
▁Project	-9.60458
▁rich	-9.60458
▁Assam	-9.60464
▁half	-9.60464
▁Bharat	-9.60476
▁June	-9.60484
▁existence	-9.60487
▁choose	-9.60493
▁torment	-9.60512
ek	-9.60525
▁operations	-9.60528
▁situation	-9.60531
▁construction	-9.60549
▁thousand	-9.6056
▁mental	-9.60597
▁27	-9.60603
▁media	-9.60656
▁Director	-9.60709
▁maintain	-9.6077
▁wishes	-9.60787
▁trees	-9.60882
▁lay	-9.61038
▁ve	-9.61092
▁pleased	-9.61103
▁began	-9.61151
▁X	-9.61255
▁Lok	-9.61286
▁ensure	-9.61383
▁guided	-9.61407
▁extended	-9.61539
▁model	-9.61656
IN	-9.61695
▁won	-9.61889
hil	-9.61949
▁doers	-9.61988
▁Car	-9.62107
▁arm	-9.62182
▁u	-9.62296
▁element	-9.6231
atch	-9.62336
▁accepted	-9.62379
ome	-9.62468
▁former	-9.62606
▁Move	-9.62673
▁CO	-9.62678
▁fi	-9.62714
▁goal	-9.62745
▁top	-9.62774
▁31	-9.6284
tical	-9.62862
▁languages	-9.63196
val	-9.63225
ki	-9.63259
He	-9.63382
▁00	-9.63395
▁step	-9.63593
hath	-9.63808
hal	-9.63813
AM	-9.63957
▁Account	-9.64019
▁cover	-9.64047
▁edit	-9.64153
ife	-9.64188
▁fr	-9.64309
▁owner	-9.64409
▁Qur	-9.64453
▁Ku	-9.64581
special	-9.64587
This	-9.64608
time	-9.6465
▁Jo	-9.64737
▁grant	-9.64825
▁serve	-9.64832
▁cu	-9.64867
bodies	-9.64876
▁21	-9.64884
▁seed	-9.65041
▁base	-9.65151
dev	-9.65178
▁deliver	-9.65346
▁secure	-9.65357
▁Their	-9.65367
▁Office	-9.65446
▁cha	-9.65619
anda	-9.65621
▁execut	-9.65644
▁forgive	-9.65665
cc	-9.6568
▁Evolution	-9.65715
▁declare	-9.65715
▁default	-9.65715
▁democracy	-9.65715
▁hundred	-9.65715
▁mutual	-9.65715
▁separate	-9.65715
▁terrorism	-9.65715
▁activity	-9.65715
▁appeal	-9.65715
▁purchase	-9.65715
▁2007	-9.65715
▁colour	-9.65716
▁girl	-9.65716
▁Tamil	-9.65716
▁divide	-9.65716
▁First	-9.65716
▁balance	-9.65716
▁chosen	-9.65717
▁fair	-9.65718
▁manufactur	-9.6572
▁wealth	-9.65726
▁Time	-9.65728
▁sister	-9.65732
▁travel	-9.65733
▁safety	-9.65734
▁historic	-9.65737
▁wonder	-9.65737
▁speech	-9.65767
▁verses	-9.65774
▁proper	-9.65779
▁Guru	-9.6578
▁wise	-9.65786
▁Today	-9.65799
▁organisation	-9.65815
▁cap	-9.65823
▁load	-9.65823
▁physical	-9.65848
▁positive	-9.65872
▁wall	-9.65875
▁oil	-9.65881
▁connection	-9.65951
▁payment	-9.65988
▁store	-9.66115
▁warm	-9.66168
▁science	-9.66184
▁*	-9.66184
▁bad	-9.66193
▁Commissioner	-9.66209
▁cla	-9.66331
▁Muslims	-9.6636
▁Out	-9.66385
▁joint	-9.66421
▁listen	-9.66483
▁notification	-9.66597
▁version	-9.66599
▁resident	-9.66668
▁Sha	-9.6667
cut	-9.66757
▁fine	-9.67038
▁aware	-9.67399
ably	-9.67447
▁acc	-9.67508
by	-9.67565
▁learning	-9.67837
▁reached	-9.6785
▁simple	-9.67955
rap	-9.68211
▁played	-9.6847
ological	-9.68545
▁Tri	-9.68577
▁Nay	-9.68618
▁sides	-9.68623
▁Maha	-9.68672
mun	-9.68786
▁simpl	-9.68956
ather	-9.68961
bel	-9.69401
],	-9.69709
▁note	-9.69841
▁systems	-9.6986
▁affect	-9.7037
▁Chi	-9.70387
▁argument	-9.70696
▁prices	-9.70782
ima	-9.70809
▁collect	-9.70934
▁lives	-9.71104
▁consist	-9.71246
▁south	-9.71264
▁Certificate	-9.7127
▁Christian	-9.7127
▁December	-9.7127
▁Governor	-9.7127
▁Kashmir	-9.7127
▁Merciful	-9.7127
▁Nehru	-9.7127
▁Punjab	-9.7127
▁agricultural	-9.7127
▁celebrate	-9.7127
▁defeat	-9.7127
▁exercise	-9.7127
▁hospital	-9.7127
▁surround	-9.7127
▁Management	-9.71271
▁companies	-9.71271
▁latter	-9.71271
▁courage	-9.71271
▁duties	-9.71271
▁AND	-9.71271
▁green	-9.71272
▁assets	-9.71276
▁install	-9.71278
▁series	-9.7128
▁2012	-9.71281
▁Data	-9.71282
▁SAW	-9.71287
▁speed	-9.71289
▁everything	-9.71293
▁Export	-9.71294
▁facilities	-9.71302
▁range	-9.71303
▁assessment	-9.71304
▁season	-9.71304
▁font	-9.71309
iti	-9.7132
▁minute	-9.71324
▁2000	-9.71327
▁wood	-9.71328
▁Enable	-9.71329
▁reference	-9.7133
▁Speci	-9.7134
▁hide	-9.7135
▁track	-9.71356
▁plain	-9.71357
▁Wise	-9.71365
▁Mark	-9.71414
▁Park	-9.71418
▁January	-9.71437
▁directory	-9.71449
▁registered	-9.71451
ID	-9.71496
▁useful	-9.71496
▁humanity	-9.71557
▁See	-9.71592
▁American	-9.71599
▁code	-9.71675
az	-9.71686
▁bi	-9.71736
▁traditional	-9.71759
▁sex	-9.71798
▁discussion	-9.71828
▁cast	-9.71876
▁signal	-9.71895
▁format	-9.71935
▁mission	-9.71974
ula	-9.72108
▁north	-9.72471
▁citizens	-9.72517
▁shown	-9.72542
▁growing	-9.7265
isation	-9.72765
▁heard	-9.72814
▁unity	-9.72823
gri	-9.72925
▁1,	-9.72941
LE	-9.73387
▁Sun	-9.73459
▁causes	-9.7361
▁Service	-9.73716
▁river	-9.73781
▁programme	-9.73851
▁cases	-9.73881
▁types	-9.73951
ung	-9.73956
ending	-9.74204
cle	-9.74258
▁methods	-9.74383
lf	-9.74411
tory	-9.74444
▁places	-9.74638
ese	-9.74736
▁Tel	-9.74752
lal	-9.74784
UL	-9.74868
▁elements	-9.75001
dditional	-9.7512
▁values	-9.75162
▁PM	-9.75323
▁fla	-9.75434
▁Mal	-9.75602
stern	-9.75769
▁enhance	-9.75774
▁Har	-9.75813
▁formed	-9.75817
▁40	-9.7595
▁Ve	-9.76073
form	-9.76149
▁accord	-9.76182
stic	-9.76415
▁mention	-9.76448
▁char	-9.76944
eserve	-9.76949
▁conduct	-9.77113
▁waste	-9.77123
▁According	-9.77153
▁Bombay	-9.77153
▁Science	-9.77153
▁calendar	-9.77153
▁college	-9.77153
▁festival	-9.77153
▁increasing	-9.77153
▁infrastructure	-9.77153
▁ourselves	-9.77153
▁regular	-9.77153
▁screen	-9.77153
▁Programme	-9.77153
▁Research	-9.77153
▁inaugurat	-9.77153
▁Categor	-9.77153
▁initiative	-9.77153
▁pleasure	-9.77153
▁transform	-9.77153
▁2005	-9.77153
▁square	-9.77153
▁escape	-9.77153
▁rupee	-9.77153
▁risk	-9.77153
▁stream	-9.77153
▁drug	-9.77154
▁tonnes	-9.77154
▁attack	-9.77155
▁Type	-9.77155
▁pipe	-9.77155
▁phase	-9.77155
▁partners	-9.77158
▁2013	-9.77162
▁Start	-9.77166
▁department	-9.77183
▁permission	-9.77183
▁remove	-9.77185
▁description	-9.77195
▁principle	-9.77197
▁importance	-9.77198
▁Help	-9.77199
▁palm	-9.77204
▁forgiveness	-9.77218
▁Edit	-9.77221
▁replace	-9.77225
▁September	-9.7726
▁mountains	-9.77284
▁cities	-9.7731
▁Thus	-9.7732
▁whatsoever	-9.7733
▁Hereafter	-9.77338
▁location	-9.77348
▁ancient	-9.77356
▁moment	-9.77398
▁editor	-9.77418
▁November	-9.77469
▁portion	-9.7748
▁root	-9.77487
▁Iran	-9.77681
▁associated	-9.77918
▁28	-9.77946
▁compar	-9.7799
▁warning	-9.78093
▁covered	-9.78171
mitted	-9.78242
▁prove	-9.78361
▁Page	-9.78367
▁expected	-9.78438
▁admit	-9.78451
▁feeling	-9.78467
▁Sur	-9.78486
▁tried	-9.78562
▁bound	-9.78685
▁added	-9.78739
ening	-9.78815
▁Sita	-9.78856
▁pan	-9.78867
▁requirements	-9.78959
▁Min	-9.79004
▁completed	-9.79047
000	-9.79275
▁22	-9.7986
▁stated	-9.79863
var	-9.79866
▁ki	-9.79921
▁article	-9.79965
▁method	-9.80002
▁animal	-9.80122
▁worth	-9.80527
lam	-9.80619
▁projects	-9.80653
▁qui	-9.80833
▁80	-9.80945
SI	-9.81227
▁returned	-9.81259
AB	-9.81412
It	-9.81565
oid	-9.81786
▁im	-9.81847
▁led	-9.81868
iii	-9.82086
▁ban	-9.82129
▁fee	-9.82142
▁wo	-9.82195
rup	-9.82297
▁warn	-9.82315
▁users	-9.8234
▁shares	-9.82376
under	-9.82382
DP	-9.82394
▁villages	-9.82428
▁Pan	-9.82428
▁answer	-9.82494
india	-9.82533
▁kill	-9.82664
other	-9.82836
▁faces	-9.82931
▁Das	-9.83026
▁earn	-9.83189
▁ti	-9.83197
▁mountain	-9.83263
▁helped	-9.83283
▁employ	-9.83293
cribe	-9.83296
▁engage	-9.8331
▁minu	-9.83375
▁Exchange	-9.83403
▁Rajasthan	-9.83403
▁Schedule	-9.83403
▁School	-9.83403
▁acquire	-9.83403
▁agriculture	-9.83403
▁channel	-9.83403
▁contribute	-9.83403
▁council	-9.83403
▁encourage	-9.83403
▁influence	-9.83403
▁reflect	-9.83403
▁target	-9.83403
▁mobile	-9.83403
▁Message	-9.83403
▁Uttar	-9.83403
▁straight	-9.83403
▁transport	-9.83403
▁constant	-9.83403
ology	-9.83403
▁unique	-9.83403
▁arrest	-9.83403
▁stories	-9.83403
▁volume	-9.83403
▁Member	-9.83404
▁Mighty	-9.83404
▁Left	-9.83404
▁Failed	-9.83404
▁promote	-9.83405
▁conceal	-9.83405
▁Therefore	-9.83405
▁battle	-9.83407
▁structure	-9.83409
▁Conference	-9.8341
▁Text	-9.83413
▁military	-9.83413
▁relationship	-9.83417
▁spoke	-9.83418
▁belief	-9.83421
▁repeat	-9.83424
▁committed	-9.83433
▁Gandhiji	-9.83442
▁grand	-9.83444
▁medium	-9.83451
▁arise	-9.83458
▁email	-9.83466
▁poetry	-9.83466
▁Chandra	-9.83468
subscribe	-9.8347
▁match	-9.83478
▁review	-9.83504
▁latest	-9.83514
▁road	-9.83535
▁chief	-9.83546
▁gold	-9.83553
▁Join	-9.83611
▁Western	-9.83628
▁wage	-9.83649
▁cash	-9.83666
▁safe	-9.83716
▁dust	-9.83727
▁Q	-9.83735
▁Khan	-9.83788
▁launched	-9.83841
▁gone	-9.83902
▁groups	-9.83918
▁King	-9.83942
▁clay	-9.83952
▁bow	-9.83955
▁Other	-9.83973
▁trial	-9.84039
rising	-9.84198
▁attain	-9.84282
▁promised	-9.84299
▁sight	-9.84361
▁apart	-9.84418
▁actor	-9.84574
▁100	-9.84589
acy	-9.84692
▁inform	-9.84748
▁achievements	-9.84873
▁longer	-9.84894
▁forest	-9.85031
▁Only	-9.85404
You	-9.85606
president	-9.85742
▁passing	-9.85772
15	-9.85996
▁Men	-9.86014
▁proof	-9.86145
▁Send	-9.86315
resident	-9.86383
▁folders	-9.86493
▁attract	-9.8657
▁75	-9.86773
▁heaven	-9.86805
▁included	-9.86818
iya	-9.86863
▁letter	-9.86881
ily	-9.87059
▁UN	-9.87102
PS	-9.87365
▁193	-9.87494
▁II	-9.87645
▁wor	-9.87782
▁rever	-9.87975
place	-9.88068
▁brothers	-9.88099
011	-9.88215
▁tran	-9.88406
▁needed	-9.88603
▁Nav	-9.88688
nath	-9.8881
▁includes	-9.88853
Q	-9.88913
▁wanted	-9.88931
▁select	-9.88946
Sita	-9.88989
ura	-9.8901
▁wait	-9.89078
▁item	-9.89089
him	-9.89326
xternal	-9.89343
▁measures	-9.89391
▁purposes	-9.8951
▁needs	-9.89513
▁barr	-9.89526
ET	-9.89646
lum	-9.89675
▁anti	-9.8975
▁threat	-9.89802
ility	-9.89868
ecause	-9.90015
▁Corporation	-9.90069
▁Display	-9.90069
▁Environment	-9.90069
▁Excellency	-9.90069
▁advantage	-9.90069
▁behaviour	-9.90069
▁confirm	-9.90069
▁elephant	-9.90069
▁opportunities	-9.90069
▁recommend	-9.90069
▁registration	-9.90069
▁species	-9.90069
▁struggle	-9.90069
▁succeed	-9.90069
▁complex	-9.90069
▁dispute	-9.90069
▁partnership	-9.90069
▁restrict	-9.90069
▁Policy	-9.9007
▁ocean	-9.9007
▁opinion	-9.9007
▁unjust	-9.9007
▁heritage	-9.9007
▁knew	-9.9007
▁storage	-9.9007
▁filter	-9.9007
▁April	-9.9007
▁shift	-9.90071
▁visible	-9.90071
▁average	-9.90071
▁Change	-9.90072
▁Learn	-9.90072
▁exceed	-9.90073
▁River	-9.90074
▁beautiful	-9.90076
▁entry	-9.90077
▁debt	-9.90079
▁master	-9.90079
▁harm	-9.9008
cular	-9.90083
▁proceedings	-9.90093
▁Description	-9.90097
▁empty	-9.90099
▁daughter	-9.90108
▁submitted	-9.90121
▁painful	-9.90125
▁frame	-9.90137
▁taught	-9.9015
▁performance	-9.90158
▁update	-9.90163
▁employment	-9.90166
▁bill	-9.9017
▁Home	-9.90175
version	-9.9019
▁establishment	-9.90222
AC	-9.90225
▁European	-9.90232
▁severe	-9.90237
▁innovation	-9.90238
▁sort	-9.90251
▁dig	-9.90267
▁Comment	-9.90268
▁late	-9.90281
▁vast	-9.90301
▁becoming	-9.90338
▁team	-9.90349
▁election	-9.9035
▁constituted	-9.90354
▁moon	-9.90369
▁Law	-9.90382
▁denied	-9.90385
▁Post	-9.90406
▁recite	-9.90424
▁fish	-9.90525
▁Hour	-9.90561
▁Hol	-9.90596
▁More	-9.906
▁Rule	-9.90638
▁train	-9.90643
troduction	-9.90668
▁cry	-9.90718
▁adopted	-9.90723
▁room	-9.90726
lly	-9.90766
quest	-9.90825
▁directly	-9.90825
wer	-9.90848
▁destroyed	-9.90916
PE	-9.90921
ww	-9.91026
▁feed	-9.9124
▁accounts	-9.91276
▁site	-9.91293
▁Thou	-9.91328
200	-9.91341
▁meetings	-9.9142
▁Save	-9.91462
▁suffering	-9.91469
▁door	-9.91494
▁views	-9.9162
▁fac	-9.91639
▁User	-9.91877
▁organizations	-9.91888
ika	-9.91904
ila	-9.92028
iff	-9.92128
▁plants	-9.92133
▁parents	-9.92134
▁poems	-9.92379
illa	-9.92456
VE	-9.92456
nar	-9.92468
NA	-9.9249
▁Veda	-9.92757
ants	-9.92826
▁press	-9.92861
▁card	-9.92977
▁Ji	-9.92987
ague	-9.93123
▁pen	-9.93209
rom	-9.93483
quite	-9.93541
▁player	-9.93573
▁letters	-9.93615
▁Her	-9.9415
▁deriv	-9.94434
▁realiz	-9.94527
▁agree	-9.94534
▁steps	-9.94579
▁Ya	-9.94691
▁tool	-9.94732
AME	-9.95004
▁cells	-9.95362
▁products	-9.95366
▁5,	-9.95425
▁flu	-9.95474
▁remov	-9.95535
X	-9.95984
unda	-9.96036
“”	-9.96077
What	-9.9609
▁tend	-9.96155
▁connect	-9.96216
▁Here	-9.9626
▁observ	-9.96303
▁destroy	-9.96311
▁involv	-9.96326
back	-9.96431
hall	-9.96464
▁remind	-9.96551
▁deci	-9.96731
▁count	-9.96831
▁essential	-9.96839
nut	-9.97024
▁ni	-9.97121
▁attach	-9.97124
ukherjee	-9.97133
▁Ali	-9.97172
▁scienti	-9.97208
▁entrepreneur	-9.97212
▁feature	-9.97212
▁proposal	-9.97212
▁2014	-9.97212
▁August	-9.97212
▁Company	-9.97212
▁Mumbai	-9.97212
▁association	-9.97212
▁attempt	-9.97212
▁campaign	-9.97212
▁circumstances	-9.97212
▁determine	-9.97212
▁excellent	-9.97212
▁institute	-9.97212
▁procedure	-9.97212
▁scholar	-9.97212
▁specify	-9.97212
▁thirty	-9.97212
▁welcome	-9.97212
▁Contact	-9.97213
▁creating	-9.97213
▁surviv	-9.97213
▁photo	-9.97213
▁arrive	-9.97213
▁carbon	-9.97213
▁2009	-9.97213
▁breast	-9.97213
▁Women	-9.97213
▁Click	-9.97213
▁double	-9.97213
▁strike	-9.97213
▁Next	-9.97213
▁favor	-9.97213
▁Finance	-9.97213
▁ignore	-9.97214
▁truly	-9.97214
▁extent	-9.97215
▁serious	-9.97215
▁title	-9.97215
▁talent	-9.97215
neath	-9.97215
▁Nepal	-9.97216
▁Fund	-9.97216
▁dwell	-9.97218
▁electronic	-9.97219
▁password	-9.97223
▁Scripture	-9.97224
▁cooperation	-9.97224
▁Window	-9.97225
▁extension	-9.97227
▁recognize	-9.97229
▁2010	-9.97234
▁Health	-9.97234
▁discover	-9.97236
▁else	-9.97241
▁conflict	-9.97249
▁assign	-9.9725
▁priority	-9.97256
▁administration	-9.97273
▁improvement	-9.97279
▁rock	-9.97281
▁assist	-9.97297
▁sufficient	-9.97325
▁spot	-9.97328
aint	-9.97328
▁translation	-9.97329
▁relative	-9.97335
▁medicine	-9.97344
▁Pharaoh	-9.97344
hood	-9.97367
▁lawful	-9.97372
▁remark	-9.97372
▁Food	-9.97383
▁insect	-9.974
▁Yet	-9.97419
ESS	-9.97421
▁spent	-9.97432
▁29	-9.97439
▁prim	-9.9745
▁Right	-9.97501
If	-9.9753
▁Devi	-9.97553
▁Indo	-9.97557
▁introduced	-9.97592
▁lesson	-9.97605
▁ordinar	-9.97608
▁counter	-9.9762
▁throughout	-9.97638
▁row	-9.97643
▁Nath	-9.97677
▁ideal	-9.97683
▁feet	-9.97718
▁delivery	-9.9772
lapse	-9.97721
▁parties	-9.97723
▁July	-9.97738
▁army	-9.97739
▁bone	-9.97783
▁dry	-9.97828
▁Yes	-9.97909
▁wear	-9.97928
▁Why	-9.97951
▁intens	-9.97998
▁gate	-9.98055
▁teaching	-9.98055
▁runs	-9.98087
ST	-9.98097
▁fields	-9.98163
▁calls	-9.98237
▁writer	-9.98245
▁killed	-9.9825
▁sal	-9.9826
▁lock	-9.98271
▁End	-9.98357
▁sell	-9.98368
▁propose	-9.98419
▁dear	-9.98446
“	-9.98464
holder	-9.98466
uction	-9.98477
▁continued	-9.98699
▁km	-9.98716
glad	-9.98756
▁stayed	-9.98804
reafter	-9.98817
▁developing	-9.98821
▁goes	-9.98838
▁applications	-9.9894
▁Wat	-9.99139
▁god	-9.99321
▁Card	-9.9934
▁nations	-9.99517
▁customers	-9.99761
▁Sir	-9.99883
▁gardens	-9.99965
▁Set	-10
My	-10.0007
▁options	-10.0023
▁employees	-10.0023
12	-10.006
▁Dis	-10.0067
50	-10.0067
▁returns	-10.0084
aries	-10.0106
ATION	-10.0119
DA	-10.0123
▁student	-10.0153
zon	-10.0161
▁supported	-10.0162
▁processing	-10.0174
▁relation	-10.0175
▁ar	-10.0191
▁named	-10.0239
ngle	-10.0261
▁participate	-10.0272
mir	-10.0274
▁events	-10.0282
▁homes	-10.0291
▁emerg	-10.0313
▁origin	-10.0319
hough	-10.0333
▁likely	-10.034
jan	-10.0351
mination	-10.0353
clude	-10.0354
▁centre	-10.0357
Muhammad	-10.0377
▁cho	-10.0378
Allah	-10.0379
1-201	-10.0385
▁follows	-10.0399
▁Don	-10.0404
will	-10.0418
▁heav	-10.0422
▁Pla	-10.0438
▁pray	-10.0443
▁elect	-10.0455
▁sources	-10.0457
▁custom	-10.0457
▁locat	-10.0467
▁commit	-10.0479
▁avail	-10.0482
▁legislat	-10.0488
vocation	-10.0489
▁Copy	-10.049
▁Current	-10.049
▁District	-10.049
▁Financial	-10.049
▁Library	-10.049
▁Official	-10.049
▁arrangement	-10.049
▁chastisement	-10.049
▁consciousness	-10.049
▁criminal	-10.049
▁greeting	-10.049
▁happiness	-10.049
▁independent	-10.049
▁liquid	-10.049
▁minister	-10.049
▁platform	-10.049
▁prosperity	-10.049
▁survey	-10.049
▁telephone	-10.049
▁thrust	-10.049
▁victim	-10.049
▁yield	-10.049
▁Pakistan	-10.049
▁distinct	-10.049
▁London	-10.049
▁annual	-10.049
▁chapter	-10.049
▁proportion	-10.049
▁divine	-10.049
▁sympath	-10.049
▁Mission	-10.049
▁2002	-10.0491
▁damage	-10.0491
▁throw	-10.0491
▁digital	-10.0491
▁blind	-10.0491
▁Japan	-10.0491
▁pillar	-10.0491
married	-10.0491
▁replied	-10.0491
▁Truth	-10.0491
▁Task	-10.0491
▁walk	-10.0491
▁minor	-10.0491
▁Turk	-10.0491
▁composed	-10.0491
▁laid	-10.0491
▁correspond	-10.0491
▁pursu	-10.0491
▁skin	-10.0492
▁2004	-10.0492
▁multiple	-10.0492
▁buy	-10.0492
▁easily	-10.0492
▁running	-10.0492
▁oppress	-10.0492
▁forbid	-10.0492
▁input	-10.0493
▁representative	-10.0493
▁authorities	-10.0493
▁Key	-10.0494
▁guard	-10.0494
FOR	-10.0495
▁memory	-10.0495
▁Bihar	-10.0495
▁195	-10.0496
▁thanks	-10.0496
▁appointment	-10.0497
scription	-10.0497
▁participation	-10.0497
▁bond	-10.0497
▁Print	-10.0497
▁History	-10.0498
▁radi	-10.0499
▁suitable	-10.0499
▁commitment	-10.05
▁Forgiving	-10.05
▁foot	-10.05
▁multi	-10.0501
▁shop	-10.0505
▁Dh	-10.0505
▁roll	-10.0506
▁Shah	-10.0507
▁flag	-10.0507
▁vote	-10.0511
▁sitting	-10.0511
▁preach	-10.0512
▁restore	-10.0514
▁hill	-10.0516
▁immediately	-10.0519
▁44	-10.052
▁pr	-10.0525
▁Relat	-10.0526
▁Non	-10.0531
▁Tax	-10.0533
iddle	-10.0538
▁Play	-10.0547
▁net	-10.0555
▁slow	-10.0558
▁plans	-10.0559
▁sins	-10.0567
▁sons	-10.0578
▁interests	-10.0581
▁served	-10.0583
!"	-10.0584
▁dome	-10.0589
▁evening	-10.0592
▁questions	-10.0595
▁devi	-10.0596
▁mighty	-10.0597
state	-10.0598
▁moved	-10.0598
▁Part	-10.0599
▁lad	-10.0604
▁warner	-10.0604
▁conducted	-10.0611
▁cow	-10.0613
▁convert	-10.0615
▁revelations	-10.0618
▁affected	-10.0618
No	-10.062
▁layer	-10.0627
▁CD	-10.0646
▁coordinate	-10.0649
CI	-10.0655
▁Ki	-10.0662
▁Mary	-10.0663
▁removed	-10.0671
▁hearing	-10.0681
▁knowing	-10.0682
▁contained	-10.0686
MB	-10.0694
▁songs	-10.0703
chan	-10.0705
bin	-10.0754
17	-10.0759
▁lines	-10.0767
▁addition	-10.0774
▁Import	-10.078
▁didn	-10.078
▁35	-10.0798
▁Did	-10.0812
▁costs	-10.0822
greed	-10.083
▁east	-10.0833
▁centres	-10.0843
▁changed	-10.0851
prehensive	-10.0851
▁filed	-10.0852
▁remained	-10.0857
▁gods	-10.0876
vana	-10.0896
▁Nor	-10.092
EC	-10.0924
▁articles	-10.0934
ample	-10.0946
▁Services	-10.0963
▁emb	-10.0966
▁employee	-10.0983
▁option	-10.0987
▁arms	-10.1024
▁194	-10.103
▁convey	-10.1044
▁win	-10.1062
▁trac	-10.1067
▁permit	-10.107
hav	-10.107
▁looking	-10.1085
▁SA	-10.112
▁youth	-10.1121
▁opened	-10.1128
part	-10.1151
mini	-10.1202
point	-10.1211
what	-10.1212
ii	-10.1217
power	-10.1219
▁Lam	-10.1225
▁teach	-10.1229
▁reveal	-10.1236
▁gather	-10.1244
And	-10.1259
▁artist	-10.1266
His	-10.1272
▁Yu	-10.1273
▁190	-10.129
11	-10.13
lthough	-10.1306
nvestment	-10.1322
▁submit	-10.1322
▁Global	-10.1324
▁Limit	-10.1324
▁ceremon	-10.1324
▁counsel	-10.1324
▁dawn	-10.1324
▁Believers	-10.1324
▁Default	-10.1324
▁Governance	-10.1324
▁Gujarat	-10.1324
▁Jammu	-10.1324
▁Princip	-10.1324
▁Security	-10.1324
▁abroad	-10.1324
▁accident	-10.1324
▁audio	-10.1324
▁cattle	-10.1324
▁covenant	-10.1324
▁destruction	-10.1324
▁division	-10.1324
▁entitle	-10.1324
▁estimate	-10.1324
▁families	-10.1324
▁fundamental	-10.1324
▁furnish	-10.1324
▁identified	-10.1324
▁illegal	-10.1324
▁industries	-10.1324
▁mechanism	-10.1324
▁privilege	-10.1324
▁promotion	-10.1324
▁transaction	-10.1324
▁victory	-10.1324
▁Circular	-10.1324
▁Connect	-10.1324
▁Legislat	-10.1324
▁brief	-10.1324
▁urban	-10.1324
▁atmosphere	-10.1324
▁decade	-10.1324
▁download	-10.1324
▁sacred	-10.1324
▁kingdom	-10.1324
▁branch	-10.1324
▁attitude	-10.1324
▁excess	-10.1324
▁sleep	-10.1324
▁doctor	-10.1324
▁Folder	-10.1324
▁decree	-10.1324
▁zero	-10.1324
▁crop	-10.1324
▁mosque	-10.1324
▁Class	-10.1324
▁Region	-10.1324
▁Great	-10.1324
▁desert	-10.1324
▁danger	-10.1324
▁Saudi	-10.1324
▁drag	-10.1324
▁elder	-10.1324
eputy	-10.1324
▁Annu	-10.1324
▁ahead	-10.1324
▁Image	-10.1324
▁utter	-10.1324
▁Since	-10.1324
▁praise	-10.1325
▁borrow	-10.1325
▁audit	-10.1325
▁Ganga	-10.1325
AGE	-10.1325
▁2017	-10.1325
▁instance	-10.1325
▁2015	-10.1326
▁constitution	-10.1327
▁forget	-10.1327
▁tab	-10.1328
▁cloud	-10.1328
▁interact	-10.1328
▁Count	-10.1328
▁initiate	-10.1329
▁Enter	-10.1329
▁hind	-10.1329
▁fellow	-10.1329
▁Email	-10.133
▁destination	-10.133
▁organis	-10.1331
▁deduction	-10.1333
▁stop	-10.1333
▁sorrow	-10.1334
▁chance	-10.1334
▁supreme	-10.1335
▁taste	-10.1335
▁reform	-10.1336
▁motion	-10.1336
▁rank	-10.1338
▁proud	-10.1338
▁invent	-10.1339
▁radio	-10.1341
▁repent	-10.1341
▁broke	-10.1342
▁Good	-10.1346
▁truthful	-10.1348
▁October	-10.1349
▁Disc	-10.1351
▁applied	-10.1352
▁Vice	-10.1355
▁someone	-10.1356
▁China	-10.1359
▁successfully	-10.136
▁helper	-10.1361
▁edge	-10.1362
▁seize	-10.1365
▁nine	-10.1367
▁Over	-10.1368
▁release	-10.1369
▁film	-10.137
▁Prof	-10.137
▁ill	-10.137
▁span	-10.1371
take	-10.138
ridge	-10.1384
▁prose	-10.1387
lock	-10.1388
▁sick	-10.139
▁spare	-10.1395
▁burning	-10.1398
▁defined	-10.14
▁Rep	-10.1402
▁competen	-10.1404
▁memo	-10.1407
izing	-10.1411
▁fell	-10.1418
▁deity	-10.142
▁IIT	-10.1424
▁stoo	-10.1428
▁regional	-10.1429
▁reduced	-10.143
▁workers	-10.143
nagar	-10.1434
▁height	-10.1434
▁facilit	-10.1434
▁suit	-10.1449
▁waiting	-10.1451
▁mentioned	-10.1456
▁smaller	-10.146
▁produced	-10.1478
▁covering	-10.1486
▁gene	-10.1498
▁bus	-10.1503
▁exception	-10.1505
▁“”	-10.1524
▁limited	-10.1526
▁menu	-10.154
▁string	-10.1556
26	-10.1582
▁regarding	-10.1583
▁clearly	-10.1609
EF	-10.1683
osa	-10.1711
▁fit	-10.1716
▁wronged	-10.1765
▁attribute	-10.1766
▁ST	-10.1784
▁Tab	-10.1803
▁forever	-10.1836
▁prof	-10.1837
ides	-10.1874
vy	-10.188
▁garden	-10.189
▁33	-10.1891
▁En	-10.1925
▁emergenc	-10.1926
▁leader	-10.1972
rgin	-10.1983
▁construct	-10.2006
long	-10.2018
13	-10.2023
▁achieve	-10.2031
▁manage	-10.2095
dict	-10.2104
iz	-10.2105
mission	-10.2107
detail	-10.2115
release	-10.2116
work	-10.212
pid	-10.2134
word	-10.2135
know	-10.214
▁IT	-10.2142
▁adopt	-10.2144
▁generat	-10.2172
but	-10.2182
▁Shar	-10.2184
▁complain	-10.2189
▁ratio	-10.2201
▁successful	-10.2205
▁syn	-10.2209
dicate	-10.2211
▁plane	-10.2219
▁educat	-10.222
▁blow	-10.2223
▁differ	-10.2225
▁temp	-10.2225
hoose	-10.2226
▁dark	-10.2227
▁reduce	-10.2228
ject	-10.2229
▁broad	-10.2229
▁magic	-10.223
▁Person	-10.223
▁proceed	-10.223
evolution	-10.223
ogen	-10.2231
▁dialog	-10.2233
▁Switch	-10.2233
▁appellant	-10.2233
▁encompass	-10.2233
▁nuclea	-10.2233
▁tissue	-10.2233
Remember	-10.2233
▁Binoy	-10.2233
▁Buddhist	-10.2233
▁Certain	-10.2233
▁Chairman	-10.2233
▁Jawahar	-10.2233
▁Karnataka	-10.2233
▁Options	-10.2233
▁Sanskrit	-10.2233
▁System	-10.2233
▁absolute	-10.2233
▁academic	-10.2233
▁affairs	-10.2233
▁afflict	-10.2233
▁bounty	-10.2233
▁creature	-10.2233
▁distribution	-10.2233
▁enjoin	-10.2233
▁expansion	-10.2233
▁fault	-10.2233
▁impossible	-10.2233
▁independence	-10.2233
▁innocent	-10.2233
▁opportunity	-10.2233
▁pollution	-10.2233
▁pregnancy	-10.2233
▁puppet	-10.2233
▁resolve	-10.2233
▁senior	-10.2233
▁strategy	-10.2233
▁studies	-10.2233
▁surface	-10.2233
▁violence	-10.2233
▁welfare	-10.2233
▁yesterday	-10.2233
▁{0}	-10.2233
erritories	-10.2233
▁Remove	-10.2233
▁guilty	-10.2233
▁twice	-10.2233
▁yellow	-10.2233
▁grieve	-10.2233
▁prostrate	-10.2233
▁tribute	-10.2233
▁Children	-10.2233
▁intellectual	-10.2233
nquiry	-10.2233
▁2006	-10.2233
▁2008	-10.2233
▁drown	-10.2233
▁modification	-10.2233
▁twenty	-10.2233
▁midst	-10.2233
▁Mughal	-10.2233
▁proxy	-10.2233
▁weapon	-10.2233
▁retreat	-10.2233
▁dream	-10.2233
▁marry	-10.2233
▁false	-10.2233
▁distance	-10.2233
▁journal	-10.2233
▁agencies	-10.2233
▁corner	-10.2233
▁Institutions	-10.2233
▁Radha	-10.2233
▁Server	-10.2233
▁fixed	-10.2233
▁render	-10.2233
▁fuel	-10.2233
▁inherit	-10.2233
▁scientists	-10.2233
▁blessing	-10.2234
▁expir	-10.2234
▁technical	-10.2234
▁lake	-10.2234
▁entity	-10.2234
raising	-10.2235
▁merit	-10.2235
▁equipment	-10.2235
▁iron	-10.2235
▁race	-10.2235
▁spring	-10.2235
▁begin	-10.2235
▁index	-10.2236
▁Also	-10.2236
▁1956	-10.2237
▁tube	-10.2237
▁publications	-10.2237
scope	-10.2237
▁recover	-10.2237
▁climate	-10.2238
IME	-10.2238
▁assistance	-10.2238
▁Authority	-10.2238
▁recent	-10.2238
▁darkness	-10.2239
▁fresh	-10.2239
01.	-10.2239
▁worry	-10.2239
▁Another	-10.224
▁sustainable	-10.224
▁alter	-10.224
▁teachers	-10.2241
ompliance	-10.2242
▁sexual	-10.2242
▁Report	-10.2243
▁wound	-10.2244
▁sentence	-10.2247
▁Organi	-10.2247
▁Agriculture	-10.225
▁confidence	-10.225
▁Make	-10.225
crete	-10.225
▁bestow	-10.2251
▁everyone	-10.2254
grew	-10.2255
▁comment	-10.2255
▁Later	-10.2258
▁solv	-10.2261
▁wave	-10.2267
▁saint	-10.227
▁settled	-10.2271
▁followers	-10.2272
▁cancel	-10.2275
▁complaint	-10.2277
▁script	-10.228
▁urge	-10.2282
▁Islamic	-10.2283
▁web	-10.2284
hol	-10.2284
▁Never	-10.2285
▁auto	-10.2285
▁Abraham	-10.2295
500	-10.23
▁drawn	-10.2301
▁released	-10.2301
Trans	-10.231
▁Line	-10.231
▁seal	-10.2314
▁handle	-10.2315
▁Path	-10.2328
▁box	-10.2329
▁gathered	-10.2334
olar	-10.2338
ography	-10.2343
teral	-10.2348
NS	-10.235
▁achieved	-10.2352
▁mill	-10.2354
▁Art	-10.2354
▁shaped	-10.2361
▁ID	-10.2372
-2012	-10.2374
▁Gardens	-10.2386
▁coin	-10.2391
▁musical	-10.2398
▁meant	-10.241
krishna	-10.2439
roa	-10.2456
▁bearing	-10.2478
▁signed	-10.2486
▁dealing	-10.2491
▁holding	-10.2521
▁Best	-10.2522
▁rat	-10.2544
▁formulat	-10.2552
▁Mode	-10.2552
▁ability	-10.2567
tom	-10.2592
▁tin	-10.2636
ccessible	-10.2639
▁forty	-10.2646
▁header	-10.2695
dium	-10.2702
▁Date	-10.2731
cycl	-10.2735
teel	-10.2749
▁Bala	-10.2777
▁improve	-10.2779
▁Mat	-10.2781
uda	-10.2857
polit	-10.2862
trusted	-10.2868
▁qua	-10.2881
▁poem	-10.2907
▁customer	-10.2925
▁Creat	-10.2946
natha	-10.2948
avan	-10.2979
▁Col	-10.2981
▁fur	-10.2987
istan	-10.2995
ould	-10.3004
▁70	-10.3014
▁detail	-10.3021
AD	-10.3054
encies	-10.3055
amma	-10.3093
03	-10.3124
▁Hon	-10.3128
▁Raja	-10.3148
lore	-10.3154
itting	-10.3161
▁immediate	-10.3196
▁final	-10.3196
▁actual	-10.3197
▁60	-10.3202
▁possess	-10.3205
▁caste	-10.3211
wareness	-10.3213
ficiency	-10.3213
▁refuge	-10.3214
▁examin	-10.3218
2018	-10.3219
itude	-10.322
▁electric	-10.3226
nergy	-10.3228
▁drama	-10.3229
February	-10.3233
polytheists	-10.3233
▁Assistant	-10.3233
▁Brahman	-10.3233
▁Convention	-10.3233
▁Explanation	-10.3233
▁Innovation	-10.3233
▁Knowing	-10.3233
▁Swami	-10.3233
▁Tagore	-10.3233
▁absorb	-10.3233
▁analysis	-10.3233
▁apparent	-10.3233
▁appropriate	-10.3233
▁conservation	-10.3233
▁consultation	-10.3233
▁craft	-10.3233
▁definite	-10.3233
▁disbelief	-10.3233
▁extreme	-10.3233
▁hidden	-10.3233
▁inspiration	-10.3233
▁instruction	-10.3233
▁library	-10.3233
▁philosophy	-10.3233
▁plugin	-10.3233
▁resolution	-10.3233
▁response	-10.3233
▁sacrifice	-10.3233
▁sculpture	-10.3233
▁trouble	-10.3233
▁twelve	-10.3233
▁university	-10.3233
▁virtue	-10.3233
▁Application	-10.3233
▁Document	-10.3233
▁URL	-10.3233
▁bottom	-10.3233
▁circle	-10.3233
▁discharge	-10.3233
▁healthcare	-10.3233
▁Article	-10.3233
▁Training	-10.3233
▁database	-10.3233
▁fifty	-10.3233
▁piece	-10.3233
▁Check	-10.3233
▁John	-10.3233
▁expand	-10.3233
▁properties	-10.3233
▁Delegat	-10.3233
▁centuries	-10.3233
▁tongue	-10.3233
▁narrow	-10.3233
▁reckon	-10.3233
▁tidings	-10.3233
▁Civil	-10.3233
▁Field	-10.3233
▁Social	-10.3233
▁Filter	-10.3233
▁glory	-10.3233
▁Justice	-10.3233
▁finance	-10.3233
▁fulfilled	-10.3233
▁glass	-10.3233
▁recipients	-10.3233
Joseph	-10.3233
▁output	-10.3233
▁swear	-10.3233
▁pardon	-10.3233
▁engineering	-10.3233
▁protest	-10.3233
▁invoke	-10.3233
▁Jews	-10.3233
▁climb	-10.3233
▁honor	-10.3233
▁Clear	-10.3233
▁gift	-10.3233
pathy	-10.3233
▁plot	-10.3233
▁yourself	-10.3233
▁stock	-10.3233
▁assured	-10.3233
▁horse	-10.3234
▁pension	-10.3234
▁advis	-10.3234
▁absent	-10.3234
▁opposition	-10.3234
▁organize	-10.3234
▁Font	-10.3234
▁split	-10.3234
▁commercial	-10.3234
▁Madhya	-10.3234
▁copyright	-10.3235
▁saving	-10.3235
▁governance	-10.3235
▁Delete	-10.3235
▁urgent	-10.3235
▁(4)	-10.3235
trategi	-10.3235
▁failure	-10.3236
▁consent	-10.3236
▁2016	-10.3236
▁probabl	-10.3236
▁Babu	-10.3236
▁characteristic	-10.3236
▁legend	-10.3236
▁blame	-10.3236
▁slain	-10.3237
▁rough	-10.3237
▁conference	-10.3237
▁pressure	-10.3237
▁interven	-10.3237
▁primary	-10.3238
DAY	-10.3238
▁1957	-10.3238
▁Nature	-10.3238
▁fluid	-10.3239
▁Sind	-10.3239
▁investigation	-10.324
▁bind	-10.324
▁block	-10.3241
▁hunt	-10.3241
▁tourist	-10.3241
mpire	-10.3242
▁defendant	-10.3242
▁spell	-10.3242
▁nurs	-10.3242
▁cultivation	-10.3243
▁enact	-10.3243
▁difficulties	-10.3245
▁sometime	-10.3246
▁weakness	-10.3246
▁peak	-10.3246
SCO	-10.3246
▁SH	-10.3248
▁grace	-10.325
▁ox	-10.3251
▁examination	-10.3252
reach	-10.3253
▁billion	-10.3253
▁flowers	-10.3255
▁grave	-10.3255
▁personality	-10.3256
thetic	-10.3257
▁boil	-10.326
▁possession	-10.3261
▁recognised	-10.3263
▁allocat	-10.3263
▁ray	-10.3266
▁Both	-10.3267
graduate	-10.3268
▁button	-10.327
omething	-10.3272
▁petitioner	-10.3272
▁stem	-10.3273
▁react	-10.3273
▁Back	-10.3275
▁essentially	-10.3286
▁preserv	-10.3289
mount	-10.3289
▁Size	-10.3292
▁lose	-10.3294
▁numer	-10.3301
TH	-10.3302
TER	-10.3302
▁firmly	-10.3314
OL	-10.3316
▁manager	-10.3316
ligible	-10.3317
▁Mail	-10.3319
▁weight	-10.3323
▁liar	-10.3325
▁reminder	-10.3328
▁exit	-10.3331
position	-10.3333
▁generated	-10.3333
terrible	-10.3337
▁seat	-10.3346
04	-10.3353
▁camel	-10.3361
▁observed	-10.3364
jo	-10.3372
▁era	-10.3373
roz	-10.3376
▁earned	-10.3384
▁answered	-10.3384
▁Rai	-10.3392
▁Chand	-10.3395
▁manag	-10.3396
▁attained	-10.3396
▁rid	-10.3403
▁band	-10.3409
▁granted	-10.3414
▁saved	-10.3418
▁Bengali	-10.3424
▁ready	-10.3437
▁defend	-10.3438
▁capabilit	-10.3475
▁realise	-10.3482
▁Tak	-10.3486
▁faithful	-10.3491
▁mine	-10.3515
▁mortal	-10.3552
▁domin	-10.356
▁90	-10.3574
▁ran	-10.3612
resh	-10.3627
hel	-10.3663
bir	-10.3695
hold	-10.3756
rrow	-10.3793
28	-10.3808
▁Prem	-10.3811
UK	-10.3837
BB	-10.3903
cap	-10.3913
▁transgress	-10.3994
▁resource	-10.4006
▁parent	-10.4022
▁requirement	-10.4023
trea	-10.4028
roph	-10.4029
▁val	-10.4069
▁Sai	-10.4087
ona	-10.4107
25	-10.4112
rare	-10.4118
azi	-10.4119
▁map	-10.4148
mum	-10.4157
▁leav	-10.4203
Why	-10.4228
▁Run	-10.4247
▁appoint	-10.4247
▁burn	-10.4249
▁fail	-10.428
▁delete	-10.4281
▁prepare	-10.4284
upon	-10.4292
▁profession	-10.4305
▁gradua	-10.4305
▁terr	-10.4321
▁practi	-10.4333
▁administrati	-10.4334
ference	-10.4336
▁sustain	-10.4337
▁prior	-10.4337
▁machine	-10.4339
gress	-10.4341
NCE	-10.4343
operative	-10.4343
▁revolution	-10.4343
▁engine	-10.4344
osphere	-10.4344
▁occup	-10.4344
▁Continu	-10.4344
▁adequate	-10.4344
▁aircraft	-10.4344
▁excellence	-10.4344
▁incident	-10.4344
PRODUCT	-10.4344
▁Apostle	-10.4344
▁Budget	-10.4344
▁Economic	-10.4344
▁England	-10.4344
▁Judgment	-10.4344
▁Knowledge	-10.4344
▁Kovind	-10.4344
▁Mohammed	-10.4344
▁Palestinians	-10.4344
▁Province	-10.4344
▁Vishnu	-10.4344
▁acquisition	-10.4344
▁appreciate	-10.4344
▁arrogant	-10.4344
▁assault	-10.4344
▁communities	-10.4344
▁competition	-10.4344
▁configur	-10.4344
▁currency	-10.4344
▁definition	-10.4344
▁distress	-10.4344
▁enemies	-10.4344
▁infection	-10.4344
▁infidel	-10.4344
▁judgment	-10.4344
▁obvious	-10.4344
▁pattern	-10.4344
▁pesticide	-10.4344
▁politics	-10.4344
▁proclaim	-10.4344
▁satisfied	-10.4344
▁schedule	-10.4344
▁smooth	-10.4344
▁technique	-10.4344
▁territory	-10.4344
▁Network	-10.4344
▁Railway	-10.4344
▁beauty	-10.4344
▁switch	-10.4344
▁visual	-10.4344
▁Support	-10.4344
▁identify	-10.4344
▁Among	-10.4344
▁Chapter	-10.4344
▁Kingdom	-10.4344
▁Scienti	-10.4344
▁deprive	-10.4344
▁poison	-10.4344
▁Divine	-10.4344
▁micro	-10.4344
▁uniform	-10.4344
▁Chinese	-10.4344
▁Natural	-10.4344
▁Police	-10.4344
▁murder	-10.4344
▁flight	-10.4344
▁summon	-10.4344
▁width	-10.4344
▁Credit	-10.4344
▁devote	-10.4344
▁treasure	-10.4344
▁venture	-10.4344
▁wicked	-10.4344
▁Detail	-10.4344
▁Question	-10.4344
▁consequences	-10.4344
▁internet	-10.4344
▁silver	-10.4344
▁adorn	-10.4344
▁wrath	-10.4344
▁sanction	-10.4344
▁tribal	-10.4344
▁neck	-10.4344
▁blue	-10.4344
▁Keep	-10.4344
▁abundan	-10.4344
chandra	-10.4344
▁moving	-10.4344
▁Green	-10.4344
▁adult	-10.4344
▁Andhra	-10.4344
▁Title	-10.4345
▁component	-10.4345
▁Meeting	-10.4345
▁Georg	-10.4345
▁blessed	-10.4345
▁railway	-10.4345
Peace	-10.4345
▁intended	-10.4345
▁idol	-10.4345
▁Subject	-10.4345
▁occurred	-10.4345
▁equi	-10.4345
▁vital	-10.4345
▁contemporar	-10.4345
▁cease	-10.4346
▁2003	-10.4346
▁impress	-10.4346
▁leadership	-10.4346
▁pla	-10.4346
▁subsequent	-10.4347
▁moral	-10.4347
▁Master	-10.4347
▁Sim	-10.4347
▁forgot	-10.4347
▁acid	-10.4347
▁abide	-10.4348
▁background	-10.4348
▁alternative	-10.4348
▁(3)	-10.4348
▁unaware	-10.4349
▁brain	-10.4349
ENCE	-10.4349
▁impact	-10.4349
▁favourite	-10.435
▁revenue	-10.435
▁Setting	-10.435
▁1950	-10.4351
▁slight	-10.4351
▁mouse	-10.4351
▁facilitate	-10.4352
▁friendship	-10.4352
▁anger	-10.4352
▁offline	-10.4353
▁dignit	-10.4354
▁offence	-10.4354
▁painting	-10.4354
▁alleg	-10.4355
▁exact	-10.4358
▁collective	-10.4359
▁interpretation	-10.4359
▁08	-10.4361
▁Thom	-10.4361
▁reality	-10.4365
▁ships	-10.4365
▁fool	-10.4368
▁Arabic	-10.4368
▁quickly	-10.4368
▁extra	-10.4369
▁Solar	-10.4369
▁thereby	-10.4371
▁receiv	-10.4371
▁guru	-10.4372
▁Just	-10.4372
▁pick	-10.4373
▁48	-10.4373
▁Bose	-10.4375
▁topic	-10.4376
▁rebel	-10.4377
▁blown	-10.4377
▁Mahara	-10.4377
▁Auto	-10.4377
▁plead	-10.4378
▁majority	-10.4379
▁Amendment	-10.4379
▁Mother	-10.4382
▁36	-10.439
▁recently	-10.4391
▁limitation	-10.4394
▁grain	-10.4394
▁hug	-10.4395
▁CRA	-10.4395
▁noise	-10.4397
▁mud	-10.4398
▁lac	-10.4399
posed	-10.44
▁behold	-10.44
aughter	-10.4407
▁deleted	-10.4407
▁classes	-10.441
▁variet	-10.4416
▁bio	-10.4418
▁Read	-10.4421
▁Praise	-10.4425
EP	-10.4426
▁obtained	-10.4426
▁cup	-10.4431
umba	-10.4441
▁Pass	-10.4444
▁difficulty	-10.4449
elf	-10.445
mail	-10.4458
▁wine	-10.4459
omin	-10.4461
▁seated	-10.4462
▁Ask	-10.4473
▁entirely	-10.448
▁van	-10.448
▁processes	-10.448
▁undergo	-10.448
ecurities	-10.4489
▁Roy	-10.449
▁foundation	-10.4497
▁Nana	-10.4497
▁Mim	-10.4524
30	-10.4542
▁Nil	-10.4565
suf	-10.4585
80	-10.4614
▁enhanc	-10.4617
▁concept	-10.4619
▁parliament	-10.4634
lessness	-10.4645
lusion	-10.4661
key	-10.4675
▁III	-10.4682
NR	-10.4697
▁Bag	-10.4716
zi	-10.4764
zer	-10.4779
▁Tea	-10.479
66	-10.4803
intend	-10.4807
▁85	-10.4842
ashi	-10.4884
▁socio	-10.4888
▁Modi	-10.4925
taining	-10.5015
▁germ	-10.5044
bility	-10.514
▁Hari	-10.5162
well	-10.5166
▁tooth	-10.5171
▁organization	-10.5252
riya	-10.5254
▁effort	-10.5257
▁Arabia	-10.5258
▁valid	-10.526
▁statu	-10.5266
ifer	-10.5319
coming	-10.5333
▁decor	-10.5333
▁defen	-10.5358
▁ensur	-10.5361
▁song	-10.5398
▁Access	-10.5475
▁lev	-10.5478
▁Iraq	-10.5478
*	-10.5479
science	-10.5479
complete	-10.5481
system	-10.5482
nanda	-10.5482
India	-10.5483
house	-10.5499
▁obtain	-10.5502
rist	-10.5503
▁launch	-10.5504
Who	-10.5507
box	-10.5507
▁define	-10.5532
rror	-10.5538
▁technolog	-10.5553
habit	-10.5561
▁comput	-10.5573
▁interpret	-10.5578
▁fold	-10.5581
▁denie	-10.5581
▁corrupt	-10.5581
▁cultivat	-10.5581
▁princip	-10.5584
▁Author	-10.5587
hrough	-10.5589
rivate	-10.5593
▁descend	-10.5593
▁fulfil	-10.5594
▁accompani	-10.5594
▁efficient	-10.5594
▁experiment	-10.5594
▁extensive	-10.5594
▁immense	-10.5594
▁necessit	-10.5594
▁neighbour	-10.5594
▁submissive	-10.5594
▁Administrati	-10.5594
▁Affairs	-10.5594
▁Association	-10.5594
▁Brahmin	-10.5594
▁Business	-10.5594
▁Chaitanya	-10.5594
▁College	-10.5594
▁Configur	-10.5594
▁Control	-10.5594
▁Desktop	-10.5594
▁Google	-10.5594
▁Hamachi	-10.5594
▁Independence	-10.5594
▁Knower	-10.5594
▁Kolkata	-10.5594
▁Mauritius	-10.5594
▁Plugin	-10.5594
▁Similarly	-10.5594
▁Welfare	-10.5594
▁anywhere	-10.5594
▁congratulate	-10.5594
▁crisis	-10.5594
▁democrat	-10.5594
▁determination	-10.5594
▁draft	-10.5594
▁emphasis	-10.5594
▁exempt	-10.5594
▁familiar	-10.5594
▁infinite	-10.5594
▁inspired	-10.5594
▁intercourse	-10.5594
▁jurisdiction	-10.5594
▁livelihood	-10.5594
▁negative	-10.5594
▁opposite	-10.5594
▁outstanding	-10.5594
▁poverty	-10.5594
▁receipt	-10.5594
▁safeguard	-10.5594
▁sustenance	-10.5594
▁symptom	-10.5594
▁temperature	-10.5594
▁triumph	-10.5594
▁Effect	-10.5594
▁Encrypt	-10.5594
▁Narendra	-10.5594
▁Previous	-10.5594
▁Yoga	-10.5594
▁chemical	-10.5594
▁collaborati	-10.5594
▁compassionate	-10.5594
▁imagine	-10.5594
▁inhabitants	-10.5594
▁mislead	-10.5594
▁operating	-10.5594
▁prevail	-10.5594
▁wrongdoers	-10.5594
▁Abdul	-10.5594
▁leaf	-10.5594
▁preparation	-10.5594
▁quarter	-10.5594
▁recruit	-10.5594
▁signature	-10.5594
▁twain	-10.5594
▁French	-10.5594
▁palace	-10.5594
▁stuff	-10.5594
▁unknown	-10.5594
▁Process	-10.5594
▁defect	-10.5594
▁plague	-10.5594
▁chamber	-10.5594
▁hardware	-10.5594
▁substanti	-10.5594
▁Video	-10.5594
▁decline	-10.5594
▁Odisha	-10.5594
▁delight	-10.5594
▁otherwise	-10.5594
▁perceive	-10.5594
▁Akbar	-10.5594
▁Kerala	-10.5594
▁Major	-10.5594
▁deceive	-10.5594
▁enemy	-10.5594
▁floor	-10.5594
▁abode	-10.5594
▁accused	-10.5594
▁flesh	-10.5594
▁herself	-10.5594
▁Large	-10.5594
▁geographical	-10.5594
▁jinn	-10.5594
▁Facilit	-10.5594
▁archive	-10.5594
▁Kumar	-10.5594
▁Arjun	-10.5594
▁jute	-10.5594
▁rapid	-10.5594
▁Flag	-10.5594
▁Three	-10.5594
▁Trade	-10.5594
▁conquer	-10.5594
▁echo	-10.5594
▁daily	-10.5594
▁Russia	-10.5594
▁colon	-10.5594
▁deaf	-10.5594
▁Besides	-10.5594
▁sharp	-10.5595
▁prompt	-10.5595
▁critical	-10.5595
▁teeth	-10.5595
▁confus	-10.5595
▁ornament	-10.5595
▁drum	-10.5595
▁falsehood	-10.5595
▁descendants	-10.5595
alaya	-10.5595
▁commission	-10.5595
▁Nico	-10.5596
▁Maharashtra	-10.5596
▁Standard	-10.5596
▁Close	-10.5596
▁excit	-10.5596
▁temporary	-10.5597
▁Sometime	-10.5597
▁Cultur	-10.5597
▁childhood	-10.5597
▁icon	-10.5598
▁predict	-10.5598
▁submission	-10.5598
▁continuous	-10.5598
▁Himalaya	-10.5598
▁respondent	-10.5598
▁argue	-10.5598
9-2	-10.5599
▁creativ	-10.5599
ROM	-10.5599
▁guardian	-10.5599
▁dwellings	-10.56
▁Teach	-10.5601
▁curse	-10.5601
ensus	-10.5601
▁Lanka	-10.5601
escence	-10.5602
▁1990	-10.5602
▁bomb	-10.5602
▁exploitation	-10.5602
▁Mount	-10.5603
▁2011	-10.5603
▁bull	-10.5603
▁belied	-10.5604
▁Find	-10.5604
▁acknowledge	-10.5604
▁missing	-10.5605
▁1999	-10.5605
▁naught	-10.5605
▁panel	-10.5607
▁1992	-10.5607
▁mono	-10.5608
▁keen	-10.5608
▁bride	-10.5609
▁Code	-10.5609
▁scor	-10.561
▁Automatically	-10.561
▁amend	-10.561
▁executive	-10.5611
▁suddenly	-10.5612
▁Disable	-10.5612
▁route	-10.5615
▁cold	-10.5617
▁emotional	-10.5618
▁06	-10.5618
▁mock	-10.5618
▁refugees	-10.5618
ounce	-10.5619
▁shout	-10.5619
▁lack	-10.5619
▁Federa	-10.5621
▁strive	-10.5621
▁Sort	-10.5622
tomic	-10.5622
▁frequently	-10.5622
▁judgement	-10.5623
▁hang	-10.5626
▁Germany	-10.5627
▁chro	-10.5629
▁Although	-10.5632
▁Poet	-10.5634
▁pound	-10.5635
▁professional	-10.5639
▁coco	-10.5639
▁scan	-10.5639
▁Port	-10.5641
▁soft	-10.5642
▁finally	-10.5642
▁chain	-10.5642
▁Press	-10.5642
▁Song	-10.565
▁wheat	-10.5654
▁Grac	-10.5658
▁metre	-10.566
▁plate	-10.5664
▁cool	-10.5667
▁34	-10.5667
▁tag	-10.5668
▁ice	-10.567
▁tall	-10.5671
endra	-10.5674
▁Hand	-10.5678
charya	-10.568
▁prisoner	-10.5683
▁Abou	-10.5691
▁disk	-10.5692
▁Forum	-10.5696
yog	-10.5698
▁director	-10.5703
▁TV	-10.5703
▁overcom	-10.5705
▁cure	-10.5707
▁Vig	-10.5708
atya	-10.5724
▁ties	-10.574
▁cave	-10.5742
▁Force	-10.5743
ersonnel	-10.5766
▁lend	-10.5789
void	-10.5797
▁pop	-10.5802
▁Was	-10.5827
▁career	-10.5844
raser	-10.5863
▁hum	-10.5863
98	-10.5867
ordination	-10.5884
▁horr	-10.6016
IV	-10.6032
room	-10.608
Regulation	-10.6081
▁retain	-10.6129
erivative	-10.6157
reasonable	-10.6182
deva	-10.6189
▁improv	-10.6195
crease	-10.622
worthy	-10.628
ML	-10.6287
glo	-10.6291
▁02	-10.6325
▁800	-10.6332
HAR	-10.6353
rose	-10.6366
orizontal	-10.6374
tained	-10.6466
▁42	-10.6503
▁Jan	-10.6576
▁Aware	-10.6585
▁believ	-10.666
▁55	-10.6671
▁achievement	-10.6696
vested	-10.6706
▁writ	-10.6716
minal	-10.6727
▁Sea	-10.6775
inning	-10.6831
▁Hid	-10.6856
vailable	-10.6895
ground	-10.6905
Z	-10.6909
Indeed	-10.691
God	-10.6912
▁prison	-10.692
▁Geo	-10.6932
▁citizen	-10.6946
▁constitute	-10.6964
▁Kali	-10.6981
▁physic	-10.6985
▁German	-10.6985
▁innovat	-10.6985
▁situat	-10.6999
rdo	-10.7002
▁undertake	-10.7011
venue	-10.7015
▁assess	-10.7017
▁Second	-10.7019
▁announce	-10.702
▁occur	-10.7021
57	-10.7022
rong	-10.7022
imately	-10.7022
▁Afghan	-10.7023
▁accompany	-10.7023
nniversar	-10.7023
▁Assembly	-10.7023
▁Audio	-10.7023
▁Bangladesh	-10.7023
▁Buddha	-10.7023
▁Chhattisgarh	-10.7023
▁Companies	-10.7023
▁Egypt	-10.7023
▁Election	-10.7023
▁IMAP	-10.7023
▁Ibrahim	-10.7023
▁Implementation	-10.7023
▁Industry	-10.7023
▁Language	-10.7023
▁MSME	-10.7023
▁Maxim	-10.7023
▁Paradise	-10.7023
▁Perhaps	-10.7023
▁Procedure	-10.7023
▁Record	-10.7023
▁Return	-10.7023
▁Sikkim	-10.7023
▁Universities	-10.7023
▁Vivekananda	-10.7023
▁YouTube	-10.7023
▁accomplish	-10.7023
▁administer	-10.7023
▁admonition	-10.7023
▁architecture	-10.7023
▁categories	-10.7023
▁category	-10.7023
▁clubs	-10.7023
▁coffee	-10.7023
▁concentration	-10.7023
▁connectivity	-10.7023
▁constraint	-10.7023
▁context	-10.7023
▁corporation	-10.7023
▁cricket	-10.7023
▁crowd	-10.7023
▁diplomacy	-10.7023
▁disclosure	-10.7023
▁disobey	-10.7023
▁dissolution	-10.7023
▁diversity	-10.7023
▁envisage	-10.7023
▁equivalent	-10.7023
▁felicitat	-10.7023
▁incorporat	-10.7023
▁indigenous	-10.7023
▁injustice	-10.7023
▁integral	-10.7023
▁integration	-10.7023
▁irrigation	-10.7023
▁maturity	-10.7023
▁miracle	-10.7023
▁mixture	-10.7023
▁negotiat	-10.7023
▁obedient	-10.7023
▁recognition	-10.7023
▁recompense	-10.7023
▁significance	-10.7023
▁solemn	-10.7023
▁steadfast	-10.7023
▁studied	-10.7023
▁supplement	-10.7023
▁surrender	-10.7023
▁thread	-10.7023
▁tribunal	-10.7023
▁universal	-10.7023
▁vegetable	-10.7023
▁vehicle	-10.7023
▁volunteer	-10.7023
▁whisper	-10.7023
▁wisdom	-10.7023
▁applicable	-10.7023
▁convention	-10.7023
▁convince	-10.7023
▁depict	-10.7023
▁discount	-10.7023
▁implication	-10.7023
▁inflict	-10.7023
▁monkey	-10.7023
▁rainfall	-10.7023
▁segment	-10.7023
▁Follow	-10.7023
▁Freedom	-10.7023
▁Object	-10.7023
▁accurate	-10.7023
▁conclusion	-10.7023
▁discourse	-10.7023
▁efficiency	-10.7023
▁fraction	-10.7023
▁maintenance	-10.7023
▁mandapa	-10.7023
▁oriented	-10.7023
▁package	-10.7023
▁plaintiff	-10.7023
▁subsidy	-10.7023
▁valuable	-10.7023
Calendar	-10.7023
▁completion	-10.7023
▁prophet	-10.7023
▁Owner	-10.7023
▁assurance	-10.7023
▁dairy	-10.7023
▁dismiss	-10.7023
croll	-10.7023
▁frighten	-10.7023
▁snake	-10.7023
▁tomorrow	-10.7023
▁Photo	-10.7023
▁Gupta	-10.7023
▁attention	-10.7023
▁Foundation	-10.7023
▁PDF	-10.7023
▁Raghu	-10.7023
▁Museum	-10.7023
▁harmony	-10.7023
▁Attach	-10.7023
▁postpone	-10.7023
▁voluntar	-10.7023
▁click	-10.7023
▁2001	-10.7023
▁Resource	-10.7023
▁injured	-10.7023
▁Session	-10.7023
▁Club	-10.7023
▁Jesus	-10.7023
▁Cause	-10.7023
▁debate	-10.7023
▁resort	-10.7023
▁Manager	-10.7023
▁quote	-10.7023
▁Ganges	-10.7023
▁bliss	-10.7023
▁dread	-10.7023
▁expert	-10.7023
▁prominen	-10.7023
▁disaster	-10.7023
▁sweet	-10.7023
▁Govt	-10.7023
▁Human	-10.7023
▁label	-10.7023
▁detect	-10.7023
▁warrant	-10.7023
▁supra	-10.7023
▁Sardar	-10.7023
▁carved	-10.7023
▁confine	-10.7023
▁Track	-10.7023
▁myself	-10.7023
▁Persian	-10.7023
▁metro	-10.7023
▁Year	-10.7023
▁Assess	-10.7023
VICE	-10.7023
▁hypocrites	-10.7023
▁cache	-10.7023
▁silent	-10.7023
▁thick	-10.7023
▁Fair	-10.7023
▁advent	-10.7024
▁joy	-10.7024
▁Statu	-10.7024
▁housing	-10.7024
agger	-10.7024
▁Center	-10.7024
▁admission	-10.7024
▁ordain	-10.7024
▁mistake	-10.7024
▁Promot	-10.7024
▁identity	-10.7024
▁lease	-10.7024
▁adhere	-10.7024
Jacob	-10.7025
▁Music	-10.7025
▁regime	-10.7025
▁pride	-10.7025
▁retire	-10.7025
▁investors	-10.7025
▁insurance	-10.7025
nsurance	-10.7025
▁Hamas	-10.7025
▁realisation	-10.7025
announced	-10.7025
▁profile	-10.7025
▁Convocation	-10.7025
▁losers	-10.7025
▁guidelines	-10.7026
▁adverse	-10.7026
▁equity	-10.7026
▁wives	-10.7026
▁Again	-10.7026
▁airport	-10.7026
▁intelligence	-10.7026
▁indication	-10.7026
nvalid	-10.7027
▁mining	-10.7027
▁Adam	-10.7027
▁reproduc	-10.7027
870	-10.7027
▁fled	-10.7027
▁revolutionary	-10.7028
▁scripture	-10.7028
▁1948	-10.7028
▁settle	-10.7028
▁legislature	-10.7028
izard	-10.7028
SION	-10.7028
▁eliminat	-10.7028
▁2020	-10.7028
▁2019	-10.7029
▁insert	-10.7029
▁Protection	-10.703
▁infant	-10.703
▁bookmark	-10.703
▁Indra	-10.7031
▁diverse	-10.7031
▁laboratory	-10.7032
ATI	-10.7032
▁Nagar	-10.7033
▁horn	-10.7033
▁biggest	-10.7033
enalty	-10.7033
▁amendment	-10.7033
▁tribe	-10.7033
▁bridge	-10.7034
▁discipline	-10.7034
▁exalt	-10.7035
▁initial	-10.7035
▁secretary	-10.7035
limate	-10.7037
▁authentication	-10.7037
▁flee	-10.7037
▁Local	-10.7037
▁strange	-10.7038
▁corruption	-10.7038
▁Writ	-10.7038
▁rail	-10.7038
▁bath	-10.7039
▁EX	-10.7039
storm	-10.704
▁Marath	-10.704
▁Online	-10.704
▁allowance	-10.704
▁theatre	-10.704
▁charity	-10.7041
▁consistent	-10.7041
▁attachment	-10.7042
▁dependent	-10.7045
▁engagement	-10.7045
▁187	-10.7046
▁pond	-10.7046
▁passage	-10.7046
▁Road	-10.7048
▁acceptance	-10.7048
▁agent	-10.7049
▁undertaken	-10.7049
▁capable	-10.7049
▁100%	-10.705
▁coast	-10.7052
▁bila	-10.7057
▁hair	-10.7058
▁Color	-10.7058
▁Stand	-10.7058
▁Lock	-10.706
▁Noah	-10.7061
▁115	-10.7062
▁rejection	-10.7062
▁assume	-10.7063
▁passive	-10.7063
▁47	-10.7064
▁vol	-10.7067
EST	-10.7068
▁compil	-10.7069
▁grass	-10.707
▁err	-10.707
▁selection	-10.7077
▁mango	-10.7079
▁assembl	-10.708
▁threaten	-10.7082
▁consumer	-10.7083
▁rage	-10.7084
▁bush	-10.7085
▁52	-10.7091
fringe	-10.7101
▁Spo	-10.7108
▁glorif	-10.7115
▁consolidat	-10.7133
▁Medic	-10.7136
▁tip	-10.7138
▁achiev	-10.7146
▁Iraqi	-10.7158
oreign	-10.7159
Operation	-10.7179
ssemblies	-10.7189
▁household	-10.7201
▁monitor	-10.7216
tension	-10.7242
bark	-10.729
▁Place	-10.7305
nkara	-10.7306
▁Off	-10.7328
cise	-10.7381
▁equa	-10.7391
▁invest	-10.7407
▁participat	-10.7444
▁poetic	-10.7525
ferred	-10.7538
verted	-10.7597
▁reduc	-10.7604
▁psych	-10.7686
▁Saha	-10.7733
▁resid	-10.7836
plicate	-10.7873
worm	-10.7928
END	-10.7986
”“	-10.8124
▁formula	-10.8133
▁characteriz	-10.8133
▁hydro	-10.8203
▁Parliamentar	-10.824
▁parliamentar	-10.8257
▁boundar	-10.8282
rohibition	-10.8292
▁angel	-10.8361
▁invalid	-10.8394
▁chang	-10.8407
▁introduc	-10.8442
EVE	-10.8448
rove	-10.8528
▁authentic	-10.8566
Abraham	-10.8572
organis	-10.8574
{	-10.8576
front	-10.8576
friend	-10.8576
people	-10.8578
large	-10.8578
print	-10.8584
kind	-10.8586
▁mort	-10.8613
▁petition	-10.8623
ambar	-10.8647
▁frequent	-10.8651
▁quick	-10.8655
serving	-10.8661
ufficient	-10.8662
numer	-10.8666
▁deduct	-10.867
rname	-10.8676
▁eviden	-10.8682
unction	-10.8683
cific	-10.8684
cision	-10.8685
▁Script	-10.8686
ndustrial	-10.8687
▁Wind	-10.8688
ponent	-10.8689
cipient	-10.8689
▁Academ	-10.8689
▁Physical	-10.8689
▁abnormal	-10.8689
▁resurrect	-10.8689
▁statistic	-10.8689
.06.201	-10.8689
ASEAN	-10.8689
pplause	-10.8689
▁Advocate	-10.8689
▁Ahmedabad	-10.8689
▁Akademi	-10.8689
▁Benefit	-10.8689
▁Capital	-10.8689
▁Chalukya	-10.8689
▁Chandigarh	-10.8689
▁Commerce	-10.8689
▁Contract	-10.8689
▁Democracy	-10.8689
▁Digital	-10.8689
▁Download	-10.8689
▁Gazette	-10.8689
▁Hussein	-10.8689
▁Integrat	-10.8689
▁Jerusalem	-10.8689
▁Journal	-10.8689
▁Malayalam	-10.8689
▁Maldives	-10.8689
▁Orissa	-10.8689
▁Popular	-10.8689
▁Practice	-10.8689
▁Protocol	-10.8689
▁Provision	-10.8689
▁Secretary	-10.8689
▁Signature	-10.8689
▁Sucharita	-10.8689
▁Terrorism	-10.8689
▁Tribunal	-10.8689
▁Uttarakhand	-10.8689
▁VISIT	-10.8689
▁Vaishnava	-10.8689
▁Valley	-10.8689
▁aggressive	-10.8689
▁alcohol	-10.8689
▁aspirations	-10.8689
▁bamboo	-10.8689
▁browser	-10.8689
▁circuit	-10.8689
▁concentrate	-10.8689
▁confident	-10.8689
▁contemplat	-10.8689
▁deceased	-10.8689
▁despair	-10.8689
▁divorce	-10.8689
▁enormous	-10.8689
▁evolv	-10.8689
▁fabricate	-10.8689
▁faculty	-10.8689
▁frustrate	-10.8689
▁glacier	-10.8689
▁glitter	-10.8689
▁gossip	-10.8689
▁identification	-10.8689
▁ignorant	-10.8689
▁integrate	-10.8689
▁interface	-10.8689
▁license	-10.8689
▁mandatory	-10.8689
▁mechanical	-10.8689
▁obligation	-10.8689
▁pandemic	-10.8689
▁possibility	-10.8689
▁quarrel	-10.8689
▁reconciliation	-10.8689
▁remembrance	-10.8689
▁resistance	-10.8689
▁retribution	-10.8689
▁sequence	-10.8689
▁soldiers	-10.8689
▁sovereign	-10.8689
▁substitute	-10.8689
▁throne	-10.8689
▁unlawful	-10.8689
migrant	-10.8689
▁Abdullah	-10.8689
▁Heritage	-10.8689
▁Organization	-10.8689
▁Subhash	-10.8689
▁Summit	-10.8689
▁acquaint	-10.8689
▁awaken	-10.8689
▁budget	-10.8689
▁communal	-10.8689
▁incentives	-10.8689
▁intestine	-10.8689
▁lecture	-10.8689
▁meditation	-10.8689
▁muscle	-10.8689
▁museum	-10.8689
▁threw	-10.8689
▁tobacco	-10.8689
▁trunk	-10.8689
▁upgrad	-10.8689
▁wicket	-10.8689
▁Archive	-10.8689
▁Consider	-10.8689
▁Transport	-10.8689
▁Universe	-10.8689
▁abandon	-10.8689
▁contrary	-10.8689
▁evildoers	-10.8689
▁grateful	-10.8689
▁shadow	-10.8689
▁Madras	-10.8689
▁Number	-10.8689
▁Require	-10.8689
▁Zoom	-10.8689
▁holistic	-10.8689
▁jungle	-10.8689
▁transmission	-10.8689
▁vessel	-10.8689
▁Jaipur	-10.8689
▁Sahib	-10.8689
▁captain	-10.8689
▁disorder	-10.8689
▁flood	-10.8689
▁highlight	-10.8689
▁packet	-10.8689
▁Friend	-10.8689
▁Manipur	-10.8689
▁Rajput	-10.8689
▁Screen	-10.8689
▁accelerat	-10.8689
▁excuse	-10.8689
▁utilis	-10.8689
▁Airport	-10.8689
▁White	-10.8689
▁expell	-10.8689
▁substance	-10.8689
▁valley	-10.8689
▁Haryana	-10.8689
▁cotton	-10.8689
▁fibre	-10.8689
▁ultimate	-10.8689
▁Judge	-10.8689
▁Metro	-10.8689
▁composer	-10.8689
▁prince	-10.8689
▁remote	-10.8689
fortunate	-10.8689
Prevention	-10.8689
rumpet	-10.8689
▁Faith	-10.8689
▁fetch	-10.8689
▁marble	-10.8689
▁penetrat	-10.8689
▁wrongdoing	-10.8689
▁Tourism	-10.8689
▁licence	-10.8689
▁NIO	-10.8689
▁accommodat	-10.8689
▁somehow	-10.8689
▁wax	-10.8689
▁vaccin	-10.8689
▁shelter	-10.8689
▁Azad	-10.8689
▁wander	-10.8689
▁Further	-10.8689
▁shoot	-10.8689
▁street	-10.8689
▁diagnos	-10.8689
▁delta	-10.869
▁crash	-10.869
▁absence	-10.869
▁Kavya	-10.869
▁fortune	-10.869
▁Vijay	-10.869
▁loving	-10.869
▁Army	-10.869
▁organic	-10.869
▁Position	-10.869
▁philosophical	-10.869
▁wedding	-10.869
▁Command	-10.869
▁baby	-10.869
▁leather	-10.869
▁thunder	-10.869
▁Pandit	-10.869
▁clothes	-10.869
▁ethos	-10.869
▁Turkey	-10.869
▁contend	-10.869
▁Minute	-10.869
dispens	-10.869
▁Building	-10.869
▁France	-10.869
▁adapt	-10.869
▁Trash	-10.869
▁gross	-10.869
▁extract	-10.869
▁pronounc	-10.869
▁pull	-10.869
OVER	-10.869
▁vimana	-10.869
▁Link	-10.869
▁smoke	-10.869
▁epic	-10.869
plasm	-10.869
▁reconstruction	-10.869
▁disabled	-10.869
liberation	-10.869
▁suppose	-10.869
▁Nadu	-10.869
▁Child	-10.869
▁Wild	-10.869
▁melod	-10.869
▁Small	-10.869
▁loyal	-10.869
▁framework	-10.869
▁ICT	-10.869
▁persists	-10.869
▁Issue	-10.869
▁James	-10.869
▁lyric	-10.869
▁complicate	-10.8691
▁Present	-10.8691
▁sperm	-10.8691
▁withdraw	-10.8691
▁Syria	-10.8691
▁smile	-10.8691
▁Woe	-10.8691
▁compass	-10.8691
▁availability	-10.8691
▁thankful	-10.8691
▁sheep	-10.8691
▁Preference	-10.8691
▁Copyright	-10.8691
▁immun	-10.8691
▁relief	-10.8691
▁compensation	-10.8691
▁practical	-10.8692
▁semen	-10.8692
▁Free	-10.8692
▁(5)	-10.8692
▁pace	-10.8692
▁goddess	-10.8692
▁Memor	-10.8693
▁rice	-10.8693
▁stress	-10.8693
▁precise	-10.8693
▁culminat	-10.8693
▁Hindustan	-10.8693
▁distinguished	-10.8693
▁desist	-10.8693
▁sharing	-10.8693
▁interval	-10.8693
▁creed	-10.8694
▁preference	-10.8694
lipboard	-10.8694
▁civilization	-10.8694
▁Secondary	-10.8694
▁urea	-10.8694
▁southern	-10.8694
▁practised	-10.8694
▁genu	-10.8694
▁melt	-10.8695
▁Ayat	-10.8695
▁quantity	-10.8695
▁magician	-10.8695
▁slew	-10.8696
▁plunge	-10.8696
▁Musa	-10.8696
▁technologies	-10.8696
▁lust	-10.8696
▁easier	-10.8697
▁machinery	-10.8697
▁breed	-10.8697
▁displace	-10.8697
▁lord	-10.8697
▁varieties	-10.8697
▁hostile	-10.8697
▁ascend	-10.8697
▁dramatic	-10.8697
▁plen	-10.8698
▁repentance	-10.8698
▁brick	-10.8698
▁Single	-10.8699
▁accrue	-10.8699
▁arbitrat	-10.87
▁regulations	-10.87
▁prospect	-10.87
▁Old	-10.87
OUT	-10.87
▁seventy	-10.87
▁lovers	-10.87
▁textile	-10.87
▁jail	-10.8701
▁dedicate	-10.8701
▁Satan	-10.8701
▁depart	-10.8702
▁electricity	-10.8702
mpty	-10.8702
ENE	-10.8702
▁Grant	-10.8702
▁robbe	-10.8703
▁financing	-10.8704
nstead	-10.8704
▁1998	-10.8704
xcept	-10.8706
▁beasts	-10.8706
▁lips	-10.8709
▁weep	-10.871
▁factories	-10.871
▁Premch	-10.871
dhya	-10.8712
▁appearance	-10.8712
▁Jack	-10.8716
▁brave	-10.8717
rtz	-10.8726
▁dump	-10.8728
▁shame	-10.8732
mbled	-10.8739
etention	-10.8752
▁bigge	-10.8753
▁ideolog	-10.8757
▁transmit	-10.8761
royal	-10.877
▁Format	-10.8773
▁impose	-10.8806
▁classic	-10.8821
▁originate	-10.8843
sourc	-10.8854
▁dynamic	-10.8858
▁subtl	-10.8895
▁repos	-10.8931
▁impro	-10.8951
unning	-10.8976
ddin	-10.8978
sibilit	-10.903
LIN	-10.9036
▁decorate	-10.9057
▁impart	-10.9125
▁hydroge	-10.9201
hould	-10.9237
▁figur	-10.9242
lung	-10.9254
▁careful	-10.9293
Produc	-10.9333
IIM	-10.9356
▁Prasa	-10.9407
stitution	-10.9454
▁exhibitio	-10.957
aggregate	-10.9595
▁illustr	-10.9642
current	-10.979
undi	-10.9794
rassment	-10.9813
▁coordinat	-10.9818
▁CHA	-10.9828
proofs	-10.9841
lasting	-11.0026
▁purif	-11.0066
hibition	-11.0189
▁continu	-11.0231
▁Garden	-11.0343
▁revelation	-11.0346
onitoring	-11.0418
▁eligib	-11.0516
script	-11.0531
▁appro	-11.0551
▁intention	-11.0562
operation	-11.0573
Tax	-11.0573
November	-11.0574
ordinar	-11.0575
continue	-11.0576
folk	-11.0576
Moses	-11.0576
class	-11.0576
clause	-11.0577
economic	-11.0577
while	-11.0578
▁Direct	-11.0579
water	-11.058
▁publish	-11.06
film	-11.0606
▁recognise	-11.0627
▁plea	-11.0629
safe	-11.063
▁emotion	-11.065
▁nigh	-11.0651
▁energ	-11.066
utomatically	-11.0664
▁prohibit	-11.0669
▁destin	-11.0674
▁govern	-11.0677
▁constitu	-11.0679
stablishment	-11.0681
▁respond	-11.0682
cogniz	-11.0684
▁quant	-11.0687
journ	-11.0689
▁Deposit	-11.0689
▁fifteen	-11.0689
▁scatter	-11.0689
▁specimen	-11.0689
.09.201	-11.0689
Advanced	-11.0689
Believe	-11.0689
Provincial	-11.0689
elebration	-11.0689
mmigration	-11.0689
obligatory	-11.0689
percussion	-11.0689
rtificial	-11.0689
▁Ambedkar	-11.0689
▁Australia	-11.0689
▁Beneficent	-11.0689
▁Buddhism	-11.0689
▁Communication	-11.0689
▁Guardian	-11.0689
▁Mahasabha	-11.0689
▁Majesty	-11.0689
▁Mizoram	-11.0689
▁Nagaland	-11.0689
▁Parameter	-11.0689
▁Seychelles	-11.0689
▁Tehran	-11.0689
▁Udaipur	-11.0689
▁Unicode	-11.0689
▁Upgrad	-11.0689
▁Vaishnavi	-11.0689
▁Washington	-11.0689
▁admissib	-11.0689
▁admonish	-11.0689
▁advocate	-11.0689
▁afraid	-11.0689
▁arrogance	-11.0689
▁audience	-11.0689
▁beneficial	-11.0689
▁calculate	-11.0689
▁calculation	-11.0689
▁candidate	-11.0689
▁combination	-11.0689
▁comprehend	-11.0689
▁concession	-11.0689
▁consumption	-11.0689
▁curriculum	-11.0689
▁delegate	-11.0689
▁deliberate	-11.0689
▁demonstrate	-11.0689
▁dimension	-11.0689
▁disabilities	-11.0689
▁disappear	-11.0689
▁disposal	-11.0689
▁encouraging	-11.0689
▁enforcement	-11.0689
▁enterprise	-11.0689
▁enthusias	-11.0689
▁exclusive	-11.0689
▁finished	-11.0689
▁hereditary	-11.0689
▁horticulture	-11.0689
▁hygiene	-11.0689
▁incumbent	-11.0689
▁jealous	-11.0689
▁judicial	-11.0689
▁judiciary	-11.0689
▁liberty	-11.0689
▁necessarily	-11.0689
▁neglect	-11.0689
▁nematode	-11.0689
▁newspapers	-11.0689
▁passenger	-11.0689
▁perception	-11.0689
▁pigeon	-11.0689
▁pollutant	-11.0689
▁propaganda	-11.0689
▁qualities	-11.0689
▁refund	-11.0689
▁rhythm	-11.0689
▁serpent	-11.0689
▁spontaneous	-11.0689
▁sprinkl	-11.0689
▁stakeholders	-11.0689
▁stimul	-11.0689
▁suffice	-11.0689
▁superficial	-11.0689
▁surprise	-11.0689
▁testimony	-11.0689
▁thrill	-11.0689
▁trekking	-11.0689
▁tuberculosis	-11.0689
▁tunnel	-11.0689
▁universities	-11.0689
▁utilization	-11.0689
▁virtual	-11.0689
ttorney	-11.0689
unicipal	-11.0689
▁Auditor	-11.0689
▁Collect	-11.0689
▁Ganesh	-11.0689
▁Punishment	-11.0689
▁autonom	-11.0689
▁bicycle	-11.0689
▁complication	-11.0689
▁distract	-11.0689
▁evaluat	-11.0689
▁exhort	-11.0689
▁fragment	-11.0689
▁idolaters	-11.0689
▁magnificen	-11.0689
▁negligen	-11.0689
▁productivity	-11.0689
▁refresh	-11.0689
▁retrieve	-11.0689
▁revision	-11.0689
▁ridicule	-11.0689
▁sentiments	-11.0689
▁vertically	-11.0689
agistrate	-11.0689
andharva	-11.0689
▁1922	-11.0689
▁Urdu	-11.0689
▁afford	-11.0689
▁combined	-11.0689
▁disciple	-11.0689
▁entrance	-11.0689
▁filename	-11.0689
▁hunger	-11.0689
▁inclined	-11.0689
▁operator	-11.0689
▁swallow	-11.0689
circum	-11.0689
▁Bhakti	-11.0689
▁Empathy	-11.0689
▁buoy	-11.0689
▁overthrow	-11.0689
▁relieve	-11.0689
▁timber	-11.0689
▁veteran	-11.0689
▁widow	-11.0689
ATES	-11.0689
▁compulsor	-11.0689
▁routine	-11.0689
▁Agency	-11.0689
▁Buil	-11.0689
▁Pension	-11.0689
▁Reload	-11.0689
▁cursor	-11.0689
▁generous	-11.0689
▁leverage	-11.0689
▁nurture	-11.0689
▁random	-11.0689
▁suppress	-11.0689
▁virtuo	-11.0689
continent	-11.0689
▁Greek	-11.0689
▁PRAN	-11.0689
▁ecological	-11.0689
▁Brief	-11.0689
▁Flood	-11.0689
▁Obama	-11.0689
▁Ramayana	-11.0689
▁expedit	-11.0689
▁grief	-11.0689
▁impulse	-11.0689
▁sensation	-11.0689
▁globe	-11.0689
Mahabharat	-11.0689
▁Labour	-11.0689
▁anxious	-11.0689
▁fourteen	-11.0689
▁Appoint	-11.0689
▁Repair	-11.0689
▁reiterate	-11.0689
▁fancy	-11.0689
▁Quality	-11.0689
▁couple	-11.0689
▁dialect	-11.0689
▁drought	-11.0689
▁narrate	-11.0689
▁outcome	-11.0689
▁universe	-11.0689
▁refute	-11.0689
▁periodically	-11.0689
▁Indira	-11.0689
▁Internet	-11.0689
▁dialogue	-11.0689
▁dirty	-11.0689
▁inevitabl	-11.0689
▁Danish	-11.0689
▁Witness	-11.0689
▁utility	-11.0689
{2}	-11.0689
▁client	-11.0689
▁crack	-11.0689
▁Version	-11.0689
▁novice	-11.0689
curred	-11.0689
▁Sultan	-11.0689
▁ecsta	-11.0689
▁mineral	-11.0689
▁sphere	-11.0689
▁wipe	-11.0689
▁Purana	-11.0689
▁renew	-11.069
▁alarm	-11.069
▁Sector	-11.069
magneti	-11.069
▁agency	-11.069
▁mouth	-11.069
gratitude	-11.069
▁restart	-11.069
▁breath	-11.069
▁patent	-11.069
▁Convert	-11.069
▁affinit	-11.069
▁companion	-11.069
▁dowry	-11.069
▁inherent	-11.069
▁voting	-11.069
▁Course	-11.069
▁sinners	-11.069
▁Satish	-11.069
▁Verma	-11.069
▁blast	-11.069
▁dozen	-11.069
▁rival	-11.069
▁Shiva	-11.069
▁straw	-11.069
▁Propert	-11.069
▁Welsh	-11.069
▁Input	-11.069
▁entries	-11.069
▁Earth	-11.069
tropic	-11.069
▁Source	-11.069
▁choice	-11.069
▁Password	-11.069
▁Mosque	-11.069
▁surge	-11.069
▁Politic	-11.069
▁lumin	-11.069
▁RBI	-11.069
▁Topic	-11.069
▁humility	-11.069
▁slander	-11.069
▁Grand	-11.069
▁contest	-11.069
▁Ship	-11.069
▁Daw	-11.069
▁violate	-11.069
khand	-11.069
▁operate	-11.0691
▁calamit	-11.0691
▁snow	-11.0691
▁Face	-11.0691
▁alliance	-11.0691
▁orphan	-11.0691
parallel	-11.0691
▁spouse	-11.0691
▁Welcom	-11.0691
▁Wales	-11.0691
▁molecul	-11.0691
Deliver	-11.0691
▁residence	-11.0691
▁Ishwar	-11.0691
▁Submission	-11.0691
▁stick	-11.0692
MENT	-11.0692
▁Kenya	-11.0692
▁cried	-11.0692
▁comprise	-11.0692
▁Cooperative	-11.0692
▁gravit	-11.0692
▁Restor	-11.0693
▁preced	-11.0693
RAMA	-11.0693
▁hub	-11.0693
▁hurt	-11.0693
Throw	-11.0693
▁electro	-11.0693
▁tourism	-11.0693
▁sake	-11.0694
▁Iron	-11.0694
▁coral	-11.0694
reliant	-11.0694
▁yoke	-11.0694
▁Wealth	-11.0695
▁ruin	-11.0695
asjid	-11.0695
▁Aryan	-11.0695
▁gopura	-11.0696
quake	-11.0696
▁verified	-11.0696
roadcast	-11.0698
▁Dutt	-11.0698
combat	-11.0699
elief	-11.0699
▁solid	-11.0701
▁hrs	-11.0702
▁guns	-11.0703
▁Grow	-11.0704
▁dense	-11.0704
▁Banga	-11.0704
ransfer	-11.0706
Recall	-11.0707
structur	-11.0709
▁compromise	-11.071
nesia	-11.0711
▁Khat	-11.0711
POP	-11.0713
▁Luc	-11.0713
▁stup	-11.0716
▁identi	-11.0722
Torah	-11.0725
▁immortal	-11.0726
▁Licen	-11.0728
▁anim	-11.0731
withstand	-11.0735
▁alternat	-11.0735
▁nerv	-11.0736
▁imitati	-11.0741
▁habitat	-11.0756
free	-11.0766
ikewise	-11.0768
▁specta	-11.0772
▁Fami	-11.0776
organisms	-11.0777
▁Puri	-11.0781
rrho	-11.0786
composition	-11.0797
▁scen	-11.0802
▁Full	-11.0818
▁heedless	-11.0829
nitial	-11.0847
CHAN	-11.0884
favourable	-11.0921
▁humbl	-11.0947
authorized	-11.1021
cultur	-11.1027
▁embodi	-11.106
PUR	-11.1143
▁disobedien	-11.118
▁Litera	-11.1204
uci	-11.1305
Shiv	-11.1322
▁Front	-11.1461
astro	-11.1485
▁harass	-11.1652
▁horizon	-11.1705
unshi	-11.1829
▁suppli	-11.1859
▁attribut	-11.1868
bdu	-11.1901
▁aggregat	-11.1918
factory	-11.1952
nterior	-11.1958
ignifi	-11.2037
shwa	-11.2135
▁Citizen	-11.2141
mportant	-11.2224
after	-11.2405
meaningful	-11.2424
moha	-11.2484
conception	-11.2555
obedience	-11.2592
▁semi	-11.2685
▁remit	-11.2811
▁servant	-11.2851
eceiving	-11.3016
▁glori	-11.3023
▁secur	-11.3025
defined	-11.3073
conduct	-11.3074
Verily	-11.3076
spread	-11.3076
includ	-11.3076
root	-11.3077
Government	-11.3078
&	-11.3078
When	-11.3078
That	-11.3078
▁register	-11.31
▁appli	-11.31
▁Agricultur	-11.3139
▁medicin	-11.3139
▁possibl	-11.314
housands	-11.3143
▁translat	-11.3145
▁sudden	-11.3152
▁Ministr	-11.3157
exual	-11.3162
peech	-11.3163
▁exploit	-11.3173
▁arbit	-11.3175
▁Protect	-11.3176
emporary	-11.318
apacity	-11.3182
▁intelligen	-11.3182
▁Multipl	-11.3184
▁milita	-11.3185
easures	-11.3186
▁Constitu	-11.3186
eligious	-11.3187
▁Automatic	-11.3187
distinguish	-11.3188
▁consequen	-11.3189
▁intellect	-11.3189
▁disillusion	-11.3189
▁octagon	-11.3189
▁peripher	-11.3189
▁Deekshai	-11.3189
▁beneficiar	-11.3189
▁manipulat	-11.3189
▁predecessor	-11.3189
.04.201	-11.3189
.07.201	-11.3189
.10.201	-11.3189
Conservation	-11.3189
Guwahati	-11.3189
ertilizer	-11.3189
iblah	-11.3189
iotechnology	-11.3189
provincial	-11.3189
roprietorship	-11.3189
trodden	-11.3189
▁Accredit	-11.3189
▁Antarctic	-11.3189
▁Assistance	-11.3189
▁Attribute	-11.3189
▁BIRTH	-11.3189
▁Bhagava	-11.3189
▁CENTR	-11.3189
▁Cluster	-11.3189
▁Computer	-11.3189
▁Cricket	-11.3189
▁Croatia	-11.3189
▁Cyrillic	-11.3189
▁DATE	-11.3189
▁Draft	-11.3189
▁Engineering	-11.3189
▁Festival	-11.3189
▁Gaudiya	-11.3189
▁Gehenna	-11.3189
▁Grievance	-11.3189
▁Hebrew	-11.3189
▁Hospital	-11.3189
▁Ignorance	-11.3189
▁Kirloskar	-11.3189
▁Lokayuktas	-11.3189
▁Makkah	-11.3189
▁Mirza	-11.3189
▁Monotheism	-11.3189
▁Nivedita	-11.3189
▁Olympic	-11.3189
▁Partnership	-11.3189
▁Peninsula	-11.3189
▁Petitioner	-11.3189
▁Professor	-11.3189
▁Redress	-11.3189
▁Resolution	-11.3189
▁Response	-11.3189
▁Satyagraha	-11.3189
▁Secretari	-11.3189
▁Simultaneous	-11.3189
▁Singapore	-11.3189
▁Society	-11.3189
▁Software	-11.3189
▁Structure	-11.3189
▁Taurat	-11.3189
▁Toggle	-11.3189
▁Traditional	-11.3189
▁UNIVERSIT	-11.3189
▁Upanishads	-11.3189
▁Varanasi	-11.3189
▁Vietnam	-11.3189
▁Volume	-11.3189
▁WORLD	-11.3189
▁Wikipedia	-11.3189
▁Yojana	-11.3189
▁administrator	-11.3189
▁adversity	-11.3189
▁advertisement	-11.3189
▁affirm	-11.3189
▁algorithm	-11.3189
▁altogether	-11.3189
▁ambulance	-11.3189
▁bhakti	-11.3189
▁bottle	-11.3189
▁brilliant	-11.3189
▁challenging	-11.3189
▁conjecture	-11.3189
▁consecrat	-11.3189
▁coronation	-11.3189
▁crucial	-11.3189
▁culprit	-11.3189
▁declaration	-11.3189
▁degrad	-11.3189
▁denomination	-11.3189
▁desktop	-11.3189
▁diamonds	-11.3189
▁diaspora	-11.3189
▁dioxide	-11.3189
▁discouraged	-11.3189
▁disputing	-11.3189
▁dissolved	-11.3189
▁distribute	-11.3189
▁effluent	-11.3189
▁eternity	-11.3189
▁flourish	-11.3189
▁fugitive	-11.3189
▁grandfather	-11.3189
▁grievances	-11.3189
▁guarantee	-11.3189
▁handicapped	-11.3189
▁harbour	-11.3189
▁harmdoers	-11.3189
▁harvest	-11.3189
▁humiliation	-11.3189
▁hymn	-11.3189
▁imperialis	-11.3189
▁leprosy	-11.3189
▁multiplier	-11.3189
▁narrative	-11.3189
▁obstruct	-11.3189
▁patriot	-11.3189
▁peculiar	-11.3189
▁phenomenon	-11.3189
▁pilgrims	-11.3189
▁politicians	-11.3189
▁portfolio	-11.3189
▁possibilities	-11.3189
▁predominant	-11.3189
▁preliminar	-11.3189
▁producing	-11.3189
▁prostration	-11.3189
▁protocol	-11.3189
▁relevance	-11.3189
▁satisfaction	-11.3189
▁shield	-11.3189
▁solitary	-11.3189
▁subordinate	-11.3189
▁suspens	-11.3189
▁throat	-11.3189
▁transparent	-11.3189
▁tremendous	-11.3189
▁unhappy	-11.3189
▁victorious	-11.3189
▁wrinkle	-11.3189
OUND	-11.3189
interdependen	-11.3189
nonymous	-11.3189
▁1890	-11.3189
▁Ahmed	-11.3189
▁Degree	-11.3189
▁Fragment	-11.3189
▁Jordan	-11.3189
▁Pearl	-11.3189
▁Philosoph	-11.3189
▁Publish	-11.3189
▁Spacing	-11.3189
▁Unfortunately	-11.3189
▁apologi	-11.3189
▁bracket	-11.3189
▁cardamom	-11.3189
▁chairman	-11.3189
▁enclos	-11.3189
▁exclusion	-11.3189
▁exhaust	-11.3189
▁forecast	-11.3189
▁holiday	-11.3189
▁mischief	-11.3189
▁occurrence	-11.3189
▁optimis	-11.3189
▁overwhelm	-11.3189
▁persuade	-11.3189
▁pioneer	-11.3189
▁province	-11.3189
▁smuggl	-11.3189
▁supervising	-11.3189
▁unusual	-11.3189
utilized	-11.3189
▁1921	-11.3189
▁Accept	-11.3189
▁Britain	-11.3189
▁Cross	-11.3189
▁Likud	-11.3189
▁Omni	-11.3189
▁Proverb	-11.3189
▁circular	-11.3189
▁dedication	-11.3189
▁earliest	-11.3189
▁eventually	-11.3189
▁neutr	-11.3189
▁paddy	-11.3189
▁pagans	-11.3189
▁perspective	-11.3189
▁plough	-11.3189
▁remittance	-11.3189
▁sensitiv	-11.3189
▁traffic	-11.3189
▁unexpect	-11.3189
▁Crore	-11.3189
▁Custom	-11.3189
▁applicant	-11.3189
▁fissure	-11.3189
▁piety	-11.3189
▁repayment	-11.3189
▁uterus	-11.3189
▁Albania	-11.3189
▁Consequently	-11.3189
▁Narayan	-11.3189
▁Pothana	-11.3189
▁bidding	-11.3189
▁commence	-11.3189
▁criticism	-11.3189
▁excavat	-11.3189
▁explic	-11.3189
▁livestock	-11.3189
▁terrorist	-11.3189
................	-11.3189
▁Consulta	-11.3189
▁Defence	-11.3189
▁garments	-11.3189
▁lobby	-11.3189
▁Iblis	-11.3189
▁PART	-11.3189
▁Rename	-11.3189
▁crude	-11.3189
▁rebellion	-11.3189
▁renounce	-11.3189
▁thorn	-11.3189
▁unclean	-11.3189
▁worldwide	-11.3189
▁Abort	-11.3189
▁David	-11.3189
▁Focus	-11.3189
▁Lecture	-11.3189
▁Survey	-11.3189
▁eleven	-11.3189
▁Picture	-11.3189
▁Popup	-11.3189
▁Registrar	-11.3189
▁Value	-11.3189
▁powder	-11.3189
▁tariff	-11.3189
Period	-11.3189
▁Isaac	-11.3189
▁equitable	-11.3189
▁whirl	-11.3189
rievous	-11.3189
▁AIDS	-11.3189
▁RAID	-11.3189
▁blush	-11.3189
▁propagat	-11.3189
▁revised	-11.3189
▁vector	-11.3189
▁fashion	-11.3189
▁scoff	-11.3189
▁Geeta	-11.3189
▁York	-11.3189
▁junk	-11.3189
▁outlook	-11.3189
▁vagina	-11.3189
wachh	-11.3189
▁Graph	-11.3189
▁relax	-11.3189
discrimination	-11.3189
▁Future	-11.3189
▁essence	-11.3189
▁Branch	-11.3189
▁pleasant	-11.3189
▁shrine	-11.3189
▁Phone	-11.3189
▁crystal	-11.3189
▁Kanpur	-11.3189
▁Staff	-11.3189
▁multiply	-11.3189
▁Kesari	-11.3189
▁conceive	-11.3189
▁Space	-11.3189
▁regain	-11.3189
▁Glory	-11.3189
▁boost	-11.3189
▁warrior	-11.3189
▁Mandali	-11.3189
▁worried	-11.3189
Complete	-11.319
akshasa	-11.319
▁Fruit	-11.319
▁Layout	-11.319
▁sniff	-11.319
▁Hotel	-11.319
▁Drink	-11.319
▁Detect	-11.319
▁Himself	-11.319
▁append	-11.319
▁conceit	-11.319
▁repair	-11.319
▁twentie	-11.319
▁spark	-11.319
▁gentle	-11.319
▁nominate	-11.319
qualified	-11.319
▁Finish	-11.319
▁decked	-11.319
▁revive	-11.319
▁Improv	-11.319
▁Install	-11.319
nosis	-11.319
▁placing	-11.319
▁yarn	-11.319
▁disclose	-11.319
▁cogent	-11.319
▁cancelled	-11.319
▁gorge	-11.319
▁Evil	-11.319
ndranath	-11.319
▁tiger	-11.319
▁Foot	-11.319
ATA	-11.319
▁Bliss	-11.319
▁Ahilya	-11.319
▁yards	-11.319
▁expend	-11.319
▁trainees	-11.319
▁interrupt	-11.319
▁query	-11.319
▁volatil	-11.319
▁Acqu	-11.319
scontent	-11.319
▁explor	-11.319
▁Advis	-11.319
▁Drugs	-11.319
▁priest	-11.319
bhadra	-11.319
▁Missing	-11.319
▁dress	-11.319
▁Break	-11.319
▁Basava	-11.319
▁hiding	-11.319
▁Point	-11.319
▁meteor	-11.319
▁harsh	-11.319
sanct	-11.319
▁Birth	-11.319
▁restrain	-11.319
▁drain	-11.319
idney	-11.319
▁Loading	-11.319
▁cadre	-11.319
▁refra	-11.319
▁condens	-11.319
▁spider	-11.319
convenien	-11.3191
▁eager	-11.3191
▁curl	-11.3191
▁stability	-11.3191
▁Sudan	-11.3191
▁commemorat	-11.3191
▁hungr	-11.3191
▁bounti	-11.3191
▁knee	-11.3191
▁costume	-11.3192
▁distort	-11.3192
▁prevalen	-11.3192
▁feud	-11.3192
Bhairav	-11.3193
▁Range	-11.3193
▁terminate	-11.3193
▁disseminat	-11.3193
▁batsm	-11.3194
humbnail	-11.3194
ultiplication	-11.3194
▁Kirg	-11.3195
ratuity	-11.3196
commod	-11.3196
▁saliva	-11.3196
Saleh	-11.3196
▁shake	-11.3196
lignment	-11.3196
critic	-11.3196
frost	-11.3196
Fatah	-11.3196
▁Suppl	-11.3197
▁bulb	-11.3198
▁heroic	-11.3199
▁Siva	-11.3199
▁burie	-11.32
▁resume	-11.3201
▁modifi	-11.3201
▁Sanj	-11.3202
▁rotate	-11.3202
enchant	-11.3203
xamination	-11.3205
▁Minorit	-11.3205
▁requit	-11.3208
▁assert	-11.3209
▁Transl	-11.321
▁APP	-11.3211
kuta	-11.3212
▁macro	-11.3213
AWA	-11.3213
▁eminen	-11.3217
metric	-11.3218
▁Convers	-11.3221
potent	-11.3221
▁copie	-11.3229
▁Rub	-11.3239
▁steril	-11.324
▁endorse	-11.3245
▁arouse	-11.3248
amuna	-11.3249
Design	-11.3285
Heaven	-11.3357
immer	-11.3375
yntax	-11.3441
BY	-11.3478
▁Jatin	-11.353
artial	-11.3764
graha	-11.3864
verything	-11.3974
POS	-11.407
conveyance	-11.416
hisht	-11.4214
1942	-11.4273
pore	-11.4414
validity	-11.4478
TIONS	-11.4633
UNE	-11.464
mergency	-11.4895
ccountability	-11.511
ammil	-11.5159
processor	-11.5171
▁Regulat	-11.5203
▁Composit	-11.5226
▁justifie	-11.5756
sembling	-11.5971
▁conduc	-11.6137
structed	-11.6198
▁Operati	-11.6327
▁consume	-11.637
ttlement	-11.6374
ncient	-11.6392
variabl	-11.6396
Amendment	-11.6405
public	-11.6406
Islamic	-11.6406
October	-11.6407
connect	-11.6408
January	-11.6408
positive	-11.6409
voice	-11.6409
Prophet	-11.641
control	-11.641
–	-11.6411
nsense	-11.6415
▁suprem	-11.6472
▁Presiden	-11.6481
compromis	-11.6485
▁responsibilit	-11.6486
▁investigat	-11.6495
equently	-11.651
▁simil	-11.6513
onstruction	-11.6514
quipment	-11.6515
uidelines	-11.6515
istinguished	-11.6516
▁thumb	-11.6516
echnical	-11.6517
ommemorati	-11.652
ndividual	-11.652
ithdraw	-11.6521
▁Krish	-11.6521
SEARCH	-11.6523
ecrypt	-11.6523
epitheli	-11.6523
▁mathematic	-11.6523
▁unemploy	-11.6523
.12.201	-11.6523
AVAN	-11.6523
Enjoy	-11.6523
OUNT	-11.6523
TRIBUT	-11.6523
keleton	-11.6523
ollywood	-11.6523
onnoisseur	-11.6523
opadhyay	-11.6523
ransparency	-11.6523
rithmetic	-11.6523
▁ANNIVERSARY	-11.6523
▁ATTEND	-11.6523
▁Accelerat	-11.6523
▁Agreement	-11.6523
▁Algorithm	-11.6523
▁Ambassador	-11.6523
▁Arguments	-11.6523
+	-13.1418
‘	-13.1418
>	-13.1419
[	-13.1419
