<pad>	0
</s>	0
<unk>	0
¦	-1.83316
▁¦	-2.33513
ˈ	-2.55008
▁	-2.69107
̈	-3.68406
𐋇	-3.87381
,	-3.91819
.	-4.24102
▁Comam	-4.40481
k	-4.56368
▁̈	-4.60371
▁naj	-4.73703
an	-4.80828
▁,	-4.82917
▁tu	-4.92579
▁ebnaj	-4.92846
a	-4.99054
▁yin	-4.9914
comam	-5.09525
e	-5.23834
▁.	-5.24772
naj	-5.28212
▁xin	-5.34482
tu	-5.43099
▁yul	-5.4891
▁caw	-5.5048
ebnaj	-5.50548
yin	-5.53363
ti	-5.62581
▁Dios	-5.62838
▁hune	-5.6465
▁yu	-5.70791
▁tet	-5.73801
▁ti	-5.75894
▁anma	-5.76119
ul	-5.76921
c	-5.77409
▁yeb	-5.79595
caw	-5.86153
▁ha	-5.88904
xin	-5.90647
▁tzet	-5.93776
▁mach	-6.05389
yul	-6.06648
ha	-6.10154
▁―	-6.11219
o	-6.13858
yet	-6.13986
hune	-6.16197
▁ẍi	-6.16562
▁yet	-6.17304
:	-6.19995
yu	-6.20697
▁ay	-6.24279
ek	-6.24698
to	-6.25195
▁isc	-6.27519
n	-6.27722
ay	-6.28076
j	-6.28148
en	-6.28332
▁haca	-6.29332
dios	-6.29936
tet	-6.3231
ob	-6.32386
i	-6.33188
yeb	-6.33288
anma	-6.33315
tzet	-6.33651
ˈ,	-6.34643
ab	-6.34808
ni	-6.36563
ch	-6.42136
▁mac	-6.46556
▁Ha	-6.52755
mach	-6.54237
▁ch	-6.55271
yiban	-6.57561
▁isk	-6.58849
▁tato	-6.59516
▁ta	-6.61463
▁yuto	-6.63023
al	-6.64036
▁con	-6.65289
ulal	-6.65349
on	-6.65483
▁sunil	-6.67286
isc	-6.68691
▁c	-6.6913
▁cat	-6.72179
ta	-6.72284
▁isba	-6.7238
tic	-6.73257
▁ix	-6.7405
ẍi	-6.7486
wal	-6.76987
▁sat	-6.77327
haca	-6.78962
▁:	-6.78987
▁hunt	-6.80686
xa	-6.80943
▁chi	-6.81575
paxo	-6.8262
inal	-6.83171
▁Wal	-6.85257
▁bey	-6.85662
watx	-6.85991
▁tx	-6.90968
▁hunu	-6.91255
mac	-6.91704
▁yalni	-6.92819
▁ya	-6.93918
no	-6.94665
▁Jesús	-6.94996
▁tz	-6.95593
tzoti	-6.97492
▁bay	-6.98086
▁¿	-6.99565
tz	-6.99989
yuto	-7.00834
yaj	-7.01963
isk	-7.02185
in	-7.0361
▁chu	-7.037
tato	-7.04981
▁te	-7.07282
yalni	-7.07516
▁yaj	-7.07538
tx	-7.08523
▁ye	-7.10235
▁Jesucristo	-7.11163
?	-7.11628
▁Caw	-7.12124
sunil	-7.13519
ya	-7.14616
bal	-7.1569
con	-7.159
ic	-7.16821
▁“	-7.17288
▁yuxin	-7.17916
ix	-7.18063
▁Yaj	-7.20521
lax	-7.2064
chi	-7.21429
yuxin	-7.22191
oj	-7.22498
sat	-7.24258
”	-7.25516
otx	-7.26395
▁teyet	-7.26539
tinan	-7.27042
▁ayco	-7.27043
p	-7.27529
cat	-7.29354
wi	-7.29836
▁xol	-7.29957
isba	-7.29987
hac	-7.30337
▁Hac	-7.30353
▁hac	-7.30819
ojal	-7.30854
te	-7.30939
▁machi	-7.3168
▁chal	-7.31684
hunt	-7.32187
ˈ:	-7.33696
bey	-7.34952
▁Yuxin	-7.37455
▁no	-7.37466
ayic	-7.37537
▁he	-7.37673
▁yanma	-7.37961
tajil	-7.39036
atan	-7.39641
▁wal	-7.4261
iswatx	-7.44153
▁Lahwi	-7.44852
▁Is	-7.45761
bay	-7.47544
co	-7.47885
hunu	-7.49681
ec	-7.50064
ye	-7.5025
▁hex	-7.50966
ca	-7.51301
▁yip	-7.56048
▁yun	-7.56458
▁ischejab	-7.56848
is	-7.57274
hayet	-7.57462
han	-7.57783
il	-7.58318
▁Israel	-7.58449
satcan	-7.58601
▁is	-7.58731
chu	-7.59723
can	-7.5985
▁Yalni	-7.61324
▁istx	-7.62307
cano	-7.63375
▁yoc	-7.63418
▁Yet	-7.63421
yalan	-7.63889
jesús	-7.63988
we	-7.64768
;	-7.6554
hex	-7.68325
oc	-7.69072
chon	-7.69478
bil	-7.69922
he	-7.71203
▁―¿	-7.73057
ibn	-7.73112
lahwi	-7.76176
‐	-7.76982
▁isya	-7.78728
ahol	-7.78884
machi	-7.79036
▁iswi	-7.79478
chal	-7.79833
esucristo	-7.80512
▁yal	-7.80833
xol	-7.81067
ayco	-7.81207
▁matxa	-7.83159
m	-7.83831
teyet	-7.84821
ayxaco	-7.85165
s	-7.8563
▁niman	-7.85722
▁in	-7.86095
▁yatut	-7.87779
▁Pablo	-7.88269
ojan	-7.88703
nich	-7.88866
▁heyanma	-7.89077
▁cha	-7.89757
▁heba	-7.90037
▁ton	-7.9028
▁ebix	-7.90588
anil	-7.90752
▁?	-7.91007
▁han	-7.91545
ap	-7.92323
h	-7.92983
▁ec	-7.93809
yanma	-7.95467
▁Ay	-7.96102
▁co	-7.96119
▁lan	-7.96665
istan	-7.97585
b	-7.99859
▁texol	-8.00488
▁ixim	-8.01095
lo	-8.03251
▁yilal	-8.04058
cha	-8.04483
▁¡	-8.04975
▁yilni	-8.05101
▁sata	-8.05675
▁yelapno	-8.0645
▁chin	-8.06667
▁yehi	-8.07175
yoc	-8.07226
▁yapni	-8.08201
waxan	-8.08698
▁maca	-8.09675
▁Yuto	-8.09746
ah	-8.09891
lan	-8.11269
▁chiwalan	-8.11315
yun	-8.12021
amben	-8.12136
tan	-8.12173
▁iscuywom	-8.13181
istx	-8.13239
israel	-8.14577
haxinwal	-8.14635
u	-8.14728
ischejab	-8.15101
el	-8.15195
▁maẍto	-8.15278
▁Ta	-8.15422
yip	-8.16346
▁Espíritu	-8.16368
▁isto	-8.17459
ojab	-8.17676
isley	-8.18143
▁Haxa	-8.18284
anxa	-8.19083
▁yaben	-8.19349
▁Pedro	-8.19584
▁isbi	-8.19912
▁Moisés	-8.19995
inan	-8.21083
!	-8.21814
▁hunun	-8.22159
▁juẍta	-8.22679
la	-8.22747
▁win	-8.22836
▁icham	-8.22862
▁Ista	-8.23405
▁cuybanile	-8.23635
▁teyin	-8.23679
▁matzwalil	-8.24097
▁yahawil	-8.24485
▁wetan	-8.2529
▁chex	-8.25836
yanico	-8.25851
▁jet	-8.2606
pax	-8.26142
▁istz	-8.26618
▁choche	-8.26681
yal	-8.27248
▁yinta	-8.29113
▁ismajul	-8.30916
Tzet	-8.31273
matxa	-8.31386
yuxinto	-8.32209
isya	-8.32629
▁chia	-8.32834
ba	-8.33023
▁Santo	-8.33596
niman	-8.34022
▁ismul	-8.34502
▁Juan	-8.35494
ej	-8.36864
le	-8.37171
mi	-8.3728
iswi	-8.37558
ton	-8.38798
▁A	-8.39157
ilo	-8.39219
yatut	-8.41012
ayical	-8.41458
▁jin	-8.41516
tom	-8.41534
tzettaj	-8.42624
▁yeli	-8.42843
apni	-8.43166
ma	-8.43328
ule	-8.43451
na	-8.4398
▁Yin	-8.44237
wa	-8.44883
haxa	-8.45155
r	-8.45904
ebix	-8.46304
mam	-8.46506
heba	-8.46853
▁hec	-8.47529
▁yebpaxo	-8.47749
heyanma	-8.47783
l	-8.47956
yilni	-8.48389
anc	-8.48612
▁Hune	-8.49076
t	-8.50059
ayon	-8.50485
▁ah	-8.50556
▁janma	-8.50895
xan	-8.5132
▁Yalnipaxo	-8.51377
▁anmahil	-8.52489
▁xahan	-8.52543
▁ángel	-8.526
ablo	-8.53555
▁Jerusalén	-8.53846
oji	-8.55016
▁oc	-8.5589
▁ma	-8.55892
▁yechel	-8.55916
▁yel	-8.55918
yapni	-8.562
yilal	-8.56365
w	-8.56968
chin	-8.57042
▁babel	-8.5712
om	-8.57955
aypaxo	-8.58021
ixim	-8.58446
▁chiswatx	-8.58687
yelapno	-8.58888
texol	-8.5889
▁xil	-8.59203
sata	-8.59318
chiwalan	-8.59359
▁che	-8.59607
hanic	-8.60042
▁ismunil	-8.6055
▁isnimanil	-8.61053
ehal	-8.61264
Ha	-8.61305
▁C	-8.61319
▁tiempo	-8.6191
▁Hanin	-8.61947
▁isti	-8.62293
ista	-8.62851
isto	-8.63422
▁macta	-8.63457
▁wa	-8.63702
maca	-8.63768
chitan	-8.63811
▁lahan	-8.64006
espíritu	-8.64435
▁heyu	-8.6467
yehi	-8.64741
matzet	-8.64892
▁Yu	-8.64976
▁isnabal	-8.65316
▁Cristo	-8.65413
ico	-8.65833
▁;	-8.66029
▁chiwa	-8.66231
ayo	-8.66277
▁hach	-8.66428
▁tawet	-8.66609
▁maẍt	-8.66719
▁sacerdote	-8.67208
▁yec	-8.67454
Mamin	-8.67897
▁hunelxa	-8.67941
▁chiyu	-8.6852
▁to	-8.69848
eb	-8.69962
▁Yum	-8.701
▁xa	-8.70213
paxoj	-8.70683
Caw	-8.7079
▁T	-8.70925
▁inc	-8.71054
▁cheyute	-8.71095
▁Hex	-8.71115
maẍto	-8.7115
▁yahaw	-8.71235
ebilcano	-8.71359
yahawil	-8.7151
ayto	-8.71517
▁maẍtaj	-8.71658
hunun	-8.71776
iscuywom	-8.71889
▁chito	-8.72368
aban	-8.7238
sunilbal	-8.72648
Tom	-8.72807
yaben	-8.7313
▁rey	-8.7315
▁yuninal	-8.73727
hec	-8.74006
▁wuhan	-8.74195
aybal	-8.74292
ˈ?	-8.74467
icham	-8.75072
istz	-8.75136
▁Isc	-8.75188
elo	-8.76339
▁ja	-8.76528
wan	-8.76594
hach	-8.766
▁chiyij	-8.76658
hanin	-8.76979
▁isyelal	-8.7774
isbi	-8.78293
chex	-8.78315
▁Jahawil	-8.78526
ho	-8.79924
▁chioc	-8.79965
win	-8.80041
▁Inmaman	-8.80145
wetan	-8.81361
juẍta	-8.81403
▁camom	-8.81768
▁Sunil	-8.81848
walxinto	-8.82004
cuybanile	-8.82112
teyin	-8.82345
matzwalil	-8.82815
▁camical	-8.82962
nipaxo	-8.84017
choche	-8.84122
edro	-8.84209
▁payat	-8.84454
▁quin	-8.84643
xahan	-8.84741
▁ley	-8.85198
▁howal	-8.8568
▁chalni	-8.85771
yel	-8.85797
ulan	-8.85849
▁winaj	-8.86073
▁chala	-8.86176
yebpaxo	-8.86257
▁ismam	-8.86346
hantan	-8.86765
obal	-8.869
d	-8.87003
yinta	-8.87019
itz	-8.87439
▁ẍiayoj	-8.87555
tocanoj	-8.87744
tojan	-8.8874
inalo	-8.88807
oisés	-8.89407
am	-8.89499
▁cuywawom	-8.89526
ismajul	-8.89641
bilintijan	-8.89821
jin	-8.90044
ja	-8.90237
jet	-8.90379
▁colbanile	-8.90674
lahan	-8.90843
▁coc	-8.91321
chia	-8.91387
▁Mach	-8.91401
ehan	-8.91944
sa	-8.92515
canoj	-8.92689
▁chihul	-8.93011
hal	-8.93334
ano	-8.93594
ismul	-8.94511
▁el	-8.95206
ib	-8.95718
K	-8.96207
▁yi	-8.96638
▁chiec	-8.96841
as	-8.97052
yalnipaxo	-8.97205
▁cheyil	-8.97519
juan	-8.98169
▁ishowal	-8.98199
▁istzotel	-8.98511
▁wanab	-8.99132
▁Na	-8.99185
ohtan	-8.99366
▁chute	-8.99387
▁coba	-8.99463
yeli	-8.99491
▁Abraham	-8.99798
▁fariseo	-8.999
▁cheya	-9.0001
▁tiempohal	-9.00088
▁n	-9.00484
▁lahwi	-9.01256
potx	-9.01617
▁wanmahan	-9.01674
▁yah	-9.01721
xil	-9.01967
▁nan	-9.02133
yayto	-9.02691
santo	-9.02856
quex	-9.0329
▁apni	-9.03435
▁chitit	-9.03705
▁barco	-9.03791
▁chaco	-9.03837
▁chico	-9.03915
yo	-9.04097
▁wuẍtaj	-9.04173
▁!	-9.0418
▁hunuxa	-9.04402
che	-9.04901
masanto	-9.04994
ech	-9.05107
▁me	-9.05161
yahaw	-9.05173
paxojan	-9.0521
▁preso	-9.05272
chiwa	-9.05324
yohtan	-9.05666
▁yoj	-9.05955
yec	-9.06343
anico	-9.06391
cablahon	-9.06477
Wal	-9.06488
ach	-9.06555
▁ismi	-9.06933
em	-9.07062
▁Tzot	-9.07464
aco	-9.07596
ángel	-9.08011
at	-9.08033
▁yeco	-9.08097
babel	-9.08258
▁lin	-9.08534
wej	-9.08991
andiosal	-9.09184
yuninal	-9.09535
▁camo	-9.09602
quin	-9.10279
anmahil	-9.11238
▁heyalni	-9.11255
▁chic	-9.11358
g	-9.11878
inc	-9.119
ebil	-9.12278
me	-9.1266
maẍtaj	-9.12893
cawan	-9.12975
janma	-9.13121
▁culus	-9.13164
▁chul	-9.13424
tiempo	-9.1344
yechel	-9.13902
aycano	-9.13918
howal	-9.14223
uil	-9.14384
balto	-9.14818
▁Ya	-9.15255
▁hunxa	-9.15424
chiswatx	-9.15512
Mac	-9.15515
maẍt	-9.15718
heyu	-9.15767
▁hun	-9.15785
ayc	-9.15853
▁t	-9.16725
▁munil	-9.16983
▁lek	-9.1703
ismunil	-9.17498
▁quex	-9.17638
▁yay	-9.17881
▁heya	-9.17889
macta	-9.18022
yinito	-9.18637
▁conimanil	-9.19238
▁chihalni	-9.1925
▁ayex	-9.19513
isnimanil	-9.19814
isti	-9.20464
wuhan	-9.21087
ayilo	-9.21369
▁istoholal	-9.21519
▁juẍtaj	-9.21897
Mach	-9.21912
cam	-9.21973
sacerdote	-9.22228
▁chischah	-9.22378
▁unin	-9.22848
erusalén	-9.23304
chalni	-9.23658
▁ip	-9.23686
isnabal	-9.24082
▁bis	-9.24184
▁yute	-9.24373
anto	-9.24473
anni	-9.24916
ban	-9.24917
▁Yoc	-9.24934
▁―¡	-9.25049
nihan	-9.25316
yah	-9.25369
tawet	-9.25403
▁tzalahilal	-9.2549
huneln	-9.25619
ahan	-9.25735
taj	-9.25818
▁jichmam	-9.25852
ley	-9.25902
hunelxa	-9.26079
y	-9.26087
▁haxa	-9.26688
hiq	-9.26887
yi	-9.27009
wuẍtaj	-9.27239
▁Israeloj	-9.27318
yocto	-9.27352
chiyu	-9.27608
▁haba	-9.27889
▁yixal	-9.28046
▁cam	-9.28434
ambe	-9.28436
▁chisje	-9.28626
cristo	-9.28632
inale	-9.28988
ulo	-9.29249
li	-9.29443
▁soldado	-9.29455
munil	-9.29519
▁ayicto	-9.29559
rey	-9.29859
cheyute	-9.29862
▁machojab	-9.29925
toj	-9.30483
▁niẍte	-9.30515
chito	-9.3079
Ta	-9.31001
▁chiwal	-9.31115
▁Chi	-9.31184
▁beh	-9.31205
machoj	-9.31496
jahawil	-9.31782
lah	-9.33404
▁inti	-9.33496
cheyil	-9.33911
ip	-9.34004
alomal	-9.34409
▁istiempohal	-9.34446
▁Waxa	-9.35011
▁Galilea	-9.35552
camom	-9.35612
jetan	-9.35731
anayo	-9.35978
etojan	-9.36188
ilni	-9.3629
isyelal	-9.36584
cuywawom	-9.3668
▁María	-9.36866
ismam	-9.3754
eni	-9.37668
hun	-9.3771
yum	-9.37773
▁xahanbalil	-9.3799
▁yijem	-9.38089
chiyij	-9.38309
lin	-9.38491
▁wet	-9.3859
▁yaco	-9.38751
f	-9.38863
▁inbahan	-9.39246
▁ishelanil	-9.39246
▁mule	-9.39248
▁yuch	-9.39348
▁Simón	-9.39539
chihul	-9.39904
aycan	-9.40024
▁yaw	-9.40156
ejholo	-9.4022
apno	-9.40253
▁Ch	-9.40316
chioc	-9.4034
inmaman	-9.40358
C	-9.40453
etaj	-9.40815
Mam	-9.40853
▁David	-9.40905
machojab	-9.40967
cobahan	-9.41025
iloj	-9.41249
▁tzujan	-9.41536
camical	-9.41647
▁ispaj	-9.41822
▁tzujno	-9.42021
▁tawin	-9.42131
jiban	-9.42292
nimeta	-9.42736
▁ju	-9.42957
▁hanin	-9.4297
▁sic	-9.43067
▁janab	-9.43235
q	-9.43249
payat	-9.43251
ayayto	-9.43857
bilxa	-9.43896
ispoh	-9.44651
bi	-9.44955
▁Herodes	-9.45118
▁Machi	-9.45393
chala	-9.45399
▁pan	-9.45423
winaj	-9.46025
▁chitzala	-9.46071
hununon	-9.46113
▁nino	-9.46147
▁lah	-9.46167
▁jilni	-9.46214
ẍiayoj	-9.46357
▁chiapni	-9.46444
▁chiwochehan	-9.46479
heyanico	-9.46588
chico	-9.46676
uc	-9.46722
juhan	-9.47112
haywan	-9.4729
▁ixnam	-9.47386
▁wehan	-9.47521
sic	-9.47668
hunxan	-9.4791
▁Pilato	-9.48025
▁cheyal	-9.48286
ui	-9.48445
▁mar	-9.48624
Hex	-9.4868
▁wintajan	-9.4881
Machoj	-9.48816
▁chejbanile	-9.48817
▁yulaj	-9.48833
paxto	-9.48944
▁walnihan	-9.49054
colbanile	-9.4966
▁chil	-9.49747
▁iscam	-9.49971
beh	-9.49984
ichico	-9.50022
▁xewilal	-9.50253
yinilo	-9.50282
▁cheyaco	-9.5039
yay	-9.50819
▁huno	-9.50887
yoj	-9.51154
ac	-9.51196
▁mil	-9.51496
▁nahat	-9.51697
len	-9.51806
chiitzitzbican	-9.51961
coc	-9.51986
hacpax	-9.52454
camo	-9.52804
heya	-9.52822
elico	-9.52948
tzotel	-9.53034
▁melyu	-9.541
tiempohal	-9.54329
barco	-9.54375
soldado	-9.54623
cancano	-9.54676
cheya	-9.54689
chiec	-9.54895
▁Hunt	-9.55128
▁chiya	-9.55412
ilcha	-9.55586
umal	-9.55592
▁yohta	-9.556
▁E	-9.55752
wanab	-9.55826
▁hawu	-9.56116
canojan	-9.5622
yeco	-9.56241
ajan	-9.56512
istzotel	-9.56974
ishowal	-9.57057
teyiban	-9.57123
maẍn	-9.57298
▁Eb	-9.57333
▁cheyala	-9.57402
lek	-9.57405
chute	-9.57413
▁Y	-9.57659
heyalni	-9.57704
nicano	-9.57747
▁heyet	-9.57748
▁Han	-9.57772
▁hununex	-9.57804
▁chip	-9.5781
▁ismay	-9.57812
▁halni	-9.58262
iscapilla	-9.58284
▁chielico	-9.58288
fariseo	-9.58726
▁chaẍ	-9.58777
chitit	-9.58829
▁ba	-9.58842
nan	-9.58939
yipo	-9.58949
coba	-9.58957
▁isn	-9.58959
▁hanta	-9.59107
alom	-9.59316
▁hawanma	-9.59387
▁ac	-9.59405
meltzo	-9.59651
▁chihallax	-9.5999
uy	-9.60228
wanmahan	-9.60504
▁yetxa	-9.60869
yute	-9.61192
▁habil	-9.61233
▁isbeybal	-9.61387
yixal	-9.61405
um	-9.61747
eloj	-9.61843
inti	-9.61897
melyu	-9.61942
eho	-9.62163
anex	-9.62194
Yin	-9.62364
chaco	-9.62975
▁yichico	-9.6306
hunuxa	-9.63241
▁chitzotel	-9.63609
▁yabe	-9.63634
iscutxba	-9.63683
▁je	-9.64005
▁ayc	-9.64057
▁yelapnoj	-9.64087
preso	-9.64159
Ay	-9.64162
▁trigo	-9.64284
cachann	-9.64424
anch	-9.64782
yilaxto	-9.64902
tzalahilal	-9.64987
ayojab	-9.65086
yaco	-9.65418
▁ayxa	-9.65439
▁tit	-9.65495
▁José	-9.65742
▁Roma	-9.65742
▁istohol	-9.65768
txon	-9.65798
paxico	-9.65884
man	-9.65945
▁hawalni	-9.65998
▁yoche	-9.6628
wican	-9.66515
ismi	-9.66571
encano	-9.6676
chic	-9.66846
octo	-9.66871
▁L	-9.66999
wiban	-9.67082
aben	-9.67117
ahto	-9.67327
▁ischuquil	-9.67477
▁Judea	-9.6752
uxan	-9.67671
▁yunin	-9.67672
walnihan	-9.67934
▁issaj	-9.68302
culus	-9.68354
▁wohtajan	-9.68445
▁chitz	-9.68609
▁yetbi	-9.69141
enilo	-9.69273
▁titna	-9.69298
braham	-9.69307
chul	-9.69394
▁quexchi	-9.69558
iscon	-9.69876
▁coxol	-9.7001
ayex	-9.70185
itzitzbican	-9.70293
hacojab	-9.70501
lahon	-9.70527
taxca	-9.7055
janico	-9.7056
tit	-9.7068
▁carta	-9.70773
tzen	-9.70966
▁chiyal	-9.71007
▁yijni	-9.71025
▁isyeni	-9.71236
ilojan	-9.71488
▁islahobal	-9.71491
im	-9.71511
occano	-9.71536
?”	-9.71602
▁chij	-9.72084
atil	-9.72195
elax	-9.72287
xahanbal	-9.72464
johtan	-9.72593
yabe	-9.72598
tzujan	-9.72886
▁chisyije	-9.7305
xaco	-9.73237
unin	-9.73493
heyohtan	-9.74001
eintijan	-9.74004
▁chislo	-9.74245
▁wu	-9.74745
▁ayayo	-9.74844
▁comul	-9.74869
▁majan	-9.74899
▁chis	-9.74944
imón	-9.74965
tijan	-9.74991
ulla	-9.75437
▁ischahni	-9.75823
haba	-9.76039
hunxa	-9.76066
▁yalno	-9.76172
un	-9.76184
chiwal	-9.76363
chisje	-9.76571
▁islo	-9.7671
▁jahno	-9.76729
▁henabal	-9.76745
▁machoj	-9.76751
yanayto	-9.76791
yichico	-9.76827
▁No	-9.76923
▁yabil	-9.77921
▁hunel	-9.77948
ocan	-9.78027
toxan	-9.78059
conimanil	-9.78107
chihalni	-9.78134
T	-9.78201
▁iscab	-9.78208
ayoco	-9.7879
janmahan	-9.78798
▁Sa	-9.78895
▁halbilcano	-9.78976
▁Machojab	-9.78994
mar	-9.79106
istoholal	-9.79265
hawil	-9.79888
oya	-9.80369
▁itzitz	-9.80408
mil	-9.80452
▁chejab	-9.80598
chischah	-9.80658
juẍtaj	-9.80773
icojan	-9.80866
▁man	-9.81697
▁yichamil	-9.81959
▁isyenilo	-9.82216
▁Chiwal	-9.82264
hul	-9.82378
▁subchaho	-9.826
▁isyijen	-9.82772
í	-9.82903
laxi	-9.82996
walex	-9.83009
umel	-9.83045
Hach	-9.83049
▁cosunil	-9.83246
ocnico	-9.83659
▁heyehi	-9.8383
yaw	-9.83924
▁yala	-9.84136
ishitzico	-9.84514
▁ischejbanil	-9.8465
wet	-9.84722
jichmam	-9.84737
▁Yeb	-9.84822
▁witz	-9.84918
▁hujeb	-9.84942
isma	-9.85035
▁isch	-9.85077
cach	-9.85359
bilcano	-9.85453
▁selel	-9.85617
ispaxto	-9.85884
▁haninan	-9.85896
▁hum	-9.85983
▁yila	-9.86027
▁yich	-9.86262
ten	-9.8645
chicuywi	-9.86543
hujwan	-9.86573
yanayo	-9.86713
▁cach	-9.87032
hawu	-9.87117
nico	-9.87268
▁Bernabé	-9.87288
wabenan	-9.87293
uh	-9.87964
▁cheyabe	-9.88289
▁ispi	-9.88757
▁wipan	-9.88821
▁mulum	-9.88889
▁Mac	-9.88889
chejab	-9.88986
▁abxubal	-9.89312
niẍte	-9.89416
▁tzotelo	-9.89424
wocan	-9.89566
▁munlawom	-9.89613
▁Jacobo	-9.89623
▁hesat	-9.89711
yoccano	-9.89769
ayicto	-9.90038
chahni	-9.90174
▁chach	-9.90369
yayilo	-9.90635
▁chabe	-9.90758
aweco	-9.90919
▁cay	-9.90973
▁chawal	-9.91025
▁ist	-9.91031
munlahan	-9.91335
▁H	-9.91825
▁ayto	-9.91929
▁johtaj	-9.92081
▁machiswalil	-9.92231
▁Yul	-9.92286
▁chicam	-9.92304
iln	-9.9233
Hanin	-9.92481
▁chiel	-9.92804
nican	-9.92833
▁yuẍta	-9.93054
▁jalni	-9.93108
chiwochehan	-9.93127
lebil	-9.93171
yoche	-9.93252
▁iscamical	-9.93275
▁sa	-9.93403
▁saj	-9.93679
ilaxto	-9.93754
ju	-9.93787
▁Israelo	-9.93816
ena	-9.93986
▁Felipe	-9.9407
▁Judas	-9.9407
▁Saulo	-9.94082
▁Yespíritu	-9.94096
istiempohal	-9.94342
pan	-9.9475
balil	-9.94827
yijem	-9.95369
▁jehi	-9.95464
yuch	-9.95482
mal	-9.9553
▁chicolwa	-9.95545
▁chiocnico	-9.95592
▁chawa	-9.95608
▁ispotx	-9.9567
▁cab	-9.95916
chianico	-9.95969
bel	-9.96042
▁yintaj	-9.96363
yanito	-9.96448
ahi	-9.96524
yila	-9.96588
apax	-9.96648
▁Yebpaxo	-9.96778
tzujno	-9.96871
xahanbalil	-9.96948
▁chiay	-9.97044
jehan	-9.97061
▁Yal	-9.9709
weco	-9.97114
▁chija	-9.97892
▁isye	-9.97924
inbahan	-9.98169
ishelanil	-9.98187
carta	-9.98461
mule	-9.98536
▁Walex	-9.98862
ato	-9.98947
aría	-9.98965
chiyijen	-9.99442
je	-9.99645
ux	-9.99841
canilo	-10.0005
diosal	-10.0015
▁payxa	-10.0031
masanta	-10.0064
▁istit	-10.0065
▁chicawxi	-10.0071
▁yil	-10.0079
ispaj	-10.0097
chiapni	-10.0117
tawin	-10.0122
▁oxeb	-10.0122
▁heyoc	-10.013
cheyayto	-10.0131
alaxico	-10.0133
yohta	-10.0135
chil	-10.0149
▁cawxo	-10.0163
wilnihan	-10.0189
chielico	-10.0203
jilni	-10.0212
enan	-10.0219
janab	-10.0239
iscam	-10.0249
▁lago	-10.0256
istzabnico	-10.0261
▁tzalaho	-10.0274
▁chintohan	-10.0275
▁circuncisión	-10.0283
▁xahanbal	-10.0285
▁wilnihan	-10.0293
▁helan	-10.0312
▁heyijen	-10.0314
wo	-10.0323
alo	-10.0329
▁chawil	-10.0348
▁isma	-10.0356
mas	-10.0361
wehan	-10.0361
nahat	-10.0383
wom	-10.0387
itzitzbocan	-10.0389
unub	-10.0391
ub	-10.0416
yulajla	-10.0438
lobal	-10.0453
ispotx	-10.0461
hitzico	-10.0464
utz	-10.0478
▁hawa	-10.0501
▁chimunla	-10.0511
chitzala	-10.0516
alilea	-10.052
▁chexoc	-10.052
▁ewan	-10.052
▁nabil	-10.0522
▁cheyoche	-10.0527
haninan	-10.0537
▁iscawilal	-10.0542
wu	-10.0545
cheyal	-10.0556
▁heye	-10.0567
ischahni	-10.0625
ixnam	-10.0634
nilo	-10.064
oco	-10.066
asi	-10.0705
cheyala	-10.0708
ham	-10.0727
wintajan	-10.0776
chitecha	-10.0785
ayn	-10.0795
yulaj	-10.0805
aj	-10.0836
wohtajan	-10.0849
Hune	-10.0853
yelapnoj	-10.0859
won	-10.086
chejbanile	-10.0863
halni	-10.0868
wanoj	-10.0884
nino	-10.0887
chitxumchalo	-10.0888
z	-10.0905
hanta	-10.0907
▁Isto	-10.0918
▁Pascua	-10.0919
▁Xol	-10.0919
▁Egipto	-10.092
yichamil	-10.0921
xewilal	-10.0921
yala	-10.0939
cheyaco	-10.0943
▁chijil	-10.0961
belwi	-10.0968
▁ayinan	-10.0979
Ho	-10.0986
isyeni	-10.0989
ape	-10.1006
▁ilwebal	-10.102
▁chichahni	-10.1033
▁chalilo	-10.1041
▁binaho	-10.1052
avid	-10.1056
hallax	-10.1063
yetbi	-10.1094
colwa	-10.1102
yil	-10.1108
habil	-10.1117
chiya	-10.1163
hawalni	-10.1163
ˈ!	-10.1163
elicoj	-10.1168
chayto	-10.1168
lolo	-10.1179
sucal	-10.1195
coxahann	-10.1196
huno	-10.1247
yawten	-10.1252
▁meẍa	-10.1264
▁ischejabo	-10.1268
▁isbel	-10.1288
▁gobernador	-10.1289
▁yángel	-10.129
halwe	-10.1316
▁M	-10.132
lena	-10.1322
iscancano	-10.1328
▁chixiw	-10.1329
jacob	-10.1336
nabn	-10.1343
hum	-10.136
macn	-10.1381
itzitz	-10.1401
yalno	-10.1433
▁mato	-10.1449
chip	-10.1464
erodes	-10.1478
▁xe	-10.1479
laxo	-10.148
acan	-10.1482
eto	-10.1486
▁naba	-10.1503
uilo	-10.151
▁tioẍ	-10.1517
capil	-10.1528
xiwcan	-10.1546
▁desierto	-10.1565
▁ayexxaco	-10.1566
▁chawute	-10.1567
▁istxahli	-10.1573
ayxa	-10.1592
mame	-10.1598
nilto	-10.1605
ohtabil	-10.1624
ehojab	-10.1624
isbejtzo	-10.1627
▁pulta	-10.1628
nahul	-10.1631
▁yelti	-10.1636
alc	-10.1638
hununex	-10.1679
ismay	-10.168
yulbal	-10.17
▁hesunil	-10.1706
▁yalnicano	-10.1719
▁hetxumni	-10.1728
▁yan	-10.1756
▁chilahwi	-10.1771
pila	-10.1774
heyet	-10.1781
wayan	-10.1784
cuybanil	-10.1784
xiw	-10.1808
laxcan	-10.1812
hin	-10.1813
hawanma	-10.1838
▁cutxanico	-10.1848
▁hemul	-10.1849
isn	-10.1868
ayayo	-10.1877
▁hawet	-10.1879
▁baytet	-10.1898
isyijen	-10.1902
▁comon	-10.1922
tze	-10.1923
laxayo	-10.1937
▁Matxa	-10.194
ulojab	-10.1946
▁chawala	-10.1946
ayahto	-10.1962
▁machim	-10.1969
▁nu	-10.1981
▁oro	-10.1985
meẍa	-10.1997
▁haban	-10.1998
chihallax	-10.2001
baytet	-10.2032
▁yilalo	-10.2039
axep	-10.206
▁y	-10.2064
nito	-10.2067
iscuyni	-10.2067
isbeybal	-10.2069
oxwan	-10.2072
mujan	-10.2072
alaxicto	-10.2081
ixobal	-10.2102
▁Mame	-10.2107
anab	-10.2108
▁Yahawil	-10.2116
yetxa	-10.2122
paxilo	-10.213
▁chintz	-10.2138
▁hunujex	-10.214
▁moyan	-10.214
▁hewi	-10.2142
▁conabal	-10.2143
▁nimanile	-10.2154
wec	-10.2155
▁Chal	-10.2157
machiswalil	-10.2162
yunin	-10.2164
▁yeto	-10.2168
chitzotel	-10.2173
tzoteli	-10.2188
▁intohan	-10.2208
▁hul	-10.2209
▁mame	-10.2223
▁caj	-10.2236
▁vino	-10.2242
nojan	-10.225
acti	-10.2251
▁yahawilo	-10.228
paxocan	-10.2283
ebilxa	-10.2286
ispa	-10.2313
▁wec	-10.2324
trigo	-10.2329
islahobal	-10.233
▁Cocolomal	-10.2367
▁Elías	-10.2382
▁Cha	-10.239
laxic	-10.2409
yijni	-10.2439
isyenilo	-10.244
▁isbisil	-10.2441
tioẍ	-10.2457
yintaj	-10.246
istohol	-10.249
txahli	-10.2497
▁hata	-10.2503
▁chiyute	-10.2506
▁howeb	-10.2516
bawe	-10.253
chawoche	-10.2541
hexahann	-10.2545
yitzitzbican	-10.2548
▁istxumni	-10.2556
israelo	-10.2562
▁cosat	-10.2573
chiocto	-10.2574
yabil	-10.2605
▁tzeh	-10.2606
▁jahaw	-10.2613
ojtam	-10.2629
wetbi	-10.2658
ischuquil	-10.267
ixwi	-10.2676
chitz	-10.2687
yalaxico	-10.2709
lahanex	-10.2718
selel	-10.2734
▁anciano	-10.2738
▁walnic	-10.2748
▁ismeltzo	-10.2748
▁ispultahil	-10.2751
yalcano	-10.2769
uxni	-10.2771
titna	-10.2776
▁yettax	-10.2799
▁Ma	-10.2811
▁ham	-10.2824
istit	-10.2832
Ma	-10.2837
issaj	-10.2838
ayojan	-10.2838
▁aya	-10.2845
alxa	-10.2853
cuywa	-10.2854
cuarto	-10.2866
cheyohtan	-10.287
quexchi	-10.2872
japnihan	-10.2873
yespíritu	-10.2876
chiyal	-10.2893
yanican	-10.2895
munlawom	-10.2961
walan	-10.2979
osé	-10.3032
tzijxan	-10.3033
▁Antioquía	-10.3034
omilo	-10.3045
hamanil	-10.3066
▁insatan	-10.3072
hunel	-10.3081
▁chiaben	-10.3094
▁tohol	-10.3098
islin	-10.3104
▁chaliloj	-10.3124
ist	-10.3124
▁hin	-10.3139
▁uva	-10.3146
Hacoj	-10.3163
alil	-10.3177
chis	-10.3178
inito	-10.3181
yahwano	-10.3209
hawa	-10.3245
chiel	-10.3261
▁ichamta	-10.3264
▁chiyo	-10.3305
heyil	-10.3307
chisyije	-10.3308
▁hasat	-10.3347
ibcan	-10.337
▁Nazaret	-10.3374
ispeto	-10.3374
▁Esteban	-10.3375
▁can	-10.338
chislo	-10.3383
halbilcano	-10.3385
comul	-10.3393
bilo	-10.3397
yije	-10.3398
▁henimanil	-10.3402
▁istxiquin	-10.3402
majan	-10.3408
isch	-10.3421
munlahi	-10.3436
chij	-10.3442
colcha	-10.347
▁joc	-10.3492
▁sam	-10.3498
chijalan	-10.3516
▁yayc	-10.352
roma	-10.3541
isxahanil	-10.355
nitam	-10.355
tzotelo	-10.3558
aholan	-10.3558
abxubal	-10.3575
A	-10.3579
hujeb	-10.358
henabal	-10.3581
jahno	-10.3581
▁tohlabal	-10.3585
eniloj	-10.3588
saj	-10.3594
coxol	-10.3609
chiyeniloj	-10.3618
▁xaj	-10.3634
anojab	-10.3644
txumu	-10.365
iscab	-10.37
▁chijaco	-10.3704
ahole	-10.3714
▁hinan	-10.3716
▁Timoteo	-10.3728
udea	-10.3728
ischah	-10.3729
▁cheyi	-10.3731
▁chijute	-10.3744
▁hawoc	-10.3749
islo	-10.3761
▁coyijen	-10.378
colwal	-10.3793
▁camoj	-10.3851
▁capilla	-10.3857
wah	-10.3859
▁heyohtaj	-10.3878
chabe	-10.391
jalni	-10.3913
tocano	-10.392
▁chim	-10.3923
cosunil	-10.3924
txumchalo	-10.3928
▁ayach	-10.3933
▁etza	-10.3944
iscol	-10.3951
tohol	-10.3951
eno	-10.3956
ulmi	-10.396
▁cheyije	-10.3973
awten	-10.3985
▁chijal	-10.3987
▁pi	-10.4045
jalnihan	-10.4066
ewe	-10.4076
lom	-10.4076
▁iscuywa	-10.4088
▁Maẍtaj	-10.4096
isyelo	-10.4099
▁yalnic	-10.4116
chijilico	-10.412
▁chiyoche	-10.4131
omal	-10.4139
chiyiyo	-10.4139
▁trato	-10.4139
▁camnaxa	-10.414
▁chinhulan	-10.4141
ancan	-10.416
subchaho	-10.4173
hajlo	-10.4181
oxeb	-10.419
witz	-10.419
yawte	-10.4202
▁Mamin	-10.4209
noj	-10.4267
nipaxojan	-10.4276
machipaxo	-10.4294
▁chicolo	-10.4297
awi	-10.4319
▁chiwaltojan	-10.4338
▁awtebil	-10.4345
sunilej	-10.4361
chawal	-10.4365
▁chisc	-10.4367
▁Maẍ	-10.4373
ischejbanil	-10.4376
▁iswa	-10.4377
wabe	-10.4383
heyehi	-10.4395
yan	-10.4401
isye	-10.4412
yito	-10.4415
chiilni	-10.442
heye	-10.4436
istopaxo	-10.444
elan	-10.4453
▁Jacob	-10.4455
▁chintzalahan	-10.4467
▁hawehi	-10.4468
▁wahil	-10.4473
▁xu	-10.4476
▁Macedonia	-10.4477
▁Isaías	-10.4477
▁yawten	-10.4479
▁Halwe	-10.4482
▁nananta	-10.4491
bililo	-10.4491
▁haltebilcano	-10.4496
▁ischah	-10.4497
▁islah	-10.4499
beyc	-10.4516
ishajlo	-10.453
colchahi	-10.4533
wilan	-10.4552
▁yetbiho	-10.4554
▁Yah	-10.4555
▁yehico	-10.4556
eojab	-10.4574
mulum	-10.4585
▁nime	-10.4589
ispi	-10.4598
▁yox	-10.4612
▁hon	-10.4621
yich	-10.4624
ochen	-10.4638
Wa	-10.4665
cawxo	-10.4671
olivo	-10.4672
trompeta	-10.4672
ehayo	-10.4699
oro	-10.4722
chijochehan	-10.473
cheyabe	-10.4738
chianayto	-10.4749
abayo	-10.4757
yalnicano	-10.4758
johtaj	-10.4763
▁yohtajo	-10.4769
heyijen	-10.4773
yilo	-10.4775
▁yuc	-10.4796
wipan	-10.4807
chach	-10.4832
ayinan	-10.484
▁cuybanil	-10.484
txah	-10.484
ilwe	-10.4842
mo	-10.4846
▁comandante	-10.4846
▁ixahaw	-10.4846
▁insatajan	-10.4846
▁cabeb	-10.4864
▁xaya	-10.4869
▁Yapni	-10.4878
▁W	-10.4888
▁capitán	-10.489
camoj	-10.49
hesat	-10.4907
yocpaxo	-10.4925
walpaxo	-10.4926
▁isbejnicano	-10.4935
▁iscuyni	-10.4957
yochen	-10.4958
N	-10.4973
ilaxilo	-10.4983
▁heyilni	-10.4985
▁hechahni	-10.4986
▁yallax	-10.5006
ew	-10.5014
xacon	-10.5034
▁chican	-10.504
▁cochahni	-10.5044
chicawxi	-10.5056
uba	-10.5075
udas	-10.5077
chiyaco	-10.5078
▁anican	-10.5084
iscutxbanico	-10.5093
cotohan	-10.5114
▁yawte	-10.5126
cawxican	-10.5132
yelcan	-10.5137
yuẍta	-10.5144
▁chijala	-10.5153
heyohtaj	-10.5162
mato	-10.5163
colbanil	-10.5169
chawaco	-10.5177
laxcano	-10.5178
chicam	-10.5179
▁chechah	-10.5183
munla	-10.5184
laxilo	-10.5188
isbej	-10.5216
bitn	-10.523
chiwaltojan	-10.5234
▁chinapnihan	-10.5243
▁chiwalcanojan	-10.5244
iscamical	-10.5249
eq	-10.5249
▁toxa	-10.525
▁ayinicojan	-10.5251
▁isnu	-10.5254
▁iscolwa	-10.5259
▁hunix	-10.5272
colwahan	-10.5281
chija	-10.5282
▁Samaria	-10.5285
▁isDiosal	-10.5285
▁Lázaro	-10.5285
helan	-10.529
▁iscuyu	-10.529
Asi	-10.5293
ohni	-10.5302
incaman	-10.5306
▁Tz	-10.5307
chawil	-10.5345
elti	-10.5349
tzettaxca	-10.536
acojan	-10.5363
halno	-10.5375
naba	-10.538
tohlabal	-10.5385
▁wacax	-10.5417
▁hallax	-10.542
ahni	-10.5431
▁nanxa	-10.5436
siq	-10.5448
circuncisión	-10.546
jehi	-10.5462
iscawilal	-10.5467
payxa	-10.5471
chicolwa	-10.5472
chiocnico	-10.5477
chawa	-10.5477
▁heyila	-10.5491
Yet	-10.5495
▁isyije	-10.5507
heyoc	-10.5509
chiay	-10.5543
ambeno	-10.5563
iscolni	-10.5569
▁Yi	-10.5572
chilahwi	-10.5579
aymi	-10.5582
jala	-10.5594
chintz	-10.5609
nu	-10.5611
balo	-10.5617
▁chitxumcha	-10.5626
▁heyohtajo	-10.5645
▁quinchiyan	-10.5654
▁chiah	-10.5656
▁nohna	-10.5665
▁Hach	-10.5679
issay	-10.5687
ibo	-10.569
vino	-10.5692
tzalaho	-10.5692
cheyoche	-10.5693
xaj	-10.5702
▁ayexico	-10.5704
canocan	-10.5707
ernabé	-10.5715
▁Silas	-10.5715
elipe	-10.5715
yecheln	-10.5718
▁chilo	-10.5725
Chi	-10.5727
tzala	-10.5742
ulalo	-10.5758
Oc	-10.5761
▁selelo	-10.5773
cheja	-10.5784
chinocan	-10.5796
▁chicancano	-10.5802
▁tac	-10.5802
▁yahcano	-10.5807
ischej	-10.5812
istxumni	-10.5815
hatx	-10.5835
elcanico	-10.5836
nann	-10.5844
hato	-10.5855
ayoj	-10.5874
Na	-10.5893
aytoj	-10.5907
tzabni	-10.5911
pulta	-10.5931
▁xiw	-10.5933
opo	-10.5934
axpon	-10.5935
peyab	-10.5937
chicuyni	-10.5937
sahab	-10.5938
▁yij	-10.5938
chintohan	-10.5948
yuhi	-10.5953
tohan	-10.5973
chalniloj	-10.5979
maquex	-10.6002
▁hayeb	-10.6008
ecano	-10.6022
tzeh	-10.6032
yijnicano	-10.6067
ebilcanoj	-10.6068
ahil	-10.6075
icoj	-10.6078
▁chichiwa	-10.6078
▁Inmam	-10.6084
▁cheyila	-10.61
▁yalte	-10.6107
▁istzoteli	-10.615
▁Efeso	-10.6165
▁Asia	-10.6169
binaho	-10.6173
lago	-10.6174
▁wohtajojan	-10.6175
istzabnayo	-10.6183
chexoc	-10.622
etza	-10.6226
▁Chin	-10.6247
yanab	-10.6254
▁yen	-10.6262
▁how	-10.627
inaloj	-10.6284
isje	-10.6336
hechahni	-10.635
tzalacan	-10.6353
ilchalo	-10.6353
ajo	-10.6358
▁yuninalo	-10.6372
cami	-10.6375
▁ayojab	-10.6378
▁chejn	-10.6399
chma	-10.6411
Sunil	-10.6428
ut	-10.6432
chimunla	-10.6433
chejn	-10.6444
cojan	-10.6457
intohan	-10.6481
▁ista	-10.6486
caj	-10.6501
heyila	-10.6513
cachwa	-10.6513
▁chijoche	-10.6521
▁cheyu	-10.6532
▁buchwal	-10.6534
hawabe	-10.6535
▁istrato	-10.6538
▁iscawxican	-10.6538
▁chicochah	-10.6539
Ah	-10.6546
▁heyohtaxa	-10.6559
▁chicami	-10.6581
▁lemna	-10.6581
Chim	-10.6585
▁ischejni	-10.6593
uloj	-10.6599
hata	-10.6607
elto	-10.6635
ojex	-10.6635
▁Tzujan	-10.6635
▁Isaac	-10.6635
camnajilo	-10.6636
▁Cesarea	-10.6636
▁Wilni	-10.6637
▁Lahan	-10.6638
nabil	-10.6639
telaj	-10.6647
way	-10.6667
winajli	-10.6667
wecano	-10.6668
▁jec	-10.6677
howeb	-10.6688
colni	-10.6689
ebxa	-10.6693
cuywahi	-10.6707
ajna	-10.671
▁yuẍtaj	-10.6714
istxumnilo	-10.6725
ías	-10.6742
chiwacojan	-10.6759
ebilico	-10.6772
▁quexwil	-10.68
wute	-10.68
xolaj	-10.68
▁ẍicano	-10.6802
ewan	-10.6805
ambenpaxo	-10.6821
yahawilo	-10.6831
jabe	-10.6833
intzotelan	-10.6839
wacojan	-10.6839
cay	-10.6839
yanipaxico	-10.6842
wawte	-10.6843
mohyi	-10.685
ispujba	-10.6855
johtajan	-10.6873
ilaxcan	-10.6876
tzalahan	-10.6883
ixtan	-10.6911
xam	-10.6915
▁yeh	-10.694
iscawan	-10.6948
ilwebal	-10.6954
chichahni	-10.696
▁iscawxi	-10.697
chahnicano	-10.6972
chalilo	-10.6976
▁In	-10.6981
hawunin	-10.6989
heyuẍta	-10.6994
▁inmulan	-10.7005
▁txahlo	-10.7005
annihan	-10.7006
▁tawintaj	-10.7008
isbejcano	-10.7009
▁itah	-10.701
▁chiwabehan	-10.7023
▁istxam	-10.7036
▁chiwilan	-10.7037
▁yohtaxa	-10.704
▁cheh	-10.7042
▁yitz	-10.7059
atz	-10.7065
ischejnito	-10.7066
istxum	-10.7074
▁intz	-10.7082
▁chiway	-10.7094
▁walan	-10.7094
▁chiillax	-10.7103
cuarenta	-10.7129
hajxam	-10.7129
▁heyi	-10.7136
capilla	-10.7138
Hal	-10.7154
▁hawi	-10.7155
▁vaso	-10.7157
Ilwe	-10.717
haquin	-10.7184
ischejabo	-10.7196
xiwan	-10.7203
ojon	-10.7204
▁laba	-10.721
uva	-10.7213
gobernador	-10.7214
isbel	-10.7218
jabehan	-10.7218
yángel	-10.7219
wacax	-10.7225
▁chiwute	-10.724
ento	-10.7254
▁aycan	-10.7264
enico	-10.7269
sam	-10.7279
isbili	-10.7281
cab	-10.7282
chixiw	-10.7287
abico	-10.7308
cantil	-10.7347
chiyenilo	-10.7368
▁Chalni	-10.7371
hesunil	-10.7376
yofrenda	-10.7376
higuera	-10.7385
inchuquilan	-10.7385
nimajal	-10.7385
sábana	-10.7385
welapnojan	-10.7385
sello	-10.7385
hehelanil	-10.7385
yichebanil	-10.7385
hetxumniloj	-10.7386
aceite	-10.7387
yorahil	-10.7387
yabxubal	-10.7392
chicotz	-10.7396
bihe	-10.7402
ischejlaxto	-10.7406
selelo	-10.7407
presowom	-10.741
ishel	-10.7411
sajn	-10.7413
ahti	-10.7414
isvaso	-10.7429
ispixan	-10.7436
▁wah	-10.7443
hawet	-10.7467
ismunlawom	-10.7473
comon	-10.7474
iswayan	-10.7484
yettax	-10.7491
desierto	-10.7491
ayexxaco	-10.7493
chawute	-10.7495
▁ciento	-10.7499
▁heyabe	-10.7499
istxahli	-10.75
▁iscayel	-10.75
▁hecawil	-10.75
▁yichmam	-10.7526
▁echmabil	-10.7537
▁isbelwi	-10.754
alaxcan	-10.7545
▁chibe	-10.7549
bit	-10.7553
yillaxi	-10.7577
ocpaxo	-10.7585
▁hawip	-10.7592
▁yebi	-10.7599
machim	-10.7611
yij	-10.7615
▁babelal	-10.7616
heyoj	-10.7623
chijil	-10.7628
▁Zacarías	-10.7649
▁Capernaum	-10.7649
chahi	-10.7653
yelti	-10.7695
hon	-10.7705
▁heyaben	-10.7721
▁yalten	-10.7728
itzitzon	-10.7734
banil	-10.7739
▁Ischejni	-10.7751
ischejni	-10.7752
▁yinican	-10.7757
▁issayni	-10.776
cutxanico	-10.7777
hemul	-10.7777
cobeybal	-10.7789
isman	-10.7802
islah	-10.7804
malto	-10.7807
▁issay	-10.7819
▁way	-10.7826
hetxumni	-10.7837
▁mayu	-10.7845
nicto	-10.7849
isyije	-10.7854
haban	-10.7859
chawala	-10.7895
▁masan	-10.7899
▁yo	-10.79
yalpaxo	-10.7901
laxpaxo	-10.7906
ajano	-10.7907
walnic	-10.7914
testigo	-10.7917
gipto	-10.7918
ascua	-10.7919
abewe	-10.797
isnaniti	-10.7973
yilalo	-10.7985
chejbanil	-10.8003
▁isnani	-10.8007
▁uc	-10.801
▁isbey	-10.8012
▁ayinic	-10.8015
▁griego	-10.8018
▁saduceo	-10.8018
▁xiwquilal	-10.8018
▁ismachiswalilal	-10.8018
▁romano	-10.8018
▁espada	-10.8018
▁yehobal	-10.802
▁chexxiwi	-10.8021
▁issajbilo	-10.8022
▁chietaxto	-10.8024
▁heyip	-10.8033
hacojtam	-10.8043
▁chisye	-10.8046
▁yictabal	-10.8046
▁iscami	-10.8063
hunujex	-10.8071
moyan	-10.8071
conabal	-10.8074
▁aldea	-10.8081
nimanile	-10.8087
Tz	-10.8093
chiyute	-10.8127
Yaj	-10.8131
▁colwal	-10.8134
wuten	-10.8141
▁mohyilal	-10.8141
hewi	-10.8141
eco	-10.8147
wahi	-10.816
yayc	-10.8169
wepaxo	-10.8172
ijatz	-10.8193
ijbalom	-10.8196
burro	-10.8197
denario	-10.8197
lepra	-10.8197
semana	-10.8197
▁Festo	-10.8197
wanitojan	-10.8197
▁Leví	-10.8197
▁yilno	-10.8198
istecha	-10.8198
wila	-10.8199
▁istxum	-10.8199
plata	-10.82
ichamile	-10.8201
ishelni	-10.8216
beybale	-10.822
hawoj	-10.8241
anabi	-10.8245
ixale	-10.8251
▁wala	-10.8266
anwe	-10.8266
iscolbanil	-10.8269
chietanto	-10.8275
iscuybanil	-10.8295
sacerdotehal	-10.8314
▁tec	-10.8347
▁hecal	-10.8352
heyayto	-10.8373
isbisil	-10.8374
yetbiho	-10.8376
▁iscan	-10.8406
ishunba	-10.8419
yuc	-10.8421
▁chelo	-10.8431
nipaxico	-10.8464
chejaboj	-10.8478
nimej	-10.848
hinan	-10.8486
yalnic	-10.8486
▁chicabcon	-10.8493
ilwal	-10.8495
▁alaxcan	-10.852
▁jila	-10.8526
▁I	-10.8566
▁cadena	-10.8566
▁querubín	-10.8566
▁txitam	-10.8566
▁inchejaban	-10.8566
▁inmunilan	-10.8566
▁chisna	-10.8572
heyanayto	-10.8574
xiwi	-10.8574
▁ismelyu	-10.8583
▁comunil	-10.8583
heyohtajo	-10.862
jahaw	-10.8623
▁yicta	-10.8627
chilni	-10.8642
▁chiahilo	-10.8645
chexxiw	-10.8663
▁ishajni	-10.8675
yahawiloj	-10.8685
anciano	-10.8685
ismeltzo	-10.8686
ispultahil	-10.8686
heyohtajoj	-10.8698
anno	-10.871
yamigo	-10.8711
chaliloj	-10.8727
yawtenti	-10.8736
yelilo	-10.8744
coyijen	-10.8752
isbejnicano	-10.8753
ro	-10.8755
As	-10.8765
paxic	-10.8769
▁Ix	-10.8776
▁Melquisedec	-10.8777
hulnajinan	-10.8777
ishuj	-10.8824
pujbani	-10.883
chexcolwa	-10.8834
▁lahano	-10.8838
ijban	-10.8843
wano	-10.8905
tajo	-10.8908
yijcano	-10.8926
anican	-10.8958
▁hunelo	-10.8964
mujlax	-10.8981
▁chiyi	-10.8991
trato	-10.8997
elojan	-10.9005
chinhulan	-10.901
insatan	-10.9012
camnaxa	-10.9019
heyilni	-10.9019
chiaben	-10.9036
chahlax	-10.9051
uslax	-10.9061
hebeybal	-10.9062
ishoyanil	-10.9079
sajhopon	-10.9079
treinta	-10.9079
hunmajanxa	-10.9079
istzilnilo	-10.908
inyijenan	-10.908
tzujanilxa	-10.908
hulic	-10.908
iswayic	-10.908
saywal	-10.908
istzalanil	-10.908
ismotx	-10.908
intxahlihan	-10.9081
maxawal	-10.9081
yespada	-10.9082
iswahni	-10.9082
corona	-10.9083
chahwe	-10.9083
cuywal	-10.9084
xinto	-10.9084
hacuyni	-10.9085
quexwilnojan	-10.9089
wanicojan	-10.9091
cosat	-10.9092
yanahto	-10.9093
atna	-10.9093
hanabal	-10.91
tzenilo	-10.91
Yel	-10.9101
yehayto	-10.9102
chijaltojan	-10.9104
ambehan	-10.9106
yeto	-10.9139
▁isxe	-10.9146
janayto	-10.9146
▁orahil	-10.9147
chiinilo	-10.9148
▁innimanilan	-10.9149
▁ewantajil	-10.9161
▁chitx	-10.9163
▁chabilxa	-10.9163
▁chitxahli	-10.9167
▁inbihan	-10.9169
laxilto	-10.9187
ayach	-10.9192
bilxalo	-10.9192
issayni	-10.9201
▁inmunilt	-10.9201
ichamta	-10.9215
yijewe	-10.9218
▁yechman	-10.9221
ahilo	-10.9223
▁chuman	-10.9237
▁wilan	-10.9258
xayaco	-10.9267
hulan	-10.9267
techahoj	-10.9268
chiwatojan	-10.93
yinayo	-10.9304
vaso	-10.9304
▁yuninaloj	-10.9315
▁Mam	-10.9315
tetej	-10.9322
chiyo	-10.9322
txumnilo	-10.9326
henimanil	-10.9342
istxiquin	-10.9342
nananta	-10.9349
cosataj	-10.9362
▁chilolax	-10.9366
cocolomal	-10.9391
▁Damasco	-10.9392
▁Jordán	-10.9392
▁Adán	-10.9393
▁Ananías	-10.9393
elías	-10.9396
echman	-10.9404
inpaxojan	-10.9432
nime	-10.9433
chiwalpaxojan	-10.9441
▁yilcha	-10.9445
yilwen	-10.9453
xawalan	-10.9455
iswa	-10.9467
mactaxca	-10.9473
camojan	-10.9486
▁istzala	-10.9496
▁walinan	-10.952
chebeybaln	-10.954
Hac	-10.9553
issajn	-10.9578
hasat	-10.958
▁yecoj	-10.9587
▁chati	-10.9592
▁Chis	-10.9612
chilo	-10.9614
I	-10.9625
▁colwa	-10.9626
tzelax	-10.9629
ilal	-10.963
jocan	-10.963
yuẍtaj	-10.9636
▁isje	-10.9637
initi	-10.964
uninal	-10.9642
chijaco	-10.9647
isxan	-10.9668
chayo	-10.9679
anayto	-10.9682
capitán	-10.9686
chijute	-10.9686
wohtajojan	-10.9688
hawoc	-10.9693
▁chebej	-10.9708
chiyoche	-10.9709
pet	-10.9715
bejwecano	-10.9716
txahlan	-10.972
hoyanico	-10.9737
naxa	-10.9742
▁iscolni	-10.9761
▁circuncidar	-10.9762
▁dragón	-10.9762
▁innabalan	-10.9762
cheyi	-10.9764
▁hawohtaj	-10.977
▁heyofrenda	-10.977
▁hetxahli	-10.9775
▁chimohyi	-10.9776
▁chicolchahi	-10.978
▁wetojan	-10.9782
elcan	-10.9784
▁chisyelo	-10.9816
yallax	-10.9821
wohtan	-10.9823
▁tzabno	-10.9836
enpaxo	-10.9841
bilico	-10.986
walinan	-10.9869
yecoj	-10.9899
▁chijabe	-10.9928
walnitojan	-10.9933
Han	-10.9952
utelax	-10.9958
sabehal	-10.9993
mujli	-10.9994
yalte	-11
tajca	-11.0001
Y	-11.0007
yeh	-11.001
inchahnihan	-11.0017
chican	-11.0037
patrón	-11.0038
awtebil	-11.0038
ohcha	-11.0043
ntioquía	-11.0046
cochahni	-11.0047
mohyom	-11.0048
xito	-11.0048
xiwquilta	-11.0048
▁Babilonia	-11.0048
▁Jope	-11.0048
subuta	-11.0048
hacuywom	-11.0048
ischibehal	-11.0048
xewbal	-11.0048
xulno	-11.0048
jetbiho	-11.0048
istxolal	-11.0048
iscuyu	-11.0048
iscuywa	-11.0048
cohelanil	-11.0049
ispujnacan	-11.0049
jop	-11.005
yictajo	-11.005
axponayo	-11.0051
yacanico	-11.0051
calle	-11.0051
tzujnojan	-11.0056
tzalahi	-11.0057
▁tajca	-11.0065
uwan	-11.0076
yilaxilo	-11.0083
toxa	-11.0087
ixwican	-11.0089
uq	-11.0098
heyichmam	-11.0098
wipaxo	-11.0111
chinachalo	-11.0117
unni	-11.0122
▁chucano	-11.0141
▁istxah	-11.0144
chisbalico	-11.0145
istxumchalo	-11.0147
▁cotxumni	-11.0149
▁yahto	-11.0161
▁sac	-11.0163
ijbali	-11.0172
camna	-11.0189
chiilchalo	-11.0216
▁hato	-11.0217
ubal	-11.0222
▁techaho	-11.0224
▁aycoj	-11.0226
yahilo	-11.0233
encan	-11.0236
watojan	-11.0244
▁haltebil	-11.0247
▁iscolcha	-11.0249
▁yillax	-11.026
▁yuho	-11.0264
wiloj	-11.0274
xilo	-11.0282
awtebilon	-11.029
chisbejcano	-11.0314
▁hetx	-11.0323
▁chicoyije	-11.0332
unu	-11.0333
chicolo	-11.0335
▁chisbej	-11.0365
▁mahul	-11.0366
xaya	-11.0376
yilweno	-11.0381
▁yalnipaxo	-11.0381
elaxi	-11.0385
sajxa	-11.0391
steban	-11.0392
azaret	-11.0393
cheh	-11.0412
cheyije	-11.0414
cabeb	-11.0416
chintzalahan	-11.0416
▁israelita	-11.0418
▁ixloj	-11.0418
hawehi	-11.0419
▁ispatrón	-11.0423
▁cocolbanil	-11.0424
ismajilo	-11.0431
▁hawatut	-11.0436
wahil	-11.0438
yehico	-11.0439
chijal	-11.0443
▁chuhi	-11.0444
haltebilcano	-11.0444
alto	-11.0445
aytoco	-11.0449
istoholban	-11.0449
▁ismohyi	-11.045
oq	-11.0456
ismeltzoto	-11.0462
yohtajo	-11.0501
illax	-11.051
yahcano	-11.0531
johtaxa	-11.0545
how	-11.0555
comono	-11.056
▁chexa	-11.0584
▁hemam	-11.0608
▁chio	-11.0609
▁hawuẍta	-11.0638
▁ayico	-11.0653
cuywi	-11.0653
incartat	-11.0663
O	-11.0674
yeniloj	-11.0679
hebeybaln	-11.0683
▁yuninalxa	-11.0692
▁chihuli	-11.0707
▁ilno	-11.0708
nanxa	-11.071
intoc	-11.0727
iscach	-11.0739
▁Magdala	-11.075
▁Salomón	-11.075
▁Marta	-11.075
moteo	-11.075
▁Tito	-11.075
▁Corinto	-11.0751
hebreo	-11.0751
▁Agripa	-11.0751
▁Andrés	-11.0751
▁alcal	-11.0756
Yu	-11.0758
▁motx	-11.0763
▁Yahawiloj	-11.0768
▁Co	-11.0783
awtelax	-11.0791
comandante	-11.0798
ixahaw	-11.0798
insatajan	-11.0798
▁yilnito	-11.08
toholojab	-11.0807
▁heto	-11.0827
Cam	-11.0847
▁isyijeni	-11.0847
▁hununtajil	-11.0865
▁chielicoj	-11.087
▁yahawo	-11.0874
yebej	-11.09
▁chiyil	-11.0901
Etza	-11.0923
checutxba	-11.0944
▁Anma	-11.0954
▁jaben	-11.0968
▁hulic	-11.0971
▁Inc	-11.0989
chintzotelan	-11.1001
istocano	-11.1006
▁camojan	-11.101
beybaln	-11.1015
▁chachoc	-11.1021
Ham	-11.1028
wacanojan	-11.1035
innimanil	-11.1037
▁ismunla	-11.1041
quexpax	-11.1066
etalax	-11.1069
bejnicano	-11.1087
iscawil	-11.1112
ázaro	-11.112
▁chixcab	-11.112
▁titnajinan	-11.112
bejbilcano	-11.112
mostaza	-11.112
perla	-11.112
sesenta	-11.112
tzujtzun	-11.112
yichitax	-11.112
ojlaxayto	-11.112
ebilcanayo	-11.112
ochebil	-11.1121
jintajan	-11.1121
isxahann	-11.1122
isreyal	-11.1123
chitzejla	-11.1124
chiabelax	-11.1124
▁chextxahli	-11.1126
witzitzbican	-11.1128
laba	-11.1129
matanil	-11.1131
▁wuẍta	-11.1131
istzejla	-11.1134
iscachni	-11.1134
▁chinchahnihan	-11.1136
ber	-11.1139
iscutxbaco	-11.1145
ishi	-11.1146
joc	-11.1147
ispalan	-11.1151
cheyiyo	-11.1158
ambebal	-11.117
El	-11.1176
yoxel	-11.1176
uluj	-11.1185
checach	-11.1191
▁Chalnipaxo	-11.1194
aycanocan	-11.1194
wanico	-11.1194
mohyilal	-11.1197
chinapnihan	-11.1199
chiwalcanojan	-11.12
lemna	-11.1205
heyeniloj	-11.1207
ayinicojan	-11.1212
isnu	-11.1214
hecolni	-11.1223
hawip	-11.1225
hunix	-11.1241
▁Ayojab	-11.1243
yinican	-11.1246
comunlahan	-11.1259
yilno	-11.1269
yexn	-11.127
yijemojab	-11.127
walach	-11.1274
chijala	-11.1283
alem	-11.1292
istxon	-11.1293
bancano	-11.1295
▁ischahnicano	-11.1307
tzoc	-11.1318
coln	-11.1323
chicancano	-11.1335
txumni	-11.1344
matxam	-11.1354
colchalo	-11.1384
yiniti	-11.142
▁wuẍtajan	-11.1445
alaxayto	-11.1462
xahanojab	-11.1479
lahaninan	-11.1484
▁Maca	-11.1491
helin	-11.1499
edonia	-11.1504
asón	-11.1505
▁Belén	-11.1505
▁Betania	-11.1505
▁Félix	-11.1505
▁Hunun	-11.1505
▁Apolos	-11.1506
▁Yawten	-11.1506
Cata	-11.1507
▁Yilni	-11.1518
isbiho	-11.1523
saías	-11.1538
iscolwa	-11.1558
elaxo	-11.1588
chinyehan	-11.1604
quexbey	-11.1608
quinchiyan	-11.1614
chiwican	-11.1615
chitxumcha	-11.1618
nohna	-11.164
ayexico	-11.1668
hami	-11.1677
yican	-11.1703
▁habi	-11.1741
tawiban	-11.1747
heyi	-11.1776
enayo	-11.1801
▁Yun	-11.1802
isyecan	-11.1826
▁isnoh	-11.1838
heyaben	-11.1858
yalaxcan	-11.1875
▁cachwa	-11.1887
chechah	-11.1894
lahico	-11.1897
wohtapaxojan	-11.1905
halbilxa	-11.1913
islahnico	-11.1915
▁xiwcan	-11.1916
ismulo	-11.1928
elna	-11.1938
ilom	-11.1965
iscolnilo	-11.1968
yohtajoj	-11.1972
istin	-11.1987
chejniti	-11.1993
heyahawil	-11.2019
inmam	-11.2026
ishajni	-11.2046
heyohtaxa	-11.2052
welo	-11.2054
chutepaxo	-11.2064
chesay	-11.2066
issaya	-11.2069
chiscaj	-11.2089
▁Chiwa	-11.2109
chichiwa	-11.211
istzoteli	-11.2122
henani	-11.2135
buchwa	-11.2149
chibe	-11.2162
jila	-11.2171
chiah	-11.2177
▁yic	-11.2197
etanto	-11.2197
ehalo	-11.2216
istucle	-11.223
subcha	-11.2256
E	-11.2258
▁mu	-11.226
licano	-11.2268
elcano	-11.2283
chiyijpaxo	-11.2294
arena	-11.2302
ejbiyal	-11.2316
heyenilo	-11.2318
pujnac	-11.232
wehic	-11.2321
unepixto	-11.2321
caẍa	-11.2321
colbilon	-11.2321
cuartel	-11.2321
ixwilal	-11.2321
legua	-11.2321
palamuch	-11.2321
tzujanex	-11.2321
’	-11.2321
▁Barrabás	-11.2321
▁Olivo	-11.2321
▁Sidón	-11.2321
▁Tiro	-11.2321
▁Wuẍtaj	-11.2321
hoyno	-11.2321
inbeybalan	-11.2321
harina	-11.2322
islahwilal	-11.2322
hunpilan	-11.2322
isyox	-11.2322
yiximal	-11.2322
▁Acaya	-11.2322
amaria	-11.2322
bulna	-11.2322
monten	-11.2322
▁Marcos	-11.2322
altar	-11.2322
isteyele	-11.2322
cocachni	-11.2322
chinelicojan	-11.2322
▁Yilal	-11.2322
▁Tomás	-11.2323
wamigo	-11.2323
chinanicojan	-11.2323
testigohal	-11.2324
uxantaxca	-11.2324
tzebo	-11.2325
chixew	-11.2326
iscuyno	-11.2332
yijatz	-11.2333
▁txahul	-11.2333
txumwe	-11.2333
yilaxilti	-11.2334
uslaxto	-11.2348
chiyahni	-11.2365
nanantaxan	-11.2369
chetxumu	-11.2371
ismujli	-11.239
uico	-11.2392
cajlax	-11.2393
chijoche	-11.2407
iscantil	-11.241
istel	-11.2411
isbey	-11.2412
tzelaxilo	-11.2414
yuninalo	-11.2423
istzabayo	-11.2434
lehan	-11.2435
chibuchwa	-11.2439
chibili	-11.2449
cawina	-11.2463
yaniti	-11.2464
babito	-11.2468
hecolchahi	-11.2468
aldea	-11.247
chahnayto	-11.2472
chisyah	-11.2484
heyabe	-11.2488
echmabil	-11.2502
chiwabehan	-11.2502
buchwal	-11.2504
chicochah	-11.2508
Comam	-11.2511
istrato	-11.2515
iscawxican	-11.2517
chiwilan	-11.2519
entojan	-11.2522
tzotelan	-11.2525
hawanico	-11.2545
chicami	-11.2552
▁Yini	-11.2575
chiillax	-11.2591
ulu	-11.2615
inxahan	-11.2629
ojlaxto	-11.2671
▁xahano	-11.2672
▁chalte	-11.2685
lahann	-11.2694
nimanojab	-11.271
ẍixan	-11.2712
epaxojan	-11.2739
ischilba	-11.276
colin	-11.2778
chewchotan	-11.2779
▁xayu	-11.2782
ilas	-11.281
hunon	-11.2813
heyehico	-11.283
ishe	-11.2847
apnihan	-11.2848
haxan	-11.2863
awtebilex	-11.2868
itah	-11.2879
enicojan	-11.2893
chinchejtojan	-11.2895
chihallaxpaxo	-11.2898
chicabcon	-11.2903
hc	-11.2906
ira	-11.2911
yichmam	-11.2911
chiwuc	-11.2918
ẍicano	-11.294
heyaco	-11.2967
hunoxa	-11.2972
inmulan	-11.2978
toco	-11.2981
tawintaj	-11.2982
txahlo	-11.2986
elilo	-11.3003
yohtaxa	-11.3007
isbelwi	-11.3008
istxam	-11.3013
iscawxi	-11.3031
enilojan	-11.3036
chiwute	-11.304
yitz	-11.3059
quexwil	-11.3065
chisye	-11.3066
yuninalxa	-11.3076
▁isla	-11.3077
▁cac	-11.3099
laxilti	-11.311
M	-11.3159
chiway	-11.3179
yalten	-11.3203
bili	-11.3206
Baytet	-11.3211
estam	-11.3211
quinyanicojan	-11.3211
▁Jairo	-11.3211
▁Jonás	-11.3211
▁Iscariote	-11.3211
▁Chipre	-11.3212
▁Caifás	-11.3212
▁Waben	-11.3212
niẍtejal	-11.3213
▁coDiosal	-11.3213
isnani	-11.3216
▁Istzabni	-11.3223
feso	-11.3228
H	-11.323
quinhulan	-11.3234
mataxca	-11.3235
istzujcha	-11.3251
▁Cheya	-11.3341
xaitzitzbican	-11.3346
iscuy	-11.3369
yabenilo	-11.3389
▁chielti	-11.3393
chiohtan	-11.3398
howan	-11.34
yechman	-11.3407
chextzala	-11.3417
chioccano	-11.3418
irla	-11.3424
inchejtojan	-11.3438
▁xacam	-11.3463
L	-11.3477
ciento	-11.3478
iscayel	-11.3479
hecawil	-11.348
yictabal	-11.3484
ayinic	-11.3491
Yuxin	-11.3537
mawa	-11.3553
isloni	-11.3571
yuninaloj	-11.3574
maapni	-11.3576
babelal	-11.3607
Machi	-11.3658
etaxto	-11.3665
esarea	-11.3685
ohchacan	-11.3687
candelero	-11.3687
cincuenta	-11.3687
ejholilo	-11.3687
hechuquil	-11.3687
isxumaquil	-11.3687
mantiado	-11.3687
maxawaco	-11.3687
panteón	-11.3687
pohlebahil	-11.3687
somchacan	-11.3687
veinticuatro	-11.3687
chejbilti	-11.3687
hawichamil	-11.3687
hetxiquin	-11.3687
patzab	-11.3687
chinyijehan	-11.3687
helanex	-11.3687
quinhawohtajojan	-11.3687
juez	-11.3687
sajsatil	-11.3687
iscawxobal	-11.3687
haltelax	-11.3687
chiwahlax	-11.3688
lanza	-11.3688
chiixli	-11.3688
titnajach	-11.3688
chinchahan	-11.3688
albalax	-11.3688
chiwilojan	-11.3688
wapnihan	-11.3689
tesataj	-11.369
yanicanico	-11.3692
laxtoj	-11.3694
chisbeybaln	-11.3696
machijinan	-11.3697
wajeb	-11.3698
iscutxbanayo	-11.37
colchahan	-11.3701
yalaxicto	-11.3703
aynatoj	-11.3703
hunujon	-11.3709
xatzujcha	-11.3709
unn	-11.371
yihti	-11.3712
ojnito	-11.3713
tzehtaj	-11.3719
axepxa	-11.3723
▁Con	-11.3734
xaheyayto	-11.3734
hunlahon	-11.374
hawohtaj	-11.3745
▁cowi	-11.3758
cancanojan	-11.3777
pac	-11.3781
yalaxto	-11.3784
tuclenoj	-11.3792
chichiwaco	-11.3816
hecuyni	-11.3828
cocolwa	-11.3831
cobeybalan	-11.3832
tijab	-11.3833
ismeltzoco	-11.384
encanilo	-11.3847
johtajojan	-11.3861
hamataj	-11.3862
saac	-11.3862
elaxcano	-11.3874
cajni	-11.3901
▁chejabo	-11.3918
chiixtan	-11.3919
aycanilo	-11.3935
heyuten	-11.3945
▁lahanxa	-11.3953
issi	-11.3972
espada	-11.3999
tzabno	-11.4003
griego	-11.4003
saduceo	-11.4003
xiwquilal	-11.4003
ismachiswalilal	-11.4004
yehobal	-11.4006
issajbilo	-11.4008
chietaxto	-11.4012
▁Yahaw	-11.4015
chisman	-11.4017
chijalnihan	-11.402
romano	-11.4032
chexxiwi	-11.4035
yahto	-11.404
jalan	-11.4048
heyip	-11.406
haninn	-11.4071
yiptzen	-11.4072
Haquin	-11.4073
iscami	-11.4086
hemam	-11.4087
cachlax	-11.4091
omex	-11.4101
▁joccano	-11.414
Tohol	-11.4187
▁Judá	-11.4187
▁Zebedeo	-11.4187
Abewe	-11.4187
▁Elizabet	-11.4187
▁Cornelio	-11.4189
▁Hum	-11.419
▁watutan	-11.4193
▁uninale	-11.4194
Tzalah	-11.4216
chimyu	-11.4269
Iwe	-11.4288
hachcachann	-11.4292
▁Ismam	-11.4301
hechah	-11.4303
ohtajan	-11.4359
jilan	-11.4362
iscamilo	-11.4374
chijanico	-11.4387
▁Ec	-11.4396
▁islahwi	-11.4416
chicobej	-11.4444
Ya	-11.4447
yetbin	-11.4461
▁cheyilni	-11.4469
cocon	-11.4472
chicotxum	-11.4551
yicta	-11.4554
inbihan	-11.4558
cadena	-11.4558
querubín	-11.4558
txitam	-11.4558
inchejaban	-11.4559
inmunilan	-11.4559
chianayo	-11.4559
▁xahul	-11.4559
chisna	-11.4569
oxebo	-11.4583
ismelyu	-11.4591
Hunt	-11.4596
ambenilo	-11.46
comunil	-11.4607
itzitzn	-11.4629
incon	-11.463
Chiwal	-11.4637
chiahilo	-11.4638
halbilcanoj	-11.4649
hulcan	-11.4652
▁Ist	-11.4654
chuman	-11.4659
watut	-11.4675
naban	-11.4685
apernaum	-11.4711
acarías	-11.4713
chepuhilo	-11.4713
wutehan	-11.4727
yijen	-11.4732
cawilxa	-11.4736
isbajil	-11.4741
heyinilo	-11.478
nohcan	-11.478
chacano	-11.4782
alomex	-11.4805
inilo	-11.4813
chawayto	-11.482
txumcha	-11.4832
nanías	-11.4911
jalno	-11.4912
maẍtajach	-11.4915
aniti	-11.4969
ayalil	-11.4977
hawala	-11.5007
cochah	-11.5012
wanican	-11.502
yilcha	-11.505
xajayto	-11.5078
isbalico	-11.511
chiyi	-11.5116
orahil	-11.5141
isxe	-11.5146
cabconcan	-11.5154
nachalo	-11.5154
ewantajil	-11.5162
chitxahli	-11.5173
chabilxa	-11.5174
incolnihan	-11.5175
cocolcha	-11.5195
chisyelo	-11.52
munlabal	-11.5236
jecoj	-11.5238
fes	-11.5247
innimanilan	-11.5266
eví	-11.5268
yaxn	-11.5269
)	-11.5269
aqueo	-11.5269
caret	-11.5269
inhelanilan	-11.5269
isyahbetajil	-11.5269
majwahan	-11.5269
oxelxa	-11.5269
pujanto	-11.5269
setenta	-11.5269
tiopía	-11.5269
txihnayo	-11.5269
txutxwi	-11.5269
yaxcamic	-11.5269
yoqui	-11.5269
▁Ayex	-11.5269
▁Simeón	-11.5269
▁Siria	-11.5269
▁Sodoma	-11.5269
comajul	-11.5269
▁Iscolomal	-11.5269
istioẍli	-11.5269
▁Prisc	-11.5269
▁Txumwe	-11.5269
hobnican	-11.5269
wiyom	-11.5269
inmayan	-11.5269
maxawute	-11.5269
▁Sara	-11.5269
camello	-11.5269
incartahan	-11.5269
isyawub	-11.5269
ichmame	-11.5269
chenahuln	-11.5269
▁Naweti	-11.5269
▁Herodías	-11.5269
▁Apni	-11.5269
bajxan	-11.5269
▁Heyohta	-11.5269
cambehal	-11.5269
matxahojab	-11.5269
alnayo	-11.5269
hihellax	-11.527
winitojan	-11.527
inchejbanilan	-11.527
▁Tesalónica	-11.527
isdiezmohal	-11.527
chinischahan	-11.527
alibe	-11.527
winajloj	-11.527
▁Aquila	-11.527
jipan	-11.527
cheyetato	-11.5271
istohi	-11.5271
ojoch	-11.5272
eojabtaj	-11.5272
comatan	-11.5272
ispohnilo	-11.5272
inhowalan	-11.5273
chexchahlaxi	-11.5273
yetaxto	-11.5274
hunepixto	-11.5274
hapaxtoj	-11.5274
▁Isyeni	-11.5274
ejbiyalil	-11.5276
camnajon	-11.5276
iscolilo	-11.5276
chiyeni	-11.5277
chiuten	-11.5279
▁xab	-11.5283
▁chucanico	-11.5283
ismajchen	-11.5286
▁Yaben	-11.5289
wewanoj	-11.529
▁inmunlahan	-11.5292
▁Chintz	-11.5292
etajinan	-11.5293
chisayni	-11.5297
wenico	-11.5299
cocawil	-11.5301
aypaxico	-11.5301
isjepla	-11.5302
yahbalo	-11.5306
chaẍhul	-11.5307
▁isbarco	-11.5308
tzencanilo	-11.5313
ahla	-11.532
chijabe	-11.5334
mahul	-11.5338
chexcolcha	-11.5342
inmunilt	-11.5372
Canan	-11.5381
cawxicanocan	-11.5382
▁itzitzto	-11.5383
ischejto	-11.5398
aynato	-11.5409
chilolax	-11.5413
munlaho	-11.5415
cotioẍ	-11.5417
cuyu	-11.5419
▁hachejab	-11.5425
hamelyu	-11.5436
chimujlax	-11.5453
isyayil	-11.5454
hajloho	-11.5459
▁chiwalto	-11.546
▁chetz	-11.5461
yanicto	-11.5462
chiutelax	-11.5467
chiwalnitojan	-11.5468
heyohtapaxo	-11.549
chicabconcan	-11.5495
hacawil	-11.5502
chexapno	-11.5504
▁heyohta	-11.5506
ehon	-11.5523
moc	-11.5549
quinchin	-11.5577
hechahnipaxo	-11.5603
istzala	-11.5604
Mato	-11.5681
inyehan	-11.5743
nipaxcano	-11.575
Matzet	-11.5759
yiyo	-11.5761
chebej	-11.5767
chuhi	-11.577
circuncidar	-11.577
dragón	-11.577
innabalan	-11.577
Matxa	-11.5777
tzujcha	-11.5777
chiloni	-11.5778
heyofrenda	-11.5781
ismohyi	-11.5782
hetxahli	-11.5788
chimohyi	-11.5789
Ayojab	-11.5789
chicolchahi	-11.5793
comonal	-11.58
elquisedec	-11.5857
ispichnico	-11.5857
hanintonan	-11.5858
yilaxti	-11.5861
nawetij	-11.5873
wetojan	-11.588
sar	-11.5888
pitni	-11.5889
istzablaxayo	-11.5903
toholn	-11.5966
iscachwa	-11.5983
Aco	-11.6017
comonn	-11.6023
camtoj	-11.6035
yabelo	-11.6066
cutxbanico	-11.6099
▁cachi	-11.6132
coxolan	-11.6217
johta	-11.6218
ahojab	-11.6228
tzeniloj	-11.6241
chinhesay	-11.6242
chabeto	-11.6304
sunilojab	-11.6316
yocxa	-11.6344
wuẍta	-11.6363
cabo	-11.6368
yabelax	-11.6369
haltebil	-11.6375
wochehan	-11.6383
ismajil	-11.6421
techaho	-11.6428
tzabnayo	-11.6431
ixloj	-11.6437
israelita	-11.6437
ispatrón	-11.6446
cocolbanil	-11.6454
tzablaxayo	-11.6457
hawatut	-11.6464
chisbej	-11.6471
yillax	-11.6474
chalico	-11.6478
dán	-11.648
ornelio	-11.648
ordán	-11.6482
▁heDiosal	-11.6482
Bejwe	-11.6482
amasco	-11.6482
▁Creta	-11.6483
tolab	-11.6484
Hanintonan	-11.6485
▁wojan	-11.6488
coloni	-11.6488
chicoyije	-11.6492
▁Yahawoj	-11.6494
▁Toxa	-11.6511
isyenicanilo	-11.6514
ilnoj	-11.6522
xaheyabe	-11.6523
ẍicanoj	-11.653
▁Yec	-11.653
chiahti	-11.6534
chielto	-11.6553
hawohta	-11.6555
laxiloj	-11.6608
helanojab	-11.6627
iscolcha	-11.6647
nahatil	-11.6747
cotxumni	-11.6748
hawuẍta	-11.6813
Maẍto	-11.6831
macxan	-11.6833
chiyil	-11.6839
saynic	-11.6841
chijilan	-11.6847
checuy	-11.6954
cuylax	-11.698
ambewe	-11.6983
Hun	-11.6996
mun	-11.7054
chachoc	-11.7072
partido	-11.7094
yallen	-11.7119
islahico	-11.7141
ofrenda	-11.7144
omás	-11.7147
adara	-11.7149
anfilia	-11.7149
chepajtze	-11.7149
chepohle	-11.7149
chibejtzolax	-11.7149
cochuquil	-11.7149
eelzebú	-11.7149
esponja	-11.7149
hujel	-11.7149
incuywomojan	-11.7149
isholanil	-11.7149
magdal	-11.7149
nueve	-11.7149
orcas	-11.7149
pahaw	-11.7149
quetzal	-11.7149
tzujnu	-11.7149
vidrio	-11.7149
yetexxa	-11.7149
incuywoman	-11.7149
ishatelax	-11.7149
istzabnoyo	-11.7149
oncio	-11.7149
reina	-11.7149
wetbihojan	-11.7149
conanitijan	-11.7149
holbil	-11.7149
ispaxayti	-11.7149
limeta	-11.7149
quiniscolnihan	-11.7149
sur	-11.7149
ohchahi	-11.7149
wuninalan	-11.7149
mayor	-11.7149
cotxahlihan	-11.7149
ispeyabil	-11.7149
weyto	-11.7149
chinyelojan	-11.7149
inmelyuhan	-11.7149
chexwayi	-11.7149
chexixli	-11.7149
hora	-11.7149
heyetbihoj	-11.7149
ismalil	-11.7149
abilonia	-11.7149
intxumnihan	-11.7149
pojoj	-11.7149
plato	-11.7149
hahelanil	-11.7149
chiwitijan	-11.7149
chixcab	-11.715
iscolwahi	-11.715
inchejabojan	-11.715
titnajinan	-11.715
isnimanbal	-11.715
piso	-11.715
seis	-11.715
isbahwa	-11.715
yintalto	-11.715
upnican	-11.7152
yelawiloj	-11.7152
inmeltzohan	-11.7152
hesaynilo	-11.7152
chialaxto	-11.7153
chitzejtzoni	-11.7156
tasataj	-11.7156
chextxahli	-11.7156
omati	-11.7157
arpa	-11.7158
maxawil	-11.7159
yixtan	-11.7162
iswinajil	-11.7163
ismunla	-11.7163
telajil	-11.7164
istohlan	-11.7165
chincanan	-11.7167
chielcanicoj	-11.7168
chicoyelo	-11.7168
chialaxicoj	-11.7169
ebtaj	-11.7169
isyenipaxilo	-11.7173
ebilayo	-11.7174
yijlen	-11.7174
quintzotelan	-11.7176
inlohan	-11.7179
iwelo	-11.718
chinchahnihan	-11.7183
xacochah	-11.7183
cheyah	-11.7185
ayinictojan	-11.7186
xahechah	-11.7186
xajalan	-11.7193
chinnatijan	-11.72
yochenico	-11.72
yanoco	-11.7201
chitac	-11.7203
ispartido	-11.7204
anajon	-11.7207
ismalen	-11.721
yinolo	-11.721
chijatojan	-11.7234
howla	-11.7235
lahanon	-11.7237
isbuchwa	-11.7239
hatelaxo	-11.7239
ẍicoj	-11.7241
iscawxicanocan	-11.7241
heyechman	-11.7248
iscamiloj	-11.7257
hinaninan	-11.7265
ayachico	-11.7267
uninto	-11.7276
comunla	-11.7281
matolo	-11.7284
incolwahan	-11.7314
hawohtajoj	-11.7316
ischuquilxan	-11.7317
inicojan	-11.7323
chislahico	-11.7323
chichahnayto	-11.7335
cheman	-11.7337
iscolchahi	-11.7343
hesayni	-11.7345
wilnojan	-11.7348
chibeybaln	-11.7372
hucanico	-11.7378
haltebilxa	-11.7384
haquexpax	-11.7392
ischahnicano	-11.7399
chinitzitzbican	-11.7403
chexcancano	-11.744
hetxah	-11.7442
chejto	-11.7462
hewayan	-11.7464
chielcanico	-11.749
yocnico	-11.7518
inilti	-11.7518
yohtapaxo	-11.7533
isculus	-11.7565
istiempohalxa	-11.7573
chianican	-11.758
ocheni	-11.759
chimunlahi	-11.7607
iscabil	-11.7626
hawohtan	-11.7673
chixan	-11.7678
chaojabilo	-11.768
yuteco	-11.7751
chialaxico	-11.7767
Hanta	-11.7835
naweti	-11.7844
amigo	-11.7857
gripa	-11.7861
ndrés	-11.7861
orinto	-11.7861
alomón	-11.7863
▁Betsaida	-11.7863
▁Galacia	-11.7863
▁Iconio	-11.7863
▁Johta	-11.7863
▁Natanael	-11.7863
▁Sión	-11.7863
▁inDiosal	-11.7863
Hallaxojab	-11.7863
iptzewe	-11.7863
▁Hajxam	-11.7863
▁Listra	-11.7863
▁Cilicia	-11.7864
▁Cirene	-11.7864
▁Yabe	-11.7872
isjobnayo	-11.7889
▁Cristohal	-11.7894
machojabtaj	-11.7976
istzotelcan	-11.7982
nohilo	-11.8033
chiyilo	-11.8036
chistzab	-11.808
chistxon	-11.8105
chexcam	-11.8109
chacto	-11.8121
copa	-11.8139
hantaxa	-11.8141
isnoh	-11.8148
chipaxto	-11.8209
hawayto	-11.8271
isyelaln	-11.8292
chitxon	-11.8346
Iwel	-11.8441
chijni	-11.8503
hitzan	-11.8547
heje	-11.8579
polos	-11.863
chinalaxicojan	-11.8632
cuatro	-11.8632
elén	-11.8632
maẍtajex	-11.8632
élix	-11.8632
saybilxa	-11.8632
etania	-11.8632
mago	-11.8633
wahawan	-11.8634
yanipaxto	-11.8634
tolto	-11.8634
yinipaxocan	-11.8639
yichenico	-11.8647
chiahto	-11.8659
hajba	-11.8667
ispohcan	-11.8691
tzujanico	-11.8833
chetxum	-11.8843
inyenilo	-11.8866
istohla	-11.8877
iscolwapaxo	-11.904
ismeltzopaxo	-11.9153
ischahlax	-11.9161
chilin	-11.9217
epaxtojan	-11.9247
mataj	-11.9269
halniloj	-11.9386
chejlaxto	-11.9415
palan	-11.9426
hucan	-11.9444
bilexxa	-11.9466
isbutni	-11.9466
alión	-11.9466
araón	-11.9466
arrabás	-11.9466
artolomé	-11.9466
azufre	-11.9466
chabejtzo	-11.9466
chaẍtohi	-11.9466
chexcuyni	-11.9466
chextohi	-11.9466
chiluylun	-11.9466
chinbejtzohan	-11.9466
cotxumuloj	-11.9466
enesaret	-11.9466
enjamín	-11.9466
eremías	-11.9466
hehelbal	-11.9466
hierro	-11.9466
higo	-11.9466
hulnajojinan	-11.9466
idón	-11.9466
inbejcanojan	-11.9466
inbejtzonan	-11.9466
inchejnihan	-11.9466
iria	-11.9466
isbujil	-11.9466
iscawxenico	-11.9466
ismeẍahil	-11.9466
ispuhnilo	-11.9466
isreligión	-11.9466
issomni	-11.9466
jaspe	-11.9466
jijlenan	-11.9466
jxamex	-11.9466
lejandría	-11.9466
libra	-11.9466
mirra	-11.9466
molino	-11.9466
muji	-11.9466
noventa	-11.9466
numnahi	-11.9466
ohchahilal	-11.9466
omorra	-11.9466
pafras	-11.9466
palacio	-11.9466
quinyinitojan	-11.9466
rimatea	-11.9466
somchahoto	-11.9466
stéfanas	-11.9466
tzublico	-11.9466
ugusto	-11.9466
vara	-11.9466
értulo	-11.9466
ólgota	-11.9466
▁Berea	-11.9466
▁Diana	-11.9466
▁Nicodemo	-11.9466
▁Troas	-11.9466
istzumbenilti	-11.9466
quinanitijan	-11.9466
txumweloj	-11.9466
uplaxcan	-11.9466
ahwobal	-11.9466
ejbixa	-11.9466
hilanto	-11.9466
▁Lot	-11.9466
chinsayan	-11.9466
lasu	-11.9466
xawabehan	-11.9466
chicutxi	-11.9466
inlahnihan	-11.9466
sajbat	-11.9466
hawinilti	-11.9466
lembil	-11.9466
chiiptzen	-11.9466
chitibayo	-11.9466
chicajwa	-11.9466
yilwelax	-11.9466
echmawe	-11.9466
chijiyo	-11.9466
etanoto	-11.9466
chiwalnicanojan	-11.9466
hatohi	-11.9466
ooz	-11.9466
▁Laodicea	-11.9466
chiinahti	-11.9466
iswejcha	-11.9466
coseleloj	-11.9466
ẍiaytij	-11.9466
chijaytojan	-11.9466
diáconohal	-11.9466
uixto	-11.9466
chimeltzoco	-11.9466
heseleloj	-11.9466
otzba	-11.9466
chahbilxa	-11.9466
quinelicojan	-11.9466
helanile	-11.9467
soman	-11.9467
aypaxicto	-11.9467
isnahuln	-11.9467
chawabeto	-11.9467
chejbilintijan	-11.9467
chinheyilan	-11.9467
▁Aarón	-11.9467
chalpaxtoj	-11.9467
hawanayo	-11.9468
incapilan	-11.9468
chijechmahan	-11.9468
▁Tol	-11.9468
txihom	-11.9469
tzalacanocan	-11.9469
yitzitzbipaxocan	-11.9469
heloni	-11.9472
usni	-11.9473
ispaxti	-11.9473
cocuyni	-11.9474
hajcha	-11.9475
yiptzencano	-11.9475
chiyeno	-11.9475
chayelo	-11.9476
islahabico	-11.9477
cawxojan	-11.9477
ajban	-11.9479
yapaxayto	-11.9479
satnom	-11.948
jahnojan	-11.9481
ucas	-11.9482
hawinilo	-11.9484
chisatni	-11.9488
chishatx	-11.949
isdiezmo	-11.9491
quexwohtajojan	-11.9496
chicobeybaln	-11.9498
yabelaxilo	-11.9499
cheyipaxto	-11.9504
chelahico	-11.9511
chachhul	-11.9512
arcos	-11.9515
ismajni	-11.9517
xajaco	-11.9533
quexcolwa	-11.9539
ancianohal	-11.954
henanitij	-11.9542
hacachni	-11.9545
epta	-11.9546
chechma	-11.9546
ispajtzen	-11.955
▁bin	-11.955
isnanilo	-11.9551
yinilti	-11.9577
issubcha	-11.9579
onbayo	-11.9588
chicoyijehan	-11.9604
mahalni	-11.9607
issabehal	-11.9608
cocolni	-11.9614
chialaxayo	-11.962
chebejcano	-11.9623
heyinican	-11.9641
chicosayi	-11.9653
heyamigo	-11.9664
iscawxico	-11.9677
isyecanilo	-11.9696
yalnolo	-11.9701
chicolohan	-11.9718
chachah	-11.9727
ismunlabal	-11.9746
hehunban	-11.975
helom	-11.9792
cabconocan	-11.9864
halilo	-11.9889
hujuy	-11.9909
txumiloj	-11.9949
chijcano	-11.9951
Waxa	-11.9954
cuybanilehal	-12.0118
bejcano	-12.0143
Il	-12.0172
aifás	-12.0373
scariote	-12.0375
majaltam	-12.0375
reta	-12.0375
wahawilan	-12.0376
yubojab	-12.0379
airo	-12.038
hipre	-12.0398
batxn	-12.0408
hiwochehan	-12.0449
chicocutxba	-12.0537
W	-12.0632
yecanocan	-12.0641
cocutxban	-12.0722
yacto	-12.107
Wohta	-12.1145
▁Yilaxt	-12.1192
hisje	-12.1268
toholban	-12.133
jobnayo	-12.1338
bejwe	-12.1371
▁Isaí	-12.1374
lizabet	-12.1374
Oxel	-12.1375
chintxuman	-12.1375
ebedeo	-12.1375
isholnito	-12.1375
udá	-12.1375
▁Atenas	-12.1375
▁Filipos	-12.1375
▁Italia	-12.1375
▁Salmos	-12.1375
▁Quin	-12.1375
▁Yijem	-12.1375
Yechel	-12.1375
quinyacojan	-12.1375
▁Mateo	-12.1375
istxihni	-12.1375
▁Cachan	-12.1375
▁Tíquico	-12.1376
▁Tarso	-12.1376
▁Alejandro	-12.1376
▁Alfeo	-12.1376
▁Aristarco	-12.1376
chawiti	-12.1396
chiwaytojan	-12.1431
Chej	-12.1597
utxbacan	-12.1638
cosaya	-12.1707
hesaya	-12.1883
incuynihan	-12.1994
poho	-12.202
chawte	-12.2296
pujba	-12.2389
jepla	-12.2431
chejnitijan	-12.248
itzitzbipaxocan	-12.2481
quila	-12.2484
arón	-12.2484
esalónica	-12.2484
erodías	-12.2485
camposanto	-12.2486
machijex	-12.2486
saybilon	-12.2486
ainán	-12.2486
alabastro	-12.2486
amaliel	-12.2486
aynajext	-12.2486
bronce	-12.2486
cebada	-12.2486
centavo	-12.2486
chaẍwacanicojan	-12.2486
chicotzujbanico	-12.2486
chintohlahan	-12.2486
chitzicobtan	-12.2486
copohnilo	-12.2486
cutxanxaco	-12.2486
ebilpaxcanayo	-12.2486
ecápolis	-12.2486
eftalí	-12.2486
emetrio	-12.2486
encaniltojan	-12.2486
entecostés	-12.2486
ergio	-12.2486
espejo	-12.2486
etfagé	-12.2486
hawetbihoj	-12.2486
hecamiẍ	-12.2486
hepajtzen	-12.2486
imeón	-12.2486
inchejnitojan	-12.2486
inmajulan	-12.2486
inpatronan	-12.2486
inwinajilan	-12.2486
inxewan	-12.2486
inxewninojan	-12.2486
iscutxico	-12.2486
ismujlubal	-12.2486
ismujni	-12.2486
isnumerohal	-12.2486
ispitnilto	-12.2486
issuni	-12.2486
levita	-12.2486
liaquim	-12.2486
libro	-12.2486
maxawayto	-12.2486
maxeyabe	-12.2486
maxeyil	-12.2486
maxeyiti	-12.2486
minadab	-12.2486
nazareno	-12.2486
odoma	-12.2486
ohbaco	-12.2486
pujnato	-12.2486
quexjilnojan	-12.2486
quinhetzabayojan	-12.2486
reópago	-12.2486
rigia	-12.2486
sajbes	-12.2486
siquihan	-12.2486
vinagre	-12.2486
wichmaman	-12.2486
úpiter	-12.2486
chahobcan	-12.2486
coronahil	-12.2486
inchejtijan	-12.2486
ismujno	-12.2486
metro	-12.2486
cawbolo	-12.2486
irlahi	-12.2486
rabia	-12.2486
iscallehal	-12.2486
issellohal	-12.2486
yuxlax	-12.2486
chinanocojan	-12.2486
ebilpaxcano	-12.2486
mohi	-12.2486
ismasnico	-12.2486
locohal	-12.2486
istzilbanil	-12.2486
japnicanojan	-12.2486
numero	-12.2486
allaxico	-12.2486
chihajlax	-12.2486
chiwalpaxtojan	-12.2486
colahban	-12.2486
hunlahanxan	-12.2486
isxecnican	-12.2486
yojtabanil	-12.2486
horno	-12.2486
sombil	-12.2486
chistenico	-12.2486
hetzumbe	-12.2486
hawixal	-12.2486
wanaytojan	-12.2486
nawn	-12.2486
iscajlen	-12.2486
innanihan	-12.2486
iweyo	-12.2486
ichicanti	-12.2486
usno	-12.2486
walaxicojan	-12.2486
ilaxayoj	-12.2486
idia	-12.2486
hecolwabal	-12.2486
chílo	-12.2486
uxewal	-12.2486
ishabilal	-12.2486
istzabloco	-12.2486
chinilnihan	-12.2486
winitijan	-12.2487
chijucano	-12.2487
tzabchati	-12.2487
hewahni	-12.2487
mohyinaxa	-12.2487
chinmujlaxan	-12.2487
ecanilto	-12.2487
hayeboxa	-12.2487
chinochenan	-12.2488
intzanojan	-12.2488
chahloyo	-12.2488
helanilehal	-12.2488
cotopaxojan	-12.2488
hayenilo	-12.2488
tzelaxcanilo	-12.2488
iscolomal	-12.2488
txiho	-12.2488
jochebal	-12.2488
hecachni	-12.2488
intoholan	-12.2488
chiyabeto	-12.2489
isyahni	-12.2489
chiwahni	-12.249
hematan	-12.249
quinyintan	-12.2491
quinchejnitijan	-12.2492
coleyan	-12.2493
chishajba	-12.2495
chiyucanico	-12.2497
chenati	-12.2497
istxumabilo	-12.2499
hebejtzo	-12.2499
sajbilo	-12.2502
chahwal	-12.2502
upni	-12.2503
istzumben	-12.2504
chipohchacan	-12.2505
ayinictijan	-12.2513
yicheco	-12.2516
ayextoco	-12.2518
isyijelaxi	-12.2519
chachyawte	-12.2521
yinoyo	-12.2525
coyahni	-12.2526
chilann	-12.2527
laudio	-12.2545
intopaxojan	-12.2546
sunilopaxo	-12.2553
chaẍapno	-12.2609
heyintan	-12.2617
zalajon	-12.2703
innanitijan	-12.2719
hetxumilo	-12.2743
Anma	-12.3023
chiwejcha	-12.3457
wohtami	-12.3511
▁Matat	-12.3599
bajil	-12.3692
ebreo	-12.3732
riscila	-12.3736
Hujeb	-12.3736
puerto	-12.3736
wochebalan	-12.3736
▁Agar	-12.3736
▁Anás	-12.3736
▁Balaam	-12.3736
▁Chicawxi	-12.3736
▁César	-12.3736
▁Hecolomal	-12.3736
▁Nínive	-12.3736
▁Obed	-12.3736
▁Silvano	-12.3736
▁Niman	-12.3736
▁Onésimo	-12.3736
chimisje	-12.3736
wilnipaxojan	-12.3736
ishajlax	-12.3736
▁Heyahawil	-12.3736
▁Hemam	-12.3736
Awte	-12.3736
▁Enoc	-12.3737
▁Yanicanic	-12.3737
Tet	-12.3739
tzalahojab	-12.3742
chahpaxico	-12.4396
istra	-12.5144
ilicia	-12.5162
irene	-12.5162
alacia	-12.5164
alaxojabico	-12.5164
etsaida	-12.5164
filipo	-12.5164
sión	-12.5164
hecolomal	-12.5164
ishitzilo	-12.5164
waxajebxa	-12.5164
semanahil	-12.5164
salmo	-12.5164
mawitijan	-12.5165
yablen	-12.5165
cachanxan	-12.5168
ispahni	-12.517
ohtapaxoj	-12.5175
xawil	-12.524
himhawayto	-12.5583
Yohta	-12.6236
chehunba	-12.6264
chimheyal	-12.6631
olwahan	-12.6696
hinnatijan	-12.6703
jochehan	-12.6716
diezmo	-12.6776
majchen	-12.6778
awteti	-12.6785
tzumbeni	-12.6803
chitzejtzon	-12.6813
cobeja	-12.6819
zijxan	-12.6819
yelawil	-12.6824
chijechma	-12.6826
chiwoche	-12.6826
diácono	-12.683
aodicea	-12.683
inhatzumbe	-12.6831
icodemo	-12.6831
ismuju	-12.6831
Eneas	-12.6831
abriel	-12.6831
acuẍa	-12.6831
ahnolojan	-12.6831
ajtzewe	-12.6831
alawena	-12.6831
apadocia	-12.6831
arcángel	-12.6831
arsabás	-12.6831
bahlaxan	-12.6831
chatohla	-12.6831
chejbilinan	-12.6831
chexintohlahan	-12.6831
chexiptzeni	-12.6831
chexmeltzohi	-12.6831
chicawxenico	-12.6831
chichemlipaxo	-12.6831
chihowbican	-12.6831
chimujni	-12.6831
chinbabitojan	-12.6831
chinetlihan	-12.6831
chinhechaytojan	-12.6831
chinhenatijan	-12.6831
chinálaxicojan	-12.6831
chiquechmoto	-12.6831
ñ	-13.5802
U	-13.5803
Q	-13.5804
(	-13.5805
‘	-13.5806
Z	-13.5807
X	-13.5808
R	-13.5809
F	-13.581
G	-13.5811
B	-13.5812
¡	-13.5813
v	-13.5814
ó	-13.5815
á	-13.5816
“	-13.5817
S	-13.5818
P	-13.5819
é	-13.582
¿	-13.5821
ú	-13.5822
―	-13.5823
J	-13.5824
D	-13.5825
ẍ	-13.5826
x	-13.5827
