<pad>	0
</s>	0
<unk>	0
,	-2.88172
.	-3.32471
▁ir	-3.8698
i	-3.92988
s	-3.94212
▁	-4.10982
ų	-4.22628
o	-4.33208
▁kad	-4.53159
ą	-4.74431
e	-4.78287
a	-4.81376
as	-4.91718
os	-4.9364
u	-5.00224
▁Europos	-5.15603
us	-5.18399
▁su	-5.20248
ti	-5.22926
▁į	-5.25222
ai	-5.28622
▁dėl	-5.37979
▁yra	-5.43373
k	-5.46498
▁ne	-5.47459
▁iš	-5.48024
▁-	-5.50393
m	-5.60523
▁tai	-5.67712
ė	-5.68104
v	-5.72363
p	-5.83581
d	-5.86736
ės	-5.88219
▁pat	-5.90847
n	-5.91695
me	-5.92669
)	-5.92813
į	-5.93126
▁(	-5.93135
t	-5.94324
y	-5.97667
▁kaip	-6.00434
ę	-6.07659
▁taip	-6.09469
▁ši	-6.11103
▁už	-6.1223
▁m	-6.12617
b	-6.15101
in	-6.15163
is	-6.17434
z	-6.19
r	-6.19865
▁ES	-6.20236
▁būtų	-6.20488
nt	-6.2093
ta	-6.2098
ma	-6.21427
▁turi	-6.21784
▁būti	-6.21796
g	-6.23906
▁to	-6.27043
▁pa	-6.30021
es	-6.30059
▁tik	-6.30865
▁labai	-6.31464
au	-6.31848
▁savo	-6.32931
l	-6.34542
ais	-6.34711
▁buvo	-6.36818
li	-6.38485
▁apie	-6.39556
▁per	-6.40544
ių	-6.44168
al	-6.45096
▁mūsų	-6.45581
▁be	-6.45945
ž	-6.45994
▁nes	-6.48299
ja	-6.48981
▁Komisijos	-6.49764
te	-6.5139
▁dar	-6.51765
to	-6.51841
ra	-6.52799
▁pirmininke	-6.55947
▁ar	-6.57832
▁kai	-6.58105
imo	-6.58314
▁bet	-6.58922
si	-6.59183
▁o	-6.61022
oje	-6.61997
tų	-6.62418
š	-6.64369
en	-6.67418
▁gali	-6.68251
▁nuo	-6.70979
▁mes	-6.7128
▁bus	-6.71353
imas	-6.71709
omis	-6.73747
▁kurie	-6.75119
▁vis	-6.75419
▁jų	-6.76306
▁reikia	-6.7707
▁Tai	-6.7754
▁d	-6.77895
mi	-6.79233
▁turėt	-6.80517
imą	-6.81359
ar	-6.82717
▁K	-6.82802
▁kuri	-6.83786
▁Sąjungos	-6.84087
▁norėčiau	-6.84273
▁at	-6.84416
▁"	-6.84661
ir	-6.86167
io	-6.86344
▁S	-6.86475
:	-6.87115
iu	-6.87288
▁t	-6.88241
tas	-6.8875
ant	-6.89425
▁prie	-6.89545
▁jau	-6.89705
▁Parlamento	-6.91433
mas	-6.91807
▁Todėl	-6.92442
j	-6.93751
▁k	-6.94663
▁Komisija	-6.95855
ri	-6.97077
▁turime	-6.97368
▁darbo	-6.97478
oms	-6.97617
▁B	-6.97936
iai	-6.98206
ek	-6.98528
▁daug	-7.00672
▁kurios	-7.01002
re	-7.01157
ams	-7.0143
na	-7.01859
▁po	-7.01914
▁jos	-7.02365
▁narių	-7.02494
ame	-7.0486
el	-7.05593
▁Ši	-7.06569
"	-7.06671
▁teisės	-7.07919
▁valstybės	-7.08149
▁valstybių	-7.0849
ei	-7.08858
▁šį	-7.09085
ui	-7.09182
f	-7.0967
▁prieš	-7.10007
▁M	-7.13345
▁metu	-7.13376
?	-7.14326
▁Tačiau	-7.14326
▁G	-7.14336
išk	-7.1474
er	-7.15149
▁mums	-7.15596
▁šiuo	-7.16238
ūr	-7.16295
▁Pone	-7.16375
ni	-7.16635
▁ypač	-7.16883
▁daugiau	-7.17999
yti	-7.18069
▁pasi	-7.18115
▁P	-7.18212
tin	-7.18552
ka	-7.18603
▁J	-7.18666
ia	-7.19522
ko	-7.20228
iau	-7.20355
ik	-7.20898
ur	-7.21857
▁užtikrinti	-7.21923
or	-7.22648
uose	-7.22792
▁tačiau	-7.24133
▁A	-7.24667
▁p	-7.24688
▁šios	-7.25145
sta	-7.25774
▁nėra	-7.26089
ys	-7.26871
umo	-7.27331
ū	-7.27594
▁siekiant	-7.27877
inės	-7.28182
▁kuris	-7.2896
▁Be	-7.28999
▁politikos	-7.29259
am	-7.29279
P	-7.29605
aus	-7.29636
▁Vis	-7.29867
ijos	-7.30629
▁todėl	-7.31044
tar	-7.31138
ak	-7.31724
▁nu	-7.31884
0	-7.32114
ųjų	-7.34149
▁mano	-7.34222
an	-7.34258
ose	-7.34993
▁svarbu	-7.35129
h	-7.36213
mą	-7.36236
mo	-7.36342
uot	-7.367
▁šalių	-7.37495
▁aš	-7.37523
ėje	-7.38252
▁Taip	-7.38671
gi	-7.40085
▁ji	-7.40262
▁T	-7.40606
▁teisių	-7.4122
▁proc	-7.41515
▁Gerb	-7.41717
ius	-7.41735
yb	-7.41821
▁susijusi	-7.42059
on	-7.42153
c	-7.42539
dži	-7.42683
▁manau	-7.43377
ėme	-7.43406
ms	-7.43535
▁tam	-7.43988
;	-7.44066
pa	-7.44395
▁dabar	-7.45423
di	-7.46438
▁iki	-7.46915
dami	-7.47002
lo	-7.47023
▁jis	-7.47158
▁narės	-7.47492
▁re	-7.47546
▁ko	-7.47683
▁šio	-7.48527
▁maž	-7.48554
▁ekonomikos	-7.48582
ne	-7.48663
▁jo	-7.48723
▁R	-7.4889
▁nepa	-7.48994
ing	-7.49071
ty	-7.49083
tu	-7.49426
mos	-7.49505
▁visų	-7.49506
▁galima	-7.49534
▁Parlamentas	-7.50011
▁visiška	-7.50715
umą	-7.50842
▁teis	-7.50943
▁klausimas	-7.51118
▁srityje	-7.5183
tos	-7.51899
▁bendradarbiavim	-7.52566
▁kas	-7.52788
uoti	-7.53477
▁pagal	-7.53665
inių	-7.53908
▁tarp	-7.54069
▁pri	-7.54159
ojo	-7.54443
▁Tarybos	-7.54809
▁šiandien	-7.54809
sime	-7.5519
▁L	-7.55293
▁kurį	-7.55386
▁Mes	-7.55495
usi	-7.55497
▁žmogaus	-7.55573
▁metų	-7.55588
ėja	-7.55685
▁Pa	-7.56244
ro	-7.56708
▁jie	-7.56865
▁būtina	-7.57389
▁reikal	-7.57409
▁sk	-7.57518
tik	-7.577
▁negali	-7.57756
do	-7.5799
jo	-7.58095
▁arba	-7.58384
ėmis	-7.5857
▁vien	-7.5877
da	-7.59136
▁kurių	-7.59172
la	-7.59457
ėjo	-7.59696
▁v	-7.60895
▁C	-7.61412
▁žmonių	-7.61452
▁Manau	-7.61524
▁ką	-7.61636
osios	-7.61652
ci	-7.61897
▁pranešimą	-7.61899
▁man	-7.62401
vo	-7.6313
▁rinkos	-7.63335
▁E	-7.64116
▁š	-7.64565
▁priemonių	-7.65226
▁Sąjunga	-7.65273
▁kuriuos	-7.65751
▁ž	-7.66216
▁pasakyti	-7.66443
-	-7.66471
inti	-7.66918
▁jei	-7.67259
ol	-7.67312
▁D	-7.67411
▁raštu	-7.67705
E	-7.68124
ina	-7.68384
▁tiek	-7.68551
▁šis	-7.6872
▁veiksmų	-7.69879
il	-7.69938
aug	-7.70598
iškai	-7.7121
et	-7.71283
le	-7.71406
ama	-7.71871
▁prekybos	-7.72101
galėtų	-7.72734
▁jog	-7.72804
gu	-7.72962
tai	-7.73012
▁ap	-7.73088
▁toliau	-7.73475
▁svarbi	-7.73604
▁net	-7.73821
at	-7.74544
▁klausimu	-7.7477
iam	-7.74799
ch	-7.74861
lai	-7.75452
uoja	-7.7561
dama	-7.75857
▁klausimą	-7.76253
jų	-7.7693
ga	-7.7714
no	-7.77149
▁pirma	-7.77373
▁l	-7.77385
▁atveju	-7.77645
▁Ne	-7.77897
iems	-7.77951
tą	-7.78046
▁Norėčiau	-7.78121
▁energijos	-7.786
ig	-7.79085
var	-7.79432
veik	-7.79866
▁žemės	-7.80115
▁Poni	-7.80585
imu	-7.80741
▁V	-7.80947
▁pagrindini	-7.81212
inio	-7.81958
T	-7.8211
▁I	-7.82153
▁Lisabono	-7.82512
▁kartą	-7.83052
ba	-7.83559
▁atsi	-7.83568
▁klimato	-7.84527
▁politika	-7.84527
▁N	-7.84648
joje	-7.84675
kt	-7.8499
▁kelia	-7.85096
▁kartu	-7.85119
1	-7.8544
▁nors	-7.8572
▁kur	-7.85839
▁apsaugos	-7.86433
▁susi	-7.87462
▁pra	-7.87704
▁vertin	-7.88051
ly	-7.88149
▁kurią	-7.88548
▁bendr	-7.88714
▁frakcijos	-7.88838
kai	-7.88931
▁kuria	-7.89023
5	-7.89114
▁padėkoti	-7.89216
▁vardu	-7.89232
▁Šiuo	-7.9013
▁dėmesį	-7.90288
▁Aš	-7.90539
L	-7.90666
oji	-7.90839
▁jūsų	-7.90986
tis	-7.91277
2	-7.91279
čiau	-7.91349
A	-7.91372
▁dėlto	-7.91653
▁laisv	-7.91761
ij	-7.93132
▁Kaip	-7.93181
▁Jei	-7.93239
S	-7.93277
mis	-7.93279
ime	-7.93413
▁viena	-7.93468
▁Europoje	-7.93576
▁Pirmininke	-7.93579
▁nei	-7.93776
iant	-7.93821
▁padaryti	-7.94002
mų	-7.9414
damas	-7.94317
ėms	-7.94347
▁politiką	-7.94696
▁ponai	-7.9474
ky	-7.94977
▁priimti	-7.95002
▁ūkio	-7.95261
▁imtis	-7.95271
▁pranešime	-7.95283
ju	-7.95296
▁skirt	-7.95422
▁tuo	-7.95513
▁2	-7.95713
▁sak	-7.95811
kl	-7.96304
ūs	-7.96361
cija	-7.9649
▁priemones	-7.96503
je	-7.96594
ome	-7.96639
avo	-7.97389
▁koki	-7.97595
▁atžvilgiu	-7.98135
▁mėn	-7.98163
ją	-7.98889
▁piliečių	-7.98992
▁Dėl	-7.99309
▁Ar	-7.99569
inink	-7.99601
▁de	-7.99838
▁biudžeto	-8.00364
▁gal	-8.00949
▁nauj	-8.01049
tume	-8.01333
▁rink	-8.01465
rin	-8.01495
čių	-8.01528
dar	-8.01635
gal	-8.01848
▁pateikti	-8.01899
▁politin	-8.02132
rod	-8.02485
va	-8.02679
▁įgyvendinti	-8.02794
▁svarbus	-8.02857
▁darbą	-8.02921
▁nuomone	-8.02926
▁kitų	-8.02948
▁plan	-8.02964
▁turėtum	-8.02983
▁įvairi	-8.03841
▁kar	-8.03888
▁Taryba	-8.04022
▁čia	-8.04816
▁visiems	-8.04937
▁keli	-8.04949
imui	-8.05095
▁Turi	-8.05202
ran	-8.05395
▁patvirtin	-8.05453
▁labiau	-8.05853
▁Europa	-8.06435
▁atsižvelgia	-8.06582
▁vidaus	-8.0667
▁šia	-8.07241
▁jūs	-8.07744
▁tikrai	-8.07875
raš	-8.0825
imų	-8.08659
gr	-8.08883
▁aiškiai	-8.08994
em	-8.09079
▁vienas	-8.09485
ist	-8.09509
▁veiksming	-8.09563
▁visos	-8.09764
▁ponios	-8.10538
ln	-8.10651
▁ra	-8.11231
avimo	-8.11411
▁aspekt	-8.11864
▁H	-8.1187
esni	-8.12164
▁ga	-8.12376
▁požiūriu	-8.12535
▁saugumo	-8.12594
▁atskir	-8.1265
▁jeigu	-8.13282
▁tikrųjų	-8.13287
▁pas	-8.13318
▁g	-8.13356
▁įgyvendin	-8.13525
ęs	-8.13547
K	-8.13616
bo	-8.1392
▁tinkam	-8.13984
▁galimybę	-8.14036
▁galime	-8.14432
▁neturi	-8.14438
str	-8.1453
▁šiuos	-8.14737
N	-8.14964
iame	-8.14974
▁institucijos	-8.15265
▁pasiekti	-8.15287
▁siekiama	-8.15394
▁laiko	-8.15528
▁finansų	-8.15573
▁sukurti	-8.15749
▁klausimus	-8.16119
▁šioje	-8.16383
▁du	-8.1649
umas	-8.16519
imai	-8.16578
▁nariai	-8.16751
▁sistemos	-8.17363
▁kiek	-8.1737
DE	-8.174
▁vieš	-8.17424
▁tokia	-8.17495
▁tikr	-8.17757
▁F	-8.17811
mus	-8.17832
ter	-8.18092
inimo	-8.18107
▁pabrėžti	-8.18298
▁tvar	-8.18684
iams	-8.18868
▁didel	-8.18987
trauk	-8.1899
▁nustatyti	-8.19339
▁maisto	-8.19509
vert	-8.19593
iausi	-8.19965
čio	-8.20053
▁O	-8.2013
nčios	-8.20239
ad	-8.20475
▁transporto	-8.20518
▁pirm	-8.20566
▁padėti	-8.20976
▁visi	-8.21123
▁komiteto	-8.21696
▁socialini	-8.21781
▁Sąjungoje	-8.22437
▁moterų	-8.22437
▁sveikatos	-8.22437
▁EUR	-8.22437
▁jums	-8.22477
▁žinoma	-8.22628
▁pateik	-8.23402
iniai	-8.23564
▁reform	-8.24022
▁kuriuo	-8.24298
▁reiškia	-8.24874
▁mokslini	-8.24904
yje	-8.25202
/	-8.25456
▁energetikos	-8.25458
bu	-8.25761
I	-8.26095
▁pasaulyje	-8.26225
▁įskaitant	-8.26225
▁sistema	-8.26225
▁krizės	-8.26417
▁Iš	-8.26429
▁šiam	-8.26858
uk	-8.26979
▁plėtros	-8.27
▁šalies	-8.27
mės	-8.27288
ymo	-8.2759
▁įtrauk	-8.27799
▁valstybėms	-8.27808
▁praš	-8.28077
▁Mano	-8.28186
čia	-8.28481
▁vietos	-8.28569
▁nebuvo	-8.28569
▁pagrindin	-8.29223
▁šalys	-8.29322
▁priemonės	-8.29395
der	-8.29737
▁saug	-8.29744
inis	-8.29942
▁nesu	-8.30339
▁valstybėse	-8.3059
ap	-8.30899
▁šalims	-8.30969
▁pak	-8.31006
▁pasiūlymą	-8.31057
▁Tarybai	-8.31127
du	-8.31429
mon	-8.31617
▁juos	-8.31686
▁turės	-8.31783
▁jį	-8.31799
▁aplinkos	-8.32028
▁Parlamente	-8.32602
tį	-8.32794
▁Kita	-8.33104
▁griežt	-8.33428
▁šalyse	-8.33471
▁Es	-8.33726
▁sav	-8.33748
▁nor	-8.34057
inę	-8.34084
▁didesn	-8.34183
4	-8.34256
R	-8.34258
▁vadov	-8.34261
C	-8.34261
inį	-8.34312
iš	-8.34397
▁produktų	-8.35055
esn	-8.35086
▁metais	-8.35103
ver	-8.35193
jai	-8.35354
ut	-8.35433
▁kurio	-8.35744
ino	-8.35805
▁žmonės	-8.3595
6	-8.35967
▁paslaugų	-8.36804
▁srityse	-8.3688
▁stat	-8.37139
▁pus	-8.37167
▁kurioje	-8.37469
▁padėtį	-8.37762
and	-8.37842
▁direktyvos	-8.37903
▁svarb	-8.37993
▁mok	-8.3809
▁kuriai	-8.38101
▁oro	-8.38108
▁euro	-8.38468
▁problema	-8.38508
▁pasaulio	-8.38536
▁narys	-8.38539
▁kitos	-8.38992
▁visa	-8.39357
O	-8.3947
čiai	-8.39683
ku	-8.39715
ren	-8.39858
▁bendrą	-8.40284
ip	-8.4043
▁vieną	-8.40479
▁lygio	-8.40508
▁nori	-8.40601
din	-8.40991
▁var	-8.41086
▁veiklos	-8.41193
▁spręsti	-8.41196
▁vėl	-8.41472
▁lyg	-8.41726
▁noriu	-8.42
audo	-8.42042
▁įstatym	-8.42092
▁pagalbos	-8.42097
▁kuriam	-8.42102
tor	-8.42103
kur	-8.42113
▁pranešimas	-8.42196
D	-8.42218
▁kuriose	-8.42269
pv	-8.42289
▁vyriausyb	-8.42524
▁Ž	-8.42575
▁ją	-8.42874
▁pažeid	-8.43
▁išteklių	-8.43001
▁rimt	-8.43007
▁At	-8.43015
umu	-8.43015
▁taisyklių	-8.43053
ąją	-8.43121
▁visuomenės	-8.43253
B	-8.43879
9	-8.43885
▁lėšų	-8.43918
▁kelet	-8.43919
▁šalis	-8.43919
▁Bendrijos	-8.43961
▁nar	-8.43992
▁pranešimo	-8.44039
▁jiems	-8.44143
kos	-8.44337
▁skatinti	-8.44356
▁teisę	-8.44493
▁gr	-8.44509
▁šie	-8.4469
▁2009	-8.44861
8	-8.45025
▁Balsav	-8.45175
▁Taigi	-8.45199
▁val	-8.45255
▁įsi	-8.45432
▁efektyv	-8.45496
be	-8.45707
ieji	-8.45732
▁va	-8.45774
▁pastar	-8.45889
ntys	-8.45986
▁tiesų	-8.46503
▁tarptautin	-8.46564
▁aukšt	-8.46723
▁ilg	-8.46743
▁narėms	-8.46758
▁suteikti	-8.46975
▁norime	-8.4706
kia	-8.47106
▁jūros	-8.47674
▁gyventojų	-8.47675
▁tikslas	-8.47678
▁sumažinti	-8.48062
ac	-8.48403
ems	-8.48635
▁institucijų	-8.48636
▁mokesčių	-8.48636
▁ateityje	-8.48637
▁piliečiams	-8.48664
▁ja	-8.48687
▁mažiau	-8.48804
▁Tik	-8.49034
▁skirti	-8.49304
▁metus	-8.49425
▁gerai	-8.49579
▁sistemą	-8.49607
▁vaidmenį	-8.49607
nčių	-8.49656
▁kuo	-8.49681
3	-8.49901
▁narėse	-8.49985
▁teises	-8.50137
▁pasiek	-8.50258
kla	-8.50586
▁gamyb	-8.50588
▁Antra	-8.50589
▁tinkl	-8.50595
▁lygmeniu	-8.50618
▁pritariu	-8.50689
▁De	-8.507
▁mat	-8.50958
▁suteik	-8.51111
amas	-8.51386
▁bendro	-8.51432
▁priežiūros	-8.51577
▁rodo	-8.51615
▁tekst	-8.51656
▁susitarimas	-8.51663
ry	-8.5218
▁padar	-8.52488
▁vartotojų	-8.52577
▁būtent	-8.5258
▁aktų	-8.52586
▁susitarimo	-8.52676
dr	-8.52774
kr	-8.52794
lio	-8.52823
▁nary	-8.52911
▁geriau	-8.53168
antis	-8.53391
▁svarbiausia	-8.53572
▁finansin	-8.54282
▁priimt	-8.54352
ntis	-8.54638
▁pirmiausia	-8.54644
▁papildom	-8.54656
▁rezoliucijos	-8.54774
▁palaik	-8.54826
7	-8.54946
tro	-8.55011
▁visuomen	-8.55252
▁žmonėms	-8.55639
▁fakt	-8.55659
▁ekonomin	-8.55694
▁reikėtų	-8.55855
sis	-8.5587
steb	-8.55879
▁visus	-8.56037
▁3	-8.56277
nų	-8.56367
▁įtraukti	-8.56384
▁treči	-8.56595
▁privalo	-8.5661
▁Kai	-8.5661
▁darbuotojų	-8.5668
▁kompromis	-8.5668
▁20	-8.57051
▁esame	-8.5709
ši	-8.57128
U	-8.57137
▁vyksta	-8.57467
▁kovos	-8.5747
▁Man	-8.5759
▁taikyti	-8.57757
pl	-8.57773
▁padėtis	-8.57799
▁esu	-8.57851
▁dalis	-8.57868
amos	-8.57986
▁toki	-8.58268
▁asmen	-8.58272
▁dideli	-8.58319
▁tinkamai	-8.58546
▁problemų	-8.58797
▁strategijos	-8.58809
▁paramos	-8.58817
▁kadangi	-8.58866
▁praneš	-8.58928
▁Su	-8.59004
▁veik	-8.59143
ang	-8.59176
▁valstyb	-8.59203
uosius	-8.59293
▁1	-8.59466
▁min	-8.59478
dav	-8.59497
▁atstov	-8.59666
▁puik	-8.59773
▁partner	-8.59819
itin	-8.59841
▁pareišk	-8.59845
▁dažnai	-8.59872
▁problemos	-8.59872
▁tikiuosi	-8.59872
▁paramą	-8.59874
▁klausimų	-8.59887
▁priėm	-8.59958
siu	-8.60047
▁galimyb	-8.60095
▁rinką	-8.6032
▁sprendimus	-8.60423
man	-8.60455
▁jaun	-8.60537
▁teisin	-8.60885
▁sprendimo	-8.60959
▁Galiausiai	-8.60959
▁tikslų	-8.60966
FR	-8.60992
▁dr	-8.61056
kime	-8.61817
▁laik	-8.61916
▁poveikį	-8.62059
▁sp	-8.62104
▁ka	-8.62185
▁aiški	-8.62231
▁Ji	-8.62271
▁gyven	-8.62474
imus	-8.62588
avimas	-8.62608
▁naudojam	-8.62701
ES	-8.62736
▁par	-8.62796
▁kuriomis	-8.62832
▁ekonomini	-8.62878
▁gauti	-8.62979
▁gero	-8.63066
▁didžiul	-8.63174
kalb	-8.63303
ciją	-8.63306
▁kontrolės	-8.63315
ėte	-8.63333
▁dirbti	-8.63478
V	-8.63522
ge	-8.63568
▁priemon	-8.63595
".	-8.63637
▁pritar	-8.63774
M	-8.6378
inga	-8.63842
▁sudaro	-8.63917
▁galimybes	-8.64128
▁Dabar	-8.64192
▁tyrimų	-8.64293
▁valdžios	-8.64293
▁dauguma	-8.643
▁kodėl	-8.64308
▁valdymo	-8.64351
▁sen	-8.64539
▁sąlygas	-8.64649
▁skatin	-8.64826
▁panaikin	-8.64886
▁piliečiai	-8.64911
tvirtin	-8.64975
▁privalome	-8.65056
▁galėtum	-8.65468
▁būsim	-8.65469
▁esmės	-8.65587
▁kriz	-8.65763
▁klausimais	-8.65846
ingai	-8.65895
▁nustatyt	-8.66007
▁parlament	-8.66138
▁naujas	-8.66632
dėti	-8.66736
▁pramonės	-8.66786
▁siek	-8.66814
inimas	-8.66949
▁daryti	-8.67254
gali	-8.67275
▁grup	-8.67416
▁pateikt	-8.67426
ėjus	-8.675
▁sprendimą	-8.67741
▁proces	-8.67807
▁Lab	-8.68
▁EP	-8.68008
▁atitinkam	-8.68302
▁tvirt	-8.6839
▁200	-8.68883
▁dalyvav	-8.68918
▁ženkl	-8.68918
▁plat	-8.68931
▁bi	-8.68935
▁vienod	-8.68958
▁problemas	-8.69203
▁kiekvien	-8.69208
▁atlikti	-8.69728
▁gerb	-8.69768
▁ta	-8.69822
čiu	-8.69836
▁dėmesio	-8.70108
▁iššūki	-8.70108
▁pasiūlymas	-8.70109
▁pasinaudoti	-8.70109
dėjo	-8.7023
▁visą	-8.7026
▁krizę	-8.7035
▁Ir	-8.70419
F	-8.70513
yr	-8.7053
▁tap	-8.70863
▁Š	-8.71259
▁didžiausi	-8.71292
▁įsipareigo	-8.71313
▁apsauga	-8.71313
▁aišku	-8.71422
▁nacionalin	-8.71429
▁sek	-8.71509
▁kita	-8.71528
▁darbu	-8.71545
▁bendra	-8.71634
▁kelią	-8.71796
jant	-8.71817
▁bū	-8.72101
eiti	-8.72216
asis	-8.72492
▁balsavau	-8.72533
▁informacijos	-8.72533
▁įmonių	-8.72628
▁susitarimą	-8.72628
▁sto	-8.72848
▁lig	-8.72888
▁Komisijai	-8.73072
▁parengti	-8.73073
▁pranešėja	-8.73099
▁nuolat	-8.73143
▁ten	-8.7321
▁diskusijos	-8.73321
per	-8.73459
▁ant	-8.73764
▁blog	-8.73767
mui	-8.73768
▁visada	-8.73848
▁toks	-8.73866
▁vykdom	-8.74076
▁Toki	-8.74352
20	-8.74389
▁dabartin	-8.74441
bal	-8.7458
▁skirting	-8.74597
G	-8.74629
▁ju	-8.7472
▁naujų	-8.74854
▁pradėti	-8.74856
▁leidžia	-8.74901
▁siekti	-8.74928
▁tarptautini	-8.74987
▁vykd	-8.74991
▁išsi	-8.75024
▁Ma	-8.75103
turėtų	-8.75122
avimą	-8.75248
▁padėties	-8.75366
▁tikslus	-8.76141
▁sprendimas	-8.76283
▁greičiau	-8.76283
▁strategija	-8.76285
▁pagalbą	-8.76289
▁nebus	-8.7633
ved	-8.7641
▁gyvenimo	-8.76444
▁pakankamai	-8.76455
damos	-8.76621
▁taikom	-8.76622
▁padidinti	-8.76688
▁kol	-8.76769
▁taikoma	-8.76801
ąjį	-8.77052
jame	-8.77179
▁finansinių	-8.77229
užtikrin	-8.77247
▁siekia	-8.77283
▁derybų	-8.77565
▁smurt	-8.77565
▁šalyje	-8.77565
▁vietų	-8.77565
▁atsisak	-8.7757
▁remti	-8.77576
▁grėsm	-8.77579
▁tikslai	-8.77599
▁užsienio	-8.77642
ke	-8.77808
▁pro	-8.78153
▁nauja	-8.78373
▁pasiūlyt	-8.78444
▁atsižvelg	-8.78481
ag	-8.78529
▁paprast	-8.78864
▁susiduria	-8.78864
▁vystymosi	-8.78864
▁vaikų	-8.78866
▁Mūsų	-8.78867
▁dalį	-8.78871
▁pagrįst	-8.78917
▁iniciatyva	-8.79269
▁programa	-8.79663
ami	-8.79771
▁pranešimu	-8.79786
▁Pri	-8.79887
usios	-8.79959
▁užsi	-8.80043
▁Vadov	-8.8018
▁pasiūlymų	-8.8018
▁sutarties	-8.80182
▁regiono	-8.80188
▁padės	-8.8019
▁2008	-8.80204
▁pirminink	-8.80379
▁Per	-8.80599
▁sumažin	-8.80991
▁4	-8.81394
dal	-8.81459
▁fondo	-8.81513
▁rekomendacij	-8.81513
▁sektoriaus	-8.81513
▁žingsnis	-8.81513
▁metod	-8.81514
▁ketina	-8.81514
▁tvarkos	-8.81563
▁rezoliuciją	-8.81724
▁šalimis	-8.81848
▁valdy	-8.81908
jimo	-8.82014
▁kaitos	-8.82074
▁atkreipt	-8.82091
▁tapt	-8.82408
▁laikas	-8.82433
yma	-8.82519
▁teigiam	-8.82668
▁sektoriuje	-8.82864
▁išorės	-8.8287
▁pasiūlymo	-8.8288
▁vertus	-8.82883
▁Į	-8.83195
▁sudėting	-8.83241
▁Ko	-8.83268
inant	-8.83318
▁susijęs	-8.83336
▁išspręsti	-8.83375
lin	-8.83465
▁kalbėti	-8.83468
▁Parlamentui	-8.83568
▁veikti	-8.83954
▁struktūr	-8.84097
▁dvi	-8.84205
▁nepriklausom	-8.84213
▁duomenų	-8.84234
▁veiklą	-8.84236
▁miest	-8.84242
▁apima	-8.84251
▁rasti	-8.84258
▁nebūt	-8.84307
▁naują	-8.84349
▁rinka	-8.84355
▁socialinė	-8.84546
▁atlik	-8.84684
ger	-8.84776
▁sunku	-8.85112
▁suderint	-8.85135
ančių	-8.85277
▁kit	-8.85576
▁priežasčių	-8.85623
▁atvir	-8.85626
▁galbūt	-8.85635
▁būdu	-8.85666
▁laikytis	-8.85673
▁dujų	-8.85715
▁rinkoje	-8.85927
▁koleg	-8.86086
▁stipr	-8.86149
▁laiky	-8.86187
▁laisvės	-8.86356
pri	-8.8636
▁kalba	-8.86557
uoju	-8.86728
ines	-8.86772
▁teig	-8.86888
ėtų	-8.86889
yra	-8.86935
▁y	-8.87008
▁sprendimų	-8.87031
▁19	-8.87039
▁klaid	-8.87055
▁10	-8.87055
kryp	-8.87069
rd	-8.87298
▁vidutin	-8.87467
▁klausimai	-8.87956
▁diskusijas	-8.88069
▁mus	-8.88253
▁branduolin	-8.8846
▁JAV	-8.8846
▁situacij	-8.8846
▁Mums	-8.88463
▁finansavimo	-8.88473
▁klausimo	-8.88548
vil	-8.88568
▁parod	-8.88625
▁įmonės	-8.88632
▁užduo	-8.88641
▁neturėtų	-8.88894
▁susitar	-8.88925
▁veikla	-8.88941
▁pritarti	-8.89155
val	-8.89184
▁baig	-8.89289
▁remiant	-8.89377
▁susiję	-8.89407
acijos	-8.89651
▁n	-8.89663
žr	-8.89742
▁Bendr	-8.89842
▁abi	-8.89897
▁atsak	-8.89907
▁poveikio	-8.8991
▁nepaisant	-8.8991
▁jokių	-8.89913
▁programos	-8.89916
kite	-8.89936
▁Pirma	-8.89963
▁tada	-8.89995
▁naudinga	-8.90042
▁atsaking	-8.90074
▁pakeisti	-8.90112
▁ekonominės	-8.90313
▁patikim	-8.90348
▁skirta	-8.90483
▁siūl	-8.90595
▁susitarimu	-8.90651
▁kyla	-8.90892
▁Sąjungai	-8.90968
▁abejo	-8.91377
▁mechanizm	-8.9138
▁Vidur	-8.9138
▁turėjo	-8.9138
▁jokio	-8.91395
▁5	-8.91439
▁jame	-8.9156
▁kokybės	-8.91573
▁aišk	-8.91628
nai	-8.91714
▁Dar	-8.91733
▁nustat	-8.91738
daug	-8.92196
▁centr	-8.92233
usių	-8.92334
▁direktyva	-8.92409
▁2010	-8.92872
▁Europą	-8.92872
▁strategiją	-8.92873
▁tą	-8.92891
▁matyti	-8.92992
gy	-8.93127
▁kovoti	-8.93183
▁nare	-8.93287
▁nuostat	-8.93661
▁numatyt	-8.93744
▁veikia	-8.93808
nčia	-8.93868
▁jai	-8.94131
▁Tikiuosi	-8.94388
▁truk	-8.94388
nio	-8.9439
▁šiol	-8.94457
tinių	-8.94478
▁pasiraš	-8.94574
▁vertinu	-8.94807
▁pripažin	-8.95365
ner	-8.95512
▁8	-8.95565
▁tokios	-8.9559
kelia	-8.9567
▁didesni	-8.95676
▁saugos	-8.95828
▁000	-8.95926
▁Tarptautin	-8.95926
▁apsaugą	-8.95926
▁rezultatų	-8.95926
▁Kalba	-8.95928
▁judėjim	-8.95928
▁Nors	-8.95931
▁nariams	-8.95976
▁link	-8.96014
▁Bet	-8.96117
udito	-8.96206
▁tarptautinės	-8.96393
▁politinių	-8.96404
▁produkt	-8.9641
▁frakcija	-8.96448
▁neiš	-8.96482
▁Po	-8.96707
▁pareig	-8.9674
▁kitą	-8.96904
▁nebe	-8.96941
▁teising	-8.97044
▁daugyb	-8.97088
▁teikti	-8.97196
▁An	-8.97209
▁viso	-8.97214
kultūr	-8.97244
▁šiai	-8.97267
▁anksčiau	-8.97488
▁pastangas	-8.97488
▁teritorij	-8.97488
▁atrodo	-8.97493
▁atlikt	-8.97521
▁Reik	-8.97554
ybę	-8.97579
ven	-8.97676
iniu	-8.97795
▁pakeitimu	-8.97797
nčio	-8.97822
▁teisėt	-8.97931
▁sąlygos	-8.97982
dien	-8.98374
▁kaita	-8.98504
▁sunki	-8.98646
▁pramon	-8.98764
▁nusi	-8.98785
esnis	-8.98845
spaud	-8.98873
▁aptar	-8.9901
▁informacija	-8.99076
▁pažangos	-8.99076
▁pinigų	-8.99076
▁mlrd	-8.99076
▁naudos	-8.99078
▁protokolą	-8.99085
lieka	-8.99099
▁nuomonės	-8.99272
nu	-8.99309
▁poziciją	-8.99325
▁pasak	-8.99418
▁kalbė	-8.99489
iška	-8.99493
▁aktyv	-8.99572
IT	-8.99632
▁atsižvelgti	-8.99757
▁poreiki	-9.00102
▁teik	-9.00332
ume	-9.00471
▁jam	-9.00555
▁Teis	-9.00577
▁stabil	-9.00618
H	-9.00673
▁humanitarin	-9.00689
▁informaciją	-9.00689
▁prieglobsčio	-9.00689
▁derybos	-9.00689
▁erdv	-9.00689
▁žmones	-9.00689
bank	-9.00691
▁demokratijos	-9.007
▁geresn	-9.00777
▁taisykles	-9.0079
▁pagerinti	-9.00915
▁Jūs	-9.00916
▁apsaugoti	-9.00939
▁žinome	-9.00953
▁galimybių	-9.0097
▁atsakym	-9.01042
čius	-9.01066
▁teigiama	-9.01104
▁pasaulin	-9.01146
▁dalyvauti	-9.01174
esnės	-9.01275
▁vykdyti	-9.01449
▁La	-9.01542
inius	-9.01787
už	-9.01927
▁laikotarpiu	-9.01983
▁antr	-9.02017
▁juo	-9.02055
▁susitik	-9.02081
▁konkurencing	-9.02123
▁regionin	-9.02312
▁perspektyv	-9.02328
▁profesin	-9.02328
▁sanglaudos	-9.02328
▁Nepais	-9.02331
bendruomen	-9.02334
▁valstybes	-9.0264
▁Viena	-9.02689
▁taut	-9.02691
▁dirba	-9.02741
▁tokių	-9.02994
▁pači	-9.03214
▁tiesiog	-9.03226
žia	-9.03447
▁reikaling	-9.03521
▁bendros	-9.03546
▁pagrind	-9.03834
kart	-9.0387
▁derybas	-9.03995
▁diskusijų	-9.03995
▁pavojing	-9.03995
▁pažangą	-9.03995
▁Šiandien	-9.03995
▁taikymo	-9.03999
▁balsuoti	-9.04
▁numat	-9.04002
▁regionų	-9.04007
leisti	-9.04054
▁nuomonę	-9.04161
▁dalies	-9.0419
▁įgyvendinimo	-9.04342
▁minėt	-9.04399
▁biudžet	-9.04414
▁žino	-9.04451
▁balsavimo	-9.04459
▁daugiausia	-9.04479
▁7	-9.05009
▁pareng	-9.05046
▁padidin	-9.05149
▁pabrėž	-9.05216
▁nurod	-9.05236
ano	-9.05272
▁patvirtinti	-9.05462
▁įvyki	-9.05526
▁Žinom	-9.05705
▁san	-9.05756
▁Europai	-9.05945
vai	-9.06269
▁kelių	-9.06305
▁asmenų	-9.06337
▁kaimo	-9.06757
▁jus	-9.06763
▁leisti	-9.06817
▁tenka	-9.06918
ide	-9.07055
▁naudoti	-9.07184
▁prezident	-9.07414
▁reikalavimus	-9.07415
▁pažeidžiam	-9.07415
▁partnerystės	-9.0743
▁kokia	-9.07595
▁dali	-9.0762
▁gyvyb	-9.07693
▁tas	-9.07829
▁galimybės	-9.07874
▁paskelb	-9.07881
tus	-9.07922
▁apsi	-9.08262
▁veiksmingai	-9.08826
Jungtin	-9.08959
▁pasiūlymu	-9.08972
▁parengt	-9.0906
▁leidim	-9.09085
nelyg	-9.09126
▁Komisiją	-9.09168
▁komitete	-9.09168
▁konferencij	-9.09168
▁konflikt	-9.09168
▁principu	-9.09168
▁nieko	-9.09168
▁išmetam	-9.09169
▁mastu	-9.09186
▁kalbėjo	-9.0923
▁priemonėmis	-9.09276
Europos	-9.09307
▁taigi	-9.09432
▁nacionalinių	-9.09439
▁laukia	-9.09518
▁direktyvą	-9.09694
▁aptarti	-9.0977
ntiems	-9.0987
▁laiką	-9.10588
▁pačios	-9.10663
▁6	-9.10769
▁To	-9.10834
žvelg	-9.10914
▁besivystanči	-9.10954
▁dalykas	-9.10954
▁požiūrį	-9.10954
▁reglamento	-9.10954
▁reguliavimo	-9.10954
▁užimtumo	-9.10954
▁kredit	-9.10954
▁pasveikinti	-9.10954
▁atvyk	-9.10954
▁partijos	-9.10954
▁tariant	-9.10959
▁kultūros	-9.10968
ytų	-9.1099
▁uost	-9.11002
▁parama	-9.11039
▁visuotin	-9.11056
▁sutartį	-9.11122
▁pajėg	-9.11204
▁naujo	-9.11296
▁dalyvau	-9.11321
▁kiekviena	-9.11938
▁daro	-9.12113
▁daugelio	-9.12307
pone	-9.12547
kli	-9.12662
ytoj	-9.12761
▁pasisak	-9.12763
▁komitetas	-9.12772
▁nusikaltim	-9.12772
▁verslo	-9.12772
▁visapusišk	-9.12772
ūtent	-9.12776
▁neigiam	-9.12776
▁vieta	-9.12776
▁taryb	-9.1278
▁Piet	-9.12789
▁įmonėms	-9.128
▁galiausiai	-9.12805
▁Nori	-9.12811
▁pozicija	-9.12815
▁sveik	-9.12869
▁sutartis	-9.12932
imti	-9.12939
leidžia	-9.13004
▁laiv	-9.13208
▁pateikia	-9.13286
▁norint	-9.13482
▁nam	-9.13793
nčią	-9.13927
▁reikalauja	-9.14007
▁buv	-9.14104
▁suteikia	-9.14423
▁šaltin	-9.14436
▁atitinka	-9.14455
angl	-9.14469
▁atliekų	-9.14624
▁investicijų	-9.14624
▁problemą	-9.14624
▁Pritariu	-9.14624
▁Rusijos	-9.14626
▁nuosekl	-9.14627
▁vakar	-9.14627
▁garant	-9.14631
ėjimo	-9.14696
▁svarbūs	-9.147
▁režim	-9.14734
▁taisyklės	-9.14789
dyti	-9.14839
▁Jungtini	-9.14845
▁demokratų	-9.14897
▁JT	-9.14914
▁kainų	-9.14939
avimu	-9.14942
▁laikotarpi	-9.15016
ybė	-9.15166
▁pripažinti	-9.15305
▁did	-9.15359
▁skatina	-9.15522
▁tampa	-9.1553
▁strategin	-9.15598
▁Tur	-9.15622
uojant	-9.15851
▁visai	-9.15885
▁vyks	-9.16288
spręs	-9.16393
č	-9.16416
▁atkreip	-9.16425
▁kova	-9.1643
▁įsitikin	-9.16481
trūk	-9.1651
▁investuot	-9.16511
▁technin	-9.16511
▁atvejais	-9.16511
▁neabejotina	-9.16511
▁pilietin	-9.16511
▁savaitę	-9.16511
▁sritis	-9.16511
▁žvejybos	-9.16511
▁atstovauja	-9.16514
▁regione	-9.16519
▁augimo	-9.16521
iausia	-9.16526
▁prekyba	-9.16542
▁esant	-9.16699
▁Amerikos	-9.16705
▁Pagal	-9.16765
▁svarstym	-9.16799
▁naujos	-9.16803
▁paremti	-9.16843
▁teisini	-9.16854
▁joms	-9.16891
EB	-9.17011
▁gir	-9.1714
▁įmanoma	-9.17269
▁Šios	-9.17338
tyv	-9.17342
ąsias	-9.17371
▁numatyta	-9.1742
▁panaikinti	-9.17422
▁pareigas	-9.17428
▁nares	-9.17514
bū	-9.17887
konkreči	-9.18008
▁gamin	-9.18378
▁gyvena	-9.18419
▁žvej	-9.18434
▁2011	-9.18434
▁Afrikos	-9.18434
▁eksport	-9.18434
▁milijon	-9.18434
▁suinteresuot	-9.18434
▁atnaujin	-9.18434
▁import	-9.18434
▁neteisėt	-9.18434
▁sektorių	-9.18434
▁sustabdy	-9.18434
▁skaičius	-9.18434
▁ginkl	-9.18434
▁veiksmai	-9.18435
▁sąraš	-9.18435
▁programą	-9.18438
▁bausm	-9.18439
▁dviej	-9.18467
▁suvok	-9.18505
NL	-9.18538
▁užkirst	-9.18582
▁daugeli	-9.18657
▁sudaryti	-9.18775
▁tęs	-9.18797
▁tiksli	-9.18818
▁tapo	-9.18925
▁ties	-9.18979
▁12	-9.18992
▁gerbiam	-9.18993
▁reali	-9.19261
cijos	-9.19447
▁tikras	-9.19565
▁skyr	-9.19778
▁priklauso	-9.19791
amb	-9.19818
▁negalima	-9.19866
▁moksl	-9.19942
▁palank	-9.2029
▁pagrįsta	-9.20314
▁tokio	-9.2036
▁dalykų	-9.20395
▁infrastruktūr	-9.20395
▁institucija	-9.20395
▁sąžining	-9.20395
▁vaidmuo	-9.20395
▁mirties	-9.20395
▁padeda	-9.20396
▁veiksmus	-9.20396
▁šeši	-9.20396
▁Prieš	-9.20396
▁interesų	-9.20397
▁organizacijos	-9.20398
▁vadovauja	-9.20398
▁sugebė	-9.20399
▁įveikti	-9.20406
▁sukūr	-9.20412
RO	-9.20427
▁kitaip	-9.20443
▁sąlygomis	-9.20494
▁suteikta	-9.20553
▁aukščiausio	-9.21032
▁išvengti	-9.2106
▁priklausom	-9.21354
▁U	-9.21356
▁kolegos	-9.21456
nčias	-9.21776
▁lauk	-9.22005
▁Mar	-9.22246
▁dešimt	-9.2239
▁posėdži	-9.22395
▁solidarumo	-9.22395
▁plėtra	-9.22395
▁paskutin	-9.22395
▁aktus	-9.22396
▁rinkimų	-9.22497
▁2020"	-9.22498
▁Daug	-9.22614
teikia	-9.2275
▁būtin	-9.22831
Europa	-9.22838
▁remia	-9.22938
▁minim	-9.23153
▁tvirtai	-9.23587
iausiai	-9.23699
▁sau	-9.23788
▁daugel	-9.24188
▁nustatyta	-9.24207
ėjimas	-9.24379
istų	-9.24404
▁pirmininko	-9.2443
▁apibrėžt	-9.24435
▁naudojimo	-9.24435
▁projektą	-9.24435
▁sprendimai	-9.24435
▁ypating	-9.24435
▁projektu	-9.24436
▁jūrų	-9.24436
▁zonos	-9.24436
žemio	-9.24436
▁nenori	-9.24438
▁elg	-9.24478
▁turt	-9.24492
▁susirūpinimą	-9.2451
▁Jie	-9.24528
mokė	-9.24541
▁palankiai	-9.24571
▁puikiai	-9.24636
▁didelis	-9.2487
▁grupės	-9.24944
▁pan	-9.25062
▁reikalingas	-9.25104
▁kitais	-9.25141
▁pirmininkauja	-9.25216
▁finansinė	-9.25328
gen	-9.25446
▁rengia	-9.2545
▁nuolatin	-9.25488
den	-9.25703
lėt	-9.25725
iškas	-9.25752
▁trump	-9.25987
▁privalom	-9.26042
ausio	-9.26052
inta	-9.26058
▁ragina	-9.26178
▁esm	-9.2626
▁teisinga	-9.26447
▁Atsižvelgia	-9.26519
▁atvejų	-9.26519
▁pastangų	-9.26519
▁išlaidų	-9.26519
▁baudžiam	-9.26519
▁gyvūn	-9.26519
▁požiūrio	-9.2652
▁keturi	-9.2652
▁neseniai	-9.26521
▁panaudot	-9.26524
▁Pirmininko	-9.26535
▁14	-9.26568
▁žem	-9.26606
▁siekdami	-9.26624
▁30	-9.26656
▁reng	-9.26791
▁kalbant	-9.26826
▁kultūrin	-9.26831
telk	-9.27155
▁panaši	-9.27267
▁Gali	-9.27302
turi	-9.27394
▁siekdama	-9.27422
▁išsami	-9.27471
▁mišk	-9.27519
▁biudžetą	-9.27622
omen	-9.27691
▁pranešėjas	-9.2777
▁pritaria	-9.28433
▁Vengrijos	-9.28646
▁element	-9.28646
▁keleivi	-9.28646
▁priežastis	-9.28646
▁reikalavimų	-9.28646
▁santykių	-9.28646
▁kilmės	-9.28646
▁Turkijos	-9.28647
▁netinkam	-9.28647
▁požiūris	-9.28648
▁rytoj	-9.28654
▁skaidrumo	-9.28708
▁esanči	-9.28726
▁siūlom	-9.28735
pač	-9.28752
▁padarinių	-9.28763
tės	-9.28792
kšt	-9.28818
▁struktūrini	-9.2886
▁tokiu	-9.28967
▁dalimi	-9.28991
▁kitas	-9.28999
▁sakant	-9.29043
▁gerinti	-9.29075
▁automobilių	-9.29117
ski	-9.29323
▁krit	-9.29374
▁tikrą	-9.29533
▁atlieka	-9.29738
▁kokyb	-9.30314
▁teikiama	-9.30477
▁kiti	-9.30569
▁tuos	-9.30681
▁negu	-9.30703
▁papild	-9.30727
▁gamintoj	-9.30733
▁Sąjungą	-9.3082
▁džiaugiuosi	-9.3082
▁geležinkeli	-9.3082
▁principai	-9.3082
▁projekto	-9.3082
▁vartojimo	-9.3082
▁interesus	-9.30821
▁etap	-9.30824
▁kontrol	-9.30833
▁leis	-9.30835
▁tokį	-9.30844
▁Ties	-9.30848
▁penki	-9.30855
▁darbas	-9.30859
▁stiprinti	-9.30902
▁patikr	-9.30965
▁demokratin	-9.31033
▁kalbama	-9.31139
▁tikslu	-9.31156
▁geriausia	-9.3125
▁sal	-9.31389
▁pasiūl	-9.31511
▁sudaryt	-9.31669
▁viening	-9.31795
▁siūloma	-9.31905
▁sudar	-9.31907
▁praeit	-9.32079
▁persvarst	-9.32275
▁esam	-9.32367
▁skiriama	-9.32421
▁procesą	-9.32499
▁galės	-9.325
▁sėkming	-9.3257
▁9	-9.32577
▁galėsi	-9.32659
▁speciali	-9.32741
▁svarbą	-9.3299
▁Prancūzijos	-9.33043
▁dėmesys	-9.33043
▁fondų	-9.33043
▁institucijoms	-9.33043
▁išreikšt	-9.33043
▁prioritetu	-9.33043
▁sistemų	-9.33043
▁forma	-9.33043
▁sienų	-9.33043
▁mokykl	-9.33044
▁skaičių	-9.33044
▁Šiaurė	-9.33044
▁sureng	-9.33045
▁žuvininkystės	-9.33052
▁Pirmiausia	-9.33052
▁išmok	-9.33079
▁įsitikinęs	-9.33083
▁uždavin	-9.33115
▁įvertin	-9.33119
▁27	-9.33121
▁užtikrinta	-9.33125
▁atsakomybės	-9.33292
▁pasiūlymus	-9.33293
▁tęsti	-9.33317
▁rezoliucija	-9.33327
▁reikalinga	-9.33403
Euro	-9.33492
▁įvertinti	-9.33584
▁sudary	-9.33619
labiausiai	-9.33634
▁praėjusi	-9.33751
▁sėkmingai	-9.33775
▁padaryta	-9.33841
▁sustiprinti	-9.33891
▁svarstom	-9.34068
site	-9.34148
▁interneto	-9.34306
▁procesas	-9.34515
▁užtikrinant	-9.34526
balsavimas	-9.34529
▁vėliau	-9.34632
▁klaus	-9.3472
maž	-9.34933
▁stipri	-9.35179
▁išteklius	-9.35315
▁oficial	-9.35315
▁pavyko	-9.35315
▁pobūdžio	-9.35315
▁straipsnio	-9.35315
▁teisėkūros	-9.35315
▁įsipareigojimų	-9.35315
▁pašalin	-9.35316
žiūri	-9.35318
▁tarpvalstybin	-9.35318
▁demokratija	-9.3532
▁Jungtinės	-9.35321
▁2007	-9.35353
▁11	-9.35402
▁atsakyti	-9.3544
odžio	-9.35444
▁teisingumo	-9.35494
▁suprasti	-9.35548
▁ryt	-9.35582
▁tem	-9.35634
▁nario	-9.35638
nčius	-9.35664
▁greitai	-9.35725
olog	-9.3576
▁bendrosio	-9.35857
▁tie	-9.35875
▁patirt	-9.35892
▁vyriausybės	-9.36044
▁suderin	-9.36287
elyje	-9.36347
▁tokie	-9.36508
▁nacionaliniu	-9.36511
▁pagrindą	-9.36531
▁kurioms	-9.36694
▁kovoj	-9.36761
▁gru	-9.36767
▁vadinam	-9.3692
▁geras	-9.37263
▁nuomon	-9.37439
▁balsu	-9.37468
▁manome	-9.37615
▁integruot	-9.37641
▁kriterijus	-9.37641
▁moteris	-9.37641
▁principų	-9.37641
▁anglies	-9.37641
▁indėl	-9.37643
▁sprendžiant	-9.37643
▁paragin	-9.37643
▁prisiim	-9.37655
▁nerimą	-9.37658
▁pieno	-9.37702
vis	-9.37739
▁25	-9.378
▁Už	-9.37833
▁tikrų	-9.37857
▁standartus	-9.37921
▁atstovai	-9.37956
▁didži	-9.38012
▁pradėt	-9.38024
▁nepri	-9.38257
▁gera	-9.38333
ung	-9.38447
▁didelį	-9.38518
▁vandens	-9.38622
▁internet	-9.38691
▁taikomos	-9.38695
▁paminėti	-9.38779
▁svarbiausi	-9.38909
▁kurti	-9.38949
▁sąlygų	-9.3911
inėje	-9.39174
▁sąlyg	-9.39308
▁kaimyn	-9.39622
▁užtikrina	-9.39629
▁kr	-9.39675
ystės	-9.39695
riz	-9.39982
▁padėt	-9.40009
▁Barroso	-9.40022
▁Graikijos	-9.40022
▁atsinaujinanči	-9.40022
▁elektronin	-9.40022
▁manymu	-9.40022
▁moterys	-9.40022
▁švietimo	-9.40022
▁reaguoti	-9.40022
▁stebėti	-9.40022
▁Vakar	-9.40022
▁priverst	-9.40023
▁operacij	-9.40023
▁sutinka	-9.40028
▁dieną	-9.40044
▁sveikata	-9.4005
▁tikslo	-9.4006
▁susitarimų	-9.40074
▁kalbos	-9.40087
▁nepritar	-9.40093
▁patiria	-9.40107
▁Kart	-9.40124
▁CO	-9.4016
adangi	-9.40188
lyčių	-9.40203
▁Jos	-9.40311
▁naudotis	-9.40341
aisiais	-9.40352
▁kalbame	-9.40496
didel	-9.40811
▁laiku	-9.40939
▁parodyti	-9.41024
▁laisvę	-9.41052
▁br	-9.41092
▁įmon	-9.41136
▁mažai	-9.41216
▁Net	-9.41249
▁kito	-9.41479
▁tema	-9.41538
▁Jau	-9.41794
▁pateikta	-9.42098
▁patenkin	-9.42218
▁skaidr	-9.42304
ajam	-9.42366
▁2020	-9.42374
▁žiniasklaid	-9.42461
▁MVĮ	-9.42461
▁Pagrindin	-9.42461
▁darbuotojai	-9.42461
▁darbuotojams	-9.42461
▁dialogą	-9.42461
▁kandidat	-9.42461
▁konsul	-9.42461
▁modeli	-9.42461
▁santykius	-9.42461
▁Šengen	-9.42461
▁registr	-9.42461
▁vizų	-9.42461
▁dvišal	-9.42461
▁omenyje	-9.42461
▁pareigūn	-9.42463
▁romų	-9.42465
▁privat	-9.42474
▁pakeitimų	-9.42477
▁sport	-9.42479
▁2006	-9.4251
▁niekada	-9.42512
▁regionuose	-9.42515
▁socialine	-9.4252
▁Taut	-9.42568
▁nenu	-9.42758
▁aplink	-9.42782
▁pozicijos	-9.42871
▁demokratini	-9.43042
▁priemonė	-9.43087
▁tiekimo	-9.43268
▁planą	-9.43546
▁nusprend	-9.44478
▁bendrai	-9.44608
tenka	-9.44616
▁Gr	-9.44664
alia	-9.44877
▁susijusios	-9.44888
▁pasiektas	-9.44908
protokol	-9.4495
krikščionių	-9.44961
▁Džiaugiuosi	-9.44961
▁Kopenhag	-9.44961
▁birželio	-9.44961
▁pavyzdys	-9.44961
▁principo	-9.44961
▁vartotojams	-9.44961
▁ryžting	-9.44961
▁sritį	-9.44961
▁rug	-9.44961
▁liep	-9.44963
▁privači	-9.44963
▁būdas	-9.44967
▁viską	-9.45015
▁minėjo	-9.45083
▁saugumą	-9.45138
▁atsakomybę	-9.45189
▁žinote	-9.4519
▁bendradarbiauti	-9.452
▁pagalba	-9.45296
vesti	-9.45409
▁pačių	-9.45479
▁rengiant	-9.45946
▁prot	-9.46386
▁palaiko	-9.46828
▁atsakomyb	-9.47004
▁Vien	-9.47058
▁tolesni	-9.47162
▁nauding	-9.4729
▁nieka	-9.47478
▁vid	-9.47513
▁inter	-9.4752
▁organ	-9.4752
▁ilgalaiki	-9.47525
▁konkurencijos	-9.47525
▁lengva	-9.47525
▁rezultatai	-9.47525
▁tyrimus	-9.47525
▁tūkstanči	-9.47525
▁atsarg	-9.47525
▁įsteig	-9.47525
▁akivaizdžiai	-9.47525
▁socialinę	-9.47526
▁ribų	-9.47526
▁Buvo	-9.47529
▁gauna	-9.4753
▁apribojim	-9.47554
▁koks	-9.47589
▁sukurta	-9.47598
▁15	-9.4762
▁prieinam	-9.4764
▁Tuo	-9.47667
▁kolega	-9.47715
▁pastat	-9.47744
und	-9.47747
▁susitikimo	-9.47748
▁gyvenimą	-9.47788
sinaudo	-9.47789
▁įgyvendinant	-9.47928
▁geriausi	-9.48104
▁nacionalinės	-9.48137
pil	-9.48178
▁deja	-9.4822
▁prisidėti	-9.48241
▁daugeliu	-9.48256
▁atid	-9.48299
▁pavyzdžiui	-9.48401
PS	-9.48452
J	-9.48518
▁pabrėžiama	-9.48531
▁taikos	-9.48732
▁antra	-9.48749
▁kovo	-9.4902
▁pagrindu	-9.4905
▁ekonomikai	-9.49365
skelb	-9.50033
▁geresni	-9.50074
▁administracin	-9.50156
▁amžiaus	-9.50156
▁apskritai	-9.50156
▁delegacij	-9.50156
▁informuoti	-9.50156
▁integracijos	-9.50156
▁lėšas	-9.50156
▁patobulin	-9.50156
▁priežasties	-9.50156
▁sektorius	-9.50156
▁biurokrat	-9.50157
▁išlaidas	-9.50157
▁sričių	-9.50157
▁rūm	-9.50157
▁Airijos	-9.50157
▁pasiūlymai	-9.50157
▁priminti	-9.50158
▁sutinku	-9.50158
▁bendrovių	-9.50158
▁Rusija	-9.50158
▁partija	-9.50162
▁Didži	-9.50164
▁Negalim	-9.50194
▁Nauj	-9.50198
▁13	-9.5021
▁pakeitimą	-9.50219
▁susitikime	-9.50225
▁mokymo	-9.50238
▁Rytų	-9.50244
▁esama	-9.50248
▁teisėms	-9.50415
▁netgi	-9.50559
▁balsavimą	-9.50648
▁diskusija	-9.50885
▁derin	-9.50897
▁Al	-9.50956
▁Darbo	-9.51005
▁aplinką	-9.51111
▁teikiam	-9.5114
▁frakcij	-9.51155
▁didėja	-9.51178
▁pagrindas	-9.5137
▁galutini	-9.51387
▁Kit	-9.51474
▁atliekam	-9.51669
▁pateiktas	-9.51756
▁priešing	-9.52016
▁šimt	-9.52334
▁tarptautiniu	-9.52559
▁gerin	-9.52694
Plojimai	-9.52859
▁aljans	-9.52859
▁nukreipt	-9.52859
▁pavojus	-9.52859
▁savanorišk	-9.52859
▁technologijų	-9.52859
▁gynyb	-9.52859
▁religij	-9.52859
▁žmonėmis	-9.52859
▁dvej	-9.5286
▁aplinkosaugos	-9.5286
▁autori	-9.5286
▁virš	-9.52861
▁Kosov	-9.52864
▁pakeitimai	-9.52876
▁priekį	-9.52877
▁imigracijos	-9.52882
▁kasdien	-9.52956
▁40	-9.53
▁technologijas	-9.53107
▁tikra	-9.53127
▁kitomis	-9.53139
▁kokybę	-9.53151
▁priėmimo	-9.53218
▁mažinti	-9.53238
▁proceso	-9.53258
▁esmini	-9.53505
▁krize	-9.53694
▁teisingai	-9.53789
▁plačia	-9.53836
rodyti	-9.5395
▁finansini	-9.5395
▁lygiu	-9.54051
▁pačiu	-9.54824
▁pasaulini	-9.54851
▁priimtas	-9.54908
▁kreip	-9.55043
▁laivų	-9.55095
▁tek	-9.55508
▁papraš	-9.5556
acional	-9.5563
▁2013	-9.55637
▁ankstesn	-9.55637
▁balsavo	-9.55637
▁ekonomiką	-9.55637
▁išlaikyti	-9.55637
▁konkret	-9.55637
▁kvalifikacij	-9.55637
▁lėšos	-9.55637
▁plėtoti	-9.55637
▁pripažįsta	-9.55637
▁projektas	-9.55637
▁raginu	-9.55637
▁rizikos	-9.55637
▁sektoriui	-9.55637
▁Baigdama	-9.55637
▁taršos	-9.55637
▁ateities	-9.55637
▁įprast	-9.55638
▁malonu	-9.55638
▁bendras	-9.55653
▁peln	-9.55654
▁tikrov	-9.55659
▁konkrečių	-9.55672
▁patik	-9.55675
▁abiej	-9.55682
▁paprašyti	-9.55716
bar	-9.5574
▁atsakinga	-9.5582
▁mažinimo	-9.55865
▁žinių	-9.56019
▁gerą	-9.56052
▁raginama	-9.56099
Pirminink	-9.56165
▁energetin	-9.56329
▁tiems	-9.5639
▁skubiai	-9.56413
▁ekonomika	-9.5648
▁standartų	-9.56497
esnę	-9.56618
▁mir	-9.56755
▁tiesiogin	-9.56759
▁sukurt	-9.56786
▁nurodyt	-9.57008
▁apimt	-9.57145
▁diskusijose	-9.57589
▁pasiekta	-9.57673
▁sutart	-9.5841
▁liberal	-9.58494
▁Biudžet	-9.58494
▁Taryboje	-9.58494
▁agentūros	-9.58494
▁aplinkybėmis	-9.58494
▁darbotvarkės	-9.58494
▁globalizacijos	-9.58494
▁konstruktyv	-9.58494
▁paslaugas	-9.58494
▁pranešėjui	-9.58494
▁procedūros	-9.58494
▁rezultatus	-9.58494
▁dėking	-9.58494
▁globali	-9.58494
▁PPE	-9.58494
▁atidžiai	-9.58495
▁žodžiu	-9.58495
▁reikšming	-9.58496
▁veiksni	-9.58502
▁lemia	-9.58503
▁kažk	-9.58516
▁tuomet	-9.58528
▁Pranešime	-9.58535
▁Vert	-9.58539
▁susitarimai	-9.58553
▁remdam	-9.58575
▁didžiausia	-9.58599
▁kitiems	-9.58612
▁europin	-9.58634
▁stabilumo	-9.58638
▁patys	-9.58639
ieno	-9.58678
▁kovojant	-9.58691
▁tinkamas	-9.58781
▁paaiškinti	-9.58827
▁paskatin	-9.58836
kirst	-9.58915
▁kiekvieno	-9.59111
▁galimybe	-9.59367
▁reikalaujama	-9.59484
▁pradėj	-9.59547
▁metin	-9.59598
▁baigti	-9.59622
Ž	-9.5968
▁politinės	-9.59878
▁pavaduotoja	-9.59897
▁sociali	-9.60143
▁karto	-9.60312
▁svarbiausių	-9.60363
▁direktyv	-9.60659
nuo	-9.60859
▁greit	-9.6093
▁sunk	-9.6116
encijos	-9.61199
▁prog	-9.61268
▁Praneš	-9.61394
▁analiz	-9.61425
▁Atsižvelgdam	-9.61435
▁dalykai	-9.61435
▁dialogo	-9.61435
▁srities	-9.61435
▁duomenis	-9.61435
▁žodžiai	-9.61436
▁sienos	-9.61436
▁sulauk	-9.61437
▁bendrovės	-9.61438
▁abejonių	-9.61439
▁sutartimi	-9.6144
▁aktai	-9.61447
▁tobul	-9.61447
▁finansavimą	-9.6145
▁glaudžia	-9.61451
▁vertę	-9.61451
▁tris	-9.61473
▁sukuria	-9.61487
▁nuostatos	-9.61493
▁50	-9.61509
▁didinti	-9.61513
▁Valstybės	-9.6156
▁socialist	-9.61647
▁atitikt	-9.61758
▁Diskusijos	-9.61775
▁aplinkai	-9.62076
EL	-9.62112
▁dabartini	-9.62214
▁nepakankam	-9.62219
▁nepriimtina	-9.62327
▁laisvių	-9.62467
▁biudžetas	-9.62786
osioms	-9.63113
▁pirmininkas	-9.63153
▁sudėtinga	-9.6362
▁produktai	-9.63681
▁akivaizdu	-9.63912
▁laikom	-9.63988
▁vienintel	-9.64213
▁apribo	-9.64432
▁dokumentu	-9.64466
▁Dėkoju	-9.64466
▁Turkija	-9.64466
▁Vokietijos	-9.64466
▁darbotvarkę	-9.64466
▁pasirengę	-9.64466
▁perkėlim	-9.64466
▁rezultatas	-9.64466
▁neturėtum	-9.64466
▁Kinija	-9.64466
▁pavadin	-9.64466
▁abejonės	-9.64467
▁rėm	-9.64468
▁šalį	-9.64469
▁įtakos	-9.6447
▁padidėj	-9.64475
▁įvykdymo	-9.64476
▁tikslą	-9.64477
▁tikimės	-9.64481
▁leist	-9.64495
▁taikant	-9.64498
▁žodžio	-9.64533
▁masto	-9.64546
▁saugumas	-9.6458
▁pranešėjo	-9.64613
▁susirūpin	-9.64619
▁Nuo	-9.64619
▁sutelkt	-9.64665
▁perdavim	-9.64674
▁Balt	-9.64811
▁įvykdyt	-9.65089
▁patenkinti	-9.65148
▁silpn	-9.65169
▁iniciatyvos	-9.65195
▁trumpai	-9.65248
▁lygis	-9.65325
▁priima	-9.65377
▁žinoti	-9.65464
▁parlamentin	-9.65648
▁kitus	-9.65755
▁pen	-9.65962
prieš	-9.65997
žiūrėti	-9.66002
▁nuostatas	-9.6602
▁Koki	-9.66105
▁aukščiausi	-9.66578
▁band	-9.66583
▁skubi	-9.67126
▁pajėgum	-9.67151
▁pasakė	-9.67234
nčioms	-9.67323
▁prisijung	-9.67334
▁pirmoj	-9.67361
▁pilieči	-9.6747
▁Britanij	-9.67591
▁Karalyst	-9.67591
▁Sutarties	-9.67591
▁paprasčiausia	-9.67591
▁pažanga	-9.67591
▁plenarin	-9.67591
▁plėtrą	-9.67591
▁santykiai	-9.67591
▁pensijų	-9.67591
▁panaudojim	-9.67591
▁grąžin	-9.67591
▁keičia	-9.67591
▁liaudi	-9.67591
▁norėtume	-9.67591
▁reiting	-9.67591
▁pradžioje	-9.67591
▁pradeda	-9.67591
▁idėja	-9.67591
▁mėnesius	-9.67591
▁vyko	-9.67592
▁vyrų	-9.67593
▁ketinim	-9.67593
▁mažumų	-9.67593
▁pajamų	-9.67594
▁biologin	-9.67595
▁jung	-9.67595
▁iškelt	-9.67597
▁sukelt	-9.67598
▁Kodėl	-9.67602
▁uždaryt	-9.67616
▁Žemė	-9.6765
▁pakeitimas	-9.67673
-20	-9.67712
▁skiriasi	-9.67734
▁balsuoj	-9.67753
▁pareikšti	-9.67756
▁galėjo	-9.67864
▁vietoje	-9.67876
iesiems	-9.67915
▁bandym	-9.67924
▁iniciatyv	-9.68154
▁patvirtinta	-9.68214
▁ekonominę	-9.68308
▁ginč	-9.68353
▁muit	-9.68507
tumėte	-9.68583
▁mažesn	-9.6861
▁prast	-9.69027
▁fi	-9.69052
▁naudojant	-9.6964
manau	-9.69766
▁eina	-9.69885
▁priimant	-9.69894
▁suteikt	-9.69906
▁supranta	-9.69956
▁naudoja	-9.70102
▁taisykl	-9.7014
region	-9.70303
▁reišk	-9.70803
▁Balkan	-9.70816
▁Būtina	-9.70816
▁Vyriausyb	-9.70816
▁ataskaita	-9.70816
▁duomenys	-9.70816
▁konvencijos	-9.70816
▁naudojimą	-9.70816
▁nedelsiant	-9.70816
▁nepamirš	-9.70816
▁organizacijų	-9.70816
▁pinigai	-9.70816
▁prekių	-9.70816
▁rodikli	-9.70816
▁sukčiavim	-9.70816
▁sąjungos	-9.70816
▁įsipareigojimus	-9.70816
▁prisideda	-9.70817
▁Trečia	-9.70817
▁sandori	-9.70817
▁skurdu	-9.70817
▁ateitį	-9.70817
▁religin	-9.70817
▁reikės	-9.70819
▁prekybą	-9.70821
▁reikalauti	-9.70825
▁vaikai	-9.70828
▁augimą	-9.7083
▁18	-9.70885
▁tėv	-9.70894
▁pareiškimai	-9.70905
▁regionu	-9.70913
▁sunkumų	-9.70916
tuoja	-9.70926
▁Štai	-9.70953
▁tiesiogiai	-9.71024
▁įtikin	-9.7103
▁susidar	-9.71039
▁palaikyti	-9.71068
▁eil	-9.71097
▁kontrolę	-9.71167
▁Kad	-9.71256
leido	-9.71368
▁turinči	-9.714
▁pagaliau	-9.71511
▁politinio	-9.71528
▁finans	-9.71698
▁iniciatyvą	-9.7173
▁didina	-9.71748
▁lygį	-9.718
kirt	-9.71881
▁poreikius	-9.72009
ėję	-9.72186
▁proga	-9.72586
eisingumo	-9.7274
▁nurodyta	-9.72787
▁transport	-9.72823
▁mažina	-9.72893
▁pirmininkavim	-9.73062
deg	-9.73096
▁reikš	-9.73213
▁pirmininkaujan	-9.7368
▁stebi	-9.73943
▁visom	-9.74139
▁Parlamentą	-9.7415
▁dėkoju	-9.7415
▁ombudsmen	-9.7415
▁prioritetin	-9.7415
▁gebėjim	-9.7415
▁komunikat	-9.7415
▁kryptimi	-9.7415
▁pastabas	-9.7415
▁spekuli	-9.7415
▁zonoje	-9.7415
▁policijos	-9.7415
▁skurdo	-9.7415
▁išplėst	-9.74151
▁Juod	-9.74151
▁eurų	-9.74152
▁Kinijos	-9.74152
▁pažymėti	-9.74153
▁istorin	-9.74153
▁paketo	-9.74159
▁keitim	-9.74173
pirmininkaujanči	-9.74192
▁vaistų	-9.74192
▁draug	-9.74301
▁susitikimą	-9.74382
▁susitikimas	-9.74407
▁vyn	-9.74447
▁pateikiama	-9.74526
▁pritariame	-9.74684
▁remiam	-9.74694
▁mokėjim	-9.75344
▁nustatom	-9.75484
▁leid	-9.75633
▁standartai	-9.75965
▁galutin	-9.7602
▁stiprina	-9.76369
▁laikin	-9.76393
nėms	-9.76608
▁kaltin	-9.77182
▁grįž	-9.77349
▁lankst	-9.77526
konomikos	-9.77584
▁kapital	-9.77598
▁Siekiant	-9.77598
▁alternatyv	-9.77598
▁ambicing	-9.77598
▁argument	-9.77598
▁dokumentų	-9.77598
▁imigrant	-9.77598
▁komitetu	-9.77598
▁konkurencija	-9.77598
▁medžiagų	-9.77598
▁naftos	-9.77598
▁nepaprastai	-9.77598
▁pasirengusi	-9.77598
▁principas	-9.77598
▁procedūrą	-9.77598
▁student	-9.77598
▁2012	-9.77598
▁plėtoj	-9.77598
▁Egipt	-9.77598
▁ateinanči	-9.77598
▁nelegali	-9.77599
▁sraut	-9.77599
▁ribot	-9.77599
▁lygybės	-9.776
▁Pasauli	-9.776
apkri	-9.77603
▁pradžių	-9.77604
▁žodin	-9.77606
▁pateisin	-9.77608
▁vasar	-9.77615
▁pažad	-9.77616
▁bankų	-9.77651
tvarkyti	-9.77656
▁finansuoti	-9.77657
▁valstybėje	-9.77805
▁įvykiai	-9.77935
▁visuomenei	-9.77946
▁apsaugo	-9.78079
▁gana	-9.7811
▁paklausti	-9.78129
▁tun	-9.78149
▁būtinyb	-9.78307
▁vyriausybių	-9.78328
▁dabartinės	-9.7841
▁nustatant	-9.78412
▁artim	-9.78428
▁kartai	-9.78444
▁patyr	-9.78631
▁tvarka	-9.78709
▁grindžiama	-9.7873
▁svarst	-9.78915
atsak	-9.79528
▁išsam	-9.79786
▁įsigalioj	-9.79809
▁prival	-9.79945
▁galioja	-9.79994
labai	-9.80255
▁pirmininkaujant	-9.80263
▁dirbanči	-9.80268
▁Tam	-9.80313
▁skiriam	-9.80421
▁paklaus	-9.80629
▁skub	-9.80778
▁Italijo	-9.81132
▁Ispanijos	-9.81169
▁Prancūzija	-9.81169
▁Respublikos	-9.81169
▁geografi	-9.81169
▁gyventojams	-9.81169
▁kampanij	-9.81169
▁neįmanoma	-9.81169
▁pabaigos	-9.81169
▁priežiūrą	-9.81169
▁smulk	-9.81169
▁straipsnis	-9.81169
▁vartotojai	-9.81169
▁žingsnį	-9.81169
▁koordinuo	-9.8117
▁įvyko	-9.8117
▁išgyven	-9.8117
▁įsipareigojimą	-9.8117
▁demokratiją	-9.8117
▁viduje	-9.8117
▁socialinį	-9.8117
▁keisti	-9.8117
▁dalyje	-9.81172
▁gerovės	-9.81173
▁baz	-9.81195
▁laikomasi	-9.81201
▁dienos	-9.81212
partneryst	-9.81315
▁kolegoms	-9.81417
▁narius	-9.8146
▁valstybei	-9.81518
sprendžia	-9.81613
▁vertinama	-9.81624
▁žengti	-9.8166
▁užbaigti	-9.817
▁grupių	-9.81761
▁tolesn	-9.81785
▁žym	-9.81791
▁diena	-9.81827
▁supaprastin	-9.82342
sienio	-9.82368
▁fa	-9.8265
▁buvusi	-9.82989
▁pabrėžia	-9.83287
▁veikianči	-9.83645
▁išsaugo	-9.83887
▁gaut	-9.8431
▁užbaig	-9.84326
▁suteikiama	-9.84471
▁iešk	-9.84531
▁lygmen	-9.84762
mogaus	-9.84829
albūt	-9.84844
kivaizdu	-9.8486
precedent	-9.84873
▁agentūra	-9.84873
▁agentūrų	-9.84873
▁geguž	-9.84873
▁institucin	-9.84873
▁intensyv	-9.84873
▁komercin	-9.84873
▁nusikalstam	-9.84873
▁palengvin	-9.84873
▁pavyzdžių	-9.84873
▁poreikį	-9.84873
▁posėdyje	-9.84873
▁vaidmens	-9.84873
▁Direktyv	-9.84873
▁objekt	-9.84873
▁prieštarauja	-9.84873
▁gyventojai	-9.84873
▁išnaudoj	-9.84873
▁pagamint	-9.84873
▁Svarbu	-9.84873
▁sukėl	-9.84874
▁šeimos	-9.84874
▁išskirtin	-9.84874
▁Ministr	-9.84874
▁naujovių	-9.84875
▁programoje	-9.84875
▁Privalom	-9.84875
▁valstybnar	-9.84875
▁paskol	-9.84876
▁trūksta	-9.84876
▁šaliai	-9.84876
▁raginim	-9.84878
pritaikyt	-9.84881
▁žinia	-9.84881
▁nežino	-9.84882
▁dešimtmeči	-9.84882
▁piet	-9.84908
▁sumažėj	-9.84913
▁akto	-9.84934
▁Iki	-9.84938
▁norėtų	-9.8494
bėg	-9.84949
▁svarstyti	-9.84957
▁nelygyb	-9.84963
▁rinkimus	-9.84994
▁BŽ	-9.84996
▁100	-9.85053
▁dviem	-9.85084
▁tikisi	-9.85142
▁likusi	-9.85147
▁deram	-9.85153
▁veng	-9.85155
▁nagrinėjam	-9.85171
▁gaminių	-9.85242
▁mėg	-9.853
▁nagrinė	-9.85651
▁kitoki	-9.85707
▁kartų	-9.85775
▁didelė	-9.86079
▁galiojanči	-9.86383
▁neteising	-9.86489
▁susiet	-9.86515
▁Parlamentu	-9.86718
▁sprendimu	-9.86748
▁pristat	-9.86818
▁rūpi	-9.87351
▁praėjus	-9.87623
▁bendradarbiauja	-9.88039
▁pakankam	-9.88192
▁pagerin	-9.88198
▁pakeis	-9.88262
▁išnagrinė	-9.88636
migracijos	-9.88687
▁Airijoje	-9.88719
▁Ashton	-9.88719
▁Izraelio	-9.88719
▁Rūmai	-9.88719
▁Tarybą	-9.88719
▁ataskaitą	-9.88719
▁aviacijos	-9.88719
▁fondas	-9.88719
▁kompetencija	-9.88719
▁lengviau	-9.88719
▁netrukus	-9.88719
▁pamiršti	-9.88719
▁pusiausvyrą	-9.88719
▁reglamentą	-9.88719
▁stengtis	-9.88719
▁labui	-9.88719
▁pokyčių	-9.88719
▁moderni	-9.8872
▁nuosavybės	-9.8872
suprantu	-9.8872
mobili	-9.8872
▁lyderi	-9.8872
▁pridėtin	-9.8872
▁prašymą	-9.8872
▁pavojų	-9.8872
▁pasiūlyme	-9.88721
▁nutraukti	-9.88721
▁vaikus	-9.88722
▁garantijų	-9.88722
▁mėnesį	-9.88723
▁patirtimi	-9.88723
▁pakartoti	-9.88724
▁maistu	-9.88725
▁neatsi	-9.88729
▁zona	-9.8873
▁trys	-9.88731
▁sutartyje	-9.88755
▁iškil	-9.88774
▁dienų	-9.88781
▁17	-9.88794
▁minut	-9.88866
CS	-9.8889
▁sėkmės	-9.88988
▁vienintelis	-9.89043
▁šaltinių	-9.89117
▁įgyvendinimą	-9.89373
▁akivaizd	-9.89443
▁politiniai	-9.89834
leiskite	-9.90184
▁daroma	-9.90195
▁skiria	-9.9031
▁gyvenanči	-9.90412
eismo	-9.90482
▁paaiškinim	-9.90725
ėjimu	-9.90727
▁skatinama	-9.91047
▁veiksmingesn	-9.91395
▁tikriausi	-9.91499
▁ženg	-9.92176
▁pažym	-9.92716
▁Afganistan	-9.92719
▁Rumunijos	-9.92719
▁Valstijų	-9.92719
▁asociacij	-9.92719
▁ataskaitos	-9.92719
▁diskutuojam	-9.92719
▁draudimo	-9.92719
▁jėgos	-9.92719
▁kliūčių	-9.92719
▁ministrų	-9.92719
▁pabėgėlių	-9.92719
▁pacientų	-9.92719
▁ryšių	-9.92719
▁Švedijos	-9.92719
▁fondai	-9.92719
▁knyg	-9.92719
▁kontekst	-9.92719
▁pokyčius	-9.92719
▁sparčiai	-9.92719
▁tarnyba	-9.92719
▁įgaliotin	-9.92719
▁pasirinkti	-9.92719
▁susisiekim	-9.92719
▁narkotik	-9.9272
▁paveld	-9.9272
▁valiutos	-9.9272
▁tyrimą	-9.9272
▁pažangi	-9.9272
▁sieja	-9.9272
▁įtaką	-9.9272
▁minėjau	-9.92721
▁teršalų	-9.92721
▁Leiski	-9.92723
▁kenčia	-9.92723
▁paketą	-9.92723
▁skirtumus	-9.92724
▁turizmo	-9.92725
▁prisitaikymo	-9.92735
▁Pirmininkas	-9.92737
▁apsvarstyti	-9.92744
▁įrang	-9.92761
▁prasme	-9.92761
▁padėtyje	-9.92764
▁būdai	-9.92779
▁kainos	-9.9281
▁ponia	-9.92819
▁rūšių	-9.9287
▁gamintojams	-9.92894
▁būtinybę	-9.93018
▁trečiosiom	-9.93065
▁ginti	-9.93066
▁teikimo	-9.93079
▁klas	-9.9308
▁kitoms	-9.93112
▁padaryt	-9.93556
SV	-9.9363
▁pasiekt	-9.94941
▁panaš	-9.95399
▁grindžiam	-9.95531
▁supaprastint	-9.95531
▁paskelbt	-9.9605
▁sėkm	-9.96114
▁199	-9.9615
▁nuoširdžia	-9.96251
▁kelianči	-9.96678
▁reglamentu	-9.96883
▁Lenkijos	-9.96886
▁Portugalijos	-9.96886
▁Reglament	-9.96886
▁diskutuoti	-9.96886
▁inovacijų	-9.96886
▁organizacija	-9.96886
▁pagarbos	-9.96886
▁prioritetai	-9.96886
▁skaičiaus	-9.96886
▁specifin	-9.96886
▁sąskaita	-9.96886
▁terorizmu	-9.96886
▁užmokesčio	-9.96886
▁ištekliai	-9.96886
▁neturting	-9.96886
▁pasmerk	-9.96886
▁tyrimai	-9.96886
▁krovini	-9.96886
▁sujung	-9.96887
▁trijų	-9.96887
▁vizij	-9.96887
▁tikslams	-9.96888
▁kūrimo	-9.96888
▁naikin	-9.96892
▁gimt	-9.96892
▁patirties	-9.96894
▁savaime	-9.96895
▁žalos	-9.96899
▁žali	-9.96899
▁programų	-9.96903
vengiama	-9.96907
▁Daugeli	-9.96912
▁banko	-9.96944
▁kreiptis	-9.9696
▁gerų	-9.9697
▁skund	-9.96972
▁elgtis	-9.96986
▁linij	-9.9707
▁valstybėmis	-9.97092
▁procent	-9.971
▁sprendžiam	-9.97178
▁asmenys	-9.97191
▁Dabartin	-9.97269
▁palygin	-9.97305
▁pradin	-9.97314
▁pirmąj	-9.97342
tiksl	-9.97636
▁kategorij	-9.97869
▁suprantama	-9.98014
▁išsaugot	-9.98021
▁pagrindinė	-9.98312
aktyviai	-9.9987
dėl	-10.009
▁glaud	-10.0121
▁Ačiū	-10.0123
▁Bulgarijos	-10.0123
▁ankstyv	-10.0123
▁apibūdin	-10.0123
▁diskusiją	-10.0123
▁kompetencijo	-10.0123
▁kortel	-10.0123
▁kriterijų	-10.0123
▁moterims	-10.0123
▁nusipeln	-10.0123
▁pabaigoje	-10.0123
▁pasitikėjimą	-10.0123
▁problemomis	-10.0123
▁tebėra	-10.0123
▁teritorin	-10.0123
▁vairuotoj	-10.0123
▁šiltnami	-10.0123
▁jėga	-10.0123
▁nelaimių	-10.0123
▁pranašum	-10.0123
▁vykusi	-10.0123
▁įdieg	-10.0123
▁ekologin	-10.0123
▁blok	-10.0123
▁kūryb	-10.0123
▁perkelt	-10.0124
▁pasekmė	-10.0124
▁etnin	-10.0124
▁žemyn	-10.0125
▁nariui	-10.0125
▁civili	-10.0126
▁Pastar	-10.0126
▁kovą	-10.0127
▁paskirt	-10.0128
▁lankstumo	-10.0132
▁vykdymo	-10.0133
▁16	-10.0134
▁rezoliucijoje	-10.0134
▁valand	-10.0135
▁pakeitimo	-10.0137
▁asmeniškai	-10.0143
▁menk	-10.0143
▁nemaža	-10.0144
▁terorist	-10.0147
▁pramonei	-10.0152
▁patent	-10.0193
▁kaimynystė	-10.0198
▁konkrečiu	-10.0203
▁bandom	-10.0221
▁Visiška	-10.0338
▁Balsavim	-10.0414
▁plači	-10.0417
▁svarbesn	-10.0461
▁organizuot	-10.0546
▁Finans	-10.0578
▁šešėl	-10.0578
▁Baltarusijos	-10.0578
▁Briuselyje	-10.0578
▁Graikija	-10.0578
▁NATO	-10.0578
▁Rumunija	-10.0578
▁Serbijos	-10.0578
▁Vengrija	-10.0578
▁administravim	-10.0578
▁dokumentą	-10.0578
▁duomenimis	-10.0578
▁egzistuoja	-10.0578
▁fondu	-10.0578
▁funkcij	-10.0578
▁informavim	-10.0578
▁kliūtis	-10.0578
▁koordinavimo	-10.0578
▁opozicijo	-10.0578
▁projektų	-10.0578
▁sesijoje	-10.0578
▁skaitmenin	-10.0578
▁smarkiai	-10.0578
▁sužinoti	-10.0578
▁vertybes	-10.0578
▁Gruzijo	-10.0578
▁Sutinku	-10.0578
▁išvadas	-10.0578
▁vykti	-10.0578
▁atsiranda	-10.0578
▁vyriausi	-10.0578
▁nauda	-10.0578
▁išsakyt	-10.0578
▁esate	-10.0578
▁norėjau	-10.0578
▁atkurti	-10.0578
▁sutarčių	-10.0578
▁mėnesių	-10.0578
▁saugumui	-10.0578
▁išrinkt	-10.0578
▁komand	-10.0578
▁vaizd	-10.0578
▁pirmyn	-10.0578
▁balan	-10.0578
▁pamaty	-10.0579
▁vartoja	-10.0579
▁valdžia	-10.058
▁išlikt	-10.0581
▁Kong	-10.0583
▁kalbu	-10.0583
▁Italijoje	-10.0583
▁kilo	-10.0584
▁Vida	-10.0587
▁500	-10.0588
▁skaidrumą	-10.0589
▁konkrečios	-10.0591
▁artimiausi	-10.0596
▁60	-10.0596
▁baigtos	-10.0597
▁Teismo	-10.0605
▁priemonėms	-10.0606
▁ėmė	-10.0614
▁regioninė	-10.062
▁tikrinim	-10.0659
skyrimo	-10.0747
▁paaiškin	-10.0756
▁vanden	-10.0762
nagrinėti	-10.0927
▁aptariam	-10.0985
▁balsavim	-10.0998
▁atitik	-10.1005
▁tarpusav	-10.1052
▁efekt	-10.1054
▁deklaracij	-10.1054
▁Aplinkos	-10.1054
▁Kiekvien	-10.1054
▁Konstitucij	-10.1054
▁Ukraina	-10.1054
▁Valstijos	-10.1054
▁asignavim	-10.1054
▁deficit	-10.1054
▁dioksid	-10.1054
▁dokumentas	-10.1054
▁kolektyvin	-10.1054
▁konkurenciją	-10.1054
▁kriterijai	-10.1054
▁pagarba	-10.1054
▁pinigus	-10.1054
▁prevencijos	-10.1054
▁pridurti	-10.1054
▁principą	-10.1054
▁reikalavimai	-10.1054
▁subsidiarum	-10.1054
▁subsidij	-10.1054
▁technologin	-10.1054
▁verslinink	-10.1054
▁įgaliojimus	-10.1054
išskyrus	-10.1054
▁imtasi	-10.1054
▁nepalanki	-10.1054
▁diskriminacija	-10.1054
▁kodeks	-10.1054
▁nukentė	-10.1054
▁vaikams	-10.1054
▁civilinės	-10.1054
▁išvados	-10.1054
▁nuostol	-10.1054
▁ribos	-10.1054
▁vyksianči	-10.1054
▁nuveikti	-10.1054
▁spaudimą	-10.1055
▁tikėtis	-10.1055
▁baud	-10.1056
▁terš	-10.1057
▁sukelianči	-10.1057
▁tarpusavyje	-10.1057
▁kritikuo	-10.1057
▁Gazo	-10.1059
▁skaidrumas	-10.106
▁padarinius	-10.106
▁kalbą	-10.106
▁norėdam	-10.1062
▁viskas	-10.1068
▁standart	-10.1077
▁pakeit	-10.1078
▁atmet	-10.1093
▁pašt	-10.1119
rūpinti	-10.1184
▁vykdyt	-10.1187
protest	-10.1191
▁persvarstym	-10.1223
▁valdymu	-10.123
▁post	-10.1237
gėd	-10.1335
diskusijos	-10.1388
▁Pirm	-10.1434
▁rūš	-10.1535
▁ignoruo	-10.1554
▁Europol	-10.1554
▁Portugalija	-10.1554
▁ačiū	-10.1554
▁dokumentai	-10.1554
▁operator	-10.1554
▁paspartint	-10.1554
▁potencialą	-10.1554
▁prioritetų	-10.1554
▁ryšio	-10.1554
▁uždrausti	-10.1554
▁vystymąsi	-10.1554
▁ūkininkams	-10.1554
▁ūkininkų	-10.1554
▁AKR	-10.1554
▁simboli	-10.1554
▁subjekt	-10.1554
▁vietą	-10.1554
▁BVP	-10.1554
▁Tunis	-10.1554
▁Rūmų	-10.1554
▁iškėl	-10.1554
▁partijų	-10.1554
▁neatsižvelgia	-10.1554
▁gaires	-10.1554
▁nvien	-10.1554
▁makro	-10.1554
▁Ragin	-10.1554
▁pradžios	-10.1555
▁pasakyta	-10.1555
▁garb	-10.1555
▁finansuojam	-10.1555
▁užtikrinimo	-10.1555
▁pradžia	-10.1555
▁žalą	-10.1556
▁būdų	-10.1556
▁gavėj	-10.1556
▁žiaur	-10.1556
▁finansavimas	-10.1557
▁Remi	-10.1558
izacijos	-10.1558
▁saugoti	-10.1559
▁fizin	-10.156
▁judėti	-10.1561
▁pirkim	-10.1562
▁verčia	-10.1564
▁2004	-10.1565
▁narystės	-10.1565
▁kalbų	-10.1565
▁specialist	-10.1624
pirk	-10.163
▁kalt	-10.165
▁demokratišk	-10.1656
▁einanti	-10.17
teikti	-10.1736
▁reglamentuoja	-10.1741
▁sustiprint	-10.1879
▁išspręst	-10.191
praneš	-10.1913
(	-10.1916
Komisijos	-10.1916
▁paremt	-10.1991
▁paskatint	-10.2017
▁supras	-10.2027
tabilumo	-10.2077
▁diplomatin	-10.208
▁stengia	-10.208
energija	-10.208
▁Kroatijos	-10.208
▁Lenkija	-10.208
▁Pakistano	-10.208
▁Pavyzdžiu	-10.208
▁Serbija	-10.208
▁Tūkstan	-10.208
▁absurd	-10.208
▁deryboms	-10.208
▁fondą	-10.208
▁investicijas	-10.208
▁koncepcij	-10.208
▁konstitucin	-10.208
▁konvencija	-10.208
▁laikotarpį	-10.208
▁laipsnišk	-10.208
▁naudą	-10.208
▁naštą	-10.208
▁nepagrįst	-10.208
▁pavyks	-10.208
▁pavyzdį	-10.208
▁potvyni	-10.208
▁ratifikavim	-10.208
▁seksualin	-10.208
▁solidarumą	-10.208
▁straipsnį	-10.208
▁subalansuot	-10.208
▁susipažint	-10.208
▁vertybių	-10.208
▁visuomet	-10.208
▁vystymuisi	-10.208
▁žurnalist	-10.208
▁išlaidos	-10.208
▁penkeri	-10.208
▁praktiškai	-10.208
▁skrydži	-10.208
▁pasikeit	-10.208
▁ūkis	-10.208
▁ketvirt	-10.2081
▁gresia	-10.2081
▁trūkumu	-10.2081
▁prireik	-10.2081
▁balsų	-10.2081
▁nesilaik	-10.2081
▁nuosav	-10.2081
▁išplėt	-10.2081
▁įvairovės	-10.2081
▁sveikinu	-10.2081
▁aukų	-10.2081
▁likti	-10.2081
▁būdą	-10.2082
▁diskriminacijos	-10.2082
▁tašk	-10.2082
▁interesai	-10.2082
▁išmetim	-10.2083
▁daugumos	-10.2085
▁pardavim	-10.2086
▁liko	-10.209
▁įgyt	-10.2163
▁palygint	-10.2218
▁efektyvia	-10.2245
▁kylanči	-10.2262
▁vykstanči	-10.2282
prievarta	-10.2283
▁prižiūrė	-10.2364
▁rezoliucij	-10.2371
įvair	-10.2412
gauti	-10.2423
▁teikėj	-10.2459
Darbo	-10.2469
ekonomin	-10.247
padėtis	-10.2471
▁nepakanka	-10.2488
▁pozicij	-10.2521
▁gyv	-10.2535
▁pereit	-10.2585
▁dažniau	-10.2636
▁Nyderland	-10.2636
▁Japonijos	-10.2636
▁Socialist	-10.2636
▁Transport	-10.2636
▁apgailestauju	-10.2636
▁apibrėžim	-10.2636
▁dvidešimt	-10.2636
▁ekologišk	-10.2636
▁europiečių	-10.2636
▁intelektin	-10.2636
▁išgirsti	-10.2636
▁milžinišk	-10.2636
▁ministras	-10.2636
▁padėčiai	-10.2636
▁pageidauja	-10.2636
▁pareikalau	-10.2636
▁paslaugomis	-10.2636
▁primygtin	-10.2636
▁prioritetas	-10.2636
▁projektai	-10.2636
▁radikal	-10.2636
▁riziką	-10.2636
▁septyni	-10.2636
▁stebėtoj	-10.2636
▁terorizmo	-10.2636
▁universitet	-10.2636
▁asmuo	-10.2636
▁nesąžining	-10.2636
▁pastabą	-10.2636
▁rekomenduoj	-10.2636
▁televizij	-10.2636
▁verslu	-10.2636
▁žodį	-10.2636
▁ALDE	-10.2636
▁pasirengim	-10.2636
▁interesams	-10.2636
▁mokesčio	-10.2636
▁taupym	-10.2636
▁Kipro	-10.2636
▁prisimin	-10.2636
▁strategijoje	-10.2636
▁dvigub	-10.2636
▁tarif	-10.2636
▁vyresn	-10.2636
▁trūkumas	-10.2636
▁Kanad	-10.2636
▁gamtos	-10.2636
▁poveikis	-10.2636
▁dažniausiai	-10.2636
▁įvairovę	-10.2636
▁metams	-10.2636
▁mėnesiai	-10.2636
▁kalėjim	-10.2637
▁pakenk	-10.2637
▁paketas	-10.2637
▁užtikrintų	-10.2637
▁rizika	-10.2637
▁motyv	-10.2637
▁pradės	-10.2637
▁finansavimu	-10.2638
▁patekti	-10.264
▁baim	-10.2645
▁likim	-10.2654
▁kalini	-10.2667
▁bendradarbiau	-10.2682
▁būst	-10.2712
tmeči	-10.2725
▁strateg	-10.2907
▁įvest	-10.2975
▁pavyzdžiu	-10.3023
▁išvengt	-10.3024
dirbti	-10.3059
tampa	-10.3062
ginčyti	-10.308
▁paverst	-10.3092
alankiai	-10.3217
▁laimė	-10.3223
▁diskrimin	-10.3223
▁vietov	-10.3224
asdešimt	-10.3224
kompetenting	-10.3224
▁Afrikoje	-10.3224
▁Libijos	-10.3224
▁Pilieči	-10.3224
▁Raštišk	-10.3224
▁Ukrainos	-10.3224
▁anksto	-10.3224
▁ataskaitoje	-10.3224
▁dialoga	-10.3224
▁išsiaiškinti	-10.3224
▁klausimams	-10.3224
▁milijard	-10.3224
▁naudojimu	-10.3224
▁neatitinka	-10.3224
▁nelaiming	-10.3224
▁paslaugos	-10.3224
▁referent	-10.3224
▁skurdą	-10.3224
▁straipsnyje	-10.3224
▁sąjunga	-10.3224
▁trūkumų	-10.3224
▁vertybėmis	-10.3224
▁įgaliojimai	-10.3224
▁žlug	-10.3224
▁našta	-10.3224
▁pasaulis	-10.3224
▁įvyks	-10.3224
▁Austrij	-10.3224
▁praktika	-10.3224
skaičiav	-10.3224
▁prasidėjo	-10.3224
▁skirtumai	-10.3224
▁žinią	-10.3224
▁pratęs	-10.3224
▁ūkiu	-10.3224
▁nuspręsti	-10.3224
▁teror	-10.3224
▁lygmenimis	-10.3224
▁motinyst	-10.3224
▁atsidūr	-10.3224
▁islam	-10.3225
▁skirtumų	-10.3225
▁Bosnij	-10.3225
▁asmenims	-10.3225
▁perduoti	-10.3225
▁Sveikin	-10.3225
▁kanal	-10.3226
▁bendruomenės	-10.3226
▁mumis	-10.3226
▁apmokestinim	-10.3226
▁debat	-10.3227
▁planuojam	-10.3229
▁trej	-10.323
▁žaisl	-10.3231
▁regionai	-10.3231
▁šeima	-10.3254
▁kilus	-10.3261
tvirt	-10.3288
▁saugom	-10.3297
▁teismin	-10.3308
program	-10.3466
protinga	-10.3481
▁planavim	-10.3523
▁pristatyt	-10.3539
▁paminėt	-10.3544
▁įvertinim	-10.3685
sunki	-10.3686
atskleid	-10.3831
tenkina	-10.3835
▁padėk	-10.3849
vystymo	-10.3849
▁Vokietijoje	-10.3849
▁atgaivin	-10.3849
▁atspindė	-10.3849
▁fiskalin	-10.3849
▁formul	-10.3849
▁generalini	-10.3849
▁idėją	-10.3849
▁modelį	-10.3849
▁mokėtojų	-10.3849
▁neatidėliotin	-10.3849
▁nepavyko	-10.3849
▁nereiškia	-10.3849
▁pagarbą	-10.3849
▁pasekmių	-10.3849
▁pastangos	-10.3849
▁pesticidų	-10.3849
▁priklausanči	-10.3849
▁projektams	-10.3849
▁reglamentas	-10.3849
▁reguliuoti	-10.3849
▁sistemoje	-10.3849
▁ūkininkai	-10.3849
▁žmogišk	-10.3849
▁apgalvot	-10.3849
▁savaites	-10.3849
▁įstaigų	-10.3849
▁žaliavų	-10.3849
▁diskriminaciją	-10.3849
▁Sudano	-10.3849
▁priklausy	-10.3849
▁Airija	-10.3849
▁aukoms	-10.3849
▁stebėjimo	-10.3849
▁tvarkymo	-10.3849
▁siunčia	-10.3849
▁nelaimės	-10.3849
▁Belgijo	-10.3849
▁Nuolat	-10.3849
▁vietovėse	-10.3849
▁Azijos	-10.385
▁kontroliuoti	-10.385
▁atkakl	-10.385
▁Neseni	-10.385
▁savarankiškai	-10.385
▁kilti	-10.385
▁pašar	-10.385
▁dalys	-10.385
▁paketu	-10.385
▁pajamas	-10.385
▁krauj	-10.3851
▁būding	-10.3851
▁atsitikim	-10.3853
▁elgesi	-10.3857
▁laimėjim	-10.3858
▁paraišk	-10.3859
▁pavaduotoj	-10.419
▁didėjanči	-10.419
▁įmanom	-10.4246
▁pasieni	-10.4308
▁vidutinėm	-10.4311
▁užtikrinanči	-10.4325
kontrol	-10.4349
valstyb	-10.4349
Į	-10.435
▁automobili	-10.4367
lyginti	-10.4401
▁parodyt	-10.4423
▁Sav	-10.4438
▁teisinė	-10.4455
▁Valstyb	-10.4487
▁prisitaik	-10.4513
įvairov	-10.4516
▁demografin	-10.4516
▁Bulgarija	-10.4516
▁Moldovo	-10.4516
▁Strasbūre	-10.4516
▁Svarbiausia	-10.4516
▁Valstijomis	-10.4516
▁aprūpinim	-10.4516
▁atvejis	-10.4516
▁daugiašal	-10.4516
▁diskusijoje	-10.4516
▁dokumente	-10.4516
▁dokumento	-10.4516
▁energiją	-10.4516
▁istorijos	-10.4516
▁išankstini	-10.4516
▁mokėtojai	-10.4516
▁nepavyks	-10.4516
▁persekiojim	-10.4516
▁politikoje	-10.4516
▁praktikos	-10.4516
▁profesional	-10.4516
▁referendumo	-10.4516
▁susidomėjim	-10.4516
6-0	-10.4516
▁London	-10.4516
▁administracij	-10.4516
▁atšauk	-10.4516
▁aštuoni	-10.4516
▁jūroje	-10.4516
▁ruoš	-10.4516
▁švies	-10.4516
▁Komitet	-10.4516
▁ištaisyti	-10.4516
▁sudedam	-10.4516
▁įrengini	-10.4516
▁aplinkybes	-10.4516
▁sričiai	-10.4516
▁komentar	-10.4516
▁tikėtina	-10.4516
▁pranešėją	-10.4516
▁reikėjo	-10.4516
▁mokymą	-10.4516
▁nedarbo	-10.4516
▁veikloje	-10.4516
▁liūd	-10.4516
▁bankinink	-10.4516
▁lyties	-10.4516
▁žaidim	-10.4516
▁kūrimas	-10.4516
▁produkci	-10.4516
▁galvoje	-10.4516
▁Žinau	-10.4516
▁mikro	-10.4517
▁vėž	-10.4517
▁Moter	-10.4517
▁Jums	-10.4517
▁kalbomis	-10.4517
▁gyvuli	-10.4517
▁statistini	-10.4517
▁gaila	-10.4518
▁detal	-10.4518
▁įdomu	-10.4519
▁pirmenyb	-10.452
▁jokiu	-10.4521
atsirado	-10.4522
▁valdom	-10.4522
▁Birmo	-10.4525
darysime	-10.455
sakysiu	-10.4551
▁atsitikti	-10.4563
grįžti	-10.4565
▁ieškot	-10.4579
▁nuoširdži	-10.462
▁reikšmė	-10.4711
▁centrini	-10.4814
eticijų	-10.4969
▁didėj	-10.498
▁formuo	-10.5002
▁prisidėt	-10.5032
silpn	-10.5063
▁vadinamąj	-10.5099
▁Amerik	-10.5155
▁viešosio	-10.5167
▁didžioj	-10.5183
▁pažiūr	-10.5221
savarankišk	-10.5229
▁Australij	-10.523
▁Jugoslavij	-10.523
▁investuoja	-10.523
▁privilegij	-10.523
▁ruož	-10.523
▁skurdžiausi	-10.523
▁Žaliųjų	-10.523
2007-2013	-10.523
komunikacij	-10.523
▁Demokrat	-10.523
▁Indijos	-10.523
▁Liberal	-10.523
▁Libijoje	-10.523
▁Prancūzijoje	-10.523
▁Prezident	-10.523
▁Slovakijos	-10.523
▁apkaltin	-10.523
▁atskaitomyb	-10.523
▁baronien	-10.523
▁ekosistem	-10.523
▁europiečiai	-10.523
▁ilgalaikė	-10.523
▁informacin	-10.523
▁inovacijas	-10.523
▁institucijomis	-10.523
▁jėgų	-10.523
▁lėktuv	-10.523
▁lūkesčius	-10.523
▁mobilum	-10.523
▁naudojimas	-10.523
▁parduodam	-10.523
▁pobūdį	-10.523
▁ribojim	-10.523
▁sąvoka	-10.523
▁transatlantin	-10.523
▁trečdali	-10.523
▁triukšm	-10.523
▁veiksnys	-10.523
▁drebėjim	-10.523
▁dydžio	-10.523
▁išlaisvin	-10.523
▁pasekmes	-10.523
▁popieri	-10.523
▁įstaigos	-10.523
▁slapt	-10.523
▁PPO	-10.523
▁išvadų	-10.523
▁pažeist	-10.523
▁sveikintina	-10.523
▁turėdam	-10.523
▁nemokam	-10.523
▁liberalizuo	-10.523
▁kenkia	-10.523
▁rinkėjų	-10.523
▁vietini	-10.523
▁kelionės	-10.523
▁pagirti	-10.523
▁donor	-10.523
▁naujoves	-10.523
▁įstojim	-10.523
▁regionams	-10.5231
▁prieštaring	-10.5231
▁surasti	-10.5231
▁šeimų	-10.5231
▁imtų	-10.5231
▁surinkt	-10.5231
▁reaguoja	-10.5231
▁paskui	-10.5231
pjū	-10.5232
▁Palaik	-10.5232
▁ramsči	-10.5232
▁žaling	-10.5232
▁kalbėtoj	-10.5234
▁išimtin	-10.5235
▁pastebim	-10.5239
▁balsuodam	-10.5246
▁auginim	-10.5271
▁naujovė	-10.5313
▁peticij	-10.5498
▁perėjim	-10.5514
galiojimo	-10.5564
▁būdam	-10.5624
▁pagerė	-10.5634
▁atitinkanči	-10.5695
▁veikėj	-10.5715
▁nepriimtin	-10.5764
▁šalimi	-10.5802
▁įvykd	-10.5828
reikėtų	-10.5834
problema	-10.5834
▁special	-10.5998
/2008	-10.5999
/2010	-10.5999
▁Makedonijos	-10.5999
▁Palestino	-10.5999
▁Rumunijoje	-10.5999
▁Solidarum	-10.5999
▁agentūrą	-10.5999
▁apibendrin	-10.5999
▁apčiuopiam	-10.5999
▁atostogų	-10.5999
▁dalyką	-10.5999
▁dialogu	-10.5999
▁gyventojus	-10.5999
▁idėjų	-10.5999
▁ilgalaikį	-10.5999
▁investicijos	-10.5999
▁išpuolių	-10.5999
▁koncentra	-10.5999
▁koordinavimą	-10.5999
▁lėšomis	-10.5999
▁migrantų	-10.5999
▁monopoli	-10.5999
▁nepilnameči	-10.5999
▁pacientams	-10.5999
▁pasauliui	-10.5999
▁paskirstymo	-10.5999
▁pastebėti	-10.5999
▁pavojaus	-10.5999
▁persekioja	-10.5999
▁priežastys	-10.5999
▁protekcionizm	-10.5999
▁pusiausvyros	-10.5999
▁ryšius	-10.5999
▁sankcijas	-10.5999
▁sankcijų	-10.5999
▁solidarumas	-10.5999
▁stebėsenos	-10.5999
▁sušvelnin	-10.5999
▁sąjunginink	-10.5999
▁tyrimams	-10.5999
▁vyrauja	-10.5999
▁žingsniu	-10.5999
▁Lietuv	-10.5999
▁Sutartį	-10.5999
▁bruož	-10.5999
▁pamiršta	-10.5999
▁susigrąžin	-10.5999
▁pasitikėjimo	-10.5999
▁vizit	-10.5999
▁organizavim	-10.5999
▁pokyčiai	-10.5999
▁aplinkybių	-10.5999
▁reiškinys	-10.5999
▁dinamišk	-10.5999
▁konkuruo	-10.5999
▁rašytin	-10.5999
▁paplit	-10.5999
skaityti	-10.5999
▁nesvarbu	-10.5999
▁stamb	-10.5999
▁forum	-10.5999
▁miršta	-10.5999
▁sulaikym	-10.6
▁tyrimo	-10.6
▁Tibet	-10.6
▁nukentėjusi	-10.6
▁savaičių	-10.6
▁apginti	-10.6
▁Prašau	-10.6
▁sunaikin	-10.6
▁viršūn	-10.6
▁reikšmę	-10.6
▁pereinam	-10.6
▁realyb	-10.6
▁Siekdam	-10.6
▁naujovišk	-10.6
▁emisij	-10.6
▁mokestin	-10.6001
▁vaistai	-10.6001
▁farmaci	-10.6001
▁vandenyn	-10.6001
▁švent	-10.6002
▁daugiamet	-10.6002
▁nesutarim	-10.6003
▁pataisym	-10.6003
▁nutraukim	-10.6009
▁patraukl	-10.601
▁taikydam	-10.6018
prisijungti	-10.6064
vandenili	-10.6153
formuoja	-10.6158
▁Pateik	-10.6372
▁vadinamoj	-10.6396
▁Diskusij	-10.6734
▁Dunoj	-10.6833
▁Pirmininkaujan	-10.6833
▁lanksči	-10.6833
▁prasideda	-10.6833
▁tarpinstitucin	-10.6833
▁telefon	-10.6833
AIDS	-10.6833
integracija	-10.6833
nutraukkalbėtoją	-10.6833
▁Graikijoje	-10.6833
▁Hercegovin	-10.6833
▁Komisijoje	-10.6833
▁Kroatija	-10.6833
▁Schulz	-10.6833
▁Stokholm	-10.6833
▁Vokietija	-10.6833
▁apgailestauti	-10.6833
▁darbotvarkėje	-10.6833
▁diskusijomis	-10.6833
▁dujotieki	-10.6833
▁džiaugiamės	-10.6833
▁imigracija	-10.6833
▁investicijoms	-10.6833
▁istoriją	-10.6833
▁konsultacijų	-10.6833
▁konvenciją	-10.6833
▁korupcija	-10.6833
▁nedelsdam	-10.6833
▁neramum	-10.6833
▁nesupranta	-10.6833
▁pacientai	-10.6833
▁projekte	-10.6833
▁reglamente	-10.6833
▁reguliavimą	-10.6833
▁siaubing	-10.6833
▁signalas	-10.6833
▁smerkia	-10.6833
▁sritims	-10.6833
▁studij	-10.6833
▁supratimo	-10.6833
▁tarnybų	-10.6833
▁technologijos	-10.6833
▁termino	-10.6833
▁turbūt	-10.6833
▁vertybės	-10.6833
▁vystyti	-10.6833
▁įgaliojimų	-10.6833
imbabv	-10.6833
▁EIB	-10.6833
▁PVM	-10.6833
▁akcent	-10.6833
▁skurdas	-10.6833
▁Meksik	-10.6833
▁iškraip	-10.6833
▁nebėra	-10.6833
▁prisiėm	-10.6833
▁dalytis	-10.6833
▁sutrik	-10.6833
▁žodžių	-10.6833
▁ūkių	-10.6833
▁gynėj	-10.6833
▁išimčių	-10.6833
▁premij	-10.6833
▁zoną	-10.6833
▁puoselė	-10.6833
▁apskait	-10.6833
▁byla	-10.6833
▁mokestis	-10.6833
▁nekantr	-10.6833
▁prašymų	-10.6833
EGF	-10.6833
▁susirinkim	-10.6833
▁Antroj	-10.6833
▁naudodam	-10.6833
šaldy	-10.6833
▁tariama	-10.6834
▁dalyvaujanči	-10.6834
▁skland	-10.6834
SIS	-10.6835
▁Nacionalin	-10.6835
▁pasinaudoja	-10.6835
▁praranda	-10.6837
▁gamtini	-10.6838
sugeba	-10.6838
▁įgyvendindam	-10.7011
▁geneti	-10.7085
▁leidėj	-10.7232
demokratinės	-10.7457
priklauso	-10.7573
skiriant	-10.7626
▁vietoj	-10.7657
▁sritys	-10.7658
prekyb	-10.7723
teityje	-10.7741
▁Islandij	-10.7742
▁Septint	-10.7742
▁Venesuel	-10.7742
▁asamblėj	-10.7742
▁dimensij	-10.7742
▁horizontal	-10.7742
▁institut	-10.7742
▁jurisdikcij	-10.7742
▁nusikaltėl	-10.7742
▁palestinieči	-10.7742
▁prieglobst	-10.7742
▁trišal	-10.7742
▁Afrika	-10.7742
▁Ispanijoje	-10.7742
▁Kankūn	-10.7742
▁Pramonės	-10.7742
▁Respublika	-10.7742
▁Rūmuose	-10.7742
▁Turkijoje	-10.7742
▁apytikri	-10.7742
▁atspindi	-10.7742
▁atvejį	-10.7742
▁chartija	-10.7742
▁individ	-10.7742
▁išdėstyti	-10.7742
▁išsilavinim	-10.7742
▁ketvirtadienį	-10.7742
▁konkurent	-10.7742
▁mėlyn	-10.7742
▁neoficial	-10.7742
▁nereikaling	-10.7742
▁nerimauj	-10.7742
▁novatorišk	-10.7742
▁pasaulį	-10.7742
▁pasirinkimo	-10.7742
▁paslaugoms	-10.7742
▁pastangomis	-10.7742
▁prevenciją	-10.7742
▁reglamentavimo	-10.7742
▁represij	-10.7742
▁rezerv	-10.7742
▁sektoriuose	-10.7742
▁užkerta	-10.7742
▁užmokest	-10.7742
▁verslą	-10.7742
▁vokieči	-10.7742
▁įvykti	-10.7742
orientacij	-10.7742
▁Konvencij	-10.7742
▁išbandym	-10.7742
▁paminėjo	-10.7742
▁pasiryžim	-10.7742
▁prekės	-10.7742
▁valdysenos	-10.7742
▁kariuomen	-10.7742
▁lobist	-10.7742
▁nedarbas	-10.7742
▁tragišk	-10.7742
▁kontakt	-10.7742
▁pastabų	-10.7742
▁įvaikinim	-10.7742
▁Škotij	-10.7742
▁piršt	-10.7742
▁redakcij	-10.7742
▁banan	-10.7742
▁testavim	-10.7742
▁žodis	-10.7742
▁Stavr	-10.7742
▁gydym	-10.7742
▁moralin	-10.7742
▁skirstym	-10.7742
TVF	-10.7742
▁akmen	-10.7742
▁spektr	-10.7742
▁atstum	-10.7743
▁grandinė	-10.7744
nepriklausomybės	-10.7759
▁dalijim	-10.7782
▁organizuo	-10.7807
▁siekianči	-10.7921
▁demokrat	-10.835
Š	-10.8577
▁pareikš	-10.8687
▁konkurencin	-10.87
▁sunkvežimi	-10.8742
▁užsibrėž	-10.8742
restruktūrizavim	-10.8742
įspūdis	-10.8742
▁Albanij	-10.8742
▁Apskritai	-10.8742
▁Baltarusijoje	-10.8742
▁Liuksemburg	-10.8742
▁OLAF	-10.8742
▁Portugalijoje	-10.8742
▁Prekyb	-10.8742
▁Rezoliucij	-10.8742
▁Sanglaudos	-10.8742
▁Veiksm	-10.8742
▁aktualu	-10.8742
▁apsirūpinim	-10.8742
▁atmosfer	-10.8742
▁biodegal	-10.8742
▁dalyviai	-10.8742
▁dalyvių	-10.8742
▁derėtis	-10.8742
▁dirvožemi	-10.8742
▁diskusijoms	-10.8742
▁diskutavo	-10.8742
▁ekspertų	-10.8742
▁formos	-10.8742
▁formą	-10.8742
▁formų	-10.8742
▁gamykl	-10.8742
▁gelbėjimo	-10.8742
▁ilgalaike	-10.8742
▁kompensuo	-10.8742
▁konservatori	-10.8742
▁ministrai	-10.8742
▁nepageidaujam	-10.8742
▁nepripažįsta	-10.8742
▁nesėkming	-10.8742
▁orientuot	-10.8742
▁padengti	-10.8742
▁pagreitint	-10.8742
▁palydov	-10.8742
▁pasiruošę	-10.8742
▁pasiūlymams	-10.8742
▁pavyzdin	-10.8742
▁pavėluot	-10.8742
▁praktiką	-10.8742
▁prasidėjus	-10.8742
▁pražūting	-10.8742
▁prekėms	-10.8742
▁prevencija	-10.8742
▁problemoms	-10.8742
▁radioaktyvi	-10.8742
▁ratifikavo	-10.8742
▁ratifikuoti	-10.8742
▁sisteminga	-10.8742
▁susidoroti	-10.8742
▁svyravim	-10.8742
▁sąjungų	-10.8742
▁sąnaudas	-10.8742
▁tendencija	-10.8742
▁tradicini	-10.8742
▁tranzit	-10.8742
▁vartojimą	-10.8742
▁vertybėms	-10.8742
▁įgūdžius	-10.8742
▁įrodymų	-10.8742
▁įžeidim	-10.8742
▁švietimas	-10.8742
▁Italija	-10.8742
▁Juodkalnij	-10.8742
▁Kinijoje	-10.8742
▁apgaul	-10.8742
▁imamasi	-10.8742
▁konvergencij	-10.8742
▁neutrali	-10.8742
▁padidės	-10.8742
▁rinkimams	-10.8742
▁Moksl	-10.8742
▁atokiausi	-10.8742
▁interpret	-10.8742
▁pabaiga	-10.8742
▁vežėj	-10.8742
▁Susitarim	-10.8742
▁ministru	-10.8742
▁šalutin	-10.8742
▁Dažn	-10.8742
▁steigi	-10.8742
▁kapitalizm	-10.8742
▁šiuolaikin	-10.8742
▁keleri	-10.8742
