<pad>	0
</s>	0
<unk>	0
¦	-1.51601
▁¦	-1.85138
▁	-3.45383
s	-3.65174
i	-3.80547
𐋇	-3.81152
▁,	-3.94782
o	-4.34038
▁.	-4.37781
ų	-4.46547
e	-4.58268
k	-4.58648
a	-4.72983
os	-4.74635
n	-4.76231
ir	-4.77562
ti	-4.81901
pa	-4.9681
t	-4.98034
u	-5.00445
m	-5.02913
ą	-5.05022
p	-5.05905
į	-5.13529
r	-5.14452
l	-5.2324
ne	-5.28499
as	-5.31481
y	-5.32924
d	-5.34844
g	-5.40503
us	-5.43241
in	-5.49025
ė	-5.5339
to	-5.53905
kad	-5.54602
tai	-5.57919
su	-5.6
me	-5.6151
es	-5.62838
ta	-5.65282
ai	-5.68857
š	-5.69839
iš	-5.72438
ės	-5.76611
li	-5.81228
b	-5.88123
mo	-5.9196
ki	-5.92339
te	-5.92707
ko	-5.96006
dėl	-5.9679
kuri	-5.97474
ši	-5.97716
kai	-5.99535
ma	-6.00586
ri	-6.07583
je	-6.11669
ž	-6.11911
europo	-6.12507
𐊣	-6.12823
𐊼	-6.12823
v	-6.16121
na	-6.17665
ni	-6.19353
at	-6.19742
ja	-6.20836
ant	-6.21266
va	-6.21963
re	-6.23618
ę	-6.24359
is	-6.24694
ū	-6.32196
en	-6.33075
ių	-6.33514
vi	-6.35668
ar	-6.37253
vis	-6.4077
mas	-6.41259
j	-6.41491
yra	-6.43392
ra	-6.44855
z	-6.45562
tų	-6.47082
jo	-6.48195
ing	-6.48941
al	-6.49588
dė	-6.5138
pra	-6.5158
au	-6.5436
po	-6.55098
ka	-6.55121
▁-	-6.5551
teis	-6.55785
da	-6.56625
už	-6.56815
mą	-6.58264
turi	-6.60383
jų	-6.60597
čiau	-6.61959
tik	-6.62498
mi	-6.63154
f	-6.66507
gali	-6.67577
tu	-6.67994
ijos	-6.70366
pat	-6.70759
dar	-6.70775
ve	-6.70822
la	-6.71333
ro	-6.71642
yti	-6.7321
mu	-6.77262
ga	-6.77307
am	-6.77605
c	-6.81148
ais	-6.82547
ji	-6.82847
ba	-6.84648
pri	-6.85585
le	-6.85704
iu	-6.87136
būt	-6.87384
yb	-6.87884
be	-6.88198
gi	-6.90874
iai	-6.93251
▁(	-6.93429
gal	-6.94381
veik	-6.9442
būti	-6.96359
per	-6.97539
ju	-6.98973
▁)	-6.99217
lo	-6.99994
ci	-7.01911
laik	-7.01944
gr	-7.02082
vy	-7.02172
oje	-7.02536
de	-7.03687
inti	-7.0503
klausim	-7.08554
api	-7.0892
tas	-7.11727
parlament	-7.12429
nes	-7.12533
mes	-7.1284
žin	-7.12905
du	-7.13499
kel	-7.13522
dž	-7.13763
ame	-7.14779
imo	-7.15265
1	-7.15437
bendr	-7.16055
ams	-7.16094
ys	-7.17438
ap	-7.1955
omis	-7.19645
buvo	-7.21093
▁"	-7.21249
nu	-7.21833
vo	-7.21945
tar	-7.22818
daug	-7.23077
ui	-7.2357
naud	-7.23727
nuo	-7.24277
ama	-7.24645
labai	-7.25052
čia	-7.25143
pasi	-7.29555
tikr	-7.31003
acij	-7.31627
nor	-7.31742
čių	-7.32494
siek	-7.3257
šali	-7.32733
susi	-7.3279
savo	-7.32842
ger	-7.33577
inės	-7.34047
ku	-7.34374
č	-7.34442
0	-7.34642
did	-7.34866
inių	-7.35258
rink	-7.36135
pirmininke	-7.36581
var	-7.36964
kur	-7.37481
norė	-7.37659
do	-7.38221
sak	-7.3859
aus	-7.38681
min	-7.39609
mūs	-7.39628
ją	-7.39925
ru	-7.39935
valstyb	-7.41081
iau	-7.43157
vien	-7.44169
pranešim	-7.45355
ži	-7.45386
ems	-7.49112
priemon	-7.49297
jau	-7.50437
nari	-7.50873
bi	-7.50891
oms	-7.51508
tą	-7.51567
komisijo	-7.52828
prie	-7.53102
politik	-7.53854
šiuo	-7.54592
bet	-7.55484
nt	-7.56491
bus	-7.57028
kalb	-7.57668
uoti	-7.58123
lyg	-7.58822
tini	-7.5997
turėt	-7.60053
kon	-7.60326
sąjungo	-7.60979
iausia	-7.61811
nd	-7.63697
svarb	-7.64726
pirm	-7.65106
h	-7.65129
auja	-7.65214
,	-7.65875
reikia	-7.67096
der	-7.6803
maž	-7.69362
aišk	-7.71141
kart	-7.71491
mano	-7.71881
toki	-7.72211
uose	-7.72467
veiksm	-7.73944
darbo	-7.74428
20	-7.75876
auk	-7.75879
kit	-7.75931
prieš	-7.76104
ėms	-7.76229
ėjo	-7.76275
ent	-7.7646
uoja	-7.77906
skirt	-7.78752
saug	-7.78844
komisija	-7.7924
umo	-7.79631
pagrind	-7.80403
oji	-7.80629
pač	-7.81124
valstybės	-7.81277
tam	-7.81664
mana	-7.82046
tiksl	-7.82791
dabar	-7.83575
pro	-7.85024
pasiūlym	-7.86429
reikal	-7.88055
finans	-7.88512
tvirt	-7.88691
pateik	-7.89373
akt	-7.89576
uot	-7.8962
dama	-7.89743
2	-7.90737
reik	-7.90842
tur	-7.91492
sprendim	-7.92254
mum	-7.93435
tarp	-7.93892
problem	-7.94324
eur	-7.94898
galimyb	-7.95227
▁:	-7.95291
svarbu	-7.95412
viet	-7.95542
sistem	-7.96292
darb	-7.96764
ėjim	-7.97273
ėmi	-7.98084
metu	-7.9809
reng	-7.98136
įgyvendin	-7.99378
ch	-8.04865
užtikrint	-8.05044
proc	-8.0568
atsi	-8.06879
susitarim	-8.07052
pasaul	-8.07055
gerb	-8.07346
region	-8.08417
sociali	-8.08761
iausi	-8.09196
ekonomik	-8.09627
viena	-8.09634
dami	-8.11875
balsav	-8.12834
vertin	-8.13183
▁¦200	-8.14274
pilieči	-8.14624
poni	-8.14717
5	-8.1499
9	-8.15543
atsižvelg	-8.16098
diskusij	-8.16284
inio	-8.16348
jūs	-8.16869
avimo	-8.16906
didel	-8.16929
?	-8.17595
narės	-8.18004
nčio	-8.1862
srity	-8.18925
daugiau	-8.19851
form	-8.21246
vykd	-8.2274
priimt	-8.24236
siekiant	-8.25854
sime	-8.27066
jung	-8.28561
nėr	-8.28916
tinkam	-8.29344
kriz	-8.294
3	-8.29597
kiek	-8.29619
susijusi	-8.29811
pirminink	-8.30106
aplink	-8.32401
.	-8.32498
laisv	-8.32678
sutart	-8.3286
tarptautin	-8.33057
biudžet	-8.33277
demokrat	-8.33941
atvej	-8.34709
inink	-8.35806
šiandien	-8.36641
žmog	-8.36669
politin	-8.37802
baig	-8.38461
gyv	-8.38907
nuomon	-8.39162
prisi	-8.395
požiūr	-8.39651
sąlyg	-8.39688
sąjunga	-8.39886
būd	-8.40051
galėt	-8.4063
komitet	-8.41072
tarybo	-8.41216
suteik	-8.41356
taryba	-8.41577
pritari	-8.42324
ekonomin	-8.42511
prekyb	-8.42996
tvark	-8.43156
4	-8.43483
siūl	-8.44525
sektori	-8.44712
frakcij	-8.44959
8	-8.45207
visiška	-8.45261
;	-8.45955
direktyv	-8.49523
nustatyt	-8.50043
dirb	-8.52067
iuosi	-8.52087
program	-8.52956
mėn	-8.53019
6	-8.54033
stipr	-8.54864
žmoni	-8.5514
-	-8.5552
pabrėž	-8.55951
param	-8.56635
strategij	-8.56784
bendradarbiavim	-8.57343
kreip	-8.57345
plan	-8.57987
taisykl	-8.58189
vyriausyb	-8.59327
projekt	-8.59327
europa	-8.59631
šalys	-8.6048
žmonė	-8.60797
energij	-8.6135
rezoliucij	-8.61642
pareig	-8.62233
pakeitim	-8.62524
saugum	-8.63006
teikia	-8.64584
naujo	-8.64651
visuomen	-8.66441
pranešėj	-8.66441
princip	-8.66441
įtrauk	-8.67057
nacionalin	-8.68615
pasakyti	-8.702
vadov	-8.70211
tyrim	-8.70522
raštu	-8.71163
toliau	-8.7282
ragin	-8.72942
plėtr	-8.74432
reglament	-8.74765
fond	-8.74773
turėtum	-8.75821
ateit	-8.76509
sukurt	-8.76629
informacij	-8.7679
labiau	-8.80729
produkt	-8.80964
jūr	-8.81347
klimat	-8.82051
abejo	-8.82405
paslaug	-8.82756
priklauso	-8.82756
vartotoj	-8.82756
darbuotoj	-8.83482
rezultat	-8.84581
lisabono	-8.8495
apsaugos	-8.86442
struktūr	-8.86815
pozicij	-8.87952
ministr	-8.90265
pažang	-8.9144
kontrol	-8.92631
interes	-8.92632
pavyzd	-8.93836
atstov	-8.95468
transport	-8.95877
/	-9.13903
w	-9.32283
!	-9.86991
x	-9.92256
)	-10.0801
q	-10.4155
é	-10.4889
á	-10.5278
ö	-10.7241
"	-10.8201
è	-11.3816
í	-11.4792
ó	-11.5874
:	-11.8145
ü	-11.8469
ä	-12.198
ă	-12.3091
(	-12.4018
&	-12.577
ń	-12.7436
]	-12.7437
ß	-12.9437
ć	-12.9437
ú	-13.1936
°	-13.1937
ţ	-13.1937
ň	-13.527
à	-13.527
ê	-13.527
ł	-13.527
ķ	-13.527
ż	-14.027
·	-14.027
ç	-14.027
ñ	-14.027
ý	-14.027
ő	-15.0262
ï	-15.0263
ø	-15.0264
[	-15.0265
ş	-15.0266
+	-15.0267
'	-15.0268
%	-15.0269
ř	-15.027
ò	-15.027
ľ	-15.027
ś	-15.027
̨	-15.027
έ	-15.027
π	-15.027
ρ	-15.027
υ	-15.027
”	-15.027
•	-15.027
_	-15.027
7	-15.027
ī	-15.027
