<pad>	0
</s>	0
<unk>	0
,	-3.11991
᙮	-3.53613
▁	-3.60579
▁ᑕᔥ	-4.1093
▁ᑲᔦ	-4.12112
▁ᒦ	-4.28687
▁ᐁ	-4.57578
▁ᑳ	-4.58368
ᒡ	-4.61354
ᓐ	-4.65257
▁ᒋ	-4.691
:	-4.7755
▁ᑳᐐᓐ	-4.80834
ᓂ	-4.82906
▁ᐃᐃ	-4.83414
ᑕᔥ	-5.01532
▁ᐁᑮ	-5.02774
▁ᐃᑕᔥ	-5.04104
▁ᓴ	-5.094
ᐙᒡ	-5.12702
▁ᐃᐃᒫ	-5.13617
ᒃ	-5.13856
▁ᑳᑮ	-5.14201
▁ᑭᔐᒪᓂᑑ	-5.2218
▁ᐃᓂ	-5.23925
▁ᑮ	-5.25961
▁ᐅᑮ	-5.31485
ᑯ	-5.32167
ᑭ	-5.36437
▁ᑲᑭᓇ	-5.37583
▁ᑳᐃᔑ	-5.38341
▁ᐊᐊ	-5.40192
ᓂᒡ	-5.42195
▁ᐊᐲ	-5.43012
▁ᐅ	-5.43343
▁ᒋᓴᔅ	-5.44118
ᑲ	-5.46053
ᑳ	-5.49689
▁ᐃᑭ	-5.51526
▁ᐐᓐ	-5.5182
ᒥ	-5.53453
ᓯ	-5.56108
ᐎ	-5.5616
ᑎ	-5.62471
ᔥ	-5.64241
ᐱ	-5.69487
▁ᐋᓃᔥ	-5.6965
ᓈ	-5.70273
▁ᐁᔑ	-5.71302
ᑕ	-5.72763
▁ᐅᐅ	-5.73008
▁ᐊᐎᔭ	-5.73271
ᒫ	-5.7487
?	-5.75064
ᐙ	-5.76499
ᐗᒃ	-5.7836
ᔑ	-5.82108
ᑖ	-5.83542
ᐃ	-5.85001
ᓇ	-5.85665
ᒋ	-5.85845
▁ᑭᔐᒪᓂᑑᓐ	-5.89586
▁ᑭ	-5.89742
ᐸ	-5.9176
▁ᑫ	-5.94814
!	-5.98044
▁ᑕ	-5.99133
ᕽ	-6.0026
▁ᑫᑰᓐ	-6.02348
▁ᐋᓃᓐ	-6.03741
▁ᑮᔥ	-6.05376
ᓰ	-6.06481
ᐱᓐ	-6.06744
▁ᑭᑲ	-6.10259
▁ᓂ	-6.1174
ᐌ	-6.11775
ᔦᒃ	-6.12169
▁ᐃ	-6.12744
▁X	-6.13202
ᒻ	-6.14028
ᑌ	-6.17685
▁ᐃᑯ	-6.19688
▁ᒦᔥ	-6.20915
ᐊ	-6.21574
ᐞ	-6.23908
ᐎᓐ	-6.28126
▁ᑖᐱᔥᑰ	-6.28513
▁ᐃᔑ	-6.29017
▁ᑮᓇᐙ	-6.29887
▁ᓃᓐ	-6.309
▁ᐅᑲ	-6.3436
ᑫ	-6.37009
ᐗ	-6.37035
▁ᐐ	-6.3726
ᒪ	-6.37931
ᐅ	-6.37991
▁ᐋᔕ	-6.39818
▁ᐁᑕ	-6.41108
▁ᐯᔑᒃ	-6.41213
ᒡ᙮	-6.42235
ᓀ	-6.43795
ᑑ	-6.43919
ᐲ	-6.44687
▁ᒦᓇᐙ	-6.44988
ᑮ	-6.45028
▁ᐌᑎ	-6.4575
▁ᑳᑮᐃᔑ	-6.45876
▁ᐊᑮᕽ	-6.45973
▁ᐊ	-6.46483
▁ᐁᐐ	-6.47161
▁ᐃᐌ	-6.4851
▁ᐃᓂᓂ	-6.49384
ᔭᓐ	-6.50089
ᔅ	-6.50398
▁ᓂᑮ	-6.50723
ᐋ	-6.53507
ᓄ	-6.54799
▁ᑭᒋ	-6.58939
▁ᐃᒫ	-6.61125
ᓂᒡ᙮	-6.61922
ᑾ	-6.63424
▁ᐅᒋ	-6.63472
▁ᐃᐃᐌ	-6.64157
▁ᑳᐅᒋ	-6.6459
▁ᑳᔑ	-6.64798
▁ᑫᑯ	-6.65413
ᔮᓐ	-6.6558
ᐹ	-6.67861
ᐙᒡ᙮	-6.69366
▁ᐃᓇ	-6.6946
ᐊᔮ	-6.69731
▁ᐊᐌ	-6.71321
ᐗᓐ	-6.71555
ᒀ	-6.72138
▁ᑌᐺ	-6.72769
▁ᐁᑳ	-6.72908
ᓱ	-6.73442
▁ᐅᔕ	-6.73626
▁ᒋᓴᓲᓐ	-6.77754
▁ᑭᑮ	-6.77921
ᓭ	-6.78379
▁ᓅᑯᒻ	-6.78467
▁ᐄᑐᒃ	-6.78467
▁ᐯᔑᑾᓐ	-6.79436
ᐯ	-6.80024
ᔮ	-6.81037
▁ᑯᑕᒃ	-6.81101
ᔭ	-6.82011
▁ᔑᑾ	-6.83407
ᓵ	-6.83667
▁ᐋᐱᒋ	-6.83736
▁ᑯ	-6.83901
▁ᑮᓐ	-6.8537
▁ᐅᐌ	-6.86676
ᑴ	-6.86974
ᓴ	-6.87199
ᐙᓐ	-6.90991
ᒦ	-6.91254
▁ᐅᐅᒫ	-6.93617
▁ᑳᑎᐯᒋᑫᒡ	-6.93689
ᓈᓐ	-6.95871
▁ᐊᐌᓀ	-6.96102
▁ᓂᑲ	-6.96791
▁ᐱᑯ	-6.97194
▁ᐐᑫ	-6.98193
▁ᑮᐃᔑ	-6.99365
ᓅ	-7.00889
ᐎᓂᕽ	-7.01796
ᔮᕽ	-7.02679
▁ᒫᐗᒡ	-7.02683
ᑰ	-7.03035
▁ᒥᓯᐌ	-7.04118
ᔭᕽ	-7.05109
ᐐ	-7.05598
ᔕ	-7.05811
▁ᐊᐊᐌ	-7.06298
ᐸᓐ	-7.07941
▁ᑳᑮᐅᒋ	-7.08004
ᒥᓐ	-7.08286
▁ᐁᑮᐃᔑ	-7.08509
▁ᐱ	-7.09055
ᒧ	-7.09407
ᑣ	-7.09503
▁ᐅᐅᐌ	-7.10241
ᓯᒃ	-7.10317
▁ᑫᐅᒋ	-7.10895
▁ᒋᐅᒋ	-7.12365
▁ᑕᑲ	-7.13672
ᒋᑫ	-7.13753
▁ᐌᒋ	-7.14018
▁ᑾᔭᒃ	-7.14352
▁ᑳᐐ	-7.14793
▁ᑫᔮᐱ	-7.1574
▁ᓇᐗ	-7.16221
ᑐ	-7.18054
▁ᒨᔕᒃ	-7.19053
▁ᒣᒀ	-7.19267
▁ᑫᔑ	-7.21562
ᒌ	-7.21761
▁ᑮᐃᑭᑐ᙮	-7.21864
▁ᐗᐊ	-7.22083
ᓇᓐ	-7.22438
ᐗᐞ	-7.22715
▁ᐅᑮᐃᓈᐞ᙮	-7.23035
ᒃ᙮	-7.23154
▁ᑮᐃᑭᑐ	-7.2442
▁ᐊᐎᔭᒃ	-7.24493
▁ᐃᓇᔥᑫ	-7.25004
▁ᓃᐱᐗᐞ	-7.26112
▁ᐆᑌᓈᕽ	-7.26195
▁ᐁᐃᔑ	-7.27121
▁ᐌᑯᓀᓐ	-7.27308
ᐙᐞ	-7.27493
▁ᑮᐊᓂ	-7.27556
ᔥᑭ	-7.28488
▁ᐊᐗᔑᒣ	-7.30246
▁ᑭᔐᒪᓂᑑᓐ᙮	-7.30475
ᐱᒫᑎᓯ	-7.30775
ᓃ	-7.30825
▁ᐅᓄ	-7.31185
▁ᐊᔮ	-7.33098
▁ᐅᑮᐃᓈᓐ᙮	-7.34714
▁ᐋᓂᑕ	-7.35215
ᓯᒀ	-7.35591
ᔦᒃ᙮	-7.37148
▁ᐊᐎᔭᐞ	-7.37257
▁ᓇ	-7.37305
▁ᒪᔮ	-7.38146
▁ᐅᑭᑭᓄᐊᒪᐙᑲᓇᐞ	-7.38625
ᐗᕽ	-7.38769
ᑭᒋ	-7.3896
▁ᐯᒫᑎᓯᐙᒡ	-7.39322
ᓰᓐ	-7.39887
ᔥᑲ	-7.41383
ᒥᓐᒡ	-7.41713
ᐳ	-7.41776
ᐎᓂᓂ	-7.41883
▁ᐃᔑᒋᑫ	-7.4248
ᒣᒃ	-7.42849
▁ᐊᐎᔭᓐ	-7.43087
ᑭᓐ	-7.43119
▁ᒫ	-7.43783
ᒫᒃ	-7.44442
▁ᐅᑯᓯᓴᓐ	-7.45489
ᑌᐺ	-7.45517
ᐐᒋ	-7.45634
ᑕᐎ	-7.45717
ᐗᒃ᙮	-7.46144
ᐎᓇᓐ	-7.46421
ᓂᒃ	-7.48318
ᐐᒌ	-7.4837
▁ᐁᐊᓂ	-7.484
ᐎᓂ	-7.49325
▁ᐃᑴ	-7.49468
▁ᐯᒫᑎᓯᓂᒡ	-7.49497
▁ᐃᑭᑐ	-7.4976
▁ᒥᓂᒃ	-7.4987
▁ᑆᓬ	-7.51788
▁ᐲᓂ	-7.51847
▁ᑳᐃᓈᒡ	-7.51979
▁ᑭᒋᑮᔑᑯᕽ	-7.52164
▁ᑭᑖ	-7.5218
ᒨ	-7.5275
▁ᑮᐅᒋ	-7.52812
▁ᐊᒦ	-7.53433
▁ᐸᑳ	-7.54024
▁ᐅᑯ	-7.54497
ᐙᐱ	-7.55158
▁ᒋᐃᔑ	-7.55448
ᔖ	-7.55715
▁ᐅᑕᒑᑾᓐ	-7.55879
▁ᒎᐗᒃ	-7.55879
▁ᑫᑰᓂᓂ	-7.55879
▁ᒋᑮ	-7.55935
▁ᑫᑰᓇᓐ	-7.5728
ᓯᐌᒃ	-7.57289
ᑕᐌ	-7.57302
ᑕᓐ	-7.57575
▁ᐃᓴ	-7.58448
▁ᐃᓇᑫ	-7.59123
ᒪᒋ	-7.59153
ᒪᐎ	-7.6001
ᓐ᙮	-7.60854
ᑫᒃ	-7.6086
▁ᐃᓂᓂᐗᓐ	-7.61026
▁ᐋᑎ	-7.61245
ᐅᒋ	-7.61532
▁ᑳᐱ	-7.6185
▁ᑎᓄ	-7.61909
▁ᐲᑕᕒ	-7.62341
▁ᓂᑕᒻ	-7.6242
ᔒ	-7.6277
ᒣ	-7.63003
ᓈᑯᓯ	-7.63631
ᐌᓂᐗᒃ	-7.63795
▁ᒦᐃ	-7.64331
▁ᒋᓴᓲᓐ᙮	-7.6477
▁ᐋ	-7.65132
ᑎᓄᐎ	-7.65239
▁ᒉᕒᐆᓴᓬᐊᒥᕽ	-7.65358
ᑰᓐ	-7.65523
▁ᑫᐐ	-7.66278
ᓀᒃ	-7.66327
ᓂᑯ	-7.6697
ᐴ	-7.66994
▁ᑫᐃᔑ	-7.67074
ᒧᐙᒡ	-7.67093
▁ᔐ	-7.67604
ᐌᐌᓂ	-7.68512
▁ᐅᑮᐃᔑ	-7.68779
ᑯᒡ	-7.69553
▁ᐅᑖ	-7.70532
ᑕᒪ	-7.71086
ᑭᐸᓐ	-7.71344
ᑳᓱ	-7.72314
▁ᒞᓐ	-7.7249
▁ᑯᒫ	-7.72535
ᓈᐙ	-7.72974
ᐊᓄᑮ	-7.73203
ᑕᒧ	-7.73252
▁ᒎᐗᐞ	-7.73314
ᑴᓐ	-7.73575
;	-7.74146
▁ᐹᓂᒫ	-7.74148
▁ᑳᑮᐱ	-7.74776
▁ᐊᓂ	-7.75
▁ᑳᑎᐯᒋᑫᓂᒡ	-7.75401
ᒥᓄ	-7.75411
▁ᐃᐃᐌᓂ	-7.755
ᕒ	-7.75549
ᓇᐃ	-7.7583
ᑕᑯ	-7.76344
ᐋᒡ	-7.77186
▁ᐅᑎ	-7.77345
ᐎᓐ᙮	-7.77967
ᔮᓐ᙮	-7.78319
ᓇᕽ	-7.78482
▁ᐅᑌᐺᑕᒨᒃ	-7.79377
▁ᒦᓴ	-7.80103
▁ᐐᓇᐙ	-7.80173
ᓅᑕ	-7.80531
▁ᓃ	-7.81287
ᑭᑭ	-7.81368
▁ᒪᒋ	-7.81551
▁ᐃᔖ	-7.81583
▁ᐅᓇᔓᐌᐎᓐ	-7.81851
ᑕᒪᐙ	-7.83558
ᐌᒃ	-7.83824
ᑕᕽ	-7.8395
ᐗᓂ	-7.84106
▁ᑫᑮᓇᐙ	-7.84706
ᒪᓐ	-7.85072
▁ᑳᑕᔑ	-7.85467
ᑦ	-7.85622
▁ᐯ	-7.85748
ᓰᒻ	-7.8592
▁ᑮᐊᔮ	-7.85995
▁ᐅᑮᐃᓈᐞ	-7.8651
▁ᐅᑮᐃᓈᓐ	-7.86633
▁ᐊᑭ	-7.86652
▁ᓂᑖ	-7.86762
▁ᑲᑴ	-7.86886
▁ᐅᑕ	-7.87042
ᓯᓂᒃ	-7.87487
▁ᑮᐌ	-7.87583
ᐃᔑ	-7.88068
▁ᑭᑎ	-7.88195
ᒫᒡ	-7.88544
▁ᐃᓂᓂᐗᒃ	-7.887
ᑲᓐ	-7.88842
▁ᐅᑮᐃᑰᓐ᙮	-7.89124
▁ᑕᔑ	-7.89425
ᐸᒥ	-7.90742
ᑖᓐ	-7.90952
ᓰ᙮	-7.91374
▁ᓃᓇᐎᓐᑦ	-7.91422
▁ᐁᑮᐃᓈᒡ	-7.91424
▁ᑲ	-7.9148
ᑕᔑ	-7.91564
▁ᑳᐃ	-7.91743
▁ᐅᑭᒋ	-7.92147
ᑕᒧᐙᒡ	-7.92184
ᑯᐙ	-7.92185
▁ᐸ	-7.92412
▁ᐋᓇ	-7.93022
ᓍ	-7.93415
ᑾᒃ	-7.93859
▁ᑳᐅ	-7.94013
ᑕᒥᓂᒡ	-7.94237
▁ᓈ	-7.94345
▁ᒋᐱ	-7.94642
ᑭᓯ	-7.94656
▁ᐁᑮᐊᓂ	-7.94753
ᕽ᙮	-7.94771
ᑲᓂᐎ	-7.94997
▁ᐯᐸᑳ	-7.9551
▁ᐋᓇᐐ	-7.95511
▁ᐁᐱ	-7.95844
▁ᑮᓇᐎᓐᑦ	-7.96512
▁ᓂᑌᑌ	-7.96516
ᐙᒃ	-7.96528
▁ᐃᓈ	-7.9693
▁ᑳᐊᔮᐙᒡ	-7.97141
ᔫ	-7.97562
▁ᑭᒋᐅᑭᒫ	-7.97943
ᑲᑴ	-7.98047
ᐃᓇ	-7.98202
▁ᑭᑎᔑ	-7.9892
ᓀᒀ	-7.99236
ᒫᓐ	-7.9942
ᒫᒋ	-7.99445
▁ᐱᒫᑎᓯ	-8.00052
ᓈᐱ	-8.00294
▁ᑖ	-8.00529
ᓃᔑᓐ	-8.00555
ᓂᓂ	-8.00745
▁ᐅᑑ	-8.0077
ᔦ	-8.01042
ᐊᔮᒡ	-8.01412
ᓂᓂᒻ	-8.01419
ᑑᒡ	-8.01673
▁ᑮᐱ	-8.01865
ᓰᐗᒃ	-8.03117
▁ᒋᑆ	-8.0332
▁ᑳᑭᒋ	-8.03489
▁ᐃᓀᑖᑯᓯ	-8.03537
ᒥᑯᒡ	-8.0359
ᑲᓇᐌ	-8.0396
▁ᐅᑕᒑᑯᓂ	-8.04104
▁ᐁᑮᐅᒋ	-8.04116
ᐐᑎᑫ	-8.04301
ᑫᓂ	-8.05176
▁ᔖᑰ	-8.05455
ᐆ	-8.05496
▁ᒣ	-8.0568
ᓂᓂᒃ	-8.05931
▁ᒪ	-8.06241
ᔭᓐ᙮	-8.06597
ᐅᑎᓯ	-8.06885
ᑎᐱ	-8.06904
ᓂᕽ	-8.06932
▁ᒨᓯᔅ	-8.07543
ᒥᓂᒡ	-8.07571
ᓂᑖ	-8.08141
ᓭᒃ	-8.08801
▁ᐱᒫᑎᓯᐎᓐ	-8.09528
ᒻ᙮	-8.09635
▁ᐙ	-8.09809
ᓵᑭᐃ	-8.0991
▁ᒥᓍᒋᒧᐎᓐ	-8.10539
▁ᒋᐅ	-8.10802
ᐤ	-8.10905
ᑮᐅᑌᑌ	-8.10979
▁ᑌᐯᒋᑫᔭᓐ	-8.11104
▁ᑭᒋᐊᓇᒥᐁᐎᑲᒥᑯᕽ	-8.11104
ᒫᒪᐎ	-8.11124
ᓂᓯᑐᑕ	-8.11198
ᑰᔦᒃ	-8.12091
▁ᑳᐊ	-8.12118
ᑲᔥᑭᑑ	-8.12858
ᓂᔑ	-8.13798
ᒪᔥᑲᐎᓰ	-8.1391
ᓯᓅᓐ	-8.14214
ᑰᐞ	-8.14582
ᒪᔑ	-8.15301
ᑯᕽ	-8.15311
ᒦᑭᐌ	-8.15676
ᓉ	-8.16109
ᐃᐌ	-8.16218
▁ᐃᓂᐌᓂᐗᐞ	-8.1622
▁ᐌ	-8.16421
ᑭᒫ	-8.16788
ᓇᐌ	-8.16821
▁ᑭᐐ	-8.16961
▁ᐊᑮᕽ᙮	-8.1698
ᓈᒡ	-8.16987
ᒪᕽ	-8.17044
▁ᐁᑮᐱ	-8.17145
ᑾᔭᑯ	-8.17289
▁ᐃᓈᑯᓂᑫᐎᓐ	-8.17341
▁ᐅᑌᐺᑕᒨᐞ	-8.17403
ᐃᔖ	-8.17503
▁ᐁᐅᒋ	-8.17848
ᒥᓉ	-8.18466
▁ᑫᐐᓇᐙ	-8.18633
ᓃᕽ	-8.18685
ᓰᒥᓐ	-8.19024
ᓴᓐ	-8.19083
▁ᑮᐃᔖ	-8.19168
▁ᐊᔮᓂᒡ	-8.19388
ᑯᐸᓀᓐ	-8.19495
ᑭᑭᓄᐊᒫᑫ	-8.19742
▁ᐹ	-8.20111
ᒥᒋ	-8.20225
ᐲᐎ	-8.20562
▁ᐁᐃ	-8.20695
▁ᔔᓂᔮ	-8.20768
▁ᑮᑭᒋ	-8.21039
ᑮᑭᑐ	-8.21046
ᔓ	-8.2111
▁ᐯᔓ	-8.21314
ᐃᑰ	-8.22302
ᐃᑯᒡ	-8.22441
▁ᐁᑕᔑ	-8.22582
▁ᐁᒐᓬ	-8.22614
ᐯᔑᑯ	-8.22619
▁ᑫᓃᓐ	-8.22625
▁ᐄᓴᓐ	-8.22632
▁ᑫᑮ	-8.22733
ᒦᓂᑰ	-8.22745
▁ᑳᐃᔥᒀ	-8.22928
ᐊᓇᒥᐋ	-8.23011
▁ᐁᔮ	-8.23023
ᑑᓐ	-8.23197
ᒪᑲᒃ	-8.23561
ᓯᐙᓐ	-8.23654
ᑳᑌ	-8.2393
ᑲᓅᓈ	-8.2398
▁ᐸᑮ	-8.24238
▁ᑕᑯ	-8.24286
▁ᐅᑮᐃᑰᐞ᙮	-8.24809
▁ᐅᒫ	-8.25032
▁ᐱᓵᓐ	-8.25371
ᒋᑳᑌᒃ	-8.25497
ᑳᐸᐎ	-8.25581
ᓯᕽ	-8.26016
ᑮᐌ	-8.26128
ᓱᒡ	-8.26819
▁3	-8.2688
ᔐ	-8.26903
ᑕᒫᓐ	-8.26945
ᒥᑰ	-8.27219
▁ᑳᑮᐃ	-8.27342
ᒪᒃ	-8.27428
ᑕᒣᒃ	-8.27533
ᓂᑎᓱ	-8.27588
ᑫᓐ	-8.27733
ᒫᒌ	-8.28109
▁ᒥᓄ	-8.28205
▁2	-8.28384
▁ᑳᐃᑭᑐᒡ	-8.28548
ᐊᑕᐌᑕ	-8.28574
▁ᐁᐅ	-8.28697
ᒥᓂ	-8.28903
▁ᒫᒑ	-8.29029
▁ᐆᑌᓇ	-8.29447
▁ᑭᒋᒪᓯᓇᐃᑲᓐ	-8.29651
▁ᐅᑖᓈᕽ	-8.29664
ᐊᔮᔦᒃ	-8.29757
ᓂᑭᓐ	-8.29916
ᐸᐹ	-8.30025
ᓂᒥᓐᒡ	-8.30233
▁ᐃᑴᐗᓐ	-8.30236
ᐎᓂᐙᓐ	-8.30416
ᑮᐌᐱᒫᑎᓯ	-8.30889
▁ᑭᑭᓄᐊᒪᐙᑲᓇᒃ	-8.31104
▁ᐅᑮᐅᒋ	-8.31112
▁ᔔᓂᔮᓐ	-8.31126
ᐸᑭᑎᓈ	-8.31359
ᐊᑕ	-8.31394
ᓅᒋᑯ	-8.31504
▁ᓇᑫ	-8.31596
▁ᐅᑭᑭᓄᐊᒫᑫ	-8.31597
▁ᒫᒌ	-8.31619
ᐸᑕ	-8.31677
ᓈᑾᓂᓂᒃ	-8.318
ᒧᒃ	-8.32147
▁ᒋᐃᔑᒋᑫ	-8.3236
▁ᐅᒌ	-8.32422
▁ᐁᑭᒋ	-8.32709
ᓇᑰᒃ	-8.32839
ᐐᒌᐎᑯᒡ	-8.32847
ᐱᒧᓭ	-8.33177
ᑰᒃ	-8.33262
ᐃᑯ	-8.33366
ᑳᕽ	-8.33446
ᐗᒡ	-8.33787
ᐲᐃ	-8.33913
▁ᒞᓇᓐ	-8.34101
▁ᐃᔑᐲᐃᑳᑌ	-8.34101
▁ᒦᒋᒻ	-8.34156
ᒫᔑ	-8.34157
ᓭᓂᒃ	-8.34608
ᓃᑳᓂ	-8.35221
ᑰᒻ	-8.35328
▁ᑫᑳ	-8.35605
ᑌᒃ	-8.35808
ᐐᒌᐙ	-8.36095
▁ᑮᐃᑭᑐᐗᒃ᙮	-8.36269
ᐊᔨ	-8.36358
ᐞ᙮	-8.3652
▁ᐸᑭᑎᓈ	-8.36921
ᐃᑎᓱ	-8.37035
ᐎᒡ	-8.37345
ᒋᑳᑌᓂᒃ	-8.37487
ᑲᓂᓂ	-8.37824
▁ᐃᓂᓂᐗᐞ	-8.38015
ᐎᓂᕽ᙮	-8.38346
▁ᑫᒋᓈᒡ	-8.38791
ᓂᓂᑭᓐ	-8.38846
▁ᐲ	-8.38873
ᓅᓐ	-8.39248
ᒥᓂᑴ	-8.39425
▁ᒋᐊ	-8.39428
ᑲᓇᓐ	-8.3977
▁ᐐᒋ	-8.40002
ᑑᐙᒡ	-8.40065
ᓈᑾᒃ	-8.40092
ᒦᓈ	-8.40093
▁ᑕᐃᔑ	-8.40158
▁ᑮᔑᑲᓂᓂᒃ	-8.4022
▁ᐅᑎᔑ	-8.4066
ᔑᓐ	-8.409
▁ᐋᓃ	-8.41059
ᑕᒪᐙᒡ	-8.41074
ᒨᔥᑭᓀ	-8.41249
ᒥᓴᐌ	-8.41301
ᑖᓈᐙ	-8.41412
ᒦᓈᒡ	-8.41536
▁ᑳᑭᑭᓄᐊᒫᑫ	-8.41648
▁ᑳᐃᑯᒡ	-8.41755
ᐙᐸᒫᒡ	-8.41882
ᓯᓂᓂᒃ	-8.41984
▁ᒥᓴᐙ	-8.42011
ᓈᐙᓐ	-8.42162
▁ᐁᔑᓈᑾᒃ	-8.42362
▁ᐗ	-8.42522
▁ᐙᐸ	-8.42759
ᕒᐊ	-8.42867
ᐅᓇ	-8.43583
▁ᑳᓂᑖ	-8.43703
ᑌᓂᒃ	-8.43845
ᑫᒡ	-8.43975
ᐐᑕᒫᑫ	-8.44048
▁ᓇᐃ	-8.44278
▁ᑭᑕ	-8.44283
▁ᐁᐲᒋ	-8.44315
ᑕᐙ	-8.44334
ᓅᑌᓭ	-8.44569
ᔖᑰᒋ	-8.45055
ᓐᒡ	-8.45305
▁ᐃᔥᐱᒥᕽ	-8.45357
▁ᓵᐃᒪᓐ	-8.45357
ᓈᓂᐗᕽ	-8.45373
▁ᑮᔑᒃ	-8.45441
ᔮᕽ᙮	-8.45578
▁ᓂᑎᔑ	-8.4563
ᓬᐃ	-8.45643
ᓇᐎ	-8.45697
ᐎᓂᐙ	-8.45706
ᑯᓈᓐ	-8.45763
ᓯᓄᒃ	-8.45804
▁ᑭᔐᒪᓂᑑ᙮	-8.46129
▁ᑭᑑ	-8.46492
▁ᒋᐐ	-8.46521
ᔭᐄ	-8.46725
ᐗᓐ᙮	-8.46995
ᑲᒀᑕᑭᐃ	-8.47023
▁ᐁᐸᕒᐊᐋᒻ	-8.47074
▁ᐋᓂᓐᑦ	-8.47074
▁ᒥᑖᔂᒃ	-8.47074
ᓂᓐᒡ	-8.47733
▁ᑳᑕᔑᔦᒃ	-8.48027
▁ᓂᐐ	-8.48034
ᐁ	-8.48072
ᔦᑭᐸᓐ	-8.48384
ᐊᔮᓂᒃ	-8.48401
ᑎᒃ	-8.48457
▁ᐃᓂᐌᓂᐗᓐ	-8.48821
ᐋᐙᒡ	-8.49236
ᓯᒡ	-8.49346
▁ᐅᔥᑭ	-8.4939
▁ᐃᔥᒀᒡ	-8.49545
▁ᐅᑮᐃᑰᓐ	-8.49587
ᐃᓀᑕ	-8.49743
▁ᑳᐊᓂ	-8.49971
ᑎᐯᓂᒥᑯ	-8.50335
ᐙᐸᓐ	-8.50386
ᑑᑕᕽ	-8.50453
▁ᐅᑕᓄᑮ	-8.50599
▁ᒥᒋ	-8.51036
▁ᐅᓵ	-8.51651
ᐃᓀᑖᑯᓯ	-8.51698
ᓂᑖᐎᑭ	-8.5186
ᐊᔮᐙᒡ	-8.52025
ᑉ	-8.52406
▁ᒣᐎᔕ	-8.52409
▁ᒫᐐᓐ	-8.52412
ᒦᓂᑰᐎᓯ	-8.52416
ᒧᐎᓐ	-8.52419
▁ᐅᑮᐱ	-8.52442
▁ᐱᓵᓂ	-8.52837
ᑎᐙᒡ	-8.52903
▁ᑎᐱᓇᐌ	-8.54234
ᐙᐸᒫ	-8.54242
ᒋᑫᒡ	-8.54265
ᑲᒀᑕᑭᑑ	-8.55297
ᐱᒫᑎᓯᐙᒡ	-8.5562
ᑰᔭᓐ	-8.55651
ᒪᑲᓂᓂᒃ	-8.55753
ᓈᓂᒃ	-8.55827
ᓂᐳᒡ	-8.56025
ᐃᑯᐙᒡ	-8.56058
ᑏ	-8.56097
ᓲ	-8.56103
ᔔ	-8.56126
▁ᒪᒋᐊᒑᑾᐞ	-8.5613
ᐗᔦᔑ	-8.56132
▁ᑳᒎᐎᐎᓯᒀ	-8.56168
▁ᐯᕒᐊᓰᒃ	-8.5637
▁ᐁᑮᐃᑭᑐᒡ	-8.5641
▁ᐁᓂ	-8.56601
ᐴᓀ	-8.56633
ᓂᔕᐅ	-8.57075
ᑲᐎ	-8.57339
▁ᐅᐅᐌᓂ	-8.57579
▁ᐁᑕᓱ	-8.57592
ᐙᐸᑕᐃ	-8.57747
▁ᐁᐊ	-8.57826
ᒋᑳᑌ	-8.57846
▁ᓂᑎ	-8.58012
▁ᐅᔑ	-8.58025
▁ᐅᑯᓯᓯ	-8.58099
ᑎᐯᒋᑫ	-8.58207
ᓀᑕ	-8.58307
▁ᓂᐱ	-8.58411
ᑖᒻ	-8.58587
ᐊᒀ	-8.59151
▁ᒥ	-8.59238
ᑮᔗ	-8.59606
ᓯᓂᓂ	-8.59846
▁ᐅᒋ᙮	-8.59849
▁ᐹᐃᓬᐊᑦ	-8.59995
▁ᐋᐱᑎᕽ	-8.59995
▁ᑭᐐᑕᒪᐎᓂᓂᒻ	-8.60125
▁ᑌᐺᐎᓐ	-8.60231
▁ᐐᐸ	-8.60336
ᑯᓂᒡ	-8.60489
ᐐᒌᐙᒡ	-8.60648
ᔭᕽ᙮	-8.60674
ᐙᐙᒡ	-8.6079
ᑭᑖ	-8.60991
▁ᒋᒥᓄ	-8.61023
▁ᑭᑑᒋ	-8.61047
▁ᐃᑴᐗᒃ	-8.61277
ᐊᐱ	-8.61541
▁ᐱᔑᔑᒃ	-8.61985
▁ᐅᓄᐌᓂᐗᓐ	-8.61985
▁ᐲᑎᑫ	-8.62276
ᓵᑭᐋ	-8.62573
▁ᑕᐅᒋ	-8.62664
▁ᓅ	-8.62972
ᐗᒀ	-8.63039
ᓰᓈᐙ	-8.63161
ᒪᒋᑑᑕ	-8.63624
ᒥᓄᐊᔮ	-8.63756
▁ᐊᐙᒡ	-8.63799
▁ᐐᓯᓂ	-8.63807
ᒥᒡ	-8.63809
▁ᐅᒫᒫᓐ	-8.64076
ᐱᒥᓂᔕᐅ	-8.64221
▁ᓃᔣᓱ	-8.64368
ᑑᑕᒧᐙᒡ	-8.64665
▁ᑳᐊᐲᒋ	-8.6478
▁ᐃᔑᓭᒃ	-8.64858
ᓬ	-8.65016
▁ᐌᑯᓀ	-8.65129
ᓈᓂᕽ	-8.65602
ᐐᑕᒪᐎᓇᑰᒃ	-8.6583
ᑭᑫᑖᓐ	-8.65859
ᓂᓇᑰᒃ	-8.65874
ᐃᑣ	-8.66
ᒬ	-8.66088
▁ᒫᑭᔖ	-8.66089
▁ᒣᕒᐃ	-8.66107
▁7	-8.66133
ᐱᓈ	-8.66174
▁ᒋᓂ	-8.66274
ᐅᑖᐱᓂ	-8.66357
ᓂᐳᓂᒡ	-8.66468
ᐴᓂ	-8.66473
ᓰᐞ	-8.66522
▁ᐁᑮᐃᑯᒡ	-8.67153
ᓅᓂ	-8.67157
ᑎᐸᓐ	-8.67311
▁ᑕᓱ	-8.67861
ᑎᐯᓂᒥ	-8.67912
ᒋᑲᓂᐎ	-8.68022
ᐎᓂᐙᕽ	-8.68026
ᔂ	-8.68169
ᐅᑖᐱᓈ	-8.68193
▁ᓃᒋ	-8.68199
ᒉ	-8.68205
ᓇᒃ	-8.68206
▁ᑆᓬᐊᓐ	-8.68212
ᑲᑭᑐ	-8.68259
ᑖᑾᓐ	-8.68802
▁ᐁᑮᐊᐎ	-8.69018
ᓇᒀ	-8.69117
ᐃᑯᐙ	-8.69243
▁ᐅᑕᔮ	-8.69596
ᐸᓐ᙮	-8.69769
ᐙᐸᑕᒧᐙᒡ	-8.69827
ᒫᒥᑲᐎ	-8.7042
ᔑᓈᒻ	-8.70423
▁ᑭᑮᐃᔑ	-8.70628
ᒋᑫᐙᒡ	-8.70644
ᑭᑑ	-8.70675
ᐸᑭᑎᓂᑫ	-8.70799
ᐃᓀᑕᕽ	-8.70803
ᓈᓯᑲ	-8.70891
ᓈᐙᒡ	-8.71052
ᑭᑭᔥᑳ	-8.71125
ᐃᕽ	-8.71412
ᑑᑕᐙ	-8.71535
▁ᐆᑌᓈᕽ᙮	-8.71949
ᑎᐗᒃ	-8.72191
ᑲᓇ	-8.72478
▁ᐌᔫᓯᒥᓐᒡ	-8.72577
▁ᒪᒋᐊᒑᑾᓐ	-8.72577
▁ᔑᒫᑲᓂᔕᒃ	-8.72577
▁ᓂᐳᐎᓐ	-8.72582
▁ᑲᓇᑫ	-8.72583
ᐱᒫᑎᓯᓂᒡ	-8.72594
ᒪᑗ	-8.72606
ᓈᑯᓯᒡ	-8.7269
▁ᐙᓴ	-8.72817
▁ᐊᐌᓀᓇ	-8.72881
ᓵᒥ	-8.72884
ᑲᒥᒃ	-8.72959
ᒥᓄᓭ	-8.72961
▁ᐊᐱ	-8.73288
▁ᐸᑭᑎᓂ	-8.73306
▁ᒦᐃᐌ	-8.73484
ᑭᑫᑕᒧ	-8.73596
ᑖᑾᒃ	-8.73741
ᓂᑳᑌ	-8.73907
▁ᑫᒫ	-8.74269
ᑾᔭᒀᑎᓯ	-8.74788
ᑸ	-8.74806
▁ᐅᑎᑭᑐᐎᓐ	-8.74837
▁ᐱᒌᓇᒃ	-8.74837
ᐃᓇᓄᑮ	-8.74848
▁ᐊᓈᒥ	-8.7485
ᑎᕽ	-8.74964
▁ᐃᑭᑐᒡ	-8.75004
ᐌᓅᑎᓯ	-8.75503
▁ᑮᐃᑭᑐᐗᒃ	-8.75553
▁ᒋᑕᔑ	-8.75705
ᐗᐞ᙮	-8.75749
▁ᒋᐐᒋ	-8.75973
ᒋᑫᓂᒡ	-8.76051
ᔭᔅ	-8.76267
▁ᑫᓂ	-8.76397
ᑭᓐ᙮	-8.7653
ᑎᐹᒋᒧ	-8.76751
ᒫᐗᒋ	-8.76805
ᐗᓂᓂ	-8.76808
ᐗᓂᓂᒃ	-8.76934
ᑯᐸᓐ	-8.77053
ᓂᔑᐗᓈᑎᓯ	-8.77149
▁ᐅᑌᑌᓐ	-8.77149
ᑲᓂᕽ	-8.77199
ᔭᔮ	-8.77304
▁ᓂᑑᒋ	-8.77415
ᐐᑕᒪᐎ	-8.77603
▁ᑳᐐᐃᔑ	-8.77638
ᓰᒻ᙮	-8.77695
▁ᐁᑮᐅ	-8.78075
▁ᐊᔮᐙᒡ	-8.78319
▁ᐯᒫᑎᓯᓂᒡ᙮	-8.78427
▁ᑌ	-8.7857
ᑾᓐ	-8.78931
ᓰᐗᒃ᙮	-8.78944
ᑌᐺᑕᐙ	-8.78964
ᑕᒫᑰ	-8.79046
ᒋᑲᓂᐎᒡ	-8.79262
▁ᑮᔑᑲᒃ	-8.79424
ᔩ	-8.79512
▁ᐸᑴᔑᑲᓇᓐ	-8.79516
▁ᐗᐐᑫ	-8.79516
▁ᓂᐳᐎᓂᕽ	-8.79519
▁ᐅᑎᐯᒋᑫᐎᓐ	-8.7952
▁ᐊᐸᓀ	-8.79521
ᓇᓈᑯᒫ	-8.79529
▁ᑳᐊᔮᒡ	-8.79544
▁ᒋᐊᓂ	-8.79563
ᒫᐞ	-8.79596
▁ᐁᐃᑭᑐᒡ	-8.7972
ᑕᒫᕽ	-8.79796
ᓈᓂᐗᓂᓂᒃ	-8.79811
ᑕᓄ	-8.7982
ᓈᓈᑲᑕᐌᑕ	-8.79895
ᓯᐗᒃ	-8.7991
ᐋᑯᓯ	-8.80077
ᓅᒋ	-8.80091
▁ᐐᒌᐎ	-8.80167
ᐗᑭ	-8.80301
ᐃᔑᐌᐸᒃ	-8.80309
▁ᑭᔐᒪᓂᑑᕽ	-8.80749
ᑰᔮᓐ	-8.81177
▁ᒪᒋᑑᑕᒧᐎᓐ	-8.81411
ᐊᐲ	-8.81429
ᑖᐱᓇ	-8.8173
▁ᓂᑮᐃᔑ	-8.81791
ᒥᓄᒋᑫ	-8.81803
▁ᐊᓄᑮᐋᑲᓐ	-8.81941
▁ᐁᕒᐊᑦ	-8.81941
▁ᐊᑮᓂ	-8.81954
▁ᑳᑎᐯᓂᒥᓇᕽ	-8.82028
ᐅᓈ	-8.82073
ᐗᑭᒡ	-8.82129
▁ᑭᑎᑳᓀᓴᓐ	-8.82198
ᐲᔖ	-8.82278
▁ᑮᔑ	-8.82282
ᓇᑴ	-8.82314
▁ᑳᐅᒌ	-8.82634
ᑎᐎᓐ	-8.82857
ᒥᓐ᙮	-8.82927
ᑎᔦᒃ	-8.83081
ᑲᔥᑭᑑᓰᓐ	-8.83287
ᓯᐗᕽ	-8.8329
▁ᑭᐱ	-8.83466
ᓇᓐ᙮	-8.8363
▁ᐃᔥᑯᑌ	-8.83788
▁ᓂᑕ	-8.83811
ᑕᒫᓱ	-8.84349
▁ᐸᑴᔑᑲᓐ	-8.84425
▁ᒎᓴᑉ	-8.84425
▁ᐁᒐᓬᐊᒃ	-8.84428
▁ᐅᐱᒫᑎᓯᐎᓐ	-8.84432
▁ᐊᒋᓇ	-8.84434
▁ᒎᑕᔅ	-8.84489
ᑕᒪᕽ	-8.84736
▁ᑫᐃᔑᒋᑫ	-8.84804
▁ᑮᐊ	-8.85024
ᐙᐸᑕᕽ	-8.85099
ᑖᒥᓐ	-8.85106
ᐙᐸᑕᒣᒃ	-8.85174
ᑕᒧᒃ	-8.85176
▁ᔔᒥᓈᐳ	-8.85236
▁ᑳᐅᓂᔑᔑ	-8.85489
ᐃᓇᑭ	-8.8563
ᐙᓐ᙮	-8.85885
▁ᐃᓀᑖᑯᓯᐎᓐ	-8.86007
▁ᓰ	-8.86191
ᐋᐞ	-8.86248
▁ᐁᑭ	-8.86324
▁ᑌᐱ	-8.8642
ᐊᐎ	-8.86527
ᒥᒃ	-8.86555
▁ᓂᑑ	-8.86808
▁ᐲᑕᕒᐆᓐ	-8.86974
▁ᐅᓃᑳᓂᓰ	-8.86983
▁ᐅᐱᒫᑎᓰᒪᐞ	-8.87016
ᐙᐸᑖᓐ	-8.87091
▁ᑫᒋ	-8.87098
ᑑᑕᒥᓂᒡ	-8.871
▁ᐐᐗᓐ	-8.87142
ᐌᐱᓈ	-8.87288
▁ᑭᒋᐊᓇᒥᐁᐎᑭᒫᒃ	-8.87395
▁ᓇᑴᑕ	-8.874
ᐲᑎᑫ	-8.87521
▁ᐅᑮᐙᐸᒫ	-8.87576
▁ᑲᔥᑭᑑ	-8.88063
▁ᑲᓅ	-8.88223
ᑯᐙᓐ	-8.88361
ᓇᓈ	-8.88369
ᔕᔒ	-8.88371
▁ᐊᓄᑮ	-8.88372
▁ᑳᐃᔑᒋᑫ	-8.88458
▁ᐱᒫᒋᐃᑰᐎ	-8.88593
ᐃᓀᓂᒥ	-8.88663
ᓯᐗᓐ	-8.88791
ᑕᑯᔑᕽ	-8.89025
ᒪᓂ	-8.89161
ᓂᑯᒡ	-8.89378
ᒥᓍᐸ	-8.89413
ᐊᔮᔮᓐ	-8.8944
ᒣᔥᑾᒡ	-8.89588
▁ᑭᓉᔥ	-8.8959
ᒪᒥᔑ	-8.89623
▁ᑳᒎᐎᐎᓯᓂᒃ	-8.89632
ᑭᔒᐌ	-8.8967
ᔕᔒᐱᑕ	-8.89759
ᓬᐊ	-8.89797
▁ᑳᑎᐯᑕᕽ	-8.90071
ᐊᑖᐌ	-8.9009
▁ᑮᐃᔥᒀ	-8.90312
ᐎᓂᓃᕽ	-8.90398
ᓇᑲᑕ	-8.90399
ᐸᑫ	-8.9063
▁ᑕᐱ	-8.90638
ᓇᕽ᙮	-8.90817
▁ᓂᑕᔮ	-8.90928
▁ᐊᓇᒥᐁ	-8.91049
▁ᐃᑯᒋ	-8.91205
ᓈᑾᓂᓂ	-8.91241
▁ᒋᐃᔖ	-8.91392
▁ᐁᐋ	-8.91466
ᐅᑭᒫ	-8.91549
ᐙᕽ	-8.91598
▁ᓂᑖᐎᑭ	-8.91614
ᑲᓅᓈᒡ	-8.92209
▁ᒋᑲᑴ	-8.92222
ᑲᑮᑖᐌ	-8.92229
▁ᒎᑏᔭ	-8.92272
▁ᒋᑕᑯ	-8.92503
▁ᐃᔑᐊᔮ	-8.92606
▁ᑳᒪᒋ	-8.92644
ᑲᓇᐞ	-8.92685
ᒪᒡ	-8.92741
▁ᑖᑮ	-8.92799
ᒫᐙᒡ	-8.93108
ᐅᒋᒋᓭᒃ	-8.93133
ᓈᓐ᙮	-8.93156
▁ᐁᑮᔑᑲᓂᓂᒃ	-8.93219
ᐃᓐᒡ	-8.93236
ᑳᑌᒃ	-8.93317
ᑕᒫᑯᒡ	-8.9335
ᑖᑯᓯᒡ	-8.93573
ᓅᑕᕽ	-8.93693
ᐃᑭᑐᔮᓐ	-8.94044
ᑕᑯᔑᓐ	-8.94065
ᑭᒋᐅᑭᒫᐎ	-8.94254
ᓅᑌ	-8.94304
ᐌᒀ	-8.94376
ᒪᔥᑲᐎ	-8.94574
ᐙᐸᒫᐙᒡ	-8.94641
ᓇᑲᓈ	-8.94648
ᑑᑕᒫᓐ	-8.94807
ᑎᐸᐊᒪᐙ	-8.94811
ᑲᔥᑭᑑᒡ	-8.94901
▁ᐃᓀᑖᑯᓯᒡ	-8.94957
ᒫᐗᒋᐃᑎᐙᒡ	-8.94972
ᒪᑲᑭᓐ	-8.95017
▁ᑭᒋᑲᒦᕽ	-8.95031
▁ᐋᒋᑯ	-8.95045
ᐲᒋ	-8.95142
▁ᑳᐐᒋ	-8.95368
ᑲᑴᒋᒫ	-8.95572
▁ᑲᑴᒋᒥ	-8.96071
▁ᒫᒑᒡ	-8.96314
ᐸᑭᔑ	-8.96391
▁ᒪᒋᐊᔭᐋ	-8.9645
ᒥᓀᒃ	-8.96517
▁ᑲᒀᑕᑭᑑ	-8.96636
ᓄᕽ	-8.96718
▁ᐸᐹ	-8.96814
▁ᐁᐃᔑᒋᑫ	-8.96847
ᑮᔑᑲᒃ	-8.9699
▁ᒥᓂᑴ	-8.96992
ᑲᐌ	-8.97003
ᓈᑯᓯᓂᒡ	-8.9718
ᑭᑭᓄᐊᒪᐙ	-8.97265
▁ᐅᐐ	-8.97376
ᓅᑕᒧᐙᒡ	-8.97403
▁ᐃᔑᐌᐱᓯ	-8.97409
▁ᑫᑮᐃᔑ	-8.97799
▁ᑳᐊᔮᓂᒡ	-8.97827
ᒥᑯᔥᑳᑌᑕ	-8.97864
▁ᐊᓇᒥᐁᐎᑲᒥᑯᕽ	-8.97868
▁ᒎᐎ	-8.97868
▁ᐅᑭᔐᐙᑎᓯᐎᓐ	-8.97869
▁ᐯᔑᑯ	-8.97877
▁ᐅᑎᔑᒋᑫᐎᓂ	-8.97906
▁ᐊᓯᓐ	-8.97926
▁ᐊᐴᔥᑫ	-8.97932
ᑖᑯᒡ	-8.97937
▁ᐅᑯᐌᓂᐗᒃ	-8.98082
ᒫᕽ	-8.98309
ᔭᒥᓐᒡ	-8.98412
ᒣᒀ	-8.98458
▁ᑭᑲᐃᔑ	-8.98506
▁ᐁᔮᓂᒡ	-8.98573
▁ᑫᐃ	-8.9858
ᓯᓂᒃ᙮	-8.98733
▁ᑭᑲᐅᒋ	-8.98758
ᐊᐲᒋ	-8.98808
ᔮᐹᓐ	-8.98892
▁ᑫᑌ	-8.98905
ᓰᒃ	-8.99122
▁ᐄ	-8.9918
▁ᐅᒋᑕ	-8.99256
ᑑᔦᒃ	-8.99466
ᒫᒪᑳᒋ	-8.99621
ᓯᒀ᙮	-8.99634
▁ᐃᔑᓂᔕᐅ	-8.99745
ᓈᕽ	-8.99861
ᓃᔑ	-8.9999
ᑮᔑᑲᓂᓂᒃ	-9.00083
▁ᑎᐯᑖᑯᓯ	-9.00107
ᔨ	-9.00235
ᓯᐙᐙᓐ	-9.00488
ᑌᐺᔦᓂᒫ	-9.00788
▁ᐁᒐᓬᐊᓐ	-9.00793
▁ᐱᓇᒫ	-9.00795
▁ᐙᑳᐃᑲᓂᕽ	-9.00798
▁ᐅᓂᒌ	-9.00809
▁ᑮᔑᑯᕽ	-9.00829
▁ᑌᐱᑦ	-9.00833
▁ᑳᓬᐊᓬᐄᕽ	-9.00916
▁ᑭᑭ	-9.01095
▁ᐊᐤ	-9.01187
ᑰᐎᓐ	-9.01414
ᑫᐙᒡ	-9.01658
ᑕᓇᒥᐋ	-9.01744
ᑕᐙᐙᒡ	-9.01798
ᑲᓅᓈᓐ	-9.02128
▁ᐅᓵᐎ	-9.02333
▁ᐃᔑᓭ	-9.02547
ᓂᒃ᙮	-9.02773
ᑭᑫᑕᒫ	-9.02822
ᑆ	-9.02863
ᐅᒋᒋᓭ	-9.03128
ᓯᐎᓐ	-9.03357
▁ᐲᔖ	-9.03518
ᒨᒃ	-9.03686
▁ᓃᔣ	-9.03701
▁ᓃᒋᐅᑌᐺᑕᒨᒃ	-9.03795
▁ᐁᑮᐃᔖᒡ	-9.03824
ᑎᐱᓇᐌᐎᓯ	-9.03828
ᑑᑕᒣᒃ	-9.03969
ᓂᔥᑳᑎᓯ	-9.04082
ᓈᓯᑲᐙ	-9.04346
ᐃᓈᑎᓯ	-9.04369
ᓅᑕᒣᒃ	-9.04376
ᐌᒡ	-9.04538
▁ᑮᑕᔑ	-9.0457
ᐗᑭᐸᓐ	-9.04643
ᑎᐸᐊ	-9.05042
▁ᐃᔥᒀ	-9.05204
ᒨᔥᑭᓀᔥᑳᑯ	-9.05224
ᓀᐱᒋ	-9.05233
▁ᐁᑲᑴ	-9.05418
▁ᐅᑮᐃᓈᐙᓐ᙮	-9.0556
ᒥᓇ	-9.05699
▁ᐁᑲ	-9.0579
ᓂᐙᓐ	-9.05986
▁ᐯᑭ	-9.06126
ᑖᓇᓐ	-9.06192
▁ᐁᑮᒫᒌ	-9.062
ᒪᑲᓐ	-9.06247
▁ᒋᐲ	-9.06284
ᒦᓂᑯᒡ	-9.06289
ᐱᐅᒌ	-9.06289
ᐊᔮᒃ	-9.06676
ᐱᔑᒀᑎᓯ	-9.06881
▁ᐅᑎᑭᑐᐎᓂᓂ	-9.06896
▁ᐅᑕᓄᑮᐋᑲᓇᐞ	-9.06896
▁ᐊᑾᒌᕽ	-9.06896
▁ᑲᔥᑭᐁᐎᓯᐎᓐ	-9.06896
▁ᒫᓇᒑᓂᔐᔅ	-9.06896
▁ᐐᔭᐎᒫ	-9.06896
▁ᐃᔅᕒᐃᔭᓬᐊᒃ	-9.06897
▁ᑲᓅᓈᐞ	-9.06911
▁ᔂᓬ	-9.06948
ᓂᑳᑌᓂᒃ	-9.07013
ᐃᓀᒃ	-9.0702
▁ᑮᐹᑏᓄᐗ	-9.07067
ᐃᑯᓈᓐ	-9.07068
ᐊᓂᔖ	-9.07118
▁ᐙᐱ	-9.07134
▁ᓂᑮᐙᐸᒫ	-9.07153
ᐐᒋᐃᐌ	-9.07157
▁ᑕᓂ	-9.07232
▁ᐅᑭᒫ	-9.07268
ᓈᓂᓐ	-9.07385
ᐃᔑᑮᔗ	-9.07513
ᓯᐌᒃ᙮	-9.07554
ᑲᓅᑕᒪᐙᒡ	-9.07823
▁ᑭᑭᑫᓂᒥ	-9.07889
▁ᑳᑮᔑᑲᒃ	-9.08061
▁ᓂᓱ	-9.08323
ᐐᓯᓂᐙᒡ	-9.08546
▁ᐃᑭᑐᐎᓐ	-9.08675
ᓂᐗᓐ	-9.08702
ᓂᑳᑌᒃ	-9.09052
▁ᐁᑮᐊ	-9.09351
ᒌᑫ	-9.09784
▁ᑫᐱ	-9.09999
▁ᑫᑮᓇᐎᓐᑦ	-9.10097
▁ᐅᐙᑳᐃᑲᓂᓃᕽ	-9.10097
ᑫᒀᓂᒃ	-9.10099
ᐸᑭᒌ	-9.10158
▁ᑭᑭᑫᑖᒻ	-9.1017
ᐅᒋᒋᓭᓂᒃ	-9.1027
▁ᑮᒫᒌ	-9.10274
ᓂᐸᓐ	-9.10276
ᑭᒨᑎ	-9.10305
ᓭᓂ	-9.10324
ᑯᒡ᙮	-9.10336
ᐸᑭᑎᓂᑎᓱ	-9.10338
ᑲᐊᑖ	-9.10362
▁ᐋᔑᑌᔮᑎᑯᕽ	-9.10386
▁ᑭᑎᑫ	-9.10494
ᑲᑲᓅᓂ	-9.10677
ᑕᒨᒃ	-9.10754
▁ᑳᓂ	-9.10794
▁ᑮᐅ	-9.10881
ᓂᐹ	-9.11032
▁ᐊᑕ	-9.1104
▁ᓂᓯᓐ	-9.11095
▁ᐃᓀᓂᒫ	-9.11141
ᓭᑭᓯ	-9.11167
▁ᓵᑭ	-9.11192
ᑕᓰᓐ	-9.11247
ᐱᒫᒋᐋ	-9.11389
ᐅᑯ	-9.11503
▁ᑳᓵᑭ	-9.11731
ᑎᐯᓂᒫ	-9.11748
▁ᒋᐋ	-9.11855
ᐯᔑᑾ	-9.11911
ᐎᓂᓈᓐ	-9.11974
ᑕᓐ᙮	-9.12014
▁ᒋᑭᒋ	-9.12084
ᒦᓂᓐᒡ	-9.12297
ᓯᑌ	-9.12695
ᑯᓰᐙ	-9.12855
ᓇᑰᒃ᙮	-9.13127
▁ᓃᑳ	-9.13189
▁ᐊᐱᓅᒌᔕᓐ	-9.13403
,000	-9.13403
ᑫᒋᓈᐅ	-9.1341
ᑴᑳᑎᓯ	-9.1342
▁ᑲᕒᐄ	-9.13429
▁ᐃᓀᑖᑾᒃ	-9.13437
▁ᐲᑎᒃ	-9.13461
▁ᑲᓅᓈᒡ	-9.13529
ᑑᓂᒡ	-9.13565
▁ᓂᑮᐃᒃ	-9.13579
▁ᐅᓇᔓᐌᐎᓂᓂ	-9.13581
ᓂᓯᒥᓐᒡ	-9.13936
▁ᐱᒥ	-9.14489
ᐙᐞ᙮	-9.14748
▁ᒋᑮᐌ	-9.14872
ᐃᑰᔦᒃ	-9.15433
▁ᓀ	-9.15757
▁ᑳᐃᔑᒋᑫᐙᒡ	-9.15835
▁ᐊᔮᒡ	-9.15882
▁ᐐᑕᒪᐎ	-9.15898
ᓯᑳ	-9.16031
ᑲᓇᐙᐸᒫ	-9.16282
ᒋᑫᐎᓇᓐ	-9.16325
▁ᑳᐅᒌᒡ	-9.16431
▁ᐐᑾᑎ	-9.165
ᑐᓀ	-9.1658
ᑕᒧᐙ	-9.16619
ᓂᑲᒧ	-9.16752
ᑶ	-9.16753
ᐊᔮᔭᓐ	-9.16765
▁ᐁᐸᕒᐊᐋᒪᓐ	-9.16822
▁ᐊᒑᒃ	-9.16822
▁ᒨᓯᓲᓐ	-9.16822
▁ᐃᓬᐋᐃᒐ	-9.16822
▁ᒫᒪᑳᒋᒋᑫᐎᓇᓐ	-9.16822
ᑎᐹᒋᒫ	-9.16823
▁ᐁᒐᓬᐊᐞ	-9.16823
ᑲᑮᑖᐎ	-9.16824
▁ᐅᔥᑭᓃᑭᑴ	-9.16824
▁ᒣᑴᔭᐄ	-9.16831
▁ᐃᔑᓂᔕᐙᑲᓇᒃ	-9.16834
ᐙᐸᒥᑯᒡ	-9.16885
ᓂᐳᐙᒡ	-9.16941
▁ᑕᑯᔑᕽ	-9.16963
▁ᐁᑮᐃᑭᑐᐙᒡ	-9.16982
ᒥᓂᒀ	-9.17176
ᓀᒃ᙮	-9.17282
ᓂᓵᐙᒡ	-9.17347
▁ᑳᒥᓄ	-9.17391
▁ᑳᑎᐯᓂᒥ	-9.17431
ᑲᓇᐌᓂᒥ	-9.17436
ᓃᐎ	-9.17531
▁ᓂᑮᐅᒋ	-9.17537
▁ᑕᑭᒋ	-9.17701
ᑲᑖ	-9.17776
▁ᑎ	-9.17808
ᓯᐙᐙ	-9.17944
▁ᐅᑯᓯᓯᒫ	-9.18044
▁ᒋᔑ	-9.18199
ᒪᒋᑑᑕᒧ	-9.1839
ᒫᐙᓐ	-9.18438
ᒥᓈ	-9.18551
▁ᑮᐃᔑᒋᑫ	-9.18631
ᑎᓈ	-9.18674
ᐃᓈᑯᓂᑫ	-9.18701
▁ᑳᐱᒫᑎᓯᐙᒡ	-9.18907
ᑮᐗᓂᒧ	-9.18958
ᔑᓈᑾᓂᓂᒃ	-9.19608
ᑌᑭᓐ	-9.19696
▁ᑳᐃᔑᒋᑫᒡ	-9.20303
▁ᐅᐱ	-9.20318
▁ᐃᔑᐱᒫᑎᓯ	-9.2034
ᓶ	-9.20362
▁ᐁᑎᐱᑲᓂᓂᒃ	-9.20362
▁ᐅᑎᓀᑕᒧᐎᓐ	-9.20362
ᓲᑭᑌᐁ	-9.20362
▁ᐙᑳᐃᑲᓐ	-9.20362
▁ᐅᕒᐆᒥᕽ	-9.20362
▁ᐃᔅᕒᐃᔭᓬᐊᐞ	-9.20362
▁ᐃᑭᑑᒪᑲᓐ	-9.20362
▁ᐃᔑᓂᔕᐙᑲᓇᐞ	-9.20368
▁ᒪᔥᑲᐎᓰᐎᓐ	-9.20381
▁ᑳᓵᑭᐃᓇᑰᒃ	-9.20383
ᑲᔥᑭᑕᒫᓱ	-9.20441
ᒪᑭᒡ	-9.20487
▁ᑮᐃᑭᑐᐗᐞ᙮	-9.20491
ᐅᑭᒫᑲᑕ	-9.20535
▁ᑭᒋᐊᓇᒥᐁᐎᑭᒫ	-9.20556
▁ᐐᑕᒪᐙ	-9.20739
▁ᐐᒌᐙ	-9.20801
ᑮᔑᑲ	-9.20854
▁ᑮᐃᓈ	-9.20876
▁ᑎᐹᑯᓂ	-9.21004
▁ᑮᐐ	-9.21152
ᐋᓐ	-9.21161
ᓯᒃ᙮	-9.21162
▁ᑭᑭᓄᐊᒫᑫ	-9.21219
ᒧᐌᒃ	-9.21284
▁ᐃᓀᑖ	-9.21469
▁ᐱᓯᑕ	-9.21636
ᐸᐹᒥ	-9.21984
ᑮᒨᒋ	-9.22125
▁ᑑᑕ	-9.22157
ᒪᒀ	-9.22213
ᑭᑭᔥᑲᐙ	-9.2223
ᐊᓇᒥᐁᑕᐙ	-9.22341
ᑲᑴᒋᒥᑯᒡ	-9.22371
ᒋᑫᔦᒃ	-9.22475
ᔒᑫ	-9.22539
▁ᒋᐊᐎ	-9.22573
ᐐᒌᐙᐙᒡ	-9.22626
▁ᐊᐎ	-9.22771
ᕒᐃ	-9.22822
ᒋᑲᓐ	-9.22872
▁ᓃᔑ	-9.22907
ᒫᓂᒡ	-9.23137
ᒥᑰᔦᒃ	-9.23317
▁ᐁᒥᒋ	-9.23358
ᑖᑯᓯᐙᒡ	-9.23386
▁ᐅᑮᐊᓂ	-9.23555
ᒫᐗᒋᐃᑎᓂᒡ	-9.23991
ᒐ	-9.24025
ᑎᐸᐃᑫ	-9.24027
▁ᐅᑑᑭᒫᒪᓐ	-9.24032
▁ᓂᑯᓯᔅ	-9.24032
▁12	-9.24033
ᓈᑾᑭᓐ	-9.24041
▁ᐋᐱᑕ	-9.24047
ᑌᐺᔦᑕᒧ	-9.24082
▁ᓂᑯᒋ	-9.24103
ᒋᑳᑌᑭᓐ	-9.24154
▁ᐅᑭᑭᓄᐊᒪᐙᑲᓇᐞ᙮	-9.24295
▁ᐁᓈᓴᒦᓂᒡ	-9.24329
▁ᐃᐌᓂ	-9.2437
▁ᑎᐹᒋᒧᐎᓐ	-9.24408
ᐐᑕᒫ	-9.24613
ᑲᓇᐌᓂᒫ	-9.2462
ᑯᓯᒃ	-9.24689
▁ᐁᐊᓉ	-9.24718
ᓰᓐ᙮	-9.24848
ᔑᕽ	-9.24945
ᓰᒥᓐ᙮	-9.25443
ᒦᔑᒡ	-9.25599
▁ᑮᐊᔮᐗᒃ	-9.25868
ᑮᐌᐱᒫᑎᓯᐋ	-9.26307
ᐊᓉᐱ	-9.26321
ᑕᐙᐙᓐ	-9.26687
▁ᑳᐊᔮᔦᒃ	-9.26709
ᐱᑮᐌ	-9.26824
ᐊᕽ	-9.2683
▁ᔖᑯᐌ	-9.26971
ᐸᑯᓭᓂᒥ	-9.27254
ᐸᑭᑌ	-9.27391
▁ᒋᐱᒫᒋ	-9.27415
▁ᑳᐃᓇ	-9.27442
ᓇᒧᐙᒡ	-9.27691
ᓂᓯᓐᒡ	-9.27762
▁ᐅᑮᒫᒌ	-9.27796
ᐸᑭᑎᓇ	-9.27813
ᑎᐹᑯᓂ	-9.27831
▁ᑫᓃᓇᐎᓐᑦ	-9.27842
▁ᒌᒫᓂᕽ	-9.27842
ᒋᐱᒫᑎᓰ	-9.27842
▁ᓂᑭᑫᓂᒫ	-9.27842
▁ᐅᑕᓄᑮᐋᑲᓇᓐ	-9.27842
ᐅᓇᐱ	-9.2785
▁ᑳᐃᓇᑌᓂᒃ	-9.27865
▁ᐁᐊᔮᒡ	-9.27872
▁ᐊᔮᒀᒥᓯᒃ	-9.27874
ᑕᔅ	-9.28126
▁ᐃᑭᑐᐎᓇᓐ	-9.28193
ᒥᑣ	-9.28205
▁ᑭᑫᓂᒫ	-9.28218
ᐌᐙᒡ	-9.28247
▁ᒥᓉᑕ	-9.28376
▁ᐁᔑᓈᑯᓯᒡ	-9.28458
▁ᐅᑮᑲᑴ	-9.2879
ᒥᓯ	-9.28818
▁ᑮᓯᔅ	-9.2927
ᐙᑳᐃᑲᓂ	-9.29382
ᑭᑫᑕᒧᐙᒡ	-9.29389
ᒥᓇᑰᒃ	-9.29468
ᓱᓂᒡ	-9.29538
ᐅᓃᒑᓂᓯ	-9.29688
▁ᑳᑎᐯᒋᑫᓂᒡ᙮	-9.29839
▁ᒪᒋᐊᔭᐋᓐ	-9.29867
ᐙᐸᓂᓂᒃ	-9.30079
ᔭᐸᓐ	-9.30087
ᓈᑯᓂ	-9.30568
ᑯᓈᓂᒃ	-9.30801
ᑮᔑᒃ	-9.30938
ᒦᓂᓇᕽ	-9.3095
ᒪᐤ	-9.31029
▁ᑭᑌᐺ	-9.31071
▁ᑳᓇᑲ	-9.3112
ᓂᔑᐌ	-9.31177
▁ᑭᑎᔑᒋᑫ	-9.31336
ᓵᑭᒋ	-9.31569
ᐗᑫ	-9.31572
▁ᐃᔅᕒᐃᔭᓬ	-9.318
▁ᐄᒋᐸᑮᕽ	-9.31802
▁ᐌᔩᑉ	-9.31802
▁ᐱᓬᐊᑉ	-9.31802
ᐅᓇᔓᐙ	-9.31803
▁ᐁᔑᓂᑳᓱᓂᒡ	-9.31803
▁ᐌᓂᔑᔑ	-9.31805
▁ᐅᐙᑳᐃᑲᓂᕽ	-9.31805
▁ᑳᐹᑏᓄᓂᒡ	-9.31807
▁ᓭᑕᓐ	-9.31821
▁ᐴᓯ	-9.31904
▁ᐁᑮᐃᑭᑐᓂᒡ	-9.31962
ᑯᓇᔦ	-9.32016
▁ᑭᑮᐱ	-9.3203
▁ᑳᑮᐃᑭᑐ	-9.32046
▁ᐁᑮᑭᒋ	-9.32063
▁ᐃᓀᑕᒧ	-9.32189
ᐸᑭᑎᓇᒪᐙ	-9.32336
ᐹᑏᓄ	-9.32344
ᔒᑫᓂᒥ	-9.3235
▁ᐅᑎᓈ	-9.32398
▁ᐁᓈᓴᒦᒡ	-9.32741
ᑎᓯᐙᒡ	-9.32904
ᐃᔑᐲᐃᑫ	-9.32944
▁ᐅᐱᒫᑎᓯᐎᓂ	-9.3296
ᓯᓅᓂᓂᒻ	-9.33
ᑫᒃ᙮	-9.33314
ᐱᓯᑕᐙ	-9.3365
▁ᐃᔑᒋᑫᒡ	-9.33702
ᒥᓉᑕᒻ	-9.33751
ᓯᑭᐸᓐ	-9.33776
ᑯᓵ	-9.33805
▁ᐊᐯ	-9.33824
▁ᑳᓵᑭᐃ	-9.33831
▁ᑭᑭᒋ	-9.34278
ᓈᑯᓂᑫ	-9.34348
▁ᑳᓬᐊᓬᐄᐎ	-9.34362
ᒥᓈᓐ	-9.34412
▁ᐁᓂᑯ	-9.34616
▁ᐅᑯᓯᓴᓐ᙮	-9.34836
ᓃᔣᒋ	-9.34863
▁ᔑᒫᑲᓂᔒᐎᑭᒫ	-9.34956
ᐋᐸᒋᑑᒡ	-9.35273
▁ᓂᓯ	-9.3528
ᕒᐃᔭ	-9.35312
▁ᐹᑏᓄ	-9.3546
ᐐᑾ	-9.35541
ᒦᑴᒋᐌᓂᒫ	-9.35652
ᑴᑕ	-9.35714
▁ᐁᑮᐐ	-9.35744
ᐐᓱᐎᓐ	-9.35841
ᔛ	-9.35927
▁ᐋᐃᓭᔭ	-9.35927
▁ᐹᕒᓇᐸᔅ	-9.35927
▁ᓇᐃᓂᑏᐎᑲᒥᑯᕽ	-9.35927
▁ᐃᔑᓈᑾᓐ	-9.35928
▁ᑎᒪᑎ	-9.35928
▁ᓰᑲᐊᑖᑫᐎᓂᓂ	-9.35928
▁ᐅᑎᐹᒋᒧᐎᓐ	-9.35931
▁ᓂᑯᑎᕽ	-9.35931
▁ᐅᒪᔥᑲᐎᓰᐎᓐ	-9.35932
ᐊᑖᐙᑫ	-9.35935
ᐹᑏᓇᑎ	-9.35942
▁ᒥᑖᔑᓃᔑᓐ	-9.35958
ᑌᐺᔦᑖᑯᓯ	-9.3596
▁ᐙᓭᔮ	-9.36024
▁ᑳᐊᔮᓂᒡ᙮	-9.36075
▁ᑳᑮᐊᔮᓂᒡ	-9.36093
▁ᒋᐱᒫᒋᐃᐌᓂᒡ	-9.36116
ᐋᒋ	-9.36125
▁ᑭᒋᐊᓇᒥᐁᐎᑭᒫᐞ	-9.36159
ᐅᑌᑌᒫ	-9.36408
▁ᐐᓀᑕ	-9.36411
▁ᑭᒋᐅᑭᒫᓐ	-9.36797
▁ᐃᔥᑯᑌᕽ	-9.37001
ᑲᔥᑭᑑᔦᒃ	-9.37124
ᑯᔥᑯ	-9.37142
ᑌᐁ	-9.3723
▁ᐲᒋ	-9.37518
ᑖᑾᓂᓂᒃ	-9.37672
▁ᒥᓍᒋᒧᐎᓐ᙮	-9.37922
▁ᐅᐐᒋ	-9.37973
▁ᐁᔖ	-9.37974
▁ᐱᒫᑎᓯᐎᓐ᙮	-9.38234
▁ᐁᐐᒋ	-9.38261
▁ᑮᐲᑎᑫ	-9.38397
ᑕᒫᑯᐙ	-9.38436
ᐯᑖ	-9.38501
▁ᑲᑴᑗ	-9.3853
ᐱᐊᑕ	-9.3858
▁ᑮᑎᓄᐎ	-9.38857
ᒥᑰᐞ	-9.39018
ᑰᔭᕽ	-9.39032
▁ᒪᔥᑲᐎ	-9.39196
ᐌᓂᐗᐞ	-9.3936
ᓂᓀᒃ	-9.39917
▁ᐃᔖᒡ	-9.39944
ᐊᔓᑕᒪᐙ	-9.4009
ᑕᑯᔑᓂᓂᒡ	-9.40134
▁ᐊᓉ	-9.40166
▁ᑳᑎᐯᒋᑫᒡ᙮	-9.40167
▁ᐅᐱᒫᑎᓰ	-9.40227
▁ᑭᑌᐃᐙᕽ	-9.40228
▁ᓃᒥᑕᓇ	-9.40228
▁ᓵᑲᐃᑲᓃᕽ	-9.40228
▁ᐅᐐᔭᐤ	-9.40228
▁ᒌᒥᔅ	-9.40228
▁ᑭᑎᓂᓂᓂᒻ	-9.40229
▁ᒧᔐ	-9.40235
ᓬᐄ	-9.40238
▁ᑭᐴᔔᐃᑯᐙ	-9.4024
ᑲᒥᑲᓂᓂᒃ	-9.40241
ᐙᓴᑯᓀ	-9.40245
▁ᑌᐱᑎᕽ	-9.40258
▁ᐱᓵᓂᓯᐎᓐ	-9.4026
ᓯᔮᓐ	-9.40281
ᐊᐯᓂᒧᓄᑕ	-9.40285
▁ᑭᑎᑫᐎᓂᓂ	-9.40313
▁ᐋᓬᐃ	-9.40363
ᐲᑎᑲᓂ	-9.40364
ᒪᑲᓅᓐ	-9.40376
▁ᑭᑭᑫᑖᒥᓐ	-9.40392
▁ᐅᑮᐃᔑᓂᔕᐙ	-9.40402
ᐐᑕᒪᐎᓂᓂᒻ	-9.40409
ᐃᓀᑕᒣᒃ	-9.40411
ᐅᓂᔑᔑᓂᓂ	-9.40416
▁ᐁᓀᑖᑯᓯ	-9.40432
ᔑᒡ	-9.40434
ᐗᐙᓀᑕ	-9.40445
▁ᐅᑮᓇᑴᑕᐙᐞ	-9.40473
ᐐᒌᐌᒃ	-9.40541
ᓇᓈᑕ	-9.40559
▁1	-9.40685
ᐃᓇᑭᒥ	-9.40717
▁ᓂᑭᑫᑖᓐ	-9.40744
ᓃᐸ	-9.40755
▁ᑳᐃᑭᑐᐙᒡ	-9.40757
▁ᓈᓇᓐ	-9.40761
▁ᓃᔮ	-9.40788
▁ᑭᑕᔮ	-9.40813
▁ᑫᑑᑕ	-9.4087
ᑭᒋᐊᓇᒥᐁᐎᑭᒫᐎ	-9.40897
ᓯᐙᕽ	-9.40963
▁ᑮᓂ	-9.41204
▁ᑳᑮᐃᔑᒋᑫ	-9.41224
ᒥᑯᐙ	-9.41295
ᑐᒃ	-9.41359
▁ᓵᑭᒋ	-9.41421
▁ᐃᓂᓃᐎ	-9.41474
▁ᐅᓇᔓᐌᐎᓐ᙮	-9.416
▁ᒋᑭᑭ	-9.41624
ᓂᐙᕽ	-9.41647
ᐃᔑᓈᑾᒃ	-9.41751
▁ᑳᓅᑕᕽ	-9.41876
▁ᓃᐸᐎ	-9.41917
ᑲᑴᑗ	-9.42009
▁ᒋᐐᒋᐃ	-9.42239
ᐃᓂᑣ	-9.4232
ᑌᐺᑕᒣᒃ	-9.42366
▁ᐁᐅᒌ	-9.42445
ᑌᐱᓇᒧ	-9.42528
▁ᒋᑎᐯᓂᒥᑯ	-9.426
▁ᑭᐸ	-9.42651
▁ᑮᓂᐳ	-9.42714
ᐅᒌᒪᑲᒃ	-9.42729
ᐅᑖᐱᓇᕽ	-9.42798
▁ᑳᑑᑕᕽ	-9.42825
▁ᒌᑫᑕ	-9.42933
ᐸᑴ	-9.43116
▁ᐋᐸ	-9.43452
▁ᒪᓂᑑ	-9.43673
ᒪᐎᓀᒃ	-9.43715
▁ᑳᐃᓈ	-9.43719
▁ᒋᐃᑭᑐ	-9.43774
ᑾᐞ	-9.43956
▁ᔕᐌᑖᑯᓯ	-9.44165
ᐅᔑᑑ	-9.44413
ᑭᑫᑖᓈᐙ	-9.4445
▁ᑫᑕᔑ	-9.44529
ᐊᒧ	-9.4454
ᑴᒋᒥ	-9.44629
▁ᒥᑖᔑ	-9.44692
ᑭᑎᒫᑭᓯ	-9.44707
ᑫᑌᔭᐋᒥ	-9.44723
ᒪᔥᑲᐌᑖᑯᓯ	-9.44723
▁ᐅᑯᓯᓴᐞ	-9.44723
▁ᐊᐱᓅᒌᔕᐞ	-9.44723
▁ᐊᒑᑾᓐ	-9.44723
▁ᐱᑾᑕᑲᒥᒃ	-9.44723
▁ᑭᒋᐊᓇᒥᐁᐎᑲᒥᒃ	-9.44723
ᑕᑶᔑᕽ	-9.44724
▁ᐅᑎᐯᒋᑫᐎᓂᓂ	-9.44724
ᐅᑭᔐᒪᓂᑑᒥ	-9.44724
▁ᔔᓂᔮᓴᐞ	-9.44724
ᑎᐹᑯᓈ	-9.44726
ᓰᑲᐊᑖᑫ	-9.44726
ᐊᓇᒥᑑ	-9.44731
ᑮᐊᓅᑮ	-9.44734
▁ᒦᑲᓈᕽ	-9.44734
ᓯᓄᑭᓐ	-9.44736
ᓯᓅᓇᓐ	-9.44755
▁ᐗᓂᔥᑳ	-9.44761
ᐊᑲᒋ	-9.44801
▁ᑳᑎᐯᓂᒥᑯᐙᒡ	-9.44805
▁ᑳᐃᓂᓇᑰᒃ	-9.44816
▁ᐃᓀᑖᑾᓂᓂ	-9.4483
▁ᑮᐅᒌ	-9.44834
▁ᑳᐃᒋᑳᑌᒃ	-9.44858
ᔭᒥᑣ	-9.44859
ᑭᑫᑕᓰᓐ	-9.4494
ᓬᐋ	-9.45047
▁ᑮᐃᓀᑕᒻ	-9.45157
ᐱᒫᒋᐃᑰᐎ	-9.45208
▁ᒫᐗᒋ	-9.45477
▁ᑕᒦᓈ	-9.45484
ᕒᐋ	-9.45522
ᔑᓄᐙᒡ	-9.45827
ᑲᓇᐌᑕᕽ	-9.45983
ᐊᓇᒥᐋᐙᒡ	-9.46068
▁ᑭᐱᒫᑎᓯᐎ	-9.46235
ᑲᓇᐌᑕ	-9.46437
▁ᑖᑭ	-9.46563
ᓇᒪᑕᐱ	-9.46572
ᑫᓂᒡ	-9.46747
▁ᑭᒋᑮᔑᑯᕽ᙮	-9.46768
▁ᐁᑭᑫᓂ	-9.4678
▁ᒋᐊᑕ	-9.46877
ᐙᐸᑕᐃᐌ	-9.46916
ᑎᔅ	-9.46965
ᐃᒃ	-9.46967
ᐱᒥᐊᔮ	-9.46995
ᒥᓯᐌ	-9.47007
▁ᒋᑎᐹᑯᓂ	-9.47092
ᒦᓂᒃ	-9.47172
▁ᒥᓄᐊᔮ	-9.47202
▁ᑳᑕ	-9.47636
ᑌᓂᑭᓐ	-9.48114
ᑲᔥᑭᒋᑫ	-9.48121
▁ᐯᐯᔑ	-9.48125
▁ᑮᒨᒋ	-9.48209
▁ᐊᔮᐗᒃ	-9.48218
▁ᓵᑭᐃᑎ	-9.48253
ᐊᓯᓃ	-9.48412
ᑖᑯᓰ	-9.48453
▁ᐲᑑ	-9.48545
ᓂᔑᐗᓈᒋᐃ	-9.48757
▁ᑭᑭᓇᐙ	-9.48893
ᒪᒋᒋᑫ	-9.48978
▁ᐁᐱᒥ	-9.49116
▁ᑮᒋᑭᐌ	-9.49264
ᒪᑲᓯᓅᓐ	-9.4942
▁ᐱᑾᒋᐊᔭᐋᐎᔕᓐ	-9.4943
▁ᑳᐐᒋᐅᑌᐺᑕᒨᒥᑰᔦᒃ	-9.4943
▁ᔑᒫᑲᓂᔕᐞ	-9.4943
▁ᓵᑭᐃᐌᐎᓐ	-9.4943
▁ᑭᒋᐊᐱᐎᓂᕽ	-9.4943
ᑲᒀᑕᑫ	-9.49431
ᒪᒫᔒ	-9.49441
ᑎᐸᐊᒫᑰ	-9.49447
▁ᐊᓯᓃᓐ	-9.49463
ᐸᑯᐲ	-9.49509
▁ᒥᑎᒃ	-9.49525
▁ᐲᐙᐱ	-9.49623
▁ᐌᐱᓂ	-9.49654
▁ᑭᑭᓄᐊᒪ	-9.49658
▁ᓃᐎ	-9.49675
▁ᐅᒪᒋᑑᑕᒧᐎᓂᐙᓐ	-9.49683
▁ᐁᐸᐹ	-9.4972
▁ᑎᐹᒋᒧ	-9.49767
▁ᓇᑴᑕᒻ	-9.49918
ᔕᓐ	-9.49937
▁4	-9.49954
▁ᐆᑌᓇᐗᓐ	-9.50068
▁ᐊᓄᑮᐎᓐ	-9.50234
▁ᐙᐹᐱᑯ	-9.50347
ᑫᐎᑭᒫ	-9.50436
▁ᔑᒫᑲᓂᔒᐎᑭᒫᓐ	-9.50553
0	-9.50608
▁ᐹᑏᓄᓂᒡ	-9.50721
ᓃᑳᓀᑖᑯᓯᓂᒡ	-9.50859
ᓇᒪᑕᐱᒡ	-9.50974
▁ᓂᑌᐺ	-9.51102
▁ᐸᑴᔑᑲᓂ	-9.51321
▁ᐅᑮᐃᑰᐞ	-9.51394
ᒪᒋᑑᑕᕽ	-9.51456
ᒨᓐ	-9.51491
ᐅᔑᑑᒡ	-9.51572
▁ᓂᑲᐱ	-9.51624
ᐙᓂᒡ	-9.51764
▁ᑳᑮᑕᔑ	-9.51946
ᑮᑭᑐᒡ	-9.52137
▁ᑌᐺᐎᓐ᙮	-9.52693
ᑖᑯᔅ	-9.52719
▁ᒋᑎᐯ	-9.52912
ᓯᓄᒃ᙮	-9.53101
ᐊᓄᑮᑕᐗ	-9.53154
▁ᑕᑯᔑᓅ	-9.53885
ᑭᑫᑕᒨ	-9.53915
▁ᑮᒦᓈ	-9.54109
▁ᑮᐃᑭᑐᐗᓐ	-9.54141
▁ᐅᓃᒑᓂᓴᐞ	-9.54369
▁ᐊᐱᓅᒌᔕᒃ	-9.54369
5	-9.54369
▁ᓃᑳᓇᔭᐄ	-9.54369
ᐅᒋᒌᑾᓃ	-9.54369
▁ᐆᑌᓇᐌᓯᕽ	-9.54369
▁ᑳᓃᑳᓂᓯᐙᒡ	-9.54369
▁ᐅᑎᓈᑯᓂᑫᐎᓐ	-9.54369
▁ᑭᑌᐺᑕᒧᐎᓂᐙ	-9.5437
▁ᐅᓵᐙᐱᑯ	-9.54371
▁ᓈᓈᑫ	-9.54372
▁ᑌᐺᔦᑕᒧᐎᓐ	-9.54378
▁ᒌᒫᓐ	-9.54379
▁ᐊᑮᐎ	-9.54382
▁ᐃᓀᑖᑾᓐ	-9.54393
▁ᑎᐹᑯᓂᑫᐎ	-9.54397
ᐅᔑᐲᐊᒪᐎᓇᑰᒃ	-9.54403
▁ᐅᓇᔓᐌᐎᓂᕽ	-9.54405
▁ᒫᒥᑲᐎᒃ	-9.54406
ᓇᓇᐊ	-9.5443
ᐋᔩᒋ	-9.54523
▁ᐅᐐᓱᐎᓂᓂ	-9.54564
▁ᐸᔦ	-9.54569
▁ᑮᐸᓯᑸ	-9.54583
ᐃᐌᒡ	-9.54603
ᓈᑯᑑᒡ	-9.54652
ᓈᑾᓂᓂᑭᓐ	-9.54701
ᓇᐁᑕ	-9.548
▁ᐯᕒᐊᓰ	-9.548
▁ᑳᐃᑭᑐᓂᒡ	-9.5485
ᓇᒪᐙ	-9.54902
▁ᐁᑌᐺᑕ	-9.54916
ᐱᒥᓂᔕᐅᑯᒡ	-9.55006
▁ᑲᓇᐌᑕ	-9.55097
▁ᑳᐃᔑᓂᑳᑌᒃ	-9.55117
ᓂᒪᒃ	-9.55137
ᔕᐌᓂᒫᒡ	-9.55146
▁ᐋᓇᑮ	-9.55172
▁ᒋᑭᑫᑕᒣᒃ	-9.55217
▁ᐃᔑᓭᓂᒃ	-9.55259
ᓂᑖᐎᑭᒡ	-9.55375
▁ᐁᐐᐅᒋ	-9.55459
▁ᒋᒥᓄᐊᔮ	-9.55556
ᑭᑌᓂᒥ	-9.55695
ᓂᔥᑳ	-9.55735
▁ᐲᓈ	-9.55765
ᓇᒪᑕᐱᓂᒡ	-9.55818
▁ᑳᑲᑴ	-9.55894
▁ᐱᐴᓐ	-9.55914
ᐅᔑᒋᑳᑌᒃ	-9.5592
▁ᑮᑮᐌ	-9.56009
▁ᐁᓵᑭ	-9.56034
▁ᑭᒋᐊᓇᒥᐁᐎᑭᒫᓐ	-9.56198
▁ᐃᓂᓃ	-9.56231
ᓂᓃᐎ	-9.56424
ᐹᑏᓄᐙᒡ	-9.56581
▁ᐴᔔ	-9.56648
▁ᐅᑮᐃᓈᐙᓐ	-9.56662
ᓰᑭᓇ	-9.56665
▁ᐁᐐᒌᐎ	-9.56666
ᐊᑣ	-9.56714
▁ᑳᐐᑕᒪᐎᓇᑰᒃ	-9.56896
ᑭᒋᐊᓄᑮ	-9.57159
▁ᒋᐲᑎᑫ	-9.57564
ᑲᓇᒃ	-9.5761
ᑎᐸᐊᒪ	-9.5764
ᐐᒋᑭᐌ	-9.57706
▁ᑭᐐᒋ	-9.57881
▁ᒋᓈᓯᑲ	-9.58127
▁ᓀᐱ	-9.58145
▁ᐅᓇᔓᐌᐎ	-9.58146
ᐃᔑᒋᑫᔮᓐ	-9.58239
▁ᓂᑮᐱ	-9.58258
▁ᑭᒋᐅᑭᒫᒃ	-9.58352
ᑯᓐ	-9.58533
ᑲᓅᑕᒪᐙ	-9.58573
ᔥᑳᑯᒡ	-9.58576
ᑖᑯᓯᓰ	-9.58585
▁ᑳᑮᐃᑭᑐᒡ	-9.58611
▁ᑳᒥᒋ	-9.58619
ᒪᐎᓐᒡ	-9.58655
ᐱᒫᑎᓯᔭᕽ	-9.58728
▁ᐁᑮᐊᑕ	-9.58902
▁ᐊᓇᒥᐁᐎᑭᒫ	-9.5897
▁ᐋᔑᑌᔮᑎᑯᕽ᙮	-9.59091
ᒋᐃᑯᒡ	-9.59117
▁ᒋᐃᓈ	-9.59161
ᒣᑭᐸᓐ	-9.59274
ᑖᑯᓯᔦᒃ	-9.59471
ᐊᑯᓴᑲᐅ	-9.59564
▁ᐊᐱᓅᒌᔥ	-9.59564
▁ᐹᐃᓬᐊᑑᓐ	-9.59564
▁ᑳᐅᔫᓯᒥᓐᒡ	-9.59564
▁ᒉᑲᑉ	-9.59564
▁ᒌᒥᓴᓐ	-9.59564
ᒫᐗᑑᓈ	-9.59565
▁ᐁᑎᔮᒃ	-9.59565
▁ᑳᐃᔑᓂᑳᓱᒡ	-9.59565
ᐃᔥᐯᑖᑯᓯ	-9.59565
▁ᒥᑖᓱ	-9.59566
ᓂᓯᑕᐎᓇ	-9.59567
ᐲᑎᑲᓈ	-9.59567
ᐱᒫᑎᔅ	-9.59569
▁ᐁᑮᐃᓈᐙᒡ	-9.5957
ᓂᑯᑣᒃ	-9.59571
▁ᓈᓴᕒᐃᑎᕽ	-9.59573
ᐊᑐᒫᒡ	-9.59574
ᐐᓴᑫᑕ	-9.59579
ᓂᑭᓃᕽ	-9.5958
▁ᐅᑑᓇᔓᐌᐎᓂᓂ	-9.59599
▁ᐸᓯᑸ	-9.59655
▁ᓃᔓ	-9.59732
ᔒᑫᓂᒫ	-9.5978
▁ᒦᐗᑭ	-9.59816
▁ᑴᑭ	-9.59895
ᐸᑭᑎᓇᕽ	-9.59904
ᓂᑯᐙᒡ	-9.59939
▁ᐌᐱᓈ	-9.6003
ᐐᑕᒫᑰᔦᒃ	-9.60059
▁ᒋᐴᓂ	-9.60098
ᑲᓅᑕᒪᐙᐙᒡ	-9.60181
▁ᐁᑕᓱᐯᔑᑯ	-9.60298
▁ᑎᓄᐎ	-9.60362
ᓂᓂᐗᓐ	-9.60576
ᓅᑕᒥᓂᒡ	-9.60611
▁ᒪᒋᑑᑕᒧᐎᓐ᙮	-9.60735
▁ᒥᑲ	-9.60801
ᒪᑲᓂᓂᑭᓐ	-9.60909
ᓇᒥᐁᐎᑲᒥ	-9.6091
ᔑᔮᕽ	-9.60966
ᐙᐸᓐ᙮	-9.60969
▁ᐁᐐᐃᔑᒋᑫ	-9.6104
▁ᑭᑭᑫᓂᒫ	-9.61064
▁ᒋᒫᒌ	-9.61113
ᑲᒀᑕᑭᐋ	-9.61118
ᐊᓇᒥᐋᔦᒃ	-9.6127
▁ᐅᑯᓯᓯᒫᓐ	-9.61413
▁ᐙᑳ	-9.61466
▁ᐅᑖᐎᓂᕽ	-9.61546
ᓇᑭᒡ	-9.61622
ᐋᓂᒡ	-9.6169
▁ᐃᔑᓈᑯᓯ	-9.61771
ᐅᑯᓯᓯᒥ	-9.61991
ᐐᐊᓂ	-9.62334
▁ᐁᑭᑭᔥᑲ	-9.62373
▁ᒋᓂᐳ	-9.62488
ᑌᐺᑕᒧᐎᓐ	-9.62926
▁ᑳᑮᐃᔑᒋᑫᒡ	-9.6296
ᔓᑕᒫᑫ	-9.63146
ᑕᑾᑭ	-9.63247
ᐱᒥᓂᔕ	-9.633
ᔥᑳᑯᐙᒡ	-9.63359
▁ᐁᑲᓇᐙᐸ	-9.63423
ᒋᑲᓂᐎᓂᒡ	-9.63611
ᐃᔖᔮᓐ	-9.63661
▁ᐲᑎᑫᒡ	-9.63782
ᐌᓅᑎᓯᒡ	-9.63805
▁ᓭᑭᓯ	-9.63812
▁ᒫᒑᓐ	-9.64154
ᓈᑲᑕᐌᑕ	-9.6417
ᒫᒑᐙᒡ	-9.64243
ᑖᑾᓂᓂᑭᓐ	-9.64615
ᑭᑫᑕᒣᒃ	-9.64717
▁ᑳᒎᐎᐎ	-9.64753
▁ᐱᒫᑎᓰ	-9.64819
ᓈᓈᐙ	-9.64951
ᐊᐯᓂᒧ	-9.64963
▁ᑭᓇᑕᐌᓂᒥ	-9.65011
ᒫᓇᒑᓂᔑ	-9.65041
ᑲᑮᓇᐎᔥᑭ	-9.65045
▁ᐁᐃᑭᑐᐙᒡ	-9.65045
▁ᐅᑎᐹᒋᒧᐎᓂᓃᒪᐞ	-9.65045
▁ᐅᑎᐹᒋᒧᐎᓂᓃᒪᓐ	-9.65045
▁ᐅᓈᐯᒪᓐ	-9.65045
▁ᐅᔑᐲᐃᑲᓐ	-9.65045
▁ᑭᐸᐅᑏᐎᑲᒥᑯᕽ	-9.65045
▁ᒎᑏᔮ	-9.65045
▁ᓭᓴᕒᐄᔭ	-9.65045
▁ᑳᓃᑳᓂᓯᓂᒡ	-9.65045
▁ᐁᔑᐲᐃᑳᑌᒃ	-9.65045
▁ᑳᐃᔑᐲᐃᑳᑌᒃ	-9.65045
▁ᒥᑕᑲᒥᒃ	-9.65045
▁ᐁᔑᓂᑳᓱᒡ	-9.65045
ᒥᑕᑎᒻ	-9.65045
▁ᐐᔭᐎᓂ	-9.65047
▁ᓇᔥᑫ	-9.65051
ᐲᒋᓂᔕᐙ	-9.65053
▁ᑭᑎᑳᓇᓐ	-9.65053
ᓯᐙᓈᓐ	-9.65068
▁ᐁᑕᓱᑮᔑᒃ	-9.65072
ᐗᓃᑫ	-9.65072
▁ᑳᐊᔮᑭᓐ	-9.65089
ᐗᓀᓐ	-9.6509
ᐋᐸᑎᓯ	-9.65091
▁ᑳᑮᐅᓈᐸᒫᒡ	-9.65091
ᐊᓇᒥᐁᑕᒪᐎ	-9.651
▁ᐸᑭᑎᓇ	-9.65117
▁ᒥᑎᑯ	-9.65144
▁ᓂᐴᔔᐋ	-9.65159
ᑖᓈᐙᓐ	-9.65229
▁ᑌᐺᒪᑲᓐ	-9.65269
ᓅᑖᑯᒡ	-9.65298
▁ᐁᐃᔑᓭᓂᒃ	-9.65309
ᐊᐌ	-9.65361
ᐋᐸᑕᓂᓂ	-9.65387
ᐱᒥᐎᑑ	-9.65398
ᑲᓅᓂᑯᒡ	-9.65477
ᓂᒫᐙᒡ	-9.65554
ᐃᓀᑕᒻ	-9.65578
ᐗᔭᐄ	-9.65613
ᐃᑎᓱᒡ	-9.65661
▁ᐁᐊᐞ	-9.65834
▁ᑳᑎᐯᓂᒫᒡ	-9.66012
▁ᑑᑕᐎ	-9.66045
▁ᓂᔑᐗᓈᒋ	-9.66048
▁ᑳᑮᐅᔑ	-9.66198
ᑲᑴᒋᒫᐙᒡ	-9.66268
ᐐᑕᒫᑫᔮᓐ	-9.66519
ᐸᑑ	-9.66729
ᐃᑰᐎᓯ	-9.66859
▁ᐊᔮᐎᓂᕽ	-9.66919
▁ᑳᓬᐊᓬᐄ	-9.6693
ᒌᑫᑕᒧ	-9.66965
ᒪᐎᒡ	-9.67065
▁ᐁᓅᑕᒧᐙᒡ	-9.67131
▁ᒋᑲᔥᑭ	-9.67185
ᐃᑯᓐ	-9.67442
▁ᒫᒪᑳ	-9.67444
ᐅᔥᑭ	-9.6759
ᑕᒫᑯᓈᓐ	-9.67679
ᑭᐱᒌ	-9.6768
ᐄ	-9.67921
ᒋᑳᑌᓂᑭᓐ	-9.67988
▁ᐅᓈᐯᒥ	-9.68103
▁ᒋᐙᐸᒥ	-9.68452
ᐃᑰᓐ	-9.68472
ᐐᑲᑴ	-9.68534
ᐱᒧᓭᒡ	-9.68601
ᐊᔭᔮ	-9.68862
ᑎᐱᓭ	-9.68867
▁ᑳᐐᐱ	-9.68901
ᒥᑭᓯ	-9.68942
▁ᒋᒥᒋ	-9.69286
00	-9.69383
ᐊᑌᓂᒃ	-9.69388
ᑕᒫᑯ	-9.69688
▁ᑭᑭᓄᐊᒫᑫᒡ	-9.69764
ᓂᑖᐎᑭᑑ	-9.69886
ᐴᓂᑑ	-9.69966
ᐸᑭᑎᓇᒫ	-9.69974
▁ᑯᑕ	-9.70332
ᓈᑲᒋᑑ	-9.70405
▁ᒋᐃᔑᓭ	-9.70443
▁ᒎᑕ	-9.70663
▁ᐅᑮᐃᓈ	-9.70674
▁ᐗᑭᒋ	-9.70737
▁ᑮᐱᑕᑯᔑ	-9.70752
ᐙᐸᒫᐙ	-9.7077
▁ᐅᑮᓇᑴᑕᐙᓐ	-9.70843
▁ᐅᒑᓂᒥᓯᒻ	-9.70843
▁ᐌᔫᓯᒥᒥᓐᒡ	-9.70843
▁ᐱᑾᒋᐊᔭᐋᐎᔥ	-9.70843
▁ᒪᓯᓇᐃᑲᓂᕽ	-9.70843
▁ᓂᑎᑭᑐᐎᓇᓐ	-9.70843
▁ᑭᐐᔭᐎᐙ	-9.70843
▁ᒣᕒᐄᓐ	-9.70843
ᐱᒥᔑᓂᓂᒡ	-9.70846
ᓇᑰᑭᐸᓐ	-9.70846
▁ᒥᓂᓯᕽ	-9.70847
▁ᒪᔥᑯᓰ	-9.70848
▁ᐐᒋᑭᐌᔭᓐ	-9.70852
ᐗᔥᑴ	-9.70853
▁ᐌᒌᓂᒡ	-9.70855
ᓯᐎᑣ	-9.70863
ᑲᓅᒋᑫᑕᒪᐙ	-9.70864
▁ᐲᒋᓂᔕᐅ	-9.70871
ᑰᐹᓯᓈ	-9.70877
▁ᐱᓯᑕᒧᒃ	-9.70885
▁ᒉᕒᐆᓴᓬᐊᒻ	-9.70889
ᐸᓂᐅ	-9.70903
▁–	-9.70971
ᕒᐁ	-9.70991
ᐁᒀ	-9.70993
▁ᑳᐱᒫᑎᓯᒡ	-9.70994
▁ᐁᐃᓈᒡ	-9.71003
ᐃᓀᑕᒥᓂᒡ	-9.71028
▁ᑳᑕᓱ	-9.71065
ᑯᑖᒋ	-9.71103
▁ᑎᐸᐃᑲᓐ	-9.71119
ᓈᑲᒋᐃ	-9.71171
▁ᒋᐃᔑᓭᓂᒃ	-9.71195
ᐙᐸᑕᐋ	-9.7121
ᐙᐸᑕᒪᕽ	-9.71292
▁ᑎᐸᐊᒪᐎ	-9.71346
▁ᑭᑫᓂᒥ	-9.71417
▁ᑳᐱᒥ	-9.71418
ᒫᓀᑕᒧ	-9.7143
▁ᐁᐐᐃᔑ	-9.71459
▁ᐊᓇᒥᐁᐎᑭᒫᒃ	-9.71514
ᑌᐱᓭ	-9.71585
▁ᒋᓇᐃᑕ	-9.71632
ᒪᔥᑲᐙ	-9.7177
ᐅᑖᐱᓇᒪᐙ	-9.71919
▁ᐸᓯᑸᓐ	-9.72056
ᓯᓂᓂᑭᓐ	-9.72121
▁ᓈᑫ	-9.72124
ᑑᓈᐙᓐ	-9.72151
ᐙᐸᒪᒃ	-9.72155
ᐐᒋᐋᒡ	-9.72182
ᑌᓂᒫ	-9.72279
▁ᑭᑖᑮ	-9.72308
▁ᑳᓃᔣᒋ	-9.72357
ᒋᑳᑌᐗᓐ	-9.72369
▁ᐁᒣᓐ᙮	-9.72462
▁ᑫᐃᔑᒋᑫᔮᓐ	-9.72462
ᐃᓇᕽ	-9.72519
▁ᐃᑕᐙ	-9.7253
▁ᐃᓀᓂᑎᓱ	-9.72742
ᐸᑳᓂ	-9.72885
▁ᑭᑭᓄᐃᑫ	-9.72968
▁ᑳᐊᔮᒃ	-9.73127
ᐗᑣ	-9.73138
▁ᐁᑮᑲᑴ	-9.73225
▁ᐃᓀᑖᑯᓯᓂᒡ	-9.73281
▁ᑖᐃ	-9.73563
ᑮᕽ	-9.73573
▁ᐃᓂᓃᕽ	-9.73757
ᓂᐳᓰ	-9.73937
ᐅᓃᒑᓂᓯᒥ	-9.74051
ᑑᑖᑯ	-9.74321
ᑭᑌᓂᒫ	-9.74425
▁ᒫᒑᒃ	-9.74472
▁ᒋᐃᔖᒡ	-9.74501
▁ᐁᑮᑕᔑ	-9.74584
▁ᐁᔮᐙᒡ	-9.74597
ᐸᑭᑎᓂᑰ	-9.74761
ᐅᓈᑯᓂ	-9.75076
ᐲᑎᑫᐙᒡ	-9.75182
ᓯᐎᓐᒡ	-9.75341
ᐃᑯᔦᒃ	-9.75423
ᐴᓀᑕᒪᐙ	-9.75476
▁ᐃᔑᒋᑫᔦᒃ	-9.75501
ᓬᐆ	-9.75562
ᓂᓯᑐᑖ	-9.75578
ᐅᔑᐋ	-9.75594
▁ᒋᐙᐸ	-9.75874
ᐱᒫᑎᓯᔮᓐ	-9.75985
ᐊᓉ	-9.76045
ᑕᑫᓐ	-9.76069
ᓂᓀᒀ	-9.76117
ᑕᓰᓈᐙ	-9.76373
▁ᐊᑕᐌᓂ	-9.7669
ᕒᐄ	-9.76884
8	-9.76998
ᐊᑯᓴᑲᐙ	-9.76998
ᐸᐸᔕᔐᐅ	-9.76998
▁ᐁᐸᕒᐊᐋᒥ	-9.76998
▁ᑭᑑᔑᐲᐊᒪᐎᓂᓂᒻ	-9.76998
▁ᑭᑭᑫᑕᓰᒻ	-9.76998
▁ᑭᒋᐆᑌᓇ	-9.76998
▁ᒫᓯᑑᓂ	-9.76998
▁ᐊᑳᒥᕽ	-9.76999
▁ᒦᐗᓄᓄ	-9.76999
▁ᑳᑮᐅᒌᒡ	-9.76999
ᐸᑭᓈᑫ	-9.76999
▁ᒫᕒᑕ	-9.77
▁ᒥᓂᒀᑲᓐ	-9.77001
▁ᐃᔥᒀᑌᒻ	-9.77001
▁ᑭᑭᓄᐊᒪᐙᑲᓐ	-9.77001
▁ᐁᕒᐊᑕᓐ	-9.77003
▁ᐅᑎᐯᒋᑫᐎᓂᕽ	-9.77005
▁ᐅᑮᐅᑖᐱᓈᓐ	-9.77016
▁ᑾᔭᒀᑎᓯᐎᓐ	-9.7704
ᓃᒥ	-9.77044
ᐊᑐᒥᓀᒃ	-9.77069
ᒥᑖᒋ	-9.77088
▁ᑳᐅᓂᔑᔑᓂᓂᒃ	-9.771
ᒥᓋ	-9.77107
ᑲᑮᒀ	-9.7711
▁ᑭᒋᑮᔑᒃ	-9.77224
ᓈᑾᓯᓂᓂ	-9.77231
▁ᐅᑮᐊᑐᒫᐞ	-9.77278
▁ᒋᐃᔑᐱᒫᑎᓯ	-9.77299
ᓂᓯᑰ	-9.77309
▁ᐅᑑᓇᔓᐌᐎᓐ	-9.77374
ᓂᓯᑣ	-9.77398
▁ᐃᔑᓈᑾᓂᓂ	-9.77448
▁ᓂᑲᐃᔑ	-9.77636
▁ᑭᑌᑌᐙ	-9.77637
▁ᐅᐐᓱᐎᓐ	-9.77676
▁ᐃᑴᐗᐞ	-9.77718
▁ᔕᐌᑖᑯᓯᐗᒃ	-9.77775
▁ᑳᑮᐅᔑᑑᒡ	-9.77834
ᐱᒥᓂᔕᐊ	-9.77954
▁ᑭᑮᐅᒋ	-9.78004
▁ᒪᓯᓇᐃᑲᓐ	-9.78034
▁ᐁᔑᒋᑫᐙᒡ	-9.7808
▁ᐅᑮᓈᓯᑲᐙ	-9.78165
ᑑᓇᓐ	-9.78256
▁ᑳᐹᑏᓄᐙᒡ	-9.78306
ᐸᐸᑭᑌ	-9.784
ᑕᑭᐸᓐ	-9.78452
▁ᑖᐅᓂᔑᔑ	-9.78615
▁ᐙᐸᕽ	-9.78794
ᒦᓂᑣ	-9.78818
ᐁᒃ	-9.78954
ᑎᐹᑯᓂᐌ	-9.78993
ᒦᒋᒡ	-9.7922
▁ᐁᑮᔑᑲᒃ	-9.79372
ᓇᒥᓂᒡ	-9.7941
ᑲᔥᑭᑑᓰᓈᐙ	-9.79426
ᒪᑣ	-9.79518
ᑎᐯᓂᒫᒡ	-9.79764
▁ᑮᓃᐸᐎ	-9.79921
ᒋᒥᒥᓐᒡ	-9.79935
ᐅᑖᐱᓈᒡ	-9.8004
▁ᐁᐙᐸ	-9.80272
▁ᑲᒀᑕᑭ	-9.80342
ᑭᑫᑕᕽ	-9.80394
ᐃᑯᐙᓐ	-9.80603
▁ᐊᓅ	-9.8092
ᐅᒌᒪᑲᓂᓂ	-9.81798
ᐋᐙᓐ	-9.81897
ᐊᓂᐅᒋ	-9.81998
ᓂᐗᓂᓂᒃ	-9.82057
▁ᐃᔑᓂᔕᐅᒡ	-9.82063
ᓂᑯᐸᓀᓐ	-9.82243
▁ᑭᑌᑌ	-9.82904
ᐃᓈᓂᒡ	-9.83004
▁ᑳᑮᐅᓈᐸ	-9.83211
▁ᐅᒪᒋᑑᑕᒧᐎᓂ	-9.83449
ᓅᑌᔅᑲᑌ	-9.83558
▁ᐅᑎᔑᓂᔕᐙᑲᓇᐞ	-9.83558
▁ᐱᓀᔒᔕᒃ	-9.83558
▁ᐱᓯᑕᐎᔑᒃ	-9.83558
▁ᑭᑭᔥᑭᑲᓇᓐ	-9.83558
▁ᑭᒋᐅᔑᐲᐃᑫᐎᓐ	-9.83558
▁ᑸᐎᓭᔅ	-9.83558
▁ᒪᒋᐊᒑᑾᒃ	-9.83558
▁ᒪᒋᐊᒑᒃ	-9.83558
▁ᓂᑯᑣᓱ	-9.83558
▁ᓭᑲᕒᐋᔭ	-9.83558
▁ᑎᒫᔅᑲ	-9.83558
▁ᒞᕒᑕ	-9.83558
▁ᑮᐙᒋᑴ	-9.83558
ᐸᑯᓭᓂᒫ	-9.83558
▁ᐅᑎᔑᒋᑫᐎᓐ	-9.8356
▁ᒪᒋᑑᑕᒧᐎᓇᓐ	-9.83561
▁ᑫᑫᑦ	-9.83561
▁ᐅᑕᓇᒥᐋᐞ	-9.83562
▁ᓬᐄᐹ	-9.83563
▁ᐊᓯᓃᐞ	-9.83569
▁ᒋᐱᒫᒋᐃᐌᒡ	-9.83572
▁ᓂᑮᓅᑕᐙ	-9.83576
ᒪᓂᔑᑫ	-9.83576
ᑭᑫᓂᑎᓱ	-9.83576
ᒥᒋᓇᐌᓯ	-9.83578
▁ᐐᓯᓃ	-9.83579
ᐅᓈᑯᔑ	-9.8359
▁ᑲᑴᒋᒫᒡ	-9.83624
ᔥᑳᒃ	-9.8363
ᓯᓄᐎ	-9.83653
ᒥᓍᐸᒥᑯ	-9.83671
ᐅᑭᒫᐌᑖᑯᓯ	-9.83695
▁ᑳᐃᔑᐊᔮᓂᒡ	-9.83703
▁ᐁᐃᔑᓂᑳᑌᓂᒃ	-9.83711
▁ᓂᑮᓅᑖ	-9.83724
ᑮᔖᒋ	-9.83747
ᐃᓀᑕᒫᓐ	-9.8376
▁ᐱᓈᓯᑲᐙ	-9.83807
▁ᒥᒋᓃ	-9.83815
▁ᒥᓯᐌᑲᒥᒃ	-9.83829
▁ᐯᕒᐊᓰᐞ	-9.83837
▁ᑮᐱᐅᒋ	-9.83884
▁ᑳᐃᑭᑐᔭᓐ	-9.83923
ᒦᓂᑯᐙ	-9.83928
▁ᑮᐲᔖᐗ	-9.83991
▁ᐊᓇᒥᐋᒡ	-9.84038
ᒥᓄᑑᑕ	-9.84071
▁ᓅᔅ	-9.84145
ᐊᔮᒪᑲᒃ	-9.84184
▁ᑫᐊᐲᒋ	-9.84194
ᑭᑌᑖᑯ	-9.84238
▁ᐅᒪᔥᑲᐎᓰᐎᓂ	-9.84242
▁ᐐᑾᑎᐎᓐ	-9.84316
ᑭᑌᒃ	-9.84353
ᐊᔭᐄ	-9.84355
ᔭᑭᐸᓐ	-9.84452
ᐅᓇᑭᒥ	-9.84646
▁ᐱᒫᑎᓯᒡ᙮	-9.84825
ᐙᐸᒥᑯ	-9.85039
▁ᓂᓯᕽ	-9.85227
▁ᓂᓯᑐ	-9.85427
ᑲᐎᓭ	-9.85506
▁ᓂᓱᑮᔑ	-9.85912
▁ᐲᔖᓐ	-9.86096
ᐐᑕᒫᑫᒡ	-9.86141
ᐊᑕᐌᑕᕽ	-9.86204
ᔥᑳᒪᑲ	-9.86248
▁ᑭᑫᑕ	-9.8638
ᒦᓂᑰᔦᒃ	-9.86617
ᐅᔑᐲᐃᑳᑌᓂ	-9.86639
ᑲᔥᑭᑑᔮᓐ	-9.86664
ᔑᐌᐸᓂᓂᒃ	-9.86793
ᑲᓅᔑ	-9.86804
ᓭᓯᒃ	-9.86963
ᑕᔑᑕᒧᐙᒡ	-9.87
▁ᒋᐐᒌᐎ	-9.87099
ᐙᓭᔮᒃ	-9.87228
ᐱᓈᓯᑳᑰᐞ	-9.87243
ᐊᑕᐙᐸᒥ	-9.87362
ᑌᐺᑕᒧᐙᒡ	-9.87363
▁ᑳᐅᒌᐙᒡ	-9.87427
ᐙᐸᑖᓈᐙ	-9.87435
ᓂᒥᓀᒃ	-9.87493
ᐐᐃᔖ	-9.87814
▁ᐱᒫᒋᐃ	-9.88032
ᐙᑯᐸᓀᓐ	-9.88082
ᐐᒌᐎᑯᐙᒡ	-9.88422
ᑕᔑᑕᕽ	-9.88641
▁ᐙᐃᔑ	-9.89177
▁ᑳᑮᒦᓂ	-9.89184
ᒫᒑᔮᓐ	-9.89184
ᐴᓂᓭ	-9.89259
▁ᒋᐅᑖᐱᓇ	-9.89457
▁ᐅᑌᐺᑕᒨ	-9.89463
ᐃᑭᑐᓰ	-9.89604
ᐋᓂᑫ	-9.89677
▁ᑕᐃᔑᓭ	-9.89763
▁ᑳᐅᑯᓯᓯ	-9.89898
ᐊᔓᑕᒫᑎ	-9.90044
▁ᐃᓀᓂ	-9.90112
ᑭᒋᓂᑭᕽ	-9.9013
ᑕᐸᓰ	-9.90204
▁ᐆᑌᓈ	-9.9027
ᔐᒪᓂᑑ	-9.90271
ᐴᔥᑫ	-9.90421
ᔣ	-9.90515
ᐱᒥᑌ	-9.90532
ᑾᔭᒀᑎᓰ	-9.90577
▁ᐄᐸᕒᐆ	-9.90577
▁ᐅᑭᑭᔥᑭᑲᓇᓐ	-9.90577
▁ᐅᑾᔭᒀᑎᓰᒪᐞ	-9.90577
▁ᐅᓃᑭᐃᑰᐞ	-9.90577
▁ᐅᔕᐌᒋᑫᐎᓐ	-9.90577
▁ᐐᒋᑭᐌᔭᐞ	-9.90577
▁ᐱᓵᓀᑕᒧᐎᓐ	-9.90577
▁ᑫᐃᔥᒀᓭᓯᓄᒃ	-9.90577
ᑭᑭᓇᐙᑕᔕᑫᔣ	-9.90577
▁ᐅᕒᐆ	-9.90577
▁ᐊᓄᑮᐋᑲᓇᓐ	-9.90577
▁ᔕᔒᐯᑕᒧ	-9.90577
▁ᐸᑭᑎᓈᓱᐎᓇᓐ	-9.90578
▁ᓰᑲᐊᑖᓱ	-9.90578
▁ᓃᑕᓇᒥᐋᒃ	-9.90578
▁ᑌᐺᑕᒧᐎᓂᕽ	-9.90578
▁ᐐᔭᐤ	-9.90578
▁ᑮᐃᓀᑕᒨᒃ	-9.90579
▁ᑳᒦᓂᓀᒃ	-9.90579
▁ᓰᐲᕽ	-9.9058
▁ᐊᔓᑕᒫᑫᒡ	-9.9058
▁ᓈᓯᑳᑯ	-9.90582
ᓂᔣᓱ	-9.90585
▁ᑭᐱᒫᑎᓯᐎᓂᐙᕽ	-9.90591
▁ᐊᓯᓃᐎ	-9.90595
ᐐᑕᐱᒫ	-9.906
▁ᐐᑕᒪᐎᔑᓈᒻ	-9.90614
▁ᑭᓇᑕᐌᓂᒥᓂᓂᒻ	-9.90621
ᐅᐱᔥᑳ	-9.90623
▁ᑮᐃᓀᑕᓰ	-9.90637
▁ᓂᐲᓂ	-9.90639
▁ᐁᔑᐊᔮᓂᒡ	-9.90669
ᒪᔭᑭ	-9.90681
ᑎᐸᐃᑲᓀᔮᓂᒃ	-9.90688
ᔕᐌᓂᒥᓇᕽ	-9.90715
▁ᓭᑭᓯᑫᒃ	-9.90773
▁ᐁᐊᔮᓂᒡ	-9.9078
▁ᑭᑲᒦᓂᑯᐙ	-9.90824
▁ᑭᑭᔐᒪᓂᑑᒥᓈᓐ	-9.90879
▁ᐅᑮᐐᑕᒪᐙᐞ	-9.90883
ᑭᐸᐅᑰᔮᓐ	-9.9089
▁ᑭᑭᑫᑖᓈᐙ	-9.91043
▁ᐅᑮᓅᑖ	-9.91114
▁ᑭᐸᑯᓭᓂᒥ	-9.91131
ᑑᑕᐎᓐᒡ	-9.91376
▁ᑳᐐᐅᒋ	-9.91378
ᐅᑖᐱᓂᑳᑌ	-9.91412
▁ᐃᓇᑭᒫ	-9.91448
▁ᒋᑎᐯᑕᕽ	-9.91533
▁ᑭᔐᒪᓂᑑᓈᕽ	-9.92142
▁ᒋᐃᔑᓈᑯᓯ	-9.92294
▁ᐅᑑᒋ	-9.92562
ᐐᓈᑎᓯ	-9.92775
ᑌᐺᑕᕽ	-9.92967
ᓀᑕᒨᒃ	-9.93044
ᒋᑭᐌᔨ	-9.93502
ᐱᓯᑖᑯ	-9.93521
ᒫᒑᒡ	-9.93723
▁ᐃᔑᓂᔕᐙᑲ	-9.94332
▁ᐋᐲ	-9.94602
ᑮᐅᓀᓂᒫ	-9.9476
ᒫᒌᑑ	-9.95089
4	-9.95352
ᑮᓯᔅ	-9.95386
ᐱᒥᓂᔕᐙᐙᒡ	-9.95667
▁ᐃᔑᐌᐱ	-9.95907
ᔖᔖᑯᐌ	-9.95918
ᓀᓂᒥᑯᒡ	-9.95988
ᑎᐯᑕᕽ	-9.96134
ᒥᓍᐸᑕ	-9.96352
ᐊᔨᑎ	-9.96473
ᑎᓯᐎᓐ	-9.96648
ᑮᐌᓄᑕ	-9.96806
ᑰᓰᒻ	-9.97023
ᑲᔥᑭᐃᑯ	-9.9719
ᑭᑫᑖᒥᓐ	-9.97847
ᔑᑑᐙᒡ	-9.9789
▁ᐅᑮᑭᑫᓂᒫ	-9.97978
ᒫᑫᓐ	-9.98101
ᑭᔐᐙᑎᓯ	-9.9812
ᐅᑎᑕᕽ	-9.98124
ᐸᑾᒋᐱᑑ	-9.98127
▁ᐸᑴᔑᑲᓇᐞ	-9.98127
▁ᑳᒫᒪᐌᓄᓂᒡ	-9.98127
▁ᒎᓴᐴᓐ	-9.98127
▁ᒫᓇᒑᓂᔕᐞ	-9.98127
ᐐᑕᓄᑮᒫ	-9.98127
ᐯᐸᑳᓉᐙᓇᑭᓯ	-9.98127
▁ᐐᔭᐎᕽ	-9.98127
▁ᑳᑮᐊᔓᑕᒫᑫᒡ	-9.98127
▁ᑭᑯᓯᔅ	-9.98127
▁ᐱᓯᑲᒧ	-9.98128
▁ᓂᑑᑭᒫᒻ	-9.98128
▁ᓴᒣᕒᐃᔭ	-9.98128
ᐌᓅᑕᓂᓂᒃ	-9.98128
▁ᑲᓅᓂᑰᓐ	-9.98128
▁ᒋᑭᑫᓂᒥ	-9.98128
▁ᐁᐱᓴᔅ	-9.98129
▁ᐁᑭᑐᔦᒃ	-9.98129
▁ᑭᓀᐱᑰ	-9.98129
▁ᐯᔑᒀ	-9.9813
▁ᐅᑌᐃᕽ	-9.98131
▁ᐌᒌᒃ	-9.98131
▁ᐁᑭᑐᒡ	-9.98133
ᓃᓵᑕᐌ	-9.98134
▁ᓂᑎᓀᑕᓰ	-9.98135
▁ᐊᔓᑕᒫᑎᐎᓐ	-9.98136
ᑮᐅᑎᑎᓈ	-9.98137
ᐃᓈᐸᒋᑑ	-9.98138
▁ᑲᔥᑭᐋ	-9.98138
ᐃᔥᒀᓭᑭᓐ	-9.9814
▁ᐌᓅᑎᓯᐎᓐ	-9.98155
▁ᓂᐲᕽ	-9.98163
▁ᑳᔕᐌ	-9.98168
ᐸᓃᓐ	-9.98175
▁ᐁᑮᐃᔖᐙᒡ	-9.98178
▁ᑳᐃᓇᑌᒃ	-9.98181
▁ᐁᑎᓄᐎᔮᓐ	-9.98223
ᔥᑭᓃᑭ	-9.98228
▁ᑳᒎᐎᐎᓯᐌᒃ	-9.98243
ᑭᑫᑕᓰᓈᐙ	-9.9825
▁ᐅᐐᓱᐎᓂᕽ	-9.98256
▁ᑳᐃᓂᓐᒡ	-9.98312
▁ᒪᒫᔑ	-9.98328
ᒫᒋᓭᒃ	-9.9838
ᓅᑳᑎᓯ	-9.98394
▁ᑳᐃᔑᒫᒫᐗᒋᐃᑎ	-9.9842
▁ᑫᑮᐅᒋ	-9.98423
▁ᐅᑮᐃᔑᐎᓈ	-9.98448
ᐃᔑᐎᓈᒡ	-9.98454
▁ᐅᑌᐺᑕᒧᐎᓂᕽ	-9.98464
ᐸᐃᑎ	-9.98508
▁ᓇᑴᑕᐙᓐ	-9.98549
▁ᑲᓇᐙᐸᒥ	-9.98597
ᐌᐱᓇᕽ	-9.98666
▁ᑳᑕᓶᐙᓇᑭᓯᐙ	-9.98667
▁ᑳᐱᐅᒋ	-9.98704
ᑳᓂᐎ	-9.98755
ᑲᓅᑕᒫᑯᒡ	-9.98833
▁ᒣᑴ	-9.98868
ᑲᒀᑕᑭᐃᑣ	-9.98869
ᑎᓯᐎᓂ	-9.98894
ᐅᑖᐱᓇᒫ	-9.98992
▁ᐐᒋᐋ	-9.99019
ᑭᑭᓄᐊᒫᑰ	-9.99069
ᔮᐸᒋᑑ	-9.9917
ᓵᑭᐃᑎᔦᒃ	-9.99202
ᓇᑲᒋ	-9.99355
ᒋᔥᑲᐎ	-9.99375
ᐐᒌᐎᑯᐙ	-9.99379
ᐅᑕᐌᒫ	-9.99394
ᑭᑫᑕᒥᓂᒡ	-9.99424
ᑭᑫᑕᒨᓈ	-9.99436
ᒥᓄᑑᑖᑫ	-9.99532
ᓴᓭᑳ	-9.99558
ᑮᒥᑲ	-9.9969
▁ᑮᐊᔮᐗᓐ	-10.0058
ᐅᑕᑳᓀᓯᒡ	-10.0152
▁ᐴᓀᑕᒪ	-10.0166
▁ᐱᑾᑎᓈ	-10.0191
▁ᑳᑮᐃᔑᒋᑫᓂᒡ	-10.0198
ᒥᓉᑕᕽ	-10.0215
▁ᐙᐃᔑᒋᑫ	-10.026
▁ᑫᐃᑭᑐ	-10.0283
ᐃᔑᓂᔕᐙᒡ	-10.0296
▁ᑳᑭᑫ	-10.0329
ᔔᒥᓈᐳ	-10.036
ᑲᑭᓇ	-10.0369
ᐊᔮᒪᑲᓐ	-10.0375
ᐊᓇᒥᐁᐎ	-10.0399
ᒥᓴᐌᒋᑫ	-10.0406
ᐅᓈᐸᒫ	-10.0409
ᐌᑖᑾᓂᓂᒃ	-10.041
ᐅᓀᓂᒥ	-10.0455
▁ᐯᒫᑎᓯ	-10.0473
ᒨᒪᑲ	-10.0507
ᓀᓂᒫᒡ	-10.0507
▁ᑳᑌᐺᔦᓂᒥ	-10.051
▁ᓵᒥᓈ	-10.053
ᑕᓶᐙᓇᑭᓯ	-10.0569
▁ᑲᔥᑮᑎᐱᑲ	-10.0581
▁ᐃᔑᓂᔕᐙ	-10.0585
▁ᑳᑮᐃᔥᒀ	-10.0587
ᐊᔮᒀᒥᓯ	-10.0588
ᐲᑎᑫᔥᑳ	-10.0607
ᑖᑾᑭᓐ	-10.0613
ᐅᓇᔓᐌ	-10.0625
ᐸᔥᑴᑭᓄ	-10.0629
ᐊᒸᒡ	-10.0629
ᑭᑫᒋᑳᑌᓯᓂᓂᒃ	-10.0629
ᒥᑮᐙᐱᓀ	-10.0629
▁ᐁᐃᔑᐲᐃᑳᑌᒃ	-10.0629
▁ᐅᑕᓇᒥᐁᐎᑲᒥᑯᓃᕽ	-10.0629
▁ᐅᑲᔥᑭᐁᐎᓯ	-10.0629
▁ᐋᑲᕒᐃᐸ	-10.0629
▁ᐗᑭᒐᔭᐄ	-10.0629
▁ᐱᑾᒐᔭᐄ	-10.0629
▁ᐲᒐᔭᐄ	-10.0629
▁ᑭᑎᑳᓀᔅ	-10.0629
▁ᑳᐅᑌᐺᑕᒧᐎᓂ	-10.0629
▁ᒫᓇᒑᓂᔕᒃ	-10.0629
▁ᓂᐐᔭᐎᕽ	-10.0629
▁ᓂᓯᒥᑕᓇ	-10.0629
▁ᔔᒥᓇᐞ	-10.0629
ᐃᔥᐯᓂᑎᓱ	-10.0629
▁ᐃᓬᐃᓯᐸ	-10.0629
▁ᐅᑕᔭᐄᒥᓂ	-10.0629
▁ᑭᒋᐆᑌᓈ	-10.0629
▁ᓵᑭᐃᐌᐎᓂᕽ	-10.0629
ᐃᓍᓂᑎᓱᐙᒡ	-10.0629
▁ᐃᔅᕒᐃᔭᓬᐃᑳᕽ	-10.0629
▁ᑳᑮᒦᔑᔭᓐ	-10.0629
▁ᓂᐐᔭᐤ	-10.0629
▁ᓂᑎᓄᐤ	-10.0629
▁ᑳᑮᐅᒌᓂᒡ	-10.0629
▁ᐙᓴᑯᓀᒋᑲᓐ	-10.0629
▁ᐁᑕᕒᐆ	-10.0629
ᔒᐎᑖᑲ	-10.0629
ᐱᓂᔅᑴ	-10.0629
▁ᐅᑕᔓᑕᒫᑫᐎᓐ	-10.063
▁ᑕᐃᑕᔅ	-10.063
ᒫᒋᓂᔕᐙ	-10.063
▁ᐅᑭᑭᓄᐊᒪᐙᑲᓇᓐ	-10.063
ᑾᔮᒌ	-10.063
▁ᐋᐃᓯᒃ	-10.063
ᓇᑭᔥᑲᐙ	-10.063
▁ᐅᓂᔥᑳᑎᓯᐎᓐ	-10.063
▁ᐃᓈᑯᓂᑫᐎᓇᓐ	-10.063
▁ᐃᓉᐎᓐ	-10.063
▁ᑕᔭᕒ	-10.063
▁ᐃᓈᑯᓂᑫᐎᓂᕽ	-10.063
▁ᐅᑕᓇᒥᐋᒃ	-10.063
▁ᐁᓀᑕᒫᓐ	-10.0631
ᓃᐸᐎᐙᒡ	-10.0631
▁ᑲᑴᒋᒫᐞ	-10.0631
ᐸᓭᓂᒧ	-10.0631
▁ᑳᐙᐱᓯᓂᒃ	-10.0631
▁ᐅᑮᐃᑯᐙᓐ᙮	-10.0631
ᒪᑕᐐ	-10.0632
ᓇᒥᐁᑕᐎᓐᒡ	-10.0633
ᐸᔭᑌ	-10.0633
▁ᒎᑕᓴᓐ	-10.0634
▁ᑭᒋᑲᒻ	-10.0635
ᐗᐌᔑ	-10.0635
▁ᑳᐋᑯᓯᓂᒡ	-10.0635
▁ᑳᑮᐃᑭᑐᑯᐸᓀᓐ	-10.0635
▁ᑕᑯᔑᓄᐙᒡ	-10.0636
▁ᐙᐸᓄᕽ	-10.0636
ᑮᓈᑯᓰ	-10.0638
▁ᑭᑎᓂᓐ	-10.0638
ᐱᓱᑫ	-10.064
ᒪᑲᑌ	-10.0641
▁ᓈᓯᑲᐎ	-10.0641
ᒥᓴᐌᑕᒫᓐ	-10.0643
▁ᓇᑲᓈᒡ	-10.0646
ᐃᔑᐎᓈᐙᒡ	-10.0647
▁ᐅᓇᔓᐌᐎᓇᓐ	-10.0649
ᐊᓄᑳᑕ	-10.0655
ᐗᑮᕽ	-10.0656
▁ᐁᔑᑖᓂᒡ	-10.0657
▁ᐅᑌᒐᓬᐃᒪᐞ	-10.066
ᕒᐃᔅ	-10.0664
ᑭᑫᑕᒪᕽ	-10.0665
▁ᑭᑭᓄᐊᒫᑫᐎᓐ	-10.0679
▁ᐅᑭᒋᓂᑭᕽ	-10.0682
ᒨᒋᑫᑕ	-10.0694
ᒦᑭᐙ	-10.0695
▁ᐙᓭᔮᕽ	-10.072
ᐱᒫᒋᐃᑣ	-10.073
ᑲᓇᐌᑕᒧᐙᒡ	-10.0742
ᑑᑕᐎᑣ	-10.0748
ᐅᑎᓯᓇᑰᒃ	-10.075
ᒪᒋᒥᓴᐌ	-10.0754
▁ᐃᔑᒋᑫᐎᓇᓐ	-10.0759
ᓅᑖᑯᓯᒡ	-10.0763
ᑕᒪᐎᓇᕽ	-10.0792
ᓅᑖᑯᑑ	-10.08
ᐲᔖᓂᒡ	-10.0833
ᑰᐹᑌᓂᒥ	-10.0835
ᐐᓯᓂᓂᒡ	-10.0856
ᑎᓱᔦᒃ	-10.0857
▁ᓯᓬ	-10.0871
ᐃᔑᓭᓯᓅᓐ	-10.0898
▁ᐁᑭᑫᓂᒫ	-10.0902
ᑕᔑᑕᒫᓐ	-10.1034
ᑌᐺᑕᓰ	-10.1139
ᒣᒀᔥᑲ	-10.1171
ᐙᐸᒥᑰᐞ	-10.1238
ᐅᓂᔑᔑᕽ	-10.1244
ᐱᐴᓐ	-10.125
ᐅᓵᐎ	-10.1274
▁ᑭᑭᓄᐊᒫ	-10.1295
ᐐᐃᔑ	-10.1327
ᐐᑕᒪᐙᐙᒡ	-10.1339
▁ᑳᑎᐯᑕ	-10.134
ᐃᓀᓂᑎᓱ	-10.1365
ᑭᒫᐎᒡ	-10.1396
ᓃᐸᐎᒡ	-10.1397
▁ᒋᒦᒋ	-10.141
ᓇᑴᑕᐙᐞ	-10.1428
ᑲᑴᐃᔑ	-10.1433
▁ᐅᑌᒐᓬᐃᒪ	-10.1485
ᐃᑯᔮᓐ	-10.1487
▁ᑌᓴᓬᐊᓇᐃ	-10.1519
ᐅᑳᐎᒥᓇᑲᔒ	-10.1519
ᐸᑯᓭᓂᒧ	-10.1519
ᑯᑖᓀᑖᑾᒃ	-10.1519
ᒥᑯᔥᑳᒋᐃ	-10.1519
▁ᐁᐃᑭᑐᓂᒡ	-10.1519
▁ᐁᔑᐲᐃᑳᑌᓂᒃ	-10.1519
▁ᐅᑌᒐᓬᐃᒥᓂ	-10.1519
▁ᐅᒥᔅᑸᒥ	-10.1519
▁ᐅᒥᔅᑸᒻ	-10.1519
▁ᐊᔕᐙᐱᒃ	-10.1519
▁ᐗᓇᑯᔕᒃ	-10.1519
▁ᑫᐴᓂᓭᓯᓂᓂᒃ᙮	-10.1519
▁ᑳᐃᑭᑑᒪᑲᒃ	-10.1519
▁ᑳᐅᒋᑎᐯᑖᑯᓯᐙᒡ	-10.1519
▁ᒣᒥᑕᑫ	-10.1519
▁ᒥᓈᑾᐅᓐ	-10.1519
▁ᒥᔅᑸᓂ	-10.1519
▁ᒫᓇᒑᓂᔐᓴ	-10.1519
▁ᓂᓃᒑᓂᓴᒃ	-10.1519
▁ᓂᓇᑕᐌᓂᒫ	-10.1519
▁ᓃᒋᑭᐌᔭᒃ	-10.1519
▁ᓭᐸᑏ	-10.1519
▁ᓵᐃᓬᐊᓴᓐ	-10.1519
ᓵᑲᐊᒻ	-10.1519
▁ᐅᐱᒫᒋᐃᐌ	-10.1519
▁ᐅᑎᓀᑕᒧᐎᓂᐙ	-10.1519
▁ᑭᑭᑭᓄᐊᒪᐙᑲᓇᒃ	-10.1519
▁ᑲᓇᐌᒋᑫᐎ	-10.1519
▁ᒥᔅᑶ	-10.1519
ᐅᒻᐺᑲᒥᑭᓯ	-10.1519
▁ᑲᐸᕒᓂᔭᒦᕽ	-10.1519
▁ᓭᑕᓇᓐ	-10.1519
ᐐᐸᑲᒥᑳ	-10.1519
ᒪᐗᑎᓯ	-10.1519
▁ᐃᔅᑏᐱ	-10.1519
▁ᐃᔥᒀᑌᒪᓐ	-10.1519
▁ᑮᐃᑎᐗᒃ᙮	-10.1519
▁ᐋᓇᓈᔭᔅ	-10.1519
▁ᐸᑭᓯᑭᓐ	-10.1519
▁ᐲᓬᐃᑭ	-10.1519
▁ᒪᓂᑑᑳᓇᒃ	-10.1519
▁ᑾᔭᑾ	-10.1519
ᐃᓈᐸᑕᓯᓅᓐ	-10.1519
ᒪᔥᑲᐌᑕᒧ	-10.1519
ᓃᓇᒥᓯ	-10.1519
▁ᑳᐃᔑᓂᑳᓱᓂᒡ	-10.1519
▁ᐅᑎᐹᒋᒧᐎᓂᓂ	-10.1519
ᓵᑲᐊᕽ	-10.1519
ᐋᐸᒋᑑᓐ	-10.1519
▁ᐊᓇᒥᐁᐎᑲᒥᒃ	-10.1519
▁ᑌᒥᓂᒃ	-10.1519
ᐐᑕᓄᑮᒥ	-10.1519
▁ᐁᓀᑖᑾᓂᓂᒃ	-10.1519
ᐗᓂᔥᑴ	-10.1519
ᑌᐺᔦᑕᕽ	-10.1519
▁ᓵᐃᑕ	-10.1519
ᐲᑯᐱᑑ	-10.152
▁ᑲᑴᒋᒫᐙᓐ	-10.152
▁ᑳᒥᓍᐸᑕᕽ	-10.152
▁ᑳᑎᐸᐃᑫᐃᐌ	-10.152
▁ᐅᒦᒦ	-10.152
ᑲᔥᑮᑮᐎᓐ	-10.152
ᓇᐁᑕᒥᐋ	-10.152
▁ᐋᑕᒻ	-10.152
▁ᐃᔑᓂᑳᓱ	-10.152
▁ᐊᐯᓂᒧᐎᓐ	-10.1521
▁ᐅᑖᐱᓇᓐ	-10.1521
▁ᐱᔑᑭ	-10.1522
▁ᑳᑭᑎᒫᑭᓯᐙᒡ	-10.1522
▁ᐱᔑᒀᑎᓯᐎᓐ	-10.1523
▁ᑳᐃᔑᓈᑯᓯᐙᒡ	-10.1527
ᒪᑲᓯᓂᓂ	-10.153
ᑭᑭᓄᐊᒫᑯᐙ	-10.1532
▁ᑭᒫᒫ	-10.1532
ᓵᑭᒋᐌᐱᓈ	-10.1553
▁ᐅᑮᐙᐸᒫᐙᓐ	-10.1558
▁ᒋᐱᒫᑎᓯᒡ	-10.1559
ᓵᑭᐁᒀ	-10.156
ᐐᒌᐎᓂᓂᒻ	-10.1562
ᑕᔑᒥᑰ	-10.1568
ᑲᔥᑮᑎᐱᑲᓂᓂᒃ	-10.1572
ᐊᑕᐌᓂᒫᒡ	-10.158
▁ᑳᑮᐊᔓᑕᒪ	-10.1581
ᑮᓂᓯᑯ	-10.1585
ᓃᑳᓀᑖᑯ	-10.1595
ᒥᓇᐋ	-10.1595
ᑑᑕᐎᓀᒀ	-10.1596
ᑭᑫᑕᓯᒃ	-10.1596
ᓬᐁ	-10.1606
ᐅᓈᑯᓈ	-10.1606
ᓇᑭᑣ	-10.1617
▁ᐅᑑᓇᔓᐌ	-10.1624
ᒥᓄᑑᑖ	-10.1633
▁ᑫᐃᑭᑐᔦᒃ	-10.1634
▁ᒋᓈᓈᑲᒋ	-10.1635
ᐊᐲᑌᑖᑾ	-10.164
ᒥᑯᐙᒡ᙮	-10.1648
ᐃᔑᓈᑯ	-10.1697
ᑌᐺᑕᐌᒃ	-10.1713
ᓵᒥᓈᒡ	-10.172
▁ᑳᐙᐸ	-10.1747
▁40	-10.1753
ᒥᓉᑕᒥᐃ	-10.1771
ᑕᒫᑫᒡ	-10.1855
ᐅᒌᐙᒡ	-10.1921
ᐙᐸᑕᒥᓂᒡ	-10.1925
ᒋᐸᑭᑎᓂ	-10.1941
ᓂᒥᓂᓂᒻ	-10.1961
ᒪᓈᒋ	-10.1969
ᑕᓯᕽ	-10.1979
▁ᑳᐃᑭᑐ	-10.1995
ᑎᐹᑐᑖ	-10.2015
▁ᒋᒪᓈ	-10.2044
ᑑᑕᐎᒃ	-10.2097
ᐃᔥᒀᓭᒃ	-10.2109
ᔖᑯᐌᐗᒃ	-10.2122
▁ᑭᓵᑭ	-10.2173
▁ᐁᓈᓴᒦ	-10.2181
ᐯᔑᒃ	-10.2184
ᑕᒪᐎᒃ	-10.2197
▁ᑳᓃᑳᓀᑖᑯᓯ	-10.22
ᐊᔮᒀᒥᒫ	-10.2249
ᔥᑳᑯᓈᐙ	-10.2255
▁ᐯᕒᐊ	-10.2265
ᑲᓅᓂᓇᑰᒃ	-10.2297
ᐙᐸᒋᑳᑌ	-10.2345
ᔕᐌᓂᒫ	-10.2355
ᒋᔥᑳ	-10.2365
ᑳᒋᑎᓈ	-10.2365
ᒦᑳᓈ	-10.2365
ᐸᑭᑎᓂᑳᑌ	-10.2384
ᑕᔑᑌᓂᒃ	-10.2412
ᑮᐊᓇᒥᐁ	-10.2417
ᐲᔖᔮᓐ	-10.2434
▁ᐌᐱᓇ	-10.2442
ᐺ	-10.2462
▁ᑳᑮᐊᓂ	-10.2469
ᑭᐸᐅᑰ	-10.2471
ᑎᐸᐃᑲᓀᔮ	-10.2479
ᒫᐗᒋᐃᑎᔦᒃ	-10.249
▁ᓈᓴᕒᐃ	-10.2493
ᐸᐃᑲᓐ	-10.2493
ᓇᓈᑯᒧ	-10.2494
▁ᐹᑏ	-10.2494
▁ᓂᑖᐸᒋ	-10.2494
ᐸᐹᐱᓯᔅᑫᑕ	-10.2495
ᐅᒋᒌᑾᓇᐱ	-10.2495
ᐱᔑᒀᒋᑴ	-10.2495
ᑭᔐᐹᐗᑲᓂᓂᒃ	-10.2495
ᓵᑲᐊᒥᓂᒡ	-10.2495
ᔾ	-10.2495
▁ᐅᐐᔭᐎᕽ	-10.2495
▁ᐅᑌᐃᐙᕽ	-10.2495
▁ᐅᑭᒋᐅᑭᒫᒥᐙᓐ	-10.2495
▁ᐅᒥᓍᑎᓰ	-10.2495
▁ᐅᒥᔅᑸᓂ	-10.2495
▁ᐊᓄᑮᐋᑲᓇᒃ	-10.2495
▁ᐋᓬᐃᑭᓵᑕᕒ	-10.2495
▁ᐯᑕᓬᐃᐁ	-10.2495
▁ᐯᑳᓂᓯᐙᒡ	-10.2495
▁ᐱᑾᑕᑲᒥᑳᕽ	-10.2495
▁ᐹᕒᓇᐸᓴᓐ	-10.2495
▁ᑫᓅᑕᒪᐙᐙᒡ	-10.2495
▁ᑭᑫᑌᔭᐋᒥᓈᐸᓃᒃ	-10.2495
▁ᑭᑲᐐᒌᐎᑯᒻ	-10.2495
▁ᑭᒪᒋᑑᑕᒧᐎᓂᓈᓂᓐ	-10.2495
▁ᑳᐅᔥᑳᑎᓯ	-10.2495
▁ᑳᐅᔫᓯᒥᒥᓐᒡ	-10.2495
▁ᑳᐱᒫᒋᐃᓇᕽ	-10.2495
▁ᓂᑭᔐᒪᓂᑑᒻ	-10.2495
▁ᓬᐋᓴᕒᐊᔅ	-10.2495
▁ᓵᐃᒪᓇᓐ	-10.2495
▁ᓵᐃᓬᐊᔅ	-10.2495
▁ᓵᑲᐃᑲᓐ	-10.2495
6	-10.2495
▁ᐁᓇᓄᑮ	-10.2495
▁ᒌᑲᔭᐄ	-10.2495
▁ᑭᒪᒋᑑᑕᒧᐎᓂᐙᓐ	-10.2495
▁ᐁᐃᔑᓂᑳᓱᒡ	-10.2495
▁ᐗᑸᕽ	-10.2495
▁ᔂᓬᐊᒪᓐ	-10.2495
ᒪᑲᑗ	-10.2495
▁ᓂᑎᓀᑕᒻ	-10.2495
ᐃᓈᐸᑎᓯ	-10.2495
▁ᐁᑭᑐᔮᓐ	-10.2495
▁ᐅᓈᑯᔑᓂᓂᒃ	-10.2495
ᒪᔥᑲᐎᑳᐸᐎᔦᒃ	-10.2495
▁ᐁᑭᑑᒪᑲᒃ	-10.2495
ᒦᑴᒋᐎ	-10.2495
ᐅᑑᑌᓈᒥ	-10.2495
▁ᑮᒋᐱᒫᑎᔅ	-10.2495
▁ᔖᐗᓄ	-10.2495
ᑮᔖᐯᐎ	-10.2495
▁ᓂᑖᓇᑮ	-10.2495
▁ᑌᓄᐎ	-10.2495
ᑭᑭᓇᐙᒋᐃ	-10.2496
▁ᐐᑕᓇᒥᐋᓐ	-10.2496
▁ᐊᐌᒋᑫᐎᓐ	-10.2496
▁14	-10.2496
▁ᐅᐐᓱᐎᓂᓃᕽ	-10.2496
▁ᑭᑌᐺᔦᑕᒧᐎᓂᐙ	-10.2497
ᔖᑲᓱ	-10.2497
ᑭᓀᐱᑯ	-10.2497
▁ᒫᒌᔮᔑ	-10.2497
▁ᑫᔭᐸ	-10.2497
ᐋᓍᐸ	-10.2498
▁ᐁᔑᓈᑯᓯᐙᒡ	-10.2498
ᒥᓍᑎᓯ	-10.2498
▁ᐊᓇᒥᐋᐎᓂᕽ	-10.2498
▁ᑳᑎᐯᑕᒥᓂᒡ	-10.2499
ᔥᑳᓂᒃ	-10.2499
▁ᑕᓱᑮᔑᒃ	-10.2499
▁ᐃᓂᓃᑳᕽ	-10.25
▁ᓭᑭᓯᑫᓐ	-10.25
▁ᐌᒌᒪᑲ	-10.2501
ᓰᑭᓈᓐ	-10.2502
ᑭᑌᓂᒧ	-10.2502
ᐸᑭᑕᐙ	-10.2503
▁ᐅᑮᒥᑲᐙ	-10.2503
ᑌᐺᐎᓂᐎ	-10.2505
▁ᑲᑴᒋᒫᓐ	-10.2505
ᑭᑑᒪᑲᓂᓂᒃ	-10.2505
▁ᑭᑫᑕᒧᒃ	-10.2506
▁ᐊᓇᒥᐋᐎᓐ	-10.2508
▁ᒋᐯᑭ	-10.2509
ᐲᐊᒫ	-10.2509
▁ᐁᑾᔭᒀᑎᓯᒡ	-10.251
▁ᓂᑮᐊᓂ	-10.251
▁ᑑᑖ	-10.251
ᑲᑮᑖᐌᑕᕽ	-10.2511
▁ᐁᐃᓈᐙᒡ	-10.2512
▁ᑳᐃᔑᑖᓂᒡ	-10.2512
ᕒᐄᔭ	-10.2513
ᑯᑖᓀᓂᒫ	-10.2513
▁ᐱᑕᑯᔑᓂᓂᒡ	-10.2517
▁ᑳᓵᑭᐋᒡ	-10.2517
ᒥᓴᐌᑕᕽ	-10.2521
▁ᑮᐃᔑᓂᑳᓱᐗᓐ	-10.2524
▁ᑕᐹᑏᓄᐗ	-10.2529
▁ᑳᑮᐃᓈᑯᓂ	-10.2534
▁ᑾᔭᑯᒋᑫ	-10.2535
▁ᓂᔑᑫ	-10.2537
ᒋᑳᑌᓯᓅᓐ	-10.2543
ᐸᒦᑕ	-10.2544
▁ᒌᑭ	-10.2556
ᑭᑫᑕᓯᒀ	-10.2566
ᒥᓉᑕᒧᐙᒡ	-10.257
ᐊᓄᑮᑕᐙᒡ	-10.2571
▁ᑲᐯᔑ	-10.2578
ᒥᓄᐐᒌᐎ	-10.258
ᐐᒋᐃᒃ	-10.2583
ᑭᑭᓄᐃᑫᐎᓇᓐ	-10.2603
▁ᐃᔑᐌᐸ	-10.2621
ᐐᑑᑲ	-10.2628
ᓂᓵᒡ	-10.2673
ᐙᓀᓐ	-10.2706
ᓅᑕᒪᐙᓂᒡ	-10.2734
ᐃᔑᐌᐱᓯᐙᒡ	-10.2759
ᐅᔑᒋᑳᑌᓂᒃ	-10.2766
ᐅᒌᒪᑲᓐ	-10.2779
ᑑᑕᐎᓀᒃ	-10.278
▁ᐊᑐᒥ	-10.279
▁ᐅᒦᑭᐌᐎ	-10.2816
ᐱᓀᓯᐗ	-10.2888
ᓴᓇᑭ	-10.2926
▁ᐱᒥᓂᔕᐙ	-10.2948
ᑭᐸᐊ	-10.2948
▁ᐃᔑᒫᒑ	-10.2953
ᒋᑫᒪᑲᓂᓂ	-10.3011
ᒪᑲᒫ	-10.3033
ᒥᓴᐌᑕᒧᐙᒡ	-10.3037
▁ᒋᓂᔑᐗᓈᑕ	-10.3041
▁ᑭᑮᒦᓂᑯ	-10.3084
ᐹᐱᓄᑕᐙ	-10.3099
ᒪᐙᐙ	-10.3155
▁ᑕᐃᑭᑐ	-10.3163
ᑑᑕᒻ	-10.3183
▁ᐁᒣᓐ	-10.329
ᑰᐹᑌᓂ	-10.331
ᐅᑕᒥ	-10.3317
ᐅᑭᒫᐗᐱ	-10.3322
ᑲᓅᓂᓀᒃ	-10.3327
▁ᑳᑭᑫᓂᒫᓯ	-10.3339
ᑮᐃᔑᓂᔕᐙ	-10.3467
ᑕᐙᓯᐙᐙ	-10.3492
ᑕᒪᐎᓈᓐ	-10.3543
ᐙᐸᑕᒧᐙ	-10.3559
▁ᒋᐱᓯᑕ	-10.356
▁ᑌᐺᔦᓂᒥ	-10.3567
▁ᐊᔭᐋ	-10.3573
ᐅᒑᓂᒣᑕ	-10.3577
ᐐᑾᑎᐗᑲᒥᑭᓯ	-10.3577
ᑭᓰᐲᑭᓯᑌ	-10.3577
ᒪᒫᒋᑾᐱᓱ	-10.3577
ᒫᔑᒥᑕᑎᒨ	-10.3577
ᓇᒪᑎᓂᑭᕽ	-10.3577
ᔖᐾᐃ	-10.3577
▁ᐃᔅᑫᕒᐃᔭᑦ	-10.3577
▁ᐅᑌᔥᑲᓇᐞ	-10.3577
▁ᐅᑎᔑᓂᑳᓱᐎᓂᓃᕽ	-10.3577
▁ᐅᑎᔑᓂᔕᐙᑲᓇᓐ	-10.3577
▁ᐅᑕᒑᑯᕽ	-10.3577
▁ᐅᑭᑭᔥᑭᑲᓂᓂ	-10.3577
▁ᐅᒥᓍᒋᒧᐎᓐ	-10.3577
▁ᐋᐃᓯᑰᓐ	-10.3577
▁ᐋᐌᒋᑲᓇᓐ	-10.3577
▁ᐙᐱᔥᑮᑭᓐ	-10.3577
▁ᐱᓬᐊᐴᓐ	-10.3577
▁ᐸᑭᑎᓈᓱᐎᓈᐱᑯᕽ	-10.3577
▁ᑑᐳᐎᓈᑯᕽ	-10.3577
▁ᑕᔕᐌᑖᑯᓯ	-10.3577
▁ᑫᑎᒫᑭᓯᐙᒡ	-10.3577
▁ᑭᑎᑳᓈᑎᑯᑳᕽ	-10.3577
▁ᑭᑑᔑᐲᐊᒪᐎᓐ	-10.3577
▁ᑭᒋᒪᓯᓇᐃᑲᓂᕽ	-10.3577
▁ᑰᑰᔕᐞ	-10.3577
▁ᑳᐅᑕᑳᓀᓯᔭᓐ	-10.3577
▁ᑳᒥᑖᔑᓃᔑᓂᒡ	-10.3577
▁ᒉᑲᐴᓐ	-10.3577
▁ᒥᓍᒋᒧᐎᓂᓂ	-10.3577
▁ᒥᔅᑸᕽ	-10.3577
▁ᓬᐋᓴᕒᐊᓴᓐ	-10.3577
▁ᓵᑭᒐᔭᐄ	-10.3577
▁ᔖᐳᔥᑳ	-10.3577
ᐐᒋᐐᓯᓃᒫ	-10.3577
ᔕᔒᐯᑕᒣᒃ	-10.3577
▁ᐅᑎᓈᑯᓂᑫᐎᓂᓂ	-10.3577
▁ᑭᑕᓄᑮᐋᑲ	-10.3577
▁ᑳᑌᐺᑕᓯᒀ	-10.3577
▁ᓴᑭᓂᑫᓈ	-10.3577
ᐅᐲᐌᓰᒥ	-10.3577
ᐋᐸᒋᑑᓇᓐ	-10.3577
▁ᐅᑭᑎᑫ	-10.3577
▁ᑫᑌᐃᓈᑎᓯᐎᓐ	-10.3577
ᒥᓍᒋᐋ	-10.3577
▁ᐃᑴᓭᓴᓐ	-10.3577
▁ᐅᑭᔐᐙᑎᓯᐎᓂᕽ	-10.3577
▁ᐯᕒᐊᓰᐎᓂᓂᐗᒃ	-10.3577
▁ᒌᐯᑲᒥ	-10.3577
▁ᑫᓅᑕᒫᑯᒡ	-10.3577
▁ᐅᓂᔑᔑᓐ	-10.3577
ᐊᔮᒀᒥᒥ	-10.3577
▁ᓂᑮᒥᑲᐙ	-10.3577
▁ᑭᑭᓄᐊᒪᐙᑲᓇᐞ	-10.3577
▁ᒥᑎᑰᓐ	-10.3577
▁ᒥᓋᑭᒥ	-10.3577
▁ᓇᑴᑖᑯᒡ	-10.3577
ᑕᐸᓭᑖᑯᓯ	-10.3577
▁ᑮᓅᑕᒨᒃ	-10.3577
ᑆᓇᐎᒋᑫ	-10.3577
ᐙᑳᐃᑫ	-10.3577
▁ᑳᑎᐯᓂᒥᒥᓇᕽ	-10.3577
▁ᑳᐃᓀᑕᒧᐙᒡ	-10.3577
▁ᑳᓂᑖᐎᑭᑭᓐ	-10.3577
▁ᐅᑭᒫᐎᐎᓐ	-10.3577
▁ᐅᑲᓅᑕᒫᑫ	-10.3577
▁ᐁᓀᑖᑾᒃ	-10.3578
▁ᐅᑕᐗᑳ	-10.3578
▁ᒀᕒᐃ	-10.3578
ᓂᐴᒪᑲᒃ	-10.3578
ᐊᑮᐗᕽ	-10.3578
ᑌᐸᑫᑖᑯᓯ	-10.3578
▁ᑌᐺᔦᑕᒧᐎᓂᕽ	-10.3578
▁ᐁᓀᑕᒣᒃ	-10.3579
ᑲᓅᓂᓂᓂᒻ	-10.3579
▁ᓂᐱᒫᑎᓯᐎᓐ	-10.3579
ᐯᐸᑳᓂᑮᔗ	-10.3579
▁ᑕᓱᐱᐴᓐ	-10.3579
▁ᓅᑎᓐ	-10.3579
ᑲᓅᓂᑰᐞ	-10.3579
▁ᐅᐐᔭᐎᓂ	-10.3579
▁ᒋᑎᐯᓂᒥᓀᒃ	-10.3579
▁ᑳᑕᓶᐙᓇᑭᓯᓂᒡ	-10.358
ᐊᔕᒫᒡ	-10.358
▁ᒣᓬᑭᓯᑌᑰᓐ	-10.3581
▁ᐲᑕᕒᐊᓐ	-10.3581
▁ᐆᑌᓈᑳᕽ	-10.3581
ᐋᓇᐌᒋᑫ	-10.3582
ᓇᑳᔥᑲ	-10.3582
▁ᐁᓀᑕᕽ	-10.3582
▁ᑲᔥᑭᒫ	-10.3583
▁ᑸᐎᓭᓴᓐ᙮	-10.3583
▁ᓂᒫᒫ	-10.3585
ᒫᒦᓄ	-10.3585
ᔒᑫᓂᒥᓀᒀ	-10.3587
ᑸᓇᐎ	-10.3588
▁ᑫᐊᓂ	-10.359
▁ᐅᑌᐺᑕᒧᐎᓂ	-10.3592
▁ᑳᑭᑭᔥᑳᑯ	-10.3594
ᐐᑕᒫᑰᒻ	-10.3596
▁ᐊᓇᒥᐋᒃ	-10.3597
▁ᑰᓯᐙ	-10.3601
ᑭᑫᑖᑾᒃ	-10.3602
ᐃᔥᑯᓭ	-10.361
ᑭᑭᓇᐙᑕᔕᑫᔓᑰ	-10.3611
▁ᑭᑮᓅᑖ	-10.3624
ᓇᑲᔑ	-10.363
ᐃᔑᐎᓂᓐᒡ	-10.3635
ᐙᐸᒥᔦᒃ	-10.3638
▁ᑳᐯᑭ	-10.3644
ᐅᑎᓇᕽ	-10.3649
ᐅᑭᑭᓄᐊᒪᐙᑲ	-10.3655
▁ᑮᓇᑴᑕ	-10.3679
ᐋᐌᒋᑫ	-10.3681
▁ᑫᓂᔑᐗᓈᒋ	-10.3683
ᓂᓯᑕᐎᓈ	-10.3689
▁ᐁᒦᑳ	-10.3716
ᐐᒌᐎᑰᐞ	-10.3748
ᑌᐺᑕᓯᓂᒃ	-10.3763
ᒪᓂᑑᑳ	-10.3851
ᐙᐸᑕᒫᓐ	-10.3867
ᓈᑕᒪᐎ	-10.3868
ᓇᑲᓂᑯᒡ	-10.387
▁ᒋᒥᓍᐸᒥ	-10.3887
▁ᑳᑮᐅᓈᐸᒥᑯ	-10.3942
ᓈᑾᓯᓅᓐ	-10.3945
▁ᑳᐃᓀᓂ	-10.3958
ᐐᑕᒪᐙᐞ	-10.3962
ᒫᓀᑕᒥ	-10.3979
▁ᔕᐌᓂᒥ	-10.3992
▁ᐅᑌᐺᑕᒧ	-10.4
ᑲᒥᑲ	-10.4043
▁ᑳᑎᐯᓂ	-10.4051
ᐃᔑᓈᑯᓯᔮᕽ	-10.407
ᐃᔑᒋᑫᔦᑭᐸᓐ	-10.4095
▁ᐱᓈᓯᑳᑰ	-10.4124
ᐃᑭᑐᒡ	-10.4189
ᒌᑫᑕᒻ	-10.4194
ᔨᔑᓭ	-10.4207
ᐴᔔᐋ	-10.4209
▁ᓂᐙᑳᐃᑲ	-10.4224
ᐅᓂᔑᔑᓯᓅᓐ	-10.4248
ᐋᐸᒋᑑᐙᒡ	-10.4277
ᐐᒌᐎᓀᒃ	-10.4281
▁ᑭᑕᓇᒥ	-10.4382
ᑲᓅᒋᑫᑕ	-10.4434
ᐸᓯᑸ	-10.4459
ᐱᓵᓂ	-10.4563
▁ᓇᑲᓂ	-10.4597
▁ᐅᑭᑫᓂᒫ	-10.461
ᒦᓂᑯᓈ	-10.4659
ᐃᔥᒀᓭᓂᒃ	-10.4743
ᒋᐊᔭᐋᐎ	-10.4764
ᑭᑫᑖᒻ	-10.4765
ᒋᒫᒥᑲᐎᔦᒃ	-10.4787
ᐸᔕᔐᐙ	-10.4789
9	-10.479
ᐅᑕᓄᑮᐋᑲᓂᒥ	-10.479
ᐐᓴᑳᐱᓀ	-10.479
ᐙᓭᔮᓂᒃ	-10.479
ᐱᒫᑎᓰᔥᑳᑫᒪᑲ	-10.479
ᑌᐱᓇᒫᓱ	-10.479
ᑕᐱᔑᒧᓐ	-10.479
ᒪᔥᑲᐌᑕᒣᒃ	-10.479
ᒫᒪᑳᑌᑕᒻ	-10.479
ᓅᑕᔮᐹᑴ	-10.479
ᓈᓂᒥᑕᓇ	-10.479
▁ᐅᐐᑎᑫᒫᑲᓂᓂ	-10.479
▁ᐅᐐᑎᑫᒫᑲᓇᓐ	-10.479
▁ᐅᐐᔭᐎᐙᓐ	-10.479
▁ᐅᐱᒣᔭᐄ	-10.479
▁ᐅᑌᒐᓬᐃᒥᐙ	-10.479
▁ᐅᑑᑭᒫᐎᐎᓐ	-10.479
▁ᐅᑭᒋᐊᓇᒥᐁᐎᑲᒥᒃ	-10.479
▁ᐅᑲᓇᐎᒫᓇᒑᓂᔑᐌ	-10.479
▁ᐅᓇᑕᐌᓂᒫ	-10.479
▁ᐊᑆᓬᐊᔅ	-10.479
▁ᐊᔭᐋᐎᔕᒃ	-10.479
▁ᐌᑕᑳᓀᓯ	-10.479
▁ᐗᓇᑯᔕᐞ	-10.479
▁ᐸᕒᐋᐸᔅ	-10.479
▁ᐹᐱᓬᐊᓐ	-10.479
▁ᑎᐱᑭᑮᓯᔅ	-10.479
▁ᑭᑫᑌᔭᐋᒥᓈᐸᓃᐞ	-10.479
▁ᑭᑭᔐᑉ	-10.479
▁ᑭᔥᑮᔑᑰᓐ	-10.479
▁ᑳᐅᑕᑳᓀᓯᐙᒡ	-10.479
▁ᑳᐸᒦᑖᑫᒡ	-10.479
▁ᑳᑲᑮᐹᑎᓯ	-10.479
▁ᑳᑲᔥᑭᐁᐎᓯ	-10.479
▁ᒪᐎᓀᔥᑲᐙ	-10.479
▁ᒪᒋᑫᑰᓇᓐ	-10.479
▁ᒪᒋᑭᑎᑳᓇᓐ	-10.479
▁ᒫᓯᑑᓂᔮᐗᑮᕽ	-10.479
▁ᓈᐯᐹᑲᐋᒀᓐ	-10.479
▁ᓵᐃᐸᕒᐊᔅ	-10.479
▁ᔑᒫᑲᓂᔕᓐ	-10.479
▁ᔔᒥᓈᑎᒃ	-10.479
ᐸᓯᑴᐱᓱ	-10.479
ᓂᓱᑮᔑᑾᑳᒃ	-10.479
▁ᐅᑎᑭᑐᐎᓂᐙ	-10.479
▁ᐅᑕᔭᐄᒪᓐ	-10.479
▁ᐅᒋᑎᐯᑖᑯᓯ	-10.479
▁ᑭᒋᐊᓇᒥᐁᐸᒀᓀᑲᒥᑯ	-10.479
▁ᑮᐅᑯᓯᓯ	-10.479
▁ᒥᔑᐱᔑ	-10.479
▁ᒫᑲᑕᓬᐊᐎᑴ	-10.479
ᐅᔑᐲᐃᑳᑌᒃ	-10.479
▁ᐁᐃᔑᓂᑳᓱᓂᒡ	-10.479
▁ᑣᒪᔅ	-10.479
▁ᑭᒋᒨᑯᒫ	-10.479
▁ᑮᐅᒋᐅᔑᒋᑳᑌ	-10.479
ᓇᒥᐁᐗᓄᑮ	-10.479
ᔑᐲᐊᒪᐤ	-10.479
▁ᐁᓃᐸᐎᓂᒡ	-10.479
▁ᒋᓴᓱᕽ	-10.479
▁ᐁᐱᓴᓯᕽ	-10.479
▁ᐁᑮᐃᔑᓂᑳᓱᒡ	-10.479
▁ᑮᑕᓇᒥᐋᓈᓂᒃ	-10.479
▁ᑳᐃᔑᑎᐯᑖᑯᓯ	-10.479
▁ᒥᑎᑰᒃ	-10.479
ᓃᔥᑕᓇᔑᓃᐎ	-10.479
ᐊᑳᓰᓄ	-10.479
▁ᐅᑌᐺᔦᑕᒧᐎᓂᕽ	-10.479
▁ᐯᑕᓃᕽ	-10.479
▁ᐸᐸᑭᑌᐙᐙᒡ	-10.479
▁ᐊᐲᑌᑖᑯᓯᓰ	-10.479
▁ᐸᑭᓯᓅᓐ	-10.479
▁ᑮᐗᓂᔥᑳ	-10.479
ᐙᐸᑕᒧᐗᕽ	-10.479
ᑭᓰᓂᒌ	-10.479
ᒪᒫᑳᔥᑳ	-10.479
▁ᐁᑭᑐᐙᒡ	-10.479
ᒦᒋᓈᑳᑌᒃ	-10.479
▁ᑭᒋᐊᐱᐎᓐ	-10.479
ᐃᔑᓂᔕᐗᒃ	-10.479
▁ᑳᑮᐐᑕᒪᐙᒡ	-10.479
ᐱᒥᓂᔕᐃᑫ	-10.479
▁ᑕᐃᓇᑭᒫ	-10.4791
ᑌᐺᔦᑕᒣᒃ	-10.4791
ᑭᑭᔥᑲᐙᐗᓱ	-10.4791
▁ᔔᒥᓂ	-10.4791
▁ᐯᔑᑯᑎᐸᐃᑲ	-10.4791
▁ᐅᑖᑯᓰᐞ	-10.4791
▁ᐁᑮᐊᐸᑭ	-10.4791
▁ᑭᔐᐙᑎᓯᐎᓐ	-10.4791
▁ᒪᒋᑑᑕᒧᐎᓂᕽ	-10.4791
▁ᑮᐃᑭᑑ	-10.4791
▁ᑕᑯᔑᓈᓐ	-10.4791
ᐸᑫᐎᓂᑎ	-10.4791
▁ᑳᓵᑭᐊᒃ	-10.4791
ᐲᐎᑌᐎ	-10.4791
▁ᑭᑎᑳᓈ	-10.4791
▁ᐁᐐᒌᐗᕽ	-10.4792
▁ᒥᑯᔥᑳᑌᑕᑫᒃ	-10.4792
▁ᑳᐅᓈᐸᒫᒡ	-10.4792
▁ᑭᐐᑕᒪᐎᓐ	-10.4792
▁ᐅᑮᐅᔑᑑᓐ	-10.4792
▁ᓂᑮᐃᓈᑉ	-10.4792
▁ᐁᑮᓇᓈᑯᒧᒡ	-10.4792
ᐊᓄᑮᑕᐌᒃ	-10.4792
▁ᐅᑎᒀᓐ	-10.4792
▁ᐁᓀᑕᒥᓂᒡ	-10.4792
ᐱᒋᑯᓇᔦ	-10.4793
ᑭᔐᒪᓂᑑᐎ	-10.4793
ᐃᔑᒋᑫᓰᒥᓐ	-10.4794
▁ᔖᑰᓱᒫ	-10.4794
▁ᒪᒋᒋᑫᐎᓐ	-10.4795
▁ᐅᓂᐴ	-10.4796
ᑮᑮᐌᐱᒫᑎᓯᐃᓐᒡ	-10.4796
▁ᐁᑲᑭᑐᒡ	-10.4796
ᐙᐸᑕᒪᓐ	-10.4796
▁ᑳᑮᐃᔖᒡ	-10.4797
ᐹᑮᑭ	-10.4797
▁ᐅᑮᒦᓈᓐ	-10.4798
ᑾᔭᑴᓂ	-10.4798
ᑕᒫᐹᓐ	-10.4798
ᑲᔥᑭᒋᑳᑌ	-10.4798
▁ᑳᐃᓀᑖᑾ	-10.4799
▁ᑮᐴᓯ	-10.4801
▁ᐁᐅᑯᓯᓯᒥᑯ	-10.4802
ᐋᐸᑕᒃ	-10.4803
▁ᐅᑮᐅᑎᓯᑯ	-10.4804
▁ᑎᐯᒋᑫᐎᓐ	-10.4807
ᑎᓲᒪᑲ	-10.4807
ᓂᔥᑫᓂ	-10.4808
▁ᐃᔑᓇᒧᐎ	-10.481
ᓂᐴᑕᒪᐙ	-10.4816
ᓈᑯᐃᑎᓱ	-10.4818
▁ᐅᑭᒋᐊᓇᒥᐁᐎᑲᒥᑯ	-10.4819
ᐅᓀᑕᕽ	-10.4825
ᐊᑐᓀᐊ	-10.4831
ᑭᑫᒋᑳᑌᒃ	-10.4834
▁ᑭᒋᐎᓇ	-10.4836
ᔑᑖᓂᐗᓂᓂᒃ	-10.4838
ᐐᒋᐃᑯᓰ	-10.4844
ᐙᐸᒥᒃ	-10.4849
▁ᐅᑮᓅᑕᐙ	-10.485
ᑭᑕᑭᒥ	-10.4855
ᑑᑕᐌᒀ	-10.4869
ᑕᑯᔑᓅᒪᑲ	-10.4873
ᑌᐺᑕᒻ	-10.488
ᑌᐱᓇᕽ	-10.4887
ᑭᑕᑭᒫ	-10.4897
ᐅᑖᐱᓇᒧᐙᒡ	-10.4902
ᐙᐸᑖᒥᓐ	-10.4902
ᑭᑭᓇᐙᐸᒥ	-10.4936
▁ᐊᑕᐙᐸ	-10.4941
ᓈᑯᒋᑳᑌ	-10.497
ᑭᐱᑎᓈ	-10.4974
ᑮᐃᑭᑐᓂᑯᐸᓀᓐ	-10.5001
ᑭᒋᓅᑎ	-10.5006
ᐗᓂᑭᑭᓄᐃᑫ	-10.5014
▁ᐅᒪᒋᒋᑫᐎ	-10.5014
ᑌᐺᑕᓯᒃ	-10.5021
ᐋᔕᐗᐊ	-10.5057
▁ᓂᑮᐃᓈ	-10.5094
ᑕᓯᑭᓐ	-10.5131
ᑭᑫᓂᒥᑰᒃ	-10.5147
▁ᐊᔮᒀᒥ	-10.5164
ᓃᐸᐎᐗᒃ	-10.5206
ᐴᓀᑕᒪᐎᓐ	-10.5213
▁ᑮᔖᑯᐌ	-10.5269
ᑮᓇᓈᑐ	-10.5297
ᓵᑭᑑᒡ	-10.5301
ᐅᓈᐯᒥᒡ	-10.5409
▁ᑎᐹᑐ	-10.543
ᑳᔖᓂ	-10.5447
ᐙᐸᒥᓇᑰᒃ	-10.5456
▁ᐙᐱᑲᓂ	-10.5499
ᔥᑳᑯᐙ	-10.5545
ᓃᑳᓂᔥᑲᐙ	-10.559
▁ᑳᐋᓇᐌᓂᒥ	-10.5684
ᐸᐃᐌᐗᒃ	-10.5692
ᐃᔑᓈᑾᓯᓅᓐ	-10.5714
ᒥᑲᒧᐙ	-10.5732
ᒥᓄᐃᔑᐌᐱᓯ	-10.5748
ᐐᒌᐎᓇᑰᒃ	-10.5792
ᐐᒌᐎᑯᓂᒡ	-10.5822
▁ᑳᐊᐲᑌᑖᑯᓯ	-10.5842
ᐙᐹᐱᑯ	-10.5894
▁ᐅᑑᑭᒫᒥ	-10.5905
ᑭᒋᐎᓈ	-10.5962
ᐸᒋᑑᓰᓐ	-10.5975
▁ᑕᐅᒌ	-10.6079
ᑎᑳᑕᕽ	-10.608
▁ᑮᐃᔑᓂᑳᓱ	-10.6131
▁ᑭᒦᓂ	-10.6139
ᑮᐃᔑᐌᐱᓯ	-10.6148
▁ᑸᐎᓭᓴ	-10.6163
▁ᒣᓬᑭᓯᑌ	-10.6166
ᐊᓈᒣᑖᑯᓯ	-10.6167
ᓈᑎᓯᔦᒃ	-10.6168
▁ᑲᔥᑮ	-10.617
▁ᑲᐸᕒᓂᔭ	-10.6171
▁ᐱᐁᓬᓯᐳᓬ	-10.6171
▁ᑭᐐᒋᐅᑌᐺᑕᒨ	-10.6171
▁ᓬᐁᔮᑎᓰ	-10.6171
ᐱᔑᒀᑎᓰ	-10.6171
ᑭᔑᓱᐙᐱᓀ	-10.6171
ᒪᓯᓇᐊᒪᐙ	-10.6171
ᒶᓯᓇᐋ	-10.6171
ᐃᓈᓴᒥᑳᐸᐎ	-10.6171
ᐹᐹᐗᐃᑫ	-10.6171
ᑌᐊᐲᑌᑖᑯᓯᓰ	-10.6171
ᑌᐺᔦᓂᒥᑰᐞ	-10.6171
ᑲᔥᑮᑎᐱᑲᒃ	-10.6171
ᒌᑲᑲᒥᑭᓯ	-10.6171
ᒦᑴᒋᐌᓂᒥ	-10.6171
ᓃᑳᓇᑭᓱ	-10.6171
ᓵᑲᐊᒧᐙᒡ	-10.6171
ᔀ	-10.6171
▁ᐃᔥᑾᒋᑲᓇᓐ	-10.6171
▁ᐅᐸᒦᑖᑫ	-10.6171
▁ᐅᑎᓇᐌᒫᑲᓂ	-10.6171
▁ᐅᓵᑭᐃᐌᐎᓐ	-10.6171
▁ᐊᓇᒥᐁᐎᑲᒥᑯᑳᕽ	-10.6171
▁ᐊᔭᐋᐎᔕᐞ	-10.6171
▁ᐌᑭᒫᐌᑖᑯᓯ	-10.6171
▁ᐗᓯᑖᐎᓭ	-10.6171
▁ᐸᕒᐃᓯᓬᐊ	-10.6171
▁ᑎᑎᐲᑭᓂᑲᓂ	-10.6171
▁ᑭᐱᔥᑭᐗᓯᑲᓐ	-10.6171
▁ᑭᑑᔑᐲᐊᒫᑰᒻ	-10.6171
▁ᑭᒋᐅᓇᔓᐌᐎᑭᒫ	-10.6171
▁ᑭᓅᔐᐞ	-10.6171
▁ᑭᔥᑮᔑᑯᕽ	-10.6171
▁ᑮᑮᔑᒋᑳᑌ	-10.6171
▁ᑮᒫᒪᑳᑌᑕᒨᐞ	-10.6171
▁ᑮᒫᒪᑳᑌᑕᒨᒃ	-10.6171
▁ᑰᑰᔕᒃ	-10.6171
▁ᑳᐃᓇᑭᒋᑳᓱᒡ	-10.6171
▁ᑳᐃᔑᐲᐃᑳᑌᓂᒃ	-10.6171
▁ᑳᐅᑴᓄᓂᒡ	-10.6171
▁ᑳᐅᓅᑕᒫᐎᓂ	-10.6171
▁ᑳᑌᓴᐱᒡ	-10.6171
▁ᑳᑭᑭᓄᐊᒪᐎ	-10.6171
▁ᒋᐸᐹᒣᑕᓯ	-10.6171
▁ᒣᓂᑲᓈᐱᒃ	-10.6171
▁ᒥᑕᑎᒨᒃ	-10.6171
▁ᒫᒪᑳᒋᒋᑫᐎᓐ	-10.6171
▁ᓂᑯᑣᓯᒥᑕᓇ	-10.6171
ᓰᔮᐹᐗ	-10.6171
▁ᐁᐃᑭᑑᒪᑲᒃ	-10.6171
▁ᐊᑶᓬᐊ	-10.6171
▁ᐊᓄᑮᐋᑲᓇᐞ	-10.6171
▁ᐐᓂᓯᓴᓐ	-10.6171
▁ᓭᓴᑰ	-10.6171
▁ᔂᑕᒻ	-10.6171
ᓰᑲᐊᑕᐎ	-10.6171
▁ᐅᒌᒫᑲᓇᒃ	-10.6171
▁ᑲᐯᑮᔑᒃ	-10.6171
▁ᓯᔮᑭᐃ	-10.6171
ᑕᔑᑕᒪᐎᓇᑰᒃ	-10.6171
ᓂᓵᐹᐌ	-10.6171
▁ᐅᑌᐺᔦᑕᒧᐎᓂᐙᕽ	-10.6171
▁ᐅᒪᒋᑑᑕᒨᒃ	-10.6171
ᑖᓱᐎᑲᒥ	-10.6171
▁ᐅᑭᔐᐙᑎᓯᐎᓂᓂ	-10.6171
▁ᐅᑌᑌᓂ	-10.6171
▁ᐯᔓᓈᑾᓐ	-10.6171
▁ᑰᓯᓈᓐ	-10.6171
▁ᐅᑎᒀᓂᕽ	-10.6171
▁ᑭᑎᓄᐤ	-10.6171
▁ᑭᒪᒋᑑᑕᒧᐎᓇᓐ	-10.6171
▁ᑭᑎᓀᑕᒧᐎᓂ	-10.6171
▁ᐅᒻᐺ	-10.6171
▁ᐱᓬᐃᐹ	-10.6171
▁ᐐᒋᑭᐌᓯᐗᓐ	-10.6171
▁ᑰᓂᑫ	-10.6171
▁ᓂᑎᑭᑦ	-10.6171
▁ᑳᑾᔭᑾ	-10.6171
ᒥᓍᑎᓰᔑᑑᔦᒃ	-10.6171
▁ᐃᓀᑖᑾᑭᓐ	-10.6171
▁ᐅᑭᑭᓄᐊᒪᐙᑲᓂᓂ	-10.6171
ᐋᐸᒋᑑᔦᒃ	-10.6171
▁ᑭᑎᑳᓂᕽ	-10.6171
▁ᑮᐗᔥᑴᐲ	-10.6171
ᐃᓀᑖᑾᓯᓅᓐ	-10.6171
ᒥᓍᑐᑌ	-10.6171
▁ᓯᒥᔭᓐ	-10.6171
▁ᑫᐃᔥᒀᓭᓯᓂᓂᒃ	-10.6171
▁ᑮᐃᔑᐲᐃᑳᑌ	-10.6171
▁ᐆᑌᓇᐌᔅ	-10.6171
▁ᐁᓀᑕᒪᓐ	-10.6171
▁ᓯᑌᑳᐸᐎ	-10.6171
ᑾᔮᒋᑕᒪ	-10.6171
ᒋᐅᑌᐺᑕᒧ	-10.6171
▁ᑮᑕᓇᒥᐋᓈᓐ	-10.6171
ᑮᓇᑲᓂᑯᓂ	-10.6172
ᑾᐃᑲᓐ	-10.6172
▁ᔔᓂᔮᓴᒃ	-10.6172
▁ᒫᕒᒃ	-10.6172
ᑭᒋᐅᓈᑲᓂᕽ	-10.6172
ᐊᑐᒪᒀ	-10.6172
▁ᐃᔥᒀᑌᕽ	-10.6172
▁ᐃᔑᑮᔗᐎᓇᓐ	-10.6172
ᐙᓭᔥᑲ	-10.6172
ᓯᐙᓈᓂᒃ	-10.6172
▁ᐅᑕᑮᒥ	-10.6172
ᓯᓄᑭᐸᓐ	-10.6172
▁ᐅᓯᑎᕽ	-10.6172
ᑌᐺᔦᑕᒥᓂᒡ	-10.6172
▁ᐁᑮᐅᒌᒡ	-10.6172
ᐊᔨᔑᒋᑫ	-10.6172
ᓂᔕᐗᒀ	-10.6172
▁ᓂᑮᐐᒌᐎ	-10.6172
▁ᐁᑭᑐᓂᒡ	-10.6172
▁ᐁᔑᓈᑯᓯᔦᒃ	-10.6172
▁ᑯᒋᐃᑰᐎ	-10.6173
▁ᐁᑮᐋᐸᒋᐋᒡ	-10.6173
▁ᐊᑕᐌᑖᑯᓯ	-10.6173
▁ᐱᓯᑕᐎᒃ	-10.6173
▁ᓂᐐᒌᐎ	-10.6173
▁ᑳᑮᐃᔑᓂᑳᓱ	-10.6174
▁ᐌᒌᒡ	-10.6174
ᐴᑯᓂᑳᑌ	-10.6174
▁ᑭᓇᑕᐌᑖ	-10.6174
ᐱᔅᑲᓀ	-10.6174
▁ᐅᒫᒫᓂ	-10.6174
▁ᐅᑮᐅᑖᐱᓈᓈᐙ	-10.6175
ᑮᐊᔓᑕᒫᑯ	-10.6175
▁ᐁᐋᐎᓂᒡ	-10.6176
ᐱᒫᒋᐃᑰᐎᓯᔦᒃ	-10.6177
ᐐᑕᒪᐤ	-10.6178
ᐅᓵᒦ	-10.6182
ᐅᓀᑖᓐ	-10.619
▁ᐅᔥᑭᓃᑭᐗ	-10.6192
ᑲᑳᓱᒫ	-10.6194
▁ᑮᑕᑯᔑᓅ	-10.6198
▁ᑲᑳᓱᒥ	-10.6199
ᐃᔑᓂᑳᒋᑲᓂᐎ	-10.62
▁ᐅᑖᓂᓴ	-10.6211
ᑲᓅᑕᒫᓱ	-10.6216
ᐐᒋᑳᐸᐎᑖ	-10.6217
ᑮᒋᑯᔥ	-10.6225
ᑯᑖᓀᓂᒥ	-10.6243
ᔕᐌᓂᒥᑯᐙ	-10.625
ᐅᑎᓇᒧᐙᒡ	-10.6263
ᐅᑎᑎᓂᑯ	-10.6264
ᐙᐸᑖᒻ	-10.6265
▁ᐁᒦᑴᒋᐌᓂ	-10.6268
▁ᐸᑯᓭᓂᒥᑰ	-10.6285
ᑭᑫᓂᒫᐙ	-10.6287
ᐱᑾᑎᓈᓂᒃ	-10.629
ᐃᔑᓈᑯᓯᔦᒃ	-10.6306
▁ᐗᓂᑑᑕ	-10.6315
ᓂᓯᑎᐸᓐ	-10.6333
ᐯᑭᐃᑎᓱ	-10.6353
ᓂᔑᐗᓈᒋᐋ	-10.6357
ᑲᑴᒋᒥᓂᓂᒻ	-10.6361
ᑭᒋᐱᓱ	-10.6373
ᐐᓴᑲ	-10.6395
ᑕᓀᑖᑯᓯ	-10.64
ᑭᑫᓂᒪᒃ	-10.6401
ᐱᒫᒋᐃᒥᓐᒡ	-10.6463
ᑮᐊᐸᑑ	-10.6491
ᐗᐱᐎᓂᕽ	-10.6533
ᐅᑖᐱᓇᒣᒃ	-10.654
▁ᑳᓃᑳᓂᔥᑲ	-10.6597
ᒋᑌᐺᑕᒨ	-10.6669
ᐊᐸᐃᐌ	-10.6687
▁ᐁᑮᓇᓃᓵᓂ	-10.6693
ᐙᓭᔮᓯ	-10.6693
ᑕᑯᔑᓄ	-10.6701
▁ᐃᔑᓂᑳᓈ	-10.6734
ᑭᑭᓄᐃᑫᐙᒡ	-10.6736
ᐲᑯᓇᕽ	-10.674
ᐸᑫᓯᐎ	-10.6772
ᐸᑕᑭᑌ	-10.6808
ᐐᓯᓂᐗᒃ	-10.6883
ᓂᔑᐗᓈᑕᒃ	-10.6941
ᑮᔑᓈᑯ	-10.7121
▁ᐁᐲᑯᓇ	-10.7147
▁ᐁᑮᐃᑭᑐ	-10.7163
ᓇᓃᓵᓂᓯ	-10.7194
ᑭᑭᔥᑲᕽ	-10.7211
ᑮᐐᑕᒫᑰ	-10.7229
ᓂᔑᐗᓈᑕᓐ	-10.7233
▁ᐅᑮᐊᑐᒫ	-10.7297
ᓇᒪᐎᑣ	-10.7298
ᐊᑐᒥᒃ	-10.7382
ᒪᓯᓇᐃᑲᓐ	-10.7481
ᓃᐱᐗᐞ	-10.7501
▁ᐁᑮᐃᔥᒀ	-10.7586
ᐃᔑᓂᔕᐅᓐ	-10.7623
▁ᑳᐋᐸᒋᑑ	-10.7645
▁ᐅᔑᐲᐃᑫ	-10.7698
ᐃᔑᒋᑫᓯᒃ	-10.7718
ᐊᑐᒫᐞ	-10.7725
ᐸᑲᒥᔥᑳᑯ	-10.7726
ᑲᑴᔖᑰᓱᑎ	-10.7759
ᐅᔑᐲᐊᒪᐎ	-10.7762
▁ᑭᐴᔔᐃ	-10.7769
▁ᑳᓃᑳᓃ	-10.7773
▁ᐙᓴᑯᓀᒋᑲᓈ	-10.7773
ᒨᔕᑭᓂᑫ	-10.7774
▁ᐅᔥᑲᐱᓅᒌ	-10.7774
▁ᐋᐃᑰᓂᔭ	-10.7774
ᐅᑕᑳᓀᓯᓂᒡ	-10.7774
ᐊᑐᑕᒫᑫ	-10.7774
ᐸᒀᓀᑲᒥᑯᕽ	-10.7774
ᑌᓇᓂᐤ	-10.7774
ᑕᑶᔑᓂᓂᒡ	-10.7774
ᑕᓱᐱᐴᓉ	-10.7774
ᑭᑫᑖᑾᓯᓅᓐ	-10.7774
ᑭᒋᐅᔑᐲᐃᑫᐎᓂᕽ	-10.7774
ᑯᑖᓀᓂᒣᒃ	-10.7774
ᒫᒪᐐᓄᓂᒡ	-10.7774
ᓇᓃᓵᓀᑕ	-10.7774
ᔔᒥᓈᑎᑰ	-10.7774
▁ᐁᐃᓇᑭᒋᑳᓱᒡ	-10.7774
▁ᐃᔥᐸᑎᓈᓂᒃ	-10.7774
▁ᐅᐴᑖᒋᑲᓐ	-10.7774
▁ᐅᑎᓀᑕᒧᐎᓂᓂ	-10.7774
▁ᐅᑭᑭᔥᑭᑲᓂᐙᓐ	-10.7774
▁ᐅᑮᑲᓅᓂᑰᓐ	-10.7774
▁ᐅᑮᓇᑴᑖᑰᐞ	-10.7774
▁ᐅᑰᐹᓯᓈᑫᐎᓐ	-10.7774
▁ᐅᒪᓂᑑᒪᓐ	-10.7774
▁ᐅᔕᐌᒋᑫᐎᓂᕽ	-10.7774
▁ᐊᑫᔮᐗᑮᕽ	-10.7774
▁ᐊᒑᑯᐎ	-10.7774
▁ᐊᓈᒪᑲᒥᒃ	-10.7774
▁ᐊᔦᒀᒥ	-10.7774
▁ᐋᕒᑎᒪᔅ	-10.7774
▁ᐌᑯᓯᓯᒥ	-10.7774
▁ᐙᐱᔥᑮᑭᓅ	-10.7774
▁ᐯᔅᑕᓴᓐ	-10.7774
▁ᐲᑕᒪᐎᔑ	-10.7774
▁ᐸᐸᑴᐱᓈᒡ	-10.7774
▁ᐸᔑᐸᐃᑫᐎᑯᒫᓐ	-10.7774
▁ᑫᒦᒋᐙᒡ᙮	-10.7774
▁ᑭᐐᔭᐎᓈᓂᕽ	-10.7774
▁ᑭᐲᐌᓰᒪᒃ	-10.7774
▁ᑭᐸᐅᑏᐎ	-10.7774
▁ᑭᔕᐌᑖᑯᓯᒻ	-10.7774
▁ᑮᐋᓉᑕᒻ	-10.7774
▁ᑰᐹᓯᓇᐙ	-10.7774
▁ᑲᐯᑎᐱᒃ	-10.7774
▁ᑲᓬᐁᔑᔭ	-10.7774
▁ᑳᐅᑭᒫᑲᑖᑫ	-10.7774
▁ᒀᕒᓃᓬᐃᔭᔅ	-10.7774
▁ᒋᒪᔥᑲᐌᑕᒥᓂᒡ	-10.7774
▁ᒐᕒᐆᐗ	-10.7774
▁ᒥᓍᒋᒧᐎᓂᕽ	-10.7774
▁ᒪᓯᓇᐃᑲᓇᓐ	-10.7774
▁ᓂᑎᓀᑕᒧᐎᓂᕽ	-10.7774
▁ᓂᑎᔑᓂᑳᓱᐎᓂᕽ	-10.7774
▁ᓂᑑᔑᐲᐃᑲ	-10.7774
▁ᓂᑕᓄᑮᐋᑲᓐ	-10.7774
▁ᓂᓇᑕᐌᑖᓐ	-10.7774
▁ᓬᐃᔅᑕᕒᐊ	-10.7774
▁ᓵᐃᒪᓅᓐ	-10.7774
▁ᔑᒫᑲᓂᔒᐎᑲᒥᑯᕽ	-10.7774
▁ᔑᒫᑲᓂᔥ	-10.7774
▁ᔔᒥᓈᑎᑯᕽ	-10.7774
ᐹᑭᑌᓇᒫ	-10.7774
ᑌᐺᔦᑕᒻ	-10.7774
ᑎᐹᒋᒥᒃ	-10.7774
ᒪᒋᑮᔣ	-10.7774
▁ᐅᓯᑎᓃᕽ	-10.7774
▁ᐱᒀᐎᑲᓀ	-10.7774
▁ᑌᐯᓂᒥ	-10.7774
▁ᑖᔥᑮᑭ	-10.7774
▁ᑭᑭᔐᒪᓂᑑᒻ	-10.7774
▁ᓃᔣᓯᒥᑕᓇ	-10.7774
ᑕᐸᓭᓂᑎᓱ	-10.7774
▁ᑌᐯᒋᑫᒡ	-10.7774
▁ᑭᑭᔥᑭᑲᓐ	-10.7774
▁ᓂᑎᑭᑐᓰ	-10.7774
▁ᓂᒫᓇᒑᓂᔑᒪᒃ	-10.7774
ᓂᓂᑭᔥᑳ	-10.7774
▁ᐁᓈᒋᒥᓐᒡ	-10.7774
▁ᐸᐹᒣᓂᒫ	-10.7774
▁ᐁᒥᑴᓂᒥ	-10.7774
▁ᐱᓈᓯᑳᑯ	-10.7774
▁ᐅᑎᐯᒋᑫᐎᓂᓃᕽ	-10.7774
▁ᑭᑎᓀᑖᒻ	-10.7774
▁ᓵᑭᒋᓂᔕᐙ	-10.7774
ᐐᓯᓂᐎᓈᑎ	-10.7774
▁ᑫᐴᓂᓭᓯᓄᒃ	-10.7774
▁ᐗᑎᑾᓐ	-10.7774
▁ᑳᐱᒥᓭᑭᓐ	-10.7774
▁ᐴᑖᒋᑲ	-10.7774
▁ᑳᐐᓀᑖᑾᒃ	-10.7774
ᓰᑲᐊᑖᑰᔦᒃ	-10.7774
▁ᑭᑌᑖᑯᓯᐎᓐ	-10.7774
▁ᐅᑭᒫᐎᐎᓇᓐ	-10.7774
▁ᓵᒥᓇᒪᐙ	-10.7774
ᐃᔥᐱᔥᑳ	-10.7774
ᓃᑳᓂᓂᔕᐙ	-10.7774
▁ᑲᑴᒋᐃᑰ	-10.7774
▁ᒥᔕᐗ	-10.7774
▁ᒌᑭᐲᒃ	-10.7774
ᑭᐸᐅᒥᓐᒡ	-10.7774
▁ᑳᐃᔑᑯᑖᓀᑖᑾᓂᓂᒃ	-10.7774
▁ᐁᑮᐃᓀᑕᒧᐙᒡ	-10.7774
▁ᓂᔑᐌᑫᓐ	-10.7774
ᑮᔥᑭᔑᑲᓐ	-10.7774
▁ᑭᑌᓂᒥᑾᒃ	-10.7774
▁ᑭᑎᑭᑦ	-10.7774
▁ᐅᓵᑭᐃᐌᐎᓂ	-10.7774
▁ᒋᒦᓂᓀᒃ	-10.7774
▁ᐅᑎᒀᓇᓐ	-10.7774
▁ᑕᐃᔑᐌᐸᓐ	-10.7774
ᐅᑲᑮᑖᐌᑕᒧᐎᓂ	-10.7774
▁ᐃᑴᓭᔅ	-10.7774
ᑮᐊᑐᒥᑯᒡ	-10.7774
▁ᐅᒪᒋᑑᑕᒧᐎᓐ	-10.7774
▁ᑮᐌᓂᔕᐙ	-10.7774
▁ᓈᐱᔥᑭᑲ	-10.7774
ᐙᐸᑕᓰᓐ	-10.7774
ᑲᑮᐹᓯ	-10.7774
▁ᑕᐴᓀᑕᒪᐙᓰ	-10.7774
ᐊᑮᐗᓂᓂᒃ	-10.7774
ᒫᓀᑕᒣᒃ	-10.7774
ᑎᐯᓂᑎᓱᐙᒡ	-10.7775
ᐃᓇᑲᒥᑲᒃ	-10.7775
ᐗᑎᑾᓂ	-10.7775
▁ᐅᒫᓇᒑᓂᔑᒪ	-10.7775
ᑕᑯᔑᓈᕽ	-10.7775
ᒫᓀᑕᒻ	-10.7775
▁ᐁᑎᐯᓂᒥᓇᑰᒃ	-10.7775
▁ᒪᐄᑲ	-10.7776
ᒪᒐᑭ	-10.7776
▁ᓂᒥᑲᒧᐙᓰ	-10.7777
ᑭᑎᒫᑫᓂ	-10.7777
ᑲᑮᑭᒥ	-10.7777
▁ᒋᐃᔑᐊᓈᒣᑖᑯᓯᓯ	-10.7778
▁ᐁᑮᐊᔮᐙᓯ	-10.7778
ᐅᑸᓄ	-10.7778
ᐸᑕᑭᓱ	-10.7778
ᐊᓂᒥᑯᑖ	-10.7778
▁ᐋᓉᑕ	-10.7781
ᑆᑕᐐ	-10.7782
ᑮᐃᔑᐊᔓᑕᒫᑫ	-10.7782
ᑭᑭᔥᑭᑫ	-10.7782
▁ᑕᐲᑎᑫᓰ	-10.7783
▁ᐃᓀᒋᑲᓂᐎ	-10.7783
ᐲᑎᑲᐙ	-10.7785
ᑕᒪᐎᓀᒀ	-10.7786
ᑕᔑᒥᒥᓐᒡ	-10.7787
▁ᓵᑭᒋᓂᔕᐊᒪᐙ	-10.7788
ᑮᑭᑑᑕᒪᐙ	-10.7789
ᑮᐅᔒᑖ	-10.7789
ᐱᒥᐗᓈ	-10.779
▁ᑳᑮᐃᓀᑕᒧ	-10.7805
▁ᑳᐸᑭᑎᓇᒪᐎ	-10.7809
▁ᑕᑯᓂᑲᓇ	-10.7811
▁ᐸᑲᒥ	-10.7825
▁ᒥᑖᐗ	-10.7828
ᑭᑭᓄᐊᒫᑯᒡ	-10.7834
ᐙᐸᒥᑰᔭᓐ	-10.785
ᐊᔓᑕᒫᑫᐎᓐ	-10.785
ᐐᑕᐱᒥ	-10.7858
ᑭᑫᑕᓯᐌᒃ	-10.7859
ᑎᐯᓂᒪᒀ	-10.7872
ᐐᒋᔭᔮᒥ	-10.7878
ᐅᒋᒫᒌᑭ	-10.7905
ᐙᐸᑕᒫᕽ	-10.7919
▁ᑫᑌᑖᑯᓯ	-10.7932
ᐃᓈᓰᓐ	-10.7949
ᐅᔑᑕᒪᐎ	-10.796
ᐐᑑᑳᓱᔦᒃ	-10.797
▁ᑳᑭᑎᑳᑕ	-10.7976
ᐊᓇᒥᐁᑕᒫ	-10.7977
ᑑᑕᒣᑭᐸᓐ	-10.7977
ᐐᒌᐎᑰᓐ	-10.7978
▁ᑕᓂᔑᐗᓈᑕ	-10.8007
ᐱᓯᑕᓯᒃ	-10.8008
ᐱᒫᒋᐃᓐᒡ	-10.8009
ᐃᔑᑖᐙᒡ	-10.8024
▁ᐅᑎᔑᐊᔮᐎ	-10.8069
▁ᒋᑳᒋᑎ	-10.8082
ᑌᐺᑕᐗᕽ	-10.8084
ᐅᑑᑭᒫᒥᐙᓐ	-10.8095
ᐃᔑᒋᑫᔮᐹᓐ	-10.8164
ᒪᑲᓂᓂᐗᓐ	-10.8172
ᐊᑐᒫᐙᐞ	-10.8246
ᑲᓅᓂᑰᔦᒃ	-10.8283
ᑭᑭᔥᑲᒣᒃ	-10.8357
ᑎᐯᑕᒫᓐ	-10.8365
ᔔᓂᔮᒪᓐ	-10.8379
ᑮᐃᓇᑭᒫ	-10.8401
▁ᐅᑕᔓᑕᒫ	-10.8405
ᐐᒌᐎᑯᓈᐙ	-10.8406
ᐃᑭᑐᐙᑯᐸᓀᓐ	-10.853
▁ᐁᐹᐱᓄᑕ	-10.8548
ᐃᑭᑐᔮᐹᓐ	-10.8551
▁ᓂᑎᓀᑖ	-10.8581
ᑕᐎᓇᒪᐎ	-10.8648
ᑭᑭᓇᐙᑕᔕᑫᔑᑲᓂᐎᒡ	-10.8669
ᐃᔑᐌᐱᓯᓂᒡ	-10.8692
ᔕᐌᓂᒥᒃ	-10.8716
ᐐᓯᓂᔦᒃ	-10.8755
ᐙᓭᔥᑳ	-10.8766
▁ᑮᐅᔑᐲᐃᑳᑌ	-10.8783
▁ᑳᐃᓈᒋᒥ	-10.8823
ᐃᔑᓂᑳᓈᒡ	-10.8935
▁ᐁᑕᓱᐯᔑ	-10.8957
ᔑᓈᑯᑑ	-10.9058
▁ᑳᓂᔑᐗᓈᒋ	-10.9097
▁ᐊᐱᓅᒌᔑ	-10.9099
▁ᓂᑭᑫᓂᒥ	-10.9166
▁ᒋᐅᒋᑎᐯᑖᑯᓯ	-10.9204
ᐃᔑᒋᑫᐙᐸᓐ	-10.9396
2	-10.9407
ᓃᔣᓱ	-10.9411
ᑕᔑᐐᓯᓂ	-10.9465
ᐐᒋᐐᓯᓃᒥ	-10.9498
▁ᑳᑮᐅᑯᓯᓯ	-10.9522
▁ᐅᐐᓱᐎᓂ	-10.9587
ᐱᒫᒋᐃᐌᓂᒡ	-10.9593
ᑮᐋᐸᒋᐋ	-10.9609
▁ᒋᑎᐹᒋᒥ	-10.9616
ᐋᐸᒋᐋᓐ	-10.9656
ᓂᔕᐊᒪᐙᒡ	-10.9666
ᑭᑫᑕᒥᓂ	-10.9668
▁ᐃᔑᓂᔕᐊᒪ	-10.9673
▁ᑭᐱᒫᑎᓰ	-10.968
▁ᓃᔥᑕᓇ	-10.9682
ᐱᔑᒀᒋᒋᑫ	-10.9683
ᒪᒫᒋᑾᐱᓈ	-10.9683
▁ᐁᐊᓇᒥᐁᑮᔑᑲ	-10.9683
▁ᐅᑑᓃᒑᓂᓯᒥ	-10.9683
▁ᐸᐹᒣᓂᒥ	-10.9683
▁ᓂᑕᓇᒥᐁ	-10.9683
ᐅᒋᒌᑾᓇᐲᑖᑯᒡ	-10.9683
ᐅᔑᐲᐃᑳᑌᑭᓐ	-10.9683
ᐅᔑᐲᐃᑳᓱᐙᒡ	-10.9683
ᐋᑾᑭᓱᓂᒡ	-10.9683
ᐯᑫᑖᑯᓯ	-10.9683
ᐸᐲᑾᑎᓈᓂᒃ	-10.9683
ᐹᐱᓄᑖᑫ	-10.9683
ᑌᐺᐗᑫᑕᒧᐎᓐ	-10.9683
ᑭᑎᑫᐗᑲᒥᑯᕽ	-10.9683
ᑲᒀᑕᑲᓄᑮ	-10.9683
ᑲᔥᑭᐁᐎᓰᒪᑲ	-10.9683
ᒥᑖᔑᓃᔑᐙᒡ	-10.9683
ᒥᔕᑮᔮᓯᓄᒃ	-10.9683
ᒨᒀᐱᓀ	-10.9683
ᒪᒦᒀᓂᑎᓱᐙᒡ	-10.9683
ᒪᒦᒀᓂᑎᓱᔮᓐ	-10.9683
ᒪᓯᓇᐃᑲᓀᔅ	-10.9683
ᒶ	-10.9683
ᓇᑭᔥᑳᑰᓐ	-10.9683
ᔕᐌᓂᒥᑯᓈᓐ	-10.9683
ᔖᑴᓂᒧᓰ	-10.9683
▁ᐁᐃᑭᑐᔦᒃ	-10.9683
▁ᐁᐅᑌᐺᑕᒧᐎᓂ	-10.9683
▁ᐁᐱᓈᓯᑳᑯᒡ	-10.9683
▁ᐅᐱᒣᓇᐤ	-10.9683
▁ᐅᐱᓯᑲᓀᔅ	-10.9683
▁ᐅᐸᑴᔑᑲᓂᒪᓐ	-10.9683
▁ᐅᑌᐃᓃᕽ	-10.9683
▁ᐅᑎᐹᒋᒨᒃ	-10.9683
▁ᐅᑎᑭᑐᐎᓇᓐ	-10.9683
▁ᐅᑎᓇᐌᒫᑲᓇᐞ	-10.9683
▁ᐅᑮᐅᒻᐺᐋ	-10.9683
▁ᐅᑮᒨᒋᔥᑲᓐ	-10.9683
▁ᐅᒪᒋᑑᑕᒨᐞ	-10.9683
▁ᐅᓇᔓᐌᐎᑲᒥᑯᕽ	-10.9683
▁ᐅᓈᑲᑕᐌᑕᒧᐎᓂᐙ	-10.9683
▁ᐅᔑᐲᐊᓐ	-10.9683
▁ᐅᔥᑮᔑᑯᓃᕽ	-10.9683
▁ᐅᔥᑮᔑᑯᕽ	-10.9683
▁ᐅᔥᑮᔑᑰᓐ	-10.9683
▁ᐋᐹᐱᑲᐃᑲ	-10.9683
▁ᐋᔮᓂᑫ	-10.9683
▁ᐌᑭᒫᐙᑎᓯᓂᒡ	-10.9683
▁ᐱᑾᑕᑮᕽ	-10.9683
▁ᐸᑴᐱᓈᒡ	-10.9683
▁ᐸᔑᐸᐃᑫᐎᑯᒫᓇᓐ	-10.9683
▁ᐹᐱᓬᐊᓄᕽ	-10.9683
▁ᑎᒪᑏᓐ	-10.9683
▁ᑣᒪᓲᓐ	-10.9683
▁ᑫᑌᒪᓯᓇᐃᑲᓂᕽ	-10.9683
▁ᑫᑎᒫᑭᓯᓂᒡ	-10.9683
▁ᑭᐐᔭᐎᕽ	-10.9683
▁ᑭᑕᒑᑯᐙᕽ	-10.9683
▁ᑭᑭᒋᐅᑭᒫᒥᐙ	-10.9683
▁ᑭᒋᑫᑰᓇᓐ	-10.9683
▁ᑭᓵᑭᐃᐌᐎᓂᐙ	-10.9683
▁ᑮᑌᐺᑕᒨᐞ	-10.9683
▁ᑰᐹᓯᓇᐎᔑ	-10.9683
▁ᑲᒀᓂᓴᑫᑖᑾᓐ	-10.9683
▁ᑲᓇᐌᒋᑫᐎᔑᒫᑲᓂᔕ	-10.9683
▁ᑳᐐᓴᑳᐸᓱᐌ	-10.9683
▁ᑳᑕᓶᐙᓇᑭᓈᑯᓯ	-10.9683
▁ᑾᔮᒋᑑ	-10.9683
▁ᒀᕒᓃᓬᐃᔭᓴᓐ	-10.9683
▁ᒉᐃᕒᐊ	-10.9683
▁ᒋᐯᔑᑴᑖᑯᓯ	-10.9683
▁ᒥᓄᑲᒥᑳᒃ	-10.9683
▁ᒥᔅᑯᒥᓂᑫᓯ	-10.9683
▁ᒫᔑᒥᑕᑎᒨᓴᓐ᙮	-10.9683
▁ᓂᐱᒫᑎᓯᐎᓂᓈᓂᕽ	-10.9683
▁ᓂᑲᑏᒪᔅ	-10.9683
▁ᓵᒐᓰᒃ	-10.9683
ᐅᒋᑾᔭᑾᑭᒥ	-10.9683
ᐊᑕᐗᓄᑮ	-10.9683
ᐋᓇᐌᓂᒥᑯᒡ	-10.9683
ᑎᐹᒋᑎᓱ	-10.9683
ᑕᐸᓭᓂᒫ	-10.9683
ᑮᓰᑲᐊᑕᐙ	-10.9683
ᑲᑴᒋᑲᔑᐌ	-10.9683
ᑴᑮᓄᑕᐙ	-10.9683
ᒪᑗᔮᐲᑭᐱᒋ	-10.9683
ᓂᔑᐗᓈᑕᑲᒥᑭᓯ	-10.9683
ᓇᓃᓵᓀᑖ	-10.9683
ᓈᒋᐐᑯᐱ	-10.9683
▁ᐃᔥᒀᑌᒥᕽ	-10.9683
▁ᐅᑎᑭᑐᐎᓂᕽ	-10.9683
▁ᐅᑎᓈᑯᓂᑫᐎᓇᓐ	-10.9683
▁ᐊᔭᐋᐎᔕᓐ	-10.9683
▁ᐙᓴᑯᓀᒋᑲᓈᑎᑯᕽ	-10.9683
▁ᑫᒦᒋᔦᒃ	-10.9683
▁ᑭᑲᐙᐸᒥᓰᒻ	-10.9683
▁ᑮᒋᐅᑌᐺᑕᒨ	-10.9683
▁ᒫᒪᑳᑌᑕᒨᒃ	-10.9683
▁ᓀᐗᒋᑮᔑ	-10.9683
ᐋᐸᒋᑑᓈᐙ	-10.9683
ᐸᑭᑕᓈᒧ	-10.9683
ᑭᑎᑳᓇᑲᒥᒃ	-10.9683
ᒪᒍᑌᐌᐱᓂ	-10.9683
ᒫᒥᑴᓂᒥ	-10.9683
▁ᐅᑌᑌᐙᓐ	-10.9683
▁ᐅᑭᔐᐙᑎᓯᐎᓂᓃᕽ	-10.9683
▁ᐅᑮᒫᒪᑳᓯᑖ	-10.9683
▁ᐱᒥᓂᔕᐅᔑᓐ᙮	-10.9683
▁ᑭᐐᒋᐅᑌᐺᑕᒨᒥᐙᒃ	-10.9683
▁ᑭᑕᔮᒀᒥᒥ	-10.9683
▁ᑮᑰᔭᐞ	-10.9683
▁ᒦᑴᒋᐌᑕ	-10.9683
▁ᒪᓂᑑᑳᓇᐞ	-10.9683
▁ᓈᑫᔨᔥ	-10.9683
▁ᐅᑮᒥᑲᓰᓈᐙ	-10.9683
▁ᐅᔥᑭᐊᔓᑕᒫᑎᐎᓐ	-10.9683
▁ᐊᓯᓃᑳᒃ	-10.9683
▁ᑭᑌᐃᐙᓐ	-10.9683
▁ᑳᐅᔫᓯᒡ	-10.9683
▁ᒉᕒᐊᑯ	-10.9683
▁ᒥᓈᑯᐅ	-10.9683
▁ᓂᑎᐹᒋᒧᐎᓂᓈᓐ	-10.9683
ᐊᔫᑾᐱ	-10.9683
ᔕᔒᐯᑕᕽ	-10.9683
▁ᑭᐲᑭᓂᑲ	-10.9683
ᐊᓂᒥᑯᐸᓂᐅ	-10.9683
ᐸᑫᒋᑲᓂᕽ	-10.9683
ᒨᔥᑭᓇᑑ	-10.9683
▁ᑳᑑᑕᒪᓐ	-10.9683
ᓃᑳᓃᑕᒫᑫ	-10.9683
▁ᐁᑎᐱᑲᒃ	-10.9683
▁ᐅᑕᓇᒥᐋᐎᓂᐙᕽ	-10.9683
▁ᑳᑎᐱᑲᒃ	-10.9683
▁ᑳᑕᓱᐯᔑᑯᔦᒃ	-10.9683
ᑲᔥᑮᑎᐱᑭᓯ	-10.9683
▁ᒋᓈᓯᑳᑯ	-10.9683
ᐃᔑᓈᑾᑭᐸᓐ	-10.9683
ᐊᔨᔑᑮᔗ	-10.9683
ᑮᔑᑑᔮᓐ	-10.9683
ᔑᐸᒦᑖᑫ	-10.9683
ᑲᓅᑕᒪᐌᒃ	-10.9683
ᑭᑭᓄᐎᓈ	-10.9683
ᓯᐙᐹᓐ	-10.9683
▁ᑭᑎᑭᑐᐎᓂ	-10.9683
ᒥᔕᑳᐙᒡ	-10.9683
▁ᑫᐃᓈᒋᒥ	-10.9683
▁ᑳᐅᒋᑎᐯᑖᑾ	-10.9683
ᒥᑖᔑᓃᔓ	-10.9683
ᒫᒪᑳᑌᑕᒧ	-10.9683
ᑎᐹᑐᑕᒫ	-10.9683
ᑲᓂᔒᒥ	-10.9683
▁ᒪᔥᑯᓯ	-10.9683
ᑭᑭᓇᐙᒋᒋᑲᓐ	-10.9683
ᑕᐎᓇᒫᑰ	-10.9683
▁ᑳᑭᑕᑭᑌ	-10.9683
ᐯᑳᐹᐗ	-10.9683
ᒪᒫᑕᐎᒋᑫ	-10.9683
ᐙᑳᐃᑲᓇᓐ	-10.9683
▁ᑳᑲᑴᓇᑳᔥᑲᐙ	-10.9683
▁ᑳᓂᑖᐃᔑᒋᑫ	-10.9683
ᐃᓈᐱᓀᓂᒡ	-10.9683
ᐋᔮᔐᑕ	-10.9683
ᐊᓇᒥᐁᑕᐎᒥᓐᒡ	-10.9683
▁ᐁᐯᔓᓈᑾ	-10.9683
ᒫᒦᓄᐸᔕᔐ	-10.9684
ᑌᐱᓇᒣᒃ	-10.9684
ᑲᑲᔦᓂ	-10.9684
▁ᔖᑰᓱᑖᑯᓯ	-10.9684
▁ᓈᓯᑳᑰ	-10.9684
ᐲᑎᑲᑑ	-10.9685
▁ᑭᑭᑯᓇᔦᓯ	-10.9685
ᐅᑎᓇᓰᓐ	-10.9686
ᐃᓈᓴᒪ	-10.9687
ᐃᔑᒋᑳᓂᐗ	-10.9688
ᐃᔑᐎᓂᑰᒻ	-10.969
ᐊᔭᐋᐎᔥ	-10.9692
▁ᑭᑎᓀᑕᓰ	-10.9693
ᐅᑎᑎᓂᑰ	-10.9694
▁ᑮᑌᐐᓯᓂ	-10.9695
ᑭᑎᑳᓱᓂᒡ	-10.9695
▁ᑲᑴᔖᑰᓱ	-10.97
ᑮᑎᐸᐅ	-10.9703
▁ᑌᐐᓯᓂ	-10.9704
ᐅᐸᐹᒥᓯᐎ	-10.9709
ᔑᒥᓍᐸᑕᕽ᙮	-10.9714
ᐊᓇᒥᒋᑳᑌ	-10.9723
ᐃᔑᒋᑫᐃᓐᒡ	-10.9749
ᑎᐹᒋᒥᓐᒡ	-10.975
ᐅᑌᓂᑎ	-10.9751
▁ᐅᔔᓂᔮᒥ	-10.9781
ᐐᓯᓂᓯᒀ	-10.979
ᐊᓄᑮᐋᑲᓂ	-10.9809
▁ᒋᐴᓀᑕᒫ	-10.9814
ᐊᑕᐌᑖᑾ	-10.982
ᑭᑫᑕᒪᓐ	-10.9867
ᐃᔑᐌᐸᑭᓐ	-10.9887
ᑎᓇᐌᒫᑲᓇᒃ	-10.9901
ᓃᑳᓂᔥᑲᒥᓂᒡ	-10.9966
ᑑᓇᔓᐌᐎᓂᐙ	-11.0121
ᑭᑫᓂᒫᓯᐙᐙᓐ	-11.0128
▁ᑮᐅᑕᑳᓀᓯ	-11.0128
ᐅᒌᑳᑰ	-11.0135
ᐐᑑᑳᓱᐙᒡ	-11.0162
ᐊᐲᑌᑖᑯᓯᓯᒃ	-11.0169
▁ᑫᓂᔑᐗᓈᑕ	-11.0253
ᐋᐸᒋᑑᔮᓐ	-11.0305
▁ᑫᐋᐸᒋᑑ	-11.0451
ᐊᑰᑌᓂ	-11.0609
ᐸᑭᑎᓂᑣ	-11.0778
ᓂᑖᐎᑭᒋᑫᒪᑲ	-11.0856
ᐸᑴᔑᑲᓂᐎ	-11.1059
ᑌᐺᔦᓂᒪᒃ	-11.1126
ᐐᐐᑑᑳᓱ	-11.119
▁ᑭᑭᓇᐙᑕᔕᑫᔓ	-11.1268
ᐃᑭᑐᔦᑭᐸᓐ	-11.1648
1	-11.1767
ᑭᑎᑳᓀᓴᓐ	-11.1769
▁ᑭᑎᓇᐌᒫᑲ	-11.1774
ᓂᔑᐗᓈᑕᓂᓂ	-11.1793
ᐸᔑᐸᐃᑫᐎᑯᒫᓂ	-11.1811
▁ᐁᑮᐅᔑᐲᐊ	-11.1899
▁ᑎᐸᐃᑲ	-11.1927
▁ᑭᑭᔐᒪᓂᑑᒥᓈ	-11.1934
ᐅᒋᑭᑫᒋᑳᑌ	-11.1973
ᑗ	-11.1977
ᐊᓇᒥᐁᐎᑲᒥᑯᓂ	-11.1985
ᐱᒫᑎᓰᒪᐞ	-11.2003
▁ᑳᐃᔑᑭᑭᓄᐊ	-11.2043
▁ᑳᒥᓍᑎᓰ	-11.2043
▁ᑎᑎᐲᑭ	-11.2044
▁ᑲᒀᓂᓴ	-11.2044
▁ᑳᐯᐸᑳᓇᑎ	-11.2044
ᐎᓂᓃᒪᐞ	-11.2044
ᐹᑲᐋᒀᓐ	-11.2044
ᑭᑎᒫᑭᓈᑫ	-11.2044
ᐃᓈᓴᒥᑳᐸᐐᑕᐙ	-11.2044
ᐊᑰᒋᓂᓂᒡ	-11.2044
ᐊᔮᒪᑲᓯᓄᒃ	-11.2044
ᐋᐸᒋᑑᑫᒃ	-11.2044
ᐋᔕᐎᔥᑳᐙᒡ	-11.2044
ᐐᒋᒥᓉᑕᒨᒥ	-11.2044
ᐗᓇᑯᔕᓐ	-11.2044
ᐙᐱᔥᑳᓂᐗᓐ	-11.2044
ᐙᓰᑴᓱᒡ	-11.2044
ᐯᔑᑴᐙᓇᑭᓯ	-11.2044
ᐱᒶᓯᓇᐃ	-11.2044
ᐱᓵᓀᑕᒧᐎᓂ	-11.2044
ᐴᓃᓴᑖᑯ	-11.2044
ᐸᒀᓀᑲᒥᒃ	-11.2044
ᐸᒥᓇᒧᐃ	-11.2044
ᐹᐹᐎᓯᑌᔑᒨᓄ	-11.2044
ᐹᑭᑌᓇᒪᐙ	-11.2044
ᑎᐹᑐᑕᕽ	-11.2044
ᑎᐹᒋᒥᑯᒡ	-11.2044
ᑎᐹᒋᒥᑰᐎᓐ	-11.2044
ᑭᑎᑳᓇᑲᒥᑯᕽ	-11.2044
ᑭᑭᓄᐊᒪᐎᓂᓂᒻ	-11.2044
ᑭᑳᓄᒀᓀ	-11.2044
ᑲᑮᐹᒋᒋᑫ	-11.2044
ᒥᑖᔀᔑᓃᔑ	-11.2044
ᒥᒋᒪᐱᓂᑯ	-11.2044
ᒥᓈᑾᐅᓂᓂ	-11.2044
ᒦᑳᑎᓈᓂᐗᓂᓂᒃ	-11.2044
ᒪᒦᒀᓂᑎᓱᓰ	-11.2044
ᒪᔥᑲᐌᑕᒪᕽ	-11.2044
ᒫᓇᒑᓂᔐᓯ	-11.2044
ᓂᑖᐎᑭᓈᐗᓱᒡ	-11.2044
ᓇᓈᑐᓇᐎᒻ	-11.2044
ᓵᑲᐊᒨᒪᑲ	-11.2044
ᔕᔒᐯᓂᒫᐞ	-11.2044
▁ᐁᑮᐐᒋᐊᔮᒥᑰᔦᒃ	-11.2044
▁ᐁᑲᑮᐹᑕᓂᓂᒃ	-11.2044
▁ᐁᓈᓴᒪᐱᓂᒡ	-11.2044
▁ᐁᔖᑯᐌᓂᒡ	-11.2044
▁ᐃᓬᐋᔭᑭ	-11.2044
▁ᐃᔑᐐᔮᓯᐎ	-11.2044
▁ᐃᔑᐴᔔᐃᑎᒃ᙮	-11.2044
▁ᐃᔑᑭᑭᓄᐃᑫ	-11.2044
▁ᐅᐲᐌᓰᒪ	-11.2044
▁ᐅᑎᐹᒋᒨᐞ	-11.2044
▁ᐅᑕᔭᐄᒥᐙᓐ	-11.2044
▁ᐅᑖᔑᑌᔮᑎᑯᒥ	-11.2044
▁ᐅᑖᔑᑌᔮᑎᑯᒪᓐ	-11.2044
▁ᐅᑫᑌᐃᓈᑎᓯᐎ	-11.2044
▁ᐅᑭᑫᑖᓱ	-11.2044
▁ᐅᑮᐐᑕᒪᐙᐙᐞ	-11.2044
▁ᐅᑮᐙᑎᓰᑴ	-11.2044
▁ᐅᑲᔥᑮᑮᐎᓂᐙᓐ	-11.2044
▁ᐅᑲᔥᑮᑮᐎᓂᓂ	-11.2044
▁ᐅᑳᐎᒥᓇᑭᔒ	-11.2044
▁ᐅᑳᑭᑲᓂᐙᕽ	-11.2044
▁ᐅᑾᔭᒀᑎᔅ	-11.2044
▁ᐅᒥᓴᑖᕽ	-11.2044
▁ᐅᒥᔅᑶ	-11.2044
▁ᐅᒦᒋᒥᒥ	-11.2044
▁ᐅᒪᓯᓇᐃᑲᓂ	-11.2044
▁ᐊᐗᑳᓇᒃ	-11.2044
▁ᐊᒀᒀᐱᑭ	-11.2044
▁ᐋᐸᒋᑑᒃ	-11.2044
▁ᐋᓬᐱᔭᓴᓐ	-11.2044
▁ᐋᔩᒋᑳᐸᐎᒃ	-11.2044
▁ᐐᑯᐲᒪᑲᑰᓐ	-11.2044
▁ᐗᓂᔑᓂᓂᒡ	-11.2044
▁ᐙᐱᔥᑮᑭᓄᕽ	-11.2044
▁ᐙᓭᒋᑲᓈᐱ	-11.2044
▁ᐯᔑᑴᑖᑯᓯ	-11.2044
▁ᐱᒫᒋᐃᑎᓱᓐ	-11.2044
▁ᐱᔑᑮᓴᓐ	-11.2044
▁ᐲᑖᐸᓂᓂᒃ	-11.2044
▁ᐲᑴᑕᒧᐎᓐ	-11.2044
▁ᐲᓯᐴᒋᑲᓇᓯᓃᓐ	-11.2044
▁ᐸᑲᒫᔑᒥᓐ	-11.2044
▁ᐸᑲᒫᔑᔮᕽ	-11.2044
▁ᐸᑴᔑᑲᓂᑳᓀᓴᐞ	-11.2044
▁ᐸᓰᑴᑲᓈᒥᒃ	-11.2044
▁ᐸᕒᐋᐸᓴᓐ	-11.2044
▁ᐹᐱᓬᐃᔭ	-11.2044
▁ᑎᐸᐃᑫᐎᔔᓂᔮᓐ	-11.2044
▁ᑎᐹᑯᓂᑫᐎᑲᒥᑯᕽ	-11.2044
▁ᑕᔭᑕᐃᕒᐊ	-11.2044
▁ᑭᐹᑾᐅᑏᐎᑲᒥᑯᕽ	-11.2044
▁ᑭᑌᐃᓈᓂᕽ	-11.2044
▁ᑭᑌᐺᑕᒧᐎᓂᓈᓂᕽ	-11.2044
▁ᑭᑎᑫᐗᑮᓂ	-11.2044
▁ᑭᑎᑭᑐᒻ	-11.2044
▁ᑭᑎᓀᑖᑯᓯᒻ	-11.2044
▁ᑭᑑᐱᒫᒋᐃᐌᒥᓈᓐ	-11.2044
▁ᑭᑑᒋᑎᐯᑖᑯᓯᒻ	-11.2044
▁ᑭᑑᓇᔓᐌᐎᓂᓈ	-11.2044
▁ᑭᑫᑌᐃᓈᑎᓯᐎᓂᐙ	-11.2044
3	-11.4865
ᓋ	-11.5077
ᒞ	-11.5136
)	-11.5139
.	-11.9639
x	-11.9639
–	-12.7699
7	-12.7702
(	-12.7963
ᔡ	-12.7964
ᒍ	-12.7965
ᐾ	-12.7966
ᒸ	-12.7967
ᔪ	-12.7968
ᔗ	-12.7969
X	-12.797
ᒎ	-12.7971
~	-12.7972
"	-12.7972
/	-12.7972
Z	-12.7972
[	-12.7972
]	-12.7972
a	-12.7972
u	-12.7972
ᐼ	-12.7972
ᒒ	-12.7972
ᐧ	-12.7972
ᑡ	-12.7972
ᒑ	-12.7972
