<pad>	0
</s>	0
<unk>	0
▁¦	-0
de	-1
▁s	-2
en	-3
ll	-4
an	-5
ar	-6
ch	-7
▁h	-8
er	-9
och	-10
om	-11
tt	-12
in	-13
ör	-14
▁f	-15
▁𐋇	-16
är	-17
▁de	-18
ig	-19
▁och	-20
▁t	-21
▁m	-22
▁d	-23
▁v	-24
on	-25
▁,	-26
ill	-27
st	-28
ade	-29
▁a	-30
ka	-31
ag	-32
▁b	-33
or	-34
ck	-35
▁i	-36
et	-37
än	-38
ra	-39
ed	-40
na	-41
el	-42
▁för	-43
un	-44
▁g	-45
der	-46
▁till	-47
▁k	-48
▁l	-49
▁.	-50
▁han	-51
för	-52
▁e	-53
kall	-54
da	-55
ån	-56
jag	-57
▁som	-58
ing	-59
va	-60
på	-61
ol	-62
som	-63
▁u	-64
cke	-65
sa	-66
den	-67
▁H	-68
▁n	-69
pp	-70
▁att	-71
sk	-72
rä	-73
▁så	-74
vi	-75
ta	-76
ud	-77
ter	-78
till	-79
▁»	-80
onom	-81
ver	-82
han	-83
▁är	-84
▁O	-85
▁sk	-86
es	-87
▁en	-88
▁st	-89
▁den	-90
äl	-91
▁D	-92
▁skall	-93
us	-94
os	-95
▁det	-96
li	-97
▁jag	-98
så	-99
äg	-100
kt	-101
▁I	-102
var	-103
▁J	-104
▁Och	-105
▁på	-106
ri	-107
att	-108
▁av	-109
av	-110
itt	-111
▁icke	-112
and	-113
▁var	-114
ot	-115
▁S	-116
ung	-117
ER	-118
RE	-119
ERRE	-120
▁med	-121
▁vi	-122
lla	-123
▁HERRE	-124
ina	-125
det	-126
år	-127
▁HERREN	-128
rån	-129
ju	-130
åt	-131
▁har	-132
▁M	-133
re	-134
it	-135
▁ö	-136
åg	-137
ro	-138
ren	-139
mm	-140
▁dem	-141
▁honom	-142
▁du	-143
ja	-144
ad	-145
omm	-146
le	-147
els	-148
▁ut	-149
lig	-150
as	-151
fter	-152
jor	-153
▁G	-154
at	-155
al	-156
▁upp	-157
rö	-158
dig	-159
are	-160
▁;	-161
onung	-162
ru	-163
▁o	-164
▁där	-165
tta	-166
erren	-167
olk	-168
▁mig	-169
ning	-170
▁om	-171
▁p	-172
▁in	-173
änn	-174
▁sig	-175
▁dig	-176
em	-177
▁:	-178
▁A	-179
llt	-180
ut	-181
is	-182
▁sade	-183
skall	-184
het	-185
▁eder	-186
med	-187
▁Gud	-188
.»	-189
▁över	-190
▁hade	-191
ff	-192
ller	-193
lä	-194
ull	-195
icke	-196
herren	-197
du	-198
▁hans	-199
arn	-200
öra	-201
ram	-202
arna	-203
från	-204
▁𐊣	-205
am	-206
ång	-207
▁komm	-208
ola	-209
ens	-210
där	-211
ne	-212
▁då	-213
har	-214
vid	-215
eg	-216
ava	-217
dem	-218
▁sin	-219
ans	-220
id	-221
▁konung	-222
ön	-223
▁alla	-224
ras	-225
▁Men	-226
yn	-227
og	-228
honom	-229
erna	-230
då	-231
men	-232
ss	-233
▁gi	-234
od	-235
ort	-236
ande	-237
jäl	-238
oss	-239
und	-240
▁folk	-241
▁bli	-242
▁man	-243
äm	-244
▁åt	-245
▁E	-246
öd	-247
upp	-248
jän	-249
▁ett	-250
▁från	-251
eder	-252
sra	-253
▁såsom	-254
sig	-255
▁din	-256
ab	-257
▁min	-258
▁nu	-259
ord	-260
▁Isra	-261
vit	-262
▁när	-263
te	-264
äger	-265
▁efter	-266
äng	-267
ett	-268
ste	-269
▁någ	-270
efter	-271
land	-272
gud	-273
enom	-274
inn	-275
sade	-276
▁T	-277
edan	-278
under	-279
la	-280
▁allt	-281
ur	-282
mig	-283
lev	-284
▁Då	-285
gi	-286
ög	-287
▁hel	-288
▁skola	-289
ann	-290
▁vad	-291
över	-292
andra	-293
▁ty	-294
rätt	-295
ken	-296
▁N	-297
▁men	-298
se	-299
ulle	-300
yg	-301
▁dag	-302
il	-303
▁hava	-304
ock	-305
ul	-306
▁barn	-307
▁son	-308
ba	-309
▁r	-310
▁å	-311
▁ock	-312
▁vid	-313
komm	-314
ader	-315
isk	-316
oro	-317
▁må	-318
ingen	-319
alla	-320
ft	-321
sta	-322
▁fram	-323
▁li	-324
ätt	-325
▁be	-326
▁.»	-327
off	-328
ty	-329
▁mot	-330
▁B	-331
iga	-332
hade	-333
yck	-334
▁sina	-335
▁hus	-336
▁hu	-337
▁deras	-338
hans	-339
jär	-340
olen	-341
när	-342
del	-343
des	-344
▁detta	-345
be	-346
man	-347
bli	-348
ända	-349
aga	-350
öl	-351
▁vill	-352
ött	-353
▁-	-354
min	-355
else	-356
▁HERRENS	-357
ak	-358
ga	-359
ott	-360
folk	-361
mn	-362
▁tal	-363
ska	-364
▁oss	-365
▁tjän	-366
sin	-367
▁vil	-368
vär	-369
lag	-370
ast	-371
kte	-372
vå	-373
▁'	-374
konung	-375
▁gjor	-376
ände	-377
▁gå	-378
ti	-379
må	-380
▁Israels	-381
▁Ty	-382
sam	-383
tet	-384
cka	-385
ose	-386
▁eller	-387
vad	-388
mot	-389
hel	-390
▁sitt	-391
son	-392
varade	-393
fär	-394
gå	-395
▁få	-396
▁K	-397
nu	-398
jorden	-399
▁under	-400
▁vara	-401
öner	-402
all	-403
eru	-404
äll	-405
▁se	-406
offer	-407
ring	-408
▁säger	-409
räst	-410
imm	-411
uda	-412
nen	-413
äder	-414
im	-415
hu	-416
▁mitt	-417
nes	-418
▁Så	-419
▁na	-420
▁land	-421
▁V	-422
ligen	-423
eller	-424
▁F	-425
såsom	-426
dan	-427
▁äro	-428
▁själ	-429
allt	-430
▁här	-431
ännisk	-432
din	-433
▁genom	-434
▁göra	-435
▁dina	-436
ly	-437
▁skulle	-438
▁?	-439
▁--	-440
isra	-441
▁bliva	-442
åd	-443
dag	-444
▁blev	-445
▁komma	-446
▁le	-447
▁någon	-448
aden	-449
▁utan	-450
ara	-451
enne	-452
▁rätt	-453
stad	-454
lem	-455
barn	-456
rar	-457
hus	-458
inna	-459
esus	-460
sm	-461
änder	-462
väl	-463
▁dö	-464
gjor	-465
▁ar	-466
▁ned	-467
▁sta	-468
samm	-469
erusa	-470
éerna	-471
erusalem	-472
någ	-473
pa	-474
andet	-475
ron	-476
▁fi	-477
▁voro	-478
äga	-479
räd	-480
gon	-481
ygg	-482
ät	-483
hö	-484
färdig	-485
äst	-486
yp	-487
red	-488
hör	-489
vet	-490
▁dess	-491
edra	-492
nar	-493
▁brö	-494
▁hör	-495
▁väl	-496
här	-497
avid	-498
▁hand	-499
lar	-500
erre	-501
▁konungen	-502
rof	-503
▁David	-504
bet	-505
amm	-506
skola	-507
lå	-508
▁bort	-509
▁ord	-510
ia	-511
je	-512
lat	-513
▁beg	-514
▁syn	-515
ker	-516
erg	-517
▁hon	-518
▁kun	-519
▁än	-520
▁folket	-521
detta	-522
immel	-523
▁kom	-524
ära	-525
▁ur	-526
hava	-527
lade	-528
vara	-529
ven	-530
▁skolen	-531
▁ju	-532
▁ditt	-533
▁P	-534
▁hav	-535
▁inför	-536
▁hela	-537
▁Guds	-538
kun	-539
ifrån	-540
rukt	-541
terna	-542
fram	-543
vill	-544
▁Där	-545
▁De	-546
ölj	-547
▁all	-548
dr	-549
ssa	-550
rofet	-551
▁ifrån	-552
▁stor	-553
▁väg	-554
▁svarade	-555
▁an	-556
▁mina	-557
▁andra	-558
hå	-559
baka	-560
▁Israel	-561
bar	-562
undra	-563
▁först	-564
deras	-565
sina	-566
▁Han	-567
▁När	-568
ret	-569
▁Se	-570
ningar	-571
liga	-572
▁jorden	-573
ypt	-574
▁söner	-575
lö	-576
nat	-577
sen	-578
▁ingen	-579
▁or	-580
herrens	-581
rade	-582
orna	-583
jud	-584
▁namn	-585
▁dessa	-586
▁hög	-587
nade	-588
vinn	-589
lo	-590
▁L	-591
ob	-592
göra	-593
stru	-594
aren	-595
tjän	-596
kom	-597
▁Jag	-598
▁bland	-599
▁giva	-600
räl	-601
ry	-602
järta	-603
▁kan	-604
rik	-605
råg	-606
ännu	-607
▁något	-608
få	-609
ansi	-610
▁gick	-611
▁lå	-612
rist	-613
?»	-614
▁hå	-615
▁Juda	-616
si	-617
ma	-618
ånga	-619
▁fader	-620
▁sedan	-621
rog	-622
▁förb	-623
ger	-624
▁Herren	-625
▁al	-626
lighet	-627
▁fört	-628
kap	-629
▁hö	-630
vil	-631
▁tjänare	-632
jäm	-633
ligt	-634
usen	-635
ighet	-636
nad	-637
äta	-638
läd	-639
▁människ	-640
ingo	-641
▁vår	-642
agt	-643
▁män	-644
▁blivit	-645
kan	-646
▁kommer	-647
▁Jerusalem	-648
▁tog	-649
▁Jesus	-650
kta	-651
eld	-652
rid	-653
▁off	-654
▁präst	-655
uld	-656
åde	-657
▁gjorde	-658
sl	-659
▁henne	-660
▁bl	-661
opp	-662
▁sp	-663
kring	-664
israels	-665
rän	-666
▁år	-667
jung	-668
▁Ab	-669
syn	-670
dom	-671
▁slä	-672
röst	-673
▁mer	-674
mitt	-675
sitt	-676
▁Jo	-677
yr	-678
ling	-679
bliva	-680
dö	-681
▁edra	-682
sp	-683
mar	-684
komma	-685
io	-686
ster	-687
ej	-688
fi	-689
ycket	-690
ve	-691
▁ej	-692
▁on	-693
säger	-694
▁säga	-695
▁tid	-696
bland	-697
ansikte	-698
▁gör	-699
▁får	-700
låt	-701
▁därför	-702
▁Ja	-703
▁Mose	-704
igt	-705
åda	-706
stå	-707
tar	-708
genom	-709
▁ro	-710
räck	-711
immelen	-712
▁ögon	-713
ned	-714
▁lät	-715
▁ska	-716
▁gjort	-717
dina	-718
själ	-719
trä	-720
skulle	-721
▁R	-722
▁två	-723
▁själv	-724
äro	-725
värd	-726
gen	-727
▁denna	-728
▁ka	-729
gär	-730
▁sju	-731
utan	-732
sten	-733
▁vet	-734
sammans	-735
blev	-736
unn	-737
hon	-738
mer	-739
tid	-740
▁åter	-741
▁vatt	-742
akt	-743
▁landet	-744
eb	-745
gjorde	-746
oder	-747
▁sl	-748
▁dr	-749
iska	-750
någon	-751
▁hos	-752
▁låt	-753
▁sådan	-754
tio	-755
ov	-756
sal	-757
hand	-758
sedan	-759
▁tillbaka	-760
▁tre	-761
▁stad	-762
präst	-763
vud	-764
▁profet	-765
▁läg	-766
dar	-767
gör	-768
fader	-769
▁gav	-770
ik	-771
▁br	-772
gypt	-773
▁rättfärdig	-774
▁låta	-775
sar	-776
ena	-777
enast	-778
▁vå	-779
brö	-780
▁bo	-781
ennes	-782
ännen	-783
tten	-784
roder	-785
äck	-786
▁berg	-787
▁ja	-788
väg	-789
▁Om	-790
▁Egypt	-791
voro	-792
ser	-793
▁liv	-794
▁dagen	-795
▁hundra	-796
ödde	-797
▁äl	-798
stån	-799
innes	-800
edom	-801
hav	-802
aul	-803
agen	-804
sö	-805
konungen	-806
dess	-807
män	-808
▁huru	-809
▁haven	-810
▁hjärta	-811
går	-812
▁bes	-813
hög	-814
dessa	-815
folket	-816
bort	-817
▁ännu	-818
ika	-819
▁taga	-820
änt	-821
jer	-822
yra	-823
▁re	-824
▁intet	-825
äd	-826
david	-827
erligen	-828
beg	-829
▁såg	-830
▁frukt	-831
▁kommit	-832
läg	-833
vår	-834
äkt	-835
giva	-836
därför	-837
jur	-838
iterna	-839
ons	-840
▁bröder	-841
▁fråg	-842
guds	-843
dens	-844
ditt	-845
fall	-846
hela	-847
▁satt	-848
stor	-849
▁ly	-850
lats	-851
▁bet	-852
mina	-853
iss	-854
ätta	-855
israel	-856
▁samm	-857
▁tusen	-858
▁bliver	-859
fört	-860
op	-861
skolen	-862
▁dit	-863
▁ti	-864
juda	-865
▁Den	-866
▁hustru	-867
ades	-868
▁höra	-869
inför	-870
▁stod	-871
net	-872
▁åstad	-873
agit	-874
idan	-875
ek	-876
tog	-877
▁denne	-878
▁skull	-879
ytt	-880
▁Du	-881
satt	-882
herre	-883
▁lik	-884
läder	-885
star	-886
enbar	-887
▁vin	-888
▁kvar	-889
ropp	-890
▁sö	-891
▁fem	-892
▁ol	-893
▁vä	-894
gick	-895
▁ända	-896
ige	-897
svarade	-898
ets	-899
jug	-900
▁emot	-901
landet	-902
▁lika	-903
▁staden	-904
ham	-905
stra	-906
öll	-907
▁kall	-908
▁äta	-909
▁fick	-910
▁många	-911
▁död	-912
ristus	-913
▁gud	-914
▁ansikte	-915
▁skri	-916
▁också	-917
jämte	-918
▁sm	-919
▁hem	-920
▁mån	-921
ämligen	-922
söner	-923
▁dri	-924
▁omkring	-925
otter	-926
▁kunna	-927
vinna	-928
tan	-929
udakt	-930
▁talade	-931
▁trä	-932
▁försam	-933
bl	-934
namn	-935
skap	-936
orgon	-937
hag	-938
skri	-939
▁kommo	-940
bör	-941
▁hålla	-942
.'	-943
▁himmelen	-944
sak	-945
ärl	-946
▁går	-947
nas	-948
ell	-949
igen	-950
skar	-951
list	-952
raft	-953
▁!	-954
bor	-955
▁ber	-956
▁vatten	-957
ager	-958
▁lär	-959
▁stå	-960
människ	-961
följ	-962
▁eftersom	-963
håll	-964
ilver	-965
kommer	-966
vä	-967
annan	-968
Jag	-969
▁eld	-970
pel	-971
van	-972
▁fäder	-973
något	-974
tjänare	-975
▁mycket	-976
tal	-977
▁dagar	-978
änd	-979
jo	-980
▁rik	-981
éernas	-982
räm	-983
▁drog	-984
ld	-985
stod	-986
förb	-987
▁ställ	-988
▁städer	-989
onde	-990
slä	-991
cken	-992
ycken	-993
ningen	-994
vin	-995
▁und	-996
låta	-997
ukt	-998
frukt	-999
▁Jak	-1000
annen	-1001
ställ	-1002
▁vitt	-1003
bo	-1004
▁tro	-1005
▁sände	-1006
▁?»	-1007
dde	-1008
▁fly	-1009
▁måste	-1010
▁människor	-1011
fta	-1012
jus	-1013
höra	-1014
▁Saul	-1015
▁förde	-1016
kunna	-1017
änner	-1018
▁bed	-1019
blivit	-1020
rig	-1021
▁slag	-1022
ål	-1023
vd	-1024
ark	-1025
gar	-1026
yll	-1027
▁sagt	-1028
▁lö	-1029
▁Jakob	-1030
sb	-1031
huru	-1032
pen	-1033
baot	-1034
sn	-1035
▁döda	-1036
▁synd	-1037
bed	-1038
diga	-1039
kar	-1040
jesus	-1041
rede	-1042
rus	-1043
vis	-1044
ende	-1045
▁tala	-1046
▁huvud	-1047
jerusalem	-1048
▁givit	-1049
▁vis	-1050
gjort	-1051
▁fräl	-1052
▁läng	-1053
samma	-1054
vor	-1055
ua	-1056
pade	-1057
dagen	-1058
▁vare	-1059
fem	-1060
vedel	-1061
▁gång	-1062
rätta	-1063
▁mun	-1064
▁Sedan	-1065
änniska	-1066
▁hennes	-1067
får	-1068
bygg	-1069
▁För	-1070
henne	-1071
rå	-1072
säga	-1073
gav	-1074
lät	-1075
knen	-1076
ellan	-1077
▁blod	-1078
▁bud	-1079
▁guld	-1080
kor	-1081
höj	-1082
▁händer	-1083
gång	-1084
▁bor	-1085
▁broder	-1086
unt	-1087
▁Därför	-1088
dat	-1089
fly	-1090
jas	-1091
bliver	-1092
has	-1093
judit	-1094
jugu	-1095
slag	-1096
lipp	-1097
ttio	-1098
älla	-1099
▁stora	-1100
dri	-1101
vo	-1102
osef	-1103
ingar	-1104
▁fast	-1105
eli	-1106
▁Därefter	-1107
▁allenast	-1108
um	-1109
▁ren	-1110
raham	-1111
lär	-1112
talade	-1113
räk	-1114
▁full	-1115
▁hörde	-1116
▁gär	-1117
ender	-1118
▁heller	-1119
yd	-1120
digt	-1121
omo	-1122
▁hjäl	-1123
▁Jer	-1124
▁lig	-1125
två	-1126
önder	-1127
berg	-1128
visa	-1129
▁eg	-1130
▁Sal	-1131
▁moder	-1132
lek	-1133
mose	-1134
taga	-1135
▁svärd	-1136
hem	-1137
abel	-1138
ästa	-1139
ältet	-1140
öttrar	-1141
ars	-1142
▁helg	-1143
▁vilka	-1144
emot	-1145
sju	-1146
ten	-1147
▁offer	-1148
ran	-1149
åter	-1150
▁våra	-1151
▁kvinn	-1152
▁samma	-1153
jord	-1154
onen	-1155
taret	-1156
bes	-1157
era	-1158
öda	-1159
▁fri	-1160
▁lag	-1161
▁både	-1162
▁följ	-1163
▁ville	-1164
träd	-1165
denna	-1166
mo	-1167
▁Aron	-1168
▁sätt	-1169
▁finnes	-1170
själv	-1171
▁tr	-1172
mma	-1173
▁Det	-1174
arnas	-1175
▁tän	-1176
val	-1177
▁pl	-1178
▁Var	-1179
▁nåd	-1180
▁dock	-1181
▁prästen	-1182
arm	-1183
▁vilja	-1184
oskap	-1185
ännoffer	-1186
ber	-1187
hålla	-1188
skull	-1189
▁kött	-1190
▁sten	-1191
stånd	-1192
sådan	-1193
▁dom	-1194
yl	-1195
ack	-1196
▁arbet	-1197
▁vilken	-1198
hustru	-1199
mmar	-1200
br	-1201
viterna	-1202
fri	-1203
▁röst	-1204
odde	-1205
▁gott	-1206
▁uppenbar	-1207
▁Eli	-1208
▁fur	-1209
▁fött	-1210
▁själva	-1211
issgär	-1212
▁An	-1213
▁kunde	-1214
ir	-1215
profet	-1216
▁san	-1217
▁port	-1218
▁tron	-1219
hos	-1220
▁and	-1221
ögon	-1222
bär	-1223
▁el	-1224
elser	-1225
bud	-1226
▁og	-1227
▁häm	-1228
▁herre	-1229
▁Egypten	-1230
fra	-1231
▁föra	-1232
enskap	-1233
såg	-1234
tre	-1235
rättfärdig	-1236
jen	-1237
▁Gi	-1238
▁varit	-1239
bb	-1240
iten	-1241
res	-1242
▁fatt	-1243
▁Kristus	-1244
das	-1245
far	-1246
▁blevo	-1247
▁kropp	-1248
▁sam	-1249
haven	-1250
▁försk	-1251
tillbaka	-1252
jon	-1253
▁En	-1254
▁gingo	-1255
vu	-1256
skil	-1257
▁ev	-1258
osua	-1259
▁nämligen	-1260
jak	-1261
järtan	-1262
därefter	-1263
erk	-1264
▁räd	-1265
liv	-1266
dste	-1267
fråg	-1268
▁äng	-1269
▁plats	-1270
egypt	-1271
kter	-1272
▁kär	-1273
givit	-1274
oda	-1275
vat	-1276
▁Detta	-1277
kommit	-1278
▁ogudakt	-1279
▁best	-1280
ffa	-1281
denne	-1282
vr	-1283
▁stam	-1284
▁framför	-1285
änna	-1286
hundra	-1287
fa	-1288
par	-1289
▁sj	-1290
▁lev	-1291
▁oren	-1292
est	-1293
bröder	-1294
pl	-1295
unga	-1296
▁rö	-1297
▁gläd	-1298
▁veta	-1299
▁Si	-1300
arao	-1301
▁födde	-1302
lik	-1303
också	-1304
ias	-1305
▁rättfärdighet	-1306
föra	-1307
mån	-1308
intet	-1309
▁strid	-1310
▁morgon	-1311
▁konungens	-1312
ug	-1313
hjärta	-1314
ycka	-1315
förde	-1316
▁U	-1317
kten	-1318
▁ande	-1319
▁silver	-1320
olv	-1321
redje	-1322
▁begyn	-1323
▁heliga	-1324
tän	-1325
▁finna	-1326
▁giver	-1327
hjäl	-1328
▁välsig	-1329
ningarna	-1330
lika	-1331
▁dotter	-1332
nesbör	-1333
▁ont	-1334
▁sidan	-1335
fte	-1336
▁satte	-1337
▁fördär	-1338
org	-1339
jamin	-1340
ida	-1341
röj	-1342
empel	-1343
först	-1344
▁fått	-1345
▁hed	-1346
▁vän	-1347
rukta	-1348
▁bygg	-1349
»,	-1350
▁annan	-1351
▁Sam	-1352
▁träd	-1353
ygga	-1354
▁makt	-1355
▁tiden	-1356
elsen	-1357
satte	-1358
▁kraft	-1359
▁filist	-1360
ben	-1361
kl	-1362
alt	-1363
stade	-1364
▁förbund	-1365
atan	-1366
▁säg	-1367
dit	-1368
▁Bet	-1369
elset	-1370
fraim	-1371
lingen	-1372
to	-1373
försam	-1374
staden	-1375
▁gr	-1376
▁draga	-1377
ryck	-1378
eftersom	-1379
▁frågade	-1380
ke	-1381
▁läm	-1382
unnit	-1383
▁båda	-1384
▁verk	-1385
▁jämte	-1386
ittning	-1387
vare	-1388
uel	-1389
▁slog	-1390
▁Egyptens	-1391
nelse	-1392
verk	-1393
tiden	-1394
tusen	-1395
dade	-1396
hörde	-1397
esu	-1398
▁På	-1399
▁bära	-1400
▁kläder	-1401
▁lärjung	-1402
ban	-1403
▁vrede	-1404
eln	-1405
▁öpp	-1406
▁undan	-1407
▁Sebaot	-1408
rev	-1409
drog	-1410
dagar	-1411
▁drä	-1412
▁far	-1413
▁ing	-1414
bel	-1415
ust	-1416
födde	-1417
sning	-1418
▁jud	-1419
vån	-1420
vinnerligen	-1421
▁fång	-1422
städer	-1423
▁havet	-1424
▁arvedel	-1425
iel	-1426
inne	-1427
kvar	-1428
tala	-1429
ölja	-1430
▁hit	-1431
▁föll	-1432
omkring	-1433
▁förstån	-1434
hab	-1435
▁låg	-1436
▁varandra	-1437
ats	-1438
len	-1439
▁fyra	-1440
▁före	-1441
▁onda	-1442
drig	-1443
ften	-1444
lakt	-1445
åstad	-1446
▁leva	-1447
▁ljus	-1448
▁människa	-1449
råd	-1450
öm	-1451
▁mannen	-1452
saf	-1453
▁sex	-1454
▁därefter	-1455
bu	-1456
po	-1457
▁vägen	-1458
anns	-1459
många	-1460
▁Fader	-1461
▁sådant	-1462
prästen	-1463
tes	-1464
smän	-1465
bära	-1466
issgärning	-1467
säg	-1468
▁mör	-1469
▁vände	-1470
död	-1471
fick	-1472
sätt	-1473
▁Sim	-1474
▁dör	-1475
▁råd	-1476
vriga	-1477
▁främ	-1478
▁lång	-1479
▁talat	-1480
▁tjugu	-1481
vän	-1482
▁lade	-1483
her	-1484
arken	-1485
oppar	-1486
lingar	-1487
▁barns	-1488
ytter	-1489
offret	-1490
dju	-1491
ela	-1492
▁ske	-1493
▁bröd	-1494
▁vidare	-1495
▁gärningar	-1496
rott	-1497
inner	-1498
Vad	-1499
anna	-1500
sagt	-1501
▁höll	-1502
▁Josef	-1503
djur	-1504
iv	-1505
vatten	-1506
▁reger	-1507
▁Man	-1508
▁prästerna	-1509
essa	-1510
Se	-1511
järn	-1512
▁bef	-1513
▁vem	-1514
kommo	-1515
▁öknen	-1516
▁Davids	-1517
▁Salomo	-1518
jöd	-1519
huset	-1520
▁ära	-1521
▁låtit	-1522
▁vända	-1523
▁sönder	-1524
▁fiender	-1525
ske	-1526
▁tjänst	-1527
ors	-1528
juta	-1529
sy	-1530
nimm	-1531
etrus	-1532
▁Abraham	-1533
viss	-1534
▁står	-1535
ligare	-1536
▁döttrar	-1537
himmelen	-1538
fäng	-1539
fäder	-1540
▁tillsammans	-1541
▁te	-1542
dock	-1543
▁her	-1544
▁runt	-1545
▁några	-1546
▁härlighet	-1547
ket	-1548
Du	-1549
▁lov	-1550
▁förut	-1551
ordan	-1552
▁alnar	-1553
▁mellan	-1554
annerligen	-1555
drä	-1556
▁.'	-1557
▁fyr	-1558
▁bjudit	-1559
▁himmel	-1560
vem	-1561
port	-1562
gudar	-1563
risti	-1564
broder	-1565
▁ären	-1566
▁helgedom	-1567
läng	-1568
vända	-1569
ha	-1570
äv	-1571
Var	-1572
▁släkt	-1573
äk	-1574
▁offra	-1575
▁brännoffer	-1576
kvinn	-1577
uru	-1578
▁stra	-1579
▁värl	-1580
föll	-1581
▁sätta	-1582
▁bodde	-1583
ner	-1584
ygd	-1585
huvud	-1586
larna	-1587
nimma	-1588
orn	-1589
fött	-1590
våra	-1591
▁vär	-1592
▁länge	-1593
utt	-1594
▁krig	-1595
mycket	-1596
ård	-1597
fräl	-1598
jut	-1599
oning	-1600
fyll	-1601
kret	-1602
lead	-1603
▁igen	-1604
▁stör	-1605
elsetältet	-1606
per	-1607
▁ri	-1608
uren	-1609
▁del	-1610
▁ena	-1611
▁likasom	-1612
behag	-1613
igenom	-1614
sår	-1615
vitt	-1616
sände	-1617
▁Dessa	-1618
eda	-1619
fatt	-1620
vding	-1621
händer	-1622
prästerna	-1623
▁leviterna	-1624
annade	-1625
▁veder	-1626
▁lo	-1627
ette	-1628
saul	-1629
▁höj	-1630
▁tio	-1631
iternas	-1632
▁ropade	-1633
helg	-1634
måste	-1635
äpp	-1636
tare	-1637
moder	-1638
oren	-1639
ången	-1640
fallning	-1641
▁lägga	-1642
▁kvinna	-1643
mun	-1644
tro	-1645
▁dricka	-1646
ält	-1647
edde	-1648
full	-1649
▁Josua	-1650
står	-1651
Så	-1652
kas	-1653
amla	-1654
▁Ben	-1655
▁Vad	-1656
jakob	-1657
▁gått	-1658
▁fötter	-1659
vag	-1660
!»	-1661
härt	-1662
▁Babel	-1663
▁låter	-1664
▁medan	-1665
▁äldste	-1666
▁hjärtan	-1667
▁förg	-1668
fur	-1669
arbet	-1670
allenast	-1671
san	-1672
▁dju	-1673
ho	-1674
oab	-1675
amil	-1676
hennes	-1677
plats	-1678
fyra	-1679
stora	-1680
▁därav	-1681
▁fingo	-1682
ossa	-1683
hannes	-1684
▁ung	-1685
▁förl	-1686
▁orätt	-1687
▁alltså	-1688
▁natten	-1689
ok	-1690
tag	-1691
männen	-1692
gås	-1693
önst	-1694
▁vart	-1695
▁släkte	-1696
hop	-1697
▁räk	-1698
▁sak	-1699
heliga	-1700
läm	-1701
synd	-1702
vade	-1703
bara	-1704
▁pri	-1705
▁altaret	-1706
häm	-1707
▁by	-1708
blod	-1709
emia	-1710
▁god	-1711
unger	-1712
▁döden	-1713
▁gudar	-1714
▁sy	-1715
unde	-1716
▁Farao	-1717
▁därpå	-1718
▁redan	-1719
▁första	-1720
▁månaden	-1721
vna	-1722
rota	-1723
vilja	-1724
straff	-1725
nesbörd	-1726
jöl	-1727
teck	-1728
▁dra	-1729
salom	-1730
▁håll	-1731
▁hört	-1732
latsen	-1733
oses	-1734
mannen	-1735
abb	-1736
▁rike	-1737
varför	-1738
▁huset	-1739
▁överste	-1740
dra	-1741
yng	-1742
öp	-1743
▁bu	-1744
▁faders	-1745
▁glädje	-1746
fast	-1747
guld	-1748
kött	-1749
▁fot	-1750
▁grä	-1751
▁förs	-1752
▁skam	-1753
▁därtill	-1754
▁jordens	-1755
▁kallade	-1756
tr	-1757
asse	-1758
▁goda	-1759
unda	-1760
mmande	-1761
▁häl	-1762
▁stri	-1763
▁konungar	-1764
råde	-1765
nåd	-1766
vand	-1767
asar	-1768
höll	-1769
finnes	-1770
löd	-1771
▁säd	-1772
▁vag	-1773
▁sett	-1774
▁sång	-1775
▁edert	-1776
▁tredje	-1777
akta	-1778
kade	-1779
derna	-1780
räcka	-1781
ammal	-1782
marker	-1783
gärningar	-1784
äp	-1785
ski	-1786
▁Je	-1787
vilken	-1788
▁stygg	-1789
gr	-1790
hit	-1791
svärd	-1792
▁hopp	-1793
▁folken	-1794
jest	-1795
loden	-1796
▁tolv	-1797
▁vand	-1798
▁falla	-1799
▁alltid	-1800
▁ligger	-1801
▁därifrån	-1802
delse	-1803
▁Herre	-1804
isoffer	-1805
▁Jordan	-1806
ib	-1807
draga	-1808
▁ör	-1809
både	-1810
▁Nej	-1811
▁hop	-1812
▁djur	-1813
▁togo	-1814
heller	-1815
▁helig	-1816
▁marken	-1817
falla	-1818
▁jäm	-1819
▁ser	-1820
▁svär	-1821
▁våld	-1822
▁högra	-1823
drag	-1824
söka	-1825
ypti	-1826
▁gra	-1827
ättre	-1828
illa	-1829
skade	-1830
jan	-1831
▁bön	-1832
▁fjär	-1833
▁annat	-1834
▁lever	-1835
vang	-1836
skär	-1837
giver	-1838
▁talar	-1839
ått	-1840
fått	-1841
kens	-1842
sidan	-1843
▁fa	-1844
▁visa	-1845
▁Efraim	-1846
▁Ba	-1847
int	-1848
mmer	-1849
deles	-1850
▁Ä	-1851
ville	-1852
▁tack	-1853
▁fråga	-1854
▁tagit	-1855
▁tjänar	-1856
▁evinnerligen	-1857
stä	-1858
aria	-1859
kläd	-1860
▁ä	-1861
orr	-1862
▁Na	-1863
▁nöd	-1864
▁sänt	-1865
▁hjälp	-1866
▁stodo	-1867
vangeli	-1868
▁ibland	-1869
▁vandra	-1870
seg	-1871
leva	-1872
mått	-1873
kläder	-1874
▁känna	-1875
▁kärlek	-1876
▁levande	-1877
gingo	-1878
ästar	-1879
ts	-1880
Det	-1881
själva	-1882
▁boskap	-1883
▁håller	-1884
gas	-1885
gott	-1886
hopa	-1887
tron	-1888
ffade	-1889
boskap	-1890
ytterligare	-1891
ala	-1892
ryta	-1893
▁bär	-1894
▁fall	-1895
▁världen	-1896
ild	-1897
▁Av	-1898
▁red	-1899
försk	-1900
▁hämta	-1901
stam	-1902
iskia	-1903
dighet	-1904
uppenbar	-1905
ass	-1906
obe	-1907
▁ny	-1908
döda	-1909
rött	-1910
▁begär	-1911
▁tager	-1912
▁tempel	-1913
mör	-1914
hövit	-1915
▁Jon	-1916
kunde	-1917
▁gammal	-1918
▁vishet	-1919
rämmande	-1920
▁stadgar	-1921
▁besittning	-1922
gri	-1923
åga	-1924
bred	-1925
ycke	-1926
ama	-1927
▁ha	-1928
▁frid	-1929
▁strö	-1930
▁drogo	-1931
▁ligga	-1932
▁tecken	-1933
människor	-1934
▁missgärning	-1935
gn	-1936
bad	-1937
ers	-1938
lippa	-1939
ingsår	-1940
ärskil	-1941
▁Kan	-1942
▁bör	-1943
kropp	-1944
▁begynte	-1945
▁kvinnor	-1946
▁förskräck	-1947
ene	-1948
välsig	-1949
▁ot	-1950
stör	-1951
aulus	-1952
▁bred	-1953
▁Paulus	-1954
▁konungs	-1955
kär	-1956
kon	-1957
gått	-1958
▁Moab	-1959
▁fröj	-1960
morgon	-1961
egypten	-1962
kia	-1963
varit	-1964
smännen	-1965
▁Benjamin	-1966
blevo	-1967
ringa	-1968
ev	-1969
hed	-1970
gläd	-1971
▁fara	-1972
▁vägar	-1973
nämligen	-1974
▁släkter	-1975
finna	-1976
▁El	-1977
hopp	-1978
▁lagen	-1979
kristus	-1980
▁synder	-1981
föd	-1982
rut	-1983
kam	-1984
▁akt	-1985
▁for	-1986
▁mur	-1987
kraft	-1988
▁ving	-1989
▁utval	-1990
▁männen	-1991
▁övriga	-1992
elek	-1993
mmen	-1994
äste	-1995
fo	-1996
▁skö	-1997
anter	-1998
▁egen	-1999
vånare	-2000
▁Petrus	-2001
sj	-2002
lut	-2003
▁kr	-2004
före	-2005
slut	-2006
▁hal	-2007
bedja	-2008
▁fanns	-2009
▁tillhör	-2010
fång	-2011
ätte	-2012
obarn	-2013
obeam	-2014
öj	-2015
mod	-2016
▁pen	-2017
dotter	-2018
ogudakt	-2019
▁följde	-2020
rättfärdighet	-2021
rön	-2022
lägga	-2023
bas	-2024
for	-2025
mju	-2026
▁ta	-2027
ören	-2028
havet	-2029
kelse	-2030
vilka	-2031
▁sons	-2032
▁steg	-2033
▁förstånd	-2034
▁lärjungar	-2035
post	-2036
kvinna	-2037
framför	-2038
▁Re	-2039
▁funn	-2040
▁intill	-2041
▁sådana	-2042
fäll	-2043
räckte	-2044
smannen	-2045
härtighet	-2046
',	-2047
hat	-2048
▁aft	-2049
▁Allt	-2050
▁Ande	-2051
fördär	-2052
förbund	-2053
▁berget	-2054
oft	-2055
dels	-2056
makt	-2057
flykt	-2058
riket	-2059
unden	-2060
▁Jesu	-2061
▁grän	-2062
▁behag	-2063
lärjung	-2064
▁Kristi	-2065
▁finnas	-2066
▁länder	-2067
▁olycka	-2068
önstrade	-2069
kast	-2070
konungens	-2071
veta	-2072
vände	-2073
▁lott	-2074
ändigt	-2075
▁frälsning	-2076
reat	-2077
▁Ma	-2078
▁tag	-2079
▁slut	-2080
▁stället	-2081
följde	-2082
kat	-2083
▁ed	-2084
▁slå	-2085
▁utt	-2086
ernas	-2087
visso	-2088
▁döds	-2089
håller	-2090
soning	-2091
äkreat	-2092
▁fastän	-2093
ont	-2094
▁ru	-2095
▁ski	-2096
▁barm	-2097
▁svar	-2098
▁vattnet	-2099
▁förnimma	-2100
ore	-2101
mäst	-2102
begyn	-2103
strid	-2104
vägen	-2105
äller	-2106
silver	-2107
kallade	-2108
vangelium	-2109
dre	-2110
▁dräp	-2111
▁rädda	-2112
dor	-2113
låter	-2114
ub	-2115
ien	-2116
tade	-2117
▁bel	-2118
äcken	-2119
▁jord	-2120
▁söka	-2121
▁vädu	-2122
▁bygga	-2123
▁varda	-2124
▁frukta	-2125
▁förtör	-2126
skyl	-2127
rat	-2128
fara	-2129
▁skatt	-2130
▁aldrig	-2131
nej	-2132
ögn	-2133
öpp	-2134
sång	-2135
skur	-2136
▁stån	-2137
▁himmelens	-2138
båda	-2139
frågade	-2140
räv	-2141
änga	-2142
▁Neb	-2143
▁ben	-2144
rarna	-2145
undan	-2146
▁Huru	-2147
▁olja	-2148
filist	-2149
▁förkun	-2150
▁koppar	-2151
▁profeten	-2152
▁profeter	-2153
gat	-2154
▁In	-2155
älska	-2156
▁däri	-2157
▁kläd	-2158
▁lamm	-2159
▁furstar	-2160
▁menighet	-2161
Om	-2162
dets	-2163
slog	-2164
sman	-2165
▁tju	-2166
▁Joab	-2167
▁andre	-2168
▁sända	-2169
▁arbete	-2170
sätta	-2171
▁Låt	-2172
talat	-2173
vidare	-2174
ställde	-2175
alltså	-2176
uta	-2177
bröd	-2178
▁Amm	-2179
▁väx	-2180
▁ängel	-2181
▁Herrens	-2182
▁befallning	-2183
given	-2184
visade	-2185
pet	-2186
▁fåg	-2187
▁slakt	-2188
▁filistéerna	-2189
låtit	-2190
oln	-2191
ulla	-2192
ären	-2193
ernakl	-2194
▁tjäna	-2195
▁trettio	-2196
skyn	-2197
De	-2198
hä	-2199
▁St	-2200
klag	-2201
▁ans	-2202
ättade	-2203
▁hette	-2204
▁förrän	-2205
▁trädde	-2206
olö	-2207
rit	-2208
ssy	-2209
redes	-2210
äster	-2211
marken	-2212
byggare	-2213
eser	-2214
togo	-2215
▁Har	-2216
▁het	-2217
▁utg	-2218
ckade	-2219
▁sabb	-2220
bjudit	-2221
▁Gilead	-2222
egyptens	-2223
mönstrade	-2224
▁människorna	-2225
lad	-2226
låg	-2227
sex	-2228
nart	-2229
▁fär	-2230
vrede	-2231
mellan	-2232
sådant	-2233
▁stort	-2234
▁Samuel	-2235
hug	-2236
aten	-2237
hört	-2238
äten	-2239
▁dal	-2240
▁drö	-2241
låten	-2242
▁enda	-2243
▁nära	-2244
sebaot	-2245
▁Efter	-2246
▁lejon	-2247
▁boning	-2248
▁därmed	-2249
▁skaffa	-2250
▁uppstå	-2251
ton	-2252
iske	-2253
rien	-2254
medan	-2255
▁fl	-2256
aron	-2257
lösa	-2258
samt	-2259
▁oför	-2260
▁vore	-2261
sim	-2262
▁»,	-2263
tjänst	-2264
fy	-2265
▁Le	-2266
ljus	-2267
▁lju	-2268
▁ond	-2269
▁trö	-2270
▁Isak	-2271
Varför	-2272
▁given	-2273
▁hunger	-2274
▁tänkte	-2275
▁Jeremia	-2276
▁hedningarna	-2277
folken	-2278
▁Vi	-2279
▁nog	-2280
▁sid	-2281
ränna	-2282
arvedel	-2283
▁Varför	-2284
▁vittnesbörd	-2285
onda	-2286
vårt	-2287
smäkt	-2288
håg	-2289
▁öster	-2290
ckoffer	-2291
▁femtio	-2292
▁förgås	-2293
▁kommen	-2294
varandra	-2295
▁församlade	-2296
▁allasammans	-2297
by	-2298
lämn	-2299
▁dru	-2300
▁Hans	-2301
▁långt	-2302
amiljer	-2303
▁fyrtio	-2304
människa	-2305
▁stannade	-2306
främ	-2307
altaret	-2308
fru	-2309
nan	-2310
▁Vid	-2311
▁hug	-2312
▁huvu	-2313
▁natt	-2314
▁sorg	-2315
▁tung	-2316
▁åker	-2317
▁slags	-2318
dör	-2319
éer	-2320
örj	-2321
vart	-2322
vdingar	-2323
▁kn	-2324
▁dår	-2325
▁föd	-2326
▁bjöd	-2327
imelek	-2328
▁utrota	-2329
lång	-2330
vakt	-2331
tjugu	-2332
Låt	-2333
asa	-2334
▁Ham	-2335
lodet	-2336
▁Alla	-2337
▁sågo	-2338
gården	-2339
▁byggde	-2340
▁Johannes	-2341
▁församling	-2342
of	-2343
bba	-2344
bef	-2345
sid	-2346
▁Be	-2347
▁Nu	-2348
sken	-2349
▁dog	-2350
▁tab	-2351
barns	-2352
▁evig	-2353
▁läger	-2354
▁varför	-2355
▁Manasse	-2356
öt	-2357
kad	-2358
häng	-2359
lakta	-2360
öknen	-2361
oa	-2362
str	-2363
▁äg	-2364
gamm	-2365
▁hår	-2366
josef	-2367
▁inne	-2368
▁hustrur	-2369
ada	-2370
blå	-2371
safat	-2372
davids	-2373
inga	-2374
värl	-2375
▁Esa	-2376
▁arm	-2377
▁sik	-2378
helst	-2379
▁Dock	-2380
▁akta	-2381
▁lust	-2382
▁skör	-2383
▁Moses	-2384
▁gören	-2385
stycken	-2386
▁mycken	-2387
▁namnet	-2388
▁judarna	-2389
▁helgedomen	-2390
doms	-2391
abraham	-2392
fiender	-2393
▁kal	-2394
reger	-2395
▁mark	-2396
himmel	-2397
▁livet	-2398
▁strax	-2399
▁hövding	-2400
orra	-2401
stodo	-2402
ropade	-2403
härlighet	-2404
.'»	-2405
best	-2406
sett	-2407
▁rör	-2408
orätt	-2409
▁Baal	-2410
▁högt	-2411
▁lyss	-2412
▁sant	-2413
salomo	-2414
▁grund	-2415
▁spisoffer	-2416
kön	-2417
tel	-2418
några	-2419
sönder	-2420
änk	-2421
lamm	-2422
▁sen	-2423
förut	-2424
▁eget	-2425
▁lära	-2426
▁vårt	-2427
döttrar	-2428
▁Fadern	-2429
▁känner	-2430
▁ställe	-2431
▁ställde	-2432
naden	-2433
tillsammans	-2434
Vi	-2435
▁c	-2436
fyr	-2437
lor	-2438
färd	-2439
livet	-2440
▁Sion	-2441
▁förö	-2442
▁stark	-2443
▁område	-2444
▁sjunde	-2445
slå	-2446
aans	-2447
skrivet	-2448
ckså	-2449
runt	-2450
vatt	-2451
▁mat	-2452
▁mär	-2453
▁tör	-2454
▁föda	-2455
▁ting	-2456
▁svara	-2457
likasom	-2458
▁Ah	-2459
▁ry	-2460
igas	-2461
mäkt	-2462
▁All	-2463
delser	-2464
faders	-2465
▁bedrö	-2466
▁egypti	-2467
▁likväl	-2468
▁syster	-2469
ny	-2470
gåva	-2471
▁Må	-2472
▁gen	-2473
▁berö	-2474
▁läpp	-2475
▁sitta	-2476
▁solen	-2477
▁Jerusalems	-2478
esa	-2479
älek	-2480
alnar	-2481
släkt	-2482
berget	-2483
god	-2484
▁si	-2485
stri	-2486
▁små	-2487
▁mjöl	-2488
▁träl	-2489
▁förkunna	-2490
kr	-2491
aka	-2492
näm	-2493
barm	-2494
krig	-2495
ebron	-2496
helgedom	-2497
brännoffer	-2498
▁Dan	-2499
därav	-2500
varar	-2501
▁skap	-2502
▁skyn	-2503
▁rätta	-2504
▁Jakobs	-2505
▁bestäm	-2506
▁tionde	-2507
▁varken	-2508
äkreatur	-2509
▁skrivet	-2510
kalla	-2511
oka	-2512
▁sn	-2513
ledes	-2514
länge	-2515
▁Hiskia	-2516
▁gånger	-2517
▁fruktan	-2518
▁tillhopa	-2519
öta	-2520
ötte	-2521
änker	-2522
rofast	-2523
yllene	-2524
▁fr	-2525
▁Vem	-2526
bodde	-2527
▁egna	-2528
▁skuld	-2529
▁funnit	-2530
▁kvinnan	-2531
▁främmande	-2532
▁profeterna	-2533
följa	-2534
sträv	-2535
sai	-2536
omål	-2537
▁ark	-2538
▁bad	-2539
stygg	-2540
veder	-2541
▁fäng	-2542
▁star	-2543
▁begav	-2544
▁särskil	-2545
▁regeringsår	-2546
porten	-2547
häl	-2548
▁Sk	-2549
▁seg	-2550
▁sida	-2551
▁Såsom	-2552
▁levde	-2553
▁älska	-2554
▁flydde	-2555
▁fåfäng	-2556
ryd	-2557
agog	-2558
dige	-2559
steg	-2560
osonen	-2561
leviterna	-2562
▁Sa	-2563
akar	-2564
förg	-2565
▁Her	-2566
▁tan	-2567
HERRE	-2568
tagit	-2569
▁Ahas	-2570
▁mått	-2571
första	-2572
▁altare	-2573
▁lägret	-2574
▁skrift	-2575
▁alldeles	-2576
▁syndoffer	-2577
ting	-2578
babel	-2579
mor	-2580
pri	-2581
▁ens	-2582
▁lön	-2583
offra	-2584
redan	-2585
▁bitt	-2586
▁gåvo	-2587
▁inom	-2588
▁stenar	-2589
▁större	-2590
ernaklet	-2591
▁Absalom	-2592
▁sanning	-2593
▁utmarker	-2594
anja	-2595
sons	-2596
ving	-2597
hal	-2598
▁Am	-2599
svär	-2600
▁Min	-2601
▁yng	-2602
tagen	-2603
▁fördärv	-2604
▁platsen	-2605
sg	-2606
rop	-2607
hjärtan	-2608
pur	-2609
▁dyr	-2610
▁Sime	-2611
▁pred	-2612
▁finner	-2613
▁invånare	-2614
rov	-2615
tti	-2616
skam	-2617
älsk	-2618
därtill	-2619
fot	-2620
ind	-2621
lile	-2622
▁Hon	-2623
josua	-2624
velse	-2625
dricka	-2626
äldste	-2627
▁Också	-2628
▁siklar	-2629
▁förgöra	-2630
▁ogudaktiga	-2631
▁människobarn	-2632
bon	-2633
fingo	-2634
hjälp	-2635
natten	-2636
sik	-2637
fjär	-2638
lärde	-2639
▁vila	-2640
▁floden	-2641
▁högtid	-2642
▁porten	-2643
▁Jonatan	-2644
▁kastade	-2645
▁stammar	-2646
▁älskade	-2647
▁ytterligare	-2648
ådo	-2649
▁!»	-2650
inda	-2651
rakt	-2652
soffer	-2653
mästaren	-2654
las	-2655
▁nå	-2656
sida	-2657
▁led	-2658
▁ång	-2659
därpå	-2660
känna	-2661
▁vakt	-2662
fötter	-2663
▁begra	-2664
▁Ammons	-2665
▁kunskap	-2666
▁överträ	-2667
strö	-2668
gående	-2669
tjänar	-2670
därifrån	-2671
▁(	-2672
säd	-2673
abyl	-2674
gåvo	-2675
rång	-2676
▁köp	-2677
otade	-2678
abylon	-2679
▁portar	-2680
▁uppfyll	-2681
bul	-2682
hår	-2683
ppa	-2684
fäst	-2685
moab	-2686
våld	-2687
fråga	-2688
talar	-2689
släkte	-2690
månaden	-2691
ym	-2692
▁Å	-2693
bru	-2694
ims	-2695
▁bak	-2696
▁kor	-2697
Herre	-2698
döden	-2699
▁skil	-2700
vänner	-2701
▁bröto	-2702
▁hemsö	-2703
▁still	-2704
▁jämväl	-2705
▁rätter	-2706
▁samman	-2707
konungar	-2708
▁Jerobeam	-2709
▁morgonen	-2710
▁utgjorde	-2711
▁barmhärtighet	-2712
lös	-2713
goda	-2714
dräkt	-2715
vas	-2716
skör	-2717
▁bru	-2718
▁åsn	-2719
annat	-2720
farao	-2721
jordens	-2722
▁försoning	-2723
▁penningar	-2724
▁fångenskap	-2725
▁filistéernas	-2726
fåg	-2727
Gå	-2728
För	-2729
ads	-2730
▁ox	-2731
fria	-2732
lagt	-2733
änka	-2734
ätit	-2735
▁van	-2736
dande	-2737
helig	-2738
rutit	-2739
▁uppe	-2740
djuret	-2741
glädje	-2742
▁tunga	-2743
▁handen	-2744
▁slagna	-2745
lder	-2746
rike	-2747
ligger	-2748
överste	-2749
Ja	-2750
kn	-2751
döm	-2752
löt	-2753
salm	-2754
▁Sid	-2755
▁bas	-2756
hämta	-2757
hända	-2758
hören	-2759
▁döma	-2760
▁just	-2761
▁klag	-2762
▁läto	-2763
▁spet	-2764
▁lovat	-2765
▁otukt	-2766
▁läppar	-2767
▁evangelium	-2768
giv	-2769
mär	-2770
illo	-2771
olja	-2772
jutet	-2773
jungfru	-2774
▁Ar	-2775
▁bok	-2776
edert	-2777
▁kärl	-2778
▁mäkt	-2779
▁ovan	-2780
▁tält	-2781
▁faris	-2782
▁vilket	-2783
▁fjärran	-2784
▁präster	-2785
▁styggelse	-2786
lada	-2787
kommen	-2788
bi	-2789
Vem	-2790
mål	-2791
sel	-2792
▁Är	-2793
▁öd	-2794
leam	-2795
ydda	-2796
skara	-2797
▁Sela	-2798
▁lögn	-2799
▁Arons	-2800
▁Sauls	-2801
▁fasta	-2802
▁funnos	-2803
▁förstå	-2804
▁förtär	-2805
▁aftonen	-2806
cker	-2807
orde	-2808
tager	-2809
trädde	-2810
▁Ö	-2811
Min	-2812
set	-2813
mark	-2814
▁Sik	-2815
▁fal	-2816
▁lit	-2817
▁behö	-2818
▁sjuk	-2819
▁ände	-2820
frukta	-2821
vandra	-2822
▁bryta	-2823
▁höllo	-2824
▁innan	-2825
▁träda	-2826
▁bergen	-2827
▁bättre	-2828
▁hästar	-2829
▁stanna	-2830
▁förbann	-2831
kel	-2832
rör	-2833
frid	-2834
bygga	-2835
sbygd	-2836
stjän	-2837
lileen	-2838
tredje	-2839
▁Ga	-2840
eras	-2841
▁ene	-2842
▁Mika	-2843
▁viss	-2844
högtid	-2845
▁antal	-2846
hövding	-2847
▁köttet	-2848
▁vagnar	-2849
▁fullbor	-2850
▁uppteck	-2851
▁välbehag	-2852
tolv	-2853
hustrur	-2854
gra	-2855
lov	-2856
▁Ka	-2857
erub	-2858
sänt	-2859
väck	-2860
▁Med	-2861
▁bar	-2862
▁rop	-2863
junga	-2864
lämna	-2865
sende	-2866
▁Ahab	-2867
▁djup	-2868
▁lagt	-2869
▁ändå	-2870
alltid	-2871
vishet	-2872
▁basun	-2873
▁gamla	-2874
furstar	-2875
▁ingången	-2876
pe	-2877
grä	-2878
ahas	-2879
sorg	-2880
lever	-2881
kastade	-2882
äktenskap	-2883
».	-2884
gård	-2885
rett	-2886
▁Asa	-2887
▁Sem	-2888
▁gri	-2889
▁kam	-2890
▁Till	-2891
▁ansi	-2892
▁styr	-2893
efraim	-2894
▁stoft	-2895
▁ostraff	-2896
bön	-2897
ktet	-2898
omma	-2899
jordan	-2900
stenar	-2901
huvu	-2902
lott	-2903
sias	-2904
▁Hel	-2905
anden	-2906
änger	-2907
▁Nebu	-2908
skurna	-2909
▁litet	-2910
kvinnor	-2911
levande	-2912
▁därvid	-2913
benjamin	-2914
▁	-2915
¦	-2916
a	-2917
e	-2918
n	-2919
r	-2920
t	-2921
s	-2922
d	-2923
l	-2924
o	-2925
i	-2926
m	-2927
h	-2928
g	-2929
k	-2930
v	-2931
ä	-2932
u	-2933
f	-2934
å	-2935
c	-2936
,	-2937
ö	-2938
b	-2939
p	-2940
j	-2941
.	-2942
𐋇	-2943
y	-2944
»	-2945
E	-2946
;	-2947
R	-2948
:	-2949
H	-2950
S	-2951
D	-2952
N	-2953
O	-2954
J	-2955
I	-2956
M	-2957
G	-2958
A	-2959
?	-2960
-	-2961
𐊣	-2962
𐊼	-2963
'	-2964
T	-2965
V	-2966
B	-2967
F	-2968
K	-2969
é	-2970
!	-2971
x	-2972
L	-2973
P	-2974
U	-2975
Ä	-2976
Å	-2977
(	-2978
Ö	-2979
)	-2980
C	-2981
Y	-2982
2	-2983
0	-2984
4	-2985
6	-2986
1	-2987
8	-2988
9	-2989
ó	-2990
3	-2991
5	-2992
7	-2993
í	-2994
]	-2995
á	-2996
