<pad>	0
</s>	0
<unk>	0
▁¦	-0
ku	-1
ng	-2
ba	-3
▁,	-4
wa	-5
th	-6
na	-7
la	-8
ni	-9
▁𐋇	-10
kh	-11
le	-12
si	-13
zi	-14
ka	-15
ph	-16
lu	-17
nga	-18
we	-19
▁.	-20
ma	-21
thi	-22
ya	-23
lo	-24
ye	-25
nd	-26
ke	-27
be	-28
li	-29
oku	-30
uku	-31
kho	-32
se	-33
za	-34
bo	-35
ne	-36
sa	-37
ngi	-38
pha	-39
yo	-40
yi	-41
um	-42
nge	-43
kulu	-44
kwa	-45
nkulu	-46
mi	-47
ko	-48
aba	-49
ngoku	-50
khu	-51
▁:	-52
▁;	-53
ze	-54
bu	-55
▁“	-56
no	-57
sh	-58
bi	-59
nt	-60
tha	-61
ki	-62
lwa	-63
je	-64
mu	-65
the	-66
hla	-67
so	-68
ngokuba	-69
kepha	-70
nye	-71
fu	-72
kwe	-73
ngo	-74
nke	-75
phe	-76
nkulunkulu	-77
khe	-78
wo	-79
khulu	-80
su	-81
fa	-82
da	-83
uma	-84
▁.”	-85
ha	-86
ukuba	-87
ri	-88
ndi	-89
thu	-90
▁?	-91
ntu	-92
khona	-93
wi	-94
me	-95
ukuthi	-96
kha	-97
ama	-98
wathi	-99
zo	-100
yaku	-101
nya	-102
izi	-103
tho	-104
weni	-105
nje	-106
mba	-107
nda	-108
st	-109
ezi	-110
nko	-111
mbi	-112
phi	-113
ela	-114
ngu	-115
isi	-116
fi	-117
leyo	-118
nkosi	-119
bona	-120
mo	-121
wu	-122
hle	-123
ja	-124
lokho	-125
noku	-126
jesu	-127
rist	-128
zu	-129
nza	-130
kuye	-131
nzi	-132
ndo	-133
pho	-134
de	-135
dwa	-136
nu	-137
ndla	-138
vu	-139
esi	-140
em	-141
lwe	-142
zwi	-143
nja	-144
naba	-145
eli	-146
waye	-147
kubo	-148
tsh	-149
ristu	-150
bh	-151
lela	-152
nx	-153
kristu	-154
umu	-155
zwe	-156
fundi	-157
qa	-158
ini	-159
mbe	-160
▁𐊣	-161
lowo	-162
lokhu	-163
ndu	-164
ngakho	-165
kini	-166
zwa	-167
hlu	-168
kodwa	-169
phaka	-170
qo	-171
sebe	-172
eku	-173
nxa	-174
ngc	-175
ndle	-176
mp	-177
swa	-178
kwaba	-179
njalo	-180
bonke	-181
yisi	-182
ndoda	-183
kela	-184
fe	-185
kholwa	-186
ngaba	-187
nc	-188
va	-189
umi	-190
bathi	-191
suku	-192
nama	-193
ga	-194
kazi	-195
zaku	-196
hlo	-197
konke	-198
wele	-199
▁‘	-200
nezi	-201
ngena	-202
eka	-203
phendu	-204
gc	-205
ningi	-206
nina	-207
qini	-208
nze	-209
moya	-210
ru	-211
ukuze	-212
baba	-213
▁?”	-214
noma	-215
ju	-216
kuba	-217
munye	-218
ro	-219
muntu	-220
ngama	-221
phu	-222
kube	-223
khuluma	-224
lwane	-225
kanye	-226
ra	-227
imi	-228
wayese	-229
hli	-230
waba	-231
ese	-232
sho	-233
abe	-234
kile	-235
phambi	-236
lapho	-237
shi	-238
yena	-239
ndodana	-240
leni	-241
mina	-242
wini	-243
aku	-244
sha	-245
thanda	-246
ngenxa	-247
bheka	-248
nase	-249
nsi	-250
nani	-251
eni	-252
bha	-253
phezu	-254
yini	-255
phakathi	-256
owa	-257
phila	-258
umuntu	-259
do	-260
hamba	-261
pa	-262
bula	-263
di	-264
kwathi	-265
fika	-266
vela	-267
futhi	-268
sebenzi	-269
qala	-270
uj	-271
ngcwele	-272
ngalokho	-273
fane	-274
nde	-275
yakhe	-276
ngesi	-277
phela	-278
khathi	-279
juda	-280
ninga	-281
zalwane	-282
enga	-283
saba	-284
nto	-285
khule	-286
dla	-287
ngum	-288
sile	-289
phendula	-290
mbu	-291
angi	-292
du	-293
naye	-294
ngezi	-295
lungi	-296
jo	-297
uya	-298
bani	-299
zela	-300
izwi	-301
lweni	-302
shumi	-303
khi	-304
leli	-305
bonaka	-306
▁.’	-307
esu	-308
ubu	-309
thetho	-310
kunga	-311
mhla	-312
ntwa	-313
rofe	-314
kakhulu	-315
bili	-316
aka	-317
kwakhe	-318
babe	-319
et	-320
funa	-321
bakhe	-322
lele	-323
ngiya	-324
oli	-325
ume	-326
ngithi	-327
hlala	-328
in	-329
gama	-330
lwini	-331
yise	-332
kwenu	-333
ntwana	-334
zulwini	-335
beni	-336
hlizi	-337
kele	-338
uyaku	-339
nesi	-340
ngase	-341
profe	-342
engi	-343
nyama	-344
ngelo	-345
wulu	-346
asi	-347
lile	-348
nami	-349
zonke	-350
wena	-351
siwe	-352
owe	-353
ndlu	-354
yizi	-355
izin	-356
masi	-357
kulo	-358
phuma	-359
phansi	-360
kukhona	-361
ani	-362
ngelosi	-363
gu	-364
ngani	-365
re	-366
manga	-367
bam	-368
base	-369
moni	-370
soku	-371
kimi	-372
kwabo	-373
om	-374
lika	-375
loku	-376
nom	-377
nta	-378
tshe	-379
lunga	-380
risti	-381
swe	-382
ngom	-383
seku	-384
bonakali	-385
yu	-386
zini	-387
ndela	-388
emi	-389
umbu	-390
thile	-391
koku	-392
zane	-393
nabo	-394
sindi	-395
kwenza	-396
etru	-397
kani	-398
phakade	-399
wam	-400
niya	-401
namandla	-402
umo	-403
omunye	-404
labo	-405
sale	-406
nalowo	-407
sika	-408
khosi	-409
kwazi	-410
lutho	-411
zweni	-412
sifa	-413
xuku	-414
nyane	-415
kuka	-416
thoko	-417
abanye	-418
vi	-419
doda	-420
siya	-421
salema	-422
abafundi	-423
khonza	-424
ngokwe	-425
mvu	-426
jeru	-427
mbisa	-428
pristi	-429
yilowo	-430
profethi	-431
jerusalema	-432
mbili	-433
kuze	-434
layo	-435
yoku	-436
gci	-437
kunge	-438
abantu	-439
nhlizi	-440
kuwe	-441
kwami	-442
thina	-443
pawulu	-444
ho	-445
lesi	-446
he	-447
fanele	-448
esa	-449
kisa	-450
woku	-451
hane	-452
lini	-453
lakhe	-454
sifazane	-455
isa	-456
nguku	-457
kanjalo	-458
manje	-459
fileyo	-460
phandle	-461
weyo	-462
yela	-463
ngaye	-464
shuma	-465
themp	-466
thula	-467
go	-468
ngwa	-469
nceku	-470
njani	-471
khuleka	-472
ezulwini	-473
thempeli	-474
wayesethi	-475
hi	-476
unga	-477
sela	-478
petru	-479
kuphela	-480
kazimu	-481
nika	-482
yiku	-483
hlezi	-484
qinisile	-485
yami	-486
ngeli	-487
zizwe	-488
ngiyaku	-489
khombisa	-490
ca	-491
riya	-492
njengokuba	-493
zin	-494
fuma	-495
yishumi	-496
▁!	-497
kuyo	-498
lisa	-499
zulu	-500
boni	-501
faka	-502
onga	-503
zakhe	-504
kazimulo	-505
busi	-506
emva	-507
kwenze	-508
vangeli	-509
ababe	-510
thaka	-511
masinyane	-512
lelwa	-513
nguye	-514
johane	-515
thathu	-516
laba	-517
lula	-518
tshi	-519
ila	-520
anga	-521
thela	-522
meni	-523
muka	-524
qiniso	-525
meme	-526
ngemi	-527
pathi	-528
bazalwane	-529
waphendula	-530
uyi	-531
gcwa	-532
hlwa	-533
yethu	-534
bhapathi	-535
khum	-536
kwahlu	-537
mukela	-538
omkhulu	-539
ngaphandle	-540
yeli	-541
umela	-542
zimba	-543
fakazi	-544
ngubani	-545
nkosini	-546
gi	-547
hawu	-548
lezo	-549
emhla	-550
ndawo	-551
uzaku	-552
thatha	-553
ngokuthi	-554
hu	-555
nti	-556
ethi	-557
naku	-558
neni	-559
ndlini	-560
yakuba	-561
ce	-562
risi	-563
lwandle	-564
eza	-565
waya	-566
yathi	-567
thando	-568
themba	-569
ngiqinisile	-570
is	-571
kiso	-572
gcina	-573
farisi	-574
njenga	-575
bonga	-576
njengalokho	-577
ame	-578
beka	-579
beke	-580
muke	-581
nike	-582
wazi	-583
hlanga	-584
awu	-585
chi	-586
qonda	-587
yakho	-588
kileyo	-589
thokoza	-590
nq	-591
wakhe	-592
▁,”	-593
sesi	-594
wami	-595
ngalo	-596
nokuba	-597
fundisa	-598
abaningi	-599
tsha	-600
mhlaba	-601
ab	-602
ta	-603
wase	-604
yebo	-605
kwesi	-606
thelo	-607
bandla	-608
bayaku	-609
ezweni	-610
kwakho	-611
ndleni	-612
yisikhombisa	-613
ema	-614
olu	-615
baya	-616
bela	-617
keni	-618
nazi	-619
vuka	-620
shiya	-621
bhekani	-622
yomuntu	-623
bone	-624
kanjani	-625
tu	-626
izwe	-627
banga	-628
sakhe	-629
sweni	-630
yonke	-631
buye	-632
cala	-633
limi	-634
lise	-635
phon	-636
hluphe	-637
bhu	-638
ebu	-639
nemi	-640
nene	-641
lapha	-642
ngubo	-643
thand	-644
wethu	-645
hlakani	-646
enye	-647
thwa	-648
ngini	-649
fumana	-650
gazi	-651
igama	-652
yaba	-653
zayo	-654
zono	-655
kwase	-656
landela	-657
she	-658
ywa	-659
▁,’	-660
lelo	-661
yalo	-662
kuthe	-663
ngaka	-664
phost	-665
fikile	-666
mthetho	-667
fanekiso	-668
phostoli	-669
nyi	-670
nyu	-671
isra	-672
sono	-673
khanda	-674
tshiwe	-675
zandla	-676
endlini	-677
israyeli	-678
yenu	-679
langa	-680
zwile	-681
bezizwe	-682
imp	-683
nyaka	-684
umusa	-685
memeza	-686
ngathi	-687
ngezwi	-688
okukhulu	-689
umthetho	-690
lase	-691
musa	-692
nyawo	-693
thiwa	-694
umbuso	-695
nambili	-696
nkazimulo	-697
kwakukhona	-698
bum	-699
ncwa	-700
zabo	-701
lonke	-702
kwabafileyo	-703
biza	-704
zoku	-705
demoni	-706
khanya	-707
niyaku	-708
okuhle	-709
isixuku	-710
shumayela	-711
bazi	-712
nhla	-713
raha	-714
hambe	-715
kithi	-716
kukho	-717
nakho	-718
thane	-719
ndlela	-720
nhliziyo	-721
bonakaliso	-722
am	-723
nj	-724
bhe	-725
lami	-726
zenu	-727
ngeni	-728
thethe	-729
nokuthi	-730
ivangeli	-731
isikhathi	-732
ayi	-733
luka	-734
qobo	-735
seni	-736
wabo	-737
thuma	-738
abraha	-739
bulala	-740
indoda	-741
abrahama	-742
ngokukholwa	-743
buka	-744
cela	-745
lilo	-746
mose	-747
galile	-748
amandla	-749
ingelosi	-750
phambili	-751
nkulungwa	-752
kungabi	-753
emhlabeni	-754
thempelini	-755
nkulungwane	-756
ti	-757
kobe	-758
shwa	-759
nathi	-760
ngesa	-761
abanga	-762
abakhulu	-763
nwa	-764
dumo	-765
suka	-766
▁”	-767
mela	-768
nkwa	-769
bethi	-770
inkosi	-771
bukhosi	-772
gog	-773
mbo	-774
bele	-775
uthi	-776
zaba	-777
bhali	-778
nagog	-779
wakho	-780
ntando	-781
phamba	-782
ethempelini	-783
dle	-784
diya	-785
fike	-786
leka	-787
leso	-788
nawe	-789
nibe	-790
yabo	-791
yimi	-792
melwe	-793
uqobo	-794
yweni	-795
mariya	-796
ngweni	-797
ngakholwa	-798
imisebenzi	-799
up	-800
bala	-801
maka	-802
zinto	-803
jakobe	-804
kuqala	-805
fundisi	-806
ngizaku	-807
ci	-808
▁—	-809
omu	-810
beza	-811
ngco	-812
sayo	-813
uthe	-814
vuma	-815
yona	-816
ngobu	-817
yayisi	-818
kubantu	-819
bindi	-820
liswa	-821
mandla	-822
ncenga	-823
ngosuku	-824
ukuphila	-825
un	-826
kuwo	-827
sizi	-828
yisa	-829
nweni	-830
kwenzi	-831
mukele	-832
ndaweni	-833
sabatha	-834
sathane	-835
aye	-836
dumi	-837
sisa	-838
wasi	-839
wonke	-840
khumbi	-841
nginga	-842
ukudla	-843
thumela	-844
sikhathi	-845
nini	-846
hlane	-847
kwaku	-848
nonke	-849
akakho	-850
kwethu	-851
ncwadi	-852
simoni	-853
thembi	-854
kalokhu	-855
elikhulu	-856
lungileyo	-857
ukukholwa	-858
qhu	-859
fowa	-860
nobu	-861
vide	-862
bakho	-863
benga	-864
ndele	-865
phele	-866
phulu	-867
qondi	-868
fowabo	-869
khatha	-870
thandi	-871
njengoku	-872
nhliziyweni	-873
owesifazane	-874
kayo	-875
lona	-876
ngqo	-877
soze	-878
zala	-879
hlobo	-880
sonke	-881
kinina	-882
mangala	-883
nangoku	-884
indodana	-885
izinsuku	-886
njengalokhu	-887
bami	-888
kuso	-889
yeza	-890
hlale	-891
kahle	-892
lakho	-893
ngiku	-894
fakaza	-895
amadoda	-896
ane	-897
ega	-898
mpo	-899
qha	-900
bayi	-901
yala	-902
kanti	-903
nyeni	-904
davide	-905
njengo	-906
tshela	-907
hliziyo	-908
zinsuku	-909
kulotshiwe	-910
ve	-911
mazi	-912
misa	-913
onke	-914
hlaka	-915
ilatu	-916
ngayo	-917
ngcoli	-918
▁!”	-919
fana	-920
zisa	-921
hlanu	-922
khala	-923
nokho	-924
khipha	-925
khonzi	-926
hlwanye	-927
sindiswa	-928
hlanganye	-929
ukum	-930
bhalo	-931
hlela	-932
mbala	-933
owaye	-934
thaba	-935
thele	-936
njenge	-937
phathi	-938
thandeka	-939
ngamashumi	-940
en	-941
abo	-942
kusu	-943
kuyi	-944
wesi	-945
yesi	-946
zile	-947
kelwa	-948
kuthi	-949
ngene	-950
thuku	-951
yedwa	-952
kwafika	-953
kungathi	-954
thembiso	-955
qe	-956
usa	-957
okwa	-958
ngaso	-959
ngazi	-960
thumi	-961
ukufa	-962
amehlo	-963
kuyaku	-964
thembe	-965
esikhulu	-966
eziningi	-967
njengaba	-968
phenduka	-969
abantwana	-970
hlakanipha	-971
bem	-972
eya	-973
fumu	-974
hero	-975
hora	-976
muzi	-977
zama	-978
butha	-979
dlula	-980
indlu	-981
umele	-982
emzini	-983
amabili	-984
nyameni	-985
phefumu	-986
wangena	-987
nagogeni	-988
sobukhosi	-989
dlu	-990
lawo	-991
maye	-992
zimu	-993
kwezi	-994
lahle	-995
lelwe	-996
ngomu	-997
umoya	-998
gcwele	-999
lalela	-1000
othile	-1001
khulume	-1002
sebenza	-1003
sokunene	-1004
yisihlanu	-1005
eziyishumi	-1006
fo	-1007
gq	-1008
febe	-1009
ndwa	-1010
wayi	-1011
abase	-1012
mbuso	-1013
nanga	-1014
nduna	-1015
ngabe	-1016
nithi	-1017
akukho	-1018
khutha	-1019
phambe	-1020
kusukela	-1021
nci	-1022
obu	-1023
ose	-1024
ump	-1025
buza	-1026
ethu	-1027
kesa	-1028
liwe	-1029
ongi	-1030
siye	-1031
yeni	-1032
zuku	-1033
shaya	-1034
madoda	-1035
iqiniso	-1036
umputhe	-1037
gcwalise	-1038
kwahlulela	-1039
okuphakade	-1040
thandekayo	-1041
eziyisikhombisa	-1042
azi	-1043
kom	-1044
nqo	-1045
baze	-1046
make	-1047
sibe	-1048
abeni	-1049
bodwa	-1050
hlalo	-1051
ncane	-1052
zelwa	-1053
ntabeni	-1054
hlupheka	-1055
kholwayo	-1056
phefumulo	-1057
thakathaka	-1058
ngaphambili	-1059
ali	-1060
ebe	-1061
use	-1062
lomo	-1063
ungo	-1064
yayo	-1065
iyaku	-1066
mbuza	-1067
ungum	-1068
zwayo	-1069
amazwi	-1070
kubona	-1071
makube	-1072
ababili	-1073
egameni	-1074
kwalokho	-1075
ima	-1076
boku	-1077
sami	-1078
izono	-1079
kwini	-1080
yihlo	-1081
bonile	-1082
ngamandla	-1083
bar	-1084
ebo	-1085
eyi	-1086
babo	-1087
belo	-1088
file	-1089
nayo	-1090
sele	-1091
vini	-1092
weza	-1093
mpofu	-1094
phuza	-1095
herode	-1096
judiya	-1097
wabona	-1098
ndleleni	-1099
abapristi	-1100
phambanweni	-1101
ge	-1102
qu	-1103
akhe	-1104
duze	-1105
kuzo	-1106
namu	-1107
nywa	-1108
amane	-1109
kuhle	-1110
nange	-1111
njini	-1112
hlophe	-1113
nyelwe	-1114
sukuma	-1115
wazala	-1116
izixuku	-1117
philayo	-1118
umzimba	-1119
izingubo	-1120
esiphambanweni	-1121
eba	-1122
ize	-1123
uzi	-1124
baka	-1125
fowe	-1126
nawo	-1127
sasi	-1128
zami	-1129
bamba	-1130
butho	-1131
hloni	-1132
khuni	-1133
kwaze	-1134
linye	-1135
ngiyi	-1136
umuzi	-1137
thengi	-1138
lungile	-1139
sondela	-1140
bonakala	-1141
kuyakuba	-1142
zukulwane	-1143
qi	-1144
shu	-1145
ube	-1146
embu	-1147
goli	-1148
khwe	-1149
lezi	-1150
siza	-1151
yase	-1152
nezin	-1153
selwe	-1154
shilo	-1155
thole	-1156
dumisa	-1157
golide	-1158
omuhle	-1159
wayini	-1160
wezulu	-1161
ibandla	-1162
ningaba	-1163
wahlala	-1164
endaweni	-1165
khunjini	-1166
kwabantu	-1167
kubafundi	-1168
umzalwane	-1169
ase	-1170
kuna	-1171
lisi	-1172
sila	-1173
wama	-1174
akusi	-1175
bethe	-1176
letha	-1177
lwesi	-1178
phika	-1179
phile	-1180
okunga	-1181
othiwa	-1182
phonsa	-1183
pilatu	-1184
siyaku	-1185
siyazi	-1186
izandla	-1187
lingani	-1188
namuhla	-1189
ngibona	-1190
hlambala	-1191
embusweni	-1192
kulunkulu	-1193
wakhuluma	-1194
nzo	-1195
▁?’	-1196
wula	-1197
dleni	-1198
ndaba	-1199
ngize	-1200
ukuzi	-1201
umhla	-1202
ngakwe	-1203
phatha	-1204
ngomuso	-1205
uthando	-1206
ngukuthi	-1207
dli	-1208
ezin	-1209
laka	-1210
ungi	-1211
ungu	-1212
vusa	-1213
yazi	-1214
zika	-1215
benza	-1216
bizwa	-1217
khube	-1218
kwama	-1219
liphu	-1220
qonde	-1221
singa	-1222
thini	-1223
zethu	-1224
inceku	-1225
ndlebe	-1226
ntathu	-1227
thupha	-1228
wamuka	-1229
fundiso	-1230
khumbula	-1231
mfundisi	-1232
thumileyo	-1233
inkazimulo	-1234
ena	-1235
galo	-1236
jose	-1237
kade	-1238
kuya	-1239
vume	-1240
yibo	-1241
funda	-1242
ngawo	-1243
nzalo	-1244
nziwe	-1245
shoyo	-1246
zakho	-1247
zalwa	-1248
zelwe	-1249
isizwe	-1250
lisiwe	-1251
ngcebo	-1252
ngezin	-1253
thombe	-1254
thweni	-1255
lokuthi	-1256
bekezela	-1257
ukulunga	-1258
mpumputhe	-1259
nokuthula	-1260
shiyagalo	-1261
kwabezizwe	-1262
im	-1263
bhi	-1264
fazi	-1265
nisa	-1266
sana	-1267
kiswa	-1268
lithi	-1269
ngele	-1270
okubi	-1271
phawu	-1272
sithi	-1273
esihla	-1274
nakuba	-1275
nkemba	-1276
nyanga	-1277
wafika	-1278
waqala	-1279
khazimu	-1280
busisiwe	-1281
iminyaka	-1282
izithelo	-1283
khaphela	-1284
longweni	-1285
thandayo	-1286
namalunga	-1287
abangcwele	-1288
gij	-1289
kum	-1290
bayo	-1291
into	-1292
kabi	-1293
kuvu	-1294
yoni	-1295
eliya	-1296
gqila	-1297
khaya	-1298
linga	-1299
mpela	-1300
ngcwe	-1301
retha	-1302
shana	-1303
unina	-1304
uyise	-1305
ehlane	-1306
enkulu	-1307
izinto	-1308
lahlwa	-1309
nikelo	-1310
nyango	-1311
isandla	-1312
pheleli	-1313
ukuthula	-1314
mukeliswa	-1315
emkhunjini	-1316
umprofethi	-1317
al	-1318
gre	-1319
une	-1320
usi	-1321
athi	-1322
babu	-1323
beku	-1324
besa	-1325
libe	-1326
mani	-1327
sezi	-1328
wenu	-1329
zoni	-1330
engum	-1331
greki	-1332
khali	-1333
lunye	-1334
ngane	-1335
zanga	-1336
ekukho	-1337
impela	-1338
lelani	-1339
wabuye	-1340
wundlu	-1341
hluleli	-1342
lukhuni	-1343
maqonda	-1344
ekudleni	-1345
thabatha	-1346
komthetho	-1347
maqondana	-1348
phulukisa	-1349
ngcolileyo	-1350
abaprofethi	-1351
ngemisebenzi	-1352
nqa	-1353
yam	-1354
besi	-1355
kaba	-1356
kanu	-1357
dalwa	-1358
mbeni	-1359
ngulu	-1360
usuku	-1361
wenza	-1362
zonda	-1363
induna	-1364
khumbu	-1365
qaleni	-1366
hambani	-1367
intando	-1368
lonyeni	-1369
ngqondo	-1370
waphuma	-1371
khashana	-1372
khathaze	-1373
kwenzeka	-1374
umfowabo	-1375
ezintathu	-1376
abazalwane	-1377
hlambalaza	-1378
dabu	-1379
guqu	-1380
insi	-1381
kosi	-1382
kuse	-1383
loba	-1384
mile	-1385
muva	-1386
okwe	-1387
soka	-1388
wayo	-1389
isono	-1390
izulu	-1391
kwayo	-1392
kweni	-1393
lwano	-1394
ngami	-1395
nxusa	-1396
yenza	-1397
amanga	-1398
engena	-1399
hlambu	-1400
josefa	-1401
ngisho	-1402
bathini	-1403
khulule	-1404
elwandle	-1405
profetha	-1406
bamangala	-1407
inhliziyo	-1408
vumelwano	-1409
izingelosi	-1410
ukukhuluma	-1411
ngakwesokunene	-1412
ake	-1413
nwe	-1414
oma	-1415
rna	-1416
uba	-1417
usu	-1418
zam	-1419
amen	-1420
busa	-1421
cebi	-1422
naza	-1423
sazi	-1424
sise	-1425
wafa	-1426
yayi	-1427
yeka	-1428
zele	-1429
bethu	-1430
ebona	-1431
kambe	-1432
ngala	-1433
ngela	-1434
nikwa	-1435
udumo	-1436
kesari	-1437
kwambu	-1438
lwakhe	-1439
owenza	-1440
umyalo	-1441
isinkwa	-1442
kulungi	-1443
phezulu	-1444
ukwenza	-1445
nabafundi	-1446
naphakade	-1447
nazaretha	-1448
ubufakazi	-1449
abayishumi	-1450
enhliziyweni	-1451
aze	-1452
ifa	-1453
baku	-1454
dala	-1455
dini	-1456
gibi	-1457
kise	-1458
mini	-1459
qale	-1460
umka	-1461
velo	-1462
vula	-1463
wona	-1464
yalu	-1465
yama	-1466
yezi	-1467
ezine	-1468
khiwa	-1469
ndisa	-1470
oyaku	-1471
thewu	-1472
ukuyo	-1473
yikho	-1474
emihle	-1475
inyama	-1476
khuphu	-1477
naseku	-1478
nikela	-1479
phethe	-1480
abayizi	-1481
gibithe	-1482
hlulela	-1483
indlela	-1484
kangaka	-1485
kwavela	-1486
ngegama	-1487
nyukela	-1488
ethuneni	-1489
ezimbili	-1490
ngokwesi	-1491
umpristi	-1492
amademoni	-1493
umsebenzi	-1494
wesifazane	-1495
ngesikhathi	-1496
okungukuthi	-1497
eti	-1498
nim	-1499
bali	-1500
imvu	-1501
nile	-1502
utho	-1503
vuzo	-1504
zana	-1505
zazi	-1506
ezint	-1507
funya	-1508
futha	-1509
hambi	-1510
igazi	-1511
lingu	-1512
mazwi	-1513
sakho	-1514
khethi	-1515
nyiswa	-1516
qinise	-1517
khuleke	-1518
komunye	-1519
phasika	-1520
phikisa	-1521
sindisa	-1522
ngalungi	-1523
umntwana	-1524
wathatha	-1525
nababhali	-1526
ngesandla	-1527
thethweni	-1528
bhapathiza	-1529
nokukholwa	-1530
ekukholweni	-1531
esihlalweni	-1532
nenkazimulo	-1533
xu	-1534
ene	-1535
iyi	-1536
felo	-1537
itshe	-1538
khula	-1539
mbeza	-1540
nango	-1541
ngabo	-1542
nzela	-1543
okuyi	-1544
phiwa	-1545
phume	-1546
ubuso	-1547
ukuya	-1548
gulayo	-1549
izizwe	-1550
mbethe	-1551
ngenza	-1552
tsheni	-1553
buthana	-1554
mhlophe	-1555
shumaye	-1556
entabeni	-1557
felokazi	-1558
izinyawo	-1559
esefikile	-1560
ngezandla	-1561
nokuphila	-1562
ngangomuso	-1563
ngokunjalo	-1564
buthakathaka	-1565
emhlabathini	-1566
ami	-1567
bese	-1568
nabe	-1569
niba	-1570
thwe	-1571
wela	-1572
abaku	-1573
evela	-1574
hlisa	-1575
khawu	-1576
kwalo	-1577
mbona	-1578
ndiso	-1579
phumu	-1580
tshwa	-1581
bhubha	-1582
chitha	-1583
doniya	-1584
mesaba	-1585
moyeni	-1586
phinda	-1587
qinisa	-1588
hlukani	-1589
kanyezi	-1590
kungesi	-1591
kwaseku	-1592
ngesabi	-1593
okuvela	-1594
abampofu	-1595
bumnyama	-1596
ngamazwi	-1597
ngcosana	-1598
abafileyo	-1599
phikisana	-1600
makedoniya	-1601
ngomthetho	-1602
etilongweni	-1603
hlanganyela	-1604
us	-1605
mpa	-1606
qhe	-1607
uvu	-1608
alta	-1609
beli	-1610
fula	-1611
inko	-1612
liva	-1613
naka	-1614
nili	-1615
sayi	-1616
veza	-1617
wala	-1618
wawu	-1619
awulu	-1620
enhle	-1621
funga	-1622
ngaku	-1623
ngazo	-1624
ninge	-1625
thene	-1626
zange	-1627
zathi	-1628
altare	-1629
bafika	-1630
boshwa	-1631
indawo	-1632
jabula	-1633
kuvela	-1634
nasezi	-1635
ngcono	-1636
niyazi	-1637
sisiwe	-1638
zelela	-1639
barnaba	-1640
fihlaka	-1641
isitsha	-1642
izinkwa	-1643
kwesaba	-1644
ngabantu	-1645
ukukhanya	-1646
ngesabatha	-1647
thethelelwa	-1648
ayisikhombisa	-1649
ezinhliziyweni	-1650
abu	-1651
cho	-1652
iya	-1653
lom	-1654
lwi	-1655
obe	-1656
one	-1657
ozi	-1658
yom	-1659
bezi	-1660
kude	-1661
othi	-1662
seli	-1663
bengi	-1664
imali	-1665
kwabe	-1666
ngumu	-1667
nziwa	-1668
siswa	-1669
bulale	-1670
dabula	-1671
fowenu	-1672
kanuko	-1673
kulowo	-1674
ngekho	-1675
nizaku	-1676
tshele	-1677
tshelo	-1678
uphawu	-1679
filiphu	-1680
incwadi	-1681
kunguku	-1682
ndwangu	-1683
ngalezo	-1684
nyaweni	-1685
zimbeni	-1686
abathile	-1687
komhlaba	-1688
ncinyane	-1689
ndawonye	-1690
ngemihla	-1691
wokuqala	-1692
emlonyeni	-1693
pheleleyo	-1694
khuthazela	-1695
esinagogeni	-1696
izinhliziyo	-1697
kwahlulelwa	-1698
xo	-1699
ano	-1700
oya	-1701
oyi	-1702
uye	-1703
▁;’	-1704
akho	-1705
ange	-1706
cebo	-1707
ithi	-1708
kana	-1709
kelo	-1710
kuno	-1711
liya	-1712
siyi	-1713
susa	-1714
woza	-1715
zali	-1716
zezi	-1717
gcine	-1718
izaku	-1719
khuza	-1720
kwemi	-1721
ngise	-1722
ngiye	-1723
nquma	-1724
phuze	-1725
shiwe	-1726
swele	-1727
thimo	-1728
thola	-1729
amanzi	-1730
buyela	-1731
dodana	-1732
ezinga	-1733
ingubo	-1734
kufika	-1735
kufike	-1736
lobela	-1737
mkhulu	-1738
msindi	-1739
nababe	-1740
nomoya	-1741
vumela	-1742
ziyaku	-1743
iwayini	-1744
kungaba	-1745
landele	-1746
nakanye	-1747
ngiyani	-1748
thelisi	-1749
enyameni	-1750
faneleyo	-1751
izinceku	-1752
kwenzayo	-1753
nomhlaba	-1754
phambeko	-1755
amathathu	-1756
fihlakalo	-1757
khulunywa	-1758
gcwaliseke	-1759
thimothewu	-1760
bhapathizwa	-1761
emthethweni	-1762
ngakholwayo	-1763
sizukulwane	-1764
masinagogeni	-1765
qh	-1766
efe	-1767
eme	-1768
enu	-1769
gqo	-1770
babi	-1771
benu	-1772
dade	-1773
dani	-1774
dudu	-1775
kiya	-1776
nalo	-1777
niye	-1778
riyu	-1779
soni	-1780
cinde	-1781
dumbu	-1782
isaya	-1783
lahla	-1784
mvelo	-1785
ngibe	-1786
qhele	-1787
sinye	-1788
vuswa	-1789
zenzi	-1790
bazaku	-1791
besaba	-1792
imihla	-1793
khiphe	-1794
komoya	-1795
ongena	-1796
sileyo	-1797
bamanga	-1798
ikhanda	-1799
kaningi	-1800
mpristi	-1801
nabantu	-1802
ngabona	-1803
ngomusa	-1804
nguyena	-1805
sondele	-1806
abezizwe	-1807
msindisi	-1808
phambene	-1809
esandleni	-1810
ezintweni	-1811
kwamukela	-1812
hlakaniphi	-1813
kungabikho	-1814
ngomkhumbi	-1815
thethelela	-1816
ngokwenyama	-1817
kwasekuqaleni	-1818
and	-1819
nju	-1820
nte	-1821
nyo	-1822
wum	-1823
kiwe	-1824
lama	-1825
mesa	-1826
nele	-1827
ngwe	-1828
vuna	-1829
waze	-1830
yawo	-1831
ababi	-1832
anazi	-1833
betha	-1834
hloko	-1835
isilo	-1836
kusho	-1837
kwawo	-1838
linda	-1839
liswe	-1840
lizwa	-1841
ngubu	-1842
nyiwe	-1843
nzini	-1844
phumi	-1845
sheya	-1846
wenze	-1847
wumbe	-1848
yodwa	-1849
bulali	-1850
dabuka	-1851
gcwala	-1852
khokho	-1853
mbamba	-1854
sawulu	-1855
tsheli	-1856
umvuzo	-1857
emoyeni	-1858
kumelwe	-1859
ngiyazi	-1860
phelele	-1861
ukubona	-1862
umbhalo	-1863
uyakuba	-1864
akusikho	-1865
ikakhulu	-1866
kungekho	-1867
ngumuphi	-1868
nothando	-1869
ophilayo	-1870
phesheya	-1871
samariya	-1872
ungubani	-1873
endleleni	-1874
mhlawumbe	-1875
yayisithi	-1876
kwezinsuku	-1877
ngabantwana	-1878
eziyisihlanu	-1879
emasinagogeni	-1880
hha	-1881
oni	-1882
stu	-1883
uze	-1884
anti	-1885
baye	-1886
dela	-1887
impa	-1888
inga	-1889
kene	-1890
kiyo	-1891
kule	-1892
lawa	-1893
liso	-1894
lusi	-1895
mawu	-1896
nane	-1897
nize	-1898
roma	-1899
sabo	-1900
uhla	-1901
wezi	-1902
zesi	-1903
abani	-1904
efesu	-1905
isaka	-1906
mehlo	-1907
ngiba	-1908
nyaye	-1909
ongum	-1910
sakwa	-1911
shise	-1912
busuku	-1913
engiku	-1914
kwezwe	-1915
lileyo	-1916
mbathi	-1917
nasema	-1918
nokuzi	-1919
uhlala	-1920
umlomo	-1921
wasuka	-1922
khileyo	-1923
kithina	-1924
kunjalo	-1925
nabanye	-1926
nalokho	-1927
nembeza	-1928
ngaleso	-1929
ningabi	-1930
qaphela	-1931
wahamba	-1932
xukwini	-1933
bakholwa	-1934
bamemeza	-1935
isibindi	-1936
nithanda	-1937
phenduke	-1938
shunyaye	-1939
ngezilimi	-1940
ubusisiwe	-1941
wakhuleka	-1942
bumnyameni	-1943
khethiweyo	-1944
nabantwana	-1945
olungileyo	-1946
yisithupha	-1947
abaphostoli	-1948
izibonakaliso	-1949
hlakaniphileyo	-1950
pi	-1951
gco	-1952
iza	-1953
mpi	-1954
osi	-1955
som	-1956
bile	-1957
duma	-1958
engo	-1959
iswa	-1960
lule	-1961
nela	-1962
neli	-1963
siba	-1964
sona	-1965
asiya	-1966
bezwa	-1967
kelwe	-1968
longo	-1969
nenza	-1970
ngolo	-1971
nqoba	-1972
ntaba	-1973
ukuza	-1974
bebona	-1975
ethile	-1976
fokazi	-1977
hlweni	-1978
khetha	-1979
lekile	-1980
ngezwa	-1981
phonse	-1982
ukhona	-1983
bambuza	-1984
buthene	-1985
khulula	-1986
nangezi	-1987
ndulela	-1988
ngegazi	-1989
ngelela	-1990
njengom	-1991
thobela	-1992
umhlaba	-1993
yalokho	-1994
yekhulu	-1995
isithelo	-1996
khonzani	-1997
phambano	-1998
umkhumbi	-1999
izithombe	-2000
mangalela	-2001
mangaliso	-2002
ngalaleli	-2003
ngamatshe	-2004
ngithanda	-2005
shumayeza	-2006
ayisihlanu	-2007
bhapathizi	-2008
bonakalisa	-2009
kungesikho	-2010
lahlekelwa	-2011
ngikhuluma	-2012
osezulwini	-2013
ngokungathi	-2014
nabaprofethi	-2015
isibonakaliso	-2016
ukuhlakanipha	-2017
te	-2018
alu	-2019
cha	-2020
ibe	-2021
mar	-2022
ywe	-2023
▁;”	-2024
bemi	-2025
bhuj	-2026
bini	-2027
buso	-2028
fela	-2029
feni	-2030
fisa	-2031
funi	-2032
giji	-2033
hlwi	-2034
lifa	-2035
loni	-2036
ngim	-2037
nizi	-2038
nowa	-2039
reya	-2040
size	-2041
wali	-2042
wema	-2043
yemi	-2044
zase	-2045
ayaku	-2046
badla	-2047
eniku	-2048
hlazo	-2049
icala	-2050
kungo	-2051
mbusi	-2052
muzwa	-2053
ngali	-2054
ngawe	-2055
nqumo	-2056
nyuka	-2057
nzeka	-2058
ogama	-2059
okoku	-2060
owazi	-2061
selwa	-2062
sengi	-2063
thuba	-2064
thuka	-2065
zinga	-2066
antiyo	-2067
ekhona	-2068
melana	-2069
misela	-2070
mprofe	-2071
ngothi	-2072
nonina	-2073
nxenye	-2074
shelwa	-2075
abazali	-2076
bangaba	-2077
ezinhle	-2078
hlushwa	-2079
ithemba	-2080
nalapho	-2081
ngasezi	-2082
ngenisa	-2083
umkakhe	-2084
bandleni	-2085
hlangani	-2086
kwenzile	-2087
lotshiwe	-2088
nangenxa	-2089
ngalutho	-2090
ngikhona	-2091
njengezi	-2092
okuningi	-2093
tshiweyo	-2094
wamemeza	-2095
yamandla	-2096
bakhuluma	-2097
emzimbeni	-2098
mprofethi	-2099
nesibindi	-2100
antiyokiya	-2101
umfanekiso	-2102
umphefumulo	-2103
shiyagalolunye	-2104
aya	-2105
bet	-2106
ise	-2107
wom	-2108
abam	-2109
fase	-2110
fiki	-2111
koni	-2112
lena	-2113
lolo	-2114
nasi	-2115
rabi	-2116
sala	-2117
sibo	-2118
sini	-2119
veli	-2120
wume	-2121
bambe	-2122
finye	-2123
gunya	-2124
kwazo	-2125
ngisa	-2126
ozayo	-2127
phiwe	-2128
sizwe	-2129
ulaka	-2130
uyazi	-2131
abathi	-2132
elinye	-2133
elisha	-2134
kuleyo	-2135
kuyini	-2136
liyaku	-2137
lwakho	-2138
nabase	-2139
niyala	-2140
okwesi	-2141
umbusi	-2142
yisela	-2143
zakuba	-2144
zelayo	-2145
khiwane	-2146
lungele	-2147
mbazana	-2148
nempela	-2149
ngaleyo	-2150
ubusuku	-2151
yikhona	-2152
zabantu	-2153
amaningi	-2154
engcwele	-2155
eseshilo	-2156
esizweni	-2157
gcwalisa	-2158
hawukela	-2159
khelwane	-2160
lokuqala	-2161
ndlalifa	-2162
ngaphezu	-2163
ngumuntu	-2164
olukhulu	-2165
wayeseba	-2166
fumananga	-2167
phakamisa	-2168
kwesihlalo	-2169
ngokwesaba	-2170
bonakaliswa	-2171
ngaselwandle	-2172
yenkulungwane	-2173
ngasezinyaweni	-2174
shiyagalombili	-2175
pe	-2176
aso	-2177
eze	-2178
iso	-2179
nam	-2180
nce	-2181
sam	-2182
dama	-2183
dili	-2184
duzo	-2185
hlwe	-2186
kozo	-2187
lenu	-2188
mele	-2189
shwe	-2190
unge	-2191
yaso	-2192
yiyo	-2193
zibe	-2194
ziya	-2195
zuze	-2196
bambi	-2197
bhubh	-2198
dingi	-2199
eyisi	-2200
lulwa	-2201
nenze	-2202
nzayo	-2203
ohane	-2204
omoya	-2205
oyisi	-2206
sathi	-2207
ukuni	-2208
zinyo	-2209
bulawa	-2210
engaka	-2211
gatsha	-2212
hlephu	-2213
liweyo	-2214
mawube	-2215
mileyo	-2216
mukeli	-2217
nagoge	-2218
nhloko	-2219
phangi	-2220
phinga	-2221
sekelo	-2222
thathe	-2223
umlilo	-2224
baphuma	-2225
ethanda	-2226
fowethu	-2227
khubeka	-2228
nduduzo	-2229
ngalolo	-2230
ngomoya	-2231
pheleni	-2232
uthanda	-2233
wathuma	-2234
hawukele	-2235
hlupheko	-2236
kesariya	-2237
kunokuba	-2238
kwenziwa	-2239
mhlabeni	-2240
ncwadini	-2241
nezinhla	-2242
ngokunga	-2243
ngokwami	-2244
ukhuluma	-2245
vunyelwe	-2246
mfanekiso	-2247
bonakalise	-2248
lotshiweyo	-2249
ngesibindi	-2250
ngukuphila	-2251
phendulela	-2252
abakholwayo	-2253
ebumnyameni	-2254
isithembiso	-2255
kangakanani	-2256
ngaphakathi	-2257
ngenhliziyo	-2258
ngezikhathi	-2259
ukuhlupheka	-2260
kugcwaliseke	-2261
kwamukeliswa	-2262
nabesifazane	-2263
ongithumileyo	-2264
efa	-2265
gwe	-2266
zom	-2267
bale	-2268
dena	-2269
deni	-2270
gula	-2271
kape	-2272
lali	-2273
nesa	-2274
neze	-2275
sase	-2276
usho	-2277
aboku	-2278
bonge	-2279
gcini	-2280
lahli	-2281
lwase	-2282
mbewu	-2283
mbile	-2284
mnika	-2285
ndeni	-2286
ngizi	-2287
nyala	-2288
nzile	-2289
owaba	-2290
qambi	-2291
sikho	-2292
tshwe	-2293
washo	-2294
zinge	-2295
ahlale	-2296
babeka	-2297
busisa	-2298
chithe	-2299
ekukha	-2300
fikeni	-2301
hlungu	-2302
isipho	-2303
mukisa	-2304
nasemi	-2305
ngingo	-2306
nodumo	-2307
safika	-2308
sayiku	-2309
shesha	-2310
sokuba	-2311
wayala	-2312
yilabo	-2313
zaneni	-2314
akayiku	-2315
baningi	-2316
behamba	-2317
ebusuku	-2318
hlukene	-2319
kaperna	-2320
kulokho	-2321
kumuntu	-2322
kwezono	-2323
lilweni	-2324
makezwe	-2325
ngifuna	-2326
ngokoku	-2327
okwenze	-2328
phonswe	-2329
sindise	-2330
thandwa	-2331
thumele	-2332
uzakuba	-2333
wehlela	-2334
wokuthi	-2335
abangena	-2336
akushoyo	-2337
amakhosi	-2338
denariyu	-2339
ebusweni	-2340
eminingi	-2341
fakazela	-2342
gijimela	-2343
kufanele	-2344
memezela	-2345
amabandla	-2346
emehlweni	-2347
ithempeli	-2348
kolwandle	-2349
kwambulwa	-2350
onamandla	-2351
sebezwile	-2352
shumayele	-2353
thandweni	-2354
unamandla	-2355
eshumayela	-2356
indodakazi	-2357
khawulweni	-2358
kubapristi	-2359
thukuthela	-2360
isikhashana	-2361
kapernawume	-2362
nezingelosi	-2363
ukwahlulela	-2364
bathandekayo	-2365
ezingamashumi	-2366
ar	-2367
▁’	-2368
ale	-2369
awa	-2370
awo	-2371
ibi	-2372
jor	-2373
nka	-2374
basi	-2375
bebe	-2376
bisa	-2377
bono	-2378
bulo	-2379
buya	-2380
doni	-2381
endu	-2382
gugu	-2383
lazi	-2384
liba	-2385
naso	-2386
nayi	-2387
ndlo	-2388
nise	-2389
qeda	-2390
qili	-2391
sadu	-2392
tale	-2393
valo	-2394
vumi	-2395
wawa	-2396
wawo	-2397
yasi	-2398
yile	-2399
yobu	-2400
zaru	-2401
ayese	-2402
bakwa	-2403
basho	-2404
bheke	-2405
bonwa	-2406
dlayo	-2407
efuna	-2408
eziyi	-2409
icebo	-2410
kuzwa	-2411
ngiza	-2412
onezi	-2413
phiwo	-2414
swela	-2415
thulu	-2416
uyeza	-2417
babona	-2418
bafuna	-2419
baqala	-2420
dukisa	-2421
ekhaya	-2422
esinye	-2423
hhashi	-2424
hlelwa	-2425
ilanga	-2426
izimvu	-2427
izipho	-2428
khohli	-2429
kulesi	-2430
lokuba	-2431
ndlala	-2432
nendlu	-2433
ngasem	-2434
shaywa	-2435
yikuba	-2436
bahamba	-2437
bangena	-2438
boshiwe	-2439
bumnene	-2440
cilongo	-2441
ingcebo	-2442
jordani	-2443
lungisa	-2444
mungulu	-2445
nalokhu	-2446
ngehora	-2447
ningabe	-2448
nsimini	-2449
nyakazi	-2450
othanda	-2451
phumele	-2452
talenta	-2453
yilokhu	-2454
bethelwe	-2455
bhubhisa	-2456
dadewabo	-2457
damaseku	-2458
isidumbu	-2459
kwabanye	-2460
kwaphuma	-2461
ngamanzi	-2462
ngempela	-2463
ngomlilo	-2464
ukuhamba	-2465
ukungena	-2466
wabanika	-2467
emlilweni	-2468
ezandleni	-2469
khashelwa	-2470
kunalokho	-2471
misebenzi	-2472
namahloni	-2473
ngaphambi	-2474
ngasemuva	-2475
qaphelani	-2476
sebenzini	-2477
babusisiwe	-2478
esakhuluma	-2479
ezindaweni	-2480
kungenjalo	-2481
qinisileyo	-2482
lwesithathu	-2483
po	-2484
azo	-2485
dra	-2486
eso	-2487
bede	-2488
beru	-2489
bule	-2490
embi	-2491
fume	-2492
jona	-2493
kayi	-2494
lima	-2495
lobu	-2496
sawo	-2497
sisi	-2498
solo	-2499
ukwe	-2500
vame	-2501
zazo	-2502
zise	-2503
abali	-2504
abazi	-2505
amasa	-2506
bahlu	-2507
benze	-2508
dlule	-2509
eside	-2510
imizi	-2511
kumbe	-2512
lethu	-2513
mbela	-2514
nandi	-2515
ndala	-2516
nyana	-2517
nzima	-2518
ozaku	-2519
qamba	-2520
qhube	-2521
swini	-2522
yizin	-2523
babone	-2524
bayizi	-2525
bevela	-2526
bhubhi	-2527
bizela	-2528
bonayo	-2529
ekuphi	-2530
ethiwa	-2531
fumane	-2532
fumene	-2533
gijima	-2534
heberu	-2535
hlanju	-2536
kuleli	-2537
livela	-2538
ngangi	-2539
ngingu	-2540
ngizwa	-2541
phathe	-2542
phingi	-2543
sadusi	-2544
tshani	-2545
ukuzwa	-2546
ukwazi	-2547
yegama	-2548
yimina	-2549
asiyiku	-2550
hlakaze	-2551
hlalani	-2552
imiyalo	-2553
khwelwe	-2554
kukhulu	-2555
mhlanga	-2556
mvubelo	-2557
okholwa	-2558
philisa	-2559
phumile	-2560
phumula	-2561
thumile	-2562
tshelwe	-2563
ukwahlu	-2564
ababhali	-2565
ekhuluma	-2566
funyanwa	-2567
kwenziwe	-2568
ngomunye	-2569
okhuluma	-2570
thabathe	-2571
thengisa	-2572
zamazama	-2573
abagulayo	-2574
abakholwa	-2575
bingelela	-2576
ekufikeni	-2577
insindiso	-2578
khubekisa	-2579
khubekiso	-2580
khulekela	-2581
thokozisa	-2582
ukukhonza	-2583
baphendula	-2584
gcwaliseka	-2585
kungenzeka	-2586
kuvunyelwe	-2587
uhlangothi	-2588
abesifazane	-2589
ekukhanyeni	-2590
emabandleni	-2591
hlanganyeli	-2592
mbhapathizi	-2593
ngubufakazi	-2594
ngukukhanya	-2595
nhliziyonye	-2596
ukungalungi	-2597
wabaphendula	-2598
ngemifanekiso	-2599
okwakhulunywa	-2600
ada	-2601
mag	-2602
pro	-2603
ulu	-2604
uza	-2605
apho	-2606
bafa	-2607
feze	-2608
guqa	-2609
iqhu	-2610
kala	-2611
kuku	-2612
kumi	-2613
kuni	-2614
mali	-2615
ndwe	-2616
nifu	-2617
niyi	-2618
salo	-2619
senu	-2620
vele	-2621
vule	-2622
zuza	-2623
zuzo	-2624
anina	-2625
bantu	-2626
bezwe	-2627
drako	-2628
ekuvu	-2629
elise	-2630
emuva	-2631
enani	-2632
eyaku	-2633
ezazi	-2634
imoni	-2635
kanje	-2636
landa	-2637
lathi	-2638
lwami	-2639
mbezi	-2640
mihla	-2641
nakhu	-2642
nduku	-2643
ofuna	-2644
okuka	-2645
okuse	-2646
pheli	-2647
qondo	-2648
qotho	-2649
shiwo	-2650
shiye	-2651
ufana	-2652
ukuyi	-2653
wakha	-2654
wangi	-2655
xosha	-2656
yothe	-2657
aberna	-2658
babili	-2659
bonelo	-2660
ehamba	-2661
ehlezi	-2662
ekwazi	-2663
ephuma	-2664
esihle	-2665
esinga	-2666
ezimbi	-2667
fumani	-2668
ingena	-2669
khonze	-2670
kisiwe	-2671
kulaba	-2672
kulabo	-2673
kuyena	-2674
lazaru	-2675
lisile	-2676
lusuku	-2677
makabe	-2678
mesabi	-2679
nakubo	-2680
ndweni	-2681
nemini	-2682
nginge	-2683
nibona	-2684
nileyo	-2685
nkonzo	-2686
ohlezi	-2687
owathi	-2688
phindi	-2689
thithu	-2690
thwala	-2691
umyeni	-2692
wabiza	-2693
yawela	-2694
yazini	-2695
yinina	-2696
zindlo	-2697
andreya	-2698
bebodwa	-2699
eniyaku	-2700
inkemba	-2701
khulumi	-2702
landisa	-2703
ngesiso	-2704
nomuntu	-2705
nomunye	-2706
omhlaba	-2707
phumela	-2708
qondene	-2709
thuluka	-2710
ukuvuka	-2711
umqhele	-2712
amabutho	-2713
bhujiswa	-2714
hlephula	-2715
iphasika	-2716
kwathiwa	-2717
mbathisa	-2718
nethemba	-2719
ngomlomo	-2720
nitshela	-2721
nsindiso	-2722
nyembezi	-2723
ongcwele	-2724
sithanda	-2725
bekhuluma	-2726
izinyanga	-2727
kukhuluma	-2728
linganiso	-2729
ngentando	-2730
ngothando	-2731
nolwandle	-2732
ukulahlwa	-2733
abakhileyo	-2734
abernakele	-2735
bamlandela	-2736
ekuphileni	-2737
izisebenzi	-2738
khathazeki	-2739
khuphukela	-2740
kokukholwa	-2741
lungisiswa	-2742
ngamakhulu	-2743
othandweni	-2744
phendukela	-2745
wathabatha	-2746
yisikhathi	-2747
engamashumi	-2748
imfihlakalo	-2749
intombazana	-2750
shunyayelwa	-2751
ngokuthokoza	-2752
khululekileyo	-2753
okwenzekileyo	-2754
ag	-2755
cu	-2756
uk	-2757
cwe	-2758
ebi	-2759
gca	-2760
sim	-2761
uce	-2762
bawo	-2763
beyi	-2764
dolo	-2765
enge	-2766
engu	-2767
enza	-2768
nake	-2769
nisi	-2770
qede	-2771
sand	-2772
tire	-2773
ukwa	-2774
wani	-2775
zeli	-2776
zona	-2777
abayi	-2778
akuba	-2779
bangi	-2780
bathe	-2781
bekwa	-2782
cathu	-2783
choko	-2784
festu	-2785
fungo	-2786
ganwa	-2787
gqolo	-2788
hlabe	-2789
hlali	-2790
hliso	-2791
hunyu	-2792
ihora	-2793
kangi	-2794
magda	-2795
mbeka	-2796
mvusa	-2797
ndolo	-2798
nezwi	-2799
ngowe	-2800
niswa	-2801
qhabo	-2802
shisa	-2803
sithe	-2804
sokho	-2805
ukuma	-2806
uyisi	-2807
vungu	-2808
xwaya	-2809
bamuka	-2810
bedewu	-2811
befuna	-2812
embona	-2813
hlangu	-2814
hlupho	-2815
iqhude	-2816
ithuba	-2817
izitha	-2818
kholwe	-2819
kimina	-2820
lobele	-2821
mbatha	-2822
mpahla	-2823
nalabo	-2824
nalelo	-2825
negazi	-2826
nezoni	-2827
ngiyam	-2828
ngokwa	-2829
nikele	-2830
onjalo	-2831
qinile	-2832
thwalo	-2833
thwele	-2834
uhambe	-2835
uhlaka	-2836
ukungi	-2837
umelwe	-2838
umhawu	-2839
umnini	-2840
uyihlo	-2841
vusela	-2842
yibani	-2843
zezulu	-2844
babantu	-2845
bahlala	-2846
bakhona	-2847
baletha	-2848
bazenzi	-2849
bengena	-2850
cabanga	-2851
cathulo	-2852
dlulile	-2853
fundise	-2854
gcawini	-2855
isihawu	-2856
khandle	-2857
khuleko	-2858
kungaka	-2859
kuphila	-2860
kuzwile	-2861
kwabase	-2862
lombuso	-2863
namanje	-2864
ngesiye	-2865
ngingum	-2866
ngobuso	-2867
ngozini	-2868
phelela	-2869
sebenze	-2870
sihambe	-2871
singaba	-2872
siphuza	-2873
sukwini	-2874
thokoze	-2875
thunywa	-2876
tshengi	-2877
umfundi	-2878
wayesem	-2879
xwayani	-2880
yabantu	-2881
amalunga	-2882
babiloni	-2883
bafumana	-2884
cebileyo	-2885
daliweyo	-2886
engiyaku	-2887
eyishumi	-2888
ezinkulu	-2889
imibhalo	-2890
ingqondo	-2891
isihlalo	-2892
kathathu	-2893
khumbule	-2894
kwenyama	-2895
ncekwini	-2896
ngalokhu	-2897
sengathi	-2898
sokhohlo	-2899
solomoni	-2900
thandile	-2901
umnikelo	-2902
ungesabi	-2903
wabayala	-2904
waphinda	-2905
zebedewu	-2906
zinikela	-2907
hlwanyela	-2908
hunyushwa	-2909
linganisa	-2910
lokugcina	-2911
lungisele	-2912
magdalena	-2913
mkhaphela	-2914
nakalokhu	-2915
namashumi	-2916
ndodakazi	-2917
ngeqiniso	-2918
nomthetho	-2919
ntwanyana	-2920
qondileyo	-2921
shisekela	-2922
thokozani	-2923
bhapathizo	-2924
esixukwini	-2925
hlambulula	-2926
khathazeka	-2927
kwezinyawo	-2928
nabafowabo	-2929
ngikhulume	-2930
njalonjalo	-2931
phakathini	-2932
ayisithupha	-2933
hlanjululwa	-2934
nabazalwane	-2935
ngiyethemba	-2936
nokuthokoza	-2937
ongcolileyo	-2938
thethelelwe	-2939
umakhelwane	-2940
washumayela	-2941
imiphefumulo	-2942
kwabangcwele	-2943
ngokomthetho	-2944
ngokwesibili	-2945
thembekileyo	-2946
abangcolileyo	-2947
co	-2948
gx	-2949
uf	-2950
emp	-2951
hog	-2952
ifu	-2953
ili	-2954
ine	-2955
ket	-2956
kle	-2957
ono	-2958
qhi	-2959
uli	-2960
adle	-2961
agri	-2962
basu	-2963
bawa	-2964
bene	-2965
beze	-2966
bika	-2967
caba	-2968
diyu	-2969
esem	-2970
isho	-2971
iska	-2972
kawu	-2973
kodo	-2974
kune	-2975
kusa	-2976
lana	-2977
levi	-2978
mayi	-2979
miso	-2980
nona	-2981
ongu	-2982
vama	-2983
vivi	-2984
waso	-2985
yide	-2986
yize	-2987
yoka	-2988
zula	-2989
anani	-2990
ayizi	-2991
bheki	-2992
bopha	-2993
bopho	-2994
chilo	-2995
dinga	-2996
dinge	-2997
elisa	-2998
fihli	-2999
hleni	-3000
kanga	-3001
khiwe	-3002
kungu	-3003
kwaso	-3004
lwayo	-3005
lwenu	-3006
marta	-3007
nanto	-3008
ncoma	-3009
ngeze	-3010
ngili	-3011
ngoko	-3012
nidle	-3013
ntsha	-3014
omase	-3015
owasi	-3016
theli	-3017
wodwa	-3018
zitho	-3019
apholo	-3020
bikela	-3021
ekuzwa	-3022
esisha	-3023
fuleni	-3024
hlamvu	-3025
hlanze	-3026
imbewu	-3027
inzalo	-3028
iskari	-3029
ithole	-3030
kabili	-3031
kungum	-3032
kuzaku	-3033
kwenye	-3034
laleli	-3035
lekela	-3036
luleka	-3037
mnandi	-3038
mnyama	-3039
naleyo	-3040
necala	-3041
nenhla	-3042
ngelwa	-3043
nifuna	-3044
omusha	-3045
sidoni	-3046
sobala	-3047
thunzi	-3048
ukulwa	-3049
umfazi	-3050
ungene	-3051
vumele	-3052
wabeka	-3053
wakubo	-3054
yazisa	-3055
ziweyo	-3056
agripha	-3057
ananiya	-3058
angisho	-3059
bonwayo	-3060
dukiswa	-3061
dwaleni	-3062
ekufeni	-3063
ekuseni	-3064
ekwahlu	-3065
emizini	-3066
hogweni	-3067
impahla	-3068
inxenye	-3069
iyakuba	-3070
ketanga	-3071
khosini	-3072
kulokhu	-3073
lelweni	-3074
namazwi	-3075
namunye	-3076
nangama	-3077
naphezu	-3078
nenyama	-3079
ngaboku	-3080
ngalowo	-3081
ngamazi	-3082
ngokufa	-3083
ngokuka	-3084
nohlezi	-3085
ntokozo	-3086
okhokho	-3087
ongiphe	-3088
phonswa	-3089
qondisa	-3090
tholile	-3091
ubufebe	-3092
ukufika	-3093
ukusoka	-3094
uthembe	-3095
wabonga	-3096
wambuza	-3097
wayenga	-3098
yamanzi	-3099
abahamba	-3100
amakhulu	-3101
angisoze	-3102
bayakuba	-3103
bonileyo	-3104
enduneni	-3105
fundiswa	-3106
hlangana	-3107
izindaba	-3108
khohlisa	-3109
khululwa	-3110
kwelinye	-3111
mbethele	-3112
ndlebeni	-3113
nginguye	-3114
njengesi	-3115
nobusuku	-3116
okunjalo	-3117
sindiswe	-3118
siyakuba	-3119
ukugcina	-3120
ukuhlala	-3121
ukuphela	-3122
ukwesaba	-3123
wafumana	-3124
wakholwa	-3125
bazenzisi	-3126
ebandleni	-3127
ekuvukeni	-3128
encwadini	-3129
inamandla	-3130
khulumile	-3131
nabezizwe	-3132
nezinyawo	-3133
ngizakuku	-3134
ngofakazi	-3135
okweshumi	-3136
philileyo	-3137
wayekhona	-3138
bekezelela	-3139
hlwanyelwe	-3140
kubantwana	-3141
lungiselwe	-3142
mfihlakalo	-3143
nabapristi	-3144
ngezinsuku	-3145
ngokuthula	-3146
phulukiswa	-3147
ukumbulala	-3148
ukuthokoza	-3149
umphostoli	-3150
isiphambano	-3151
iskariyothe	-3152
kubazalwane	-3153
langazelela	-3154
nezinhlanzi	-3155
tabernakele	-3156
ukwahlukana	-3157
kowesifazane	-3158
ngithumileyo	-3159
okwesithathu	-3160
sokwahlulela	-3161
yisikhashana	-3162
emikhawulweni	-3163
nokuphikisana	-3164
ungumprofethi	-3165
abi	-3166
eno	-3167
eye	-3168
ezo	-3169
gwa	-3170
int	-3171
ksi	-3172
nen	-3173
ome	-3174
ste	-3175
tro	-3176
ahlu	-3177
alek	-3178
ezim	-3179
geza	-3180
inka	-3181
juba	-3182
kasi	-3183
kaya	-3184
kisi	-3185
kona	-3186
leke	-3187
lila	-3188
luya	-3189
maba	-3190
mise	-3191
muni	-3192
neye	-3193
nqun	-3194
qedi	-3195
siku	-3196
sodo	-3197
suse	-3198
uphi	-3199
vuse	-3200
waku	-3201
yali	-3202
yawa	-3203
yaya	-3204
yilo	-3205
yiwo	-3206
zaka	-3207
zalo	-3208
zawo	-3209
ziba	-3210
zila	-3211
akazi	-3212
akube	-3213
bomvu	-3214
cwebe	-3215
efika	-3216
ekuli	-3217
esasi	-3218
esesi	-3219
fihla	-3220
fwini	-3221
gcoba	-3222
hleka	-3223
isimo	-3224
izoni	-3225
kakhe	-3226
lungu	-3227
mbiza	-3228
muhle	-3229
nanye	-3230
nasem	-3231
ngayi	-3232
nguma	-3233
nokwe	-3234
notho	-3235
nzele	-3236
obaba	-3237
obala	-3238
phuzi	-3239
senza	-3240
shona	-3241
thule	-3242
ubani	-3243
ukubu	-3244
wahlu	-3245
wehle	-3246
wezwe	-3247
zwana	-3248
abakhe	-3249
abenza	-3250
akhaya	-3251
anakho	-3252
angazi	-3253
angena	-3254
anothi	-3255
baraba	-3256
duduze	-3257
ehlala	-3258
enjalo	-3259
ezinye	-3260
hayide	-3261
hlanzi	-3262
iliphu	-3263
ingani	-3264
iningi	-3265
izitho	-3266
khwama	-3267
kunabo	-3268
kunoku	-3269
mpande	-3270
ngcola	-3271
ningam	-3272
ntombi	-3273
okunye	-3274
onakho	-3275
thande	-3276
thombo	-3277
ukupha	-3278
uthini	-3279
vukela	-3280
wavuka	-3281
yafika	-3282
yalelo	-3283
yileyo	-3284
anisoze	-3285
bekuzwa	-3286
bengaba	-3287
egazini	-3288
egcwele	-3289
idemoni	-3290
inkonzo	-3291
kokuthi	-3292
ngalelo	-3293
ngiyeza	-3294
ningena	-3295
nizwile	-3296
noyedwa	-3297
ntanami	-3298
pheleke	-3299
phuzisa	-3300
sihamba	-3301
sokuthi	-3302
thokozi	-3303
vumanga	-3304
zombili	-3305
aleksand	-3306
angisiye	-3307
ayishumi	-3308
edwaleni	-3309
efundisa	-3310
emanzini	-3311
emihleni	-3312
ensimini	-3313
ezizweni	-3314
hayidese	-3315
isabatha	-3316
khiphela	-3317
khonzayo	-3318
kwenzani	-3319
kwenzeni	-3320
lekileyo	-3321
nababusi	-3322
nesihawu	-3323
ngcolisa	-3324
ngemvelo	-3325
ngezinto	-3326
ngimelwe	-3327
ngiyakum	-3328
nikholwe	-3329
profetho	-3330
sokuqala	-3331
thukuthe	-3332
ukukhala	-3333
umhlambi	-3334
umphathi	-3335
wamukela	-3336
yokuqala	-3337
amadodana	-3338
anikholwa	-3339
bamncenga	-3340
bethaniya	-3341
cindezela	-3342
ekuqaleni	-3343
emkhosini	-3344
gqolozela	-3345
inkanyezi	-3346
izikhathi	-3347
kholekile	-3348
khulumisa	-3349
lungisela	-3350
nabangena	-3351
namakhosi	-3352
ngokwakhe	-3353
njengokwe	-3354
nokuqonda	-3355
okholwayo	-3356
qinisweni	-3357
ubumnyama	-3358
wokuphila	-3359
yeminqumo	-3360
yokuphila	-3361
yomthetho	-3362
angithandi	-3363
benhliziyo	-3364
esihogweni	-3365
hlatshelwe	-3366
impumputhe	-3367
ngevangeli	-3368
ngokuningi	-3369
qambimanga	-3370
waphenduka	-3371
yaphendula	-3372
ekulingweni	-3373
ethandekayo	-3374
imvuthuluka	-3375
khululekile	-3376
kwabonakala	-3377
mhlangabeza	-3378
njengokusho	-3379
sekupheleni	-3380
ukuphenduka	-3381
uthembekile	-3382
wabafundisa	-3383
wamphendula	-3384
abalungileyo	-3385
bonakalisiwe	-3386
emisebenzini	-3387
emphakathini	-3388
ukwahlulelwa	-3389
ngasendleleni	-3390
ngiyanincenga	-3391
ekwahlulelweni	-3392
nokuhlakanipha	-3393
wayesephendula	-3394
abayisikhombisa	-3395
ngokuhlakanipha	-3396
ningakhathazeki	-3397
ayo	-3398
bho	-3399
ele	-3400
gum	-3401
nji	-3402
rki	-3403
ubi	-3404
ugo	-3405
akwa	-3406
balo	-3407
dele	-3408
duka	-3409
epho	-3410
esho	-3411
feli	-3412
fune	-3413
inye	-3414
keli	-3415
lili	-3416
naki	-3417
ngam	-3418
nomu	-3419
ongo	-3420
pare	-3421
qhwe	-3422
safa	-3423
viki	-3424
wame	-3425
ziye	-3426
adamu	-3427
bapha	-3428
baphi	-3429
bende	-3430
dakwa	-3431
engim	-3432
fipha	-3433
hlelo	-3434
jabhi	-3435
jopha	-3436
khiya	-3437
khukh	-3438
kunye	-3439
kwala	-3440
kweza	-3441
lingi	-3442
londa	-3443
mbuzi	-3444
miswa	-3445
mnini	-3446
ndeli	-3447
ndile	-3448
ndise	-3449
nguwe	-3450
nokwa	-3451
nqaba	-3452
nyoko	-3453
nzuzo	-3454
omubi	-3455
pheni	-3456
shaye	-3457
suswa	-3458
thuna	-3459
ukubo	-3460
ukula	-3461
vutha	-3462
yahlu	-3463
yiphi	-3464
yisho	-3465
yonga	-3466
angene	-3467
angina	-3468
angini	-3469
bongwe	-3470
boniso	-3471
busiso	-3472
buzana	-3473
cebile	-3474
dokodo	-3475
endala	-3476
funani	-3477
hlanya	-3478
hlanza	-3479
hlwile	-3480
inkulu	-3481
insimu	-3482
kasoze	-3483
khwele	-3484
kubosh	-3485
kucela	-3486
kuleso	-3487
lakubo	-3488
makazi	-3489
mbathe	-3490
mbatho	-3491
melene	-3492
misele	-3493
nangom	-3494
ndiswa	-3495
negama	-3496
nesimo	-3497
ngedwa	-3498
ngithe	-3499
nsizwa	-3500
parele	-3501
phithi	-3502
qedile	-3503
silisa	-3504
sinkwa	-3505
siriya	-3506
sitsha	-3507
sizaku	-3508
sodoma	-3509
sokile	-3510
somusa	-3511
tafula	-3512
thelwa	-3513
tomase	-3514
ukhulu	-3515
umuthi	-3516
vukile	-3517
vuleka	-3518
walowo	-3519
yezono	-3520
yihora	-3521
yimani	-3522
zelele	-3523
abayiku	-3524
bephuma	-3525
bethuka	-3526
bizelwa	-3527
bonanga	-3528
bongayo	-3529
ekhanda	-3530
ephethe	-3531
esivela	-3532
feliksi	-3533
fundile	-3534
gcineni	-3535
gcinile	-3536
hambeni	-3537
khefase	-3538
komuntu	-3539
kuphuma	-3540
kwaziyo	-3541
likhiya	-3542
lindani	-3543
lomlilo	-3544
lungelo	-3545
mntwana	-3546
nemihla	-3547
nezinye	-3548
ngesibo	-3549
ngobani	-3550
ngulube	-3551
nihambe	-3552
ningama	-3553
ningazi	-3554
nqobayo	-3555
nqunywa	-3556
nyiweyo	-3557
philile	-3558
sangena	-3559
selokhu	-3560
sihlale	-3561
tshelwa	-3562
wamvusa	-3563
yenyama	-3564
yenzani	-3565
zelanga	-3566
zenzisi	-3567
zinceku	-3568
abangaba	-3569
abanjalo	-3570
amazinyo	-3571
andukuba	-3572
babuyela	-3573
bamukele	-3574
buyisela	-3575
dumileyo	-3576
emnyango	-3577
engizaku	-3578
esingena	-3579
esiswini	-3580
ezithile	-3581
ezonweni	-3582
fundanga	-3583
funyanwe	-3584
izindawo	-3585
izinyoni	-3586
khaphele	-3587
khathini	-3588
khulelwe	-3589
komzimba	-3590
kungcono	-3591
kwamanzi	-3592
liseduze	-3593
lisiweyo	-3594
madodana	-3595
nakekela	-3596
nesixuku	-3597
nezilimi	-3598
ngabanye	-3599
ngesihle	-3600
ngqongqo	-3601
nxazonke	-3602
okungaka	-3603
samukela	-3604
sekusile	-3605
thembisa	-3606
ukuthelo	-3607
umalanga	-3608
uphonswe	-3609
uyinkosi	-3610
wasukuma	-3611
yaluyalu	-3612
zesiliva	-3613
bakhuleka	-3614
bambulale	-3615
finyelele	-3616
isisekelo	-3617
izikhonzi	-3618
izincwadi	-3619
izizindlo	-3620
lokuphila	-3621
neminyaka	-3622
ngakafiki	-3623
ngamadolo	-3624
ngenkemba	-3625
ngiyamazi	-3626
ngokubona	-3627
nonembeza	-3628
owokuqala	-3629
phandleni	-3630
wamangala	-3631
yizigqila	-3632
yokulunga	-3633
amatalenta	-3634
baphenduke	-3635
elisabethe	-3636
hlambulule	-3637
khathalela	-3638
kuboshweni	-3639
kwabuthana	-3640
kwenzileyo	-3641
lwesabatha	-3642
makabongwe	-3643
nezikhonzi	-3644
ngcweliswa	-3645
ngilandele	-3646
okungcwele	-3647
phezukonke	-3648
sebefikile	-3649
sekufikile	-3650
thembekayo	-3651
thembekile	-3652
thuthumela	-3653
tilongweni	-3654
ukusindisa	-3655
ukuzibonga	-3656
uyindodana	-3657
zamlandela	-3658
bantwanyana	-3659
bonakaliswe	-3660
mninimandla	-3661
ngabapristi	-3662
ngamademoni	-3663
othandekayo	-3664
phelelisiwe	-3665
wasezulwini	-3666
wayesengena	-3667
yenkazimulo	-3668
ngakholwanga	-3669
nasezingozini	-3670
ngokufaneleyo	-3671
uyakusindiswa	-3672
ngokuhunyushwa	-3673
ukuthethelelwa	-3674
:2	-3675
mv	-3676
ub	-3677
xa	-3678
gce	-3679
ika	-3680
kla	-3681
kre	-3682
mel	-3683
omi	-3684
qwa	-3685
uda	-3686
▁¦1	-3687
bama	-3688
beba	-3689
bema	-3690
bhin	-3691
buni	-3692
cele	-3693
deki	-3694
emgo	-3695
epha	-3696
ezwa	-3697
fayo	-3698
feza	-3699
fuba	-3700
gaba	-3701
hema	-3702
hola	-3703
holi	-3704
hudu	-3705
jezi	-3706
kori	-3707
koze	-3708
kubi	-3709
kuma	-3710
kume	-3711
kuza	-3712
lala	-3713
lale	-3714
lamu	-3715
leko	-3716
leza	-3717
lobo	-3718
lube	-3719
nako	-3720
noka	-3721
nzwa	-3722
onge	-3723
qela	-3724
qhwa	-3725
sibu	-3726
soki	-3727
udle	-3728
wemi	-3729
wobu	-3730
zaso	-3731
zuzu	-3732
abama	-3733
amasi	-3734
anika	-3735
ariya	-3736
asazi	-3737
asina	-3738
ayisi	-3739
bakha	-3740
bunga	-3741
chasi	-3742
dliwa	-3743
dwala	-3744
ebeni	-3745
esaba	-3746
gumbi	-3747
hlile	-3748
imini	-3749
ingum	-3750
isile	-3751
ivela	-3752
jwaye	-3753
khiwo	-3754
kukha	-3755
kuphi	-3756
kweli	-3757
marku	-3758
minya	-3759
nangu	-3760
ngimi	-3761
ngozi	-3762
nyaza	-3763
obeku	-3764
okuku	-3765
ovela	-3766
rneli	-3767
sango	-3768
sekho	-3769
shado	-3770
sinda	-3771
singe	-3772
suthi	-3773
thuli	-3774
ubone	-3775
umeni	-3776
uvela	-3777
uyayi	-3778
wehla	-3779
yakwa	-3780
yezwe	-3781
yizwa	-3782
zithi	-3783
zwini	-3784
ahambe	-3785
amanye	-3786
aphuze	-3787
babule	-3788
babuye	-3789
basuka	-3790
bizile	-3791
bulawe	-3792
dumise	-3793
elinga	-3794
emseni	-3795
encane	-3796
engali	-3797
eninga	-3798
fubeni	-3799
imvula	-3800
khupro	-3801
kisile	-3802
klebhu	-3803
kokubi	-3804
kubeke	-3805
kunami	-3806
kuyise	-3807
lalele	-3808
lehema	-3809
lekele	-3810
lusizi	-3811
melani	-3812
mpondo	-3813
nakuyo	-3814
ndiswe	-3815
ngaphi	-3816
nibone	-3817
nokubi	-3818
nowesi	-3819
okunje	-3820
olunga	-3821
phulwa	-3822
phunga	-3823
qhweba	-3824
shiswa	-3825
sibone	-3826
siyoni	-3827
thenwa	-3828
thwale	-3829
ungazi	-3830
valeli	-3831
wacela	-3832
wafuna	-3833
wanika	-3834
wayeba	-3835
wayemi	-3836
yilesi	-3837
yisane	-3838
zeleni	-3839
zibone	-3840
zinkwa	-3841
ababusi	-3842
akuveli	-3843
babamba	-3844
bamyisa	-3845
bhekile	-3846
busiswa	-3847
chithwa	-3848
emthini	-3849
enginga	-3850
impande	-3851
indlala	-3852
isabelo	-3853
izilimi	-3854
izindlu	-3855
kolweni	-3856
korinte	-3857
kungena	-3858
kwalowo	-3859
kwaziwa	-3860
kwendlu	-3861
lotshwe	-3862
lweviki	-3863
melkise	-3864
melweni	-3865
namanzi	-3866
nendoda	-3867
nezinto	-3868
ngakini	-3869
ngasese	-3870
ngelika	-3871
ngiyisi	-3872
ngizuze	-3873
nihamba	-3874
nokudla	-3875
nombuso	-3876
nomhawu	-3877
nomlilo	-3878
okuyize	-3879
phelile	-3880
qaphele	-3881
qhubeka	-3882
rneliyu	-3883
sahlala	-3884
simelwe	-3885
thesalo	-3886
thileyo	-3887
thukulu	-3888
ufanele	-3889
uvukile	-3890
wabonwa	-3891
wakhala	-3892
wammisa	-3893
waphika	-3894
yekanga	-3895
zibonga	-3896
zwakala	-3897
abahlezi	-3898
abezwayo	-3899
amanetha	-3900
benginga	-3901
bobabili	-3902
bomhlaba	-3903
esithile	-3904
hlabathi	-3905
hloniphe	-3906
imvubelo	-3907
indwangu	-3908
kayafase	-3909
khuhlane	-3910
khumbuza	-3911
kungenxa	-3912
kusobala	-3913
kwalasha	-3914
mbongolo	-3915
mesabeni	-3916
namadoda	-3917
naphambi	-3918
neqiniso	-3919
ngagunya	-3920
ngonyama	-3921
njengase	-3922
nkohliso	-3923
okungena	-3924
okuphila	-3925
onqobayo	-3926
sangweni	-3927
thakatha	-3928
wababuza	-3929
wadabula	-3930
yebandla	-3931
zakariya	-3932
akwenzayo	-3933
bamdumisa	-3934
enamandla	-3935
hawukelwa	-3936
hlwanyeli	-3937
ingcosana	-3938
kanukweni	-3939
khandleka	-3940
khulumayo	-3941
kuyakuthi	-3942
mhlabathi	-3943
nabaningi	-3944
namabutho	-3945
nezikhulu	-3946
ngiyabona	-3947
ngiyakuba	-3948
ngiyakuni	-3949
ngokuvuka	-3950
nikhuleke	-3951
ningesabi	-3952
njengezwi	-3953
onendlebe	-3954
sezinyawo	-3955
sindisile	-3956
thukulula	-3957
thululela	-3958
ukulalela	-3959
ukuthanda	-3960
ukuyobona	-3961
umkhiwane	-3962
uyakhonza	-3963
uyaphinga	-3964
uzithanda	-3965
wamthatha	-3966
wenyukela	-3967
yizinceku	-3968
zokulunga	-3969
abakhuleka	-3970
ekuhambeni	-3971
eqinisweni	-3972
isifundiso	-3973
izinkanuko	-3974
khilikhiya	-3975
khulekweni	-3976
khumbulani	-3977
khuthalela	-3978
ngamafutha	-3979
ngezinyawo	-3980
ngokulunga	-3981
ngukwesaba	-3982
ngumpristi	-3983
nibusisiwe	-3984
nyakaziswa	-3985
qalekisiwe	-3986
thandiweyo	-3987
ukukhuleka	-3988
wesinagoge	-3989
wokukholwa	-3990
yisibonelo	-3991
ababiziweyo	-3992
angamashumi	-3993
bhapathizwe	-3994
cwebezelayo	-3995
ezindlebeni	-3996
kulungisela	-3997
melkisedeki	-3998
nemisebenzi	-3999
ngaphesheya	-4000
nginilobele	-4001
nginitshela	-4002
ngokujabula	-4003
ngqongqotha	-4004
ningakholwa	-4005
njengabanye	-4006
nomfanekiso	-4007
nyazanyiswa	-4008
onkulunkulu	-4009
thesalonika	-4010
ukubekezela	-4011
ukuzamazama	-4012
wabalandisa	-4013
wabayishumi	-4014
wenkazimulo	-4015
engikwenzayo	-4016
hlakaniphile	-4017
isivumelwano	-4018
izimpumputhe	-4019
kubaphostoli	-4020
makungabikho	-4021
ngenkazimulo	-4022
ngezinkanuko	-4023
ngiyathokoza	-4024
ningadukiswa	-4025
sibonakaliso	-4026
wayesebabiza	-4027
ziphendulela	-4028
abakhethiweyo	-4029
babhapathizwa	-4030
eziyisithupha	-4031
lokwahlulelwa	-4032
nemihlatshelo	-4033
ngabaphostoli	-4034
eyinkulungwane	-4035
nezibonakaliso	-4036
nganhliziyonye	-4037
ngokupheleleyo	-4038
ngokwesithathu	-4039
ayizinkulungwane	-4040
og	-4041
afe	-4042
bel	-4043
dlo	-4044
iba	-4045
nxu	-4046
ona	-4047
tet	-4048
zim	-4049
asho	-4050
bame	-4051
cunu	-4052
dike	-4053
echi	-4054
enqa	-4055
enze	-4056
ezwe	-4057
fake	-4058
fili	-4059
gcin	-4060
geze	-4061
gidi	-4062
ging	-4063
hubo	-4064
humu	-4065
jeri	-4066
kobu	-4067
kubu	-4068
kusi	-4069
lani	-4070
layi	-4071
libo	-4072
liwa	-4073
lusa	-4074
mame	-4075
meli	-4076
mona	-4077
nazo	-4078
niko	-4079
niku	-4080
nime	-4081
njwe	-4082
nywe	-4083
ohla	-4084
qaba	-4085
rene	-4086
sama	-4087
shad	-4088
sino	-4089
sola	-4090
sula	-4091
tala	-4092
tusa	-4093
umba	-4094
wabu	-4095
weli	-4096
wile	-4097
zobu	-4098
akaze	-4099
akuna	-4100
badle	-4101
bahla	-4102
basha	-4103
belze	-4104
dluli	-4105
elele	-4106
esiku	-4107
esiyi	-4108
gedla	-4109
habhu	-4110
hleba	-4111
hloli	-4112
isiwe	-4113
isiya	-4114
iziqa	-4115
kiswe	-4116
lande	-4117
lindi	-4118
muphi	-4119
nezwe	-4120
ngaya	-4121
njala	-4122
nqume	-4123
nqumi	-4124
nyisa	-4125
nzeki	-4126
olubi	-4127
onesi	-4128
pholi	-4129
rarki	-4130
shane	-4131
sihla	-4132
sindo	-4133
sizwa	-4134
theni	-4135
thume	-4136
ubeke	-4137
ufuna	-4138
ukusi	-4139
umeli	-4140
usizi	-4141
uyini	-4142
wezwa	-4143
xwaye	-4144
yezwi	-4145
zezwe	-4146
zonde	-4147
bayala	-4148
bhidli	-4149
bonisa	-4150
bonisi	-4151
dikeya	-4152
duduza	-4153
elihle	-4154
emshad	-4155
engaba	-4156
engazi	-4157
ezinge	-4158
filipi	-4159
funayo	-4160
gabisa	-4161
guqula	-4162
imbala	-4163
indaba	-4164
inyoka	-4165
isitha	-4166
jeriko	-4167
kababa	-4168
kabani	-4169
khokhe	-4170
kiweyo	-4171
komuzi	-4172
krethe	-4173
kuveza	-4174
kuyisi	-4175
kwehla	-4176
lingwa	-4177
lisayo	-4178
lokufa	-4179
ludumo	-4180
luvalo	-4181
lwethu	-4182
mbango	-4183
mbelwa	-4184
meyoni	-4185
mukise	-4186
nabazi	-4187
nabelo	-4188
nakulo	-4189
nasebu	-4190
nazisa	-4191
nesihe	-4192
ngento	-4193
ngokom	-4194
nhlobo	-4195
nokufa	-4196
noyise	-4197
nsimbi	-4198
okhona	-4199
okwami	-4200
ompofu	-4201
owakhe	-4202
phepha	-4203
qhwaga	-4204
sayida	-4205
shongo	-4206
sifaka	-4207
sifuna	-4208
silele	-4209
siweyo	-4210
siyeza	-4211
siyisi	-4212
siyizi	-4213
thenga	-4214
thwesa	-4215
udrako	-4216
uhamba	-4217
ukhula	-4218
umbono	-4219
umfana	-4220
uyakwe	-4221
vinini	-4222
wafela	-4223
wakini	-4224
welula	-4225
wozani	-4226
yayala	-4227
yesono	-4228
yomusa	-4229
zomusa	-4230
abafuna	-4231
abavela	-4232
abazaku	-4233
akuyiku	-4234
babhali	-4235
bahlale	-4236
bangabi	-4237
bangene	-4238
bathula	-4239
behlela	-4240
beletha	-4241
bukhali	-4242
duduzwa	-4243
ebubini	-4244
emibili	-4245
galathi	-4246
gcekeni	-4247
hlengwa	-4248
indlebe	-4249
isibani	-4250
isibili	-4251
isivini	-4252
kancane	-4253
khulile	-4254
khurene	-4255
kunjani	-4256
kwazini	-4257
lindele	-4258
lingaka	-4259
makunga	-4260
miselwe	-4261
mukelwa	-4262
nabanga	-4263
nakhiwe	-4264
nangawo	-4265
nezizwe	-4266
ngabazi	-4267
ngasoki	-4268
ngasole	-4269
ngenile	-4270
ngesilo	-4271
ngolimi	-4272
ngukufa	-4273
ngumoya	-4274
nibambe	-4275
nikelwa	-4276
nokunga	-4277
nomfazi	-4278
nqamuka	-4279
ntshona	-4280
nxanela	-4281
obezaku	-4282
ofakazi	-4283
omncane	-4284
phakami	-4285
pheliyo	-4286
qiniswa	-4287
qondiyo	-4288
sabantu	-4289
sesweni	-4290
siphile	-4291
thuneni	-4292
ububele	-4293
ufakazi	-4294
umhlobo	-4295
umqondo	-4296
unecala	-4297
utshani	-4298
wamanga	-4299
washiya	-4300
zenyama	-4301
zenzisa	-4302
zingela	-4303
zwileyo	-4304
abahlobo	-4305
amanyala	-4306
bagcwala	-4307
bantwana	-4308
bememeza	-4309
bethelwa	-4310
bonakale	-4311
dabulile	-4312
ekhuleka	-4313
ekuphumu	-4314
emhlophe	-4315
emzaneni	-4316
enkazimu	-4317
esezwile	-4318
ezingena	-4319
izingane	-4320
kholwani	-4321
khuphuka	-4322
kokubili	-4323
kubalimi	-4324
kubonayo	-4325
kwehlela	-4326
kwenzeke	-4327
lalelani	-4328
lalelayo	-4329
mbathani	-4330
msebenzi	-4331
nesitsha	-4332
nezifebe	-4333
nezitsha	-4334
ngamathe	-4335
ngamehlo	-4336
ningenzi	-4337
niyakuba	-4338
njengami	-4339
nomzimba	-4340
okukhona	-4341
phendule	-4342
qhutshwa	-4343
sayikuba	-4344
tetrarki	-4345
thandiyo	-4346
thathela	-4347
thembeni	-4348
tshelile	-4349
ulwandle	-4350
umfowenu	-4351
umnyango	-4352
unembeza	-4353
uzakungi	-4354
vumelana	-4355
wababiza	-4356
wamukele	-4357
yamemeza	-4358
zegolide	-4359
abafowabo	-4360
abathathu	-4361
amagatsha	-4362
bathumela	-4363
belzebule	-4364
betlehema	-4365
betsayida	-4366
bongekayo	-4367
dabukiswa	-4368
elimnandi	-4369
fakazelwa	-4370
galathiya	-4371
hlulelayo	-4372
isikhonzi	-4373
isithombe	-4374
kalukhuni	-4375
khululele	-4376
khundleni	-4377
kusondela	-4378
landelayo	-4379
levangeli	-4380
nezinduna	-4381
ngingekho	-4382
ngobuqili	-4383
njengathi	-4384
okokuqala	-4385
phelelise	-4386
phulukise	-4387
sikhuluma	-4388
sithekeni	-4389
sokulunga	-4390
thunyelwe	-4391
tshengisa	-4392
ukumbamba	-4393
uqinisile	-4394
uthabathe	-4395
wabafundi	-4396
wafundisa	-4397
yevangeli	-4398
zobukhosi	-4399
zokugcina	-4400
ababehlezi	-4401
angisayiku	-4402
bayakhonza	-4403
eliphezulu	-4404
emshadweni	-4405
ezinyaweni	-4406
ezixukwini	-4407
eziyikhulu	-4408
isisebenzi	-4409
khaphelayo	-4410
kwabaningi	-4411
kwayikhona	-4412
lawodikeya	-4413
lesithupha	-4414
namadodana	-4415
ngisindise	-4416
ngiyakwazi	-4417
okuqondene	-4418
sekuhlwile	-4419
thethelele	-4420
umninindlu	-4421
ungaphingi	-4422
wayesebiza	-4423
yisikhonzi	-4424
abafelokazi	-4425
abancinyane	-4426
hlanganyelo	-4427
isiyaluyalu	-4428
izithembiso	-4429
nabathelisi	-4430
nesifundiso	-4431
ngihawukele	-4432
nginamandla	-4433
ngiyakholwa	-4434
nishumayeza	-4435
okudaliweyo	-4436
onezindlebe	-4437
ongalungile	-4438
ukusindiswa	-4439
wayesephuma	-4440
yayisibetha	-4441
ekuphumuleni	-4442
hlanzekileyo	-4443
itabernakele	-4444
nakwabezizwe	-4445
ngokwentando	-4446
nithethelela	-4447
nokubekezela	-4448
nowesifazane	-4449
ntshonalanga	-4450
ukungibulala	-4451
ukuphikisana	-4452
ukushumayela	-4453
abathandekayo	-4454
bhapathizelwa	-4455
emikhulekweni	-4456
enkazimulweni	-4457
kukusindisile	-4458
nezimangaliso	-4459
ukubhapathiza	-4460
ngakwesokhohlo	-4461
nokuhlambalaza	-4462
ak	-4463
to	-4464
ud	-4465
aga	-4466
ala	-4467
ana	-4468
avu	-4469
cwa	-4470
don	-4471
eva	-4472
fra	-4473
gqi	-4474
huh	-4475
ile	-4476
iva	-4477
ivu	-4478
nan	-4479
ofe	-4480
owo	-4481
oza	-4482
qho	-4483
sem	-4484
sta	-4485
udo	-4486
uni	-4487
vin	-4488
akwi	-4489
apha	-4490
atha	-4491
badu	-4492
basa	-4493
beno	-4494
beya	-4495
bubi	-4496
cime	-4497
emev	-4498
emnq	-4499
enci	-4500
ende	-4501
enim	-4502
enta	-4503
esim	-4504
godi	-4505
gomo	-4506
haqi	-4507
helo	-4508
keka	-4509
koba	-4510
kofe	-4511
mewu	-4512
mubi	-4513
muki	-4514
neke	-4515
ngem	-4516
nimi	-4517
njwa	-4518
noni	-4519
nowe	-4520
odla	-4521
okum	-4522
owam	-4523
qoma	-4524
roni	-4525
saku	-4526
sali	-4527
silo	-4528
sole	-4529
stra	-4530
uphu	-4531
wabe	-4532
wagu	-4533
woti	-4534
yema	-4535
yima	-4536
zayi	-4537
zeni	-4538
ziku	-4539
ziwa	-4540
ziwe	-4541
zizi	-4542
abana	-4543
abano	-4544
abela	-4545
abone	-4546
akabe	-4547
akulu	-4548
amuke	-4549
avela	-4550
awuyi	-4551
ayini	-4552
azaku	-4553
bange	-4554
betho	-4555
bikho	-4556
bongi	-4557
bophe	-4558
efanu	-4559
ekamu	-4560
ekuph	-4561
emini	-4562
engqo	-4563
esibi	-4564
esise	-4565
eyayi	-4566
funde	-4567
fungi	-4568
fweni	-4569
gange	-4570
henqo	-4571
hlaba	-4572
ikoni	-4573
imivi	-4574
izazi	-4575
izela	-4576
izifo	-4577
izimp	-4578
kakho	-4579
khafu	-4580
khela	-4581
kwale	-4582
kwane	-4583
lakwa	-4584
lidla	-4585
lingo	-4586
lodwa	-4587
lwabo	-4588
mbele	-4589
menye	-4590
mnike	-4591
mvaba	-4592
nahlu	-4593
nanxa	-4594
ndebe	-4595
ndeze	-4596
ndulo	-4597
nenye	-4598
ngoni	-4599
nkezo	-4600
nodwa	-4601
nokum	-4602
nsimu	-4603
okuya	-4604
qambe	-4605
sebem	-4606
senzo	-4607
songa	-4608
sweli	-4609
thuki	-4610
trowa	-4611
ubona	-4612
ukuku	-4613
ulimi	-4614
umumo	-4615
usulu	-4616
wadla	-4617
yangi	-4618
yehla	-4619
zenze	-4620
akwila	-4621
angayi	-4622
aningi	-4623
aphuma	-4624
athene	-4625
bafike	-4626
bangam	-4627
beyizi	-4628
bezaku	-4629
bhinqa	-4630
bhubhe	-4631
bhujis	-4632
bikele	-4633
bulele	-4634
celayo	-4635
delela	-4636
dumaza	-4637
efwini	-4638
emnqum	-4639
eningi	-4640
enithi	-4641
ezimva	-4642
hlelwe	-4643
hluthu	-4644
hosiya	-4645
ihlazo	-4646
ihlezi	-4647
imelwe	-4648
inetha	-4649
inkolo	-4650
kasiye	-4651
kelani	-4652
khwela	-4653
komusa	-4654
kunaye	-4655
kunina	-4656
kuvele	-4657
kuyeka	-4658
mfundi	-4659
mpepho	-4660
nanhla	-4661
nayeli	-4662
neyesi	-4663
ngenze	-4664
nikile	-4665
njelwa	-4666
njiswa	-4667
nkambo	-4668
nobuso	-4669
novalo	-4670
nowoku	-4671
nyelwa	-4672
nyiswe	-4673
nzanga	-4674
ogwini	-4675
okusha	-4676
olahla	-4677
omdala	-4678
ozelwe	-4679
phanga	-4680
phupho	-4681
quqaba	-4682
samuka	-4683
shiywa	-4684
sifana	-4685
sivela	-4686
siyani	-4687
taliya	-4688
tamasa	-4689
thambo	-4690
thelwe	-4691
thinti	-4692
thongo	-4693
tshala	-4694
uhlale	-4695
ukukha	-4696
ukukho	-4697
ukusho	-4698
ungaba	-4699
ungabi	-4700
ungayi	-4701
uphume	-4702
uthela	-4703
uthuli	-4704
vamile	-4705
viniga	-4706
wavuma	-4707
wokuba	-4708
womoya	-4709
yamuka	-4710
yesaba	-4711
yibona	-4712
yilelo	-4713
yisele	-4714
yokuba	-4715
zakufa	-4716
zuzile	-4717
zwanga	-4718
akasoze	-4719
akusiye	-4720
akusizi	-4721
akusoze	-4722
amagama	-4723
anenani	-4724
anisibo	-4725
awusiye	-4726
bahambe	-4727
baphume	-4728
behlezi	-4729
dingeka	-4730
efakaza	-4731
embethe	-4732
emeveni	-4733
faniswa	-4734
hlalisa	-4735
igolide	-4736
ikoniyu	-4737
imimoya	-4738
inkatho	-4739
insizwa	-4740
isifile	-4741
izibani	-4742
kungene	-4743
kwaleli	-4744
kwalezo	-4745
kwezulu	-4746
lindela	-4747
lizwayo	-4748
lungisi	-4749
makanga	-4750
maninga	-4751
mhlambi	-4752
nalapha	-4753
namehlo	-4754
ndodeni	-4755
ndulele	-4756
nenzalo	-4757
ngalesi	-4758
ngemizi	-4759
ngezono	-4760
ngibuye	-4761
ngikulo	-4762
nginani	-4763
nguyise	-4764
nifunde	-4765
nilinde	-4766
ningeze	-4767
nithini	-4768
njabulo	-4769
nonyoko	-4770
nqabeli	-4771
nqumile	-4772
phethwe	-4773
phiweyo	-4774
qabunga	-4775
sakithi	-4776
samanje	-4777
sanikwa	-4778
sihlezi	-4779
singabe	-4780
singena	-4781
stadiyu	-4782
stefanu	-4783
sweleni	-4784
thathwa	-4785
thobeka	-4786
thobele	-4787
ukholwa	-4788
ukuvuna	-4789
umisile	-4790
ungangi	-4791
ungasho	-4792
uzakuni	-4793
wabantu	-4794
wabheka	-4795
wamyisa	-4796
womuntu	-4797
yenkosi	-4798
yikuphi	-4799
yilokho	-4800
yiyiphi	-4801
yizwani	-4802
akubanga	-4803
akulutho	-4804
amafutha	-4805
amasango	-4806
azenzayo	-4807
babaleka	-4808
bakholwe	-4809
bakhonza	-4810
bambamba	-4811
bathanda	-4812
bathatha	-4813
bayakuni	-4814
besilisa	-4815
bhalweni	-4816
bhubhayo	-4817
bulalayo	-4818
dukisayo	-4819
echibini	-4820
emgodini	-4821
enkosini	-4822
enqabeni	-4823
esonweni	-4824
eyenziwe	-4825
eyihlane	-4826
funisisa	-4827
herodiya	-4828
hlambulu	-4829
hlanjala	-4830
hlonipha	-4831
hosiyana	-4832
imivimbo	-4833
intokozo	-4834
isigqila	-4835
izikhali	-4836
kobusuku	-4837
kubonile	-4838
kuzakuba	-4839
lamukela	-4840
lamuleli	-4841
lwalokho	-4842
mbethela	-4843
mbonanga	-4844
mesabayo	-4845
namukela	-4846
namukele	-4847
nanhlanu	-4848
nengcebo	-4849
nenyanga	-4850
ngenanga	-4851
ngenyama	-4852
ngingoka	-4853
ngokunye	-4854
ngokwazi	-4855
ngokwenu	-4856
ngolweni	-4857
niqinile	-4858
njengama	-4859
nomkakhe	-4860
nyamanye	-4861
okuncane	-4862
okuthile	-4863
ongayiku	-4864
phunyuka	-4865
qinileyo	-4866
qiniseka	-4867
qinisela	-4868
qondanga	-4869
sakubona	-4870
sandleni	-4871
sekufeni	-4872
shiyanga	-4873
shwabene	-4874
sifanele	-4875
sitshele	-4876
ubukhosi	-4877
ucezwana	-4878
ugongolo	-4879
ulungile	-4880
uyaphila	-4881
wafakaza	-4882
wambamba	-4883
womhlaba	-4884
wothanda	-4885
yesixuku	-4886
yinhloko	-4887
yiziwula	-4888
yomhlaba	-4889
zezibani	-4890
zomhlaba	-4891
abathengi	-4892
abesilisa	-4893
abokusoka	-4894
amahhashi	-4895
bakhonona	-4896
befundisa	-4897
besahamba	-4898
chasisela	-4899
enanikade	-4900
enginakho	-4901
esivinini	-4902
ethembeni	-4903
ezindlini	-4904
fihliweyo	-4905
fundisiwe	-4906
gcwaliswe	-4907
iminikelo	-4908
iminyango	-4909
isiboshwa	-4910
iyakufika	-4911
izelamani	-4912
izindlela	-4913
khulekeni	-4914
kuhlwanye	-4915
kulungile	-4916
kwababemi	-4917
kwamandla	-4918
kwangathi	-4919
likhuluma	-4920
makungabi	-4921
namathela	-4922
namathele	-4923
nendodana	-4924
nezidalwa	-4925
nezingubo	-4926
nezinwele	-4927
nezithelo	-4928
ngcwelise	-4929
ngendlela	-4930
ngesineke	-4931
ngifakaza	-4932
ngikhipha	-4933
ngizakuni	-4934
ngokwenza	-4935
ngomkhosi	-4936
nikhuleka	-4937
ningizimu	-4938
nokugedla	-4939
okungcono	-4940
ongenakho	-4941
owamukela	-4942
sebenzela	-4943
sebenzisa	-4944
swelekile	-4945
thandanga	-4946
thobelani	-4947
thokozile	-4948
ukuthatha	-4949
unedemoni	-4950
wasondela	-4951
wokuthula	-4952
yizinsuku	-4953
yompristi	-4954
aleksandru	-4955
basindiswe	-4956
bhujisweni	-4957
cindezelwa	-4958
colekileyo	-4959
ekuphumeni	-4960
elimhlophe	-4961
elokugcina	-4962
emnqumweni	-4963
engutsheni	-4964
ezigcawini	-4965
ezimhlophe	-4966
ezimvabeni	-4967
ezintabeni	-4968
funyaniswa	-4969
hlanganisa	-4970
hlangulisa	-4971
hluthulelo	-4972
iziqabetho	-4973
khuthalele	-4974
kubonileyo	-4975
kuyakuvela	-4976
kuyintando	-4977
kwabalelwa	-4978
kwakuhlezi	-4979
mangalelwa	-4980
nabafileyo	-4981
namakhanda	-4982
nezimpondo	-4983
ngangokuba	-4984
ngeminyaka	-4985
ngezinwele	-4986
ngingubani	-4987
ngukulunga	-4988
ningangeni	-4989
nithandane	-4990
nokukhanya	-4991
okulotshwe	-4992
olusesweni	-4993
onothileyo	-4994
pheleliswa	-4995
pheleliswe	-4996
semhlabeni	-4997
ungabulali	-4998
uyakuphila	-4999
uyakuphiwa	-5000
wabafumana	-5001
wamlandela	-5002
waziphonsa	-5003
yingcosana	-5004
yizinhlobo	-5005
yokukholwa	-5006
abacebileyo	-5007
abekwenzile	-5008
anifundanga	-5009
bamphendula	-5010
bangatsheli	-5011
bashumayela	-5012
empumalanga	-5013
engqondweni	-5014
ezincekwini	-5015
ezinsukwini	-5016
hlanganyele	-5017
hluphekweni	-5018
hlwanyelayo	-5019
iziphambeko	-5020
khazimulayo	-5021
kungumzimba	-5022
kwabantwana	-5023
kwakungekho	-5024
kwenhliziyo	-5025
kwesikhathi	-5026
nabafowethu	-5027
nabangcwele	-5028
ngcwelisiwe	-5029
ngiyathanda	-5030
nomphakathi	-5031
okuphambene	-5032
phakamisela	-5033
phakanyiswa	-5034
phendukanga	-5035
shumayelayo	-5036
ukukhululwa	-5037
umhlatshelo	-5038
ungithumile	-5039
wayesehlala	-5040
yezingelosi	-5041
zinhlupheko	-5042
bhapathiziwe	-5043
esikhundleni	-5044
isikhubekiso	-5045
izimangaliso	-5046
kulungisiswa	-5047
kwemisebenzi	-5048
kwenkazimulo	-5049
kwezingelosi	-5050
ngabokugcina	-5051
ngasemnyango	-5052
ngiyakumnika	-5053
ngokufundisa	-5054
ngokukhuleka	-5055
ngomprofethi	-5056
okulungileyo	-5057
thakathakeni	-5058
thukuthelela	-5059
ukuyokhuleka	-5060
uthethelelwe	-5061
wabaprofethi	-5062
wasihlephula	-5063
wazithabatha	-5064
abangamakhulu	-5065
akunakwenzeka	-5066
ezinkanukweni	-5067
kubonakaliswe	-5068
ngabaprofethi	-5069
ngesithembiso	-5070
ngeziphambeko	-5071
nginitshelile	-5072
ngokubekezela	-5073
ngokwevangeli	-5074
obuthakathaka	-5075
okuhlatshelwe	-5076
ukuhlambalaza	-5077
ukukhuthazela	-5078
wabaphulukisa	-5079
izakukhashelwa	-5080
izinkulungwane	-5081
ngokungafanele	-5082
ngokungakholwa	-5083
yongithumileyo	-5084
esingenamvubelo	-5085
uyakulahlekelwa	-5086
kwabangakholwayo	-5087
5:	-5088
ny	-5089
ul	-5090
xh	-5091
ewu	-5092
iye	-5093
lam	-5094
mfi	-5095
nqu	-5096
num	-5097
obi	-5098
oga	-5099
oka	-5100
ris	-5101
rsu	-5102
alfe	-5103
amvu	-5104
arku	-5105
ashi	-5106
buyi	-5107
demu	-5108
dobi	-5109
ekha	-5110
faro	-5111
faza	-5112
fezi	-5113
fuyo	-5114
gabi	-5115
gana	-5116
gayu	-5117
gubu	-5118
gwaq	-5119
haha	-5120
hume	-5121
jabu	-5122
kale	-5123
kali	-5124
kane	-5125
kudu	-5126
kufa	-5127
liku	-5128
liyi	-5129
liyu	-5130
lize	-5131
lobe	-5132
mala	-5133
mema	-5134
miya	-5135
neka	-5136
neza	-5137
nine	-5138
niza	-5139
nosi	-5140
nuka	-5141
nzwe	-5142
odwa	-5143
pher	-5144
samu	-5145
saya	-5146
sebu	-5147
sema	-5148
sena	-5149
sine	-5150
siwo	-5151
siyo	-5152
sobu	-5153
suke	-5154
veze	-5155
waho	-5156
wulo	-5157
xoko	-5158
yale	-5159
yaze	-5160
yazo	-5161
zimi	-5162
zuka	-5163
abala	-5164
abame	-5165
abasi	-5166
abaze	-5167
angam	-5168
anise	-5169
arist	-5170
aroni	-5171
asuse	-5172
bakhi	-5173
benja	-5174
bumpo	-5175
cishe	-5176
dlile	-5177
elali	-5178
elibi	-5179
emkho	-5180
enaku	-5181
endle	-5182
engam	-5183
esebe	-5184
eyesi	-5185
ezaku	-5186
ezayo	-5187
ezulu	-5188
gqoka	-5189
gudla	-5190
hange	-5191
hlebi	-5192
hlele	-5193
hlola	-5194
hlole	-5195
hlose	-5196
hlume	-5197
ifika	-5198
ifike	-5199
imila	-5200
isazi	-5201
kebhe	-5202
khana	-5203
khiku	-5204
khuba	-5205
khumu	-5206
klolo	-5207
konje	-5208
kwamu	-5209
lethe	-5210
lizwi	-5211
londe	-5212
lwaba	-5213
lwawo	-5214
matha	-5215
mathe	-5216
mbuka	-5217
muthi	-5218
nansi	-5219
naphi	-5220
ngale	-5221
ngeka	-5222
ngiyo	-5223
nizwa	-5224
njiwe	-5225
ntisa	-5226
ntshi	-5227
nxuse	-5228
nyazi	-5229
nyise	-5230
nzisa	-5231
obona	-5232
ofana	-5233
okuba	-5234
omiyo	-5235
onesa	-5236
owani	-5237
phiko	-5238
phiku	-5239
sethu	-5240
sheni	-5241
shiyi	-5242
siphi	-5243
tarsu	-5244
thiya	-5245
thobe	-5246
thusi	-5247
tuswa	-5248
ubaba	-5249
ubisi	-5250
ubuye	-5251
ufike	-5252
ufile	-5253
umame	-5254
umusi	-5255
vivin	-5256
vuthi	-5257
yinto	-5258
yipha	-5259
yizwi	-5260
zenza	-5261
zotha	-5262
ababem	-5263
abakhi	-5264
abasha	-5265
alfewu	-5266
alikho	-5267
angabi	-5268
angiku	-5269
angizi	-5270
aphume	-5271
athane	-5272
babika	-5273
belele	-5274
beqala	-5275
beyaku	-5276
bongwa	-5277
bonise	-5278
bukela	-5279
buyele	-5280
celani	-5281
chachi	-5282
chichi	-5283
dazulu	-5284
deleli	-5285
diliza	-5286
diyana	-5287
dlanga	-5288
engini	-5289
entsha	-5290
eyedwa	-5291
eyodwa	-5292
ezelwe	-5293
ezinde	-5294
ezwini	-5295
fanisa	-5296
fikela	-5297
gcinwe	-5298
guquka	-5299
hlamba	-5300
hliswa	-5301
huheka	-5302
ingabe	-5303
iyodwa	-5304
izimpi	-5305
jasoni	-5306
jesayi	-5307
keleyo	-5308
khondo	-5309
khukhu	-5310
khwebu	-5311
kobuso	-5312
kosizi	-5313
kulelo	-5314
kulezo	-5315
kumeza	-5316
kuyize	-5317
kuyizi	-5318
leleyo	-5319
listra	-5320
liyisi	-5321
lolaka	-5322
lomuzi	-5323
makani	-5324
malibe	-5325
manibe	-5326
mbhalo	-5327
mngane	-5328
mukile	-5329
mukula	-5330
nabaka	-5331
nabala	-5332
nacala	-5333
nakini	-5334
nakuzo	-5335
nasesi	-5336
nawoku	-5337
nelani	-5338
nezela	-5339
ngazwi	-5340
ngidle	-5341
ngokum	-5342
ngwini	-5343
nkathi	-5344
nobubi	-5345
nomusa	-5346
nosizi	-5347
nowasi	-5348
ntambo	-5349
ofunga	-5350
ogcina	-5351
ohlala	-5352
okwaku	-5353
okwenu	-5354
omlilo	-5355
omnene	-5356
ongazi	-5357
ophezu	-5358
othini	-5359
phamfi	-5360
phetho	-5361
phuthe	-5362
qhingi	-5363
sawoti	-5364
shinga	-5365
shiswe	-5366
shulwa	-5367
sinoku	-5368
sivini	-5369
sizani	-5370
sizini	-5371
sokayo	-5372
ukunga	-5373
umfula	-5374
ungabe	-5375
unyawo	-5376
vikelo	-5377
vumeli	-5378
wabuza	-5379
waguqa	-5380
waleli	-5381
waloba	-5382
yalesi	-5383
yaleyo	-5384
yigazi	-5385
yileso	-5386
yinhla	-5387
yisana	-5388
zanini	-5389
zelani	-5390
zibona	-5391
zivela	-5392
zokubu	-5393
ababemi	-5394
abalimi	-5395
abasibo	-5396
agcwele	-5397
akusibo	-5398
amasimu	-5399
amatshe	-5400
amazulu	-5401
ashiywe	-5402
asisibo	-5403
ayinike	-5404
bangama	-5405
basutha	-5406
bathole	-5407
bathuma	-5408
bekhala	-5409
bembona	-5410
bengaka	-5411
benyama	-5412
benziwa	-5413
bubende	-5414
cabango	-5415
dangali	-5416
edabula	-5417
ekubona	-5418
eliyaku	-5419
ethwele	-5420
etsheni	-5421
fundayo	-5422
fushane	-5423
hambisa	-5424
hlisela	-5425
hlubuka	-5426
hlubula	-5427
hlwitha	-5428
ihhashi	-5429
inyanga	-5430
isifebe	-5431
isikela	-5432
italiya	-5433
kenzeki	-5434
khanani	-5435
khethwa	-5436
kokunye	-5437
kuyinto	-5438
kwalezi	-5439
kwelase	-5440
kwesono	-5441
lahliwe	-5442
lambile	-5443
langabi	-5444
lingene	-5445
lomuntu	-5446
londolo	-5447
mathewu	-5448
naphuma	-5449
nasezin	-5450
nezelwa	-5451
ngafika	-5452
ngalezi	-5453
ngalobo	-5454
ngalobu	-5455
ngenani	-5456
ngesono	-5457
ngibeke	-5458
ngifika	-5459
ngifike	-5460
ngilazi	-5461
ngokuni	-5462
ngokuzi	-5463
ngonile	-5464
ngukuba	-5465
nhlamba	-5466
nikelwe	-5467
ninakho	-5468
ningaze	-5469
nixwaye	-5470
nokwazi	-5471
nomaphi	-5472
nqabela	-5473
numzane	-5474
nyukele	-5475
ogulayo	-5476
okomoya	-5477
okuyaku	-5478
okuyisi	-5479
okwenza	-5480
ongathi	-5481
osizini	-5482
owayeno	-5483
owaziyo	-5484
phindwe	-5485
qhubela	-5486
qhuzuka	-5487
qondile	-5488
sengiya	-5489
senziwe	-5490
shiweyo	-5491
sikhona	-5492
siphila	-5493
sisinye	-5494
thakalo	-5495
thengwa	-5496
thiweyo	-5497
tilongo	-5498
ufikile	-5499
ukhipha	-5500
ukubiza	-5501
ukubola	-5502
ukuqala	-5503
ukwenze	-5504
umalusi	-5505
umkhosi	-5506
uqinise	-5507
uquqaba	-5508
usawoti	-5509
uyakuku	-5510
uyakuni	-5511
uyakuzi	-5512
velanga	-5513
vivinya	-5514
walamba	-5515
waletha	-5516
wambona	-5517
wanikwa	-5518
wenzile	-5519
wezizwe	-5520
yegumbi	-5521
yenzayo	-5522
yenzuzo	-5523
yesizwe	-5524
yinkosi	-5525
yinyama	-5526
yombuso	-5527
zindaba	-5528
zinyoka	-5529
zokuzwa	-5530
zombuso	-5531
abancane	-5532
abangama	-5533
abenyama	-5534
akhuleka	-5535
akhuluma	-5536
akukuhle	-5537
akuzange	-5538
amncenga	-5539
angimazi	-5540
bafanele	-5541
bashaywa	-5542
bazakuyi	-5543
behlelwa	-5544
bekubona	-5545
bembethe	-5546
bemlinga	-5547
bethanda	-5548
bhidliza	-5549
bhubhise	-5550
buthongo	-5551
chitheka	-5552
diyakoni	-5553
egcekeni	-5554
endodeni	-5555
eningena	-5556
esengene	-5557
ezingaki	-5558
ezintsha	-5559
gcinelwe	-5560
gwaqweni	-5561
hlatshwa	-5562
hlulelwa	-5563
hudulela	-5564
induduzo	-5565
ingcwele	-5566
isiphiwo	-5567
izibopho	-5568
iziphiwo	-5569
jabhiswa	-5570
khanyisa	-5571
khethela	-5572
khohlisi	-5573
khukhula	-5574
khukhume	-5575
khuthala	-5576
kokuqala	-5577
kukhanye	-5578
kulusuku	-5579
kusihlwa	-5580
kwalokhu	-5581
kwamukwa	-5582
kwelanga	-5583
leqiniso	-5584
lobokazi	-5585
mamukele	-5586
mntanami	-5587
mukeleni	-5588
nakholwa	-5589
nakinina	-5590
namacala	-5591
nezandla	-5592
nezinkwa	-5593
ngelelwa	-5594
ngibonga	-5595
ngikusho	-5596
ngingaze	-5597
ngingena	-5598
ngokuhle	-5599
ngomuntu	-5600
ngomyalo	-5601
nikwenze	-5602
ningakho	-5603
ninindlu	-5604
niyamazi	-5605
njengabo	-5606
nokubusa	-5607
okungaye	-5608
okungayi	-5609
phenduki	-5610
phonseka	-5611
qalekisa	-5612
sasifana	-5613
somandla	-5614
thandani	-5615
thunyiwe	-5616
tshisiwe	-5617
ufundisa	-5618
ukhulume	-5619
ukubizwa	-5620
ukubonga	-5621
ukukhulu	-5622
ukuletha	-5623
ukumuzwa	-5624
ungowase	-5625
uzakuthi	-5626
valelisa	-5627
vumelene	-5628
vuselela	-5629
wakhipha	-5630
wamkhuza	-5631
wanikela	-5632
wawobaba	-5633
wayengum	-5634
yalisisa	-5635
yethemba	-5636
yomzimba	-5637
yothando	-5638
akenzanga	-5639
amakhanda	-5640
angikusho	-5641
angizange	-5642
aristarku	-5643
babengena	-5644
basondela	-5645
bathokoza	-5646
bekhuleka	-5647
benjamini	-5648
dadewethu	-5649
emandleni	-5650
emithathu	-5651
emizaneni	-5652
entanyeni	-5653
enzalweni	-5654
esevukile	-5655
esifubeni	-5656
ezithweni	-5657
fihlakele	-5658
fundiseni	-5659
hawukelwe	-5660
hlukanisa	-5661
hlukumeza	-5662
imbongolo	-5663
kanembeza	-5664
khulekele	-5665
khululiwe	-5666
korneliyu	-5667
kubonanga	-5668
kukhuleka	-5669
kulukhuni	-5670
kumpristi	-5671
kunabantu	-5672
kwengcebo	-5673
kwenzanga	-5674
lalelanga	-5675
lungisani	-5676
lungisiwe	-5677
minyanisa	-5678
mphendula	-5679
nabizelwa	-5680
nangokuba	-5681
nasibindi	-5682
nezihambi	-5683
nezinduku	-5684
nezinyoni	-5685
ngamukela	-5686
ngcwelisa	-5687
ngenisile	-5688
ngenzanga	-5689
ngephupho	-5690
ngidumisa	-5691
ngiyakuku	-5692
ngiyayazi	-5693
ngokokuma	-5694
ngokomoya	-5695
ngokufika	-5696
ngokwanga	-5697
ngokwethu	-5698
ngumzimba	-5699
nibuthana	-5700
ningabaka	-5701
niyakwazi	-5702
nobukhosi	-5703
nokunxusa	-5704
nyakazisa	-5705
qhamileyo	-5706
qhubekela	-5707
sengelosi	-5708
sezulwini	-5709
sindisiwe	-5710
sokugcina	-5711
sokuphila	-5712
udenariyu	-5713
ukudabuka	-5714
ukufakaza	-5715
ukungcola	-5716
uyakholwa	-5717
uyathanda	-5718
vumelanga	-5719
waphumela	-5720
wathumela	-5721
wayehamba	-5722
wayengazi	-5723
yabezizwe	-5724
yakhuluma	-5725
yesinaphi	-5726
yiminyaka	-5727
yokuthula	-5728
zingelayo	-5729
abakhuluma	-5730
abangayiku	-5731
abathelisi	-5732
amastadiyu	-5733
amthandayo	-5734
bagijimela	-5735
bayibulala	-5736
bayiphonsa	-5737
buqinisile	-5738
chachileyo	-5739
ekamelweni	-5740
ekugcineni	-5741
emathuneni	-5742
enikuzwayo	-5743
esigcawini	-5744
ezingcwele	-5745
fundisweni	-5746
hlambuluka	-5747
hlangabeza	-5748
izinhlamvu	-5749
kanyekanye	-5750
khulelweyo	-5751
khulumanga	-5752
kusezakuba	-5753
kwaphakade	-5754
kwasekelwa	-5755
kwasondela	-5756
kweminyaka	-5757
kwenzekile	-5758
kwezwakala	-5759
langakhona	-5760
lesithathu	-5761
mukelisiwe	-5762
nabafowenu	-5763
namademoni	-5764
namsebenzi	-5765
nesibabule	-5766
nezinhloni	-5767
nezinyonga	-5768
ngabafundi	-5769
ngabezizwe	-5770
ngesifungo	-5771
ngobumnene	-5772
ngokubonga	-5773
ngokuzalwa	-5774
ngumfokazi	-5775
njengesela	-5776
nodadewabo	-5777
nokubulala	-5778
ntombazana	-5779
owahlulela	-5780
owayehlezi	-5781
ozibongayo	-5782
phamfiliya	-5783
phendukani	-5784
sesifikile	-5785
sethempeli	-5786
sihawukele	-5787
siyakholwa	-5788
ukuphelela	-5789
ukusebenza	-5790
umahluleli	-5791
umfelokazi	-5792
unokuphila	-5793
waprofetha	-5794
yamlandela	-5795
yethempeli	-5796
zinkanyezi	-5797
abonakalise	-5798
akubangakho	-5799
akwenzileyo	-5800
angilandele	-5801
bengalaleli	-5802
besakhuluma	-5803
beshumayela	-5804
emibhalweni	-5805
engumpristi	-5806
enikubonayo	-5807
esifaneleyo	-5808
hlanjalazwa	-5809
intukuthelo	-5810
izinyembezi	-5811
khazimulisa	-5812
khulumisana	-5813
kungakanani	-5814
kwesithathu	-5815
labangcwele	-5816
lahlekileyo	-5817
lungisisiwe	-5818
mangalelayo	-5819
nangamandla	-5820
nangothando	-5821
ngabokuqala	-5822
nganilobela	-5823
nganitshela	-5824
ngasolekiyo	-5825
ngenamandla	-5826
ngingumuntu	-5827
ngodenariyu	-5828
ngokufanele	-5829
ngokumesaba	-5830
ngokusobala	-5831
njengezimvu	-5832
nokukhuluma	-5833
olahlekelwa	-5834
othembekayo	-5835
phelekezela	-5836
phikukristu	-5837
shunyayezwa	-5838
siyakuthini	-5839
ukhathalela	-5840
ukuprofetha	-5841
ukuyobonani	-5842
waphakamisa	-5843
yathululela	-5844
yinkazimulo	-5845
abangamesabi	-5846
anikholwanga	-5847
behlambalaza	-5848
bonakalisile	-5849
ekukhulekeni	-5850
emaphandleni	-5851
eyimpumputhe	-5852
kasikhombisa	-5853
khazimuliswe	-5854
kuhlwanyelwa	-5855
kungakenzeki	-5856
kungukulunga	-5857
kwabazalwane	-5858
kweliphezulu	-5859
lesithembiso	-5860
lingakakhali	-5861
mukeliswanga	-5862
nabaphostoli	-5863
nezinkanyezi	-5864
ngabazalwane	-5865
ngasezulwini	-5866
ngenamthetho	-5867
ngishumayele	-5868
ngokuzenzisa	-5869
ngokwethemba	-5870
ngumahluleli	-5871
njengamandla	-5872
ongakholwayo	-5873
qalekisiweyo	-5874
umbhapathizo	-5875
umninisivini	-5876
uyangithanda	-5877
wakhuphukela	-5878
wayesethatha	-5879
wazihlephula	-5880
yabaprofethi	-5881
zabaphostoli	-5882
ekubhujisweni	-5883
elicolekileyo	-5884
engingafanele	-5885
eyisikhombisa	-5886
khazimulisiwe	-5887
lesivumelwano	-5888
nabangalaleli	-5889
ngasesangweni	-5890
ngokuphambene	-5891
ngukusindiswa	-5892
okulotshiweyo	-5893
sinishumayeza	-5894
uzakungiphika	-5895
wesivumelwano	-5896
zanyazanyiswa	-5897
engikuthandayo	-5898
nenhlanganyelo	-5899
ngezinhlupheko	-5900
nginikhululele	-5901
ngombhapathizo	-5902
njengabantwana	-5903
njengokuthanda	-5904
nobuthakathaka	-5905
okungavunyelwe	-5906
ebuthakathakeni	-5907
ngobuthakathaka	-5908
ngokwemisebenzi	-5909
uyakwamukeliswa	-5910
yizinhlobonhlobo	-5911
2¦	-5912
ch	-5913
pu	-5914
uz	-5915
are	-5916
ari	-5917
aza	-5918
ber	-5919
der	-5920
eta	-5921
ewa	-5922
eyo	-5923
gax	-5924
gxi	-5925
ite	-5926
jas	-5927
luk	-5928
lva	-5929
nki	-5930
oke	-5931
qwe	-5932
rtu	-5933
tra	-5934
xha	-5935
▁¦2	-5936
akhu	-5937
baza	-5938
bise	-5939
boya	-5940
buna	-5941
ceba	-5942
celi	-5943
cima	-5944
cimi	-5945
colo	-5946
dede	-5947
deka	-5948
edla	-5949
ehla	-5950
ekwe	-5951
engc	-5952
enqo	-5953
ephi	-5954
gezi	-5955
gona	-5956
hale	-5957
haqe	-5958
hemu	-5959
inge	-5960
ithe	-5961
joka	-5962
kalo	-5963
kamu	-5964
keme	-5965
khan	-5966
khwi	-5967
laso	-5968
lawu	-5969
lazo	-5970
lene	-5971
livu	-5972
lolu	-5973
loti	-5974
luku	-5975
lulu	-5976
luni	-5977
maku	-5978
mayo	-5979
melo	-5980
nent	-5981
nese	-5982
neyo	-5983
nibu	-5984
nidu	-5985
niki	-5986
okha	-5987
okom	-5988
olwa	-5989
otha	-5990
othe	-5991
qame	-5992
ramu	-5993
resi	-5994
sara	-5995
saze	-5996
selu	-5997
sesa	-5998
seza	-5999
simi	-6000
thum	-6001
tibe	-6002
tolo	-6003
tuse	-6004
ukha	-6005
unyo	-6006
uzam	-6007
wale	-6008
wamo	-6009
wazo	-6010
woba	-6011
woyi	-6012
yana	-6013
yeke	-6014
yesa	-6015
yiba	-6016
yosi	-6017
yudi	-6018
zawa	-6019
zelo	-6020
zisi	-6021
abaya	-6022
abeza	-6023
abiya	-6024
afike	-6025
akasa	-6026
akobe	-6027
alima	-6028
aluzi	-6029
ameva	-6030
anase	-6031
awuse	-6032
banzi	-6033
belwa	-6034
buthu	-6035
derbe	-6036
dlani	-6037
dlela	-6038
ebant	-6039
ebeka	-6040
eduze	-6041
efana	-6042
ekude	-6043
ekula	-6044
eline	-6045
emibi	-6046
esawu	-6047
esazi	-6048
eseyi	-6049
esiya	-6050
evuma	-6051
eyisa	-6052
eziko	-6053
gqubu	-6054
gxuma	-6055
hhayi	-6056
hlaza	-6057
holwa	-6058
icela	-6059
idili	-6060
imana	-6061
imile	-6062
isela	-6063
isiko	-6064
iyaba	-6065
jaspi	-6066
khale	-6067
khamo	-6068
khelo	-6069
khuze	-6070
klawu	-6071
kudla	-6072
kwana	-6073
kwefu	-6074
lamba	-6075
laywa	-6076
lindo	-6077
lotha	-6078
luphi	-6079
luthi	-6080
lvanu	-6081
lwazi	-6082
mbali	-6083
mbise	-6084
mdudu	-6085
menza	-6086
menze	-6087
mnene	-6088
muphe	-6089
myalo	-6090
mzuzu	-6091
nakhe	-6092
nangi	-6093
natha	-6094
ndini	-6095
ngife	-6096
ngoka	-6097
nidla	-6098
njana	-6099
njeni	-6100
nonga	-6101
nqamu	-6102
nqobe	-6103
nundu	-6104
nyeka	-6105
nzana	-6106
owake	-6107
owayo	-6108
phezi	-6109
phuca	-6110
senze	-6111
sutha	-6112
thama	-6113
thisa	-6114
ukimi	-6115
ukude	-6116
ukuwu	-6117
ulele	-6118
umina	-6119
unama	-6120
ungam	-6121
uyale	-6122
valwa	-6123
wemba	-6124
yanga	-6125
yenze	-6126
yinye	-6127
zwaka	-6128
abadla	-6129
abakho	-6130
abangi	-6131
abathe	-6132
adlula	-6133
akusho	-6134
amahle	-6135
ambone	-6136
angaba	-6137
angebe	-6138
angisa	-6139
angiyi	-6140
ayesem	-6141
ayikho	-6142
bacela	-6143
balesi	-6144
balimi	-6145
bamuke	-6146
banika	-6147
banike	-6148
bayimi	-6149
bazisa	-6150
bemuka	-6151
bizayo	-6152
boyise	-6153
bubula	-6154
busise	-6155
buyeli	-6156
celeni	-6157
chotho	-6158
dedani	-6159
egcina	-6160
ekuthu	-6161
elinge	-6162
emunye	-6163
endulo	-6164
engabo	-6165
engayi	-6166
engiwu	-6167
engiyi	-6168
esehla	-6169
esingu	-6170
esizwe	-6171
evange	-6172
ezihla	-6173
fakaze	-6174
felayo	-6175
fezela	-6176
fundwa	-6177
gcwale	-6178
giyona	-6179
gomora	-6180
guqule	-6181
hahayo	-6182
hlengo	-6183
hlupha	-6184
hluphi	-6185
ibanga	-6186
ibutho	-6187
ihlala	-6188
imizwi	-6189
ingafi	-6190
injalo	-6191
inkabi	-6192
intela	-6193
inzuzo	-6194
iqonde	-6195
isidlo	-6196
ithuna	-6197
izahlu	-6198
izelwe	-6199
jezisa	-6200
kafiki	-6201
kayiku	-6202
kazana	-6203
kemeyo	-6204
khandi	-6205
khumba	-6206
khunju	-6207
kokuba	-6208
kokuka	-6209
kubaba	-6210
kuboni	-6211
kulawa	-6212
kulula	-6213
kunani	-6214
kunazo	-6215
kusuka	-6216
kuyabo	-6217
kwabam	-6218
kwakha	-6219
kwaphu	-6220
lelesi	-6221
libali	-6222
limaza	-6223
livula	-6224
liwile	-6225
lizaku	-6226
luyaku	-6227
mamona	-6228
mayibe	-6229
mnyaka	-6230
naleso	-6231
nalezo	-6232
namhla	-6233
nasoni	-6234
ndliwa	-6235
nemizi	-6236
nesilo	-6237
nesono	-6238
nezono	-6239
ngakhe	-6240
ngenye	-6241
ngoqwe	-6242
nikani	-6243
nilile	-6244
nivame	-6245
nokoku	-6246
nolimi	-6247
nomuzi	-6248
nosizo	-6249
nzweni	-6250
obizwa	-6251
okunge	-6252
okwalo	-6253
olizwa	-6254
ombuso	-6255
ongaba	-6256
ongayi	-6257
oyedwa	-6258
oyihlo	-6259
phahla	-6260
phephe	-6261
phepho	-6262
qalile	-6263
qhotho	-6264
sabeka	-6265
sabona	-6266
sasuka	-6267
selite	-6268
shelwe	-6269
sinayi	-6270
siyalu	-6271
sokufa	-6272
solayo	-6273
sukela	-6274
ubonga	-6275
ubutha	-6276
uhlezi	-6277
umanga	-6278
umkayo	-6279
unakho	-6280
ungasi	-6281
ungebi	-6282
ungoka	-6283
unguye	-6284
unyoko	-6285
uzelwe	-6286
valela	-6287
valele	-6288
vulele	-6289
walala	-6290
wasala	-6291
waziwa	-6292
wazuza	-6293
wesaba	-6294
wesilo	-6295
wesono	-6296
womusa	-6297
yababe	-6298
yayise	-6299
yegazi	-6300
yindlu	-6301
yiyona	-6302
yizoni	-6303
yokufa	-6304
zakuya	-6305
zinika	-6306
ziyizi	-6307
zondwa	-6308
abakade	-6309
abayaku	-6310
abelusi	-6311
akasiye	-6312
akunaku	-6313
akwenze	-6314
amabele	-6315
amacala	-6316
amaqoma	-6317
aphange	-6318
aphulwa	-6319
asibeke	-6320
asinike	-6321
babutha	-6322
bambiso	-6323
bambona	-6324
baqonda	-6325
baqonde	-6326
bartolo	-6327
bazenza	-6328
behlala	-6329
bengazi	-6330
beninga	-6331
benzela	-6332
bephuza	-6333
bhekene	-6334
bunzini	-6335
dalelwa	-6336
delelwa	-6337
ebezaku	-6338
elizayo	-6339
esebona	-6340
eseleyo	-6341
eyayimi	-6342
ezivela	-6343
ezizayo	-6344
fakelwa	-6345
fikelwa	-6346
fungisa	-6347
gqileni	-6348
gxilile	-6349
hambela	-6350
hambile	-6351
humusha	-6352
ifikile	-6353
ikamela	-6354
ilineni	-6355
imibuso	-6356
isiliva	-6357
isiziba	-6358
izitsha	-6359
kabikho	-6360
khalayo	-6361
khalela	-6362
khubeki	-6363
khundla	-6364
kubalwa	-6365
kuhlala	-6366
kungani	-6367
kungase	-6368
kuqonda	-6369
kuthini	-6370
kuvuswa	-6371
kwasebu	-6372
kwasesi	-6373
kwazeke	-6374
kwetshe	-6375
lahlile	-6376
lelanga	-6377
likhule	-6378
lingena	-6379
lingisi	-6380
lwalezo	-6381
lwaneni	-6382
masinga	-6383
matheya	-6384
mbalaza	-6385
mduduzi	-6386
mlalela	-6387
mthathe	-6388
nabutha	-6389
nangase	-6390
nangayo	-6391
nangesi	-6392
nangobu	-6393
ndiselo	-6394
negunya	-6395
neliswa	-6396
nemithi	-6397
nendawo	-6398
nesinye	-6399
nesizwe	-6400
nezimvu	-6401
nezitho	-6402
ngaleli	-6403
ngasona	-6404
ngavela	-6405
ngaziwa	-6406
ngelani	-6407
ngesiko	-6408
ngesizo	-6409
ngibone	-6410
nginoku	-6411
ngisaya	-6412
ngivela	-6413
ngokubi	-6414
nguyebo	-6415
nhlamvu	-6416
nigcina	-6417
ningoni	-6418
niphiwe	-6419
niphuze	-6420
niqonde	-6421
njiweyo	-6422
nokuzwa	-6423
nomvuzo	-6424
noqhabo	-6425
nqabayo	-6426
nyekile	-6427
ofanele	-6428
ofileyo	-6429
ohlango	-6430
okuzayo	-6431
omelana	-6432
onomoya	-6433
othwele	-6434
owadala	-6435
owavela	-6436
owavusa	-6437
owayese	-6438
oyakuni	-6439
phathwa	-6440
phelayo	-6441
phumani	-6442
phumule	-6443
qiniswe	-6444
qondani	-6445
selweyo	-6446
shiloyo	-6447
silvanu	-6448
singama	-6449
singazi	-6450
sisanga	-6451
sishiye	-6452
sizathu	-6453
sizwile	-6454
thelele	-6455
thotshi	-6456
thulula	-6457
tshingo	-6458
ufakaza	-6459
ukugana	-6460
ulusizi	-6461
umbhali	-6462
umnyaka	-6463
umshado	-6464
unikele	-6465
usefile	-6466
uviniga	-6467
uyabona	-6468
uyakusi	-6469
uzakuza	-6470
vilapha	-6471
vimbela	-6472
vulelwa	-6473
vunguza	-6474
wabapha	-6475
wakhula	-6476
wakhuza	-6477
wamnika	-6478
wayenge	-6479
wengubo	-6480
wenyama	-6481
wesizwe	-6482
yahamba	-6483
yalutho	-6484
yathela	-6485
yathira	-6486
yokudla	-6487
yokuthi	-6488
zenzile	-6489
zenziwe	-6490
zikhona	-6491
zithelo	-6492
zithoba	-6493
zondayo	-6494
zungezi	-6495
ababizwa	-6496
abadingi	-6497
abalizwa	-6498
afundise	-6499
akhuleke	-6500
akhulume	-6501
amashumi	-6502
amathuna	-6503
angiyiku	-6504
anizange	-6505
anobheka	-6506
aphilayo	-6507
badabula	-6508
badukise	-6509
bakhumbu	-6510
bakwenze	-6511
bayalile	-6512
bebuzana	-6513
beniyaku	-6514
bephonsa	-6515
bhantshi	-6516
bhubhiyo	-6517
buthuntu	-6518
cimekiyo	-6519
dabukisa	-6520
dazuluka	-6521
duduzeka	-6522
dukileyo	-6523
dunyiswa	-6524
ebubende	-6525
elambile	-6526
elingaka	-6527
elithiwa	-6528
emafwini	-6529
ephilile	-6530
esahamba	-6531
esekhona	-6532
esingaka	-6533
esingesi	-6534
esithiwa	-6535
ezifweni	-6536
ezikanye	-6537
ezingulu	-6538
haleluya	-6539
icilongo	-6540
ingubani	-6541
isekhona	-6542
isidalwa	-6543
isihenqo	-6544
isikhamo	-6545
izidumbu	-6546
izihambi	-6547
izilwane	-6548
izinduna	-6549
julileyo	-6550
khanyayo	-6551
khathali	-6552
khethile	-6553
khohliwe	-6554
khulelwa	-6555
khwelisa	-6556
klebhula	-6557
kofanele	-6558
kokhokho	-6559
kubhubhe	-6560
kungenga	-6561
kusukuma	-6562
kuyakuza	-6563
kwabanga	-6564
kwabelwa	-6565
kwabenza	-6566
kwangena	-6567
kwenkosi	-6568
kwezinto	-6569
legolide	-6570
linjenge	-6571
lokusila	-6572
luthando	-6573
mamukela	-6574
mbatheka	-6575
misiweyo	-6576
mzalwane	-6577
ncintisa	-6578
negolide	-6579
newayini	-6580
nezibani	-6581
ngasemva	-6582
ngekhulu	-6583
ngeniswa	-6584
ngiyikho	-6585
ngolunye	-6586
ngombono	-6587
ngombuso	-6588
ngomuhla	-6589
ngumbusi	-6590
ningangi	-6591
niphethe	-6592
niyabona	-6593
nobufebe	-6594
nokuvuka	-6595
nombhalo	-6596
nomqondo	-6597
ntanakhe	-6598
nyathela	-6599
nyiselwa	-6600
nyuselwa	-6601
nziwanga	-6602
obukhulu	-6603
okuphuma	-6604
okushoyo	-6605
okuthiwa	-6606
ongesiso	-6607
ophilisa	-6608
osebenza	-6609
osukwini	-6610
oyakungi	-6611
profethe	-6612
qhingini	-6613
sebebona	-6614
sebefuna	-6615
sekuvele	-6616
sesibili	-6617
sibonile	-6618
sikanina	-6619
sikholwe	-6620
simeyoni	-6621
siyamazi	-6622
sokileyo	-6623
somzimba	-6624
sukumani	-6625
taladini	-6626
thandela	-6627
thathile	-6628
thembile	-6629
thengayo	-6630
thengise	-6631
thikhiku	-6632
thonjeni	-6633
ukufunda	-6634
ukumbona	-6635
ukumnika	-6636
ukuqonda	-6637
ukuswela	-6638
ukuthuka	-6639
umhlanga	-6640
umphetho	-6641
umthenwa	-6642
umthombo	-6643
umthwalo	-6644
ungcwele	-6645
ungowaba	-6646
uyakungi	-6647
uyakwazi	-6648
uzamcolo	-6649
vivinywa	-6650
vuswanga	-6651
wababusi	-6652
wabuyela	-6653
wagcwala	-6654
wagijima	-6655
wamandla	-6656
waphatha	-6657
waqalaza	-6658
waqinisa	-6659
wasendle	-6660
wathinta	-6661
wayelele	-6662
wayeseza	-6663
weqiniso	-6664
yabajuda	-6665
yamukela	-6666
yayisiyi	-6667
yimimoya	-6668
yiqiniso	-6669
zalwanga	-6670
zelineni	-6671
zigcwele	-6672
abaseduze	-6673
abathanda	-6674
abethelwe	-6675
abokuqala	-6676
agcwalise	-6677
akubonayo	-6678
akufanele	-6679
amahlamvu	-6680
angibanga	-6681
angiqambi	-6682
angizanga	-6683
asithandi	-6684
ayithatha	-6685
babengazi	-6686
bacabanga	-6687
bahluleka	-6688
bakhubeka	-6689
balandisa	-6690
bathandwa	-6691
bayavuswa	-6692
bayishaya	-6693
belungisa	-6694
bengesibo	-6695
benyukela	-6696
besondela	-6697
bhekisisa	-6698
ebantwini	-6699
ekuhluphe	-6700
encekwini	-6701
engcebeni	-6702
engingaku	-6703
esangweni	-6704
eseqedile	-6705
esitsheni	-6706
etafuleni	-6707
eyokuqala	-6708
ezigcwele	-6709
ezitsheni	-6710
hlabelela	-6711
hlabelele	-6712
hlolisisa	-6713
hlukanise	-6714
hlukeneyo	-6715
imikhumbi	-6716
imiyalelo	-6717
inkohliso	-6718
isiphithi	-6719
iziboshwa	-6720
izindlebe	-6721
izinkemba	-6722
khafulela	-6723
khazimula	-6724
khubekisi	-6725
khulekani	-6726
khululela	-6727
khulumeni	-6728
khulunywe	-6729
kulungeni	-6730
kungesiye	-6731
kuyihlazo	-6732
kwababusi	-6733
kwasukuma	-6734
kwebandla	-6735
kwesibili	-6736
landelana	-6737
landeleni	-6738
langazela	-6739
lezimbuzi	-6740
lokuthula	-6741
lomfowenu	-6742
lompristi	-6743
makwazeke	-6744
mayenziwe	-6745
mkhunjini	-6746
mukelanga	-6747
nabakhulu	-6748
nabathile	-6749
nakoyedwa	-6750
namhlanje	-6751
nandulela	-6752
nezihlalo	-6753
ngabadobi	-6754
ngamadoda	-6755
ngaziwayo	-6756
ngcweleni	-6757
ngegolide	-6758
ngezindlu	-6759
ngifanele	-6760
ngikhonze	-6761
ngikwenze	-6762
nginovalo	-6763
ngithinti	-6764
ngitshele	-6765
ngizakuza	-6766
ngokomusa	-6767
ngomzimba	-6768
ngoqwembe	-6769
ngufakazi	-6770
ngulukile	-6771
ngumfundi	-6772
nhlabathi	-6773
nikhulume	-6774
ningayazi	-6775
nithokoze	-6776
njengezin	-6777
nkosikazi	-6778
nkululeko	-6779
nobumnene	-6780
nokubonga	-6781
nokwabela	-6782
obamukele	-6783
obekuzaku	-6784
odumileyo	-6785
okomzimba	-6786
okufanele	-6787
okungathi	-6788
okungekho	-6789
okwabantu	-6790
okwenziwa	-6791
olufanele	-6792
ophakathi	-6793
phephetha	-6794
proselite	-6795
sasikhona	-6796
sebenzile	-6797
shisekele	-6798
sokumbuza	-6799
thunyelwa	-6800
ubupristi	-6801
ubuthongo	-6802
ukugcwala	-6803
ukumesaba	-6804
ukuphatha	-6805
umfundisi	-6806
ungomunye	-6807
uyahlanya	-6808
uyakuvuna	-6809
wabashiya	-6810
wabezizwe	-6811
wafakelwa	-6812
walandela	-6813
wamncenga	-6814
wamnikela	-6815
wamphatha	-6816
waqhubeka	-6817
wathokoza	-6818
wayehlezi	-6819
wayekwazi	-6820
wayinquma	-6821
wokuphela	-6822
yamakhosi	-6823
yaphakade	-6824
yenyukela	-6825
yingelosi	-6826
yizingane	-6827
yokuthela	-6828
zabezizwe	-6829
zinhlanzi	-6830
zinhlupho	-6831
zisindise	-6832
zokubukwa	-6833
abanochoko	-6834
amaqabunga	-6835
amasabatha	-6836
angifumani	-6837
anikaqondi	-6838
arimatheya	-6839
babatshela	-6840
bakufumana	-6841
balamukele	-6842
bephendula	-6843
bokukhanya	-6844
bokukholwa	-6845
ekupheleni	-6846
ekusweleni	-6847
elibukhali	-6848
elingcwele	-6849
emkhathini	-6850
emkhombeni	-6851
engakasoki	-6852
esesondela	-6853
evangelini	-6854
hluphekayo	-6855
hluphekile	-6856
imicabango	-6857
imikhuleko	-6858
imizwilili	-6859
inkosikazi	-6860
inkululeko	-6861
isithandwa	-6862
iyakubizwa	-6863
izahlulelo	-6864
izicathulo	-6865
izifundiso	-6866
izindwangu	-6867
khohlisayo	-6868
khukhumele	-6869
khukhumeza	-6870
kungalokho	-6871
kuyakufika	-6872
kwamakhosi	-6873
kwanqamuka	-6874
kwenezelwa	-6875
kwevangeli	-6876
laliseduze	-6877
lokukholwa	-6878
lwanamuhla	-6879
mhlatshelo	-6880
nababulali	-6881
nabaphangi	-6882
nabaseleyo	-6883
nabesilisa	-6884
nangamazwi	-6885
nesikhathi	-6886
nesikhonzi	-6887
nesithunzi	-6888
nethempeli	-6889
nezindlebe	-6890
nezinyanga	-6891
ngabaningi	-6892
ngamalunga	-6893
ngendwangu	-6894
ngengqondo	-6895
ngenyukela	-6896
ngikhuleke	-6897
ngobuningi	-6898
ngokungazi	-6899
ngokuphila	-6900
ngokuqonda	-6901
ngokuthini	-6902
ngumthetho	-6903
nikhathaze	-6904
nikhumbule	-6905
ninamandla	-6906
ningethuki	-6907
niyakubona	-6908
njengejuba	-6909
nobuhlungu	-6910
nokuthanda	-6911
nomsebenzi	-6912
nomzalwane	-6913
obongekayo	-6914
okubonwayo	-6915
okumhlophe	-6916
okuyichilo	-6917
omncinyane	-6918
ongakholwa	-6919
ongamukela	-6920
phambeneyo	-6921
phendukele	-6922
phindisela	-6923
phulukiswe	-6924
profethayo	-6925
samlandela	-6926
sendleleni	-6927
shwabeneyo	-6928
sindiswayo	-6929
siyaniyala	-6930
sokukholwa	-6931
thiyathira	-6932
ukhululiwe	-6933
ukufundisa	-6934
ukuphumula	-6935
ukwambulwa	-6936
umkhuhlane	-6937
umtetrarki	-6938
ususondele	-6939
uyakuthiwa	-6940
uyisigqila	-6941
wabakhipha	-6942
wabethelwa	-6943
wabonakala	-6944
wafunyanwa	-6945
wahlupheka	-6946
wayeseqala	-6947
wayesevuka	-6948
yembathani	-6949
yesithupha	-6950
yinhlawulo	-6951
yisihlengo	-6952
abaphakathi	-6953
akusayikuba	-6954
amembathisa	-6955
bartolomewu	-6956
emsebenzini	-6957
engikushoyo	-6958
ezihlalweni	-6959
ezindleleni	-6960
eziphambili	-6961
hlakazekile	-6962
hlukanisiwe	-6963
imifanekiso	-6964
izindlalifa	-6965
izinkanyezi	-6966
kababaningi	-6967
kuyabongeka	-6968
kwabagulayo	-6969
kwahlangana	-6970
kwambulweni	-6971
kwethempeli	-6972
kwezikhathi	-6973
likholekile	-6974
mangalisayo	-6975
mhlambalaza	-6976
mkhaphelayo	-6977
nabafundisi	-6978
nabakhuleka	-6979
nabayishumi	-6980
nabazidlayo	-6981
nasekwazini	-6982
ngesindiswe	-6983
ngezindlebe	-6984
ngezindlela	-6985
nginethemba	-6986
ngiyisinkwa	-6987
ngokuthanda	-6988
ngokwabantu	-6989
ngowokuqala	-6990
nisangibona	-6991
nisindisiwe	-6992
niyakuhlala	-6993
niyakuphiwa	-6994
njengelanga	-6995
njengomuntu	-6996
njengonyazi	-6997
nokuzibonga	-6998
nokwethemba	-6999
nomphostoli	-7000
nomprofethi	-7001
ohlwanyelwe	-7002
okhuthazela	-7003
okwakukhona	-7004
okwaphezulu	-7005
owazinikela	-7006
phongolweni	-7007
sebebuthene	-7008
sishumayela	-7009
thukululeni	-7010
ukuyothatha	-7011
ukuzingelwa	-7012
ukwamukelwa	-7013
umhlwanyeli	-7014
ungilandele	-7015
ungumpristi	-7016
uyakwamukwa	-7017
uyindlalifa	-7018
wezingulube	-7019
yabangcwele	-7020
yasezulwini	-7021
yokukhuleka	-7022
abalinqabayo	-7023
abamlalelayo	-7024
abathunyelwe	-7025
abayikungena	-7026
aleksandriya	-7027
asiyikunikwa	-7028
baphulukiswa	-7029
ekufundiseni	-7030
ekusithekeni	-7031
ezingulubeni	-7032
hloniphekayo	-7033
hlwanyelanga	-7034
isilinganiso	-7035
izinhlupheko	-7036
kubaprofethi	-7037
kugcwaliseka	-7038
kwabayishumi	-7039
labaprofethi	-7040
nangokulunga	-7041
nasebandleni	-7042
nasemhlabeni	-7043
nasemlonyeni	-7044
nawodadewabo	-7045
ngabafundisi	-7046
ngabahluleli	-7047
ngikhulumisa	-7048
nginesibindi	-7049
ngishumayela	-7050
ngiyakubonga	-7051
ngiyakunxusa	-7052
ngobungcwele	-7053
ngomfanekiso	-7054
ngumprofethi	-7055
ningahluleli	-7056
niyakuzondwa	-7057
nizakufumana	-7058
nokuzamazama	-7059
nokuzingelwa	-7060
nomphefumulo	-7061
ohlangothini	-7062
okungafanele	-7063
okusezulwini	-7064
omkhaphelayo	-7065
ongacimekiyo	-7066
oyisimungulu	-7067
phathimandla	-7068
sekwenzekile	-7069
ukukhululeka	-7070
ungukukhanya	-7071
uyangamukela	-7072
wabayalisisa	-7073
wokuphenduka	-7074
abangamashumi	-7075
abangaphandle	-7076
bayakufakelwa	-7077
bingelelanani	-7078
ekuhluphekeni	-7079
eziyingcosana	-7080
funyaniswanga	-7081
hlakazekileyo	-7082
izimfihlakalo	-7083
izinganekwane	-7084
kwabakholwayo	-7085
lokulungisela	-7086
nasezindaweni	-7087
nezimpumputhe	-7088
nezinhlanzana	-7089
ngesiphambeko	-7090
ngezinyembezi	-7091
ngiyakuncenga	-7092
ngokwahlulela	-7093
ngowesifazane	-7094
ningabantwana	-7095
niyakungifuna	-7096
nokwesithathu	-7097
sekuyiminyaka	-7098
singabantwana	-7099
ukulungisiswa	-7100
uzibonakalise	-7101
abaphendukanga	-7102
kwabalungileyo	-7103
nakubaprofethi	-7104
nesibonakaliso	-7105
ngilangazelela	-7106
njengokufanele	-7107
nokuthukuthela	-7108
owamkhaphelayo	-7109
sekuyisikhathi	-7110
sibuthakathaka	-7111
wayenamadodana	-7112
ababuthakathaka	-7113
abangakholwanga	-7114
esebhapathiziwe	-7115
isiphithiphithi	-7116
ngezibonakaliso	-7117
ngokuchachileyo	-7118
ngokukhuthazela	-7119
ngoqalekisiweyo	-7120
nangezimangaliso	-7121
njengokulotshiwe	-7122
4¦	-7123
5¦	-7124
6¦	-7125
:1	-7126
ed	-7127
mc	-7128
op	-7129
ut	-7130
3:2	-7131
6:2	-7132
dwe	-7133
elo	-7134
era	-7135
evi	-7136
fri	-7137
her	-7138
iko	-7139
inx	-7140
izo	-7141
klo	-7142
lgo	-7143
msu	-7144
nca	-7145
nku	-7146
osa	-7147
osu	-7148
ovu	-7149
oze	-7150
qum	-7151
rad	-7152
rde	-7153
rti	-7154
uwa	-7155
uyo	-7156
wag	-7157
xwa	-7158
▁!’	-7159
▁”;	-7160
abom	-7161
ango	-7162
aphu	-7163
ashe	-7164
athe	-7165
bafe	-7166
bana	-7167
baso	-7168
bawe	-7169
beme	-7170
bize	-7171
bowa	-7172
boza	-7173
cebe	-7174
cile	-7175
daba	-7176
dema	-7177
didi	-7178
duku	-7179
ekho	-7180
emqo	-7181
enom	-7182
etho	-7183
feta	-7184
fila	-7185
fino	-7186
fisi	-7187
fiya	-7188
gaxa	-7189
gera	-7190
gibe	-7191
giya	-7192
hile	-7193
hiya	-7194
ihla	-7195
ikhi	-7196
imbe	-7197
impi	-7198
indi	-7199
fage	-7200
foru	-7201
ingi	-7202
ingu	-7203
jere	-7204
jula	-7205
kabo	-7206
kenu	-7207
kewu	-7208
kina	-7209
kiyu	-7210
koma	-7211
kora	-7212
kwam	-7213
libi	-7214
lida	-7215
loza	-7216
ludo	-7217
luma	-7218
meva	-7219
miyo	-7220
nala	-7221
nivu	-7222
niwe	-7223
noko	-7224
nolu	-7225
nowo	-7226
nule	-7227
nusi	-7228
okho	-7229
oswe	-7230
othu	-7231
phat	-7232
pris	-7233
qali	-7234
qile	-7235
qina	-7236
qine	-7237
qiwe	-7238
romu	-7239
sabi	-7240
sani	-7241
sasa	-7242
sefa	-7243
sega	-7244
seme	-7245
semi	-7246
sene	-7247
tama	-7248
tomu	-7249
ukho	-7250
umne	-7251
umtu	-7252
uzwa	-7253
vala	-7254
vuki	-7255
vumo	-7256
vuni	-7257
walu	-7258
weqa	-7259
wili	-7260
wisa	-7261
yeki	-7262
yifa	-7263
yiso	-7264
yomi	-7265
yosu	-7266
zabu	-7267
zili	-7268
ziqa	-7269
zoro	-7270
zuma	-7271
▁¦5:	-7272
ababa	-7273
abaka	-7274
abamu	-7275
abawu	-7276
abazu	-7277
abeli	-7278
abese	-7279
abuke	-7280
abuse	-7281
abuye	-7282
afune	-7283
akaba	-7284
akana	-7285
akayi	-7286
akoni	-7287
akuse	-7288
akuyi	-7289
alaba	-7290
amazi	-7291
amina	-7292
anisi	-7293
aniwu	-7294
aniyi	-7295
arabi	-7296
areyo	-7297
asebe	-7298
asisa	-7299
9¦	-7300
alfa	-7301
alwe	-7302
fimu	-7303
nasa	-7304
abeke	-7305
avide	-7306
avuke	-7307
ayena	-7308
ayize	-7309
babem	-7310
bahle	-7311
balwa	-7312
bambu	-7313
banda	-7314
bedla	-7315
bekho	-7316
bhede	-7317
bumbi	-7318
cansi	-7319
chaza	-7320
dliyo	-7321
dluka	-7322
donsa	-7323
dunya	-7324
ebezi	-7325
efile	-7326
egama	-7327
ekade	-7328
ekuzi	-7329
elaba	-7330
elana	-7331
elona	-7332
emazi	-7333
embhe	-7334
enabo	-7335
enemi	-7336
enika	-7337
eniwu	-7338
enoke	-7339
eseba	-7340
eseli	-7341
esese	-7342
eseza	-7343
esezi	-7344
esika	-7345
esiza	-7346
evule	-7347
eweni	-7348
eyona	-7349
ezise	-7350
fakwa	-7351
fakwe	-7352
fanga	-7353
gaxwe	-7354
gcino	-7355
genca	-7356
golgo	-7357
gudlu	-7358
gwala	-7359
gwebu	-7360
hlazi	-7361
hleli	-7362
hleze	-7363
hlosa	-7364
hosha	-7365
ijoka	-7366
iliba	-7367
ilula	-7368
ivuma	-7369
iwela	-7370
iyali	-7371
izolo	-7372
jabha	-7373
jonge	-7374
justu	-7375
kheli	-7376
khiso	-7377
koste	-7378
kuhla	-7379
kunzi	-7380
kwafa	-7381
kweqa	-7382
linde	-7383
linge	-7384
lithe	-7385
lwaso	-7386
lwela	-7387
lweyo	-7388
lwezi	-7389
mahlu	-7390
makwa	-7391
manzi	-7392
mbono	-7393
mboza	-7394
mbulo	-7395
minzi	-7396
mithi	-7397
mopho	-7398
mpawu	-7399
minza	-7400
mpisi	-7401
musha	-7402
nakum	-7403
nceli	-7404
ncome	-7405
ndayo	-7406
nempi	-7407
nezwa	-7408
ngake	-7409
ngawa	-7410
ngaze	-7411
ngeza	-7412
ngibu	-7413
ngifa	-7414
ngulo	-7415
nipha	-7416
nisho	-7417
nkani	-7418
nkomo	-7419
nothi	-7420
nsika	-7421
ntiyu	-7422
ntoni	-7423
nwabu	-7424
nyisi	-7425
nyoka	-7426
obede	-7427
obulu	-7428
okade	-7429
okube	-7430
okubo	-7431
okusi	-7432
okuza	-7433
oluku	-7434
oluze	-7435
omega	-7436
omina	-7437
onawo	-7438
osefa	-7439
oseku	-7440
osuka	-7441
ovuma	-7442
owase	-7443
owawu	-7444
owaya	-7445
oyena	-7446
parad	-7447
phagu	-7448
phiki	-7449
phula	-7450
phule	-7451
pontu	-7452
prisi	-7453
rdesi	-7454
sangi	-7455
shuki	-7456
sidle	-7457
siphe	-7458
sitha	-7459
sodwa	-7460
solwa	-7461
thalo	-7462
thara	-7463
theri	-7464
thiba	-7465
thobi	-7466
tholi	-7467
triyu	-7468
ubiza	-7469
ubize	-7470
ububi	-7471
ucezu	-7472
udaka	-7473
ugeze	-7474
ukona	-7475
ukuli	-7476
ukuwa	-7477
umise	-7478
unabo	-7479
unami	-7480
unaye	-7481
usila	-7482
uveza	-7483
uyani	-7484
uyasi	-7485
uyebo	-7486
uzibo	-7487
uzuze	-7488
vunwa	-7489
wambu	-7490
wapha	-7491
wedwa	-7492
wezwi	-7493
yambu	-7494
yaphi	-7495
yinki	-7496
yithi	-7497
zihlo	-7498
zikla	-7499
zizwa	-7500
zodwa	-7501
▁¦6:2	-7502
abasho	-7503
abenzi	-7504
abezwa	-7505
abezwe	-7506
abizwe	-7507
aganwe	-7508
akunga	-7509
akwaba	-7510
akwabe	-7511
alahle	-7512
alukho	-7513
alutho	-7514
amakha	-7515
amathe	-7516
amazwe	-7517
amnika	-7518
angezi	-7519
aniphe	-7520
anjalo	-7521
arnaba	-7522
athile	-7523
athole	-7524
azenza	-7525
babayo	-7526
babeke	-7527
babela	-7528
babeli	-7529
babuya	-7530
bacebi	-7531
balala	-7532
balami	-7533
balowo	-7534
banaka	-7535
basuke	-7536
bavusa	-7537
bayede	-7538
befika	-7539
beleni	-7540
bereya	-7541
besabi	-7542
bevuma	-7543
bileyo	-7544
bizele	-7545
bokubi	-7546
boshwe	-7547
bowasi	-7548
bulewe	-7549
buyeni	-7550
buyile	-7551
chopho	-7552
dabule	-7553
dalayo	-7554
dedela	-7555
delele	-7556
didimu	-7557
ebutho	-7558
edlula	-7559
ekanye	-7560
ekhala	-7561
ekunge	-7562
elithi	-7563
embiza	-7564
empini	-7565
enakho	-7566
engaku	-7567
engawa	-7568
engiba	-7569
engili	-7570
enqaba	-7571
erastu	-7572
esezwa	-7573
esinge	-7574
eyangi	-7575
ezakhe	-7576
ezithe	-7577
faresi	-7578
febeni	-7579
fenike	-7580
fetali	-7581
fezile	-7582
gabisi	-7583
galiyu	-7584
genesa	-7585
gerasa	-7586
haqile	-7587
hlahla	-7588
hlambi	-7589
hlenga	-7590
hlunye	-7591
holayo	-7592
holela	-7593
hubele	-7594
ihlobo	-7595
ikhona	-7596
ilunga	-7597
imbiza	-7598
imbona	-7599
ingalo	-7600
inikwe	-7601
isango	-7602
ishumi	-7603
isitho	-7604
itheku	-7605
izinja	-7606
jabule	-7607
jezise	-7608
jeziso	-7609
kabana	-7610
kaliyo	-7611
kanisa	-7612
kayini	-7613
kayise	-7614
keleni	-7615
khethe	-7616
khokha	-7617
kosuku	-7618
kubeka	-7619
kubuye	-7620
kuloba	-7621
kunaku	-7622
kusaba	-7623
kusasa	-7624
kuvame	-7625
kuvuza	-7626
kuyaba	-7627
kuyeki	-7628
kuzele	-7629
kwanda	-7630
labase	-7631
lakeni	-7632
lalezo	-7633
lavela	-7634
laziyo	-7635
libala	-7636
lisana	-7637
lisele	-7638
lisise	-7639
lisiya	-7640
lomeme	-7641
lomusa	-7642
lufana	-7643
lulama	-7644
luvela	-7645
mababa	-7646
malusi	-7647
manase	-7648
matshe	-7649
mayela	-7650
mbopha	-7651
misile	-7652
miyalo	-7653
nababi	-7654
naboku	-7655
naboni	-7656
nakala	-7657
nakale	-7658
nakuma	-7659
nakuye	-7660
nalaba	-7661
nalesi	-7662
negugu	-7663
nelase	-7664
ngasho	-7665
ngehle	-7666
ngemvu	-7667
ngentu	-7668
ngipha	-7669
ngizwe	-7670
nikiwe	-7671
nimuke	-7672
ninabo	-7673
nineve	-7674
nisiza	-7675
niyeke	-7676
nomusi	-7677
nozayo	-7678
nzelwa	-7679
nzelwe	-7680
odlayo	-7681
okuthi	-7682
okwabo	-7683
olukwe	-7684
olungo	-7685
olungu	-7686
omkenu	-7687
ophika	-7688
oshiye	-7689
othela	-7690
owasho	-7691
owehla	-7692
owezwa	-7693
ozonda	-7694
ozwayo	-7695
phapha	-7696
phente	-7697
pherge	-7698
phonsi	-7699
priska	-7700
qoshwe	-7701
sakini	-7702
salati	-7703
samuke	-7704
sebazi	-7705
sebeli	-7706
sebezi	-7707
sekude	-7708
sekuya	-7709
selela	-7710
selibe	-7711
senize	-7712
sesilo	-7713
sifile	-7714
sindwa	-7715
siyala	-7716
susile	-7717
swanga	-7718
taladi	-7719
thinta	-7720
thukwa	-7721
ubambe	-7722
ubenga	-7723
uchoko	-7724
ufunga	-7725
umfuma	-7726
umhume	-7727
umkhwe	-7728
ungaka	-7729
ungaze	-7730
unjani	-7731
uphezu	-7732
uphiwe	-7733
ushilo	-7734
uyakum	-7735
uzakum	-7736
uzisho	-7737
vulela	-7738
vulile	-7739
wahlwi	-7740
walabo	-7741
wameva	-7742
wamhla	-7743
wamisa	-7744
wasiqa	-7745
wavela	-7746
wawusu	-7747
wayeyi	-7748
wendlu	-7749
yabika	-7750
yabuna	-7751
yabuye	-7752
yabuza	-7753
yalezo	-7754
yamila	-7755
yaqala	-7756
yavela	-7757
yavuka	-7758
yelula	-7759
yendlu	-7760
yezulu	-7761
yilona	-7762
yisono	-7763
zafika	-7764
zakewu	-7765
zalusa	-7766
zisise	-7767
zokuba	-7768
zomuzi	-7769
abadala	-7770
abanami	-7771
abanezi	-7772
abanini	-7773
abayeni	-7774
abendlu	-7775
abulawe	-7776
afanele	-7777
agcinwe	-7778
akariya	-7779
akholwa	-7780
akholwe	-7781
akusilo	-7782
akusiwo	-7783
akusiyo	-7784
alahlwe	-7785
amasiko	-7786
amukele	-7787
anikele	-7788
aninami	-7789
aninike	-7790
aniyiku	-7791
arabiya	-7792
asinika	-7793
athanda	-7794
athatha	-7795
athwale	-7796
awasoze	-7797
awufaka	-7798
awunaku	-7799
awusiwo	-7800
awusoze	-7801
awuyiku	-7802
ayakuba	-7803
ayiyiku	-7804
babedla	-7805
babekwa	-7806
babenga	-7807
babetha	-7808
babopha	-7809
badlula	-7810
bakhala	-7811
bakuzwe	-7812
balanda	-7813
bambeka	-7814
bamfuna	-7815
bamhile	-7816
bamuntu	-7817
bamvusa	-7818
banjalo	-7819
bapheni	-7820
baphile	-7821
baphuza	-7822
bemuzwa	-7823
bemvelo	-7824
beningi	-7825
bephika	-7826
beqamba	-7827
bernike	-7828
besadla	-7829
betfage	-7830
bethela	-7831
bokuthi	-7832
bombuso	-7833
bumpofu	-7834
buthane	-7835
buthela	-7836
cabangi	-7837
choboza	-7838
dlulela	-7839
donsela	-7840
ecebile	-7841
ekhipha	-7842
ekholwa	-7843
ekhonza	-7844
ekubeke	-7845
elidala	-7846
elingwa	-7847
enecala	-7848
engadli	-7849
enikela	-7850
enomoya	-7851
ephafra	-7852
eqinisa	-7853
esebeke	-7854
esefika	-7855
esefike	-7856
esenabo	-7857
esezaku	-7858
esikhwe	-7859
esiromu	-7860
esiyaku	-7861
esiyisi	-7862
esokufa	-7863
eziyizi	-7864
fihliwe	-7865
frigiya	-7866
gcinizi	-7867
gcobile	-7868
guqulwa	-7869
hlalele	-7870
hlomani	-7871
hlukana	-7872
igatsha	-7873
ikamelo	-7874
ikhihli	-7875
ilahlwe	-7876
imemeza	-7877
imeyoni	-7878
imibani	-7879
impepho	-7880
impethu	-7881
inhloko	-7882
iphunga	-7883
iseduze	-7884
itafula	-7885
ithanda	-7886
ivaliwe	-7887
izibulo	-7888
jabhise	-7889
kalutho	-7890
kangaki	-7891
kathule	-7892
khawuka	-7893
khawule	-7894
khukhum	-7895
khumula	-7896
kokwami	-7897
kubonwa	-7898
kudlula	-7899
kudlule	-7900
kufipha	-7901
kuhlale	-7902
kukuhle	-7903
kumbusi	-7904
kuyakum	-7905
kwababe	-7906
kwabemi	-7907
kwalabo	-7908
kwanele	-7909
kwasuka	-7910
kwavuka	-7911
kwegazi	-7912
lahlani	-7913
lahleka	-7914
lakhala	-7915
lamanje	-7916
landeli	-7917
laphuma	-7918
legumbi	-7919
lenkezo	-7920
lenzayo	-7921
leshumi	-7922
ligaxwe	-7923
likhala	-7924
likhona	-7925
lilodwa	-7926
lokudla	-7927
lwesilo	-7928
mafutha	-7929
makhosi	-7930
mathiya	-7931
mbulali	-7932
mbulela	-7933
mehlela	-7934
milethu	-7935
mthwalo	-7936
namakha	-7937
nandawo	-7938
nasinye	-7939
ncomayo	-7940
ndezeka	-7941
nembala	-7942
¦	-7943
▁	-7944
a	-7945
n	-7946
i	-7947
e	-7948
u	-7949
k	-7950
o	-7951
l	-7952
h	-7953
b	-7954
s	-7955
w	-7956
m	-7957
g	-7958
y	-7959
z	-7960
𐋇	-7961
t	-7962
,	-7963
d	-7964
p	-7965
.	-7966
f	-7967
j	-7968
r	-7969
:	-7970
;	-7971
“	-7972
q	-7973
c	-7974
v	-7975
”	-7976
-	-7977
?	-7978
x	-7979
𐊣	-7980
𐊼	-7981
‘	-7982
’	-7983
!	-7984
—	-7985
2	-7986
1	-7987
3	-7988
5	-7989
6	-7990
4	-7991
7	-7992
8	-7993
9	-7994
'	-7995
0	-7996
