<pad>	0
</s>	0
<unk>	0
▁¦	-0
▁a	-1
ch	-2
ai	-3
ea	-4
th	-5
in	-6
na	-7
ar	-8
▁d	-9
bh	-10
▁s	-11
ir	-12
mh	-13
an	-14
dh	-15
il	-16
is	-17
ío	-18
▁c	-19
▁l	-20
ta	-21
gu	-22
▁t	-23
▁f	-24
▁g	-25
gus	-26
id	-27
▁an	-28
gh	-29
air	-30
▁m	-31
la	-32
▁ch	-33
ra	-34
▁n	-35
on	-36
each	-37
▁agus	-38
▁𐋇	-39
▁ar	-40
▁i	-41
eo	-42
▁r	-43
éa	-44
ás	-45
ach	-46
co	-47
nn	-48
▁le	-49
ao	-50
▁bh	-51
the	-52
tá	-53
▁.	-54
iú	-55
▁,	-56
▁co	-57
▁na	-58
▁b	-59
ain	-60
le	-61
inn	-62
▁go	-63
ine	-64
ear	-65
ia	-66
eas	-67
ei	-68
lá	-69
áil	-70
or	-71
▁do	-72
tha	-73
te	-74
agus	-75
os	-76
ais	-77
19	-78
ean	-79
ín	-80
ig	-81
▁-	-82
▁p	-83
vid	-84
un	-85
it	-86
uair	-87
cht	-88
fh	-89
as	-90
ír	-91
im	-92
▁th	-93
▁ag	-94
aithe	-95
ile	-96
éad	-97
▁’	-98
eadh	-99
▁dh	-100
▁fh	-101
igh	-102
aigh	-103
▁h	-104
eag	-105
anna	-106
sa	-107
ro	-108
idir	-109
go	-110
íonn	-111
ithe	-112
adh	-113
20	-114
al	-115
eann	-116
aidh	-117
▁de	-118
io	-119
óg	-120
▁bhf	-121
aoine	-122
uil	-123
áin	-124
óir	-125
▁T	-126
vír	-127
do	-128
eile	-129
▁é	-130
▁covid	-131
íos	-132
▁nó	-133
-19	-134
áid	-135
láin	-136
oi	-137
ac	-138
abh	-139
eacht	-140
▁(	-141
ag	-142
ail	-143
aith	-144
íodh	-145
de	-146
áir	-147
▁in	-148
▁ó	-149
ian	-150
ion	-151
isc	-152
cha	-153
ad	-154
eal	-155
ur	-156
ic	-157
uir	-158
ann	-159
eamh	-160
re	-161
án	-162
ug	-163
▁seo	-164
ála	-165
▁C	-166
ús	-167
▁is	-168
éir	-169
íoch	-170
▁du	-171
▁1	-172
ith	-173
▁D	-174
éidir	-175
nach	-176
taí	-177
▁gh	-178
▁mar	-179
▁mh	-180
cov	-181
sc	-182
ial	-183
ástá	-184
víreas	-185
nó	-186
▁gc	-187
artha	-188
▁sh	-189
rú	-190
éana	-191
tar	-192
aoi	-193
▁tú	-194
áis	-195
▁chun	-196
▁lá	-197
▁A	-198
▁eile	-199
ró	-200
eith	-201
▁I	-202
▁sa	-203
éim	-204
tú	-205
▁M	-206
mp	-207
sh	-208
eidh	-209
▁bhfuil	-210
lú	-211
láinte	-212
ud	-213
tr	-214
aint	-215
ol	-216
ghaidh	-217
omh	-218
▁mb	-219
▁or	-220
uairisc	-221
eanna	-222
éin	-223
tach	-224
▁2	-225
éadf	-226
aid	-227
ár	-228
saín	-229
aí	-230
▁tá	-231
acsaín	-232
éan	-233
▁cás	-234
▁sé	-235
mar	-236
19¦	-237
covid	-238
vacsaín	-239
bhf	-240
▁atá	-241
oib	-242
aon	-243
fhabh	-244
taithe	-245
▁níos	-246
▁mó	-247
oinn	-248
eagmh	-249
ná	-250
aibh	-251
íon	-252
airt	-253
ios	-254
tear	-255
úsáid	-256
iún	-257
thar	-258
ars	-259
▁¦19¦	-260
▁aon	-261
se	-262
oir	-263
▁N	-264
▁tr	-265
▁dt	-266
ua	-267
▁B	-268
ca	-269
dú	-270
raí	-271
imh	-272
seo	-273
▁20	-274
▁ph	-275
iad	-276
eor	-277
▁comh	-278
uid	-279
teach	-280
éar	-281
ástáil	-282
▁Tá	-283
▁lea	-284
du	-285
arthaí	-286
íomh	-287
éanamh	-288
mach	-289
ill	-290
ibh	-291
▁féidir	-292
▁¦1	-293
▁ion	-294
eoir	-295
íocht	-296
ph	-297
▁¦2	-298
▁sc	-299
éadfadh	-300
thair	-301
aip	-302
▁daoine	-303
thu	-304
uairiscíodh	-305
▁io	-306
ásanna	-307
ís	-308
íor	-309
▁o	-310
éal	-311
gur	-312
ras	-313
er	-314
idh	-315
eola	-316
▁faoi	-317
▁leis	-318
▁duine	-319
▁sláinte	-320
iom	-321
ainn	-322
▁Is	-323
▁sin	-324
ialta	-325
▁á	-326
ní	-327
lach	-328
rian	-329
árta	-330
mb	-331
mó	-332
chun	-333
sú	-334
ógra	-335
▁vacsaín	-336
▁ná	-337
st	-338
gc	-339
eir	-340
ghl	-341
▁víreas	-342
ma	-343
reis	-344
pr	-345
eabh	-346
aist	-347
aghaidh	-348
▁tar	-349
nadh	-350
úir	-351
if	-352
▁S	-353
íne	-354
eall	-355
▁raibh	-356
da	-357
lea	-358
coil	-359
ip	-360
▁bás	-361
at	-362
bhfuil	-363
▁u	-364
aile	-365
▁cú	-366
comh	-367
nacht	-368
00	-369
eis	-370
pid	-371
aim	-372
éis	-373
áig	-374
radh	-375
▁air	-376
eachta	-377
int	-378
vir	-379
▁ionfhabh	-380
iúil	-381
eagmháil	-382
▁chomh	-383
us	-384
eart	-385
▁dó	-386
▁F	-387
ítear	-388
chur	-389
▁roinn	-390
▁4	-391
acht	-392
má	-393
▁má	-394
▁ort	-395
▁sars	-396
lí	-397
▁ach	-398
atá	-399
ob	-400
▁3	-401
onraí	-402
eachtaí	-403
daoine	-404
ón	-405
eidhm	-406
▁)	-407
▁ta	-408
aine	-409
▁bheith	-410
eáil	-411
ástála	-412
sé	-413
▁dhéanamh	-414
sin	-415
en	-416
iar	-417
▁úsáid	-418
níos	-419
dach	-420
eacha	-421
▁idir	-422
naí	-423
▁aghaidh	-424
▁rud	-425
ru	-426
eic	-427
▁amh	-428
▁Má	-429
reisin	-430
déim	-431
lán	-432
aindéim	-433
▁iad	-434
rach	-435
navir	-436
▁An	-437
▁éis	-438
cu	-439
olá	-440
víris	-441
san	-442
▁gach	-443
uig	-444
▁as	-445
▁gur	-446
dt	-447
fach	-448
chtúir	-449
eá	-450
▁féin	-451
ronavir	-452
inic	-453
▁im	-454
▁meas	-455
▁chóir	-456
nas	-457
▁¦20	-458
aoin	-459
anacht	-460
▁nach	-461
0¦	-462
aol	-463
osc	-464
▁st	-465
▁chur	-466
▁2020	-467
▁duit	-468
mha	-469
ib	-470
▁la	-471
alar	-472
▁ann	-473
ath	-474
▁/	-475
4¦	-476
▁ní	-477
▁bhí	-478
ór	-479
rom	-480
▁Ní	-481
mpla	-482
oradh	-483
▁comharthaí	-484
uas	-485
▁dhaoine	-486
íochta	-487
▁L	-488
▁roinnt	-489
▁cl	-490
▁siad	-491
oibr	-492
chú	-493
bhairt	-494
▁den	-495
cú	-496
amh	-497
ram	-498
▁5	-499
▁don	-500
▁ina	-501
mu	-502
cás	-503
ois	-504
nad	-505
aidir	-506
ionfhabh	-507
eaghl	-508
eaghlaigh	-509
féidir	-510
eabhra	-511
▁fr	-512
▁san	-513
▁orthu	-514
íortha	-515
aig	-516
áisiún	-517
▁ón	-518
áirítear	-519
ead	-520
acha	-521
inne	-522
faoi	-523
▁G	-524
▁w	-525
ard	-526
dáil	-527
earbh	-528
eoirí	-529
▁trí	-530
▁fhéadfadh	-531
níomh	-532
áiste	-533
bhí	-534
pa	-535
▁¦3	-536
▁líon	-537
▁thug	-538
oiblí	-539
éil	-540
aipeadh	-541
duine	-542
ronavirus	-543
lu	-544
ábh	-545
igean	-546
eagmhála	-547
ospid	-548
ugadh	-549
aire	-550
óis	-551
ho	-552
easta	-553
▁márta	-554
▁¦2¦	-555
arr	-556
innt	-557
oimh	-558
-2	-559
sín	-560
▁ráig	-561
▁tástáil	-562
5¦	-563
▁lena	-564
lo	-565
leis	-566
airle	-567
déan	-568
áide	-569
▁rios	-570
dó	-571
ait	-572
sláinte	-573
iúla	-574
lúdach	-575
▁roimh	-576
áisiúnta	-577
thú	-578
▁ath	-579
▁thar	-580
fr	-581
ós	-582
aitheamh	-583
chomh	-584
tu	-585
▁tha	-586
coileanna	-587
▁amach	-588
aineann	-589
achta	-590
ál	-591
eac	-592
eanáir	-593
illiún	-594
eachas	-595
áirithe	-596
aic	-597
oc	-598
ort	-599
iomláin	-600
▁freisin	-601
▁isteach	-602
éile	-603
práide	-604
▁dóibh	-605
earfach	-606
uireadh	-607
tí	-608
tas	-609
tóg	-610
gach	-611
náth	-612
▁neamh	-613
sars	-614
éid	-615
asc	-616
▁domh	-617
▁leat	-618
li	-619
alair	-620
▁fáil	-621
am	-622
ola	-623
▁”	-624
▁amháin	-625
óirí	-626
▁“	-627
rios	-628
▁nuair	-629
▁bun	-630
rianta	-631
tais	-632
▁mór	-633
arth	-634
eala	-635
▁lagh	-636
el	-637
raibh	-638
bás	-639
óisialta	-640
áit	-641
▁sp	-642
ba	-643
álacha	-644
▁gheall	-645
▁tástála	-646
▁ionfhabhtaithe	-647
óin	-648
▁chuig	-649
liú	-650
ífh	-651
táit	-652
uairt	-653
las	-654
orb	-655
faidh	-656
och	-657
▁sonraí	-658
nú	-659
▁bhíonn	-660
▁"	-661
fig	-662
▁gco	-663
▁:	-664
ina	-665
iúl	-666
ighis	-667
sp	-668
meas	-669
▁mí	-670
▁gan	-671
▁áit	-672
ampla	-673
▁leor	-674
▁Tuairiscíodh	-675
▁tinn	-676
fidh	-677
▁linn	-678
anda	-679
éanna	-680
han	-681
▁br	-682
lagh	-683
ló	-684
eimh	-685
ochtúir	-686
oll	-687
ithr	-688
eagra	-689
ura	-690
▁Mar	-691
▁nua	-692
▁fanacht	-693
earta	-694
8¦	-695
lé	-696
ógraíodh	-697
rud	-698
▁Ch	-699
▁mo	-700
súil	-701
bheith	-702
▁fháil	-703
éag	-704
cl	-705
▁iar	-706
▁lámha	-707
oifig	-708
dhéanamh	-709
mpar	-710
reán	-711
▁tír	-712
othar	-713
eán	-714
▁réir	-715
bhís	-716
▁acu	-717
▁chuid	-718
ub	-719
únadh	-720
gann	-721
1¦	-722
thaí	-723
muigh	-724
ospidéal	-725
imhe	-726
▁dul	-727
▁fud	-728
▁rial	-729
▁roimhe	-730
▁cásanna	-731
ionch	-732
▁measc	-733
▁maidir	-734
▁aontaithe	-735
oil	-736
íní	-737
ábháil	-738
tuairiscíodh	-739
▁dá	-740
chuir	-741
oscail	-742
▁2020,	-743
eog	-744
▁có	-745
íobh	-746
▁feabhra	-747
▁scaipeadh	-748
lean	-749
-19.	-750
▁dtí	-751
▁teaghlaigh	-752
féin	-753
7¦	-754
▁sao	-755
ialtas	-756
▁chás	-757
▁uair	-758
▁aghaidhe	-759
20¦	-760
ist	-761
uath	-762
eimhn	-763
6¦	-764
ne	-765
▁aip	-766
▁haghaidh	-767
chóir	-768
comharthaí	-769
um	-770
eol	-771
▁6	-772
earr	-773
▁ard	-774
▁chéad	-775
iúd	-776
ealt	-777
mhair	-778
íochaine	-779
líon	-780
▁Déan	-781
▁coronavirus	-782
3¦	-783
iabh	-784
orthaí	-785
▁ba	-786
▁sna	-787
nóis	-788
róit	-789
santa	-790
aigheann	-791
ífhógraíodh	-792
▁R	-793
▁lean	-794
▁víris	-795
rón	-796
racha	-797
raim	-798
far	-799
den	-800
nann	-801
aisteal	-802
íochtaí	-803
▁choinn	-804
▁tugadh	-805
▁¦2020¦	-806
duit	-807
róin	-808
ers	-809
▁leo	-810
ionchar	-811
▁eanáir	-812
don	-813
oin	-814
▁Ba	-815
▁bp	-816
▁chos	-817
▁rian	-818
asacht	-819
rá	-820
éanaí	-821
▁bhaile	-822
▁–	-823
iath	-824
uhan	-825
aintín	-826
▁hiomláin	-827
táil	-828
roinnt	-829
lár	-830
inneadh	-831
nuair	-832
ógair	-833
▁fógra	-834
dhaoine	-835
▁riospráide	-836
thug	-837
ce	-838
all	-839
liain	-840
áinig	-841
▁tsín	-842
▁tuairiscíodh	-843
br	-844
▁nd	-845
siad	-846
▁poiblí	-847
náisiúnta	-848
▁thabhairt	-849
dar	-850
aill	-851
éanann	-852
▁ng	-853
▁su	-854
có	-855
imp	-856
trí	-857
úil	-858
ige	-859
▁mbeadh	-860
ss	-861
▁bhfeidhm	-862
súla	-863
laíonn	-864
▁7	-865
▁aois	-866
▁hcov	-867
▁leith	-868
ite	-869
▁ain	-870
▁cur	-871
▁oibr	-872
▁maith	-873
2¦	-874
eolas	-875
orthu	-876
ún	-877
▁chor	-878
▁faoin	-879
lena	-880
róitéin	-881
).	-882
▁iom	-883
iachta	-884
fhéadfadh	-885
sco	-886
▁tu	-887
racht	-888
iabhras	-889
ogh	-890
▁Th	-891
▁agat	-892
▁%	-893
lac	-894
▁¦4¦	-895
neamh	-896
éagsúla	-897
sí	-898
▁9	-899
▁ei	-900
▁lu	-901
▁ós	-902
▁chú	-903
pidéim	-904
▁am	-905
▁déan	-906
aistil	-907
tástáil	-908
▁10	-909
▁Ag	-910
dála	-911
▁fad	-912
▁galar	-913
paí	-914
oibre	-915
íonna	-916
lan	-917
ráig	-918
▁chuir	-919
bhr	-920
osaigh	-921
fa	-922
éine	-923
bhísí	-924
lacha	-925
raíonn	-926
eachais	-927
▁pháiste	-928
ríomh	-929
▁8	-930
▁feadh	-931
▁mhéad	-932
▁leighis	-933
▁bhaineann	-934
nacha	-935
▁aib	-936
▁stáit	-937
isteach	-938
raintín	-939
dhío	-940
▁¦1¦	-941
imhse	-942
márta	-943
▁leanaí	-944
▁éigean	-945
ealtaine	-946
▁shampla	-947
to	-948
000	-949
namh	-950
daigh	-951
iomlán	-952
),	-953
9¦	-954
ainne	-955
eachtain	-956
aib	-957
▁Bh	-958
ibhéal	-959
▁gcásanna	-960
▁paindéim	-961
▁dhochtúir	-962
▁ionfhabhtú	-963
tó	-964
aois	-965
▁al	-966
ionn	-967
róinvíreas	-968
dr	-969
▁tíortha	-970
eist	-971
,000	-972
éigh	-973
▁eis	-974
▁cinn	-975
▁cúram	-976
▁staid	-977
▁othair	-978
éif	-979
iomp	-980
▁oir	-981
▁léir	-982
▁chaitheamh	-983
▁clúdach	-984
▁scoileanna	-985
ich	-986
iana	-987
amach	-988
eanta	-989
ianta	-990
-19,	-991
▁éif	-992
cr	-993
dóibh	-994
bun	-995
ims	-996
onn	-997
▁14	-998
▁éir	-999
▁seir	-1000
ealach	-1001
tuithe	-1002
oireann	-1003
▁srianta	-1004
earbhaithe	-1005
mór	-1006
▁gá	-1007
raith	-1008
▁cóir	-1009
▁teagmháil	-1010
aisc	-1011
íreach	-1012
achtach	-1013
aiseachtaí	-1014
isce	-1015
▁daon	-1016
▁síne	-1017
▁dearfach	-1018
▁Ná	-1019
aise	-1020
igiú	-1021
oirm	-1022
obail	-1023
▁ionad	-1024
mo	-1025
feadh	-1026
fanacht	-1027
freisin	-1028
▁chéile	-1029
scoileanna	-1030
domh	-1031
gnóis	-1032
gan	-1033
tír	-1034
▁4,	-1035
▁Ar	-1036
▁lé	-1037
▁rá	-1038
sonraí	-1039
▁iomlán	-1040
▁aibreán	-1041
eath	-1042
néis	-1043
▁dhá	-1044
chúis	-1045
mhithe	-1046
nachta	-1047
leat	-1048
scoil	-1049
fáil	-1050
tinn	-1051
uine	-1052
▁domhain	-1053
▁rialtas	-1054
ionfhabhtaithe	-1055
saí	-1056
éamh	-1057
iaidh	-1058
liana	-1059
oláth	-1060
amháin	-1061
níomha	-1062
aistigh	-1063
uairiscigh	-1064
▁fhr	-1065
▁siúd	-1066
og	-1067
▁'	-1068
teacht	-1069
tástála	-1070
dá	-1071
▁cu	-1072
linn	-1073
onta	-1074
▁mhí	-1075
ugtar	-1076
álach	-1077
aisnéis	-1078
▁toradh	-1079
óireacht	-1080
measc	-1081
▁for	-1082
▁who	-1083
▁mbeidh	-1084
▁Dífhógraíodh	-1085
obal	-1086
bhaile	-1087
orbairt	-1088
eitheamh	-1089
eastaíonn	-1090
me	-1091
mí	-1092
▁ra	-1093
bair	-1094
éit	-1095
rí	-1096
eana	-1097
aighde	-1098
daithe	-1099
gheall	-1100
op	-1101
chuig	-1102
▁sco	-1103
▁beag	-1104
bhíonn	-1105
▁ospidéal	-1106
▁sóisialta	-1107
ene	-1108
faí	-1109
eastal	-1110
íol	-1111
▁¦5	-1112
▁gla	-1113
▁las	-1114
▁déanaí	-1115
ionfhabhtú	-1116
su	-1117
▁¦4	-1118
tair	-1119
lacht	-1120
airíonna	-1121
tóga	-1122
oladh	-1123
oláir	-1124
eagairt	-1125
▁thástáil	-1126
artheagmhála	-1127
gco	-1128
▁¦5¦	-1129
ionad	-1130
▁cuairt	-1131
▁fhógair	-1132
iond	-1133
leor	-1134
▁19	-1135
▁dí	-1136
▁aer	-1137
▁Cuir	-1138
▁mura	-1139
▁frith	-1140
▁fuair	-1141
▁luath	-1142
coronavirus	-1143
obh	-1144
rial	-1145
réir	-1146
▁v	-1147
▁cr	-1148
áirt	-1149
▁ial	-1150
chuid	-1151
▁minic	-1152
itianta	-1153
sna	-1154
aithn	-1155
▁bu	-1156
mhór	-1157
▁cov	-1158
ghabh	-1159
▁bunús	-1160
▁thart	-1161
ing	-1162
iagnóis	-1163
rachtaí	-1164
fear	-1165
maidir	-1166
▁náisiúnta	-1167
rna	-1168
loig	-1169
covanna	-1170
én	-1171
eap	-1172
▁os	-1173
chos	-1174
aigin	-1175
▁srian	-1176
▁wuhan	-1177
▁cosúil	-1178
▁ghnáth	-1179
paindéim	-1180
▁milliún	-1181
▁chosaint	-1182
dhíonachta	-1183
iachtanach	-1184
nua	-1185
sao	-1186
▁¦3¦	-1187
aonrú	-1188
lín	-1189
anta	-1190
lámha	-1191
▁bhás	-1192
▁mbaol	-1193
▁teagmhála	-1194
ág	-1195
anais	-1196
preag	-1197
tharl	-1198
raothar	-1199
eolaíoch	-1200
oláireamh	-1201
iúr	-1202
óid	-1203
▁ís	-1204
úirt	-1205
▁bia	-1206
fháil	-1207
▁léinn	-1208
▁bearta	-1209
▁vacsaíní	-1210
ll	-1211
irt	-1212
leath	-1213
ubst	-1214
chtaí	-1215
▁aith	-1216
▁éagsúla	-1217
dul	-1218
táin	-1219
údar	-1220
cásanna	-1221
ireadh	-1222
▁háirithe	-1223
▁tionchar	-1224
▁comhairle	-1225
▁bhféadfadh	-1226
cs	-1227
acu	-1228
ara	-1229
tát	-1230
oghl	-1231
seir	-1232
othair	-1233
ubstaint	-1234
▁24	-1235
▁Bhí	-1236
iodáil	-1237
riosca	-1238
▁sábháil	-1239
aontaithe	-1240
▁lasmuigh	-1241
ge	-1242
óil	-1243
uartha	-1244
▁O	-1245
fud	-1246
▁11	-1247
chla	-1248
cuir	-1249
mura	-1250
rtha	-1251
éann	-1252
▁Níl	-1253
áistí	-1254
▁mers	-1255
roimhe	-1256
éigean	-1257
▁theas	-1258
scaipeadh	-1259
raothartach	-1260
luaiseachtaí	-1261
ng	-1262
om	-1263
▁ts	-1264
ocht	-1265
▁lae	-1266
▁oibre	-1267
feabhra	-1268
▁cheart	-1269
▁riosca	-1270
▁thoradh	-1271
bhar	-1272
uill	-1273
ógais	-1274
éimhse	-1275
iúltach	-1276
earsanta	-1277
bhachtach	-1278
▁ais	-1279
▁suas	-1280
tugadh	-1281
▁Beidh	-1282
▁céanna	-1283
▁láthair	-1284
▁fhaigheann	-1285
dtí	-1286
teaghlaigh	-1287
aif	-1288
ioc	-1289
aoil	-1290
rúpa	-1291
éanó	-1292
ineál	-1293
reise	-1294
achtar	-1295
▁obair	-1296
oláthar	-1297
▁laghdú	-1298
eachtach	-1299
▁choróin	-1300
▁fhéidir	-1301
▁ghalair	-1302
che	-1303
chor	-1304
chás	-1305
aghaidhe	-1306
oscailte	-1307
ang	-1308
ladh	-1309
lúth	-1310
▁oid	-1311
ailte	-1312
▁méad	-1313
áileog	-1314
▁Chuir	-1315
▁dúnadh	-1316
haghaidh	-1317
▁leibhéal	-1318
nd	-1319
leo	-1320
abhrú	-1321
ailiú	-1322
aradh	-1323
eatha	-1324
leith	-1325
oltar	-1326
ontae	-1327
iscint	-1328
uarthas	-1329
ospidéil	-1330
ost	-1331
▁15	-1332
▁De	-1333
▁Go	-1334
aisp	-1335
▁nós	-1336
▁éad	-1337
chéad	-1338
▁tinnis	-1339
▁¦6	-1340
fra	-1341
ong	-1342
osú	-1343
eáin	-1344
iúmó	-1345
▁chl	-1346
▁sio	-1347
▁géar	-1348
ealamh	-1349
raithe	-1350
▁gcuid	-1351
▁teacht	-1352
▁taistil	-1353
▁eipidéim	-1354
▁bealtaine	-1355
▁choinneáil	-1356
▁dr	-1357
▁lú	-1358
▁um	-1359
óras	-1360
▁eor	-1361
▁mac	-1362
choinn	-1363
▁laghad	-1364
▁príomh	-1365
▁casacht	-1366
▁cuireadh	-1367
mhíochaine	-1368
óga	-1369
iúint	-1370
ruinn	-1371
ríobh	-1372
íocha	-1373
ialacha	-1374
iúmóine	-1375
romchla	-1376
éireann	-1377
uilleadh	-1378
iv	-1379
▁e	-1380
▁lár	-1381
chéim	-1382
▁oifig	-1383
▁torthaí	-1384
léir	-1385
óstach	-1386
rán	-1387
▁ré	-1388
ugaí	-1389
macha	-1390
▁masc	-1391
▁ceann	-1392
eantair	-1393
lúdaigh	-1394
▁bliain	-1395
▁óstach	-1396
artheagmháil	-1397
▁dearbhaithe	-1398
who	-1399
▁rogh	-1400
▁átha	-1401
▁airde	-1402
▁bharr	-1403
oscailt	-1404
▁tarchur	-1405
eang	-1406
líne	-1407
éasc	-1408
úint	-1409
fógra	-1410
uithe	-1411
iomptó	-1412
éadfaí	-1413
eiceáil	-1414
ianaise	-1415
hiomláin	-1416
romchúis	-1417
aireachas	-1418
▁j	-1419
fad	-1420
▁¦9	-1421
▁fós	-1422
cháin	-1423
galar	-1424
▁2019	-1425
tarchur	-1426
aithfidh	-1427
riospráide	-1428
ifr	-1429
dc	-1430
▁P	-1431
for	-1432
▁23	-1433
eich	-1434
fadh	-1435
tsín	-1436
éasú	-1437
faoin	-1438
▁deac	-1439
▁imní	-1440
▁sain	-1441
scoile	-1442
▁othar	-1443
eachaint	-1444
eolaíocht	-1445
▁dochtúir	-1446
eolaíochta	-1447
▁éigeandála	-1448
cur	-1449
rath	-1450
saint	-1451
poiblí	-1452
cuireadh	-1453
thabhairt	-1454
stáit	-1455
▁Mura	-1456
▁cuir	-1457
▁mheas	-1458
▁sláin	-1459
▁seacht	-1460
ógas	-1461
ónaí	-1462
untas	-1463
mbeadh	-1464
ollaig	-1465
ithreach	-1466
ubstaintí	-1467
artheagmhálaí	-1468
ior	-1469
▁más	-1470
aíonn	-1471
▁ceal	-1472
▁eolas	-1473
▁cheann	-1474
bhfeidhm	-1475
fhr	-1476
álaithe	-1477
úr	-1478
▁;	-1479
pad	-1480
raz	-1481
▁12	-1482
aolú	-1483
eicn	-1484
mheá	-1485
eneca	-1486
maith	-1487
▁cosc	-1488
▁síos	-1489
▁teor	-1490
ruithe	-1491
impeall	-1492
▁cliath	-1493
▁iompar	-1494
razeneca	-1495
thástáil	-1496
▁rialtais	-1497
eagraíocht	-1498
▁coraintín	-1499
iste	-1500
umas	-1501
aer	-1502
oigh	-1503
▁tóg	-1504
mhéad	-1505
▁iarr	-1506
▁líne	-1507
▁scoil	-1508
▁iodáil	-1509
▁taisteal	-1510
▁meitheamh	-1511
▁¦8	-1512
aing	-1513
nama	-1514
bhíse	-1515
ataigin	-1516
oghlaim	-1517
áireamh	-1518
óireachta	-1519
▁13	-1520
agat	-1521
▁oll	-1522
beidh	-1523
▁clinic	-1524
▁fiabhras	-1525
00¦	-1526
róm	-1527
áirg	-1528
mhí	-1529
use	-1530
▁cé	-1531
▁¦7	-1532
▁ár	-1533
eagh	-1534
imid	-1535
roma	-1536
fraic	-1537
ibear	-1538
rúpaí	-1539
tráil	-1540
inntiú	-1541
mhainn	-1542
íochán	-1543
iondróm	-1544
▁Cuireadh	-1545
ionfhabhtuithe	-1546
ts	-1547
leighis	-1548
ae	-1549
nat	-1550
▁ac	-1551
▁ae	-1552
cóir	-1553
▁fss	-1554
cúram	-1555
▁fliú	-1556
▁meán	-1557
▁2020.	-1558
▁Nuair	-1559
▁leath	-1560
▁sampla	-1561
▁dáileog	-1562
▁gcoinne	-1563
▁ndaoine	-1564
▁laistigh	-1565
▁dteagmháil	-1566
cho	-1567
irí	-1568
ách	-1569
treo	-1570
éach	-1571
éacs	-1572
ardaí	-1573
eiric	-1574
fuair	-1575
iméad	-1576
ónaith	-1577
clúdach	-1578
inneach	-1579
omhanda	-1580
pháiste	-1581
aireacht	-1582
1,	-1583
gla	-1584
níl	-1585
tru	-1586
▁22	-1587
▁Co	-1588
▁ró	-1589
iarr	-1590
▁chu	-1591
bhair	-1592
▁leag	-1593
leanaí	-1594
▁cionn	-1595
▁rianú	-1596
bhaineann	-1597
til	-1598
cinn	-1599
ghal	-1600
shla	-1601
nan	-1602
▁to	-1603
▁cho	-1604
▁thu	-1605
▁¦00	-1606
iosta	-1607
mheas	-1608
róidh	-1609
tacha	-1610
▁cuid	-1611
ainist	-1612
eannta	-1613
eacnama	-1614
iochtaí	-1615
shampla	-1616
eachtais	-1617
eaghlach	-1618
▁dhiaidh	-1619
▁tháinig	-1620
▁bunaithe	-1621
▁chomharthaí	-1622
▁idirnáisiúnta	-1623
eil	-1624
roinn	-1625
staid	-1626
abhair	-1627
nithe	-1628
▁Léigh	-1629
▁chloig	-1630
▁cúraim	-1631
gcásanna	-1632
▁mhéadar	-1633
dhochtúir	-1634
▁iarracht	-1635
▁ainmhithe	-1636
riachtanach	-1637
ast	-1638
idí	-1639
oils	-1640
sáid	-1641
téar	-1642
airtí	-1643
arasc	-1644
shlat	-1645
thóir	-1646
ugann	-1647
eithre	-1648
ibhéil	-1649
mparáid	-1650
dochtúir	-1651
chaitheamh	-1652
ibearshlat	-1653
▁18	-1654
▁baint	-1655
▁chosc	-1656
srianta	-1657
tíortha	-1658
▁gníomh	-1659
▁áirithe	-1660
comhairle	-1661
teagmháil	-1662
▁oibrithe	-1663
bu	-1664
úl	-1665
▁).	-1666
laghd	-1667
▁¦000¦	-1668
dearfach	-1669
▁30	-1670
llmh	-1671
eocht	-1672
órais	-1673
▁thóg	-1674
aithnid	-1675
eiriceá	-1676
▁daonna	-1677
▁dhuine	-1678
▁galair	-1679
▁freastal	-1680
▁seirbhísí	-1681
mers	-1682
teas	-1683
dí	-1684
lis	-1685
son	-1686
▁16	-1687
daon	-1688
▁saor	-1689
▁tapa	-1690
▁coinn	-1691
▁ndéan	-1692
▁díreach	-1693
▁deireadh	-1694
gá	-1695
dhá	-1696
dia	-1697
fss	-1698
eadú	-1699
itic	-1700
mhar	-1701
níor	-1702
róis	-1703
thao	-1704
ionsc	-1705
lanna	-1706
línte	-1707
olann	-1708
thúil	-1709
uirth	-1710
únach	-1711
ialach	-1712
mheánach	-1713
eidhmeanna	-1714
▁Sc	-1715
▁200	-1716
▁Ach	-1717
▁fiú	-1718
▁céim	-1719
▁stát	-1720
▁tíre	-1721
▁réamh	-1722
▁bhaint	-1723
ríobháid	-1724
▁staidéar	-1725
▁chomhairle	-1726
aimh	-1727
chán	-1728
síne	-1729
mhail	-1730
laghdú	-1731
29	-1732
cé	-1733
iz	-1734
▁í	-1735
icí	-1736
ter	-1737
ásta	-1738
imhir	-1739
ochta	-1740
seach	-1741
▁cúis	-1742
ionraí	-1743
toradh	-1744
illeadh	-1745
lachtaí	-1746
rialtas	-1747
údaráis	-1748
▁dhearbh	-1749
▁thagann	-1750
▁básmhair	-1751
▁próitéin	-1752
▁áiteanna	-1753
▁coitianta	-1754
coróinvíreas	-1755
▁imdhíonachta	-1756
oid	-1757
sain	-1758
▁¦14¦	-1759
chéile	-1760
cuairt	-1761
aibreán	-1762
bhreith	-1763
30	-1764
ré	-1765
lag	-1766
scrú	-1767
▁Tar	-1768
isiún	-1769
luath	-1770
▁dara	-1771
▁¦10¦	-1772
naíonn	-1773
▁rialú	-1774
▁glaoch	-1775
▁bunúsacha	-1776
▁pearsanta	-1777
▁foláireamh	-1778
bia	-1779
más	-1780
sta	-1781
áip	-1782
éas	-1783
eara	-1784
itis	-1785
uses	-1786
uirthi	-1787
éidear	-1788
eimhnithe	-1789
iallaíonn	-1790
tasubstaintí	-1791
áth	-1792
▁2,	-1793
bhun	-1794
▁sca	-1795
▁fíne	-1796
▁méid	-1797
▁déine	-1798
▁fearr	-1799
▁scaip	-1800
domhain	-1801
▁bheidh	-1802
▁cabhrú	-1803
eipidéim	-1804
▁ialtóga	-1805
ie	-1806
ly	-1807
siúd	-1808
▁z	-1809
eim	-1810
ein	-1811
roí	-1812
úis	-1813
▁26	-1814
aite	-1815
igin	-1816
álta	-1817
▁thr	-1818
eicis	-1819
naigh	-1820
oirch	-1821
▁pian	-1822
aifead	-1823
duithe	-1824
dúrtha	-1825
▁chúis	-1826
iodáile	-1827
▁mbaile	-1828
itheoirí	-1829
▁mbásanna	-1830
natóireacht	-1831
ronaviruses	-1832
mbeidh	-1833
dífhógraíodh	-1834
▁fu	-1835
▁sí	-1836
reid	-1837
éirí	-1838
▁Ina	-1839
▁eas	-1840
▁rna	-1841
▁Faoi	-1842
▁fola	-1843
▁gcás	-1844
dúnadh	-1845
eachtú	-1846
pháirt	-1847
▁amhras	-1848
▁mhárta	-1849
▁saotharl	-1850
▁hairíonna	-1851
bp	-1852
ism	-1853
beag	-1854
máin	-1855
ailís	-1856
iorra	-1857
uaire	-1858
éanóm	-1859
aitéis	-1860
lacadh	-1861
áraigh	-1862
chúraim	-1863
eannach	-1864
aitheann	-1865
untasach	-1866
uairisciú	-1867
▁Ú	-1868
▁25	-1869
▁nú	-1870
ainm	-1871
hcov	-1872
▁Osc	-1873
▁dta	-1874
▁eag	-1875
▁ainm	-1876
▁aire	-1877
▁níor	-1878
▁uait	-1879
▁ansin	-1880
▁beidh	-1881
▁ceart	-1882
▁cheana	-1883
▁daonra	-1884
▁choinne	-1885
sóisialta	-1886
▁domhanda	-1887
▁víreasach	-1888
▁thuairiscigh	-1889
ab	-1890
rogh	-1891
coinn	-1892
cosúil	-1893
déanaí	-1894
dhúnadh	-1895
oibrithe	-1896
ire	-1897
▁),	-1898
lann	-1899
nách	-1900
▁éil	-1901
ealaí	-1902
eoidh	-1903
frith	-1904
inear	-1905
rasaí	-1906
▁arís	-1907
▁bhrí	-1908
▁sula	-1909
daíonn	-1910
oiléir	-1911
▁ndear	-1912
▁seach	-1913
casacht	-1914
tacháin	-1915
teachas	-1916
▁Amhail	-1917
▁leanbh	-1918
▁mbíonn	-1919
achtarán	-1920
eisialta	-1921
shiomptó	-1922
vacsaíní	-1923
inearálta	-1924
▁héireann	-1925
▁míochaine	-1926
níomhaíocht	-1927
▁sraothartach	-1928
▁ghluaiseachtaí	-1929
lin	-1930
chtú	-1931
úile	-1932
▁¦6¦	-1933
airde	-1934
srian	-1935
thart	-1936
amhail	-1937
caíocht	-1938
fhógair	-1939
leathan	-1940
0%	-1941
cal	-1942
▁1,	-1943
minic	-1944
▁Níor	-1945
▁eorp	-1946
príomh	-1947
▁gcuir	-1948
▁measa	-1949
▁Úsáid	-1950
tháinig	-1951
▁ionaid	-1952
▁pobail	-1953
▁cosanta	-1954
▁covanna	-1955
▁chásanna	-1956
▁bpaindéim	-1957
▁géarmhíochaine	-1958
▁ionfhabhtuithe	-1959
chu	-1960
ipe	-1961
pro	-1962
méad	-1963
ocrú	-1964
stit	-1965
ubei	-1966
bunús	-1967
tanas	-1968
ghnáth	-1969
chosaint	-1970
iúrthóir	-1971
3,	-1972
▁Ó	-1973
fen	-1974
▁17	-1975
labh	-1976
▁202	-1977
▁ama	-1978
▁ast	-1979
aiste	-1980
▁Lean	-1981
▁baol	-1982
▁mhór	-1983
▁teas	-1984
▁conas	-1985
eireadh	-1986
▁drugaí	-1987
▁sláint	-1988
▁treoir	-1989
▁nollaig	-1990
ainmhithe	-1991
▁dhéanann	-1992
▁láithreach	-1993
▁tábhachtach	-1994
di	-1995
dta	-1996
nós	-1997
tor	-1998
▁¦7¦	-1999
wuhan	-2000
athair	-2001
bearta	-2002
cg	-2003
orn	-2004
▁28	-2005
▁ua	-2006
aide	-2007
airí	-2008
irim	-2009
obac	-2010
áine	-2011
áise	-2012
▁bhr	-2013
▁eol	-2014
▁mho	-2015
aisle	-2016
iacht	-2017
ruthú	-2018
ónóis	-2019
▁aims	-2020
▁scag	-2021
▁súil	-2022
stitiú	-2023
▁cófra	-2024
▁dhéan	-2025
milliún	-2026
sábháil	-2027
teachta	-2028
eimhnigh	-2029
próitéin	-2030
tionchar	-2031
traitéis	-2032
éadfaidh	-2033
eartaithe	-2034
▁ospidéil	-2035
▁rianaire	-2036
iachtanais	-2037
▁sheachaint	-2038
eid	-2039
laí	-2040
bhás	-2041
ille	-2042
suas	-2043
mbaol	-2044
cheart	-2045
ormhór	-2046
teagmhála	-2047
▁k	-2048
ice	-2049
uin	-2050
▁sín	-2051
▁¦8¦	-2052
léinn	-2053
raoin	-2054
▁Agus	-2055
▁dtús	-2056
bhaint	-2057
▁chéim	-2058
▁gcéad	-2059
▁rinne	-2060
▁dtugtar	-2061
▁timpeall	-2062
▁eagraíocht	-2063
▁choróinvíris	-2064
▁‘	-2065
cgp	-2066
hon	-2067
ainc	-2068
ealú	-2069
eans	-2070
éasca	-2071
iteach	-2072
ghalair	-2073
íocháin	-2074
eisteanna	-2075
ismitheoirí	-2076
níomhaíochtaí	-2077
▁V	-2078
dún	-2079
hio	-2080
lae	-2081
tán	-2082
▁21	-2083
▁3,	-2084
▁fó	-2085
únta	-2086
▁con	-2087
▁dío	-2088
aíodh	-2089
obair	-2090
▁fios	-2091
▁againn	-2092
▁breise	-2093
▁gceart	-2094
▁siopad	-2095
háirithe	-2096
lasmuigh	-2097
áiteanna	-2098
▁niúmóine	-2099
bhféadfadh	-2100
fiú	-2101
tin	-2102
nigh	-2103
iompar	-2104
ionaid	-2105
shláinte	-2106
eat	-2107
fan	-2108
óca	-2109
▁Cé	-2110
▁Dh	-2111
▁dé	-2112
gadh	-2113
imeá	-2114
isic	-2115
izer	-2116
onad	-2117
íche	-2118
llach	-2119
theas	-2120
éadfá	-2121
▁aige	-2122
▁bhun	-2123
▁glan	-2124
▁stop	-2125
uashon	-2126
▁Coinn	-2127
▁Dúirt	-2128
▁córas	-2129
▁rudaí	-2130
tranais	-2131
▁láimhe	-2132
▁reatha	-2133
ealadach	-2134
eicheamh	-2135
▁comhair	-2136
▁áireamh	-2137
▁faisnéis	-2138
▁fhorbairt	-2139
▁sábháilte	-2140
sio	-2141
deac	-2142
géar	-2143
nanna	-2144
thoradh	-2145
▁In	-2146
▁di	-2147
asta	-2148
aimid	-2149
dúirt	-2150
▁cúig	-2151
▁dian	-2152
▁fada	-2153
▁nasc	-2154
céanna	-2155
▁athrú	-2156
▁bhéal	-2157
▁dlúth	-2158
▁dúnta	-2159
▁gcomh	-2160
▁gnáth	-2161
▁méadú	-2162
láthair	-2163
▁amhail	-2164
▁bliana	-2165
▁oiread	-2166
▁spreag	-2167
leibhéal	-2168
▁cosaint	-2169
▁chinntiú	-2170
▁diagnóis	-2171
▁diúltach	-2172
▁riochtaí	-2173
▁tréimhse	-2174
fhaigheann	-2175
▁dhomhanda	-2176
▁imeachtaí	-2177
▁oideachais	-2178
hn	-2179
ohn	-2180
ceann	-2181
thadh	-2182
▁¦20¦	-2183
chúram	-2184
lanadh	-2185
naithe	-2186
choróin	-2187
fhéidir	-2188
aispeáin	-2189
úsáideann	-2190
aireachais	-2191
cdc	-2192
allú	-2193
álaí	-2194
▁fol	-2195
cumar	-2196
▁díobh	-2197
▁maisc	-2198
▁scamh	-2199
▁shrón	-2200
▁taobh	-2201
taisteal	-2202
▁thugann	-2203
oifigeach	-2204
▁paindéime	-2205
▁seirbhíse	-2206
▁tromchúis	-2207
▁seachtaine	-2208
▁theastaíonn	-2209
▁vacsaínithe	-2210
▁éifeachtach	-2211
▁chibearshlat	-2212
fó	-2213
tinnis	-2214
coraintín	-2215
éifeachtach	-2216
▁$	-2217
mac	-2218
niú	-2219
rsa	-2220
fliú	-2221
imní	-2222
iúin	-2223
masc	-2224
ordú	-2225
óirt	-2226
▁ear	-2227
dhíon	-2228
fizer	-2229
gcuid	-2230
iocht	-2231
oirne	-2232
rnach	-2233
sláin	-2234
uisce	-2235
▁bith	-2236
▁fhad	-2237
▁lámh	-2238
bhaidh	-2239
lachta	-2240
laghad	-2241
naíodh	-2242
reacha	-2243
▁uisce	-2244
taistil	-2245
torthaí	-2246
▁aonair	-2247
▁leagan	-2248
▁soláth	-2249
▁¦2019¦	-2250
achtóirí	-2251
eachtadh	-2252
fiabhras	-2253
iocfaidh	-2254
raoiníní	-2255
▁eacnama	-2256
bealtaine	-2257
ruinnithe	-2258
▁cóireáil	-2259
▁dtíortha	-2260
▁oscailte	-2261
▁trealamh	-2262
choinneáil	-2263
éigeandála	-2264
▁phaindéim	-2265
▁sholáthar	-2266
▁tástálacha	-2267
▁astrazeneca	-2268
▁coróinvíreas	-2269
fí	-2270
ord	-2271
lais	-2272
pháir	-2273
taobh	-2274
seacht	-2275
díreach	-2276
allúnach	-2277
chl	-2278
▁50	-2279
▁il	-2280
▁me	-2281
▁tí	-2282
aird	-2283
leag	-2284
▁Más	-2285
▁gar	-2286
▁gnó	-2287
▁nár	-2288
▁pol	-2289
▁cath	-2290
eoladh	-2291
▁eisigh	-2292
▁gardaí	-2293
▁ialtóg	-2294
▁liosta	-2295
▁phobal	-2296
bunaithe	-2297
▁scaradh	-2298
▁seachas	-2299
▁Oscailte	-2300
▁hcovanna	-2301
▁staidéir	-2302
▁tabhairt	-2303
▁vacsaíniú	-2304
▁úsáideann	-2305
▁cliniciúla	-2306
maí	-2307
mra	-2308
dráit	-2309
oinse	-2310
bliain	-2311
mhainní	-2312
rollach	-2313
imhseáil	-2314
leananna	-2315
tréimhse	-2316
éideartha	-2317
dearbhaithe	-2318
ant	-2319
tic	-2320
eála	-2321
átha	-2322
▁dhí	-2323
▁vír	-2324
bharr	-2325
bíonn	-2326
roimh	-2327
▁ráta	-2328
sampla	-2329
éirinn	-2330
▁bhfad	-2331
▁bíonn	-2332
▁caith	-2333
▁dócha	-2334
▁taire	-2335
▁toisc	-2336
▁curtha	-2337
▁fionraí	-2338
▁samplaí	-2339
▁fhéadfaí	-2340
▁thosaigh	-2341
▁fhoireann	-2342
▁rianaithe	-2343
ku	-2344
ul	-2345
ama	-2346
fós	-2347
org	-2348
cuid	-2349
ráid	-2350
conas	-2351
▁¦15¦	-2352
cheann	-2353
iniciúil	-2354
laistigh	-2355
uaireanta	-2356
tábhachtach	-2357
eam	-2358
mbr	-2359
nal	-2360
nar	-2361
oic	-2362
thr	-2363
wab	-2364
úla	-2365
▁29	-2366
▁”.	-2367
▁100	-2368
▁Cén	-2369
▁cor	-2370
aisin	-2371
léigh	-2372
ágann	-2373
▁fhág	-2374
afraic	-2375
aibéit	-2376
▁deara	-2377
▁gcaoi	-2378
▁rátaí	-2379
déantar	-2380
speicis	-2381
▁gcónaí	-2382
▁suíomh	-2383
▁uirthi	-2384
eachtáil	-2385
romchlaí	-2386
▁taighde	-2387
▁thógáil	-2388
▁tinneas	-2389
aibéiteas	-2390
eimhníodh	-2391
▁teastáil	-2392
▁tógálach	-2393
aireachtaí	-2394
▁seachtain	-2395
chomharthaí	-2396
imdhíonachta	-2397
▁antasubstaintí	-2398
eách	-2399
abhróidh	-2400
thuairiscigh	-2401
.5	-2402
.30	-2403
▁27	-2404
▁31	-2405
▁nu	-2406
ceal	-2407
láir	-2408
tech	-2409
teor	-2410
▁inn	-2411
maoin	-2412
▁céad	-2413
▁difr	-2414
▁samh	-2415
▁tosú	-2416
gníomh	-2417
treoir	-2418
▁eitil	-2419
▁domhan	-2420
▁ghalar	-2421
▁éirinn	-2422
eirbhísí	-2423
▁Déantar	-2424
▁bhfaigh	-2425
▁hiodáile	-2426
▁nádúrtha	-2427
▁theannta	-2428
▁leanúnach	-2429
▁fhreagairt	-2430
▁coronaviruses	-2431
cm	-2432
uí	-2433
▁&	-2434
▁?	-2435
▁[	-2436
bla	-2437
feá	-2438
aige	-2439
alta	-2440
annú	-2441
cair	-2442
cosc	-2443
eirt	-2444
síos	-2445
uail	-2446
illiú	-2447
oghla	-2448
raigh	-2449
rutha	-2450
throm	-2451
thúla	-2452
éimsí	-2453
íomhá	-2454
cliath	-2455
rasaíl	-2456
ualadh	-2457
oirchis	-2458
eolaithe	-2459
rialtais	-2460
iachtanacha	-2461
eidhmeannacht	-2462
2,	-2463
▁U	-2464
ghlu	-2465
meán	-2466
▁the	-2467
▁¦9¦	-2468
scaip	-2469
▁muid	-2470
▁slán	-2471
▁srón	-2472
▁tríd	-2473
▁ísle	-2474
fhógra	-2475
▁Bíonn	-2476
▁anois	-2477
▁dúirt	-2478
▁eacht	-2479
▁fhios	-2480
▁freag	-2481
▁stair	-2482
▁teach	-2483
▁éigin	-2484
dáileog	-2485
▁iaráin	-2486
▁Tháinig	-2487
▁tosaigh	-2488
imeachtaí	-2489
meitheamh	-2490
seirbhísí	-2491
▁beagnach	-2492
▁leibhéil	-2493
▁tuiscint	-2494
▁shóisialta	-2495
▁choróinvíreas	-2496
▁gartheagmhálaí	-2497
glan	-2498
sula	-2499
tosú	-2500
chosc	-2501
dhéan	-2502
rianú	-2503
scrúdú	-2504
hiodráit	-2505
ití	-2506
nel	-2507
oth	-2508
uga	-2509
únú	-2510
▁Mh	-2511
▁ca	-2512
ailí	-2513
aims	-2514
ichí	-2515
istí	-2516
lóid	-2517
tíre	-2518
éite	-2519
▁Fan	-2520
▁iúl	-2521
▁oil	-2522
▁tag	-2523
iforn	-2524
lúine	-2525
éithe	-2526
▁Léir	-2527
▁ithe	-2528
▁modh	-2529
▁riar	-2530
▁téar	-2531
igiúin	-2532
▁anseo	-2533
▁anála	-2534
▁ráige	-2535
▁íseal	-2536
eálacha	-2537
ialanna	-2538
laíocht	-2539
oiseach	-2540
thaosta	-2541
▁cinnte	-2542
▁leithr	-2543
▁oiriún	-2544
▁théann	-2545
arascáil	-2546
orbartha	-2547
áirgeadh	-2548
íollacha	-2549
▁bhailiú	-2550
▁ceithre	-2551
▁hiomlán	-2552
ineálacha	-2553
▁iarraidh	-2554
▁siondróm	-2555
▁tharchur	-2556
eoireachta	-2557
▁suntasach	-2558
▁speisialta	-2559
idirnáisiúnta	-2560
▁saotharlainne	-2561
▁básmhaireachta	-2562
18	-2563
ofa	-2564
▁¦13¦	-2565
gcoinne	-2566
imsíonn	-2567
ndaoine	-2568
dteagmháil	-2569
7,	-2570
21¦	-2571
ins	-2572
cúis	-2573
thóg	-2574
áinn	-2575
▁ant	-2576
▁níl	-2577
baint	-2578
caith	-2579
cionn	-2580
réamh	-2581
ábhar	-2582
▁Thug	-2583
▁mbás	-2584
achtaí	-2585
chumas	-2586
▁Fuair	-2587
▁fásta	-2588
ochtain	-2589
▁cúnamh	-2590
▁gceist	-2591
leachtaí	-2592
éarchéim	-2593
▁anailís	-2594
▁chineál	-2595
▁fíneáil	-2596
▁rinneadh	-2597
▁teorainn	-2598
bhreithniú	-2599
▁anaithnid	-2600
▁caitheamh	-2601
▁dhearfach	-2602
▁deimhnithe	-2603
▁idirmheánach	-2604
▁monatóireacht	-2605
▁neamhshiomptó	-2606
si	-2607
eál	-2608
gaí	-2609
órt	-2610
céim	-2611
eict	-2612
eoit	-2613
fhad	-2614
laim	-2615
osca	-2616
phen	-2617
ruth	-2618
róta	-2619
éard	-2620
asamh	-2621
níodh	-2622
oirth	-2623
ollag	-2624
reabh	-2625
rinne	-2626
ánach	-2627
éasúr	-2628
▁¦11¦	-2629
eapáin	-2630
eánann	-2631
igheas	-2632
lasáil	-2633
ohnson	-2634
dhearbh	-2635
dhiaidh	-2636
imisiún	-2637
iontech	-2638
laghdán	-2639
oghlama	-2640
ránaigh	-2641
aoileadh	-2642
eobhaidh	-2643
ghabháil	-2644
raitheann	-2645
éiniteach	-2646
ónóiseach	-2647
úinteoirí	-2648
1.	-2649
ga	-2650
rt	-2651
▁0	-2652
cén	-2653
ive	-2654
ána	-2655
▁dú	-2656
▁beo	-2657
▁brú	-2658
▁cdc	-2659
▁chr	-2660
▁dlí	-2661
▁rsc	-2662
▁tús	-2663
ansin	-2664
▁Comh	-2665
▁iomp	-2666
▁móra	-2667
▁núic	-2668
▁páip	-2669
chloig	-2670
cúraim	-2671
onrach	-2672
▁anuas	-2673
▁dhaon	-2674
▁gnách	-2675
▁hubei	-2676
▁tobac	-2677
mhéadar	-2678
▁déanta	-2679
▁uimhir	-2680
anntanas	-2681
iarracht	-2682
rinneadh	-2683
saotharl	-2684
staidéar	-2685
▁básanna	-2686
▁eorpach	-2687
▁Coinnigh	-2688
▁shláinte	-2689
▁tuairisc	-2690
▁chuireann	-2691
▁dheireadh	-2692
▁faireachas	-2693
▁riachtanach	-2694
%)	-2695
ana	-2696
caí	-2697
nár	-2698
airg	-2699
onch	-2700
stát	-2701
fheidhm	-2702
básmhair	-2703
niúmóine	-2704
cp	-2705
ash	-2706
ict	-2707
▁ío	-2708
▁”,	-2709
ango	-2710
cúnú	-2711
eamó	-2712
iail	-2713
éabh	-2714
▁Tóg	-2715
▁éin	-2716
imist	-2717
lisiú	-2718
reáin	-2719
scéal	-2720
▁Chun	-2721
▁cead	-2722
▁dtos	-2723
▁páir	-2724
▁siar	-2725
▁tríú	-2726
▁¦30¦	-2727
aicéit	-2728
daonna	-2729
dhuine	-2730
galair	-2731
tephen	-2732
eabhair	-2733
earmáin	-2734
iatháin	-2735
róiseas	-2736
▁afraic	-2737
▁chóiré	-2738
▁dearbh	-2739
▁eoraip	-2740
▁géanóm	-2741
▁leanas	-2742
▁ligean	-2743
▁mhaolú	-2744
▁nochta	-2745
▁rialta	-2746
▁ríocht	-2747
▁éadrom	-2748
deireadh	-2749
freastal	-2750
lódaithe	-2751
éabhlóid	-2752
▁nóiméad	-2753
aifeadadh	-2754
aithníodh	-2755
ialacháin	-2756
▁Rinneadh	-2757
▁clúdaigh	-2758
▁sháraigh	-2759
foláireamh	-2760
▁straitéis	-2761
▁tuilleadh	-2762
ataigineach	-2763
▁éigeantach	-2764
fe	-2765
irg	-2766
úin	-2767
fíor	-2768
osta	-2769
tapa	-2770
déine	-2771
áilte	-2772
glaoch	-2773
igiúirí	-2774
scaradh	-2775
seachas	-2776
thástála	-2777
,8	-2778
."	-2779
13	-2780
nl	-2781
eip	-2782
hku	-2783
par	-2784
▁Dá	-2785
▁Le	-2786
▁gu	-2787
iars	-2788
▁chó	-2789
▁tor	-2790
▁Meas	-2791
▁aice	-2792
▁chon	-2793
▁dáta	-2794
▁sine	-2795
▁siúl	-2796
▁¦16¦	-2797
▁¦24¦	-2798
▁baile	-2799
▁chorp	-2800
▁teicn	-2801
▁theor	-2802
▁ullmh	-2803
ghníomh	-2804
▁cógais	-2805
▁feidhm	-2806
▁tharla	-2807
▁tionsc	-2808
▁aithint	-2809
▁cónaith	-2810
▁phoiblí	-2811
▁údaráis	-2812
víreasach	-2813
▁ollscoil	-2814
▁vacsaíne	-2815
chomhairle	-2816
▁altranais	-2817
▁chóireáil	-2818
▁ndearnadh	-2819
▁rialuithe	-2820
▁éifeachtú	-2821
astrazeneca	-2822
▁athoscailt	-2823
▁chomhartha	-2824
▁tseachtain	-2825
▁dhearbhaigh	-2826
▁riachtanais	-2827
pp	-2828
ve	-2829
and	-2830
olg	-2831
ton	-2832
ual	-2833
álú	-2834
aipe	-2835
roch	-2836
roid	-2837
scag	-2838
thír	-2839
áidí	-2840
chail	-2841
derna	-2842
eamól	-2843
igiún	-2844
leách	-2845
nelly	-2846
athlas	-2847
icheál	-2848
ileáin	-2849
néithe	-2850
raíodh	-2851
ónaidh	-2852
angolin	-2853
eithimh	-2854
thagann	-2855
coitianta	-2856
aicéiteamól	-2857
ghluaiseachtaí	-2858
.2	-2859
.4	-2860
so	-2861
tús	-2862
▁Sa	-2863
▁fo	-2864
▁¦0	-2865
-229	-2866
dara	-2867
pian	-2868
samh	-2869
▁Gla	-2870
▁cal	-2871
▁par	-2872
athrú	-2873
rialú	-2874
▁Nigh	-2875
▁clár	-2876
▁croí	-2877
▁mair	-2878
▁rcgp	-2879
amhras	-2880
spreag	-2881
▁aonrú	-2882
▁brath	-2883
▁faide	-2884
▁ngach	-2885
▁tirim	-2886
▁áfach	-2887
▁critic	-2888
▁húsáid	-2889
aitheadh	-2890
iniciúla	-2891
tógálach	-2892
▁dhúnadh	-2893
▁fómhair	-2894
▁áitiúil	-2895
▁áitiúla	-2896
bunúsacha	-2897
pearsanta	-2898
trialacha	-2899
▁léiríonn	-2900
▁buinneach	-2901
▁oideachas	-2902
▁tacaíocht	-2903
▁forleathan	-2904
sraothartach	-2905
▁deacrachtaí	-2906
▁gartheagmháil	-2907
bo	-2908
nu	-2909
ace	-2910
ata	-2911
osa	-2912
pcr	-2913
íce	-2914
fíne	-2915
iamh	-2916
méid	-2917
ráta	-2918
uimh	-2919
fearr	-2920
taigh	-2921
thábh	-2922
▁¦12¦	-2923
bheidh	-2924
cabhrú	-2925
cosaint	-2926
ialtóga	-2927
liachta	-2928
leibhéil	-2929
ardriosca	-2930
vacsaínithe	-2931
8,	-2932
▁E	-2933
log	-2934
mho	-2935
ump	-2936
▁re	-2937
▁ur	-2938
alla	-2939
eora	-2940
fóin	-2941
iúna	-2942
olog	-2943
rúil	-2944
triú	-2945
ceart	-2946
roich	-2947
rudaí	-2948
thach	-2949
tharn	-2950
▁bain	-2951
▁díot	-2952
▁fóin	-2953
▁tais	-2954
▁teir	-2955
abhadh	-2956
chtúra	-2957
eannas	-2958
mbaile	-2959
orbair	-2960
ramach	-2961
éadfar	-2962
▁Caith	-2963
▁Conas	-2964
▁foirm	-2965
oblacht	-2966
riosadh	-2967
áineadh	-2968
▁díghal	-2969
▁siopaí	-2970
aibheath	-2971
imistéar	-2972
laghdáin	-2973
mbásanna	-2974
oláthair	-2975
uashonrú	-2976
▁billiún	-2977
▁eisíodh	-2978
▁fhrainc	-2979
▁folláin	-2980
dochtúirí	-2981
sholáthar	-2982
▁fianaise	-2983
▁figiúirí	-2984
▁filleadh	-2985
▁fuarthas	-2986
▁leanúint	-2987
▁meiriceá	-2988
▁mhilliún	-2989
▁teoranta	-2990
▁sealadach	-2991
▁seicheamh	-2992
▁beartaithe	-2993
▁ginearálta	-2994
aibheathaigh	-2995
eabhairshláinte	-2996
dé	-2997
ik	-2998
anc	-2999
gar	-3000
óra	-3001
aice	-3002
fola	-3003
gcás	-3004
éire	-3005
ínigh	-3006
▁¦23¦	-3007
déanta	-3008
iseadh	-3009
mhárta	-3010
pobail	-3011
áileadh	-3012
chásanna	-3013
faisnéis	-3014
trealamh	-3015
hairíonna	-3016
víreasacha	-3017
43	-3018
be	-3019
dán	-3020
iam	-3021
ise	-3022
▁ea	-3023
▁te	-3024
aobh	-3025
arís	-3026
uait	-3027
▁cad	-3028
▁cén	-3029
▁lán	-3030
▁mic	-3031
▁¦19	-3032
▁deir	-3033
▁fear	-3034
▁fhor	-3035
▁mhic	-3036
▁tiom	-3037
cheana	-3038
daonra	-3039
uimhir	-3040
▁agóid	-3041
▁nocht	-3042
▁oibrí	-3043
▁uathu	-3044
comhair	-3045
▁Tugann	-3046
▁chóras	-3047
▁coinne	-3048
▁contae	-3049
▁úsáide	-3050
coinnigh	-3051
domhanda	-3052
seirbhís	-3053
▁abhaile	-3054
▁hothair	-3055
▁níochán	-3056
▁shonraí	-3057
▁éileamh	-3058
athruithe	-3059
chuireann	-3060
▁dhearbhú	-3061
▁institiú	-3062
▁leanacht	-3063
▁tarchuir	-3064
▁éineacht	-3065
▁aitheanta	-3066
▁freagairt	-3067
▁gallúnach	-3068
▁príobháid	-3069
▁ráigeanna	-3070
▁faireachais	-3071
▁treoirlínte	-3072
rs	-3073
ól	-3074
lon	-3075
lte	-3076
ltú	-3077
tle	-3078
úsh	-3079
bhrí	-3080
eoin	-3081
iall	-3082
mair	-3083
nasc	-3084
róif	-3085
thas	-3086
ugat	-3087
íniú	-3088
asach	-3089
danna	-3090
earna	-3091
iarmh	-3092
toisc	-3093
tábla	-3094
tóirí	-3095
óthar	-3096
angóil	-3097
daíodh	-3098
eangal	-3099
leanbh	-3100
láimhe	-3101
mbíonn	-3102
soláth	-3103
asamhlú	-3104
iocfadh	-3105
caíochta	-3106
eánoirth	-3107
héireann	-3108
ónaidhme	-3109
aisinéirí	-3110
eolaíocha	-3111
míochaine	-3112
ógaslanna	-3113
stiúrthóir	-3114
eagmhálaithe	-3115
5,	-3116
iní	-3117
lar	-3118
pla	-3119
tag	-3120
▁cá	-3121
▁en	-3122
▁gr	-3123
▁se	-3124
abhd	-3125
eorp	-3126
stop	-3127
▁bru	-3128
▁soc	-3129
▁trá	-3130
▁óna	-3131
gcuir	-3132
measa	-3133
méadú	-3134
naimh	-3135
théar	-3136
▁báis	-3137
▁labh	-3138
▁luan	-3139
▁shao	-3140
▁treo	-3141
drugaí	-3142
oibriú	-3143
▁aisce	-3144
▁cónaí	-3145
▁fisic	-3146
▁rogha	-3147
aithint	-3148
choinne	-3149
cosanta	-3150
▁amuigh	-3151
▁foirne	-3152
▁giorra	-3153
▁huaire	-3154
▁mhéadú	-3155
▁shocrú	-3156
▁spóirt	-3157
▁thaobh	-3158
▁theach	-3159
diagnóis	-3160
diúltach	-3161
thosaigh	-3162
▁Vacsaín	-3163
▁chéanna	-3164
▁freagra	-3165
▁náisiún	-3166
▁pháistí	-3167
▁soiléir	-3168
▁éiríonn	-3169
bpaindéim	-3170
▁bhealach	-3171
▁chathair	-3172
▁ghlanadh	-3173
▁leathadh	-3174
▁rochtain	-3175
▁scaipthe	-3176
▁sheoladh	-3177
▁próitéiní	-3178
▁uaireanta	-3179
▁Dheimhnigh	-3180
▁féideartha	-3181
▁sláintiúil	-3182
▁frithdhúnadh	-3183
géarmhíochaine	-3184
.,	-3185
50	-3186
60	-3187
fá	-3188
con	-3189
cor	-3190
dla	-3191
mic	-3192
bain	-3193
baol	-3194
tion	-3195
chlár	-3196
gnáth	-3197
iripe	-3198
olait	-3199
thain	-3200
▁¦50¦	-3201
sláint	-3202
▁¦100¦	-3203
léirigh	-3204
mholadh	-3205
nollaig	-3206
cóireáil	-3207
dhéanann	-3208
éifeacht	-3209
fhoireann	-3210
láithreach	-3211
63	-3212
cy	-3213
▁Á	-3214
-2.	-3215
liu	-3216
lta	-3217
lío	-3218
olo	-3219
tra	-3220
une	-3221
▁60	-3222
▁Gh	-3223
▁pr	-3224
chaí	-3225
earc	-3226
intí	-3227
itim	-3228
onna	-3229
▁201	-3230
▁dír	-3231
▁fan	-3232
▁mná	-3233
▁mol	-3234
▁phe	-3235
bhéal	-3236
chadh	-3237
cófra	-3238
easmh	-3239
ianfh	-3240
iméir	-3241
india	-3242
laigh	-3243
oinsí	-3244
taofa	-3245
teist	-3246
▁bhia	-3247
▁coth	-3248
▁fáth	-3249
▁póca	-3250
▁rith	-3251
▁séir	-3252
▁¦18¦	-3253
arnach	-3254
aítear	-3255
ghleac	-3256
iarsúr	-3257
illeag	-3258
tachán	-3259
theach	-3260
▁fhliú	-3261
▁moill	-3262
▁trump	-3263
eachtas	-3264
eartais	-3265
iaráine	-3266
ifornia	-3267
iniúint	-3268
oilsigh	-3269
rótacal	-3270
sealach	-3271
éalainn	-3272
▁chúram	-3273
▁pfizer	-3274
▁scoile	-3275
▁teocht	-3276
ainistiú	-3277
eachaigh	-3278
rianaire	-3279
▁Léirigh	-3280
▁bhfuair	-3281
▁luaithe	-3282
▁léirigh	-3283
▁mbliana	-3284
▁scamhóg	-3285
aireachta	-3286
▁chlúdach	-3287
▁dhéantar	-3288
▁foghlaim	-3289
sheachaint	-3290
teistiméir	-3291
▁bhrollach	-3292
ghleacaithe	-3293
▁láimhseáil	-3294
▁stiúrthóir	-3295
▁éifeachtaí	-3296
ghníomhaíocht	-3297
▁básmhaireacht	-3298
cam	-3299
dío	-3300
cúig	-3301
dtús	-3302
abhar	-3303
aonad	-3304
córas	-3305
gcéad	-3306
eisigh	-3307
dtugtar	-3308
éileamh	-3309
hcovanna	-3310
timpeall	-3311
dhomhanda	-3312
oifigiúil	-3313
sábháilte	-3314
aispeánann	-3315
oideachais	-3316
choróinvíris	-3317
.8	-3318
66	-3319
94	-3320
agh	-3321
cas	-3322
ind	-3323
man	-3324
sat	-3325
▁Do	-3326
▁Na	-3327
▁só	-3328
agra	-3329
chum	-3330
east	-3331
fios	-3332
inte	-3333
lian	-3334
▁lee	-3335
▁pro	-3336
▁uil	-3337
dúnta	-3338
taire	-3339
ullmh	-3340
▁asat	-3341
▁mall	-3342
▁rúis	-3343
againn	-3344
breise	-3345
chúrsa	-3346
eáchan	-3347
gceart	-3348
ineach	-3349
siopad	-3350
▁caill	-3351
▁eagla	-3352
▁foils	-3353
▁grúpa	-3354
▁iomar	-3355
▁meáin	-3356
▁seans	-3357
▁téigh	-3358
▁íomhá	-3359
▁eolais	-3360
▁láithr	-3361
▁¦2021¦	-3362
▁óstáin	-3363
▁bualadh	-3364
▁déanamh	-3365
▁glaoigh	-3366
▁thuaidh	-3367
▁uachtar	-3368
▁dromchla	-3369
▁labhairt	-3370
▁scornach	-3371
▁thíortha	-3372
tarchurtha	-3373
▁thaisteal	-3374
▁trialacha	-3375
▁Ciallaíonn	-3376
▁bhfoireann	-3377
▁fíneálacha	-3378
▁laghdaithe	-3379
▁scothaosta	-3380
▁suíomhanna	-3381
▁víreasacha	-3382
thábhachtach	-3383
▁sábháilteachta	-3384
▁siopadóireachta	-3385
".	-3386
..	-3387
95	-3388
bú	-3389
fu	-3390
tt	-3391
ws	-3392
▁€	-3393
ans	-3394
cad	-3395
cól	-3396
eto	-3397
árú	-3398
adhb	-3399
dars	-3400
dian	-3401
oist	-3402
tála	-3403
éata	-3404
éilí	-3405
adadh	-3406
balta	-3407
dlúth	-3408
eitil	-3409
itíde	-3410
lithe	-3411
lueto	-3412
lóidh	-3413
maisc	-3414
ology	-3415
raing	-3416
roigh	-3417
íseal	-3418
eantar	-3419
eiceas	-3420
iúnach	-3421
laíodh	-3422
leagan	-3423
olainn	-3424
ostóir	-3425
reatha	-3426
taíonn	-3427
thacht	-3428
thanta	-3429
éadrom	-3430
afraice	-3431
aintíní	-3432
bhairne	-3433
ealtair	-3434
glaoigh	-3435
léitíde	-3436
osaíonn	-3437
tinneas	-3438
truchtú	-3439
úrscéal	-3440
fuarthas	-3441
laíochta	-3442
luetooth	-3443
ostaithe	-3444
teachais	-3445
abhraíonn	-3446
aispeáint	-3447
anaithnid	-3448
chaileach	-3449
darsnacht	-3450
eachtanna	-3451
fhorbairt	-3452
phaindéim	-3453
athoscailt	-3454
hiodráitiú	-3455
iarrachtaí	-3456
éifeachtaí	-3457
artheagmhálaithe	-3458
9,	-3459
ps	-3460
bhu	-3461
chr	-3462
chó	-3463
▁(3	-3464
▁40	-3465
▁mu	-3466
▁ne	-3467
▁so	-3468
fada	-3469
mhol	-3470
raid	-3471
saor	-3472
▁4,9	-3473
▁ail	-3474
▁uas	-3475
▁¦30	-3476
▁íos	-3477
▁óga	-3478
rátaí	-3479
scamh	-3480
▁Bain	-3481
▁ardú	-3482
▁arna	-3483
▁fhón	-3484
▁swab	-3485
▁tacú	-3486
▁¦26¦	-3487
bliana	-3488
ialtóg	-3489
liosta	-3490
oiread	-3491
phobal	-3492
úsáide	-3493
▁easpa	-3494
▁ionas	-3495
▁mórán	-3496
▁plean	-3497
▁tarlú	-3498
▁téacs	-3499
eachain	-3500
pháirtí	-3501
taighde	-3502
▁chumas	-3503
▁ghrúpa	-3504
▁nollag	-3505
▁saoire	-3506
chinntiú	-3507
riochtaí	-3508
▁Déanann	-3509
▁Glaoigh	-3510
▁Tabhair	-3511
▁johnson	-3512
▁phobail	-3513
▁Cuireann	-3514
▁amhrasta	-3515
▁ceantair	-3516
▁imeachta	-3517
▁ndéantar	-3518
▁shrianta	-3519
▁tseapáin	-3520
iarmhairtí	-3521
▁taiscumar	-3522
▁taoiseach	-3523
▁cleachtais	-3524
▁cliniciúil	-3525
▁gcomparáid	-3526
▁zónóiseach	-3527
▁éigeandáil	-3528
▁diaibéiteas	-3529
▁dianchúraim	-3530
▁Thuairiscigh	-3531
▁sábháilteacht	-3532
▁tromchúiseacha	-3533
53	-3534
es	-3535
fol	-3536
íse	-3537
ligh	-3538
srón	-3539
tigh	-3540
anois	-3541
caigh	-3542
díobh	-3543
shrón	-3544
curtha	-3545
iseach	-3546
itheach	-3547
thugann	-3548
clúdaigh	-3549
bhunaithe	-3550
paindéime	-3551
próitéiní	-3552
rianaithe	-3553
seirbhíse	-3554
tromchúis	-3555
tuilleadh	-3556
úsáidtear	-3557
seachtaine	-3558
tástálacha	-3559
cheisteanna	-3560
theastaíonn	-3561
chibearshlat	-3562
uairiscítear	-3563
.7	-3564
4,	-3565
iu	-3566
-2,	-3567
ibé	-3568
pac	-3569
soc	-3570
▁Su	-3571
▁ro	-3572
-19)	-3573
aidr	-3574
bith	-3575
chta	-3576
eoil	-3577
iche	-3578
insí	-3579
ithn	-3580
lámh	-3581
néas	-3582
oirg	-3583
ragh	-3584
ramh	-3585
túil	-3586
ylog	-3587
áint	-3588
▁4,8	-3589
▁Ath	-3590
▁ana	-3591
▁dar	-3592
▁fón	-3593
▁lig	-3594
▁mbr	-3595
achán	-3596
anann	-3597
bhadh	-3598
gcomh	-3599
icíse	-3600
leach	-3601
leata	-3602
liuch	-3603
macht	-3604
ogadh	-3605
oghlu	-3606
oibrí	-3607
rsála	-3608
▁ball	-3609
▁muin	-3610
▁scrú	-3611
▁thír	-3612
▁trom	-3613
▁¦17¦	-3614
▁¦22¦	-3615
▁¦28¦	-3616
aonair	-3617
eabhas	-3618
eanach	-3619
eideal	-3620
eirthe	-3621
enetic	-3622
lacann	-3623
oiriún	-3624
unesco	-3625
▁2021,	-3626
▁Chomh	-3627
▁aonad	-3628
▁béite	-3629
▁dhíon	-3630
▁gcéim	-3631
▁india	-3632
▁núíos	-3633
▁slabh	-3634
▁veict	-3635
▁éasca	-3636
achtóir	-3637
eabhrac	-3638
imeádta	-3639
íneacha	-3640
▁Moltar	-3641
▁bpobal	-3642
▁cruinn	-3643
▁gcóras	-3644
▁láidir	-3645
▁martin	-3646
▁páistí	-3647
▁spáinn	-3648
aisceart	-3649
aiseacht	-3650
dtíortha	-3651
eabhrach	-3652
institiú	-3653
maoinigh	-3654
oirmeasc	-3655
róitéine	-3656
siondróm	-3657
téarmach	-3658
▁bhliain	-3659
▁buailte	-3660
▁chruthú	-3661
▁chórais	-3662
▁deacair	-3663
▁dtagann	-3664
▁fhágann	-3665
▁fhéadfá	-3666
▁ndearna	-3667
▁phríomh	-3668
▁sholáth	-3669
▁stephen	-3670
▁stopadh	-3671
▁éadroma	-3672
bharfaidh	-3673
eachtacht	-3674
eadúlacht	-3675
igiúnacha	-3676
seachtain	-3677
▁aimsíodh	-3678
▁coinnigh	-3679
▁cóireála	-3680
▁domhnach	-3681
▁fhreagra	-3682
▁leathair	-3683
▁leigheas	-3684
▁réigiúin	-3685
▁toirchis	-3686
eánoirthir	-3687
ghabhálach	-3688
ylogenetic	-3689
▁Féadfaidh	-3690
▁análaithe	-3691
▁athruithe	-3692
▁dochtúirí	-3693
▁fachtóirí	-3694
▁gceantair	-3695
▁ghearmáin	-3696
▁plódaithe	-3697
▁teaghlach	-3698
▁iarrachtaí	-3699
▁leithlisiú	-3700
▁rialacháin	-3701
▁tharlaíonn	-3702
▁theaghlach	-3703
▁víreolaíoch	-3704
▁coinníollacha	-3705
▁ngluaiseachtaí	-3706
▁siopadóireacht	-3707
ent	-3708
gnó	-3709
lúb	-3710
éig	-3711
deir	-3712
ions	-3713
mall	-3714
▁¦200	-3715
▁¦27¦	-3716
gardaí	-3717
ghalar	-3718
ghalrú	-3719
chineál	-3720
imeacht	-3721
samplaí	-3722
staidéir	-3723
tabhairt	-3724
aitheanta	-3725
oideachas	-3726
vacsaíniú	-3727
éifeachtú	-3728
cliniciúla	-3729
fhreagairt	-3730
eagraíochtaí	-3731
%.	-3732
10	-3733
25	-3734
6,	-3735
dhí	-3736
▁37	-3737
▁Sh	-3738
bail	-3739
itir	-3740
riar	-3741
▁dtu	-3742
▁lin	-3743
▁tur	-3744
bhfad	-3745
dócha	-3746
iúirí	-3747
ndéan	-3748
stair	-3749
▁Iarr	-3750
▁Lagh	-3751
▁airg	-3752
▁fíor	-3753
▁ghnó	-3754
▁mhar	-3755
▁mhol	-3756
▁rang	-3757
agairt	-3758
cinnte	-3759
ghrúpa	-3760
nochta	-3761
thaobh	-3762
tharla	-3763
▁Faigh	-3764
▁análú	-3765
▁beirt	-3766
▁bhain	-3767
▁bhonn	-3768
▁chead	-3769
▁naíon	-3770
fionraí	-3771
áitiúil	-3772
▁Molann	-3773
▁Tugtar	-3774
▁breith	-3775
▁earraí	-3776
▁haoine	-3777
▁istigh	-3778
▁réimsí	-3779
fhéadfaí	-3780
oibríonn	-3781
▁chuairt	-3782
▁clainne	-3783
▁margadh	-3784
▁mholtar	-3785
▁micheál	-3786
▁moderna	-3787
▁donnelly	-3788
▁forbairt	-3789
▁braoiníní	-3790
▁ganntanas	-3791
▁phróitéin	-3792
▁sciatháin	-3793
▁theorannú	-3794
▁uachtarán	-3795
▁cineálacha	-3796
▁cruinnithe	-3797
▁eacnamaíoch	-3798
▁riachtanacha	-3799
▁tuismitheoirí	-3800
▁paraicéiteamól	-3801
14	-3802
ct	-3803
ed	-3804
43¦	-3805
ibe	-3806
iol	-3807
phe	-3808
rar	-3809
rop	-3810
róg	-3811
tok	-3812
ódh	-3813
eafó	-3814
elsi	-3815
fhág	-3816
fort	-3817
ilip	-3818
lála	-3819
mpor	-3820
neas	-3821
roim	-3822
éara	-3823
éise	-3824
óidh	-3825
óige	-3826
chúil	-3827
deara	-3828
eolaí	-3829
freag	-3830
gcaoi	-3831
imeád	-3832
maois	-3833
neach	-3834
ointe	-3835
agrafa	-3836
aiméar	-3837
chóras	-3838
cógais	-3839
deoirí	-3840
domhan	-3841
eabhsú	-3842
earraí	-3843
elsius	-3844
faimid	-3845
gcónaí	-3846
imheas	-3847
iníoch	-3848
iotóga	-3849
olohan	-3850
rasóil	-3851
ránach	-3852
seoidh	-3853
suíomh	-3854
thóirí	-3855
tokine	-3856
éadann	-3857
éitigh	-3858
aithigh	-3859
anailís	-3860
astráil	-3861
earradh	-3862
eathrar	-3863
eilleag	-3864
eimhniú	-3865
isiúnta	-3866
iteacha	-3867
ithníní	-3868
ltúrtha	-3869
phríomh	-3870
reabhán	-3871
scríobh	-3872
thógáil	-3873
áisiúin	-3874
aisteach	-3875
aitheach	-3876
aoiseamh	-3877
arascála	-3878
mpordach	-3879
oircheas	-3880
onchitis	-3881
teastáil	-3882
abheirthe	-3883
aidineach	-3884
andamacha	-3885
chuirtear	-3886
eachtacha	-3887
eoiteacht	-3888
raitheach	-3889
ruthaíonn	-3890
aidisiúnta	-3891
aiméaráise	-3892
theagmháil	-3893
ghabhálacha	-3894
ónaitheoirí	-3895
antasubstaintí	-3896
teistiméireachta	-3897
.3	-3898
27	-3899
brú	-3900
der	-3901
ymp	-3902
▁48	-3903
▁Br	-3904
▁ir	-3905
▁rt	-3906
▁ól	-3907
céad	-3908
difr	-3909
earn	-3910
nasa	-3911
phar	-3912
tríd	-3913
▁Cad	-3914
▁Ion	-3915
▁ace	-3916
▁bhu	-3917
▁cam	-3918
▁hom	-3919
▁pcr	-3920
anseo	-3921
faigh	-3922
theor	-3923
tithe	-3924
téigh	-3925
▁Glan	-3926
▁bhrú	-3927
▁coró	-3928
▁fadú	-3929
▁gair	-3930
▁infh	-3931
▁long	-3932
▁mbun	-3933
▁mrna	-3934
▁raon	-3935
▁shin	-3936
▁thit	-3937
▁tuir	-3938
▁¦25¦	-3939
▁éirí	-3940
cúnamh	-3941
íneach	-3942
▁2019,	-3943
▁Ionad	-3944
▁Rinne	-3945
▁ailse	-3946
▁bheag	-3947
▁fuinn	-3948
▁linbh	-3949
▁ríomh	-3950
▁ábhar	-3951
amáiste	-3952
bhfaigh	-3953
shonraí	-3954
▁Tabhar	-3955
▁bailiú	-3956
▁cocúnú	-3957
▁dtithe	-3958
▁ghéanó	-3959
▁grúpaí	-3960
▁moladh	-3961
▁scoite	-3962
▁shúile	-3963
hiodáile	-3964
léiríonn	-3965
nádúrtha	-3966
theannta	-3967
tuiscint	-3968
▁bealach	-3969
▁imeacht	-3970
▁iompair	-3971
▁neamhsh	-3972
▁nósanna	-3973
▁oiriúnú	-3974
▁ordaigh	-3975
▁réigiún	-3976
▁satharn	-3977
▁sonrach	-3978
leanúnach	-3979
▁Seachain	-3980
▁bhrasaíl	-3981
▁dochtúra	-3982
▁fhorbair	-3983
▁ghlacadh	-3984
▁laethúla	-3985
▁leithris	-3986
▁ndéanann	-3987
▁slaghdán	-3988
▁éabhlóid	-3989
chomhartha	-3990
eathnaíodh	-3991
▁chinneadh	-3992
▁limistéar	-3993
▁méadaithe	-3994
▁nuashonrú	-3995
▁scriosadh	-3996
▁soláthair	-3997
dhearbhaigh	-3998
riachtanais	-3999
treoirlínte	-4000
▁freagartha	-4001
▁sheirbhísí	-4002
▁straitéisí	-4003
▁chliniciúil	-4004
coronaviruses	-4005
▁gcoróinvíreas	-4006
▁ollscoileanna	-4007
▁teicneolaíocht	-4008
48	-4009
ck	-4010
fo	-4011
he	-4012
íd	-4013
dlí	-4014
ghná	-4015
lána	-4016
muid	-4017
núic	-4018
páir	-4019
rcgp	-4020
slán	-4021
ísle	-4022
▁¦0¦	-4023
atáin	-4024
bheag	-4025
dhaon	-4026
fhios	-4027
taisp	-4028
éigin	-4029
dearbh	-4030
feidhm	-4031
iaráin	-4032
príobh	-4033
spleách	-4034
tosaigh	-4035
beagnach	-4036
ghlanadh	-4037
sháraigh	-4038
tuairisc	-4039
príobháid	-4040
athlastach	-4041
pháirteach	-4042
shóisialta	-4043
uimhreacha	-4044
choróinvíreas	-4045
gartheagmhálaí	-4046
.1	-4047
0,	-4048
37	-4049
bc	-4050
ha	-4051
aiw	-4052
ane	-4053
arc	-4054
com	-4055
ide	-4056
lam	-4057
lao	-4058
mas	-4059
nta	-4060
▁".	-4061
▁38	-4062
atrú	-4063
aígh	-4064
chon	-4065
idhm	-4066
láil	-4067
modh	-4068
oirp	-4069
oith	-4070
raon	-4071
sear	-4072
séir	-4073
tríú	-4074
íola	-4075
▁Bun	-4076
▁Sna	-4077
▁aig	-4078
▁clo	-4079
▁cos	-4080
▁deo	-4081
▁gcl	-4082
▁imp	-4083
▁ról	-4084
▁shu	-4085
▁tré	-4086
▁¦24	-4087
aislí	-4088
aiwan	-4089
anála	-4090
asana	-4091
baile	-4092
chead	-4093
dlata	-4094
ealla	-4095
eimic	-4096
eithe	-4097
eogra	-4098
eoite	-4099
iltír	-4100
itíní	-4101
laidh	-4102
loiní	-4103
láine	-4104
próif	-4105
ráige	-4106
trála	-4107
▁bhfr	-4108
▁chlé	-4109
▁cive	-4110
▁cáis	-4111
▁gurb	-4112
▁iúil	-4113
▁nigh	-4114
▁rann	-4115
▁teag	-4116
▁tábh	-4117
▁¦31¦	-4118
▁éard	-4119
▁óige	-4120
aigine	-4121
aiginí	-4122
amanna	-4123
eanada	-4124
eartas	-4125
giorra	-4126
inneas	-4127
leithr	-4128
mbrane	-4129
náithe	-4130
oicind	-4131
pfizer	-4132
rialta	-4133
teocht	-4134
théann	-4135
uairim	-4136
uidéil	-4137
áiteas	-4138
éanach	-4139
óilíní	-4140
▁aidhm	-4141
▁chill	-4142
▁coisc	-4143
▁cothú	-4144
▁fadhb	-4145
▁faigh	-4146
▁fheic	-4147
▁féach	-4148
▁gasta	-4149
▁mílte	-4150
▁sheol	-4151
airíonn	-4152
bhailiú	-4153
ceithre	-4154
eafóibe	-4155
eantais	-4156
hiomlán	-4157
illithe	-4158
iondíol	-4159
ivíreas	-4160
teritis	-4161
truacha	-4162
éileáil	-4163
▁Maidir	-4164
▁chugat	-4165
▁chuige	-4166
▁coróin	-4167
▁córais	-4168
▁éadach	-4169
aolaithe	-4170
cuireann	-4171
iarraidh	-4172
liantúil	-4173
romlaigh	-4174
teorainn	-4175
tharchur	-4176
▁Fanacht	-4177
▁Meastar	-4178
▁astráil	-4179
▁déantar	-4180
▁eitiltí	-4181
▁fhágáil	-4182
▁glacadh	-4183
▁imdhíon	-4184
▁marfach	-4185
▁scagadh	-4186
aighdeáin	-4187
eografach	-4188
iagnóisiú	-4189
maoiseach	-4190
oirgneamh	-4191
straitéis	-4192
suntasach	-4193
théarmach	-4194
▁Fuarthas	-4195
▁biontech	-4196
▁bunúsach	-4197
▁dáileoga	-4198
▁iontráil	-4199
▁mbealach	-4200
▁oifigigh	-4201
▁pangolin	-4202
▁shábháil	-4203
▁torracha	-4204
oghluaiste	-4205
speisialta	-4206
éigeantach	-4207
▁Déanfaidh	-4208
▁comparáid	-4209
▁céimeanna	-4210
▁deacracht	-4211
▁forbartha	-4212
▁rialaithe	-4213
ainistíocht	-4214
▁bhfaighidh	-4215
▁chaitheann	-4216
▁gcaithfidh	-4217
▁dearbhaíodh	-4218
▁meastacháin	-4219
▁soláthairtí	-4220
▁thuairisciú	-4221
monatóireacht	-4222
neamhshiomptó	-4223
saotharlainne	-4224
básmhaireachta	-4225
▁athbhreithniú	-4226
▁tromchúiseach	-4227
▁gníomhaíochtaí	-4228
▁ngartheagmháil	-4229
47	-4230
só	-4231
afa	-4232
amp	-4233
gas	-4234
lig	-4235
lua	-4236
ria	-4237
tiú	-4238
trá	-4239
arcl	-4240
cead	-4241
mbás	-4242
siúl	-4243
foirm	-4244
fásta	-4245
hubei	-4246
rocht	-4247
áirgí	-4248
▁¦29¦	-4249
gceist	-4250
molann	-4251
moltar	-4252
triail	-4253
fíneáil	-4254
thracha	-4255
ollscoil	-4256
rochtain	-4257
seachain	-4258
caitheamh	-4259
dhearfach	-4260
deimhnithe	-4261
scaoileadh	-4262
áinliachta	-4263
deacrachtaí	-4264
idirmheánach	-4265
riachtanacha	-4266
36	-4267
57	-4268
68	-4269
ti	-4270
íl	-4271
beo	-4272
ony	-4273
rsc	-4274
▁70	-4275
▁Cu	-4276
▁Cú	-4277
▁Im	-4278
▁fe	-4279
▁lo	-4280
▁pa	-4281
clár	-4282
móra	-4283
páip	-4284
▁ios	-4285
▁¦10	-4286
▁éig	-4287
anuas	-4288
chorp	-4289
gnách	-4290
scair	-4291
tobac	-4292
▁Nach	-4293
▁Rogh	-4294
▁alfa	-4295
▁béal	-4296
▁cloí	-4297
▁cumh	-4298
▁dhún	-4299
▁dífh	-4300
▁earn	-4301
▁gcon	-4302
▁gcur	-4303
▁ghla	-4304
▁glas	-4305
▁tair	-4306
▁teil	-4307
▁tusa	-4308
▁uile	-4309
▁¦21¦	-4310
▁¦229	-4311
▁éire	-4312
▁údar	-4313
aigéad	-4314
dhealú	-4315
eagair	-4316
ionann	-4317
siopaí	-4318
tugann	-4319
uirlis	-4320
▁Roinn	-4321
▁atosú	-4322
▁bhfón	-4323
▁cille	-4324
▁druga	-4325
▁gearr	-4326
▁núicl	-4327
▁pháir	-4328
▁siúil	-4329
▁spíce	-4330
▁thuas	-4331
acáiste	-4332
aistriú	-4333
básanna	-4334
déanann	-4335
eorpach	-4336
▁Dúnadh	-4337
▁cealla	-4338
▁chealú	-4339
▁cineál	-4340
▁críoch	-4341
▁eiseam	-4342
▁matáin	-4343
▁minice	-4344
▁riocht	-4345
▁scaoil	-4346
▁séasúr	-4347
bhealach	-4348
fianaise	-4349
iticiúil	-4350
▁100,000	-4351
▁chógais	-4352
▁dtosach	-4353
▁gcontae	-4354
▁leathnú	-4355
▁mhaithe	-4356
▁páipéar	-4357
▁páipéir	-4358
▁samhain	-4359
▁siomptó	-4360
dheireadh	-4361
uachtarán	-4362
▁aibreáin	-4363
▁cinneadh	-4364
▁cúramach	-4365
▁damáiste	-4366
▁fhormhór	-4367
▁hiaráine	-4368
▁modhanna	-4369
▁níocháin	-4370
▁scamhóga	-4371
dheimhnigh	-4372
faireachas	-4373
▁Cleachtaí	-4374
▁acmhainní	-4375
▁cathracha	-4376
▁cónaidhme	-4377
▁fhoilsigh	-4378
▁gníomhach	-4379
▁leithreas	-4380
▁roinneann	-4381
▁spreagadh	-4382
▁Deimhníodh	-4383
▁ainsealach	-4384
▁braitheadh	-4385
▁california	-4386
▁criticiúla	-4387
▁meánscoile	-4388
▁ndeachaigh	-4389
▁phríobháid	-4390
▁scrúduithe	-4391
▁tháirgeadh	-4392
▁tuarascáil	-4393
▁Taispeánann	-4394
▁hionfhabhtú	-4395
gartheagmháil	-4396
phataigineach	-4397
▁maireachtáil	-4398
▁éifeachtúlacht	-4399
▁hionfhabhtuithe	-4400
ii	-4401
ov	-4402
po	-4403
▁+	-4404
clú	-4405
cos	-4406
das	-4407
gov	-4408
les	-4409
yng	-4410
▁%)	-4411
adta	-4412
aomh	-4413
ctha	-4414
dáta	-4415
geap	-4416
ipir	-4417
iúsc	-4418
lárú	-4419
mraí	-4420
nass	-4421
nóir	-4422
ovir	-4423
páil	-4424
púla	-4425
rann	-4426
ráin	-4427
róir	-4428
siar	-4429
trus	-4430
íofa	-4431
íosa	-4432
aithí	-4433
astro	-4434
bhrón	-4435
eartú	-4436
eataí	-4437
eolch	-4438
eorpa	-4439
gaidh	-4440
lasma	-4441
lonnú	-4442
léasc	-4443
ndear	-4444
rofen	-4445
teicn	-4446
tleán	-4447
tádas	-4448
uaigh	-4449
ádach	-4450
éascú	-4451
▁¦201	-4452
▁¦60¦	-4453
ardach	-4454
ceanna	-4455
chóiré	-4456
dúnfaí	-4457
eadais	-4458
earadh	-4459
eartha	-4460
eoraip	-4461
geapór	-4462
géanóm	-4463
ialann	-4464
idanna	-4465
leanas	-4466
ligean	-4467
láistí	-4468
mhaolú	-4469
réimsí	-4470
ríocht	-4471
tionsc	-4472
éaróid	-4473
únacha	-4474
ealaíon	-4475
ghnácha	-4476
iúchadh	-4477
laítear	-4478
nóiméad	-4479
ochraid	-4480
oileáin	-4481
oirmisc	-4482
rasaíle	-4483
saíocht	-4484
tabhair	-4485
éasúnta	-4486
achtacha	-4487
easmhach	-4488
iondíola	-4489
mhilliún	-4490
oithíoch	-4491
próifein	-4492
struchtú	-4493
ógaslann	-4494
eolchoirm	-4495
iompartha	-4496
rialuithe	-4497
tacaíocht	-4498
untasacha	-4499
éaróidigh	-4500
ciallaíonn	-4501
eanglaíonn	-4502
láimhseáil	-4503
ostaíochta	-4504
leoireachta	-4505
ianfhoghlama	-4506
pháirtíochta	-4507
athbhreithniú	-4508
itheoireachta	-4509
neamhriachtanach	-4510
%,	-4511
07	-4512
5%	-4513
58	-4514
cá	-4515
ec	-4516
dic	-4517
dír	-4518
nia	-4519
▁."	-4520
▁bí	-4521
▁mé	-4522
▁oc	-4523
▁Ón	-4524
aoir	-4525
croí	-4526
loch	-4527
luan	-4528
sine	-4529
swab	-4530
tash	-4531
▁Cor	-4532
▁Cos	-4533
▁San	-4534
▁col	-4535
▁cúl	-4536
▁fág	-4537
▁lag	-4538
▁lua	-4539
▁ocs	-4540
▁orf	-4541
▁orm	-4542
▁thú	-4543
▁tán	-4544
▁áis	-4545
agóid	-4546
innte	-4547
iomad	-4548
rogha	-4549
áfach	-4550
▁2021	-4551
▁Fliú	-4552
▁Níos	-4553
▁Sula	-4554
▁agam	-4555
▁ainn	-4556
▁aird	-4557
▁bail	-4558
▁bean	-4559
▁dtar	-4560
▁gcor	-4561
▁haon	-4562
▁reil	-4563
▁shuí	-4564
▁sórt	-4565
eolais	-4566
luaite	-4567
láithr	-4568
▁beaga	-4569
▁deich	-4570
▁dtreo	-4571
▁dúinn	-4572
▁ghabh	-4573
▁láimh	-4574
▁léana	-4575
▁maolú	-4576
▁marbh	-4577
▁mhéid	-4578
▁neart	-4579
▁tithe	-4580
chógais	-4581
freagra	-4582
iomáint	-4583
leanáil	-4584
líonadh	-4585
phoiblí	-4586
thanach	-4587
▁Tugadh	-4588
▁antash	-4589
▁bhrath	-4590
▁comhdh	-4591
▁eitilt	-4592
▁polait	-4593
▁seomra	-4594
▁sraith	-4595
▁tagtha	-4596
vacsaíne	-4597
▁Casacht	-4598
▁braisle	-4599
▁ciarsúr	-4600
▁dhaonra	-4601
▁gcuirfí	-4602
▁ghníomh	-4603
▁iomarca	-4604
▁príomha	-4605
▁speicis	-4606
altranais	-4607
chóireáil	-4608
féadfaidh	-4609
ndearnadh	-4610
ráigeanna	-4611
▁Bunaithe	-4612
▁ainneoin	-4613
▁hafraice	-4614
▁imscrúdú	-4615
▁iontaofa	-4616
▁oibríonn	-4617
▁seachain	-4618
▁speiceas	-4619
scrúduithe	-4620
tseachtain	-4621
▁ainmnithe	-4622
▁ardriosca	-4623
▁bhformhór	-4624
▁caithfidh	-4625
▁dromchlaí	-4626
▁faisnéise	-4627
▁fhaisnéis	-4628
▁fhianaise	-4629
▁laethanta	-4630
▁pleananna	-4631
▁Úsáideann	-4632
▁úsáidtear	-4633
▁Comharthaí	-4634
▁bhainistiú	-4635
▁múinteoirí	-4636
▁nochtaithe	-4637
▁roghnaíonn	-4638
▁scaoileadh	-4639
▁sheachtain	-4640
▁sláintiúla	-4641
▁taifeadadh	-4642
▁thógálacha	-4643
▁cuairteanna	-4644
▁dteastaíonn	-4645
▁frithvíreas	-4646
▁máinliachta	-4647
▁núicléitíde	-4648
▁saotharlann	-4649
▁sláinteachas	-4650
17	-4651
62	-4652
eit	-4653
hen	-4654
hom	-4655
hse	-4656
lee	-4657
nna	-4658
tom	-4659
cail	-4660
oisc	-4661
rith	-4662
ailse	-4663
aisce	-4664
brath	-4665
faide	-4666
féach	-4667
ngach	-4668
nocht	-4669
tirim	-4670
aoiniú	-4671
húsáid	-4672
scaoil	-4673
óstáin	-4674
eisíodh	-4675
fómhair	-4676
leithne	-4677
nósanna	-4678
soiléir	-4679
áitiúla	-4680
biontech	-4681
chathair	-4682
figiúirí	-4683
imscrúdú	-4684
osaíocht	-4685
buinneach	-4686
eilleagar	-4687
choraintín	-4688
forleathan	-4689
luaiseacht	-4690
éigeandáil	-4691
básmhaireacht	-4692
6%	-4693
92	-4694
ay	-4695
bd	-4696
cí	-4697
tg	-4698
yo	-4699
▁H	-4700
▁q	-4701
-20	-4702
cep	-4703
dhó	-4704
icu	-4705
leá	-4706
mid	-4707
tal	-4708
tum	-4709
wor	-4710
úsa	-4711
▁33	-4712
▁Tr	-4713
▁ad	-4714
▁bó	-4715
▁ct	-4716
▁cy	-4717
▁ii	-4718
▁pá	-4719
aoll	-4720
báin	-4721
cóil	-4722
doid	-4723
dros	-4724
díot	-4725
eodh	-4726
eoga	-4727
icha	-4728
ionc	-4729
land	-4730
nald	-4731
ogle	-4732
ostú	-4733
pple	-4734
rimh	-4735
traí	-4736
tuir	-4737
ínte	-4738
ófaí	-4739
óist	-4740
▁4,7	-4741
▁Seo	-4742
▁adh	-4743
▁cas	-4744
▁clu	-4745
▁cum	-4746
▁dhó	-4747
▁icu	-4748
▁iol	-4749
▁ith	-4750
▁mel	-4751
▁¦11	-4752
▁¦18	-4753
▁¦23	-4754
▁¦25	-4755
ailin	-4756
altaí	-4757
diach	-4758
eagla	-4759
eamar	-4760
easpa	-4761
eicní	-4762
eifeá	-4763
eland	-4764
eomra	-4765
fhliú	-4766
ghlac	-4767
iáine	-4768
oscló	-4769
prioc	-4770
sanna	-4771
stais	-4772
sáide	-4773
trump	-4774
éimse	-4775
éinte	-4776
ídíní	-4777
▁Mhol	-4778
▁aipe	-4779
▁cong	-4780
▁deis	-4781
▁dona	-4782
▁díol	-4783
▁hion	-4784
▁hong	-4785
▁iona	-4786
▁mian	-4787
▁ordú	-4788
▁tras	-4789
aitear	-4790
aitist	-4791
amaigh	-4792
ashing	-4793
ceptor	-4794
coinne	-4795
dhchaí	-4796
eafóin	-4797
eapann	-4798
easach	-4799
gartha	-4800
ichael	-4801
iciúil	-4802
ictiúr	-4803
impeal	-4804
iniúna	-4805
liocht	-4806
láiste	-4807
lódáil	-4808
omharc	-4809
yngeal	-4810
éargas	-4811
éasáin	-4812
▁Galar	-4813
▁Téigh	-4814
▁caint	-4815
▁cumas	-4816
▁céata	-4817
▁cóiré	-4818
▁dheir	-4819
▁dhíth	-4820
▁dóigh	-4821
▁fhonn	-4822
▁ghlas	-4823
▁haipe	-4824
▁lucht	-4825
▁mhair	-4826
▁mhuin	-4827
▁nithe	-4828
▁oíche	-4829
▁páirt	-4830
▁réidh	-4831
▁sular	-4832
▁titim	-4833
abhrach	-4834
angóilí	-4835
billiún	-4836
deacair	-4837
ealaimh	-4838
fhrainc	-4839
folláin	-4840
illeann	-4841
imneach	-4842
itheoir	-4843
teartha	-4844
ónaithe	-4845
únaithe	-4846
▁Cuairt	-4847
▁Spreag	-4848
▁aeráil	-4849
▁dtéann	-4850
▁ionann	-4851
▁molann	-4852
▁orainn	-4853
▁smacht	-4854
▁thuras	-4855
▁unesco	-4856
▁éirigh	-4857
fhreagra	-4858
filleadh	-4859
igiteach	-4860
igiúnach	-4861
leanúint	-4862
meiriceá	-4863
oifigigh	-4864
reidtear	-4865
scornach	-4866
tarchuir	-4867
teoranta	-4868
éardaoin	-4869
éasúrach	-4870
▁Scaradh	-4871
▁Tástáil	-4872
▁biseach	-4873
▁chlinic	-4874
▁chonair	-4875
▁chuaigh	-4876
▁coicíse	-4877
▁eabhrac	-4878
▁héirinn	-4879
▁leanann	-4880
▁measúnú	-4881
▁nasctha	-4882
▁oscailt	-4883
▁úrscéal	-4884
ashington	-4885
caithfidh	-4886
orbraíodh	-4887
orbraíonn	-4888
osclaíodh	-4889
sealadach	-4890
seicheamh	-4891
shéalainn	-4892
▁Baineadh	-4893
▁Cuirfidh	-4894
▁aireacht	-4895
▁beartais	-4896
▁bialanna	-4897
▁céadaoin	-4898
▁eorpacha	-4899
▁homology	-4900
▁laethúil	-4901
▁ndéanfaí	-4902
▁seiceáil	-4903
▁seirbhís	-4904
▁thorthaí	-4905
▁trialach	-4906
beartaithe	-4907
eoiteachta	-4908
ginearálta	-4909
imsitheach	-4910
pharyngeal	-4911
ógaslannaí	-4912
▁Cabhróidh	-4913
▁aclaíocht	-4914
▁bluetooth	-4915
▁bunscoile	-4916
▁ceadaithe	-4917
▁chuirtear	-4918
▁coimeádta	-4919
▁fhoghlaim	-4920
▁mheiriceá	-4921
▁mheithimh	-4922
▁oifigiúla	-4923
▁oiriúnach	-4924
▁páirteach	-4925
▁riarachán	-4926
▁slaghdáin	-4927
eastalaíonn	-4928
eolaíochtaí	-4929
thuairisciú	-4930
▁géiniteach	-4931
▁tacaíochta	-4932
uashonruithe	-4933
▁bhfaigheann	-4934
▁chleachtadh	-4935
▁comhaireamh	-4936
▁cuairteoirí	-4937
▁institiúidí	-4938
▁theaghlaigh	-4939
▁leochaileach	-4940
▁mheánoirthir	-4941
▁phylogenetic	-4942
▁saineolaithe	-4943
▁ghníomhaíocht	-4944
artheagmhálacha	-4945
▁leitheadúlacht	-4946
▁teachtaireacht	-4947
▁fheidhmeannacht	-4948
▁príomhoifigeach	-4949
12	-4950
gr	-4951
bru	-4952
dhr	-4953
fás	-4954
loí	-4955
mol	-4956
ond	-4957
rem	-4958
tré	-4959
ímh	-4960
cach	-4961
fhor	-4962
gair	-4963
inis	-4964
irip	-4965
leic	-4966
mhic	-4967
tacú	-4968
thrá	-4969
únaí	-4970
cheil	-4971
chill	-4972
siúil	-4973
táirg	-4974
uathu	-4975
contae	-4976
eabhar	-4977
laithe	-4978
leacht	-4979
sraith	-4980
tugtar	-4981
abhaile	-4982
bhealaí	-4983
hothair	-4984
níochán	-4985
éiríonn	-4986
acmhainn	-4987
dhearbhú	-4988
leanacht	-4989
éineacht	-4990
freagairt	-4991
gallúnach	-4992
ghiniúint	-4993
phróitéin	-4994
aighdeoirí	-4995
cleachtais	-4996
faireachais	-4997
láinteachas	-4998
.0	-4999
64	-5000
65	-5001
bí	-5002
em	-5003
ep	-5004
500	-5005
dhe	-5006
gca	-5007
ley	-5008
mná	-5009
pol	-5010
rti	-5011
tos	-5012
óna	-5013
▁(2	-5014
▁43	-5015
▁ma	-5016
▁rí	-5017
arda	-5018
ardú	-5019
bhrú	-5020
báis	-5021
char	-5022
dhír	-5023
fadú	-5024
gáir	-5025
lamh	-5026
shao	-5027
shuí	-5028
▁80%	-5029
▁Gan	-5030
▁aic	-5031
▁fia	-5032
▁ins	-5033
▁prá	-5034
▁rté	-5035
▁tcm	-5036
aingt	-5037
caill	-5038
cónaí	-5039
fisic	-5040
mhéid	-5041
thabh	-5042
áille	-5043
▁9.30	-5044
▁dtír	-5045
▁dtóg	-5046
▁dúsh	-5047
▁físe	-5048
▁goir	-5049
▁heag	-5050
▁iobú	-5051
▁leas	-5052
▁lorg	-5053
▁nasa	-5054
▁rach	-5055
▁samp	-5056
▁tony	-5057
amuigh	-5058
chéime	-5059
díghal	-5060
foirne	-5061
huaire	-5062
labhra	-5063
mhéadú	-5064
shocrú	-5065
spóirt	-5066
treorú	-5067
▁Cháin	-5068
▁camel	-5069
▁ceadú	-5070
▁chaoi	-5071
▁cumar	-5072
▁droch	-5073
▁gcúis	-5074
▁leaba	-5075
▁láith	-5076
▁mhodh	-5077
▁riamh	-5078
▁scála	-5079
▁súile	-5080
▁thair	-5081
abhdóir	-5082
ailíonn	-5083
aispeán	-5084
bharfar	-5085
chéanna	-5086
náisiún	-5087
oiriúnú	-5088
pháistí	-5089
uirlisí	-5090
▁Braith	-5091
▁Daoine	-5092
▁Sonraí	-5093
▁bheadh	-5094
▁bhuail	-5095
▁boladh	-5096
▁comhsh	-5097
▁fhéile	-5098
▁ghearr	-5099
▁guaise	-5100
▁margaí	-5101
▁moltar	-5102
▁ngalar	-5103
▁salach	-5104
▁teirip	-5105
▁thairg	-5106
▁trácht	-5107
▁ullmhú	-5108
▁ábalta	-5109
▁óstáil	-5110
amhrasta	-5111
labhairt	-5112
leathadh	-5113
scaipthe	-5114
seiceáil	-5115
sheoladh	-5116
shnáithe	-5117
▁Gabhadh	-5118
▁bhealaí	-5119
▁celsius	-5120
▁cúrsála	-5121
▁gcéanna	-5122
▁gnéithe	-5123
▁holohan	-5124
▁idirlín	-5125
▁innéacs	-5126
▁leabhar	-5127
▁measadh	-5128
▁meáchan	-5129
▁pháirtí	-5130
▁rabhadh	-5131
▁síneadh	-5132
▁theacht	-5133
▁uathúil	-5134
cleachtaí	-5135
▁ceathrar	-5136
▁cytokine	-5137
▁cáineadh	-5138
▁eisiúint	-5139
▁nochtadh	-5140
▁náisiúin	-5141
▁núíosach	-5142
▁pataigin	-5143
▁ranganna	-5144
▁sceideal	-5145
eineafóibe	-5146
féideartha	-5147
sheirbhísí	-5148
sláintiúil	-5149
▁Caithfidh	-5150
▁Roghnaigh	-5151
▁bhféadfaí	-5152
▁cheannach	-5153
▁céimnithe	-5154
▁dhiúltach	-5155
▁difríocht	-5156
▁faoiseamh	-5157
▁fhiabhras	-5158
▁measartha	-5159
▁oifigeach	-5160
▁oifigiúil	-5161
▁próitéine	-5162
▁saoránach	-5163
▁toirmeasc	-5164
▁tseirbhís	-5165
▁tuairiscí	-5166
saotharlann	-5167
▁ceisteanna	-5168
▁coraintíní	-5169
▁institiúid	-5170
▁laidineach	-5171
▁macasamhlú	-5172
▁paisinéirí	-5173
▁randamacha	-5174
▁thrialacha	-5175
▁tuairisciú	-5176
▁tuarascála	-5177
frithdhúnadh	-5178
struchtúrtha	-5179
▁feidhmeanna	-5180
▁fhaireachas	-5181
▁nuabheirthe	-5182
ollscoileanna	-5183
sábháilteacht	-5184
▁sainaithníodh	-5185
▁antaibheathaigh	-5186
▁saincheisteanna	-5187
▁éifeachtúlachta	-5188
rh	-5189
va	-5190
▁]	-5191
▁≥	-5192
63¦	-5193
dam	-5194
era	-5195
gen	-5196
hou	-5197
ibr	-5198
iog	-5199
len	-5200
lit	-5201
nea	-5202
shu	-5203
ysp	-5204
▁.,	-5205
alóg	-5206
ball	-5207
bhia	-5208
coth	-5209
desi	-5210
eard	-5211
eorú	-5212
ford	-5213
fáth	-5214
ians	-5215
iata	-5216
idge	-5217
inal	-5218
iobr	-5219
irse	-5220
kins	-5221
lonn	-5222
mhín	-5223
ocal	-5224
oirt	-5225
póca	-5226
rael	-5227
reon	-5228
rsaí	-5229
trom	-5230
ttps	-5231
utum	-5232
úthu	-5233
aince	-5234
annaí	-5235
aolta	-5236
béite	-5237
draig	-5238
dóidh	-5239
eirde	-5240
foils	-5241
ghafa	-5242
intir	-5243
ionas	-5244
laisí	-5245
meáin	-5246
moill	-5247
phost	-5248
proif	-5249
roith	-5250
tóidh	-5251
ugtha	-5252
xford	-5253
únann	-5254
acainn	-5255
acháin	-5256
ardash	-5257
arthai	-5258
bhuntá	-5259
dhíola	-5260
earach	-5261
earsan	-5262
eathrú	-5263
eithic	-5264
eorach	-5265
irgthe	-5266
itinne	-5267
meacha	-5268
moladh	-5269
neacha	-5270
nítear	-5271
ocsain	-5272
tachta	-5273
yspnea	-5274
éadach	-5275
úsaeim	-5276
▁¦200¦	-5277
aiceann	-5278
bhannaí	-5279
bhfuair	-5280
bualadh	-5281
chruthú	-5282
dagrafa	-5283
desivir	-5284
dtagann	-5285
ealladh	-5286
eangail	-5287
eastail	-5288
eatramh	-5289
eoiricí	-5290
ictreon	-5291
iobraid	-5292
iompair	-5293
ithrigh	-5294
laimint	-5295
luaithe	-5296
mbliana	-5297
meastar	-5298
scamhóg	-5299
sholáth	-5300
theacha	-5301
aibhithe	-5302
chlúdach	-5303
dhéantar	-5304
domhnach	-5305
dromchla	-5306
foghlaim	-5307
impléasc	-5308
leigheas	-5309
oibríoch	-5310
thorthaí	-5311
áirtithe	-5312
aclaíocht	-5313
bhrollach	-5314
déanfaidh	-5315
igiteacha	-5316
raghsanna	-5317
téarmacha	-5318
ainisteoir	-5319
theaghlach	-5320
diaibéiteas	-5321
doideachais	-5322
eagmhálacha	-5323
fheidhmithe	-5324
ilipíneacha	-5325
pháirtíocht	-5326
iondíoltóirí	-5327
éidearthacht	-5328
ardashoithíoch	-5329
eolchoirmeacha	-5330
ghníomhaíochtaí	-5331
39	-5332
69	-5333
74	-5334
91	-5335
ns	-5336
100	-5337
car	-5338
per	-5339
rac	-5340
tcp	-5341
tur	-5342
uel	-5343
▁39	-5344
▁99	-5345
▁be	-5346
▁ga	-5347
▁he	-5348
▁km	-5349
asat	-5350
dtos	-5351
dáin	-5352
ghnó	-5353
mrna	-5354
sadh	-5355
▁and	-5356
▁cód	-5357
▁fás	-5358
▁gal	-5359
▁gcú	-5360
▁ghá	-5361
▁mha	-5362
▁mon	-5363
▁org	-5364
▁plé	-5365
▁sta	-5366
▁Áir	-5367
darás	-5368
fheic	-5369
grúpa	-5370
iomar	-5371
lainn	-5372
loine	-5373
mhóra	-5374
mórán	-5375
scáil	-5376
scála	-5377
seans	-5378
shaol	-5379
tacht	-5380
téacs	-5381
▁Cuid	-5382
▁Seas	-5383
▁bord	-5384
▁cibé	-5385
▁coir	-5386
▁cáil	-5387
▁dhír	-5388
▁fhan	-5389
▁fuar	-5390
▁hard	-5391
▁inar	-5392
▁mara	-5393
▁mhná	-5394
▁mífh	-5395
▁post	-5396
▁shoc	-5397
▁stoc	-5398
▁sách	-5399
▁tasc	-5400
chláir	-5401
ionsaí	-5402
lainne	-5403
onavir	-5404
páistí	-5405
▁Ansin	-5406
▁Duine	-5407
▁Scaip	-5408
▁alcól	-5409
▁baill	-5410
▁breis	-5411
▁cógas	-5412
▁dheas	-5413
▁dhiúl	-5414
▁dhíol	-5415
▁gcóir	-5416
▁gnéas	-5417
▁inniu	-5418
▁litir	-5419
▁mothú	-5420
▁ngall	-5421
▁poist	-5422
▁scéim	-5423
▁thábh	-5424
▁triúr	-5425
chuaigh	-5426
déanamh	-5427
imdhíon	-5428
pholait	-5429
stopadh	-5430
thuaidh	-5431
uachtar	-5432
▁aigéad	-5433
▁bhunús	-5434
▁cearta	-5435
▁cheadú	-5436
▁choirp	-5437
▁chónaí	-5438
▁coiste	-5439
▁céadta	-5440
▁foinse	-5441
▁foinsí	-5442
▁huisce	-5443
▁léiriú	-5444
▁líonra	-5445
▁mhaith	-5446
▁nuacht	-5447
▁oibriú	-5448
▁táirgí	-5449
▁tógála	-5450
arclanna	-5451
eisiúint	-5452
shábháil	-5453
thíortha	-5454
▁Clúdach	-5455
▁Iarrfar	-5456
▁Labhair	-5457
▁aistriú	-5458
▁anacair	-5459
▁bhreise	-5460
▁codlata	-5461
▁dóchúil	-5462
▁easnamh	-5463
▁fheidhm	-5464
▁formhór	-5465
▁lárnach	-5466
▁mamaigh	-5467
▁mholadh	-5468
▁miotóga	-5469
▁neamhch	-5470
▁ngrúpaí	-5471
▁shroich	-5472
▁spleách	-5473
▁síneach	-5474
▁sócháin	-5475
▁teiripe	-5476
▁thugtar	-5477
▁tiomána	-5478
▁éilíonn	-5479
▁ísiltír	-5480
athraíonn	-5481
braoiníní	-5482
enteritis	-5483
thaisteal	-5484
▁Baineann	-5485
▁Clúdaigh	-5486
▁Cuirfear	-5487
▁Thosaigh	-5488
▁acmhainn	-5489
▁aerasóil	-5490
▁airíonna	-5491
▁atruacha	-5492
▁cealtair	-5493
▁ceannach	-5494
▁cheangal	-5495
▁cholainn	-5496
▁dhíreach	-5497
▁dtástáil	-5498
▁fheabhsú	-5499
▁fhostóir	-5500
▁freagraí	-5501
▁gcathair	-5502
▁iontrála	-5503
▁lárionad	-5504
▁membrane	-5505
▁mhoilliú	-5506
▁roghanna	-5507
▁soláthar	-5508
▁téarnamh	-5509
bhfoireann	-5510
deimhníodh	-5511
fíneálacha	-5512
laghdaithe	-5513
scothaosta	-5514
suíomhanna	-5515
▁Tuilleadh	-5516
▁caithfear	-5517
▁cláraithe	-5518
▁coimisiún	-5519
▁comhartha	-5520
▁cultúrtha	-5521
▁dháileadh	-5522
▁dromlaigh	-5523
▁foilsíodh	-5524
▁héifeacht	-5525
▁mbaineann	-5526
▁sheiceáil	-5527
▁spreagann	-5528
athlastacha	-5529
eacnamaíoch	-5530
▁Thaispeáin	-5531
▁athmholadh	-5532
▁bhfuarthas	-5533
▁dtrialacha	-5534
▁eachtracha	-5535
▁eolaíochta	-5536
▁gcoraintín	-5537
▁gcuirfeadh	-5538
▁gheobhaidh	-5539
▁hoifigiúil	-5540
▁phleananna	-5541
▁pháirtithe	-5542
▁smaoiseach	-5543
▁thuilleadh	-5544
▁éagsúlacht	-5545
▁úsáideoirí	-5546
sláinteachas	-5547
▁chleachtais	-5548
▁coróinvíris	-5549
▁cothaithigh	-5550
▁cóireálacha	-5551
▁dhiagnóisiú	-5552
▁láithreacht	-5553
▁soghluaiste	-5554
▁taighdeoirí	-5555
▁thairiscint	-5556
▁díhiodráitiú	-5557
▁eacnamaíocha	-5558
▁gcodarsnacht	-5559
▁réamhchúraim	-5560
▁traidisiúnta	-5561
▁tuairiscithe	-5562
sábháilteachta	-5563
▁polaiméaráise	-5564
▁víreolaíochta	-5565
siopadóireachta	-5566
▁príobháideacha	-5567
▁thuairiscítear	-5568
▁ghartheagmhálaí	-5569
",	-5570
35	-5571
40	-5572
ió	-5573
ut	-5574
dro	-5575
fer	-5576
luí	-5577
íre	-5578
▁%.	-5579
arna	-5580
chan	-5581
cóid	-5582
fhón	-5583
orta	-5584
rais	-5585
seas	-5586
thit	-5587
achar	-5588
dháil	-5589
ianna	-5590
ionta	-5591
mheán	-5592
sheol	-5593
tarlú	-5594
veict	-5595
▁¦70¦	-5596
▁¦80¦	-5597
caíonn	-5598
chreid	-5599
nollag	-5600
phlean	-5601
saoire	-5602
seomra	-5603
johnson	-5604
phobail	-5605
réigiún	-5606
saoráid	-5607
sonrach	-5608
teiripe	-5609
abhdóirí	-5610
ceantair	-5611
cuirfidh	-5612
imeachta	-5613
ndéantar	-5614
shrianta	-5615
tseapáin	-5616
análaithe	-5617
caíochtaí	-5618
ganntanas	-5619
taiscumar	-5620
taoiseach	-5621
braitheadh	-5622
cliniciúil	-5623
gcomparáid	-5624
gheobhaidh	-5625
zónóiseach	-5626
dianchúraim	-5627
hiodráitithe	-5628
tromchúiseacha	-5629
08	-5630
45	-5631
84	-5632
hs	-5633
pd	-5634
yn	-5635
▁x	-5636
▁Í	-5637
.4%	-5638
13¦	-5639
43,	-5640
66¦	-5641
aca	-5642
adk	-5643
aiv	-5644
ase	-5645
clu	-5646
fág	-5647
fón	-5648
icn	-5649
ish	-5650
lún	-5651
med	-5652
ool	-5653
riú	-5654
róc	-5655
sen	-5656
sia	-5657
ted	-5658
ths	-5659
war	-5660
íoc	-5661
▁(5	-5662
▁..	-5663
▁80	-5664
▁85	-5665
▁Bí	-5666
▁Dí	-5667
▁Io	-5668
▁ab	-5669
acas	-5670
bola	-5671
dódh	-5672
flam	-5673
hang	-5674
inim	-5675
isin	-5676
iúir	-5677
laic	-5678
long	-5679
lánú	-5680
léid	-5681
mbas	-5682
ncov	-5683
oird	-5684
orma	-5685
reas	-5686
ríbh	-5687
rósa	-5688
tiom	-5689
éama	-5690
íoll	-5691
íoló	-5692
órsa	-5693
▁1,0	-5694
▁120	-5695
▁20,	-5696
▁Lea	-5697
▁Tag	-5698
▁cap	-5699
▁dom	-5700
▁gov	-5701
▁léi	-5702
▁muc	-5703
▁rib	-5704
▁sam	-5705
▁ser	-5706
▁tra	-5707
▁éag	-5708
▁íoc	-5709
adkar	-5710
aidhm	-5711
ampas	-5712
ascun	-5713
bhain	-5714
chair	-5715
eline	-5716
eofar	-5717
eoige	-5718
gcéim	-5719
gearr	-5720
imhsí	-5721
itéir	-5722
leoir	-5723
núíos	-5724
oidhr	-5725
staim	-5726
áitis	-5727
álann	-5728
éasán	-5729
óráil	-5730
ótáil	-5731
▁Aith	-5732
▁Oibr	-5733
▁Ráig	-5734
▁Uair	-5735
▁cair	-5736
▁cuma	-5737
▁cóid	-5738
▁luas	-5739
▁láid	-5740
▁mála	-5741
▁news	-5742
▁phlé	-5743
▁saol	-5744
▁seas	-5745
airsin	-5746
anfadh	-5747
annach	-5748
antáin	-5749
atrúin	-5750
bpobal	-5751
chille	-5752
cocúnú	-5753
critic	-5754
cruinn	-5755
eaptar	-5756
eatain	-5757
eathnú	-5758
gcóras	-5759
illian	-5760
irimid	-5761
láidir	-5762
martin	-5763
mheasa	-5764
oolwor	-5765
orning	-5766
spáinn	-5767
stinal	-5768
ungáir	-5769
ymptom	-5770
éatais	-5771
íorúil	-5772
íosúin	-5773
▁2021.	-5774
▁Cúram	-5775
▁Féach	-5776
▁achar	-5777
▁alpac	-5778
▁araib	-5779
▁bhrón	-5780
▁bhunú	-5781
▁chlár	-5782
▁cíche	-5783
▁cúige	-5784
▁fnass	-5785
▁fóill	-5786
▁háise	-5787
▁iarra	-5788
▁nasal	-5789
▁próis	-5790
▁shain	-5791
▁thiar	-5792
▁thras	-5793
▁troma	-5794
▁trína	-5795
▁uaire	-5796
▁uasló	-5797
▁¦500¦	-5798
▁éascú	-5799
▁óstán	-5800
aictéar	-5801
aillimh	-5802
aradkar	-5803
bhliain	-5804
bhliana	-5805
buailte	-5806
cheilge	-5807
chontae	-5808
chumais	-5809
chórais	-5810
eataine	-5811
fhágann	-5812
fhéadfá	-5813
ghrúpaí	-5814
iolitis	-5815
labhair	-5816
labhraí	-5817
liúchán	-5818
lóthach	-5819
mbridge	-5820
ndearna	-5821
oláiste	-5822
rianadh	-5823
rósaera	-5824
scagadh	-5825
stephen	-5826
thachta	-5827
áchtála	-5828
éadaigh	-5829
éadroma	-5830
éiteach	-5831
íochtar	-5832
▁Soláth	-5833
▁athlas	-5834
▁bogadh	-5835
▁branda	-5836
▁chreid	-5837
▁civets	-5838
▁dóichí	-5839
▁fliuch	-5840
▁heorpa	-5841
▁héasca	-5842
▁idanna	-5843
▁ionsaí	-5844
▁mhoill	-5845
▁roghnú	-5846
▁taiwan	-5847
▁throid	-5848
▁zónóis	-5849
acastáin	-5850
aimsíodh	-5851
astráile	-5852
athracha	-5853
bharnóir	-5854
cóireála	-5855
dáileoga	-5856
eardchum	-5857
earraigh	-5858
earsanra	-5859
fhabhtán	-5860
forbairt	-5861
iníochas	-5862
iúltacha	-5863
leathair	-5864
ordaithe	-5865
osclófaí	-5866
ruthaigh	-5867
réigiúin	-5868
saíochta	-5869
slaghdán	-5870
thabháil	-5871
toirchis	-5872
ínaigéad	-5873
▁Déanfar	-5874
▁airíonn	-5875
▁aslonnú	-5876
▁cathair	-5877
▁chontae	-5878
▁dearbhú	-5879
▁dhaonna	-5880
▁dtugann	-5881
▁déanach	-5882
▁déanann	-5883
▁eisithe	-5884
▁eitleán	-5885
▁feabhas	-5886
▁ghloiní	-5887
▁glaonna	-5888
▁glasáil	-5889
▁hóstach	-5890
▁míleata	-5891
▁ndúnfaí	-5892
▁shádach	-5893
▁soicind	-5894
▁taifead	-5895
aistealaí	-5896
aitisticí	-5897
dhíonacht	-5898
fachtóirí	-5899
gceantair	-5900
ghearmáin	-5901
ifornians	-5902
oolworths	-5903
phataigin	-5904
plódaithe	-5905
rialaithe	-5906
roinneann	-5907
sciatháin	-5908
staiméirí	-5909
teaghlach	-5910
tóireacht	-5911
▁Taisteal	-5912
▁ardaithe	-5913
▁brasaíle	-5914
▁bruscair	-5915
▁difriúil	-5916
▁dtorthaí	-5917
▁feiceáil	-5918
▁feidhmiú	-5919
▁foireann	-5920
▁ghéanóim	-5921
▁imoibriú	-5922
▁leataobh	-5923
▁ndéanfar	-5924
▁oiliúint	-5925
▁orduithe	-5926
▁prognóis	-5927
▁prótacal	-5928
▁réasúnta	-5929
▁saoráidí	-5930
▁sreabhán	-5931
▁teaglaim	-5932
▁éillithe	-5933
aighteacht	-5934
cineálacha	-5935
cruinnithe	-5936
iméadaithe	-5937
leithlisiú	-5938
rialacháin	-5939
tharlaíonn	-5940
▁Uaireanta	-5941
▁aithníodh	-5942
▁antaiginí	-5943
▁cheantair	-5944
▁chlúdaigh	-5945
▁cleachtas	-5946
▁cáithníní	-5947
▁dearfacha	-5948
▁fadhbanna	-5949
▁fisiceach	-5950
▁singeapór	-5951
▁treochtaí	-5952
▁tábhairne	-5953
▁táirgeadh	-5954
▁téarnaimh	-5955
▁íoslaghdú	-5956
arascálacha	-5957
cuairteanna	-5958
ictiúrlanna	-5959
institiúidí	-5960
onchiolitis	-5961
víreolaíoch	-5962
▁Braitheann	-5963
▁Gheobhaidh	-5964
▁Teastaíonn	-5965
▁aclaíochta	-5966
▁airgeadais	-5967
▁cleachtadh	-5968
▁dtiocfaidh	-5969
▁ghéarchéim	-5970
▁hathruithe	-5971
▁meastachán	-5972
▁ndochtúirí	-5973
▁práinneach	-5974
▁seachtainí	-5975
▁suntasacha	-5976
▁uachtarach	-5977
níomhaíochta	-5978
éifeachtacht	-5979
▁Tabharfaidh	-5980
▁aisghabháil	-5981
▁cónaitheoir	-5982
▁dlúthbhaint	-5983
▁fadtéarmach	-5984
▁leathnaithe	-5985
▁láithreacha	-5986
▁oibríochtaí	-5987
▁shaoránaigh	-5988
▁stéaróidigh	-5989
▁thaispeáint	-5990
coinníollacha	-5991
ealtóireachta	-5992
▁cónaitheoirí	-5993
▁eagraíochtaí	-5994
▁héifeachtach	-5995
▁scagthástáil	-5996
▁scagthástála	-5997
▁séireolaíoch	-5998
▁éifeachtacha	-5999
▁éifeachtacht	-6000
ngluaiseachtaí	-6001
siopadóireacht	-6002
▁eacnamaíochta	-6003
▁gartheagmhála	-6004
▁reiligiúnacha	-6005
▁sláinteachais	-6006
▁teorainneacha	-6007
aidhleoireachta	-6008
▁feidhmeannacht	-6009
▁thaistealaithe	-6010
▁frithvíreasacha	-6011
15	-6012
24	-6013
ah	-6014
ry	-6015
ít	-6016
dtu	-6017
ilt	-6018
ork	-6019
alfa	-6020
béal	-6021
cumh	-6022
dhún	-6023
rang	-6024
▁¦21	-6025
aille	-6026
alcól	-6027
análú	-6028
aoise	-6029
aonar	-6030
beirt	-6031
bhonn	-6032
iopaí	-6033
naíon	-6034
núicl	-6035
plean	-6036
sheir	-6037
áillí	-6038
▁¦40¦	-6039
▁¦48¦	-6040
aeráil	-6041
ailliú	-6042
bailiú	-6043
breith	-6044
eitilt	-6045
haoine	-6046
istigh	-6047
oideas	-6048
théacs	-6049
trácht	-6050
ualach	-6051
ábalta	-6052
bealach	-6053
bhearta	-6054
chosúil	-6055
chuairt	-6056
clainne	-6057
cónaith	-6058
eochtaí	-6059
margadh	-6060
mhaithe	-6061
mholtar	-6062
micheál	-6063
moderna	-6064
réitigh	-6065
theacht	-6066
chomhair	-6067
donnelly	-6068
iontráil	-6069
níocháin	-6070
acmhainní	-6071
theorannú	-6072
thionchar	-6073
tuairisciú	-6074
soláthairtí	-6075
tuismitheoirí	-6076
gníomhaíochtaí	-6077
paraicéiteamól	-6078
teicneolaíocht	-6079
éifeachtúlacht	-6080
antaibheathaigh	-6081
éifeachtúlachta	-6082
);	-6083
38	-6084
4)	-6085
61	-6086
67	-6087
70	-6088
90	-6089
99	-6090
au	-6091
fn	-6092
ji	-6093
ok	-6094
sl	-6095
ue	-6096
▁É	-6097
%),	-6098
300	-6099
95¦	-6100
cia	-6101
deo	-6102
mad	-6103
orf	-6104
uro	-6105
vac	-6106
▁34	-6107
▁45	-6108
▁ao	-6109
▁at	-6110
▁sú	-6111
▁tf	-6112
▁us	-6113
▁Ól	-6114
arla	-6115
cloí	-6116
coró	-6117
iobú	-6118
ipid	-6119
láid	-6120
mbun	-6121
niac	-6122
shin	-6123
stoc	-6124
tadh	-6125
úlra	-6126
▁-19	-6127
▁112	-6128
▁300	-6129
▁90%	-6130
▁Bia	-6131
▁Ith	-6132
▁Lig	-6133
▁Vír	-6134
▁aim	-6135
▁bog	-6136
▁car	-6137
▁dea	-6138
▁dár	-6139
▁fda	-6140
▁gor	-6141
▁gru	-6142
▁int	-6143
▁lúb	-6144
▁pas	-6145
▁rem	-6146
▁ria	-6147
▁rún	-6148
▁sos	-6149
▁tcp	-6150
▁tic	-6151
▁tim	-6152
▁¦22	-6153
adúla	-6154
aistr	-6155
druga	-6156
fhada	-6157
fuinn	-6158
linbh	-6159
maolú	-6160
mharú	-6161
mhuin	-6162
rúnaí	-6163
áirge	-6164
▁Cath	-6165
▁Cóir	-6166
▁Féin	-6167
▁aeir	-6168
▁aimp	-6169
▁arda	-6170
▁beta	-6171
▁chúl	-6172
▁dear	-6173
▁dola	-6174
▁gabh	-6175
▁inis	-6176
▁ions	-6177
▁leic	-6178
▁moil	-6179
▁naso	-6180
▁raid	-6181
▁ratg	-6182
▁seic	-6183
▁seol	-6184
aithne	-6185
alainn	-6186
coróin	-6187
córais	-6188
dtithe	-6189
fhoirm	-6190
ghéanó	-6191
grúpaí	-6192
riocht	-6193
scoite	-6194
shúile	-6195
éilliú	-6196
▁Roimh	-6197
▁Toisc	-6198
▁Ullmh	-6199
▁anáil	-6200
▁buaic	-6201
▁béilí	-6202
▁caite	-6203
▁chinn	-6204
▁delta	-6205
▁garda	-6206
▁ghair	-6207
▁lóist	-6208
▁phian	-6209
▁pobal	-6210
▁saoil	-6211
▁scáil	-6212
▁solúb	-6213
▁strus	-6214
▁thuar	-6215
▁tráth	-6216
▁uaidh	-6217
▁¦300¦	-6218
▁árann	-6219
▁éadaí	-6220
cathain	-6221
chasach	-6222
gabhadh	-6223
iarrfar	-6224
ireacht	-6225
leanann	-6226
líonann	-6227
marfach	-6228
mhargaí	-6229
ordaigh	-6230
ráiteas	-6231
satharn	-6232
síneach	-6233
éilíonn	-6234
▁Giorra	-6235
▁Scaoil	-6236
▁Tharla	-6237
▁Víreas	-6238
▁alcóil	-6239
▁bealaí	-6240
▁chaomh	-6241
▁deacra	-6242
▁dhálaí	-6243
▁donald	-6244
▁duitse	-6245
▁gcionn	-6246
▁google	-6247
▁hindia	-6248
▁mbosca	-6249
▁moltaí	-6250
▁míonna	-6251
▁oideas	-6252
▁réimse	-6253
▁scaoll	-6254
▁sciath	-6255
▁sheach	-6256
▁sprioc	-6257
▁spéise	-6258
▁stádas	-6259
▁sóchán	-6260
▁tedros	-6261
▁táthar	-6262
▁ábhair	-6263
bhrasaíl	-6264
cheangal	-6265
cáineadh	-6266
damáiste	-6267
dochtúra	-6268
fhorbair	-6269
ghlacadh	-6270
laethúla	-6271
leithris	-6272
ndéanann	-6273
pangolin	-6274
éimeagra	-6275
▁Cathain	-6276
▁Chuaigh	-6277
▁Féadfar	-6278
▁bhearta	-6279
▁bpáiste	-6280
▁breoite	-6281
▁cathain	-6282
▁ceanada	-6283
▁deiridh	-6284
▁earnáil	-6285
▁fhoinse	-6286
▁hamanna	-6287
▁ireland	-6288
▁itheann	-6289
▁labhair	-6290
▁léargas	-6291
▁maoiniú	-6292
▁mbeifeá	-6293
▁michael	-6294
▁naíonán	-6295
▁ndiaidh	-6296
▁oileáin	-6297
▁oiliúna	-6298
▁póilíní	-6299
▁róthrom	-6300
▁scanadh	-6301
▁seomraí	-6302
▁sheomra	-6303
▁tabhair	-6304
▁throigh	-6305
▁torrach	-6306
▁tuairim	-6307
chinneadh	-6308
céimeanna	-6309
deacracht	-6310
dromchlaí	-6311
fhaisnéis	-6312
limistéar	-6313
méadaithe	-6314
nuashonrú	-6315
scriosadh	-6316
soláthair	-6317
▁Fiabhras	-6318
▁Ionfhabh	-6319
▁Vacsaíní	-6320
▁amhlaidh	-6321
▁bhféadfá	-6322
▁cathaoir	-6323
▁charnach	-6324
▁chomhair	-6325
▁cuireann	-6326
▁céatadán	-6327
▁cóimheas	-6328
▁deimhniú	-6329
▁dháileog	-6330
▁dhéanfar	-6331
▁déileáil	-6332
▁díolúine	-6333
▁foghlama	-6334
▁ghlacann	-6335
▁ghlasáil	-6336
▁gréasáin	-6337
▁hoileáin	-6338
▁húdaráis	-6339
▁iolracha	-6340
▁léirithe	-6341
▁naíonáin	-6342
▁pangóilí	-6343
▁receptor	-6344
▁spásanna	-6345
▁todhchaí	-6346
chaitheann	-6347
freagartha	-6348
intestinal	-6349
pháirtithe	-6350
straitéisí	-6351
▁Cuimsíonn	-6352
▁Fógraíodh	-6353
▁Príobháid	-6354
▁aimplithe	-6355
▁bliantúil	-6356
▁bpoblacht	-6357
▁cheadaigh	-6358
▁cleachtaí	-6359
▁coinneáil	-6360
▁dtiocfadh	-6361
▁déardaoin	-6362
▁eagraithe	-6363
▁eiseamail	-6364
▁ghiniúint	-6365
▁iniúchadh	-6366
▁maolaithe	-6367
▁mhéadaigh	-6368
▁ocsaigine	-6369
▁seachadta	-6370
▁séasúrach	-6371
▁tairseach	-6372
▁trealaimh	-6373
chliniciúil	-6374
comhaireamh	-6375
impleachtaí	-6376
taispeánann	-6377
▁Cabhraíonn	-6378
▁Forbraíodh	-6379
▁Laghdaíonn	-6380
▁bronchitis	-6381
▁deireanach	-6382
▁dianchúram	-6383
▁gcomhairle	-6384
▁geografach	-6385
▁leanúnacha	-6386
▁mhéadaithe	-6387
▁minicíocht	-6388
▁seachadadh	-6389
▁thromchúis	-6390
▁tuachtarán	-6391
▁washington	-6392
▁breoiteacht	-6393
▁chiallaíonn	-6394
▁huimhreacha	-6395
▁muinteartha	-6396
▁seineafóibe	-6397
gcoróinvíreas	-6398
▁aeriompartha	-6399
▁athraitheach	-6400
▁neamhghnácha	-6401
▁pataigineach	-6402
▁soláthraithe	-6403
▁éabhlóideach	-6404
▁seachtainiúil	-6405
idirghabhálacha	-6406
▁nasopharyngeal	-6407
▁ríthábhachtach	-6408
▁thuismitheoirí	-6409
phríomhoifigeach	-6410
▁léitheoireachta	-6411
98	-6412
ak	-6413
ci	-6414
lt	-6415
of	-6416
pe	-6417
pá	-6418
▁#	-6419
▁~	-6420
art	-6421
dim	-6422
dúr	-6423
enz	-6424
fia	-6425
gcl	-6426
gúl	-6427
ike	-6428
ino	-6429
iop	-6430
ipt	-6431
ity	-6432
lex	-6433
onu	-6434
ora	-6435
orm	-6436
phr	-6437
ren	-6438
ról	-6439
tea	-6440
tid	-6441
utó	-6442
úra	-6443
▁’.	-6444
ailt	-6445
altú	-6446
angl	-6447
anom	-6448
bhfr	-6449
béil	-6450
chas	-6451
chlé	-6452
cive	-6453
cyte	-6454
cáid	-6455
cáis	-6456
dona	-6457
dúil	-6458
ease	-6459
glas	-6460
gurb	-6461
hong	-6462
icís	-6463
ince	-6464
iona	-6465
isph	-6466
itío	-6467
lain	-6468
lise	-6469
lynn	-6470
mhún	-6471
ohns	-6472
oilg	-6473
olso	-6474
páin	-6475
reva	-6476
romh	-6477
róid	-6478
seol	-6479
tril	-6480
tábh	-6481
utin	-6482
vice	-6483
zhou	-6484
ámaí	-6485
éala	-6486
éige	-6487
ófar	-6488
óidí	-6489
▁¦17	-6490
▁¦26	-6491
▁¦37	-6492
achas	-6493
aipín	-6494
allaí	-6495
check	-6496
coisc	-6497
cothú	-6498
dóigh	-6499
eimhr	-6500
eiste	-6501
fadhb	-6502
fhill	-6503
fimid	-6504
foirt	-6505
gaire	-6506
gasta	-6507
ghlas	-6508
https	-6509
igéir	-6510
ileán	-6511
implí	-6512
iompú	-6513
ionós	-6514
isean	-6515
istéa	-6516
lence	-6517
lucht	-6518
láram	-6519
maigh	-6520
maill	-6521
mhara	-6522
mílte	-6523
neaic	-6524
náimh	-6525
námha	-6526
nóidh	-6527
nóirí	-6528
obann	-6529
ochaí	-6530
raidh	-6531
ríofa	-6532
róirí	-6533
spíce	-6534
thóra	-6535
túirt	-6536
uacht	-6537
éadaí	-6538
íosún	-6539
ainéal	-6540
alairt	-6541
chugat	-6542
chuige	-6543
cumair	-6544
doirse	-6545
eabhrú	-6546
eagasc	-6547
eantas	-6548
eáilte	-6549
feanna	-6550
fraigh	-6551
ineann	-6552
inimic	-6553
ipirth	-6554
iteáil	-6555
iúradh	-6556
laonta	-6557
lianta	-6558
lúchta	-6559
olsona	-6560
profen	-6561
saíonn	-6562
taíodh	-6563
thairn	-6564
uairte	-6565
uintir	-6566
ullmhú	-6567
utóige	-6568
áiríre	-6569
áthair	-6570
éagach	-6571
íostaí	-6572
íothas	-6573
írinne	-6574
ógairt	-6575
acainní	-6576
anglaid	-6577
aothair	-6578
braisle	-6579
dhleath	-6580
dhéanta	-6581
earcadh	-6582
eictear	-6583
eitiltí	-6584
eáchain	-6585
fhágáil	-6586
féadfar	-6587
glacadh	-6588
inntigh	-6589
iseoirí	-6590
iúlacht	-6591
lacháin	-6592
laonadh	-6593
leabhar	-6594
lándáil	-6595
measúnú	-6596
ostóirí	-6597
ropreva	-6598
salacht	-6599
siomptó	-6600
ualainn	-6601
íspreag	-6602
aidreamh	-6603
aighdeán	-6604
aightear	-6605
aillimhe	-6606
airsinge	-6607
aisinéir	-6608
baineadh	-6609
bunúsach	-6610
cinneadh	-6611
eadaíodh	-6612
eicniúil	-6613
eithiclí	-6614
iabhrach	-6615
ibheacha	-6616
ionchair	-6617
itíneach	-6618
iúscairt	-6619
mbealach	-6620
mhínithe	-6621
nochtadh	-6622
oiliúint	-6623
oiléiriú	-6624
oláirimh	-6625
orduithe	-6626
proifein	-6627
rótacail	-6628
scamhóga	-6629
torracha	-6630
ainneacha	-6631
aitheacha	-6632
cabhróidh	-6633
caithfear	-6634
comparáid	-6635
eastcheck	-6636
eicníocht	-6637
forbartha	-6638
fógraíodh	-6639
iachtanas	-6640
istéamach	-6641
laisteach	-6642
leachtúil	-6643
mheánacha	-6644
mhéadaigh	-6645
romaíocht	-6646
ruthaíodh	-6647
súlachtaí	-6648
íobhálach	-6649
bhfaighidh	-6650
bhuntáiste	-6651
earnálacha	-6652
eimhnítear	-6653
gcaithfidh	-6654
idirdhealú	-6655
institiúid	-6656
isceachtaí	-6657
neaiceanna	-6658
roghnaíonn	-6659
romaíochta	-6660
teastaíonn	-6661
treoirlíne	-6662
tuarascáil	-6663
íspreagadh	-6664
chompordach	-6665
cuairteoirí	-6666
dearbhaíodh	-6667
meastacháin	-6668
oidhreachta	-6669
olapróitéin	-6670
bhreithnithe	-6671
eardchumainn	-6672
ghníomhartha	-6673
iciméadaithe	-6674
ipirtheannas	-6675
leochaileach	-6676
oghlaimeoirí	-6677
roprevalence	-6678
tromchúiseach	-6679
ngartheagmháil	-6680
astrointestinal	-6681
,1	-6682
21	-6683
32	-6684
4.	-6685
75	-6686
9.	-6687
gm	-6688
mé	-6689
ot	-6690
ow	-6691
▁y	-6692
50¦	-6693
600	-6694
99¦	-6695
arm	-6696
bat	-6697
col	-6698
iii	-6699
ild	-6700
plé	-6701
sil	-6702
tes	-6703
top	-6704
íbh	-6705
▁(1	-6706
▁(7	-6707
▁1.	-6708
▁35	-6709
▁41	-6710
▁42	-6711
▁44	-6712
▁47	-6713
▁55	-6714
▁65	-6715
▁Ac	-6716
▁Or	-6717
▁eo	-6718
▁et	-6719
▁ex	-6720
▁ip	-6721
▁mc	-6722
▁sr	-6723
▁wm	-6724
▁Ós	-6725
▁úr	-6726
aimp	-6727
dífh	-6728
gcon	-6729
gcur	-6730
ghla	-6731
infh	-6732
leas	-6733
mbia	-6734
muin	-6735
teil	-6736
tusa	-6737
uile	-6738
▁500	-6739
▁95%	-6740
▁Aon	-6741
▁Atá	-6742
▁Dar	-6743
▁cru	-6744
▁dod	-6745
▁fen	-6746
▁fer	-6747
▁hku	-6748
▁ibu	-6749
▁iii	-6750
▁mad	-6751
▁neo	-6752
▁rbd	-6753
▁sub	-6754
▁sár	-6755
▁tub	-6756
▁vir	-6757
▁wiv	-6758
▁¦12	-6759
▁¦40	-6760
▁áir	-6761
amáin	-6762
atosú	-6763
bhfón	-6764
cille	-6765
deich	-6766
luain	-6767
neart	-6768
orgán	-6769
scéim	-6770
thuas	-6771
ympho	-6772
▁4.30	-6773
▁Cúis	-6774
▁Méad	-6775
▁Sain	-6776
▁Scrú	-6777
▁astu	-6778
▁blas	-6779
▁cian	-6780
▁crua	-6781
▁códú	-6782
▁gaol	-6783
▁inte	-6784
▁lear	-6785
▁liom	-6786
▁mion	-6787
▁moon	-6788
▁romh	-6789
▁tonn	-6790
▁uimh	-6791
▁¦90¦	-6792
▁¦95¦	-6793
▁áise	-6794
annamh	-6795
bhuail	-6796
boladh	-6797
cealla	-6798
chealú	-6799
cineál	-6800
críoch	-6801
eachán	-6802
eiseam	-6803
ghearr	-6804
matáin	-6805
minice	-6806
séasúr	-6807
ábhair	-6808
éirigh	-6809
údarás	-6810
▁2019.	-6811
▁Bhuel	-6812
▁Faoin	-6813
▁aistr	-6814
▁altra	-6815
▁apple	-6816
▁bhaol	-6817
▁bíodh	-6818
▁charr	-6819
▁chosa	-6820
▁cláir	-6821
▁cúigí	-6822
▁cúpla	-6823
▁dalta	-6824
▁dhifr	-6825
▁fhadú	-6826
▁fúthu	-6827
▁gclár	-6828
▁géine	-6829
▁inter	-6830
▁luach	-6831
▁luain	-6832
▁mharú	-6833
▁mheán	-6834
▁naisc	-6835
▁rúise	-6836
▁rúnaí	-6837
▁scoir	-6838
▁shiúl	-6839
▁shárú	-6840
▁socrú	-6841
▁tharr	-6842
▁thinn	-6843
▁uilig	-6844
dtosach	-6845
fhoinse	-6846
gcontae	-6847
innéacs	-6848
iontach	-6849
leathnú	-6850
neamhsh	-6851
páipéar	-6852
páipéir	-6853
rabhadh	-6854
samhain	-6855
uigeann	-6856
▁Bóthar	-6857
▁Cógais	-6858
▁agóide	-6859
▁beagán	-6860
▁beatha	-6861
▁chiall	-6862
▁chúrsa	-6863
▁fhailí	-6864
▁fhoirm	-6865
▁luaigh	-6866
▁lympho	-6867
▁lúnasa	-6868
▁mhéara	-6869
▁oxford	-6870
▁phlean	-6871
▁pointe	-6872
▁stoirm	-6873
▁tapúla	-6874
▁teilif	-6875
▁tháirg	-6876
▁triail	-6877
▁tugtha	-6878
▁turais	-6879
▁éiligh	-6880
aibreáin	-6881
amhlaidh	-6882
bialanna	-6883
cúramach	-6884
fhormhór	-6885
ghlasáil	-6886
hiaráine	-6887
iontaofa	-6888
lúdaíonn	-6889
modhanna	-6890
thúcháin	-6891
éireoidh	-6892
▁Tástála	-6893
▁aerlíne	-6894
▁aerálaí	-6895
▁atreorú	-6896
▁bhunadh	-6897
▁braislí	-6898
▁buidéil	-6899
▁caillte	-6900
▁cluichí	-6901
▁costais	-6902
▁cothrom	-6903
▁críocha	-6904
▁dhúnann	-6905
▁dírithe	-6906
▁faighte	-6907
▁fraince	-6908
▁frídíní	-6909
▁féadfar	-6910
▁fíochán	-6911
▁glanadh	-6912
▁hionaid	-6913
▁iosrael	-6914
▁leithne	-6915
▁pádraig	-6916
▁rathúil	-6917
▁rialála	-6918
▁roinnte	-6919
▁ráiteas	-6920
▁réitigh	-6921
▁ríochta	-6922
▁saoráid	-6923
▁sinsear	-6924
▁sluaite	-6925
▁tagairt	-6926
▁thionsc	-6927
▁threoir	-6928
▁threorú	-6929
▁uillinn	-6930
▁óstacha	-6931
cathracha	-6932
cónaidhme	-6933
fheidhmiú	-6934
fhoilsigh	-6935
gníomhach	-6936
inicíocht	-6937
leithreas	-6938
measartha	-6939
próitéine	-6940
roghnaigh	-6941
spreagadh	-6942
▁Léiríonn	-6943
▁Tógfaidh	-6944
▁aipeanna	-6945
▁aisghafa	-6946
▁bailíodh	-6947
▁cheapann	-6948
▁cliseadh	-6949
▁coláiste	-6950
▁corónach	-6951
▁cuardach	-6952
▁cuirfidh	-6953
▁dtarchur	-6954
▁dáileadh	-6955
▁fachtóir	-6956
▁fíocháin	-6957
▁ghéanóma	-6958
▁sochraid	-6959
▁tagartha	-6960
▁thaistil	-6961
▁tionscad	-6962
▁toirmisc	-6963
▁tánaiste	-6964
▁Áirítear	-6965
ainsealach	-6966
aispeántar	-6967
california	-6968
criticiúla	-6969
ghníomhach	-6970
iarrthóirí	-6971
meánscoile	-6972
ndeachaigh	-6973
phríobháid	-6974
ruitíneach	-6975
taifeadadh	-6976
tháirgeadh	-6977
▁Athraíonn	-6978
▁Mhéadaigh	-6979
▁Tabharfar	-6980
▁Tarlaíonn	-6981
▁athraíonn	-6982
▁atáirgthe	-6983
▁chónaíonn	-6984
▁dhíghalrú	-6985
▁dtarlóidh	-6986
▁eachtrach	-6987
▁fheiceáil	-6988
▁fhreastal	-6989
▁fisiciúil	-6990
▁foirmiúil	-6991
▁fostaithe	-6992
▁fógraíodh	-6993
▁gcoitinne	-6994
▁gcuirfear	-6995
▁ghearradh	-6996
▁háiteanna	-6997
▁leictreon	-6998
▁leithligh	-6999
▁láithreán	-7000
▁lámhainní	-7001
▁meabhrach	-7002
▁mórdhíola	-7003
▁núíosacha	-7004
▁phróiseas	-7005
▁radagrafa	-7006
▁scaipfidh	-7007
▁scaiptear	-7008
▁slabhrúil	-7009
▁smaoinigh	-7010
▁staidrimh	-7011
▁thiocfadh	-7012
▁tosaíocht	-7013
▁treoracha	-7014
▁ullmhacht	-7015
▁íomháithe	-7016
aitheantais	-7017
chruinnithe	-7018
hionfhabhtú	-7019
▁athlastach	-7020
▁bhfaighfeá	-7021
▁caighdeáin	-7022
▁choraintín	-7023
▁chuimsíonn	-7024
▁criticiúil	-7025
▁gnólachtaí	-7026
▁mhíochaine	-7027
▁ngéarchéim	-7028
▁oilithrigh	-7029
▁remdesivir	-7030
▁saoránaigh	-7031
▁uimhreacha	-7032
▁ullmhachta	-7033
maireachtáil	-7034
mheastacháin	-7035
▁aireachtáil	-7036
▁aitheantais	-7037
▁bhfaigheadh	-7038
▁bhraitheann	-7039
▁chriticiúil	-7040
▁difríochtaí	-7041
▁dtuaisceart	-7042
▁díobhálacha	-7043
▁ghnólachtaí	-7044
▁ghéiniteach	-7045
▁impleachtaí	-7046
▁mbraitheann	-7047
▁oiriúnaithe	-7048
▁Sláinteachas	-7049
▁coisctheacha	-7050
▁comhairleach	-7051
▁fadthéarmach	-7052
▁fadtéarmacha	-7053
▁gníomhaíocht	-7054
▁neamhspleách	-7055
▁ardoideachais	-7056
▁fhilipíneacha	-7057
▁smachtbhannaí	-7058
hionfhabhtuithe	-7059
▁comhsheasmhach	-7060
▁rannpháirteach	-7061
▁antashubstaintí	-7062
▁cardashoithíoch	-7063
▁ghnáthuaireanta	-7064
▁idirghabhálacha	-7065
▁teicneolaíochta	-7066
ap	-7067
et	-7068
gi	-7069
18¦	-7070
37¦	-7071
57¦	-7072
cum	-7073
cúl	-7074
gal	-7075
nap	-7076
ocs	-7077
pas	-7078
ppe	-7079
tho	-7080
uis	-7081
way	-7082
▁%,	-7083
agam	-7084
bean	-7085
chuí	-7086
ctor	-7087
gcor	-7088
haon	-7089
lorg	-7090
reil	-7091
shoc	-7092
sórt	-7093
ther	-7094
tras	-7095
tura	-7096
áite	-7097
▁%),	-7098
beaga	-7099
bíodh	-7100
ceadú	-7101
cumas	-7102
dheon	-7103
dtreo	-7104
dúinn	-7105
ghlao	-7106
ibonu	-7107
láimh	-7108
léana	-7109
marbh	-7110
ranna	-7111
shain	-7112
súile	-7113
treor	-7114
tráth	-7115
áinne	-7116
▁¦38¦	-7117
antash	-7118
bheadh	-7119
bhrath	-7120
chiall	-7121
foinse	-7122
ghabhd	-7123
mhaith	-7124
osóidh	-7125
polait	-7126
tagtha	-7127
ulaing	-7128
íríonn	-7129
ciarsúr	-7130
dhaonra	-7131
dóchúil	-7132
gcuirfí	-7133
gnéithe	-7134
homalóg	-7135
iomarca	-7136
measadh	-7137
príomha	-7138
roinnte	-7139
aerasóil	-7140
ainneoin	-7141
baineann	-7142
cuirfear	-7143
fheabhsú	-7144
hafraice	-7145
speiceas	-7146
ainmnithe	-7147
ainmníodh	-7148
bhformhór	-7149
bluetooth	-7150
dháileadh	-7151
eipidéime	-7152
faisnéise	-7153
fhianaise	-7154
laethanta	-7155
pleananna	-7156
samhraidh	-7157
slaghdáin	-7158
spreagann	-7159
athmholadh	-7160
bhainistiú	-7161
bronchitis	-7162
ceisteanna	-7163
choitianta	-7164
eachtracha	-7165
laghdaíonn	-7166
múinteoirí	-7167
nochtaithe	-7168
sheachtain	-7169
sláintiúla	-7170
thógálacha	-7171
úsáideoirí	-7172
dhíobhálach	-7173
dteastaíonn	-7174
frithvíreas	-7175
láithreacht	-7176
máinliachta	-7177
núicléitíde	-7178
thástálacha	-7179
eacnamaíocha	-7180
tuairiscithe	-7181
sainaithníodh	-7182
phataigineacha	-7183
teachtaireacht	-7184
,3	-7185
.9	-7186
31	-7187
44	-7188
79	-7189
az	-7190
bó	-7191
hi	-7192
ks	-7193
yw	-7194
íc	-7195
óp	-7196
▁×	-7197
%).	-7198
36¦	-7199
84¦	-7200
88¦	-7201
90¦	-7202
ber	-7203
bhé	-7204
ccp	-7205
cet	-7206
cóp	-7207
drp	-7208
eif	-7209
fío	-7210
hsa	-7211
ies	-7212
igg	-7213
iob	-7214
mel	-7215
mer	-7216
mit	-7217
miú	-7218
ney	-7219
oim	-7220
ret	-7221
rey	-7222
rrt	-7223
ten	-7224
tio	-7225
urg	-7226
usp	-7227
uth	-7228
vil	-7229
xia	-7230
ása	-7231
áta	-7232
▁(6	-7233
▁00	-7234
▁90	-7235
▁Sp	-7236
▁lt	-7237
▁té	-7238
▁ul	-7239
.8%)	-7240
ailc	-7241
ards	-7242
book	-7243
chen	-7244
cibé	-7245
cong	-7246
deis	-7247
dtar	-7248
díol	-7249
dóra	-7250
eilg	-7251
flaí	-7252
ghan	-7253
ghra	-7254
ghrá	-7255
goir	-7256
guis	-7257
iage	-7258
ibil	-7259
iceo	-7260
idéa	-7261
inch	-7262
iomú	-7263
itín	-7264
lódh	-7265
mian	-7266
mála	-7267
nálú	-7268
núil	-7269
omit	-7270
onji	-7271
rona	-7272
ríbe	-7273
róga	-7274
rúis	-7275
samp	-7276
sell	-7277
tain	-7278
tama	-7279
tero	-7280
tóir	-7281
túir	-7282
uinn	-7283
urta	-7284
véis	-7285
ware	-7286
éada	-7287
éill	-7288
éime	-7289
íthe	-7290
▁(1)	-7291
▁(3)	-7292
▁30%	-7293
▁999	-7294
▁Aer	-7295
▁Fiú	-7296
▁Sin	-7297
▁Tac	-7298
▁Trí	-7299
▁abc	-7300
▁bor	-7301
▁cuí	-7302
▁dic	-7303
▁dif	-7304
▁has	-7305
▁hop	-7306
▁ifr	-7307
▁lan	-7308
▁lío	-7309
▁mas	-7310
▁mín	-7311
▁nba	-7312
▁nhs	-7313
▁nid	-7314
▁phr	-7315
▁rol	-7316
▁son	-7317
▁síc	-7318
▁¦35	-7319
▁ábh	-7320
-19),	-7321
ansom	-7322
aontú	-7323
araib	-7324
atrún	-7325
bhuan	-7326
caint	-7327
chana	-7328
chtúr	-7329
cuimh	-7330
cáidí	-7331
céata	-7332
cógas	-7333
cóiré	-7334
dheir	-7335
dhíth	-7336
dladh	-7337
drocs	-7338
ealbh	-7339
eansú	-7340
earra	-7341
eidil	-7342
eimid	-7343
eofaí	-7344
feron	-7345
fhonn	-7346
ghéar	-7347
gnamh	-7348
haipe	-7349
icítí	-7350
ileog	-7351
ilíní	-7352
imsiú	-7353
inntí	-7354
insím	-7355
iopló	-7356
isced	-7357
laise	-7358
litus	-7359
llmha	-7360
lúirí	-7361
miúil	-7362
málta	-7363
oicís	-7364
oimre	-7365
oirse	-7366
osaen	-7367
oíche	-7368
pacha	-7369
páirt	-7370
raoth	-7371
réidh	-7372
rínte	-7373
seala	-7374
seáil	-7375
spóid	-7376
sular	-7377
tease	-7378
teric	-7379
thais	-7380
thana	-7381
thear	-7382
titim	-7383
troma	-7384
uhani	-7385
urine	-7386
virus	-7387
ásach	-7388
éagró	-7389
éilte	-7390
óirín	-7391
óisir	-7392
▁2002	-7393
▁Inis	-7394
▁Ráta	-7395
▁Srón	-7396
▁aill	-7397
▁bolg	-7398
▁caif	-7399
▁cirt	-7400
▁dath	-7401
▁deas	-7402
▁gcos	-7403
▁glac	-7404
▁inst	-7405
▁loch	-7406
▁lomb	-7407
▁mhac	-7408
▁naoi	-7409
▁néar	-7410
▁oird	-7411
▁pail	-7412
▁scan	-7413
▁seis	-7414
▁soch	-7415
▁sárú	-7416
▁taom	-7417
▁thús	-7418
▁tion	-7419
aidrid	-7420
ailéid	-7421
ailíse	-7422
airdín	-7423
alartú	-7424
anacha	-7425
anssen	-7426
asacha	-7427
clease	-7428
clúidí	-7429
comhdh	-7430
dachas	-7431
daíoch	-7432
dhearc	-7433
dhúlra	-7434
dtéann	-7435
eagrán	-7436
eastas	-7437
eimirí	-7438
eipití	-7439
eistiú	-7440
eitril	-7441
enzhen	-7442
eánadh	-7443
fhórsa	-7444
guisín	-7445
iceáil	-7446
illeán	-7447
imintí	-7448
imiúil	-7449
imnigh	-7450
inavir	-7451
incess	-7452
iseann	-7453
ivíris	-7454
leácha	-7455
luaigh	-7456
lúdódh	-7457
mhairg	-7458
mheáin	-7459
mhíniú	-7460
náimhs	-7461
olgach	-7462
orainn	-7463
próirí	-7464
rnatio	-7465
réasán	-7466
rúpáil	-7467
scríbh	-7468
smacht	-7469
teanas	-7470
thráth	-7471
thuras	-7472
táimid	-7473
uaslag	-7474
uirbhé	-7475
useppe	-7476
ánacha	-7477
éarmaí	-7478
éasach	-7479
éising	-7480
íleann	-7481
úchadh	-7482
▁1,000	-7483
▁Anois	-7484
▁Bíodh	-7485
▁Cuimh	-7486
▁Ghlac	-7487
▁ambas	-7488
▁aoise	-7489
▁aosta	-7490
▁choth	-7491
▁chódú	-7492
▁civet	-7493
▁conte	-7494
▁cuimh	-7495
▁daing	-7496
▁dhéag	-7497
▁dóchú	-7498
▁fecal	-7499
▁fhill	-7500
▁fhuil	-7501
▁fiche	-7502
▁foley	-7503
▁gaire	-7504
▁ghéar	-7505
▁imigh	-7506
▁iontu	-7507
▁longa	-7508
▁línte	-7509
▁mbéal	-7510
▁ndaon	-7511
▁norma	-7512
▁ocras	-7513
▁páirc	-7514
▁ríofa	-7515
▁siopa	-7516
▁suímh	-7517
▁talún	-7518
▁tearc	-7519
▁thoil	-7520
▁throm	-7521
▁tuirc	-7522
▁turas	-7523
▁téach	-7524
▁téann	-7525
▁urlár	-7526
▁zhang	-7527
acebook	-7528
aigneas	-7529
aisleán	-7530
angzhou	-7531
biseach	-7532
chengen	-7533
cheonji	-7534
chlinic	-7535
chonair	-7536
chosúla	-7537
chuntas	-7538
coicíse	-7539
dhaonna	-7540
eacháin	-7541
eaglaim	-7542
ealaíne	-7543
eicnící	-7544
héirinn	-7545
impiste	-7546
iníocha	-7547
iomaigh	-7548
iomlána	-7549
meáchan	-7550
nasctha	-7551
naíocht	-7552
ochtana	-7553
omiting	-7554
oribonu	-7555
raítear	-7556
reascóp	-7557
ruinniú	-7558
searach	-7559
sinsear	-7560
síneadh	-7561
thaíonn	-7562
tómacha	-7563
túsóirí	-7564
ásaíonn	-7565
íochána	-7566
úshláin	-7567
úsáidfí	-7568
▁Coróin	-7569
▁aerála	-7570
▁agóidí	-7571
▁aonaid	-7572
▁ardáin	-7573
▁athróg	-7574
▁bheaga	-7575
▁braite	-7576
▁chaith	-7577
▁chothú	-7578
▁chúige	-7579
▁comhla	-7580
▁costas	-7581
▁cuidiú	-7582
▁cumann	-7583
▁dhlúth	-7584
▁dochar	-7585
▁einsím	-7586
▁fhearr	-7587
▁fiáine	-7588
▁gascun	-7589
▁gceann	-7590
▁gloine	-7591
▁glúine	-7592
▁insint	-7593
▁ioncam	-7594
▁ionchó	-7595
▁linnte	-7596
▁luatha	-7597
▁mbeart	-7598
▁mhaígh	-7599
▁máithr	-7600
▁neartú	-7601
▁ngrúpa	-7602
▁peataí	-7603
▁ráitis	-7604
▁samhna	-7605
▁theicn	-7606
▁thithe	-7607
▁thrian	-7608
▁téarma	-7609
aimhneas	-7610
ainíocha	-7611
aisteala	-7612
aivíreas	-7613
andamach	-7614
anmhairg	-7615
aothaire	-7616
ardaithe	-7617
ardasach	-7618
arrsheir	-7619
beartais	-7620
bhreithe	-7621
céadaoin	-7622
eanadach	-7623
earbhall	-7624
eipteach	-7625
eorpacha	-7626
foireann	-7627
ghabhann	-7628
gúltacht	-7629
homology	-7630
iabhrais	-7631
idéalach	-7632
inneamar	-7633
intíteas	-7634
ionnacht	-7635
ispheile	-7636
itonavir	-7637
laethúil	-7638
leathana	-7639
nachtana	-7640
ndéanfaí	-7641
oirthear	-7642
olsonaro	-7643
ordaíonn	-7644
pataigin	-7645
reideamh	-7646
rianghra	-7647
sceideal	-7648
sealacha	-7649
trialach	-7650
áireofaí	-7651
áiseanna	-7652
éarscáil	-7653
éillithe	-7654
óirdheon	-7655
▁2019-20	-7656
▁Dhearbh	-7657
▁Féadann	-7658
▁Seachas	-7659
▁Tarchur	-7660
▁Tinneas	-7661
▁aontais	-7662
▁breithe	-7663
▁buartha	-7664
▁bunaidh	-7665
▁cabhair	-7666
▁carnach	-7667
▁ceannas	-7668
▁chealla	-7669
▁chríoch	-7670
▁chúnamh	-7671
▁chúraim	-7672
▁cillian	-7673
▁cuirfiú	-7674
▁cúigear	-7675
▁dtabhar	-7676
▁duánach	-7677
▁dyspnea	-7678
▁dóthain	-7679
▁ealaíon	-7680
▁eatramh	-7681
▁féatais	-7682
▁gclinic	-7683
▁ghrúpaí	-7684
▁glasála	-7685
▁hopkins	-7686
▁iliomad	-7687
▁iomlána	-7688
▁meastar	-7689
▁morning	-7690
▁nascadh	-7691
▁ngníomh	-7692
▁núicléa	-7693
▁riaradh	-7694
▁shasana	-7695
▁teorann	-7696
▁túdarás	-7697
▁uilíoch	-7698
▁éireann	-7699
▁íochtar	-7700
achomharc	-7701
aidreacha	-7702
aiticiúil	-7703
alartacha	-7704
ansomware	-7705
antaiginí	-7706
bunscoile	-7707
ceadaithe	-7708
coimeádta	-7709
eabhraigh	-7710
indíreach	-7711
iúscartha	-7712
lonnaithe	-7713
maoineamh	-7714
mhairithe	-7715
mheiriceá	-7716
mheithimh	-7717
oifigiúla	-7718
oiriúnach	-7719
osaíochta	-7720
páirteach	-7721
riarachán	-7722
rnational	-7723
scaiptear	-7724
smaoinigh	-7725
sonraithe	-7726
tainéagró	-7727
tarlaíonn	-7728
tharlanna	-7729
thúlachta	-7730
toirmeasc	-7731
túsaíocht	-7732
ullmhacht	-7733
▁Paindéim	-7734
▁chabhair	-7735
▁chosanta	-7736
▁cruinniú	-7737
▁códaithe	-7738
▁dteannta	-7739
▁earraigh	-7740
▁eiseamal	-7741
▁eolaithe	-7742
▁gceantar	-7743
▁gclúdach	-7744
▁gcodanna	-7745
▁ghlanann	-7746
▁grósaera	-7747
▁lagaithe	-7748
▁leictreo	-7749
▁mhantáin	-7750
▁mheastar	-7751
▁mhórthír	-7752
▁míchumas	-7753
▁oiriúint	-7754
▁oirthear	-7755
▁poblacht	-7756
▁rochtana	-7757
▁sampláil	-7758
▁scáileán	-7759
▁shonrach	-7760
▁siomptóm	-7761
▁slabhraí	-7762
▁struchtú	-7763
▁súgartha	-7764
▁theiripe	-7765
▁téalainn	-7766
▁varadkar	-7767
▁ábhartha	-7768
▁áiseanna	-7769
▁éiginnte	-7770
anglaidéis	-7771
athbhliana	-7772
athscríobh	-7773
eathnaíonn	-7774
eimiceacha	-7775
géiniteach	-7776
tacaíochta	-7777
éiniteacha	-7778
▁Aclaíocht	-7779
▁Aithníodh	-7780
▁Comhairle	-7781
▁Cuimhnigh	-7782
▁Imeachtaí	-7783
▁Leanfaidh	-7784
▁Osclaíodh	-7785
▁Teagmháil	-7786
▁Tástáladh	-7787
▁achomharc	-7788
▁ainmníodh	-7789
▁bhainimid	-7790
▁bhfanfadh	-7791
▁bpróiseas	-7792
▁breataine	-7793
▁cailleadh	-7794
▁cambridge	-7795
▁choláiste	-7796
▁cumarsáid	-7797
▁dtosaíonn	-7798
▁dtréimhse	-7799
▁déanfaidh	-7800
▁foriomlán	-7801
▁féachaint	-7802
▁gcuireann	-7803
▁hastráile	-7804
▁imdhíonta	-7805
▁luimneach	-7806
▁mhíchumas	-7807
▁miondíola	-7808
▁míchumais	-7809
▁ndéanfadh	-7810
▁phacáiste	-7811
▁phataigin	-7812
▁scaipeann	-7813
▁shiondróm	-7814
▁socruithe	-7815
▁theoranta	-7816
▁toircheas	-7817
▁tráchtála	-7818
▁Úsáidtear	-7819
▁úsáideach	-7820
▁úsáideadh	-7821
ainisteoirí	-7822
bhfaigheann	-7823
chleachtadh	-7824
eachtaíocht	-7825
iamsaíochta	-7826
impeallacht	-7827
ionnachtain	-7828
ionnachtana	-7829
ocsaineacht	-7830
oibríochtaí	-7831
phleanáilte	-7832
pháirteanna	-7833
tabharfaidh	-7834
theaghlaigh	-7835
▁bhfianaise	-7836
▁bhforbairt	-7837
▁chabhróidh	-7838
▁compordach	-7839
▁cógaslanna	-7840
▁deimhníodh	-7841
▁dheimhnigh	-7842
▁dhromchlaí	-7843
▁earnálacha	-7844
▁forleithne	-7845
▁gcaitheann	-7846
▁gcéimeanna	-7847
▁ghanntanas	-7848
▁gníomhacha	-7849
▁gobharnóir	-7850
▁hainmhithe	-7851
▁idirdhealú	-7852
▁leachtanna	-7853
▁leathnaigh	-7854
▁phacastáin	-7855
▁riaracháin	-7856
▁réigiúnach	-7857
▁taispeáint	-7858
▁theagmháil	-7859
▁thiocfaidh	-7860
▁thurasóirí	-7861
▁woolworths	-7862
aighdeánacha	-7863
aistealaíonn	-7864
aiteolaíocht	-7865
díhiodráitiú	-7866
eangailteach	-7867
ianfhoghlaim	-7868
laicintíteas	-7869
mheánoirthir	-7870
natóireachta	-7871
ochtaineacht	-7872
phylogenetic	-7873
saineolaithe	-7874
▁Dhearbhaigh	-7875
▁	-7876
a	-7877
¦	-7878
i	-7879
h	-7880
n	-7881
r	-7882
e	-7883
t	-7884
s	-7885
o	-7886
c	-7887
l	-7888
d	-7889
g	-7890
á	-7891
m	-7892
u	-7893
í	-7894
b	-7895
f	-7896
é	-7897
ú	-7898
ó	-7899
.	-7900
,	-7901
p	-7902
v	-7903
-	-7904
1	-7905
𐋇	-7906
2	-7907
0	-7908
9	-7909
’	-7910
3	-7911
4	-7912
T	-7913
5	-7914
)	-7915
(	-7916
C	-7917
D	-7918
6	-7919
8	-7920
A	-7921
7	-7922
I	-7923
M	-7924
N	-7925
B	-7926
w	-7927
:	-7928
y	-7929
S	-7930
%	-7931
F	-7932
"	-7933
/	-7934
L	-7935
k	-7936
G	-7937
z	-7938
“	-7939
;	-7940
”	-7941
'	-7942
R	-7943
–	-7944
j	-7945
x	-7946
?	-7947
O	-7948
P	-7949
Ú	-7950
Ó	-7951
q	-7952
‘	-7953
V	-7954
$	-7955
[	-7956
]	-7957
&	-7958
U	-7959
E	-7960
Á	-7961
€	-7962
+	-7963
≥	-7964
H	-7965
Í	-7966
É	-7967
#	-7968
~	-7969
×	-7970
W	-7971
@	-7972
α	-7973
β	-7974
|	-7975
£	-7976
°	-7977
ã	-7978
ç	-7979
γ	-7980
—	-7981
武	-7982
肺	-7983
K	-7984
=	-7985
_	-7986
­	-7987
à	-7988
å	-7989
′	-7990
汉	-7991
漢	-7992
炎	-7993
J	-7994
X	-7995
Y	-7996
