<pad>	0
</s>	0
<unk>	0
s	-3.27396
▁the	-3.38407
.	-3.50881
,	-3.59505
▁of	-3.77877
▁and	-4.07131
▁to	-4.17825
▁in	-4.37547
▁a	-4.39877
▁	-4.44891
ing	-4.57648
ed	-4.6201
▁is	-4.70154
d	-4.89958
e	-5.06291
▁for	-5.12503
▁-	-5.20409
▁that	-5.23483
t	-5.27289
▁The	-5.36442
▁be	-5.37913
▁you	-5.38309
y	-5.47785
▁(	-5.4857
r	-5.49943
al	-5.50002
▁with	-5.54398
ly	-5.54489
▁not	-5.58518
▁are	-5.62613
▁or	-5.64838
▁on	-5.65682
)	-5.67404
er	-5.67446
▁it	-5.67751
n	-5.71407
i	-5.71781
▁'	-5.73301
▁as	-5.7614
▁by	-5.78175
a	-5.81702
▁s	-5.83035
▁have	-5.83897
▁from	-5.86211
▁was	-5.8644
▁I	-5.86734
▁will	-5.886
:	-5.89495
c	-5.90139
▁this	-5.94655
p	-5.96207
m	-5.96515
▁A	-5.97251
▁them	-5.98285
▁who	-5.99715
▁they	-6.00618
▁S	-6.00943
in	-6.02834
▁which	-6.04042
▁has	-6.07773
;	-6.10016
o	-6.13756
▁he	-6.14023
▁He	-6.1422
▁his	-6.15788
u	-6.16626
▁their	-6.17346
ation	-6.18283
▁an	-6.19203
es	-6.22522
or	-6.23362
b	-6.27507
l	-6.27702
ur	-6.29502
▁all	-6.31814
▁at	-6.38212
re	-6.39609
ar	-6.4
▁T	-6.40482
th	-6.4202
▁Allah	-6.42787
▁We	-6.44531
g	-6.46801
▁we	-6.48147
it	-6.48154
an	-6.48351
▁your	-6.48435
▁And	-6.49175
▁do	-6.50684
?	-6.51199
ion	-6.52326
▁C	-6.52785
f	-6.53385
st	-6.55827
-	-6.55846
k	-6.55846
▁one	-6.56078
▁India	-6.56869
ic	-6.5703
'	-6.57231
ra	-6.57807
▁can	-6.58034
le	-6.58958
▁but	-6.58972
▁p	-6.60397
▁In	-6.61394
▁been	-6.65587
on	-6.666
ment	-6.66927
▁It	-6.67548
▁P	-6.68668
▁were	-6.69152
w	-6.69412
▁so	-6.7059
▁people	-6.70778
en	-6.71354
▁when	-6.73774
▁B	-6.75407
▁him	-6.75885
▁"	-6.76345
at	-6.76476
▁re	-6.76854
ent	-6.78535
h	-6.79026
il	-6.79439
▁said	-6.80123
▁those	-6.80422
▁c	-6.82068
A	-6.83016
ir	-6.83366
ri	-6.84493
▁any	-6.84749
I	-6.85116
et	-6.85214
▁O	-6.8586
▁no	-6.85973
▁also	-6.86376
▁had	-6.87134
%	-6.87543
▁/	-6.87583
se	-6.87764
▁F	-6.89335
▁other	-6.90892
▁f	-6.91141
T	-6.9159
▁shall	-6.92414
▁there	-6.95093
▁what	-6.95368
▁G	-6.9537
▁out	-6.97209
able	-6.97747
ity	-6.97906
▁if	-6.99409
S	-6.99578
▁K	-6.99695
▁Lord	-6.99839
ers	-7.00433
O	-7.0125
um	-7.02059
▁up	-7.02334
▁may	-7.02849
▁our	-7.03143
ce	-7.03562
▁un	-7.04391
ate	-7.05227
!	-7.05253
li	-7.05392
▁de	-7.06174
▁E	-7.06469
▁its	-7.06591
la	-7.06729
_	-7.07504
▁This	-7.07607
▁God	-7.08011
ive	-7.09142
▁b	-7.09795
▁time	-7.10868
▁would	-7.11772
▁D	-7.12186
est	-7.14004
▁e	-7.15501
▁g	-7.15508
▁L	-7.161
▁M	-7.16362
▁only	-7.17174
ol	-7.1726
▁such	-7.17894
ter	-7.17962
▁made	-7.18341
▁under	-7.18867
▁like	-7.19712
C	-7.19728
am	-7.19801
▁me	-7.20779
P	-7.21457
▁“	-7.21717
▁m	-7.22173
ul	-7.22232
us	-7.23958
▁So	-7.25227
▁new	-7.2533
▁than	-7.25358
as	-7.25609
2	-7.25727
ad	-7.25803
ma	-7.25947
▁t	-7.26258
▁con	-7.26711
▁more	-7.26758
▁over	-7.27369
ch	-7.28171
▁Re	-7.28466
ous	-7.29111
▁then	-7.2981
▁R	-7.30967
ut	-7.31145
el	-7.31219
▁should	-7.31398
ant	-7.31852
▁into	-7.32216
▁N	-7.32941
▁about	-7.33847
vi	-7.34224
id	-7.34594
ha	-7.34825
▁my	-7.35328
▁some	-7.35458
▁us	-7.35833
is	-7.36816
D	-7.37228
▁life	-7.38388
▁two	-7.39421
N	-7.39961
▁They	-7.40003
ak	-7.40119
▁say	-7.40509
x	-7.41058
na	-7.41312
▁these	-7.41377
lo	-7.41465
ness	-7.41924
0	-7.42457
▁d	-7.42707
M	-7.42745
▁before	-7.43155
1	-7.43501
▁But	-7.43823
ary	-7.44805
▁”	-7.44811
▁3	-7.44978
z	-7.45052
▁work	-7.45403
▁W	-7.45894
ance	-7.47177
▁ex	-7.47185
]	-7.47578
▁[	-7.48721
and	-7.48876
▁good	-7.50715
▁world	-7.51036
▁after	-7.51039
▁w	-7.51656
H	-7.51742
▁n	-7.5195
▁go	-7.52394
v	-7.5272
E	-7.52783
to	-7.52929
ine	-7.53165
’	-7.53411
▁If	-7.53583
▁Indian	-7.55106
▁l	-7.56031
ta	-7.56224
ies	-7.56299
hi	-7.56867
▁Act	-7.57112
▁make	-7.5725
5	-7.57261
om	-7.57529
▁President	-7.57717
▁H	-7.58513
▁co	-7.58733
8	-7.58951
▁His	-7.59047
ya	-7.59602
3	-7.60892
▁To	-7.60925
▁per	-7.6129
▁used	-7.6139
▁1	-7.6166
R	-7.61985
▁through	-7.62157
▁between	-7.62193
▁where	-7.62376
▁day	-7.62636
sh	-7.63327
▁did	-7.63416
▁her	-7.64093
▁country	-7.64184
4	-7.64193
▁very	-7.64286
▁man	-7.65507
▁could	-7.65539
▁V	-7.65841
ist	-7.66308
ti	-7.66881
▁part	-7.66905
▁No	-7.67298
▁h	-7.67374
ow	-7.67456
▁well	-7.67776
ry	-7.68303
un	-7.68463
▁k	-7.6909
tion	-7.69092
ting	-7.69176
"	-7.69382
▁Government	-7.69709
ru	-7.70254
▁&	-7.70419
▁know	-7.70595
▁All	-7.70669
ab	-7.70704
age	-7.70905
▁down	-7.71122
ok	-7.71215
▁way	-7.7146
▁being	-7.71715
▁help	-7.7183
▁most	-7.72938
▁many	-7.73005
B	-7.73412
▁see	-7.73582
▁An	-7.73633
▁take	-7.73841
va	-7.7392
ll	-7.74204
co	-7.74291
▁come	-7.7435
▁among	-7.74754
▁back	-7.74812
).	-7.75229
▁give	-7.75324
▁For	-7.75854
),	-7.76685
▁You	-7.76737
6	-7.77178
▁form	-7.77835
ve	-7.77881
▁she	-7.78095
ful	-7.78263
ot	-7.78439
less	-7.78598
▁even	-7.79366
ac	-7.80317
▁upon	-7.80378
L	-7.81082
▁place	-7.81112
▁years	-7.81422
ud	-7.81497
ho	-7.81581
▁name	-7.81697
U	-7.81698
ence	-7.82017
op	-7.82249
▁first	-7.8248
▁against	-7.82568
ave	-7.83199
▁5	-7.83256
▁year	-7.83676
9	-7.8431
<	-7.84918
▁>	-7.84918
ia	-7.85688
em	-7.86206
G	-7.86219
▁earth	-7.86611
av	-7.8665
not	-7.86771
▁given	-7.86951
ish	-7.86956
out	-7.87357
▁need	-7.87439
▁believe	-7.87638
▁get	-7.87649
ell	-7.88067
ure	-7.88139
os	-7.88266
ne	-7.88767
ge	-7.89599
ag	-7.89646
▁Ma	-7.89692
▁sub	-7.89962
▁because	-7.89993
ever	-7.90146
▁There	-7.90416
▁set	-7.90921
ated	-7.91162
ng	-7.9122
▁pro	-7.91241
▁De	-7.91277
end	-7.91655
▁dis	-7.91729
▁sent	-7.91901
▁pre	-7.925
▁water	-7.92616
▁Him	-7.92617
▁every	-7.93633
ect	-7.93708
▁account	-7.93723
▁great	-7.94058
▁r	-7.94127
7	-7.94387
all	-7.95089
di	-7.95328
man	-7.95536
ty	-7.96316
▁want	-7.96339
▁right	-7.96409
▁On	-7.96843
▁end	-7.96881
▁power	-7.97141
▁number	-7.9716
▁another	-7.97201
tic	-7.97301
ian	-7.98089
▁must	-7.98097
▁When	-7.98268
me	-7.98342
▁own	-7.98519
▁does	-7.9908
tra	-7.99185
▁4	-7.99401
▁came	-7.99516
▁return	-7.99991
▁Do	-8.00106
▁order	-8.00244
ten	-8.00388
▁away	-8.00435
j	-8.01458
nd	-8.01937
▁use	-8.02402
ay	-8.02617
▁v	-8.02719
▁J	-8.02913
▁etc	-8.02917
▁system	-8.02992
▁now	-8.03385
▁2	-8.03983
▁men	-8.04423
the	-8.04835
▁clear	-8.04894
▁open	-8.05112
ig	-8.05376
▁Mo	-8.05488
▁am	-8.05523
te	-8.0565
▁bring	-8.05883
har	-8.059
."	-8.06459
▁turn	-8.06947
ther	-8.07282
▁just	-8.07955
▁become	-8.07956
ver	-8.08046
▁here	-8.08068
mo	-8.08355
iv	-8.0893
our	-8.09038
...	-8.09074
ite	-8.09225
▁ye	-8.09499
▁br	-8.09507
qu	-8.09687
▁di	-8.1104
▁public	-8.11113
▁fear	-8.11117
ack	-8.11423
ang	-8.11484
F	-8.11514
▁nor	-8.11523
ight	-8.1194
▁en	-8.1208
ard	-8.12083
ff	-8.12157
▁As	-8.1217
▁large	-8.13276
▁case	-8.13354
act	-8.1343
go	-8.14026
▁file	-8.14075
ial	-8.14097
ide	-8.14352
▁cause	-8.14389
▁Day	-8.1447
▁state	-8.15078
W	-8.15831
ap	-8.15919
”	-8.16187
▁State	-8.16244
▁person	-8.16278
ted	-8.16431
of	-8.16442
▁Lo	-8.1657
▁development	-8.16661
▁comp	-8.16936
▁Me	-8.16967
▁U	-8.17212
▁high	-8.17394
▁Sa	-8.17576
▁same	-8.17752
▁La	-8.17758
▁found	-8.17817
▁sp	-8.1797
pp	-8.18168
han	-8.18319
▁called	-8.1864
ana	-8.18708
▁St	-8.1883
up	-8.18883
per	-8.19367
▁dur	-8.19657
▁long	-8.19733
▁Na	-8.19968
▁look	-8.20096
▁0	-8.20153
cy	-8.20221
he	-8.20305
mb	-8.20373
▁mo	-8.20444
▁6	-8.20702
ach	-8.20821
▁show	-8.20936
▁while	-8.21234
▁different	-8.21248
▁find	-8.21255
▁date	-8.21413
▁Nation	-8.21792
▁ma	-8.22118
▁land	-8.22136
▁process	-8.22425
▁how	-8.22584
▁What	-8.22619
▁both	-8.22723
▁section	-8.22965
ism	-8.23223
lu	-8.23281
de	-8.23528
▁provide	-8.23636
ast	-8.23833
▁things	-8.24895
▁OF	-8.24971
▁view	-8.25144
ward	-8.2516
▁follow	-8.25256
▁live	-8.25266
▁Al	-8.2583
▁Ch	-8.25941
mp	-8.26014
▁period	-8.26083
▁much	-8.26084
▁Be	-8.26313
▁7	-8.2642
mi	-8.26638
▁com	-8.27277
▁present	-8.2759
▁created	-8.2772
▁Ka	-8.27781
▁support	-8.28599
▁group	-8.28599
▁information	-8.286
▁except	-8.28605
pe	-8.28988
▁call	-8.29074
ick	-8.29149
▁law	-8.29844
▁whom	-8.29901
▁change	-8.29922
▁interest	-8.29933
/	-8.29994
▁hand	-8.30041
▁Pa	-8.30173
ions	-8.30763
V	-8.31024
▁i	-8.31106
▁women	-8.31185
▁face	-8.31211
be	-8.31248
▁service	-8.31273
pa	-8.32411
▁think	-8.32496
▁ho	-8.32546
▁bo	-8.32854
▁Ha	-8.33315
ture	-8.33384
▁Ra	-8.33428
▁10	-8.33596
▁toward	-8.34186
▁8	-8.34399
gen	-8.34435
pati	-8.34986
▁truth	-8.35137
▁sh	-8.35291
▁Con	-8.35545
ain	-8.35557
▁9	-8.35792
▁Di	-8.35954
ical	-8.35999
ph	-8.36053
▁wrong	-8.3655
▁‘	-8.3655
▁human	-8.36551
▁each	-8.36654
▁point	-8.3686
▁Un	-8.36907
ber	-8.37557
▁gra	-8.37791
▁Then	-8.37813
ship	-8.37938
▁Po	-8.38023
▁share	-8.38126
▁message	-8.38305
▁lo	-8.39065
▁consider	-8.39136
▁important	-8.39366
▁Shri	-8.39451
▁19	-8.39751
tu	-8.39823
▁taken	-8.39993
▁government	-8.40776
▁amount	-8.40777
▁small	-8.40778
▁Book	-8.40807
▁–	-8.4082
▁let	-8.40873
▁pass	-8.4123
▁again	-8.42071
▁house	-8.42093
▁indeed	-8.42244
▁Rs	-8.4228
▁New	-8.42315
▁never	-8.42323
▁Who	-8.42345
▁four	-8.42482
▁My	-8.42537
ile	-8.42572
▁put	-8.42651
ja	-8.42724
▁best	-8.43075
▁Say	-8.43155
Y	-8.43173
▁value	-8.43698
▁evil	-8.43698
▁Ja	-8.43771
▁Sh	-8.44528
▁knowledge	-8.45189
▁social	-8.45189
▁last	-8.45268
▁list	-8.45355
▁action	-8.45468
bi	-8.45586
▁off	-8.45635
ally	-8.45802
ah	-8.46014
ai	-8.46272
ise	-8.4643
▁language	-8.46704
▁Bhavan	-8.46704
▁education	-8.46728
▁home	-8.46787
▁18	-8.46826
ious	-8.47123
▁today	-8.47553
line	-8.47647
▁love	-8.48225
:%	-8.4824
▁Rashtra	-8.48242
▁free	-8.48277
▁report	-8.48305
▁means	-8.48363
▁far	-8.48445
ba	-8.48562
nt	-8.48624
unt	-8.48682
▁age	-8.48816
▁send	-8.4886
▁known	-8.4897
▁old	-8.48998
▁act	-8.4938
ling	-8.49545
▁o	-8.49729
▁Man	-8.49743
▁project	-8.49813
▁vari	-8.49837
▁str	-8.49976
▁Pro	-8.50048
ea	-8.50266
tor	-8.50601
hu	-8.50659
▁side	-8.50816
▁Central	-8.51392
▁business	-8.51392
▁left	-8.51392
▁children	-8.51393
▁remain	-8.51394
▁better	-8.51402
▁Ex	-8.51429
pr	-8.51618
K	-8.51817
men	-8.51854
ail	-8.52207
one	-8.52422
▁Minister	-8.53005
▁address	-8.53005
▁type	-8.53006
▁income	-8.53009
▁Co	-8.53283
▁heavens	-8.53944
▁She	-8.54264
ors	-8.54464
▁within	-8.54608
▁read	-8.54608
▁control	-8.54644
▁contain	-8.54645
tri	-8.5471
▁light	-8.54728
▁surely	-8.54897
ill	-8.55342
▁done	-8.55379
pi	-8.55722
▁po	-8.55883
▁cent	-8.56127
ash	-8.56304
▁Hindu	-8.56311
▁command	-8.56312
▁folder	-8.56312
▁level	-8.56312
▁sector	-8.56313
▁window	-8.56328
▁Show	-8.56365
eth	-8.56588
▁Mu	-8.56899
▁plan	-8.56927
▁20	-8.56992
▁whe	-8.57143
der	-8.57202
RA	-8.57764
▁court	-8.58013
▁something	-8.58066
▁11	-8.58212
▁cost	-8.58471
▁al	-8.58495
IT	-8.59008
ator	-8.59254
▁One	-8.59407
▁faith	-8.5973
▁company	-8.59731
▁true	-8.59731
▁still	-8.59734
▁equal	-8.59752
▁whole	-8.59875
nic	-8.60101
ari	-8.60656
▁book	-8.60794
da	-8.60929
▁play	-8.61162
▁matter	-8.61167
▁three	-8.61485
▁Bengal	-8.61485
▁along	-8.61486
▁ask	-8.61508
▁non	-8.61542
▁pay	-8.6162
▁Dr	-8.61996
ify	-8.62035
ept	-8.62685
que	-8.628
▁vi	-8.62866
if	-8.63203
nce	-8.63217
▁rule	-8.63228
▁Gandhi	-8.63259
▁child	-8.6327
▁punishment	-8.6327
▁keep	-8.63271
▁common	-8.63271
ified	-8.63353
land	-8.63397
▁rec	-8.63463
▁Pre	-8.63471
▁based	-8.63528
▁unto	-8.63554
pur	-8.63613
ran	-8.63901
ug	-8.64232
▁signs	-8.6431
▁Go	-8.64638
HE	-8.64972
▁market	-8.65149
▁current	-8.65232
▁hard	-8.6525
ign	-8.6536
gu	-8.65478
▁body	-8.65546
▁less	-8.65985
▁includ	-8.66198
▁fact	-8.66229
▁j	-8.66374
for	-8.66461
The	-8.66491
▁family	-8.6694
▁Delhi	-8.66941
▁death	-8.66943
▁near	-8.66948
▁thing	-8.66991
ble	-8.67492
▁Br	-8.6756
ome	-8.67628
press	-8.67633
oc	-8.67681
▁due	-8.67701
▁met	-8.67844
ition	-8.67972
ev	-8.68004
▁plant	-8.68146
▁areas	-8.68252
▁Ar	-8.68369
amp	-8.68403
fi	-8.68515
▁result	-8.68827
▁Muslim	-8.68827
▁Pleas	-8.68828
▁self	-8.68831
▁general	-8.68832
▁visit	-8.68834
▁held	-8.68846
▁tree	-8.68848
▁199	-8.6888
▁father	-8.68882
ka	-8.6892
▁That	-8.68943
▁nation	-8.6911
▁members	-8.69134
▁rep	-8.69483
▁full	-8.69504
lic	-8.69587
▁imp	-8.69602
▁par	-8.69733
▁reason	-8.69824
▁sea	-8.69923
▁seen	-8.69961
▁li	-8.70043
hose	-8.70074
ee	-8.70082
▁tra	-8.70161
▁going	-8.70293
▁heart	-8.70297
▁too	-8.70299
▁line	-8.706
war	-8.70623
▁Messenger	-8.7075
▁Israel	-8.7075
▁achiev	-8.7075
▁together	-8.70751
▁House	-8.70766
▁respect	-8.70839
▁economic	-8.70855
ory	-8.70864
▁position	-8.71084
fer	-8.71324
ock	-8.7148
use	-8.71765
▁At	-8.71947
▁hav	-8.72047
▁complete	-8.72117
▁Raj	-8.72227
▁days	-8.7234
▁gu	-8.72616
▁already	-8.72711
▁application	-8.72711
▁himself	-8.72711
▁major	-8.72711
▁operation	-8.72711
▁local	-8.72734
ER	-8.72856
▁Indeed	-8.72869
▁deeds	-8.72912
▁sin	-8.73041
▁seek	-8.73095
▁national	-8.73149
▁meeting	-8.7337
(	-8.73527
▁Th	-8.73648
▁ab	-8.74109
▁provided	-8.74378
▁start	-8.74428
—	-8.74711
▁themselves	-8.74711
▁path	-8.74719
▁Singh	-8.74729
▁Su	-8.75139
▁main	-8.75251
▁close	-8.75312
▁required	-8.75411
▁war	-8.7568
▁accept	-8.75741
den	-8.76473
▁ro	-8.76616
▁little	-8.76752
▁provision	-8.76752
▁data	-8.76755
▁might	-8.76899
▁friend	-8.77098
AR	-8.77384
▁Ro	-8.77686
▁Ju	-8.77847
ali	-8.78191
ara	-8.78427
▁field	-8.78835
▁sense	-8.78842
▁subject	-8.78846
▁kind	-8.78854
▁food	-8.78914
▁run	-8.79018
▁Can	-8.79104
▁exist	-8.79183
ga	-8.79194
▁selected	-8.79293
▁special	-8.79305
20	-8.80106
▁term	-8.80258
val	-8.80558
▁certain	-8.80565
▁Pra	-8.806
▁Bo	-8.80607
ize	-8.80749
▁character	-8.80955
▁second	-8.80963
▁security	-8.80963
▁particular	-8.80963
▁always	-8.80963
▁question	-8.80964
▁limit	-8.80965
▁key	-8.80971
▁mother	-8.81056
▁available	-8.81177
▁Bha	-8.81316
▁ha	-8.8179
▁area	-8.82074
▁head	-8.82096
▁require	-8.8238
▁15	-8.82648
▁Com	-8.82736
▁effect	-8.83051
▁activities	-8.83137
▁financi	-8.83137
▁price	-8.83138
▁countries	-8.83141
▁brought	-8.83161
▁arm	-8.83268
▁inter	-8.83276
ven	-8.83327
▁son	-8.83359
ability	-8.83393
▁Z	-8.83441
▁post	-8.83508
▁car	-8.83525
▁die	-8.83981
▁mis	-8.8402
mission	-8.8409
▁words	-8.84134
ner	-8.84204
vel	-8.84638
red	-8.84772
▁times	-8.84784
ple	-8.84801
▁Or	-8.85142
▁believed	-8.85268
▁religion	-8.85359
▁above	-8.85359
▁living	-8.85361
▁example	-8.85374
▁link	-8.85375
▁class	-8.85425
▁night	-8.85478
▁25	-8.85479
pro	-8.8559
tive	-8.85814
▁test	-8.85821
▁000	-8.8586
ush	-8.86278
mer	-8.863
▁Unit	-8.8641
▁Let	-8.86431
verse	-8.86505
▁young	-8.86538
▁reach	-8.86842
▁art	-8.8716
cal	-8.87566
▁occasion	-8.87632
▁scheme	-8.87632
▁region	-8.87635
▁clause	-8.87639
▁mind	-8.87643
tan	-8.87695
ik	-8.88086
▁disc	-8.88674
▁lead	-8.88809
▁sl	-8.88864
ca	-8.8905
▁12	-8.89064
do	-8.89182
ries	-8.89368
ound	-8.89502
ating	-8.89837
▁stand	-8.89943
▁difficult	-8.89957
▁benefit	-8.89957
▁purpose	-8.89957
▁material	-8.89957
▁measure	-8.89958
▁witness	-8.89958
▁Select	-8.89958
▁therefore	-8.89965
▁short	-8.89966
▁worship	-8.89968
▁few	-8.9004
ranab	-8.90202
▁Ba	-8.91162
▁yet	-8.91168
▁include	-8.91286
▁cha	-8.91367
▁eas	-8.91464
ani	-8.9171
▁others	-8.92048
▁hold	-8.92099
▁Y	-8.9213
▁product	-8.92168
▁thou	-8.92327
}	-8.92338
▁English	-8.92338
▁PRESIDENT	-8.92338
▁research	-8.92338
▁village	-8.92338
▁next	-8.92338
▁error	-8.92338
▁further	-8.92339
▁computer	-8.92339
▁regard	-8.92339
▁record	-8.9234
▁source	-8.9234
▁text	-8.9234
▁until	-8.92345
▁desire	-8.92345
▁around	-8.92345
▁health	-8.9235
▁Sabha	-8.92359
▁image	-8.92382
▁Bank	-8.92437
▁later	-8.92491
ou	-8.92532
▁enter	-8.92565
▁rest	-8.92723
ities	-8.92834
▁able	-8.92848
ade	-8.92887
ible	-8.93002
▁tax	-8.93141
aj	-8.93327
▁sign	-8.93399
low	-8.93463
▁fo	-8.93552
▁Sub	-8.93757
▁cut	-8.9392
▁create	-8.94025
▁bi	-8.94219
▁personal	-8.94261
ification	-8.94363
▁Le	-8.94584
▁Committee	-8.94777
▁Parliament	-8.94777
▁produce	-8.94777
▁High	-8.94778
▁making	-8.94784
RB	-8.94798
▁real	-8.95022
▁mail	-8.95145
▁ground	-8.95236
▁total	-8.95463
▁received	-8.95622
▁either	-8.9578
▁im	-8.95785
came	-8.95823
▁books	-8.95835
ier	-8.96023
▁rate	-8.96162
▁learn	-8.96215
ON	-8.96504
▁Mi	-8.96514
▁force	-8.96648
ie	-8.96795
AL	-8.97263
▁enjoy	-8.97277
▁natural	-8.97277
▁entire	-8.97277
▁several	-8.97281
▁Arab	-8.97354
▁million	-8.97355
▁movement	-8.9739
▁told	-8.97523
▁fall	-8.97575
ative	-8.97715
▁Ag	-8.97932
referred	-8.98186
▁persons	-8.98294
▁States	-8.98305
▁bank	-8.98678
▁Vi	-8.99113
ala	-8.99296
▁office	-8.99468
▁access	-8.99628
▁offer	-8.99708
▁hearts	-8.99811
▁disbelieve	-8.99826
▁INDIA	-8.99841
▁industry	-8.99841
▁website	-8.99841
▁policy	-8.99841
▁transfer	-8.99842
▁management	-8.99842
▁draw	-8.99842
▁individual	-8.99843
spect	-8.99846
▁temple	-8.9988
▁once	-8.9989
▁authority	-8.99915
▁flow	-8.99946
aught	-9.00029
ES	-9.00234
▁Most	-9.00267
We	-9.00315
ix	-9.004
▁:	-9.00421
ized	-9.00543
▁five	-9.00568
▁sure	-9.00593
▁ever	-9.0062
▁fund	-9.00762
bo	-9.0115
ists	-9.01189
ization	-9.01258
section	-9.01314
▁understand	-9.01413
fic	-9.01423
▁care	-9.01576
19	-9.01705
▁direct	-9.01715
▁guide	-9.01747
amb	-9.01892
gar	-9.01951
▁though	-9.01987
▁word	-9.02183
old	-9.02252
▁West	-9.02343
▁event	-9.02417
▁appear	-9.02473
▁community	-9.02473
▁happen	-9.02473
▁population	-9.02473
▁remember	-9.02473
▁crore	-9.02473
▁peace	-9.02473
▁strong	-9.02473
▁behind	-9.02474
▁money	-9.02474
▁patient	-9.02475
▁stay	-9.02489
▁nothing	-9.02525
▁since	-9.02622
cu	-9.02648
▁role	-9.02658
taking	-9.02753
▁Some	-9.02806
▁leave	-9.02851
time	-9.0287
rat	-9.02874
way	-9.03078
▁really	-9.03128
▁Prim	-9.03398
▁30	-9.03446
00	-9.03741
▁save	-9.03973
kar	-9.04119
her	-9.047
rate	-9.04979
▁services	-9.0498
ternal	-9.04992
▁hands	-9.05131
▁got	-9.05151
▁University	-9.05175
▁district	-9.05175
▁experience	-9.05175
▁school	-9.05175
▁written	-9.05175
▁custom	-9.05176
▁capital	-9.05176
▁element	-9.05177
▁creation	-9.05179
▁Constitution	-9.05179
▁Islam	-9.05182
▁brother	-9.05193
▁+	-9.05194
▁teach	-9.05221
▁growth	-9.05288
▁Fire	-9.05314
▁forth	-9.05332
een	-9.05387
▁hear	-9.05424
▁deal	-9.0549
▁cell	-9.05532
▁ca	-9.05533
▁ver	-9.05596
▁user	-9.05602
ought	-9.0566
part	-9.05733
▁17	-9.05759
ern	-9.05984
ood	-9.06077
▁Not	-9.0632
bar	-9.06331
▁Your	-9.06712
▁ten	-9.06752
▁develop	-9.06809
▁Ho	-9.07069
▁Mon	-9.07247
▁increase	-9.075
▁following	-9.07522
▁allow	-9.07722
▁wish	-9.07909
▁Pradesh	-9.07953
▁network	-9.07953
▁suffer	-9.07953
▁political	-9.07953
▁previous	-9.07953
▁Court	-9.07957
▁(1)	-9.07965
▁RRB	-9.08032
▁outside	-9.08037
▁Mar	-9.08047
▁wide	-9.08122
▁fire	-9.08214
gh	-9.08418
▁page	-9.08521
▁related	-9.08629
▁soul	-9.0876
▁1.	-9.08889
▁seem	-9.08979
ility	-9.09232
own	-9.09304
mm	-9.0944
ler	-9.09635
▁Va	-9.1009
day	-9.10208
▁du	-9.1061
board	-9.10627
▁em	-9.10759
lock	-9.10761
▁Mr	-9.10802
▁Ministry	-9.1081
▁environment	-9.1081
▁international	-9.1081
▁quality	-9.1081
▁future	-9.10811
▁century	-9.10812
▁prevent	-9.10814
▁story	-9.10819
▁anything	-9.10827
gan	-9.10833
▁private	-9.10841
▁move	-9.10879
▁bear	-9.10881
▁investment	-9.10886
IC	-9.10919
ju	-9.10969
▁technology	-9.10977
hief	-9.11034
▁appointed	-9.11061
▁decide	-9.11063
▁carrie	-9.11066
▁whatever	-9.11138
▁List	-9.11158
▁six	-9.11197
▁certainly	-9.11349
ump	-9.11362
▁deposit	-9.11381
▁established	-9.11416
▁original	-9.11455
▁trust	-9.11592
ex	-9.11771
rn	-9.11846
▁knows	-9.11911
▁ti	-9.12391
mark	-9.12434
either	-9.12588
▁receive	-9.12726
▁concern	-9.12738
most	-9.13055
▁working	-9.13407
hil	-9.13625
ference	-9.13712
▁program	-9.13722
▁perform	-9.13742
▁Development	-9.13752
▁capacity	-9.13752
▁Hindi	-9.13752
▁method	-9.13752
▁basis	-9.13752
▁fruit	-9.13752
▁contact	-9.13753
▁task	-9.13753
▁course	-9.13753
▁Congress	-9.13758
▁modern	-9.1376
▁progress	-9.13761
▁thus	-9.13772
release	-9.13799
▁14	-9.13979
lip	-9.14054
▁Union	-9.14077
▁host	-9.14226
ji	-9.14274
▁thought	-9.14344
▁building	-9.14431
▁step	-9.1449
uk	-9.15032
▁continue	-9.15172
ada	-9.1527
sha	-9.15454
ung	-9.15577
gro	-9.15606
▁don	-9.15675
port	-9.15788
fully	-9.15907
▁function	-9.15961
▁problem	-9.15985
▁pur	-9.16174
DE	-9.1628
▁size	-9.16307
ised	-9.16313
form	-9.16364
▁bar	-9.16411
nk	-9.16411
▁changes	-9.16697
▁spirit	-9.16781
▁global	-9.16782
▁instrument	-9.16782
▁mountain	-9.16782
▁necessary	-9.16782
▁British	-9.16782
▁credit	-9.16782
▁writing	-9.16782
▁freedom	-9.16783
▁speak	-9.16784
▁verily	-9.16784
▁music	-9.16793
▁stage	-9.16798
▁drive	-9.16799
▁shape	-9.16819
▁believers	-9.16861
▁town	-9.16951
▁production	-9.17
▁13	-9.17025
▁statement	-9.17137
▁revealed	-9.17142
▁Muhammad	-9.17248
▁big	-9.17263
gri	-9.17559
over	-9.17931
▁lay	-9.17944
▁soon	-9.18357
az	-9.18867
▁cu	-9.19009
adi	-9.19169
▁doing	-9.19426
▁serve	-9.19501
▁meet	-9.19663
▁turned	-9.19843
IS	-9.19853
▁represent	-9.19894
▁doubt	-9.19907
▁judge	-9.19907
▁society	-9.19907
▁Prophet	-9.19907
▁blood	-9.19907
▁disease	-9.19907
▁device	-9.19907
▁video	-9.19908
▁profit	-9.19909
▁why	-9.19909
▁With	-9.19911
▁paper	-9.19913
▁charge	-9.19976
▁26	-9.20047
▁Us	-9.20048
ew	-9.20075
yan	-9.20107
▁fight	-9.20207
▁using	-9.20241
▁try	-9.20273
▁past	-9.2032
▁East	-9.20412
tical	-9.20442
▁Min	-9.20526
mun	-9.20846
ton	-9.20857
▁weak	-9.20875
▁issue	-9.2101
▁allowed	-9.21059
▁port	-9.21063
we	-9.21078
aint	-9.21102
▁Dur	-9.21472
▁By	-9.21674
▁favour	-9.21743
▁Ram	-9.21972
▁cover	-9.22394
▁join	-9.22604
wi	-9.22608
▁member	-9.22608
▁Ne	-9.22619
IN	-9.22704
▁express	-9.23024
▁Public	-9.23133
▁similar	-9.23133
▁drink	-9.23133
▁spread	-9.23133
▁affect	-9.23134
▁decision	-9.23136
▁South	-9.23139
▁seven	-9.23143
▁vision	-9.23147
▁stone	-9.2315
▁firm	-9.23158
▁Mukherjee	-9.23168
▁usual	-9.23193
▁objective	-9.23204
▁carry	-9.23207
▁deep	-9.23208
▁Name	-9.23241
lim	-9.23419
▁sw	-9.23466
▁{	-9.23548
▁rules	-9.23573
▁rights	-9.23702
?"	-9.23834
ugh	-9.24001
▁reduc	-9.24494
▁none	-9.24562
par	-9.24577
▁files	-9.2467
▁factor	-9.24701
▁pain	-9.24712
ID	-9.24748
▁started	-9.2481
graph	-9.24943
cross	-9.25257
ank	-9.25269
ze	-9.25566
▁author	-9.2567
▁therein	-9.25725
uck	-9.25733
▁Maha	-9.25776
▁month	-9.25996
▁tri	-9.26099
tar	-9.26364
CC	-9.26386
▁ste	-9.26451
▁rur	-9.26451
▁Africa	-9.26466
▁Republic	-9.26466
▁Service	-9.26466
▁specified	-9.26466
▁exchange	-9.26466
▁itself	-9.26468
▁search	-9.2647
▁demand	-9.2647
▁super	-9.26474
▁literature	-9.26486
▁energy	-9.26494
▁Moses	-9.26509
▁Board	-9.26517
▁Plan	-9.26523
▁alone	-9.26528
anda	-9.26539
▁kill	-9.26596
giving	-9.26607
▁conduct	-9.26629
▁letter	-9.26669
▁setting	-9.2667
▁prepared	-9.26687
▁invit	-9.26783
▁server	-9.26914
▁months	-9.26942
▁Mahat	-9.26998
▁air	-9.27001
▁below	-9.27102
▁x	-9.27244
▁problems	-9.27351
▁Now	-9.2742
▁city	-9.27599
▁comes	-9.27717
▁mark	-9.27742
▁greater	-9.27791
▁che	-9.27811
▁para	-9.27934
▁forward	-9.28162
▁Pat	-9.28447
▁asked	-9.28471
ural	-9.28656
▁party	-9.28661
▁op	-9.2873
▁fi	-9.28787
▁trade	-9.28807
▁fel	-9.28982
▁messages	-9.29004
▁belongs	-9.29146
▁%	-9.29397
ram	-9.29503
▁add	-9.29556
▁Are	-9.29704
▁institution	-9.29808
▁treat	-9.29815
▁http	-9.29914
▁Verily	-9.29914
▁destroy	-9.29914
▁secret	-9.29914
▁Department	-9.29914
▁article	-9.29915
▁document	-9.29915
▁check	-9.29915
▁civil	-9.29915
▁honour	-9.29915
▁failed	-9.29917
▁Open	-9.29919
▁design	-9.29921
▁War	-9.29922
▁paid	-9.29922
▁scale	-9.29923
▁saw	-9.29928
▁disbelievers	-9.29935
▁request	-9.29975
▁grant	-9.29991
▁however	-9.30026
▁Add	-9.30042
▁protection	-9.30076
▁mention	-9.30117
▁poet	-9.30197
▁Bill	-9.3021
▁reward	-9.30256
▁Have	-9.30259
▁loan	-9.30309
▁lost	-9.30336
▁officer	-9.30521
▁matters	-9.30549
▁training	-9.30581
▁increased	-9.30872
▁Up	-9.309
▁App	-9.31013
▁issues	-9.31422
ather	-9.32095
▁manag	-9.32117
▁mean	-9.32188
▁cap	-9.32239
▁passed	-9.3239
▁tran	-9.32584
tax	-9.32686
▁terms	-9.32773
▁Par	-9.32879
▁conditions	-9.33263
▁eye	-9.33296
▁Car	-9.33299
soever	-9.33422
▁unit	-9.33432
▁Calcutta	-9.33486
▁Education	-9.33486
▁policies	-9.33486
▁yourselves	-9.33486
▁General	-9.33486
▁happy	-9.33486
▁depend	-9.33487
▁After	-9.33489
▁central	-9.3349
▁history	-9.33491
▁Power	-9.33491
▁culture	-9.33497
▁content	-9.33502
▁touch	-9.33511
▁deny	-9.33512
▁describ	-9.33527
▁single	-9.33541
▁possible	-9.33568
▁practice	-9.33568
▁197	-9.33579
▁front	-9.3373
▁eight	-9.33779
bha	-9.33786
▁tell	-9.338
▁early	-9.33837
▁flu	-9.33932
▁Use	-9.33965
▁sound	-9.34023
▁Ko	-9.34071
▁acc	-9.34139
▁Gu	-9.34152
▁cast	-9.34192
▁issued	-9.34358
bel	-9.34422
right	-9.34676
RI	-9.35002
▁gene	-9.35142
▁aspect	-9.35268
son	-9.35295
isation	-9.35837
like	-9.36024
atic	-9.36204
▁opens	-9.36515
▁aid	-9.36774
RE	-9.36809
ham	-9.36817
▁idea	-9.36903
▁pan	-9.36907
▁collect	-9.36911
let	-9.36947
▁protect	-9.37017
▁eat	-9.37035
▁placed	-9.37041
lin	-9.37049
▁Council	-9.37189
▁approach	-9.37189
▁mankind	-9.37189
▁unbelievers	-9.37189
▁specific	-9.37189
▁third	-9.3719
▁execut	-9.3719
▁claim	-9.3719
▁focus	-9.37191
▁wait	-9.37196
▁Surely	-9.37197
▁color	-9.37199
▁bird	-9.37202
▁week	-9.37206
▁plus	-9.3723
▁standard	-9.3724
▁duty	-9.37242
▁reject	-9.37255
▁export	-9.37262
▁active	-9.37406
▁till	-9.37431
▁eyes	-9.37432
▁fill	-9.37484
▁sale	-9.37564
▁institutions	-9.37575
▁How	-9.3761
arch	-9.37696
▁Qu	-9.37871
▁works	-9.38031
▁says	-9.38293
▁efforts	-9.38331
▁Inter	-9.38379
▁concerned	-9.38486
▁leading	-9.38905
▁Whe	-9.39023
▁meaning	-9.3908
▁students	-9.39099
nch	-9.39165
▁lie	-9.3918
spite	-9.39327
▁Har	-9.39403
▁lot	-9.39496
▁Pri	-9.39499
bb	-9.40144
▁Fi	-9.40292
▁friends	-9.40382
▁Sri	-9.40444
▁qua	-9.40563
):	-9.40611
script	-9.40622
▁clo	-9.40792
▁object	-9.4095
://	-9.41035
▁Error	-9.41036
▁International	-9.41036
▁Scheme	-9.41036
▁behalf	-9.41036
▁regulat	-9.41036
▁answer	-9.41036
▁job	-9.41036
▁righteous	-9.41037
▁Section	-9.41038
▁mercy	-9.41038
▁nature	-9.41039
▁adopt	-9.4104
▁attain	-9.41041
▁industrial	-9.41042
▁employee	-9.41059
▁property	-9.41063
▁However	-9.41075
▁percent	-9.41078
htm	-9.41078
▁option	-9.41094
▁Could	-9.41127
▁manner	-9.41135
▁196	-9.41154
cular	-9.41159
▁Such	-9.41176
▁Will	-9.41209
▁Even	-9.41213
▁earn	-9.4154
▁dead	-9.41816
▁lies	-9.41902
▁centre	-9.41911
▁16	-9.4228
lay	-9.42403
ov	-9.42506
side	-9.42605
AM	-9.4264
▁Where	-9.42851
▁goods	-9.43339
▁parts	-9.43453
▁Jo	-9.4348
▁success	-9.4357
▁Cha	-9.43589
▁refer	-9.43836
J	-9.43837
▁grow	-9.43848
▁citizen	-9.43883
▁makes	-9.44035
with	-9.44091
▁fr	-9.44136
▁Rama	-9.44416
▁Of	-9.44724
ini	-9.44874
▁’	-9.45033
▁Institute	-9.45036
▁World	-9.45036
▁advance	-9.45036
▁messenger	-9.45036
▁degree	-9.45036
▁display	-9.45036
▁approv	-9.45036
▁guidance	-9.45036
▁Information	-9.45036
▁earlier	-9.45036
▁implement	-9.45036
▁police	-9.45036
▁garden	-9.45037
▁folk	-9.45037
▁Work	-9.45038
▁break	-9.45038
▁foreign	-9.45071
▁consist	-9.4509
▁Under	-9.45103
▁poem	-9.45139
▁198	-9.45184
▁treatment	-9.45187
▁rain	-9.45205
▁published	-9.45224
From	-9.45247
▁condition	-9.45287
▁bill	-9.45332
External	-9.45443
▁Bas	-9.45541
▁legal	-9.45644
fo	-9.45674
▁according	-9.45753
ological	-9.45806
▁hour	-9.45826
▁sun	-9.46082
▁Well	-9.46261
▁higher	-9.46303
▁resources	-9.46439
▁developed	-9.46527
▁Hell	-9.4663
cc	-9.46879
▁Bi	-9.47176
▁Asia	-9.47229
dict	-9.47263
▁gas	-9.47451
cultur	-9.4758
▁rivers	-9.47778
gram	-9.47809
▁Ku	-9.47982
▁relat	-9.48058
▁expect	-9.48178
▁extend	-9.48185
ula	-9.48223
▁ear	-9.48235
▁presented	-9.4836
▁Kar	-9.48403
AS	-9.48442
▁leg	-9.48575
▁saying	-9.49167
▁Krishna	-9.49202
▁assessee	-9.49202
▁essential	-9.49202
▁observ	-9.49202
▁responsibility	-9.49202
▁enough	-9.49202
▁Address	-9.49203
▁burden	-9.49203
▁angels	-9.49203
▁lakh	-9.49203
▁remind	-9.49203
▁session	-9.49203
▁beginning	-9.49204
▁Every	-9.49204
▁basic	-9.49205
▁birth	-9.49205
▁medical	-9.49207
▁justice	-9.49207
▁least	-9.4921
▁North	-9.49221
▁south	-9.49225
▁evidence	-9.49229
▁watch	-9.49258
ING	-9.49266
yond	-9.49277
▁round	-9.49277
▁station	-9.49299
▁hope	-9.49302
011	-9.49316
atch	-9.49323
▁spend	-9.49343
cha	-9.49385
▁novel	-9.4941
▁gain	-9.49452
▁Officer	-9.49531
▁US	-9.49559
istic	-9.49598
▁enable	-9.49598
▁fast	-9.49633
▁File	-9.49689
▁connected	-9.49793
▁litera	-9.49935
▁notice	-9.50093
▁table	-9.50161
“”	-9.50595
▁100	-9.50705
▁cross	-9.50741
▁char	-9.5084
thi	-9.51044
went	-9.51127
lf	-9.51128
▁TO	-9.51249
oid	-9.51259
▁banks	-9.51382
▁relations	-9.5139
▁king	-9.51585
rang	-9.51734
▁forces	-9.51854
▁programmes	-9.52065
▁Bar	-9.52137
▁ON	-9.52154
X	-9.52336
▁star	-9.52481
▁promise	-9.52777
cious	-9.52833
▁tradition	-9.53128
▁America	-9.53209
▁Division	-9.5355
▁Group	-9.5355
▁marriage	-9.5355
▁prescribed	-9.5355
▁significant	-9.5355
▁symbol	-9.5355
▁contract	-9.5355
▁organization	-9.5355
▁figure	-9.53551
▁engage	-9.53551
▁staff	-9.53551
▁generation	-9.53551
▁official	-9.53552
▁drop	-9.53552
▁print	-9.53553
▁clean	-9.53553
▁style	-9.53554
▁space	-9.53555
▁talk	-9.53556
▁instead	-9.53558
▁attend	-9.53563
▁woman	-9.53576
▁reserve	-9.5358
▁wife	-9.53602
▁rather	-9.53609
▁born	-9.53631
▁agreement	-9.53638
▁farmers	-9.53652
▁gather	-9.53653
▁ideas	-9.53675
▁actually	-9.5372
▁bound	-9.53723
uction	-9.53741
Why	-9.53749
▁rise	-9.53759
▁March	-9.53759
▁23	-9.53783
▁expression	-9.53834
▁anyone	-9.53868
▁prayer	-9.53925
▁ball	-9.53987
▁deem	-9.54045
▁mass	-9.54198
▁powerful	-9.54265
▁2.	-9.543
organis	-9.54549
▁hum	-9.54909
▁boy	-9.55014
▁successful	-9.55171
▁(%	-9.55188
▁states	-9.55191
▁log	-9.55279
▁remove	-9.55298
log	-9.55465
VE	-9.55511
▁Col	-9.5553
▁va	-9.55739
▁low	-9.55966
▁tea	-9.55999
dev	-9.56405
ably	-9.56425
ikh	-9.56555
lest	-9.56648
under	-9.56692
▁build	-9.57046
▁select	-9.57091
▁feel	-9.57174
▁coming	-9.57234
q	-9.57451
▁IN	-9.57738
▁strength	-9.5797
DA	-9.58012
▁wind	-9.58064
▁Resurrection	-9.58096
▁contribution	-9.58096
▁correct	-9.58096
▁husband	-9.58096
▁length	-9.58096
▁maxim	-9.58096
▁religious	-9.58096
▁servants	-9.58096
▁voice	-9.58096
▁labour	-9.58096
▁threat	-9.58096
▁perfect	-9.58096
▁white	-9.58096
▁dwell	-9.58096
▁Speak	-9.58096
▁committee	-9.58096
▁avoid	-9.58097
▁minim	-9.58101
▁Two	-9.58102
▁astray	-9.58103
▁presence	-9.58104
▁complain	-9.58104
▁(2)	-9.58113
▁difference	-9.58116
▁apply	-9.58116
▁View	-9.58117
▁sky	-9.58125
▁195	-9.58187
▁Quran	-9.58254
▁194	-9.58257
▁effective	-9.58277
hood	-9.58296
▁May	-9.58309
▁24	-9.58332
▁thereof	-9.58531
▁dance	-9.58678
▁direction	-9.58681
▁male	-9.5874
▁beside	-9.58755
▁raised	-9.58835
▁provid	-9.58843
▁online	-9.59194
▁functions	-9.5935
▁bit	-9.59777
▁farm	-9.59864
▁Create	-9.60159
10	-9.60637
place	-9.60787
▁remov	-9.60981
chi	-9.61175
ife	-9.61342
ima	-9.61621
aries	-9.61637
body	-9.61674
from	-9.61678
▁establish	-9.61715
▁followed	-9.61995
16	-9.62008
cut	-9.62068
▁associate	-9.62086
▁raise	-9.62097
▁ban	-9.62175
▁please	-9.62234
▁mode	-9.62285
▁write	-9.62437
▁practi	-9.62752
▁facilit	-9.62809
▁communicat	-9.62857
▁Technology	-9.62857
▁apostle	-9.62857
▁challenge	-9.62857
▁economy	-9.62857
▁expenditure	-9.62857
▁journey	-9.62857
▁potential	-9.62857
▁software	-9.62857
▁suggest	-9.62857
▁advice	-9.62858
▁perhaps	-9.62858
▁popular	-9.62858
▁column	-9.62858
▁Which	-9.62858
▁black	-9.62858
▁picture	-9.62858
▁While	-9.62859
▁phone	-9.62859
▁Search	-9.62859
▁Provid	-9.62861
▁attach	-9.62862
▁cultural	-9.62863
▁ensure	-9.62871
▁burn	-9.62876
▁game	-9.62883
▁normal	-9.62885
▁details	-9.62903
▁middle	-9.62905
▁frame	-9.62907
detail	-9.62913
▁guard	-9.62938
▁items	-9.6294
▁thy	-9.62987
▁strengthen	-9.62989
▁leaders	-9.63081
▁UN	-9.63131
▁aim	-9.63193
▁collection	-9.63219
▁lower	-9.63378
▁loss	-9.63428
▁poor	-9.63455
▁involved	-9.63534
▁consideration	-9.6359
iff	-9.63659
▁belong	-9.63937
▁Sur	-9.64291
▁status	-9.64341
▁wor	-9.64471
▁understanding	-9.64826
▁mere	-9.64917
▁50	-9.64955
▁80	-9.64983
SI	-9.65217
efore	-9.65311
▁introduc	-9.65453
other	-9.65483
▁sat	-9.65568
▁continu	-9.65736
▁animals	-9.65954
cent	-9.66154
AB	-9.66273
chan	-9.66552
“	-9.66654
view	-9.66662
▁Sam	-9.66941
▁pure	-9.67094
▁cho	-9.67163
▁Commission	-9.67283
▁discuss	-9.67376
▁Tri	-9.67518
▁Europe	-9.67701
▁sum	-9.6776
▁import	-9.67775
▁Director	-9.67857
▁People	-9.67857
▁Supreme	-9.67857
▁built	-9.67857
▁certificate	-9.67857
▁devotion	-9.67857
▁explain	-9.67857
▁female	-9.67857
▁legislat	-9.67857
▁relevant	-9.67857
▁responsible	-9.67857
▁supply	-9.67857
▁wrote	-9.67857
▁study	-9.67858
▁manifest	-9.67858
▁possess	-9.67858
▁secure	-9.67858
▁solution	-9.67858
▁obey	-9.67858
▁maintain	-9.67858
▁morning	-9.67858
▁famous	-9.67858
▁border	-9.67859
▁Income	-9.67859
▁spiritual	-9.67859
▁skill	-9.67859
▁milk	-9.67859
vocation	-9.67859
▁copy	-9.6786
▁thousand	-9.67862
▁Centre	-9.67862
▁define	-9.67863
▁Project	-9.67873
▁rich	-9.67875
▁Assam	-9.67876
▁half	-9.67882
lthough	-9.67898
▁Bharat	-9.67905
▁examin	-9.67913
▁choose	-9.67922
▁situation	-9.67942
▁existence	-9.67957
▁June	-9.67959
▁construction	-9.67967
▁torment	-9.67996
▁grand	-9.68003
bodies	-9.68004
▁27	-9.68051
▁blow	-9.68074
mination	-9.68112
▁mental	-9.68132
▁media	-9.68235
▁equi	-9.68269
▁wishes	-9.68275
▁Char	-9.68311
▁recent	-9.68318
▁31	-9.68426
▁pleased	-9.68706
▁began	-9.68712
▁model	-9.68821
▁Per	-9.68902
▁Lok	-9.691
▁extended	-9.69101
▁X	-9.69277
Trans	-9.69305
▁guided	-9.69353
▁Account	-9.69542
▁won	-9.70097
▁21	-9.70203
▁Move	-9.70265
▁doers	-9.70434
▁accepted	-9.70442
▁00	-9.70448
rup	-9.70571
mini	-9.70867
He	-9.71219
▁goal	-9.71582
stern	-9.71718
▁former	-9.71777
acy	-9.71913
special	-9.71924
▁origin	-9.71934
15	-9.71947
This	-9.7197
point	-9.72104
▁base	-9.72425
▁Qur	-9.72607
▁deliver	-9.72687
▁Office	-9.72705
▁Thou	-9.72905
▁owner	-9.72964
▁edit	-9.73007
ika	-9.73036
▁avail	-9.73041
▁forgive	-9.73072
▁Evolution	-9.73121
▁argument	-9.73121
▁default	-9.73121
▁democracy	-9.73121
▁hundred	-9.73121
▁manufactur	-9.73121
▁mutual	-9.73121
▁positive	-9.73121
▁separate	-9.73121
▁terrorism	-9.73121
▁2013	-9.73121
▁activity	-9.73121
▁declare	-9.73121
▁speech	-9.73121
▁appeal	-9.73121
▁purchase	-9.73121
▁2007	-9.73121
▁colour	-9.73123
▁Tamil	-9.73123
▁divide	-9.73124
▁organisation	-9.73124
▁balance	-9.73124
▁First	-9.73125
▁chosen	-9.73127
▁girl	-9.73127
▁Turk	-9.73128
▁Copy	-9.73129
▁fair	-9.7313
▁wealth	-9.73138
▁harm	-9.73143
▁Time	-9.73144
▁wonder	-9.73149
▁safety	-9.73153
▁historic	-9.73156
▁sister	-9.73162
▁travel	-9.73171
▁Guru	-9.73218
▁Today	-9.7322
▁verses	-9.73257
▁proper	-9.73267
▁physical	-9.73269
take	-9.73306
ridge	-9.73307
▁wise	-9.73324
▁connection	-9.73363
▁load	-9.73439
▁wall	-9.73474
▁payment	-9.73521
▁oil	-9.73561
▁listen	-9.73594
▁*	-9.73618
▁science	-9.73618
▁Commissioner	-9.73767
▁store	-9.738
▁warm	-9.73845
▁seed	-9.73925
▁ni	-9.73964
▁notification	-9.73974
▁joint	-9.74001
dicate	-9.74021
▁cry	-9.74059
▁resident	-9.74192
lam	-9.742
▁bad	-9.74215
▁version	-9.7423
▁Out	-9.74405
▁aware	-9.74504
rising	-9.7451
but	-9.74628
▁emb	-9.74965
▁simple	-9.74997
▁cla	-9.75238
▁learning	-9.75428
▁fine	-9.75469
▁reached	-9.75566
LE	-9.76109
▁played	-9.76287
alaya	-9.76398
▁simpl	-9.76732
lum	-9.76763
▁train	-9.77151
▁Part	-9.77781
hol	-9.77988
▁elect	-9.78342
▁Nay	-9.78446
▁invest	-9.78583
▁Certificate	-9.78676
▁December	-9.78676
▁Governor	-9.78676
▁January	-9.78676
▁Merciful	-9.78676
▁Punjab	-9.78676
▁agricultural	-9.78676
▁assessment	-9.78676
▁celebrate	-9.78676
▁cultivat	-9.78676
▁exercise	-9.78676
▁hospital	-9.78676
▁registered	-9.78676
▁surround	-9.78676
▁Christian	-9.78676
▁Kashmir	-9.78676
▁Nehru	-9.78676
▁defeat	-9.78676
▁refuge	-9.78676
▁2012	-9.78676
▁Management	-9.78676
▁improv	-9.78677
▁companies	-9.78677
▁latter	-9.78677
▁courage	-9.78677
▁duties	-9.78677
▁SAW	-9.78678
▁AND	-9.78678
▁track	-9.78679
▁green	-9.7868
▁Enable	-9.78681
▁plain	-9.78686
▁everything	-9.78687
▁assets	-9.78688
▁install	-9.7869
▁settle	-9.78694
▁series	-9.78696
▁Data	-9.78698
▁range	-9.787
▁directory	-9.78715
▁Export	-9.78715
▁season	-9.78719
▁speed	-9.78724
▁minute	-9.78736
▁facilities	-9.7874
▁font	-9.78746
▁2000	-9.78752
▁Speci	-9.78785
▁wood	-9.788
▁final	-9.78819
▁delete	-9.7882
▁plea	-9.78855
▁Wise	-9.78903
▁Park	-9.78921
▁hide	-9.78928
▁useful	-9.78932
▁reference	-9.78964
▁Mark	-9.78982
▁defen	-9.78996
▁repent	-9.79031
▁humanity	-9.79077
▁American	-9.79116
▁traditional	-9.79221
▁discussion	-9.79223
▁sex	-9.794
▁code	-9.79459
▁seat	-9.79607
▁signal	-9.79673
▁red	-9.79844
▁Ya	-9.79925
▁Tel	-9.8004
▁PM	-9.8005
▁growing	-9.80187
▁north	-9.80348
▁shown	-9.8039
▁40	-9.80571
▁river	-9.80633
▁programme	-9.80728
▁unity	-9.80891
▁auto	-9.80974
▁anti	-9.81258
▁See	-9.81372
quite	-9.81432
▁heard	-9.81535
▁mission	-9.8182
PS	-9.82263
UL	-9.82438
▁enhance	-9.82554
▁Chi	-9.82593
dditional	-9.82897
▁format	-9.83106
work	-9.83378
▁accord	-9.83506
000	-9.83517
version	-9.83615
aba	-9.83647
▁Sun	-9.84159
cribe	-9.84414
ology	-9.84527
▁According	-9.84558
▁Bombay	-9.84558
▁Categor	-9.84558
▁Science	-9.84558
▁September	-9.84558
▁ancient	-9.84558
▁calendar	-9.84558
▁college	-9.84558
▁escape	-9.84558
▁festival	-9.84558
▁inaugurat	-9.84558
▁increasing	-9.84558
▁infrastructure	-9.84558
▁initiative	-9.84558
▁obtain	-9.84558
▁ourselves	-9.84558
▁profession	-9.84558
▁regular	-9.84558
▁screen	-9.84558
Abraham	-9.84559
▁Programme	-9.84559
▁Research	-9.84559
▁department	-9.84559
▁interpret	-9.84559
▁attract	-9.84559
▁2005	-9.84559
▁transform	-9.84559
▁rupee	-9.84559
▁square	-9.8456
▁pleasure	-9.8456
▁drug	-9.8456
▁magic	-9.84561
▁risk	-9.84561
▁tonnes	-9.84561
▁stream	-9.84561
▁Type	-9.84562
▁attack	-9.84564
▁pipe	-9.84566
▁phase	-9.84566
▁partners	-9.84567
▁Start	-9.84584
▁multi	-9.84617
eserve	-9.84618
▁Help	-9.84625
▁description	-9.84625
▁principle	-9.84625
▁forgiveness	-9.84628
▁importance	-9.84628
▁palm	-9.84678
▁Edit	-9.84691
▁root	-9.84692
▁permission	-9.84699
▁replace	-9.84712
▁whatsoever	-9.84723
▁Hereafter	-9.84741
▁waste	-9.84746
lusion	-9.84758
▁ki	-9.84762
▁location	-9.84767
▁Thus	-9.84834
▁cities	-9.84849
▁28	-9.84885
▁editor	-9.84894
▁November	-9.84894
▁portion	-9.84928
▁22	-9.85013
▁fla	-9.85059
▁moment	-9.85232
zon	-9.85257
▁admit	-9.8536
▁associated	-9.85526
▁warning	-9.85581
▁Iran	-9.8569
▁Sita	-9.85691
▁feeling	-9.85985
▁expected	-9.86037
iii	-9.86073
▁Page	-9.86161
▁added	-9.86356
▁worth	-9.86389
▁covered	-9.86482
▁tried	-9.86482
▁prove	-9.86525
▁animal	-9.86856
▁completed	-9.86958
unda	-9.87055
▁compar	-9.87356
mitted	-9.87563
▁tend	-9.87904
PE	-9.89037
roph	-9.89134
hath	-9.89159
▁qui	-9.89232
ground	-9.89625
▁fee	-9.89628
▁warn	-9.89724
word	-9.8976
▁agree	-9.90374
▁employ	-9.90637
▁safe	-9.9077
▁Exchange	-9.90808
▁Rajasthan	-9.90808
▁Schedule	-9.90808
▁School	-9.90808
▁acquire	-9.90808
▁agriculture	-9.90808
▁battle	-9.90808
▁channel	-9.90808
▁contribute	-9.90808
▁encourage	-9.90808
▁influence	-9.90808
▁military	-9.90808
▁reflect	-9.90808
▁target	-9.90808
▁volume	-9.90808
▁belief	-9.90809
▁council	-9.90809
▁Uttar	-9.90809
▁Message	-9.90809
▁dialog	-9.90809
▁mobile	-9.90809
▁petition	-9.90809
▁Chandra	-9.90809
▁medium	-9.90809
▁transport	-9.90809
▁straight	-9.9081
▁unique	-9.9081
▁Garden	-9.9081
▁arrest	-9.9081
▁stories	-9.9081
▁constant	-9.9081
▁Mighty	-9.9081
▁Left	-9.90811
▁breast	-9.90811
▁Member	-9.90811
▁Therefore	-9.90812
▁Failed	-9.90813
▁promote	-9.90814
▁conceal	-9.90815
▁structure	-9.90817
venue	-9.90817
▁electric	-9.90818
▁minu	-9.90818
▁drama	-9.90823
▁Text	-9.90826
▁relationship	-9.90829
▁revolution	-9.90836
▁spoke	-9.90847
▁Gandhiji	-9.90849
▁email	-9.9086
▁Conference	-9.90862
▁committed	-9.90864
▁repeat	-9.90872
india	-9.90876
▁poetry	-9.909
▁arise	-9.90901
subscribe	-9.90915
▁match	-9.90931
▁review	-9.90962
▁latest	-9.90965
▁proof	-9.91029
▁193	-9.91042
▁Western	-9.91042
▁road	-9.91053
▁chief	-9.91065
▁75	-9.91087
▁gold	-9.91143
cycl	-9.91149
▁Q	-9.91191
▁Join	-9.91234
▁counter	-9.91255
▁launched	-9.91309
▁wage	-9.9135
▁dust	-9.91377
▁cash	-9.91383
▁Khan	-9.91386
▁clay	-9.91514
▁Other	-9.91518
▁gone	-9.91609
▁Prof	-9.9162
▁trial	-9.91654
▁promised	-9.91942
ould	-9.92012
▁actor	-9.92246
▁bow	-9.92279
resident	-9.92334
▁wo	-9.92491
▁longer	-9.92795
▁Send	-9.92802
▁sight	-9.92884
vana	-9.93041
▁User	-9.93122
You	-9.93152
hall	-9.93555
▁heaven	-9.93598
▁Das	-9.9409
DP	-9.94202
president	-9.94499
position	-9.94956
▁Prem	-9.95015
▁dig	-9.95677
ET	-9.96214
Q	-9.96253
Sita	-9.96379
▁Nav	-9.97035
ecause	-9.97402
▁Corporation	-9.97475
▁Display	-9.97475
▁Environment	-9.97475
▁Excellency	-9.97475
▁advantage	-9.97475
▁beautiful	-9.97475
▁behaviour	-9.97475
▁elephant	-9.97475
▁opportunities	-9.97475
▁parliament	-9.97475
▁recognise	-9.97475
▁registration	-9.97475
▁species	-9.97475
▁struggle	-9.97475
▁succeed	-9.97475
▁confirm	-9.97475
▁corrupt	-9.97475
▁partnership	-9.97475
▁recommend	-9.97475
▁becoming	-9.97475
▁dispute	-9.97475
▁restrict	-9.97475
▁empty	-9.97476
▁unjust	-9.97476
▁Iraq	-9.97476
▁Policy	-9.97476
▁machine	-9.97476
▁prison	-9.97476
▁complex	-9.97476
▁ocean	-9.97476
▁heritage	-9.97476
▁opinion	-9.97476
▁storage	-9.97476
▁knew	-9.97476
▁April	-9.97477
▁daughter	-9.97477
▁visible	-9.97477
▁filter	-9.97478
▁quick	-9.97478
▁German	-9.97478
▁shift	-9.97478
▁average	-9.97479
▁Learn	-9.9748
▁Change	-9.9748
ATION	-9.97481
▁Enter	-9.97482
pathy	-9.97482
▁River	-9.97484
▁exceed	-9.97487
▁entry	-9.97491
▁master	-9.975
▁constituted	-9.97503
▁proceedings	-9.97504
▁debt	-9.97507
▁Description	-9.97508
ject	-9.9751
▁submitted	-9.97545
▁painful	-9.97565
▁foot	-9.97606
▁performance	-9.97611
▁employment	-9.97616
▁update	-9.97641
▁innovation	-9.97645
▁room	-9.97652
▁taught	-9.97682
▁European	-9.97686
▁establishment	-9.97691
▁severe	-9.97732
▁Home	-9.97751
▁denied	-9.97876
▁election	-9.97878
▁sort	-9.97879
▁Comment	-9.97891
▁team	-9.97894
▁vast	-9.97962
▁variet	-9.98109
▁recite	-9.98123
▁Rule	-9.98125
▁moon	-9.98245
▁Law	-9.98247
▁cancel	-9.98285
▁Hour	-9.98306
▁Post	-9.98312
▁directly	-9.98535
▁fish	-9.98546
▁More	-9.98719
ESS	-9.98749
▁feed	-9.98862
quest	-9.9888
▁late	-9.98894
illa	-9.99
▁barr	-10.0016
▁deriv	-10.0016
▁rever	-10.0029
EF	-10.0045
troduction	-10.008
MB	-10.0086
ague	-10.009
▁player	-10.0201
▁Veda	-10.0229
nvalid	-10.0287
▁connect	-10.0327
What	-10.0343
roa	-10.035
▁involv	-10.036
▁technolog	-10.0419
▁deci	-10.0426
▁count	-10.0431
reafter	-10.044
AME	-10.0443
▁realiz	-10.0452
ukherjee	-10.0454
▁scienti	-10.0461
▁attempt	-10.0462
▁conflict	-10.0462
▁scholar	-10.0462
▁specify	-10.0462
▁August	-10.0462
▁Company	-10.0462
▁Mumbai	-10.0462
▁Pharaoh	-10.0462
▁Window	-10.0462
▁association	-10.0462
▁authentic	-10.0462
▁campaign	-10.0462
▁circumstances	-10.0462
▁cooperation	-10.0462
▁determine	-10.0462
▁electronic	-10.0462
▁entrepreneur	-10.0462
▁excellent	-10.0462
▁extension	-10.0462
▁frequent	-10.0462
▁institute	-10.0462
▁medicine	-10.0462
▁procedure	-10.0462
▁proposal	-10.0462
▁thirty	-10.0462
▁translation	-10.0462
▁welcome	-10.0462
▁2014	-10.0462
▁2009	-10.0462
▁creating	-10.0462
▁photo	-10.0462
▁surviv	-10.0462
▁alternat	-10.0462
▁arrive	-10.0462
▁Contact	-10.0462
▁carbon	-10.0462
▁improvement	-10.0462
▁double	-10.0462
▁Next	-10.0462
▁Import	-10.0462
▁Women	-10.0462
▁strike	-10.0462
▁Click	-10.0462
▁ignore	-10.0462
▁favor	-10.0462
▁truly	-10.0462
operative	-10.0462
▁Finance	-10.0462
▁serious	-10.0462
▁Nepal	-10.0462
▁talent	-10.0463
neath	-10.0463
▁title	-10.0463
AGE	-10.0463
▁Fund	-10.0463
▁extent	-10.0463
▁Scripture	-10.0464
▁idol	-10.0464
▁recognize	-10.0464
▁password	-10.0464
▁2010	-10.0465
ography	-10.0465
▁Health	-10.0465
▁decor	-10.0465
▁discover	-10.0465
▁else	-10.0467
▁assign	-10.0468
▁priority	-10.0468
▁administration	-10.047
01.	-10.0471
▁assist	-10.0472
▁prim	-10.0472
▁undertake	-10.0473
▁sufficient	-10.0476
▁relative	-10.0477
▁rock	-10.0478
▁lawful	-10.0487
▁29	-10.0489
▁Food	-10.049
▁spot	-10.0491
▁remark	-10.0492
▁Yet	-10.0497
▁insect	-10.0503
▁throughout	-10.0507
▁ideal	-10.0508
▁Right	-10.051
200	-10.051
▁lesson	-10.0516
▁delivery	-10.0522
▁parties	-10.0522
▁Devi	-10.0523
▁feet	-10.0526
▁writer	-10.0526
▁End	-10.0536
▁spent	-10.0537
lapse	-10.0539
▁dry	-10.0541
▁Yes	-10.0551
▁row	-10.0553
▁Nath	-10.0569
▁bone	-10.058
▁Hol	-10.0584
▁memo	-10.0586
▁propose	-10.0636
nsurance	-10.0672
glad	-10.0735
▁Non	-10.076
▁Indo	-10.0766
17	-10.078
▁student	-10.0838
▁relation	-10.0864
▁participate	-10.0922
▁emerg	-10.097
1-201	-10.1082
clude	-10.1103
Muhammad	-10.1111
Allah	-10.1113
▁pray	-10.1167
nagar	-10.1173
▁Disc	-10.1181
will	-10.1189
▁terr	-10.1206
▁locat	-10.1214
▁commit	-10.1215
iddle	-10.1228
▁Second	-10.1231
utomatically	-10.1231
▁Current	-10.1231
▁District	-10.1231
▁Financial	-10.1231
▁Library	-10.1231
▁Pakistan	-10.1231
▁arrangement	-10.1231
▁attribute	-10.1231
▁chastisement	-10.1231
▁consciousness	-10.1231
▁correspond	-10.1231
▁distinct	-10.1231
▁greeting	-10.1231
▁happiness	-10.1231
▁independent	-10.1231
▁platform	-10.1231
▁prosperity	-10.1231
▁survey	-10.1231
▁telephone	-10.1231
▁thrust	-10.1231
▁victim	-10.1231
▁yield	-10.1231
▁Official	-10.1231
▁criminal	-10.1231
▁respond	-10.1231
▁liquid	-10.1231
▁minister	-10.1231
▁proportion	-10.1231
▁London	-10.1231
▁annual	-10.1231
▁sympath	-10.1231
▁chapter	-10.1231
▁damage	-10.1231
▁divine	-10.1231
▁2004	-10.1231
▁Mission	-10.1231
▁2002	-10.1231
▁throw	-10.1231
▁digital	-10.1231
▁blind	-10.1231
▁pillar	-10.1231
▁History	-10.1231
▁Truth	-10.1231
▁replied	-10.1231
▁Japan	-10.1231
▁Task	-10.1232
married	-10.1232
▁easily	-10.1232
▁sitting	-10.1232
▁walk	-10.1232
▁minor	-10.1232
▁running	-10.1232
▁convert	-10.1233
▁buy	-10.1233
▁multiple	-10.1233
▁laid	-10.1233
▁pursu	-10.1233
▁composed	-10.1233
▁skin	-10.1234
▁authorities	-10.1234
▁representative	-10.1234
▁oppress	-10.1235
▁forbid	-10.1235
▁memory	-10.1237
▁input	-10.1237
▁Key	-10.1237
▁Bihar	-10.1238
▁songs	-10.1238
▁participation	-10.1239
FOR	-10.1239
▁suitable	-10.124
▁appointment	-10.124
▁thanks	-10.1241
▁Print	-10.1242
▁Forgiving	-10.1242
▁Shah	-10.1244
▁commitment	-10.1244
holder	-10.1244
prehensive	-10.1247
habit	-10.1248
▁roll	-10.1252
▁flag	-10.1253
▁bond	-10.1255
▁preach	-10.1257
▁Play	-10.1259
▁immediately	-10.1262
▁Auto	-10.1264
▁radi	-10.1266
▁restore	-10.1273
▁44	-10.1274
▁shop	-10.1274
▁vote	-10.1278
▁hill	-10.1288
scription	-10.1303
▁Relat	-10.132
roz	-10.1357
▁mill	-10.1369
▁warner	-10.1379
▁coordinate	-10.1393
hough	-10.1411
▁addition	-10.1466
▁permit	-10.1486
▁Don	-10.1494
▁lad	-10.1496
▁Yu	-10.163
▁convey	-10.1657
▁artist	-10.1841
ample	-10.1851
Z	-10.1945
what	-10.1947
power	-10.1959
▁reveal	-10.1964
▁construct	-10.2046
▁constitu	-10.2056
▁submit	-10.2061
nvestment	-10.2062
▁Legislat	-10.2064
▁ceremon	-10.2064
▁dawn	-10.2064
▁furnish	-10.2064
▁Believers	-10.2064
▁Default	-10.2064
▁Global	-10.2064
▁Governance	-10.2064
▁Gujarat	-10.2064
▁Princip	-10.2064
▁Security	-10.2064
▁cattle	-10.2064
▁counsel	-10.2064
▁destination	-10.2064
▁destruction	-10.2064
▁division	-10.2064
▁estimate	-10.2064
▁families	-10.2064
▁fundamental	-10.2064
▁illegal	-10.2064
▁industries	-10.2064
▁mechanism	-10.2064
▁privilege	-10.2064
▁supreme	-10.2064
▁transaction	-10.2064
▁victory	-10.2064
▁Limit	-10.2064
▁applied	-10.2064
▁covenant	-10.2064
▁entitle	-10.2064
▁exploit	-10.2064
▁promotion	-10.2064
▁zero	-10.2064
▁Jammu	-10.2064
▁abroad	-10.2064
▁accident	-10.2064
▁audio	-10.2064
▁brief	-10.2064
▁hydro	-10.2064
▁identified	-10.2064
▁urban	-10.2064
▁Circular	-10.2064
▁atmosphere	-10.2064
▁download	-10.2064
▁attitude	-10.2064
▁sacred	-10.2064
▁Connect	-10.2064
▁kingdom	-10.2064
▁decade	-10.2064
Amendment	-10.2065
▁sleep	-10.2065
▁branch	-10.2065
▁doctor	-10.2065
▁excess	-10.2065
▁Email	-10.2065
▁Folder	-10.2065
▁decree	-10.2065
▁crop	-10.2065
▁mosque	-10.2065
▁danger	-10.2065
▁Class	-10.2065
▁Region	-10.2065
▁Great	-10.2065
▁elder	-10.2065
ligible	-10.2065
▁ahead	-10.2065
▁drag	-10.2065
▁initiate	-10.2065
▁Annu	-10.2065
▁desert	-10.2065
▁Saudi	-10.2065
▁Image	-10.2066
eputy	-10.2066
▁praise	-10.2066
▁Ganga	-10.2066
▁utter	-10.2066
▁Since	-10.2066
▁borrow	-10.2066
▁2017	-10.2067
▁audit	-10.2067
▁2015	-10.2068
▁instance	-10.2068
emporary	-10.2068
▁fellow	-10.2068
▁forget	-10.207
▁constitution	-10.2073
▁suit	-10.2073
▁chance	-10.2073
▁cloud	-10.2074
▁deduction	-10.2075
▁sorrow	-10.2075
scope	-10.2075
▁rank	-10.2077
▁Count	-10.2078
▁stop	-10.2079
▁interact	-10.2079
▁China	-10.2082
▁identi	-10.2084
▁edge	-10.2084
▁taste	-10.2087
▁radio	-10.2089
▁hind	-10.2089
▁invent	-10.2091
▁truthful	-10.2092
▁Good	-10.2097
▁reform	-10.2099
▁broke	-10.2099
▁motion	-10.21
▁someone	-10.2102
▁proud	-10.2108
▁Vice	-10.2118
▁seize	-10.2143
▁syn	-10.2149
plicate	-10.2165
natha	-10.2171
know	-10.2191
▁spare	-10.2198
▁stoo	-10.2217
▁competen	-10.2218
▁emergenc	-10.2358
▁resid	-10.2404
rgin	-10.2801
{	-10.2854
▁temp	-10.2952
▁differ	-10.2958
▁educat	-10.2959
hoose	-10.2963
▁Person	-10.2967
▁dark	-10.2968
▁broad	-10.2968
evolution	-10.2969
▁proceed	-10.297
▁occur	-10.2971
ficiency	-10.2973
▁Switch	-10.2973
▁creature	-10.2973
▁encompass	-10.2973
▁enjoin	-10.2973
▁innocent	-10.2973
▁journal	-10.2973
▁nuclea	-10.2973
▁yesterday	-10.2973
krishna	-10.2973
▁Buddhist	-10.2973
▁Certain	-10.2973
▁Children	-10.2973
▁Karnataka	-10.2973
▁Sanskrit	-10.2973
▁System	-10.2973
▁absolute	-10.2973
▁academic	-10.2973
▁appellant	-10.2973
▁distribution	-10.2973
▁expansion	-10.2973
▁fault	-10.2973
▁impossible	-10.2973
▁independence	-10.2973
▁intellectual	-10.2973
▁intelligen	-10.2973
▁opportunity	-10.2973
▁pollution	-10.2973
▁pregnancy	-10.2973
▁puppet	-10.2973
▁resolve	-10.2973
▁strategy	-10.2973
▁studies	-10.2973
▁surface	-10.2973
▁technical	-10.2973
▁tissue	-10.2973
▁welfare	-10.2973
▁{0}	-10.2973
▁Binoy	-10.2973
▁Chairman	-10.2973
▁Options	-10.2973
▁senior	-10.2973
Remember	-10.2973
▁Jawahar	-10.2973
▁afflict	-10.2973
▁guilty	-10.2973
▁twice	-10.2973
▁violence	-10.2973
erritories	-10.2973
▁Remove	-10.2973
▁climate	-10.2973
▁prostrate	-10.2973
▁yellow	-10.2973
▁grieve	-10.2974
▁tribute	-10.2974
▁equipment	-10.2974
▁bounty	-10.2974
▁modification	-10.2974
▁twenty	-10.2974
▁2006	-10.2974
▁2008	-10.2974
▁drown	-10.2974
▁Mughal	-10.2974
nquiry	-10.2974
▁weapon	-10.2974
▁retreat	-10.2974
▁agencies	-10.2974
▁midst	-10.2974
▁dream	-10.2974
▁Institutions	-10.2974
▁proxy	-10.2974
▁marry	-10.2974
▁fresh	-10.2974
▁distance	-10.2974
▁sexual	-10.2974
▁fixed	-10.2974
▁corner	-10.2974
▁inherit	-10.2974
▁Radha	-10.2974
▁Server	-10.2974
▁scientists	-10.2974
▁render	-10.2974
▁false	-10.2974
▁blessing	-10.2975
▁fuel	-10.2975
▁expir	-10.2977
▁lake	-10.2977
▁index	-10.2977
raising	-10.2978
▁entity	-10.2978
▁merit	-10.2978
▁begin	-10.2978
▁iron	-10.2979
▁race	-10.2979
▁spring	-10.2979
▁recover	-10.298
▁darkness	-10.298
▁Also	-10.298
▁Authority	-10.298
▁tube	-10.2981
▁assistance	-10.2981
▁sustainable	-10.2981
IME	-10.2982
▁1956	-10.2982
▁Another	-10.2983
▁worry	-10.2983
▁Organi	-10.2988
▁mono	-10.299
▁formulat	-10.2995
▁Report	-10.2996
▁wound	-10.2996
▁everyone	-10.2997
▁Make	-10.2999
ompliance	-10.3005
SCO	-10.3015
▁solv	-10.3019
▁urge	-10.3021
▁Sim	-10.3025
grew	-10.3025
crete	-10.306
greed	-10.315
-2012	-10.3154
▁ratio	-10.3174
ccessible	-10.3354
▁Mode	-10.3506
500	-10.3586
trusted	-10.3695
uci	-10.3701
wareness	-10.3709
sibilit	-10.3733
encies	-10.375
▁Creat	-10.3872
▁immediate	-10.3933
▁actual	-10.3934
itude	-10.3967
nergy	-10.3969
graduate	-10.3971
▁Explanation	-10.3973
announced	-10.3973
distinguish	-10.3973
polytheists	-10.3973
▁Assistant	-10.3973
▁Brahman	-10.3973
▁Check	-10.3973
▁Innovation	-10.3973
▁Madhya	-10.3973
▁Swami	-10.3973
▁Tagore	-10.3973
▁analysis	-10.3973
▁apparent	-10.3973
▁appropriate	-10.3973
▁bottom	-10.3973
▁circle	-10.3973
▁commercial	-10.3973
▁conservation	-10.3973
▁consultation	-10.3973
▁definite	-10.3973
▁disbelief	-10.3973
▁extreme	-10.3973
▁governance	-10.3973
▁inspiration	-10.3973
▁instruction	-10.3973
▁library	-10.3973
▁philosophy	-10.3973
▁plugin	-10.3973
▁resolution	-10.3973
▁response	-10.3973
▁sacrifice	-10.3973
▁sculpture	-10.3973
▁trouble	-10.3973
▁twelve	-10.3973
▁university	-10.3973
▁virtue	-10.3973
▁Convention	-10.3973
▁craft	-10.3973
▁database	-10.3973
▁discharge	-10.3973
▁healthcare	-10.3973
▁investigation	-10.3973
February	-10.3973
▁Application	-10.3973
▁Justice	-10.3973
▁Knowing	-10.3973
▁absorb	-10.3973
▁hidden	-10.3973
▁URL	-10.3973
▁pension	-10.3973
▁Article	-10.3973
▁Document	-10.3973
▁Training	-10.3973
▁failure	-10.3973
▁fifty	-10.3973
▁piece	-10.3974
▁properties	-10.3974
▁yourself	-10.3974
▁centuries	-10.3974
▁defendant	-10.3974
fortunate	-10.3974
▁narrow	-10.3974
▁John	-10.3974
▁reckon	-10.3974
▁tongue	-10.3974
▁generated	-10.3974
▁Field	-10.3974
▁Civil	-10.3974
▁glory	-10.3974
▁Delegat	-10.3974
▁tidings	-10.3974
▁Social	-10.3974
▁fulfilled	-10.3974
▁recipients	-10.3974
▁expand	-10.3974
▁engineering	-10.3974
▁pressure	-10.3974
▁Filter	-10.3974
▁glass	-10.3974
▁invoke	-10.3974
▁Jews	-10.3974
Joseph	-10.3974
▁finance	-10.3974
▁output	-10.3974
▁protest	-10.3974
▁swear	-10.3974
▁gift	-10.3974
▁split	-10.3974
▁climb	-10.3974
▁pardon	-10.3974
▁honor	-10.3974
▁assured	-10.3974
▁valid	-10.3975
▁Clear	-10.3975
▁organize	-10.3975
▁advis	-10.3975
▁opposition	-10.3975
▁plot	-10.3975
▁copyright	-10.3975
▁horse	-10.3975
▁stock	-10.3975
▁(4)	-10.3976
▁Font	-10.3976
▁Delete	-10.3976
▁peak	-10.3976
▁absent	-10.3976
▁urgent	-10.3976
▁characteristic	-10.3977
▁2016	-10.3978
▁saving	-10.3978
ENCE	-10.3978
▁preserv	-10.3978
▁blame	-10.3978
▁rough	-10.3979
▁probabl	-10.3981
trategi	-10.3981
▁interven	-10.3982
▁1957	-10.3982
▁primary	-10.3982
DAY	-10.3983
▁Babu	-10.3983
▁legend	-10.3983
▁consent	-10.3984
▁tourist	-10.3985
▁slain	-10.3987
▁Sind	-10.399
▁nurs	-10.3994
▁bind	-10.3995
rrow	-10.4023
omething	-10.4025
▁allocat	-10.4029
mpire	-10.4039
charya	-10.4082
terrible	-10.4116
posed	-10.4241
▁realise	-10.433
polit	-10.4344
END	-10.4475
▁capabilit	-10.4618
▁resource	-10.4691
▁transgress	-10.4696
teel	-10.4896
▁leav	-10.4925
crease	-10.4956
▁appoint	-10.4971
▁prepare	-10.5009
▁administrati	-10.5071
▁sustain	-10.5075
▁prior	-10.5076
gress	-10.508
▁engine	-10.5084
osphere	-10.5085
▁Budget	-10.5085
▁proclaim	-10.5085
▁sanction	-10.5085
▁smooth	-10.5085
PRODUCT	-10.5085
ecurities	-10.5085
▁Apostle	-10.5085
▁Continu	-10.5085
▁Economic	-10.5085
▁Judgment	-10.5085
▁Knowledge	-10.5085
▁Mohammed	-10.5085
▁Palestinians	-10.5085
▁Province	-10.5085
▁Vishnu	-10.5085
▁acquisition	-10.5085
▁adequate	-10.5085
▁aircraft	-10.5085
▁appreciate	-10.5085
▁arrogant	-10.5085
▁assault	-10.5085
▁communities	-10.5085
▁configur	-10.5085
▁currency	-10.5085
▁definition	-10.5085
▁distress	-10.5085
▁excellence	-10.5085
▁infection	-10.5085
▁infidel	-10.5085
▁judgment	-10.5085
▁obvious	-10.5085
▁pattern	-10.5085
▁pesticide	-10.5085
▁railway	-10.5085
▁satisfied	-10.5085
▁schedule	-10.5085
▁subsequent	-10.5085
▁technique	-10.5085
▁territory	-10.5085
▁treasure	-10.5085
▁Kingdom	-10.5085
▁incident	-10.5085
▁neck	-10.5085
▁politics	-10.5085
▁England	-10.5085
▁Kovind	-10.5085
▁Railway	-10.5085
▁Scienti	-10.5085
▁beauty	-10.5085
▁competition	-10.5085
▁enemies	-10.5085
▁occup	-10.5085
▁visual	-10.5085
▁Network	-10.5085
▁Support	-10.5085
▁switch	-10.5085
▁leadership	-10.5085
▁Chapter	-10.5085
▁deprive	-10.5085
▁Chinese	-10.5085
▁identify	-10.5085
▁poison	-10.5085
▁Divine	-10.5085
▁Among	-10.5085
▁Natural	-10.5085
▁devote	-10.5085
▁uniform	-10.5085
▁2003	-10.5085
▁micro	-10.5085
▁murder	-10.5085
▁summon	-10.5085
▁Question	-10.5085
▁component	-10.5085
▁Credit	-10.5085
▁Georg	-10.5085
▁Police	-10.5085
▁consequences	-10.5085
▁Keep	-10.5085
▁flight	-10.5085
▁width	-10.5085
▁venture	-10.5085
▁Detail	-10.5085
▁tribal	-10.5085
▁internet	-10.5085
▁adorn	-10.5085
▁abundan	-10.5085
▁silver	-10.5085
▁wrath	-10.5085
▁wicked	-10.5085
▁blue	-10.5085
▁adult	-10.5085
▁moving	-10.5085
▁Andhra	-10.5085
▁Green	-10.5086
▁behold	-10.5086
▁intended	-10.5086
▁blessed	-10.5086
▁Title	-10.5086
▁Meeting	-10.5086
▁Subject	-10.5087
▁vital	-10.5087
▁occurred	-10.5087
chandra	-10.5088
▁cease	-10.5089
Peace	-10.5089
▁forgot	-10.509
▁(3)	-10.509
▁unaware	-10.509
▁receiv	-10.5091
▁Master	-10.5092
▁moral	-10.5093
▁contemporar	-10.5093
▁acid	-10.5094
▁dignit	-10.5101
▁anger	-10.5101
▁gradua	-10.5115
▁concept	-10.52
oddess	-10.52
▁enhanc	-10.5485
trea	-10.5634
▁germ	-10.585
▁socio	-10.5931
▁effort	-10.5942
▁statu	-10.5968
intend	-10.61
*	-10.6213
science	-10.6213
complete	-10.6215
system	-10.6216
India	-10.6218
▁launch	-10.6232
▁Access	-10.6235
▁princip	-10.632
▁Author	-10.6325
hrough	-10.6327
▁descend	-10.6334
▁fulfil	-10.6334
▁Chaitanya	-10.6335
▁Control	-10.6335
▁Encrypt	-10.6335
▁Welfare	-10.6335
▁accompani	-10.6335
▁acknowledge	-10.6335
▁emphasis	-10.6335
▁safeguard	-10.6335
orizontal	-10.6335
▁Abdul	-10.6335
▁Affairs	-10.6335
▁Association	-10.6335
▁Brahmin	-10.6335
▁Business	-10.6335
▁Desktop	-10.6335
▁Google	-10.6335
▁Independence	-10.6335
▁Knower	-10.6335
▁Kolkata	-10.6335
▁Maharashtra	-10.6335
▁Mauritius	-10.6335
▁Narendra	-10.6335
▁Plugin	-10.6335
▁Similarly	-10.6335
▁anywhere	-10.6335
▁collaborati	-10.6335
▁compassionate	-10.6335
▁congratulate	-10.6335
▁democrat	-10.6335
▁efficient	-10.6335
▁experiment	-10.6335
▁extensive	-10.6335
▁familiar	-10.6335
▁geographical	-10.6335
▁intercourse	-10.6335
▁jurisdiction	-10.6335
▁necessit	-10.6335
▁negative	-10.6335
▁neighbour	-10.6335
▁opposite	-10.6335
▁outstanding	-10.6335
▁receipt	-10.6335
▁submissive	-10.6335
▁sustenance	-10.6335
▁symptom	-10.6335
▁temperature	-10.6335
imately	-10.6335
▁Administrati	-10.6335
▁Configur	-10.6335
▁Hamachi	-10.6335
▁crisis	-10.6335
▁draft	-10.6335
▁immense	-10.6335
▁infinite	-10.6335
▁inhabitants	-10.6335
▁livelihood	-10.6335
▁wrongdoers	-10.6335
▁College	-10.6335
▁Yoga	-10.6335
▁determination	-10.6335
▁inspired	-10.6335
▁operating	-10.6335
▁triumph	-10.6335
▁chemical	-10.6335
▁exempt	-10.6335
▁herself	-10.6335
▁imagine	-10.6335
▁poverty	-10.6335
▁preparation	-10.6335
Regulation	-10.6335
▁Effect	-10.6335
▁Previous	-10.6335
▁critical	-10.6335
▁plague	-10.6335
▁rapid	-10.6335
▁recruit	-10.6335
▁unknown	-10.6335
▁French	-10.6335
▁mislead	-10.6335
▁psych	-10.6335
▁signature	-10.6335
▁hardware	-10.6335
▁twain	-10.6335
▁leaf	-10.6335
▁prevail	-10.6335
▁stuff	-10.6335
▁palace	-10.6335
▁quarter	-10.6335
rivate	-10.6335
▁Process	-10.6335
▁chamber	-10.6335
▁otherwise	-10.6335
▁Akbar	-10.6335
▁Major	-10.6335
▁defect	-10.6335
▁perceive	-10.6335
▁Kerala	-10.6335
▁Odisha	-10.6335
▁enemy	-10.6335
▁descendants	-10.6335
▁delight	-10.6335
▁abode	-10.6335
▁decline	-10.6335
▁deceive	-10.6335
▁Video	-10.6335
▁accused	-10.6335
▁archive	-10.6335
compromis	-10.6335
▁Besides	-10.6335
▁floor	-10.6335
▁daily	-10.6335
▁jute	-10.6335
▁Russia	-10.6335
▁jinn	-10.6335
▁flesh	-10.6335
▁Large	-10.6335
▁Arjun	-10.6335
▁Trade	-10.6335
▁Three	-10.6335
▁Kumar	-10.6335
▁teeth	-10.6335
▁Flag	-10.6335
▁echo	-10.6336
▁falsehood	-10.6336
▁conquer	-10.6336
▁chro	-10.6336
▁ornament	-10.6336
▁Facilit	-10.6336
▁retain	-10.6336
▁drum	-10.6336
▁colon	-10.6336
▁sharp	-10.6336
▁deaf	-10.6336
▁prompt	-10.6336
▁confus	-10.6337
▁Lanka	-10.6338
escence	-10.6338
▁argue	-10.6338
▁Close	-10.6339
▁Nico	-10.6339
▁horr	-10.634
▁denie	-10.634
ROM	-10.6341
9-2	-10.6342
▁excit	-10.6343
▁Cultur	-10.6344
▁creativ	-10.6345
▁bull	-10.6346
▁curse	-10.635
▁overcom	-10.636
▁route	-10.6372
▁Federa	-10.638
▁soft	-10.6415
▁Grac	-10.6442
▁Abou	-10.649
ersonnel	-10.6518
rose	-10.689
reasonable	-10.6995
erivative	-10.7267
▁believ	-10.7398
worthy	-10.7398
NCE	-10.749
▁assembl	-10.7567
Indeed	-10.7644
vailable	-10.7644
current	-10.7644
▁physic	-10.7721
▁innovat	-10.7726
▁situat	-10.7738
structur	-10.7761
▁accomplish	-10.7763
▁negotiat	-10.7763
▁supplement	-10.7763
croll	-10.7763
▁Afghan	-10.7763
▁Assembly	-10.7763
▁Bangladesh	-10.7763
▁Buddha	-10.7763
▁Chhattisgarh	-10.7763
▁Companies	-10.7763
▁Election	-10.7763
▁Freedom	-10.7763
▁IMAP	-10.7763
▁Ibrahim	-10.7763
▁Implementation	-10.7763
▁Industry	-10.7763
▁Language	-10.7763
▁MSME	-10.7763
▁Perhaps	-10.7763
▁Procedure	-10.7763
▁Resource	-10.7763
▁Sikkim	-10.7763
▁Universities	-10.7763
▁Vivekananda	-10.7763
▁YouTube	-10.7763
▁accompany	-10.7763
▁administer	-10.7763
▁admonition	-10.7763
▁applicable	-10.7763
▁architecture	-10.7763
▁categories	-10.7763
▁category	-10.7763
▁concentration	-10.7763
▁consolidat	-10.7763
▁context	-10.7763
▁corporation	-10.7763
▁diplomacy	-10.7763
▁discipline	-10.7763
▁disclosure	-10.7763
▁disobey	-10.7763
▁dissolution	-10.7763
▁diversity	-10.7763
▁envisage	-10.7763
▁incorporat	-10.7763
▁indigenous	-10.7763
▁injustice	-10.7763
▁integral	-10.7763
▁integration	-10.7763
▁irrigation	-10.7763
▁maturity	-10.7763
▁miracle	-10.7763
▁monitor	-10.7763
▁monkey	-10.7763
▁obedient	-10.7763
▁recognition	-10.7763
▁recompense	-10.7763
▁significance	-10.7763
▁steadfast	-10.7763
▁studied	-10.7763
▁surrender	-10.7763
▁tribunal	-10.7763
▁vegetable	-10.7763
▁vehicle	-10.7763
▁volunteer	-10.7763
▁whisper	-10.7763
▁wisdom	-10.7763
▁Audio	-10.7763
▁Egypt	-10.7763
▁Maxim	-10.7763
▁clubs	-10.7763
▁cricket	-10.7763
▁crowd	-10.7763
▁plaintiff	-10.7763
▁solemn	-10.7763
▁thread	-10.7763
▁universal	-10.7763
▁valuable	-10.7763
▁voluntar	-10.7763
nniversar	-10.7763
▁Paradise	-10.7763
▁Record	-10.7763
▁Return	-10.7763
▁coffee	-10.7763
▁connectivity	-10.7763
▁efficiency	-10.7763
▁equivalent	-10.7763
▁maintenance	-10.7763
▁mixture	-10.7763
▁prohibit	-10.7763
▁rainfall	-10.7763
▁reproduc	-10.7763
▁subsidy	-10.7763
▁convention	-10.7763
▁mandapa	-10.7763
▁felicitat	-10.7763
▁implication	-10.7763
▁inflict	-10.7763
▁segment	-10.7763
▁Object	-10.7763
▁convince	-10.7763
▁discourse	-10.7763
▁fraction	-10.7763
▁myself	-10.7763
▁Follow	-10.7763
▁conclusion	-10.7763
▁dairy	-10.7763
▁depict	-10.7763
▁discount	-10.7763
▁assurance	-10.7763
▁frighten	-10.7763
▁oriented	-10.7763
▁tomorrow	-10.7763
▁accurate	-10.7763
▁package	-10.7763
▁prophet	-10.7763
Calendar	-10.7763
▁Raghu	-10.7763
▁biggest	-10.7763
▁dismiss	-10.7763
▁Owner	-10.7763
▁PDF	-10.7763
▁completion	-10.7763
▁Foundation	-10.7763
▁Gupta	-10.7763
▁Photo	-10.7763
▁Attach	-10.7763
▁attention	-10.7763
▁harmony	-10.7763
▁Museum	-10.7763
▁postpone	-10.7763
▁injured	-10.7763
▁2001	-10.7763
▁Jesus	-10.7763
▁Manager	-10.7763
▁quote	-10.7763
▁Ganges	-10.7764
▁Session	-10.7764
▁Cause	-10.7764
▁Club	-10.7764
▁prominen	-10.7764
▁click	-10.7764
▁dread	-10.7764
▁Govt	-10.7764
Registr	-10.7764
▁Human	-10.7764
▁expert	-10.7764
▁bliss	-10.7764
▁sweet	-10.7764
▁resort	-10.7764
▁label	-10.7764
▁carved	-10.7764
▁Sardar	-10.7764
▁Persian	-10.7764
▁disaster	-10.7764
▁snake	-10.7764
▁supra	-10.7764
▁warrant	-10.7764
▁debate	-10.7764
▁Year	-10.7764
▁joy	-10.7764
870	-10.7764
▁Assess	-10.7764
enalty	-10.7764
▁detect	-10.7764
VICE	-10.7764
▁Track	-10.7764
▁confine	-10.7764
▁cache	-10.7765
▁metro	-10.7765
agger	-10.7766
▁lease	-10.7767
▁retire	-10.7769
Jacob	-10.7769
▁Promot	-10.777
▁adhere	-10.777
▁Statu	-10.777
▁regime	-10.777
▁eliminat	-10.7775
Operation	-10.7775
▁Litera	-10.7777
▁Marath	-10.7788
ATI	-10.779
▁strange	-10.78
▁assume	-10.7823
fringe	-10.7898
▁household	-10.7935
ssemblies	-10.7963
oreign	-10.7973
▁equa	-10.8266
▁participat	-10.8369
▁coordinat	-10.9071
stitution	-10.929
front	-10.931
people	-10.9312
ufficient	-10.9395
▁deduct	-10.9409
▁eviden	-10.9419
▁Script	-10.9426
ndustrial	-10.9427
cipient	-10.9429
▁Integrat	-10.943
▁budget	-10.943
▁diagnos	-10.943
▁illustr	-10.943
▁pronounc	-10.943
.06.201	-10.943
ASEAN	-10.943
▁Advocate	-10.943
▁Ahmedabad	-10.943
▁Akademi	-10.943
▁Benefit	-10.943
▁Capital	-10.943
▁Chalukya	-10.943
▁Chandigarh	-10.943
▁Contract	-10.943
▁Democracy	-10.943
▁Digital	-10.943
▁Download	-10.943
▁Gazette	-10.943
▁Hussein	-10.943
▁Jerusalem	-10.943
▁Journal	-10.943
▁Malayalam	-10.943
▁Maldives	-10.943
▁Physical	-10.943
▁Popular	-10.943
▁Practice	-10.943
▁Protocol	-10.943
▁Secretary	-10.943
▁Signature	-10.943
▁Sucharita	-10.943
▁Terrorism	-10.943
▁Tribunal	-10.943
▁Uttarakhand	-10.943
▁Vaishnava	-10.943
▁accommodat	-10.943
▁acquaint	-10.943
▁aggressive	-10.943
▁alcohol	-10.943
▁aspirations	-10.943
▁bamboo	-10.943
▁circuit	-10.943
▁concentrate	-10.943
▁confident	-10.943
▁contemplat	-10.943
▁deceased	-10.943
▁disobedien	-10.943
▁divorce	-10.943
▁dynamic	-10.943
▁enormous	-10.943
▁fabricate	-10.943
▁faculty	-10.943
▁frustrate	-10.943
▁glacier	-10.943
▁glitter	-10.943
▁gossip	-10.943
▁ignorant	-10.943
▁integrate	-10.943
▁interface	-10.943
▁license	-10.943
▁mandatory	-10.943
▁muscle	-10.943
▁obligation	-10.943
▁pandemic	-10.943
▁possibility	-10.943
▁quarrel	-10.943
▁reconciliation	-10.943
▁remembrance	-10.943
▁resurrect	-10.943
▁retribution	-10.943
▁sequence	-10.943
▁soldiers	-10.943
▁sovereign	-10.943
▁substitute	-10.943
▁unlawful	-10.943
▁Academ	-10.943
▁Heritage	-10.943
▁Orissa	-10.943
▁Provision	-10.943
▁Screen	-10.943
▁VISIT	-10.943
▁Valley	-10.943
▁abnormal	-10.943
▁awaken	-10.943
▁browser	-10.943
▁despair	-10.943
▁evolv	-10.943
▁identification	-10.943
▁mechanical	-10.943
▁penetrat	-10.943
▁resistance	-10.943
▁statistic	-10.943
▁throne	-10.943
▁valley	-10.943
pplause	-10.943
▁Abdullah	-10.943
▁Organization	-10.943
▁Summit	-10.943
▁evildoers	-10.943
▁exhibitio	-10.943
▁incentives	-10.943
▁intestine	-10.943
▁jungle	-10.943
▁threw	-10.943
▁trunk	-10.943
▁vessel	-10.943
migrant	-10.943
▁meditation	-10.943
▁tobacco	-10.943
▁grateful	-10.943
▁upgrad	-10.943
▁Archive	-10.943
▁Transport	-10.943
▁Universe	-10.943
▁communal	-10.943
▁shadow	-10.943
▁Commerce	-10.943
▁Consider	-10.943
▁museum	-10.943
▁holistic	-10.943
▁Jaipur	-10.943
▁Manipur	-10.943
▁Number	-10.943
▁abandon	-10.943
▁contrary	-10.943
▁wicket	-10.943
▁Zoom	-10.943
▁accelerat	-10.943
▁highlight	-10.943
▁lecture	-10.943
▁Madras	-10.943
▁Require	-10.943
▁disorder	-10.943
▁ultimate	-10.943
▁precise	-10.943
▁captain	-10.943
▁flood	-10.943
&	-11.3811
–	-11.7145
+	-13.2152
‘	-13.2152
>	-13.2153
[	-13.2153
