<pad>	0
</s>	0
<unk>	0
s	-3.27853
▁the	-3.36654
.	-3.50012
,	-3.58457
▁of	-3.76416
▁and	-4.03876
▁to	-4.17258
▁in	-4.32037
▁a	-4.38505
▁is	-4.72036
ed	-4.73721
▁	-4.78537
ing	-4.85753
d	-5.00016
▁for	-5.09215
▁-	-5.22115
▁that	-5.24263
▁be	-5.34812
▁you	-5.36746
▁The	-5.4461
▁(	-5.45724
t	-5.51086
▁not	-5.52362
y	-5.52579
ly	-5.61563
er	-5.62021
▁on	-5.62365
▁with	-5.63267
▁are	-5.6341
)	-5.6396
e	-5.65167
▁it	-5.65397
▁or	-5.65979
▁s	-5.7197
▁'	-5.74435
▁by	-5.76972
▁as	-5.77137
al	-5.80504
▁was	-5.83063
▁have	-5.8386
:	-5.84376
▁from	-5.85722
▁I	-5.85886
▁will	-5.87035
▁they	-5.90096
▁them	-5.97605
▁this	-5.97843
▁A	-5.97964
n	-5.98007
▁has	-6.04513
;	-6.05479
▁which	-6.07858
▁who	-6.09624
r	-6.097
a	-6.10694
▁He	-6.1111
in	-6.13345
▁he	-6.14152
▁his	-6.15255
▁their	-6.15883
▁an	-6.17739
i	-6.18061
re	-6.19051
▁S	-6.22814
▁at	-6.30806
b	-6.34377
▁all	-6.34992
▁Allah	-6.36346
▁We	-6.37592
▁And	-6.37776
m	-6.38293
▁re	-6.39152
or	-6.39593
es	-6.44655
c	-6.45231
▁do	-6.50385
?	-6.50748
▁your	-6.50808
▁In	-6.52028
▁we	-6.536
st	-6.54425
▁India	-6.54663
-	-6.5492
th	-6.55492
o	-6.55753
▁one	-6.57599
g	-6.59649
▁C	-6.59942
'	-6.60378
le	-6.60753
▁but	-6.61102
ur	-6.61489
ation	-6.63331
h	-6.6364
▁so	-6.65622
it	-6.66261
k	-6.67277
ra	-6.68191
▁been	-6.68682
▁"	-6.68937
▁any	-6.70507
ri	-6.70882
ar	-6.71585
l	-6.71775
▁were	-6.72205
▁can	-6.72577
il	-6.73584
▁had	-6.7503
S	-6.76421
an	-6.76486
▁those	-6.77179
▁It	-6.77203
▁him	-6.77411
▁people	-6.77671
▁when	-6.78664
on	-6.7891
▁said	-6.79035
li	-6.79645
▁de	-6.7994
▁no	-6.80857
▁shall	-6.8209
ent	-6.82909
able	-6.83099
ity	-6.83271
ment	-6.83276
%	-6.85904
A	-6.8642
▁other	-6.86845
p	-6.87408
▁B	-6.87448
▁/	-6.88496
at	-6.89108
▁what	-6.89256
▁God	-6.90156
▁also	-6.90422
▁if	-6.91709
▁there	-6.92281
!	-6.954
▁P	-6.95615
▁me	-6.95724
ion	-6.95738
I	-6.95807
f	-6.96101
en	-6.96132
se	-6.96869
▁our	-6.971
▁may	-6.97104
ic	-6.9775
P	-6.98382
▁up	-6.98953
▁Lord	-6.99448
▁F	-6.99857
▁out	-7.008
ch	-7.0184
ers	-7.03034
▁its	-7.03112
▁p	-7.03195
ir	-7.0323
C	-7.03721
▁This	-7.04541
O	-7.05052
ll	-7.06673
ce	-7.06963
▁19	-7.08412
▁would	-7.0854
▁time	-7.08707
▁Re	-7.08718
et	-7.09271
D	-7.09425
▁G	-7.10446
u	-7.10895
w	-7.11152
▁such	-7.11419
▁un	-7.11483
▁e	-7.11611
T	-7.12349
▁only	-7.12504
ta	-7.1272
▁under	-7.12875
▁_	-7.12916
la	-7.14269
ul	-7.14556
▁“	-7.14804
ive	-7.14804
vi	-7.16437
ate	-7.17909
el	-7.18652
▁made	-7.19581
▁like	-7.19858
▁over	-7.20274
id	-7.20345
ad	-7.21748
ol	-7.22641
ro	-7.23149
▁should	-7.23346
ti	-7.23382
te	-7.23714
M	-7.23831
▁D	-7.23913
▁more	-7.23937
▁about	-7.24164
us	-7.24175
as	-7.24414
▁than	-7.24622
▁So	-7.25352
▁into	-7.25832
▁c	-7.26576
ma	-7.26772
▁b	-7.27067
ance	-7.29036
▁then	-7.29145
▁my	-7.29785
▁But	-7.30597
na	-7.30698
▁M	-7.30889
▁new	-7.3105
▁T	-7.31385
▁us	-7.31994
lo	-7.33411
▁Ma	-7.33619
▁some	-7.33671
▁They	-7.34592
▁f	-7.34627
▁two	-7.3551
ant	-7.36975
]	-7.37149
▁”	-7.37185
5	-7.37332
▁E	-7.38314
▁N	-7.3883
▁[	-7.39065
▁K	-7.39321
E	-7.39386
x	-7.39865
▁say	-7.39882
▁after	-7.4071
▁O	-7.41199
um	-7.41366
de	-7.41464
ness	-7.41606
ne	-7.42128
▁1	-7.42187
ary	-7.42302
ter	-7.42593
▁before	-7.42959
▁t	-7.43084
▁make	-7.43978
▁co	-7.44126
am	-7.45628
z	-7.4575
▁these	-7.45867
▁His	-7.46077
▁L	-7.46527
▁Indian	-7.46893
▁life	-7.47352
▁day	-7.4891
▁per	-7.49366
B	-7.49448
▁her	-7.49569
2	-7.50941
ve	-7.50956
sh	-7.52165
di	-7.52952
▁dis	-7.53727
▁good	-7.54132
un	-7.54259
9	-7.54338
▁world	-7.5453
▁pre	-7.54782
’	-7.5487
"	-7.55192
▁w	-7.55412
▁con	-7.55672
▁know	-7.55699
▁where	-7.55706
om	-7.55842
▁d	-7.5702
▁man	-7.57566
age	-7.57979
ry	-7.57995
▁pro	-7.58222
▁being	-7.58302
ut	-7.58504
▁To	-7.5858
▁work	-7.58861
ist	-7.58876
▁way	-7.58884
▁You	-7.59638
to	-7.59927
ha	-7.60626
est	-7.62426
op	-7.63779
▁If	-7.63852
and	-7.64422
▁down	-7.64462
va	-7.64485
H	-7.64516
▁H	-7.6487
▁3	-7.65078
ated	-7.65176
▁through	-7.65788
▁country	-7.65872
▁mo	-7.66076
▁come	-7.66504
me	-7.66594
▁Government	-7.6709
▁President	-7.67208
▁part	-7.67794
▁between	-7.68181
▁No	-7.68295
▁right	-7.68371
tion	-7.6853
1	-7.6862
▁form	-7.69158
▁&	-7.69569
▁used	-7.70418
ya	-7.70437
▁For	-7.70991
▁take	-7.71107
▁could	-7.71653
G	-7.71704
▁st	-7.71759
▁see	-7.71913
▁well	-7.72023
▁first	-7.7208
▁Act	-7.72353
im	-7.72423
▁did	-7.7283
▁All	-7.72996
ver	-7.73
tic	-7.73267
▁De	-7.73599
is	-7.73908
ge	-7.73994
▁sub	-7.74023
▁name	-7.74139
▁year	-7.74495
▁Na	-7.74699
▁most	-7.74828
4	-7.75501
▁place	-7.75882
ia	-7.76005
▁upon	-7.76021
▁An	-7.76259
ence	-7.76345
▁many	-7.76363
▁There	-7.76397
3	-7.768
▁help	-7.77029
ous	-7.7726
▁even	-7.77546
▁earth	-7.777
L	-7.77894
▁years	-7.78014
▁di	-7.78098
ine	-7.78464
▁very	-7.78681
ho	-7.79541
▁believe	-7.79995
wa	-7.79997
▁2	-7.80217
▁every	-7.80318
▁among	-7.80336
U	-7.80663
mo	-7.81057
ful	-7.81067
ish	-7.81628
▁own	-7.81696
▁against	-7.81845
▁Me	-7.82291
the	-7.82314
F	-7.82558
ni	-7.83482
ru	-7.83992
R	-7.83996
▁V	-7.8419
hi	-7.84236
▁ra	-7.84539
man	-7.84729
▁R	-7.85395
ism	-7.85696
v	-7.8601
ty	-7.87085
▁back	-7.8736
▁Him	-7.87404
▁Sa	-7.87843
pe	-7.88238
),	-7.88245
▁sent	-7.88265
end	-7.8827
▁State	-7.89039
▁case	-7.89571
7	-7.89635
mi	-7.898
▁does	-7.90106
▁g	-7.90237
▁am	-7.90419
he	-7.9058
▁number	-7.90777
6	-7.90799
ng	-7.91102
go	-7.91482
ci	-7.91504
▁given	-7.91594
▁go	-7.91719
ow	-7.92021
▁system	-7.92331
▁As	-7.92933
N	-7.92993
▁because	-7.93394
ies	-7.93603
ag	-7.9389
▁must	-7.94008
ip	-7.94099
▁give	-7.94485
▁use	-7.94527
up	-7.94674
▁power	-7.94713
▁state	-7.94845
▁Do	-7.95079
▁great	-7.9511
▁comp	-7.95675
ell	-7.96246
▁water	-7.9626
ot	-7.9631
per	-7.96378
▁Ba	-7.96703
▁ma	-7.96714
8	-7.97043
ting	-7.97065
▁get	-7.97166
▁want	-7.97359
▁end	-7.97379
▁she	-7.97467
mb	-7.97538
less	-7.97884
▁5	-7.98023
ted	-7.9806
▁account	-7.98482
▁long	-7.98552
▁Ra	-7.98687
tra	-7.98705
).	-7.98756
▁set	-7.98893
▁When	-7.99033
▁ye	-7.99286
min	-7.99347
nd	-7.99887
▁section	-8.00601
co	-8.00618
▁>	-8.00864
▁order	-8.00918
...	-8.01048
▁4	-8.02368
ke	-8.02851
▁Day	-8.0289
ee	-8.02896
ian	-8.02918
V	-8.02941
▁sp	-8.03364
▁found	-8.03434
ven	-8.0363
▁Lo	-8.04009
ud	-8.04117
ating	-8.0512
▁<	-8.05234
du	-8.05291
pa	-8.05528
▁whom	-8.05578
▁away	-8.0615
▁person	-8.06687
▁how	-8.06961
▁now	-8.06992
▁Co	-8.07149
▁Con	-8.07624
▁inter	-8.07893
▁need	-8.08139
▁li	-8.08196
W	-8.08219
▁Ha	-8.08306
▁file	-8.08315
▁came	-8.08473
▁en	-8.08851
."	-8.09035
▁development	-8.09057
no	-8.09177
one	-8.09628
red	-8.0982
▁Our	-8.09842
ure	-8.09982
j	-8.10218
▁during	-8.10248
▁W	-8.10452
ap	-8.10456
▁U	-8.10778
▁men	-8.1078
▁same	-8.11289
ical	-8.11397
▁po	-8.11443
ga	-8.11903
▁vi	-8.12081
▁while	-8.12171
ach	-8.12525
▁pa	-8.1294
▁just	-8.13166
▁become	-8.13389
ran	-8.13448
▁each	-8.13588
ck	-8.13985
▁Mo	-8.14796
ab	-8.14843
▁land	-8.14945
▁open	-8.15031
▁both	-8.15826
ten	-8.15848
ling	-8.15919
▁here	-8.16084
▁J	-8.161
ial	-8.16385
▁St	-8.16536
▁nor	-8.1678
ac	-8.16803
ak	-8.16867
▁process	-8.17112
▁On	-8.17284
be	-8.1746
▁20	-8.17732
▁called	-8.18081
▁etc	-8.18106
▁another	-8.18145
▁law	-8.18158
pi	-8.18379
▁Se	-8.19285
”	-8.19789
▁fear	-8.19974
ever	-8.20065
▁Ja	-8.20192
han	-8.2054
▁things	-8.20721
tu	-8.21187
▁period	-8.21368
▁different	-8.21756
00	-8.22112
lu	-8.22356
▁La	-8.22407
▁indeed	-8.22425
▁play	-8.22606
▁Ka	-8.22732
▁show	-8.2293
▁support	-8.23252
▁three	-8.23297
▁ho	-8.23503
▁find	-8.23605
▁Un	-8.23641
▁Then	-8.23835
▁turn	-8.23948
ite	-8.23971
tri	-8.24165
ise	-8.24274
▁n	-8.247
▁without	-8.24817
▁bring	-8.24834
cu	-8.24862
tor	-8.24868
▁hand	-8.24953
les	-8.25099
gi	-8.25226
▁knowledge	-8.25251
▁National	-8.26007
▁Shri	-8.26495
▁value	-8.26666
▁va	-8.26747
▁provide	-8.27495
▁human	-8.2785
▁‘	-8.27938
all	-8.28107
▁interest	-8.2823
▁Ar	-8.28232
▁read	-8.2824
▁high	-8.28442
ward	-8.28591
▁look	-8.28604
▁6	-8.28765
▁call	-8.28936
▁much	-8.28944
▁information	-8.29002
▁means	-8.29036
▁ha	-8.29224
▁ex	-8.29334
ture	-8.29488
▁except	-8.29492
lic	-8.29506
▁Pa	-8.29654
▁present	-8.29845
ld	-8.30065
▁bo	-8.30629
nu	-8.30805
▁unto	-8.31005
▁Be	-8.31678
▁imp	-8.31901
▁Vi	-8.31933
ph	-8.31947
line	-8.32027
▁language	-8.32064
▁mi	-8.32065
ba	-8.321
▁large	-8.32196
ah	-8.32253
ction	-8.32319
▁What	-8.32594
▁Pro	-8.32662
▁gra	-8.32743
ay	-8.32815
▁clear	-8.3331
▁government	-8.3382
▁Minister	-8.34409
▁7	-8.34817
▁se	-8.34959
qui	-8.35169
▁k	-8.35177
▁OF	-8.35178
▁truth	-8.3519
our	-8.35284
▁women	-8.35286
ities	-8.3559
▁change	-8.35778
:%	-8.35874
ick	-8.36012
ving	-8.36064
▁think	-8.36121
▁Say	-8.36186
▁th	-8.36421
/	-8.36453
ble	-8.36461
▁small	-8.36675
▁ro	-8.36849
fer	-8.37053
▁off	-8.37104
—	-8.37113
▁group	-8.37341
▁My	-8.37475
▁Pre	-8.37529
▁That	-8.37575
▁message	-8.38101
▁Al	-8.384
▁public	-8.38449
▁created	-8.38457
20	-8.38567
▁Go	-8.38755
▁cannot	-8.39162
ct	-8.39352
▁last	-8.39628
pp	-8.39678
▁best	-8.39761
act	-8.39855
vo	-8.40073
iv	-8.40204
▁important	-8.40473
har	-8.40513
▁la	-8.4052
nk	-8.40547
▁follow	-8.40955
ations	-8.41102
K	-8.41338
eth	-8.41352
▁let	-8.4148
tal	-8.4153
▁–	-8.41583
▁Who	-8.41736
▁cause	-8.41932
ator	-8.42141
ious	-8.42146
▁18	-8.42176
▁income	-8.42423
ana	-8.42498
▁Book	-8.42631
▁company	-8.42632
▁business	-8.42979
ring	-8.42982
▁New	-8.43088
▁lo	-8.43269
▁amount	-8.43504
▁cr	-8.43592
of	-8.43855
▁surely	-8.43862
▁cl	-8.44035
▁taken	-8.4416
▁never	-8.44197
▁evil	-8.44301
qu	-8.44364
▁list	-8.4438
hu	-8.44436
amp	-8.44506
bu	-8.44577
▁today	-8.4462
▁known	-8.44818
▁might	-8.44864
ig	-8.45037
nt	-8.45277
sa	-8.4545
do	-8.45526
▁exp	-8.45596
▁return	-8.4588
ner	-8.46072
ative	-8.46179
▁head	-8.46303
▁These	-8.4647
▁children	-8.46566
ft	-8.4685
▁act	-8.4697
ake	-8.47668
▁love	-8.47731
▁date	-8.47785
sion	-8.47806
ide	-8.47846
▁various	-8.47893
tain	-8.4814
mon	-8.49457
▁bank	-8.49464
land	-8.49484
da	-8.49502
hy	-8.49587
pr	-8.49781
▁four	-8.49786
▁put	-8.49793
▁themselves	-8.49854
▁old	-8.50018
ally	-8.50039
▁better	-8.50062
▁view	-8.5033
▁enter	-8.50463
▁cha	-8.50523
ja	-8.50535
▁tr	-8.50544
▁share	-8.50719
▁Ro	-8.50776
▁rule	-8.50806
▁nation	-8.50834
▁faith	-8.50951
ens	-8.50961
▁equal	-8.50966
ors	-8.51045
▁Ch	-8.51343
fi	-8.51485
cr	-8.51554
ard	-8.51567
▁sh	-8.51647
ship	-8.51653
ign	-8.51713
con	-8.5174
▁worship	-8.51751
▁mind	-8.51796
▁point	-8.51936
▁keep	-8.51967
▁10	-8.52001
▁type	-8.52001
ual	-8.52042
rit	-8.52159
ew	-8.52178
ification	-8.52211
▁done	-8.52419
av	-8.52443
▁within	-8.52523
gu	-8.52597
ang	-8.5264
dic	-8.52704
▁body	-8.52707
▁left	-8.53005
▁level	-8.53011
▁window	-8.5337
▁sign	-8.53377
Y	-8.53415
em	-8.53423
▁social	-8.5354
▁Po	-8.53661
▁8	-8.53673
▁str	-8.53782
cc	-8.53816
mp	-8.53855
led	-8.5424
od	-8.54347
▁respect	-8.54436
▁One	-8.54597
▁education	-8.54753
▁address	-8.54767
ill	-8.54801
ration	-8.54875
▁m	-8.54898
▁Su	-8.54919
▁house	-8.54977
ition	-8.54983
▁free	-8.55072
▁book	-8.55084
▁Bo	-8.55157
▁going	-8.55314
▁car	-8.5542
que	-8.55476
▁remain	-8.55811
▁near	-8.55873
▁due	-8.55973
ron	-8.56135
rt	-8.56472
ji	-8.56609
port	-8.56654
▁side	-8.5677
ability	-8.56848
ified	-8.56936
▁light	-8.5696
▁face	-8.57104
ight	-8.57151
▁Or	-8.57166
▁At	-8.57347
▁Le	-8.57426
▁wrong	-8.57499
▁cons	-8.57619
pect	-8.58051
▁complete	-8.58158
ca	-8.58261
ka	-8.58336
tro	-8.58576
▁war	-8.5863
▁sector	-8.58639
▁too	-8.58871
pur	-8.58893
▁full	-8.58957
▁Dr	-8.58999
for	-8.59041
▁towards	-8.59061
po	-8.5908
rs	-8.59109
▁include	-8.59139
men	-8.59227
▁days	-8.59437
▁fact	-8.59449
▁o	-8.59531
▁far	-8.59558
▁result	-8.59723
lar	-8.59745
ible	-8.59826
▁Central	-8.59834
▁Ex	-8.59887
▁kind	-8.59947
▁Da	-8.59949
ari	-8.59998
▁less	-8.60126
ER	-8.60349
▁available	-8.6059
par	-8.60592
▁ch	-8.60676
ose	-8.60957
▁cent	-8.61005
ize	-8.61462
▁son	-8.61474
▁contain	-8.61767
▁action	-8.61798
▁Te	-8.62019
▁Messenger	-8.6216
uc	-8.62202
▁Ta	-8.62216
pos	-8.62503
ments	-8.62819
▁Th	-8.62869
val	-8.62873
ning	-8.62887
▁She	-8.62957
▁Hindu	-8.62991
▁ca	-8.6334
▁brought	-8.63401
▁service	-8.63406
▁home	-8.63411
▁send	-8.63456
ect	-8.6347
▁thou	-8.63514
▁com	-8.63577
▁Man	-8.63606
▁heavens	-8.63707
▁Di	-8.63929
▁leave	-8.63978
▁main	-8.64071
▁control	-8.64177
▁punishment	-8.64228
▁plant	-8.64445
▁function	-8.64724
ind	-8.64973
ify	-8.65062
▁national	-8.65112
rate	-8.65235
▁Mu	-8.6524
▁again	-8.65408
▁command	-8.65443
▁live	-8.65657
▁br	-8.65767
▁family	-8.65778
nic	-8.65804
▁app	-8.65978
section	-8.66009
▁question	-8.66115
▁trans	-8.66522
▁class	-8.66713
▁ask	-8.66778
AR	-8.66911
▁l	-8.66939
▁pass	-8.67027
▁times	-8.67217
lay	-8.67231
▁economic	-8.67236
ern	-8.67244
mit	-8.67375
▁Fa	-8.67383
▁food	-8.67387
▁Ho	-8.67595
▁folder	-8.67631
▁death	-8.67679
▁Bhavan	-8.67792
▁organ	-8.67925
▁pi	-8.68093
os	-8.68119
▁matter	-8.68156
▁non	-8.68191
ding	-8.68244
▁visit	-8.68362
▁something	-8.68425
▁Mar	-8.68717
use	-8.6874
▁market	-8.6898
▁qu	-8.6908
▁special	-8.69088
com	-8.6938
tation	-8.69487
▁hold	-8.69503
▁line	-8.69528
▁Ca	-8.69742
▁project	-8.69877
▁Li	-8.70052
int	-8.70054
ved	-8.70091
ub	-8.70141
▁save	-8.70287
▁self	-8.70288
The	-8.70538
▁whole	-8.70664
ex	-8.70714
▁Qu	-8.70752
▁force	-8.7087
▁subject	-8.70922
ions	-8.7099
ory	-8.71129
▁dec	-8.71227
ack	-8.71381
ound	-8.71449
▁hard	-8.71461
▁father	-8.71475
▁data	-8.71504
▁health	-8.71586
ries	-8.71762
▁true	-8.71794
▁Z	-8.71836
▁plan	-8.71919
mission	-8.71923
▁application	-8.72367
▁village	-8.72367
▁field	-8.72368
▁Ga	-8.7257
▁capital	-8.7271
▁local	-8.72803
▁close	-8.72842
ai	-8.7287
▁art	-8.73037
0	-8.73069
▁region	-8.73128
▁already	-8.73252
▁area	-8.73437
AN	-8.73504
▁provided	-8.73512
▁scheme	-8.73524
▁reason	-8.73689
▁start	-8.73745
her	-8.73877
rr	-8.73905
▁cover	-8.73939
▁together	-8.74016
▁night	-8.74086
▁rec	-8.74196
ized	-8.74259
dra	-8.74407
side	-8.74421
▁common	-8.74497
▁image	-8.7454
▁religion	-8.74584
▁sin	-8.74715
▁create	-8.74768
▁few	-8.74806
▁age	-8.74815
form	-8.74933
mer	-8.7498
▁gave	-8.75023
▁second	-8.75045
gra	-8.75056
}	-8.75414
▁real	-8.755
▁15	-8.75515
ile	-8.7558
ju	-8.75728
gn	-8.75736
▁seek	-8.75838
bo	-8.75942
▁countries	-8.75962
▁care	-8.76005
late	-8.7605
▁Indeed	-8.76084
▁9	-8.76224
▁ba	-8.76257
▁others	-8.76351
▁Rashtrapati	-8.76439
gg	-8.76496
▁Delhi	-8.76645
▁le	-8.76744
▁Your	-8.76888
ger	-8.77094
▁above	-8.7721
der	-8.77225
▁following	-8.77283
▁charge	-8.77342
gar	-8.77386
▁Those	-8.77514
▁little	-8.77677
nc	-8.77738
▁unit	-8.77755
▁programme	-8.77969
▁tax	-8.77992
▁12	-8.78051
cent	-8.78059
▁path	-8.78094
▁v	-8.78152
bi	-8.78269
▁himself	-8.78386
▁tea	-8.78448
▁lead	-8.78459
▁based	-8.78734
kar	-8.79047
▁stand	-8.79136
ised	-8.79439
▁term	-8.79563
IT	-8.79617
▁cost	-8.79963
▁Rs	-8.79988
▁flow	-8.80108
▁services	-8.80151
▁heart	-8.80156
ster	-8.80165
▁making	-8.80168
▁Va	-8.80252
▁soul	-8.80344
▁signs	-8.80638
▁thought	-8.8067
▁belong	-8.808
▁Sha	-8.80809
ath	-8.80827
▁child	-8.80898
▁policy	-8.80937
ces	-8.80995
▁gl	-8.81077
▁Dis	-8.81203
fa	-8.81321
ff	-8.8142
▁court	-8.81456
▁total	-8.81564
light	-8.81639
▁report	-8.81666
▁until	-8.81687
▁Pra	-8.81708
▁benefit	-8.81842
▁having	-8.81921
ization	-8.81949
ency	-8.81969
▁rate	-8.82449
▁clause	-8.82489
▁individual	-8.82516
▁example	-8.82595
▁though	-8.82622
▁still	-8.82623
▁0	-8.82649
▁ten	-8.82734
▁sea	-8.83209
▁around	-8.8342
▁current	-8.83475
ric	-8.83577
▁words	-8.83773
▁i	-8.83792
AL	-8.83821
ev	-8.83863
▁society	-8.83898
▁took	-8.84034
▁seen	-8.84146
▁areas	-8.84318
rn	-8.84378
▁key	-8.84433
▁hu	-8.84478
▁grow	-8.84483
▁im	-8.84528
▁ever	-8.84663
ient	-8.84815
▁rest	-8.84841
▁occasion	-8.8487
▁desire	-8.84877
▁political	-8.84952
▁tree	-8.84954
▁ga	-8.84963
▁hearts	-8.85007
ood	-8.85012
▁certain	-8.85098
▁Comm	-8.85345
▁operation	-8.85463
by	-8.85602
▁thing	-8.85696
ore	-8.8576
▁record	-8.85773
cal	-8.85915
▁always	-8.85977
put	-8.85979
og	-8.86078
▁offer	-8.86084
▁members	-8.86146
▁pay	-8.8639
▁mis	-8.86438
ES	-8.86758
▁position	-8.86898
▁along	-8.86947
▁nothing	-8.87132
▁whose	-8.87178
▁believers	-8.8718
▁Bha	-8.87306
▁Some	-8.87323
au	-8.87369
▁text	-8.87369
▁therefore	-8.87387
ease	-8.87802
▁11	-8.87858
▁whether	-8.87931
▁disc	-8.88067
br	-8.88084
ook	-8.88109
▁fa	-8.88173
ug	-8.88272
way	-8.88384
▁including	-8.88497
▁Ju	-8.88696
▁deeds	-8.88811
wi	-8.88881
▁effect	-8.89077
▁hear	-8.89195
▁able	-8.89206
che	-8.89249
tan	-8.89421
▁With	-8.89468
▁Bank	-8.89581
▁school	-8.89582
▁witness	-8.89604
ber	-8.89612
ice	-8.89764
▁Bengal	-8.89946
▁further	-8.9001
▁Maha	-8.90047
▁short	-8.90059
▁Show	-8.90248
▁research	-8.90268
▁post	-8.90271
ear	-8.90315
▁since	-8.90424
▁Us	-8.90488
row	-8.90516
▁:	-8.90521
▁Cha	-8.90521
▁five	-8.90565
▁accept	-8.90688
▁British	-8.90785
▁%	-8.90789
▁employ	-8.9093
▁Mi	-8.90954
▁yet	-8.91243
▁ri	-8.91314
▁growth	-8.91434
▁pe	-8.91569
ature	-8.91645
▁god	-8.9165
▁young	-8.91655
▁Select	-8.91729
▁direct	-8.91835
▁river	-8.91854
▁nature	-8.91965
▁appear	-8.92153
▁warn	-8.92202
so	-8.9235
▁ru	-8.92404
▁Court	-8.92531
▁reward	-8.92588
▁par	-8.92616
▁meeting	-8.92618
ep	-8.92649
▁later	-8.92686
▁course	-8.92722
▁error	-8.92749
ue	-8.92821
▁became	-8.92837
we	-8.92887
▁received	-8.92944
▁test	-8.93137
▁disbelieve	-8.93184
nce	-8.93348
▁peace	-8.93501
▁document	-8.93835
▁Please	-8.93856
▁held	-8.93912
▁temple	-8.94147
▁THE	-8.94236
ium	-8.94317
▁Not	-8.94377
▁word	-8.94379
▁money	-8.94618
▁House	-8.94619
tt	-8.94649
▁Ad	-8.94797
▁deal	-8.95006
ctor	-8.95039
▁character	-8.95145
▁next	-8.9536
▁ob	-8.95385
▁After	-8.95385
▁office	-8.95389
day	-8.95519
▁Ru	-8.95655
lit	-8.9569
▁Most	-8.95765
▁strong	-8.95838
▁measure	-8.95882
▁English	-8.9595
▁States	-8.96191
su	-8.96255
und	-8.96267
▁Hindi	-8.96727
cept	-8.9683
▁transfer	-8.96937
▁required	-8.97037
▁Singh	-8.9705
▁Prime	-8.97053
▁PRESIDENT	-8.97255
▁previous	-8.97509
▁access	-8.97625
ram	-8.97649
ough	-8.97744
▁Israel	-8.97856
▁arm	-8.97882
▁six	-8.98006
▁brother	-8.98053
▁Committee	-8.98414
▁pl	-8.98485
▁several	-8.98487
▁possible	-8.98578
▁selected	-8.98678
▁conf	-8.9899
▁bear	-8.99063
▁industry	-8.99116
▁En	-8.99205
▁idea	-8.99276
xi	-8.99387
▁movement	-8.99502
tre	-8.99507
▁How	-8.99612
▁foreign	-8.99614
▁Comp	-8.99698
▁fi	-8.99765
▁Jo	-8.99814
▁sum	-8.99896
We	-8.99932
▁speak	-9.00013
oc	-9.00055
▁x	-9.00113
▁fund	-9.00254
▁connect	-9.00265
ala	-9.00284
▁building	-9.00452
▁event	-9.00498
▁cre	-9.00616
▁either	-9.00655
▁activities	-9.0075
ava	-9.00824
▁High	-9.00873
out	-9.00881
▁hands	-9.00963
press	-9.00966
▁Ministry	-9.01085
▁Parliament	-9.01157
ze	-9.01263
▁su	-9.01298
fe	-9.01313
▁mother	-9.01319
▁certainly	-9.01322
▁fight	-9.01354
▁authority	-9.01396
ants	-9.0148
▁source	-9.01569
▁min	-9.01594
war	-9.01643
▁task	-9.01662
▁fire	-9.01718
▁tell	-9.01722
▁try	-9.01763
▁ill	-9.01935
cious	-9.02055
▁disease	-9.02183
AT	-9.02437
▁contact	-9.02508
▁Ne	-9.02719
▁purpose	-9.02794
▁progress	-9.02794
▁University	-9.028
RB	-9.02913
▁itself	-9.02947
▁cap	-9.02979
▁(1)	-9.02979
▁technology	-9.03092
▁deliver	-9.0324
▁met	-9.03316
▁trade	-9.03317
▁financial	-9.0346
▁fall	-9.03505
▁production	-9.03534
▁mode	-9.03633
ani	-9.03967
▁Par	-9.03987
ec	-9.04066
▁anything	-9.04135
▁Gu	-9.04285
dy	-9.04538
RI	-9.04549
▁link	-9.0456
▁Ram	-9.04566
▁Department	-9.04594
▁Raj	-9.04636
mal	-9.04669
▁went	-9.04708
▁forth	-9.04709
▁mu	-9.04799
▁price	-9.04874
emp	-9.04888
▁move	-9.04902
low	-9.04969
verse	-9.04988
nal	-9.05021
▁computer	-9.05068
▁ver	-9.05163
▁sha	-9.05164
▁{	-9.05271
▁General	-9.05366
pl	-9.05425
▁Sp	-9.05458
▁poet	-9.05662
struct	-9.05684
▁guide	-9.05694
▁difficult	-9.05742
▁trust	-9.05745
art	-9.05754
lf	-9.05809
own	-9.05845
▁Pri	-9.05916
▁learn	-9.05926
▁pur	-9.06025
king	-9.06076
▁history	-9.06122
▁elect	-9.06183
IC	-9.06238
▁understand	-9.06279
▁quality	-9.06296
bha	-9.06407
▁success	-9.06485
▁happen	-9.06548
IS	-9.06596
ute	-9.06761
▁property	-9.06762
▁Pradesh	-9.07004
ists	-9.07068
af	-9.0718
▁draw	-9.07209
tar	-9.07238
▁established	-9.07267
▁File	-9.07272
▁Open	-9.07506
▁ve	-9.07644
▁working	-9.07662
▁wide	-9.07826
▁major	-9.07917
ib	-9.07977
▁user	-9.08087
▁develop	-9.08123
▁mar	-9.08143
hold	-9.08147
▁personal	-9.08199
▁material	-9.08257
▁don	-9.083
OR	-9.08315
▁future	-9.08412
ler	-9.08509
▁website	-9.08592
▁provisions	-9.0864
▁please	-9.08661
▁credit	-9.08726
▁remember	-9.08877
▁pen	-9.08891
bar	-9.08893
▁necessary	-9.08928
▁judge	-9.09007
▁increase	-9.09008
▁wish	-9.09097
▁Islam	-9.09111
▁behind	-9.09163
▁asset	-9.09271
ash	-9.09343
▁entire	-9.09344
▁step	-9.09507
chan	-9.0955
▁mail	-9.0959
J	-9.09624
▁Development	-9.09735
▁therein	-9.09801
RA	-9.0998
▁mercy	-9.10048
▁Could	-9.1005
▁ne	-9.10153
ple	-9.10205
▁started	-9.10285
▁hath	-9.10316
▁using	-9.10325
▁million	-9.10337
▁experience	-9.10363
▁role	-9.10435
▁referred	-9.106
▁network	-9.10629
▁require	-9.1064
graph	-9.10782
▁demand	-9.10894
▁ge	-9.11052
▁seem	-9.11146
▁related	-9.11237
▁security	-9.11314
▁Congress	-9.11327
▁bar	-9.11364
▁lie	-9.11387
istic	-9.11476
▁run	-9.11684
ural	-9.11749
▁16	-9.11838
▁fo	-9.11976
▁protect	-9.12126
▁000	-9.12139
▁Thus	-9.12213
▁greater	-9.1242
▁List	-9.12605
▁community	-9.12653
▁reach	-9.12708
▁past	-9.12717
▁Gra	-9.12781
▁na	-9.12873
▁asked	-9.13005
▁written	-9.13053
nch	-9.13122
▁whatever	-9.13125
ara	-9.13168
▁higher	-9.13247
▁allow	-9.13251
▁RRB	-9.13286
ology	-9.13463
▁got	-9.13594
▁knows	-9.13647
▁guidance	-9.13676
▁doubt	-9.13678
▁revealed	-9.13683
▁air	-9.13713
▁specified	-9.13847
▁produce	-9.13848
▁sure	-9.13955
▁living	-9.13993
▁city	-9.14059
▁author	-9.14171
ery	-9.14215
▁Now	-9.14219
▁’	-9.14237
▁consider	-9.14238
vel	-9.14286
▁natural	-9.1433
▁kill	-9.14346
▁By	-9.14382
▁object	-9.14497
▁du	-9.14576
▁sense	-9.14659
▁students	-9.14668
▁Muslim	-9.14687
▁deep	-9.14692
▁Service	-9.14741
▁para	-9.14788
▁environment	-9.14878
▁paid	-9.14895
▁forward	-9.14942
▁Union	-9.15051
▁seven	-9.15093
▁proper	-9.15101
▁modern	-9.15144
▁district	-9.15319
aries	-9.1533
▁problem	-9.15422
gan	-9.15482
▁add	-9.15504
▁institutions	-9.15622
▁al	-9.15653
▁Tra	-9.15821
▁regard	-9.15935
▁hi	-9.16083
▁answer	-9.16096
▁gain	-9.16099
▁member	-9.16263
▁ti	-9.16391
▁once	-9.16407
pic	-9.16497
▁firm	-9.16624
pro	-9.16692
▁according	-9.16796
lam	-9.1694
▁verily	-9.16992
▁hope	-9.16999
▁story	-9.17101
▁righteous	-9.17103
▁continue	-9.1736
▁Y	-9.17471
den	-9.17472
▁remove	-9.17533
▁decision	-9.17695
acy	-9.17702
▁friend	-9.17708
▁item	-9.17752
▁culture	-9.17779
▁East	-9.17787
▁soon	-9.17807
gen	-9.17916
▁works	-9.17973
▁cell	-9.18118
▁server	-9.18205
▁eat	-9.18229
▁lay	-9.18242
ON	-9.18304
▁14	-9.18346
▁poor	-9.18357
▁limit	-9.18554
▁months	-9.18588
▁exc	-9.18614
▁till	-9.18764
▁25	-9.18785
▁instrument	-9.18832
▁fast	-9.18851
▁month	-9.18852
pt	-9.18871
▁claim	-9.18918
▁Such	-9.18975
med	-9.19005
▁page	-9.1901
ken	-9.19062
▁letter	-9.19075
▁Gandhi	-9.19128
▁mark	-9.19147
▁Constitution	-9.19176
▁INDIA	-9.19233
▁thy	-9.19308
▁Even	-9.19386
▁lot	-9.19421
▁manner	-9.19433
▁Ko	-9.19543
▁perform	-9.19599
cl	-9.19653
▁believed	-9.19702
▁represent	-9.19788
▁method	-9.19983
▁Per	-9.20028
▁talk	-9.20028
▁eyes	-9.20088
▁animal	-9.20131
▁century	-9.20418
▁told	-9.20444
ising	-9.20458
▁design	-9.20484
matic	-9.20551
ea	-9.20581
▁writing	-9.20622
▁extend	-9.20768
IN	-9.20803
▁lu	-9.20829
▁international	-9.21
ulation	-9.21046
▁13	-9.211
▁however	-9.21146
▁sun	-9.21153
▁why	-9.21168
ned	-9.21203
▁San	-9.2129
▁blood	-9.21381
▁basis	-9.21384
▁receive	-9.21503
▁article	-9.21616
▁files	-9.21638
cient	-9.21688
▁prayer	-9.21752
▁Har	-9.21819
mark	-9.21889
▁setting	-9.22015
▁appointed	-9.22018
▁investment	-9.2203
▁ground	-9.22043
nder	-9.22044
▁improve	-9.22148
▁30	-9.2224
▁energy	-9.22265
▁http	-9.22295
(	-9.22396
▁affect	-9.22444
▁turned	-9.22624
▁exist	-9.22648
▁single	-9.22847
▁particular	-9.22851
▁considered	-9.22861
▁X	-9.22887
▁loss	-9.22935
▁size	-9.22999
▁Surely	-9.23072
ama	-9.23082
▁party	-9.23095
mm	-9.23203
▁Moses	-9.23222
▁bra	-9.23374
▁Prophet	-9.23412
▁Muslims	-9.23514
▁meet	-9.23536
read	-9.2362
▁practice	-9.23666
▁Mr	-9.23693
▁Council	-9.23756
▁payment	-9.23928
pre	-9.23944
▁approach	-9.23966
▁structure	-9.24027
let	-9.24057
▁reject	-9.24059
▁hour	-9.24092
pu	-9.24095
▁Verily	-9.24148
▁general	-9.24183
▁global	-9.24207
▁die	-9.24267
▁Let	-9.24302
▁Fire	-9.24305
▁earn	-9.24421
▁cur	-9.24559
▁fruit	-9.24602
▁suffer	-9.24633
mber	-9.24642
▁Bu	-9.24659
yan	-9.24736
tax	-9.2474
van	-9.24755
?"	-9.24929
▁exchange	-9.24965
isation	-9.24968
mu	-9.25088
ock	-9.25117
▁program	-9.25153
▁Br	-9.25359
ki	-9.25366
▁Asia	-9.25386
▁However	-9.25397
▁citizen	-9.25483
▁drive	-9.25531
▁serve	-9.25595
▁Information	-9.25636
vis	-9.25646
▁host	-9.25656
▁assessee	-9.25799
▁check	-9.2585
▁display	-9.26004
▁spread	-9.26007
cor	-9.26219
▁favour	-9.26219
hara	-9.26221
▁problems	-9.2628
▁occur	-9.26281
▁search	-9.26365
ral	-9.26392
za	-9.26393
▁big	-9.26409
▁doing	-9.26523
ik	-9.26545
right	-9.26695
▁religious	-9.26775
▁crore	-9.26784
▁carry	-9.2688
▁stage	-9.26954
▁purposes	-9.26969
ST	-9.27142
▁write	-9.27161
▁generation	-9.27163
▁officer	-9.27193
10	-9.27216
io	-9.27306
▁America	-9.27331
▁standard	-9.27431
▁sur	-9.27441
tive	-9.27575
▁management	-9.27646
iz	-9.2766
▁Fi	-9.27718
anda	-9.27732
unt	-9.27738
▁Arab	-9.27762
lock	-9.27791
▁music	-9.27939
):	-9.27948
▁ju	-9.27948
▁option	-9.27967
▁conduct	-9.28022
▁institution	-9.28023
▁17	-9.28063
mar	-9.28105
▁leg	-9.28206
▁wealth	-9.28248
ates	-9.28381
east	-9.28499
cular	-9.28573
▁Wa	-9.28657
▁civil	-9.28682
▁harm	-9.2869
lt	-9.2871
▁issued	-9.28773
▁passed	-9.28859
▁maintain	-9.29134
▁Director	-9.29253
cation	-9.29253
▁join	-9.29282
gh	-9.29302
aught	-9.29353
▁Add	-9.2938
▁thus	-9.29458
▁patient	-9.29539
▁Muhammad	-9.2961
▁*	-9.29642
tter	-9.29649
▁expect	-9.29664
vol	-9.29673
eg	-9.29688
▁freedom	-9.29698
▁ja	-9.297
▁Of	-9.29768
▁allowed	-9.29781
▁stone	-9.29835
▁App	-9.29859
▁Ye	-9.29863
▁none	-9.29932
shi	-9.30025
▁everything	-9.30118
▁content	-9.30216
▁taking	-9.30307
▁sound	-9.30414
▁creation	-9.30434
▁aware	-9.30483
▁Name	-9.30544
▁Bi	-9.30555
▁Sub	-9.3068
▁Mon	-9.30841
▁terms	-9.31137
▁advance	-9.31175
ie	-9.31267
▁fla	-9.31692
▁che	-9.31738
▁comes	-9.31783
nath	-9.31796
over	-9.31803
▁ki	-9.31811
▁neither	-9.31987
▁Public	-9.32085
▁loan	-9.32112
ada	-9.32141
External	-9.32216
▁changes	-9.32272
▁alone	-9.32303
▁often	-9.32314
▁fe	-9.3249
▁assessment	-9.32514
ier	-9.32553
▁duty	-9.32594
mate	-9.32641
mic	-9.32651
▁enjoy	-9.3274
▁efforts	-9.32794
▁space	-9.32811
▁books	-9.32813
▁week	-9.32816
▁outside	-9.32882
▁really	-9.32942
sha	-9.32953
▁industrial	-9.33102
uff	-9.33245
▁least	-9.33254
gue	-9.33279
▁population	-9.334
board	-9.33414
▁Institute	-9.33499
▁Error	-9.33565
▁thousand	-9.33569
▁deny	-9.33581
ton	-9.33624
▁profit	-9.33699
▁1.	-9.33709
▁effective	-9.33921
▁conditions	-9.33958
▁early	-9.34073
▁enable	-9.34153
▁Part	-9.34268
▁Whether	-9.34297
▁rain	-9.34342
▁low	-9.34547
▁training	-9.34569
ties	-9.34591
▁ensure	-9.34606
tract	-9.34747
▁needs	-9.34761
▁developed	-9.34769
q	-9.3482
▁rich	-9.34919
▁Use	-9.3492
▁promise	-9.34933
▁provision	-9.35013
▁science	-9.35102
▁Where	-9.35137
▁literature	-9.35202
ging	-9.35212
▁stay	-9.35288
▁release	-9.35447
char	-9.35562
ID	-9.35564
▁Trans	-9.35737
▁video	-9.35787
chi	-9.35845
▁product	-9.3585
▁color	-9.35886
▁evidence	-9.35912
▁secret	-9.36014
▁Ph	-9.36111
▁followed	-9.3614
▁woman	-9.36185
▁original	-9.36207
uck	-9.36232
UN	-9.36369
▁Plan	-9.3644
EN	-9.36476
▁spirit	-9.36505
▁messages	-9.36599
ological	-9.36738
▁count	-9.36824
▁dead	-9.36894
▁situation	-9.36901
▁consist	-9.36909
▁Canno	-9.36972
▁South	-9.37109
▁fr	-9.37211
▁feel	-9.37317
▁partner	-9.37364
▁Officer	-9.37468
▁emb	-9.3748
▁adopt	-9.37491
tha	-9.37503
▁print	-9.37556
ix	-9.37567
▁travel	-9.3759
▁device	-9.3766
▁capacity	-9.37727
eration	-9.37753
▁mountain	-9.37761
▁hum	-9.37906
▁persons	-9.37948
▁Board	-9.37982
▁goods	-9.37988
▁Can	-9.37991
▁eight	-9.38162
▁specific	-9.3823
▁People	-9.38246
▁gr	-9.38339
▁successful	-9.38471
▁bill	-9.38505
▁condition	-9.38601
ek	-9.38619
▁drink	-9.38629
▁separate	-9.3863
▁port	-9.3864
▁prevent	-9.38646
▁front	-9.38703
name	-9.38814
▁town	-9.3893
dia	-9.38956
▁half	-9.38979
▁matters	-9.3903
▁export	-9.39044
▁birth	-9.3905
▁wife	-9.39154
11	-9.39183
if	-9.39195
▁Du	-9.39275
▁Section	-9.39376
▁centre	-9.39405
ham	-9.39472
rk	-9.39489
bb	-9.39559
▁saying	-9.39572
▁messenger	-9.39575
▁mass	-9.39708
60	-9.39729
tem	-9.39731
▁private	-9.39751
▁study	-9.39787
ets	-9.39849
eep	-9.39854
▁garden	-9.39857
▁factor	-9.39985
▁meaning	-9.40101
▁fill	-9.40162
RE	-9.40185
▁bi	-9.40194
▁log	-9.40277
mor	-9.40398
▁Tu	-9.40403
▁final	-9.40487
▁wait	-9.40504
▁saw	-9.40518
lan	-9.40541
▁angels	-9.40565
▁mankind	-9.40814
▁parts	-9.4089
with	-9.41038
tru	-9.41068
▁commit	-9.41276
ii	-9.41334
time	-9.41377
▁multi	-9.41377
▁Mukherjee	-9.41458
▁lost	-9.41564
▁def	-9.41574
▁super	-9.41775
▁collect	-9.41804
▁element	-9.41858
▁king	-9.42145
▁da	-9.42145
▁cut	-9.42173
▁almost	-9.42214
50	-9.42216
▁Sabha	-9.4227
▁request	-9.42432
atory	-9.42555
ably	-9.4257
▁suggest	-9.42612
arch	-9.42704
▁break	-9.42758
▁torment	-9.42775
▁gives	-9.42876
▁earlier	-9.42939
▁figure	-9.42976
▁issue	-9.42994
▁kept	-9.43049
▁resources	-9.43108
▁Project	-9.43158
▁lakh	-9.43301
▁Commission	-9.43485
▁Merciful	-9.43486
▁Up	-9.435
▁across	-9.43523
▁touch	-9.43526
▁critic	-9.43532
▁direction	-9.43579
bil	-9.43643
dha	-9.43824
▁North	-9.43832
▁similar	-9.4389
▁raised	-9.43969
▁strength	-9.43993
▁May	-9.43999
cha	-9.44028
▁install	-9.44047
▁Are	-9.44239
vation	-9.44255
▁Bharat	-9.44261
://	-9.44295
▁express	-9.44319
▁Governor	-9.44332
jo	-9.44349
▁Africa	-9.44442
lig	-9.44584
▁enough	-9.44604
▁official	-9.44702
▁crop	-9.44767
In	-9.44786
tical	-9.44896
iya	-9.44956
▁achieve	-9.44966
▁revelation	-9.45074
▁challenge	-9.45184
▁physical	-9.45296
▁third	-9.45409
▁job	-9.45484
▁Ti	-9.45496
▁IN	-9.45524
▁bit	-9.45527
▁notice	-9.45575
▁recent	-9.4566
scribe	-9.45785
▁grant	-9.45874
▁farmers	-9.45939
lies	-9.46065
▁Republic	-9.46081
titude	-9.46092
▁boy	-9.46148
bit	-9.46159
▁cor	-9.46205
▁Centre	-9.46274
▁50	-9.46291
▁win	-9.46327
▁launch	-9.46383
▁hundred	-9.4642
▁agreement	-9.46495
▁ce	-9.46617
▁female	-9.46798
▁astray	-9.46918
▁contribution	-9.47025
▁Tri	-9.47102
▁treat	-9.47241
▁apply	-9.47293
▁aim	-9.47331
other	-9.4767
ivity	-9.47722
▁Pu	-9.47777
▁Work	-9.4798
▁24	-9.47994
▁carried	-9.48018
▁reduce	-9.48069
▁below	-9.48104
▁2.	-9.48226
▁reform	-9.4841
▁register	-9.48438
gro	-9.48569
X	-9.48631
▁United	-9.48635
Q	-9.48744
▁April	-9.48824
▁failed	-9.48868
▁fair	-9.48917
01	-9.48919
▁connection	-9.4892
▁products	-9.48941
▁US	-9.48977
▁depend	-9.48987
▁decided	-9.49044
▁rural	-9.49077
▁West	-9.49282
▁Sur	-9.49339
ban	-9.49361
▁attack	-9.49367
▁Inter	-9.49395
ump	-9.49444
▁bound	-9.49515
▁guided	-9.49554
▁From	-9.49601
▁ancient	-9.49608
▁opens	-9.4963
▁Ver	-9.49713
▁Pat	-9.49744
▁prepared	-9.49776
▁relating	-9.49911
▁Car	-9.50068
ific	-9.50069
▁economy	-9.50105
rous	-9.50446
mination	-9.50654
▁(2)	-9.5067
▁behalf	-9.50694
detail	-9.50738
▁Sanskrit	-9.50811
▁World	-9.5089
▁Have	-9.50893
▁suit	-9.50916
▁disbelievers	-9.50954
▁strengthen	-9.51292
▁Ya	-9.51365
▁Wi	-9.51392
▁shape	-9.51548
▁built	-9.51642
soever	-9.51714
▁weak	-9.51759
▁War	-9.51799
▁Ni	-9.51851
▁normal	-9.52098
▁Edit	-9.52182
▁gather	-9.52203
▁100	-9.52336
▁plain	-9.52374
▁actually	-9.52374
▁red	-9.52427
cial	-9.52436
▁Rama	-9.52458
▁top	-9.525
▁speech	-9.5268
▁popular	-9.5272
▁Pur	-9.5276
▁lower	-9.52781
▁tri	-9.5299
▁wall	-9.53007
▁Pranab	-9.53042
▁stop	-9.53165
▁Pan	-9.5318
▁statement	-9.53193
▁Chief	-9.53203
▁feed	-9.53355
▁import	-9.53367
▁Technology	-9.53485
▁Scheme	-9.53485
▁copy	-9.5349
gram	-9.53528
fully	-9.53552
▁certificate	-9.53647
12	-9.53686
dependent	-9.5372
▁square	-9.53816
▁observe	-9.53822
uch	-9.53824
▁whoever	-9.53865
▁projects	-9.54146
▁Em	-9.54173
▁deposit	-9.54219
▁happy	-9.54379
▁Income	-9.5438
▁lives	-9.54448
▁Account	-9.54583
▁burn	-9.54654
ny	-9.54703
▁paper	-9.54736
▁store	-9.54753
▁honour	-9.54829
ping	-9.54888
▁besides	-9.54912
▁unbelievers	-9.54931
▁Every	-9.55036
▁north	-9.55109
▁essential	-9.55198
▁road	-9.55322
▁Education	-9.55322
▁especially	-9.55322
▁poem	-9.55326
▁style	-9.55376
▁scale	-9.55608
▁published	-9.55642
ED	-9.55659
▁leaders	-9.55708
▁issues	-9.5571
▁skill	-9.55736
▁TO	-9.55755
▁tradition	-9.55766
▁opportunity	-9.559
HA	-9.55907
▁Commissioner	-9.55985
▁born	-9.56031
lin	-9.56071
▁mean	-9.56244
▁Their	-9.56309
box	-9.56339
▁regular	-9.56357
▁gene	-9.56365
▁Save	-9.56555
▁south	-9.56614
▁clean	-9.56652
▁attend	-9.56663
▁Message	-9.56775
ference	-9.56853
▁Dev	-9.56915
▁basic	-9.5696
▁relations	-9.56989
▁cat	-9.57006
AS	-9.57167
▁Rec	-9.57184
like	-9.57231
▁objective	-9.57273
app	-9.57273
▁providing	-9.57319
▁Right	-9.57344
▁morning	-9.57405
car	-9.57469
▁invest	-9.5748
ttle	-9.57514
▁simple	-9.57572
AY	-9.57708
▁focus	-9.57784
03	-9.57806
▁led	-9.57847
ung	-9.57883
▁coming	-9.5793
fect	-9.57977
▁Category	-9.58036
▁accepted	-9.58061
▁Under	-9.5807
▁During	-9.58076
rid	-9.5815
▁details	-9.5824
▁award	-9.58252
▁facilities	-9.5829
▁cultural	-9.58375
▁View	-9.58405
▁active	-9.58412
▁Min	-9.58418
vision	-9.5843
▁Will	-9.58438
▁giving	-9.58462
▁concerned	-9.58467
▁wrote	-9.58503
serve	-9.58611
▁easy	-9.58677
▁status	-9.58887
▁load	-9.58947
▁Sri	-9.59132
▁increased	-9.59225
▁determine	-9.59229
▁spend	-9.59242
▁central	-9.59301
body	-9.59435
raj	-9.59485
▁infrastructure	-9.59615
▁avail	-9.59648
hood	-9.59656
kh	-9.59688
▁While	-9.59701
▁manifest	-9.59787
▁International	-9.60002
load	-9.60057
til	-9.6007
▁ban	-9.60075
▁reached	-9.60079
▁game	-9.60084
▁star	-9.60088
▁caused	-9.60208
▁obtain	-9.60215
▁Hereafter	-9.60392
▁influence	-9.60392
▁prescribed	-9.60479
▁percent	-9.60652
▁legal	-9.60708
▁thereof	-9.60821
▁Sign	-9.60945
▁began	-9.61074
▁friends	-9.61122
aw	-9.61159
▁rather	-9.61179
▁room	-9.61271
▁obey	-9.61309
▁ship	-9.61347
▁remind	-9.6139
▁American	-9.61398
▁default	-9.61437
▁dwell	-9.61518
▁Time	-9.61542
▁instead	-9.61569
▁oil	-9.61577
RO	-9.61581
▁contract	-9.61598
▁difference	-9.61721
▁initiative	-9.61744
▁March	-9.61954
▁justice	-9.61983
▁site	-9.62085
▁root	-9.62092
▁explain	-9.62185
“	-9.62206
▁unless	-9.62227
▁cast	-9.62249
▁build	-9.62294
▁base	-9.62321
▁yourselves	-9.62361
“”	-9.62394
▁forgive	-9.62429
▁bird	-9.62458
▁beyond	-9.62538
ular	-9.62754
▁importance	-9.62879
▁heaven	-9.62913
▁Ku	-9.63022
je	-9.63276
▁card	-9.63386
▁film	-9.6343
▁frame	-9.63491
▁responsible	-9.63517
04	-9.63579
▁organization	-9.63645
▁Kan	-9.63657
▁sat	-9.63682
▁beginning	-9.63712
▁sky	-9.63723
▁principle	-9.63741
ATION	-9.63832
▁watch	-9.63876
▁implement	-9.6392
▁shown	-9.64409
▁auto	-9.64478
16	-9.64616
▁listen	-9.6477
▁folk	-9.64778
▁prior	-9.64779
▁session	-9.64874
▁permission	-9.65055
▁branch	-9.65386
▁balance	-9.65552
▁dispute	-9.65582
14	-9.65638
▁reflect	-9.65687
pen	-9.65801
▁spiritual	-9.65805
▁eye	-9.65813
meter	-9.65819
▁attract	-9.65936
▁Other	-9.66201
▁password	-9.66374
▁Failed	-9.66424
▁Move	-9.66463
▁potential	-9.66466
▁vision	-9.66493
CC	-9.66528
▁wind	-9.66605
II	-9.66655
▁walk	-9.66663
▁exceed	-9.66798
▁bow	-9.66915
▁male	-9.66917
EC	-9.66964
▁appeal	-9.66977
can	-9.67075
▁treatment	-9.67168
where	-9.67238
▁Hell	-9.67342
This	-9.67354
▁21	-9.67395
uk	-9.6741
▁Shi	-9.67427
▁returned	-9.67461
▁affair	-9.67485
▁addition	-9.67567
▁Bill	-9.67568
ffi	-9.67589
▁round	-9.67667
wo	-9.6774
▁version	-9.67796
▁Nor	-9.67932
▁daughter	-9.67952
▁range	-9.68164
mitted	-9.68195
▁26	-9.68202
ancy	-9.6826
▁Auto	-9.68328
▁quite	-9.68355
▁understanding	-9.68404
▁feature	-9.6844
▁farm	-9.68508
▁Research	-9.68513
▁girl	-9.68516
▁placed	-9.68566
esh	-9.68572
▁forest	-9.68622
▁collection	-9.68625
▁bad	-9.68641
▁Gujarat	-9.68654
▁traditional	-9.68666
▁organisation	-9.68823
▁Quran	-9.68828
▁Evolution	-9.6889
▁scholar	-9.6889
▁code	-9.68907
▁else	-9.6895
▁parents	-9.68993
▁praise	-9.69037
▁heard	-9.69037
▁model	-9.6911
▁gone	-9.69205
▁labour	-9.69221
▁unjust	-9.69268
▁expression	-9.69287
▁correct	-9.69328
▁servants	-9.69361
▁format	-9.69636
▁dance	-9.69689
▁existence	-9.69811
▁existing	-9.70032
▁promote	-9.70084
▁added	-9.70119
▁white	-9.70125
▁activity	-9.70151
▁communication	-9.7022
▁establish	-9.70228
▁Group	-9.70268
▁tend	-9.70352
▁train	-9.70558
▁Pakistan	-9.70603
▁23	-9.70619
▁System	-9.70651
▁Bar	-9.7071
operative	-9.70749
▁Char	-9.70773
ulated	-9.70778
but	-9.70844
▁rise	-9.70881
▁Ki	-9.70921
▁agricultural	-9.70988
▁bond	-9.71
▁Many	-9.7107
kha	-9.71121
▁seed	-9.71124
not	-9.71238
▁mental	-9.71421
tric	-9.71517
▁employment	-9.71534
▁flu	-9.71579
▁black	-9.71791
▁Air	-9.72023
▁22	-9.72094
ically	-9.72121
under	-9.72218
▁Search	-9.72385
▁taste	-9.72458
▁anti	-9.72474
▁concerning	-9.72554
▁Out	-9.72634
▁goes	-9.72682
▁El	-9.727
▁prop	-9.72786
▁felt	-9.72806
▁reference	-9.72937
▁knew	-9.72983
▁Punjab	-9.73081
▁Create	-9.73105
▁getting	-9.73159
▁plus	-9.73171
▁Garden	-9.73231
▁Therefore	-9.73378
▁Bal	-9.73422
▁running	-9.73464
▁opinion	-9.73476
▁parties	-9.73489
qua	-9.73564
▁wise	-9.73579
▁delete	-9.736
▁fixed	-9.73725
▁Resurrection	-9.73773
▁verses	-9.73808
▁goal	-9.73877
▁Krishna	-9.74021
▁emerge	-9.74095
▁moment	-9.7423
ou	-9.74307
thi	-9.74352
Allah	-9.74421
▁bat	-9.74425
IR	-9.74427
▁Set	-9.74451
▁Europe	-9.74603
▁learning	-9.74607
▁secure	-9.7467
▁Member	-9.74689
abad	-9.74699
▁presented	-9.74745
▁warm	-9.74845
▁Copy	-9.74875
▁pain	-9.75019
▁sale	-9.7502
▁green	-9.75071
ko	-9.7508
▁Why	-9.75129
▁colour	-9.75171
▁department	-9.75281
▁possess	-9.75454
▁mentioned	-9.75515
▁novel	-9.75529
▁painful	-9.7555
▁foot	-9.75647
▁generally	-9.75678
▁usually	-9.75775
▁police	-9.75776
rup	-9.76027
▁responsibility	-9.76078
test	-9.76103
18	-9.7613
▁commun	-9.76253
▁Folder	-9.76281
roll	-9.76326
IL	-9.76378
▁bus	-9.76424
▁destroyed	-9.76454
▁petition	-9.76536
▁produced	-9.76571
▁immediately	-9.76636
▁Today	-9.76703
try	-9.76827
▁Supreme	-9.76841
▁31	-9.76842
▁severe	-9.76956
▁associate	-9.77142
▁Sam	-9.77157
▁presence	-9.77163
▁According	-9.77199
lum	-9.77259
▁fish	-9.7727
▁sight	-9.77279
position	-9.7732
▁ideal	-9.77361
02	-9.77407
▁associated	-9.77514
▁bla	-9.77538
▁wishes	-9.77544
▁election	-9.77551
▁Kashmir	-9.77559
▁Enter	-9.77596
▁Chi	-9.77598
work	-9.77608
▁Science	-9.7792
▁dream	-9.77921
▁sustain	-9.77923
▁cross	-9.77925
▁tried	-9.77928
▁blind	-9.78025
▁opportunities	-9.78178
▁avoid	-9.78183
▁won	-9.78251
▁encourage	-9.78334
iff	-9.78403
▁Office	-9.78411
▁significant	-9.78489
▁perfect	-9.78723
▁medical	-9.78864
▁Kar	-9.78886
▁27	-9.78968
▁Fund	-9.7897
▁continued	-9.79002
▁poetry	-9.79012
▁serious	-9.79016
08	-9.79068
▁expenditure	-9.79167
▁struggle	-9.79167
▁famous	-9.79272
▁performance	-9.79291
ov	-9.79311
▁forgiveness	-9.795
▁Uttar	-9.79534
▁moon	-9.79577
▁Explanation	-9.79638
▁Islamic	-9.79656
▁Op	-9.79673
▁industries	-9.79691
▁companies	-9.79692
▁feet	-9.79727
▁beautiful	-9.79744
▁degree	-9.79744
▁scientific	-9.79902
▁Sat	-9.79912
▁anyone	-9.80153
▁ON	-9.80181
▁fine	-9.80188
▁Provided	-9.80218
▁origin	-9.80238
▁exercise	-9.80271
▁procedure	-9.80271
aka	-9.80287
▁regarding	-9.80369
var	-9.80384
▁calendar	-9.8043
▁Yet	-9.80435
▁gold	-9.8064
▁insect	-9.80711
▁directory	-9.80737
▁Wise	-9.80738
▁assistance	-9.80801
▁increasing	-9.80801
▁repent	-9.80806
▁concept	-9.80976
▁spoke	-9.80995
▁punish	-9.81007
▁particularly	-9.81028
▁pray	-9.81044
▁pure	-9.81244
▁Address	-9.81399
▁nine	-9.81402
por	-9.81494
▁transport	-9.81502
▁workers	-9.81525
▁piece	-9.81659
▁attain	-9.81679
▁supply	-9.81709
▁relation	-9.81903
▁Shah	-9.81906
▁software	-9.81923
▁email	-9.81925
▁joint	-9.82037
▁Ri	-9.82099
teen	-9.82169
▁select	-9.82177
▁journey	-9.82246
akh	-9.82252
▁attempt	-9.823
▁relevant	-9.823
LE	-9.82419
ME	-9.82492
▁conv	-9.82556
▁Thou	-9.82564
cult	-9.82596
▁recommend	-9.82625
▁Which	-9.82625
▁Any	-9.8266
▁symbol	-9.82733
▁Import	-9.82735
▁2000	-9.8277
▁accordance	-9.82811
▁concern	-9.82819
▁press	-9.83109
cut	-9.83135
▁granted	-9.83245
▁respond	-9.83276
▁Start	-9.83357
▁laid	-9.83381
▁media	-9.83469
▁perhaps	-9.83494
▁Tamil	-9.83496
▁team	-9.83509
▁administration	-9.83604
▁constitute	-9.83604
▁Only	-9.83623
osis	-9.83677
▁minister	-9.83714
▁memo	-9.83788
SE	-9.83871
▁station	-9.83902
▁writer	-9.83916
▁broad	-9.83988
▁Guru	-9.84007
▁fully	-9.84017
▁Truth	-9.84043
▁location	-9.84083
▁Calcutta	-9.84097
▁28	-9.84134
izing	-9.84138
▁worth	-9.84155
▁machine	-9.84156
▁urge	-9.84183
▁speed	-9.84197
▁feeling	-9.84204
▁chief	-9.84207
▁admit	-9.84208
▁picture	-9.84373
▁husband	-9.84482
▁target	-9.84482
▁distinct	-9.84484
▁agriculture	-9.84537
▁Last	-9.84623
▁choose	-9.84665
path	-9.84689
▁limited	-9.84689
▁January	-9.84703
▁memory	-9.85199
▁effort	-9.85277
▁convey	-9.85316
▁risk	-9.85382
▁Pharaoh	-9.85535
▁proceed	-9.85681
▁transaction	-9.85703
▁quick	-9.85726
▁sufficient	-9.85814
▁table	-9.85959
▁voice	-9.86095
You	-9.86107
▁Enable	-9.8619
▁middle	-9.86206
▁consideration	-9.86226
▁directly	-9.86248
▁relative	-9.86264
▁complain	-9.86277
▁Change	-9.86335
▁former	-9.86368
▁cities	-9.86413
fall	-9.86417
▁weight	-9.86461
ulate	-9.86499
resident	-9.86541
▁Mumbai	-9.86543
▁begin	-9.86614
▁relationship	-9.86621
▁guard	-9.86906
▁drug	-9.86996
▁length	-9.87052
▁denied	-9.87059
▁quot	-9.87095
▁hill	-9.871
▁portion	-9.87142
▁attention	-9.87278
ibility	-9.87339
EL	-9.87498
▁pleasure	-9.87505
▁grace	-9.87507
▁master	-9.87522
▁lose	-9.8762
▁Port	-9.87655
▁Power	-9.87681
▁transform	-9.87729
▁photo	-9.87912
▁transgress	-9.87919
▁Christian	-9.88075
▁Management	-9.8819
▁mutual	-9.88191
comp	-9.88302
▁Abraham	-9.88419
from	-9.88608
▁cooperation	-9.88763
▁respective	-9.88779
ika	-9.88819
▁solution	-9.88821
▁Children	-9.88878
▁Lok	-9.88883
▁match	-9.88883
▁script	-9.88985
▁decade	-9.89023
▁apostle	-9.89052
▁construction	-9.89052
▁recite	-9.89161
▁announce	-9.89167
▁milk	-9.89226
▁skin	-9.89412
▁highest	-9.89417
No	-9.8943
▁Forgiving	-9.89456
▁discussion	-9.89474
▁straight	-9.89515
70	-9.89526
▁promised	-9.89631
▁AND	-9.89692
▁largest	-9.89744
▁Schedule	-9.89747
▁Image	-9.89753
igh	-9.89837
▁purchase	-9.89921
▁minute	-9.89952
▁innovation	-9.8998
▁fit	-9.90044
▁custom	-9.90098
▁cloth	-9.90172
▁protection	-9.90194
▁chastisement	-9.90213
▁extent	-9.90216
▁marriage	-9.90271
▁proof	-9.90377
▁twenty	-9.90388
▁threat	-9.90394
ING	-9.90407
▁Home	-9.90431
▁festival	-9.90564
▁pattern	-9.90681
▁stream	-9.90683
13	-9.90765
▁Western	-9.90888
▁Kha	-9.90899
▁corrupt	-9.91154
TH	-9.91168
▁Khan	-9.91271
pha	-9.91309
▁implementation	-9.91389
▁someone	-9.91431
▁advice	-9.91447
▁deemed	-9.91451
▁enemy	-9.91565
▁convert	-9.91707
▁appropriate	-9.91743
▁drama	-9.91788
88	-9.91823
97	-9.91823
▁December	-9.9198
▁June	-9.92033
html	-9.92053
▁European	-9.92117
gam	-9.92141
▁contribute	-9.92337
!"	-9.92407
▁resident	-9.92448
▁Tax	-9.92451
▁violence	-9.92457
▁damage	-9.92457
OL	-9.92533
▁Over	-9.92591
▁association	-9.92636
▁Delete	-9.9265
▁channel	-9.93056
▁complex	-9.93116
▁deduction	-9.93176
UT	-9.9321
long	-9.93362
▁net	-9.93379
▁habit	-9.9346
▁sudden	-9.93477
▁idol	-9.9349
▁unique	-9.93538
96	-9.93562
▁Bihar	-9.93591
▁burden	-9.93598
What	-9.93599
▁arrive	-9.93603
fo	-9.93728
And	-9.93766
▁belief	-9.93769
▁height	-9.9385
▁educational	-9.94069
▁response	-9.94082
▁otherwise	-9.94204
▁species	-9.94299
▁trial	-9.94566
▁democracy	-9.9463
▁Chandra	-9.9466
▁raise	-9.9468
▁je	-9.94722
▁bone	-9.94736
▁apart	-9.94792
▁wage	-9.94813
▁rank	-9.95038
▁Free	-9.95177
▁PM	-9.95231
▁Exp	-9.95234
▁revolution	-9.95242
48	-9.95263
▁Text	-9.9538
▁distance	-9.95431
▁80	-9.95437
▁domestic	-9.95488
▁40	-9.95611
▁sister	-9.95612
▁annual	-9.95688
▁Sun	-9.95728
▁technical	-9.95796
▁Finance	-9.958
iii	-9.95852
▁storage	-9.9586
▁Data	-9.95949
▁minus	-9.95993
▁bio	-9.96009
▁hospital	-9.96044
▁Policy	-9.96044
▁buy	-9.96064
▁plugin	-9.96106
▁First	-9.96171
ENT	-9.9624
EM	-9.96324
▁stock	-9.96328
▁constant	-9.96356
▁moral	-9.96448
▁fulfill	-9.96542
▁stories	-9.96542
▁magic	-9.96554
www	-9.96699
▁throw	-9.96881
version	-9.96882
▁Law	-9.96939
▁2014	-9.96953
▁Language	-9.96976
▁located	-9.97039
▁Remove	-9.9704
▁Region	-9.97105
▁surface	-9.97164
▁Post	-9.97278
▁screen	-9.97289
▁powerful	-9.97297
▁wood	-9.97319
▁October	-9.97352
30	-9.97542
▁debt	-9.97573
▁useful	-9.97638
▁extra	-9.97646
▁leader	-9.97713
▁heavy	-9.97733
endra	-9.97733
▁invite	-9.97737
▁safe	-9.97756
▁commercial	-9.97792
▁rid	-9.97833
jan	-9.9784
mount	-9.97865
▁argument	-9.97918
▁km	-9.97965
▁title	-9.98
mukherjee	-9.98107
ography	-9.98128
▁discuss	-9.98161
▁customer	-9.98169
pranab	-9.98171
▁Hu	-9.98197
▁replace	-9.98297
cast	-9.98443
▁Corporation	-9.98551
▁recognize	-9.98678
▁drop	-9.98707
▁Assembly	-9.98741
▁acquire	-9.98805
▁rock	-9.98836
▁valid	-9.98877
▁More	-9.99069
▁Nehru	-9.99124
▁external	-9.99315
▁discover	-9.99344
▁staff	-9.99384
▁succeed	-9.99443
▁devote	-9.99522
▁Programme	-9.99572
▁sacrifice	-9.99636
▁teaching	-9.99638
▁SAW	-9.99765
▁block	-9.99845
▁divine	-9.99894
▁Contact	-10.0022
▁Form	-10.0031
▁recompense	-10.0034
▁enhance	-10.0035
▁Satan	-10.0043
▁committed	-10.0044
▁extreme	-10.0047
▁Mode	-10.0066
▁update	-10.0076
▁divided	-10.0103
▁Bombay	-10.0106
▁Secretary	-10.0112
claim	-10.0113
▁involved	-10.0116
▁Chairman	-10.0125
fold	-10.0133
▁engaged	-10.0151
▁September	-10.0151
▁declared	-10.0153
▁consult	-10.0154
▁destroy	-10.0155
gress	-10.0156
▁recover	-10.0161
▁payable	-10.0166
▁wonder	-10.0174
▁cash	-10.0186
▁Print	-10.02
▁Conference	-10.0202
▁permanent	-10.0224
▁spec	-10.0234
▁policies	-10.0243
▁recognise	-10.0257
▁volume	-10.0257
▁November	-10.0257
▁China	-10.026
▁entry	-10.0262
09	-10.0274
17	-10.0276
▁military	-10.0276
itis	-10.0302
▁review	-10.031
45	-10.0314
▁Window	-10.0316
▁cloud	-10.0316
▁Person	-10.0344
▁average	-10.035
▁appointment	-10.0359
▁caste	-10.0368
▁favor	-10.0376
▁Unto	-10.0381
▁families	-10.0383
▁confirm	-10.0393
▁refuge	-10.0416
▁Path	-10.0422
point	-10.0425
▁refuse	-10.043
▁Assam	-10.0433
▁track	-10.0458
▁tele	-10.0467
▁intend	-10.047
▁undertaking	-10.0477
▁doctor	-10.0482
ache	-10.0483
▁Exchange	-10.0497
▁submit	-10.0498
▁sometimes	-10.0498
▁circumstances	-10.0511
▁micro	-10.0523
rang	-10.0531
▁division	-10.0531
▁button	-10.0548
▁additional	-10.0551
▁academic	-10.0552
▁fee	-10.0557
▁render	-10.0558
▁reserve	-10.0565
▁constitution	-10.0565
minate	-10.0567
well	-10.0567
▁Check	-10.0572
▁decree	-10.0577
▁Paradise	-10.0579
▁publication	-10.0592
▁Gandhiji	-10.0597
▁mention	-10.0603
lusion	-10.061
dress	-10.0618
▁Kerala	-10.0627
▁season	-10.0628
▁expand	-10.063
▁2007	-10.0636
▁August	-10.064
▁(3)	-10.0643
▁proposal	-10.0647
▁utter	-10.0648
▁grand	-10.0649
▁URL	-10.0654
▁Mission	-10.0655
▁ball	-10.0672
▁variety	-10.0675
▁assist	-10.0676
▁truly	-10.0676
▁advise	-10.0684
Muhammad	-10.0687
▁consciousness	-10.0689
▁column	-10.0696
▁hide	-10.07
▁Chand	-10.07
▁taught	-10.0709
▁mouth	-10.071
▁arrangement	-10.0717
▁cho	-10.0721
▁conflict	-10.0723
▁Brahma	-10.073
{	-10.0736
ential	-10.0777
▁Knowing	-10.0779
▁component	-10.0779
▁manufacture	-10.0786
▁egg	-10.0797
▁2015	-10.08
▁sort	-10.08
07	-10.0817
▁professional	-10.0819
▁instruction	-10.0822
▁achievement	-10.0827
▁divide	-10.0831
▁terrorism	-10.0836
▁School	-10.0849
▁Also	-10.0852
▁Para	-10.0854
▁2006	-10.0858
▁wives	-10.0859
▁celebrate	-10.0863
▁false	-10.0869
▁chosen	-10.087
▁partnership	-10.0888
ksha	-10.0898
▁indicate	-10.0901
▁River	-10.0911
▁proud	-10.0917
▁lack	-10.0922
▁sleep	-10.0933
▁advantage	-10.094
▁distribution	-10.0947
05	-10.0953
▁remote	-10.0962
▁slave	-10.0962
▁Prof	-10.097
▁double	-10.0976
▁medium	-10.0983
▁joy	-10.0983
▁Japan	-10.0983
▁adult	-10.099
nagar	-10.0997
▁series	-10.1001
▁whosoever	-10.1002
▁District	-10.1004
▁described	-10.1011
▁Great	-10.1012
▁estimate	-10.1025
ordinate	-10.1028
▁Division	-10.1036
▁reveal	-10.1046
▁repeat	-10.1052
2019	-10.1055
▁destination	-10.1061
▁glad	-10.1069
▁2005	-10.1071
▁Maharashtra	-10.109
▁Ganga	-10.1091
▁truthful	-10.1095
▁independence	-10.1097
▁battle	-10.1129
ographic	-10.1129
▁abroad	-10.1155
▁Rajasthan	-10.1162
▁forget	-10.1168
▁fail	-10.1172
▁cattle	-10.1172
▁context	-10.1184
▁German	-10.1184
▁Certificate	-10.1198
▁1961	-10.1198
▁borrow	-10.1198
pons	-10.12
▁edit	-10.1219
▁output	-10.1245
▁Tagore	-10.1249
▁empty	-10.1256
▁welcome	-10.1264
▁tidings	-10.1264
▁phase	-10.1265
▁dust	-10.1273
▁2013	-10.1282
▁Type	-10.1286
▁introduced	-10.1293
▁defined	-10.1293
▁resolution	-10.13
▁expert	-10.1316
scope	-10.1317
▁hidden	-10.1322
▁wisdom	-10.1344
▁danger	-10.1352
▁consumer	-10.1352
▁Description	-10.1355
▁fellow	-10.1359
▁withdraw	-10.1359
▁representative	-10.1394
▁comment	-10.1401
▁majority	-10.1405
▁2008	-10.1408
▁rupees	-10.1411
▁alter	-10.142
▁Because	-10.1433
▁font	-10.1433
▁Nepal	-10.1442
▁poverty	-10.1448
▁description	-10.1465
▁Akbar	-10.147
▁fresh	-10.1472
▁safety	-10.1475
▁literary	-10.1478
▁impact	-10.1485
▁songs	-10.1485
▁throughout	-10.1485
▁maximum	-10.1493
▁cave	-10.1512
▁Though	-10.1522
▁easily	-10.153
▁ourselves	-10.153
▁beauty	-10.153
▁Mahatma	-10.1538
▁instance	-10.1541
▁initial	-10.1547
▁translation	-10.156
▁Water	-10.1561
▁strike	-10.1561
▁restrict	-10.1564
▁pressure	-10.1565
▁philosophy	-10.1568
ieve	-10.1574
▁studies	-10.1583
▁reply	-10.1585
▁Key	-10.1585
_	-10.1589
▁universal	-10.159
▁breast	-10.1595
▁confidence	-10.1606
▁assigned	-10.1621
▁phone	-10.1621
▁positive	-10.1651
▁defend	-10.1652
▁Color	-10.166
▁dark	-10.168
▁distinguish	-10.1689
▁sculpture	-10.1689
▁Display	-10.1689
▁vital	-10.1693
▁moving	-10.1696
▁medicine	-10.1697
▁horse	-10.1697
▁establishment	-10.1701
▁border	-10.172
▁greatest	-10.1727
▁manager	-10.1736
▁descend	-10.175
▁promotion	-10.175
▁flag	-10.1763
▁authentic	-10.1766
▁History	-10.1774
▁approved	-10.1781
▁Network	-10.1789
▁Health	-10.1791
▁rapid	-10.1804
▁examination	-10.1812
▁Special	-10.182
▁covenant	-10.1827
▁prison	-10.1851
▁monitor	-10.1851
80	-10.1852
▁Raja	-10.1853
▁yield	-10.1858
▁gift	-10.1859
▁dialog	-10.1859
▁decide	-10.1864
▁inherit	-10.1867
▁Social	-10.188
▁Default	-10.1882
▁afflict	-10.1889
▁forbidden	-10.1897
▁Google	-10.1897
▁replied	-10.1897
▁escape	-10.1928
▁{0}	-10.1936
▁extension	-10.1952
▁kingdom	-10.196
▁devotion	-10.1975
▁oath	-10.1975
▁Among	-10.1976
▁subscribe	-10.1978
▁involve	-10.1979
▁furnish	-10.1983
NAME	-10.1984
▁merely	-10.1985
▁opt	-10.199
▁welfare	-10.2015
▁daily	-10.2015
▁household	-10.2021
▁machinery	-10.2022
▁Control	-10.2031
▁resource	-10.2033
▁plot	-10.2053
grade	-10.2055
▁Subhas	-10.2066
▁excellent	-10.2086
▁failure	-10.2089
▁editor	-10.2093
▁Besides	-10.2094
clause	-10.2096
▁Scripture	-10.2102
▁Environment	-10.211
▁substance	-10.211
▁Since	-10.2119
▁neck	-10.2127
▁excess	-10.2128
▁integral	-10.2141
▁minimum	-10.2141
▁Himalaya	-10.2158
▁Second	-10.2198
06	-10.22
▁Micro	-10.2203
▁Qa	-10.2213
▁urban	-10.2214
▁palm	-10.2214
▁sought	-10.2214
▁primary	-10.2221
▁authorities	-10.2228
▁enterprise	-10.223
▁2002	-10.2234
▁creating	-10.2241
encies	-10.2246
▁Two	-10.2251
▁cook	-10.2258
▁institute	-10.2286
▁receipt	-10.2286
▁Count	-10.229
▁Application	-10.2302
▁Official	-10.2318
▁internal	-10.2322
▁vote	-10.2337
▁2016	-10.234
▁College	-10.2343
▁library	-10.2343
▁Financial	-10.2359
▁campaign	-10.2367
▁equipment	-10.2375
▁companion	-10.2376
▁huge	-10.2394
▁irre	-10.2399
▁2001	-10.2406
▁spot	-10.2441
▁finance	-10.2441
▁realise	-10.2448
Peace	-10.2451
▁audit	-10.2462
▁cancel	-10.2473
▁fundamental	-10.2474
▁background	-10.2482
▁Yoga	-10.2482
▁believing	-10.2484
▁communities	-10.2486
▁prosperity	-10.2499
▁possession	-10.2502
▁wild	-10.2526
▁Shiva	-10.2527
▁darkness	-10.2547
36	-10.2548
▁selection	-10.2549
▁trouble	-10.2557
▁probably	-10.2557
▁submitted	-10.2561
▁click	-10.2564
▁Authority	-10.2565
▁railway	-10.2565
▁generate	-10.2573
▁confident	-10.2582
▁actual	-10.2583
▁committee	-10.259
▁sanction	-10.259
▁choice	-10.26
▁Reserve	-10.2606
▁technique	-10.2607
▁gui	-10.261
▁Excellency	-10.2615
▁Number	-10.2615
▁spring	-10.263
▁consequence	-10.264
▁curse	-10.2641
▁latter	-10.2647
▁conceal	-10.2649
▁artist	-10.2651
▁college	-10.2657
▁relief	-10.2657
▁guilty	-10.2657
▁intellectual	-10.2658
▁entitled	-10.2665
▁Click	-10.2674
▁jinn	-10.2682
▁visible	-10.2683
▁latest	-10.2687
▁abide	-10.2689
▁blow	-10.2709
▁greetings	-10.2709
▁leadership	-10.2736
▁Russia	-10.2736
▁Company	-10.275
▁Life	-10.2756
▁emotion	-10.2758
▁Foreign	-10.2758
▁prophet	-10.2759
▁Speaking	-10.2767
▁bodies	-10.2767
▁Help	-10.2768
place	-10.2779
▁breath	-10.2784
▁engage	-10.2785
▁conference	-10.2786
▁duties	-10.2787
▁Library	-10.2792
▁Judge	-10.2793
▁correspond	-10.2818
▁England	-10.2818
▁yourself	-10.2818
▁sacred	-10.2827
▁approval	-10.2835
▁realize	-10.2839
▁Buddha	-10.2844
▁Export	-10.2846
▁facility	-10.2852
▁seized	-10.2864
▁journal	-10.2869
▁iron	-10.2873
▁Tribunal	-10.2878
▁multiple	-10.2881
▁experiment	-10.2904
▁filter	-10.2912
▁tongue	-10.2922
▁Trust	-10.293
▁tissue	-10.2938
▁participation	-10.2964
▁although	-10.2964
▁incident	-10.2964
▁insert	-10.2965
▁victory	-10.2973
▁blame	-10.2984
▁audio	-10.2989
▁solve	-10.3004
▁planning	-10.3009
▁Word	-10.3017
-2018	-10.3025
▁myself	-10.3034
▁archive	-10.3034
tivate	-10.3034
▁engine	-10.3042
▁climate	-10.3042
▁Railway	-10.3051
▁painting	-10.3058
▁governance	-10.3077
▁Internet	-10.3077
▁Assistant	-10.3086
▁registration	-10.3086
▁bestowed	-10.3086
▁defence	-10.3088
▁Current	-10.3095
▁continuous	-10.3095
▁profession	-10.3097
▁arise	-10.3108
▁differ	-10.3109
▁Clear	-10.3113
▁adequate	-10.3121
▁Like	-10.3149
▁Kumar	-10.3152
▁pillar	-10.3157
▁arrest	-10.3157
▁Article	-10.3165
▁insurance	-10.3165
▁sitting	-10.3175
▁bilateral	-10.321
▁street	-10.3229
▁Self	-10.3238
▁empower	-10.3245
▁resolve	-10.3245
▁desert	-10.3247
▁Custom	-10.3254
▁Mighty	-10.3254
▁changing	-10.3281
▁Document	-10.329
▁Invalid	-10.3326
▁About	-10.3335
▁swear	-10.3335
▁agent	-10.3337
▁participate	-10.3344
▁chemical	-10.3344
▁Veda	-10.3358
▁platform	-10.338
▁regulation	-10.338
▁guardian	-10.3385
▁1999	-10.3398
▁tourist	-10.3421
▁facilitate	-10.3425
▁nuclear	-10.3443
▁agencies	-10.3443
▁shift	-10.3453
ifies	-10.3453
▁Connect	-10.3477
▁Knower	-10.348
scription	-10.3484
▁Kovind	-10.3489
▁package	-10.3498
▁proportion	-10.3498
▁criminal	-10.3534
▁Another	-10.3545
▁Civil	-10.3553
▁defeat	-10.3575
▁Province	-10.359
▁neighbour	-10.3599
▁2012	-10.3605
▁Palestinian	-10.3608
▁forgiving	-10.3608
▁Society	-10.3617
▁fabric	-10.3636
▁Egypt	-10.3654
▁student	-10.3661
▁manufacturing	-10.3664
Amendment	-10.3664
▁survey	-10.3673
▁absolute	-10.3692
▁mobile	-10.3701
▁Class	-10.372
▁saving	-10.3722
▁abode	-10.3729
▁emphasis	-10.3738
▁Training	-10.3739
▁tube	-10.374
▁wave	-10.3744
▁courage	-10.3748
▁breed	-10.3763
▁situated	-10.3766
▁London	-10.3766
▁sweet	-10.3767
▁democratic	-10.3795
▁leaf	-10.3801
▁universities	-10.3804
▁Justice	-10.3804
▁icon	-10.3808
▁attribute	-10.3813
▁happiness	-10.3813
▁fault	-10.3814
direct	-10.3822
▁grieve	-10.3824
▁newspaper	-10.3851
▁parliament	-10.3861
▁prostrate	-10.3861
▁jurisdiction	-10.387
▁subsequent	-10.388
▁Mount	-10.3882
▁Karnataka	-10.3889
▁proceedings	-10.3894
▁elephant	-10.3899
▁tribe	-10.3907
▁merciful	-10.3908
▁privilege	-10.3908
▁edge	-10.3912
▁Human	-10.3914
▁assume	-10.3916
▁electronic	-10.3918
▁sugar	-10.3925
▁congratulate	-10.4004
▁Security	-10.4013
▁DVD	-10.4013
▁Before	-10.4013
▁Iraq	-10.4014
▁Jews	-10.4014
▁principal	-10.4023
▁supreme	-10.4023
▁falsehood	-10.4024
▁Next	-10.4033
▁terrorist	-10.4042
▁negative	-10.4042
▁90	-10.4068
course	-10.407
▁hind	-10.4075
▁Swami	-10.4101
▁couple	-10.4111
▁Jammu	-10.412
▁tonnes	-10.412
▁friendship	-10.4146
▁Vishnu	-10.4149
▁accident	-10.4159
▁proposed	-10.4188
▁efficient	-10.4198
▁mechanism	-10.4208
▁applied	-10.4208
▁schedule	-10.4227
▁heritage	-10.4228
▁restore	-10.4235
▁2017	-10.4251
▁ocean	-10.4267
▁exploit	-10.4277
▁weapon	-10.4278
▁commence	-10.4287
▁fuel	-10.4297
▁engineering	-10.4297
▁Process	-10.4297
▁fulfil	-10.4306
▁Legislative	-10.4306
power	-10.4308
▁colon	-10.4308
▁characteristic	-10.4311
▁finger	-10.4316
▁Unknown	-10.4316
▁married	-10.4317
▁Women	-10.4326
▁corner	-10.4333
▁specify	-10.4339
htm	-10.4343
▁Close	-10.4358
▁vehicle	-10.4366
▁currency	-10.4366
▁inaugurate	-10.4376
▁destruction	-10.4376
▁Business	-10.4386
▁pollution	-10.4386
▁patience	-10.4386
▁politics	-10.4396
▁Protect	-10.4396
▁tribal	-10.4426
▁judgment	-10.4466
▁compassion	-10.4466
▁Task	-10.4469
▁administrative	-10.4476
▁Joseph	-10.4476
▁mistake	-10.4486
▁Would	-10.4496
▁ultimate	-10.4496
▁afford	-10.4496
▁finish	-10.4496
▁Chapter	-10.4506
▁scene	-10.4517
Z	-10.4533
▁Resource	-10.4537
▁obvious	-10.4547
▁technologies	-10.4557
▁comfort	-10.4567
▁temperature	-10.4577
▁Standard	-10.4577
▁maintenance	-10.4588
▁compared	-10.4589
▁Affairs	-10.4598
▁ordinary	-10.4598
▁bounty	-10.4608
▁shrine	-10.4608
▁oppose	-10.4608
▁operating	-10.4618
▁discharge	-10.4618
lves	-10.4637
▁discipline	-10.4639
▁prime	-10.4639
▁endeavour	-10.4649
▁university	-10.4649
▁examine	-10.4649
▁weather	-10.4649
▁exclusive	-10.4659
▁stress	-10.4675
▁senior	-10.468
▁zone	-10.468
▁2009	-10.4694
release	-10.4698
▁counsel	-10.47
▁western	-10.4701
▁arrange	-10.472
▁crime	-10.4722
▁Economic	-10.4752
▁Remember	-10.4752
▁grateful	-10.4752
▁ratio	-10.4757
sphere	-10.4762
▁Industrial	-10.4762
▁unknown	-10.4762
▁settled	-10.4762
▁agency	-10.4763
▁John	-10.4773
▁afraid	-10.4783
presidentofindia	-10.4783
▁enemies	-10.4793
▁territory	-10.4814
▁Orissa	-10.4814
▁thirty	-10.4825
▁centuries	-10.4835
▁identified	-10.4846
▁atmosphere	-10.4846
▁distribute	-10.4846
▁identify	-10.4856
▁dedicated	-10.4867
▁detect	-10.4867
▁blue	-10.4888
▁blessed	-10.4888
▁laugh	-10.4916
▁Mughal	-10.4919
▁practical	-10.493
▁terrible	-10.4961
▁eligible	-10.4972
▁Flag	-10.4973
worth	-10.4982
▁appreciate	-10.4982
▁vegetable	-10.4982
▁revenue	-10.4993
▁Choose	-10.4993
▁substantial	-10.5025
▁distress	-10.5025
▁pursue	-10.504
▁Although	-10.5046
▁assess	-10.5047
▁Middle	-10.5057
▁Institution	-10.5057
▁configuration	-10.5068
▁oppress	-10.5068
▁obligation	-10.5078
▁settlement	-10.5089
▁valley	-10.51
▁prevail	-10.5121
▁Server	-10.5122
▁(4)	-10.5124
▁pilgrim	-10.5132
▁exalt	-10.5142
▁ritual	-10.5143
▁Sikh	-10.5143
▁margin	-10.5143
▁Buddhist	-10.5153
TION	-10.5166
▁utilis	-10.5175
▁Speaker	-10.5197
▁identity	-10.5197
▁Author	-10.5207
▁brief	-10.5207
▁hrs	-10.5219
▁execute	-10.5229
▁liquid	-10.5229
▁operate	-10.523
▁Association	-10.5262
▁Direct	-10.5266
▁Agriculture	-10.5273
▁sexual	-10.5273
▁zero	-10.5273
Assessing	-10.5273
▁thereafter	-10.5284
▁palace	-10.5284
terior	-10.5301
firm	-10.5304
▁imagine	-10.5338
▁prince	-10.5338
▁width	-10.535
▁Small	-10.535
Regulation	-10.5354
▁coast	-10.5356
▁strange	-10.5366
IVE	-10.5368
▁Chinese	-10.5371
▁pride	-10.5373
▁ornament	-10.5397
▁temporary	-10.5405
▁Believers	-10.5427
▁adjust	-10.5427
▁ignore	-10.5427
▁invoke	-10.5439
▁Australia	-10.546
▁Independence	-10.546
▁penalty	-10.546
▁Video	-10.5477
▁draft	-10.5482
▁analysis	-10.5505
▁absence	-10.5516
▁virtue	-10.5527
▁chapter	-10.5527
▁undertaken	-10.5538
▁belie	-10.5541
▁disbelief	-10.5549
▁quarter	-10.5561
▁narrow	-10.5583
▁Support	-10.5583
▁Judgment	-10.5594
▁accused	-10.5594
▁publish	-10.5631
▁Principal	-10.5639
▁immense	-10.5639
▁Divine	-10.564
▁bridge	-10.5662
▁tomorrow	-10.5662
▁sorrow	-10.5663
▁Aware	-10.5663
▁orphan	-10.5674
▁applicable	-10.5685
▁Options	-10.5685
▁Multi	-10.5686
▁compensation	-10.5696
▁fifty	-10.5696
▁guarantee	-10.5708
▁expenses	-10.5719
▁Limited	-10.5719
▁bottom	-10.573
▁Settings	-10.5742
▁Narendra	-10.5753
▁Bangladesh	-10.5765
▁Hyderabad	-10.5765
▁database	-10.5765
▁await	-10.5767
▁entrepreneur	-10.5769
while	-10.5772
▁talent	-10.5778
▁depict	-10.5794
▁outstanding	-10.5811
▁sustenance	-10.5834
▁category	-10.5845
▁amendment	-10.5845
▁cricket	-10.5857
▁French	-10.5869
▁combine	-10.5869
▁exhibit	-10.588
▁Apostle	-10.5892
▁architecture	-10.5892
▁convention	-10.5892
▁simply	-10.5903
▁automatically	-10.5926
▁opposition	-10.5927
▁Sardar	-10.5927
▁steel	-10.5929
▁enjoin	-10.5938
▁Persian	-10.5939
▁Madhya	-10.595
▁Museum	-10.595
▁Full	-10.5965
▁mandapa	-10.5973
▁candidate	-10.5985
▁wrongdoers	-10.5985
▁treasure	-10.6008
▁surrender	-10.6008
▁frequent	-10.602
▁muscle	-10.6067
▁infection	-10.6068
▁bull	-10.607
▁Password	-10.6079
▁pledge	-10.608
▁composed	-10.6103
▁argue	-10.6106
▁debate	-10.611
▁council	-10.6115
▁eternal	-10.6115
▁Related	-10.6115
▁Kolkata	-10.6126
▁initiated	-10.6127
▁Pacific	-10.615
▁respite	-10.615
▁wicked	-10.6151
▁Mohammed	-10.6174
▁Further	-10.6186
▁equity	-10.6186
▁violent	-10.6198
ologist	-10.6203
▁Jesus	-10.6222
▁desktop	-10.6246
▁twelve	-10.6246
▁Deputy	-10.6246
▁Industry	-10.627
▁comprehensive	-10.627
▁promoting	-10.627
▁fought	-10.6282
▁beneath	-10.6282
▁Vidya	-10.6284
▁hypocrites	-10.6318
▁Urdu	-10.6319
▁prepare	-10.6337
polytheists	-10.6343
▁depart	-10.6344
▁Access	-10.6355
▁reaction	-10.6356
▁Through	-10.6367
▁leaving	-10.6367
▁Temple	-10.6379
▁Build	-10.638
▁Something	-10.6392
▁disobey	-10.6404
▁soldiers	-10.6416
▁enforce	-10.6416
▁recognition	-10.6428
▁floor	-10.6428
▁acquisition	-10.644
▁Filter	-10.6441
▁Source	-10.6441
▁immediate	-10.6453
▁Insurance	-10.6465
▁liberal	-10.6527
▁satisfied	-10.6539
▁Status	-10.6539
▁substitute	-10.6551
▁telephone	-10.6564
▁depth	-10.6565
▁invalid	-10.6565
▁evolution	-10.6576
▁harvest	-10.6576
▁murder	-10.6576
▁twice	-10.6589
▁neglect	-10.6601
▁crisis	-10.6601
▁preparation	-10.6601
▁overcome	-10.6603
▁domain	-10.6614
▁contemporary	-10.6626
▁behaviour	-10.6638
▁inspiration	-10.6651
▁Foundation	-10.6651
▁servant	-10.6676
Indeed	-10.668
▁Product	-10.668
▁Pandit	-10.669
▁saint	-10.6702
▁horizon	-10.6752
▁understood	-10.6752
▁devil	-10.6753
▁intelligence	-10.6764
▁KDE	-10.6765
▁prompt	-10.6777
▁royal	-10.6778
▁arbitra	-10.679
COM	-10.6796
▁Credit	-10.6803
▁trading	-10.6803
▁tribute	-10.6841
▁flood	-10.6841
▁circle	-10.6853
▁judicial	-10.6853
▁stretch	-10.6854
▁perceive	-10.6854
▁charity	-10.6867
▁preview	-10.6879
▁Global	-10.6892
▁evident	-10.6892
▁Gupta	-10.6892
▁Green	-10.6893
▁competition	-10.6918
▁computing	-10.6918
▁Legislature	-10.693
▁Calendar	-10.6956
▁profile	-10.6969
▁apparent	-10.6995
▁guidelines	-10.7021
▁accomplish	-10.7034
▁accurate	-10.7034
▁scatter	-10.7034
▁1947	-10.7034
▁executive	-10.7047
▁declare	-10.7058
▁efficiency	-10.706
▁definite	-10.706
▁Record	-10.7074
▁switch	-10.7099
▁Plugin	-10.7099
▁improving	-10.7099
▁evolve	-10.71
▁strategy	-10.7112
▁prominent	-10.7112
▁budget	-10.7125
,000	-10.7126
▁elder	-10.7127
▁greet	-10.7137
▁appoint	-10.7151
▁numerous	-10.7165
▁victim	-10.7165
▁Manager	-10.7165
▁Afghanistan	-10.7178
▁collaboration	-10.7191
▁mortal	-10.7192
▁honor	-10.7192
▁expansion	-10.7205
▁facing	-10.7233
▁impossible	-10.7244
▁comprise	-10.725
▁consumption	-10.7258
▁arrogant	-10.7271
▁legislation	-10.7271
▁traffic	-10.7271
▁disturb	-10.7271
▁terminal	-10.7271
&	-10.728
▁repair	-10.7285
▁Annual	-10.7285
▁abandon	-10.7298
▁integrated	-10.7311
▁Earth	-10.7325
▁adapt	-10.7339
▁corporate	-10.7365
▁disgrace	-10.7365
▁felicitations	-10.7378
▁excellence	-10.7378
▁housing	-10.7379
▁completion	-10.7392
▁sharp	-10.7411
*	-10.7415
▁conclude	-10.7432
▁Screen	-10.7459
▁Organization	-10.7473
▁vessel	-10.7473
▁yellow	-10.7473
▁craft	-10.7473
▁Energy	-10.7486
▁province	-10.7486
▁Email	-10.7487
▁mineral	-10.7487
▁Similarly	-10.7514
▁steadfast	-10.7527
▁prohibit	-10.7527
▁surprise	-10.7527
▁Tourism	-10.7528
▁incurred	-10.7541
▁harmony	-10.7541
▁Police	-10.7541
▁despair	-10.7555
▁encompass	-10.7568
▁Kingdom	-10.7568
▁Election	-10.7569
▁alternative	-10.7582
▁conservation	-10.7582
▁crowd	-10.7583
▁irrigation	-10.7596
▁remembrance	-10.7596
▁superior	-10.761
▁Capital	-10.7624
▁Value	-10.7625
▁Lanka	-10.7625
▁combination	-10.7637
▁recipient	-10.7637
▁quantity	-10.7637
genera	-10.7652
▁Follow	-10.7665
▁constructed	-10.7665
▁satisfaction	-10.7679
▁terror	-10.7689
connect	-10.7692
▁Jawaharlal	-10.7693
▁injustice	-10.7707
▁Ambedkar	-10.7735
▁grievance	-10.7735
▁conclusion	-10.7735
▁disorder	-10.7749
▁Himachal	-10.7749
▁remarkable	-10.7763
▁White	-10.7777
▁Photo	-10.7791
▁socio	-10.7803
▁Cabinet	-10.7805
▁encrypt	-10.7805
▁determination	-10.7819
▁Knowledge	-10.7833
▁merge	-10.7846
▁universe	-10.7861
▁personnel	-10.7876
▁extensive	-10.7889
▁securities	-10.7889
▁1992	-10.7889
▁dawn	-10.789
[	-11.1398
‘	-11.7615
–	-11.8483
<	-13.002
>	-13.9549
