<pad>	0
</s>	0
<unk>	0
¦	-1.31176
▁¦	-1.73118
▁	-2.8989
𐋇	-3.29498
ˈ	-3.40376
▁̈	-3.86833
▁,	-4.09838
ˈ¦	-4.21799
▁.	-4.50225
comam	-4.5176
naj	-4.78626
an	-4.80694
tu	-4.96571
yin	-4.98839
ebnaj	-4.99674
a	-5.00967
k	-5.05892
e	-5.16013
is	-5.17452
ti	-5.20834
ha	-5.22374
caw	-5.32034
xin	-5.35121
chi	-5.49109
c	-5.53006
o	-5.54368
yul	-5.55013
anma	-5.55831
ay	-5.56581
yu	-5.56884
to	-5.57661
n	-5.62155
hune	-5.64898
yet	-5.67624
dios	-5.69532
tet	-5.7931
tzet	-5.80119
yeb	-5.83009
ta	-5.9238
ch	-5.97022
i	-5.98244
ni	-6.03496
mach	-6.03597
ul	-6.03755
wal	-6.05328
isc	-6.08385
▁:	-6.09593
j	-6.10018
u	-6.10153
han	-6.13945
ẍi	-6.15712
co	-6.2064
he	-6.23972
in	-6.24536
al	-6.24719
tz	-6.25568
haca	-6.27925
p	-6.28426
ab	-6.28671
il	-6.32465
xa	-6.33556
te	-6.3516
s	-6.35547
en	-6.3718
can	-6.37635
mac	-6.40567
yi	-6.41496
ya	-6.42286
jes	-6.44891
yalni	-6.46379
sat	-6.46578
sunil	-6.47769
tx	-6.48458
no	-6.48848
yuto	-6.50446
yaj	-6.54724
tato	-6.5615
yuxin	-6.56864
isk	-6.58755
ix	-6.59563
lax	-6.59754
con	-6.61444
ban	-6.64639
on	-6.69211
hac	-6.70447
cha	-6.71594
bal	-6.72879
jan	-6.74202
bey	-6.76329
ma	-6.7653
ek	-6.76973
isba	-6.77687
cat	-6.78522
ob	-6.7971
ye	-6.81586
hunt	-6.81593
cano	-6.81826
hunu	-6.83465
y	-6.86514
wi	-6.86937
,	-6.89239
yal	-6.93496
bay	-6.94566
we	-6.94916
chal	-6.95508
lo	-6.99722
chu	-7.00252
cristo	-7.02311
oj	-7.03168
ú	-7.04708
paxo	-7.04903
tic	-7.05615
ilo	-7.06225
bil	-7.07795
¿	-7.09198
r	-7.11861
el	-7.12983
nan	-7.13078
wa	-7.13655
inal	-7.13706
che	-7.14581
▁?	-7.15258
ulal	-7.1569
machi	-7.19403
xol	-7.2019
hex	-7.21089
b	-7.21577
m	-7.21645
lahwi	-7.22953
t	-7.2512
oc	-7.25429
na	-7.26491
chin	-7.29233
yoc	-7.30768
ayco	-7.30948
teyet	-7.34494
istx	-7.34692
ico	-7.36496
tan	-7.36571
hey	-7.36627
lan	-7.36864
watx	-7.38053
tzoti	-7.38095
.	-7.41587
h	-7.42534
israel	-7.42604
ah	-7.44412
le	-7.45339
ec	-7.45772
mam	-7.47874
ba	-7.50327
yip	-7.50846
ca	-7.50846
la	-7.51635
yun	-7.53274
x	-7.55248
ojan	-7.55605
ischejab	-7.56839
um	-7.58432
ayo	-7.60418
ic	-7.60886
chiwal	-7.62978
ayic	-7.63832
niman	-7.64708
ojab	-7.67749
ayto	-7.68696
ho	-7.69093
”	-7.69339
w	-7.69457
ja	-7.69711
mo	-7.73964
matxa	-7.76432
chex	-7.78109
otx	-7.78737
ib	-7.78836
cam	-7.79531
chis	-7.79984
pax	-7.80117
je	-7.81588
ojal	-7.82712
tajil	-7.82951
isya	-7.84515
istz	-7.85352
iswi	-7.86264
hunun	-7.86753
taj	-7.86767
l	-7.88023
chico	-7.88782
yehi	-7.88895
atan	-7.89784
mi	-7.91245
▁;	-7.91468
yelapno	-7.92568
yilni	-7.92788
ton	-7.93041
é	-7.93142
yatut	-7.93433
ap	-7.93761
xan	-7.94097
haxa	-7.94846
haw	-7.95263
apni	-7.95449
iswatx	-7.95552
sata	-7.95894
ej	-7.96069
heba	-7.96177
yilal	-7.964
ebix	-7.96606
ablo	-7.97317
hanin	-7.97848
ex	-7.98155
munil	-7.98586
hal	-7.99218
hi	-7.99867
wan	-7.99883
yahawil	-7.99894
om	-8.01372
win	-8.02022
wet	-8.02322
espíritu	-8.03739
nico	-8.04297
ista	-8.04625
yel	-8.04831
ixim	-8.04992
xaco	-8.05737
bi	-8.06535
quin	-8.06564
yapni	-8.06874
isto	-8.06942
xahan	-8.07423
ley	-8.07847
texol	-8.08288
icham	-8.08632
isbi	-8.09114
wu	-8.095
yan	-8.09555
as	-8.11726
yaben	-8.12206
maca	-8.12292
cuywom	-8.12851
jet	-8.1365
sa	-8.14415
hun	-8.14773
chiwa	-8.15253
santo	-8.15635
ju	-8.16293
quex	-8.16318
ahol	-8.16947
chon	-8.17072
nabal	-8.1917
col	-8.19625
es	-8.19905
chah	-8.20022
maẍto	-8.20273
és	-8.20989
yah	-8.21628
howal	-8.21778
chia	-8.22745
anil	-8.24255
yije	-8.24844
hach	-8.24852
lahan	-8.24929
me	-8.26449
ip	-8.2735
¡	-8.27502
eb	-8.28563
edr	-8.29093
‐	-8.29093
cuybanile	-8.29743
chahni	-8.30216
juẍta	-8.30492
inan	-8.30847
yo	-8.3175
matzwalil	-8.31939
▁!	-8.32193
teyin	-8.3231
hul	-8.32791
wetan	-8.32902
choche	-8.33189
tom	-8.34197
yebpaxo	-8.35105
ón	-8.3512
yinta	-8.35388
hec	-8.36347
jin	-8.38203
li	-8.38602
ismajul	-8.38764
canoj	-8.38768
ismul	-8.38768
maẍ	-8.39657
ángel	-8.40098
yanico	-8.40198
yil	-8.41612
lah	-8.41815
yuninal	-8.42111
á	-8.4236
nich	-8.42372
g	-8.43211
chioc	-8.43882
xe	-8.44149
yay	-8.44849
tzotel	-8.45054
ac	-8.45261
juan	-8.45335
iloj	-8.45881
yeli	-8.46158
f	-8.46566
janma	-8.4684
amben	-8.47066
yalnipaxo	-8.48355
babel	-8.49132
yohta	-8.49829
tiempohal	-8.50988
cach	-8.52886
yechel	-8.53493
yahaw	-8.53572
tit	-8.54402
go	-8.55102
ra	-8.55387
maẍtaj	-8.55597
xil	-8.55736
xiw	-8.56172
cheya	-8.56385
saj	-8.5727
am	-8.58192
walni	-8.58211
camic	-8.58852
yec	-8.59909
anmahil	-8.60644
ar	-8.61154
waxa	-8.61398
ham	-8.62978
q	-8.63332
chiyij	-8.63877
chiswatx	-8.64369
chalni	-8.64389
ayoj	-8.6484
rus	-8.64847
paxoj	-8.64916
cuy	-8.65415
nican	-8.65604
sacerdote	-8.6658
tiempo	-8.67129
yabe	-8.67652
inc	-8.67685
man	-8.67722
macta	-8.68573
colbanil	-8.68941
isnimanil	-8.68943
heyu	-8.6921
heyohta	-8.69828
colwa	-8.69994
aypaxo	-8.70311
yoche	-8.70767
ayex	-8.70946
coba	-8.72662
inmam	-8.73293
rey	-8.74613
tzala	-8.74862
hunelxa	-8.75349
lin	-8.75762
cheyute	-8.78984
yum	-8.79946
winaj	-8.80303
loj	-8.81088
cheyil	-8.81504
isyelal	-8.81659
z	-8.81985
yaco	-8.82204
jahawil	-8.83711
wuẍtaj	-8.84405
ehal	-8.8473
istzotel	-8.8524
camom	-8.85273
oht	-8.85363
machojab	-8.86063
wanma	-8.86735
xahanbal	-8.87506
hunxa	-8.89197
chihul	-8.89403
unin	-8.90245
bar	-8.90507
ayat	-8.91174
tohol	-8.91677
camo	-8.92624
isyeni	-8.92672
cuywawom	-8.93138
cheyal	-8.93474
machoj	-8.93852
ayical	-8.93852
lal	-8.93883
itzitzbi	-8.94029
potx	-8.95284
bel	-8.96186
wohtaj	-8.96227
nipaxo	-8.96983
mar	-8.99429
johta	-8.9958
hil	-8.99623
chute	-8.99896
yoj	-9.00373
tzujan	-9.01055
ías	-9.01669
preso	-9.01874
yeco	-9.02032
helanil	-9.02711
txahli	-9.02711
yaw	-9.031
paxto	-9.03167
bilxa	-9.04485
chiec	-9.05645
hanic	-9.06388
wanab	-9.06695
si	-9.07357
oji	-9.07463
fariseo	-9.07858
ebilcano	-9.08008
chitit	-9.08953
beh	-9.09112
hunel	-9.09399
melyu	-9.10545
í	-9.11347
chejab	-9.11819
lomal	-9.12586
itzitz	-9.13135
meltzo	-9.13293
poh	-9.1335
munla	-9.15025
culus	-9.15168
utxba	-9.15571
huj	-9.16129
wabe	-9.22073
sic	-9.22528
soldado	-9.24084
chihalni	-9.24088
tzalahilal	-9.25126
yulaj	-9.25189
chisje	-9.2541
yixal	-9.26275
wuh	-9.26722
conimanil	-9.27244
wah	-9.27918
istoholal	-9.28319
yijem	-9.29323
niẍte	-9.29405
chischah	-9.295
sim	-9.29904
juẍtaj	-9.2999
cua	-9.30706
wintaj	-9.30756
muj	-9.31689
woc	-9.33629
jichmam	-9.33874
selel	-9.33877
cuyni	-9.35233
tzujno	-9.36187
chijal	-9.36224
ambe	-9.36526
isbej	-9.36561
ẍ	-9.36693
ría	-9.37781
chiwoche	-9.3976
wilni	-9.39806
yuẍta	-9.39888
chaẍ	-9.41458
gali	-9.42223
carta	-9.42241
herod	-9.43463
taxca	-9.4365
tzalah	-9.44065
ispaj	-9.44728
chielico	-9.46013
mule	-9.47357
nahat	-9.47516
quil	-9.47749
pila	-9.47785
roma	-9.48635
ispi	-9.51425
capilla	-9.5268
cablah	-9.52691
echma	-9.53426
yijni	-9.53505
?	-9.93581
ó	-10.1969
;	-10.8912
!	-11.4017
’	-11.7947
(	-12.1043
)	-12.1043
‘	-13.387
v	-13.3871
“	-13.3872
―	-13.3873
:	-13.3874
d	-13.3875
ñ	-13.3876
̈	-13.3876
