<pad>	0
</s>	0
<unk>	0
▁¦	-0
▁᙮	-1
▁,	-2
ᑕᔥ	-3
ᐃᔑ	-4
ᐙᒡ	-5
ᑲᔦ	-6
ᐃᐃ	-7
ᐐᓐ	-8
ᓂᒡ	-9
ᓂᓂ	-10
ᐁᑮ	-11
ᑳᑮ	-12
ᐅᑮ	-13
ᓂᑑ	-14
ᐎᓐ	-15
ᑭᔐ	-16
ᒪᓂᑑ	-17
ᑭᔐᒪᓂᑑ	-18
ᐃᑭ	-19
ᐅᒋ	-20
▁:	-21
ᑳᐐᓐ	-22
ᑭᒋ	-23
ᒋᑫ	-24
ᑎᓯ	-25
ᐗᒃ	-26
ᐃᓂ	-27
ᑯᓯ	-28
ᐊᔮ	-29
ᐃᑕᔥ	-30
ᒦᑕᔥ	-31
ᒋᓴ	-32
ᐋᓃ	-33
ᐃᐃᒫ	-34
ᐃᓈ	-35
ᐊᐎ	-36
ᑳᐃᔑ	-37
ᑭᓇ	-38
ᐎᓂ	-39
ᔦᒃ	-40
ᐊᐊ	-41
ᑌᐺ	-42
ᐅᐅ	-43
ᑕᒧ	-44
ᐊᐎᔭ	-45
ᐊᐲ	-46
ᐱᒫ	-47
ᐃᑭᑐ	-48
ᓇᐙ	-49
ᑭᑭ	-50
ᑲᑭᓇ	-51
ᓇᓐ	-52
ᓂᒃ	-53
ᑎᐯ	-54
ᒋᓴᔅ	-55
ᐃᑯ	-56
ᐌᓂ	-57
ᐁᔑ	-58
ᑕᒪ	-59
ᐙᓐ	-60
ᐙᐸ	-61
ᑰᓐ	-62
ᐃᓇ	-63
ᑭᑎ	-64
ᐯᔑ	-65
ᑳᑌ	-66
ᒥᓐ	-67
ᑕᒫ	-68
ᑭᔐᒪᓂᑑᓐ	-69
ᐗᓐ	-70
ᓇᒥ	-71
ᒥᑯ	-72
ᐋᓃᔥ	-73
ᑲᓂ	-74
ᔮᓐ	-75
ᑖᑯᓯ	-76
ᔥᑭ	-77
ᓂᓂᒃ	-78
ᐃᓀ	-79
▁?	-80
ᑲᓇ	-81
ᐱᒫᑎᓯ	-82
ᑭᑫ	-83
ᑖᐱ	-84
ᑭᒫ	-85
ᐗᐞ	-86
ᐊᓂ	-87
ᒪᒋ	-88
ᐃᐌ	-89
ᐁᑕ	-90
ᑭᑭᓄ	-91
ᐸᓐ	-92
ᐅᑎ	-93
ᐃᓂᓂ	-94
ᐅᑕ	-95
ᐊᓇᒥ	-96
ᔭᓐ	-97
ᑭᑲ	-98
ᑮᔑ	-99
ᑭᑭᓄᐊ	-100
ᑭᓐ	-101
ᔥᐱ	-102
▁!	-103
ᑾᓐ	-104
ᓈᓐ	-105
ᓂᑮ	-106
ᓬᐊ	-107
ᑲᓐ	-108
ᐊᐌ	-109
ᐁᐐ	-110
ᑫᑰᓐ	-111
ᑕᕽ	-112
ᐅᑮᐃᓈ	-113
ᐋᓃᓐ	-114
ᐎᓂᕽ	-115
ᔥᑲ	-116
ᐃᔑᒋᑫ	-117
ᓂᒥ	-118
ᑳᑎᐯ	-119
ᓂᒫ	-120
ᑮᔥᐱ	-121
ᑮᔥᐱᓐ	-122
ᐐᒋ	-123
ᓃᓐ	-124
ᑲᑴ	-125
ᓄᑮ	-126
ᑮᓇᐙ	-127
ᑲᓅ	-128
▁𐋇	-129
ᐊᑮ	-130
ᓂᓯ	-131
ᒦᔥ	-132
ᓀᓐ	-133
ᑕᔑ	-134
ᓂᔕ	-135
ᑮᐃᑭᑐ	-136
ᐎᓂᓂ	-137
ᓂᑯ	-138
ᐐᒌ	-139
ᔥᑳ	-140
ᐗᒡ	-141
ᐅᑲ	-142
ᑕᒨ	-143
ᔥᑰ	-144
ᒪᑲ	-145
ᐃᔥ	-146
ᐊᑮᕽ	-147
ᑖᐱᔥᑰ	-148
ᓴᓐ	-149
ᑯᓂ	-150
ᒥᓄ	-151
ᓂᔑ	-152
ᓂᑎ	-153
ᓲᓐ	-154
ᒣᒃ	-155
ᐯᔑᒃ	-156
ᑳᑮᐃᔑ	-157
ᒪᐙ	-158
ᓯᐌ	-159
ᐊᓇᒥᐁ	-160
ᑰᒃ	-161
ᐋᔕ	-162
ᐌᑎ	-163
ᑾᔭ	-164
ᑳᐅ	-165
ᒥᓐᒡ	-166
ᑭᑮ	-167
ᑕᒧᐙᒡ	-168
ᐸᑭᑎ	-169
ᒋᓴᓲᓐ	-170
ᓈᒡ	-171
ᓵᑭ	-172
ᑳᑎᐯᒋᑫ	-173
ᓂᑖ	-174
ᒦᓇᐙ	-175
ᓂᑕ	-176
ᐃᔖ	-177
ᑕᑯ	-178
ᓈᑾ	-179
ᐃᒫ	-180
ᐆᑌ	-181
ᑭᓯ	-182
ᑲᔥᑭ	-183
ᐅᓇ	-184
ᑯᒡ	-185
ᓈᕽ	-186
ᐋᐱ	-187
ᐅᔑ	-188
ᐊᑕ	-189
ᑕᒥ	-190
ᐎᓯ	-191
ᐃᑎ	-192
ᐃᑰ	-193
ᐱᓯ	-194
ᑯᕽ	-195
ᑳᐅᒋ	-196
ᑕᐙ	-197
ᐎᓇᓐ	-198
ᓈᐙ	-199
ᐯᒫ	-200
ᑳᔑ	-201
ᐯᒫᑎᓯ	-202
ᑭᑐ	-203
ᓂᑲ	-204
ᐊᓇᒥᐁᐎ	-205
ᕒᐊ	-206
ᐐᑕᒪ	-207
ᒋᑳᑌ	-208
ᑫᑯ	-209
ᒋᑑ	-210
ᓂᐳ	-211
ᐅᑌᐺ	-212
ᑮᐌ	-213
ᑲᓇᐞ	-214
ᐱᒥ	-215
ᔮᕽ	-216
ᐅᔕ	-217
ᐅᑯᓯ	-218
ᑭᑭᓄᐊᒪᐙ	-219
ᑖᑾ	-220
ᓰᓐ	-221
ᑕᒣᒃ	-222
ᐃᐃᐌ	-223
ᑭᑑ	-224
ᑭᐸᓐ	-225
ᐃᔥᒀ	-226
ᐁᑳ	-227
ᑎᓄ	-228
ᑕᒃ	-229
ᑯᒻ	-230
ᑲᒥ	-231
ᑮᐃᔑ	-232
ᔭᕽ	-233
ᒋᒧ	-234
ᑐᒃ	-235
ᐱᑯ	-236
ᑳᐐ	-237
ᑭᑌ	-238
ᓈᑯᓯ	-239
ᑕᐎ	-240
ᓀᒃ	-241
ᑳᓱ	-242
ᑮᓐ	-243
ᒫᒡ	-244
ᔕᒃ	-245
ᐗᕽ	-246
ᒪᔥᑲ	-247
ᑎᐹ	-248
ᐲᐃ	-249
ᓃᑳ	-250
ᐯᔑᑾᓐ	-251
ᓇᕽ	-252
ᐊᓄᑮ	-253
ᑳᐊᔮ	-254
ᐄᑐᒃ	-255
ᓅᑯᒻ	-256
ᐃᑴ	-257
ᓯᒃ	-258
ᔓᐌ	-259
ᓇᑰᒃ	-260
ᑭᑭᓄᐊᒫ	-261
ᐅᑭᒫ	-262
ᑫᑰ	-263
ᐅᑮᐃᓈᐞ	-264
ᐎᒡ	-265
ᒪᒋᑑ	-266
ᑯᑕᒃ	-267
ᐅᐌ	-268
ᐐᑫ	-269
ᒥᓍ	-270
ᒦᓂ	-271
ᐸᑳ	-272
ᔑᑾ	-273
ᐃᓈᒡ	-274
ᐋᐱᒋ	-275
ᑲᒥᑯ	-276
ᑎᑫ	-277
ᑕᒥᓂᒡ	-278
ᒫᒪ	-279
ᐅᒌ	-280
ᐋᓇ	-281
ᑳᑎᐯᒋᑫᒡ	-282
ᔥᑫ	-283
ᓇᐃ	-284
ᐙᐞ	-285
ᓈᑯ	-286
ᐅᑌᐺᑕᒨ	-287
ᒥᕽ	-288
ᕒᐆ	-289
ᐅᑮᐃᓈᓐ	-290
ᒪᓐ	-291
ᐅᑌ	-292
ᒥᓯᐌ	-293
ᑖᓐ	-294
ᓃᕽ	-295
ᕒᐃ	-296
ᐁᐃᔑ	-297
ᓅᓐ	-298
ᑎᐱ	-299
ᐅᐅᒫ	-300
ᒫᒌ	-301
ᐱᒫᒋ	-302
ᑭᒋᐊᓇᒥᐁᐎ	-303
ᐅᑖᐱ	-304
ᓈᓂ	-305
ᓐᒡ	-306
ᒥᓂ	-307
ᐋᐸ	-308
ᑳᐃ	-309
ᑕᒧᐎᓐ	-310
ᔑᓐ	-311
ᐎᓐᑦ	-312
ᒥᑯᒡ	-313
ᐋᒡ	-314
ᐐᑳ	-315
ᑭᑭᓄᐊᒫᑫ	-316
ᒣᒀ	-317
ᐅᑕᒑ	-318
ᐐᒌᐎ	-319
ᓇᐎᓐᑦ	-320
ᐌᒋ	-321
ᒋᐅᒋ	-322
ᓈᓯ	-323
ᑲᑴᒋ	-324
ᐌᑯ	-325
ᑕᓐ	-326
ᐅᑖ	-327
ᐁᑮᐃᔑ	-328
ᑎᓰ	-329
ᒀᑕ	-330
ᑲᓇᓐ	-331
ᒫᐗᒡ	-332
ᐅᑯ	-333
ᐙᕽ	-334
ᒋᐃᔑ	-335
ᒫᒑ	-336
ᐆᑌᓈᕽ	-337
ᒫᓐ	-338
ᑌᐺᔦ	-339
ᐃᑭᑐᒡ	-340
ᑲᔥᑭᑑ	-341
ᐅᓄ	-342
ᔮᐱ	-343
ᐃᓀᑖᑯᓯ	-344
ᑕᑲ	-345
ᐊᐊᐌ	-346
ᐅᓇᔓᐌ	-347
ᑳᑮᐅᒋ	-348
ᐅᑑ	-349
ᐊᐱ	-350
ᑎᐸ	-351
ᑕᒻ	-352
ᑲᓂᓂᒃ	-353
ᑫᐅᒋ	-354
ᑯᓂᑫ	-355
ᑲᒥᑯᕽ	-356
ᑫᔑ	-357
ᐸᑳᓐ	-358
ᐊᒑ	-359
ᑕᒫᓐ	-360
ᐅᐅᐌ	-361
ᐎᓰ	-362
ᐅᑭᑭᓄᐊᒪᐙ	-363
ᔭᐄ	-364
ᓭᒃ	-365
ᐃᑯᒡ	-366
ᑾᔭᒃ	-367
ᐊᐌᓀᓐ	-368
ᑮᔑᑯᕽ	-369
ᑕᒫᑫ	-370
ᐌᒃ	-371
ᐐᔭ	-372
ᑲᒀᑕ	-373
ᓇᐗᒡ	-374
ᒥᑰ	-375
ᒥᒋ	-376
ᐙᐱ	-377
ᑭᑖ	-378
ᑫᔮᐱ	-379
ᐗᐊ	-380
ᐊᐗ	-381
ᓃᐱ	-382
ᑕᓰ	-383
ᐹᑏ	-384
ᓯᒀ	-385
ᒨᔕᒃ	-386
ᑭᒋᐅᑭᒫ	-387
ᑭᐌ	-388
ᔭᐋ	-389
ᔔᓂ	-390
ᐊᐎᔭᒃ	-391
ᐗᓈ	-392
ᑮᐊᓂ	-393
ᓃᐱᐗᐞ	-394
ᑫᒃ	-395
ᑕᑯᔑ	-396
ᐲᐃᑳᑌ	-397
ᐅᑭᑭᓄᐊᒪᐙᑲᓇᐞ	-398
ᑌᐱ	-399
ᐃᓇᔥᑫ	-400
ᐯᒫᑎᓯᓂᒡ	-401
ᑳᐸ	-402
ᐙᐙᒡ	-403
ᒥᑖ	-404
ᒫᐗ	-405
ᐅᓈ	-406
ᐱᓵ	-407
ᓇᑴ	-408
ᐌᑯᓀᓐ	-409
ᔑᒣ	-410
ᐃᔑᓂᔕ	-411
ᐊᐗᔑᒣ	-412
ᐊᔮᓂᒡ	-413
ᐌᐱ	-414
ᑲᑮ	-415
ᐐᓇᐙ	-416
ᒪᐎ	-417
ᓬᐃ	-418
ᑮᐅᒋ	-419
ᒥᓴ	-420
ᐊᑖ	-421
ᐁᐸ	-422
ᐲᑕ	-423
ᒥᑲ	-424
ᓂᑎᓱ	-425
ᓂᑳᓱ	-426
ᐐᓯ	-427
ᑭᑕ	-428
ᓇᑲ	-429
ᐙᑳᐃ	-430
ᑕᒧᐎᓂ	-431
ᐅᑯᓯᓴᓐ	-432
ᒪᔮ	-433
ᐃᑰᓐ	-434
ᐲᑎᑫ	-435
ᓯᐌᒃ	-436
ᐲᓂ	-437
ᐁᒐ	-438
ᓇᐌ	-439
ᐙᒃ	-440
ᐱᔑ	-441
ᑲᓂᕽ	-442
ᒫᑲᓂ	-443
ᒫᒃ	-444
ᒪᓯ	-445
ᐋᓂᑕ	-446
ᐎᓂᒡ	-447
ᒦᒋ	-448
ᒪᑲᒃ	-449
ᐊᐎᔭᐞ	-450
ᒋᒧᐎᓐ	-451
ᑕᐌ	-452
ᒋᑯ	-453
ᔖᑰ	-454
ᑳᑕᔑ	-455
ᑲᒃ	-456
ᐊᐎᔭᓐ	-457
ᐊᔮᒡ	-458
ᐹᑏᓄ	-459
ᐱᒫᑎᓯᐎᓐ	-460
ᓯᓄ	-461
ᑭᑭᑫ	-462
ᓭᓂᒃ	-463
ᑭᒋᑮᔑᑯᕽ	-464
ᓯᓅᓐ	-465
ᐯᒫᑎᓯᐙᒡ	-466
ᐊᑐ	-467
ᐊᔓ	-468
ᓂᔑᐗᓈ	-469
ᐸᑴ	-470
ᒥᓂᒃ	-471
ᓂᑳᑌ	-472
ᐌᓂᐗᒃ	-473
ᓂᑫ	-474
ᓂᓂᑭᓐ	-475
ᑳᐱ	-476
ᒎᐎ	-477
ᓴᓬᐊ	-478
ᐅᑎᔑ	-479
ᐙᐸᒫ	-480
ᑕᒪᐎ	-481
ᑭᑎᑳ	-482
ᐌᑖᑯᓯ	-483
ᐁᐱ	-484
ᐅᑌᑌ	-485
ᐅᑮᐃᑰᓐ	-486
ᑮᐊᔮ	-487
ᑎᕽ	-488
ᑑᒡ	-489
ᐁᐊᓂ	-490
ᑫᐃᔑ	-491
ᐲᒋ	-492
ᐊᔭᐋ	-493
ᑲᒥᒃ	-494
ᑲᓇᒃ	-495
ᓂᑖᐎ	-496
ᐅᒫ	-497
ᑭᐸ	-498
ᓈᑲ	-499
ᑮᔑᒃ	-500
ᑲᓇᐌ	-501
ᒪᓯᓇᐃ	-502
ᒉᕒᐆ	-503
ᒉᕒᐆᓴᓬᐊ	-504
ᑫᒋ	-505
ᓂᒧ	-506
ᓰᒻ	-507
ᑳᐃᓈᒡ	-508
ᐅᑌᐺᑕᒨᒃ	-509
ᑆᓬ	-510
ᓈᑾᒃ	-511
ᑖᑯ	-512
ᑫᑰᓇᓐ	-513
ᒪᔥᑲᐎᓰ	-514
ᕒᐃᔭ	-515
ᑎᓯᐎᓐ	-516
ᑫᑰᓂᓂ	-517
ᒥᓉ	-518
ᐸᑴᔑ	-519
ᒎᐗᒃ	-520
ᐅᑯᓯᓯ	-521
ᔑᒫᑲᓂ	-522
ᐃᑫ	-523
ᐸᐹ	-524
ᑯᒫ	-525
ᐲᓂᔥ	-526
ᑰᔦᒃ	-527
ᒫᐗᒋ	-528
ᐅᑕᒑᑾᓐ	-529
ᑳᑎᐯᒋᑫᓂᒡ	-530
ᑭᒋᐊᓇᒥᐁᐎᑭᒫ	-531
ᒥᑕ	-532
ᒥᓈ	-533
ᐱᒫᑎᓰ	-534
ᑎᐯᒋᑫ	-535
ᐃᓴ	-536
ᐋᑎ	-537
ᒪᒃ	-538
ᓰᑲ	-539
ᓂᑕᒻ	-540
ᐃᓇᑫ	-541
ᓈᐙᓐ	-542
ᐅᓵ	-543
ᐱᒥᓂᔕ	-544
ᐃᓂᓂᐗᓐ	-545
ᑴᓐ	-546
ᐅᑮᐃᔑ	-547
ᐁᓈ	-548
ᐃᓂᐌᓂ	-549
ᓱᒡ	-550
ᐐᑕᒪᐎ	-551
ᐁᔮ	-552
ᑭᒡ	-553
ᑳᓂ	-554
ᑾᒃ	-555
ᓃᔣ	-556
ᓯᔅ	-557
ᐲᑕᕒ	-558
ᐃᐃᐌᓂ	-559
ᐲᐊ	-560
ᐸᓀᓐ	-561
ᐅᓇᔓᐌᐎᓐ	-562
ᑳᒋ	-563
ᐊᐲᒡ	-564
ᔥᑳᑯ	-565
ᐃᑭᐌᓂᐗᒃ	-566
ᐃᔅ	-567
ᐊᓯ	-568
ᑭᑭᓇ	-569
ᓈᓯᑲ	-570
ᒪᒋᐊᒑ	-571
ᑮᐱ	-572
ᐐᔭᐎ	-573
ᓰᐗᒃ	-574
ᐃᓈᑯᓂᑫ	-575
ᒉᕒᐆᓴᓬᐊᒥᕽ	-576
ᑫᓐ	-577
ᒥᔅ	-578
ᑖᑾᒃ	-579
ᓂᒥᑯ	-580
ᔫᓯ	-581
ᓃᔑᓐ	-582
ᔔᓂᔮ	-583
ᑰᐞ	-584
ᒋᑮ	-585
ᐊᓇᒥᐋ	-586
ᐌᐌᓂ	-587
ᑮᓇᐎᓐᑦ	-588
ᓃᓇᐎᓐᑦ	-589
ᐲᔖ	-590
ᑳᑮᐱ	-591
ᒋᐱ	-592
ᓀᒀ	-593
ᐎᓐᒡ	-594
ᒋᑳᑌᒃ	-595
ᓂᑌ	-596
ᐅᔥᑭ	-597
¦	-598
▁	-599
ᓂ	-600
ᐃ	-601
ᓐ	-602
ᑭ	-603
ᑕ	-604
ᒋ	-605
ᑮ	-606
ᑳ	-607
ᐅ	-608
ᐊ	-609
ᑲ	-610
ᒡ	-611
ᒃ	-612
ᔥ	-613
ᔑ	-614
ᐙ	-615
᙮	-616
ᓇ	-617
ᐎ	-618
,	-619
ᐁ	-620
ᒫ	-621
ᑯ	-622
ᑫ	-623
ᓯ	-624
ᒥ	-625
ᑎ	-626
ᐱ	-627
ᐌ	-628
ᒪ	-629
ᐐ	-630
ᓈ	-631
ᕽ	-632
ᐗ	-633
ᒦ	-634
ᐸ	-635
ᔦ	-636
ᐋ	-637
ᑑ	-638
ᑌ	-639
ᑖ	-640
ᓴ	-641
ᓃ	-642
ᔮ	-643
ᔭ	-644
ᑰ	-645
ᐯ	-646
ᓀ	-647
ᐲ	-648
ᐞ	-649
ᓄ	-650
ᑾ	-651
ᔐ	-652
ᓰ	-653
ᑐ	-654
ᔅ	-655
ᓅ	-656
ᔕ	-657
ᒧ	-658
ᒻ	-659
ᒀ	-660
:	-661
ᑴ	-662
ᒌ	-663
ᐹ	-664
ᓱ	-665
ᓭ	-666
ᒣ	-667
ᓵ	-668
ᓬ	-669
ᕒ	-670
ᐺ	-671
ᒨ	-672
ᒑ	-673
ᔖ	-674
ᐄ	-675
?	-676
ᐆ	-677
ᔓ	-678
!	-679
ᒎ	-680
ᐴ	-681
x	-682
𐋇	-683
ᑦ	-684
ᓲ	-685
ᑣ	-686
ᐳ	-687
ᔒ	-688
ᔔ	-689
ᓉ	-690
ᑏ	-691
ᓍ	-692
ᒐ	-693
ᑆ	-694
ᐤ	-695
ᒉ	-696
ᑸ	-697
ᒞ	-698
ᔫ	-699
ᔣ	-700
ᑉ	-701
ᔨ	-702
0	-703
ᔂ	-704
ᔗ	-705
;	-706
ᑗ	-707
ᔩ	-708
2	-709
ᑶ	-710
3	-711
ᓶ	-712
1	-713
ᔪ	-714
4	-715
7	-716
ᒬ	-717
ᒸ	-718
ᓋ	-719
ᐾ	-720
ᔛ	-721
ᒶ	-722
5	-723
ᒍ	-724
–	-725
8	-726
ᔀ	-727
ᔾ	-728
6	-729
9	-730
ᔡ	-731
(	-732
)	-733
.	-734
"	-735
/	-736
[	-737
]	-738
a	-739
u	-740
z	-741
~	-742
ᐧ	-743
ᐼ	-744
ᑡ	-745
ᒒ	-746
