<pad>	0
</s>	0
<unk>	0
,	-2.59466
▁ᎠᎴ	-3.28489
.	-3.31494
▁ᎾᏍᎩ	-3.51888
;	-3.71278
Ꮓ	-4.02804
▁ᎯᎠ	-4.20815
▁ᎨᏒ	-4.37539
Ꭲ	-4.53017
▁ᎥᏝ	-4.79781
▁ᎨᏒᎢ	-4.82938
Ꭹ	-4.88843
ᏰᏃ	-4.92379
▁ᎤᏁᎳᏅᎯ	-4.99362
▁Ꭴ	-5.23832
Ꮙ	-5.2894
▁Ꭰ	-5.3161
?	-5.32296
Ꭿ	-5.35653
▁	-5.35802
▁ᏥᏌ	-5.46658
▁ᎾᏍᏉ	-5.46848
▁ᏴᏫ	-5.47566
▁ᎩᎶ	-5.48223
▁Ꮎ	-5.49647
▁ᎠᏴ	-5.50814
▁ᎨᏎᏍᏗ	-5.5487
Ꮧ	-5.58724
-	-5.59619
▁ᏂᎨᏒᎾ	-5.61988
▁ᎤᎬᏫᏳᎯ	-5.62431
▁ᏥᎩ	-5.63139
Ꭽ	-5.63828
▁ᎾᏍᎩᏯ	-5.67393
▁ᎢᏳᏍᏗ	-5.68681
▁ᎠᏎᏃ	-5.69071
ᏍᎩᏂ	-5.74841
Ꮎ	-5.77088
▁ᏂᎯ	-5.77751
▁ᎦᎶᏁᏛ	-5.82861
▁ᎾᎿ	-5.82869
▁ᏱᎩ	-5.84221
Ꮫ	-5.87337
▁ᎪᎱᏍᏗ	-5.92886
Ᏹ	-5.93643
▁ᏂᎦᏛ	-5.96928
ᏍᏗ	-6.01225
Ꭶ	-6.0233
▁ᎣᏍᏛ	-6.02442
Ꮒ	-6.04536
Ꮅ	-6.04729
▁ᎢᏳᏃ	-6.07414
▁ᎢᎦ	-6.08026
Ꮣ	-6.15381
▁ᎿᏉᏃ	-6.15413
▁Ꮧ	-6.16165
▁Ꮷ	-6.16321
▁Ꮵ	-6.20434
▁ᎤᏪᏥ	-6.21569
Ꮈ	-6.21965
▁ᏞᏍᏗ	-6.22364
▁ᎡᎶᎯ	-6.22619
▁ᎠᏂ	-6.24701
Ꮕ	-6.25605
▁ᎾᏍᎩᏃ	-6.29198
▁ᎿᏉ	-6.33893
▁ᎤᏣᏘ	-6.34568
ᏗᏱ	-6.35714
▁Ꮳ	-6.36249
▁ᎤᏲ	-6.36842
Ꮟ	-6.37217
▁ᏂᎦᎥ	-6.37964
▁ᎤᏂ	-6.38563
▁ᎤᏩᏒ	-6.43963
▁ᎬᏂᎨᏒ	-6.44554
▁ᎧᏃᎮᏛ	-6.45579
Ꮿ	-6.47114
▁ᎦᎸᏉᏗᏳ	-6.47283
Ꭺ	-6.47367
▁ᎠᏓᏅᏙ	-6.49701
▁Ᏹ	-6.49861
▁Ꮪ	-6.50074
▁ᎬᏩ	-6.50911
▁ᏄᏍᏛ	-6.51441
▁ᎣᏏᏳ	-6.52147
▁ᎢᏴᏛ	-6.53579
Ꮑ	-6.5571
Ᏻ	-6.5572
▁ᎦᎸᎳᏗ	-6.5707
▁ᎾᎯᏳ	-6.58022
▁ᎯᎠᏃ	-6.60429
▁ᎤᏟ	-6.61607
▁ᏗᎧᎿᏩᏛᏍᏗ	-6.61637
Ꮄ	-6.61858
▁ᎠᏍᎦᏯ	-6.6271
▁ᎠᏥᎸ	-6.64551
▁ᎪᎯ	-6.64568
Ꮢ	-6.64875
▁ᏄᏪᏎᎢ	-6.67223
Ꭸ	-6.67396
▁ᎤᏤᎵᎦ	-6.67828
▁ᎡᎯ	-6.68124
▁ᎢᏥ	-6.68991
▁ᎦᏙ	-6.70516
Ꮵ	-6.71327
ᏍᎩ	-6.71872
ᏍᎪ	-6.72114
▁Ꭲ	-6.73337
▁ᎤᏤᎵ	-6.73419
▁ᎤᎾ	-6.77423
▁Ꭶ	-6.79542
▁ᎢᏳᎵᏍᏙᏗᏱ	-6.79602
Ᏼ	-6.79987
▁ᎾᏂᎥ	-6.80432
Ꭼ	-6.83091
▁ᏌᏉ	-6.83166
▁ᏥᏌᏃ	-6.84019
▁Ᏻ	-6.84136
▁[	-6.84363
▁Ꮣ	-6.8522
Ᏺ	-6.85285
▁ᎤᏂᏣᏘ	-6.86877
▁ᏰᎵ	-6.87532
Ꮩ	-6.88735
▁ᎨᏎᎢ	-6.89405
▁ᎬᏂᏳᏉ	-6.90244
▁ᎢᏳ	-6.91495
▁ᏚᏳᎪᏛ	-6.91495
▁ᎠᏁᎯ	-6.92735
▁ᏧᏓᎴᏅᏛ	-6.96441
▁ᎬᏩᏍᏓᏩᏗᏙᎯ	-6.97552
Ꮂ	-6.98404
▁ᎠᏂᏧᏏ	-6.99065
▁ᎤᎬᏩᎵ	-6.9982
▁Ꭱ	-7.01415
▁ᎠᏎ	-7.01465
Ꮳ	-7.03926
ᎨᏍᏗ	-7.05554
▁ᏈᏓ	-7.06384
]	-7.08561
Ꮨ	-7.09408
▁ᏣᏂ	-7.09977
Ꮞ	-7.10784
▁ᏂᏚᏪᏎᎴᎢ	-7.10966
▁ᏄᏪᏒᎩ	-7.12309
▁ᎢᎩ	-7.12491
▁ᎤᏙᎯᏳᎯᏯ	-7.13486
▁ᎨᏒᎩ	-7.14705
▁ᏄᏪᏎᎴᎢ	-7.15012
▁ᎠᎩ	-7.15183
▁ᏔᎵᏁ	-7.15192
▁Ꮿ	-7.15402
▁ᎦᏙᏃ	-7.15486
▁ᏝᏍᎪ	-7.16093
Ꭰ	-7.17995
▁ᏚᏂ	-7.18137
Ꭾ	-7.18383
▁ᏉᎳ	-7.19088
▁ᎦᎪ	-7.19291
▁Ꮻ	-7.19395
▁Ꭿ	-7.20165
ᎮᏍᏗ	-7.20277
▁ᏥᎷᏏᎵᎻ	-7.2092
▁ᎢᏧᎳᎭ	-7.21029
▁ᎪᎯᏳᏗ	-7.21075
▁Ꮔ	-7.21397
▁ᎢᎬᏱ	-7.21404
ᎸᎩ	-7.21799
▁Ꮒ	-7.22383
ᎴᎢ	-7.22386
Ꮆ	-7.22604
Ꮸ	-7.22913
▁Ꭸ	-7.23473
▁ᏣᎬᏫᏳᎯ	-7.24555
▁ᎡᏍᎦ	-7.24613
ᏍᎨᏍᏗ	-7.24762
▁ᎠᎹ	-7.25841
▁ᎬᏂᏛ	-7.26282
▁ᎠᎨᏴ	-7.2678
▁ᏂᏚᏪᏎᎸᎩ	-7.26807
▁ᎠᏏ	-7.27251
▁Ꭼ	-7.27362
ᏔᏅᎯ	-7.27588
Ꮥ	-7.27832
▁ᎠᏰᎵ	-7.28415
▁ᏄᏪᏎᎸᎩ	-7.29886
ᎸᎯ	-7.30878
▁ᏔᎵ	-7.31966
Ꮤ	-7.32034
▁ᎢᏣ	-7.32132
ᏍᏛ	-7.32986
▁ᎤᏓᏙᎵᏍᏗ	-7.33054
▁ᏂᎦᏗᏳ	-7.33817
ᏍᏓ	-7.34574
▁ᎤᏅᏒ	-7.34778
▁ᏧᏪᏥ	-7.35466
▁ᏅᏗᎦᎵᏍᏙᏗᎭ	-7.35484
ᏅᎩ	-7.35669
Ᏸ	-7.35701
ᏅᎯ	-7.3693
▁ᏧᎾᏓᎴᏅᏛ	-7.37112
▁ᏧᏂ	-7.38052
Ꮲ	-7.38609
ᏁᎢ	-7.39119
▁ᎢᏯᏂᏛ	-7.39648
▁ᎠᏕᎸ	-7.39675
▁ᎤᏁᏨ	-7.39799
Ꮴ	-7.40266
▁ᎬᏂ	-7.40809
ᏒᎩ	-7.42283
▁ᏂᎪᎯᎸ	-7.4295
Ꮃ	-7.43352
▁ᎠᏆ	-7.4358
▁ᎾᏍᎩᏯᎢ	-7.44459
ᏍᎦ	-7.46462
▁ᎾᎥ	-7.47168
▁Ꮥ	-7.48055
▁Ꭳ	-7.48323
▁ᎤᏙᎯᏳᎯ	-7.49441
▁ᎬᏩᎦᏘᏯ	-7.49567
▁ᎩᎳᏉ	-7.49845
▁ᎡᏥ	-7.49954
Ꮖ	-7.5003
▁ᏥᎪ	-7.50494
▁Ꮽ	-7.50616
ᏎᎢ	-7.51206
▁ᎢᏨ	-7.51744
▁ᎠᏏᏉ	-7.52368
▁ᎣᎩ	-7.52436
▁ᏅᎩ	-7.52974
▁ᎦᏚ	-7.5307
▁ᎢᎦᎢ	-7.53133
▁ᏧᎾᏁᎶᏗ	-7.53439
Ꮻ	-7.53783
ᏁᎸ	-7.54394
Ꮹ	-7.5456
▁ᏅᏩᏓᎴ	-7.54611
▁ᎤᏍᏗ	-7.5634
Ꮺ	-7.56416
!	-7.56431
▁ᏄᎬᏫᏳᏒ	-7.56431
▁ᎢᏳᏩᏂᏌᏛ	-7.57452
▁ᏂᏨᏪᏎᎭ	-7.57468
▁ᏗᎧᎿᏩᏗᏙᎯ	-7.58483
▁ᎢᏤ	-7.58992
▁ᎬᏗ	-7.59166
ᏙᏗᏱ	-7.60083
ᏙᏗ	-7.60258
▁ᎢᏓᎵᏅᏟ	-7.60583
ᏉᏍᎩᏂ	-7.61486
▁ᎠᏰᎸ	-7.61582
ᎯᏳ	-7.64065
Ꮀ	-7.64443
▁ᎤᏇᏓᎵ	-7.64739
▁ᎤᎵᏂᎩᏛ	-7.6477
▁ᏍᎩ	-7.65018
ᏍᎩᏂᏃᏅ	-7.65139
Ꮇ	-7.65942
▁ᏅᏯ	-7.66089
▁ᏱᎨᏎᏍᏗ	-7.66118
▁Ꭵ	-7.66544
▁ᎠᏥ	-7.6684
▁ᏗᎦᎸᏫᏍᏓᏁᏗ	-7.66855
▁ᎤᏚᎩ	-7.67276
▁ᎦᏚᎲ	-7.67297
▁ᏗᎦ	-7.68557
Ꭱ	-7.68612
ᎬᎢ	-7.68977
▁ᎤᏕᎵᏛ	-7.69423
▁ᏅᏩᏙᎯᏯᏛ	-7.69423
▁ᎡᏙᏓ	-7.69451
▁ᎩᎶᏃ	-7.6955
ᏍᏗᏱ	-7.70267
▁ᏦᎢ	-7.7124
▁ᏧᎬᏩᎶᏗ	-7.7177
▁ᏧᏙᎢᏛ	-7.71771
▁ᎠᏂᏍᎦᏯ	-7.71772
▁ᎢᏗᏢ	-7.71824
Ꮼ	-7.71834
▁ᎠᏫ	-7.72135
▁ᎠᏏᏴᏫ	-7.72633
▁ᏓᏂ	-7.72789
▁ᎢᎨᏎᏍᏗ	-7.72958
▁ᏄᏂᏪᏒᎩ	-7.7306
Ꮠ	-7.73313
▁ᏕᏥ	-7.73745
▁ᏄᏂᏪᏎᎢ	-7.7423
▁ᎤᏁᎳᎩ	-7.74254
▁ᎠᎾᏙᎴᎰᏍᎩ	-7.75376
Ꭵ	-7.75389
▁ᎤᎾᏓᏅᏘ	-7.75517
▁ᎢᎬᏱᏱ	-7.75833
▁ᎪᏪᎵ	-7.76167
▁ᎠᏓ	-7.76223
▁ᏰᎵᏉ	-7.77036
▁ᎦᎵᏉᎩ	-7.77554
▁ᎤᏓ	-7.77808
▁ᏔᎳᏚ	-7.77861
▁ᎨᏎ	-7.7794
ᎲᎢ	-7.78424
▁ᎢᎸᎯᏳ	-7.79127
▁ᎢᏳᏰᏃ	-7.79623
Ꮔ	-7.79831
ᎸᎢ	-7.80215
▁ᏗᎦᎳᏫᎢᏍᏗᏱ	-7.80774
▁ᎠᏂᏔᎵ	-7.81719
ᏍᎬ	-7.82338
Ꭴ	-7.83007
▁ᏌᏩᏂ	-7.83023
▁ᎡᎳᏗ	-7.83115
ᏍᎬᎢ	-7.83945
▁ᏄᏂᎬᏫᏳᏒ	-7.84363
ᏔᏅ	-7.84909
ᎮᎢ	-7.85121
Ꮪ	-7.85313
Ꮜ	-7.8535
▁ᎢᎦᏛ	-7.85673
▁ᏅᏓᏳᏓᎴᏅᎯ	-7.85713
▁ᎡᏆᎭᎻ	-7.85718
▁ᏱᎰᏩ	-7.8572
▁ᎨᎵᎵ	-7.85742
ᏗᎭ	-7.86662
▁ᎠᏍᎦᏂ	-7.8708
▁ᎤᏍᏆᏂᎪᏗ	-7.87143
▁ᎦᏓᎭ	-7.87259
▁ᏧᎾ	-7.87821
▁ᎢᎦᏤᎵ	-7.88294
▁ᎠᏂᏆᎵᏏ	-7.88467
▁ᏗᏣ	-7.88486
▁ᎤᎾᏤᎵᎦ	-7.88648
▁ᎼᏏ	-7.89875
▁ᏗᏂᎧᎿᏩᏗᏙᎯ	-7.89876
▁ᏱᎨᏎᎢ	-7.90468
▁ᎢᏏᎵ	-7.92467
ᎲᎩ	-7.92485
ᎠᏁᎶᎯ	-7.92643
▁ᎠᏙᎴᎰᏍᎩ	-7.9277
▁ᎠᏎᏉ	-7.93016
Ꮯ	-7.94003
▁ᎠᏲᎱᎯᏍᏗ	-7.94224
▁ᎢᏨᏒ	-7.95991
ᎨᎢ	-7.96961
ᏍᎪᎢ	-7.97245
ᎰᎢ	-7.97326
▁ᏗᏥ	-7.97434
▁Ꮶ	-7.97459
▁ᎦᏙᎯ	-7.97472
▁ᏂᎬᏅ	-7.9764
▁Ꮩ	-7.97711
▁ᏂᎯᏍᎩᏂ	-7.98612
▁ᎤᏥ	-7.98692
Ꮦ	-7.98728
▁Ꮫ	-7.98844
▁ᏚᏙᎥ	-7.99193
ᎪᎢ	-7.99331
ᏁᎸᎯ	-7.99543
▁ᎢᏯᎦᏴᎵ	-8.00332
▁ᎠᏍᎩᎾ	-8.01925
▁ᎦᏳᎳ	-8.03533
▁ᎺᎵ	-8.03552
▁ᎠᏓᎨᏳᏗ	-8.03603
▁ᎤᎵᏂᎩᏗᏳ	-8.05213
▁ᎨᏥ	-8.05261
▁ᏕᏫ	-8.05268
▁ᎠᎦᏴᎵᎨᎢ	-8.06215
ᏁᏗᏱ	-8.0648
▁ᎠᎦ	-8.06692
ᎨᎶᎯ	-8.06758
▁ᎠᏍᏓᏯ	-8.0684
▁Ꮴ	-8.07116
▁ᏄᏍᏗ	-8.07419
ᏗᎦᎳᏫᎢᏍᏗᏱ	-8.08013
▁ᎤᏙᏓ	-8.08014
▁ᎠᎾᎵᏅᏟ	-8.08534
▁ᎠᎦᏴᎵᎨ	-8.08623
▁ᎣᎦ	-8.08867
▁Ꭷ	-8.09387
▁ᏄᎵᏍᏔᏅ	-8.1015
▁ᎠᏂᏍᎩᎾ	-8.1026
▁ᎠᏁᎲ	-8.10295
▁ᎡᏣ	-8.10624
▁ᎣᏂ	-8.10713
▁ᏧᏤᎵ	-8.13643
ᎦᎵ	-8.13702
▁ᏆᎴᏗ	-8.13801
▁ᎦᎶᎯᏍᏗᏱ	-8.13831
▁ᎠᏃᎯᏳᎲᏍᎩ	-8.13841
▁ᏱᎦ	-8.14046
▁ᎨᏐᎢ	-8.14644
▁ᏅᏩᎾᏓᎴ	-8.15616
▁ᏧᏂᏲᎱᏒᎯ	-8.15619
ᏰᎸ	-8.15752
▁ᎢᎦᏛᏃ	-8.16245
▁ᎠᏂᎨᏴ	-8.17469
▁ᎦᏰᎪᎩ	-8.17472
▁ᎨᏥᏅᏏᏛ	-8.1749
▁Ꮹ	-8.17668
▁ᎤᏁ	-8.17713
▁ᏥᎨᏒᎩ	-8.17747
▁ᎠᏓᏁᎸ	-8.1796
ᏁᎵ	-8.18199
ᏒᎢ	-8.1831
▁ᎤᏪ	-8.18463
▁ᏗᏃᏪᎵᏍᎩ	-8.19355
▁ᏒᏃᏱ	-8.19355
▁ᎢᎬᏱᏗᏢ	-8.19378
Ꮡ	-8.19751
▁ᏄᎵᏍᏔᏁᎢ	-8.19902
▁ᎦᎸᎶᎢ	-8.19933
▁ᎤᎾᏛᎦᏅ	-8.20003
▁ᏚᎾ	-8.20206
ᎦᏘ	-8.20605
ᏍᎨᎢ	-8.2063
▁ᏄᏓᎴᏒ	-8.21282
▁ᏕᏣ	-8.21401
ᎬᎩ	-8.21464
ᏍᎬᎾ	-8.21655
▁ᎠᎾ	-8.21944
▁ᎢᏳᏍᎩᏂ	-8.22028
▁ᎤᎷᏨ	-8.22191
▁ᎤᎾᏓᏡᎬ	-8.22203
▁ᎤᏤᎵᎪᎯ	-8.2329
▁ᎥᎥ	-8.23315
▁"	-8.23362
▁ᎢᏗ	-8.23382
▁ᏂᎬ	-8.23395
▁ᎤᏲᎱᏒ	-8.23636
▁ᏥᎨᏎᎢ	-8.2385
ᏔᏅᎩ	-8.24499
▁ᎤᎾᏤᎵ	-8.25039
▁ᎠᎺᏉᎯ	-8.25239
▁ᎤᏓᎵᎢ	-8.25245
▁ᎡᎶᏛ	-8.2527
▁ᎤᏂᎬᏫᏳᎯ	-8.25278
▁ᏨᏒ	-8.25383
▁ᎢᏳᎾᏍᏗ	-8.25391
▁ᏦᎢᏁ	-8.25848
▁ᏥᏳ	-8.2588
ᏗᏍᎨᏍᏗ	-8.26798
▁ᏔᏕᏲᎲᏍᎩ	-8.27279
▁ᎩᎬ	-8.27333
ᏒᎯ	-8.27413
▁ᎢᏯ	-8.27534
▁ᏂᎬᎾᏛ	-8.28238
Ꮰ	-8.28537
ᏍᏙᏗ	-8.28752
▁Ꮭ	-8.29286
▁(	-8.29362
▁ᎡᎺᏅ	-8.29362
▁ᎩᎦᎨ	-8.29368
▁ᏐᎢ	-8.29405
▁ᎠᏲᎵ	-8.29524
▁ᎤᏲᎢᏳ	-8.29581
▁ᏥᏳᎯ	-8.30101
ᏁᎴ	-8.30314
ᏍᏚ	-8.31136
▁ᏱᏣ	-8.31293
▁ᎢᎪᎯᏛ	-8.31491
▁ᎤᏛᎦᏅ	-8.31591
▁ᏕᎦ	-8.31676
▁ᎤᏐᏅ	-8.31845
▁ᏄᏪᏒ	-8.31862
▁ᎢᏳᎵᏍᏙᏗ	-8.33445
▁ᎢᎸᎯᏢ	-8.33664
▁ᎤᏛᏅ	-8.34612
▁ᏧᏗᏱ	-8.35229
ᏛᎾ	-8.35315
ᏁᎯ	-8.35412
▁ᎨᏣ	-8.35503
ᏁᎭ	-8.35681
▁ᎯᏍᎩ	-8.35813
▁ᏅᏓᎬᏩᏓᎴᏅᏛ	-8.35888
Ꭷ	-8.35912
▁ᏅᏗᎦᎵᏍᏙᏗᏍᎨᏍᏗ	-8.361
ᎲᎾ	-8.3643
ᎯᏍᏗᏱ	-8.36476
▁Ꮀ	-8.36776
▁Ꮤ	-8.37054
ᏓᏁᏗ	-8.37721
▁ᏥᏚ	-8.37849
▁Ꭽ	-8.37976
Ꮘ	-8.3798
ᏙᎯ	-8.3805
▁ᏂᎦ	-8.38118
▁ᏅᏙ	-8.38263
Ꮶ	-8.38358
▁ᏂᏣ	-8.38396
▁ᏧᏤᎵᎦ	-8.3851
▁ᎾᏍᎩᏍᎩᏂ	-8.38778
▁ᎤᎾᏙᏓᏆᏍᎬ	-8.39317
▁ᎢᎾᎨ	-8.39376
▁ᎧᏁᎬ	-8.39472
▁Ꮨ	-8.39519
ᏁᏗ	-8.40061
▁ᏕᎤ	-8.40334
▁ᎢᏳᏟᎶᏛ	-8.40485
▁ᎢᏣᎵᏍᏓᏁᏗ	-8.40515
▁Ꮕ	-8.40522
▁ᏗᎬᏩ	-8.41085
ᏁᎸᎩ	-8.41117
ᏎᏍᏗ	-8.41209
ᏍᏕ	-8.41512
▁ᎤᎵ	-8.41911
▁ᎣᏥ	-8.42139
ᏔᏁ	-8.42166
▁ᎠᏁᎲᎢ	-8.42182
▁ᎠᎩᎾ	-8.42352
ᏍᎨ	-8.42569
Ꮝ	-8.42842
▁ᎠᏍᎪᎯᏧᏈ	-8.42871
▁ᏧᏂᎸᏫᏍᏓᏁᎯ	-8.42932
▁ᎠᎦᏙᎥᎯᏍᏗ	-8.42958
▁ᎤᏁᏤ	-8.43666
▁ᏗᏂ	-8.44022
ᏓᎴ	-8.44043
▁ᏂᏥᎥ	-8.44217
▁ᏄᏪᏎᎴ	-8.44262
▁ᎤᎾᏓ	-8.44283
▁ᎨᏐ	-8.44362
ᏓᏅ	-8.44557
▁ᎦᎸᏉᏗ	-8.45008
ᎾᏍᎩ	-8.45045
▁ᎦᏚᎲᎢ	-8.45319
▁ᎠᏇᏥ	-8.45363
▁ᏅᏓᎦᎵᏍᏙᏗᏍᎬᎩ	-8.45372
▁ᎠᎦᏔᎲᎢ	-8.46117
Ꭳ	-8.46481
▁ᏂᏚ	-8.4653
▁ᏗᎬ	-8.4658
ᏅᎢ	-8.4707
▁ᎢᏅ	-8.47315
Ꭻ	-8.47366
ᎬᎾ	-8.47404
▁ᎢᏧᎳ	-8.47472
▁ᏗᏓᏍᏚᏗᏱ	-8.47805
▁ᎢᎸᏍᎩ	-8.47806
▁ᎠᏂᏯᏫᏍᎩ	-8.47911
▁ᏥᎻ	-8.47971
▁ᏌᏉᏉ	-8.49002
▁ᎾᏍᏉᏍᎩᏂ	-8.49324
ᏒᎾ	-8.49395
ᏛᎩ	-8.49856
▁ᏫᎾᏍᏛᎾ	-8.50369
▁ᏗᏂᏲᎵ	-8.50378
▁ᏱᏥᎦᏔᎭ	-8.50409
▁ᏙᏓ	-8.51101
▁ᎤᏅ	-8.51596
ᏅᏏᏛ	-8.52994
▁ᎠᏥᎸᏉᏗᏳ	-8.53102
▁ᎤᏰᎸᏗ	-8.53175
▁ᏥᎦᏔᎭ	-8.53184
▁ᏱᏥ	-8.53901
."	-8.54291
▁ᏱᎨᏎ	-8.54401
▁ᏥᎨᏐ	-8.54623
▁ᏖᎸᎳᏗ	-8.55703
▁ᎤᏬ	-8.55776
▁Ᏺ	-8.55791
▁ᎰᏩ	-8.55841
▁ᎤᏓᏅᏙ	-8.55866
▁ᎬᏔᏅᎯ	-8.5596
▁ᎤᏂᏲ	-8.56116
▁ᎤᏁᎳᏅᎯᏍᎩᏂ	-8.56195
▁ᎤᎪᎲ	-8.56311
▁Ꮸ	-8.56645
▁ᏥᎨᏐᎢ	-8.56818
▁ᎬᏩᏂ	-8.56891
▁ᏄᎵᏍᏔᏅᎩ	-8.56914
▁ᎠᏛ	-8.57167
▁ᎩᎶᏍᎩᏂ	-8.57232
▁ᎠᏋᏒ	-8.57287
▁ᎤᏰᎸᏛ	-8.57359
▁ᏅᏗᎦᎵᏍᏙᏗᏍᎬ	-8.5737
▁ᏗᎾᏓᏅᏟ	-8.58482
▁ᎤᏃᏕᎾ	-8.58483
▁ᎤᏕᏁᎴᎢ	-8.58486
▁ᎭᏫᏂᏗᏢ	-8.58492
▁ᏠᎨᏏ	-8.58501
▁ᏥᎪᏪᎳ	-8.58523
▁ᎭᏢ	-8.58565
▁ᎤᏙᎴᎰᏒ	-8.58585
Ꮷ	-8.58614
▁ᎦᏰ	-8.59058
▁ᏅᏓ	-8.59303
ᏍᎦᎩ	-8.59409
▁ᎬᏗᏍᎬ	-8.59536
▁ᏂᏗ	-8.59574
▁Ᏼ	-8.60032
ᏍᎬᎩ	-8.60076
▁Ꮑ	-8.6022
ᏕᏍᏗ	-8.60242
ᏗᎾ	-8.6113
▁ᏂᏚᏳᎪᏛᎾ	-8.61338
▁ᎾᏂᏪᏍᎨᎢ	-8.61341
▁ᎢᎾᏛ	-8.61344
▁ᎤᏣᏔᏅᎯ	-8.61386
▁ᏦᏩ	-8.6144
ᏍᏙ	-8.61578
ᏛᎦ	-8.61873
▁ᎤᏲᎱᏒᎯ	-8.62082
▁ᎾᎿᏂ	-8.62233
ᎦᏔᎭ	-8.62578
Ꮗ	-8.63136
▁ᏔᎵᏁᏃ	-8.63371
▁ᎩᎳ	-8.63447
ᎠᏗᏔᏍᏗ	-8.63725
ᏗᏍᎩ	-8.63772
▁ᎠᎵᏍᏓᏴᏗ	-8.64099
▁ᏅᏗᎦᎵᏍᏙᏗᏍᎨ	-8.64133
▁ᎤᏓᏅᏘ	-8.64153
ᏗᎦᏅᏌᏗ	-8.64279
▁ᎢᏨᎨᏳᎢ	-8.64279
▁ᏎᏓᏂ	-8.64282
▁ᏥᏂᎬᏅ	-8.64321
ᏍᏔᏅ	-8.64622
▁ᏱᏓ	-8.65152
▁ᎤᎵᏍᏆᎸᏗ	-8.65387
▁ᎬᏂᏳᏉᏃ	-8.65612
▁ᎠᏂᏐᎢ	-8.65634
ᏄᎪ	-8.65815
▁ᏓᎾ	-8.66088
▁ᎤᏣᏘᏂ	-8.66666
▁ᎦᏓ	-8.67073
▁ᎢᏤᎲ	-8.67255
▁ᎤᎩᏨᏛ	-8.67309
▁ᎢᏥᏍᎦᏯ	-8.67327
▁ᎤᏚᎵᏍᎬ	-8.67336
▁ᏄᏍᏕᏍᏗ	-8.67406
▁ᏥᏥ	-8.6764
ᏐᎢ	-8.68951
Ꮋ	-8.69014
▁ᎡᎭ	-8.6937
▁ᎦᏁᎸ	-8.69777
▁ᎠᏆᏤᎵ	-8.70233
ᏔᏂ	-8.70382
▁ᎬᏃᏛ	-8.70456
▁ᎠᏰᎸᎢ	-8.70503
▁ᎬᏅ	-8.7051
▁ᏧᏅᏏᏓᏍᏗ	-8.70547
▁ᏧᏓᏏ	-8.70566
▁ᎤᎧᎵᏨᎯ	-8.70587
▁ᎢᎬᏩ	-8.70591
▁ᎠᎰᎵ	-8.70635
▁ᏣᏁᎭ	-8.70688
ᏔᏁᎢ	-8.71241
▁ᎥᎩ	-8.71378
▁ᎤᏠᏱ	-8.71706
▁ᎠᏄᏬ	-8.72677
▁ᎤᏩᏒᏉ	-8.72803
ᎬᏩ	-8.731
ᏨᎩ	-8.73359
ᏐᏅ	-8.73626
▁ᏅᎬᏩᏪᏎᎸᎩ	-8.7366
▁ᎤᎴᏅᎮ	-8.7366
▁ᎦᏥ	-8.73663
▁ᏂᎬᏩᏪᏎᎴᎢ	-8.73667
▁ᏗᎵᏍᏓᏴᏗᏱ	-8.73685
▁ᎢᏣᏛᏁᏗᏱ	-8.73688
▁ᏂᎦᏪᎭ	-8.73753
▁ᏥᏄᏍᏗ	-8.73771
▁ᎢᏥᎦᏔᎭ	-8.73798
▁ᏣᏥ	-8.74205
▁ᏤᎭ	-8.74535
ᏰᎵ	-8.74827
▁ᎦᏁᎸᎢ	-8.74897
▁ᎤᎷᏨᎩ	-8.7495
ᏯᎠ	-8.7585
▁ᏡᎬ	-8.75861
▁ᏱᏗ	-8.76046
▁ᏫᏚ	-8.76116
▁ᏅᏩᏓᎴᏃ	-8.76361
ᏍᏔᏂ	-8.76429
▁ᏓᎦ	-8.76649
▁ᎠᎦᏔᎲ	-8.76666
▁ᎤᏂᎪᎲ	-8.76697
▁ᏤᏥ	-8.76712
▁ᏔᎴᎲᎦ	-8.76993
▁ᏱᎦᎵᏍᏙᏓ	-8.76993
▁ᏗᏂᎳᏫᎩ	-8.76994
▁ᎢᎳᏯ	-8.76994
▁ᎤᎵᏏᎬ	-8.76997
▁ᎤᏔᎳᏬᎯᏍᏗ	-8.77111
▁ᎠᏂᏏᏴᏫᎭ	-8.77172
ᎧᏂ	-8.77256
▁ᎤᏟᎯᏳ	-8.77419
▁ᏂᎪᎯᎸᎢ	-8.77779
ᏕᎵ	-8.77899
▁ᏈᎵᎩ	-8.78345
▁ᎠᏍᎪᎯ	-8.78488
▁ᎤᎷᏤ	-8.79225
▁ᎠᏓᏅᏖᏍᎬ	-8.79303
▁ᎦᏍᎩᎸ	-8.79325
ᏩᏛᎲ	-8.79644
▁ᎤᏂᎷᏤ	-8.79784
ᎯᏍᏗ	-8.79941
▁ᏴᏫᏉ	-8.79964
ᏁᎳ	-8.80124
▁ᏂᎦᎵᏍᏗᎭ	-8.80442
▁ᎨᏥᎸᏉᏗ	-8.80449
▁ᎠᏣᏗ	-8.80453
▁ᏕᎤᏙᎥ	-8.80468
▁ᎦᎷᏨᎭ	-8.80476
▁ᎢᏳᏓᎴᏅᏛ	-8.80507
▁ᎠᏓᏁᎯ	-8.80512
▁ᎦᎸᏉᏙᏗ	-8.80548
▁ᏗᎨᏥ	-8.80589
▁ᏱᏚ	-8.80631
ᎲᎦ	-8.80638
▁ᎡᏆ	-8.80784
▁ᏕᏣᏓᏅᏛᎢ	-8.80851
ᎯᎠ	-8.81064
▁ᎤᏛᎾ	-8.81293
▁ᏩᎦ	-8.81374
ᎪᏩᏛᏗ	-8.81751
ᎴᏍᏗ	-8.81808
▁ᏂᎦᏪᏍᎬ	-8.82109
▁ᎠᏂᏍᎦᎾ	-8.82833
▁ᏂᏥ	-8.82884
▁ᏂᏚᏪᏎᎴ	-8.82973
▁ᎦᎸᎶ	-8.83008
▁ᏗᎨ	-8.83092
▁ᏙᏛ	-8.83339
ᏲᎯ	-8.83872
▁ᎭᏫᏂ	-8.84005
▁ᏃᏈᏏ	-8.84013
▁ᏗᏅᏃᏛ	-8.84014
▁ᏅᏓᏳᎶᏒᎯ	-8.84016
▁ᏙᏱᏗᏢ	-8.84016
▁ᎤᎦᎵᏍᏗ	-8.84022
▁ᎢᏓᏓᏅᏟ	-8.84026
▁ᏆᏂᏆ	-8.84028
▁ᎤᎵᏍᏆᏗᏍᏗ	-8.84036
▁ᎤᎩᎬ	-8.84043
▁ᎢᎬᏁᎸᎯ	-8.84045
▁ᎾᏍᎦᏅᎾ	-8.84086
▁ᏗᏓᏅᏙ	-8.8409
▁ᎬᎩ	-8.84145
▁ᎦᏛᎦ	-8.84259
ᏍᏆ	-8.84313
ᏍᏆᏂᎪᏗ	-8.84677
▁ᎠᏂᎦᏔᎲᎢ	-8.84961
ᏗᏍᎬ	-8.85086
▁Ꭺ	-8.85091
▁ᎢᏤᎲᎢ	-8.85471
ᏪᎳ	-8.85675
ᏍᏙᏗᏱ	-8.85738
ᏛᎯ	-8.86591
▁ᎤᏂᏣᏖ	-8.86635
ᏅᎦᎸ	-8.86697
▁ᏥᎨᏎ	-8.86832
▁ᏗᎨᏒ	-8.86875
ᎨᏳᎯᏳ	-8.87126
▁ᏂᏓ	-8.87269
ᏙᏓ	-8.87367
▁ᎢᏳᎾᎵᏍᏓᏁᏗ	-8.87461
ᏏᏴᏫᎭ	-8.87519
▁ᏐᏈᎵ	-8.87717
▁ᏓᏆᏙᎥ	-8.87717
▁ᎾᏎᎵᏗ	-8.87718
▁ᎾᎩᏪᏎᎸᎩ	-8.87721
▁ᏗᎨᎦᏁᎶᏗ	-8.87725
▁ᏧᏂᏢᎩ	-8.87739
▁ᎠᏥᏅᏏᏓᏍᏗ	-8.87747
▁ᎤᎵᏍᏈᏗ	-8.87748
▁ᎥᏓᎵ	-8.8776
▁ᎢᏨᏲᏎᎭ	-8.87782
▁ᎢᎩᏙᏓ	-8.87803
▁ᏄᎾᏍᏛ	-8.87829
▁ᎣᏂᏃ	-8.87877
▁Ꮡ	-8.87993
▁ᎠᏆᏤᎵᎦ	-8.88028
▁ᏥᏕ	-8.8829
▁ᎢᏯᏛᏁᏗ	-8.88459
ᏩᏛ	-8.88714
ᏁᎴᎢ	-8.88806
ᎧᏁ	-8.8914
▁ᎪᏪᎵᎯ	-8.89196
ᏅᏒᎩ	-8.89335
ᏃᎮᎭ	-8.8964
ᏚᎵ	-8.89997
▁ᏥᎦ	-8.90308
▁ᏄᎵᏍᏔᏁ	-8.90487
▁ᏓᏳ	-8.90495
▁ᏚᎾᏓᏅᏛ	-8.90551
ᎶᎯ	-8.90594
ᏎᎵ	-8.90829
▁ᎤᎾᎵ	-8.90836
▁ᎢᏳᎾᏛᏁᏗ	-8.91305
▁ᏭᏂ	-8.91319
▁ᏧᎸᏫᏍᏓᏁᎯ	-8.91563
▁ᎢᏯᏛᏁᎯ	-8.91563
▁ᏤᎦᏈ	-8.91563
▁ᎢᏥᏈᏱ	-8.91564
▁ᏐᎳ	-8.91564
▁ᏅᏲᎯ	-8.9159
▁ᎢᏳᏩᏂᏐᏗᏱ	-8.91591
▁ᎢᏥᏙᏓ	-8.91698
▁ᎢᎦᎦᏛ	-8.91808
▁ᎬᏙᏗ	-8.91821
▁ᎢᏳᎵᏍᏓᏁᏗ	-8.92076
▁ᎠᏂᎪᎢ	-8.92095
▁ᎤᏕᏯᏙᏗ	-8.92123
▁ᎢᎬ	-8.92165
▁ᎤᏠᏱᏉ	-8.92194
▁ᏂᎨ	-8.92244
ᏩᏛᎮ	-8.92921
ᏅᏒ	-8.92936
▁ᎾᏂᎥᏉ	-8.93216
▁ᎢᏣᏓ	-8.9327
▁ᎠᏗᎭ	-8.93356
ᎦᏛ	-8.93492
ᏅᎾ	-8.93665
ᎴᎯᏐᏗ	-8.93988
▁ᏂᎦᎥᏉ	-8.93988
▁ᎦᎨ	-8.94005
ᎴᏂ	-8.9424
▁ᎠᏍᎦᎾ	-8.94416
▁ᎡᎯᏍᏗ	-8.94419
--	-8.94534
ᏛᏗ	-8.94846
▁ᏚᎴᏅ	-8.9485
ᏯᏅᎲ	-8.94869
Ꮱ	-8.95016
ᎸᎭ	-8.95451
ᎵᏍᏆᏗᏍᎩ	-8.95494
▁ᎠᏰᎳᏍᏗ	-8.9555
▁ᎤᏬᏰᏂ	-8.95576
▁ᎠᏲᎩ	-8.95594
▁ᎧᏃᎯᏰᎩ	-8.95611
▁ᏗᎨᏫ	-8.95626
▁ᎤᏃᎴ	-8.95663
▁ᎤᏂᏬᏂᎯᏍᏗ	-8.95728
▁ᎠᎲ	-8.95731
▁ᎠᏆᏛᎦᏅᎩ	-8.9578
ᎪᏣᎴᏛ	-8.95859
▁ᏥᏂ	-8.95908
▁ᏥᏓ	-8.95919
▁ᎤᏅᏏᏓᏍᏗ	-8.95932
ᎪᏩᏛᏗᏱ	-8.96099
▁ᏕᎯ	-8.96594
▁ᎾᏍᎩᏯᏉ	-8.96706
ᏓᏂ	-8.97056
▁ᏅᏓᏳ	-8.97538
▁ᏤᏣ	-8.97588
▁ᎤᏍᎦᏅᏨ	-8.97657
▁ᎡᏗ	-8.97906
▁ᏉᎳᏃ	-8.98021
ᏛᎢ	-8.98271
▁ᏱᏨ	-8.98317
ᎵᏃᎮ	-8.98534
▁ᎢᏦᎯᏳᏒ	-8.98596
▁ᎠᏂᎦᏔᎲ	-8.9883
ᎦᏔᎲ	-8.98898
▁ᏗᏓ	-8.99315
▁ᎢᎨ	-8.99386
▁ᏧᏂᎾᏫ	-8.99491
▁ᏅᏛ	-8.99704
▁ᏄᏃᎯᏳᏒᎾ	-8.9973
▁ᏅᏓᏳᎵᏍᏙᏔᏅᎩ	-8.9973
▁ᏅᏛᎩᏅᏏᏛ	-8.9973
▁ᎢᏳᎾᏛᎿᏕᎩ	-8.99732
▁ᏗᏓᎴᏂᏍᎬ	-8.99772
▁ᏩᏍᏛ	-8.99883
ᏍᎦᏅᎢᏍᏗ	-8.99898
▁ᏗᎫᎪᏙᏗᏱ	-8.99901
▁ᏱᏗᏥ	-8.99901
▁ᏓᎶᏂᎨ	-8.99906
ᏤᎵ	-9.00047
▁Ꭻ	-9.00645
▁ᎪᏪᎸᎢ	-9.00808
Ꮭ	-9.00835
ᎸᏉᏙᏗ	-9.01094
▁Ꮼ	-9.01457
▁ᏧᏓ	-9.01604
▁ᎤᏪᎿᎢ	-9.01629
ᏤᎢ	-9.01795
▁ᎤᎦᏔ	-9.01834
ᎦᏅᎯᏛ	-9.02219
▁ᎪᏪᎸ	-9.02317
▁Ꮖ	-9.02326
▁ᎠᏥᎸᏱ	-9.02599
▁ᏗᎧᎿᏩᏛᏍᏗᏱ	-9.02682
▁ᏓᏓᎿᏩᏍᏛ	-9.02885
ᏂᎸ	-9.02914
▁ᏥᏣ	-9.03961
▁Ꮜ	-9.04002
▁ᎬᏩᏚᏫᏛ	-9.04078
▁ᎹᏏᏙᏂ	-9.04078
▁ᏅᎦᏍᎪᎯ	-9.04078
▁ᏗᏕᏲᏗ	-9.04078
▁ᏗᎹᏗ	-9.04079
▁ᎤᏣᎴᏍᏗ	-9.04087
▁ᎢᏤᏯᏔᎮᏍᏗ	-9.04089
ᏂᎳᏍᏓᎸ	-9.0409
▁ᎨᏥᏅᏏᏓᏍᏗ	-9.04101
▁ᎠᎦᏘᏏᏗᏢ	-9.04135
ᏙᎵ	-9.04144
▁ᎤᏙᎯᏳᏒ	-9.0415
▁ᎮᎾ	-9.04164
▁ᎬᏂᏗᏳ	-9.04197
▁ᏏᏌ	-9.04224
▁ᎤᎾᏄᎪᏫᏒᎯ	-9.04399
ᏓᎵ	-9.04399
▁ᎤᏂᏍᏆᏂᎪᏎᎢ	-9.04595
▁ᎠᏗ	-9.04639
▁ᎠᏍᏓᏱ	-9.04795
ᎢᏳ	-9.05238
ᏁᎲ	-9.05892
ᎢᏍᏗᏱ	-9.05902
▁ᏱᎬ	-9.06678
ᏍᏆᏂᎪᏙᏗᏱ	-9.06742
▁ᎦᎶ	-9.06828
ᏁᎳᏅᎯ	-9.06852
ᏕᎢ	-9.06974
▁ᎢᏣᎵ	-9.07069
ᏛᏁᏗ	-9.07191
▁ᎡᎲ	-9.07452
▁ᎠᏤᎵᏍᏛ	-9.07498
▁ᏳᏂ	-9.076
ᎧᏅ	-9.0793
▁ᏫᏗ	-9.08083
▁ᎤᏁᏨᎩ	-9.08172
ᎤᏁᎳᏅᎯ	-9.08189
ᏥᏌ	-9.08243
▁ᏴᎬ	-9.08296
ᎨᏳᏎᏍᏗ	-9.08446
▁ᎢᏣᏤᎵ	-9.08449
ᎪᎯ	-9.08529
▁ᎤᎾᏤᎵᎪᎯ	-9.0865
▁ᏗᏘᏂᏙᎯ	-9.0874
▁ᏞᎦ	-9.08756
▁ᎦᏬᏂᎯᏍᏗ	-9.08781
Ꮬ	-9.08829
▁ᎤᏩ	-9.08901
▁ᏅᏗᎦᎵᏍᏙᏗᏍᎪ	-9.08969
ᏗᏳ	-9.09107
ᏁᎮᏍᏗ	-9.09146
▁ᎠᎧᎵᎢ	-9.09148
ᎵᏏ	-9.09204
▁ᎬᏗᏍᎩ	-9.0929
▁ᎨᎳ	-9.09502
▁ᏗᏣᏓ	-9.09506
▁ᎤᏁᎬ	-9.09667
▁ᏄᎾ	-9.09925
▁ᏚᎾᏓᏅᏛᎢ	-9.09956
▁ᏫᎦ	-9.10495
▁ᏕᏣᏓ	-9.10586
ᏍᏔᏁᎢ	-9.10637
ᎸᎾ	-9.10639
▁ᎤᏒ	-9.1066
ᏁᏤᎸ	-9.11327
▁ᎪᎵ	-9.11888
▁ᏕᎨᏥ	-9.12295
▁ᏄᎵᏍᏔᏂᏙᎸ	-9.12318
Ꮾ	-9.12644
▁ᏫᎬᏩ	-9.12672
▁ᎠᏋ	-9.13102
▁ᏗᏥᎾᏫ	-9.13109
ᎡᏗᏱ	-9.13186
▁ᎠᏓᏅᏓᏗᏍᏗ	-9.13208
ᎢᏳᏍᏗ	-9.13215
Ꮉ	-9.13274
▁ᎣᏣᎵᏅᏟ	-9.13385
▁ᎧᎳᏩᏗᏒ	-9.13385
▁ᎡᏈᏌ	-9.13385
▁ᎢᏌᏯ	-9.13386
▁ᎢᏳᎾᎵᏍᏙᏗᏱ	-9.13386
▁ᏗᏰᎸᎯ	-9.13389
▁ᏂᏥᏪᎭ	-9.1339
▁ᎤᎧᏛ	-9.13392
▁ᏂᎦᏪᏍᎨᎢ	-9.13395
▁ᏄᎬᏫᏳᏌᏕᎩ	-9.13413
▁ᏓᎦᎷᏥ	-9.13429
,)	-9.13434
▁ᎤᎵᎮᎵᏍᏗ	-9.1344
▁ᎢᏗᎦᏔᎭ	-9.13459
ᏍᏕᏍᏗ	-9.13526
▁ᏗᎦᏙᎵ	-9.13586
ᎵᏍᏙᏗ	-9.13616
ᏨᎯ	-9.13849
ᎸᏉᏗᏳ	-9.13912
▁ᎠᏥᎦᏘᏗᏍᏗ	-9.14072
▁ᏚᎸᏫᏍᏓᏁᎲᎢ	-9.14293
ᎶᏗ	-9.14767
▁ᏗᎩ	-9.14811
▁ᎤᏓᏅᏖ	-9.14842
▁ᏧᏪ	-9.14876
ᏁᎶᏗ	-9.15096
ᏎᎭ	-9.15187
ᏍᏕᎸᏗ	-9.1532
ᏗᏍᎪᎢ	-9.15536
▁ᎦᏙᎨ	-9.15648
ᏙᎴ	-9.15925
▁ᏧᎾᏍᏗ	-9.16142
ᏉᏃ	-9.1651
ᎴᏅ	-9.16672
▁ᎤᏂᏍᎦᏅᏨ	-9.16757
ᏁᎰᎢ	-9.1676
ᎷᏨ	-9.16965
ᏌᏛ	-9.17039
▁ᎠᏃ	-9.17139
ᏁᏟᏴ	-9.1746
ᏍᏕᎸᎯ	-9.17471
ᏗᏍᎨᎢ	-9.17533
▁ᎤᎾᏙᎴᎰᏒ	-9.17605
▁ᎠᏆᏓᏅᏙ	-9.17613
ᏌᎳ	-9.17687
ᏅᏎ	-9.17819
ᏎᎮ	-9.18033
ᏓᏅᏛ	-9.18166
▁ᏯᎩ	-9.18242
ᏍᏗᏍᎩ	-9.18332
ᏍᏔᏅᎯ	-9.18382
▁ᏑᎾᏓᏡᎩ	-9.18385
▁ᏨᏗᏓᎴᎲᏍᎦ	-9.18385
▁ᏄᏂᎬᏫᏳᏌᏕᎩ	-9.18389
▁ᎤᎵᏁᏨ	-9.18408
ᏄᎪᏤ	-9.18442
ᏄᏬ	-9.18444
ᏯᎥᎢ	-9.1846
▁ᏂᏗᎥ	-9.18465
ᏲᎱ	-9.18578
▁ᎤᏪᏘ	-9.18615
▁ᎤᎷᎯᏍᏗᏱ	-9.18651
ᏚᏓᎴᏍᏙᏗ	-9.18676
▁ᎠᏍᎪᎵ	-9.18678
ᎡᎢ	-9.18698
▁ᏭᎶᏎᎢ	-9.18719
▁ᎤᏰᎯ	-9.18825
▁ᎠᎵᏍᏕᎸᏙᏗ	-9.1886
▁Ꮟ	-9.18953
▁ᎤᏩᏒᎯᏳ	-9.19159
ᏍᏓᏱ	-9.19165
▁ᎣᏂᏱ	-9.19186
▁ᎤᎸ	-9.19407
▁ᎦᏥᏯ	-9.19539
ᎪᎲ	-9.19551
ᏍᏕᎸ	-9.19924
▁ᏗᎨᏒᎢ	-9.19955
▁ᎢᏳᏓᎴ	-9.20345
ᏕᎩ	-9.20415
ᎧᎵᎢ	-9.20989
▁ᎠᏏᏴᏫᏃ	-9.21124
ᎾᏝᎢ	-9.21214
▁ᎤᎾᏓᏡᎬᎢ	-9.21327
ᏠᏯᏍᏗ	-9.21466
ᏤᎸ	-9.21793
▁ᎤᏙ	-9.21973
ᏁᎰ	-9.22241
▁ᏗᎩᎦᏴᎵᎨ	-9.22508
▁ᎣᏓᎸ	-9.22543
▁ᏚᏁᏤᎴ	-9.22554
ᎦᎵᏍᏓ	-9.22557
ᏲᎱᏎ	-9.22945
ᎨᎳᏍᏗᏱ	-9.23116
ᎪᏩᏛ	-9.23146
▁ᎠᎵ	-9.23302
▁ᏥᎨᏒ	-9.23355
▁ᎦᏛᎬ	-9.23361
ᏂᏏ	-9.23391
▁ᏥᎬ	-9.23514
▁ᏣᏤᎵ	-9.2361
▁ᎤᏚᎸᏗ	-9.23649
▁ᎤᎾᏁᎳᎩ	-9.2365
▁ᎪᎯᏳᎲᏍᎩ	-9.2365
▁ᏱᏅᏗᎦᎵᏍᏙᏗᎭ	-9.23654
ᎥᎢ	-9.23654
▁ᎤᎵᏏᎩ	-9.23656
▁ᎡᏏᎩ	-9.2366
▁ᏂᏣᏛᏁᎸ	-9.23663
ᎦᏙ	-9.23665
▁ᎤᎾᏓᏤᎵᏛ	-9.23667
▁ᎦᎵᏦᏕ	-9.23669
▁ᎢᏣᎵᏍᏙᏗᏱ	-9.23682
▁ᏧᏂᎸᏫᏍᏓᏁᏗᏱ	-9.23692
▁ᏗᎪᏢᏔᏅᎯ	-9.23711
▁ᎡᏏᏱ	-9.23721
ᎾᏄᎪᏫᏎ	-9.23728
▁ᏗᎦᏚᎲ	-9.23765
▁ᎢᏨᏗᏍᎨᏍᏗ	-9.23797
▁ᎪᎯᏗᏳ	-9.23812
▁ᏚᏃ	-9.23846
▁ᏣᏁᎳᏅᎯ	-9.23857
▁ᏂᏕ	-9.23931
▁ᎤᏂᎯᏍᏗᏱ	-9.24079
▁ᎤᏂᏣᏛᎩ	-9.24091
▁ᎢᏳᎢ	-9.24103
▁ᎤᏂᏣᏔ	-9.24149
ᏲᎲ	-9.24173
ᎠᎴ	-9.24231
ᎵᏍᏕᎸᏙᏗ	-9.24333
▁ᏫᏣ	-9.24342
▁ᏓᏁᏩᏗᏒᎢ	-9.24406
▁ᎢᎦᏤᎵᎦ	-9.24712
ᏡᏗᏍᎩ	-9.24921
ᏁᎸᎢ	-9.25062
ᎲᏍᎩ	-9.25266
,]	-9.25289
▁ᎤᎶᏐᏅ	-9.25306
▁ᎾᎯᏳᏉ	-9.25861
ᏅᏍᏗᏱ	-9.25953
▁ᏂᎯᏰᏃ	-9.2598
▁ᎧᏁᎬᎢ	-9.26273
▁ᎪᏪᎳ	-9.26558
▁ᎯᏯ	-9.26592
▁ᏄᎵᏍᏔᏅᎢ	-9.27144
▁ᎬᏩᎾ	-9.27196
ᏂᏗᏳ	-9.27251
ᎫᏴ	-9.27474
▁ᏂᏙ	-9.2801
ᏲᎭ	-9.28088
▁ᎪᎯᏍᎩᏂ	-9.28113
ᎾᎵ	-9.28179
▁ᏕᎬᏩ	-9.28294
▁ᏧᎵ	-9.28592
ᎳᏅᎯ	-9.28596
ᏁᏨ	-9.28882
▁ᏗᏆᏤᎵ	-9.28958
▁Ꭹ	-9.29112
▁ᎤᏇᏓᎸ	-9.29204
▁ᏗᏟᎶᏍᏔᏅᎯ	-9.29204
▁ᏌᎺᎵᏱ	-9.29204
▁ᎤᏂᏃᏕᎾ	-9.29205
▁ᎬᏩᏟᏍᏗ	-9.29205
▁ᏧᏒᎯᏛ	-9.29205
▁ᏙᎴᏛ	-9.29207
▁ᎠᎩᎵᏯ	-9.29207
▁ᎠᎾᏓᏅᏟ	-9.29207
▁ᏚᎳᏍᎬ	-9.2921
▁ᎢᏣᎵᏅᏟ	-9.2921
▁ᏗᏓᏘᏂᏙᎯ	-9.29212
▁ᎢᏳᏩᏁᏗᏱ	-9.29218
▁ᏂᎬᏩᏪᏎᎸᎩ	-9.29218
▁ᎤᏍᏆᎸᎲ	-9.29219
▁ᏗᏣᏓᏅᏙ	-9.29225
▁ᏧᎳᏏᏕᏂ	-9.29252
ᎪᏩᏘᎭ	-9.2929
▁ᎤᏚᎵᏍᎨᏍᏗ	-9.29298
▁ᎤᎷᎯᏍᏗ	-9.29323
▁ᏱᏄᏍᏗ	-9.29325
ᏲᏎ	-9.29497
▁ᏱᎬᏩ	-9.29541
▁ᏱᎨᏐᎢ	-9.29572
ᏁᏥ	-9.29602
ᏁᎲᎾ	-9.29602
▁ᎠᎴᏬ	-9.297
ᏍᏔᏅᎩ	-9.29711
ᎶᏒ	-9.29765
▁ᎢᏯᏍᏗ	-9.29903
▁ᎢᎦᎦᏘ	-9.29905
ᏓᎴᏅᏛ	-9.29999
▁ᏄᏂ	-9.30313
▁ᏇᎵ	-9.30578
▁ᏧᎾᏓ	-9.30672
ᏍᏕᎸᏗᏱ	-9.30822
ᏒᎭ	-9.30825
ᏂᎨ	-9.30946
▁Ꮉ	-9.31432
ᏁᎲᎢ	-9.31467
ᏑᏰᏛ	-9.32278
▁ᏄᏛᏁᎸ	-9.32825
ᎷᏤᎸ	-9.32911
ᏩᏛᎯ	-9.32981
ᏯᏅᏛ	-9.33321
ᎵᏍᏗ	-9.33487
ᏙᎵᏍᏗ	-9.3358
Ꮽ	-9.3381
▁ᎤᎶ	-9.33826
▁ᏂᏚᎩᏨᏂᏒ	-9.33883
▁ᏚᎸᏫᏍᏓᏁᎲ	-9.34222
ᏅᏏᏓᏍᏗ	-9.34226
▁ᎤᏰᎸᏅ	-9.3431
▁ᏣᎾ	-9.34696
ᎳᏫ	-9.34946
ᏛᏁᎵ	-9.34955
▁ᎠᏖᎵᏙ	-9.35082
:	-9.35086
▁ᎠᎩᎵᏲᎢᏍᏗ	-9.35086
▁ᏓᎿᏩ	-9.35086
▁ᏗᏂᎦᏙᎵ	-9.35086
▁ᎠᎫᏴᏙᏗ	-9.35086
▁ᎠᏠᏁᏗ	-9.35086
▁ᏗᏂᎨᏫ	-9.35086
▁ᎦᏩᏒᎩ	-9.35087
▁ᏥᏄᏪᏎᎢ	-9.35087
▁ᎢᎦᏪᏛ	-9.3509
▁ᏑᏓᎴᎩ	-9.35095
▁ᏗᏂᏏᏗ	-9.35115
▁ᎥᏞᏍᏗ	-9.35149
▁ᎤᎾᏫᏱ	-9.35177
ᎧᎿ	-9.35257
▁ᎤᏛᏛᏁ	-9.35271
ᏓᏂᎸᎢᏍᏗ	-9.35328
▁ᏗᏄᏬ	-9.35348
▁ᏧᏁᏥ	-9.35374
ᎵᏰᎢᎶᎯᏍᏗ	-9.35385
▁ᎤᏁᏢᏔᏅᏛ	-9.35401
▁ᏥᎨᏳᎢ	-9.35402
▁ᎢᏣᏤᎵᎦ	-9.35444
ᎶᏛ	-9.35447
▁ᏣᏤᎵᎦ	-9.3545
▁ᏴᎦ	-9.35456
▁ᎾᏃ	-9.35502
▁ᎢᎬᏒ	-9.35525
▁ᏚᏳᎪᏛᎢ	-9.35579
▁ᎤᏅᏒᏉ	-9.36082
▁ᎣᏏ	-9.36088
ᏗᏢ	-9.36097
▁ᎡᎵ	-9.36299
ᏁᎮ	-9.36567
▁ᎡᎲᎢ	-9.37027
ᏄᎪᏨ	-9.37097
Ꮏ	-9.37201
ᏣᏘ	-9.37372
▁ᏫᏓ	-9.37475
▁ᎢᏓ	-9.37609
▁ᏥᏍᏆ	-9.37961
▁ᎢᎾᎨᎢ	-9.38006
▁ᎤᏂᏁᏨ	-9.38217
▁ᏫᏥ	-9.38358
▁ᏯᏂ	-9.38386
ᎨᏒ	-9.38637
▁ᏦᎩ	-9.38679
▁ᎠᏇ	-9.38879
▁ᎤᎾᏛᏁ	-9.38972
ᎡᎸ	-9.39061
▁ᎤᏴ	-9.39423
ᏎᏗ	-9.39937
▁ᎠᏓᏙᎵᏍᏗ	-9.39967
▁ᎾᏂ	-9.39997
▁ᏕᏣᏙᎥ	-9.40133
▁ᏕᏥᎸᏫᏍᏓᏁᎲ	-9.40159
▁ᎤᎶᎩᎸ	-9.40162
▁ᏥᎪᎨ	-9.40254
▁Ꮝ	-9.40342
ᏰᏂ	-9.4048
▁Ꮗ	-9.40789
▁ᏅᏗ	-9.40812
ᏓᏍᏗ	-9.40916
ᎦᏔᎲᎾ	-9.41021
▁ᎤᏕᎰᎯᏍᏗ	-9.41178
ᏔᏲᏎᎴ	-9.41181
▁ᏄᏓᎵᏓᏍᏛᎾ	-9.41336
▁ᎠᎱᏍᏕᏍᏗ	-9.41336
▁ᎬᏩᏍᏓᏩᏛᏎᎢ	-9.41337
▁ᏏᏌᎵᏱ	-9.41337
▁ᎤᏂᏴᏍᏗᏱ	-9.41337
▁ᎢᎳᎪ	-9.41337
▁ᎢᏯᎾᏛᏁᎯ	-9.41342
▁ᏅᏧᎵᏍᏙᏔᏅ	-9.41342
▁ᎠᏅᏗᏍᎬ	-9.41349
▁ᏧᎾᏛᏐᏅᎯ	-9.41352
▁ᎤᏂᎩᎬ	-9.41353
▁ᎠᎪᏄ	-9.41362
▁ᏫᏚᏯᏅᎲ	-9.41362
▁ᎢᏣᏓᏙᎵᏍᏗᏍᎨᏍᏗ	-9.41362
▁ᎠᏂᏬᏂᏍᎬ	-9.41382
▁ᏧᏕᏘᏴᏛ	-9.41385
▁ᎨᏆᏂ	-9.41406
▁ᎾᏛᏁᎮᏍᏗ	-9.41448
▁ᏕᎨ	-9.41453
▁ᎤᏁᎫᏥᏛ	-9.4146
ᎷᏤᎵ	-9.41471
▁ᎢᏳᏅᏁᏗᏱ	-9.41475
▁ᎤᎾᏠᎾᏍᏗ	-9.41483
▁ᎪᏢᏔᏅᎯ	-9.41504
▁ᎤᎾᏰᎯᏍᏗ	-9.41531
▁ᎤᏓᏅᏘᏳ	-9.41654
ᏍᏆᏛ	-9.41706
▁ᎠᏲᎱᏍ	-9.41716
▁ᎠᏧᏏ	-9.41723
▁ᏙᎯ	-9.41774
▁ᏓᏯᎢ	-9.41819
▁ᎦᏰᏥ	-9.41862
ᏧᏈ	-9.41892
ᏛᏁᎭ	-9.41957
▁ᏏᏓᏁᎸ	-9.41976
ᎤᏅ	-9.4219
▁ᏗᎾ	-9.42219
ᏴᎵ	-9.42721
ᎸᏉᏙᏗᏱ	-9.43146
ᏌᏂ	-9.43179
ᏁᏍᎨ	-9.43256
▁ᏱᎨ	-9.43465
▁ᎢᎬᏁᏗ	-9.4354
ᏠᏱ	-9.43571
▁ᏄᏓ	-9.4364
▁ᏱᏍᎩ	-9.43749
ᎨᏳᎯ	-9.43873
ᏲᏏ	-9.4417
ᏯᎥ	-9.4432
▁ᏂᏥᎥᎢ	-9.44331
ᏓᏍᏗᏱ	-9.44513
ᏓᏅᎦᎸᏛ	-9.44644
ᏉᏰᏃ	-9.45144
ᎢᏍᏗ	-9.45258
ᏂᏳ	-9.45519
ᏲᎵ	-9.45576
Ꮮ	-9.4574
▁ᎠᎬ	-9.4582
▁ᎤᏁᏨᎯ	-9.46453
ᎲᏏ	-9.46857
▁ᏍᎩᏯ	-9.46928
▁ᎢᏧ	-9.46971
▁ᎡᎮ	-9.47178
▁ᏓᎩ	-9.47591
▁ᏅᏩ	-9.47602
▁ᏃᎦ	-9.47657
▁ᏣᏓ	-9.47668
▁ᏗᎫᎪᏙᏗ	-9.47748
ᏕᏯᏙ	-9.47756
▁ᎬᏆ	-9.4783
ᏎᎮᏍᏗ	-9.47964
▁ᏄᏜᏏᏛᏒᎾ	-9.48003
▁ᏕᎹᏍᎦ	-9.48003
▁ᎤᎾᎴᏅᎮ	-9.48003
▁ᏕᎦᏚᏩᏗᏒ	-9.48003
▁ᏌᏱᎳ	-9.48003
▁ᎳᏏᎳ	-9.48003
▁ᏗᎨᏥᎤᏍᏕᏎᎸᎯ	-9.48003
▁ᎢᏯᏅᏙ	-9.48003
▁ᏦᎯᏳᏒ	-9.48004
▁ᎡᏉᎯᏳ	-9.48006
▁ᎾᏂᏪᏍᎬᎩ	-9.48007
▁ᏩᏛᎬᎦ	-9.48012
▁ᎠᏁᏙᎯ	-9.48019
▁ᎢᎬᏩᎵᏍᏙᏗ	-9.48027
▁ᎠᏂᎩᏏᏙᎯ	-9.48031
▁ᏅᏃᎯ	-9.48031
▁ᏅᏓᏳᎾᎵᏍᎪᎸᏔ	-9.48032
▁ᎫᎫ	-9.48037
▁ᏗᏥᏲᎵ	-9.4804
▁ᏍᎩᏃᎲᏏ	-9.48049
▁ᎢᎩᏍᏕᎵᏍᎩ	-9.4806
▁ᏦᏓᏂ	-9.48062
▁ᎾᎬᏁᎸ	-9.48084
▁ᎤᏙᎯᏳᏗᏱ	-9.48086
▁ᏗᏤᏥ	-9.48121
▁ᎠᎵᏍᏚᎶ	-9.48162
▁ᎠᎵᏍᎪᎸᏔᏅᎯ	-9.48249
▁ᎤᏍᏚᎢᏒ	-9.48251
ᏛᏗᏱ	-9.48281
▁ᎦᏁᎳ	-9.48291
▁ᎤᏪᎵᎯᏍᏗ	-9.48293
ᎵᏍᏔᏅ	-9.48294
▁ᏙᎯᏱ	-9.48305
▁ᏥᏁᎬᎢ	-9.48433
▁ᎹᏗ	-9.48462
▁ᎤᏓᏅᏒᎩ	-9.48468
▁ᏚᏳᎪᏗ	-9.48505
▁ᎠᏥᎸᎠᏁᎶᎯ	-9.48641
▁ᎬᏩᎷᏤᎸᎩ	-9.48681
▁ᎠᏥᎸᏉᏗ	-9.48711
▁ᏰᎭ	-9.48805
▁ᎤᏂᏍᎦᏅᏨᎯ	-9.48811
ᎬᏫᏳ	-9.48819
ᎡᎯ	-9.48865
▁ᎤᏍᏆᏂᎪᏗᏳ	-9.48877
▁ᎤᏕᏅ	-9.48936
▁ᎤᏬᎵ	-9.49218
ᏙᎢ	-9.49298
▁ᏚᏪ	-9.49415
▁ᎤᏣᏛ	-9.49721
▁ᎠᏁᎭ	-9.4984
ᏍᏕᎵᏍᎬ	-9.49987
▁ᏲᎩ	-9.50064
▁ᏥᏄ	-9.50079
▁ᎦᏍᎩᎸᎢ	-9.50239
▁ᏫᎬ	-9.50411
ᏰᎭ	-9.50597
▁ᎯᎠᏍᎩᏂ	-9.50679
▁ᎦᎸᎳᏗᏳ	-9.50737
ᏠᎾᏍᏗ	-9.50957
▁ᏭᎾ	-9.50985
▁ᎬᏗᏍᎬᎢ	-9.51078
▁ᎠᏋᏒᏉ	-9.51285
▁ᎢᏤᎯ	-9.51296
ᎨᏳᎭ	-9.51455
ᎵᎦ	-9.51549
ᎨᏳᏗ	-9.51734
ᎵᏍᏓ	-9.51878
▁ᎤᏲᎱᏒᎢ	-9.51937
ᏍᎦᎸ	-9.51945
ᎪᏗᏱ	-9.52109
)	-9.52596
▁ᏛᏂ	-9.52636
▁ᎡᎩ	-9.52663
▁ᏥᏯ	-9.5276
▁ᏓᏣ	-9.52952
ᎷᎦ	-9.53014
ᏎᎸᎯ	-9.53062
ᎵᏳ	-9.53112
▁ᎦᏬᏂᏍᎬ	-9.5319
ᏕᏅ	-9.53221
▁ᎢᏥᏰᎸ	-9.53311
ᏍᏓᏴ	-9.53401
▁ᏓᎾᏓ	-9.53522
ᏗᏍᎨ	-9.53564
▁ᎾᎾᏛᏁᎲ	-9.53818
▁ᏴᏓ	-9.5387
ᏟᏂᎬᏁ	-9.53905
▁ᎧᏃᎮ	-9.53907
▁ᏗᏨ	-9.53932
▁ᏚᏂᎸᏫᏍᏓᏁᎲ	-9.54008
▁ᎤᏂᎷᏨ	-9.54068
▁ᎡᎳᏪ	-9.54133
▁ᏣᏂᏃ	-9.54288
ᏏᏱ	-9.54412
ᏥᏯ	-9.54425
ᏍᏓᏩᏗᏙᎯ	-9.54443
▁ᏚᎸᏫᏍᏓᏁᎸ	-9.54588
▁ᎤᎾᎵᎪ	-9.54628
ᎦᎶᏁᏛ	-9.54671
ᏁᏤᎸᎯ	-9.54741
▁ᏚᎵ	-9.54893
▁ᏧᎾᏤᎵ	-9.54958
ᏰᎵᏎ	-9.54981
▁ᏧᏅ	-9.55002
▁ᎤᏄᎪᏨ	-9.5502
▁ᏗᏤ	-9.55142
▁ᎠᏂᏌᏚᏏ	-9.55145
▁ᏗᏍᏓᏓᏅᏟ	-9.55145
▁ᎢᏤᎳᏗᏙᎮᏍᏗ	-9.55146
▁ᏅᏓᏳᏂᎶᏒᎯ	-9.55146
▁ᎠᏓᏰᏍᎩ	-9.55146
▁ᏗᏓᏬᏍᎩ	-9.55146
ᏛᏳᎨᏗ	-9.55147
▁ᏞᎩᏳ	-9.55147
▁ᏣᏔᎦ	-9.5515
▁ᏧᏃᏰᏂ	-9.5515
▁ᎠᏂᏫᏅ	-9.55151
▁ᎢᏧᏩᏁ	-9.55158
▁ᎤᏛᏁᎢ	-9.55159
▁ᏥᏂᏣᏛᏅ	-9.55169
▁ᎠᏂᎦᏔᎯ	-9.55173
▁ᎢᏨᏔᏲᏎᎭ	-9.55181
▁ᎤᏬᏢᏅᎯ	-9.55186
▁ᎢᏥᏯᏫᏍᎨᏍᏗ	-9.55188
▁ᎢᎬᏁᎯ	-9.55192
▁ᎦᎾᏰᎯᏍᏗ	-9.55194
▁ᎣᏥᎦᏔᎭ	-9.55202
▁ᏗᏂᏰᎸ	-9.55238
▁ᎠᏆᏁᎳᏅᎯ	-9.55244
▁ᏤᏈ	-9.55249
▁ᎤᏲᎱᎯᏍᏗᏱ	-9.55258
▁ᎠᏆᏚᎵᎭ	-9.5527
▁ᎤᏁᎷᏅᎩ	-9.55292
▁ᎤᎾᎳᏅᎯ	-9.55304
▁ᏱᏙᎦ	-9.55323
ᏛᎿᏕᎩ	-9.55327
ᏕᎬ	-9.55369
▁ᎦᎸ	-9.55429
▁ᎠᏨᏍᏙᏗ	-9.55493
▁ᎤᏅᏏᏙᎯ	-9.5565
▁ᎠᏆᏚᎵᏍᎬ	-9.55689
▁ᎠᏁᏙᎮ	-9.55697
▁ᏭᎶᏒᎩ	-9.55697
▁ᎤᏄᎪᏨᎩ	-9.55935
▁ᎤᏂᎷᏨᎩ	-9.55939
ᎦᏔᎰ	-9.56106
▁ᏚᎾᏓᏡᏩᏗᏒᎢ	-9.56195
ᏅᏗ	-9.56297
▁ᏗᎦᎸᏉᏗ	-9.56453
▁ᏯᏆ	-9.56511
▁ᏧᏁᏤ	-9.56522
▁ᏦᎾ	-9.56719
▁ᎦᏁ	-9.56764
▁ᎠᏓᏁᏗ	-9.56974
▁ᎤᎾᏛᎦᏅᎯ	-9.57055
ᏃᎲᏏ	-9.57185
▁ᎤᏁᏨᎢ	-9.57357
▁ᏂᎦᏪᏍᎬᎢ	-9.5751
▁ᏦᏥ	-9.57642
ᏪᏎᎸᎩ	-9.57815
ᏃᏁᎴ	-9.57856
ᏬᏂᎯᏍᏗ	-9.57888
▁ᎬᏅᎢ	-9.58024
▁ᎤᏣ	-9.58105
▁ᎤᏴᏍᏗ	-9.58112
▁ᏓᏰ	-9.58134
▁ᎨᎦ	-9.5815
"	-9.58584
ᎳᏗ	-9.58603
▁ᎤᏁᎳᏅᎯᏱ	-9.58644
ᏩᏛᏗ	-9.58732
ᏓᎵᏓᏍᏗ	-9.58864
ᏕᎨᏍᏗ	-9.59545
▁ᎦᏙᎬ	-9.59569
▁ᏗᏍᎩ	-9.59596
ᎲᏍᎨᏍᏗ	-9.59933
ᏲᎯᏎᎴ	-9.6003
ᎵᏍᏗᏱ	-9.60034
▁ᏙᏗ	-9.60133
▁ᏥᎨ	-9.60318
ᏴᎭ	-9.60756
▁ᏥᏫ	-9.60973
ᏩᏛᏗᏱ	-9.61003
ᏚᎩ	-9.61012
▁ᏓᏥ	-9.61023
▁ᏛᎾ	-9.61063
ᎪᏩ	-9.61163
ᎾᏄᎪᏫᏎᎸ	-9.61193
ᏁᏍᏗ	-9.61213
▁ᎪᎩ	-9.61235
▁ᎠᏂᏁ	-9.61365
ᏃᎮᏍᎬᎢ	-9.61418
ᏃᎮᏍᎩ	-9.61425
ᎦᏔᎯ	-9.61557
▁ᏅᏗᎦᎵᏍᏙᏗ	-9.61598
▁ᏄᏛᏅ	-9.61612
▁ᏫᏄ	-9.61614
ᎦᏔᎮ	-9.61655
▁ᏨᏍᎩᏃ	-9.61691
▁ᏚᎾᏓᏡᏩᏗᏒ	-9.6172
▁ᏓᏁᏩᏗᏒ	-9.61727
ᏗᏍᎪ	-9.61779
ᏓᏠ	-9.61785
ᏍᏔᏁ	-9.62044
▁ᏭᎷᏨ	-9.62128
▁ᎬᏩᎷᏤᎸ	-9.62254
ᏓᏂᎸᏨᎯ	-9.62382
▁ᎠᏓᏅᏙᏍᎩᏂ	-9.62439
ᎡᎵ	-9.62467
▁ᏗᎬᏩᏂ	-9.62606
▁ᏗᏣᏤᎵ	-9.62653
▁ᎠᏂᏅ	-9.62714
▁ᎠᎩᏏ	-9.62748
▁ᏏᏆ	-9.62749
▁ᎠᎦᏘᏏ	-9.62833
ᏑᎶᏨᎯ	-9.62834
▁ᎠᏂᎦᏔᎿᎢ	-9.62838
▁ᏅᏓᎦᎵᏍᏔᏂ	-9.62838
▁ᏧᏓᎿᏩᏛ	-9.62838
ᏚᏓᏕᏫᏒ	-9.62838
▁ᏫᏄᏒᎸ	-9.62838
▁ᎠᏗᏒᏍᏗ	-9.62839
▁ᎤᏩᎨᏫ	-9.62841
▁ᏧᏃᏑᎶᏨᎯ	-9.62842
▁ᏓᏓᏏ	-9.62844
▁ᎾᎦᎥ	-9.62845
▁ᏌᏙᏂ	-9.62845
▁ᎡᏂᏗ	-9.6285
▁ᏂᎪᎯᎸᎾᏉ	-9.62852
▁ᏕᎦᏚᎲ	-9.62857
▁ᏭᏂᎷᏨ	-9.6286
▁ᏗᏂᎰᎵ	-9.62861
▁ᎦᏃᏍᎩᏍᎩ	-9.62863
▁ᎢᏳᏕᏘᏴᏛ	-9.62867
▁ᎯᏍᎦᏯ	-9.62867
▁ᏧᏂᎳᏫᎢᏍᏗᏱ	-9.6287
▁ᎠᎪᏙᏗ	-9.62877
▁ᎤᏂᏁᎫᏥᏛ	-9.62888
ᎫᎪᏓ	-9.6289
▁ᏛᏍᏆᎸᎯ	-9.62898
▁ᎠᎾᎢᏒ	-9.62903
▁ᏂᏣᏛᏅ	-9.62904
▁ᎥᏓᎸ	-9.62914
▁ᏇᏍᏓ	-9.62923
▁ᎠᎵᎮᎵᏍᏗ	-9.62923
▁ᎤᏜᏅᏛ	-9.62949
▁ᏧᎦᏴᎵᎨ	-9.62988
▁ᏗᎨᎦ	-9.62992
▁ᎧᏃᎮᏍᎩ	-9.63008
▁ᎤᎾᎵᏍᏕᎸᏙᏗ	-9.63016
▁ᎠᏥᎾᏝᎢ	-9.63029
ᏳᎪᏓᏁ	-9.63038
▁ᏚᎪᎲ	-9.6311
▁ᎬᏂᎨᏒᎢᏳ	-9.6317
▁ᎤᏪᎷᏅᎩ	-9.63179
▁ᎤᎵᏂᎬᎬ	-9.63184
▁ᏥᏂᎦᏪᎭ	-9.63187
▁ᎤᎴᏅᎲ	-9.63205
▁ᎠᎩᏰᎸᎭ	-9.63217
▁ᏙᎩ	-9.63243
▁ᎤᎩᎸ	-9.63244
▁ᏭᏂᎶᏎᎢ	-9.63254
▁ᎤᏂᎩᏒᎩ	-9.63261
▁ᎤᎨᏳᎯ	-9.63331
▁ᏚᏂᎸᏫᏍᏓᏁᎸᎢ	-9.63338
▁ᏗᎧᏃᎩᏍᏗ	-9.63387
ᎧᎾ	-9.63417
▁ᏥᏓᏂ	-9.63499
▁ᏄᏪᏎ	-9.63524
ᏯᎢ	-9.63592
▁ᏗᏤᎲ	-9.63605
▁ᎤᎾᏚᎵᏍᎬ	-9.6362
▁ᎤᎾᏝᎢ	-9.63622
ᎷᏤᏗᏱ	-9.63752
ᎰᎵ	-9.63763
▁ᎵᏏ	-9.63799
▁ᎬᏩᏛᏛᏁ	-9.63944
ᏗᏔᏍ	-9.63966
▁ᏯᎾ	-9.64083
▁ᏣᎦ	-9.64097
▁ᎤᏄ	-9.64182
▁ᎤᎪᎮ	-9.64205
▁ᎢᏳᏪ	-9.64251
ᏙᎮᏍᏗ	-9.64254
ᎳᎻ	-9.64257
▁ᎪᏢ	-9.64352
▁ᏂᎦᏪᏍᎬᎩ	-9.64668
▁ᎠᏤᎵᏍᏛᎢ	-9.64802
ᏛᏔᏂ	-9.64869
▁ᏨᏓ	-9.64908
▁Ꮂ	-9.65128
▁ᎤᏁᏤᎴ	-9.65195
▁ᎤᏚᎢᏍᏔᏅ	-9.65246
▁ᎢᏤᎾ	-9.65356
▁ᏧᏩ	-9.65373
ᏲᎯᏍᏗ	-9.65668
ᏅᏏᏙᎯ	-9.65785
ᏕᎦ	-9.65807
▁ᎠᎹᏱ	-9.65815
ᏁᎬ	-9.6601
ᏓᎳ	-9.66072
▁ᎤᏰᎸᏛᎢ	-9.66102
▁ᎤᏪᏅ	-9.66121
▁ᎬᏗᎭ	-9.66147
▁ᏱᎦᎩ	-9.66334
▁ᎬᏩᎪᎲ	-9.66382
ᏓᎸ	-9.66406
▁ᎤᎪ	-9.66445
ᏕᎰ	-9.66449
ᏗᏍᎬᎢ	-9.66467
▁Ᏸ	-9.6647
▁ᎤᏯᏅ	-9.66575
▁ᎤᏬᎸ	-9.66831
ᏥᎪᎥ	-9.67076
ᎩᎶ	-9.67089
ᏥᏍ	-9.67182
▁ᏂᎬᎾᏛᎢ	-9.6723
▁ᏓᏨ	-9.67515
▁ᎢᏣᏚᎵ	-9.6773
▁ᏥᏂᎦᏪ	-9.67794
▁ᎠᏓᏁᎸᎢ	-9.67796
ᏁᏟᏴᏍᏗ	-9.68285
▁ᎤᏍᏛ	-9.68383
Ꮁ	-9.68419
ᏅᎦ	-9.6852
▁ᎤᏬᎴ	-9.68686
▁ᎠᏂᏂ	-9.68696
▁ᏕᎦᏅ	-9.68736
ᏍᏛᎾ	-9.6885
ᎫᏴᎡᏗ	-9.69232
▁ᏥᏕᎦ	-9.69425
ᏧᏏ	-9.69431
ᏪᏒ	-9.69531
ᏪᏎᎸ	-9.69573
ᏅᏃ	-9.69627
ᏲᎯᏎᎸᎩ	-9.69689
▁ᎣᏣ	-9.6969
▁ᎠᎾᎵ	-9.69764
▁ᎤᏤ	-9.69939
▁ᎦᏓᏅᏖᏍᎬ	-9.69969
ᏯᏅ	-9.70081
ᎶᎯᏍᏗᏱ	-9.70226
▁ᏚᏅᏎ	-9.7024
▁ᎠᏁᎳ	-9.70243
▁ᎠᏂᏙᎾᎥ	-9.70341
▁ᏚᎾᎵ	-9.70382
▁ᏄᏂᏪᏒ	-9.70422
▁ᎾᏆ	-9.70525
ᎬᎭᎷᏴ	-9.70568
▁ᎤᎵᎮᎵᏨ	-9.70655
ᏔᏅᎢ	-9.70709
ᎾᏛᎦ	-9.70782
▁ᎤᎶᏒ	-9.70806
ᎬᏫᏳᎯ	-9.7082
▁ᎤᏄᎪᏤ	-9.70897
ᏘᏂᏙᎯ	-9.70901
▁ᎤᏄᏬ	-9.70922
▁ᎤᎾᎵᏍᏓᏴᏗ	-9.70969
▁ᏥᏰᎸ	-9.7101
ᎵᏍᎪᎸᏓᏁᎸᎯ	-9.7104
ᏁᎶᏙᏗ	-9.71061
▁ᏗᎾᏓ	-9.71108
▁ᎢᏣᏅᏖᏍᏗ	-9.71171
▁ᏗᎾᏓᏂᏱᏍᎩ	-9.71171
▁ᏗᏑᏢᏛ	-9.71171
▁ᏧᏓᏕᏒᏛ	-9.71171
▁ᎢᏳᏩᎫᏗ	-9.71171
▁ᎦᎫᏍᏛᏗ	-9.71171
▁ᏆᎳᏆ	-9.71171
▁ᏧᏬᏰᏂ	-9.71171
▁ᏯᏃᎩᏳ	-9.71171
▁ᎠᏥᎤᏍᏕᏎᎸᎯ	-9.71172
ᏄᎮᏛ	-9.71173
▁ᎢᏳᏛᏁᎸᎯ	-9.71173
▁ᎡᏙᎭ	-9.71177
▁ᎢᏕᎯ	-9.71178
▁ᎤᎶᏒᏍᏔᏅᎯ	-9.71182
▁ᎨᎦᏑᏰᏛ	-9.71182
▁ᏱᏂᎦᎵᏍᏓ	-9.71184
▁ᏂᏣᏛᏁᎮᏍᏗ	-9.71195
▁ᏗᎪ	-9.71202
▁ᎢᏣᏓᏅᏘ	-9.71211
▁ᎤᏣᏖ	-9.71214
ᎥᎯᏍᏗ	-9.7122
▁ᎥᎩᏅᏏᏛ	-9.71228
▁ᏂᏥᎦᏔᎲᎾ	-9.71229
ᏑᎵᎪ	-9.71237
▁ᏚᎾᏙᎥ	-9.71238
▁ᎠᏰᎲ	-9.71241
▁ᎪᏢᏅᎯ	-9.7125
▁ᎢᏣᏠᎾᏍᏗ	-9.71256
▁ᏚᎴᎯᏌᏅ	-9.7126
▁ᎣᏓᏅᏛ	-9.71265
▁ᎤᏪᏅᏍᏗᏱ	-9.71267
ᏍᎦᏅᏨᎯ	-9.71277
▁ᎠᏆᎵᏏ	-9.71292
▁Ꮮ	-9.713
ᏴᎲ	-9.7131
▁ᏱᏂᎬ	-9.71314
▁ᎬᎵᏍᏆᏗᏍᎩ	-9.71327
▁ᎢᏣᏛᎦᏅᎯ	-9.71365
▁ᏕᎤᎴᏔᏅ	-9.71416
▁ᎤᏂᏄᎪᏨ	-9.7142
ᎿᎢ	-9.71469
▁ᎤᏂᏃᎮᎸᎯ	-9.71471
▁ᎠᎾᎵᏥᏙᎲᏍ	-9.71478
▁ᎡᏙᎲᎢ	-9.71522
▁ᎤᎬᏫᏳᏌᏕᎩ	-9.71534
▁ᎠᎩᎪᎲᎩ	-9.71537
ᏍᏉ	-9.7154
▁ᎯᎦᏔᎭ	-9.71556
▁ᏗᏆᏤᎵᎦ	-9.71559
▁ᏣᏙᏓ	-9.716
ᏓᏑᏯ	-9.71674
▁ᏧᏂᎾᏫᏱ	-9.71736
▁ᎢᏳᎾᏛᏁᏗᏱ	-9.71798
▁ᏤᎲᎩ	-9.71799
;]	-9.71827
▁ᎠᏥᎸᎨᎶᎯ	-9.71877
ᏩᏗᏒ	-9.71882
ᏎᏗᏱ	-9.71889
▁ᎠᎵᏥᏙᎲᏍᎨ	-9.71945
ᏍᏗᏰ	-9.71961
▁ᎣᎬᏒ	-9.7198
ᏅᏬᏗᏱ	-9.72038
ᏟᎶᏍᏙᏗ	-9.72066
▁ᏚᏓ	-9.72069
▁ᎤᏓᏅᏛᎢ	-9.72127
▁ᏓᏕᏲᎲᏍᎬᎢ	-9.72213
▁ᏄᏍᏛᎢ	-9.72282
▁ᏗᎬᏩᎾ	-9.72375
▁ᎾᎦᏛ	-9.72395
ᏲᏍᏗ	-9.72638
▁Ꮘ	-9.72758
ᏟᏌ	-9.72831
▁ᎧᏁᏉ	-9.72896
ᏪᏨᎯ	-9.72991
▁ᎾᎩ	-9.73106
▁ᎤᏕ	-9.73122
▁ᎤᏩᏛᎲ	-9.73137
▁ᎤᎪᎲᎯ	-9.7322
▁ᏚᏁ	-9.73268
ᏚᎵᏍᎪ	-9.73679
▁ᎠᎾᏓ	-9.73923
▁ᏧᎾᎴᎯᏐ	-9.74135
;)	-9.74158
▁ᎾᏂᎥᎢ	-9.74249
▁ᎦᏛ	-9.7456
ᏩᏒ	-9.74768
▁ᎤᏪᎷ	-9.74849
ᎦᏁᎳᏅᎯ	-9.75166
ᎷᎯᏍᏗ	-9.75215
ᎵᏍᎪᎸᏓ	-9.75454
ᏈᎵ	-9.7556
ᎧᎭ	-9.75645
▁ᎤᎲᎢ	-9.7583
ᏓᏅᏔ	-9.75868
▁ᏥᎨᏥ	-9.75901
ᏎᎴ	-9.76007
ᎪᎵᏰᏍᎩ	-9.76128
▁ᎠᎩᎭ	-9.76179
▁ᎠᏢ	-9.76295
ᏔᏲᏎᎸᎩ	-9.76356
▁ᎢᏦ	-9.76366
▁ᎤᎾᏕ	-9.76422
▁ᏚᎾᏓ	-9.76577
ᏓᏁᎲ	-9.7658
▁ᎦᏌ	-9.76609
ᏴᎳ	-9.76612
▁ᎠᏂᏐᎢᏃ	-9.76669
ᏛᏅᎢᏍᏓ	-9.76773
ᎾᏄᎪᏫᏏ	-9.76862
ᏛᏂ	-9.76878
▁ᏴᎨ	-9.76908
ᏰᎸᏗ	-9.76984
▁ᎠᎦᏔ	-9.77036
ᏗᏍᎬᎩ	-9.77058
ᏲᎢ	-9.77065
ᎸᏫᏍᏓᏁᏗ	-9.77268
ᏒᏃ	-9.77475
▁ᎧᏁᎢᏍᏗ	-9.77543
ᏁᏃ	-9.77573
ᏍᏗᏍᎨᏍᏗ	-9.77605
▁ᏫᏨᏲᏪᎳ	-9.77759
▁ᏚᏃᎸ	-9.78154
▁ᎢᎬᏩᏁᏗ	-9.78241
ᏙᎴᎰᎯᏍᏗ	-9.78393
▁ᎪᎯᏳᏗᏍᎩ	-9.78456
▁ᎡᎦ	-9.78467
▁ᏗᏦ	-9.78472
▁ᎠᎾᏓᏅᏖᏍᎬ	-9.79082
▁ᏓᏕᏲᎲᏍᎬ	-9.79134
▁ᏗᏨᏂᏗ	-9.79147
▁ᏓᏠᎯᏍᏛ	-9.79161
▁ᎤᏂᏍᏆᏂᎪᏎ	-9.79163
ᏍᎪᎵ	-9.79189
▁ᏕᏣᏓᏅᏛ	-9.79222
▁ᏗᏥᏰᎸ	-9.79248
▁ᎠᎩᏁᏨ	-9.79254
▁ᎢᏥᎩ	-9.79391
▁ᎠᏂᏁᎬ	-9.79444
ᎵᏍᎪᎸᏙᏗ	-9.79484
▁ᎤᏂᏣᏛ	-9.79498
▁ᏄᏩᏁᎸ	-9.79513
ᎥᎩ	-9.79624
▁ᏕᎩ	-9.7968
ᎢᏳᎾᏍᏗ	-9.79785
ᏥᎨᏳᎢ	-9.79875
▁ᏑᏓᎵ	-9.79892
ᎲᏍᎦ	-9.79951
▁ᎢᎦᏘ	-9.79955
ᎪᏔᏅ	-9.80143
ᏗᏔᎲ	-9.80184
▁ᎦᏃᎸᎥᏍᎬ	-9.80262
▁ᏧᏩᎫᏔᏅᏒ	-9.80262
▁ᎠᏤᎷᎩ	-9.80262
▁ᎡᏂᎾᏯ	-9.80262
▁ᎤᎳᎨᏯᏛᏤᎢ	-9.80262
▁ᎥᏘᎣᎩ	-9.80262
▁ᏂᎬᏪᏎᎭ	-9.80262
▁ᏕᎨᎦᏨᏍᏗᏍᎬ	-9.80262
▁ᏕᎨᏥᏰᎸᏔᏅᎩ	-9.80262
▁ᏗᏖᎵᏙ	-9.80262
▁ᏣᎦᏟᎶᏍᏔᏅᎯ	-9.80262
▁ᏦᎠᏍᎪᎯ	-9.80262
▁ᎠᏂᏙᎾᎢ	-9.80262
▁ᏒᎦᏔ	-9.80262
▁ᎤᎬᏫᏳᏎᏍᏗ	-9.80262
▁ᏔᎷᏣ	-9.80262
▁ᎠᏏᎾᏌᏂ	-9.80262
▁ᎢᏳᏩᏂᏌᏅᎯ	-9.80263
▁ᎯᎨᏴ	-9.80264
▁ᎤᏛᎪᏗᏱ	-9.80264
▁ᎡᎩᎵᏈ	-9.80265
▁ᏗᏓᏬᏍᏗ	-9.80265
▁ᎠᏲᎱᏒ	-9.80266
▁ᏄᎾᏓᎴᏒ	-9.80266
▁ᎤᏕᎵᏒ	-9.80269
▁ᎥᏳᎩ	-9.80272
▁ᏱᏅᎦᎵᏍᏓ	-9.80272
▁ᎾᏂᎦᏔᎲᎾ	-9.80277
▁ᎤᎦᏔᎲᏒ	-9.80286
▁ᎠᏉᎳ	-9.80289
▁ᎤᏣᏔ	-9.8029
▁ᏧᏪᏅᏒ	-9.80292
▁ᎨᏣᏍᏓᏩᏗᏙᎯ	-9.80294
▁ᏄᏠᎾᏍᏛᎾ	-9.80295
▁ᏧᎾᏓᏅᏙ	-9.80299
▁ᎢᏣᏓᏡᎬ	-9.80302
▁ᎠᏕᏒᎲᏍᎩ	-9.80304
▁ᏧᏳᎪᏗ	-9.80316
▁ᏥᏥᎦᏔᎭ	-9.80319
▁ᎠᏓᏍᏓᏩᏗᏙᎯ	-9.80321
▁ᎢᏳᎵᏍᏔᏅᎯ	-9.80322
▁ᏫᏨᎷᏤᏗᏱ	-9.80329
▁ᎠᏂᏍᎦᎢᎮ	-9.80331
▁ᎤᏛᎦᏁ	-9.80335
▁ᏧᎾᏄᏬ	-9.80336
▁ᎠᎨᏳᏣ	-9.80337
▁ᎢᏥᎦᏙᎥᎯᏍᏗᏱ	-9.80344
▁ᎢᏥᎦᏔᎮᏍᏗ	-9.80355
▁ᎠᎩᎬᏫᏳᎯ	-9.80356
▁ᎬᏩᏍᏓᏩᏛᏒᎩ	-9.80373
▁ᎤᎬᏫᏳᎭ	-9.80384
▁ᎢᏳᏛᏁᏗᏱ	-9.80409
▁ᏦᏈ	-9.8041
▁ᏥᏅᏗᎦᎵᏍᏙᏗᎭ	-9.80424
▁ᏔᎷᎩᏍᎩ	-9.80429
▁ᎠᏁᏢᏔᏅᎯ	-9.80436
ᏒᎦᎸ	-9.8045
ᎾᏰᏍᎬᎾ	-9.80452
▁ᎤᎾᏛᏅᎩ	-9.80454
ᎸᏫᏍᏓᏏ	-9.80492
▁ᏧᎸᏫᏍᏓᏁᏗᏱ	-9.80513
▁ᎠᏓᏅᏖᏗ	-9.8053
▁ᎤᏂᏇᏓᎸᎢ	-9.80535
▁ᎠᎩᏅᏏᏛ	-9.80564
▁ᎧᏁ	-9.80573
▁ᏥᏅᏏᏓᏍᏗ	-9.80599
▁ᏓᎻ	-9.80604
ᏅᏓᏕ	-9.80716
▁ᎠᏍᎪᎯᏁ	-9.80759
▁ᎠᎬᏗᏍᎬᎢ	-9.8076
▁ᎠᎢᏒᎢ	-9.80794
▁ᎠᎦᏔᎿᎢ	-9.80801
ᏴᏫ	-9.8081
▁ᎠᏥᏃᎮᏍᎬᎢ	-9.80837
▁ᎠᏫᏍᎩ	-9.8084
▁ᎠᏁᏙᎲᎢ	-9.80861
▁ᏭᏴᎴᎢ	-9.80862
ᎪᎩ	-9.80879
▁ᎢᏥᏍᎦᏅᏨᎢ	-9.80894
▁ᏱᏂ	-9.80897
▁ᎤᏅᏟ	-9.80911
ᏂᎪᎮ	-9.80926
▁ᎤᏁᎳ	-9.80927
▁ᎠᏁᎩ	-9.81018
▁ᎢᎩᏁᎸᎯ	-9.81073
ᏍᏗᎭ	-9.81078
▁ᏓᎩᎸᏫᏍᏓᏁᎲ	-9.81086
ᏛᏅᎢᏍᏙᏗᏱ	-9.81133
▁ᏭᎷᏤᎢ	-9.81148
▁ᎤᏪᏗᏱ	-9.81188
.]	-9.8123
▁ᏕᎨᏌᏗᏒᎢ	-9.81298
▁ᏂᏫ	-9.81309
ᎵᏓᏍᏗ	-9.81332
▁ᏤᎮᎢ	-9.81536
▁ᏚᎸᏫᏍᏓᏁᎸᎢ	-9.81747
ᏍᏆᏂᎪᏔᏅ	-9.81846
ᏤᎭ	-9.81891
ᎧᎲ	-9.81975
▁ᏄᏛᏁᎸᎢ	-9.82095
▁ᏣᎩ	-9.82108
▁ᎠᎦᏔᎭ	-9.82297
ᎦᏚ	-9.82421
▁ᎤᏂᏍᎦᏅᏨᎢ	-9.82508
▁ᎠᏍᏚᎲ	-9.82543
ᏛᏓ	-9.82581
ᏙᎵᎩ	-9.82727
▁ᏥᏙ	-9.82838
▁ᎢᏦᎯᏳᏒᎢ	-9.82845
ᏅᎭ	-9.82997
ᎯᏍᏙᏗ	-9.83053
▁ᎤᏂᏁ	-9.83099
▁ᎨᎵ	-9.83153
ᎥᏍᎨᏍᏗ	-9.8337
▁ᏡᎬᎢ	-9.83515
▁ᎠᏯ	-9.83573
▁ᏧᎴ	-9.83614
▁ᎤᏛᏅᎩ	-9.83719
ᏗᏯ	-9.8407
▁ᏅᏗᎦᎵᏍᏙᏗᏍᎬᎢ	-9.84243
ᎥᎾ	-9.84558
ᎪᎳ	-9.84694
▁ᎢᏍᏗ	-9.84992
ᎯᏳᎲᏍᎦ	-9.85302
ᏍᏆᏂ	-9.8555
ᎶᎢ	-9.85602
ᏫᏒ	-9.8564
ᎾᏕ	-9.85716
▁ᏂᏨ	-9.8583
ᎴᏗ	-9.85877
ᎶᏒᏍᏗ	-9.85986
ᏍᏕᎵᏍᎩ	-9.86449
ᏁᏅ	-9.86467
▁ᎤᏓᏙ	-9.86816
▁ᎤᏍᎪ	-9.87088
▁ᎠᎲᎢ	-9.87098
ᏍᏓᏩᏕᎩ	-9.87381
ᏓᏎᎪᎩᏍ	-9.87391
ᎸᏉᏓ	-9.87403
ᎢᏍᏗᏍᎨᏍᏗ	-9.87712
ᎳᏏ	-9.87881
ᏂᎵ	-9.87986
▁ᏚᎧᎿᏅ	-9.88264
ᏍᏚᎲ	-9.88288
ᏢᏗ	-9.8834
▁ᏧᏓᎴ	-9.88531
ᏛᏁᎸ	-9.88746
ᎸᏉᏗᎭ	-9.88883
ᏰᎯ	-9.88889
▁ᎢᏣᏓᏅᏖ	-9.88947
▁ᎠᏚᎢᏍᏛ	-9.89098
▁ᎬᏩᎷᏤᎴ	-9.89098
▁ᏄᏛᏁᎴ	-9.89114
▁ᏄᎾᏛᏁᎸ	-9.89116
▁ᏕᎨᏌᏗᏒ	-9.89129
ᏓᏅᏙ	-9.89248
ᏲᎯᏎᎸᎯ	-9.89294
▁ᏂᎬᏩ	-9.8933
ᎪᎲᎯ	-9.89475
ᏓᎴᎩ	-9.89513
▁ᎤᏪᏅᏎ	-9.89526
ᏍᏓᏁᏗ	-9.89532
▁Ꭾ	-9.89636
▁ᏤᎮ	-9.89686
ᏁᏢᏔᏅᏛ	-9.89717
ᏔᏅᎾ	-9.89819
ᎠᎩᎾ	-9.8982
ᏔᏅᎭ	-9.89894
ᏔᏲᏎᎸ	-9.89902
▁ᏑᎾ	-9.89915
ᏅᏛ	-9.90087
▁ᎤᏍᏆᎸᎯᏗ	-9.9019
▁ᏮᏓ	-9.90235
ᎷᏥ	-9.90237
▁ᏧᎸᏫᏍᏓᏁᏗ	-9.90246
▁ᏭᎶᏒ	-9.90248
▁ᏱᏗᏣ	-9.90261
▁ᎤᏂᏍᏆᏂᎪᏒᎩ	-9.90262
▁ᎬᏩᏲᎱᎯᏍᏗ	-9.90262
▁ᎾᎵᏍᏆᏗᏍᎬᎾ	-9.90262
▁ᏐᎵᎹᏅ	-9.90262
▁ᏕᏦᎯᏳᏎᏍᏗ	-9.90262
▁ᏗᏂᏩᎾᎦᎳ	-9.90262
▁ᏤᎦᎳᏯ	-9.90262
▁ᎠᏂᏃᏍᎩᏍᎩ	-9.90262
▁ᎢᏍᎦᎳᏗ	-9.90262
▁ᎧᏂᎵᏯ	-9.90262
▁ᎬᎨᏳᎢ	-9.90262
▁ᎢᏯᎬᏁᎸᎯ	-9.90262
▁ᏕᏥᏲᎵᎸᎭ	-9.90262
▁ᏲᏥᎦᏔᎭ	-9.90262
▁ᎢᏥᏆᎵᏏ	-9.90262
▁ᎤᎩᏨᏅ	-9.90262
▁ᏗᎩᎾᏫ	-9.90262
▁ᎠᏚᎸᏗ	-9.90263
▁ᎥᏥᎪᎥᎩ	-9.90263
▁ᎨᏅᎢᏍᏗ	-9.90263
▁ᏂᏙᏓᏳ	-9.90263
▁ᏓᏕᏲᎲᏍᎨ	-9.90263
▁ᎠᏟᎶᏍᏗ	-9.90263
▁ᎠᏧᏣ	-9.90264
▁ᎤᏙᎴᎰᎯᏍᏗᏱ	-9.90264
▁ᎢᏲᏍᏛ	-9.90264
▁ᏄᏩᏁᎴ	-9.90264
▁ᎢᏦᎯᏳᎯ	-9.90264
▁ᎦᏍᎩᎶ	-9.90266
▁ᏧᏙᏢᏅ	-9.90266
▁ᏅᏓᏳᎵᏍᏙᏗᏱ	-9.90269
▁ᏫᏂᎦᎵᏍᏓ	-9.90271
▁ᏱᏥᏍᎦᎢᎮᏍᏗ	-9.90272
▁ᏥᎮᎾ	-9.90272
▁ᎢᎨᎬᏁᏗ	-9.90272
▁ᏚᎪᎮ	-9.90283
▁ᎡᏉᏂ	-9.90285
▁ᎢᏯᏍᏘ	-9.90289
▁ᏧᎾᎵᏂᎩᏛ	-9.9029
▁ᎲᏗᏍᎨᏍᏗ	-9.90299
ᏲᎵᎸ	-9.90299
▁ᎯᎾᎩ	-9.903
▁ᎤᏂᏃᎮᎴ	-9.903
ᏂᏌᏁ	-9.90309
▁ᏄᏂᎲᎾ	-9.90309
▁ᏓᏓᏂᎸᎨᏍᏗ	-9.90316
▁ᎠᏂᎦᏓᎭ	-9.90316
▁ᎠᏄᎦᎸ	-9.90317
▁ᎣᏂᏗᏢ	-9.90319
▁ᏂᏚᎾᏓᏪᏎᎴᎢ	-9.9033
▁ᎠᎩᎷᏥᎸ	-9.9033
▁ᏭᎶᎯᏍᏗᏱ	-9.90333
▁ᎤᏬᏚᎯᏳ	-9.90333
▁ᎪᏍᏚ	-9.90338
▁ᎤᏬᎯᏨ	-9.90365
▁ᏔᎵᏧᏈ	-9.90376
▁ᏗᎬᏩᎸᏌᏛ	-9.90382
▁ᎤᏃᏍᏛ	-9.9039
▁ᎤᏂᏰᎸᏒᎩ	-9.90391
▁ᏂᎬᏁᎭ	-9.90396
▁ᎢᏣᎵᏍᏕᎸᏙᏗ	-9.90398
▁ᎢᏯᏆᏛᏁᏗᏱ	-9.90405
▁ᏭᏯᏅᎲ	-9.90413
▁ᎢᏥᏁᏍᏗ	-9.90441
▁ᎠᏂᎦᏴᎵᎨ	-9.90448
▁ᎤᏃᎯᏳᏅᎯ	-9.90448
▁ᏥᏁᎦ	-9.90462
▁ᎨᏥᏁᎸᎯ	-9.90484
▁ᏑᎾᎴ	-9.90496
▁ᎬᏩᏔᏲᏎᎴ	-9.90518
▁ᎠᏃᏍᏛ	-9.90523
▁ᎠᎾᎵᏍᏓᏴᎲᏍᎬ	-9.90546
ᏍᏘ	-9.90549
ᎦᏌᏯᏍᏕᏍᏗ	-9.90553
▁ᏬᎩᎷᏨᎩ	-9.90557
ᎨᎳᏍᏗ	-9.90561
▁ᏗᎦᎵᏍᏙᏗᎭ	-9.90568
▁ᎾᏥᎾᏝᎥᎾ	-9.90606
ᏏᎳ	-9.90638
▁ᎤᏓᏅᏖᎸᎯ	-9.90677
▁ᏧᏁᏨ	-9.90733
▁ᎤᏂᏙᏓ	-9.90774
▁ᎤᏓᏅᏛ	-9.90778
▁ᏙᏓᎨ	-9.90794
▁ᏂᏕᎦᏪᏎᎲ	-9.90823
▁ᏗᏥᎾᏫᏱ	-9.90864
▁ᏚᏁᏤᎸᎩ	-9.90894
▁ᏱᏙ	-9.90902
▁ᏚᏬ	-9.90907
▁ᎢᎦᏁᎳᏅᎯ	-9.90972
▁ᎾᎦᏔᎲᎾ	-9.90976
▁ᎢᏓᎵ	-9.91
ᎦᏚᎩ	-9.91034
▁ᎾᏁᎲᎾ	-9.91075
ᏅᏟ	-9.91108
▁ᎤᏢᎩ	-9.91109
▁ᎤᏯᎢ	-9.91122
▁ᎤᏢ	-9.9116
▁ᎠᏎᏍᎩᏂᏃᏅ	-9.91171
▁ᏕᎬ	-9.9121
▁ᎤᏬᎯᏳᏒ	-9.91287
▁ᏄᎾᏛᏅᎢ	-9.91292
▁ᎦᎵᏦᏛᎢ	-9.913
▁ᎠᎩᏍᏗᏱ	-9.91345
▁ᏧᏭᎪᏙᏗ	-9.91378
▁ᎤᎬ	-9.91378
ᏓᏅᏖᏍᎨᏍᏗ	-9.91409
▁ᎠᏜ	-9.91422
▁ᏓᏠᎯᏍᏛᎢ	-9.91535
ᏄᎦ	-9.91679
▁ᎦᏚᎢ	-9.91844
▁ᎠᏍᎫᏕᏍᏗ	-9.91909
▁ᎦᏬᏂᏍᎬᎢ	-9.91915
▁ᏚᏂᎸᏫᏍᏓᏁᎲᎢ	-9.91915
▁ᏗᏗ	-9.91965
▁ᎤᎷᏤᎴ	-9.92048
▁ᎢᎪ	-9.92051
▁ᎦᏙᎬᎩ	-9.9208
▁ᎡᎮᏍᏗ	-9.92107
ᎥᎦ	-9.92233
ᏤᎳ	-9.92245
ᏲᎦ	-9.92278
ᏲᎢᏳ	-9.92597
▁ᎤᎷᏤᎸ	-9.92711
ᎱᏍᏗ	-9.92859
▁ᏕᎪ	-9.92964
▁ᏃᎩ	-9.93031
ᏩᎯ	-9.93172
▁ᏕᏨ	-9.93307
▁ᎤᎾᎵᎢ	-9.93361
ᏓᏁᎸ	-9.93387
▁ᎤᎪᎲᎩ	-9.93394
▁ᎣᎦᏤᎵ	-9.93453
▁ᎠᏓᏅᏖᏍᎬᎢ	-9.93756
ᏂᏒ	-9.93836
ᎵᏍᏓᏴᎲᏍᎦ	-9.93958
▁ᎤᏂᎷᏤᏗ	-9.94049
ᏕᏲ	-9.94205
▁ᎢᏳᏅ	-9.94257
ᏖᎸᏗ	-9.9428
ᎮᎮᎸ	-9.94454
ᏂᏪᏏ	-9.94475
▁ᎪᏙ	-9.94718
▁ᎢᏍᏛ	-9.94866
ᏁᏤᎴ	-9.9488
▁ᎣᎬ	-9.95155
▁ᏩᎩ	-9.95282
ᏚᎦ	-9.9529
ᏑᏰᏒ	-9.95355
▁ᎤᏅᏁ	-9.95516
ᎥᏝ	-9.95568
ᎾᏏ	-9.95651
ᎪᎵᏰᏍᎨᏍᏗ	-9.95716
ᏕᏗᏱ	-9.95756
ᏁᏟᏴᏛ	-9.96155
ᏅᏅ	-9.96508
▁ᏓᏆ	-9.96573
ᏍᏓᏁᎸ	-9.96603
▁ᎤᏓᏅ	-9.96971
▁ᎠᏥᏁᏗ	-9.9732
▁ᏨᏗ	-9.97594
ᏍᏗᏉ	-9.9762
ᎥᎯ	-9.97633
ᎴᏅᏛ	-9.97761
ᎸᏉᏔᏅ	-9.97782
ᏥᏲᏏ	-9.9789
ᎮᎸ	-9.97982
ᏆᎵ	-9.98101
▁ᎾᎥᏂ	-9.98404
ᏔᏁᏍᏗ	-9.9853
▁ᎢᏥᏍᏆᏂᎪ	-9.9867
ᏚᎲ	-9.98756
ᏨᏍᏙᏗ	-9.98833
ᏅᏁᏗᏱ	-9.98944
ᎾᏄᎪᎢᏍᏗ	-9.99106
ᎦᎵᏍᏙᏗᎭ	-9.99321
▁ᏱᏄ	-9.99387
ᎵᎥᏂᎸ	-9.99389
▁ᎪᎢ	-9.9951
▁ᏄᎵ	-9.99538
ᏍᏆᏂᎪᏙ	-9.99617
ᏂᏓᏍᏗᏱ	-9.99647
▁ᏂᏣᏛᏁᎲ	-9.9986
▁ᏙᎦ	-9.99991
ᏛᏁᎲ	-10.0008
▁ᎣᎵᏩ	-10.0013
▁ᎤᏌᎯᎸ	-10.0017
ᎦᏴᎵᎨ	-10.0019
▁ᏓᏟᎶᏍᏛ	-10.0019
▁ᏄᎾᏛᏅ	-10.0024
▁ᏄᏍᏛᎾ	-10.005
▁ᎦᎵᏦᏛ	-10.005
▁ᎠᏔᎴᏒ	-10.0051
ᏂᏗᏱ	-10.0063
ᏕᏘᏴ	-10.0063
ᏓᎶᏂᎨ	-10.0082
ᏌᏕ	-10.0083
ᏗᎦᏘᏯ	-10.0086
ᎸᏉᏙ	-10.0089
ᎾᏙᎴᎰ	-10.0093
▁ᏱᏫ	-10.0098
ᎿᏕᎩ	-10.011
▁ᎠᏥᏍᏕᎸᏗ	-10.0119
ᏔᏲᏎᎭ	-10.0125
ᏣᎦᎸ	-10.0127
ᏞᏍᏗ	-10.013
▁ᎤᏲᎱᏎ	-10.0136
ᏍᏆᎸᎡ	-10.0137
▁ᏐᎣᏁᎳ	-10.0137
▁ᏕᎪᏢᏩᏗᏒ	-10.0137
▁ᎬᏍᎦᎢᏍᏓᎩ	-10.0137
▁ᎾᏃᎯᏳᎲᏍᎬᎾ	-10.0137
▁ᏐᏓᎻ	-10.0137
▁ᏗᎧᎸᎬ	-10.0137
▁ᏗᏂᏬᏂᏍᎩ	-10.0137
▁ᏢᏓᏥ	-10.0137
▁ᏱᏥᎪᎵᏰᎣ	-10.0137
▁ᎠᎵᏏᎾᎯᏍᏙᏗ	-10.0137
▁ᎢᎨᎬᏁᎸᎯ	-10.0137
▁ᏂᎦᎵᏍᏔᏅᎭ	-10.0137
▁ᏧᎾᎬᏩᎶᏗ	-10.0137
▁ᎤᏃᎯᏳᏗᏱ	-10.0137
▁ᎭᏓᏅᏖᏍᎬ	-10.0137
▁ᏧᎴᎯᏌᏅᎯ	-10.0137
▁ᎠᎾᏛᎩᏍᎩ	-10.0137
▁ᎤᏂᎷᎯᏍᏗᏱ	-10.0137
▁ᎤᎵᏍᏚᎢ	-10.0137
▁ᏣᏃᏎᎰᎢ	-10.0138
▁ᎠᏙᎴᎰᎯᏍᏙᏗ	-10.0138
▁ᎥᏣᏱ	-10.0138
ᎸᏉᏔᏂ	-10.0138
▁ᎠᎦᏘᏯ	-10.0138
▁ᏧᏁᎿᎢ	-10.0138
▁ᎠᎯᏗᏳ	-10.0138
▁ᏱᏙᎨ	-10.0138
▁ᎠᎾᏓᏍᏓᏩᏗᏙᎯ	-10.0138
▁ᎢᎧᏁᏨᎯ	-10.0138
ᎳᏗᏓᏍᏗᏱ	-10.0139
▁ᏧᏬᎸ	-10.0139
▁ᎤᏮᏔᏅ	-10.0139
▁ᎢᎪᏪᎳ	-10.0139
▁ᏭᏂᎶᎯᏍᏗᏱ	-10.0139
▁ᎢᏯᎬᏁᏗ	-10.014
▁ᏂᏣᏛᎿᏕᎬᎢ	-10.014
▁ᏍᎩᏍᏓᏩᏚᎦ	-10.0141
▁ᎢᏳᏩᏁᎸᎯ	-10.0141
▁ᎢᏥᏪᏍᏗᏱ	-10.0141
▁ᎤᏂᏰᎸᏅ	-10.0141
▁ᎤᎾᏂᎩᏒ	-10.0141
▁ᎢᏨᏍᏗᏰᏗᎭ	-10.0141
▁ᏴᏛ	-10.0142
▁ᏗᎬᏩᏓᏂᎸᎢᏍᏗ	-10.0142
▁ᏕᎦᎶᏗ	-10.0144
▁ᏍᎩᏙᎵᎩ	-10.0144
▁ᎤᏁᏙᎸ	-10.0144
▁ᎠᏓᎯᎯ	-10.0144
▁ᏗᎦᏓᎭ	-10.0145
▁ᏗᏥᎸᏫᏍᏓᏁᏗᏱ	-10.0145
▁ᎢᏣᎵᎮᎵᎨᏍᏗ	-10.0145
▁ᏇᏗᏂᏱ	-10.0146
▁ᎢᎬᏪᏅᏛ	-10.0146
▁ᎤᎾᏕᏅᎯ	-10.0146
▁ᏧᎴᏔᏅᎯ	-10.0147
▁ᎠᎬᎭᎸᏛ	-10.0147
▁ᏂᏨᏁᎸ	-10.0147
▁ᎡᏃᏱ	-10.0147
▁ᎢᏕᎾ	-10.0148
▁ᏍᎩᎾᏝᎢ	-10.0149
▁ᎠᎾᏓᏙᎵᏍᏓᏁᎯ	-10.0149
▁ᎩᎵ	-10.015
▁ᏈᎵᏏ	-10.0151
▁ᎤᎸᏓᎸᎥᏍᎩ	-10.0152
▁ᎠᎦᏔᎯᏳ	-10.0152
▁ᎢᏳᎾ	-10.0152
▁ᏥᏄᎵᏍᏔᏅ	-10.0153
ᏘᏃᎸᎩ	-10.0153
▁ᎤᏂᎦᏙᎥᏒ	-10.0154
▁ᏂᎦᎵᏍᏓ	-10.0158
▁ᏚᏂᏅᏎ	-10.0158
▁ᏚᎸᏌᏛ	-10.016
▁ᎦᏲᎵ	-10.016
▁ᎤᎩᎵᏲᏨ	-10.0161
▁ᏓᏤᎸ	-10.0164
▁ᏧᎾᏄᎪᏫᏎᏗ	-10.0164
▁ᎠᏂᏃᎮᏍᎩ	-10.0168
▁ᏯᎦᏔᎭ	-10.017
▁ᏓᎾᏕᏲᎲᏍᎬ	-10.017
▁ᎤᏰᎸᏎ	-10.0178
▁ᏧᎾᏤᎵᎦ	-10.0182
ᎫᏓᎴ	-10.0186
▁ᎤᏅᏏ	-10.0188
▁ᎤᏂᎪᏩᏛᏗᏱ	-10.0189
▁ᎹᎦ	-10.0189
▁ᎠᏓᏫ	-10.0192
▁ᎠᏆᏓᏅᏛ	-10.0195
▁ᏧᏁᎬ	-10.0199
▁ᏧᏓᏅᏛᎢ	-10.0199
▁ᎢᏣᏓᏙᎵᏍᏗᏍᎬ	-10.0201
▁ᎢᎩᏍᎦᏅᏨᎢ	-10.0204
▁ᎤᏓᏔᏅᎯ	-10.0208
▁ᎡᏙᎮᎢ	-10.0212
ᏌᏘ	-10.0213
▁ᎤᏓᏑᏯ	-10.0214
▁ᎦᎬᏩ	-10.0218
▁ᏫᎤ	-10.0219
ᎡᎸᎩ	-10.0223
▁ᏓᎬᎾ	-10.0224
▁ᎤᏓᏅᏖᎸᎢ	-10.0225
▁ᏚᎴᏁᎢ	-10.0226
ᏜᏏᏛᎡ	-10.0228
ᏫᏎᎢ	-10.0238
ᏫᏒᎯ	-10.0239
▁ᎠᏁ	-10.0239
▁ᏭᎷᏨᎩ	-10.0256
ᎷᏨᎭ	-10.0262
▁ᎣᎵᏩᏲ	-10.0263
▁ᏓᎬ	-10.0264
▁ᎯᏰᎸ	-10.027
▁Ꮋ	-10.0271
ᎬᏍᎪᎸᏁ	-10.0275
▁ᏗᎤ	-10.0276
▁ᏦᏏ	-10.0277
▁ᎡᎵᎩ	-10.0289
ᏲᎯᏏ	-10.0292
▁ᏣᏗᎭ	-10.0299
ᏍᎪᎯ	-10.032
▁ᎾᎾᏛᏁᎲᎢ	-10.0325
ᏗᏍᎬᎾ	-10.0327
▁ᎤᎨᏳᎯᏳ	-10.0335
ᎡᎭ	-10.0362
▁ᎤᏬᎯᏳ	-10.0364
ᎴᏅᎯ	-10.0382
ᎪᏩᏘᏍᎪ	-10.0385
▁ᏗᎩᎦᏴᎵᎨᎢ	-10.0391
▁ᎣᏓᎸᎢ	-10.0391
▁ᏗᏆ	-10.0414
▁ᎢᎯ	-10.0418
▁ᎡᎲᎩ	-10.0424
ᎦᎳ	-10.0425
▁ᎦᎵᏉᎩᏁ	-10.0429
▁ᏥᎬᏩ	-10.043
ᏙᎵᏍᏗᏱ	-10.0433
ᎾᏄᎪᏫ	-10.0435
ᏫᏎ	-10.0448
▁ᏓᎬᏩ	-10.0472
ᏃᎮᏍᎬ	-10.0472
ᏕᎭ	-10.0474
▁ᏭᎷᏤ	-10.0505
▁ᏥᏂᎨ	-10.0513
▁ᏂᎬᏁᎲ	-10.053
▁ᎤᎷᏤᎢ	-10.0534
▁ᎤᏂᎷᏤᎢ	-10.054
ᏄᎪᏫᏎ	-10.0547
▁ᎦᎾᏄᎪ	-10.0552
▁ᎦᎶᏁᏛᏰᏃ	-10.0556
ᎢᏍᏙᏗ	-10.0557
▁ᏱᏅᏩᏍᏗ	-10.059
▁ᏫᏂ	-10.0603
ᏎᎸᎩ	-10.0614
▁ᏅᎩᏁ	-10.0617
▁ᎤᏔᏅ	-10.0634
▁ᎤᎾᏛᎦᏅᎩ	-10.0637
ᏢᏅ	-10.0638
ᏛᎦᏅ	-10.0643
▁ᎢᏨᏲᏪᎳ	-10.0647
ᏨᏯ	-10.0672
▁ᏕᎭ	-10.0681
▁ᎦᎾ	-10.0686
ᎪᏪᎳᏅᎯ	-10.071
ᏃᎮᎸ	-10.073
ᏤᏗ	-10.0747
ᎯᎯ	-10.0749
ᏳᎯ	-10.0753
ᏰᎮᏍᏗ	-10.0759
ᎿᏩᏗᏒ	-10.076
ᏫᏍᎪᎢ	-10.0766
ᏅᏁᎮᏍᏗ	-10.0776
▁ᏄᏪᏒᎢ	-10.0781
ᏙᏅ	-10.0802
▁ᏥᏯᎵᎡᎵᏤ	-10.082
ᏓᏙᎵᏍᏓᏁᏗ	-10.0827
ᎩᏎ	-10.083
ᏓᏂᎸᎩ	-10.0833
▁ᎤᏪᎵ	-10.0848
▁ᎠᏂᎷ	-10.0856
▁ᎠᏥᏰᎸᎾᏁ	-10.0864
▁ᎤᎴ	-10.0868
▁ᎤᎾᏓᏅᏖ	-10.0868
▁ᏓᏲ	-10.087
▁ᎨᏥᏁᏗ	-10.0905
ᏁᎢᏍᏔᏁ	-10.0952
▁ᎠᎵᏍᎪᎸᏙᏗ	-10.0972
▁ᎠᏍᎦᏅᏨ	-10.1031
▁ᎢᏳᏩ	-10.105
ᎾᏄᎪᏫᏒᎯ	-10.1086
▁ᎠᎪ	-10.1091
▁ᎤᏂᏲᎴ	-10.1096
ᎵᏦ	-10.111
ᏄᎪᏫᏍᏗᏱ	-10.1111
ᎦᏙᎥᏒ	-10.1124
▁ᏗᏛ	-10.1132
ᏓᏁᏗᏱ	-10.1142
ᏃᏁᎵ	-10.115
▁ᎤᎦ	-10.115
▁ᎠᎦᏔᎮ	-10.1154
▁ᎠᏍᏚ	-10.1157
ᎦᏔᎮᏍᏗ	-10.1163
ᏤᎵᎦ	-10.1163
ᎸᏉᏛᎾ	-10.1193
▁ᎤᎦᎾ	-10.1202
▁ᏛᏥ	-10.1207
ᎷᏥᎸ	-10.1242
ᎵᎹ	-10.1246
ᏓᎴᏅᎯ	-10.1248
▁ᏧᏙ	-10.1252
▁ᏱᏗᎦ	-10.1262
▁ᎤᏁᏅᏎ	-10.1264
▁ᏕᎦᎳᏫᎥ	-10.1267
▁ᏕᏡᎬ	-10.1271
ᏁᏍᎨᏍᎩ	-10.1276
ᎵᏍᏓᏴᏗ	-10.1277
▁ᏓᏓᏁᎸ	-10.1282
ᏍᏆᏂᎪᏛ	-10.1282
▁ᏓᏫᏒ	-10.1285
▁ᎦᏅᏅ	-10.1285
▁ᏄᏅᏁ	-10.1287
▁ᎢᏣᎵᎮᎵ	-10.1291
ᏄᎪᏩ	-10.1305
ᎦᏌᏯᏍᏗ	-10.1308
▁ᏭᏴᎸ	-10.131
ᏗᏔᏍᏗ	-10.1313
ᏅᏓᏛᎩ	-10.132
ᎬᏫᏳᏌᏕᎩ	-10.1328
ᎿᎥᎢ	-10.1333
ᏙᎳᏅᏍᏗ	-10.1336
ᎪᎵᏰᏗ	-10.1338
ᎠᏕᎸ	-10.134
ᎵᏍᎦᏍᏙᏗ	-10.1344
▁ᏄᏪ	-10.1345
▁ᏣᏚᎵ	-10.1345
ᏥᎾᏝᎥᎾ	-10.1348
ᎲᏍᎨ	-10.1349
▁ᏚᏁᏤᎸ	-10.1354
ᎾᏙᏓᏆᏍ	-10.1354
ᏄᏪᏎ	-10.1356
ᏛᏓᏍᏓᏁ	-10.1364
ᎾᏰᏍᎬ	-10.1367
ᎪᏪᎸ	-10.1371
ᏍᏓᏩᏛᏒᎩ	-10.1372
ᎵᏂᎪᎯᏍᏗ	-10.1372
ᏙᎰ	-10.1378
▁ᎠᏩᎾᎦᎳ	-10.1382
▁ᎨᏥᏍᏕᎸᏗ	-10.1384
ᏂᏐᏗᏱ	-10.1385
▁ᏂᏣᎵᏍᏓᏁ	-10.1386
ᏍᏓᏩᏛᏎ	-10.1387
'	-10.1387
ᏗᎦᎵᎠᏅᎯᏛ	-10.1387
▁ᎠᎩᏇᏓᎸ	-10.1387
▁ᎢᏗᏍᏓᏓᎳ	-10.1387
▁ᎦᎶᎯᏍᏗᏳᎶᏗ	-10.1387
▁ᏄᏬᎯᏳᏒᎾ	-10.1387
▁ᏓᎵᏍᏗᎳᏁᎬ	-10.1387
▁ᏕᏏᎶᏂᎦ	-10.1387
▁ᏗᎾᏕᏲᎲᏍᎩ	-10.1387
▁ᏙᏗᏣᏓᏅᏛᎢ	-10.1387
▁ᏦᎩᎸᏫᏍᏓᏁᎯ	-10.1387
▁ᏧᎦᏒᏍᏗ	-10.1387
▁ᏧᎾᏄᏩᎢ	-10.1387
▁ᏱᏤᎵᎯᏍᎨᏍᏗ	-10.1387
▁ᎢᏦᎯᏳᏗᏱ	-10.1387
▁ᏗᏓᎴᎲᏍᎦ	-10.1387
▁ᏧᏬᏚᎯ	-10.1387
▁ᎤᏂᎬᎥᏍᎩ	-10.1387
▁ᎤᏄᏩᎥ	-10.1387
▁ᎠᏓᏪᎳᎩᏍᎩ	-10.1387
▁ᎡᏥᏲᎵᎸᎭ	-10.1387
▁ᎤᏂᎩᎵᏲᎢᏍᏗ	-10.1387
▁ᏗᏦᏪᎵᏍᎩ	-10.1387
▁ᏧᏂᏁᏟᏴᏍᏗᏱ	-10.1387
▁ᏭᏂᎶᏒᎩ	-10.1387
▁ᏣᏤᏍᏙ	-10.1387
▁ᎤᎾᏄᎪᏥᎸ	-10.1387
▁ᎠᏂᎪᏗᏳ	-10.1387
▁ᎯᎦᏙᎵ	-10.1387
▁ᏗᏇᏥ	-10.1387
▁ᎶᎻ	-10.1387
▁ᏅᏓᎦᎵᏍᏙᏓ	-10.1388
ᎵᏌᎳᏓᏅ	-10.1388
▁ᏓᏆᏓᏂᎸᎨᏍᏗ	-10.1388
ᎩᏏᏕᎩ	-10.1388
▁ᎢᏧᏕᏘᏴᏛ	-10.1388
▁ᏅᏓᎦᎵᏍᏙᏔᏂ	-10.1388
▁ᏕᎧᏁᏤ	-10.1388
▁ᏤᎵᎪ	-10.1388
▁ᏥᏚᏳᎪᏗ	-10.1388
▁ᎢᏯᏥᎸᏉᏗ	-10.1388
▁ᎬᏩᏓᏍᏕᎸᏗ	-10.1388
▁ᎠᏂᏦᎢ	-10.1389
▁ᎦᏚᎢᏗᏢ	-10.1389
ᏠᎠᏏ	-10.1389
ᎪᎵᏯ	-10.1389
▁ᎠᏙᎴᎰᏒᎯ	-10.1389
▁ᎢᏯᏂᎢ	-10.1389
ᏍᏓᏩᏛᏍᏗᏱ	-10.1389
▁ᎢᏛᏗᏍᎬ	-10.1389
▁ᏕᏥᎧᎿᏩᏗᏙᎮᏍᏗ	-10.1389
▁ᎡᏣᎫᏴ	-10.1389
▁ᎤᏍᏗᎩᏛ	-10.139
ᏄᎸᏗ	-10.1391
▁ᎠᏂᏃᎯᎵᏙᎯ	-10.1392
▁ᎤᏓᏙᎵᏣᏛ	-10.1392
ᎢᎦᎸᏉᏗ	-10.1392
▁ᏥᏚᏙᎥ	-10.1392
ᎦᎾᏄᎪᏫᏍᎪ	-10.1393
▁ᏓᏂᏴᎨᏍᏗ	-10.1393
▁ᎨᏙᎲ	-10.1393
ᏖᏆᎶ	-10.1393
ᎶᏄᎮᏗᏱ	-10.1393
▁ᏫᎦᎷᎩ	-10.1393
▁ᎠᎪᏎᎮᏍᏗ	-10.1394
ᏅᏍᏓᏕ	-10.1394
▁ᏥᏣᏛᎩᎭ	-10.1395
▁ᏌᏈ	-10.1395
▁ᏄᏂᏪᏎᎸᎩ	-10.1395
▁ᏫᎨᏥᏲᎵᎭ	-10.1395
ᎸᏓᎩᏍ	-10.1395
▁ᎢᏍᏕᎾ	-10.1396
ᎦᏙᎥᎯᏍᏗ	-10.1396
▁ᎬᏬᎯᏳ	-10.1397
▁ᎤᏕᏔᏅᎯ	-10.1399
▁ᎦᎵᎡᎵᎦ	-10.1399
▁ᎬᏁᏍᏗ	-10.14
▁ᎤᏂᎸᏉᏔᏁ	-10.14
▁ᎢᎦᎵᏍᏙᏗᏱ	-10.1402
▁ᎤᎾᎵᎮᎵᏤ	-10.1403
ᏬᏁᏙᏗ	-10.1403
ᏓᏙᎵᏍᏗ	-10.1403
▁ᎡᏥᏯᏅᏛ	-10.1407
▁ᎦᏁᏟᏴᏍᏗ	-10.1407
▁ᎢᏣᏓᏅᏛ	-10.1407
▁ᎠᎫᏴᏗ	-10.1408
▁ᏣᏓᏅᏙ	-10.1411
▁ᎠᏥᏅᏏᏛ	-10.1412
ᏁᎲᎩ	-10.1413
▁ᎤᏂᏴᎸ	-10.1414
▁ᎵᏫ	-10.1414
▁ᎤᏂᏰᎸᏗ	-10.1414
ᎸᏃᏘ	-10.1415
▁ᏏᎵᏱ	-10.1415
▁ᎦᏅᎨ	-10.1418
▁ᎢᏥᎷᏤᎸ	-10.142
ᏚᎪᏓ	-10.1422
▁ᏕᎬᏗᏍᎬ	-10.1422
▁ᏗᎵᏍᎪᎸᏓᏁᎸᎯ	-10.1422
▁ᏃᏯ	-10.1422
▁ᎤᎾᏄᎪᎢᏍᏗ	-10.1422
▁ᎤᏩᏒᏍᎩᏂ	-10.1425
▁ᎾᏍᎦᎢᎲᎾ	-10.143
▁ᎤᎾᎵᏍᏓᏴᏗᏱ	-10.1434
▁ᏗᏣᏤᎵᎦ	-10.1435
ᎲᏍᎬᎾ	-10.1438
ᏓᎸᏛ	-10.1439
▁ᏕᏣᎸᏫᏍᏓᏁᎲᎢ	-10.1442
▁ᎤᎵᏍᏓᏴᏗ	-10.1446
▁ᏙᏓᎬ	-10.1446
▁ᏮᏛ	-10.1451
▁ᎠᏟᏍᏛᎢ	-10.1457
▁ᏚᏓᏘᎾᎥᎢ	-10.1457
▁ᎤᏪᏍᎩᎸᎢ	-10.1457
▁ᎤᏪᏙᎸᎩ	-10.1458
▁ᏍᎩᎨᏳ	-10.1461
▁ᏌᎵ	-10.1462
▁ᏂᎦᏪ	-10.1462
▁Ꮾ	-10.1463
ᎵᏓᏍᏔᏅ	-10.1463
▁ᎤᏍᏆᏂᎪᏛ	-10.1465
▁ᎤᏪᎷᏁᎢ	-10.1467
▁ᎨᎦᎫᏴᎡ	-10.1469
ᎵᏍᏔᏁᎢ	-10.1469
ᎴᏅᎲ	-10.1475
▁ᎤᏍᏆᏂᎪᏎ	-10.1478
▁ᎠᏂᏍᎦᎢᎲ	-10.1478
▁ᎾᏆᏍᏛ	-10.148
ᏓᎨᏳᏗ	-10.1481
▁ᎤᏂᏣᏖᏍᏗ	-10.1482
ᏅᏩᏅ	-10.1487
▁ᏭᏂᎷᏤᎢ	-10.1487
▁ᏯᎩᎭ	-10.149
ᎦᏘᏰ	-10.1492
ᎠᏂ	-10.1496
▁ᎤᎿᎥᎢ	-10.1498
▁ᏫᏚᎾ	-10.1518
ᏟᏯ	-10.152
▁Ꮞ	-10.152
▁ᎢᎧᏁ	-10.1521
▁ᎠᏁᎮᎢ	-10.1523
▁ᏗᏁᎯ	-10.1524
▁ᏗᏁᎲᎢ	-10.1525
▁ᎤᏡᏗᏍᎩ	-10.1531
▁ᎹᎵ	-10.1532
▁ᏏᎵ	-10.1533
▁ᏣᏍᎦᏅᏨ	-10.1534
▁ᎤᏪᏅᏎᎢ	-10.1543
▁ᎢᏣᏚᎵᏍᎬ	-10.1544
▁ᎤᎾᏓᏟᏌᏅ	-10.1545
▁ᎬᏒ	-10.1552
▁ᏅᏓᏰ	-10.1561
▁ᎢᏣᎵᎮᎵᎬ	-10.1566
▁ᎢᏣᏟᏂᎬᏁ	-10.1567
▁ᏥᏰᎸᎢ	-10.1567
▁ᏧᏁ	-10.1569
▁ᏕᏍᎩ	-10.157
ᏗᏍᏗᏱ	-10.1572
▁ᎤᎪᏩᏛᏗᏱ	-10.1573
▁ᏨᏍᎩᏃᎢ	-10.1582
▁ᏧᏁᏗᏱ	-10.1585
ᏕᎨ	-10.1587
ᏍᎦᎢᎲᎾ	-10.1588
▁ᎧᏱ	-10.1606
▁ᏰᏣ	-10.1611
▁ᎤᏂᎪᎲᎯ	-10.1612
▁ᎤᏣᏅ	-10.1612
▁ᎢᏨᏗᏍᎬ	-10.1616
▁ᎠᏫᏅ	-10.1617
ᏤᏯᏙᏤᎮᏍᏗ	-10.1619
▁ᎦᎸᎳᏗᏢ	-10.1622
▁ᏄᏚ	-10.1622
▁ᎢᎠ	-10.1623
ᎸᏍᏗᏱ	-10.1627
▁ᎠᎩᏲ	-10.1629
▁ᎪᏪᎸᎩ	-10.1635
▁ᎤᏩᏔᏅ	-10.1637
ᏁᎢᏍᏗ	-10.1638
▁ᏙᏱ	-10.1638
ᏏᏳ	-10.1639
ᎨᏂ	-10.1675
ᎵᏱᎶᎯᏍᏗ	-10.1676
▁ᎦᏛᎬᎢ	-10.1683
▁ᏱᏓᎩ	-10.1704
ᏎᏃ	-10.1705
▁ᎤᏪᎭ	-10.1709
▁Ꮺ	-10.1711
▁ᎡᎮᎢ	-10.1714
ᎵᏍᎪᎸᏔᏅᎯ	-10.1717
ᎩᏲᎱᏒᎯ	-10.1717
ᏍᏈ	-10.1727
▁ᏂᏚᏅ	-10.1729
▁ᏓᏈ	-10.174
▁ᎬᏩᏁ	-10.1744
▁ᏴᎨᏥ	-10.1747
▁ᎪᏢᏒ	-10.1769
▁ᎠᏍᎦᎾᎢ	-10.1773
▁ᎦᏚᏱ	-10.1776
▁ᎤᏍᎦᏅᏨᎢ	-10.1806
▁ᎠᎾᎵᎮᎵᎨ	-10.1836
ᏍᏆᏂᎪᏕᏍᏗ	-10.1838
▁ᎤᏓᎨᏳ	-10.1847
▁ᎤᎴᏁ	-10.185
ᏯᎡᏍᏗ	-10.1852
▁ᏚᏲ	-10.189
▁ᎾᏂᎥᎩ	-10.1893
ᏙᎴᎰᏒ	-10.1897
ᏛᏁᎵᏓᏍᏗ	-10.1923
▁ᎤᏅᏎ	-10.193
ᎵᏍᎪᎸᏙᏗᏱ	-10.1939
ᎵᏥᏙᏗ	-10.1961
ᏛᏅᎢᏍᏗ	-10.1966
ᎹᏂ	-10.1968
ᏅᏔ	-10.1992
▁ᎠᏥᏁᎸ	-10.1995
ᏆᏛᏁᏗ	-10.1996
▁ᎠᏎᎵ	-10.2002
ᏲᎯᏎᏗᏱ	-10.2029
▁ᎤᏚ	-10.2035
▁ᏱᏙᎬ	-10.2039
▁ᏧᏄᏬ	-10.2057
ᎧᎿᏩᏛᏍᏗ	-10.2072
ᏅᏗᏍᎨᏍᏗ	-10.2072
ᏍᏗᏍᎬ	-10.2075
▁ᎬᏩᏲ	-10.2079
▁ᎤᏩᏛᏗ	-10.2084
▁ᏱᏏ	-10.2117
ᏅᏍᏓᏕᎸᎩ	-10.2117
▁ᏥᏂᎬ	-10.2119
▁ᏰᏥ	-10.2121
▁ᏚᏙ	-10.2122
ᏰᏗ	-10.2124
ᎥᏍᎬ	-10.2134
▁ᎤᏲᎢ	-10.2139
ᏥᏴᎩ	-10.2144
ᏕᏗ	-10.2146
ᏪᎭ	-10.2148
ᏂᏌᏛ	-10.2151
▁ᎠᏍᎪᎯᏃ	-10.2154
ᏍᏚᎢᏍᏗ	-10.2159
▁ᏱᏅ	-10.2162
▁ᏂᎦᏪᏎ	-10.2182
▁ᏚᏭ	-10.2202
ᏫᏍᎩ	-10.222
▁ᎨᏥᏃᎮᏍ	-10.2222
ᎳᏁ	-10.2224
ᏲᎢᏎ	-10.2225
▁ᎤᎲ	-10.2225
ᏘᏰ	-10.2238
▁ᏗᎨᏣ	-10.2253
▁ᎤᎵᏍᏆᎸᏗᏃ	-10.2265
▁ᎠᏍᏛ	-10.2285
ᏂᎪᎯ	-10.2295
▁ᏩᎾ	-10.2313
ᏙᏂ	-10.232
ᏄᏬᏍᏗ	-10.2323
ᎨᎳᏍᏙᏗ	-10.2345
ᏎᎴᎢ	-10.2353
ᎸᏛ	-10.2366
▁ᏂᏥᏪᏎ	-10.237
▁ᏍᏆ	-10.237
ᏅᏓᏓ	-10.2381
▁ᏙᏓᎦ	-10.2389
▁ᎦᎸᏉ	-10.2391
▁ᏚᏙᎥᎢ	-10.2424
ᏲᎱᏍ	-10.2432
ᏛᎩᏍᎬ	-10.2447
▁ᎠᏂᏃᎮᏍᎬ	-10.2448
▁ᎠᎾᎵᎮᎵ	-10.2454
▁ᎾᏓ	-10.2477
ᏍᏓᏩᏗᏒ	-10.248
▁ᎡᎳᏪᏱ	-10.2493
ᎦᎶ	-10.2494
▁ᎤᏙᎯᏳ	-10.2513
▁ᎭᎵ	-10.2532
ᎦᏙᎥᎯᏍᏗᏱ	-10.2548
▁ᎢᏣᏙᎴᎰ	-10.2549
ᎪᏎᎭ	-10.256
ᎸᏉᏗᏍᎩ	-10.2574
ᏣᏙᎴᎰ	-10.2589
ᏲᎯᏎᎸ	-10.2592
ᏰᎸᏎᏍᏗ	-10.2613
▁ᎢᏥᎭ	-10.2618
ᏍᏕᎵᎭ	-10.2619
ᏕᎶᏆ	-10.2635
▁ᎬᏩᏍᏓᏩᏗ	-10.2645
ᎬᏍᎪᎸ	-10.2651
ᏓᏅᏖᎴ	-10.2653
ᏥᏆ	-10.2664
▁ᏥᏳᎯᏃ	-10.2671
▁ᏂᎪ	-10.2687
ᏟᎶᏍ	-10.2691
ᏚᎢᏍᏓᏁᎴ	-10.2693
ᎪᎥᎯ	-10.2697
▁ᎡᎳᏂᎬ	-10.2702
▁ᏚᎴᏁ	-10.2705
▁ᎦᏅᎬ	-10.2706
▁ᎤᏂᏃᎮᎸ	-10.2711
ᎥᏍᎩ	-10.2734
▁ᎤᏓᏅᏎ	-10.2737
▁ᎤᏪᏙᎸ	-10.2737
ᏍᏚᎢᏒ	-10.2741
▁ᎤᏬᏢ	-10.2743
▁ᎤᏂᎩᏒ	-10.2744
▁ᎠᏆᏛᎦᏅ	-10.2749
▁ᎠᏥᏃᎮ	-10.2761
ᎧᎵᏬᎯ	-10.2764
ᎦᎵᎷᎨᏍᏗ	-10.2765
▁ᎣᎦᏛᎦᏅ	-10.2767
ᎪᏪᎵ	-10.2776
▁ᏱᏘ	-10.2778
ᏚᎵᏍᎨ	-10.2793
▁ᏱᏣᏓ	-10.2794
ᏂᎬᏎᎲ	-10.2797
▁ᏣᎾᏫ	-10.2802
ᎴᎯᏌᏅ	-10.2804
ᎵᏂᏆᏅᏁ	-10.2806
▁ᎤᏓᏙᎵᏍᏔᏅ	-10.2811
ᏛᏐᏅᎯ	-10.2813
ᏎᎪᎩᏒ	-10.2816
▁ᎠᏂᎦᏔᎾᎢ	-10.2816
▁ᎠᏓᏪᎵᎩᏍᎬ	-10.2816
▁ᎡᏙᏙᏱ	-10.2816
▁ᎢᏨᏰᎳᏗᏙᎲ	-10.2816
▁ᎢᏳᏓᎨᏛ	-10.2816
▁ᎤᎾᎵᏖᎸᏅ	-10.2816
▁ᎤᏓᏙᎵᏣᏘ	-10.2816
▁ᎥᏓᎷᎶᏗ	-10.2816
▁ᎧᏅᏑᎸ	-10.2816
▁ᏂᏚᎾᏁᎶᏛᎾ	-10.2816
▁ᏂᏚᎾᏓᏪᏎᎸᎩ	-10.2816
▁ᏂᏦᎵᎬᎾ	-10.2816
▁ᏅᏛᏆᏓᎴᏅᎯ	-10.2816
▁ᏕᎦᎸᏫᏍᏓᏁᎸ	-10.2816
▁ᏕᏥᏂᏴᏎᏍᏗ	-10.2816
▁ᏗᎾᏂᏏᎲᏍᎩ	-10.2816
▁ᏗᏂᎭᏄᎸᎯ	-10.2816
▁ᏗᏕᏲᎲᏍᎩ	-10.2816
▁ᏚᏄᏩᎥ	-10.2816
▁ᏣᎦᏑᎲᎢ	-10.2816
▁ᏧᎦᎾᏮ	-10.2816
▁ᏫᏲᏪᎳᏏ	-10.2816
ᎬᎭᎷᏰ	-10.2816
ᏓᎦᎶᏐᏂ	-10.2816
▁ᏂᏥᏪᏍᎪᎢ	-10.2816
▁ᏄᎾᏓᎡᏍᏗ	-10.2816
▁ᎠᎵᏍᎦᏁᏛ	-10.2816
▁ᎤᏔᏲᎴ	-10.2816
▁ᎤᏪᏐᏅᏴ	-10.2816
▁ᎨᎴᏏᏱ	-10.2816
▁ᏕᏅᏙᎥ	-10.2816
▁ᏗᏄᎪᏗᏍᎩ	-10.2816
▁ᏙᏛᎾᎴᏂ	-10.2816
▁ᏓᏂᏄᏙᎬᎢ	-10.2816
ᎦᏯᎷᎥ	-10.2816
▁ᎣᎦᏚᎵᎭ	-10.2816
▁ᏓᏓᏛᏂ	-10.2816
▁ᏣᏓᏲᏁᎸᎩ	-10.2816
▁ᏓᏓᎶᏂ	-10.2816
▁ᎠᏁᏙᎭ	-10.2816
▁ᎠᏓᏰᎨᏍᏗ	-10.2816
▁ᏂᎦᎵᏍᏗᏍᎨᏍᏗ	-10.2816
▁ᏚᏛᏛᏁ	-10.2816
▁ᎤᏗᏛᎮ	-10.2816
▁ᎤᎾᏛᎦᏁᎢ	-10.2816
▁ᏗᎨᎫᎪᏓᏁᏗ	-10.2816
▁ᎠᏂᎸᏉᏗᏍᎨ	-10.2816
▁ᎢᏨᏃᎮᎮᎸ	-10.2816
▁ᎤᎬᏩᎳ	-10.2816
▁ᏌᏯᏂ	-10.2816
▁ᏗᏆᎳᏏᏕᏂ	-10.2816
▁ᎤᏢᏉᏗ	-10.2816
▁ᏫᏥᏲᎵᎦ	-10.2816
▁ᏧᏚᎪ	-10.2816
▁ᎢᏥᎨᏴ	-10.2816
▁ᎤᏗᏗᏢ	-10.2816
▁ᏗᎧᏃᎩᏍᏙᏗ	-10.2817
▁ᎾᏂᏍᎦᏅᎾ	-10.2817
▁ᎠᏐᏴ	-10.2817
▁ᎤᏬᏯᏁᏒ	-10.2817
▁ᏑᏕᏘᏴᏛ	-10.2817
▁ᏚᏂᏲᎱᏒ	-10.2817
▁ᏥᏍᎪᏴ	-10.2817
▁ᏫᏥᎷᏨᎭ	-10.2817
▁ᎦᏰᏥᏐᏢ	-10.2817
▁ᎦᎬᏩᏐᏢ	-10.2817
▁ᏗᏓᏂᏐᏗᏱ	-10.2817
▁ᏂᏕᏨ	-10.2818
▁ᎤᏲᏍᏛᏉ	-10.2818
▁ᎠᎩᎩᎬ	-10.2818
▁ᎤᏄᏬᏍᏕᏍᏗ	-10.2818
▁ᏥᏂᎨᎬᏁ	-10.2818
▁ᎾᏂᏪᏍᎬᎢ	-10.2818
▁ᏧᏁᎵᏁ	-10.2818
▁ᏧᎾᎳᏏᏕᏂ	-10.2818
▁ᎨᏥᏅᏒᎯ	-10.2818
▁ᏄᏪᎲᎾ	-10.2819
▁ᎤᏰᎸᎭ	-10.2819
ᏜᏏᏛᎡᎲᎾ	-10.2819
ᎵᏥᏙᏁᎸ	-10.2819
▁ᎠᎾᏛᎩᏍᎬ	-10.282
ᎾᏫᏛᎮ	-10.282
▁ᏓᎦᏛᏁᎵ	-10.282
▁ᏱᏂᎬᏁᎭ	-10.282
ᎾᏓᏂᎸᏨ	-10.2821
▁ᏗᎨᏥᎾᏝᎢ	-10.2821
▁ᎤᏍᎦᏤ	-10.2821
▁ᎡᏣᏙᎵᎩ	-10.2821
ᏥᏍᎦᏨᎯ	-10.2821
▁ᎤᎵᏠᏯᏍᏕᏍᏗ	-10.2822
▁ᎤᎾᏓᏑᏰᏛ	-10.2822
▁ᏚᎿᏍᏕᏢ	-10.2822
▁ᏳᏃᎵᏤ	-10.2822
ᏕᏯᏙᏔᏅᎩ	-10.2822
▁ᏂᏣᎵᏍᏔᏅ	-10.2822
▁ᎠᏓᏲᏁᎮᏍᏗ	-10.2823
▁ᏧᏂᎧᎿᏩᏛᏍᏗ	-10.2823
▁ᏅᏓᏳᏅᏏᏛ	-10.2824
▁ᎠᏥᏰᎯ	-10.2824
▁ᎬᏬᎯᏳᏅᎩ	-10.2824
▁ᏦᏓᎸ	-10.2825
▁ᏗᏣᎳᏏᏕᏂ	-10.2826
▁ᎧᏁᏍᎦ	-10.2826
▁ᎡᏣᎸᏉᏗᏳ	-10.2826
ᏓᏙᎵᏍᏗᏍᎬ	-10.2826
▁ᎤᎾᏓᏅᏎ	-10.2826
▁ᏅᏓᎬᏩ	-10.2826
▁ᎣᏩᏒ	-10.2827
▁ᎤᎴᏅᎩ	-10.2827
▁ᎤᏪᎧᏅ	-10.2827
▁ᎤᎿᎸ	-10.2828
▁ᎤᎾᏛᎪᏗᏱ	-10.2828
▁ᎠᏩᏛ	-10.2828
▁ᎠᏂᏙᎾᎡ	-10.2828
▁ᎠᏰᏙᎳᏛ	-10.2828
▁ᏚᏏᏔᏛ	-10.2829
ᏤᏙᎭ	-10.2829
▁ᎢᎩᏅᏟ	-10.2829
▁ᎢᏣᏚᎵᏍᎨᏍᏗ	-10.283
▁ᏓᏂᏁᎸᎢ	-10.283
▁ᎦᏃᏙᏗᏱ	-10.283
▁ᏌᏚ	-10.283
▁ᎢᏥᏯᎡᏍᏗ	-10.283
▁ᏗᎩᎸᏫᏍᏓᏁᏗᏱ	-10.2831
ᏟᏐᏗᏱ	-10.2831
▁ᎠᎩᏅᏏᏙᎯ	-10.2832
▁ᏙᏧ	-10.2833
ᏙᎴᎰᏎ	-10.2833
▁ᏭᏂᎷᏤ	-10.2833
▁ᎨᏥᏍᎦᎩ	-10.2834
▁ᏣᏁᎮᎢ	-10.2835
▁ᎤᏁᏅᏒᎩ	-10.2835
▁ᎤᏓᏅᏍᏗᏱ	-10.2836
▁ᏱᏥᏰᎸ	-10.2836
▁ᎢᏨᏲᏪᎳᏁᎭ	-10.2836
▁ᎨᏥᏛᏙᏗ	-10.2838
▁ᎦᏁᎲᎩ	-10.2839
▁ᎤᏪᏅᏒᎩ	-10.284
▁ᎣᎩᏙᏓ	-10.2841
▁ᏄᏍᏕ	-10.2842
▁ᎤᎦᏔᏔᏅᎯ	-10.2843
▁ᏧᎾᏄᎪᏫᏒᎯ	-10.2843
▁ᏂᎨᏎᎢ	-10.2845
▁ᎤᎩᎵ	-10.2845
▁ᎤᏂᎾᏫ	-10.2845
ᏨᏍᏗᏱ	-10.2846
▁ᎠᏁᎵᏍᎬᎩ	-10.2848
▁ᎠᏯᏫᏍᎩ	-10.2848
▁ᏚᎾᏓᏅ	-10.2848
▁ᏫᎶᎯ	-10.2848
▁ᏧᏪᏲ	-10.285
▁ᎤᏚᎵᏍᎨ	-10.2851
ᏙᎩᏯᏍ	-10.2851
▁ᎤᏁᏉᏤ	-10.2851
▁ᎠᏄᎯᏍᏗᏍᎬ	-10.2851
▁ᎠᎺ	-10.2853
▁ᏥᏕᏣ	-10.2854
▁ᏂᏨᎦ	-10.2855
▁ᏂᏨᏁᎲ	-10.2857
▁ᎾᎩᏪᏒᎩ	-10.286
▁ᎤᏃᎯᏳᏅᎩ	-10.286
▁ᎠᎾᏛ	-10.2861
▁ᏕᏣᏓᏂᎸᏨ	-10.2861
▁ᎠᎵᏥᏙᎲᏍᎬ	-10.2863
▁ᎠᏓᎨᏗ	-10.2866
▁ᎦᎵᎷᎨᏍᏗ	-10.2867
▁ᎦᏲᎦ	-10.2869
▁ᎢᏨᏁᏗᏱ	-10.2869
▁ᏑᏓᎵᏁ	-10.2875
ᏁᎵᏒ	-10.288
ᏗᏏ	-10.288
▁ᎠᎾᏓᏙᎵᏍᏗᏍᎬ	-10.2883
▁ᎤᏂᏩᏛᎮ	-10.2886
▁ᎡᎮᎾ	-10.2892
ᏔᎳᏬᎯᏍᏗ	-10.2893
▁ᎮᎯ	-10.2896
▁ᏓᏂᎳᏫᎥᎢ	-10.2897
▁ᏫᏥᎦᏛᎢ	-10.2897
▁ᎤᏰᎸᏁᎢ	-10.2898
▁ᎤᏛᏃ	-10.2898
▁ᎠᏂᏃᎮᎭ	-10.29
▁ᏄᎾᏍᏗ	-10.2901
▁ᏚᏟᎶᏍᏓᏁᎴᎢ	-10.2902
▁ᏗᏥᏲᎯ	-10.2902
ᎾᏄᎪᏫᏍᎦ	-10.2907
▁ᎡᏥᏁᎸᎯ	-10.2908
▁ᏭᏴᎸᎩ	-10.291
ᏬᏎᎴᎢ	-10.2911
▁ᎤᏴᎸᎩ	-10.2912
ᏛᏅᎢᏍᏔᏅᎯ	-10.2912
▁ᏁᏨᏁᎸ	-10.2915
ᏉᏰᏂ	-10.2926
▁ᏥᏚᏂ	-10.2936
ᎻᏂ	-10.2939
▁ᎠᏍᏆᏂᎪᏗᏍ	-10.294
ᏂᏴᏗ	-10.2946
▁ᏕᏡᎬᎢ	-10.2952
ᎵᏂᎩᏛ	-10.2956
▁ᏄᎾᎵᏍᏓᏁᎸ	-10.2958
▁ᏂᎬᏁᎸ	-10.2961
ᏍᎦᎨᏍᏗ	-10.2975
▁ᎢᎩᏰᎸ	-10.2978
ᏂᏪᏎ	-10.2982
▁ᎤᏅᏎᎢ	-10.2983
▁ᎢᏣᏓᏅᏖᏍᎬ	-10.2983
▁ᏚᏪᎧ	-10.2988
▁ᎠᏚᎢᏍᏛᎢ	-10.2988
▁ᏄᎾᏛᏁᎸᎢ	-10.2988
▁ᏄᏛᏁᎴᎢ	-10.299
▁ᎤᏓᏅᏒ	-10.2993
ᏕᎾ	-10.2996
▁ᎬᏩᎷᏤᎴᎢ	-10.2997
▁ᎦᏅᎯᏛ	-10.2998
▁ᎤᏙᎯᏳᏁ	-10.3006
▁ᎠᎩᏁᏨᎢ	-10.3007
▁ᎠᎩᏍᏛᏗᏍᎬ	-10.3016
▁ᏄᏬ	-10.3017
ᏓᏛᏁᎮᏍᏗ	-10.3021
ᎶᎯᏍᏗ	-10.3025
▁ᎤᏪᏅᎩ	-10.3027
▁ᎢᎨᏣᏛᏁᏗ	-10.303
ᏤᎮ	-10.3033
ᎠᏴ	-10.3034
▁ᎤᏁᏅ	-10.3038
▁ᏱᏂᏣᏛᏁ	-10.304
▁ᏗᏦᎸ	-10.3042
▁ᎤᏁᏅᏎᏃ	-10.3043
ᎧᎵᎢᏍᏗᏱ	-10.3052
▁ᎤᏬᎸᎢ	-10.3059
▁ᎤᏅᏅ	-10.3065
▁ᎤᏇᏓᎵᏉ	-10.3072
ᏥᏅᎵ	-10.308
▁ᎢᏔ	-10.3081
▁ᎾᏋᏁᎸ	-10.3084
▁ᏑᎾᎴᏃ	-10.31
▁ᏛᎩ	-10.3112
▁ᏅᏓᎬ	-10.3117
▁ᏫᎦᎾᏄᎪ	-10.3129
▁ᎹᎾ	-10.313
▁ᎤᎾᏄᎪᏨ	-10.313
ᏓᏡᎬ	-10.313
▁ᎤᎾᏄᎪᏫᏒ	-10.3131
▁ᎠᎦᏛ	-10.3137
▁ᏂᏥᏍᎦᏅ	-10.3143
▁ᎡᎩᏍᏕᎸᏗ	-10.3147
ᎶᏎᎢ	-10.315
▁ᏕᎠ	-10.3153
ᎩᏰᎸᎭ	-10.3157
▁ᏫᏯ	-10.3162
ᏗᏔᏍᏗᏱ	-10.3164
ᏧᏂᏲᎯᏍᏗᏱ	-10.3167
▁ᎠᏂᏅᎢ	-10.318
▁ᎤᏲᎴ	-10.318
▁Ꮦ	-10.3192
▁ᏄᎵᏍᏔᏂᏙᎸᎢ	-10.3193
ᎬᏩᎶ	-10.3209
▁ᎢᏍᎩ	-10.3212
ᏍᏕᎸᎲ	-10.3216
▁ᎤᏂᏅᏅ	-10.3224
ᏱᎵᏙ	-10.3224
ᏁᏤᎢ	-10.3224
▁ᎤᏁᎢᏍᏗ	-10.3225
▁ᎤᏰ	-10.323
▁ᏓᏍᎩ	-10.3233
ᏯᏅᏗ	-10.3238
▁ᎠᏂᎪᏩᏘᏍᎬ	-10.3248
▁ᎤᎾᎵᎪᏒ	-10.3249
▁ᏤᎲ	-10.3253
ᎠᎩᏏᏙᎯ	-10.3255
▁ᎹᏓ	-10.3267
ᎵᎸ	-10.3291
ᏁᎮᎢ	-10.3298
▁ᎠᏙ	-10.3298
▁ᏤᏏ	-10.3309
▁ᎨᏂ	-10.3319
ᏑᎵ	-10.332
ᏍᏙᎢ	-10.3321
ᏏᏐᏗ	-10.333
▁ᎤᏂᎾᏰ	-10.3335
ᏘᏃᎮᎸᎩ	-10.3339
ᏗᎦᏅᎯᏛ	-10.3341
▁ᎠᏂᏧᏏᏃ	-10.3346
ᎧᎯᏯᏍᏗ	-10.3359
ᎵᏍᎬᎾ	-10.3368
▁ᎠᎦᏴᎵᎨᏍ	-10.3389
ᎾᏚᎵᎭ	-10.339
ᏬᎡ	-10.3412
ᏙᎰᎢ	-10.3421
▁ᎣᎩᏃᎮ	-10.3428
ᎡᎰ	-10.3428
ᏢᏅᎯ	-10.3428
ᏅᎦᎸᏛ	-10.3453
ᏂᏴᎲᎩ	-10.3454
▁ᎤᏂᏥ	-10.3462
▁ᎢᎩᏁᎸ	-10.3481
ᏂᏆ	-10.3489
ᎵᏍᎦᏍᏙᏛ	-10.3495
▁ᏥᏄᎵᏍᏔ	-10.3495
ᏯᏂᏍᎨᏍᏗ	-10.3495
▁ᎤᎪᎲᎢ	-10.3496
ᏯᎵᎡᎵᏤᎭ	-10.3513
ᏴᏍᏕᏍ	-10.3525
▁ᎬᏩᏂᎪᏩᏛᏗ	-10.3538
ᏨᎭ	-10.3548
▁ᎬᏩᏓ	-10.3552
▁ᎣᏍ	-10.3562
ᏄᏣ	-10.3592
▁ᏕᏥᎧᎿᏩ	-10.3599
ᎴᏂᏓᏍᏗ	-10.3603
ᎵᏍᏔᏅᎯ	-10.3605
▁ᎤᎾᏙᏓᏆᏍᎬᎢ	-10.3613
▁ᎣᎩᎪᎲ	-10.3614
▁ᏗᎩᎦ	-10.3625
▁ᎢᏥᏁᏗ	-10.3638
▁ᎤᏁᏤᎢ	-10.3652
ᏂᏫ	-10.3655
ᏎᎰᎢ	-10.3662
▁ᏗᎬᏩᏁᎶ	-10.3665
▁ᎤᏁᎳᏅ	-10.3667
▁ᏙᏣ	-10.3669
▁ᏗᏅᏂ	-10.3687
▁ᎤᎵᎮᎵᏤ	-10.369
ᎲᏍᎪᎢ	-10.3704
▁ᎤᏴᎸ	-10.3707
▁ᏈᎵᎩᏃ	-10.3716
ᏢᏔ	-10.3738
▁ᏥᏃᎮᏍᎬ	-10.3747
▁ᏆᏂ	-10.3761
ᎾᏛᏛ	-10.3766
▁Ꮏ	-10.3785
▁ᏱᏚᎸᏫᏍᏓᏁ	-10.3802
▁ᎢᏣᏛᏓᏍᏓ	-10.3811
ᎶᏔᏅ	-10.385
ᏂᏆᏘᎯ	-10.3852
▁ᏂᏗᎦ	-10.3853
ᎲᎯ	-10.3873
▁ᎠᏗᏔᏍᏗ	-10.3885
ᏓᏂᎸᏤᎢ	-10.3907
ᏁᎸᎾ	-10.3925
▁ᏱᏚᏂ	-10.3926
ᏓᏁᎰᎢ	-10.3936
ᏓᏁᎮᏍᏗ	-10.3938
ᏍᏓᏁᎸᎯ	-10.3946
ᏍᏓᏁᏗᏱ	-10.3946
ᎠᏍᎦ	-10.3951
ᏚᏓᎴᏍ	-10.3962
▁ᎡᏥᏁᏗ	-10.3972
▁ᎢᏍ	-10.3984
▁ᎤᏗᏔᏍᏗ	-10.4004
▁ᏕᎦᏄᎪᏫᏍ	-10.4015
▁ᏦᎦ	-10.4041
ᎷᏤᏗ	-10.4069
ᏅᏩᏍᏗᏉ	-10.41
▁ᏙᎤ	-10.4103
ᏍᎦᏅᏨᎢ	-10.4135
ᏓᏁᎸᎯ	-10.4136
▁ᎤᏁᎸ	-10.4145
ᎩᎾᏝᎢ	-10.4203
ᏍᎦᏅᏤ	-10.4208
▁ᎥᎩᏁᎸ	-10.4217
▁ᏙᏥ	-10.422
ᎵᎮᎵᎪ	-10.4231
▁ᎡᎳ	-10.4233
ᎦᏘᏗᏍᏗᏱ	-10.4251
▁ᎢᏥᏴ	-10.4257
ᎵᏍᎪᎸᏓᏁᏗᏱ	-10.4264
▁ᎠᏚᏓᎴᏍᏗ	-10.4271
▁ᎬᏬᎵ	-10.4274
▁ᎤᏁᏒ	-10.4279
ᏴᏁᎵ	-10.4289
▁ᏄᏛ	-10.4293
ᏘᏃᎯᏍᏗᏱ	-10.4307
ᏗᎦᏛᎯ	-10.4313
▁ᎢᏥᎲ	-10.4328
ᏚᎬ	-10.4332
ᎳᏅᎩ	-10.4343
ᏓᎵᏁᎯ	-10.4344
ᎸᏫᏍᏓᏁᎭ	-10.4345
ᎩᏍᏗᏱ	-10.4346
ᏗᏅᏒᎩ	-10.4354
▁ᏙᏧᎾᏓᏅᏛ	-10.4365
▁ᎤᏃᎯᏳᏒ	-10.4365
▁ᏫᏚᏯᏅᎮ	-10.4368
▁ᎡᏙᎮ	-10.4368
ᏍᏆᏗᏍ	-10.4369
▁ᏭᏴᎴ	-10.437
▁ᏭᎶᏎ	-10.4372
▁ᏚᏂᎸᏫᏍᏓᏁᎸ	-10.4377
▁ᏱᎨᏐ	-10.4385
▁ᎢᏣᏓᏙᎵᏍᏗ	-10.44
▁ᎠᎦᏍᎦᏂ	-10.44
▁ᏗᏣᏓᎴᏅ	-10.4401
▁ᏄᏂᏪᏎ	-10.4402
▁ᎠᏁᏙᎲ	-10.4404
▁ᎠᏂᏯᏫᏍ	-10.4407
ᎵᏍᏓᏁᎸᎩ	-10.4408
▁ᏂᏚᏩᏁᎸ	-10.4413
ᏍᏗᏍᎬᎢ	-10.4414
▁ᏥᏁᎬ	-10.4424
ᏍᏉᎵᏱ	-10.4424
ᎵᏍᏙᏔᏅ	-10.4427
▁ᎤᎩᏒ	-10.4427
▁ᎤᏃᎮᎸ	-10.4429
ᏍᏗᏰᏗᎭ	-10.4431
ᏔᎴᏒ	-10.4434
ᎦᏌᏯᏍᏙᏗ	-10.444
▁ᎤᏁᏉᏨ	-10.4445
ᏓᏅᏓᏗᏍᏗ	-10.4454
▁ᎤᏲᎱᎯᏍᏗ	-10.4455
ᏓᏅᏖᏍᎨ	-10.4456
▁ᎠᏓᏙᎵᏍᏙᏗ	-10.4456
▁ᎦᎵᏦ	-10.4457
ᎵᏍᎦᏍᏙᏙ	-10.4462
▁ᏗᏁᎲ	-10.4462
▁ᎤᎧᎵ	-10.4463
ᏚᎸᏅᏗ	-10.4469
ᎸᏉᏔᏁ	-10.4473
ᎳᏫᎢᏍᏗᏱ	-10.4475
▁ᏯᏛᏅ	-10.4476
ᏍᏓᏩᏚᎦ	-10.4477
▁ᏱᏂᏨ	-10.4478
▁ᏂᏦᎯᏳ	-10.4482
ᏯᏪᏐ	-10.4482
▁ᎠᏓᏪᎵᎩᏍᎩ	-10.4483
▁ᎢᎳᎩᏳ	-10.4483
▁ᎢᏯᏆᎵᏍᏙᏗᏱ	-10.4483
▁ᎤᎾᏙᎴᎰᎯᏍᏙᏗ	-10.4483
▁ᎤᎾᏢᏉᏗ	-10.4483
▁ᎤᏤᎷᎯᏒᎩ	-10.4483
▁ᎥᎦᏥᎪᎥᎩ	-10.4483
▁ᎥᏆᎸᎢᏛ	-10.4483
▁ᎪᎢᏳᎲᏍᎦ	-10.4483
▁ᎬᏭᎯᏍᏗᏍ	-10.4483
▁ᎰᏪᎸᎦ	-10.4483
▁ᏂᎪᎯᏳᎲᏍᎬᎾ	-10.4483
▁ᏂᏣᏓᎨᏳᏒ	-10.4483
▁ᏄᎾᏛᏁᎵᏙᎸ	-10.4483
▁ᏄᏓᏑᏴᎾ	-10.4483
▁ᏓᎾᏓᏅᏖᏍᎬ	-10.4483
▁ᏓᏇᎪᏔᏅ	-10.4483
▁ᏗᎪᏪᎶᏗ	-10.4483
▁ᏗᏂᎬᏓᎨᏂ	-10.4483
▁ᏙᏛᎾᏓᏡᏔᏂ	-10.4483
▁ᏚᏟᎶᏍᏓᏁᎸᎩ	-10.4483
▁ᏦᏍᏓᏓᏅᏟ	-10.4483
▁ᏧᎸᏫᏍᏓᏁᎸᎯ	-10.4483
▁ᏧᏂᏦᏯᏍᏗ	-10.4483
ᎦᏌᏬᎢ	-10.4483
▁ᎠᏟᎶᎥ	-10.4483
▁ᎢᏣᎦᏔᏅᏎ	-10.4483
▁ᎤᏘᏴᎯ	-10.4483
▁ᎯᏯᏛᎥᎦ	-10.4483
▁ᏂᎬᏠᏍᎬᎾ	-10.4483
▁ᏂᏥᎪᎸᎾ	-10.4483
▁ᏕᎦᏃᏣᎸ	-10.4483
▁ᏗᏂᏅᏌᏗ	-10.4483
▁ᏗᏥᎧᎿᏩᏛᏍᏗᏱ	-10.4483
▁ᏙᏧᏁᏅᏒ	-10.4483
▁ᏚᏅᏩᏁ	-10.4483
▁ᏥᏓᎩᎸᏫᏍᏓᏁᎭ	-10.4483
▁ᎣᎨᏙᎸ	-10.4483
▁ᎤᎾᏓᏑᏴ	-10.4483
▁ᎤᏂᎬᎥᏍᎬ	-10.4483
▁ᎭᎵᎮᎵ	-10.4483
▁ᏥᏩᎾᎦ	-10.4483
▁ᎠᏍᏆᎸᎲᎭ	-10.4483
▁ᎤᏁᎷᏁᎢ	-10.4483
▁ᏅᏃᎱᎶᏗ	-10.4483
▁ᎠᎹᏳᎶᏗ	-10.4483
▁ᎡᏈᎳ	-10.4483
▁ᎤᎾᎵᏏᎾᎯᏍᏗ	-10.4483
▁ᏓᏤᎵᏍᏛ	-10.4483
▁ᏗᏣᎧᏅᎦ	-10.4483
▁ᎤᎾᏁᎶᏔᏅ	-10.4483
▁ᎤᏁᎳᏫᏎᎸ	-10.4483
▁ᎪᎯᏳᎲᏍᎨᏍᏗ	-10.4483
▁ᎤᏌᎳᏓᏅ	-10.4483
▁ᎤᏗᎴᎩ	-10.4483
▁ᏅᏧᎵᏍᏙᏔᏁ	-10.4483
▁ᎠᏂᏈᎷ	-10.4483
▁ᎡᎶᏗᏏ	-10.4483
▁ᎢᎪᏂᏯ	-10.4483
▁ᏅᏓᎦᏪ	-10.4483
▁ᏗᏥᎨᏫ	-10.4483
▁ᎠᏂᎶᎻ	-10.4483
▁ᎤᏃᎯᏳᎯ	-10.4483
▁ᎨᎻᎵ	-10.4483
▁ᎰᏌᎾ	-10.4483
▁ᎠᏣᏪᏐᎸᏍᏙᏗᏱ	-10.4483
▁ᎤᏓᏑᏱ	-10.4483
▁ᎤᏂᎵᏅᏨᎯ	-10.4483
▁ᎬᏲᏎᎭ	-10.4483
▁ᏂᎦᎵᏍᏔᏂᏙᎲ	-10.4483
▁ᏗᎧᏃᏗᏱ	-10.4483
▁ᎢᏥᏁᎫ	-10.4483
▁ᏚᎾᎧᏛ	-10.4483
ᎪᏩᏘᏍᎬᎾ	-10.4483
▁ᏚᏂᎧᎵ	-10.4483
▁ᏅᏓᎬᏩᏍᏓᏩᏛᏛ	-10.4483
▁ᏕᏣᏂᏴ	-10.4483
▁ᏭᏕᎵᎬ	-10.4483
ᏩᎾᎦᎶ	-10.4483
▁ᎤᏚᎸᎲ	-10.4483
▁ᏚᏂᎳᏫᏨ	-10.4483
▁ᎡᏗᏂᏱ	-10.4483
▁ᏚᏕᏲᏁ	-10.4483
▁ᏂᎦᎵᏍᏗᏍᎬ	-10.4483
▁ᏗᎧᎿᏩᏕᎩ	-10.4483
▁ᏗᏐᏴ	-10.4483
▁ᎾᎪᏔᏅᎾ	-10.4483
▁ᎠᏂᎪᎲᎭ	-10.4483
▁ᎤᏏᏙᎵ	-10.4483
▁ᏂᏕᏣᏛᏁᎮᏍᏗ	-10.4483
▁ᎤᏃᎯᏳᏁ	-10.4483
ᏅᎥᏏ	-10.4483
▁ᎯᏄᎪᎢ	-10.4483
▁ᎤᏂᏰᎸᎭ	-10.4483
▁ᏣᏓᏅᏛᎢ	-10.4483
▁ᎤᎬᎥᏍᎩ	-10.4483
▁ᏗᎪᏢ	-10.4483
ᏂᏔᏲᎴ	-10.4484
▁ᏧᎾᏓᎵᎢ	-10.4484
▁ᏤᏙᎲ	-10.4484
▁ᎤᎵᏬᏨᎯ	-10.4484
▁ᏕᏦᏕᏍᏗ	-10.4484
▁ᏓᏥᎷᏥ	-10.4484
▁ᏗᎬᏩᏂᏰᎯ	-10.4484
▁ᏥᏍᎦᎾ	-10.4484
▁ᎬᏬᎯᏳᎲᏍᎩ	-10.4484
▁ᎦᎾᏄᎪᏫᏍᎪᎢ	-10.4484
▁ᎨᏦᎯᏳ	-10.4484
▁ᏗᏂᏲᎤᎵ	-10.4484
▁ᎤᎾᏅᏗᏱ	-10.4484
▁ᏣᎢᏎᏍᏗ	-10.4484
▁ᎠᎦᏔᎾᎢ	-10.4484
▁ᎢᏣᎴᏂᏙᎲ	-10.4484
▁ᏕᎦᎳᏅᏛ	-10.4484
▁ᏚᎾᎴᏁ	-10.4484
▁ᎴᎣᏗᏏᏯ	-10.4484
▁ᏛᏓᎴᎲᏍᎬᎩ	-10.4484
▁ᎢᏤᎵᎭ	-10.4484
▁ᏗᏥᏲᎱᏒᎯ	-10.4484
▁ᎢᏰᏨᏁᎸᎯ	-10.4485
▁ᎤᏍᏗᎩᏳ	-10.4485
▁ᏂᏥᏍᎦᎢᎲᎾ	-10.4485
▁ᏂᏑᏪᏎᎴᎢ	-10.4485
▁ᏥᏚᎸᏫᏍᏓᏁᎭ	-10.4485
▁ᏍᏗᏫ	-10.4485
ᎫᏴᎡᎵ	-10.4485
▁ᎠᎩᎵᏲᎬ	-10.4485
▁ᎢᏣᏓᏅᏟ	-10.4485
▁ᎠᎾᏛᎬᎦ	-10.4485
ᏘᏅᏍᏔᏁᎢ	-10.4485
▁ᏕᎬᏩᏘᏃᎮᎴ	-10.4485
▁ᎢᏯᏓᏅᏖᏗ	-10.4485
▁ᎢᏣᏙᎴᎰᎯᏍᏗᏱ	-10.4486
ᏫᏂᏗᏢ	-10.4486
▁ᏅᏓᏨᏁᎵ	-10.4486
▁ᏱᏄᎵᏍᏔᏅ	-10.4486
▁ᏓᏍᎫᏓᏛ	-10.4486
▁ᎤᏂᏃᏁᏗᏱ	-10.4486
ᏗᏂᎦᏘᏯ	-10.4486
▁ᎢᏳᏩᏁᎯ	-10.4486
ᏚᎵᏥᏙᏁᎴ	-10.4486
▁ᏓᎩᎪᎲ	-10.4487
ᎱᏍᏕ	-10.4487
▁ᎤᏂᏁᎫ	-10.4487
ᏑᎵᎪᎬᎾ	-10.4487
▁ᎯᏬᏂᏍᎬ	-10.4488
▁ᎤᏓᏴᏍᏗ	-10.4488
ᏥᎳᏫᏎᎲ	-10.4488
▁ᎠᏓᏲᏁ	-10.4488
▁ᎢᎬᏛᏁᏗ	-10.4488
▁ᏥᏄᏍᏕ	-10.4489
▁ᎢᏣᏛᎬᎦ	-10.4489
▁ᏗᏗᏰᎸ	-10.4489
▁ᎠᏍᏆᎸ	-10.4489
▁ᎭᏟᏂᎬᏁ	-10.4489
▁ᏅᏩᏙᎯ	-10.4489
▁ᎠᏂᎩᏏ	-10.449
▁ᏂᏣᏛᏁᎭ	-10.449
▁ᎡᏥᎾᏰᏍᎨᏍᏗ	-10.449
▁ᏏᏐᎢ	-10.449
▁ᎾᎬᏁᎴ	-10.449
▁ᎠᎦᎫᏴᎡᏗ	-10.449
▁ᏗᎪᏢᏅᎯ	-10.449
▁ᎤᏕᏁᎸᎯ	-10.4491
ᏡᏔᏂ	-10.4491
▁ᏗᎫᎪᏗᏍᎩ	-10.4491
▁ᏧᎾᏘᏂᏙᎯ	-10.4491
▁ᎠᏆᏛᏅᎢᏍᏗ	-10.4492
ᏂᏴᏛ	-10.4492
▁ᎡᏣᏅᏏᏓᏍᏗ	-10.4492
ᎪᏩᏗᎭ	-10.4493
▁ᎠᏕᎸᏓᎶᏂᎨ	-10.4493
▁ᏚᏘᏅᏎ	-10.4493
▁ᏥᏂᎦᎵᏍᏗᎭ	-10.4493
ᏥᎩᎵᏲᎦ	-10.4494
▁ᎢᏥᎧᎵᏨᎯ	-10.4494
ᏥᎶᏏ	-10.4495
▁ᎢᏥᎪᏩᏘᏍᎨᏍᏗ	-10.4495
▁ᎤᎵᏍᏗᏳ	-10.4495
▁ᎤᏲᎱᏎᎮᏍᏗ	-10.4495
ᏁᎢᏍᏓᏁᏗ	-10.4496
ᏗᏫᏎᎸ	-10.4496
▁ᎠᎩᎾᏫ	-10.4497
▁ᎤᏓᏑᏰᏛ	-10.4497
▁ᏳᏪᎭ	-10.4498
▁ᎢᏳᏛᏁᏗ	-10.4499
▁ᎢᏨᏰᎵᏎ	-10.45
▁ᎡᏥᏅᏏᏓᏍᏗ	-10.45
▁ᏓᏥᏁᎵ	-10.4501
▁ᎨᎪᏎ	-10.4501
▁ᎤᎾᏚᎵᏍᎨ	-10.4501
▁ᎤᏰᎸᏒ	-10.4501
ᎵᏍᏓᏴᏂ	-10.4502
▁ᏓᏲᏥ	-10.4502
▁ᏚᏬᏁᏔᏅᎩ	-10.4502
▁ᎾᏛᏁᎰ	-10.4502
▁ᎤᎬᏩᎸ	-10.4503
▁ᏗᏥᏁᏟᏴ	-10.4504
▁ᎯᎷᎦ	-10.4504
▁ᎬᏔᏲᏎᎭ	-10.4505
▁ᏓᏰᏣ	-10.4505
▁ᎤᎾᏓᏙᎵᏍᏓᏁᎸᎩ	-10.4505
▁ᏣᏓᎸᎩ	-10.4506
▁ᎢᎦᎵᎢ	-10.4506
▁ᎦᎢᏒ	-10.4508
▁ᎡᏣᎫᏴᎡᏗ	-10.4508
▁ᏗᎦᎪᏙᏗ	-10.4508
ᏩᏛᎲᏍᏗᏱ	-10.4508
▁ᎤᏛᏅᏗᎦᎳᏫᎢᏍᏗᏱ	-10.451
▁ᎠᏋᏔᏅᎯ	-10.4511
▁ᎦᎪᎵᏍᏗ	-10.4511
▁ᎠᏁᎮ	-10.4512
ᏝᏅᎯ	-10.4512
▁ᎢᏥᎷᏤᏗᏱ	-10.4512
ᏔᏲᏍᏗ	-10.4513
ᎰᏩ	-10.4513
▁ᏓᎬᏩᎵ	-10.4514
▁ᏂᎨᏳᏎᏍᏗ	-10.4514
▁ᎬᏩᏔᏲᏎᎸᎩ	-10.4515
▁ᎠᏆᏓᏅᏖᏛ	-10.4516
▁ᏅᎵᏌᎵᏉ	-10.4518
▁ᎤᏍᎦᏎᏗ	-10.4519
▁ᎬᏩᏃᎮᏍᎩ	-10.452
▁ᎤᏅᏙᏗᏱ	-10.4523
▁ᏏᏆᏏ	-10.4525
▁ᎢᏥᎪᏩᏘᎭ	-10.4525
▁ᏭᏓᎪᎾᏛᏛ	-10.4525
▁ᎮᏓ	-10.4525
▁ᎧᏃᎮᏍᎬᎩ	-10.4526
▁ᏥᏤᎭ	-10.4526
▁ᏕᎬᏩᏂ	-10.4527
▁ᏱᏗᏣᏓ	-10.4528
▁ᏚᏁᎴ	-10.453
ᏓᎴᎾᏍᏗ	-10.453
ᎡᎸᎯ	-10.4533
▁ᎤᏁᏉᏨᎯ	-10.4534
ᏗᏂᏍᎪᏂᎯ	-10.4535
▁ᎤᏂᏍᏆᏛ	-10.4536
ᎸᏉᏗᏍᎬ	-10.4537
▁ᏭᏂᏴᎴᎢ	-10.4537
▁ᎠᏂᏯᎢ	-10.4539
▁ᏣᏚᎵᏍᎪ	-10.454
▁ᏣᏁᏨ	-10.4543
▁ᎫᎴ	-10.4545
▁ᏥᏅᎵ	-10.4546
▁ᎤᏁᏤᎸᎩ	-10.4546
▁ᎠᎧᎵᏬᎯ	-10.4546
ᏥᎦᏔᎲᎾ	-10.4547
▁ᏧᏍᏗ	-10.4548
ᎲᏍᎪ	-10.4551
▁ᏧᏂᏰᎸ	-10.4552
▁ᎤᏓᏙᎵᏍᏔᏁᎢ	-10.4554
ᎩᎾᎵᎢ	-10.4556
ᏥᏁᎢᏍᏗᏍᎬ	-10.4557
ᏄᎪᏥ	-10.4558
▁ᎠᎦᏅᎩ	-10.4562
▁ᎢᏓᏙᎴᎰᎯᏍᏗ	-10.4564
▁ᎤᏩᏅ	-10.4565
▁ᎬᏩᏃᏁᎴ	-10.4567
▁ᎿᏛᏁ	-10.4569
▁ᎤᎵᏍᎪᎸᏔᏅᎯ	-10.457
▁ᎾᎾᏛᏁ	-10.4572
ᏃᎮᎵᏙ	-10.4573
▁ᎤᎩᏒᎩ	-10.4574
▁ᎤᎾᏅᏅ	-10.4578
▁ᎠᏍᏕᎵᏍᎩ	-10.4578
▁ᎤᎵᏍᏆᏕ	-10.4579
▁ᏂᏚᏪᏎᎸᎢ	-10.4581
▁ᎢᏳᎾᎵᏍᏔᏅ	-10.4581
ᎵᏦᏛ	-10.4582
▁ᏏᎦ	-10.4583
▁ᏧᎴᎯᏐᏗ	-10.4585
▁ᎢᏨᏙᏗᏱ	-10.4586
▁ᎤᏫᏒ	-10.4592
▁ᎤᏂᎩᏎ	-10.4594
▁ᎠᏰᎸᏒᎩ	-10.4595
ᏓᏅᏬᏗ	-10.4598
▁ᎤᏪᏴ	-10.4598
▁ᏯᏗᎭ	-10.4601
▁ᎤᏃᎯᏳᏒᎢ	-10.4602
▁ᏙᏧᎾᏓᏅᏛᎢ	-10.4602
▁ᏱᏄᏍᏕ	-10.4603
ᏫᏢ	-10.4605
ᎶᏒᎯ	-10.4608
▁ᎠᏫᏒᎯ	-10.4608
ᏃᎯᏴ	-10.4611
▁ᎤᎶᎯᏍᏗᏱ	-10.4612
ᎸᏙᏗ	-10.4616
▁ᎤᎵᎮᎵᏨᎯ	-10.4618
▁ᏟᏗ	-10.4622
▁ᎤᏪᏁᎢ	-10.4623
▁ᎦᏅᎬᎢ	-10.4624
▁ᎤᏍᏓᏩᏗᏙᎯ	-10.4626
▁ᎨᎦᎵᏥᏙᏁ	-10.4626
▁ᎢᏳᎾᎵᏍᏓᏁᏗᏱ	-10.4627
▁ᏄᏂᏪᏎᎴ	-10.4628
▁ᎤᏕᏗᏱ	-10.4637
ᎦᎸᎢᏛ	-10.4637
ᎬᏍᎦᎳ	-10.464
▁ᏄᏩᏁᎸᎩ	-10.4641
▁ᏓᏫᏒᎢ	-10.4645
▁ᎪᏢᏒᎢ	-10.4646
▁ᎤᏍᏕᎸᏗᏱ	-10.4651
▁ᏈᎵ	-10.4654
ᎵᏙᎲᎢ	-10.4655
▁ᎵᏍᏗ	-10.4657
▁ᎦᏅᏅᎢ	-10.4657
▁ᏓᏟᎶᏍᏛᎢ	-10.4667
▁ᎾᏂᎡ	-10.4667
▁ᎧᏁᎢᏍ	-10.4668
▁ᎠᏯᎥᎢ	-10.4671
▁ᏂᏣᏛᏁᎲᎢ	-10.4672
▁ᏱᏕ	-10.4674
ᏕᎸᎩ	-10.4678
▁ᎤᎾᏫ	-10.4688
▁ᎤᎾᏄᎪᏫᏎ	-10.4697
ᏨᏍᏛ	-10.4697
ᏠᏨ	-10.4702
ᏥᎪᎵᏰ	-10.4702
▁ᎤᎶᏗ	-10.4704
▁ᏗᎩᎸᏫᏍᏓᏁ	-10.4704
▁ᏚᏂᏂᏴᎮ	-10.4706
▁ᎠᎾᏓᏅᏖᏍᎬᎢ	-10.4711
▁ᎠᎦᎵᏍᎪᎸᏓᏁᎸ	-10.4717
ᎦᎷᎩ	-10.4717
▁ᎢᏨᏯᎵᏥᏙᏁᎸ	-10.4719
▁ᏦᏒ	-10.472
▁ᎠᏂᏁᎬᎢ	-10.4724
ᎵᏍᎪᎸᏗᏍᎬ	-10.4724
▁ᎬᎿ	-10.4729
▁ᎠᏁᎮᏍᏗ	-10.4732
ᏓᏅᏖᏗ	-10.4732
▁ᎨᏥᏰᎸ	-10.4733
▁ᏐᎢᏱ	-10.4734
▁ᏄᏛᏁᎸᎩ	-10.4739
▁ᎠᏚᎢᏍᏔᏅ	-10.4748
ᏄᏬᎡ	-10.4754
ᎴᏙᏗ	-10.4768
▁ᏕᎪᏢᏒ	-10.4772
▁ᎠᏆᏓᏅᏙᎩ	-10.4779
▁ᎤᎾᏙᎴᎰᏒᎩ	-10.4779
ᏘᏄᎦ	-10.479
▁ᎯᎦᏔᎲ	-10.4798
▁ᏂᏚᏂᏪᏎᎴ	-10.4803
ᏅᏨ	-10.4808
▁ᎠᏐᏢᎢᏍᏗᏍᎬ	-10.4815
ᎵᏍᏓᏴᎾᏁ	-10.4818
▁ᎤᎶᎩᎸᎢ	-10.4822
▁ᏓᎩᎧ	-10.483
▁ᎤᏢᎬ	-10.4833
ᏍᏆᏓᏱ	-10.4835
ᏫᏎᎴᎢ	-10.4839
▁ᎦᎪᎨ	-10.4846
ᎨᎯᏙ	-10.4847
▁ᎢᏏᎵᏱ	-10.4847
▁ᎠᎩᎪᎲ	-10.4878
▁ᎦᎬ	-10.4878
▁ᎢᏍᏓ	-10.4899
ᏂᏪᏍᎨ	-10.4917
▁Ꮰ	-10.4939
ᎾᏰᎯᏍᏗ	-10.4945
▁ᎠᎵᎮᎵᏤᏗ	-10.4947
▁ᎦᎾᏍ	-10.4948
ᏍᏗᏰᎬ	-10.4952
▁ᏗᎦᎸᏫᏍᏓᏁᏗᏱ	-10.4958
ᏃᏟᏍ	-10.497
▁ᏄᏅᏁᎸ	-10.4976
▁ᎠᎩᏍᏆᏂᎪ	-10.4983
▁ᏓᏯ	-10.4998
▁ᎨᏥᏁᏤᎸ	-10.5016
ᏅᏅᎢ	-10.5023
ᏏᏌ	-10.5025
▁ᏴᎩ	-10.5036
▁ᎢᏣᏕ	-10.504
ᏥᏍᏕᎸ	-10.5042
▁ᎢᏥᏍᎦᏅᏨ	-10.5052
▁ᏚᏄᎪᏫᏒ	-10.5053
▁ᏗᎦᏁᎸ	-10.5057
ᏓᏛᏁᏗ	-10.5063
▁ᎤᏂᏁᏨᏃ	-10.5065
▁ᎠᏂᏍᎦᎾᎢ	-10.5094
▁ᏂᎤ	-10.511
ᏍᎦᏅᎪᎢ	-10.5114
ᎪᎲᏍᏙᏗ	-10.5124
ᎦᏅᏗᏱ	-10.5132
▁ᎢᏨᏴ	-10.5137
ᏣᏛᏅᎢᏍᏓᏁ	-10.5144
▁ᎢᏣᏓᏤᎵ	-10.5163
ᏏᏔᏛ	-10.5184
▁ᏧᏣ	-10.5187
ᏤᎲᎾ	-10.5209
▁ᎤᏒᎯ	-10.5211
▁ᏥᏁᎸ	-10.5216
▁ᏩᏴ	-10.5224
ᏰᎸᏎ	-10.5237
▁ᏫᏱ	-10.5252
▁ᏩᏯ	-10.5253
▁ᎠᎾᏓᏙᎵᏍᏗᏍᎨ	-10.5274
▁ᏚᏳ	-10.5275
ᎴᏅᏙᏗ	-10.5298
▁ᏚᏁᎸ	-10.5314
▁ᎠᏆᏓᏅᏖ	-10.5324
ᏂᏆᏘᎮᏍᏗ	-10.5333
▁ᎠᎪᎢ	-10.5351
▁ᏍᎩᏍᏕᎸ	-10.5369
▁ᎤᏅᏗ	-10.5372
▁ᎤᏓᏅᏁ	-10.5385
▁ᎠᎪᏎ	-10.5388
ᎾᏛᏁᎴ	-10.5391
ᎷᏏ	-10.54
ᎪᏩᏘᏍᎨᏍᏗ	-10.5421
ᎪᎯᏳᏗ	-10.5432
ᏓᏁᎭ	-10.5443
▁ᏰᎵᎦ	-10.5449
▁ᎠᏁᎲᎩ	-10.5469
▁ᎤᏓᏅᏖᎸ	-10.5474
ᎿᎢᏳ	-10.5482
ᏍᎦᎢᏍᏗ	-10.5486
ᎧᎵᏨᎯ	-10.5488
ᏥᏯᏅᏗ	-10.5493
▁ᏧᏲᎯᏎᏗ	-10.5496
▁ᎤᏂᎷᏤᎸ	-10.5496
▁ᎤᏂᏁᏤ	-10.5503
▁ᎦᏯ	-10.5504
ᏍᏆᏂᎪᏔᏅᎯ	-10.5546
ᎦᏁᎶᏗ	-10.5565
▁ᎢᏥᎦ	-10.557
ᎵᎪᏁᎴ	-10.558
ᎩᎵᏲᎢᏍᏙᏗ	-10.5609
ᎬᏅ	-10.5617
▁ᎬᏩᎦ	-10.5636
ᏓᏂᎸᎦ	-10.5639
ᎦᏅᎦ	-10.5644
ᎢᏍᏔᏂ	-10.5646
ᏪᏎᎴᎢ	-10.5656
▁ᏅᏗᎦ	-10.5663
ᎧᎳ	-10.5667
ᏁᏤᎲ	-10.5672
ᏥᎪᏩᏛ	-10.5699
▁ᏯᏇ	-10.5706
ᏴᏁᏗᏱ	-10.5734
ᎧᏯ	-10.5739
ᏴᏔᏂᎸ	-10.5749
ᎵᏬ	-10.578
ᎤᏟ	-10.5789
▁ᏱᏂᎪ	-10.58
ᎯᎸᏉᏕᏍᏗ	-10.583
▁ᎠᎩᏃᎮ	-10.585
ᎶᏏ	-10.5863
ᎤᎷᏨ	-10.5878
ᎵᏍᏕᎵᏍᎬ	-10.5887
▁ᎤᏂᏅᏁ	-10.5897
▁ᏦᏨ	-10.59
ᏂᎦᎥ	-10.5923
▁ᎠᏗᏔᏍ	-10.5926
▁ᎠᏏᏴᏫᏉ	-10.5939
▁ᎬᏩᏛᏗ	-10.5951
▁ᎢᏥᎨᏳ	-10.5953
ᎨᏎᎢ	-10.596
ᎦᏥᏲ	-10.5971
ᏐᏢᎢᏍᏙᏗᏱ	-10.5976
▁ᏚᏩ	-10.5977
▁ᎯᎦᏔ	-10.5978
▁ᎤᎾᏓᏅᎦᎸ	-10.5993
ᏁᏅᏍᏗᏱ	-10.5994
ᏏᏔᏗᏍ	-10.6004
▁ᎬᏬᏎ	-10.6011
ᏍᎦᏅᎾ	-10.6014
▁ᎠᎩᏁᏤ	-10.603
ᏚᏓᎴᏍᏗ	-10.6034
ᏥᎤᏍᏕᏎ	-10.6035
▁ᎤᏗᎦᎵᏍᏙ	-10.606
▁ᎯᎦᏘᏏ	-10.6072
▁ᎤᏩᏛ	-10.6084
ᎶᎸ	-10.61
ᎦᏄᎪᎬ	-10.6101
ᏄᎪᏫᏒᎩ	-10.6101
▁ᎾᏋᏁ	-10.6108
▁ᎠᎢᏒ	-10.611
▁ᎤᏲᎢᏍᏗ	-10.6124
▁ᏓᎧᎿᏩᏗ	-10.6138
ᎾᏄᎪᏫᏒ	-10.6139
ᎪᎵᏰᎥᎯ	-10.6153
▁ᏦᎢᏉ	-10.616
ᏥᎯᏍᏗ	-10.616
▁ᎬᏩᏛᏛ	-10.6161
▁ᎠᏓᏅ	-10.6162
ᏥᏪᏏ	-10.6166
ᏚᎢᏍᏓᏁ	-10.618
ᏅᏁᎴ	-10.6184
ᏥᏯᏅᏛ	-10.62
▁ᏳᏓᏑ	-10.6229
▁ᎤᏂᎯ	-10.6241
ᏛᎬᎦ	-10.6254
▁ᎣᏥᏃᎮ	-10.6256
ᏂᎩᏛ	-10.6257
ᎵᏍᏔᏁ	-10.6263
ᏍᏓᏱᏕ	-10.6265
▁ᎢᏣᏛᏁ	-10.6265
ᏚᎪᏓᏁᏗ	-10.6273
ᏯᏓᏂᎸ	-10.628
ᏅᏓᏗᏍᏗ	-10.6284
ᏅᏒᎯ	-10.6289
▁ᏧᏂᏲ	-10.6294
▁ᏂᏚᏪᏎᎸ	-10.6294
ᎾᏓᏡᎬ	-10.6309
ᎳᏁᎢ	-10.6345
▁ᏥᏅᏗᎦᎵᏍᏙᏗ	-10.6345
ᏌᏁ	-10.6346
▁ᏕᎦᏍᎩᎸ	-10.636
▁ᎠᏆᏚᎵ	-10.636
▁ᏄᏪᏎᎸ	-10.6366
▁ᏚᏟᎶᏍᏓᏁᎴ	-10.6366
▁ᏓᏂᎳᏫᎥ	-10.6366
▁ᎤᏪᏍᎩᎸ	-10.6368
▁ᎠᏟᏍᏛ	-10.6368
▁ᎢᎩᏍᎦᏅᏨ	-10.6368
▁ᏭᏂᎶᏎ	-10.637
▁ᏫᏥᎦᏛ	-10.6372
▁ᏚᏓᏘᎾᎥ	-10.6373
▁ᏕᏥᎧ	-10.6382
ᎯᏳᎲᎦ	-10.6384
ᏟᏏᏍᎪ	-10.6384
▁ᎠᏥᏃᎮᏍᎬ	-10.6385
▁ᏚᏂᏢᎬ	-10.6389
▁ᏥᎪᏩᏛ	-10.6392
Ꮊ	-10.6402
▁ᏓᏰᏥ	-10.6402
▁ᎣᎦᏣᏅ	-10.6404
▁ᎤᏰᎸᏁ	-10.6405
▁ᎤᏬᏂᏒ	-10.6406
ᏚᎸᏫᏍᏓᏁ	-10.6407
ᎦᎶᎨᏒ	-10.6422
▁ᎤᏪᎷᏁ	-10.6424
ᏂᏣᏔ	-10.6428
▁ᎤᎾᎵᏍᏓᏴᏅ	-10.6429
ᏩᏔᏁ	-10.643
▁ᎢᏥᎦᏔᎲ	-10.643
ᎵᏍᏚᎶ	-10.6432
▁ᎠᎬᏗᏍᎬ	-10.6434
▁ᏭᏓᎪᎾᏛ	-10.6436
▁ᎢᏣᏛᎦᏅ	-10.6447
ᏛᏱ	-10.6449
ᏥᎪᏗ	-10.6449
▁ᎤᏂᏔᎳ	-10.645
ᏛᏂᏗᏍᏗ	-10.645
▁ᎤᎩᎵᏲᎢᏍᏗ	-10.6453
ᎵᏍᏓᏴᏙᏗ	-10.6453
ᏥᏩᏛᎲ	-10.6457
ᎾᏰᏍᎦ	-10.6459
▁ᎬᏰᎸ	-10.6461
▁ᎢᏯᏋᏁ	-10.6463
▁ᏱᏂᎦ	-10.6463
▁ᏧᏓᏅᏛ	-10.6464
▁ᎢᏯᏆᏛᏁᏗ	-10.6464
ᎠᏍᎦᏯ	-10.6466
▁ᎤᏬᏚᎯ	-10.6468
ᏄᏩᏁᎰ	-10.6468
▁ᎤᎵᏂᎩᏗ	-10.6468
▁ᎠᏂᎩᎵᏲ	-10.647
▁ᎭᏓᏅ	-10.6471
▁ᎢᏨᏃᏁᎸ	-10.6473
ᎪᏍᏓᏯ	-10.6473
ᏕᏲᏅᎯ	-10.6473
ᏠᎾᏍᏛᎾ	-10.6474
▁ᏙᏘ	-10.6474
▁ᏱᏓᎾ	-10.6475
ᏔᏲᏎᏗ	-10.6476
ᏯᏫᏍᎨᏍᏗ	-10.6476
▁ᏕᎭᏕᏲᎲᏍ	-10.6477
ᏘᎿᏫᏛ	-10.6477
ᏢᏈᏍᏗᏱ	-10.6478
▁ᎤᎾᏚᎸ	-10.6478
ᏓᏂᎸᎨᏍᏗ	-10.648
ᏘᎾᏫᏛᎲ	-10.648
▁ᎤᎾᏓᏡ	-10.648
▁ᏂᎦᎵᏍᏔᏂ	-10.6482
▁ᏥᎦᏘᏏ	-10.6482
▁ᎢᏗᎬᏁ	-10.6482
ᏓᏅᎡᎮᏍᏗ	-10.6482
ᏕᏋᎯᏍ	-10.6483
▁ᎤᎿᎷᏎ	-10.6483
▁ᏂᏓᏕᏘᏴᎯᏒ	-10.6483
▁ᏚᏍᏆᎸᏔᏁ	-10.6483
ᏲᎱᏏᏕᎾ	-10.6483
▁ᎠᎵᎮᎵᎬ	-10.6483
▁ᎠᏓᎦᎵᏍᏓᏗᏍᎩ	-10.6483
▁ᎠᏛᏂᏗᏍᏙᏗ	-10.6483
▁ᎢᏣᏛᏅᎢᏍᏙᎢ	-10.6483
▁ᎢᏯᏂᏪᏍᎩ	-10.6483
▁ᎤᏂᎧᎵᏤ	-10.6483
▁ᎤᏓᏙᎵᏍᏓᏁᎴᎢ	-10.6483
▁ᎦᎵᏆᏍᎪᎯ	-10.6483
▁ᎮᏯᏔ	-10.6483
▁ᎾᎵᏍᏓᏴᎲᏍᎬᎾ	-10.6483
▁ᏅᏓᎦᏥᏴᏁᎵ	-10.6483
▁ᏅᏓᏣᏓᎴᏅᎯ	-10.6483
▁ᏅᏧᏓᎴᏅᎲᎾ	-10.6483
▁ᏇᏣᏱᏗ	-10.6483
▁ᏑᏓᎳᏍᎪᎯ	-10.6483
▁ᏓᏂᎶᏄᎮᏍ	-10.6483
▁ᏓᏓᏂᏌᎲ	-10.6483
▁ᏓᏗᎶᏂ	-10.6483
▁ᏓᏲᏣᏛᏁᎵ	-10.6483
▁ᏗᎦᏘᎴᎩ	-10.6483
▁ᏗᎬᏩᎩᏨᏗ	-10.6483
▁ᏗᎾᏓᎾᏌᎲᏍᎩ	-10.6483
▁ᏗᏂᎧᎿᏩᏕᎩ	-10.6483
▁ᏗᏍᎩᎧᏁᎸᎯ	-10.6483
▁ᏗᏓᎴᏅᏗᏍᎩ	-10.6483
▁ᏚᎦᏒᏍᏛ	-10.6483
▁ᏚᎵᏍᏚᎢᏎᎢ	-10.6483
▁ᏚᏂᏏᏂᏙᎸ	-10.6483
▁ᏧᏄᏩᎢ	-10.6483
▁ᏩᎵᏰᎢᎶᎯᎭ	-10.6483
▁ᏫᏂᎦᎵᏍᏙᏓ	-10.6483
▁ᏬᎩᎶᏒᎩ	-10.6483
▁ᏬᎩᏅᏍᏔᏅᎩ	-10.6483
▁ᎤᎾᏓᏙᎵᏍᏔᏅ	-10.6483
▁ᎤᏚᏓᎴᏛ	-10.6483
▁ᎤᏬᏪᎳᏅᎯ	-10.6483
▁ᎨᏥᎦᏘᏗᏍᏗ	-10.6483
▁ᎭᏰᎳᏍᏗ	-10.6483
▁ᎯᏍᎦᏍᎪᎯ	-10.6483
▁ᎾᏍᏆᎵᏍᎬᎾ	-10.6483
▁ᏂᎦᏗᎹᏏ	-10.6483
▁ᏗᎾᏓᏲᏁᎯ	-10.6483
▁ᏚᏌᎳᏓᏅ	-10.6483
▁ᏣᏃᏍᎩᏒᎩ	-10.6483
▁ᏥᎦᎷᎯᏍᏗᎭ	-10.6483
▁ᏧᎾᎩᎸᏗ	-10.6483
▁ᏫᎨᏥᏯᏅᏛ	-10.6483
▁ᏱᏣᏞᎨᏍᏗ	-10.6483
▁ᎠᏳᎾᎦ	-10.6483
▁ᎤᏁᎢᎸᏗ	-10.6483
▁ᎤᏁᎷᎬᎩ	-10.6483
▁ᎤᏬᏪᎳᏅᎩ	-10.6483
▁ᏄᏓᏓᎸᎾ	-10.6483
▁ᏅᏓᏳᏄᎪᏨᎯ	-10.6483
▁ᏕᏥᏃᎩᏍᎨᏍᏗ	-10.6483
▁ᏥᏕᏣᎪᎲᎩ	-10.6483
▁ᏧᏅᎨᏫ	-10.6483
▁ᏫᏚᏂᏯᏅᎲ	-10.6483
▁ᎠᏆᎵᏥᏙᏗᏱ	-10.6483
▁ᎬᏩᎷᏤᎮ	-10.6483
▁ᏗᏣᎴᎲᎦ	-10.6483
▁ᏁᏓᏂᎵ	-10.6483
▁ᎠᎩᏍᏓᏩᏕᎨᏍᏗ	-10.6483
▁ᎠᎾᎦᎵᏍᎩ	-10.6483
▁ᎠᏂᏰᎪᎩ	-10.6483
▁ᎠᏥᏅᏩᏅᎯ	-10.6483
▁ᎤᏩᎢᏎᎸᎯ	-10.6483
▁ᏗᎪᏪᎵᏍᎩ	-10.6483
▁ᏩᏚᎵᏏ	-10.6483
▁ᎢᏣᏛᎩᏍᎨᏍᏗ	-10.6483
▁ᎦᏬᏂᏍᎨ	-10.6483
▁ᏂᏗᎨᏥᎾᏝᎥᎾ	-10.6483
▁ᏗᏆᏓᎴᏅ	-10.6483
▁ᎢᏣᎵᏍᏓᏴᏗᏱ	-10.6483
▁ᎢᏯᏅᏁᎯ	-10.6483
▁ᎤᏓᏑᏴ	-10.6483
▁ᎭᏓᏅᏓᏓ	-10.6483
▁ᎯᏲᏍᏗᏍᎩ	-10.6483
▁ᏂᏨᏴᏁᎸ	-10.6483
▁ᏂᏪᏍᎬᎢ	-10.6483
▁ᏕᎤᏙᏍᏛ	-10.6483
ᎬᎭᎷᏯᏍ	-10.6483
▁ᏧᏂᏴᏍᏕᏍᎩ	-10.6483
▁ᎤᎾᏚᎵᏍᎩ	-10.6483
▁ᎤᎾᏠᏤ	-10.6483
▁ᎤᏁᏉᎢᏍᏗᏱ	-10.6483
▁ᏗᏥᎦᏙᎵ	-10.6483
▁ᎤᏂᏲᎢᏎᎸᎯ	-10.6483
ᎨᏳᏅᎾ	-10.6483
▁ᎡᏗᎨᏳ	-10.6483
▁ᎡᎭᎦᏔ	-10.6483
▁ᏭᏯᏅᎮ	-10.6483
▁ᏭᏴᏍᏗᏱ	-10.6483
▁ᎠᏤᏍᏙᎩᎯ	-10.6483
▁ᎤᏮᏙᏗᏱ	-10.6483
▁ᏍᎩᏲᎮᏍᏗ	-10.6483
▁ᏕᏥᏙᎨᏍᏗ	-10.6483
▁ᎦᎷᎶ	-10.6483
▁ᎤᎾᏙᎴᎰᎯᏍᏗᏱ	-10.6483
▁ᏗᎵᏒᏍᏗ	-10.6483
▁ᏂᎨᎬᏁᎸ	-10.6483
ᏔᏲᎯᎰ	-10.6483
ᏄᏁᎩᏴ	-10.6483
▁ᏥᏂᏥᏪᎭ	-10.6483
▁ᎠᎨᏲᏅ	-10.6483
▁ᎠᏂᎦᏘᏯ	-10.6483
▁ᏚᏅᏍᏓᏕᎴ	-10.6483
▁ᎠᏉᎯᏳᎲᏍᎨᏍᏗ	-10.6483
▁ᎠᏍᏙᏍᎩ	-10.6483
▁ᏕᎭᏓᏅᎡᎮᏍᏗ	-10.6483
▁ᎬᏩᏴᎸᎯ	-10.6483
▁ᏗᎪᏏᏏᏍᎩ	-10.6483
▁ᏚᏂᎧᏁᎢ	-10.6483
ᎦᏙᎥᏎ	-10.6483
ᎿᎷᏒ	-10.6483
ᏰᏲᎲᏍᎩ	-10.6483
ᏔᏪᏙ	-10.6483
▁ᎠᏂᏃᎮᏍᎨ	-10.6483
▁ᏓᏥᎾᏄᎪᏫᏎᎵ	-10.6483
▁ᏓᏅᏩ	-10.6483
▁ᏥᏨᏰᎳᏗᏙᎲᎩ	-10.6483
▁ᎣᏤᎯ	-10.6483
▁ᎬᏩᏍᏕᎸᎯᏙ	-10.6483
ᏓᏙᎵᏍᏔᏂ	-10.6483
▁ᏂᏥᏪᏍᎬ	-10.6483
▁ᎠᏛᎩᏍᎨᏍᏗ	-10.6483
ᏃᎮᎮᎴ	-10.6483
▁ᎦᏂᎳ	-10.6483
▁ᏗᏟᏍᏗ	-10.6483
▁ᏱᏂᎦᏛᏁᎭ	-10.6483
ᏤᏬᎩ	-10.6483
▁ᎭᎴᎲᎦ	-10.6484
▁ᎪᏪᎴ	-10.6484
▁ᎢᎨᏨᏁᏗ	-10.6484
▁ᎢᏥᏍᎦᎾ	-10.6484
ᎾᏛᎪᏗ	-10.6484
▁ᎢᏨᏃᏁᎭ	-10.6484
▁ᎾᏛᏁᎲ	-10.6484
ᎨᏅᏴ	-10.6484
▁ᏗᏨᏲᎯᏎᏗᏱ	-10.6484
▁ᏣᎫᎪᏓᏁᏗ	-10.6484
▁ᏚᏃᏪᎸ	-10.6484
ᏛᏛᎲᏍᎨᏍᏗ	-10.6484
ᏓᏡᏗᎭ	-10.6484
▁ᎢᏳᎾᏓᎳ	-10.6484
▁ᏥᏯᏛᎦᏁ	-10.6484
▁ᎤᎾᎵᏃᎮᎴ	-10.6484
ᏗᎨᏥᎤᏍᏕᏎᎸ	-10.6484
▁ᏑᏓᎨ	-10.6485
▁ᎠᏂᎧᎸ	-10.6485
▁ᏗᏆᏓᏅᏛ	-10.6485
▁ᏄᏂᎪᎸ	-10.6485
▁ᎣᏣᎵᎡᎵᏤ	-10.6485
▁ᎾᏆᏛᏁᎸ	-10.6485
▁ᎠᎾᎵᏍᎦᏍᏙᏗᏍ	-10.6485
▁ᎠᎩᎪᏁᎸ	-10.6485
ᏍᎦᎢᎮᏍᏗ	-10.6485
▁ᏕᏥᏁᏤᎮᏍᏗ	-10.6485
▁ᏂᏨᏁᎮᏍᏗ	-10.6485
▁ᏫᏂᏚᏪᏎᎸᎩ	-10.6485
ᏲᎦᏛᏁᏗ	-10.6485
▁ᎾᏆᎵᏍᏔᏅ	-10.6486
▁ᎡᏗᎸᏉᏓ	-10.6486
▁ᏑᎾᎴᎢᏳ	-10.6486
ᏁᎦᎸ	-10.6486
▁ᏓᏰᏥᏁᎵ	-10.6486
▁ᏭᎪᎮ	-10.6486
▁ᏗᏣᎵᏂᎩᏗᏳ	-10.6486
▁ᏓᎬᏔᏂ	-10.6486
▁ᎢᏳᎵᏍᏔᏂᏓᏍᏗ	-10.6486
▁ᎯᏁᎩ	-10.6486
▁ᏕᏥᎸᏉᏕᏍᏗ	-10.6486
▁ᎤᎾᏗᎦᎴᏲᏨᎯ	-10.6486
ᏔᏲᏎᎮ	-10.6487
▁ᎤᏛᏛᏅᎩ	-10.6487
ᎳᏫᏎᏗ	-10.6487
ᏣᏪᏐᎸᏍᏙᏗ	-10.6487
▁ᏥᏂᎬᏁᎭ	-10.6487
ᏧᏁᏍᎨᎮᎢ	-10.6487
▁ᏯᏆᏚᎵ	-10.6487
ᏁᏪᏎᎢ	-10.6487
▁ᏅᎩᏦᏁ	-10.6487
▁ᏅᏓᎬᏁᎵ	-10.6487
ᎵᎬᏚ	-10.6487
▁ᎨᎦᎵᏍᎪᎸᏓᏁᎸᎯ	-10.6487
ᏓᏑᏰᏍᏗ	-10.6487
▁ᎤᎴᏫᏍ	-10.6487
▁ᏗᏤᏅᏒ	-10.6487
▁ᎤᎾᏣᎢ	-10.6488
▁ᏅᏛᏛᏁᎵ	-10.6488
▁ᎠᏓᏛᏗᏍᎩ	-10.6488
▁ᎯᏍᎩᏍᎪᎯ	-10.6488
▁ᎠᏇᏅᏒᎩ	-10.6488
ᎰᎲᏍᏗ	-10.6488
▁ᏅᏓᏳᏓᎴᏅᏛ	-10.6489
▁ᎨᎦᎫᏴᏓᏁᏗ	-10.6489
ᏢᏅᎥᏍᎩ	-10.6489
▁ᎬᏁᏤᎭ	-10.6489
▁ᏚᏫᏞᏫᏒ	-10.6489
▁ᏂᏨᏴᏁᎭ	-10.6489
▁ᏂᏣᏪᏒ	-10.6489
ᏓᏅᎡᎸᎩ	-10.6489
ᏯᏪᎢᏍ	-10.6489
▁ᎠᏰᎳᏍᏗᎦᏅᎯᏛ	-10.649
▁ᏫᏗᎶᎯ	-10.649
▁ᎠᏂᏴᎩ	-10.649
▁ᏥᏄᏩᏁᎸ	-10.649
▁ᎤᏓᏅᏓᏛᎩ	-10.6491
▁ᏗᎩᏙᏓ	-10.6491
▁ᎤᏂᎾᏰᏎᎢ	-10.6491
▁ᎠᏆᎵᏍᎦᏍᏙᏛ	-10.6491
▁ᎾᏅᏁᎲ	-10.6491
▁ᏗᏣᎳᏏ	-10.6492
▁ᏤᏥᎤᏍᏕᏎ	-10.6492
ᏓᏅᎦᎸᎾ	-10.6492
▁ᎣᎦᏓᏅᏔᏩᏕ	-10.6492
▁ᎢᏨᏰᎳᏗᏙᎭ	-10.6492
▁ᎠᏗᏔᏍᎨᏍᏗ	-10.6493
ᏖᎸᎲᏍ	-10.6493
▁ᏗᏣᏘᏂᏙᎯ	-10.6493
▁ᎤᏎᎵᏔᏅ	-10.6493
▁ᏲᏨᏗᏍᎨ	-10.6493
▁ᏫᏥᎦᏘ	-10.6493
▁ᎤᏪᏰᏂ	-10.6494
▁ᎠᏆᎵᏍᏓᏴᏗ	-10.6494
▁ᏩᎦᏛᎢ	-10.6494
▁ᎤᎩᏎᎢ	-10.6494
ᏍᏆᏃᏴᎪ	-10.6494
ᏦᏎᎭ	-10.6494
▁ᏚᏙᏍᏛ	-10.6494
▁ᎬᎩᏁᏉᏤᏗᏱ	-10.6494
ᏍᎦᏅᎬ	-10.6494
▁ᏭᏣᏅ	-10.6494
▁ᏱᏕᏣ	-10.6494
▁ᏤᏌᏂ	-10.6494
▁ᎠᏂᏏᎾᏌᏅ	-10.6495
▁ᏯᎩᏰᎸᎭ	-10.6495
ᏍᏓᎦᎸ	-10.6495
ᏛᎦᏁᎰᎢ	-10.6495
▁ᏥᎩᎵᏲᎬ	-10.6496
▁ᏣᎦᏨᏍ	-10.6496
▁ᎤᏰᎸᎯ	-10.6497
▁ᏣᏁᏢᏔᏅᎯ	-10.6498
▁ᏧᏓᎴᏁᎢ	-10.6498
▁ᏙᎩᎸᏫᏍᏓᏁᎲ	-10.6499
▁ᎹᏚ	-10.6499
▁ᎤᎬᏩᎴ	-10.6499
▁ᎠᏁᏯᏔᎯ	-10.6499
▁ᎢᏣᏛᎪᏗᏱ	-10.6499
▁ᏱᏍᎦᎢᎮᏍᏗ	-10.65
ᏣᎳᏁ	-10.65
▁ᏗᎦᏓᎨᏳᎯ	-10.65
▁ᎡᎦᏔ	-10.6501
▁ᏱᏂᎬᏩ	-10.6501
▁ᏗᏂᏢᏗᏱ	-10.6501
▁ᏧᏬᎳ	-10.6502
ᏓᎵᏅᏟ	-10.6502
ᏩᏂᎦᎸ	-10.6502
▁ᎤᏗᎴᎲᏍᎬ	-10.6502
ᏑᏰᏍ	-10.6502
▁ᎤᏂᏂᏴᏗᏱ	-10.6502
▁ᎤᏂᏰᎸᏁ	-10.6503
▁ᏰᎵᎦᏯ	-10.6503
ᏕᎰᏍᎨᏍᏗ	-10.6504
▁ᏗᏘᏲ	-10.6505
▁ᏚᎸᏫᏍᏓᏁᎮᏍᏗ	-10.6506
▁ᏧᏕᏲᏅᎯ	-10.6506
ᎵᏍᏓᏏ	-10.6507
▁ᎢᏥᎦᏴᎵᎨ	-10.6509
ᏓᎴᏂᏍᎬ	-10.6509
▁ᎤᏂᏂᎬᏎᎲ	-10.651
▁ᎨᏥᏛᎦ	-10.651
▁ᎬᏩᏛᏓᏍᏓᏁ	-10.6511
▁ᎬᏩᏓᏙᎵᏍᏗ	-10.6511
▁ᏂᎦᏔᎲᎾ	-10.6511
▁ᎠᏏᎾᏌᏅ	-10.6513
▁ᏂᎦᏥᏴᏁᎸᎭ	-10.6513
▁ᏚᏂᎸᏫᏍᏓᏁᎮ	-10.6514
ᏚᏂᎳᏫᏤ	-10.6515
▁ᎢᎠᏓ	-10.6515
▁ᎢᏨᎪᏩᏛᏗᏱ	-10.6515
▁ᎣᏤᎵ	-10.6515
▁ᎬᏉᏎ	-10.6516
▁ᏅᏔ	-10.6516
▁ᎠᏓᏙᎵᏍᏓᏁᎯ	-10.6516
▁ᎤᏂᏃᎮᏗᏱ	-10.6517
▁ᏱᎨᏣ	-10.6517
▁ᎠᎦᏯᎷᏗ	-10.6517
ᎷᏥᏏ	-10.6519
▁ᏳᎨᏳᎭ	-10.652
▁ᎤᏙᏢᏒ	-10.6521
▁ᎢᏥᏩᏛᏗᏱ	-10.6521
ᏣᎵᏍᏗᎭ	-10.6522
▁ᎠᏓᏙᎵᏍᏙᏗᏱ	-10.6522
▁ᎡᏦᎢᏳᏒ	-10.6522
▁ᎬᏩᎪᎮᎢ	-10.6524
ᎵᏍᏙᏗᏱ	-10.6525
▁ᏣᎾᏫᏱ	-10.6525
▁ᎡᏥᏍᏕᎸᏗᏱ	-10.6525
ᎵᏏᎾᎯᏍ	-10.6526
▁ᎠᏂᏍᏓᏩᏕᎩ	-10.6528
ᎵᏂᎬᎬ	-10.6528
▁ᏯᏃᏉ	-10.6529
▁ᏕᎦᏬᏁᏗᏍᎬᎩ	-10.6529
ᎳᏍᎪᎯ	-10.653
ᎥᏍᎨᎢ	-10.653
▁ᎾᏆᎵᏍᏓᏁᎸᎩ	-10.653
▁ᎨᏥᏯᏅᏛ	-10.6531
▁ᎤᎦᏌᏯᏍᏗᏕᎩ	-10.6531
▁ᏎᎳ	-10.6531
ᏘᏅᏒᎩ	-10.6533
ᏍᏆᏂᎪᏔᏁ	-10.6533
▁ᏂᎨᏥᏪᏎᎸ	-10.6534
▁ᏝᏬ	-10.6534
▁ᏚᏂᎪᎲ	-10.6535
▁ᎤᏕᎰᎯᏍᏗᏳ	-10.6537
▁ᎤᏬᎯᏳᏅᎩ	-10.6538
ᏚᏓᎴᏍᏗᏱ	-10.6539
ᏐᏢᏗᎭ	-10.6539
ᏍᏙᏍᎨᏍᏗ	-10.6542
▁ᏓᎧᏅ	-10.6543
▁ᏂᎦᏚ	-10.6544
▁ᎠᎦᏛᏅᎯ	-10.6544
▁ᎤᎾᏁᎳᏅᎯ	-10.6545
▁ᎠᎵᏍᏕᎵᏍᎬ	-10.6545
▁ᎯᏰ	-10.6545
▁ᎢᏥᎪᎲ	-10.6546
▁ᏥᏙᎦ	-10.6546
▁ᎠᏩᎾᎦᎳᎯᏳ	-10.6546
▁ᎨᏥᏍᏕᎸᏗᏱ	-10.6548
▁ᎤᏃᎮᎸᎯ	-10.6549
▁ᎡᏙᎲᎩ	-10.6549
▁ᎤᏂᏚᎲᎢ	-10.655
▁ᏗᎬᏔᏅᎯ	-10.6551
ᏬᏁᏔᏁ	-10.6551
▁ᏂᏗᏣ	-10.6552
ᎾᏙᏓᏆ	-10.6553
▁ᎢᏝ	-10.6554
▁ᎤᎵᏍᏙᏔᏅ	-10.6554
▁ᎤᏗᏩ	-10.6554
▁ᎤᏍᏉᎵᏱ	-10.6555
▁ᏓᎧᏁ	-10.6555
▁ᎤᏪᎷᏅ	-10.6556
▁ᎤᎧᎵᏨ	-10.6557
▁ᏧᏮ	-10.6558
▁ᏅᏓᏳᏓᎴ	-10.6561
▁ᏄᏪᎡ	-10.6563
▁ᎠᏥᎸᎨᎳᏍᏗᏱ	-10.6565
ᏲᏅᎵ	-10.6566
▁ᏥᏭ	-10.6566
▁ᎣᎩᏂ	-10.6569
▁ᏧᏑᏰᏛ	-10.6569
▁ᏅᏧᏪᏎ	-10.6569
ᏛᏗᏍᎩ	-10.6569
▁ᎦᏪ	-10.657
▁ᏱᏅᎦ	-10.6571
▁ᎧᏃᎮᏍᎬᎢ	-10.6573
▁ᏧᎫᏴ	-10.6574
▁ᎤᏂᎪᏁ	-10.6574
▁ᏪᎯ	-10.6575
ᏅᎢᏍᏗᏱ	-10.6576
▁ᎦᏓᏙᎵᏍᏗᏍᎬᎢ	-10.6577
▁ᏗᏥᎦᏴᎵᎨᎢ	-10.6577
ᎪᎵᏰᏍᎨᎢ	-10.6578
▁ᏓᏥᏯ	-10.6578
▁ᏓᎾᎵᏍᏓᏴᎲᏍᎬᎢ	-10.6578
▁ᏆᏏ	-10.6579
▁ᏄᎵᏍᏓᏁᎸᎢ	-10.658
ᏓᏅᏓᏗᏍᏗᏱ	-10.658
ᏩᎾᎦᎳᎯᏳ	-10.6583
▁ᏂᏚᏩᏁᎸᎩ	-10.6586
ᏓᏨᏯᏍᏗ	-10.6586
ᏍᏕᏙᎲ	-10.6587
ᎩᏩᏛᎲᎩ	-10.6588
▁ᏅᏓᏍᎩ	-10.6588
▁ᏕᏥᏁᎸ	-10.6589
▁ᏧᏁᎶᏗ	-10.659
▁ᎤᏪᏅᎡ	-10.6591
▁ᎦᎫ	-10.6592
▁ᏱᏙᎩ	-10.6595
ᏂᏏᏅᎯ	-10.6596
ᏂᏙᎯ	-10.6597
▁ᏓᏰᏂ	-10.6599
ᏅᏓᏗᏍᏗᏱ	-10.6601
▁ᏥᎦᏔᎲ	-10.6602
▁ᎾᏛᏁᎲᎢ	-10.6604
▁ᎣᎪᎯᏳ	-10.6604
ᎧᏃᏗ	-10.6608
▁ᎬᏩᏍᎦᎩ	-10.661
▁ᎤᎪᏗ	-10.6612
▁ᏫᏓᏂ	-10.6613
▁ᎦᏃᎪ	-10.6615
▁ᏙᏓᏳ	-10.6615
ᏂᎪᎲ	-10.6617
▁ᏄᏪᏎᎸᎢ	-10.6617
▁ᏄᎾᏓ	-10.6629
▁ᏫᏚᏯᏅᎮᎢ	-10.6631
▁ᏝᎨ	-10.6631
▁ᎤᏓᏅᏁᎢ	-10.6632
▁ᏕᎤᎴ	-10.6632
▁ᎪᎳ	-10.6637
▁ᎠᏴᏓᏆᎶ	-10.6638
▁ᎢᏨᏰ	-10.6641
▁ᎨᏥᏚᎢᏍᏓᏁᎸ	-10.6642
▁ᏧᏁᎳ	-10.6643
▁ᎠᏂᎦᏔᎭ	-10.6643
▁ᎨᏆ	-10.6648
▁ᏘᏯ	-10.6648
ᎦᏘᏗᏍ	-10.6649
▁ᏤᎮᏍᏗ	-10.6651
ᏙᎵᎦ	-10.6656
▁ᎡᎳᏂᎬᎢ	-10.6662
▁ᏚᎩᏒ	-10.6662
ᏣᏛᎦᏁᎸ	-10.6665
ᎮᎸᎯ	-10.6665
▁ᎤᏓᏅᏎᎢ	-10.667
▁ᎤᏕᏅᎯ	-10.6671
▁ᏈᎵᎩᏱ	-10.6673
▁ᎤᏂᏁᏨᎯ	-10.6674
▁ᏃᏳ	-10.6681
▁ᏖᏒ	-10.6681
▁ᏕᎦᎳᏫᎥᎢ	-10.6685
▁ᏓᏓᏁᎸᎢ	-10.6686
▁ᏱᏚᏳᎪ	-10.6689
▁ᎠᎢᏒᏃ	-10.6691
▁ᎦᏗᎭ	-10.6692
▁ᎯᎳ	-10.6693
ᏞᏤ	-10.6698
▁ᎿᏛᏁᎲ	-10.6698
▁ᏱᏚᎾ	-10.6699
▁ᏓᏥᏲ	-10.6699
ᎶᏄᎮᏍᎩ	-10.6701
▁ᏧᎾᏚᎪᏓᏁ	-10.6702
▁ᎠᎵᏍᏓᏴᏗᏱ	-10.6703
ᏓᏅᏓᏗᏍᏗᏍᎩ	-10.6704
▁ᎠᏂᏙᎾᎥᎩ	-10.6704
▁ᎠᏔᎴᏒᎢ	-10.6713
▁ᎤᏌᎯᎸᎢ	-10.6713
▁ᎤᏲᎱᏎᎢ	-10.6713
ᎪᎡ	-10.6717
▁ᎨᎳᏍᏗᏱ	-10.6726
▁ᏌᏉᎯᏳ	-10.6729
ᎵᏰᎢᎶ	-10.6733
ᏌᎶ	-10.6735
▁ᎦᏬᏂᏍᎬᎩ	-10.674
▁ᎨᎸᎩ	-10.6742
ᏂᏙᎲᎢ	-10.6747
▁ᎠᎦᏔᎯ	-10.675
▁ᏚᏁᎴᎢ	-10.6751
▁ᏓᏅᏅ	-10.6753
▁ᏗᎦᎨ	-10.6755
▁ᏥᏕᎭ	-10.6756
ᏍᏓᏩᏕᏅ	-10.6757
▁ᎠᏍᎦᏅᏨᎢ	-10.676
ᏙᎴᎰᏍᎦ	-10.6765
▁ᏱᏗᏗ	-10.6767
▁ᏗᏥᏰᎸᎢ	-10.6768
ᎬᏩᏪᏎ	-10.6775
ᏄᏬᎥ	-10.6776
▁ᎠᎾᎵᎮᎵᎬ	-10.6776
ᏛᏍᎪᎢ	-10.6785
▁ᎤᏂᏁᏨᎩ	-10.6788
ᎨᎾᏂ	-10.6792
▁ᎤᏰᎸᏅᎩ	-10.6792
▁ᏣᏍᏆ	-10.6794
▁ᎦᏓᏅᏖᏍᎬᎢ	-10.6795
▁ᎤᏄᎪᏤᎢ	-10.6796
▁ᏚᏅᏎᎢ	-10.6796
ᏍᎦᏯ	-10.6813
▁ᎤᏂᎲᎢ	-10.6822
▁ᎠᏓᎪᎵᏰᏍ	-10.6823
▁ᎾᏥᎸᏉ	-10.6828
▁ᏗᎦᏥ	-10.6829
ᏛᎿ	-10.683
▁ᎤᎵᏂᎩᏛᏯ	-10.683
▁ᎤᎦᏙᎥ	-10.683
ᎳᏍᏓᎡ	-10.684
▁ᎠᎦᏛᏅ	-10.6842
▁ᎾᏍ	-10.6843
▁ᎢᏢ	-10.6847
ᏄᏪᏒ	-10.6849
ᏆᏕ	-10.685
ᏍᏕᎾ	-10.6857
▁ᏱᏂᏥᏪ	-10.6865
▁ᏚᏂᎬ	-10.6872
▁ᎤᏂᏲᎭ	-10.6884
▁ᎢᏥᎲᎢ	-10.6885
▁ᎤᏪᎾ	-10.689
ᏓᏅᏖᏛ	-10.6893
ᏥᏁᏤ	-10.6894
▁ᏕᏣᏙᎥᎢ	-10.6907
▁ᏕᏥᎸᏫᏍᏓᏁᎲᎢ	-10.6911
ᎸᏫᏍᏓᏁᎰᎢ	-10.6916
▁ᏚᎧᎿᏅᏃ	-10.6917
▁ᏂᏚᎩᏨᏂᏒᎢ	-10.6935
ᏗᎦᏔᎭ	-10.6945
▁ᎯᏍᎩᏁ	-10.6948
▁ᎠᎩᏍᎩ	-10.6948
▁ᏚᎴᏅᎩ	-10.6951
▁ᎡᏥᏁᎸ	-10.696
▁ᏓᎩᎸᏫᏍᏓᏁ	-10.6965
▁ᏧᏁᏤᎴ	-10.6966
▁ᎤᎧᎵᎸ	-10.6967
▁ᎤᎵᏍᏗ	-10.6972
▁ᎤᏂᏣᏖᏰᏃ	-10.6977
ᏂᏨᏁᏍᏗ	-10.6985
▁ᏧᎵᎢ	-10.6989
▁ᏚᏁᏤᎴᎢ	-10.6991
ᏗᎧᏃ	-10.7002
ᏓᏗᏍᏗ	-10.7004
▁ᏯᏂᎦᏔ	-10.7028
▁ᎬᎪᏩᏛᏗ	-10.704
ᎦᎵᏱ	-10.7041
▁ᎤᏅᏏᏛ	-10.7042
▁ᎢᏓᏓ	-10.7046
ᏓᏬᏍ	-10.7053
▁ᎡᎳᏪᏱᏉ	-10.7057
ᎾᏄᎪᏫᏎᎵ	-10.7059
ᎸᏌᏛ	-10.7073
▁ᏚᏄᎪᏔ	-10.7076
▁ᎢᎦᏛᏍᎩᏂ	-10.7081
▁ᎤᎷᏨᎯ	-10.7096
▁ᎤᏃᏴ	-10.7102
▁ᏓᏓᎿᏩᏍᏛᎢ	-10.7105
▁ᎤᏪᎯ	-10.7109
▁ᏂᏍᏋᏁ	-10.7118
▁ᏥᎦᏙ	-10.7122
ᎯᏍᏗᏳ	-10.7125
ᏓᎪᎾᏛ	-10.7129
▁ᎦᎨᏥᏁ	-10.7141
ᏔᎵ	-10.7152
▁ᎦᎪᏗᏱ	-10.7161
▁ᏥᏂᎦ	-10.7164
ᎪᎲᏍᎬ	-10.7169
ᎳᏏᏕᏂ	-10.717
▁ᏕᏅ	-10.7172
ᏓᏛᏁᎸ	-10.7175
▁ᏕᏥᎸᏫᏍᏓᏁ	-10.7179
▁ᏨᏛ	-10.7181
ᏛᏅᎢᏍᏔᏁ	-10.7185
▁ᎥᎩᏙ	-10.719
▁ᏧᏪᏰ	-10.7199
ᏙᎳᏍ	-10.7221
ᏓᏁᎮ	-10.7223
▁ᎬᏗᏍᎬᎩ	-10.7223
ᏦᎯᏳᎲᏍᎦ	-10.7227
▁ᎠᎪᏩᏘᏍᎬ	-10.723
ᏓᏁᎸᎩ	-10.7232
▁ᎠᎩᏰᎸᏅ	-10.7245
▁ᏎᎵ	-10.7249
▁ᏚᏓᏂᎸᏤ	-10.7253
▁ᎢᏒ	-10.727
▁ᎠᎩᎨᏳᎯ	-10.7278
ᏪᎵᏎᎢ	-10.7278
ᏥᏌᎳᏙᏗ	-10.7296
ᏢᏉᏙᏗ	-10.7302
ᏓᏁᎶ	-10.7367
ᏛᏓᏍᏓᏁᎮᏍᏗ	-10.7383
ᏇᎵᏎ	-10.7401
▁ᏗᏂᏅ	-10.7405
▁ᎡᎩᏁᎸ	-10.7431
ᎯᏍᏗᏍᎨᏍᏗ	-10.7437
▁ᏂᎪᎯ	-10.7464
ᎾᏚᎦ	-10.7476
ᏥᎷᏤ	-10.7478
▁ᎠᏆᏓᏅ	-10.749
ᏲᏍᏔᏅ	-10.7497
ᏤᎰ	-10.7507
▁ᎤᏂᎧᎵᏨ	-10.7507
▁ᎡᏣᎸ	-10.7515
ᏅᏗᏍᎪ	-10.7515
ᏗᎨᎳᏍᏙᏗ	-10.7547
▁ᎾᏥᏪᏎᎸ	-10.7549
ᏂᏍᎦᎩ	-10.7557
▁ᎤᏓᏁᏟᏴ	-10.756
ᏥᎷ	-10.7564
▁ᏧᎶᏎ	-10.7566
▁ᎡᏥᎸᏉ	-10.7572
ᏭᏢ	-10.759
▁ᎢᏨᏯ	-10.7607
▁ᏓᏳᏁ	-10.7615
ᎩᎧᎿᏩᏛᏍᏗ	-10.7615
ᏗᎹ	-10.7616
ᎳᏍᏓ	-10.7623
▁ᏤᎳ	-10.7666
ᎵᏍᏕᎸ	-10.768
ᎾᏛᏁᎢ	-10.7684
ᏛᏁᎮᏍᏗ	-10.77
ᏓᏅᏖᏍᎪ	-10.7712
▁ᎤᏂᏰᎸᏎ	-10.7727
▁ᎠᎩᏰᎸ	-10.7791
ᏐᏢᎢᏍᏗᎭ	-10.7807
ᏨᏃᏛ	-10.7814
▁ᎤᏒᎢ	-10.7834
▁ᎬᏩᎵᎪᏁ	-10.7839
ᏠᏱᎭ	-10.7848
▁ᎤᏓᏰ	-10.7863
ᎸᏉᏕᏍᏗ	-10.7879
▁ᏚᎸᏫᏍᏓᏁ	-10.7879
▁ᎤᎵᏰ	-10.7894
ᎾᏠᏱ	-10.7901
ᏁᏟᏴᏎ	-10.7902
ᎪᏫᏒ	-10.7904
▁ᏭᎷᏤᎸ	-10.7914
ᎦᏄᎪᏫᏍᎦ	-10.7914
ᏂᏬᏂᎭ	-10.7922
ᏎᎲᎢ	-10.7934
ᎦᏌᏯᏍᏗᏕᎩ	-10.7934
ᏙᎯᏳᎭ	-10.7952
▁ᎢᎶ	-10.7954
▁ᏄᎵᏍᏓᏁ	-10.7979
▁ᏳᎾᏚᎵ	-10.8031
▁ᏃᏒ	-10.8063
▁ᎯᏴ	-10.8063
ᎳᏍᏔᏁ	-10.8066
ᎣᎨᏅ	-10.8112
ᏄᎪᏫᏍᎦ	-10.8133
▁ᎨᏥᏯᏅ	-10.8139
ᏣᏓᏱᎸ	-10.814
▁ᏂᏕᎬᏁ	-10.8157
▁ᎠᏐᏢᎢᏍᏙᏗ	-10.816
ᎵᏍᎪᎸᏓᏁᎴ	-10.8162
ᏅᏍᏙᏗᏱ	-10.8162
ᎦᎵᏍᎪ	-10.8166
ᎬᎪᏩᏛᏗ	-10.8166
▁ᎢᏥᎧᎵᎢ	-10.8171
ᎶᎨᏒᎢ	-10.8178
▁ᎬᏩᏍᏛᏗᏍ	-10.8182
ᏂᎾᏗᏅᏎ	-10.8196
ᎦᏬᏂᎯᏍᏗ	-10.8223
ᏬᎥᎯ	-10.825
▁ᎤᏖᎸ	-10.8267
▁ᎤᏩᏂ	-10.8274
▁ᎢᏳᏪᏍᏗ	-10.8302
ᏨᏲᏎ	-10.8346
ᏥᏃᏍᏛ	-10.8346
ᏩᏗᏙᎯ	-10.8378
ᏥᏴᏔᏂ	-10.8403
ᏣᏅᏓᏗᏍ	-10.8412
▁ᎠᏲᏍᏗᏍ	-10.8422
ᎷᎯᏍᏓᏁ	-10.8431
ᏁᏤᎭ	-10.8449
ᏂᎷᎩ	-10.8455
ᏯᏛᏁᏗᏱ	-10.8456
ᎳᏂ	-10.8463
ᎴᏔᏂ	-10.8464
ᏐᏅᎢᏍᏔᏅᎯ	-10.847
ᎾᏄᎪᏨᎯ	-10.8483
ᏁᏉᏤ	-10.8505
▁ᏧᎾᏓᏡ	-10.8519
ᏣᎵᏍᏓᏴ	-10.852
▁ᎢᏦᎯᏳᎲ	-10.8548
ᏨᏁᎸ	-10.8549
▁ᏂᏨᏪᏎ	-10.8551
ᎩᏍᏓᏩᏕ	-10.8589
▁ᏕᎨᏥᏰ	-10.863
ᎪᏑᎴ	-10.8648
ᎵᏰᏍ	-10.8652
▁ᏓᎨᏥ	-10.8659
ᏓᏱᎵ	-10.8661
▁ᎬᏩᏃᎯᏳ	-10.8668
ᏛᎿᏕᎬᎢ	-10.8682
ᏓᏅᏘᏐ	-10.8686
▁ᎤᏄᏪ	-10.87
▁ᎣᏨᏗ	-10.8707
▁ᎠᏍᏓᏱᏗᏍ	-10.871
ᏙᎵᏨᎯ	-10.8712
ᎵᎻ	-10.8714
ᎪᎵᏰᏍᎬᎢ	-10.8716
ᏥᎩᎡᏗ	-10.8717
▁ᎾᏅᏁ	-10.8724
ᎤᏂᏴ	-10.8725
ᎥᏍᎪᎢ	-10.8728
ᏁᏙᎲ	-10.8729
ᏂᏴᎯᎯ	-10.8765
ᎵᏫ	-10.8767
▁ᎤᎵᏍᏆ	-10.8776
▁ᎡᏙᎲ	-10.8786
ᏂᎬᎬᎢ	-10.8797
▁ᏱᏂᏣ	-10.8799
ᎩᏂᏴᏗᏱ	-10.8801
ᎤᏂᎶᏒ	-10.8805
▁ᎠᏙᎴᎰ	-10.8845
▁ᎤᏃᎯᏳᏅ	-10.8852
▁ᏙᏓᎦᏅ	-10.8856
▁ᏕᎤᎸᏫᏍᏓᏁᎲ	-10.886
▁ᏚᏓᏘᎿᎥ	-10.886
▁ᏂᎦᎵᏍᏗᏍᎪ	-10.886
▁ᏓᎾᎵᏍᏓᏴᎲᏍᎬ	-10.8863
ᎪᎵᏰᏍᎨ	-10.8864
▁ᏚᏂᏂᏴ	-10.8866
▁ᏕᏣᎸᏫᏍᏓᏁᎲ	-10.8868
▁ᎤᎿᎥ	-10.8868
▁ᏚᏪᏲᏁ	-10.8868
▁ᏗᏥᎦᏴᎵᎨ	-10.8872
▁ᎤᏛᏗᏕ	-10.8876
▁ᏧᏂᎦᏴᎵᎨ	-10.8877
▁ᎤᏪᏙᎴ	-10.8877
ᏙᎥᎯᏍᏗ	-10.8878
▁ᏚᏩᏂᎦᎸ	-10.8881
▁ᎦᏓᏙᎵᏍᏗᏍᎬ	-10.8887
▁ᎠᏇᎵᏒ	-10.8897
▁ᏂᏕᎦᏪᏎ	-10.89
▁ᎾᏂᏪ	-10.8902
▁ᏬᎩᎷᏨ	-10.8903
ᎵᎷᎬ	-10.8904
▁ᎾᎩᏪᏒ	-10.8905
ᏁᏉᎡᏗ	-10.8906
▁ᏅᏓᎦᎵᏍᏙᏗᏍᎬ	-10.8906
▁ᎬᏍᎦ	-10.8907
ᏣᎵᎮᎵᎦ	-10.8909
ᏄᎵ	-10.8909
ᏁᎫᏥᏛ	-10.8911
ᎪᏢᏔᏅᎯ	-10.8913
ᎦᏌᏯᏍᏔᏅ	-10.8916
ᎵᏰᏗ	-10.8918
ᏁᏢᏔᏅᎯ	-10.892
ᎩᎵᏲᏨ	-10.8927
▁ᏅᎵᏌᎵ	-10.8928
ᎸᏫᏍᏓᏁᎴ	-10.8928
ᏬᏂᏍᎬ	-10.8931
ᎢᏧᎳᎭ	-10.8935
ᎧᏃᎮᏛ	-10.8935
ᎦᎸᎳᏗ	-10.8935
▁ᎤᏬᎯᏳᎯ	-10.8936
ᎬᏬᏎ	-10.8939
ᎧᎿᏅᎩ	-10.894
▁ᎪᎦ	-10.8943
ᏔᎷᎩᏍᎩ	-10.8947
ᎵᎮᎵᏍᏗᏱ	-10.8952
ᏥᏁᎦ	-10.8952
ᎵᏍᎪᎸᏓᏏ	-10.8953
▁ᏗᎬᏩᎸᏌ	-10.8953
ᏗᎦᏚᎲ	-10.8954
ᏍᎦᏎᏗ	-10.8954
ᏟᏐᏗ	-10.8955
ᏥᏙᏁ	-10.8956
ᎦᏍᎦᏂ	-10.8957
▁ᎦᎵᎡᎵ	-10.8957
ᎠᏓᏅᏙ	-10.8959
ᏥᏲᏍᏙᏓᏁ	-10.8959
▁ᎢᏳᏅᏁᏗ	-10.8962
▁ᏗᏥᎸᏫᏍᏓᏁ	-10.8964
ᏍᎦᎢᎮ	-10.8967
ᎦᏓᎢᏅ	-10.8972
ᏠᎯᏍᏛ	-10.8972
ᏓᏆᎧᎾᏅᎩ	-10.8974
ᏩᏘᏍᎬ	-10.8974
ᏂᏪᏒᎩ	-10.8976
▁ᎦᏙᎴᎣ	-10.8976
ᏗᏔᎯ	-10.8979
ᏩᏘᏍᎩ	-10.8979
ᏂᏆᏘᎭ	-10.8979
▁ᎢᏥᏁᏉ	-10.898
ᏲᎤᎵ	-10.8981
ᏁᏍᎨᎲᎯ	-10.8981
ᎪᎱᏍᏗ	-10.8981
ᏕᏙᎭ	-10.8982
ᏚᎸᏅᎥᏍᎬ	-10.8982
▁ᎠᏆᎴᏂᏙᎸ	-10.8983
▁ᎠᏥᏂᏌᏅ	-10.8983
▁ᎤᏕᏯᏔᏁᎴ	-10.8983
ᎦᏨᏩᏍᏙᏗᏱ	-10.8983
ᎬᏇᎯᏍᏗᎭ	-10.8983
ᎿᎸᏍᏗᏍᎨᏍᏗ	-10.8983
ᏍᎦᏰᎬᏍᏓ	-10.8983
ᏍᏚᎢᎡᎸ	-10.8983
ᏓᎾᏕᏒᎲᏍᎪᎢ	-10.8983
ᏗᎦᏔᏫᎢᏍᏗᏱ	-10.8983
ᏜᏅᏓᏕᏗᏱ	-10.8983
▁ᎠᎦᏙᎥᎯᏍᏙᏗ	-10.8983
▁ᎠᎾᏓᎾᏏᏂᏙᎯ	-10.8983
▁ᎠᏂᎦᏲᎵᏳ	-10.8983
▁ᎠᏂᏏᎾᏌᏂ	-10.8983
▁ᎠᏆᏒᏂᎦ	-10.8983
▁ᎠᏆᏓᏅᏔᏩᏕ	-10.8983
▁ᎡᏣᎵᎡᎵᏤᎮᏍᏗ	-10.8983
▁ᎢᏍᎪᏂᏗᏢ	-10.8983
▁ᎢᏨᏰᎳᏗᏙᎸ	-10.8983
▁ᎢᏳᏂᏪᏍᏗᏱ	-10.8983
▁ᎤᎦᏑᎲᎢ	-10.8983
▁ᎤᎾᎵᏍᏓᏴᏃᏅ	-10.8983
▁ᎤᏂᏆᏘᏍᏗ	-10.8983
▁ᎤᏎᎦᏨᎯ	-10.8983
▁ᎤᏕᏘᏴᏌᏗᏒ	-10.8983
▁ᎤᏪᏙᎵᏤᎢ	-10.8983
▁ᎤᏪᏲᏓᏛ	-10.8983
▁ᎥᏖᎣᎩ	-10.8983
▁ᎦᏬᏂᏍᎩ	-10.8983
▁ᎪᎶᏁᏛ	-10.8983
▁ᎾᏂᎦᏔᎾᎥᎾ	-10.8983
▁ᎾᏑᏴᎾ	-10.8983
▁ᏁᏍᏗᏪᏎᎸᎭ	-10.8983
▁ᏂᎦᎷᎶᎬᎾ	-10.8983
▁ᏂᏓᏙᏓᏈᏒ	-10.8983
▁ᏂᏙᏓᎦᏪᏎᎵ	-10.8983
▁ᏂᏚᎾᏑᎴᎲᎾ	-10.8983
▁ᏄᏃᎯᏳᏅᎾ	-10.8983
▁ᏆᎻᏈᎵᏱ	-10.8983
▁ᏍᎩᏯᏛᎦᏁᎸᎯ	-10.8983
▁ᏍᎪᏂᏗᏢ	-10.8983
▁ᏏᎻᏯᏂ	-10.8983
▁ᏕᏣᎸᏫᏍᏓᏁᎸ	-10.8983
▁ᏗᏂᎦᏘᎴᎩ	-10.8983
▁ᏗᏍᏇᏲᎲᏍᎩ	-10.8983
▁ᏗᏓᏂᏱᏍᎩ	-10.8983
▁ᏙᏓᏥᏲᎱᏏ	-10.8983
▁ᏚᏅᎵᏰ	-10.8983
▁ᏚᏰᎵᎯᏍᏔᏅ	-10.8983
▁ᏛᏂᎾᏄᎪᏥ	-10.8983
▁ᏣᏗᏫᏍᏓ	-10.8983
▁ᏥᏂᏥᏪᎠ	-10.8983
▁ᏥᏂᏨᏪᏎᎸᎩ	-10.8983
▁ᏥᏓᎾᏕᏲᎲᏍ	-10.8983
▁ᏧᎳᎨᏯᏛᏤᎢ	-10.8983
▁ᏫᎬᏲᏪᎳᏏ	-10.8983
▁ᏫᏴᎨᏥᎷᎩ	-10.8983
▁ᏱᎦᏬᏂᎭ	-10.8983
▁ᏱᎾᎦᏪ	-10.8983
▁ᏱᏓᎴᏂᏙᎭ	-10.8983
▁ᏱᏗᏣᏰᎸᏁᎢ	-10.8983
▁ᏱᏦᎯᏳᎲᎦ	-10.8983
▁ᏱᏫᏣᏴᎸ	-10.8983
ᎳᎨᏯᏛ	-10.8983
ᏥᏥᏃᎯᏍᏓ	-10.8983
▁ᎠᎵᏰᎢᎶᎸᎭ	-10.8983
▁ᎢᎬᏩᏛᏛᏁ	-10.8983
▁ᎢᏥᏔᏲᏍᏗᏍᎨᏍᏗ	-10.8983
▁ᎣᏥᎩᎵᏲᎬ	-10.8983
▁ᎤᎾᎵᏥᏙᏅ	-10.8983
▁ᎤᎾᏓᏅᏔᏩᏕ	-10.8983
▁ᎤᏁᎳᏗᏙᎲ	-10.8983
▁ᎤᏂᏲᏠᎯᏎᎸ	-10.8983
▁ᎤᏕᏯᏔᏁᎸ	-10.8983
▁ᎤᏗᏌᏓᏛ	-10.8983
▁ᎯᏍᏆᎵᏍᎨᏍᏗ	-10.8983
▁ᏅᏓᏳᎾᏓᎴᏅᎯ	-10.8983
▁ᏅᏥᏪᏎᎸᎩ	-10.8983
▁ᏓᎦᎾᏄᎪᏥ	-10.8983
▁ᏕᎦᏕᏲᎲᏍᎬ	-10.8983
▁ᏕᎬᏩᏠᏎᎢ	-10.8983
▁ᏚᏚᎪᏔᏅ	-10.8983
▁ᏥᏁᏣᏛᏁ	-10.8983
▁ᏫᎨᏣᏲᎵ	-10.8983
▁ᏱᎡᏦᎢᏳ	-10.8983
▁ᏳᏬᎵᏤ	-10.8983
ᎨᏣᏓᏑᏴ	-10.8983
ᏔᏲᎯᎲᎢ	-10.8983
ᏛᏂᏗᏍᏕᏍᏗ	-10.8983
ᏩᏛᎱᎦ	-10.8983
▁ᎠᎵᏍᏆᏛᎭ	-10.8983
▁ᎠᏩᏘᏍᎪ	-10.8983
▁ᎠᏲᏓᏝᎲᎢ	-10.8983
▁ᎢᎤᏁᏅ	-10.8983
▁ᎢᏣᏗᏔᏍᎨᏍᏗ	-10.8983
▁ᎢᏥᏇᏓᎸ	-10.8983
▁ᎤᎧᏲᏛ	-10.8983
▁ᎤᏓᏂᎵᎨ	-10.8983
▁ᎨᏥᎩᎵᏲᎢᏍᏙᏗᏱ	-10.8983
▁ᎪᎹᎵ	-10.8983
▁ᏂᏚᏂᏪᏎᎸᎩ	-10.8983
▁ᏌᎶᎻ	-10.8983
▁ᏓᏆᎴᎷ	-10.8983
▁ᏕᎨᎦᏬᏍ	-10.8983
▁ᏗᎫᎪᏗᏱ	-10.8983
▁ᏚᏬᏑᎴ	-10.8983
▁ᏧᎬᏩᎳᏅᎯ	-10.8983
▁ᏩᏥᏯᏅᏗᏱ	-10.8983
▁ᏱᏦᎵᎦ	-10.8983
▁ᏱᏨᏰᎵᏎᎭ	-10.8983
▁ᎡᏓᎵᏍᎦᏍᏙᏛ	-10.8983
▁ᎢᎬᏩᎾᏛᏁᏗ	-10.8983
▁ᏗᏓᏙᏪᏙᎥ	-10.8983
▁ᏚᏓᏂᎸᏨ	-10.8983
▁ᏧᏭᏓᎴᏍᏗᏱ	-10.8983
▁ᎤᎵᏍᎪᎸᏓᏁᎸᎩ	-10.8983
▁ᎤᏚᏫᏛ	-10.8983
▁ᏂᏥᏪᎠ	-10.8983
▁ᏥᎾᏂᏪ	-10.8983
▁ᏥᏚᏓᏲᏎ	-10.8983
▁ᎢᏥᏔᏲᎭ	-10.8983
▁ᎤᏩᎾᏓᎴ	-10.8983
▁ᎯᎩᎵᏲᎬ	-10.8983
▁ᏧᎾᏂᏏᏗᏱ	-10.8983
▁ᏫᏂᏨᎦ	-10.8983
▁ᏱᏄᏓᎠ	-10.8983
▁ᎤᏰᎶᎢᏍᏔ	-10.8983
▁ᏓᏳᏄᎪᏨᎩ	-10.8983
▁ᏧᎾᏓᏂᎸᎢᏍᏗᏱ	-10.8983
ᎢᏥᎦᏔᎾᎢ	-10.8983
▁ᏧᏓᏅᏓᏗᏍᏙᏗᏱ	-10.8983
▁ᎤᎾᏞᏒ	-10.8983
▁ᎤᏔᏲᎸ	-10.8983
▁ᏘᎦᏙᎵ	-10.8983
▁ᏙᏗᎾᎵᏍᏓᏴᎲᏍᎬ	-10.8983
▁ᏱᏂᏣᎵᏍᏓᏁ	-10.8983
▁ᏱᏣᏰᎸᏅ	-10.8983
▁ᎬᏩᏕᏁᎴᎢ	-10.8983
▁ᏗᎨᎦᏛᏅᎯ	-10.8983
▁ᏳᏲᎱᏒ	-10.8983
▁ᏕᎩᏂᏴ	-10.8983
▁ᎤᏓᏩᏗᏍᏙᏛ	-10.8983
▁ᎤᏂᏔᎳᏬᏍᎬᎢ	-10.8983
▁ᎦᎷᎪᎢ	-10.8983
▁ᎤᏂᎶᏐᏅ	-10.8983
▁ᎤᏒᏂᎴᎢ	-10.8983
▁ᏙᏗᎧᏂᏍᎬ	-10.8983
▁ᏚᏪᏟᏌᏅ	-10.8983
▁ᎤᏅᏂᏍᏗᏱ	-10.8983
▁ᏥᏦᎯᏳ	-10.8983
ᎩᎵᏲᎨᏍᏗ	-10.8983
▁ᎧᏃᎨᏂ	-10.8983
▁ᏓᏂᏴᎬᎢ	-10.8983
▁ᏗᏂᏙᎬ	-10.8983
▁ᏫᎤᏂᎶᏎ	-10.8983
▁ᎢᏖᎳ	-10.8983
▁ᏄᎾᏛᏁᎴᎢ	-10.8983
▁ᏧᏓᏂᎸᎢᏍᏗᏳ	-10.8983
▁ᎠᎾᏗᏒᎯ	-10.8983
▁ᎡᏦᎯᏳᎲᏍ	-10.8983
▁ᏓᏍᏗᏰᏗᏍᎬ	-10.8983
▁ᎠᏂᏁᎢᏍᏗᏍᎩ	-10.8983
▁ᎠᏢᏈᏍᏗ	-10.8983
▁ᎡᎵᏍᏓᎦ	-10.8983
▁ᏚᎵᏏᎲ	-10.8983
ᎳᏑᎸ	-10.8983
▁ᎢᏣᏛᎩᏍᎬᎢ	-10.8983
▁ᎤᏍᏆᏗᏍᏗᏱ	-10.8983
ᏣᏛᏂᏏ	-10.8983
▁ᎠᏂᏍᏆᏂᎪᏗᏍᎩ	-10.8983
▁ᎠᏍᎩᏓᏍᎬ	-10.8983
ᎵᏂᎬᎦ	-10.8983
ᏬᏂᏍᎪᎢ	-10.8983
▁ᏓᏱᏓᎵ	-10.8983
▁ᎢᏣᎵᏏᎾᎯᏍᏗ	-10.8983
ᏍᏕᎵᏍᎨᏍᏗ	-10.8983
▁ᎤᎾᏓᏛᏅᎯ	-10.8983
▁ᏩᏐᎾ	-10.8983
▁ᏓᎾᏠᏱᎲᎢ	-10.8983
▁ᏧᎵᏏᎬ	-10.8983
▁ᏚᏅᏩᏅᎩ	-10.8983
▁ᎢᏗᏍᎦᎾ	-10.8983
▁ᎬᏩᏂᏴᏗᏱ	-10.8983
▁ᎤᏕᏒᏂᎸᎯ	-10.8983
▁ᏗᏠᎯᏍ	-10.8983
▁ᏓᎦᏘᎴ	-10.8983
▁ᏓᏂᎧᏅᎢ	-10.8983
▁ᏣᏃᎮᎸᎩ	-10.8983
▁ᏳᏰᎸᏅ	-10.8983
▁ᎠᎶᎻ	-10.8983
▁ᏧᏙᏓᏆᏛ	-10.8983
▁ᎠᎩᏫᏯ	-10.8983
▁ᎠᎵᏰᎢ	-10.8983
▁ᏗᎦᎴᏴ	-10.8983
▁ᎣᎩᎾᎵᎪ	-10.8983
▁ᎤᏂᏍᎦᎴᎢ	-10.8983
ᎵᏍᏓᏴᎲᏍᎪᎢ	-10.8983
▁ᎤᏂᏍᏆᏂᎪᏍᎨᎢ	-10.8983
▁ᎥᏇᎵᏎᎸ	-10.8983
▁ᏴᎦᎦᏗ	-10.8983
▁ᎠᏆᎧᏛ	-10.8983
▁ᎦᎶᏐᎲᏍ	-10.8983
▁ᎤᏓᏱᎴᎢ	-10.8983
ᎦᏘᎴᎦ	-10.8983
▁ᎠᎪᏩᏘᏍᎩ	-10.8983
▁ᏥᏕᏣᎸᏫᏍᏓᏁᎭ	-10.8983
▁ᎢᏦᎯᏳᏅ	-10.8983
▁ᏥᎣᎵ	-10.8983
▁ᎢᏦᎵᎩ	-10.8983
▁ᎤᏣᎢᏒ	-10.8983
▁ᏍᎩᏯᏅᏓᏗᏍᎨᏍᏗ	-10.8983
ᏏᏏᏍᎩ	-10.8983
▁ᎤᏍᏘᏰᎬ	-10.8983
▁ᏂᏦᎯᏳᎲᏍᎬᎾ	-10.8983
▁ᏥᎦᎷᎪ	-10.8983
ᏛᏛᎲᎦ	-10.8983
▁ᎠᎵᏱᎶᎸᎭ	-10.8983
▁ᏗᎾᏓᏙᎵᏍᏓᏁᎯ	-10.8983
▁ᎦᏁᎵᏛ	-10.8983
▁ᏓᎾᏗᏔᏍᎨ	-10.8983
▁ᏚᎾᏚᏫᏍ	-10.8983
▁ᏱᏂᎬᏩᏍᏗᏉ	-10.8983
▁ᎠᏫᏒᏗᏱ	-10.8983
ᏧᎵᏍᏙᏔᏅ	-10.8983
▁ᎥᏆᏬᏍᏙᏗ	-10.8983
ᏨᏗᎦᏚᎭ	-10.8983
▁ᎬᏩᏓᏡᏫᏍᏔ	-10.8983
▁ᎢᎤᏪᏅ	-10.8984
▁ᏫᎬᏩᏘᏅᏍᏔ	-10.8984
▁ᏣᏍᎦᎸᎩ	-10.8984
▁ᎡᏤᎾ	-10.8984
▁ᏕᎯᏁᏤᎮᏍᏗ	-10.8984
▁ᎮᏙᎲ	-10.8984
ᏓᏅᎡᎴ	-10.8984
▁ᏙᏓᏳᏲᏏ	-10.8984
ᏢᏈᏍᏙᏗ	-10.8984
▁ᎤᏔᎳ	-10.8984
▁ᎦᏁᏥᎢ	-10.8984
▁ᎤᎦᏛᎾᏨᎯ	-10.8984
ᎬᏲᏪᎳᏁ	-10.8984
▁ᏗᎬᏩᏂᏐᏢ	-10.8984
▁ᎢᏣᏄᏬᏍᏕᏍᏗ	-10.8984
▁ᎤᏍᏓᏩᏛᏎᎢ	-10.8984
ᏬᏁᏗᏍᎪ	-10.8984
ᏃᏪᎳᏅᎯ	-10.8984
▁ᏍᏆᏛᎦᏁ	-10.8984
ᏋᏕᏨ	-10.8984
▁ᏫᏨᏲᎵ	-10.8984
▁ᎤᏦᏍᏗ	-10.8984
▁ᎤᎵᏏᎾᎯᏍᏗ	-10.8984
▁ᎤᏂᏰᎸᎯ	-10.8984
▁ᎡᏓᏓᏙᎵᏍᏓᏁ	-10.8984
▁ᏓᏠᏱᎲ	-10.8984
▁ᏗᎧᏁᎬ	-10.8984
▁ᎠᏛᎩᏍᎩ	-10.8984
▁ᎠᏖᎵᏙᎩᎯ	-10.8984
▁ᎧᏃᏍᎦ	-10.8984
▁ᎠᏁᎵᏍᎨᎢ	-10.8984
▁ᎤᏂᏃᎮᏗ	-10.8985
▁ᏗᏣᏓᎵᎢ	-10.8985
▁ᎨᎵᏌᏕ	-10.8985
▁ᏤᎿᎠ	-10.8985
▁ᎢᏥᏙᎾ	-10.8985
ᏟᏴᎡ	-10.8985
▁ᏓᏂᏙᎨ	-10.8985
ᏍᏓᏱᏗᏍᏗᏱ	-10.8985
▁ᏗᎦᏃᏙᏗᏱ	-10.8985
ᏍᎩᏰᎵᏎᎮᏍᏗ	-10.8985
▁ᎦᎬᏩᏐᏢᏕᎢ	-10.8985
▁ᏂᏣᏛᏁᎰ	-10.8985
▁ᏓᏘᏁᎲ	-10.8985
ᏂᏅᎪᎠ	-10.8985
▁ᏥᏍᎦᏅᏤᎸ	-10.8985
▁ᎢᏥᎷᎩ	-10.8985
▁ᎢᏣᏓᏅᏓᏓ	-10.8985
ᎠᎹ	-10.8985
▁ᏅᏓᏳᎵᏍᎪᎸᏔᏅᎯ	-10.8985
▁ᏕᏣᎧᎿᏩᏗᏙᎮᏍᏗ	-10.8985
ᎵᏍᏓᏱᏗᏍ	-10.8986
▁ᏁᏪᏎᎴᎢ	-10.8986
▁ᏨᏓᏯᎢ	-10.8986
▁ᏗᎬᏩᏂᏯᎢ	-10.8986
▁ᏧᏬᏢᏅᎯ	-10.8986
▁ᎤᏍᏗᏰᏔᏁ	-10.8986
▁ᎤᏥᎸᏒ	-10.8986
▁ᏄᎾᏓᏛᎩ	-10.8986
▁ᎡᏣᏁᏍᎨᎲᎯ	-10.8986
▁ᏧᎾᏓᏅᏬᏗᏱ	-10.8986
▁ᏂᎬᏩᏂᏪᏎ	-10.8986
▁ᏚᎧᎿᏁ	-10.8986
▁ᎿᏛᎦ	-10.8986
▁ᏓᎾᎴᎯᏌᏅ	-10.8986
▁ᏚᏬᎡᎢ	-10.8986
▁ᎤᏁᎳᏗᏍᏗᏱ	-10.8986
▁ᎤᏗᏩᏒᎯ	-10.8986
▁ᎢᏳᏏᏗ	-10.8986
▁ᎢᏓᎴᏂᏙ	-10.8986
ᏴᎩᏅᎯ	-10.8987
ᏯᏛᏂᏏ	-10.8987
▁ᎤᎵᏍᏕᏍᏔ	-10.8987
▁ᏧᏓᎴᏅᎲ	-10.8987
ᎱᎶᏗ	-10.8987
▁ᎤᏬᏢᏅᏅ	-10.8987
▁ᏁᎵᏍᎬᎾ	-10.8987
▁ᎤᏓᏅᏙᎩᎯ	-10.8987
▁ᏧᏌᎴᏅ	-10.8987
▁ᏗᎨᏥᏲᎯᏎᎸᎯ	-10.8987
▁ᏅᏓᏳᎶᎯᏍᏗᏱ	-10.8987
▁ᎣᏤᎲ	-10.8987
ᎦᎾᏏᏍᎩ	-10.8988
▁ᏓᏂᏍᎦᎢᎮ	-10.8988
▁ᏧᏂᎦᏐᎠ	-10.8988
▁ᎥᎩᏅᏟ	-10.8988
▁ᏄᎾᎵᏍᏔᏅ	-10.8988
▁ᏓᏰᏥᎪᎢ	-10.8988
▁ᎤᎵᏖᎸᏅᎩ	-10.8988
ᏘᎿᏫᏛᎲᎩ	-10.8988
▁ᎣᎦᏚᎵᏍᎬ	-10.8988
▁ᎠᏯᏙᎵ	-10.8988
▁ᎤᎾᎵᏃᎯᏴᎯ	-10.8988
ᎦᏓᎢᏅᏒᎩ	-10.8989
▁ᏧᏭᏓ	-10.8989
▁ᎤᎵᏖᎸᏁᎢ	-10.8989
▁ᎬᏩᏛᎦᏁᎸ	-10.8989
▁ᎾᏉᎯᏳ	-10.8989
▁ᎬᎩᏁᏤᎸᎯ	-10.8989
▁ᎦᏙᎴᎣᏍᎦ	-10.8989
▁ᎢᏨᏁᏤᎭ	-10.8989
▁ᏧᏙᏍᏙᏗ	-10.8989
▁ᎢᎬᏩᏍᏗᎭ	-10.8989
▁ᏣᎩᏯᎠ	-10.8989
▁ᏣᏤᎵᎪᎯ	-10.8989
▁ᏧᎬᏩᎴ	-10.899
ᏓᏂᎧᎿᏩᏕ	-10.899
▁ᏕᏛᏅ	-10.899
▁ᏧᏓᎴᏅᎢ	-10.899
▁ᎤᏄᎪᎢᏍᏗ	-10.899
▁ᏕᏨᏗᏍᎨᏍᏗ	-10.899
▁ᏕᏣᏓᎨᏳᏎᏍᏗ	-10.899
▁ᎣᏦᎯᏳᎲᏍᎦ	-10.899
▁ᏂᎦᎾᏰᏍᎬᎾ	-10.899
▁ᎤᏗᏩᏎᎢ	-10.8991
▁ᎾᏂᏪᏍᎨᏍᏗ	-10.8991
▁ᎬᏩᏂᏍᏓᏩᏗᏙᎯ	-10.8991
ᎵᏍᏓᏁᎵᏕᎬ	-10.8991
▁ᎤᎦᏛᎾ	-10.8991
▁ᏂᎦᏪᏍᎪᎢ	-10.8991
▁ᏓᏳᏠᎠᏒᎩ	-10.8991
▁ᏫᏓᏆᎧᎾᏅᎩ	-10.8991
▁ᏕᎦᎧᎲ	-10.8991
▁ᎠᏆᏢᏈᏍᏗᏱ	-10.8991
▁ᎦᏓᎷᏯᏛ	-10.8991
ᏴᎯᎭ	-10.8991
▁ᎤᎾᏁᎳᏗᏍᏗᏱ	-10.8991
▁ᏧᎾᎵᏍᏓᏴᏗᏱ	-10.8991
▁ᎢᏰᏨᏁᏗᏱ	-10.8991
▁ᎦᎵᎭ	-10.8991
▁ᎤᏂᏍᏛᏗᏍ	-10.8991
▁ᎤᏗᏩᏒᎩ	-10.8991
▁ᏗᏂᎯᎯ	-10.8991
ᏓᏂᏰᎲᎩ	-10.8992
▁ᎠᏂᎵᎾ	-10.8992
▁ᏙᏓᏥᏯ	-10.8992
▁ᏂᏚᏛᏁᎸ	-10.8992
▁ᎤᏪᎧᎲ	-10.8992
▁ᏥᏥᎪᏩᏘᎭ	-10.8992
ᏓᏬᏍᏙᏗ	-10.8992
ᎬᏂᏍᏗ	-10.8992
▁ᎢᏗᎬᏁᎸᎯ	-10.8993
ᏙᏥᏩᏛᎲᎩ	-10.8993
▁ᏗᎩᏅᏒ	-10.8993
▁ᏗᏂᎾᏕᎩ	-10.8993
▁ᎤᏓᎪᎵᏰᏗ	-10.8993
▁ᏗᏓᏙᏕᏍᏗᏍᎩ	-10.8993
ᏠᎥᏔ	-10.8993
▁ᏄᎵᏂᎬᎬ	-10.8993
▁ᎠᏥᎸᎨᎳᏍᏗ	-10.8993
ᏏᏗᏒ	-10.8994
▁ᎠᎾᏗᏍᎬᎢ	-10.8994
ᎷᎸᎥᏍ	-10.8994
▁ᎤᏂᏁᎢᏍᏔᏅ	-10.8994
▁ᏂᏍᎦᏅᎾ	-10.8994
▁ᏯᏙᎴᎰᏍᎦ	-10.8994
ᎵᎡᎾ	-10.8994
ᎦᎴᏅᏔ	-10.8995
▁ᎧᏁᎨᎢ	-10.8995
▁ᏌᎻ	-10.8995
▁ᎦᎳᏅᏛ	-10.8995
ᏅᏫᏍᏗ	-10.8995
ᏓᎢᏅᏗᏱ	-10.8995
▁ᎤᎾᏓᏅᏍᏗᏱ	-10.8995
▁ᏚᎷᎬ	-10.8995
▁ᏛᏂᎪᎯ	-10.8995
▁ᎢᏨᏲᏎ	-10.8996
▁ᎤᏪᏓᏍᏗᏱ	-10.8996
▁ᎾᎩᎲᎾ	-10.8996
ᏛᏛᎲᏍᎦ	-10.8996
ᏍᎦᏅᏤᎮᏍᏗ	-10.8996
▁ᎡᏥᎦᏙᎥᏒ	-10.8996
▁ᎨᏣᎵᏍᏕᎸᏙᏗ	-10.8996
▁ᏳᏰᎸᏁ	-10.8997
▁ᎡᎵᏍᎨᎢ	-10.8997
▁ᎡᏦᎢᏳᏗᏱ	-10.8997
▁ᎵᏓ	-10.8997
▁ᎣᎦᏛᏅᎢᏍᏗ	-10.8997
▁ᏧᏘᏲ	-10.8997
▁ᏚᏂᏯᏙ	-10.8997
▁ᎢᏥᏴᏍᏗᏱ	-10.8998
ᏍᎪᏂᎯ	-10.8998
▁ᏄᎵᏍᏓᏁᎸ	-10.8998
▁ᎬᏬᎯᏳᏅᎯ	-10.8998
▁ᎢᎦᎵᏍᏓᏁᏗ	-10.8998
▁ᎠᏂᎩᎵᏲᎬ	-10.8998
▁ᏓᏲᏤ	-10.8999
▁ᎢᏧᏖ	-10.8999
ᎪᎵᏰᏍᎪᎢ	-10.8999
▁ᏥᏥᏯᎠ	-10.8999
▁ᎠᎩᏂᎬᏎᎲ	-10.9
ᏂᏧᏈᏍᏗ	-10.9
ᏃᎵᏤ	-10.9
▁ᏗᏂᎴᏂ	-10.9001
ᏂᏢᏗᏱ	-10.9001
▁ᎤᎾᏓᏅᏒᎩ	-10.9001
▁ᏄᏅᏁᎴᎢ	-10.9001
ᎦᏢᏈ	-10.9001
▁ᎰᎯᏳᎲᏍᎦ	-10.9002
▁ᏱᏥᏩᏘᎭ	-10.9002
ᏂᎦᎵᏍᏗᏍᎨ	-10.9002
ᏃᏣᎶ	-10.9003
▁ᏓᎵᏂᎪᎯᏍᏗᏍ	-10.9003
▁ᎾᏥᏰᎲᎾ	-10.9003
▁ᏣᏰᎸᏅ	-10.9003
▁ᎡᎵᏍᎬᎢ	-10.9003
▁ᏥᎪᎥᎩ	-10.9004
▁ᎣᎾᏫᏱ	-10.9004
▁ᎠᏤᎷᎯ	-10.9004
▁ᏪᏣ	-10.9004
▁ᎬᏩᏄᎯ	-10.9004
▁ᏣᎾᏗᎭ	-10.9005
▁ᏱᏄᏩᏁᎰ	-10.9005
▁ᏚᏂᏚᎲ	-10.9006
▁ᏥᏬᏂᏍᎬ	-10.9006
ᏗᏫᏎᏗ	-10.9006
▁ᏄᏅᏅ	-10.9006
▁ᎠᎩᏁᎫ	-10.9006
▁ᎠᏟᏍᏕ	-10.9007
ᏍᏘᏰ	-10.9007
▁ᎠᎾᎢᏎ	-10.9007
▁ᎠᏔᏲᎯᎮᏍᏗ	-10.9007
▁ᏱᏅᏗᎦᎵᏍᏙᏗᏍᎨᏍᏗ	-10.9007
ᏰᏅᎡ	-10.9008
▁ᎢᏯᏋᏁᏗᏱ	-10.9008
▁ᎣᏥᏃᎮᏍᎩ	-10.9009
▁ᎤᏂᏁᎢᏍᏗᏱ	-10.9009
▁ᎬᏩᏛᏛᏗᏱ	-10.9009
▁ᎬᏍᎦᎵ	-10.901
ᎤᎦᏔ	-10.901
▁ᎠᏂᎩᎾ	-10.901
▁ᎤᎾᏠᎾᏍᏛ	-10.9011
▁ᏥᏄᏍᏛ	-10.9011
▁ᎦᎾᏄᎪᏥᎸᎭ	-10.9012
▁ᎬᏩᏂᏴᎲᎩ	-10.9012
ᏯᏅᎯᎸ	-10.9012
▁ᎣᎩᏅᏏᏓᏍᏗ	-10.9012
▁ᎠᏉᎯᏳᎭ	-10.9012
ᏥᏁᎢᏍᏗᎭ	-10.9012
ᎦᏁᏌᎢ	-10.9012
▁ᏗᏥᏙᏓ	-10.9013
▁ᏗᏕᎶᏆᏍᏗ	-10.9013
▁ᎤᎾᎴᏅᎲ	-10.9014
▁ᏧᏄᎪᏙᏗ	-10.9014
▁ᏗᎪᏍᏓᏯ	-10.9014
ᎦᏢᏆ	-10.9014
▁ᎡᏥᎨᏳᎢ	-10.9014
▁ᏧᏂᎳᏫ	-10.9014
ᏣᏓᏅᏘ	-10.9014
▁ᏗᏂᏁᎯ	-10.9014
ᎦᏔᎲᏍᏗᏱ	-10.9015
▁ᏦᎴᏍᏗ	-10.9015
▁ᎢᎬᏩᏅᏁ	-10.9015
▁ᎾᎾᏛᏁᎮᏍᏗ	-10.9015
ᏁᏙᎴᎢ	-10.9015
▁ᎠᏓᏅᏙᎩᎯ	-10.9016
▁ᎠᏂᎾᏄᎪᏫᏍ	-10.9016
▁ᎬᏩᏛᏛᏅᎩ	-10.9016
ᏘᏂᏒ	-10.9016
▁ᎢᎩᏩᏛᏗᏱ	-10.9016
ᏥᏁᏟᏴᏒ	-10.9016
▁ᏕᏣᏓᏲᎵ	-10.9016
ᎦᎧᎲᏍᎨᏍᏗ	-10.9016
▁ᎠᏆᎫᏴ	-10.9017
▁ᎤᏂᎩᏍᏗᏱ	-10.9017
▁ᏄᎪᎸ	-10.9017
▁ᎠᏆᎵᏍᏕᎸᏙᏗ	-10.9018
▁ᏱᏂᏙ	-10.9018
ᏯᏂᎭ	-10.9018
▁ᎯᏁᎬ	-10.9019
ᏡᏗᏍᎨᏍᏗ	-10.9019
▁ᎤᏔᏕᎩᏍ	-10.9019
▁ᎪᎵᏍᏗᏱ	-10.902
ᏘᏅᏎ	-10.902
▁ᏗᎤᎷᏨ	-10.902
▁ᎮᎾᏉᏍᎩᏂ	-10.902
▁ᎢᏓᎵᎮᎵᎩ	-10.902
▁ᏣᎦᏙᎥᎯᏍᏗᏱ	-10.902
▁ᎠᏥᏯᏅᎲ	-10.902
▁ᏭᏂᏴᎸᎩ	-10.902
▁ᏓᎬᏯ	-10.9021
▁ᎤᎩᎵᏲᎢᏍᏗᏱ	-10.9021
▁ᎡᎳᏂ	-10.9022
▁ᎤᎾᏓᏙᎵᏍᏗ	-10.9022
▁ᏚᏄᎪᏫᏎ	-10.9023
ᏙᎮᎯ	-10.9023
ᎵᏍᏓᏴᏙᏗᏱ	-10.9024
ᏲᏞᎯ	-10.9024
▁ᎤᏂᎬᏫᏳᏌᏕᎩ	-10.9024
ᏍᏚᎩᎡ	-10.9024
▁ᎢᏤᏯᏔ	-10.9024
▁ᏥᏄᏍᏙ	-10.9024
▁ᏣᎵᏍᎦᏍᏙᏗ	-10.9025
▁ᎠᎩᏍᏆᏛ	-10.9025
ᏨᏲᏎᎭ	-10.9025
▁ᎡᏓᏍᏗᏱ	-10.9025
▁ᏴᎨᏍᎩ	-10.9025
ᏕᏘᏴᏛ	-10.9026
▁ᏚᏑᏰᏒ	-10.9026
▁ᎤᎸᏁᎢ	-10.9026
▁ᎠᏲᎱᏍᎨᏍᏗ	-10.9027
ᏂᏏᏍᎨᏍᏗ	-10.9027
▁ᎢᏥᏟᏌ	-10.9027
▁ᎢᎯᏯ	-10.9027
▁ᏚᏂᏲᏎ	-10.9027
▁ᏗᏉᏰᏂ	-10.9028
▁ᎭᏓᏅᎾ	-10.9028
▁ᎤᎾᎵᏎᎢ	-10.9028
▁ᏚᏲᎵᎸ	-10.9029
▁ᎨᎥᎢ	-10.9029
▁ᎠᏥᎸᏉᏙᏗᏱ	-10.9029
▁ᎠᎩᎾᏫᏱ	-10.903
▁ᏣᏫᏎᎢ	-10.903
▁ᏗᎦᏄᎪ	-10.903
▁ᏗᎵᏍᎪᎸᏔᏅᎯ	-10.9031
▁ᎢᏣᏕᏗᏱ	-10.9032
▁ᎤᎾᏄᎪᏫᏍᏗᏱ	-10.9033
▁ᏍᎩᎨᏳᎯᏳ	-10.9035
▁ᎠᎩᏃᎮᏍᎩ	-10.9035
▁ᎠᎵᏍᏓᏴᎲᏍᎬᎢ	-10.9036
▁ᏕᏣᏁᎶᏛᎢ	-10.9036
▁ᏧᏪᏘ	-10.9037
▁ᏫᎬᏩᏴᏔᏁ	-10.9038
ᏓᏎᎪᎩᏍᏗᏱ	-10.904
▁ᏣᏰᎯ	-10.904
▁ᏴᎦᎬ	-10.904
▁ᏧᎾᏛᎾ	-10.904
▁ᎤᏛᏓᏍ	-10.9041
▁ᎤᏁᎫ	-10.9044
▁ᏕᏥᎳᏫᎩ	-10.9044
▁ᏚᎾᎴᏅᎩ	-10.9045
▁ᎠᏂᎦᏔᎯᏳ	-10.9045
ᏓᏘᏁᏗ	-10.9046
▁ᎤᎾᏄᎪᎢᏍᏗᏱ	-10.9047
ᏥᎪᎵᏰᏗᏱ	-10.9047
▁ᏂᎦᏥᏴᏁᎲ	-10.9049
▁ᏫᏯᏅ	-10.905
▁ᏳᎷᏨ	-10.9051
▁ᎤᎾᎵᏍᏓᏴᏅᎯ	-10.9052
▁ᏙᏓᏰ	-10.9052
ᏍᏆᏂᎪᏗᏳ	-10.9053
▁ᎢᏨᏃᏁᎸᎯ	-10.9054
▁ᎤᏪᎲᎢ	-10.9056
ᏓᏴᏍᏕᏍᏗ	-10.9056
▁ᎠᏥᏛᏙᏗ	-10.9059
▁ᏥᏧᏏ	-10.906
▁ᏣᏠᎾᏍᏗ	-10.9061
▁ᏅᏓᏨ	-10.9061
▁ᏚᏁᏒ	-10.9062
▁ᎣᏥᏬᏂᏍᎬ	-10.9062
▁ᎤᏂᎨᏳᎯ	-10.9063
▁ᏥᏍᏆᏯ	-10.9063
▁ᎢᏣᏓᏅᏖᏍᏗ	-10.9065
▁ᏕᎩᎸᏫᏍᏓᏁᎲ	-10.9065
ᏥᏁᎪᎢ	-10.9066
▁ᎨᏥᏰᎸᎯ	-10.9066
▁ᏂᏨᏃᏁ	-10.9067
ᏟᏌᏂ	-10.9067
ᎦᏚᎩᏱ	-10.9068
▁ᏕᎨᎦᎸ	-10.9068
▁ᏁᏣ	-10.9069
▁ᎠᏇᎵᏒᎩ	-10.9069
▁ᏫᏗᏥ	-10.9069
▁ᏂᏣᏛᏁᎲᎾ	-10.907
▁ᏓᏓᏁᎳᏗᏒᎢ	-10.9072
▁ᎢᏨᏁᎢᏍᏗᏍᎬᎢ	-10.9072
▁ᎢᏕᎲᎢ	-10.9072
ᏪᎵᏎᎴᎢ	-10.9075
ᏆᏚᎵᏍᎬ	-10.9075
▁ᏂᎦᏥᏴᏁᎸ	-10.9077
▁ᎤᏃᏴᎬᎢ	-10.9078
▁ᎤᏂᎾᏝᎢ	-10.908
ᎵᏱᎶᎸ	-10.908
▁ᏓᏥᏂ	-10.908
ᎾᏛᎩᏍᎪ	-10.908
▁ᏥᏂᏥ	-10.908
▁ᏗᎪᎦ	-10.9081
▁ᎤᎾᏓᏅᏖᎸᎩ	-10.9082
ᏁᎢᏍᏗᏍᎬ	-10.9082
▁ᎣᎦᏛᎦᏅᎯ	-10.9083
ᎵᏂᎩᏗᏳ	-10.9083
ᏕᎶᏆᎡᎸ	-10.9083
▁ᎠᏍᏓᏱᏗᏍᎩ	-10.9084
▁ᏧᏃᎸ	-10.9085
▁ᎤᏚᏓᎸ	-10.9087
▁ᏓᎩᏲᎯᏎᎸ	-10.9087
ᏥᏅᏏ	-10.9088
▁ᏑᏟᎶᏛᏉ	-10.9089
ᏌᎺᎵ	-10.9089
▁ᏥᎦᎳ	-10.9089
ᏗᎴᎬ	-10.909
▁ᏱᏂᎦᎩ	-10.9091
▁ᎢᏨᏬᏁᏔᏅ	-10.9092
▁ᎤᎧᎵᎢᏍᏗᏱ	-10.9094
▁ᎣᎦᏣᏅᎩ	-10.9094
▁ᎤᏬᏂᏒᎩ	-10.9094
ᎦᎸᏉᏗᏳ	-10.9095
▁ᎤᏬᏎᎴᎢ	-10.9096
▁ᏂᎨᏒ	-10.9097
▁ᎨᏣᏡᏗᏍᎬ	-10.9097
▁ᎾᏕᏘᏴ	-10.9097
ᏓᏂᏙᎦ	-10.91
ᏂᏌᏂ	-10.91
▁ᎤᏓᏥ	-10.9102
▁ᏧᏂᏁᏗᏱ	-10.9103
▁ᎠᎪᎵᏰᏗ	-10.9104
ᏓᏂᎸᎬᎾ	-10.9107
▁ᏚᏩᏂᎦᎸᎢ	-10.9107
▁ᏂᎦᎵᏍᏗᏍᎪᎢ	-10.9107
▁ᏕᎤᎸᏫᏍᏓᏁᎲᎢ	-10.9107
▁ᏚᏓᏘᎿᎥᎢ	-10.9107
▁ᏚᏪᏲᏁᎢ	-10.9107
▁ᏧᏂᎦᏴᎵᎨᎢ	-10.9107
▁ᎤᏪᏙᎴᎢ	-10.9107
▁ᏂᏓᏛᏁᎲ	-10.9109
▁ᏗᎧᎵᎢ	-10.9115
▁ᏙᏓᎸ	-10.9115
▁ᏗᎦᏘᏯ	-10.9115
▁ᎠᏥᏍᏕᎸᏗᏱ	-10.9116
ᏏᎾᏍᏛ	-10.9116
▁ᎠᎢᏒᎩ	-10.9117
ᏕᎤᎷᎬ	-10.9117
▁ᎢᎦᎵᏍᏕᎸᏙᏗ	-10.9119
▁ᎤᏃᎮᎸᎩ	-10.9119
▁ᎻᎳ	-10.912
ᏣᎧᏛ	-10.9122
▁ᎤᏓᎴᏅᎯ	-10.9122
▁ᎤᏢᎬᎩ	-10.9122
ᏕᎬᏲᎯᏏ	-10.9124
▁ᎾᎾᏛᏁᎲᎾ	-10.9125
▁ᏂᎤᏪᏎ	-10.9125
ᏱᎵᏙᎭ	-10.913
ᏘᏃᎴ	-10.9133
▁ᎤᎶᎨᏒᎢ	-10.9137
▁ᏳᏁᎭ	-10.9142
▁ᎢᏥᏰᎸᎭ	-10.9143
▁ᏕᎦᏍᎩᎸᎢ	-10.9143
▁ᏚᏂᏢᎬᎢ	-10.9143
▁ᎢᏥᎦᏔᎲᎢ	-10.9143
▁ᎤᎾᏦ	-10.9144
▁ᏕᎩᎸᏫᏍᏓᏁᎸ	-10.9146
▁ᎤᏂᏴᎲᎩ	-10.9149
▁ᎤᎵᏍᏆᏛ	-10.9149
ᎿᏕᎦ	-10.915
▁ᎤᏂᏃᎮᎸᎩ	-10.9151
▁ᎤᏣᏗ	-10.9153
▁ᏄᏛᏁᎸᎾ	-10.9154
ᏂᎾᏫ	-10.9156
▁ᏙᏓᎸᎢ	-10.9159
ᏕᎪᎢ	-10.9159
▁ᏧᎨᏳᎯᏳ	-10.9164
▁ᎤᎶᏏ	-10.9164
ᏍᏕᎸᎲᎩ	-10.9165
▁ᎧᏃᎮᎭ	-10.9166
▁ᏙᏣᏓ	-10.9176
▁ᏧᏩᏔᏁ	-10.9177
▁ᏓᏳᏂ	-10.9177
▁ᎤᏩᏔᏅᎩ	-10.9181
▁ᎤᎾᏄᎪᏫᏏ	-10.9182
▁ᎤᎬᎭᎷᏴ	-10.9182
▁ᎡᎪᎢ	-10.9186
ᎾᏙᏢ	-10.9192
ᏣᏰᎸᎭ	-10.9193
▁ᎤᏂᎷᏨᎯ	-10.9194
ᎦᎵᏴ	-10.9194
▁ᎤᏂᏲᎮ	-10.9202
▁ᏦᎬ	-10.9214
ᎶᏒᏍᏙᏗᏱ	-10.9216
ᏲᎦᏛᏅ	-10.9218
ᎳᏅᏛ	-10.922
ᏢᏆᏍᏙᏗ	-10.9222
▁ᎠᏞ	-10.9222
▁ᎤᏕᏗ	-10.9223
ᏱᏢᏗ	-10.9231
▁ᎠᎾᎵᏍᏓᏴᏗᏍᎬ	-10.9236
ᎬᏂᏛ	-10.9238
▁ᏣᏚᎵᏍᎬ	-10.9239
ᎦᎫᏴᏓᏁᏗ	-10.9242
▁ᏕᎨᏥᏲ	-10.9243
ᏍᏓᏩᏗᏓᏍᏗᏱ	-10.9244
▁ᎤᏪᏁ	-10.9245
▁ᎢᏯᏓᏛᏁ	-10.9251
▁ᏄᎳ	-10.9251
ᏃᏣᎵ	-10.9253
▁ᏂᏕᎬᏁᎲ	-10.9261
▁ᎡᎳᏪᏉ	-10.9276
▁ᎤᎵᏂ	-10.9279
▁ᏫᏗᎦᏘ	-10.9288
▁ᏣᏓᏡᏗᏍᎪ	-10.9298
▁ᎨᏨ	-10.9301
ᏘᏁᏒᎭ	-10.9308
▁ᏓᏥᏩᏛᎯ	-10.9315
ᎶᎮᏍᏗ	-10.9318
ᏬᎳ	-10.9322
▁ᎢᏐ	-10.9323
▁ᏳᏩ	-10.9334
ᏁᏤᎵ	-10.9338
ᏅᏩᏍᏙᎢ	-10.934
▁ᏱᏚᎵ	-10.9343
ᏙᎲᎾ	-10.9348
▁ᏕᏨᏅ	-10.9351
▁ᏚᏲᏎ	-10.9367
ᎷᏤᎴᎢ	-10.9368
ᏓᏅᏓᏗᏍᏙᏗ	-10.9374
ᏎᎵᏔᏁ	-10.9379
▁ᎤᏢᏨ	-10.9379
ᏓᏙᎵᏍᏓᏁᎭ	-10.938
▁ᏓᎬᎩ	-10.938
ᏄᏪᏒᎩ	-10.9382
▁ᏕᎨᏒ	-10.9385
ᏁᏒᎭ	-10.9389
▁ᏂᏚᏪ	-10.9391
▁ᏳᏂᏰᎸ	-10.9399
ᎤᏅᏩᏁ	-10.9405
ᏓᏙᎵᏍᏓᏏ	-10.9411
ᏴᏔᏁᎢ	-10.9415
▁ᏧᏂᎸᏫᏍᏓᏁ	-10.9419
ᏕᎰᎯᏍᏙᏗᏱ	-10.9421
ᎩᏚᎢᏍᏓᏁᎸ	-10.9424
ᎧᎿᏩᏗᏙᎮᏍᏗ	-10.9436
▁ᏕᏥᏄᎪᏫᏍ	-10.9438
ᏧᏁᎬ	-10.9441
▁ᏦᏥᏩᎾᎦᎳ	-10.9446
▁ᏂᏨᏪᏎᎸ	-10.9467
▁ᎦᏥᏯᎵᏥᏙᏁ	-10.9467
ᏥᏴᏁᎵ	-10.948
▁ᎾᏥᏪᏎᎴ	-10.9481
▁ᎣᏣᎵᏍᎦᏍᏙ	-10.9488
ᏅᏒᎾ	-10.9492
ᏲᎢᏎᎴ	-10.9513
ᏕᎤᎴᏔᏁᎢ	-10.9515
ᎵᏍᏓᏴᎲᏍᎬᎢ	-10.9516
ᎶᎥ	-10.952
ᏬᏢᏁᎢ	-10.9533
▁ᏁᏨᏁ	-10.9536
▁ᏗᏣᏄᏬ	-10.9537
ᏃᎯᎮ	-10.9546
▁ᎠᏆᎵᎮᎵᏍᏗ	-10.9555
ᎦᏖᏃᎲ	-10.9559
▁ᎢᎫ	-10.9564
ᏇᏓᎵ	-10.9573
ᏅᏓᏗᏍᎬ	-10.9586
ᎪᏎᎲᎩ	-10.9586
▁ᎤᏪᏙᎵᏍᏗ	-10.9597
ᎧᎵᎢᏍᏔᏅ	-10.9598
ᏂᏕᎬᏁᎰ	-10.9601
▁ᎢᏦᎵᏍ	-10.9604
ᎩᏲᎱᎯᏍᏗ	-10.9627
▁ᎤᎶᏎ	-10.9635
▁ᎣᏥᏃᎮᏍᎬ	-10.9636
▁ᎠᎩᎾᎥ	-10.9659
▁ᎨᏥᏙᎵᏍᏗ	-10.9661
ᏂᎦᏛᏁᎰᎢ	-10.9665
ᎦᎴᏔᏂ	-10.9673
▁ᏂᏣᏍᏛ	-10.9685
▁ᏥᎦᎧ	-10.9691
ᏄᏛᏁ	-10.9704
▁ᏣᎦᎴ	-10.971
ᏨᏂᎦ	-10.971
ᏴᏔᏅᎩ	-10.9722
▁ᎤᎾᏓᏅᏖᎸ	-10.9727
ᎾᏛᏁᎯ	-10.9773
▁ᏕᏧᎪ	-10.9792
▁ᏗᏣᎵᏂᎪᎯᏍ	-10.9807
▁ᏭᎾᏗᏅ	-10.983
ᏡᏗᏍᎬᎢ	-10.986
ᏓᏕᎵᏎ	-10.9864
ᏣᎢᏒᎢ	-10.9876
ᏨᏰᎳᏗᏙᎭ	-10.9887
▁ᏭᏩ	-10.9905
▁ᎠᏇᏅᏍᏗ	-10.991
ᏗᎧᎿᏩᏗ	-10.992
▁ᎠᏥᏙᎵᏍᏗ	-10.9929
▁ᎠᏓᏍᏕᎵᏍ	-10.9931
ᎩᏯᏅ	-11.0004
ᏥᎾᏰᏍᎬᎢ	-11.0009
ᎫᏓ	-11.0014
ᏓᏨᏁᎵ	-11.0047
▁ᏭᏂᏃᏁ	-11.0061
▁ᎠᏥᏅᏁ	-11.0081
ᎬᏁᎲ	-11.0097
ᏣᎦᏌᏯᏍᏗᏕᎩ	-11.0102
ᏳᏩᏁᎵ	-11.0103
ᎵᎪᏁᎸᎯ	-11.0116
ᏰᏨ	-11.0119
▁ᎠᏃᎯᏳᎲᏍ	-11.0137
ᎦᎸᏍᏗ	-11.0148
ᏎᎵᏙᏗ	-11.0203
▁ᎢᏨᏯᏅᏓᏗᏍ	-11.0221
▁ᎤᏓᏅᎦᎸ	-11.024
ᏁᏢᏙᏗ	-11.0243
▁ᎬᏩᎾᏓ	-11.0279
▁ᎠᏓᏙᎵᏍ	-11.0285
ᏫᏨᏲᏪᎳᏁᎸᎩ	-11.03
ᏗᎦᎸᏉᏗ	-11.0306
▁ᎢᎬᏴ	-11.0309
ᏍᏆᏂᎪᏔᏂ	-11.0318
▁ᎡᏣᏑᏰ	-11.0339
ᎨᏥᏁᏗᏱ	-11.0341
ᏈᏂ	-11.0358
ᎪᏩᏘᏍᎬᎩ	-11.0368
ᏴᏙᏗᏱ	-11.038
▁ᏯᏓᏅᏖ	-11.0392
ᏲᎵᎦ	-11.04
ᏥᏅᏍᏓᏕᎸᎩ	-11.0439
▁ᎢᏥᏰᎸᏒ	-11.045
▁ᎤᏂᎶᏎ	-11.046
▁ᏍᎩᏍᏓᏩᏕ	-11.0467
ᎦᏛᏅ	-11.0469
▁ᏂᎬᏁᎮ	-11.0471
ᏓᏯᏂᏍᎪ	-11.0481
ᏓᏆᏛ	-11.0481
ᎬᏬᎯᏳ	-11.0488
ᏂᎦᎴ	-11.0498
ᏦᏁ	-11.0501
ᏆᏁᎶ	-11.0503
ᏰᎵᎯᏍᏗ	-11.0532
ᏂᏬᏂᎯᏍᏗ	-11.0539
ᏂᏴᎮᎢ	-11.0569
ᎠᎩᎷᏨ	-11.0576
ᎪᏢᎭ	-11.0611
▁ᎣᎩᏍᏛᏗᏍ	-11.0616
▁ᎢᏨᏲᏪᎳᏁ	-11.0726
▁ᏛᎪ	-11.0765
ᏘᏅᏍᏔ	-11.0808
▁ᏕᎬᏕ	-11.0808
▁ᎠᏂᎪᏩᏘᏍ	-11.0836
ᎦᏯᎷᏗ	-11.0873
▁ᏄᏂᎬᏫᏳ	-11.0913
▁ᎤᎾᎵᎪᏎ	-11.0918
▁ᏴᎦᏰ	-11.0923
ᎤᏪᎪᏗᏱ	-11.0928
▁ᏗᏤᎷ	-11.0959
▁ᎬᏩᏃᎵᏍ	-11.097
ᎦᎸᎲᎩ	-11.0986
ᏓᏤᎵᏛ	-11.099
▁ᎠᏂᎪᏩᏘᏍᎨ	-11.1004
ᎬᏩᏂᎪᏩᏛ	-11.1021
▁ᏂᏣᏛᎿᏕ	-11.1023
▁ᎠᎾᏙ	-11.1057
▁ᏣᏍᎦᏅᎪ	-11.1064
ᎠᏗᏒ	-11.111
ᎪᎵᏰᏍᎬᎩ	-11.1111
ᏍᏛᏗᏍᎬᎢ	-11.1116
▁ᏄᎾᎵᏍᏓᏁ	-11.1116
▁ᎤᏢᎨ	-11.1121
ᏗᎦᎶᏗ	-11.1132
▁ᎠᏍᎫᏕ	-11.1145
▁ᏫᏓᏯᏂᏍ	-11.1165
▁ᎠᎾᏡᏗ	-11.1201
ᏁᏙᎮ	-11.1224
ᎩᎧᏁᎸᎯ	-11.1231
ᏍᎦᎳᏁᎸ	-11.1248
ᏕᏯᏙᏗᎭ	-11.126
ᏘᏃᎮᏗᏱ	-11.1265
ᎬᏩᏓᎴ	-11.1266
ᏓᎴᏒ	-11.1266
▁ᎠᏯᎡ	-11.1266
▁ᏕᏧᎪᏗᏍ	-11.1288
ᏜᏗᏍ	-11.1294
ᎠᏎᎵᏛᏍ	-11.1295
ᏘᏍᏓᏁᎯ	-11.1298
ᎪᎾᏛᏔᏅ	-11.1319
ᏓᏙᎵᏍᏓᏁᎯ	-11.1328
ᎵᏈ	-11.1345
ᏲᎱᏒᎯ	-11.1354
▁ᎠᎵᎮᎵᏤ	-11.1374
ᏰᎸᏁ	-11.1387
ᎵᏥᏙᏁᎲᎢ	-11.1399
ᏬᏁᏔᏅᎢ	-11.1401
▁ᏙᎩᎸᏫᏍᏓ	-11.1402
ᏓᏓᏱ	-11.1438
ᏥᎾᏰᏍᎩ	-11.1442
▁ᎠᏐᏢ	-11.1504
▁ᏓᏓᏬ	-11.1534
▁ᏭᎾᎦᏔᎲᏍᏔ	-11.1539
ᎬᏩᎵᎥᏂ	-11.155
▁ᎢᏣᏓᏁ	-11.1593
ᎡᏥᏍᏓᏩᏕᎩ	-11.1597
ᎾᏘᏁ	-11.1602
ᎵᏍᎦᏍᏙᏔᏅ	-11.1614
▁ᎾᏥᏪᏎ	-11.164
ᏥᎸᏉᏗ	-11.1666
▁ᏧᏭᎪ	-11.1668
▁ᏧᏓᏅᏖ	-11.1733
ᏥᏪᏎᎸᎭ	-11.1744
ᎾᏰᎯᏍ	-11.1755
ᎾᎾᏛᏁᎰ	-11.1767
ᎾᏗᏍᎪᎢ	-11.1771
ᎬᏍᎦᎸ	-11.18
ᏅᏓᏗᏍᏙᏗ	-11.1814
ᎾᏓᏗᏍᎪ	-11.1817
▁ᎢᏣᏕᎶᏆ	-11.182
ᏗᏒᏂ	-11.1826
ᏨᎨᏫ	-11.1828
▁ᎢᏨᏯᎵ	-11.1842
ᎠᎩᎪᏩᏛᏗᏱ	-11.1849
ᎤᎶᏒᎩ	-11.1858
ᎾᏙᎴᎰᎯᏍᏗ	-11.1859
▁ᏗᏩᎾᎦᎳ	-11.1864
▁ᎤᎾᏓᏟᏌ	-11.1874
▁ᏩᎾᎦᎳ	-11.1883
ᏬᎯᏳᏁ	-11.189
ᏓᏡᏗᏍᎪᎢ	-11.1894
ᏅᏬᏗ	-11.19
ᏄᎮᎵ	-11.1906
▁ᎦᎾᏰ	-11.1915
ᎾᏗᏅᏗ	-11.1916
ᏳᎪᏗ	-11.1926
ᏍᏚᎢᏏ	-11.1931
ᏥᎤᏍᏕᏎᎸ	-11.1932
ᏣᏛᏁᎲᎢ	-11.1959
▁ᎡᎦᎫᏴ	-11.196
▁ᎠᎵᏥᏙᎲᏍ	-11.1979
▁ᎠᎾᎵᏍᏓᏴᏗᏍ	-11.1981
▁ᏫᏚᎧᎿ	-11.1986
ᎵᏱᎶ	-11.199
ᏅᎲᎭ	-11.1998
ᏲᏍᏙᏓᏁᎸ	-11.1999
ᏓᎵᏍᎪᎸ	-11.2016
ᎯᏳᎲᏍᎩ	-11.2021
▁ᎤᏂᏃᎮ	-11.2026
ᏣᎴᏛ	-11.2037
ᏴᏓᏆᎶᏍ	-11.2044
ᏔᎳᏬᎯ	-11.2045
ᏅᏓᏗᏍᎨᏍᏗ	-11.2048
▁ᏚᏳᎪ	-11.2055
▁ᏥᏅᏩᏍ	-11.2057
ᏄᎪᏫᏏ	-11.2073
▁ᎬᏩᎨᏳᎯ	-11.2078
▁ᎡᏥᎾᏰᏍ	-11.2086
ᏅᎢᏍᏔᏅᎯ	-11.2088
ᏍᎦᎢᎲᎢ	-11.2088
▁ᎢᎬᏬ	-11.2108
▁ᏕᎩᎸᏫᏍᏓᏁ	-11.211
ᎦᏥᏅᏬᏗ	-11.2116
▁ᎠᏂᏬᏂᏍᎨ	-11.2118
▁ᎤᎾᏛᏓᏍ	-11.2126
▁ᎢᏓᏙᎴᎰᎯ	-11.2144
▁ᏂᏓᎾᏓ	-11.2144
ᎵᏍᏓᏴᎲᏍᎨᎢ	-11.2148
▁ᎧᏃᎮᏍᎬ	-11.215
ᏢᏈᏍᎦ	-11.215
ᏍᏓᏩᏗᏙ	-11.2152
▁ᏗᏍᎩᏲ	-11.2158
ᎵᏰᎢᎸᏍ	-11.2159
▁ᎠᏉᎯᏳ	-11.2168
▁ᏑᏟᎶᏛ	-11.217
ᎺᎵ	-11.2171
▁ᎥᎬᏩ	-11.2178
▁ᏱᎾᎾᏛᏁ	-11.2186
▁ᏚᏲᎯᏎᎸ	-11.2189
▁ᏓᏓᏁᎳᏗᏒ	-11.2193
▁ᏭᏂᏴᎴ	-11.2199
▁ᎤᏓᏙᎵᏍᏔᏁ	-11.22
▁ᎤᎶᎨᏒ	-11.22
▁ᏅᏧ	-11.22
ᏩᏘᎭ	-11.2201
▁ᎢᏨᏁᎢᏍᏗᏍᎬ	-11.2202
▁ᎤᏂᏇᏓᎸ	-11.2203
ᎦᏓᏂᎸᏨ	-11.2205
▁ᏓᎾᏕᏲᎲᏍ	-11.2206
▁ᎢᏕᎲ	-11.2206
▁ᎣᏥᏬᏂ	-11.221
ᏂᏚᏪᏎᎴ	-11.2214
▁ᎤᏃᏴᎬ	-11.2215
▁ᎤᏍᏆᏂᎪ	-11.2218
▁ᎡᏦᎢᏳ	-11.2224
▁ᏕᎦᏬᏁᏗᏍᎬ	-11.2233
▁ᎾᏆᎵᏍᏓᏁᎸ	-11.2233
ᏍᏕᎵᏍᎪ	-11.2237
ᏏᎾᏌᏅ	-11.224
ᎵᏱᎵᏕ	-11.2241
▁ᏥᎾᏆ	-11.2243
ᎨᏳᏐ	-11.2243
▁ᎤᏁᎷᏅ	-11.2244
▁ᏅᏗᎦᎵᏍᏙ	-11.2245
ᏥᏄᎪᏫᏍᏗ	-11.2246
▁ᎠᏯᏫᏍ	-11.2247
▁ᏚᎾᎴᏅ	-11.2256
ᎵᎮᎵᏨᎯ	-11.2259
ᏏᎾᎯ	-11.2262
▁ᏕᏥᎳᏫ	-11.2263
▁ᎤᏂᏚᎲ	-11.2264
ᎪᎯᏳᎲᏍᎪ	-11.2264
ᏓᎩᎸᏫᏍᏓᏁᎲ	-11.2266
ᎤᎬᏫᏳᎭ	-11.2267
ᏂᏣᏛᏁᎴ	-11.2268
ᏧᏂᎸᏫᏍᏓᏁᎯ	-11.2269
ᏚᏳᎪᏛ	-11.2269
ᎬᏂᎨᏒ	-11.2269
ᏥᏪᏎᎴ	-11.2269
▁ᏱᏅᏗᎦᎵᏍᏙ	-11.2271
ᏜᏅᏛ	-11.2272
ᏚᎸᏌᏛ	-11.2274
ᎤᏓᏅᏒ	-11.2275
▁ᎦᎾᏄᎪᏥᎸ	-11.2276
ᏂᏐᏢᎢᏍᏙᏗ	-11.228
▁ᏗᏕᎶᏆᏍ	-11.2284
▁ᏦᎩᎾᏫ	-11.2285
▁ᎤᎾᏄᎪᏫᏍᏗ	-11.2286
▁ᎣᎾᏫ	-11.2287
▁ᏫᏨᎷᏤᏗ	-11.2288
ᏚᏂᏢᎬ	-11.2288
▁ᏇᏗᏂ	-11.2289
▁ᎢᏳᏩᏂᏐᏗ	-11.2289
▁ᏱᏅᏩ	-11.229
ᎨᏥᏍᏕᎸᏗ	-11.2291
▁ᎠᎵᏍᎦ	-11.2291
ᎷᏏᎵᎻ	-11.2296
▁ᎦᏃᏙᏗ	-11.2297
▁ᎤᎾᏂᏢ	-11.2297
▁ᎢᏣᏛᎪᏗ	-11.2298
ᏯᏓᏙᎵᏍᏓᏁ	-11.2298
▁ᎬᎩᏁᏉᏤ	-11.2299
ᏩᏘᏍᎨᏍᏗ	-11.2299
ᎿᏍᏕᏢ	-11.23
ᎵᏂᎪᎯᏍᏔᏅ	-11.23
ᎦᏚᎵᏍᎬ	-11.2303
ᎾᏝᎥᎾ	-11.2303
▁ᏚᎸᏫᏍᏓᏁᎮ	-11.2303
ᏂᏢᎩ	-11.2304
▁ᎤᎵᏖᎸ	-11.2306
▁ᎤᏁᏓᏍᏗ	-11.2307
ᎦᎵᏍᏙᏗᏍᎬᎩ	-11.2309
▁ᏗᎦᎸᏫᏍᏓ	-11.231
ᎾᎵᏍᏓᏁᏗ	-11.2311
▁ᎠᎫᎢᏍᏗᏍ	-11.2311
▁ᏓᏟᎶᏍᏗ	-11.2311
ᎾᏰᏍᎨᏍᏗ	-11.2311
ᏂᎧᎿᏩ	-11.2312
▁ᏧᏂᏲᎱᎯᏍᏗ	-11.2312
ᏓᎴᎲᏍᎬᎩ	-11.2312
ᏣᎵᎡᎵᏤᏗ	-11.2312
ᏩᏙᎯᏯᏛ	-11.2314
▁ᎢᎡᏥ	-11.2314
▁ᎤᎦᏛᎴ	-11.2314
ᎦᏐᎠ	-11.2314
ᏓᏄᏴᏛᎾ	-11.2314
ᏍᎦᏅᏨᎾ	-11.2315
ᏥᎶᏄᎡ	-11.2315
ᏱᎵᏓᏍᏗᏱ	-11.2315
ᎨᏳᏒᎾ	-11.2315
ᏂᏍᏆᏂᎪᏍᎨ	-11.2315
ᎠᎵᏍᏓᏴᎲᏍᎬ	-11.2315
ᏂᏐᏢᎢᏍᏗᏍ	-11.2315
ᏄᏩᏂᏌᏅ	-11.2315
ᎦᏥᏯᏠᎢᏍᏓᏁ	-11.2316
▁ᏱᏅᏧᎵᏍᏙᏔᏁ	-11.2316
~	-11.2316
ᎦᎵᏥᏙᎲᏍᎦ	-11.2316
ᎩᏪᏎᎲᎩ	-11.2316
ᎵᏍᏡᏰᎢ	-11.2316
ᎵᏖᎸᏂ	-11.2316
ᎶᏄᎮᎸᎩ	-11.2316
ᏄᏩᎥᎾ	-11.2316
ᏅᏓᎨᏨᏁᎵ	-11.2316
ᏍᏕᎵᏌᏕᏒᎭ	-11.2316
ᏓᏓᏅᏖᏍᎬᎢ	-11.2316
ᏙᏥᎵᏦᏛᎦ	-11.2316
ᏣᏪᏐᎸᏍᏓ	-11.2316
ᏨᎾᏄᏫᏎᎭ	-11.2316
▁ᎠᎦᏔᏙᎥᏗᏍᎩ	-11.2316
▁ᎠᎩᎷᏤᎮᏍᏗ	-11.2316
▁ᎠᎵᏱᎵᏒᎢ	-11.2316
▁ᎠᎾᎵᏍᏓᏴᏂᏙᎮ	-11.2316
▁ᎠᏁᎷᎲᏍᎨ	-11.2316
▁ᎠᏂᎦᏲᎵᏉ	-11.2316
▁ᎠᏂᎾᏰᏍᎩ	-11.2316
▁ᎠᏂᏁᏄᎳᏍᏗᏍᎪ	-11.2316
▁ᎠᏂᏬᏂᏍᎩ	-11.2316
▁ᎠᏂᏯᏙᎯᎯ	-11.2316
▁ᎠᏆᎵᎮᎵᏨᎩ	-11.2316
▁ᎠᏆᏁᎳᏫᏎ	-11.2316
▁ᎠᏍᏆᏂᎪᏍᎨ	-11.2316
▁ᎠᏛᏅᎢᏍᏔᏃ	-11.2316
▁ᎡᎭᏠᎠᎯ	-11.2316
▁ᎡᎵᎣᏈᎦ	-11.2316
▁ᎡᎾᎢᏓᏍᏗᏱ	-11.2316
▁ᎢᎡᏍᏕᎵᏌᏕ	-11.2316
▁ᎢᎵᎡᏌ	-11.2316
▁ᎢᏍᏙᏎᎸᎭ	-11.2316
▁ᎢᏤᎳᏗᏙᎭ	-11.2316
▁ᎢᏥᎩᎵᏲᎬᎢ	-11.2316
▁ᎢᏨᏰᎳᏗᏙᎮᏍᏗ	-11.2316
▁ᎢᏯᎩᏪᏍᏗᏱ	-11.2316
▁ᎢᏰᎬᏁᎸᎯ	-11.2316
▁ᎤᎵᏍᎪᎸᏔᏁ	-11.2316
▁ᎤᎾᎴᎾᎸᎯ	-11.2316
▁ᎤᎾᏁᎶᏔᏁ	-11.2316
▁ᎤᎾᏓᏄᏴᏗ	-11.2316
▁ᎤᎾᏓᏙᎵᏍᏙᏗᏱ	-11.2316
▁ᎤᏁᏄᎳᏍᏔᏁᎢ	-11.2316
▁ᎤᏂᏂᏴᎮ	-11.2316
▁ᎤᏍᎦᏅᏥᏙᎸ	-11.2316
▁ᎤᏍᎫᏕ	-11.2316
▁ᎤᏓᏦᎯᏯ	-11.2316
▁ᎤᏔᎳᏬᏍᎬᎢ	-11.2316
▁ᎤᏗᎴᎲᏍᎨᎢ	-11.2316
▁ᎤᏪᏯᎸᏤᎢ	-11.2316
▁ᎥᏆᎸᎥ	-11.2316
▁ᎥᏆᏒᎦᎶ	-11.2316
▁ᎦᏟᏏᏍᎨᏍᏗ	-11.2316
▁ᎨᏤᎳᏗᏙᎭ	-11.2316
▁ᎨᏤᎳᏗᏙᎮᏍᏗ	-11.2316
▁ᎭᏓᎦᏖᏙᎢᏍᎨᏍᏗ	-11.2316
▁ᎭᏙᏯᏅᎯ	-11.2316
▁ᎾᎫᎢᏍᏛᎾ	-11.2316
▁ᏂᎠᏂᏪᎭ	-11.2316
▁ᏂᎦᏥᏪᏎᎭ	-11.2316
▁ᏂᎧᏪᏍᎬᎩ	-11.2316
▁ᏂᏙᏓᎬᏁᎵ	-11.2316
▁ᏂᏥᏲᎯᏍᏗᏍᎬᎾ	-11.2316
▁ᏄᎾᏓᏁᏟᏴᏎᎢ	-11.2316
▁ᏄᎾᏙᏓᏈᏒ	-11.2316
▁ᏅᏋᏁᎸ	-11.2316
▁ᏅᏓᎨᏥᏅᏏᏛ	-11.2316
▁ᏅᏩᏍᏗᏗᏎᏍᏗᏉ	-11.2316
▁ᏋᏗᏱ	-11.2316
▁ᏍᏇᎵᏎᏗᏱ	-11.2316
▁ᏐᎣᏁᎵᏁ	-11.2316
▁ᏒᎦᏙᎯ	-11.2316
▁ᏓᎪᏄᎶᏏᏙᎮᏍᏗ	-11.2316
▁ᏓᎬᏍᏓᏩᏗᏙᎵ	-11.2316
▁ᏓᎭᏬᎢ	-11.2316
▁ᏓᎵᏖᎸᏂᏙᎮᏍᏗ	-11.2316
▁ᏓᏛᎯᏍᏓᏁᎮᏍᏗ	-11.2316
▁ᏓᏨᏯᏛᏛᏂ	-11.2316
▁ᏓᏳᏗᏩᏏ	-11.2316
▁ᏕᎤᎸᏫᏍᏓᏁᎸ	-11.2316
▁ᏕᎦᎫᏍᏓᎥ	-11.2316
▁ᏕᎫᎪᏗᏍᎬ	-11.2316
▁ᏕᏣᏓᎨᏳᏒ	-11.2316
▁ᏕᏥᏅᎪᎥᏗᏍᎨᏍᏗ	-11.2316
▁ᏕᏥᏅᏫᏍᎨᏍᏗ	-11.2316
▁ᏗᎳᏑᎶ	-11.2316
▁ᏗᏋᏅ	-11.2316
▁ᏙᏓᎨᏥᏲᎯᏎᎵ	-11.2316
▁ᏙᏓᏳᎸᏫᏍᏓᏁᎵ	-11.2316
▁ᏙᏛᎠᎴᎯᏌᏂ	-11.2316
▁ᏙᏛᏂᏴᎳᏏ	-11.2316
▁ᏚᏂᏖᎸᏁ	-11.2316
▁ᏚᏌᎳᏓᏁ	-11.2316
▁ᏚᏬᏕᎯᎰᎢ	-11.2316
▁ᏚᏰᎵᏏᏙᎴᎢ	-11.2316
▁ᏠᏆᎹ	-11.2316
▁ᏣᏓᎨᏳᏒ	-11.2316
▁ᏣᏓᏪᎵᎩᏍ	-11.2316
▁ᏥᎨᏣᏓᏑᏯ	-11.2316
▁ᏥᎳᏇᎵ	-11.2316
▁ᏥᏯᎵᎪᏁᎯ	-11.2316
▁ᏩᏂᎶᏒᎭ	-11.2316
▁ᏫᏰᏣᏓᎢ	-11.2316
▁ᏮᏓᎦᎶᏏ	-11.2316
▁ᏱᎾᏥᎸᏉᏙ	-11.2316
▁ᏱᏅᏎᎦᎩ	-11.2316
▁ᏱᏍᎩᏲᎢᏳᏁᎢ	-11.2316
▁ᏱᏙᎬᏩᎸᏫᏍᏓᏏ	-11.2316
▁ᏱᏚᏓᏌᏝᎮᏍᏗ	-11.2316
▁ᏱᏨᏲᏪᎳᏁᎭ	-11.2316
▁ᏳᏥᏍᎪᎸ	-11.2316
▁ᏴᎨᏦᎯᏳᎲᎦ	-11.2316
▁ᏴᏗᏓᎴᎲᏍᎦ	-11.2316
ᎦᏌᏯᏍᏛᎾ	-11.2316
ᏍᎫᏕᏎ	-11.2316
ᏯᏘᏃᎯᏏ	-11.2316
▁ᎠᏂᎪᏩᏗᏍᎬ	-11.2316
▁ᎠᏆᏚᎸᎲ	-11.2316
▁ᎤᎾᏟᎶᎥ	-11.2316
▁ᎤᏍᏆᎷᎪ	-11.2316
▁ᎤᏍᏆᎸᎯᏕ	-11.2316
▁ᎦᎬᏩᏂᏐᏢ	-11.2316
▁ᎦᏃᎴᏍᎬ	-11.2316
▁ᏂᎪᎵᎬᎾ	-11.2316
▁ᏂᏚᎿᏍᏕᏢᎾ	-11.2316
▁ᏓᏂᏂᏓᏛ	-11.2316
▁ᏚᏃᏣᎶᏤ	-11.2316
▁ᏚᏍᏆᎸᏔᏅ	-11.2316
▁ᏣᏍᏕᏅᏨ	-11.2316
▁ᏥᎾᏋ	-11.2316
▁ᏥᏍᏚᏂᎩᏍᏗ	-11.2316
▁ᏫᏱᏣᏴ	-11.2316
ᎤᎿᏍᎬᏤ	-11.2316
ᎦᏌᏯᏍᏔᏁ	-11.2316
ᏥᏍᏓᏩᏕᎨᏍᏗ	-11.2316
ᏧᎪᏓᏏ	-11.2316
▁ᎠᎦᏠᏯᏍᏔᏅᎩ	-11.2316
▁ᎠᏂᏯᏙᎯᎲ	-11.2316
▁ᎠᏥᏌᎳᏓᏅ	-11.2316
▁ᎢᏣᏠᏯᏍᏙᏗ	-11.2316
▁ᎢᏨᏯᏓᏅᏖ	-11.2316
▁ᎣᏣᏓᏅᏟ	-11.2316
▁ᎤᎵᏏᎲᏎ	-11.2316
▁ᎤᎾᏕᎶᏆᏍᏗᏱ	-11.2316
▁ᎤᏂᏐᏢᎢᏍᏔᏅᎩ	-11.2316
▁ᎤᏱᎸᏒᎩ	-11.2316
▁ᎦᎳᎨᏴ	-11.2316
▁ᎯᏍᏓᏩᏕ	-11.2316
▁ᎾᏂᏴᎬᎾ	-11.2316
▁ᏅᏩᏛᏁᏍᏗ	-11.2316
▁ᏌᎳᏓᏱᎵ	-11.2316
▁ᏍᎩᏯᏅᏓᏗᏍᎬᎢ	-11.2316
▁ᏓᏉᏙᎥ	-11.2316
▁ᏓᏓᏬᏍᏗᏍᎬᎩ	-11.2316
▁ᏓᏳᏂᏄᎪᏨᎩ	-11.2316
▁ᏕᏓᎧᏂᏍᎬ	-11.2316
▁ᏕᏨᏯᏬᏍ	-11.2316
▁ᏗᎨᎦᏬᏍᏗᏱ	-11.2316
▁ᏧᎦᎿᏁ	-11.2316
▁ᏧᏃᏕᏍᏗᏍᎩ	-11.2316
▁ᏬᎩᏃᎸᎩ	-11.2316
▁ᏭᎦᏔᎲᏍᏔᏅ	-11.2316
▁ᏯᏎᎦᎩ	-11.2316
▁ᏯᏥᏯᏝ	-11.2316
▁ᏱᎦᏥᎪᎥᏍᎦ	-11.2316
▁ᏱᏂᎦᎵᏍᏗᎭ	-11.2316
ᎯᏞᏫᏒ	-11.2316
ᎵᏍᏘᏂᎸ	-11.2316
ᏍᏚᎢᎡᎴ	-11.2316
▁ᎠᏍᏆᎨᏂ	-11.2316
▁ᎠᏍᏆᎵᏍᎬ	-11.2316
▁ᎢᎫᏓᎴᏍᏗᏱ	-11.2316
▁ᎢᏍᏉᏎᎭ	-11.2316
▁ᎤᎾᏁᎷᎩ	-11.2316
▁ᎤᏂᏌᎳᏓᏁ	-11.2316
▁ᎤᏙᎴᎱ	-11.2316
▁ᎦᏴᏓᏗ	-11.2316
▁ᎬᏬᏍᏔᏅᎯ	-11.2316
▁ᏂᎦᎸᏉᏗᏍᎬᎾ	-11.2316
▁ᏄᎵᏍᏚᎸᎾ	-11.2316
▁ᏕᎯᏬᏁᏗᏍ	-11.2316
▁ᏗᏂᏁᏟᏴᏍᎩ	-11.2316
▁ᏗᏑᏫᏍᎩ	-11.2316
▁ᏗᏓᎪᏗᏍᎩ	-11.2316
▁ᏗᏔᎳᏗᏍᏗᏱ	-11.2316
▁ᏗᏤᏲᎲᏍᎩ	-11.2316
▁ᏫᎾᏴᎯ	-11.2316
▁ᏫᏓᏗᏅᏗ	-11.2316
▁ᏱᏣᏁᎢᏍᏔᏁᏍᏗ	-11.2316
▁ᏳᏍᎦᏅᏨ	-11.2316
ᏥᎦᏖᏃᎮᏍᏗ	-11.2316
▁ᎠᎾᎵᏖᎸᎲᏍᎬ	-11.2316
▁ᎠᎾᏓᎩᎡᎯ	-11.2316
▁ᎢᏣᎵᏍᏓᏴᏗᏍᎨᏍᏗ	-11.2316
▁ᎣᎦᎵᏍᏓᏴᏗᏱ	-11.2316
▁ᎤᏂᏄᎸᏅ	-11.2316
▁ᎤᏓᏠᏍᏔᏅᎩ	-11.2316
▁ᎨᎪᏢᏅᎯ	-11.2316
▁ᎾᎾᎵᏍᏗᎭ	-11.2316
▁ᎾᏓᏛᏁᎲᎢ	-11.2316
▁ᏂᏤᎵᏍᎬᎾ	-11.2316
▁ᏂᏥᏪᏒᎭ	-11.2316
▁ᏄᏲᎱᏒᎩ	-11.2316
▁ᏗᎫᎪᏓᏁᎯ	-11.2316
▁ᏗᏩᎾᎨ	-11.2316
▁ᏚᎪᏓᏁᎯ	-11.2316
▁ᏥᏫᏗᎨᎦᏘᏅᏍᏔᏁ	-11.2316
ᏤᏲᎲᏍᎦ	-11.2316
ᏥᏟᏏᏍᎨᏍᏗ	-11.2316
▁ᎠᎩᏍᏆᏗᏍᏗᏱ	-11.2316
▁ᎠᏆᏓᏤᎵᎦ	-11.2316
▁ᎢᏥᎪᎵᏰᎥᎭ	-11.2316
▁ᎣᎦᏂᎩᏒᎩ	-11.2316
▁ᎤᏄᏖᏎ	-11.2316
▁ᏄᎾᏓᏅᏛᎾ	-11.2316
▁ᏍᎩᎨᏳᎭᏧ	-11.2316
▁ᏗᏂᏏᎲᏍᎩ	-11.2316
▁ᏚᏂᏍᏆᎸᏔ	-11.2316
▁ᏚᏅᏂᏍᏔᏁ	-11.2316
▁ᏛᎵᏛᏔᏂ	-11.2316
▁ᏥᏂᏴᏁᎭ	-11.2316
▁ᎠᎦᏬᎥ	-11.2316
▁ᎡᏣᎫᏴᎡ	-11.2316
▁ᎦᎶᏐᏅᎭ	-11.2316
▁ᏅᏛᏅᏁᎵ	-11.2316
▁ᏗᏇᏅᏒ	-11.2316
▁ᏥᎧᏃᎮᎭ	-11.2316
▁ᏱᏗᏥᏍᏓᏲ	-11.2316
ᎵᏍᎦᏂᏍᏛ	-11.2316
▁ᎠᎵᏍᎪᎸᏓᏁᏗ	-11.2316
▁ᎡᏣᏓᏅᏛᎵ	-11.2316
▁ᎤᏁᎳᏫᏎᎲ	-11.2316
▁ᎨᎦᏎᏍᏗᏱ	-11.2316
▁ᏕᏥᎨᏳᏒ	-11.2316
▁ᏚᎾᏗᏩᏍᎨ	-11.2316
▁ᏛᎾᏛᎦᏂ	-11.2316
▁ᏭᏂᏴᏍᏗᏱ	-11.2316
ᎩᏲᏍᏙᏓᏁ	-11.2316
▁ᎠᎾᎵᏅᏢ	-11.2316
▁ᎡᏓᏤᎵᎦ	-11.2316
▁ᎢᏲᎦᏛᏁᏗᏱ	-11.2316
▁ᎤᎾᏗᏒᎸ	-11.2316
▁ᎤᏂᏬᏂᏒ	-11.2316
▁ᏂᏣᏓᏅᏛᎾ	-11.2316
▁ᏍᎩᏲᎢᏳᎲᎦ	-11.2316
▁ᏓᎦᎫᏴᎯ	-11.2316
▁ᏗᎦᎾᎯᏍᏙᏗ	-11.2316
▁ᏩᎩᎶᏒᎩ	-11.2316
▁ᎠᏆᎴᏂᏓᏍᏗᏱ	-11.2316
▁ᎠᏆᏙᎴᎰᎯᏍᏗᏱ	-11.2316
▁ᎤᎾᏣᏪᏐᎸᏍᏙᏗᏱ	-11.2316
▁ᎤᏪᏣᏄ	-11.2316
▁ᏙᏗᎧᏅᎢ	-11.2316
▁ᏣᎪᏎᎰᎢ	-11.2316
▁ᏩᏂᎦᏛ	-11.2316
ᏁᎢᏍᏓᏁᎭ	-11.2316
▁ᎢᏣᎴᏂᏓᏍᏗᏱ	-11.2316
▁ᎤᎾᎳᏍᏓᎡᏗ	-11.2316
▁ᏁᎨᏒᎾ	-11.2316
▁ᏕᏦᏢᎯᏏ	-11.2316
▁ᏥᏨᏯᎵᏥᏙᏁ	-11.2316
▁ᏧᎾᏙᎢᏛ	-11.2316
▁ᏧᏓᎴᏅᏔᏅᎯ	-11.2316
ᏆᏓᎾᏰᏍ	-11.2316
▁ᎢᏥᏴᎯᎮᏍᏗ	-11.2316
▁ᏱᏅᏓᎦᎵᏍᏙᏓ	-11.2316
ᎶᎾᏍᏗᏍᎨᏍᏗ	-11.2316
ᏎᎪᎩᏏ	-11.2316
▁ᎠᎦᏬᎡᎢ	-11.2316
▁ᎤᏃᎮᏗᏱ	-11.2316
▁ᏣᏓᏅᏖᏗᏱ	-11.2316
ᎵᏂᏆᏅᏅ	-11.2316
ᏥᏍᎩᏅᏛᎯ	-11.2316
▁ᎠᏯᎣᎢ	-11.2316
▁ᏓᏂᎳᏫᎡ	-11.2316
▁ᏫᏙᏓᎨ	-11.2316
▁ᎠᎦᏘᏅᏍᏗᏱ	-11.2316
▁ᎢᏏᎳᎻ	-11.2316
▁ᏍᎩᏁᎲᏏ	-11.2316
▁ᏓᏁᏙᎲᎩ	-11.2316
▁ᏙᏓᏰᏣᏬᏍᏔᏂ	-11.2316
▁ᏚᎵᏍᏚᎸᎩ	-11.2316
▁ᏚᏅᏫᏍᏔ	-11.2316
▁ᏚᏪᏙᎵᏨ	-11.2316
▁ᎠᎾᏙᎴᎰᏍᎨᏍᏗ	-11.2316
▁ᎤᏂᏍᏛᏛᎯ	-11.2316
▁ᎪᏚᎢᏍ	-11.2316
▁ᏗᏂᏁᎵᏛ	-11.2316
▁ᎤᏂᎪᎵᏰᏗᏱ	-11.2316
▁ᏚᏅᏂᎦᎸ	-11.2316
▁ᎤᏓᏳᏓᎴᏅᎯ	-11.2316
▁ᏈᏥᏱ	-11.2316
▁ᏗᏟᏍᏙᏗ	-11.2316
ᏍᏆᎸᎮ	-11.2316
ᏚᎾᏓᏩᏛᏔᏁᎢ	-11.2316
▁ᎠᏆᎵᏌᎳ	-11.2316
▁ᎠᏥᏅᏩᏅᎢ	-11.2316
▁ᏕᎦᏥᏯᏠᎢᏍᏓᏁᎸ	-11.2316
▁ᏳᏲᎱᏎᎸ	-11.2316
ᏗᎩᏴᎩ	-11.2316
▁ᏓᏰᎵᎯᏍᏗᏍᎬ	-11.2316
▁ᏚᎾᏚᏓ	-11.2316
▁ᏳᏴᎵᎸ	-11.2316
▁ᎤᎾᎵᏍᏓᏴᏁ	-11.2316
▁ᎤᏟᎶᎥᎩ	-11.2316
▁ᏤᏣᏛᏅᎩ	-11.2316
▁ᏦᏥᏰᎸᎢ	-11.2316
▁ᎤᎵᏰᎢᎶᎸ	-11.2316
▁ᎤᏬᏂᏎᎢ	-11.2316
▁ᏓᏳᏓᎴᏅᎩ	-11.2316
▁ᏚᏂᏐᏨ	-11.2316
ᎾᏖᏉᎶ	-11.2316
▁ᎠᎩᏲᎱᎯᏍᏗᏱ	-11.2316
▁ᏓᎾᎵᏍᏓᏴ	-11.2316
▁ᏣᏱᎵᏙᎯ	-11.2316
▁ᎤᏓᏅᏓᏕᎢ	-11.2316
▁ᎤᏲᏏᏌᏁᎢ	-11.2316
▁ᏥᏚᏃᎱ	-11.2316
▁ᎤᎾᏓᏁᏟᏴᏒᏒ	-11.2316
▁ᏫᎬᏩᏂᏴ	-11.2316
▁ᎠᏓᏬᏍᏗᏱ	-11.2316
▁ᎢᏣᎫᏱᏍ	-11.2316
▁ᎤᏓᏴᏒᎩ	-11.2316
▁ᎠᎵᏰᎢᎶᎦ	-11.2316
▁ᎠᏓᎾᏌᎲᏍᎩ	-11.2316
▁ᏚᏍᏕᎸᎯᎸ	-11.2316
▁ᏚᏰᎵᏒ	-11.2316
▁ᎠᏙᏂᏍᎩ	-11.2316
▁ᎤᏍᏆᎸᏗ	-11.2316
▁ᏫᏄᏪᏎᎢ	-11.2316
▁ᎾᏞᎬ	-11.2316
▁ᎠᏲᏍᏙᏗᏍ	-11.2316
▁ᏄᏍᏗᏕᎬᎢ	-11.2316
▁ᏗᎦᏩᏒᎩ	-11.2316
ᎯᎬᏍᎪᎸᎥᏍᎨᏍᏗ	-11.2316
ᎨᎬᏁᎵ	-11.2316
ᏥᏍᎦᏅᎨᏍᏗ	-11.2316
▁ᎢᏨᎥᏏ	-11.2316
▁ᏫᏚᏂᏴ	-11.2316
ᏍᏓᏩᏕᎪᎢ	-11.2316
▁ᎠᏍᎦᏲᎯ	-11.2316
▁ᎠᎩᏁᎢᏍᏗᏱ	-11.2316
▁ᎢᏥᏂᎬᏎᎲᎢ	-11.2316
▁ᎤᏪᎧᏁᎢ	-11.2316
▁ᏣᎷᎯᏍᏗᏱ	-11.2316
▁ᏫᏕᏣ	-11.2316
▁ᎠᎩᎾᏄᎪᏫᏎᎸᎩ	-11.2316
▁ᎣᎩᎦᎵᏍᏓᏗᏍ	-11.2316
▁ᎥᏘᏍᎩ	-11.2316
▁ᏄᏩᏂᏌᏅᎩ	-11.2316
▁ᏧᏁᎩᏳ	-11.2316
▁ᎢᎪᎯᏳᏒ	-11.2316
ᎵᏍᏙᏔᏁ	-11.2316
ᏃᎯᏳᎲᏍᎨ	-11.2316
▁ᏗᎬᏩᎾᏛᎪᏙᏗ	-11.2316
▁ᏭᏘᏅᏍᏔᏅ	-11.2316
▁ᏱᎯᎦᏔᎮ	-11.2316
▁ᎠᏂᏐᏢᎢᏍᏗᏍᎩ	-11.2316
▁ᎠᎩᎷᏤᎸᎩ	-11.2316
▁ᎠᏉᏪᎳᏅ	-11.2316
▁ᎢᏥᎷᎨᏍᏗ	-11.2316
▁ᎠᏍᏚᎢᏍᎩ	-11.2316
▁ᎤᎵᏍᏚᎸᎩ	-11.2316
▁ᏩᎦᏖᎢ	-11.2316
▁ᎤᎪᎵᏰᏗᏱ	-11.2316
▁ᎤᏬᎯᏤ	-11.2316
▁ᏴᏛᏂᎶᏐᏂ	-11.2316
▁ᎤᏂᎸᏉᏔᏅᎩ	-11.2316
▁ᎪᎵᎦᏓ	-11.2316
▁ᎬᏩᏂᏃᎮᏗ	-11.2316
▁ᏓᏍᏕᎵᏍᎬᎩ	-11.2316
▁ᏥᎦᏚᎭ	-11.2316
▁ᏳᏓᏅᏒ	-11.2316
▁ᎠᏂᎦᏘᏴ	-11.2316
▁ᏗᏂᏃᎩᏍᏗᏍ	-11.2316
▁ᎤᏠᏯᏍ	-11.2316
▁ᎯᏯᏓᏙᎵᏍᏓᏁᎮᏍᏗ	-11.2316
▁ᏭᎵᏰᎢᎶᎸ	-11.2316
▁ᎢᏨᏁᏤᎸᎢ	-11.2316
▁ᏓᏂᎧᎿᏩᏗ	-11.2316
▁ᎢᎦᏚᏓᎴᏍᏙᏗᏱ	-11.2316
▁ᏯᏬᏅ	-11.2316
▁ᎢᏥᏁᎢᏍᏗᏱ	-11.2316
▁ᎤᎵᏍᏓᏴᏅ	-11.2316
▁ᏗᎾᏓᏙᏕᏍᏗᏍᎩ	-11.2317
ᏥᏂᏆᏘᎲ	-11.2317
▁ᏳᏂᎪᎮᎢ	-11.2317
▁ᎾᏂᎦᏔᎿᎥᎾ	-11.2317
▁ᎢᎦᏠᏯᏍᏙᏗ	-11.2317
▁ᏚᏂᎳᏫᏛ	-11.2317
▁ᏥᏍᎦᏅᎩ	-11.2317
ᎦᎵᎥᏂ	-11.2317
▁ᎤᎧᎵᏦᏅ	-11.2317
ᏗᎨᏥᏰᎪᎢ	-11.2317
▁ᎤᎾᏂᎩᏎ	-11.2317
ᏫᎨᏙᎲ	-11.2317
▁ᎠᎾᎵᏍᏓᏴᎲᏍᎩ	-11.2317
▁ᎠᎫᏴᎡᏗᏱ	-11.2317
▁ᏍᎩᏂᏙᎵᎩ	-11.2317
▁ᎢᏍᎩᎪᏩᏘᏍᎨᏍᏗ	-11.2317
▁ᎤᏚᎵᏍᎩ	-11.2317
ᏟᎶᏍᏓᏁᎭ	-11.2317
▁ᎢᏥᏲᎮᏍᏗ	-11.2317
▁ᏌᎾᏱ	-11.2317
▁ᎤᏬᏂᎯᏍᏗᏱ	-11.2317
▁ᏅᏓᎬᏴᏁᎵ	-11.2317
▁ᎤᎾᏤᎸᎯ	-11.2317
ᎾᏍᏆᎶᏍ	-11.2317
▁ᎤᏓᏅᎡᎴᎢ	-11.2317
ᎩᏍᏕᎸᎯᏙᎸ	-11.2317
ᏚᏛᏛᏅᎩ	-11.2317
▁ᎤᏘᏃᎴᎢ	-11.2317
▁ᎤᎾᏣᏅᎩ	-11.2317
▁ᎠᏥᏚᎢᏍᏓᏁᎸ	-11.2317
▁ᏧᎾᎳᏏᏕᏄᎶᏗ	-11.2317
▁ᎾᏆᎵᏍᏓᏁᎵᏕᎬ	-11.2317
▁ᎤᏁᎵᏎᎢ	-11.2317
▁ᏳᏰᎸᎭ	-11.2317
▁ᎢᏨᏯᏅᏓᏗᏍᏗᏍᎬᎢ	-11.2317
▁ᏗᏓᎴᎲᏍᎪ	-11.2317
▁ᎠᏌᏍᏛ	-11.2317
▁ᎢᏥᏫᏅ	-11.2317
▁ᎠᏍᏚᎢᏛ	-11.2317
▁ᎤᏅᏓᏛ	-11.2317
▁ᏫᏚᎾᏘᏃᎮᎸᎩ	-11.2317
ᏬᏁᏓ	-11.2317
▁ᎨᏥᏍᎩᏅᏗᏍ	-11.2317
ᏩᏝᎥ	-11.2317
▁ᎠᏓᏅᏬᎯᏍᏗᏍᎩ	-11.2317
▁ᎤᏓᏴᏛ	-11.2317
ᏫᏂᏴ	-11.2317
▁ᏌᎩᏯ	-11.2317
▁ᏱᏓᏲᎩ	-11.2317
▁ᎠᎵᏍᏓᏴᎲᏍᎩ	-11.2317
▁ᎢᎦᏪᏍᎩ	-11.2317
▁ᏧᏲᏏᏍᎨ	-11.2317
▁ᏂᎦᏅᎯᏒ	-11.2317
▁ᎠᏆᏟᏂᎬᏁᎸ	-11.2317
ᏓᎢᏅᏎᎢ	-11.2317
▁ᏂᎦᎵᏍᏔᏂᏙᎮᏍᏗ	-11.2317
▁ᏕᎨᏲᎲᏍᎨ	-11.2317
ᏂᏙᎸᎯ	-11.2317
▁ᏳᏩᏛᎮᎢ	-11.2317
▁ᎠᏉᎯᏳᎲᏍᎩ	-11.2317
▁ᎤᎾᏛᏂᏛ	-11.2317
▁ᎠᏂᏃᎲᏍᎨ	-11.2317
▁ᎠᏂᎶᏍᎩ	-11.2317
▁ᎠᎩᏔᏕᎩᏍᎬ	-11.2317
▁ᏠᏗᏯ	-11.2317
▁ᏥᏓᏓᏂᎸᎪᎢ	-11.2317
▁ᏚᏂᎳᏫᏦᎴ	-11.2317
▁ᏭᏂᎦᏐᎠ	-11.2317
▁ᏥᏂᎦᏛᏁᎭ	-11.2318
ᏝᏫᏍᏗ	-11.2318
ᎬᏔᏂᏓᏍᏗ	-11.2318
▁ᏥᏄᏪᏎᎴᎢ	-11.2318
ᏓᏛᏳᏤ	-11.2318
ᏁᎶᏕᏍᏗ	-11.2318
▁ᏄᏓᏛᏁᎴ	-11.2318
▁ᎠᎩᏬᏂᎯᏍᏗᏱ	-11.2318
▁ᎢᏥᎾᏫ	-11.2318
▁ᏂᏚᏂᎨᏳᏒ	-11.2318
▁ᏱᏂᏣᏍᏕᏍᏗ	-11.2318
▁ᏱᏍᎩᎪᏩᏘᏍᎨᏍᏗ	-11.2318
▁ᏭᏃᏁᎸᎩ	-11.2318
ᏥᏅᎦᎸᎡ	-11.2318
ᏂᏚᏩᏁᎴᎢ	-11.2318
▁ᎢᎪᎯᏳᏅ	-11.2318
▁ᏓᎨᏏ	-11.2318
ᎾᎴᏲᎥ	-11.2318
▁ᏓᎾᎵᏍᏓᏴᎲᏍᎨᎢ	-11.2318
▁ᎤᎬᎥᏍᎬ	-11.2318
ᎾᏓᏃᎮᎵᏙᎯ	-11.2318
ᎾᏓᏛᏍᎬᎾ	-11.2318
▁ᎤᎦᎾᏬᏍᎬ	-11.2318
▁ᎢᏨᏅᎵ	-11.2318
▁ᎤᏒᎦᎸᎩ	-11.2318
▁ᎡᎯᏄᎪᎢ	-11.2318
▁ᏂᏚᏪᏎᎵ	-11.2318
ᏱᎶᎴ	-11.2318
▁ᏂᏓᏓᏂᎸᎬᎾ	-11.2318
▁ᎤᎬᏍᎪᎸᏁᎢ	-11.2318
▁ᏚᏕᏲᏅ	-11.2318
▁ᎤᏁᎵᏒᎩ	-11.2318
▁ᏂᏚᏛᏁᎴ	-11.2318
ᎾᎵᏔᏗᏅ	-11.2318
▁ᏫᎷᎩ	-11.2318
▁ᏑᏓᎵᏍᎪᎯ	-11.2318
▁ᏫᏚᏂᏲᎯᏎ	-11.2318
▁ᎤᎵᎶᎲᏍ	-11.2318
▁ᎬᏩᏕᎰᎯᏍ	-11.2318
▁ᏱᏥᏩᏘᏍᎪᎢ	-11.2318
▁ᎭᎵᏍᏓᏴᎲᎦ	-11.2319
▁ᏱᏗᏥᏍᎦᎢᎮᏍᏗ	-11.2319
ᏓᏛᏙᏗ	-11.2319
ᎶᎥᏔᏂ	-11.2319
▁ᎤᏞᎩ	-11.2319
▁ᎤᎦᏛᎴᎯᏍᏗᏱ	-11.2319
▁ᏓᏂᎳᏍᏓᎳᏩᏗᏒᎢ	-11.2319
▁ᎤᏂᏴᎲ	-11.2319
ᎾᏓᎵᏁᎯᏕ	-11.2319
▁ᎢᏣᎵᏂᎬᏁ	-11.2319
ᎵᎦᎵᏴᏒ	-11.2319
▁ᎤᏓᏅᏘᏌᏅ	-11.2319
▁ᎠᏓᏛᏂᏗᏍ	-11.2319
▁ᏚᏂᎩᏒᎩ	-11.2319
▁ᏒᏍᎦ	-11.2319
▁ᎠᏥᏐᏅᏅ	-11.2319
▁ᏱᏂᏣᏛᎦ	-11.2319
▁ᎤᏍᏆᏂᎪᏔᏁᎢ	-11.2319
▁ᏓᎬᎷᏤᎵ	-11.2319
▁ᎠᏅᏍᎬᎢ	-11.2319
▁ᏄᎾᏁᎸᎾ	-11.2319
ᎫᏘᎶ	-11.2319
▁ᏛᏂᎷᏥ	-11.2319
▁ᎠᎩᏲᏏᏍᎬ	-11.2319
▁ᏥᏤᎾ	-11.2319
▁ᎤᏛᏒᎯ	-11.2319
▁ᎾᏐᏂ	-11.232
ᎵᏏᎾᎯᏍᏛᎾ	-11.232
▁ᏩᎾᎢᏒ	-11.232
▁ᏱᏣᏕᏯᏔᏁ	-11.232
ᏣᏍᏆᏂᎪ	-11.232
▁ᎬᏩᏯᏫᏍ	-11.232
▁ᏚᎧᎿᏂᏙᎸ	-11.232
ᎿᎥᎾ	-11.232
▁ᏕᏣᎸᏫᏍᏓᏁᎮᏍᏗ	-11.232
▁ᏕᏣᏓᏅᏖᏍᏗ	-11.232
▁ᏗᏆᏄᏬ	-11.232
▁ᎠᏇᏲᏅ	-11.232
▁ᏯᎩᏍᏆᎸᎡ	-11.232
ᏓᏂᎸᎪᎢ	-11.232
▁ᏚᏅᏏ	-11.232
▁ᎢᏳᏪᏎᎸᎯ	-11.232
▁ᏫᎬᎷᏤᏗᏱ	-11.232
▁ᏌᏗᏏ	-11.232
▁ᏗᏣᏠᏱᎸᎩ	-11.232
ᏍᏓᏩᏕᎦ	-11.232
▁ᎡᏤᎵᏎ	-11.232
▁ᎠᏆᎵᏃᎮᏔᏅ	-11.2321
▁ᏱᎦᏂᏆᏘᎭ	-11.2321
▁ᎠᏓᏱᎯ	-11.2321
▁ᏫᏥᎷᏤᏗᏱ	-11.2321
▁ᏗᏂᏂᏙᎯ	-11.2321
▁ᏧᏩᎿ	-11.2321
ᏥᏯᏫᏍᎬ	-11.2321
ᏍᏆᏗᏍᏗᏍᎩ	-11.2321
▁ᏓᏟᎶᏍᏗᏍᎬᎢ	-11.2321
▁ᎤᏓᎦᎵᏍᏙᏗᏍᎬᎩ	-11.2321
▁ᎡᏥᎸᏉᏗᏍᎨᏍᏗ	-11.2321
▁ᎠᏓᏓᏱᎮᏍᏗ	-11.2321
▁ᏧᏲᎱᏒ	-11.2321
ᏓᏁᏣᏍᏚᎶ	-11.2321
▁ᎤᎩᎴᏍᏗ	-11.2321
ᏁᏤᎮᏍᏗ	-11.2321
▁ᏗᎬᏩᏂᎾᏝᎢ	-11.2321
▁ᎠᎫᎢᏍᏗᏍᎬᎢ	-11.2321
ᏑᏴᏁ	-11.2321
ᏙᎬᏛᏂᏏ	-11.2322
ᏌᏛᎥᏍᎬ	-11.2322
ᏍᏓᏴᎲᏍᎩ	-11.2322
▁ᎾᏆᏛᏅ	-11.2322
▁ᎨᎬᏍᎦᎳᏁ	-11.2322
▁ᏥᎨᎳᏗᏙᎮ	-11.2322
▁ᎧᏁᏨᎯ	-11.2322
▁ᎦᎧᎮ	-11.2322
▁ᎬᏩᏰᏍᏔᏁ	-11.2322
ᏩᏛᎡᎮ	-11.2322
ᏕᎪᏢᎾ	-11.2322
ᏣᏓᏅᎡᎸ	-11.2322
▁ᏘᎦᎵᏍᏙ	-11.2322
▁ᎤᎾᏣᎡ	-11.2322
▁ᎠᏂᏂᏜ	-11.2322
▁ᎬᎩᎸᏉᏗᎭ	-11.2323
ᏛᏓᎴᎲᏍᎩ	-11.2323
▁ᎤᏂᏴᏔᏂᎯᏍᏗᏱ	-11.2323
▁ᎠᎬᏂᏗᏳ	-11.2323
▁ᏛᎨᏥ	-11.2323
▁ᏥᎷᎩ	-11.2323
ᏓᏲᎵᏍᏗ	-11.2323
▁ᏗᎨᏥᏰᎯ	-11.2323
▁ᎤᏩᏴᏒ	-11.2323
▁ᏱᏗᏥᏳᎪᏓᏁ	-11.2323
▁ᏂᏥᎾᏰᏍᎬᎾ	-11.2323
▁ᎣᎩᏰᎸᏒ	-11.2323
ᏁᏉᏥ	-11.2323
▁ᎭᏓᏙᎵᏍᏗᏍᎬ	-11.2324
▁ᏕᏥᏁᏤᎭ	-11.2324
ᏒᏂᏍᏗᏱ	-11.2324
▁ᏓᏅᏗᏍᎬ	-11.2324
▁ᎭᏅᏓᏓ	-11.2324
▁ᎥᏞ	-11.2324
▁ᎢᏨᏲᎵᎦ	-11.2324
▁ᏗᏤᎵᏏ	-11.2324
▁ᎭᎵᏍᏕᎸ	-11.2324
▁ᏌᎵᎹ	-11.2324
▁ᎠᏱᏍᎨᏍᏗ	-11.2324
▁ᏗᎦᎵᏍᏙᏗ	-11.2324
▁ᏳᏃᎯᏳ	-11.2324
▁ᎠᏕᎰᎯᏍᏗ	-11.2324
▁ᏧᏂᎦᏯᎷᏗ	-11.2324
▁ᎢᎨᏓᏍᏗᏱ	-11.2324
ᎫᎢᏍᏙᏗ	-11.2324
▁ᎢᏲᎩ	-11.2325
ᏯᏛᎦᏁᎵ	-11.2325
▁ᎢᏥᏔᏲᎯᎮᏍᏗ	-11.2325
ᏗᏥᎦᏘᏯ	-11.2325
ᎬᏫᏳᏌᏕᎨᏍᏗ	-11.2325
▁ᎤᏓᏩᏗᏍ	-11.2325
▁ᎦᏃᏍᎩ	-11.2325
▁ᎡᏥᏙᎵᏨᎯ	-11.2325
ᏂᏌᏅᎯ	-11.2325
▁ᎢᏨᏯᏛᏁᏗᏱ	-11.2325
▁ᏚᎷᏆᏗᏅ	-11.2326
▁ᏕᏣᎧᏛ	-11.2326
▁ᏅᏓᎬᏩᏓᎴ	-11.2326
ᎩᎵᎨᏂ	-11.2326
▁ᎢᏯᏆᎵᏍᏓᏁᏗ	-11.2326
▁ᏕᎭᏕᏲᎲᏍᎬᎢ	-11.2326
▁ᎣᏥᏁᎦ	-11.2326
▁ᎤᎾᎦᏙᏍᏔ	-11.2326
▁ᏕᎬᏩᏂᎮᎢ	-11.2326
▁ᏫᏥᎶᎯ	-11.2326
ᏣᏕᎰᎯᏍᏗ	-11.2326
▁ᏗᏓᎴᎲᏍᎨ	-11.2326
▁ᎤᏤᏍᏙ	-11.2326
▁ᎢᎬᏩᎵᏍᏓᏁ	-11.2327
▁ᏦᏥᎦᏔᎭ	-11.2327
▁ᏱᏅᏗᎦᎵᏍᏙᏗᏍᎨ	-11.2327
▁ᏱᎦᏕᎣᏍᎦ	-11.2327
ᏂᏆᏘᎸ	-11.2327
▁ᏳᏲᎰ	-11.2327
▁ᏂᏨᏁᎭ	-11.2327
▁ᎢᏨᏍᏓᏩᏕᏅ	-11.2327
▁ᏗᏣᎵᏂᎪᎯᏍᏙᏗᏱ	-11.2327
▁ᎢᏦᎯᏳᎲᏍᎨᏍᏗ	-11.2328
▁ᎠᎩᏰᎸᏒᎩ	-11.2328
▁ᎤᏬᎯᏳᎯᏍᏛ	-11.2328
▁ᏗᏂᏍᎪᎵ	-11.2328
▁ᏚᏏᏔᏕ	-11.2328
▁ᎯᏍᎩᎦᏚ	-11.2328
ᎵᎥᏂᏍᏗᏱ	-11.2328
▁ᎢᏨᏁᏤᎲ	-11.2329
▁ᎥᎩᏍᏕᎸᏗᏱ	-11.2329
▁ᎤᏚᎢᏍᏓᏁᎸ	-11.2329
▁ᎦᎵᏦᏙᏗ	-11.2329
▁ᎠᏯᏙᎯ	-11.2329
▁ᏕᎦᏄᎪᎬ	-11.2329
▁ᎠᏥᎢᏍᏗ	-11.2329
ᏲᎯᏎᏗ	-11.2329
▁ᎨᏣᎷᏤᏗᏱ	-11.2329
▁ᎠᎩᏁᏉᏤ	-11.233
▁ᎠᏯᏠ	-11.233
▁ᏯᎩᏩᏛᎲ	-11.233
▁ᎠᏂᏔᏲᎯᎮᏍᏗ	-11.233
ᎦᏂᎩᏒ	-11.233
▁ᏕᎨᏥᏅᏩ	-11.233
▁ᎡᏥᏍᎦᏅᏤ	-11.233
▁ᏥᏂᏚᏩᏁᎸ	-11.2331
ᏍᏗᏰᏔᏅᎩ	-11.2331
▁ᏑᏓᎵᎦᎵ	-11.2331
▁ᏕᎨᎦᏛ	-11.2331
ᏄᎾᎵᏍᏓᏁᎰ	-11.2332
▁ᎠᏆᏓᏅᏘ	-11.2332
▁ᏫᏨᏲᏪᎳᏁᏗᏱ	-11.2332
ᏓᎡᎪᎢ	-11.2332
▁ᎢᏧᎾᏓ	-11.2332
▁ᏄᎾᏚᎵ	-11.2332
ᎵᏂᎪᎯᏍᏙᏗᏱ	-11.2332
▁ᎢᏙᎯᏳᎲᏍ	-11.2332
▁ᎢᏳᏂᏧᏈᏍᏗ	-11.2332
▁ᎠᎾᏗᏔᏍ	-11.2333
▁ᏕᏣᏕᏲ	-11.2333
▁ᎤᏓᏙᎵᏍᏔᏅᏎᎢ	-11.2333
▁ᏱᎦᎨᏎᏍᏗ	-11.2333
ᏛᏅᎢᏍᏓᏁᏗᏱ	-11.2333
▁ᎢᏥᎦᏔᎯᏳ	-11.2333
ᏍᏚᏞ	-11.2333
▁ᎠᏓᎩᎡ	-11.2333
ᎦᏟᎶᏍᏗ	-11.2333
▁ᎤᎴᏂᎴ	-11.2333
▁ᎤᎾᎪᎸ	-11.2333
ᎪᎲᏍᏔᏂ	-11.2333
▁ᎦᏰᏌᏛ	-11.2333
ᏯᏙᎮᎮᏍᏗ	-11.2333
▁ᎤᏒᎯᏰ	-11.2334
▁ᏘᏅᏏᏓᏍᏗ	-11.2334
▁ᎧᏁᎪᎢ	-11.2334
▁ᏧᏪᏲᎲᏍᎩ	-11.2334
ᏍᏓᏩᏕᏏ	-11.2334
▁ᎡᏥᏯᎡᏍᏗ	-11.2334
▁ᏙᏛᎠᎴ	-11.2334
▁ᎤᎦᏔᏔᏁᎢ	-11.2334
▁ᎢᏥᎩᎵᏲᎢᏍᏗᏱ	-11.2335
▁ᎠᏆᏙᎴᎰᏒ	-11.2335
▁ᏕᏣᏠᏱ	-11.2335
▁ᏳᎵᏍᎪᎸᏓᏁᎴ	-11.2335
▁ᎢᏣᏗᏔᏍᏗᏱ	-11.2336
▁ᎠᏎᎪᎩᏍ	-11.2336
▁ᏧᏭᎪᏓᏁᏗᏱ	-11.2337
ᏥᏯᏬᎥ	-11.2337
▁ᏧᏢᏫ	-11.2337
▁ᎬᏩᏂᏴᎮᎢ	-11.2337
▁ᏧᏲᎰ	-11.2338
ᏕᎫᎪᏓᏁᎰ	-11.2338
▁ᎤᏩᏓᎴ	-11.2338
▁ᎡᎩᏁᏗᏱ	-11.2338
ᎧᎲᏍᏗᏱ	-11.2338
▁ᏧᏂᏄᎪᏫᏍᏗᏱ	-11.2338
▁ᎦᎸᏉᏔᏅᎯ	-11.2339
▁ᎡᏥᏍᏕᎸᏗ	-11.2339
▁ᎨᏥᏛᎬ	-11.2339
ᎵᏁᏌᎸ	-11.2339
▁ᏥᏚᏲᏎ	-11.2339
▁ᎤᎦᏔᎲᏎ	-11.2339
▁ᏄᏂᏰᎸ	-11.234
▁ᏥᎦᏛᎦ	-11.234
ᎦᏡᏗᏍᎬ	-11.234
▁ᎢᎳᏍᏓ	-11.234
▁ᎠᏥᎸᏉᏙᏗ	-11.234
ᏣᏘᏃᎯᎮᏍᏗ	-11.234
▁ᏚᏲᏍᎨᏍᏗ	-11.234
▁ᏥᎦᏘᏏᏗᏢ	-11.234
▁ᎤᏂᏲᏍᏙᏗᏱ	-11.2341
▁ᎤᏍᏚᏁ	-11.2341
▁ᎢᎩᏍᏕᎵᎭ	-11.2341
▁ᎠᎾᏓᏟᏏᏍ	-11.2341
▁ᎬᎩᎷᏤᏗᏱ	-11.2341
▁ᏥᏓᎩᏂᏴ	-11.2341
▁ᏚᏂᏲᏒ	-11.2342
ᎦᏘᎴᏅ	-11.2342
▁ᏱᏥᏁᎦ	-11.2342
ᎩᎷᎯᏍᏗᏱ	-11.2343
ᏍᎩᏲᏎᎭ	-11.2343
▁ᎬᏩᏡᏗᏍᎬᎢ	-11.2343
▁ᎤᏍᏆᎸᎯᏗᏒᎩ	-11.2343
ᏂᎵᏅᏨ	-11.2343
▁ᏕᏨᏰ	-11.2343
▁ᎬᏃᏌ	-11.2344
▁ᏱᏥᏯᎠ	-11.2344
▁ᏚᏃᎸᏎᎢ	-11.2344
▁ᎮᎳ	-11.2344
ᏯᏛᎥ	-11.2344
▁ᏱᏥᎵᏓᏍ	-11.2344
▁ᎡᎵᎻ	-11.2344
ᎵᏃᎮᏗᏍᎨᏍᏗ	-11.2345
▁ᎢᏥᏂᏆᏘᎮᏍᏗ	-11.2345
▁ᎨᎫᏓᎴ	-11.2345
▁ᏂᏓᎾᏤ	-11.2346
▁ᏚᏪᏐ	-11.2346
▁ᎢᏤᏙᎮᏍᏗ	-11.2346
ᎵᏙᎮ	-11.2346
ᏓᏐᎮ	-11.2346
▁ᎤᎾᎦᏔᏅ	-11.2346
▁ᎢᏣᏓᏅᏓᏗᏍᏗᏱ	-11.2347
▁ᏧᏄᎪᏔᏅ	-11.2347
▁ᏦᎩᎾᏫᏱ	-11.2347
▁ᎡᏣᎵᎡ	-11.2347
▁ᏚᏘᏅᏒᎩ	-11.2348
▁ᏱᎾᎩ	-11.2348
ᏚᏪᎳᏗᏙ	-11.2348
ᎵᏍᎪᎸᏗᏍᎨᏍᏗ	-11.235
▁ᏧᎵᏂᎩᏗᏳ	-11.235
▁ᎤᏂᏁᏉᏤ	-11.235
▁ᏥᏕᏙᎭ	-11.235
▁ᎤᏗᎦᎵᏍᏙᏗᏍᎨᏍᏗ	-11.235
▁ᏫᏓᏗᏁ	-11.235
▁ᏫᏂᏣ	-11.2351
▁ᏧᎾᏄᎪᏤ	-11.2351
▁ᎤᏂᏁᎢᏍᏗ	-11.2352
▁ᎤᏕᏁᎢ	-11.2352
▁ᎤᏂᏃᎴ	-11.2352
▁ᎢᏥᎦᎵᏍᏓᏗᏍ	-11.2352
▁ᏧᏂᏲᎱᎯᏍᏗᏱ	-11.2352
▁ᏉᏏ	-11.2352
▁ᎡᎩᏩ	-11.2353
▁ᎠᎩᏍᏕᎵᏍᎩ	-11.2353
▁ᏂᏥᏰᎸ	-11.2353
▁ᏭᎷᏤᎴᎢ	-11.2353
ᏓᏓᎶ	-11.2354
▁ᏚᎾᎵᏂᎬᎬ	-11.2354
▁ᎤᏂᏛᏗᏍᎩ	-11.2354
ᏁᏉᏤᏗᏱ	-11.2355
▁ᎤᏗᎦᎵᏍᏙᏗᏍᎨ	-11.2356
▁ᏗᎨᎪᏍ	-11.2356
ᎿᏫ	-11.2356
▁ᎤᎾᏛᏅᎢᏍᏗ	-11.2356
▁ᎤᎾᏂᏢᏗᏱ	-11.2356
▁ᏙᏓᏦ	-11.2356
ᏯᏛᎩᎭ	-11.2356
ᎬᏩᏍᏗᏰᏔᏁ	-11.2356
▁ᏚᎸᏫᏍᏓᏁᎰᎢ	-11.2356
▁ᎩᎦᎨᎠᏗᏔᏍᏗ	-11.2357
▁ᎤᎾᏚᎸᏅᏗ	-11.2357
ᏕᏥᏲᏒ	-11.2357
▁ᏱᎬᏗᎭ	-11.2357
ᏬᏨᎯ	-11.2357
▁ᎣᎩᎷᏤᎸ	-11.2357
▁ᎠᏂᏁᏉᎨ	-11.2357
ᏱᎩᎵ	-11.2358
▁ᎤᏛᎾᏗᎦᎳᏫᎢᏍᏗᏱ	-11.2358
▁ᏚᏯᏙᎮ	-11.2358
▁ᏓᎩᎸᏫᏍᏓᏁᎸ	-11.2358
▁ᏚᎾᏓᏡᎬ	-11.2358
▁ᎬᏩᏍᏆᏗᏍ	-11.2359
▁ᎠᏛᏁᎯ	-11.2359
▁ᎢᏥᎶᏁ	-11.2359
▁ᎢᏤᏙᎸ	-11.2359
▁ᏥᎾᏰᏍᎦ	-11.2359
▁ᎢᏤᏅᏍᏗᏱ	-11.236
▁ᏍᎩᏯᏅᏛ	-11.236
ᎦᏔᎲᏍᎬ	-11.236
ᏥᏍᏢ	-11.236
ᎩᏰᎢ	-11.2361
▁ᏧᏂᏣᏔ	-11.2361
▁ᏚᏙᏢ	-11.2361
▁ᎤᏪᎳᏗᏍ	-11.2361
▁ᏧᏂᎷᏤᎸ	-11.2363
▁ᎤᏂᏱᎵᏙ	-11.2364
▁ᏒᏟ	-11.2364
▁ᏱᏙᎨᏥ	-11.2364
▁ᎬᏩᏍᏚᎢᏍᏗ	-11.2365
▁ᎢᏥᎷᏨᎭ	-11.2365
▁ᏩᎩᏴ	-11.2365
▁ᎯᏍᏓᏩᏗᏙᎯ	-11.2365
▁ᏧᏴᎴ	-11.2365
▁ᎠᏛᏍᎨᎢ	-11.2366
ᏤᎸᏍᎦ	-11.2366
ᏲᏞᏒ	-11.2367
ᏯᏁᏒ	-11.2367
ᏯᏅᎡᎵ	-11.2367
▁ᎤᏁᏓᏍᏗᏱ	-11.2367
▁ᎢᏥᏰᎸᏎᏍᏗ	-11.2368
▁ᎨᎵᏲ	-11.2368
ᎫᏓᎴᏍᎩ	-11.2368
▁ᏍᎩᎢᏍᏗᏱ	-11.2369
▁ᏫᎬᏩᎷᏤᎴ	-11.2369
▁ᏚᏃᎯᏳ	-11.2369
▁ᎢᏣᏓᏁᎮᏍᏗ	-11.2369
ᏮᏕᏨ	-11.2371
ᏂᏲᏏᏍᎩ	-11.2372
ᎵᏃᎮᏙᏗᏱ	-11.2372
▁ᏛᏇ	-11.2372
▁ᎠᎾᏛᎩᏍᎨ	-11.2372
▁ᎢᏥᎾᏄᎪᏫᏍ	-11.2373
▁ᎠᏥᎧᏅ	-11.2373
▁ᎢᏥᎦᏔᎯ	-11.2373
▁ᎠᎩᏃᎮᏍᎬᎢ	-11.2373
▁ᏕᎧᏅ	-11.2373
▁ᎠᏂᏍᏓᏩᏗᏒ	-11.2373
▁ᎤᎾᏗᏔᎲ	-11.2373
▁ᎢᏥᏲᎦ	-11.2374
▁ᎤᏲᎯᏍᏔᏅ	-11.2375
ᏐᎴᏍᏗ	-11.2376
ᏔᎳᏗ	-11.2376
ᏗᏧᎪ	-11.2377
▁ᎠᏆᏡᏗᏍᎩ	-11.2377
▁ᎤᎾᏛᏅ	-11.2377
▁ᎦᎵᎲ	-11.2377
ᏗᎦᏲᏥᏁ	-11.2377
ᏣᏛᎩᏍᎪ	-11.2377
▁ᎢᎦᏪᏍᏗ	-11.2378
ᏆᏒᏂᎸ	-11.2378
▁ᏗᎦᏥᏯ	-11.2379
▁ᏓᏳᏪ	-11.2379
ᎦᏓᎭ	-11.2379
▁ᏙᏛᏁᎵ	-11.2379
ᏣᏢᏆ	-11.238
▁ᎤᏍᎦᎴ	-11.238
▁ᎡᏥᏯᏅᎲ	-11.238
ᏂᏔᏫ	-11.238
ᎦᏃᎱᎩᏍᎬ	-11.238
▁ᎠᎾᏗᏍᎨᏍᏗ	-11.2381
▁ᎦᎧᎲ	-11.2381
ᏉᏑᎴ	-11.2382
▁ᎢᏗᎦᏘ	-11.2382
▁ᎡᏥᎸᏉᏓ	-11.2383
ᏍᏓᏩᏗᏙᎭ	-11.2384
ᎢᏍᏓᏁᎴ	-11.2384
ᎤᏁᎢᏍᏔᏅ	-11.2385
ᏃᎯᏯᏍ	-11.2385
▁ᏧᏏᏕ	-11.2388
▁ᏭᎪᎲ	-11.2388
▁ᏚᏂᏅᏅ	-11.2388
▁ᎠᎩᏯᎥᎢ	-11.2389
▁ᏣᎵᏂᎩᏛ	-11.239
ᏤᎶᎯ	-11.2391
ᏠᏱᎸᎩ	-11.2391
▁ᏕᏣᏬᏍ	-11.2391
ᏂᏍᏚᎢᏒᎩ	-11.2391
ᏱᎵᏕᎲᎢ	-11.2393
▁ᎢᏥᎦᏔᎰ	-11.2394
▁ᏂᏓᏅᏁ	-11.2395
▁ᎠᎦᏎᏍᏗ	-11.2395
ᎧᎲᏍᎩ	-11.2395
ᏁᎩᏎᎢ	-11.2396
ᏄᏬᏣ	-11.2397
▁ᎠᏥᎢᏍᏗᏱ	-11.2399
ᎬᏩᎵᏥᏍ	-11.2399
▁ᎨᏥᎾᏄᎪᏫᏎ	-11.24
▁ᏫᏚᏂᏁ	-11.24
ᏥᏍᏛᏗᏍᏙᏗ	-11.2401
ᏓᏁᏟᏴᏒ	-11.2402
ᏍᏚᎮᎢ	-11.2403
▁ᏥᏄᎾᏍ	-11.2404
ᎫᏴᎲ	-11.2405
▁ᎢᎨᏎᎢ	-11.2406
▁ᎢᏥᏁᎬ	-11.2406
▁ᏫᎦᏅᏅ	-11.2409
▁ᎭᎦᏌᏯᏍ	-11.2409
▁ᎢᏤᎵᏎ	-11.2413
▁ᏓᎧᎿᏩᏕ	-11.2415
▁ᎠᎪᏢᏅ	-11.2417
ᏄᏩᏅ	-11.242
▁ᎠᏲᎪ	-11.242
▁ᏱᏙᎩᎸᏫᏍᏓᏁ	-11.2421
▁ᎢᏥᏍᏕᎸᏗᏱ	-11.2423
▁ᎠᏆᏛᏅ	-11.2425
▁ᎣᏣᎵᏥᏙᎲᏍᎬ	-11.2425
▁ᏓᏂᏬᏂᏍᎬ	-11.2426
ᏕᏨᎩ	-11.2428
▁ᎬᏩᏛᏅ	-11.2428
▁ᎣᏣᏓᏙᎵᏍᏗᏍᎬ	-11.2428
▁ᏕᏦ	-11.2429
ᎩᏍᏚᎲᎩ	-11.243
▁ᎠᏉᎯᏳᏒ	-11.2434
▁ᎦᏌᏛᏍ	-11.2437
▁ᏕᏥᎵᎷ	-11.2437
ᎤᏨᏎᎢ	-11.2438
ᏓᏱᎮᏍᏗ	-11.2438
▁ᎤᎵᏠᏯᏍᏛ	-11.244
▁ᏙᏓᏨ	-11.2444
▁ᏂᏴᏁ	-11.2446
ᎤᎾᏓᏈᎬ	-11.245
ᏥᏲᎵᎭ	-11.2457
ᏥᎵᎥᏂᎵ	-11.2457
ᎵᏍᏛᏉ	-11.246
ᏓᏓᏅᏟ	-11.2464
ᏣᎦᏔᎲᏛ	-11.2465
▁ᎠᏁᎵᏍᎬ	-11.2465
▁ᎢᏣᏓᏑᏴ	-11.2466
▁ᏱᎾᎾᏛᏁᎰ	-11.2467
▁ᏫᏚᎷᏤᎴ	-11.2469
ᎤᎶᏎᎢ	-11.2471
▁ᏱᏄᎵᏍᏔᏁ	-11.2472
▁ᏂᎬᏩᏁᎸ	-11.2473
ᎬᏆᏛᎦᏁ	-11.2474
ᎩᎦᎨ	-11.2474
▁ᏥᏄᎾᎵᏍᏓᏁᎴ	-11.2478
ᏚᏬᏕ	-11.2479
▁ᎦᎵᏥᏙᎲᏍᎬ	-11.248
ᏣᏛᎩᎭ	-11.2485
ᏰᎢᎸᏍᏗᏱ	-11.2485
▁ᏱᏥᎦᏔ	-11.2486
ᏛᎲᏃ	-11.2487
▁ᏥᏅᏗᎦᎵᏍᏙᏗᏍᎨ	-11.2499
▁ᎭᎵᏥᏙᎲᏍ	-11.2501
▁ᏓᏥᏁ	-11.2513
▁ᎤᎵᏰᏔᏁ	-11.2513
▁ᎢᏣᏓᏅᏓᏛ	-11.2513
▁ᏪᏥ	-11.2516
▁ᏣᎦᏌᏯᏍ	-11.2518
ᎳᏗᏍᏗᏱ	-11.252
▁ᎾᏅᏁᎰ	-11.2522
▁ᏙᏓᎧ	-11.2522
▁ᏱᏍᏗᎦᏔ	-11.2525
▁ᏕᏥᎧᏅ	-11.2539
▁ᎤᎾᎦᏌᏯᏍᏙ	-11.254
ᎬᏩᎳᏁ	-11.2541
ᎾᏓᏛᏁᎭ	-11.2541
ᏕᎶᏆᎥ	-11.2544
▁ᏍᎩᏯᏕᎶᏆᎡ	-11.2549
ᎾᏓᏙᎵᏍᏗᏍᎪᎢ	-11.2552
▁ᏧᏭᎪᏓᏁ	-11.2552
▁ᎤᏛᏛ	-11.2567
ᏯᏓᏱ	-11.2572
ᏤᎵᎯᏍ	-11.2575
▁ᎤᎾᏓᏙᎵᏍᏔᏁ	-11.2579
ᎵᏁᏌ	-11.259
ᎤᏂᏃᏕᏅ	-11.2594
▁ᎠᏤᎸᏍ	-11.2596
ᏤᎵᎯᏍᎪ	-11.2597
▁ᎢᎤᎾᏨᏎ	-11.2598
▁ᎾᎾᏛᏁᎮ	-11.26
▁ᏍᎩᏂᏴ	-11.2605
ᏂᎳᏕ	-11.2608
ᏁᏥᏪᏏ	-11.262
ᏂᏱᎵᏙᎲ	-11.2621
▁ᎤᏚᏓᎳ	-11.2629
ᏍᎪᏂᎮ	-11.263
▁ᎭᎴ	-11.2637
ᏓᏚᏓᎳᎡ	-11.2642
▁ᎤᏓᏁᏟᏴᏎ	-11.2645
▁ᏩᏂᏴᎯ	-11.2646
ᏕᏨᏲᎯᏎᎸ	-11.2656
ᏓᏓᎴᏗᏍ	-11.2665
ᎵᏍᏚᎸ	-11.2668
▁ᏂᎬᏩᏪᏎ	-11.2668
▁ᎤᏕᏒ	-11.2676
ᏦᏪᎳᏁ	-11.2677
▁ᏄᏛᎿᏕᎬ	-11.269
ᏂᎨᎯᏙᎴ	-11.2691
ᎮᎵᏤᏗ	-11.2695
ᏚᏳᎯᏛ	-11.2701
▁ᎤᏙᏢ	-11.2702
▁ᎡᏣᏛᎦᏁᎸ	-11.2704
ᏚᏂᏁᏟᏴᏒ	-11.2705
▁ᎤᏪᏙᎵᏨ	-11.2705
ᏨᏁᎰ	-11.2722
▁ᎤᎾᏓᏅᏖᏔᏁ	-11.2723
▁ᏓᏰᏥᏄᎪᏫ	-11.2728
ᏥᏩᏛᎡ	-11.2732
▁ᎠᎾᏁᏍᎨᏍ	-11.274
▁ᎣᏨᏗᏍᎬ	-11.2743
ᎫᏢᏗ	-11.275
▁ᏱᏥᏩᏛ	-11.2752
▁ᎤᏂᏍᎫᏕᏒ	-11.2755
ᎯᏓᏍᏗᏱ	-11.277
▁ᏫᏚᎧᎿᏅ	-11.2781
ᎯᏐᏗ	-11.279
▁ᏗᏤᎳᏍ	-11.2792
ᎬᏬᎵᏤᎢ	-11.2797
▁ᎣᎬᏔᏅ	-11.281
ᎩᏐᏢ	-11.281
ᏥᏃᏁᏗᏱ	-11.2813
▁ᏥᏯᎵᏍᎦᏍᏙ	-11.2816
▁ᏴᎨᏨ	-11.2824
▁ᎤᎾᏨᏎ	-11.283
ᏑᎵᏍᎬ	-11.2836
▁ᎧᏃᎮᏍᎨ	-11.2844
▁ᏱᏗᏥᎸᏫᏍᏓᏁ	-11.2853
▁ᏣᎾᎥ	-11.2855
▁ᎤᏪᏢᏅ	-11.2865
ᎾᏓᏛᎥᏍ	-11.2868
ᏍᏚᏟᏍ	-11.2878
▁ᏄᎾᎵᏍᏓᏁᎲ	-11.2884
ᎦᏥᏍᎦᏅᏤ	-11.2896
▁ᎢᎨᏐ	-11.2908
▁ᏪᏙ	-11.2912
▁ᏳᏪᎵᏎ	-11.2931
▁ᎤᏲᏏᏍᎨ	-11.2932
ᏟᏂᎬᏁᎰ	-11.2957
▁ᎠᏓᏰᎮ	-11.296
ᏍᎫᏕᏍᎪᎢ	-11.2964
ᏗᎬᏩᎧᏃᏗ	-11.2964
▁ᎤᎵᏍᏕᎸᏙ	-11.2966
▁ᎠᏥᎪᎵᏰᎥ	-11.2987
▁ᏥᏚᏄᎪ	-11.2997
ᏚᏭᎪᏓᏁᎴ	-11.2997
▁ᏱᏣᏙᎴᎰᏍ	-11.3002
ᏘᏃᎮᎴ	-11.3005
▁ᎤᏕᏒᏅ	-11.3012
ᎦᏘᏏᏗᏢ	-11.302
▁ᎬᏩᎾᏕ	-11.3023
ᏕᎤᎸᏫᏍᏓᏁᎭ	-11.303
ᏖᎳᏗᏍ	-11.3039
ᎵᏍᏓᏴᎲᎦ	-11.3042
▁ᏗᏣᎸᏫᏍᏓᏁᏗ	-11.3057
ᎵᏩᏛᎡᎲᎢ	-11.3059
▁ᎦᎷᏥ	-11.306
ᏏᏌᏁ	-11.3061
▁ᎢᏣᏛᏁᎲ	-11.3064
▁ᎦᎵᏥᏙᎲᏍ	-11.3077
▁ᎨᏥᏐᏅᎢᏍᏔᏅ	-11.308
▁ᎬᏩᎪᎵᏰᏍᎬ	-11.3115
▁ᏂᏚᏅᏁᎸ	-11.3126
▁ᎨᏣᎦᏙᎥᎯᏍᏗ	-11.3162
ᏗᎦᎶᏍᎬ	-11.3174
▁ᎤᎷᎯᏍ	-11.3183
ᎦᎾᏬ	-11.3201
▁ᏗᎧᎾᏩ	-11.3209
ᏐᏢᏙᏗ	-11.3213
ᎪᎵᏰᎥ	-11.3213
ᎨᎶᎰ	-11.3231
▁ᎥᎩᎸᏉ	-11.3233
▁ᎬᏩᏂᎾᏄᎪᏫᏒ	-11.3299
▁ᏙᎤᏁᏅ	-11.3321
▁ᎢᏣᏄᏬᏍ	-11.3334
▁ᎠᏓᏯᏅ	-11.3336
ᏥᎾᏝᎢ	-11.3346
ᏓᏁᎴᏍᏗ	-11.3354
▁ᏣᏓᏰ	-11.3369
▁ᎠᏆᏓᏅᏒ	-11.3378
ᏁᏟᏴᎡᏗ	-11.338
ᎿᎠ	-11.3386
ᎾᏅᎥ	-11.3392
ᎤᎾᏣᏅ	-11.3394
ᎾᏓᏙᎵᏍᏓᏁᎲ	-11.3395
ᏎᎪᎩᏍᏗ	-11.3427
ᎾᏗᏅᏎ	-11.3432
▁ᎤᏁᏅᎢᏍᏗ	-11.3435
ᏣᏠᏯᏍᏗᏍ	-11.3438
ᏛᏗᏕᎨ	-11.3465
▁ᏥᏯᏙᎵ	-11.3474
ᏲᏍᏗᏍᎬ	-11.3479
ᎳᏅᏓᏕᎸ	-11.3517
▁ᎯᏃᎮᏍᎬ	-11.3519
▁ᏱᏓᎧᎿᏩᏕ	-11.3521
ᎦᎵᏍᏓᏗᏍᏗᏱ	-11.3555
ᏕᏥᎤᏍᏕᏎᎸ	-11.3579
▁ᎤᏩᏂᎸ	-11.359
▁ᎤᏂᏁᏒ	-11.361
ᏦᏢᏅᎯ	-11.3613
▁ᎤᎵᏠᏯᏍ	-11.3616
▁ᎤᏬᎯᏳᏅ	-11.3648
ᏚᏂᏴᏍᏕ	-11.3649
▁ᎢᏨᏗᏍᎪ	-11.3652
ᏕᏨᏁᏍᏗ	-11.3667
ᎵᎮᎵᏍᏗ	-11.3668
▁ᎤᏂᏄᎪᏫᏒ	-11.3671
▁ᏤᏥᏲᎯᏎᎸ	-11.3691
ᏗᎣᏈ	-11.3722
▁ᏱᏚᏂᎸᏫᏍᏓᏁ	-11.3726
▁ᏴᎬᏩ	-11.3782
▁ᏥᏣᏚᎵ	-11.3784
▁ᎬᎩᏰᎸ	-11.3832
ᎬᏫᏳᏌᏕ	-11.3841
ᏍᏓᏩᏗᏎᎢ	-11.3873
ᏣᏛᏁᎮᏍᏗ	-11.3895
ᎦᎾᏄᎪᎬ	-11.3897
▁ᏗᏗᏲ	-11.3908
▁ᎤᏂᎦᏯᎷ	-11.3916
ᏣᎵᏍᎪᎸᏓᏁ	-11.3917
ᏄᏅᏁᎴ	-11.393
▁ᎠᎢᏎ	-11.3953
ᏓᏃᏴᎵᏍ	-11.3988
ᏥᏁᎰᎢ	-11.4009
ᎨᎦᏛᏅᎢᏍᏓᏁᎸ	-11.4012
ᏣᏓᏙᎵᏍᏓᏁᎮᏍᏗ	-11.4019
ᎵᏰᏅ	-11.4041
▁ᎠᎾᏁᎷᎩ	-11.4045
▁ᎡᏣᏚ	-11.4059
ᏂᏍᏚᏁ	-11.4064
▁ᎤᏂᏴᎮ	-11.4092
ᏥᏰᎸᎾᏁᎰᎢ	-11.4093
▁ᏗᎦᏤᎵ	-11.4161
▁ᎬᏩᏘᏃᎸ	-11.4192
▁ᎬᎩᎦᏔ	-11.4225
ᎦᏟᎶᎡᎸ	-11.4227
ᎾᏄᎪᎬ	-11.4239
ᏖᏃᎯ	-11.4286
▁ᎤᎵᎮᎵᏤᎸ	-11.4307
ᏴᏍᏕᏍᎬ	-11.4313
ᎺᏌᏯ	-11.4342
ᏥᎦᏖᏃᎭ	-11.4352
▁ᎣᎬᏙᏗ	-11.4358
ᏂᎦᏪ	-11.4372
▁ᏗᏧᎪᏓᏁ	-11.4384
▁ᎠᎾᏓᏙᎵᏍᏗᏍ	-11.4421
ᎾᏄᎪᎨᏍᏗ	-11.4427
ᏥᏱᎵᏙ	-11.4537
▁ᎬᎩᎷᏤ	-11.4583
ᏥᏯᏓᏙᎵᏍᏓᏁᎭ	-11.4609
▁ᎨᏣᎪᏩᏛᏗ	-11.4623
ᏥᏲᏍᏓ	-11.4639
ᎦᏖᏃᎭ	-11.4675
ᎬᏩᏘᏃᎮᎴ	-11.4675
▁ᎺᏌ	-11.4685
ᏆᏓᏅᏖᎸᎩ	-11.4721
ᏚᏓᎴᏍᏗᏍᎬ	-11.4761
ᏚᎢᏍᏔᏅᎢ	-11.4803
ᏟᎶᎡᎸ	-11.4806
▁ᎨᏥᏅᏏᏙ	-11.4814
ᎦᏥᏯᏓᏙᎵᏍᏓᏁᎭ	-11.4851
▁ᎤᎾᎵᏍᎦᏍᏙ	-11.4897
▁ᎠᎾᎵᏥᏙᏂᏙ	-11.4931
▁ᏕᏓᏓ	-11.4935
ᏣᏪᏎ	-11.4955
ᏣᏚᎵᏍᎬ	-11.4981
ᏲᎯᏎᎲ	-11.4998
▁ᎠᎾᏁᎷᎩᏍ	-11.5002
▁ᏱᏣᏓᏅᏖ	-11.5105
▁ᎤᏃᏒ	-11.5209
ᏣᎵᎮᎵᏍᏗ	-11.523
▁ᏧᎾᏨᏍᏗ	-11.5305
ᎧᎯᏯᏍ	-11.5307
ᏥᎥᎡ	-11.5318
▁ᎬᏩᏡᏗᏍ	-11.5341
ᏥᏲᎢᏳᏓᏁᎭ	-11.5389
ᏗᏗᏐ	-11.539
ᏣᎳᏏᏕᏂ	-11.5452
▁ᏗᎧᎿᏩ	-11.5494
ᏪᏅᏎ	-11.5497
ᎵᎪᏁᎸᎩ	-11.5498
ᎩᎲᎡ	-11.5521
ᎵᏥᏙᎲᏍᎩ	-11.5526
▁ᎤᎾᏛᏅᎢᏍᏔ	-11.5536
ᎶᏐᏅᎯ	-11.5538
ᏪᏎᎮᎢ	-11.5541
ᏂᎸᏫᏍᏓᏁᎸ	-11.5544
ᏚᏂᏅᏨ	-11.558
ᎴᎯᏌ	-11.5605
ᏥᎳᏅᏓᏕ	-11.5638
ᏥᎯᎮᏍᏗ	-11.5654
▁ᎨᏣᏙᎴᎰᎯ	-11.5656
▁ᏂᏍᏋ	-11.5662
▁ᎠᎾᏓᏙᎵᏍᏓᏁ	-11.5717
ᏧᎪᏓᏁᎯ	-11.5747
▁ᎠᏆᏡᏗ	-11.5748
ᏣᏛᎪᏗ	-11.5753
ᏣᏘᏃᎦ	-11.5785
ᏂᎦᏪᏍᎨᏍᏗ	-11.5832
ᏥᎨᏳ	-11.5837
▁ᏱᏥᏲᏍ	-11.5894
ᏂᎪᎵᏰᎥ	-11.593
ᏴᏓᏆᎶᎥᎩ	-11.5948
▁ᎢᏥᎶᏄᎮ	-11.5989
ᏂᏲᎱᎯᏍᏗ	-11.6001
ᏃᏴᎵᏍ	-11.6052
▁ᏗᏧᎪᏓ	-11.6075
ᏣᏓᏁᎮᏍᏗ	-11.6076
ᏕᏯᏔᏁᎭ	-11.6107
ᎦᏠᏯᏍ	-11.6113
▁ᎠᏂᎦᏖᏃ	-11.6124
ᏂᏍᎦᎢᎲ	-11.6152
▁ᏄᎬᏫ	-11.6155
ᏧᎾᏄᎪᏨ	-11.6161
▁ᎠᎩᎪᎵᏰ	-11.618
ᏣᎵᏍᎦᏍᏙᏛ	-11.6187
ᎪᎳᏗᏴᏗ	-11.6188
ᎵᎮᎵᎦ	-11.6237
ᎨᏥᏃᎮᎮ	-11.624
ᏯᏙᏤᎮᏍᏗ	-11.6261
ᏆᏗᏅᏛ	-11.6262
▁ᎦᎨᏥᏐᏢ	-11.6281
ᏄᎪᏫᏍᎨᎢ	-11.6289
▁ᏚᏭᎪᏓᏁ	-11.6294
ᏏᏔᏕ	-11.6301
▁ᎬᏩᎪᏁᎶᎯᏎ	-11.6314
ᏚᏓᎳᎡ	-11.6331
▁ᎠᏢᏆᏍ	-11.6343
▁ᎢᏣᏓᏙᎵᏍᏓ	-11.639
ᏥᏯᏅᏔᏅ	-11.6394
ᏰᎢᎶᎯ	-11.6397
▁ᏓᏂᏬᏂ	-11.6438
ᎩᎷᏤᎭ	-11.6454
ᏩᏛᎡᎲᎢ	-11.6458
ᏍᎫᏓᏛ	-11.6459
ᏚᏄᎪᏔᏅ	-11.6475
ᎾᎵᏍᎪᎸᏗ	-11.6506
▁ᏥᎧᏁᎢᏍᏗ	-11.6519
ᏁᏯᏔᎲ	-11.653
ᏥᎾᏄᎪᏫᏎᎸ	-11.655
ᏯᏏᏔ	-11.6552
▁ᎢᏨᏯᎵᏥᏙᏁ	-11.6554
ᎧᏙᏴ	-11.6584
ᏓᏥᏩᏛᎯᏃ	-11.6607
▁ᎢᏳᎵᏍᏓᏁ	-11.6608
ᏓᏅᏓᏗᏍᏔᏅᎯ	-11.6615
ᏂᎷᏤᎸᎩ	-11.6638
▁ᎨᏥᏂᏆᏘ	-11.6702
▁ᎠᎴᏂᏙᎲ	-11.6711
ᏟᏍᏗᏍᎪᎢ	-11.6718
▁ᎢᏣᏓᏅᏓᏗᏍ	-11.6724
▁ᎡᏣᏛᎦᏁ	-11.6748
ᏍᏓᎦᏔ	-11.6754
ᎦᏓᏅᏏ	-11.6755
ᎩᎳᎾᎳᏗᏍ	-11.6767
ᏲᎱᎯᏎᎴᎢ	-11.6829
ᏙᎵᏨᎢ	-11.6835
ᏓᏙᎵᏍᏔᏁᎢ	-11.6844
▁ᏳᏜᏏᏛ	-11.6852
▁ᏂᎦᏥᏴᏁ	-11.6873
▁ᏣᎵᏂᎩ	-11.688
▁ᏗᎧᏃᎩ	-11.6882
ᎶᏁᏔᏅ	-11.6895
ᏚᎾᏛ	-11.6932
ᎩᎨᏳᏒᎢ	-11.6942
▁ᏍᎩᏯᏕᎶᏆ	-11.6951
ᎬᏩᏓᏙᎵᏍᏓᏁ	-11.6987
ᎵᎮᎵᏥ	-11.6991
ᎪᎯᏳᎭ	-11.6997
▁ᎦᎵᎮ	-11.7044
▁ᎡᏗᏔᏲ	-11.7064
ᏓᏑᏴᎢ	-11.7075
ᏕᏙᎲ	-11.7082
ᏥᏙᎲᏍᎬ	-11.7094
ᏓᏛᏁᎲᎩ	-11.7116
▁ᎥᏓᏗ	-11.7117
ᏗᎤᏨᏎ	-11.7128
ᏯᏓᏅᏓᏗᏍᏔᏅ	-11.713
▁ᎣᏣᏓᏙᎵᏍᏗᏍ	-11.7141
▁ᎠᎩᏍᏛᏗ	-11.7158
▁ᎨᎦᎵᏍᎪᎸᏓᏁ	-11.7166
ᎷᎯᏍᏔᏅ	-11.7167
▁ᎤᏪᎵᎯᏍ	-11.717
ᏍᏓᏩᏕᏒᎭ	-11.7172
▁ᎠᏥᏍᏛᏗᏍ	-11.7191
▁ᏕᏣᏁᎶᏛ	-11.7194
▁ᏄᎵᏍᏔᏂᏙ	-11.7199
▁ᎬᏩᎪᎮ	-11.72
ᏍᎫᏕᏍᎬ	-11.7202
ᎩᎳᎾᎳ	-11.7203
ᎦᎾᏩ	-11.7207
▁ᎠᎧᎵ	-11.7211
ᏥᏁᎢᏍᏓ	-11.7211
ᏍᏆᏂᎪᏎᎴ	-11.7217
▁ᎤᎾᏠᎾᏍ	-11.722
ᏔᏲᎯᎮᏍᏗ	-11.7223
ᏥᏬᏁᏔᏅ	-11.7227
▁ᏭᏂᏴᎸ	-11.7232
▁ᎤᎾᏓᏙᎵᏍᏓᏁᎸ	-11.7235
ᏔᏕᎩᏍᎨ	-11.7236
▁ᎤᎸᏓᎸᎥᏍ	-11.7238
ᏂᏚᏩᏁᎸ	-11.7241
ᏘᎾᏫᏗᏍ	-11.7243
ᎪᏩᏘᏍᎨ	-11.7243
ᏓᏴᏙᏗ	-11.7246
ᎵᎮᎵᎨᎢ	-11.7247
▁ᎤᏂᏰᎸᏒ	-11.7248
▁ᎣᏣᎵᏥᏙᎲᏍ	-11.7252
ᏠᎠᏒ	-11.7253
ᎵᏍᏙᏰᏗ	-11.7253
▁ᎧᏃᎯᏰ	-11.7257
ᏄᏩᏁᎸ	-11.7257
ᏥᏙᎵᏨ	-11.7258
ᏓᏅᏖᎸᎢ	-11.7261
ᎤᏁᎫ	-11.7263
ᎬᏩᏛᏛᏅᎩ	-11.7263
ᏚᏓᏂᎸᏤ	-11.7264
ᏄᎯᏍᏗᏍᎬ	-11.7264
ᏂᏙᎾᎡ	-11.7264
ᏰᏙᎳᏛ	-11.7264
ᎬᎭᎸᏛ	-11.7265
▁ᎤᎵᏍᎪᎸᏔᏅ	-11.7265
ᎤᎾᏛᎪᏗᏱ	-11.7266
ᎤᏂᎷᏤᎢ	-11.7266
ᎾᏂᎥᎩ	-11.7267
ᏚᎾᏙᎥ	-11.7267
ᎨᏳᏣ	-11.7267
ᏕᎤᏙᎥ	-11.7268
▁ᎢᏳᎾᎵᏍᏓᏁ	-11.7268
ᎤᏚᎵᏍᎬ	-11.7268
ᎠᏥᎸᏉᏗᏳ	-11.7269
ᎤᏣᏘᏂ	-11.7269
ᎠᏙᎴᎰᏍᎩ	-11.7269
ᎡᏆᎭᎻ	-11.7269
ᏧᎬᏩᎶᏗ	-11.7269
ᏧᏙᎢᏛ	-11.7269
ᏗᎵᏍᏓᏴᏗᏱ	-11.7269
ᏠᎨᏏ	-11.7269
ᎬᏂᏳᏉ	-11.727
ᎾᎬᏁᎸ	-11.727
▁ᏱᏥᏩᏘ	-11.7272
ᎵᏍᏈᏗ	-11.7273
ᏚᏂᏐᎯᏍ	-11.7276
▁ᎬᏔᏲᏎ	-11.7278
▁ᏗᎨᏧᎪ	-11.7279
▁ᏫᎨᏥᏲᎵ	-11.7279
ᏚᏙᎥ	-11.7281
▁ᏥᏂᎦᎵᏍᏗ	-11.7281
ᏓᎵᏂᎪᎯᏍᏙᏗ	-11.7282
ᎵᏥᏙᏁᎭ	-11.7284
▁ᎢᏥᎩᎵᏲᎢᏍᏗ	-11.7285
ᎶᏄᎮᏗ	-11.7287
▁ᎢᎬᏪᏅ	-11.7287
ᏯᏙᎮᎮ	-11.7287
ᎫᏴᎡᎲ	-11.7288
ᏓᏙᏕᏍᏗᏍᎩ	-11.7291
▁ᎢᏓᎵᎮᎵ	-11.7293
ᏥᏰᎲᎾ	-11.7293
▁ᎢᏰᏨᏁ	-11.7294
ᏣᏓᏅᏖᏍᏗ	-11.7295
ᏃᎯᎵᏙᎯ	-11.7296
ᏆᎵᏍᎪᎸᏓᏁᎸ	-11.7298
ᎦᏕᎣᏍᎦ	-11.7298
ᏂᏣᏛᏅ	-11.7299
ᏂᏂᏴᏗᏱ	-11.7299
ᏪᏲᎲᏍᎩ	-11.73
ᏓᏂᏯᏛ	-11.7302
ᏙᎾᎥᎩ	-11.7304
▁ᏓᏂᏴᎨ	-11.7304
ᎵᏍᏔᏂᏓᏍᏗ	-11.7305
ᏥᎵᎥᏂᏍᏗ	-11.7306
ᏧᏓᎴᏅ	-11.7306
ᏓᏁᏣᏍᏚ	-11.7307
ᏓᏘᎾᎥ	-11.7308
ᏛᏍᏆᎸᎯ	-11.7308
ᏓᎵᏌᎳᏗ	-11.7309
▁ᎯᏍᎫ	-11.7309
ᏣᎸᏫᏍᏓᏁᎮᏍᏗ	-11.7309
▁ᏧᏬᏢ	-11.731
ᏕᏯᏔᏁᎮ	-11.731
ᏙᏣᏁ	-11.731
ᎵᏃᎯᏴᎯ	-11.7313
ᏓᎦᎵᏍᏙᏔᏂ	-11.7313
▁ᏗᏂᎧᎿᏩᏗ	-11.7314
ᏣᎵᏥᏙᎲ	-11.7314
ᏍᏓᏩᏗᏎᏍᏗ	-11.7314
▁ᎤᏃᎱᎦ	-11.7314
ᏐᏢᎢᏍᏔ	-11.7314
ᎩᏍᏛᏗᏍᏗ	-11.7314
ᏍᎩᏅᏗᏍᏗ	-11.7314
ᎦᏔᎿᎥᎾ	-11.7315
▁ᏱᏗᎨᏥ	-11.7315
ᏓᏡᏩᏗᏒ	-11.7316
ᎾᏗᎦᎴᏲ	-11.7316
ᏣᏬᏍᏔᏂ	-11.7316
ᏓᎿᏍᏆᎶᏍᏗ	-11.7316
ᏐᏢᏗᏍᎩ	-11.7316
Ꮍ	-11.7316
ᎡᏣᏟᎶᎡ	-11.7316
▁ᎠᏂᎦᏯᎷᎥᏍᎨᎢ	-11.7316
▁ᎤᎾᎴᎾᏫᏍ	-11.7316
▁ᎤᏙᏯᏅᎯᏕ	-11.7316
▁ᎦᎳᏍᏢ	-11.7316
▁ᎨᏣᏁᏄᎳᏍᏗ	-11.7316
▁ᏓᏓᏪᎵᎩᏍ	-11.7316
ᎢᏗᎬᏤᎵᏛ	-11.7316
ᎤᏃᎯᏳᏓᏁᎯ	-11.7316
ᎤᏫᏞᏫᏒ	-11.7316
ᎦᎷᎶᏥᏙᎲ	-11.7316
ᎩᎵᏲᏥᏙᎲᎢ	-11.7316
ᎩᎵᏲᏥᏙᎸᎢ	-11.7316
ᎬᏋᏁᏗ	-11.7316
ᎬᏩᏓᏟᏌᏁᎴᎢ	-11.7316
ᎬᏯᎫᏴᎡᎸ	-11.7316
ᏂᎪᎵᏰᎠ	-11.7316
ᏂᏗᏥᏲᏕᏍᏗᏍᎬᎾ	-11.7316
ᏂᏚᏑᏰᏐ	-11.7316
ᏅᏓᏥᏪᏎᎵ	-11.7316
ᏆᎵᏥᏙᏅ	-11.7316
ᏋᎿᏕ	-11.7316
ᏋᏂᏍᏗᏱ	-11.7316
ᏍᎩᎾᏛᏂᏏ	-11.7316
ᏍᏓᏩᏙᎸᎯ	-11.7316
ᏓᎦᎸᎥᎦ	-11.7316
ᏓᏅᎵᏰᎡ	-11.7316
ᏓᏡᏩᏍᏗᏕ	-11.7316
ᏙᏑᎴᎥᎩ	-11.7316
ᏚᎾᏄᏩᎡ	-11.7316
ᏚᎾᏚᏫᏍᏔᏁᎢ	-11.7316
ᏣᎵᏂᎪᎯᏍᏔᏂ	-11.7316
ᏥᎵᎥᏂᎮᏍᏗ	-11.7316
ᏥᏮᏗᎦᎶᏏ	-11.7316
ᏬᎯᎵᏴᏍᏓᏁᎲᎢ	-11.7316
ᏬᎯᎵᏴᏍᏓᏁᏗ	-11.7316
ᏯᎧᎯᏴᎩ	-11.7316
ᏴᏋᏁᎸᎯ	-11.7316
▁ᎠᎦᎫᏴᏓᏁᎮᏍᏗ	-11.7316
▁ᎠᎪᏪᎶᏔᏅᎯ	-11.7316
▁ᎠᎵᏍᏓᏴᎲᏍᎨᏍᏗ	-11.7316
▁ᎠᏁᎷᎲᏍᎬ	-11.7316
▁ᎠᏂᎨᏕᎳ	-11.7316
▁ᎠᏂᏅᏜᎡᎢ	-11.7316
▁ᎠᏂᏍᎫᏕᏍᎩ	-11.7316
▁ᎠᏅᏳᏤᎲ	-11.7316
▁ᎠᏍᎪᏂᏗᏢ	-11.7316
▁ᎠᏓᏁᏤᎯ	-11.7316
▁ᎠᏚᎳᏗᏍᎨᎢ	-11.7316
▁ᎠᏜᏩᏍᏗᏍᎨᏍᏗ	-11.7316
▁ᎠᏦᎳᏅ	-11.7316
▁ᎠᏩᏂᎦᎳ	-11.7316
▁ᎠᏯᏍᏜᏗᏍᎩ	-11.7316
▁ᎡᎻᏂᏓᏈ	-11.7316
▁ᎡᏓᎵᎡᎵ	-11.7316
▁ᎡᏙᎢᏳᏒᎢ	-11.7316
▁ᎡᏣᎱᏍᏕᏎᎸᎯ	-11.7316
▁ᎢᎡᏣᏕᏯᏙᏗ	-11.7316
▁ᎢᎤᎷᏤ	-11.7316
▁ᎢᎦᎤᏘᏍᏛ	-11.7316
▁ᎢᎦᎵᎪᏁᎯ	-11.7316
▁ᎢᎦᏓᏄᏴᏛ	-11.7316
▁ᎢᎨᎬᎾᏕᎩ	-11.7316
▁ᎢᎨᏣᎵᏍᏓᏁᏗ	-11.7316
▁ᎢᎩᎩᎵᏲᎢᏍᏗ	-11.7316
▁ᎢᎬᏩᏙᏢᏔᏁ	-11.7316
▁ᎢᏍᎩᏌᏛᎥᏍᎦ	-11.7316
▁ᎢᏍᏛᎨᏳᎢ	-11.7316
▁ᎢᏓᎵᏍᏓᏴᏗᏍᎬᎢ	-11.7316
▁ᎢᏣᎦᏌᏯᏍᏓ	-11.7316
▁ᎢᏣᎴᏂᏙᎸ	-11.7316
▁ᎢᏣᏓᏅᏔᏩᏕ	-11.7316
▁ᎢᏣᏚᎸᏗᏱ	-11.7316
▁ᎢᏣᏛᏅᎢᏍᏕᏍᏗ	-11.7316
▁ᎢᏣᏠᎾᏍᏛ	-11.7316
▁ᎢᏥᎧᎵᏣ	-11.7316
▁ᎢᏥᏙᏙᏱ	-11.7316
▁ᎢᏨᎨᏳᏒᎢ	-11.7316
▁ᎢᏨᎩᎵᏲᏤᎲ	-11.7316
▁ᎢᏨᏃᎮᎮᎭ	-11.7316
▁ᎢᏨᏬᏁᏗᏍᎬ	-11.7316
▁ᎢᏨᏯᏛᏓᏍᏓᏁᏗᏱ	-11.7316
▁ᎢᏨᏰᏯᏔᏅᎢ	-11.7316
▁ᎢᏲᏨᏴᏁᏗᏱ	-11.7316
▁ᎣᎦᏓᏅᏘᏳ	-11.7316
▁ᎣᏁᏏᏉᎳ	-11.7316
▁ᎣᏤᏙᎲᎢ	-11.7316
▁ᎣᏥᏔᏲᎯᎲ	-11.7316
▁ᎤᎳᏍᏚᏒ	-11.7316
▁ᎤᎵᏯᏍᏚᏁ	-11.7316
▁ᎤᎷᏦᏅᎯ	-11.7316
▁ᎤᎾᏕᎰᎯᏍᏗᏍᎩ	-11.7316
▁ᎤᎾᏕᏯᏔᏁᎴᎢ	-11.7316
▁ᎤᏁᏐᎠᏒᎩ	-11.7316
▁ᎤᏂᎪᎯᏙᎸᎯ	-11.7316
▁ᎤᏂᎪᏁᎶᎯᏌᏘ	-11.7316
▁ᎤᏂᏂᏆᏘᏍᏗ	-11.7316
▁ᎤᏂᏐᏅᏤᎴᎢ	-11.7316
▁ᎤᏂᏝᏗᏤ	-11.7316
▁ᎤᏂᏩᏒᎥᏍᎩ	-11.7316
▁ᎤᏍᏆᎳᎯᏳ	-11.7316
▁ᎤᏍᏢᏂᏍᏗᏍᎩ	-11.7316
▁ᎤᏓᏠᏍᏕᎢ	-11.7316
▁ᎤᏪᎧᎯᏴ	-11.7316
▁ᎤᏪᏯᎸᏅᎩ	-11.7316
▁ᎤᏲᎱᎯᏎᎸᎯ	-11.7316
▁ᎥᏥᏯᏛᎦᏁᎸᎩ	-11.7316
▁ᎦᏃᎯᎵᏒᎩ	-11.7316
▁ᎦᏬᏂᏒᎯ	-11.7316
▁ᎨᏧᎯᏍᏗᏍᎩ	-11.7316
▁ᎪᎯᏳᎲᏍᎬ	-11.7316
▁ᎪᎴᏏᏂ	-11.7316
▁ᎬᏆᏚᎸᏗ	-11.7316
▁ᎬᏩᎦᏌᏯᏍᏕ	-11.7316
▁ᎬᏩᏂᏲᏥᏙᎸ	-11.7316
▁ᎬᏩᏍᏓᏩᏙᎯ	-11.7316
▁ᎭᏙᎴᎰᎯ	-11.7316
▁ᎮᏏᎦᏯ	-11.7316
▁ᎶᏉᎹ	-11.7316
▁ᎾᎦᏔᎾᎥᎾ	-11.7316
▁ᎾᎾᏓᏁᏟᏴᏏᏒ	-11.7316
▁ᎾᏆᎵᎪᏁᎲᎾ	-11.7316
▁ᎾᏆᎵᏍᏓᏁᎵᏙᎲᎢ	-11.7316
▁ᏂᎦᏛᏁᎵᏙᎸᎢ	-11.7316
▁ᏂᎨᏥᏪᏎᎮᏍᏗ	-11.7316
▁ᏂᎨᏥᏪᏎᎲ	-11.7316
▁ᏂᎩᏴᏁᎸ	-11.7316
▁ᏂᎬᎩᏲᎸᎾ	-11.7316
▁ᏂᏍᎩᏴᏁᎸ	-11.7316
▁ᏂᏓᏛᏓᏍᏓᏁᎲᎾ	-11.7316
▁ᏂᏓᏟᎶᏍᏓᏁᎲᎾ	-11.7316
▁ᏂᏕᏣᏓᏛᏁᎮᏍᏗ	-11.7316
▁ᏂᏗᏣᏓᏕᎵᏎᎲᎾ	-11.7316
▁ᏂᏗᏣᏢᏫᏎᎲᎾ	-11.7316
▁ᏂᏙᏓᏳᏂᎶᏒᎯ	-11.7316
▁ᏂᏙᏣᎵᏍᏓᏁᎭ	-11.7316
▁ᏂᏚᎾᏓᏁᎶᏛᎾ	-11.7316
▁ᏂᏚᏁᎶᏛᎾ	-11.7316
▁ᏂᏣᏛᏓᏍᏓᏁᎲᎾ	-11.7316
▁ᏂᏥᎦᏔᎾᎥᎾ	-11.7316
▁ᏂᏥᏔᏲᎯᎲ	-11.7316
▁ᏃᏍᏗᏟᏏᏍᎬᎾ	-11.7316
▁ᏃᏥᏪᎭ	-11.7316
▁ᏄᎾᎵᎮᎵᏣᏛᎾ	-11.7316
▁ᏄᏂᎷᎶᏤᎲᎾ	-11.7316
▁ᏄᏍᏆᎸᎲᎾ	-11.7316
▁ᏄᏚᏯᏍᏛᎾ	-11.7316
▁ᏅᏋᏁᎵᏙᎸᎢ	-11.7316
▁ᏅᏓᎦᏥᏪᏎᎵ	-11.7316
▁ᏅᏓᏥᏯᏛᏁᎵ	-11.7316
▁ᏅᏓᏳᎾᎵᏍᏓᏁᎵ	-11.7316
▁ᏅᏓᏳᏍᏗᏗᏒᎩ	-11.7316
▁ᏅᏗᎠᏥᏪᏎ	-11.7316
▁ᏅᏗᎦᎵᏍᏗᏙᏗᏍ	-11.7316
▁ᏅᏛᎾᎵᏍᏔᏂ	-11.7316
▁ᏅᏧᏛᎿᏗᏎ	-11.7316
▁ᏈᎵᏕᎵᏈ	-11.7316
▁ᏈᏗᏂᏱ	-11.7316
▁ᏍᎩᏯᏐᎥᎦ	-11.7316
▁ᏍᎩᏯᏛᏓᏍᏓᏏ	-11.7316
▁ᏍᏆᏕᎲᏏ	-11.7316
▁ᏍᏆᏛᏅᎢᏍᏓᏁᎸ	-11.7316
▁ᏐᎵᎼᏅ	-11.7316
▁ᏐᏱᏁᎳ	-11.7316
▁ᏑᏙᏓᏆᏛ	-11.7316
▁ᏓᎦᎳᏐᏫᏏ	-11.7316
▁ᏓᎬᏩᏍᎪᏂᎵ	-11.7316
▁ᏓᎾᏕᏒᎲᏍᎨᎢ	-11.7316
▁ᏓᏆᏚᏫᏍᏔᏅᎩ	-11.7316
▁ᏓᏇᎷᎬ	-11.7316
▁ᏓᏍᎩᏯᏠᏥ	-11.7316
▁ᏓᏤᏲᏂ	-11.7316
▁ᏓᏰᏥᏍᏚᎢᎡᎵ	-11.7316
▁ᏓᏳᎾᏄᎪᏨᎩ	-11.7316
▁ᏕᎦᎶᏄᎮ	-11.7316
▁ᏕᎦᏓᏬᏍᏗᎭ	-11.7316
▁ᏕᎨᎦᏬᎥ	-11.7316
▁ᏕᎬᏩᎾᏍᏗᏍᎨᎢ	-11.7316
▁ᏕᎬᏩᏓᏂᎸᏨᎩ	-11.7316
▁ᏕᎭᏅᏓᏗᏍᏗᏍᎨᏍᏗ	-11.7316
▁ᏕᎭᏕᎳᏍᏗᏍᎨᏍᏗ	-11.7316
▁ᏕᎯᏯᏓᏂᎸᏨᎭ	-11.7316
▁ᏕᎯᏲᎥᎭ	-11.7316
▁ᏕᏓᏁᎶᏛᎢ	-11.7316
▁ᏕᏣᎵᏂᎪ	-11.7316
▁ᏕᏣᏓᏬᏁᏗᏍᎨᏍᏗ	-11.7316
▁ᏕᏥᎸᏌᏓ	-11.7316
▁ᏗᎦᎶᎩᏍᎩ	-11.7316
▁ᏗᎦᎶᏐᎲᏍᎩ	-11.7316
▁ᏗᎦᏅᏍᎨᏂ	-11.7316
▁ᏗᎨᏥᏅᏍᏕᏎᎸᎯ	-11.7316
▁ᏗᎩᎧᏁᏴᏗᏱ	-11.7316
▁ᏗᎫᎯᎶᎥᎢ	-11.7316
▁ᏗᎬᏩᎾᏓᏁᏟᏴᎡᏗ	-11.7316
▁ᏗᎬᏪᏘᎸᎯ	-11.7316
▁ᏗᏓᏙᏕᎯᎯ	-11.7316
▁ᏘᏰᎵᎯᏍᏓ	-11.7316
▁ᏙᏓᎦᏟᎶᏍᏔᏂ	-11.7316
▁ᏙᏓᎦᏥᏯᏟᎶᏍᏔᏂ	-11.7316
▁ᏙᏓᏣᏠᏏ	-11.7316
▁ᏙᏗᎨᎦᏨᏍᏔᏂᏒ	-11.7316
▁ᏙᏗᏂᎧᏁᎢ	-11.7316
▁ᏙᏛᏂᏲᎯᏎᎵ	-11.7316
▁ᏚᎧᎿᏩᏗᏙᎮᎢ	-11.7316
▁ᏚᎸᏌᏓ	-11.7316
▁ᏚᎾᏁᏍᏓᏝᎰᎢ	-11.7316
▁ᏚᎾᏄᏩᎥ	-11.7316
▁ᏚᎾᏗᏫᏍᏗᏍᎨ	-11.7316
▁ᏚᏁᎯᏍᏓᏁᎲ	-11.7316
▁ᏚᏂᎵᏬᏨᎩ	-11.7316
▁ᏚᏂᏖᎸᏅᎩ	-11.7316
▁ᏚᏓᏅᎡᎸᏃ	-11.7316
▁ᏚᏗᎦᎴᏯᏍᏔᏅ	-11.7316
▁ᏚᏥᏍᏠᏨᎩ	-11.7316
▁ᏚᏪᏣᎦᎸᎮᎢ	-11.7316
▁ᏚᏯᏍᏜᏛ	-11.7316
▁ᏛᎵᏍᏆᏗ	-11.7316
▁ᏣᏂᏙᎾᎠ	-11.7316
▁ᏣᏍᎫᏕᏍᏗ	-11.7316
▁ᏣᏥᏰᎸᎾᏁᎴᎢ	-11.7316
▁ᏥᎦᎵᎡᎵᎦ	-11.7316
▁ᏥᎧᏃᎮᏍ	-11.7316
▁ᏥᎨᎦᏤᏪᎸ	-11.7316
▁ᏥᎬᎩᎾᎸᏍᏔᏅᎩ	-11.7316
▁ᏥᎬᏩᏂᏛᏔᏁ	-11.7316
▁ᏥᏁᏣᏛᎩᏍᎪᎢ	-11.7316
▁ᏥᏂᏓᎦᏔᎰᎢ	-11.7316
▁ᏥᏂᏕᏣᏛᏁᎰ	-11.7316
▁ᏥᏂᏣᏓᎨᏳ	-11.7316
▁ᏥᏂᏥᏪᏍᎬᎩ	-11.7316
▁ᏥᏓᎦᎴᏔᏁ	-11.7316
▁ᏥᏕᎫᏓᎴᏍᏗᎭ	-11.7316
▁ᏥᏕᏥᏂᏴ	-11.7316
▁ᏥᏕᏥᏙᎦ	-11.7316
▁ᏥᏚᏣᏃᏛᎩ	-11.7316
▁ᏥᏥᎶᏄᎮᎵ	-11.7316
▁ᏥᏨᏲᏪᎳᏁᎭ	-11.7316
▁ᏥᏩᏂᎶᏍᎪ	-11.7316
▁ᏥᏫᏗᎦᎸᏌᏓᏗᏍᎪᎢ	-11.7316
▁ᏥᏯᏚᏣᎳᏅᎭ	-11.7316
▁ᏦᎩᎸᏫᏍᏓᏁᎸᎯ	-11.7316
▁ᏦᏣᎵᏥᏙᏁᏗᏱ	-11.7316
▁ᏧᎦᏄᏓᏅᎯᏛ	-11.7316
▁ᏧᎧᎿᏩᏗᏓᏍᏗᏱ	-11.7316
▁ᏧᎶᏄᎮᎴ	-11.7316
▁ᏧᎸᏌᏓ	-11.7316
▁ᏧᏂᎵᎶᎲᏍᎦ	-11.7316
▁ᏧᏂᎸᏌᏓᏕᏗ	-11.7316
▁ᏧᏃᏕᎯᎯ	-11.7316
▁ᏧᏬᏑᎴ	-11.7316
▁ᏨᏗᎦᎾᏄᎪ	-11.7316
▁ᏩᎵᏍᏆᏗᎯᎲ	-11.7316
▁ᏩᏂᎦᏖᎢ	-11.7316
▁ᏩᏆᏘᏅᏍᏔᏅᎩ	-11.7316
▁ᏩᏓᏁᏟᏴᏍᏓ	-11.7316
▁ᏪᏣᏓᎤᎦ	-11.7316
▁ᏫᎦᎶᎯᏍᏗᏍᎬᏉ	-11.7316
▁ᏫᎬᏩᏲᏥᏓᏍᏗ	-11.7316
▁ᏫᏗᏍᎩᏯᏘᏅᏍᏔᏅᎩ	-11.7316
▁ᏫᏙᏛᎾᎴᏔᏂ	-11.7316
▁ᏫᏙᏛᎾᏓᎡᏏ	-11.7316
▁ᏫᏙᏛᏂᏲᎯᏎᎵ	-11.7316
▁ᏫᏚᎦᏔᎲᏍᏙᏗᏱ	-11.7316
▁ᏫᏚᏂᏯᏅᎮᎢ	-11.7316
▁ᏫᏯᏴᎯᎮᏍᏗ	-11.7316
▁ᏫᏱᏣᎧᎲᎦ	-11.7316
▁ᏭᎾᏘᏅᏍᏔᏅᎩ	-11.7316
▁ᏭᏁᎳᏗᏓ	-11.7316
▁ᏭᏅᎫᏛᎢ	-11.7316
▁ᏮᎠᎦᏔᎲᏍᏓ	-11.7316
▁ᏮᏓᏳᏎᎮᎵ	-11.7316
▁ᏯᎩᏂᎬᏎᎭ	-11.7316
▁ᏯᏆᎴᏂᏙᎸ	-11.7316
▁ᏯᏙᏢᎾ	-11.7316
▁ᏰᏦᏎᎮᏍᏗ	-11.7316
▁ᏱᎦᎳᏍᏢ	-11.7316
▁ᏱᏅᎨᏣᏛᎦ	-11.7316
▁ᏱᏅᎬᎾᏛᎦ	-11.7316
▁ᏱᏅᏛᏅᏁᎵ	-11.7316
▁ᏱᏍᏆᏓᏙᎵᏍᏓᏁᎸ	-11.7316
▁ᏱᏕᎪᎬᏂᏍᏓ	-11.7316
▁ᏱᏗᎬᏩᏓᏂᎸᏤᎢ	-11.7316
▁ᏱᏗᏓᏓᏚᎪᏓᏁ	-11.7316
▁ᏱᏗᏣᏘᏂᏙ	-11.7316
▁ᏱᏗᏥᏬᏂᎭ	-11.7316
▁ᏱᏚᎾᏝᎠ	-11.7316
▁ᏱᏚᏂᎿᏍᏕᏠᎢ	-11.7316
▁ᏱᏥᎪᏁᎶᏍᎨᏍᏗ	-11.7316
▁ᏱᏦᎯᏳᎭ	-11.7316
▁ᏱᏦᎵᎨᏍᏗ	-11.7316
▁ᏱᏪᏣᏓᎢᏅ	-11.7316
▁ᏳᏜᏅᏕ	-11.7316
▁ᎠᏂᏫᏅᎨᏌᏂ	-11.7316
▁ᎠᏛᏒᎥᏍᎩ	-11.7316
▁ᎤᎩᎳᏫᏎ	-11.7316
▁ᏂᏨᏯᏛᏁᎸ	-11.7316
▁ᏫᏄᎾᎵᏍᏓᏏ	-11.7316
ᎦᏥᏰᎳᏗᏙ	-11.7316
ᎵᏂᎬᏁᎭ	-11.7316
ᎾᏘᏃᎮᎸᎭ	-11.7316
ᏆᏓᏙᎵᏍᏔᏅ	-11.7316
ᏚᏓᏕᏫᏍᏛ	-11.7316
ᏚᏬᏯᏁᏎᎢ	-11.7316
ᏝᏗᏍᏔᏂᏙ	-11.7316
▁ᎠᎩᏔᎳᏬᏍᎬ	-11.7316
▁ᎠᎩᏯᎣᏅ	-11.7316
▁ᎠᎬᏓᎨᏂ	-11.7316
▁ᎠᎾᏁᎳᏗᏍᎪᎢ	-11.7316
▁ᎠᎾᏍᎩᏓᏒᎥᏍ	-11.7316
▁ᎠᏂᎦᏔᎿᎥ	-11.7316
▁ᎠᏅᏳᎬ	-11.7316
▁ᎠᏆᏛᎯᏎᎸᎯ	-11.7316
▁ᎠᏉᎯᏳᏓᏁᎯ	-11.7316
▁ᎠᏓᏍᏕᎸᎯᏙᎯ	-11.7316
▁ᎢᎩᏇᏓᎸ	-11.7316
▁ᎢᎩᏲᎱᎯᏎᎸ	-11.7316
▁ᎢᏣᎵᏥᏙᎲᏍᎨᏍᏗ	-11.7316
▁ᎢᏣᏂᎩᏍᎨᏍᏗ	-11.7316
▁ᎣᎩᏇᏓᎸ	-11.7316
▁ᎤᎩᎵᏲᏤᎢ	-11.7316
▁ᎤᎾᏓᏙᎵᏍᏓᏁᎴ	-11.7316
▁ᎤᏁᏉᏥᏕᎬ	-11.7316
▁ᎤᏓᏍᏛᏗᏍᏗ	-11.7316
▁ᎤᏓᏥᏃᎯᏍᏔᏅ	-11.7316
▁ᎥᎬᏩᎷᏤᎸᎩ	-11.7316
▁ᎥᏆᎨᏅᏛ	-11.7316
▁ᎥᏆᏓᏓᎴ	-11.7316
▁ᎥᏇᏲᏅ	-11.7316
▁ᎥᏣᏂᎩ	-11.7316
▁ᎦᏥᏲᏪᎳᏁ	-11.7316
▁ᎦᏬᏂᎭ	-11.7316
▁ᎾᎾᎵᎮᎵ	-11.7316
▁ᏂᎦᏅᎦᎸᎲᎾ	-11.7316
▁ᏂᏚᎸᏫᏍᏓᏁᎲᎾ	-11.7316
▁ᏄᏅᎿᏕ	-11.7316
▁ᏅᎤᏪᏎᎸᎩ	-11.7316
▁ᏅᏓᎬᏩᏪᏎᎵ	-11.7316
▁ᏍᎩᏯᏘᏅᏍᏗᏱ	-11.7316
▁ᏓᎾᏓᏛᏛᎲᏍᎨ	-11.7316
▁ᏓᏍᏆᎸᎮᎬᎢ	-11.7316
▁ᏓᏓᎾᏩᏍᏛ	-11.7316
▁ᏓᏥᏴᏂᎵ	-11.7316
▁ᏕᎪᎦᏓᏂᎸᏨᎩ	-11.7316
▁ᏕᎫᎪᏗᏍᎪ	-11.7316
▁ᏕᏥᎦᏘᎸᏒ	-11.7316
▁ᏖᏲᎲᏍᎩ	-11.7316
▁ᏗᎩᎾᏓᏛᏙᏗ	-11.7316
▁ᏗᏥᏌᎳᏛᎦ	-11.7316
▁ᏗᏧᎪᏗᏍᎩ	-11.7316
▁ᏘᎧᎿᏩ	-11.7316
▁ᏙᏓᏦᎵᏍᏔᏂ	-11.7316
▁ᏚᎵᏔᏗᏅᏎ	-11.7316
▁ᏚᎾᏂᏏᏂᏙᎸ	-11.7316
▁ᏚᎾᏡᏕᏍᏗ	-11.7316
▁ᏚᏂᏃᎩᏒᏃ	-11.7316
▁ᏚᏟᎶᏍᏔᏁᎴ	-11.7316
▁ᏚᏰᎵᎯᏍᏔᏁ	-11.7316
▁ᏛᎵᏰᎢᎸᏍᏓ	-11.7316
▁ᏛᏄᏬᏍᏔᏂ	-11.7316
▁ᏤᏧᎪᏓᏁ	-11.7316
▁ᏥᏯᏚᎸᎡ	-11.7316
▁ᏦᎦᏓᏂᎸᎢᏍᏗᏱ	-11.7316
▁ᏧᎾᏁᎳᏗᏍᏗᏱ	-11.7316
▁ᏩᎦᏘᏅᏍᏙᏗᏱ	-11.7316
▁ᏩᏙᏑᎵ	-11.7316
▁ᏫᏥᎾᏄᎪᎢᏍᏗᏱ	-11.7316
▁ᏫᏨᎶᎢᏍᏓ	-11.7316
▁ᏯᏂᏍᏙᎰᎢ	-11.7316
▁ᏯᏆᏘᏝ	-11.7316
▁ᏱᎦᎧᎲᏍᎪᎢ	-11.7316
▁ᏱᏄᎵᏍᏓᏁᎮ	-11.7316
▁ᏱᏍᎩᏲᎢᏳᎲᏍᎦ	-11.7316
▁ᏱᏗᏓᏓᏂᎸᎦ	-11.7316
▁ᏱᏗᏧᎪᏗᎭ	-11.7316
▁ᏱᏚᏪᎵᏎ	-11.7316
▁ᏳᏂᎷᏤᎮ	-11.7316
▁ᏴᎬᏚᏓᎴᏍᏓ	-11.7316
ᎨᎩᎩᎵᏲᎢᏍᏗᏍᎬᎩ	-11.7316
ᎪᎵᏰᎡ	-11.7316
ᏗᎩᏯᏍᏗᏱ	-11.7316
▁ᎠᎾᏢᏈᏍ	-11.7316
▁ᎠᏓᏅᏖᎵᏙᎲ	-11.7316
▁ᎡᏍᏗᏍᏓᏩᏕᏒᎭ	-11.7316
▁ᎢᎠᏥᏩᏛᎲᏃ	-11.7316
▁ᎢᎨᎳᏗᏙ	-11.7316
▁ᎢᎬᏩᏂᎩᏍᏔᏁ	-11.7316
▁ᎣᎦᎵᏍᏓᏴᏅ	-11.7316
▁ᎣᎱᏩ	-11.7316
▁ᎣᏍᏗᏴᎩ	-11.7316
▁ᎤᎾᎵᏥᏙᏂ	-11.7316
▁ᎤᎾᏓᎩᎸᏗ	-11.7316
▁ᎤᏂᏃᏍᎩᏍᏗᏱ	-11.7316
▁ᎤᏄᏓᎴᏍᎩ	-11.7316
▁ᎤᏓᏅᏓᏛᎢ	-11.7316
▁ᎤᏯᎣᎢ	-11.7316
▁ᎥᎤᎾᏨ	-11.7316
▁ᎥᎩᏙᎵᏨᎩ	-11.7316
▁ᎨᎦᎫᏴᏛ	-11.7316
▁ᎬᏩᏕᎰᏔᏁᎢ	-11.7316
▁ᎯᏯᏙᎵᎨᏍᏗ	-11.7316
▁ᏂᏚᎾᎵᏂᎬᎬ	-11.7316
▁ᏍᎩᏯᎵᎡᎵᏍ	-11.7316
▁ᏓᎾᏓᏰᎢᎵᏙ	-11.7316
▁ᏓᏳᎾᏡᏔᏂ	-11.7316
▁ᏕᎬᏩᏠᏒᎩ	-11.7316
▁ᏗᏂᏤᎷᎯᏍᎩ	-11.7316
▁ᏙᎩᏲᏐᏅ	-11.7316
▁ᏙᏓᏲᎩᎸᏫᏍᏓᏁ	-11.7316
▁ᏛᏃᎵᏥ	-11.7316
▁ᏥᏓᎵᏖᎸᎲ	-11.7316
▁ᏥᏓᎾᎵᏍᎪᎸᏗᏍᎨ	-11.7316
▁ᏧᏓᎾᏄᎪᏫᏍᏗᏱ	-11.7316
▁ᏰᏦᎢᏳ	-11.7316
▁ᏱᏗᏦᎯᏳ	-11.7316
▁ᏱᏣᏍᎦᏅᏤᏍᏗ	-11.7316
ᎨᏣᎫᏴᏏ	-11.7316
ᏤᏯᏔᎲᏍ	-11.7316
ᏥᏂᏴᎯ	-11.7316
▁ᎠᏂᎩᎵᏲᏥᏙ	-11.7316
▁ᎤᎵᎩᏳᏍ	-11.7316
▁ᎤᎾᎩᎳᏫᏎ	-11.7316
▁ᎤᏂᏍᎦᎴᏃ	-11.7316
▁ᎦᏅᎦᎵᏍᎬ	-11.7316
▁ᎨᎦᏑᏴ	-11.7316
▁ᎪᏪᎶᏗ	-11.7316
▁ᏂᏗᏥᏁᎲᎾ	-11.7316
▁ᏍᎩᏔᏲᏏ	-11.7316
▁ᏚᎾᎦᎴᏅᎲ	-11.7316
▁ᏚᎿᎷᏔ	-11.7316
▁ᏯᎩᏲᎱᏒ	-11.7316
▁ᎤᏂᏐᏅᏤᎸ	-11.7316
▁ᏕᎫᎪᏓᏁᎸ	-11.7316
▁ᏯᎾᏓᏛᎦ	-11.7316
ᎾᏙᎯᏳᎾᏁᏗ	-11.7316
ᏎᎪᎩᏎᎢ	-11.7316
ᏘᏂᏙᎲ	-11.7316
ᏥᏙᎵᎬᎾ	-11.7316
▁ᎠᎩᎳᏫᏍᏗᏱ	-11.7316
▁ᎠᎵᏍᏆᏓ	-11.7316
▁ᎠᎵᏘᏍᎪᎢ	-11.7316
▁ᎠᏛᏲᎱᏏ	-11.7316
▁ᎡᏥᏔᏲᏎᎮᏍᏗ	-11.7316
▁ᎢᏥᎪᏩᏘᏍᎬ	-11.7316
▁ᎣᎦᎵᏥᏙᏗᏱ	-11.7316
▁ᎤᎴᏴᏎᎢ	-11.7316
▁ᎤᎵᏃᎮᏔᏅᎢ	-11.7316
▁ᎤᎾᏘᏰᎸᎯ	-11.7316
▁ᎤᏂᏁᏉᏨᎯ	-11.7316
▁ᎤᏍᏆᏃᏴ	-11.7316
▁ᎤᏓᏌᎧ	-11.7316
▁ᎦᏲᎩᏐᏢ	-11.7316
▁ᎬᏩᎩᏨᏗ	-11.7316
▁ᎾᎦᏔᏛ	-11.7316
▁ᏄᏙᎯᏳᏒ	-11.7316
▁ᏓᎾᎵᏃᎮᎵᏙᎲ	-11.7316
▁ᏓᏆᏙᏍᏛ	-11.7316
▁ᏕᎤᎧᎿᏅ	-11.7316
▁ᏚᎾᏏᏔᏕᎢ	-11.7316
▁ᏥᎦᎶᏒᏍᏗᎭ	-11.7316
▁ᏥᎾᎩᏪ	-11.7316
▁ᏥᏕᎪᏪᎳ	-11.7316
▁ᏥᏚᏱᎶᎴᎢ	-11.7316
▁ᏧᎦᏌᏬᎸᎯ	-11.7316
▁ᏧᎾᏕᏲᏗᏱ	-11.7316
▁ᏱᎬᎿᏗᏍ	-11.7316
▁ᏱᎾᏛᏁᎮ	-11.7316
ᎪᎯᏍᏓᏁᎯ	-11.7316
ᏂᏄᏙᎬ	-11.7316
ᏗᏑᎴᏗ	-11.7316
▁ᎠᏆᏘᏂᏙᎲᎩ	-11.7316
▁ᎢᏣᏓᎳᏫᏎᎸ	-11.7316
▁ᎣᎦᏓᏙᎵᏍ	-11.7316
▁ᎤᎴᏂᏙᎸ	-11.7316
▁ᎤᏓᏕᏲᏗᏱ	-11.7316
▁ᎦᏓᏙᎵᏍᏗᏍᎨᏍᏗ	-11.7316
▁ᎬᏩᎵᏃᎮᏔᏁ	-11.7316
▁ᎯᏯᏥᎪᏁ	-11.7316
▁ᏂᏣᏛᎩᏍᎬᎾ	-11.7316
▁ᏕᎨᎦᎴᏗ	-11.7316
▁ᏕᎨᏥᎾᏝ	-11.7316
▁ᏗᎬᏩᏕᏲᏗ	-11.7316
▁ᏗᏂᏃᎩᏍᎩ	-11.7316
▁ᏚᏯᏅᎮᎢ	-11.7316
▁ᏧᎾᏓᏙᎵᏍᏓᏁᏗᏱ	-11.7316
▁ᏫᏘᏯᏅ	-11.7316
▁ᏭᏂᎷᎯᏍᏗᏱ	-11.7316
ᎧᎵᏏᏏ	-11.7316
ᏗᎤᏠᎠᏎ	-11.7316
ᏲᎱᎯᏎᎭ	-11.7316
▁ᎠᏓᎿᏍᏆᎶᏍᏗᏍᎩ	-11.7316
▁ᎠᏯᏖᏂ	-11.7316
▁ᎢᎤᏁᏨ	-11.7316
▁ᎢᏧᏅᏁᎸᎯ	-11.7316
▁ᎤᏂᏖᎸᏅ	-11.7316
▁ᎬᏉᎯᏳᎲᏍᎩ	-11.7316
▁ᎾᎩᏴᏍᏗᏱ	-11.7316
▁ᏂᏚᏬᏚ	-11.7316
▁ᏙᏗᏫᏒᎢ	-11.7316
▁ᏚᏛᏅᎢᏍᏓᏁᎸ	-11.7316
▁ᏥᎾᎬᏁᎴ	-11.7316
▁ᏥᏕᎯᎾᏄᎪᏫᏎᎸ	-11.7316
▁ᏥᏫᎦᎶᎯ	-11.7316
▁ᏥᏫᎬᏩᏂ	-11.7316
▁ᏦᏪᎳᏅᎩ	-11.7316
▁ᏧᏬᎪᏓᏁ	-11.7316
▁ᏫᎤᏪᏅ	-11.7316
▁ᏬᎩᏴᎸ	-11.7316
▁ᏯᏓᏛᏍᎪᎢ	-11.7316
▁ᏱᏚᏬᏁᏔᏁᎢ	-11.7316
▁ᏱᏩᎦᏓᎢᏅ	-11.7316
▁ᏴᎬᏓᏛᎦ	-11.7316
ᏓᏩᏗᏍᏙ	-11.7316
▁ᏥᏚᎾᏚᏓᏙ	-11.7316
▁ᏱᎬᏲᏎᎭ	-11.7316
ᏓᏲᏣᏗᏒᏂ	-11.7316
▁ᎠᎵᏖᎸᎲᏍᎬ	-11.7316
▁ᎠᎾᎵᏍᎪᎸᏗᏍᎩ	-11.7316
▁ᎠᏗᏅᏗᏉ	-11.7316
▁ᎢᏰᎬᏁᏗ	-11.7316
▁ᎤᎷᏥᏗᏒ	-11.7316
▁ᎤᏂᏌᎳᏓᏅ	-11.7316
▁ᎤᏍᏕᏅᏨ	-11.7316
▁ᎤᏪᏇᏴ	-11.7316
▁ᎤᏲᎢᏳᎾᏛᎿᏕᎩ	-11.7316
▁ᎦᏄᎸᏒ	-11.7316
▁ᏂᏥᏪᏍᎨᏍᏗ	-11.7316
▁ᏓᏳᏐᏅᏂ	-11.7316
▁ᏗᏂᏁᏥᏱ	-11.7316
▁ᏚᏌᎯᎸ	-11.7316
▁ᏚᏙᎡᏍᏗ	-11.7316
▁ᏥᏚᎴᏔᏁᎢ	-11.7316
▁ᏩᏠᎠ	-11.7316
▁ᏱᏍᎩᎦᏔᎮᎢ	-11.7316
▁ᏴᎬᏲᎱᎯ	-11.7316
ᏄᏬᎯᏍᏗᏍᎩ	-11.7316
ᏓᏅᎵᏰᎥ	-11.7316
ᏓᏍᏛᏗᏍᏙᏗ	-11.7316
ᏗᏍᎦᎳᏅᎩ	-11.7316
ᏠᎣᏒ	-11.7316
▁ᎣᎨᎵᏒ	-11.7316
▁ᎣᏂᏏᎹ	-11.7316
▁ᎤᏁᎷᎬᎢ	-11.7316
▁ᎤᏂᎭᎷᎬ	-11.7316
▁ᎤᏍᏘᏰᏅᎯ	-11.7316
▁ᎤᏪᏩᏒᎢᏍᏗ	-11.7316
▁ᎯᎪᎵᏰᎥᎩ	-11.7316
▁ᏓᎬᏩᎸᏍᎨᏍᏗ	-11.7316
▁ᏗᎬᏩᏜᏍᏗ	-11.7316
▁ᏗᏣᏓᎨᏳᏗᏱ	-11.7316
▁ᏚᏂᏃᎩᏒᎩ	-11.7316
▁ᏣᏉᏪᎳᏅ	-11.7316
▁ᏣᏓᎦᏌ	-11.7316
▁ᏥᏄᎾᎵᏍᏔᏅ	-11.7316
▁ᏦᏍᏓᏑ	-11.7316
▁ᏫᏥᎧᏅᎯ	-11.7316
▁ᏭᏂᏃᎮᎴ	-11.7316
▁ᏯᎦᎵᏍᎨᎢ	-11.7316
ᏂᎨᏨᎿᏕ	-11.7316
ᏨᏐᏈᎸ	-11.7316
▁ᎣᎩᎶᏐᏅ	-11.7316
▁ᏂᏓᎵᏍᏗᎭ	-11.7316
▁ᏗᏣᏠᏱᎦ	-11.7316
▁ᏙᎦᏚᏓ	-11.7316
▁ᏧᏎᎪᎩᏍᏗᏱ	-11.7316
▁ᏧᏲᎱᎯᏎ	-11.7316
▁ᏱᏓᏂᏁᏟᏴ	-11.7316
ᎦᏙᎥᏏ	-11.7316
ᏏᏛᏂᎸᎩ	-11.7316
▁ᎠᎾᏓᏛᏍᎬᎢ	-11.7316
▁ᎠᏠᏄᎮᏛ	-11.7316
▁ᎣᎩᎾᏖᏆᎶ	-11.7316
▁ᎤᏂᏯᏅᎮ	-11.7316
▁ᎤᏍᎩᏅᏕ	-11.7316
▁ᎬᏩᎾᎵᎪᏁ	-11.7316
▁ᎬᏬᎯᏍᏗᏍ	-11.7316
▁ᏂᎬᏅᎪᏪᎳ	-11.7316
▁ᏌᎨᎢᏳ	-11.7316
▁ᏴᎦᏲᏣ	-11.7316
ᏥᏔᎳᏬᏍ	-11.7316
▁ᏕᏣᏓᏙᎯᏳ	-11.7316
▁ᏫᏍᏗᎷᏨᎭ	-11.7316
ᎦᏔᎥᎾ	-11.7316
ᏁᏍᎨᎰᏂ	-11.7316
ᏣᎫᏴᏓᏏ	-11.7316
▁ᎡᎻᎳ	-11.7316
▁ᎢᏍᏓᎢᏒᎢ	-11.7316
▁ᎢᏗᏯᏙᎯ	-11.7316
▁ᏂᎬᏂᏏᎭ	-11.7316
▁ᏅᏓᏳᏪᏒᎩ	-11.7316
▁ᏥᏚᏂᏂᏴ	-11.7316
▁ᏧᏏᏔᏗᏍᏗᏱ	-11.7316
▁ᏩᏂᎶᎯ	-11.7316
▁ᏫᎬᏪᎧ	-11.7316
▁ᏱᏚᏲᎱᎯ	-11.7316
ᏗᏍᎦᏅᎨᏍᏗ	-11.7316
▁ᎠᎩᎵᏲᎦ	-11.7316
▁ᎠᏥᎦᏘᏗᏍᏛ	-11.7316
▁ᎤᎾᎪᎲᏍᏙᏗᏱ	-11.7316
▁ᎤᏅᏕᏨ	-11.7316
▁ᎤᏖᎸᎳᏛ	-11.7316
▁ᎤᏦᎯᏃ	-11.7316
▁ᏓᏘᏁᎮᏍᏗ	-11.7316
▁ᏗᎦᎸᏉᏔᏅᎯ	-11.7316
▁ᏧᎾᏗᎦᎴᏲᏤ	-11.7316
▁ᏫᏥᎶᏒᎩ	-11.7316
▁ᏱᏣᏚᎵᏍᎨᎢ	-11.7316
ᏥᏔᏲᎯᎭ	-11.7316
ᏬᏁᏔᏂ	-11.7316
▁ᎨᏥᏅᎦᎵᏍ	-11.7316
▁ᏳᏂᏃᎮᎴ	-11.7316
ᎵᏍᏙᎯᏍᏗᏱ	-11.7316
ᏚᏔᎲᎢ	-11.7316
ᏥᏏᎾᏌᏂ	-11.7316
▁ᎡᏧᎢᏍᏗ	-11.7316
▁ᎭᎵᏍᏓᏴᎲᏍ	-11.7316
▁ᏕᎦᏚᏓᏕᏫᏒᏰᏃ	-11.7316
▁ᏕᎱᎪ	-11.7316
ᎦᏙᏌᏗᏍᏛ	-11.7316
▁ᏂᎦᏚᏏᏁ	-11.7316
▁ᏦᏓᎻ	-11.7316
▁ᏧᎾᏓᎴᏁᎢ	-11.7316
ᏚᏂᎳᏫᏦ	-11.7316
ᏦᏪᎵᏍ	-11.7316
▁ᎠᏥᎶᏄᎡᎸ	-11.7316
▁ᏚᏂᎧᎮᏍᏗ	-11.7316
▁ᏚᏓᎴᏅᏔᏅ	-11.7316
▁ᏲᎦᏚᎵ	-11.7316
▁ᏕᏥᎦᏘᏴ	-11.7316
ᎾᏁᎶᏛᎢ	-11.7316
ᏑᎦᎸᏙᏗ	-11.7316
▁ᏥᏓᏕᏲᎲᏍ	-11.7316
▁ᏧᏬᎪᏙᏗ	-11.7316
▁ᏲᏍᏗᎦᏔᎭ	-11.7316
▁ᏳᏲᏤᎢ	-11.7316
▁ᎠᎰᎱ	-11.7316
▁ᏚᏓᎸᏍᏛ	-11.7316
▁ᏱᏗᎬᏕᎪ	-11.7316
ᏫᏚᏘᏅᏍᏔᏅᎩ	-11.7316
▁ᎢᏥᎾᏄᎪᏩ	-11.7316
▁ᎣᎦᏢᏆᏒ	-11.7316
▁ᎤᎵᏍᎨᏛ	-11.7316
▁ᎤᎾᏘᏃᎮᎴᎢ	-11.7316
▁ᎤᏙᎵᏍᏙ	-11.7316
▁ᏌᎩᎻ	-11.7316
▁ᏘᎨᏫ	-11.7316
▁ᏱᎨᏥᎪ	-11.7316
▁ᏳᏬᎯᏳᏁᎢ	-11.7316
ᎳᏐᏫ	-11.7316
▁ᏕᎦᏟᎶᏍᏗᏍᎬ	-11.7316
▁ᏣᎦᎨᏅ	-11.7316
▁ᏫᏗᎨᏥ	-11.7316
ᏓᏕᏘᏴᎮᎬ	-11.7316
▁ᎠᎨᎳᏗᏍ	-11.7316
▁ᎡᏥᎧᏁᏗᏱ	-11.7316
▁ᎤᎬᏫᏩ	-11.7316
▁ᏱᏂᎨᏣ	-11.7316
▁ᎠᏂᏴᎯᎰ	-11.7316
▁ᎡᏗᎦᏔᎲᎢ	-11.7316
▁ᏂᏚᎵᏍᏔᏅᎩ	-11.7316
▁ᏗᎨᏥᏍᏚᎯ	-11.7316
▁ᏚᏟᎶᏍᏔᏅ	-11.7316
▁ᏧᏕᏲᏗᏱ	-11.7316
ᏐᎲᏍᏗᏱ	-11.7316
ᏗᏍᏓᏚᏓ	-11.7316
▁ᎢᎬᏩᏰᎸᎭ	-11.7316
▁ᎢᏣᏛᎩᏍᎩ	-11.7316
▁ᎨᏥᏍᎦᏅᏤᎲ	-11.7316
▁ᏓᏥᏯᏓᏙᎵᏍᏓᏁᎵ	-11.7316
▁ᏥᏚᏙᎠ	-11.7316
▁ᏧᏍᏚᎢᎡᎸᎯ	-11.7316
▁ᏱᏧᏢ	-11.7316
▁ᏧᎳᏏᏗᏱ	-11.7316
▁ᎧᏁᎮᏛ	-11.7316
▁ᏓᎬᏅᏏ	-11.7316
ᏣᏟᏴᏗ	-11.7316
▁ᎢᎳᏯᎩᎻ	-11.7316
▁ᎷᏏᏯ	-11.7316
ᏂᏍᎩᏯᏛᏁ	-11.7316
▁ᎢᏓᎢᏎᏍᏗ	-11.7316
▁ᏦᏌᏯ	-11.7316
▁ᎠᏂᏃᏔᏅᎥ	-11.7316
▁ᏂᏗᎨᏥ	-11.7316
▁ᎠᎩᎷᎳ	-11.7316
▁ᎤᏁᏍᎨᎲᎢ	-11.7316
▁ᏓᎬᏁᎵᏃ	-11.7316
▁ᏧᎪᎵᏰᏗᏱ	-11.7316
ᏢᏥᏰᏍ	-11.7316
ᏬᏁᏗᏍᎩ	-11.7316
▁ᏕᎤᏁᎶ	-11.7316
▁ᏚᏓᏬᎥ	-11.7316
ᏢᎾᏁᎸᎯ	-11.7316
ᏤᏬᏤ	-11.7316
▁ᏂᏤᏪ	-11.7316
▁ᏟᏍᏆ	-11.7316
▁ᏧᎨᏅᏛ	-11.7316
▁ᏧᏬᏕᏍᏗ	-11.7316
▁ᏭᏕᏁᎢ	-11.7316
▁ᎤᏂᏍᏚᎶᏔ	-11.7316
▁ᏦᎩᏂᎸᏫᏍᏓᏁᎯ	-11.7316
▁ᏧᎵᏯᏏ	-11.7316
▁ᏳᏚᏓᎴᏍᏔᏁ	-11.7316
▁ᎢᏥᎦᎳᎭ	-11.7316
▁ᎤᏂᏯᏙᎴ	-11.7316
ᏍᏚᎢᎡᏗᏱ	-11.7316
▁ᏗᏂᎧᏅᎢ	-11.7316
▁ᏧᏃᎸᏔᏂᏙᎰ	-11.7316
ᏥᏯᏐᏅᏰᎵ	-11.7316
▁ᎠᏤᏍᏙ	-11.7316
▁ᏒᎦᎳ	-11.7316
▁ᏓᎾᏓᏱᎵᏙᎲ	-11.7316
▁ᏚᏕᎳᏍᏔ	-11.7316
▁ᏳᎬᏫᏳᎭ	-11.7316
▁ᎠᏓᎵᏂᎪᎯᏍᏗᏍᎪ	-11.7316
▁ᏗᏥᎦᎵᏍᏓᏕᏗ	-11.7316
▁ᏧᏬᎯᏳᏁᎢ	-11.7316
▁ᏭᏗᏢᏍᏔᏅ	-11.7316
▁ᎠᏥᏍᏚᎲᎢ	-11.7316
▁ᎣᎨᎲᎢ	-11.7316
▁ᏨᎩᏅᏒ	-11.7316
ᏓᏓᏚᎪᏓᏁᎲ	-11.7316
▁ᎢᏣᏢᏆᏍᎬ	-11.7316
▁ᎦᏓᎷᎩᏍ	-11.7316
▁ᎬᏩᏘᎾᏫᏛᎮ	-11.7316
▁ᏚᏂᏰᏍᏛ	-11.7316
▁ᏥᏆᎵᏏ	-11.7316
▁ᎵᏲᎢᏍᏗ	-11.7316
▁ᏕᏥᏲᏍᎨᏍᏗ	-11.7316
ᎩᏪᎡᎸᎩ	-11.7316
▁ᎢᏳᏩᏓᏗ	-11.7316
▁ᏎᏙᎩ	-11.7316
▁ᏗᎦᎷᏥᏒ	-11.7316
▁ᏛᎠᏥ	-11.7316
▁ᏱᎪᏪᎳ	-11.7316
▁ᎢᏥᏰᏣᏍ	-11.7316
▁ᎣᏌᏯ	-11.7316
▁ᎤᏁᎳᏗᏍᏗᏍᎬ	-11.7316
▁ᏓᎾᎵᏍᏛ	-11.7316
▁ᏧᎩᏥᏍᎪ	-11.7316
ᎵᏍᏓᏴᏅᎾ	-11.7316
▁ᎤᏂᏤᏖ	-11.7316
▁ᎬᏩᎦᏘᏗᏍᎩ	-11.7316
ᏥᏍᏚᎢᎡ	-11.7316
▁ᏕᏥᏍᏕᎵᏍᎬᎢ	-11.7316
▁ᏚᎪᏄᎶᏎ	-11.7316
▁ᏣᎵᏍᏓᏴᏗᏱ	-11.7316
ᎵᏃᎯᏰᎯ	-11.7316
▁ᏚᎳᏫᏛ	-11.7316
ᏓᏡᏫᏍᏕᎢ	-11.7316
▁ᎠᏂᏝᎲᏍᎪ	-11.7316
▁ᏱᎨᎨᎭ	-11.7316
▁ᎠᎾᏠᎾᏍᏗᏍᎬ	-11.7316
▁ᎣᏇᏗ	-11.7316
▁ᏚᎩᎸᏨ	-11.7316
▁ᏚᏂᏍᏗᏰᏔᏁ	-11.7316
ᏅᎪᎣᏒ	-11.7317
ᏲᏑᎴ	-11.7317
ᏗᏒᎲᏍᏗ	-11.7317
▁ᎠᎪᏢᎾᏁᎸᎯ	-11.7317
▁ᎡᏥᎥᏏ	-11.7317
▁ᏕᏥᎪᎾᏛ	-11.7317
▁ᎨᏥᏍᎦᏂ	-11.7317
▁ᏗᏓᎢᏒᎢ	-11.7317
▁ᏧᏂᏒᏍᏗᏱ	-11.7317
▁ᏱᏗᏧᎪᏓᏁ	-11.7317
▁ᏱᏨᏃᏁᎴᎢ	-11.7317
▁ᎠᏆᏂᎩᏒ	-11.7317
▁ᎤᏬᏢᎯᏐᏗ	-11.7317
▁ᎮᎵᎭ	-11.7317
▁ᏱᏓᎾᏕᏍᎪ	-11.7317
ᏂᎪᏁᎶᏍᎨᎢ	-11.7317
ᏑᎴᏍᎪ	-11.7317
▁ᎠᎩᏅᏨᎩ	-11.7317
▁ᏥᎯᏃᏁᎵ	-11.7317
▁ᎢᏨᏁᏤᎸᎩ	-11.7317
▁ᏗᏄᏪ	-11.7317
▁ᏕᏥᎬᏍᎪᎸᎥᏍ	-11.7317
▁ᎢᏲᎬᏁ	-11.7317
▁ᏅᏁᎸᎭ	-11.7317
▁ᏍᎩᏯᎵᎪ	-11.7317
▁ᎠᏍᏚᏟᏍᎩ	-11.7317
▁ᎣᎦᏅᏅᎩ	-11.7317
▁ᎤᏂᎿᎸᏨ	-11.7317
▁ᏗᎬᏩᏂᏲᎱᎯᏎᎸᎯ	-11.7317
ᎩᎾᏄᎪᏥᎸᎩ	-11.7317
ᏱᏃᏣᏛᏁ	-11.7317
▁ᎤᏄᎸᏅ	-11.7317
▁ᎤᏍᎫᏓᏛᎢ	-11.7317
▁ᏣᎵᏂᎬᎬᎢ	-11.7317
▁ᎠᏆᏓᏄ	-11.7317
▁ᏓᏍᏚᎲᎩ	-11.7317
▁ᏕᏥᏅᎦᎵᏍ	-11.7317
▁ᏚᏍᎦᏤ	-11.7317
ᏗᎴᎲᏍᎬ	-11.7317
▁ᏙᎨᏥ	-11.7317
▁ᎤᎵᏂᎪᏍᎬ	-11.7317
ᏖᎳᏛ	-11.7317
ᎦᏔᏂᎴ	-11.7317
▁ᎢᏥᎷᏤᎲ	-11.7317
▁ᏧᎾᏓᎴᏛ	-11.7317
ᏁᏢᏗᎭ	-11.7317
▁ᎤᎾᏓᏓᎴᏓᏁ	-11.7317
ᎦᎵᎪᏔᏅᎯ	-11.7317
▁ᏕᏥᎾᏫᏍ	-11.7317
▁ᏦᎯᏳᎭ	-11.7317
ᏓᎧᏃᎮᎵ	-11.7317
▁ᏥᏕᎨᎦ	-11.7317
ᎫᏏᏲ	-11.7317
ᏓᏓᏟᏌᏁ	-11.7317
▁ᏗᏔᎸᎢ	-11.7317
▁ᏧᏍᏕᎸᏛ	-11.7317
▁ᎠᎦᏅᏙ	-11.7317
▁ᏁᏣᏁᎸᎾ	-11.7317
▁ᏄᏬᏚᏒ	-11.7317
▁ᏅᏓᎬᏂᏌᏂ	-11.7317
ᏤᏪᎸ	-11.7317
▁ᏙᏥᏴᎬ	-11.7317
▁ᏚᏍᏓᏩᏛᏎᎢ	-11.7317
▁ᏥᏡᎦ	-11.7317
ᏍᏆᎸᏓ	-11.7317
▁ᏓᎦᏅᏓ	-11.7317
▁ᎥᎨᏒᎩ	-11.7317
▁ᎠᏆᏕᏅᎩ	-11.7317
ᏟᎶᏒᎸ	-11.7317
ᏴᎡᎴ	-11.7317
▁ᎤᏁᎢᏍᏔᏅᎢ	-11.7317
▁ᏕᏥᎦᏅᎩ	-11.7317
▁ᏱᏣᎵᏍᎩ	-11.7317
▁ᎤᏂᎦᏘᏯ	-11.7317
ᏰᎢᎵᏓᏍ	-11.7317
▁ᎤᎾᏝᎥ	-11.7317
▁ᏛᎦᏛᎩ	-11.7317
▁ᏧᏃᏴᎪ	-11.7317
▁ᎠᏂᏍᎦᏅᎩ	-11.7317
ᏣᏅᏛᎩ	-11.7317
▁ᎠᏐᏢᎢᏍᏗᏍᎨᏍᏗ	-11.7317
▁ᎢᏳᏓᎵᏍᏓᏁᏗ	-11.7317
▁ᎤᏓᎸᏍᏛ	-11.7317
▁ᎯᏫᏅ	-11.7317
▁ᏤᏉᎯᏳ	-11.7317
ᏢᎯᏏᏍ	-11.7317
ᏤᎳᏗᏍᏗᏍᎬᎢ	-11.7317
ᏓᏚᏓᏔ	-11.7317
▁ᏥᏕᎦᎶᏄᎮ	-11.7317
ᏱᎶᎸᎭ	-11.7317
▁ᎤᏲᏞᏒᎢ	-11.7317
ᏧᏂᏂᏴᎯ	-11.7317
▁ᎧᏁᏉᏥᏎ	-11.7317
▁ᎬᏁᎳᎩ	-11.7317
▁ᎢᏓᏓᏅᏓᏓ	-11.7317
▁ᎬᏬᏱ	-11.7317
▁ᏳᏚᎸ	-11.7317
▁ᏦᎠᎾ	-11.7317
ᎾᏛᏁᎵᏙᎯ	-11.7317
▁ᎢᏣᏓᏙᎵᏣ	-11.7317
▁ᏓᏥᏔᏲ	-11.7317
ᏓᎾᏣᏅᏗᏍᎨᏍᏗ	-11.7317
▁ᏓᏛᎩᎭ	-11.7317
▁ᎬᏩᎵᏍᏚ	-11.7317
▁ᏣᏴᏍᏗᏱ	-11.7317
▁ᎠᏂᏗᏢᏉ	-11.7317
▁ᏚᏂᏬᏂ	-11.7317
ᏚᏩᏍᎦᎳ	-11.7317
▁ᎡᏥᎶᏄᎡᎸ	-11.7317
ᏍᎦᎶᏗᏱ	-11.7317
ᏗᏫᏍᏗᏱ	-11.7317
ᏴᏕᏥ	-11.7317
▁ᎢᏣᏓᏄᏴ	-11.7317
▁ᎹᏓᏯᏃ	-11.7317
▁ᏪᏣᏚᎦ	-11.7317
▁ᏫᎦᏲᎩ	-11.7317
▁ᏧᏬᏪ	-11.7317
▁ᎢᏤᏲᏗᏱ	-11.7317
ᎦᏕᏲᎲᏍᎦ	-11.7317
▁ᏕᎪᎩᏂ	-11.7317
▁ᎭᏛᎩᏍᎪ	-11.7317
▁ᏥᏥᎷᎩ	-11.7317
▁ᎤᏁᎢᏍᏔᏅᎯ	-11.7317
ᏃᎸᏔᏂᏙ	-11.7317
ᏆᎳᏏᏗᏱ	-11.7317
▁ᏭᏕᎵᏨ	-11.7317
▁ᏱᏂᎦᏪᎭ	-11.7317
▁ᏧᏃᎮᎴ	-11.7317
▁ᎤᏮᏗᏱ	-11.7317
▁ᎨᎩᏍᎦᎩ	-11.7317
▁ᏧᏲᎯᏍᏗᏱ	-11.7317
▁ᎤᏃᎱᎦᏂᎸ	-11.7318
▁ᎠᏍᏛᏗᏍᏗᏍ	-11.7318
▁ᎠᎦᏛᎾᏨ	-11.7318
▁ᎧᏳᎦ	-11.7318
▁ᏓᎬᎾᏄᎪᏫᏎᎵ	-11.7318
▁ᏕᎯᏍᏓᏩᏗᏎᏍᏗ	-11.7318
ᎸᏉᏗᏍᎪᎢ	-11.7318
▁ᎬᏩᏍᏓᏩᏗᏙᎮ	-11.7318
▁ᎤᏚᎸᏅᎥᏍᎬᎢ	-11.7318
ᎩᎦᎵᏍᏓᏗᏍᎬᎩ	-11.7318
ᏙᎵᏥᏰᏃ	-11.7318
▁ᏗᏦᏏᏏᏍᎩ	-11.7318
▁ᎤᎾᏕᎰᏔ	-11.7318
▁ᎤᏁᎢᏍᏔᏅᎩ	-11.7318
▁ᎴᎻ	-11.7318
▁ᏯᏍᎦᎦ	-11.7318
▁ᏕᎨᎦᏓᏂᎸᏨ	-11.7318
▁ᏚᏫᏒᎢ	-11.7318
▁ᎦᏙᎩᏯᏍᎬ	-11.7318
▁ᏱᎬᏍᎦᏅ	-11.7318
ᏛᏅᎢᏍᏔᏅᎾ	-11.7318
▁ᏕᎨᎫᎪᏓᏁ	-11.7318
ᏯᏪᏐᎸᏍᏗᏱ	-11.7318
ᎩᏍᏆᎸᏔᏅ	-11.7318
▁ᏱᎦᎷᏤ	-11.7318
▁ᏓᏛᏍᎬᎢ	-11.7318
▁ᏗᏤᎵᏛ	-11.7318
▁ᏗᏯᏖ	-11.7318
▁ᎡᏧᏓᎴᏍᏗ	-11.7318
▁ᎨᎦᏎᎸ	-11.7318
▁ᎷᏆ	-11.7318
▁ᏄᏂᏍᎦᏅᏨᎾ	-11.7318
ᏣᏕᏲᎲᏍᎩ	-11.7318
ᎱᏍᏕᏎᎸᎩ	-11.7318
▁ᏕᏣᏓᏛᏗᏍᎬ	-11.7318
ᎨᏣᏡᏗᎭ	-11.7318
▁ᎡᏦᎢᏳᎲᏍᎩ	-11.7318
▁ᏱᎨᏥᏎᎪᎩ	-11.7318
▁ᏧᏈᏯ	-11.7318
▁ᎦᎾᏄᎪᏫᏍᎬ	-11.7318
▁ᏱᏙᎸᏫᏍᏓᏁᎭ	-11.7318
▁ᏧᏁᏲᎲᏍ	-11.7318
▁ᏕᎬᏩᏲᏒ	-11.7318
▁ᎠᏕᏄ	-11.7318
▁ᏃᏨᏁᎰ	-11.7318
▁ᎠᏆᏎᎵᏔᏅ	-11.7318
▁ᏚᎾᏓᏠᎲ	-11.7318
▁ᏯᏅᏗᎭ	-11.7318
▁ᏄᎾᎵᏏᎾᎯᏍᏛᎾ	-11.7318
▁ᏄᎾᏓᏄᏴᏛᎾ	-11.7318
ᏕᏘᏱ	-11.7318
▁ᎡᏥᏲᎢᏎᎸ	-11.7318
▁ᏕᎦᏂᏱ	-11.7318
ᎦᎿᏂ	-11.7318
▁ᎤᎸᏉᏔᏅᎯ	-11.7318
▁ᎤᏁᎵᏨ	-11.7318
▁ᏁᏣᎦᏔᎲᎾ	-11.7318
▁ᎤᏍᏓᏱᏛ	-11.7318
▁ᏓᏂᎧᎿᏩᏕᎪ	-11.7318
ᏣᏒᏂᎸᎩ	-11.7318
▁ᏕᏣᏓᎦᎵᏍᏓᏗᏍ	-11.7318
▁ᎢᏍᏓᏛᏅ	-11.7318
ᏩᏎᏅ	-11.7318
▁ᏦᎦᏓᏅᏙ	-11.7318
▁ᎦᏂᏢ	-11.7318
▁ᎦᎴᏂᏙᎲ	-11.7318
▁ᏅᏓᎬᏩᎴᏅᏛ	-11.7318
▁ᎤᏅᏩᏅᎩ	-11.7318
▁ᏗᏨᏳᎪᏓᏁᏗ	-11.7318
▁ᏫᏚᏠᏒ	-11.7318
ᏓᎡᏏ	-11.7319
ᎷᏯᏍᏗ	-11.7319
▁ᎢᎪᏢᏅᎯ	-11.7319
▁ᎨᏣᏌᎳᏙ	-11.7319
ᎧᏁᏉᎦ	-11.7319
▁ᏗᏂᏙᎩ	-11.7319
▁ᎯᏯᏓᏙᎵᏍᏓᏏ	-11.7319
▁ᎤᏍᎦᏅᏤᎢ	-11.7319
ᏅᏍᏙᎯ	-11.7319
ᏓᏟᎶᏍᏗᏍᎬ	-11.7319
\	-12.7316
Ꮚ	-13.5298
(	-13.5299
Ꮌ	-13.53
Ꮛ	-13.5301
[	-13.5302
