<pad>	0
</s>	0
<unk>	0
¦	-1.48034
▁¦	-1.66302
▁,	-3.67369
▁	-3.93528
ꭲ	-4.0595
𐊣	-4.25402
𐊼	-4.25402
ꭰꮄ	-4.36066
▁.	-4.39066
ꮓ	-4.44709
ꮧ	-4.48873
ꮎꮝꭹ	-4.58837
ꭹ	-4.66361
ꭴ	-4.68932
ꮎ	-4.72542
▁;	-4.78954
ꮫ	-4.84579
ꮒ	-4.86525
ꮣ	-4.87642
ꭰ	-4.90809
ꭶ	-4.92565
ꮕ	-5.00807
ꮵ	-5.05012
ꮅ	-5.0758
ᏹ	-5.11576
ꭿ	-5.26642
ꭿꭰ	-5.28722
ꭸꮢ	-5.34085
ꭽ	-5.41985
ꮥ	-5.45174
ꮿ	-5.47767
ꮝꮧ	-5.47941
ꭼ	-5.49582
ꮻ	-5.6636
ꮳ	-5.66912
ꮪ	-5.6715
ꮙ	-5.6798
ꮩ	-5.68303
ꮈ	-5.68911
ꮟ	-5.7186
ꮷ	-5.72167
ꮑ	-5.76418
ꭸ	-5.82077
ꭺ	-5.82228
ꮝꭹ	-5.85523
ꮃ	-5.87055
ꭵꮭ	-5.87321
ᏻ	-5.87423
ꭱ	-5.88838
ꮂ	-5.90076
ꭸꮢꭲ	-5.90242
ᏸꮓ	-5.91993
ꮢ	-5.9617
ᏺ	-5.98156
ꮞ	-6.01769
ꭴꮑꮃꮕꭿ	-6.02071
ꭵ	-6.02209
ᏼ	-6.03518
ꭴꮒ	-6.03652
ꮄ	-6.04081
ꮆ	-6.09159
ꭾ	-6.14346
ꮹ	-6.15126
ꭼꮹ	-6.16031
ꮸ	-6.16588
ꭰꮒ	-6.16614
ꮴ	-6.17145
ꮝꭹꮒ	-6.21369
ꮔ	-6.24846
ᏸ	-6.25788
ꭴꮎ	-6.31099
ꮲ	-6.35364
ꭹꮆ	-6.39121
ꮤ	-6.39136
ꮧᏹ	-6.40277
▁?	-6.40545
ꭸꮞꮝꮧ	-6.4124
ꭰꮞ	-6.41898
ꮜ	-6.42151
ꮝꭶ	-6.43064
ꭲᏻ	-6.43607
ꮖ	-6.46111
ꮝꭺ	-6.46667
ꮎꮝꮙ	-6.49822
ᏼꮻ	-6.5082
ꮵꮜ	-6.51531
ꮨ	-6.53475
ꮎꮝꭹꮿ	-6.58083
ꭰᏼ	-6.58336
ꮝꭼ	-6.59834
-	-6.60839
ꮺ	-6.61499
ꮝꮣ	-6.62081
ꮏꮙ	-6.62261
ꮴꮅ	-6.64095
ꮝꮧᏹ	-6.67537
ꮵꭹ	-6.6777
ꮒꭸꮢꮎ	-6.69862
ꮒꭿ	-6.70243
ꭴꭼꮻᏻꭿ	-6.70417
ꮼ	-6.7065
ꭲꭶ	-6.71301
ꮶ	-6.72985
ꭲᏻꮝꮧ	-6.74105
ꭳ	-6.74631
ꮝꭸꮝꮧ	-6.77672
ꮑꮈ	-6.78067
ꮇ	-6.78889
ꮠ	-6.79648
ꭲꮵ	-6.82726
ꭶꮩ	-6.83621
ꮎꮏ	-6.86011
ꭶꮆꮑꮫ	-6.87016
ꭷ	-6.88465
ꮝꮫ	-6.88487
ꮀ	-6.90443
ꮣꮕ	-6.93567
ꭸꮵ	-6.94619
ᏹꭹ	-6.95942
ᏸꮈ	-6.96137
ꭰꭹ	-6.96533
ꭺꮁꮝꮧ	-7.00234
ꮈꭹ	-7.00484
ꭲꮳ	-7.00523
ꮒꭶꮫ	-7.00911
ꮕꭹ	-7.0422
ꮕꭿ	-7.04843
ꭿᏻ	-7.05135
ꭸꮞ	-7.05889
ꮰ	-7.06511
ꮦ	-7.0756
ꭾꮝꮧ	-7.09386
ꭳꮝꮫ	-7.10058
ꭺꭿ	-7.10223
ꮘ	-7.10671
ꮑꮧ	-7.11385
ꮢꭹ	-7.13769
ꮩꮣ	-7.14326
ꭴᏺ	-7.14863
ꭰꮖ	-7.14883
ꮈꮻꮝꮣꮑ	-7.15011
ꮡ	-7.16156
ꭲꮸ	-7.16948
ꭲᏻꮓ	-7.17049
ꮽ	-7.1747
ꮯ	-7.1951
ꭰꮣ	-7.20875
ꭴꮣ	-7.2103
ꮪꮒ	-7.21965
ꮂꭲ	-7.22115
ꭴꮺ	-7.23566
ꮮꮝꮧ	-7.23925
ꮹꮫ	-7.2554
ꮑꭲ	-7.26707
ꭶꮤ	-7.27054
ꮎꮝꭹꮓ	-7.27867
ꮝꭼꭲ	-7.28866
ꮈꭿ	-7.29259
ꮤꮕ	-7.30192
ꭴꮺꮵ	-7.30387
ꭱꮆꭿ	-7.3049
ꮄꭲ	-7.32034
ᏸꮅ	-7.32348
ꭴꮳꮨ	-7.32369
ꭴꮅ	-7.32459
ꭻ	-7.33484
ꭴꮹꮢ	-7.34285
ꮒꭼ	-7.34543
ꮩꮧ	-7.35038
ꮑꮧᏹ	-7.35606
ꮒꭶꭵ	-7.3681
ꮇꮴ	-7.37184
ꭴꮑ	-7.38067
ꭰꮵ	-7.39568
ꮤꮕꭿ	-7.3965
ꮣꮄ	-7.39696
ꭰꮎ	-7.41991
ꮧꭶ	-7.4252
ꭶꮅ	-7.43414
ꮝꮖ	-7.44632
ꮕꮫ	-7.45613
ꮑꮂ	-7.47098
ꮔꮺꮞ	-7.47127
ꭼꮒꭸꮢ	-7.47568
ꭰꮵꮈ	-7.48322
ꮷꮒ	-7.48815
ꮪꮅ	-7.49387
ꮷꮎ	-7.49476
ꮔꮝꮫ	-7.50766
ꭰꮣꮕꮩ	-7.51078
ꮏ	-7.52313
ꭷꮓꭾꮫ	-7.52369
ꭶꮈꮙꮧᏻ	-7.54037
ꮔꭺ	-7.5436
ꮑꮈꭿ	-7.55439
ꭶꮈꮃꮧ	-7.55733
ꭴꮯ	-7.56017
ꮅꮝꮣ	-7.56693
ꮝ	-7.56748
ꮣꮒ	-7.56836
ꭶꮨ	-7.57131
ꮧꮒ	-7.57296
ꮎꭿᏻ	-7.57924
ꮺꮞ	-7.57925
ꮕꮣ	-7.58437
ꮗ	-7.58855
ꭱꭿ	-7.60245
ꮧꭷꮏꮹꮫꮝꮧ	-7.60276
ꭳꮟᏻ	-7.60279
ꭲᏼꮫ	-7.61784
ꭿꭰꮓ	-7.61902
ꮑꮄ	-7.61964
ꭴꮴꮅ	-7.62654
ꮈꭲ	-7.63128
ꮑꮅ	-7.6483
ꭿꮝꮧ	-7.652
ꭶꮤꮂ	-7.65448
ꭲᏻꮅꮝꮩꮧ	-7.67882
ꭸꮝꮧ	-7.68047
ꮎꮒꭵ	-7.68123
ꮵꭺ	-7.68319
ꭶꮈ	-7.68558
ꮩꭿ	-7.68568
ꮝꮤꮕ	-7.68809
ꭰꮝꭶꮿ	-7.68875
ꭿꮝꮧᏹ	-7.69467
ꮝꮥ	-7.7038
ꮇꮸ	-7.70766
ꮂꭹ	-7.7158
ꮜꮙ	-7.71677
ꮝꮪ	-7.72658
ꮝꮩꮧ	-7.73017
ꮪᏻꭺꮫ	-7.74065
ꮈꮙꮧ	-7.74172
ꮱ	-7.74476
ꭴꮴꮅꭶ	-7.76164
ꮑꭿ	-7.7629
ꮑꮆ	-7.7664
ꭴꮼ	-7.78073
ꮸꭿ	-7.78318
ꮥꮵ	-7.78821
ꮪꮎ	-7.79961
ꮝꭸ	-7.80325
ꮑꭽ	-7.80409
ꮥꮳ	-7.80648
ꭼꮒᏻꮙ	-7.81302
ꭲꮴ	-7.81558
ꭲꭼᏹ	-7.83189
ꭶꮫ	-7.83282
ꮝꮩ	-7.84774
ꮧꮵ	-7.85036
ꮔꮺꮢ	-7.854
ꭺꮂ	-7.85464
ꮢꭲ	-7.87366
ꮵꮜꮓ	-7.88536
ꮤꮅ	-7.88573
ꭷꮑ	-7.88705
ꭱꮵ	-7.88733
ꮵꮿ	-7.8874
ᏺꮅ	-7.89673
ꮩꮧᏹ	-7.90135
ꮒꭺ	-7.91077
ꮤꮑ	-7.911
ꮧꮳ	-7.91624
ꮥꭶ	-7.91692
ꮩꮅ	-7.92332
ꭼꭲ	-7.92492
[	-7.92503
ꮉ	-7.92755
ꮝꭸꭲ	-7.94839
ꭴꮒꮳꮨ	-7.95006
ꮳꮣ	-7.95397
ꮝꮥꮈ	-7.96761
ꮋ	-7.98611
ꭰꮑꭿ	-8.00104
ꮧꮝꭹ	-8.00117
ꮔꮎ	-8.00183
ꮒꮪꮺꮞꮄ	-8.00199
ꭼꭹ	-8.00375
ꮅꭾꮅ	-8.00986
ꮩꮄ	-8.01394
ꮔꮺꮞꮄ	-8.01407
ꮤꮅꮑ	-8.02308
ꭰꮒꮷꮟ	-8.02909
ꮷꮣꮄꮕꮫ	-8.04559
ꭳꭹ	-8.04967
ꭼꮹꮝꮣꮹꮧꮩꭿ	-8.05185
ꮙꮃ	-8.05348
ꮁ	-8.07653
ꭴꭼꮹꮅ	-8.07998
ꮳꮒ	-8.09069
ꮣꮒꮈ	-8.09579
ꭷꮅ	-8.10385
ꭴꮑꮸ	-8.10885
ꭸꭶ	-8.10965
ꮝꭼꮎ	-8.11062
ꮔꮼ	-8.11674
ꮎꭵ	-8.12409
ꭶꮪ	-8.12531
ꭶꮪꮂ	-8.1326
ᏺꭿ	-8.14164
ꮘꮣ	-8.14204
ꮢꭿ	-8.1454
ꮕꮯ	-8.1501
ꮕꮟꮫ	-8.15194
ꮒꭶꮺ	-8.16005
ꮝꮩꮧᏹ	-8.16161
ꭺꭿᏻꮧ	-8.17056
ꭸꮳ	-8.17347
ꮒꭺꭿꮈ	-8.18298
ꮝꭶꮕꮸ	-8.18347
ꭴꮎꮣ	-8.1868
ꮵꭶꮤꭽ	-8.18937
ꭼꮹꮒ	-8.19079
ꮭ	-8.19081
ꭷꮏ	-8.19112
ꭰꮉ	-8.19227
ꮑꮈꭹ	-8.19541
ꭶꭺ	-8.19542
ꮕꮟꮣꮝꮧ	-8.20207
ꭰꮟ	-8.21309
ꮊ	-8.21518
ꮕꮧꭶꮅꮝꮩꮧꭽ	-8.21518
ꭴꮩꭿᏻꭿꮿ	-8.21812
ꮕꮞ	-8.22559
ᏺꮁꮢ	-8.23052
ꮒꮪꮺꮞꮈ	-8.23518
ꮭꮝꭺ	-8.24185
ꮶꭿᏻ	-8.24594
ꮧꭶꮃꮻꭲꮝꮧᏹ	-8.25559
ꮅꮝꮩꮧ	-8.25941
ꭲꮷꮃꭽ	-8.26249
ꮩꮅꮝꮧ	-8.27418
ꭻᏼ	-8.27556
ꮝꮤꮑ	-8.27626
ꭴꮕꮢ	-8.27736
ꮣꮕꮩ	-8.2787
ꮵꮇꮟꮅꮋ	-8.28347
ꮠꮕ	-8.28643
ꮅꮝꮣᏼꮧ	-8.29131
ꭲꮳꮣ	-8.29579
ꭼꮒꮫ	-8.31316
ꮑꮃ	-8.32515
ꮞꮝꮧ	-8.32627
ꮳꭼꮻᏻꭿ	-8.3268
ꭳꭶ	-8.32864
ꭱꮳ	-8.33362
▁]	-8.33638
ꭰꭸᏼ	-8.34188
ꮝꮖꮈ	-8.34335
ꭱꮝꭶ	-8.34554
ꮝꮖꮒꭺꮧ	-8.34921
ꭰᏸꮈ	-8.34957
ꮕꮹꮣꮄ	-8.3568
ꭰꮥꮈ	-8.36485
ꮑꭾꮝꮧ	-8.37063
ꭲꮿꮒ	-8.37449
ꮝꮤꮕꭿ	-8.37536
ꭲꭶꮫ	-8.37723
ꭰᏸꮅ	-8.37807
ꮕꮣᏻ	-8.37885
ꮔꮅꮝꮤꮕ	-8.37986
ꮆꮢ	-8.405
ꭰꭶᏼꮅꭸ	-8.4083
ꭴꮣꮩꮅꮝꮧ	-8.41241
ꮹꮧꮢ	-8.41307
ꮒꭶꮧᏻ	-8.41953
ꮽꮒ	-8.42221
ꮷꮺꮵ	-8.43598
ꮑꮀ	-8.43811
ꮷꮎꮣꮄꮕꮫ	-8.44412
ꭺꮺꮅ	-8.45257
ꮝꮤꮒ	-8.48268
ꮝꮥꮝꮧ	-8.49253
ꮮ	-8.50862
ꮔꮺꮞꮈ	-8.51801
ꮬ	-8.53075
ꮒꮸꮺꮞ	-8.53079
ꮑꮯᏼ	-8.53989
ꭲᏻꮹꮒꮜ	-8.54902
ꭰꮟᏼꮻ	-8.55132
ꭼꮹꭶꮨꮿ	-8.56764
ꭴꮩꭿᏻꭿ	-8.57285
ꭹꮃꮙ	-8.57754
ꮔꮒꮺꮞ	-8.59623
ꮣꮕꮦꮝꭼ	-8.59628
ꭰꮟꮙ	-8.60171
ꮷꮎꮑꮆꮧ	-8.60592
"	-8.6157
ꮧꭷꮏꮹꮧꮩꭿ	-8.64571
ꭴꮗꮣꮅ	-8.64571
ꮔꭼꮻᏻꮢ	-8.64571
ꮔꮒꮺꮢ	-8.65592
ꭺꮹꮫꮧ	-8.67127
ꭴꮅꮒꭹꮫ	-8.67664
ꮧꭶꮈꮻꮝꮣꮑꮧ	-8.67673
ꭲꮣꮅꮕꮯ	-8.68716
ꭲꮧꮲ	-8.68917
ꭶꮣꭽ	-8.68963
ꮧꮤꮝ	-8.69238
ꮣꮩꮅꮝꮣꮑ	-8.69794
ꭸꮠꭲ	-8.71601
ꮫꮕꭲꮝ	-8.72498
ꭸᏻꭿ	-8.7277
ꮝꮖꮧꮝ	-8.73659
ꮕꮧꭶꮅꮝꮩꮧꮝꭸ	-8.74153
ꮾ	-8.75276
ꭶꮅꮙꭹ	-8.75289
ꭴꮪꭹ	-8.75465
ꮔꮅꮝꮤꮑ	-8.76414
ꮹꮨꮝ	-8.77319
ꮕꮹꮩꭿꮿꮫ	-8.77562
ꮷꭼꮹꮆꮧ	-8.77562
ꭴꮥꮅꮫ	-8.77563
ꮅꮝꮣᏼꮂ	-8.77564
ꭺꮺꮃ	-8.7881
ꭰꮒꮝꭶꮿ	-8.79911
ꮌ	-8.81091
ꭴꮑꮃꭹ	-8.82322
ꮑꮃꮕꭿ	-8.82752
ꭶᏼꮅꭸ	-8.82775
ꭰꮎꮩꮄꮀꮝꭹ	-8.83516
ꮅꮝꭺꮈꮣ	-8.83517
ꭴꮎꮣꮕꮨ	-8.8352
ꮪꮩꭵ	-8.83535
ꮑꮴꮈ	-8.83729
ꭼꮧꮝꭼ	-8.83988
ꮤꮃꮪ	-8.86012
ꮕꮣᏻꮣꮄꮕ	-8.86018
ꭲꮈꭿᏻ	-8.87327
ꮓꭾꮝꭼ	-8.8767
ꮎꮭꭲ	-8.88694
ꭲꮟꮅ	-8.90108
ꮔꭺꮻꮢ	-8.90995
ꭱꮖꭽꮋ	-8.91163
ꮅꮝꮥꮈꮩꮧ	-8.91167
ᏹꮀꮹ	-8.91172
ꮜꮹꮒ	-8.91183
ꭱꮃꮧ	-8.91228
ꮔꮒꭼꮻᏻꮢ	-8.92496
ꭴꮎꮫꭶꮕ	-8.925
ꮼꮒꭿꮝꮧ	-8.93564
ꭰꮝꭶꮒ	-8.93917
ꭸꮅꮅ	-8.93936
ꮈꮙꮩꮧ	-8.94547
ᏺꮞꭽ	-8.95238
ꭼꮻᏻ	-8.95275
ꮨꮒꮩ	-8.96374
ꭰꮒꮖꮅꮟ	-8.96606
ꭴꮎꮣꮱꭼ	-8.96607
ꮎꮔꭺꮻꮞ	-8.96611
ꭸꮆꭿ	-8.96633
ꮒꮳꮫꮑ	-8.9664
ꭰꮩꮄꮀꮝꭹ	-8.98015
ꮧꮒꭷꮏꮹꮧꮩꭿ	-8.98015
ᏺꮁꭿ	-8.98323
ꮥᏺꮂꮝꭹ	-9.02363
ꭰᏺꮁꭿꮝꮧ	-9.02371
ꮔꭺꮻꮝ	-9.02769
ꮒꭶꮅꮝꮧ	-9.03873
ꮫꮏꮥ	-9.03949
]	-9.04925
ꮒꮵꮺ	-9.05009
ꭼꮻᏻꮜꮥꭹ	-9.06909
ꭺꮺꮈ	-9.07019
ꭲꮿꭶᏼꮅ	-9.08472
ꭰꮣꭸᏻꮧ	-9.11672
ꭶᏻꮃ	-9.11725
ꭶꮎꮔꭺ	-9.11823
ꭲᏻꮎꮅꮝ	-9.12238
ꭴꮅꮒꭹꮧᏻ	-9.13311
ꮒꭼꮎꮫ	-9.13355
ꭲᏻꮎꮝꮧ	-9.13368
ꮵꭸꮠ	-9.13895
ꭰꮝꮣꮿ	-9.15017
ꭰꮎꮅꮕꮯ	-9.16674
ꮝꮣꮹꮥ	-9.16692
ꮝꮣꮹꮧꮩꭿ	-9.19939
ꮟᏼꮻꭽ	-9.20173
ꭰꮓꭿᏻꮂꮝꭹ	-9.21937
ꮣꮄꮂꮝ	-9.22886
ꮕꮹꮎꮣꮄ	-9.23755
(	-9.37502
𐋇	-9.818
.	-11.0754
'	-11.2201
,	-11.5099
~	-12.313
;	-12.7935
ꮍ	-12.813
?	-13.7947
ꮚ	-13.8126
:	-13.8127
)	-13.8128
!	-13.8129
\	-13.813
ꮛ	-13.813
