<pad>	0
</s>	0
<unk>	0
s	-3.16846
▁the	-3.4226
▁	-3.53061
.	-3.53229
,	-3.69805
▁of	-4.0873
e	-4.1499
▁to	-4.21637
▁in	-4.22071
t	-4.32697
ed	-4.46211
▁a	-4.47763
ing	-4.55619
▁and	-4.57365
o	-4.63315
d	-4.74136
y	-4.7686
c	-4.87075
p	-4.90569
a	-4.93656
n	-4.93767
▁is	-4.93899
m	-4.97906
al	-5.05547
g	-5.10652
er	-5.16746
▁for	-5.20851
▁be	-5.21161
▁The	-5.21323
u	-5.23049
ar	-5.29302
-	-5.33832
or	-5.3606
in	-5.40505
i	-5.41872
re	-5.42921
ly	-5.43936
r	-5.46458
▁are	-5.47199
ur	-5.51075
▁A	-5.53986
b	-5.54437
▁that	-5.54691
▁has	-5.55489
▁on	-5.55882
f	-5.57998
h	-5.58456
▁have	-5.64114
▁f	-5.64809
on	-5.67215
▁with	-5.69662
le	-5.73723
▁S	-5.73765
'	-5.73818
es	-5.7422
▁p	-5.74976
l	-5.75161
an	-5.77377
k	-5.79126
it	-5.79219
st	-5.83594
▁will	-5.85814
▁corona	-5.87228
▁from	-5.87933
at	-5.8943
▁was	-5.89733
▁re	-5.92236
▁w	-5.93792
ir	-5.94062
▁not	-5.95847
ri	-5.96717
en	-5.98504
ic	-5.99771
▁c	-6.00638
▁m	-6.00815
ation	-6.02597
▁by	-6.04907
w	-6.05799
▁been	-6.07398
ro	-6.07506
▁P	-6.08163
ad	-6.09029
il	-6.09665
▁at	-6.1063
▁patients	-6.10952
▁b	-6.11285
▁it	-6.12092
▁vaccine	-6.12385
ent	-6.13545
▁this	-6.15677
▁as	-6.16469
▁l	-6.19075
se	-6.21449
▁state	-6.23315
▁said	-6.2522
)	-6.27662
▁C	-6.28221
as	-6.29129
▁or	-6.30437
▁In	-6.3216
▁"	-6.32307
ter	-6.32622
▁government	-6.3305
▁(	-6.33226
▁people	-6.34004
▁M	-6.34235
ive	-6.3522
▁T	-6.3645
▁B	-6.37903
th	-6.38076
is	-6.38189
ra	-6.38643
▁also	-6.39591
▁co	-6.41331
id	-6.41476
▁ex	-6.44777
ha	-6.44923
if	-6.45987
ce	-6.4702
us	-6.47306
▁number	-6.48314
te	-6.48704
?	-6.48775
0	-6.49478
ig	-6.50136
out	-6.50476
la	-6.50665
v	-6.50816
▁were	-6.50891
j	-6.51489
ul	-6.52028
▁virus	-6.5207
un	-6.5565
▁de	-6.56186
ve	-6.56514
ion	-6.59374
-19	-6.59513
am	-6.61788
ch	-6.62393
▁an	-6.62409
▁Corona	-6.63185
▁can	-6.63376
ment	-6.64134
C	-6.64946
ol	-6.64984
ne	-6.65194
li	-6.65372
▁g	-6.66002
▁I	-6.67023
▁con	-6.67125
ac	-6.67148
sh	-6.67698
1	-6.68259
▁K	-6.69269
▁2	-6.69287
▁D	-6.69298
el	-6.69751
ers	-6.7064
▁should	-6.7108
ate	-6.71319
mp	-6.72008
▁do	-6.72405
op	-6.72557
▁other	-6.72613
▁India	-6.73794
▁health	-6.74252
▁no	-6.74627
2	-6.74725
▁Minister	-6.75211
▁ab	-6.76174
▁H	-6.76274
▁d	-6.76344
5	-6.76474
S	-6.77454
▁had	-6.77543
I	-6.77982
▁test	-6.78124
ist	-6.81416
and	-6.81633
wa	-6.85159
▁who	-6.85532
▁G	-6.85752
vi	-6.8615
▁we	-6.86176
:	-6.86291
▁h	-6.86543
ity	-6.87023
tion	-6.87399
▁he	-6.8825
▁all	-6.89383
3	-6.89602
▁1	-6.89848
▁after	-6.90267
▁Maharashtra	-6.90275
▁oxygen	-6.90415
ut	-6.90922
ll	-6.91437
▁COVID	-6.91842
▁you	-6.92108
x	-6.92268
end	-6.92908
▁there	-6.9302
▁time	-6.937
▁me	-6.94107
▁tr	-6.94302
CoV	-6.94924
▁Dr	-6.95074
▁hand	-6.95306
▁infection	-6.95452
im	-6.96549
A	-6.96581
ant	-6.96633
▁disease	-7.00601
qu	-7.00775
E	-7.00817
▁r	-7.01252
me	-7.01292
▁It	-7.01343
ta	-7.01854
▁more	-7.01887
▁R	-7.02295
6	-7.02598
om	-7.02965
▁E	-7.03853
▁F	-7.04655
▁This	-7.04733
▁so	-7.05332
▁e	-7.06249
▁L	-7.06593
ction	-7.06641
▁lockdown	-7.08185
▁than	-7.08402
▁vaccination	-7.0869
▁But	-7.08907
▁some	-7.08969
ther	-7.09362
▁new	-7.09547
▁work	-7.09563
um	-7.10185
7	-7.10228
age	-7.11896
▁W	-7.12604
▁ca	-7.12792
ard	-7.12969
▁under	-7.13539
ill	-7.15075
8	-7.16486
ated	-7.16871
4	-7.17486
ies	-7.17733
▁per	-7.17989
▁year	-7.18232
ect	-7.18964
9	-7.19149
▁country	-7.19347
▁Health	-7.19349
ack	-7.19539
▁V	-7.20079
▁pro	-7.20443
ide	-7.20706
▁days	-7.2115
he	-7.22235
▁He	-7.22767
▁4	-7.22927
tic	-7.23037
hich	-7.23365
z	-7.23579
ance	-7.24248
▁one	-7.2449
▁go	-7.2454
hi	-7.24912
▁being	-7.24957
▁O	-7.2528
▁need	-7.25402
ial	-7.25488
di	-7.26125
ver	-7.26268
▁hospital	-7.26983
ry	-7.27213
▁but	-7.27498
har	-7.28423
ten	-7.28826
▁district	-7.28982
▁J	-7.29527
▁On	-7.29767
com	-7.30091
▁first	-7.30442
▁vaccines	-7.30493
▁high	-7.31068
ted	-7.31353
▁many	-7.31732
M	-7.31981
▁3	-7.32361
▁these	-7.32519
▁dis	-7.32971
▁un	-7.3315
T	-7.34125
ak	-7.34477
▁use	-7.35226
▁spread	-7.35595
▁found	-7.35597
ting	-7.35989
low	-7.3605
▁may	-7.36307
lu	-7.36536
P	-7.36698
▁second	-7.36926
han	-7.37134
ho	-7.37213
R	-7.37376
iv	-7.377
▁day	-7.38417
▁two	-7.38504
▁get	-7.39463
▁ra	-7.39698
▁last	-7.39916
▁We	-7.40167
ia	-7.40215
O	-7.40446
▁sp	-7.40644
▁over	-7.41065
ma	-7.41119
▁up	-7.41552
▁such	-7.41734
%	-7.42202
▁cases	-7.42537
▁sta	-7.4316
hief	-7.43402
D	-7.43592
▁March	-7.44107
ine	-7.44169
ach	-7.44187
▁out	-7.44338
va	-7.44783
▁Mumbai	-7.44828
▁symptoms	-7.44828
▁'	-7.45057
▁SARS	-7.4507
▁develop	-7.4507
▁N	-7.45644
est	-7.45772
▁Co	-7.45974
vir	-7.46338
▁2020	-7.46781
▁U	-7.46923
▁According	-7.47028
H	-7.47095
na	-7.47963
▁any	-7.48265
▁death	-7.48278
"	-7.48461
ab	-7.49474
▁given	-7.49535
due	-7.49575
▁says	-7.49848
▁situation	-7.5004
up	-7.50412
▁app	-7.51429
00	-7.52206
▁children	-7.5236
ang	-7.52433
▁treatment	-7.53191
▁wave	-7.53425
da	-7.53472
ep	-7.53588
no	-7.54129
▁dose	-7.54387
able	-7.54695
▁like	-7.54742
▁person	-7.54759
ical	-7.54933
▁Ra	-7.54943
▁Wh	-7.54975
▁10	-7.55125
man	-7.5527
ke	-7.56036
ti	-7.57293
ous	-7.57809
▁There	-7.58021
▁However	-7.58282
▁Covid	-7.58545
und	-7.59261
▁Na	-7.59332
▁7	-7.59363
▁school	-7.5938
▁system	-7.59941
▁only	-7.60597
▁home	-7.608
▁countries	-7.61357
▁5	-7.61492
▁6	-7.61723
▁take	-7.61789
▁coronavirus	-7.6193
▁available	-7.62217
▁your	-7.6223
ence	-7.6324
▁see	-7.63319
▁infected	-7.64252
▁April	-7.64546
old	-7.64706
▁even	-7.65157
▁world	-7.65434
▁his	-7.65535
av	-7.65996
▁If	-7.66178
▁Re	-7.6703
mi	-7.67256
▁cent	-7.67928
▁during	-7.68158
▁What	-7.6817
▁So	-7.68482
▁An	-7.68881
ip	-7.69154
▁against	-7.69498
ary	-7.69565
-2	-7.69995
▁risk	-7.70308
N	-7.70576
▁how	-7.70947
▁when	-7.72257
ities	-7.72466
;	-7.72513
▁No	-7.72804
▁while	-7.72834
▁mask	-7.72837
▁now	-7.7315
▁care	-7.73209
▁pre	-7.73434
▁week	-7.73487
▁used	-7.73603
▁Pune	-7.74137
ood	-7.74376
▁8	-7.74743
▁those	-7.74772
▁vaccinated	-7.75275
tra	-7.75752
ok	-7.7587
ell	-7.75935
▁20	-7.76114
line	-7.78235
ever	-7.78376
▁medical	-7.78771
▁taken	-7.7894
."	-7.79337
▁part	-7.7944
▁Thackeray	-7.79447
,000	-7.79457
▁public	-7.80573
▁De	-7.80905
▁through	-7.81171
▁age	-7.8136
▁cause	-7.8136
very	-7.81387
▁they	-7.81499
▁reported	-7.81526
▁provide	-7.81871
▁State	-7.82244
▁place	-7.82577
▁rate	-7.82896
▁9	-7.83101
▁As	-7.83447
▁outbreak	-7.83993
▁large	-7.84353
ould	-7.84506
▁drug	-7.84711
▁made	-7.85098
▁effective	-7.85544
▁restrictions	-7.85798
▁hospitals	-7.86083
▁come	-7.86089
▁Ch	-7.86104
ik	-7.86575
▁China	-7.8764
▁imp	-7.87731
▁patient	-7.879
▁center	-7.89091
▁lakh	-7.9027
▁va	-7.90346
▁beds	-7.90358
▁workers	-7.91366
/	-7.91417
▁know	-7.91421
▁plan	-7.91478
▁report	-7.92184
▁issue	-7.92503
▁current	-7.92581
▁contact	-7.92581
▁For	-7.92601
▁including	-7.93757
▁Ma	-7.93976
▁covid	-7.94158
▁bo	-7.94542
▁Hospital	-7.94549
▁announced	-7.94549
▁travel	-7.9455
unicipal	-7.95749
fter	-7.96184
▁control	-7.96558
▁areas	-7.96751
▁important	-7.96964
▁month	-7.96968
▁Center	-7.96979
ness	-7.97193
▁say	-7.97701
W	-7.98177
▁human	-7.98195
▁information	-7.98606
▁prevent	-7.98607
▁follow	-7.98607
▁started	-7.98646
▁Sa	-7.9867
▁sc	-7.98687
▁most	-7.99048
▁increase	-8.00248
▁condition	-8.00278
▁well	-8.00954
▁result	-8.01123
▁what	-8.01574
▁same	-8.01985
▁affect	-8.02404
▁include	-8.02835
▁increased	-8.02865
ndra	-8.03812
The	-8.0402
▁closed	-8.041
ian	-8.0411
▁help	-8.04151
▁our	-8.04499
▁level	-8.04579
▁every	-8.04772
▁did	-8.04943
▁show	-8.0562
war	-8.05995
▁positive	-8.06352
▁decision	-8.06801
▁respirator	-8.06801
tric	-8.0698
▁testing	-8.07031
▁supply	-8.07251
▁doctors	-8.07503
▁increasing	-8.07703
▁few	-8.07747
▁case	-8.07844
▁body	-8.08624
▁administration	-8.09073
▁crore	-8.09083
▁cl	-8.09452
▁meeting	-8.09538
▁city	-8.09556
▁million	-8.09998
▁demand	-8.10468
activ	-8.10695
▁between	-8.1093
▁where	-8.11742
though	-8.11886
based	-8.12224
▁Uddhav	-8.12345
▁office	-8.12913
▁anti	-8.1308
▁data	-8.13323
▁students	-8.1378
▁present	-8.13795
▁Modi	-8.14268
▁question	-8.14749
▁into	-8.15114
▁service	-8.15727
▁died	-8.15835
ition	-8.16157
own	-8.16551
▁Delhi	-8.16715
▁make	-8.17291
▁direct	-8.17714
▁central	-8.17717
▁could	-8.18097
ga	-8.18307
▁three	-8.19228
▁around	-8.19232
▁citizens	-8.19737
▁period	-8.19737
▁before	-8.19738
▁does	-8.19925
▁set	-8.20624
▁12	-8.207
▁BBC	-8.20766
▁reduce	-8.20766
▁Prim	-8.21945
▁19	-8.22098
▁15	-8.2278
Y	-8.23378
▁thousand	-8.23383
▁UK	-8.23407
▁50	-8.23518
ish	-8.23747
L	-8.24223
▁campaign	-8.2445
▁change	-8.24456
▁social	-8.2553
▁order	-8.25599
▁severe	-8.25637
▁safe	-8.26072
▁require	-8.26074
▁different	-8.27168
▁private	-8.27168
▁recommend	-8.27168
▁study	-8.27168
▁hours	-8.2717
▁Unit	-8.27726
cross	-8.27761
▁Ja	-8.2855
B	-8.28731
▁start	-8.28811
peaking	-8.28838
▁shortage	-8.28867
ized	-8.29026
▁education	-8.29961
▁January	-8.29961
▁allowed	-8.29962
▁sample	-8.30529
ology	-8.3158
▁possible	-8.31675
▁research	-8.31675
▁May	-8.31824
▁Institute	-8.32254
▁rules	-8.32256
▁percent	-8.32259
▁effect	-8.33243
▁local	-8.3342
▁grow	-8.34015
▁open	-8.34049
▁continue	-8.346
V	-8.35016
▁Raje	-8.35233
▁washing	-8.35241
▁group	-8.36397
▁sub	-8.37623
▁whe	-8.39231
▁30	-8.39289
refore	-8.39481
▁Some	-8.3971
▁Government	-8.40089
F	-8.40328
▁24	-8.40525
▁February	-8.40718
▁11	-8.41308
▁consider	-8.41351
▁reason	-8.4136
▁Many	-8.42019
▁protect	-8.42082
▁discuss	-8.42629
▁reach	-8.42766
▁14	-8.42996
▁company	-8.43274
▁addition	-8.43923
▁down	-8.44121
▁quarantine	-8.44577
▁less	-8.45476
▁pandemic	-8.45897
▁village	-8.45897
▁produce	-8.46145
serv	-8.46471
▁Union	-8.46566
▁using	-8.46824
▁blood	-8.47236
▁learn	-8.47237
▁regard	-8.47242
▁held	-8.47255
▁total	-8.48532
▁because	-8.48591
▁closure	-8.48591
▁become	-8.4864
▁department	-8.49965
▁ventilator	-8.49965
▁official	-8.49965
▁still	-8.50005
▁both	-8.50186
▁limit	-8.50664
▁since	-8.50664
▁fact	-8.50746
ize	-8.51047
▁relat	-8.51256
▁transmission	-8.51359
▁much	-8.51369
▁post	-8.51424
▁face	-8.51674
light	-8.52064
▁process	-8.52774
▁Medic	-8.53422
▁response	-8.53487
▁clinical	-8.53487
▁heart	-8.53523
▁four	-8.5356
▁conduct	-8.54206
▁among	-8.54207
tory	-8.54232
▁today	-8.54245
taking	-8.54269
▁18	-8.54623
▁recover	-8.54932
G	-8.54939
▁sever	-8.55078
▁problem	-8.55661
▁Kovid	-8.55661
▁phase	-8.55674
▁production	-8.56398
▁find	-8.56471
▁Ministry	-8.57137
▁population	-8.57137
▁implement	-8.57137
▁contain	-8.5714
▁emergency	-8.57883
▁Nagpur	-8.57883
▁soap	-8.57907
▁treat	-8.57984
▁avoid	-8.58635
▁third	-8.58636
▁house	-8.58645
▁doctor	-8.5897
▁surveillance	-8.59392
▁market	-8.59393
▁next	-8.59393
▁media	-8.59582
▁fire	-8.59735
▁difficult	-8.60156
▁train	-8.60209
▁World	-8.617
▁imposed	-8.61703
▁asked	-8.61759
▁release	-8.62491
▁How	-8.63241
▁according	-8.63269
ability	-8.63284
▁Tope	-8.63289
▁support	-8.64062
▁register	-8.64063
▁fight	-8.64063
U	-8.64356
▁another	-8.64872
▁remain	-8.65674
▁New	-8.65688
▁Commission	-8.66482
▁serious	-8.66482
▁crisis	-8.67302
▁type	-8.67302
▁keep	-8.67308
▁told	-8.67653
▁approved	-8.68128
▁experienc	-8.68128
▁immediate	-8.68128
▁further	-8.68135
▁crowd	-8.68962
▁early	-8.69819
▁trials	-8.6982
log	-8.70543
▁family	-8.70649
▁police	-8.70649
▁small	-8.7065
▁staff	-8.70654
▁Serum	-8.70659
Z	-8.71504
▁Organization	-8.71504
▁least	-8.71508
▁yet	-8.71535
▁again	-8.72029
▁Corporation	-8.72366
▁lung	-8.72378
▁water	-8.72458
▁Chinese	-8.73236
▁You	-8.73244
self	-8.73388
espec	-8.73486
▁admitted	-8.74113
▁essential	-8.74113
▁distance	-8.74117
▁animal	-8.74118
▁University	-8.74998
▁strain	-8.75
▁prepar	-8.75009
▁touch	-8.75959
▁transport	-8.76791
▁injection	-8.76792
▁breath	-8.76792
PCR	-8.76801
▁proper	-8.76812
▁global	-8.79544
▁similar	-8.79544
▁People	-8.79544
▁concern	-8.79544
▁host	-8.79614
▁epidemic	-8.80478
▁major	-8.80479
▁common	-8.80479
▁Pradesh	-8.81422
▁happen	-8.81422
▁monitor	-8.81422
▁six	-8.82378
▁claim	-8.82378
▁close	-8.8247
▁critical	-8.83336
▁minister	-8.83336
▁women	-8.8334
▁collect	-8.83342
▁community	-8.84307
▁immune	-8.84307
▁suggest	-8.84307
▁class	-8.84335
▁pain	-8.84382
▁examination	-8.85287
▁Wuhan	-8.85289
▁Even	-8.8531
▁Office	-8.86277
▁employ	-8.86277
▁cough	-8.86277
▁decided	-8.86277
▁parents	-8.86278
▁capacity	-8.87277
▁return	-8.87278
▁medicine	-8.88287
▁general	-8.88287
▁Also	-8.88291
▁Biotech	-8.89308
▁antibodies	-8.89308
▁companies	-8.89308
▁expected	-8.89308
▁2019	-8.89308
▁Bharat	-8.8931
▁young	-8.89339
▁name	-8.89425
cute	-8.89877
ught	-8.90309
▁BJP	-8.90339
▁received	-8.90339
▁daily	-8.90339
▁project	-8.9034
▁chest	-8.90368
▁evidence	-8.9138
▁distribut	-8.92433
▁tweet	-8.92433
▁protein	-8.92437
▁organ	-8.92465
▁clean	-8.92465
▁South	-8.9247
▁clear	-8.92484
▁MERS	-8.93497
▁Marathi	-8.93497
▁Vaccine	-8.93497
▁ICU	-8.93497
▁half	-8.93518
▁cancel	-8.94288
▁Amravati	-8.94572
▁passenger	-8.94572
▁variant	-8.94573
▁estimate	-8.94573
▁Pawar	-8.94576
▁relatives	-8.94584
▁Centr	-8.94798
▁Europe	-8.95659
▁deliver	-8.95692
▁visit	-8.96761
lock	-8.96763
▁Meanwhile	-8.97869
▁national	-8.97872
▁mutation	-8.97874
▁look	-8.97877
▁mov	-8.97999
▁store	-8.98045
▁check	-8.98993
▁shops	-8.98995
▁letter	-8.98995
▁strict	-8.99
▁outside	-8.99016
▁appear	-8.99027
produc	-8.99706
▁facilities	-9.00129
▁think	-9.0013
▁National	-9.00139
▁origin	-9.0014
▁full	-9.00638
▁stock	-9.01278
ternational	-9.01279
▁everyone	-9.01296
posed	-9.01332
▁taluka	-9.02441
▁challenge	-9.03618
▁potential	-9.03618
▁perform	-9.03618
▁right	-9.03618
▁observ	-9.03618
▁December	-9.04808
▁individual	-9.04808
▁program	-9.04808
▁compar	-9.04819
▁detect	-9.05023
▁necessary	-9.07232
▁negative	-9.07232
▁special	-9.07232
▁sector	-9.07236
ublic	-9.08125
▁Pfizer	-9.08467
▁pneumonia	-9.08467
▁talk	-9.08474
▁illness	-9.08474
▁arriv	-9.08495
source	-9.0856
▁influenza	-9.09717
▁School	-9.09717
▁review	-9.09717
▁enough	-9.10983
▁establish	-9.10983
▁record	-9.10984
▁just	-9.10987
▁suspect	-9.12265
▁manufacture	-9.12265
▁mortality	-9.12265
▁2021	-9.12265
▁having	-9.12271
▁suffer	-9.13564
▁declining	-9.13564
▁guidelines	-9.13564
▁genome	-9.13564
▁occur	-9.13564
generat	-9.13859
K	-9.14528
▁Control	-9.14879
▁Remedesivir	-9.14879
▁organization	-9.14879
▁Uttar	-9.1488
▁task	-9.14885
▁advis	-9.1489
ological	-9.15552
▁front	-9.16214
▁covacin	-9.17564
▁sanitizer	-9.17564
▁method	-9.17564
▁short	-9.18858
▁child	-9.18931
▁senior	-9.18934
▁Oxford	-9.20323
▁September	-9.20323
▁business	-9.20323
▁District	-9.21731
▁Vaccination	-9.21731
▁application	-9.21731
▁decrease	-9.21731
▁survey	-9.21731
▁hotel	-9.21734
▁already	-9.2316
▁political	-9.2316
▁temperature	-9.2316
▁might	-9.2316
▁prevalen	-9.23161
▁completely	-9.24609
▁alcohol	-9.24609
symptomatic	-9.2608
▁Department	-9.2608
▁published	-9.2608
▁significant	-9.2608
▁multi	-9.26098
AstraZeneca	-9.27572
▁Research	-9.27572
▁RNA	-9.27573
▁Fadnavis	-9.29087
▁President	-9.29087
▁maintain	-9.29087
▁success	-9.29087
▁involve	-9.29087
▁Lockdown	-9.30626
▁Patients	-9.30626
▁effort	-9.30626
▁General	-9.30626
▁genetic	-9.30626
▁syndrome	-9.30626
▁member	-9.30626
▁virolog	-9.31733
▁instructions	-9.32188
▁laboratory	-9.32188
▁benefit	-9.32188
bacteria	-9.32201
▁curfew	-9.33776
▁economic	-9.33776
▁exposure	-9.33776
▁industry	-9.33776
▁victims	-9.33776
▁tanker	-9.33776
▁minute	-9.33777
▁remov	-9.33782
▁vaccinate	-9.34515
RCGP	-9.35389
ntibody	-9.35389
▁college	-9.35389
▁financial	-9.35389
▁immunity	-9.35389
▁infectious	-9.35389
cientists	-9.35389
▁previous	-9.35389
J	-9.819
q	-10.354
(	-11.4279
