<pad>	0
</s>	0
<unk>	0
▁¦	-0
ti	-1
ai	-2
in	-3
os	-4
▁p	-5
ri	-6
au	-7
as	-8
ar	-9
ir	-10
si	-11
al	-12
▁k	-13
an	-14
en	-15
ei	-16
am	-17
▁s	-18
im	-19
▁𐋇	-20
▁t	-21
at	-22
▁,	-23
▁n	-24
ad	-25
om	-26
is	-27
es	-28
ro	-29
▁d	-30
us	-31
on	-32
▁v	-33
ki	-34
▁ir	-35
to	-36
ės	-37
▁.	-38
er	-39
li	-40
tin	-41
či	-42
▁b	-43
ek	-44
uri	-45
ra	-46
ij	-47
▁m	-48
st	-49
tų	-50
yb	-51
uo	-52
tik	-53
av	-54
▁su	-55
em	-56
iš	-57
ių	-58
um	-59
▁g	-60
uro	-61
eik	-62
oj	-63
ėl	-64
et	-65
ap	-66
▁r	-67
▁š	-68
urop	-69
▁j	-70
▁kad	-71
▁į	-72
cij	-73
ta	-74
or	-75
ur	-76
▁E	-77
aip	-78
ink	-79
arb	-80
ak	-81
aug	-82
ant	-83
ais	-84
ab	-85
▁pri	-86
uropos	-87
ži	-88
su	-89
el	-90
sij	-91
ėj	-92
end	-93
▁l	-94
pr	-95
ausi	-96
imo	-97
eg	-98
▁T	-99
▁pas	-100
yv	-101
už	-102
ali	-103
min	-104
▁at	-105
▁iš	-106
▁P	-107
omi	-108
aik	-109
▁kuri	-110
ie	-111
yra	-112
mo	-113
ag	-114
id	-115
pri	-116
▁-	-117
yti	-118
eis	-119
ėm	-120
ien	-121
oje	-122
eš	-123
kad	-124
rin	-125
▁ne	-126
gi	-127
dėl	-128
kai	-129
uos	-130
▁K	-131
un	-132
tas	-133
▁Europos	-134
aus	-135
▁bū	-136
▁ši	-137
čiau	-138
oli	-139
tar	-140
ui	-141
ini	-142
tr	-143
až	-144
▁ž	-145
me	-146
jų	-147
ama	-148
▁ap	-149
pas	-150
imą	-151
tai	-152
aud	-153
▁dėl	-154
te	-155
ok	-156
yk	-157
ym	-158
ci	-159
▁pat	-160
ne	-161
▁pr	-162
tu	-163
ame	-164
ūs	-165
inti	-166
ši	-167
alst	-168
usi	-169
lam	-170
▁už	-171
ing	-172
alstyb	-173
▁pro	-174
imas	-175
bū	-176
omisij	-177
vo	-178
▁tik	-179
ąj	-180
▁yra	-181
alim	-182
auj	-183
ung	-184
lamen	-185
irmin	-186
cijos	-187
kuri	-188
▁(	-189
irminink	-190
par	-191
▁S	-192
tis	-193
čių	-194
je	-195
eiki	-196
ys	-197
kl	-198
▁vis	-199
ams	-200
ko	-201
varb	-202
▁to	-203
▁si	-204
tą	-205
and	-206
avo	-207
eli	-208
ari	-209
sti	-210
ėtų	-211
ausim	-212
aneš	-213
▁𐊣	-214
ūr	-215
ąjung	-216
dži	-217
tos	-218
▁B	-219
omis	-220
abai	-221
ūsų	-222
▁tai	-223
europos	-224
veik	-225
uvo	-226
▁par	-227
20	-228
▁A	-229
▁kl	-230
▁f	-231
pa	-232
▁in	-233
yje	-234
alb	-235
ėti	-236
amas	-237
▁M	-238
jos	-239
il	-240
var	-241
▁pad	-242
pat	-243
ku	-244
rim	-245
inių	-246
ans	-247
ka	-248
esn	-249
ijos	-250
▁pag	-251
toj	-252
pro	-253
ami	-254
endr	-255
mon	-256
re	-257
oms	-258
tat	-259
yg	-260
▁turi	-261
uom	-262
irmininke	-263
▁teis	-264
lo	-265
▁Komisij	-266
eng	-267
anči	-268
umo	-269
▁valstyb	-270
ej	-271
vis	-272
dar	-273
kir	-274
ori	-275
uk	-276
ūl	-277
emon	-278
▁daug	-279
kur	-280
orė	-281
eig	-282
▁pasi	-283
ili	-284
ybos	-285
kos	-286
inės	-287
ems	-288
▁V	-289
▁kaip	-290
▁J	-291
io	-292
▁tur	-293
eki	-294
iu	-295
iau	-296
ekon	-297
auk	-298
olitik	-299
ekt	-300
aš	-301
gyv	-302
eikia	-303
orėčiau	-304
ov	-305
▁ki	-306
sl	-307
▁taip	-308
▁"	-309
▁per	-310
eikal	-311
ėms	-312
▁svarb	-313
amos	-314
▁klausim	-315
▁darb	-316
isi	-317
tikrin	-318
ul	-319
▁susi	-320
šk	-321
uoj	-322
▁veik	-323
gr	-324
▁N	-325
saug	-326
ed	-327
irm	-328
prend	-329
tum	-330
avimo	-331
tim	-332
žv	-333
ome	-334
▁Par	-335
▁kai	-336
raš	-337
one	-338
man	-339
vir	-340
▁nes	-341
inans	-342
uoti	-343
▁o	-344
pag	-345
▁kon	-346
▁G	-347
ank	-348
▁praneš	-349
▁D	-350
▁Sąjung	-351
▁Parlamen	-352
sak	-353
orm	-354
ter	-355
▁ES	-356
▁po	-357
▁būtų	-358
ios	-359
men	-360
vai	-361
▁būti	-362
ymo	-363
yst	-364
▁did	-365
▁Š	-366
vien	-367
oma	-368
taip	-369
ent	-370
ties	-371
▁re	-372
▁nar	-373
pad	-374
▁galim	-375
ums	-376
ver	-377
turi	-378
▁man	-379
acij	-380
▁pa	-381
ang	-382
teis	-383
als	-384
per	-385
rind	-386
▁ko	-387
ėjo	-388
▁labai	-389
▁šal	-390
▁vien	-391
▁savo	-392
uose	-393
do	-394
abar	-395
bl	-396
valstyb	-397
daug	-398
▁buvo	-399
▁tar	-400
og	-401
iz	-402
tur	-403
▁bendr	-404
iausi	-405
form	-406
ch	-407
cial	-408
▁apie	-409
gal	-410
tari	-411
ose	-412
pasi	-413
▁dar	-414
kaip	-415
tori	-416
ektyv	-417
riz	-418
imų	-419
po	-420
val	-421
komisij	-422
erb	-423
lyg	-424
▁pak	-425
vyk	-426
▁ar	-427
blem	-428
tina	-429
rei	-430
stitu	-431
▁laik	-432
▁mūsų	-433
ačiau	-434
pl	-435
uomen	-436
tus	-437
▁gal	-438
tume	-439
škai	-440
tink	-441
▁prie	-442
erg	-443
▁reg	-444
ime	-445
▁20	-446
▁L	-447
isku	-448
darb	-449
▁priemon	-450
▁pl	-451
gyvend	-452
ilie	-453
▁R	-454
oti	-455
tyje	-456
▁nari	-457
▁nuo	-458
stem	-459
▁)	-460
ški	-461
▁politik	-462
aid	-463
▁Komisijos	-464
etu	-465
ypa	-466
▁rink	-467
od	-468
ting	-469
ras	-470
ūros	-471
buvo	-472
ik	-473
nes	-474
▁ver	-475
rak	-476
gali	-477
ati	-478
▁pirmininke	-479
▁dal	-480
ūlym	-481
tinės	-482
laik	-483
▁ekon	-484
eri	-485
▁ti	-486
kon	-487
▁Tar	-488
sm	-489
būtų	-490
lik	-491
did	-492
ėmis	-493
du	-494
por	-495
▁gali	-496
▁bet	-497
tau	-498
dž	-499
žvel	-500
ocial	-501
energ	-502
▁Tai	-503
ustat	-504
svarb	-505
esi	-506
▁net	-507
imus	-508
praneš	-509
parlamen	-510
šal	-511
▁reikal	-512
inę	-513
paž	-514
ybės	-515
ėje	-516
susi	-517
sižvel	-518
ypač	-519
iskusij	-520
▁kar	-521
klausim	-522
inio	-523
tojų	-524
ėra	-525
tarp	-526
rė	-527
▁tarp	-528
ming	-529
sąjung	-530
pak	-531
umą	-532
▁mok	-533
▁finans	-534
iai	-535
▁mes	-536
tikrinti	-537
audoj	-538
tinių	-539
mes	-540
žin	-541
tarim	-542
ybę	-543
▁visi	-544
vej	-545
▁bus	-546
▁I	-547
▁pav	-548
▁proc	-549
tį	-550
▁1	-551
ėk	-552
uosi	-553
▁sri	-554
▁To	-555
ūk	-556
nar	-557
▁sieki	-558
acijos	-559
▁gyv	-560
▁ats	-561
labai	-562
ion	-563
mok	-564
eikti	-565
sių	-566
amą	-567
ateg	-568
cija	-569
yn	-570
būti	-571
▁jų	-572
▁sprend	-573
▁žmon	-574
adarb	-575
link	-576
▁jau	-577
ija	-578
▁es	-579
▁tr	-580
▁str	-581
inimo	-582
iki	-583
yri	-584
emok	-585
savo	-586
galim	-587
dami	-588
sn	-589
▁nauj	-590
der	-591
lių	-592
▁są	-593
ųjų	-594
tinti	-595
▁kalb	-596
sijusi	-597
kar	-598
▁vyk	-599
skai	-600
▁darbo	-601
ančių	-602
▁valstybės	-603
▁var	-604
trauk	-605
avimas	-606
▁kurie	-607
imu	-608
▁Sąjungos	-609
iudž	-610
bendr	-611
▁reikia	-612
ūri	-613
▁norėčiau	-614
imai	-615
bus	-616
▁pagrind	-617
sime	-618
amai	-619
mog	-620
kių	-621
▁me	-622
ciją	-623
tais	-624
▁taik	-625
inink	-626
čiai	-627
▁dir	-628
andien	-629
▁turėtų	-630
ež	-631
log	-632
ia	-633
▁pirm	-634
pirmininke	-635
kio	-636
str	-637
▁keli	-638
▁skir	-639
kel	-640
▁prieš	-641
mūsų	-642
▁¦20	-643
čia	-644
rink	-645
reg	-646
inis	-647
apie	-648
▁e	-649
rai	-650
eisių	-651
adarbi	-652
sp	-653
ektori	-654
nuo	-655
taik	-656
▁Parlamento	-657
ud	-658
maž	-659
▁paž	-660
▁Europ	-661
tek	-662
omikos	-663
aisv	-664
ojo	-665
anti	-666
▁Todėl	-667
ėtume	-668
cion	-669
amų	-670
avimą	-671
▁problem	-672
▁turime	-673
▁Komisija	-674
cijų	-675
▁ger	-676
dal	-677
▁kur	-678
▁saug	-679
▁ak	-680
imui	-681
arba	-682
pareig	-683
▁sistem	-684
inį	-685
ėme	-686
todėl	-687
auti	-688
priemon	-689
▁Ši	-690
▁Man	-691
▁padė	-692
eid	-693
▁rez	-694
nauj	-695
vie	-696
mogaus	-697
mės	-698
▁įgyvend	-699
▁maž	-700
skir	-701
▁įsi	-702
kol	-703
▁pilie	-704
▁kurios	-705
aul	-706
net	-707
▁as	-708
gan	-709
yba	-710
▁neg	-711
ęs	-712
▁gyven	-713
▁jos	-714
klaus	-715
▁tiksl	-716
tini	-717
bet	-718
oliu	-719
▁sut	-720
▁narių	-721
rėž	-722
iausia	-723
politik	-724
antis	-725
dama	-726
di	-727
tačiau	-728
▁dabar	-729
vi	-730
ką	-731
kia	-732
be	-733
ausiai	-734
ėg	-735
pav	-736
▁apsaug	-737
ato	-738
aišk	-739
komisijos	-740
ekti	-741
▁im	-742
nari	-743
▁val	-744
▁pasiūlym	-745
sta	-746
int	-747
rib	-748
emokra	-749
eb	-750
reip	-751
ors	-752
ęsti	-753
tro	-754
yta	-755
norėčiau	-756
žiūri	-757
rov	-758
la	-759
▁teisės	-760
▁valstybių	-761
▁jo	-762
kalb	-763
▁pal	-764
ji	-765
kiai	-766
▁gr	-767
▁energ	-768
aig	-769
▁šį	-770
ja	-771
▁ji	-772
▁institu	-773
inius	-774
eitim	-775
varst	-776
yriaus	-777
yse	-778
acion	-779
giant	-780
▁bals	-781
kri	-782
no	-783
tet	-784
umas	-785
▁šiuo	-786
inga	-787
stat	-788
osios	-789
virtin	-790
visi	-791
eto	-792
tab	-793
ukt	-794
ymą	-795
aiški	-796
▁Tačiau	-797
▁padar	-798
▁nustat	-799
▁atsak	-800
dė	-801
osi	-802
▁priim	-803
ry	-804
damas	-805
dir	-806
emės	-807
keli	-808
▁200	-809
▁Pone	-810
akyti	-811
finans	-812
rijos	-813
uv	-814
rag	-815
▁narės	-816
▁metu	-817
▁social	-818
▁ypač	-819
▁pon	-820
onos	-821
acional	-822
pirm	-823
dyti	-824
enk	-825
ves	-826
są	-827
reikal	-828
ėmes	-829
asi	-830
▁mums	-831
▁daugiau	-832
dr	-833
met	-834
pon	-835
ymas	-836
pap	-837
prieš	-838
▁poli	-839
kas	-840
smų	-841
sprend	-842
darbo	-843
sieki	-844
ist	-845
ep	-846
prie	-847
europ	-848
▁¦1	-849
adov	-850
raštu	-851
čio	-852
▁užtikrinti	-853
ykl	-854
organ	-855
bals	-856
▁žin	-857
jau	-858
yrim	-859
engti	-860
ystės	-861
zi	-862
eigu	-863
sming	-864
.,	-865
ada	-866
▁prad	-867
▁tačiau	-868
▁kom	-869
eigi	-870
dom	-871
šiuo	-872
▁kuris	-873
up	-874
▁pan	-875
proc	-876
eisti	-877
▁pap	-878
▁nėra	-879
jek	-880
atyv	-881
▁tikr	-882
▁region	-883
žmon	-884
▁der	-885
ina	-886
sri	-887
▁tam	-888
ekybos	-889
ūp	-890
▁mo	-891
aliz	-892
naud	-893
▁šio	-894
▁susijusi	-895
pal	-896
turime	-897
giu	-898
▁šios	-899
tijos	-900
▁politikos	-901
▁siekiant	-902
▁kriz	-903
0¦	-904
▁pab	-905
▁vie	-906
tvar	-907
porto	-908
▁bei	-909
eidži	-910
▁diskusij	-911
tov	-912
▁naud	-913
▁todėl	-914
duk	-915
reikia	-916
pręsti	-917
tam	-918
laug	-919
onės	-920
abej	-921
čius	-922
pagrind	-923
valstybės	-924
vz	-925
priim	-926
ėš	-927
lio	-928
gyven	-929
▁aš	-930
▁aplink	-931
▁skai	-932
▁nuom	-933
▁susitarim	-934
ven	-935
dabar	-936
▁mano	-937
ančios	-938
▁pirminink	-939
▁sutar	-940
▁strateg	-941
▁be	-942
sąjungos	-943
pan	-944
iudžeto	-945
eikš	-946
isab	-947
uli	-948
amin	-949
▁Taip	-950
yr	-951
▁kas	-952
koti	-953
vid	-954
elio	-955
elis	-956
turėtų	-957
▁svarbu	-958
iją	-959
kuren	-960
ultat	-961
▁li	-962
aukš	-963
iniai	-964
jo	-965
▁lyg	-966
ijoje	-967
manau	-968
▁pasir	-969
pareigoj	-970
▁inform	-971
uotoj	-972
organiz	-973
imato	-974
ėn	-975
emi	-976
▁Be	-977
tinio	-978
isabonos	-979
▁ati	-980
sid	-981
inimą	-982
veikat	-983
alies	-984
▁vid	-985
▁bendradarbi	-986
iek	-987
kurti	-988
▁Gerb	-989
▁šalių	-990
▁teisių	-991
kre	-992
▁komi	-993
rakcijos	-994
ytų	-995
inimas	-996
kurie	-997
avau	-998
ėmesį	-999
▁nori	-1000
▁sektori	-1001
problem	-1002
teres	-1003
yz	-1004
imt	-1005
teri	-1006
▁C	-1007
▁bend	-1008
ig	-1009
ėtr	-1010
žiūr	-1011
▁toki	-1012
parlamento	-1013
sižvelgiant	-1014
rez	-1015
umat	-1016
▁atvej	-1017
▁manau	-1018
▁sąlyg	-1019
▁ekonom	-1020
ines	-1021
▁te	-1022
teb	-1023
neg	-1024
padė	-1025
ūkio	-1026
žvil	-1027
bend	-1028
▁nuos	-1029
▁visų	-1030
ger	-1031
kal	-1032
liek	-1033
▁:	-1034
ner	-1035
▁jis	-1036
▁nei	-1037
▁iki	-1038
tipr	-1039
atsak	-1040
▁pateik	-1041
katin	-1042
ėja	-1043
įsi	-1044
▁sav	-1045
▁šių	-1046
▁laisv	-1047
džio	-1048
yriausyb	-1049
▁kol	-1050
cip	-1051
▁sus	-1052
ingas	-1053
▁tais	-1054
komisija	-1055
rodo	-1056
ją	-1057
pras	-1058
▁Vis	-1059
acija	-1060
įgyvend	-1061
šį	-1062
▁ly	-1063
kreip	-1064
▁tink	-1065
sistem	-1066
inici	-1067
▁ekonomikos	-1068
iet	-1069
▁met	-1070
▁tarptau	-1071
▁kiek	-1072
pilie	-1073
▁sp	-1074
joje	-1075
sižvelg	-1076
žvilgiu	-1077
aki	-1078
mano	-1079
iniciatyv	-1080
▁galimyb	-1081
▁sudar	-1082
▁Parlamentas	-1083
išk	-1084
ol	-1085
▁progr	-1086
▁klausimas	-1087
būt	-1088
tikos	-1089
▁galima	-1090
▁srityje	-1091
skait	-1092
institu	-1093
▁naudoj	-1094
ug	-1095
ats	-1096
kiri	-1097
tiksl	-1098
▁tiek	-1099
▁jie	-1100
▁2	-1101
lob	-1102
▁visiškai	-1103
ob	-1104
dymo	-1105
▁metų	-1106
ybai	-1107
ond	-1108
angi	-1109
įst	-1110
▁kurį	-1111
▁direktyv	-1112
rėžti	-1113
▁žmogaus	-1114
šių	-1115
iniu	-1116
▁kurių	-1117
pasiūlym	-1118
▁arba	-1119
▁šiandien	-1120
jai	-1121
mums	-1122
tinę	-1123
pone	-1124
▁Tarybos	-1125
▁požiūri	-1126
ingai	-1127
▁Mes	-1128
poli	-1129
▁pagal	-1130
ažn	-1131
tinis	-1132
liau	-1133
kurios	-1134
tariu	-1135
apsaug	-1136
▁pasaul	-1137
diskusij	-1138
sut	-1139
▁didži	-1140
▁prival	-1141
pirminink	-1142
gerb	-1143
abiau	-1144
vairi	-1145
aiškiai	-1146
gai	-1147
▁šią	-1148
▁min	-1149
▁¦200	-1150
▁atsi	-1151
narių	-1152
svarst	-1153
▁kov	-1154
▁rezoliu	-1155
▁Manau	-1156
▁laiko	-1157
▁žmonių	-1158
padar	-1159
social	-1160
▁demokra	-1161
mas	-1162
▁pranešimą	-1163
etą	-1164
▁ką	-1165
▁st	-1166
sien	-1167
tarti	-1168
priklaus	-1169
▁užtikrin	-1170
teisės	-1171
▁dalyv	-1172
auja	-1173
okum	-1174
aipsn	-1175
valstybių	-1176
▁priemonių	-1177
▁prin	-1178
▁įmon	-1179
▁šis	-1180
tinai	-1181
usij	-1182
fi	-1183
šios	-1184
ėjimo	-1185
nustat	-1186
laud	-1187
vaiz	-1188
▁toli	-1189
vertin	-1190
vyst	-1191
ino	-1192
inant	-1193
▁el	-1194
ansporto	-1195
kiu	-1196
▁sun	-1197
▁pagalb	-1198
eišk	-1199
tang	-1200
stų	-1201
▁plan	-1202
tinį	-1203
▁tvar	-1204
▁Sąjunga	-1205
ąją	-1206
omas	-1207
aisto	-1208
it	-1209
aciją	-1210
▁Ž	-1211
teto	-1212
aži	-1213
nų	-1214
kom	-1215
kie	-1216
slo	-1217
eks	-1218
papras	-1219
▁veiksmų	-1220
daugiau	-1221
▁visuomen	-1222
▁jei	-1223
▁raštu	-1224
▁?	-1225
aulio	-1226
riež	-1227
narės	-1228
▁nacional	-1229
▁vertin	-1230
škia	-1231
metu	-1232
kios	-1233
▁veikl	-1234
prad	-1235
andar	-1236
esio	-1237
sutar	-1238
region	-1239
veikatos	-1240
tikr	-1241
fer	-1242
irš	-1243
▁nu	-1244
iškai	-1245
trol	-1246
ūrin	-1247
▁jog	-1248
▁pasakyti	-1249
tę	-1250
ytas	-1251
▁dirb	-1252
▁sumaž	-1253
terų	-1254
▁toliau	-1255
laid	-1256
▁prekybos	-1257
▁pasiūl	-1258
esni	-1259
▁pakeitim	-1260
nel	-1261
tir	-1262
▁išs	-1263
▁tap	-1264
▁ry	-1265
vesti	-1266
ėjusi	-1267
ies	-1268
šis	-1269
kius	-1270
aliai	-1271
▁padėti	-1272
ūrų	-1273
▁žemės	-1274
▁di	-1275
ib	-1276
▁rinkos	-1277
užtikrinti	-1278
▁veiksming	-1279
▁proces	-1280
čiams	-1281
▁atei	-1282
▁viet	-1283
▁galėtų	-1284
▁klausimą	-1285
▁energijos	-1286
nėra	-1287
▁asmen	-1288
šio	-1289
siekiant	-1290
▁būtina	-1291
▁kok	-1292
džiai	-1293
fik	-1294
▁gam	-1295
▁produk	-1296
ens	-1297
oji	-1298
▁Pon	-1299
▁šalim	-1300
▁kuriuos	-1301
▁tyrim	-1302
ekonom	-1303
traukti	-1304
▁Norėčiau	-1305
dirb	-1306
▁.,	-1307
chno	-1308
likti	-1309
ėtros	-1310
chnolog	-1311
tui	-1312
mokes	-1313
▁nors	-1314
▁varto	-1315
katinti	-1316
skaitant	-1317
ate	-1318
pab	-1319
▁kel	-1320
naudoj	-1321
kuris	-1322
etikos	-1323
fektyv	-1324
00	-1325
jis	-1326
anty	-1327
anks	-1328
▁kurią	-1329
▁paslaug	-1330
tyv	-1331
ėjimą	-1332
susijusi	-1333
ran	-1334
emti	-1335
tvark	-1336
din	-1337
ingsn	-1338
bei	-1339
▁201	-1340
ragin	-1341
▁geri	-1342
politikos	-1343
audoti	-1344
omos	-1345
aisant	-1346
aplink	-1347
▁kartą	-1348
kriz	-1349
cijas	-1350
▁rezultat	-1351
timi	-1352
▁nusi	-1353
tarptau	-1354
visų	-1355
▁apsaugos	-1356
ln	-1357
uje	-1358
▁Pri	-1359
svarbu	-1360
ūra	-1361
▁lėš	-1362
uoja	-1363
▁nel	-1364
▁Lisabonos	-1365
ly	-1366
▁aug	-1367
▁klimato	-1368
duo	-1369
jei	-1370
pasir	-1371
ub	-1372
▁reglamen	-1373
uotojų	-1374
▁organiz	-1375
▁vaid	-1376
▁didel	-1377
▁klausimu	-1378
baig	-1379
▁kri	-1380
galioj	-1381
▁susitik	-1382
tarimo	-1383
▁frakcijos	-1384
nori	-1385
strateg	-1386
jie	-1387
jėg	-1388
nuom	-1389
▁konkuren	-1390
šiandien	-1391
ekom	-1392
kiek	-1393
tyse	-1394
▁jūsų	-1395
žiūros	-1396
ekonomikos	-1397
▁il	-1398
laisv	-1399
inta	-1400
acijų	-1401
inform	-1402
susitarim	-1403
▁dėlto	-1404
rod	-1405
ingumo	-1406
žas	-1407
▁vaik	-1408
ytos	-1409
▁aukš	-1410
okumen	-1411
▁negali	-1412
ėsime	-1413
kelb	-1414
▁vyst	-1415
▁dėmesį	-1416
pateik	-1417
▁koleg	-1418
▁vardu	-1419
▁atveju	-1420
komi	-1421
ankst	-1422
sąlyg	-1423
tojams	-1424
▁projek	-1425
va	-1426
▁At	-1427
▁Aš	-1428
▁Ki	-1429
dav	-1430
▁sk	-1431
kite	-1432
nuos	-1433
timo	-1434
esnės	-1435
▁įvyk	-1436
siu	-1437
ėte	-1438
racijos	-1439
▁kartu	-1440
yl	-1441
bal	-1442
kijos	-1443
meniu	-1444
▁padid	-1445
▁ponai	-1446
umų	-1447
▁Kaip	-1448
askai	-1449
▁padėkoti	-1450
didži	-1451
bendradarbi	-1452
nei	-1453
▁Šiuo	-1454
▁Pirmininke	-1455
vienas	-1456
gų	-1457
ano	-1458
atsi	-1459
esnis	-1460
▁ūkio	-1461
teisių	-1462
▁Europoje	-1463
osė	-1464
sav	-1465
sus	-1466
eikėtų	-1467
gio	-1468
ingi	-1469
▁princip	-1470
▁ištek	-1471
▁patvirtin	-1472
▁nor	-1473
tojai	-1474
yklių	-1475
kiuosi	-1476
▁imtis	-1477
kub	-1478
vad	-1479
de	-1480
lt	-1481
▁An	-1482
▁sak	-1483
ytis	-1484
▁priežas	-1485
▁priemones	-1486
▁du	-1487
▁pozi	-1488
tner	-1489
▁mokes	-1490
▁F	-1491
onių	-1492
agrin	-1493
▁deryb	-1494
▁pasiek	-1495
▁atžvilgiu	-1496
▁pranešime	-1497
ult	-1498
▁pram	-1499
mą	-1500
sum	-1501
alog	-1502
inam	-1503
šalių	-1504
čios	-1505
sektori	-1506
▁biudžeto	-1507
abejo	-1508
esnio	-1509
akar	-1510
▁Ponia	-1511
▁numat	-1512
▁svarbus	-1513
▁politiką	-1514
▁iniciatyv	-1515
augi	-1516
ėjau	-1517
tinka	-1518
prival	-1519
aujų	-1520
rikos	-1521
▁suteik	-1522
visiškai	-1523
pek	-1524
agent	-1525
ūm	-1526
ūz	-1527
tre	-1528
▁pvz	-1529
ingos	-1530
žmogaus	-1531
▁padaryti	-1532
▁pranešėj	-1533
▁įsipareigoj	-1534
amo	-1535
▁ant	-1536
▁tuo	-1537
▁pirma	-1538
▁¦2	-1539
toje	-1540
▁Dėl	-1541
dalyv	-1542
sun	-1543
ten	-1544
ažnai	-1545
pagal	-1546
▁pateikti	-1547
mė	-1548
progr	-1549
direktyv	-1550
sk	-1551
usios	-1552
▁siek	-1553
▁palaik	-1554
menį	-1555
atvej	-1556
▁įgyvendinti	-1557
▁au	-1558
▁sm	-1559
ymosi	-1560
▁piliečių	-1561
tiesų	-1562
af	-1563
irūp	-1564
ančius	-1565
ez	-1566
▁;	-1567
engi	-1568
intas	-1569
▁netur	-1570
▁Taryba	-1571
▁čia	-1572
▁pavyz	-1573
▁duomen	-1574
parlamentas	-1575
tiek	-1576
▁praš	-1577
ac	-1578
aiš	-1579
ešimt	-1580
▁kitų	-1581
olidar	-1582
alų	-1583
etin	-1584
▁int	-1585
▁tre	-1586
▁Turi	-1587
▁grup	-1588
ėjimas	-1589
užtikrin	-1590
▁Ar	-1591
esiog	-1592
galima	-1593
akivaiz	-1594
▁grei	-1595
▁susij	-1596
▁pareig	-1597
▁pažang	-1598
šią	-1599
▁nep	-1600
antys	-1601
tinkl	-1602
eja	-1603
tinius	-1604
▁vadov	-1605
▁rei	-1606
▁darbą	-1607
demokra	-1608
tarybos	-1609
sudar	-1610
čiausi	-1611
ut	-1612
▁pra	-1613
▁moksl	-1614
▁turėtume	-1615
DE	-1616
ima	-1617
tuoj	-1618
voti	-1619
alime	-1620
džios	-1621
galimyb	-1622
interes	-1623
▁aplinkos	-1624
etas	-1625
liai	-1626
pasaul	-1627
cūz	-1628
▁mat	-1629
▁labiau	-1630
▁politika	-1631
nor	-1632
tent	-1633
▁vieš	-1634
pagalb	-1635
▁aiškiai	-1636
tuo	-1637
ūrą	-1638
tines	-1639
sienio	-1640
klausimas	-1641
▁H	-1642
uol	-1643
dien	-1644
▁priimti	-1645
▁visiems	-1646
didel	-1647
ekomend	-1648
▁vienas	-1649
dv	-1650
▁dr	-1651
▁ponios	-1652
▁proced	-1653
▁vidaus	-1654
▁įvairi	-1655
az	-1656
ąjį	-1657
▁rib	-1658
▁pripaž	-1659
ber	-1660
▁ner	-1661
▁teigi	-1662
ine	-1663
esnį	-1664
prin	-1665
▁tikrųjų	-1666
▁ab	-1667
viena	-1668
▁steb	-1669
srityje	-1670
pra	-1671
ved	-1672
laiko	-1673
rezoliu	-1674
▁U	-1675
metų	-1676
plan	-1677
▁konkre	-1678
žem	-1679
nors	-1680
promis	-1681
5¦	-1682
▁3	-1683
omų	-1684
ažiau	-1685
▁viena	-1686
▁Europa	-1687
lai	-1688
veikti	-1689
▁komitet	-1690
▁taisykl	-1691
oks	-1692
usių	-1693
▁finansų	-1694
▁O	-1695
atų	-1696
asis	-1697
kurių	-1698
žemės	-1699
▁Jung	-1700
tiniai	-1701
kurį	-1702
▁galimybę	-1703
jung	-1704
dėting	-1705
žmonių	-1706
▁atstov	-1707
▁galime	-1708
▁svarst	-1709
▁pasiekti	-1710
vy	-1711
▁jeigu	-1712
umu	-1713
nesi	-1714
▁Bend	-1715
ymų	-1716
pozi	-1717
▁mėn	-1718
▁kult	-1719
▁dalyk	-1720
umui	-1721
tiškai	-1722
požiūri	-1723
▁pastang	-1724
▁saugumo	-1725
pranešimą	-1726
ijai	-1727
praš	-1728
▁jūs	-1729
nacional	-1730
uma	-1731
ėkming	-1732
mę	-1733
ijų	-1734
▁niek	-1735
ingą	-1736
▁institucijos	-1737
ni	-1738
tra	-1739
ybą	-1740
tinas	-1741
▁Bals	-1742
kti	-1743
▁Tur	-1744
tiniu	-1745
▁atliek	-1746
UR	-1747
▁por	-1748
uosius	-1749
▁pavoj	-1750
priemonių	-1751
ryp	-1752
audži	-1753
nu	-1754
zon	-1755
įmon	-1756
veikį	-1757
▁priori	-1758
▁siekiama	-1759
▁klausimus	-1760
ėse	-1761
ėjome	-1762
▁svarbi	-1763
▁tikrai	-1764
▁priklaus	-1765
cen	-1766
atei	-1767
siek	-1768
▁stipr	-1769
sąjunga	-1770
visuomen	-1771
▁sukurti	-1772
▁pabrėžti	-1773
▁nustatyti	-1774
▁fond	-1775
tel	-1776
esnių	-1777
unk	-1778
▁¦201	-1779
būtina	-1780
iniais	-1781
▁šioje	-1782
tyb	-1783
iden	-1784
prant	-1785
▁papil	-1786
▁prisi	-1787
oju	-1788
lius	-1789
▁dien	-1790
▁lai	-1791
▁pras	-1792
▁pui	-1793
ankamai	-1794
▁skatin	-1795
▁sistemos	-1796
das	-1797
elių	-1798
klaid	-1799
▁jums	-1800
kreipti	-1801
▁interes	-1802
toti	-1803
▁suk	-1804
▁maisto	-1805
▁panaik	-1806
▁sveikatos	-1807
tokol	-1808
▁šiame	-1809
veiksmų	-1810
rėži	-1811
▁skiri	-1812
▁šiuos	-1813
▁standar	-1814
▁laikotarp	-1815
ani	-1816
9¦	-1817
▁nus	-1818
▁atskir	-1819
▁transporto	-1820
istų	-1821
rįst	-1822
▁biudž	-1823
7¦	-1824
yla	-1825
cijai	-1826
damos	-1827
ėmesio	-1828
ausia	-1829
▁nuostat	-1830
▁reikalav	-1831
jus	-1832
ymu	-1833
ūrim	-1834
pasiūl	-1835
trolės	-1836
augiuosi	-1837
▁požiūriu	-1838
▁Su	-1839
vaik	-1840
▁kil	-1841
toliau	-1842
urod	-1843
eikio	-1844
jeigu	-1845
anglaud	-1846
veiksming	-1847
▁komiteto	-1848
▁Sąjungoje	-1849
reikš	-1850
vadov	-1851
▁Pirm	-1852
ėjų	-1853
▁nen	-1854
▁gerb	-1855
tap	-1856
inama	-1857
inaudoti	-1858
na	-1859
auki	-1860
tose	-1861
uotų	-1862
▁suder	-1863
▁pirmininkauj	-1864
▁ge	-1865
▁EUR	-1866
rovės	-1867
▁inter	-1868
▁krizės	-1869
vyriausyb	-1870
elg	-1871
kov	-1872
nep	-1873
ordin	-1874
strukt	-1875
▁šalys	-1876
▁šalies	-1877
pakeitim	-1878
galėtų	-1879
▁pasak	-1880
▁neturi	-1881
▁nuomon	-1882
▁žinoma	-1883
virtinti	-1884
esnę	-1885
▁vai	-1886
esu	-1887
pet	-1888
sumaž	-1889
▁prek	-1890
iausiai	-1891
▁moterų	-1892
▁reform	-1893
▁priemonės	-1894
gam	-1895
džių	-1896
tojimo	-1897
▁priėm	-1898
▁atsižvelg	-1899
rand	-1900
energijos	-1901
▁įskaitant	-1902
ic	-1903
kr	-1904
▁Iš	-1905
▁žingsn	-1906
▁pasaulyje	-1907
▁mė	-1908
▁mas	-1909
lat	-1910
ėta	-1911
▁Bū	-1912
duri	-1913
engv	-1914
▁siūl	-1915
▁santy	-1916
▁nariai	-1917
▁valstybėms	-1918
jekt	-1919
imtis	-1920
▁remi	-1921
pasakyti	-1922
▁plėtros	-1923
▁vyriausyb	-1924
▁valstybėse	-1925
eno	-1926
pvz	-1927
padėti	-1928
▁griež	-1929
prekybos	-1930
▁Tarybai	-1931
▁technolog	-1932
▁atsižvelgiant	-1933
dis	-1934
▁jį	-1935
itin	-1936
ondo	-1937
▁5	-1938
tok	-1939
tom	-1940
ump	-1941
ėjus	-1942
pirma	-1943
jog	-1944
ančią	-1945
reglamen	-1946
kil	-1947
ymui	-1948
ančias	-1949
▁energetikos	-1950
vali	-1951
peten	-1952
▁kuriuo	-1953
▁efektyv	-1954
atsižvelgiant	-1955
kš	-1956
šū	-1957
amb	-1958
admin	-1959
kartu	-1960
produk	-1961
▁savai	-1962
▁šalims	-1963
▁atsakom	-1964
▁pasiūlymą	-1965
liū	-1966
vok	-1967
jame	-1968
orės	-1969
▁skur	-1970
krimin	-1971
uojant	-1972
usijos	-1973
▁įstat	-1974
▁šalyse	-1975
klausimą	-1976
▁ekonomi	-1977
sim	-1978
tomis	-1979
tuoti	-1980
8¦	-1981
oky	-1982
ėsi	-1983
neri	-1984
tyrim	-1985
▁tvir	-1986
rinkos	-1987
▁straipsn	-1988
del	-1989
jūsų	-1990
varto	-1991
▁reguli	-1992
dą	-1993
geri	-1994
ilij	-1995
▁jud	-1996
▁juos	-1997
▁pini	-1998
▁vykd	-1999
eikiama	-2000
▁veiksm	-2001
▁kiekvien	-2002
op	-2003
veikl	-2004
esij	-2005
asmen	-2006
kurią	-2007
▁kurio	-2008
ūkinink	-2009
administ	-2010
nusi	-2011
▁ragin	-2012
▁visos	-2013
paslaug	-2014
▁įtrauk	-2015
▁pareišk	-2016
▁išlaid	-2017
pranešime	-2018
▁h	-2019
nus	-2020
įvyk	-2021
▁strukt	-2022
▁pasaulio	-2023
▁nebuvo	-2024
▁Gali	-2025
▁Dabar	-2026
▁integ	-2027
▁parod	-2028
priklausom	-2029
eim	-2030
biudžeto	-2031
▁nuomone	-2032
▁reiškia	-2033
tija	-2034
▁oro	-2035
randuol	-2036
▁metais	-2037
▁dokumen	-2038
ininkystės	-2039
3¦	-2040
kuriuos	-2041
▁prisid	-2042
▁žmonės	-2043
rezultat	-2044
ge	-2045
giai	-2046
eniai	-2047
trukt	-2048
šalim	-2049
cijoms	-2050
dėmesį	-2051
spręsti	-2052
amus	-2053
enkl	-2054
▁vald	-2055
proces	-2056
▁parlamen	-2057
▁Parlamente	-2058
ird	-2059
vyr	-2060
eglob	-2061
manoma	-2062
pasiek	-2063
apsaugos	-2064
konkuren	-2065
▁mln	-2066
tinėje	-2067
".	-2068
olog	-2069
▁Šis	-2070
atori	-2071
palaik	-2072
muo	-2073
▁rim	-2074
▁stab	-2075
▁Turime	-2076
▁papras	-2077
▁kuriame	-2078
▁paslaugų	-2079
▁produktų	-2080
lėš	-2081
ron	-2082
anki	-2083
ausimo	-2084
▁kurioje	-2085
▁srityse	-2086
mi	-2087
tol	-2088
vaid	-2089
▁Pas	-2090
kartą	-2091
▁kurias	-2092
▁vietos	-2093
▁spręsti	-2094
oso	-2095
ponia	-2096
▁Taigi	-2097
▁šalis	-2098
lisabonos	-2099
viz	-2100
▁Af	-2101
▁ją	-2102
▁sien	-2103
negali	-2104
klimato	-2105
6¦	-2106
geb	-2107
istr	-2108
uota	-2109
feren	-2110
▁ataskai	-2111
▁kuriose	-2112
frakcijos	-2113
patvirtin	-2114
eda	-2115
eur	-2116
▁ek	-2117
autų	-2118
▁tek	-2119
▁atitink	-2120
▁Bendrijos	-2121
ekl	-2122
jūs	-2123
abaig	-2124
inėje	-2125
projek	-2126
atsižvelg	-2127
est	-2128
uot	-2129
cijoje	-2130
europa	-2131
▁vieną	-2132
▁pareng	-2133
anglaudos	-2134
myn	-2135
vil	-2136
čiu	-2137
▁tol	-2138
austi	-2139
iniams	-2140
pripaž	-2141
žinoma	-2142
▁direktyvos	-2143
elig	-2144
pram	-2145
▁noriu	-2146
▁teisę	-2147
oveikio	-2148
▁veiklos	-2149
▁pranešimo	-2150
▁taisyklių	-2151
2¦	-2152
ve	-2153
▁4	-2154
ūkst	-2155
amirš	-2156
deryb	-2157
ėkoju	-2158
▁padėtį	-2159
klausimu	-2160
▁Mano	-2161
▁euro	-2162
▁form	-2163
susitik	-2164
dį	-2165
mu	-2166
mat	-2167
intų	-2168
avimu	-2169
emokr	-2170
tuose	-2171
taikyti	-2172
▁ateityje	-2173
administra	-2174
ius	-2175
chan	-2176
duoti	-2177
anksčiau	-2178
enka	-2179
umun	-2180
dėlto	-2181
padid	-2182
riboj	-2183
▁2009	-2184
▁baig	-2185
ponios	-2186
▁skaidr	-2187
pranešėj	-2188
▁partner	-2189
▁skatinti	-2190
▁darbuotoj	-2191
▁pranešimas	-2192
eci	-2193
▁Ne	-2194
asti	-2195
pavyz	-2196
▁jiems	-2197
▁lygmeniu	-2198
▁svarbiausi	-2199
",	-2200
fes	-2201
ins	-2202
žių	-2203
▁Jei	-2204
aišku	-2205
pateikti	-2206
vencijos	-2207
ežas	-2208
ausių	-2209
džiui	-2210
ponai	-2211
▁išsi	-2212
▁prak	-2213
priežas	-2214
▁problema	-2215
tri	-2216
enki	-2217
uoju	-2218
šiame	-2219
chaniz	-2220
▁išteklių	-2221
▁pagalbos	-2222
▁suteikti	-2223
vieš	-2224
tinku	-2225
ankiai	-2226
▁agent	-2227
▁patir	-2228
▁tiesų	-2229
esivyst	-2230
▁narėse	-2231
▁skirti	-2232
piliečių	-2233
▁institucijų	-2234
stas	-2235
▁Bal	-2236
tomob	-2237
atveju	-2238
taryba	-2239
▁metus	-2240
▁dialog	-2241
pritariu	-2242
▁sumažinti	-2243
▁visuomenės	-2244
ote	-2245
yko	-2246
rati	-2247
▁dvi	-2248
darbą	-2249
koleg	-2250
▁Teis	-2251
▁žini	-2252
▁aspek	-2253
▁narėms	-2254
▁kuriais	-2255
įsipareigoj	-2256
▁priežiūros	-2257
elį	-2258
vardu	-2259
▁lėšų	-2260
anitar	-2261
▁atlik	-2262
aplinkos	-2263
europoje	-2264
priemones	-2265
▁piliečiams	-2266
dų	-2267
kėl	-2268
▁al	-2269
alių	-2270
▁lygio	-2271
jas	-2272
tokolą	-2273
vidaus	-2274
▁būtin	-2275
▁sistemą	-2276
▁gyventojų	-2277
▁pagrindinių	-2278
ruo	-2279
ąsi	-2280
ietų	-2281
ėtoj	-2282
princip	-2283
▁investi	-2284
▁viz	-2285
▁vėl	-2286
taigi	-2287
torin	-2288
▁visus	-2289
▁norime	-2290
▁reikalų	-2291
▁Pr	-2292
viet	-2293
▁kuo	-2294
tneri	-2295
▁narys	-2296
finansų	-2297
▁teises	-2298
politika	-2299
▁tikslas	-2300
▁mokesčių	-2301
įž	-2302
eiti	-2303
erdv	-2304
tiems	-2305
▁frak	-2306
▁šias	-2307
▁gerai	-2308
atžvilgiu	-2309
igracijos	-2310
▁vaidmenį	-2311
cent	-2312
grei	-2313
ital	-2314
▁Pag	-2315
nelyg	-2316
imtumo	-2317
▁patik	-2318
inei	-2319
pran	-2320
▁kal	-2321
numat	-2322
pažang	-2323
▁pažeid	-2324
padėkoti	-2325
žr	-2326
mus	-2327
▁fak	-2328
▁vad	-2329
▁aišk	-2330
▁sunk	-2331
▁naujų	-2332
▁visas	-2333
tomobili	-2334
umanitar	-2335
▁Pirminink	-2336
▁vartotojų	-2337
rd	-2338
bul	-2339
ito	-2340
ištek	-2341
skiri	-2342
duomen	-2343
eglobs	-2344
▁jūros	-2345
svarbus	-2346
▁bendrą	-2347
▁pritariu	-2348
įgyvendinti	-2349
mėn	-2350
nos	-2351
grup	-2352
antiems	-2353
▁pastar	-2354
▁is	-2355
▁nek	-2356
▁pager	-2357
▁būtent	-2358
turėtume	-2359
kok	-2360
▁19	-2361
▁žo	-2362
▁tri	-2363
▁šie	-2364
▁trūk	-2365
▁geriau	-2366
chn	-2367
uod	-2368
antį	-2369
▁pus	-2370
elyje	-2371
laikyti	-2372
▁padėtis	-2373
▁susitarimo	-2374
flik	-2375
kšči	-2376
toki	-2377
ymus	-2378
▁dži	-2379
džiag	-2380
šioje	-2381
▁žmonėms	-2382
▁susitarimas	-2383
lrd	-2384
rės	-2385
▁skub	-2386
▁stat	-2387
uojama	-2388
▁dalis	-2389
▁paramą	-2390
▁įsitik	-2391
▁paramos	-2392
1¦	-2393
▁Kar	-2394
▁dis	-2395
▁esu	-2396
netur	-2397
ausias	-2398
daryti	-2399
▁tinkl	-2400
diskusijos	-2401
oro	-2402
fras	-2403
iškų	-2404
kitų	-2405
▁nuk	-2406
suteik	-2407
spektyv	-2408
balsavau	-2409
politiką	-2410
ip	-2411
▁/	-2412
▁Vid	-2413
alima	-2414
▁aktų	-2415
eziden	-2416
konkre	-2417
▁kelia	-2418
▁sąlygas	-2419
▁problemų	-2420
▁rekomend	-2421
▁id	-2422
ione	-2423
imais	-2424
eidžia	-2425
proced	-2426
▁esame	-2427
▁reikš	-2428
▁dažnai	-2429
jį	-2430
toms	-2431
▁Kai	-2432
▁buv	-2433
▁mod	-2434
moksl	-2435
▁nesu	-2436
▁tokia	-2437
▁tinkamai	-2438
ūn	-2439
kult	-2440
vari	-2441
▁ter	-2442
alios	-2443
apusi	-2444
roriz	-2445
teigi	-2446
tugal	-2447
▁Vien	-2448
nagrin	-2449
▁kovos	-2450
▁mažiau	-2451
aiškinti	-2452
padaryti	-2453
▁tiesiog	-2454
▁susijusių	-2455
▁darbuotojų	-2456
ga	-2457
▁y	-2458
dys	-2459
amži	-2460
ančio	-2461
eglobsčio	-2462
frastrukt	-2463
▁sudėting	-2464
▁valdžios	-2465
▁rezoliucijos	-2466
4¦	-2467
cien	-2468
ausią	-2469
ensij	-2470
▁bank	-2471
▁nary	-2472
įvairi	-2473
lobaliz	-2474
▁pirmiausia	-2475
▁strategijos	-2476
eln	-2477
žiūrį	-2478
▁rodo	-2479
▁akivaiz	-2480
▁kompromis	-2481
uz	-2482
ingų	-2483
ąžin	-2484
tariame	-2485
▁turėti	-2486
▁konkurenc	-2487
buv	-2488
ema	-2489
gail	-2490
tingų	-2491
aujama	-2492
inamas	-2493
rancūz	-2494
▁reikėtų	-2495
olidarumo	-2496
būtent	-2497
labiau	-2498
▁minis	-2499
▁tyrimų	-2500
pasiekti	-2501
ūrimo	-2502
žemio	-2503
▁tari	-2504
▁žvej	-2505
galime	-2506
irties	-2507
priimti	-2508
▁klausimų	-2509
▁sprendimo	-2510
atas	-2511
steb	-2512
griež	-2513
inėms	-2514
ilijon	-2515
▁rinką	-2516
▁poveikį	-2517
▁Balsavau	-2518
veng	-2519
▁ket	-2520
▁nem	-2521
susij	-2522
saugumo	-2523
tikrųjų	-2524
visiems	-2525
galimybę	-2526
▁Prancūz	-2527
),	-2528
▁rem	-2529
ilumo	-2530
veikin	-2531
▁gamin	-2532
ančioms	-2533
komitet	-2534
tinkamai	-2535
▁kriteri	-2536
svarstyti	-2537
vų	-2538
entų	-2539
imti	-2540
niek	-2541
omen	-2542
▁posė	-2543
▁visą	-2544
▁gauti	-2545
▁bendro	-2546
▁kadangi	-2547
oja	-2548
pui	-2549
sur	-2550
tal	-2551
amie	-2552
giau	-2553
minti	-2554
viejų	-2555
acijas	-2556
▁pradėti	-2557
▁kuriomis	-2558
▁tikiuosi	-2559
yriausybės	-2560
FR	-2561
raf	-2562
uni	-2563
▁gar	-2564
▁europ	-2565
▁sistema	-2566
▁sustipr	-2567
▁problemas	-2568
▁sprendimus	-2569
ton	-2570
▁Ai	-2571
imis	-2572
▁Tik	-2573
▁paš	-2574
▁2020	-2575
▁Kalb	-2576
▁leid	-2577
▁teri	-2578
padėtis	-2579
taisykl	-2580
▁tikslų	-2581
emokratų	-2582
▁privalome	-2583
▁Galiausiai	-2584
rį	-2585
▁neį	-2586
▁šia	-2587
inėmis	-2588
tingai	-2589
veikinti	-2590
▁Komisijai	-2591
▁problemos	-2592
vejų	-2593
▁įst	-2594
aliau	-2595
prisi	-2596
▁abej	-2597
▁vand	-2598
anijos	-2599
atliek	-2600
galaik	-2601
▁kodėl	-2602
▁pramonės	-2603
fici	-2604
ijas	-2605
jums	-2606
remi	-2607
rindži	-2608
▁esmės	-2609
▁turės	-2610
pastang	-2611
ES	-2612
jam	-2613
▁EP	-2614
kaltim	-2615
▁klausimais	-2616
alon	-2617
juos	-2618
atskir	-2619
tikrai	-2620
tikiuosi	-2621
▁atlikti	-2622
transporto	-2623
erc	-2624
šie	-2625
dalyk	-2626
taikymo	-2627
▁daryti	-2628
▁darbotvark	-2629
lp	-2630
mių	-2631
sis	-2632
char	-2633
imės	-2634
umus	-2635
inami	-2636
pavoj	-2637
tokia	-2638
uotas	-2639
vieną	-2640
šiuos	-2641
▁Veng	-2642
▁aiški	-2643
▁galimybes	-2644
uvininkystės	-2645
ein	-2646
tės	-2647
inkl	-2648
pasak	-2649
▁meto	-2650
atstov	-2651
vertinti	-2652
nustatyti	-2653
res	-2654
okie	-2655
kelia	-2656
maisto	-2657
usiaus	-2658
siekiama	-2659
▁sėkming	-2660
irūpinimą	-2661
▁sprendimą	-2662
ec	-2663
vyn	-2664
band	-2665
▁Kon	-2666
▁riz	-2667
amasi	-2668
▁tarn	-2669
ratifik	-2670
sukurti	-2671
▁dėmesio	-2672
▁valdymo	-2673
▁atkreipti	-2674
institucijos	-2675
sul	-2676
inauj	-2677
inter	-2678
papil	-2679
▁band	-2680
▁teik	-2681
prasti	-2682
pasaulio	-2683
▁papildom	-2684
tras	-2685
ibrėž	-2686
vengti	-2687
▁krizę	-2688
▁pasis	-2689
▁neteis	-2690
▁kontrolės	-2691
nen	-2692
tys	-2693
inęs	-2694
▁Tarp	-2695
▁kelią	-2696
problema	-2697
▁pasirink	-2698
galiausiai	-2699
▁Č	-2700
aun	-2701
auju	-2702
iuro	-2703
▁lab	-2704
priori	-2705
▁aktyv	-2706
▁pajėg	-2707
▁pamin	-2708
▁sukur	-2709
sveikatos	-2710
adien	-2711
troli	-2712
▁Grai	-2713
▁vidu	-2714
inamos	-2715
▁nurod	-2716
atsakom	-2717
▁vertyb	-2718
▁koordin	-2719
▁pasinaudoti	-2720
kų	-2721
▁Į	-2722
fond	-2723
tvir	-2724
▁Bar	-2725
▁Žin	-2726
uotos	-2727
standar	-2728
▁vyksta	-2729
pabrėžti	-2730
pirmiausia	-2731
▁informacijos	-2732
eji	-2733
sto	-2734
gari	-2735
pekt	-2736
parod	-2737
suder	-2738
▁pati	-2739
skatin	-2740
▁vaikų	-2741
tvirtin	-2742
▁įmonių	-2743
▁susitarimą	-2744
ytą	-2745
tišk	-2746
trūk	-2747
vykd	-2748
▁grės	-2749
▁pavad	-2750
▁dirbti	-2751
sistemos	-2752
▁sutarties	-2753
pirmininkauj	-2754
žo	-2755
intos	-2756
▁Tiki	-2757
panaik	-2758
▁pramon	-2759
▁privalo	-2760
▁įtraukti	-2761
euro	-2762
siūl	-2763
▁plė	-2764
▁sub	-2765
gauti	-2766
kuria	-2767
ograf	-2768
▁kuria	-2769
eiskite	-2770
klausimus	-2771
▁aukščiausi	-2772
stab	-2773
▁lik	-2774
eistų	-2775
terys	-2776
visos	-2777
▁toks	-2778
▁vietų	-2779
▁naujas	-2780
▁šalyje	-2781
▁paskelb	-2782
▁sprendži	-2783
▁pasiūlymas	-2784
tojo	-2785
ėtis	-2786
▁jėg	-2787
▁šeš	-2788
▁Visi	-2789
▁Labai	-2790
nuostat	-2791
uržemio	-2792
▁sudaro	-2793
▁sąjung	-2794
▁visada	-2795
▁regiono	-2796
laikotarp	-2797
pasiūlymą	-2798
▁6	-2799
pus	-2800
elež	-2801
iliz	-2802
▁Val	-2803
avimui	-2804
moterų	-2805
neturi	-2806
▁ketin	-2807
▁nebus	-2808
inaujin	-2809
priemonės	-2810
▁balsavau	-2811
▁užsienio	-2812
▁prioritet	-2813
pub	-2814
neto	-2815
▁Kin	-2816
priėm	-2817
ėliau	-2818
ado	-2819
kan	-2820
alis	-2821
integ	-2822
uomet	-2823
įstat	-2824
ypating	-2825
▁taikyti	-2826
▁padėties	-2827
▁sprendimas	-2828
▁Parlamentui	-2829
gn	-2830
leid	-2831
prek	-2832
aktyv	-2833
šalys	-2834
▁2008	-2835
nuomon	-2836
ėkūros	-2837
reikalav	-2838
▁tvarkos	-2839
▁diskusijos	-2840
dus	-2841
etap	-2842
▁gai	-2843
▁jas	-2844
biudž	-2845
iniam	-2846
▁dalį	-2847
▁smur	-2848
reform	-2849
▁derybų	-2850
▁kaitos	-2851
požiūriu	-2852
▁pagalbą	-2853
technolog	-2854
▁galėtume	-2855
▁parengti	-2856
▁finansinių	-2857
jud	-2858
otis	-2859
noriu	-2860
krizės	-2861
tinėms	-2862
įtrauk	-2863
▁Jeigu	-2864
▁nepak	-2865
kadangi	-2866
▁siekti	-2867
▁atsisak	-2868
▁susiduri	-2869
pini	-2870
skri	-2871
ausio	-2872
▁itin	-2873
▁šiam	-2874
▁fondo	-2875
sąjungoje	-2876
▁gyvenimo	-2877
▁de	-2878
fika	-2879
teik	-2880
kirst	-2881
taria	-2882
▁Daug	-2883
▁Antra	-2884
▁inves	-2885
efektyv	-2886
komiteto	-2887
▁tikslus	-2888
sunk	-2889
tetų	-2890
▁Per	-2891
ysime	-2892
▁poky	-2893
▁vienod	-2894
ėjai	-2895
▁eks	-2896
angli	-2897
ėmesys	-2898
šalies	-2899
▁klaid	-2900
▁treči	-2901
▁pradži	-2902
▁veiklą	-2903
įskaitant	-2904
▁padidinti	-2905
▁piliečiai	-2906
▁vystymosi	-2907
▁sektoriaus	-2908
AV	-2909
aši	-2910
ėtas	-2911
▁mus	-2912
ydama	-2913
▁Vadov	-2914
▁laikas	-2915
▁vertus	-2916
pasaulyje	-2917
tomobilių	-2918
▁žingsnis	-2919
eti	-2920
plė	-2921
▁10	-2922
▁Ko	-2923
▁sek	-2924
▁vyr	-2925
▁zon	-2926
prisid	-2927
eležink	-2928
reiškia	-2929
▁galbūt	-2930
▁patenk	-2931
▁pakankamai	-2932
▁Y	-2933
dės	-2934
imi	-2935
irž	-2936
nek	-2937
▁Mūsų	-2938
▁reag	-2939
išlaid	-2940
veiksm	-2941
▁rasti	-2942
tarybai	-2943
▁bendra	-2944
▁pastab	-2945
▁pasireng	-2946
abejotinai	-2947
tė	-2948
eil	-2949
ūnų	-2950
▁tą	-2951
eliu	-2952
inys	-2953
▁bal	-2954
šalis	-2955
▁pali	-2956
▁kitos	-2957
plėtros	-2958
▁išorės	-2959
▁duomenų	-2960
▁susijęs	-2961
▁ūkinink	-2962
bar	-2963
▁įvy	-2964
aukia	-2965
eigti	-2966
inimu	-2967
rijoje	-2968
▁nelai	-2969
vietimo	-2970
valstybėse	-2971
▁sprendimų	-2972
gar	-2973
ėtos	-2974
▁Nep	-2975
▁žal	-2976
▁mies	-2977
reguli	-2978
žingsn	-2979
▁disku	-2980
▁spaud	-2981
▁ženkl	-2982
skritai	-2983
adarbiau	-2984
▁pabrėži	-2985
valstybėms	-2986
000	-2987
tiko	-2988
▁kor	-2989
dešimt	-2990
▁dauguma	-2991
bendrijos	-2992
▁klausimai	-2993
▁sektoriuje	-2994
▁rezoliuciją	-2995
egz	-2996
ąja	-2997
tiją	-2998
▁elg	-2999
santy	-3000
▁kryp	-3001
nariai	-3002
sijung	-3003
pareišk	-3004
▁keletą	-3005
čiausiai	-3006
▁pagrįst	-3007
▁laikytis	-3008
▁neturėtų	-3009
bendradarbiavimo	-3010
go	-3011
mai	-3012
nem	-3013
ška	-3014
alio	-3015
ikos	-3016
iška	-3017
skur	-3018
ymai	-3019
▁JAV	-3020
▁įta	-3021
dalis	-3022
stipr	-3023
čiųjų	-3024
ferend	-3025
nebuvo	-3026
▁išmet	-3027
amiršti	-3028
ekonomi	-3029
ateityje	-3030
▁skirtum	-3031
inč	-3032
oci	-3033
yme	-3034
reng	-3035
▁žem	-3036
avome	-3037
kiais	-3038
▁šeim	-3039
šalyse	-3040
▁teiki	-3041
▁nuolat	-3042
▁kompeten	-3043
▁programos	-3044
energetikos	-3045
pi	-3046
lav	-3047
prę	-3048
▁ci	-3049
ieno	-3050
umos	-3051
vald	-3052
savai	-3053
▁iššū	-3054
▁užsi	-3055
analiz	-3056
šalims	-3057
▁šalimis	-3058
nepaisant	-3059
▁Sąjungai	-3060
▁diskrimin	-3061
▁išspręsti	-3062
▁pasiūlymų	-3063
▁priežasčių	-3064
roje	-3065
iškas	-3066
kelti	-3067
yboje	-3068
▁2010	-3069
pastar	-3070
skirti	-3071
žmonės	-3072
▁Vokie	-3073
▁elekt	-3074
tinėmis	-3075
▁veikti	-3076
▁bendrov	-3077
▁diskusijas	-3078
rūp	-3079
amės	-3080
rimą	-3081
tiks	-3082
▁sen	-3083
▁tau	-3084
teris	-3085
kuriuo	-3086
ataskai	-3087
straipsn	-3088
▁rinkoje	-3089
▁klausimo	-3090
▁8	-3091
dur	-3092
eiv	-3093
sen	-3094
šir	-3095
ingo	-3096
▁paj	-3097
▁žod	-3098
▁neiš	-3099
▁oper	-3100
▁plat	-3101
▁įvai	-3102
leisti	-3103
▁atvir	-3104
▁dešimt	-3105
▁saugos	-3106
▁laisvės	-3107
▁pakeisti	-3108
▁mokslinių	-3109
pagrindinių	-3110
dvi	-3111
▁įg	-3112
aliu	-3113
antų	-3114
džiu	-3115
▁Esu	-3116
centr	-3117
džius	-3118
esnes	-3119
kodėl	-3120
kurio	-3121
vakar	-3122
būdžio	-3123
asklaid	-3124
beraliz	-3125
▁Praneš	-3126
▁Vadovų	-3127
▁Valsti	-3128
▁pabaig	-3129
▁kokybės	-3130
▁aplinkyb	-3131
▁branduol	-3132
▁poveikio	-3133
pranešimas	-3134
▁pasiūlymo	-3135
IT	-3136
20¦	-3137
hag	-3138
suk	-3139
tes	-3140
tyn	-3141
vėl	-3142
tams	-3143
vimo	-3144
▁Dar	-3145
▁tas	-3146
anori	-3147
▁situ	-3148
▁tada	-3149
svarbi	-3150
irželio	-3151
▁prieštar	-3152
parlamente	-3153
▁ekonominės	-3154
PL	-3155
arbo	-3156
▁Kad	-3157
būtin	-3158
etina	-3159
siais	-3160
ydami	-3161
▁Mums	-3162
kurias	-3163
pareng	-3164
racija	-3165
dokumen	-3166
paslaugų	-3167
▁projekt	-3168
ėgė	-3169
mens	-3170
prak	-3171
roso	-3172
usav	-3173
andid	-3174
aukti	-3175
▁galu	-3176
dirbti	-3177
ojimai	-3178
▁jokių	-3179
▁remti	-3180
omenyje	-3181
tiesiog	-3182
tiniais	-3183
▁¦2009¦	-3184
▁kalbėti	-3185
paprastin	-3186
privalome	-3187
▁administra	-3188
išs	-3189
imams	-3190
▁jame	-3191
▁šiol	-3192
▁naują	-3193
▁susiję	-3194
▁mechaniz	-3195
▁pritarti	-3196
▁socialinės	-3197
kuo	-3198
ektr	-3199
frak	-3200
land	-3201
liko	-3202
▁pla	-3203
patir	-3204
▁dujų	-3205
▁kita	-3206
adienį	-3207
▁išvad	-3208
▁relig	-3209
▁trans	-3210
nuomone	-3211
žiūrėti	-3212
▁matyti	-3213
▁princi	-3214
sižvelgi	-3215
▁poreiki	-3216
pranešimo	-3217
▁rezultatų	-3218
▁strategiją	-3219
▁finansavimo	-3220
žini	-3221
▁Jis	-3222
naujų	-3223
ančiai	-3224
engeno	-3225
ingumą	-3226
metais	-3227
omisar	-3228
vietos	-3229
amžiaus	-3230
partner	-3231
▁atrodo	-3232
▁naujov	-3233
▁greičiau	-3234
direktyvos	-3235
▁pastangas	-3236
ėd	-3237
fak	-3238
augos	-3239
enhag	-3240
uojami	-3241
anglies	-3242
engiant	-3243
sistema	-3244
▁Europą	-3245
▁kovoti	-3246
▁teikti	-3247
usiausvyr	-3248
▁teritori	-3249
▁nepaisant	-3250
mų	-3251
▁av	-3252
nesu	-3253
▁mai	-3254
atlik	-3255
▁viso	-3256
▁speci	-3257
kuriame	-3258
▁kaimyn	-3259
▁profes	-3260
▁Europai	-3261
▁Tarptau	-3262
sutarties	-3263
▁Tikiuosi	-3264
▁anksčiau	-3265
balsavimas	-3266
yd	-3267
lov	-3268
▁¦3	-3269
posė	-3270
▁Bet	-3271
▁Bri	-3272
esame	-3273
▁kliū	-3274
▁nesi	-3275
kurioje	-3276
▁žinome	-3277
▁partneri	-3278
le	-3279
rang	-3280
▁000	-3281
▁Ame	-3282
kitas	-3283
ąsias	-3284
▁Ital	-3285
▁kitą	-3286
ausios	-3287
norime	-3288
▁Sutar	-3289
▁nagrin	-3290
▁pinigų	-3291
▁derybas	-3292
▁negalime	-3293
priežiūros	-3294
▁galimybių	-3295
▁svarbiausia	-3296
lobalizacijos	-3297
▁7	-3298
dai	-3299
naš	-3300
tine	-3301
unik	-3302
ūras	-3303
▁Lib	-3304
jiems	-3305
tekst	-3306
▁apsi	-3307
▁truk	-3308
dažnai	-3309
saugoti	-3310
▁mėnesi	-3311
esiogiai	-3312
suteikti	-3313
▁apsauga	-3314
▁Šiandien	-3315
▁strategija	-3316
▁informaciją	-3317
▁dv	-3318
visas	-3319
▁erdv	-3320
vyksta	-3321
▁tokių	-3322
srityse	-3323
lygmeniu	-3324
pagalbos	-3325
▁suprant	-3326
▁vertinu	-3327
▁taisykles	-3328
kei	-3329
ket	-3330
čiū	-3331
▁".	-3332
tame	-3333
toks	-3334
teisę	-3335
zonos	-3336
iniame	-3337
kirsti	-3338
tumėte	-3339
uodžio	-3340
▁Rumun	-3341
kščionių	-3342
produktų	-3343
▁nariams	-3344
▁pasitik	-3345
sumažinti	-3346
taisyklių	-3347
▁besivyst	-3348
▁bendruomen	-3349
kin	-3350
rem	-3351
dėti	-3352
obul	-3353
tarn	-3354
gerai	-3355
umpai	-3356
kuriose	-3357
▁dalies	-3358
▁pritar	-3359
mokesčių	-3360
▁gamybos	-3361
▁sąlygos	-3362
adarbiauti	-3363
svarbiausi	-3364
visuomenės	-3365
▁dalyvauti	-3366
▁atsižvelgti	-3367
▁demokratijos	-3368
šia	-3369
išsi	-3370
reik	-3371
ytus	-3372
▁gyn	-3373
▁jam	-3374
rasti	-3375
▁kyla	-3376
▁mlrd	-3377
davimo	-3378
ininkų	-3379
pagrįst	-3380
▁papraš	-3381
▁bendros	-3382
▁apsaugoti	-3383
▁finansinės	-3384
mln	-3385
ota	-3386
alus	-3387
inči	-3388
redi	-3389
žiau	-3390
ecial	-3391
▁2007	-3392
▁tapti	-3393
▁versl	-3394
veiklos	-3395
▁naudos	-3396
▁žmones	-3397
▁didžiul	-3398
vartotojų	-3399
▁pažangos	-3400
▁protokolą	-3401
▁remiantis	-3402
▁valstybes	-3403
▁tarptautinės	-3404
lpn	-3405
ško	-3406
kita	-3407
koje	-3408
pens	-3409
lygio	-3410
ėjote	-3411
skaidr	-3412
vienod	-3413
sąlygas	-3414
užsienio	-3415
▁derybos	-3416
▁kuriems	-3417
▁poziciją	-3418
▁galimybės	-3419
▁informacija	-3420
).	-3421
šką	-3422
idži	-3423
kija	-3424
šias	-3425
čiais	-3426
▁tiks	-3427
bendrą	-3428
inimui	-3429
▁Kitas	-3430
▁atsir	-3431
▁kaimo	-3432
▁kreip	-3433
kalbant	-3434
skatinti	-3435
gyventojų	-3436
sprendimo	-3437
▁nuomonės	-3438
▁humanitar	-3439
▁politinių	-3440
institucijų	-3441
co	-3442
vat	-3443
▁mi	-3444
bank	-3445
vidu	-3446
žvej	-3447
▁pre	-3448
alimi	-3449
amųjų	-3450
intis	-3451
pasis	-3452
tinei	-3453
▁jaun	-3454
apital	-3455
narėse	-3456
padėtį	-3457
atitink	-3458
▁beveik	-3459
▁konflik	-3460
darbuotoj	-3461
▁balsuoti	-3462
▁pagerinti	-3463
▁perspektyv	-3464
lan	-3465
vež	-3466
▁sėk	-3467
antra	-3468
kovos	-3469
patik	-3470
▁Nors	-3471
▁būdu	-3472
pažeid	-3473
tingas	-3474
ydamas	-3475
▁ankst	-3476
▁tokios	-3477
▁medžiag	-3478
▁pateiki	-3479
▁regionų	-3480
▁įgyvendinimo	-3481
gą	-3482
200	-3483
gen	-3484
lėšų	-3485
skub	-3486
▁del	-3487
▁pam	-3488
▁rūp	-3489
mingi	-3490
pager	-3491
visus	-3492
yrimo	-3493
▁pakl	-3494
aujame	-3495
ančiais	-3496
investi	-3497
ortugal	-3498
▁apsaugą	-3499
▁įgalioj	-3500
▁Komisiją	-3501
piliečiams	-3502
▁susijusius	-3503
▁",	-3504
▁In	-3505
krai	-3506
riai	-3507
aspek	-3508
publi	-3509
baigti	-3510
narėms	-3511
▁esmin	-3512
▁kelių	-3513
▁techn	-3514
sistemą	-3515
▁leisti	-3516
išteklių	-3517
▁vykdyti	-3518
▁įvertin	-3519
▁frakcija	-3520
▁pažeidži	-3521
▁balsavimo	-3522
▁nepriklausom	-3523
▁prieglobsčio	-3524
bai	-3525
apsi	-3526
truk	-3527
ančia	-3528
ojant	-3529
dialog	-3530
eikšti	-3531
šalyje	-3532
gailest	-3533
tikslas	-3534
▁įmonės	-3535
▁nuomonę	-3536
▁požiūrį	-3537
ana	-3538
irk	-3539
mar	-3540
omb	-3541
usį	-3542
šos	-3543
dėst	-3544
tika	-3545
▁jus	-3546
entus	-3547
siant	-3548
galbūt	-3549
teises	-3550
▁plėtr	-3551
▁taigi	-3552
pradėti	-3553
žmonėms	-3554
kiekvien	-3555
problemų	-3556
vaidmenį	-3557
valdžios	-3558
▁taikymo	-3559
▁Nepaisant	-3560
▁sanglaudos	-3561
▁patvirtinti	-3562
rių	-3563
aktų	-3564
pati	-3565
▁¦1¦	-3566
ojimo	-3567
roati	-3568
tingi	-3569
▁link	-3570
kuriais	-3571
paramos	-3572
▁nebūtų	-3573
▁pažangą	-3574
▁direktyva	-3575
ims	-3576
omą	-3577
deri	-3578
▁Rūm	-3579
▁neb	-3580
▁uos	-3581
edant	-3582
iolog	-3583
jūros	-3584
metus	-3585
▁reik	-3586
geriau	-3587
paramą	-3588
▁Ukrai	-3589
▁kaita	-3590
▁padės	-3591
▁visuo	-3592
ininkai	-3593
▁Būtent	-3594
rekomend	-3595
konkurenc	-3596
darbuotojų	-3597
▁reikalavimus	-3598
kor	-3599
lap	-3600
zmo	-3601
umai	-3602
šiau	-3603
eklar	-3604
iurok	-3605
usija	-3606
▁bent	-3607
▁Šios	-3608
bendro	-3609
▁šiais	-3610
prancūz	-3611
pramonės	-3612
sprendži	-3613
▁Portugal	-3614
▁diskusijų	-3615
▁struktūrin	-3616
▁infrastrukt	-3617
▁priemonėmis	-3618
nuk	-3619
▁auk	-3620
narys	-3621
pajėg	-3622
leidži	-3623
▁glaud	-3624
▁laiką	-3625
▁turiu	-3626
reikėtų	-3627
▁paaišk	-3628
▁verslo	-3629
▁regione	-3630
▁teroriz	-3631
▁partijos	-3632
▁komitetas	-3633
susitarimas	-3634
fr	-3635
▁Ji	-3636
daro	-3637
emen	-3638
plės	-3639
ėjos	-3640
▁Isp	-3641
▁nare	-3642
▁aišku	-3643
▁nuola	-3644
reikalų	-3645
▁dalykas	-3646
▁užimtumo	-3647
susitarimo	-3648
▁galiausiai	-3649
▁Gr	-3650
▁ta	-3651
deja	-3652
visą	-3653
ūkis	-3654
▁bai	-3655
alonu	-3656
tojus	-3657
įsitik	-3658
▁neigi	-3659
struktyv	-3660
▁Afrikos	-3661
▁svarbūs	-3662
kompromis	-3663
▁komitete	-3664
▁konferen	-3665
▁sudaryti	-3666
▁partnerystės	-3667
bri	-3668
ono	-3669
pel	-3670
jans	-3671
joms	-3672
šiam	-3673
tikti	-3674
▁joms	-3675
osioms	-3676
tokios	-3677
turėti	-3678
cijomis	-3679
▁asmenų	-3680
▁veikla	-3681
▁Žinoma	-3682
sudėting	-3683
valifika	-3684
▁naudoti	-3685
▁tariant	-3686
▁problemą	-3687
▁visapusi	-3688
strategijos	-3689
▁reglamento	-3690
arg	-3691
lig	-3692
mer	-3693
angl	-3694
enar	-3695
vand	-3696
▁ten	-3697
veiki	-3698
▁blog	-3699
▁pone	-3700
mažiau	-3701
▁gerbi	-3702
▁kredi	-3703
▁mastu	-3704
▁nieko	-3705
▁pakei	-3706
▁vakar	-3707
naudoti	-3708
▁pacien	-3709
▁sustab	-3710
klausimų	-3711
▁milijon	-3712
▁vienint	-3713
paprastai	-3714
priimtina	-3715
▁pasveikinti	-3716
▁nacionalinių	-3717
NL	-3718
žal	-3719
inus	-3720
umis	-3721
▁rež	-3722
▁Deja	-3723
▁pasku	-3724
ategori	-3725
orėtume	-3726
negalime	-3727
▁įmonėms	-3728
▁pareigas	-3729
▁programą	-3730
▁demokratų	-3731
▁direktyvą	-3732
▁taisyklės	-3733
▁daugiausia	-3734
gir	-3735
ume	-3736
eral	-3737
ėtai	-3738
Europ	-3739
inusi	-3740
ektros	-3741
onijos	-3742
tyrimų	-3743
žinoti	-3744
▁sąžin	-3745
▁augimo	-3746
▁parama	-3747
▁priver	-3748
▁tikras	-3749
gyvenimo	-3750
▁grindži	-3751
▁įvairių	-3752
pozicijos	-3753
sprendimą	-3754
▁daugelis	-3755
▁skaičius	-3756
▁nusikaltim	-3757
▁veiksmingai	-3758
ybė	-3759
esti	-3760
rija	-3761
site	-3762
žinome	-3763
▁Prieš	-3764
▁artim	-3765
▁pasek	-3766
▁pažym	-3767
▁veiki	-3768
uojamos	-3769
▁sritis	-3770
▁¦2008¦	-3771
▁aptarti	-3772
▁atliekų	-3773
▁daugelio	-3774
▁reguliavimo	-3775
ind	-3776
lab	-3777
otų	-3778
ybe	-3779
▁JT	-3780
▁Už	-3781
ieji	-3782
žiai	-3783
▁kam	-3784
eivių	-3785
▁baus	-3786
amiesi	-3787
aujant	-3788
istano	-3789
pektus	-3790
▁aktus	-3791
▁nares	-3792
▁sugeb	-3793
papildom	-3794
▁Rusijos	-3795
▁sutartį	-3796
susijusių	-3797
▁sutartis	-3798
▁Jungtinių	-3799
rezoliucijos	-3800
RO	-3801
iui	-3802
okį	-3803
ruk	-3804
sek	-3805
tern	-3806
▁Ver	-3807
▁eur	-3808
▁sti	-3809
▁jūrų	-3810
▁tapo	-3811
naudos	-3812
pavyko	-3813
▁būsim	-3814
▁leidži	-3815
▁Kalbant	-3816
▁paremti	-3817
▁ratifik	-3818
▁skirtas	-3819
▁ilgalaik	-3820
▁preziden	-3821
▁%	-3822
kią	-3823
ugs	-3824
dalį	-3825
enos	-3826
kias	-3827
▁Jie	-3828
esnius	-3829
neteis	-3830
atlikti	-3831
poveikį	-3832
reikšti	-3833
tvarkos	-3834
▁atnauj	-3835
▁dalykų	-3836
▁norint	-3837
▁visoms	-3838
▁vykdom	-3839
▁ministr	-3840
▁kultūros	-3841
▁panaudoj	-3842
pirmininko	-3843
rūm	-3844
▁14	-3845
nary	-3846
estin	-3847
galai	-3848
ketin	-3849
tinga	-3850
turės	-3851
▁pats	-3852
▁pači	-3853
kūrimo	-3854
vertyb	-3855
▁Pirma	-3856
▁tampa	-3857
Europos	-3858
kriteri	-3859
▁pačios	-3860
▁¦2020¦	-3861
▁mirties	-3862
problemas	-3863
▁panaikinti	-3864
▁pripažinti	-3865
▁investicijų	-3866
▁a	-3867
iam	-3868
dieg	-3869
eido	-3870
meto	-3871
▁Bul	-3872
▁juo	-3873
tavimo	-3874
▁kainų	-3875
▁tekst	-3876
aisiais	-3877
▁pernelyg	-3878
▁suinteres	-3879
▁sąlygomis	-3880
ban	-3881
ekį	-3882
kiš	-3883
odo	-3884
▁¦5	-3885
rims	-3886
▁Neg	-3887
istan	-3888
rinką	-3889
▁visa	-3890
andori	-3891
tikslų	-3892
▁apima	-3893
▁nepri	-3894
atsisak	-3895
dėmesio	-3896
▁kuriai	-3897
▁pabrėž	-3898
▁siekia	-3899
▁veiksn	-3900
ternatyv	-3901
▁taikoma	-3902
▁veiksmus	-3903
sižvelgiama	-3904
▁socialinių	-3905
ef	-3906
alią	-3907
eced	-3908
kisi	-3909
smen	-3910
▁naš	-3911
gamin	-3912
kalst	-3913
nepak	-3914
treči	-3915
varbu	-3916
▁gero	-3917
▁tenka	-3918
▁uždav	-3919
tencial	-3920
▁prasid	-3921
▁¦2010¦	-3922
delsiant	-3923
kuriomis	-3924
▁atkreip	-3925
▁kolegos	-3926
▁kontrol	-3927
▁pasiraš	-3928
▁rinkimų	-3929
▁sveikat	-3930
diskrimin	-3931
komisijai	-3932
▁atvejais	-3933
▁sektorių	-3934
bendruomen	-3935
201	-3936
ikt	-3937
▁Po	-3938
ekių	-3939
▁jai	-3940
▁užm	-3941
ingus	-3942
vaikų	-3943
▁2011	-3944
▁Slov	-3945
▁Šiau	-3946
bendra	-3947
egzist	-3948
▁kitas	-3949
sustipr	-3950
prieštar	-3951
▁Bulgari	-3952
▁kalbant	-3953
atkreipti	-3954
▁Amerikos	-3955
▁Pritariu	-3956
▁vyriausybės	-3957
▁organizacijos	-3958
neš	-3959
yks	-3960
ario	-3961
iejų	-3962
ieki	-3963
rori	-3964
esmės	-3965
sukur	-3966
sulta	-3967
tampa	-3968
tijai	-3969
turiu	-3970
grantų	-3971
pramon	-3972
▁Pietų	-3973
▁rengi	-3974
dauguma	-3975
sėkming	-3976
veikinu	-3977
▁baudži	-3978
▁dviejų	-3979
įtraukti	-3980
▁didelis	-3981
▁išlaidų	-3982
▁savaitę	-3983
▁įveikti	-3984
sprendimus	-3985
alia	-3986
chem	-3987
imtų	-3988
timą	-3989
ysiu	-3990
krizę	-3991
pamin	-3992
tovai	-3993
ūroje	-3994
audimo	-3995
siekti	-3996
teikti	-3997
trauki	-3998
įmonių	-3999
▁pagrį	-4000
▁užduo	-4001
ministr	-4002
valdymo	-4003
▁turėjo	-4004
atitinka	-4005
pasireng	-4006
pasirink	-4007
▁europie	-4008
▁išvengti	-4009
▁nusprend	-4010
▁projektą	-4011
▁žvejybos	-4012
aukščiausi	-4013
darbotvark	-4014
▁Vengrijos	-4015
▁Viduržemio	-4016
▁9	-4017
puo	-4018
epos	-4019
grai	-4020
urio	-4021
inaud	-4022
nurod	-4023
ojoje	-4024
žiūrą	-4025
▁šiek	-4026
audies	-4027
patenk	-4028
udsmen	-4029
vadovų	-4030
▁abejo	-4031
▁aptar	-4032
▁deleg	-4033
▁sąraš	-4034
osiomis	-4035
▁nenori	-4036
▁tvirtai	-4037
problemos	-4038
▁interesų	-4039
▁siekdami	-4040
klausimais	-4041
džiaugiuosi	-4042
▁pirmininko	-4043
▁pranešėjas	-4044
ybų	-4045
šeš	-4046
▁PP	-4047
iais	-4048
kime	-4049
▁Net	-4050
▁Pal	-4051
▁¦19	-4052
▁daro	-4053
▁nuro	-4054
ūrimas	-4055
▁Šiame	-4056
paskelb	-4057
privalo	-4058
▁kitaip	-4059
▁procesą	-4060
▁puikiai	-4061
galimybes	-4062
▁priklauso	-4063
pasinaudoti	-4064
informacijos	-4065
▁susirūpinimą	-4066
▁W	-4067
noz	-4068
eguž	-4069
omus	-4070
reag	-4071
suos	-4072
ėjas	-4073
aftos	-4074
tokių	-4075
▁etap	-4076
▁virš	-4077
audito	-4078
ensijų	-4079
kaitos	-4080
▁atvyk	-4081
▁ekolog	-4082
▁lankst	-4083
širdžiai	-4084
kontrolės	-4085
piliečiai	-4086
▁Turkijos	-4087
▁požiūris	-4088
susitarimą	-4089
parlamentui	-4090
▁iniciatyva	-4091
▁džiaugiuosi	-4092
▁laikotarpiu	-4093
ded	-4094
sub	-4095
▁tų	-4096
gird	-4097
grės	-4098
▁tem	-4099
omasi	-4100
▁šiai	-4101
atrodo	-4102
katina	-4103
▁pašal	-4104
▁keturi	-4105
▁negalima	-4106
▁pastangų	-4107
pasiūlymas	-4108
sprendimas	-4109
▁padarinių	-4110
▁solidarumo	-4111
▁reikalingas	-4112
▁Atsižvelgiant	-4113
šv	-4114
elb	-4115
mui	-4116
rau	-4117
ria	-4118
vos	-4119
lams	-4120
ykai	-4121
▁Res	-4122
kelią	-4123
rukus	-4124
tiktų	-4125
▁uždr	-4126
derybų	-4127
kričio	-4128
naujas	-4129
▁rinka	-4130
▁tokio	-4131
regiono	-4132
▁išsami	-4133
▁kitais	-4134
▁visose	-4135
▁vaidmuo	-4136
▁Šiaurės	-4137
▁palankiai	-4138
▁stiprinti	-4139
▁atsinaujin	-4140
tarptautinės	-4141
▁reikalavimų	-4142
ną	-4143
cid	-4144
gub	-4145
paj	-4146
▁rū	-4147
eikį	-4148
▁Jūs	-4149
▁ban	-4150
inčių	-4151
sijos	-4152
vokie	-4153
ėdami	-4154
▁Serb	-4155
▁inov	-4156
▁negu	-4157
▁¦20¦	-4158
Europa	-4159
ugsėjo	-4160
vartoj	-4161
▁fondų	-4162
▁kurti	-4163
▁rytoj	-4164
koordin	-4165
tiniams	-4166
▁atvejų	-4167
▁Valstyb	-4168
▁kalbama	-4169
ombudsmen	-4170
remiantis	-4171
▁galėsime	-4172
▁pasiūlymus	-4173
neį	-4174
▁12	-4175
▁¦4	-4176
anau	-4177
jose	-4178
omet	-4179
smur	-4180
erius	-4181
nebus	-4182
vietų	-4183
▁tokį	-4184
aranki	-4185
▁naujo	-4186
▁sesij	-4187
centrin	-4188
▁pasteb	-4189
▁Sąjungą	-4190
▁apibrėž	-4191
▁ypating	-4192
▁Diskusij	-4193
▁susiduria	-4194
▁vartojimo	-4195
krikščionių	-4196
rezoliuciją	-4197
▁atsakomybės	-4198
qu	-4199
vė	-4200
ąs	-4201
atą	-4202
gas	-4203
pla	-4204
zra	-4205
anda	-4206
dyje	-4207
užsi	-4208
amoje	-4209
ipusi	-4210
jomis	-4211
kitos	-4212
ymąsi	-4213
egužės	-4214
laikas	-4215
vertus	-4216
▁ginkl	-4217
▁lengv	-4218
▁praei	-4219
▁tikrų	-4220
▁tvark	-4221
duomenų	-4222
pagalbą	-4223
tiniame	-4224
▁skaiči	-4225
▁greitai	-4226
▁tikslai	-4227
▁požiūrio	-4228
▁procesas	-4229
▁santykių	-4230
▁bendrosios	-4231
▁Prancūzijos	-4232
▁automobilių	-4233
žod	-4234
rovę	-4235
tada	-4236
šiai	-4237
inves	-4238
pavad	-4239
teiki	-4240
versi	-4241
▁kiti	-4242
▁skol	-4243
▁tuos	-4244
skaiči	-4245
veikia	-4246
visada	-4247
yginti	-4248
▁kalba	-4249
▁sienų	-4250
▁sutel	-4251
▁tūkst	-4252
▁darbas	-4253
▁kitose	-4254
mokesčio	-4255
padėties	-4256
▁dėmesys	-4257
klausimai	-4258
▁interneto	-4259
▁Pirmininko	-4260
▁įsipareigojimų	-4261
VĮ	-4262
kus	-4263
son	-4264
▁11	-4265
▁Al	-4266
▁or	-4267
pali	-4268
taup	-4269
▁tel	-4270
jokių	-4271
tiesa	-4272
tiški	-4273
ėčiau	-4274
žiūra	-4275
▁dažn	-4276
nuolat	-4277
parama	-4278
tiniam	-4279
▁Vakar	-4280
▁tikri	-4281
▁visai	-4282
▁naujos	-4283
▁veikia	-4284
▁kurioms	-4285
prioritet	-4286
vystymosi	-4287
▁biudžetą	-4288
▁kultūrin	-4289
▁neseniai	-4290
▁referend	-4291
▁suprasti	-4292
ekonominės	-4293
finansinių	-4294
▁interesus	-4295
▁naudojimo	-4296
▁labiausiai	-4297
▁reikalinga	-4298
▁žuvininkystės	-4299
alo	-4300
ete	-4301
gus	-4302
nesį	-4303
poky	-4304
tuos	-4305
ėsiu	-4306
▁rag	-4307
nelai	-4308
tenka	-4309
▁Izra	-4310
naudži	-4311
prašau	-4312
sudaro	-4313
▁kokia	-4314
▁tikrą	-4315
▁grupės	-4316
▁mokykl	-4317
▁gerinti	-4318
▁moterys	-4319
iktnaudži	-4320
▁geležink	-4321
▁projekto	-4322
sektoriaus	-4323
socialinės	-4324
▁pavaduotoj	-4325
▁priežastis	-4326
▁teisėkūros	-4327
▁institucijoms	-4328
jav	-4329
pre	-4330
umi	-4331
▁25	-4332
lauk	-4333
mies	-4334
neiš	-4335
šalų	-4336
škos	-4337
alyst	-4338
cinės	-4339
fondo	-4340
janso	-4341
torių	-4342
ytina	-4343
▁Šved	-4344
džiais	-4345
kitaip	-4346
pastab	-4347
pritar	-4348
saugos	-4349
ėgėlių	-4350
▁planą	-4351
suprant	-4352
venciją	-4353
▁istori	-4354
▁kuriam	-4355
▁manome	-4356
▁nuosav	-4357
▁svarbą	-4358
▁sąlygų	-4359
daugelis	-4360
pritarti	-4361
susiduri	-4362
▁Airijos	-4363
▁kalbame	-4364
▁įmanoma	-4365
▁praėjusi	-4366
▁skaidrumo	-4367
▁standartus	-4368
00¦	-4369
cep	-4370
kam	-4371
stu	-4372
▁),	-4373
kyla	-4374
trof	-4375
▁¦2¦	-4376
reišk	-4377
spaud	-4378
eceden	-4379
veikla	-4380
veiklą	-4381
▁dieną	-4382
▁mažai	-4383
▁skait	-4384
kalbėti	-4385
pabrėži	-4386
▁termin	-4387
kompeten	-4388
parengti	-4389
žingsnis	-4390
▁apriboj	-4391
▁didelių	-4392
▁pristat	-4393
asklaidos	-4394
▁atsakyti	-4395
▁naudotis	-4396
▁pobūdžio	-4397
▁persvarst	-4398
svarbiausia	-4399
▁Pirmiausia	-4400
▁teisingumo	-4401
▁įsitikinęs	-4402
▁neabejotinai	-4403
▁aukščiausiojo	-4404
deg	-4405
tem	-4406
unis	-4407
įvai	-4408
šeim	-4409
▁Aud	-4410
▁Mar	-4411
▁sta	-4412
▁sto	-4413
atvir	-4414
ekuli	-4415
elekt	-4416
imasi	-4417
ploma	-4418
ėjimu	-4419
avimus	-4420
imuose	-4421
ančiųjų	-4422
tariant	-4423
uojamas	-4424
▁didelį	-4425
▁kilmės	-4426
▁pavyko	-4427
▁sakant	-4428
▁vėliau	-4429
branduol	-4430
galėtume	-4431
preziden	-4432
tinkamas	-4433
▁atitinka	-4434
▁taikomos	-4435
teisingumo	-4436
▁sėkmingai	-4437
▁kriterijus	-4438
▁sustiprinti	-4439
gu	-4440
ėją	-4441
žio	-4442
▁27	-4443
▁ie	-4444
▁ro	-4445
atai	-4446
kiau	-4447
lank	-4448
oper	-4449
plat	-4450
▁Dži	-4451
disku	-4452
engva	-4453
ginti	-4454
▁dviš	-4455
▁punk	-4456
▁teig	-4457
▁vizų	-4458
išorės	-4459
pradži	-4460
apsauga	-4461
▁kandid	-4462
▁skirta	-4463
▁vartoj	-4464
▁garanti	-4465
▁moteris	-4466
▁skaičių	-4467
▁vandens	-4468
▁naudinga	-4469
▁švietimo	-4470
▁Jungtinės	-4471
▁susijusios	-4472
bo	-4473
mos	-4474
raz	-4475
galu	-4476
iems	-4477
▁tie	-4478
▁Šie	-4479
atsir	-4480
inimų	-4481
pasku	-4482
▁2006	-4483
balans	-4484
darbas	-4485
inimai	-4486
tinimo	-4487
ėdamas	-4488
▁gyvyb	-4489
▁parag	-4490
▁pačių	-4491
derybas	-4492
inaudoj	-4493
projekt	-4494
▁tikslo	-4495
▁visoje	-4496
atastrof	-4497
▁omenyje	-4498
padidinti	-4499
programos	-4500
sprendimų	-4501
▁kontroli	-4502
▁paminėti	-4503
▁parodyti	-4504
▁principų	-4505
usiausvyrą	-4506
▁išteklius	-4507
informacija	-4508
pirmininkas	-4509
sh	-4510
ūlo	-4511
dujų	-4512
išką	-4513
▁stu	-4514
ambic	-4515
naują	-4516
▁deja	-4517
▁vyks	-4518
ficial	-4519
keletą	-4520
▁atsid	-4521
▁geras	-4522
▁nario	-4523
▁negal	-4524
▁tokie	-4525
▁stipri	-4526
▁svarbų	-4527
▁¦2007¦	-4528
balsuoti	-4529
▁Barroso	-4530
▁nukreip	-4531
▁pagrindą	-4532
▁įvertinti	-4533
finansavimo	-4534
▁sprendžiant	-4535
bendradarbiavimą	-4536
ąž	-4537
kui	-4538
nyg	-4539
yno	-4540
įta	-4541
alai	-4542
amio	-4543
grįž	-4544
kryp	-4545
▁MVĮ	-4546
▁Pak	-4547
mečio	-4548
timas	-4549
▁įrod	-4550
aisvai	-4551
kaimyn	-4552
▁priva	-4553
▁viską	-4554
didžiul	-4555
enkijos	-4556
openhag	-4557
palanki	-4558
tikslus	-4559
klausimo	-4560
neturėtų	-4561
▁Pagrind	-4562
▁anglies	-4563
▁sistemų	-4564
▁pozicijos	-4565
▁pagrindinis	-4566
▁tarpvalstyb	-4567
ią	-4568
ma	-4569
ard	-4570
atv	-4571
ėję	-4572
▁CO	-4573
▁ob	-4574
aked	-4575
antr	-4576
tiną	-4577
▁byl	-4578
galio	-4579
išmet	-4580
lieka	-4581
ėjimų	-4582
▁Iran	-4583
▁Juod	-4584
dėkoju	-4585
▁būdas	-4586
susijęs	-4587
▁laisvę	-4588
▁sričių	-4589
▁įstaig	-4590
frakcija	-4591
▁amžiaus	-4592
▁dialogą	-4593
▁saugumą	-4594
▁solidar	-4595
direktyva	-4596
▁ateities	-4597
▁numatyta	-4598
▁priemonė	-4599
▁tarpusav	-4600
▁liberaliz	-4601
▁teisingai	-4602
▁vartotojams	-4603
PT	-4604
įg	-4605
įvy	-4606
iššū	-4607
kliū	-4608
seki	-4609
ugeb	-4610
šiol	-4611
▁Pro	-4612
▁Ypa	-4613
▁ryž	-4614
alius	-4615
kredi	-4616
rodik	-4617
yčiau	-4618
ėjams	-4619
ėtojų	-4620
▁romų	-4621
▁sudė	-4622
▁Čeki	-4623
asario	-4624
paaišk	-4625
pabaig	-4626
pasteb	-4627
tingos	-4628
▁pieno	-4629
▁zonos	-4630
pateiki	-4631
▁Baltar	-4632
▁nerimą	-4633
aujantis	-4634
laikytis	-4635
publikos	-4636
▁Kadangi	-4637
▁Graikijos	-4638
▁pagrindas	-4639
▁sprendimai	-4640
▁straipsnio	-4641
▁!	-4642
dov	-4643
nai	-4644
pil	-4645
žym	-4646
▁13	-4647
iško	-4648
visa	-4649
▁Jos	-4650
▁sal	-4651
eliui	-4652
gerbi	-4653
remti	-4654
trans	-4655
ukrai	-4656
šiais	-4657
▁Kita	-4658
▁prar	-4659
▁išmok	-4660
▁reišk	-4661
iurokra	-4662
parčiai	-4663
rinkoje	-4664
▁pastat	-4665
▁sausio	-4666
▁stabil	-4667
▁niekada	-4668
▁nutrauk	-4669
▁pavojus	-4670
▁tiekimo	-4671
▁tyrimus	-4672
▁Kopenhag	-4673
▁birželio	-4674
pakankamai	-4675
sektoriuje	-4676
▁pakeitimų	-4677
▁pasiektas	-4678
▁supaprastin	-4679
▁darbuotojams	-4680
▁konkurencijos	-4681
▁Z	-4682
adi	-4683
▁tę	-4684
▁Reg	-4685
▁geb	-4686
▁rad	-4687
▁¦00	-4688
durti	-4689
inėse	-4690
vengi	-4691
▁gird	-4692
kovoti	-4693
norint	-4694
pinigų	-4695
usiems	-4696
bendrov	-4697
iacijos	-4698
instituc	-4699
poveikio	-4700
▁vadinam	-4701
mokslinių	-4702
protokolą	-4703
▁gruodžio	-4704
▁išlaidas	-4705
▁reaguoti	-4706
sanglaudos	-4707
▁prisijung	-4708
▁susitarimų	-4709
ūd	-4710
būd	-4711
▁Ap	-4712
auli	-4713
auna	-4714
bent	-4715
situ	-4716
skol	-4717
▁ori	-4718
▁vil	-4719
nesių	-4720
rumun	-4721
versl	-4722
ytume	-4723
ženkl	-4724
▁tris	-4725
engtis	-4726
inimus	-4727
terims	-4728
valsti	-4729
ymuisi	-4730
▁sunku	-4731
▁tęsti	-4732
didelis	-4733
kokybės	-4734
poreiki	-4735
▁Audito	-4736
▁dalimi	-4737
▁galioj	-4738
▁manymu	-4739
▁pagarb	-4740
▁žinote	-4741
besivyst	-4742
pakeisti	-4743
sąjungai	-4744
▁patobul	-4745
▁Šengeno	-4746
pasiūlymų	-4747
▁pavyzdys	-4748
▁užkirsti	-4749
▁veiksmai	-4750
diskusijas	-4751
priežasčių	-4752
▁politinės	-4753
▁prisidėti	-4754
atsižvelgti	-4755
▁regionuose	-4756
▁bendradarbiauti	-4757
ain	-4758
uoš	-4759
urn	-4760
▁15	-4761
▁Ir	-4762
ingu	-4763
jaun	-4764
ystę	-4765
▁Gal	-4766
▁Nuo	-4767
▁kei	-4768
▁tos	-4769
enden	-4770
ensyv	-4771
relig	-4772
timis	-4773
vaist	-4774
▁Nori	-4775
▁Rytų	-4776
indami	-4777
naujov	-4778
profes	-4779
▁kokių	-4780
▁lyčių	-4781
▁sritį	-4782
amosios	-4783
europai	-4784
▁energe	-4785
▁kelias	-4786
▁taikos	-4787
▁tikrin	-4788
▁vanden	-4789
teritori	-4790
balsavimo	-4791
pasiūlymo	-4792
priklauso	-4793
▁priminti	-4794
▁teisinga	-4795
strategija	-4796
▁įgyvendinant	-4797
ijo	-4798
eisi	-4799
viso	-4800
voje	-4801
ybei	-4802
nauja	-4803
užduo	-4804
ėtina	-4805
▁ribų	-4806
torius	-4807
▁atlyg	-4808
▁netgi	-4809
▁pakar	-4810
▁rinkų	-4811
acijoms	-4812
laisvės	-4813
įgalioj	-4814
▁Reikia	-4815
▁ketina	-4816
▁raginu	-4817
▁skirtų	-4818
aplinkyb	-4819
dalyvauti	-4820
išspręsti	-4821
pastangas	-4822
rezultatų	-4823
▁elektron	-4824
▁gyvenimą	-4825
▁trečiųjų	-4826
▁išlaikyti	-4827
▁santykius	-4828
gailestauju	-4829
informaciją	-4830
▁atsakomybę	-4831
▁užtikrinant	-4832
Pl	-4833
rų	-4834
amu	-4835
bur	-4836
sėk	-4837
vys	-4838
yto	-4839
audo	-4840
kitą	-4841
▁api	-4842
▁¦3¦	-4843
aliav	-4844
irink	-4845
iškos	-4846
▁stud	-4847
▁¦10¦	-4848
kijoje	-4849
siekia	-4850
tekste	-4851
▁2020"	-4852
▁nauja	-4853
bendros	-4854
skirtum	-4855
sutartį	-4856
vencija	-4857
šalimis	-4858
mechaniz	-4859
pažeidži	-4860
▁didesnį	-4861
▁siūloma	-4862
▁special	-4863
▁savanori	-4864
▁suteikta	-4865
finansinės	-4866
▁standartų	-4867
▁pavyzdžiui	-4868
▁imigracijos	-4869
lin	-4870
anka	-4871
ažai	-4872
esnė	-4873
pakl	-4874
sidi	-4875
škas	-4876
▁Tre	-4877
▁abi	-4878
▁gav	-4879
eismo	-4880
imosi	-4881
visuo	-4882
▁atsp	-4883
▁sank	-4884
beveik	-4885
matyti	-4886
rikoje	-4887
susiję	-4888
tarimą	-4889
▁galės	-4890
▁lėšos	-4891
▁patys	-4892
▁valiu	-4893
acijoje	-4894
ančiose	-4895
▁Vienas	-4896
▁pasisak	-4897
▁proceso	-4898
galimybių	-4899
galimybės	-4900
humanitar	-4901
strategiją	-4902
▁balsavimą	-4903
▁susitikime	-4904
▁Džiaugiuosi	-4905
▁priežasties	-4906
▁technologijų	-4907
▁c	-4908
gyn	-4909
omo	-4910
▁įs	-4911
kanų	-4912
osto	-4913
▁kie	-4914
išvad	-4915
kaimo	-4916
kotik	-4917
pelno	-4918
▁leis	-4919
▁norm	-4920
▁tema	-4921
dviejų	-4922
▁Darbo	-4923
▁dokum	-4924
apibrėž	-4925
konflik	-4926
regionų	-4927
▁Kroati	-4928
▁analiz	-4929
Plojimai	-4930
igracija	-4931
partneri	-4932
▁padaryta	-4933
▁principo	-4934
▁priėmimo	-4935
▁tinkamas	-4936
pranešėjas	-4937
▁pateiktas	-4938
demokratijos	-4939
▁integracijos	-4940
▁pastaruosius	-4941
▁svarbiausias	-4942
etn	-4943
lok	-4944
lug	-4945
ovo	-4946
▁Az	-4947
žino	-4948
▁rūm	-4949
minis	-4950
speci	-4951
tapti	-4952
▁Ypač	-4953
▁koks	-4954
dalies	-4955
europą	-4956
princi	-4957
▁Bendr	-4958
▁laivų	-4959
▁tiems	-4960
▁tvari	-4961
▁šiose	-4962
derybos	-4963
gamybos	-4964
pasitik	-4965
pažinti	-4966
tanijos	-4967
teroriz	-4968
▁sąskai	-4969
greičiau	-4970
užimtumo	-4971
▁bendras	-4972
▁teisėms	-4973
taisykles	-4974
valstybes	-4975
▁konstitu	-4976
▁paskirst	-4977
▁siekdama	-4978
▁apskritai	-4979
▁konkrečių	-4980
▁pakeitimą	-4981
▁projektas	-4982
infrastrukt	-4983
dem	-4984
pam	-4985
uotą	-4986
virš	-4987
▁kvo	-4988
▁lig	-4989
▁mir	-4990
▁pos	-4991
akiau	-4992
amumo	-4993
cinių	-4994
kelių	-4995
nuola	-4996
pietų	-4997
techn	-4998
tūkst	-4999
▁Buvo	-5000
▁Ties	-5001
▁funk	-5002
▁grįž	-5003
▁mane	-5004
▁žmog	-5005
mėnesi	-5006
sidiar	-5007
▁Didži	-5008
▁lėšas	-5009
medžiag	-5010
▁didelę	-5011
▁turint	-5012
komisiją	-5013
poziciją	-5014
sutartis	-5015
▁rizikos	-5016
palankiai	-5017
▁pagrindu	-5018
▁priimtas	-5019
▁žmonėmis	-5020
daugiausia	-5021
struktūrin	-5022
▁paslaugas	-5023
▁socialinę	-5024
▁ekonomikai	-5025
▁informuoti	-5026
▁susitikimo	-5027
nepriklausom	-5028
pe	-5029
ts	-5030
ėtą	-5031
▁30	-5032
▁Li	-5033
▁Tr	-5034
dukt	-5035
imok	-5036
indi	-5037
inos	-5038
jūrų	-5039
sult	-5040
ūrai	-5041
▁dem	-5042
▁gen	-5043
▁gim	-5044
artim	-5045
glaud	-5046
ūrimą	-5047
▁maži	-5048
▁taps	-5049
nebūtų	-5050
pageid	-5051
raciją	-5052
riboti	-5053
▁galiu	-5054
▁tikra	-5055
▁dėkoju	-5056
▁jokios	-5057
▁kokybę	-5058
▁patais	-5059
ančiomis	-5060
pažangos	-5061
▁aplinką	-5062
▁daugelį	-5063
▁mažinti	-5064
▁programa	-5065
▁rengiant	-5066
▁teisinės	-5067
perspektyv	-5068
reglamento	-5069
▁Atsižvelg	-5070
▁sektorius	-5071
įgyvendinimo	-5072
da	-5073
erv	-5074
/200	-5075
ūkes	-5076
▁dėk	-5077
▁įsp	-5078
amoms	-5079
imtum	-5080
pagrį	-5081
veren	-5082
▁kovo	-5083
sritis	-5084
žmones	-5085
▁reiki	-5086
▁¦000¦	-5087
▁įpras	-5088
▁žinių	-5089
ibrėžti	-5090
pagalba	-5091
regione	-5092
vertinu	-5093
įvertin	-5094
▁išdėst	-5095
▁visame	-5096
▁skubiai	-5097
▁sutinku	-5098
apsaugoti	-5099
▁paskatin	-5100
▁panaudoti	-5101
▁finansavimą	-5102
▁aplinkybėmis	-5103
▁nacionalinės	-5104
▁technologijas	-5105
▁globalizacijos	-5106
fek	-5107
rad	-5108
tie	-5109
eist	-5110
mlrd	-5111
pats	-5112
pręs	-5113
sual	-5114
tasi	-5115
▁ken	-5116
padės	-5117
plėtr	-5118
vysči	-5119
▁Baig	-5120
▁karo	-5121
baudži	-5122
verslo	-5123
▁laiku	-5124
▁lygiu	-5125
▁minim	-5126
▁tobul	-5127
nariams	-5128
panijos	-5129
sąlygos	-5130
nuomonės	-5131
skaičius	-5132
sudaryti	-5133
visapusi	-5134
▁plėtoti	-5135
▁srities	-5136
direktyvą	-5137
komitetas	-5138
politinių	-5139
▁kuriuose	-5140
▁ekonomika	-5141
patvirtinti	-5142
vyriausybės	-5143
▁Vokietijos	-5144
▁didžiausią	-5145
▁paaiškinti	-5146
▁pakeitimus	-5147
▁pagrindinės	-5148
▁susitarimus	-5149
juo	-5150
kūr	-5151
ltn	-5152
▁tė	-5153
ambl	-5154
baus	-5155
yrus	-5156
▁Pvz	-5157
iname	-5158
kaita	-5159
sugeb	-5160
▁ginč	-5161
didelę	-5162
manome	-5163
tijoje	-5164
▁centr	-5165
▁daugi	-5166
▁lauki	-5167
andorių	-5168
požiūrį	-5169
vienint	-5170
▁plėtrą	-5171
▁vienos	-5172
konstitu	-5173
▁didinti	-5174
▁kalbėjo	-5175
▁kitomis	-5176
▁stebėti	-5177
▁suteikia	-5178
▁teikiama	-5179
▁kvalifika	-5180
▁sektoriui	-5181
▁stabilumo	-5182
▁Diskusijos	-5183
▁rezultatus	-5184
▁konstruktyv	-5185
▁pirmininkas	-5186
▁aplinkosaugos	-5187
ty	-5188
dik	-5189
osn	-5190
užm	-5191
▁50	-5192
adic	-5193
kret	-5194
▁Dir	-5195
▁lin	-5196
ilžin	-5197
liams	-5198
odami	-5199
umais	-5200
▁Gruz	-5201
▁Visų	-5202
▁kito	-5203
andžio	-5204
arkiai	-5205
papraš	-5206
▁impor	-5207
▁kitus	-5208
▁rizik	-5209
ingumas	-5210
kuriems	-5211
nuomonę	-5212
▁kalbos	-5213
▁ketvir	-5214
portugal	-5215
▁kasdien	-5216
▁laisvių	-5217
▁susirūp	-5218
▁tikimės	-5219
demokratų	-5220
▁taikomas	-5221
▁įtvirtin	-5222
susijusius	-5223
▁bendrovių	-5224
▁diskusijose	-5225
HU	-5226
ern	-5227
uvų	-5228
gnoz	-5229
klas	-5230
pači	-5231
prat	-5232
usio	-5233
▁PPE	-5234
▁raš	-5235
▁¦5¦	-5236
esniu	-5237
usius	-5238
▁2013	-5239
▁antr	-5240
▁gera	-5241
▁pran	-5242
amiems	-5243
didelį	-5244
plėsti	-5245
▁dirba	-5246
kalbame	-5247
milijon	-5248
vykdyti	-5249
ilgalaik	-5250
partijos	-5251
▁kompens	-5252
▁pagalba	-5253
▁patikim	-5254
▁prekyba	-5255
pagerinti	-5256
▁atidžiai	-5257
▁mažinimo	-5258
solidarumo	-5259
▁Pranešime	-5260
▁ekonomiką	-5261
▁svarbiausių	-5262
▁akivaizdžiai	-5263
▁įsipareigojimus	-5264
EB	-5265
dūr	-5266
inu	-5267
ukš	-5268
▁Es	-5269
būdu	-5270
ešim	-5271
jais	-5272
tapo	-5273
vyko	-5274
įsta	-5275
ūnai	-5276
▁kaž	-5277
▁teb	-5278
atidė	-5279
eptyn	-5280
ginkl	-5281
▁penk	-5282
eiškia	-5283
kščion	-5284
turėjo	-5285
uojame	-5286
įmonės	-5287
▁atein	-5288
▁masto	-5289
▁miškų	-5290
▁vykst	-5291
afrikos	-5292
ltnamio	-5293
ygtinai	-5294
▁nukent	-5295
▁priekį	-5296
▁valdži	-5297
▁sunkumų	-5298
▁integruo	-5299
▁kategori	-5300
▁teigiama	-5301
▁biudžetas	-5302
▁diskusija	-5303
▁paprašyti	-5304
▁procedūros	-5305
nacionalinių	-5306
prieglobsčio	-5307
susirūpinimą	-5308
▁iniciatyvos	-5309
▁darbotvarkės	-5310
▁tarptautinių	-5311
EL	-5312
sal	-5313
▁kr	-5314
ekli	-5315
oksi	-5316
tokį	-5317
usią	-5318
vies	-5319
▁būd	-5320
▁mob	-5321
apima	-5322
strem	-5323
usias	-5324
ėmėsi	-5325
▁išim	-5326
▁reng	-5327
amieji	-5328
raginu	-5329
ėtojai	-5330
▁tokiu	-5331
▁šioms	-5332
atkreip	-5333
europie	-5334
pažangą	-5335
tacijos	-5336
▁biolog	-5337
▁perkėl	-5338
▁taršos	-5339
▁tikslą	-5340
kultūros	-5341
praėjusi	-5342
▁būtinas	-5343
▁kitiems	-5344
▁suteiki	-5345
▁viešųjų	-5346
▁išnagrin	-5347
nusikaltim	-5348
▁politikai	-5349
▁potencial	-5350
pagrindinis	-5351
▁pranešėjui	-5352
▁rezultatas	-5353
nl	-5354
sia	-5355
vin	-5356
blog	-5357
▁Tuo	-5358
dirba	-5359
edama	-5360
pasek	-5361
pažym	-5362
žinau	-5363
▁lygį	-5364
▁Štai	-5365
acijai	-5366
amomis	-5367
osiose	-5368
priver	-5369
razili	-5370
veikis	-5371
▁esant	-5372
▁uždar	-5373
dalykas	-5374
iniuose	-5375
mirties	-5376
svarbūs	-5377
tuojame	-5378
tvirtai	-5379
įvairių	-5380
▁Vakarų	-5381
▁kokios	-5382
▁statis	-5383
▁vietov	-5384
daugelio	-5385
komitete	-5386
▁Kinijos	-5387
▁bendrai	-5388
▁dialogo	-5389
▁vykdant	-5390
jungtinių	-5391
taisyklės	-5392
▁abejonių	-5393
▁aspektus	-5394
▁duomenys	-5395
pavyzdžiui	-5396
▁palaikyti	-5397
▁reikšming	-5398
▁suderinti	-5399
priemonėmis	-5400
▁patenkinti	-5401
▁tiesiogiai	-5402
reikalavimus	-5403
se	-5404
ias	-5405
ker	-5406
lės	-5407
pos	-5408
rio	-5409
ūkį	-5410
▁bi	-5411
atūr	-5412
grąž	-5413
nare	-5414
slov	-5415
tvyn	-5416
vyra	-5417
▁Jap	-5418
▁lap	-5419
▁med	-5420
▁mui	-5421
eklam	-5422
kokia	-5423
laiką	-5424
neigi	-5425
▁besi	-5426
▁lygi	-5427
▁vyko	-5428
ausius	-5429
esiems	-5430
prasid	-5431
sustab	-5432
▁Brius	-5433
▁taptų	-5434
▁tokią	-5435
apitalo	-5436
menimis	-5437
nutrauk	-5438
skirtas	-5439
sutinku	-5440
įmonėms	-5441
▁Dėkoju	-5442
▁augimą	-5443
▁tuomet	-5444
▁įtakos	-5445
nusprend	-5446
panaudoj	-5447
problemą	-5448
programą	-5449
diskusijų	-5450
▁atstovai	-5451
▁duomenis	-5452
▁mėnesius	-5453
▁nuomonei	-5454
▁tikslais	-5455
▁daugelyje	-5456
▁naudingas	-5457
▁naudojimą	-5458
▁nuostatas	-5459
▁pareikšti	-5460
▁nepriklaus	-5461
▁pakeitimas	-5462
partnerystės	-5463
▁pareiškimai	-5464
▁prioritetus	-5465
.)	-5466
br	-5467
jt	-5468
ash	-5469
aub	-5470
rež	-5471
▁Nr	-5472
serb	-5473
▁eil	-5474
▁kūr	-5475
aktus	-5476
aptar	-5477
būsim	-5478
mesti	-5479
praei	-5480
sąžin	-5481
▁Ekon	-5482
▁reak	-5483
dalykų	-5484
girsti	-5485
mokėti	-5486
nenori	-5487
pacien	-5488
▁lygis	-5489
▁panaš	-5490
▁parti	-5491
▁vertę	-5492
apsaugą	-5493
aptarti	-5494
sąjungą	-5495
▁ateitį	-5496
▁malonu	-5497
▁plenar	-5498
▁sienos	-5499
▁vietas	-5500
neseniai	-5501
pareigas	-5502
tvarkyti	-5503
▁Komisar	-5504
▁ilgalai	-5505
▁tinkamą	-5506
naudojimo	-5507
sidiarumo	-5508
▁Taryboje	-5509
▁abejonės	-5510
▁norėtume	-5511
▁pasiekta	-5512
▁reformas	-5513
iniciatyva	-5514
▁agentūros	-5515
▁nustatyta	-5516
▁pranešimu	-5517
▁projektus	-5518
▁kiekvienos	-5519
▁socialinio	-5520
žuvininkystės	-5521
so	-5522
eči	-5523
gri	-5524
mir	-5525
▁Jo	-5526
akro	-5527
gero	-5528
juod	-5529
kiti	-5530
stai	-5531
šiek	-5532
štai	-5533
▁Jau	-5534
▁Sch	-5535
ausiu	-5536
ienio	-5537
tokio	-5538
ėdama	-5539
▁kons	-5540
▁laim	-5541
▁vyrų	-5542
▁šalį	-5543
augimo	-5544
rodyti	-5545
▁draug	-5546
▁kokyb	-5547
▁sveik	-5548
▁įvykd	-5549
atliekų	-5550
eticijų	-5551
yriausi	-5552
▁abiejų	-5553
▁status	-5554
▁žinoti	-5555
▁žodžio	-5556
ininkams	-5557
kalbėtoj	-5558
konferen	-5559
kultūrin	-5560
naudotis	-5561
siekdami	-5562
▁gerokai	-5563
▁plataus	-5564
▁sukurta	-5565
▁trumpai	-5566
▁vietoje	-5567
▁aplinkai	-5568
▁galimybe	-5569
▁pagaliau	-5570
▁saugumas	-5571
▁skiriasi	-5572
▁įvykdymo	-5573
priežastis	-5574
tiesiogiai	-5575
▁ekonominę	-5576
▁nuostatos	-5577
▁nusikalst	-5578
▁pranešėja	-5579
▁procedūrą	-5580
▁nedelsiant	-5581
▁reikalauja	-5582
▁susijusias	-5583
▁veiksmingą	-5584
hol	-5585
ryž	-5586
und	-5587
▁18	-5588
elek	-5589
eviz	-5590
porc	-5591
tiką	-5592
inome	-5593
vykti	-5594
▁Pasi	-5595
▁gana	-5596
▁kada	-5597
asmenų	-5598
atnauj	-5599
ekolog	-5600
gyvena	-5601
rengti	-5602
tikras	-5603
▁Kodėl	-5604
▁Sieki	-5605
▁esama	-5606
▁organ	-5607
▁skelb	-5608
▁sukel	-5609
▁sukči	-5610
▁veiks	-5611
bulgari	-5612
išlaidų	-5613
paremti	-5614
rusijos	-5615
▁bendrų	-5616
▁garant	-5617
▁liepos	-5618
▁padėtų	-5619
▁vaistų	-5620
▁¦2011¦	-5621
leiskite	-5622
negalima	-5623
pernelyg	-5624
suprasti	-5625
universi	-5626
▁didelės	-5627
▁istorin	-5628
▁suteiks	-5629
vartojimo	-5630
▁pritaria	-5631
▁raginama	-5632
▁svarbios	-5633
egzistuoja	-5634
panaikinti	-5635
▁policijos	-5636
pasveikinti	-5637
▁priklausom	-5638
▁visuomenei	-5639
▁darbotvarkę	-5640
▁konvencijos	-5641
▁laikotarpio	-5642
▁reikalaujama	-5643
bi	-5644
pu	-5645
▁ū	-5646
ąst	-5647
įsp	-5648
domi	-5649
leis	-5650
vyks	-5651
▁Kas	-5652
▁ras	-5653
amojo	-5654
galiu	-5655
ignor	-5656
mastu	-5657
nieko	-5658
tikrą	-5659
▁Nauj	-5660
▁apim	-5661
▁char	-5662
▁klas	-5663
▁taup	-5664
▁įved	-5665
intume	-5666
oksido	-5667
pabrėž	-5668
pačios	-5669
uodami	-5670
veiksn	-5671
vykdom	-5672
▁Turiu	-5673
▁bankų	-5674
▁suvok	-5675
airijos	-5676
pasiraš	-5677
registr	-5678
sveikat	-5679
šiaurės	-5680
▁Kinija	-5681
▁Rusija	-5682
▁invest	-5683
▁išrink	-5684
▁pajamų	-5685
▁tikisi	-5686
mygtinai	-5687
priemonė	-5688
▁komunik	-5689
▁palengv	-5690
▁taikant	-5691
akivaizdu	-5692
diskusija	-5693
keliančių	-5694
yriausybę	-5695
▁Direktyv	-5696
▁pabaigos	-5697
▁Valstybės	-5698
▁bendrovės	-5699
▁finansinę	-5700
▁pasiūlyme	-5701
▁politinio	-5702
▁poreikius	-5703
▁sutartimi	-5704
▁pabrėžiama	-5705
▁organizacijų	-5706
ŽŪ	-5707
arm	-5708
ord	-5709
pti	-5710
gaiv	-5711
prar	-5712
yder	-5713
ėtum	-5714
▁199	-5715
▁Pra	-5716
ančiu	-5717
atlan	-5718
nares	-5719
pakei	-5720
tikri	-5721
▁dvej	-5722
▁eurų	-5723
▁kova	-5724
▁sant	-5725
keturi	-5726
pavyks	-5727
tariau	-5728
▁Ispan	-5729
▁Pagal	-5730
▁indėl	-5731
▁neleg	-5732
▁pamat	-5733
▁Žemės	-5734
siekimo	-5735
taikoma	-5736
tekcion	-5737
▁Ponios	-5738
▁baigti	-5739
▁dideli	-5740
▁minėjo	-5741
▁¦2006¦	-5742
▁¦2013¦	-5743
yderland	-5744
▁dalykai	-5745
▁Biudžeto	-5746
▁elektros	-5747
▁keleivių	-5748
▁konkreči	-5749
▁konsulta	-5750
▁nagrinėj	-5751
▁patikrin	-5752
▁transpor	-5753
bendrosios	-5754
labiausiai	-5755
▁Sutarties	-5756
▁pasiūlyti	-5757
▁pradžioje	-5758
reguliavimo	-5759
veiksmingai	-5760
▁ekonominių	-5761
▁gyventojams	-5762
▁paprasčiausiai	-5763
yž	-5764
abi	-5765
gim	-5766
tiz	-5767
ytu	-5768
▁).	-5769
▁¦6	-5770
kito	-5771
tinų	-5772
vizų	-5773
▁Kor	-5774
▁ato	-5775
▁imi	-5776
▁vež	-5777
iamas	-5778
kainų	-5779
liais	-5780
rytoj	-5781
▁gerą	-5782
▁įtik	-5783
deklar	-5784
dienos	-5785
esijos	-5786
grąžin	-5787
kivaiz	-5788
ravimo	-5789
▁aktai	-5790
▁kaden	-5791
kontrol	-5792
moterys	-5793
puikiai	-5794
rinkimų	-5795
usijoje	-5796
vilinės	-5797
▁Būtina	-5798
▁Prival	-5799
▁atliko	-5800
▁gyvūnų	-5801
▁kolegų	-5802
▁naujus	-5803
▁prekių	-5804
▁reikės	-5805
▁smurto	-5806
▁aukštos	-5807
▁pensijų	-5808
▁taikomi	-5809
sąlygomis	-5810
teisingai	-5811
▁Italijos	-5812
▁kovojant	-5813
▁liaudies	-5814
▁medžiagų	-5815
▁turėsime	-5816
▁įstatymų	-5817
teisėkūros	-5818
▁išreikšti	-5819
▁lapkričio	-5820
paprastinti	-5821
▁Teisingumo	-5822
▁alternatyv	-5823
▁atsisakyti	-5824
▁pritariame	-5825
▁reikalauti	-5826
▁straipsnis	-5827
▁susitikimą	-5828
▁susitikimas	-5829
..	-5830
ah	-5831
gip	-5832
gum	-5833
kop	-5834
▁Ch	-5835
dari	-5836
dviš	-5837
erių	-5838
gnal	-5839
iams	-5840
idal	-5841
inov	-5842
intą	-5843
negu	-5844
oral	-5845
uoto	-5846
uždr	-5847
ėmės	-5848
deleg	-5849
tikrų	-5850
ytojų	-5851
šveln	-5852
▁2012	-5853
lankst	-5854
ojimas	-5855
pagarb	-5856
visoms	-5857
▁Tautų	-5858
▁labui	-5859
▁penki	-5860
greitai	-5861
grindži	-5862
kolegos	-5863
▁dienos	-5864
▁komerc	-5865
▁mažumų	-5866
▁naftos	-5867
▁narius	-5868
▁niekas	-5869
▁pageid	-5870
▁paketo	-5871
▁skurdu	-5872
pagaliau	-5873
veiksmus	-5874
▁kartais	-5875
▁lygybės	-5876
▁poreikį	-5877
▁prekybą	-5878
stabilumo	-5879
suinteres	-5880
vengrijos	-5881
▁Negalime	-5882
▁kontrolę	-5883
▁tarnybos	-5884
atsinaujin	-5885
socialinių	-5886
viduržemio	-5887
▁ombudsmen	-5888
▁principas	-5889
▁programas	-5890
reikalavimų	-5891
▁rezultatai	-5892
▁rezoliucija	-5893
organizacijos	-5894
VP	-5895
vį	-5896
gav	-5897
-201	-5898
izra	-5899
loat	-5900
mane	-5901
netu	-5902
rytų	-5903
tema	-5904
▁baz	-5905
▁deg	-5906
lengv	-5907
pašal	-5908
planą	-5909
raged	-5910
tinos	-5911
visai	-5912
škumo	-5913
▁gaun	-5914
▁glob	-5915
▁laiv	-5916
sploat	-5917
▁Lenki	-5918
didelių	-5919
inantis	-5920
procesą	-5921
▁griežt	-5922
▁grupių	-5923
▁panaši	-5924
▁prieig	-5925
▁rimtai	-5926
▁zonoje	-5927
▁šeimos	-5928
antmečio	-5929
▁Slovaki	-5930
▁aspektų	-5931
politinės	-5932
stiprinti	-5933
tvirtinti	-5934
▁didesnio	-5935
▁numatyti	-5936
pripažinti	-5937
▁atsakomyb	-5938
▁pasiūlymu	-5939
▁procedūrų	-5940
automobilių	-5941
investicijų	-5942
▁Parlamentą	-5943
▁iniciatyvą	-5944
▁prezidento	-5945
▁apsvarstyti	-5946
▁infrastruktūros	-5947
art	-5948
arų	-5949
cin	-5950
eka	-5951
iln	-5952
tęs	-5953
▁dy	-5954
cidų	-5955
nuro	-5956
vard	-5957
▁Aus	-5958
▁mėg	-5959
galės	-5960
tautų	-5961
tikiu	-5962
tojas	-5963
tokie	-5964
uždav	-5965
▁Egip	-5966
▁pirk	-5967
▁švie	-5968
▁žaid	-5969
kuriai	-5970
taikos	-5971
trasbū	-5972
vėliau	-5973
▁Kartu	-5974
▁didėj	-5975
▁jokio	-5976
▁ofici	-5977
▁pažad	-5978
▁proga	-5979
ankamas	-5980
ančiame	-5981
tinkama	-5982
▁dalyje	-5983
▁paskol	-5984
▁viduje	-5985
acijomis	-5986
kontroli	-5987
projekto	-5988
projektą	-5989
sektorių	-5990
žvejybos	-5991
▁abipusi	-5992
▁leidžia	-5993
▁nepriim	-5994
▁pažanga	-5995
▁skatina	-5996
▁griežtai	-5997
▁pateikta	-5998
▁ataskaitą	-5999
▁pagrindin	-6000
▁sveikatai	-6001
atsakomybės	-6002
▁finansuoti	-6003
▁pasiūlymai	-6004
▁reglamentą	-6005
▁sustabdyti	-6006
▁darbuotojai	-6007
▁vyriausybių	-6008
zo	-6009
pie	-6010
šil	-6011
▁17	-6012
ašal	-6013
iški	-6014
narė	-6015
ribo	-6016
▁blo	-6017
▁rėm	-6018
entai	-6019
negal	-6020
rengi	-6021
tiesą	-6022
ykime	-6023
čiama	-6024
▁dvid	-6025
▁tenk	-6026
▁žino	-6027
anksto	-6028
skirta	-6029
vienos	-6030
visose	-6031
▁argum	-6032
▁kartų	-6033
▁trump	-6034
▁įvyko	-6035
gyventi	-6036
kalbama	-6037
pasisak	-6038
virtina	-6039
įveikti	-6040
▁mokymo	-6041
▁mėnesį	-6042
▁pavojų	-6043
▁plėtra	-6044
▁skurdo	-6045
▁terori	-6046
▁šaliai	-6047
▁šiuose	-6048
amerikos	-6049
atsakyti	-6050
atvejais	-6051
interesų	-6052
požiūris	-6053
tinystės	-6054
turkijos	-6055
▁palikti	-6056
▁procese	-6057
prisijung	-6058
▁Konstitu	-6059
▁netrukus	-6060
▁priimant	-6061
▁priorite	-6062
▁reformos	-6063
▁skiriama	-6064
pasiūlymus	-6065
▁dokumentų	-6066
▁laikomasi	-6067
▁paklausti	-6068
▁savaranki	-6069
▁socialinį	-6070
▁neturėtume	-6071
▁tarptautiniu	-6072
CO	-6073
CS	-6074
SV	-6075
lė	-6076
sa	-6077
abu	-6078
api	-6079
jer	-6080
ros	-6081
ŽŪP	-6082
acqu	-6083
jaus	-6084
metį	-6085
omės	-6086
tetu	-6087
velg	-6088
▁Ind	-6089
▁Nes	-6090
▁Yra	-6091
eikis	-6092
fondų	-6093
mingų	-6094
sąraš	-6095
tokiu	-6096
uosel	-6097
vieno	-6098
vykst	-6099
▁joje	-6100
▁smul	-6101
aliųjų	-6102
esniam	-6103
indama	-6104
kitais	-6105
pastat	-6106
plėtra	-6107
ymasis	-6108
▁antra	-6109
▁išaug	-6110
▁klaus	-6111
▁paver	-6112
▁pačiu	-6113
▁pridė	-6114
▁sukėl	-6115
Komisij	-6116
dėmesys	-6117
tarimas	-6118
įmanoma	-6119
▁didėja	-6120
▁išlaik	-6121
▁keitim	-6122
▁pateis	-6123
▁pirmin	-6124
▁prasme	-6125
▁privat	-6126
▁skirtą	-6127
išvengti	-6128
kivaizdu	-6129
uotojams	-6130
▁Strasbū	-6131
▁aljanso	-6132
▁diploma	-6133
▁paklaus	-6134
▁pokyčių	-6135
▁registr	-6136
▁spekuli	-6137
jungtinės	-6138
padarinių	-6139
▁Visiškai	-6140
▁aspektas	-6141
▁kryptimi	-6142
▁pastabas	-6143
▁posėdyje	-6144
▁sąjungos	-6145
▁užbaigti	-6146
▁Akivaizdu	-6147
▁Vyriausyb	-6148
▁išsaugoti	-6149
reikalingas	-6150
▁Balsavimas	-6151
▁dabartinės	-6152
▁pranešimui	-6153
▁vienintelis	-6154
rū	-6155
ena	-6156
onų	-6157
tan	-6158
▁40	-6159
▁¦7	-6160
▁¦8	-6161
tali	-6162
ulių	-6163
▁Ash	-6164
▁Tam	-6165
▁išš	-6166
▁¦4¦	-6167
alaus	-6168
amais	-6169
autis	-6170
avimų	-6171
eista	-6172
iškus	-6173
kijai	-6174
mažai	-6175
naujo	-6176
netgi	-6177
onien	-6178
rinka	-6179
sutel	-6180
▁Kiek	-6181
istori	-6182
ketvir	-6183
sakyti	-6184
svarbų	-6185
▁išpuo	-6186
▁vyksi	-6187
imokyti	-6188
pristat	-6189
savaitę	-6190
tikslai	-6191
tinkame	-6192
▁asmens	-6193
▁kaltin	-6194
▁kolega	-6195
▁kritik	-6196
▁laukia	-6197
▁leistų	-6198
▁sėkmės	-6199
▁visais	-6200
galėsime	-6201
pastangų	-6202
▁Turkija	-6203
▁atstovų	-6204
▁prievar	-6205
▁rinkose	-6206
▁svarbos	-6207
interneto	-6208
naudojimą	-6209
ociacijos	-6210
▁Izraelio	-6211
▁Siekiant	-6212
▁derybose	-6213
▁draudimo	-6214
▁pažymėti	-6215
▁pozicija	-6216
▁programų	-6217
▁nutraukti	-6218
▁palyginti	-6219
▁pavyzdžių	-6220
▁principus	-6221
laikotarpiu	-6222
prancūzijos	-6223
▁Parlamentu	-6224
▁pakeitimai	-6225
▁regioninės	-6226
▁institucija	-6227
įsipareigojimų	-6228
bu	-6229
ho	-6230
pų	-6231
▁vė	-6232
atsp	-6233
ekio	-6234
punk	-6235
šved	-6236
▁Pad	-6237
alias	-6238
kalba	-6239
oslav	-6240
sienų	-6241
tingą	-6242
▁Belg	-6243
▁akto	-6244
▁aktu	-6245
▁krov	-6246
▁narė	-6247
▁pask	-6248
istane	-6249
kitose	-6250
naujos	-6251
nuosav	-6252
čiamas	-6253
ėjimai	-6254
▁Afgan	-6255
▁ambic	-6256
▁trijų	-6257
davimas	-6258
solidar	-6259
tikimės	-6260
▁deklar	-6261
▁fondas	-6262
▁nepasi	-6263
▁norėtų	-6264
▁stebės	-6265
▁vaikai	-6266
▁šiomis	-6267
▁žengti	-6268
ateities	-6269
procesas	-6270
programa	-6271
santykių	-6272
taikomos	-6273
▁gaminių	-6274
▁gegužės	-6275
▁geograf	-6276
▁susitar	-6277
apskritai	-6278
susiduria	-6279
▁agentūrų	-6280
▁eksporto	-6281
▁elektrin	-6282
▁kolegoms	-6283
▁nuostatų	-6284
▁pamiršti	-6285
reikalinga	-6286
socialistų	-6287
▁mokslinius	-6288
▁patvirtino	-6289
▁piktnaudži	-6290
▁procedūras	-6291
▁socialistų	-6292
▁valstybėje	-6293
neabejotinai	-6294
aukščiausiojo	-6295
▁atsižvelgiama	-6296
AT	-6297
aj	-6298
lų	-6299
byl	-6300
etų	-6301
kak	-6302
mei	-6303
mvį	-6304
stį	-6305
žud	-6306
▁Si	-6307
kolo	-6308
siai	-6309
tenk	-6310
tris	-6311
vili	-6312
▁Raš	-6313
▁ide	-6314
dieną	-6315
esmin	-6316
iskal	-6317
osist	-6318
▁knyg	-6319
aliavų	-6320
atvejų	-6321
auliui	-6322
entais	-6323
ilijar	-6324
išsami	-6325
mokykl	-6326
pręsta	-6327
reiški	-6328
tokolo	-6329
tosios	-6330
▁Viena	-6331
▁nelyg	-6332
▁rūpes	-6333
▁skyri	-6334
▁tikiu	-6335
bendras	-6336
kurioms	-6337
mingiau	-6338
▁Ashton	-6339
▁Trečia	-6340
▁ekspor	-6341
▁išsaug	-6342
▁kainos	-6343
▁padeda	-6344
▁papild	-6345
▁paskir	-6346
▁pranaš	-6347
aujančių	-6348
geležink	-6349
naudinga	-6350
partinti	-6351
veiksmai	-6352
švietimo	-6353
▁gerovės	-6354
▁pradžių	-6355
▁rugsėjo	-6356
▁skirtos	-6357
▁teršalų	-6358
▁žingsnį	-6359
kalbėtoją	-6360
panaudoti	-6361
persvarst	-6362
▁pareikal	-6363
▁priemonę	-6364
▁rinkimus	-6365
▁Švedijos	-6366
▁Ispanijos	-6367
▁naudojant	-6368
▁pabėgėlių	-6369
▁priežiūrą	-6370
▁valstybei	-6371
▁įsigalioj	-6372
sprendžiant	-6373
supaprastin	-6374
▁vartotojai	-6375
▁demokratiją	-6376
▁nepaprastai	-6377
▁nuoširdžiai	-6378
▁pusiausvyrą	-6379
▁susitarimai	-6380
▁žiniasklaidos	-6381
▁ja	-6382
asar	-6383
kaln	-6384
kiui	-6385
roji	-6386
teig	-6387
terš	-6388
tųjų	-6389
žais	-6390
▁Nor	-6391
▁kiš	-6392
▁log	-6393
▁tun	-6394
lyčių	-6395
šiose	-6396
▁dieg	-6397
▁kain	-6398
▁įman	-6399
ančiam	-6400
baltar	-6401
galios	-6402
inčios	-6403
leistų	-6404
pateis	-6405
pranta	-6406
rangos	-6407
skirst	-6408
stipri	-6409
sąlygų	-6410
ėjimui	-6411
▁Minis	-6412
▁Noriu	-6413
▁iškel	-6414
▁kiekį	-6415
▁rodik	-6416
▁Šioje	-6417
gerinti	-6418
kuriant	-6419
plėtoti	-6420
tadienį	-6421
▁Svarbu	-6422
▁daugyb	-6423
▁kitoms	-6424
▁matome	-6425
▁sąnaud	-6426
▁tokias	-6427
▁įgalio	-6428
esticidų	-6429
referend	-6430
siekdama	-6431
▁apmokes	-6432
▁laisvai	-6433
▁perseki	-6434
▁priimta	-6435
▁Žmogaus	-6436
▁pirmasis	-6437
▁šaltinių	-6438
standartus	-6439
▁akivaizdu	-6440
▁sutartyje	-6441
▁terorizmu	-6442
▁balsavimas	-6443
▁nuosavybės	-6444
▁Respublikos	-6445
▁pagrindiniai	-6446
▁įgyvendinimą	-6447
▁įsipareigojimą	-6448
mb	-6449
gia	-6450
kli	-6451
lib	-6452
aust	-6453
dažn	-6454
doro	-6455
izmo	-6456
onas	-6457
pirk	-6458
tims	-6459
varž	-6460
▁Gaz	-6461
▁kyl	-6462
▁skl	-6463
atsid	-6464
kokių	-6465
parag	-6466
unika	-6467
▁teks	-6468
▁vair	-6469
grupės	-6470
kaltin	-6471
kuriam	-6472
nerimą	-6473
sakant	-6474
▁dienų	-6475
▁pirmą	-6476
tariama	-6477
vaidmuo	-6478
vandens	-6479
▁Social	-6480
▁gyvena	-6481
▁nepais	-6482
▁paketą	-6483
▁pasmer	-6484
▁tenden	-6485
gyvenimą	-6486
požiūrio	-6487
▁didelio	-6488
▁minėjau	-6489
▁pareiga	-6490
▁tvirtin	-6491
interesus	-6492
skaidrumo	-6493
▁leiskite	-6494
▁politinį	-6495
▁stengtis	-6496
▁užduotis	-6497
▁vertinti	-6498
susijusios	-6499
▁Privalome	-6500
▁aviacijos	-6501
▁santykiai	-6502
▁svarstyti	-6503
▁įtrauktas	-6504
▁Bulgarijos	-6505
▁duomenimis	-6506
▁investuoti	-6507
▁migracijos	-6508
▁parlamento	-6509
▁pasiūlymui	-6510
institucijoms	-6511
▁prisitaikymo	-6512
SE	-6513
▁0	-6514
eną	-6515
neb	-6516
paš	-6517
utę	-6518
fesi	-6519
iesi	-6520
karo	-6521
peri	-6522
įrod	-6523
ofici	-6524
pačių	-6525
pieno	-6526
resia	-6527
tiška	-6528
toler	-6529
viską	-6530
▁jung	-6531
avimai	-6532
diegti	-6533
fesion	-6534
inicij	-6535
kilmės	-6536
sričių	-6537
tarime	-6538
turint	-6539
vanden	-6540
visoje	-6541
žinote	-6542
▁dalių	-6543
▁parem	-6544
▁patyr	-6545
▁ponia	-6546
▁remia	-6547
▁vidur	-6548
▁vienu	-6549
▁įtaką	-6550
apriboj	-6551
emonstr	-6552
osistem	-6553
taisyti	-6554
valifik	-6555
▁Galbūt	-6556
▁Kitaip	-6557
▁elemen	-6558
▁grąžin	-6559
▁išskir	-6560
▁lyderi	-6561
▁surink	-6562
▁tikrov	-6563
birželio	-6564
pobūdžio	-6565
▁atsitik	-6566
▁tarybos	-6567
▁tinkama	-6568
išlaikyti	-6569
liberaliz	-6570
pareigojo	-6571
▁Lenkijos	-6572
▁biurokra	-6573
▁intensyv	-6574
▁sparčiai	-6575
▁svarbius	-6576
▁vaidmens	-6577
kriterijus	-6578
pritariame	-6579
▁Rumunijos	-6580
▁kiekvieną	-6581
▁pasirengę	-6582
▁patirties	-6583
▁patirtimi	-6584
▁Pirmininkas	-6585
▁iniciatyvas	-6586
▁prieštarauja	-6587
▁struktūrinių	-6588
ke	-6589
nr	-6590
ynų	-6591
▁Kl	-6592
etai	-6593
kovo	-6594
liav	-6595
olio	-6596
rank	-6597
tąją	-6598
čeki	-6599
ėktu	-6600
▁ruo	-6601
geras	-6602
ykite	-6603
▁galv	-6604
▁kari	-6605
▁lauk	-6606
jektyv	-6607
kandid	-6608
sausio	-6609
stilės	-6610
svarbą	-6611
tikslo	-6612
ydamos	-6613
▁antai	-6614
▁geros	-6615
▁ginti	-6616
▁palik	-6617
▁ryšių	-6618
▁vieta	-6619
damiesi	-6620
didelės	-6621
ininkus	-6622
moteris	-6623
niekada	-6624
pavojus	-6625
▁Tarybą	-6626
▁kūrimo	-6627
▁laikin	-6628
▁laipsn	-6629
▁maistu	-6630
▁propag	-6631
▁sakyti	-6632
▁tyrimą	-6633
▁vaikus	-6634
biudžetą	-6635
pagrindą	-6636
paminėti	-6637
parodyti	-6638
tarpusav	-6639
▁atlieka	-6640
▁balsuos	-6641
▁gynybos	-6642
▁mėnesių	-6643
▁nuosekl	-6644
▁patiria	-6645
▁turizmo	-6646
▁visomis	-6647
▁įvykiai	-6648
pagrindas	-6649
sėkmingai	-6650
▁Valstijų	-6651
▁būtinybę	-6652
▁naujovių	-6653
▁nurodyta	-6654
▁pacientų	-6655
▁pokyčius	-6656
▁sutelkti	-6657
įsitikinęs	-6658
▁inovacijų	-6659
▁paraginti	-6660
▁pripažįst	-6661
▁vienintel	-6662
vartotojams	-6663
▁artimiausi	-6664
▁gamintojams	-6665
▁nepriimtina	-6666
▁tikriausiai	-6667
atsižvelgiama	-6668
▁pagrindinius	-6669
globalizacijos	-6670
▁įgyvendinimas	-6671
th	-6672
įs	-6673
▁'	-6674
dri	-6675
utr	-6676
▁16	-6677
▁Mo	-6678
▁Re	-6679
ginč	-6680
ikro	-6681
joti	-6682
mąst	-6683
peln	-6684
romų	-6685
sank	-6686
▁Iki	-6687
▁¦6¦	-6688
▁įgū	-6689
būdas	-6690
elaid	-6691
entar	-6692
inasi	-6693
lauki	-6694
lėšos	-6695
priva	-6696
tęsti	-6697
ėjusį	-6698
▁išsk	-6699
▁naik	-6700
▁tęsi	-6701
▁¦27¦	-6702
keitim	-6703
termin	-6704
šiomis	-6705
▁Rūmai	-6706
▁banko	-6707
▁dviem	-6708
▁pavel	-6709
▁rūšių	-6710
▁sąvok	-6711
barroso	-6712
daugelį	-6713
garanti	-6714
nukreip	-6715
saugumą	-6716
ugoslav	-6717
ėtumėte	-6718
šengeno	-6719
▁daroma	-6720
▁galite	-6721
▁grėsmę	-6722
▁parodė	-6723
▁specif	-6724
▁sulauk	-6725
▁tinklo	-6726
atidėlio	-6727
kopenhag	-6728
principų	-6729
savanori	-6730
▁kliūčių	-6731
daugelyje	-6732
pakeitimą	-6733
pasiektas	-6734
prisidėti	-6735
▁ministrų	-6736
▁moterims	-6737
▁padėtyje	-6738
▁sistemas	-6739
pavaduotoj	-6740
sprendimai	-6741
▁glaudžiai	-6742
▁neįmanoma	-6743
▁nustatant	-6744
▁vertinimą	-6745
sustiprinti	-6746
tarpvalstyb	-6747
▁Kopenhagos	-6748
▁didžiausia	-6749
▁nustatytas	-6750
▁prioritetų	-6751
▁programoje	-6752
▁standartai	-6753
įgyvendinant	-6754
▁pagrindines	-6755
konkurencijos	-6756
▁geležinkelių	-6757
▁pasitikėjimą	-6758
▁visapusiškai	-6759
all	-6760
anų	-6761
▁..	-6762
deks	-6763
eksi	-6764
naik	-6765
surd	-6766
telk	-6767
ėjęs	-6768
▁Pat	-6769
▁Pav	-6770
▁sau	-6771
▁šim	-6772
grant	-6773
istai	-6774
ronte	-6775
sunku	-6776
tobul	-6777
uojau	-6778
▁išor	-6779
energe	-6780
entams	-6781
manymu	-6782
teismo	-6783
uotųjų	-6784
vakarų	-6785
▁jėgos	-6786
▁puikų	-6787
▁pusės	-6788
▁siūlo	-6789
▁vieno	-6790
▁žalos	-6791
dialogą	-6792
laikymo	-6793
pažanga	-6794
skaičių	-6795
tiekimo	-6796
tyrimus	-6797
▁išanks	-6798
▁sąlyga	-6799
▁teikia	-6800
▁viskas	-6801
išlaidas	-6802
numatyta	-6803
trečiųjų	-6804
▁balsavo	-6805
▁gyventi	-6806
▁jaunimo	-6807
▁nesugeb	-6808
▁plėtrai	-6809
▁prašymą	-6810
išteklius	-6811
pakeitimų	-6812
▁Reglamen	-6813
▁aktyviai	-6814
▁dešimtme	-6815
▁iššūkius	-6816
▁pasinaud	-6817
▁pramonei	-6818
▁principą	-6819
▁siekiame	-6820
▁tikslams	-6821
▁valiutos	-6822
▁atstovauj	-6823
▁garantijų	-6824
▁pakeitimo	-6825
▁partnerių	-6826
▁prisiimti	-6827
▁susitarti	-6828
▁kiekvienas	-6829
▁pranešėjai	-6830
▁Portugalijos	-6831
▁Tarptautinės	-6832
ru	-6833
ika	-6834
jun	-6835
lau	-6836
reb	-6837
amam	-6838
domu	-6839
eder	-6840
gais	-6841
gelb	-6842
maži	-6843
raus	-6844
ryšk	-6845
sudė	-6846
tumo	-6847
žmog	-6848
▁Mok	-6849
▁fiz	-6850
▁gri	-6851
▁žym	-6852
atlyg	-6853
esant	-6854
ilumą	-6855
nario	-6856
onija	-6857
pakar	-6858
patys	-6859
tauti	-6860
uotus	-6861
valiu	-6862
škoti	-6863
▁jais	-6864
▁sako	-6865
▁trys	-6866
amuose	-6867
laisvę	-6868
tojais	-6869
trečia	-6870
visame	-6871
įstaig	-6872
▁Tokia	-6873
▁atskl	-6874
▁ilgai	-6875
▁kovai	-6876
▁silpn	-6877
komisar	-6878
patobul	-6879
prekyba	-6880
siūloma	-6881
tuojama	-6882
▁atosto	-6883
▁elgtis	-6884
gruodžio	-6885
padaryta	-6886
paskatin	-6887
plojimai	-6888
pozicija	-6889
pritaria	-6890
▁Balkanų	-6891
▁asmenys	-6892
▁baigtos	-6893
▁savaime	-6894
▁teikimo	-6895
▁teisinę	-6896
ekonomika	-6897
graikijos	-6898
▁atskirai	-6899
▁lengviau	-6900
▁preceden	-6901
▁apibrėžti	-6902
▁pranešimų	-6903
▁pranešėjo	-6904
▁principai	-6905
▁procedūra	-6906
▁sudėtinga	-6907
▁teritorin	-6908
▁vertinimo	-6909
usiausvyros	-6910
užtikrinant	-6911
▁asmeniškai	-6912
▁valstybėmis	-6913
bendradarbiauti	-6914
pt	-6915
ach	-6916
eso	-6917
ign	-6918
tak	-6919
▁ra	-6920
▁Šį	-6921
gaun	-6922
kada	-6923
koks	-6924
laiv	-6925
penk	-6926
sant	-6927
žval	-6928
▁Sud	-6929
▁etn	-6930
esnei	-6931
galvo	-6932
išmok	-6933
omojo	-6934
osovo	-6935
panaš	-6936
tikra	-6937
tirti	-6938
tokią	-6939
veiks	-6940
įpras	-6941
▁2005	-6942
▁Euro	-6943
▁Praš	-6944
▁namų	-6945
▁peln	-6946
acquis	-6947
iškumo	-6948
kelias	-6949
ketina	-6950
patais	-6951
retori	-6952
valdži	-6953
▁eismo	-6954
ingumui	-6955
kartais	-6956
prievar	-6957
trumpai	-6958
▁erdvės	-6959
▁planas	-6960
▁plėtoj	-6961
▁prašau	-6962
▁tebėra	-6963
pavyzdys	-6964
priminti	-6965
reaguoti	-6966
▁ankstyv	-6967
▁atkurti	-6968
▁atvejus	-6969
▁centrin	-6970
▁daugybę	-6971
▁pavyzdį	-6972
▁pinigus	-6973
▁priimtų	-6974
▁svarbių	-6975
▁tikėtis	-6976
▁įtrauki	-6977
ančiosios	-6978
ekonominę	-6979
projektas	-6980
standartų	-6981
įvertinti	-6982
▁Airijoje	-6983
▁Baltijos	-6984
▁Leiskite	-6985
▁bendrąją	-6986
▁didesnis	-6987
▁kreiptis	-6988
▁narkotik	-6989
▁neturime	-6990
▁pagarbos	-6991
▁pagrįsta	-6992
▁teigiamą	-6993
▁teisėmis	-6994
▁vadovauj	-6995
▁ypatingą	-6996
didžiausią	-6997
▁pašalinti	-6998
▁skirtumus	-6999
▁įpareigoj	-7000
imigracijos	-7001
▁laikotarpį	-7002
▁tarpusavio	-7003
▁užmokesčio	-7004
darbuotojams	-7005
svarbiausias	-7006
technologijų	-7007
▁kompromisas	-7008
▁patvirtinta	-7009
▁problemomis	-7010
▁nacionaliniu	-7011
pirmininkaujanti	-7012
hu	-7013
mod	-7014
sch	-7015
aben	-7016
ačiū	-7017
dvej	-7018
emia	-7019
gruz	-7020
krov	-7021
liks	-7022
lygi	-7023
stud	-7024
tuon	-7025
ybių	-7026
švie	-7027
▁100	-7028
▁Kol	-7029
▁Mol	-7030
▁bar	-7031
▁gau	-7032
▁Šių	-7033
avusi	-7034
cinio	-7035
laivų	-7036
rinkų	-7037
▁Susi	-7038
▁gerų	-7039
▁kovą	-7040
▁patį	-7041
insime	-7042
jungti	-7043
kiomis	-7044
rontex	-7045
skirtų	-7046
tuomet	-7047
▁Maked	-7048
▁išsak	-7049
▁korup	-7050
▁lūkes	-7051
▁misij	-7052
balsuos	-7053
didinti	-7054
leidžia	-7055
pektais	-7056
sistemų	-7057
special	-7058
taikant	-7059
▁Pastar	-7060
▁atsarg	-7061
▁eksper	-7062
▁keisti	-7063
▁nariui	-7064
▁parduo	-7065
▁rinkas	-7066
▁tikslu	-7067
▁tokius	-7068
priimtas	-7069
teisinga	-7070
užduotis	-7071
užkirsti	-7072
įtvirtin	-7073
▁Sutinku	-7074
▁palaiko	-7075
▁pažangi	-7076
▁pinigai	-7077
▁suveren	-7078
dalyvauja	-7079
konkrečių	-7080
suderinti	-7081
▁daugeliu	-7082
▁frakcijų	-7083
▁kandidat	-7084
▁kolektyv	-7085
▁nelaimių	-7086
▁posėdžio	-7087
▁projektų	-7088
▁saugumui	-7089
▁susirink	-7090
straipsnio	-7091
▁Baigdamas	-7092
▁Juodosios	-7093
▁katastrof	-7094
▁produktus	-7095
▁skaičiaus	-7096
▁visuomenę	-7097
▁kompromisą	-7098
▁nustatytos	-7099
▁principais	-7100
▁darbuotojus	-7101
▁demokratija	-7102
▁kaimynystės	-7103
▁prevencijos	-7104
▁užtikrintas	-7105
šą	-7106
...	-7107
ane	-7108
eta	-7109
irb	-7110
pol	-7111
ugn	-7112
▁21	-7113
▁Mi	-7114
auka	-7115
etui	-7116
kilo	-7117
norm	-7118
piet	-7119
ribų	-7120
tino	-7121
tynų	-7122
tųsi	-7123
uopi	-7124
entas	-7125
eptin	-7126
iamet	-7127
impor	-7128
laiku	-7129
lygiu	-7130
sritį	-7131
įvykd	-7132
▁jaus	-7133
▁neap	-7134
▁pama	-7135
▁pobū	-7136
▁siun	-7137
▁smer	-7138
▁¦25¦	-7139
▁žuvų	-7140
albant	-7141
atitik	-7142
emijos	-7143
inanti	-7144
ingais	-7145
laikin	-7146
čiuopi	-7147
žodžio	-7148
▁keliu	-7149
▁vykti	-7150
▁šiems	-7151
alystės	-7152
didesnį	-7153
oficial	-7154
skubiai	-7155
susirūp	-7156
taupyti	-7157
▁Finans	-7158
▁Kosovo	-7159
▁pasakė	-7160
▁spalio	-7161
▁stengi	-7162
▁subsid	-7163
▁sąrašą	-7164
▁užmojo	-7165
pagrindu	-7166
suteikia	-7167
▁bausmės	-7168
▁kliūtis	-7169
▁negaliu	-7170
▁pagarba	-7171
▁partija	-7172
atsakomyb	-7173
pareikšti	-7174
pateiktas	-7175
▁nurodyti	-7176
▁nuveikti	-7177
▁palaikau	-7178
▁principu	-7179
▁sandorių	-7180
▁sutarčių	-7181
▁sužinoti	-7182
▁valstybę	-7183
▁vertybes	-7184
▁vienodai	-7185
nepriklaus	-7186
pakeitimus	-7187
regionuose	-7188
susitarimų	-7189
▁diskusiją	-7190
▁lankstumo	-7191
▁leidžiama	-7192
▁pagrįstas	-7193
▁priversti	-7194
▁teigiamai	-7195
▁diskutuoti	-7196
▁efektyvumą	-7197
▁pasaulinės	-7198
▁paskatinti	-7199
▁priemonėms	-7200
▁užtikrinta	-7201
▁šiandienos	-7202
▁ūkininkams	-7203
▁ataskaitoje	-7204
▁Baltarusijos	-7205
▁koordinavimo	-7206
▁humanitarinės	-7207
įsipareigojimus	-7208
-0	-7209
sv	-7210
ATO	-7211
ken	-7212
koh	-7213
tor	-7214
▁an	-7215
▁šv	-7216
gana	-7217
nete	-7218
smul	-7219
tęsi	-7220
učių	-7221
vykl	-7222
ženg	-7223
▁Apl	-7224
▁Rag	-7225
▁cen	-7226
▁ilg	-7227
▁res	-7228
dokum	-7229
entui	-7230
ienos	-7231
iečių	-7232
inkos	-7233
kitus	-7234
ojame	-7235
rijai	-7236
tvari	-7237
žinių	-7238
▁Ačiū	-7239
▁BŽŪP	-7240
▁išei	-7241
▁norė	-7242
▁srau	-7243
▁vert	-7244
albėti	-7245
aminti	-7246
ūrimui	-7247
▁aprūp	-7248
▁kalbu	-7249
▁plano	-7250
▁puiki	-7251
▁supra	-7252
esniais	-7253
proceso	-7254
rizikos	-7255
vadinam	-7256
▁Slovėn	-7257
▁aiškus	-7258
▁imtasi	-7259
▁modern	-7260
▁sureng	-7261
▁įsteig	-7262
alystėje	-7263
augiamės	-7264
elektron	-7265
evizijos	-7266
grąžinti	-7267
pirmasis	-7268
priėmimo	-7269
teikiama	-7270
▁Vidurio	-7271
▁didesnę	-7272
▁reformų	-7273
▁teisinį	-7274
▁trūksta	-7275
▁vaikams	-7276
▁vykdymo	-7277
balsavimą	-7278
paslaugas	-7279
pranešėja	-7280
▁išlaidos	-7281
▁reitingų	-7282
▁skaitmen	-7283
▁spaudimą	-7284
atsakomybę	-7285
paaiškinti	-7286
susitikime	-7287
▁ataskaita	-7288
▁dokumentą	-7289
▁išsivysči	-7290
▁nustatytų	-7291
▁pabaigoje	-7292
▁parengtas	-7293
▁pažeidimų	-7294
▁pradedant	-7295
▁šiltnamio	-7296
priežasties	-7297
▁ekonominio	-7298
▁gyvybiškai	-7299
nacionalinės	-7300
▁įgaliojimus	-7301
▁finansavimas	-7302
▁konkurenciją	-7303
▁patvirtinimo	-7304
▁rezoliucijoje	-7305
AL	-7306
ou	-7307
kvo	-7308
mob	-7309
sel	-7310
▁II	-7311
▁Ką	-7312
atui	-7313
funk	-7314
iant	-7315
kova	-7316
reak	-7317
toji	-7318
užud	-7319
šius	-7320
▁500	-7321
▁Mad	-7322
ameri	-7323
domas	-7324
jektų	-7325
trump	-7326
verti	-7327
yties	-7328
▁irgi	-7329
▁kokį	-7330
▁lemi	-7331
▁¦30¦	-7332
▁žais	-7333
amasis	-7334
antras	-7335
dalimi	-7336
gailes	-7337
jokios	-7338
kokios	-7339
perkėl	-7340
plėtrą	-7341
sąskai	-7342
ėjusių	-7343
▁asign	-7344
▁kelis	-7345
▁kokiu	-7346
bendrin	-7347
būtinas	-7348
imensij	-7349
ininkas	-7350
tinkamą	-7351
vykdant	-7352
▁Teismo	-7353
▁pirmyn	-7354
▁režimo	-7355
ausiomis	-7356
suteikta	-7357
tabilumo	-7358
teisinės	-7359
▁norėjau	-7360
▁politin	-7361
pagrįstas	-7362
pasiūlyme	-7363
pripažįst	-7364
santykius	-7365
▁Serbijos	-7366
▁pagrindų	-7367
▁pateiktą	-7368
▁smarkiai	-7369
▁surengti	-7370
▁įtraukta	-7371
alternatyv	-7372
vokietijos	-7373
▁kiekviena	-7374
▁kriterijų	-7375
▁skaidrumą	-7376
▁susijusią	-7377
finansavimą	-7378
▁konkrečiai	-7379
▁naudojamos	-7380
▁padarinius	-7381
▁tūkstančių	-7382
▁vystymuisi	-7383
integracijos	-7384
▁visuomenėje	-7385
▁branduolinės	-7386
▁kompetencijos	-7387
▁rekomendacijas	-7388
KR	-7389
žū	-7390
ata	-7391
eic	-7392
ell	-7393
imb	-7394
rik	-7395
vyl	-7396
▁ad	-7397
▁¦0	-7398
▁¦9	-7399
egov	-7400
eina	-7401
išim	-7402
kain	-7403
taps	-7404
ėlyn	-7405
žlug	-7406
▁Kan	-7407
▁Sar	-7408
▁bio	-7409
amąją	-7410
cines	-7411
daugi	-7412
esnir	-7413
rizik	-7414
uotės	-7415
ėjant	-7416
▁2000	-7417
▁NATO	-7418
▁eiti	-7419
▁siej	-7420
▁vaiz	-7421
▁¦50¦	-7422
arijos	-7423
dideli	-7424
keisti	-7425
kroati	-7426
nukent	-7427
padeda	-7428
plenar	-7429
terori	-7430
▁Pavyz	-7431
▁Tunis	-7432
▁esate	-7433
▁kalbą	-7434
▁kalbų	-7435
▁kokie	-7436
▁kokią	-7437
ercegov	-7438
estinos	-7439
istorin	-7440
kompens	-7441
srities	-7442
teisėms	-7443
▁Vidaus	-7444
▁gamyba	-7445
▁komand	-7446
▁konkur	-7447
▁kortel	-7448
▁milžin	-7449
▁tikros	-7450
▁tradic	-7451
▁užbaig	-7452
▁valand	-7453
aspektus	-7454
atidžiai	-7455
elektros	-7456
pasiekta	-7457
paskirst	-7458
preceden	-7459
rengiant	-7460
taikomas	-7461
įstatymų	-7462
žmonėmis	-7463
▁laikyti	-7464
▁maždaug	-7465
▁produkt	-7466
▁sveikin	-7467
▁užimtum	-7468
finansinę	-7469
kvalifika	-7470
▁Aplinkos	-7471
▁suprantu	-7472
regioninės	-7473
susitikimo	-7474
▁Italijoje	-7475
▁dabartinę	-7476
▁nepalanki	-7477
▁politinis	-7478
▁produktai	-7479
▁ryžtingai	-7480
▁įvairovės	-7481
gailestauti	-7482
konvencijos	-7483
▁pasirinkti	-7484
▁skaidrumas	-7485
▁struktūros	-7486
aplinkybėmis	-7487
pastaruosius	-7488
▁aukščiausio	-7489
▁panaikinimo	-7490
▁institucijas	-7491
▁nusikaltimus	-7492
▁perspektyvos	-7493
ER	-7494
IS	-7495
PS	-7496
bio	-7497
dėk	-7498
ene	-7499
gau	-7500
ppe	-7501
tad	-7502
umb	-7503
yži	-7504
▁EB	-7505
▁Ry	-7506
alūs	-7507
apit	-7508
dels	-7509
enta	-7510
gerą	-7511
riją	-7512
sias	-7513
stos	-7514
totų	-7515
vert	-7516
čiui	-7517
▁...	-7518
▁Nem	-7519
▁šak	-7520
draug	-7521
gyvyb	-7522
lėšas	-7523
minim	-7524
rimis	-7525
▁Cent	-7526
▁Laik	-7527
▁būsi	-7528
▁ding	-7529
▁efek	-7530
▁patr	-7531
▁simb	-7532
▁¦12¦	-7533
▁žurn	-7534
išdėst	-7535
kokybę	-7536
statis	-7537
sąlyga	-7538
tikisi	-7539
uosime	-7540
▁abiem	-7541
▁buvau	-7542
▁dirbo	-7543
▁jumis	-7544
▁užuot	-7545
▁šešėl	-7546
antriai	-7547
damasis	-7548
eklamos	-7549
kasdien	-7550
mažinti	-7551
sunkumų	-7552
tinkamo	-7553
▁aukšto	-7554
▁defici	-7555
▁nuorod	-7556
▁teismo	-7557
▁vadovų	-7558
▁įvesti	-7559
duomenys	-7560
išnagrin	-7561
kategori	-7562
kuriuose	-7563
principo	-7564
▁atliktą	-7565
▁atskirų	-7566
▁pereiti	-7567
▁pirmąjį	-7568
▁sustabd	-7569
▁viešojo	-7570
▁vykdoma	-7571
elektinės	-7572
pranešimu	-7573
▁Ukrainos	-7574
▁pradžios	-7575
▁sesijoje	-7576
▁subalans	-7577
▁tiksliai	-7578
▁vertybių	-7579
▁visuomet	-7580
informuoti	-7581
reglamentą	-7582
reikalauja	-7583
▁operatori	-7584
▁paprastai	-7585
▁piliečius	-7586
▁skiriamas	-7587
▁uždrausti	-7588
pagrindinės	-7589
pareiškimai	-7590
rezoliucija	-7591
susitarimus	-7592
▁atitinkamų	-7593
▁finansinio	-7594
tarptautinių	-7595
▁pranešėjams	-7596
▁konkurencija	-7597
▁tarptautinio	-7598
▁nacionalinius	-7599
50	-7600
IB	-7601
cs	-7602
alu	-7603
baz	-7604
ero	-7605
for	-7606
žov	-7607
▁0,	-7608
ešto	-7609
glob	-7610
iųjų	-7611
kart	-7612
pret	-7613
strö	-7614
toju	-7615
šalį	-7616
▁Kos	-7617
▁aud	-7618
▁pel	-7619
▁¦14	-7620
Darbo	-7621
esama	-7622
imbab	-7623
kiams	-7624
miškų	-7625
pirmą	-7626
uždar	-7627
įvyko	-7628
▁2004	-7629
▁Antr	-7630
▁išpl	-7631
▁žalą	-7632
acinės	-7633
biolog	-7634
emonst	-7635
ijomis	-7636
kalbos	-7637
naujus	-7638
niekas	-7639
orizon	-7640
parodė	-7641
tingus	-7642
tokhol	-7643
tvynių	-7644
vengta	-7645
▁Pilie	-7646
▁ryšio	-7647
▁žinia	-7648
aplinką	-7649
kinijos	-7650
laisvių	-7651
palengv	-7652
sukurta	-7653
suteiki	-7654
uodamas	-7655
viešųjų	-7656
▁atskai	-7657
▁faktas	-7658
▁galėjo	-7659
▁lengva	-7660
▁rinkai	-7661
▁tekstą	-7662
▁valdys	-7663
norėtume	-7664
posėdžio	-7665
turėsime	-7666
▁išvadas	-7667
▁kredito	-7668
▁nemažai	-7669
▁patenka	-7670
▁seksual	-7671
▁tikslui	-7672
▁Čekijos	-7673
▁įvykius	-7674
agentūros	-7675
sektorius	-7676
socialinę	-7677
▁atitiktų	-7678
▁išgirsti	-7679
▁pagrįsti	-7680
▁poveikis	-7681
▁socialin	-7682
▁ūkininkų	-7683
▁žodžiais	-7684
ekonomikai	-7685
ekonominio	-7686
neturėtume	-7687
rezultatus	-7688
▁geriausia	-7689
▁papildomą	-7690
▁paskelbti	-7691
▁pastangos	-7692
▁skirtingų	-7693
▁vystymąsi	-7694
konstruktyv	-7695
ugoslavijos	-7696
▁Britanijos	-7697
▁Briuselyje	-7698
▁pilietinės	-7699
▁praktiškai	-7700
▁pritaikyti	-7701
▁suteikiama	-7702
▁pažeidžiami	-7703
▁tarptautinę	-7704
▁užtikrinimo	-7705
technologijas	-7706
▁persvarstyti	-7707
▁reikalavimas	-7708
▁subsidiarumo	-7709
bž	-7710
ck	-7711
jū	-7712
ALE	-7713
esą	-7714
orų	-7715
vak	-7716
▁įž	-7717
anas	-7718
apim	-7719
cinę	-7720
etos	-7721
gera	-7722
kari	-7723
lygį	-7724
test	-7725
▁dom	-7726
▁vir	-7727
-2013	-7728
amumu	-7729
atein	-7730
darbu	-7731
egali	-7732
kaltė	-7733
masto	-7734
parti	-7735
reiki	-7736
sesij	-7737
viliz	-7738
▁Jame	-7739
▁ačiū	-7740
▁chem	-7741
▁nebe	-7742
▁prat	-7743
▁rams	-7744
▁skun	-7745
▁vari	-7746
▁¦199	-7747
▁ūkis	-7748
atliko	-7749
audami	-7750
augimą	-7751
istams	-7752
išrink	-7753
klausi	-7754
malonu	-7755
padėtų	-7756
publik	-7757
status	-7758
tikslą	-7759
vaistų	-7760
vietas	-7761
viskas	-7762
ėjimus	-7763
▁grand	-7764
▁tautų	-7765
didelio	-7766
galvoti	-7767
kalbėjo	-7768
komunik	-7769
konsult	-7770
patikim	-7771
▁džiaug	-7772
▁efektą	-7773
▁judėti	-7774
▁kiekio	-7775
▁manyti	-7776
▁mokslo	-7777
▁netaik	-7778
▁palank	-7779
▁septyn	-7780
▁tvirtą	-7781
integruo	-7782
▁aspektą	-7783
▁galioja	-7784
▁keletas	-7785
▁nesąžin	-7786
▁pasirod	-7787
▁saugoti	-7788
▁sutinka	-7789
▁vasario	-7790
▁ženklas	-7791
abejotina	-7792
biudžetas	-7793
nusikalst	-7794
pagrindin	-7795
palaikyti	-7796
politikai	-7797
sektoriui	-7798
sutartyje	-7799
▁Komisare	-7800
▁Pagaliau	-7801
▁Pasaulio	-7802
▁atkūrimo	-7803
▁nereikia	-7804
▁protokol	-7805
▁statybos	-7806
▁universi	-7807
▁įstatymo	-7808
nedelsiant	-7809
patenkinti	-7810
rezultatas	-7811
socialinio	-7812
▁balandžio	-7813
▁neišvengi	-7814
▁prisidėjo	-7815
▁įtrauktos	-7816
diskusijose	-7817
iniciatyvos	-7818
institucija	-7819
▁Prancūzija	-7820
▁dokumentas	-7821
▁efektyvumo	-7822
▁išmetamųjų	-7823
▁opozicijos	-7824
▁pasinaudoj	-7825
▁veiksminga	-7826
▁susiduriame	-7827
aplinkosaugos	-7828
▁pastaraisiais	-7829
pš	-7830
kaž	-7831
nyk	-7832
pai	-7833
vel	-7834
šim	-7835
▁24	-7836
ding	-7837
erio	-7838
ijau	-7839
inėj	-7840
kons	-7841
rant	-7842
tant	-7843
uris	-7844
vati	-7845
čias	-7846
▁	-7847
i	-7848
¦	-7849
a	-7850
s	-7851
t	-7852
r	-7853
o	-7854
e	-7855
n	-7856
u	-7857
k	-7858
m	-7859
p	-7860
l	-7861
d	-7862
j	-7863
v	-7864
g	-7865
,	-7866
b	-7867
ų	-7868
y	-7869
ė	-7870
.	-7871
š	-7872
ą	-7873
ž	-7874
𐋇	-7875
į	-7876
ū	-7877
c	-7878
č	-7879
E	-7880
z	-7881
f	-7882
ę	-7883
P	-7884
T	-7885
0	-7886
-	-7887
S	-7888
K	-7889
2	-7890
(	-7891
)	-7892
B	-7893
A	-7894
𐊣	-7895
𐊼	-7896
1	-7897
h	-7898
"	-7899
M	-7900
V	-7901
D	-7902
N	-7903
J	-7904
R	-7905
G	-7906
L	-7907
Š	-7908
I	-7909
:	-7910
9	-7911
5	-7912
?	-7913
3	-7914
7	-7915
4	-7916
8	-7917
;	-7918
C	-7919
6	-7920
O	-7921
F	-7922
U	-7923
Ž	-7924
/	-7925
H	-7926
Į	-7927
w	-7928
!	-7929
Č	-7930
Y	-7931
W	-7932
x	-7933
é	-7934
%	-7935
q	-7936
á	-7937
'	-7938
ö	-7939
Z	-7940
X	-7941
Ū	-7942
è	-7943
í	-7944
ó	-7945
ü	-7946
+	-7947
ä	-7948
ş	-7949
ă	-7950
Q	-7951
[	-7952
&	-7953
]	-7954
ß	-7955
ń	-7956
ć	-7957
ø	-7958
ú	-7959
°	-7960
ķ	-7961
à	-7962
ê	-7963
ï	-7964
ň	-7965
ł	-7966
·	-7967
ý	-7968
ő	-7969
ţ	-7970
ż	-7971
ç	-7972
ñ	-7973
Ţ	-7974
Á	-7975
Ö	-7976
_	-7977
ò	-7978
ī	-7979
ľ	-7980
̨	-7981
έ	-7982
π	-7983
ρ	-7984
•	-7985
É	-7986
Í	-7987
Ó	-7988
Ő	-7989
Ř	-7990
ś	-7991
Ş	-7992
Υ	-7993
”	-7994
ř	-7995
υ	-7996
