<pad>	0
</s>	0
<unk>	0
▁¦	-0
in	-1
an	-2
en	-3
ta	-4
si	-5
ka	-6
ja	-7
ll	-8
än	-9
is	-10
tä	-11
va	-12
et	-13
▁s	-14
▁𐋇	-15
▁h	-16
▁k	-17
▁m	-18
on	-19
sa	-20
un	-21
ei	-22
▁,	-23
▁p	-24
▁ja	-25
el	-26
ol	-27
ut	-28
▁t	-29
lle	-30
oi	-31
er	-32
ma	-33
ra	-34
es	-35
jo	-36
la	-37
▁n	-38
▁J	-39
ti	-40
vat	-41
ik	-42
▁hän	-43
as	-44
tu	-45
inä	-46
ki	-47
▁v	-48
ko	-49
uu	-50
iin	-51
ät	-52
▁ol	-53
▁ka	-54
it	-55
sä	-56
aa	-57
te	-58
▁.	-59
se	-60
llä	-61
ää	-62
▁va	-63
▁H	-64
▁jo	-65
ku	-66
mm	-67
▁si	-68
▁l	-69
sta	-70
inun	-71
hän	-72
uo	-73
▁on	-74
ksi	-75
utta	-76
lla	-77
▁"	-78
eid	-79
yt	-80
ul	-81
uh	-82
ke	-83
erra	-84
kä	-85
▁o	-86
▁S	-87
sen	-88
ne	-89
isi	-90
▁san	-91
ansa	-92
al	-93
uma	-94
ten	-95
mi	-96
▁Ja	-97
vi	-98
at	-99
vät	-100
eidän	-101
▁te	-102
▁j	-103
▁M	-104
hd	-105
san	-106
ista	-107
ri	-108
inu	-109
▁a	-110
to	-111
us	-112
että	-113
▁oli	-114
uk	-115
ih	-116
kaa	-117
il	-118
oo	-119
▁ta	-120
ty	-121
ot	-122
▁kun	-123
im	-124
kun	-125
eli	-126
mä	-127
▁minä	-128
een	-129
mme	-130
itä	-131
pa	-132
▁Herra	-133
ssa	-134
ran	-135
▁se	-136
▁niin	-137
▁kaik	-138
▁he	-139
▁hänen	-140
▁ei	-141
ur	-142
kö	-143
▁y	-144
elle	-145
tan	-146
▁ko	-147
äl	-148
▁pa	-149
taa	-150
iv	-151
yn	-152
kaan	-153
▁ku	-154
kin	-155
▁:	-156
▁tä	-157
yö	-158
▁K	-159
umala	-160
▁tul	-161
he	-162
inen	-163
aan	-164
▁joka	-165
kuin	-166
ed	-167
pp	-168
tka	-169
le	-170
li	-171
äh	-172
oit	-173
oli	-174
den	-175
eille	-176
erran	-177
▁N	-178
eh	-179
▁kä	-180
▁sen	-181
maan	-182
niin	-183
eet	-184
so	-185
oin	-186
elin	-187
pä	-188
iset	-189
▁la	-190
ky	-191
▁sanoi	-192
▁A	-193
▁että	-194
eni	-195
▁r	-196
▁;	-197
minä	-198
elä	-199
▁vi	-200
koon	-201
vä	-202
ksen	-203
▁an	-204
▁minun	-205
asta	-206
▁sinun	-207
kan	-208
▁mi	-209
kaik	-210
▁nä	-211
nä	-212
▁as	-213
jan	-214
ole	-215
▁Si	-216
isen	-217
▁kaikki	-218
▁ole	-219
ha	-220
▁E	-221
▁kunin	-222
kää	-223
esi	-224
herra	-225
istä	-226
män	-227
▁kan	-228
essä	-229
lan	-230
istu	-231
▁I	-232
▁Mutta	-233
▁ra	-234
▁pä	-235
ui	-236
▁po	-237
inua	-238
yh	-239
inulle	-240
▁sa	-241
hden	-242
▁et	-243
alv	-244
ee	-245
▁ki	-246
elj	-247
eitä	-248
▁en	-249
nyt	-250
tta	-251
essa	-252
pun	-253
hänen	-254
van	-255
▁jotka	-256
ys	-257
min	-258
uud	-259
lta	-260
ar	-261
ensä	-262
▁vasta	-263
kse	-264
änsä	-265
▁sinä	-266
ille	-267
itse	-268
os	-269
▁Jumala	-270
▁sillä	-271
umalan	-272
mutta	-273
".	-274
isten	-275
tanut	-276
eit	-277
▁heidän	-278
taan	-279
ään	-280
yd	-281
ellä	-282
han	-283
▁kuu	-284
eidät	-285
joka	-286
▁Herran	-287
ni	-288
mmen	-289
issa	-290
▁puh	-291
mu	-292
estä	-293
▁pää	-294
▁läh	-295
▁`	-296
▁Is	-297
assa	-298
▁ovat	-299
▁ne	-300
▁poi	-301
man	-302
▁Niin	-303
▁to	-304
▁saa	-305
upun	-306
▁ni	-307
sillä	-308
▁päiv	-309
ska	-310
ken	-311
stä	-312
änä	-313
llut	-314
po	-315
rin	-316
gas	-317
lloin	-318
▁kuin	-319
pu	-320
tiin	-321
na	-322
raelin	-323
iva	-324
iksi	-325
esta	-326
toi	-327
ud	-328
▁-	-329
ön	-330
▁mutta	-331
."	-332
ensa	-333
onka	-334
pi	-335
pää	-336
maa	-337
tin	-338
ette	-339
alveli	-340
▁is	-341
▁mitä	-342
ks	-343
re	-344
minun	-345
mat	-346
kymmen	-347
▁maa	-348
▁ti	-349
sinun	-350
tän	-351
ihm	-352
▁tuli	-353
sanoi	-354
inut	-355
lä	-356
▁T	-357
kka	-358
ees	-359
▁olen	-360
▁vuo	-361
pe	-362
rj	-363
aavi	-364
aavid	-365
▁ma	-366
kaikki	-367
▁niinkuin	-368
me	-369
yl	-370
▁van	-371
▁mu	-372
▁ha	-373
▁hänelle	-374
tun	-375
jat	-376
▁syn	-377
ura	-378
▁P	-379
yös	-380
kunin	-381
ettu	-382
issä	-383
▁su	-384
▁B	-385
men	-386
uksen	-387
▁Sillä	-388
jen	-389
tel	-390
eru	-391
▁sano	-392
ab	-393
etta	-394
jumala	-395
▁D	-396
▁olivat	-397
sinä	-398
kuu	-399
tso	-400
▁kansa	-401
su	-402
mo	-403
▁suu	-404
▁il	-405
ro	-406
ina	-407
▁Jumalan	-408
▁teidän	-409
kansa	-410
ise	-411
mmä	-412
yttä	-413
▁hänet	-414
▁vastaan	-415
▁ed	-416
laiset	-417
etä	-418
vasta	-419
sivat	-420
tähden	-421
lo	-422
mieh	-423
▁so	-424
köön	-425
ani	-426
▁pu	-427
▁tuo	-428
uon	-429
▁hä	-430
▁häntä	-431
iden	-432
hin	-433
esti	-434
id	-435
päiv	-436
vo	-437
▁vih	-438
laisten	-439
jotka	-440
neet	-441
▁?	-442
eltä	-443
kea	-444
ydä	-445
▁Israelin	-446
yp	-447
oita	-448
▁no	-449
mpp	-450
ho	-451
raeli	-452
vuo	-453
▁men	-454
uuta	-455
yy	-456
▁kaupun	-457
tei	-458
etti	-459
▁heille	-460
herran	-461
ikä	-462
▁jonka	-463
▁kul	-464
▁sitä	-465
▁val	-466
mään	-467
nan	-468
poi	-469
sale	-470
ovat	-471
▁luo	-472
erusale	-473
heidän	-474
▁teh	-475
ssä	-476
▁Hän	-477
äär	-478
▁kuningas	-479
ita	-480
puh	-481
▁jäl	-482
tti	-483
▁poika	-484
▁Joo	-485
▁yl	-486
nut	-487
▁voi	-488
usta	-489
kään	-490
▁pel	-491
▁".	-492
isesti	-493
isin	-494
kymmentä	-495
no	-496
▁käs	-497
▁palveli	-498
▁sanoo	-499
läh	-500
▁Daavid	-501
gyp	-502
▁maan	-503
▁ar	-504
äni	-505
▁eivät	-506
olen	-507
▁ihm	-508
▁kanssa	-509
tto	-510
mitä	-511
▁eikä	-512
▁mieh	-513
tyi	-514
jä	-515
vit	-516
isia	-517
saa	-518
▁olet	-519
▁ty	-520
jaa	-521
▁al	-522
hur	-523
ell	-524
isa	-525
tui	-526
atta	-527
ia	-528
tten	-529
▁äl	-530
onsa	-531
▁pois	-532
tö	-533
eitse	-534
voi	-535
▁me	-536
ir	-537
kas	-538
▁tämä	-539
hä	-540
▁jos	-541
erä	-542
▁minulle	-543
▁Moo	-544
tte	-545
▁itse	-546
▁koko	-547
▁heidät	-548
yv	-549
▁tu	-550
▁meidän	-551
▁lei	-552
▁minua	-553
▁Jees	-554
teen	-555
uudan	-556
▁V	-557
▁nim	-558
val	-559
ihen	-560
▁Kun	-561
eb	-562
▁päivänä	-563
▁Sa	-564
yhä	-565
▁vaan	-566
▁var	-567
ika	-568
sin	-569
ua	-570
kia	-571
onin	-572
kseen	-573
tänyt	-574
kee	-575
nen	-576
ea	-577
var	-578
uden	-579
▁per	-580
▁ky	-581
usko	-582
▁sil	-583
pah	-584
niinkuin	-585
oike	-586
▁kaksi	-587
▁kor	-588
lei	-589
eitsemän	-590
▁toi	-591
ian	-592
▁vä	-593
suu	-594
▁lu	-595
mpä	-596
syn	-597
tuli	-598
iä	-599
las	-600
▁."	-601
▁kol	-602
ikka	-603
▁Jo	-604
lap	-605
▁pal	-606
imo	-607
▁pol	-608
jon	-609
▁kas	-610
▁velj	-611
▁Minä	-612
lleen	-613
tivät	-614
lleet	-615
ella	-616
▁G	-617
?"	-618
ist	-619
▁myös	-620
▁teille	-621
▁kuninkaan	-622
ek	-623
ydäm	-624
da	-625
ppi	-626
asti	-627
hurska	-628
▁suku	-629
▁sinua	-630
▁ri	-631
kelä	-632
jos	-633
hänelle	-634
mit	-635
▁kes	-636
jumalan	-637
▁syö	-638
lu	-639
tule	-640
oni	-641
▁meni	-642
tää	-643
rja	-644
▁heitä	-645
sano	-646
▁Jerusale	-647
▁uh	-648
ristu	-649
aab	-650
olivat	-651
▁sinulle	-652
▁ver	-653
▁tule	-654
▁Silloin	-655
▁li	-656
kaupun	-657
rof	-658
unut	-659
itten	-660
▁O	-661
▁edessä	-662
lli	-663
kunn	-664
eksi	-665
eivät	-666
▁e	-667
haa	-668
▁minut	-669
tämä	-670
katso	-671
▁katso	-672
pet	-673
eljä	-674
▁taiva	-675
ivät	-676
otta	-677
atso	-678
ele	-679
▁kät	-680
teidän	-681
▁elä	-682
asi	-683
tivat	-684
uks	-685
▁R	-686
use	-687
tus	-688
sani	-689
▁tämän	-690
▁hen	-691
hänet	-692
▁teki	-693
uko	-694
▁tykö	-695
ren	-696
vastaan	-697
uut	-698
▁siitä	-699
▁valta	-700
▁käsi	-701
yvä	-702
miin	-703
▁tuh	-704
mia	-705
rit	-706
ino	-707
▁L	-708
▁tempp	-709
esty	-710
▁tulee	-711
▁näin	-712
iste	-713
koi	-714
kul	-715
uun	-716
▁mukaan	-717
olet	-718
uksi	-719
mis	-720
▁nyt	-721
jäl	-722
uka	-723
▁hei	-724
tansa	-725
änne	-726
hta	-727
mpäri	-728
häntä	-729
ettiin	-730
▁tun	-731
do	-732
paa	-733
sia	-734
▁pan	-735
ses	-736
▁tai	-737
teh	-738
rael	-739
palveli	-740
tuo	-741
onut	-742
▁ilm	-743
kuningas	-744
sitä	-745
ksensa	-746
▁vielä	-747
usi	-748
▁seura	-749
etty	-750
poika	-751
koot	-752
pol	-753
vaan	-754
israelin	-755
▁kaupung	-756
▁asti	-757
▁vastasi	-758
joi	-759
pel	-760
▁f	-761
vaa	-762
sansa	-763
hdä	-764
▁mies	-765
ana	-766
luo	-767
▁kaiken	-768
▁israeli	-769
taneet	-770
mies	-771
heille	-772
mon	-773
kob	-774
ria	-775
enne	-776
▁Sen	-777
jonka	-778
▁mikä	-779
isiä	-780
hi	-781
utu	-782
elta	-783
▁Egyp	-784
iseksi	-785
▁maahan	-786
▁Nä	-787
▁tähden	-788
malla	-789
keen	-790
rsi	-791
isille	-792
▁puol	-793
▁Juudan	-794
keli	-795
tul	-796
kki	-797
ver	-798
eikä	-799
▁kirj	-800
dan	-801
mät	-802
ihin	-803
▁sekä	-804
toista	-805
pal	-806
ime	-807
rofeet	-808
ve	-809
mpi	-810
▁!	-811
ltä	-812
näin	-813
ara	-814
tele	-815
▁sanoen	-816
käs	-817
käsi	-818
▁oike	-819
▁lo	-820
silloin	-821
koko	-822
hen	-823
▁juo	-824
▁ettei	-825
▁siihen	-826
rk	-827
oll	-828
▁le	-829
daavid	-830
▁antoi	-831
sanoo	-832
▁na	-833
▁lap	-834
astu	-835
▁sinut	-836
▁usko	-837
iankaik	-838
▁tietä	-839
▁jälkelä	-840
pit	-841
▁jä	-842
teli	-843
kseni	-844
masta	-845
▁tehnyt	-846
mista	-847
del	-848
▁sydäm	-849
▁niiden	-850
kat	-851
uni	-852
uts	-853
▁sanoivat	-854
▁seitsemän	-855
▁pala	-856
▁palvelija	-857
puol	-858
päivänä	-859
kanssa	-860
per	-861
▁otti	-862
ysy	-863
moo	-864
▁tur	-865
kasta	-866
ukoi	-867
▁ul	-868
aik	-869
▁muu	-870
mas	-871
▁kuninkaa	-872
pois	-873
▁mer	-874
muu	-875
▁hyv	-876
yty	-877
▁esi	-878
pan	-879
kol	-880
lin	-881
▁olkoon	-882
▁sota	-883
uivat	-884
oitta	-885
kaksi	-886
▁Kristu	-887
meidän	-888
▁ollut	-889
sataa	-890
▁Ä	-891
unsa	-892
▁sitten	-893
uhtin	-894
minulle	-895
net	-896
▁siellä	-897
laisia	-898
kon	-899
▁kautta	-900
miehet	-901
iten	-902
▁koh	-903
▁Jeesus	-904
ata	-905
kiin	-906
▁olette	-907
oista	-908
llensa	-909
oa	-910
▁eteen	-911
▁sin	-912
▁sur	-913
heidät	-914
▁synti	-915
kaisin	-916
urin	-917
▁kat	-918
▁enää	-919
▁kään	-920
sitten	-921
jees	-922
minua	-923
▁yh	-924
▁Jaa	-925
▁Ab	-926
vilä	-927
massa	-928
iankaikk	-929
tunut	-930
▁vanhurska	-931
rv	-932
ös	-933
▁Herraa	-934
▁ker	-935
▁it	-936
▁olisi	-937
mmär	-938
lainen	-939
▁lä	-940
atte	-941
▁raken	-942
▁ho	-943
maahan	-944
▁He	-945
▁pi	-946
▁min	-947
▁jota	-948
▁kuole	-949
▁Sitten	-950
itsi	-951
kkaa	-952
▁Jos	-953
▁ot	-954
teki	-955
ret	-956
▁kuk	-957
ker	-958
öt	-959
tena	-960
▁koska	-961
▁niitä	-962
jy	-963
eillä	-964
myös	-965
▁teitä	-966
mer	-967
▁nämä	-968
raa	-969
▁kansan	-970
▁kuo	-971
valta	-972
ittä	-973
rta	-974
maassa	-975
▁Katso	-976
oitti	-977
uta	-978
ukse	-979
är	-980
kyn	-981
set	-982
joo	-983
äsi	-984
▁pojan	-985
st	-986
▁siis	-987
▁viin	-988
ah	-989
teille	-990
kselle	-991
▁asu	-992
▁palv	-993
rik	-994
kaat	-995
velj	-996
tävä	-997
ivat	-998
edessä	-999
sil	-1000
meni	-1001
rjan	-1002
una	-1003
▁näki	-1004
▁Herralle	-1005
▁tied	-1006
▁pyh	-1007
▁mitään	-1008
eita	-1009
▁vaimo	-1010
ba	-1011
intö	-1012
kor	-1013
iseen	-1014
iliste	-1015
▁antaa	-1016
llensä	-1017
▁tah	-1018
▁pyhä	-1019
▁siinä	-1020
▁Israel	-1021
kuninkaan	-1022
kes	-1023
ilistea	-1024
eta	-1025
▁ä	-1026
ineen	-1027
kunta	-1028
inulla	-1029
▁tullut	-1030
kaupung	-1031
kymmenen	-1032
llik	-1033
miel	-1034
jansa	-1035
illä	-1036
sti	-1037
▁erä	-1038
▁Daavidin	-1039
ess	-1040
petus	-1041
▁ette	-1042
▁kolme	-1043
nim	-1044
ttouh	-1045
tuu	-1046
▁nuo	-1047
sinua	-1048
ela	-1049
syö	-1050
tykö	-1051
llesi	-1052
▁ään	-1053
▁Saul	-1054
israeli	-1055
öl	-1056
▁ik	-1057
kät	-1058
suku	-1059
tämän	-1060
emme	-1061
ksesi	-1062
yksi	-1063
▁las	-1064
▁maassa	-1065
▁Se	-1066
▁kans	-1067
▁miel	-1068
▁por	-1069
▁hävit	-1070
tuh	-1071
iselle	-1072
▁antanut	-1073
anne	-1074
itta	-1075
▁kunni	-1076
uttaa	-1077
inusta	-1078
ven	-1079
▁?"	-1080
▁yli	-1081
raha	-1082
ib	-1083
heitä	-1084
▁Jaakob	-1085
▁jumala	-1086
tani	-1087
▁annan	-1088
sy	-1089
▁tar	-1090
sef	-1091
toa	-1092
▁Seb	-1093
▁pitä	-1094
▁oleva	-1095
aar	-1096
▁ann	-1097
▁pappi	-1098
▁joi	-1099
▁mur	-1100
kauh	-1101
▁oma	-1102
jerusale	-1103
olla	-1104
▁Tä	-1105
▁kuul	-1106
viä	-1107
sinulle	-1108
rat	-1109
llinen	-1110
isty	-1111
▁älä	-1112
▁Mooses	-1113
viin	-1114
dista	-1115
▁Sentähden	-1116
älä	-1117
▁rik	-1118
vän	-1119
osta	-1120
▁tulivat	-1121
ulta	-1122
vin	-1123
taiva	-1124
isti	-1125
▁altta	-1126
missä	-1127
Minä	-1128
▁Moose	-1129
▁lähti	-1130
▁lih	-1131
▁el	-1132
lapsi	-1133
illa	-1134
▁huu	-1135
lleni	-1136
▁Sinä	-1137
jalle	-1138
öy	-1139
minut	-1140
kana	-1141
olle	-1142
▁lähetti	-1143
siitä	-1144
mpa	-1145
▁viisi	-1146
laa	-1147
moin	-1148
▁pil	-1149
▁ruu	-1150
▁aina	-1151
olella	-1152
▁ennen	-1153
`.	-1154
nes	-1155
▁istu	-1156
▁liit	-1157
▁olemme	-1158
▁kau	-1159
simmä	-1160
rofeetta	-1161
pat	-1162
▁yhd	-1163
dä	-1164
▁päivä	-1165
▁ympäri	-1166
ukko	-1167
ynär	-1168
lee	-1169
tua	-1170
oikea	-1171
▁ruo	-1172
egyp	-1173
vielä	-1174
eliin	-1175
matta	-1176
ota	-1177
▁neljä	-1178
ola	-1179
osa	-1180
ton	-1181
vu	-1182
▁pys	-1183
▁kuts	-1184
lia	-1185
tempp	-1186
▁silloin	-1187
▁Jer	-1188
tar	-1189
▁käy	-1190
▁yksi	-1191
tär	-1192
tava	-1193
▁huo	-1194
tään	-1195
kellä	-1196
▁tapah	-1197
riksi	-1198
kko	-1199
tai	-1200
▁Aar	-1201
mikä	-1202
tulee	-1203
▁Näin	-1204
▁teke	-1205
▁kuinka	-1206
nämä	-1207
▁siel	-1208
essään	-1209
missa	-1210
oon	-1211
sel	-1212
tenä	-1213
alla	-1214
mmat	-1215
seura	-1216
mille	-1217
nus	-1218
imen	-1219
▁lin	-1220
▁mie	-1221
▁tyttä	-1222
▁Egyptin	-1223
isä	-1224
juo	-1225
▁er	-1226
hjo	-1227
▁jul	-1228
essaan	-1229
▁puhui	-1230
kel	-1231
▁sinne	-1232
▁kaikkien	-1233
kööt	-1234
mukaan	-1235
▁kymmen	-1236
▁miehet	-1237
▁paljon	-1238
▁ai	-1239
keut	-1240
▁hyvä	-1241
iankaikkisesti	-1242
oittaa	-1243
lat	-1244
llis	-1245
▁Sal	-1246
▁jal	-1247
▁seis	-1248
tee	-1249
▁vas	-1250
ilm	-1251
matto	-1252
▁huon	-1253
jät	-1254
isivat	-1255
sentähden	-1256
▁hal	-1257
pyh	-1258
▁suo	-1259
▁rauh	-1260
ppa	-1261
utti	-1262
▁rukoi	-1263
▁suuri	-1264
▁ran	-1265
sanne	-1266
▁sana	-1267
ilea	-1268
kuud	-1269
vir	-1270
▁vaim	-1271
▁muuta	-1272
päivä	-1273
kaiken	-1274
oitettu	-1275
din	-1276
▁sää	-1277
kirj	-1278
siihen	-1279
emu	-1280
ynnä	-1281
ettava	-1282
▁pojat	-1283
vastasi	-1284
▁toisen	-1285
oja	-1286
aat	-1287
vien	-1288
ga	-1289
py	-1290
fra	-1291
ona	-1292
ivan	-1293
misen	-1294
▁anta	-1295
▁älkää	-1296
astaan	-1297
ini	-1298
▁meille	-1299
ene	-1300
teet	-1301
öljy	-1302
▁her	-1303
▁kos	-1304
uuden	-1305
▁lähet	-1306
sur	-1307
kani	-1308
ssaan	-1309
por	-1310
jasi	-1311
salo	-1312
kset	-1313
sivät	-1314
▁toinen	-1315
▁viholl	-1316
▁takaisin	-1317
▁sisä	-1318
▁käsky	-1319
▁ymmär	-1320
uksessa	-1321
▁sanon	-1322
▁kukaan	-1323
hei	-1324
älkää	-1325
tuna	-1326
▁aset	-1327
or	-1328
otti	-1329
joita	-1330
kautta	-1331
uin	-1332
asa	-1333
jani	-1334
▁kir	-1335
mp	-1336
ollut	-1337
▁alas	-1338
eevilä	-1339
▁miestä	-1340
reja	-1341
tietä	-1342
juudan	-1343
ira	-1344
▁kauh	-1345
▁tulevat	-1346
▁aa	-1347
isiin	-1348
▁Seba	-1349
▁tekee	-1350
▁ruhtin	-1351
eteen	-1352
tänsä	-1353
kunnan	-1354
jaan	-1355
▁hope	-1356
seitsemän	-1357
▁mon	-1358
▁vir	-1359
▁Salo	-1360
tuhatta	-1361
ai	-1362
hal	-1363
päin	-1364
▁As	-1365
▁päällä	-1366
koska	-1367
▁mene	-1368
pyhä	-1369
sekä	-1370
vaimo	-1371
▁osa	-1372
▁pid	-1373
▁aino	-1374
▁teen	-1375
kenyt	-1376
ksenne	-1377
▁kysy	-1378
▁perintö	-1379
vot	-1380
ukku	-1381
▁Jumalaa	-1382
oh	-1383
olkoon	-1384
▁käd	-1385
▁Juud	-1386
▁voit	-1387
▁teidät	-1388
▁väl	-1389
oivat	-1390
atan	-1391
palv	-1392
istel	-1393
▁ulos	-1394
▁hedel	-1395
▁eivätkä	-1396
rille	-1397
aja	-1398
▁hyl	-1399
▁työ	-1400
sanoen	-1401
▁maasta	-1402
laisen	-1403
laisille	-1404
mmän	-1405
sydäm	-1406
umaan	-1407
udessa	-1408
▁leevilä	-1409
lah	-1410
ettei	-1411
▁isä	-1412
miksi	-1413
itenkin	-1414
nsä	-1415
sinut	-1416
aabelin	-1417
eljät	-1418
jamin	-1419
▁Jeesuksen	-1420
vih	-1421
etään	-1422
niiden	-1423
▁nousi	-1424
mitta	-1425
!"	-1426
siellä	-1427
tut	-1428
▁lö	-1429
alle	-1430
netto	-1431
▁otta	-1432
rella	-1433
▁vall	-1434
gen	-1435
uita	-1436
antoi	-1437
pojan	-1438
▁paik	-1439
▁kanssaan	-1440
kar	-1441
oksi	-1442
tet	-1443
▁Hen	-1444
▁saan	-1445
teeksi	-1446
▁opetus	-1447
▁Jumalasi	-1448
tyy	-1449
▁näh	-1450
▁päälle	-1451
▁filistea	-1452
ossa	-1453
rdan	-1454
▁meitä	-1455
▁minkä	-1456
tur	-1457
juma	-1458
jälkelä	-1459
uti	-1460
abin	-1461
▁isänsä	-1462
vanhurska	-1463
tynyt	-1464
▁us	-1465
▁neu	-1466
▁tee	-1467
Katso	-1468
tehnyt	-1469
▁juuta	-1470
olisi	-1471
hyv	-1472
hdek	-1473
▁vain	-1474
sanoivat	-1475
▁polttouh	-1476
olette	-1477
keä	-1478
enjamin	-1479
uul	-1480
tuivat	-1481
tuksen	-1482
alta	-1483
▁lan	-1484
▁pit	-1485
▁tahd	-1486
llenne	-1487
eks	-1488
▁py	-1489
▁yö	-1490
▁pah	-1491
▁joku	-1492
kristu	-1493
▁puhunut	-1494
gasta	-1495
▁kuuli	-1496
▁Kaik	-1497
▁miehen	-1498
kuninkaa	-1499
puu	-1500
▁Aab	-1501
koja	-1502
hon	-1503
▁sä	-1504
▁Äl	-1505
▁aik	-1506
oihin	-1507
raken	-1508
▁täyt	-1509
kuinka	-1510
mma	-1511
ottu	-1512
udat	-1513
▁fara	-1514
mie	-1515
▁vuor	-1516
▁joita	-1517
insä	-1518
tat	-1519
▁puhu	-1520
oittanut	-1521
▁temppelin	-1522
bin	-1523
▁Sebaot	-1524
▁jälkeen	-1525
itte	-1526
ydän	-1527
sojen	-1528
jeesus	-1529
jal	-1530
tah	-1531
koh	-1532
ystä	-1533
teitä	-1534
peä	-1535
siin	-1536
▁tal	-1537
jensa	-1538
herraa	-1539
tyivät	-1540
vet	-1541
esa	-1542
ruo	-1543
vall	-1544
istus	-1545
▁hall	-1546
▁saat	-1547
▁talo	-1548
anta	-1549
sensä	-1550
tanne	-1551
▁muut	-1552
muksen	-1553
ynärää	-1554
▁älköön	-1555
▁taivaan	-1556
kit	-1557
hv	-1558
kei	-1559
enää	-1560
pin	-1561
isto	-1562
jota	-1563
istaa	-1564
synti	-1565
▁vaikka	-1566
▁sentähden	-1567
varti	-1568
▁Ei	-1569
▁vier	-1570
▁pelas	-1571
ottaa	-1572
mus	-1573
▁har	-1574
▁Tämä	-1575
käy	-1576
kuul	-1577
tänne	-1578
▁isi	-1579
▁vai	-1580
keni	-1581
altta	-1582
miehen	-1583
▁saasta	-1584
▁heit	-1585
ava	-1586
jän	-1587
liit	-1588
▁jout	-1589
▁kaupungin	-1590
lais	-1591
isista	-1592
kansan	-1593
▁Moosekselle	-1594
▁israelilaiset	-1595
her	-1596
▁Joosef	-1597
▁käskyn	-1598
▁ilmesty	-1599
kuole	-1600
siis	-1601
▁mat	-1602
▁määr	-1603
▁päin	-1604
▁tehdä	-1605
▁kaikkia	-1606
paik	-1607
tusta	-1608
viisi	-1609
kuka	-1610
mien	-1611
ann	-1612
▁armo	-1613
▁vuotta	-1614
koa	-1615
▁jät	-1616
▁ken	-1617
tetaan	-1618
▁oikea	-1619
▁Aabraha	-1620
otte	-1621
▁Älä	-1622
niitä	-1623
uutta	-1624
▁kasvo	-1625
▁nouse	-1626
▁sy	-1627
▁ahd	-1628
▁synnyt	-1629
tied	-1630
hdeksan	-1631
▁Beet	-1632
▁maata	-1633
▁pahaa	-1634
isiksi	-1635
▁jossa	-1636
▁kuule	-1637
▁profeetta	-1638
lih	-1639
mur	-1640
▁Pi	-1641
▁un	-1642
▁juma	-1643
▁väär	-1644
▁kymmenen	-1645
ras	-1646
ruu	-1647
yttää	-1648
ksemme	-1649
huon	-1650
muut	-1651
▁tuhatta	-1652
▁Kristuksen	-1653
von	-1654
imin	-1655
▁ylös	-1656
▁sanan	-1657
kivat	-1658
nouse	-1659
ter	-1660
▁hi	-1661
▁tähän	-1662
▁verta	-1663
▁jumalatto	-1664
ob	-1665
näki	-1666
pitä	-1667
kir	-1668
ussa	-1669
pappi	-1670
▁kiin	-1671
otisesti	-1672
▁kuninkaaksi	-1673
puolella	-1674
ak	-1675
▁hu	-1676
▁poikansa	-1677
oma	-1678
pil	-1679
▁jää	-1680
▁sille	-1681
asu	-1682
oille	-1683
siinä	-1684
kseksi	-1685
herralle	-1686
kolme	-1687
▁kuka	-1688
▁tänä	-1689
▁tätä	-1690
de	-1691
▁lau	-1692
▁luon	-1693
▁kuoli	-1694
▁maail	-1695
di	-1696
sar	-1697
rempi	-1698
him	-1699
llaan	-1700
▁kuma	-1701
▁menivät	-1702
ron	-1703
yhd	-1704
mari	-1705
voit	-1706
antaa	-1707
tuvat	-1708
mene	-1709
ylvä	-1710
▁ved	-1711
▁palvel	-1712
my	-1713
jia	-1714
essäni	-1715
mitään	-1716
▁niistä	-1717
aaksi	-1718
▁Ha	-1719
▁kiv	-1720
▁tod	-1721
▁täh	-1722
▁viisa	-1723
▁iankaikkisesti	-1724
täni	-1725
mistä	-1726
tävät	-1727
▁Joka	-1728
▁lain	-1729
miestä	-1730
▁jolla	-1731
▁tytär	-1732
▁lähtivät	-1733
kunni	-1734
nuo	-1735
sma	-1736
kelin	-1737
▁rakasta	-1738
eer	-1739
▁Joosu	-1740
▁tuon	-1741
▁Jerusalemin	-1742
via	-1743
kien	-1744
▁U	-1745
itsee	-1746
▁kuninkaalle	-1747
ppu	-1748
asin	-1749
israel	-1750
palvelija	-1751
▁sul	-1752
▁kuusi	-1753
▁syntyi	-1754
▁tehneet	-1755
ikö	-1756
kku	-1757
sota	-1758
▁aja	-1759
▁pani	-1760
▁Hänen	-1761
yli	-1762
mmi	-1763
uus	-1764
vas	-1765
ivaa	-1766
▁Saa	-1767
▁tyh	-1768
istuim	-1769
toivat	-1770
▁Salomo	-1771
tullut	-1772
don	-1773
▁jouko	-1774
▁asettu	-1775
daavidin	-1776
gon	-1777
sit	-1778
kans	-1779
saul	-1780
tien	-1781
eljän	-1782
petta	-1783
isesta	-1784
▁El	-1785
▁asuk	-1786
▁jälj	-1787
ano	-1788
hävit	-1789
rä	-1790
vana	-1791
Herra	-1792
▁väke	-1793
rdanin	-1794
▁tuomi	-1795
▁päivää	-1796
▁saakka	-1797
ilta	-1798
ksin	-1799
rilla	-1800
▁re	-1801
määr	-1802
▁ota	-1803
▁lähte	-1804
▁Israeli	-1805
▁kätensä	-1806
ettuna	-1807
▁teura	-1808
▁varten	-1809
llansa	-1810
▁kaa	-1811
inuun	-1812
nusta	-1813
met	-1814
vaim	-1815
▁henki	-1816
▁kunnes	-1817
▁ensimmä	-1818
▁sanonut	-1819
utsu	-1820
vali	-1821
täneet	-1822
jälkeen	-1823
pala	-1824
▁väki	-1825
▁Aaron	-1826
▁missä	-1827
olta	-1828
annan	-1829
kalta	-1830
vun	-1831
ukan	-1832
▁peit	-1833
jaakob	-1834
eis	-1835
änyt	-1836
oitse	-1837
sensa	-1838
antanut	-1839
siir	-1840
▁Kaikki	-1841
tia	-1842
saan	-1843
aksi	-1844
ikke	-1845
oilla	-1846
▁Nämä	-1847
viksi	-1848
▁kohd	-1849
kau	-1850
tilä	-1851
oleva	-1852
▁kokoon	-1853
tot	-1854
aina	-1855
itar	-1856
siel	-1857
ennen	-1858
ukset	-1859
▁pakana	-1860
▁vuoden	-1861
ikkeelle	-1862
▁hänellä	-1863
tuneet	-1864
uneet	-1865
▁anna	-1866
▁kiit	-1867
miehiä	-1868
ruhtin	-1869
▁kulta	-1870
▁pitää	-1871
hyvä	-1872
maasta	-1873
Mitä	-1874
▁pur	-1875
▁vael	-1876
mooses	-1877
▁meidät	-1878
▁jokainen	-1879
▁kaikille	-1880
its	-1881
erin	-1882
ätte	-1883
ksessa	-1884
▁muuka	-1885
uhri	-1886
ppuun	-1887
▁aika	-1888
▁kansaa	-1889
▁keskellä	-1890
siä	-1891
kaamme	-1892
tulivat	-1893
eti	-1894
saat	-1895
▁heistä	-1896
▁keskuud	-1897
pih	-1898
tyttä	-1899
llitus	-1900
tal	-1901
▁kar	-1902
moose	-1903
▁emme	-1904
▁paran	-1905
▁kaikesta	-1906
baa	-1907
mpaa	-1908
ppin	-1909
▁päät	-1910
olemme	-1911
▁käski	-1912
▁syntiä	-1913
uuri	-1914
toinen	-1915
▁perhe	-1916
▁samoin	-1917
▁sukukunn	-1918
vää	-1919
anin	-1920
▁Paa	-1921
▁han	-1922
▁lyö	-1923
▁vuod	-1924
isistä	-1925
lähetti	-1926
▁pelkää	-1927
▁Jerusalemiin	-1928
huu	-1929
nnä	-1930
vain	-1931
mänsä	-1932
sille	-1933
yksen	-1934
lö	-1935
isit	-1936
ynyt	-1937
▁siun	-1938
▁suur	-1939
▁kukin	-1940
▁rakka	-1941
huo	-1942
▁`.	-1943
sana	-1944
neljä	-1945
staa	-1946
teke	-1947
▁Sii	-1948
▁kal	-1949
▁taas	-1950
▁ynnä	-1951
miä	-1952
mmoni	-1953
too	-1954
anna	-1955
ympäri	-1956
▁ih	-1957
eensä	-1958
mättä	-1959
▁riemu	-1960
▁onnetto	-1961
▁jälkeläisiä	-1962
kos	-1963
ien	-1964
ile	-1965
mää	-1966
▁kur	-1967
▁kyl	-1968
▁öljy	-1969
▁sanat	-1970
iti	-1971
arin	-1972
eensa	-1973
konsa	-1974
jer	-1975
▁vei	-1976
▁päästä	-1977
`,	-1978
suo	-1979
pys	-1980
mman	-1981
riyty	-1982
▁ylen	-1983
▁kalli	-1984
▁häneen	-1985
ili	-1986
▁Ma	-1987
▁Te	-1988
kuts	-1989
▁sel	-1990
▁tiedä	-1991
▁israelilaisten	-1992
jul	-1993
saf	-1994
idun	-1995
rauh	-1996
olemmat	-1997
▁Ka	-1998
aani	-1999
hellä	-2000
▁viha	-2001
▁enkeli	-2002
▁hänestä	-2003
kaansa	-2004
toisen	-2005
mmin	-2006
▁asi	-2007
▁puhd	-2008
kuntaa	-2009
ettakoon	-2010
jouk	-2011
▁Mi	-2012
tapah	-2013
uinka	-2014
▁enkä	-2015
älköön	-2016
▁häneltä	-2017
▁pelastu	-2018
masi	-2019
isuut	-2020
lähti	-2021
isella	-2022
onatan	-2023
ojen	-2024
▁hyö	-2025
▁vil	-2026
mar	-2027
▁my	-2028
▁elää	-2029
▁silmä	-2030
▁Älkää	-2031
▁liiton	-2032
▁sieltä	-2033
▁kansalle	-2034
▁käskenyt	-2035
▁Jerusalemissa	-2036
elissä	-2037
palvel	-2038
era	-2039
▁vaa	-2040
minkä	-2041
▁pime	-2042
▁nähdä	-2043
▁Baabelin	-2044
▁Jaakobin	-2045
paljon	-2046
▁vesi	-2047
je	-2048
sii	-2049
ytti	-2050
jaksi	-2051
sinne	-2052
eri	-2053
skaa	-2054
tesi	-2055
▁kats	-2056
inussa	-2057
isitte	-2058
",	-2059
ure	-2060
lansa	-2061
hu	-2062
yyd	-2063
▁Efra	-2064
▁Iisa	-2065
▁yhtä	-2066
llisen	-2067
▁hyvää	-2068
▁kauan	-2069
▁ottaa	-2070
▁olleet	-2071
ala	-2072
kesi	-2073
oitu	-2074
seba	-2075
rukoi	-2076
▁nimi	-2077
▁aurin	-2078
▁tulen	-2079
▁suuren	-2080
kaikkien	-2081
▁En	-2082
polv	-2083
▁Baa	-2084
▁lah	-2085
▁vie	-2086
suuri	-2087
▁nuor	-2088
llikkö	-2089
utuvat	-2090
▁hyvin	-2091
▁kärsi	-2092
▁tulla	-2093
egyptin	-2094
Nä	-2095
jää	-2096
tit	-2097
▁os	-2098
jona	-2099
▁olla	-2100
▁tässä	-2101
▁vaatte	-2102
llen	-2103
seis	-2104
aanin	-2105
isenä	-2106
puhui	-2107
valla	-2108
kal	-2109
▁heimo	-2110
▁kyynärää	-2111
▁ainoastaan	-2112
uja	-2113
syt	-2114
erub	-2115
kina	-2116
tola	-2117
oitan	-2118
ukana	-2119
▁kiel	-2120
▁lupa	-2121
▁paika	-2122
▁tekivät	-2123
▁kaksikymmentä	-2124
aseen	-2125
▁oh	-2126
▁juh	-2127
surin	-2128
▁kirkka	-2129
▁kansani	-2130
sää	-2131
etut	-2132
mansa	-2133
muuta	-2134
illeen	-2135
▁Poi	-2136
▁kim	-2137
▁sääd	-2138
jumalaa	-2139
▁päivän	-2140
ny	-2141
utensa	-2142
vuotena	-2143
kirja	-2144
▁kohtaan	-2145
viho	-2146
tyä	-2147
tapp	-2148
▁josta	-2149
▁aikaan	-2150
▁kaikista	-2151
nit	-2152
uur	-2153
jain	-2154
ettävä	-2155
▁ojen	-2156
▁käsiin	-2157
▁leipää	-2158
▁tulleet	-2159
▁veljensä	-2160
käsky	-2161
ymmär	-2162
puolelle	-2163
em	-2164
atin	-2165
immä	-2166
kysy	-2167
keliu	-2168
pojat	-2169
lapset	-2170
vankeliu	-2171
puhu	-2172
jouko	-2173
▁Ah	-2174
▁ajat	-2175
▁linn	-2176
▁vann	-2177
käämme	-2178
▁vettä	-2179
▁teistä	-2180
▁kanssansa	-2181
vasi	-2182
etari	-2183
tistä	-2184
jaansa	-2185
▁An	-2186
▁kiinni	-2187
▁seuraa	-2188
▁anteeksi	-2189
▁ennenkuin	-2190
▁kaupunkiin	-2191
väl	-2192
aino	-2193
obea	-2194
istan	-2195
tyvät	-2196
idunma	-2197
▁kohti	-2198
▁tietää	-2199
llessaan	-2200
muksessa	-2201
▁ihminen	-2202
vel	-2203
juud	-2204
▁Raa	-2205
▁uhri	-2206
▁kuuka	-2207
▁voima	-2208
▁niille	-2209
▁Jumalamme	-2210
voin	-2211
annut	-2212
yyttä	-2213
joukko	-2214
Tä	-2215
▁Mitä	-2216
▁uhra	-2217
▁varti	-2218
meille	-2219
miesten	-2220
jet	-2221
vai	-2222
emen	-2223
hope	-2224
vuor	-2225
▁äär	-2226
lähet	-2227
▁totu	-2228
▁kirja	-2229
▁yhden	-2230
▁asetti	-2231
▁kahden	-2232
▁met	-2233
▁nuh	-2234
▁tapp	-2235
▁vanha	-2236
▁kansat	-2237
▁minusta	-2238
▁todista	-2239
anas	-2240
henki	-2241
uilla	-2242
eeseen	-2243
kukaan	-2244
llänsä	-2245
takaisin	-2246
.`	-2247
▁Ol	-2248
▁kö	-2249
sisä	-2250
uhrin	-2251
vansa	-2252
▁tänne	-2253
alas	-2254
aset	-2255
asun	-2256
iska	-2257
sanon	-2258
vaikka	-2259
Jos	-2260
kalla	-2261
kuule	-2262
▁lähd	-2263
itinsä	-2264
▁teillä	-2265
hedel	-2266
▁sor	-2267
tettu	-2268
▁nime	-2269
▁ihmis	-2270
▁saanut	-2271
▁ottivat	-2272
▁alttarin	-2273
▁kanssasi	-2274
het	-2275
emia	-2276
sten	-2277
kensä	-2278
ydämen	-2279
tulevat	-2280
imme	-2281
jasta	-2282
vaksi	-2283
▁kohta	-2284
▁meren	-2285
leevilä	-2286
▁saavat	-2287
siirtola	-2288
pur	-2289
rei	-2290
aika	-2291
tekee	-2292
eja	-2293
ehti	-2294
muel	-2295
▁lun	-2296
▁pes	-2297
▁jään	-2298
eitten	-2299
kkosiirtola	-2300
lliset	-2301
talo	-2302
▁auti	-2303
▁kark	-2304
päällä	-2305
▁pysyy	-2306
eivätkä	-2307
▁peljät	-2308
▁yhdessä	-2309
innut	-2310
uksensa	-2311
hyl	-2312
käd	-2313
haan	-2314
▁alu	-2315
▁Sinun	-2316
uhriksi	-2317
▁tuleva	-2318
▁taistel	-2319
▁kansojen	-2320
up	-2321
toon	-2322
ttaa	-2323
▁näl	-2324
tuaan	-2325
▁vahv	-2326
teidät	-2327
ileadin	-2328
▁kaikkea	-2329
ksia	-2330
toja	-2331
meitä	-2332
polttouh	-2333
naa	-2334
hall	-2335
ulos	-2336
▁Neb	-2337
▁ene	-2338
▁häpe	-2339
perintö	-2340
▁Joosua	-2341
▁ihmisten	-2342
▁kaupunkia	-2343
nö	-2344
ksa	-2345
▁Sim	-2346
oissa	-2347
▁kalta	-2348
▁syödä	-2349
▁puolella	-2350
▁silmissä	-2351
▁kahdeksan	-2352
▁kuitenkin	-2353
▁kuningasta	-2354
riin	-2355
benjamin	-2356
▁g	-2357
udu	-2358
arise	-2359
▁sata	-2360
▁yhte	-2361
▁johon	-2362
▁kiiva	-2363
▁kaksitoista	-2364
puna	-2365
maata	-2366
llista	-2367
filistea	-2368
▁oman	-2369
varten	-2370
▁herra	-2371
▁papit	-2372
▁pyhit	-2373
▁ilmestysma	-2374
neu	-2375
eeni	-2376
juuta	-2377
rasta	-2378
ottanut	-2379
ansaatta	-2380
idunmaineen	-2381
▁Y	-2382
rien	-2383
▁ala	-2384
▁ter	-2385
▁etsi	-2386
▁tunte	-2387
▁joiden	-2388
▁täynnä	-2389
jumalasi	-2390
jeesuksen	-2391
vut	-2392
kasi	-2393
utte	-2394
paika	-2395
opetus	-2396
ef	-2397
vos	-2398
▁Vi	-2399
jana	-2400
tahd	-2401
▁pet	-2402
jossa	-2403
telee	-2404
▁aamu	-2405
▁kivi	-2406
▁kolman	-2407
▁Jordanin	-2408
▁puolesta	-2409
▁lähettänyt	-2410
▁palvelijasi	-2411
usa	-2412
nalle	-2413
nousi	-2414
mel	-2415
näh	-2416
papit	-2417
▁karit	-2418
▁mennä	-2419
▁kutsui	-2420
▁vaimon	-2421
▁!"	-2422
eliä	-2423
ettää	-2424
takaa	-2425
lau	-2426
ram	-2427
fara	-2428
▁alla	-2429
▁jona	-2430
isänsä	-2431
▁katsel	-2432
▁itsensä	-2433
työ	-2434
kanssaan	-2435
▁näky	-2436
udesta	-2437
▁Manas	-2438
▁nimen	-2439
essänsä	-2440
▁lähten	-2441
▁jälleen	-2442
▁kuullut	-2443
oitettuna	-2444
ahd	-2445
hain	-2446
jolla	-2447
päälle	-2448
ost	-2449
Sinä	-2450
armo	-2451
lain	-2452
▁epä	-2453
mästä	-2454
▁näke	-2455
▁teko	-2456
▁sapat	-2457
▁ketään	-2458
▁sanoin	-2459
▁enemmän	-2460
▁erämaassa	-2461
▁luoksensa	-2462
▁ympärilei	-2463
▁jälkeläiset	-2464
kkö	-2465
joku	-2466
jout	-2467
kuun	-2468
▁Isä	-2469
▁pysy	-2470
▁ruko	-2471
errani	-2472
▁aikaa	-2473
▁lampa	-2474
▁saira	-2475
▁Saulin	-2476
▁nähnyt	-2477
▁Aaronin	-2478
▁asukkaat	-2479
kuusi	-2480
non	-2481
väki	-2482
▁sai	-2483
▁heng	-2484
kaupungin	-2485
▁His	-2486
▁lam	-2487
▁tut	-2488
▁johd	-2489
▁noud	-2490
▁Minun	-2491
▁kysyi	-2492
▁joilla	-2493
▁kesken	-2494
ibe	-2495
oog	-2496
riä	-2497
ukad	-2498
istui	-2499
minen	-2500
himmat	-2501
ksensä	-2502
beet	-2503
▁koo	-2504
▁rin	-2505
kaita	-2506
siksi	-2507
▁miek	-2508
▁äläkä	-2509
puhunut	-2510
▁tykönsä	-2511
▁liikkeelle	-2512
▁temppeliin	-2513
juh	-2514
kuuli	-2515
utesi	-2516
▁[	-2517
mal	-2518
▁sö	-2519
kulta	-2520
oiksi	-2521
tensä	-2522
▁vapa	-2523
▁esiko	-2524
▁korke	-2525
▁pohjo	-2526
ottivat	-2527
▁miehiä	-2528
oittivat	-2529
▁Mooseksen	-2530
vuotta	-2531
jumalatto	-2532
olin	-2533
ikään	-2534
▁profeet	-2535
temppelin	-2536
maton	-2537
estaan	-2538
synnyt	-2539
heit	-2540
▁par	-2541
▁pääs	-2542
saasta	-2543
llisesti	-2544
▁kuulleet	-2545
▁Jumalalle	-2546
▁Jumalanne	-2547
od	-2548
mori	-2549
täyt	-2550
hoja	-2551
insa	-2552
▁nos	-2553
▁oin	-2554
astui	-2555
eksän	-2556
sebaot	-2557
vannut	-2558
taivaan	-2559
▁kasvoi	-2560
▁olevan	-2561
profeetta	-2562
▁hallitus	-2563
▁viinitar	-2564
imet	-2565
jokainen	-2566
ulla	-2567
▁rakas	-2568
▁sella	-2569
▁elämän	-2570
▁lapset	-2571
▁toimit	-2572
▁palvele	-2573
▁Daavidille	-2574
ved	-2575
vier	-2576
rofee	-2577
yyden	-2578
itenkaan	-2579
poikansa	-2580
seni	-2581
suur	-2582
▁kiro	-2583
▁tien	-2584
▁kotiin	-2585
▁myöskin	-2586
Ei	-2587
ttu	-2588
Näin	-2589
▁itä	-2590
▁ked	-2591
kaani	-2592
tonsa	-2593
uksia	-2594
▁olin	-2595
▁voin	-2596
elleen	-2597
estään	-2598
▁niihin	-2599
ket	-2600
yys	-2601
viha	-2602
joosef	-2603
▁Me	-2604
▁täy	-2605
▁nous	-2606
▁minulla	-2607
▁päivinä	-2608
▁leeviläiset	-2609
israelilaiset	-2610
sut	-2611
täh	-2612
ppal	-2613
ville	-2614
päivän	-2615
kaikkia	-2616
aas	-2617
▁Ki	-2618
päät	-2619
tyneet	-2620
▁Miksi	-2621
▁kumar	-2622
▁faraon	-2623
▁pyhäkö	-2624
▁sinulla	-2625
▁Benjamin	-2626
▁Jumalani	-2627
▁sydämensä	-2628
pelas	-2629
ittain	-2630
eesi	-2631
uttua	-2632
samoin	-2633
ukseen	-2634
▁Johan	-2635
▁herät	-2636
▁neuvo	-2637
▁sydän	-2638
aabraha	-2639
▁ruokauh	-2640
▁toimitta	-2641
▁kirjoitettu	-2642
kiel	-2643
▁ov	-2644
tänä	-2645
väär	-2646
▁nis	-2647
tähän	-2648
▁Kuka	-2649
▁arma	-2650
käskyn	-2651
▁kuulla	-2652
▁kimppuun	-2653
pui	-2654
öyr	-2655
isuud	-2656
sanan	-2657
skaan	-2658
muuden	-2659
ilmesty	-2660
moosekselle	-2661
?`	-2662
▁pun	-2663
tehdä	-2664
▁teet	-2665
▁huusi	-2666
▁kutsu	-2667
gyptilä	-2668
▁heillä	-2669
▁korkea	-2670
▁julista	-2671
▁sieluni	-2672
kasvo	-2673
kukin	-2674
tuomi	-2675
netaan	-2676
sai	-2677
▁Ar	-2678
isee	-2679
oska	-2680
post	-2681
▁här	-2682
ukseni	-2683
▁laupe	-2684
▁rikko	-2685
▁varus	-2686
istansa	-2687
▁ammoni	-2688
▁minulta	-2689
▁egyptilä	-2690
har	-2691
tätä	-2692
uusi	-2693
pahaa	-2694
kansat	-2695
keihin	-2696
▁monta	-2697
▁herrani	-2698
▁molemmat	-2699
▁viisikymmentä	-2700
kiit	-2701
maksi	-2702
isessa	-2703
ensimmä	-2704
ben	-2705
seb	-2706
▁Eli	-2707
▁het	-2708
▁poj	-2709
lähte	-2710
▁kulki	-2711
▁lapsi	-2712
▁neljän	-2713
▁Joonatan	-2714
▁etteivät	-2715
▁kaupunki	-2716
kristuksen	-2717
▁valtaistuim	-2718
tyh	-2719
kohd	-2720
llään	-2721
viisa	-2722
ag	-2723
nin	-2724
unu	-2725
Älä	-2726
▁Va	-2727
avat	-2728
kian	-2729
luon	-2730
ylös	-2731
▁pyy	-2732
verta	-2733
▁Eikö	-2734
▁vaik	-2735
stansa	-2736
▁puhut	-2737
▁tästä	-2738
▁uskon	-2739
uksesta	-2740
▁Kristus	-2741
▁sanovat	-2742
tytär	-2743
päästä	-2744
rakasta	-2745
▁Haa	-2746
ramin	-2747
uille	-2748
▁hajo	-2749
▁sala	-2750
▁Kunin	-2751
▁kanta	-2752
▁pelasta	-2753
▁neljäkymmentä	-2754
dea	-2755
sul	-2756
peit	-2757
tuul	-2758
eiden	-2759
eljäs	-2760
kille	-2761
nalla	-2762
upesi	-2763
uteen	-2764
elille	-2765
liiton	-2766
hat	-2767
▁Aa	-2768
utan	-2769
▁vyö	-2770
nessa	-2771
▁kaiv	-2772
▁surma	-2773
▁ymmärr	-2774
▁ihmiset	-2775
▁hallitsi	-2776
▁kanssani	-2777
kuninkaaksi	-2778
seen	-2779
maail	-2780
totisesti	-2781
kiä	-2782
tyt	-2783
▁eh	-2784
ällä	-2785
karit	-2786
▁etkä	-2787
▁laus	-2788
▁Jooja	-2789
▁mistä	-2790
▁takaa	-2791
▁velji	-2792
▁näkivät	-2793
▁pakanain	-2794
▁On	-2795
pani	-2796
▁Naa	-2797
▁Voi	-2798
▁keh	-2799
▁mal	-2800
▁syt	-2801
sella	-2802
▁jouk	-2803
▁pane	-2804
▁ulko	-2805
▁vaat	-2806
▁ystä	-2807
▁palat	-2808
▁yksin	-2809
▁kultaa	-2810
▁Israelia	-2811
▁leiriyty	-2812
▁taivaasta	-2813
kuoli	-2814
niistä	-2815
pelkää	-2816
kyl	-2817
Mene	-2818
enkä	-2819
staan	-2820
▁kaun	-2821
▁saas	-2822
▁kyllä	-2823
menivät	-2824
▁tulisi	-2825
▁tyttär	-2826
▁ruumiin	-2827
▁vastasivat	-2828
▁filistealaisten	-2829
lyö	-2830
tod	-2831
oksen	-2832
olleet	-2833
rs	-2834
halti	-2835
tuksi	-2836
tulla	-2837
päivää	-2838
usivat	-2839
▁paljo	-2840
▁Kuinka	-2841
▁edestä	-2842
▁joukko	-2843
▁kunnia	-2844
▁ihmisen	-2845
▁sinusta	-2846
▁älkääkä	-2847
jesi	-2848
otan	-2849
▁ilo	-2850
▁viis	-2851
▁Jooab	-2852
▁toista	-2853
lähtivät	-2854
▁Assurin	-2855
▁tietämään	-2856
ijy	-2857
meen	-2858
sian	-2859
väke	-2860
vusta	-2861
udella	-2862
jerusalemin	-2863
gal	-2864
▁Ih	-2865
eikö	-2866
elää	-2867
joos	-2868
eista	-2869
▁opet	-2870
▁keske	-2871
▁ruumi	-2872
▁silmi	-2873
▁uhraa	-2874
▁Samari	-2875
▁veljet	-2876
▁viiden	-2877
▁kauhistu	-2878
itu	-2879
vei	-2880
siun	-2881
asuk	-2882
kene	-2883
llys	-2884
estyi	-2885
kanta	-2886
▁viet	-2887
asettu	-2888
keensä	-2889
▁haure	-2890
▁suits	-2891
▁totta	-2892
essanne	-2893
hänellä	-2894
▁esipih	-2895
▁kirjan	-2896
▁olkoot	-2897
▁paimen	-2898
kuninkaalle	-2899
pid	-2900
pii	-2901
iltä	-2902
kats	-2903
main	-2904
valti	-2905
virsi	-2906
syntyi	-2907
vuoden	-2908
tehneet	-2909
kaupungit	-2910
▁liha	-2911
salomo	-2912
väisty	-2913
▁esiin	-2914
▁palvelijoi	-2915
keja	-2916
mpär	-2917
vesi	-2918
vuod	-2919
ihmis	-2920
meren	-2921
▁	-2922
a	-2923
¦	-2924
i	-2925
n	-2926
e	-2927
t	-2928
s	-2929
l	-2930
ä	-2931
k	-2932
u	-2933
o	-2934
m	-2935
h	-2936
j	-2937
v	-2938
r	-2939
,	-2940
p	-2941
y	-2942
.	-2943
d	-2944
𐋇	-2945
J	-2946
"	-2947
ö	-2948
:	-2949
H	-2950
;	-2951
S	-2952
b	-2953
M	-2954
g	-2955
K	-2956
N	-2957
?	-2958
f	-2959
A	-2960
E	-2961
`	-2962
-	-2963
I	-2964
T	-2965
P	-2966
!	-2967
B	-2968
D	-2969
V	-2970
O	-2971
G	-2972
R	-2973
L	-2974
Ä	-2975
U	-2976
Y	-2977
1	-2978
[	-2979
]	-2980
F	-2981
3	-2982
2	-2983
4	-2984
9	-2985
0	-2986
5	-2987
(	-2988
)	-2989
8	-2990
6	-2991
7	-2992
Ö	-2993
Z	-2994
/	-2995
z	-2996
