<pad>	0
</s>	0
<unk>	0
¦	-1.16972
▁¦	-1.52554
▁	-3.06689
𐋇	-3.53053
▁,	-3.87311
o	-4.05321
ch	-4.20085
s	-4.25809
▁.	-4.65224
i	-4.80181
en	-4.96353
de	-5.01164
som	-5.18142
till	-5.19015
han	-5.20808
t	-5.39471
om	-5.49433
så	-5.49782
att	-5.52284
för	-5.5397
▁;	-5.66962
jag	-5.72869
det	-5.76642
a	-5.81122
▁:	-5.81571
på	-5.84633
skall	-5.86531
den	-5.8687
av	-5.91185
icke	-5.93854
herren	-5.94648
är	-5.95158
hon	-5.9724
med	-5.99014
𐊼	-6.01553
𐊣	-6.01553
du	-6.0568
har	-6.09395
er	-6.13092
▁»	-6.13723
dem	-6.15056
då	-6.20596
r	-6.2226
var	-6.23864
men	-6.2719
mig	-6.43187
dig	-6.4686
sig	-6.49308
från	-6.52161
där	-6.53286
sade	-6.53456
eder	-6.57352
▁.»	-6.58761
hade	-6.60976
ty	-6.61719
upp	-6.6505
när	-6.72531
nu	-6.72563
efter	-6.73515
över	-6.74776
ut	-6.77233
alla	-6.77556
it	-6.77608
gud	-6.77903
sin	-6.809
ett	-6.82858
n	-6.83628
åt	-6.86118
na	-6.86179
min	-6.8956
man	-6.90703
din	-6.93987
e	-6.94403
vad	-6.94669
ock	-6.95103
d	-7.00495
israel	-7.00857
vid	-7.03458
allt	-7.09376
vi	-7.10538
se	-7.17719
son	-7.18057
hava	-7.18502
ja	-7.21268
mot	-7.22494
kola	-7.27103
dera	-7.27157
komm	-7.27456
sina	-7.28764
in	-7.28853
eller	-7.2924
et	-7.30374
barn	-7.30471
än	-7.32106
tta	-7.33055
hus	-7.38744
oss	-7.40829
fram	-7.46148
må	-7.48221
g	-7.48334
folk	-7.4882
ar	-7.4985
genom	-7.50225
vara	-7.50505
edan	-7.52754
mitt	-7.53244
bliv	-7.53899
konungen	-7.54792
äger	-7.56069
göra	-7.5666
f	-7.58388
vill	-7.58889
skulle	-7.59108
sitt	-7.59406
dina	-7.60264
be	-7.61228
gå	-7.61549
land	-7.61644
komma	-7.62039
blev	-7.63548
vor	-7.65071
skol	-7.65137
utan	-7.65416
bliva	-7.65519
ur	-7.65932
kom	-7.66088
▁'	-7.66785
någon	-7.67342
ned	-7.67956
under	-7.68785
k	-7.70045
äro	-7.70376
an	-7.71267
bort	-7.7485
henne	-7.76313
st	-7.76482
dess	-7.77235
låt	-7.77315
få	-7.78113
h	-7.78402
konung	-7.78931
dessa	-7.78963
ord	-7.80822
l	-7.81153
här	-7.81429
folket	-7.8233
bland	-7.82441
herre	-7.83441
ingen	-7.84105
väl	-7.84333
därför	-7.84721
hand	-7.84934
hela	-7.85281
mer	-7.86342
re	-7.86446
ditt	-7.86587
mina	-7.88432
själv	-7.88501
guds	-7.88967
dag	-7.89473
inför	-7.9047
kan	-7.90589
m	-7.90748
andra	-7.91007
giva	-7.91894
ande	-7.91988
jesu	-7.94643
fader	-7.95513
jorden	-7.95553
svarade	-7.9566
stor	-7.95997
es	-7.96027
tid	-7.96778
söner	-7.97733
ra	-7.9931
tjänare	-8.00884
gick	-8.01733
het	-8.02669
män	-8.02714
p	-8.02915
gjorde	-8.03316
david	-8.04565
juda	-8.0504
ju	-8.05521
någo	-8.06171
vår	-8.08236
▁--	-8.09506
mose	-8.09979
stå	-8.10715
▁?»	-8.10929
ta	-8.1122
huru	-8.11288
gör	-8.11668
hör	-8.12579
are	-8.13095
ej	-8.13976
jerusalem	-8.14581
två	-8.14581
namn	-8.15513
da	-8.15822
-	-8.17344
gav	-8.17528
edra	-8.18495
as	-8.18855
säga	-8.20697
ända	-8.23037
år	-8.23444
får	-8.23492
gjort	-8.23796
landet	-8.25918
åter	-8.27455
all	-8.27636
ögon	-8.27819
denna	-8.29338
hos	-8.30352
låta	-8.30684
denne	-8.30688
▁!	-8.31035
taga	-8.31793
lät	-8.35033
tog	-8.35398
lig	-8.35708
väg	-8.36427
stod	-8.36617
dagen	-8.36735
tag	-8.3746
tillbaka	-8.38411
haven	-8.39681
b	-8.39944
rätt	-8.40386
te	-8.40965
himmelen	-8.4119
hundra	-8.43909
egypten	-8.44242
intet	-8.45587
går	-8.47261
or	-8.47593
us	-8.47864
höra	-8.49138
talade	-8.49205
bo	-8.50358
emot	-8.50393
skull	-8.50705
ma	-8.50776
kring	-8.52232
tusen	-8.53966
v	-8.54074
fråga	-8.54538
tro	-8.54952
dit	-8.55241
tala	-8.55476
ick	-8.5564
ansikte	-8.57056
äta	-8.57378
liv	-8.57399
hjärta	-8.57939
kunna	-8.58853
bröder	-8.58955
sådan	-8.59323
åstad	-8.59348
staden	-8.59901
lika	-8.60102
många	-8.60318
allena	-8.62908
hålla	-8.633
samma	-8.63677
finne	-8.64301
tre	-8.65067
givit	-8.65114
el	-8.66433
dagar	-8.66981
vatten	-8.6763
såg	-8.68704
sju	-8.68765
kvar	-8.70837
vilken	-8.71274
hustru	-8.71729
vem	-8.724
agt	-8.73198
mycke	-8.74275
sammans	-8.75288
håll	-8.7569
stad	-8.7649
säg	-8.76528
måste	-8.76556
förde	-8.7661
blod	-8.76887
vet	-8.77216
sk	-8.77647
nåd	-8.77817
del	-8.78157
sände	-8.7817
hörde	-8.78514
saul	-8.78626
lik	-8.7863
fäder	-8.79219
människor	-8.79797
drag	-8.80035
guld	-8.80194
la	-8.80205
döda	-8.80452
jakob	-8.80903
bet	-8.81751
satte	-8.82228
broder	-8.83093
vare	-8.83109
arna	-8.85319
händer	-8.85367
våra	-8.85585
sätt	-8.86189
bjud	-8.86538
däri	-8.86888
städer	-8.89067
eld	-8.89262
bud	-8.89425
lade	-8.89641
tt	-8.90489
frukt	-8.90548
strid	-8.91526
svärd	-8.91774
vilja	-8.9257
vilka	-8.93452
fall	-8.93452
huvud	-8.93931
mun	-8.9438
lag	-8.94485
både	-8.94672
dö	-8.94774
prästen	-8.95278
ka	-8.95488
aron	-8.95653
födde	-8.9586
föra	-8.96511
verk	-8.97356
liga	-8.97673
ville	-8.98413
ning	-8.98487
tron	-8.98853
else	-8.99078
mannen	-8.9909
fast	-8.99292
tiden	-8.99807
for	-8.99815
röst	-9.00204
gott	-9.00226
ö	-9.00303
vände	-9.00335
hem	-9.00745
▁.'	-9.01293
kunde	-9.01401
slag	-9.01475
heliga	-9.01608
gingo	-9.01696
ne	-9.01899
draga	-9.02387
plats	-9.02419
å	-9.02482
stam	-9.02588
nnerlig	-9.02732
makt	-9.03935
gång	-9.04542
före	-9.04771
nämlig	-9.05009
sa	-9.05454
vin	-9.05677
jämt	-9.05817
föll	-9.05932
havet	-9.05943
kristus	-9.06563
ren	-9.07551
sak	-9.08024
först	-9.08192
giver	-9.08253
idan	-9.08468
moder	-9.08705
gått	-9.08887
vända	-9.09653
fyra	-9.10033
iterna	-9.10126
bära	-9.10251
kraft	-9.10356
tal	-9.10412
drog	-9.10563
annan	-9.10571
framför	-9.10743
dotter	-9.11989
huset	-9.12023
fem	-9.12033
veta	-9.12153
finna	-9.12155
kläder	-9.1228
rus	-9.12546
båda	-9.12838
at	-9.13357
salomo	-9.13643
själ	-9.13687
rättfärdighet	-9.13953
gärningar	-9.1436
silver	-9.14668
ställe	-9.14982
ont	-9.15087
y	-9.15868
sten	-9.1625
sätta	-9.16557
sta	-9.16781
ve	-9.17091
männen	-9.18945
hög	-9.19123
bröd	-9.19212
vrede	-9.19288
nej	-9.19507
ske	-9.19536
hit	-9.2003
ga	-9.20461
äck	-9.20627
lägga	-9.20821
tjugu	-9.20826
leva	-9.21606
undan	-9.21671
mån	-9.22076
farao	-9.22123
fing	-9.22219
nde	-9.22436
onda	-9.2316
bor	-9.23655
pa	-9.23664
råd	-9.24562
talat	-9.24756
sebaot	-9.24942
im	-9.25821
ad	-9.25827
vägen	-9.25887
varandra	-9.26065
▁»,	-9.26105
offra	-9.26111
medan	-9.26709
berg	-9.26849
lång	-9.27087
arvedel	-9.27208
människa	-9.27762
altaret	-9.27796
ära	-9.2828
säd	-9.2875
syn	-9.28931
konungar	-9.29296
mellan	-9.29529
fann	-9.29531
öknen	-9.29531
igen	-9.29782
hel	-9.30729
prästerna	-9.32157
josef	-9.3271
filistéerna	-9.32712
förbund	-9.33137
ken	-9.33172
kallade	-9.3346
tio	-9.3363
marken	-9.33738
någ	-9.33827
abraham	-9.3393
fåt	-9.34113
offer	-9.34419
döttrar	-9.34752
fiender	-9.34795
vän	-9.35052
ed	-9.35347
tjänst	-9.3565
far	-9.35798
ba	-9.35934
helig	-9.36089
länge	-9.36255
kött	-9.36312
härlighet	-9.36421
falla	-9.36776
ser	-9.37006
u	-9.37113
runt	-9.37681
erna	-9.37734
j	-9.38019
hjärtan	-9.38051
rädda	-9.3813
davids	-9.38387
babel	-9.38536
kalla	-9.38896
visa	-9.39013
jäm	-9.39088
döden	-9.39246
död	-9.39417
alnar	-9.39418
frukta	-9.39513
ha	-9.3977
sönder	-9.39802
vart	-9.39942
hop	-9.39948
slut	-9.40042
gudar	-9.40078
evig	-9.40189
rike	-9.40228
um	-9.40313
änt	-9.40318
synd	-9.40431
barns	-9.40694
brännoffer	-9.40698
världen	-9.41137
akt	-9.41972
bodde	-9.42026
skaffa	-9.42239
folken	-9.42402
me	-9.42427
träd	-9.42478
låg	-9.429
vär	-9.43189
ropade	-9.43328
släkte	-9.43652
släkt	-9.43889
tänk	-9.44246
dom	-9.44553
str	-9.45082
josua	-9.45174
leviterna	-9.45189
▁!»	-9.45636
djur	-9.45778
kvinna	-9.45923
inne	-9.46604
natten	-9.46954
glädje	-9.47017
tagit	-9.47374
rän	-9.47382
äldste	-9.47488
hjälp	-9.47986
nen	-9.48097
dricka	-9.49012
bar	-9.4913
ena	-9.5009
giv	-9.50353
fötter	-9.50354
am	-9.50357
frid	-9.50543
förut	-9.50773
ns	-9.51098
le	-9.5121
kropp	-9.51847
ul	-9.51926
morgon	-9.52073
följde	-9.52268
moab	-9.52778
olv	-9.52813
bär	-9.52909
togo	-9.53345
given	-9.53602
ären	-9.53916
räkna	-9.5427
ge	-9.54619
lagen	-9.54785
sex	-9.54797
jordan	-9.54809
sång	-9.54884
månaden	-9.55022
hämta	-9.5562
full	-9.55857
ro	-9.55866
goda	-9.56024
trä	-9.56063
jo	-9.56649
skam	-9.56708
ran	-9.57398
lämna	-9.57455
känna	-9.57579
ste	-9.57733
ig	-9.57791
fara	-9.5791
ant	-9.58044
akta	-9.58793
besittning	-9.58887
talar	-9.59158
ligge	-9.59266
förkunna	-9.59307
slå	-9.59471
nas	-9.59519
bad	-9.59581
slog	-9.59586
berget	-9.60045
lös	-9.60291
tjäna	-9.60403
våld	-9.60474
välsigna	-9.6048
ax	-9.61162
pet	-9.61293
fört	-9.61536
olja	-9.61634
vandra	-9.61635
kasta	-9.61779
söka	-9.61823
trettio	-9.62089
fly	-9.62118
bygga	-9.62395
annat	-9.62654
ropa	-9.62763
lever	-9.63176
arbete	-9.63877
je	-9.6394
sök	-9.64165
gammal	-9.64278
steg	-9.64315
br	-9.64352
lova	-9.64506
red	-9.64643
känn	-9.64647
höll	-9.64764
vishet	-9.6486
evi	-9.65201
par	-9.65563
snar	-9.65569
van	-9.65768
vägar	-9.65863
kvinnor	-9.66388
ben	-9.66389
edert	-9.66872
följ	-9.6796
porten	-9.67968
förstånd	-9.68008
levande	-9.68078
tecken	-9.68234
helga	-9.68638
missgärning	-9.68756
ldrig	-9.68812
judarna	-9.6889
ack	-9.6935
fri	-9.69737
lär	-9.69971
bön	-9.70374
andre	-9.70578
stadgar	-9.70654
bred	-9.70842
ligga	-9.7111
synder	-9.71358
begynte	-9.71406
krist	-9.71733
anden	-9.71737
iga	-9.71916
grund	-9.72352
sett	-9.72415
drogo	-9.72568
sådana	-9.7272
vila	-9.72854
sion	-9.72963
ny	-9.73032
släkter	-9.7306
lägg	-9.73104
ene	-9.73193
frälsning	-9.73579
mat	-9.73615
nöd	-9.73913
fördärva	-9.74068
ställde	-9.74603
kärlek	-9.74695
bör	-9.74961
bygg	-9.7498
vattnet	-9.75403
ting	-9.75537
livet	-9.75623
fot	-9.7597
fyrtio	-9.76022
koppar	-9.76022
utrota	-9.76024
övriga	-9.76056
kar	-9.7645
femtio	-9.7652
funno	-9.76593
hedningarna	-9.76686
sam	-9.76735
jord	-9.76788
lärjungar	-9.77157
lov	-9.77289
ljus	-9.77322
uppstå	-9.77379
furstar	-9.77752
rätta	-9.77829
tredje	-9.77891
gräns	-9.7791
rop	-9.77915
boskap	-9.77918
kor	-9.77997
sår	-9.78255
högtid	-9.78294
vänd	-9.78425
gåvo	-9.79044
profeten	-9.79088
trädde	-9.79107
und	-9.79678
olycka	-9.79706
bjöd	-9.79832
iten	-9.80394
förstå	-9.80518
stycke	-9.80788
tänkte	-9.80891
begär	-9.81127
manasse	-9.81135
ängel	-9.81208
kvinnan	-9.81399
intill	-9.823
lagt	-9.82447
lejon	-9.82455
stark	-9.82631
högr	-9.82916
stenar	-9.83102
förnimma	-9.8314
boning	-9.83141
jeremia	-9.83793
mått	-9.84061
fl	-9.84112
bes	-9.84152
mod	-9.84386
stör	-9.84547
c	-9.846
kär	-9.85068
ställ	-9.85581
uppenbarelsetält	-9.85658
gilead	-9.85834
samla	-9.85874
penningar	-9.85979
sida	-9.86291
lägra	-9.86474
lit	-9.87138
samuel	-9.8722
spisoff	-9.87269
ytter	-9.87286
god	-9.87503
lar	-9.87631
sända	-9.87714
fullborda	-9.87918
baal	-9.8793
joab	-9.87938
skriv	-9.8815
edom	-9.88483
ke	-9.886
lamm	-9.88727
svara	-9.89117
befallning	-9.89282
bok	-9.89553
vore	-9.89722
ber	-9.89787
oren	-9.90444
kärl	-9.90645
va	-9.9067
sons	-9.90916
solen	-9.90957
helgedomen	-9.91094
människorna	-9.91322
område	-9.91754
fruktan	-9.91827
ska	-9.92112
johann	-9.92227
föda	-9.92426
hår	-9.92686
gen	-9.92907
▁',	-9.9297
isak	-9.93404
lön	-9.93714
hästar	-9.94137
gån	-9.94225
förlåt	-9.94241
stort	-9.9475
länder	-9.9516
dog	-9.95224
byggde	-9.95256
slakta	-9.95386
nog	-9.95446
enda	-9.95535
hopa	-9.95583
vittnesbörd	-9.95883
köp	-9.96027
öppna	-9.96116
fadern	-9.96271
förgå	-9.96298
hiskia	-9.96714
byte	-9.96739
arm	-9.96778
träda	-9.96787
hopp	-9.96942
sinne	-9.96978
gråt	-9.9705
öster	-9.9706
lära	-9.97122
hata	-9.9713
läger	-9.97147
sitta	-9.97165
nära	-9.97233
lust	-9.97485
stammar	-9.97497
öde	-9.97505
egen	-9.97513
rättfärdiga	-9.97752
mar	-9.97778
tempel	-9.9778
fött	-9.98046
församlade	-9.98206
ammon	-9.98258
järn	-9.98272
året	-9.98339
profeterna	-9.984
kastade	-9.98581
stannade	-9.98603
behag	-9.98635
namnet	-9.9868
lott	-9.98875
hustrur	-9.98883
rättfärdig	-9.98902
rena	-9.9891
räck	-9.98915
norr	-9.99011
regering	-9.9904
unga	-9.99361
förviss	-9.99767
skåda	-10.0042
döds	-10.0085
sågo	-10.0089
bättre	-10.0142
pel	-10.0156
sjun	-10.0182
gad	-10.0198
jonatan	-10.0223
bringa	-10.0237
'»	-10.0266
förgöra	-10.0279
utgjorde	-10.0307
lyssna	-10.0325
hell	-10.0334
profetera	-10.0364
döm	-10.0367
lägre	-10.0386
egna	-10.0398
profet	-10.0435
änka	-10.044
unda	-10.0481
regn	-10.0542
elia	-10.0546
asa	-10.0549
ark	-10.0557
högt	-10.0566
sorg	-10.058
eli	-10.0587
helige	-10.0595
fäste	-10.0598
vagnar	-10.06
älska	-10.0628
nästa	-10.0636
funnit	-10.0643
läng	-10.0654
platsen	-10.0655
innan	-10.0659
tillhör	-10.0668
al	-10.067
les	-10.0676
abi	-10.0677
krigs	-10.0688
döma	-10.0693
utval	-10.0725
has	-10.0748
bevara	-10.0756
tunga	-10.0786
bergen	-10.0793
syster	-10.0806
rent	-10.0829
ovan	-10.0833
profeter	-10.0837
gånger	-10.086
kunn	-10.086
evangeli	-10.0892
regera	-10.0892
ab	-10.0922
gäll	-10.0927
bl	-10.0948
mark	-10.0973
predika	-10.0979
väx	-10.1005
fatta	-10.1022
dan	-10.1031
ing	-10.1033
bild	-10.104
lösa	-10.1042
altare	-10.1057
församling	-10.1064
vilket	-10.1067
fasta	-10.108
just	-10.1084
floden	-10.1085
krig	-10.1102
ege	-10.1113
ände	-10.1123
ahas	-10.1143
läppar	-10.1156
fåglar	-10.1156
bed	-10.1167
iel	-10.118
il	-10.1184
slagna	-10.1192
nad	-10.1216
fördärv	-10.1224
ute	-10.1224
stycken	-10.1233
prisa	-10.1238
vis	-10.124
främmande	-10.1245
levde	-10.1245
stanna	-10.126
undervisa	-10.1268
hov	-10.1272
rättfärdige	-10.1317
öken	-10.1326
flydde	-10.1336
djup	-10.1419
siklar	-10.1424
ahab	-10.1426
éerna	-10.1438
aft	-10.1448
skrive	-10.1463
natt	-10.1466
stånd	-10.1487
bevisa	-10.1502
bi	-10.1515
orena	-10.1517
göm	-10.1518
kunskap	-10.1518
utmarker	-10.1518
höllo	-10.1529
ham	-10.1554
bak	-10.157
församla	-10.1597
ställa	-10.1605
absalom	-10.161
gat	-10.1615
invånare	-10.1616
köttet	-10.1625
sökte	-10.1651
skuld	-10.1702
ogudaktiga	-10.1716
följande	-10.1718
dal	-10.1728
häng	-10.1728
stund	-10.1778
böj	-10.1798
lat	-10.1804
sal	-10.1813
lyd	-10.1814
varar	-10.1823
bryta	-10.1826
allde	-10.1829
morgonen	-10.1839
familjer	-10.1846
inom	-10.1857
lögn	-10.1893
människobarn	-10.1901
färd	-10.1902
eser	-10.1915
vilj	-10.1918
älskade	-10.1921
bröto	-10.1952
församlingen	-10.197
gamla	-10.2024
ek	-10.2026
mätta	-10.2028
barmhärtighet	-10.2088
försoning	-10.2089
lämnade	-10.2113
vakt	-10.2121
resa	-10.2129
öv	-10.216
portar	-10.2176
jerobeam	-10.2185
sked	-10.2214
rätter	-10.2216
främling	-10.2223
likna	-10.223
präster	-10.2272
tält	-10.2277
gal	-10.2278
aul	-10.2281
sjuk	-10.2282
esau	-10.2285
fin	-10.2305
krossa	-10.2316
öga	-10.2316
ida	-10.2318
benjamin	-10.2341
styggelse	-10.2363
efa	-10.2365
viss	-10.2375
löfte	-10.2378
räckte	-10.2383
fäkreatur	-10.2384
drabba	-10.2384
fångenskap	-10.2384
hud	-10.2391
rik	-10.2409
ret	-10.242
driv	-10.2432
rot	-10.2439
un	-10.2468
åker	-10.2472
sela	-10.2476
hölj	-10.2485
rökelse	-10.2485
skynda	-10.2485
utom	-10.2499
frälst	-10.2508
fjär	-10.2519
aftonen	-10.2522
arbeta	-10.2534
hugg	-10.2543
lätt	-10.2546
hövdingar	-10.2566
gåvor	-10.2583
ljest	-10.2588
egyptierna	-10.2591
följa	-10.2618
nar	-10.2638
bestäm	-10.2648
älskar	-10.2653
samman	-10.2662
ningen	-10.2682
sjuttio	-10.269
störta	-10.2698
pris	-10.2702
syndat	-10.2726
bord	-10.2726
orätt	-10.273
frälsa	-10.2745
avgudar	-10.2773
vingård	-10.2794
syndoffer	-10.2796
samt	-10.2796
mika	-10.2808
inga	-10.2851
ista	-10.2857
fröjd	-10.2865
heter	-10.2888
behöv	-10.2892
ung	-10.2906
antal	-10.2915
ringa	-10.2969
handla	-10.2972
seger	-10.3006
samaria	-10.3006
väv	-10.3007
uppteckna	-10.3011
ingången	-10.3042
horn	-10.305
bitt	-10.3058
hu	-10.3093
öron	-10.3113
kanaan	-10.3113
vek	-10.3123
sanning	-10.3151
bröt	-10.3156
förstör	-10.3168
efraim	-10.3188
otukt	-10.3195
skapa	-10.3209
befall	-10.3214
tabernaklet	-10.3222
stoft	-10.3222
fängelse	-10.3222
höj	-10.3226
präst	-10.3238
efraims	-10.3255
skatt	-10.3271
rör	-10.3279
stig	-10.328
fjärde	-10.3294
stav	-10.332
bäcken	-10.3332
plåga	-10.3332
mantel	-10.3338
varen	-10.3351
orna	-10.3357
ika	-10.3362
dörr	-10.3384
flyt	-10.3417
skara	-10.3417
ruben	-10.3419
gar	-10.3427
hälft	-10.3443
inbyggare	-10.3443
lyfte	-10.3444
elden	-10.3446
förtrösta	-10.3472
levi	-10.3476
tacka	-10.35
rikedom	-10.3506
starka	-10.354
bedja	-10.3544
domare	-10.3552
elisa	-10.3556
vagn	-10.3557
em	-10.3574
lärjungarna	-10.3579
aram	-10.3584
slogo	-10.359
städerna	-10.3603
överlämna	-10.3608
seba	-10.3626
född	-10.3628
upphöj	-10.363
kläd	-10.3634
x	-10.3637
åkalla	-10.364
ok	-10.365
ler	-10.366
rygg	-10.3667
josafat	-10.3669
ogudaktige	-10.3669
skaror	-10.367
illa	-10.3672
brev	-10.3672
hövding	-10.369
öva	-10.3701
joa	-10.371
träl	-10.3714
tionde	-10.3724
läto	-10.3726
druck	-10.3784
dräpa	-10.3795
konungs	-10.3797
sky	-10.3811
arken	-10.3832
förtryck	-10.385
striden	-10.3857
livs	-10.3862
sluta	-10.3886
slår	-10.3899
slöt	-10.39
söder	-10.39
visste	-10.392
ull	-10.3937
menigheten	-10.3948
fett	-10.3964
fulla	-10.397
stilla	-10.3978
driva	-10.3991
mur	-10.3996
jubel	-10.4018
drev	-10.4018
förgården	-10.4018
inmönstrade	-10.4019
vingar	-10.4019
hörn	-10.402
ondska	-10.402
buro	-10.4022
vredes	-10.4023
förtär	-10.4087
stån	-10.4087
stiga	-10.411
lite	-10.4123
trog	-10.4144
fria	-10.4149
ordet	-10.4159
upprätta	-10.4164
komme	-10.4201
främlingar	-10.421
vinna	-10.4216
ris	-10.4223
dalen	-10.4233
gjut	-10.4243
skap	-10.4252
väsende	-10.4257
välbehaglig	-10.4257
assyrien	-10.4257
mörker	-10.4264
ljud	-10.4275
port	-10.4302
sål	-10.4302
orda	-10.4316
huvuden	-10.4326
beslut	-10.4342
hat	-10.4343
likt	-10.4346
förlossa	-10.4379
daniel	-10.438
åtta	-10.4389
förakta	-10.44
led	-10.4416
benjamins	-10.4431
ahi	-10.4435
give	-10.4444
lida	-10.4459
skörd	-10.4464
iska	-10.4466
amoréerna	-10.4503
smäda	-10.4503
människosonen	-10.4503
mörkret	-10.4503
sidor	-10.4512
fursten	-10.4513
murar	-10.454
graven	-10.4545
hjord	-10.4552
träffa	-10.456
träng	-10.4577
förblive	-10.4585
utgjut	-10.4597
tåga	-10.4604
stra	-10.4606
kön	-10.4611
moln	-10.4627
tankar	-10.4628
plantera	-10.4628
förmå	-10.4631
mäktig	-10.4656
förkasta	-10.4689
äter	-10.4751
smälek	-10.4754
grep	-10.4754
svärdet	-10.4788
vänta	-10.4809
människan	-10.4825
dräpte	-10.4836
sanningen	-10.4837
därom	-10.4849
bränna	-10.4866
blygd	-10.4872
dröm	-10.4882
domar	-10.4882
pläga	-10.4882
beständig	-10.4884
förskräckt	-10.4885
ljuset	-10.4896
sjön	-10.4903
gången	-10.4916
vittna	-10.492
angå	-10.4977
offrade	-10.4983
kunnig	-10.4988
hän	-10.4997
hjälpa	-10.5004
simon	-10.5012
välsignelse	-10.5012
bäst	-10.5012
märk	-10.5012
förstfödde	-10.5018
ihåg	-10.504
ring	-10.5043
varder	-10.5049
vik	-10.505
ödmjuka	-10.5071
fruktade	-10.5073
grav	-10.5075
tillbedja	-10.5079
tus	-10.5085
blotta	-10.511
människo	-10.5114
mål	-10.5116
berättade	-10.5128
förbannelse	-10.5144
gyll	-10.5144
hebron	-10.5144
▁?'	-10.5144
skepp	-10.5145
förbarma	-10.5146
nytt	-10.5194
bestå	-10.5208
väldig	-10.5227
borg	-10.5243
lede	-10.5246
noa	-10.5256
vikt	-10.5264
evärdlig	-10.5277
förskräckelse	-10.5277
slaktoffer	-10.5277
dödsriket	-10.5277
get	-10.5285
mästaren	-10.5287
mycken	-10.5338
hälsa	-10.5346
öppnade	-10.5396
mjöl	-10.5403
vandrade	-10.541
eleasar	-10.5412
gift	-10.5412
trampa	-10.5413
höjden	-10.5414
havande	-10.5444
ofta	-10.5465
öra	-10.5472
röva	-10.5483
ryck	-10.5483
lid	-10.5496
gåva	-10.5502
trodde	-10.553
uppenbara	-10.5533
båd	-10.5545
sextio	-10.5552
betel	-10.5559
fröjda	-10.5596
kände	-10.5617
ram	-10.5617
träffade	-10.5624
ordning	-10.5625
muren	-10.5632
förgät	-10.5655
vänt	-10.5658
basun	-10.5662
skyldig	-10.5663
gensträvig	-10.5688
ostrafflig	-10.5689
föröka	-10.569
blick	-10.5691
förtära	-10.5697
tillflykt	-10.5734
moders	-10.5754
lyft	-10.5759
utföra	-10.5807
herde	-10.5813
hast	-10.5815
förtörnelse	-10.5829
libanon	-10.5829
glöd	-10.5829
visade	-10.5829
val	-10.584
ovänner	-10.584
synda	-10.5845
styggelser	-10.5857
bara	-10.5871
förra	-10.5929
job	-10.5933
månad	-10.5948
klok	-10.5972
hals	-10.5972
brän	-10.5973
myckenhet	-10.5975
undfå	-10.5987
kal	-10.5989
ll	-10.6012
hände	-10.6035
tit	-10.6048
korn	-10.6075
mäktiga	-10.6084
klädd	-10.6101
törst	-10.6108
hoppa	-10.611
berömm	-10.6115
skor	-10.612
smorde	-10.6127
gl	-10.6147
aser	-10.6147
gil	-10.6148
bota	-10.6158
lovade	-10.6158
begrav	-10.6161
klippa	-10.6168
grip	-10.6177
tillhöra	-10.6183
skänker	-10.6191
tjurar	-10.6233
rycka	-10.625
förbanna	-10.6252
uppe	-10.6255
nät	-10.6263
spjut	-10.6264
kaldéerna	-10.6264
sikem	-10.6264
orter	-10.6266
sel	-10.6269
stadga	-10.6278
ugn	-10.6295
skada	-10.63
ödemark	-10.6312
sutt	-10.6318
hjärtat	-10.6321
fån	-10.633
förbi	-10.6342
månader	-10.6378
frisk	-10.6391
tider	-10.6399
furste	-10.64
mästare	-10.6402
hunger	-10.6413
seende	-10.6421
väster	-10.6426
vika	-10.643
drick	-10.6431
linne	-10.6432
garn	-10.6441
vinträd	-10.6448
förråd	-10.6488
konungarna	-10.6518
lycka	-10.6543
tjänade	-10.6551
träden	-10.6557
näst	-10.6564
skriftlärde	-10.6565
skugga	-10.6565
brutit	-10.6565
lot	-10.6565
abimelek	-10.6565
ålder	-10.6565
drickoffer	-10.6565
åsyn	-10.6569
glädja	-10.6569
sändebud	-10.6574
torr	-10.6583
skatter	-10.6595
ighet	-10.6604
fyll	-10.661
värdig	-10.6629
angrip	-10.664
helgedom	-10.6644
svår	-10.6656
bäva	-10.6674
glada	-10.6685
bedj	-10.6701
hungersnöd	-10.6718
psalm	-10.6718
vilse	-10.6719
våg	-10.6719
fariséerna	-10.6719
araméerna	-10.6719
nadab	-10.6725
skog	-10.6726
strömmar	-10.6727
ssia	-10.6732
frambära	-10.6746
dryck	-10.6756
honung	-10.6756
ub	-10.6762
kis	-10.677
råda	-10.6778
vandrar	-10.6806
aim	-10.6817
byar	-10.6867
galileen	-10.6875
jeriko	-10.6875
tungomål	-10.6875
frimodig	-10.6875
eldsoffer	-10.6875
gagn	-10.6877
pröva	-10.6878
jehu	-10.6903
fångar	-10.6947
larm	-10.6957
skön	-10.7026
tillstäd	-10.7033
miss	-10.7034
hor	-10.7063
mal	-10.7081
glad	-10.7085
sara	-10.7087
bergsbygd	-10.7124
tåg	-10.7134
vind	-10.7151
sänd	-10.7158
sken	-10.7166
ogudaktigas	-10.7173
vänner	-10.7182
vedergäll	-10.7184
möda	-10.7194
bedrövelse	-10.7195
sidkia	-10.7195
brännoffre	-10.7195
abner	-10.7195
blås	-10.7195
tackoffer	-10.7196
gent	-10.7201
blyg	-10.7208
skära	-10.7213
stött	-10.7216
vädurar	-10.7219
tränga	-10.7229
översteprästen	-10.7231
straffa	-10.7231
rov	-10.7237
bruka	-10.7248
osyra	-10.7254
leda	-10.7259
kroppen	-10.7266
avkomlingar	-10.7266
hållit	-10.7274
särskild	-10.7294
pelar	-10.7302
båt	-10.7305
änglar	-10.7343
dans	-10.7351
lukt	-10.7355
bileam	-10.7359
grät	-10.7359
ångest	-10.7359
damask	-10.7359
uk	-10.7359
översteprästerna	-10.736
tack	-10.7365
vittnesbördet	-10.7373
himmel	-10.7454
band	-10.7456
judar	-10.7466
förrätta	-10.7473
lågo	-10.7476
dödade	-10.7485
brinn	-10.7494
pass	-10.75
dräpt	-10.7502
femte	-10.7503
skilja	-10.7511
falsk	-10.752
förvandla	-10.7525
vakna	-10.7525
palats	-10.7525
basan	-10.7526
abram	-10.7526
gossen	-10.7526
▁»;	-10.7529
ungdom	-10.753
fåfänglighet	-10.7533
babyloni	-10.7536
betryck	-10.7547
förståndig	-10.7558
ängeln	-10.7562
huvudet	-10.7567
bur	-10.7571
fånga	-10.7576
vakta	-10.7584
spän	-10.7592
kroppar	-10.7602
intog	-10.7618
brunn	-10.7629
lidande	-10.7643
flykt	-10.7647
rum	-10.7648
fattade	-10.7655
talrik	-10.7659
yck	-10.7677
kort	-10.7681
fäll	-10.7693
mordokai	-10.7695
trofasthet	-10.7695
budskap	-10.7697
konst	-10.7702
belägra	-10.7707
uel	-10.7714
gudsmannen	-10.7718
befästa	-10.7723
betyde	-10.7726
sköt	-10.7732
eln	-10.7734
inre	-10.7738
stöt	-10.7756
fal	-10.7798
menighet	-10.7818
åsnor	-10.7867
oförnuft	-10.7867
östra	-10.7869
nådig	-10.7896
nödga	-10.7896
vild	-10.79
tjänar	-10.7927
asaf	-10.7957
föd	-10.7959
fattiga	-10.7969
mor	-10.7991
ester	-10.7999
bund	-10.8013
mätte	-10.8017
straff	-10.8022
jojada	-10.8043
nebukadnessar	-10.8043
hämnd	-10.8043
nämn	-10.8043
säll	-10.8043
pest	-10.8043
kammare	-10.8044
klädnad	-10.8044
högste	-10.8046
dör	-10.8059
fullt	-10.8097
synden	-10.8103
sabbaten	-10.8109
strå	-10.8125
kora	-10.8128
domen	-10.8143
höga	-10.8149
ringar	-10.8159
trösta	-10.8172
försmäkta	-10.8221
allsmäktige	-10.8221
ismael	-10.8221
arv	-10.8225
mjölk	-10.8233
vinning	-10.8234
spr	-10.8234
dölj	-10.8243
topp	-10.8285
ningar	-10.8287
spillo	-10.829
brände	-10.8308
net	-10.831
skri	-10.831
behaga	-10.8315
sov	-10.8376
gräs	-10.8396
hövitsmän	-10.8398
maria	-10.8402
)	-10.8403
gästabud	-10.8403
plundra	-10.8403
ryttare	-10.8403
sadok	-10.8403
josia	-10.8403
småboskap	-10.8403
laban	-10.8404
dröj	-10.8406
natan	-10.841
pila	-10.841
vitt	-10.8411
gripa	-10.8411
nya	-10.8414
bon	-10.8416
beer	-10.8419
hin	-10.842
farit	-10.8455
trälar	-10.8461
vittne	-10.8475
reste	-10.8477
bestämd	-10.8477
funn	-10.8481
förbliva	-10.8489
sköld	-10.8543
fat	-10.8552
upptände	-10.856
vise	-10.8563
verklig	-10.8579
éer	-10.8583
midjan	-10.8588
drottning	-10.8588
kananéerna	-10.8588
simeon	-10.8588
vackla	-10.8588
åsna	-10.8589
fläck	-10.8591
lehem	-10.8593
oxar	-10.8597
skål	-10.8599
hemlighet	-10.86
vall	-10.8612
kalk	-10.8612
torn	-10.8618
helgade	-10.8619
säng	-10.8625
kvinnorna	-10.8632
furstarna	-10.8635
visar	-10.8644
besvär	-10.865
vinden	-10.8652
samlade	-10.8668
vädur	-10.8678
abba	-10.8684
rörde	-10.8702
rök	-10.8704
afton	-10.8707
hörande	-10.8708
nio	-10.8723
spetälska	-10.8723
eus	-10.8727
sabbat	-10.8732
fiende	-10.8733
jer	-10.8737
ansikten	-10.8758
främst	-10.8777
hednafolk	-10.8777
hadad	-10.8777
herod	-10.8779
korsfäst	-10.878
hemsöka	-10.8781
prov	-10.8783
tamar	-10.879
kallat	-10.8791
källa	-10.8794
dörrar	-10.8808
felfri	-10.8819
haman	-10.883
förkunnade	-10.8831
skräck	-10.8844
trolös	-10.8847
brist	-10.885
mak	-10.8873
skaffade	-10.8875
lys	-10.8887
bröderna	-10.8896
skjuta	-10.8922
oxe	-10.8946
dre	-10.8963
överflöd	-10.8969
möte	-10.8969
halv	-10.897
skänk	-10.8983
egg	-10.8987
rättfärdigheten	-10.899
lovad	-10.8995
trakt	-10.8996
iakttag	-10.8997
flytta	-10.9002
salt	-10.9021
trött	-10.9025
kam	-10.9042
fler	-10.9045
syndare	-10.9107
kommande	-10.9127
köpa	-10.9145
krets	-10.9152
förskingra	-10.9165
bättring	-10.9165
läst	-10.9165
naftali	-10.9165
rehabeam	-10.9165
rykte	-10.9165
ljuvlig	-10.9165
förlora	-10.9165
tjänstgöring	-10.9166
joram	-10.9166
stöd	-10.9167
dött	-10.9183
gods	-10.9185
höjderna	-10.9195
offret	-10.9209
svur	-10.9231
förtörna	-10.9246
skyl	-10.9269
räddade	-10.9277
locka	-10.9288
ban	-10.9295
torka	-10.9328
tig	-10.9332
é	-10.9342
andar	-10.9355
ön	-10.9363
begrov	-10.9365
ihjäl	-10.9365
eländig	-10.9366
föremål	-10.9367
munnen	-10.9371
offereld	-10.9372
pin	-10.9374
tjänarinna	-10.9374
nalka	-10.9376
by	-10.938
missgärningar	-10.9386
fattige	-10.9399
bröst	-10.9399
bered	-10.941
fattig	-10.9416
aktar	-10.9442
sörj	-10.9443
särskil	-10.9471
förfära	-10.9492
eber	-10.9518
täcke	-10.9522
dol	-10.9547
ppa	-10.9558
enlighet	-10.9567
fjorton	-10.9569
hydda	-10.9569
jisreel	-10.9569
mörkblå	-10.9569
väpna	-10.9569
liknelse	-10.9569
åminnelse	-10.9569
asarja	-10.9569
fotstycken	-10.9571
förundra	-10.9571
bestånd	-10.958
sodom	-10.9581
göt	-10.9587
djuret	-10.96
gärd	-10.9609
bereda	-10.9615
ofärd	-10.9617
altaren	-10.9629
skrift	-10.9661
rakel	-10.9664
rad	-10.9693
inner	-10.9694
uppfyllde	-10.9744
gibea	-10.9778
kameler	-10.9778
upphäv	-10.9778
sebulon	-10.9778
kehat	-10.9779
offergåva	-10.9779
begärelse	-10.9782
vällukt	-10.9783
överträdelser	-10.9793
klagan	-10.9802
ond	-10.9807
övermått	-10.9815
riken	-10.9816
orenhet	-10.9818
brödet	-10.9818
kerub	-10.9822
rika	-10.9825
skickade	-10.9826
barnet	-10.9832
blott	-10.9844
hämtade	-10.9846
tröst	-10.9876
djuren	-10.988
sker	-10.9896
fel	-10.9912
,	-10.9943
häpnad	-10.9946
elig	-10.996
tjänaren	-10.9962
kare	-10.9973
överste	-10.9974
tukta	-10.9975
gry	-10.9989
sjätte	-10.999
tänder	-10.9991
vingårdar	-10.9992
värde	-10.9993
buk	-10.9994
utvalda	-10.9998
förstod	-11.0002
kyss	-11.0007
likaså	-11.0017
fastmer	-11.002
kärleken	-11.0022
grop	-11.0024
tjuren	-11.0026
förbundet	-11.0027
bitter	-11.0034
börda	-11.0051
fiskar	-11.0052
utgjuta	-11.0063
evigheter	-11.007
blinda	-11.0073
häls	-11.0097
lem	-11.0113
snö	-11.012
krossade	-11.0137
aln	-11.0165
ström	-11.0183
gärning	-11.0184
även	-11.0205
herrar	-11.0208
ljusstaken	-11.0208
templet	-11.0208
vålla	-11.0208
vederfar	-11.0209
förstling	-11.021
hövdingdöme	-11.0211
närmast	-11.0214
fång	-11.0222
förbannad	-11.0227
klippan	-11.023
riket	-11.0234
omgjorda	-11.0248
svag	-11.0259
oskyldig	-11.0265
kel	-11.0269
israeliterna	-11.0278
skriften	-11.0282
gärn	-11.0288
gator	-11.0306
döpa	-11.0309
upplyft	-11.0313
strand	-11.0315
vittnen	-11.0349
tänkt	-11.0356
förmana	-11.036
sjukdom	-11.037
ryckte	-11.0374
blind	-11.0382
rama	-11.0387
förtälj	-11.0394
jungfru	-11.041
pu	-11.0412
förnämst	-11.043
gibeon	-11.043
gideon	-11.043
ståthållar	-11.043
krönika	-11.0431
lopp	-11.0431
fågel	-11.0431
begynnelsen	-11.0436
silo	-11.0437
ört	-11.0443
jubla	-11.0446
tuktan	-11.0446
»	-11.045
föreskriv	-11.0452
förvärva	-11.046
styrka	-11.0461
båge	-11.0462
simei	-11.0464
högg	-11.0465
skjut	-11.0485
dårar	-11.0489
syndar	-11.051
behåll	-11.0516
stäng	-11.0523
hugga	-11.0525
raka	-11.0579
vunn	-11.0581
våd	-11.0581
anställ	-11.0595
länd	-11.0604
gjorda	-11.0616
hyddor	-11.0629
ödra	-11.0645
uppfyll	-11.0646
välsignad	-11.0655
bekym	-11.0657
balak	-11.0657
isaskar	-11.0657
förbundsark	-11.0658
hövitsmannen	-11.0658
keruberna	-11.0658
konungshuset	-11.066
isai	-11.0664
stolt	-11.0674
lea	-11.0674
härlig	-11.0677
utvälj	-11.0679
lammet	-11.0679
skinn	-11.068
pilar	-11.0698
timm	-11.0703
bind	-11.0704
rev	-11.0717
folkslag	-11.0722
alt	-11.0727
tvist	-11.0728
tältet	-11.0732
ling	-11.0757
huvudmän	-11.0757
storm	-11.0774
ved	-11.0803
dor	-11.082
penning	-11.0842
arbetet	-11.0852
hjältar	-11.0874
bock	-11.088
armar	-11.0882
begynn	-11.0889
underdånig	-11.089
sakarja	-11.089
vapen	-11.089
hedmark	-11.089
löst	-11.0891
judisk	-11.0891
tillfälle	-11.0891
lfte	-11.0896
fältet	-11.0896
judeen	-11.09
önska	-11.0901
övergiv	-11.0905
enskap	-11.0906
djupet	-11.0908
väldiga	-11.0916
förhärliga	-11.0928
berätta	-11.0938
vinet	-11.0954
utbred	-11.0957
krona	-11.096
förbränna	-11.0963
måltid	-11.0974
väduren	-11.0978
färdig	-11.0981
röda	-11.0998
vandr	-11.1012
visst	-11.1018
kalv	-11.1068
vete	-11.1076
lotten	-11.1099
leder	-11.1119
gläd	-11.112
kirjat	-11.1128
hindra	-11.1128
mispa	-11.1128
väktar	-11.1128
benaja	-11.1128
sträcka	-11.113
ångra	-11.113
klag	-11.1135
skona	-11.1136
lju	-11.1139
lysa	-11.1154
sammal	-11.117
fred	-11.117
följd	-11.1177
häpna	-11.1177
tjugufem	-11.1184
tanke	-11.1188
app	-11.1206
list	-11.1216
behör	-11.1227
tål	-11.1232
tung	-11.1247
stena	-11.1252
sem	-11.1253
kost	-11.1267
bredd	-11.1268
gälla	-11.1275
sörja	-11.1278
kus	-11.1278
stänger	-11.1283
uppfylld	-11.1332
samme	-11.1344
ytterst	-11.1348
betänk	-11.135
invånar	-11.1358
ingång	-11.1358
örn	-11.1364
amasja	-11.1372
filipp	-11.1372
ogudaktighet	-11.1372
sömn	-11.1372
undervisning	-11.1372
uppståndelse	-11.1372
sucka	-11.1372
semaja	-11.1372
föreståndar	-11.1372
jojakim	-11.1373
lovsjung	-11.1374
fikonträd	-11.1375
utskifta	-11.1376
skydd	-11.1379
höjd	-11.141
beläten	-11.1439
uppenbarat	-11.1456
fråg	-11.1457
skild	-11.1482
ledde	-11.1509
når	-11.1529
log	-11.1538
uppstod	-11.1586
båg	-11.1586
offerhöjder	-11.1589
skäl	-11.1599
väst	-11.16
hjordar	-11.1605
fält	-11.1615
filisté	-11.1621
hövitsman	-11.1621
drabanterna	-11.1622
myndighet	-11.1622
teckne	-11.1622
utplåna	-11.1622
tappra	-11.1622
hjul	-11.1622
anförare	-11.1623
grenar	-11.1623
lovsång	-11.1625
skrev	-11.1626
uria	-11.1638
seir	-11.1643
mus	-11.1644
drivit	-11.1647
hy	-11.1652
släppa	-11.1663
lippa	-11.1707
saliga	-11.1747
frälsare	-11.1761
vred	-11.1762
skriva	-11.1789
bockar	-11.179
växte	-11.1801
evighet	-11.1805
mätt	-11.1813
dagarna	-11.183
pil	-11.183
märke	-11.1833
förfölja	-11.1835
behålla	-11.185
röra	-11.186
vaka	-11.1867
ammi	-11.1877
jesaja	-11.1878
ädla	-11.1878
talenter	-11.1878
gräv	-11.1878
simson	-11.1879
offergärd	-11.1879
tiondedel	-11.1882
stjärnorna	-11.1884
hamat	-11.1885
höjder	-11.1888
härskara	-11.1888
aska	-11.1888
nitälskan	-11.1897
längd	-11.191
allting	-11.1913
älsk	-11.1914
avdelningar	-11.1918
syner	-11.1922
själar	-11.1925
förtorka	-11.193
åttio	-11.1935
behöva	-11.1936
kall	-11.1939
skörda	-11.1959
brunnen	-11.1987
trösk	-11.1991
redlig	-11.1993
bergsbygden	-11.1993
uppenbarade	-11.2007
klädde	-11.2008
spis	-11.2018
klipp	-11.2027
merari	-11.2041
fräls	-11.2053
junga	-11.2087
sol	-11.2093
åtto	-11.2106
löv	-11.2119
lån	-11.2122
tjän	-11.2124
teckna	-11.2128
skurna	-11.2141
hesbon	-11.2141
plötslig	-11.2141
femton	-11.2142
kungör	-11.2143
anklaga	-11.2147
press	-11.2147
tredjedel	-11.2149
underbar	-11.2149
apostlarna	-11.215
begjut	-11.2152
löften	-11.2155
assur	-11.2156
rab	-11.2156
gudstjänst	-11.2167
klaga	-11.2167
efoden	-11.2167
åkern	-11.2174
kain	-11.2209
uppenbar	-11.2217
lyste	-11.2225
uppfylla	-11.2275
ungtjur	-11.2309
böner	-11.2325
person	-11.2354
ött	-11.2367
släpp	-11.2367
fira	-11.2378
överträdelse	-11.2392
hedningar	-11.2395
kämpa	-11.2412
fränder	-11.2412
kaleb	-11.2412
äktenskapsbrott	-11.2412
konungadöme	-11.2412
trygghet	-11.2412
tavlor	-11.2412
adoni	-11.2412
tjänstekvinna	-11.2412
famn	-11.2412
satan	-11.2413
yngre	-11.2414
betyga	-11.2415
palm	-11.2416
förordna	-11.2417
byggnad	-11.242
ahasja	-11.2435
bihustru	-11.2445
anslag	-11.2455
platser	-11.247
mag	-11.2472
värn	-11.2477
befäst	-11.2492
lin	-11.2494
falska	-11.2503
kull	-11.2557
sjung	-11.2567
sib	-11.2573
kon	-11.2587
avdelning	-11.2647
överst	-11.2647
sido	-11.2656
herdar	-11.2673
lärjung	-11.2684
anda	-11.2689
räkning	-11.269
sydlandet	-11.269
buga	-11.269
trång	-11.269
vänster	-11.269
förklara	-11.269
lemmar	-11.269
lustgård	-11.269
livklädnad	-11.2693
egendom	-11.2693
flickan	-11.2696
andlig	-11.2698
fordom	-11.2698
förskräcka	-11.2701
visdom	-11.2703
safan	-11.2704
knorr	-11.2706
mängd	-11.2707
bott	-11.2715
purpurrö	-11.2723
fienden	-11.2725
hörsamma	-11.2731
dyrka	-11.274
sua	-11.2742
stol	-11.2754
yttr	-11.2762
ägare	-11.2767
riklig	-11.2785
abas	-11.2845
kore	-11.2851
grön	-11.297
barmhärtig	-11.2972
äkta	-11.2974
fromma	-11.2975
förhäv	-11.2975
häda	-11.2975
tabernakel	-11.2975
kastning	-11.2975
maaka	-11.2975
cederträ	-11.2975
förneka	-11.2977
vilo	-11.298
vilddjuret	-11.2981
sabbatsdag	-11.2982
sidon	-11.2992
pant	-11.2996
andarna	-11.3
härliga	-11.3019
bil	-11.303
korg	-11.3045
fötterna	-11.3051
trolösa	-11.3052
saml	-11.3072
bärga	-11.3072
häst	-11.3094
fåfänglig	-11.3104
sälja	-11.3107
tjuv	-11.313
stång	-11.3142
bägar	-11.3153
skicka	-11.3203
ehas	-11.3237
kades	-11.3245
dagg	-11.3247
betala	-11.3247
skålar	-11.3252
sjunk	-11.3256
dyrbara	-11.3257
tak	-11.3261
fästa	-11.3264
ständig	-11.3265
synagoga	-11.3269
bräder	-11.3269
hilkia	-11.3269
vrång	-11.3269
ägodelar	-11.3269
möta	-11.3269
rosenrö	-11.3269
molnskyn	-11.327
stolpar	-11.327
oomskurna	-11.327
tillbörlig	-11.3271
ogärningsmän	-11.3271
tårar	-11.3274
fruktansvärd	-11.3277
uttydning	-11.3294
dalja	-11.3296
villig	-11.3302
portarna	-11.3304
baner	-11.3304
sprid	-11.3308
höre	-11.3314
vita	-11.3337
dia	-11.3337
sköldar	-11.3342
unna	-11.3384
olyckan	-11.3403
känd	-11.3405
stum	-11.3405
unnit	-11.3427
pann	-11.3443
arma	-11.3451
stigar	-11.3508
arter	-11.3517
elam	-11.3534
begrava	-11.3545
fisk	-11.3547
farisé	-11.3572
aderton	-11.3572
gräshoppor	-11.3572
källor	-11.3572
lampor	-11.3572
nebukadressar	-11.3572
skaffen	-11.3572
skrymt	-11.3572
grotta	-11.3572
johanan	-11.3573
budbärare	-11.3573
fostra	-11.3573
föräldrar	-11.3573
övertäck	-11.3573
frivillig	-11.3573
frat	-11.3574
arbets	-11.3575
invig	-11.3576
fresta	-11.3576
gröda	-11.358
dyrbar	-11.3586
bryter	-11.3591
efterkommande	-11.3592
foga	-11.3593
stadsport	-11.3594
änkor	-11.3609
skilje	-11.3614
käre	-11.3631
uppenbarelse	-11.3653
saba	-11.367
mist	-11.3779
binda	-11.3779
don	-11.3796
uja	-11.3826
sjö	-11.3834
hetta	-11.3861
pryd	-11.3884
djävulen	-11.3885
möjlig	-11.3885
rebecka	-11.3885
motståndare	-11.3885
ängsla	-11.3885
girig	-11.3885
fullkomlig	-11.3885
knän	-11.3885
himmelriket	-11.3885
sorgdräkt	-11.3885
krans	-11.3886
ljungeld	-11.3886
darra	-11.3886
kakor	-11.3897
öppning	-11.3899
skyn	-11.3912
änglarna	-11.3916
länderna	-11.3931
längta	-11.3933
rusta	-11.3953
skrifter	-11.3955
stridsmän	-11.3956
förgäta	-11.3968
förbida	-11.3997
upphöjd	-11.4047
stöta	-11.4058
redliga	-11.4061
yngling	-11.4061
uträckt	-11.4062
fruktsam	-11.4067
fylla	-11.407
årsgam	-11.4091
vero	-11.4101
högmod	-11.4136
lärare	-11.4137
förståndiga	-11.416
helg	-11.4167
hemsökelse	-11.4187
överstepräst	-11.4194
gravar	-11.42
dubbel	-11.4207
förödelse	-11.4207
säker	-11.4207
tillsyningsmän	-11.4207
påskhögtid	-11.4207
stötesten	-11.4208
täckelse	-11.4208
brud	-11.4208
bäckar	-11.4208
avfällighet	-11.4209
sköka	-11.421
glädjen	-11.4211
abel	-11.4213
träldom	-11.4218
klar	-11.4219
gräset	-11.422
spets	-11.4223
damm	-11.4232
jämra	-11.4234
försvinn	-11.4236
förtälja	-11.4261
sköna	-11.4276
högre	-11.4298
höghelig	-11.4306
saret	-11.432
kamrarna	-11.4347
familj	-11.4372
ionde	-11.4397
abia	-11.44
uppehåll	-11.4402
svärja	-11.4435
bespottar	-11.4452
sabbater	-11.4488
löpa	-11.4513
hasta	-11.4526
smörj	-11.4539
dräkt	-11.454
befäl	-11.4541
dåraktig	-11.4541
ebjatar	-11.4541
hungrig	-11.4541
insikt	-11.4541
jefta	-11.4541
ämbete	-11.4541
karmel	-11.4541
vederkvick	-11.4541
lögnaktig	-11.4541
vattnen	-11.4541
beskärm	-11.4541
betyda	-11.4541
gerson	-11.4544
berömmelse	-11.4544
skuldoffer	-11.4544
mild	-11.4545
orenlighet	-11.4545
vattna	-11.4546
tillstadde	-11.4546
sångarna	-11.455
samvete	-11.4551
jungfrur	-11.4571
förströ	-11.4589
skria	-11.4589
liggande	-11.4593
märkt	-11.4626
öppe	-11.4633
fest	-11.4667
vanlig	-11.4703
jona	-11.4708
ådrag	-11.477
sorge	-11.4798
pelare	-11.4823
silv	-11.4872
amalek	-11.4884
rannsaka	-11.4886
tacksägelse	-11.4886
terebint	-11.4886
förgänglig	-11.4886
lyckosam	-11.4886
uppsluka	-11.4886
hallel	-11.4886
kedjor	-11.4886
▁----	-11.4886
brokig	-11.4886
bojor	-11.4886
dårskap	-11.4886
skicklig	-11.4886
göd	-11.4887
njuta	-11.4887
åstunda	-11.4887
hananja	-11.4887
ömka	-11.4888
räddning	-11.4889
skrivelse	-11.4893
kryddor	-11.4896
brott	-11.4901
borgare	-11.4902
godhet	-11.4902
fäderne	-11.4905
pund	-11.4906
personer	-11.496
meddela	-11.4975
upptänd	-11.4982
take	-11.5032
psaltar	-11.5068
svaga	-11.507
sälj	-11.508
gap	-11.5097
unge	-11.5106
bryt	-11.5114
förjaga	-11.5149
flod	-11.5175
sköte	-11.5181
sedd	-11.5184
hål	-11.5203
brudgum	-11.5243
tarsis	-11.5243
akacieträ	-11.5243
assyrisk	-11.5243
bespeja	-11.5243
fyrfa	-11.5243
jebuséerna	-11.5243
kejsaren	-11.5243
trumpeter	-11.5243
väder	-11.5243
gamle	-11.5243
ivrig	-11.5243
faderlöse	-11.5243
plågor	-11.5243
baesa	-11.5243
sköko	-11.5243
delaktig	-11.5243
släppt	-11.5243
himla	-11.5243
riktig	-11.5244
vredga	-11.5245
ussia	-11.5245
sekreteraren	-11.5247
grönska	-11.5249
röd	-11.5254
vilddjur	-11.5256
anska	-11.5256
bedrev	-11.5259
elände	-11.526
havs	-11.526
arbetare	-11.5263
hemsökelsen	-11.5265
offr	-11.5278
druvor	-11.528
törnen	-11.5331
strödd	-11.5365
esai	-11.5369
rädd	-11.5396
begåv	-11.5449
vänlig	-11.5465
summa	-11.5473
syssl	-11.5474
bedrövad	-11.5475
jok	-11.5483
salig	-11.5496
form	-11.5545
styrk	-11.5562
stängd	-11.5563
fördärvlig	-11.5581
mörk	-11.559
amnon	-11.5613
etiopier	-11.5613
fyrfotadjur	-11.5613
hämna	-11.5613
inälvor	-11.5613
spärra	-11.5613
glans	-11.5613
sallum	-11.5613
olje	-11.5614
förstocka	-11.5614
drömmar	-11.5615
hagg	-11.5615
nasir	-11.5616
förföljare	-11.5619
skändlighet	-11.5624
sinnig	-11.563
hjältarna	-11.5639
lagd	-11.5639
fångna	-11.5643
befallningar	-11.5644
andan	-11.5675
basuner	-11.5685
bävan	-11.5722
beläte	-11.5898
vinner	-11.5917
håg	-11.5918
fånge	-11.5923
olyck	-11.5957
legat	-11.5991
fikon	-11.5993
kvarleva	-11.5995
smädelse	-11.5998
bälte	-11.5998
handfyllning	-11.5998
hjälte	-11.5998
nådastolen	-11.5998
stjäl	-11.5998
hagel	-11.5998
njurar	-11.5998
utkräva	-11.5998
svärfader	-11.5998
förmörka	-11.5999
skott	-11.5999
seruja	-11.5999
vedermöd	-11.6
ordspråk	-11.6
kränk	-11.6001
församlingarna	-11.6004
semes	-11.6005
understöd	-11.6007
stormvind	-11.6011
offerhöjd	-11.6015
bedriva	-11.6015
herdarna	-11.602
strömma	-11.6021
fördold	-11.606
förvilla	-11.6121
förlita	-11.6133
bedröva	-11.6144
tjur	-11.617
ödmjuk	-11.6216
bönhör	-11.6259
skapare	-11.6265
stann	-11.6275
ekron	-11.6278
lasta	-11.6319
tycke	-11.6327
kamrar	-11.6383
bröllop	-11.6398
förgrymmelse	-11.6398
mesullam	-11.6398
rimmon	-11.6398
samarien	-11.6398
vux	-11.6398
berättelse	-11.6398
misskund	-11.6398
plundring	-11.6398
nebat	-11.6398
äventyr	-11.6398
arnon	-11.6398
betalning	-11.6398
trapp	-11.6398
harpor	-11.6398
töm	-11.6398
uträcka	-11.6398
tackoffret	-11.6398
seraja	-11.6398
åkrar	-11.6399
rymma	-11.64
▁';	-11.64
darej	-11.64
ståndaktighet	-11.6401
förmådde	-11.6401
rinna	-11.6403
skipa	-11.6404
kuva	-11.6405
inseg	-11.6406
helgedomssik	-11.6409
hårda	-11.6423
amon	-11.6498
anak	-11.6523
kvarlevan	-11.6544
förfärad	-11.6554
hemlig	-11.6572
ynglingar	-11.6583
laki	-11.6678
rid	-11.6692
tvag	-11.6703
skuren	-11.6719
israeliter	-11.6803
synagogor	-11.6814
skägg	-11.6814
läsa	-11.6814
majestät	-11.6814
tretton	-11.6814
viftoffer	-11.6814
klagorop	-11.6814
sexton	-11.6814
hebré	-11.6814
härbärge	-11.6814
jotam	-11.6814
bommar	-11.6814
middag	-11.6814
asdod	-11.6814
nittio	-11.6815
drack	-11.6815
pliktig	-11.6815
spira	-11.6815
himmelska	-11.6816
feta	-11.6816
ohol	-11.6816
natur	-11.6817
egla	-11.6818
spott	-11.6821
underhövitsmän	-11.6825
rådslag	-11.6829
torg	-11.6839
smaka	-11.6849
kniv	-11.6869
dräp	-11.6988
tröskel	-11.7005
ljug	-11.706
altar	-11.7099
hemsökt	-11.7136
begynnelse	-11.724
plant	-11.7248
fönstre	-11.7249
dörrvaktarna	-11.7249
gomorra	-11.7249
granatäpple	-11.7249
hebreisk	-11.7249
maaseja	-11.7249
killing	-11.7249
näpst	-11.7249
egyptisk	-11.7249
2	-11.7249
hasael	-11.7249
tillspillogiv	-11.7249
saktmod	-11.7249
makir	-11.725
tjock	-11.725
kungjor	-11.725
susan	-11.7251
utfärda	-11.7252
besinna	-11.7252
mattan	-11.7256
aseror	-11.7257
geba	-11.7257
bedrivit	-11.7258
rådslut	-11.7259
ledning	-11.727
likadan	-11.727
hiram	-11.7276
uttyd	-11.7301
förfärdiga	-11.7307
högmodig	-11.7353
kän	-11.7353
efes	-11.7356
kol	-11.7391
avskil	-11.7398
sysslor	-11.7416
förtörnad	-11.7517
spill	-11.7536
bida	-11.7553
bruk	-11.7555
druv	-11.7657
egyptier	-11.7682
ståndaktig	-11.77
bjälk	-11.7704
förvirring	-11.7704
macedonien	-11.7704
perisséerna	-11.7704
publikan	-11.7704
serubbabel	-11.7704
bokrulle	-11.7704
mötte	-11.7704
grundvalar	-11.7704
nabal	-11.7704
åsninna	-11.7704
hungra	-11.7704
ersättning	-11.7704
tjänarinnor	-11.7704
våning	-11.7704
peres	-11.7704
smörjelseolja	-11.7704
påskalamme	-11.7704
ödelagd	-11.7705
nabot	-11.7705
leviten	-11.7705
amalekiterna	-11.7705
trädgård	-11.7706
redskap	-11.7706
begrunda	-11.7707
lydnad	-11.7708
blodskuld	-11.7712
bakhåll	-11.7712
elva	-11.7715
adam	-11.7724
vedergällning	-11.7734
lasar	-11.7742
kiv	-11.7764
kind	-11.7772
orolig	-11.7787
konungslig	-11.7802
bespotta	-11.7828
uppmana	-11.7927
kia	-11.7957
syra	-11.8014
slakt	-11.8061
riva	-11.8142
bortförd	-11.8143
leviter	-11.8163
lup	-11.8169
äldr	-11.8179
äktenskapsbryt	-11.818
cypress	-11.818
apostel	-11.818
häftig	-11.818
isebel	-11.818
käpp	-11.818
nilfloden	-11.818
persien	-11.818
rämna	-11.818
töck	-11.818
vånda	-11.818
0	-11.818
kruka	-11.818
ouppsåtlig	-11.818
sammankomst	-11.818
släcka	-11.818
arvslott	-11.818
ypperst	-11.818
vapendragare	-11.818
knapp	-11.818
genomborra	-11.818
orättrådig	-11.818
sisera	-11.818
vifta	-11.818
elkana	-11.818
yngste	-11.8181
kunglig	-11.8181
timna	-11.8181
årsgammal	-11.8181
noomi	-11.8181
slöj	-11.8181
horon	-11.8181
krok	-11.8182
bygd	-11.8183
övertäckte	-11.8184
amasa	-11.8185
hån	-11.8185
tungor	-11.8185
vaken	-11.8186
kvist	-11.819
slet	-11.8192
murpelar	-11.8486
rumme	-11.8522
törne	-11.856
skändlig	-11.867
assar	-11.8677
fönster	-11.868
ahitofel	-11.868
anatot	-11.868
bröstskölden	-11.868
bädd	-11.868
glöm	-11.868
hesron	-11.868
hivéerna	-11.868
hundarna	-11.868
sammansvärjning	-11.868
sannfärdig	-11.868
streck	-11.868
släktregist	-11.868
klagosång	-11.868
netanja	-11.868
himlarna	-11.868
surdeg	-11.868
stappla	-11.868
kräv	-11.868
mutor	-11.868
tidsålder	-11.868
ninev	-11.868
simri	-11.868
tyckte	-11.8681
tillkommelse	-11.8681
ahikam	-11.8681
varelser	-11.8681
övermodig	-11.8681
obadja	-11.8681
levitisk	-11.8682
halm	-11.8682
seglade	-11.8682
skyarna	-11.8686
irsa	-11.8691
telning	-11.8698
melek	-11.8699
smord	-11.87
köttslig	-11.871
tröskplats	-11.8743
oomskure	-11.8797
spetälsk	-11.8826
fåfäng	-11.8946
brute	-11.8988
iver	-11.9046
blommor	-11.9206
hårdnacka	-11.9206
jearim	-11.9206
libna	-11.9206
plugg	-11.9206
suckot	-11.9206
systrar	-11.9206
jordbävning	-11.9206
krukmakar	-11.9206
lampa	-11.9206
lystnad	-11.9206
skördetiden	-11.9206
hårdhet	-11.9206
utsaga	-11.9206
rådsherrar	-11.9206
cedrar	-11.9206
nordlandet	-11.9206
åklagare	-11.9206
fördrivna	-11.9207
abisai	-11.9207
prydnad	-11.9207
smörjelse	-11.9208
gläns	-11.9208
innor	-11.9208
syndoffret	-11.9209
landsmän	-11.921
vältra	-11.9213
orygglig	-11.9216
förrådshus	-11.9224
skarp	-11.9226
rötter	-11.9291
koka	-11.9323
öpp	-11.9532
tempelkamrar	-11.9545
lydig	-11.9661
ostraffad	-11.9699
övrig	-11.973
nitälska	-11.9733
apostlar	-11.9743
avfällig	-11.976
belägring	-11.9762
förnumm	-11.9762
fogdar	-11.9762
instrument	-11.9762
kräldjur	-11.9762
landshövdingen	-11.9762
ruiner	-11.9762
skillnad	-11.9762
späd	-11.9762
tillrättavisning	-11.9762
kegila	-11.9762
misshaga	-11.9762
försagd	-11.9762
tobia	-11.9762
landshövdingar	-11.9762
doppa	-11.9762
förödd	-11.9762
fullkomna	-11.9763
uppror	-11.9764
lyte	-11.9764
nätter	-11.9765
hasab	-11.9765
'	-11.9773
röj	-11.9784
förhänge	-11.9793
getter	-11.9806
löp	-11.9809
plöj	-11.9876
brand	-11.9908
elifa	-11.9925
aksa	-11.9948
ajot	-11.9983
yng	-11.9998
ång	-12.0022
begynt	-12.01
mönstrade	-12.0343
löje	-12.0348
jakim	-12.0349
böljor	-12.035
omskärelse	-12.035
blomster	-12.035
cymbal	-12.035
eljasib	-12.035
etiopien	-12.035
grannar	-12.035
horeb	-12.035
levnad	-12.035
rytande	-12.035
skonsamhet	-12.035
skådebröd	-12.035
dörrpost	-12.035
tempelsalen	-12.035
oavlåtlig	-12.035
rekab	-12.035
tordön	-12.035
skölj	-12.035
långmodig	-12.035
havsländerna	-12.035
ussiel	-12.035
uthärda	-12.035
endräktig	-12.035
ahimelek	-12.035
inföding	-12.035
atalja	-12.0351
rabbi	-12.0351
almon	-12.0352
mulåsn	-12.0353
bekant	-12.0359
skilt	-12.0399
lövhyddo	-12.0426
ppe	-12.0447
förmaning	-12.0532
skåd	-12.0539
gasell	-12.059
spring	-12.0618
ljas	-12.0651
dyr	-12.0672
avkomling	-12.0696
doft	-12.0734
slipp	-12.075
purpur	-12.0899
stjärnor	-12.0962
nebusa	-12.0975
åsninnor	-12.0975
frestelse	-12.0975
;	-12.5365
:	-12.5392
!	-12.7753
6	-12.8229
1	-12.9657
ó	-13.1324
9	-13.1324
7	-13.3324
3	-13.3324
5	-13.3324
í	-13.5824
]	-14.4157
8	-15.4152
4	-15.4153
(	-15.4154
?	-15.4155
.	-15.4156
á	-15.4157
ä	-15.4157
