<pad>	0
</s>	0
<unk>	0
▁a	-3.46217
.	-3.60605
,	-3.65469
▁an	-3.79276
▁	-3.90628
▁agus	-3.9656
▁ar	-4.059
▁le	-4.41406
▁na	-4.41975
▁go	-4.44324
▁i	-4.57021
e	-4.59243
s	-4.61627
r	-4.67201
▁do	-4.71077
-	-4.78142
a	-4.78694
í	-4.83891
▁ag	-5.00653
▁covid	-5.2323
n	-5.31126
▁d	-5.31249
dh	-5.32193
▁nó	-5.33622
▁’	-5.34845
▁de	-5.40718
-19	-5.48963
▁seo	-5.49676
l	-5.5309
ch	-5.56648
t	-5.57474
ú	-5.5856
▁mar	-5.58802
▁tú	-5.61155
▁chun	-5.6215
d	-5.63012
▁eile	-5.63401
▁n	-5.65916
igh	-5.66576
▁bhfuil	-5.70185
▁sa	-5.71056
▁(	-5.72694
▁c	-5.76864
▁is	-5.81783
▁sé	-5.81924
▁t	-5.82807
▁ó	-5.83548
▁in	-5.84944
u	-5.85013
▁nío	-5.85816
▁atá	-5.87254
▁tá	-5.92079
ir	-5.9226
ach	-5.92677
il	-5.93264
in	-5.96203
is	-5.97935
c	-5.98402
o	-5.99889
▁Tá	-6.00565
na	-6.05308
▁féidir	-6.06454
)	-6.1086
▁cás	-6.1154
▁é	-6.12176
▁b	-6.1284
▁daoine	-6.1365
adh	-6.16271
▁sláinte	-6.17349
▁faoi	-6.17372
eann	-6.19563
▁duine	-6.21616
▁leis	-6.22686
ithe	-6.22751
íonn	-6.23047
▁Is	-6.23935
▁D	-6.25616
▁sin	-6.27165
▁mó	-6.29488
cov	-6.32038
i	-6.34286
▁raibh	-6.36185
▁ná	-6.3684
ar	-6.39487
▁aon	-6.397
ann	-6.40448
:	-6.41095
ta	-6.41211
▁má	-6.4401
iú	-6.4453
▁Má	-6.457
aí	-6.46369
▁ort	-6.46568
▁víreas	-6.47153
▁sars	-6.47284
▁bheith	-6.50483
p	-6.50781
▁dhéanamh	-6.52647
as	-6.5302
▁bás	-6.53513
an	-6.53804
▁ch	-6.54535
m	-6.56275
▁iad	-6.58923
g	-6.59477
▁éis	-6.5954
f	-6.61136
▁Ní	-6.61868
▁ach	-6.62543
▁féin	-6.63255
la	-6.63359
▁An	-6.63452
á	-6.63523
ó	-6.63766
▁g	-6.64658
te	-6.65321
▁fhéadfa	-6.65352
▁chur	-6.65888
ic	-6.65981
▁gur	-6.66365
▁lá	-6.66781
▁duit	-6.66789
▁bhí	-6.66871
gach	-6.67211
▁úsáid	-6.67589
▁tar	-6.68263
aithe	-6.68443
▁rud	-6.68448
▁p	-6.68874
▁roinnt	-6.68957
▁comharthaí	-6.69713
▁dhaoine	-6.70851
idh	-6.71483
▁siad	-6.72366
▁ina	-6.74323
▁ón	-6.74352
▁bh	-6.74459
▁h	-6.7447
im	-6.74574
▁th	-6.74977
▁den	-6.75551
▁f	-6.7603
2	-6.76209
▁ní	-6.76342
▁orthu	-6.76663
bh	-6.76738
1	-6.77817
▁san	-6.78238
b	-6.79761
▁ann	-6.80713
▁don	-6.81015
▁fh	-6.81271
▁2	-6.82142
acha	-6.83237
▁thug	-6.83458
▁chóir	-6.84067
▁vacsaín	-6.84087
▁márta	-6.86737
▁líon	-6.86789
▁2020	-6.87098
▁tástáil	-6.881
▁C	-6.88267
mh	-6.89482
▁T	-6.91236
▁roimh	-6.91717
▁trí	-6.92928
▁5	-6.93119
é	-6.94871
▁I	-6.95009
▁amach	-6.95253
▁4	-6.95297
ra	-6.9592
▁mór	-6.96132
aíonn	-6.96224
0	-6.96545
áil	-6.96588
-2	-6.96852
▁freisin	-6.97935
▁isteach	-6.98132
▁gc	-6.984
▁dóibh	-6.98934
▁B	-6.99503
▁s	-7.00062
▁leat	-7.00353
án	-7.01265
▁3	-7.01549
▁fáil	-7.01789
▁ba	-7.01965
▁amháin	-7.01969
▁fu	-7.03055
▁nuair	-7.03238
▁idir	-7.03559
▁mb	-7.03661
on	-7.0421
▁gan	-7.04421
▁chomh	-7.05145
4	-7.05948
▁1	-7.06014
▁ionfhabhtaithe	-7.06166
áin	-7.06283
▁gheall	-7.06704
▁as	-7.0674
▁chuig	-7.07256
▁/	-7.08334
▁sonraí	-7.10002
aigh	-7.10639
▁bhíonn	-7.10905
th	-7.12122
▁Tuairiscíodh	-7.13391
y	-7.13734
▁ráig	-7.14036
anna	-7.14886
▁linn	-7.15188
▁nua	-7.16006
▁fanacht	-7.17515
▁leor	-7.17564
▁Mar	-7.177
8	-7.17945
or	-7.18579
réir	-7.18703
▁aghaidh	-7.1932
▁fháil	-7.19498
tha	-7.19819
▁lámha	-7.20125
áirítear	-7.20563
▁sh	-7.20619
▁Ag	-7.20693
▁dtí	-7.20889
eanna	-7.21338
▁chuid	-7.22449
▁acu	-7.22468
▁air	-7.22923
▁mí	-7.23492
▁maidi	-7.24128
▁dul	-7.24352
▁m	-7.24478
▁cásanna	-7.24598
each	-7.24738
▁measc	-7.2499
▁aontaithe	-7.24992
▁S	-7.25672
▁feabhra	-7.263
▁scaipeadh	-7.26302
9	-7.26547
▁teaghlaigh	-7.27613
ill	-7.27617
▁tástála	-7.28215
3	-7.28319
▁Ba	-7.2874
it	-7.28774
▁chás	-7.28872
oir	-7.29532
le	-7.2954
▁haghaidh	-7.29632
▁aghaidhe	-7.2974
al	-7.30001
tear	-7.30952
▁chéad	-7.30991
▁aip	-7.31516
▁coronavirus	-7.31689
▁sna	-7.32782
▁víris	-7.33779
am	-7.35363
▁tugadh	-7.35941
▁eanáir	-7.36646
▁bhaile	-7.36747
▁fógra	-7.36998
eas	-7.3723
▁dá	-7.37352
▁hiomláin	-7.38112
;	-7.38852
h	-7.39309
ia	-7.40222
▁riospráide	-7.40351
▁tuairiscíodh	-7.4111
▁tsín	-7.4111
▁poiblí	-7.41872
▁thabhairt	-7.41872
cha	-7.4257
▁”	-7.42641
▁mbeadh	-7.43501
▁l	-7.44131
▁bhfeidhm	-7.44197
▁cur	-7.44376
▁ard	-7.44678
id	-7.44739
ear	-7.44956
▁A	-7.45069
▁uair	-7.45167
-19.	-7.45391
▁maith	-7.45801
ad	-7.45979
▁aois	-7.46231
re	-7.46269
nach	-7.46521
▁síne	-7.47422
▁-	-7.47603
▁bearta	-7.48216
▁agat	-7.49323
▁“	-7.49418
eadh	-7.49693
inn	-7.50491
▁faoin	-7.50517
▁galar	-7.51723
▁chuir	-7.52465
▁pháiste	-7.53223
▁leighis	-7.54102
▁bhaineann	-7.54118
▁neamh	-7.54244
▁feadh	-7.54432
ith	-7.54666
▁10	-7.54764
▁stáit	-7.54958
5	-7.55051
6	-7.5566
▁shampla	-7.55828
▁leanaí	-7.55834
íodh	-7.55981
imh	-7.56743
7	-7.56761
▁leo	-7.57118
ca	-7.57188
▁am	-7.57442
▁dhochtúir	-7.57606
▁gcásanna	-7.5764
▁ionfhabhtú	-7.58006
▁tír	-7.58687
▁9	-7.59167
os	-7.59399
▁tíortha	-7.59416
ig	-7.59597
▁á	-7.599
▁ionad	-7.59978
▁cúram	-7.60056
ag	-7.60267
▁othair	-7.60334
gh	-7.60658
▁Déan	-7.60706
ma	-7.60712
▁chaitheamh	-7.61265
úil	-7.61503
ógraíodh	-7.61743
▁dhá	-7.6196
▁scoileanna	-7.62254
▁clúdach	-7.62301
▁gá	-7.62793
▁iomlán	-7.63246
▁srianta	-7.63293
teagmháil	-7.64546
▁dearfach	-7.66022
ais	-7.66139
▁14	-7.66482
nn	-7.66741
ol	-7.66773
▁Ná	-7.67079
▁siú	-7.67688
▁mh	-7.67943
▁chéile	-7.68032
v	-7.68059
▁aibreán	-7.68993
air	-7.69111
).	-7.69236
▁20	-7.69749
▁bhf	-7.69803
▁Ar	-7.702
eidh	-7.70278
▁domhain	-7.71023
uithe	-7.7128
▁rialtas	-7.71298
▁"	-7.71362
▁Dífh	-7.73098
▁toradh	-7.731
▁gh	-7.73499
▁comh	-7.74034
▁who	-7.74445
ne	-7.74455
ín	-7.74847
artha	-7.75117
acht	-7.75134
'	-7.75306
us	-7.7609
óg	-7.76397
▁luath	-7.7659
▁6	-7.76693
▁8	-7.76995
▁sóisialta	-7.77375
▁beag	-7.77378
▁comhairle	-7.77554
ála	-7.77623
▁ospidéal	-7.77635
▁7	-7.77654
▁mbei	-7.77741
▁hcov	-7.77805
▁fhógair	-7.78474
▁déanaí	-7.78627
úirt	-7.78708
onn	-7.79403
▁–	-7.79585
▁thástáil	-7.79585
▁mura	-7.79587
▁F	-7.7962
▁mhí	-7.79819
om	-7.80097
▁bhféadfa	-7.80517
ce	-7.8089
▁De	-7.81155
▁srian	-7.81693
▁fuair	-7.8202
nig	-7.82575
ip	-7.82712
▁léir	-7.82805
▁minic	-7.82995
▁bhás	-7.83002
▁bia	-7.8341
tar	-7.83552
▁sc	-7.83839
▁19	-7.84014
▁cé	-7.84212
▁thart	-7.84366
▁cinn	-7.844
▁Bhí	-7.84991
▁déan	-7.85174
▁náisiúnta	-7.85376
▁milliún	-7.86524
▁wuhan	-7.86524
▁chosaint	-7.86524
▁tioncha	-7.86525
▁cosúil	-7.86533
),	-7.86941
-19,	-7.8701
▁dh	-7.87696
▁teagmhála	-7.87729
▁glao	-7.87731
▁mbaol	-7.87757
ola	-7.88167
▁ceann	-7.88528
▁os	-7.88895
▁léinn	-7.88956
ac	-7.8901
▁riosca	-7.90183
▁Cuir	-7.90192
▁cheart	-7.90293
▁fhaigh	-7.90463
▁r	-7.90493
▁G	-7.9067
▁vacsaíní	-7.91231
▁cuairt	-7.91406
▁háirithe	-7.91433
▁casacht	-7.91479
▁leith	-7.91925
▁oibre	-7.9265
▁lasmuigh	-7.92699
▁thor	-7.93036
▁dó	-7.9311
w	-7.93222
▁ghnáth	-7.93981
▁mers	-7.93989
▁ph	-7.94351
aíodh	-7.95113
oc	-7.95421
da	-7.9573
▁theas	-7.96212
▁11	-7.96341
▁láthair	-7.96596
ian	-7.96603
▁áit	-7.96604
▁suas	-7.96673
io	-7.96677
▁céanna	-7.96693
all	-7.96735
▁óstach	-7.97217
▁Go	-7.97231
aoi	-7.97335
▁cheann	-7.97912
▁laghdú	-7.97928
▁ghalair	-7.97928
▁fhéidir	-7.97929
▁obair	-7.9793
▁24	-7.9894
▁dúnadh	-7.9928
▁iarracht	-7.99305
▁leibhéal	-7.9931
▁Chuir	-7.99408
▁paindéim	-7.99605
▁coraintín	-7.99633
▁Cé	-7.99634
▁tinnis	-8.00886
átha	-8.01113
▁taistil	-8.02038
▁bealtaine	-8.02049
▁rinne	-8.0205
▁gcuid	-8.02067
▁choinneáil	-8.02102
▁me	-8.02276
▁airde	-8.0235
▁éagsúla	-8.02407
▁co	-8.02534
ocht	-8.02708
▁u	-8.03085
▁mhéada	-8.03126
▁laghad	-8.03447
▁cuireadh	-8.03488
▁um	-8.03616
omh	-8.03952
íocht	-8.0398
▁torthaí	-8.04876
ítear	-8.04935
▁roinn	-8.05329
int	-8.05353
óir	-8.05774
▁bliain	-8.06325
▁masc	-8.06328
▁dearbhaithe	-8.06367
▁15	-8.06962
▁tarchur	-8.07758
▁bharr	-8.07803
▁M	-8.0814
amh	-8.08465
▁mo	-8.08486
,000	-8.08684
ing	-8.08908
▁fós	-8.09293
▁v	-8.09336
▁ráta	-8.09426
▁imní	-8.09441
▁tinn	-8.09526
"	-8.10574
▁taisteal	-8.10803
▁éigeandála	-8.10803
▁Mura	-8.10804
aire	-8.11424
00	-8.11557
the	-8.11703
onas	-8.11822
eacha	-8.12054
▁othar	-8.12059
ur	-8.12251
ath	-8.12387
onaid	-8.12986
ard	-8.13506
▁dt	-8.13711
▁eolas	-8.14499
en	-8.14618
▁ár	-8.14654
?	-8.15491
▁cliath	-8.15491
▁cosc	-8.15563
▁rialtais	-8.15608
▁síos	-8.15645
▁iompar	-8.15674
▁líne	-8.16048
▁scoil	-8.16177
▁eis	-8.16412
ion	-8.16669
ite	-8.16865
▁iodáil	-8.17104
▁meitheamh	-8.17104
▁láithreach	-8.17105
agann	-8.17115
▁próitéin	-8.17358
at	-8.17715
íos	-8.18404
óidh	-8.18729
▁fiabhras	-8.18744
▁2019	-8.18763
▁más	-8.19536
▁23	-8.19875
▁ga	-8.20063
▁N	-8.2033
de	-8.20609
▁12	-8.21236
▁lú	-8.21327
▁Bei	-8.21518
thas	-8.2195
▁laistigh	-8.22105
▁ndaoine	-8.22106
▁gcoinne	-8.22106
▁cabhr	-8.22106
▁fliú	-8.22108
▁dáileog	-8.22122
▁Nua	-8.22157
▁ceal	-8.2244
rú	-8.22646
▁fss	-8.22664
nna	-8.2294
▁13	-8.22974
▁dteagmháil	-8.23007
mhail	-8.23386
▁Lé	-8.23519
▁eipidéim	-8.23761
▁cionn	-8.23832
▁rianú	-8.23833
▁br	-8.23837
eachta	-8.23869
cht	-8.23959
óirí	-8.23984
▁thái	-8.24305
sta	-8.24384
▁fad	-8.25011
eart	-8.25331
▁idirnáisiúnta	-8.25584
▁dhiaidh	-8.25584
▁cuid	-8.25586
▁measa	-8.25659
▁sula	-8.25687
▁mac	-8.25705
▁chomharthaí	-8.26004
▁baint	-8.26796
▁méad	-8.27268
▁príomh	-8.27362
▁cúraim	-8.27369
▁ainmhithe	-8.27369
▁chloig	-8.27369
▁tapa	-8.27372
eoirí	-8.2744
lann	-8.27705
▁ceart	-8.27725
▁bun	-8.28015
sh	-8.28082
íoch	-8.29082
▁áirithe	-8.2919
imid	-8.29229
▁díreach	-8.29317
▁chosc	-8.29404
▁sí	-8.29601
▁oibrithe	-8.29657
▁teacht	-8.29721
ine	-8.29922
ge	-8.30085
▁éifeachtach	-8.30252
▁dí	-8.30626
▁Cuirea	-8.30923
ba	-8.30997
▁freastal	-8.31039
▁daonna	-8.3104
▁galair	-8.3104
▁dhuine	-8.3106
▁Faoi	-8.31098
▁mha	-8.31113
▁imeachta	-8.31179
faidh	-8.3127
▁seirbhísí	-8.31771
▁18	-8.32512
lo	-8.32703
▁chomhairle	-8.32926
▁deireadh	-8.32929
▁súil	-8.3316
▁2020.	-8.33288
irt	-8.33932
▁fo	-8.34092
▁staidéar	-8.34849
▁stát	-8.3485
▁riocht	-8.34855
▁mheas	-8.34881
▁the	-8.34914
▁16	-8.35209
▁Lean	-8.35287
▁bhaint	-8.35392
▁fiú	-8.35658
▁ma	-8.35729
▁22	-8.35758
▁Ach	-8.36012
▁cuir	-8.36685
▁thuairisc	-8.36753
▁coitianta	-8.3681
▁pearsanta	-8.3681
▁cúig	-8.36813
▁imdhíonachta	-8.3682
▁cúis	-8.36823
▁áiteanna	-8.36927
▁tíre	-8.37108
oisc	-8.37613
fh	-8.37902
▁30	-8.38699
▁foláireamh	-8.38821
▁eagraíocht	-8.38822
▁dara	-8.38863
onad	-8.39001
▁nós	-8.39027
▁rialú	-8.39088
▁bunúsacha	-8.39105
lú	-8.397
lt	-8.40012
▁bu	-8.40139
▁200	-8.4032
▁seirbhís	-8.40541
▁se	-8.40625
unaithe	-8.40731
▁fíneá	-8.40854
▁déine	-8.40877
▁méid	-8.4094
éir	-8.40977
▁pian	-8.41055
▁fearr	-8.41294
▁ialtóga	-8.41458
▁tábhachtach	-8.41505
éin	-8.41863
▁w	-8.42076
▁Fan	-8.42098
▁dochtúir	-8.42118
▁leath	-8.4247
ions	-8.42668
▁choinne	-8.42933
▁mbaile	-8.42934
▁tabhair	-8.42934
▁mhór	-8.42941
▁chúis	-8.42941
▁mbásanna	-8.42983
aonrú	-8.42996
▁Ina	-8.43037
ord	-8.43264
▁rna	-8.4362
▁ha	-8.43655
ní	-8.43874
op	-8.44168
▁mui	-8.44406
ras	-8.44777
▁te	-8.44953
▁gcás	-8.45012
z	-8.45062
▁mhárta	-8.45062
▁hairíonna	-8.45112
eamh	-8.45173
▁Co	-8.45441
▁fola	-8.45464
illeadh	-8.45985
▁thar	-8.46321
▁chos	-8.46682
▁Tug	-8.47087
▁daonra	-8.47236
▁uait	-8.47237
▁cheana	-8.47244
▁domhanda	-8.47262
▁ansin	-8.47518
eacht	-8.4757
achta	-8.47751
▁Fua	-8.47803
▁víreasach	-8.48382
0%	-8.48421
▁bhrí	-8.48571
▁bhun	-8.49124
▁gco	-8.49141
▁míochaine	-8.49458
▁sraothartach	-8.49458
▁timpeall	-8.49458
▁héireann	-8.49458
▁ghluaiseachtaí	-8.49459
▁leanbh	-8.49468
tra	-8.49481
éid	-8.49581
ap	-8.49671
▁rá	-8.4989
▁tréimhs	-8.4995
▁arís	-8.50142
▁lár	-8.50311
▁to	-8.51308
áis	-8.5158
▁bpaindéim	-8.51731
▁ndearna	-8.51731
▁pobail	-8.51731
▁cosanta	-8.51731
▁Úsáid	-8.51731
▁géarmhíochaine	-8.51732
▁rianair	-8.51771
▁treala	-8.51838
▁bhfaigh	-8.51926
▁chásanna	-8.52009
▁tharla	-8.52069
éil	-8.52168
▁ionfhabhtuithe	-8.52235
▁lua	-8.52539
▁sp	-8.52543
▁covanna	-8.5322
▁ró	-8.53636
k	-8.53825
óis	-8.53883
▁aire	-8.53981
▁dhéanann	-8.54056
▁diúltach	-8.54056
▁nollaig	-8.54056
▁taighde	-8.54107
▁26	-8.54128
oidh	-8.5423
▁drugaí	-8.54313
▁baol	-8.54417
▁fhoir	-8.54479
▁ng	-8.55117
▁chu	-8.55174
▁athr	-8.55526
lacha	-8.56042
▁cófra	-8.56437
▁sheachaint	-8.56437
▁glan	-8.56442
▁réamh	-8.56454
▁so	-8.56622
▁ospidéil	-8.56764
▁tr	-8.57237
▁déanta	-8.57314
x	-8.57799
éim	-8.58129
áit	-8.58145
▁28	-8.58479
irí	-8.58647
iv	-8.5884
▁choróinvíris	-8.58876
▁gcéad	-8.58877
▁dtús	-8.58883
▁dtugtar	-8.58895
▁25	-8.58946
▁chéim	-8.59032
▁st	-8.59271
▁céim	-8.59452
othar	-8.59609
ireacht	-8.597
▁17	-8.59708
▁cho	-8.59723
▁Tar	-8.5982
▁ath	-8.59851
íochta	-8.60074
lár	-8.60506
43	-8.60952
▁k	-8.61045
▁sábháilte	-8.61309
▁eorpach	-8.61376
▁leanúnach	-8.61376
▁2021	-8.61377
▁fios	-8.61379
▁againn	-8.61394
▁gceart	-8.61512
▁niúmóine	-8.61562
▁breise	-8.61626
▁leagan	-8.61806
▁cóir	-8.61847
far	-8.62406
ib	-8.62625
óid	-8.63182
▁ama	-8.63428
me	-8.63452
▁chibear	-8.63941
▁áireamh	-8.63941
▁reatha	-8.63941
▁suntasach	-8.63941
▁aige	-8.6404
if	-8.64082
▁fhorbairt	-8.64095
ata	-8.64158
othú	-8.64246
▁deara	-8.6431
▁láimhe	-8.64331
▁meán	-8.64405
úsáid	-8.64407
▁21	-8.64474
▁córas	-8.6489
▁rudaí	-8.65114
▁theast	-8.65348
▁paindéime	-8.65937
▁su	-8.66239
fear	-8.66249
▁Coinn	-8.66322
▁bliana	-8.66572
▁chinntiú	-8.66572
▁dhomhanda	-8.66572
▁oideachais	-8.66572
▁dúnta	-8.66572
▁dlúth	-8.66573
▁oiread	-8.66573
▁bhéal	-8.66676
▁diagnóis	-8.66688
▁cosaint	-8.66768
seachas	-8.66772
▁athrú	-8.67581
oga	-8.6766
sanna	-8.67676
▁bhei	-8.67743
lacht	-8.67811
▁fada	-8.67867
▁Le	-8.68425
eithre	-8.69277
▁maisc	-8.69319
▁shrón	-8.69335
hlat	-8.69373
▁dócha	-8.69424
▁taobh	-8.6959
iríonn	-8.69877
aid	-8.69933
▁seachtaine	-8.69973
▁rial	-8.70024
▁Sa	-8.70411
▁vacsaínithe	-8.70566
éigh	-8.70632
▁saor	-8.70821
▁ra	-8.70939
▁In	-8.71646
▁fhág	-8.71956
▁lámh	-8.72013
▁frith	-8.72049
uiscint	-8.72052
▁Oscailt	-8.72052
▁astrazeneca	-8.72052
▁eacnamaíoch	-8.72052
▁grúpa	-8.72052
▁phaindéim	-8.72052
▁sholáthar	-8.72052
▁dtíortha	-8.72053
▁uisce	-8.72053
▁roghn	-8.72053
▁cóireáil	-8.72054
▁liosta	-8.72094
▁dé	-8.72147
▁freagra	-8.722
▁lae	-8.72255
▁tástálacha	-8.72322
álacha	-8.72352
▁oscailte	-8.72389
▁tógálach	-8.72434
▁aonair	-8.72555
▁díobh	-8.72846
▁coróinvíreas	-8.73207
▁im	-8.73482
▁dhí	-8.73597
▁scar	-8.74026
▁ialtóg	-8.74063
▁Nío	-8.7441
mp	-8.74689
óin	-8.74751
▁Chu	-8.74867
▁gnáth	-8.74909
▁phobal	-8.7491
▁gardaí	-8.74911
▁rianaithe	-8.74912
▁staidéir	-8.74924
▁cliniciúla	-8.74942
▁uimh	-8.75037
▁cov	-8.75117
▁hcovanna	-8.75231
ráid	-8.75503
▁bith	-8.75651
▁vacsaíniú	-8.76005
rthóir	-8.76068
eachtaí	-8.76174
▁50	-8.77359
▁di	-8.77385
▁fionraí	-8.77851
comparáid	-8.77861
▁shár	-8.77921
▁bhfad	-8.78032
▁gcu	-8.78444
▁samplaí	-8.78492
▁fhio	-8.78567
▁re	-8.78713
▁fuar	-8.78735
ll	-8.78859
5%	-8.79117
▁gar	-8.7928
ie	-8.79342
▁ríocht	-8.79536
osca	-8.80414
▁for	-8.80558
▁anailís	-8.80881
▁dromchla	-8.80881
▁uirthi	-8.80881
▁teastáil	-8.80881
▁antasubstaintí	-8.80881
▁thógáil	-8.80881
▁idirmheánach	-8.80882
▁monatóireacht	-8.80887
▁gcónaí	-8.8097
▁fhad	-8.8102
▁tinneas	-8.81124
▁aitheanta	-8.81365
ordú	-8.81446
▁ainm	-8.82101
ibh	-8.82136
éal	-8.8226
▁thosa	-8.83267
▁ea	-8.83339
namh	-8.83482
▁oiriún	-8.83727
▁'	-8.8373
1,	-8.839
▁domhan	-8.8398
▁hiodáile	-8.84006
▁éirinn	-8.8401
▁tosú	-8.84015
▁nádúrtha	-8.84017
.30	-8.84019
▁rogha	-8.84029
▁ghalar	-8.84032
▁coronaviruses	-8.84053
▁fhreagairt	-8.84061
annta	-8.84109
▁Thái	-8.84114
▁aer	-8.84194
▁mhol	-8.84283
▁stair	-8.84556
▁Amha	-8.84823
▁Déanta	-8.85032
cháin	-8.85099
▁29	-8.85249
reacha	-8.86172
▁úsáide	-8.86593
▁cona	-8.86595
▁nár	-8.86619
▁31	-8.86712
▁riachtana	-8.8678
ha	-8.86787
▁27	-8.87007
▁choróinvíreas	-8.87232
▁shóisialta	-8.87232
▁íseal	-8.87232
▁éigin	-8.87233
▁slán	-8.87235
▁cineál	-8.87284
▁iaráin	-8.87327
▁anois	-8.87336
▁srón	-8.87339
ial	-8.87376
eál	-8.87408
▁tosaigh	-8.8743
▁dlí	-8.87463
▁gartheagmhálaí	-8.87511
▁ísle	-8.87557
▁leibhé	-8.87638
▁cinnte	-8.87653
hug	-8.87702
18	-8.87722
▁mic	-8.88006
fen	-8.88505
ly	-8.88574
▁teach	-8.88921
chtaí	-8.89211
covid	-8.89309
covanna	-8.89451
tá	-8.89815
▁tríd	-8.89816
bhai	-8.89957
▁chomhartha	-8.90043
▁clúda	-8.90182
▁coinne	-8.90188
▁tí	-8.90205
imhnigh	-8.90492
▁saotharlainne	-8.90565
▁shláinte	-8.90565
▁speisialta	-8.90565
▁ndéanfa	-8.90565
speicis	-8.90565
▁tharchur	-8.90565
▁iarraidh	-8.90566
▁anseo	-8.90569
▁hiomlán	-8.90588
claíocht	-8.90589
▁siondróm	-8.90602
▁bhailiú	-8.9064
48	-8.90743
▁iúl	-8.90775
▁clár	-8.90997
▁iar	-8.91012
▁víreolaíoch	-8.91109
▁básmhaireachta	-8.91162
héann	-8.91181
▁dáta	-8.91411
▁trom	-8.91516
229	-8.91602
▁modh	-8.91713
▁brú	-8.91817
▁gceist	-8.91876
rón	-8.91979
ov	-8.92235
▁ligean	-8.92387
láir	-8.92743
ré	-8.93106
▁bain	-8.93167
▁mbás	-8.93941
▁anaithnid	-8.94014
▁dhearfach	-8.94014
▁forleathan	-8.94014
▁teorainn	-8.94014
▁éigeantach	-8.94014
▁chineál	-8.94014
▁cúnamh	-8.94015
▁caitheamh	-8.94036
▁eachtra	-8.9406
▁fásta	-8.94071
▁Dhe	-8.94086
▁beo	-8.94094
▁deimhnithe	-8.94117
▁údará	-8.94225
▁sea	-8.94388
▁caith	-8.94628
▁Léir	-8.94651
▁he	-8.94657
ti	-8.95118
▁theach	-8.95284
taire	-8.95336
neamhriachtanach	-8.95396
mhar	-8.95471
tin	-8.9557
▁ithe	-8.95849
▁Dá	-8.96389
▁ráige	-8.96679
▁riachtanach	-8.97152
▁amhras	-8.97421
▁dheireadh	-8.97585
▁folláin	-8.97585
▁gnách	-8.97585
▁hubei	-8.97585
▁géanóm	-8.97585
▁dhearbha	-8.97585
▁tobac	-8.97585
▁rsc	-8.97596
▁nochta	-8.97649
▁anuas	-8.97666
▁níl	-8.97705
▁cóireála	-8.97735
▁anála	-8.97807
▁faireachas	-8.97929
ntanas	-8.98034
rian	-8.98145
▁fhor	-8.98319
35	-8.98357
▁athoscailt	-8.98373
reid	-8.98416
▁básanna	-8.98531
▁seacht	-8.98613
▁cdc	-8.98719
▁cá	-8.98982
▁Ch	-8.99397
%)	-8.99638
idí	-8.99696
▁rialta	-9.00256
▁sampla	-9.00485
0,000	-9.0057
▁éadrom	-9.00703
j	-9.00726
stáil	-9.01007
▁cleachta	-9.01091
▁cead	-9.01171
▁ollscoil	-9.0121
▁afraic	-9.01289
▁eoraip	-9.01289
▁nóiméad	-9.01289
▁straitéis	-9.01289
▁meiriceá	-9.01289
▁mhaolú	-9.01289
▁chóna	-9.01294
▁siar	-9.01297
▁tuilleadh	-9.01308
▁leanas	-9.01313
▁teocht	-9.01368
impl	-9.01382
órt	-9.01699
▁nasc	-9.01754
▁coinn	-9.01913
63	-9.0195
▁aice	-9.0203
20	-9.02089
▁chóiré	-9.0215
ineacht	-9.02154
ocha	-9.0222
rialacha	-9.02685
▁gcomh	-9.02736
▁siúl	-9.02866
habh	-9.02886
▁tacaíocht	-9.04089
aol	-9.04527
▁scaip	-9.05047
acsaín	-9.05103
▁altranais	-9.05135
▁phoiblí	-9.05135
▁tseachtain	-9.05135
▁éifeachtúlacht	-9.05135
▁cógais	-9.05135
▁figiú	-9.05136
▁chorp	-9.05139
▁aithint	-9.05139
▁chóireáil	-9.05144
▁baile	-9.05157
agairt	-9.05158
▁treoirlín	-9.05194
be	-9.05726
▁Rinne	-9.05955
pla	-9.06135
tair	-9.06485
19	-9.06727
▁faisnéis	-9.06743
líon	-9.06836
eagra	-9.07008
▁phe	-9.07213
▁eagla	-9.07972
▁seachtain	-9.08107
▁ré	-9.08403
ora	-9.08475
▁oibrí	-9.09117
▁fómhair	-9.09135
▁rcgp	-9.09135
▁réigiún	-9.09135
▁tarchuir	-9.09135
ardriosca	-9.09135
▁buinneach	-9.09135
▁croí	-9.09135
▁thaisteal	-9.09136
▁áitiúil	-9.09136
▁áfach	-9.09137
▁faide	-9.09137
▁tirim	-9.09143
▁áitiúla	-9.09167
▁fachtóir	-9.0917
▁brath	-9.09214
▁zónóiseach	-9.09237
▁deacrachtaí	-9.09238
37	-9.09249
▁dhúnadh	-9.09318
▁húsáid	-9.09325
▁oideachas	-9.09522
raitheann	-9.09555
▁Th	-9.09747
▁ghrúpa	-9.09866
▁chaith	-9.0997
▁féideartha	-9.10162
▁gartheagmháil	-9.10397
13	-9.10418
idir	-9.1056
“	-9.11257
▁par	-9.11261
▁bhia	-9.11373
iste	-9.11447
▁caill	-9.11886
."	-9.12539
tais	-9.12892
huairisc	-9.12997
▁spreag	-9.13089
▁Caith	-9.13271
▁díot	-9.13283
▁ghartheagmhála	-9.13301
▁billiún	-9.13301
▁fhrainc	-9.13301
▁gallúnach	-9.13301
▁ginearálta	-9.13301
▁leanúint	-9.13301
▁mhilliún	-9.13301
▁sealadach	-9.13301
▁seicheamh	-9.13301
▁teoranta	-9.13301
▁gceanta	-9.13302
bhealach	-9.13302
▁foirm	-9.13303
▁Glao	-9.13304
▁ghlaca	-9.13305
fhógra	-9.13309
▁beala	-9.13311
▁frithvíreas	-9.13312
▁cód	-9.13333
▁freagair	-9.1339
▁fianaise	-9.13407
▁fóin	-9.13483
▁Mol	-9.13496
38	-9.13497
▁moill	-9.13509
▁siopaí	-9.13562
▁aonrú	-9.1369
▁eas	-9.13959
rán	-9.14086
▁stiú	-9.14647
pháirtí	-9.1467
▁meastachá	-9.14836
▁vacsaíne	-9.15017
itis	-9.15331
óstach	-9.15601
to	-9.1594
4%	-9.15986
ialla	-9.16286
▁gníomh	-9.16395
uine	-9.16507
éan	-9.16648
anann	-9.17108
▁cuma	-9.17539
eiceáil	-9.17629
▁eol	-9.17633
athlastach	-9.17649
▁dhearbhú	-9.17649
▁faireachais	-9.17649
▁giorra	-9.17649
▁hothair	-9.17649
▁contae	-9.17649
▁chóras	-9.1765
▁uathu	-9.1765
▁chleachta	-9.17652
▁abhaile	-9.17652
▁india	-9.17659
▁níochán	-9.1766
▁leanacht	-9.17667
▁éileamh	-9.17671
▁séasúr	-9.17672
▁scaipthe	-9.17685
▁shonraí	-9.17705
▁institiúid	-9.17769
10	-9.17781
50	-9.17812
▁breith	-9.17861
▁Seacha	-9.17892
-19)	-9.17933
▁aimsío	-9.17978
▁mhic	-9.18271
▁mhéad	-9.1828
tion	-9.18281
▁ráigeanna	-9.1835
léa	-9.18615
han	-9.18776
▁agóid	-9.18886
úlacht	-9.19177
▁luan	-9.19375
▁cad	-9.19504
▁ais	-9.19642
eolaíocht	-9.19765
ionfhabhtú	-9.20149
▁oifig	-9.20279
tor	-9.20805
▁fear	-9.2094
▁éire	-9.21602
▁gnó	-9.21767
▁tu	-9.21872
▁huaire	-9.2198
cónaí	-9.22066
▁frithdhúnadh	-9.22195
▁shocrú	-9.22195
▁soiléir	-9.22195
▁thaobh	-9.22195
▁sláintiúil	-9.22195
▁spóirt	-9.22195
▁phlean	-9.22195
▁foirne	-9.22196
▁spáinn	-9.22197
▁ceanta	-9.22197
▁socr	-9.222
▁chéanna	-9.222
▁amuigh	-9.22201
hku	-9.22206
▁staid	-9.2221
earraí	-9.22211
▁uaireanta	-9.22214
▁pháistí	-9.22222
aladh	-9.2225
▁ghlanadh	-9.22261
▁aisce	-9.22302
▁náisiún	-9.22305
▁chathair	-9.22333
▁sheoladh	-9.22343
▁báis	-9.22418
▁mhéadú	-9.22591
▁leathadh	-9.22692
dro	-9.22712
iúla	-9.23019
▁chúram	-9.23229
▁fan	-9.23251
▁hi	-9.23273
▁Ma	-9.23542
▁ábhar	-9.23626
▁sine	-9.23648
▁fíor	-9.24121
iúr	-9.24396
olg	-9.24508
▁éifeachta	-9.24536
▁scoi	-9.24615
bair	-9.2466
▁60	-9.2529
rochtain	-9.25335
oire	-9.25419
aisc	-9.25685
▁básmhaireacht	-9.26105
▁bhain	-9.26431
▁bunús	-9.26579
áir	-9.26641
▁dhún	-9.26748
▁stop	-9.26781
ianaise	-9.26838
▁géar	-9.26935
▁bhrollach	-9.26957
▁láimhseáil	-9.26957
▁mbliana	-9.26957
▁téacs	-9.26957
▁trump	-9.26957
▁íomhá	-9.26957
chúrsa	-9.26957
▁bhfuair	-9.26957
▁póca	-9.26958
▁fáth	-9.26958
▁chumas	-9.26958
▁mná	-9.26962
▁dhéantar	-9.26963
▁braisl	-9.26964
▁fhliú	-9.26964
▁críoch	-9.26966
▁seomra	-9.26968
▁rúis	-9.26977
▁ghlas	-9.26979
▁shrian	-9.27061
▁laghdaithe	-9.27081
▁feidhmeanna	-9.27109
▁chlúdach	-9.27177
▁pfizer	-9.27216
▁Na	-9.27235
mar	-9.27346
▁luaithe	-9.27389
▁teicneolaíocht	-9.27414
▁rith	-9.27567
eolaíoch	-9.27679
▁oibr	-9.27717
95	-9.27837
▁díghalr	-9.2826
osaigh	-9.28345
▁léirigh	-9.28471
▁orda	-9.28509
aon	-9.28766
66	-9.28784
iarr	-9.28861
47	-9.29088
▁molta	-9.2921
▁Bain	-9.29556
nacht	-9.29651
coróinvíreas	-9.29752
abhadh	-9.30052
65	-9.30153
fíor	-9.30513
▁éil	-9.30863
ineadh	-9.31056
rt	-9.31299
▁iarr	-9.3134
nl	-9.31485
▁scoile	-9.31616
▁40	-9.3171
25	-9.31733
▁céad	-9.31835
▁california	-9.31957
▁scothaosta	-9.31957
▁sheirbhís	-9.31957
▁thuaidh	-9.31957
▁thíortha	-9.31957
▁óstáin	-9.31957
▁scornach	-9.31957
▁Clúda	-9.31957
▁gcaithf	-9.31958
▁foils	-9.31964
▁eolai	-9.31967
▁dtreo	-9.31978
▁seans	-9.3198
▁séireolaíoch	-9.32009
▁suíomhanna	-9.3201
▁bhfoireann	-9.32011
▁4,9	-9.32097
▁déanamh	-9.32098
▁labhairt	-9.32107
▁easp	-9.32165
▁rialachá	-9.32198
▁mall	-9.32303
▁caithf	-9.32336
▁athbhreithni	-9.32338
isteach	-9.3242
nó	-9.32492
▁ndéant	-9.32498
45	-9.32508
▁tús	-9.32545
▁siopadóireachta	-9.32734
%	-9.32759
▁sábháilteachta	-9.32823
▁trialacha	-9.32884
▁scamhóg	-9.3295
tóirí	-9.3296
▁Tóg	-9.33025
▁neart	-9.33039
athair	-9.33343
airíonna	-9.33462
▁hu	-9.33875
raigh	-9.34321
aoine	-9.3441
.5	-9.34827
▁Cá	-9.35005
▁char	-9.35329
sars	-9.35384
▁Bh	-9.35729
▁víreasacha	-9.35975
▁Do	-9.36075
▁Rinnea	-9.361
danna	-9.36312
▁sábháilteacht	-9.36457
páistí	-9.36983
▁Tabha	-9.3711
▁plean	-9.37138
éarchéim	-9.37195
▁cliniciúil	-9.3722
▁coinníoll	-9.3722
▁iomarca	-9.3722
▁johnson	-9.3722
▁nollag	-9.3722
▁phobail	-9.3722
▁swab	-9.3722
▁taoiseach	-9.3722
▁tseapáin	-9.3722
▁éigeandáil	-9.3722
▁dianchúraim	-9.3722
▁ghéanó	-9.3722
▁measún	-9.3722
▁taiscumar	-9.37224
▁ghearr	-9.37225
▁fhón	-9.37228
▁leigheas	-9.37253
▁tacú	-9.37256
▁fón	-9.37275
▁diaibéiteas	-9.3729
▁óga	-9.37347
phen	-9.37432
▁amhrasta	-9.37475
▁tarlú	-9.37589
▁cleachtais	-9.37596
▁Faigh	-9.37642
▁nuacht	-9.37757
▁ste	-9.37781
ánach	-9.37798
▁tromchúiseacha	-9.37899
thar	-9.38288
▁uachtarán	-9.38469
ionann	-9.38476
99	-9.3849
60	-9.38618
▁gníomhach	-9.38739
▁cruinn	-9.3879
áilte	-9.38838
uail	-9.38862
ionta	-9.38931
ainm	-9.38955
▁ionsa	-9.39277
▁100	-9.39585
▁Su	-9.39697
▁imeacht	-9.40037
▁ardú	-9.40219
▁mol	-9.40774
▁li	-9.40878
36	-9.40961
córas	-9.40987
39	-9.41341
15	-9.41411
alar	-9.41525
▁imdhíon	-9.41593
▁siopadóireacht	-9.41916
33	-9.42254
▁thú	-9.42658
▁mich	-9.42667
theagmháil	-9.42733
aicéit	-9.42775
▁ainsealach	-9.42775
▁bhliain	-9.42775
▁chruthú	-9.42775
▁chórais	-9.42775
▁fhéadfá	-9.42775
▁ghearmáin	-9.42775
▁leithlisiú	-9.42775
▁ngluaiseachtaí	-9.42775
▁plódaithe	-9.42775
▁riarachá	-9.42775
▁réigiúin	-9.42775
▁teaghlach	-9.42775
▁theaghlach	-9.42775
▁toirchis	-9.42775
▁difríocht	-9.42776
▁núíosach	-9.42776
▁buailte	-9.42776
▁sonrach	-9.42776
▁béite	-9.42776
▁fhreagra	-9.42777
▁éasca	-9.42778
▁domhnach	-9.42784
▁dtiocfa	-9.42791
▁shuí	-9.42793
eamó	-9.42796
▁bpobal	-9.42815
tábla	-9.42819
▁Chomh	-9.42827
▁cónaitheoir	-9.42828
▁sciathá	-9.4284
▁Dún	-9.42859
▁dtagann	-9.42887
▁ja	-9.42889
▁Molta	-9.42908
▁láidir	-9.42959
▁dhíon	-9.42961
▁gcéim	-9.42999
▁stopadh	-9.43034
▁análaithe	-9.43121
▁deacair	-9.43176
nnel	-9.43181
▁méadaithe	-9.43185
▁Seo	-9.43225
▁4,8	-9.4332
▁phríomh	-9.43322
agtha	-9.43619
▁faigh	-9.44069
▁éadroma	-9.44094
▁thír	-9.44165
▁meánscoile	-9.44204
▁slabhr	-9.44273
▁leathair	-9.44285
íochtaí	-9.44323
▁gníomhaíochta	-9.44557
▁gcuirf	-9.44733
ilín	-9.44792
sat	-9.44855
▁dochtúirí	-9.45024
▁éirí	-9.45028
▁sá	-9.45535
líne	-9.4562
▁eisío	-9.45908
éag	-9.46145
▁táirg	-9.46522
údará	-9.46596
ius	-9.46651
eolas	-9.46655
oibríonn	-9.46741
go	-9.47024
ghabhálach	-9.47079
57	-9.47342
haigh	-9.47377
2%	-9.47421
79	-9.4761
▁eitilt	-9.47837
69	-9.47973
airí	-9.48008
feá	-9.48324
onraí	-9.48458
▁treoir	-9.48571
phataigineach	-9.48658
▁limisté	-9.48658
▁moderna	-9.48658
▁theorannú	-9.48658
▁forbairt	-9.48658
▁fhoils	-9.48658
▁cruth	-9.48658
▁saotharlann	-9.48658
iompair	-9.48658
ithníodh	-9.4866
▁beirt	-9.48666
▁análú	-9.48667
▁Glan	-9.48671
▁margadh	-9.48673
▁teachtaireacht	-9.48698
▁istigh	-9.48714
bhreith	-9.48721
▁mholtar	-9.4874
▁braoiníní	-9.48748
cathracha	-9.48797
▁haoine	-9.48799
▁tuismitheoirí	-9.48837
27	-9.48845
▁phróitéin	-9.48854
▁cruinnithe	-9.48884
▁Taispeána	-9.4891
▁clainne	-9.48925
hong	-9.48993
▁réimsí	-9.49032
áistí	-9.4921
▁teiripe	-9.49239
inneoi	-9.49383
ck	-9.49565
llmha	-9.49901
ual	-9.49902
▁riachtanacha	-9.50229
▁raon	-9.50302
oileáin	-9.50452
▁lán	-9.50836
olog	-9.51368
▁bog	-9.51656
▁mé	-9.52116
94	-9.52352
1%	-9.52585
ofa	-9.52681
6%	-9.53175
▁shin	-9.53301
shiomptómacha	-9.53414
▁sár	-9.5345
hol	-9.542
▁freag	-9.54472
▁fhorbair	-9.54541
▁ro	-9.54622
▁scaoil	-9.5485
ntaibheathaigh	-9.54908
▁bhrasaíl	-9.54908
▁cocúnú	-9.54908
▁dochtúra	-9.54908
▁laethúla	-9.54908
▁ndéanann	-9.54908
▁ngrúpa	-9.54908
▁nuashonrú	-9.54908
▁paisinéir	-9.54908
▁scriosadh	-9.54908
▁slaghdán	-9.54908
▁leochaileach	-9.54908
aigéad	-9.54908
aistriú	-9.54908
▁chliniciúil	-9.54908
▁chinneadh	-9.54908
▁Deimhnío	-9.54909
▁long	-9.54909
▁ríomh	-9.5491
▁dteast	-9.5491
▁satharn	-9.5491
▁linbh	-9.54911
▁saoráid	-9.54913
▁shúile	-9.54913
▁bailiú	-9.54913
▁bheag	-9.54917
▁Measta	-9.5492
▁ailse	-9.5492
▁leithris	-9.5492
▁saineola	-9.54921
▁fadtéarmach	-9.54928
▁leithead	-9.54933
▁mrna	-9.54959
▁chlé	-9.5496
▁Cleachta	-9.55012
▁ollscoileanna	-9.55042
▁Tabharfa	-9.55047
▁soláthair	-9.55076
▁gcoróinvíreas	-9.55083
ormhór	-9.55124
▁moladh	-9.55175
68	-9.55295
▁bhrú	-9.55433
ileog	-9.55747
hse	-9.55797
▁dtithe	-9.55802
aireachta	-9.55804
▁thit	-9.56155
▁pcr	-9.56401
▁ball	-9.56414
▁tras	-9.5644
▁cealla	-9.56551
▁díol	-9.5672
80	-9.57114
▁costa	-9.57242
▁dír	-9.57257
87	-9.57327
▁rabha	-9.57726
harla	-9.57796
▁féach	-9.5807
acair	-9.58378
▁Sh	-9.58381
▁foghlaim	-9.58492
▁lig	-9.5852
eisteanna	-9.58631
ionc	-9.5887
▁gcuirfea	-9.59273
oifig	-9.59479
gartheagmháil	-9.59508
cdc	-9.59535
▁cos	-9.59602
fss	-9.59722
▁Féadfai	-9.59744
hná	-9.60237
▁scamhóga	-9.60254
88	-9.60477
víreas	-9.60632
▁tromchúiseach	-9.60714
éifeacht	-9.60957
▁bunúsach	-9.61119
▁fheic	-9.61328
▁sheol	-9.61362
▁dearbha	-9.61387
▁deimhn	-9.61391
▁tuarascá	-9.61394
▁gné	-9.61423
▁deacracht	-9.61423
▁choinn	-9.61449
▁páirt	-9.61498
▁mbeal	-9.6154
▁láimh	-9.61571
choraintín	-9.61574
críobh	-9.61574
▁biontech	-9.61574
▁civet	-9.61574
▁córais	-9.61574
▁iontráil	-9.61574
▁pangolin	-9.61574
▁astráil	-9.61574
▁forbartha	-9.61574
▁randamach	-9.61575
▁chugat	-9.61575
▁scagadh	-9.61575
▁chuims	-9.61578
▁bhfón	-9.61579
▁fisic	-9.6158
▁éadach	-9.6158
▁dhaonra	-9.61584
▁óige	-9.616
▁seachain	-9.61601
▁soláthairtí	-9.61614
▁cheada	-9.6163
alamh	-9.6163
74	-9.6166
▁aidhm	-9.6166
▁aerála	-9.61671
▁rún	-9.61693
▁gasta	-9.61703
▁glacadh	-9.61705
óthar	-9.61763
▁marfach	-9.61798
▁fhágáil	-9.61815
eipidéimeolaíoch	-9.61859
▁rialaithe	-9.61898
▁chiall	-9.61915
▁torracha	-9.62026
▁ndeac	-9.62088
▁oifigigh	-9.62129
▁thuairisciú	-9.62151
▁ghníomhaíocht	-9.6218
▁hom	-9.62343
fheidhmeannach	-9.62378
pho	-9.62515
▁eitiltí	-9.62516
▁70	-9.6282
▁cáis	-9.63078
▁seach	-9.63117
▁chill	-9.63231
▁mhaithe	-9.63269
▁gurb	-9.63427
▁tacaíochta	-9.63439
mid	-9.63452
▁braith	-9.63539
▁Déanfa	-9.64203
▁líonra	-9.64283
scoile	-9.64551
ex	-9.64645
head	-9.64971
▁bean	-9.65283
▁féa	-9.65461
▁lit	-9.65586
aonta	-9.65769
▁héifeacht	-9.65831
cloí	-9.66109
ábhar	-9.66637
who	-9.66671
75	-9.66855
53	-9.67259
61	-9.67337
éard	-9.67572
▁cathai	-9.67873
rua	-9.68057
44	-9.68098
▁druga	-9.68241
▁feidhm	-9.68306
com	-9.68462
▁bhail	-9.68484
lainne	-9.68569
▁glas	-9.68704
oimeád	-9.68717
▁ullmhacht	-9.68717
coimisiún	-9.68717
▁aibreáin	-9.68717
▁ciarsú	-9.68717
▁criticiúla	-9.68717
▁cónaidhme	-9.68717
▁géiniteach	-9.68717
▁hiaráine	-9.68717
▁macasamhl	-9.68717
▁ndochtúir	-9.68717
▁páipéar	-9.68717
▁páipéir	-9.68717
▁samhain	-9.68717
▁scrúduithe	-9.68717
▁eiseama	-9.68717
▁gcontae	-9.68717
▁iontaofa	-9.68717
▁damáiste	-9.68718
▁atosú	-9.68718
▁spíce	-9.68718
▁matáin	-9.68719
▁alfa	-9.6872
▁fhostóir	-9.6872
▁fág	-9.68721
▁leithreas	-9.68722
▁leathnú	-9.68724
▁thuas	-9.68726
eisiúint	-9.68727
triail	-9.68733
▁uile	-9.68735
▁caint	-9.6874
▁cothaith	-9.68748
▁tusa	-9.6875
▁maireachtáil	-9.68754
▁tháirgeadh	-9.68759
▁cille	-9.68764
▁Roinn	-9.68771
▁earná	-9.68779
▁hionfhabhtuithe	-9.68815
▁chealú	-9.68856
▁gheo	-9.6886
▁100,000	-9.68869
iarmhairtí	-9.68871
dars	-9.68875
▁tuarascála	-9.68912
▁dtosach	-9.68939
oise	-9.68949
▁cuirfi	-9.69016
▁cinneadh	-9.69096
▁chonai	-9.69097
▁spreagadh	-9.69105
▁béal	-9.69266
ik	-9.69295
▁acmhainní	-9.69301
▁breoiteacht	-9.6938
▁margaí	-9.69408
▁níocháin	-9.69428
tarchurtha	-9.69951
78	-9.70141
▁tro	-9.70198
dirghníomhaíocht	-9.70248
éigean	-9.70394
eamhshiomptómach	-9.7046
ugtar	-9.707
▁siúil	-9.70805
▁cúramach	-9.70979
▁tóg	-9.71017
haon	-9.71342
▁eagr	-9.71408
▁príobháideacha	-9.72014
▁áise	-9.72507
adóir	-9.72609
3%	-9.72705
▁faisnéise	-9.73268
iam	-9.73345
ófa	-9.73821
nío	-9.74235
coraintín	-9.7436
67	-9.74405
62	-9.75116
feadh	-9.7572
77	-9.75922
▁laghda	-9.76206
▁íoc	-9.7621
▁suíomh	-9.76328
▁cónaithe	-9.76336
▁Ro	-9.76351
▁Comharthaí	-9.7641
▁antashubstaint	-9.7641
▁bhainistiú	-9.7641
▁hafraice	-9.7641
▁laethanta	-9.7641
▁leictreon	-9.7641
▁máinliachta	-9.7641
▁múinteoirí	-9.7641
▁núicléitíde	-9.7641
▁ocsaigin	-9.7641
▁prótaca	-9.7641
▁speiceas	-9.7641
▁thógálacha	-9.7641
▁Roghna	-9.7641
▁atreor	-9.7641
▁guaise	-9.7641
▁Scaip	-9.7641
▁tráth	-9.7641
▁sheachtain	-9.7641
▁fhaireacha	-9.76411
▁maolú	-9.76411
▁cheanta	-9.76411
▁ainmnithe	-9.76412
▁Fliú	-9.76414
ainistíocht	-9.76415
ostaithe	-9.76416
▁sláintiúla	-9.76416
▁smacht	-9.76417
▁bhrath	-9.76417
angla	-9.76417
▁léana	-9.7642
▁Scar	-9.76423
▁haipe	-9.76423
▁dúinn	-9.76429
▁príomhoifig	-9.76441
▁uathú	-9.76443
▁orf	-9.76447
▁orm	-9.76449
▁bunscoile	-9.76454
lucht	-9.76454
▁tuairisciú	-9.7646
▁sainch	-9.76469
▁fhaisnéis	-9.76469
▁deich	-9.76471
▁spás	-9.76476
▁scaoileadh	-9.76484
▁thiocfa	-9.76492
▁Casacht	-9.76503
eachadadh	-9.76507
▁tánaiste	-9.76532
▁pleananna	-9.76534
▁bhformhór	-9.76553
▁ghabh	-9.76561
▁taifeadadh	-9.76561
▁imscrúdú	-9.76598
▁scála	-9.76713
▁dhéanf	-9.76745
med	-9.76773
nár	-9.76808
▁chlinic	-9.76838
▁Cuirfi	-9.76866
▁nochtaithe	-9.76867
▁mian	-9.76887
▁pháirt	-9.77088
▁gnótha	-9.77377
▁Gan	-9.77398
▁bhféadf	-9.77771
▁aeráil	-9.77801
neamh	-9.78114
héile	-9.79346
heo	-9.79408
bhunaithe	-9.79505
▁San	-9.79828
▁tug	-9.80013
stiú	-9.80414
ealú	-9.80908
300	-9.82415
▁trácht	-9.82666
seirbhís	-9.82686
ospidéal	-9.82696
roinn	-9.82855
tóga	-9.82871
bhealaí	-9.83513
▁1,0	-9.83657
▁oscailt	-9.83712
▁tógála	-9.83812
▁trialach	-9.83884
9%	-9.84306
▁chlúda	-9.84352
nasctha	-9.84356
▁léi	-9.84647
▁Labhair	-9.84743
▁bluetooth	-9.84743
▁ceanada	-9.84743
▁coisctheach	-9.84743
▁eabhrac	-9.84743
▁fhoghlaim	-9.84743
▁mheiriceá	-9.84743
▁mheithimh	-9.84743
▁mheánoirthir	-9.84743
▁miondíol	-9.84743
▁oíche	-9.84743
▁phylogenetic	-9.84743
▁sholáthra	-9.84743
▁slaghdáin	-9.84743
▁theaghlaigh	-9.84743
▁tiomána	-9.84743
▁uaslód	-9.84743
▁unesco	-9.84743
▁veicteora	-9.84743
▁Cuairt	-9.84743
▁Spreag	-9.84743
▁céatadá	-9.84743
▁laethúil	-9.84743
▁úrscéal	-9.84743
▁slua	-9.84743
▁céadaoin	-9.84743
▁héirinn	-9.84743
▁coimeádta	-9.84743
▁páirc	-9.84745
▁coicíse	-9.84745
▁thuras	-9.84746
▁orainn	-9.84746
▁treocht	-9.84747
▁bialanna	-9.84748
▁titim	-9.84748
▁thorthaí	-9.84748
▁biseach	-9.84751
reatain	-9.84753
▁cong	-9.84755
▁gearr	-9.84758
▁oifigiúla	-9.84763
chógais	-9.84764
▁caite	-9.84769
▁Athr	-9.8477
▁bhfuar	-9.8478
▁féadfa	-9.84786
▁smaoin	-9.848
íteas	-9.84809
▁páirteach	-9.8484
eoil	-9.8488
▁Caithfi	-9.84898
▁dhíol	-9.84918
▁comhaireamh	-9.84922
▁cuairteoirí	-9.84927
▁mhuin	-9.84928
▁seiceáil	-9.84969
▁réidh	-9.85025
▁ceadaithe	-9.85044
ibé	-9.85086
áiste	-9.85109
inneas	-9.85153
▁cel	-9.85227
▁shín	-9.85432
▁oiriúnach	-9.85513
oirse	-9.85627
▁pataigineach	-9.85797
▁dhó	-9.85984
▁4,7	-9.86036
▁aerlín	-9.86054
▁tuairiscí	-9.86174
▁oibríochta	-9.86197
▁mhair	-9.86552
▁4,5	-9.86936
▁dtéa	-9.87258
▁Iarrfa	-9.87709
táirgeadh	-9.88324
▁héifeachtach	-9.88402
▁mio	-9.88424
▁soláthra	-9.88746
▁holo	-9.89745
▁4,6	-9.90456
▁Féadfa	-9.90536
asacht	-9.90921
galar	-9.91144
▁éagsúlacht	-9.91365
ionfhabhtuithe	-9.91649
▁chuairt	-9.91703
uachtarán	-9.91744
chúram	-9.9175
tréimhs	-9.91776
pcr	-9.91806
thír	-9.91867
▁gartheagmhála	-9.93044
▁náisiú	-9.93283
oibrithe	-9.93413
▁feabh	-9.93731
theagmhála	-9.93811
ipidéim	-9.93813
▁Forbr	-9.93834
▁Laghda	-9.93834
▁ceathrar	-9.93834
▁cumarsáid	-9.93834
▁cytokine	-9.93834
▁cúrsála	-9.93834
▁fliuch	-9.93834
▁innéacs	-9.93834
▁iontrála	-9.93834
▁laidineach	-9.93834
▁meáchan	-9.93834
▁ndúnfa	-9.93834
▁nuabheirthe	-9.93834
▁rannpháirt	-9.93834
▁sainaithníodh	-9.93834
▁sceideal	-9.93834
▁toirmeasc	-9.93834
▁ullmhú	-9.93834
▁ábalta	-9.93834
▁camel	-9.93834
▁láithreá	-9.93834
▁foinse	-9.93834
▁tosaíocht	-9.93834
óimheas	-9.93835
▁oifigiúil	-9.93835
▁riamh	-9.93835
oirthear	-9.93835
▁lorg	-9.93835
▁gclúd	-9.93836
▁thairg	-9.93836
oideas	-9.93836
▁bronch	-9.93836
▁físe	-9.93836
▁gcéanna	-9.93836
▁cógas	-9.93837
▁idirlín	-9.93837
▁céimnithe	-9.93838
▁measartha	-9.93839
untas	-9.93841
▁rté	-9.93842
fort	-9.93843
▁mhodh	-9.93847
lúbtha	-9.93847
▁boladh	-9.93848
▁chód	-9.93849
▁dalta	-9.93851
▁droch	-9.93851
▁gcúis	-9.93853
▁tcm	-9.93857
▁sinsear	-9.93858
▁saoránach	-9.93866
▁siomptóm	-9.93878
▁ranganna	-9.93878
73	-9.93886
▁leaba	-9.9389
▁teasta	-9.93926
▁phlé	-9.9393
▁láriona	-9.93944
▁eolaíochta	-9.93959
randa	-9.94015
▁80%	-9.9403
▁bhuail	-9.94052
▁dheimhn	-9.94057
▁sínt	-9.94067
▁feidhmiú	-9.94068
▁dhiúltach	-9.94083
▁lárnach	-9.94156
▁comhair	-9.9418
▁claon	-9.94184
aireanta	-9.94295
▁ceisteanna	-9.94339
▁Cabhró	-9.94341
▁mama	-9.94627
▁crua	-9.9471
▁dhíre	-9.94888
▁comhartha	-9.95393
mdhíonacht	-9.95789
unscoil	-9.96492
▁údar	-9.96586
athrú	-9.99345
chair	-9.9944
comhpháirt	-9.99673
teistiméireachta	-9.99891
▁measta	-10.002
▁stoc	-10.0073
▁crit	-10.0095
▁mbun	-10.0114
▁úsáideoir	-10.0137
bhaint	-10.0179
▁imoibri	-10.0206
agus	-10.0235
▁fheidhm	-10.0262
▁ísl	-10.0282
▁acmhainn	-10.0282
▁breis	-10.0283
▁Cabhr	-10.0328
uismitheoirí	-10.0352
▁solátha	-10.0356
▁fás	-10.037
iondróm	-10.0372
▁bpob	-10.0376
▁tháirg	-10.0378
scrúdú	-10.0381
éabhlóid	-10.0383
haispeáin	-10.0383
▁Oibr	-10.0383
comhghleacaithe	-10.0383
eineafóibe	-10.0383
▁aerasóil	-10.0383
▁athmholadh	-10.0383
▁atruacha	-10.0383
▁bhreise	-10.0383
▁brasaíle	-10.0383
▁cluich	-10.0383
▁codlata	-10.0383
▁coróinvíris	-10.0383
▁cultúrtha	-10.0383
▁cáithnín	-10.0383
▁dromlaigh	-10.0383
▁díhiodráitiú	-10.0383
▁fheabhsú	-10.0383
▁foghlam	-10.0383
▁hoifigiúil	-10.0383
▁membrane	-10.0383
▁neamhspleách	-10.0383
▁shroich	-10.0383
▁smaoiseach	-10.0383
▁soghluaiste	-10.0383
▁spleách	-10.0383
▁thairiscint	-10.0383
▁traidisiúnta	-10.0383
▁ísiltír	-10.0383
▁alcól	-10.0383
▁foinsí	-10.0383
▁mbaineann	-10.0383
▁struchtú	-10.0383
▁dhiagnóisiú	-10.0383
▁huisce	-10.0383
▁poist	-10.0383
▁dtástáil	-10.0383
▁seachadta	-10.0383
▁inniu	-10.0383
▁phróise	-10.0383
aighdeáin	-10.0383
▁teagla	-10.0383
▁treorach	-10.0383
▁teorann	-10.0383
▁Ghla	-10.0383
▁cholainn	-10.0383
shonrach	-10.0384
▁dóchúil	-10.0384
▁thuilleadh	-10.0384
▁cheadú	-10.0384
▁dháileadh	-10.0384
▁Cuid	-10.0384
▁choirp	-10.0384
▁chabhr	-10.0384
▁Teast	-10.0384
▁plé	-10.0385
▁réamhchúraim	-10.0385
▁gloin	-10.0385
réitigh	-10.0386
▁tasc	-10.0386
▁Tarchu	-10.0387
úlra	-10.0388
▁rbd	-10.0389
▁háise	-10.0389
▁cheangal	-10.0391
▁tuairiscithe	-10.0391
▁Ansin	-10.0392
onradh	-10.0392
ábhair	-10.0393
▁téarnamh	-10.0393
thioncha	-10.0393
▁ghnó	-10.0394
▁ibu	-10.0394
ainmhí	-10.0394
▁rathú	-10.0396
▁mhoilliú	-10.0398
▁ngall	-10.04
▁scéim	-10.0401
▁thuairiscítear	-10.0402
▁sheiceáil	-10.0402
éadaí	-10.0403
▁airgeada	-10.0405
▁ndia	-10.0407
▁gnéas	-10.0408
▁gníomhaireachta	-10.0408
▁cumann	-10.0411
sócháin	-10.043
aithne	-10.0432
▁breathn	-10.0436
mheastachá	-10.0439
pain	-10.0486
▁uachtarach	-10.0507
▁ji	-10.0521
géine	-10.0561
▁phríobháideach	-10.0573
▁maoini	-10.0586
othromaíocht	-10.0604
raib	-10.0611
eagrán	-10.064
▁hathr	-10.0656
fhachtóir	-10.0676
foghlaimeoir	-10.0873
▁dtuai	-10.0967
▁soláthr	-10.0977
▁príobháideach	-10.0993
▁oifige	-10.1076
ealaíon	-10.119
cás	-10.1286
ghrúpa	-10.1287
luí	-10.1307
▁tábhacht	-10.1309
formhór	-10.1435
iagnóis	-10.1444
ruga	-10.1446
▁sóchá	-10.1446
oronavirus	-10.1463
▁taifead	-10.1472
▁glac	-10.1474
▁mhoill	-10.1478
▁téarna	-10.1484
▁dtug	-10.1491
fhreasta	-10.1494
▁shábháil	-10.1494
ghluaiseacht	-10.1494
▁scagthástála	-10.1494
heabhairshláinte	-10.1494
ianfhoghlama	-10.1494
▁Giorra	-10.1494
▁Ráig	-10.1494
▁Scaoil	-10.1494
▁Taisteal	-10.1494
▁aisghabháil	-10.1494
▁antaiginí	-10.1494
▁aslonnú	-10.1494
▁deireanach	-10.1494
▁dhromchla	-10.1494
▁difriúil	-10.1494
▁dtorthaí	-10.1494
▁eitleán	-10.1494
▁gabhdóir	-10.1494
▁ghloiní	-10.1494
▁ghéiniteach	-10.1494
▁heorpa	-10.1494
▁héasca	-10.1494
▁oiliúint	-10.1494
▁oiliúna	-10.1494
▁prognóis	-10.1494
▁práinneach	-10.1494
▁réasúnta	-10.1494
▁scagthástáil	-10.1494
▁shaoránaigh	-10.1494
▁sheomra	-10.1494
▁shádach	-10.1494
▁singeapór	-10.1494
▁sochraid	-10.1494
▁soicind	-10.1494
▁sreabhán	-10.1494
▁stéaróidigh	-10.1494
▁taiwan	-10.1494
▁throid	-10.1494
▁íoslaghdú	-10.1494
▁Cúram	-10.1495
▁chontae	-10.1495
▁dearbhú	-10.1495
▁dóichí	-10.1495
▁theiripe	-10.1495
▁éascú	-10.1495
▁Cuims	-10.1495
▁cuims	-10.1495
▁léitheoir	-10.1495
▁tábhairne	-10.1495
▁alpaca	-10.1495
▁cúrsa	-10.1495
▁míleata	-10.1495
▁póilín	-10.1495
▁ríthábhachtach	-10.1495
▁óstán	-10.1495
▁fnass	-10.1495
déileáil	-10.1495
▁2012	-10.1495
▁samplá	-10.1495
▁dhaonna	-10.1495
▁cíche	-10.1495
▁Féach	-10.1495
téama	-10.1495
shábháilteacht	-10.1495
▁dtarló	-10.1495
▁leataobh	-10.1495
▁shocra	-10.1495
▁éillithe	-10.1496
▁ghníomhaireacht	-10.1496
gaillimh	-10.1496
ampas	-10.1496
brid	-10.1496
▁thiar	-10.1497
oicís	-10.1497
paráid	-10.1498
▁fadhbanna	-10.15
▁iarrthóir	-10.1501
lantacháin	-10.1502
▁thaispeáint	-10.1503
▁ghéarchéim	-10.1505
▁iarrata	-10.1507
▁huimh	-10.1507
▁glasáil	-10.151
omharc	-10.1514
ghabhdóir	-10.1516
▁nasal	-10.1519
▁ndí	-10.1522
foireann	-10.1525
ulaing	-10.1542
▁clis	-10.1565
iocfa	-10.1569
hael	-10.1586
▁dhro	-10.1604
▁carna	-10.1657
▁uala	-10.1701
méadai	-10.1775
scéal	-10.1838
airde	-10.1852
stu	-10.1879
ról	-10.1903
▁thaca	-10.208
▁pro	-10.2222
▁2,3	-10.2236
▁Bainea	-10.2269
béil	-10.2338
▁gníomhaíocht	-10.2343
phe	-10.2506
▁sláint	-10.2508
aghaidh	-10.2528
tábhachtach	-10.2539
próitéin	-10.254
íreas	-10.2546
aitheanta	-10.2547
comhairle	-10.2549
▁uachtar	-10.258
▁breoite	-10.2626
▁torrach	-10.2658
▁réims	-10.2664
▁siopa	-10.2664
▁labhair	-10.2706
▁dtosa	-10.2723
▁deacra	-10.2741
mhíochaine	-10.2744
ionfhabhta	-10.2744
angóil	-10.2744
▁Oscl	-10.2744
▁Mhéad	-10.2744
▁dífhostaíocht	-10.2744
▁fadthéarmach	-10.2744
▁gluaiseacht	-10.2744
▁staitisti	-10.2744
▁thromchúiseach	-10.2744
frídíní	-10.2744
mharclanna	-10.2744
shéalainn	-10.2744
tiomáint	-10.2744
uashonruithe	-10.2744
▁Fiabhras	-10.2744
▁aeriompartha	-10.2744
▁alcóil	-10.2744
▁bliantúil	-10.2744
▁cathaoir	-10.2744
▁comhsheasmhach	-10.2744
▁coróivír	-10.2744
▁déardaoin	-10.2744
▁dúshlán	-10.2744
▁geografach	-10.2744
▁ghiniúint	-10.2744
▁gréasáin	-10.2744
▁hindia	-10.2744
▁ireland	-10.2744
▁muinteartha	-10.2744
▁nasopharyngeal	-10.2744
▁polaitiú	-10.2744
▁róthrom	-10.2744
▁spéise	-10.2744
▁todhchaí	-10.2744
▁washington	-10.2744
onsalacht	-10.2745
profen	-10.2745
▁Príobháideach	-10.2745
▁google	-10.2745
▁iniúchadh	-10.2745
▁neamhghnácha	-10.2745
▁oilithr	-10.2745
▁tairseach	-10.2745
▁digiteach	-10.2745
▁díolúine	-10.2745
▁naíonáin	-10.2745
▁naíonán	-10.2745
▁tuairim	-10.2745
▁dianchúram	-10.2745
▁throigh	-10.2745
▁bpáiste	-10.2745
▁scaoll	-10.2745
▁teoiric	-10.2745
▁mbraisl	-10.2745
▁pangóilí	-10.2745
▁maolaithe	-10.2745
▁seachtainiúil	-10.2745
▁éabhlóideach	-10.2745
▁beatha	-10.2745
▁strus	-10.2745
▁corónach	-10.2745
orgán	-10.2745
▁scanadh	-10.2745
▁gcleachta	-10.2745
▁éiginnte	-10.2745
shnáithe	-10.2745
apple	-10.2745
▁buaic	-10.2745
▁fhreastala	-10.2745
liocht	-10.2745
▁cheap	-10.2746
▁foriomlán	-10.2746
▁uaidh	-10.2746
▁throm	-10.2746
iobr	-10.2746
▁thuar	-10.2746
▁béilí	-10.2747
▁deiridh	-10.2749
▁míonna	-10.275
▁léar	-10.275
pragh	-10.2751
▁saoil	-10.2752
▁Cinnt	-10.2754
▁bhfanfa	-10.2755
▁tréith	-10.2758
thábhachtach	-10.2761
▁delta	-10.2762
éanaimid	-10.2805
.7%	-10.2808
▁cois	-10.2832
▁ciall	-10.2852
eabharlanna	-10.286
▁ticé	-10.2899
▁bailío	-10.2919
2,5	-10.2921
▁chuairteoir	-10.3051
▁1,3	-10.3089
téarmaí	-10.3191
hálaí	-10.3376
▁téarma	-10.3682
▁Iarr	-10.3684
labhra	-10.3783
éidearthacht	-10.3796
réige	-10.3834
thoscailt	-10.3847
▁cothrom	-10.386
tarchur	-10.3961
ospidéil	-10.3967
▁pataigin	-10.3989
▁Tógfai	-10.4002
éantús	-10.4015
teicneolaíochta	-10.403
▁Déanfai	-10.4046
▁atáirg	-10.4128
▁dhiúlta	-10.4133
éireo	-10.4136
▁cathrach	-10.4138
aisnéis	-10.4149
raoiníní	-10.415
▁sciath	-10.4156
liom	-10.4158
▁pholai	-10.4167
dhéanta	-10.4172
rithghníomh	-10.4173
▁Ord	-10.4173
choitianta	-10.4173
eamhstruchtúrtha	-10.4173
eileafóin	-10.4173
einsím	-10.4173
hiodráitithe	-10.4173
lóthach	-10.4173
▁Bhuel	-10.4173
▁Sláinteachas	-10.4173
▁Soláthraí	-10.4173
▁aisghafa	-10.4173
▁ardoideachais	-10.4173
▁cardashoithíoch	-10.4173
▁chriticiúil	-10.4173
▁compord	-10.4173
▁criticiúil	-10.4173
▁cumhachta	-10.4173
▁dhíghalrú	-10.4173
▁fhilipíneacha	-10.4173
▁fraince	-10.4173
▁fráma	-10.4173
▁fúthu	-10.4173
▁gcoitinne	-10.4173
▁ghnólachtaí	-10.4173
▁iosrael	-10.4173
▁meabhrach	-10.4173
▁mhiondíol	-10.4173
▁mhéara	-10.4173
▁ollmharga	-10.4173
▁oxford	-10.4173
▁pointe	-10.4173
▁pádraig	-10.4173
▁remdesivir	-10.4173
▁samhalt	-10.4173
▁tapúla	-10.4173
▁teilifís	-10.4173
▁thaifead	-10.4173
▁threorú	-10.4173
▁toirmisc	-10.4173
chruinnithe	-10.4173
▁buidéil	-10.4173
▁chrutha	-10.4173
▁dhigiteach	-10.4173
▁téalainn	-10.4173
▁Scrúd	-10.4173
▁dheirean	-10.4173
▁dhifriú	-10.4173
▁ghnáthuaireanta	-10.4173
▁sruth	-10.4173
▁tharraing	-10.4173
▁lúnasa	-10.4173
▁saoránaigh	-10.4173
▁chúige	-10.4173
▁coláiste	-10.4173
▁uillinn	-10.4173
▁Cógais	-10.4173
▁fhailí	-10.4173
▁fíocháin	-10.4173
▁fíochán	-10.4173
▁ríofa	-10.4173
eagasc	-10.4173
▁fisiciúil	-10.4173
▁pailin	-10.4173
▁tubaiste	-10.4173
▁tuirse	-10.4173
▁zhan	-10.4173
▁stoirm	-10.4173
▁uilig	-10.4173
▁threoir	-10.4173
▁cógaslanna	-10.4173
▁Fág	-10.4173
▁comhdhúil	-10.4173
bharnó	-10.4173
▁turais	-10.4173
▁aslonna	-10.4174
▁thaist	-10.4174
▁chónaitheoir	-10.4174
▁iomadú	-10.4174
▁nigéir	-10.4174
▁leantach	-10.4174
▁Tástála	-10.4174
▁lámhainní	-10.4174
órsa	-10.4175
cabhair	-10.4175
▁shiúl	-10.4175
▁leithligh	-10.4175
▁súg	-10.4175
▁rolla	-10.4175
fhoirmiú	-10.4175
chealla	-10.4176
▁mbialann	-10.4176
▁1201	-10.4176
▁Cúis	-10.4177
shaoil	-10.4179
▁gharda	-10.4179
▁dtaca	-10.418
omhairliúch	-10.4181
▁fiche	-10.4181
phacáist	-10.4184
▁ghlan	-10.4185
▁lasta	-10.4185
osúla	-10.4186
ionrach	-10.4197
▁phost	-10.4203
▁Imeacht	-10.4214
▁norm	-10.4225
▁ocra	-10.4228
íocaíocht	-10.4229
▁ghlao	-10.4249
aireachtáil	-10.4269
▁gairi	-10.428
▁geal	-10.4315
insint	-10.4323
▁Tacaío	-10.4328
▁rochta	-10.4441
▁leanfa	-10.4518
osclófa	-10.4529
ráchtála	-10.4551
ghníomhach	-10.4562
idirghabhála	-10.4585
prote	-10.4658
iomad	-10.4806
eolchoirmeacha	-10.5054
▁Féad	-10.5174
tosó	-10.5198
ruinniú	-10.5266
íobhálach	-10.5344
,600	-10.5368
▁meánscoil	-10.5404
maoin	-10.5493
reathnaío	-10.5505
athróg	-10.5506
iomlán	-10.5621
taobh	-10.5635
leibhé	-10.5636
iompar	-10.5637
▁Braithea	-10.5688
▁imscrúd	-10.5801
gníomhaireacht	-10.5803
airgead	-10.5805
▁thábhacht	-10.5817
aispeáint	-10.5827
▁Comhairl	-10.5831
omhaireamh	-10.5831
▁rang	-10.5832
▁fadhb	-10.5833
chúraim	-10.5838
▁bprói	-10.5839
▁insteall	-10.584
eardchuma	-10.584
geilleaga	-10.584
innealtóireachta	-10.584
meabhairshláinte	-10.584
mhúinteoirí	-10.584
reidmheasa	-10.584
scópacht	-10.584
taidhleoireachta	-10.584
úshláin	-10.584
▁Braithf	-10.584
▁Paindéim	-10.584
▁Seirbhís	-10.584
▁Teagmháil	-10.584
▁bhforbairt	-10.584
▁bronchiolitis	-10.584
▁chothabháil	-10.584
▁chógaiseoir	-10.584
▁comhcheilge	-10.584
▁dteaghlaigh	-10.584
▁dtuarascá	-10.584
▁feithic	-10.584
▁ferret	-10.584
▁forleithne	-10.584
▁fóillíochta	-10.584
▁ghinearálta	-10.584
▁grósaera	-10.584
▁hastráile	-10.584
▁hopkins	-10.584
▁infhaighteacht	-10.584
▁iobúpróifein	-10.584
▁luimneach	-10.584
▁mhantáin	-10.584
▁mhuinchille	-10.584
▁mhíchumas	-10.584
▁míchumais	-10.584
▁míchumas	-10.584
▁ndeimhn	-10.584
▁phacastáin	-10.584
▁riaradh	-10.584
▁thaispeán	-10.584
▁theoranta	-10.584
▁veicteoir	-10.584
▁woolworths	-10.584
indíreach	-10.584
ungáir	-10.584
▁gclinic	-10.584
▁ionchód	-10.584
▁peataí	-10.584
▁plasma	-10.584
▁polapróitéin	-10.584
▁stóráil	-10.584
▁fiáine	-10.584
▁gaolmhar	-10.584
▁shasana	-10.584
▁fecal	-10.584
▁glúine	-10.584
▁choláiste	-10.584
▁dhlúth	-10.584
▁talún	-10.584
▁chúins	-10.584
▁iontu	-10.584
▁Iompa	-10.584
http	-10.584
▁chabhair	-10.584
▁trádá	-10.584
ompróir	-10.584
▁uilíoch	-10.584
▁ghairm	-10.584
▁urlabhra	-10.584
shruth	-10.584
▁chosanta	-10.584
▁dtuig	-10.584
▁2019-20	-10.584
▁Cosain	-10.584
▁ghéar	-10.584
▁tuirc	-10.584
bainisteoir	-10.584
▁duánach	-10.584
▁braite	-10.584
▁sainmhíni	-10.584
▁suímh	-10.584
▁eisiata	-10.584
▁urlár	-10.584
▁gcúig	-10.5841
▁gcóireá	-10.5841
▁bunaidh	-10.5841
calraí	-10.5841
inimic	-10.5841
▁euro	-10.5842
▁conte	-10.5842
▁ndaonra	-10.5843
▁gcineál	-10.5843
▁Mhea	-10.5843
thuaisc	-10.5844
ómacha	-10.5844
▁suíochá	-10.5845
▁dtógfa	-10.5845
oigeart	-10.5847
▁himeacht	-10.5851
▁cáilíocht	-10.5851
▁Tagraí	-10.5855
▁lanc	-10.5865
aisleá	-10.5876
▁feist	-10.5888
▁dóchúla	-10.5923
scartha	-10.6036
hírigh	-10.6067
ochtaineacht	-10.6141
agraío	-10.6662
▁oileá	-10.721
▁athoscl	-10.7347
thástála	-10.7375
phríomh	-10.7631
teiripe	-10.7631
oideachas	-10.7632
faireachas	-10.7634
comharthaí	-10.78
▁fhreagair	-10.7801
eangal	-10.7824
oláireamh	-10.7828
oláthairtí	-10.7828
éasúr	-10.7828
▁ceist	-10.7832
▁nádúr	-10.7832
grafaíocht	-10.7838
irmheánach	-10.7839
eangail	-10.784
▁Gnáth	-10.784
peptid	-10.784
▁bolsonaro	-10.784
conclúid	-10.784
gastrointestinal	-10.784
homalógach	-10.784
imoibríoch	-10.784
ocsaineacht	-10.784
rithghiniúint	-10.784
rscaoileadh	-10.784
ruitíneach	-10.784
▁Sraothartach	-10.784
▁Sábháilte	-10.784
▁ailléirge	-10.784
▁antaigín	-10.784
▁ballstáit	-10.784
▁bhfreastalaí	-10.784
▁chaomhnú	-10.784
▁choimisiún	-10.784
▁chraiceann	-10.784
▁cispheil	-10.784
▁cúlchist	-10.784
▁cúlpháirtí	-10.784
▁dhíspreagadh	-10.784
▁enteritis	-10.784
▁feirme	-10.784
▁fionnachta	-10.784
▁gcorcaigh	-10.784
▁gcógaslann	-10.784
▁gearrthéarmach	-10.784
▁ghualainn	-10.784
▁hanaithnid	-10.784
▁hipirtheannas	-10.784
▁iarrthóra	-10.784
▁idirghabháil	-10.784
▁indéanta	-10.784
▁intleachtúil	-10.784
▁ionanál	-10.784
▁lóistín	-10.784
▁meastóireacht	-10.784
▁mheasúnaithe	-10.784
▁mheicniúil	-10.784
▁mífhaisnéis	-10.784
▁músaeim	-10.784
▁neodra	-10.784
▁néareolaíoch	-10.784
▁ollmhóra	-10.784
▁phearsan	-10.784
▁pictiúr	-10.784
▁pionós	-10.784
▁rouhani	-10.784
▁seroprevalence	-10.784
▁shaotharlann	-10.784
▁shoiléiriú	-10.784
▁snámha	-10.784
▁sprioc	-10.784
▁symptom	-10.784
▁tharchuir	-10.784
▁theicneolaíocht	-10.784
▁thiomáint	-10.784
omhthéacs	-10.784
▁bhainisteoir	-10.784
▁chomhpháirt	-10.784
▁chríochn	-10.784
▁cupáin	-10.784
▁déantúsaíocht	-10.784
▁feline	-10.784
▁gcorróg	-10.784
▁lymphocyt	-10.784
▁láidriú	-10.784
▁mheasúnú	-10.784
▁míchompord	-10.784
▁mífheidhm	-10.784
▁ngartheagmhála	-10.784
▁stróc	-10.784
▁éagsúil	-10.784
iargúlta	-10.784
▁infheidhm	-10.784
▁leithlise	-10.784
▁mhíbhuntáiste	-10.784
▁phríosú	-10.784
▁tamaill	-10.784
choinníoll	-10.784
oslódá	-10.784
▁Napro	-10.784
▁Siopa	-10.784
▁ebola	-10.784
▁hiondú	-10.784
▁toitín	-10.784
áireofa	-10.784
▁múnla	-10.784
thráth	-10.784
▁adhanom	-10.784
▁ceangailte	-10.784
▁logáil	-10.784
▁réiteach	-10.784
ceimiceach	-10.784
▁laige	-10.784
▁coláistí	-10.784
▁phóca	-10.784
D	-11.347
’	-11.8472
Ú	-12.8468
P	-12.8469
O	-12.847
–	-12.8471
”	-12.8472
R	-12.8473
/	-12.8474
G	-12.8475
L	-12.8476
F	-12.8477
S	-12.8478
B	-12.8479
N	-12.848
(	-12.8481
M	-12.8482
I	-12.8483
A	-12.8484
C	-12.8485
T	-12.8485
