<pad>	0
</s>	0
<unk>	0
▁the	-3.12074
,	-3.35976
▁of	-3.57703
s	-3.78068
.	-3.8265
▁and	-3.98149
▁	-4.023
▁(	-4.13189
▁in	-4.20098
▁to	-4.25421
▁a	-4.36118
-	-4.41675
▁was	-4.45032
)	-4.56829
ed	-4.60524
'	-5.00293
▁is	-5.0083
ing	-5.05424
▁as	-5.07824
▁that	-5.37617
▁by	-5.42095
▁no	-5.48549
▁for	-5.52175
e	-5.53872
▁he	-5.56717
▁on	-5.57899
▁with	-5.6122
a	-5.65896
▁The	-5.69333
▁from	-5.71614
i	-5.74846
▁'	-5.77345
▁his	-5.80525
▁"	-5.82093
d	-5.82835
▁In	-5.83983
),	-5.86851
).	-5.88432
o	-5.88895
▁were	-5.90024
▁it	-5.90858
ly	-5.92843
n	-5.95504
▁at	-5.95742
al	-5.95888
▁which	-5.9899
▁who	-5.98992
"	-5.99019
t	-5.99748
ji	-6.07965
in	-6.15505
▁be	-6.1724
▁are	-6.18651
y	-6.22159
▁an	-6.24012
▁He	-6.24169
l	-6.27295
▁or	-6.27554
u	-6.31846
▁period	-6.33241
the	-6.33682
▁family	-6.35308
ri	-6.36295
:	-6.36829
▁A	-6.37224
er	-6.38771
shi	-6.40625
ko	-6.40891
▁Emperor	-6.44214
▁clan	-6.46845
▁had	-6.48285
▁but	-6.4844
▁Kyoto	-6.48708
▁It	-6.50664
▁not	-6.50847
▁also	-6.53968
▁this	-6.56403
no	-6.59249
ra	-6.60516
jo	-6.60538
▁Temple	-6.61136
▁Province	-6.62428
ir	-6.62722
▁O	-6.63561
p	-6.63887
▁name	-6.65209
or	-6.6521
th	-6.6539
m	-6.68482
▁called	-6.68841
▁Japan	-6.69011
ki	-6.69422
▁after	-6.72612
▁became	-6.72763
▁City	-6.72775
c	-6.73548
to	-6.7472
▁one	-6.75443
▁Imperial	-6.76118
do	-6.78389
▁such	-6.81327
;	-6.83575
es	-6.83954
▁been	-6.85003
▁have	-6.85751
sho	-6.86094
▁Ko	-6.86123
an	-6.88019
r	-6.89274
▁time	-6.90006
ku	-6.90354
▁Japanese	-6.90496
se	-6.90759
▁Prefecture	-6.92369
ro	-6.92529
▁so	-6.92711
▁when	-6.93539
▁used	-6.94009
mi	-6.9462
ta	-6.97298
▁I	-7.00746
re	-7.01381
▁there	-7.02262
ion	-7.02337
ke	-7.02917
st	-7.03324
go	-7.03599
en	-7.05519
▁His	-7.05712
chi	-7.06612
▁On	-7.07722
▁made	-7.07773
A	-7.08341
ation	-7.0968
ka	-7.11066
▁other	-7.11472
▁they	-7.11653
▁son	-7.11809
ya	-7.12042
▁head	-7.12324
▁Edo	-7.12859
▁has	-7.12925
▁government	-7.14065
tsu	-7.14656
ma	-7.14722
▁during	-7.15946
cho	-7.16341
me	-7.16537
▁people	-7.17489
▁first	-7.17762
▁into	-7.18762
shu	-7.19447
▁said	-7.19979
▁-	-7.21137
ve	-7.21476
te	-7.27017
I	-7.27379
▁To	-7.28041
▁re	-7.28311
g	-7.28555
le	-7.28782
▁19	-7.29694
O	-7.30199
▁However	-7.30522
ar	-7.31109
ga	-7.3148
▁Sho	-7.31607
▁Station	-7.31969
▁under	-7.34596
gi	-7.34815
na	-7.35152
ru	-7.36506
yo	-7.36544
ge	-7.37596
▁because	-7.37615
da	-7.38517
bo	-7.39819
▁out	-7.40609
b	-7.4093
▁year	-7.41212
▁its	-7.41352
▁T	-7.41777
k	-7.41891
▁Yoshi	-7.42611
▁Shrine	-7.44263
▁system	-7.4429
wa	-7.44534
ho	-7.44818
▁Prince	-7.45573
▁between	-7.47591
▁many	-7.48724
ic	-7.48984
bu	-7.49229
▁order	-7.49992
yama	-7.50433
ment	-7.50459
ne	-7.51013
▁some	-7.51708
▁Thi	-7.53237
S	-7.53264
fu	-7.54259
▁same	-7.54269
kan	-7.54416
so	-7.54436
▁After	-7.5459
▁two	-7.54696
▁only	-7.55058
ter	-7.5507
▁So	-7.55625
▁S	-7.55683
gu	-7.55746
▁about	-7.55798
▁part	-7.56433
▁her	-7.56435
▁18	-7.57101
▁died	-7.57488
▁years	-7.576
▁where	-7.57659
▁him	-7.57915
zu	-7.58309
kyo	-7.58742
▁over	-7.5916
zo	-7.59992
▁FUJIWARA	-7.60607
2	-7.60699
us	-7.61161
w	-7.61165
E	-7.61453
▁Ho	-7.61583
▁all	-7.61819
ba	-7.61869
it	-7.62807
▁temple	-7.64
▁can	-7.64692
▁E	-7.64815
▁Taka	-7.64966
sa	-7.65717
f	-7.65777
▁up	-7.66091
shin	-7.66315
▁school	-7.66358
▁rank	-7.66387
▁main	-7.66909
▁father	-7.66947
▁established	-7.67103
though	-7.67289
mon	-7.67316
▁Ka	-7.67993
▁P	-7.68083
▁old	-7.68718
▁court	-7.68742
▁position	-7.68881
▁U	-7.69071
1	-7.69589
▁army	-7.69906
The	-7.70223
▁later	-7.70726
ha	-7.72238
▁written	-7.72594
.'	-7.72658
▁de	-7.73078
ju	-7.73254
su	-7.73267
▁well	-7.73315
▁Castle	-7.73743
▁death	-7.73744
on	-7.74229
U	-7.74431
▁held	-7.74781
▁Shin	-7.75138
▁Go	-7.76664
▁C	-7.76819
▁end	-7.76934
dai	-7.77327
ur	-7.77457
bi	-7.77584
▁Shi	-7.77681
▁Rank	-7.7778
▁area	-7.78127
▁post	-7.78489
▁being	-7.79157
ryo	-7.79166
ial	-7.79246
7	-7.79279
▁rice	-7.79326
▁War	-7.79498
▁15	-7.79734
▁including	-7.80226
h	-7.80456
mo	-7.80627
▁them	-7.80833
▁through	-7.81036
den	-7.81322
▁however	-7.81512
▁second	-7.81643
▁those	-7.81986
▁As	-7.82304
kai	-7.82923
▁side	-7.83109
ers	-7.83394
ten	-7.83486
▁she	-7.83487
▁while	-7.83581
▁three	-7.83599
ce	-7.84333
▁more	-7.84443
out	-7.84754
▁than	-7.85265
x	-7.85759
▁daughter	-7.8592
▁located	-7.85992
▁military	-7.8606
▁Court	-7.86125
▁known	-7.86677
▁Ki	-7.87253
▁hand	-7.87302
▁served	-7.87458
▁bakufu	-7.87884
▁Buddhist	-7.88072
▁There	-7.88167
at	-7.88275
▁Kamakura	-7.88433
ll	-7.8859
Japanese	-7.8866
sei	-7.88889
▁Kan	-7.89057
▁17	-7.8911
▁go	-7.89153
▁16	-7.89307
4	-7.89569
▁appointed	-7.90051
▁F	-7.90193
▁style	-7.90357
▁Domain	-7.90454
li	-7.90694
▁Ku	-7.9101
▁due	-7.91499
▁1	-7.91992
▁sho	-7.92048
▁since	-7.92548
sen	-7.92751
gawa	-7.9308
▁before	-7.93083
be	-7.93465
▁young	-7.93683
gen	-7.93818
▁around	-7.93848
▁line	-7.94469
▁would	-7.94693
▁came	-7.94716
▁c	-7.9502
G	-7.95045
▁M	-7.95392
de	-7.95667
ch	-7.95985
▁Nara	-7.96008
za	-7.96027
▁official	-7.96111
3	-7.96134
▁new	-7.96263
▁region	-7.96844
▁each	-7.96895
▁Meiji	-7.96946
5	-7.96974
sha	-7.97117
▁power	-7.97395
▁given	-7.97504
▁Line	-7.98017
yu	-7.98556
▁down	-7.98567
▁place	-7.99998
ance	-8.00047
▁Al	-8.00146
▁land	-8.00423
▁con	-8.00429
▁brother	-8.00445
▁lord	-8.00458
▁age	-8.01086
▁various	-8.01418
▁Mi	-8.01484
▁took	-8.01692
9	-8.01898
/	-8.02
▁title	-8.02003
▁then	-8.02156
▁10	-8.02428
▁work	-8.02726
▁Osaka	-8.02852
able	-8.0297
jin	-8.03895
▁sect	-8.0425
gaku	-8.04352
▁13	-8.04468
ity	-8.04649
▁Tokyo	-8.04687
▁Heian	-8.05064
▁San	-8.05146
▁[	-8.0561
▁early	-8.06189
▁following	-8.06252
▁co	-8.06275
▁use	-8.06333
▁11	-8.0646
▁f	-8.06475
jinja	-8.06792
▁MINAMOTO	-8.06827
▁back	-8.07003
un	-8.07351
▁12	-8.07398
based	-8.07449
san	-8.07937
▁shogun	-8.08009
▁did	-8.08165
ni	-8.08266
▁un	-8.08467
▁Dai	-8.08692
ng	-8.08892
est	-8.08911
▁station	-8.08914
▁When	-8.09256
▁imperial	-8.09509
▁wife	-8.09883
ck	-8.10074
▁considered	-8.10103
▁become	-8.10114
moto	-8.10281
▁like	-8.1052
▁Tada	-8.10582
▁war	-8.10698
▁Masa	-8.10952
tai	-8.10952
led	-8.11013
▁both	-8.11163
M	-8.11216
▁day	-8.1127
▁priest	-8.11443
▁Ward	-8.11574
▁number	-8.11794
▁mother	-8.11804
▁Fu	-8.11809
mu	-8.1251
▁Ten	-8.12827
▁8	-8.12909
▁himself	-8.13088
▁Sa	-8.13098
▁No	-8.1311
▁person	-8.13207
▁Jo	-8.13539
▁local	-8.13914
▁general	-8.13927
▁these	-8.14101
gyo	-8.14248
▁p	-8.14256
▁Chinese	-8.14537
▁Ma	-8.14956
ted	-8.15094
,"	-8.15274
il	-8.156
▁Do	-8.15617
▁B	-8.15704
▁Palace	-8.15728
▁could	-8.15728
▁left	-8.15729
6	-8.16266
▁book	-8.16334
▁shrine	-8.16356
▁Buddhism	-8.1643
▁refer	-8.1652
▁e	-8.17468
age	-8.17554
masa	-8.17587
▁School	-8.17756
▁al	-8.18114
▁Su	-8.18504
po	-8.1856
▁even	-8.18669
ry	-8.18895
▁Wa	-8.19
ated	-8.19893
▁At	-8.19992
▁tea	-8.2009
▁theory	-8.20245
TA	-8.20401
mori	-8.21177
zen	-8.21213
▁ceremony	-8.21273
▁Buddha	-8.2131
ary	-8.2136
man	-8.21447
▁Mt	-8.21554
Juni	-8.21579
nin	-8.21611
▁high	-8.2166
▁TOKUGAWA	-8.21937
▁Sei	-8.22019
ent	-8.22118
sai	-8.2228
ie	-8.22449
▁do	-8.2264
▁addition	-8.22768
▁According	-8.23443
vi	-8.23448
▁third	-8.23508
ting	-8.23768
went	-8.23791
▁emperor	-8.24035
he	-8.24084
▁against	-8.24142
▁born	-8.24286
▁7	-8.24789
▁April	-8.24952
▁January	-8.24978
ant	-8.24998
▁era	-8.25055
8	-8.2514
▁battle	-8.25484
▁dis	-8.25539
▁July	-8.25866
▁Ji	-8.25883
▁present	-8.26267
▁koku	-8.26848
▁March	-8.27258
▁started	-8.2748
el	-8.27485
▁make	-8.27924
▁October	-8.27998
▁built	-8.28557
▁Nobunaga	-8.28639
▁Period	-8.28702
▁state	-8.2907
▁Shinto	-8.29186
▁University	-8.29321
▁above	-8.29323
▁great	-8.29401
▁samurai	-8.29494
▁section	-8.29496
▁Gen	-8.30147
▁fact	-8.30335
co	-8.30553
▁among	-8.30868
naga	-8.30907
ate	-8.31145
."	-8.31234
▁Yo	-8.31485
▁large	-8.31702
ei	-8.32444
et	-8.3307
▁capital	-8.33227
▁Ha	-8.33464
yoshi	-8.33745
▁temples	-8.33778
day	-8.33847
▁feud	-8.34027
▁Hideyoshi	-8.34043
▁China	-8.34081
▁Shu	-8.34126
▁Ta	-8.3424
▁adopted	-8.34293
▁Re	-8.34512
▁chief	-8.34721
Ko	-8.34897
▁Kai	-8.34978
▁domain	-8.34989
▁way	-8.3523
▁lived	-8.35295
▁ancient	-8.35773
myo	-8.35832
▁Kyo	-8.35882
▁Ya	-8.36118
▁Sen	-8.36575
▁right	-8.36647
▁days	-8.36955
▁Hi	-8.37223
▁life	-8.37293
▁Ni	-8.37296
▁put	-8.37323
roku	-8.37327
C	-8.37696
▁most	-8.37852
using	-8.37955
ty	-8.38323
▁statue	-8.38365
▁visit	-8.38954
▁sake	-8.39052
R	-8.39083
▁pro	-8.39178
▁Moto	-8.39304
▁others	-8.39456
ken	-8.39511
▁former	-8.3968
▁form	-8.39779
▁century	-8.39814
▁will	-8.39829
▁ga	-8.40069
ized	-8.40138
▁unti	-8.40244
▁An	-8.4028
hi	-8.40287
▁water	-8.40707
▁kami	-8.40797
▁world	-8.40817
▁May	-8.40828
kaku	-8.41106
kata	-8.41248
▁ma	-8.41299
ichi	-8.41361
zan	-8.41437
▁14	-8.41474
▁unknown	-8.41539
▁national	-8.41688
▁Yasu	-8.41923
as	-8.42124
▁often	-8.42243
▁governor	-8.42603
▁For	-8.42624
ies	-8.42866
▁Kin	-8.42901
ous	-8.42931
▁Yu	-8.43049
▁common	-8.43142
▁o	-8.43463
▁Tsu	-8.43686
▁ASHIKAGA	-8.44163
▁Ieyasu	-8.4417
▁August	-8.44219
▁February	-8.44332
taka	-8.44365
oka	-8.44399
▁man	-8.44504
▁show	-8.44709
▁sa	-8.44714
▁Tai	-8.44763
▁different	-8.44983
▁6	-8.45026
▁birth	-8.45056
▁December	-8.45194
▁four	-8.45194
▁September	-8.4521
▁En	-8.45399
▁group	-8.45471
rin	-8.45476
▁b	-8.45555
▁Gon	-8.45608
▁set	-8.45684
gun	-8.45777
▁should	-8.45956
▁charge	-8.45957
▁9	-8.46145
▁long	-8.46277
ring	-8.46341
suke	-8.46586
▁4	-8.46718
KI	-8.46764
chu	-8.47144
▁office	-8.47233
ist	-8.47423
NO	-8.47494
▁times	-8.47666
tion	-8.47743
▁Railway	-8.47786
▁half	-8.47788
▁began	-8.47964
T	-8.48055
mura	-8.48184
▁3	-8.48211
▁members	-8.48449
hime	-8.48475
tic	-8.48478
▁if	-8.48539
▁together	-8.4871
literally	-8.48744
▁train	-8.48913
▁another	-8.49026
dori	-8.49125
machi	-8.49606
ut	-8.49616
▁child	-8.49636
AIRA	-8.49643
▁still	-8.49651
▁castle	-8.4967
▁historical	-8.49754
▁November	-8.49788
▁Nobu	-8.49846
▁away	-8.50456
▁within	-8.50624
▁Battle	-8.50699
ive	-8.50855
▁changed	-8.50911
bun	-8.51491
▁influence	-8.51539
▁regard	-8.51539
▁result	-8.5154
▁m	-8.51582
▁Ken	-8.51671
0	-8.51696
shima	-8.51782
▁Chi	-8.51947
▁Ju	-8.51993
▁Uji	-8.52296
▁Muromachi	-8.52501
▁important	-8.52512
▁G	-8.52589
▁5	-8.5267
ally	-8.5269
koku	-8.52808
▁pre	-8.52886
▁mi	-8.52992
▁example	-8.53125
▁br	-8.53158
B	-8.53279
▁country	-8.53484
▁families	-8.53534
▁National	-8.5364
DA	-8.53708
▁ho	-8.54028
▁means	-8.54147
having	-8.54281
kei	-8.54295
men	-8.54386
K	-8.54543
▁sp	-8.54739
▁according	-8.54824
ect	-8.54967
▁Sada	-8.5518
min	-8.55352
▁real	-8.55651
▁branch	-8.56322
▁small	-8.56442
▁Zen	-8.56444
han	-8.56583
▁take	-8.56692
▁They	-8.5694
▁house	-8.57152
ence	-8.57176
▁building	-8.57309
old	-8.57335
▁late	-8.5741
▁Empress	-8.57554
one	-8.57605
Ta	-8.57792
▁any	-8.57884
▁Shige	-8.58043
▁d	-8.58159
very	-8.58199
nari	-8.58386
▁control	-8.58438
▁lost	-8.58535
▁described	-8.58654
D	-8.5887
KA	-8.59037
▁center	-8.59506
▁issued	-8.59654
▁Hiro	-8.59787
Z	-8.59798
shiki	-8.59954
v	-8.60217
▁service	-8.60357
▁Street	-8.60545
pe	-8.60615
yaku	-8.60616
▁role	-8.60691
nori	-8.6081
ban	-8.60811
▁Yamato	-8.60844
mei	-8.60919
▁Kei	-8.60939
▁Grade	-8.61598
Since	-8.61612
ism	-8.61656
▁Naga	-8.61687
▁Mori	-8.61765
▁Tokugawa	-8.61778
kuni	-8.62001
]	-8.62375
Northern	-8.62666
▁Yori	-8.62852
▁Chu	-8.63051
▁mo	-8.63108
ure	-8.63206
▁2	-8.63212
▁found	-8.63475
▁north	-8.63663
▁good	-8.63739
▁children	-8.63898
▁promoted	-8.63949
katsu	-8.64037
▁shrines	-8.64149
ful	-8.6427
▁Cho	-8.64282
id	-8.64296
▁tri	-8.64614
▁D	-8.6481
▁political	-8.64824
▁front	-8.64824
Southern	-8.6483
▁Sai	-8.64844
moved	-8.64868
▁believed	-8.64872
▁kind	-8.65034
▁received	-8.65107
yori	-8.65603
tan	-8.65644
dan	-8.65661
00	-8.65701
▁music	-8.65924
▁Korea	-8.6599
▁hall	-8.66016
▁Ise	-8.66135
▁N	-8.66147
▁succeeded	-8.66153
▁books	-8.66342
▁along	-8.66368
▁trains	-8.66416
z	-8.66539
gan	-8.66609
▁san	-8.66801
ward	-8.67007
▁Therefore	-8.67034
Senior	-8.67038
ca	-8.67136
▁noble	-8.67181
▁history	-8.67189
▁Hon	-8.67353
▁created	-8.67492
▁killed	-8.67532
▁Minister	-8.67756
▁Matsu	-8.67836
ther	-8.67905
▁ko	-8.67952
designated	-8.68068
va	-8.68071
▁popular	-8.68124
▁view	-8.68158
▁site	-8.68159
▁River	-8.68172
▁She	-8.6824
ze	-8.68262
MI	-8.68563
▁ka	-8.6879
▁l	-8.68876
▁H	-8.69235
▁calendar	-8.69294
▁daimyo	-8.69311
hito	-8.69325
▁case	-8.69368
ran	-8.69435
▁last	-8.69531
▁art	-8.70223
▁character	-8.70482
▁just	-8.7051
▁original	-8.70513
P	-8.70955
▁close	-8.71312
▁Omi	-8.71323
▁st	-8.71368
▁sent	-8.71471
▁you	-8.71488
▁Sect	-8.71671
nomiya	-8.71685
▁Also	-8.7173
▁thought	-8.71766
ver	-8.71972
▁master	-8.72044
▁works	-8.72051
ron	-8.72091
ld	-8.72256
mb	-8.72408
▁public	-8.729
rei	-8.73039
▁June	-8.73139
Ka	-8.73219
yuki	-8.73278
▁Sane	-8.733
oku	-8.7341
▁W	-8.73629
▁wa	-8.73726
nobu	-8.73872
mitsu	-8.73885
▁transferred	-8.73978
▁sever	-8.74014
▁Toki	-8.7419
▁included	-8.74257
▁Dur	-8.74302
▁five	-8.74347
▁modern	-8.74354
▁law	-8.74427
kawa	-8.74795
▁lead	-8.74799
ts	-8.74862
▁ten	-8.75098
▁practice	-8.75178
▁territory	-8.75178
▁Yoritomo	-8.75189
▁term	-8.75289
▁seen	-8.75411
▁Genji	-8.76054
hira	-8.76123
▁ha	-8.76246
▁residence	-8.76397
▁contain	-8.76398
▁story	-8.76428
▁Kyushu	-8.76428
▁Shogun	-8.76464
matsu	-8.76511
▁city	-8.76559
▁fu	-8.7679
▁east	-8.7688
▁origin	-8.76903
▁returned	-8.77255
hon	-8.77379
▁Mitsu	-8.77409
▁Mo	-8.77512
▁Naka	-8.77646
▁status	-8.77646
▁Hide	-8.77665
▁every	-8.77678
tsugu	-8.77763
▁Ri	-8.77823
▁reason	-8.77826
▁cha	-8.77931
N	-8.77952
▁forces	-8.78037
▁di	-8.78656
ical	-8.78769
▁collection	-8.79051
▁developed	-8.79093
▁kan	-8.79135
▁Taira	-8.79312
▁passed	-8.79322
▁word	-8.79343
▁performed	-8.79486
ac	-8.7972
▁ro	-8.80029
▁express	-8.8008
ti	-8.80117
▁food	-8.80148
▁sometime	-8.80177
▁enshrined	-8.80228
▁sword	-8.80446
])	-8.8049
▁K	-8.80527
H	-8.80714
ishi	-8.808
▁Co	-8.80857
▁se	-8.80878
▁Aki	-8.81385
▁characters	-8.81386
▁Nishi	-8.81417
▁instead	-8.8143
▁Cultur	-8.8143
ryu	-8.81499
▁gate	-8.81562
fusa	-8.81667
▁areas	-8.81773
▁Incident	-8.8212
am	-8.8216
▁own	-8.82205
▁L	-8.82226
▁De	-8.8245
▁once	-8.82452
▁festival	-8.82729
▁middle	-8.82741
▁produced	-8.82843
rd	-8.82863
▁commander	-8.82909
referred	-8.8291
ff	-8.83169
▁member	-8.83418
▁Nori	-8.83677
and	-8.83796
ja	-8.84001
▁Dynasty	-8.84044
▁construction	-8.84065
▁support	-8.84155
▁making	-8.84357
▁Bun	-8.84468
▁generation	-8.84605
▁Y	-8.84841
▁materials	-8.84897
▁Some	-8.8499
▁Be	-8.85287
▁shi	-8.85297
pp	-8.85354
▁Nan	-8.85364
▁famous	-8.85378
gon	-8.85395
▁County	-8.85403
▁private	-8.85561
tur	-8.85776
▁Mon	-8.85962
▁act	-8.866
▁pa	-8.86654
▁next	-8.86729
▁stone	-8.86755
▁shogunate	-8.86783
▁Kami	-8.87067
▁point	-8.87163
▁Kane	-8.87602
SU	-8.87633
aki	-8.87754
▁countries	-8.88099
▁image	-8.88109
▁short	-8.88115
▁Tsune	-8.88184
▁Fuku	-8.88333
▁Toshi	-8.88355
oki	-8.8853
tsuna	-8.88541
bon	-8.88682
To	-8.88727
▁1,	-8.88812
▁off	-8.8882
▁get	-8.88913
Genji	-8.89101
less	-8.892
▁incident	-8.89309
L	-8.89417
▁palace	-8.89492
▁fire	-8.89522
nyo	-8.89528
▁south	-8.89731
▁Take	-8.89734
land	-8.90107
▁cultur	-8.90443
tori	-8.90547
uchi	-8.90783
▁Se	-8.90881
▁ri	-8.90889
ifth	-8.90964
▁Kuni	-8.90985
▁per	-8.91164
▁paper	-8.91204
▁vassal	-8.91466
michi	-8.91577
▁mountain	-8.9167
over	-8.92002
▁major	-8.92325
▁en	-8.92401
Sa	-8.92531
▁plan	-8.92682
ai	-8.92729
▁ex	-8.92745
▁return	-8.92763
▁play	-8.92977
kyu	-8.92983
▁placed	-8.93073
um	-8.93107
▁retainer	-8.93153
son	-8.9316
▁rule	-8.93395
▁type	-8.93438
▁Lower	-8.93774
▁god	-8.93814
▁Office	-8.9392
ren	-8.93954
nd	-8.9405
hara	-8.94051
▁current	-8.94124
▁originally	-8.94138
fa	-8.94226
▁Tomo	-8.94461
toku	-8.94796
,000	-8.94855
ness	-8.94866
ig	-8.95082
koji	-8.95089
fe	-8.95139
▁now	-8.95151
▁again	-8.95167
uji	-8.95176
per	-8.95244
▁Because	-8.95245
▁Fujiwara	-8.95245
▁study	-8.95245
▁method	-8.95245
▁Division	-8.95246
▁House	-8.95247
):	-8.95285
▁w	-8.95438
▁ODA	-8.95445
▁Han	-8.95456
▁introduced	-8.95464
seki	-8.95551
▁Iwa	-8.95557
▁process	-8.95604
▁allowed	-8.95743
we	-8.96309
way	-8.96321
▁Bu	-8.96345
▁Miya	-8.96694
related	-8.96698
▁base	-8.96718
▁business	-8.96737
▁conflict	-8.96737
▁deity	-8.96851
dera	-8.97053
taro	-8.97058
▁Noh	-8.97058
▁may	-8.9718
▁attack	-8.97243
pu	-8.97287
red	-8.97477
▁tax	-8.97671
▁Ro	-8.98034
yasu	-8.98406
Mi	-8.98487
▁Princess	-8.98497
▁tak	-8.9851
Ho	-8.98595
les	-8.98699
▁etc	-8.98836
▁troops	-8.98842
▁Ichi	-8.98865
▁V	-8.98887
rai	-8.98909
jima	-8.98936
▁Mu	-8.98993
bashi	-8.99043
▁h	-8.99046
form	-8.99174
▁traditional	-8.99507
▁Na	-8.99644
▁founded	-8.99682
▁color	-8.99792
▁month	-8.99891
MURA	-8.99906
▁Koku	-9.00019
▁History	-9.00064
▁Kanto	-9.00155
▁Ryo	-9.00221
▁entered	-9.00568
▁volume	-9.00621
ish	-9.00773
▁Bo	-9.00977
pi	-9.00992
YAMA	-9.0115
Japan	-9.01151
▁prince	-9.01283
▁special	-9.01365
▁nobles	-9.01414
▁town	-9.01492
emon	-9.01825
kin	-9.01827
▁appeared	-9.01963
cha	-9.02031
▁po	-9.02059
▁Ga	-9.02296
ought	-9.02712
▁text	-9.0294
▁therefore	-9.02942
▁Yuki	-9.03004
mune	-9.0306
▁sea	-9.03126
▁Keihan	-9.0316
▁Tale	-9.03274
▁mentioned	-9.03464
19	-9.03495
▁Ie	-9.03832
▁Ashi	-9.03862
▁Man	-9.03882
▁Kita	-9.03985
mono	-9.04094
Hi	-9.04096
specially	-9.04237
▁include	-9.04257
hei	-9.04496
▁places	-9.04507
▁Satsuma	-9.04554
▁From	-9.04554
▁consist	-9.0456
▁spread	-9.04571
omi	-9.04601
▁30	-9.04879
▁design	-9.04885
▁unit	-9.04909
dy	-9.04914
▁dai	-9.04986
▁Korean	-9.05375
")	-9.05387
▁letter	-9.05557
ling	-9.05888
▁strong	-9.0592
fuku	-9.06165
▁Family	-9.06193
▁latter	-9.06193
▁wrote	-9.06193
▁occurred	-9.06197
om	-9.06246
kept	-9.06295
▁compil	-9.06319
10	-9.0633
▁Kiyo	-9.06406
▁we	-9.06438
▁na	-9.0645
tto	-9.06476
side	-9.0657
▁men	-9.06596
shige	-9.06705
fi	-9.06974
▁20	-9.07006
▁stop	-9.07268
▁six	-9.07468
▁Jin	-9.07468
▁run	-9.07479
▁hi	-9.07481
hiko	-9.07492
▁low	-9.07499
▁operat	-9.07713
▁inside	-9.07727
▁foreign	-9.07814
▁Monogatari	-9.07859
▁situation	-9.07859
▁Kannon	-9.07861
▁fought	-9.07891
▁stage	-9.0807
▁soldiers	-9.08155
▁bi	-9.08188
▁affairs	-9.08194
▁continued	-9.08227
▁defeated	-9.0828
▁bu	-9.08852
▁shape	-9.08987
kami	-9.09073
toki	-9.09096
▁religio	-9.09293
▁Museum	-9.09561
▁few	-9.0957
▁movement	-9.09572
▁authority	-9.09577
▁performance	-9.09582
▁Shogunate	-9.09589
▁meters	-9.09603
▁Mune	-9.09617
▁dance	-9.09636
▁Second	-9.09664
▁carri	-9.09671
▁record	-9.09677
Shi	-9.09687
▁names	-9.09698
▁granted	-9.09703
▁provinces	-9.09729
▁Later	-9.09845
hiro	-9.09963
kko	-9.10015
▁taken	-9.1009
▁fish	-9.10101
▁provinc	-9.1012
ple	-9.10333
pt	-9.10373
YA	-9.10745
MA	-9.10929
▁Higashi	-9.11237
head	-9.11245
▁With	-9.11279
▁women	-9.11283
▁Hall	-9.11364
▁operation	-9.11431
▁officials	-9.11512
▁date	-9.11546
▁Great	-9.11548
▁Te	-9.11729
▁gain	-9.11752
butsu	-9.11776
▁force	-9.11871
▁monk	-9.11936
up	-9.12008
ions	-9.12214
▁retainers	-9.12293
▁ca	-9.12625
chika	-9.12669
que	-9.13032
▁garden	-9.13033
▁social	-9.13033
▁body	-9.13034
▁road	-9.13034
imate	-9.13051
▁Sengoku	-9.13055
Kyoto	-9.13134
▁class	-9.13316
▁Michi	-9.13368
▁Ministry	-9.13372
like	-9.13379
▁Guards	-9.13385
▁start	-9.13607
▁eight	-9.13738
hisa	-9.14032
▁Governor	-9.14117
▁today	-9.1445
con	-9.1446
sada	-9.14614
house	-9.14648
▁store	-9.14771
F	-9.14809
▁decided	-9.14848
▁represent	-9.14876
▁wooden	-9.14884
▁seem	-9.14929
▁gold	-9.14958
▁Haru	-9.14965
▁worship	-9.14992
ship	-9.15013
RI	-9.15022
▁abolished	-9.15067
▁ti	-9.15106
▁poems	-9.15225
▁ju	-9.15349
▁culture	-9.15398
▁22	-9.1548
▁Kore	-9.15539
zuka	-9.1566
▁party	-9.15797
▁priests	-9.15807
▁bus	-9.15937
▁read	-9.15938
Kan	-9.15939
lic	-9.16069
jiro	-9.16103
▁24	-9.16164
▁near	-9.16636
▁Festival	-9.16637
▁particular	-9.16637
▁Route	-9.16637
▁sister	-9.16638
▁relationship	-9.16639
▁poet	-9.16653
▁hard	-9.16663
read	-9.16806
▁change	-9.16872
▁published	-9.16963
▁(1	-9.17161
ice	-9.17197
▁Ba	-9.17345
▁cut	-9.17357
▁jo	-9.17405
▁lower	-9.17414
▁Gi	-9.17555
13	-9.17589
ving	-9.17623
zai	-9.17739
▁cho	-9.17885
▁generations	-9.17956
ternal	-9.17998
goku	-9.18011
▁poem	-9.1807
ide	-9.18177
▁legend	-9.18489
▁retired	-9.18489
▁themselves	-9.18489
▁drama	-9.18489
▁reign	-9.18489
▁Road	-9.1849
▁district	-9.18494
▁Bosatsu	-9.18496
▁Right	-9.18497
▁what	-9.18521
▁reach	-9.18554
▁Third	-9.18569
▁assigned	-9.18843
kiyo	-9.19022
▁joined	-9.19072
cent	-9.19286
▁Then	-9.19486
shiro	-9.196
▁top	-9.19703
▁attacked	-9.19739
mai	-9.19782
7,	-9.19874
▁serve	-9.20083
▁waka	-9.20177
▁Nin	-9.20195
▁studi	-9.20258
Sho	-9.20342
▁similar	-9.20375
▁Dainagon	-9.20375
▁certain	-9.20375
▁High	-9.20376
▁broke	-9.20392
▁direct	-9.20466
▁how	-9.20468
▁Kage	-9.20505
▁caused	-9.20544
▁fourth	-9.20652
▁Nijo	-9.20691
▁western	-9.20741
hashi	-9.20757
▁room	-9.20794
▁founder	-9.20853
▁v	-9.20996
▁Saga	-9.21169
tsune	-9.21192
kura	-9.21315
saki	-9.21404
cy	-9.21415
nosuke	-9.21562
▁central	-9.21589
▁shin	-9.21673
▁ground	-9.21934
▁my	-9.22182
▁property	-9.22298
▁throne	-9.22298
▁First	-9.22299
▁beginning	-9.22299
▁horse	-9.22299
▁Sutra	-9.22299
▁estate	-9.223
▁highest	-9.22388
later	-9.22483
▁One	-9.22497
hama	-9.22515
▁higher	-9.22774
most	-9.22854
▁arm	-9.22971
75	-9.23043
▁existed	-9.23048
maru	-9.23224
▁27	-9.23306
▁hon	-9.23831
low	-9.23866
maro	-9.24123
▁come	-9.24249
mportant	-9.24249
▁HOSOKAWA	-9.24259
▁World	-9.24259
▁amount	-9.24259
▁TOYOTOMI	-9.24259
▁series	-9.2426
▁Even	-9.24261
▁Whi	-9.24298
▁administration	-9.24301
▁code	-9.24395
is	-9.24438
car	-9.24439
ph	-9.24441
▁Jun	-9.24513
▁Suke	-9.24518
▁Jodo	-9.24611
▁conducted	-9.24715
▁formed	-9.24721
mochi	-9.24818
▁KO	-9.2524
tomo	-9.25297
of	-9.25336
▁Nao	-9.25465
▁kuni	-9.25584
▁learn	-9.25606
▁Con	-9.25712
▁descendants	-9.25728
▁Bus	-9.25758
saka	-9.25781
▁Mino	-9.25925
nai	-9.25935
▁village	-9.25977
gin	-9.26156
▁officer	-9.26189
ound	-9.26196
guchi	-9.26248
▁Furthermore	-9.26259
▁usual	-9.26261
▁woman	-9.26267
▁documents	-9.26295
▁West	-9.26314
▁field	-9.26353
▁II	-9.26368
▁Moro	-9.26425
▁married	-9.26425
present	-9.26438
▁look	-9.26464
▁upon	-9.26486
▁enter	-9.26548
▁does	-9.26614
▁meaning	-9.26655
Ki	-9.26689
▁Toyo	-9.26718
pen	-9.26726
▁guard	-9.26754
▁23	-9.26784
ight	-9.26807
▁ki	-9.26871
gai	-9.26907
▁Main	-9.26917
60	-9.27008
gura	-9.27029
shaped	-9.27071
ner	-9.27104
▁older	-9.27108
tei	-9.27192
tch	-9.27364
▁Yama	-9.27394
▁west	-9.27402
Ha	-9.27416
AN	-9.27463
hide	-9.2759
haru	-9.27635
ors	-9.27699
▁live	-9.28255
▁length	-9.283
▁organization	-9.283
▁company	-9.283
▁route	-9.28301
▁belonged	-9.28301
▁Left	-9.28304
▁possible	-9.28307
yaki	-9.28339
▁lineage	-9.28409
▁limited	-9.28458
fac	-9.28471
Ma	-9.28551
chief	-9.28591
▁services	-9.28672
▁Tang	-9.28685
▁raised	-9.28724
ture	-9.2873
▁Myo	-9.28745
▁fall	-9.28851
▁got	-9.28857
▁mid	-9.2899
ach	-9.29039
▁New	-9.29092
▁follows	-9.29311
▁actual	-9.29416
hai	-9.29501
gata	-9.2968
▁heir	-9.29776
▁Di	-9.30027
Go	-9.30105
▁lords	-9.30309
▁custom	-9.30338
qua	-9.30383
▁HOJO	-9.30383
▁sauce	-9.30384
▁Kabuki	-9.30397
▁perform	-9.30415
▁list	-9.30449
▁Kawachi	-9.30453
▁Western	-9.30519
▁home	-9.3056
▁Art	-9.30627
▁MATSU	-9.30641
▁Fushimi	-9.30711
▁production	-9.30742
line	-9.30807
ding	-9.30875
▁hot	-9.31025
▁records	-9.31088
▁Hojo	-9.31126
ible	-9.31315
saku	-9.31885
toshi	-9.31996
▁appears	-9.3224
rew	-9.32272
lar	-9.32309
▁Her	-9.32423
▁burn	-9.32512
Ku	-9.32516
▁relative	-9.32521
▁season	-9.3253
▁Land	-9.32545
▁spring	-9.32559
▁seven	-9.32572
▁Takeda	-9.32608
▁cover	-9.3263
nder	-9.32643
▁Tendai	-9.32654
▁shu	-9.32704
▁see	-9.32728
▁selected	-9.32749
▁originated	-9.32874
style	-9.32932
▁say	-9.32983
val	-9.33034
▁approx	-9.33121
1,	-9.33176
▁count	-9.33342
istic	-9.33529
▁va	-9.33594
▁students	-9.33701
▁schools	-9.3371
▁vassals	-9.33809
▁Sui	-9.33895
▁coins	-9.33912
SHI	-9.33969
▁trees	-9.34007
▁played	-9.34032
ged	-9.34056
tory	-9.34068
▁Nari	-9.34179
ine	-9.34301
▁protect	-9.34594
▁cases	-9.34679
▁Army	-9.34685
▁Electric	-9.34685
▁scene	-9.34685
▁money	-9.34686
▁night	-9.3469
▁Act	-9.34695
▁matter	-9.34704
▁Shingon	-9.34757
▁outside	-9.34768
▁Ama	-9.34818
▁TO	-9.34915
ill	-9.35063
▁hereditary	-9.35067
▁total	-9.35105
▁province	-9.35115
▁wear	-9.35137
▁remained	-9.35183
gami	-9.35204
ura	-9.35238
▁whole	-9.35343
▁love	-9.35704
if	-9.35814
▁remains	-9.35816
▁mon	-9.35895
▁Gyo	-9.3594
▁Li	-9.36017
▁hold	-9.36026
▁light	-9.36041
▁bar	-9.36132
sui	-9.36159
▁sha	-9.36348
WA	-9.3636
▁me	-9.36468
▁words	-9.36481
▁fell	-9.36634
jingu	-9.3674
▁gradually	-9.36907
▁opinion	-9.36907
▁properties	-9.36907
▁ritual	-9.36907
▁renam	-9.36909
▁Owari	-9.36909
▁value	-9.36912
▁Nichiren	-9.36914
▁description	-9.36916
▁human	-9.36922
▁thus	-9.36922
▁development	-9.36928
▁rebellion	-9.36939
▁give	-9.36957
▁recent	-9.36992
▁State	-9.37062
▁pur	-9.37074
▁director	-9.37096
▁document	-9.3717
▁parts	-9.37195
▁whe	-9.37206
▁Bureau	-9.3738
▁sub	-9.37452
tsuki	-9.37475
▁lot	-9.37599
▁Un	-9.37651
▁details	-9.37673
▁Kata	-9.37968
ating	-9.37999
▁kill	-9.38234
88	-9.38743
▁Prefectur	-9.38759
▁except	-9.38846
▁Restoration	-9.3918
▁difficult	-9.3918
▁dynasty	-9.3918
▁literature	-9.3918
▁policy	-9.3918
▁course	-9.3918
▁Year	-9.3918
▁Amida	-9.39181
▁Ltd	-9.39181
▁railway	-9.39181
▁never	-9.39186
▁education	-9.39187
▁farm	-9.39233
▁Fourth	-9.39235
▁Law	-9.39256
▁completed	-9.39287
▁issue	-9.39336
▁involved	-9.39376
▁below	-9.39423
▁spirit	-9.3945
▁male	-9.3952
▁though	-9.39605
ever	-9.3961
▁inherited	-9.39616
▁Ne	-9.39762
▁past	-9.3995
table	-9.40102
▁positions	-9.40143
▁concern	-9.40481
▁Ei	-9.40764
thing	-9.409
▁Toku	-9.41074
99	-9.41138
date	-9.41179
ue	-9.41464
16	-9.41492
?	-9.41506
▁Chunagon	-9.41506
▁prevent	-9.41506
▁silver	-9.41506
▁film	-9.41506
▁subject	-9.41506
▁conferred	-9.41507
▁asked	-9.41575
▁divided	-9.41579
also	-9.41602
ification	-9.41811
▁surrounding	-9.4182
▁provided	-9.41826
▁powerful	-9.41851
▁Maizuru	-9.41871
▁track	-9.41902
▁idea	-9.41934
▁constructed	-9.41935
▁la	-9.41959
GI	-9.42008
▁Sanjo	-9.42048
▁added	-9.42265
nen	-9.42413
▁minister	-9.42476
▁towns	-9.42604
cul	-9.4267
▁liv	-9.42791
ging	-9.42827
time	-9.43117
row	-9.43239
▁wh	-9.43246
▁northern	-9.43315
▁25	-9.4341
▁command	-9.43554
▁East	-9.43712
▁assum	-9.43722
▁respect	-9.43865
▁research	-9.43886
▁suffer	-9.43886
▁foot	-9.43887
▁keep	-9.43887
▁much	-9.43889
▁engag	-9.43893
▁deriv	-9.43894
▁grave	-9.43931
▁big	-9.43934
▁Fuji	-9.44083
▁level	-9.44173
ities	-9.44284
▁wood	-9.4435
ble	-9.44412
▁lines	-9.4443
▁g	-9.44451
▁Otsu	-9.4453
tomi	-9.44543
BE	-9.44742
90	-9.44954
▁leader	-9.45051
▁("	-9.45067
▁rest	-9.45094
▁gods	-9.45292
▁And	-9.45369
▁councilor	-9.45462
goro	-9.45514
▁statues	-9.45629
tada	-9.45647
▁creat	-9.45671
daijin	-9.45716
let	-9.45769
▁Ge	-9.45836
Na	-9.45947
▁nation	-9.45961
treated	-9.45968
▁terms	-9.46033
▁cars	-9.46063
▁know	-9.46067
▁connect	-9.46138
▁author	-9.46293
▁gun	-9.46301
▁Affairs	-9.46325
▁street	-9.46325
▁structure	-9.46325
▁equi	-9.46326
▁request	-9.46326
▁Among	-9.46327
▁surrender	-9.46346
▁establishment	-9.46378
▁describe	-9.46428
▁Captain	-9.46439
▁Mutsu	-9.46454
▁increased	-9.46499
▁More	-9.4651
▁picture	-9.46576
▁ken	-9.46715
▁seat	-9.46797
▁R	-9.46949
2,	-9.4704
▁26	-9.47062
▁tsu	-9.47177
▁opened	-9.47207
▁bound	-9.47235
▁Shimo	-9.47845
eki	-9.47885
▁su	-9.4836
6,	-9.48364
wn	-9.4853
tive	-9.48556
▁Shiga	-9.48621
▁Ritsu	-9.48751
▁Treasure	-9.48825
▁Village	-9.48825
▁independent	-9.48825
▁individual	-9.48825
▁problem	-9.48825
▁Crown	-9.48826
▁white	-9.48826
▁Asuka	-9.48827
▁envoy	-9.48832
▁full	-9.48834
▁roof	-9.48847
▁theories	-9.48849
▁tai	-9.48957
JI	-9.48978
▁Ren	-9.49002
▁regions	-9.49013
iddle	-9.49072
▁regent	-9.49128
▁Shinshu	-9.4926
cal	-9.49281
▁forced	-9.49328
▁Showa	-9.49333
▁standing	-9.49425
kuro	-9.49752
art	-9.49763
pped	-9.4982
gar	-9.49837
mine	-9.50002
▁ge	-9.50132
▁29	-9.50146
▁St	-9.50346
▁pla	-9.50383
ori	-9.50517
▁sun	-9.50654
▁appear	-9.50683
▁Kazu	-9.50855
50	-9.50968
ult	-9.51098
▁govern	-9.51133
▁rid	-9.51253
▁female	-9.5139
▁chapter	-9.5139
▁itself	-9.5139
▁travel	-9.51391
▁succession	-9.51407
▁deep	-9.51417
▁deities	-9.51438
▁things	-9.51439
▁sound	-9.51443
tsuryo	-9.51448
▁Kawa	-9.51545
▁trade	-9.5156
even	-9.51613
tama	-9.51639
▁direction	-9.51648
▁senior	-9.51699
▁sold	-9.51726
▁ryo	-9.51885
▁painting	-9.51917
68	-9.51996
▁toward	-9.52107
year	-9.52234
▁exist	-9.52345
▁NAKA	-9.52421
▁100	-9.5246
▁event	-9.5265
66	-9.52694
0,000	-9.52717
▁Mura	-9.52768
▁Minamoto	-9.52847
dditionally	-9.53066
called	-9.53086
▁committ	-9.53174
▁establish	-9.53368
Wa	-9.53419
▁car	-9.53532
port	-9.53545
ious	-9.53582
▁wall	-9.53655
kane	-9.5376
▁Dan	-9.53849
meter	-9.53852
▁favor	-9.54001
HARA	-9.54021
▁Goshirakawa	-9.54021
▁ancestor	-9.54021
▁available	-9.54021
▁eventually	-9.54021
▁purpose	-9.54021
▁active	-9.54063
▁Kiyomori	-9.54065
▁red	-9.5408
▁Town	-9.54093
▁finally	-9.54112
▁shugo	-9.54151
▁resigned	-9.54195
▁says	-9.54201
▁ship	-9.54242
king	-9.54262
▁natural	-9.5429
J	-9.54387
▁By	-9.54548
▁followed	-9.54599
nao	-9.54726
▁sen	-9.54745
▁stayed	-9.54748
▁JR	-9.54753
▁Kamo	-9.54789
ang	-9.54795
▁warrior	-9.54823
▁saying	-9.54829
Emperor	-9.54935
bara	-9.54999
▁provision	-9.55081
▁Nihon	-9.55107
OKA	-9.55171
▁tra	-9.55188
ral	-9.55278
▁persons	-9.55356
Ya	-9.55397
▁Council	-9.55496
▁Du	-9.55755
▁fight	-9.56111
▁stand	-9.56133
▁Juni	-9.56166
81	-9.56358
▁secret	-9.56699
▁effect	-9.56703
▁Ancient	-9.56724
▁Association	-9.56724
▁Household	-9.56724
▁distinguish	-9.56724
▁little	-9.56724
▁Godaigo	-9.56724
▁Party	-9.56724
▁legal	-9.56738
▁awarded	-9.56755
Kojiki	-9.56802
▁Higashiyama	-9.56812
▁Yoshimitsu	-9.56863
▁think	-9.56866
▁Oda	-9.56976
▁Gun	-9.5702
sato	-9.57216
▁J	-9.5726
▁faction	-9.5733
▁Shugo	-9.57489
zoku	-9.57493
main	-9.575
for	-9.57508
kaga	-9.57549
87	-9.57634
pper	-9.57673
▁Yoshino	-9.57673
Minister	-9.57705
94	-9.57934
Ten	-9.57977
zane	-9.58241
▁Kara	-9.58302
▁rep	-9.58381
cre	-9.58489
▁stations	-9.58517
▁face	-9.58672
ppo	-9.58736
Raku	-9.58764
82	-9.58825
leg	-9.58962
ology	-9.59013
raku	-9.59099
etsu	-9.59294
▁occasion	-9.5948
▁Department	-9.59502
▁location	-9.59502
▁scholar	-9.59502
▁society	-9.59502
▁dedicat	-9.59502
▁enjoy	-9.59502
▁belonging	-9.59503
▁either	-9.59503
▁composed	-9.59506
▁rather	-9.59509
▁successor	-9.59538
▁meat	-9.59561
▁Mikoto	-9.5958
▁weak	-9.59586
▁princip	-9.59614
kushi	-9.59619
▁Zo	-9.59655
▁memor	-9.59745
▁suicide	-9.59838
former	-9.59874
▁Inner	-9.59943
▁technique	-9.60023
▁administrati	-9.60031
▁Daijo	-9.60069
▁sense	-9.60102
zaki	-9.60172
ber	-9.60228
ui	-9.60249
▁Shima	-9.60316
councilor	-9.60551
provinc	-9.60556
setsu	-9.60592
▁3,	-9.60678
▁exp	-9.60695
▁open	-9.60718
▁becom	-9.60746
▁Katsu	-9.60904
pei	-9.61002
▁Courts	-9.61119
gashi	-9.61328
▁call	-9.6144
▁pass	-9.61607
65	-9.61612
CHI	-9.61623
▁supported	-9.61678
ization	-9.61702
kichi	-9.61718
20	-9.6172
▁size	-9.61891
raw	-9.61907
▁Cha	-9.61993
▁bell	-9.62205
X	-9.6222
▁elde	-9.62302
▁Education	-9.62359
▁Research	-9.62359
▁enemy	-9.62359
▁friend	-9.62359
ordinary	-9.62359
▁thousand	-9.6236
▁Island	-9.62363
▁Retire	-9.62366
▁future	-9.62382
▁help	-9.62387
▁river	-9.62401
▁lun	-9.62421
▁gather	-9.62436
maki	-9.62439
▁required	-9.62467
▁seventh	-9.62535
▁empress	-9.62651
▁suppress	-9.62689
▁YAMA	-9.62747
▁dispatched	-9.6282
▁Uma	-9.6294
▁star	-9.6301
▁Me	-9.63067
▁existing	-9.63077
39	-9.63078
▁actor	-9.63263
▁highly	-9.6347
Governor	-9.63498
Imperial	-9.63511
ssistant	-9.63621
72	-9.63627
33	-9.63748
▁medi	-9.63783
▁Tei	-9.64047
▁Hachi	-9.64075
In	-9.64118
ory	-9.64211
kazu	-9.64364
24	-9.64428
▁Its	-9.64512
light	-9.6464
▁actors	-9.64686
dono	-9.64827
▁warriors	-9.64873
▁paintings	-9.64942
eval	-9.64942
▁clear	-9.65025
35	-9.65033
▁wide	-9.6508
▁Shun	-9.65172
▁consider	-9.65214
▁suke	-9.65258
unicipal	-9.65276
▁Company	-9.653
▁Property	-9.653
▁accompani	-9.653
▁effort	-9.653
▁further	-9.653
▁platform	-9.653
▁settled	-9.653
▁Park	-9.65301
▁attempt	-9.65302
▁Kyu	-9.65312
▁Izumo	-9.65326
▁states	-9.65327
▁carry	-9.65333
▁Hiei	-9.65395
▁here	-9.65433
▁cit	-9.65444
round	-9.65497
78	-9.65522
▁too	-9.65551
take	-9.65556
▁comp	-9.65624
▁writing	-9.65656
atsu	-9.65705
▁eastern	-9.65716
▁Tango	-9.65756
tang	-9.65922
▁2,	-9.65966
▁submitt	-9.66054
▁ni	-9.66162
▁monks	-9.66223
tari	-9.66738
zumi	-9.67111
▁Hana	-9.67177
3,	-9.67222
▁personal	-9.67305
▁allow	-9.67378
pon	-9.67453
▁Da	-9.6755
▁table	-9.6767
15	-9.67723
▁Atsu	-9.67785
▁Tumulus	-9.6833
▁depict	-9.6833
▁quit	-9.6833
▁variety	-9.6833
▁unique	-9.6833
▁Harima	-9.68331
▁Center	-9.68331
▁southern	-9.68331
▁Azuchi	-9.68332
▁Qing	-9.68335
▁Nyorai	-9.68339
▁OTOMO	-9.68353
▁management	-9.68366
▁ruin	-9.6837
▁poetry	-9.68377
▁fifth	-9.68395
▁elder	-9.68436
▁reform	-9.68471
▁escaped	-9.68492
▁honor	-9.68612
▁wish	-9.68661
▁hair	-9.68682
▁directly	-9.68771
j	-9.69117
▁treasure	-9.69121
▁descendant	-9.69163
Shin	-9.69367
80	-9.69497
▁pieces	-9.69531
▁products	-9.69531
▁Grand	-9.69663
(	-9.69677
Dai	-9.6979
▁Haku	-9.69911
shoku	-9.69926
Jo	-9.6998
▁deal	-9.70215
▁port	-9.70285
▁SHI	-9.70296
tle	-9.70298
▁dish	-9.70303
▁Za	-9.70376
▁forest	-9.70462
▁training	-9.70501
lf	-9.70606
by	-9.70725
aries	-9.70822
8,	-9.70852
▁gon	-9.70983
ft	-9.71029
▁add	-9.71038
▁attend	-9.71323
Yo	-9.71406
▁increasing	-9.71455
▁MATSUDAIRA	-9.71455
▁enthronement	-9.71455
▁entrance	-9.71455
▁ticket	-9.71455
▁Jusanmi	-9.71455
▁serving	-9.71455
▁depend	-9.71456
Momoyama	-9.71457
▁attach	-9.71458
▁hundred	-9.71461
▁District	-9.71461
▁content	-9.71462
▁difference	-9.71463
▁Book	-9.71467
Major	-9.71471
▁kimono	-9.7148
▁single	-9.71489
▁might	-9.71492
▁manner	-9.715
▁States	-9.71518
oshi	-9.71529
▁necessary	-9.71535
▁respectively	-9.71537
▁Takauji	-9.71562
▁dishes	-9.71578
▁Choshu	-9.71678
▁foundation	-9.71702
▁sixth	-9.71705
▁busho	-9.71771
▁Tame	-9.71778
▁best	-9.71783
▁owned	-9.71787
▁Tanba	-9.71925
▁Confucianism	-9.7201
▁fighting	-9.72216
ler	-9.72282
▁article	-9.72349
9,	-9.72432
iwa	-9.7244
part	-9.72483
▁Ke	-9.7254
tane	-9.72554
▁less	-9.72585
4,	-9.72628
▁grand	-9.72686
▁Bi	-9.72751
Fu	-9.72779
▁sacr	-9.72819
▁imp	-9.72854
Minamoto	-9.72872
vol	-9.7289
which	-9.72893
miya	-9.72899
▁But	-9.72904
▁Kobe	-9.72936
38	-9.72942
ists	-9.72964
▁ranks	-9.73168
▁groups	-9.73175
via	-9.73791
Sei	-9.738
▁swords	-9.73998
▁Tosa	-9.74097
▁join	-9.74142
gumi	-9.74204
ily	-9.74264
▁clans	-9.74351
▁events	-9.74375
W	-9.74393
64	-9.74444
uma	-9.74582
46	-9.74659
48	-9.74672
▁Hokkaido	-9.74681
▁activities	-9.74681
▁beautiful	-9.74681
▁merchant	-9.74681
▁politics	-9.74681
▁priesthood	-9.74681
▁territories	-9.74681
▁faith	-9.74681
▁square	-9.74681
▁Suruga	-9.74681
▁version	-9.74681
▁skill	-9.74682
▁Settsu	-9.74682
▁classified	-9.74692
▁silk	-9.74694
▁grow	-9.74695
▁Yoshiaki	-9.74696
▁appointment	-9.74708
zukuri	-9.74723
30	-9.7475
▁2006	-9.74753
▁something	-9.74765
▁aim	-9.74779
long	-9.74928
▁Musashi	-9.74953
▁noodles	-9.7503
▁Bank	-9.75078
)"	-9.75097
▁buried	-9.75104
▁care	-9.75105
▁religion	-9.75184
▁Kuro	-9.75207
mizu	-9.75213
▁comes	-9.75218
▁anti	-9.7527
▁ruled	-9.75362
▁MORI	-9.75375
▁mean	-9.75408
chin	-9.75473
▁Ming	-9.75534
▁mikoto	-9.75584
▁commonly	-9.75696
▁tree	-9.75704
▁manor	-9.75723
▁flower	-9.75749
bei	-9.75887
ped	-9.75986
▁31	-9.76026
▁fan	-9.76073
▁indicat	-9.76202
teru	-9.76218
law	-9.76222
shaku	-9.76264
▁25,	-9.76362
▁compar	-9.7652
▁k	-9.76689
▁6,	-9.76791
▁non	-9.76815
▁pot	-9.76955
▁em	-9.76965
sumed	-9.77066
▁Waka	-9.77111
▁song	-9.7722
▁let	-9.77285
▁pray	-9.77488
ified	-9.77498
▁Hata	-9.77675
▁cause	-9.77718
▁La	-9.77814
satsu	-9.77829
zuki	-9.77845
▁oppos	-9.779
▁Kanpaku	-9.78014
▁childhood	-9.78014
▁disease	-9.78014
▁grandfather	-9.78014
▁heaven	-9.78014
▁household	-9.78014
▁implement	-9.78014
▁marriage	-9.78014
▁Fukuchiyama	-9.78014
▁function	-9.78014
▁suggest	-9.78014
▁folk	-9.78015
▁frequently	-9.78015
▁drum	-9.78015
▁taste	-9.78015
▁ruling	-9.78017
▁information	-9.78017
▁arrow	-9.78018
▁interest	-9.78019
▁grandson	-9.7803
▁lady	-9.78032
▁existence	-9.78039
▁Mitsuhide	-9.78041
▁Chika	-9.78065
▁1868	-9.78083
▁subsequently	-9.78111
▁completely	-9.78158
▁If	-9.78196
▁ABE	-9.78258
▁Kukai	-9.78278
▁principle	-9.78345
▁meeting	-9.78382
SHIMA	-9.7854
WARA	-9.78585
▁Ryu	-9.78623
San	-9.78664
UCHI	-9.78711
▁sweet	-9.78807
▁soba	-9.78905
nabe	-9.78933
kaido	-9.78935
▁Koya	-9.79061
ration	-9.79091
▁figure	-9.79124
▁disciple	-9.79133
▁runn	-9.79287
ball	-9.79581
▁volumes	-9.79609
Nihonshoki	-9.79639
▁tradition	-9.80104
▁Shoni	-9.80163
▁soy	-9.80187
valen	-9.80289
kusa	-9.80393
52	-9.80472
▁alli	-9.80509
▁report	-9.80524
who	-9.80775
▁21,	-9.8079
▁vo	-9.80918
nami	-9.80981
37	-9.81286
76	-9.81359
ton	-9.81375
▁transfer	-9.81449
celebrat	-9.8146
▁Cabinet	-9.81463
▁cabinet	-9.81463
▁easily	-9.81463
▁installed	-9.81463
▁recognized	-9.81463
▁Echizen	-9.81463
▁Echigo	-9.81463
▁rapid	-9.81463
▁Kozuke	-9.81464
dokoro	-9.81466
▁object	-9.81467
▁exchange	-9.81468
▁staff	-9.81478
▁walk	-9.81482
▁nature	-9.81483
▁appearance	-9.81509
▁Michinaga	-9.81512
▁bad	-9.81515
▁earth	-9.81571
▁2007	-9.81575
▁met	-9.81585
▁immediately	-9.81593
Master	-9.81643
40	-9.81674
▁declined	-9.81679
▁Sakyo	-9.8174
▁extend	-9.81809
▁Sangi	-9.81853
▁Taisho	-9.81866
▁Other	-9.819
▁Yodo	-9.81992
Re	-9.82024
▁Sha	-9.82095
ok	-9.82126
▁produce	-9.82129
▁sta	-9.82196
▁coming	-9.82202
kado	-9.82205
Ni	-9.82206
mae	-9.82215
▁hid	-9.82253
▁soon	-9.82288
▁kokushi	-9.82292
▁Le	-9.82441
▁reported	-9.8251
literary	-9.82513
▁learning	-9.82607
war	-9.82716
▁material	-9.82731
▁reading	-9.82747
▁stopp	-9.82756
▁gen	-9.8297
ong	-9.83088
ctually	-9.83107
▁newly	-9.83207
known	-9.8321
03	-9.83261
NI	-9.83364
▁Ishi	-9.83377
▁Oi	-9.83441
▁types	-9.83538
▁gl	-9.83587
jutsu	-9.83798
▁bring	-9.83929
▁coin	-9.83974
naka	-9.83993
▁den	-9.84
rose	-9.84032
▁domains	-9.84378
▁cook	-9.84414
pet	-9.84476
uta	-9.84542
▁Oki	-9.84594
sis	-9.84656
26	-9.84679
ew	-9.84724
▁posts	-9.84811
▁Com	-9.84969
▁TAKE	-9.85014
ological	-9.85034
▁Russia	-9.85034
▁barbarians	-9.85034
▁companies	-9.85034
▁concept	-9.85034
▁discovered	-9.85034
▁previous	-9.85034
▁Shinkansen	-9.85034
▁standard	-9.85035
▁Collection	-9.85035
▁judge	-9.85038
▁representative	-9.85044
▁display	-9.85054
▁Nakamaro	-9.85063
▁belief	-9.85085
▁Hongan	-9.85094
▁Yoshinaka	-9.85096
▁Wakashu	-9.85118
zaemon	-9.85118
shitsu	-9.85147
▁sell	-9.85162
▁association	-9.85188
▁pronounce	-9.85202
▁Gu	-9.85206
▁28	-9.85221
▁King	-9.85232
▁Kansai	-9.85237
▁God	-9.85264
▁plant	-9.85264
▁sushi	-9.85293
▁Sun	-9.85326
▁Kofuku	-9.85356
▁theater	-9.85383
ben	-9.85447
▁Gion	-9.85464
▁20,	-9.85555
kyoku	-9.85627
▁shoen	-9.85668
▁opening	-9.85868
▁collected	-9.85881
shun	-9.85907
5,	-9.85916
47	-9.85987
▁buildings	-9.85989
▁formal	-9.86032
▁step	-9.86054
▁board	-9.86074
▁Iyo	-9.86152
hen	-9.86326
▁strict	-9.86335
▁Rei	-9.86452
▁door	-9.86626
ranking	-9.86659
▁hands	-9.86698
▁island	-9.86798
court	-9.86946
▁Daigo	-9.86956
▁teachings	-9.86981
Y	-9.87099
▁Uda	-9.87157
bugyo	-9.87188
▁Tama	-9.87217
west	-9.87579
▁job	-9.87834
▁stay	-9.8794
▁Akita	-9.87984
▁chi	-9.88009
sumi	-9.88401
▁Shira	-9.88525
▁associat	-9.88578
▁Bridge	-9.88738
▁Facult	-9.88738
▁advantage	-9.88738
▁alcohol	-9.88738
▁morning	-9.88738
▁language	-9.88738
▁survey	-9.88738
▁Hyogo	-9.88738
▁stories	-9.88738
▁demand	-9.88739
▁worn	-9.88739
▁basis	-9.88739
▁account	-9.88739
▁spirits	-9.88739
▁surface	-9.88739
▁Taiwan	-9.88741
▁legitimate	-9.88741
▁Nai	-9.88743
▁Aizu	-9.88743
▁camp	-9.88746
▁root	-9.88746
▁Konoe	-9.8875
▁must	-9.88751
▁prefecture	-9.88754
▁Kintetsu	-9.88755
▁NAKAMURA	-9.88756
▁revision	-9.88764
ished	-9.88767
▁Masakado	-9.88771
▁eye	-9.88784
▁factor	-9.88796
▁ITO	-9.88805
▁Under	-9.88822
▁tale	-9.88842
▁Cloister	-9.88913
▁Katsura	-9.88919
69	-9.88928
▁Mochi	-9.89005
NAGA	-9.89009
▁correspond	-9.89051
▁Jugoinoge	-9.89071
▁Awa	-9.89208
▁Kura	-9.89217
▁Sakai	-9.8922
▁don	-9.89236
▁offering	-9.893
▁Yoko	-9.89319
sawa	-9.89394
▁tomb	-9.89427
▁claim	-9.89469
▁General	-9.89542
nother	-9.89856
ON	-9.89966
▁examples	-9.90088
▁canno	-9.90092
▁won	-9.90226
Chronicles	-9.90398
▁Hira	-9.90443
ative	-9.90484
▁cap	-9.90486
great	-9.9079
lk	-9.90921
▁round	-9.91065
23	-9.91219
shoji	-9.91275
▁disciples	-9.91305
▁kin	-9.91473
▁115	-9.91547
ISHI	-9.91694
EN	-9.91905
▁far	-9.9197
gaki	-9.92005
Chi	-9.92009
▁peace	-9.9222
▁sign	-9.92398
▁40	-9.92406
▁brothers	-9.9251
▁180	-9.92511
▁28,	-9.92513
arm	-9.92525
▁import	-9.92565
▁financi	-9.92584
▁autumn	-9.92584
▁bamboo	-9.92584
▁currency	-9.92584
▁facilities	-9.92584
▁industry	-9.92584
▁punishment	-9.92584
▁treatment	-9.92584
▁Shinsengumi	-9.92584
▁Spring	-9.92584
▁pagoda	-9.92584
▁painter	-9.92584
▁model	-9.92586
▁spot	-9.92591
▁leather	-9.92596
▁reviv	-9.92609
▁followers	-9.92621
Azuma	-9.92625
▁fla	-9.92641
▁yen	-9.92647
▁match	-9.92653
▁Udaijin	-9.9266
▁Nagaoka	-9.92667
▁clothes	-9.92694
25	-9.92702
rank	-9.92709
▁arrived	-9.9272
▁Shinran	-9.92733
▁alive	-9.92742
▁Christian	-9.92768
▁need	-9.92783
▁sumo	-9.92808
▁separated	-9.92815
▁adviser	-9.92827
▁widely	-9.92942
▁Ex	-9.92972
▁advanced	-9.92985
▁invited	-9.9313
▁TAKA	-9.93136
▁officers	-9.93144
▁destroyed	-9.93172
▁Shichi	-9.93197
▁action	-9.93226
▁accepted	-9.93334
▁additional	-9.93358
▁Article	-9.93417
59	-9.9345
▁Ito	-9.93478
41	-9.93552
▁ended	-9.93561
▁Heike	-9.93646
ada	-9.93651
▁Seii	-9.93741
▁houses	-9.93744
▁removed	-9.93826
gree	-9.93937
▁verse	-9.93961
▁Mei	-9.94003
Do	-9.94013
wheat	-9.94184
jun	-9.94207
▁hit	-9.94562
▁Toba	-9.94614
▁pay	-9.9476
cross	-9.94761
sue	-9.94773
▁Many	-9.94926
tatsu	-9.94936
▁recorded	-9.94944
▁receive	-9.94957
▁miya	-9.95162
pping	-9.95208
grade	-9.95287
HO	-9.95357
▁80	-9.95528
▁maintain	-9.95555
▁turn	-9.9557
▁defeat	-9.9557
▁adopt	-9.95583
▁remov	-9.95631
giri	-9.95908
▁Mizu	-9.95948
▁reasons	-9.95951
Mo	-9.96226
18	-9.96353
▁possess	-9.96356
▁los	-9.96376
ugh	-9.96437
▁uncle	-9.96518
lock	-9.96568
▁Europe	-9.96584
▁Poetry	-9.96584
▁SHIBA	-9.96584
▁Sekigahara	-9.96584
▁Volume	-9.96584
▁YOSHIDA	-9.96584
▁avoid	-9.96584
▁blood	-9.96584
▁ceremonies	-9.96584
▁decision	-9.96584
▁manuscript	-9.96584
▁permitted	-9.96584
▁taishogun	-9.96584
▁yield	-9.96584
▁excellent	-9.96584
▁experienc	-9.96584
▁screen	-9.96584
▁drawn	-9.96584
▁arts	-9.96585
▁achievements	-9.96585
▁sutra	-9.96585
▁dispute	-9.96585
▁intention	-9.96587
eputy	-9.96588
▁better	-9.9659
▁Thereafter	-9.96601
▁Kumamoto	-9.96601
▁heard	-9.96604
▁Yamashiro	-9.96606
▁dro	-9.96612
▁department	-9.96613
▁tr	-9.96617
▁Nagasaki	-9.96631
▁(15	-9.96642
▁Masamune	-9.96662
▁Kongo	-9.96669
▁Mikawa	-9.96699
▁Yoshitsune	-9.96714
▁negotiation	-9.96718
▁crop	-9.96769
▁Ryoma	-9.96792
▁Yoshinobu	-9.96877
MOTO	-9.96906
nokami	-9.97037
▁Ukyo	-9.97097
▁card	-9.97098
tenno	-9.97127
▁emperors	-9.97188
▁international	-9.9719
▁Tane	-9.97212
▁prayer	-9.97224
▁cooking	-9.97324
kara	-9.9737
▁longer	-9.97377
34	-9.9742
▁done	-9.97447
▁5,	-9.97533
▁offered	-9.97537
kage	-9.97565
oji	-9.97627
▁hole	-9.97758
17	-9.97835
▁15,	-9.97858
Head	-9.9798
▁student	-9.98438
▁measures	-9.98472
▁seal	-9.98594
V	-9.98882
Grand	-9.98937
current	-9.9895
traditional	-9.9895
▁mountains	-9.99112
terior	-9.99113
▁Pro	-9.99132
▁(18	-9.99201
Yoshi	-9.99221
▁70	-9.99471
made	-9.99493
▁articles	-9.99565
bushi	-9.99754
▁gra	-9.99761
▁bear	-9.99836
▁cloth	-9.99972
▁provide	-9.9998
▁print	-10.001
▁contribut	-10.0043
▁increase	-10.0045
▁rare	-10.0052
▁gi	-10.0065
No	-10.0069
▁South	-10.0073
▁Group	-10.0075
▁KUJO	-10.0075
▁Library	-10.0075
▁Peninsula	-10.0075
▁criticiz	-10.0075
▁doctor	-10.0075
▁explain	-10.0075
▁occupied	-10.0075
▁prefix	-10.0075
▁target	-10.0075
▁traffic	-10.0075
▁Shizuoka	-10.0075
▁defined	-10.0075
▁graduat	-10.0075
▁portrait	-10.0075
▁weapon	-10.0075
▁entire	-10.0075
▁restoration	-10.0075
▁teacher	-10.0075
▁restored	-10.0075
▁talent	-10.0075
▁temporarily	-10.0076
▁recover	-10.0076
▁14,	-10.0076
▁permission	-10.0076
▁tell	-10.0076
▁novel	-10.0076
▁attendant	-10.0079
▁weight	-10.0079
▁Hachiman	-10.0079
▁thereafter	-10.0079
▁mound	-10.008
rmal	-10.008
▁Kii	-10.0081
▁Navy	-10.0082
▁Lake	-10.0086
SE	-10.0086
▁Biwa	-10.0087
lways	-10.0088
▁dry	-10.009
▁exiled	-10.009
▁opposit	-10.009
▁All	-10.009
▁Oto	-10.0091
dani	-10.0092
▁Tenmu	-10.0095
▁try	-10.01
▁institution	-10.0112
▁Class	-10.0118
ASHI	-10.0123
kuri	-10.0123
▁insisted	-10.013
▁ONO	-10.0133
▁meal	-10.0136
▁registered	-10.0139
▁fel	-10.0145
▁prepared	-10.0147
zaka	-10.0149
▁Kame	-10.0152
her	-10.0159
▁diary	-10.0159
62	-10.0167
▁Tenno	-10.0168
▁150	-10.0173
▁yu	-10.0177
io	-10.0195
▁Kofu	-10.0201
▁holding	-10.0201
▁cross	-10.0202
▁scale	-10.0205
51	-10.0215
▁Pur	-10.0239
▁letters	-10.0247
▁Ban	-10.0269
▁leaves	-10.0274
▁teaching	-10.0277
▁miko	-10.0285
▁officially	-10.0288
▁offices	-10.029
▁Nihonshoki	-10.0301
▁indicate	-10.0308
▁Iga	-10.032
▁shows	-10.0324
Chu	-10.0329
minister	-10.0329
imperial	-10.0331
Nihon	-10.0331
temple	-10.0341
▁owner	-10.0348
▁Miko	-10.036
55	-10.0362
▁Taisha	-10.0386
▁collect	-10.039
▁treasures	-10.0397
93	-10.0401
▁conduct	-10.0408
▁stra	-10.0411
▁kai	-10.0471
▁offer	-10.0482
▁Roku	-10.0484
▁21	-10.0493
>	-10.05
▁recommend	-10.051
▁Amaterasu	-10.051
▁Summary	-10.051
▁Three	-10.051
▁background	-10.051
▁evidence	-10.051
▁facility	-10.051
▁husband	-10.051
▁lacquer	-10.051
▁project	-10.051
▁supposed	-10.051
▁surname	-10.051
▁consort	-10.051
▁devot	-10.051
▁reconstruct	-10.051
▁Mountain	-10.051
▁black	-10.051
▁police	-10.051
▁million	-10.051
▁surviv	-10.051
▁annual	-10.051
▁guardian	-10.051
▁space	-10.051
▁copy	-10.051
▁Constitution	-10.051
▁Shinano	-10.0511
▁planned	-10.0511
▁true	-10.0511
▁Toyotomi	-10.0512
▁impos	-10.0512
▁merg	-10.0512
▁minutes	-10.0512
Sakone	-10.0513
▁sentence	-10.0517
▁least	-10.0519
▁mind	-10.0519
▁eighth	-10.052
▁captured	-10.0521
▁reference	-10.0523
▁upper	-10.0525
▁HIRA	-10.0527
▁Five	-10.0528
▁princess	-10.053
▁Shotoku	-10.053
▁cake	-10.0534
▁confirmed	-10.0535
▁soup	-10.0536
▁free	-10.0541
▁Yoshimasa	-10.055
▁Ichijo	-10.055
gei	-10.0552
▁boiled	-10.0554
▁participated	-10.0555
▁posthumous	-10.056
Tsu	-10.0563
IN	-10.0569
▁Kaga	-10.0573
▁remain	-10.0576
▁strongly	-10.0583
▁simpl	-10.0584
eight	-10.0586
▁KAWA	-10.0587
▁attract	-10.0594
ninth	-10.0594
▁Fudo	-10.0595
▁grounds	-10.0595
▁Mito	-10.0603
▁Kiku	-10.0605
▁ingredients	-10.061
▁turned	-10.0623
lace	-10.0625
▁mark	-10.0627
▁restaurants	-10.0642
▁Shijo	-10.0644
▁Gojo	-10.0647
▁told	-10.0647
08	-10.0663
haku	-10.0666
▁Ra	-10.0675
Diary	-10.0703
▁continue	-10.0704
▁Nichi	-10.0712
▁patterns	-10.0717
fine	-10.0737
top	-10.0742
▁Kanze	-10.0743
▁Shiki	-10.0782
provision	-10.0783
count	-10.0786
akari	-10.079
east	-10.08
Osaka	-10.0801
29	-10.0806
▁sides	-10.0849
▁Ura	-10.0857
▁techniques	-10.0879
ware	-10.0887
▁60	-10.0925
▁medic	-10.0932
▁propos	-10.0938
artial	-10.0939
▁descend	-10.0959
scribed	-10.0959
▁Institute	-10.0964
▁advocat	-10.0964
▁announced	-10.0964
▁community	-10.0964
▁domestic	-10.0964
▁economic	-10.0964
▁influential	-10.0964
▁investigat	-10.0964
▁peasants	-10.0964
▁scroll	-10.0964
▁Bakufu	-10.0964
▁Okinawa	-10.0964
▁Subway	-10.0964
▁regular	-10.0964
▁Nagoya	-10.0964
▁behind	-10.0964
▁summer	-10.0964
▁Karasuma	-10.0964
▁stock	-10.0964
▁items	-10.0964
▁Kasuga	-10.0965
▁movie	-10.0965
▁regulation	-10.0965
▁aspect	-10.0965
▁India	-10.0965
▁adult	-10.0965
▁box	-10.0965
▁dead	-10.0966
▁sugar	-10.0966
▁plot	-10.0967
▁wine	-10.0968
▁relocated	-10.0969
▁preach	-10.0969
▁relat	-10.097
▁Diet	-10.097
▁copper	-10.097
▁artist	-10.0973
▁Daijokan	-10.0973
rief	-10.0974
▁salt	-10.0975
▁calligraphy	-10.0982
▁Daimyo	-10.0982
▁km	-10.0988
▁Daigaku	-10.0989
▁metal	-10.1001
▁servant	-10.1003
▁your	-10.1005
▁Mibu	-10.101
▁source	-10.1012
▁battles	-10.1013
▁wanted	-10.1025
▁fields	-10.1032
▁follow	-10.1034
▁Yamana	-10.104
▁laws	-10.1047
▁Hino	-10.1048
chan	-10.105
▁Ume	-10.1056
RO	-10.1068
cred	-10.1077
umb	-10.1079
▁vice	-10.1093
▁Den	-10.1105
▁Out	-10.1107
zei	-10.1109
rical	-10.1115
▁send	-10.1138
▁manage	-10.115
▁manag	-10.1153
mari	-10.1154
▁bean	-10.1154
acy	-10.1157
▁conditions	-10.1159
▁stat	-10.1177
▁flavor	-10.1178
guri	-10.1193
mage	-10.1205
▁hu	-10.1211
ryaku	-10.1217
▁Saigo	-10.1223
▁Unit	-10.1225
▁plays	-10.1248
▁shaku	-10.1249
He	-10.125
play	-10.1258
direct	-10.126
Buddhist	-10.1261
written	-10.1261
master	-10.1263
▁Izu	-10.1264
▁ill	-10.1279
▁figures	-10.1283
produc	-10.1286
▁flowers	-10.1296
back	-10.1301
▁assistant	-10.1304
▁Bas	-10.1308
▁attain	-10.1332
shichi	-10.1336
▁nine	-10.1336
▁forms	-10.1339
▁succeed	-10.134
▁200	-10.1359
▁adj	-10.1376
▁accord	-10.1376
▁surround	-10.1376
▁Hot	-10.1377
▁exists	-10.1385
▁bushi	-10.1389
oter	-10.1402
▁168	-10.1405
▁decline	-10.1411
▁enshrine	-10.1414
▁Saka	-10.1426
▁rais	-10.1429
▁Dazai	-10.1437
▁Express	-10.1439
dustrial	-10.1441
▁Bodhisattva	-10.1441
▁English	-10.1441
▁Government	-10.1441
▁ICHIJO	-10.1441
▁SAIONJI	-10.1441
▁defense	-10.1441
▁duties	-10.1441
▁floor	-10.1441
▁punished	-10.1441
▁university	-10.1441
▁broad	-10.1441
▁enough	-10.1441
▁murder	-10.1441
▁Kingdom	-10.1441
▁serious	-10.1441
▁edict	-10.1441
▁Jushiino	-10.1441
▁wealth	-10.1441
▁Series	-10.1441
▁Okayama	-10.1441
▁thirty	-10.1441
▁coast	-10.1441
▁machine	-10.1441
▁dried	-10.1442
▁deliver	-10.1442
ssibility	-10.1442
▁Michizane	-10.1443
▁element	-10.1443
▁Enryaku	-10.1443
▁Minami	-10.1446
▁slight	-10.1447
▁assist	-10.1448
▁farmers	-10.145
▁plu	-10.145
▁Gifu	-10.1455
▁Teru	-10.1459
▁replaced	-10.1463
▁executed	-10.1463
▁invad	-10.1467
▁Nyo	-10.1471
efore	-10.1473
▁Gate	-10.1476
Han	-10.1492
▁magistrate	-10.1499
▁Izumi	-10.1501
lled	-10.1509
▁approved	-10.1509
▁Kokushi	-10.1512
▁crossing	-10.1517
▁Todai	-10.1517
▁currently	-10.1532
▁(17	-10.1533
new	-10.1557
bito	-10.157
sional	-10.1571
▁quality	-10.1571
▁Daishi	-10.1576
suki	-10.1588
▁mostly	-10.1603
▁closed	-10.1606
Provi	-10.1607
▁Kinki	-10.1616
▁greatly	-10.1616
▁Koma	-10.1619
▁Kon	-10.164
Ran	-10.165
▁concerned	-10.1658
▁Rin	-10.1674
▁i	-10.1681
▁Nagano	-10.1683
▁pattern	-10.1707
▁leave	-10.1713
tetsu	-10.1747
▁Koto	-10.175
▁Gan	-10.1753
strict	-10.1759
▁measure	-10.176
military	-10.1761
New	-10.1762
three	-10.1763
Shu	-10.1763
six	-10.1767
▁liter	-10.1771
type	-10.1772
bound	-10.1775
KO	-10.1798
akira	-10.1815
▁Taku	-10.1838
▁Record	-10.1841
uct	-10.1843
Yu	-10.1844
▁shar	-10.1858
▁equal	-10.1889
▁symbol	-10.1908
▁separate	-10.1911
▁die	-10.1913
▁evening	-10.1919
▁meant	-10.1923
▁translat	-10.1924
▁trans	-10.194
大	-10.1941
▁observ	-10.1941
▁Rebellion	-10.1941
▁SOGA	-10.1941
▁abandon	-10.1941
▁academic	-10.1941
▁arranged	-10.1941
▁circumstances	-10.1941
▁determined	-10.1941
▁discuss	-10.1941
▁doctrine	-10.1941
▁enforce	-10.1941
▁focus	-10.1941
▁identified	-10.1941
▁mausoleum	-10.1941
▁nobility	-10.1941
▁opponent	-10.1941
▁professional	-10.1941
▁reflect	-10.1941
▁Hosokawa	-10.1941
▁twenty	-10.1941
▁Originally	-10.1941
▁understand	-10.1941
▁dress	-10.1941
▁invasion	-10.1941
▁steam	-10.1941
▁subdue	-10.1941
▁revolt	-10.1941
▁drink	-10.1941
▁Tohoku	-10.1941
▁lectur	-10.1941
▁ascetic	-10.1941
▁Sessho	-10.1942
▁erect	-10.1942
▁comic	-10.1942
▁Hitachi	-10.1943
▁tourist	-10.1943
▁Shirakawa	-10.1943
▁Ishikawa	-10.1943
▁deputy	-10.1944
▁Sadaijin	-10.1947
▁INOUE	-10.1947
▁extreme	-10.1948
▁2008	-10.1949
▁eaten	-10.1949
▁illustrat	-10.195
▁chant	-10.195
▁pup	-10.1952
▁Okimi	-10.1955
▁fund	-10.1955
▁Code	-10.1957
▁incorporated	-10.196
▁Kagami	-10.1963
▁Oe	-10.1968
▁someone	-10.1969
▁doll	-10.1973
nushi	-10.1975
▁promot	-10.1975
▁daisho	-10.1977
▁connection	-10.198
▁Uesugi	-10.1983
▁Seiwa	-10.1985
zawa	-10.1995
▁Seki	-10.1998
kabuki	-10.2002
▁Kurama	-10.2015
▁remaining	-10.2016
▁villages	-10.2016
▁Ono	-10.2017
Dutch	-10.2018
▁Tate	-10.2034
▁Gaku	-10.2036
▁Kimi	-10.2042
▁rever	-10.2053
▁Hiko	-10.2061
▁relations	-10.2071
▁maintained	-10.2072
▁acc	-10.2076
hose	-10.2095
jaku	-10.2137
refer	-10.214
▁Tan	-10.216
▁Myoo	-10.2167
lot	-10.217
▁shall	-10.221
▁decorat	-10.2222
getsu	-10.2232
Chronicle	-10.2234
boku	-10.2246
▁ware	-10.227
▁fr	-10.2285
KAWA	-10.2285
person	-10.2292
kama	-10.2301
▁kata	-10.2306
▁songs	-10.2307
▁Sue	-10.2313
▁Hama	-10.2324
▁Kasa	-10.2354
▁accept	-10.2364
▁inherit	-10.2365
verse	-10.2397
▁build	-10.2402
TO	-10.2421
▁advance	-10.2437
ritsu	-10.2442
ography	-10.2442
▁calligraph	-10.2447
▁move	-10.2449
▁Four	-10.2454
Sen	-10.2462
▁North	-10.2465
▁flour	-10.2466
%	-10.2467
=	-10.2467
ANDO	-10.2467
▁Corporation	-10.2467
▁DATE	-10.2467
▁Disturbance	-10.2467
▁Modern	-10.2467
▁People	-10.2467
▁Properties	-10.2467
▁Science	-10.2467
▁Subsequent	-10.2467
▁TACHIBANA	-10.2467
▁anecdote	-10.2467
▁applied	-10.2467
▁critical	-10.2467
▁emerged	-10.2467
▁failed	-10.2467
▁fixed	-10.2467
▁headquarters	-10.2467
▁license	-10.2467
▁passengers	-10.2467
▁peerage	-10.2467
▁procedure	-10.2467
▁revealed	-10.2467
▁check	-10.2467
▁distinct	-10.2467
▁Agency	-10.2467
▁Kagoshima	-10.2467
▁TANAKA	-10.2467
▁overthrow	-10.2467
▁refused	-10.2467
▁scriptures	-10.2467
▁Women	-10.2467
▁winter	-10.2467
▁answer	-10.2467
▁evil	-10.2467
▁trend	-10.2467
▁finance	-10.2467
Pacific	-10.2467
mission	-10.2467
▁flourished	-10.2467
junior	-10.2468
▁guest	-10.2468
▁executive	-10.2468
▁feeling	-10.2468
▁assassinated	-10.2468
▁medicine	-10.2468
▁Rokuhara	-10.2469
tsukasa	-10.2469
▁Lady	-10.2469
▁Ryukyu	-10.2469
▁race	-10.247
▁TAKEDA	-10.247
numer	-10.247
▁market	-10.247
▁Tokitada	-10.2471
URA	-10.2472
▁Hankyu	-10.2472
▁desire	-10.2472
▁organized	-10.2473
▁gin	-10.2473
▁strengthen	-10.2473
▁preparation	-10.2474
Nan	-10.2478
▁Nagayoshi	-10.2479
▁preserved	-10.248
▁tower	-10.248
masu	-10.2481
▁rock	-10.2481
▁popularity	-10.2483
▁Rokujo	-10.2484
▁Miyazu	-10.2486
▁Kurodo	-10.2486
▁alone	-10.2487
▁Jingi	-10.2489
▁earn	-10.2489
▁introduction	-10.249
▁protection	-10.2491
▁successively	-10.2493
▁Oshi	-10.2496
▁Kugyo	-10.2498
▁our	-10.2499
▁studies	-10.2501
▁Day	-10.2502
▁Sagami	-10.2503
mentary	-10.2504
▁ruler	-10.2504
▁Tsuna	-10.2508
▁obtained	-10.2509
urban	-10.2509
▁Historical	-10.251
▁architecture	-10.2511
▁secretary	-10.2518
▁reduced	-10.252
▁Maru	-10.2521
▁eating	-10.2539
▁receiv	-10.2545
▁clothing	-10.2551
▁SAKA	-10.2552
▁arms	-10.2554
▁expression	-10.256
super	-10.2561
dayu	-10.2564
▁500	-10.2567
▁warm	-10.2582
▁cm	-10.2602
▁trial	-10.2605
▁Hu	-10.2623
44	-10.2639
▁commit	-10.2641
hata	-10.2643
cap	-10.2649
Bu	-10.267
owned	-10.2684
▁features	-10.2695
▁35	-10.2703
spit	-10.272
▁Records	-10.2721
Li	-10.2731
▁pen	-10.274
▁Pre	-10.2746
Kin	-10.2765
daka	-10.2771
▁chang	-10.2777
▁koto	-10.2777
▁condition	-10.2788
▁Sato	-10.2794
tara	-10.2805
▁stated	-10.282
waka	-10.2834
resident	-10.2835
shrine	-10.2843
modern	-10.2843
while	-10.2843
from	-10.2844
point	-10.2849
▁player	-10.2851
▁driv	-10.2855
▁feature	-10.2855
Fuku	-10.2861
▁HI	-10.2864
Shinto	-10.2865
▁im	-10.287
toyo	-10.2873
▁Mie	-10.2875
Nara	-10.2875
▁paste	-10.2876
▁construct	-10.2912
ntil	-10.2938
lower	-10.2942
▁historic	-10.2955
▁Iku	-10.2959
▁resident	-10.297
▁eat	-10.2989
▁escape	-10.2993
▁successive	-10.2996
Kai	-10.3011
▁king	-10.3011
▁bow	-10.3013
▁Shiro	-10.3014
▁Soga	-10.3014
▁classic	-10.3014
▁transport	-10.3015
fully	-10.302
▁specific	-10.302
▁FUJI	-10.3022
▁diplomat	-10.3022
▁Foreign	-10.3022
▁KONOE	-10.3022
▁Matters	-10.3022
▁SHIMAZU	-10.3022
▁Society	-10.3022
▁UESUGI	-10.3022
▁approach	-10.3022
▁contrast	-10.3022
▁demonstrat	-10.3022
▁dismissed	-10.3022
▁expedition	-10.3022
▁mirror	-10.3022
▁practical	-10.3022
▁question	-10.3022
▁sleeve	-10.3022
▁subordinate	-10.3022
▁trouble	-10.3022
▁concurrently	-10.3022
▁dancing	-10.3022
▁platoon	-10.3022
▁search	-10.3022
▁monument	-10.3022
▁painted	-10.3022
▁Juichii	-10.3022
▁KATO	-10.3022
▁Thus	-10.3022
▁truth	-10.3022
▁attention	-10.3023
▁Imagawa	-10.3023
▁agreement	-10.3023
▁repair	-10.3023
▁Wood	-10.3023
▁trust	-10.3023
▁evaluat	-10.3023
▁prior	-10.3023
▁edited	-10.3023
▁yeast	-10.3023
▁royal	-10.3023
▁Port	-10.3023
▁prais	-10.3023
▁Train	-10.3024
▁Naidaijin	-10.3024
▁gift	-10.3024
▁tools	-10.3024
▁Sanuki	-10.3024
▁giving	-10.3024
▁range	-10.3025
▁Theater	-10.3025
▁price	-10.3026
▁expect	-10.3026
▁Iwakura	-10.3026
▁effective	-10.3027
▁degree	-10.3029
▁1869	-10.303
▁transportation	-10.3031
▁unclear	-10.3032
▁key	-10.3032
▁Wakayama	-10.3032
▁2005	-10.3033
▁Hiroshima	-10.3034
▁Kazusa	-10.3035
▁distributed	-10.3037
▁rain	-10.304
▁reality	-10.3042
▁Kinai	-10.3044
▁successful	-10.3044
rice	-10.3046
▁moon	-10.3048
▁copie	-10.3048
▁Chugu	-10.3051
▁grain	-10.3053
▁Chiba	-10.3053
there	-10.3055
▁cold	-10.306
▁Jizo	-10.3062
▁Easter	-10.3064
▁Shingen	-10.307
▁plain	-10.3071
koshi	-10.3077
▁rise	-10.3088
▁Omiya	-10.3088
▁departed	-10.3097
▁employed	-10.3097
▁Kana	-10.3098
▁*	-10.3113
▁fee	-10.3115
▁Kaku	-10.3123
▁fare	-10.3168
bumi	-10.3187
▁taxi	-10.3199
▁74	-10.3203
▁entertain	-10.3259
▁residents	-10.3264
Ge	-10.3304
▁bugyo	-10.3317
▁lea	-10.332
saw	-10.3324
ties	-10.333
▁heart	-10.334
dama	-10.3373
▁product	-10.3375
▁piece	-10.3378
▁Shaka	-10.3379
▁troop	-10.338
▁fac	-10.3382
eous	-10.3418
▁Today	-10.3428
four	-10.3431
period	-10.3432
first	-10.3432
Kyo	-10.3434
lord	-10.3434
KAMI	-10.3454
fish	-10.3464
Ryo	-10.3476
▁prepar	-10.3501
▁basic	-10.3501
▁develop	-10.3504
waki	-10.3507
grandchild	-10.3514
scale	-10.3539
▁Saku	-10.3546
▁Rai	-10.3551
▁meet	-10.3554
▁Haya	-10.3581
▁retain	-10.359
stood	-10.3604
▁KAN	-10.3609
▁occur	-10.3609
▁Qu	-10.361
privilege	-10.3611
territorial	-10.3611
▁College	-10.3611
▁Currently	-10.3611
▁MIYOSHI	-10.3611
▁SAIGO	-10.3611
▁Statue	-10.3611
▁anniversary	-10.3611
▁arrangement	-10.3611
▁criticism	-10.3611
▁deceased	-10.3611
▁harvest	-10.3611
▁heavy	-10.3611
▁instruction	-10.3611
▁responsible	-10.3611
▁stipend	-10.3611
▁superior	-10.3611
▁typical	-10.3611
▁bridge	-10.3611
▁correct	-10.3611
▁double	-10.3611
▁funeral	-10.3611
▁holiday	-10.3611
▁progress	-10.3611
▁reject	-10.3611
▁emphasi	-10.3611
▁captain	-10.3611
linked	-10.3611
▁Sukune	-10.3611
Commander	-10.3611
▁decree	-10.3611
▁Gotoba	-10.3611
▁Yamashina	-10.3611
▁gokenin	-10.3611
▁Order	-10.3611
▁girl	-10.3611
▁Tottori	-10.3611
▁constable	-10.3611
▁estimat	-10.3611
itially	-10.3611
▁expert	-10.3611
▁Atago	-10.3611
▁soul	-10.3612
▁confrontation	-10.3614
▁damage	-10.3614
▁medium	-10.3614
▁expand	-10.3614
▁block	-10.3614
▁president	-10.3614
▁shift	-10.3615
▁execution	-10.3615
▁percent	-10.3615
▁twel	-10.3616
▁comment	-10.3616
▁Minbu	-10.3616
▁curs	-10.3617
▁understood	-10.3617
▁archery	-10.3618
▁paid	-10.3619
▁exclud	-10.362
▁self	-10.362
▁TV	-10.362
▁suddenly	-10.362
▁Hyaku	-10.3621
▁promotion	-10.3622
▁1872	-10.3622
▁Tokaido	-10.3623
▁2004	-10.3623
▁foreigners	-10.3627
▁Shigemori	-10.3627
▁setting	-10.363
▁bowl	-10.3631
▁oil	-10.3633
▁Mean	-10.3634
▁despi	-10.3634
▁Horyu	-10.3636
▁hour	-10.3639
▁interpret	-10.3642
▁Kawara	-10.3643
▁Ukon	-10.3645
shed	-10.365
▁Yoshitaka	-10.3652
▁contribution	-10.3657
▁Military	-10.3662
▁path	-10.3669
▁controlled	-10.3671
▁pair	-10.3671
▁game	-10.3672
▁Onmyo	-10.3676
▁cast	-10.3683
▁tumulus	-10.3684
▁Yuan	-10.3686
▁kuge	-10.3703
▁Tatsu	-10.3704
ippon	-10.372
rail	-10.3727
▁height	-10.373
taisha	-10.3732
bata	-10.3733
eak	-10.374
▁Koga	-10.3748
▁temporar	-10.3752
tum	-10.3774
▁ability	-10.3775
▁sur	-10.3775
▁Shiba	-10.3874
kubo	-10.3896
taku	-10.3906
▁Sea	-10.3908
boshi	-10.3921
▁integrat	-10.3921
Shoku	-10.3927
▁pan	-10.3936
▁Kumano	-10.3977
▁Jushi	-10.4022
motsu	-10.4024
▁considerabl	-10.4032
Ji	-10.4039
General	-10.4054
board	-10.4054
approx	-10.4055
brother	-10.4056
high	-10.4056
March	-10.4056
including	-10.4057
second	-10.4057
government	-10.4057
about	-10.4057
general	-10.4059
book	-10.4068
sode	-10.4099
five	-10.412
▁dispatch	-10.4134
▁Tora	-10.4159
reservation	-10.4232
!	-10.4236
–	-10.4236
▁Platform	-10.4236
▁SAITO	-10.4236
▁Special	-10.4236
▁agricultur	-10.4236
▁appropriate	-10.4236
▁excavated	-10.4236
▁instrument	-10.4236
▁quarter	-10.4236
▁science	-10.4236
▁secular	-10.4236
▁separation	-10.4236
▁seppuku	-10.4236
▁taught	-10.4236
▁treaty	-10.4236
▁French	-10.4236
contact	-10.4236
▁judicia	-10.4236
▁Further	-10.4236
▁German	-10.4236
▁hakase	-10.4236
▁crown	-10.4236
▁egg	-10.4236
▁Hokke	-10.4236
▁mouth	-10.4236
▁mixed	-10.4236
▁proceed	-10.4236
▁Otani	-10.4236
▁throw	-10.4236
▁green	-10.4236
▁SATO	-10.4237
▁division	-10.4237
▁cherr	-10.4237
ZAWA	-10.4237
▁Oama	-10.4237
▁stick	-10.4237
▁chujo	-10.4237
▁illness	-10.4238
▁Asano	-10.4238
▁rough	-10.4238
▁yet	-10.4239
▁SUGA	-10.4239
▁boat	-10.424
▁unified	-10.4242
GUCHI	-10.4242
▁Rikyu	-10.4242
saburo	-10.4244
▁Inaba	-10.4245
▁Reform	-10.4246
▁Shimazu	-10.4248
That	-10.425
▁Nohgaku	-10.425
▁Tsushima	-10.4251
▁Eight	-10.4252
▁SEN	-10.4252
▁Nagamasa	-10.4253
▁complete	-10.4257
▁OUCHI	-10.4261
▁Dewa	-10.4265
▁Sendai	-10.427
▁disappeared	-10.4273
tachi	-10.4275
▁reward	-10.4277
▁happened	-10.428
▁Basho	-10.4282
▁Okura	-10.4282
▁Generally	-10.4283
▁Saicho	-10.4283
▁Otomo	-10.4286
▁taxes	-10.4287
▁precincts	-10.429
▁poor	-10.4291
▁arrested	-10.4293
▁clearly	-10.4295
▁mat	-10.4298
▁accus	-10.4299
▁prohibited	-10.43
kagami	-10.4305
▁begin	-10.4306
▁Uta	-10.4308
▁Kubo	-10.4314
▁Yoshinori	-10.4316
▁Honno	-10.4319
▁inscription	-10.4323
▁Chief	-10.4351
▁Aichi	-10.4371
▁Uchi	-10.438
▁passing	-10.4384
▁manager	-10.4385
juku	-10.4386
▁thank	-10.4403
▁Kira	-10.4413
▁Naishi	-10.4429
Jin	-10.4432
daira	-10.4433
▁Soto	-10.4441
onsen	-10.4452
▁continu	-10.446
▁156	-10.4476
igata	-10.4482
njaku	-10.449
Taka	-10.4551
▁kon	-10.4554
▁Date	-10.4561
▁rate	-10.4567
Councilor	-10.4575
▁detail	-10.4672
▁Nagato	-10.4674
hand	-10.4692
ability	-10.4718
Record	-10.4719
Heike	-10.472
mark	-10.4722
October	-10.4723
local	-10.4723
family	-10.4724
where	-10.4724
with	-10.4724
JR	-10.4727
BU	-10.4728
born	-10.473
cate	-10.474
fall	-10.4741
Tokyo	-10.4749
vice	-10.4765
▁(12	-10.4765
Cho	-10.4773
quality	-10.479
May	-10.4791
▁appoint	-10.4797
▁introduc	-10.4799
▁register	-10.48
▁destroy	-10.48
assistant	-10.4803
GAWA	-10.482
▁hat	-10.4821
▁lay	-10.4827
hiki	-10.483
▁believe	-10.4863
▁36	-10.488
▁exhibit	-10.4886
knowledge	-10.4891
▁write	-10.4892
▁achieve	-10.4893
yabe	-10.4895
minute	-10.4898
▁wind	-10.4902
Collect	-10.4902
▁reorganiz	-10.4902
Amitabha	-10.4902
Chamberlain	-10.4902
ceremonial	-10.4902
▁AKECHI	-10.4902
▁Arashiyama	-10.4902
▁Capital	-10.4902
▁KUSUNOKI	-10.4902
▁KYOGOKU	-10.4902
▁TAKATSUKASA	-10.4902
▁application	-10.4902
▁beauty	-10.4902
▁behavior	-10.4902
▁cloister	-10.4902
▁completion	-10.4902
▁concubine	-10.4902
▁costume	-10.4902
▁engineer	-10.4902
▁episode	-10.4902
▁exempt	-10.4902
▁fierce	-10.4902
▁honorific	-10.4902
▁narrow	-10.4902
▁nephew	-10.4902
▁policies	-10.4902
▁predecessor	-10.4902
▁resistance	-10.4902
▁response	-10.4902
▁situated	-10.4902
▁Confuci	-10.4902
▁Hokuriku	-10.4902
▁border	-10.4902
▁draft	-10.4902
▁fortune	-10.4902
▁underground	-10.4902
▁Bicchu	-10.4902
▁revised	-10.4902
▁sitting	-10.4902
▁corner	-10.4902
▁prison	-10.4902
▁secure	-10.4902
▁squad	-10.4902
▁Silla	-10.4902
▁Samurai	-10.4902
▁thirteen	-10.4902
▁1889	-10.4902
zaburo	-10.4902
▁1871	-10.4902
▁Person	-10.4902
▁brewing	-10.4902
▁easy	-10.4902
▁extent	-10.4902
▁1867	-10.4902
▁Region	-10.4902
▁snow	-10.4902
▁affect	-10.4902
▁Besides	-10.4902
venue	-10.4903
▁personnel	-10.4903
hachiman	-10.4903
▁ornament	-10.4903
▁explo	-10.4903
▁wrapp	-10.4903
▁campaign	-10.4903
▁Reizei	-10.4903
▁Akashi	-10.4903
▁rites	-10.4904
▁leaving	-10.4904
kofun	-10.4904
▁pilgrimage	-10.4904
▁Murakami	-10.4905
▁Yamaguchi	-10.4906
▁pull	-10.4906
▁banish	-10.4906
▁raid	-10.4907
speci	-10.4907
▁health	-10.4907
▁confusion	-10.4907
▁donated	-10.4908
▁municipal	-10.4908
▁constitution	-10.4909
▁lack	-10.4912
▁iron	-10.4912
▁participate	-10.4913
▁Mitsunari	-10.4913
▁Myojin	-10.4914
▁flag	-10.4915
▁Masashige	-10.4915
▁compet	-10.4916
▁string	-10.4917
▁concluded	-10.4917
▁Seven	-10.4917
▁->	-10.4918
▁Takakura	-10.492
▁Masayuki	-10.492
some	-10.4921
▁Hakata	-10.4922
▁Yoshitomo	-10.4924
▁Kengyo	-10.4924
▁confiscated	-10.4928
▁exit	-10.4928
▁Tadayoshi	-10.4929
▁Takakuni	-10.4934
▁Engishiki	-10.4937
▁soft	-10.4937
▁Tenjin	-10.4939
▁fled	-10.4939
▁finished	-10.4942
▁moment	-10.4943
▁Tsuku	-10.4945
▁decoration	-10.4946
▁rarely	-10.4947
▁Yoshimoto	-10.497
▁formation	-10.4974
▁Shomu	-10.4977
▁branches	-10.4985
▁save	-10.4986
▁holder	-10.4993
▁Jiro	-10.4997
▁mass	-10.4997
▁sla	-10.5005
▁bath	-10.501
▁Noto	-10.5033
▁originat	-10.5037
▁NA	-10.5039
▁Hito	-10.5051
▁Bon	-10.5069
▁Gosho	-10.5071
ium	-10.5101
dachi	-10.511
▁drive	-10.5114
nagi	-10.514
▁Hatsu	-10.5148
▁sum	-10.5183
▁tw	-10.5183
onobe	-10.5184
train	-10.5197
▁trip	-10.5204
▁daibu	-10.5205
▁wo	-10.5326
▁media	-10.5358
cutting	-10.536
▁tall	-10.5414
work	-10.5436
member	-10.5437
according	-10.5437
mikoto	-10.5438
guard	-10.5438
Thi	-10.546
▁120	-10.5471
▁bl	-10.5475
huge	-10.5482
▁simple	-10.5493
Tang	-10.5499
▁approv	-10.5514
mote	-10.5515
tended	-10.5515
▁abolish	-10.5515
such	-10.5529
bean	-10.5583
▁immediate	-10.559
NOUE	-10.5607
▁strength	-10.5608
▁differ	-10.5612
prefectur	-10.5613
cultivat	-10.5616
▁Control	-10.5617
▁bureaucrat	-10.5617
▁virtue	-10.5617
onsequently	-10.5617
▁HATAKEYAMA	-10.5617
▁Mausoleum	-10.5617
▁Mirror	-10.5617
▁OKUBO	-10.5617
▁Public	-10.5617
▁animals	-10.5617
▁automatic	-10.5617
▁enlightenment	-10.5617
▁exercis	-10.5617
▁library	-10.5617
▁magazine	-10.5617
▁manufacturing	-10.5617
▁monogatari	-10.5617
▁neighbor	-10.5617
▁philosophy	-10.5617
▁probably	-10.5617
▁prosperity	-10.5617
▁settlement	-10.5617
▁struggle	-10.5617
▁wrestler	-10.5617
ZAKI	-10.5617
▁ISHIKAWA	-10.5617
▁Local	-10.5617
▁competition	-10.5617
▁fief	-10.5617
▁rumor	-10.5617
▁significant	-10.5617
▁thick	-10.5617
▁utiliz	-10.5617
▁width	-10.5617
▁chicken	-10.5617
▁ladies	-10.5617
、	-10.5617
undred	-10.5617
▁drawing	-10.5617
▁Shimotsuke	-10.5617
▁uniform	-10.5617
▁France	-10.5617
▁overseas	-10.5617
▁labor	-10.5617
▁Sometimes	-10.5617
▁hatamoto	-10.5617
FUKU	-10.5617
▁besieg	-10.5617
▁distance	-10.5617
▁characteristics	-10.5617
▁crime	-10.5617
▁cousin	-10.5617
▁Saionji	-10.5617
Kitakinki	-10.5617
▁Clan	-10.5617
▁Though	-10.5617
▁Kanazawa	-10.5617
speaking	-10.5617
▁pillar	-10.5617
▁winn	-10.5618
▁fundoshi	-10.5618
▁ASANO	-10.5618
▁Promot	-10.5618
▁spell	-10.5618
▁Fire	-10.5618
▁loyal	-10.5619
▁hakama	-10.5619
▁break	-10.5619
▁HINO	-10.562
▁entry	-10.562
▁assert	-10.562
▁Kanezane	-10.5621
▁Hotel	-10.5621
▁cub	-10.5621
▁juice	-10.5622
▁Heiji	-10.5622
afety	-10.5623
▁Of	-10.5625
▁Dazaifu	-10.5625
▁genealogy	-10.5625
▁Kameyama	-10.5627
▁Nikko	-10.5627
▁improv	-10.5627
▁visitors	-10.5628
▁ear	-10.5629
▁Ishiyama	-10.5629
▁invit	-10.563
graph	-10.5631
▁Saemon	-10.5631
▁quickly	-10.5632
▁exhibition	-10.5634
0,	-10.5635
▁fence	-10.5639
▁Masanori	-10.5639
▁American	-10.5641
▁1600	-10.5641
▁Shaku	-10.5647
▁tata	-10.5648
▁Asahi	-10.565
▁Miyoshi	-10.565
gasaki	-10.5651
▁Takashima	-10.5655
▁portion	-10.5656
▁proposal	-10.566
▁posthumously	-10.5663
▁Awaji	-10.5666
▁Sung	-10.5666
▁Bungo	-10.5668
▁statement	-10.5672
▁Kitano	-10.5682
▁Goryo	-10.5689
▁Song	-10.5694
▁Inari	-10.5695
▁afterward	-10.5699
▁Ezo	-10.5714
▁Tenchi	-10.5717
▁urg	-10.5718
▁printing	-10.5732
▁Award	-10.5737
cession	-10.5738
Kami	-10.5742
layer	-10.5751
buki	-10.5769
▁Tru	-10.578
▁126	-10.5781
▁edge	-10.5802
oyal	-10.581
itted	-10.5824
▁Kuma	-10.5867
▁Usa	-10.5876
▁centraliz	-10.5896
▁fat	-10.598
administrator	-10.6013
53,	-10.6021
hitsu	-10.6021
HIRO	-10.6099
▁bak	-10.6115
grand	-10.6143
▁restaurant	-10.6152
▁Teishi	-10.6157
pass	-10.6176
located	-10.62
sweet	-10.6202
temporar	-10.6204
wood	-10.6205
official	-10.6206
Yamato	-10.6206
samurai	-10.6207
two	-10.6208
▁coat	-10.6232
signed	-10.6239
making	-10.624
▁employ	-10.6282
▁depart	-10.6289
▁want	-10.6299
▁thin	-10.63
▁architectur	-10.6321
▁craft	-10.6325
▁require	-10.6356
AKURA	-10.6358
▁America	-10.6359
▁final	-10.636
▁necessar	-10.6366
Myo	-10.637
temp	-10.6377
▁insist	-10.6379
enshrin	-10.6382
ivil	-10.6383
▁buri	-10.6384
Q	-10.6384
▁rebel	-10.6385
▁script	-10.6386
国	-10.6386
blossom	-10.6386
iscellan	-10.6386
▁Development	-10.6386
▁GOTO	-10.6386
▁MIZUNO	-10.6386
▁System	-10.6386
▁Treaty	-10.6386
▁abroad	-10.6386
▁attitude	-10.6386
▁doubt	-10.6386
▁engrav	-10.6386
▁enthroned	-10.6386
▁essential	-10.6386
▁hospital	-10.6386
▁messenger	-10.6386
▁pardon	-10.6386
▁phrase	-10.6386
▁population	-10.6386
▁professor	-10.6386
▁reinforce	-10.6386
▁stipulat	-10.6386
▁surpris	-10.6386
▁tunnel	-10.6386
▁universities	-10.6386
▁vinegar	-10.6386
一	-10.6386
Shakyamuni	-10.6386
▁SUZUKI	-10.6386
▁caught	-10.6386
▁earlier	-10.6386
▁encourag	-10.6386
▁fifty	-10.6386
▁herself	-10.6386
▁perfect	-10.6386
▁reputation	-10.6386
chamberlain	-10.6386
▁England	-10.6386
▁appeal	-10.6386
▁navy	-10.6386
▁Appoint	-10.6386
▁Chichibu	-10.6386
Ushioni	-10.6386
▁marry	-10.6386
▁uprising	-10.6386
▁Shimousa	-10.6386
▁Shosanmi	-10.6386
▁chamber	-10.6386
の	-10.6386
▁MIYA	-10.6386
SHIGE	-10.6386
▁Hisamitsu	-10.6386
▁basin	-10.6386
dominant	-10.6386
bayashi	-10.6386
▁Two	-10.6386
▁Retain	-10.6386
▁expell	-10.6386
▁profit	-10.6386
Russo	-10.6386
▁celebration	-10.6387
▁crest	-10.6387
▁shooting	-10.6387
▁haiku	-10.6387
▁income	-10.6387
▁program	-10.6387
▁find	-10.6387
▁explanation	-10.6388
▁initiat	-10.6388
▁distribution	-10.6388
▁Site	-10.6388
▁supervis	-10.6388
Hikaru	-10.6388
▁syllables	-10.6389
▁worshipped	-10.6389
▁Heijo	-10.6389
Origin	-10.639
▁collective	-10.639
▁Sword	-10.639
▁Life	-10.6391
▁cool	-10.6391
▁wound	-10.6391
▁Saitama	-10.6392
▁assassination	-10.6392
▁anger	-10.6392
▁worse	-10.6393
▁watch	-10.6393
diction	-10.6393
▁Nobutada	-10.6393
Board	-10.6393
▁Bizen	-10.6393
▁fast	-10.6393
▁ONOE	-10.6396
favorite	-10.6396
▁Shikibu	-10.6396
▁wore	-10.6397
▁wedd	-10.6397
▁HAT	-10.6399
▁Plan	-10.6399
▁Wakasa	-10.6399
▁strik	-10.6401
▁1923	-10.6401
▁decreased	-10.6402
miyatsuko	-10.6402
▁2000	-10.6403
▁suitabl	-10.6403
▁preci	-10.6404
▁Agriculture	-10.6404
▁cities	-10.6405
▁advisor	-10.6406
▁collapsed	-10.6407
▁Nobuyoshi	-10.6407
▁Commerce	-10.6407
▁Kondo	-10.6408
▁Jingu	-10.6413
▁OISHI	-10.6413
▁Shichijo	-10.6415
▁monme	-10.6418
▁strip	-10.6418
▁1000	-10.6418
▁achieved	-10.6421
▁Yang	-10.6422
▁Basin	-10.6425
▁mere	-10.6426
▁classical	-10.6431
▁Miyake	-10.6435
▁chose	-10.6436
▁kimi	-10.6436
▁buses	-10.6442
▁Prim	-10.6448
▁Seto	-10.6457
▁Hogen	-10.6463
▁Higo	-10.6473
▁larger	-10.649
▁Taro	-10.649
▁Fusa	-10.6494
▁mint	-10.6495
▁core	-10.6508
compa	-10.6517
▁155	-10.6558
generate	-10.6565
▁117	-10.6569
entral	-10.6574
right	-10.6595
▁Sakura	-10.6612
▁Udon	-10.6656
kasu	-10.6724
▁Ikk	-10.6738
wheel	-10.6791
▁Funa	-10.6799
▁kosa	-10.6802
JO	-10.6808
▁130	-10.6861
ntry	-10.6882
▁Isshi	-10.6917
size	-10.6942
Shinsen	-10.7003
Article	-10.7037
MORI	-10.7038
Bureau	-10.7039
class	-10.7039
January	-10.704
Chinese	-10.704
people	-10.704
paper	-10.7041
mentioned	-10.7042
▁warr	-10.7049
Matsu	-10.7082
room	-10.7102
▁178	-10.7124
measur	-10.713
▁exception	-10.7136
▁mention	-10.7145
▁arrive	-10.7189
▁exile	-10.7189
▁council	-10.7202
coming	-10.7209
▁cooperat	-10.721
▁villa	-10.7213
▁Lot	-10.7213
▁recogni	-10.7219
▁autonom	-10.7219
▁KATSURA	-10.7219
▁acquir	-10.7219
▁categoriz	-10.7219
expensive	-10.7219
fensive	-10.7219
inspector	-10.7219
solution	-10.7219
▁Empire	-10.7219
▁HASHIBA	-10.7219
▁KANZE	-10.7219
▁KONDO	-10.7219
▁KUTSUKI	-10.7219
▁Misasagi	-10.7219
▁Poems	-10.7219
▁activity	-10.7219
▁alternate	-10.7219
▁audience	-10.7219
▁capacity	-10.7219
▁circle	-10.7219
▁commercial	-10.7219
▁conventional	-10.7219
▁criminal	-10.7219
▁declared	-10.7219
▁eleventh	-10.7219
▁exclusive	-10.7219
▁impress	-10.7219
▁mythology	-10.7219
▁parents	-10.7219
▁peninsula	-10.7219
▁pronunciation	-10.7219
▁respond	-10.7219
▁retirement	-10.7219
▁schedule	-10.7219
▁security	-10.7219
▁thorough	-10.7219
▁varieties	-10.7219
▁vertical	-10.7219
▁vicinity	-10.7219
安	-10.7219
▁Branch	-10.7219
▁JNR	-10.7219
▁address	-10.7219
▁pressure	-10.7219
▁stream	-10.7219
▁stretch	-10.7219
▁subjugat	-10.7219
▁supply	-10.7219
▁curry	-10.7219
▁fiction	-10.7219
子	-10.7219
▁Recently	-10.7219
▁exact	-10.7219
▁patron	-10.7219
▁march	-10.7219
▁Sarugaku	-10.7219
▁steward	-10.7219
▁1891	-10.7219
▁duty	-10.7219
▁park	-10.7219
float	-10.7219
▁1998	-10.7219
▁worth	-10.7219
mandala	-10.7219
▁1897	-10.7219
▁ferment	-10.7219
Taiheiki	-10.7219
▁fresh	-10.7219
▁split	-10.7219
▁divine	-10.7219
▁cultivation	-10.7219
▁Asakura	-10.7219
▁geisha	-10.7219
▁convey	-10.7219
▁fond	-10.7219
▁loan	-10.7219
▁Nitta	-10.7219
Goddess	-10.7219
▁concentrat	-10.722
▁karate	-10.722
▁advice	-10.722
▁talk	-10.722
▁Service	-10.722
▁convert	-10.722
▁bills	-10.722
▁premise	-10.722
▁SAKAMOTO	-10.722
▁stole	-10.722
▁Commission	-10.722
▁spiritual	-10.722
▁fear	-10.722
cycl	-10.722
▁belongs	-10.7221
erhaps	-10.7221
▁patien	-10.7221
▁beef	-10.7221
▁straight	-10.7221
▁fair	-10.7221
▁frame	-10.7221
▁speed	-10.7223
▁Tsunayoshi	-10.7223
▁classification	-10.7223
▁civil	-10.7224
▁opportunity	-10.7224
▁Maeda	-10.7225
▁Taishogun	-10.7225
▁Katsuyori	-10.7225
▁examination	-10.7225
▁Kamigata	-10.7225
▁Tanabe	-10.7226
▁Vice	-10.7226
proved	-10.7227
▁Yakushi	-10.7227
▁choja	-10.7227
▁nun	-10.7227
▁passage	-10.7228
▁Reigen	-10.7228
▁Iemitsu	-10.7229
▁pond	-10.7229
▁Michitaka	-10.723
▁voice	-10.7231
▁interpretation	-10.7232
▁writer	-10.7232
▁Music	-10.7234
▁pine	-10.7234
▁1918	-10.7235
▁Sanesuke	-10.7235
▁Jinmu	-10.7236
▁1980	-10.7238
▁Asian	-10.724
▁2003	-10.724
▁1920	-10.7241
▁Yomei	-10.7241
▁Nihongi	-10.7241
▁housing	-10.7242
▁jito	-10.7243
▁1990	-10.7245
▁thereby	-10.7247
▁translation	-10.7249
▁Yamada	-10.725
▁Yoshisada	-10.725
▁bigge	-10.7254
▁shochu	-10.7257
Biography	-10.7257
▁Tax	-10.7264
▁stable	-10.7265
ogether	-10.7266
▁Yoshiakira	-10.7267
▁Senju	-10.7268
▁Sorin	-10.7275
▁parties	-10.7276
▁Kokin	-10.7281
▁publication	-10.7283
▁Choku	-10.7288
▁Ohara	-10.7301
▁page	-10.7302
▁accident	-10.7303
▁Honen	-10.7309
ottery	-10.731
▁Mine	-10.732
malt	-10.7335
▁elect	-10.7367
basically	-10.7378
▁exceptional	-10.7432
▁pick	-10.7448
teenth	-10.7497
large	-10.7515
▁hope	-10.7582
▁entit	-10.7593
owed	-10.7626
▁carv	-10.7641
BO	-10.7662
▁sixteen	-10.7675
AWA	-10.7727
payment	-10.7752
▁Masu	-10.7823
commissioner	-10.787
Sagano	-10.7888
▁relation	-10.7912
claim	-10.7946
field	-10.7948
Ministry	-10.7948
western	-10.7948
February	-10.7949
Period	-10.7949
Taira	-10.7949
third	-10.7952
after	-10.8022
▁select	-10.8027
▁assign	-10.8027
▁advis	-10.8047
▁pil	-10.8064
▁divide	-10.8099
▁subsequent	-10.8101
▁accomplish	-10.8124
rotection	-10.8125
ollowing	-10.8125
useum	-10.8127
▁extra	-10.8128
housand	-10.8128
regulat	-10.8128
▁Administrat	-10.8128
▁NDL	-10.8128
▁TOKUDAIJI	-10.8128
▁constituen	-10.8128
▁prevail	-10.8128
▁sympath	-10.8128
神	-10.8128
Ordinance	-10.8128
communication	-10.8128
▁Academy	-10.8128
▁Baekje	-10.8128
▁Exhibition	-10.8128
▁Headquarters	-10.8128
▁Shogoino	-10.8128
▁Studies	-10.8128
▁Tachibana	-10.8128
▁Transportation	-10.8128
▁abdicat	-10.8128
▁argument	-10.8128
▁birthplace	-10.8128
▁category	-10.8128
▁chronicle	-10.8128
▁coffee	-10.8128
▁dwelling	-10.8128
▁enemies	-10.8128
▁enormous	-10.8128
▁expansion	-10.8128
▁foster	-10.8128
▁independence	-10.8128
▁institute	-10.8128
▁intersection	-10.8128
▁nationwide	-10.8128
▁outstanding	-10.8128
▁petition	-10.8128
▁powder	-10.8128
▁remnant	-10.8128
▁sovereignty	-10.8128
▁specified	-10.8128
▁suspended	-10.8128
▁temperature	-10.8128
▁wisdom	-10.8128
▁katsudon	-10.8128
▁Hospital	-10.8128
▁Hyobu	-10.8128
▁calculat	-10.8128
▁poison	-10.8128
・	-10.8128
▁Daruma	-10.8128
▁electric	-10.8128
▁ghost	-10.8128
院	-10.8128
▁HORI	-10.8128
▁Siege	-10.8128
▁burden	-10.8128
▁1185	-10.8128
▁1989	-10.8128
▁luck	-10.8128
▁Horikawa	-10.8128
▁interact	-10.8128
▁curve	-10.8128
▁fruit	-10.8128
▁newspaper	-10.8128
▁1884	-10.8128
▁What	-10.8128
▁1874	-10.8128
▁Chinju	-10.8128
▁Refer	-10.8128
▁clean	-10.8128
▁week	-10.8128
▁Dainichi	-10.8128
▁edition	-10.8128
▁Color	-10.8128
▁Director	-10.8129
▁enact	-10.8129
▁1877	-10.8129
▁mistake	-10.8129
▁repeatedly	-10.8129
▁conquer	-10.8129
▁exceed	-10.8129
▁ascend	-10.8129
load	-10.8129
▁Obaku	-10.8129
▁Text	-10.8129
▁Ikeda	-10.8129
▁dominat	-10.8129
▁couple	-10.8129
▁Oaza	-10.8129
▁monster	-10.8129
▁agreed	-10.8129
▁blue	-10.813
▁Pass	-10.813
▁Ueno	-10.813
▁hunt	-10.813
Manyoshu	-10.8131
▁responsibility	-10.8131
▁nearby	-10.8132
▁trading	-10.8132
▁resource	-10.8132
Kumiyama	-10.8132
▁mural	-10.8132
▁grew	-10.8133
▁specifically	-10.8133
▁resignation	-10.8133
▁preservation	-10.8133
ISHIDA	-10.8133
▁Vario	-10.8134
▁promise	-10.8134
▁hung	-10.8135
▁Tameyoshi	-10.8136
▁Shigetada	-10.8136
▁singing	-10.8137
▁smok	-10.8137
▁Katsuie	-10.8138
▁Eizan	-10.8138
▁moral	-10.8138
▁cooperation	-10.8139
USA	-10.8139
▁Takakage	-10.814
▁rush	-10.814
▁Nobushige	-10.8141
▁Yorimichi	-10.8141
▁Yoritsuna	-10.8141
▁1876	-10.8143
▁Mitsukuni	-10.8143
▁SHO	-10.8143
▁believer	-10.8143
▁Yoriyuki	-10.8143
▁Antoku	-10.8144
wise	-10.8145
▁rope	-10.8146
▁Omote	-10.8146
▁nominal	-10.8147
▁buck	-10.8147
▁Sutoku	-10.8147
▁slope	-10.8148
▁riot	-10.8148
▁customers	-10.8149
▁Jokyu	-10.815
▁Chang	-10.815
▁Okubo	-10.815
▁Yoshitada	-10.8153
▁spent	-10.8156
▁701	-10.8156
▁Togoku	-10.8165
▁moat	-10.8166
▁2002	-10.8168
▁Miroku	-10.8169
▁ensur	-10.8169
▁cave	-10.817
▁repos	-10.817
▁Xi	-10.8174
metsuke	-10.8175
▁Construct	-10.8178
▁Sotoku	-10.8179
NAMI	-10.8179
▁possession	-10.8182
▁hang	-10.8207
▁peaceful	-10.8217
▁brave	-10.8222
▁roll	-10.8225
apid	-10.8234
▁seek	-10.8298
alley	-10.8336
▁Pol	-10.8352
▁Nariaki	-10.8463
nishiki	-10.8546
▁Kashiwa	-10.8819
▁enabl	-10.8829
Naomasa	-10.8847
▁pickl	-10.8859
Noh	-10.8878
vision	-10.8881
▁ingredient	-10.8894
Chief	-10.8944
posthumous	-10.8946
word	-10.8946
Confucianism	-10.8947
hereditary	-10.8948
public	-10.8949
September	-10.8949
world	-10.8949
April	-10.8949
National	-10.8949
Heian	-10.8949
diary	-10.8953
Korea	-10.8959
pachi	-10.8961
south	-10.897
ternational	-10.8974
structed	-10.898
▁prohibit	-10.9025
▁boil	-10.9028
▁reduc	-10.9029
FU	-10.9086
▁respective	-10.911
▁boy	-10.9111
▁Count	-10.9114
OTSU	-10.912
▁flow	-10.9123
▁IKE	-10.9126
Provinc	-10.9128
▁frequen	-10.9128
&	-10.9128
BAYASHI	-10.9128
Secretary	-10.9128
cypress	-10.9128
kneading	-10.9128
rthodox	-10.9128
▁CHIBA	-10.9128
▁Continued	-10.9128
▁Demachiyanagi	-10.9128
▁Dowager	-10.9128
▁Earthquake	-10.9128
▁Engineering	-10.9128
▁HATTORI	-10.9128
▁ICHIKAWA	-10.9128
▁ICOCA	-10.9128
▁IWAKURA	-10.9128
▁Interchange	-10.9128
▁KIRA	-10.9128
▁KURODA	-10.9128
▁Medicine	-10.9128
▁Peace	-10.9128
▁SANJO	-10.9128
▁Sixth	-10.9128
▁Treasury	-10.9128
▁WATANABE	-10.9128
▁apparent	-10.9128
▁attribut	-10.9128
▁bottle	-10.9128
▁bottom	-10.9128
▁ceramic	-10.9128
▁combination	-10.9128
▁convenience	-10.9128
▁corporation	-10.9128
▁defend	-10.9128
▁liquor	-10.9128
▁mixture	-10.9128
▁nickname	-10.9128
▁positive	-10.9128
▁proclamation	-10.9128
▁pseudonym	-10.9128
▁revenge	-10.9128
▁scattered	-10.9128
▁shrimp	-10.9128
▁tendency	-10.9128
▁unchanged	-10.9128
▁vehicle	-10.9128
▁virtually	-10.9128
YANAGI	-10.9128
▁NIJO	-10.9128
▁YAMANA	-10.9128
▁bonito	-10.9128
▁bronze	-10.9128
▁cavalry	-10.9128
▁clerk	-10.9128
▁drastic	-10.9128
▁familiar	-10.9128
▁viol	-10.9128
▁Shoshiino	-10.9128
▁goddess	-10.9128
▁threat	-10.9128
▁Elders	-10.9128
▁depriv	-10.9128
volution	-10.9128
▁Horses	-10.9128
▁sightsee	-10.9128
上	-10.9128
loud	-10.9128
▁1870	-10.9128
▁Okazaki	-10.9128
KUMA	-10.9128
▁resort	-10.9128
▁1967	-10.9128
▁Garden	-10.9128
▁1863	-10.9128
▁ignor	-10.9128
▁1995	-10.9128
▁beyond	-10.9128
▁1901	-10.9128
▁1997	-10.9128
▁Type	-10.9128
▁1873	-10.9128
▁resided	-10.9128
▁Regard	-10.9128
▁jointly	-10.9129
▁historian	-10.9129
▁Susano	-10.9129
▁grill	-10.9129
▁sick	-10.9129
▁baby	-10.9129
▁kiln	-10.9129
▁wives	-10.9129
▁nengu	-10.9129
▁Emishi	-10.9129
▁KITA	-10.9129
▁Brit	-10.9129
▁Tower	-10.9129
▁Seinan	-10.9129
▁administer	-10.9129
▁bank	-10.9129
Kizugawa	-10.913
▁Foo	-10.913
refined	-10.913
▁consumption	-10.913
▁Uiro	-10.913
▁mask	-10.913
▁renga	-10.913
▁IKEDA	-10.913
▁heavi	-10.913
▁Rinzai	-10.9131
bbed	-10.9131
▁admitted	-10.9131
▁Expressway	-10.9131
▁repeat	-10.9131
▁Campus	-10.9132
▁continuous	-10.9132
▁leadership	-10.9133
▁minor	-10.9133
▁Naniwa	-10.9134
▁peak	-10.9134
▁descendent	-10.9135
▁Iemochi	-10.9135
▁layout	-10.9135
▁Hidetada	-10.9135
▁Iesada	-10.9136
Pleas	-10.9136
▁occasionally	-10.9136
▁laid	-10.9137
▁demot	-10.9138
▁Suzuki	-10.9138
▁Tandai	-10.9138
▁Report	-10.9138
▁Chogin	-10.9138
▁Omikami	-10.9139
▁moving	-10.9139
▁blow	-10.9141
▁KANO	-10.9141
▁merit	-10.9142
▁Yasaka	-10.9142
▁lunch	-10.9142
▁1862	-10.9142
SHITA	-10.9143
▁1582	-10.9145
▁grass	-10.9146
▁1951	-10.9146
▁30,000	-10.9146
▁1941	-10.9147
▁1881	-10.9149
▁1947	-10.9149
▁Bugyo	-10.9149
▁touch	-10.915
▁1948	-10.9151
▁cup	-10.9154
▁1950	-10.9157
▁1966	-10.9157
▁1999	-10.9161
▁disclos	-10.9162
Heiha	-10.9184
ltar	-10.9193
▁presen	-10.9211
Kiyomizu	-10.9282
▁retreat	-10.9284
supporters	-10.929
mash	-10.9338
▁Anega	-10.9385
AKU	-10.9458
oven	-10.948
Sekk	-10.9512
anjuro	-10.9533
last	-10.954
Coup	-10.9572
compos	-10.9618
▁ratio	-10.9723
Saru	-10.9788
Daibutsu	-10.9792
UGA	-10.9858
▁regime	-10.9892
nuki	-10.9938
▁rat	-10.9963
▁Guard	-11.0009
▁affair	-11.0009
*	-11.0056
track	-11.0057
warrior	-11.0058
establish	-11.0058
Maizuru	-11.0059
Fushimi	-11.0059
mountain	-11.0059
Great	-11.0059
governor	-11.0059
Later	-11.0059
Tokugawa	-11.006
November	-11.006
December	-11.006
ancient	-11.006
common	-11.006
administrati	-11.0061
production	-11.0064
SAKA	-11.0074
scription	-11.0077
eaves	-11.0123
▁arrest	-11.0136
▁grant	-11.0139
RAI	-11.0142
Heishi	-11.0152
hikinaisha	-11.0182
▁negotiat	-11.0201
▁collapse	-11.0209
▁capture	-11.0212
udon	-11.0213
▁Asia	-11.0216
▁assassin	-11.0228
▁constitut	-11.023
▁Jugoino	-11.0233
▁Consort	-11.0239
▁Career	-11.0239
▁acquaint	-11.0239
▁continent	-11.0239
▁oblig	-11.0239
▁yellow	-11.0239
omprehensive	-11.0239
sexual	-11.0239
▁Chamber	-11.0239
▁Character	-11.0239
▁Club	-11.0239
▁Examples	-11.0239
▁FURU	-11.0239
▁Goyozei	-11.0239
▁Justice	-11.0239
▁KIKKAWA	-11.0239
▁KIKUCHI	-11.0239
▁MADENOKOJI	-11.0239
▁MAEDA	-11.0239
▁Mahayana	-11.0239
▁Organization	-11.0239
▁Railroad	-11.0239
▁Representatives	-11.0239
▁TSUDA	-11.0239
▁Tradition	-11.0239
▁Zhou	-11.0239
▁conspir	-11.0239
▁decisive	-11.0239
▁discontinu	-11.0239
▁economy	-11.0239
▁elegant	-11.0239
▁environment	-11.0239
▁extinct	-11.0239
▁forbidden	-11.0239
▁fortress	-11.0239
▁instructor	-11.0239
▁involvement	-11.0239
▁journey	-11.0239
▁knife	-11.0239
▁loincloth	-11.0239
▁occupation	-11.0239
▁playwright	-11.0239
▁politician	-11.0239
▁prosperous	-11.0239
▁purchased	-11.0239
▁railroad	-11.0239
▁somewhat	-11.0239
▁souvenir	-11.0239
▁substitute	-11.0239
▁suspicion	-11.0239
▁treaties	-11.0239
▁utensils	-11.0239
▁valuable	-11.0239
▁victory	-11.0239
法	-11.0239
王	-11.0239
▁Heritage	-11.0239
▁SAKUMA	-11.0239
▁emergenc	-11.0239
▁entrust	-11.0239
▁genpuku	-11.0239
▁hometown	-11.0239
▁resembl	-11.0239
▁sleep	-11.0239
▁trigger	-11.0239
▁Foundation	-11.0239
▁KOGA	-11.0239
▁Trams	-11.0239
▁comparison	-11.0239
▁missionaries	-11.0239
宗	-11.0239
▁Jesus	-11.0239
▁hostage	-11.0239
本	-11.0239
▁Business	-11.0239
▁Odawara	-11.0239
▁improvement	-11.0239
▁ikki	-11.0239
▁weather	-11.0239
▁1895	-11.0239
▁Mikkyo	-11.0239
▁Samaryo	-11.0239
▁Suzaku	-11.0239
▁banned	-11.0239
▁impossible	-11.0239
▁brown	-11.0239
horikawa	-11.0239
lyrics	-11.024
▁missionary	-11.024
arrival	-11.024
▁blind	-11.024
▁1885	-11.024
▁1906	-11.024
▁Honzon	-11.024
▁refuge	-11.024
▁Priest	-11.024
▁1945	-11.024
▁storm	-11.024
Roshigumi	-11.024
▁Joruri	-11.024
▁Locat	-11.024
▁pursued	-11.024
▁Byodo	-11.024
▁imina	-11.024
▁infectio	-11.024
▁Yayoi	-11.024
▁Genroin	-11.024
▁Boxer	-11.024
▁average	-11.024
▁Former	-11.024
▁Lord	-11.024
▁withdraw	-11.024
▁false	-11.024
▁Early	-11.024
▁Shosoin	-11.024
▁terminal	-11.024
Picture	-11.024
circular	-11.024
▁physical	-11.024
▁launched	-11.024
▁crane	-11.024
▁solid	-11.024
▁spend	-11.0241
▁chest	-11.0241
▁Police	-11.0241
▁risk	-11.0241
Chiyoda	-11.0241
▁forgive	-11.0241
▁Hyoe	-11.0242
▁digni	-11.0242
▁laugh	-11.0242
▁demise	-11.0242
▁supreme	-11.0242
▁biography	-11.0242
▁transform	-11.0242
▁blame	-11.0243
▁kugyo	-11.0243
▁hairstyle	-11.0243
strange	-11.0244
▁prominen	-11.0244
▁Liber	-11.0244
▁mansion	-11.0244
▁Nishioji	-11.0245
▁finger	-11.0246
▁mud	-11.025
▁HAN	-11.025
▁2009	-11.0262
shoot	-11.031
▁angle	-11.0312
▁Isam	-11.0326
▁aggr	-11.0335
▁differentiat	-11.0341
existent	-11.0393
▁careful	-11.0398
TOMI	-11.0414
▁extract	-11.044
mpact	-11.0476
uzuri	-11.0484
▁nineteen	-11.0535
Minor	-11.0804
▁Haik	-11.0841
elimina	-11.0842
gram	-11.086
arashi	-11.0892
▁submit	-11.116
▁slo	-11.118
eastern	-11.1214
▁acknowledg	-11.1249
▁soldier	-11.1259
elected	-11.1264
▁publish	-11.1281
Tanba	-11.1308
princip	-11.1308
private	-11.1309
History	-11.131
generation	-11.131
July	-11.131
Prince	-11.131
▁Hakk	-11.1323
▁obtain	-11.1387
▁limit	-11.1388
ilk	-11.1389
▁commemorat	-11.14
▁preserve	-11.1459
▁swor	-11.146
▁quick	-11.1462
▁examin	-11.1483
▁confus	-11.1484
▁clos	-11.1486
▁admit	-11.1486
nvoy	-11.1486
ifferent	-11.1487
ception	-11.1488
▁Sign	-11.1488
公	-11.1489
▁aristocrat	-11.1489
▁compulsor	-11.1489
▁dissatisf	-11.1489
▁resolve	-11.1489
▁stabiliz	-11.1489
▁supplement	-11.1489
美	-11.1489
Paekche	-11.1489
dharma	-11.1489
kilometer	-11.1489
overeign	-11.1489
registration	-11.1489
uspicious	-11.1489
▁AKAMATSU	-11.1489
▁ARAKI	-11.1489
▁Building	-11.1489
▁Counselor	-11.1489
▁Gofukakusa	-11.1489
▁Greece	-11.1489
▁KAZANIN	-11.1489
▁KITABATAKE	-11.1489
▁KOBORI	-11.1489
▁Nevertheless	-11.1489
▁OGIMACHISANJO	-11.1489
▁Passenger	-11.1489
▁Production	-11.1489
▁ROKKAKU	-11.1489
▁SASAKI	-11.1489
▁TAKAHASHI	-11.1489
▁Wisdom	-11.1489
▁accommodat	-11.1489
▁announcement	-11.1489
▁appreciation	-11.1489
▁astronom	-11.1489
▁banquet	-11.1489
▁bureau	-11.1489
▁cabbage	-11.1489
▁centuries	-11.1489
▁commenced	-11.1489
▁complain	-11.1489
▁complicated	-11.1489
▁composition	-11.1489
▁compromise	-11.1489
▁deploy	-11.1489
▁disasters	-11.1489
▁dissolved	-11.1489
▁etiquette	-11.1489
▁failure	-11.1489
▁fashion	-11.1489
▁inaugurat	-11.1489
▁industries	-11.1489
▁jewel	-11.1489
▁legitimacy	-11.1489
▁locomotive	-11.1489
▁masterpiece	-11.1489
▁mistress	-11.1489
▁mobiliz	-11.1489
▁multiple	-11.1489
▁mysterious	-11.1489
▁naginata	-11.1489
▁obvious	-11.1489
▁participant	-11.1489
▁permanently	-11.1489
▁photograph	-11.1489
▁rebuilt	-11.1489
▁recruit	-11.1489
▁sculptor	-11.1489
▁silkworm	-11.1489
▁speech	-11.1489
▁technolog	-11.1489
▁uncertain	-11.1489
polishing	-11.1489
▁Insurance	-11.1489
▁Izanagi	-11.1489
▁absorb	-11.1489
▁accompany	-11.1489
▁devastat	-11.1489
▁graveyard	-11.1489
▁imagin	-11.1489
▁promulgat	-11.1489
▁propagat	-11.1489
▁switch	-11.1489
club	-11.1489
▁ADACHI	-11.1489
▁ASAKURA	-11.1489
▁Number	-11.1489
▁Popula	-11.1489
▁Works	-11.1489
▁devised	-11.1489
▁dream	-11.1489
▁invented	-11.1489
Design	-11.1489
▁Hatakeyama	-11.1489
▁crisis	-11.1489
▁sanction	-11.1489
Summer	-11.1489
▁Chikuzen	-11.1489
▁transition	-11.1489
し	-11.1489
へ	-11.1489
▁kingdom	-11.1489
▁Next	-11.1489
▁Regiment	-11.1489
benefit	-11.1489
▁1985	-11.1489
▁tsubone	-11.1489
▁Joseon	-11.149
▁Prize	-11.149
▁ogre	-11.149
▁penetrat	-11.149
▁1943	-11.149
▁1886	-11.149
▁1904	-11.149
▁Nikki	-11.149
▁phase	-11.149
▁wild	-11.149
▁breath	-11.149
▁Sojuro	-11.149
▁Heizei	-11.149
▁Present	-11.149
▁1949	-11.149
▁Minato	-11.149
▁steel	-11.149
▁broil	-11.149
▁primary	-11.149
▁Benkan	-11.149
Dainihon	-11.149
▁TANI	-11.149
fragment	-11.149
Gyokuyo	-11.149
▁Rule	-11.149
▁certificate	-11.149
▁salary	-11.149
▁beads	-11.149
▁ancestr	-11.149
▁1911	-11.149
▁agency	-11.149
▁1921	-11.149
▁pool	-11.149
▁Makino	-11.149
▁salmon	-11.149
Direct	-11.149
▁jump	-11.149
▁Pond	-11.149
▁textile	-11.149
▁admir	-11.149
▁haikai	-11.149
▁Lead	-11.149
Muryoju	-11.149
▁Edit	-11.149
▁maiden	-11.149
▁regain	-11.149
▁barrier	-11.149
▁oath	-11.149
▁stem	-11.149
▁boom	-11.149
window	-11.1491
▁mount	-11.1491
▁Kaoru	-11.1491
▁NAKAGAWA	-11.1491
▁Sonno	-11.1491
▁nyogo	-11.1491
▁odd	-11.1491
▁simplified	-11.1491
▁composer	-11.1491
▁compris	-11.1491
Teaching	-11.1491
▁prize	-11.1492
▁YAMAMOTO	-11.1492
▁calm	-11.1492
▁sokui	-11.1492
Ebisu	-11.1492
▁TOIN	-11.1492
▁overlap	-11.1492
▁cycle	-11.1492
▁whale	-11.1492
▁bones	-11.1492
▁yokai	-11.1493
▁instance	-11.1493
▁subsidi	-11.1493
▁flee	-11.1494
▁imitat	-11.1494
▁delegat	-11.1495
▁Scen	-11.1496
glass	-11.1497
▁belt	-11.1499
▁argue	-11.1501
Gohojo	-11.1502
Shoichii	-11.1504
agaru	-11.1504
aboli	-11.1506
▁clarif	-11.1507
tatistics	-11.1508
▁cancel	-11.1509
children	-11.1523
▁certifi	-11.1525
agonal	-11.1528
itud	-11.1601
hirty	-11.1619
document	-11.162
syllable	-11.1714
izar	-11.1722
▁Nav	-11.1838
▁commission	-11.1862
Kazumasa	-11.1913
Bai	-11.2081
▁presum	-11.2187
workers	-11.236
akki	-11.2375
tainment	-11.2642
▁syllab	-11.2659
complete	-11.2734
tumulus	-11.2734
MATSU	-11.2734
magistrate	-11.2735
suicide	-11.2737
writing	-11.2737
NAKA	-11.2738
retainer	-11.2738
regent	-11.2738
Keihan	-11.2738
level	-11.2738
express	-11.2738
Battle	-11.2739
senior	-11.2739
Buddha	-11.2739
school	-11.2739
spirit	-11.2739
clan	-11.2741
Some	-11.2767
▁happen	-11.2814
▁success	-11.2831
▁Commerc	-11.2877
Bank	-11.2881
▁decrease	-11.2887
▁conclude	-11.2888
lief	-11.2897
▁broth	-11.2899
▁pilgrim	-11.2915
oncern	-11.2915
▁ASA	-11.2916
<	-11.2918
門	-11.2918
ZUKI	-11.2918
師	-11.2918
INUKAI	-11.2918
ITAGAKI	-11.2918
Maitreya	-11.2918
Philosoph	-11.2918
controvers	-11.2918
dormitory	-11.2918
expulsion	-11.2918
lternative	-11.2918
uperintendent	-11.2918
▁INABA	-11.2918
▁KATSU	-11.2918
▁KOIDE	-11.2918
▁Konparu	-11.2918
▁London	-11.2918
▁MAKINO	-11.2918
▁Miyasudokoro	-11.2918
▁NIKAIDO	-11.2918
▁Official	-11.2918
▁Pagoda	-11.2918
▁Repair	-11.2918
▁Residence	-11.2918
▁SANADA	-11.2918
▁Similar	-11.2918
▁Zeami	-11.2918
▁accurately	-11.2918
▁applicable	-11.2918
▁aristocracy	-11.2918
▁atmosphere	-11.2918
▁brewery	-11.2918
▁brigade	-11.2918
▁carpenter	-11.2918
▁challeng	-11.2918
▁church	-11.2918
▁circulation	-11.2918
▁column	-11.2918
▁commerce	-11.2918
▁consolidate	-11.2918
▁cuisine	-11.2918
▁definition	-11.2918
▁destination	-11.2918
▁diplomacy	-11.2918
▁disorder	-11.2918
▁disturbance	-11.2918
▁dynasties	-11.2918
▁earthquake	-11.2918
▁fifteenth	-11.2918
▁fundamental	-11.2918
▁happiness	-11.2918
▁hermitage	-11.2918
▁immigrants	-11.2918
▁landscape	-11.2918
▁lavatory	-11.2918
▁mainstream	-11.2918
▁mathematics	-11.2918
▁mulberry	-11.2918
▁mutual	-11.2918
▁narrative	-11.2918
▁peculiar	-11.2918
▁pollution	-11.2918
▁quantit	-11.2918
▁rhythm	-11.2918
▁sculpture	-11.2918
▁siblings	-11.2918
▁strategy	-11.2918
▁tactics	-11.2918
▁technical	-11.2918
▁tournament	-11.2918
▁treatise	-11.2918
▁vessels	-11.2918
行	-11.2918
道	-11.2918
KUNI	-11.2918
fortunate	-11.2918
identify	-11.2918
mmortal	-11.2918
▁HIGASHI	-11.2918
▁KIYO	-11.2918
▁Political	-11.2918
▁Power	-11.2918
▁Sarutahiko	-11.2918
▁abbot	-11.2918
▁affiliat	-11.2918
▁concert	-11.2918
▁concrete	-11.2918
▁contract	-11.2918
▁geographical	-11.2918
▁inferior	-11.2918
▁overwhelm	-11.2918
▁smooth	-11.2918
▁Heaven	-11.2918
▁Kamatari	-11.2918
▁Sumitomo	-11.2918
▁archive	-11.2918
▁bloom	-11.2918
▁ceiling	-11.2918
▁commut	-11.2918
▁complex	-11.2918
▁encounter	-11.2918
▁lodg	-11.2918
▁nurse	-11.2918
▁penalty	-11.2918
▁persuad	-11.2918
▁unusual	-11.2918
▁witnesse	-11.2918
▁Nenbutsu	-11.2918
▁corps	-11.2918
▁tokonoma	-11.2918
人	-11.2918
lantern	-11.2918
▁blade	-11.2918
▁proclaimed	-11.2918
り	-11.2918
山	-11.2918
▁Church	-11.2918
Edict	-11.2918
▁parade	-11.2918
▁siege	-11.2918
▁Establishment	-11.2918
▁Sumimoto	-11.2918
▁amended	-11.2918
▁reliable	-11.2918
信	-11.2918
▁Alliance	-11.2918
▁crowd	-11.2918
NHK	-11.2918
▁Tsurugi	-11.2918
▁Yanagawa	-11.2918
▁generic	-11.2918
▁1183	-11.2918
▁Benkei	-11.2918
▁Film	-11.2918
▁MIURA	-11.2918
▁Tsugaru	-11.2918
Complete	-11.2918
▁Kuruwa	-11.2918
▁1428	-11.2918
▁meditation	-11.2918
▁ultimate	-11.2918
uarantee	-11.2918
▁Saburo	-11.2918
▁clouds	-11.2918
vacuat	-11.2918
▁nenbutsu	-11.2918
▁turtle	-11.2918
zhou	-11.2918
▁Sumida	-11.2918
▁Chikugo	-11.2918
▁anthology	-11.2918
▁obey	-11.2918
▁1602	-11.2918
▁Terada	-11.2918
▁Tsubone	-11.2918
▁bitter	-11.2918
▁Cross	-11.2918
▁Azechi	-11.2918
▁Father	-11.2918
▁1928	-11.2918
▁Regent	-11.2918
▁OKADA	-11.2918
▁sufficient	-11.2918
▁fudoki	-11.2918
▁pepper	-11.2918
▁stamp	-11.2918
▁Ippon	-11.2918
▁1331	-11.2918
▁Sekkan	-11.2918
▁lute	-11.2918
▁protest	-11.2918
▁prime	-11.2918
▁Natural	-11.2918
▁Sanzon	-11.2918
▁Kabane	-11.2918
▁interven	-11.2918
▁Tosando	-11.2918
▁coincid	-11.2918
▁sky	-11.2918
▁histories	-11.2918
▁firm	-11.2918
▁desert	-11.2918
▁1922	-11.2918
▁NAGAI	-11.2919
▁Vol	-11.2919
▁dawn	-11.2919
▁partially	-11.2919
climb	-11.2919
kotoba	-11.2919
Dream	-11.2919
▁rakugo	-11.2919
Musume	-11.2919
▁remarkabl	-11.2919
▁knee	-11.2919
▁debt	-11.2919
brush	-11.292
UTAGAWA	-11.292
▁cedar	-11.292
▁slid	-11.292
▁transcribe	-11.292
▁Saint	-11.2921
▁debut	-11.2921
▁tune	-11.2924
▁Mongol	-11.2924
▁preface	-11.2926
1991	-11.2932
rendered	-11.2935
shell	-11.2937
▁INA	-11.2943
▁Judg	-11.2945
eacher	-11.2946
▁provid	-11.2989
Yokooji	-11.3014
▁symboliz	-11.3016
northeastern	-11.3028
▁craftsm	-11.3036
Ando	-11.3041
▁scr	-11.3044
owadays	-11.3047
fancy	-11.3076
▁spare	-11.3088
courtier	-11.3147
▁apolog	-11.3189
ppression	-11.3321
▁patern	-11.3336
▁decorati	-11.3544
cidentally	-11.3714
▁Mototsun	-11.4191
▁featur	-11.4365
▁participat	-11.4376
source	-11.4395
Class	-11.4402
picture	-11.4402
look	-11.4403
empress	-11.4404
natural	-11.4404
published	-11.4404
Office	-11.4405
collection	-11.4405
Empress	-11.4405
According	-11.4405
young	-11.4406
worship	-11.4407
stitution	-11.4426
volved	-11.4432
KAMO	-11.4438
▁Historic	-11.4441
▁resign	-11.4474
▁finish	-11.4481
▁disappear	-11.4481
▁confirm	-11.4482
habit	-11.4531
▁Agricultur	-11.4544
▁decide	-11.4555
▁sudden	-11.4557
▁genealog	-11.4564
▁archer	-11.4564
▁militar	-11.4565
bbreviated	-11.4566
▁rebellio	-11.4569
TOMO	-11.4572
▁confront	-11.4576
▁Camp	-11.4579
upreme	-11.4581
xplanation	-11.4581
reserved	-11.4581
▁physi	-11.4584
武	-11.4585
七	-11.4585
▁KISO	-11.4585
▁MIYAKE	-11.4585
▁Ukifune	-11.4585
▁Zhu	-11.4585
▁synthe	-11.4585
天	-11.4585
Calligraph	-11.4585
Sanskrit	-11.4585
ambassador	-11.4585
apprentice	-11.4585
collaborat	-11.4585
deficienc	-11.4585
emocratic	-11.4585
iographies	-11.4585
tegotomono	-11.4585
thologies	-11.4585
▁AMAGO	-11.4585
▁AZAI	-11.4585
▁Address	-11.4585
▁Arisugawanomiya	-11.4585
▁Beijing	-11.4585
▁Chrysanthemum	-11.4585
▁Defense	-11.4585
▁Gomizunoo	-11.4585
▁Hikitsuke	-11.4585
▁Hitotsubashi	-11.4585
▁IMAGAWA	-11.4585
▁ISSHIKI	-11.4585
▁KATAOKA	-11.4585
▁MATSUDONO	-11.4585
▁Magistrate	-11.4585
▁Metropoli	-11.4585
▁OGASAWARA	-11.4585
▁Painting	-11.4585
▁Particularly	-11.4585
▁SHINOHARA	-11.4585
▁Sahyoe	-11.4585
▁Slope	-11.4585
▁TSUCHIMIKADO	-11.4585
▁Tamakazura	-11.4585
▁Tamuramaro	-11.4585
▁Technology	-11.4585
▁Throne	-11.4585
▁YANAGISAWA	-11.4585
▁candidate	-11.4585
▁cemetery	-11.4585
▁chopsticks	-11.4585
▁chronological	-11.4585
▁clash	-11.4585
▁collateral	-11.4585
▁communities	-11.4585
▁confectionery	-11.4585
▁consecutive	-11.4585
▁contrary	-11.4585
▁corrupt	-11.4585
▁counterfeit	-11.4585
▁discipline	-11.4585
▁dumpling	-11.4585
▁earthenware	-11.4585
▁enhanced	-11.4585
▁enthusiastic	-11.4585
▁excavation	-11.4585
▁figurine	-11.4585
▁fittings	-11.4585
▁gorgeous	-11.4585
▁hierarchy	-11.4585
▁imprisoned	-11.4585
▁manhood	-11.4585
▁misfortune	-11.4585
▁neighborhood	-11.4585
▁network	-11.4585
▁octopus	-11.4585
▁palanquin	-11.4585
▁patriarch	-11.4585
▁perspective	-11.4585
▁precedent	-11.4585
▁provoke	-11.4585
▁reconciliation	-11.4585
▁rescript	-11.4585
▁seclusion	-11.4585
▁simultaneously	-11.4585
▁solstice	-11.4585
▁spearhead	-11.4585
▁tassel	-11.4585
▁transmitted	-11.4585
▁troupe	-11.4585
▁unearthed	-11.4585
▁vigorous	-11.4585
▁welcomed	-11.4585
▁zaibatsu	-11.4585
い	-11.4585
候	-11.4585
城	-11.4585
Assembly	-11.4585
Autumn	-11.4585
loqu	-11.4585
▁Dannoura	-11.4585
▁Nishikyogoku	-11.4585
▁Okuninushi	-11.4585
▁Plain	-11.4585
▁Serizawa	-11.4585
▁borrow	-11.4585
▁cheap	-11.4585
▁component	-11.4585
▁contradict	-11.4585
▁delay	-11.4585
▁faculty	-11.4585
▁isolated	-11.4585
▁ominous	-11.4585
▁pioneer	-11.4585
▁poverty	-11.4585
▁radical	-11.4585
▁rebuild	-11.4585
ameitagin	-11.4585
legislat	-11.4585
qualification	-11.4585
suchimikado	-11.4585
▁ARIMA	-11.4585
▁Hachinohe	-11.4585
▁combat	-11.4585
▁consumer	-11.4585
▁message	-11.4585
▁occupy	-11.4585
▁thrust	-11.4585
▁Rokkaku	-11.4585
▁shamisen	-11.4585
▁silent	-11.4585
事	-11.4585
氏	-11.4585
社	-11.4585
ANSAI	-11.4585
▁Fujitsubo	-11.4585
▁SOMA	-11.4585
▁diameter	-11.4585
▁entomb	-11.4585
▁rescue	-11.4585
▁volcan	-11.4585
都	-11.4585
Commemorati	-11.4585
▁Mount	-11.4585
▁Yagyu	-11.4585
▁audit	-11.4585
▁equinox	-11.4585
▁pursuit	-11.4585
念	-11.4585
allegedly	-11.4585
▁Blue	-11.4585
▁Legend	-11.4585
▁Mokuroku	-11.4585
▁Sumiyoshi	-11.4585
▁paddy	-11.4585
▁teeth	-11.4585
仏	-11.4585
▁1996	-11.4585
▁cruel	-11.4585
abdomen	-11.4585
▁1184	-11.4585
▁Course	-11.4585
▁Faith	-11.4585
▁precisely	-11.4585
college	-11.4585
▁Sugoroku	-11.4585
▁climate	-11.4585
▁sphere	-11.4585
無	-11.4585
▁Shugendo	-11.4585
▁clever	-11.4585
▁dialect	-11.4585
▁steep	-11.4585
ischarge	-11.4585
▁Taoism	-11.4585
▁Yawata	-11.4585
▁dictionary	-11.4585
▁ideology	-11.4585
▁slowly	-11.4585
▁Britain	-11.4585
▁Nyoirin	-11.4585
▁1909	-11.4585
▁Gosaga	-11.4585
▁Operation	-11.4585
▁lieu	-11.4585
▁1649	-11.4585
▁1970	-11.4585
TOKU	-11.4585
▁1902	-11.4585
▁1932	-11.4585
▁1896	-11.4585
▁task	-11.4585
▁1971	-11.4585
▁1979	-11.4585
▁Zui	-11.4585
▁Mission	-11.4585
▁WAKA	-11.4585
▁epic	-11.4585
▁Priv	-11.4585
Tanabata	-11.4585
▁Himiko	-11.4585
Ritsumeikan	-11.4585
▁1977	-11.4585
Seikanron	-11.4585
[	-11.6406
軍	-11.6584
源	-11.6585
≒	-11.6585
三	-11.6585
合	-11.6585
姫	-11.6585
島	-11.6585
藤	-11.6585
高	-11.6585
下	-11.6585
政	-11.6585
古	-11.6585
き	-11.6585
二	-11.6585
に	-11.6585
左	-11.9084
八	-11.9085
尺	-11.9085
é	-11.9085
万	-11.9085
之	-11.9085
例	-11.9085
光	-11.9085
反	-11.9085
呂	-11.9085
咒	-11.9085
屋	-11.9085
慶	-11.9085
普	-11.9085
中	-11.9085
宮	-11.9085
余	-11.9085
朝	-11.9085
名	-11.9085
小	-11.9085
忌	-11.9085
明	-11.9085
と	-11.9085
`	-12.7448
q	-12.7449
