<pad>	0
</s>	0
<unk>	0
▁¦	-0
▁𐋇	-1
in	-2
▁,	-3
an	-4
en	-5
ta	-6
ja	-7
si	-8
ka	-9
ll	-10
än	-11
is	-12
tä	-13
va	-14
et	-15
sa	-16
▁.	-17
ku	-18
on	-19
he	-20
te	-21
tu	-22
ol	-23
ma	-24
hän	-25
el	-26
lle	-27
oi	-28
ut	-29
ra	-30
min	-31
se	-32
jo	-33
ko	-34
ti	-35
un	-36
ki	-37
la	-38
kä	-39
mi	-40
vat	-41
es	-42
ni	-43
as	-44
ei	-45
pa	-46
san	-47
sin	-48
vi	-49
vä	-50
sä	-51
▁:	-52
her	-53
ik	-54
sen	-55
kun	-56
▁"	-57
it	-58
llä	-59
ju	-60
me	-61
ne	-62
niin	-63
ke	-64
oli	-65
ksi	-66
sta	-67
id	-68
pä	-69
▁;	-70
minä	-71
ha	-72
lla	-73
utta	-74
kan	-75
to	-76
yt	-77
li	-78
pu	-79
su	-80
herra	-81
ten	-82
ri	-83
mä	-84
le	-85
nä	-86
kaik	-87
mu	-88
hänen	-89
men	-90
ty	-91
vät	-92
ot	-93
hd	-94
juma	-95
kaa	-96
mutta	-97
sy	-98
aa	-99
isi	-100
ista	-101
joka	-102
ole	-103
lä	-104
er	-105
hu	-106
kuin	-107
us	-108
että	-109
tan	-110
sillä	-111
idän	-112
jä	-113
ud	-114
pi	-115
ky	-116
uo	-117
ssa	-118
eli	-119
mme	-120
ran	-121
minun	-122
so	-123
kö	-124
sinun	-125
sanoi	-126
maan	-127
ille	-128
po	-129
tta	-130
ksen	-131
kaan	-132
kaikki	-133
kin	-134
van	-135
kunin	-136
sinä	-137
mo	-138
itä	-139
jumala	-140
elle	-141
sano	-142
pää	-143
il	-144
saa	-145
tka	-146
pal	-147
taa	-148
ed	-149
ih	-150
vasta	-151
kau	-152
kse	-153
hä	-154
jotka	-155
maa	-156
isra	-157
▁?	-158
mis	-159
inen	-160
minu	-161
kuu	-162
elä	-163
herran	-164
jan	-165
lu	-166
na	-167
lta	-168
nyt	-169
päi	-170
heidän	-171
poi	-172
een	-173
py	-174
elin	-175
ette	-176
lais	-177
koon	-178
▁".	-179
mie	-180
han	-181
lan	-182
kat	-183
itse	-184
ovat	-185
voi	-186
asta	-187
ät	-188
män	-189
eet	-190
mitä	-191
no	-192
kää	-193
ru	-194
mei	-195
lo	-196
yö	-197
istu	-198
sinu	-199
läh	-200
rin	-201
jon	-202
tän	-203
▁`	-204
toi	-205
tuli	-206
olen	-207
essä	-208
re	-209
pun	-210
oin	-211
ken	-212
tämä	-213
je	-214
hden	-215
at	-216
ho	-217
niinkuin	-218
man	-219
kansa	-220
vän	-221
ar	-222
▁."	-223
joi	-224
vuo	-225
palv	-226
jumalan	-227
pe	-228
pel	-229
uh	-230
tule	-231
istä	-232
hänelle	-233
jos	-234
vai	-235
syn	-236
tai	-237
stä	-238
jen	-239
suu	-240
hen	-241
isen	-242
tanut	-243
yl	-244
kir	-245
olivat	-246
taan	-247
aan	-248
hi	-249
katso	-250
kuning	-251
mmen	-252
teidän	-253
val	-254
hänet	-255
vastaan	-256
kymmen	-257
sit	-258
ellä	-259
teen	-260
vaan	-261
assa	-262
tet	-263
idät	-264
kas	-265
estä	-266
kaupun	-267
var	-268
tähden	-269
häntä	-270
lloin	-271
llut	-272
essa	-273
tti	-274
lei	-275
tin	-276
ön	-277
mon	-278
kuningas	-279
iset	-280
israelin	-281
sitä	-282
tuo	-283
kään	-284
eivät	-285
llen	-286
ve	-287
teh	-288
tun	-289
poika	-290
heille	-291
meid	-292
jäl	-293
mat	-294
jonka	-295
tiin	-296
änsä	-297
päivän	-298
koi	-299
issa	-300
palveli	-301
olet	-302
pan	-303
kka	-304
tää	-305
daa	-306
joo	-307
näin	-308
▁!	-309
asu	-310
eikä	-311
kul	-312
tui	-313
hy	-314
silloin	-315
jer	-316
vid	-317
daavid	-318
ska	-319
sanoo	-320
jou	-321
käs	-322
vel	-323
luo	-324
vo	-325
ab	-326
uta	-327
dä	-328
äl	-329
ai	-330
jat	-331
kanssa	-332
mp	-333
ain	-334
esta	-335
kor	-336
moo	-337
ansa	-338
neet	-339
sivat	-340
koko	-341
ää	-342
pois	-343
yös	-344
esi	-345
al	-346
ura	-347
meidän	-348
puhu	-349
per	-350
jaa	-351
minulle	-352
▁-	-353
pol	-354
heidät	-355
sitten	-356
minua	-357
päivänä	-358
meni	-359
jees	-360
iden	-361
mmä	-362
ro	-363
uden	-364
ään	-365
asti	-366
otta	-367
haa	-368
kol	-369
lap	-370
kaksi	-371
ul	-372
kar	-373
myös	-374
hin	-375
sil	-376
laiset	-377
juud	-378
tte	-379
tul	-380
vu	-381
usa	-382
köön	-383
pap	-384
inä	-385
vaa	-386
ise	-387
ita	-388
kuninkaan	-389
het	-390
ssä	-391
esti	-392
ver	-393
teille	-394
kea	-395
las	-396
laisten	-397
israeli	-398
op	-399
ren	-400
mies	-401
sinua	-402
moose	-403
kes	-404
suku	-405
syö	-406
etti	-407
tämän	-408
vää	-409
▁?"	-410
nan	-411
nou	-412
nut	-413
heitä	-414
eltä	-415
edessä	-416
jerusa	-417
jerusale	-418
käsi	-419
teki	-420
sinulle	-421
tö	-422
isin	-423
valta	-424
eg	-425
yn	-426
ee	-427
set	-428
ihmis	-429
tee	-430
ker	-431
tykö	-432
siitä	-433
minut	-434
kymmentä	-435
tto	-436
älä	-437
maahan	-438
isesti	-439
yttä	-440
hur	-441
oma	-442
yh	-443
iste	-444
tar	-445
yp	-446
mukaan	-447
egyp	-448
vielä	-449
olle	-450
puh	-451
kaupung	-452
tyi	-453
temp	-454
kseen	-455
tava	-456
kansan	-457
mikä	-458
sydä	-459
pyhä	-460
tulee	-461
uksen	-462
nämä	-463
net	-464
yd	-465
tie	-466
isia	-467
seura	-468
otti	-469
da	-470
astu	-471
siih	-472
kon	-473
seitse	-474
äni	-475
koh	-476
enn	-477
lin	-478
ilm	-479
vir	-480
sentähden	-481
teke	-482
iksi	-483
lee	-484
kaiken	-485
ani	-486
kia	-487
kuninkaa	-488
siihen	-489
vastasi	-490
aab	-491
isa	-492
nel	-493
vanhur	-494
ton	-495
puole	-496
viin	-497
kr	-498
paa	-499
lähti	-500
tänyt	-501
sii	-502
raa	-503
ttaa	-504
ollut	-505
juudan	-506
isä	-507
muu	-508
käy	-509
usko	-510
ensa	-511
aset	-512
ba	-513
mpä	-514
kkaa	-515
päivä	-516
oike	-517
koska	-518
isu	-519
ivat	-520
issä	-521
sekä	-522
ron	-523
seitsemän	-524
miel	-525
maassa	-526
tuu	-527
pala	-528
miehet	-529
palvelija	-530
sanoen	-531
olkoon	-532
ettei	-533
tur	-534
sinut	-535
toista	-536
lleen	-537
niiden	-538
kut	-539
siellä	-540
käsky	-541
kautta	-542
sel	-543
usta	-544
älkää	-545
ensä	-546
antoi	-547
asi	-548
jälk	-549
jälkelä	-550
yksi	-551
vas	-552
tehnyt	-553
tansa	-554
lli	-555
sanoivat	-556
kai	-557
tempp	-558
isten	-559
ji	-560
lau	-561
eteen	-562
tettu	-563
ssan	-564
mään	-565
kiin	-566
kuinka	-567
ttä	-568
kristu	-569
olette	-570
opet	-571
ys	-572
miin	-573
den	-574
pojan	-575
pah	-576
sanon	-577
jeesus	-578
tus	-579
hävi	-580
ek	-581
pro	-582
vin	-583
ikka	-584
kunni	-585
ell	-586
vaimo	-587
prof	-588
or	-589
raken	-590
herraa	-591
ian	-592
ota	-593
enää	-594
por	-595
mene	-596
kirjoi	-597
kko	-598
synti	-599
eni	-600
ksensa	-601
jota	-602
kuole	-603
sur	-604
teitä	-605
ara	-606
tään	-607
siis	-608
hei	-609
ympä	-610
am	-611
yty	-612
niitä	-613
▁`.	-614
koot	-615
lapsi	-616
oit	-617
tied	-618
mia	-619
kolme	-620
ina	-621
yli	-622
miehen	-623
ria	-624
siinä	-625
herralle	-626
ruu	-627
puol	-628
oa	-629
kunn	-630
be	-631
näki	-632
sota	-633
missä	-634
mitään	-635
juo	-636
hal	-637
tuha	-638
erä	-639
nuo	-640
pappi	-641
osa	-642
sti	-643
antaa	-644
neljä	-645
met	-646
utu	-647
keli	-648
olisi	-649
kuka	-650
tullut	-651
daavidin	-652
mää	-653
altta	-654
mpi	-655
jälke	-656
kasta	-657
olla	-658
hdä	-659
viisi	-660
israel	-661
lam	-662
ruo	-663
tuomi	-664
jy	-665
liit	-666
kseni	-667
palvel	-668
vain	-669
rä	-670
unut	-671
taneet	-672
yhd	-673
ihin	-674
miksi	-675
pil	-676
tah	-677
jaako	-678
jaakob	-679
antanut	-680
kki	-681
ven	-682
kauh	-683
kymmenen	-684
anta	-685
salo	-686
annan	-687
ppu	-688
ennen	-689
vaat	-690
huon	-691
udessa	-692
lö	-693
oleva	-694
kos	-695
mooses	-696
esty	-697
kku	-698
mista	-699
tulivat	-700
ret	-701
aina	-702
uhri	-703
profeet	-704
dan	-705
uni	-706
kei	-707
tod	-708
vie	-709
lah	-710
vih	-711
anna	-712
kel	-713
olemme	-714
lähetti	-715
joita	-716
malla	-717
nouse	-718
hyvä	-719
kuul	-720
ruh	-721
pai	-722
seen	-723
ympäri	-724
mur	-725
sataa	-726
isille	-727
siel	-728
mar	-729
sana	-730
iankaik	-731
jal	-732
tyttä	-733
del	-734
mer	-735
ussa	-736
jän	-737
vet	-738
oni	-739
päin	-740
tunut	-741
my	-742
istui	-743
kanssan	-744
ras	-745
laa	-746
ella	-747
perin	-748
älköön	-749
jul	-750
saul	-751
tapah	-752
rik	-753
vall	-754
suuri	-755
oo	-756
tuhatta	-757
kutsu	-758
ksessa	-759
tuivat	-760
ymmä	-761
minkä	-762
paljon	-763
vanhurska	-764
huu	-765
jet	-766
kset	-767
miestä	-768
toinen	-769
ivät	-770
tesi	-771
masta	-772
sinne	-773
nime	-774
ymmär	-775
rau	-776
ensi	-777
nu	-778
syy	-779
saan	-780
aaron	-781
rukoi	-782
llensa	-783
soi	-784
heng	-785
isiä	-786
ksesi	-787
kselle	-788
kaikkien	-789
aja	-790
kuuli	-791
egyptin	-792
emme	-793
lleet	-794
ruhtin	-795
toisen	-796
seis	-797
puhui	-798
laisia	-799
gi	-800
teli	-801
tena	-802
ynnä	-803
sanan	-804
rat	-805
tal	-806
pei	-807
kaisin	-808
ga	-809
muuta	-810
pääll	-811
eksi	-812
paik	-813
ry	-814
onin	-815
teet	-816
meitä	-817
pit	-818
ulo	-819
isti	-820
raha	-821
iankaikk	-822
sää	-823
vilä	-824
maasta	-825
jumalaa	-826
teko	-827
tomu	-828
viho	-829
tänsä	-830
anne	-831
hall	-832
ilmoi	-833
keske	-834
lainen	-835
ös	-836
ben	-837
seba	-838
änne	-839
au	-840
kiit	-841
itsen	-842
ottaa	-843
pojat	-844
tensä	-845
siun	-846
henki	-847
viholl	-848
illä	-849
kysy	-850
unsa	-851
meille	-852
sisä	-853
lähet	-854
jälkeen	-855
uksi	-856
mmat	-857
jansa	-858
iseksi	-859
öl	-860
sai	-861
hope	-862
kukaan	-863
takaisin	-864
kee	-865
alas	-866
elta	-867
vaikka	-868
do	-869
sia	-870
kuule	-871
sille	-872
llensä	-873
öt	-874
huo	-875
sef	-876
baab	-877
talo	-878
tot	-879
itsi	-880
tulevat	-881
leevilä	-882
tekee	-883
toimi	-884
kaikkia	-885
lähe	-886
eivätkä	-887
har	-888
pakan	-889
päällä	-890
fil	-891
hedel	-892
llesi	-893
ona	-894
iten	-895
poltto	-896
teidät	-897
veljen	-898
massa	-899
de	-900
hyl	-901
käd	-902
perintö	-903
baa	-904
suo	-905
ulos	-906
filiste	-907
juuta	-908
vuor	-909
vii	-910
kivi	-911
muut	-912
filistea	-913
tämään	-914
kahd	-915
viha	-916
kyy	-917
jumalasi	-918
jeesuksen	-919
joh	-920
mas	-921
neu	-922
tua	-923
kunta	-924
tahd	-925
lleni	-926
opetus	-927
sar	-928
▁!"	-929
kaiki	-930
jät	-931
etta	-932
ess	-933
näh	-934
armo	-935
isänsä	-936
uda	-937
nousi	-938
varti	-939
kanssaan	-940
tap	-941
temppeli	-942
tietä	-943
päälle	-944
jää	-945
kii	-946
fara	-947
kuiten	-948
ad	-949
tut	-950
tänne	-951
onsa	-952
tenä	-953
iseen	-954
vaimon	-955
vanhurs	-956
joku	-957
kal	-958
oita	-959
tele	-960
osta	-961
puhunut	-962
rit	-963
jaan	-964
tani	-965
miehi	-966
ltä	-967
rie	-968
mille	-969
rai	-970
tel	-971
jalle	-972
temppelin	-973
häpe	-974
isty	-975
jumalatto	-976
silmä	-977
taivaan	-978
pin	-979
moin	-980
vien	-981
väke	-982
sebaot	-983
heit	-984
tävä	-985
oikea	-986
kaupungin	-987
ter	-988
öljy	-989
kanso	-990
minen	-991
saasta	-992
jokainen	-993
ef	-994
lain	-995
puhd	-996
jossa	-997
vy	-998
jolla	-999
mel	-1000
toa	-1001
miehe	-1002
vah	-1003
etty	-1004
nimi	-1005
maata	-1006
joosef	-1007
llinen	-1008
poikansa	-1009
beet	-1010
matta	-1011
israelilaiset	-1012
puolella	-1013
ola	-1014
illa	-1015
vuotta	-1016
vit	-1017
samoin	-1018
aabraha	-1019
profeetta	-1020
hti	-1021
aika	-1022
missa	-1023
tähän	-1024
synnyt	-1025
kuusi	-1026
ahd	-1027
ineen	-1028
ilmesty	-1029
moosekselle	-1030
tänä	-1031
kyynä	-1032
tehdä	-1033
ved	-1034
haan	-1035
kalta	-1036
nimen	-1037
juu	-1038
ettu	-1039
suur	-1040
tytä	-1041
vali	-1042
jouko	-1043
kasvo	-1044
syntyi	-1045
aik	-1046
syt	-1047
tätä	-1048
kulki	-1049
hda	-1050
työ	-1051
vei	-1052
teura	-1053
jumali	-1054
ensimmä	-1055
siä	-1056
hopea	-1057
isiin	-1058
pahaa	-1059
ia	-1060
väki	-1061
ylös	-1062
varten	-1063
kristuksen	-1064
täyt	-1065
lähte	-1066
riemu	-1067
rakasta	-1068
rille	-1069
kanaan	-1070
pyh	-1071
tyh	-1072
mistä	-1073
sivät	-1074
kär	-1075
kulta	-1076
taiva	-1077
kuninkaaksi	-1078
od	-1079
sau	-1080
tyy	-1081
tuon	-1082
maail	-1083
tytär	-1084
totisesti	-1085
rää	-1086
saat	-1087
kuoli	-1088
perhe	-1089
verta	-1090
pelastu	-1091
nen	-1092
käskyn	-1093
hau	-1094
kad	-1095
niistä	-1096
aino	-1097
menivät	-1098
annet	-1099
kumar	-1100
olleet	-1101
ana	-1102
naa	-1103
iankaikkisesti	-1104
ssaan	-1105
kööt	-1106
kansaa	-1107
kiinni	-1108
miehiä	-1109
taiste	-1110
sydämen	-1111
lähtivät	-1112
tuvat	-1113
jerusalemin	-1114
kiel	-1115
joosu	-1116
tykön	-1117
viisa	-1118
paha	-1119
itten	-1120
hänellä	-1121
kuninkaalle	-1122
ah	-1123
tat	-1124
toivat	-1125
tehneet	-1126
eikö	-1127
päivää	-1128
salomo	-1129
päällik	-1130
tien	-1131
essään	-1132
utensa	-1133
ilo	-1134
riksi	-1135
suure	-1136
käsken	-1137
sukukun	-1138
kät	-1139
pid	-1140
matto	-1141
tässä	-1142
viini	-1143
ksenne	-1144
saakka	-1145
kukin	-1146
kätensä	-1147
kani	-1148
mppu	-1149
kokoon	-1150
kunnes	-1151
istaa	-1152
kesku	-1153
käsiin	-1154
vuoden	-1155
siir	-1156
sanot	-1157
kseksi	-1158
sanonut	-1159
kuk	-1160
lyö	-1161
muuka	-1162
iselle	-1163
pelkää	-1164
kirjoitettu	-1165
eh	-1166
ene	-1167
jani	-1168
takaa	-1169
kkaan	-1170
pelas	-1171
tävät	-1172
heistä	-1173
ihmisen	-1174
aut	-1175
astaan	-1176
polttouh	-1177
von	-1178
jona	-1179
vael	-1180
pitää	-1181
ottivat	-1182
kaikesta	-1183
ojen	-1184
reja	-1185
riin	-1186
siin	-1187
taas	-1188
voin	-1189
seuraa	-1190
eta	-1191
enkä	-1192
lampa	-1193
kaikille	-1194
udes	-1195
poh	-1196
sor	-1197
alle	-1198
kalli	-1199
käski	-1200
mooab	-1201
paran	-1202
lapset	-1203
meidät	-1204
kauhistu	-1205
keskellä	-1206
nö	-1207
uu	-1208
alu	-1209
karit	-1210
sieltä	-1211
juh	-1212
liiton	-1213
syntiä	-1214
ase	-1215
suh	-1216
kuulu	-1217
papit	-1218
uttaa	-1219
vihan	-1220
jor	-1221
mmi	-1222
nouda	-1223
keu	-1224
nim	-1225
par	-1226
tulla	-1227
päästä	-1228
bin	-1229
elää	-1230
iloit	-1231
laisille	-1232
ainoastaan	-1233
jerusalemiin	-1234
rän	-1235
mmän	-1236
meren	-1237
udesta	-1238
pat	-1239
vil	-1240
enne	-1241
änyt	-1242
jamin	-1243
onnet	-1244
ettiin	-1245
kuitenkin	-1246
vot	-1247
pime	-1248
enkeli	-1249
kansat	-1250
lapsen	-1251
hänestä	-1252
st	-1253
pysy	-1254
synty	-1255
voima	-1256
kahdek	-1257
tuksen	-1258
pet	-1259
sama	-1260
väli	-1261
yhtä	-1262
sanat	-1263
sansa	-1264
surma	-1265
tiedä	-1266
tivät	-1267
baabelin	-1268
pii	-1269
viä	-1270
teeksi	-1271
jälkeläisiä	-1272
israelilaisten	-1273
mal	-1274
tetaan	-1275
myöskin	-1276
ottanut	-1277
hyö	-1278
sut	-1279
alla	-1280
ystä	-1281
lähd	-1282
pain	-1283
aurin	-1284
häneen	-1285
kah	-1286
täh	-1287
mma	-1288
mole	-1289
olin	-1290
vesi	-1291
paken	-1292
sydäm	-1293
llenne	-1294
ttivat	-1295
aat	-1296
moni	-1297
efrai	-1298
hyvin	-1299
vanha	-1300
joukko	-1301
laisen	-1302
benjamin	-1303
di	-1304
kui	-1305
äsi	-1306
oista	-1307
pyhit	-1308
tusta	-1309
häneltä	-1310
kansalle	-1311
jerusalemissa	-1312
yhä	-1313
lupa	-1314
heimo	-1315
kauan	-1316
sella	-1317
vettä	-1318
jordan	-1319
ksemme	-1320
käskenyt	-1321
valtakun	-1322
ennenkuin	-1323
os	-1324
▁`,	-1325
ylen	-1326
kirja	-1327
nähdä	-1328
suuren	-1329
jaakobin	-1330
kur	-1331
kyl	-1332
iltä	-1333
liik	-1334
tulen	-1335
velji	-1336
ked	-1337
ppa	-1338
puu	-1339
sty	-1340
hyvää	-1341
kkaat	-1342
jär	-1343
kahdeksan	-1344
lat	-1345
oksi	-1346
vasi	-1347
aikaan	-1348
silmän	-1349
kaksikymmentä	-1350
polv	-1351
tuho	-1352
yden	-1353
josta	-1354
täyty	-1355
uskon	-1356
leipää	-1357
alttarin	-1358
▁",	-1359
eläi	-1360
jasi	-1361
jensa	-1362
rakka	-1363
kahden	-1364
katsel	-1365
puolelle	-1366
oon	-1367
mieh	-1368
sääd	-1369
kunnia	-1370
teistä	-1371
kyynärää	-1372
lun	-1373
näl	-1374
kuun	-1375
peljä	-1376
kansani	-1377
tekivät	-1378
kaikista	-1379
unu	-1380
kansojen	-1381
kaupunkiin	-1382
bi	-1383
oh	-1384
lai	-1385
itte	-1386
kana	-1387
oman	-1388
tanne	-1389
ttanut	-1390
kohtaan	-1391
temppel	-1392
isto	-1393
ihminen	-1394
pyy	-1395
onko	-1396
yhden	-1397
rii	-1398
see	-1399
uhra	-1400
neuvo	-1401
egypti	-1402
isista	-1403
teillä	-1404
tulleet	-1405
veljensä	-1406
onnettomu	-1407
yk	-1408
jia	-1409
asun	-1410
niille	-1411
saatta	-1412
jumalamme	-1413
mak	-1414
henke	-1415
tuomit	-1416
itsensä	-1417
seurakun	-1418
kanssansa	-1419
saf	-1420
itin	-1421
täni	-1422
jille	-1423
tahto	-1424
tavat	-1425
käänty	-1426
tietää	-1427
vuotena	-1428
anteeksi	-1429
valtaistui	-1430
riko	-1431
tunn	-1432
kohti	-1433
llaan	-1434
oihin	-1435
pur	-1436
halli	-1437
isäni	-1438
tettiin	-1439
aamu	-1440
ajat	-1441
laak	-1442
velje	-1443
isiksi	-1444
llansa	-1445
bu	-1446
vis	-1447
syödä	-1448
asetti	-1449
karkoi	-1450
kolman	-1451
kuolle	-1452
minusta	-1453
puhe	-1454
utti	-1455
vinä	-1456
korke	-1457
kimppu	-1458
kirkka	-1459
▁.`	-1460
jere	-1461
jeesu	-1462
rikko	-1463
täkää	-1464
isivat	-1465
saavat	-1466
palvelijasi	-1467
sän	-1468
auti	-1469
liha	-1470
olevan	-1471
luon	-1472
pieta	-1473
tetta	-1474
saanut	-1475
kaikkea	-1476
kanssasi	-1477
ala	-1478
sma	-1479
isän	-1480
pääs	-1481
rasta	-1482
elämän	-1483
isesta	-1484
miesten	-1485
ban	-1486
kit	-1487
pani	-1488
joona	-1489
kelin	-1490
manas	-1491
vanhi	-1492
menkää	-1493
yhdessä	-1494
kaupunki	-1495
mah	-1496
noin	-1497
totu	-1498
vapa	-1499
viis	-1500
pysyy	-1501
tuleva	-1502
herrani	-1503
ihmisten	-1504
mus	-1505
jälj	-1506
astui	-1507
essäni	-1508
sydäme	-1509
minulla	-1510
dän	-1511
sata	-1512
armon	-1513
egypt	-1514
essaan	-1515
joosua	-1516
ksesta	-1517
tyivät	-1518
kaupunkia	-1519
kaksitoista	-1520
ur	-1521
ris	-1522
vun	-1523
paika	-1524
tunte	-1525
joilla	-1526
alttari	-1527
asin	-1528
nous	-1529
äitin	-1530
joiden	-1531
silmissä	-1532
kuningasta	-1533
hoi	-1534
sija	-1535
udat	-1536
johon	-1537
nosta	-1538
ilmestysma	-1539
epä	-1540
uto	-1541
hoja	-1542
vana	-1543
jooab	-1544
hengen	-1545
neljän	-1546
seisoi	-1547
täynnä	-1548
nis	-1549
noi	-1550
ser	-1551
gile	-1552
ossa	-1553
ottu	-1554
nuoru	-1555
viksi	-1556
gilead	-1557
valmis	-1558
puolesta	-1559
ympärilei	-1560
gon	-1561
samu	-1562
leiri	-1563
mennä	-1564
sitte	-1565
enemmän	-1566
jordanin	-1567
lähettänyt	-1568
pane	-1569
pohjo	-1570
kutsui	-1571
jälleen	-1572
kil	-1573
mät	-1574
hevo	-1575
näky	-1576
taja	-1577
hävit	-1578
johan	-1579
tetty	-1580
ketään	-1581
muista	-1582
teensa	-1583
todista	-1584
abi	-1585
his	-1586
kävi	-1587
aikaa	-1588
loppu	-1589
äläkä	-1590
lähten	-1591
tuneet	-1592
täneet	-1593
kaikkin	-1594
kuullut	-1595
poikani	-1596
erämaassa	-1597
edo	-1598
mien	-1599
näke	-1600
ruko	-1601
kuuka	-1602
kesken	-1603
sanoin	-1604
saulin	-1605
sinulla	-1606
asukkaat	-1607
luoksensa	-1608
jälkeläiset	-1609
hel	-1610
iisa	-1611
suvu	-1612
kysyi	-1613
tästä	-1614
nähnyt	-1615
aaronin	-1616
kaupungit	-1617
nuh	-1618
olta	-1619
soti	-1620
aaksi	-1621
määrä	-1622
valit	-1623
varus	-1624
keelle	-1625
niihin	-1626
täy	-1627
via	-1628
otan	-1629
ulko	-1630
esiko	-1631
hyvän	-1632
jumalalle	-1633
sö	-1634
sul	-1635
tor	-1636
itar	-1637
vier	-1638
rakas	-1639
kuulkaa	-1640
tykönsä	-1641
jumalanne	-1642
mooseksen	-1643
liikkeelle	-1644
temppeliin	-1645
ili	-1646
assu	-1647
etsi	-1648
sovi	-1649
kyllä	-1650
julista	-1651
viinitar	-1652
heb	-1653
hoo	-1654
jään	-1655
jasta	-1656
sydän	-1657
terve	-1658
päivinä	-1659
lis	-1660
vyö	-1661
ihmi	-1662
suit	-1663
matka	-1664
henken	-1665
todistu	-1666
kuulleet	-1667
eita	-1668
sivu	-1669
kukku	-1670
vääry	-1671
faraon	-1672
heillä	-1673
kasvoi	-1674
hallitus	-1675
toimitta	-1676
daavidille	-1677
leeviläiset	-1678
ny	-1679
isy	-1680
laid	-1681
puut	-1682
teni	-1683
mihin	-1684
monta	-1685
kotiin	-1686
paavali	-1687
pelasta	-1688
jumalani	-1689
nat	-1690
tuh	-1691
etkä	-1692
sani	-1693
kirjan	-1694
pyhäkö	-1695
ottakaa	-1696
mun	-1697
seb	-1698
sielu	-1699
tuaan	-1700
muksen	-1701
ruokauh	-1702
ele	-1703
▁?`	-1704
käär	-1705
veis	-1706
vuod	-1707
yhte	-1708
haure	-1709
laupe	-1710
omaan	-1711
korkea	-1712
paikkaan	-1713
palat	-1714
ammoni	-1715
kristus	-1716
lähettä	-1717
älkääkä	-1718
sydämensä	-1719
palvelijoi	-1720
anin	-1721
huud	-1722
huusi	-1723
kestä	-1724
meillä	-1725
olkoot	-1726
egyptilä	-1727
tyttären	-1728
päämiehet	-1729
ge	-1730
non	-1731
äär	-1732
jain	-1733
laki	-1734
mman	-1735
pare	-1736
tahi	-1737
kammi	-1738
poiki	-1739
tuksi	-1740
kuulla	-1741
sieluni	-1742
avu	-1743
löy	-1744
pyl	-1745
arvo	-1746
kärsi	-1747
virsi	-1748
saastu	-1749
toiset	-1750
viisikymmentä	-1751
valin	-1752
vaatte	-1753
minulta	-1754
molemmat	-1755
neljäkymmentä	-1756
pö	-1757
goo	-1758
päät	-1759
edestä	-1760
laidun	-1761
taivaasta	-1762
din	-1763
pyhi	-1764
huone	-1765
puoli	-1766
etteivät	-1767
hallitsi	-1768
leiriyty	-1769
sukukunn	-1770
imme	-1771
näyt	-1772
saar	-1773
etelä	-1774
kulla	-1775
pyhäk	-1776
ksensä	-1777
viiden	-1778
palvele	-1779
sanovat	-1780
ruhtinas	-1781
mot	-1782
son	-1783
ajan	-1784
evan	-1785
hajo	-1786
kaamme	-1787
laakso	-1788
portin	-1789
veljet	-1790
ihmiset	-1791
miä	-1792
daan	-1793
mmin	-1794
puna	-1795
herät	-1796
kohta	-1797
murhe	-1798
puhun	-1799
salli	-1800
uhraa	-1801
yksin	-1802
kolmen	-1803
kultaa	-1804
sinusta	-1805
joonatan	-1806
kanssani	-1807
pakanain	-1808
ihmislapsi	-1809
ela	-1810
mor	-1811
pui	-1812
sie	-1813
kall	-1814
kohd	-1815
vahv	-1816
jooja	-1817
pylvä	-1818
poikaa	-1819
tetään	-1820
näkivät	-1821
ilta	-1822
isit	-1823
main	-1824
isenä	-1825
konsa	-1826
totta	-1827
paimen	-1828
ylimmä	-1829
huoneen	-1830
israelia	-1831
perintöo	-1832
päällikkö	-1833
äi	-1834
ahi	-1835
gaa	-1836
jero	-1837
näet	-1838
paljo	-1839
valti	-1840
yhdek	-1841
tehkää	-1842
tulisi	-1843
päivään	-1844
ruumiin	-1845
jumalansa	-1846
vastasivat	-1847
filistealaisten	-1848
ir	-1849
kaun	-1850
isäsi	-1851
menee	-1852
oilla	-1853
udella	-1854
koo	-1855
udu	-1856
kaat	-1857
luku	-1858
tiet	-1859
tola	-1860
esipi	-1861
aikana	-1862
portti	-1863
tiedät	-1864
ttavat	-1865
ahdistu	-1866
assurin	-1867
kaikessa	-1868
tietämään	-1869
kuningasten	-1870
ram	-1871
vala	-1872
kenen	-1873
lihan	-1874
oppin	-1875
puhut	-1876
ruumi	-1877
lasten	-1878
samari	-1879
tyttäri	-1880
lepo	-1881
peit	-1882
ranga	-1883
rella	-1884
joista	-1885
antakaa	-1886
herralta	-1887
eti	-1888
rät	-1889
tit	-1890
lohd	-1891
mull	-1892
sala	-1893
tapa	-1894
esiin	-1895
kanta	-1896
keliu	-1897
muita	-1898
pakko	-1899
joukossa	-1900
evankeliu	-1901
jis	-1902
nei	-1903
sid	-1904
koho	-1905
kosta	-1906
tunne	-1907
absalo	-1908
ettävä	-1909
lapsia	-1910
jumalia	-1911
mooabin	-1912
pietari	-1913
muksessa	-1914
perintöosa	-1915
far	-1916
oven	-1917
äiti	-1918
juuda	-1919
kohda	-1920
llään	-1921
ttele	-1922
uteni	-1923
saatte	-1924
taistelu	-1925
israelilaisille	-1926
apu	-1927
hävä	-1928
ryös	-1929
häpeä	-1930
olkaa	-1931
pahan	-1932
saman	-1933
tälle	-1934
uteen	-1935
vihaa	-1936
isistä	-1937
kerran	-1938
tekoja	-1939
vanhurskas	-1940
kolmekymmentä	-1941
oll	-1942
sir	-1943
autu	-1944
kiro	-1945
tart	-1946
arkin	-1947
jalka	-1948
näitä	-1949
vaski	-1950
miekan	-1951
suitsu	-1952
veivät	-1953
jotakin	-1954
ket	-1955
mpa	-1956
roh	-1957
eräs	-1958
liin	-1959
poja	-1960
raan	-1961
pyhän	-1962
tonsa	-1963
tulle	-1964
jerobe	-1965
vaelta	-1966
väkevä	-1967
maineen	-1968
tulette	-1969
jana	-1970
keru	-1971
lang	-1972
pien	-1973
toja	-1974
toon	-1975
itsee	-1976
puhuu	-1977
saada	-1978
sadan	-1979
valke	-1980
veren	-1981
vuoda	-1982
ylistä	-1983
hänessä	-1984
isiensä	-1985
äitinsä	-1986
siirtola	-1987
vaimonsa	-1988
llu	-1989
nes	-1990
nöy	-1991
osoi	-1992
mansa	-1993
vanno	-1994
isella	-1995
poikia	-1996
siemen	-1997
taivaa	-1998
jeremia	-1999
israelissa	-2000
aha	-2001
lähi	-2002
otte	-2003
veri	-2004
laske	-2005
perus	-2006
nousee	-2007
yhteen	-2008
hopeata	-2009
nimensä	-2010
pakkosiirtola	-2011
iä	-2012
aar	-2013
sal	-2014
elia	-2015
maja	-2016
pään	-2017
styt	-2018
aivan	-2019
rauha	-2020
sanne	-2021
tunnus	-2022
viiniä	-2023
sisälle	-2024
egyptistä	-2025
palvelijat	-2026
keskuudessa	-2027
ete	-2028
pes	-2029
leve	-2030
täyd	-2031
▁`."	-2032
sanoa	-2033
toivo	-2034
ettekä	-2035
isitte	-2036
oikein	-2037
ttivät	-2038
tulkaa	-2039
vastaa	-2040
lähellä	-2041
nimeltä	-2042
tekevät	-2043
auringon	-2044
gileadin	-2045
kaupunge	-2046
lapsensa	-2047
maailman	-2048
dani	-2049
itta	-2050
osas	-2051
sapa	-2052
eliin	-2053
jaksi	-2054
juoma	-2055
mitta	-2056
miekka	-2057
samuel	-2058
vannut	-2059
nähneet	-2060
rukoile	-2061
koa	-2062
ksu	-2063
len	-2064
län	-2065
jalo	-2066
kiiva	-2067
siuna	-2068
vaksi	-2069
farise	-2070
aabraham	-2071
kaikkina	-2072
rs	-2073
ppi	-2074
perä	-2075
pidä	-2076
juuri	-2077
maton	-2078
nalle	-2079
pitkä	-2080
vedet	-2081
joukon	-2082
llänsä	-2083
näiden	-2084
tahdon	-2085
ttakaa	-2086
valloi	-2087
asuivat	-2088
parempi	-2089
rukoili	-2090
kaikkiaan	-2091
kuninkaat	-2092
juutalaiset	-2093
sanansaatta	-2094
temppelissä	-2095
laidunmaineen	-2096
pau	-2097
vut	-2098
gibe	-2099
rupe	-2100
ikinä	-2101
kulut	-2102
lausu	-2103
monet	-2104
tetut	-2105
turmi	-2106
ukset	-2107
lähimmä	-2108
kuulivat	-2109
iku	-2110
tyä	-2111
amin	-2112
jouk	-2113
ennus	-2114
juhla	-2115
oille	-2116
panen	-2117
puuta	-2118
toisi	-2119
valla	-2120
vuori	-2121
kertaa	-2122
palasi	-2123
uskoll	-2124
sinulta	-2125
efraimin	-2126
oikeuden	-2127
ruhtinaat	-2128
opetuslapsi	-2129
filistealaiset	-2130
apo	-2131
peri	-2132
työn	-2133
joutu	-2134
tuhan	-2135
turva	-2136
vähän	-2137
pakoon	-2138
suuret	-2139
essänsä	-2140
hyväksi	-2141
häpeään	-2142
kuninka	-2143
ttakoon	-2144
kulkivat	-2145
kuoleman	-2146
oikeutta	-2147
synnytti	-2148
itsellesi	-2149
etu	-2150
les	-2151
väl	-2152
asuu	-2153
johd	-2154
kull	-2155
raja	-2156
ainoa	-2157
elämä	-2158
istan	-2159
pella	-2160
vanhe	-2161
vansa	-2162
yöllä	-2163
täällä	-2164
lähetän	-2165
nuoruka	-2166
tulkoon	-2167
tapahtui	-2168
vaatteensa	-2169
kaupungissa	-2170
palvelijansa	-2171
hil	-2172
kke	-2173
levi	-2174
mori	-2175
sisa	-2176
vang	-2177
johta	-2178
runsa	-2179
asuvat	-2180
edellä	-2181
tiedän	-2182
kuollut	-2183
poikasi	-2184
uhrilah	-2185
kuoliaaksi	-2186
sukukunnasta	-2187
▁]	-2188
här	-2189
ajoi	-2190
asar	-2191
hyök	-2192
nebu	-2193
eille	-2194
istuu	-2195
luota	-2196
papin	-2197
pasun	-2198
yhtey	-2199
kätesi	-2200
päivät	-2201
nebukad	-2202
syntiuh	-2203
pelastaa	-2204
vanhimmat	-2205
▁[	-2206
aiko	-2207
halu	-2208
lisä	-2209
huuta	-2210
kalde	-2211
karja	-2212
varha	-2213
puolen	-2214
puoleen	-2215
tekemään	-2216
soo	-2217
sär	-2218
äid	-2219
insa	-2220
sein	-2221
sela	-2222
sulo	-2223
annut	-2224
ikään	-2225
misen	-2226
viime	-2227
öljyä	-2228
pannut	-2229
kansasi	-2230
ottavat	-2231
pyhäkkö	-2232
ymmärry	-2233
annetaan	-2234
joosefin	-2235
kimppuun	-2236
oittanut	-2237
paikassa	-2238
tapahtunut	-2239
oppi	-2240
sian	-2241
kulke	-2242
lille	-2243
selit	-2244
talon	-2245
tuhat	-2246
eeseen	-2247
etteli	-2248
hiskia	-2249
joosaf	-2250
pakana	-2251
taivas	-2252
valtaa	-2253
asettui	-2254
yhdeksän	-2255
kuukauden	-2256
valtaistuime	-2257
vanhurskauden	-2258
anti	-2259
amori	-2260
nosti	-2261
tahdo	-2262
nainen	-2263
niillä	-2264
paikka	-2265
profee	-2266
tahtoo	-2267
jolloin	-2268
sijaansa	-2269
aabrahamin	-2270
kolmantena	-2271
kuitenkaan	-2272
nin	-2273
sat	-2274
rien	-2275
vaunu	-2276
isessa	-2277
kuussa	-2278
stansa	-2279
erämaahan	-2280
itsellensä	-2281
valtakunta	-2282
kristuksessa	-2283
ate	-2284
asua	-2285
itki	-2286
kerr	-2287
kian	-2288
llin	-2289
otin	-2290
lihaa	-2291
oiksi	-2292
ttain	-2293
tuhon	-2294
ville	-2295
tahton	-2296
ottakoon	-2297
sydämeni	-2298
vuorelle	-2299
yhteysuh	-2300
kanssanne	-2301
kaupungista	-2302
iin	-2303
myö	-2304
atin	-2305
ksia	-2306
syvy	-2307
tuul	-2308
halti	-2309
ilman	-2310
laski	-2311
näkee	-2312
pahat	-2313
peljät	-2314
sisään	-2315
vuoren	-2316
hedelmä	-2317
ilaiset	-2318
välillä	-2319
ottamaan	-2320
rakastaa	-2321
vuoristo	-2322
seuraavana	-2323
ena	-2324
oto	-2325
isee	-2326
omaa	-2327
suun	-2328
taid	-2329
farao	-2330
juoda	-2331
metsä	-2332
staan	-2333
säädö	-2334
vapaa	-2335
heiltä	-2336
mennyt	-2337
sanoja	-2338
sekeli	-2339
virran	-2340
eläimet	-2341
herrassa	-2342
manassen	-2343
miehelle	-2344
muutamat	-2345
saastainen	-2346
joja	-2347
jätä	-2348
rauh	-2349
säil	-2350
veli	-2351
apost	-2352
köyhä	-2353
lähde	-2354
keihin	-2355
laista	-2356
pilkkaa	-2357
salomon	-2358
miehensä	-2359
israelille	-2360
juutalaisten	-2361
luu	-2362
mii	-2363
rah	-2364
kasi	-2365
kesi	-2366
teit	-2367
tote	-2368
väen	-2369
ettet	-2370
jolle	-2371
pidät	-2372
ranka	-2373
sanaa	-2374
tehtä	-2375
joutuu	-2376
omaksi	-2377
päähän	-2378
saatan	-2379
saivat	-2380
pellava	-2381
antoivat	-2382
ottaneet	-2383
sukupolv	-2384
ett	-2385
hor	-2386
jäi	-2387
myy	-2388
sad	-2389
väi	-2390
ylä	-2391
gali	-2392
mele	-2393
autta	-2394
etten	-2395
isesi	-2396
kalla	-2397
luona	-2398
maksi	-2399
työtä	-2400
vaell	-2401
henkeä	-2402
hyljän	-2403
pystyt	-2404
tarvit	-2405
vuodat	-2406
ennusta	-2407
milloin	-2408
tapahtu	-2409
kanaanin	-2410
katsokaa	-2411
lähtenyt	-2412
ilmestysmajan	-2413
sim	-2414
ahas	-2415
kier	-2416
vähä	-2417
ylis	-2418
arami	-2419
kerta	-2420
mättä	-2421
nalla	-2422
siion	-2423
tivat	-2424
tynyt	-2425
heimon	-2426
pääsiä	-2427
täytyy	-2428
egyptiin	-2429
kaikissa	-2430
menemään	-2431
palvelijani	-2432
seurakunnan	-2433
kirjoitettuna	-2434
tyt	-2435
jesi	-2436
olit	-2437
paas	-2438
tuja	-2439
valo	-2440
aasin	-2441
halve	-2442
menen	-2443
nessa	-2444
täisi	-2445
valhe	-2446
veden	-2447
galile	-2448
käteen	-2449
käteni	-2450
leirin	-2451
llisen	-2452
seassa	-2453
käsistä	-2454
rakensi	-2455
sanokaa	-2456
jokaisen	-2457
kuluttua	-2458
suurella	-2459
valmista	-2460
asettuivat	-2461
kaksisataa	-2462
polttouhri	-2463
bo	-2464
ama	-2465
kyn	-2466
leh	-2467
kuts	-2468
neit	-2469
syyt	-2470
vaik	-2471
elisa	-2472
oissa	-2473
siksi	-2474
hebron	-2475
kaansa	-2476
kaldea	-2477
lliset	-2478
surmaa	-2479
taloon	-2480
edessäsi	-2481
miehille	-2482
puolelta	-2483
syntynyt	-2484
älköönkä	-2485
itselleen	-2486
ava	-2487
jau	-2488
kiä	-2489
rei	-2490
aita	-2491
ilma	-2492
orja	-2493
keihä	-2494
rauni	-2495
simon	-2496
hylkää	-2497
suuria	-2498
uhreja	-2499
ylitse	-2500
minäkin	-2501
panivat	-2502
saaneet	-2503
kasvojen	-2504
nousivat	-2505
silmänsä	-2506
ikäänkuin	-2507
leiriytyivät	-2508
eri	-2509
ikä	-2510
tia	-2511
alka	-2512
kasv	-2513
meri	-2514
osan	-2515
pitu	-2516
velj	-2517
ylhä	-2518
päätä	-2519
tehty	-2520
tulet	-2521
uskoi	-2522
asukka	-2523
ettekö	-2524
hankki	-2525
kuulee	-2526
paitsi	-2527
rauhan	-2528
sotaan	-2529
vaivaa	-2530
etsivät	-2531
tehtävä	-2532
ttamaan	-2533
uksensa	-2534
kaikelle	-2535
seitsemäntenä	-2536
bar	-2537
goog	-2538
juur	-2539
kkin	-2540
viit	-2541
ylty	-2542
puhua	-2543
tappa	-2544
elleen	-2545
haudat	-2546
huomen	-2547
määrän	-2548
omaisu	-2549
poikki	-2550
istansa	-2551
tulessa	-2552
benjaminin	-2553
vihollisen	-2554
kirjanoppin	-2555
hallitusvuotena	-2556
asa	-2557
noo	-2558
sam	-2559
ytä	-2560
asui	-2561
lait	-2562
resi	-2563
varj	-2564
hetta	-2565
huoma	-2566
laulu	-2567
orjan	-2568
kukkul	-2569
kutsut	-2570
kuuden	-2571
lähtee	-2572
silmät	-2573
takoon	-2574
tieltä	-2575
udeksi	-2576
viikun	-2577
pojalle	-2578
päällys	-2579
veljeni	-2580
jäljelle	-2581
asumuksen	-2582
jälkeensä	-2583
profeetat	-2584
katselmuksessa	-2585
köy	-2586
kers	-2587
kuri	-2588
pell	-2589
rina	-2590
teot	-2591
vase	-2592
ääni	-2593
kille	-2594
lakia	-2595
musta	-2596
silmi	-2597
ttava	-2598
essäsi	-2599
annettu	-2600
jilleen	-2601
herramme	-2602
huusivat	-2603
teurasuh	-2604
toiselle	-2605
ov	-2606
fta	-2607
peä	-2608
unh	-2609
keja	-2610
meen	-2611
piti	-2612
edell	-2613
jalko	-2614
liban	-2615
mpäri	-2616
pappe	-2617
pyhää	-2618
ssani	-2619
tekin	-2620
tille	-2621
vistä	-2622
harjoi	-2623
minuun	-2624
sotava	-2625
tamaan	-2626
tukset	-2627
asumaan	-2628
enkelin	-2629
sanotte	-2630
ttaneet	-2631
täydell	-2632
kirjassa	-2633
rauhassa	-2634
yltympäri	-2635
jerusalemista	-2636
ark	-2637
hun	-2638
linn	-2639
huuto	-2640
kovin	-2641
leipä	-2642
pelto	-2643
pyhät	-2644
rista	-2645
vuosi	-2646
kaaksi	-2647
lammas	-2648
maansa	-2649
puhtaa	-2650
sijaan	-2651
sinuun	-2652
söivät	-2653
keuteen	-2654
päämies	-2655
sekeliä	-2656
varhain	-2657
veljesi	-2658
johannes	-2659
joutuvat	-2660
kotiinsa	-2661
luokseni	-2662
miekkaan	-2663
voimalla	-2664
alttarilla	-2665
seurakunta	-2666
jas	-2667
löi	-2668
näe	-2669
vap	-2670
arma	-2671
huul	-2672
onne	-2673
pana	-2674
sike	-2675
asuin	-2676
hoita	-2677
jellä	-2678
katoa	-2679
käydä	-2680
laisu	-2681
llani	-2682
ratsu	-2683
vanki	-2684
kuljet	-2685
kuolee	-2686
lisään	-2687
kaukana	-2688
menesty	-2689
olemaan	-2690
edessäni	-2691
seitsemä	-2692
keskuudes	-2693
huoneeseen	-2694
taisteluun	-2695
keä	-2696
nah	-2697
arpa	-2698
avat	-2699
etkö	-2700
näkö	-2701
ripu	-2702
terä	-2703
ensin	-2704
kenut	-2705
seiso	-2706
ssään	-2707
tuoma	-2708
varas	-2709
annoin	-2710
elille	-2711
käsivar	-2712
pappien	-2713
siionin	-2714
uskotto	-2715
henkensä	-2716
isuuteen	-2717
miekalla	-2718
fa	-2719
gid	-2720
ryö	-2721
auta	-2722
elän	-2723
kalu	-2724
koin	-2725
sime	-2726
syna	-2727
taen	-2728
tehd	-2729
udet	-2730
ulla	-2731
hansa	-2732
happa	-2733
kiven	-2734
siltä	-2735
alkaen	-2736
kohtaa	-2737
mittaa	-2738
niissä	-2739
palaja	-2740
riivaa	-2741
siunat	-2742
ylisty	-2743
nuhteet	-2744
ilaisten	-2745
llisesti	-2746
päivästä	-2747
ymmärtävä	-2748
palvelusta	-2749
ensimmäisenä	-2750
ly	-2751
rut	-2752
ryh	-2753
olko	-2754
pian	-2755
pyyd	-2756
kauhu	-2757
pääse	-2758
äänen	-2759
isämme	-2760
isänne	-2761
käskyj	-2762
mereen	-2763
metsän	-2764
puoles	-2765
ettette	-2766
karitsa	-2767
koskaan	-2768
kädestä	-2769
pelkäsi	-2770
ettäköön	-2771
valinnut	-2772
jumalalta	-2773
vääryyttä	-2774
ympärillä	-2775
jälkeläisten	-2776
palvelijatta	-2777
eu	-2778
kyt	-2779
bile	-2780
ehkä	-2781
hada	-2782
heet	-2783
huku	-2784
seet	-2785
vied	-2786
aamun	-2787
eläin	-2788
isena	-2789
lista	-2790
tappu	-2791
tujen	-2792
puhdas	-2793
syövät	-2794
aamulla	-2795
johanne	-2796
lisäksi	-2797
tekonsa	-2798
palvelijoita	-2799
ok	-2800
heh	-2801
▁";	-2802
heik	-2803
kato	-2804
kats	-2805
pahu	-2806
itään	-2807
kahta	-2808
masti	-2809
menet	-2810
rauta	-2811
tyvät	-2812
voisi	-2813
laskeu	-2814
naisen	-2815
neuvon	-2816
nimeni	-2817
piirit	-2818
päänsä	-2819
ssansa	-2820
tuolla	-2821
aurinko	-2822
eteensä	-2823
kunnioi	-2824
sekelin	-2825
tämättä	-2826
luvannut	-2827
mukanaan	-2828
suuresti	-2829
synagoog	-2830
asettanut	-2831
kanssamme	-2832
jumalattomat	-2833
avi	-2834
hes	-2835
hir	-2836
iho	-2837
kot	-2838
nit	-2839
rab	-2840
tau	-2841
abne	-2842
avaa	-2843
heti	-2844
läpi	-2845
neen	-2846
sang	-2847
toni	-2848
armah	-2849
hanan	-2850
lasta	-2851
nimeä	-2852
saisi	-2853
sebul	-2854
uhrat	-2855
uksia	-2856
viera	-2857
ääntä	-2858
kieltä	-2859
käynyt	-2860
meistä	-2861
mullik	-2862
nimesi	-2863
tappaa	-2864
teuras	-2865
tuoksu	-2866
voiman	-2867
älkööt	-2868
kuolema	-2869
silmäsi	-2870
sisaren	-2871
tavaksi	-2872
tavalla	-2873
jäljellä	-2874
suurempi	-2875
tapahtuu	-2876
vastusta	-2877
yksikään	-2878
aaronille	-2879
kauhistus	-2880
sovituksen	-2881
kymmenentenä	-2882
ympärileikkaa	-2883
kis	-2884
ste	-2885
alue	-2886
ikin	-2887
löyt	-2888
maas	-2889
muka	-2890
pese	-2891
reun	-2892
kurit	-2893
milla	-2894
mordo	-2895
punut	-2896
riita	-2897
tenne	-2898
vaiva	-2899
veisu	-2900
jonkun	-2901
ksella	-2902
näistä	-2903
tappoi	-2904
tunnet	-2905
ydessä	-2906
herraan	-2907
hävittä	-2908
kenelle	-2909
pitäkää	-2910
autioksi	-2911
hedelmän	-2912
kunnassa	-2913
olisivat	-2914
jumalaton	-2915
uhrikukku	-2916
lähettivät	-2917
perhekunta	-2918
kum	-2919
lie	-2920
käyn	-2921
onna	-2922
tten	-2923
damas	-2924
kiviä	-2925
laitu	-2926
lakan	-2927
makaa	-2928
saira	-2929
sapat	-2930
tutki	-2931
kaikke	-2932
käämme	-2933
llista	-2934
otettu	-2935
teette	-2936
tuokaa	-2937
tuonel	-2938
voinut	-2939
ihmisiä	-2940
samalla	-2941
sinussa	-2942
tahansa	-2943
vihansa	-2944
sapattin	-2945
¦	-2946
▁	-2947
a	-2948
i	-2949
n	-2950
e	-2951
t	-2952
s	-2953
l	-2954
ä	-2955
k	-2956
u	-2957
o	-2958
m	-2959
h	-2960
j	-2961
𐋇	-2962
v	-2963
r	-2964
,	-2965
p	-2966
y	-2967
d	-2968
.	-2969
"	-2970
ö	-2971
:	-2972
;	-2973
b	-2974
g	-2975
f	-2976
?	-2977
`	-2978
-	-2979
!	-2980
1	-2981
[	-2982
]	-2983
3	-2984
2	-2985
4	-2986
9	-2987
0	-2988
5	-2989
(	-2990
)	-2991
8	-2992
6	-2993
7	-2994
z	-2995
/	-2996
