<pad>	0
</s>	0
<unk>	0
▁क	-0
▁स	-1
▁ह	-2
▁प	-3
▁म	-4
्र	-5
ार	-6
▁है	-7
ें	-8
▁ज	-9
▁अ	-10
▁के	-11
▁व	-12
या	-13
▁न	-14
▁ब	-15
▁उ	-16
▁त	-17
ों	-18
▁द	-19
▁ल	-20
▁औ	-21
ने	-22
▁और	-23
▁में	-24
र्	-25
▁र	-26
ता	-27
्य	-28
▁की	-29
▁कर	-30
ान	-31
▁कि	-32
▁प्र	-33
▁आ	-34
▁को	-35
िक	-36
▁से	-37
्त	-38
▁भ	-39
▁का	-40
ना	-41
▁इ	-42
▁ग	-43
ित	-44
▁(	-45
▁पर	-46
▁य	-47
ाल	-48
▁हो	-49
▁ए	-50
्व	-51
▁च	-52
ही	-53
न्	-54
▁लि	-55
▁श	-56
ते	-57
▁वि	-58
▁सं	-59
▁जा	-60
▁हैं	-61
▁इस	-62
▁उस	-63
के	-64
ला	-65
▁ख	-66
ोग	-67
था	-68
्ष	-69
ति	-70
ड़	-71
▁एक	-72
स्	-73
ुम	-74
िय	-75
▁लिए	-76
हा	-77
▁सम	-78
हीं	-79
्या	-80
ती	-81
▁फ	-82
्ट	-83
▁अप	-84
▁उन	-85
▁जो	-86
▁तो	-87
▁सा	-88
▁नहीं	-89
वा	-90
▁दे	-91
▁तुम	-92
▁नि	-93
▁हम	-94
रा	-95
से	-96
दा	-97
िया	-98
▁भी	-99
▁ने	-100
त्र	-101
का	-102
ल्	-103
सी	-104
▁रा	-105
▁जि	-106
▁या	-107
▁बा	-108
री	-109
कार	-110
गा	-111
नी	-112
क्ष	-113
▁किया	-114
ज़	-115
▁अन	-116
ास	-117
▁यह	-118
▁ही	-119
ले	-120
सा	-121
ष्ट	-122
की	-123
ेश	-124
ारा	-125
कर	-126
मा	-127
▁करने	-128
▁थ	-129
ंग	-130
▁अध	-131
▁मु	-132
त्	-133
▁लोग	-134
▁वह	-135
िर	-136
▁स्	-137
▁हु	-138
क्त	-139
▁कु	-140
कि	-141
▁दि	-142
▁कार	-143
▁रह	-144
ाम	-145
▁ड	-146
▁उप	-147
ारे	-148
ाह	-149
न्ह	-150
▁सक	-151
द्	-152
▁अपने	-153
ियों	-154
ारी	-155
▁वे	-156
मान	-157
▁था	-158
▁ले	-159
▁ऐ	-160
▁1	-161
िल	-162
स्त	-163
▁ध	-164
रे	-165
वि	-166
ूप	-167
्च	-168
गे	-169
▁पू	-170
▁सु	-171
्री	-172
▁भार	-173
भा	-174
▁जिस	-175
ंत	-176
▁आप	-177
में	-178
▁गया	-179
▁पह	-180
▁उन्ह	-181
ैं	-182
ओं	-183
ंध	-184
▁तथा	-185
▁वाल	-186
दि	-187
्ह	-188
▁कुछ	-189
ली	-190
▁छ	-191
▁किसी	-192
▁ख़	-193
▁द्व	-194
ीन	-195
▁तुम्ह	-196
ूल	-197
▁दो	-198
▁अनु	-199
▁स्व	-200
▁साथ	-201
ाप	-202
ुदा	-203
▁मे	-204
▁जब	-205
को	-206
देश	-207
▁घ	-208
म्	-209
▁रूप	-210
खा	-211
ोज	-212
▁चाह	-213
▁अधिक	-214
▁कोई	-215
▁निर्	-216
ंद	-217
ंड	-218
ाय	-219
ुर	-220
द्ध	-221
▁उनके	-222
▁विश	-223
गी	-224
▁ला	-225
ार्	-226
▁थे	-227
▁ट	-228
▁तक	-229
भी	-230
▁द्वारा	-231
न्द	-232
ढ़	-233
▁करें	-234
▁करते	-235
▁पा	-236
▁व्य	-237
▁राज	-238
▁प्रति	-239
गर	-240
▁लोगों	-241
▁भा	-242
ाना	-243
र्व	-244
▁बना	-245
▁दिया	-246
नों	-247
▁क्ष	-248
▁परि	-249
▁2	-250
क़	-251
▁वर्	-252
योग	-253
त्त	-254
▁जाए	-255
▁बह	-256
लाह	-257
ंत्र	-258
ुत	-259
▁कह	-260
▁भारत	-261
धार	-262
▁मा	-263
▁फिर	-264
जी	-265
ये	-266
ाद	-267
िए	-268
▁राष्ट	-269
▁तर	-270
▁अल्	-271
▁सि	-272
▁कार्य	-273
क्	-274
▁ये	-275
रण	-276
▁मैं	-277
्ञ	-278
ुन	-279
▁अव	-280
▁कहा	-281
क्र	-282
▁स्थ	-283
▁जाता	-284
बंध	-285
्छ	-286
▁रहे	-287
▁उसके	-288
क्ति	-289
▁क्या	-290
फ़	-291
▁"	-292
▁रख	-293
▁इन	-294
▁सब	-295
▁ई	-296
ूर	-297
ष्	-298
▁करना	-299
▁अल्लाह	-300
▁ज़	-301
ड़ा	-302
नि	-303
▁ख़ुदा	-304
▁अपनी	-305
▁थी	-306
द्य	-307
▁सर	-308
ंच	-309
ानी	-310
ब्	-311
जा	-312
न्न	-313
▁फ़	-314
▁मह	-315
च्छ	-316
त्य	-317
र्ण	-318
▁जी	-319
स्थ	-320
▁बात	-321
▁हुए	-322
मी	-323
्यों	-324
दी	-325
पर	-326
▁सू	-327
▁विक	-328
▁उन्हें	-329
▁करता	-330
▁सी	-331
्रे	-332
▁होता	-333
िन	-334
वाल	-335
श्च	-336
▁क़	-337
ेत्र	-338
▁ओ	-339
ोंने	-340
▁रहा	-341
ड़े	-342
▁सकता	-343
कृ	-344
िका	-345
▁उसे	-346
ाइ	-347
ाप्त	-348
चार	-349
▁हि	-350
▁दी	-351
▁बी	-352
र्थ	-353
▁जान	-354
बर	-355
च्च	-356
▁गु	-357
मे	-358
वर्	-359
ूस	-360
▁क्षेत्र	-361
▁मान	-362
▁देख	-363
टा	-364
▁बहुत	-365
▁समय	-366
▁राष्ट्र	-367
ड़ी	-368
ज्ञ	-369
▁मि	-370
दान	-371
पू	-372
हर	-373
▁पु	-374
▁जै	-375
र्म	-376
▁बाद	-377
भि	-378
ोल	-379
▁पै	-380
शन	-381
वन	-382
▁आय	-383
ियम	-384
कों	-385
टी	-386
पति	-387
वे	-388
▁तरह	-389
▁सह	-390
▁बे	-391
▁वाले	-392
▁उन्होंने	-393
▁हुआ	-394
▁काम	-395
▁पास	-396
वी	-397
▁देश	-398
▁पहले	-399
▁अंत	-400
ोक	-401
प्र	-402
▁हमने	-403
ेष	-404
चना	-405
▁उत्	-406
स्था	-407
्रीय	-408
▁ना	-409
▁होगा	-410
▁जिन	-411
ुल	-412
▁उनकी	-413
क्षा	-414
▁यदि	-415
▁तुम्हारे	-416
ौर	-417
▁गई	-418
झे	-419
▁बि	-420
▁गए	-421
ख़	-422
▁प्राप्त	-423
्रा	-424
धान	-425
▁सरकार	-426
▁अन्य	-427
▁संबंध	-428
▁दिन	-429
▁होने	-430
▁ओर	-431
▁हू	-432
न्त	-433
▁वर्ष	-434
▁पी	-435
▁सम्	-436
धि	-437
यों	-438
▁सभी	-439
▁कम	-440
एँ	-441
▁छो	-442
▁विश्व	-443
हां	-444
▁चु	-445
▁19	-446
▁ऐसे	-447
▁करो	-448
िक्ष	-449
00	-450
▁हमारे	-451
गत	-452
लि	-453
▁राष्ट्रपति	-454
स्ता	-455
करण	-456
वं	-457
▁नाम	-458
▁प्रा	-459
दार	-460
▁झ	-461
▁निक	-462
श्य	-463
▁प्रकार	-464
▁बद	-465
ंक	-466
▁सकते	-467
एं	-468
टे	-469
▁साम	-470
▁ता	-471
भाव	-472
▁चाहिए	-473
सर	-474
िश	-475
ीय	-476
तीय	-477
▁s	-478
▁मिल	-479
▁इसके	-480
ग्र	-481
▁बु	-482
▁ऊ	-483
तर	-484
▁बढ़	-485
स्ट	-486
वर	-487
्स	-488
▁किए	-489
िप	-490
▁उसकी	-491
चा	-492
▁हर	-493
त्व	-494
▁जाने	-495
▁होती	-496
बा	-497
हाँ	-498
ंप	-499
जन	-500
▁अच्छ	-501
शा	-502
ोजना	-503
तिक	-504
ूम	-505
दर्	-506
▁ची	-507
▁नी	-508
▁'	-509
▁दूस	-510
▁रस	-511
माण	-512
▁ईमान	-513
रो	-514
▁ठ	-515
शी	-516
▁अगर	-517
▁करे	-518
पूर्ण	-519
यी	-520
बी	-521
मत	-522
िति	-523
▁ऐसा	-524
▁एवं	-525
▁हों	-526
गार	-527
ास्त	-528
▁राज्य	-529
द्योग	-530
▁समझ	-531
▁पहु	-532
▁कारण	-533
▁विकास	-534
सार	-535
पाद	-536
▁अब	-537
▁व्यक्ति	-538
▁लग	-539
▁भारतीय	-540
ची	-541
ात	-542
▁कृ	-543
्यू	-544
▁मो	-545
ेंगे	-546
ध्य	-547
▁मुझे	-548
वल	-549
त्म	-550
▁रसूल	-551
▁हुई	-552
ाली	-553
▁(_	-554
▁हा	-555
ुक्त	-556
ाइल	-557
द्र	-558
▁स्त	-559
वार	-560
टर	-561
ेज	-562
▁जन	-563
किन	-564
▁पूर्व	-565
धा	-566
यन	-567
▁व्या	-568
01	-569
ष्ठ	-570
ेल	-571
▁लगा	-572
ज़ा	-573
मु	-574
▁मूल	-575
तन	-576
▁दु	-577
▁क्यों	-578
▁उसने	-579
पी	-580
▁लेकिन	-581
▁दिखा	-582
▁लिया	-583
▁बन	-584
क्रम	-585
▁वा	-586
तः	-587
▁दोनों	-588
▁जाती	-589
on	-590
िम	-591
▁प्रश	-592
▁तुम्हें	-593
लों	-594
▁मौ	-595
▁सद	-596
▁क्र	-597
दे	-598
ोर	-599
▁वै	-600
लय	-601
▁अस	-602
▁अपना	-603
ाला	-604
▁उपयोग	-605
▁ऐसी	-606
वाद	-607
लग	-608
▁खा	-609
्ड	-610
▁आव	-611
▁जीवन	-612
▁विशेष	-613
▁चल	-614
▁होते	-615
▁3	-616
▁अभि	-617
हाय	-618
चे	-619
▁à	-620
▁ग्र	-621
▁प्रदान	-622
िंग	-623
धिक	-624
तों	-625
▁बारे	-626
▁रही	-627
▁बीच	-628
▁ढ	-629
▁बै	-630
व्य	-631
▁रु	-632
▁वाला	-633
▁मुख	-634
▁मन	-635
कारी	-636
▁बार	-637
फल	-638
▁भाग	-639
▁यु	-640
▁उत्त	-641
।"	-642
▁समा	-643
चित	-644
काश	-645
▁खु	-646
▁श्री	-647
▁शिक्ष	-648
me	-649
▁निय	-650
▁जैसे	-651
ेक	-652
▁सहाय	-653
▁वास्त	-654
▁स्था	-655
▁उसका	-656
ंभ	-657
▁ऑ	-658
तना	-659
▁आधार	-660
ठा	-661
ख्या	-662
डी	-663
िस	-664
वेश	-665
▁आज	-666
▁सेवा	-667
ti	-668
षण	-669
िला	-670
▁कै	-671
▁न्या	-672
कता	-673
▁जाएगा	-674
▁देने	-675
्ल	-676
हित	-677
षा	-678
▁केवल	-679
▁चीज़	-680
..	-681
धन	-682
▁उनका	-683
▁दृ	-684
▁गा	-685
▁माल	-686
ल्प	-687
▁हमें	-688
▁प्रयोग	-689
▁मेरे	-690
ून	-691
▁रब	-692
ग़	-693
ार्थ	-694
▁आवश्य	-695
▁सो	-696
▁जिसमें	-697
ूद	-698
ज्ञान	-699
क्षण	-700
▁हूँ	-701
▁दर	-702
▁बो	-703
▁वही	-704
▁विचार	-705
▁सर्व	-706
रिक	-707
▁निश्च	-708
▁मार्	-709
▁स्थान	-710
ियां	-711
णी	-712
▁ताकि	-713
र्य	-714
▁स्प	-715
▁पैदा	-716
ित्र	-717
▁मै	-718
पित	-719
ुट	-720
▁वाली	-721
▁प्रत्य	-722
्न	-723
न्तु	-724
▁n	-725
▁सबसे	-726
▁इसे	-727
in	-728
▁बड़ा	-729
▁उसी	-730
िता	-731
रों	-732
▁जाना	-733
ंस	-734
त्ता	-735
▁निर्धार	-736
िनियम	-737
यास	-738
▁माम	-739
▁हमारी	-740
तु	-741
▁अथ	-742
▁विष	-743
▁पार	-744
लब्	-745
▁अधिनियम	-746
र्क	-747
र्ष	-748
▁रो	-749
▁धारा	-750
हार	-751
▁देता	-752
▁तब	-753
▁जाते	-754
▁अधिकार	-755
▁शु	-756
▁इसमें	-757
▁दा	-758
ेर	-759
▁राष्ट्रीय	-760
▁आर	-761
लिए	-762
ूत	-763
▁कंप	-764
भाग	-765
▁आस	-766
▁डि	-767
▁उपलब्	-768
▁योजना	-769
▁उत्पाद	-770
ियाँ	-771
ब्द	-772
पा	-773
▁जिसे	-774
▁व्यव	-775
ुनिया	-776
▁बस	-777
▁लिख	-778
▁अथवा	-779
द्योगिक	-780
an	-781
▁हे	-782
बे	-783
▁संदेश	-784
▁पश्च	-785
▁फ़ाइल	-786
▁सामान	-787
कृत	-788
ूह	-789
ताओं	-790
▁परवर	-791
वरण	-792
▁बल्	-793
▁शाम	-794
▁उससे	-795
्यान	-796
ंज	-797
दिगार	-798
मिक	-799
▁शुर	-800
▁सूचना	-801
▁क्योंकि	-802
▁दर्	-803
वान	-804
▁उनसे	-805
सं	-806
▁परवरदिगार	-807
भव	-808
क्रिया	-809
▁मार्ग	-810
▁ज्ञ	-811
▁पुर	-812
काल	-813
▁महत्व	-814
िट	-815
▁तै	-816
▁स्ट	-817
त्या	-818
tion	-819
श्व	-820
▁सकती	-821
▁लो	-822
▁बैं	-823
त्रा	-824
▁दौर	-825
धी	-826
▁संप	-827
▁मंत्र	-828
▁डाल	-829
▁शिक्षा	-830
डर	-831
▁करती	-832
▁अर्	-833
▁पहुँ	-834
▁व्याप	-835
यार	-836
▁उपलब्ध	-837
ुक	-838
▁मू	-839
ट्ट	-840
▁वृ	-841
कृति	-842
▁दूसरे	-843
▁मद	-844
▁स्थिति	-845
▁डा	-846
भिन्न	-847
ुष	-848
▁लोक	-849
▁योग	-850
▁इसलिए	-851
▁कें	-852
ंति	-853
▁जर	-854
ंजी	-855
▁संग	-856
▁बच्च	-857
▁पुन	-858
▁जिन्ह	-859
▁सहायता	-860
ोट	-861
युक्त	-862
▁छोड़	-863
नेवाल	-864
▁प्रभाव	-865
er	-866
▁उच्च	-867
▁होना	-868
ेद	-869
ंश	-870
तान	-871
▁बड़ी	-872
▁हाथ	-873
▁महा	-874
ष्टि	-875
▁जु	-876
▁वित	-877
▁उद्	-878
▁उनमें	-879
न्द्र	-880
▁अर्थ	-881
ेट	-882
▁हूं	-883
▁होगी	-884
इन	-885
क्ट	-886
ताब	-887
एस	-888
▁कभी	-889
स्तु	-890
ोप	-891
▁मेरी	-892
वाह	-893
...	-894
यं	-895
▁शामिल	-896
▁कई	-897
▁अधीन	-898
▁सके	-899
▁प्रण	-900
▁विभिन्न	-901
▁स्वा	-902
▁आया	-903
ूट	-904
र्ट	-905
्यालय	-906
▁अति	-907
ame	-908
ोह	-909
▁बल्कि	-910
ंट	-911
▁बता	-912
▁अंतर	-913
स्थान	-914
▁इससे	-915
▁दौरान	-916
▁हाल	-917
▁लिये	-918
हत	-919
▁कहते	-920
▁करके	-921
▁5	-922
▁सदस	-923
▁4	-924
तम	-925
▁किस	-926
त्मक	-927
▁आगे	-928
▁सुर	-929
▁यहाँ	-930
▁अनुस	-931
▁ब्र	-932
रूप	-933
ण्ड	-934
मुख	-935
ेम	-936
र्इ	-937
▁अनुसार	-938
▁पता	-939
कट	-940
▁दूर	-941
▁भाषा	-942
्ला	-943
▁बैठ	-944
▁कर्म	-945
▁अवसर	-946
▁जहां	-947
सल	-948
▁इसी	-949
▁भूम	-950
▁अंग	-951
▁विषय	-952
द्धि	-953
▁अभ	-954
ेह	-955
▁होंगे	-956
▁सूची	-957
▁शी	-958
▁तरफ	-959
▁ग़	-960
ासन	-961
ोजन	-962
ैन	-963
स्व	-964
▁उनको	-965
▁मुख्य	-966
▁t	-967
▁यही	-968
▁पड़	-969
▁(1	-970
▁पि	-971
दन	-972
फी	-973
▁अग	-974
शि	-975
▁याद	-976
ग्रह	-977
्म	-978
▁आई	-979
▁परिवर्	-980
▁लाभ	-981
▁सामने	-982
▁इसका	-983
pr	-984
यर	-985
जे	-986
▁शै	-987
▁जिसके	-988
मीन	-989
▁स्वी	-990
▁१	-991
▁सामान्य	-992
▁उठा	-993
▁प्रक्रिया	-994
▁पूरा	-995
ित्व	-996
और	-997
▁अनुम	-998
▁स्पष्ट	-999
▁करेगा	-1000
▁पूर्ण	-1001
▁देते	-1002
लो	-1003
कर्	-1004
▁चि	-1005
सम	-1006
▁शा	-1007
▁201	-1008
▁उसमें	-1009
▁200	-1010
▁‘	-1011
▁संबंधित	-1012
▁तैयार	-1013
▁ऋ	-1014
▁संख्या	-1015
ियो	-1016
▁पद	-1017
▁उत्तर	-1018
प्त	-1019
त्ति	-1020
▁चुन	-1021
▁संस्	-1022
▁घर	-1023
▁बाहर	-1024
▁जाएँ	-1025
▁बदल	-1026
es	-1027
▁अलग	-1028
▁जल	-1029
▁वास्तव	-1030
ंतु	-1031
▁निर्माण	-1032
जार	-1033
▁लगे	-1034
▁चाहते	-1035
▁बढ़ा	-1036
ज्य	-1037
▁प्रत्येक	-1038
सि	-1039
टना	-1040
हरा	-1041
▁भेज	-1042
लेख	-1043
तंत्र	-1044
्श	-1045
▁कान	-1046
▁आपको	-1047
▁पृ	-1048
▁कौ	-1049
ूँ	-1050
▁प्रौ	-1051
िये	-1052
ंचा	-1053
▁पत्र	-1054
ीक	-1055
▁त्र	-1056
▁नई	-1057
वास	-1058
हास	-1059
▁सुन	-1060
गम	-1061
▁रंग	-1062
्यादा	-1063
▁आद	-1064
▁पढ़	-1065
▁भर	-1066
▁अध्य	-1067
▁बनाने	-1068
▁तीन	-1069
▁अने	-1070
▁शब्द	-1071
पि	-1072
संद	-1073
र्या	-1074
▁बड़े	-1075
▁संर	-1076
▁अच्छा	-1077
ालन	-1078
▁पुस्त	-1079
▁जारी	-1080
आई	-1081
▁मौज	-1082
▁गुण	-1083
दर्श	-1084
ध्यम	-1085
छे	-1086
ोल्	-1087
▁कार्यक्रम	-1088
▁प्रार	-1089
▁नियम	-1090
▁किताब	-1091
ैर	-1092
▁पूरी	-1093
▁शुरू	-1094
▁शि	-1095
इट	-1096
▁प्रकाश	-1097
▁स्वयं	-1098
▁अत्य	-1099
▁तुम्हारी	-1100
▁आदि	-1101
▁शक्ति	-1102
बार	-1103
▁आपके	-1104
▁नीति	-1105
मंत्र	-1106
▁फै	-1107
▁प्रयास	-1108
al	-1109
▁प्रौद्योगिक	-1110
▁रखा	-1111
हम	-1112
▁रे	-1113
▁संस्था	-1114
ालय	-1115
दाय	-1116
▁पानी	-1117
▁चार	-1118
▁कॉ	-1119
ंब	-1120
टक	-1121
धे	-1122
▁ऊपर	-1123
ज़ाब	-1124
▁निश्चय	-1125
▁गये	-1126
ियोजना	-1127
टन	-1128
▁निर्धारित	-1129
पत्र	-1130
▁वस्तु	-1131
विद	-1132
▁मदद	-1133
शत	-1134
▁खुदा	-1135
म्प	-1136
▁ते	-1137
▁सौ	-1138
▁कल	-1139
▁ज्ञान	-1140
भार	-1141
▁परिण	-1142
हन	-1143
▁अनेक	-1144
▁परियोजना	-1145
▁मी	-1146
▁ली	-1147
▁तू	-1148
▁a	-1149
रती	-1150
स्थित	-1151
▁हेतु	-1152
▁मार	-1153
▁चाहता	-1154
ूं	-1155
▁सिवा	-1156
क्षित	-1157
▁जग	-1158
अप	-1159
▁गिर	-1160
▁दुनिया	-1161
ूरी	-1162
▁प्रधान	-1163
ेशक	-1164
्रो	-1165
▁वी	-1166
▁करा	-1167
▁धर्म	-1168
▁d	-1169
▁न्याया	-1170
▁गति	-1171
▁रुप	-1172
▁चला	-1173
▁बनाया	-1174
▁गयी	-1175
▁संघ	-1176
बन्	-1177
▁गो	-1178
▁महत्वपूर्ण	-1179
ृत	-1180
बाद	-1181
▁बैंक	-1182
▁उद्योग	-1183
▁स्तर	-1184
शील	-1185
▁करनेवाल	-1186
▁बन्द	-1187
▁आए	-1188
रु	-1189
र्ड	-1190
षि	-1191
▁वित्त	-1192
▁तुम्हारा	-1193
▁“	-1194
▁&	-1195
▁बेह	-1196
▁अन्त	-1197
▁जोड़	-1198
▁श्रे	-1199
▁स्क	-1200
पन	-1201
▁डर	-1202
▁प्रो	-1203
▁जिसने	-1204
▁डे	-1205
▁संस्थान	-1206
▁ध्यान	-1207
▁परिणाम	-1208
▁ज़र	-1209
▁भवन	-1210
▁करेंगे	-1211
▁मत	-1212
▁प्रमाण	-1213
▁विदेश	-1214
नीय	-1215
▁यहां	-1216
▁#	-1217
la	-1218
मित	-1219
▁देना	-1220
र्थिक	-1221
it	-1222
▁मैंने	-1223
▁बेशक	-1224
▁ठीक	-1225
▁बिना	-1226
▁देखा	-1227
▁समूह	-1228
तिहास	-1229
दिष्ट	-1230
लन	-1231
▁प्रबंध	-1232
▁नीचे	-1233
▁व्यक्त	-1234
▁प्रतिशत	-1235
निर्	-1236
ोन	-1237
ल्क	-1238
ज़ी	-1239
▁पो	-1240
▁अंतर्	-1241
▁जमा	-1242
▁क्षेत्रों	-1243
▁आवश्यकता	-1244
▁समाज	-1245
▁प्रमुख	-1246
⁄4	-1247
▁शरी	-1248
▁प्रौद्योगिकी	-1249
द्व	-1250
ोल्डर	-1251
ंख	-1252
▁सफल	-1253
▁लेख	-1254
▁बर	-1255
or	-1256
▁ज्यादा	-1257
श्	-1258
▁जिसका	-1259
ामी	-1260
▁लेकर	-1261
▁झु	-1262
▁प्रय	-1263
▁हिस्	-1264
वादी	-1265
▁पीछे	-1266
जिक	-1267
गू	-1268
▁माध्यम	-1269
▁किन्तु	-1270
विधा	-1271
▁पाठ	-1272
स्या	-1273
इस	-1274
▁जबकि	-1275
▁ज़मीन	-1276
▁मगर	-1277
क्स	-1278
भग	-1279
▁सीमा	-1280
▁सार	-1281
▁विश्वास	-1282
ख्त	-1283
▁समर्थ	-1284
म्बर	-1285
▁6	-1286
▁धरती	-1287
धारा	-1288
▁समान	-1289
▁लौ	-1290
स्प	-1291
▁दिए	-1292
▁मज	-1293
ल्म	-1294
▁कंपनी	-1295
दारी	-1296
वृ	-1297
▁ती	-1298
▁विस्त	-1299
▁अतः	-1300
▁होकर	-1301
▁खंड	-1302
▁केंद्र	-1303
▁अमे	-1304
▁आर्थिक	-1305
शो	-1306
ल्ली	-1307
▁पिछ	-1308
र्ति	-1309
▁कठ	-1310
▁विंड	-1311
▁कृषि	-1312
ंह	-1313
▁मूल्य	-1314
्यता	-1315
▁बरा	-1316
स्क	-1317
▁अम	-1318
▁उद्देश	-1319
▁अज़ाब	-1320
▁इसकी	-1321
▁आदेश	-1322
▁भे	-1323
▁चाहे	-1324
ic	-1325
ियन	-1326
▁खोल	-1327
▁कला	-1328
▁लड़	-1329
▁सुधार	-1330
उस	-1331
▁इनकार	-1332
▁वाय	-1333
गें	-1334
▁रखते	-1335
▁रोग	-1336
201	-1337
▁जनता	-1338
मता	-1339
▁तुमसे	-1340
▁जानकारी	-1341
▁भाव	-1342
▁निम्	-1343
▁श्र	-1344
▁विद्य	-1345
▁उल्	-1346
▁लगभग	-1347
विध	-1348
▁पर्या	-1349
▁बदला	-1350
▁आने	-1351
▁स्वीकार	-1352
▁जैसा	-1353
▁छा	-1354
ानों	-1355
▁अभी	-1356
▁अवधि	-1357
▁सारे	-1358
▁हिन्द	-1359
णा	-1360
▁काफी	-1361
ठन	-1362
बद्ध	-1363
▁चौ	-1364
▁रोक	-1365
44	-1366
्ले	-1367
▁समस्या	-1368
ेशन	-1369
▁निश	-1370
▁लागू	-1371
▁नियंत्र	-1372
र्फ	-1373
▁निकाल	-1374
▁मेरा	-1375
ॉल	-1376
▁साल	-1377
▁जानता	-1378
▁जगह	-1379
▁सहयोग	-1380
▁मिला	-1381
▁गण	-1382
र्च	-1383
▁वहां	-1384
ee	-1385
▁मंद	-1386
माजिक	-1387
▁पक्ष	-1388
▁तरी	-1389
▁गुना	-1390
▁सुविधा	-1391
▁अच्छे	-1392
▁k	-1393
▁विश्वविद	-1394
▁मानव	-1395
▁मध्य	-1396
▁वक्त	-1397
ूब	-1398
▁विभाग	-1399
▁क़ौ	-1400
▁ऋण	-1401
▁धन	-1402
उन	-1403
▁खोज	-1404
▁परिवर्तन	-1405
आर	-1406
▁विज्ञान	-1407
▁लक्ष	-1408
▁मामले	-1409
▁अच्छी	-1410
▁कोश	-1411
तें	-1412
▁क्रिया	-1413
▁फ़ोल्डर	-1414
▁सामाजिक	-1415
पुर	-1416
▁यू	-1417
चान	-1418
▁निकल	-1419
▁दें	-1420
▁जाएगी	-1421
▁प्रणाली	-1422
▁व्यापार	-1423
▁स्थापित	-1424
हरी	-1425
▁समाप्त	-1426
▁आम	-1427
▁अतिरिक	-1428
ृत्य	-1429
▁कुल	-1430
▁पं	-1431
डियो	-1432
▁इं	-1433
▁चयन	-1434
▁सभा	-1435
▁निम्न	-1436
▁आवश्यक	-1437
र्द	-1438
▁दक्ष	-1439
पाल	-1440
▁पहुंच	-1441
ht	-1442
▁दिल	-1443
▁फर	-1444
स्तुत	-1445
मंत्री	-1446
▁भु	-1447
▁कवि	-1448
¤3	-1449
¤3⁄4	-1450
▁घो	-1451
▁7	-1452
▁C	-1453
▁आध	-1454
▁आग	-1455
द्द	-1456
▁सिद्ध	-1457
▁वर्ग	-1458
▁यक़	-1459
▁जीव	-1460
मार	-1461
▁कहीं	-1462
▁जाओ	-1463
▁वेब	-1464
दर्शन	-1465
▁पूछ	-1466
तनी	-1467
ज़र	-1468
ंव	-1469
▁सुरक्षा	-1470
▁टे	-1471
▁उसको	-1472
▁जानते	-1473
▁बराबर	-1474
जि	-1475
▁”	-1476
न्म	-1477
चन	-1478
लत	-1479
राम	-1480
▁विवरण	-1481
तियों	-1482
दम	-1483
▁प्रती	-1484
चि	-1485
स्तान	-1486
▁कोर्इ	-1487
ान्त	-1488
हरण	-1489
जों	-1490
डा	-1491
ंदर	-1492
▁मर	-1493
▁जिससे	-1494
▁चे	-1495
▁18	-1496
▁स्थित	-1497
कु	-1498
▁रहने	-1499
र्स	-1500
▁टी	-1501
पना	-1502
िश्त	-1503
ंधान	-1504
एम	-1505
▁:	-1506
▁निर्ण	-1507
44;	-1508
▁#44;	-1509
धित	-1510
▁डी	-1511
▁अतिरिक्त	-1512
▁पे	-1513
बल	-1514
▁उदा	-1515
▁महिला	-1516
फा	-1517
▁रहते	-1518
▁देशों	-1519
▁क़ौम	-1520
बू	-1521
प्	-1522
▁अल	-1523
▁विन	-1524
▁नया	-1525
op	-1526
▁8	-1527
ीकरण	-1528
▁आकार	-1529
जर	-1530
▁नए	-1531
भर	-1532
▁चुका	-1533
▁सन्	-1534
▁चुके	-1535
▁सच्च	-1536
▁अंतर्गत	-1537
▁तुमने	-1538
मि	-1539
ेंट	-1540
▁कहने	-1541
कृतिक	-1542
▁लेने	-1543
▁कर्	-1544
▁संवि	-1545
डे	-1546
पन्न	-1547
▁पड़े	-1548
▁राम	-1549
वाई	-1550
▁सही	-1551
▁हिंद	-1552
▁उत्पादन	-1553
¥	-1554
▁संस	-1555
ष्ट्रीय	-1556
▁लाए	-1557
▁रखने	-1558
ेशा	-1559
▁जाये	-1560
▁अनुसंधान	-1561
ab	-1562
▁मंदिर	-1563
▁आकाश	-1564
▁ज़ि	-1565
वेदन	-1566
▁एन	-1567
▁तु	-1568
क्ता	-1569
▁यातना	-1570
▁0	-1571
▁अप्र	-1572
▁खेल	-1573
▁त्रुट	-1574
▁इन्	-1575
तार	-1576
ट्टी	-1577
▁नही	-1578
सित	-1579
िष्ट	-1580
बो	-1581
ग्री	-1582
रोध	-1583
तमान	-1584
▁उठ	-1585
पूर्व	-1586
▁बुरा	-1587
ंधी	-1588
▁%	-1589
▁उद्देश्य	-1590
ष्ण	-1591
en	-1592
▁महान	-1593
▁राशि	-1594
▁यात्रा	-1595
▁व्यवस्था	-1596
▁।	-1597
▁सां	-1598
▁माँ	-1599
क्षम	-1600
▁क्षमता	-1601
▁वालों	-1602
▁निवेश	-1603
▁S	-1604
▁बहु	-1605
▁भू	-1606
▁प्रदेश	-1607
▁पत्	-1608
▁पृष्ठ	-1609
▁निस्	-1610
हित्य	-1611
▁विधि	-1612
▁बचा	-1613
▁बाल	-1614
ठला	-1615
ज्	-1616
स्थ्य	-1617
▁परी	-1618
▁उपधारा	-1619
▁जिन्हें	-1620
▁-	-1621
▁एस	-1622
कर्ता	-1623
▁सदस्य	-1624
▁निष्	-1625
▁परन्तु	-1626
▁संपर्क	-1627
▁अधिकारी	-1628
▁''	-1629
▁प्रारंभ	-1630
ot	-1631
▁रि	-1632
▁मनुष	-1633
▁समु	-1634
ूरत	-1635
▁राह	-1636
▁मूसा	-1637
▁वर्षों	-1638
▁वर्तमान	-1639
क्म	-1640
ोस	-1641
▁बनाए	-1642
ोर्ट	-1643
त्मा	-1644
▁विशिष्ट	-1645
षित	-1646
▁युद्ध	-1647
श्र	-1648
▁इतिहास	-1649
▁सिर्फ	-1650
▁वाप	-1651
▁परिवार	-1652
ख़िर	-1653
▁स्वतंत्र	-1654
▁थीं	-1655
▁सत्य	-1656
▁आरंभ	-1657
यान	-1658
▁निर्देश	-1659
▁अर	-1660
▁कौन	-1661
दर	-1662
▁प्रस्तुत	-1663
धारण	-1664
▁वर्ण	-1665
▁दूसरी	-1666
▁तुमको	-1667
▁त्रुटि	-1668
▁न्याय	-1669
¤	-1670
¤°	-1671
▁_	-1672
▁न्यायालय	-1673
▁सका	-1674
gm	-1675
▁<	-1676
▁झुठला	-1677
▁वहाँ	-1678
▁साहित्य	-1679
ांत	-1680
थम	-1681
▁२	-1682
मिल	-1683
▁पेश	-1684
गल	-1685
▁हमारा	-1686
▁दृष्टि	-1687
जो	-1688
भू	-1689
गु	-1690
▁प्रशिक्ष	-1691
▁स्वास्थ्य	-1692
▁दिल्ली	-1693
रिका	-1694
▁चा	-1695
सलमान	-1696
▁हुक्म	-1697
जित	-1698
▁आन	-1699
▁kgm	-1700
▁शहर	-1701
▁शरीर	-1702
तक	-1703
le	-1704
जरा	-1705
▁शे	-1706
▁अपे	-1707
▁प्रधानमंत्री	-1708
ानीय	-1709
▁देगा	-1710
ar	-1711
▁थो	-1712
▁10	-1713
▁लाख	-1714
▁देखते	-1715
▁रात	-1716
▁वास्ते	-1717
▁दक्षि	-1718
▁बच्चों	-1719
▁जिनके	-1720
▁बेहतर	-1721
▁शिक	-1722
▁विश्वविद्यालय	-1723
▁चित्र	-1724
कम	-1725
▁तौर	-1726
ोजित	-1727
▁श्रेणी	-1728
▁आसमान	-1729
खित	-1730
नाथ	-1731
झा	-1732
▁निर	-1733
▁कैसे	-1734
लू	-1735
▁अंग्रे	-1736
ran	-1737
ंतिम	-1738
रि	-1739
at	-1740
निश्च	-1741
▁घटना	-1742
बत	-1743
▁अमेरिका	-1744
▁(2	-1745
Name	-1746
क्षर	-1747
्रिय	-1748
▁सम्बन्	-1749
▁एक्स	-1750
तने	-1751
▁संसा	-1752
वाब	-1753
▁भि	-1754
ैस	-1755
▁शीर्ष	-1756
▁हमेशा	-1757
▁निर्णय	-1758
ुओं	-1759
▁विकसित	-1760
▁जिन्होंने	-1761
▁स्थानीय	-1762
लाई	-1763
▁सेट	-1764
-1	-1765
▁तहत	-1766
तो	-1767
संदेह	-1768
▁भूमि	-1769
▁उदाहरण	-1770
▁name	-1771
▁नौ	-1772
),	-1773
▁काल	-1774
ड़ों	-1775
▁प्रस्ता	-1776
▁रू	-1777
▁प्रस	-1778
ज्ञा	-1779
▁बंद	-1780
▁मिले	-1781
शिया	-1782
▁हाला	-1783
▁सर्	-1784
▁दया	-1785
▁हक़	-1786
रीब	-1787
▁अला	-1788
▁निर्धारण	-1789
▁विदेशी	-1790
शल	-1791
▁अनि	-1792
▁भेजा	-1793
▁बंग	-1794
मन	-1795
गति	-1796
▁प्रेम	-1797
ज़िल	-1798
▁दस्ता	-1799
▁अंतिम	-1800
▁बल	-1801
ष्य	-1802
▁मौजूद	-1803
▁A	-1804
▁चिक	-1805
▁अनुभव	-1806
्याल	-1807
र्जा	-1808
साय	-1809
▁उन्	-1810
ंगा	-1811
▁पक	-1812
▁परंतु	-1813
▁छोटे	-1814
▁प्रस्ताव	-1815
▁रचना	-1816
▁सार्व	-1817
▁निश्चित	-1818
वासी	-1819
▁प्रवेश	-1820
▁संच	-1821
000	-1822
▁लगता	-1823
▁भूमिका	-1824
च्छा	-1825
▁मांग	-1826
▁दिशा	-1827
▁प्राधिक	-1828
दू	-1829
फिर	-1830
▁जहाँ	-1831
राही	-1832
▁किये	-1833
▁गांधी	-1834
▁तत्व	-1835
▁इस्ला	-1836
सू	-1837
▁लं	-1838
ोगे	-1839
¥	-1840
▁बोल	-1841
▁रिप	-1842
▁अफ	-1843
ील	-1844
▁पहचान	-1845
▁रहता	-1846
▁निस्संदेह	-1847
▁भाई	-1848
▁सक्रिय	-1849
▁अनुमति	-1850
▁वाद	-1851
्रेस	-1852
यां	-1853
▁पाया	-1854
▁संयुक्त	-1855
▁इंड	-1856
▁छवि	-1857
▁जन्म	-1858
दारों	-1859
▁दुर्	-1860
▁जिसकी	-1861
ैंड	-1862
ेंस	-1863
▁नव	-1864
यात	-1865
ोक्ता	-1866
▁इस्त	-1867
▁आधारित	-1868
▁घा	-1869
▁माना	-1870
▁जह	-1871
▁विस्तार	-1872
हे	-1873
▁9	-1874
▁c	-1875
▁वार	-1876
▁नागर	-1877
▁राजनी	-1878
▁पहुँच	-1879
▁दस्तावे	-1880
▁जल्	-1881
▁कृप	-1882
▁नियंत्रण	-1883
▁लक्ष्य	-1884
▁विकल्प	-1885
▁संबंधी	-1886
▁निर्दिष्ट	-1887
लिखित	-1888
▁यक़ीन	-1889
िकों	-1890
स्म	-1891
एल	-1892
▁वित्तीय	-1893
▁संक	-1894
दय	-1895
▁संभव	-1896
ार्ड	-1897
▁हिस्सा	-1898
option	-1899
▁बाजार	-1900
▁मित्र	-1901
▁स्थापना	-1902
▁गर्	-1903
वरी	-1904
▁मंत्रालय	-1905
▁कमी	-1906
ुनिक	-1907
▁जांच	-1908
मू	-1909
जह	-1910
▁15	-1911
वस्था	-1912
्राम	-1913
वीं	-1914
ृत्यु	-1915
▁अग्र	-1916
▁सहायक	-1917
▁मनुष्य	-1918
▁तकनी	-1919
ंतर	-1920
्टी	-1921
▁सोच	-1922
▁पहुँचा	-1923
न्ट	-1924
▁I	-1925
▁पुकार	-1926
▁बच	-1927
▁डाक	-1928
▁संविधान	-1929
चल	-1930
is	-1931
▁गुम	-1932
साइट	-1933
▁प्रथम	-1934
▁सिंह	-1935
▁प्रगति	-1936
▁झू	-1937
सान	-1938
▁वृद्धि	-1939
ंगे	-1940
म्मे	-1941
▁फल	-1942
▁लेते	-1943
▁तंत्र	-1944
▁अधि	-1945
▁प्रबंधन	-1946
▁नाज़िल	-1947
गि	-1948
.201	-1949
▁20	-1950
▁समिति	-1951
ंसा	-1952
▁दिनों	-1953
घा	-1954
▁पहली	-1955
▁केन्द्र	-1956
▁अलावा	-1957
गतान	-1958
▁उपकरण	-1959
निश्चित	-1960
▁पिछले	-1961
▁ट्र	-1962
rans	-1963
यामत	-1964
▁मृत्यु	-1965
र्श	-1966
▁मॉ	-1967
ानि	-1968
▁शो	-1969
स्थिति	-1970
यु	-1971
▁सहित	-1972
▁लें	-1973
▁जाय	-1974
▁रखता	-1975
र्जी	-1976
▁कृपया	-1977
▁उत्पन्न	-1978
▁गुनाह	-1979
▁सेना	-1980
▁समर्थन	-1981
पट	-1982
▁भीतर	-1983
▁खाता	-1984
ँच	-1985
▁न्यू	-1986
▁विंडो	-1987
▁पुस्तक	-1988
न्यास	-1989
▁मही	-1990
▁पूंजी	-1991
पण	-1992
द्रा	-1993
▁अध्ययन	-1994
▁पुनः	-1995
▁हटा	-1996
▁प्रश्न	-1997
▁मंत्री	-1998
शाली	-1999
▁एम	-2000
▁देव	-2001
▁खे	-2002
ransla	-2003
ज़े	-2004
▁12	-2005
▁सुनिश्चित	-2006
▁मिटा	-2007
optional	-2008
▁निशान	-2009
▁संभाव	-2010
▁चिकित	-2011
▁सर्वर	-2012
▁प्रशिक्षण	-2013
िको	-2014
▁आत्म	-2015
▁199	-2016
▁भुगतान	-2017
▁योग्य	-2018
्रोत	-2019
ौती	-2020
▁फ़र	-2021
▁ति	-2022
स्ती	-2023
▁राजा	-2024
▁तुल	-2025
▁क्षमा	-2026
००	-2027
ापन	-2028
▁अनुप	-2029
शु	-2030
▁pr	-2031
▁ऊर्जा	-2032
▁वास्तविक	-2033
बान	-2034
▁मात्रा	-2035
▁दक्षिण	-2036
▁सफलता	-2037
्ष्	-2038
▁@	-2039
▁चाल	-2040
▁समुदा	-2041
▁धार	-2042
▁भावना	-2043
तुम	-2044
▁लिखा	-2045
▁संग्रह	-2046
▁पौ	-2047
जनिक	-2048
▁ख़ु	-2049
▁आदमी	-2050
स्कार	-2051
▁हैः	-2052
▁भिन्न	-2053
▁कांग	-2054
गाह	-2055
▁उपबंध	-2056
पु	-2057
▁सत्ता	-2058
▁सरकारी	-2059
▁आधुनिक	-2060
क्या	-2061
▁आख़िर	-2062
▁transla	-2063
?"	-2064
ेमाल	-2065
▁मुसलमान	-2066
▁हित	-2067
ुआ	-2068
▁जाएँगे	-2069
▁बिल	-2070
म्ब	-2071
वाले	-2072
▁उनपर	-2073
▁इस्तेमाल	-2074
▁पुरा	-2075
ण्श	-2076
▁11	-2077
ऊण्श	-2078
्छ्ष्	-2079
ऊण्श्छ्ष्	-2080
त्सा	-2081
▁फाइल	-2082
▁दाय	-2083
▁वेबसाइट	-2084
▁(1)	-2085
▁वापस	-2086
▁राज्यों	-2087
▁बच्चे	-2088
▁सिर	-2089
▁मुक़	-2090
▁रिपोर्ट	-2091
ियान	-2092
ैल	-2093
ँह	-2094
गो	-2095
▁चुनें	-2096
▁खुल	-2097
▁जैसी	-2098
ly	-2099
▁प्रे	-2100
पे	-2101
स्ति	-2102
▁युवा	-2103
वस	-2104
विष्य	-2105
re	-2106
▁खो	-2107
om	-2108
▁सम्मान	-2109
▁खाते	-2110
▁खुद	-2111
▁प्रदर्श	-2112
▁सार्वजनिक	-2113
▁कट	-2114
▁क्ल	-2115
▁कप	-2116
▁सुना	-2117
▁उम्	-2118
▁वन	-2119
द्रीय	-2120
▁वो	-2121
▁मामलों	-2122
खी	-2123
▁आक	-2124
भूत	-2125
▁पूरे	-2126
▁हस्ता	-2127
▁पुरुष	-2128
▁उद्य	-2129
▁दृश्य	-2130
▁कमा	-2131
▁रहो	-2132
▁प्रकृति	-2133
ंथ	-2134
▁अह	-2135
▁साफ	-2136
▁मश	-2137
▁अत्यन्त	-2138
▁भविष्य	-2139
▁जे	-2140
▁उल्लेख	-2141
राह	-2142
निक	-2143
ामीण	-2144
▁यूर	-2145
▁निकट	-2146
▁मालूम	-2147
▁कम्प	-2148
▁चले	-2149
▁संपाद	-2150
▁खरी	-2151
▁जहन्न	-2152
▁बातें	-2153
▁संगठन	-2154
▁शासन	-2155
▁शुभ	-2156
▁संशो	-2157
▁आत	-2158
▁कोशिश	-2159
्यूटर	-2160
ख्स	-2161
▁यक़ीनन	-2162
ायद	-2163
ii	-2164
ग़म्बर	-2165
▁जरूरत	-2166
▁बातों	-2167
ारों	-2168
▁गुर	-2169
▁दिखाएँ	-2170
नाव	-2171
र्चा	-2172
त्त्व	-2173
▁खिला	-2174
▁लाल	-2175
▁सत	-2176
ity	-2177
तृ	-2178
फ्	-2179
▁डॉ	-2180
▁सदस्यों	-2181
ंडल	-2182
▁वैज्ञान	-2183
बूत	-2184
श्वर	-2185
▁संके	-2186
▁पस	-2187
ob	-2188
चर	-2189
ारोह	-2190
▁अन्	-2191
▁शख्स	-2192
▁करोड़	-2193
िब	-2194
▁ग्रामीण	-2195
▁ढा	-2196
वाही	-2197
.0	-2198
▁संसद	-2199
▁विनिर्	-2200
▁जिनमें	-2201
▁ऑफ	-2202
▁सक्षम	-2203
▁नदी	-2204
लाइन	-2205
एक	-2206
मय	-2207
▁छिप	-2208
चारी	-2209
▁कानून	-2210
▁सामग्री	-2211
▁अपेक्षा	-2212
▁उचित	-2213
एफ	-2214
म्भ	-2215
▁लॉ	-2216
▁पर्य	-2217
▁समझा	-2218
▁देखने	-2219
ल्ल	-2220
▁गी	-2221
▁पहा	-2222
▁नेट	-2223
ड़क	-2224
▁बने	-2225
▁प्रशासन	-2226
▁तारी	-2227
▁̧	-2228
वर्ष	-2229
दर्भ	-2230
▁कहो	-2231
//	-2232
▁अपरा	-2233
▁संरचना	-2234
▁ईसा	-2235
र्ग	-2236
▁समारोह	-2237
▁रिक	-2238
▁इतना	-2239
गीत	-2240
▁जित	-2241
▁जवाब	-2242
▁केंद्रीय	-2243
काम	-2244
▁प्रकट	-2245
▁बाज़	-2246
▁दिखाई	-2247
▁पश्चात	-2248
▁M	-2249
▁P	-2250
▁'%	-2251
¤¿	-2252
▁व्यापक	-2253
▁अध्यक्ष	-2254
he	-2255
▁स्कूल	-2256
▁देती	-2257
▁पुरस्कार	-2258
▁री	-2259
▁संदर्भ	-2260
▁प्रतिनि	-2261
▁काफ़	-2262
▁रक्षा	-2263
मह	-2264
प्रे	-2265
▁बाप	-2266
▁हास	-2267
▁मुँह	-2268
टल	-2269
वालों	-2270
▁तौ	-2271
थमिक	-2272
▁टै	-2273
च्छेद	-2274
ीप	-2275
▁दशा	-2276
▁रोज	-2277
▁बयान	-2278
▁गांव	-2279
▁प्रोत्सा	-2280
▁निर्यात	-2281
ृह	-2282
://	-2283
-#	-2284
▁बुला	-2285
▁खाद	-2286
▁इनमें	-2287
टों	-2288
श्त	-2289
▁आँ	-2290
पूर्वक	-2291
▁पड़ा	-2292
▁गैर	-2293
▁वजह	-2294
ोग्राम	-2295
▁सहेज	-2296
बह	-2297
▁कांग्रेस	-2298
सत	-2299
▁योगदान	-2300
▁औद्योगिक	-2301
वधान	-2302
बि	-2303
▁बदले	-2304
▁अधिका	-2305
ंगी	-2306
▁मुद्रा	-2307
ैक	-2308
▁do	-2309
▁दौ	-2310
▁शायद	-2311
▁मुझ	-2312
▁प्राय	-2313
▁लौट	-2314
▁पथ	-2315
▁translation	-2316
▁सर्वो	-2317
tp	-2318
ंकन	-2319
ख़ुदा	-2320
¤	-2321
चीन	-2322
▁डिस्क	-2323
▁ठहरा	-2324
▁निजी	-2325
▁आवेदन	-2326
कान	-2327
▁प्राथमिक	-2328
▁स्वतंत्रता	-2329
▁किंतु	-2330
▁पालन	-2331
▁चाहिये	-2332
▁आयु	-2333
ल्पना	-2334
▁शर्	-2335
वर्ती	-2336
eed	-2337
▁रखना	-2338
▁केन्द	-2339
▁रहेंगे	-2340
ैतिक	-2341
▁not	-2342
▁̈	-2343
एन	-2344
▁रखो	-2345
▁आतंक	-2346
▁आयतों	-2347
▁प्रतिक	-2348
▁लेखा	-2349
▁ध्व	-2350
▁यूरोप	-2351
▁उल	-2352
▁रखे	-2353
रुद्ध	-2354
राज	-2355
्वी	-2356
▁एशिया	-2357
▁चयनित	-2358
http	-2359
▁अर्था	-2360
▁रेल	-2361
▁संस्कृति	-2362
▁भग	-2363
दृ	-2364
रल	-2365
▁संगीत	-2366
▁आयात	-2367
र्न	-2368
घु	-2369
▁इस्लाम	-2370
▁प्रभा	-2371
वत	-2372
▁need	-2373
▁किन	-2374
क्रमण	-2375
▁लागत	-2376
▁अवश्य	-2377
▁व्यक्तियों	-2378
▁T	-2379
▁सृ	-2380
▁बोर्ड	-2381
▁तय	-2382
ूदा	-2383
▁उद्यम	-2384
▁रकम	-2385
▁आशा	-2386
पक	-2387
ृति	-2388
खंड	-2389
▁इब	-2390
वर्क	-2391
▁राय	-2392
लिस	-2393
न्व	-2394
ड़ाई	-2395
▁निदेश	-2396
▁आयोजित	-2397
लब	-2398
▁कार्यालय	-2399
▁बज	-2400
▁आवा	-2401
▁विधान	-2402
सिक	-2403
▁शता	-2404
▁दश	-2405
ोलन	-2406
▁ढंग	-2407
▁तत्	-2408
▁पांच	-2409
▁प्रभावित	-2410
फर	-2411
▁सकें	-2412
लाम	-2413
▁डाला	-2414
मेल	-2415
मो	-2416
नेवाला	-2417
िकी	-2418
▁दल	-2419
▁पर्याप्त	-2420
▁बंगाल	-2421
▁प्रकाशित	-2422
▁भौ	-2423
्सा	-2424
सन	-2425
▁अध्या	-2426
▁निधि	-2427
▁http	-2428
▁दूसरा	-2429
▁अवस्था	-2430
st	-2431
▁मुक्त	-2432
▁स्रोत	-2433
▁समुदाय	-2434
इयों	-2435
▁व्यवहार	-2436
▁असम	-2437
▁निर्धारिती	-2438
▁शांति	-2439
परी	-2440
सु	-2441
▁does	-2442
मक	-2443
ably	-2444
थि	-2445
▁झूठ	-2446
▁prob	-2447
nt	-2448
▁196	-2449
▁ब्या	-2450
▁probably	-2451
▁पाल	-2452
नेवाले	-2453
▁देंगे	-2454
▁राजनीतिक	-2455
▁नर	-2456
▁विभा	-2457
िल्म	-2458
▁हल	-2459
ड्ड	-2460
▁सलाह	-2461
▁हासिल	-2462
ुता	-2463
माज़	-2464
द्यपि	-2465
▁चुकी	-2466
फ्त	-2467
▁बनी	-2468
▁पर्यावरण	-2469
▁मुखर्जी	-2470
ग्	-2471
क्का	-2472
▁प्रभ	-2473
कला	-2474
राष्ट्रीय	-2475
नो	-2476
▁चर	-2477
▁दिवस	-2478
ol	-2479
▁रक्त	-2480
ou	-2481
▁निम्नलिखित	-2482
रीय	-2483
▁गि	-2484
▁अनुप्र	-2485
▁सुरक्षित	-2486
स्पर	-2487
▁असफल	-2488
राज्य	-2489
कत	-2490
City	-2491
▁संय	-2492
▁तीस	-2493
षद	-2494
नेट	-2495
▁केन्द्रीय	-2496
▁लाने	-2497
):	-2498
▁भारी	-2499
फ्ट	-2500
▁दृष्ट	-2501
▁चर्चा	-2502
▁संरक्षण	-2503
▁पदार्थ	-2504
ालिम	-2505
▁सेवाओं	-2506
कल	-2507
मीद	-2508
ियर	-2509
क्षक	-2510
▁धी	-2511
डिया	-2512
▁समझौ	-2513
घ्र	-2514
धाई	-2515
▁यद्यपि	-2516
▁आपकी	-2517
पो	-2518
्टर	-2519
▁तेल	-2520
▁सीधे	-2521
स्त्र	-2522
▁क्रम	-2523
▁बैठक	-2524
▁प्रमाणपत्र	-2525
ंद्र	-2526
▁कहना	-2527
कारा	-2528
वत्ता	-2529
ैव	-2530
्यो	-2531
▁इका	-2532
▁अनुक	-2533
िक्	-2534
▁शब्दों	-2535
▁विशाल	-2536
▁बाग़	-2537
▁आत्मा	-2538
▁डेटा	-2539
दूस	-2540
▁साह	-2541
▁आता	-2542
▁दिख	-2543
se	-2544
▁फरमा	-2545
▁दू	-2546
▁बधाई	-2547
-2	-2548
भाल	-2549
▁आयोग	-2550
▁नगर	-2551
भीर	-2552
हाद	-2553
बाह	-2554
▁पेट	-2555
▁सिद्धांत	-2556
ंबर	-2557
▁तरीके	-2558
▁यथा	-2559
हीन	-2560
▁भागी	-2561
व्यवस्था	-2562
▁कदम	-2563
▁उत	-2564
▁पंजी	-2565
त्तर	-2566
कीय	-2567
▁विरुद्ध	-2568
▁ख़बर	-2569
▁क़ुर	-2570
▁बढ	-2571
▁संसाधन	-2572
▁उपस्थित	-2573
of	-2574
ंदा	-2575
क्टर	-2576
क्शन	-2577
णि	-2578
▁p	-2579
▁दस	-2580
▁छोटी	-2581
यल	-2582
▁पल	-2583
दो	-2584
▁D	-2585
▁सच	-2586
▁पैग़म्बर	-2587
▁गिरोह	-2588
धनों	-2589
▁अनिवार	-2590
भूति	-2591
यक	-2592
षणा	-2593
▁बैठे	-2594
▁एह	-2595
▁पृथ	-2596
▁ज़ालिम	-2597
ज्ञात	-2598
▁अत्या	-2599
▁गुणवत्ता	-2600
▁छोड़कर	-2601
▁प्रदर्शन	-2602
▁मशीन	-2603
किंग	-2604
लिम	-2605
▁पसंद	-2606
ार्मिक	-2607
▁रखी	-2608
▁जिला	-2609
▁प्राकृतिक	-2610
▁भंड	-2611
▁स्म	-2612
▁विविध	-2613
▁१९	-2614
▁छात्र	-2615
▁नेटवर्क	-2616
▁{	-2617
न्दर	-2618
प्ता	-2619
▁प्रभावी	-2620
उट	-2621
चक	-2622
▁जाति	-2623
▁प्राचीन	-2624
▁25	-2625
वाला	-2626
यह	-2627
▁सख्त	-2628
▁सम्बन्ध	-2629
ल्लाह	-2630
▁बताया	-2631
वेयर	-2632
.1	-2633
न्स	-2634
▁अंक	-2635
▁आते	-2636
▁अता	-2637
▁लघु	-2638
▁पकड़	-2639
▁नमाज़	-2640
ब्दी	-2641
▁उपाय	-2642
▁पर्व	-2643
her	-2644
▁अधिकांश	-2645
ल्ड	-2646
▁प्रसन्न	-2647
▁भोजन	-2648
▁इच्छा	-2649
▁मेहर	-2650
▁पश्चिम	-2651
▁तुलना	-2652
त्री	-2653
▁आंद	-2654
▁इला	-2655
▁विद्यार्थ	-2656
रज़	-2657
▁हट	-2658
मेलन	-2659
▁समृ	-2660
चारियों	-2661
▁बौ	-2662
▁अगले	-2663
धिकार	-2664
nic	-2665
▁ज़रूर	-2666
▁महारा	-2667
फे	-2668
▁अनिवार्य	-2669
▁शिकाय	-2670
▁गतिविध	-2671
▁धार्मिक	-2672
¤2	-2673
▁b	-2674
▁वर्णन	-2675
▁16	-2676
▁गर्इ	-2677
▁रखें	-2678
थर	-2679
ंकि	-2680
कारों	-2681
▁(19	-2682
वह	-2683
▁195	-2684
▁वैज्ञानिक	-2685
▁वायु	-2686
जूद	-2687
न्दा	-2688
▁मना	-2689
▁बनाना	-2690
▁समाधान	-2691
▁परीक्षा	-2692
▁कंप्यूटर	-2693
्ब	-2694
▁प्रोग्राम	-2695
▁ऊँ	-2696
▁हस्ताक्षर	-2697
▁F	-2698
▁लेना	-2699
▁बन्दों	-2700
▁शक	-2701
ह्न	-2702
▁हृ	-2703
▁पश्चा	-2704
एगा	-2705
दायत	-2706
▁अधिकारियों	-2707
▁लगी	-2708
▁ग्रह	-2709
▁वीडियो	-2710
▁[	-2711
il	-2712
▁ब्याज	-2713
▁विज	-2714
रित	-2715
▁अक	-2716
याँ	-2717
ल्स	-2718
▁आपका	-2719
▁जोड़ें	-2720
स्य	-2721
▁मिली	-2722
▁मुह	-2723
▁मोह	-2724
खे	-2725
्रीन	-2726
▁खड़े	-2727
ेप	-2728
▁संभावना	-2729
▁सम्मेलन	-2730
▁कूट	-2731
▁मिलता	-2732
▁अक्	-2733
▁ईश्वर	-2734
▁शीघ्र	-2735
▁संस्थानों	-2736
यें	-2737
▁कुंजी	-2738
▁तुमपर	-2739
▁उन्हीं	-2740
नाम	-2741
राहीम	-2742
▁जल्दी	-2743
▁आख़िरत	-2744
▁पाने	-2745
▁दबा	-2746
▁वाक़	-2747
साथ	-2748
▁संपत्ति	-2749
रू	-2750
▁पद्ध	-2751
झी	-2752
ंपरा	-2753
ज़ार	-2754
्वा	-2755
ल्कुल	-2756
▁सात	-2757
▁शैली	-2758
▁दर्शा	-2759
रान	-2760
▁उम्मीद	-2761
▁मजबूत	-2762
▁198	-2763
▁तुममें	-2764
स्लिम	-2765
न्नत	-2766
▁आती	-2767
▁उपभ	-2768
▁करनी	-2769
औन	-2770
▁चीज	-2771
ाई	-2772
▁B	-2773
संग	-2774
▁प्रणब	-2775
ोजनों	-2776
▁बर्	-2777
▁तारीख	-2778
▁वैश्व	-2779
▁G	-2780
ार्क	-2781
िकोण	-2782
▁हिन्दी	-2783
▁कविता	-2784
▁पुनर्	-2785
वों	-2786
ेगा	-2787
स्टम	-2788
▁संसार	-2789
▁समझते	-2790
▁ब्रिट	-2791
¤1	-2792
▁छु	-2793
स्टर	-2794
▁श्रेणीः	-2795
▁चिकित्सा	-2796
ॉप	-2797
▁खरीद	-2798
▁हालत	-2799
▁कने	-2800
िश्ते	-2801
▁जरूरी	-2802
▁कार्यों	-2803
▁रहती	-2804
et	-2805
▁एज	-2806
▁गं	-2807
,000	-2808
▁पहल	-2809
स्वरूप	-2810
▁स्त्र	-2811
▁खर्च	-2812
▁सम्मिल	-2813
ँकि	-2814
▁डरा	-2815
▁इन्ह	-2816
▁दिलों	-2817
मेंट	-2818
▁अंश	-2819
▁हिदायत	-2820
धियों	-2821
▁विद	-2822
▁मानते	-2823
▁पुलिस	-2824
▁रहना	-2825
▁सित	-2826
--	-2827
ठित	-2828
▁सीमित	-2829
्वेष	-2830
बु	-2831
ठी	-2832
्प	-2833
जली	-2834
▁पिता	-2835
कालीन	-2836
▁तथ	-2837
विक	-2838
▁अनुप्रयोग	-2839
▁निर्भर	-2840
▁सैन	-2841
▁निर्मित	-2842
▁ब्रिटिश	-2843
▁हजार	-2844
ालित	-2845
▁सारी	-2846
▁जहन्नुम	-2847
▁भंडार	-2848
▁फेर	-2849
▁विफल	-2850
शय	-2851
▁युग	-2852
सिद्ध	-2853
▁वार्ष	-2854
▁साधारण	-2855
▁करनेवालों	-2856
ब्र	-2857
▁परंपरा	-2858
▁बिल्कुल	-2859
▁रास्त	-2860
▁इबराहीम	-2861
▁पहुंचा	-2862
▁दुख	-2863
▁नो	-2864
▁प्रवि	-2865
देव	-2866
▁अपील	-2867
▁आपने	-2868
▁भगवान	-2869
▁छोटा	-2870
htm	-2871
दर्शी	-2872
▁गलत	-2873
▁शाखा	-2874
▁शताब्दी	-2875
▁बख	-2876
▁अर्थव्यवस्था	-2877
▁m	-2878
▁संकेत	-2879
डल	-2880
राब	-2881
▁ताल	-2882
मीर	-2883
▁परिच	-2884
▁संशोधन	-2885
तया	-2886
▁भ्र	-2887
▁194	-2888
▁सांस्	-2889
▁13	-2890
▁आदर्श	-2891
▁w	-2892
▁नसी	-2893
▁किसानों	-2894
अपने	-2895
्राष्ट्रीय	-2896
▁शेष	-2897
▁अभिलेख	-2898
म्म	-2899
▁R	-2900
्यालयों	-2901
▁सच्चे	-2902
▁विरोध	-2903
▁विचारों	-2904
▁तरफ़	-2905
▁शैतान	-2906
▁प्रतिष्ठ	-2907
▁हवा	-2908
वृत्ति	-2909
▁प्रदर्शित	-2910
▁व्यक्तिगत	-2911
▁खुलती	-2912
▁मौजूदा	-2913
▁अंदर	-2914
▁अत्यंत	-2915
▁एव	-2916
कात	-2917
भूम	-2918
▁समुद्र	-2919
▁निर्वा	-2920
▁आंदोलन	-2921
▁प्रयोजनों	-2922
ंगल	-2923
म्र	-2924
ध्या	-2925
▁महीने	-2926
▁197	-2927
▁अप्रैल	-2928
▁संघर्ष	-2929
धर	-2930
▁विंडों	-2931
▁इंटर	-2932
▁फी	-2933
▁शक़	-2934
▁सम्मिलित	-2935
▁निगम	-2936
▁14	-2937
दूसरे	-2938
▁अंग्रेजी	-2939
वै	-2940
▁नेता	-2941
सब	-2942
▁सत्या	-2943
ब्ल	-2944
▁विद्व	-2945
▁f	-2946
▁कठिन	-2947
▁कीमत	-2948
▁मुस्लिम	-2949
लग्न	-2950
▁L	-2951
कुल	-2952
ताल	-2953
▁काट	-2954
▁स्थायी	-2955
िना	-2956
▁नागरिक	-2957
▁सदैव	-2958
▁बढ़ाने	-2959
▁विवाह	-2960
▁घट	-2961
▁चरण	-2962
तरा	-2963
ल्ला	-2964
▁1.	-2965
्रेड	-2966
ेक्ट	-2967
▁बुद्धि	-2968
▁चढ़	-2969
हरे	-2970
▁इंडिया	-2971
▁लगाया	-2972
▁प्	-2973
परि	-2974
▁फैला	-2975
▁महत्त्व	-2976
िमी	-2977
ष्ट्र	-2978
ियत	-2979
जनक	-2980
▁जोर	-2981
▁रहेगा	-2982
▁आकाशों	-2983
▁नोट	-2984
▁तेजी	-2985
▁जिम्मे	-2986
न्त्र	-2987
▁झग	-2988
गिज़	-2989
▁शुल्क	-2990
ार्म	-2991
्यान्व	-2992
▁मार्च	-2993
▁मिट्टी	-2994
aà	-2995
▁घोषणा	-2996
▁पहला	-2997
ment	-2998
di	-2999
▁N	-3000
▁जाँच	-3001
▁खास	-3002
▁अनुच्छेद	-3003
▁एल	-3004
▁संत	-3005
मैं	-3006
▁भली	-3007
▁मिस	-3008
▁जिसको	-3009
साद	-3010
▁नये	-3011
▁हालाँकि	-3012
▁कार्यान्व	-3013
▁(2)	-3014
दाता	-3015
▁आंक	-3016
▁निशानियाँ	-3017
▁प्रत्यक्ष	-3018
▁दृष्टिकोण	-3019
▁लेखक	-3020
▁कहेंगे	-3021
ra	-3022
▁व्यय	-3023
ाब	-3024
▁U	-3025
▁सज़ा	-3026
▁परिषद	-3027
▁फिल	-3028
▁दायित्व	-3029
भूमि	-3030
▁चुनाव	-3031
▁सॉ	-3032
▁अस्त	-3033
▁परिवर्त	-3034
▁बढ़ावा	-3035
भाषा	-3036
इड	-3037
▁बाव	-3038
▁चलते	-3039
▁सरल	-3040
नु	-3041
▁17	-3042
▁संस्कृत	-3043
बाहरी	-3044
यण	-3045
▁बीमा	-3046
▁मालिक	-3047
साब	-3048
▁अफ्री	-3049
▁गवाह	-3050
ंबई	-3051
्वाह	-3052
▁पंजा	-3053
्यूशन	-3054
▁पाक	-3055
▁गंभीर	-3056
▁पड़ता	-3057
▁ग्राह	-3058
फार	-3059
▁फे	-3060
ोने	-3061
▁देखें	-3062
▁असा	-3063
रिया	-3064
फ़ार	-3065
▁ड्र	-3066
▁सांस्कृतिक	-3067
जीव	-3068
कृष्ट	-3069
▁इनके	-3070
▁कानू	-3071
▁रुपये	-3072
शाला	-3073
▁तर्क	-3074
▁रहें	-3075
▁उपयुक्त	-3076
▁लेता	-3077
सभा	-3078
▁अधिस	-3079
▁बौद्ध	-3080
▁वैश्विक	-3081
▁आपस	-3082
अल्लाह	-3083
ितीय	-3084
▁नसीहत	-3085
▁तकनीकी	-3086
▁30	-3087
▁भूल	-3088
ंचे	-3089
▁वस्तुओं	-3090
प्ताह	-3091
क्षेत्र	-3092
दूर	-3093
▁पाए	-3094
दना	-3095
▁पश्चात्	-3096
▁बनाकर	-3097
मारी	-3098
▁दोष	-3099
▁लोड	-3100
▁कार्र	-3101
▁H	-3102
▁गाय	-3103
▁सत्र	-3104
▁रोजगार	-3105
▁सश	-3106
वृत्त	-3107
▁घरों	-3108
▁पात्र	-3109
▁मिलने	-3110
▁अंतरराष्ट्रीय	-3111
▁खुश	-3112
ढ़ी	-3113
▁प्राण	-3114
▁प्रतीक	-3115
ख़्श	-3116
▁मस	-3117
▁खूब	-3118
▁महिलाओं	-3119
▁क्षेत्रीय	-3120
▁देखो	-3121
▁बनाई	-3122
नियों	-3123
▁जिनका	-3124
▁प्रयासों	-3125
भारत	-3126
सूस	-3127
▁हृदय	-3128
ादी	-3129
एँगे	-3130
क्ष्म	-3131
▁प्रसार	-3132
▁बुरी	-3133
▁नियुक्त	-3134
▁साझी	-3135
▁पत्थर	-3136
▁जादू	-3137
मर	-3138
▁विनिर्दिष्ट	-3139
▁टुक	-3140
▁नाटक	-3141
▁प्रभार	-3142
▁मज़	-3143
▁E	-3144
ुमार	-3145
▁खाद्य	-3146
▁शास्त	-3147
▁व्याख्या	-3148
खर	-3149
िकाओं	-3150
▁भय	-3151
▁अनुवाद	-3152
▁अधिकतर	-3153
▁कठोर	-3154
▁दिखाया	-3155
▁भरो	-3156
▁स्वरूप	-3157
ूंगा	-3158
कामना	-3159
▁संदे	-3160
▁अधिसू	-3161
प्रिय	-3162
▁दिये	-3163
ूँगा	-3164
▁उत्तम	-3165
▁पद्धति	-3166
▁शास	-3167
▁बिजली	-3168
▁विस्तृत	-3169
▁अधिकतम	-3170
▁प्लग	-3171
▁समाचार	-3172
▁एच	-3173
धानी	-3174
▁अनुसू	-3175
चित्र	-3176
▁सिस्टम	-3177
बूल	-3178
▁खोलें	-3179
▁व्याव	-3180
▁संस्करण	-3181
▁ज़ु	-3182
▁इजरा	-3183
▁कहानी	-3184
▁गुजरा	-3185
▁स्वामी	-3186
▁नियत	-3187
नर	-3188
''	-3189
▁सरक	-3190
▁इतनी	-3191
▁वाक़ि	-3192
▁समक्ष	-3193
▁बख्श	-3194
कद	-3195
▁अंध	-3196
▁दीर्	-3197
▁बावजूद	-3198
▁शक्त	-3199
व्र	-3200
▁शिव	-3201
▁मार्गदर्शन	-3202
▁ग्राम	-3203
▁पार्टी	-3204
▁प्रयुक्त	-3205
▁अरब	-3206
▁शेयर	-3207
▁प्रेर	-3208
▁शुभकामना	-3209
▁इंज	-3210
वें	-3211
▁सीख	-3212
▁वाता	-3213
▁क़यामत	-3214
▁आतंकवाद	-3215
्रिया	-3216
▁माह	-3217
▁कटौती	-3218
▁हालांकि	-3219
बूद	-3220
िक्री	-3221
▁बुनिया	-3222
मल	-3223
▁(3	-3224
द्धा	-3225
▁मूल्या	-3226
▁पश्चिमी	-3227
▁करनेवाला	-3228
▁त्व	-3229
ंटे	-3230
लिंग	-3231
▁विनि	-3232
▁फैस	-3233
▁अनुकूल	-3234
▁निरंतर	-3235
▁पाय	-3236
▁चिह्न	-3237
ुत्व	-3238
▁परस्पर	-3239
▁फाय	-3240
तृत्व	-3241
वहन	-3242
▁मोड	-3243
▁छिपा	-3244
▁विमान	-3245
ॉन	-3246
भाष	-3247
▁सज	-3248
)।	-3249
न्ना	-3250
▁मेल	-3251
▁स्पष्टीकरण	-3252
र्र	-3253
▁मास	-3254
त्न	-3255
▁दर्शन	-3256
▁रोज़ी	-3257
▁सामना	-3258
▁सम्प	-3259
▁खाली	-3260
▁सबको	-3261
▁डाटा	-3262
दों	-3263
सों	-3264
▁विध	-3265
▁परिस्थित	-3266
▁अवै	-3267
▁एफ	-3268
▁दीवार	-3269
खिल	-3270
▁प्रच	-3271
▁वार्षिक	-3272
▁संचार	-3273
▁the	-3274
▁वायदा	-3275
अपनी	-3276
▁गहरा	-3277
▁मिशन	-3278
▁हार	-3279
यत	-3280
▁गतिविधियों	-3281
▁कल्या	-3282
▁मिलकर	-3283
▁रेखा	-3284
▁प्रसिद्ध	-3285
▁विल	-3286
▁वातावरण	-3287
▁पूर्ववर्ष	-3288
▁सकेगा	-3289
▁हाथों	-3290
बादत	-3291
▁आसान	-3292
्ति	-3293
▁यंत्र	-3294
▁मुसलमानों	-3295
▁संलग्न	-3296
▁ऑन	-3297
▁सचि	-3298
▁अके	-3299
जिए	-3300
▁जानवर	-3301
20	-3302
वासियों	-3303
▁खड़ा	-3304
पास	-3305
▁राजन	-3306
▁अना	-3307
ोल्यूशन	-3308
▁तला	-3309
▁बॉ	-3310
▁चलता	-3311
▁द्वार	-3312
▁कार्ड	-3313
▁नियमों	-3314
स्वी	-3315
▁समर्	-3316
ट्र	-3317
नेवालों	-3318
▁e	-3319
▁हिन्दू	-3320
▁लिखने	-3321
ोकन	-3322
िज	-3323
▁नियमित	-3324
जु	-3325
दिक	-3326
▁टाइ	-3327
▁इत्या	-3328
▁अपराध	-3329
ून्य	-3330
▁करनेवाले	-3331
▁कर्मचारियों	-3332
▁नामक	-3333
▁क्लिक	-3334
ेंशन	-3335
▁आरो	-3336
यम	-3337
▁करी	-3338
किस्तान	-3339
▁संपूर्ण	-3340
▁सूक्ष्म	-3341
भु	-3342
▁मंज	-3343
▁खी	-3344
▁महसूस	-3345
पुट	-3346
▁अवि	-3347
▁स्वागत	-3348
▁फ़ैस	-3349
¤¤	-3350
ंकर	-3351
किल	-3352
▁वेतन	-3353
▁अभिव्य	-3354
वाली	-3355
ँव	-3356
▁भला	-3357
▁मतलब	-3358
▁हानि	-3359
▁ग्रहण	-3360
▁मल	-3361
लोड	-3362
▁अनुमान	-3363
▁स्त्री	-3364
ंखला	-3365
▁परीक्षण	-3366
टिल	-3367
▁सुझा	-3368
▁रौ	-3369
▁अंड	-3370
▁शिकायत	-3371
ंका	-3372
▁आंत	-3373
▁बंध	-3374
▁तमा	-3375
▁माँग	-3376
▁सारा	-3377
▁हाँ	-3378
▁दीन	-3379
▁विश्ले	-3380
▁पैर	-3381
ंचाई	-3382
▁चैन	-3383
▁सदन	-3384
▁उपचार	-3385
▁अफ्रीका	-3386
बरी	-3387
▁कथ	-3388
▁वर	-3389
▁अस्प	-3390
▁हरगिज़	-3391
▁दावा	-3392
▁झुठलाया	-3393
▁अद्य	-3394
▁पंच	-3395
▁g	-3396
▁कार्रवाई	-3397
▁अवैध	-3398
▁सर्वा	-3399
▁x	-3400
▁–	-3401
▁24	-3402
▁प्रेष	-3403
▁देकर	-3404
▁बनाएँ	-3405
▁हिसाब	-3406
ाक	-3407
▁स्वच्छ	-3408
हि	-3409
पों	-3410
▁बाहरी	-3411
▁पंक्ति	-3412
▁बजा	-3413
▁माता	-3414
ताव	-3415
▁अद	-3416
▁साम्रा	-3417
▁अक्सर	-3418
▁इन्हें	-3419
▁टन	-3420
▁आये	-3421
टेड	-3422
▁मूर्ति	-3423
▁शुभकामनाएं	-3424
el	-3425
▁in	-3426
▁भरोसा	-3427
र्त	-3428
▁इबादत	-3429
▁जाएं	-3430
ष्क	-3431
▁वाह	-3432
▁भौतिक	-3433
▁सूर्य	-3434
▁सहेजें	-3435
ँति	-3436
▁प्राप्ति	-3437
▁प्रावधान	-3438
▁परा	-3439
▁तौबा	-3440
▁कल्याण	-3441
▁मात्र	-3442
▁जीवित	-3443
▁कारबार	-3444
▁चम	-3445
▁उपय	-3446
▁पीठ	-3447
▁जिनकी	-3448
▁O	-3449
▁दंड	-3450
▁समस्याओं	-3451
▁पेज	-3452
▁पाठ्य	-3453
▁प्रसन्नता	-3454
▁h	-3455
▁खाने	-3456
रेट	-3457
▁जनवरी	-3458
▁अंतर्राष्ट्रीय	-3459
तिहासिक	-3460
▁आयुक्त	-3461
▁कल्पना	-3462
▁खाना	-3463
▁शख़्श	-3464
▁संकल्प	-3465
▁आकर्ष	-3466
▁सुंदर	-3467
▁पत्त	-3468
▁उद	-3469
ंघ	-3470
▁ब्रा	-3471
▁बढ़कर	-3472
▁फॉ	-3473
▁अनुमो	-3474
▁खेती	-3475
▁भेजे	-3476
▁फा	-3477
▁हिस्से	-3478
▁व्यवसाय	-3479
▁मिलती	-3480
नांक	-3481
दिन	-3482
▁50	-3483
▁क्रा	-3484
▁कितने	-3485
पान	-3486
शब्द	-3487
▁मौसम	-3488
वट	-3489
▁कथा	-3490
▁उत्स	-3491
धीन	-3492
लाल	-3493
▁मानसिक	-3494
▁ढूं	-3495
▁खुशी	-3496
▁माबूद	-3497
▁भलाई	-3498
▁लगाने	-3499
▁पुराने	-3500
▁प्रजा	-3501
▁वितरण	-3502
▁परियोजनाओं	-3503
▁बू	-3504
बारा	-3505
▁संबो	-3506
▁कार्यक्रमों	-3507
्वे	-3508
▁ज़रुर	-3509
▁आयोजन	-3510
▁क्षति	-3511
ियार	-3512
दु	-3513
▁शुरुआ	-3514
▁छुट	-3515
▁प्रार्थ	-3516
क्ट्र	-3517
▁तिथि	-3518
ायक	-3519
▁दूध	-3520
ce	-3521
▁नेतृत्व	-3522
▁दस्तावेज	-3523
▁धो	-3524
ृंखला	-3525
पै	-3526
रार	-3527
चीत	-3528
▁चलो	-3529
▁जून	-3530
▁बदलें	-3531
▁जायेगा	-3532
▁गणराज्य	-3533
▁पंचा	-3534
▁जानी	-3535
क्षेप	-3536
ूर्ति	-3537
▁चै	-3538
▁मनो	-3539
▁एवोल्यूशन	-3540
▁"%	-3541
pres	-3542
▁दोस्त	-3543
▁कदा	-3544
▁विवाद	-3545
▁धीरे	-3546
▁ब्रह	-3547
▁आइ	-3548
▁द्र	-3549
▁उसपर	-3550
▁न्यून	-3551
▁सप्ताह	-3552
जू	-3553
▁बोझ	-3554
लम	-3555
अलग	-3556
वान्वेष	-3557
▁अल्प	-3558
श्म	-3559
▁ज़ुल्म	-3560
वित्र	-3561
▁शत्र	-3562
▁मुद्द	-3563
▁हस्त	-3564
▁कितनी	-3565
▁हिंदू	-3566
▁कुफ्	-3567
ाले	-3568
क्षी	-3569
णु	-3570
▁इत्यादि	-3571
ूबर	-3572
ut	-3573
▁उड़	-3574
▁दयाल	-3575
▁प्ले	-3576
वर्तन	-3577
▁निरा	-3578
▁यूनि	-3579
त्मिक	-3580
लील	-3581
वक	-3582
▁शून्य	-3583
▁अभियान	-3584
दुनिया	-3585
▁अनुसरण	-3586
▁उपन्यास	-3587
्यार	-3588
▁क़सम	-3589
▁कराने	-3590
▁ख़र्च	-3591
▁कोड	-3592
▁काफ़िर	-3593
▁निभा	-3594
छा	-3595
िक़	-3596
▁निर्देशिका	-3597
ियल	-3598
▁तट	-3599
▁जुड़े	-3600
▁मूल्यांकन	-3601
▁100	-3602
▁उत्कृष्ट	-3603
फ्र	-3604
▁खुले	-3605
▁तकली	-3606
▁मध	-3607
मंडल	-3608
▁मुला	-3609
▁३	-3610
▁आउट	-3611
ंता	-3612
▁आँख	-3613
▁प्रार्थना	-3614
शक्ति	-3615
▁पत्नी	-3616
▁लम्	-3617
▁पर्यटन	-3618
पादन	-3619
णिज्य	-3620
▁अंतरण	-3621
▁बजे	-3622
▁बनाते	-3623
▁सुख	-3624
▁पराम	-3625
▁होनी	-3626
▁प्रयोजन	-3627
▁संस्थाओं	-3628
न्दगी	-3629
▁शुद्ध	-3630
▁पट्टी	-3631
id	-3632
▁संगण	-3633
मीटर	-3634
गण	-3635
▁आनंद	-3636
▁बातचीत	-3637
▁कमांड	-3638
▁अस्तित्व	-3639
म्मद	-3640
्याग	-3641
िकाना	-3642
▁विशेषता	-3643
▁कर्मचारी	-3644
▁फूल	-3645
▁गुरु	-3646
▁डरते	-3647
क़यामत	-3648
▁आस्ति	-3649
▁ऐतिहासिक	-3650
▁हद	-3651
▁मिटाएँ	-3652
▁बेटे	-3653
▁नवान्वेष	-3654
श्मीर	-3655
▁तेरे	-3656
घाटन	-3657
▁अत्यधिक	-3658
▁प्रेरित	-3659
▁इजरायल	-3660
▁विद्यार्थियों	-3661
धीश	-3662
ुप	-3663
▁पंचांग	-3664
रक	-3665
▁फ़ॉ	-3666
▁विद्युत	-3667
ंटी	-3668
ूक	-3669
▁गंगा	-3670
मानी	-3671
▁लक्षण	-3672
▁निशानी	-3673
▁मान्यता	-3674
▁साब	-3675
▁आध्या	-3676
ent	-3677
ओगे	-3678
क्सी	-3679
▁मामला	-3680
▁इकाई	-3681
▁उदार	-3682
्ठा	-3683
▁गुप्त	-3684
▁बुराई	-3685
▁गैस	-3686
फ़र	-3687
▁तुर	-3688
▁प्रारूप	-3689
वीय	-3690
▁मानक	-3691
▁शुक्र	-3692
ोम	-3693
मान्य	-3694
▁शीर्षक	-3695
▁स्क्रीन	-3696
▁मुक़ाब	-3697
▁संबंधों	-3698
परिक	-3699
▁विवे	-3700
▁तेज	-3701
▁बिक्री	-3702
वां	-3703
▁इकट	-3704
▁आयतें	-3705
ुस	-3706
▁देखभाल	-3707
▁साधन	-3708
राई	-3709
▁कक्ष	-3710
▁सौंप	-3711
िश्तों	-3712
्ता	-3713
▁दुआ	-3714
▁चारों	-3715
▁बैंकों	-3716
्वर	-3717
▁बाह	-3718
▁लाया	-3719
▁फसल	-3720
▁काव्य	-3721
▁सुबह	-3722
▁दिला	-3723
▁वादा	-3724
लोग	-3725
▁स्तंभ	-3726
▁बुनियादी	-3727
▁प्रतिक्रिया	-3728
▁खिलाफ	-3729
▁वाणिज्य	-3730
▁ईमानदारों	-3731
▁किसान	-3732
▁इरा	-3733
▁प्रोट	-3734
र्ज	-3735
▁पाकिस्तान	-3736
िनी	-3737
▁मछ	-3738
▁प्रभुत्व	-3739
▁ख़ास	-3740
▁लोकप्रिय	-3741
▁नष्ट	-3742
ुमा	-3743
▁टिप	-3744
▁फिल्म	-3745
▁स्थिर	-3746
▁निदेशक	-3747
▁विरा	-3748
▁गृह	-3749
▁छूट	-3750
▁मंच	-3751
omment	-3752
करी	-3753
▁कहता	-3754
▁मानो	-3755
▁विशेषज्ञ	-3756
▁हराम	-3757
ॉकि	-3758
िक्स	-3759
▁फ्ल	-3760
▁करार	-3761
▁ठिकाना	-3762
जोर	-3763
▁प्रचार	-3764
▁आठ	-3765
मार्	-3766
▁गरीब	-3767
लेज	-3768
▁चेह	-3769
▁कुशल	-3770
▁स्थल	-3771
संख्या	-3772
मात्र	-3773
▁दिनांक	-3774
▁लोकतंत्र	-3775
▁लॉग	-3776
▁समी	-3777
▁किरा	-3778
▁ग़रज़	-3779
▁पुत्र	-3780
▁2.	-3781
▁कौशल	-3782
▁भाषण	-3783
▁स्थानों	-3784
▁परहे	-3785
▁फ़ैसला	-3786
ed	-3787
आन	-3788
▁विषयों	-3789
▁गोप	-3790
▁घरे	-3791
क्षिक	-3792
▁समस्त	-3793
ानु	-3794
▁माइ	-3795
▁ख्याल	-3796
खिम	-3797
▁अक्ष	-3798
uk	-3799
▁सवाल	-3800
▁रास्ता	-3801
▁लगातार	-3802
▁सामर्थ	-3803
▁परहेज़	-3804
▁193	-3805
▁पहाड़	-3806
▁आध्यात्मिक	-3807
▁आख	-3808
▁इतने	-3809
▁बरसा	-3810
▁अर्थात्	-3811
▁उपयोक्ता	-3812
क्रिय	-3813
▁बनने	-3814
▁सीधा	-3815
▁सेवाएं	-3816
▁अमेरिक	-3817
ec	-3818
▁कृत	-3819
तुम्ह	-3820
▁न्यूनतम	-3821
ैसे	-3822
▁लु	-3823
कालिक	-3824
क्यों	-3825
▁नाट	-3826
▁पढ़ने	-3827
▁सभ	-3828
▁लेन	-3829
▁अद्यतन	-3830
▁ग्रंथ	-3831
▁21	-3832
▁अदा	-3833
▁रद्द	-3834
▁मिश्र	-3835
▁अभिप्रे	-3836
▁प्रोत्साहन	-3837
जात	-3838
भेद	-3839
वर्ड	-3840
4)	-3841
▁संगठ	-3842
▁असमर्थ	-3843
-#-#	-3844
▁एका	-3845
▁२००	-3846
▁परामर्श	-3847
र्वा	-3848
▁सुल	-3849
▁उम्र	-3850
▁इंजीन	-3851
▁थोड़ा	-3852
▁दूरी	-3853
▁पवित्र	-3854
▁पूजा	-3855
▁आग्रह	-3856
▁स्त्रियों	-3857
▁नहर	-3858
विल	-3859
▁साइ	-3860
▁प्रायः	-3861
माने	-3862
▁गुमराही	-3863
▁नजर	-3864
▁विरो	-3865
▁विजय	-3866
▁जहा	-3867
शास्त	-3868
▁मेहरबान	-3869
▁संसाधनों	-3870
▁पारित	-3871
रणा	-3872
▁कठिना	-3873
व्या	-3874
▁एकत्र	-3875
▁गवाही	-3876
▁विनियम	-3877
▁मंड	-3878
▁आंतरिक	-3879
कड़ी	-3880
डि	-3881
▁मज़ा	-3882
ालत	-3883
▁नेहर	-3884
स्तियों	-3885
▁अमरी	-3886
यू	-3887
चलित	-3888
▁नागरिकों	-3889
▁तभी	-3890
▁मिन	-3891
▁अन्तर्	-3892
▁बेच	-3893
▁अज	-3894
▁उतार	-3895
▁घरेलू	-3896
▁प्रदू	-3897
ूसु	-3898
▁विज्ञ	-3899
▁महत्त्वपूर्ण	-3900
ालिब	-3901
▁इले	-3902
▁हथ	-3903
▁शाह	-3904
▁भागों	-3905
▁तीव्र	-3906
▁ध्वनि	-3907
▁वृक्ष	-3908
▁तरीका	-3909
कें	-3910
▁मीडिया	-3911
▁इंग	-3912
▁मुंबई	-3913
▁समन्व	-3914
▁गीत	-3915
▁विधे	-3916
▁देखकर	-3917
▁आज़	-3918
शे	-3919
▁बीज	-3920
▁बाँ	-3921
▁डाउन	-3922
▁शुरुआत	-3923
कीम	-3924
▁माप	-3925
▁निपट	-3926
▁रुपए	-3927
लाद	-3928
▁देवी	-3929
▁जाएंगे	-3930
▁गल	-3931
िक्र	-3932
▁आदम	-3933
▁जोखिम	-3934
▁हालॉकि	-3935
णों	-3936
क़ी	-3937
▁सर्वे	-3938
▁भागीदारी	-3939
देन	-3940
लाभ	-3941
▁युक्त	-3942
▁आपूर्ति	-3943
िकल	-3944
▁मोमि	-3945
▁उद्घाटन	-3946
▁अभिप्रेत	-3947
▁दयावान	-3948
भाँति	-3949
▁पूछा	-3950
▁संवर्	-3951
▁ऑनलाइन	-3952
▁रास्ते	-3953
▁परिस्थितियों	-3954
▁जल्द	-3955
नल	-3956
▁ख़ुद	-3957
तल	-3958
▁भारती	-3959
:%	-3960
▁कोल	-3961
▁संचालन	-3962
ज़त	-3963
▁ढूंढ	-3964
▁नृत्य	-3965
▁भाषाओं	-3966
!"	-3967
▁u	-3968
▁तमाम	-3969
▁सर्वोच्च	-3970
▁अका	-3971
▁आसानी	-3972
▁सहकारी	-3973
दीय	-3974
▁तुझे	-3975
▁बदलाव	-3976
▁गुजरात	-3977
बन्ध	-3978
▁ज्ञापन	-3979
▁दृढ़	-3980
▁बाबत	-3981
विज्ञान	-3982
▁दूसरों	-3983
शनल	-3984
सायन	-3985
▁लंबा	-3986
▁सिवाय	-3987
▁साम्राज्य	-3988
▁...	-3989
▁नज़र	-3990
▁लड़के	-3991
▁करीब	-3992
▁राज्यपाल	-3993
इश	-3994
डु	-3995
▁गठन	-3996
▁पुस्तिका	-3997
ac	-3998
▁स्वतः	-3999
▁ख़ूब	-4000
▁सामर्थ्य	-4001
▁26	-4002
▁मई	-4003
▁दयालुता	-4004
▁शिश	-4005
▁बोले	-4006
▁अगस्त	-4007
▁स्मृति	-4008
html	-4009
्रांस	-4010
▁पॉ	-4011
▁कानूनी	-4012
▁प्रि	-4013
ड़ने	-4014
वियों	-4015
▁लोगो	-4016
▁काफिर	-4017
▁उपयोगी	-4018
ail	-4019
भाग्य	-4020
▁दीर्घ	-4021
▁प्रका	-4022
महिम	-4023
▁लड़ाई	-4024
▁सदा	-4025
▁देखता	-4026
▁मीटर	-4027
▁न्यायाधीश	-4028
▁कॉन्	-4029
▁घोषित	-4030
▁अधिकारों	-4031
▁निर्वाचन	-4032
▁तमिल	-4033
िस्ट	-4034
क्षीय	-4035
▁फैसला	-4036
म्स	-4037
▁रजि	-4038
▁लाइ	-4039
▁दस्तावेज़	-4040
▁पढ़ा	-4041
▁किनारे	-4042
▁मैदान	-4043
▁तथ्य	-4044
शाह	-4045
ॉक	-4046
द्री	-4047
कर्ताओं	-4048
▁संबोधित	-4049
▁जरूर	-4050
ौल	-4051
▁मां	-4052
▁द्वीप	-4053
▁औष	-4054
▁वाद्य	-4055
नन	-4056
50	-4057
iv	-4058
न्दी	-4059
▁काग	-4060
▁पशु	-4061
▁आश्च	-4062
▁चेतना	-4063
▁प्राथमिकता	-4064
ीनी	-4065
▁कलक	-4066
▁जितना	-4067
▁चलने	-4068
▁रीति	-4069
▁ग़ालिब	-4070
▁नक़	-4071
▁फोन	-4072
▁अज्ञात	-4073
▁वैध	-4074
धित्व	-4075
▁छह	-4076
वंश	-4077
शेष	-4078
▁ज़ाह	-4079
▁विन्यास	-4080
▁सूर	-4081
▁मुना	-4082
फारिश	-4083
भाषित	-4084
▁नु	-4085
संगत	-4086
▁समृद्ध	-4087
▁उत्पादों	-4088
▁लिखी	-4089
▁करेगी	-4090
▁हिंदी	-4091
घात	-4092
िव	-4093
फ़ा	-4094
▁गुज़र	-4095
दत्त	-4096
▁कर्त	-4097
मिन	-4098
▁संवाद	-4099
ंदी	-4100
ऊँ	-4101
▁महामहिम	-4102
दित	-4103
▁जटिल	-4104
▁आक्रमण	-4105
गोल	-4106
यदि	-4107
परीत	-4108
▁ख्वाह	-4109
▁एकल	-4110
षक	-4111
▁अन्दर	-4112
▁उठाने	-4113
ैर्य	-4114
▁यून	-4115
▁बीमारी	-4116
-201	-4117
▁उपबंधों	-4118
▁तस	-4119
▁अनुरूप	-4120
▁विश्लेषण	-4121
▁क़ि	-4122
▁बजाय	-4123
▁निरी	-4124
▁संकट	-4125
▁जाओगे	-4126
▁ताप	-4127
▁होंगी	-4128
बाइल	-4129
▁औरतों	-4130
▁नेहरू	-4131
▁लाइन	-4132
▁नैतिक	-4133
▁अनुरोध	-4134
▁परिणामस्वरूप	-4135
▁31	-4136
▁सरदार	-4137
र्रर	-4138
▁खुला	-4139
▁कृष्ण	-4140
▁विपरीत	-4141
▁सिफारिश	-4142
▁तार	-4143
▁मौत	-4144
▁उतर	-4145
▁जंग	-4146
▁बीमार	-4147
▁बुद्ध	-4148
▁अध्याय	-4149
▁झा	-4150
▁क़ा	-4151
लोगों	-4152
▁साबित	-4153
कारात्मक	-4154
वली	-4155
▁हिम	-4156
कालय	-4157
वाना	-4158
▁आनन्द	-4159
▁प्रतिनिधित्व	-4160
आप	-4161
▁लेंगे	-4162
▁आश्चर्य	-4163
▁वचन	-4164
▁मैने	-4165
▁बन्दगी	-4166
▁मुक़ाबले	-4167
रस	-4168
मेन	-4169
▁त्याग	-4170
▁यक़ीनी	-4171
▁विद्यमान	-4172
▁चीन	-4173
ंजन	-4174
▁पोर्ट	-4175
▁वर्षा	-4176
▁सॉफ्ट	-4177
▁चक्र	-4178
धक	-4179
▁क़ु	-4180
▁एकता	-4181
▁समझौता	-4182
▁प्रकाशन	-4183
▁सरकारों	-4184
▁सर्वाधिक	-4185
muk	-4186
▁दवा	-4187
▁चीज़ों	-4188
▁कूटशब्द	-4189
्राफ	-4190
▁पलट	-4191
▁नूह	-4192
▁दरवा	-4193
▁आरम्भ	-4194
▁पृथ्वी	-4195
▁प्रतीत	-4196
▁एंड	-4197
▁पंजाब	-4198
▁प्रशंसा	-4199
फ़्र	-4200
▁जनसंख्या	-4201
शासन	-4202
▁लौटा	-4203
▁कितना	-4204
▁प्रतिभा	-4205
▁फ़िर	-4206
▁जिनको	-4207
त्तम	-4208
▁शारी	-4209
यो	-4210
लेट	-4211
दरत	-4212
▁नेक	-4213
बीर	-4214
pran	-4215
ing	-4216
▁दर्ज	-4217
▁भेद	-4218
▁अक्षम	-4219
▁सर्वेक्षण	-4220
▁हल्	-4221
jee	-4222
▁सिखा	-4223
▁आवाज़	-4224
▁प्रिय	-4225
abmuk	-4226
▁जमीन	-4227
▁जाकर	-4228
herjee	-4229
pranabmuk	-4230
pranabmukherjee	-4231
▁समाप्ति	-4232
▁करवा	-4233
▁खुली	-4234
▁कोवि	-4235
▁वहीं	-4236
▁डाले	-4237
▁पहुँचे	-4238
गढ़	-4239
▁परम	-4240
▁उपक्रम	-4241
▁पूर्वा	-4242
▁ज़िम्मे	-4243
prh	-4244
वायु	-4245
▁उठाए	-4246
▁ब्ल	-4247
▁अस्थ	-4248
▁आज्ञा	-4249
▁28	-4250
▁आओ	-4251
▁वैसे	-4252
▁धैर्य	-4253
जिस	-4254
▁दशक	-4255
▁अस्था	-4256
▁हैंः	-4257
▁राजनैतिक	-4258
▁इन्कार	-4259
▁पूर्वी	-4260
▁संगठनों	-4261
▁उधार	-4262
▁पसन्द	-4263
▁मुझसे	-4264
▁प्राधिकारी	-4265
▁नबी	-4266
▁पाई	-4267
▁आवास	-4268
▁सच्चा	-4269
▁सशक्त	-4270
▁l	-4271
पथ	-4272
▁दाह	-4273
▁(%	-4274
▁टा	-4275
▁पंजीकरण	-4276
▁22	-4277
ंठ	-4278
लीय	-4279
▁जय	-4280
▁प्रेरणा	-4281
अर	-4282
ज़ल	-4283
▁अर्थात	-4284
▁उद्योगों	-4285
▁काफ़ी	-4286
ूदी	-4287
▁उत्सा	-4288
▁निकाय	-4289
▁शिकार	-4290
▁23	-4291
▁ऑफ़	-4292
▁पाते	-4293
▁साफ़	-4294
▁प्रतीक्षा	-4295
▁कार्यान्वयन	-4296
ri	-4297
कभी	-4298
▁अत	-4299
▁उपभोक्ता	-4300
वित	-4301
प्रति	-4302
▁शहरी	-4303
▁शारीरिक	-4304
ष्टा	-4305
▁अहम	-4306
▁लिखित	-4307
▁जागर	-4308
प्ति	-4309
त्कार	-4310
▁अधिसूचना	-4311
▁पड़ी	-4312
▁सृजन	-4313
▁औसत	-4314
▁किलो	-4315
▁चुने	-4316
▁प्ल	-4317
▁मुश्	-4318
▁निगर	-4319
▁निहित	-4320
▁मुद्र	-4321
ंडी	-4322
धों	-4323
▁बाग	-4324
▁धु	-4325
▁मुद्दों	-4326
अत	-4327
अमत	-4328
▁सिक्	-4329
▁किस्म	-4330
▁इलेक्ट्र	-4331
▁27	-4332
▁टीम	-4333
इल	-4334
▁गौर	-4335
▁सजा	-4336
▁उठाया	-4337
▁तल	-4338
▁औलाद	-4339
▁सन्तान	-4340
▁नमू	-4341
▁पाठ्यक्रम	-4342
ंगिक	-4343
▁डाय	-4344
▁उच्चतम	-4345
▁सुविधाओं	-4346
▁टेली	-4347
▁सुभाष	-4348
▁तूने	-4349
▁यूसु	-4350
▁अमेरिकी	-4351
▁शैक्षिक	-4352
रात	-4353
सायिक	-4354
▁परेश	-4355
▁जिनसे	-4356
श्रम	-4357
ुस्तान	-4358
▁चुनौती	-4359
थे	-4360
्लो	-4361
▁Name	-4362
जब	-4363
▁साथी	-4364
▁सहज	-4365
पालिका	-4366
▁घटा	-4367
स्तिष्क	-4368
▁आंख	-4369
▁मस्	-4370
▁डाउनलोड	-4371
संस्	-4372
▁तकनीक	-4373
थी	-4374
▁of	-4375
▁हत्या	-4376
▁परिवहन	-4377
▁आबाद	-4378
▁मिनट	-4379
चारिक	-4380
▁प्रोत्साहित	-4381
ड़ते	-4382
▁सड़क	-4383
समय	-4384
▁घंटे	-4385
कीन	-4386
▁आश	-4387
▁जनजा	-4388
▁श्रम	-4389
▁श्रृंखला	-4390
▁फें	-4391
▁गणना	-4392
दास	-4393
▁नयी	-4394
▁सेटिंग	-4395
▁आकर	-4396
▁देर	-4397
▁सराह	-4398
▁पेंशन	-4399
▁ईमानदार	-4400
▁हमसे	-4401
▁आना	-4402
▁पति	-4403
▁अगला	-4404
क्ष्य	-4405
▁कहाँ	-4406
▁कार्यवाही	-4407
ेंज	-4408
▁छात्रों	-4409
क़्त	-4410
▁छाप	-4411
्यवाद	-4412
▁स्ना	-4413
▁जैव	-4414
▁सें	-4415
शीलता	-4416
▁पूज्य	-4417
▁बिहार	-4418
▁अन्यथा	-4419
▁निगरानी	-4420
5)	-4421
▁कब	-4422
कुछ	-4423
▁क़ुरान	-4424
दंड	-4425
तीत	-4426
▁समीक्षा	-4427
▁रेलवे	-4428
▁ज़िन्दगी	-4429
क़रीब	-4430
▁परिवर्तित	-4431
▁बहुते	-4432
केट	-4433
▁घड़ी	-4434
▁बदलने	-4435
ंदन	-4436
ंदु	-4437
र्ती	-4438
▁समर्पित	-4439
ैनिक	-4440
▁आलो	-4441
गारों	-4442
▁फिरऔन	-4443
▁कनेक्शन	-4444
▁संयंत्र	-4445
▁केरल	-4446
▁रहमत	-4447
▁जिले	-4448
▁कलकत्ता	-4449
टेन	-4450
ुक्ति	-4451
न्द्रनाथ	-4452
▁इंटरनेट	-4453
▁विरोधी	-4454
▁सै	-4455
▁विधेयक	-4456
टो	-4457
िड	-4458
▁मिलेगा	-4459
ंपरिक	-4460
▁लगते	-4461
▁ज़ाहिर	-4462
ेरत	-4463
▁कहान	-4464
▁नवीन	-4465
▁स्मार	-4466
न्ड	-4467
▁तस्वी	-4468
▁महाराष्ट्र	-4469
ME	-4470
▁धारण	-4471
▁इसको	-4472
▁शिखर	-4473
▁उत्तरा	-4474
ase	-4475
चानक	-4476
▁अकबर	-4477
▁चालू	-4478
▁लाते	-4479
▁सचिव	-4480
▁नुक	-4481
▁नक़ल	-4482
▁लिंक	-4483
▁एड	-4484
▁चो	-4485
▁सुदृ	-4486
▁अनुपात	-4487
▁आसपास	-4488
▁समग्र	-4489
▁सचे	-4490
▁होम	-4491
▁रौशन	-4492
वधि	-4493
▁जेल	-4494
▁तथापि	-4495
▁मुक़र्रर	-4496
मार्ग	-4497
्यूट	-4498
▁तिर	-4499
▁देय	-4500
▁जरिए	-4501
▁प्रारंभिक	-4502
▁आर्	-4503
▁क़ाय	-4504
▁सूत्र	-4505
ंटर	-4506
मियान	-4507
▁पृष्ठभूमि	-4508
▁भेजें	-4509
▁मिसाल	-4510
▁उपा	-4511
▁शहरों	-4512
जल	-4513
▁गुफा	-4514
▁अचानक	-4515
▁सॉफ्टवेयर	-4516
।-	-4517
नाह	-4518
▁शरीक	-4519
▁श्रेष्ठ	-4520
:-	-4521
मेट	-4522
▁बग	-4523
▁”-	-4524
▁बटन	-4525
▁इनका	-4526
▁हवाई	-4527
▁टैग	-4528
वण	-4529
▁मूल्यों	-4530
ढ़ा	-4531
ाये	-4532
▁सुझाव	-4533
▁जलवायु	-4534
▁हार्	-4535
▁जुलाई	-4536
▁(3)	-4537
▁महात्मा	-4538
▁कदापि	-4539
ष्ठा	-4540
ड़ियों	-4541
▁निष्क्रिय	-4542
▁गोल	-4543
लैंड	-4544
▁गें	-4545
▁अभिय	-4546
▁विभाजन	-4547
▁कीट	-4548
▁खींच	-4549
▁W	-4550
▁प्रयत्न	-4551
चालित	-4552
प्राप्त	-4553
iii	-4554
ोबार	-4555
▁मोबाइल	-4556
पार	-4557
मतौर	-4558
▁मुश	-4559
▁शोध	-4560
▁अभिव्यक्ति	-4561
▁शौ	-4562
▁लंबे	-4563
▁रोकने	-4564
▁दरमियान	-4565
मोह	-4566
ोजी	-4567
▁प्राधिकरण	-4568
▁इसने	-4569
▁परमाण	-4570
भ्र	-4571
▁क्	-4572
▁मं	-4573
ंत्रिक	-4574
vi	-4575
रत	-4576
▁Y	-4577
गामी	-4578
▁नाथ	-4579
▁सजदा	-4580
शुदा	-4581
▁द्वितीय	-4582
ेय	-4583
विधि	-4584
▁ग्राहक	-4585
▁नेताओं	-4586
▁विश्वविद्यालयों	-4587
ियामत	-4588
▁घाटे	-4589
ॉट	-4590
▁करोगे	-4591
▁चिंता	-4592
ur	-4593
कां	-4594
नाश	-4595
▁विशेषकर	-4596
ायी	-4597
▁निच	-4598
▁इकट्ठा	-4599
▁पारंपरिक	-4600
▁मर्द	-4601
▁मांस	-4602
▁योजनाओं	-4603
▁सिल	-4604
शास्त्र	-4605
▁रसूलों	-4606
एच	-4607
म्मत	-4608
▁पेड़	-4609
▁चलाने	-4610
▁ज्ञात	-4611
▁फ़ॉन्ट	-4612
▁अनुदान	-4613
▁युक्ति	-4614
▁समर्थित	-4615
क्रिप	-4616
▁प्रतिनिधि	-4617
▁शान	-4618
▁क्षमाशील	-4619
▁चुनौ	-4620
▁पुरानी	-4621
▁मुलाकात	-4622
▁मुश्किल	-4623
िकेट	-4624
ूर्ण	-4625
▁नुकसान	-4626
▁आकर्षित	-4627
▁ज़्यादा	-4628
▁सफ	-4629
▁साझा	-4630
न्या	-4631
▁उक्त	-4632
....	-4633
द्वीप	-4634
▁मौल	-4635
▁कामना	-4636
▁राजनीति	-4637
ow	-4638
▁कंपनियों	-4639
▁आराम	-4640
क्रो	-4641
▁आमतौर	-4642
▁अनक़रीब	-4643
लिया	-4644
प्रदाय	-4645
▁दाखिल	-4646
▁घटनाओं	-4647
▁जोड़ने	-4648
ंतरण	-4649
ठे	-4650
▁खान	-4651
hi	-4652
▁जर्म	-4653
▁कम्पनी	-4654
▁बिलकुल	-4655
▁नियंत्रित	-4656
बानी	-4657
▁देखे	-4658
▁संदेह	-4659
▁वाक़िफ	-4660
▁नस्	-4661
▁अपमान	-4662
▁प्रविष्ट	-4663
▁भंडारण	-4664
▁लै	-4665
▁जड़	-4666
▁लकड़ी	-4667
▁दिखाता	-4668
क़ा	-4669
▁औप	-4670
▁नंबर	-4671
▁सुदृढ़	-4672
▁कराया	-4673
▁चन्द्र	-4674
▁अवज्ञा	-4675
मण	-4676
▁80	-4677
▁इनकी	-4678
▁आमंत्र	-4679
साफ़	-4680
▁192	-4681
तावनी	-4682
▁समित	-4683
मै	-4684
▁ईमेल	-4685
▁समावेश	-4686
भाविक	-4687
▁कमजोर	-4688
▁फरवरी	-4689
▁सब्र	-4690
▁प्रशासनिक	-4691
मती	-4692
▁नाग	-4693
▁बख्शने	-4694
▁तत्वदर्शी	-4695
▁आफ	-4696
कर्ष	-4697
▁उत्तरी	-4698
ज्ज	-4699
िटी	-4700
दायी	-4701
आख़िर	-4702
▁मुद्	-4703
▁नेअमत	-4704
▁संविदा	-4705
▁कुफ्फ़ार	-4706
▁मस्तिष्क	-4707
▁पट्ट	-4708
▁मध्यम	-4709
ार्थी	-4710
ोटो	-4711
ुरान	-4712
ूंकि	-4713
▁दुखद	-4714
▁मुकद	-4715
▁काला	-4716
▁संसदीय	-4717
▁ज़िन्दा	-4718
).	-4719
▁उपस्थिति	-4720
▁राजस्थान	-4721
▁सौर	-4722
▁आवाज	-4723
▁नहरें	-4724
▁शक्तियों	-4725
खो	-4726
न्दु	-4727
ग्रस्त	-4728
▁संतुल	-4729
▁चेतावनी	-4730
▁चुना	-4731
नीन	-4732
▁बढ़ती	-4733
▁2000	-4734
>>	-4735
▁कुफ़्र	-4736
ॉल्ट	-4737
ेंसी	-4738
▁सागर	-4739
-0	-4740
▁संपादक	-4741
▁विनिमय	-4742
▁मारे	-4743
▁थोड़े	-4744
▁शत्रु	-4745
▁सलाम	-4746
▁समझने	-4747
▁1961	-4748
▁ढांचे	-4749
▁व्यावसायिक	-4750
fo	-4751
▁रण	-4752
▁ब्राह	-4753
▁कोशिका	-4754
ॉँ	-4755
▁खड़ी	-4756
▁अपेक्षित	-4757
▁आकृति	-4758
▁द्विप	-4759
▁सभ्यता	-4760
▁मुसी	-4761
नेवालो	-4762
▁देखना	-4763
बीह	-4764
अज़ाब	-4765
▁बस्ती	-4766
सोस	-4767
▁बहुम	-4768
▁साझे	-4769
▁फ़रमा	-4770
▁प्रभुत्वशाली	-4771
▁५	-4772
▁टिक	-4773
▁शुरु	-4774
ाइन	-4775
em	-4776
▁चूंकि	-4777
0}	-4778
स्फ	-4779
सारिक	-4780
▁सबके	-4781
▁खोलने	-4782
माल	-4783
ंचित	-4784
▁चली	-4785
पेक्ष	-4786
▁भेंट	-4787
थान	-4788
भावना	-4789
▁दादा	-4790
▁जानने	-4791
स्थापित	-4792
▁मृ	-4793
▁नेकी	-4794
घर	-4795
▁हटकर	-4796
▁कड़ी	-4797
▁नद	-4798
▁रिया	-4799
▁ईमानवालों	-4800
▁परमाणु	-4801
▁मस्जि	-4802
पह	-4803
▁दोहरा	-4804
▁स्वाम	-4805
▁अन्ततः	-4806
▁सांसारिक	-4807
वेद	-4808
▁लिखे	-4809
▁गिरफ्त	-4810
▁विरासत	-4811
ातु	-4812
▁कही	-4813
▁मिट	-4814
▁महल	-4815
▁चीनी	-4816
▁रहेगी	-4817
▁आह	-4818
▁निवास	-4819
▁संबद्ध	-4820
▁प्रतिबद्ध	-4821
▁रवी	-4822
▁दोबारा	-4823
▁४	-4824
▁अन्तर	-4825
▁अभाव	-4826
▁परिसर	-4827
तरित	-4828
▁गांवों	-4829
▁राजधानी	-4830
▁तोड़	-4831
▁युवाओं	-4832
ख्ते	-4833
घटना	-4834
▁वंश	-4835
▁गुमराह	-4836
▁मिलेगी	-4837
नीति	-4838
▁सतह	-4839
▁प्रान्त	-4840
स्पर्	-4841
▁स्वर	-4842
▁सुनने	-4843
फ़ि	-4844
▁पारि	-4845
▁बाह्य	-4846
▁मिलते	-4847
▁सिविल	-4848
▁चरित्र	-4849
▁सम्पूर्ण	-4850
▁सम्बन्धी	-4851
▁पैग़म्बरों	-4852
▁संग्र	-4853
तरी	-4854
नाटक	-4855
▁/	-4856
▁रोगी	-4857
▁परिचय	-4858
▁लंबी	-4859
▁बारगाह	-4860
जिट	-4861
साइ	-4862
▁40	-4863
▁अश	-4864
िप्त	-4865
▁न्यास	-4866
og	-4867
मति	-4868
▁तेरी	-4869
्याद	-4870
▁अभिक	-4871
▁हिंसा	-4872
▁एकमात्र	-4873
▁उल्ल	-4874
▁चेहरे	-4875
▁तस्वीर	-4876
व्यव	-4877
ॉर्ड	-4878
▁वीर	-4879
▁तयशुदा	-4880
▁प्रबंधक	-4881
रचना	-4882
▁इंच	-4883
▁निः	-4884
▁कैसा	-4885
धर्म	-4886
▁दाख़	-4887
▁नियुक्ति	-4888
▁अं	-4889
▁ठहर	-4890
▁नारा	-4891
▁विनष्ट	-4892
चरण	-4893
▁लेखन	-4894
जाम	-4895
बेस	-4896
▁याच	-4897
▁प्री	-4898
▁संगम	-4899
▁सकेंगे	-4900
▁अस्थायी	-4901
dia	-4902
ाइड	-4903
▁अदालत	-4904
▁अवतरित	-4905
▁मिलियन	-4906
▁()	-4907
▁तलाश	-4908
▁अनुग्रह	-4909
▁थोड़ी	-4910
पत	-4911
▁कच	-4912
▁जला	-4913
▁पुष्टि	-4914
बरा	-4915
िकमत	-4916
▁बाकी	-4917
▁कुरान	-4918
▁भेजने	-4919
▁बिगा	-4920
▁हँ	-4921
▁खण्ड	-4922
▁विविधता	-4923
▁इल्म	-4924
▁लाइस	-4925
▁खि	-4926
▁सन्द	-4927
▁अस्वी	-4928
▁रिक्त	-4929
▁डरो	-4930
▁फैल	-4931
रूद्ध	-4932
▁मानवीय	-4933
ेन	-4934
त्स	-4935
▁समझौते	-4936
्यु	-4937
▁वर्गों	-4938
▁क़ियामत	-4939
▁फ़ाइलें	-4940
काब	-4941
▁गेंद	-4942
▁पुस्तकालय	-4943
▁आयी	-4944
मिटेड	-4945
▁आहार	-4946
पंथ	-4947
बाज	-4948
▁मेन	-4949
▁उन्न	-4950
ंडा	-4951
्मण	-4952
पक्ष	-4953
info	-4954
ंध्र	-4955
▁कॉल	-4956
▁पालने	-4957
▁दर्श	-4958
▁दाख़िल	-4959
▁गिन	-4960
▁इमार	-4961
▁तुरंत	-4962
▁शर्तों	-4963
▁ऑडियो	-4964
र्की	-4965
▁ड्राइ	-4966
▁प्रतियोग	-4967
▁सुविधाएं	-4968
यिक	-4969
▁चुप	-4970
▁प्रथा	-4971
▁मूर्	-4972
▁बनाता	-4973
▁जाल	-4974
▁भले	-4975
टका	-4976
त्ल	-4977
▁ब्राउ	-4978
▁दिखाने	-4979
ीकृत	-4980
lease	-4981
▁मुर्	-4982
▁सफेद	-4983
्पणी	-4984
▁टैब	-4985
▁निकाला	-4986
▁विभाजित	-4987
▁जिम्मेदारी	-4988
कृष्ण	-4989
▁सराहना	-4990
▁लिमिटेड	-4991
▁अनुसूचित	-4992
▁सर्वोत्तम	-4993
30	-4994
ोष	-4995
चार्य	-4996
▁दोनो	-4997
्यास	-4998
▁क़ायम	-4999
▁स्कीम	-5000
▁समुद्री	-5001
निंग	-5002
सीसी	-5003
▁निरीक्षण	-5004
▁डिजा	-5005
▁हिकमत	-5006
▁गुनाहों	-5007
फ़ी	-5008
▁बनाये	-5009
▁क़िस्म	-5010
¤1⁄4	-5011
▁वरि	-5012
▁अवधार	-5013
▁कार्	-5014
ॉलर	-5015
▁ऑंख	-5016
▁तारा	-5017
▁शिक्षक	-5018
▁संपादित	-5019
साम	-5020
्रेट	-5021
निष्ठ	-5022
▁डिफ़	-5023
▁बच्चा	-5024
▁स्वीकृति	-5025
▁नवान्वेषण	-5026
जैसे	-5027
संबर	-5028
▁मॉडल	-5029
▁जुड़ा	-5030
▁संध्या	-5031
क्य	-5032
पणन	-5033
▁पत	-5034
▁पार्	-5035
▁फिली	-5036
नात्मक	-5037
▁सितंबर	-5038
▁क्ला	-5039
▁पाँच	-5040
ंछ	-5041
गन	-5042
ैत	-5043
गमन	-5044
▁3.	-5045
▁स्वस्थ	-5046
▁भरा	-5047
▁ख़ुश	-5048
▁कश्मीर	-5049
वलोकन	-5050
्यूब	-5051
▁अनुमोदन	-5052
▁प्ला	-5053
▁उपखंड	-5054
▁वस्त्र	-5055
▁ठोस	-5056
वर्त	-5057
▁खराब	-5058
▁ताकत	-5059
▁हार्दिक	-5060
▁दबाव	-5061
▁संपादन	-5062
▁बुरे	-5063
नेवाली	-5064
▁क़ुरआन	-5065
▁आवश्यकताओं	-5066
▁वार्	-5067
▁जम्	-5068
श्वास	-5069
▁लाइसेंस	-5070
न्ध	-5071
▁मोदी	-5072
AN	-5073
▁समृद्धि	-5074
▁प्रतिष्ठित	-5075
12	-5076
▁खत्म	-5077
▁हड्ड	-5078
▁दैनिक	-5079
▁प्रदूषण	-5080
▁अपरि	-5081
▁भावी	-5082
▁विहित	-5083
▁नीतियों	-5084
वश	-5085
मगर	-5086
▁अभिलाभ	-5087
▁संग्रहालय	-5088
अल	-5089
हो	-5090
सेट	-5091
िने	-5092
ख्यात	-5093
▁राहत	-5094
मुसलमान	-5095
▁प्लगइन	-5096
▁पर्	-5097
▁चौड़ाई	-5098
▁प्रतिभूति	-5099
ज़िर	-5100
▁सुनते	-5101
▁हक	-5102
▁प्रवाह	-5103
▁प्रचलित	-5104
▁गौ	-5105
▁अली	-5106
▁समूहों	-5107
▁द्विपक्षीय	-5108
▁ऊपरी	-5109
ग्ध	-5110
▁यो	-5111
▁चिप	-5112
वादियों	-5113
▁अफ़	-5114
▁मृत	-5115
▁नाते	-5116
▁स्वचालित	-5117
ैरह	-5118
स्ट्र	-5119
▁सोचा	-5120
▁सुनता	-5121
हिता	-5122
▁जोड़ा	-5123
60	-5124
▁पैके	-5125
▁विक्र	-5126
▁भरे	-5127
▁2016	-5128
▁परिभाषित	-5129
▁बिंदु	-5130
▁उन्होने	-5131
याय	-5132
क़त	-5133
हाल	-5134
▁आदान	-5135
स्कट	-5136
▁उतना	-5137
दीक	-5138
▁अग्रणी	-5139
▁कू	-5140
▁द्वि	-5141
▁मछली	-5142
मंड	-5143
▁सावधान	-5144
ist	-5145
▁मौजि	-5146
▁सरकशी	-5147
▁जहन्नम	-5148
▁स्वाभाविक	-5149
-19	-5150
ome	-5151
ायर	-5152
▁बारी	-5153
उंड	-5154
▁कब्	-5155
▁विपणन	-5156
धारी	-5157
ार्ज	-5158
▁दान	-5159
▁उन्नत	-5160
▁टूट	-5161
▁बोली	-5162
▁संक्रमण	-5163
स्को	-5164
▁उगा	-5165
▁हरि	-5166
▁डो	-5167
)...	-5168
▁भारतीयों	-5169
ूहिक	-5170
▁परे	-5171
▁चिह्नित	-5172
▁श्रद्धा	-5173
▁रेश	-5174
▁फ़िल	-5175
▁बहुतेरे	-5176
ag	-5177
▁छि	-5178
▁गर्म	-5179
▁रोज़	-5180
▁साइट	-5181
▁चैनल	-5182
▁समझे	-5183
▁बाधा	-5184
▁नेपाल	-5185
▁दिसंबर	-5186
ट्	-5187
▁लेती	-5188
▁कपड़े	-5189
▁ज़ालिमों	-5190
▁मक	-5191
सागर	-5192
▁रिज	-5193
▁जन्नत	-5194
▁लानेवालो	-5195
क्क	-5196
फोन	-5197
हाई	-5198
▁चतु	-5199
▁हुक	-5200
▁आजादी	-5201
दल	-5202
रीबी	-5203
स्तर	-5204
▁वकी	-5205
फो	-5206
लक	-5207
▁अँ	-5208
रेखा	-5209
▁ज़रा	-5210
▁मुंह	-5211
Comment	-5212
▁उत्साह	-5213
▁मंदिरों	-5214
▁डिफ़ॉल्ट	-5215
▁अर्ध	-5216
▁भेजी	-5217
▁उतारा	-5218
▁यूनिट	-5219
▁टिप्पणी	-5220
-2018	-5221
कार्य	-5222
▁कृतज्ञ	-5223
▁सप	-5224
▁असर	-5225
▁कैं	-5226
▁लाओ	-5227
▁गिरा	-5228
▁ट्रे	-5229
▁अवसरों	-5230
▁साहित्यिक	-5231
▁2013	-5232
▁छाया	-5233
▁ऊंचाई	-5234
▁वर्गी	-5235
▁मुसीबत	-5236
▁कर्नाटक	-5237
▁छुपा	-5238
▁देखी	-5239
▁प्रविष्टि	-5240
पात	-5241
बाल	-5242
▁टॉ	-5243
▁सन	-5244
▁कर्तव्य	-5245
▁गू	-5246
▁स्ट्र	-5247
-8	-5248
जान	-5249
ेंद्र	-5250
▁कुमार	-5251
▁बन्दे	-5252
▁अस्पताल	-5253
राईल	-5254
▁मानना	-5255
▁समझता	-5256
▁y	-5257
▁६	-5258
माना	-5259
▁दुर	-5260
▁चाहा	-5261
▁लगाए	-5262
्यादती	-5263
▁पर्वत	-5264
us	-5265
▁दह	-5266
▁फ्र	-5267
उप	-5268
तिश	-5269
पिता	-5270
▁खाओ	-5271
क्रिप्ट	-5272
दरा	-5273
▁घटक	-5274
▁क़दम	-5275
▁फ़िल्म	-5276
मेरे	-5277
▁दुः	-5278
▁क्रो	-5279
▁सीधी	-5280
▁संवर्धन	-5281
▁महीनों	-5282
▁सामूहिक	-5283
▁व्	-5284
▁ट्रै	-5285
▁विद्र	-5286
▁हितों	-5287
▁डेस्कट	-5288
▁सदी	-5289
शिष्ट	-5290
▁जिहाद	-5291
▁भक्ति	-5292
ड़ित	-5293
क्षिप्त	-5294
▁स्वर्ण	-5295
▁35	-5296
ष्णु	-5297
▁धन्यवाद	-5298
▁दुर्घटना	-5299
▁V	-5300
▁गार	-5301
▁चाहें	-5302
▁प्रतिस्पर्	-5303
य्य	-5304
▁बोस	-5305
▁मकान	-5306
ंची	-5307
तौर	-5308
▁रूस	-5309
▁अरबी	-5310
तियां	-5311
▁सचेत	-5312
▁बादशाह	-5313
ंटा	-5314
▁क़त्ल	-5315
्मा	-5316
▁उद्ध	-5317
▁गहरी	-5318
▁सत्यापन	-5319
मूल	-5320
दूरी	-5321
▁जवा	-5322
▁यूरोपीय	-5323
▁अन्तर्गत	-5324
▁दिव्य	-5325
▁भरी	-5326
▁पुष्	-5327
प्रदान	-5328
▁to	-5329
▁वरिष्ठ	-5330
कोश	-5331
सीन	-5332
ार्ट	-5333
▁फर्म	-5334
▁अग्रिम	-5335
▁डिजिट	-5336
▁समानता	-5337
रेख	-5338
्यूल	-5339
▁कारणों	-5340
▁सीमाओं	-5341
uot	-5342
ॉनिक	-5343
ेश्वर	-5344
▁आएगा	-5345
▁आरोप	-5346
दर्शिता	-5347
▁पक्षों	-5348
▁जानवरों	-5349
▁देवता	-5350
▁पैमाने	-5351
ंघन	-5352
राव	-5353
मर्श	-5354
▁लूत	-5355
▁पीढ़ी	-5356
▁पासवर्ड	-5357
हमारे	-5358
▁सदस्यता	-5359
▁फु	-5360
शाही	-5361
▁बैक	-5362
▁मक्	-5363
▁दौड़	-5364
▁सीडी	-5365
▁त्वचा	-5366
▁बाध्य	-5367
▁करु	-5368
▁ऊँचा	-5369
▁ब्रि	-5370
▁अक्षर	-5371
▁पत्रिका	-5372
▁संरक्षक	-5373
िकता	-5374
▁एक्	-5375
▁उल्लेखनीय	-5376
▁सहमत	-5377
क्तूबर	-5378
▁चाहेंगे	-5379
संप	-5380
ण्य	-5381
▁मुकाब	-5382
▁शिक्षण	-5383
▁यूसुफ	-5384
▁तत्काल	-5385
▁साथियों	-5386
▁अनुज्ञात	-5387
िमा	-5388
▁60	-5389
▁नौकरी	-5390
▁डेस्कटॉप	-5391
▁चीजों	-5392
▁अपनाया	-5393
▁चिकित्स	-5394
न्थ	-5395
▁रवि	-5396
▁जम्मू	-5397
▁प्रतिबंध	-5398
▁दर्दना	-5399
▁विनिर्माण	-5400
▁ग़ौर	-5401
▁दर्द	-5402
▁हमको	-5403
▁जितनी	-5404
▁मिलाकर	-5405
ुरी	-5406
▁इसराईल	-5407
▁मोमिनीन	-5408
▁i	-5409
ेरे	-5410
▁पहलू	-5411
▁उभ	-5412
▁उड़ा	-5413
▁कच्च	-5414
धिकारी	-5415
▁पूर्वो	-5416
▁विद्या	-5417
▁अंतरिक्ष	-5418
▁बांग	-5419
संच	-5420
▁घु	-5421
▁चेक	-5422
▁टू	-5423
ित्त	-5424
▁डिजाइन	-5425
▁प्रारम्भ	-5426
▁आंध्र	-5427
क्योंकि	-5428
▁>>	-5429
▁कोय	-5430
फू	-5431
▁तुम्हे	-5432
▁रेडियो	-5433
▁क्रिकेट	-5434
▁विरूद्ध	-5435
▁32	-5436
\\	-5437
कू	-5438
▁कष्ट	-5439
▁खिस	-5440
▁मजदूर	-5441
▁याचिका	-5442
▁असाधारण	-5443
▁तकलीफ़	-5444
▁पूर्ति	-5445
▁यथास्थिति	-5446
डो	-5447
जाल	-5448
िरो	-5449
▁पूर्वावलोकन	-5450
▁चोट	-5451
▁नाप	-5452
▁डॉलर	-5453
▁बिगाड़	-5454
▁शोक	-5455
▁अहले	-5456
▁चंद्र	-5457
▁फ़िरऔन	-5458
अनु	-5459
▁29	-5460
श्री	-5461
▁नेशनल	-5462
AT	-5463
काता	-5464
▁बुल	-5465
म्परा	-5466
ंगों	-5467
▁हिमा	-5468
.2	-5469
▁अर्जित	-5470
▁यूँ	-5471
▁हला	-5472
▁दावे	-5473
▁तीसरे	-5474
▁सम्भव	-5475
▁उपयोगकर्ता	-5476
▁तंग	-5477
▁दर्दनाक	-5478
▁निष्कर्ष	-5479
▁पुस्तकों	-5480
and	-5481
▁वस	-5482
▁तत्वों	-5483
▁प्रतियोगिता	-5484
as	-5485
▁यौ	-5486
▁पौधों	-5487
▁कठिनाई	-5488
14	-5489
▁यथ	-5490
▁चाय	-5491
▁प्रेस	-5492
▁फ़रिश्ते	-5493
ंख्य	-5494
india	-5495
▁2006	-5496
▁अंतः	-5497
▁ब्य	-5498
लिप	-5499
▁गहन	-5500
▁बजट	-5501
▁घाटी	-5502
▁समाय	-5503
ैया	-5504
त्ते	-5505
▁बचाव	-5506
▁बांध	-5507
▁इंडियन	-5508
▁निशानियों	-5509
▁पाइ	-5510
▁पैरा	-5511
▁संहिता	-5512
▁पंजीकृत	-5513
ion	-5514
नान	-5515
▁रिस	-5516
▁हरे	-5517
▁काली	-5518
ब्ब	-5519
्रोल	-5520
▁दास	-5521
▁राजस्व	-5522
▁अक्तूबर	-5523
▁क्रांति	-5524
SL	-5525
द्दी	-5526
ानिक	-5527
▁साँ	-5528
▁बारह	-5529
▁दुश्म	-5530
▁प्रेषित	-5531
ुसार	-5532
▁पाद	-5533
पूर	-5534
किसी	-5535
▁उपकरणों	-5536
▁फि	-5537
▁ख़ौ	-5538
▁गरीबी	-5539
ation	-5540
ात्मक	-5541
रुप	-5542
▁छोड़ा	-5543
मुसलमानों	-5544
ad	-5545
सेस	-5546
▁मूलभूत	-5547
▁कॉन्फ़ि	-5548
▁त्रुटिः	-5549
▁कहे	-5550
▁कहला	-5551
▁कनेक्ट	-5552
कल्प	-5553
पश्च	-5554
▁खतरा	-5555
▁बाबू	-5556
▁सांस	-5557
▁केंद्रित	-5558
▁उपर	-5559
ड़िया	-5560
▁गठित	-5561
▁बल्ले	-5562
▁काउ	-5563
▁नज़	-5564
जनन	-5565
ंडित	-5566
सनीय	-5567
▁परस	-5568
▁धातु	-5569
▁कहेगा	-5570
▁पैकेज	-5571
▁वार्ता	-5572
.5	-5573
▁शक्तिशाली	-5574
▁आब	-5575
निवेश	-5576
▁ईसाई	-5577
▁अधिकरण	-5578
▁मैत्री	-5579
दायक	-5580
▁जायें	-5581
▁चू	-5582
ंकित	-5583
etail	-5584
प्रभु	-5585
▁बैठा	-5586
▁लाना	-5587
▁फायदा	-5588
oc	-5589
ढ़े	-5590
▁अग्	-5591
▁शेय	-5592
▁सरकश	-5593
▁बैंकिंग	-5594
्नों	-5595
.)	-5596
ate	-5597
िली	-5598
यंती	-5599
▁आलोचना	-5600
▁व्यक्तित्व	-5601
ज़ोर	-5602
अच्छा	-5603
▁प्रस्तु	-5604
काय	-5605
▁क्व	-5606
▁सहमति	-5607
▁उद्यान	-5608
शांत	-5609
ुत्	-5610
▁औरत	-5611
स्ट्री	-5612
बेह	-5613
▁</	-5614
▁समन्वय	-5615
▁काफ़िरों	-5616
▁वाणिज्यिक	-5617
16	-5618
OR	-5619
टि	-5620
ादिर	-5621
▁2017	-5622
▁अब्द	-5623
▁देगें	-5624
▁जम	-5625
वंबर	-5626
▁नार	-5627
▁मरा	-5628
▁अकाद	-5629
▁जवाहर	-5630
▁काफिरों	-5631
▁सद्	-5632
▁ढांचा	-5633
▁फ़िल्टर	-5634
शः	-5635
▁लगती	-5636
▁संवेदन	-5637
▁परिवारों	-5638
▁1,	-5639
▁भटक	-5640
तू	-5641
▁2007	-5642
▁माने	-5643
▁संदाय	-5644
AP	-5645
▁ग्री	-5646
▁कामों	-5647
▁प्रणाल	-5648
▁कोविन्द	-5649
▁बौद्धिक	-5650
वानी	-5651
▁उर्व	-5652
▁निर्मा	-5653
▁मुक्ति	-5654
▁v	-5655
▁शान्त	-5656
▁मनुष्यों	-5657
▁सल	-5658
▁धारणा	-5659
▁फार्म	-5660
▁टो	-5661
▁पाब	-5662
press	-5663
▁रूपांत	-5664
▁जिम्मेदार	-5665
▁नेत्र	-5666
▁तैय	-5667
▁मादा	-5668
▁जोड़े	-5669
िरी	-5670
▁शरण	-5671
स्पति	-5672
▁पड़ती	-5673
▁प्रोज	-5674
▁मोमिन	-5675
▁सैनिक	-5676
▁विद्यालय	-5677
धानिक	-5678
▁कागज	-5679
▁उल्लंघन	-5680
▁चुनौतियों	-5681
सो	-5682
▁सकाः	-5683
▁शिशु	-5684
▁जायेगी	-5685
▁मॉड	-5686
▁रहस्य	-5687
▁पड़ेगा	-5688
▁ब्रह्म	-5689
▁मुगल	-5690
▁निवासी	-5691
▁औपचारिक	-5692
▁गवर्	-5693
▁बनकर	-5694
▁श्रमिक	-5695
ंजलि	-5696
जीवन	-5697
▁रोका	-5698
▁विद्वान	-5699
ैम	-5700
▁बेटा	-5701
▁साहस	-5702
स्ट्रे	-5703
▁प्रभाग	-5704
▁सुसंगत	-5705
▁फ़रिश्तों	-5706
ुरा	-5707
▁कक्षा	-5708
▁चीज़े	-5709
▁परम्परा	-5710
▁1961-2018	-5711
▁संक्षिप्त	-5712
▁सेल	-5713
▁फेंक	-5714
▁लिंग	-5715
ध्यक्ष	-5716
▁कारोबार	-5717
19	-5718
ियाई	-5719
▁ध्वज	-5720
▁चाहती	-5721
▁प्रसंस्	-5722
सीय	-5723
िश्र	-5724
▁अकेले	-5725
▁नवंबर	-5726
▁लगाना	-5727
▁चिंत	-5728
▁टुकड़े	-5729
▁तमिलना	-5730
▁प्रवृत्ति	-5731
▁r	-5732
▁2014	-5733
▁वकील	-5734
▁प्रत्या	-5735
▁पहन	-5736
▁वंचित	-5737
▁दक्षिणी	-5738
क्षणिक	-5739
▁पैरवी	-5740
▁निष्पादन	-5741
▁इक	-5742
▁अम्	-5743
▁जयंती	-5744
▁निकले	-5745
▁बढ़ने	-5746
▁कॉन्फ़िगर	-5747
वारी	-5748
▁जिसपर	-5749
पेट	-5750
▁सब्	-5751
▁अंतराल	-5752
▁बाग़ों	-5753
▁बस्तियों	-5754
काने	-5755
▁बेल	-5756
पूर्ति	-5757
▁क़ुबूल	-5758
▁संभावित	-5759
नाक	-5760
▁बढा	-5761
▁स्वामित्व	-5762
▁गै	-5763
ident	-5764
कर्षण	-5765
▁2005	-5766
▁साव	-5767
स्तानी	-5768
▁चीजें	-5769
▁प्यार	-5770
गों	-5771
▁गर	-5772
▁परसतिश	-5773
▁इस्लामी	-5774
पल	-5775
वती	-5776
्वान	-5777
▁हिमालय	-5778
त्ती	-5779
▁कॉलेज	-5780
▁यहूदी	-5781
▁पदार्थों	-5782
▁छू	-5783
▁अगली	-5784
▁पिछली	-5785
▁विद्यार्थी	-5786
ूली	-5787
▁आल	-5788
▁खतर	-5789
▁अभिन	-5790
▁हाथी	-5791
स्थल	-5792
▁आबादी	-5793
▁समुचित	-5794
▁उपलब्धि	-5795
▁ज़ोर	-5796
▁लेगा	-5797
सूर	-5798
ब्रे	-5799
▁नोड	-5800
▁साध	-5801
▁तंत्रिका	-5802
▁‘‘	-5803
ofindia	-5804
▁पहुंचे	-5805
▁इजा	-5806
▁ताला	-5807
▁फोटो	-5808
▁संचालित	-5809
▁प्रवृत्त	-5810
▁गहराई	-5811
▁मस्जिद	-5812
president	-5813
डकर	-5814
▁for	-5815
ख्तेयार	-5816
▁उभर	-5817
▁देशी	-5818
धीरे	-5819
र्ज़	-5820
▁पीने	-5821
release	-5822
▁प्रोटोक	-5823
▁सम्पर्क	-5824
▁खिल	-5825
▁पैसे	-5826
▁रिजर्व	-5827
ङ्	-5828
ग्रहण	-5829
▁जुड़ी	-5830
▁शिक्षकों	-5831
presidentofindia	-5832
ंभव	-5833
▁छुटकारा	-5834
▁पेशे	-5835
▁स्टेशन	-5836
▁रिकार्ड	-5837
▁गिरफ्तार	-5838
ch	-5839
ुम्ब	-5840
▁समाह	-5841
▁पच	-5842
▁अमल	-5843
▁घूम	-5844
▁सरपर	-5845
detail	-5846
क्ताओं	-5847
दराबाद	-5848
▁स्वीकृत	-5849
दिरा	-5850
▁आनु	-5851
▁कराना	-5852
▁सामान्यतः	-5853
▁सफलतापूर्वक	-5854
▁पोषण	-5855
▁मनोर	-5856
▁सवार	-5857
▁रवीन्द्रनाथ	-5858
न्य	-5859
▁मिथ	-5860
▁चन्द	-5861
▁आसमानों	-5862
▁ब्रिटेन	-5863
▁आमंत्रित	-5864
▁हॉ	-5865
▁जीवा	-5866
▁उद्देश्यों	-5867
मों	-5868
कीर्ण	-5869
ग़रज़	-5870
▁इनसे	-5871
▁कोलकाता	-5872
▁UR	-5873
डिंग	-5874
▁रुचि	-5875
▁रहमान	-5876
दस्त	-5877
▁गर्व	-5878
▁गोया	-5879
▁प्रसंग	-5880
",	-5881
लभ	-5882
ंसिल	-5883
▁टर्म	-5884
▁कथन	-5885
▁इसपर	-5886
▁पूछो	-5887
कांक्षा	-5888
▁विष्णु	-5889
▁योग्यता	-5890
ex	-5891
▁जनरल	-5892
▁अर्ज़	-5893
ww	-5894
क्सा	-5895
िन्त	-5896
प्न	-5897
▁गौरव	-5898
▁ग्राफ	-5899
▁प्रकाशना	-5900
ंशिक	-5901
▁रानी	-5902
▁आज़मा	-5903
▁कर्ता	-5904
▁प्रास	-5905
▁सहन	-5906
▁दिलच	-5907
▁संस्थापित	-5908
ूष	-5909
www	-5910
▁छत	-5911
▁आपसे	-5912
क़ुरान	-5913
▁स्मरण	-5914
▁प्राधिकार	-5915
▁नै	-5916
▁जीन	-5917
▁स्थाना	-5918
्मी	-5919
▁“%	-5920
ड़ना	-5921
▁त्रि	-5922
खन	-5923
शंकर	-5924
▁अन्तिम	-5925
▁डिजिटल	-5926
▁मशीनरी	-5927
▁निकलने	-5928
▁सिद्धांतों	-5929
am	-5930
शनी	-5931
ार्इ	-5932
▁क्षण	-5933
▁वैसा	-5934
▁माध्य	-5935
▁आरंभिक	-5936
▁पहुंचने	-5937
▁उत्तरदायी	-5938
IN	-5939
▁गर्भ	-5940
▁नान	-5941
▁इलाज	-5942
▁घुमा	-5943
▁किलोमीटर	-5944
▁दिमा	-5945
▁जानकर	-5946
राष्ट्र	-5947
▁बांग्ला	-5948
बै	-5949
▁इलेक्ट्रॉनिक	-5950
11	-5951
AR	-5952
▁पड	-5953
▁आचरण	-5954
पादित	-5955
▁ज़कात	-5956
▁ट्रैक	-5957
▁रसायन	-5958
▁पंख	-5959
▁पार्क	-5960
▁बचत	-5961
▁पहाड़ी	-5962
▁स्वभाव	-5963
▁संशोधित	-5964
▁प्रयोगशाला	-5965
/-	-5966
▁पोत	-5967
▁मानी	-5968
▁पंडित	-5969
शित	-5970
▁चट्ट	-5971
▁डराने	-5972
▁अनुपालन	-5973
▁जातियों	-5974
▁वाक़िफ़	-5975
तोष	-5976
▁इम	-5977
बूती	-5978
▁कमरे	-5979
ao	-5980
▁(4)	-5981
▁बाहम	-5982
▁अनुसूची	-5983
अब	-5984
तरे	-5985
▁नक	-5986
ज़ाम	-5987
▁पांड	-5988
▁वारिस	-5989
▁मित्रों	-5990
▁अलब	-5991
▁ईमानवाले	-5992
नें	-5993
▁परो	-5994
▁मासिक	-5995
गारी	-5996
▁आउटपुट	-5997
▁तह	-5998
▁खनि	-5999
▁तापमान	-6000
▁एयर	-6001
खु	-6002
▁दरिया	-6003
▁मददगार	-6004
ंजा	-6005
पट्टी	-6006
▁पौधे	-6007
▁संवे	-6008
▁सम्रा	-6009
▁पुरुषों	-6010
▁हैदराबाद	-6011
लै	-6012
याद	-6013
दृश्य	-6014
▁बढ़ते	-6015
▁भर्ती	-6016
डन	-6017
खाव	-6018
▁झुक	-6019
▁जहाज	-6020
▁निवार	-6021
▁वर्णित	-6022
▁अत्याचार	-6023
▁फ्लै	-6024
▁बुलाया	-6025
▁पिला	-6026
▁मातृ	-6027
▁इंजीनिय	-6028
▁जीत	-6029
ख़बरी	-6030
▁आश्व	-6031
▁अत्याचारी	-6032
ज़ि	-6033
समें	-6034
▁देगी	-6035
▁परिक	-6036
▁पोजी	-6037
▁बचाने	-6038
▁मानवता	-6039
ख़ेरत	-6040
▁लड़की	-6041
▁इसीलिए	-6042
▁एकीकृत	-6043
▁सरपरस्त	-6044
▁अख	-6045
▁सोने	-6046
▁न्यायिक	-6047
ब्लिक	-6048
्लैंड	-6049
▁गहरे	-6050
▁संतु	-6051
▁रूपों	-6052
▁लोकता	-6053
▁तमिलनाडु	-6054
प्ट	-6055
▁१८	-6056
▁काश	-6057
▁वास	-6058
▁मंडल	-6059
▁इनपुट	-6060
▁पंचाय	-6061
▁वापसी	-6062
▁सकेगी	-6063
है	-6064
बूझ	-6065
पानी	-6066
▁बहा	-6067
▁फज़ल	-6068
बूर	-6069
▁नती	-6070
▁श्व	-6071
न्हीं	-6072
▁विनाश	-6073
▁समाहित	-6074
चिक	-6075
क्की	-6076
▁शिल्प	-6077
▁फ्रांस	-6078
▁महाराजा	-6079
लित	-6080
ोनें	-6081
▁उपे	-6082
▁चमक	-6083
बोर्ड	-6084
▁तुर्की	-6085
▁दूरस्थ	-6086
▁सिंचाई	-6087
▁हिंदुस्तान	-6088
हु	-6089
याल	-6090
राशि	-6091
्रोतों	-6092
▁क़रीब	-6093
▁कार्ब	-6094
▁लिखें	-6095
टाई	-6096
रीन	-6097
ोजक	-6098
▁काले	-6099
▁उच्चतर	-6100
▁सम्मानित	-6101
ub	-6102
ौरन	-6103
▁तैयारी	-6104
▁परिवेश	-6105
-#-#-#-#	-6106
ानत	-6107
ंतिक	-6108
▁2015	-6109
▁बहाद	-6110
▁मुख़	-6111
▁जापान	-6112
▁प्रोजेक्ट	-6113
अच्छ	-6114
▁आमाल	-6115
▁ज़रिए	-6116
▁#-#-#-#-#	-6117
सूची	-6118
▁आबंट	-6119
▁जायेंगे	-6120
ंबित	-6121
▁दाम	-6122
▁समितियों	-6123
बाजी	-6124
व्यवहार	-6125
▁शैक्षणिक	-6126
ia	-6127
▁फिट	-6128
▁फीस	-6129
▁अकार	-6130
▁अनाज	-6131
▁व्युत्	-6132
▁re	-6133
▁पट	-6134
▁१५	-6135
पंथी	-6136
▁सकी	-6137
▁सिंध	-6138
संरचना	-6139
▁पोस्ट	-6140
▁इन्सान	-6141
▁बहस	-6142
▁फ्रे	-6143
▁अकेला	-6144
▁जादूगर	-6145
▁परिभाषा	-6146
▁साक्ष्य	-6147
▁अग्नि	-6148
▁सावधानी	-6149
संघ	-6150
श्रे	-6151
पोषण	-6152
▁नवा	-6153
निर्भर	-6154
▁मौलिक	-6155
▁संदेय	-6156
▁सम्बंध	-6157
गरी	-6158
शोथ	-6159
▁झि	-6160
▁धम	-6161
▁अवय	-6162
▁उन्म	-6163
▁डालें	-6164
▁मानता	-6165
▁नवम्बर	-6166
विचार	-6167
▁रखकर	-6168
▁कोष	-6169
▁अमरीकी	-6170
▁महाभारत	-6171
▁बीस	-6172
▁इच्छ	-6173
कलापों	-6174
▁कुफ्र	-6175
▁तरीकों	-6176
▁वैज्ञानिकों	-6177
सेना	-6178
▁com	-6179
▁खून	-6180
▁अभिदाता	-6181
सलों	-6182
▁सहारा	-6183
▁पोजीशन	-6184
▁व्यस्त	-6185
जिन	-6186
▁जू	-6187
▁उपास	-6188
▁नस्ल	-6189
▁वरीय	-6190
▁लंबाई	-6191
▁शानदार	-6192
स्ट्रेलिया	-6193
▁चाँ	-6194
▁गाँव	-6195
▁दीक्षा	-6196
▁निकालने	-6197
▁परत	-6198
.2014	-6199
ng	-6200
फाई	-6201
ंतरित	-6202
च्छिक	-6203
▁झुका	-6204
▁कीजिए	-6205
▁संतोष	-6206
▁हस्तक्षेप	-6207
▁सैन्य	-6208
ण्	-6209
▁दरबार	-6210
▁हटाएँ	-6211
▁विद्रोह	-6212
निस	-6213
लास	-6214
▁सतत	-6215
▁पदों	-6216
▁चिन्ह	-6217
▁पुकारा	-6218
▁इंजीनियर	-6219
▁श्वे	-6220
दाताओं	-6221
तुम्हारे	-6222
▁अट	-6223
▁गुजर	-6224
▁ढूंढें	-6225
र्दू	-6226
▁उठे	-6227
▁कायम	-6228
▁दलील	-6229
▁प्रसंस्करण	-6230
ंधन	-6231
ेंडर	-6232
▁पान	-6233
विमर्श	-6234
▁पथभ्र	-6235
▁बोलते	-6236
▁प्रक्रियाओं	-6237
देशों	-6238
▁लाएँ	-6239
ज़ख़	-6240
▁पाप	-6241
▁फार	-6242
▁रामा	-6243
▁मुद्दे	-6244
क्कर	-6245
देशक	-6246
लयों	-6247
▁शर्त	-6248
▁औरतें	-6249
▁विक्रय	-6250
▁अवधारणा	-6251
▁गाँ	-6252
वस्तु	-6253
हारिक	-6254
▁उतनी	-6255
▁कॉपी	-6256
▁तकलीफ	-6257
▁एल्	-6258
▁प्रतिफल	-6259
▁प्रतिकूल	-6260
▁सकारात्मक	-6261
▁दाहिने	-6262
प्रद	-6263
▁तिल	-6264
▁2012	-6265
▁व्यवस्थित	-6266
▁बंदर	-6267
▁संतुलन	-6268
▁वनस्पति	-6269
▁वसू	-6270
▁एजेंस	-6271
▁कमज़ोर	-6272
▁निष्ठा	-6273
्यक	-6274
▁खात	-6275
▁2001	-6276
▁अंकित	-6277
▁190	-6278
द्दीन	-6279
▁टर्मिन	-6280
▁प्रसाद	-6281
▁उल्लिखित	-6282
▁समुदायों	-6283
्द	-6284
ंदगी	-6285
चन्द	-6286
पत्ति	-6287
▁कोशिकाओं	-6288
▁प्रतिदिन	-6289
▁जाह	-6290
▁सरी	-6291
▁सच्ची	-6292
▁क्रियान्व	-6293
▁कारक	-6294
▁दर्जे	-6295
रखाव	-6296
▁आकलन	-6297
तापूर्वक	-6298
खों	-6299
पीएस	-6300
▁भंग	-6301
▁डालते	-6302
▁वस्तुत	-6303
▁दुर्भाग्य	-6304
▁विश्वसनीय	-6305
▁स्वप्न	-6306
केल	-6307
▁दर्शाता	-6308
ट्स	-6309
▁पाता	-6310
▁याची	-6311
▁परिचित	-6312
▁प्रको	-6313
▁प्रांत	-6314
सम्बर	-6315
षद्	-6316
ैंक	-6317
उसके	-6318
देशी	-6319
▁हलाल	-6320
्रेडिट	-6321
कलाप	-6322
क्राम	-6323
▁2019	-6324
▁अभिगम	-6325
▁आँखों	-6326
▁ग्राहकों	-6327
ग्न	-6328
▁नामः	-6329
▁क्रमा	-6330
▁मंजूरी	-6331
ay	-6332
ंसी	-6333
वीडी	-6334
▁अफग	-6335
▁यानी	-6336
▁झों	-6337
▁आखिर	-6338
▁मिश्रण	-6339
तन्य	-6340
स्टी	-6341
▁आँक	-6342
▁रखती	-6343
▁विभेद	-6344
▁निकाले	-6345
▁बडी	-6346
▁शोर	-6347
▁2008	-6348
▁कामया	-6349
▁स्तरों	-6350
▁अलबत्ता	-6351
▁गांधीजी	-6352
▁जमी	-6353
▁हमला	-6354
▁मक्का	-6355
टेल	-6356
बारी	-6357
▁हमे	-6358
▁विनय	-6359
▁पीड़ित	-6360
▁यथार्थ	-6361
13	-6362
वाहित	-6363
▁गुणा	-6364
ov	-6365
▁नाइ	-6366
▁राजक	-6367
▁लानत	-6368
▁स्टेट	-6369
▁आह्वान	-6370
▁हाज़िर	-6371
▁प्रश्नों	-6372
गोलिक	-6373
▁कर्ण	-6374
कन	-6375
मुच	-6376
▁पाकी	-6377
▁सीखने	-6378
-3	-6379
धारित	-6380
▁औजार	-6381
▁संभाल	-6382
बों	-6383
▁खतरे	-6384
▁क्रमशः	-6385
▁विभागों	-6386
ld	-6387
फेसर	-6388
▁जुड़	-6389
▁गुणों	-6390
▁कलाकार	-6391
▁व्यापारी	-6392
▁सम्पत्ति	-6393
ण्ट	-6394
▁पढ	-6395
▁बेट	-6396
▁मान्य	-6397
सिंह	-6398
▁पोल	-6399
▁बोला	-6400
▁श्रीमती	-6401
िद	-6402
ूकता	-6403
▁बिता	-6404
पाई	-6405
▁कहां	-6406
▁क़ाबू	-6407
▁जितने	-6408
▁आदमियों	-6409
▁गतिविधि	-6410
चु	-6411
▁गुरू	-6412
▁मधुम	-6413
पैग़म्बर	-6414
भौ	-6415
▁भूत	-6416
▁रोगों	-6417
▁लगाते	-6418
▁घनिष्ठ	-6419
▁डिग्री	-6420
▁संभवतः	-6421
▁रिकॉर्ड	-6422
▁अमरीका	-6423
▁विवरणी	-6424
tr	-6425
णिक	-6426
दादा	-6427
मुझे	-6428
▁अहं	-6429
▁असली	-6430
▁राहे	-6431
▁अनुमोदित	-6432
▁पुस्तकें	-6433
▁प्रासंगिक	-6434
डीई	-6435
▁स्वि	-6436
▁एजेंसी	-6437
▁अक्ट	-6438
▁सूचित	-6439
▁जर्मनी	-6440
कर्म	-6441
र्वेद	-6442
▁कैसी	-6443
स्परिक	-6444
▁लेखकों	-6445
▁क्रेडिट	-6446
▁प्रभार्य	-6447
▁न्यायालयों	-6448
षे	-6449
ind	-6450
▁गंत	-6451
▁डूब	-6452
▁नरे	-6453
▁हार्ड	-6454
▁गुज़	-6455
▁तीर्थ	-6456
▁सिद्धान्त	-6457
छो	-6458
▁फौ	-6459
▁माय	-6460
▁उग्र	-6461
▁जंगल	-6462
▁चलाया	-6463
▁प्रजनन	-6464
▁संपन्न	-6465
ार्थियों	-6466
▁पुकारते	-6467
उनकी	-6468
लांग	-6469
▁औषध	-6470
▁सिं	-6471
▁सम्बन्धित	-6472
र्जन	-6473
▁चावल	-6474
▁क़ादिर	-6475
▁चैतन्य	-6476
▁115	-6477
▁लार	-6478
▁कट्ट	-6479
▁टेक्	-6480
▁साहब	-6481
▁मिस्र	-6482
▁मुताब	-6483
▁उपायों	-6484
▁किन्हीं	-6485
▁घुट	-6486
▁तात्	-6487
▁पक्षी	-6488
▁करम	-6489
▁नवी	-6490
लियों	-6491
▁निधन	-6492
▁संपदा	-6493
▁ग्रस्त	-6494
▁प्रशांत	-6495
▁भौगोलिक	-6496
▁विद्वानों	-6497
ल्य	-6498
▁धा	-6499
ल्लम	-6500
वेशन	-6501
AME	-6502
ब्रेरी	-6503
▁अंग्रेज	-6504
▁जवाहरलाल	-6505
th	-6506
तब	-6507
पोर्ट	-6508
▁अमान	-6509
▁ईरान	-6510
▁एकदम	-6511
▁कृति	-6512
▁शांत	-6513
मौ	-6514
ाफ	-6515
▁नास	-6516
▁शराब	-6517
▁तसबीह	-6518
▁राजभाषा	-6519
नहीं	-6520
विष्ट	-6521
▁सर्वि	-6522
ायें	-6523
कियों	-6524
▁ज़बर	-6525
▁प्रशास	-6526
कना	-6527
वाँ	-6528
ीदा	-6529
▁खज	-6530
▁आश्र	-6531
um	-6532
विन	-6533
▁or	-6534
▁कस	-6535
काया	-6536
न्तर	-6537
भक्त	-6538
यक्त	-6539
▁रिज़	-6540
▁उतारी	-6541
▁अर्पित	-6542
▁आरक्षित	-6543
▁लोकतांत्रिक	-6544
▁तम	-6545
▁दार्	-6546
▁भरें	-6547
▁उर्दू	-6548
▁लिखते	-6549
▁वरीयता	-6550
▁हजारों	-6551
▁टाल	-6552
▁डिब	-6553
▁कृपा	-6554
▁आंशिक	-6555
▁प्रोफेसर	-6556
▁प्रस्तावित	-6557
▁रॉ	-6558
▁सचमुच	-6559
▁भगवान्	-6560
▁प्रतिमा	-6561
काएँ	-6562
जीवी	-6563
▁दुःख	-6564
▁वर्मा	-6565
▁वसूली	-6566
▁तत्त्व	-6567
केंड	-6568
▁ज्यो	-6569
दायित्व	-6570
ोक्ताओं	-6571
▁मज़बूत	-6572
व्यों	-6573
▁दुकान	-6574
▁लिखना	-6575
▁अक्टूबर	-6576
▁संलग्नक	-6577
▁फलस्वरूप	-6578
आरए	-6579
▁बरस	-6580
▁डाली	-6581
▁प्राप	-6582
▁संगणना	-6583
▁मक़	-6584
▁गर्मी	-6585
▁पथभ्रष्ट	-6586
▁कम्प्यूटर	-6587
▁जॉ	-6588
हारी	-6589
▁टाइप	-6590
▁उठाना	-6591
▁शेयरों	-6592
▁पूज	-6593
ष्कार	-6594
▁अभ्यास	-6595
बिल	-6596
लेखन	-6597
▁con	-6598
▁अद्व	-6599
▁जाया	-6600
▁नदियों	-6601
एमई	-6602
▁ज्व	-6603
▁दीजिए	-6604
▁अपराधी	-6605
▁सेक्टर	-6606
▁अधिकारिता	-6607
▁ष	-6608
▁आपसी	-6609
▁करेंः	-6610
▁दशकों	-6611
▁किले	-6612
▁जागरूकता	-6613
ेड	-6614
ेस	-6615
नेह	-6616
▁अहि	-6617
▁खबर	-6618
▁मेह	-6619
▁प्लस	-6620
▁मोटर	-6621
▁सेंट	-6622
▁आंकड़ा	-6623
▁पुराना	-6624
▁इकाइयों	-6625
▁पारस्परिक	-6626
उसकी	-6627
लिपि	-6628
▁अमर	-6629
▁उपज	-6630
▁जैन	-6631
▁झूठे	-6632
▁आधारभूत	-6633
▁वास्तविकता	-6634
शोधन	-6635
▁अर्ज	-6636
▁शासक	-6637
▁विवेक	-6638
▁दुश्मन	-6639
▁तृ	-6640
▁पड़ो	-6641
▁अर्जन	-6642
▁रामायण	-6643
▁2002	-6644
▁अतीत	-6645
▁निगाह	-6646
▁फायदे	-6647
▁लड़का	-6648
▁हिमाचल	-6649
▁वेद	-6650
▁चलती	-6651
ter	-6652
ener	-6653
चेंज	-6654
▁होगे	-6655
▁भांति	-6656
▁वैदिक	-6657
▁वैकल्प	-6658
ानिस्तान	-6659
▁देशवासियों	-6660
वत्	-6661
समा	-6662
सास	-6663
▁लिपि	-6664
▁बेटों	-6665
पद	-6666
हक़	-6667
इयां	-6668
▁पनाह	-6669
▁भक्त	-6670
▁दिसम्बर	-6671
▁पूर्ववर्ती	-6672
्रीम	-6673
▁आपदा	-6674
▁फोल्डर	-6675
▁उत्पादक	-6676
-200	-6677
▁घेर	-6678
▁बनना	-6679
▁दूँगा	-6680
▁सहयोगी	-6681
▁दिखायें	-6682
▁अखिल	-6683
▁विजे	-6684
▁तीनों	-6685
▁सम्राट	-6686
▁पसंदीदा	-6687
▁व्यावहारिक	-6688
बाई	-6689
▁गईं	-6690
ख्वाह	-6691
ालयों	-6692
▁ग्रे	-6693
▁होगें	-6694
▁संगठित	-6695
▁वैकल्पिक	-6696
▁प्रोटोकॉल	-6697
▁90	-6698
▁अरु	-6699
▁आशय	-6700
▁हलाक	-6701
▁उत्तेज	-6702
▁अलं	-6703
▁रहम	-6704
▁लिप	-6705
▁कहें	-6706
▁आतंकवादी	-6707
▁विज्ञप्ति	-6708
10	-6709
गुण	-6710
▁अधिसूचित	-6711
▁उपलब्धता	-6712
▁प्रतिष्ठा	-6713
▁प्रयोक्ता	-6714
▁तद	-6715
▁नज	-6716
साइटी	-6717
ब्ल्यू	-6718
▁डालने	-6719
पेश	-6720
भूषण	-6721
लामी	-6722
▁आएँ	-6723
्रेता	-6724
▁फसलों	-6725
▁योजनाएं	-6726
▁उन्होनें	-6727
गीय	-6728
साई	-6729
▁आधा	-6730
▁साधनों	-6731
▁अजी	-6732
▁समू	-6733
▁पृथक	-6734
▁सिरे	-6735
eat	-6736
भाषण	-6737
▁झील	-6738
वही	-6739
▁इंत	-6740
▁ख़ा	-6741
ड़ीसा	-6742
▁चढ़ा	-6743
▁हटाने	-6744
▁गारंटी	-6745
▁अंग्रेजों	-6746
ेंड	-6747
्टा	-6748
जनों	-6749
▁सकल	-6750
▁आएगी	-6751
▁गद्य	-6752
▁अंततः	-6753
▁प्लेट	-6754
▁अपनाने	-6755
▁कार्यरत	-6756
▁सत्यापित	-6757
/2	-6758
od	-6759
बाही	-6760
▁सड़	-6761
▁पैसा	-6762
▁बनता	-6763
▁चुकता	-6764
ुमान	-6765
▁गढ़	-6766
नीतिक	-6767
▁वन्य	-6768
▁एहसान	-6769
▁चीज़ें	-6770
▁प्रतिबि	-6771
०००	-6772
▁असल	-6773
बरदार	-6774
▁प्रॉ	-6775
▁समूद	-6776
▁गंतव्य	-6777
▁दक्षता	-6778
▁देखोगे	-6779
▁शास्त्र	-6780
▁जीवों	-6781
▁मारा	-6782
▁यहीं	-6783
▁माइक्रो	-6784
▁2020	-6785
▁भरने	-6786
▁बताता	-6787
▁भरपूर	-6788
▁सोसाइटी	-6789
▁प्रमाणित	-6790
▁प्रावधानों	-6791
▁सूच	-6792
▁पहलुओं	-6793
▁साक्षी	-6794
RAN	-6795
ंक्शन	-6796
▁कार्यालयों	-6797
▁75	-6798
▁तेरा	-6799
▁संधि	-6800
▁तीसरा	-6801
▁हथियार	-6802
▁व्यष्टि	-6803
▁मुल्क	-6804
▁क्रांतिक	-6805
आत	-6806
ंबे	-6807
▁सिक	-6808
▁हकदार	-6809
▁फरमाया	-6810
▁मण	-6811
▁बडे	-6812
▁सम्पन्न	-6813
▁प्रभावशाली	-6814
▁4.	-6815
हरों	-6816
दनी	-6817
उनके	-6818
▁इरादा	-6819
▁तथ्यों	-6820
▁सुन्दर	-6821
▁परिवर्तनों	-6822
▁झूठा	-6823
बहुत	-6824
▁तुझ	-6825
▁क़समें	-6826
▁दोज़ख़	-6827
▁सन्देह	-6828
▁डिप	-6829
▁ईंधन	-6830
▁कट्टर	-6831
▁आस्तियों	-6832
ap	-6833
र्ता	-6834
▁1999	-6835
▁वाहन	-6836
▁शंकर	-6837
▁लाभों	-6838
▁राष्ट्रों	-6839
चाह	-6840
ारण	-6841
▁ढूँ	-6842
त्रिम	-6843
तन्त्र	-6844
▁पंक्त	-6845
os	-6846
जत	-6847
▁किस्	-6848
▁जानना	-6849
▁मतभेद	-6850
▁बहादुर	-6851
थित	-6852
लाइ	-6853
▁हां	-6854
वास्त	-6855
▁राज़ी	-6856
▁दार्शन	-6857
▁बिन्दु	-6858
▁पाकीज़ा	-6859
▁प्रतिदान	-6860
आउट	-6861
▁पेय	-6862
▁कचरा	-6863
▁दस्तावेजों	-6864
एव	-6865
िरण	-6866
▁कीटों	-6867
▁स्रोतों	-6868
राय	-6869
ोरि	-6870
▁दिमाग	-6871
▁अधिकृत	-6872
,–	-6873
80	-6874
▁कारा	-6875
▁आकांक्षा	-6876
▁लंदन	-6877
▁बताते	-6878
▁स्तरीय	-6879
ँग	-6880
▁मोड़	-6881
▁रहित	-6882
▁लेबल	-6883
▁ठहराया	-6884
▁टर्मिनल	-6885
▁लक्ष्यों	-6886
▁बेर	-6887
▁उभार	-6888
▁मेहन	-6889
▁पेट्रोल	-6890
age	-6891
his	-6892
दूत	-6893
र्फ़	-6894
▁भूख	-6895
▁पचास	-6896
▁गिनती	-6897
▁श्वेत	-6898
¥	-6899
▁उन्हे	-6900
▁भाग्य	-6901
विश्वास	-6902
▁ब्राह्मण	-6903
ुद्ध	-6904
▁बचने	-6905
▁रोकते	-6906
▁अंशदान	-6907
▁मुहम्मद	-6908
▁शीर्षिका	-6909
▁साझेदारी	-6910
संख	-6911
▁36	-6912
▁वाम	-6913
▁आईडी	-6914
▁आयकर	-6915
▁कमाई	-6916
▁गणित	-6917
▁कृतज्ञता	-6918
▁भव	-6919
पसंद	-6920
▁घास	-6921
जहन्न	-6922
सूत्र	-6923
▁ख़ौफ	-6924
वृद्धि	-6925
▁नकारात्मक	-6926
▁व्यापारिक	-6927
▁प्रतिबद्धता	-6928
परा	-6929
▁बट	-6930
▁टीका	-6931
▁भुला	-6932
▁बालों	-6933
hat	-6934
▁दम	-6935
eather	-6936
▁लाखों	-6937
▁डीवीडी	-6938
▁खिलाड़ी	-6939
▁विचारधारा	-6940
¤	-6941
▁नकद	-6942
▁बहन	-6943
▁समापन	-6944
▁परोक्ष	-6945
▁विडियो	-6946
▁सलाहकार	-6947
▁स्वाधीन	-6948
▁अध्यक्षता	-6949
▁कार्यान्वित	-6950
▁भाइयों	-6951
▁कानूनों	-6952
▁ख्वाहिश	-6953
▁फ़ाइलों	-6954
ंसक	-6955
टिक	-6956
▁{0}	-6957
▁उलट	-6958
▁घात	-6959
▁अपनाई	-6960
▁पुरूष	-6961
▁प्रबल	-6962
▁उत्तरदायित्व	-6963
40	-6964
मरा	-6965
पुरुष	-6966
निर्माण	-6967
क्ल	-6968
ियॉ	-6969
▁खर	-6970
▁पश	-6971
▁गीता	-6972
▁नर्म	-6973
▁पीछा	-6974
▁भाष्	-6975
▁राज़	-6976
ाधिकार	-6977
▁ज्योति	-6978
▁मंत्रि	-6979
▁सारांश	-6980
▁रचनात्मक	-6981
इंड	-6982
कने	-6983
▁होटल	-6984
▁केंद्रों	-6985
8)	-6986
▁मेघ	-6987
संचार	-6988
कंप	-6989
क़े	-6990
लीन	-6991
▁फुट	-6992
▁वसी	-6993
▁पाना	-6994
59	-6995
li	-6996
भोग	-6997
▁पडे	-6998
ानिर्	-6999
▁टिकट	-7000
▁वांछ	-7001
▁चेन्न	-7002
▁नमूना	-7003
▁अनुक्रम	-7004
▁वस्तुएं	-7005
▁बलि	-7006
▁चोरी	-7007
▁सीता	-7008
▁अस्थि	-7009
▁पिछला	-7010
▁समझना	-7011
पर्य	-7012
▁अपार	-7013
▁ट्यूब	-7014
▁किराये	-7015
ॉग	-7016
बीन	-7017
▁ईंट	-7018
▁घाट	-7019
▁कोर्ट	-7020
▁संक्रिया	-7021
-9	-7022
ेंच	-7023
ापरी	-7024
▁करूँ	-7025
▁श्रो	-7026
▁सूरज	-7027
जीविका	-7028
▁पड़ते	-7029
▁पड़ने	-7030
▁आख़ेरत	-7031
▁उड़ीसा	-7032
▁प्रवासी	-7033
▁सौभाग्य	-7034
लोक	-7035
▁टि	-7036
▁बाक़ी	-7037
▁महानि	-7038
▁आकर्षण	-7039
▁मानकों	-7040
▁प्रसारण	-7041
▁पन	-7042
▁आदर	-7043
▁जाग	-7044
▁बचे	-7045
▁१९९	-7046
▁इंग्लैंड	-7047
▁७	-7048
▁जता	-7049
▁नाह	-7050
▁मरियम	-7051
▁वय	-7052
आईटी	-7053
ब्बा	-7054
▁बहि	-7055
▁लोकसभा	-7056
▁अभिभाषण	-7057
▁शिक्षित	-7058
▁स्वच्छता	-7059
▁स्थितियों	-7060
किस	-7061
▁दिश	-7062
▁जिलों	-7063
▁मजबूर	-7064
▁प्रतिवादी	-7065
▁यहूद	-7066
▁वृत्ति	-7067
▁लाइब्रेरी	-7068
▁फो	-7069
तायात	-7070
▁ब्रे	-7071
▁तबाही	-7072
▁निकाह	-7073
▁पढ़ते	-7074
▁कुशलता	-7075
ew	-7076
▁HT	-7077
▁मौका	-7078
▁कृत्रिम	-7079
▁भावनाओं	-7080
▁सुधारों	-7081
2)	-7082
डू	-7083
भाई	-7084
ेरा	-7085
ल्ले	-7086
▁बिन	-7087
▁मचा	-7088
▁बर्फ	-7089
कारिता	-7090
पीसी	-7091
▁जुल	-7092
▁मला	-7093
▁भड़क	-7094
▁मनपसंद	-7095
▁देनेवाला	-7096
ef	-7097
▁इष्ट	-7098
▁अगरचे	-7099
▁क़रार	-7100
▁लगाकर	-7101
▁देवताओं	-7102
▁सोल	-7103
▁खनिज	-7104
▁आस्था	-7105
▁ऑफ़लाइन	-7106
▁भागीदार	-7107
ul	-7108
▁तस्	-7109
शुल्क	-7110
▁सौंद	-7111
▁अकादमी	-7112
25	-7113
षी	-7114
▁ढल	-7115
▁आवरण	-7116
▁आवेद	-7117
▁चाहो	-7118
▁मेमो	-7119
▁शल्य	-7120
▁परेशान	-7121
तिल	-7122
ुलिप	-7123
▁अटल	-7124
▁एहद	-7125
▁तदन	-7126
▁पुल	-7127
▁डरता	-7128
▁बेहिश्त	-7129
▁सैनिकों	-7130
▁प्राधिकृत	-7131
ML	-7132
हद	-7133
तेह	-7134
मुना	-7135
्राव	-7136
▁189	-7137
▁ढेर	-7138
स्फोट	-7139
▁अंडे	-7140
▁भव्य	-7141
▁निचले	-7142
▁मिलना	-7143
▁दुर्लभ	-7144
▁Comment	-7145
▁यातायात	-7146
ूनी	-7147
हवीं	-7148
▁पेर	-7149
▁हाइ	-7150
संबंध	-7151
▁आईटी	-7152
▁छुट्टी	-7153
▁सच्चाई	-7154
▁स्मारक	-7155
▁जरूरतों	-7156
▁अपेक्षाकृत	-7157
मस	-7158
ज़न	-7159
ैली	-7160
▁१०	-7161
▁खाल	-7162
▁कैंसर	-7163
▁नारायण	-7164
▁पहुँची	-7165
भास	-7166
म्पा	-7167
▁समेक	-7168
▁एजेंसियों	-7169
▁कुट	-7170
▁स्तन	-7171
▁पार्ट	-7172
▁संचित	-7173
▁दीक्षांत	-7174
सद	-7175
काना	-7176
व्यापी	-7177
▁लम्बी	-7178
▁इजाज़त	-7179
▁देखेंगे	-7180
▁परिश्रम	-7181
चाप	-7182
िकीय	-7183
▁टेलीफोन	-7184
▁स्कूलों	-7185
पय	-7186
्यूम	-7187
▁आवि	-7188
▁मतदान	-7189
▁नज़दीक	-7190
▁पंजाबी	-7191
▁मानदंड	-7192
ध्व	-7193
द्रास	-7194
▁क्रय	-7195
▁पाये	-7196
▁पूछे	-7197
▁फ्रेम	-7198
▁बहुमत	-7199
▁विफलः	-7200
▁प्लगिन	-7201
▁असामान्य	-7202
किम	-7203
अपना	-7204
ामिन	-7205
ॉक्स	-7206
▁दूँ	-7207
▁रेड	-7208
▁हैस	-7209
▁हाउस	-7210
▁इंदिरा	-7211
▁उद्यमों	-7212
▁करनेवाली	-7213
bo	-7214
प्ल	-7215
▁रन	-7216
.2015	-7217
▁शाखाओं	-7218
▁मोहम्मद	-7219
▁हिस्सों	-7220
▁आत्मनिर्भर	-7221
6)	-7222
ईं	-7223
णे	-7224
समझ	-7225
▁हज	-7226
▁सना	-7227
▁तनाव	-7228
▁पुनरा	-7229
▁ड्राइव	-7230
▁प्रवर्तन	-7231
▁प्रणालियों	-7232
ृंग	-7233
▁फट	-7234
▁एमएस	-7235
▁हँसी	-7236
▁पेशेवर	-7237
▁मुकदमा	-7238
▁पूर्णतः	-7239
ताअत	-7240
▁असी	-7241
हमारी	-7242
▁उत्सव	-7243
▁कार्बन	-7244
▁मरम्मत	-7245
▁विदेशों	-7246
बस	-7247
▁o	-7248
ारक	-7249
खुदा	-7250
▁गर्भा	-7251
▁सारणी	-7252
▁प्राणी	-7253
▁समर्पण	-7254
▁पूर्णता	-7255
िफ	-7256
पीआई	-7257
▁नाक	-7258
शिक्ष	-7259
स्तीन	-7260
▁नामा	-7261
▁हुये	-7262
▁पीड़ा	-7263
▁बताने	-7264
श्रेष्ठ	-7265
▁निवारण	-7266
▁चाहूंगा	-7267
▁संकल्पना	-7268
un	-7269
▁कंध	-7270
▁दिखाए	-7271
▁पाओगे	-7272
▁ज़िक्र	-7273
▁वितरित	-7274
▁साझीदार	-7275
अन	-7276
▁नाय	-7277
▁रिट	-7278
▁वाइ	-7279
▁हरा	-7280
सूचना	-7281
▁बरकत	-7282
▁वैष्ण	-7283
▁इन्हीं	-7284
▁परंपरागत	-7285
निया	-7286
▁खेत	-7287
▁ऊँचाई	-7288
weather	-7289
▁उत्कृष्टता	-7290
▁घन	-7291
▁संतुष्ट	-7292
डीएफ	-7293
▁कुम	-7294
▁बनाओ	-7295
▁इमारत	-7296
▁बम	-7297
वाणी	-7298
▁कड़	-7299
▁चलना	-7300
▁पैनल	-7301
▁आंकड़े	-7302
▁गवर्नर	-7303
▁हड़	-7304
▁घटित	-7305
▁कुबूल	-7306
▁केडीई	-7307
▁तीसरी	-7308
▁आजीविका	-7309
▁चिकित्सक	-7310
र्मी	-7311
▁जगत	-7312
▁बिग	-7313
पोरेट	-7314
▁मंडप	-7315
▁खातों	-7316
▁मानने	-7317
▁धनराशि	-7318
▁शर्तें	-7319
ers	-7320
त्रि	-7321
▁धोखे	-7322
सायनिक	-7323
▁व्याख्यान	-7324
१९	-7325
ort	-7326
णता	-7327
मंच	-7328
ग्रा	-7329
टकों	-7330
▁गले	-7331
▁सहे	-7332
▁2003	-7333
▁क्लिप	-7334
▁पूछते	-7335
▁ट्रांस	-7336
▁अनिवासी	-7337
ूमत	-7338
▁45	-7339
▁वैसी	-7340
▁संगत	-7341
▁संदेशों	-7342
▁अवसंरचना	-7343
▁डु	-7344
ोल्ड	-7345
▁बादल	-7346
▁पत्रों	-7347
▁साक्षा	-7348
▁प्रचालन	-7349
▁मुख्यतः	-7350
कै	-7351
जरत	-7352
सम्	-7353
▁गलती	-7354
▁पाठक	-7355
▁समाम	-7356
▁अनुचित	-7357
▁मद्रास	-7358
▁कार्यकारी	-7359
र्भ	-7360
▁0.	-7361
▁ज़बान	-7362
ानुभूति	-7363
▁मुशरिक	-7364
जक	-7365
’’	-7366
ंकी	-7367
▁नक्	-7368
▁कराई	-7369
▁नौका	-7370
▁मोहन	-7371
▁निक्ष	-7372
▁अस्वीकार	-7373
उसका	-7374
खाना	-7375
हाबाद	-7376
चन्द्र	-7377
▁कराता	-7378
▁८	-7379
खार	-7380
▁नम	-7381
▁ओवर	-7382
▁2011	-7383
▁उत्पादकता	-7384
▁धान	-7385
▁अतएव	-7386
कोर	-7387
क़ात	-7388
▁उदय	-7389
बार्ड	-7390
ig	-7391
ंगें	-7392
ण्डल	-7393
विंद	-7394
▁ओपन	-7395
▁सृजित	-7396
त्रियों	-7397
▁कवियों	-7398
▁संयोजन	-7399
हान	-7400
▁प्रदत्त	-7401
▁आयुर्वेद	-7402
▁व्युत्पन्न	-7403
ताप	-7404
ऊँगा	-7405
पक्व	-7406
▁अवल	-7407
▁घुस	-7408
▁धूम	-7409
र्कों	-7410
▁अड्ड	-7411
▁इस्प	-7412
▁वृत्त	-7413
ँट	-7414
ंर	-7415
थन	-7416
फ़त	-7417
विदा	-7418
योग्य	-7419
▁बगैर	-7420
▁वाणी	-7421
▁श्रेण	-7422
कक्ष	-7423
ताकि	-7424
▁जरुर	-7425
▁गाड़ी	-7426
▁दिखाना	-7427
▁इंजीनियरी	-7428
2.	-7429
mp	-7430
ग्स	-7431
सेल	-7432
ेयर	-7433
▁ताज	-7434
▁कालेज	-7435
▁उपेक्षा	-7436
्रु	-7437
▁ढाँ	-7438
▁पशुओं	-7439
▁होस्ट	-7440
▁पहुँचने	-7441
▁मित्रता	-7442
▁समकालीन	-7443
▁विकासशील	-7444
▁उपलब्धियों	-7445
▁OF	-7446
जाने	-7447
▁नाश	-7448
▁मंगल	-7449
▁आँखें	-7450
▁अज्ञान	-7451
▁रिश्ते	-7452
▁फूँ	-7453
▁नकदी	-7454
▁कर्मों	-7455
▁ज़रूरत	-7456
ुरु	-7457
ड़कर	-7458
▁ऊतक	-7459
▁मत्	-7460
▁क्यू	-7461
▁खोजें	-7462
▁माननीय	-7463
70	-7464
ric	-7465
ंचल	-7466
रेत	-7467
▁फाइ	-7468
▁चौथा	-7469
▁बढ़ो	-7470
▁निरूप	-7471
▁इस्पात	-7472
▁रखरखाव	-7473
▁सौंदर्य	-7474
िकरण	-7475
▁लीग	-7476
▁बाढ़	-7477
▁खतरनाक	-7478
ठीक	-7479
्चर	-7480
्पण	-7481
▁वें	-7482
▁सीन	-7483
▁कंपन	-7484
▁जुटा	-7485
▁हमपर	-7486
▁निपटान	-7487
▁समामेल	-7488
▁परिपक्व	-7489
ER	-7490
शास	-7491
▁माध	-7492
▁TRAN	-7493
▁नौकर	-7494
▁मणिप	-7495
▁स्वै	-7496
्टवेयर	-7497
भूतियों	-7498
▁अन्याय	-7499
▁मुकाबले	-7500
▁प्रॉक्सी	-7501
ूल्य	-7502
▁मग़	-7503
▁वजन	-7504
▁गयीं	-7505
▁घाटा	-7506
▁मुहा	-7507
▁औज़ार	-7508
▁कृत्य	-7509
▁निमित	-7510
▁लम्बे	-7511
▁संजाल	-7512
▁सेंटर	-7513
▁इन्द्र	-7514
▁जिन्ना	-7515
वो	-7516
ईमान	-7517
▁कोण	-7518
▁बडा	-7519
.2016	-7520
न्नों	-7521
▁हैसियत	-7522
▁पहाड़ों	-7523
▁सितम्बर	-7524
ड्	-7525
ORS	-7526
गृह	-7527
ताज	-7528
वेल	-7529
हीत	-7530
खाने	-7531
स्सी	-7532
▁परवाह	-7533
▁रचनाओं	-7534
▁महासागर	-7535
राष्ट्रपति	-7536
▁परिस्थिति	-7537
▁(0	-7538
▁फूट	-7539
▁शादी	-7540
फ़ारिश	-7541
▁टैगोर	-7542
▁डोमेन	-7543
▁सुनकर	-7544
▁सुनाई	-7545
▁पब्लिक	-7546
SLAT	-7547
यक्तिक	-7548
SLATORS	-7549
▁मध्यस्थ	-7550
▁वस्तुतः	-7551
▁सामान्यतया	-7552
▁TRANSLATORS	-7553
wor	-7554
पीठ	-7555
लाप	-7556
क्षे	-7557
▁188	-7558
▁इबर	-7559
▁नरम	-7560
▁नूर	-7561
▁शब्	-7562
श्चित	-7563
▁दलों	-7564
▁रूपये	-7565
▁शक्तियां	-7566
▁स्ट्रिंग	-7567
▁अंग्रेज़ी	-7568
गान	-7569
तिपय	-7570
श्ती	-7571
▁गोरा	-7572
▁सुनी	-7573
ानुसार	-7574
▁दार्शनिक	-7575
बाप	-7576
▁5.	-7577
▁अच	-7578
▁देह	-7579
▁सोचते	-7580
▁इलाकों	-7581
▁व्यर्थ	-7582
▁विज्ञापन	-7583
▁रखनेवालों	-7584
ड़ो	-7585
प्रण	-7586
▁दांत	-7587
▁अनन्त	-7588
▁कोयला	-7589
▁प्रातः	-7590
▁एक्सचेंज	-7591
▁प्रशिक्षित	-7592
ke	-7593
आईसी	-7594
▁पते	-7595
▁इताअत	-7596
▁बढ़ता	-7597
▁त्वरित	-7598
▁प्रिंटर	-7599
घन	-7600
रन	-7601
▁चट	-7602
▁नल	-7603
प्रथम	-7604
▁रूपरेखा	-7605
▁प्रतिलिपि	-7606
▁संवेदनशील	-7607
▁प्रतिस्पर्धा	-7608
तिज	-7609
ष्म	-7610
▁बंबई	-7611
▁लगने	-7612
▁दिशानिर्	-7613
15	-7614
मोहन	-7615
▁फौरन	-7616
▁मन्द	-7617
▁माउस	-7618
त्यक्ष	-7619
▁संगणक	-7620
▁कव	-7621
लिये	-7622
त्मकता	-7623
▁पढ़ाई	-7624
▁हरिया	-7625
▁नवाचार	-7626
▁सिर्फ़	-7627
▁33	-7628
▁टक	-7629
गोया	-7630
▁आदत	-7631
▁ऊंची	-7632
▁सकने	-7633
▁कुदरत	-7634
▁विधिक	-7635
नत	-7636
रह	-7637
दाह	-7638
▁वेश	-7639
ज्ज़त	-7640
▁2004	-7641
▁संदत्त	-7642
▁कविताओं	-7643
▁रिज़र्व	-7644
▁विनियमन	-7645
▁अफगानिस्तान	-7646
नेस	-7647
ूलन	-7648
प्रा	-7649
▁दीं	-7650
▁मील	-7651
▁कथित	-7652
▁हिला	-7653
▁उत्पा	-7654
▁कार्मिक	-7655
▁प्रोटीन	-7656
▁राजमार्ग	-7657
कहीं	-7658
▁बिट	-7659
▁बेकार	-7660
▁संकलन	-7661
▁संवेदना	-7662
भुत	-7663
▁ह्र	-7664
स्टिक	-7665
▁बालक	-7666
दृष्टि	-7667
▁अंतरित	-7668
▁दीवारों	-7669
▁गूगल	-7670
▁नुक़	-7671
स्तीनी	-7672
▁मेहनत	-7673
▁शासित	-7674
▁आकर्षक	-7675
▁एशियाई	-7676
▁ड़	-7677
▁चखा	-7678
▁मंग	-7679
▁बांट	-7680
क्षरता	-7681
▁छोड़े	-7682
TP	-7683
अगर	-7684
ौलत	-7685
▁अय	-7686
▁फू	-7687
▁नमक	-7688
प्रदायिक	-7689
▁नाबार्ड	-7690
▁परिकल्पना	-7691
तत्व	-7692
म्मा	-7693
ग़ैरह	-7694
▁किला	-7695
▁दौरा	-7696
▁अपवाद	-7697
▁२०	-7698
▁गेह	-7699
▁अवकाश	-7700
▁फूलों	-7701
▁खुल्लम	-7702
▁दिखाते	-7703
▁सर्वथा	-7704
स्कर	-7705
▁छोड	-7706
▁बेस	-7707
▁रूह	-7708
न्हें	-7709
▁सौंपा	-7710
▁कहानियों	-7711
▁पहुंचाने	-7712
ायल	-7713
कुफ्	-7714
▁मुआ	-7715
▁नजात	-7716
▁सवाब	-7717
▁ग्रीन	-7718
▁क़्यों	-7719
▁मौजिज़े	-7720
▁सम्बद्ध	-7721
ess	-7722
पटा	-7723
र्थी	-7724
▁Con	-7725
लेमान	-7726
▁आजाद	-7727
▁अखबार	-7728
▁गर्दन	-7729
ष्टाचार	-7730
▁मेमोरी	-7731
▁शान्ति	-7732
▁शुरूआत	-7733
डों	-7734
▁जंगली	-7735
▁नाट्य	-7736
▁मराठी	-7737
गंध	-7738
▁70	-7739
▁बश	-7740
भांश	-7741
▁आवृ	-7742
▁प्या	-7743
▁सफाई	-7744
▁रोज़े	-7745
▁सृष्टि	-7746
▁ज्यादातर	-7747
▁रासायनिक	-7748
▁धूप	-7749
▁संब	-7750
▁प्रभु	-7751
▁सहभाग	-7752
▁वर्गीकरण	-7753
ूरो	-7754
क्के	-7755
ालों	-7756
▁मेज	-7757
▁कबीर	-7758
▁यूआर	-7759
▁क्रोध	-7760
▁ठहराते	-7761
▁रंगमंच	-7762
ट्टा	-7763
िश्ता	-7764
▁किमी	-7765
▁मरने	-7766
▁वादी	-7767
▁आमदनी	-7768
▁हज़ार	-7769
▁बांग्लादेश	-7770
फु	-7771
रीद	-7772
▁it	-7773
▁बोध	-7774
दर्शक	-7775
▁डालो	-7776
▁वरन्	-7777
▁हममें	-7778
▁इंजीनियरिंग	-7779
▁एन्	-7780
▁करू	-7781
▁हरी	-7782
▁मोती	-7783
▁कतिपय	-7784
▁किनारा	-7785
▁बढ़ाना	-7786
▁सर्वश्रेष्ठ	-7787
▁;	-7788
बेल	-7789
गांठ	-7790
▁अपर	-7791
▁विट	-7792
▁अजीब	-7793
▁ऊंचे	-7794
▁निबंध	-7795
▁पकड़े	-7796
▁ब्रह्मा	-7797
▁स्त्रियाँ	-7798
▁पठ	-7799
olor	-7800
अच्छे	-7801
▁रहीं	-7802
▁मानों	-7803
▁निमित्त	-7804
▁पार्श्व	-7805
खिक	-7806
वीर	-7807
▁आधे	-7808
▁मसल	-7809
▁शपथ	-7810
▁शेर	-7811
▁राधा	-7812
▁सबका	-7813
lab	-7814
तकों	-7815
▁मैच	-7816
▁निपटने	-7817
मैन	-7818
िट्	-7819
र्दों	-7820
▁स्पर्श	-7821
▁सहानुभूति	-7822
हमने	-7823
▁कंट	-7824
▁देन	-7825
निहित	-7826
▁इनको	-7827
▁नर्स	-7828
▁नायक	-7829
▁मनाया	-7830
▁सार्थ	-7831
त्तियों	-7832
▁शास्त्रीय	-7833
ढे	-7834
हासन	-7835
रेकीन	-7836
▁घेरे	-7837
▁दस्त	-7838
▁फलों	-7839
▁विधा	-7840
▁पूछता	-7841
वैधानिक	-7842
▁निवेदन	-7843
▁एकत्रित	-7844
▁प्रतिरोध	-7845
कोष	-7846
गित	-7847
नाई	-7848
लंका	-7849
लेखा	-7850
▁कोर	-7851
▁वसा	-7852
▁सोम	-7853
▁बचपन	-7854
▁मेगा	-7855
▁अन्वेष	-7856
▁रजिस्ट्री	-7857
yp	-7858
tle	-7859
शिप	-7860
▁st	-7861
▁उज	-7862
वर्ग	-7863
ैतिज	-7864
▁इंस	-7865
▁नोडल	-7866
▁निराश	-7867
▁भत्ता	-7868
▁मिटाना	-7869
▁क्रांतिकारी	-7870
नाइ	-7871
टिंग	-7872
लिफ़	-7873
▁किल	-7874
▁पीछ	-7875
प्राय	-7876
▁धोखा	-7877
▁बीबी	-7878
▁माहौल	-7879
▁लौटने	-7880
▁अन्जाम	-7881
▁निवेशकों	-7882
▁बल्लेबाज	-7883
▁१२	-7884
▁बेटी	-7885
▁मौज़	-7886
▁सौदा	-7887
▁रद्दी	-7888
▁गणतंत्र	-7889
▁स्वाधीनता	-7890
▁९	-7891
▁नं	-7892
ित्य	-7893
▁तरल	-7894
▁माउ	-7895
▁त्रिप	-7896
▁गरीबों	-7897
▁ज्यादती	-7898
हल	-7899
▁घृ	-7900
▁चक	-7901
ज्जा	-7902
▁नोक	-7903
▁महो	-7904
▁1956	-7905
▁2010	-7906
▁आलेख	-7907
▁पाइप	-7908
▁शाही	-7909
▁बरबाद	-7910
▁चित्रण	-7911
▁टुकड़ा	-7912
7)	-7913
हृ	-7914
वानि	-7915
▁भूट	-7916
स्मृति	-7917
▁अभिने	-7918
▁खरीदने	-7919
▁निर्गम	-7920
▁बढ़ाया	-7921
▁फरिश्ते	-7922
▁सर्वज्ञ	-7923
▁प्रतिज्ञा	-7924
▁परियोजनाएं	-7925
याम	-7926
तिक्र	-7927
▁विस्फोट	-7928
▁सिफ़ारिश	-7929
दाम	-7930
दाबाद	-7931
▁उपर्य	-7932
▁पक्का	-7933
▁बैकअप	-7934
▁बोलने	-7935
▁पेट्रोलियम	-7936
ऊद	-7937
जय	-7938
चंद	-7939
nome	-7940
▁उम्मत	-7941
▁बनाती	-7942
▁उन्नयन	-7943
▁उपग्रह	-7944
▁हुकूमत	-7945
▁आवं	-7946
▁ड्रा	-7947
▁ख़िला	-7948
▁वसीयत	-7949
निर्देश	-7950
▁तत्कालीन	-7951
क़्	-7952
टीय	-7953
महा	-7954
▁तप	-7955
▁दमन	-7956
युद्ध	-7957
▁हर्ष	-7958
▁ट्रेड	-7959
▁अधिवेशन	-7960
▁मिश्रित	-7961
▁मोमिनों	-7962
िरा	-7963
टीएम	-7964
रक्षण	-7965
▁बढ़े	-7966
▁मोटे	-7967
त्याशित	-7968
▁रजिस्टर	-7969
▁2,	-7970
▁मरी	-7971
▁ख़ैर	-7972
▁नाहक़	-7973
▁साकार	-7974
▁वैष्णव	-7975
▁जाएँगें	-7976
िणी	-7977
▁ra	-7978
▁इबरत	-7979
▁जज़ा	-7980
▁मानस	-7981
▁घोड़े	-7982
▁छिपाते	-7983
▁परहेज़गारी	-7984
शिंग	-7985
स्टे	-7986
▁प्य	-7987
▁लाई	-7988
तानों	-7989
▁सुगम	-7990
▁पुष्प	-7991
▁आज्ञाकारी	-7992
ैब	-7993
त्सव	-7994
प्पा	-7995
▁दंत	-7996
▁सुनो	-7997
क्रामक	-7998
▁खोजने	-7999
▁वाक्य	-8000
▁पर्यवे	-8001
▁सभापति	-8002
▁प्रजाति	-8003
टित	-8004
द्म	-8005
▁त्यो	-8006
निश्चय	-8007
▁फॉर्म	-8008
राइल	-8009
वाने	-8010
▁जरा	-8011
शिल्प	-8012
▁हमले	-8013
▁गाँधी	-8014
िपी	-8015
वकों	-8016
▁केश	-8017
निर्ण	-8018
▁रहकर	-8019
▁बॉक्स	-8020
▁सचिवाल	-8021
▁अनुशासन	-8022
▁बंदरगाह	-8023
▁सार्वभौ	-8024
कीर	-8025
बड़ी	-8026
श्यक	-8027
▁सेक	-8028
▁गोली	-8029
▁शरार	-8030
▁छोड़ें	-8031
▁मजदूरी	-8032
▁राजाओं	-8033
▁इलाहाबाद	-8034
नस	-8035
रब	-8036
▁क्यो	-8037
▁सूजन	-8038
▁बनायी	-8039
▁अनुभाग	-8040
▁यात्री	-8041
▁संवैधानिक	-8042
कौ	-8043
▁नॉ	-8044
ख़बर	-8045
दीक़	-8046
▁गेट	-8047
▁लाह	-8048
▁वास्तु	-8049
▁अनुकम्पा	-8050
▁परहेज़गार	-8051
टके	-8052
महल	-8053
ख़्या	-8054
▁पढ़ी	-8055
▁उपहार	-8056
▁निभाई	-8057
▁संप्र	-8058
फलक	-8059
▁गठ	-8060
नाडा	-8061
समूह	-8062
▁बसव	-8063
▁विय	-8064
▁राष्	-8065
▁लाभांश	-8066
▁नुक़सान	-8067
▁लेखापरी	-8068
▁ब्राउज़र	-8069
▁फिलीस्तीनी	-8070
उल	-8071
ंबा	-8072
शोर	-8073
र्ते	-8074
▁चिर	-8075
काव्य	-8076
▁कोने	-8077
lation	-8078
▁नामों	-8079
▁सरदारों	-8080
▁सशस्त्र	-8081
22	-8082
राक	-8083
▁बछ	-8084
ज्जित	-8085
▁ऊँची	-8086
▁खजूर	-8087
▁फ़ाय	-8088
▁गुलाम	-8089
ख्तियार	-8090
सामग्री	-8091
कूट	-8092
रांत	-8093
▁ढाल	-8094
▁हिल	-8095
▁अवशेष	-8096
▁आंखों	-8097
▁आभूषण	-8098
▁प्रदर्शक	-8099
▁हस्तांतरण	-8100
39	-8101
ैश	-8102
ितु	-8103
▁ठे	-8104
▁वग	-8105
क़ूब	-8106
नियम	-8107
▁चखो	-8108
▁असंग	-8109
▁आपात	-8110
▁छिपी	-8111
▁समझी	-8112
▁समझो	-8113
▁दरख्त	-8114
▁मुकदमे	-8115
▁समीकरण	-8116
▁मुद्रित	-8117
▁\	-8118
▁आजकल	-8119
▁परदा	-8120
▁रुजू	-8121
▁कारगर	-8122
▁सरीही	-8123
▁परिचालन	-8124
▁दूरसंचार	-8125
▁परहेज़गारों	-8126
IL	-8127
ेत	-8128
जील	-8129
उनसे	-8130
बर्ग	-8131
▁ठाक	-8132
▁हाई	-8133
▁ऊंचा	-8134
▁कलाम	-8135
▁अवतार	-8136
▁स्वाय	-8137
{0}	-8138
जुट	-8139
▁2009	-8140
▁पाँव	-8141
▁मज़े	-8142
आर्थिक	-8143
▁स्क्रिप्ट	-8144
▁अमृत	-8145
▁पैरों	-8146
▁संतान	-8147
▁आनुवंश	-8148
▁शास्त्री	-8149
▁संव्यवहार	-8150
▁हिन्दुस्तान	-8151
ब्बे	-8152
▁आन्द	-8153
▁अहिंसा	-8154
▁फिल्टर	-8155
▁स्तम्भ	-8156
▁आज़माइश	-8157
▁संरक्षित	-8158
ree	-8159
▁150	-8160
किताब	-8161
फ़ाइल	-8162
▁निषे	-8163
मूर्ति	-8164
▁असंभव	-8165
▁डालना	-8166
▁बदलना	-8167
▁निराशा	-8168
▁लाएँगे	-8169
▁स्थलों	-8170
▁विकलांग	-8171
ोपण	-8172
स्सा	-8173
▁वाक	-8174
lic	-8175
रेटर	-8176
▁अवगत	-8177
▁नींव	-8178
ढ़ियों	-8179
▁अग्रे	-8180
▁मंजूर	-8181
▁श्रद्धांजलि	-8182
75	-8183
पृ	-8184
ज्जु	-8185
ियाद	-8186
ुकला	-8187
▁कुर	-8188
▁सड़कों	-8189
▁अभिव्यक्त	-8190
▁पूर्वोत्तर	-8191
आइ	-8192
एफसी	-8193
फिक़	-8194
शिला	-8195
▁(5)	-8196
▁अपन	-8197
▁इल्	-8198
▁ग़ु	-8199
कार्ड	-8200
▁सूरत	-8201
▁अद्	-8202
▁रुस	-8203
▁ठहरे	-8204
▁तुम्	-8205
▁देनी	-8206
▁पैग़	-8207
धिकारिक	-8208
▁सेनाओं	-8209
MA	-8210
मुखी	-8211
स्पी	-8212
ॉर्ट	-8213
▁नील	-8214
▁खोला	-8215
फ्रेंस	-8216
▁अन्दा	-8217
▁उपभोग	-8218
▁बाज़ार	-8219
▁श्रीलंका	-8220
ct	-8221
ंघा	-8222
पटल	-8223
▁रसी	-8224
▁दत्त	-8225
▁चक्कर	-8226
▁नतीजा	-8227
▁संकाय	-8228
▁स्विच	-8229
▁भड़कती	-8230
▁सर्विस	-8231
▁translat	-8232
▁कार्यपालिका	-8233
राबी	-8234
▁फॉर	-8235
▁बुत	-8236
वर्धन	-8237
▁राजी	-8238
▁स्वे	-8239
▁पुराण	-8240
▁अपूर्ण	-8241
▁राजपत्र	-8242
▁राष्ट्री	-8243
▁प्राप्तकर्ता	-8244
.11	-8245
▁नृ	-8246
ting	-8247
▁वर्षगांठ	-8248
▁समस्याएं	-8249
आज	-8250
डीए	-8251
सरत	-8252
▁44	-8253
रसूल	-8254
िएशन	-8255
विशेष	-8256
▁आईसी	-8257
▁औषधि	-8258
▁धमकी	-8259
▁बाएं	-8260
▁एकजुट	-8261
▁कच्चे	-8262
▁क़ब्ल	-8263
▁दादाओं	-8264
▁बरसाया	-8265
▁वक्तव्य	-8266
▁समायोजन	-8267
▁झुठलाओगे	-8268
▁महानिदेशक	-8269
परक	-8270
खण्ड	-8271
बड़े	-8272
्रीट	-8273
▁घोष	-8274
▁इन्त	-8275
▁कतरा	-8276
▁सालों	-8277
▁क्षैतिज	-8278
▁पाबन्दी	-8279
▁परिणामों	-8280
▁मंत्रालयों	-8281
/%	-8282
अर्	-8283
टरी	-8284
▁रै	-8285
▁अटक	-8286
▁कोमल	-8287
साधारण	-8288
▁बनाएं	-8289
▁मोहलत	-8290
▁समर्थक	-8291
▁निर्माता	-8292
▁उम्मीदवार	-8293
18	-8294
▁(.	-8295
▁शर	-8296
गोरि	-8297
पहले	-8298
बाज़	-8299
▁185	-8300
▁ताक	-8301
▁लखन	-8302
▁आगमन	-8303
▁रेशम	-8304
▁सुचर	-8305
▁चेहरा	-8306
▁स्क्र	-8307
वैज्ञान	-8308
▁नियंत्रक	-8309
▁प्रवाहित	-8310
दक	-8311
.10	-8312
लीस	-8313
▁छः	-8314
चाहे	-8315
धारकों	-8316
▁विधाय	-8317
▁सुदूर	-8318
▁तदनुसार	-8319
▁दीर्घकालिक	-8320
-4	-8321
nu	-8322
व्	-8323
ओएस	-8324
ांक	-8325
▁me	-8326
▁सटी	-8327
चंद्र	-8328
▁कोरो	-8329
▁पादप	-8330
▁नमूने	-8331
▁अनुकरण	-8332
▁परिसंप	-8333
▁विवेकान	-8334
▁अपराधियों	-8335
ॉजी	-8336
▁अव्य	-8337
▁निवे	-8338
▁बतौर	-8339
▁बेहद	-8340
▁भीड़	-8341
▁स्थूल	-8342
▁आँकड़ा	-8343
▁छोड़ने	-8344
▁डाक्टर	-8345
▁नाटकों	-8346
▁डाटाबेस	-8347
▁मनोरंजन	-8348
▁संग्राम	-8349
▁राजकुमार	-8350
▁वैयक्तिक	-8351
▁अप्रत्याशित	-8352
ीर	-8353
चाना	-8354
▁छेद	-8355
▁आवासी	-8356
▁सुलेमान	-8357
,%	-8358
▁is	-8359
ताबे	-8360
▁फलक	-8361
▁1947	-8362
▁इराक	-8363
▁एसोस	-8364
▁ग्लो	-8365
▁नाफर	-8366
▁स्वाद	-8367
▁ग्रन्थ	-8368
काज	-8369
साफ	-8370
▁ईस	-8371
फूज़	-8372
ल्कि	-8373
कारियों	-8374
▁गोपनीय	-8375
▁नियोजन	-8376
▁निर्धन	-8377
▁उपनिवेश	-8378
▁ज़बरदस्त	-8379
mi	-8380
चौ	-8381
नम	-8382
रानी	-8383
▁गंध	-8384
स्मिक	-8385
▁गोवा	-8386
▁बेचने	-8387
▁करूँगा	-8388
▁संग्रहण	-8389
end	-8390
दाद	-8391
▁धूल	-8392
▁गोपन	-8393
▁गोला	-8394
क्साइड	-8395
▁चिंतन	-8396
▁सन्देश	-8397
▁महामारी	-8398
1)	-8399
डऋ	-8400
▁बेहत	-8401
▁हल्का	-8402
▁जोड़ना	-8403
▁वग़ैरह	-8404
▁किताबों	-8405
▁पक्षियों	-8406
▁उपर्युक्त	-8407
▁केन्द्रों	-8408
ुलर	-8409
▁वीं	-8410
▁विलो	-8411
▁लड़ने	-8412
▁अंतर्व	-8413
▁जाननेवाला	-8414
भागी	-8415
माला	-8416
सीडी	-8417
▁सेन	-8418
होंने	-8419
▁शोषण	-8420
▁ठाकुर	-8421
▁इच्छुक	-8422
▁नीतिगत	-8423
▁पड़ोसी	-8424
▁ऑप	-8425
देवी	-8426
▁होश	-8427
मताओं	-8428
▁पॉलि	-8429
▁एहकाम	-8430
▁सेवानि	-8431
▁एख्तेयार	-8432
▁पूर्णतया	-8433
▁मुशरेकीन	-8434
▁प्रतिवर्ष	-8435
▁वास्तुकला	-8436
nd	-8437
ूण	-8438
vir	-8439
तरह	-8440
द्दा	-8441
▁दुश	-8442
▁विघ	-8443
▁हंस	-8444
▁ख्या	-8445
▁कानों	-8446
▁सुनवाई	-8447
▁अद्वितीय	-8448
▁उत्तराधिकारी	-8449
नीत	-8450
पहर	-8451
स्मार	-8452
▁आशंका	-8453
▁हानिक	-8454
▁हालात	-8455
▁मेहरबानी	-8456
erv	-8457
सिया	-8458
▁कैश	-8459
▁चित	-8460
च्छेदन	-8461
ुदायिक	-8462
▁अंगों	-8463
▁अपितु	-8464
▁दरवाजे	-8465
▁निकलते	-8466
▁सिखाया	-8467
▁चित्रित	-8468
▁सिंहासन	-8469
▁पर्यटकों	-8470
ौदा	-8471
▁बृह	-8472
▁शीत	-8473
▁अवयव	-8474
भारतीय	-8475
▁कमीशन	-8476
▁जोड़ी	-8477
▁सुचरिता	-8478
oo	-8479
कती	-8480
▁इट	-8481
▁अशोक	-8482
▁पटेल	-8483
पत्रों	-8484
▁कपड़ा	-8485
▁टेनिस	-8486
▁हारून	-8487
▁मुहैया	-8488
▁दै	-8489
ग़ैर	-8490
सेवा	-8491
▁माफ़	-8492
▁तुल्य	-8493
▁भूटान	-8494
▁मारने	-8495
▁सोचने	-8496
▁डॉक्टर	-8497
▁अवस्थित	-8498
▁स्थिरता	-8499
▁आधिकारिक	-8500
ast	-8501
hou	-8502
सन्द	-8503
ायों	-8504
ष्कृत	-8505
▁हाइड	-8506
▁गार्ड	-8507
▁जीवंत	-8508
▁रणनीति	-8509
▁प्रस्तावों	-8510
17	-8511
बद	-8512
ect	-8513
ासा	-8514
ख़्त	-8515
म्बा	-8516
चिकित	-8517
▁बांस	-8518
▁दीर्घा	-8519
▁आकस्मिक	-8520
.12	-8521
ड्र	-8522
▁01	-8523
ड्डी	-8524
मिया	-8525
▁मुम	-8526
▁वृद्ध	-8527
▁शब्दा	-8528
▁अतिमान	-8529
▁नेताजी	-8530
▁परिषद्	-8531
▁महफूज़	-8532
▁सचिवालय	-8533
▁स्टार्ट	-8534
▁उत्सर्जन	-8535
कोई	-8536
पाट	-8537
वचन	-8538
ियस	-8539
▁अशु	-8540
▁फर्	-8541
▁डालर	-8542
▁बरसात	-8543
▁तालिका	-8544
▁भेदभाव	-8545
मेर	-8546
▁02	-8547
▁झे	-8548
▁अनाथ	-8549
▁ट्रा	-8550
▁बातिल	-8551
▁प्रशंस	-8552
▁पर्यावरणीय	-8553
इसी	-8554
▁केस	-8555
यंत्र	-8556
▁इसहा	-8557
वास्तव	-8558
▁मुफ्त	-8559
▁प्रचुर	-8560
▁घरवालों	-8561
▁मंत्रियों	-8562
,"	-8563
ve	-8564
▁ग्रा	-8565
▁चाँद	-8566
▁बीवी	-8567
▁सब्ज	-8568
▁प्रबन्ध	-8569
▁विनिधान	-8570
stel	-8571
▁मुअ	-8572
ज्ञाप	-8573
▁अज्र	-8574
▁पागल	-8575
▁हफ्त	-8576
▁खासकर	-8577
▁धारित	-8578
▁नवीनतम	-8579
▁याक़ूब	-8580
▁संकेतक	-8581
▁निरन्तर	-8582
▁सूचीबद्ध	-8583
▁वॉ	-8584
▁दिव	-8585
▁माफ	-8586
.2013	-8587
▁सुपु	-8588
▁तालाब	-8589
▁शिर्क	-8590
▁इसहाक़	-8591
▁नवीकरण	-8592
▁प्रदेशों	-8593
▁ज़िम्मेदारी	-8594
ोड	-8595
भुज	-8596
ल्लत	-8597
▁टॉगल	-8598
▁स्ला	-8599
▁तरीक़े	-8600
▁ख़बरदार	-8601
▁दर्शाया	-8602
शक	-8603
सिड	-8604
▁जॉन	-8605
▁शेख	-8606
परेशन	-8607
▁बताए	-8608
▁मेन्यू	-8609
ुति	-8610
णुओं	-8611
ैक्ट	-8612
▁ऋतु	-8613
▁नकल	-8614
▁बड़	-8615
▁सन्त	-8616
▁मर्या	-8617
▁मणिपुर	-8618
ुड	-8619
ोद	-8620
.19	-8621
आपको	-8622
ब्बत	-8623
वाया	-8624
▁पहना	-8625
▁भेजना	-8626
▁स्वर्ग	-8627
▁चित्रकला	-8628
▁छे	-8629
▁आधी	-8630
न्दों	-8631
▁अंदा	-8632
▁कर्ज	-8633
▁समता	-8634
▁अफसोस	-8635
▁जानों	-8636
▁पूजते	-8637
▁स्टार	-8638
▁दुर्गा	-8639
▁प्रेषक	-8640
▁सुधारने	-8641
ँजी	-8642
िज़	-8643
▁आरा	-8644
▁कमे	-8645
▁एण्ड	-8646
▁दाऊद	-8647
▁पावर	-8648
▁शर्म	-8649
▁सूचक	-8650
▁कनाडा	-8651
▁किराए	-8652
▁गीतों	-8653
▁निकला	-8654
▁प्रकोप	-8655
▁सामुदायिक	-8656
▁स्वीकार्य	-8657
खने	-8658
▁गज	-8659
▁URL	-8660
▁लोप	-8661
दस्ती	-8662
▁आगरा	-8663
▁हरित	-8664
▁साक्षरता	-8665
▁विस्तारित	-8666
फॉ	-8667
यता	-8668
लापन	-8669
▁ऊँट	-8670
▁गड़	-8671
▁जैविक	-8672
▁बदौलत	-8673
▁अनुभूति	-8674
ोश	-8675
चाल	-8676
यित	-8677
▁be	-8678
▁मेड	-8679
▁शिष्ट	-8680
▁उपयोगिता	-8681
▁अप्रत्यक्ष	-8682
▁’	-8683
ंडे	-8684
▁बक	-8685
▁मीम	-8686
तीकरण	-8687
▁आघात	-8688
▁उठता	-8689
स्थापन	-8690
▁रोशनी	-8691
▁उन्मूलन	-8692
▁महाद्वीप	-8693
▁रूपांतरण	-8694
सह	-8695
ोन्	-8696
ड़का	-8697
▁गरि	-8698
▁छोर	-8699
▁यौन	-8700
▁आर्य	-8701
▁रेगि	-8702
▁आश्रम	-8703
▁बताना	-8704
▁अनुभवों	-8705
▁त्योहार	-8706
▁बेटियाँ	-8707
▁लड़कियों	-8708
stellation	-8709
▁न्यायपालिका	-8710
-5	-8711
IS	-8712
ile	-8713
ऐसा	-8714
तीन	-8715
▁पॉप	-8716
दोनों	-8717
▁कन्न	-8718
▁जाहिर	-8719
▁दोपहर	-8720
▁मास्ट	-8721
▁इसलिये	-8722
▁जिंदगी	-8723
▁टिप्पण	-8724
▁सांख्य	-8725
▁स्नातक	-8726
तौ	-8727
ोष्ठ	-8728
▁लहर	-8729
▁किंग	-8730
▁बजाए	-8731
▁रोचक	-8732
▁लखनऊ	-8733
▁फिरते	-8734
▁रंगों	-8735
▁हरियाणा	-8736
▁मुख्यालय	-8737
▁गतिविधियां	-8738
.%	-8739
▁34	-8740
लाइट	-8741
स्से	-8742
▁तित	-8743
▁रिम	-8744
▁आगामी	-8745
▁मुन्त	-8746
▁झुठलाते	-8747
▁बीवियों	-8748
▁सम्भावना	-8749
▁प्रतिनिधियों	-8750
ON	-8751
थल	-8752
▁इल	-8753
▁ध्य	-8754
▁सता	-8755
▁दिखला	-8756
बेहिश्त	-8757
▁उर्वरक	-8758
▁जाएँगी	-8759
▁मजदूरों	-8760
▁क़्योंकि	-8761
ah	-8762
ुश	-8763
▁चलाए	-8764
▁देहा	-8765
▁चलाएँ	-8766
▁नोटिस	-8767
▁धर्मों	-8768
▁समेकित	-8769
▁सर्वप्रथम	-8770
▁मैत्रीपूर्ण	-8771
ss	-8772
जुल	-8773
षकों	-8774
▁अनो	-8775
▁पतन	-8776
▁रोड	-8777
क़्ति	-8778
द्वार	-8779
▁नींद	-8780
▁पांव	-8781
▁पेशी	-8782
▁झिल्ली	-8783
▁क्षमताओं	-8784
▁इस्लामवादी	-8785
▁48	-8786
▁इधर	-8787
▁खनन	-8788
▁गुट	-8789
▁सैक	-8790
▁अतिथि	-8791
▁उड़ान	-8792
▁महान्	-8793
▁करेगें	-8794
▁निर्वाह	-8795
पूरा	-8796
▁पटल	-8797
▁सिने	-8798
▁ग्यार	-8799
▁कोरिया	-8800
लेस	-8801
▁जगा	-8802
▁ज्या	-8803
▁मधुमेह	-8804
▁सार्थक	-8805
▁मॉड्यूल	-8806
▁कार्यकाल	-8807
▁प्राणियों	-8808
)-	-8809
कथा	-8810
▁कमर	-8811
▁तेलु	-8812
▁दोषी	-8813
▁सिटी	-8814
▁गतिशील	-8815
▁शस्त्र	-8816
▁संस्थागत	-8817
▁प्रस्तुति	-8818
▁पारदर्शिता	-8819
.–	-8820
निय	-8821
ल्फ	-8822
ताएं	-8823
▁पाओ	-8824
▁नानक	-8825
क्टरों	-8826
▁उपाधि	-8827
▁प्रेषण	-8828
▁मामूली	-8829
▁नरेन्द्र	-8830
▁क्लिपबोर्ड	-8831
▁स्थानांतरित	-8832
.09	-8833
म्बे	-8834
ाराम	-8835
▁दरों	-8836
▁सादा	-8837
यात्रा	-8838
▁प्रजातियों	-8839
▁मुख्यमंत्री	-8840
▁साक्षात्कार	-8841
दिश	-8842
ान्	-8843
लेशन	-8844
▁चूक	-8845
▁लची	-8846
▁इंजन	-8847
▁जिसमे	-8848
▁वांछित	-8849
▁आश्वासन	-8850
▁संक्षेप	-8851
”।	-8852
01.	-8853
मलव	-8854
▁अहमद	-8855
▁कमेटी	-8856
▁तलाक़	-8857
▁पड़ोस	-8858
▁बच्चन	-8859
▁लौटकर	-8860
▁सोसाय	-8861
▁डेटाबेस	-8862
▁परेशानी	-8863
▁प्रौद्योगिकियों	-8864
▁१६	-8865
ड़की	-8866
र्चे	-8867
▁मले	-8868
▁ध्रु	-8869
▁निकलता	-8870
▁वृत्ता	-8871
विद्यालय	-8872
▁ज़्यादती	-8873
.08	-8874
हाली	-8875
▁ईस्ट	-8876
स्वामी	-8877
▁कब्जा	-8878
▁दर्जा	-8879
▁पुनर्व	-8880
आस	-8881
ine	-8882
टकर	-8883
डेट	-8884
दोष	-8885
बामा	-8886
▁मरयम	-8887
▁विवश	-8888
▁गरिमा	-8889
▁तारों	-8890
▁लौटना	-8891
▁श्रेय	-8892
▁आचार्य	-8893
▁भ्रष्टाचार	-8894
एक्स	-8895
सिटी	-8896
▁बीत	-8897
▁लाम	-8898
▁इसमे	-8899
▁नेको	-8900
▁विगत	-8901
▁उपदेश	-8902
▁कीटना	-8903
▁वाज़े	-8904
▁मजबूती	-8905
▁कमल	-8906
▁तरा	-8907
▁दार	-8908
▁फौज	-8909
▁बगल	-8910
र्कता	-8911
▁नाफ़र	-8912
▁रोज़ा	-8913
▁सदनों	-8914
▁किराया	-8915
▁छुपाएँ	-8916
▁टाइम्स	-8917
▁शिकायतों	-8918
▁समाजवादी	-8919
▁यात्रियों	-8920
कॉ	-8921
बाबू	-8922
य्या	-8923
▁बनते	-8924
▁मुस्क	-8925
▁अधिष्ठ	-8926
▁किताबें	-8927
▁चित्रों	-8928
▁निकालना	-8929
▁यहूदियों	-8930
ड़न	-8931
टर्न	-8932
▁500	-8933
▁कों	-8934
▁खपत	-8935
▁भरत	-8936
▁मैथ	-8937
त्तीस	-8938
बल्कि	-8939
▁कारी	-8940
▁स्टॉक	-8941
▁मुद्रण	-8942
are	-8943
जिसे	-8944
ूर्व	-8945
▁300	-8946
▁पुत	-8947
▁बनो	-8948
▁शिल	-8949
title	-8950
▁गुजराती	-8951
▁स्वायत्त	-8952
्यस्त	-8953
▁छपाई	-8954
प्रदेश	-8955
▁अभिनय	-8956
▁दशमलव	-8957
▁अपशिष्ट	-8958
▁रूट	-8959
▁झगड़	-8960
▁मिलन	-8961
▁खुल्ला	-8962
▁शासकों	-8963
वैज्ञानिक	-8964
▁स्वैच्छिक	-8965
ev	-8966
box	-8967
तिर	-8968
नगर	-8969
▁उम	-8970
▁पुणे	-8971
▁संघीय	-8972
▁दिलचस्प	-8973
▁अनुमानित	-8974
ोई	-8975
▁po	-8976
ज़ूर	-8977
भासी	-8978
▁गम्	-8979
.2019	-8980
▁हड्डी	-8981
मोहम्मद	-8982
▁जनजातीय	-8983
▁पैदावार	-8984
▁नियन्त्र	-8985
▁साझीदारी	-8986
▁अवज्ञाकारी	-8987
',	-8988
उसी	-8989
गेट	-8990
निश	-8991
राइट	-8992
हीनता	-8993
▁कहती	-8994
▁लड़े	-8995
संख्यक	-8996
▁एजेंट	-8997
▁सोचता	-8998
न्च	-8999
▁जमे	-9000
▁विच	-9001
▁(195	-9002
▁1992	-9003
▁नेमत	-9004
▁मुहर	-9005
▁प्रगा	-9006
▁सूचका	-9007
प्रणाली	-9008
▁अब्दुल	-9009
▁उद्भूत	-9010
▁आंकड़ों	-9011
▁कार्यवाह	-9012
▁कन	-9013
तनाम	-9014
न्ता	-9015
पालन	-9016
▁चरम	-9017
▁ह्य	-9018
▁असंत	-9019
▁किरण	-9020
▁धीमी	-9021
▁बुढ़	-9022
▁वक्र	-9023
▁ज़लील	-9024
▁पाठकों	-9025
▁प्रदर्शनी	-9026
▁हार्डवेयर	-9027
,2	-9028
▁कण	-9029
▁अविल	-9030
▁कुशा	-9031
▁लोहे	-9032
▁ध्येय	-9033
▁करूंगा	-9034
▁क्रमांक	-9035
▁मूर्तिक	-9036
कस	-9037
थाम	-9038
वाट	-9039
ज़ों	-9040
न्दे	-9041
▁असह	-9042
▁अभिर	-9043
▁ख्वा	-9044
▁बाँध	-9045
▁पीछला	-9046
▁वर्तनी	-9047
राने	-9048
र्तग	-9049
▁कवर	-9050
▁खौल	-9051
▁विप	-9052
▁व्र	-9053
▁स्टाक	-9054
▁चट्टान	-9055
▁पुनर्ग	-9056
▁पेटेंट	-9057
▁पोर्टल	-9058
▁केन्द्रित	-9059
,-	-9060
बन	-9061
सीमा	-9062
▁बसा	-9063
▁बही	-9064
▁कॉर्	-9065
▁बढ़ी	-9066
▁प्रोफ	-9067
▁सीआरए	-9068
▁माँगता	-9069
▁इन्होंने	-9070
▁कंपनियां	-9071
▁परिदृश्य	-9072
▁उपभोक्ताओं	-9073
सूद	-9074
स्ते	-9075
▁आइए	-9076
▁नाल	-9077
▁रूए	-9078
▁फैले	-9079
ियारों	-9080
▁ग्रिड	-9081
▁अभिन्न	-9082
▁आन्दोलन	-9083
▁काउंसिल	-9084
▁खुशख़बरी	-9085
▁कठिनाइयों	-9086
▁विशेषाधिकार	-9087
ढा	-9088
दीन	-9089
▁विर	-9090
विवाद	-9091
▁अँधे	-9092
▁एक्ट	-9093
▁जवान	-9094
▁मूर्ख	-9095
▁गम्भीर	-9096
▁मत्स्य	-9097
▁किनारों	-9098
▁मज़दूरी	-9099
▁मुताबिक	-9100
▁किलोग्राम	-9101
▁,	-9102
ज़ब	-9103
बिट	-9104
र्सी	-9105
▁पंथ	-9106
डियों	-9107
▁अनदे	-9108
▁घृणा	-9109
▁पायी	-9110
▁अभिया	-9111
▁एक्सट	-9112
▁एल्गोरि	-9113
▁गर्भाशय	-9114
▁ईमानदारी	-9115
▁मास्टर्स	-9116
डब	-9117
यायी	-9118
▁बुक	-9119
▁मसी	-9120
▁रोमा	-9121
▁शोभा	-9122
▁इंकार	-9123
▁पट्टे	-9124
▁उद्यमियों	-9125
▁निर्वाचित	-9126
▁ऑस्ट्रेलिया	-9127
हब	-9128
▁1.4	-9129
▁कीं	-9130
▁चश्	-9131
▁मुक	-9132
▁वहन	-9133
बन्धन	-9134
▁अनंत	-9135
▁चर्च	-9136
▁दुखी	-9137
▁हरेक	-9138
eneric	-9139
▁आज़ाद	-9140
▁कैमरा	-9141
▁चरणों	-9142
▁जर्मन	-9143
▁दायरे	-9144
▁निंदा	-9145
▁जापानी	-9146
▁अधिकाधिक	-9147
लर	-9148
ज़ू	-9149
▁6.	-9150
मानों	-9151
र्मेट	-9152
▁आहरण	-9153
▁चारा	-9154
▁डिज़	-9155
▁रखेगा	-9156
▁लड़ते	-9157
िरपेक्ष	-9158
ॉस	-9159
दिता	-9160
▁उन्नति	-9161
▁ऑपरेशन	-9162
▁जानेवाले	-9163
▁कार्यशाला	-9164
▁फिलीस्तीन	-9165
▁विशेषताओं	-9166
▁अंज	-9167
▁ऊँचे	-9168
▁जिनपर	-9169
▁सुलझा	-9170
▁अग्रसर	-9171
▁ब्यूरो	-9172
▁सहेजने	-9173
▁आवृत्ति	-9174
▁निधियों	-9175
▁विख्यात	-9176
▁निष्पक्ष	-9177
▁परिपूर्ण	-9178
);	-9179
oog	-9180
डित	-9181
oogle	-9182
▁क्री	-9183
▁भटका	-9184
▁यानि	-9185
▁सांप	-9186
स्तरीय	-9187
▁बदलते	-9188
▁कोरोना	-9189
▁विनम्र	-9190
▁निमंत्र	-9191
▁सूचकांक	-9192
▁प्रख्यात	-9193
▁हिन्दुओं	-9194
▁सत्याग्रह	-9195
.-	-9196
ext	-9197
▁उछ	-9198
पत्य	-9199
▁but	-9200
▁रोब	-9201
▁1948	-9202
▁चुंब	-9203
▁टिका	-9204
▁प्रगाढ़	-9205
▁सतर्कता	-9206
▁सोसायटी	-9207
▁अपीलार्थी	-9208
▁प्रगतिशील	-9209
▁37	-9210
क्टरी	-9211
▁बताओ	-9212
▁बाएँ	-9213
▁मलया	-9214
सरकारी	-9215
▁स्टाफ	-9216
▁जनजाति	-9217
▁जीवाणु	-9218
▁सिक्किम	-9219
aa	-9220
रेब	-9221
िसी	-9222
▁रुए	-9223
ब्रों	-9224
रक्षा	-9225
िकेशन	-9226
▁रातों	-9227
▁प्रतिभूतियों	-9228
इंट	-9229
तको	-9230
▁खाई	-9231
ान्तर	-9232
▁इकट्	-9233
▁परदे	-9234
▁पढ़कर	-9235
▁बढ़ना	-9236
▁इंतजार	-9237
▁पुकारो	-9238
▁निकायों	-9239
▁स्मार्ट	-9240
▁विधानसभा	-9241
▁1"	-9242
▁बसे	-9243
▁संकु	-9244
▁उठाकर	-9245
▁सिंधु	-9246
▁अनुदेश	-9247
▁स्वदेशी	-9248
▁उत्पत्ति	-9249
▁निर्देशों	-9250
नीस	-9251
हें	-9252
▁ID	-9253
हार्	-9254
▁घमंड	-9255
▁मेनू	-9256
▁सजदे	-9257
▁फैसले	-9258
▁पाएंगे	-9259
▁परिपत्र	-9260
▁विशुद्ध	-9261
▁फरिश्तों	-9262
क़ु	-9263
▁लय	-9264
▁अखंड	-9265
▁तारे	-9266
▁तेज़	-9267
▁ताज़ा	-9268
▁निदान	-9269
▁मूत्र	-9270
▁क़ुदरत	-9271
▁पुर्तग	-9272
▁फिटकार	-9273
▁वाज़ेए	-9274
▁कुफ्फार	-9275
▁मंत्रिम	-9276
▁संगोष्ठ	-9277
▁श्रमिकों	-9278
▁अनुस्मृति	-9279
-6	-9280
घो	-9281
ष्मा	-9282
▁2018	-9283
▁लायक	-9284
▁विषा	-9285
क्षमता	-9286
▁ओबामा	-9287
▁पत्ते	-9288
▁पाण्ड	-9289
▁वगैरह	-9290
▁सख्ती	-9291
▁स्नेह	-9292
▁अवलोकन	-9293
▁खिसकाएँ	-9294
▁विधियों	-9295
▁विशेषज्ञों	-9296
एमएस	-9297
शीदा	-9298
ुल्य	-9299
▁असं	-9300
▁वान	-9301
▁HTML	-9302
▁अश्व	-9303
▁अंगूर	-9304
▁लगेगा	-9305
िश्रमिक	-9306
▁दरवाज़े	-9307
▁दोस्तों	-9308
▁मांसपेश	-9309
▁संतुलित	-9310
▁श्रेणियों	-9311
sp	-9312
तला	-9313
श्ले	-9314
ुतोष	-9315
▁रुक	-9316
▁द्रव	-9317
▁छिद्र	-9318
▁विटामिन	-9319
▁हिंदुओं	-9320
▁निर्णायक	-9321
▁पत्नियों	-9322
▁पारिस्थित	-9323
▁अन्तर्राष्ट्रीय	-9324
छोटे	-9325
3.	-9326
भे	-9327
ृश	-9328
▁११	-9329
▁जोड	-9330
▁टेप	-9331
▁यहॉ	-9332
▁रंज	-9333
▁शंक	-9334
वक्ता	-9335
▁सिया	-9336
▁सेवन	-9337
▁संयोग	-9338
▁मुनाफ़	-9339
▁कार्यकलापों	-9340
pp	-9341
ऐसे	-9342
ब्ध	-9343
्यौ	-9344
▁इश	-9345
▁उग	-9346
पादक	-9347
ालीस	-9348
▁थोप	-9349
▁फसाद	-9350
▁बलों	-9351
▁योनि	-9352
▁काटने	-9353
▁झगड़ा	-9354
▁पंद्र	-9355
▁मौखिक	-9356
▁अनुबंध	-9357
▁निकाली	-9358
▁व्याकरण	-9359
▁संकीर्ण	-9360
47	-9361
.05	-9362
िशा	-9363
क्रा	-9364
▁अनू	-9365
▁कोट	-9366
▁क्लब	-9367
संबंधी	-9368
▁असमान	-9369
▁झगड़े	-9370
▁दुग्ध	-9371
▁लीजिए	-9372
▁एनपीएस	-9373
▁पारदर्शी	-9374
▁अनुक्रिया	-9375
्वित	-9376
▁(199	-9377
▁आचार	-9378
▁बारिश	-9379
▁अफ़सोस	-9380
▁रात्रि	-9381
▁स्वतन्त्र	-9382
▁पारिश्रमिक	-9383
han	-9384
िरों	-9385
▁फ़ी	-9386
▁फेफ	-9387
▁फार्	-9388
▁यज्ञ	-9389
▁कोष्ठ	-9390
▁पर्यटक	-9391
▁बंगाली	-9392
▁विलोपित	-9393
gu	-9394
ूर्त	-9395
न्नाथ	-9396
▁जहाँन	-9397
▁देखिए	-9398
▁महिमा	-9399
▁सालेह	-9400
▁स्नान	-9401
िपीडिया	-9402
▁अन्वेषण	-9403
▁गिरोहों	-9404
▁मूल्यवान	-9405
▁निवासियों	-9406
राद	-9407
सील	-9408
जहाँ	-9409
जहां	-9410
▁187	-9411
▁अज़	-9412
▁तक़	-9413
▁मख़	-9414
▁शैल	-9415
वित्त	-9416
▁घायल	-9417
▁अद्भुत	-9418
▁निविदा	-9419
▁मानचित्र	-9420
,5	-9421
वाय	-9422
सख्त	-9423
▁and	-9424
▁कैद	-9425
▁बहुल	-9426
▁आवेदक	-9427
▁तिहाई	-9428
▁भेजते	-9429
▁कदाचित	-9430
नाल	-9431
गुज़र	-9432
स्वती	-9433
▁अंधा	-9434
▁धारक	-9435
▁परित	-9436
▁किसने	-9437
▁पाएगा	-9438
▁व्यास	-9439
▁आदेशों	-9440
▁कीमतों	-9441
▁प्रिंट	-9442
▁अध्यापक	-9443
▁इच्छाओं	-9444
▁सहभागिता	-9445
▁7.	-9446
▁बन्	-9447
▁रेट	-9448
▁सिख	-9449
▁1950	-9450
▁लगाई	-9451
▁सबकी	-9452
कोडिंग	-9453
▁गेहूं	-9454
▁टेस्ट	-9455
▁भेजता	-9456
▁मंजिल	-9457
▁अर्जुन	-9458
▁आशुतोष	-9459
▁पूर्वक	-9460
▁परंपराओं	-9461
ल्ह	-9462
ंटों	-9463
यानक	-9464
▁कोविड	-9465
▁फ़साद	-9466
▁अप्रिय	-9467
▁बेहश्त	-9468
▁झुठलाने	-9469
▁निक्षेप	-9470
▁वाक़िफकार	-9471
ब्ज	-9472
च्ची	-9473
▁खैर	-9474
▁बिछ	-9475
▁1000	-9476
▁मौके	-9477
▁किशोर	-9478
▁हटाना	-9479
▁आबंटित	-9480
▁बिलियन	-9481
▁राजवंश	-9482
▁हिम्मत	-9483
▁संस्थाएं	-9484
▁जनजातियों	-9485
▁निश्चिन्त	-9486
▁प्रोफ़ाइल	-9487
णाम	-9488
ारस	-9489
ुलन	-9490
आईएस	-9491
र्षि	-9492
▁हेक्ट	-9493
▁समझाने	-9494
मद	-9495
किट	-9496
▁उधर	-9497
▁धरो	-9498
▁सोना	-9499
▁तृतीय	-9500
▁न्यूय	-9501
▁एकीकरण	-9502
▁मजिस्ट	-9503
▁बादशाही	-9504
फान	-9505
▁१७	-9506
बंधन	-9507
▁एंव	-9508
▁एजे	-9509
▁भगत	-9510
▁हॉल	-9511
▁अण्ड	-9512
▁टीवी	-9513
▁दौरे	-9514
▁मिथ्या	-9515
▁विकिरण	-9516
▁अनिश्चित	-9517
▁जबर	-9518
▁उपनि	-9519
▁नारी	-9520
▁असत्य	-9521
▁रिमोट	-9522
▁वर्षो	-9523
▁शर्मा	-9524
▁स्थाई	-9525
▁इज्ज़त	-9526
▁झगड़ते	-9527
▁पूछताछ	-9528
▁राजदूत	-9529
▁बाजारों	-9530
▁रविशंकर	-9531
▁निरपेक्ष	-9532
▁बीमारियों	-9533
▁संभावनाओं	-9534
वात	-9535
▁जनक	-9536
▁जन्	-9537
▁फंड	-9538
▁जाएंगी	-9539
▁इल्ज़ाम	-9540
▁जगन्नाथ	-9541
▁सुपुर्द	-9542
▁अभियुक्त	-9543
▁वार्षिकी	-9544
▁निष्पादित	-9545
▁विमानक्षेत्र	-9546
ईल	-9547
बुल	-9548
▁अश्	-9549
▁क़ी	-9550
▁लेट	-9551
वारिक	-9552
▁करों	-9553
▁ब्यौ	-9554
▁ख़ुशी	-9555
स्तियां	-9556
▁यूनियन	-9557
▁विश्राम	-9558
▁कलाकारों	-9559
ial	-9560
ory	-9561
▁राव	-9562
▁सको	-9563
▁मधुर	-9564
▁तदबीर	-9565
▁पढ़ना	-9566
र्याप्त	-9567
▁रोगियों	-9568
▁समावेशी	-9569
▁क्रियान्वयन	-9570
af	-9571
रम	-9572
सुर	-9573
ंतुक	-9574
चिह्न	-9575
स्टीट	-9576
ैसेरो	-9577
▁अन्न	-9578
▁उज्ज	-9579
▁घबरा	-9580
▁विभि	-9581
▁चुनने	-9582
▁कहलाता	-9583
▁ट्रस्ट	-9584
▁मुद्दा	-9585
▁प्रपत्र	-9586
▁ब्रैसेरो	-9587
▁अनुप्रयोगों	-9588
विष	-9589
सिब	-9590
▁एट	-9591
▁बोह	-9592
▁वाई	-9593
▁वाज	-9594
▁विधवा	-9595
▁शॉर्ट	-9596
▁अपमानित	-9597
▁प्रदाता	-9598
रेज	-9599
▁ढी	-9600
धारक	-9601
▁खुर	-9602
▁घाव	-9603
▁बिख	-9604
शियों	-9605
▁पूछें	-9606
ंत्रिकी	-9607
ुस्तानी	-9608
▁निस्बत	-9609
▁प्रदाह	-9610
▁""	-9611
लिता	-9612
▁चुक	-9613
▁मुर	-9614
▁नाना	-9615
▁छापें	-9616
▁असफलता	-9617
▁आवासीय	-9618
▁मिटाने	-9619
▁रोकथाम	-9620
▁नीतियां	-9621
▁विशेषताएं	-9622
▁राज्यक्षेत्र	-9623
▁1'	-9624
▁रथ	-9625
दानी	-9626
▁चोर	-9627
▁मीन	-9628
▁अवरोध	-9629
▁कार्ट	-9630
▁लक्ष्मी	-9631
▁वर्गीकृत	-9632
▁श्रीवास्तव	-9633
दह	-9634
ोकस	-9635
▁ग़ल	-9636
▁वनों	-9637
▁वसूल	-9638
▁फारसी	-9639
▁बशर्ते	-9640
▁फ़रमाया	-9641
45	-9642
ंड़	-9643
उत्	-9644
▁हौ	-9645
atla	-9646
नामा	-9647
▁उजा	-9648
▁गोर	-9649
▁भोग	-9650
▁कहकर	-9651
▁देरी	-9652
▁सटीक	-9653
▁सबूत	-9654
atlami	-9655
▁पहलों	-9656
रूद्दीन	-9657
▁दरगुज़र	-9658
viratlami	-9659
-7	-9660
डोर	-9661
▁hi	-9662
यंकर	-9663
शासित	-9664
▁(200	-9665
▁डेवल	-9666
▁धुंध	-9667
▁सल्त	-9668
▁बंगला	-9669
▁बैठने	-9670
▁वापिस	-9671
▁कामकाज	-9672
▁समकक्ष	-9673
OP	-9674
ैद	-9675
गेह	-9676
▁काय	-9677
indow	-9678
ोलॉजी	-9679
▁1998	-9680
▁चलकर	-9681
▁माला	-9682
▁समीप	-9683
▁हिमन	-9684
▁नामित	-9685
▁मार्क	-9686
▁लाहौर	-9687
▁अनुष्ठ	-9688
▁कर्तव्यों	-9689
वटी	-9690
ोरा	-9691
इयाँ	-9692
भारी	-9693
▁उलटे	-9694
▁फैली	-9695
▁रोके	-9696
▁खाड़ी	-9697
▁हल्के	-9698
for	-9699
मंद	-9700
▁कैल	-9701
▁बैल	-9702
▁जुर्	-9703
▁पूरक	-9704
▁भ्रम	-9705
▁ज़रूरी	-9706
▁अत्याचारियों	-9707
ain	-9708
ख़ी	-9709
विड	-9710
किया	-9711
▁डेम	-9712
क़रार	-9713
▁पुस्	-9714
▁विलय	-9715
▁अमानत	-9716
▁चलाना	-9717
▁जगहों	-9718
▁भूभाग	-9719
बली	-9720
▁IM	-9721
ions	-9722
▁पदक	-9723
▁अटकल	-9724
▁जगत्	-9725
▁लपेट	-9726
▁आबंटन	-9727
▁उर्वर	-9728
▁तत्पर	-9729
▁तसदीक़	-9730
▁बढ़ाकर	-9731
▁संचिका	-9732
▁मुर्दों	-9733
▁न्यायाधीशों	-9734
▁लेखापरीक्षा	-9735
ुद	-9736
सनी	-9737
▁इंद्र	-9738
▁रोकें	-9739
▁गिरावट	-9740
▁क्रियाकलाप	-9741
▁विकिपीडिया	-9742
आया	-9743
वेट	-9744
सेन	-9745
दक्ष	-9746
label	-9747
▁पटना	-9748
▁पहने	-9749
▁सुपर	-9750
▁शरारत	-9751
▁शृंखला	-9752
▁क्रियाओं	-9753
hr	-9754
ोरेशन	-9755
कृष्णन	-9756
▁चुपके	-9757
▁बिल्ड	-9758
▁भयानक	-9759
▁सहारे	-9760
▁हुकुम	-9761
▁सहभागी	-9762
▁मर्यादा	-9763
▁सूचनाओं	-9764
▁निर्माताओं	-9765
एब	-9766
गिर	-9767
▁१९८	-9768
▁फ्री	-9769
▁रूचि	-9770
▁जमाने	-9771
▁डालता	-9772
▁प्राइ	-9773
▁बदकार	-9774
.,	-9775
गीर	-9776
दण्ड	-9777
वृति	-9778
▁डिर	-9779
▁बला	-9780
पायों	-9781
▁गुला	-9782
ेन्द्र	-9783
▁फ़ज़ल	-9784
▁बग़ैर	-9785
▁भ्रमण	-9786
▁उद्यमी	-9787
▁राजकीय	-9788
▁सदियों	-9789
▁चुनावों	-9790
▁पूर्वोक्त	-9791
▁संभावनाएं	-9792
▁ऑटो	-9793
▁गणेश	-9794
▁जुदा	-9795
▁करूणा	-9796
▁शाश्व	-9797
▁पिछड़े	-9798
▁पुनर्वास	-9799
▁क्षतिपूर्ति	-9800
जै	-9801
ard	-9802
▁(&	-9803
▁गत	-9804
तिया	-9805
बर्ट	-9806
ट्रिक	-9807
▁कराए	-9808
▁गायब	-9809
▁पेशा	-9810
▁लाता	-9811
ंबेडकर	-9812
▁अपलोड	-9813
▁चालीस	-9814
▁मल्टी	-9815
▁अर्द्ध	-9816
▁पोशीदा	-9817
▁कॉन्फ़िगरेशन	-9818
ir	-9819
▁रोम	-9820
काकुल	-9821
भक्ति	-9822
विभाग	-9823
▁रसीद	-9824
▁समेट	-9825
पश्चिम	-9826
▁किताबे	-9827
▁पाएँगे	-9828
▁कारावास	-9829
▁विचित्र	-9830
▁दिशानिर्देश	-9831
▁हन	-9832
क्यू	-9833
न्ने	-9834
्युन	-9835
▁बहती	-9836
स्मारक	-9837
▁बकाया	-9838
▁हल्की	-9839
▁क़समों	-9840
▁छत्तीस	-9841
▁जांचें	-9842
▁तस्बीह	-9843
▁मक़सूद	-9844
▁कामयाबी	-9845
▁फरमाएगा	-9846
▁महिलाएं	-9847
▁लक्षणों	-9848
▁हानिकारक	-9849
our	-9850
प्स	-9851
_01.	-9852
एसएस	-9853
ोचित	-9854
▁छंद	-9855
▁नली	-9856
▁सूझ	-9857
क्तता	-9858
▁जावा	-9859
▁ताजा	-9860
▁कमाया	-9861
▁स्टोर	-9862
▁आनुवंशिक	-9863
स्स	-9864
हीद	-9865
ाइट	-9866
प्रो	-9867
▁ढोल	-9868
▁what	-9869
▁आगाह	-9870
▁बहका	-9871
▁ऑंखें	-9872
▁तमन्ना	-9873
▁नारियल	-9874
▁मुकाबला	-9875
ॉय	-9876
ीयर	-9877
▁कश	-9878
माही	-9879
▁नाज	-9880
▁यती	-9881
▁सबब	-9882
▁तैना	-9883
▁दिखायी	-9884
▁बलिदान	-9885
▁आंबेडकर	-9886
▁वियतनाम	-9887
▁अभिवृद्धि	-9888
ज्ह	-9889
तीस	-9890
बोध	-9891
▁(4	-9892
▁तन	-9893
▁झलक	-9894
▁तीर	-9895
नेशनल	-9896
▁तख्त	-9897
▁बंधन	-9898
▁स्पी	-9899
▁खेतों	-9900
▁लॉगिन	-9901
▁ग्लोबल	-9902
▁परजीवी	-9903
▁निकालें	-9904
▁संपर्कों	-9905
▁विशेषज्ञता	-9906
वियत	-9907
▁वादे	-9908
▁वारा	-9909
▁सीखा	-9910
▁स्टी	-9911
▁गुमान	-9912
▁दवाओं	-9913
▁पृथक्	-9914
▁प्रसव	-9915
▁विजेता	-9916
ँस	-9917
ंगन	-9918
▁2)	-9919
वर्ण	-9920
▁URI	-9921
▁पाउ	-9922
▁हाम	-9923
▁खोले	-9924
▁मुआव	-9925
▁मेले	-9926
▁रवाना	-9927
▁सनातन	-9928
▁प्रौढ़	-9929
▁शाश्वत	-9930
▁अग्रेषित	-9931
लौ	-9932
art	-9933
जना	-9934
▁IS	-9935
मियम	-9936
स्पद	-9937
▁मरत	-9938
नागरी	-9939
▁अंधे	-9940
▁रुख़	-9941
▁स्कैन	-9942
▁तुरन्त	-9943
▁लेनदेन	-9944
▁प्रशासक	-9945
▁बदरूद्दीन	-9946
म्य	-9947
▁org	-9948
दिग्ध	-9949
▁खादी	-9950
▁लड़ी	-9951
▁2016)	-9952
▁इंस्ट	-9953
▁भयंकर	-9954
▁रहोगे	-9955
▁संचरण	-9956
▁सोचना	-9957
▁आरक्षण	-9958
▁दिशाओं	-9959
▁नर्मदा	-9960
▁यूसुफ़	-9961
▁अनुयायी	-9962
▁दिलचस्पी	-9963
▁माध्यमिक	-9964
▁ज़िम्मेदार	-9965
खोल	-9966
बंद	-9967
▁१३	-9968
item	-9969
ापित	-9970
▁NAME	-9971
▁आश्रय	-9972
▁जरुरत	-9973
▁बर्तन	-9974
▁कामयाब	-9975
▁बैठकों	-9976
▁सरस्वती	-9977
▁विक्रेता	-9978
ंय	-9979
ुखी	-9980
▁रच	-9981
▁१४	-9982
मरने	-9983
▁गोद	-9984
▁ताम	-9985
राधिक	-9986
▁दण्ड	-9987
▁पिक्	-9988
▁ग्रुप	-9989
▁धरोहर	-9990
▁साँचा	-9991
▁आपत्ति	-9992
▁निरस्त	-9993
▁सौहार्	-9994
▁समायोजित	-9995
▁निर्देशित	-9996
काई	-9997
▁अठ	-9998
▁लगो	-9999
वियाँ	-10000
▁1991	-10001
▁छिपे	-10002
action	-10003
▁आखिरी	-10004
▁कश्ती	-10005
▁अधिग्रहण	-10006
▁कहानियाँ	-10007
▁तुल्यकाल	-10008
RO	-10009
ौप	-10010
सुन	-10011
्वल	-10012
माता	-10013
ालेख	-10014
▁पिघ	-10015
▁सफ़	-10016
मुक्त	-10017
▁उतने	-10018
▁डराओ	-10019
▁तंगी	-10020
▁ताबे	-10021
▁सब्स	-10022
प्रधान	-10023
▁खुलने	-10024
▁भ्रूण	-10025
▁हुर्इ	-10026
▁तेलुगु	-10027
▁दृढ़ता	-10028
▁सिनेमा	-10029
▁फिल्मों	-10030
▁मौज़ूदा	-10031
▁पारिवारिक	-10032
▁लड	-10033
▁कां	-10034
▁नाव	-10035
जिसके	-10036
▁टाइम	-10037
▁तटीय	-10038
▁जरुरी	-10039
▁गुज़रे	-10040
▁सल्तनत	-10041
फत	-10042
राग	-10043
▁An	-10044
ount	-10045
स्थि	-10046
▁कम्	-10047
sthis	-10048
नीकरण	-10049
पूज्य	-10050
▁चिड़ी	-10051
▁पैटर्न	-10052
▁विचारण	-10053
▁चमत्कार	-10054
▁लाभदायक	-10055
▁whatsthis	-10056
▁अपर्याप्त	-10057
▁वार्तालाप	-10058
▁आश्चर्यजनक	-10059
▁j	-10060
जाति	-10061
▁उपरो	-10062
▁घातक	-10063
▁बाबा	-10064
▁लगें	-10065
▁जानती	-10066
▁निगेह	-10067
▁मुहलत	-10068
▁बेख़बर	-10069
▁बोहतान	-10070
▁अधीनस्थ	-10071
▁एख्तियार	-10072
ैट	-10073
क्व	-10074
बास	-10075
ैंस	-10076
▁ww	-10077
ोग्रा	-10078
▁ठहरने	-10079
▁बनावट	-10080
▁सोवियत	-10081
निर्धारण	-10082
▁तात्कालिक	-10083
▁दायित्वों	-10084
भंग	-10085
मेज	-10086
▁वध	-10087
▁बुश	-10088
▁जबतक	-10089
▁फिरे	-10090
▁लाकर	-10091
▁पूँजी	-10092
▁फाउंड	-10093
▁शुष्क	-10094
▁जाँचें	-10095
▁मास्टर	-10096
▁विपक्ष	-10097
▁आपराधिक	-10098
eb	-10099
ख्	-10100
▁चख	-10101
▁धनी	-10102
मिश्र	-10103
▁एकड़	-10104
▁सूखे	-10105
......	-10106
▁अब्दु	-10107
▁जेहाद	-10108
▁मसौदा	-10109
▁अभियोग	-10110
▁महर्षि	-10111
▁समुच्च	-10112
▁स्थगित	-10113
▁एमएसएमई	-10114
▁लाभप्रद	-10115
▁आधुनिकीकरण	-10116
कसा	-10117
पत्	-10118
▁षड	-10119
क्ष्	-10120
▁www	-10121
▁अमन	-10122
▁झेल	-10123
▁शौच	-10124
▁कुंज	-10125
▁भीतरी	-10126
▁दुर्बल	-10127
▁पंद्रह	-10128
▁मर्दों	-10129
▁यूआरएल	-10130
▁बहुमूल्य	-10131
▁अनुस्मारक	-10132
हेल	-10133
ापा	-10134
ख़ास	-10135
नायक	-10136
रहित	-10137
▁(10	-10138
▁डरे	-10139
बियों	-10140
▁चार्ट	-10141
▁उदासीन	-10142
तुम्हारी	-10143
▁आविष्कार	-10144
▁शब्दावली	-10145
▁क्षेत्रफल	-10146
▁मूर्तियों	-10147
▁प्रत्यर्थी	-10148
▁प्रमाणीकरण	-10149
.3	-10150
माद	-10151
ूपी	-10152
प्ले	-10153
कानाथ	-10154
▁करतू	-10155
▁ठहराए	-10156
▁पकड़ा	-10157
▁दुबारा	-10158
▁नाटकीय	-10159
▁निर्णयों	-10160
▁पुनर्गठन	-10161
▁क्षतिग्रस्त	-10162
लु	-10163
----	-10164
कावट	-10165
▁आत्	-10166
▁क्य	-10167
▁दाँ	-10168
▁दाल	-10169
▁सती	-10170
ग्राम	-10171
▁अम्ल	-10172
▁पाती	-10173
▁म्यू	-10174
▁करुणा	-10175
▁दिखता	-10176
▁अनुज्ञा	-10177
▁समन्वित	-10178
▁रखनेवाले	-10179
▁मूर्तिकला	-10180
EN	-10181
देख	-10182
सात	-10183
थरों	-10184
सूरत	-10185
▁टूल	-10186
▁डाइ	-10187
▁ऑंखों	-10188
▁पर्दा	-10189
▁चाहेगा	-10190
▁वाशिंग	-10191
▁क्रिस्ट	-10192
▁प्रक्रम	-10193
▁एक्सटेंशन	-10194
▁पद्धतियों	-10195
▁द्वारकानाथ	-10196
▁मार्गदर्शक	-10197
erm	-10198
राहट	-10199
शियन	-10200
▁रिफ	-10201
▁आन्त	-10202
▁इण्ड	-10203
▁रत्न	-10204
▁सभाओं	-10205
▁उद्धरण	-10206
▁संख़्या	-10207
▁अभिप्राय	-10208
▁शांतिपूर्ण	-10209
ापे	-10210
▁GN	-10211
▁उखा	-10212
▁हँस	-10213
▁क्षे	-10214
▁पुरी	-10215
▁यकीन	-10216
▁विदा	-10217
व्यस्त	-10218
▁2015)	-10219
▁चिल्ला	-10220
▁दिखाएं	-10221
▁राज़्य	-10222
▁आदर्शों	-10223
▁प्रतिवेदन	-10224
▁प्लास्टिक	-10225
किर	-10226
ष्प	-10227
फ़्त	-10228
ोग्य	-10229
▁अपी	-10230
▁धर्	-10231
पुस्त	-10232
▁ढूँढ	-10233
▁पौरा	-10234
▁वाकई	-10235
▁ग्रेड	-10236
▁भागवत	-10237
▁लेखों	-10238
▁पहचाना	-10239
▁विलियम	-10240
प्राप्ति	-10241
▁रखनेवाला	-10242
▁आत्मविश्वास	-10243
II	-10244
ंगर	-10245
फ़े	-10246
्टे	-10247
पेयी	-10248
भावी	-10249
▁भीम	-10250
विधिक	-10251
▁ताना	-10252
▁सजीव	-10253
▁अन्तः	-10254
▁चिन्त	-10255
▁जॉर्ज	-10256
तकोत्तर	-10257
▁प्रामाण	-10258
▁फाउंडेशन	-10259
MAIL	-10260
न्दन	-10261
▁कसौ	-10262
▁छीन	-10263
▁मरे	-10264
ज्ञानी	-10265
▁अनुयाय	-10266
▁नौसेना	-10267
▁प्रवास	-10268
▁फैलाने	-10269
▁अस्पष्ट	-10270
▁सुभाषबाबू	-10271
▁ः	-10272
ton	-10273
ज़ो	-10274
▁सऋ	-10275
मूसा	-10276
मेरा	-10277
▁186	-10278
▁आयाम	-10279
▁मसीह	-10280
▁लोगे	-10281
▁भूकंप	-10282
▁चेन्नई	-10283
▁जुड़ने	-10284
▁गंभीरता	-10285
▁विधायिका	-10286
88	-10287
ोंग	-10288
गरीय	-10289
णाचल	-10290
देखो	-10291
र्ची	-10292
ताजों	-10293
मण्डल	-10294
शनूदी	-10295
▁भण्ड	-10296
▁हरकत	-10297
क्सीजन	-10298
▁विकार	-10299
▁श्वसन	-10300
जहन्नुम	-10301
▁कुशादा	-10302
▁कौंसिल	-10303
▁नस्लों	-10304
▁मुअय्य	-10305
▁निरूपित	-10306
▁निर्वहन	-10307
▁नाफ़रमानी	-10308
▁०	-10309
यही	-10310
इतना	-10311
▁आवे	-10312
▁बाय	-10313
▁मेर	-10314
▁अमीर	-10315
▁ऊतकों	-10316
▁शिष्य	-10317
डब्ल्यू	-10318
▁लड़कों	-10319
nc	-10320
फीति	-10321
ित्ति	-10322
▁माया	-10323
▁वयस्क	-10324
▁सामंज	-10325
्यात्मक	-10326
▁प्रेमी	-10327
▁बादलों	-10328
▁दिनांकित	-10329
▁हथियारों	-10330
ूबी	-10331
▁काँ	-10332
▁जीने	-10333
▁मृदा	-10334
▁सफ़र	-10335
▁जयपुर	-10336
▁रस्सी	-10337
▁सौन्द	-10338
▁हिजरत	-10339
▁पेड़ों	-10340
▁दर्शाती	-10341
▁निःशुल्क	-10342
ype	-10343
लेन	-10344
सैन	-10345
▁65	-10346
▁उलझ	-10347
▁पवन	-10348
पृष्ठ	-10349
बूझकर	-10350
▁तिरु	-10351
▁पोषक	-10352
▁अस्थिर	-10353
▁इसराइल	-10354
▁आदिवासी	-10355
▁प्रबंधित	-10356
3)	-10357
थ्य	-10358
ब्त	-10359
ादन	-10360
ैंट	-10361
▁1)	-10362
ोपाल	-10363
▁कालि	-10364
▁चलेगा	-10365
जनात्मक	-10366
▁उत्सुक	-10367
▁उपरांत	-10368
▁इंस्टीट	-10369
▁चुंबकीय	-10370
▁रेखांकित	-10371
▁विवेकानंद	-10372
देह	-10373
पाए	-10374
▁अन्ध	-10375
▁दिली	-10376
▁फ्रा	-10377
▁समेत	-10378
▁इंगित	-10379
▁खेलने	-10380
▁करतूतों	-10381
▁निकालकर	-10382
▁हेक्टेयर	-10383
ust	-10384
भवन	-10385
्रल	-10386
▁लंब	-10387
दायगी	-10388
▁सौदे	-10389
▁हकीम	-10390
स्पष्ट	-10391
▁उत्थान	-10392
▁ताजमहल	-10393
▁पॉलिसी	-10394
▁बुलन्द	-10395
▁वाजपेयी	-10396
▁सौहार्द	-10397
▁गुणसूत्र	-10398
▁पांडुलिप	-10399
cri	-10400
▁38	-10401
▁ढ़	-10402
ज़िम	-10403
पड़े	-10404
▁लूट	-10405
▁सीट	-10406
▁गाने	-10407
▁खंडों	-10408
▁दूंगा	-10409
▁मैसूर	-10410
▁वायदे	-10411
प्ताहिक	-10412
▁मुख़्य	-10413
▁अपरिचित	-10414
▁कृतियों	-10415
तव	-10416
एंगे	-10417
▁यूं	-10418
▁1987	-10419
▁भेड़	-10420
हिन्दी	-10421
▁जिज्ञ	-10422
▁नजदीक	-10423
▁पैमान	-10424
▁ललिता	-10425
▁अभिकरण	-10426
▁पंचायत	-10427
▁मलयालम	-10428
▁ग्रंथों	-10429
▁शोकाकुल	-10430
▁उत्पादित	-10431
eg	-10432
हू	-10433
षाण	-10434
▁पग	-10435
उनको	-10436
ूँकि	-10437
▁मोर	-10438
▁साठ	-10439
ुपयोग	-10440
वर्तित	-10441
▁एक्सप	-10442
ब्दियों	-10443
▁इकट्ठे	-10444
▁जैसाकि	-10445
▁संस्थापक	-10446
▁श्रेष्ठता	-10447
किक	-10448
डीओ	-10449
जारी	-10450
म्बई	-10451
ैरात	-10452
▁ऋषि	-10453
▁मजा	-10454
▁मर्	-10455
▁सत्	-10456
.2017	-10457
▁आईपी	-10458
▁झोंक	-10459
▁दोहरी	-10460
▁अश्लील	-10461
▁दिलाया	-10462
▁द्रव्य	-10463
▁साँचाः	-10464
परिवर्तन	-10465
▁आमंत्रण	-10466
▁तकनीकों	-10467
’,	-10468
▁नस	-10469
बरील	-10470
▁वेग	-10471
बिनेट	-10472
▁पढ़े	-10473
▁मेहरा	-10474
▁करवाने	-10475
▁छवियों	-10476
▁तीव्रता	-10477
▁शत्रुओं	-10478
▁निमंत्रण	-10479
enericName	-10480
▁सम्बन्धों	-10481
▁सांप्रदायिक	-10482
▁Constellation	-10483
2,	-10484
EA	-10485
ठों	-10486
ाणु	-10487
▁ओल	-10488
▁नह	-10489
वाइस	-10490
▁मोल	-10491
▁लॉक	-10492
▁इटली	-10493
▁गर्भव	-10494
▁जमींद	-10495
▁प्रस्	-10496
▁बुतों	-10497
▁विकेट	-10498
▁हवाले	-10499
▁अलार्म	-10500
▁करवाया	-10501
▁ग़ुलाम	-10502
▁चुपचाप	-10503
▁बुलाते	-10504
▁छत्तीसगढ़	-10505
▁अनुयायियों	-10506
▁प्रारम्भिक	-10507
tic	-10508
▁लक	-10509
ट्टे	-10510
▁भोज	-10511
चित्य	-10512
▁1997	-10513
▁मृतक	-10514
▁रिहा	-10515
वर्षीय	-10516
▁मारते	-10517
▁सीनों	-10518
▁जन्मदिन	-10519
▁जिन्नों	-10520
▁कारस्तान	-10521
▁रेगिस्तान	-10522
▁पर्यवेक्षण	-10523
▁स्थानांतरण	-10524
गोश	-10525
जरी	-10526
टने	-10527
शीन	-10528
दरते	-10529
▁घोर	-10530
▁सघन	-10531
▁रूजू	-10532
▁सपने	-10533
क्षेपण	-10534
▁लंबित	-10535
▁मशीनों	-10536
▁दर्शकों	-10537
▁मौजिज़ा	-10538
▁प्रसारित	-10539
▁अनुपस्थित	-10540
▁ख़ुशख़बरी	-10541
▁फरमाबरदार	-10542
IT	-10543
निन	-10544
ैनी	-10545
▁08	-10546
▁on	-10547
इसके	-10548
ज्जुब	-10549
▁कतार	-10550
▁चुनी	-10551
क्षकों	-10552
▁अंतरा	-10553
▁सकताः	-10554
▁बुनियाद	-10555
▁स्वयंसे	-10556
▁अपमानजनक	-10557
▁एसोसिएशन	-10558
▁चन्द्रमा	-10559
.6	-10560
?-	-10561
श्क	-10562
▁मनी	-10563
color	-10564
▁तनिक	-10565
▁बायो	-10566
▁ब्ला	-10567
▁भुजा	-10568
dition	-10569
▁अनन्य	-10570
▁आभासी	-10571
▁एहसास	-10572
▁क्रूर	-10573
▁समूचे	-10574
▁अनुज्ञ	-10575
▁अमान्य	-10576
▁सेकेंड	-10577
▁अक्षरों	-10578
▁पर्वतीय	-10579
▁विवादों	-10580
▁पहुँचाने	-10581
▁आकांक्षाओं	-10582
▁स्नातकोत्तर	-10583
एओ	-10584
ंदे	-10585
द्घ	-10586
केशन	-10587
▁पडा	-10588
गुनाह	-10589
▁उठते	-10590
▁निका	-10591
▁अभयार	-10592
▁बलराम	-10593
▁लौटाए	-10594
▁कारकों	-10595
▁वर्ल्ड	-10596
▁नियोजित	-10597
▁पौराणिक	-10598
▁अहमदाबाद	-10599
थ्म	-10600
बिर	-10601
िडी	-10602
गणना	-10603
ज्जत	-10604
▁उठी	-10605
▁गुल	-10606
▁जूट	-10607
▁1996	-10608
▁ज़ूम	-10609
▁दाना	-10610
▁खेलों	-10611
▁वायुम	-10612
▁सेवाएँ	-10613
▁तत्पश्च	-10614
▁व्याप्त	-10615
▁रहनेवाले	-10616
▁वित्तपोषण	-10617
48	-10618
शान	-10619
▁रिए	-10620
▁बेगम	-10621
पक्षीय	-10622
र्निया	-10623
▁छुड़ा	-10624
▁परिपथ	-10625
▁प्रया	-10626
▁ब्लॉक	-10627
▁निकलती	-10628
▁शॉर्टकट	-10629
▁स्तंभों	-10630
▁पंक्तियों	-10631
उदी	-10632
गिन	-10633
पाठ	-10634
▁1/	-10635
▁जक	-10636
अधिक	-10637
धियां	-10638
▁आर्ट	-10639
▁बैंड	-10640
▁मारो	-10641
▁साइन	-10642
प्रकाश	-10643
▁गुच्छ	-10644
▁मायने	-10645
▁व्यायाम	-10646
▁शब्दकोश	-10647
▁राधाकृष्णन	-10648
▁55	-10649
पीछे	-10650
रणीय	-10651
▁BAR	-10652
▁किर	-10653
▁घिर	-10654
▁छान	-10655
▁मेट	-10656
दाश्त	-10657
▁क्षय	-10658
▁पद्म	-10659
▁सूअर	-10660
▁गोपाल	-10661
▁घटकों	-10662
▁जुल्म	-10663
▁पीड़क	-10664
▁साधना	-10665
▁आज्ञाप	-10666
▁क्षेत्रक	-10667
▁नियोक्ता	-10668
▁मध्यवर्ती	-10669
ID	-10670
आय	-10671
णसी	-10672
फेस	-10673
गंगा	-10674
पकों	-10675
संभव	-10676
▁पठन	-10677
▁रेत	-10678
▁सुप	-10679
त्थान	-10680
त्विक	-10681
ान्ति	-10682
▁रावण	-10683
▁स्का	-10684
ष्णुता	-10685
▁क़बूल	-10686
▁ख़त्म	-10687
▁बम्बई	-10688
▁विजेट	-10689
▁वेस्ट	-10690
ेक्ट्री	-10691
▁निगमित	-10692
▁पैरामीटर	-10693
▁बुराइयों	-10694
कह	-10695
ore	-10696
च्चे	-10697
▁बिर	-10698
लिस्ट	-10699
ियमित	-10700
ुमारी	-10701
▁रसोई	-10702
▁आंखें	-10703
▁चित्त	-10704
▁तेज़ी	-10705
▁नम्बर	-10706
▁दोस्ती	-10707
▁भौतिकी	-10708
▁मुर्दा	-10709
▁रखेंगे	-10710
▁इन्साफ़	-10711
▁गर्भवती	-10712
▁साप्ताहिक	-10713
▁मजिस्ट्रेट	-10714
aol	-10715
वाड़	-10716
विटी	-10717
व्यय	-10718
शैली	-10719
▁निब	-10720
▁बूट	-10721
▁सहि	-10722
▁क़दर	-10723
▁चमकी	-10724
▁ताली	-10725
▁वर्क	-10726
▁चिंतित	-10727
▁ज़रुरत	-10728
▁निवेशक	-10729
▁पकड़ने	-10730
▁भाषाएँ	-10731
▁अधिनिर्ण	-10732
▁पुरातत्व	-10733
▁raviratlami	-10734
उसे	-10735
बना	-10736
वंत	-10737
▁वशी	-10738
▁ड्यू	-10739
▁बनती	-10740
▁मेनन	-10741
▁वाजे	-10742
कश्मीर	-10743
वीक्षा	-10744
▁रोकना	-10745
▁नैतिकता	-10746
ख़ा	-10747
दिल	-10748
क्चर	-10749
▁दूत	-10750
▁पैन	-10751
▁फोट	-10752
▁यान	-10753
▁लाप	-10754
अर्था	-10755
परिषद	-10756
▁क़िब	-10757
▁उत्पी	-10758
▁बुलाए	-10759
▁कानपुर	-10760
▁ड्राफ्ट	-10761
▁ब्राह्म	-10762
▁निर्देशक	-10763
▁सामंजस्य	-10764
ज़्	-10765
ुरू	-10766
▁3,	-10767
▁कंक	-10768
▁बें	-10769
▁रहन	-10770
ज़मीन	-10771
र्मित	-10772
▁अज़ी	-10773
▁घिरा	-10774
▁बीते	-10775
▁बैठी	-10776
▁बजाया	-10777
▁अंडमान	-10778
▁परिमाण	-10779
▁महाराज	-10780
▁मुद्रक	-10781
▁सुश्री	-10782
▁सौन्दर्य	-10783
▁39	-10784
एसएल	-10785
बिया	-10786
▁इना	-10787
▁डेल	-10788
▁पित	-10789
▁बकर	-10790
योजना	-10791
ेशनों	-10792
▁सुखद	-10793
▁दर्शक	-10794
▁ब्रेक	-10795
▁राजपू	-10796
▁व्यंग	-10797
▁नोकिया	-10798
▁लार्वा	-10799
▁पिक्सेल	-10800
▁सार्वभौमिक	-10801
ायन	-10802
▁सँ	-10803
चेरी	-10804
सिले	-10805
▁(6)	-10806
▁मणी	-10807
▁कटाई	-10808
▁कृषक	-10809
▁गाथा	-10810
▁दायर	-10811
▁मोटी	-10812
▁हुईं	-10813
▁उपहास	-10814
▁जमाअत	-10815
▁निपटा	-10816
▁फरमाई	-10817
▁बरहक़	-10818
▁रौशनी	-10819
▁यूनानी	-10820
▁उपरोक्त	-10821
▁नेअमतों	-10822
▁माबूदों	-10823
▁निगेहबान	-10824
▁पीढ़ियों	-10825
▁होनेवाली	-10826
▁वाक़िफ़कार	-10827
▁हस्ताक्षरित	-10828
1}	-10829
ंधे	-10830
बीस	-10831
ुनि	-10832
▁शत	-10833
ग्रे	-10834
चक्र	-10835
टीपी	-10836
कुरान	-10837
▁कपास	-10838
▁ख़ान	-10839
▁चंडी	-10840
▁वल्ल	-10841
▁सेवक	-10842
▁ख़याल	-10843
▁बड़ाई	-10844
▁विराम	-10845
▁विभिन्	-10846
▁सीरिया	-10847
▁स्लाइड	-10848
चिकित्सा	-10849
MS	-10850
यद	-10851
ser	-10852
ंचन	-10853
▁LD	-10854
ecast	-10855
rance	-10856
▁1986	-10857
▁फर्क	-10858
▁बाजू	-10859
रेटिंग	-10860
▁जिक्र	-10861
▁वेदों	-10862
▁उपासना	-10863
▁ग्यारह	-10864
▁पड़ेगी	-10865
▁बागवानी	-10866
▁स्त्रोत	-10867
▁forecast	-10868
21	-10869
भला	-10870
crip	-10871
बंदी	-10872
स्टन	-10873
ृहीत	-10874
ैण्ड	-10875
▁इतर	-10876
▁बाघ	-10877
▁मौन	-10878
▁असुर	-10879
▁इतरा	-10880
▁ईसवी	-10881
▁सुलभ	-10882
▁शुभार	-10883
▁सहेजा	-10884
▁आयातित	-10885
▁जंगलों	-10886
▁निर्या	-10887
▁वाक्या	-10888
▁पृष्ठों	-10889
▁लक्ष्मण	-10890
▁तात्पर्य	-10891
▁विकल्पों	-10892
▁याचिकाकर्ता	-10893
कक	-10894
.01	-10895
▁43	-10896
श्कर	-10897
▁ग़म	-10898
▁ग्ल	-10899
▁घंटा	-10900
▁झूठी	-10901
▁पाकर	-10902
▁फतेह	-10903
▁ब्रॉ	-10904
▁रूसी	-10905
▁कोयले	-10906
▁घुमाव	-10907
▁विधायी	-10908
▁अनियमित	-10909
har	-10910
jut	-10911
बात	-10912
ालू	-10913
▁47	-10914
▁सुस	-10915
▁बनें	-10916
▁मंदी	-10917
▁मदों	-10918
▁शंका	-10919
▁निदेशकों	-10920
▁प्रीमियम	-10921
▁उपाध्यक्ष	-10922
-10	-10923
▁II	-10924
▁गे	-10925
जोरी	-10926
▁सरो	-10927
खोलकर	-10928
निवार	-10929
▁महत्	-10930
▁लेनी	-10931
▁दिलाने	-10932
▁दिवसीय	-10933
▁प्रवर्	-10934
▁समुच्चय	-10935
▁स्क्रॉल	-10936
▁परिवर्धित	-10937
▁सिफारिशों	-10938
24	-10939
ञ्	-10940
ग्व	-10941
ड्स	-10942
बरे	-10943
▁ओज	-10944
▁खाए	-10945
▁खार	-10946
विश्व	-10947
ियाना	-10948
▁जीते	-10949
▁पढ़ो	-10950
▁पाएँ	-10951
▁युवक	-10952
▁सूखा	-10953
रीक्षण	-10954
▁छोड़ो	-10955
▁संस्कार	-10956
▁सरकारें	-10957
▁)	-10958
001	-10959
बड़	-10960
युग	-10961
मेरी	-10962
▁सफर	-10963
ोजगार	-10964
्रपान	-10965
▁अर्श	-10966
▁दौलत	-10967
▁समतल	-10968
▁हावी	-10969
▁अकारथ	-10970
▁पत्तन	-10971
▁हास्य	-10972
वर्सिटी	-10973
▁नियोजक	-10974
▁बदकारी	-10975
▁मज़बूती	-10976
कोट	-10977
ीयत	-10978
ढ़ने	-10979
यहाँ	-10980
वरों	-10981
ट्रीय	-10982
▁1980	-10983
▁1993	-10984
▁पेंट	-10985
▁अलिफ़	-10986
▁कसौटी	-10987
▁नगरों	-10988
▁बचाया	-10989
▁युग्म	-10990
▁सरलता	-10991
▁Google	-10992
▁उद्धृत	-10993
▁जागरूक	-10994
▁बहुदेव	-10995
▁बिस्तर	-10996
▁हड़ताल	-10997
▁कलात्मक	-10998
▁प्रत्यु	-10999
▁सैकड़ों	-11000
▁उपक्रमों	-11001
▁महाकाव्य	-11002
▁नियन्त्रण	-11003
▁आस्ट्रेलिया	-11004
मनी	-11005
▁नफ	-11006
juta	-11007
नीमत	-11008
▁ऊंट	-11009
▁झार	-11010
▁तोह	-11011
▁पॉल	-11012
▁कोटि	-11013
▁परिल	-11014
▁पेपर	-11015
▁मापन	-11016
▁सदृश	-11017
उन्हें	-11018
▁मूलतः	-11019
▁डब्ल्यू	-11020
▁नरेंद्र	-11021
निर्धारित	-11022
▁प्रभावों	-11023
▁भागीदारों	-11024
ंजे	-11025
प्प	-11026
ादर	-11027
▁दफा	-11028
gnome	-11029
▁काशी	-11030
▁ट्री	-11031
▁दाएँ	-11032
▁वस्त	-11033
▁सीने	-11034
▁पड़ना	-11035
▁मारता	-11036
▁रक्षक	-11037
▁मेडिकल	-11038
▁कृत्यों	-11039
▁क्लाइंट	-11040
▁सुंदरता	-11041
▁आधारशिला	-11042
▁त्रिपुरा	-11043
im	-11044
-12	-11045
ंजर	-11046
ग़ल	-11047
▁टल	-11048
▁२५	-11049
मानत	-11050
विजन	-11051
hould	-11052
ितानी	-11053
▁चार्	-11054
▁चूँकि	-11055
▁मुम्ब	-11056
▁अपनाना	-11057
▁औचित्य	-11058
▁प्रेरक	-11059
▁कैबिनेट	-11060
▁निकोबार	-11061
ug	-11062
¤¥	-11063
.03	-11064
काबा	-11065
पीजी	-11066
पुरा	-11067
रापन	-11068
ियॉँ	-11069
▁आयत	-11070
▁जोश	-11071
▁टेक	-11072
▁फरी	-11073
▁सुम	-11074
▁म्या	-11075
गुज़ार	-11076
▁बछड़े	-11077
▁उन्नीस	-11078
▁भंडारित	-11079
▁वाराणसी	-11080
▁सद्भावना	-11081
▁समितियां	-11082
▁क्रियाकलापों	-11083
ck	-11084
ज्र	-11085
▁जुट	-11086
▁आभार	-11087
▁ऋणों	-11088
▁दुष्	-11089
▁निया	-11090
▁2019)	-11091
▁अकारत	-11092
▁टेक्न	-11093
▁पुष्ट	-11094
▁मुद्दत	-11095
▁तुम्हीं	-11096
▁द्वीपों	-11097
▁संग्रहित	-11098
▁व्यापारियों	-11099
क़ौ	-11100
▁ओह	-11101
िकोड	-11102
▁रवै	-11103
▁संभ	-11104
▁साख	-11105
ालैंड	-11106
▁1988	-11107
▁कपटा	-11108
▁वबाल	-11109
▁मख़लू	-11110
▁वाजेए	-11111
▁अखंडता	-11112
▁शास्ति	-11113
▁किस्मों	-11114
▁वृक्षों	-11115
▁इख्तेयार	-11116
▁ख़ुशनूदी	-11117
▁परिपक्वता	-11118
एसआई	-11119
एससी	-11120
न्सी	-11121
ष्णा	-11122
ोगिक	-11123
▁तैर	-11124
गाकार	-11125
त्तूर	-11126
विन्द	-11127
▁जीता	-11128
▁तिलक	-11129
▁बंगल	-11130
▁राज्	-11131
▁सुने	-11132
▁बैठते	-11133
▁समझती	-11134
▁सेटअप	-11135
▁हफ्ते	-11136
▁अंतरिम	-11137
▁निकासी	-11138
▁पुत्री	-11139
▁पूंजीगत	-11140
▁स्वार्थ	-11141
▁डिरेक्ट्री	-11142
पश	-11143
विच	-11144
ुवा	-11145
▁--	-11146
▁रम	-11147
ुद्र	-11148
▁१९७	-11149
EMAIL	-11150
▁वाहक	-11151
▁सुलह	-11152
संशोधन	-11153
▁जरिये	-11154
▁भित्ति	-11155
▁लक्षित	-11156
▁उत्प्रे	-11157
▁लाभकारी	-11158
▁इंस्टीट्यूट	-11159
89	-11160
डम	-11161
फेर	-11162
▁यश	-11163
ject	-11164
स्की	-11165
▁(23	-11166
▁अड़	-11167
विकास	-11168
▁असीम	-11169
▁वालो	-11170
▁स्की	-11171
▁जीतने	-11172
▁मानकर	-11173
▁हटाया	-11174
▁Anjuta	-11175
▁महत्वा	-11176
▁मेजबान	-11177
▁लैंगिक	-11178
▁काश्मीर	-11179
▁पहुँचती	-11180
▁अभयारण्य	-11181
▁प्रतिरूप	-11182
▁वाशिंगटन	-11183
▁विजेताओं	-11184
▁विषयवस्तु	-11185
ry	-11186
.07	-11187
कोण	-11188
चें	-11189
ोगी	-11190
▁डू	-11191
▁दब	-11192
ऊंगा	-11193
हाउस	-11194
्याम	-11195
केतिक	-11196
दक्षि	-11197
हार्य	-11198
▁लटका	-11199
▁आएँगे	-11200
▁जानें	-11201
▁दीवान	-11202
▁बहनों	-11203
▁एकाग्र	-11204
▁मापदंड	-11205
▁ताज्जुब	-11206
▁सापेक्ष	-11207
▁उद्यमिता	-11208
▁अब्दुल्ला	-11209
▁पहाड़ियों	-11210
▁मंत्रिमंडल	-11211
१०	-11212
.06	-11213
अली	-11214
जीत	-11215
लब्ध	-11216
▁थाः	-11217
▁फिन	-11218
▁यों	-11219
world	-11220
वार्ष	-11221
▁LDAP	-11222
▁अफसर	-11223
▁काबा	-11224
▁चलें	-11225
▁कन्या	-11226
▁गुंजा	-11227
▁नोड्स	-11228
▁संतति	-11229
कर्त्ता	-11230
▁असंख्य	-11231
▁ऑफलाइन	-11232
▁मणीलाल	-11233
▁सिलसिले	-11234
▁ब्रितानी	-11235
असल	-11236
उंट	-11237
▁इंद	-11238
▁एकक	-11239
▁पदा	-11240
▁सिम	-11241
▁मेला	-11242
▁कराते	-11243
▁रोकता	-11244
वर्तनीय	-11245
▁देखरेख	-11246
▁माइक्र	-11247
▁अरुणाचल	-11248
▁अवधारित	-11249
▁नामांकन	-11250
▁पत्थरों	-11251
▁संगोष्ठी	-11252
▁संप्रदाय	-11253
▁कार्यकलाप	-11254
▁शव	-11255
चरित	-11256
चाने	-11257
जवान	-11258
ग्रंथ	-11259
देश्य	-11260
फार्म	-11261
▁(196	-11262
▁1995	-11263
▁अनाव	-11264
▁पैदल	-11265
▁युसु	-11266
▁अर्जी	-11267
▁बैठकर	-11268
▁लश्कर	-11269
▁विलंब	-11270
▁खाद्या	-11271
▁बढ़िया	-11272
▁संदर्भित	-11273
▁condition	-11274
▁शताब्दियों	-11275
hort	-11276
▁कूद	-11277
▁1990	-11278
▁स्टो	-11279
▁डेविड	-11280
▁निकास	-11281
▁भिक्ष	-11282
▁संबोधन	-11283
▁बेहतरीन	-11284
▁स्ट्रीट	-11285
▁एनकोडिंग	-11286
▁गुनाहगार	-11287
अस	-11288
िलि	-11289
▁ओड	-11290
▁साय	-11291
▁हिर	-11292
▁नीला	-11293
▁पूरब	-11294
▁महार	-11295
▁सरोज	-11296
क्रमित	-11297
▁असफलः	-11298
▁पाश्च	-11299
▁रुसवा	-11300
▁सीखना	-11301
▁छोड़ना	-11302
▁परिप्रे	-11303
▁प्रमाणन	-11304
▁देवनागरी	-11305
▁वर्गाकार	-11306
्लि	-11307
▁an	-11308
▁झी	-11309
/201	-11310
rica	-11311
डीआई	-11312
द्रव	-11313
पुरी	-11314
ृष्ट	-11315
▁ऊर्	-11316
▁नाद	-11317
▁रोल	-11318
ाइयों	-11319
▁एनआई	-11320
▁चलाई	-11321
▁शिरा	-11322
▁झुकाव	-11323
▁सिंधी	-11324
▁डिवाइस	-11325
▁बिहारी	-11326
▁देनेवाले	-11327
▁पहुँचाया	-11328
▁हड्डियों	-11329
▁सहयोगियों	-11330
▁प्रतिरक्षा	-11331
CT	-11332
ge	-11333
करों	-11334
ज्जन	-11335
द्वि	-11336
व्यू	-11337
▁आगम	-11338
▁आला	-11339
विदों	-11340
▁दरजे	-11341
▁पद्य	-11342
▁पल्ल	-11343
▁मिलान	-11344
▁फंक्शन	-11345
▁संगणित	-11346
▁क्योंकर	-11347
▁निर्दोष	-11348
▁निदेशालय	-11349
▁उपराष्ट्रपति	-11350
,)	-11351
35	-11352
ोध	-11353
दीप	-11354
धरी	-11355
▁शह	-11356
कर्मी	-11357
▁ताकी	-11358
▁दाने	-11359
▁पतली	-11360
▁बिछा	-11361
▁बुर्	-11362
▁रंगीन	-11363
▁सवारी	-11364
▁पैग़ाम	-11365
▁योद्धा	-11366
▁रिसर्च	-11367
▁विद्वत	-11368
द्योगिकी	-11369
▁खुशहाली	-11370
▁विन्यस्त	-11371
▁सब्जियों	-11372
▁भविष्यवाणी	-11373
डक	-11374
-20	-11375
अंग	-11376
छता	-11377
बैक	-11378
िंट	-11379
NAME	-11380
▁अरा	-11381
▁निल	-11382
▁फुल	-11383
▁बहरे	-11384
▁मेटा	-11385
▁सपना	-11386
▁खुदाई	-11387
▁फीसदी	-11388
▁फ्लैग	-11389
▁रियास	-11390
▁समाना	-11391
▁हुसैन	-11392
▁चिकित्	-11393
▁प्रतिभाग	-11394
▁न्यायमूर्ति	-11395
-11	-11396
.02	-11397
iss	-11398
गिक	-11399
चों	-11400
ूर्	-11401
ंटिक	-11402
राबत	-11403
पतियों	-11404
ापूर्व	-11405
▁स्वर्	-11406
▁अभिनेता	-11407
▁जिन्नात	-11408
▁पासपोर्ट	-11409
▁सांकेतिक	-11410
▁एल्गोरिथ्म	-11411
ल्थ	-11412
▁8.	-11413
बूवत	-11414
ृश्य	-11415
▁अकृत	-11416
▁बताई	-11417
▁सउदी	-11418
जहन्नम	-11419
▁क्रिस	-11420
▁लॉन्च	-11421
▁क़राबत	-11422
▁कारीगर	-11423
▁बाग़ात	-11424
▁व्यंजन	-11425
▁व्यतीत	-11426
▁जहन्नुमी	-11427
▁उपन्यासों	-11428
▁सशक्तीकरण	-11429
टाइ	-11430
शंस	-11431
ahoo	-11432
ोल्ट	-11433
▁आईएस	-11434
▁फूँक	-11435
▁बदली	-11436
▁सर्प	-11437
▁उठाते	-11438
▁गिरने	-11439
▁पच्ची	-11440
▁बैठें	-11441
▁विघटन	-11442
▁सिंगा	-11443
▁उन्मुख	-11444
▁अनुपस्थिति	-11445
ंझ	-11446
IME	-11447
ong	-11448
टुक	-11449
निधि	-11450
▁आति	-11451
▁वॉल	-11452
▁बाईं	-11453
▁संपी	-11454
▁इलाके	-11455
▁तुच्छ	-11456
▁तुलसी	-11457
▁विकृत	-11458
▁श्रोत	-11459
▁श्वास	-11460
▁स्पेन	-11461
▁तालमेल	-11462
▁डिज़ाइन	-11463
▁ब्राउज़	-11464
▁आज्ञापालन	-11465
▁साफ्टवेयर	-11466
ध्	-11467
ोब	-11468
बिन	-11469
मयी	-11470
यकों	-11471
रेशन	-11472
▁दृश	-11473
▁नित	-11474
मक्का	-11475
▁डिबग	-11476
▁क्षेञ	-11477
▁चिन्ता	-11478
▁सलामती	-11479
▁प्रायोजित	-11480
ue	-11481
able	-11482
गीता	-11483
▁अरे	-11484
▁उदर	-11485
▁घने	-11486
▁वरना	-11487
▁अवसाद	-11488
▁उम्दा	-11489
▁तार्क	-11490
▁गुप्ता	-11491
▁संप्रे	-11492
▁अकादमिक	-11493
ak	-11494
ब्स	-11495
माइ	-11496
यरी	-11497
▁ऊन	-11498
▁आलू	-11499
▁कैन	-11500
▁शाल	-11501
थियों	-11502
ध्याय	-11503
बन्धी	-11504
▁अवरो	-11505
▁खाका	-11506
▁डिजी	-11507
विद्या	-11508
▁अकादे	-11509
▁मालों	-11510
▁हिमनद	-11511
▁अपराधों	-11512
▁उत्तेजित	-11513
▁निर्भरता	-11514
▁विनियमों	-11515
कुशल	-11516
गांव	-11517
तेरा	-11518
न्हा	-11519
बिले	-11520
हमें	-11521
ाइंट	-11522
▁कैर	-11523
▁घों	-11524
▁तबाह	-11525
▁सभ्य	-11526
▁क़द्र	-11527
▁ख़ौफ़	-11528
▁जायगा	-11529
▁जीवनी	-11530
▁मनाने	-11531
▁मिलें	-11532
▁पुरातन	-11533
प्लिकेशन	-11534
▁संप्रती	-11535
▁प्रभारित	-11536
▁मुताबिक़	-11537
ऐसी	-11538
▁("	-11539
▁लू	-11540
▁चौक	-11541
▁सैर	-11542
पुत्र	-11543
▁छाती	-11544
▁लगों	-11545
▁सॉफ़	-11546
▁क्रमिक	-11547
▁समझाया	-11548
▁सीमेंट	-11549
▁कित्तूर	-11550
▁नागरिकता	-11551
▁नवान्वेषी	-11552
▁पुनरावृत्ति	-11553
फि	-11554
.04	-11555
वालो	-11556
▁अमी	-11557
▁नाभ	-11558
▁फीट	-11559
▁लौह	-11560
संहार	-11561
▁1957	-11562
▁बाला	-11563
▁मारी	-11564
▁सूखी	-11565
▁डालकर	-11566
▁तलवार	-11567
▁साम्य	-11568
ापूर्वक	-11569
▁ख्याति	-11570
▁निकलना	-11571
▁निकालता	-11572
▁निकालते	-11573
der	-11574
नोम	-11575
माम	-11576
ालो	-11577
▁जौ	-11578
एसटी	-11579
▁कस्	-11580
▁फोर	-11581
▁रुख	-11582
▁इसमा	-11583
▁उठने	-11584
▁एंटी	-11585
▁खाया	-11586
▁पोशा	-11587
▁बांड	-11588
म्परिक	-11589
▁क्रोम	-11590
▁लगाये	-11591
▁करेंगी	-11592
▁नीलामी	-11593
▁पराजित	-11594
▁वृद्धा	-11595
▁सम्मुख	-11596
▁करूणाकर	-11597
▁गुंजाइश	-11598
▁ग्रीष्म	-11599
▁फ़ंक्शन	-11600
▁आस्तियां	-11601
▁स्वादिष्ट	-11602
ber	-11603
सें	-11604
ense	-11605
time	-11606
▁घड़	-11607
▁तौल	-11608
▁मोक	-11609
देशिक	-11610
▁चौदह	-11611
▁परमा	-11612
▁दिखाओ	-11613
▁मरतबा	-11614
▁मानवा	-11615
▁सुप्र	-11616
तापूर्ण	-11617
▁कम्युन	-11618
▁पात्रों	-11619
▁प्रत्युत्तर	-11620
.9	-11621
ai	-11622
स्टा	-11623
▁POP	-11624
▁चैट	-11625
▁नेप	-11626
▁मदर	-11627
▁केन्	-11628
▁त्यौ	-11629
▁बंधक	-11630
▁बेपर	-11631
▁ब्ले	-11632
▁कब्जे	-11633
▁बनारस	-11634
▁बन्दा	-11635
▁बूढ़े	-11636
▁बैटरी	-11637
▁स्केल	-11638
▁अंधेरे	-11639
▁ख़िलाफ	-11640
▁इकाइयां	-11641
▁कालावधि	-11642
▁चौपायों	-11643
▁अतिमानसिक	-11644
शै	-11645
.00	-11646
▁ठान	-11647
▁तलब	-11648
शीर्ष	-11649
ोनिया	-11650
▁अंडा	-11651
▁सूरा	-11652
पीडीएफ	-11653
▁वैद्य	-11654
▁आश्रित	-11655
▁नौजवान	-11656
▁क्रियान्वित	-11657
9)	-11658
ंए	-11659
छु	-11660
ूरा	-11661
▁(5	-11662
ख़ते	-11663
▁245	-11664
▁तने	-11665
▁मिश	-11666
▁मैन	-11667
ज़िले	-11668
▁चौथे	-11669
▁ज्वर	-11670
▁ढलान	-11671
▁फोकस	-11672
▁2014)	-11673
▁अवहेल	-11674
▁ग़ज़ब	-11675
▁तौरेत	-11676
▁पेरिस	-11677
▁मुम्बई	-11678
▁समझदार	-11679
▁आन्तरिक	-11680
▁अभिलेखों	-11681
▁प्रतिबंधित	-11682
हण	-11683
ोदय	-11684
▁49	-11685
▁गॉ	-11686
उनका	-11687
क़ीन	-11688
▁नाच	-11689
ताकार	-11690
मेन्ट	-11691
▁क़ौल	-11692
▁पौधा	-11693
ग्राही	-11694
▁क़्या	-11695
▁कारों	-11696
▁केलिए	-11697
▁घंटों	-11698
▁बुखार	-11699
व्यक्ति	-11700
▁ख़राबी	-11701
▁तारीख़	-11702
▁ड्राइवर	-11703
▁पंचवर्षीय	-11704
IC	-11705
av	-11706
ep	-11707
गाव	-11708
भीत	-11709
▁CO	-11710
न्डी	-11711
▁मधु	-11712
ोरिया	-11713
▁ग़ैब	-11714
▁वकाल	-11715
बेहश्त	-11716
ोग्राफ	-11717
▁अपडेट	-11718
▁आवंटन	-11719
▁ईरानी	-11720
▁फरमाए	-11721
▁लुप्त	-11722
▁ग्रंथि	-11723
▁झुठलाए	-11724
▁प्रताप	-11725
कुफ्फ़ार	-11726
▁कामगारों	-11727
▁मुशरिकों	-11728
▁विनियमित	-11729
▁लानेवालों	-11730
बुक	-11731
ालक	-11732
▁हठ	-11733
निस्	-11734
ेशकश	-11735
▁खोख	-11736
▁तेर	-11737
▁विस	-11738
फॉर्म	-11739
▁आरेख	-11740
▁उपगत	-11741
▁चोटी	-11742
▁नवाब	-11743
▁सुल्	-11744
▁परमिट	-11745
▁तिमाही	-11746
▁निम्नतर	-11747
▁धूम्रपान	-11748
राइ	-11749
▁ऐब	-11750
▁थै	-11751
त्था	-11752
निष्	-11753
पैदा	-11754
▁खडे	-11755
▁चाप	-11756
▁पला	-11757
▁1971	-11758
▁अधिर	-11759
▁कंधे	-11760
▁फायर	-11761
▁बर्न	-11762
▁वाजि	-11763
▁इंसान	-11764
▁बायाँ	-11765
▁स्टील	-11766
▁मतदाता	-11767
▁व्यवसा	-11768
▁हनुमान	-11769
▁कार्यवाहियों	-11770
आम	-11771
con	-11772
ock	-11773
करे	-11774
बाब	-11775
▁54	-11776
वाहक	-11777
वाहा	-11778
▁टोक	-11779
▁मद्	-11780
▁मोज	-11781
ारायण	-11782
▁अठार	-11783
▁दरें	-11784
▁पीले	-11785
▁बैठो	-11786
▁त्यौहार	-11787
▁पूर्वान	-11788
▁परिष्कृत	-11789
▁मानदंडों	-11790
▁समारोहों	-11791
▁स्वेच्छा	-11792
ताई	-11793
धना	-11794
ध्द	-11795
सीए	-11796
पुरम	-11797
▁आशी	-11798
▁वात	-11799
▁खाकर	-11800
▁लाइट	-11801
▁ख़रीद	-11802
▁गिर्द	-11803
▁पेशकश	-11804
▁भूगोल	-11805
▁रीसेट	-11806
▁घटनाएं	-11807
▁डीपीआई	-11808
▁पाबन्द	-11809
▁अकादेमी	-11810
▁वस्तुएँ	-11811
▁कर्मियों	-11812
▁मान्यताप्राप्त	-11813
hel	-11814
च्य	-11815
जिये	-11816
टर्स	-11817
मस्त	-11818
ात्य	-11819
▁जाँ	-11820
▁शार	-11821
तकालय	-11822
▁1976	-11823
▁वाकि	-11824
▁वासी	-11825
▁अंकुर	-11826
▁काल्प	-11827
▁यमुना	-11828
ोनेशिया	-11829
▁वशीभूत	-11830
▁वामपंथी	-11831
▁सन्दर्भ	-11832
▁समाविष्ट	-11833
▁प्रेमचन्द	-11834
▁श्रीकृष्ण	-11835
▁कार्यकर्ता	-11836
▁उपयोगकर्ताओं	-11837
.4	-11838
ईस	-11839
पस	-11840
ंशी	-11841
कोड	-11842
डेड	-11843
▁एत	-11844
क्से	-11845
द्दत	-11846
र्वे	-11847
▁पौध	-11848
▁मकर	-11849
बुद्ध	-11850
म्बित	-11851
वाहिक	-11852
▁"{0}	-11853
▁जोशी	-11854
▁खतरों	-11855
▁चूर्ण	-11856
▁अस्त्र	-11857
▁संकलित	-11858
▁अकृतज्ञ	-11859
▁चिड़िया	-11860
▁काल्पनिक	-11861
▁प्रेमचंद	-11862
▁नगरपालिका	-11863
ary	-11864
थिल	-11865
▁छल	-11866
▁कंस	-11867
▁चंद	-11868
एशिया	-11869
मूल्य	-11870
ल्पित	-11871
▁लकीर	-11872
▁विषम	-11873
▁"{0}"	-11874
▁इनायत	-11875
▁खोलना	-11876
▁श्रव्य	-11877
▁स्नायु	-11878
▁पहुँचाए	-11879
▁मेगावाट	-11880
▁सुसज्जित	-11881
▁कार्मिकों	-11882
▁आतंकवादियों	-11883
थो	-11884
फन	-11885
सचि	-11886
▁51	-11887
ादित	-11888
▁गरम	-11889
▁जनन	-11890
▁याक	-11891
▁हेल	-11892
▁(197	-11893
▁ग़लत	-11894
ान्वित	-11895
▁अपनाए	-11896
▁पॉपअप	-11897
▁सांसद	-11898
▁निर्जीव	-11899
▁संदिग्ध	-11900
▁अवस्थाओं	-11901
▁जानेवाली	-11902
▁नाफरमानी	-11903
▁translate	-11904
▁अंतर्वस्तु	-11905
▁अर्थशास्त्र	-11906
▁उत्तराधिकार	-11907
-15	-11908
aoM	-11909
one	-11910
सेफ	-11911
▁मठ	-11912
ound	-11913
चुअल	-11914
बड़ा	-11915
र्डर	-11916
▁आमा	-11917
▁इफ़	-11918
िविटी	-11919
▁चमत्	-11920
▁जंतु	-11921
▁निवल	-11922
▁सतत्	-11923
▁उजागर	-11924
▁खुदरा	-11925
▁आरोग्य	-11926
स्क्रिप्ट	-11927
▁सेवानिवृत्ति	-11928
%)	-11929
.7	-11930
धु	-11931
ite	-11932
फाय	-11933
सेज	-11934
▁नट	-11935
राग़	-11936
विंग	-11937
▁कुद	-11938
▁तद्	-11939
▁बगी	-11940
▁हेम	-11941
▁मुवा	-11942
▁लड़ा	-11943
स्फीति	-11944
▁संकुल	-11945
प्रतिशत	-11946
▁इक़रार	-11947
▁अस्वीकृत	-11948
▁सुपुर्दगी	-11949
▁राष्ट्रीयता	-11950
सरे	-11951
ेतन	-11952
ोही	-11953
ौना	-11954
▁बँ	-11955
क़ुर	-11956
▁400	-11957
▁Chr	-11958
▁एंट	-11959
ublic	-11960
▁IMAP	-11961
▁ख़ाक	-11962
▁जर्न	-11963
▁पीएम	-11964
▁भावा	-11965
▁मेवे	-11966
▁मोटा	-11967
▁२००८	-11968
▁देखती	-11969
▁पेशवा	-11970
▁बदलता	-11971
▁भवनों	-11972
▁मंडली	-11973
▁अवधारण	-11974
▁ड्रग्स	-11975
▁रणनीतिक	-11976
▁दुरुपयोग	-11977
▁प्रोफाइल	-11978
▁विधानमंडल	-11979
▁कार्यकर्ताओं	-11980
23	-11981
ati	-11982
सिस	-11983
▁09	-11984
▁46	-11985
फ़िर	-11986
▁गुज	-11987
▁बरी	-11988
▁लेब	-11989
खियों	-11990
वाद्य	-11991
▁अभ्य	-11992
▁टेलि	-11993
▁फर्श	-11994
▁लड़ो	-11995
▁विश्	-11996
icense	-11997
▁अंकों	-11998
▁उपनाम	-11999
▁लम्बा	-12000
▁स्तूप	-12001
▁ट्रैकिंग	-12002
ढी	-12003
इस्	-12004
ङ्ग	-12005
न्ज	-12006
रंग	-12007
▁56	-12008
नाइट	-12009
श्मी	-12010
हायत	-12011
▁अर्ह	-12012
▁जाऊँ	-12013
▁फेरे	-12014
▁लिहा	-12015
▁संसू	-12016
▁उखाड़	-12017
▁ओडिशा	-12018
▁औषधीय	-12019
▁दुर्ग	-12020
▁दुशमन	-12021
▁बदलकर	-12022
▁वकालत	-12023
▁पत्तों	-12024
▁आश्वस्त	-12025
▁मुनासिब	-12026
▁पत्तियों	-12027
▁अनुमतियाँ	-12028
▁पाश्चात्य	-12029
▁प्रायोगिक	-12030
▁प्रयोगशालाओं	-12031
859	-12032
नेल	-12033
संक	-12034
ज़रत	-12035
तापा	-12036
▁आड़	-12037
▁इलै	-12038
▁कैप	-12039
▁गों	-12040
▁झाँ	-12041
▁बेन	-12042
धुनिक	-12043
न्नति	-12044
▁नृत्	-12045
▁फिल्	-12046
▁लीटर	-12047
▁हम्द	-12048
▁निस्प	-12049
▁प्रसि	-12050
▁अविश्वास	-12051
▁कार्यशील	-12052
ip	-12053
लिन	-12054
आईडी	-12055
▁बेज	-12056
घोषणा	-12057
ज़रूर	-12058
ज़ीलत	-12059
तौरेत	-12060
देशीय	-12061
▁उष्ण	-12062
▁तरंग	-12063
▁भरना	-12064
▁शुएब	-12065
▁श्ले	-12066
मुक्ति	-12067
▁अगलों	-12068
▁कुष्ठ	-12069
▁दिखने	-12070
स्तियाँ	-12071
▁कर्त्त	-12072
▁रिसालत	-12073
▁अवहेलना	-12074
▁महोत्सव	-12075
▁सब्सिडी	-12076
▁स्ट्रीम	-12077
▁उत्तेजना	-12078
▁वाक्यांश	-12079
▁संक्रामक	-12080
▁स्वर्गीय	-12081
▁होनेवाले	-12082
इए	-12083
अभि	-12084
भोज	-12085
यीं	-12086
डीटी	-12087
ोहित	-12088
▁थोक	-12089
▁नें	-12090
▁स्फ	-12091
चर्या	-12092
स्कृत	-12093
▁अस्व	-12094
▁आभास	-12095
▁रूढ़	-12096
▁लिखत	-12097
▁सेतु	-12098
पोरेशन	-12099
श्लेषण	-12100
▁किस्त	-12101
▁खुराक	-12102
▁दावों	-12103
▁रोबोट	-12104
त्तियां	-12105
▁अरविंद	-12106
▁खिड़की	-12107
▁वर्षीय	-12108
▁यूनिकोड	-12109
▁विशिष्टता	-12110
नरी	-12111
ोला	-12112
▁३०	-12113
कथित	-12114
र्तन	-12115
▁अयो	-12116
▁गौण	-12117
▁सवे	-12118
ंसीसी	-12119
समन्व	-12120
िब्यू	-12121
▁अभूत	-12122
▁चौथी	-12123
▁ठंडा	-12124
▁वीणा	-12125
बुद्धि	-12126
▁चलाता	-12127
▁भोपाल	-12128
▁खूबसूरत	-12129
▁पात्रता	-12130
▁प्रशंसनीय	-12131
▁प्रतिष्ठान	-12132
if	-12133
est	-12134
▁अछ	-12135
सलाम	-12136
▁हेर	-12137
▁०००	-12138
▁अक्ल	-12139
▁आच्छ	-12140
▁कुकी	-12141
▁बिंब	-12142
▁लौटे	-12143
▁अनुमत	-12144
▁चढ़ाई	-12145
▁चैत्य	-12146
▁नोबेल	-12147
▁राक्ष	-12148
▁शिश्न	-12149
▁उठाएगा	-12150
▁घुटनों	-12151
▁फ़ैसले	-12152
▁सहेजना	-12153
▁कंप्यूट	-12154
▁बुद्धिमान	-12155
▁अनिवार्यतः	-12156
▁परिप्रेक्ष्य	-12157
.8	-12158
SS	-12159
नक	-12160
एआर	-12161
▁जना	-12162
▁मित	-12163
ृंगार	-12164
▁गायन	-12165
▁नर्इ	-12166
▁मामल	-12167
▁खरगोश	-12168
▁नाजुक	-12169
▁भयभीत	-12170
▁जुटाने	-12171
▁विफलता	-12172
▁सामग्र	-12173
▁तार्किक	-12174
▁पर्वतों	-12175
▁सिंगापुर	-12176
कोच	-12177
चुप	-12178
बेर	-12179
िले	-12180
▁एर	-12181
ब्लू	-12182
सराय	-12183
▁उपजा	-12184
▁जीना	-12185
▁व्रत	-12186
▁पत्ता	-12187
▁बख़्श	-12188
▁बदलती	-12189
▁वायरस	-12190
सामान्य	-12191
▁कुत्ता	-12192
▁स्वराज	-12193
▁प्रथाओं	-12194
▁बढ़ोतरी	-12195
▁सम्बंधित	-12196
▁परिवीक्षा	-12197
▁प्रोग्रामिंग	-12198
ION	-12199
ode	-12200
बुद	-12201
यानि	-12202
विद्	-12203
स्वा	-12204
▁अवत	-12205
▁खड़	-12206
▁न्य	-12207
▁पिन	-12208
▁मुस	-12209
गुप्त	-12210
▁अष्ट	-12211
▁क्ले	-12212
▁घुड़	-12213
▁चाचा	-12214
▁झुके	-12215
▁बनाम	-12216
▁लोकल	-12217
▁नियति	-12218
▁स्पर्	-12219
▁क्योकि	-12220
▁जनगणना	-12221
▁मिलेंगे	-12222
▁कहानियां	-12223
▁उत्तराखंड	-12224
▁शिष्टमंडल	-12225
.?	-12226
EL	-12227
१८	-12228
फिल	-12229
ैमान	-12230
▁खली	-12231
▁वृह	-12232
आयामी	-12233
▁खगोल	-12234
▁तूफान	-12235
▁विनिया	-12236
▁मैदानों	-12237
▁समाजवाद	-12238
▁अंतर्निहित	-12239
ुण	-12240
ौफ	-12241
कित	-12242
ोलो	-12243
▁ठा	-12244
▁तफ	-12245
▁कल्	-12246
▁ग्व	-12247
क्रेट	-12248
बाज़ी	-12249
वश्यक	-12250
▁अम्र	-12251
आधारित	-12252
▁2017)	-12253
▁जातीय	-12254
▁सज्जन	-12255
▁परंतुक	-12256
▁रियायत	-12257
▁प्रोसेस	-12258
▁विलक्षण	-12259
▁शैतानों	-12260
▁संकेतों	-12261
▁देनेवाली	-12262
▁नवीकरणीय	-12263
▁प्रस्थान	-12264
▁प्रक्षेपण	-12265
▁स्वीकारें	-12266
▁सॉफ़्टवेयर	-12267
▁42	-12268
कारक	-12269
कोटा	-12270
क्रे	-12271
▁शीट	-12272
▁सिग	-12273
▁कब्र	-12274
▁निरे	-12275
▁चतुर्	-12276
▁ठहराव	-12277
▁द्रुत	-12278
▁डालेगा	-12279
▁अफ्रीकी	-12280
▁शुभारंभ	-12281
33	-12282
पील	-12283
चनों	-12284
जोरम	-12285
डीपी	-12286
मुक़	-12287
सचिव	-12288
▁सिड	-12289
▁अंचल	-12290
▁पारे	-12291
▁मादक	-12292
▁लीला	-12293
▁सीसी	-12294
जिसमें	-12295
▁अहसास	-12296
▁चमड़े	-12297
▁सेकंड	-12298
कांक्षी	-12299
▁जोड़ता	-12300
▁तोड़ने	-12301
_0	-12302
अभी	-12303
मिस	-12304
ेली	-12305
▁उँ	-12306
नीचर	-12307
मांड	-12308
ॉर्क	-12309
▁अध्	-12310
▁जगम	-12311
मावली	-12312
▁1951	-12313
▁इक्व	-12314
▁एंटर	-12315
▁फ़ोन	-12316
▁मार्ट	-12317
▁1.4.19	-12318
▁चुनेंः	-12319
▁प्रचलन	-12320
▁स्कूली	-12321
▁केन्द्री	-12322
▁जुर्माना	-12323
▁चिकित्सीय	-12324
▁पत्रिकाओं	-12325
▁साझीदारों	-12326
खल	-12327
रिश	-12328
▁मथ	-12329
र्दा	-12330
हानि	-12331
▁बाइ	-12332
▁साद	-12333
चिन्ह	-12334
त्रिक	-12335
मौजूद	-12336
▁1970	-12337
▁ठेके	-12338
▁नरेश	-12339
▁बचना	-12340
▁लाये	-12341
▁षड्य	-12342
▁एकांत	-12343
▁डेयरी	-12344
▁बढावा	-12345
▁मनाही	-12346
▁लेगें	-12347
▁सिन्ध	-12348
▁should	-12349
▁चेष्टा	-12350
▁मन्दिर	-12351
▁अखबारों	-12352
▁सुविधाजनक	-12353
▁अंतर्विष्ट	-12354
▁विश्वव्यापी	-12355
▁साम्राज्यवाद	-12356
39;	-12357
कौन	-12358
ग़ा	-12359
यती	-12360
समी	-12361
ुका	-12362
्रम	-12363
▁खाम	-12364
▁बेश	-12365
▁यहा	-12366
▁सुथ	-12367
▁हाज	-12368
त्रों	-12369
▁1930	-12370
▁1974	-12371
▁1989	-12372
▁इर्द	-12373
▁फिरो	-12374
▁बिठा	-12375
▁रुग्	-12376
▁रोटी	-12377
प्रसार	-12378
▁जेम्स	-12379
▁बेलार	-12380
▁उल्लास	-12381
▁क़ब्रों	-12382
▁इंटरनेशनल	-12383
▁पारम्परिक	-12384
▁सांख्यिकी	-12385
▁संस्कृतियों	-12386
ink	-12387
लाव	-12388
ूवत	-12389
गणित	-12390
मिति	-12391
विरो	-12392
ारसी	-12393
▁(18	-12394
▁एके	-12395
▁बैच	-12396
त्तरी	-12397
धिकरण	-12398
र्वाद	-12399
▁#39;	-12400
▁चौथाई	-12401
▁अलंकृत	-12402
▁आक्षेप	-12403
▁ग़नीमत	-12404
▁मानसून	-12405
▁विरोधा	-12406
▁हक़दार	-12407
▁दर्शाने	-12408
▁पहचानते	-12409
▁व्यक़्ति	-12410
▁समानांतर	-12411
▁पड़ोसियों	-12412
GenericName	-12413
▁प्रतिभागियों	-12414
API	-12415
ure	-12416
पने	-12417
चकों	-12418
दिवस	-12419
न्नी	-12420
फिरत	-12421
सम्प	-12422
ीर्ण	-12423
▁चाइ	-12424
▁हूद	-12425
त्नों	-12426
ुक्री	-12427
▁उकसा	-12428
▁बहाल	-12429
सरतापा	-12430
हरगिज़	-12431
▁आखेरत	-12432
▁कथाओं	-12433
▁कर्सर	-12434
▁जार्ज	-12435
▁बढाने	-12436
▁याकूब	-12437
▁विषयक	-12438
▁तीक्ष्	-12439
▁प्ररूप	-12440
▁मुखिया	-12441
▁हाशिया	-12442
▁मंज़िले	-12443
▁मुनाफिक़	-12444
▁मुनाफ़िक़	-12445
▁किताबवालों	-12446
vii	-12447
खनन	-12448
▁जज	-12449
गमूल	-12450
▁दरा	-12451
▁किर्	-12452
▁गनोम	-12453
▁लाठी	-12454
▁उद्गम	-12455
▁खारिज	-12456
▁दशाओं	-12457
▁मिजोरम	-12458
▁यूनिटों	-12459
▁विंडोज़	-12460
▁वैधानिक	-12461
▁असमर्थित	-12462
▁इस्लामिक	-12463
▁ट्रिब्यू	-12464
▁रूपांतरित	-12465
▁अल्पसंख्यक	-12466
▁महाविद्यालय	-12467
SA	-12468
ंबू	-12469
साल	-12470
उससे	-12471
पिंग	-12472
▁खाँ	-12473
▁डिफ	-12474
▁नफर	-12475
▁रिच	-12476
.2012	-12477
▁छड़ी	-12478
▁पूंछ	-12479
▁बाते	-12480
▁लगीं	-12481
▁असंगत	-12482
▁तारीफ	-12483
▁नक्शे	-12484
▁माँगा	-12485
▁वीर्य	-12486
▁शिविर	-12487
▁सकोगे	-12488
▁सपनों	-12489
▁सुगंध	-12490
▁एनआईओएस	-12491
▁कलाकृति	-12492
▁पंचायतों	-12493
▁यांत्रिक	-12494
▁सहिष्णुता	-12495
▁हस्तशिल्प	-12496
▁प्रतिस्थापित	-12497
▁(6	-12498
▁CD	-12499
बारक	-12500
यानी	-12501
राइड	-12502
▁250	-12503
▁अनवर	-12504
▁कचरे	-12505
▁पिंड	-12506
▁बापू	-12507
शिक्षा	-12508
समन्वय	-12509
स्थायी	-12510
▁आंत्र	-12511
▁गवर्न	-12512
▁घनत्व	-12513
▁जाहिल	-12514
▁पूछना	-12515
▁भागने	-12516
▁लार्ड	-12517
▁अदायगी	-12518
▁आर्द्र	-12519
▁कुत्ते	-12520
▁जोरदार	-12521
▁पालिसी	-12522
▁प्रचंड	-12523
▁फ़ायदा	-12524
▁मेघालय	-12525
▁वाहनों	-12526
▁निवेदित	-12527
▁वर्गमूल	-12528
▁छात्रवृत्ति	-12529
हॉ	-12530
िग	-12531
उदा	-12532
▁ओं	-12533
▁थक	-12534
ovin	-12535
unit	-12536
ल्हा	-12537
▁अचल	-12538
▁फीड	-12539
▁वरन	-12540
▁शिष	-12541
▁श्ल	-12542
▁अदाल	-12543
▁इनाम	-12544
▁दायी	-12545
▁हिफा	-12546
▁बिगड़	-12547
▁बोलना	-12548
▁माणिक	-12549
▁डेल्टा	-12550
▁अनुकूलन	-12551
▁प्रायद्वीप	-12552
▁यूनिवर्सिटी	-12553
""	-12554
90	-12555
केश	-12556
चलन	-12557
पड़	-12558
मुक	-12559
वने	-12560
एमसी	-12561
टिया	-12562
दीने	-12563
ान्स	-12564
▁कंज	-12565
▁टोकन	-12566
▁रचित	-12567
▁2013)	-12568
▁कराती	-12569
▁ताकीद	-12570
▁पुण्य	-12571
▁रुपया	-12572
▁हवाओं	-12573
▁अस्थाई	-12574
▁साहसिक	-12575
▁सीमांत	-12576
▁स्वरुप	-12577
तुम्हारा	-12578
▁License	-12579
▁व्यतिक्र	-12580
▁अभूतपूर्व	-12581
अफ	-12582
ide	-12583
पीय	-12584
यूर	-12585
रोग	-12586
▁120	-12587
▁पदो	-12588
▁बूझ	-12589
ोलनों	-12590
▁मसले	-12591
france	-12592
▁डायरे	-12593
▁गर्भाव	-12594
▁दाहिनी	-12595
▁मुर्गी	-12596
▁यथासंभव	-12597
▁सुलझाने	-12598
▁लोकप्रियता	-12599
▁प्राधिकारियों	-12600
अव	-12601
मात	-12602
ूसी	-12603
▁03	-12604
▁पण	-12605
फिया	-12606
▁गिड़	-12607
▁टाटा	-12608
ियुक्त	-12609
▁ट्रेन	-12610
▁तुर्क	-12611
▁निचली	-12612
▁समझकर	-12613
▁सेक्स	-12614
क्तियों	-12615
त्वर्ती	-12616
▁बाधाओं	-12617
▁लाज़िम	-12618
▁कार्यभार	-12619
▁जिन्होने	-12620
▁चुनौतियां	-12621
ैड	-12622
्क	-12623
”,	-12624
वरा	-12625
▁लश	-12626
▁२२	-12627
ंतीय	-12628
ण्डी	-12629
िबंध	-12630
ुकता	-12631
▁गली	-12632
▁गिल	-12633
▁चूर	-12634
▁बान	-12635
आज्ञा	-12636
गिर्द	-12637
नीयता	-12638
ोत्तर	-12639
▁1946	-12640
▁क़ब्	-12641
▁जोकि	-12642
▁दहला	-12643
indows	-12644
ड़ियां	-12645
▁बीजों	-12646
▁डिजीटल	-12647
▁भूमिगत	-12648
▁रिटर्न	-12649
▁सर्किट	-12650
▁कविताएं	-12651
▁वचनबद्ध	-12652
▁कट्टरपंथी	-12653
▁निर्देशांक	-12654
▁पश्चात्वर्ती	-12655
36	-12656
gt	-12657
एनए	-12658
लता	-12659
वृत	-12660
▁64	-12661
इससे	-12662
जन्य	-12663
पद्ध	-12664
शंसा	-12665
सहाय	-12666
ालाल	-12667
▁राग	-12668
▁वोट	-12669
ज़ाबे	-12670
▁अनुभ	-12671
▁कोटा	-12672
▁खोली	-12673
▁गायक	-12674
▁नाशु	-12675
▁भागे	-12676
▁विस्	-12677
▁श्लो	-12678
णात्मक	-12679
▁निषेध	-12680
▁फैलाया	-12681
▁विद्यु	-12682
▁विनियामक	-12683
▁सहकारिता	-12684
na	-12685
oft	-12686
घ्न	-12687
मरी	-12688
अपील	-12689
आरटी	-12690
धाना	-12691
▁कन्	-12692
▁धरा	-12693
▁फास	-12694
लियां	-12695
▁ऑब्ज	-12696
▁खेला	-12697
▁नफरत	-12698
▁अब्बा	-12699
▁अवक्ष	-12700
▁आजीवन	-12701
▁चौधरी	-12702
▁दबाएँ	-12703
▁विहार	-12704
▁ह्रास	-12705
▁गवाहों	-12706
▁स्थावर	-12707
▁करोड़ों	-12708
▁मार्केट	-12709
▁टेलीविजन	-12710
▁प्रतिद्व	-12711
▁संरचनात्मक	-12712
गं	-12713
णित	-12714
वुड	-12715
िटल	-12716
▁थल	-12717
▁बृ	-12718
▁वश	-12719
here	-12720
ोसिस	-12721
▁कसम	-12722
▁डबल	-12723
istan	-12724
▁1972	-12725
तत्त्व	-12726
म्प्ले	-12727
सन्देह	-12728
▁अभ्या	-12729
▁जमीनी	-12730
▁पक्की	-12731
▁राजीव	-12732
▁बुलाने	-12733
▁महावीर	-12734
▁माँगने	-12735
▁मिटाया	-12736
▁संभालने	-12737
▁नागालैंड	-12738
▁अपरिहार्य	-12739
चय	-12740
रज	-12741
out	-12742
ोधन	-12743
▁04	-12744
करार	-12745
पात्र	-12746
▁ऑफिस	-12747
▁पीते	-12748
▁प्रत	-12749
▁मवेश	-12750
जीरिया	-12751
ष्ट्री	-12752
▁टैक्स	-12753
▁श्रोता	-12754
▁इमारतों	-12755
▁उच्चारण	-12756
▁गोलाकार	-12757
▁चंडीगढ़	-12758
▁रोज़गार	-12759
▁श्लोकों	-12760
▁दुनियावी	-12761
▁विश्वयुद्ध	-12762
▁प्रतिपूर्ति	-12763
OS	-12764
ऐं	-12765
नोट	-12766
▁पसी	-12767
▁हीन	-12768
गाड़ी	-12769
फोर्ड	-12770
▁1985	-12771
▁दादी	-12772
▁यकता	-12773
▁सींग	-12774
▁ध्रुव	-12775
▁फील्ड	-12776
▁लंबवत	-12777
▁विक्ष	-12778
▁वैधता	-12779
▁अमृतसर	-12780
▁कुर्सी	-12781
▁जाऊँगा	-12782
▁जोड़कर	-12783
▁ज़िल्लत	-12784
▁ऑपरेटिंग	-12785
▁कोशिकाएं	-12786
▁संतोषजनक	-12787
▁सक्रियता	-12788
▁एप्लिकेशन	-12789
34	-12790
।]	-12791
mat	-12792
इन्	-12793
बीएस	-12794
वीएस	-12795
िंदा	-12796
▁एपी	-12797
▁गंग	-12798
▁लसी	-12799
आधारी	-12800
महिला	-12801
▁आर्क	-12802
▁पावन	-12803
▁फ़ित	-12804
▁मरना	-12805
सियानी	-12806
issions	-12807
▁अदृश्य	-12808
▁कराधान	-12809
▁निकटता	-12810
▁प्रोद्	-12811
▁बर्बाद	-12812
▁इंटरफेस	-12813
▁बैंककारी	-12814
▁संक्रमित	-12815
▁पाठ्यक्रमों	-12816
पाक	-12817
▁4,	-12818
आरसी	-12819
बहार	-12820
▁असु	-12821
▁बाण	-12822
▁मात	-12823
-8859	-12824
▁केबल	-12825
▁क्रे	-12826
▁डुबो	-12827
▁नीले	-12828
▁फेरा	-12829
▁समाई	-12830
▁सहसा	-12831
▁साहा	-12832
पूर्वी	-12833
प्रभाव	-12834
ब्तिला	-12835
▁क़ूवत	-12836
▁जमानत	-12837
▁तुझपर	-12838
▁दुहरा	-12839
▁झारखंड	-12840
▁तत्समय	-12841
▁बराबरी	-12842
▁अयोध्या	-12843
▁अध्यादेश	-12844
▁नाशुक्री	-12845
▁प्रबन्धन	-12846
▁सेटिंग्स	-12847
▁प्रातःकाल	-12848
उथ	-12849
गना	-12850
पशप	-12851
मिट	-12852
ेदन	-12853
ोशी	-12854
▁उच	-12855
बाने	-12856
व्रत	-12857
▁कलम	-12858
ग्राह	-12859
बॉक्स	-12860
▁आप्र	-12861
▁कृमि	-12862
▁गपशप	-12863
▁प्रक	-12864
▁मुल्	-12865
▁रोजे	-12866
▁आवधिक	-12867
▁चार्ज	-12868
▁जमारा	-12869
▁अलंकरण	-12870
▁आईसीटी	-12871
▁पहुंची	-12872
▁कुटुम्ब	-12873
▁भिन्नता	-12874
▁शुरुआती	-12875
EAD	-12876
कवि	-12877
ुम्	-12878
्रह	-12879
देही	-12880
▁अधी	-12881
▁ईश्व	-12882
▁स्लो	-12883
▁हमास	-12884
▁कोर्स	-12885
▁ख्वाब	-12886
▁धाराओं	-12887
▁रहेगें	-12888
▁सुनाते	-12889
▁अनावश्यक	-12890
▁संस्थापन	-12891
))	-12892
26	-12893
int	-12894
झान	-12895
्टन	-12896
▁ex	-12897
ार्ध	-12898
▁ज्य	-12899
▁थाई	-12900
▁यूट	-12901
अच्छी	-12902
लीकरण	-12903
हमारा	-12904
▁ईर्ष	-12905
▁कापी	-12906
▁मुकर	-12907
▁शहीद	-12908
▁ख़राब	-12909
▁तैनात	-12910
▁दोहरे	-12911
▁मंगोल	-12912
▁सतर्क	-12913
▁अतिक्र	-12914
▁अनदेखा	-12915
▁जोड़ते	-12916
▁बुलाता	-12917
▁असमानता	-12918
▁दर्शाते	-12919
▁मार्गों	-12920
▁अभिलाभों	-12921
▁आशीर्वाद	-12922
▁बस्तियाँ	-12923
▁विधेयकों	-12924
▁इलेक्ट्रॉनिक्स	-12925
DU	-12926
-13	-12927
lay	-12928
इंग	-12929
▁आउ	-12930
ण्डे	-12931
फ्ता	-12932
ब्रह	-12933
मंडप	-12934
▁ठंड	-12935
सत्ता	-12936
▁अकड़	-12937
▁कमरा	-12938
▁चालक	-12939
▁डेलि	-12940
▁दुरु	-12941
▁पीना	-12942
वपूर्ण	-12943
▁तालीम	-12944
▁पूछने	-12945
▁भत्ते	-12946
▁मियाद	-12947
▁नामकरण	-12948
▁प्रलेख	-12949
▁बुद्धिम	-12950
▁कुंजीपटल	-12951
▁कॉन्फ्रेंस	-12952
▁रजिस्ट्रीकृत	-12953
7,	-12954
de	-12955
uer	-12956
ंडर	-12957
वाज	-12958
▁साई	-12959
तावास	-12960
विहीन	-12961
▁1949	-12962
▁1960	-12963
▁ऑप्ट	-12964
▁गाइड	-12965
▁चर्म	-12966
▁यूएस	-12967
▁साम्	-12968
escrip	-12969
▁अकेली	-12970
▁अमिता	-12971
▁काटें	-12972
▁बाधित	-12973
▁वृंदा	-12974
▁आतिथ्य	-12975
▁कमजोरी	-12976
▁ग्रीवा	-12977
▁पच्चीस	-12978
▁बढ़ाते	-12979
▁तथाकथित	-12980
3,	-12981
तिन	-12982
गुना	-12983
▁चलन	-12984
▁दोग	-12985
रूपता	-12986
▁कशेर	-12987
▁झुंड	-12988
▁तामी	-12989
▁नक्का	-12990
▁पढ़ें	-12991
▁पुनरु	-12992
▁मारना	-12993
निर्मित	-12994
विन्यास	-12995
▁अभिभाव	-12996
▁युसुफ़	-12997
▁हुज्जत	-12998
▁क़ाबिले	-12999
▁प्रशस्त	-13000
▁फर्नीचर	-13001
▁तारामंडल	-13002
▁षड्यंत्र	-13003
▁हड्डियाँ	-13004
▁राज्यपालों	-13005
▁विद्यालयों	-13006
खख	-13007
ake	-13008
धरा	-13009
ायब	-13010
िसा	-13011
▁हॅ	-13012
ख़्स	-13013
▁कटा	-13014
▁ज़े	-13015
कानों	-13016
▁कॉफी	-13017
▁गिरी	-13018
▁टैंक	-13019
▁पर्ण	-13020
टुकड़े	-13021
लांटिक	-13022
▁इन्ते	-13023
▁टकराव	-13024
▁द्वेष	-13025
▁मोड़े	-13026
ोग्राफी	-13027
▁घोड़ों	-13028
▁फ़ोल्ड	-13029
▁निकटवर्ती	-13030
▁न्यूयार्क	-13031
▁प्रस्तुतीकरण	-13032
)?	-13033
-%	-13034
आद	-13035
lex	-13036
चढ़	-13037
चाई	-13038
तुर	-13039
बहु	-13040
वना	-13041
▁ऋष	-13042
एमएल	-13043
ड़ें	-13044
ल्पी	-13045
करिया	-13046
ारोपण	-13047
▁HEAD	-13048
▁MAPI	-13049
▁छत्र	-13050
▁पछता	-13051
▁बंदी	-13052
▁मच्छ	-13053
टीएमएल	-13054
▁इबलीस	-13055
▁ऊष्मा	-13056
▁पुश्त	-13057
▁बताये	-13058
▁मक्खी	-13059
▁लॉर्ड	-13060
▁विजयी	-13061
▁समझें	-13062
▁10,000	-13063
▁Chrome	-13064
▁आवंटित	-13065
▁गिड़गि	-13066
▁बनवाया	-13067
▁मुनाफे	-13068
▁बर्निंग	-13069
▁मलेरिया	-13070
▁मनोवैज्ञानिक	-13071
IP	-13072
-07	-13073
rou	-13074
कोल	-13075
ज़ु	-13076
वनी	-13077
ात्	-13078
ज़ाह	-13079
भाषी	-13080
ुप्त	-13081
▁कतर	-13082
▁साज	-13083
स्राव	-13084
▁बार्	-13085
▁सबने	-13086
▁चाँदी	-13087
▁छिपाए	-13088
▁दायाँ	-13089
▁सौंपे	-13090
▁नबियों	-13091
▁लगेंगे	-13092
▁विराट्	-13093
▁पहचानने	-13094
▁पहुँचता	-13095
▁उत्कीर्ण	-13096
▁रजिस्ट्र	-13097
▁पुनरीक्षण	-13098
पता	-13099
▁ev	-13100
▁ढु	-13101
कर्स	-13102
घाती	-13103
जियम	-13104
ालिस	-13105
ार्कट	-13106
▁उठकर	-13107
▁जमाव	-13108
▁अवतरण	-13109
▁उभरते	-13110
▁पोशाक	-13111
▁शख़्स	-13112
▁हिंसक	-13113
▁एक्सेस	-13114
शास्त्री	-13115
▁प्रलेखन	-13116
▁शत्रुता	-13117
▁प्रकोष्ठ	-13118
▁भूतपूर्व	-13119
▁संप्रतीक	-13120
▁क्रियाशील	-13121
▁प्रादेशिक	-13122
ोपै	-13123
▁एप	-13124
कृमि	-13125
▁काठ	-13126
▁चोल	-13127
▁नफ़	-13128
▁बोर	-13129
▁मों	-13130
तियाँ	-13131
दुनाथ	-13132
विधान	-13133
▁जानो	-13134
▁तरजी	-13135
▁लेगी	-13136
▁चौड़ी	-13137
▁दहकती	-13138
▁पाउंड	-13139
▁बारीक	-13140
▁समाधि	-13141
स्क्रीन	-13142
▁अमूर्त	-13143
▁मेहराब	-13144
▁आयताकार	-13145
▁फ्लैग्स	-13146
▁समामेलन	-13147
▁अनुष्ठान	-13148
▁निवेदिता	-13149
▁सांविधिक	-13150
▁खाद्यान्न	-13151
▁प्रामाणिक	-13152
▁फ्रांसीसी	-13153
▁भावनात्मक	-13154
1,	-13155
ुग	-13156
डाई	-13157
वला	-13158
ुंब	-13159
ोत्	-13160
ट्ठी	-13161
स्का	-13162
▁जोध	-13163
तमाला	-13164
▁क़ैद	-13165
▁ख़ता	-13166
▁ख़ून	-13167
▁गौतम	-13168
▁मीरा	-13169
▁शिला	-13170
प्रबंध	-13171
▁अवमान	-13172
▁छोड़ी	-13173
▁मुराद	-13174
▁विनोद	-13175
▁गठबंधन	-13176
▁झगड़ने	-13177
▁नाइट्र	-13178
▁पिताजी	-13179
▁माँगते	-13180
▁सहनशील	-13181
▁बेलारूस	-13182
▁एक्सप्रेस	-13183
▁कम्युनिस्ट	-13184
PRO	-13185
सला	-13186
ेता	-13187
▁05	-13188
▁85	-13189
पालक	-13190
योगी	-13191
्लाई	-13192
▁नर्	-13193
▁मेम	-13194
वर्सन	-13195
ष्टिक	-13196
िकाएं	-13197
▁कच्छ	-13198
▁काबू	-13199
▁स्या	-13200
▁जायज़	-13201
▁नित्य	-13202
▁भाँति	-13203
▁मारकर	-13204
▁वार्म	-13205
▁अहंकार	-13206
▁क्रेता	-13207
▁निहायत	-13208
▁बढ़ाता	-13209
▁मधुमक्	-13210
▁मेहमान	-13211
▁मौलाना	-13212
▁अवक्षयण	-13213
▁अविभक्त	-13214
▁नक्काशी	-13215
▁महादेवी	-13216
▁मेहरअली	-13217
▁सुलैमान	-13218
▁अत्याधिक	-13219
▁उर्वरकों	-13220
escription	-13221
▁मूर्तियां	-13222
46	-13223
ice	-13224
पुन	-13225
२००	-13226
▁झर	-13227
डियम	-13228
प्रस	-13229
▁बेख	-13230
Short	-13231
ution	-13232
दायों	-13233
पमेंट	-13234
म्बरी	-13235
▁1994	-13236
▁जन्न	-13237
▁पीला	-13238
▁रखनी	-13239
▁समया	-13240
वाहाटी	-13241
▁पलटकर	-13242
▁बहुधा	-13243
▁वक़्त	-13244
▁विलेख	-13245
▁वृक्क	-13246
▁फरमाता	-13247
▁मंज़िल	-13248
▁साइकिल	-13249
▁गिरफ्तारी	-13250
▁पड़नेवाले	-13251
▁गर्भावस्था	-13252
ps	-13253
ult	-13254
मेव	-13255
नुअल	-13256
ाम्ब	-13257
▁कॉम	-13258
▁ख़़	-13259
▁मता	-13260
▁यंग	-13261
▁हता	-13262
▁बाली	-13263
ख्तेला	-13264
▁अल्फा	-13265
▁गुनेह	-13266
▁तकिया	-13267
▁पर्दे	-13268
▁पाषाण	-13269
▁लगाएँ	-13270
▁गन्दगी	-13271
▁चिन्तन	-13272
▁निकलकर	-13273
▁लम्बाई	-13274
▁सजावटी	-13275
▁सामरिक	-13276
▁अभिलेखा	-13277
▁इफ़तेरा	-13278
▁ज़करिया	-13279
▁जातियां	-13280
▁परवर्ती	-13281
▁मछलियों	-13282
▁मुअय्यन	-13283
▁व्यंग्य	-13284
▁समझौतों	-13285
▁ईमानवाली	-13286
▁पवित्रता	-13287
▁सम्मिश्र	-13288
▁गुनाहगारों	-13289
ix	-13290
ईद	-13291
आईए	-13292
सुल	-13293
्रय	-13294
▁:-	-13295
▁कं	-13296
हराम	-13297
िलिक	-13298
▁करत	-13299
▁घसी	-13300
र्जित	-13301
▁आलोक	-13302
▁क्षी	-13303
▁गिनी	-13304
▁घेरा	-13305
▁पाचन	-13306
▁बाइट	-13307
▁लगाव	-13308
ानियों	-13309
ैंकिंग	-13310
▁क्लास	-13311
▁निचला	-13312
▁बताती	-13313
▁मकबरा	-13314
▁हिमाल	-13315
▁गुस्से	-13316
▁चेहरों	-13317
▁स्वीडन	-13318
▁टुकड़ों	-13319
▁उदाहरणार्थ	-13320
▁मांसपेशियों	-13321
mb	-13322
all	-13323
ंती	-13324
फिक	-13325
▁वफ	-13326
▁शू	-13327
एनआर	-13328
किरा	-13329
मोचन	-13330
ूस्त	-13331
▁अणु	-13332
▁कबी	-13333
▁सॉल	-13334
टरिंग	-13335
▁बकरी	-13336
▁शिवा	-13337
स्वच्छ	-13338
▁ग़लती	-13339
▁घटाने	-13340
▁मोक्ष	-13341
▁लिखकर	-13342
▁सैद्ध	-13343
साहित्य	-13344
▁करवाना	-13345
▁जानकार	-13346
▁मुर्दे	-13347
▁कारखाने	-13348
▁नियमावली	-13349
▁प्रयोगों	-13350
▁साम्राज़	-13351
▁प्रोद्भूत	-13352
▁शल्यक्रिया	-13353
ateg	-13354
अंतर	-13355
कम्प	-13356
न्टी	-13357
रोधी	-13358
▁चिं	-13359
▁जोन	-13360
▁धड़	-13361
▁बाई	-13362
परायण	-13363
▁वक्ष	-13364
▁इन्टर	-13365
▁कलाओं	-13366
▁दरअसल	-13367
▁बनेगा	-13368
▁लाएगा	-13369
▁शताब्	-13370
▁सवेरे	-13371
▁अलमस्त	-13372
▁उत्तरः	-13373
▁महासभा	-13374
▁शिकारी	-13375
▁शिशुओं	-13376
▁गेंदबाज	-13377
▁जबरदस्त	-13378
▁प्राप्य	-13379
▁कॉपीराइट	-13380
▁रामकृष्ण	-13381
▁किरायेदार	-13382
▁प्रतिबन्ध	-13383
▁बहुपक्षीय	-13384
यव	-13385
200	-13386
ace	-13387
ant	-13388
वाइ	-13389
हूर	-13390
▁इर	-13391
Serv	-13392
ital	-13393
ंमार	-13394
स्के	-13395
ुकूल	-13396
▁बुख	-13397
▁१९३	-13398
प्रेम	-13399
▁करुँ	-13400
▁काया	-13401
▁चिट्	-13402
▁हक़ी	-13403
eneral	-13404
केंद्र	-13405
▁अतिशय	-13406
▁जीर्ण	-13407
▁तरजीह	-13408
▁मज़हब	-13409
▁दाहिना	-13410
▁नियामक	-13411
▁मातृभूमि	-13412
▁पर्वतमाला	-13413
▁राष्ट्रवादी	-13414
▁पारिस्थितिकी	-13415
पुत	-13416
लूक	-13417
▁लह	-13418
ण्डर	-13419
वेली	-13420
▁SSL	-13421
▁एनी	-13422
▁खां	-13423
▁घुम	-13424
▁मुय	-13425
▁शैव	-13426
मैंने	-13427
▁अय्य	-13428
▁सिमु	-13429
क्सिको	-13430
ियंत्र	-13431
▁पारसी	-13432
▁मुझपर	-13433
▁वाजिब	-13434
▁विराज	-13435
▁प्राप्	-13436
▁मांगों	-13437
▁संज्ञा	-13438
किस्तानी	-13439
▁दुकानों	-13440
▁प्रतिकर	-13441
▁रामलिंग	-13442
▁द्विआधारी	-13443
▁translated	-13444
▁दीर्घकालीन	-13445
▁विश्वासघात	-13446
गुम	-13447
ख्ता	-13448
हानी	-13449
▁आली	-13450
▁बफर	-13451
तालों	-13452
▁दीपा	-13453
▁मरते	-13454
▁आयातक	-13455
▁एकत्व	-13456
▁गोश्त	-13457
▁मांगी	-13458
▁अप्रति	-13459
▁तात्या	-13460
▁दरवाजा	-13461
▁मुबारक	-13462
▁किस्में	-13463
▁दृश्यों	-13464
▁फिनलैंड	-13465
▁जिज्ञासा	-13466
▁स्थापत्य	-13467
पौ	-13468
ंगत	-13469
▁as	-13470
चेतन	-13471
जेशन	-13472
भाजन	-13473
वारे	-13474
ॉफ्ट	-13475
▁(7)	-13476
▁मूस	-13477
▁सूख	-13478
▁औरंग	-13479
▁डायल	-13480
▁दिक्	-13481
▁रोमन	-13482
ालियों	-13483
▁अनधिक	-13484
▁कच्चा	-13485
▁खेलते	-13486
▁गिरवी	-13487
▁नवजात	-13488
▁पित्त	-13489
▁महीना	-13490
▁माउंट	-13491
▁असंतोष	-13492
▁रविवार	-13493
▁विकृति	-13494
स्वतंत्र	-13495
▁मक्कारी	-13496
▁रिश्तों	-13497
▁सुनेंगे	-13498
▁हाथियों	-13499
▁गुवाहाटी	-13500
OL	-13501
ear	-13502
ँसा	-13503
टिन	-13504
बैठ	-13505
▁In	-13506
त्थे	-13507
वायर	-13508
हाइट	-13509
▁इंट	-13510
▁कोइ	-13511
▁गला	-13512
▁धात	-13513
▁बंट	-13514
▁बाज	-13515
▁रास	-13516
ज़ाने	-13517
लाधार	-13518
▁1952	-13519
▁असम्	-13520
▁नेवि	-13521
▁पौंड	-13522
▁रिली	-13523
▁होली	-13524
अर्थात	-13525
▁इशारा	-13526
▁चुनना	-13527
▁डराता	-13528
▁पट्टा	-13529
▁श्लोक	-13530
▁सख़्त	-13531
▁अशुद्ध	-13532
▁मुमकिन	-13533
▁शासकीय	-13534
महाद्वीप	-13535
▁कड़ियाँ	-13536
▁कैलेंडर	-13537
▁समावेशन	-13538
▁उपलब्धियां	-13539
▁पूर्वानुमान	-13540
वेज	-13541
गोचर	-13542
दिया	-13543
हाला	-13544
ाप्र	-13545
ार्ग	-13546
▁खेद	-13547
▁निभ	-13548
▁बुन	-13549
पीसीएल	-13550
▁उन्ही	-13551
▁ज्वार	-13552
▁नाराज	-13553
▁बहाना	-13554
▁सस्ती	-13555
▁खींचने	-13556
▁नमूनों	-13557
▁नेटवर्	-13558
▁प्रकरण	-13559
▁फाइलों	-13560
▁ब्रांड	-13561
▁भवभूति	-13562
▁मोहताज	-13563
▁सुनाया	-13564
▁आनेवाली	-13565
▁सरोजिनी	-13566
▁अनुरक्षण	-13567
▁एकाधिकार	-13568
▁परमात्मा	-13569
▁विनम्रता	-13570
ऐब	-13571
सौ	-13572
हट	-13573
Lex	-13574
अज़	-13575
ुना	-13576
▁ऑल	-13577
▁चह	-13578
▁शिम	-13579
कीकरण	-13580
तुल्य	-13581
बेडकर	-13582
्रेसी	-13583
▁कड़ा	-13584
▁गुहा	-13585
▁निपु	-13586
▁भट्ट	-13587
▁मद्य	-13588
▁लशकर	-13589
▁२००७	-13590
▁घुटने	-13591
▁तौरात	-13592
▁नरेन्	-13593
▁पत्रा	-13594
▁प्रत्	-13595
▁बजाएँ	-13596
▁मैथुन	-13597
▁राजने	-13598
▁दिलाता	-13599
▁प्रहार	-13600
▁मिटाकर	-13601
▁औपनिवेश	-13602
▁जनशक्ति	-13603
▁वार्मिंग	-13604
▁गिड़गिड़ा	-13605
UT	-13606
ंन	-13607
बख	-13608
▁ं	-13609
ंधा	-13610
एसी	-13611
तुत	-13612
▁रज	-13613
र्दे	-13614
लेटर	-13615
ानात	-13616
▁जेर	-13617
▁रघु	-13618
▁हृद	-13619
इसमें	-13620
मेनान	-13621
▁गयाः	-13622
▁चेता	-13623
▁फाड़	-13624
▁बेवक	-13625
▁स्टे	-13626
दक्षिण	-13627
▁अक्लम	-13628
▁अड्डा	-13629
▁कीड़े	-13630
▁कोल्ह	-13631
▁ज्यों	-13632
▁वल्लभ	-13633
▁अपनाते	-13634
▁कहेगें	-13635
▁दीवाना	-13636
▁दौड़ते	-13637
▁परिधान	-13638
▁विधिवत	-13639
▁चलचित्र	-13640
▁बुढ़ापे	-13641
▁संभवतया	-13642
▁सुप्रीम	-13643
▁क़ुरबानी	-13644
▁रिपोर्टों	-13645
▁सृजनात्मक	-13646
,?	-13647
kt	-13648
ror	-13649
बला	-13650
▁66	-13651
▁li	-13652
चढ़ा	-13653
देशा	-13654
न्टर	-13655
मध्य	-13656
▁अजन	-13657
▁करण	-13658
▁चैक	-13659
▁थीम	-13660
विस्त	-13661
▁अकसर	-13662
▁अवशो	-13663
▁कुचल	-13664
नाइटेड	-13665
▁अड्डे	-13666
▁सुनना	-13667
▁स्राव	-13668
धिकारों	-13669
▁उपनिषद	-13670
▁कपड़ों	-13671
▁चित्रा	-13672
▁छवियाँ	-13673
▁यदुनाथ	-13674
विज्ञानी	-13675
▁आक्रामक	-13676
▁वृंदावन	-13677
▁शुद्धता	-13678
▁ज्ञानवान	-13679
▁बुराइयाँ	-13680
▁शिकायतें	-13681
▁सुस्पष्ट	-13682
ill	-13683
फ्फ	-13684
ज्या	-13685
भूषा	-13686
▁कौर	-13687
खानों	-13688
विवाह	-13689
ांतिक	-13690
▁'{0}	-13691
▁उतरे	-13692
▁बदतर	-13693
▁बुजु	-13694
▁रूपए	-13695
▁स्पे	-13696
▁अलगाव	-13697
▁इरादे	-13698
▁ऊँटनी	-13699
▁कदमों	-13700
▁पिक्स	-13701
▁प्रवी	-13702
संस्कृत	-13703
▁अधिभार	-13704
▁प्लेयर	-13705
▁बेज़ार	-13706
▁मुसाफ़	-13707
▁पुकारने	-13708
▁पुराणों	-13709
▁प्राणिक	-13710
▁सदाबहार	-13711
▁अनुपलब्ध	-13712
▁स्टेशनों	-13713
▁स्मारकों	-13714
▁पक्षकारों	-13715
▁संयंत्रों	-13716
▁अभियांत्रिकी	-13717
▁कार्यक्षेत्र	-13718
▁इस्लामवादियों	-13719
▁प्रौद्योगिकीय	-13720
->	-13721
96	-13722
rib	-13723
लीम	-13724
ाफ़	-13725
▁औस	-13726
▁गह	-13727
ंदों	-13728
कर्ण	-13729
ण्डा	-13730
ैक्स	-13731
▁छठा	-13732
▁बख़	-13733
दान्त	-13734
▁जूते	-13735
▁भ्रा	-13736
▁लिफा	-13737
▁सिले	-13738
▁सोलह	-13739
▁सोशल	-13740
▁जड़ें	-13741
▁पक्के	-13742
▁परिधि	-13743
▁बेवकू	-13744
▁संवित	-13745
▁साहिब	-13746
▁इसमाईल	-13747
▁गुणगान	-13748
▁पकड़कर	-13749
▁विचलित	-13750
▁सिक्के	-13751
▁हाइड्र	-13752
▁नानालाल	-13753
▁मानेंगे	-13754
▁परिचर्चा	-13755
▁ज़बरदस्ती	-13756
▁तुलनात्मक	-13757
▁प्रस्थिति	-13758
▁पत्रकारिता	-13759
षऋ	-13760
Uri	-13761
ith	-13762
ंतक	-13763
बाइ	-13764
सले	-13765
ारत	-13766
्ली	-13767
DUCT	-13768
क़ौम	-13769
कांड	-13770
तनों	-13771
यूसु	-13772
र्पण	-13773
वक्त	-13774
ाफिल	-13775
▁अंट	-13776
▁कले	-13777
▁छाँट	-13778
▁देवे	-13779
LexUri	-13780
आख़िरत	-13781
क़ुदरत	-13782
क़ुरआन	-13783
ग्रन्थ	-13784
ट्रपति	-13785
ान्तरण	-13786
िस्तान	-13787
▁अंडों	-13788
▁कारसा	-13789
▁खौलता	-13790
▁चौड़ा	-13791
▁पहनते	-13792
▁बहाने	-13793
▁भड़का	-13794
▁रेज़ा	-13795
▁ग़ाफिल	-13796
▁घुमाएँ	-13797
▁रूसवाई	-13798
▁चंद्रमा	-13799
▁पत्रकार	-13800
▁फेफड़ों	-13801
▁राजनयिक	-13802
▁सज़ावार	-13803
▁साझेदार	-13804
▁मुब्तिला	-13805
▁यात्राओं	-13806
LexUriServ	-13807
▁परम्परागत	-13808
▁ब्रह्मांड	-13809
▁मंत्रिपरिषद	-13810
▁कारस्तानियों	-13811
ha	-13812
अरे	-13813
़्त	-13814
गर्भ	-13815
न्जा	-13816
▁आसन	-13817
▁तान	-13818
▁मजे	-13819
▁मेक	-13820
▁सबक	-13821
्रीका	-13822
▁1973	-13823
▁उगाई	-13824
▁डेमो	-13825
▁नासा	-13826
▁महज़	-13827
▁अल्पा	-13828
▁आभारी	-13829
▁निजाम	-13830
▁बजाने	-13831
▁बरसों	-13832
▁मानें	-13833
ौपचारिक	-13834
▁आरोपों	-13835
▁उपास्य	-13836
▁तिब्बत	-13837
▁परिक्र	-13838
▁फ़ारसी	-13839
▁बैकेंड	-13840
▁राममोहन	-13841
▁सबवर्सन	-13842
▁प्रांतीय	-13843
▁बहिष्कार	-13844
▁परिवीक्षाधीन	-13845
▁परिस्थितियां	-13846
28	-13847
▁.	-13848
ंजक	-13849
बाध	-13850
ैंप	-13851
▁5,	-13852
ंकार	-13853
जवाब	-13854
र्थक	-13855
▁शहद	-13856
▁शोथ	-13857
बाक्स	-13858
▁उतरा	-13859
▁ग्ले	-13860
▁ट्यू	-13861
▁ललित	-13862
▁अपहरण	-13863
▁कस्टम	-13864
▁ग़ायब	-13865
▁चांदी	-13866
▁टिड्ड	-13867
▁परिकल	-13868
▁लसीका	-13869
▁वीरता	-13870
▁अभिदाय	-13871
▁पैदाइश	-13872
निरपेक्ष	-13873
▁वर्चुअल	-13874
▁मध्यस्थता	-13875
▁अत्यावश्यक	-13876
▁अभिलेखागार	-13877
▁संवेदनशीलता	-13878
VD	-13879
ऊं	-13880
रणी	-13881
▁खट	-13882
iver	-13883
खड़ा	-13884
दिनी	-13885
सर्व	-13886
ारें	-13887
▁उपस	-13888
▁दाब	-13889
जिहाद	-13890
श्रित	-13891
▁पडता	-13892
▁लड़क	-13893
▁विज़	-13894
▁उठाये	-13895
▁कच्ची	-13896
▁खर्चे	-13897
▁टेम्प	-13898
▁ढूँढ़	-13899
▁बक्से	-13900
▁बर्मा	-13901
▁अनुरुप	-13902
▁अनेकों	-13903
▁अमिताभ	-13904
▁कुटुंब	-13905
▁ख़ातिर	-13906
▁निकटतम	-13907
▁निभाने	-13908
▁पुष्पा	-13909
▁मेट्रो	-13910
▁रोमांच	-13911
▁सिस्को	-13912
▁कुंजीपट	-13913
▁चिपकाएँ	-13914
▁आंदोलनों	-13915
▁राज्यसभा	-13916
▁रियासतों	-13917
▁पार्टियों	-13918
▁प्रतिभाशाली	-13919
▁प्रवृत्तियों	-13920
49	-13921
झक	-13922
तई	-13923
खड़	-13924
डैक	-13925
बीच	-13926
शरण	-13927
टीआई	-13928
डेटा	-13929
▁इको	-13930
▁लती	-13931
▁लाय	-13932
बराबर	-13933
ानिया	-13934
▁(198	-13935
▁अनुष	-13936
▁चरित	-13937
▁शीशे	-13938
▁खोलकर	-13939
▁ग्रेट	-13940
▁जर्नल	-13941
▁त्रास	-13942
▁विस्म	-13943
▁स्थाय	-13944
▁अर्थों	-13945
▁ढूंढने	-13946
▁विचारा	-13947
▁सिद्धि	-13948
▁औषधियों	-13949
▁जाएंगें	-13950
▁जवाबदेही	-13951
▁प्रजातियां	-13952
cc	-13953
ंगण	-13954
ईजी	-13955
सही	-13956
िके	-13957
▁टु	-13958
इसकी	-13959
उच्च	-13960
वादा	-13961
सिला	-13962
▁use	-13963
▁आइट	-13964
शियां	-13965
▁कुला	-13966
▁तालि	-13967
▁तिरू	-13968
▁द्रो	-13969
▁नक्ष	-13970
▁माइन	-13971
▁मोनो	-13972
▁उड़ने	-13973
▁उपवास	-13974
▁अन्तरा	-13975
▁न्यासी	-13976
▁दूतावास	-13977
▁मालिकों	-13978
▁विवरणों	-13979
▁शब्दकूट	-13980
▁संकुचित	-13981
▁सुल्तान	-13982
▁अनौपचारिक	-13983
▁पुर्तगाली	-13984
▁स्वतन्त्रता	-13985
76	-13986
to	-13987
धीय	-13988
एमपी	-13989
्राह	-13990
▁आलम	-13991
▁इत्	-13992
▁कंठ	-13993
▁छठी	-13994
▁छुप	-13995
▁माई	-13996
▁शिर	-13997
उत्तर	-13998
▁निःश	-13999
▁बतला	-14000
▁यतीम	-14001
▁साँस	-14002
प्रवाह	-14003
▁महोदय	-14004
▁सजाया	-14005
▁जटिलता	-14006
▁निर्मल	-14007
▁अक्षमता	-14008
▁नातेदार	-14009
▁कम्प्यूट	-14010
▁क्रमादेश	-14011
▁निरीक्षक	-14012
▁प्रतिबिंबित	-14013
टू	-14014
जाद	-14015
्शन	-14016
।--	-14017
▁72	-14018
▁\\	-14019
ब्रू	-14020
▁GNU	-14021
▁You	-14022
▁घोल	-14023
▁तले	-14024
▁राइ	-14025
स्कों	-14026
ोपड़ी	-14027
▁HTTP	-14028
▁आवेग	-14029
▁मोहर	-14030
▁gnome	-14031
▁निरोध	-14032
▁बन्दर	-14033
▁साइबर	-14034
▁नेपाली	-14035
▁मन्त्र	-14036
▁निस्पृह	-14037
▁सराहनीय	-14038
▁द्वितीयक	-14039
▁असुरक्षित	-14040
▁स्टार्टअप	-14041
▁विकासात्मक	-14042
५०	-14043
नार	-14044
षेक	-14045
सिं	-14046
▁le	-14047
दीकी	-14048
बीसी	-14049
ूंगी	-14050
▁आसा	-14051
▁घनी	-14052
▁फाल	-14053
▁सिय	-14054
▁बाँट	-14055
▁बेहि	-14056
न्त्री	-14057
▁चुनते	-14058
▁पुतली	-14059
▁मथुरा	-14060
▁सजावट	-14061
▁स्पूल	-14062
▁जोधपुर	-14063
▁प्रिंस	-14064
▁अमेरिकन	-14065
▁दोहराया	-14066
▁औपनिवेशिक	-14067
▁कर्त्तव्य	-14068
▁कार्यनीति	-14069
▁मुद्रास्फीति	-14070
38	-14071
DE	-14072
UR	-14073
ैग	-14074
-08	-14075
14.	-14076
टेक	-14077
▁9.	-14078
उसने	-14079
दांत	-14080
सेसर	-14081
▁अहा	-14082
▁एम्	-14083
▁ज़ब	-14084
▁भाप	-14085
ख़ाना	-14086
ग्राफ	-14087
वासित	-14088
▁क्वा	-14089
▁गर्द	-14090
▁बुझा	-14091
पद्धति	-14092
▁कुछेक	-14093
▁टिकाऊ	-14094
▁दर्पण	-14095
▁मुर्ग	-14096
▁रेशमी	-14097
▁लगाता	-14098
▁सीखते	-14099
ategory	-14100
▁ज़रिये	-14101
▁भ्रष्ट	-14102
▁उपबंधित	-14103
▁पोतन्ना	-14104
▁फॉर्मेट	-14105
▁हाइड्रो	-14106
▁गतिशीलता	-14107
▁तर्कसंगत	-14108
▁म्यांमार	-14109
▁अधिनिर्णय	-14110
▁इंडोनेशिया	-14111
▁शेयरधारकों	-14112
दौ	-14113
सक	-14114
दीव	-14115
urop	-14116
डीसी	-14117
शियम	-14118
्वती	-14119
▁600	-14120
▁क़े	-14121
▁खरा	-14122
▁फटा	-14123
▁राख	-14124
▁१९४	-14125
कार्ब	-14126
न्दरी	-14127
▁कमान	-14128
▁दोगे	-14129
▁बेचा	-14130
▁भृंग	-14131
▁लापर	-14132
▁स्के	-14133
श्मीरी	-14134
▁आकारः	-14135
▁एग्री	-14136
▁गर्भग	-14137
▁चलाते	-14138
▁शिष्यों	-14139
▁उद्घोषणा	-14140
▁माइक्रोस	-14141
▁हिन्दुस्तानी	-14142
अफ़	-14143
सन्	-14144
स्ड	-14145
सानी	-14146
▁139	-14147
▁जुन	-14148
▁हें	-14149
क्सीन	-14150
नुसार	-14151
▁अनार	-14152
▁उठती	-14153
▁चांद	-14154
▁थकान	-14155
▁दोहन	-14156
▁माँस	-14157
▁सेमी	-14158
▁२००६	-14159
▁बेजबर	-14160
▁मुझको	-14161
▁उदारता	-14162
▁भाषणों	-14163
▁महानगर	-14164
▁मुहताज	-14165
▁साइटों	-14166
▁सुनाता	-14167
▁प्रत्ये	-14168
▁महासचिव	-14169
▁विशेषतः	-14170
▁संप्रेषण	-14171
▁सर्वोपरि	-14172
▁सामग्रियों	-14173
कोप	-14174
खना	-14175
जपा	-14176
मास	-14177
सरी	-14178
ोंक	-14179
आईपी	-14180
यनों	-14181
समाज	-14182
ादार	-14183
▁अथक	-14184
▁जेब	-14185
▁टॉम	-14186
भावित	-14187
▁उंगल	-14188
▁मीठा	-14189
नेस्को	-14190
प्रेषण	-14191
▁'{0}'	-14192
▁(1956	-14193
▁उलफ़त	-14194
▁कमाने	-14195
▁खौलते	-14196
▁तामील	-14197
▁मौर्य	-14198
▁संभाग	-14199
विभागों	-14200
▁क्षिति	-14201
▁ख़ैरात	-14202
▁सीमाएं	-14203
▁2006-07	-14204
▁अध्यापन	-14205
▁गर्भगृह	-14206
▁विभागीय	-14207
▁शीघ्रता	-14208
▁सूचनाएं	-14209
▁गोपनीयता	-14210
▁विराजमान	-14211
▁अपेक्षाओं	-14212
▁तुल्यकालन	-14213
▁पंक्तिबद्ध	-14214
NT	-14215
tor	-14216
फूल	-14217
हनी	-14218
▁1%	-14219
roup	-14220
अंदा	-14221
जैसा	-14222
नामी	-14223
वहार	-14224
वाहन	-14225
शेखर	-14226
सिंग	-14227
▁1/2	-14228
▁{1}	-14229
▁निम	-14230
▁सरा	-14231
भांति	-14232
ेक्टर	-14233
▁उभरे	-14234
▁तेरह	-14235
म्बख्त	-14236
▁उद्भव	-14237
▁उल्टा	-14238
▁जवानी	-14239
▁झूठला	-14240
▁देसाई	-14241
▁बुर्द	-14242
▁मुंशी	-14243
न्होंने	-14244
▁जाएगें	-14245
▁निद्रा	-14246
▁प्रकटन	-14247
▁रेड्डी	-14248
▁विमर्श	-14249
▁रिएक्टर	-14250
▁उदासीनता	-14251
▁लाभान्वित	-14252
65	-14253
ive	-14254
टलर	-14255
सां	-14256
▁२६	-14257
ख़ैर	-14258
तबली	-14259
फ़ान	-14260
वारा	-14261
ाबिल	-14262
▁छुआ	-14263
▁पैक	-14264
▁मनु	-14265
▁रेज	-14266
सुधार	-14267
्मीकि	-14268
▁जेने	-14269
▁दुरा	-14270
▁निगल	-14271
▁साधु	-14272
▁सूरी	-14273
▁काबुल	-14274
▁गुम्ब	-14275
▁ग्रीक	-14276
▁दुष्ट	-14277
▁पठनीय	-14278
▁मलामत	-14279
▁शिथिल	-14280
▁संघों	-14281
▁सीढ़ी	-14282
▁निशाना	-14283
▁बैठकें	-14284
▁सिक्का	-14285
▁दीपावली	-14286
▁दूरदर्शन	-14287
▁निर्यातक	-14288
▁सर्वांगी	-14289
ermissions	-14290
▁ट्रिब्यूनल	-14291
▁तत्वदर्शिता	-14292
▁राष्ट्रमंडल	-14293
२०	-14294
ठाई	-14295
▁धर	-14296
ghan	-14297
menu	-14298
डाउन	-14299
फीक़	-14300
▁इस्	-14301
▁मरु	-14302
▁लवण	-14303
▁१००	-14304
▁उभरा	-14305
▁जहॉन	-14306
▁डूबो	-14307
▁मरीज	-14308
▁साइड	-14309
युक़्त	-14310
िलिखित	-14311
्तिहान	-14312
▁निकली	-14313
▁पैकेट	-14314
▁फरीक़	-14315
▁बुलाओ	-14316
▁मिर्च	-14317
▁मुख्त	-14318
▁लॉगइन	-14319
▁सचेतन	-14320
▁अंधकार	-14321
▁आकृष्ट	-14322
▁इन्जील	-14323
▁कामगार	-14324
▁कीमतें	-14325
▁कीर्ति	-14326
▁जिबरील	-14327
▁जिलाता	-14328
▁दिलाना	-14329
▁परदाज़	-14330
▁फज़ीलत	-14331
▁वर्जित	-14332
▁मग़फिरत	-14333
आज्ञाकारी	-14334
▁इम्तिहान	-14335
▁प्रतिमान	-14336
▁प्रतिवाद	-14337
▁नाइट्रोजन	-14338
▁राजेन्द्र	-14339
▁अनुकम्पाओं	-14340
-18	-14341
til	-14342
येक	-14343
▁41	-14344
▁St	-14345
जिकल	-14346
सबसे	-14347
ास्व	-14348
▁ओड़	-14349
▁गैल	-14350
▁भरण	-14351
▁मोम	-14352
ज़ूरी	-14353
ापन्न	-14354
▁1965	-14355
▁1975	-14356
▁घण्ट	-14357
▁पियो	-14358
▁युगल	-14359
▁वृहत	-14360
▁सोचे	-14361
istbox	-14362
▁आईएसओ	-14363
▁इजाजत	-14364
▁उदारी	-14365
▁एटीएम	-14366
▁कठपुत	-14367
▁किफाय	-14368
▁गैसों	-14369
▁अज़ीज़	-14370
▁उपद्रव	-14371
▁ड्यूटी	-14372
▁दांतों	-14373
▁विमानन	-14374
▁घटनाक्रम	-14375
▁जानबूझकर	-14376
▁पहुंचाया	-14377
▁अतिरिक़्त	-14378
▁त्यागपत्र	-14379
▁न्यायसंगत	-14380
▁प्रतिपादन	-14381
▁कनेक्टिविटी	-14382
▁पुनर्निर्माण	-14383
ma	-14384
डॉ	-14385
16.	-14386
Con	-14387
key	-14388
मरण	-14389
हाए	-14390
भाष्	-14391
▁किट	-14392
▁फंस	-14393
▁सडक	-14394
.2018	-14395
ction	-14396
ोरियम	-14397
▁उनमे	-14398
▁दलित	-14399
▁परिर	-14400
▁रंगः	-14401
इस्लाम	-14402
कारिणी	-14403
संग्रह	-14404
सुविधा	-14405
▁अनजान	-14406
▁उभरती	-14407
▁करतूत	-14408
▁दुर्द	-14409
▁ब्लैक	-14410
▁मनोहर	-14411
▁मौसमी	-14412
▁लद्दा	-14413
▁सुचार	-14414
▁उत्खनन	-14415
▁देखेगा	-14416
▁नागपुर	-14417
▁निभाता	-14418
▁राजकोष	-14419
▁श्रद्ध	-14420
▁तीक्ष्ण	-14421
▁दुरुस्त	-14422
▁पक्षपात	-14423
▁पुनर्जी	-14424
▁मोहब्बत	-14425
▁मुलाक़ात	-14426
▁सम्पादित	-14427
▁हस्तांतरित	-14428
▁सेवानिवृत्त	-14429
ey	-14430
sh	-14431
ual	-14432
नबी	-14433
बेट	-14434
भंड	-14435
मैप	-14436
स्र	-14437
ानक	-14438
ूरक	-14439
▁आड	-14440
▁खन	-14441
SION	-14442
टीसी	-14443
▁125	-14444
▁ताश	-14445
▁बिज	-14446
▁भया	-14447
▁रूम	-14448
▁अकाल	-14449
▁कैदी	-14450
▁क्ली	-14451
▁टूटी	-14452
▁बोनस	-14453
निकेतन	-14454
▁कालीन	-14455
▁खरीदी	-14456
▁नायडू	-14457
▁निहाल	-14458
▁बाइंड	-14459
▁विध्व	-14460
▁अनुभवी	-14461
▁क़ाबिल	-14462
▁कार्या	-14463
▁पूर्वज	-14464
▁बुकिंग	-14465
▁संकुचन	-14466
▁स्टैंड	-14467
कर्मियों	-14468
▁अनेकाने	-14469
▁चार्ल्स	-14470
▁दुरूस्त	-14471
▁सूचनाएँ	-14472
ghanistan	-14473
▁एचटीएमएल	-14474
▁जनसाधारण	-14475
▁प्रतिबिंब	-14476
▁माननेवाले	-14477
▁पाकिस्तानी	-14478
▁विद्यासागर	-14479
▁प्रतिस्पर्धी	-14480
▁रजिस्ट्रीकरण	-14481
सच	-14482
amp	-14483
ath	-14484
पिन	-14485
फली	-14486
रिस	-14487
ोड़	-14488
▁58	-14489
तोड़	-14490
न्थि	-14491
ुलकर	-14492
▁The	-14493
▁कॉर	-14494
▁मुल	-14495
▁शंख	-14496
द्रिक	-14497
▁1977	-14498
▁अम्ब	-14499
▁औंधे	-14500
▁कसरत	-14501
▁जनमत	-14502
▁डेढ़	-14503
▁दाता	-14504
▁रोपण	-14505
▁लगना	-14506
▁वज़न	-14507
▁अठारह	-14508
▁आजिज़	-14509
▁कृष्णा	-14510
▁छानबीन	-14511
▁निष्का	-14512
▁परिहास	-14513
▁बनाएगा	-14514
▁निधियां	-14515
▁मार्जिन	-14516
▁अनेकानेक	-14517
▁उल्लेखित	-14518
▁प्रतियां	-14519
▁प्रमाणों	-14520
▁साधारणतया	-14521
▁प्रस्तावना	-14522
▁विश्वसनीयता	-14523
-14	-14524
ख्व	-14525
दून	-14526
ware	-14527
साधक	-14528
▁180	-14529
▁दाद	-14530
▁धुन	-14531
▁भती	-14532
▁हुम	-14533
शांति	-14534
▁कैले	-14535
▁लाती	-14536
कालयों	-14537
ड़ियाँ	-14538
▁आत्मक	-14539
▁घोड़ा	-14540
▁ढाँचा	-14541
▁तुझसे	-14542
▁पेयजल	-14543
▁प्रान	-14544
▁वरदान	-14545
राज्यों	-14546
▁कैरियर	-14547
▁ग्रामो	-14548
▁विषाणु	-14549
▁सम्मेल	-14550
▁General	-14551
▁अद्यतनी	-14552
▁प्रभारी	-14553
▁विमानों	-14554
lo	-14555
रथ	-14556
एगी	-14557
फ़ल	-14558
फ्ल	-14559
सभी	-14560
न्यू	-14561
पीयू	-14562
▁कोच	-14563
▁गान	-14564
▁तड़	-14565
▁1984	-14566
▁कन्व	-14567
▁टीके	-14568
▁नुत्	-14569
▁शोधन	-14570
▁संयम	-14571
▁असहाय	-14572
▁कहावत	-14573
▁जहाज़	-14574
▁दुसरे	-14575
▁बागान	-14576
▁लौटते	-14577
▁सस्ता	-14578
oftware	-14579
▁छात्रा	-14580
▁बॉम्बे	-14581
▁मैनुअल	-14582
▁रहूँगा	-14583
▁राजपूत	-14584
▁विवेचन	-14585
▁शौचालय	-14586
▁सातवीं	-14587
▁हुज़ूर	-14588
▁अभियोजन	-14589
▁कंट्रोल	-14590
▁गुरुदेव	-14591
▁मिसालें	-14592
▁सर्वत्र	-14593
▁सिलसिला	-14594
▁अमानतदार	-14595
▁उदाहरणों	-14596
▁मानसिकता	-14597
▁प्रकाशनों	-14598
▁परिसंपत्ति	-14599
ET	-14600
नॉ	-14601
ईसी	-14602
कहा	-14603
ग़ु	-14604
गुल	-14605
डाक	-14606
हीम	-14607
atus	-14608
enef	-14609
ंगनी	-14610
प्रौ	-14611
समान	-14612
हाने	-14613
▁ढील	-14614
▁रमण	-14615
शीघ्र	-14616
▁अनभि	-14617
▁उतरी	-14618
▁औसतन	-14619
▁करोड	-14620
▁टेबल	-14621
▁मॉनी	-14622
▁लंका	-14623
▁लेखे	-14624
▁हथकर	-14625
अंग्रे	-14626
नमार्क	-14627
विरोधी	-14628
▁धर्मा	-14629
▁नलिका	-14630
▁फसलें	-14631
तुम्हें	-14632
▁नदियां	-14633
▁ब्यौरा	-14634
▁महत्तर	-14635
▁रेटिंग	-14636
▁शिवाजी	-14637
▁कीटनाशक	-14638
▁कोल्हटकर	-14639
▁तत्त्वों	-14640
▁उन्नीसवीं	-14641
▁कॉर्पोरेट	-14642
ूड	-14643
-2.	-14644
100	-14645
इसे	-14646
कूद	-14647
ट्ठ	-14648
तीब	-14649
पीओ	-14650
▁1:	-14651
▁भो	-14652
कार्	-14653
चारे	-14654
जिंग	-14655
ध्वा	-14656
विड़	-14657
▁269	-14658
▁अक़	-14659
▁ऋणी	-14660
▁बरफ	-14661
गाहों	-14662
धर्मी	-14663
फिरों	-14664
रिलिक	-14665
लैण्ड	-14666
वर्धक	-14667
िकाने	-14668
▁आदिम	-14669
▁एसिड	-14670
▁ख़री	-14671
▁जलीय	-14672
▁ढाँक	-14673
▁मुख्	-14674
▁रंजन	-14675
▁लाला	-14676
▁लेटे	-14677
▁खजाने	-14678
▁फेरकर	-14679
▁भरोसे	-14680
▁राजेश	-14681
▁साहित	-14682
PRODUCT	-14683
व्यापार	-14684
▁अद्वैत	-14685
▁असीमित	-14686
▁गणितीय	-14687
▁जहाजों	-14688
▁नदियाँ	-14689
▁सद्भाव	-14690
▁प्रकाशक	-14691
▁प्रतीका	-14692
▁मार्टिन	-14693
▁परित्याग	-14694
▁रूपान्तर	-14695
▁संतुष्टि	-14696
▁सम्मेलनों	-14697
▁नर्मदाशंकर	-14698
▁अंतःस्थापित	-14699
lib	-14700
.200	-14701
अन्य	-14702
रियल	-14703
ल्लू	-14704
हमति	-14705
▁अमा	-14706
▁कौम	-14707
▁बढे	-14708
कुदरत	-14709
चुपके	-14710
फ्तार	-14711
वाजों	-14712
▁1955	-14713
▁औरों	-14714
▁घुसा	-14715
▁जब्त	-14716
▁मतों	-14717
▁वहॉँ	-14718
enefit	-14719
▁अजनबी	-14720
▁अनगिन	-14721
▁आरज़ू	-14722
▁किसके	-14723
▁क्षीण	-14724
▁जाग्र	-14725
▁डिस्प	-14726
▁बेरोज	-14727
▁सेंटी	-14728
▁चार्टर	-14729
▁परिसंघ	-14730
▁शनिवार	-14731
▁निगाहें	-14732
▁पहुंचना	-14733
▁अस्पृश्य	-14734
13.	-14735
ंबी	-14736
उधर	-14737
बढ़	-14738
▁07	-14739
▁la	-14740
▁र्	-14741
गुरु	-14742
फ्रा	-14743
बैंक	-14744
िज्म	-14745
िताब	-14746
▁टूर	-14747
▁दीख	-14748
▁बहर	-14749
▁लटक	-14750
खास्त	-14751
ब्बुर	-14752
▁1963	-14753
▁अधिश	-14754
▁खंडन	-14755
▁जाली	-14756
▁दैवी	-14757
▁धीमा	-14758
▁पितृ	-14759
▁भीषण	-14760
▁भूले	-14761
▁माफी	-14762
▁रिंग	-14763
▁संचय	-14764
प्रिंट	-14765
▁क़ीमत	-14766
▁मंचों	-14767
▁संकोच	-14768
▁सिडबी	-14769
▁अविश्व	-14770
▁चमकदार	-14771
▁दूरभाष	-14772
▁यादगार	-14773
▁नापसन्द	-14774
▁परिजनों	-14775
▁विलुप्त	-14776
▁शैलियों	-14777
▁अतिक्रमण	-14778
▁देशभक्ति	-14779
▁निर्धनता	-14780
▁प्रदूषित	-14781
▁परिलक्षित	-14782
▁बल्लेबाजी	-14783
▁कार्यनीतिक	-14784
▁निम्नानुसार	-14785
▁वास्तुशिल्प	-14786
-09	-14787
खलन	-14788
बनी	-14789
शरी	-14790
स्वर	-14791
▁(30	-14792
▁ऑयल	-14793
▁जाम	-14794
▁पूल	-14795
ख्यान	-14796
ठासीन	-14797
र्करा	-14798
वाड़ा	-14799
सिर्फ	-14800
▁1920	-14801
▁1981	-14802
▁menu	-14803
▁मेजर	-14804
▁अन्धे	-14805
▁चालुक	-14806
▁चिंघा	-14807
▁पकाने	-14808
▁सेमिन	-14809
ान्तरित	-14810
▁कृषकों	-14811
▁निकलें	-14812
▁निरूपण	-14813
▁बर्ताव	-14814
▁मिलाया	-14815
अनुच्छेद	-14816
▁कार्रवा	-14817
▁विकल्पः	-14818
▁ऑब्जेक्ट	-14819
▁रिपब्लिक	-14820
▁सामान्यत	-14821
▁सम्प्रदाय	-14822
red	-14823
टीई	-14824
भरे	-14825
▁74	-14826
▁अघ	-14827
पट्ट	-14828
▁एंप	-14829
▁डाँ	-14830
▁पॉव	-14831
▁1908	-14832
▁अभिश	-14833
▁काटे	-14834
▁डराए	-14835
▁दफ्त	-14836
▁पेटी	-14837
▁फेडर	-14838
▁मल्ल	-14839
▁मुखौ	-14840
▁मेरु	-14841
▁यूरे	-14842
▁रीढ़	-14843
▁शुऐब	-14844
▁हैंड	-14845
▁कंधों	-14846
▁कीमती	-14847
▁खींचा	-14848
▁परिणत	-14849
▁बांटा	-14850
▁मध्या	-14851
▁संभोग	-14852
▁उदयपुर	-14853
▁चिराग़	-14854
▁कश्मीरी	-14855
▁राजशाही	-14856
▁उपेक्षित	-14857
▁परमेश्वर	-14858
▁सर्वांगीण	-14859
▁पुष्पांजलि	-14860
CS	-14861
ord	-14862
ूको	-14863
▁68	-14864
▁२१	-14865
गलों	-14866
ज़रा	-14867
मयिक	-14868
र्मर	-14869
वादन	-14870
▁आधि	-14871
▁गड्	-14872
▁पिक	-14873
▁बची	-14874
▁सूद	-14875
▁1942	-14876
▁आमने	-14877
▁काना	-14878
▁गोल्	-14879
▁पायल	-14880
▁बूझे	-14881
▁मसख़	-14882
▁वंशज	-14883
▁वास्	-14884
स्वरुप	-14885
▁आपूर्	-14886
▁कोनों	-14887
▁ज़िना	-14888
▁नोटों	-14889
▁प्लान	-14890
▁फैक्स	-14891
▁लेखकः	-14892
▁विनिय	-14893
▁स्पैम	-14894
▁Public	-14895
▁आईआईटी	-14896
▁चश्में	-14897
▁चुकौती	-14898
▁देखिये	-14899
▁पैमाना	-14900
▁महानता	-14901
▁मार्शल	-14902
▁विभक्त	-14903
▁टेक्स्ट	-14904
र्विज्ञान	-14905
▁अंटार्कट	-14906
▁संख्याओं	-14907
पैग़म्बरों	-14908
ts	-14909
गै	-14910
जग	-14911
ोपन	-14912
ौली	-14913
इसका	-14914
चिकर	-14915
शन्स	-14916
ियोप	-14917
▁mon	-14918
▁उपल	-14919
▁नशी	-14920
▁पिच	-14921
▁भाष	-14922
Count	-14923
कुफ्र	-14924
मार्क	-14925
सामने	-14926
▁1962	-14927
▁कॉले	-14928
▁फकीर	-14929
▁बिंद	-14930
▁बीएस	-14931
▁लेंस	-14932
स्थानी	-14933
▁अभिनव	-14934
▁घटाकर	-14935
▁तेलंग	-14936
▁श्रवण	-14937
▁संगमर	-14938
▁गोविंद	-14939
▁निर्बल	-14940
▁फ्रेंच	-14941
▁वायुयान	-14942
▁इलैक्ट्र	-14943
▁वायुसेना	-14944
▁संशोधनों	-14945
▁कार्यसूची	-14946
▁उपमहाद्वीप	-14947
▁दृष्टिगोचर	-14948
▁पुरस्कारों	-14949
")	-14950
इम	-14951
ॉं	-14952
ost	-14953
शमन	-14954
ायु	-14955
ेंग	-14956
एफआर	-14957
पर्व	-14958
▁1.5	-14959
▁एसी	-14960
▁ढका	-14961
▁पाम	-14962
▁बुझ	-14963
▁हर्	-14964
older	-14965
प्तान	-14966
▁1857	-14967
▁1945	-14968
▁1978	-14969
▁उठना	-14970
▁जुडे	-14971
▁नवयु	-14972
▁पठित	-14973
▁बहके	-14974
▁सपाट	-14975
अज़ाबे	-14976
कुफ़्र	-14977
दिहानी	-14978
▁जलाने	-14979
▁दिलाओ	-14980
▁दूषित	-14981
▁नसारा	-14982
▁बुख्ल	-14983
▁यौगिक	-14984
▁विखंड	-14985
केन्द्र	-14986
ख़तेयार	-14987
▁क़िबले	-14988
▁फ़रवरी	-14989
▁अन्यत्र	-14990
▁ख़ज़ाने	-14991
▁निवृत्त	-14992
▁पीठासीन	-14993
▁बेटियों	-14994
▁बेहिसाब	-14995
▁वैचारिक	-14996
▁सेनापति	-14997
▁अध्यापकों	-14998
▁कारगुज़ार	-14999
▁कार्यपालक	-15000
▁प्रयत्नों	-15001
▁मुन्तज़िर	-15002
▁याददिहानी	-15003
▁उत्तमकारों	-15004
▁सुप्रसिद्ध	-15005
▁दुर्भाग्यवश	-15006
▁साम्प्रदायिक	-15007
32	-15008
In	-15009
dr	-15010
ण्ठ	-15011
▁hO	-15012
▁फॅ	-15013
ंस्य	-15014
बख्श	-15015
▁सुष	-15016
ारिटी	-15017
▁अराज	-15018
▁झाड़	-15019
▁धागे	-15020
▁पारी	-15021
▁बारा	-15022
▁मकसद	-15023
▁लुत्	-15024
▁समयः	-15025
▁स्वय	-15026
▁अधिरो	-15027
▁अनोखी	-15028
▁कैम्प	-15029
▁खोजना	-15030
▁गुलाब	-15031
▁जड़ों	-15032
▁वालिद	-15033
▁कक्षों	-15034
▁खासतौर	-15035
▁संबधित	-15036
▁क्रीड़ा	-15037
▁परीक्षक	-15038
प्रक्रिया	-15039
▁साइरिलिक	-15040
ंरभ	-15041
गरण	-15042
▁इज	-15043
▁ऐल	-15044
▁घू	-15045
▁लल	-15046
lect	-15047
वेदी	-15048
▁फेल	-15049
▁रहस	-15050
कुमार	-15051
ग्रही	-15052
रक्षक	-15053
रीकरण	-15054
स्टेट	-15055
स्तंभ	-15056
ोत्सव	-15057
▁आवश्	-15058
▁धमनी	-15059
▁बंधे	-15060
▁मोचन	-15061
▁संकर	-15062
▁सामी	-15063
▁सैयद	-15064
▁सोया	-15065
▁color	-15066
▁फूँका	-15067
▁रामान	-15068
▁इजराइल	-15069
▁आत्मकथा	-15070
▁ईर्ष्या	-15071
▁पहुँचना	-15072
▁सेंट्रल	-15073
▁चट्टानों	-15074
▁रहनेवाली	-15075
▁शुक्रवार	-15076
▁समामेलित	-15077
▁कांग्रेसी	-15078
▁वृत्तान्त	-15079
▁प्रतिस्थापन	-15080
▁हिंदुस्तानी	-15081
31	-15082
ॉम	-15083
oll	-15084
सरा	-15085
▁घी	-15086
▁रग	-15087
टलुक	-15088
तानी	-15089
पाती	-15090
मिला	-15091
सवार	-15092
िंगर	-15093
▁कवच	-15094
▁ज़ा	-15095
▁मृद	-15096
हमेशा	-15097
▁आइटम	-15098
▁खाती	-15099
▁गोबर	-15100
▁राशन	-15101
▁साधक	-15102
▁अनवरत	-15103
▁आठवीं	-15104
▁ईस्वी	-15105
▁छुट्ट	-15106
▁दिखती	-15107
▁देशभर	-15108
▁माइकल	-15109
ट्रिक्स	-15110
▁जीवन्त	-15111
▁लाइनों	-15112
▁सीवीएस	-15113
▁सुधारक	-15114
क्रिप्शन	-15115
▁अवरुद्ध	-15116
▁पार्वती	-15117
▁प्रवृति	-15118
▁वॉल्यूम	-15119
▁क्रमबद्ध	-15120
▁प्रमुखों	-15121
▁प्रकाशमान	-15122
▁विशेषताएँ	-15123
▁उम्मीदवारों	-15124
नै	-15125
बम	-15126
डिय	-15127
भरी	-15128
लिफ	-15129
▁छी	-15130
▁२४	-15131
आईबी	-15132
मानव	-15133
मापी	-15134
स्रा	-15135
िटरी	-15136
▁एप्	-15137
▁कटक	-15138
▁खरे	-15139
▁टॉप	-15140
▁दूं	-15141
▁मिर	-15142
▁मैक	-15143
▁युव	-15144
▁हकी	-15145
त्तों	-15146
हत्या	-15147
▁कणों	-15148
▁करूं	-15149
▁घंटी	-15150
▁निशा	-15151
विदेशी	-15152
▁अंशों	-15153
▁उल्टे	-15154
▁धक्का	-15155
▁पत्रक	-15156
▁बेचैन	-15157
▁राहुल	-15158
▁विरूप	-15159
▁वेदना	-15160
▁व्यभि	-15161
▁हज़रत	-15162
मुस्लिम	-15163
स्वार्थ	-15164
▁button	-15165
▁अनाथों	-15166
▁उदात्त	-15167
▁कन्नड़	-15168
▁अवमानना	-15169
▁कोरियाई	-15170
▁पदोन्नति	-15171
▁प्राथमिकताओं	-15172
बक	-15173
रव	-15174
Cal	-15175
ana	-15176
ंभी	-15177
ट्य	-15178
िपल	-15179
▁59	-15180
▁झट	-15181
ance	-15182
▁उके	-15183
▁कवक	-15184
▁घटी	-15185
▁जलन	-15186
▁तूर	-15187
▁नशे	-15188
▁पिल	-15189
▁मदन	-15190
▁हिच	-15191
वृक्ष	-15192
संख्य	-15193
▁1935	-15194
▁ग़ैर	-15195
▁धड़क	-15196
▁पराग	-15197
▁सहने	-15198
▁सिला	-15199
▁इस्ती	-15200
▁जिंदा	-15201
▁तलाशी	-15202
▁तिब्ब	-15203
▁शिमला	-15204
▁साइंस	-15205
वार्षिक	-15206
▁एकाधिक	-15207
▁कप्तान	-15208
▁रियासत	-15209
▁सितारे	-15210
▁महारानी	-15211
▁मौद्रिक	-15212
▁संगमरमर	-15213
▁सिक्कों	-15214
व्यवस्थित	-15215
▁वृद्धावस्था	-15216
▁आयुर्विज्ञान	-15217
-(	-15218
AL	-15219
तट	-15220
सऋ	-15221
ram	-15222
ज्म	-15223
डें	-15224
प्य	-15225
ुली	-15226
▁(7	-15227
जन्म	-15228
मेशन	-15229
▁केक	-15230
▁गूँ	-15231
▁तज़	-15232
▁थें	-15233
▁नमा	-15234
▁पका	-15235
▁फिस	-15236
▁समन	-15237
state	-15238
बन्धु	-15239
▁1939	-15240
▁कड़े	-15241
▁निरु	-15242
▁फायद	-15243
▁बचते	-15244
▁बालू	-15245
मंडलों	-15246
िबंधीय	-15247
▁चुम्ब	-15248
▁जागरण	-15249
▁जातीं	-15250
▁जुनून	-15251
▁ब्लॉग	-15252
▁भाजपा	-15253
▁भावों	-15254
▁सस्ते	-15255
ऑक्साइड	-15256
धारियों	-15257
▁कठोरता	-15258
▁काउंटर	-15259
▁कार्यो	-15260
▁निभाते	-15261
▁प्लांट	-15262
▁सवालों	-15263
▁अनुषंगी	-15264
▁पक्षकार	-15265
▁आकृतियों	-15266
▁क्रोमियम	-15267
▁परिचालित	-15268
▁वरीयताएँ	-15269
▁औजारपट्टी	-15270
▁टेक्नोलॉजी	-15271
▁परिवर्तनीय	-15272
▁स्थानापन्न	-15273
▁अर्थव्यवस्थाओं	-15274
झू	-15275
ोभ	-15276
▁ढे	-15277
▁२३	-15278
कांग	-15279
नाशी	-15280
पाटी	-15281
पीपी	-15282
सारी	-15283
ोज्य	-15284
▁चूह	-15285
मान्त	-15286
मिस्र	-15287
ोनियम	-15288
▁file	-15289
▁आइसल	-15290
▁इमेज	-15291
▁दीपक	-15292
▁नकार	-15293
▁बाबर	-15294
▁लालच	-15295
▁लोहा	-15296
▁शौहर	-15297
मोबाइल	-15298
▁उल्टी	-15299
▁ग़रीब	-15300
▁नापाक	-15301
▁नोट्स	-15302
▁बुर्ज	-15303
▁बेमेल	-15304
▁तुम्ही	-15305
▁पूछेगा	-15306
▁रिचर्ड	-15307
▁सिगरेट	-15308
▁नर्सिंग	-15309
▁यंत्रों	-15310
▁अनुज्ञेय	-15311
▁तस्वीरें	-15312
▁अधिष्ठापित	-15313
37	-15314
मश	-15315
ुख	-15316
▁कफ	-15317
▁मग	-15318
आरएस	-15319
रेखण	-15320
लीला	-15321
वेरी	-15322
्टिक	-15323
▁ग्न	-15324
▁पों	-15325
▁केले	-15326
▁गांठ	-15327
▁गाजा	-15328
▁झुकी	-15329
▁सूफी	-15330
न्द्रह	-15331
▁अधूरा	-15332
▁आरोहण	-15333
▁क्रॉस	-15334
▁चिकनी	-15335
▁दबाने	-15336
▁बन्दी	-15337
▁विजयन	-15338
▁व्यंज	-15339
▁ह्रदय	-15340
▁अनगिनत	-15341
▁रचनाएं	-15342
▁सुशासन	-15343
▁ऑक्सीजन	-15344
▁ऑप्टिकल	-15345
▁कविताएँ	-15346
▁चिंताओं	-15347
▁पुत्रों	-15348
▁स्थानिक	-15349
▁निर्देशन	-15350
▁स्वराज्य	-15351
▁चमत्कारों	-15352
▁प्रोसेसिंग	-15353
▁ब्राह्मणों	-15354
▁राजनीतिज्ञ	-15355
▁सूक्ष्मदर्शी	-15356
".	-15357
per	-15358
नाद	-15359
ालु	-15360
यहूद	-15361
वासन	-15362
ोलिक	-15363
▁50%	-15364
▁अवर	-15365
▁जेट	-15366
▁डाई	-15367
▁तरस	-15368
▁हाय	-15369
italy	-15370
स्पेस	-15371
▁उदास	-15372
▁उलझन	-15373
▁क़ार	-15374
▁परले	-15375
▁पर्स	-15376
▁मुन्	-15377
▁मेधा	-15378
▁वाटर	-15379
उदाहरण	-15380
▁खरीदा	-15381
▁चमकता	-15382
▁दुर्व	-15383
▁बिन्द	-15384
▁भारित	-15385
▁50,000	-15386
▁इनसाफ़	-15387
▁कमियों	-15388
▁गर्दिश	-15389
▁निकालो	-15390
▁मद्देन	-15391
▁मोर्चा	-15392
▁सूरदास	-15393
▁सूर्या	-15394
▁सेकण्ड	-15395
राष्ट्री	-15396
▁क्षुद्र	-15397
▁बुजुर्ग	-15398
▁समयावधि	-15399
▁संग्रहीत	-15400
▁अल्पकालिक	-15401
▁उत्पादकों	-15402
/0	-15403
aj	-15404
आग	-15405
आदम	-15406
डेल	-15407
lock	-15408
विले	-15409
सबको	-15410
▁int	-15411
▁आइस	-15412
▁मरो	-15413
▁रपट	-15414
▁सजग	-15415
-2-2.	-15416
लेकिन	-15417
▁क्रि	-15418
▁खेले	-15419
▁छापा	-15420
▁जलने	-15421
▁तुर्	-15422
▁थोडा	-15423
▁दाँत	-15424
▁धनुष	-15425
▁रूपा	-15426
▁२००५	-15427
कोशिका	-15428
▁उर्जा	-15429
▁चौबीस	-15430
▁ताबीर	-15431
▁पक्षा	-15432
▁पैलेस	-15433
▁पोषित	-15434
▁प्यास	-15435
▁फाइबर	-15436
▁माँगो	-15437
▁माइनस	-15438
▁सोचकर	-15439
▁हाजिर	-15440
▁ज्ञानी	-15441
▁फिलहाल	-15442
▁हालिया	-15443
▁हिब्रू	-15444
फ़रिश्ते	-15445
▁ईश्वरीय	-15446
▁त्रिकोण	-15447
▁ग्राफिक्स	-15448
▁सैद्धांतिक	-15449
प्रौद्योगिकी	-15450
▁प्रतीकात्मक	-15451
▁कार्यप्रणाली	-15452
ऋण	-15453
-16	-15454
ass	-15455
चैन	-15456
टिप	-15457
डोल	-15458
▁५०	-15459
util	-15460
जोड़	-15461
सीआई	-15462
▁(15	-15463
▁जूझ	-15464
▁दुम	-15465
▁बूँ	-15466
▁मिड	-15467
▁हज़	-15468
▁घाना	-15469
▁सोचो	-15470
प्रेशन	-15471
्रीकरण	-15472
▁आलोचक	-15473
▁क्रैश	-15474
▁खिसका	-15475
▁डिबगर	-15476
▁बैठता	-15477
▁महंगा	-15478
▁समरूप	-15479
▁सर्दी	-15480
▁सिक्ख	-15481
▁उपस्कर	-15482
▁कहलाती	-15483
▁बहियों	-15484
▁हरिश्च	-15485
▁निरर्थक	-15486
▁परन्तुक	-15487
▁प्राइवेट	-15488
▁बहुआयामी	-15489
▁संरचनाओं	-15490
▁अत्याधुनिक	-15491
िनो	-15492
▁SM	-15493
▁ठो	-15494
आरआई	-15495
कायक	-15496
गेशन	-15497
पाही	-15498
साधन	-15499
▁छठे	-15500
▁पैग	-15501
▁हाए	-15502
yahoo	-15503
सूचित	-15504
ार्जन	-15505
▁कंटे	-15506
▁क्लो	-15507
▁गोदा	-15508
▁तुलन	-15509
▁पीटर	-15510
▁माथे	-15511
▁मुखर	-15512
▁सूती	-15513
▁काटना	-15514
▁चाहने	-15515
▁चिपका	-15516
▁मकबरे	-15517
▁मुस्त	-15518
▁संपरी	-15519
▁सत्तर	-15520
गुनाहों	-15521
▁डिक्री	-15522
▁तरीक़ा	-15523
▁निबन्ध	-15524
▁बेहतरी	-15525
▁भण्डार	-15526
▁मुट्ठी	-15527
▁रुकावट	-15528
▁सिन्धु	-15529
▁स्तुति	-15530
▁राशियों	-15531
▁आपूर्तिक	-15532
▁उग्रवादी	-15533
▁डेनमार्क	-15534
▁वाल्मीकि	-15535
▁उद्यमशीलता	-15536
▁राष्ट्रवाद	-15537
▁महत्वाकांक्षी	-15538
95	-15539
कण	-15540
नौ	-15541
शर	-15542
ire	-15543
ols	-15544
ymb	-15545
करा	-15546
▁इथ	-15547
क्कन	-15548
यावी	-15549
▁अबु	-15550
▁आहि	-15551
▁उज़	-15552
▁केन	-15553
▁जीभ	-15554
▁पीस	-15555
▁महि	-15556
▁सुग	-15557
-2000	-15558
ब्दिक	-15559
मितीय	-15560
मुख्य	-15561
▁उड़न	-15562
▁क़ान	-15563
▁गाते	-15564
▁चतुर	-15565
▁छेड़	-15566
▁नफ्स	-15567
▁भूरे	-15568
▁शाला	-15569
▁हंसी	-15570
परिवार	-15571
▁घटिया	-15572
▁तोहमत	-15573
▁पंखों	-15574
▁पलटना	-15575
▁मोड़ा	-15576
▁रुग्ण	-15577
▁गुज़ार	-15578
▁उज्ज्वल	-15579
▁पुरूषों	-15580
▁शासनकाल	-15581
▁जानेवाला	-15582
▁तेलंगाना	-15583
▁अस्पतालों	-15584
▁राजकुमारी	-15585
▁स्त्रियां	-15586
▁शांतिनिकेतन	-15587
ud	-15588
शौ	-15589
शाम	-15590
help	-15591
उसपर	-15592
जनरल	-15593
ज़ात	-15594
दीना	-15595
बैठे	-15596
सत्य	-15597
ाधीन	-15598
▁पाव	-15599
▁बदर	-15600
▁मुज	-15601
▁सल्	-15602
शुद्ध	-15603
ॉर्डन	-15604
ोबारी	-15605
▁कॉलम	-15606
▁सादे	-15607
▁हुक्	-15608
द्वारा	-15609
प्रवेश	-15610
▁आफताब	-15611
▁चालें	-15612
▁पत्ती	-15613
▁पराजय	-15614
▁पलायन	-15615
▁पहलें	-15616
▁रूसवा	-15617
▁सिरों	-15618
▁सॉल्व	-15619
▁स्टेड	-15620
▁स्वंय	-15621
▁आपरेशन	-15622
▁उत्तरो	-15623
▁गुर्दे	-15624
▁भेड़ों	-15625
▁मानोगे	-15626
▁अभिवादन	-15627
▁ऋणात्मक	-15628
▁जन्मजात	-15629
▁परिकलित	-15630
▁बकरियों	-15631
▁सिमुलेशन	-15632
▁हाइड्रोजन	-15633
▁विकिपीडियाः	-15634
▁आत्मनिर्भरता	-15635
▁प्रविष्टियों	-15636
▁दिशानिर्देशों	-15637
St	-15638
हस	-15639
चिप	-15640
ञ्च	-15641
शों	-15642
ोपा	-15643
सज़ा	-15644
▁(12	-15645
▁अजब	-15646
▁ऊंच	-15647
▁टाई	-15648
▁डोम	-15649
▁फलन	-15650
▁रूक	-15651
▁रूख	-15652
▁हिट	-15653
तौरैत	-15654
सियों	-15655
हुक्म	-15656
िंग्स	-15657
▁1954	-15658
▁टोपी	-15659
▁तौक़	-15660
▁धुरी	-15661
▁नामए	-15662
▁बोतल	-15663
▁मदयन	-15664
▁सूली	-15665
▁स्नि	-15666
एफसीआई	-15667
कुदरते	-15668
▁एक्से	-15669
▁क़ौमे	-15670
▁तौरैत	-15671
▁दसवीं	-15672
▁नक्शा	-15673
▁बदचलन	-15674
▁ऊर्ध्व	-15675
▁मुनाफा	-15676
▁अँधेरों	-15677
▁इमारतें	-15678
▁क्यक्ति	-15679
▁क्षितिज	-15680
▁चुनिंदा	-15681
▁पहुंचती	-15682
▁पूछेंगे	-15683
▁प्रत्यय	-15684
▁प्रांगण	-15685
▁बख़्शिस	-15686
▁मुख़ाले	-15687
▁शिलालेख	-15688
▁हुज़ूरी	-15689
▁कारीगरों	-15690
▁फ़ॉर्मेट	-15691
▁बरकतवाला	-15692
▁बेजबरुवा	-15693
▁मसख़रापन	-15694
▁मुहताजों	-15695
▁नफ़सियानी	-15696
▁बेरोजगारी	-15697
▁विरोधाभास	-15698
▁फ़रमाबरदार	-15699
▁व्यवस्थाओं	-15700
▁झुठलानेवालों	-15701
▁देवेन्द्रनाथ	-15702
वॉ	-15703
तुल	-15704
थलग	-15705
दीर	-15706
यून	-15707
लीज	-15708
▁नख	-15709
करने	-15710
ताबी	-15711
लिंक	-15712
स्लो	-15713
▁sec	-15714
▁चेन	-15715
▁विभ	-15716
पूंजी	-15717
विद्य	-15718
▁उसमे	-15719
▁कपूर	-15720
▁कान्	-15721
▁फर्ज	-15722
▁बहाव	-15723
▁यकृत	-15724
▁सप्त	-15725
प्रसाद	-15726
▁काटकर	-15727
▁गोपुर	-15728
▁तटस्थ	-15729
▁न्यूज	-15730
▁बढ़ाई	-15731
▁सहेजी	-15732
न्तुष्ट	-15733
न्त्रिक	-15734
▁आयोजना	-15735
▁कीमिया	-15736
▁कुर्ता	-15737
▁गंधर्व	-15738
▁गुच्छे	-15739
▁जुड़ाव	-15740
▁परिचार	-15741
▁विलम्ब	-15742
▁स्कीमा	-15743
▁अन्देशा	-15744
▁करेंगें	-15745
▁दीवारें	-15746
▁मार्क्स	-15747
▁आधुनिकता	-15748
▁इंजीनियरों	-15749
▁हिस्सेदारी	-15750
▁लाभार्थियों	-15751
▁सिद्धान्तों	-15752
सज	-15753
किए	-15754
दरी	-15755
ंबार	-15756
जाना	-15757
बीआई	-15758
▁तें	-15759
▁थाम	-15760
▁दबे	-15761
▁लूप	-15762
▁शेल	-15763
िक्की	-15764
▁आयतन	-15765
▁निता	-15766
▁बचें	-15767
▁बनवा	-15768
▁बहने	-15769
▁बाँस	-15770
▁वैभव	-15771
eeting	-15772
नामकरण	-15773
▁अपवर्	-15774
▁काष्ठ	-15775
▁रवैया	-15776
▁सम्बो	-15777
▁स्टेज	-15778
द्देश्य	-15779
▁अकाउंट	-15780
▁कृतघ्न	-15781
▁प्यारे	-15782
▁मीटिंग	-15783
▁रिश्ता	-15784
▁आरम्भिक	-15785
▁शाहजहाँ	-15786
▁सम्पादन	-15787
▁स्पेक्ट	-15788
▁उत्साहित	-15789
▁धैर्यवान	-15790
▁मतदाताओं	-15791
▁मातृभाषा	-15792
▁कम्पनियों	-15793
▁प्रणालियां	-15794
▁बुद्धिमत्ता	-15795
अभ	-15796
बरू	-15797
शोध	-15798
ंगली	-15799
ल्सन	-15800
▁एला	-15801
▁कपट	-15802
▁तुन	-15803
▁दली	-15804
▁लीन	-15805
▁विड	-15806
ड्यूल	-15807
रियों	-15808
र्भाव	-15809
षिद्ध	-15810
साध्य	-15811
सुकता	-15812
स्कोप	-15813
▁अंगी	-15814
▁घड़ा	-15815
▁यत्न	-15816
▁संतृ	-15817
▁सोते	-15818
ायुक्त	-15819
▁अभिला	-15820
▁कोलंब	-15821
▁खुलकर	-15822
▁गोदाम	-15823
▁तमाशा	-15824
▁भुवने	-15825
▁सावधि	-15826
ानात्मक	-15827
▁अवयवों	-15828
▁क़र्ज़	-15829
▁प्रयाग	-15830
▁बंगलौर	-15831
▁बेहूदा	-15832
▁माउन्ट	-15833
▁शाखाएं	-15834
▁हथकरघा	-15835
▁अनुलग्न	-15836
▁निवेशों	-15837
▁प्रदूषक	-15838
▁रास्तों	-15839
▁फ़ाइलनाम	-15840
▁खिलाड़ियों	-15841
New	-15842
गुआ	-15843
विस	-15844
शाद	-15845
सिल	-15846
▁92	-15847
▁यी	-15848
_02.	-15849
अक्ष	-15850
डीएम	-15851
फ़ोन	-15852
ब्रा	-15853
ोरों	-15854
▁कटि	-15855
▁कोऋ	-15856
▁गधे	-15857
▁दीव	-15858
▁रचा	-15859
▁सान	-15860
▁१९६	-15861
प्लेट	-15862
▁Serv	-15863
▁type	-15864
▁कपिल	-15865
▁घिरे	-15866
▁फरेब	-15867
▁मंडी	-15868
▁मिसल	-15869
▁योगी	-15870
कानूनी	-15871
▁इंजिन	-15872
▁उगाने	-15873
▁डब्लू	-15874
▁देयता	-15875
▁धब्बे	-15876
▁नतीजे	-15877
▁निर्म	-15878
▁बिलों	-15879
▁मनाते	-15880
▁मसाले	-15881
▁माँगी	-15882
▁रूढ़ि	-15883
▁संचयन	-15884
▁सुलूक	-15885
▁कीर्तन	-15886
▁यन्त्र	-15887
▁सड़कें	-15888
▁सुगमता	-15889
▁निपटारा	-15890
▁अधिरोपित	-15891
▁शक्तियाँ	-15892
▁त्रुटियों	-15893
▁सम्मिश्रण	-15894
▁तत्पश्चात्	-15895
▁पूर्वाग्रह	-15896
▁कार्यकारिणी	-15897
6,	-15898
ऑफ	-15899
ack	-15900
ंबन	-15901
अमे	-15902
घाट	-15903
▁88	-15904
▁ko	-15905
▁कॅ	-15906
▁३१	-15907
चर्य	-15908
[...]
