<pad>	0
</s>	0
<unk>	0
¦	-1.30689
▁¦	-1.66981
▁	-3.20937
𐋇	-3.61122
▁,	-3.74705
s	-3.76657
ų	-4.05659
▁.	-4.20102
i	-4.27326
o	-4.39703
ir	-4.65636
ą	-4.72941
as	-5.12714
e	-5.18527
į	-5.29609
os	-5.31983
kad	-5.35503
a	-5.39374
u	-5.54868
p	-5.55516
us	-5.57239
tai	-5.69846
ne	-5.71211
dėl	-5.77402
ai	-5.80424
𐊣	-5.92792
𐊼	-5.92792
su	-5.93209
europo	-5.93359
es	-6.00352
je	-6.03788
to	-6.06852
me	-6.09014
iš	-6.10224
kai	-6.18612
m	-6.19889
yra	-6.23947
y	-6.29524
ę	-6.32326
ti	-6.34979
▁-	-6.35565
k	-6.47739
ta	-6.50686
kuri	-6.51019
čiau	-6.55739
vis	-6.61418
turi	-6.61489
pa	-6.65064
pat	-6.66317
t	-6.70379
▁(	-6.73402
būt	-6.76154
tik	-6.77946
ši	-6.77952
d	-6.79059
už	-6.85974
▁)	-6.89447
ės	-6.9188
ams	-6.93093
ar	-6.94826
n	-6.96248
oje	-6.97649
is	-6.97731
parlament	-6.98851
ais	-7.04364
au	-7.04845
labai	-7.05029
būti	-7.06148
ui	-7.06787
ji	-7.08939
▁"	-7.12249
buvo	-7.13006
savo	-7.13095
per	-7.13912
jų	-7.14
api	-7.16059
pirmininke	-7.16322
mes	-7.19827
mūs	-7.19938
g	-7.20945
omis	-7.22014
z	-7.22313
ė	-7.22639
ių	-7.22738
norė	-7.23394
nes	-7.24054
dar	-7.26826
be	-7.27205
nt	-7.27463
li	-7.28259
gali	-7.30128
ems	-7.31709
pranešim	-7.32038
bet	-7.33781
komisijo	-7.35266
bus	-7.36412
in	-7.37158
ma	-7.41575
l	-7.42654
oms	-7.42949
jau	-7.44504
nuo	-7.45463
te	-7.47361
turėt	-7.47758
j	-7.48993
reikia	-7.49758
aus	-7.49826
jo	-7.50294
šali	-7.50615
ko	-7.51272
tų	-7.53353
nari	-7.53429
šiuo	-7.53819
at	-7.5596
jos	-7.57238
mas	-7.58057
komisija	-7.59737
aš	-7.60057
ja	-7.60792
valstybės	-7.60953
b	-7.61117
c	-7.63007
mi	-7.63105
sąjungo	-7.66214
ant	-7.6685
kur	-7.67217
mano	-7.675
v	-7.6784
kurios	-7.68727
darbo	-7.69143
kurie	-7.69877
svarbu	-7.70761
de	-7.71658
š	-7.7191
ame	-7.73386
prieš	-7.73755
r	-7.74702
▁:	-7.7528
re	-7.75315
metu	-7.76689
mum	-7.7674
na	-7.77113
klausim	-7.77805
ni	-7.79085
mana	-7.79121
daug	-7.79163
vien	-7.79236
uose	-7.79912
kit	-7.79952
ys	-7.80341
pone	-7.81777
man	-7.85128
pasi	-7.85619
pač	-7.85994
susitarim	-7.87019
po	-7.87025
užtikrint	-7.8713
šį	-7.87162
pasiūlym	-7.89499
valstybi	-7.89984
mo	-7.90299
al	-7.92065
teisės	-7.9221
šios	-7.92657
prie	-7.92952
nor	-7.94103
nu	-7.95893
darb	-7.96494
jūs	-7.96844
sprendim	-7.97202
tam	-7.97522
narės	-7.98224
tiksl	-7.98427
dabar	-7.99033
▁?	-7.99545
daugiau	-8.00514
iki	-8.00777
gerb	-8.01294
viena	-8.02418
am	-8.02478
h	-8.0345
šio	-8.04166
f	-8.0429
ž	-8.04613
čia	-8.05425
siekiant	-8.05861
ką	-8.05878
kas	-8.06245
iai	-8.06645
region	-8.06807
nėr	-8.0831
▁.,	-8.0916
rink	-8.10495
ga	-8.10502
nori	-8.11003
kart	-8.1103
ją	-8.1162
mą	-8.11771
politikos	-8.12259
biudžet	-8.13247
visi	-8.13911
padėti	-8.14517
jie	-8.1493
bei	-8.15032
teisi	-8.1575
ose	-8.16241
šiandien	-8.16611
galimyb	-8.16612
pagal	-8.1662
jam	-8.17173
iau	-8.17344
šis	-8.18572
pilieči	-8.19743
klausimu	-8.19801
komitet	-8.2104
tu	-8.21345
sąjunga	-8.2148
jei	-8.22054
ekonomiko	-8.22818
taryba	-8.22996
ra	-8.23005
keli	-8.23078
veiksm	-8.23559
ing	-8.23863
žmog	-8.23909
ri	-8.23912
iu	-8.23916
susijusi	-8.23924
tarybo	-8.25139
inių	-8.25941
do	-8.26711
galima	-8.28172
ties	-8.28427
teis	-8.29714
būtina	-8.29902
pri	-8.29921
nustatyt	-8.30154
mis	-8.30326
▁;	-8.30456
maž	-8.31255
inės	-8.31776
tuo	-8.32062
negali	-8.32531
ent	-8.3322
čių	-8.333
lo	-8.33602
arba	-8.33756
ėme	-8.33786
ųjų	-8.33862
tarp	-8.33874
visiška	-8.33985
gi	-8.34046
srity	-8.34413
sime	-8.34419
gal	-8.35308
pirminink	-8.35406
dali	-8.36431
le	-8.36729
laik	-8.36738
laisv	-8.37263
bendradarbiavim	-8.37313
iuosi	-8.37566
0	-8.37605
pirma	-8.37792
metų	-8.37853
žmoni	-8.37976
tas	-8.37992
projekt	-8.39296
žemė	-8.39668
ap	-8.40657
mu	-8.40658
yti	-8.40955
šalys	-8.41289
energij	-8.41319
dami	-8.41321
-	-8.41362
susi	-8.41659
or	-8.42107
europa	-8.42244
6	-8.43372
pagrindini	-8.44676
priemoni	-8.45258
svarb	-8.45409
dėmes	-8.4624
kr	-8.46517
ūki	-8.46637
moter	-8.46991
kelia	-8.47809
ū	-8.48193
ki	-8.48778
mos	-8.49096
galėt	-8.49132
pasakyti	-8.50226
viet	-8.50588
tyrim	-8.5067
rinkos	-8.51043
esni	-8.51094
raštu	-8.51221
20	-8.5123
tiek	-8.51411
imo	-8.51914
pv	-8.52735
toliau	-8.52771
ume	-8.52888
2	-8.52998
akt	-8.53459
pra	-8.53657
nei	-8.53825
uot	-8.54144
ro	-8.5426
ka	-8.54455
imti	-8.54475
fond	-8.54735
kuriuos	-8.55277
atsižvelgia	-8.55279
vard	-8.55614
balsav	-8.55998
4	-8.56399
igu	-8.57057
du	-8.57093
reikal	-8.5735
ch	-8.5767
svarbi	-8.57913
jog	-8.58009
5	-8.58286
kartu	-8.58385
finans	-8.59071
osios	-8.59164
proc	-8.59471
politik	-8.5958
uoti	-8.59818
la	-8.59853
ūs	-8.60015
sukurt	-8.60245
va	-8.60721
min	-8.61141
prekybo	-8.6158
problema	-8.61626
ve	-8.61749
veik	-8.61893
klimat	-8.62011
proces	-8.62404
ba	-8.62605
iškai	-8.62687
pritari	-8.62691
paslaug	-8.62726
an	-8.62824
pasauli	-8.63168
atsi	-8.63272
param	-8.63922
,	-8.64415
lisabono	-8.64919
atveju	-8.64951
gr	-8.64971
lėš	-8.65183
sistem	-8.65219
pagalb	-8.65985
ži	-8.66403
plan	-8.66464
poni	-8.66547
apsaugos	-8.66638
priimti	-8.66937
ponia	-8.67129
sveikat	-8.67166
žinoma	-8.67447
net	-8.67605
pona	-8.68095
en	-8.68391
tą	-8.68849
balsavim	-8.69176
politika	-8.69203
frakcijos	-8.69562
tikr	-8.69593
jai	-8.69841
šie	-8.69954
reglament	-8.70251
ci	-8.70252
inti	-8.7032
vyriausyb	-8.70911
priemone	-8.7108
šiam	-8.7144
deryb	-8.7171
kita	-8.71778
toki	-8.71995
maist	-8.72063
8	-8.72176
mėn	-8.72197
tokia	-8.72252
ėms	-8.72776
kalb	-8.73641
ms	-8.73927
pirm	-8.74246
ojo	-8.74567
bi	-8.74897
eur	-8.75054
kriz	-8.75706
transport	-8.75846
vida	-8.76105
produkt	-8.77529
atžvilgiu	-8.7793
pateikti	-8.78028
el	-8.78053
padėko	-8.78384
padėt	-8.78504
no	-8.78554
taigi	-8.78896
sutarti	-8.78988
imas	-8.79266
gyventoj	-8.79639
asmen	-8.80174
vartotoj	-8.80262
ištekli	-8.80489
da	-8.80676
pakeitim	-8.81214
mokesči	-8.81358
politini	-8.81392
vaik	-8.81458
įgyvendinti	-8.82333
jum	-8.82887
dideli	-8.82913
mus	-8.82952
dien	-8.83381
darbuotoj	-8.83706
jus	-8.83827
reiškia	-8.84491
par	-8.85323
klausima	-8.85502
tikrų	-8.85526
▁¦200	-8.85734
aiškiai	-8.86098
uoja	-8.86106
diskusijos	-8.86138
inink	-8.86156
gyvenim	-8.86185
▁¦2	-8.86213
turėtum	-8.86362
ėjo	-8.86475
susitikim	-8.86742
tikrai	-8.87008
pasaul	-8.87376
reikė	-8.87442
padaryti	-8.87492
var	-8.87616
ėjim	-8.87715
vadov	-8.87859
labiau	-8.88064
visos	-8.88111
nti	-8.88158
vi	-8.88465
umo	-8.88705
įvairi	-8.88786
ju	-8.89307
tra	-8.89496
saug	-8.89798
kar	-8.89893
ak	-8.89908
pateik	-8.90016
ateit	-8.90017
nuomone	-8.90719
pasiekti	-8.91493
sąlyg	-8.91569
yb	-8.91854
9	-8.91876
dažn	-8.91917
er	-8.92117
dokument	-8.92402
kol	-8.92935
princip	-8.93029
pažang	-8.93185
dama	-8.93235
tinkam	-8.93658
euro	-8.93898
siekiama	-8.93937
informacij	-8.94092
požiūriu	-8.94744
rd	-8.94801
antra	-8.94856
sektoriu	-8.9541
šiuos	-8.95433
iant	-8.95479
fi	-8.95669
naudoja	-8.95785
tvirt	-8.96028
tri	-8.96098
inio	-8.96111
ijos	-8.96609
▁¦20	-8.96794
vo	-8.96833
galiausia	-8.96903
institucijos	-8.96954
1	-8.9713
valstybėm	-8.97312
klausimai	-8.97388
skirt	-8.97475
iausi	-8.97724
saugum	-8.97811
3	-8.97993
rinkim	-8.98229
spręsti	-8.98388
neturi	-8.98494
susiję	-8.98937
pl	-8.98982
pabrėžti	-8.9901
šia	-8.99247
sistemos	-8.99366
bank	-8.99475
laiko	-8.99807
privalom	-9.00553
pradėt	-9.008
/	-9.01037
pirmiausia	-9.01044
socialini	-9.01111
program	-9.01281
kuo	-9.01303
sumažint	-9.01638
valdym	-9.01692
rezultat	-9.01994
oro	-9.02033
esu	-9.02044
konkreči	-9.02103
finansavim	-9.02105
pagrind	-9.02391
imą	-9.02523
rib	-9.02989
priemonės	-9.03118
griežt	-9.03181
ur	-9.0342
džiaug	-9.03725
kuria	-9.03735
diskusij	-9.04122
fr	-9.04314
tar	-9.04358
angi	-9.0471
visa	-9.04821
nariai	-9.04986
krizės	-9.05508
taisykl	-9.05822
aplinkos	-9.06147
avimo	-9.06272
vieš	-9.06406
sak	-9.06512
mokslini	-9.06604
juos	-9.06636
vert	-9.06676
vėl	-9.06986
parengt	-9.0699
oji	-9.07237
ntis	-9.07318
ėja	-9.07685
ger	-9.0785
naudoti	-9.079
leisti	-9.07913
kil	-9.08064
▁¦3	-9.0807
sąjungoje	-9.08119
vaidmen	-9.08192
co	-9.08394
gu	-9.0904
.	-9.09126
ama	-9.1002
aspekt	-9.10069
kain	-9.10122
damas	-9.10171
aiški	-9.1041
problem	-9.1045
įskait	-9.10497
žmonėm	-9.10606
vietos	-9.11201
ragin	-9.11224
sistema	-9.11279
sen	-9.11499
didel	-9.11544
išlaid	-9.11661
skirti	-9.11814
veikti	-9.12007
įstatym	-9.12253
w	-9.12253
pinig	-9.12253
daugeli	-9.1227
dalyk	-9.1243
žmonė	-9.12443
lygmeni	-9.12572
taikyti	-9.12831
suteikt	-9.13015
kiek	-9.13112
įgyvendinim	-9.13243
bendrijo	-9.13405
kurio	-9.13464
energetiko	-9.14049
ver	-9.14192
teism	-9.14497
koki	-9.1462
nepaisant	-9.14655
žin	-9.15037
šalim	-9.15243
kuriuo	-9.15453
nare	-9.1586
rezoliucij	-9.15899
įsipareigojim	-9.16159
mės	-9.1632
joki	-9.1633
ėmi	-9.16879
šal	-9.17227
lyg	-9.17295
prisi	-9.17296
finansini	-9.17378
čio	-9.17448
grup	-9.17645
europ	-9.17717
metai	-9.17718
kalbant	-9.17856
kon	-9.17863
reikalavim	-9.18383
ataskait	-9.1839
avo	-9.18514
vyksta	-9.19052
ekonomin	-9.19139
narėm	-9.19415
vy	-9.19529
č	-9.19575
plėtro	-9.19697
procedūr	-9.19769
sritys	-9.2003
nebuvo	-9.20349
kitos	-9.20462
ge	-9.20491
dal	-9.20634
vertinim	-9.20754
koleg	-9.21108
laikyti	-9.21178
kt	-9.21277
rodo	-9.21312
direktyvos	-9.21375
skatint	-9.21385
tekst	-9.21568
nė	-9.21703
inį	-9.2184
būd	-9.22095
ministr	-9.22231
kelet	-9.22257
bu	-9.22379
veiksming	-9.22415
vidur	-9.22474
lė	-9.22519
ly	-9.22671
daryti	-9.22919
vakar	-9.22952
ilg	-9.2298
augim	-9.23167
auk	-9.23247
kitai	-9.23396
teisė	-9.23566
nam	-9.24144
gerai	-9.24225
aukšt	-9.24239
pastang	-9.2435
aišku	-9.24576
naujų	-9.2489
standart	-9.25011
ku	-9.2502
tarptautini	-9.25244
ekonomini	-9.25276
svarbiausia	-9.25381
teise	-9.25443
pramonė	-9.2549
privalo	-9.25876
gauti	-9.26024
žal	-9.26628
visuomenės	-9.26981
siu	-9.27077
interes	-9.27323
fakt	-9.27364
technologij	-9.27618
▁¦2009	-9.27639
dė	-9.27644
▁".	-9.27716
sien	-9.27929
sąjung	-9.28053
tinkamai	-9.28178
ryt	-9.28186
pranešėja	-9.28208
▁¦1	-9.28363
sriti	-9.28406
veiklos	-9.28819
tarptautin	-9.28839
politin	-9.28855
valdžio	-9.29021
jūr	-9.29028
dvi	-9.29137
lygio	-9.29143
atskir	-9.29229
žino	-9.29362
institucijų	-9.29899
bendrą	-9.3008
dirbti	-9.301
tinkl	-9.30427
veikl	-9.30634
vyr	-9.30694
taut	-9.30721
požiūri	-9.30913
augumo	-9.30996
skurd	-9.31059
ber	-9.3109
ml	-9.31109
užsieni	-9.31142
versl	-9.31162
nčios	-9.31412
kuriai	-9.31701
daly	-9.31938
reform	-9.32385
bendr	-9.32407
jūros	-9.32569
vienod	-9.32619
rasti	-9.32775
it	-9.33009
inę	-9.33162
dialog	-9.33314
investicij	-9.33314
protokol	-9.33314
kuriam	-9.33316
viz	-9.33385
piet	-9.33397
iniciatyv	-9.33465
yn	-9.33473
iais	-9.33479
pranešėj	-9.33543
sąlyga	-9.33863
solidarum	-9.34049
turės	-9.3422
bendro	-9.34364
diskusija	-9.34461
der	-9.34665
papildom	-9.34801
laiv	-9.3495
pastar	-9.35045
toks	-9.35086
narys	-9.35221
nacionalini	-9.35329
ntys	-9.35407
tapt	-9.35534
mat	-9.35736
nčių	-9.35943
pagrindin	-9.36233
pakankama	-9.36287
geriau	-9.36759
kovos	-9.36816
priežiūro	-9.36844
mažiau	-9.37049
pro	-9.37288
lu	-9.37303
poveiki	-9.37307
taikym	-9.3732
žinot	-9.37331
žingsni	-9.3765
strategij	-9.37774
teig	-9.37799
kal	-9.37821
tenka	-9.37846
siekia	-9.37972
dav	-9.37997
suteik	-9.38423
problemų	-9.38519
kel	-9.38619
įtraukti	-9.3863
paprast	-9.38801
baig	-9.39202
prioritet	-9.39284
atitinkam	-9.39318
sudaryt	-9.3942
nd	-9.39676
strategijos	-9.39916
kompromis	-9.40135
leidžia	-9.40197
skaidrum	-9.40325
form	-9.40363
et	-9.40756
šias	-9.40802
paket	-9.40924
internet	-9.40943
direktyv	-9.40983
klaus	-9.41015
sek	-9.41021
iniai	-9.41096
dr	-9.41384
įsi	-9.4171
dauguma	-9.41717
ep	-9.41743
pritaria	-9.41865
inis	-9.4196
teisingum	-9.42288
poveik	-9.42337
skirta	-9.42841
priežasti	-9.42841
valstybe	-9.43076
padarini	-9.43096
pirmininkaujanči	-9.43322
ėti	-9.43341
didesn	-9.43469
nauja	-9.43477
nary	-9.43528
itin	-9.43573
ru	-9.43589
džio	-9.43721
reikalinga	-9.43782
nepa	-9.43943
rezoliucijos	-9.44102
tikim	-9.44123
šiai	-9.44489
šeim	-9.44965
suderint	-9.44974
galimybe	-9.45249
pateikt	-9.45259
šaly	-9.45338
piliečiai	-9.45349
gra	-9.45759
kriterij	-9.45781
rūm	-9.45782
vanden	-9.45784
blog	-9.45799
teikti	-9.45806
stabilum	-9.46124
tokios	-9.46227
eiti	-9.46244
didžiul	-9.46617
abejo	-9.46728
kalbėti	-9.46876
lygi	-9.46996
asis	-9.47005
veikia	-9.4711
vystymo	-9.47133
reik	-9.47428
nuomon	-9.47539
val	-9.4774
jėg	-9.47838
puik	-9.47914
didžiausi	-9.48046
nuolat	-9.4815
naujas	-9.48208
priklauso	-9.48262
kime	-9.48287
eb	-9.48681
atlikti	-9.48752
jas	-9.48798
priežas	-9.48812
pači	-9.48861
ilgalaik	-9.49157
rizik	-9.49158
atkreipti	-9.49273
naud	-9.49424
socialinė	-9.49502
kovo	-9.49599
būsim	-9.49725
teisin	-9.49745
bendra	-9.49919
ten	-9.49943
užimtum	-9.50019
iššūki	-9.50019
klaid	-9.50022
sudaro	-9.50366
pasinaudot	-9.50402
komisij	-9.50511
iška	-9.50703
ieji	-9.50734
atstov	-9.5075
ada	-9.50876
pažeidim	-9.5106
kyla	-9.51173
ymo	-9.51184
dabartin	-9.51391
padidint	-9.5149
imu	-9.5157
taikom	-9.51766
įmanoma	-9.51777
reng	-9.51822
skyr	-9.51854
išsam	-9.5186
uosiu	-9.5201
mok	-9.52024
pozicij	-9.5214
sutart	-9.52145
bo	-9.52283
dėmesi	-9.52371
pakeist	-9.52464
tvarko	-9.52488
sanglaud	-9.52651
naują	-9.52652
reikaling	-9.52703
priemon	-9.52708
link	-9.5275
ter	-9.52808
pus	-9.52905
kontrolė	-9.52922
apsi	-9.52977
go	-9.53223
galim	-9.53255
straipsni	-9.53351
ketina	-9.53593
ln	-9.53614
pritart	-9.54027
siūl	-9.54121
tvar	-9.54284
gero	-9.54333
kultūr	-9.54409
praš	-9.54409
organizacij	-9.5442
smurt	-9.54446
centr	-9.54513
savait	-9.5462
siekti	-9.55368
▁¦2008	-9.55387
kaitos	-9.55418
daro	-9.5543
vidutin	-9.55431
tarptautinės	-9.55484
daugel	-9.55605
nusi	-9.55751
tarnyb	-9.56271
atvir	-9.56278
taikoma	-9.56337
duomen	-9.565
inius	-9.56528
siek	-9.56529
atrodo	-9.56538
esmė	-9.56594
didesni	-9.56662
įmoni	-9.56714
sektori	-9.56758
laika	-9.56957
atsižvelgt	-9.56982
aišk	-9.5718
ekonominė	-9.57394
turiu	-9.57487
remianti	-9.57583
pasiūlyt	-9.57615
dirb	-9.57788
kontrol	-9.57828
mažinim	-9.5814
atvej	-9.58256
apsauga	-9.58395
sprendžia	-9.58461
nesu	-9.58529
santyki	-9.58665
tikslu	-9.58774
remti	-9.58946
prezident	-9.59075
zon	-9.59216
tada	-9.59302
skirting	-9.59419
duot	-9.59687
anti	-9.59742
nčio	-9.59807
jav	-9.59837
teigiam	-9.59937
vartojim	-9.60028
direktyva	-9.6025
pasiek	-9.60294
laukia	-9.60665
▁¦10	-9.60774
susiduria	-9.60989
turėjo	-9.61056
padar	-9.61109
išspręst	-9.61117
veikla	-9.61282
naudinga	-9.61337
sunki	-9.6135
saugos	-9.61406
lig	-9.61456
galėtum	-9.61574
galimybė	-9.61621
ino	-9.61651
apsaugot	-9.61652
br	-9.61766
afriko	-9.6196
matyti	-9.61986
išorė	-9.61994
acij	-9.62
metod	-9.62005
svarstym	-9.62085
skiria	-9.62134
kiti	-9.62144
inimo	-9.62209
tvark	-9.62243
tini	-9.62272
leidim	-9.62275
pokyči	-9.6294
reguliavim	-9.6294
žym	-9.62951
kokia	-9.62964
balsuot	-9.62976
▁),	-9.63214
svarbiausi	-9.63319
priimt	-9.63333
vil	-9.63354
minėt	-9.63565
apsaug	-9.63983
žr	-9.64261
nę	-9.64283
nuomonė	-9.64375
užtikrin	-9.64378
vaist	-9.64382
finansin	-9.64398
bū	-9.64645
struktūr	-9.64677
minti	-9.6481
▁¦2010	-9.6493
greičiau	-9.64931
trūkum	-9.65026
žini	-9.65049
laisvė	-9.65114
duj	-9.65192
daugyb	-9.652
priėm	-9.65257
strategija	-9.65257
ėte	-9.65528
pagrįst	-9.65608
atlik	-9.65675
pasiūlymu	-9.65709
vyko	-9.65775
dešimt	-9.6594
50	-9.66048
mėnesi	-9.66087
žmon	-9.66142
miest	-9.66145
ingai	-9.6636
šv	-9.66474
neturėt	-9.66479
poreiki	-9.66565
tampa	-9.66707
tiesiog	-9.66892
kokybė	-9.66926
rekomendacij	-9.66961
dalyvaut	-9.66961
sąžining	-9.66961
ryši	-9.67018
airijo	-9.67279
sudėting	-9.67302
nį	-9.67315
demokrat	-9.67508
lauk	-9.67513
kūrim	-9.67763
iniciatyva	-9.67778
tinkama	-9.67811
programos	-9.67918
įgyvendin	-9.67979
gyvena	-9.67984
panaikint	-9.68005
padės	-9.68019
paskutin	-9.68037
pagerint	-9.68086
lank	-9.68154
pramon	-9.68252
pasiekta	-9.68333
sektoria	-9.6839
esam	-9.6853
tikslai	-9.68556
anksčia	-9.68566
pateikta	-9.68713
teisini	-9.68921
numatyt	-9.68933
dėkoju	-9.68954
atsaking	-9.69034
atliek	-9.69094
atsakym	-9.69121
pareiga	-9.69132
nelaim	-9.6917
frakcija	-9.69359
eina	-9.69376
veiksminga	-9.69593
auja	-9.69598
siekdam	-9.69712
skaiči	-9.69782
plat	-9.69925
valstyb	-9.69969
tok	-9.70017
švietim	-9.70089
šaltini	-9.701
rūpi	-9.701
sutink	-9.70175
parlamentu	-9.70203
išvad	-9.7023
pavyzdžiu	-9.7029
įtak	-9.70677
norint	-9.70816
žinom	-9.70887
naujo	-9.71128
bent	-9.71249
▁!	-9.71309
vyks	-9.71377
ūkinink	-9.71392
eri	-9.71394
skirtum	-9.71412
ce	-9.7142
suteikia	-9.71526
kiekviena	-9.71583
patirti	-9.71593
teigiama	-9.71676
pritar	-9.71843
nepriklausom	-9.72093
kurti	-9.72135
atsakomyb	-9.72169
priemonėm	-9.72364
naudos	-9.72558
kalba	-9.72561
sprendimu	-9.72595
sunkum	-9.72996
susirūpinim	-9.73312
valstij	-9.73312
būdu	-9.73486
šalimi	-9.73862
informacija	-9.73922
usių	-9.74141
mišk	-9.74319
mirti	-9.74327
išvengt	-9.74411
teritorij	-9.74411
situacij	-9.74411
gera	-9.74413
ekonomika	-9.74499
šiol	-9.74742
finansinė	-9.74878
palaik	-9.74988
pradži	-9.75064
usios	-9.75097
aktu	-9.75145
atitinka	-9.7551
vienintel	-9.75522
▁¦19	-9.75536
prašym	-9.75637
vertin	-9.75669
uojama	-9.75901
vykdyti	-9.75939
aptart	-9.76037
esnės	-9.76066
tokiu	-9.7628
pareig	-9.76539
gamintoj	-9.76646
mechanizm	-9.76646
trečia	-9.76646
įmonės	-9.76705
bals	-9.76754
pagarb	-9.76762
aktyv	-9.76885
žemi	-9.76987
dirba	-9.77023
pajėg	-9.77152
plači	-9.7718
00	-9.77338
parama	-9.77614
atlikt	-9.77625
klausimo	-9.77679
pareiškim	-9.77802
užsi	-9.77893
problemo	-9.78008
jungtin	-9.78149
nuostat	-9.78274
programa	-9.78484
nių	-9.78757
rimt	-9.78967
daugiausia	-9.79008
aukščiausio	-9.79156
kin	-9.7917
demokratijos	-9.79192
priežiūr	-9.79239
suprast	-9.79278
juo	-9.79579
iausia	-9.79953
lieka	-9.80047
rinka	-9.80061
kredit	-9.80094
įgaliojim	-9.80094
automobili	-9.80095
teikiama	-9.80208
visuotin	-9.8023
uojant	-9.80324
taik	-9.80758
priėmim	-9.80913
skatina	-9.80938
nurod	-9.81022
vertinu	-9.81037
konflikt	-9.81271
medžiag	-9.81271
▁¦000	-9.81281
tikėti	-9.81444
vadina	-9.8145
acijos	-9.81776
kiekvien	-9.81866
kok	-9.81933
požiūr	-9.8195
ras	-9.82008
visuomen	-9.82024
tur	-9.82195
reikalauja	-9.82275
kam	-9.82317
humanitarin	-9.82461
infrastruktūr	-9.82461
ateiti	-9.82501
vengrijo	-9.82584
socialin	-9.82698
ton	-9.82887
amos	-9.8296
partneri	-9.83007
kitą	-9.83138
kovot	-9.83197
idėj	-9.8324
iniam	-9.8328
geresn	-9.83417
did	-9.8344
remia	-9.83515
judėjim	-9.83666
rusijo	-9.837
konkurencingum	-9.83847
bendros	-9.84362
ančių	-9.84437
prot	-9.84648
skaičiu	-9.84688
būtin	-9.8476
gav	-9.84782
kaita	-9.84832
integracij	-9.84886
perspektyv	-9.84886
profesin	-9.84886
terorizm	-9.84886
išmetam	-9.84889
ypating	-9.84898
posėdži	-9.84901
dviej	-9.8493
pavyk	-9.84958
sąlygos	-9.85099
sustiprint	-9.85108
įtrauk	-9.85162
pagrįsta	-9.8529
turė	-9.85475
akivaizdu	-9.85897
nusikaltim	-9.8612
nebūt	-9.86133
mažum	-9.86223
sriči	-9.86246
damos	-9.86525
mal	-9.86719
pabrėž	-9.86803
patenkint	-9.86818
tariant	-9.86909
pozicijos	-9.86928
moksl	-9.87155
milijon	-9.8737
apima	-9.87432
atsakomybė	-9.87436
pasveikin	-9.87469
tapo	-9.87637
būda	-9.87642
kan	-9.87664
vyriausybės	-9.87693
derybos	-9.87697
hu	-9.87699
įmonėm	-9.87792
sias	-9.8785
esant	-9.87863
partnerystė	-9.87919
pajam	-9.88147
parodyt	-9.88339
imigracij	-9.88404
nerim	-9.88527
baudžiam	-9.88636
kompetencij	-9.88636
prieglobsčio	-9.88636
turkijo	-9.88637
šiaurė	-9.88638
prancūzijo	-9.88729
taisyklės	-9.88866
palankia	-9.89037
niu	-9.89137
tokio	-9.89219
kalbame	-9.89416
kli	-9.89417
ginč	-9.89918
strategin	-9.89918
audito	-9.89918
neabejotina	-9.89918
ginkl	-9.89919
▁¦14	-9.89964
teisinga	-9.89965
trumpa	-9.90178
tikrą	-9.90226
uost	-9.90271
pt	-9.90447
van	-9.90502
sėkming	-9.90809
ha	-9.9087
ženkl	-9.90881
patvirtinti	-9.90894
vertu	-9.90949
taiko	-9.90958
gyvyb	-9.91237
panaudot	-9.91295
pavojing	-9.91298
pačios	-9.91362
atsakyt	-9.91364
naujos	-9.91441
naudojimo	-9.9152
eli	-9.91722
priimta	-9.9178
ančia	-9.91907
veiksmai	-9.91929
kokyb	-9.92025
puikia	-9.92065
atsak	-9.92099
neseni	-9.92655
laikotarpiu	-9.92711
kalt	-9.92712
gamybo	-9.92769
nacionalin	-9.92803
škum	-9.92852
institucijom	-9.92899
angli	-9.92906
stipr	-9.92972
numatyta	-9.93089
kova	-9.93125
pareng	-9.93141
praeit	-9.93146
priemonė	-9.93294
reikalavimus	-9.93355
jungtini	-9.93359
rė	-9.93491
bendrov	-9.93761
leist	-9.93801
nagrinė	-9.93811
neigiam	-9.93866
pasitikėjim	-9.93866
būtinyb	-9.93946
nl	-9.94056
lt	-9.94359
didži	-9.94433
tema	-9.94457
mažai	-9.94485
jant	-9.94507
aplink	-9.94517
tvirtai	-9.94812
duomeni	-9.94814
plėtra	-9.94818
grėsm	-9.95119
apibrėžt	-9.95217
konferencij	-9.95217
pacient	-9.95217
žuvininkystė	-9.95217
eksport	-9.95218
režim	-9.95228
byl	-9.95242
pasekm	-9.95243
kalbėjo	-9.95264
jt	-9.95304
išsi	-9.95342
tiekim	-9.95433
leis	-9.95489
galiu	-9.95581
lengva	-9.9559
norėt	-9.96052
teising	-9.96078
institucija	-9.96161
mon	-9.9619
siekdama	-9.96549
nar	-9.96602
mokest	-9.96607
visai	-9.96633
nauji	-9.96657
padeda	-9.96734
didelė	-9.96765
efektyvum	-9.97017
jokio	-9.97301
ano	-9.97435
jung	-9.97884
diskriminacij	-9.97976
pusiausvyr	-9.97976
ameriko	-9.97976
graikijo	-9.97977
nieko	-9.97979
jaunim	-9.98015
pabaigo	-9.98044
laikotarpi	-9.98173
reali	-9.98272
mastu	-9.98293
draudim	-9.98407
prisidėt	-9.98423
teisingai	-9.98667
truk	-9.98683
ner	-9.987
nelyg	-9.98708
ekonomik	-9.98718
dabartini	-9.98803
įtraukta	-9.98808
ankstesn	-9.98828
pasak	-9.98871
negalima	-9.98878
vykt	-9.98916
partijo	-9.98973
praėjusi	-9.99009
rimta	-9.9913
žodži	-9.99345
globalizacij	-9.99385
įsitikinę	-9.99532
svarstom	-9.99588
pavoj	-9.99593
nebe	-9.99687
buv	-9.99846
bendrosio	-9.99881
vertinam	-9.99929
galė	-10.0001
naudojant	-10.0015
nenori	-10.0023
15	-10.0025
stipri	-10.0026
pažeidžiam	-10.0032
naikin	-10.0034
galės	-10.0042
atvejai	-10.0051
vykd	-10.0057
prast	-10.0065
pranešimu	-10.0065
posėd	-10.008
import	-10.0081
praktik	-10.0081
teisėkūr	-10.0082
peln	-10.0082
užkirst	-10.0085
tarš	-10.0092
paremti	-10.0101
plėtr	-10.0111
misij	-10.0114
minėjo	-10.0119
raginam	-10.0125
leiski	-10.014
paskelb	-10.0145
ėm	-10.0206
pozicija	-10.0216
bar	-10.0224
mokykl	-10.0226
rytoj	-10.0227
suvok	-10.0228
pien	-10.0229
socialist	-10.0232
gauna	-10.0233
taryb	-10.0234
šeši	-10.0235
vėliau	-10.0242
labiausia	-10.0245
▁).	-10.0252
nuolatin	-10.0253
įgyvendinam	-10.0256
taisykle	-10.0263
tikras	-10.028
nant	-10.0296
prekyba	-10.0303
pasiūl	-10.0329
vykdom	-10.0343
laikin	-10.0346
pastab	-10.036
▁¦2011	-10.0373
aiškinim	-10.0388
pilietin	-10.0388
įsigalio	-10.0388
struktūrini	-10.0411
daugia	-10.0418
panaši	-10.0471
gamyb	-10.0496
kūr	-10.0505
branduolin	-10.0512
štai	-10.0513
skiriama	-10.052
gyvūn	-10.0523
kapital	-10.0523
teisėm	-10.0523
organizacijos	-10.0527
pripažinti	-10.0538
efektyv	-10.0543
neteisėt	-10.055
rank	-10.0551
galėsi	-10.0559
prog	-10.0576
įvyki	-10.0598
suma	-10.0603
tokie	-10.0622
silpn	-10.0674
turinči	-10.0674
greit	-10.0676
keturi	-10.0677
biur	-10.0681
nustat	-10.0691
dalyka	-10.0696
priklausomyb	-10.07
kiekvieno	-10.0708
pasaky	-10.071
darbotvarkė	-10.0723
etap	-10.0725
jom	-10.0742
land	-10.0755
didelį	-10.0758
negu	-10.0762
principu	-10.0773
tės	-10.0782
uoju	-10.0803
besi	-10.0815
barro	-10.0831
ūk	-10.0834
balt	-10.0835
turint	-10.0835
geresni	-10.0836
tv	-10.0847
patiria	-10.085
avimą	-10.0878
atkreip	-10.0893
stiprint	-10.0896
ači	-10.09
geriausia	-10.0926
rom	-10.0929
gruo	-10.0932
svarst	-10.0953
žiūrė	-10.0954
praneš	-10.0982
vokietijo	-10.0982
inovacij	-10.0984
sąraš	-10.0984
grindžiam	-10.0984
rūši	-10.0984
atstovauja	-10.0986
jungtinės	-10.0998
siūloma	-10.1003
našt	-10.1007
grupės	-10.101
kultūro	-10.1012
taikomos	-10.1023
nčiu	-10.1024
parod	-10.1056
pagalba	-10.1067
dej	-10.1068
vald	-10.1087
prekyb	-10.1089
sesij	-10.1101
pakeitimu	-10.113
nieka	-10.1135
tem	-10.1138
gerbiam	-10.1142
atsinaujinanči	-10.1143
pirmininkaujant	-10.1143
dalyvavim	-10.1143
preki	-10.1143
esanči	-10.116
atsakinga	-10.116
bendras	-10.1162
atsižvelgdama	-10.1165
tikiu	-10.1196
tęsti	-10.1199
pamat	-10.1215
patvirtinim	-10.1218
avimas	-10.1233
krikščioni	-10.1242
▁¦12	-10.1247
ausio	-10.1258
bul	-10.1261
sutarty	-10.1276
padidin	-10.1279
keleivi	-10.1304
institucin	-10.1304
prevencij	-10.1304
švedij	-10.1304
užduoti	-10.1305
dž	-10.1306
amžia	-10.1308
paminėti	-10.1316
susijusios	-10.1317
mv	-10.1324
išmok	-10.1329
palaiko	-10.1341
agentūr	-10.1344
vertinti	-10.1379
gen	-10.1412
dalyvauja	-10.1415
galutini	-10.142
procedūra	-10.1435
x	-10.1468
integruot	-10.1468
koordinavim	-10.1468
registr	-10.1468
istorij	-10.1468
migrant	-10.1468
pareigūn	-10.1468
apskrit	-10.1468
pobūdži	-10.1468
aplinkosaug	-10.1471
viening	-10.1477
žuv	-10.148
narė	-10.1485
politinės	-10.1492
liep	-10.1492
analiz	-10.1494
virš	-10.1512
tęs	-10.1513
sėkmingai	-10.1523
▁¦11	-10.1562
aptar	-10.1601
kaimyn	-10.1621
ėjusi	-10.1625
sunku	-10.1634
omeny	-10.1635
spaudim	-10.1635
geležinkeli	-10.1635
konkret	-10.1635
pensij	-10.1635
punkt	-10.1635
referendum	-10.1635
keičia	-10.1635
nedels	-10.1635
pripažįsta	-10.1635
bendradarbiaut	-10.1637
kieki	-10.1638
aug	-10.1647
vidu	-10.1653
italijo	-10.1654
trij	-10.1667
zonos	-10.1681
ribot	-10.1684
suteikta	-10.1692
pagrindinė	-10.1706
romų	-10.1716
ding	-10.1716
laiku	-10.173
stabil	-10.1734
sakant	-10.1743
galvot	-10.1748
gyven	-10.1751
palanki	-10.1754
pripažin	-10.1776
įvertint	-10.1794
sveikin	-10.1798
vaidm	-10.1802
penki	-10.1804
skirstym	-10.1805
atitikt	-10.1808
drąs	-10.181
padaryta	-10.1811
uždavin	-10.1811
išreikšt	-10.1817
galėjo	-10.182
aplinkybėm	-10.1826
prieinam	-10.1826
migracij	-10.1836
pastat	-10.1856
toli	-10.1859
kinijo	-10.1874
valstybė	-10.188
bendruomen	-10.1889
nr	-10.1901
interesus	-10.1902
bendrai	-10.1903
konvencij	-10.1905
tikra	-10.1924
sulauk	-10.1928
pagrindu	-10.1944
sprendimai	-10.1956
įsitikin	-10.1959
demokratini	-10.196
oficial	-10.1969
gebėjim	-10.1977
birželio	-10.1977
pabėgėli	-10.1977
policij	-10.1977
šengen	-10.1977
organizuo	-10.1977
autori	-10.1977
reikalaut	-10.1982
operacij	-10.1983
derin	-10.1984
bandym	-10.1984
užtikrinant	-10.1989
esama	-10.2001
tolesni	-10.2013
tyv	-10.2014
dėti	-10.2026
mane	-10.2081
socialine	-10.2085
speciali	-10.2095
nčią	-10.2107
gerint	-10.2143
elektro	-10.2145
reaguot	-10.2152
europieči	-10.2152
atsarg	-10.2152
kosov	-10.2153
rusija	-10.2153
▁¦13	-10.2156
gamini	-10.2156
įgyvendinant	-10.2162
vad	-10.2167
stebi	-10.2169
niekad	-10.2179
teikim	-10.2184
kelianči	-10.2194
vykusi	-10.2202
juod	-10.2205
lg	-10.2209
išlaikyti	-10.2214
savi	-10.2215
rat	-10.2226
pasiekt	-10.2235
teikia	-10.224
skubi	-10.2245
lin	-10.2268
čius	-10.2269
izraeli	-10.2331
atidžia	-10.2331
plojimai	-10.2331
tūkstanči	-10.2331
laikom	-10.2331
tarpusav	-10.2331
įstaig	-10.2331
rezoliucija	-10.2332
mokymo	-10.2332
vasar	-10.2333
organ	-10.2333
kilmės	-10.2334
siūlom	-10.2335
termin	-10.2335
tarpvalstybin	-10.2335
panaikinim	-10.2337
principai	-10.2343
nacionalinės	-10.2344
tuomet	-10.2345
kritik	-10.2349
patikim	-10.2362
rug	-10.2369
mokėt	-10.2377
žem	-10.2386
dienos	-10.2398
didėja	-10.24
nama	-10.2415
forma	-10.2428
and	-10.244
bendrovė	-10.2449
umu	-10.2477
klas	-10.2486
žvejybo	-10.2494
vykdym	-10.2503
žod	-10.2505
laimė	-10.2511
element	-10.2513
reikšming	-10.2513
sankcij	-10.2513
plėtoti	-10.2513
manymu	-10.2513
dvej	-10.2519
greita	-10.252
garantij	-10.253
lyči	-10.2539
ll	-10.26
ystės	-10.2645
pastanga	-10.2661
nurodyt	-10.2684
primin	-10.2694
administracin	-10.2698
delegacij	-10.2698
trečių	-10.2698
komisar	-10.2698
paaiškint	-10.2699
įtvirtint	-10.2699
lab	-10.2705
pareikšt	-10.2706
kreip	-10.2729
pabrėžiama	-10.2734
▁.)	-10.2765
laikomas	-10.2768
antr	-10.2798
pasaulini	-10.2805
tarptautiniu	-10.2806
naudojimą	-10.2823
nauding	-10.2825
atlieka	-10.2836
gamt	-10.2836
likti	-10.2843
pavyzdži	-10.2852
site	-10.2863
pavyzdy	-10.2865
daugeliu	-10.2872
sunk	-10.2872
tiesiogin	-10.2879
nacionaliniu	-10.2886
įsipareigo	-10.2886
gynyb	-10.2886
é	-10.2886
nepriimtina	-10.2886
kvot	-10.2889
tariam	-10.2891
artim	-10.2898
atvyk	-10.2902
srit	-10.2904
sustabdyt	-10.2925
keisti	-10.2927
mokėjim	-10.2928
rezultatai	-10.2945
patvirtino	-10.2949
stebėti	-10.2972
nutrauk	-10.2973
dalimi	-10.2976
ginti	-10.2983
gerą	-10.2993
orum	-10.3007
▁¦25	-10.3039
atsisakyt	-10.3049
nusprend	-10.3051
pamiršt	-10.3059
modeli	-10.3079
tebė	-10.3081
nauju	-10.3083
pradeda	-10.3084
tėv	-10.3091
fer	-10.3102
įmon	-10.3106
buvusi	-10.312
rengiant	-10.3125
den	-10.3126
visuomene	-10.3127
atliekam	-10.3128
vykdoma	-10.3129
didžiausia	-10.314
įrod	-10.3155
baigdama	-10.3155
lygiu	-10.3162
ker	-10.3181
sutinka	-10.3191
pirmoj	-10.3202
baigti	-10.3209
ruoš	-10.3216
priek	-10.3228
sėkmė	-10.3236
geriausi	-10.3242
iešk	-10.3259
ėmės	-10.3269
kopenhago	-10.3275
á	-10.3275
malonu	-10.3275
valiut	-10.3275
pil	-10.3277
sutarim	-10.3277
vykdant	-10.3282
supranta	-10.3293
kalbam	-10.3304
skubiai	-10.3317
nukreipt	-10.3342
abi	-10.3344
aktai	-10.3344
patvirtint	-10.3346
kalbos	-10.3357
band	-10.3361
pasiraš	-10.3404
suprant	-10.3407
darbuotojai	-10.3409
inami	-10.3419
pavoju	-10.344
pasiūlymai	-10.3446
didint	-10.3455
sąnaud	-10.346
bendrų	-10.346
nuostata	-10.3461
rumunijo	-10.3475
pageidau	-10.3475
ryžting	-10.3475
statyb	-10.3475
lankstum	-10.3475
religij	-10.3475
stojim	-10.3475
pašalint	-10.3477
veiksni	-10.3479
tikrov	-10.3481
elektronin	-10.3483
sąskait	-10.3483
regionini	-10.3484
palikt	-10.3489
muit	-10.3495
kokios	-10.3503
sėkm	-10.3516
teisinės	-10.3518
straipsn	-10.3518
atstovai	-10.352
gana	-10.3547
pažanga	-10.3555
frakcij	-10.356
skatinim	-10.3614
verčia	-10.3619
konkurencijo	-10.3621
main	-10.3653
sudėtinga	-10.3656
ryš	-10.3676
aljans	-10.3679
kandidat	-10.3679
smulk	-10.3679
erdvė	-10.368
apribojim	-10.368
sutarči	-10.368
teršal	-10.3681
karin	-10.3686
taikant	-10.3692
tiesiogi	-10.37
surengt	-10.3701
esmini	-10.3706
nepakanka	-10.3713
kelion	-10.3735
įvykdym	-10.3736
matome	-10.3748
pareiškimai	-10.3761
kov	-10.3766
del	-10.3781
demokratin	-10.3783
demokratija	-10.3793
paprašyt	-10.3804
darbotvark	-10.3829
partija	-10.385
kliū	-10.3852
konstitucij	-10.3887
potencial	-10.3887
rodikl	-10.3887
kroatij	-10.3887
prieštarauja	-10.3887
apsvarstyt	-10.3889
duomenys	-10.3898
teikiam	-10.3899
apimt	-10.3899
krize	-10.3908
regioninės	-10.3912
nutraukt	-10.3918
paklaus	-10.3924
lygin	-10.3931
metin	-10.396
leido	-10.3969
konvencijos	-10.3975
status	-10.3991
gaut	-10.4008
technini	-10.4036
nepamirš	-10.4061
kėl	-10.4068
kultūrin	-10.4071
nuostatos	-10.4072
skyrim	-10.4079
paprasčiausia	-10.41
respubliko	-10.41
savanorišk	-10.41
istorin	-10.41
elges	-10.41
praktin	-10.4101
susitart	-10.4102
kryp	-10.4105
informuoti	-10.4111
turizm	-10.4111
kasdien	-10.4116
atskirti	-10.4119
pavyzd	-10.4122
pajėgum	-10.4124
neturėtum	-10.4125
remiam	-10.4151
nuosekli	-10.4175
agentūros	-10.4182
partij	-10.4206
peržiūr	-10.4208
dėk	-10.4274
kolego	-10.4277
aktyvia	-10.4293
ankst	-10.4294
dedam	-10.4303
vesti	-10.4307
konstruktyv	-10.4317
kvalifikacij	-10.4317
balkan	-10.4317
biologin	-10.4317
chartij	-10.4317
ispanijo	-10.4317
plenarin	-10.4317
vaizd	-10.4318
draug	-10.4319
kovojant	-10.4319
vietov	-10.4319
lemia	-10.4322
iškelt	-10.4322
sukuria	-10.4323
kalbėtoj	-10.4324
dvišali	-10.4335
socialinę	-10.4348
užbaigt	-10.4349
žodžiu	-10.4369
baigia	-10.4425
avusi	-10.4441
pakeitimai	-10.4449
visišk	-10.4453
idėja	-10.4453
veiksmingum	-10.4457
paskatin	-10.4478
vertė	-10.4485
apgailestauj	-10.4488
trump	-10.4494
vaikai	-10.4501
inter	-10.4519
visapusišk	-10.4535
baltarusijo	-10.454
portugalijo	-10.454
akivaizdžiai	-10.454
komercin	-10.454
dėsty	-10.454
sport	-10.454
sukelt	-10.4545
pranešėju	-10.4546
likusi	-10.4552
praša	-10.4567
ppe	-10.4569
teikiant	-10.457
radi	-10.4577
balan	-10.4582
ketinim	-10.4592
bž	-10.4595
sutartimi	-10.4604
stiprina	-10.4614
gail	-10.4622
veikim	-10.4629
vartotojai	-10.4658
tgi	-10.466
pasakė	-10.4669
ingum	-10.4675
žengt	-10.469
lygybė	-10.47
rengiam	-10.47
užtikrinim	-10.4714
pasaulinė	-10.4721
atsižvelg	-10.4752
smerk	-10.4766
laipsn	-10.4767
alternatyv	-10.4767
energetin	-10.4767
sandori	-10.4767
terorist	-10.4767
žiniasklaido	-10.4767
palengvin	-10.4767
glaudžia	-10.4767
liaudi	-10.477
abiej	-10.477
tinka	-10.4773
priima	-10.4786
grįžt	-10.4787
tęsia	-10.4801
prioritetu	-10.4807
reikalaujama	-10.4807
kliūti	-10.4809
netruk	-10.4821
nepavyk	-10.4843
menk	-10.4867
gina	-10.4872
prival	-10.4879
papraš	-10.4892
patvirtinta	-10.4906
išim	-10.4932
standartai	-10.4956
kolega	-10.4978
produktai	-10.4989
išpuoli	-10.4999
kampanij	-10.4999
lenkijo	-10.4999
uždraust	-10.4999
bulgarijo	-10.4999
pakistan	-10.4999
▁¦2013	-10.4999
turkija	-10.4999
pasirengę	-10.4999
nafto	-10.5
perkėlim	-10.5
kinija	-10.5
supaprastint	-10.5
prisideda	-10.5003
abipusi	-10.5004
pirmąj	-10.5006
mokėtoj	-10.5007
stengti	-10.5013
visuomenė	-10.5016
pasirinkim	-10.5018
nustatom	-10.5019
žvejyb	-10.5025
poreik	-10.5032
vyn	-10.5042
baz	-10.5048
mažint	-10.5063
mokyti	-10.5066
padidėj	-10.5066
prašom	-10.5079
ženg	-10.5079
pačiu	-10.5099
vietoj	-10.513
bendrąj	-10.5148
veiksmingesn	-10.5152
pateikiam	-10.5169
sutelkt	-10.5169
parodė	-10.5179
naujoj	-10.5191
nurodyta	-10.5198
aplinkyb	-10.521
skiriam	-10.5237
ekologin	-10.5237
ukraino	-10.5237
ateinanči	-10.5237
briusel	-10.5237
precedent	-10.5237
lapkri	-10.5238
žvej	-10.5239
religin	-10.524
turting	-10.524
didina	-10.5252
aplinka	-10.5268
sukėl	-10.5274
suprantama	-10.5299
numat	-10.5299
įvykdyt	-10.5314
vertę	-10.5315
karalystė	-10.5318
lėt	-10.5329
patvirtina	-10.5357
susidar	-10.5364
dirbanči	-10.5377
išaug	-10.5423
skaidr	-10.5424
komunikat	-10.5481
diplomat	-10.5481
ombudsmen	-10.5481
sukčiavim	-10.5481
geguž	-10.5481
pažad	-10.5481
atnaujint	-10.5481
minimal	-10.5481
susipažin	-10.5482
reiškin	-10.5482
vežim	-10.5482
prievart	-10.5484
perdavim	-10.5484
palygint	-10.5484
galvoj	-10.5487
dalyvi	-10.5487
▁¦18	-10.5489
užmoj	-10.5496
saugoti	-10.5503
priimant	-10.5504
sakyti	-10.5516
nuoširdžia	-10.5516
sparčia	-10.5527
sukūrim	-10.5549
reforma	-10.5569
išsaugot	-10.5575
linij	-10.5577
duoda	-10.5586
pradžio	-10.5589
trūk	-10.56
abejonė	-10.5602
palaikyt	-10.5607
bendruomenė	-10.5607
bausm	-10.564
imai	-10.5648
pasisak	-10.565
europin	-10.5661
kreipti	-10.5666
angl	-10.5668
privat	-10.5675
avimu	-10.5676
sieja	-10.5692
galioja	-10.5697
gyvent	-10.5706
santykiai	-10.5719
priversti	-10.5731
reiting	-10.5731
dvigub	-10.5731
kenčia	-10.5731
egipt	-10.5732
paskol	-10.5734
prisitaikym	-10.5735
prasme	-10.5736
vertybi	-10.5741
nustatant	-10.5745
prieig	-10.5762
daroma	-10.5787
abejon	-10.5829
partner	-10.5857
įvykiai	-10.5859
konkurencij	-10.586
pradin	-10.5906
civili	-10.5915
didinim	-10.5929
valdyt	-10.593
pirmininkavim	-10.594
paskelbt	-10.5971
konsultacij	-10.5988
savarankišk	-10.5988
▁¦2012	-10.5988
atlyginim	-10.5988
nepaprastai	-10.5988
tvarkyti	-10.5993
kryptimi	-10.6
pritaikyt	-10.6001
pavaduotoja	-10.6009
galiojanči	-10.6029
moterim	-10.603
leidžiama	-10.6048
praėjus	-10.606
panaš	-10.6083
agentūra	-10.6086
try	-10.6097
"	-10.6108
priešinga	-10.6137
prasidėj	-10.616
aspektu	-10.6177
žinia	-10.6187
konkurencija	-10.6191
kartai	-10.6194
žodžiai	-10.6205
kažk	-10.6215
kokiu	-10.6215
nuspręst	-10.625
glaud	-10.625
kadencij	-10.6251
afganistan	-10.6251
gelbė	-10.6251
prancūzija	-10.6251
dešimtmeči	-10.6251
bendradarbiauja	-10.6252
trūksta	-10.6252
erdv	-10.6253
mėgin	-10.6253
artimiausi	-10.6254
nagrinėjam	-10.6258
mokam	-10.6264
derėt	-10.6282
džiu	-10.6284
pusės	-10.6288
ienos	-10.6322
demokratij	-10.6328
paminė	-10.6333
sakoma	-10.6353
finansuot	-10.6355
eism	-10.6358
traukia	-10.6365
pristat	-10.6442
pateikiama	-10.6447
laikotarp	-10.6459
skatinama	-10.6462
elgia	-10.6474
svarstyt	-10.6493
spręs	-10.6502
argument	-10.6521
sugebėjo	-10.6521
britanij	-10.6521
pradėjo	-10.6521
išgirst	-10.6521
išplėst	-10.6521
plėtoj	-10.6521
žlug	-10.6521
atsirad	-10.6522
▁¦40	-10.6527
persvarstyt	-10.6529
dabartinės	-10.6553
išlik	-10.657
žingsn	-10.6578
sudarym	-10.6589
galutin	-10.6601
baigta	-10.6671
veikianči	-10.6717
atkurt	-10.6751
vertybėm	-10.6759
sudėt	-10.6769
atsisak	-10.6792
strasbūr	-10.6799
katastrof	-10.6799
knyg	-10.6799
pažymėti	-10.6799
q	-10.6799
susidūr	-10.6799
nuosavybė	-10.6799
nelegali	-10.6799
aviacijo	-10.68
patobulint	-10.68
sraut	-10.6801
išnagrinėt	-10.6803
tikriausia	-10.6805
atkūrim	-10.6814
suderinim	-10.6816
perduot	-10.6827
įvairovė	-10.683
spal	-10.6837
balsuoj	-10.6899
valstybnar	-10.6922
krit	-10.6928
lygmen	-10.6932
saugumu	-10.6935
panaudojim	-10.6938
gimt	-10.6941
įsipareigojimu	-10.6954
tvarum	-10.6967
imtų	-10.6975
tobulin	-10.6998
siųst	-10.7002
tolesn	-10.7036
krypti	-10.7068
investuot	-10.708
▁¦199	-10.7083
diegt	-10.7085
liberalizavim	-10.7085
spekuli	-10.7085
student	-10.7085
grąžint	-10.7085
pasirengusi	-10.7085
pakartoti	-10.7085
supaprastinim	-10.7085
įsteigt	-10.7085
gerovė	-10.7085
sąvok	-10.7085
numatoma	-10.7085
moderni	-10.7086
renka	-10.7086
minėja	-10.7095
perkelt	-10.71
pripažinim	-10.7103
patirt	-10.7108
kaimynystė	-10.7109
stengia	-10.7111
azijo	-10.7111
pabrėžia	-10.712
rašt	-10.7134
paskatint	-10.7136
peržiūrėt	-10.7136
turt	-10.7138
uždaryt	-10.7148
gan	-10.7158
veda	-10.7174
palaikym	-10.7177
post	-10.7179
poreikiu	-10.7228
blok	-10.7252
kategorij	-10.7262
atmet	-10.7263
didžioj	-10.7264
sprendžiam	-10.7322
stebėjim	-10.7322
konkurencing	-10.7374
ambicing	-10.7379
geografin	-10.7379
peticij	-10.7379
teritorin	-10.7379
krovini	-10.7379
spaudo	-10.7379
girdėj	-10.7379
prekė	-10.7379
ruož	-10.7379
judum	-10.738
įrodym	-10.7382
kontekst	-10.7384
apribot	-10.7384
valand	-10.7384
minut	-10.7387
patikrinim	-10.739
▁¦2005	-10.7391
branduolinės	-10.7399
procent	-10.7401
išrinkt	-10.7415
diskutuoti	-10.7428
akivaizd	-10.7433
patikimum	-10.7436
patyr	-10.7523
paklaust	-10.7561
naryst	-10.7636
reikšt	-10.7647
įgūdži	-10.7682
konstitucin	-10.7682
reakcij	-10.7682
trečiosiom	-10.7682
vairuotoj	-10.7682
atostog	-10.7682
generalin	-10.7682
stebėsen	-10.7682
asociacij	-10.7682
pridėtin	-10.7682
pagamint	-10.7682
vadovaujant	-10.7682
kūryb	-10.7685
pirkim	-10.7689
paragint	-10.7691
išankstin	-10.7694
aptariam	-10.7694
▁¦16	-10.7694
rinkėj	-10.77
sumažėj	-10.77
demokratinės	-10.7704
grėsmė	-10.7709
stiprinim	-10.7723
umėt	-10.7731
antroj	-10.7734
▁¦100	-10.7767
nelygyb	-10.7776
verting	-10.7823
santykiu	-10.7832
bausmė	-10.7845
ketin	-10.7908
steng	-10.7949
įvairov	-10.7961
rezultatu	-10.7961
demokratišk	-10.7969
pasitelk	-10.7994
tendencij	-10.7994
egzistuoja	-10.7994
frontex	-10.7994
intensyv	-10.7994
makedonij	-10.7994
reklam	-10.7994
subsidiarum	-10.7994
žaliav	-10.7994
ekspert	-10.7994
skund	-10.7994
elgti	-10.7995
ankstyv	-10.7995
lyderi	-10.7995
valdžia	-10.7995
nusipeln	-10.7996
gėd	-10.8011
raginim	-10.8018
išskirtin	-10.802
metr	-10.8023
pastaba	-10.8024
skaičiau	-10.803
mažiausia	-10.8031
lengviau	-10.8061
kong	-10.8069
susiet	-10.8078
leid	-10.8078
brang	-10.8079
technin	-10.8089
palik	-10.8098
pasirašyt	-10.8109
tvarkym	-10.8115
pareišk	-10.8155
planuot	-10.8171
efektyvia	-10.8172
savai	-10.8179
vykstanči	-10.8186
platesn	-10.8187
papild	-10.8193
gyv	-10.8215
stre	-10.8218
pasirod	-10.8237
sudary	-10.8252
grįž	-10.8288
visuome	-10.8307
efekt	-10.8317
gruzijo	-10.8317
čekijo	-10.8317
paveld	-10.8317
subsidij	-10.8317
administravim	-10.8317
lūkesči	-10.8317
serbijo	-10.8317
vystymą	-10.8317
▁...	-10.8317
smark	-10.8317
įspūd	-10.8317
pasikeit	-10.8317
skaityt	-10.8317
pasirinkti	-10.8317
raštišk	-10.8318
japonijo	-10.8318
apibūdin	-10.8318
patekt	-10.8318
baud	-10.8321
diskutuojam	-10.8321
naujovi	-10.8322
žemyn	-10.8322
kontroliuot	-10.8323
visapusiška	-10.8324
naujosios	-10.8325
etnin	-10.8325
prisiimti	-10.8327
žodini	-10.8331
abiem	-10.8332
naujausi	-10.8334
kūn	-10.8347
dviem	-10.8356
kreipia	-10.8383
nustatym	-10.8386
padaryt	-10.8498
didesnė	-10.8513
partneryst	-10.8522
teigia	-10.8535
kylanči	-10.8541
▁¦21	-10.8558
deklaracij	-10.865
subjekt	-10.865
asignavim	-10.865
besivystančios	-10.865
išsivysčiusi	-10.865
pranašum	-10.865
primygtin	-10.865
rumunija	-10.865
skaitmenin	-10.865
specifin	-10.865
narkotik	-10.865
įrang	-10.865
siunčia	-10.865
įgaliotin	-10.865
komand	-10.8651
vertybe	-10.8651
vokietij	-10.8654
viešojo	-10.866
informuo	-10.8665
vizij	-10.8672
rengia	-10.8744
buvim	-10.876
ratifikavim	-10.8763
gerinim	-10.8807
turėdam	-10.8824
atėj	-10.8848
pastaruo	-10.8879
italij	-10.8955
nuveikt	-10.8962
pakenk	-10.8979
reglamentavim	-10.898
bendradarbia	-10.8991
žvelgt	-10.8993
penkeri	-10.8995
besivystančiom	-10.8995
kortel	-10.8995
korupcij	-10.8995
septyni	-10.8995
signal	-10.8995
kodeks	-10.8995
rekomenduo	-10.8995
sugebės	-10.8995
šiltnami	-10.8995
imtasi	-10.8995
praktiška	-10.8995
taupyt	-10.8995
prisijungt	-10.8995
tvirtina	-10.8996
verslinink	-10.9002
gars	-10.9011
bandom	-10.902
trej	-10.902
protest	-10.9024
indėli	-10.9055
mėnesiu	-10.9095
vykdyt	-10.9114
balsuosi	-10.9199
įvair	-10.92
finansuojam	-10.9205
gyvenanči	-10.9213
tikrinim	-10.9245
žiūri	-10.9266
diskutuo	-10.9288
pakankam	-10.9292
likim	-10.9293
bendrij	-10.931
garb	-10.9326
centrini	-10.9333
naudojimu	-10.9337
operatori	-10.9352
asamblėj	-10.9352
kolektyvin	-10.9352
prognoz	-10.9352
ratifikuot	-10.9352
simboli	-10.9352
technologin	-10.9352
tradicij	-10.9352
tradicin	-10.9352
žurnalist	-10.9352
prisidėjo	-10.9352
vadovauti	-10.9352
susisiekim	-10.9352
vyksianči	-10.9353
dėkinga	-10.9353
dugn	-10.9353
įtrauktos	-10.9354
užtikrinama	-10.936
netek	-10.9367
asmenim	-10.9381
sudan	-10.9385
įvest	-10.9409
naikinim	-10.9467
judėt	-10.9542
kipr	-10.9598
motinyst	-10.9601
pasiekim	-10.9648
kubo	-10.9718
mobili	-10.9723
tūkstant	-10.9723
pirmenyb	-10.9723
atsiranda	-10.9723
dalyvavo	-10.9723
funkcij	-10.9723
potvyni	-10.9723
remdamasi	-10.9723
rūpest	-10.9723
subalansuot	-10.9723
universitet	-10.9723
seksualin	-10.9723
įvedim	-10.9723
pridur	-10.9723
artėja	-10.9723
informavim	-10.9723
nuostoli	-10.9723
formul	-10.9723
kalbėdam	-10.9724
fizin	-10.9741
serga	-10.9743
nuorod	-10.9747
valdom	-10.9751
patvirtin	-10.9756
ženklinim	-10.982
trukmė	-10.9823
skelbia	-10.9827
pristatyt	-10.9833
supratim	-10.9849
būst	-10.9853
islam	-10.9911
taisyklėm	-11.0014
aukščiausi	-11.0031
ngl	-11.0037
rodyt	-11.0044
milijard	-11.0107
milžinišk	-11.0107
brazilij	-11.0107
deficit	-11.0107
kompetenting	-11.0107
nyderland	-11.0107
reguliuot	-11.0107
lietuv	-11.0107
pavadinim	-11.0107
civilinės	-11.0107
taupym	-11.0107
žaisl	-11.0107
paverst	-11.0108
tarif	-11.0108
patikrint	-11.0109
pasieni	-11.0109
▁¦0,	-11.0112
įgyt	-11.0123
oficialia	-11.0123
įprasta	-11.013
gavėj	-11.0142
gazo	-11.0147
teikėj	-11.0182
matom	-11.0183
specialist	-11.0189
išsakyt	-11.0193
rengt	-11.0206
pasku	-11.0217
sakė	-11.027
kokybišk	-11.0296
pereit	-11.0314
kasmet	-11.0321
atsižvelgdam	-11.0321
list	-11.0394
arab	-11.0399
padarė	-11.0457
kalini	-11.0472
objekt	-11.0507
skrydži	-11.0507
dioksid	-11.0507
moldov	-11.0507
paspartint	-11.0507
statistik	-11.0507
valdysen	-11.0507
ö	-11.0507
apmokestinim	-11.0507
london	-11.0507
padėči	-11.0507
išmetim	-11.0508
dešimtmet	-11.0508
vengrija	-11.0508
bėg	-11.0508
mikro	-11.0509
ištaisyt	-11.0509
pašar	-11.0509
pardavim	-11.0509
investuotoj	-11.0514
ignoruo	-11.0518
atidėt	-11.0525
sprag	-11.0548
garantuot	-11.0573
nusikalstamum	-11.0579
kitom	-11.0589
tobulinim	-11.0647
papildyt	-11.0658
pašt	-11.0779
)	-11.0787
veikėj	-11.0863
ekologišk	-11.0924
grąžinim	-11.0924
lenkija	-11.0924
neišvengiama	-11.0924
reguliuoja	-11.0924
savinink	-11.0924
tragedij	-11.0924
stebėtoj	-11.0924
belgijo	-11.0924
žvalg	-11.0924
puoselė	-11.0924
pereinam	-11.0925
radikal	-11.0926
airija	-11.0928
avarij	-11.0929
ekosistem	-11.0933
gresia	-11.0952
savaim	-11.1022
tikslia	-11.1119
planuojam	-11.1158
dvasi	-11.1193
sprend	-11.122
pažeid	-11.128
naudojimas	-11.1322
▁¦2007-201	-11.1359
demografin	-11.1359
koncepcij	-11.1359
apibrėžim	-11.1359
atsidūr	-11.1359
atspindi	-11.1359
intelektin	-11.1359
ispanija	-11.1359
serbija	-11.1359
balsuodam	-11.1359
pagirti	-11.1359
vadovaujam	-11.1359
kirst	-11.1364
arešt	-11.1367
kenkia	-11.138
pastebim	-11.1382
debat	-11.1386
auginim	-11.1417
izacijos	-11.1422
motin	-11.1513
laikydam	-11.1675
raid	-11.1676
nemaža	-11.1752
vengr	-11.1765
slovakijo	-11.1813
baronien	-11.1813
produkcij	-11.1813
referent	-11.1813
alkoholi	-11.1813
pesticid	-11.1813
priklausanči	-11.1813
è	-11.1813
šešėlin	-11.1813
mokymą	-11.1813
objektyv	-11.1813
prisijungim	-11.1813
vaidin	-11.1813
remdami	-11.1813
tapatyb	-11.1814
mažosiom	-11.1814
atneš	-11.1814
įnaš	-11.1816
indijo	-11.1819
priims	-11.1823
slapt	-11.1825
birmo	-11.1837
nukentėjusi	-11.1852
gerbiamie	-11.1853
pateisina	-11.1856
nuoseklum	-11.1858
remiu	-11.1893
jautr	-11.1911
pažeidžia	-11.1975
bang	-11.1978
pagerė	-11.1985
krikščion	-11.1993
krauj	-11.207
tikėj	-11.2073
planavim	-11.2266
vystymas	-11.227
tenkina	-11.2283
acqui	-11.2289
lėktuv	-11.2289
profesional	-11.2289
aprūpinim	-11.2289
atskaitomyb	-11.2289
biurokratij	-11.2289
jugoslavij	-11.2289
natūrali	-11.2289
prielaid	-11.2289
statistini	-11.2289
naujoves	-11.229
žaliųjų	-11.229
fiskalin	-11.229
schem	-11.229
priklausy	-11.229
savyb	-11.2291
pasmerkt	-11.2292
paaiškina	-11.2296
sujungt	-11.23
pasisakym	-11.2308
išimtin	-11.2315
pradės	-11.2319
tašk	-11.2322
viešosio	-11.2348
atgaivin	-11.2355
žmogišk	-11.2356
vertybė	-11.2359
sutelk	-11.2429
derinim	-11.2436
didėjanči	-11.2496
bandyt	-11.2542
kilim	-11.2589
apgint	-11.2627
miršta	-11.2631
garant	-11.266
asmenišk	-11.2666
kanad	-11.2705
suprat	-11.2725
pavaduotoj	-11.2747
elektrinė	-11.2789
obligacij	-11.2789
atnaujinim	-11.2789
neatidėliotin	-11.2789
personal	-11.2789
sacharo	-11.2789
sušvelnin	-11.2789
transatlantin	-11.2789
ekonomišk	-11.2789
komentar	-11.2789
pasinaudodam	-11.2789
politiška	-11.2789
stovykl	-11.2789
televizij	-11.2789
í	-11.2789
vengia	-11.2789
bosnijo	-11.2789
aštuoni	-11.2789
prieštaring	-11.279
apsunkin	-11.279
atitikim	-11.2791
grandin	-11.2791
ištirt	-11.2792
atskleid	-11.2823
ieškot	-11.2831
privatum	-11.2907
laikysi	-11.2909
gyvuli	-11.2925
dalyvaujanči	-11.2955
pažiūr	-11.3177
paskat	-11.3197
nusikalstam	-11.3222
įgyvendindam	-11.3243
iškesn	-11.3267
prioritetini	-11.327
sakydam	-11.3282
apčiuopiam	-11.3316
susidomėjim	-11.3316
absurdišk	-11.3316
administracij	-11.3316
drebėjim	-11.3316
dujotieki	-11.3316
informacin	-11.3316
intervencij	-11.3316
kompensacij	-11.3316
mobilum	-11.3316
piktnaudžiavim	-11.3316
protekcionizm	-11.3316
draudžiama	-11.3316
institut	-11.3316
persekiojim	-11.3316
vystyti	-11.3316
čekija	-11.3316
suinteresuotos	-11.3316
susidoro	-11.3316
sveikintina	-11.3316
reaguoja	-11.3316
išgird	-11.3316
trukdyt	-11.3316
atkakl	-11.3316
paplit	-11.3317
vėž	-11.3317
liban	-11.3321
naujovė	-11.3322
ramst	-11.3323
konkuruo	-11.3323
dešin	-11.3336
skaičiavim	-11.3396
pastebėj	-11.342
atitinkanči	-11.3435
apgailestau	-11.344
patenkin	-11.3566
sociali	-11.3568
nuosekl	-11.3624
ratifikav	-11.3683
lanksči	-11.3688
kalbėt	-11.3713
rėmim	-11.3779
draud	-11.3794
pilieti	-11.3814
ribojim	-11.3869
dimensij	-11.3871
investuoja	-11.3871
piktnaudžiau	-11.3871
septint	-11.3871
diegim	-11.3871
hercegovin	-11.3871
išsiaiškinti	-11.3871
kvalifikuot	-11.3871
orientuot	-11.3871
padengt	-11.3871
pažeist	-11.3871
represij	-11.3871
skurdžiausi	-11.3871
ó	-11.3871
moralin	-11.3871
nekantri	-11.3871
patraukl	-11.3871
įsipareigojusi	-11.3871
premij	-11.3871
vadinamąj	-11.3872
nuostab	-11.3872
taikydam	-11.3873
sulaikym	-11.3874
antrąj	-11.3875
išraišk	-11.3877
kaltinim	-11.3884
išdavim	-11.3894
special	-11.3938
pusėj	-11.3982
cikl	-11.4012
;	-11.4046
prasidė	-11.4069
apimanči	-11.4171
sustabd	-11.4251
karalyst	-11.4259
pasisakyt	-11.4279
atrod	-11.4287
pakeit	-11.4349
centrinė	-11.4448
alban	-11.4459
kaukaz	-11.446
konstatuojam	-11.446
mėlyn	-11.446
nusikaltėli	-11.446
popieri	-11.446
klastojim	-11.446
komunist	-11.446
palūkan	-11.446
praranda	-11.446
rašytinia	-11.446
siaubing	-11.446
stokholm	-11.446
ström	-11.446
užuojaut	-11.446
zimbabv	-11.446
žudym	-11.446
atšilim	-11.446
savę	-11.446
:	-11.6052
ü	-11.6465
?	-11.9564
ä	-11.9977
ă	-12.1088
(	-12.1925
&	-12.3767
ń	-12.5433
]	-12.5433
ß	-12.7433
ć	-12.7433
!	-12.952
°	-12.9933
ú	-12.9933
ţ	-12.9933
ł	-13.3267
ň	-13.3267
ķ	-13.3267
à	-13.3267
ê	-13.3267
ç	-13.8267
ñ	-13.8267
ż	-13.8267
·	-13.8267
ý	-13.8267
ő	-14.8259
ï	-14.826
ø	-14.8261
[	-14.8262
ş	-14.8263
+	-14.8264
'	-14.8265
%	-14.8266
ī	-14.8267
_	-14.8267
ò	-14.8267
ľ	-14.8267
ř	-14.8267
ś	-14.8267
̨	-14.8267
ρ	-14.8267
”	-14.8267
•	-14.8267
7	-14.8267
έ	-14.8267
π	-14.8267
υ	-14.8267
