<pad>	0
</s>	0
<unk>	0
▁¦	-0
ku	-1
ng	-2
ba	-3
wa	-4
th	-5
la	-6
na	-7
ni	-8
kh	-9
le	-10
si	-11
zi	-12
ka	-13
▁u	-14
ph	-15
lu	-16
we	-17
nga	-18
thi	-19
ma	-20
ya	-21
lo	-22
ye	-23
nd	-24
li	-25
be	-26
▁e	-27
oku	-28
ke	-29
▁,	-30
se	-31
kho	-32
za	-33
▁a	-34
bo	-35
▁ng	-36
ne	-37
▁i	-38
sa	-39
pha	-40
▁𐋇	-41
yo	-42
▁ku	-43
kulu	-44
yi	-45
mi	-46
▁k	-47
▁na	-48
khu	-49
▁uku	-50
▁wa	-51
bu	-52
ze	-53
mu	-54
ngi	-55
▁“	-56
nge	-57
uku	-58
▁.	-59
▁n	-60
▁ba	-61
sh	-62
bi	-63
nkulu	-64
▁o	-65
tha	-66
ko	-67
nt	-68
lwa	-69
okuba	-70
the	-71
hla	-72
so	-73
kwa	-74
nye	-75
fu	-76
▁aba	-77
nke	-78
phe	-79
ki	-80
khe	-81
wo	-82
khulu	-83
me	-84
▁K	-85
su	-86
thu	-87
▁nga	-88
je	-89
▁N	-90
▁ka	-91
ini	-92
da	-93
fa	-94
ha	-95
▁kwa	-96
ri	-97
aba	-98
▁ni	-99
ndi	-100
kepha	-101
no	-102
▁no	-103
▁ngi	-104
ntu	-105
kwe	-106
kha	-107
kulunkulu	-108
mbi	-109
zo	-110
yaku	-111
Nkulunkulu	-112
mba	-113
weni	-114
nya	-115
▁Ng	-116
tho	-117
ngo	-118
▁ya	-119
nda	-120
st	-121
khona	-122
▁si	-123
phi	-124
▁nge	-125
um	-126
kosi	-127
▁:	-128
▁be	-129
leyo	-130
▁lo	-131
.”	-132
vu	-133
fi	-134
▁;	-135
bona	-136
wu	-137
hle	-138
▁ukuba	-139
Je	-140
rist	-141
▁ne	-142
▁la	-143
zu	-144
de	-145
nza	-146
nzi	-147
ja	-148
▁um	-149
dwa	-150
ela	-151
▁ko	-152
wi	-153
pho	-154
nu	-155
ndla	-156
ngokuba	-157
Jesu	-158
lwe	-159
zin	-160
▁oku	-161
uma	-162
▁ukuthi	-163
muntu	-164
zwi	-165
ngu	-166
▁ngokuba	-167
▁ye	-168
oda	-169
epha	-170
mo	-171
tsh	-172
ga	-173
▁yi	-174
▁U	-175
ristu	-176
lela	-177
▁ngo	-178
zwe	-179
fundi	-180
▁Kepha	-181
mbe	-182
▁wathi	-183
qa	-184
lokho	-185
▁ezi	-186
▁kepha	-187
he	-188
ndu	-189
▁kwe	-190
▁isi	-191
xa	-192
nja	-193
zwa	-194
hlu	-195
kholwa	-196
phaka	-197
qo	-198
mp	-199
nje	-200
wathi	-201
nkulunkulu	-202
ndle	-203
▁ama	-204
sebe	-205
▁kuye	-206
swa	-207
▁we	-208
phu	-209
▁ngoku	-210
▁izi	-211
gc	-212
Nkosi	-213
kela	-214
va	-215
fe	-216
bonke	-217
▁esi	-218
lowo	-219
▁ma	-220
▁sa	-221
▁li	-222
▁Ngokuba	-223
▁.”	-224
▁za	-225
suku	-226
▁W	-227
zaku	-228
▁nje	-229
▁B	-230
kazi	-231
ngena	-232
yisi	-233
hlo	-234
mbu	-235
ukuba	-236
▁noku	-237
ngc	-238
▁‘	-239
wele	-240
ngoku	-241
phendu	-242
▁-	-243
nxa	-244
nze	-245
qini	-246
ningi	-247
▁naba	-248
ru	-249
▁Wa	-250
ukuthi	-251
▁em	-252
?”	-253
nkosi	-254
odana	-255
njalo	-256
munye	-257
nde	-258
yese	-259
ho	-260
ce	-261
lwane	-262
khuluma	-263
▁kubo	-264
▁se	-265
▁uma	-266
ro	-267
eli	-268
hli	-269
▁zi	-270
▁uJesu	-271
▁Nga	-272
sho	-273
kile	-274
wini	-275
lokhu	-276
ra	-277
ngaba	-278
phambi	-279
shi	-280
umi	-281
▁uNkulunkulu	-282
leni	-283
sha	-284
thanda	-285
heka	-286
isi	-287
▁kini	-288
ama	-289
bha	-290
phakathi	-291
phila	-292
phezu	-293
ezi	-294
nsi	-295
▁khona	-296
▁bonke	-297
Kristu	-298
mina	-299
ndo	-300
fika	-301
▁kwaba	-302
mandla	-303
vela	-304
sebenzi	-305
di	-306
▁A	-307
qala	-308
noku	-309
▁le	-310
▁ngu	-311
fane	-312
hu	-313
▁kodwa	-314
kubo	-315
kuye	-316
▁Ba	-317
uda	-318
mhla	-319
jesu	-320
hamba	-321
phela	-322
khathi	-323
▁yo	-324
hi	-325
zalwane	-326
sile	-327
esi	-328
dla	-329
bani	-330
khule	-331
izi	-332
▁konke	-333
nto	-334
du	-335
futhi	-336
phendula	-337
▁ukuze	-338
naba	-339
oya	-340
beni	-341
▁eli	-342
zela	-343
shumi	-344
lweni	-345
▁eku	-346
▁?	-347
nina	-348
funa	-349
awu	-350
bonaka	-351
gu	-352
lungi	-353
saba	-354
imi	-355
thetho	-356
kaNkulunkulu	-357
khi	-358
ntwa	-359
rofe	-360
bili	-361
▁noma	-362
lele	-363
tshe	-364
▁lokho	-365
nta	-366
Ma	-367
▁lu	-368
moya	-369
▁imi	-370
lwini	-371
gama	-372
gi	-373
kele	-374
ntwana	-375
zulwini	-376
bula	-377
hlizi	-378
et	-379
▁bathi	-380
hlala	-381
manga	-382
▁kaNkulunkulu	-383
leli	-384
oli	-385
ngelo	-386
▁owa	-387
ngcwele	-388
bheka	-389
ngum	-390
kristu	-391
profe	-392
kuba	-393
▁nase	-394
lile	-395
nyama	-396
dodana	-397
▁ze	-398
siwe	-399
zonke	-400
ngama	-401
mela	-402
ndlu	-403
ina	-404
mvu	-405
bathi	-406
phansi	-407
awulu	-408
ngelosi	-409
ca	-410
phuma	-411
kwaba	-412
re	-413
▁lapho	-414
moni	-415
kini	-416
▁	-417
a	-418
¦	-419
n	-420
i	-421
e	-422
u	-423
k	-424
o	-425
l	-426
h	-427
b	-428
s	-429
w	-430
m	-431
g	-432
y	-433
z	-434
t	-435
,	-436
d	-437
p	-438
.	-439
𐋇	-440
f	-441
N	-442
:	-443
r	-444
;	-445
j	-446
“	-447
q	-448
c	-449
K	-450
v	-451
”	-452
J	-453
-	-454
?	-455
x	-456
U	-457
B	-458
M	-459
A	-460
W	-461
S	-462
‘	-463
’	-464
P	-465
I	-466
Y	-467
L	-468
E	-469
𐊣	-470
𐊼	-471
F	-472
O	-473
G	-474
!	-475
T	-476
H	-477
D	-478
—	-479
Z	-480
R	-481
Q	-482
2	-483
1	-484
V	-485
3	-486
5	-487
X	-488
6	-489
4	-490
7	-491
8	-492
9	-493
C	-494
'	-495
0	-496
