<pad>	0
</s>	0
<unk>	0
in	-0
an	-1
en	-2
▁s	-3
▁k	-4
ta	-5
▁j	-6
ll	-7
än	-8
is	-9
▁h	-10
▁m	-11
▁o	-12
▁t	-13
▁p	-14
▁ja	-15
va	-16
et	-17
ka	-18
tä	-19
un	-20
si	-21
ei	-22
sa	-23
el	-24
ut	-25
▁n	-26
▁J	-27
▁hän	-28
lle	-29
er	-30
as	-31
oi	-32
▁v	-33
ra	-34
▁ol	-35
▁l	-36
al	-37
on	-38
es	-39
ik	-40
▁ka	-41
▁min	-42
iin	-43
aa	-44
vat	-45
it	-46
▁va	-47
▁H	-48
▁jo	-49
uu	-50
▁on	-51
uo	-52
ät	-53
ti	-54
at	-55
▁si	-56
sä	-57
▁sin	-58
uk	-59
▁S	-60
ul	-61
ää	-62
ki	-63
▁san	-64
llä	-65
ko	-66
mm	-67
▁Ja	-68
▁Her	-69
▁te	-70
▁M	-71
us	-72
il	-73
utta	-74
aan	-75
um	-76
yt	-77
uh	-78
eid	-79
lla	-80
▁oli	-81
▁a	-82
te	-83
▁et	-84
▁ko	-85
▁ta	-86
se	-87
▁kun	-88
▁"	-89
ksi	-90
ist	-91
▁minä	-92
▁Herra	-93
ja	-94
▁niin	-95
▁se	-96
▁mi	-97
ansa	-98
vät	-99
▁kaik	-100
▁he	-101
▁hänen	-102
▁ei	-103
umal	-104
eidän	-105
isi	-106
▁y	-107
ista	-108
▁r	-109
ne	-110
▁vi	-111
uin	-112
hd	-113
ke	-114
äm	-115
oo	-116
im	-117
kä	-118
▁K	-119
▁tul	-120
sta	-121
▁pa	-122
▁joka	-123
ur	-124
sen	-125
kaa	-126
▁Jumal	-127
ot	-128
een	-129
▁N	-130
ten	-131
ään	-132
▁sen	-133
▁sy	-134
mme	-135
▁po	-136
iv	-137
em	-138
▁sanoi	-139
▁A	-140
äh	-141
▁että	-142
tu	-143
▁an	-144
to	-145
▁minun	-146
▁sinun	-147
asta	-148
▁kä	-149
elle	-150
ih	-151
▁as	-152
id	-153
kö	-154
kaan	-155
ran	-156
▁E	-157
taa	-158
▁kunin	-159
▁Si	-160
▁kaikki	-161
kin	-162
ty	-163
eli	-164
oit	-165
▁pal	-166
äl	-167
▁ole	-168
▁hei	-169
pp	-170
▁kan	-171
▁la	-172
▁e	-173
oin	-174
ua	-175
ri	-176
▁I	-177
▁Mutta	-178
eh	-179
▁nä	-180
tan	-181
ma	-182
ee	-183
tka	-184
▁en	-185
▁pä	-186
▁ra	-187
itä	-188
uol	-189
▁sa	-190
▁jotka	-191
ssa	-192
eet	-193
▁vasta	-194
▁sinä	-195
▁ki	-196
elin	-197
▁sillä	-198
des	-199
iset	-200
mi	-201
".	-202
▁heidän	-203
inen	-204
▁kuu	-205
▁läh	-206
▁val	-207
▁Herran	-208
eni	-209
inä	-210
istä	-211
ulle	-212
▁puh	-213
ämä	-214
koon	-215
yö	-216
▁pää	-217
assa	-218
▁tä	-219
▁Is	-220
▁ovat	-221
ui	-222
up	-223
▁ne	-224
ani	-225
kuin	-226
▁päiv	-227
▁Niin	-228
▁poi	-229
isen	-230
ar	-231
▁kuin	-232
kää	-233
so	-234
ys	-235
▁Isra	-236
la	-237
elä	-238
▁saa	-239
▁mutta	-240
jan	-241
vä	-242
ky	-243
os	-244
ila	-245
ille	-246
yh	-247
."	-248
hden	-249
▁Jumala	-250
▁mitä	-251
▁ni	-252
elj	-253
▁maa	-254
▁tuli	-255
▁T	-256
▁to	-257
den	-258
itse	-259
▁ti	-260
▁is	-261
▁olen	-262
▁vuo	-263
ensä	-264
änsä	-265
uksen	-266
▁tei	-267
▁niinkuin	-268
▁yl	-269
nyt	-270
taan	-271
▁van	-272
ia	-273
▁ma	-274
▁hänelle	-275
ellä	-276
▁mu	-277
lm	-278
ksen	-279
▁syn	-280
▁P	-281
▁ha	-282
maan	-283
issa	-284
▁palv	-285
rj	-286
▁olet	-287
▁B	-288
▁Sillä	-289
▁al	-290
isten	-291
▁sano	-292
iksi	-293
▁D	-294
▁olivat	-295
eidät	-296
▁kansa	-297
mmen	-298
▁suu	-299
▁jon	-300
▁il	-301
▁tai	-302
▁teidän	-303
tanut	-304
tta	-305
▁hänet	-306
▁ku	-307
▁vastaan	-308
han	-309
esi	-310
▁so	-311
kse	-312
▁kuning	-313
ha	-314
pä	-315
änä	-316
usta	-317
pa	-318
upun	-319
▁tuo	-320
▁Jumalan	-321
yy	-322
ees	-323
llut	-324
▁häntä	-325
lloin	-326
ön	-327
▁hä	-328
ks	-329
ensa	-330
▁kat	-331
▁Israelin	-332
▁käs	-333
▁hy	-334
▁ih	-335
▁no	-336
▁men	-337
ett	-338
essa	-339
▁kaupun	-340
ska	-341
rin	-342
▁heille	-343
▁jonka	-344
▁kul	-345
▁sitä	-346
ken	-347
uud	-348
aav	-349
eit	-350
▁luo	-351
▁teh	-352
itten	-353
jat	-354
estä	-355
▁Hän	-356
▁kuul	-357
▁kuningas	-358
vi	-359
▁jäl	-360
▁nim	-361
ea	-362
▁Jer	-363
ella	-364
äs	-365
ed	-366
▁poika	-367
▁Joo	-368
unn	-369
issä	-370
▁pel	-371
tin	-372
▁maan	-373
▁`	-374
yös	-375
▁ar	-376
▁mieh	-377
aavid	-378
▁palveli	-379
▁sanoo	-380
kka	-381
▁Daavid	-382
▁kans	-383
▁voi	-384
▁eivät	-385
▁ihm	-386
▁kanssa	-387
van	-388
▁eikä	-389
▁edes	-390
▁ann	-391
▁per	-392
▁ot	-393
▁äl	-394
jen	-395
esta	-396
▁tämä	-397
▁vih	-398
eksi	-399
▁Moo	-400
▁jos	-401
▁me	-402
etta	-403
▁minulle	-404
nä	-405
uun	-406
▁itse	-407
▁koko	-408
▁ty	-409
▁pois	-410
▁heidät	-411
▁var	-412
▁meidän	-413
uon	-414
▁lei	-415
▁minua	-416
▁Sa	-417
▁Jees	-418
sal	-419
atta	-420
▁V	-421
ettu	-422
iden	-423
▁ky	-424
kan	-425
▁päivänä	-426
yttä	-427
ämän	-428
▁vanh	-429
ud	-430
▁Kun	-431
essä	-432
▁vaan	-433
▁pyh	-434
oa	-435
eb	-436
▁puol	-437
kymmen	-438
äni	-439
köön	-440
ab	-441
▁kuol	-442
sivat	-443
toi	-444
unut	-445
▁us	-446
▁Juud	-447
hin	-448
uks	-449
man	-450
uut	-451
isa	-452
esti	-453
▁kor	-454
ina	-455
▁-	-456
▁suk	-457
ala	-458
▁Jo	-459
neet	-460
mmä	-461
▁kas	-462
▁pol	-463
▁muu	-464
eltä	-465
▁velj	-466
ikä	-467
▁Minä	-468
▁G	-469
ura	-470
mo	-471
▁myös	-472
ro	-473
yp	-474
▁kolm	-475
▁teille	-476
▁kuninkaan	-477
?"	-478
▁sinua	-479
oita	-480
ita	-481
äär	-482
ir	-483
isia	-484
etti	-485
▁oik	-486
min	-487
▁kes	-488
usal	-489
▁syd	-490
▁ver	-491
▁syö	-492
▁ri	-493
▁kaksi	-494
ell	-495
▁meni	-496
usalem	-497
▁heitä	-498
▁Jerusalem	-499
▁uh	-500
ku	-501
vit	-502
▁sinulle	-503
▁li	-504
▁Silloin	-505
jo	-506
ian	-507
▁vaim	-508
▁er	-509
että	-510
mpp	-511
isin	-512
vo	-513
▁O	-514
▁edessä	-515
mat	-516
nut	-517
änyt	-518
isesti	-519
▁koh	-520
▁minut	-521
ivät	-522
▁kät	-523
▁katso	-524
▁taiva	-525
▁jumal	-526
män	-527
atso	-528
▁vä	-529
▁toi	-530
gyp	-531
▁suur	-532
na	-533
▁mei	-534
▁R	-535
▁ker	-536
tähden	-537
▁tämän	-538
▁hen	-539
Äl	-540
rist	-541
▁ett	-542
▁tykö	-543
iä	-544
tiin	-545
▁tule	-546
▁siitä	-547
▁tuh	-548
ulla	-549
▁L	-550
▁tempp	-551
▁kirj	-552
▁sydäm	-553
▁el	-554
onsa	-555
▁tulee	-556
▁näin	-557
kun	-558
eitse	-559
▁mukaan	-560
pi	-561
ast	-562
▁teki	-563
▁nyt	-564
elila	-565
▁ilm	-566
▁silm	-567
▁pan	-568
▁valta	-569
ele	-570
▁tiet	-571
stä	-572
▁teke	-573
urska	-574
▁vielä	-575
una	-576
▁kaupung	-577
▁asti	-578
▁vastasi	-579
ika	-580
ihen	-581
▁f	-582
uv	-583
tui	-584
▁mies	-585
tivat	-586
▁kunn	-587
pe	-588
▁her	-589
▁seitse	-590
raelila	-591
▁kaiken	-592
▁seura	-593
▁israelila	-594
kymmentä	-595
▁Sen	-596
▁mikä	-597
kia	-598
onin	-599
änne	-600
äin	-601
▁Egyp	-602
▁lähti	-603
▁tähden	-604
▁maahan	-605
▁pah	-606
uksi	-607
▁Juudan	-608
uka	-609
▁yh	-610
li	-611
▁sekä	-612
yn	-613
ikka	-614
▁sanoen	-615
tö	-616
kään	-617
ukse	-618
▁usko	-619
nen	-620
▁oike	-621
▁na	-622
▁käsi	-623
▁lo	-624
▁juo	-625
▁ettei	-626
▁siihen	-627
▁kar	-628
▁jälk	-629
▁nelj	-630
lleen	-631
▁antoi	-632
kea	-633
▁lap	-634
oon	-635
▁sinut	-636
▁op	-637
▁tah	-638
mpä	-639
mieh	-640
▁jälkelä	-641
▁le	-642
▁hyv	-643
mään	-644
st	-645
llis	-646
lta	-647
esty	-648
▁tehnyt	-649
uden	-650
▁niiden	-651
kseen	-652
▁sanoivat	-653
▁jä	-654
▁tur	-655
ppi	-656
▁ul	-657
ette	-658
uts	-659
▁seitsemän	-660
▁kuninkaa	-661
vaa	-662
▁mer	-663
tte	-664
▁esi	-665
re	-666
▁olkoon	-667
da	-668
▁sota	-669
▁käsky	-670
▁Krist	-671
▁ollut	-672
▁sanon	-673
▁kir	-674
▁sitten	-675
▁tal	-676
▁Jaa	-677
tää	-678
rof	-679
▁käy	-680
▁tar	-681
▁kuts	-682
▁palj	-683
▁siellä	-684
ysy	-685
▁kautta	-686
▁sur	-687
▁Jeesus	-688
▁olette	-689
▁Ka	-690
▁Äl	-691
▁vir	-692
▁eteen	-693
itta	-694
uuta	-695
pää	-696
▁tu	-697
▁kään	-698
▁vanhurska	-699
▁enää	-700
▁Ab	-701
▁ho	-702
▁Herraa	-703
▁He	-704
▁kuk	-705
uudes	-706
tom	-707
▁it	-708
anne	-709
▁prof	-710
▁ist	-711
▁raken	-712
▁sis	-713
▁jota	-714
▁Sitten	-715
alta	-716
▁Jos	-717
▁jal	-718
▁ympä	-719
▁poik	-720
▁koska	-721
▁niitä	-722
▁synti	-723
▁tot	-724
▁teitä	-725
emm	-726
ikk	-727
▁nämä	-728
uvat	-729
▁kuo	-730
▁ruk	-731
▁kansan	-732
▁Katso	-733
jä	-734
asti	-735
iinä	-736
enne	-737
maa	-738
▁täh	-739
kunn	-740
▁pojan	-741
usi	-742
▁viin	-743
▁siis	-744
ettiin	-745
tyi	-746
▁Moos	-747
▁palvelija	-748
▁elä	-749
▁polt	-750
oista	-751
▁Herralle	-752
▁pit	-753
▁jouk	-754
▁tied	-755
▁olisi	-756
▁mitään	-757
aab	-758
ol	-759
ossa	-760
uivat	-761
▁tapa	-762
▁kirjoit	-763
ana	-764
uul	-765
▁antaa	-766
etty	-767
osta	-768
oinen	-769
▁siinä	-770
▁Israel	-771
isiä	-772
iste	-773
▁tullut	-774
▁oleva	-775
▁ä	-776
tel	-777
▁mie	-778
▁vai	-779
▁por	-780
▁Daavidin	-781
lj	-782
▁ette	-783
hdä	-784
▁nuo	-785
▁miel	-786
▁ik	-787
oja	-788
keli	-789
▁kiv	-790
▁ään	-791
▁Saul	-792
uus	-793
▁las	-794
▁tun	-795
▁hävit	-796
▁maassa	-797
▁hal	-798
isille	-799
jaa	-800
▁El	-801
elta	-802
kob	-803
▁näki	-804
▁antanut	-805
emaan	-806
hde	-807
▁oma	-808
ilä	-809
inun	-810
▁hall	-811
▁nous	-812
▁voit	-813
▁Jaakob	-814
inn	-815
▁annan	-816
mp	-817
▁Seb	-818
▁pitä	-819
▁yli	-820
▁pappi	-821
▁vuor	-822
do	-823
lleet	-824
teen	-825
▁kolme	-826
▁älä	-827
▁Mooses	-828
itte	-829
▁joi	-830
▁Sentähden	-831
öy	-832
aat	-833
keen	-834
tänyt	-835
▁tulivat	-836
äsi	-837
▁pyhä	-838
▁sukuk	-839
▁suuri	-840
▁altta	-841
ssä	-842
yty	-843
▁Moose	-844
iten	-845
▁lih	-846
koot	-847
▁opet	-848
▁palvelij	-849
lap	-850
▁jout	-851
kkaa	-852
Minä	-853
▁lähetti	-854
▁otti	-855
dan	-856
▁tod	-857
▁pil	-858
▁ruu	-859
▁aina	-860
▁liit	-861
▁ennen	-862
`.	-863
▁Sinä	-864
ksensa	-865
mis	-866
▁olemme	-867
kon	-868
uuden	-869
taneet	-870
or	-871
▁sana	-872
sansa	-873
▁ian	-874
▁ianka	-875
ien	-876
▁pääll	-877
▁profeet	-878
▁Se	-879
▁ruo	-880
ime	-881
▁vain	-882
puol	-883
elm	-884
▁pala	-885
▁silloin	-886
▁aa	-887
eita	-888
urin	-889
▁mur	-890
ltä	-891
▁huo	-892
eev	-893
sin	-894
tti	-895
▁yksi	-896
▁tapah	-897
ästä	-898
▁raka	-899
▁Aar	-900
▁vaimo	-901
▁kuinka	-902
▁Näin	-903
uta	-904
kiin	-905
mmär	-906
▁siel	-907
ittä	-908
ust	-909
toista	-910
▁tyttä	-911
▁Egyptin	-912
uhtin	-913
uksessa	-914
ivat	-915
▁ain	-916
alla	-917
▁jul	-918
▁puhui	-919
▁ai	-920
atte	-921
▁sinne	-922
▁kaikkien	-923
ni	-924
▁kymmen	-925
▁miehet	-926
▁paljon	-927
lli	-928
▁Sal	-929
▁pap	-930
▁anta	-931
▁seis	-932
oll	-933
▁Jumalaa	-934
▁ve	-935
▁huon	-936
kaisin	-937
▁ymmär	-938
ah	-939
ib	-940
ihin	-941
▁uhra	-942
▁iankaikk	-943
▁suo	-944
▁rauh	-945
▁rukoi	-946
sia	-947
▁mon	-948
▁ran	-949
uhr	-950
uni	-951
▁muuta	-952
▁ed	-953
▁pys	-954
▁rik	-955
▁osa	-956
etään	-957
▁eräm	-958
▁perin	-959
▁sä	-960
otta	-961
▁täyt	-962
▁pojat	-963
▁toisen	-964
▁kats	-965
▁ilmoit	-966
ös	-967
öt	-968
itsi	-969
hta	-970
kseni	-971
▁hyvä	-972
▁älkää	-973
illä	-974
tena	-975
▁meille	-976
ara	-977
▁kos	-978
jaan	-979
unsa	-980
▁viis	-981
llensa	-982
▁sää	-983
tansa	-984
ilaisten	-985
dä	-986
▁neljä	-987
▁toinen	-988
▁takaisin	-989
isiin	-990
▁jumalat	-991
oivat	-992
▁kukaan	-993
▁keske	-994
▁As	-995
▁toim	-996
▁lä	-997
ilaiset	-998
eta	-999
▁kum	-1000
uneet	-1001
eevilä	-1002
▁miestä	-1003
▁kau	-1004
▁kauh	-1005
▁tulevat	-1006
▁tekee	-1007
▁ruhtin	-1008
sani	-1009
ussa	-1010
▁Seba	-1011
koit	-1012
▁tee	-1013
▁kysy	-1014
▁Salo	-1015
▁temppel	-1016
lä	-1017
udes	-1018
▁päällä	-1019
▁palvel	-1020
val	-1021
▁pid	-1022
▁teen	-1023
▁pakan	-1024
▁ov	-1025
mon	-1026
ria	-1027
ättä	-1028
▁ilmesty	-1029
var	-1030
ässä	-1031
▁väl	-1032
iliste	-1033
▁lähte	-1034
▁päivä	-1035
▁teidät	-1036
kki	-1037
▁maasta	-1038
▁perintö	-1039
▁hed	-1040
▁kesk	-1041
▁ulos	-1042
▁eivätkä	-1043
uim	-1044
alle	-1045
▁kyy	-1046
▁vall	-1047
▁päälle	-1048
kaat	-1049
▁leevilä	-1050
erra	-1051
▁poltto	-1052
▁Ha	-1053
ilisteala	-1054
▁lu	-1055
kselle	-1056
uutala	-1057
▁Jeesuksen	-1058
▁kal	-1059
▁vei	-1060
iseen	-1061
!"	-1062
iseksi	-1063
▁otta	-1064
▁Baab	-1065
▁kanssaan	-1066
ton	-1067
▁Hen	-1068
▁alas	-1069
▁saan	-1070
▁Jumalasi	-1071
vän	-1072
▁näh	-1073
▁työ	-1074
▁opetus	-1075
▁filisteala	-1076
ve	-1077
ain	-1078
kee	-1079
ulta	-1080
▁huu	-1081
uutta	-1082
▁meitä	-1083
▁os	-1084
jalle	-1085
▁minkä	-1086
set	-1087
▁muut	-1088
▁isänsä	-1089
Katso	-1090
▁juutala	-1091
▁paik	-1092
▁nousi	-1093
▁aset	-1094
▁lan	-1095
▁tahd	-1096
▁kuolem	-1097
istan	-1098
▁joku	-1099
▁puhunut	-1100
hdeks	-1101
uttaa	-1102
olle	-1103
tivät	-1104
▁Kaik	-1105
▁miehen	-1106
tua	-1107
▁Aab	-1108
toa	-1109
▁aik	-1110
▁vas	-1111
▁yhd	-1112
▁fara	-1113
▁teko	-1114
iselle	-1115
olla	-1116
▁joita	-1117
▁temppelin	-1118
ela	-1119
▁par	-1120
▁ensi	-1121
▁etsi	-1122
▁kasv	-1123
▁Sebaot	-1124
▁jälkeen	-1125
ölj	-1126
▁äit	-1127
▁saat	-1128
fra	-1129
pat	-1130
evat	-1131
ineen	-1132
llinen	-1133
ikö	-1134
raha	-1135
▁sul	-1136
▁pelj	-1137
▁tulle	-1138
▁saasta	-1139
▁älköön	-1140
▁taivaan	-1141
ota	-1142
sef	-1143
teli	-1144
▁tietä	-1145
▁vaikka	-1146
▁sentähden	-1147
▁Ba	-1148
emme	-1149
▁puhd	-1150
▁vier	-1151
uva	-1152
▁aut	-1153
▁har	-1154
oihin	-1155
▁Tämä	-1156
▁ajat	-1157
▁nuor	-1158
▁kaupungin	-1159
moin	-1160
▁häpe	-1161
pea	-1162
rsi	-1163
▁lah	-1164
llesi	-1165
masta	-1166
▁tunn	-1167
▁sukukunn	-1168
när	-1169
mista	-1170
▁Moosekselle	-1171
▁israelilaiset	-1172
umaan	-1173
▁perh	-1174
▁Joosef	-1175
net	-1176
▁mat	-1177
▁määr	-1178
▁päin	-1179
▁tehdä	-1180
▁kaikkia	-1181
kko	-1182
mu	-1183
▁isi	-1184
▁vuotta	-1185
illa	-1186
▁ken	-1187
▁väke	-1188
▁oikea	-1189
▁synnyt	-1190
▁Aabraha	-1191
kööt	-1192
▁kur	-1193
▁Älä	-1194
empi	-1195
▁ahd	-1196
▁kasvo	-1197
mia	-1198
▁Ei	-1199
kunta	-1200
malla	-1201
▁Beet	-1202
▁maata	-1203
▁pahaa	-1204
tär	-1205
▁lain	-1206
▁jossa	-1207
▁profeetta	-1208
▁Ah	-1209
▁py	-1210
▁un	-1211
massa	-1212
▁vann	-1213
▁väär	-1214
▁kymmenen	-1215
kul	-1216
▁riem	-1217
▁tuhatta	-1218
▁Kristuksen	-1219
tävä	-1220
▁ylös	-1221
▁sanan	-1222
▁kyynär	-1223
▁tähän	-1224
▁verta	-1225
de	-1226
▁pi	-1227
kala	-1228
▁uhr	-1229
▁ölj	-1230
ksesi	-1231
▁kiin	-1232
isivat	-1233
▁käänty	-1234
▁kuninkaaksi	-1235
uit	-1236
ilta	-1237
tenä	-1238
▁ota	-1239
▁kuka	-1240
▁poikansa	-1241
▁jää	-1242
▁sille	-1243
uudessa	-1244
kel	-1245
ous	-1246
▁isä	-1247
▁tänä	-1248
▁tätä	-1249
▁viha	-1250
▁opetuslap	-1251
vuo	-1252
lleni	-1253
▁luon	-1254
▁tapp	-1255
▁kuoli	-1256
▁maail	-1257
nsä	-1258
astaan	-1259
▁menivät	-1260
tuu	-1261
isti	-1262
▁asuk	-1263
▁yö	-1264
anin	-1265
▁kumar	-1266
▁niistä	-1267
▁suv	-1268
tänsä	-1269
▁noud	-1270
▁kanso	-1271
▁viisa	-1272
▁iankaikkisesti	-1273
▁Joka	-1274
▁jolla	-1275
▁tytär	-1276
▁kuiten	-1277
▁lähtivät	-1278
imm	-1279
tani	-1280
dessä	-1281
▁hopea	-1282
▁rakasta	-1283
iva	-1284
ukset	-1285
▁Joos	-1286
▁kansaa	-1287
▁Aa	-1288
▁linn	-1289
▁tuon	-1290
▁Jerusalemin	-1291
▁U	-1292
keut	-1293
▁kuninkaalle	-1294
▁syntyi	-1295
▁tehneet	-1296
eitä	-1297
▁armo	-1298
▁pani	-1299
▁Hänen	-1300
▁tyttär	-1301
vin	-1302
▁luk	-1303
▁tyh	-1304
istel	-1305
sanne	-1306
▁henki	-1307
▁kulki	-1308
▁sanot	-1309
▁ras	-1310
▁ympäri	-1311
▁hi	-1312
säni	-1313
▁kyl	-1314
▁jälj	-1315
▁käsken	-1316
ivan	-1317
Herra	-1318
ettava	-1319
▁synty	-1320
▁tuomi	-1321
▁päivää	-1322
▁saakka	-1323
din	-1324
paa	-1325
▁Ben	-1326
▁Saa	-1327
llensä	-1328
▁kätensä	-1329
etä	-1330
▁varten	-1331
tar	-1332
oksi	-1333
▁itsen	-1334
▁Kaikki	-1335
▁käsiin	-1336
kk	-1337
oh	-1338
▁oh	-1339
▁peit	-1340
▁hedelm	-1341
▁kunnes	-1342
▁ensimmä	-1343
▁sanonut	-1344
ilea	-1345
itsa	-1346
▁kaat	-1347
ub	-1348
▁pyy	-1349
▁heng	-1350
▁väki	-1351
▁Aaron	-1352
▁missä	-1353
▁ympär	-1354
▁pelasta	-1355
kymmenen	-1356
▁Nämä	-1357
▁aino	-1358
▁mene	-1359
miehet	-1360
▁jät	-1361
▁vah	-1362
istaa	-1363
▁käskyn	-1364
▁sai	-1365
▁teur	-1366
▁kokoon	-1367
dot	-1368
▁pur	-1369
▁väh	-1370
oille	-1371
▁yhtä	-1372
▁vuoden	-1373
▁hänellä	-1374
mä	-1375
kat	-1376
reja	-1377
▁ter	-1378
▁anna	-1379
▁kohd	-1380
▁pitää	-1381
▁Salomo	-1382
▁pelast	-1383
▁Israeli	-1384
Mitä	-1385
ystä	-1386
▁neuv	-1387
▁vael	-1388
▁meidät	-1389
▁rukoil	-1390
▁jokainen	-1391
▁kaikille	-1392
ano	-1393
miin	-1394
päiv	-1395
utti	-1396
oitta	-1397
istuim	-1398
▁muukala	-1399
▁re	-1400
isty	-1401
▁aika	-1402
▁kiit	-1403
▁vaatte	-1404
▁keskellä	-1405
jansa	-1406
äneet	-1407
▁heistä	-1408
▁kauhist	-1409
Men	-1410
▁lö	-1411
▁Jor	-1412
▁emme	-1413
▁paran	-1414
▁kaikesta	-1415
▁syntiä	-1416
ga	-1417
nnä	-1418
ram	-1419
▁Ma	-1420
uita	-1421
▁Ass	-1422
▁Paa	-1423
▁päät	-1424
▁kuuka	-1425
▁käski	-1426
▁samoin	-1427
▁Ol	-1428
▁han	-1429
▁lyö	-1430
▁asettu	-1431
▁pelkää	-1432
▁viholl	-1433
▁Jerusalemiin	-1434
esa	-1435
pal	-1436
jamin	-1437
▁kulta	-1438
▁rakka	-1439
jouk	-1440
▁sor	-1441
▁ylen	-1442
▁kukin	-1443
▁onnet	-1444
ob	-1445
ise	-1446
men	-1447
▁taas	-1448
▁tuom	-1449
▁ynnä	-1450
ip	-1451
uur	-1452
uhrin	-1453
isista	-1454
▁av	-1455
▁joh	-1456
rille	-1457
▁heit	-1458
ksenne	-1459
▁jumalatto	-1460
▁jälkeläisiä	-1461
koi	-1462
imin	-1463
mies	-1464
▁lup	-1465
uksia	-1466
▁sanat	-1467
uhriksi	-1468
uksensa	-1469
ven	-1470
▁ap	-1471
etut	-1472
jasi	-1473
tunut	-1474
ettänyt	-1475
▁päästä	-1476
▁onnettom	-1477
▁Te	-1478
isataa	-1479
▁kalli	-1480
▁häneen	-1481
öyh	-1482
▁sel	-1483
aaksi	-1484
▁puhu	-1485
▁pään	-1486
isitte	-1487
▁ihmis	-1488
▁tiedä	-1489
▁israelilaisten	-1490
`,	-1491
kar	-1492
▁asi	-1493
misen	-1494
▁vuod	-1495
essään	-1496
▁Joosua	-1497
▁enkeli	-1498
▁kunnia	-1499
▁hänestä	-1500
uinka	-1501
▁viisi	-1502
osa	-1503
▁ala	-1504
▁het	-1505
▁enkä	-1506
▁häneltä	-1507
isit	-1508
▁hyö	-1509
▁mol	-1510
▁vil	-1511
ij	-1512
▁Mi	-1513
▁Pi	-1514
tele	-1515
▁elää	-1516
teeksi	-1517
▁kunni	-1518
▁Älkää	-1519
▁hallit	-1520
▁liiton	-1521
▁sieltä	-1522
▁kansalle	-1523
▁käskenyt	-1524
▁Jerusalemissa	-1525
▁pime	-1526
▁nähdä	-1527
▁Baabelin	-1528
▁Jaakobin	-1529
▁näl	-1530
▁sil	-1531
udessa	-1532
▁ruoka	-1533
sti	-1534
uja	-1535
viä	-1536
▁En	-1537
▁Sii	-1538
▁pysy	-1539
▁tunte	-1540
ava	-1541
osi	-1542
▁An	-1543
▁Efra	-1544
▁Iisa	-1545
▁hyvää	-1546
▁kauan	-1547
▁lähet	-1548
▁ottaa	-1549
▁paika	-1550
▁olleet	-1551
▁taistel	-1552
",	-1553
sar	-1554
▁lis	-1555
itsee	-1556
ppuun	-1557
▁nimi	-1558
▁aurin	-1559
▁tulen	-1560
▁voima	-1561
▁suuren	-1562
ba	-1563
erin	-1564
imen	-1565
jensa	-1566
sivät	-1567
▁hyvin	-1568
▁kuuli	-1569
▁tulla	-1570
▁Jordan	-1571
ron	-1572
▁olla	-1573
▁pain	-1574
▁tässä	-1575
atan	-1576
▁löy	-1577
▁kiel	-1578
▁lamp	-1579
▁kyynärää	-1580
▁ainoastaan	-1581
abin	-1582
uhri	-1583
▁vapa	-1584
▁iloit	-1585
▁kirkka	-1586
▁tekivät	-1587
▁kaksikymmentä	-1588
yd	-1589
keni	-1590
tava	-1591
▁juh	-1592
▁kim	-1593
▁kärsi	-1594
▁kansani	-1595
▁Poi	-1596
▁vie	-1597
▁Joon	-1598
▁lupa	-1599
▁suku	-1600
▁sääd	-1601
▁eräma	-1602
▁päivän	-1603
▁seurakunn	-1604
oni	-1605
yks	-1606
llaan	-1607
mille	-1608
▁perhe	-1609
▁kohtaan	-1610
▁poh	-1611
anaan	-1612
tuivat	-1613
▁josta	-1614
▁aikaan	-1615
▁kaikista	-1616
▁or	-1617
oilla	-1618
▁liik	-1619
▁ojen	-1620
▁leipää	-1621
▁tulleet	-1622
▁veljensä	-1623
▁aam	-1624
▁äär	-1625
matta	-1626
▁sisä	-1627
▁valh	-1628
essaan	-1629
▁heimo	-1630
kei	-1631
▁Pyh	-1632
▁siv	-1633
emmän	-1634
kkaan	-1635
▁vettä	-1636
ukseksi	-1637
▁teistä	-1638
▁kahdeks	-1639
▁kanssansa	-1640
▁g	-1641
asin	-1642
▁enn	-1643
▁murh	-1644
▁kiinni	-1645
▁ymmärr	-1646
▁ennenkuin	-1647
▁kaupunkiin	-1648
ker	-1649
▁amm	-1650
▁hyl	-1651
kansa	-1652
ssaan	-1653
▁Pieta	-1654
▁kohti	-1655
▁kuusi	-1656
▁tietää	-1657
▁ihminen	-1658
tat	-1659
▁Raa	-1660
▁pes	-1661
▁sal	-1662
oitti	-1663
▁niille	-1664
▁Jumalamme	-1665
▁Mitä	-1666
ettuna	-1667
isesta	-1668
▁varti	-1669
▁valtaistuim	-1670
emmat	-1671
innut	-1672
yttää	-1673
▁kulj	-1674
▁yhden	-1675
▁asetti	-1676
▁kahden	-1677
▁met	-1678
▁nuh	-1679
oiksi	-1680
▁haud	-1681
▁synn	-1682
▁turva	-1683
▁vanha	-1684
▁kansat	-1685
▁tuleva	-1686
▁minusta	-1687
.`	-1688
iky	-1689
koa	-1690
ksin	-1691
sataa	-1692
▁vesi	-1693
▁Jerem	-1694
▁tänne	-1695
▁seuraa	-1696
Jos	-1697
kit	-1698
▁Isä	-1699
▁vaa	-1700
ollis	-1701
yksen	-1702
▁ryös	-1703
▁tava	-1704
▁surma	-1705
▁teillä	-1706
▁ympäril	-1707
▁anteeksi	-1708
jon	-1709
▁Ki	-1710
aksi	-1711
mari	-1712
ppin	-1713
▁huk	-1714
▁saanut	-1715
▁sijaan	-1716
▁ottivat	-1717
▁alttarin	-1718
▁kanssasi	-1719
jia	-1720
▁my	-1721
kelin	-1722
▁nime	-1723
▁kohta	-1724
▁meren	-1725
▁saavat	-1726
ef	-1727
ksa	-1728
anas	-1729
teet	-1730
vien	-1731
ämään	-1732
▁jään	-1733
▁vahv	-1734
ben	-1735
▁laa	-1736
▁auti	-1737
tetaan	-1738
▁pysyy	-1739
▁yhdessä	-1740
▁Va	-1741
ynnä	-1742
▁alu	-1743
▁sat	-1744
▁köyh	-1745
▁Sinun	-1746
▁kansojen	-1747
sänsä	-1748
isiksi	-1749
llenne	-1750
uuteen	-1751
▁Egypt	-1752
▁kaikkea	-1753
▁ilmestys	-1754
yyt	-1755
▁Neb	-1756
eille	-1757
▁laup	-1758
▁öljy	-1759
▁pelas	-1760
▁sapat	-1761
▁siuna	-1762
▁ihmisten	-1763
▁kaupunkia	-1764
kas	-1765
▁kalta	-1766
▁silmi	-1767
▁syödä	-1768
▁sukukun	-1769
▁silmissä	-1770
▁kahdeksan	-1771
▁kuitenkin	-1772
▁kuningasta	-1773
▁palvelijat	-1774
▁Sim	-1775
▁näky	-1776
▁yhte	-1777
ksemme	-1778
ukseen	-1779
▁johon	-1780
▁kiiva	-1781
▁lapsi	-1782
▁valit	-1783
▁vaimon	-1784
▁kaksitoista	-1785
keä	-1786
saf	-1787
tia	-1788
ojen	-1789
▁lop	-1790
uhatta	-1791
▁papit	-1792
▁äitin	-1793
▁ilmestysma	-1794
▁Y	-1795
gon	-1796
vana	-1797
▁port	-1798
▁suun	-1799
eeseen	-1800
▁pyhit	-1801
▁joiden	-1802
▁täynnä	-1803
rn	-1804
▁Vi	-1805
▁lun	-1806
▁ved	-1807
▁herra	-1808
▁Jordanin	-1809
▁puolesta	-1810
▁lähettänyt	-1811
▁palvelijasi	-1812
eer	-1813
san	-1814
arin	-1815
eesi	-1816
itar	-1817
rani	-1818
yksi	-1819
▁poj	-1820
▁asum	-1821
▁siun	-1822
▁esiko	-1823
▁leiri	-1824
ikymmen	-1825
▁kutsui	-1826
mmi	-1827
sut	-1828
▁vet	-1829
▁Samu	-1830
▁alla	-1831
▁jona	-1832
▁itsensä	-1833
▁puolella	-1834
hän	-1835
jain	-1836
tilä	-1837
annut	-1838
jaksi	-1839
▁sata	-1840
▁Manas	-1841
▁nimen	-1842
▁lähten	-1843
▁jälleen	-1844
▁kaikkin	-1845
▁kuullut	-1846
▁sanansa	-1847
aansa	-1848
asten	-1849
tävät	-1850
▁näke	-1851
▁saal	-1852
ukseni	-1853
▁ketään	-1854
▁sanoin	-1855
▁enemmän	-1856
▁erämaassa	-1857
▁luoksensa	-1858
▁ympärilei	-1859
▁perintöosa	-1860
▁jälkeläiset	-1861
mpa	-1862
▁nis	-1863
▁orj	-1864
oissa	-1865
▁varj	-1866
▁aikaa	-1867
▁kysyi	-1868
▁Saulin	-1869
▁nähnyt	-1870
otisesti	-1871
▁Aaronin	-1872
▁karkoit	-1873
▁todista	-1874
▁asukkaat	-1875
▁haj	-1876
▁nos	-1877
keelle	-1878
▁kuule	-1879
▁valtakunn	-1880
▁aj	-1881
Sinä	-1882
ätte	-1883
▁His	-1884
▁epä	-1885
▁muk	-1886
▁oin	-1887
▁tut	-1888
viksi	-1889
▁Minun	-1890
▁joilla	-1891
▁kesken	-1892
haa	-1893
rilla	-1894
tuvat	-1895
▁johd	-1896
▁Gilea	-1897
▁äläkä	-1898
▁todist	-1899
▁tykönsä	-1900
▁kaupunki	-1901
▁liikkeelle	-1902
▁temppeliin	-1903
kso	-1904
▁sö	-1905
▁korke	-1906
▁miehiä	-1907
▁Mooseksen	-1908
iltä	-1909
▁lait	-1910
▁pohjo	-1911
▁uskon	-1912
▁pu	-1913
▁ava	-1914
▁tek	-1915
▁Heng	-1916
▁oman	-1917
kaamme	-1918
▁kuulleet	-1919
▁Jumalalle	-1920
▁Jumalanne	-1921
eja	-1922
mas	-1923
rit	-1924
destä	-1925
eensä	-1926
▁kolman	-1927
▁toimit	-1928
▁vanhimm	-1929
▁hallitus	-1930
▁temppeli	-1931
▁viinitar	-1932
▁hylj	-1933
▁laid	-1934
▁rikko	-1935
▁sella	-1936
▁elämän	-1937
▁lapset	-1938
▁Daavidille	-1939
▁viisikymmen	-1940
jani	-1941
▁här	-1942
▁tien	-1943
▁kotiin	-1944
▁myöskin	-1945
▁päällik	-1946
bin	-1947
eis	-1948
Näin	-1949
▁itä	-1950
▁ked	-1951
▁pet	-1952
▁olin	-1953
▁suit	-1954
▁voin	-1955
▁puhut	-1956
▁niihin	-1957
▁olevan	-1958
▁haur	-1959
▁sovit	-1960
▁kuninka	-1961
▁minulla	-1962
▁päivinä	-1963
▁sotajouk	-1964
▁leeviläiset	-1965
ing	-1966
atin	-1967
illeen	-1968
▁Miksi	-1969
▁mennä	-1970
▁faraon	-1971
▁pyhäkö	-1972
▁sinulla	-1973
▁Benjamin	-1974
▁Jumalani	-1975
▁toimitta	-1976
▁sydämensä	-1977
Ei	-1978
too	-1979
vet	-1980
▁Johan	-1981
▁sydän	-1982
?`	-1983
om	-1984
ytä	-1985
▁Ser	-1986
kasta	-1987
uista	-1988
▁Kuka	-1989
▁huud	-1990
▁puut	-1991
▁huusi	-1992
▁poiki	-1993
▁kuulla	-1994
▁kimppuun	-1995
upol	-1996
viin	-1997
sensa	-1998
▁arma	-1999
▁pääs	-2000
▁seiso	-2001
gyptilä	-2002
▁heillä	-2003
▁korkea	-2004
ettakoon	-2005
▁Kristus	-2006
▁julista	-2007
▁sieluni	-2008
don	-2009
oska	-2010
uste	-2011
eilla	-2012
yyttä	-2013
▁ammon	-2014
▁laupe	-2015
▁minulta	-2016
▁egyptilä	-2017
sten	-2018
▁Kuul	-2019
▁huol	-2020
llansa	-2021
▁monta	-2022
uutensa	-2023
▁laidun	-2024
▁herrani	-2025
▁molemmat	-2026
▁viisikymmentä	-2027
▁arm	-2028
▁lep	-2029
emään	-2030
▁tart	-2031
▁yksin	-2032
▁neljän	-2033
▁etteivät	-2034
▁leiriyty	-2035
▁vihollis	-2036
mor	-2037
nes	-2038
ver	-2039
Älä	-2040
▁eh	-2041
▁Haa	-2042
kalla	-2043
tanne	-2044
tuaan	-2045
▁Eikö	-2046
▁kanta	-2047
▁sisar	-2048
▁tästä	-2049
▁edestä	-2050
▁sanovat	-2051
▁sukupol	-2052
asi	-2053
pih	-2054
rat	-2055
usa	-2056
▁pyhäk	-2057
ilainen	-2058
▁lähettä	-2059
▁kirjoitettu	-2060
▁neljäkymmentä	-2061
aad	-2062
aja	-2063
hot	-2064
▁Na	-2065
päin	-2066
▁vyö	-2067
isenä	-2068
▁kaiv	-2069
▁laus	-2070
▁muka	-2071
▁paha	-2072
▁raava	-2073
▁runsa	-2074
▁ihmiset	-2075
▁kanssani	-2076
llen	-2077
uusi	-2078
▁mal	-2079
▁syt	-2080
matto	-2081
äällä	-2082
▁etkä	-2083
täneet	-2084
▁Jooja	-2085
▁mistä	-2086
▁palat	-2087
▁takaa	-2088
▁velji	-2089
ilaisia	-2090
▁ahdist	-2091
▁näkivät	-2092
▁puoleen	-2093
▁pakanain	-2094
pit	-2095
vot	-2096
▁On	-2097
onut	-2098
uuri	-2099
▁Voi	-2100
▁keh	-2101
▁ulko	-2102
▁vaat	-2103
▁ystä	-2104
▁kultaa	-2105
▁Israelia	-2106
▁taivaasta	-2107
Mene	-2108
imme	-2109
llik	-2110
täni	-2111
uilla	-2112
▁Herr	-2113
▁kaun	-2114
▁saast	-2115
uksesta	-2116
▁Kuinka	-2117
▁tulisi	-2118
▁ruumiin	-2119
▁vastasivat	-2120
▁filistealaisten	-2121
ppa	-2122
vää	-2123
ilah	-2124
tola	-2125
varti	-2126
uudesta	-2127
▁ihmisen	-2128
▁sinusta	-2129
▁älkääkä	-2130
▁hallitsi	-2131
▁joukossa	-2132
ata	-2133
vel	-2134
▁Ar	-2135
▁Ih	-2136
▁Ne	-2137
veli	-2138
ällä	-2139
lapsi	-2140
oittaa	-2141
▁Jooab	-2142
istanut	-2143
▁toista	-2144
▁Assurin	-2145
▁tietämään	-2146
sit	-2147
siir	-2148
▁pyl	-2149
▁rii	-2150
isena	-2151
▁evan	-2152
▁herät	-2153
▁kyllä	-2154
▁pelkä	-2155
▁ruumi	-2156
▁Samari	-2157
▁veljet	-2158
▁karitsa	-2159
▁tyttäri	-2160
kesi	-2161
▁rin	-2162
ramin	-2163
▁polv	-2164
käämme	-2165
▁haure	-2166
▁pääsi	-2167
▁totta	-2168
▁esipih	-2169
▁kirjan	-2170
▁olkoot	-2171
▁paimen	-2172
le	-2173
äksi	-2174
ästy	-2175
▁Maa	-2176
▁lopp	-2177
▁luop	-2178
▁vaik	-2179
ettävä	-2180
kelium	-2181
llista	-2182
netaan	-2183
▁varust	-2184
▁viiden	-2185
mät	-2186
mien	-2187
▁Noo	-2188
▁rat	-2189
Miksi	-2190
aseen	-2191
äänty	-2192
▁lohd	-2193
▁turh	-2194
▁esiin	-2195
▁kestä	-2196
▁uhraa	-2197
▁Pietari	-2198
▁katselm	-2199
▁evankelium	-2200
▁kuningasten	-2201
ho	-2202
▁om	-2203
emen	-2204
kasi	-2205
obea	-2206
▁liha	-2207
▁näet	-2208
▁tahi	-2209
▁jälke	-2210
▁pakko	-2211
▁ranga	-2212
▁kasvoi	-2213
▁ylimmä	-2214
▁päivään	-2215
▁Herralta	-2216
▁kaikessa	-2217
▁paikkaan	-2218
via	-2219
▁Je	-2220
▁leir	-2221
▁Absal	-2222
▁kolmen	-2223
▁kolmekymmentä	-2224
▁israelilaisille	-2225
▁F	-2226
toon	-2227
ingas	-2228
▁Baal	-2229
▁hävä	-2230
▁ruko	-2231
▁siir	-2232
▁vang	-2233
▁vaun	-2234
▁menee	-2235
▁mihin	-2236
▁muita	-2237
▁nosta	-2238
▁veivät	-2239
▁vuodat	-2240
▁ottanut	-2241
iko	-2242
von	-2243
▁kr	-2244
▁puk	-2245
eensa	-2246
ettel	-2247
isistä	-2248
uksesi	-2249
▁Poika	-2250
▁eläim	-2251
▁isäni	-2252
▁vaell	-2253
▁vihaa	-2254
▁aikana	-2255
▁meillä	-2256
▁jotakin	-2257
▁poikani	-2258
▁tulette	-2259
ile	-2260
jana	-2261
▁aja	-2262
tensä	-2263
▁papp	-2264
toivat	-2265
▁puhuu	-2266
▁miekan	-2267
▁vaelta	-2268
▁Jerobea	-2269
▁äitinsä	-2270
immä	-2271
▁kil	-2272
▁sar	-2273
aahan	-2274
kensä	-2275
▁rikka	-2276
▁saada	-2277
▁ylist	-2278
▁Jeremia	-2279
▁Israelissa	-2280
vir	-2281
▁Me	-2282
tesi	-2283
utaan	-2284
▁Eesa	-2285
▁laul	-2286
uhreja	-2287
▁Juuda	-2288
▁pahan	-2289
▁tälle	-2290
▁kukkul	-2291
puolella	-2292
siirtola	-2293
▁Mooabin	-2294
▁isiensä	-2295
▁nimensä	-2296
▁päämieh	-2297
▁laidunma	-2298
▁pakkosiirtola	-2299
En	-2300
ren	-2301
alti	-2302
ouse	-2303
toja	-2304
vali	-2305
ytti	-2306
▁roh	-2307
▁rup	-2308
ukkul	-2309
▁oven	-2310
▁soti	-2311
isensa	-2312
lliset	-2313
▁saman	-2314
▁veren	-2315
istansa	-2316
▁lapsia	-2317
▁nousee	-2318
▁Paavali	-2319
▁hopeata	-2320
▁sisälle	-2321
Tul	-2322
`."	-2323
lei	-2324
puu	-2325
uina	-2326
▁jär	-2327
mättä	-2328
▁kävi	-2329
▁sala	-2330
▁ettekä	-2331
▁teuras	-2332
▁nimeltä	-2333
▁tekevät	-2334
▁Gileadin	-2335
▁Niinkuin	-2336
▁puolelle	-2337
▁Egyptistä	-2338
▁keskuudessa	-2339
emp	-2340
ätä	-2341
▁La	-2342
▁sit	-2343
eliin	-2344
jumal	-2345
isimme	-2346
▁Koska	-2347
▁sanoa	-2348
▁valke	-2349
▁leijon	-2350
▁pakeni	-2351
▁poikia	-2352
▁saatte	-2353
▁toivat	-2354
▁nähneet	-2355
▁maailman	-2356
▁hallitusvuo	-2357
aar	-2358
tal	-2359
osto	-2360
▁Hoo	-2361
▁kah	-2362
arise	-2363
▁eräs	-2364
▁kiro	-2365
isivät	-2366
▁isäsi	-2367
▁tunne	-2368
▁rakenn	-2369
▁auringon	-2370
▁kaikkina	-2371
▁päämiehet	-2372
▁Us	-2373
▁Aha	-2374
▁käd	-2375
ännyt	-2376
▁Myös	-2377
▁astui	-2378
▁kulut	-2379
▁käänn	-2380
▁Samuel	-2381
▁opetta	-2382
▁poikaa	-2383
▁asuivat	-2384
▁kaupungit	-2385
▁temppelissä	-2386
▁laidunmaineen	-2387
eri	-2388
jät	-2389
urs	-2390
yys	-2391
▁jy	-2392
▁vo	-2393
onta	-2394
▁Naa	-2395
▁nöy	-2396
▁puu	-2397
▁isän	-2398
▁teet	-2399
istaan	-2400
llänsä	-2401
▁Siion	-2402
▁hyvän	-2403
▁farise	-2404
▁siemen	-2405
▁kuulivat	-2406
▁totisesti	-2407
ull	-2408
Tämä	-2409
▁tap	-2410
▁kuun	-2411
▁lamm	-2412
utensa	-2413
▁armon	-2414
▁ikinä	-2415
▁muist	-2416
▁uskot	-2417
▁joukko	-2418
▁kerran	-2419
▁laakso	-2420
▁palasi	-2421
▁viiniä	-2422
▁Efraimin	-2423
▁vaimonsa	-2424
▁kuninkaat	-2425
ehti	-2426
▁Gib	-2427
▁Min	-2428
▁kel	-2429
kalta	-2430
tänne	-2431
▁juur	-2432
▁laki	-2433
▁valm	-2434
eitten	-2435
▁Henki	-2436
▁aivan	-2437
▁lampa	-2438
▁panen	-2439
▁pakoon	-2440
▁hänessä	-2441
▁lähimmä	-2442
▁vuorist	-2443
▁kulkivat	-2444
▁synnytti	-2445
▁tekemään	-2446
▁itsellesi	-2447
oog	-2448
tum	-2449
▁tö	-2450
atto	-2451
iska	-2452
mman	-2453
▁Sik	-2454
▁aar	-2455
▁eks	-2456
vansa	-2457
▁asuu	-2458
▁laum	-2459
▁leve	-2460
▁näitä	-2461
▁turmi	-2462
▁hyväksi	-2463
▁jumalan	-2464
▁jumalia	-2465
▁käsivar	-2466
▁rukoili	-2467
▁sinulta	-2468
▁Aabraham	-2469
pyh	-2470
ottu	-2471
▁Lib	-2472
ukoon	-2473
vaksi	-2474
▁alle	-2475
▁veis	-2476
▁ainoa	-2477
▁arkin	-2478
▁kenen	-2479
▁vaski	-2480
▁vihan	-2481
▁viime	-2482
▁asuvat	-2483
▁kertaa	-2484
▁kuolle	-2485
▁noudat	-2486
▁suuret	-2487
▁tahdon	-2488
▁huoneen	-2489
▁kuollut	-2490
▁oikeuden	-2491
▁tapahtui	-2492
▁kuoliaaksi	-2493
▁vaatteensa	-2494
▁juutalaiset	-2495
▁sukukunnasta	-2496
imo	-2497
oot	-2498
▁Pa	-2499
sian	-2500
ukad	-2501
▁pas	-2502
▁elin	-2503
▁hyök	-2504
▁pyst	-2505
▁tois	-2506
▁luota	-2507
▁Kanaan	-2508
▁edellä	-2509
▁oikein	-2510
llisesti	-2511
▁lähellä	-2512
▁uhrilah	-2513
▁oikeutta	-2514
▁pelastaa	-2515
▁valtakun	-2516
▁vanhimmat	-2517
▁valtakunta	-2518
▁sanansaatta	-2519
▁palvelijansa	-2520
Me	-2521
▁[	-2522
aik	-2523
anh	-2524
kil	-2525
utu	-2526
▁yön	-2527
imele	-2528
takaa	-2529
▁kahd	-2530
▁kann	-2531
▁pane	-2532
▁rist	-2533
▁saap	-2534
▁synt	-2535
▁levit	-2536
▁papin	-2537
▁virsi	-2538
▁yöllä	-2539
▁kätesi	-2540
▁peljät	-2541
▁tiedän	-2542
▁toiset	-2543
▁yhdeks	-2544
▁Nebukad	-2545
▁häpeään	-2546
▁lähetän	-2547
▁kuoleman	-2548
▁kaikkiaan	-2549
▁ympärillä	-2550
tyy	-2551
▁Ko	-2552
▁Ta	-2553
▁Men	-2554
▁les	-2555
▁huul	-2556
▁kuiv	-2557
▁kulla	-2558
▁pella	-2559
▁miekka	-2560
▁vastaa	-2561
▁yhteys	-2562
▁Joosefin	-2563
▁annetaan	-2564
▁Jumalansa	-2565
▁tapahtunut	-2566
mit	-2567
ois	-2568
ikko	-2569
otte	-2570
▁Soo	-2571
▁län	-2572
▁pöy	-2573
uille	-2574
▁käsk	-2575
▁lähd	-2576
laiset	-2577
vannut	-2578
▁istui	-2579
▁tykön	-2580
tuhatta	-2581
▁Hiskia	-2582
▁Joosaf	-2583
▁seisoi	-2584
▁täällä	-2585
▁väkevä	-2586
▁Ihmisen	-2587
▁asettui	-2588
▁kansasi	-2589
▁nuoruka	-2590
▁välillä	-2591
▁Kuningas	-2592
isee	-2593
miel	-2594
rjaa	-2595
ältä	-2596
▁Edo	-2597
▁Tul	-2598
▁syv	-2599
▁yhä	-2600
yyden	-2601
ittain	-2602
llisen	-2603
▁elämä	-2604
▁kerub	-2605
▁lihan	-2606
▁rauha	-2607
▁tahdo	-2608
▁vähän	-2609
ikukkul	-2610
▁pakana	-2611
▁profee	-2612
▁jolloin	-2613
▁ruhtinas	-2614
▁Aabrahamin	-2615
▁kaupungissa	-2616
▁filistealaiset	-2617
kuu	-2618
udu	-2619
Niin	-2620
llan	-2621
utan	-2622
▁pun	-2623
▁vel	-2624
astaa	-2625
etaan	-2626
usten	-2627
▁amor	-2628
▁arvo	-2629
▁kerr	-2630
▁kurit	-2631
▁sisään	-2632
▁lähesty	-2633
▁erämaahan	-2634
▁Kristuksessa	-2635
An	-2636
mer	-2637
yyn	-2638
▁ir	-2639
kani	-2640
ppal	-2641
▁Kar	-2642
▁ilo	-2643
▁tel	-2644
▁vap	-2645
▁äid	-2646
oppin	-2647
▁asua	-2648
tuneet	-2649
▁puhun	-2650
▁tuhat	-2651
▁tuhon	-2652
▁kutsut	-2653
▁käskyj	-2654
▁muista	-2655
▁päivät	-2656
▁tahton	-2657
▁tahtoo	-2658
▁laskeut	-2659
▁miesten	-2660
▁paikassa	-2661
▁sijaansa	-2662
▁kanssanne	-2663
▁kuukauden	-2664
▁itsellensä	-2665
me	-2666
hda	-2667
▁Ni	-2668
▁Ra	-2669
▁at	-2670
ikin	-2671
mmin	-2672
tien	-2673
▁hel	-2674
▁kad	-2675
▁tus	-2676
tonsa	-2677
tynyt	-2678
▁nöyr	-2679
▁tuul	-2680
elleen	-2681
kaupun	-2682
udesta	-2683
▁ikään	-2684
▁korot	-2685
▁näkee	-2686
▁riemu	-2687
▁tekoja	-2688
▁ylistä	-2689
▁poikasi	-2690
▁pyhäkkö	-2691
▁rakenta	-2692
▁rakastaa	-2693
▁yhdeksän	-2694
▁päällikkö	-2695
▁uhrikukkul	-2696
era	-2697
mal	-2698
mar	-2699
seen	-2700
▁Eli	-2701
▁Heb	-2702
▁set	-2703
eiksi	-2704
mansa	-2705
▁Eikä	-2706
▁Gibe	-2707
▁terv	-2708
ksensä	-2709
▁juoda	-2710
▁vapaa	-2711
▁vedet	-2712
▁heiltä	-2713
▁heitti	-2714
alaisten	-2715
▁kädessä	-2716
▁Herrassa	-2717
▁Manassen	-2718
▁viinitarh	-2719
ad	-2720
eih	-2721
llin	-2722
▁Elia	-2723
▁säil	-2724
▁vien	-2725
▁hedel	-2726
▁huuta	-2727
▁lihaa	-2728
▁monet	-2729
▁ranka	-2730
▁sadan	-2731
▁vihas	-2732
▁portti	-2733
▁Salomon	-2734
▁sydämeni	-2735
▁Israelille	-2736
▁kaupungista	-2737
tyä	-2738
puna	-2739
▁myö	-2740
▁hope	-2741
▁itki	-2742
▁täyd	-2743
etteli	-2744
▁ettet	-2745
▁farao	-2746
▁hajot	-2747
▁juuri	-2748
▁kulke	-2749
▁pasun	-2750
▁puhta	-2751
▁salli	-2752
▁säädö	-2753
▁vaiva	-2754
▁öljyä	-2755
▁aposto	-2756
▁poltta	-2757
▁saivat	-2758
▁sanoja	-2759
▁surmat	-2760
▁antoivat	-2761
▁kaupunge	-2762
▁sukupolv	-2763
▁saastainen	-2764
Ol	-2765
uvo	-2766
kian	-2767
▁jäi	-2768
äinen	-2769
▁piir	-2770
▁riko	-2771
▁etten	-2772
▁luona	-2773
▁miksi	-2774
▁pahat	-2775
▁sanaa	-2776
▁Heidän	-2777
▁näiden	-2778
▁omaksi	-2779
▁paikka	-2780
▁tuomit	-2781
▁Joonatan	-2782
▁lähtenyt	-2783
▁ruhtinaat	-2784
▁ilmestysmajan	-2785
▁vanhurskauden	-2786
ek	-2787
utte	-2788
voit	-2789
▁Jis	-2790
▁nou	-2791
▁tor	-2792
eiden	-2793
nessa	-2794
▁harj	-2795
▁kaks	-2796
▁maah	-2797
▁taid	-2798
▁ilman	-2799
▁paken	-2800
▁pylvä	-2801
▁rakas	-2802
▁suits	-2803
▁varha	-2804
▁haudat	-2805
▁joutuu	-2806
▁mennyt	-2807
▁rupesi	-2808
▁kumarta	-2809
▁menesty	-2810
▁Egyptiin	-2811
▁Kanaanin	-2812
▁menemään	-2813
▁seurakunnan	-2814
▁juutalaisten	-2815
▁kirjoitettuna	-2816
ili	-2817
raa	-2818
uri	-2819
Kuka	-2820
joja	-2821
tuja	-2822
yden	-2823
▁Reh	-2824
mästä	-2825
▁Dani	-2826
▁aram	-2827
▁raja	-2828
▁tote	-2829
▁void	-2830
▁väij	-2831
etuksi	-2832
▁Tämän	-2833
▁pääse	-2834
▁tuhan	-2835
▁käteni	-2836
▁portin	-2837
▁seassa	-2838
▁iloitse	-2839
▁käsistä	-2840
▁kuluttua	-2841
▁vuorelle	-2842
▁Totisesti	-2843
▁asettuivat	-2844
▁kaksisataa	-2845
▁kuitenkaan	-2846
of	-2847
son	-2848
umi	-2849
teki	-2850
alile	-2851
jassa	-2852
uinen	-2853
äärin	-2854
▁jauh	-2855
▁pidä	-2856
▁autta	-2857
▁nouse	-2858
▁asukka	-2859
▁pannut	-2860
▁saatan	-2861
▁silmät	-2862
▁päämies	-2863
▁rakensi	-2864
▁kaikissa	-2865
▁muutamat	-2866
▁suurella	-2867
▁itselleen	-2868
▁opetuslapsi	-2869
syt	-2870
tun	-2871
insa	-2872
utesi	-2873
▁viet	-2874
▁viik	-2875
▁Elisa	-2876
▁jalka	-2877
▁juoma	-2878
▁paljo	-2879
▁työtä	-2880
▁lapsen	-2881
▁leirin	-2882
▁niillä	-2883
▁rikkom	-2884
▁suuria	-2885
▁panivat	-2886
▁vuotena	-2887
▁Jumalaan	-2888
▁edessäsi	-2889
▁nousivat	-2890
▁silmänsä	-2891
▁palvelijani	-2892
▁leiriytyivät	-2893
Jo	-2894
Se	-2895
po	-2896
kiä	-2897
mel	-2898
eeni	-2899
yttö	-2900
▁tom	-2901
▁ylh	-2902
▁Elea	-2903
▁Sela	-2904
▁alka	-2905
▁saar	-2906
▁tuot	-2907
▁metsä	-2908
▁neuvo	-2909
▁tahto	-2910
▁tehty	-2911
▁toivo	-2912
▁veden	-2913
▁hylkää	-2914
▁kieltä	-2915
▁nainen	-2916
▁sotaan	-2917
▁surmaa	-2918
▁ylitse	-2919
▁etsivät	-2920
▁hävittä	-2921
▁pilkkaa	-2922
▁pojalle	-2923
▁saaneet	-2924
▁kaikelle	-2925
▁ikäänkuin	-2926
On	-2927
▁i	-2928
iit	-2929
isp	-2930
eihin	-2931
▁Veis	-2932
▁asui	-2933
▁huut	-2934
▁keih	-2935
▁sair	-2936
▁vast	-2937
▁kirja	-2938
▁määrä	-2939
▁omaan	-2940
▁puhua	-2941
▁ranna	-2942
▁saira	-2943
istänsä	-2944
▁kuulee	-2945
▁perust	-2946
▁taloon	-2947
▁vuoren	-2948
▁Älköön	-2949
▁syntynyt	-2950
▁perintöos	-2951
▁Benjaminin	-2952
▁hallitusvuotena	-2953
rs	-2954
miä	-2955
uhu	-2956
▁ur	-2957
etan	-2958
keja	-2959
llei	-2960
uisi	-2961
▁its	-2962
▁kier	-2963
▁pien	-2964
▁saav	-2965
▁vaip	-2966
▁ylty	-2967
▁juhla	-2968
▁menen	-2969
▁toisi	-2970
▁tulet	-2971
uttanut	-2972
▁Hengen	-2973
▁heimon	-2974
▁tehkää	-2975
▁tieltä	-2976
▁täytyy	-2977
▁vaivaa	-2978
▁päällys	-2979
▁sydämes	-2980
▁tulessa	-2981
▁miehelle	-2982
▁älköönkä	-2983
▁jälkeensä	-2984
▁profeetat	-2985
Ih	-2986
Hän	-2987
dän	-2988
jän	-2989
kal	-2990
yyd	-2991
koja	-2992
▁iku	-2993
halti	-2994
kille	-2995
patsa	-2996
▁ajan	-2997
▁käär	-2998
▁vase	-2999
▁aasin	-3000
▁häpeä	-3001
▁kalde	-3002
▁selit	-3003
▁sielu	-3004
▁valko	-3005
▁vitsa	-3006
▁Paaval	-3007
▁hengen	-3008
▁lähtee	-3009
▁yhteen	-3010
▁ennusta	-3011
▁sanotte	-3012
▁huusivat	-3013
▁jokaisen	-3014
▁jäljelle	-3015
▁kolmantena	-3016
ag	-3017
nö	-3018
kkin	-3019
mmat	-3020
▁Sid	-3021
▁eli	-3022
▁him	-3023
▁muo	-3024
▁syy	-3025
inten	-3026
mpäri	-3027
▁Ahas	-3028
▁hava	-3029
▁kaur	-3030
▁olle	-3031
▁pita	-3032
kaaksi	-3033
▁Vielä	-3034
▁lakia	-3035
▁laske	-3036
▁puuta	-3037
▁rauni	-3038
▁väkev	-3039
ätoista	-3040
▁Efraim	-3041
▁kanaan	-3042
▁minuun	-3043
▁parann	-3044
▁asumaan	-3045
▁täydell	-3046
▁noudatta	-3047
▁asumuksen	-3048
▁Jerusalemista	-3049
lan	-3050
vos	-3051
▁Et	-3052
▁Pil	-3053
▁myy	-3054
▁nuk	-3055
eessa	-3056
keliä	-3057
ykset	-3058
▁nuol	-3059
▁odot	-3060
▁pitk	-3061
▁rikk	-3062
▁Eivät	-3063
▁edell	-3064
▁maksa	-3065
▁orjan	-3066
▁tuoks	-3067
keuteen	-3068
▁kuussa	-3069
▁sotava	-3070
▁söivät	-3071
lliseksi	-3072
▁annettu	-3073
▁enkelin	-3074
▁hedelmä	-3075
▁minäkin	-3076
▁puhdist	-3077
▁tehtävä	-3078
▁epäjumal	-3079
▁kotiinsa	-3080
▁luokseni	-3081
▁valmista	-3082
▁yltympäri	-3083
▁katselmuksessa	-3084
äti	-3085
isla	-3086
jesi	-3087
tuva	-3088
▁Han	-3089
▁Koo	-3090
▁Kor	-3091
▁Sem	-3092
▁löi	-3093
▁näe	-3094
▁oto	-3095
Minun	-3096
maksi	-3097
ronin	-3098
ukana	-3099
▁omaa	-3100
issaan	-3101
▁Liban	-3102
▁Miika	-3103
▁asuin	-3104
▁katoa	-3105
▁kiusa	-3106
▁korva	-3107
▁kovin	-3108
▁pyhät	-3109
▁vuote	-3110
oilleen	-3111
▁hankki	-3112
▁kuolee	-3113
▁paitsi	-3114
isuuteen	-3115
▁olemaan	-3116
▁tulkoon	-3117
▁veljesi	-3118
▁edessäni	-3119
▁rauhassa	-3120
▁toiselle	-3121
▁vihamieh	-3122
▁keskuudes	-3123
▁seurakunta	-3124
▁taisteluun	-3125
ein	-3126
asto	-3127
irin	-3128
▁Sin	-3129
▁lin	-3130
kuvat	-3131
uhria	-3132
valta	-3133
▁neit	-3134
▁noin	-3135
▁pell	-3136
▁tarv	-3137
Kuinka	-3138
elille	-3139
ettuja	-3140
isella	-3141
▁lähde	-3142
▁matka	-3143
▁annoin	-3144
▁lasten	-3145
▁sinuun	-3146
puolelle	-3147
▁Siionin	-3148
▁milloin	-3149
▁joutuvat	-3150
Min	-3151
jal	-3152
ket	-3153
pin	-3154
sän	-3155
ula	-3156
ulu	-3157
attu	-3158
utaa	-3159
▁kui	-3160
▁kys	-3161
▁mit	-3162
oitan	-3163
tille	-3164
uiksi	-3165
äänsä	-3166
▁Baas	-3167
▁lang	-3168
estään	-3169
▁kosta	-3170
▁lampp	-3171
▁synag	-3172
▁Siihen	-3173
▁alkaen	-3174
▁johdat	-3175
ettäköön	-3176
▁Abimele	-3177
▁kaukana	-3178
▁vanhurskas	-3179
▁kirjanoppin	-3180
▁b	-3181
Kun	-3182
uan	-3183
eser	-3184
▁Mer	-3185
▁koi	-3186
▁ryh	-3187
telee	-3188
veksi	-3189
▁hevo	-3190
▁kiir	-3191
▁maks	-3192
▁rats	-3193
▁tuho	-3194
▁ääni	-3195
▁Sikem	-3196
▁käydä	-3197
▁laski	-3198
▁uhrat	-3199
▁ylipa	-3200
▁äänen	-3201
▁Galile	-3202
▁murhee	-3203
▁puoles	-3204
▁pääsiä	-3205
▁saatta	-3206
▁vaivan	-3207
▁ettette	-3208
▁koskaan	-3209
▁kädestä	-3210
▁parempi	-3211
▁miekalla	-3212
▁ottamaan	-3213
▁valinnut	-3214
▁vääryyttä	-3215
▁alttarilla	-3216
▁perhekunta	-3217
ena	-3218
enn	-3219
nit	-3220
ter	-3221
ajan	-3222
alin	-3223
eman	-3224
kein	-3225
ppur	-3226
Nouse	-3227
eillä	-3228
mistä	-3229
uteni	-3230
Älkää	-3231
▁jätä	-3232
▁löyt	-3233
▁tehd	-3234
▁vied	-3235
▁äiti	-3236
lainen	-3237
▁ensin	-3238
▁happa	-3239
▁jalko	-3240
▁olkaa	-3241
▁kiittä	-3242
▁syövät	-3243
▁täyttä	-3244
oittanut	-3245
▁miekkaan	-3246
▁puolelta	-3247
▁synagoog	-3248
";	-3249
▁in	-3250
ehem	-3251
esin	-3252
uvan	-3253
▁ylä	-3254
aalle	-3255
minen	-3256
▁erot	-3257
▁olko	-3258
▁ylpe	-3259
keihin	-3260
▁Bilea	-3261
yttänyt	-3262
▁niissä	-3263
▁nimeni	-3264
▁riivaa	-3265
▁antakaa	-3266
▁eteensä	-3267
▁veljeni	-3268
▁Herramme	-3269
▁luvannut	-3270
▁mukanaan	-3271
▁asettanut	-3272
▁kanssamme	-3273
op	-3274
lin	-3275
ret	-3276
rip	-3277
oina	-3278
utui	-3279
▁Hes	-3280
▁Mes	-3281
▁Mor	-3282
▁ent	-3283
erran	-3284
ikään	-3285
▁luol	-3286
Menkää	-3287
elevat	-3288
udella	-3289
▁kammi	-3290
▁mitta	-3291
▁nimeä	-3292
▁omais	-3293
▁ääntä	-3294
▁käynyt	-3295
▁puhdas	-3296
▁tappaa	-3297
▁eläimet	-3298
▁nuhteet	-3299
▁peljästy	-3300
▁päivästä	-3301
▁suuresti	-3302
▁tapahtuu	-3303
▁Aaronille	-3304
▁sovituksen	-3305
imp	-3306
▁So	-3307
doka	-3308
etin	-3309
uraa	-3310
▁ano	-3311
▁haa	-3312
▁heh	-3313
▁tie	-3314
Ihmis	-3315
päivä	-3316
isessa	-3317
▁jolle	-3318
▁nälkä	-3319
▁pitkä	-3320
▁pääst	-3321
▁talon	-3322
kaupung	-3323
laisten	-3324
▁nimesi	-3325
▁päänsä	-3326
▁rauhan	-3327
▁Herraan	-3328
▁Mordoka	-3329
▁silmäsi	-3330
▁sydämen	-3331
▁tavalla	-3332
▁peljättä	-3333
▁tunnuste	-3334
▁yksikään	-3335
▁ymmärtävä	-3336
▁lähettivät	-3337
▁jälkeläisten	-3338
▁seitsemäntenä	-3339
▁ympärileikkaa	-3340
por	-3341
kkia	-3342
otin	-3343
ytyi	-3344
▁Abn	-3345
▁rut	-3346
▁ven	-3347
kerta	-3348
▁Jeeh	-3349
▁Sano	-3350
▁Vanh	-3351
▁heti	-3352
▁juon	-3353
▁pauh	-3354
▁samm	-3355
▁seur	-3356
▁teot	-3357
▁asett	-3358
▁hylkä	-3359
▁rauta	-3360
▁tehtä	-3361
alaiset	-3362
ukselle	-3363
▁heittä	-3364
▁kohtaa	-3365
▁metsän	-3366
▁teette	-3367
▁vaelsi	-3368
▁vasemm	-3369
▁voinut	-3370
▁Johanne	-3371
▁aamulla	-3372
▁lisäksi	-3373
▁surmasi	-3374
▁tahansa	-3375
▁vanhurs	-3376
▁varhain	-3377
▁vihansa	-3378
Totisesti	-3379
▁jäljellä	-3380
▁olisivat	-3381
▁ottaneet	-3382
▁sapattin	-3383
▁päällensä	-3384
▁palvelemaan	-3385
iel	-3386
kku	-3387
ona	-3388
▁Da	-3389
▁Ku	-3390
ikon	-3391
kari	-3392
kirj	-3393
▁Ken	-3394
▁Per	-3395
▁avi	-3396
isesi	-3397
tujen	-3398
ukoot	-3399
uteen	-3400
▁Anna	-3401
▁eikö	-3402
▁jalo	-3403
▁kuva	-3404
▁omat	-3405
▁onko	-3406
▁osan	-3407
▁vika	-3408
▁hevos	-3409
▁nosti	-3410
▁tiesi	-3411
itsevat	-3412
▁jonkun	-3413
▁laitum	-3414
▁meistä	-3415
▁tyköni	-3416
▁ihmisiä	-3417
▁näkevät	-3418
▁vaeltaa	-3419
▁autioksi	-3420
▁oikealle	-3421
▁ottakoon	-3422
▁puhuivat	-3423
▁voimalla	-3424
▁Jumalalta	-3425
▁annettiin	-3426
▁Jeesuksessa	-3427
▁ensimmäisenä	-3428
▁polttouhriksi	-3429
io	-3430
yä	-3431
▁Es	-3432
▁Po	-3433
uuli	-3434
▁käv	-3435
▁sav	-3436
isina	-3437
johta	-3438
▁Daan	-3439
▁Laab	-3440
▁ilma	-3441
▁kova	-3442
▁kuus	-3443
▁läpi	-3444
▁osta	-3445
▁työn	-3446
uutesi	-3447
▁Damas	-3448
▁huoma	-3449
▁itään	-3450
▁pidät	-3451
▁tekin	-3452
alainen	-3453
▁huomen	-3454
▁leivän	-3455
▁sekaan	-3456
▁uhreja	-3457
▁armonsa	-3458
▁silmäni	-3459
▁Johannes	-3460
▁halveksi	-3461
▁henkensä	-3462
Ihmislapsi	-3463
▁kuusisataa	-3464
hun	-3465
kot	-3466
ttä	-3467
nous	-3468
uvun	-3469
▁kyn	-3470
▁leh	-3471
jasta	-3472
konsa	-3473
tavat	-3474
ville	-3475
▁horj	-3476
▁koet	-3477
▁piti	-3478
▁rien	-3479
▁altti	-3480
▁henke	-3481
▁katse	-3482
▁makaa	-3483
▁menet	-3484
▁pital	-3485
▁unhot	-3486
▁vahin	-3487
▁vanno	-3488
ilaisen	-3489
▁huomaa	-3490
▁isämme	-3491
▁naisen	-3492
▁näistä	-3493
▁sanani	-3494
▁hävitän	-3495
▁kääntyi	-3496
▁riemuit	-3497
▁tekonsa	-3498
▁äänellä	-3499
▁sydämesi	-3500
▁vastusta	-3501
▁valtakunnan	-3502
▁Nebukadnessa	-3503
uko	-3504
▁ah	-3505
etun	-3506
kkiä	-3507
orin	-3508
▁Est	-3509
▁Pal	-3510
▁rah	-3511
▁Vaan	-3512
▁hämm	-3513
▁puke	-3514
▁suut	-3515
▁toiv	-3516
istasi	-3517
▁hauta	-3518
▁kahta	-3519
▁siltä	-3520
▁virka	-3521
▁Samoin	-3522
▁kantaa	-3523
▁kohden	-3524
▁mullik	-3525
▁neuvon	-3526
▁tuolla	-3527
▁väärin	-3528
▁jauhoja	-3529
▁pitävät	-3530
▁taivaat	-3531
▁mukaansa	-3532
▁sanotaan	-3533
▁vuorella	-3534
▁kunniaksi	-3535
▁Jaakobille	-3536
▁haudattiin	-3537
▁kuolleista	-3538
▁syntiuhriksi	-3539
Te	-3540
Voi	-3541
las	-3542
▁Eu	-3543
anta	-3544
main	-3545
teni	-3546
ukka	-3547
▁auk	-3548
▁ben	-3549
▁hir	-3550
▁put	-3551
▁unh	-3552
Sinun	-3553
atkaa	-3554
eeksi	-3555
oitse	-3556
▁Onko	-3557
▁Siin	-3558
▁alue	-3559
▁main	-3560
▁nähd	-3561
▁olit	-3562
▁sulo	-3563
▁tyhj	-3564
▁uhri	-3565
▁venh	-3566
ettilä	-3567
koivat	-3568
lleita	-3569
▁Eufra	-3570
▁Pilat	-3571
▁Rehab	-3572
▁avasi	-3573
▁ennus	-3574
▁kerska	-3575
▁tuonel	-3576
oittivat	-3577
▁Myöskin	-3578
▁aurinko	-3579
▁käskyjä	-3580
▁minussa	-3581
▁seitsem	-3582
▁sinussa	-3583
▁tykönne	-3584
▁benjamin	-3585
▁heettilä	-3586
▁kaikilla	-3587
▁kaikkiin	-3588
▁kullalla	-3589
▁miehensä	-3590
▁Kaikkival	-3591
▁huoneeseen	-3592
▁kuolemalla	-3593
▁seuraavana	-3594
▁palvelijoita	-3595
:1	-3596
ase	-3597
jäl	-3598
vih	-3599
yvä	-3600
Sano	-3601
aani	-3602
aton	-3603
etyt	-3604
kisi	-3605
raan	-3606
toni	-3607
vehd	-3608
▁Mat	-3609
▁hoi	-3610
▁lie	-3611
▁taa	-3612
▁löyd	-3613
▁tyyn	-3614
▁virh	-3615
ttakaa	-3616
▁Saado	-3617
▁leipä	-3618
▁puoli	-3619
▁tuoma	-3620
▁vuosi	-3621
miseksi	-3622
palveli	-3623
televat	-3624
▁edusta	-3625
▁henkeä	-3626
▁kappal	-3627
▁kolmas	-3628
▁kulkee	-3629
▁mikään	-3630
▁olimme	-3631
uunjohta	-3632
▁Kuulkaa	-3633
▁ratsumi	-3634
▁saattaa	-3635
▁samalla	-3636
▁kansansa	-3637
▁puhumaan	-3638
▁suurempi	-3639
▁tahtonut	-3640
▁polttouhri	-3641
▁käskynhalti	-3642
uunjohtajalle	-3643
▁jumalattomat	-3644
▁opetuslapsensa	-3645
enä	-3646
▁Nä	-3647
etko	-3648
▁Nyt	-3649
▁Tyy	-3650
▁asu	-3651
▁hil	-3652
▁kär	-3653
▁tuk	-3654
janne	-3655
ukses	-3656
▁anti	-3657
▁auta	-3658
▁etel	-3659
issään	-3660
joista	-3661
uttava	-3662
valtaa	-3663
▁Iisak	-3664
▁Siitä	-3665
▁jätti	-3666
▁riita	-3667
▁Absalo	-3668
▁Kuiten	-3669
▁katker	-3670
▁kunink	-3671
▁linnut	-3672
▁muiden	-3673
▁vaarin	-3674
▁kenelle	-3675
▁kuolema	-3676
▁leiriin	-3677
▁noussut	-3678
▁orjanta	-3679
▁äänensä	-3680
▁luokseen	-3681
▁yhtäkään	-3682
▁kuolemaan	-3683
▁seisoivat	-3684
▁viisautta	-3685
▁Jerusalemia	-3686
▁kaupunkeihin	-3687
▁kuusikymmentä	-3688
kky	-3689
lon	-3690
▁Am	-3691
Mikä	-3692
elee	-3693
naul	-3694
seet	-3695
joita	-3696
lehem	-3697
llään	-3698
oilta	-3699
päätä	-3700
telem	-3701
▁Asar	-3702
▁Hero	-3703
▁Pyhä	-3704
▁avaa	-3705
▁hull	-3706
▁kivi	-3707
▁komp	-3708
▁kurj	-3709
kkaani	-3710
llasta	-3711
▁Kuule	-3712
▁ateri	-3713
▁kieli	-3714
▁kiven	-3715
▁lesty	-3716
▁nälän	-3717
iinnaul	-3718
jälkeen	-3719
▁Hebron	-3720
▁Muista	-3721
▁Siellä	-3722
▁heihin	-3723
▁jäänyt	-3724
▁lohdut	-3725
▁oikean	-3726
▁palkka	-3727
▁suunsa	-3728
▁tiedät	-3729
▁uhrasi	-3730
▁Absalom	-3731
▁kuulkaa	-3732
▁seurasi	-3733
▁tehtiin	-3734
▁tulella	-3735
▁tuokoon	-3736
▁valmist	-3737
▁hedelmää	-3738
▁karitsaa	-3739
▁luoksesi	-3740
▁lähettää	-3741
▁rakentaa	-3742
▁tyttäriä	-3743
▁Jerobeamin	-3744
▁kolmesataa	-3745
▁sukukuntaa	-3746
▁polttouhrin	-3747
▁israelilaisia	-3748
▁onnettomuuden	-3749
▁keskuudessanne	-3750
!`	-3751
eg	-3752
laa	-3753
nan	-3754
rah	-3755
Kuul	-3756
iaan	-3757
koin	-3758
kset	-3759
osin	-3760
utua	-3761
▁Gid	-3762
▁mus	-3763
itsen	-3764
jalla	-3765
kenut	-3766
oavat	-3767
sänne	-3768
tomat	-3769
uhrit	-3770
▁heil	-3771
▁kato	-3772
▁luku	-3773
▁luul	-3774
▁vaih	-3775
llisia	-3776
tamaan	-3777
▁Saara	-3778
▁jäsen	-3779
▁kasva	-3780
▁ravit	-3781
telivat	-3782
▁lausui	-3783
▁mereen	-3784
▁neuvoa	-3785
▁poikki	-3786
▁sekoit	-3787
▁synnin	-3788
▁syntin	-3789
itsemaan	-3790
▁Rehabea	-3791
▁ahdista	-3792
▁kunnian	-3793
▁pappien	-3794
▁suitsuk	-3795
▁toiseen	-3796
▁virheet	-3797
▁Joosafat	-3798
▁hedelmät	-3799
▁itseänsä	-3800
▁kerrotta	-3801
▁kuolleet	-3802
▁kysyivät	-3803
▁kyynärän	-3804
▁oikealla	-3805
▁totuuden	-3806
▁tyttären	-3807
▁lähteneet	-3808
▁pyhäkössä	-3809
▁sukukunta	-3810
▁taivaassa	-3811
▁neljäsataa	-3812
▁vankeuteen	-3813
▁amorilaisten	-3814
eka	-3815
kke	-3816
Onko	-3817
Puhu	-3818
kona	-3819
siin	-3820
udet	-3821
ujen	-3822
ukan	-3823
utuu	-3824
▁Ruu	-3825
▁Sel	-3826
▁Ter	-3827
▁pik	-3828
oksen	-3829
äältä	-3830
▁Etel	-3831
▁Leev	-3832
▁astu	-3833
▁jous	-3834
▁järj	-3835
▁lahj	-3836
▁pian	-3837
▁sama	-3838
▁teit	-3839
▁vasi	-3840
▁veri	-3841
anille	-3842
ellesi	-3843
tyivät	-3844
änneet	-3845
▁tutki	-3846
▁vaatt	-3847
▁Aramin	-3848
▁emmekä	-3849
▁hurska	-3850
▁lampun	-3851
▁lepoon	-3852
▁lunast	-3853
▁lähteä	-3854
▁muurin	-3855
▁palaja	-3856
▁suusta	-3857
▁vannot	-3858
▁alttari	-3859
▁lahjoja	-3860
▁puhdista	-3861
▁rannalla	-3862
▁tarvitse	-3863
▁pakenivat	-3864
▁temppeliä	-3865
▁ihmislapsi	-3866
▁itsellenne	-3867
▁palvelijoi	-3868
▁Aabrahamille	-3869
▁vanhurskautta	-3870
ii	-3871
▁u	-3872
▁Yl	-3873
Anna	-3874
elia	-3875
jata	-3876
kana	-3877
olta	-3878
▁Bar	-3879
▁häv	-3880
▁sär	-3881
Jumal	-3882
ellut	-3883
▁Sime	-3884
▁arpa	-3885
▁koti	-3886
essäni	-3887
ikseen	-3888
laisia	-3889
mittaa	-3890
stansa	-3891
takoon	-3892
▁Mooab	-3893
▁annat	-3894
▁hoita	-3895
▁kadot	-3896
▁kädes	-3897
▁lanke	-3898
▁pelto	-3899
▁pilvi	-3900
▁velje	-3901
uksella	-3902
▁Eufrat	-3903
▁Haaman	-3904
▁Ruuben	-3905
▁joista	-3906
▁kuulia	-3907
▁kuulin	-3908
▁oikeus	-3909
▁rauhaa	-3910
▁sotavä	-3911
▁tiellä	-3912
▁valmis	-3913
▁viinin	-3914
▁Iisakin	-3915
▁oinasta	-3916
▁siunasi	-3917
▁talossa	-3918
▁tarkoin	-3919
▁Moosesta	-3920
▁hedelmän	-3921
▁joukosta	-3922
▁kutsunut	-3923
▁lampaita	-3924
▁peljätkö	-3925
▁uskollis	-3926
▁katsomaan	-3927
▁kaupunkeja	-3928
▁tullessaan	-3929
▁leeviläisten	-3930
rm	-3931
Tuo	-3932
ehd	-3933
sir	-3934
sesi	-3935
tuun	-3936
▁Gil	-3937
▁Ota	-3938
▁Tuo	-3939
▁ikä	-3940
▁len	-3941
dotta	-3942
kaksi	-3943
mällä	-3944
▁häpä	-3945
▁käyn	-3946
▁puim	-3947
▁sulj	-3948
▁ulot	-3949
emassa	-3950
▁Sebul	-3951
▁Simon	-3952
▁erään	-3953
▁etelä	-3954
▁saata	-3955
istanne	-3956
▁Ahabin	-3957
▁heikko	-3958
▁koskee	-3959
▁kukist	-3960
▁kuuden	-3961
▁määrät	-3962
▁ojensi	-3963
▁paikan	-3964
▁puolen	-3965
▁vihast	-3966
▁voiton	-3967
▁loppuun	-3968
▁pakanat	-3969
▁valitta	-3970
▁voineet	-3971
▁ymmärtä	-3972
▁faraolle	-3973
▁käteensä	-3974
▁sotavaun	-3975
▁Egyptissä	-3976
▁kumartaen	-3977
▁rangaista	-3978
▁raskaaksi	-3979
▁henkivarti	-3980
▁palvelusta	-3981
▁Kaikkivalti	-3982
▁profeettain	-3983
▁ammonilaisten	-3984
eki	-3985
oaa	-3986
▁Eb	-3987
ettö	-3988
jeni	-3989
ypäl	-3990
▁Ain	-3991
▁Daa	-3992
▁Job	-3993
▁Lee	-3994
▁Naf	-3995
▁Par	-3996
▁Tee	-3997
▁häp	-3998
▁sad	-3999
▁sir	-4000
eksen	-4001
rasta	-4002
▁Amas	-4003
▁ehkä	-4004
▁piil	-4005
▁raat	-4006
▁yötä	-4007
anansa	-4008
assaan	-4009
ijumal	-4010
kseksi	-4011
miehiä	-4012
▁karja	-4013
▁kruun	-4014
▁mieli	-4015
▁pieni	-4016
▁polve	-4017
▁saisi	-4018
▁sukua	-4019
isuuden	-4020
isuutta	-4021
päällik	-4022
▁iltaan	-4023
▁itsesi	-4024
▁kestää	-4025
▁käyvät	-4026
▁luotta	-4027
▁mukana	-4028
▁nähden	-4029
▁siunaa	-4030
▁tykösi	-4031
▁kedolla	-4032
▁punasin	-4033
▁tulevan	-4034
▁vahvist	-4035
▁valtaan	-4036
▁Samarian	-4037
▁esipihan	-4038
▁hävittää	-4039
▁ilmoitti	-4040
▁Baabeliin	-4041
▁Beetlehem	-4042
▁Jumalasta	-4043
▁haureutta	-4044
▁kivijumal	-4045
▁kutsutaan	-4046
▁saattanut	-4047
▁tuntemaan	-4048
▁Israelista	-4049
▁nähdessään	-4050
▁viisisataa	-4051
▁fariseukset	-4052
▁evankeliumia	-4053
▁opetuslapset	-4054
sy	-4055
Ota	-4056
ann	-4057
dad	-4058
est	-4059
hti	-4060
vis	-4061
▁id	-4062
Tule	-4063
atsa	-4064
itti	-4065
ähän	-4066
▁Huu	-4067
▁Var	-4068
▁heb	-4069
▁iho	-4070
▁kup	-4071
▁uud	-4072
tuisi	-4073
▁Beer	-4074
▁Isma	-4075
▁Sodo	-4076
▁aamu	-4077
▁ansa	-4078
▁karj	-4079
▁kost	-4080
▁kylv	-4081
▁onne	-4082
▁pese	-4083
▁sein	-4084
▁talo	-4085
▁vill	-4086
▁väen	-4087
essäsi	-4088
udeksi	-4089
▁Ester	-4090
▁pysty	-4091
▁suosi	-4092
▁suvun	-4093
▁talen	-4094
▁tällä	-4095
▁voisi	-4096
uttavat	-4097
▁Daniel	-4098
▁isänne	-4099
▁joutui	-4100
▁kokosi	-4101
▁myöten	-4102
▁naiset	-4103
▁ohitse	-4104
▁ovelle	-4105
▁puhtaa	-4106
▁puutar	-4107
▁tuleen	-4108
▁tyynni	-4109
▁vetten	-4110
▁ystävä	-4111
▁älkööt	-4112
▁ääreen	-4113
▁hautaan	-4114
▁ihmistä	-4115
▁kääntyy	-4116
▁lampaat	-4117
▁leijona	-4118
▁maailma	-4119
▁orjatta	-4120
▁ottakaa	-4121
▁paikkaa	-4122
▁poikien	-4123
▁sapatin	-4124
▁sekeliä	-4125
▁viisaus	-4126
▁Jokainen	-4127
▁kasvonsa	-4128
▁keskelle	-4129
▁tiedämme	-4130
▁palasivat	-4131
▁sapattina	-4132
▁sellaista	-4133
▁jumalattom	-4134
▁pakanakansa	-4135
▁ristiinnaul	-4136
▁palvelijattar	-4137
rä	-4138
.`"	-4139
ban	-4140
eon	-4141
tio	-4142
▁Ad	-4143
baal	-4144
dian	-4145
hdet	-4146
htaa	-4147
kuun	-4148
tään	-4149
ästi	-4150
▁Ged	-4151
▁Jef	-4152
▁Mee	-4153
attom	-4154
eläim	-4155
jille	-4156
maton	-4157
oneet	-4158
ppura	-4159
▁herr	-4160
▁kaul	-4161
▁luot	-4162
▁riit	-4163
▁siiv	-4164
▁vetä	-4165
lasten	-4166
miseen	-4167
takaan	-4168
▁Aasaf	-4169
▁Baala	-4170
▁kauka	-4171
▁koske	-4172
▁nimet	-4173
▁osast	-4174
▁ryöst	-4175
▁saali	-4176
▁tuoda	-4177
▁Leevin	-4178
▁kertoi	-4179
▁murska	-4180
▁päähän	-4181
▁teissä	-4182
▁tunten	-4183
▁vuoret	-4184
▁sanokaa	-4185
▁viikuna	-4186
▁lisäänty	-4187
▁kaltainen	-4188
▁kauhistus	-4189
kymmenentenä	-4190
▁Johanneksen	-4191
Sa	-4192
Vi	-4193
jet	-4194
kor	-4195
sto	-4196
daan	-4197
jäin	-4198
ooab	-4199
pien	-4200
rjat	-4201
ytän	-4202
▁Sef	-4203
▁aiv	-4204
▁lev	-4205
▁vis	-4206
isuus	-4207
tensa	-4208
▁Ahab	-4209
▁Hasa	-4210
▁kaut	-4211
▁kumm	-4212
▁näkö	-4213
▁paul	-4214
▁pyyd	-4215
▁veli	-4216
▁viip	-4217
▁vuoh	-4218
▁Abner	-4219
▁arkki	-4220
▁hovih	-4221
▁pyysi	-4222
▁rinta	-4223
▁uuden	-4224
astansa	-4225
▁annoit	-4226
▁asetta	-4227
▁huudan	-4228
▁kasvot	-4229
▁kunkin	-4230
▁näette	-4231
▁poltti	-4232
▁vailla	-4233
▁voidel	-4234
▁ihmeitä	-4235
▁kansoja	-4236
▁olleita	-4237
▁pellava	-4238
▁pitäkää	-4239
▁pitänyt	-4240
▁suitsut	-4241
▁ymmärrä	-4242
▁itseänne	-4243
▁kirkkaus	-4244
▁liitonar	-4245
▁myöskään	-4246
▁syntivel	-4247
▁säädöksi	-4248
▁tiedätte	-4249
▁ylösnous	-4250
▁Kuitenkin	-4251
▁kenenkään	-4252
▁ruumiinsa	-4253
▁taivasten	-4254
▁ylimmäinen	-4255
▁kerrottavaa	-4256
▁vihollisten	-4257
▁kokoontuivat	-4258
▁polttouhreja	-4259
▁kaldealaisten	-4260
kua	-4261
▁Hä	-4262
eina	-4263
kien	-4264
tuna	-4265
ukko	-4266
vuot	-4267
▁Vai	-4268
▁pyö	-4269
ennut	-4270
ielin	-4271
kinen	-4272
kinsa	-4273
mpaan	-4274
nessä	-4275
ttekö	-4276
umäär	-4277
virsi	-4278
▁Misp	-4279
▁Saaf	-4280
▁Siih	-4281
▁poja	-4282
▁riis	-4283
▁suvu	-4284
▁tall	-4285
▁tein	-4286
▁yönä	-4287
elleet	-4288
ematta	-4289
laisen	-4290
mattom	-4291
▁enkel	-4292
▁lopun	-4293
▁nuori	-4294
▁pyhän	-4295
▁saarn	-4296
päivänä	-4297
▁Joonat	-4298
▁kasvat	-4299
▁lakkaa	-4300
▁maanpi	-4301
▁makasi	-4302
▁muille	-4303
▁opetti	-4304
▁suurta	-4305
▁syyttä	-4306
▁toteen	-4307
▁vankil	-4308
▁voitti	-4309
kätähden	-4310
▁lestyjä	-4311
▁lunasta	-4312
▁menevät	-4313
▁ruhtina	-4314
▁teurast	-4315
▁täyteen	-4316
▁ilmestyi	-4317
▁kiitosta	-4318
▁lapsensa	-4319
▁nousevat	-4320
▁sanomaan	-4321
▁vihastui	-4322
punaisista	-4323
tenätoista	-4324
▁Jeremialle	-4325
▁taivaaseen	-4326
▁ensimmäinen	-4327
▁kaksikymmen	-4328
▁kolmenkymmenen	-4329
kum	-4330
▁ke	-4331
itoa	-4332
paik	-4333
▁Aro	-4334
▁Tar	-4335
▁Uur	-4336
▁opp	-4337
▁til	-4338
Missä	-4339
kammi	-4340
oiden	-4341
rella	-4342
ustaa	-4343
▁Naab	-4344
▁asia	-4345
▁hyöd	-4346
▁maja	-4347
▁meri	-4348
▁myrs	-4349
eitsen	-4350
isilla	-4351
itseva	-4352
ydessä	-4353
▁asuva	-4354
▁huone	-4355
▁kiviä	-4356
▁kokoa	-4357
▁kuiva	-4358
▁kuole	-4359
▁kuulu	-4360
▁käsin	-4361
▁millä	-4362
▁pikku	-4363
▁puhal	-4364
▁sauva	-4365
▁syökö	-4366
▁syötä	-4367
▁tappa	-4368
▁tosin	-4369
uksissa	-4370
▁Baabel	-4371
▁Eesaun	-4372
▁Naatan	-4373
▁Vaikka	-4374
▁hamaan	-4375
▁juoksi	-4376
▁linnan	-4377
▁maansa	-4378
▁tuomio	-4379
▁vihani	-4380
▁erämaan	-4381
▁henkeni	-4382
▁itseäsi	-4383
▁kädellä	-4384
▁niitten	-4385
▁polveut	-4386
▁puolell	-4387
▁rauhaan	-4388
▁valtasi	-4389
ettaisiin	-4390
▁Saulille	-4391
▁edessään	-4392
▁hämmästy	-4393
▁miehille	-4394
▁sadanpää	-4395
▁alttiiksi	-4396
▁hyljännyt	-4397
▁keskenään	-4398
▁laupeuden	-4399
▁perhekunn	-4400
▁poikiensa	-4401
▁seurasivat	-4402
▁ilmoittanut	-4403
▁onnettomuus	-4404
▁ilmoitettiin	-4405
tt	-4406
`".	-4407
elu	-4408
iti	-4409
non	-4410
peä	-4411
res	-4412
ysi	-4413
Joka	-4414
ekka	-4415
kast	-4416
kele	-4417
▁Aah	-4418
▁Keh	-4419
▁Mah	-4420
▁ast	-4421
▁ped	-4422
▁sii	-4423
▁väs	-4424
ettää	-4425
ilipp	-4426
milla	-4427
mäksi	-4428
tenne	-4429
vista	-4430
▁haav	-4431
▁kuor	-4432
▁otan	-4433
▁pako	-4434
▁vala	-4435
estäsi	-4436
istään	-4437
kkansa	-4438
▁Isäni	-4439
▁Juude	-4440
▁Pojan	-4441
▁Sakar	-4442
▁aseta	-4443
▁jättä	-4444
▁kiitä	-4445
▁palaa	-4446
▁salaa	-4447
▁sidot	-4448
▁tulin	-4449
▁tulta	-4450
istivat	-4451
▁edeltä	-4452
▁joihin	-4453
▁korvat	-4454
▁nimeen	-4455
▁odotta	-4456
▁oinaan	-4457
▁pilkka	-4458
▁pyhien	-4459
▁tekevä	-4460
▁vaimoa	-4461
▁Joojaki	-4462
▁Manasse	-4463
▁Pilatus	-4464
▁nimeäsi	-4465
▁rakkaus	-4466
▁suvusta	-4467
▁valalla	-4468
▁huomenna	-4469
▁häväisty	-4470
▁kaatuvat	-4471
▁kullasta	-4472
▁kuulevat	-4473
▁liittoni	-4474
▁mielisty	-4475
▁muutamia	-4476
▁saalista	-4477
▁Jumalaasi	-4478
▁eteenpäin	-4479
▁ilmoittaa	-4480
▁lupauksen	-4481
▁noudattaa	-4482
▁veljiensä	-4483
▁väkivalta	-4484
▁ylimmäisen	-4485
▁ainoatakaan	-4486
▁egyptiläiset	-4487
▁Nebukadnessar	-4488
eä	-4489
aap	-4490
ang	-4491
gal	-4492
skaa	-4493
ttia	-4494
yhky	-4495
▁Boo	-4496
▁Loo	-4497
▁Val	-4498
▁kaa	-4499
▁kam	-4500
▁vat	-4501
▁yll	-4502
ettua	-4503
onnut	-4504
tyvät	-4505
uusti	-4506
▁Geer	-4507
▁apua	-4508
▁halu	-4509
▁käyt	-4510
▁nope	-4511
▁raha	-4512
▁viiv	-4513
elivat	-4514
isensä	-4515
isevat	-4516
palvel	-4517
uuteni	-4518
yyteen	-4519
▁Maria	-4520
▁elävä	-4521
▁loppu	-4522
▁miten	-4523
▁töitä	-4524
ettuina	-4525
ittäkää	-4526
uttivat	-4527
▁Filipp	-4528
▁kallis	-4529
▁kiitos	-4530
▁näyttä	-4531
▁näänty	-4532
▁paasto	-4533
▁päältä	-4534
▁ruuben	-4535
▁teihin	-4536
▁teiltä	-4537
▁tulkaa	-4538
▁vallan	-4539
▁virran	-4540
kirjassa	-4541
▁Aasafin	-4542
▁asettaa	-4543
▁kiinnit	-4544
▁maakunn	-4545
▁ottavat	-4546
▁puhuvat	-4547
▁seitsen	-4548
▁silmäin	-4549
▁vedessä	-4550
▁ääressä	-4551
ilaisille	-4552
uudestaan	-4553
▁Jerobeam	-4554
▁Paavalin	-4555
▁antakoon	-4556
▁huutavat	-4557
▁kansasta	-4558
▁kasvojen	-4559
▁lukumäär	-4560
▁vaatteet	-4561
▁vaimoksi	-4562
▁esikoinen	-4563
▁kiiruusti	-4564
▁happamatto	-4565
▁rakastavat	-4566
▁ylösnousem	-4567
▁synnyttänyt	-4568
kur	-4569
mma	-4570
ruo	-4571
seb	-4572
▁hu	-4573
▁su	-4574
Eikö	-4575
aasi	-4576
haan	-4577
ukin	-4578
▁Kir	-4579
▁lyh	-4580
▁söi	-4581
ebusi	-4582
itaan	-4583
llasi	-4584
mässä	-4585
paika	-4586
sasta	-4587
uihin	-4588
▁Jesa	-4589
▁ajaa	-4590
▁hela	-4591
▁lask	-4592
▁leip	-4593
▁viid	-4594
▁viit	-4595
istani	-4596
▁alati	-4597
▁alkoi	-4598
▁kättä	-4599
▁köyhä	-4600
▁mahta	-4601
▁panee	-4602
▁rohke	-4603
▁vihki	-4604
ettuaan	-4605
▁Edomin	-4606
▁elävän	-4607
▁joissa	-4608
▁kelvot	-4609
▁kiitän	-4610
▁liitto	-4611
▁olitte	-4612
▁ruokaa	-4613
▁sanasi	-4614
▁tuokaa	-4615
▁viinip	-4616
▁voiman	-4617
▁asuinsi	-4618
▁helakan	-4619
▁iankaik	-4620
▁kuukaut	-4621
▁kärsivä	-4622
▁lankesi	-4623
▁peittää	-4624
▁toisena	-4625
▁tänäkin	-4626
▁joukkoon	-4627
▁keskeltä	-4628
▁rangaist	-4629
▁seurakun	-4630
▁tarkasta	-4631
▁tuhannen	-4632
▁ylipapit	-4633
▁Salomolle	-4634
▁ovenvarti	-4635
▁sukujensa	-4636
▁rakentanut	-4637
▁surmasivat	-4638
▁tyttärensä	-4639
▁väkivaltaa	-4640
▁muukalainen	-4641
▁jumalattoman	-4642
efa	-4643
eti	-4644
iha	-4645
mpi	-4646
▁Be	-4647
mita	-4648
yvät	-4649
▁Isa	-4650
▁Jed	-4651
▁nah	-4652
▁ylp	-4653
aljan	-4654
koita	-4655
vänsä	-4656
änään	-4657
▁asun	-4658
▁gaad	-4659
▁halp	-4660
▁hiil	-4661
▁irti	-4662
▁itke	-4663
▁kast	-4664
▁mull	-4665
▁pysä	-4666
▁ruoh	-4667
▁tutk	-4668
▁uusi	-4669
▁vask	-4670
▁Assur	-4671
▁Pyhän	-4672
▁hebre	-4673
▁heinä	-4674
▁johta	-4675
▁kauas	-4676
▁kedon	-4677
▁kerra	-4678
▁liian	-4679
▁mooab	-4680
▁patsa	-4681
▁silmä	-4682
▁tuhoa	-4683
▁vaati	-4684
▁vaina	-4685
▁valmi	-4686
▁öljyp	-4687
assansa	-4688
ittävät	-4689
ukselta	-4690
uttakaa	-4691
uudella	-4692
yydessä	-4693
▁Baalin	-4694
▁Isaska	-4695
▁Naftal	-4696
▁Sidkia	-4697
▁alusta	-4698
▁hyljät	-4699
▁hyökkä	-4700
▁kasvaa	-4701
▁kuuluu	-4702
▁omasta	-4703
▁paljoa	-4704
▁piirit	-4705
▁sivuva	-4706
▁suorit	-4707
▁tahdot	-4708
▁unhota	-4709
▁kirjaan	-4710
▁kuullen	-4711
▁muutoin	-4712
▁pesköön	-4713
▁talonsa	-4714
ettäväksi	-4715
isuudessa	-4716
kaupungit	-4717
▁Abimelek	-4718
▁jäljessä	-4719
▁sielunsa	-4720
▁suuressa	-4721
▁vaivannä	-4722
▁annettava	-4723
▁jumalanku	-4724
▁miehenpuol	-4725
▁palvelivat	-4726
▁sotajoukon	-4727
▁sukukunnan	-4728
▁paikoilleen	-4729
▁valtakuntaa	-4730
▁evankeliumin	-4731
▁iankaikkisen	-4732
▁ulkopuolelle	-4733
▁ympärileikka	-4734
▁filistealaisia	-4735
▁kahdenkymmenen	-4736
moa	-4737
mot	-4738
tto	-4739
▁Ga	-4740
ehto	-4741
huon	-4742
idon	-4743
issi	-4744
ukaa	-4745
vään	-4746
▁Aas	-4747
▁Abi	-4748
▁Goo	-4749
▁Mid	-4750
▁Oob	-4751
▁Pel	-4752
▁Sei	-4753
▁Tah	-4754
▁Vuo	-4755
▁hap	-4756
▁jän	-4757
▁kyp	-4758
▁pud	-4759
▁tav	-4760
empia	-4761
valla	-4762
▁Autu	-4763
▁Hesb	-4764
▁eläm	-4765
▁elän	-4766
▁hala	-4767
▁mahd	-4768
▁merk	-4769
▁muun	-4770
▁repä	-4771
▁riid	-4772
anneet	-4773
llänne	-4774
miestä	-4775
▁Eesau	-4776
▁Jeehu	-4777
▁armoa	-4778
▁asuka	-4779
▁ellei	-4780
▁etsin	-4781
▁hetke	-4782
▁härkä	-4783
▁istuu	-4784
▁kokon	-4785
▁rypäl	-4786
▁suuni	-4787
▁Eleasa	-4788
▁auttaa	-4789
▁jebusi	-4790
▁joukon	-4791
▁kuului	-4792
▁neuvot	-4793
▁perinn	-4794
▁päästi	-4795
▁surman	-4796
▁tavoit	-4797
▁toivon	-4798
▁vienyt	-4799
▁väisty	-4800
istaneet	-4801
▁Libanon	-4802
▁kasvosi	-4803
▁menneet	-4804
▁mittasi	-4805
▁nimessä	-4806
▁tarttui	-4807
▁Daavidia	-4808
▁jättänyt	-4809
▁löytänyt	-4810
▁silmiesi	-4811
▁sotimaan	-4812
▁suureksi	-4813
▁teurasta	-4814
▁asukkaita	-4815
▁pyhitetty	-4816
▁runsaasti	-4817
▁taivaissa	-4818
▁vaeltavat	-4819
▁viisauden	-4820
▁Senjälkeen	-4821
▁alttarille	-4822
▁kuninkaita	-4823
▁sotajoukko	-4824
▁ymmärrystä	-4825
▁kaupungeissa	-4826
▁ulkopuolella	-4827
▁leeviläisille	-4828
▁kirjanoppineet	-4829
▁palvelijallesi	-4830
dar	-4831
iri	-4832
per	-4833
aleb	-4834
atar	-4835
eena	-4836
ehet	-4837
peen	-4838
▁Iis	-4839
▁mun	-4840
▁reh	-4841
eesta	-4842
itsan	-4843
▁Isän	-4844
▁Kolm	-4845
▁huna	-4846
▁ikia	-4847
▁joud	-4848
▁punn	-4849
▁pääh	-4850
▁reun	-4851
▁sorm	-4852
▁suol	-4853
maleki	-4854
oineen	-4855
▁Missä	-4856
▁eloon	-4857
▁joudu	-4858
▁kalut	-4859
▁kaste	-4860
▁käden	-4861
▁rikas	-4862
▁samaa	-4863
▁tehkö	-4864
▁tyttö	-4865
▁usein	-4866
▁vaari	-4867
▁äidin	-4868
illensa	-4869
uksenne	-4870
▁Eteläm	-4871
▁Seitse	-4872
▁avuksi	-4873
▁juokse	-4874
▁kulkea	-4875
▁kullan	-4876
▁setrip	-4877
▁syttyi	-4878
▁tuulen	-4879
▁viisas	-4880
▁Hiskian	-4881
▁armahda	-4882
▁armahta	-4883
▁itsenne	-4884
▁pelastu	-4885
▁pitivät	-4886
▁tuomion	-4887
▁tuotiin	-4888
▁turhaan	-4889
▁täyttää	-4890
▁valkeus	-4891
▁Jeremian	-4892
▁Sebaotin	-4893
▁ajatteli	-4894
▁astuivat	-4895
▁herransa	-4896
▁jalkansa	-4897
▁katsokaa	-4898
▁kuluttaa	-4899
▁tyttäret	-4900
▁voimasta	-4901
▁heittivät	-4902
▁jumalaton	-4903
▁käskyjäni	-4904
▁sydämenne	-4905
▁hyljänneet	-4906
▁sukupolveen	-4907
▁vanhurskaus	-4908
▁iankaikkinen	-4909
▁saastaiseksi	-4910
▁sukupolvesta	-4911
▁seitsemänsataa	-4912
bad	-4913
gen	-4914
ias	-4915
lit	-4916
stu	-4917
ydy	-4918
▁Ti	-4919
▁To	-4920
▁uu	-4921
elan	-4922
eria	-4923
usti	-4924
öitä	-4925
▁Asa	-4926
▁Hil	-4927
▁Suu	-4928
▁läv	-4929
▁urh	-4930
eella	-4931
iseni	-4932
mättö	-4933
rinsä	-4934
▁Aasa	-4935
▁itku	-4936
▁luov	-4937
▁ovet	-4938
▁pilv	-4939
▁soke	-4940
▁syrj	-4941
▁särj	-4942
▁säät	-4943
▁vähä	-4944
▁ylim	-4945
emasta	-4946
inensä	-4947
istäni	-4948
kannut	-4949
ppuran	-4950
vainen	-4951
▁Jisre	-4952
▁askel	-4953
▁ihmee	-4954
▁istut	-4955
▁pantu	-4956
▁poist	-4957
▁synne	-4958
▁uppin	-4959
▁uskoo	-4960
ellensä	-4961
▁Gilead	-4962
▁Kaaleb	-4963
▁Kirjat	-4964
▁Niinpä	-4965
▁jäännö	-4966
▁kantel	-4967
▁katsel	-4968
▁kolmet	-4969
▁käskyt	-4970
▁neitsy	-4971
▁nälänh	-4972
▁olisin	-4973
▁omista	-4974
▁päiviä	-4975
▁sallin	-4976
▁tahtoi	-4977
▁turvaa	-4978
▁täytän	-4979
▁vangit	-4980
▁veisaa	-4981
▁voimaa	-4982
▁äitini	-4983
uttamaan	-4984
▁Eleasar	-4985
▁Joosuan	-4986
▁hyökkää	-4987
▁opettaa	-4988
▁otetaan	-4989
▁papille	-4990
▁rakasti	-4991
▁rankais	-4992
▁sankari	-4993
▁sekelin	-4994
▁tuottaa	-4995
▁kaikkein	-4996
▁kumartui	-4997
▁kuoltava	-4998
▁matkalla	-4999
▁matkalle	-5000
▁nopeasti	-5001
▁saisivat	-5002
▁valhetta	-5003
▁Vanhurska	-5004
▁kirjoitti	-5005
▁kulkemaan	-5006
▁talenttia	-5007
▁uppiniska	-5008
▁vapaaehto	-5009
▁ympärinsä	-5010
▁armollinen	-5011
▁suvuittain	-5012
▁uskollinen	-5013
▁vastapäätä	-5014
▁veljilleen	-5015
▁kaupunkinsa	-5016
▁aikakirjassa	-5017
▁kaupungeista	-5018
▁sukukunnalta	-5019
▁henkivartijain	-5020
▁sanansaattajat	-5021
▁valtaistuimella	-5022
`?	-5023
bi	-5024
og	-5025
evä	-5026
kkä	-5027
nös	-5028
uku	-5029
äjä	-5030
aana	-5031
eura	-5032
inna	-5033
onna	-5034
▁Ara	-5035
▁pät	-5036
▁sod	-5037
▁ves	-5038
altta	-5039
eenne	-5040
imiin	-5041
istää	-5042
kkiin	-5043
llani	-5044
ressa	-5045
silla	-5046
telin	-5047
tojen	-5048
▁Ahit	-5049
▁Eela	-5050
▁Siil	-5051
▁Siim	-5052
▁arvi	-5053
▁kuoh	-5054
▁oles	-5055
▁pyyh	-5056
▁syyt	-5057
▁työs	-5058
▁vaiv	-5059
ellaan	-5060
isellä	-5061
isessä	-5062
puusta	-5063
▁Hamat	-5064
▁Netan	-5065
▁Nouse	-5066
▁huuto	-5067
▁itses	-5068
▁kapin	-5069
▁kaval	-5070
▁kohot	-5071
▁luvun	-5072
▁sinet	-5073
▁tyhjä	-5074
▁uhrin	-5075
▁valvo	-5076
▁viera	-5077
▁viipy	-5078
astanut	-5079
atanter	-5080
oitettu	-5081
yksensä	-5082
▁Egypti	-5083
▁Gideon	-5084
▁aivoit	-5085
▁alttar	-5086
▁asetan	-5087
▁esille	-5088
▁heilut	-5089
▁jalope	-5090
▁kauris	-5091
▁nostaa	-5092
▁otettu	-5093
▁ovella	-5094
▁pahoin	-5095
▁tykönä	-5096
▁veljiä	-5097
▁viljaa	-5098
▁Jerikon	-5099
▁halpana	-5100
▁hamasta	-5101
▁henkiin	-5102
▁hevoset	-5103
▁hyvänsä	-5104
▁menköön	-5105
▁palvele	-5106
▁polveen	-5107
▁pyhäkön	-5108
▁saaliin	-5109
▁syömään	-5110
▁öljyllä	-5111
▁edelleen	-5112
▁heinäsir	-5113
▁istuivat	-5114
▁joutuisi	-5115
▁mullikka	-5116
▁vahvista	-5117
▁itselleni	-5118
▁kansakunn	-5119
▁korkealle	-5120
▁pakanakan	-5121
▁pojilleen	-5122
▁purppuran	-5123
▁pyhäkköön	-5124
▁sanottiin	-5125
▁vihollisi	-5126
▁kasvojensa	-5127
▁pelastuksen	-5128
▁sydämessään	-5129
▁onnettomuutta	-5130
▁vihollistensa	-5131
▁perhekunnittain	-5132
ny	-5133
kir	-5134
isan	-5135
koni	-5136
urit	-5137
yssä	-5138
▁Amm	-5139
▁Sil	-5140
▁nur	-5141
▁rip	-5142
aliit	-5143
villa	-5144
yksiä	-5145
▁Maan	-5146
▁Mene	-5147
▁kyyn	-5148
▁selä	-5149
▁sito	-5150
▁tyhm	-5151
▁valo	-5152
▁voim	-5153
Jumala	-5154
ettynä	-5155
ittäin	-5156
osivat	-5157
portin	-5158
umasta	-5159
utuvat	-5160
▁huoka	-5161
▁kauhu	-5162
▁kuoll	-5163
▁muuri	-5164
▁pelko	-5165
▁porte	-5166
▁pyhää	-5167
▁tekoa	-5168
▁vahva	-5169
▁vaipp	-5170
▁vaiti	-5171
▁valan	-5172
miesten	-5173
▁Gilgal	-5174
▁hautaa	-5175
▁istuim	-5176
▁karjan	-5177
▁kuljet	-5178
▁kuulet	-5179
▁maalle	-5180
▁omiksi	-5181
▁ruumis	-5182
▁teemme	-5183
▁tielle	-5184
▁vahing	-5185
▁valtaa	-5186
▁vihasi	-5187
▁Siinain	-5188
▁käsiisi	-5189
▁noudata	-5190
▁teoista	-5191
▁voittaa	-5192
oittaneet	-5193
▁Mordokai	-5194
▁ilmoitan	-5195
▁kansaani	-5196
▁kirjoita	-5197
▁laaksoon	-5198
▁papeille	-5199
▁pellaval	-5200
▁perhekun	-5201
▁säädetty	-5202
▁vannonut	-5203
▁Joosualle	-5204
▁edellänsä	-5205
▁joutuivat	-5206
▁kasvojeni	-5207
▁kuukautta	-5208
▁ollessaan	-5209
▁puhutteli	-5210
▁päättänyt	-5211
▁valloitti	-5212
▁vanhinten	-5213
▁kaikkialla	-5214
▁kirkkauden	-5215
▁pelkäsivät	-5216
▁ruokauhrin	-5217
▁vasemmalle	-5218
▁juutalaisia	-5219
▁profeettoja	-5220
▁puimatanter	-5221
▁sotapäällik	-5222
▁jälkeläisistä	-5223
▁perintöosansa	-5224
▁seurakunnalle	-5225
Ra	-5226
ji	-5227
äy	-5228
htä	-5229
juh	-5230
juo	-5231
kis	-5232
ania	-5233
anja	-5234
peta	-5235
vani	-5236
▁Läh	-5237
▁loi	-5238
eista	-5239
emmin	-5240
kanta	-5241
keita	-5242
nestä	-5243
ssani	-5244
uonna	-5245
uusin	-5246
▁ajoi	-5247
▁iäti	-5248
▁lyön	-5249
▁muur	-5250
▁näen	-5251
▁omin	-5252
▁otsa	-5253
▁tait	-5254
tuista	-5255
utunut	-5256
▁Abram	-5257
▁aarre	-5258
▁koton	-5259
▁kädet	-5260
▁majan	-5261
▁oinas	-5262
▁veisa	-5263
uksilla	-5264
▁Ettekö	-5265
▁Joohan	-5266
▁Midian	-5267
▁Simson	-5268
▁havait	-5269
▁kaatuu	-5270
▁kokoan	-5271
▁kävisi	-5272
▁maitoa	-5273
▁pimeys	-5274
▁rukous	-5275
▁syönyt	-5276
▁vaimot	-5277
▁ympärö	-5278
istetaan	-5279
llisiksi	-5280
▁amaleki	-5281
▁elämään	-5282
▁itseään	-5283
▁niskoit	-5284
▁pelkäsi	-5285
▁sanovan	-5286
▁tiennyt	-5287
▁tuoneet	-5288
▁viereen	-5289
▁ylitsen	-5290
▁etsimään	-5291
▁heimolle	-5292
▁kuolevat	-5293
▁käsiinsä	-5294
▁mullikan	-5295
▁omaksesi	-5296
▁palvella	-5297
▁pimeyden	-5298
▁päiväksi	-5299
▁sanoneet	-5300
▁tahdotte	-5301
▁tultuaan	-5302
▁uskoneet	-5303
▁vuorille	-5304
▁kansaansa	-5305
▁kansoille	-5306
▁laupeutta	-5307
▁sisarensa	-5308
▁voittivat	-5309
▁Joonatanin	-5310
▁jokaiselle	-5311
▁kuningatar	-5312
▁kääntyivät	-5313
▁pelastanut	-5314
▁pohjoiseen	-5315
▁vihollisen	-5316
▁vuoristoon	-5317
▁kaikkeinpyh	-5318
▁kaltaiseksi	-5319
▁palvelijain	-5320
▁valmistanut	-5321
▁vanhurskaan	-5322
▁jumalattomien	-5323
Et	-5324
Her	-5325
eks	-5326
yst	-5327
▁Ef	-5328
dota	-5329
emmä	-5330
etyn	-5331
mana	-5332
neen	-5333
seni	-5334
uosi	-5335
utun	-5336
uuni	-5337
ääri	-5338
▁Har	-5339
▁Laa	-5340
▁Rab	-5341
▁Reb	-5342
▁sik	-5343
▁syl	-5344
▁uut	-5345
ellen	-5346
kaasi	-5347
kojen	-5348
ksiin	-5349
viisi	-5350
▁Olen	-5351
▁eksy	-5352
▁ihan	-5353
▁kosk	-5354
▁laud	-5355
▁luut	-5356
▁suuh	-5357
▁tiel	-5358
▁ylhä	-5359
Tulkaa	-5360
atkoon	-5361
eserin	-5362
miehen	-5363
Älköön	-5364
▁Oobed	-5365
▁alama	-5366
▁asian	-5367
▁hekin	-5368
▁härän	-5369
▁maasi	-5370
▁niinä	-5371
▁tasan	-5372
▁vakoi	-5373
▁vanke	-5374
▁vietä	-5375
alaisia	-5376
iläiset	-5377
issänsä	-5378
ullekin	-5379
▁Meidän	-5380
▁Olkoon	-5381
▁alueen	-5382
▁hänkin	-5383
▁itseni	-5384
▁kostan	-5385
▁käänny	-5386
▁lammas	-5387
▁luonut	-5388
▁löytää	-5389
▁merkit	-5390
▁näytti	-5391
▁päässä	-5392
▁rasvan	-5393
▁ryöstä	-5394
▁sangen	-5395
▁taivaa	-5396
▁tappoi	-5397
▁tuntee	-5398
▁turmel	-5399
▁veljen	-5400
telemaan	-5401
▁Sikemin	-5402
▁aasinta	-5403
▁aterioi	-5404
▁ikuinen	-5405
▁jääneet	-5406
▁kompast	-5407
▁käännän	-5408
▁saakoon	-5409
▁salassa	-5410
▁sotarin	-5411
▁suureen	-5412
▁tekojen	-5413
▁terällä	-5414
▁ylistys	-5415
▁Baasanin	-5416
▁Jeesusta	-5417
▁Rehabeam	-5418
▁jumalien	-5419
▁jättivät	-5420
▁kättensä	-5421
▁oikeuksi	-5422
▁pitämään	-5423
▁puhuneet	-5424
▁päällikö	-5425
▁rikkonut	-5426
▁synnyttä	-5427
▁turvassa	-5428
▁jokapäivä	-5429
▁kantoivat	-5430
▁kasvojesi	-5431
▁nimeltään	-5432
▁puhtaaksi	-5433
▁Jumalaanne	-5434
▁kutsuttiin	-5435
▁uhrilahjan	-5436
▁aramilaiset	-5437
▁suitsuketta	-5438
▁vanhurskaat	-5439
▁vihollisesi	-5440
▁Nebukadressa	-5441
▁egyptiläisten	-5442
▁kanaanilaiset	-5443
▁valtaistuimen	-5444
bb	-5445
yl	-5446
ste	-5447
öön	-5448
▁Il	-5449
ukki	-5450
uuto	-5451
äsnä	-5452
▁Kaa	-5453
▁ete	-5454
▁häd	-5455
▁inh	-5456
▁koo	-5457
▁lat	-5458
▁pyr	-5459
ehkää	-5460
kanne	-5461
petta	-5462
saret	-5463
simmä	-5464
uunin	-5465
▁Sall	-5466
▁asut	-5467
▁krei	-5468
▁naap	-5469
▁osaa	-5470
▁pais	-5471
▁syyn	-5472
▁unen	-5473
elleni	-5474
inensa	-5475
istäsi	-5476
virran	-5477
▁Jooah	-5478
▁Jooas	-5479
▁ikkun	-5480
▁kimpp	-5481
▁kylvä	-5482
▁läsnä	-5483
▁muina	-5484
▁nouta	-5485
▁pysäh	-5486
▁rinna	-5487
▁seinä	-5488
▁sokea	-5489
▁suusi	-5490
atoista	-5491
issansa	-5492
oihinsa	-5493
tomasti	-5494
yttävät	-5495
▁Laaban	-5496
▁eteeni	-5497
▁huolen	-5498
▁huutaa	-5499
▁joille	-5500
▁kaatui	-5501
▁kyyhky	-5502
▁käskyä	-5503
▁leveys	-5504
▁midian	-5505
▁painon	-5506
▁pitkäm	-5507
▁saamme	-5508
▁samana	-5509
▁sotaur	-5510
▁säädös	-5511
▁teetti	-5512
▁tekisi	-5513
▁teltta	-5514
▁täytti	-5515
▁vuonna	-5516
▁vuotaa	-5517
▁Herodes	-5518
▁Jooabin	-5519
▁ajoivat	-5520
▁hankkin	-5521
▁herätti	-5522
▁huomasi	-5523
▁hävitti	-5524
▁isäänsä	-5525
▁kuolisi	-5526
▁leikkaa	-5527
▁lähtien	-5528
▁selkään	-5529
▁tarkoit	-5530
▁tehdään	-5531
▁tuomaan	-5532
▁uskossa	-5533
▁Joojadan	-5534
▁Juudassa	-5535
▁Naftalin	-5536
▁hetkellä	-5537
▁iloitsee	-5538
▁lähtevät	-5539
▁mielellä	-5540
▁oikeassa	-5541
▁pasunaan	-5542
▁päivällä	-5543
▁syntinsä	-5544
▁säätänyt	-5545
▁tuomarin	-5546
▁tähtenne	-5547
▁voimansa	-5548
▁vuodatta	-5549
▁vuorelta	-5550
▁Libanonin	-5551
▁esipihaan	-5552
▁ihmetteli	-5553
▁korkeasti	-5554
▁oikeamiel	-5555
▁omaksenne	-5556
▁otollinen	-5557
▁päälliköt	-5558
▁tekojensa	-5559
▁toimittaa	-5560
▁tuonelaan	-5561
▁maailmassa	-5562
▁raunioiksi	-5563
▁ammonilaiset	-5564
▁toimittakoon	-5565
▁jumalattomain	-5566
▁perintöosaksi	-5567
▁rangaistakoon	-5568
Mi	-5569
Oi	-5570
pu	-5571
dom	-5572
ima	-5573
kut	-5574
ppu	-5575
pät	-5576
tän	-5577
eljä	-5578
inta	-5579
llat	-5580
▁Taa	-5581
▁kod	-5582
▁luj	-5583
▁pir	-5584
▁rav	-5585
iköyn	-5586
kaani	-5587
kkoja	-5588
neinä	-5589
vasta	-5590
▁Abia	-5591
▁Seru	-5592
▁Siis	-5593
▁jaka	-5594
▁oksa	-5595
▁puhe	-5596
▁purj	-5597
▁rauk	-5598
▁sarv	-5599
▁semm	-5600
Opetta	-5601
isilta	-5602
itetty	-5603
onissa	-5604
ranaat	-5605
ytynyt	-5606
▁Joosa	-5607
▁ehtoo	-5608
▁hilja	-5609
▁laaks	-5610
▁muser	-5611
▁raska	-5612
▁riipp	-5613
▁sääli	-5614
▁taist	-5615
▁veist	-5616
▁viedä	-5617
ellansa	-5618
jasivat	-5619
▁Jooaan	-5620
▁Seuraa	-5621
▁Tyyron	-5622
▁armosi	-5623
▁huorin	-5624
▁julist	-5625
▁karjaa	-5626
▁laissa	-5627
▁merkki	-5628
▁onkaan	-5629
▁palata	-5630
▁saarna	-5631
▁taivas	-5632
▁tiedon	-5633
▁tietoa	-5634
▁tuonut	-5635
Opettaja	-5636
isillesi	-5637
▁Ahasver	-5638
▁Tervehd	-5639
▁kiivast	-5640
▁kirjuri	-5641
▁kohdata	-5642
▁kunniaa	-5643
▁kävivät	-5644
▁lähelle	-5645
▁länteen	-5646
▁pappeja	-5647
▁saastut	-5648
▁uskosta	-5649
▁vaimoja	-5650
▁vedellä	-5651
▁erikseen	-5652
▁hedelmiä	-5653
▁kantavat	-5654
▁kullakin	-5655
▁kuulette	-5656
▁maaherra	-5657
▁orjattar	-5658
▁salaliit	-5659
▁sallinut	-5660
▁taivasta	-5661
tenatoista	-5662
▁edessänsä	-5663
▁huoneessa	-5664
▁ihmisille	-5665
▁kauttansa	-5666
▁määrännyt	-5667
▁pelkäävät	-5668
▁tapahtuva	-5669
▁tappoivat	-5670
▁tuomitsee	-5671
▁uhrasivat	-5672
▁kääntyneet	-5673
▁maanpiirin	-5674
▁perintömaa	-5675
▁keskuudesta	-5676
▁todistuksen	-5677
▁palvelijaisi	-5678
▁iankaikkiseen	-5679
Si	-5680
ju	-5681
Läh	-5682
jää	-5683
tah	-5684
uel	-5685
voi	-5686
inad	-5687
naan	-5688
tkaa	-5689
unne	-5690
▁Mal	-5691
▁Ole	-5692
▁hiv	-5693
▁hui	-5694
▁hur	-5695
▁man	-5696
aseja	-5697
eseen	-5698
ettäv	-5699
rikko	-5700
ssasi	-5701
täkää	-5702
ukkaa	-5703
väksi	-5704
äästä	-5705
▁Adon	-5706
▁Mikä	-5707
▁hävi	-5708
▁ilmi	-5709
▁iloi	-5710
▁istu	-5711
▁kava	-5712
▁luja	-5713
▁puun	-5714
▁vaar	-5715
▁vein	-5716
ettele	-5717
mmaksi	-5718
tyneet	-5719
▁Abisa	-5720
▁hyviä	-5721
▁jalat	-5722
▁keski	-5723
▁kivet	-5724
▁kätke	-5725
▁lepää	-5726
▁löydä	-5727
▁meneh	-5728
▁pyytä	-5729
▁rahan	-5730
▁sekin	-5731
▁suvut	-5732
▁vihit	-5733
▁vuori	-5734
misesta	-5735
tomaksi	-5736
yydestä	-5737
▁Juudaa	-5738
▁Korkei	-5739
▁Menkää	-5740
▁Nuunin	-5741
▁Siimei	-5742
▁eteesi	-5743
▁ettekö	-5744
▁hyötyä	-5745
▁ilolla	-5746
▁jumala	-5747
▁jäivät	-5748
▁koston	-5749
▁kärsin	-5750
▁menkää	-5751
▁mieltä	-5752
▁muuria	-5753
▁määrää	-5754
▁poikin	-5755
▁profet	-5756
▁sairas	-5757
▁sankar	-5758
▁sanoit	-5759
▁tapasi	-5760
▁tavara	-5761
▁tietäm	-5762
▁vilpit	-5763
angoista	-5764
llessaan	-5765
▁Joosian	-5766
▁elävien	-5767
▁granaat	-5768
▁hengell	-5769
▁hopease	-5770
▁kedolle	-5771
▁näyttää	-5772
▁petosta	-5773
▁poikkea	-5774
▁silmien	-5775
▁syynala	-5776
▁talosta	-5777
▁tunkeut	-5778
▁valheen	-5779
▁vartioi	-5780
▁viedään	-5781
▁ylistän	-5782
▁Hengessä	-5783
▁Pietarin	-5784
▁hukkuvat	-5785
▁kaikkine	-5786
▁kirjassa	-5787
▁kohdalle	-5788
▁kylineen	-5789
▁pyysivät	-5790
▁raavasta	-5791
▁rakkaani	-5792
▁sairasta	-5793
▁surmatta	-5794
▁tähtensä	-5795
▁vallassa	-5796
▁vuorilla	-5797
▁noutamaan	-5798
▁ruokauhri	-5799
▁todistaja	-5800
▁tulisivat	-5801
▁uhraamaan	-5802
▁Joosefille	-5803
▁Jumalaansa	-5804
▁herralleni	-5805
▁hävitetään	-5806
▁kimppuunsa	-5807
▁käskyjänsä	-5808
▁sukukunnat	-5809
▁suloisesti	-5810
▁kenellekään	-5811
▁keskellänsä	-5812
▁kymmenykset	-5813
▁kärsivällis	-5814
▁pakanakanso	-5815
▁ympärileikat	-5816
▁tytärkaupungit	-5817
tenakymmenentenä	-5818
▁ilmestysmajassa	-5819
Ja	-5820
di	-5821
vö	-5822
Nyt	-5823
Sen	-5824
eng	-5825
hdy	-5826
kik	-5827
nab	-5828
töm	-5829
uha	-5830
uma	-5831
▁Di	-5832
▁im	-5833
▁ly	-5834
▁mä	-5835
aika	-5836
anut	-5837
astu	-5838
elet	-5839
enen	-5840
llel	-5841
ukal	-5842
utat	-5843
ysin	-5844
öntä	-5845
▁Een	-5846
▁Luo	-5847
▁jan	-5848
▁kov	-5849
▁köy	-5850
▁myr	-5851
▁onn	-5852
Tässä	-5853
haara	-5854
kosta	-5855
mitta	-5856
telen	-5857
timme	-5858
uelin	-5859
uunsa	-5860
▁Ussi	-5861
▁alta	-5862
▁hajo	-5863
▁jano	-5864
▁juhl	-5865
▁kump	-5866
▁matk	-5867
▁omia	-5868
▁palm	-5869
▁pyör	-5870
▁sade	-5871
▁savi	-5872
▁sopi	-5873
▁tarp	-5874
▁telt	-5875
Herran	-5876
enneet	-5877
isestä	-5878
keneet	-5879
llanne	-5880
ouskaa	-5881
▁Aasan	-5882
▁Kunin	-5883
▁Olkaa	-5884
▁asunn	-5885
▁avion	-5886
▁kaune	-5887
▁kauni	-5888
▁kyken	-5889
▁käärm	-5890
▁mekin	-5891
▁minne	-5892
▁pyhiä	-5893
▁tuota	-5894
▁uskoa	-5895
▁viini	-5896
▁väkeä	-5897
Kuulkaa	-5898
ollista	-5899
ostansa	-5900
uksemme	-5901
▁Barnab	-5902
▁Beetel	-5903
▁Iisain	-5904
▁Sallum	-5905
▁aamuna	-5906
▁herjaa	-5907
▁hävitä	-5908
▁kallio	-5909
▁kelpaa	-5910
▁korjaa	-5911
▁kuolla	-5912
▁kutsuu	-5913
▁kärsim	-5914
▁lupaus	-5915
▁myrsky	-5916
▁nuoret	-5917
▁painoi	-5918
▁peittä	-5919
▁pituus	-5920
▁rikkoo	-5921
▁säästä	-5922
▁tavoin	-5923
▁tuhota	-5924
▁tunnen	-5925
▁tähdet	-5926
▁tänään	-5927
▁vaella	-5928
▁vanhaa	-5929
▁vaskea	-5930
▁vasten	-5931
▁veteen	-5932
▁viettä	-5933
▁yhtään	-5934
▁äitisi	-5935
▁Beerseb	-5936
▁Nasaret	-5937
▁antavat	-5938
▁haltuun	-5939
▁kerubit	-5940
▁nälkään	-5941
▁pelasti	-5942
▁perinnö	-5943
▁pylvään	-5944
▁toimeen	-5945
▁valitsi	-5946
▁Katsokaa	-5947
▁Ruubenin	-5948
▁apostoli	-5949
▁joutunut	-5950
▁kaduilla	-5951
▁kaikella	-5952
▁kohdusta	-5953
▁kullekin	-5954
▁kuolleen	-5955
▁lapsille	-5956
▁puhdasta	-5957
▁päähänsä	-5958
▁seisovan	-5959
▁uskoivat	-5960
▁voimassa	-5961
▁vuodatti	-5962
▁Absalomin	-5963
▁asettivat	-5964
▁jalopeura	-5965
▁joutuneet	-5966
▁kokoontui	-5967
▁kädessään	-5968
▁langoista	-5969
▁laskeutui	-5970
▁maailmaan	-5971
▁nimittäin	-5972
▁nälänhätä	-5973
▁sellainen	-5974
▁turhuutta	-5975
▁vaelsivat	-5976
▁viiniköyn	-5977
▁Seuraavana	-5978
▁peljättävä	-5979
▁polttakoon	-5980
▁saadakseen	-5981
▁totuudessa	-5982
▁kansakunnat	-5983
▁pohjoisesta	-5984
▁polttouhria	-5985
▁rukoilemaan	-5986
▁temppelistä	-5987
▁valkoisista	-5988
▁viinitarhan	-5989
▁karkoittanut	-5990
▁seitsenhaara	-5991
▁uhrikukkulat	-5992
▁Kaikkivaltias	-5993
▁kymmenentuhatta	-5994
hön	-5995
isä	-5996
ksy	-5997
pim	-5998
▁ry	-5999
hoja	-6000
ikiv	-6001
käär	-6002
ulun	-6003
usko	-6004
▁Arn	-6005
▁Gaa	-6006
▁Kal	-6007
▁Nah	-6008
▁aka	-6009
▁mor	-6010
▁näö	-6011
▁pih	-6012
▁tuu	-6013
▁vav	-6014
elkaa	-6015
jatar	-6016
kanen	-6017
kisti	-6018
paltt	-6019
takin	-6020
temme	-6021
▁Etkö	-6022
▁Haas	-6023
▁edom	-6024
▁elät	-6025
▁menn	-6026
▁peto	-6027
▁vara	-6028
issilä	-6029
isuosi	-6030
ottiin	-6031
ssansa	-6032
▁arpaa	-6033
▁asera	-6034
▁avoin	-6035
▁jospa	-6036
▁kerto	-6037
▁lehti	-6038
▁pidän	-6039
▁puita	-6040
▁sisäl	-6041
▁siten	-6042
▁taita	-6043
▁tapaa	-6044
▁tulem	-6045
▁tuuli	-6046
▁täytä	-6047
▁vaini	-6048
▁veriv	-6049
▁virta	-6050
ellänsä	-6051
istivät	-6052
oittain	-6053
uttaisi	-6054
yttivät	-6055
yydellä	-6056
▁Autuas	-6057
▁Benaja	-6058
▁Bileam	-6059
▁Daanin	-6060
▁Ismael	-6061
▁Tulkaa	-6062
▁akasia	-6063
▁heissä	-6064
▁häpeän	-6065
▁jumali	-6066
▁katsoi	-6067
▁kaunis	-6068
▁kostaa	-6069
▁käteen	-6070
▁leivis	-6071
▁maihin	-6072
▁maksaa	-6073
▁nautti	-6074
▁omassa	-6075
▁pellon	-6076
▁sateen	-6077
▁silmin	-6078
▁syökää	-6079
▁totuus	-6080
▁tuomar	-6081
▁täältä	-6082
▁vakoil	-6083
▁viittä	-6084
▁voivat	-6085
▁yhtenä	-6086
▁Antakaa	-6087
▁Ensimmä	-6088
▁Joojada	-6089
▁Parempi	-6090
▁Sodoman	-6091
▁ilmoita	-6092
▁iloiten	-6093
▁kansain	-6094
▁korjasi	-6095
▁käsiksi	-6096
▁pasunan	-6097
▁pikkuka	-6098
▁saatana	-6099
▁sanotta	-6100
▁selässä	-6101
▁sinäkin	-6102
▁turmion	-6103
▁vannoen	-6104
ettavaksi	-6105
ettaviksi	-6106
▁Herrasta	-6107
▁Midianin	-6108
▁antamaan	-6109
▁ilmestyy	-6110
▁julistaa	-6111
▁julistan	-6112
▁leirissä	-6113
▁mielensä	-6114
▁paljasta	-6115
▁pelastan	-6116
▁polvesta	-6117
▁portissa	-6118
▁sivuvaim	-6119
▁valitsee	-6120
▁veljenne	-6121
▁Samariaan	-6122
▁edustalle	-6123
▁kertoivat	-6124
▁tahtoneet	-6125
▁ylenpaltt	-6126
▁aarrekammi	-6127
▁mielisuosi	-6128
▁neljäntenä	-6129
▁siunauksen	-6130
▁väärinteki	-6131
▁ensimmäisen	-6132
▁perintöosaa	-6133
▁sotarintaan	-6134
▁kaikkinaisia	-6135
▁kasvoillensa	-6136
▁kirjoittanut	-6137
▁opetuslasten	-6138
▁vanhurskaudessa	-6139
Ta	-6140
▁(	-6141
ede	-6142
ene	-6143
kii	-6144
lah	-6145
nat	-6146
rot	-6147
ubb	-6148
▁Ri	-6149
▁iä	-6150
Emme	-6151
ikan	-6152
iopi	-6153
sisi	-6154
usto	-6155
yllä	-6156
▁Ber	-6157
▁Bet	-6158
▁Bil	-6159
▁Gat	-6160
▁Too	-6161
▁ovi	-6162
▁paa	-6163
▁pus	-6164
dessa	-6165
ikäär	-6166
jamme	-6167
karsi	-6168
kivat	-6169
sassa	-6170
tunsa	-6171
upuol	-6172
▁Armo	-6173
▁Baar	-6174
▁Elif	-6175
▁Elja	-6176
▁Pois	-6177
▁autu	-6178
▁elon	-6179
▁idän	-6180
▁ilon	-6181
▁oksi	-6182
▁pöyd	-6183
▁revä	-6184
▁sisi	-6185
▁sääl	-6186
▁virv	-6187
assani	-6188
istuin	-6189
tukoon	-6190
uineen	-6191
▁Benha	-6192
▁Joota	-6193
▁hehku	-6194
▁ikävö	-6195
▁katsa	-6196
▁kudot	-6197
▁lahja	-6198
▁laulu	-6199
▁menkö	-6200
▁muoto	-6201
▁olipa	-6202
▁panna	-6203
▁pääni	-6204
▁päätö	-6205
▁pöytä	-6206
▁siksi	-6207
▁tyhmä	-6208
▁täysi	-6209
▁yöksi	-6210
allakin	-6211
essänsä	-6212
ettivät	-6213
istakaa	-6214
sekelin	-6215
uksista	-6216
utuivat	-6217
yksissä	-6218
yytensä	-6219
▁Baalak	-6220
▁Gaadin	-6221
▁Teidän	-6222
▁elossa	-6223
▁etiopi	-6224
▁hakkaa	-6225
▁järven	-6226
▁kokoaa	-6227
▁majaan	-6228
▁naisia	-6229
▁pilven	-6230
▁portit	-6231
▁syyttö	-6232
▁tasang	-6233
▁tekosi	-6234
▁vannoi	-6235
▁vastan	-6236
llisella	-6237
uluettel	-6238
▁Ottakaa	-6239
▁Persian	-6240
▁etelään	-6241
▁hankkii	-6242
▁kallion	-6243
▁kaunist	-6244
▁kirjeen	-6245
▁korviin	-6246
▁kreikka	-6247
▁käyneet	-6248
▁laittoi	-6249
▁pahasta	-6250
▁pantiin	-6251
▁polttaa	-6252
▁päästää	-6253
▁tehköön	-6254
▁tuomari	-6255
▁ahdistus	-6256
▁antaneet	-6257
▁eläinten	-6258
▁kokonaan	-6259
▁kuolemaa	-6260
▁maahansa	-6261
▁miehestä	-6262
▁mielettö	-6263
▁pystytti	-6264
▁sanokoon	-6265
▁senkalta	-6266
▁toimitti	-6267
▁Jumalatto	-6268
▁asettunut	-6269
▁hankkinut	-6270
▁kieltänyt	-6271
▁kohdannut	-6272
▁pahanteki	-6273
▁rakkautta	-6274
▁ratsumieh	-6275
▁seisomaan	-6276
▁teettänyt	-6277
▁tunteneet	-6278
▁täyttänyt	-6279
▁voittanut	-6280
▁ympärille	-6281
▁Samariassa	-6282
▁kansanjouk	-6283
▁lukumäärän	-6284
▁mukaisesti	-6285
▁puolestani	-6286
▁päämiesten	-6287
▁rakensivat	-6288
▁kasvoilleen	-6289
▁orjantappur	-6290
▁muukalaisena	-6291
▁ruokauhriksi	-6292
▁kahtakymmentä	-6293
▁palvelijainsa	-6294
▁ristiinnaulit	-6295
:2	-6296
imi	-6297
ira	-6298
kui	-6299
oil	-6300
pan	-6301
▁es	-6302
▁ro	-6303
Nämä	-6304
enia	-6305
ksan	-6306
mpaa	-6307
udin	-6308
ukut	-6309
ämär	-6310
ääsi	-6311
▁Eel	-6312
▁Hii	-6313
▁Jeh	-6314
▁jat	-6315
▁kai	-6316
▁maj	-6317
▁riv	-6318
▁sij	-6319
▁uni	-6320
▁yks	-6321
eessä	-6322
kkain	-6323
oitte	-6324
oniin	-6325
tuina	-6326
▁Nooa	-6327
▁Piin	-6328
▁Suur	-6329
▁eefa	-6330
▁esin	-6331
▁haut	-6332
▁hivv	-6333
▁iloa	-6334
▁juov	-6335
▁keit	-6336
▁kour	-6337
▁otin	-6338
▁pirs	-6339
▁puna	-6340
▁rinn	-6341
▁torn	-6342
issäni	-6343
llisiä	-6344
päivän	-6345
▁Aahas	-6346
▁Booas	-6347
▁asiaa	-6348
▁hakka	-6349
▁ikeen	-6350
▁kadon	-6351
▁kamel	-6352
▁kukka	-6353
▁laula	-6354
▁leveä	-6355
▁suost	-6356
▁tälla	-6357
▁valti	-6358
▁vatsa	-6359
Ottakaa	-6360
lleluja	-6361
llisena	-6362
telette	-6363
tomiksi	-6364
▁Amasja	-6365
▁Henkeä	-6366
▁Jooram	-6367
▁Raakel	-6368
▁antako	-6369
▁huudon	-6370
▁jättää	-6371
▁katsoo	-6372
▁kuulen	-6373
▁kärsiä	-6374
▁lahjan	-6375
▁lankea	-6376
▁leikka	-6377
▁maakun	-6378
▁maksan	-6379
▁neljäs	-6380
▁osasto	-6381
▁pahoja	-6382
▁peljäs	-6383
▁poissa	-6384
▁riensi	-6385
▁tarvit	-6386
▁tiensä	-6387
▁ulkona	-6388
▁vanhan	-6389
▁vaunut	-6390
▁virrat	-6391
oittakaa	-6392
umisensa	-6393
▁Daareja	-6394
▁Juudaan	-6395
▁Mesulla	-6396
▁Nebatin	-6397
▁Serujan	-6398
▁elinaik	-6399
▁ettemme	-6400
▁jumalaa	-6401
▁kasvoni	-6402
▁kohotta	-6403
▁kohtasi	-6404
▁linnoit	-6405
▁luonasi	-6406
▁paljast	-6407
▁paransi	-6408
▁pyhässä	-6409
▁sanomme	-6410
▁tervehd	-6411
▁valitus	-6412
▁viettel	-6413
▁vuorten	-6414
▁välille	-6415
▁ylenkat	-6416
▁Juudasta	-6417
▁alttaria	-6418
▁alueelle	-6419
▁kosketti	-6420
▁lapsenne	-6421
▁laskivat	-6422
▁mielessä	-6423
▁olisitte	-6424
▁toisensa	-6425
▁tottelem	-6426
▁tunnusta	-6427
▁tyhjäksi	-6428
▁vieressä	-6429
▁viinistä	-6430
▁Eleasarin	-6431
▁Seitsemän	-6432
▁asukasten	-6433
▁erämaasta	-6434
▁hoviherra	-6435
▁ihmiselle	-6436
▁ikuisiksi	-6437
▁kansoista	-6438
▁kimppuusi	-6439
▁kirjakäär	-6440
▁lammasten	-6441
▁lampunjal	-6442
▁omaksensa	-6443
▁profeetan	-6444
▁päämiehiä	-6445
▁vaatteita	-6446
▁valittaja	-6447
▁virheettö	-6448
▁väkevällä	-6449
▁Korkeimman	-6450
▁neuvonanta	-6451
▁palvelevat	-6452
▁pojillensa	-6453
▁rukoukseni	-6454
▁kummallakin	-6455
▁nuorukainen	-6456
▁sukuluettel	-6457
▁teurasuhrin	-6458
▁toimittanut	-6459
▁voimallinen	-6460
▁kaksituhatta	-6461
▁kokoontuneet	-6462
▁pakanakansat	-6463
▁toimittamaan	-6464
▁punasinisistä	-6465
▁pyhäkkösekelin	-6466
Ki	-6467
gd	-6468
od	-6469
Sem	-6470
ati	-6471
eil	-6472
err	-6473
ete	-6474
ksä	-6475
opp	-6476
▁ny	-6477
arvo	-6478
istu	-6479
kall	-6480
ubli	-6481
veen	-6482
ähde	-6483
▁amp	-6484
▁raa	-6485
▁soi	-6486
▁tyt	-6487
Koska	-6488
aanan	-6489
empaa	-6490
imote	-6491
jiksi	-6492
kkinä	-6493
uessa	-6494
ustus	-6495
uudon	-6496
villä	-6497
ysten	-6498
▁Amen	-6499
▁Gaad	-6500
▁Jaab	-6501
▁aasi	-6502
▁alha	-6503
▁hill	-6504
▁illa	-6505
▁ilos	-6506
▁juop	-6507
▁kiih	-6508
▁levä	-6509
▁naur	-6510
▁ovia	-6511
▁rann	-6512
▁syöt	-6513
▁tarj	-6514
▁tasa	-6515
▁teon	-6516
▁terä	-6517
▁turm	-6518
▁vään	-6519
▁ylvä	-6520
dellut	-6521
empien	-6522
isillä	-6523
issasi	-6524
llistä	-6525
onista	-6526
ubbaab	-6527
uinoin	-6528
usteli	-6529
ydestä	-6530
▁Iiseb	-6531
▁Jerik	-6532
▁aikoi	-6533
▁ammen	-6534
▁harha	-6535
▁henkä	-6536
▁hurmo	-6537
▁hävin	-6538
▁kivit	-6539
▁levot	-6540
▁malja	-6541
▁piilo	-6542
▁polku	-6543
▁rahat	-6544
▁rasva	-6545
▁varas	-6546
▁vilja	-6547
▁voida	-6548
islamer	-6549
▁Asarja	-6550
▁Baasan	-6551
▁Timote	-6552
▁Ylistä	-6553
▁ateria	-6554
▁elävät	-6555
▁hopean	-6556
▁häväis	-6557
▁joivat	-6558
▁järkky	-6559
▁kaukaa	-6560
▁kielsi	-6561
▁koolle	-6562
▁korenn	-6563
▁lamppu	-6564
▁maista	-6565
▁puolis	-6566
▁riistä	-6567
▁ryhtyi	-6568
▁saapui	-6569
▁silmän	-6570
▁sisälm	-6571
▁sukula	-6572
▁synnit	-6573
▁työnsä	-6574
▁varjel	-6575
▁vihaan	-6576
▁voitta	-6577
▁ääriin	-6578
oittavat	-6579
▁armosta	-6580
▁ensiksi	-6581
▁etupuol	-6582
▁jalkani	-6583
▁juomaan	-6584
▁kasukan	-6585
▁koettel	-6586
▁lapsesi	-6587
▁ollessa	-6588
▁paennut	-6589
▁peseyty	-6590
▁pojille	-6591
▁pysyvät	-6592
▁repäisi	-6593
▁saattoi	-6594
▁sotivat	-6595
▁surmata	-6596
▁suvulle	-6597
▁syntien	-6598
▁vieraan	-6599
▁voitelu	-6600
▁yhdestä	-6601
▁Saadokin	-6602
▁hengessä	-6603
▁juurelle	-6604
▁kansaasi	-6605
▁kansakun	-6606
▁kuolivat	-6607
▁käskynsä	-6608
▁luopunut	-6609
▁mieliksi	-6610
▁nostivat	-6611
▁näkemään	-6612
▁olevansa	-6613
▁pystyssä	-6614
▁rukoilee	-6615
▁totuutta	-6616
▁vapaaksi	-6617
▁vihaavat	-6618
▁ylhäältä	-6619
▁Beeteliin	-6620
▁Iisakille	-6621
▁Jooabille	-6622
▁Kaislamer	-6623
▁heitetään	-6624
▁isillenne	-6625
▁kuritusta	-6626
▁kuulemaan	-6627
▁kääntyvät	-6628
▁painoinen	-6629
▁poikaansa	-6630
▁rikkoneet	-6631
▁saapuivat	-6632
▁surmannut	-6633
▁synnyttää	-6634
▁syntyivät	-6635
▁terveeksi	-6636
▁toisianne	-6637
Minkätähden	-6638
▁Jumalaamme	-6639
▁jälkeläisi	-6640
▁kannettava	-6641
▁kuninkaana	-6642
▁palvelijan	-6643
▁pimeydessä	-6644
▁puhuessaan	-6645
▁ravituiksi	-6646
▁rukoilevat	-6647
▁sittenkuin	-6648
▁vaeltaneet	-6649
▁amorilaiset	-6650
▁mielistynyt	-6651
▁pystyttänyt	-6652
▁rakkaudessa	-6653
▁sukukuntien	-6654
▁vuoristossa	-6655
▁ympärillään	-6656
▁kolmetuhatta	-6657
▁orjantappura	-6658
▁hävitettäköön	-6659
▁rankaisematta	-6660
▁yhteysuhriksi	-6661
Pal	-6662
eef	-6663
ike	-6664
oma	-6665
▁Ek	-6666
▁Go	-6667
▁Oi	-6668
▁Tä	-6669
Amen	-6670
asen	-6671
edin	-6672
itin	-6673
ivir	-6674
kiel	-6675
koko	-6676
laum	-6677
otka	-6678
rien	-6679
väni	-6680
ykse	-6681
▁Deb	-6682
▁Doo	-6683
▁Jet	-6684
▁Kul	-6685
▁Tim	-6686
▁loh	-6687
▁mel	-6688
▁nap	-6689
▁teo	-6690
istui	-6691
kelle	-6692
lläni	-6693
ltään	-6694
monin	-6695
▁Sitä	-6696
▁joko	-6697
▁kaar	-6698
▁kall	-6699
▁kart	-6700
▁paad	-6701
▁peri	-6702
▁tila	-6703
▁vaka	-6704
▁väsy	-6705
Oletko	-6706
essani	-6707
inneet	-6708
ksesta	-6709
llette	-6710
teessa	-6711
ustasi	-6712
vaatte	-6713
vallan	-6714
▁Gomor	-6715
▁Onhan	-6716
▁Uuria	-6717
▁eläin	-6718
▁etsii	-6719
▁hajua	-6720
▁hetki	-6721
▁jakoi	-6722
▁jolta	-6723
▁julki	-6724
▁kiveä	-6725
▁odota	-6726
▁opeta	-6727
▁pysyt	-6728
▁rahaa	-6729
▁rikos	-6730
▁saatu	-6731
▁saven	-6732
▁sorta	-6733
ellensa	-6734
isiinsa	-6735
istetty	-6736
oastaan	-6737
uhrista	-6738
uksiasi	-6739
urskaan	-6740
uudeksi	-6741
yksestä	-6742
▁Isältä	-6743
▁Jesaja	-6744
▁Mattan	-6745
▁Piineh	-6746
▁Toinen	-6747
▁hajaan	-6748
▁karkel	-6749
▁kohoaa	-6750
▁kokous	-6751
▁kyllin	-6752
▁loista	-6753
▁lännen	-6754
▁löivät	-6755
▁maljan	-6756
▁naista	-6757
▁petoll	-6758
▁pienet	-6759
▁porton	-6760
▁puolta	-6761
▁pysyvä	-6762
▁seisoo	-6763
▁soitti	-6764
▁uhrata	-6765
▁vereen	-6766
iläisten	-6767
istuimen	-6768
▁Kirottu	-6769
▁annetut	-6770
▁hajotan	-6771
▁isiemme	-6772
▁kahteen	-6773
▁kerskaa	-6774
▁laupias	-6775
▁matkaan	-6776
▁minkään	-6777
▁neitsyt	-6778
▁neljään	-6779
▁paljous	-6780
▁pohjois	-6781
▁puhkesi	-6782
▁pyhittä	-6783
▁saamaan	-6784
▁sisältä	-6785
▁sodassa	-6786
▁sydämet	-6787
▁tarkkaa	-6788
▁toimita	-6789
▁turvaan	-6790
▁tytärtä	-6791
▁vihassa	-6792
▁viisaat	-6793
isuudesta	-6794
▁Bileamin	-6795
▁Galilean	-6796
▁Samuelin	-6797
▁armahtaa	-6798
▁edelläsi	-6799
▁henkeäni	-6800
▁isälleen	-6801
▁kauhista	-6802
▁korottaa	-6803
▁kuljetti	-6804
▁käskystä	-6805
▁lammasta	-6806
▁linnassa	-6807
▁nimeänsä	-6808
▁olisimme	-6809
▁pelastus	-6810
▁pitäneet	-6811
▁päässeet	-6812
▁raavaita	-6813
▁rannalle	-6814
▁rintakil	-6815
▁rukoilen	-6816
▁sotaväen	-6817
▁tulemaan	-6818
▁tuomitse	-6819
▁turmiota	-6820
▁varrella	-6821
▁viinipuu	-6822
▁voideltu	-6823
▁Serubbaab	-6824
▁autioiksi	-6825
▁enkelille	-6826
▁luoksemme	-6827
▁luoksenne	-6828
▁miekkansa	-6829
▁otollista	-6830
▁perissilä	-6831
▁puhtaasta	-6832
▁päällysti	-6833
▁tyttäresi	-6834
▁uudestaan	-6835
▁vaeltanut	-6836
▁vääryyden	-6837
▁ennustavat	-6838
▁hävittänyt	-6839
▁ilmestynyt	-6840
▁kaupunkien	-6841
▁keskenänsä	-6842
▁kuukautena	-6843
▁pääsiäisla	-6844
▁tunnetuksi	-6845
▁kansastansa	-6846
▁kuolleitten	-6847
▁lakkaamatta	-6848
▁palvelijoit	-6849
▁seurakuntaa	-6850
▁vanhimmille	-6851
▁vanhurskaut	-6852
▁akasiapuusta	-6853
▁ammonilaisia	-6854
▁osastoittain	-6855
▁peljästyivät	-6856
▁sisäpuolella	-6857
▁taistelemaan	-6858
▁uskollisesti	-6859
▁valtakunnassa	-6860
▁kanaanilaisten	-6861
▁tarkastaessaan	-6862
▁polveutumisensa	-6863
:3	-6864
Tee	-6865
Var	-6866
eht	-6867
eva	-6868
har	-6869
ked	-6870
mus	-6871
oti	-6872
oud	-6873
poi	-6874
sai	-6875
uti	-6876
data	-6877
eber	-6878
eran	-6879
kkää	-6880
ppua	-6881
rian	-6882
ttää	-6883
vala	-6884
vänä	-6885
ämme	-6886
▁Baa	-6887
▁Hag	-6888
▁Ked	-6889
▁Oog	-6890
▁eri	-6891
▁jyl	-6892
▁ohi	-6893
▁ren	-6894
▁sot	-6895
aaras	-6896
aston	-6897
detta	-6898
elkää	-6899
immän	-6900
iänsä	-6901
stani	-6902
tukaa	-6903
vattu	-6904
vissa	-6905
yteen	-6906
▁Aada	-6907
▁Edom	-6908
▁Esra	-6909
▁Iita	-6910
▁Jord	-6911
▁Kain	-6912
▁Ruut	-6913
▁Viis	-6914
▁aini	-6915
▁alku	-6916
▁erää	-6917
▁hiin	-6918
▁kaad	-6919
▁kahl	-6920
▁laps	-6921
▁ohda	-6922
▁paat	-6923
▁sato	-6924
▁savu	-6925
▁varm	-6926
astasi	-6927
ilivir	-6928
illään	-6929
llemme	-6930
uneita	-6931
yksiin	-6932
▁Amnon	-6933
▁Hänet	-6934
▁Jefta	-6935
▁Minkä	-6936
▁Siinä	-6937
▁Tyyro	-6938
▁aamun	-6939
▁hakat	-6940
▁kiinn	-6941
▁kiroa	-6942
▁kulje	-6943
▁käske	-6944
▁leski	-6945
▁menin	-6946
▁perus	-6947
▁pidot	-6948
▁päätä	-6949
▁ratka	-6950
▁sotaa	-6951
▁sotah	-6952
▁talot	-6953
▁telin	-6954
▁uskoi	-6955
▁vaino	-6956
▁virit	-6957
etuiksi	-6958
ielinen	-6959
täneljä	-6960
utuneet	-6961
▁Juudas	-6962
▁Saadok	-6963
▁aikoja	-6964
▁hiilip	-6965
▁hiljaa	-6966
▁huolta	-6967
▁kaksin	-6968
▁keihäs	-6969
▁kertom	-6970
▁kotona	-6971
▁kyynel	-6972
▁laista	-6973
▁naaras	-6974
▁nimien	-6975
▁puhuin	-6976
▁päivin	-6977
▁ryöstö	-6978
▁sanoma	-6979
▁suurin	-6980
▁tunnus	-6981
▁tuovat	-6982
▁työhön	-6983
▁vapaut	-6984
▁voisin	-6985
▁väärää	-6986
▁Merarin	-6987
▁Poikani	-6988
▁Sakarja	-6989
▁Simonin	-6990
▁ainiaan	-6991
▁ajoiksi	-6992
▁antaisi	-6993
▁hyvänha	-6994
▁isienne	-6995
▁julisti	-6996
▁korvasi	-6997
▁kulunut	-6998
▁kutakin	-6999
▁käskysi	-7000
▁lampaan	-7001
▁luotasi	-7002
▁lähetin	-7003
▁menette	-7004
▁miekkaa	-7005
▁mistään	-7006
▁rakenna	-7007
▁saarnaa	-7008
▁sotakel	-7009
▁suuremm	-7010
▁taholta	-7011
▁tuomita	-7012
▁uskoton	-7013
▁varasta	-7014
▁varasto	-7015
▁vastata	-7016
▁Gedaljan	-7017
▁Joohanan	-7018
▁ennenkin	-7019
▁iloitsen	-7020
▁johdatti	-7021
▁johonkin	-7022
▁järjesty	-7023
▁kahdesta	-7024
▁kaikilta	-7025
▁kaikkeen	-7026
▁korennot	-7027
▁kukkulat	-7028
▁kulkevat	-7029
▁kuulkoon	-7030
▁lunastaa	-7031
▁merkkinä	-7032
▁miehistä	-7033
▁paimenta	-7034
▁rakastan	-7035
▁ratsasta	-7036
▁siementä	-7037
▁tahtovat	-7038
▁toisella	-7039
▁tuntevat	-7040
▁yhteensä	-7041
▁Halleluja	-7042
▁Isaskarin	-7043
▁Sebulonin	-7044
▁Tervehdys	-7045
▁ainiaaksi	-7046
▁apostolit	-7047
▁henkeänsä	-7048
▁isällensä	-7049
▁kirjoitus	-7050
▁kutsuivat	-7051
▁kutsumaan	-7052
▁laaksossa	-7053
▁luopuneet	-7054
▁lähtemään	-7055
▁löytäneet	-7056
▁mullikkaa	-7057
▁nimessäni	-7058
▁pakenevat	-7059
▁pylväiden	-7060
▁rakkauden	-7061
▁rupesivat	-7062
▁syntiuhri	-7063
▁vallannut	-7064
▁valmiiksi	-7065
▁vanhemmat	-7066
▁voidellut	-7067
▁ylitsensä	-7068
▁jalkojensa	-7069
▁laitumella	-7070
▁rukoilivat	-7071
▁saastaista	-7072
▁syntiuhrin	-7073
▁tehdäkseen	-7074
▁uskottomat	-7075
▁valhetteli	-7076
▁Jumalallesi	-7077
▁fariseusten	-7078
▁hävittämään	-7079
▁muukalaiset	-7080
▁neljätoista	-7081
▁hallitsemaan	-7082
▁kauhistuksia	-7083
▁Jerusalemille	-7084
▁seurakunnassa	-7085
▁vanhurskautesi	-7086
▁kahdeksantoista	-7087
He	-7088
Va	-7089
Sin	-7090
ane	-7091
ema	-7092
fan	-7093
ihu	-7094
kyt	-7095
siä	-7096
▁Er	-7097
▁em	-7098
Kaik	-7099
Olen	-7100
dään	-7101
hasi	-7102
isah	-7103
jien	-7104
joen	-7105
ppiä	-7106
rjuu	-7107
vasi	-7108
vina	-7109
▁Has	-7110
▁Mar	-7111
▁Mik	-7112
▁Roo	-7113
▁San	-7114
▁Tir	-7115
▁voh	-7116
Kenen	-7117
kkuja	-7118
malle	-7119
pojan	-7120
ripun	-7121
ttava	-7122
tyisi	-7123
tyään	-7124
▁Kuin	-7125
▁Siun	-7126
▁haka	-7127
▁hehk	-7128
▁hetk	-7129
▁hinn	-7130
▁huil	-7131
▁huip	-7132
▁kilp	-7133
▁kiuk	-7134
▁kynn	-7135
▁lipp	-7136
▁myöh	-7137
▁oltu	-7138
▁oppi	-7139
▁perä	-7140
▁ukko	-7141
▁vilj	-7142
elevät	-7143
elläni	-7144
emalla	-7145
hdeksä	-7146
ittesi	-7147
kedoni	-7148
puolen	-7149
rofeet	-7150
tiensa	-7151
toihin	-7152
uksiin	-7153
yyteni	-7154
▁astia	-7155
▁haltu	-7156
▁herja	-7157
▁horju	-7158
▁huuli	-7159
▁iljet	-7160
▁jonne	-7161
▁jotta	-7162
▁kasta	-7163
▁laiva	-7164
▁lauma	-7165
▁liikk	-7166
▁mettä	-7167
▁murhe	-7168
▁onkin	-7169
▁parha	-7170
▁parta	-7171
▁pedon	-7172
▁peitä	-7173
▁publi	-7174
▁puron	-7175
▁rohka	-7176
▁synny	-7177
▁tähkä	-7178
▁verho	-7179
illensä	-7180
karetta	-7181
llisten	-7182
matonta	-7183
ossansa	-7184
ramille	-7185
▁Raamat	-7186
▁Seirin	-7187
▁Semaja	-7188
▁Sieltä	-7189
▁asutte	-7190
▁avulla	-7191
▁istuva	-7192
▁kaivon	-7193
▁kohota	-7194
▁käänsi	-7195
▁lesken	-7196
▁monien	-7197
▁murhaa	-7198
▁neljät	-7199
▁olevat	-7200
▁palkan	-7201
▁peitti	-7202
▁pyydän	-7203
▁ravinn	-7204
▁riemuh	-7205
▁sarvet	-7206
▁säilyt	-7207
▁toisia	-7208
▁tunnet	-7209
▁tuntea	-7210
▁vainoo	-7211
▁vievät	-7212
▁voitto	-7213
▁vuoksi	-7214
▁yksinä	-7215
▁ylisty	-7216
▁äkisti	-7217
▁ääneni	-7218
▁öljyyn	-7219
oitetaan	-7220
uttakoon	-7221
▁Sidkian	-7222
▁arkkiin	-7223
▁arvossa	-7224
▁enkelit	-7225
▁juureen	-7226
▁katseli	-7227
▁käsissä	-7228
▁lehtima	-7229
▁liittoa	-7230
▁luonaan	-7231
▁mentävä	-7232
▁mieleen	-7233
▁missään	-7234
▁määräsi	-7235
▁perheen	-7236
▁pitäisi	-7237
▁ruuaksi	-7238
▁sanoman	-7239
▁sapatti	-7240
▁sielusi	-7241
▁suoraan	-7242
▁talteen	-7243
▁tähtesi	-7244
▁veisaan	-7245
▁verensä	-7246
▁vietiin	-7247
▁vitsaus	-7248
▁voimani	-7249
päämiehet	-7250
▁Poikansa	-7251
▁Simeonin	-7252
▁elämänsä	-7253
▁enkelien	-7254
▁esiripun	-7255
▁kielensä	-7256
▁kielillä	-7257
▁kohdalta	-7258
▁kohtalon	-7259
▁leijonan	-7260
▁lohikäär	-7261
▁luonanne	-7262
▁määrätty	-7263
▁oleskeli	-7264
▁rikoksen	-7265
▁sanojani	-7266
▁syvyyden	-7267
▁taistelu	-7268
▁tieltäsi	-7269
▁vangiksi	-7270
▁yksimiel	-7271
▁äitiänsä	-7272
▁Kristusta	-7273
▁Kuninkaan	-7274
▁auttamaan	-7275
▁esikoiset	-7276
▁isillensä	-7277
▁kalliolle	-7278
▁kirjoitan	-7279
▁käskyjäsi	-7280
▁lapsiansa	-7281
▁puhdistaa	-7282
▁puhumasta	-7283
▁päällenne	-7284
▁rankaisen	-7285
▁tieltänne	-7286
▁tyttäreni	-7287
▁valtaansa	-7288
kertaisesti	-7289
▁keskenänne	-7290
▁kumarsivat	-7291
▁lankesivat	-7292
▁palvelijaa	-7293
▁sotavaunut	-7294
▁varustettu	-7295
▁vastauksen	-7296
▁venheeseen	-7297
▁viidentenä	-7298
▁voiteluölj	-7299
▁Jeesukselle	-7300
▁haureudessa	-7301
▁ilmoittivat	-7302
▁julistakoon	-7303
▁kansallensa	-7304
▁kerratuista	-7305
▁keskellänne	-7306
▁kokoontuvat	-7307
▁leeviläinen	-7308
▁perintöosan	-7309
▁perustukset	-7310
▁viholliseni	-7311
▁hopeasekeliä	-7312
▁muukalaisina	-7313
▁tunnustekoja	-7314
▁happamattoman	-7315
▁jumalanpalvel	-7316
▁sotapäällikkö	-7317
▁ymmärtäväinen	-7318
▁ilmestysmajaan	-7319
▁kauhistukseksi	-7320
Ne	-7321
`;	-7322
▁Ö	-7323
Edo	-7324
aam	-7325
ear	-7326
hkä	-7327
läh	-7328
met	-7329
puh	-7330
pur	-7331
tko	-7332
ttu	-7333
▁Al	-7334
ehän	-7335
keaa	-7336
kkun	-7337
laus	-7338
otko	-7339
otut	-7340
pais	-7341
rati	-7342
umme	-7343
▁Esa	-7344
▁Käy	-7345
▁Tur	-7346
▁aav	-7347
▁ilj	-7348
▁kin	-7349
▁ruh	-7350
▁yöt	-7351
Salli	-7352
eilta	-7353
eissa	-7354
etkaa	-7355
jenna	-7356
miina	-7357
oston	-7358
puoli	-7359
▁Hoor	-7360
▁Jaaf	-7361
▁Naad	-7362
▁Nelj	-7363
▁Obad	-7364
▁Ovat	-7365
▁Suus	-7366
▁Vapa	-7367
▁efra	-7368
▁enne	-7369
▁ilah	-7370
▁iski	-7371
▁jopa	-7372
▁laiv	-7373
▁lepo	-7374
▁näyt	-7375
▁olka	-7376
▁paas	-7377
▁pare	-7378
▁sauv	-7379
▁sepp	-7380
▁suon	-7381
▁syvä	-7382
▁valt	-7383
▁yltä	-7384
etyksi	-7385
haalla	-7386
ikamin	-7387
isiltä	-7388
itansa	-7389
järist	-7390
väiset	-7391
ytykää	-7392
▁Nooan	-7393
▁aseen	-7394
▁ihana	-7395
▁itsek	-7396
▁johti	-7397
▁jousi	-7398
▁katka	-7399
▁kaupp	-7400
▁kutsu	-7401
▁kysyy	-7402
▁luken	-7403
▁merta	-7404
▁murta	-7405
▁oppin	-7406
▁rasit	-7407
▁sataa	-7408
▁siipi	-7409
▁synke	-7410
▁tieto	-7411
▁tulit	-7412
▁tuska	-7413
▁valio	-7414
▁valoa	-7415
▁väijy	-7416
emmäksi	-7417
kkaasti	-7418
ytyivät	-7419
▁Ahitof	-7420
▁Baaruk	-7421
▁Ebjata	-7422
▁Joosia	-7423
▁Simeon	-7424
▁asumus	-7425
▁henkil	-7426
▁heräjä	-7427
▁huusin	-7428
▁hyvään	-7429
▁isiesi	-7430
▁kauppi	-7431
▁kirkas	-7432
▁kirous	-7433
▁kohosi	-7434
▁korvan	-7435
▁kosket	-7436
▁kypres	-7437
▁köyhän	-7438
▁lisään	-7439
▁lähetä	-7440
▁muisti	-7441
▁niskur	-7442
▁oikeat	-7443
▁pilvet	-7444
▁pitkän	-7445
▁rakkaa	-7446
▁saisin	-7447
▁takana	-7448
▁tuhosi	-7449
▁vaikut	-7450
▁varoit	-7451
▁viisit	-7452
▁välitä	-7453
▁Asserin	-7454
▁Eivätkö	-7455
▁Joosafa	-7456
▁Karitsa	-7457
▁Kehatin	-7458
▁aarteet	-7459
▁arvalla	-7460
▁etsitte	-7461
▁hevosia	-7462
▁itkivät	-7463
▁kaiketi	-7464
▁katoava	-7465
▁kenkään	-7466
▁muinoin	-7467
▁nimeksi	-7468
▁nuhteli	-7469
▁ojentaa	-7470
▁osoitan	-7471
▁poikkit	-7472
▁puhetta	-7473
▁pyhällä	-7474
▁päättyy	-7475
▁sotakun	-7476
▁sovitus	-7477
▁tulkoot	-7478
▁uskovat	-7479
▁vanhemm	-7480
▁vikapää	-7481
▁voittoa	-7482
▁ympärys	-7483
ettäviksi	-7484
uhriteura	-7485
▁Benhadad	-7486
▁Niilivir	-7487
▁Siihonin	-7488
▁avukseni	-7489
▁ennemmin	-7490
▁huonetta	-7491
▁jollakin	-7492
▁kallista	-7493
▁karjansa	-7494
▁katsella	-7495
▁kuluneet	-7496
▁kuuluvat	-7497
▁otettiin	-7498
▁palatsin	-7499
▁profetoi	-7500
▁ruumiini	-7501
▁tapahtua	-7502
▁todistus	-7503
▁tuntenut	-7504
▁valmiina	-7505
▁vanhaksi	-7506
▁varjelee	-7507
▁vartijat	-7508
▁viikunap	-7509
▁ymmärrys	-7510
▁Jumalassa	-7511
▁Siionissa	-7512
▁edustalla	-7513
▁kokosivat	-7514
▁kunniansa	-7515
▁liittonsa	-7516
▁riivaajia	-7517
▁rikkautta	-7518
▁seitsemäs	-7519
▁siunannut	-7520
▁sukupolvi	-7521
▁uhratkoon	-7522
▁vanhempia	-7523
▁vaunuihin	-7524
▁ylistivät	-7525
▁Ainoastaan	-7526
▁Joojakimin	-7527
▁hautasivat	-7528
▁kiivauteni	-7529
▁kuolemasta	-7530
▁opetuslaps	-7531
▁pakanoille	-7532
▁rakastanut	-7533
▁saastaiset	-7534
▁vasemmalla	-7535
▁Minkätähden	-7536
▁Vanhurskaan	-7537
▁noudattakaa	-7538
▁puolestanne	-7539
▁sydämessäsi	-7540
▁tiettäväksi	-7541
▁sukukunnista	-7542
▁valtakuntaan	-7543
▁juutalaisille	-7544
▁palvelijoitasi	-7545
▁viidenkymmenen	-7546
▁kaksikymmenvuot	-7547
Nä	-7548
ok	-7549
vy	-7550
Poi	-7551
Vie	-7552
`?"	-7553
ety	-7554
kah	-7555
kim	-7556
oah	-7557
rkä	-7558
tön	-7559
yhk	-7560
▁Om	-7561
▁[3	-7562
▁pe	-7563
▁um	-7564
ahin	-7565
alsa	-7566
erro	-7567
iini	-7568
kkuu	-7569
lamm	-7570
mmas	-7571
mmit	-7572
mpia	-7573
neta	-7574
suur	-7575
tykö	-7576
töön	-7577
vaim	-7578
▁Geb	-7579
▁Oof	-7580
▁hoo	-7581
▁irr	-7582
▁kol	-7583
▁näk	-7584
▁rep	-7585
▁ulo	-7586
▁Ölj	-7587
Mistä	-7588
ehtin	-7589
ilinn	-7590
isinä	-7591
issut	-7592
istuu	-7593
jänsä	-7594
kenyt	-7595
kkani	-7596
koite	-7597
konne	-7598
lanko	-7599
mitan	-7600
oisia	-7601
ranin	-7602
relle	-7603
sette	-7604
tomia	-7605
uolta	-7606
▁Asdo	-7607
▁Enkö	-7608
▁Hyvä	-7609
▁Kään	-7610
▁Sana	-7611
▁Soob	-7612
▁arka	-7613
▁arki	-7614
▁estä	-7615
▁etkö	-7616
▁hamp	-7617
▁hien	-7618
▁kate	-7619
▁keng	-7620
▁kuih	-7621
▁otat	-7622
▁ruos	-7623
▁taiv	-7624
▁unta	-7625
▁usea	-7626
▁valv	-7627
▁veti	-7628
▁vihm	-7629
atonta	-7630
ellani	-7631
impään	-7632
joiksi	-7633
joille	-7634
kartan	-7635
ksissa	-7636
laista	-7637
maassa	-7638
ottava	-7639
sineen	-7640
ustaan	-7641
verhot	-7642
voinen	-7643
▁Asser	-7644
▁Kansa	-7645
▁Pyhää	-7646
▁aarte	-7647
▁autio	-7648
▁balsa	-7649
▁erehd	-7650
▁halki	-7651
▁huuda	-7652
▁häviä	-7653
▁irsta	-7654
▁kahle	-7655
▁kalat	-7656
▁kalle	-7657
▁kotka	-7658
▁kysyä	-7659
▁levin	-7660
▁levon	-7661
▁loist	-7662
▁löysi	-7663
▁munua	-7664
▁muuan	-7665
▁noita	-7666
▁nouda	-7667
▁ojenn	-7668
▁onhan	-7669
▁oppia	-7670
▁polta	-7671
▁pysyä	-7672
▁ruoho	-7673
▁tavar	-7674
▁tilaa	-7675
▁valhe	-7676
▁valon	-7677
▁varjo	-7678
Antakaa	-7679
alaisen	-7680
eläimet	-7681
estänsä	-7682
ustansa	-7683
ykseksi	-7684
▁Adonia	-7685
▁Ahasja	-7686
▁Alanko	-7687
▁Isänne	-7688
▁epäpyh	-7689
▁hetken	-7690
▁huulet	-7691
▁kaikin	-7692
▁kaitsi	-7693
▁kasvan	-7694
▁katoaa	-7695
▁kuolen	-7696
▁käyttä	-7697
▁käännä	-7698
▁leposi	-7699
▁levisi	-7700
▁loppua	-7701
▁luokse	-7702
▁lyönyt	-7703
▁maalla	-7704
▁mateli	-7705
▁meiltä	-7706
▁molemm	-7707
▁morsia	-7708
▁nostan	-7709
▁nousen	-7710
▁nousta	-7711
▁näille	-7712
▁näkevä	-7713
▁näyssä	-7714
▁omalla	-7715
▁pettää	-7716
▁rautaa	-7717
▁seisah	-7718
▁suojaa	-7719
▁taloja	-7720
▁tuotan	-7721
▁tuulta	-7722
▁vihkiä	-7723
▁väliin	-7724
▁yhdist	-7725
alttarin	-7726
ittämään	-7727
miehille	-7728
▁Korkein	-7729
▁asiasta	-7730
▁hajuain	-7731
▁huonees	-7732
▁hylkäsi	-7733
▁hävitys	-7734
▁illalla	-7735
▁istuvat	-7736
▁itsekin	-7737
▁itseäni	-7738
▁joukkoa	-7739
▁kivistä	-7740
▁kolmeen	-7741
▁korotti	-7742
▁kuivett	-7743
▁kulutti	-7744
▁kuulisi	-7745
▁laakson	-7746
▁luolaan	-7747
▁mieheen	-7748
▁muuttui	-7749
▁näkylei	-7750
▁oikeaan	-7751
▁pannaan	-7752
▁parissa	-7753
▁perkele	-7754
▁perusta	-7755
▁perästä	-7756
▁puhalsi	-7757
▁päivien	-7758
▁päästän	-7759
▁suuteli	-7760
▁syyllis	-7761
▁syöneet	-7762
▁taidoll	-7763
▁tarttum	-7764
▁todella	-7765
▁ulottuu	-7766
▁vuodata	-7767
▁väkijuo	-7768
▁yhdeksi	-7769
▁äärestä	-7770
▁Damaskon	-7771
▁Filippus	-7772
▁Hebronin	-7773
▁Kiitetty	-7774
▁Rakkaani	-7775
▁elinaika	-7776
▁istumaan	-7777
▁isälleni	-7778
▁korvansa	-7779
▁kutsuttu	-7780
▁kysymään	-7781
▁lahjaksi	-7782
▁lunastus	-7783
▁paikasta	-7784
▁pimeässä	-7785
▁pitalita	-7786
▁puolusta	-7787
▁purppura	-7788
▁päätänsä	-7789
▁seisovat	-7790
▁sisareni	-7791
▁siunattu	-7792
▁tahdomme	-7793
▁tietäkää	-7794
▁todistaa	-7795
▁uhratkaa	-7796
▁vaimojen	-7797
▁vastasin	-7798
▁Galileaan	-7799
▁Ylistäkää	-7800
▁ajattelin	-7801
▁esikartan	-7802
▁ihmisistä	-7803
▁jumalansa	-7804
▁karkoitan	-7805
▁kirouksen	-7806
▁kolmannen	-7807
▁kyyhkysen	-7808
▁kädessäsi	-7809
▁laskekoon	-7810
▁pyhäköstä	-7811
▁rukoilkaa	-7812
▁saaliiksi	-7813
▁savenvala	-7814
▁seuraavat	-7815
▁sotakelpo	-7816
▁sydämellä	-7817
▁syntyneet	-7818
▁tekemistä	-7819
▁uhrilahja	-7820
▁valmistaa	-7821
▁vastannut	-7822
▁veljeänsä	-7823
▁aseenkanta	-7824
▁asukkaille	-7825
▁avionrikko	-7826
▁epäjumalan	-7827
▁hävityksen	-7828
▁maanjärist	-7829
▁palvelleet	-7830
▁palveluste	-7831
▁pojallensa	-7832
▁pääsiäistä	-7833
▁rakastatte	-7834
▁seinäpatsa	-7835
▁silmissään	-7836
▁vaivannäkö	-7837
▁välillämme	-7838
▁yksinkerta	-7839
▁Kristukseen	-7840
▁ensimmäiset	-7841
▁gaadilaiset	-7842
▁kukkuloilla	-7843
▁kuninkaansa	-7844
▁kuninkuuden	-7845
▁kunnioittaa	-7846
▁rakentamaan	-7847
▁valtaistuin	-7848
▁valtakunnat	-7849
▁Ahasveroksen	-7850
▁ihmettelivät	-7851
▁käsivartensa	-7852
▁palvelijatar	-7853
▁kahdeksantena	-7854
▁keskuudessasi	-7855
▁pakanakansain	-7856
▁palvelijoiksi	-7857
▁täydelliseksi	-7858
▁vanhurskasten	-7859
▁valtaistuimensa	-7860
▁vanhurskautensa	-7861
-,	-7862
Ha	-7863
jö	-7864
Hoo	-7865
auk	-7866
dat	-7867
muo	-7868
ras	-7869
uke	-7870
▁Eg	-7871
▁kö	-7872
Etkö	-7873
Jear	-7874
Kiit	-7875
ekin	-7876
eltu	-7877
hdan	-7878
ihän	-7879
omin	-7880
oset	-7881
päät	-7882
unni	-7883
voja	-7884
ytyy	-7885
▁Ama	-7886
▁Bel	-7887
▁Keg	-7888
▁Met	-7889
▁Mil	-7890
▁Mis	-7891
▁Reg	-7892
▁Tob	-7893
▁Vih	-7894
▁jis	-7895
▁myi	-7896
▁pei	-7897
▁ros	-7898
▁ruv	-7899
▁ärj	-7900
aalla	-7901
anjan	-7902
eemme	-7903
eestä	-7904
ehtii	-7905
ettaa	-7906
isiko	-7907
istus	-7908
isyys	-7909
kista	-7910
mänsä	-7911
mätön	-7912
oitat	-7913
opota	-7914
ppien	-7915
teita	-7916
utoja	-7917
uudet	-7918
uurin	-7919
volle	-7920
▁Aamo	-7921
▁Aika	-7922
▁Arpa	-7923
▁Eeli	-7924
▁	-7925
a	-7926
i	-7927
n	-7928
e	-7929
t	-7930
s	-7931
l	-7932
ä	-7933
k	-7934
u	-7935
o	-7936
m	-7937
h	-7938
v	-7939
r	-7940
j	-7941
,	-7942
p	-7943
y	-7944
.	-7945
d	-7946
J	-7947
H	-7948
"	-7949
ö	-7950
S	-7951
:	-7952
M	-7953
;	-7954
K	-7955
b	-7956
g	-7957
N	-7958
A	-7959
E	-7960
I	-7961
?	-7962
f	-7963
T	-7964
`	-7965
-	-7966
P	-7967
B	-7968
D	-7969
V	-7970
!	-7971
O	-7972
G	-7973
R	-7974
L	-7975
Ä	-7976
U	-7977
Y	-7978
F	-7979
1	-7980
[	-7981
]	-7982
3	-7983
2	-7984
4	-7985
9	-7986
0	-7987
5	-7988
(	-7989
)	-7990
8	-7991
6	-7992
7	-7993
Ö	-7994
Z	-7995
/	-7996
