<pad>	0
</s>	0
<unk>	0
▁¦	-0
▁、	-1
なた	-2
あなた	-3
って	-4
たし	-5
わたし	-6
▁。	-7
その	-8
った	-9
であ	-10
ない	-11
して	-12
から	-13
こと	-14
われ	-15
である	-16
彼ら	-17
あなたが	-18
たち	-19
よう	-20
あなたがた	-21
また	-22
した	-23
られ	-24
」。	-25
なら	-26
わたしは	-27
エル	-28
これ	-29
いる	-30
あなたの	-31
それ	-32
ように	-33
さい	-34
言った	-35
ため	-36
この	-37
の子	-38
いた	-39
する	-40
、「	-41
され	-42
べて	-43
ので	-44
わたしの	-45
いて	-46
ならない	-47
ろう	-48
すべて	-49
なる	-50
イス	-51
ラエル	-52
イスラエル	-53
ある	-54
ために	-55
れば	-56
主は	-57
かし	-58
人々	-59
びと	-60
あなたは	-61
には	-62
彼らは	-63
であろう	-64
主の	-65
もの	-66
言われ	-67
ことを	-68
者は	-69
すべての	-70
そこ	-71
なさい	-72
エス	-73
イスラエルの	-74
をも	-75
によ	-76
イエス	-77
彼は	-78
うち	-79
られた	-80
ければ	-81
なければ	-82
こう	-83
自分	-84
しかし	-85
られる	-86
ます	-87
かった	-88
そして	-89
これを	-90
くだ	-91
あなたがたの	-92
もろ	-93
しい	-94
なければならない	-95
ことが	-96
んで	-97
▁、「	-98
あなたがたは	-99
われわれ	-100
なわ	-101
えて	-102
れる	-103
なかった	-104
んだ	-105
れた	-106
わが	-107
のために	-108
わたしを	-109
▁」。	-110
わたしが	-111
わたしたち	-112
れて	-113
によって	-114
すなわ	-115
すなわち	-116
どう	-117
させ	-118
人の	-119
をもって	-120
ンの	-121
からである	-122
わたしに	-123
きて	-124
ょう	-125
およ	-126
ください	-127
言葉	-128
を見	-129
える	-130
ユダ	-131
された	-132
とり	-133
のうち	-134
では	-135
言われた	-136
および	-137
でき	-138
につ	-139
そこで	-140
もし	-141
神の	-142
ころ	-143
なく	-144
のように	-145
っている	-146
前に	-147
に言った	-148
共に	-149
のか	-150
ダビ	-151
ダビデ	-152
それを	-153
彼らの	-154
はならない	-155
えた	-156
まで	-157
らせ	-158
とを	-159
とな	-160
きた	-161
▁その	-162
彼らを	-163
ました	-164
であった	-165
とき	-166
主が	-167
のである	-168
とに	-169
自分の	-170
ささ	-171
祭司	-172
これは	-173
人を	-174
あなたを	-175
そう	-176
神は	-177
ひとり	-178
つか	-179
ことは	-180
しょう	-181
ゆえ	-182
人は	-183
たちは	-184
リヤ	-185
ところ	-186
主に	-187
アブ	-188
上に	-189
あなたに	-190
ことができ	-191
です	-192
があ	-193
べき	-194
として	-195
おの	-196
ささげ	-197
らの	-198
モー	-199
モーセ	-200
ませ	-201
される	-202
者の	-203
と共に	-204
にな	-205
物を	-206
だれ	-207
の中	-208
おり	-209
レム	-210
サレム	-211
事を	-212
エルサレム	-213
兄弟	-214
者を	-215
みな	-216
▁また	-217
かって	-218
行って	-219
もろの	-220
シャ	-221
と言	-222
彼を	-223
彼らに	-224
のです	-225
もろもろの	-226
める	-227
はその	-228
▁「	-229
受け	-230
エジ	-231
地に	-232
言われる	-233
出て	-234
プト	-235
エジプト	-236
人々は	-237
めた	-238
つの	-239
ならば	-240
めて	-241
のは	-242
とい	-243
▁わたしは	-244
の王	-245
にある	-246
人が	-247
かに	-248
彼女	-249
イエスは	-250
それは	-251
彼に	-252
者が	-253
取り	-254
命じ	-255
見よ	-256
預言	-257
キリ	-258
滅ぼ	-259
とその	-260
彼の	-261
ロン	-262
にも	-263
行った	-264
▁しかし	-265
しも	-266
▁そこで	-267
の家	-268
スト	-269
多く	-270
らは	-271
あなたがたに	-272
の子孫	-273
であって	-274
しく	-275
けて	-276
にあ	-277
ごと	-278
しもべ	-279
キリスト	-280
ただ	-281
わせ	-282
について	-283
こうして	-284
、『	-285
ている	-286
でしょう	-287
しみ	-288
にお	-289
たちの	-290
与え	-291
サウ	-292
王の	-293
▁主は	-294
地の	-295
所に	-296
ません	-297
▁そして	-298
ごとく	-299
りを	-300
主よ	-301
言葉を	-302
ける	-303
びとの	-304
行き	-305
るであろう	-306
▁それ	-307
りの	-308
ルの	-309
ムの	-310
わざ	-311
食べ	-312
をあ	-313
いつ	-314
いに	-315
したが	-316
彼らが	-317
言う	-318
告げ	-319
とし	-320
とは	-321
あなたがたが	-322
ことごとく	-323
とおり	-324
ような	-325
の間	-326
これらの	-327
かの	-328
います	-329
人に	-330
民は	-331
立って	-332
王は	-333
いを	-334
さば	-335
罪を	-336
かな	-337
行く	-338
主を	-339
モン	-340
イスラエルの人々	-341
もとに	-342
来る	-343
▁」	-344
シュ	-345
ヤコ	-346
者に	-347
ヤコブ	-348
よい	-349
に住	-350
われわれの	-351
かた	-352
彼が	-353
捨て	-354
祭壇	-355
けた	-356
名を	-357
を受け	-358
手に	-359
聞き	-360
われわれは	-361
すると	-362
▁彼らは	-363
民を	-364
より	-365
ではない	-366
でも	-367
らない	-368
手を	-369
たちを	-370
あなたがたを	-371
▁あなたは	-372
わたしたちは	-373
を得	-374
エリ	-375
▁』	-376
るぎ	-377
のうちに	-378
立ち	-379
たちが	-380
となる	-381
多くの	-382
日に	-383
主なる	-384
のだ	-385
律法	-386
とする	-387
の上に	-388
▁彼は	-389
いなる	-390
つかわ	-391
している	-392
っていた	-393
いだ	-394
かつ	-395
あり	-396
身を	-397
地を	-398
とが	-399
先祖	-400
心を	-401
しる	-402
ニヤ	-403
その子	-404
ルは	-405
立て	-406
むかって	-407
たちに	-408
あが	-409
つるぎ	-410
民の	-411
いの	-412
と言った	-413
レビ	-414
一緒	-415
すれば	-416
いなさい	-417
聖なる	-418
まえ	-419
なが	-420
聞いて	-421
大いなる	-422
しき	-423
定め	-424
しま	-425
正しい	-426
をお	-427
を行	-428
つかさ	-429
かせ	-430
神に	-431
という	-432
となり	-433
にいる	-434
ぶどう	-435
ふた	-436
パン	-437
部族	-438
んな	-439
ここ	-440
ものは	-441
かわ	-442
のに	-443
がある	-444
建て	-445
対して	-446
ラム	-447
ユダヤ	-448
なお	-449
呼ば	-450
▁この	-451
ゆる	-452
ものを	-453
は言った	-454
知恵	-455
時に	-456
にはい	-457
どうして	-458
ども	-459
る者は	-460
リシ	-461
のを	-462
いは	-463
のですか	-464
わたしたちの	-465
ると	-466
引き	-467
預言者	-468
さて	-469
にしたが	-470
になった	-471
はい	-472
弟子	-473
のを見	-474
ソロ	-475
であり	-476
を守	-477
のない	-478
契約	-479
よりも	-480
あなたの神	-481
軍の	-482
らに	-483
生き	-484
ダビデは	-485
喜び	-486
ためである	-487
町々	-488
アロン	-489
る者	-490
幕屋	-491
に従	-492
追い	-493
恵み	-494
そこに	-495
るように	-496
とど	-497
打ち	-498
氏族	-499
ないで	-500
ユダの	-501
おのおの	-502
いで	-503
ビト	-504
栄光	-505
一緒に	-506
キュ	-507
キュビト	-508
神を	-509
取って	-510
バビ	-511
なり	-512
ヨセ	-513
からだ	-514
連れて	-515
ものである	-516
神が	-517
ゆえに	-518
げて	-519
キヤ	-520
パロ	-521
信じ	-522
恐れ	-523
ヨセフ	-524
ひとりの	-525
これに	-526
ペリシ	-527
ペリシテ	-528
なぜ	-529
燔祭	-530
荒野	-531
となった	-532
ることができ	-533
同じ	-534
祝福	-535
があり	-536
ンは	-537
一つ	-538
なった	-539
ること	-540
▁、『	-541
いと	-542
りに	-543
レア	-544
他の	-545
シュア	-546
にしたがって	-547
らを	-548
ラハ	-549
の中に	-550
信仰	-551
とした	-552
一つの	-553
ことはない	-554
との	-555
大き	-556
万軍の	-557
向かって	-558
エジプトの	-559
道を	-560
そうすれば	-561
アビ	-562
こう言われる	-563
てください	-564
に言われた	-565
人の子	-566
よく	-567
を造	-568
心に	-569
おまえ	-570
ほかの	-571
スリヤ	-572
まず	-573
ライ	-574
ロンの	-575
帰って	-576
しえ	-577
もまた	-578
と言う	-579
罪を犯	-580
さばき	-581
ではないか	-582
エフ	-583
日の	-584
前で	-585
良い	-586
をささげ	-587
アル	-588
十二	-589
だけ	-590
入れ	-591
思い	-592
われた	-593
われる	-594
があった	-595
ましょう	-596
ケル	-597
宮の	-598
アブラハ	-599
られて	-600
とも	-601
家に	-602
尋ね	-603
ことを知	-604
をつ	-605
アハ	-606
ソロモン	-607
供え	-608
うちに	-609
ってはならない	-610
だから	-611
しなさい	-612
びとは	-613
主なる神は	-614
主の前に	-615
の木	-616
子を	-617
どこ	-618
悪しき	-619
の前に	-620
かり	-621
のが	-622
民に	-623
▁もし	-624
出して	-625
んでいる	-626
のある	-627
上って	-628
かえ	-629
ながら	-630
むべき	-631
二十	-632
かれた	-633
どうぞ	-634
▁あなたがたは	-635
の上	-636
死んだ	-637
聞いた	-638
サム	-639
きょう	-640
滅び	-641
マリヤ	-642
ところが	-643
所で	-644
だれが	-645
どうか	-646
答えて	-647
ところに	-648
たちよ	-649
なん	-650
嗣業	-651
主は言われる	-652
を取り	-653
とおりである	-654
▁こうして	-655
せよ	-656
がよい	-657
されて	-658
ヨシュア	-659
ムは	-660
しない	-661
と一緒に	-662
モーセは	-663
▁あなたの	-664
人々が	-665
出た	-666
るべき	-667
殺した	-668
イエスの	-669
とこ	-670
仰せ	-671
助け	-672
とこしえ	-673
者である	-674
ってお	-675
まだ	-676
それゆえ	-677
町の	-678
オン	-679
のでは	-680
または	-681
国の	-682
その時	-683
アン	-684
下さ	-685
パウ	-686
常に	-687
パウロ	-688
与える	-689
はや	-690
投げ	-691
愛する	-692
してはならない	-693
と思	-694
のよう	-695
ルダ	-696
必ず	-697
ろうか	-698
あわれ	-699
ベア	-700
次の	-701
犠牲	-702
持って	-703
の方	-704
撃ち	-705
者も	-706
いつく	-707
あら	-708
満ち	-709
えられた	-710
ことがない	-711
』。	-712
▁さて	-713
ことに	-714
になって	-715
そむ	-716
悪い	-717
とどま	-718
▁すなわち	-719
あかし	-720
アシ	-721
国々	-722
導き	-723
集ま	-724
おお	-725
に至	-726
の長	-727
を知	-728
攻め	-729
してください	-730
の一	-731
会衆	-732
あった	-733
▁それゆえ	-734
りは	-735
呼び	-736
小羊	-737
水を	-738
ようか	-739
サウル	-740
モアブ	-741
生きて	-742
あるいは	-743
あの	-744
らず	-745
死ぬ	-746
安息	-747
を建て	-748
イエスを	-749
このように	-750
それに	-751
再び	-752
周囲	-753
救い	-754
ずから	-755
とって	-756
またその	-757
テロ	-758
彼女は	-759
すぐ	-760
のうちから	-761
のろ	-762
ベテ	-763
地は	-764
させた	-765
携えて	-766
▁イエスは	-767
近づ	-768
をする	-769
ダビデの	-770
をか	-771
ヨルダ	-772
なし	-773
戒め	-774
父の	-775
それで	-776
からです	-777
名は	-778
群れ	-779
いない	-780
させる	-781
与えた	-782
カル	-783
わなければならない	-784
カナ	-785
目に	-786
びとを	-787
もない	-788
いつくしみ	-789
のすべての	-790
タン	-791
感謝	-792
手から	-793
いや	-794
など	-795
れている	-796
▁・	-797
群衆	-798
金の	-799
わせて	-800
ありません	-801
命じられた	-802
エルサレムに	-803
ヨハ	-804
かれ	-805
つく	-806
をし	-807
神よ	-808
わった	-809
わたしはあなたの	-810
まさ	-811
ザル	-812
ミヤ	-813
来て	-814
油を	-815
ニヤミ	-816
下って	-817
恐れる	-818
これらは	-819
エフライ	-820
らなければならない	-821
わず	-822
宿営	-823
らせた	-824
すで	-825
互に	-826
出し	-827
言い	-828
ユダの王	-829
ヨナ	-830
神々	-831
かれる	-832
ついに	-833
を見て	-834
の子らは	-835
ベニヤミ	-836
主である	-837
あげ	-838
異邦	-839
主の言葉	-840
はず	-841
がその	-842
できない	-843
にあって	-844
▁すると	-845
いま	-846
命を	-847
聖所	-848
自身	-849
血を	-850
高き	-851
おきて	-852
ペテロ	-853
与えて	-854
ではなく	-855
▁『	-856
捕え	-857
聞く	-858
求める	-859
あなたと	-860
きなさい	-861
ないように	-862
▁	-863
の	-864
¦	-865
、	-866
た	-867
に	-868
は	-869
な	-870
を	-871
し	-872
。	-873
て	-874
い	-875
と	-876
る	-877
あ	-878
れ	-879
ら	-880
が	-881
わ	-882
で	-883
っ	-884
か	-885
そ	-886
こ	-887
う	-888
も	-889
ま	-890
す	-891
よ	-892
さ	-893
き	-894
り	-895
彼	-896
ち	-897
く	-898
え	-899
言	-900
エ	-901
め	-902
人	-903
ル	-904
主	-905
者	-906
お	-907
だ	-908
つ	-909
ろ	-910
け	-911
イ	-912
ス	-913
ア	-914
せ	-915
び	-916
み	-917
「	-918
」	-919
ラ	-920
べ	-921
ば	-922
子	-923
ン	-924
神	-925
ん	-926
ヤ	-927
行	-928
シ	-929
ム	-930
リ	-931
ど	-932
々	-933
ダ	-934
王	-935
見	-936
地	-937
む	-938
げ	-939
サ	-940
レ	-941
ロ	-942
ビ	-943
出	-944
デ	-945
ず	-946
民	-947
ブ	-948
じ	-949
テ	-950
一	-951
祭	-952
分	-953
や	-954
日	-955
上	-956
時	-957
ト	-958
自	-959
物	-960
モ	-961
知	-962
家	-963
所	-964
手	-965
ヨ	-966
セ	-967
前	-968
事	-969
ひ	-970
マ	-971
ハ	-972
立	-973
バ	-974
十	-975
国	-976
パ	-977
女	-978
ナ	-979
聞	-980
キ	-981
ご	-982
ほ	-983
心	-984
ベ	-985
大	-986
中	-987
取	-988
ゆ	-989
生	-990
食	-991
二	-992
葉	-993
ぎ	-994
町	-995
ょ	-996
ユ	-997
『	-998
』	-999
カ	-1000
悪	-1001
命	-1002
父	-1003
ぶ	-1004
死	-1005
名	-1006
弟	-1007
罪	-1008
与	-1009
ウ	-1010
下	-1011
共	-1012
ジ	-1013
聖	-1014
来	-1015
タ	-1016
へ	-1017
長	-1018
目	-1019
ふ	-1020
ク	-1021
間	-1022
ぼ	-1023
司	-1024
族	-1025
ざ	-1026
殺	-1027
身	-1028
ね	-1029
全	-1030
滅	-1031
天	-1032
プ	-1033
オ	-1034
ミ	-1035
ー	-1036
三	-1037
会	-1038
住	-1039
兄	-1040
コ	-1041
思	-1042
帰	-1043
フ	-1044
ペ	-1045
ネ	-1046
入	-1047
信	-1048
道	-1049
恐	-1050
ザ	-1051
従	-1052
ャ	-1053
語	-1054
受	-1055
宮	-1056
孫	-1057
メ	-1058
年	-1059
水	-1060
ュ	-1061
多	-1062
救	-1063
今	-1064
呼	-1065
ニ	-1066
羊	-1067
ゼ	-1068
先	-1069
喜	-1070
造	-1071
ケ	-1072
高	-1073
口	-1074
恵	-1075
去	-1076
万	-1077
山	-1078
七	-1079
四	-1080
得	-1081
ド	-1082
正	-1083
預	-1084
守	-1085
愛	-1086
答	-1087
頭	-1088
使	-1089
義	-1090
霊	-1091
力	-1092
戦	-1093
起	-1094
書	-1095
荒	-1096
ぐ	-1097
何	-1098
声	-1099
方	-1100
向	-1101
告	-1102
金	-1103
実	-1104
部	-1105
五	-1106
持	-1107
光	-1108
軍	-1109
火	-1110
ヒ	-1111
同	-1112
世	-1113
後	-1114
百	-1115
野	-1116
ッ	-1117
集	-1118
幕	-1119
・	-1120
木	-1121
ヘ	-1122
御	-1123
ホ	-1124
仰	-1125
仕	-1126
定	-1127
怒	-1128
教	-1129
着	-1130
求	-1131
供	-1132
娘	-1133
ソ	-1134
不	-1135
妻	-1136
足	-1137
法	-1138
栄	-1139
対	-1140
安	-1141
石	-1142
数	-1143
残	-1144
汚	-1145
ガ	-1146
づ	-1147
皆	-1148
約	-1149
追	-1150
牛	-1151
雄	-1152
門	-1153
引	-1154
打	-1155
敵	-1156
歩	-1157
祖	-1158
離	-1159
ギ	-1160
衆	-1161
海	-1162
福	-1163
血	-1164
渡	-1165
ぜ	-1166
小	-1167
壇	-1168
捨	-1169
連	-1170
他	-1171
近	-1172
ぬ	-1173
良	-1174
合	-1175
置	-1176
撃	-1177
産	-1178
ぞ	-1179
場	-1180
捕	-1181
満	-1182
屋	-1183
臨	-1184
千	-1185
律	-1186
苦	-1187
代	-1188
群	-1189
飲	-1190
第	-1191
犯	-1192
肉	-1193
男	-1194
緒	-1195
建	-1196
寄	-1197
誓	-1198
夜	-1199
強	-1200
香	-1201
望	-1202
次	-1203
銀	-1204
助	-1205
焼	-1206
倒	-1207
願	-1208
遠	-1209
顔	-1210
平	-1211
座	-1212
月	-1213
油	-1214
切	-1215
真	-1216
祈	-1217
ズ	-1218
若	-1219
酒	-1220
六	-1221
導	-1222
ノ	-1223
器	-1224
攻	-1225
祝	-1226
母	-1227
憎	-1228
契	-1229
囲	-1230
流	-1231
示	-1232
進	-1233
息	-1234
氏	-1235
偽	-1236
終	-1237
結	-1238
ピ	-1239
注	-1240
報	-1241
川	-1242
内	-1243
外	-1244
像	-1245
君	-1246
悩	-1247
老	-1248
獣	-1249
宿	-1250
燔	-1251
断	-1252
叫	-1253
耳	-1254
病	-1255
至	-1256
畑	-1257
過	-1258
重	-1259
ゲ	-1260
伏	-1261
常	-1262
清	-1263
治	-1264
携	-1265
気	-1266
選	-1267
歌	-1268
必	-1269
明	-1270
衣	-1271
伝	-1272
拝	-1273
種	-1274
異	-1275
ボ	-1276
服	-1277
放	-1278
尋	-1279
災	-1280
箱	-1281
青	-1282
当	-1283
業	-1284
落	-1285
営	-1286
戒	-1287
破	-1288
初	-1289
賜	-1290
送	-1291
絶	-1292
悲	-1293
及	-1294
投	-1295
牧	-1296
柱	-1297
通	-1298
開	-1299
嗣	-1300
現	-1301
礼	-1302
隠	-1303
負	-1304
感	-1305
用	-1306
歳	-1307
互	-1308
悟	-1309
愚	-1310
逃	-1311
楽	-1312
意	-1313
争	-1314
作	-1315
永	-1316
恥	-1317
返	-1318
理	-1319
―	-1320
働	-1321
別	-1322
風	-1323
土	-1324
勇	-1325
体	-1326
夫	-1327
車	-1328
牲	-1329
犠	-1330
ツ	-1331
解	-1332
再	-1333
右	-1334
徒	-1335
話	-1336
以	-1337
度	-1338
東	-1339
奪	-1340
待	-1341
馬	-1342
朝	-1343
罰	-1344
備	-1345
証	-1346
音	-1347
グ	-1348
堅	-1349
周	-1350
最	-1351
激	-1352
貧	-1353
富	-1354
士	-1355
加	-1356
壁	-1357
深	-1358
頼	-1359
麦	-1360
八	-1361
謝	-1362
害	-1363
泣	-1364
無	-1365
獲	-1366
諸	-1367
谷	-1368
勢	-1369
城	-1370
宣	-1371
新	-1372
動	-1373
工	-1374
束	-1375
邦	-1376
成	-1377
兵	-1378
庭	-1379
ポ	-1380
利	-1381
穴	-1382
乗	-1383
台	-1384
伸	-1385
砕	-1386
北	-1387
糸	-1388
雲	-1389
権	-1390
除	-1391
属	-1392
寝	-1393
布	-1394
淫	-1395
魂	-1396
境	-1397
暗	-1398
乳	-1399
親	-1400
少	-1401
広	-1402
戸	-1403
洗	-1404
非	-1405
側	-1406
嘆	-1407
畜	-1408
和	-1409
務	-1410
勝	-1411
吹	-1412
払	-1413
空	-1414
変	-1415
夕	-1416
殿	-1417
移	-1418
隷	-1419
岩	-1420
様	-1421
奴	-1422
銅	-1423
裂	-1424
僕	-1425
官	-1426
決	-1427
留	-1428
偶	-1429
割	-1430
皮	-1431
買	-1432
ヅ	-1433
墓	-1434
宝	-1435
散	-1436
有	-1437
誇	-1438
燃	-1439
葬	-1440
議	-1441
召	-1442
驚	-1443
売	-1444
計	-1445
設	-1446
半	-1447
学	-1448
訴	-1449
善	-1450
果	-1451
降	-1452
令	-1453
消	-1454
隣	-1455
張	-1456
憤	-1457
授	-1458
位	-1459
尊	-1460
隊	-1461
確	-1462
労	-1463
角	-1464
踏	-1465
ゴ	-1466
傾	-1467
役	-1468
眠	-1469
築	-1470
素	-1471
相	-1472
鳥	-1473
傷	-1474
枝	-1475
花	-1476
識	-1477
公	-1478
南	-1479
好	-1480
難	-1481
復	-1482
指	-1483
納	-1484
領	-1485
骨	-1486
村	-1487
迎	-1488
妹	-1489
首	-1490
問	-1491
舟	-1492
越	-1493
込	-1494
保	-1495
忘	-1496
