<pad>	0
</s>	0
<unk>	0
ም	-3.06232
ን	-3.38798
▁	-3.48848
፥	-3.84654
።	-3.98635
ና	-4.14593
▁በ	-4.30187
▁የ	-4.47992
ል	-4.48556
ት	-4.48726
፤	-4.48758
ስ	-4.49525
▁አ	-4.57181
ር	-4.68649
ው	-4.69638
▁ከ	-4.92901
ለ	-4.93161
ብ	-4.95332
▁ይ	-4.95772
ረ	-4.96463
▁ወደ	-4.98055
ድ	-5.0424
▁ሁሉ	-5.10808
ህ	-5.19007
ራ	-5.19105
ያ	-5.21501
ላ	-5.23951
ባ	-5.25217
ገ	-5.25846
ታ	-5.28866
▁መ	-5.30308
ንም	-5.3204
በ	-5.32603
መ	-5.32754
▁ተ	-5.3707
▁ለ	-5.39244
ደ	-5.39796
▁እ	-5.39849
▁እንደ	-5.39992
ግ	-5.40949
▁ያ	-5.43693
ማ	-5.43909
ሰ	-5.48145
ቀ	-5.50413
ጥ	-5.51601
ጠ	-5.55729
▁ላይ	-5.55854
ቅ	-5.56921
▁ዘንድ	-5.57858
ነ	-5.60413
ይ	-5.60551
▁እግዚአብሔር	-5.65843
ሳ	-5.66973
ዋ	-5.6901
ፍ	-5.70383
?	-5.71582
▁የሚ	-5.71794
▁ግን	-5.72129
ች	-5.72784
ተ	-5.74149
ከ	-5.74846
ዳ	-5.75971
ክ	-5.7757
ፈ	-5.78985
ሩ	-5.87402
ጋ	-5.87755
▁ት	-5.90557
ሉ	-5.90727
▁ነገር	-5.97339
ሽ	-5.97576
▁ስለ	-5.97748
ቃ	-5.98138
ወ	-5.99609
▁ጊዜ	-6.02892
▁ልጆች	-6.0364
▁ጋር	-6.05185
ሁ	-6.06301
ኑ	-6.0673
በት	-6.06825
ቱ	-6.08085
▁ልጅ	-6.10626
ዘ	-6.12753
ካ	-6.16791
ጣ	-6.17968
▁ሰው	-6.18433
▁የተ	-6.18468
ዓ	-6.19246
ቶ	-6.19392
ዝ	-6.20428
ውን	-6.2275
▁አይ	-6.23232
▁ሰ	-6.23445
ሱ	-6.25834
ፋ	-6.30136
▁እኔ	-6.31359
ዱ	-6.31737
ሮ	-6.33749
ኝ	-6.38378
▁ታ	-6.38929
▁እንዲህ	-6.44629
▁ቀን	-6.44953
ሙ	-6.45992
ቁ	-6.47156
▁ቤት	-6.47912
ቤ	-6.49185
▁ማ	-6.50973
ቡ	-6.51763
▁ፊት	-6.52106
▁አል	-6.52639
ሌ	-6.54617
ዮ	-6.56484
▁ሆይ፥	-6.56679
ዎች	-6.57961
▁በአ	-6.59491
ጽ	-6.59588
ትን	-6.59721
ውም	-6.60019
ሬ	-6.60542
▁አንተ	-6.60627
▁የአ	-6.61592
ሕ	-6.61666
ሎ	-6.63909
▁ወ	-6.64097
ቆ	-6.64159
ሸ	-6.64431
▁እርሱ	-6.64645
ሴ	-6.65347
ዛ	-6.65467
ሞ	-6.65841
▁ቃል	-6.66106
▁ሰዎች	-6.66635
▁ነው	-6.67135
ላችሁ	-6.69499
ኖ	-6.69952
ሥ	-6.70391
ዩ	-6.70486
ለው	-6.70727
▁ደግሞ	-6.70946
ጡ	-6.71252
▁አት	-6.72351
ዶ	-6.7259
▁ምድር	-6.72636
ቴ	-6.72937
▁ይህ	-6.75471
▁ድረስ	-6.76087
ህን	-6.7657
ጉ	-6.77421
ሜ	-6.78134
ችሁ	-6.79214
ጸ	-6.79232
አ	-6.79259
የ	-6.80066
▁ንጉሥ	-6.80406
▁አንድ	-6.81363
▁ደ	-6.81778
▁ስ	-6.82597
▁ል	-6.82826
▁እስከ	-6.82927
▁በእግዚአብሔር	-6.84741
▁ሆነ	-6.84849
ንና	-6.84958
ዕ	-6.86057
▁አለው።	-6.86302
ኛ	-6.88369
▁ጌታ	-6.88926
▁እን	-6.89348
▁ባ	-6.89701
▁ሲ	-6.9005
▁በመ	-6.9095
▁ቢ	-6.90966
▁ነው።	-6.91402
▁ውስጥ	-6.91521
▁ብሎ	-6.92409
ፉ	-6.93583
▁አስ	-6.94199
ነት	-6.94786
ሻ	-6.94869
▁ነበር።	-6.95073
ዙ	-6.95156
ሪ	-6.95312
ላቸው	-6.96428
▁እናንተ	-6.96692
▁ቀ	-6.97397
▁የእግዚአብሔር	-6.97667
▁አለ።	-6.98061
ተው	-6.98842
ቸው	-6.99856
▁ከአ	-6.9993
ሐ	-7.00066
▁በኋላ	-7.004
ወጣ	-7.00831
▁ጠ	-7.01066
ገባ	-7.02264
መጣ	-7.0426
ሆን	-7.04315
ሰማ	-7.04643
ሆ	-7.04948
ል።	-7.04988
▁ገ	-7.05087
▁እጅ	-7.05384
▁ስለዚህ	-7.06631
ለህ	-7.08026
▁ይህን	-7.08153
▁ሊ	-7.08172
ቶች	-7.08208
ለት	-7.08581
ሠ	-7.08882
▁እግዚአብሔርም	-7.09238
▁የሚያ	-7.10393
ባቸው	-7.10688
▁በእ	-7.10811
ጨ	-7.11089
▁እነሆ፥	-7.11098
ጻ	-7.11452
▁አምላክ	-7.11662
▁አለ	-7.11771
ቢ	-7.12032
ቱን	-7.13539
▁እርሱም	-7.14767
▁መካከል	-7.15388
ቈ	-7.17026
ውያን	-7.17277
▁ወይም	-7.17702
ሶ	-7.17793
ሉ።	-7.1793
ተኛ	-7.18112
ሠራ	-7.18366
ል፥	-7.19375
▁ዓመት	-7.19489
▁የእስራኤል	-7.20059
▁ሕዝብ	-7.2027
▁እንዲ	-7.20422
▁ምን	-7.20443
ህም	-7.22319
▁በተ	-7.23489
ችን	-7.23948
▁ለመ	-7.24815
▁ከእርሱ	-7.24989
ሉት	-7.26362
ቼ	-7.26516
ጫ	-7.26799
ጠፋ	-7.27305
▁እንዲሁ	-7.27311
▁ነው፤	-7.28047
ጃ	-7.28071
ኃ	-7.28575
ኮ	-7.28641
▁አላ	-7.28882
▁ሁለት	-7.29374
▁ፈ	-7.2941
▁ሥራ	-7.29712
ዬ	-7.30553
ጎ	-7.30618
ፊ	-7.31556
▁ግ	-7.31786
አቸው	-7.31846
ደር	-7.31899
ፈር	-7.31998
▁ደስ	-7.3229
ጅ	-7.32635
▁እንዳ	-7.33444
ባት	-7.33474
▁የመ	-7.33547
ጭ	-7.33791
ኤ	-7.34059
▁አሳ	-7.35266
▁ዓ	-7.36194
▁ዘ	-7.36275
▁የእ	-7.36614
▁በዚያ	-7.36647
ቻቸው	-7.36833
▁ብዙ	-7.37111
▁ያለ	-7.37994
ል፤	-7.38914
▁እነዚህ	-7.3901
ሆኑ	-7.39687
ዊ	-7.39735
▁ስፍራ	-7.40584
እ	-7.41022
ሊ	-7.41028
▁ካ	-7.41087
▁መሥዋዕት	-7.4113
ራቸው	-7.41247
ቂ	-7.4178
ሣ	-7.42133
▁እንጂ	-7.42612
ጕ	-7.42765
ለሁ	-7.42829
ኩ	-7.42909
ኪ	-7.42924
▁ነ	-7.43359
▁ለእግዚአብሔር	-7.43427
▁ለአ	-7.43469
ና።	-7.43766
ሰው	-7.44058
ሚ	-7.44267
▁ክፉ	-7.45183
▁እግዚአብሔርን	-7.45338
ሃል	-7.45903
▁ከመ	-7.45999
▁ጥ	-7.46042
ቦ	-7.46072
▁መቶ	-7.46556
ቱም	-7.47342
ሮች	-7.48396
▁በደ	-7.4847
ኤል	-7.48649
▁በሰ	-7.48903
ጦ	-7.49761
ውንም	-7.50164
▁በሚ	-7.5048
ጀ	-7.50629
▁ከፍ	-7.50766
ቍ	-7.51004
ጢ	-7.51369
▁በዚህ	-7.52101
▁አላቸው።	-7.525
▁በምድር	-7.52682
ቀር	-7.53059
ዎቹ	-7.53103
▁እጅግ	-7.53174
ናቸው	-7.53182
ቹ	-7.53187
▁ስም	-7.53473
▁እስራኤል	-7.53549
▁የእግዚአብሔርን	-7.53848
መጡ	-7.54411
ሉ፤	-7.54471
▁ይላል	-7.55398
▁ነበረ።	-7.55605
ጐ	-7.55778
ርያ	-7.5626
▁እነርሱም	-7.56981
ታቸው	-7.57062
ሃ	-7.57785
ደርግ	-7.58333
▁በዚያም	-7.58666
ዴ	-7.58826
ኬ	-7.59217
▁ቅ	-7.59367
▁ሳ	-7.59407
▁እኔም	-7.59524
ታችሁ	-7.59682
▁ማን	-7.59828
▁ነገ	-7.60379
▁ብ	-7.60552
▁ነበር፤	-7.60593
▁ለሚ	-7.60914
ነሣ	-7.61251
ሉ፥	-7.61542
▁ከተማ	-7.61771
በላ	-7.61827
▁በእስራኤል	-7.61975
▁ድ	-7.6214
ኛል	-7.62175
▁ሺህ	-7.62384
ሪያ	-7.62511
▁እንዳይ	-7.62868
ሄ	-7.62881
ወር	-7.63042
ለሁ።	-7.63075
ኔ	-7.63202
▁መልካም	-7.63436
▁መንገድ	-7.63599
ዚ	-7.64122
ኛው	-7.64242
▁በእርሱ	-7.64816
ቻ	-7.65134
▁አቤቱ	-7.65232
▁የምት	-7.65275
▁እየ	-7.66697
ቢያ	-7.66857
ነው	-7.67672
▁ይሰ	-7.67866
▁አለቆች	-7.67945
ለሁ፤	-7.68822
▁ውኃ	-7.68878
▁እንደሚ	-7.69112
ሞት	-7.69197
▁ኃጢአት	-7.69225
▁የማ	-7.69458
▁ዘመን	-7.6947
ብር	-7.70388
▁ኢየሱስ	-7.70404
▁ይላል።	-7.70535
▁በማ	-7.70714
▁ከዚያ	-7.70744
ወጡ	-7.71132
ዖ	-7.72275
ነበ	-7.72681
ኞች	-7.7285
ዲ	-7.73036
▁ወንድ	-7.73255
▁ነውና	-7.74135
▁አይደለም	-7.74519
ድን	-7.7456
አልና	-7.74667
▁ከእ	-7.74888
ነገ	-7.74956
▁ሸ	-7.74972
▁አለቃ	-7.75047
▁አገር	-7.75086
▁በል	-7.75499
▁ከእነርሱ	-7.76117
▁እኛ	-7.76738
▁ነኝ	-7.76852
ጆ	-7.7729
▁አደረገ	-7.77744
▁ዛሬ	-7.78222
▁አሕዛብ	-7.78445
ባል	-7.78585
መሰ	-7.78945
ኖር	-7.78975
▁ወር	-7.79217
ወድ	-7.79614
ገረ	-7.7978
▁ባሪያ	-7.79949
▁ጊዜ፥	-7.8008
▁ታላቅ	-7.80117
ት።	-7.80268
▁ልብ	-7.80844
ው።	-7.80957
ቸ	-7.80975
▁እነርሱ	-7.80982
ለሁ፥	-7.81177
▁የሰ	-7.81672
ሹ	-7.82043
▁ባለ	-7.82054
▁እና	-7.82261
▁ወገን	-7.82353
ፍራ	-7.82743
ሃለሁ	-7.83014
▁ለዘላለም	-7.83271
▁ዳዊት	-7.83288
ረው	-7.83322
▁ንጉሡ	-7.83807
▁ሌላ	-7.83979
▁ሐ	-7.84278
▁ሄደ	-7.84291
▁ለማ	-7.85175
▁ይመ	-7.85175
ዞ	-7.85821
ችው	-7.86593
▁ክ	-7.87096
▁በወ	-7.87502
▁በዳ	-7.882
ሄዱ	-7.88315
▁ጀምሮ	-7.88342
▁ኢ	-7.88444
▁ያስ	-7.88502
▁አያ	-7.8865
▁ዝ	-7.88913
ናገር	-7.88949
▁እርሱም።	-7.89182
ቸዋል	-7.89288
▁ከተ	-7.90613
▁አን	-7.91009
ቶቻቸው	-7.91329
ዊው	-7.91409
ቀመጡ	-7.91435
▁እስኪ	-7.91521
▁በየ	-7.91535
ምድረ	-7.91552
▁ከእኔ	-7.9157
▁ነበረ፤	-7.91637
በሩ	-7.92038
▁እያ	-7.92183
▁እንግዲህ	-7.92321
▁ሥጋ	-7.9235
▁ነበሩ።	-7.92364
▁አሁን	-7.92452
▁ሰባት	-7.92463
ጌ	-7.92622
ፈራ	-7.92713
▁በግ	-7.92814
▁ከሚ	-7.92817
▁የሆነ	-7.93124
ዔ	-7.93136
▁በኢየሩሳሌም	-7.93684
▁የለም	-7.93928
▁ድምፅ	-7.94235
ሩት	-7.94764
ለን	-7.95182
▁ክርስቶስ	-7.95343
▁ሁሉ፥	-7.96108
ፎ	-7.96215
▁አታ	-7.96315
ሄድ	-7.96319
ቸውም	-7.96333
ገዛ	-7.96593
ጊ	-7.96747
ዎ	-7.96906
▁እንዲህም	-7.9718
ሀ	-7.97299
▁ሦስት	-7.97316
▁ብት	-7.97417
ገደ	-7.97516
ሁ።	-7.97552
▁እንጀራ	-7.97602
መረ	-7.97898
▁ቆ	-7.97913
▁ኤ	-7.9803
▁መንፈስ	-7.98174
ዋን	-7.9851
ሰጥ	-7.98577
▁ነበርና	-7.98602
▁ተቀ	-7.98929
ሁት	-7.98951
ቸውን	-7.98997
▁አንዱ	-7.99128
ድር	-7.99307
ለች።	-7.99706
▁ንጉሡም	-7.99861
ኦ	-7.99908
▁ተራራ	-7.99965
ፈረ	-8.00433
▁ይበ	-8.0073
ፌ	-8.01083
▁ዕቃ	-8.02245
▁ከተሞች	-8.02293
ፈሩ	-8.02379
▁ሚ	-8.02469
ጓ	-8.02572
▁ሆኖ	-8.02582
▁ወዳ	-8.02592
ገቡ	-8.02603
▁ይልቅ	-8.02801
ት፥	-8.02806
ራት	-8.02812
▁አጠገብ	-8.02873
▁ክንድ	-8.02905
አት	-8.03049
▁እነሆም	-8.03121
ደረግ	-8.033
ጠላ	-8.03656
▁ዕ	-8.03833
▁ነው፥	-8.03871
ማል	-8.03937
▁ሴቶች	-8.04093
ዳን	-8.04099
▁ሴት	-8.04252
ላል	-8.04751
▁የሰው	-8.05231
▁ከአንተ	-8.05339
ቶቹ	-8.0556
▁እንዴት	-8.05618
ቸዋለሁ	-8.05652
▁ተመ	-8.05898
▁የበ	-8.06172
▁በታች	-8.06307
ችኋ	-8.06573
▁ላ	-8.06753
▁ፍ	-8.0703
▁ያለውን	-8.07043
▁ፊ	-8.07444
ላት	-8.07661
▁ብለው	-8.07793
ሎች	-8.08085
▁ሞ	-8.08282
▁ይወ	-8.08383
ኒ	-8.08438
▁ከእግዚአብሔር	-8.08438
▁ስሙ	-8.08495
▁ብቻ	-8.08831
ፍር	-8.08888
አል	-8.09043
▁በኩል	-8.09108
ጠራ	-8.09601
ቹን	-8.09684
▁ከዚህ	-8.09731
ጆች	-8.09843
ፀ	-8.1004
ኢ	-8.10067
ኖሩ	-8.10209
▁አልተ	-8.10237
ልክ	-8.10499
▁ናት	-8.10597
▁ዳዊትም	-8.10667
▁አምስት	-8.1071
▁ሳይ	-8.10781
▁አየ	-8.10812
ዶች	-8.10999
ጁ	-8.11087
▁አሁንም	-8.11159
ሰሙ	-8.11264
በር	-8.12013
▁ተከ	-8.12499
▁ያል	-8.12539
▁የተነሣ	-8.12681
ራችሁ	-8.12779
▁ይሆናል።	-8.12885
ቄ	-8.12991
ገድ	-8.13008
▁ማንም	-8.13585
▁ፍርድ	-8.13703
▁ጭ	-8.13855
▁ቢሆን	-8.1398
ህንም	-8.14012
▁አሉት።	-8.14048
ናችሁ	-8.14141
▁ዘንድ፥	-8.1445
ተኞች	-8.14475
ዘው	-8.14635
▁ሕግ	-8.14732
▁አብ	-8.14735
▁አሥራ	-8.14904
▁ቍርባን	-8.15008
▁ኢየሩሳሌም	-8.1569
▁ልጁ	-8.15836
ቹም	-8.15926
▁የማይ	-8.15998
▁ከእስራኤል	-8.16032
▁የነበሩ	-8.16064
ንግሥ	-8.1609
ልኝ	-8.16209
▁ሰማ	-8.1634
ችኋለሁ	-8.16743
▁ክብር	-8.16811
▁አደ	-8.16923
ሳችሁ	-8.17065
ት፤	-8.17253
▁ከእናንተ	-8.17414
▁ሁለቱ	-8.17416
ናገሩ	-8.17579
▁ፍሬ	-8.17964
ጠው	-8.18334
ተዋል	-8.18585
▁ራስ	-8.18785
ይቱ	-8.19252
▁ሠራ	-8.19625
ጄ	-8.19739
ፃ	-8.19879
ኸው	-8.20051
▁ብር	-8.20213
▁ኢየሱስም	-8.20431
▁ከሰ	-8.20593
▁ገና	-8.20847
ሾ	-8.20857
ባችሁ	-8.21397
▁ካህኑ	-8.22044
ላችሁ።	-8.22543
ታል።	-8.22699
ኝ።	-8.22747
ሦ	-8.23138
ታው	-8.23281
▁ነገድ	-8.23371
▁ሰጠ	-8.23377
▁ለእስራኤል	-8.23509
▁ናቸው።	-8.23662
ልህ	-8.24009
▁ይሁን	-8.2412
ኝ፤	-8.2429
▁መጣ	-8.24382
ርስ	-8.24407
ቀመጥ	-8.24421
ቴን	-8.24477
▁በቀ	-8.24657
▁እንድ	-8.24817
በዛ	-8.24868
▁በይሁዳ	-8.24999
▁እውነት	-8.25768
ወደ	-8.25839
▁በእኔ	-8.25907
▁ሙሴን	-8.26146
ዳቸው	-8.2653
ኝ፥	-8.26648
!	-8.27276
▁በር	-8.27402
ሁ፥	-8.27449
▁ሳኦል	-8.27662
▁ይሆን	-8.27903
▁አድ	-8.27932
ሔ	-8.28434
ኖች	-8.2866
ሠሩ	-8.28682
▁አድርገ	-8.28841
ኳ	-8.29484
ኰ	-8.29606
ቻችሁ	-8.2967
▁ው	-8.29801
▁ነገሥታት	-8.3
መለሱ	-8.30387
መለስ	-8.30791
▁የይሁዳ	-8.30792
▁የወ	-8.31092
ሶች	-8.31186
ቀው	-8.31469
▁አራት	-8.32091
ሁ፤	-8.32183
ግባ	-8.32357
ቋ	-8.32395
▁ቅዱስ	-8.324
▁ሰላም	-8.32604
▁የሠራዊት	-8.328
▁ቍጣ	-8.32814
ሰብ	-8.33127
▁ይሁዳ	-8.33234
ጣል	-8.33286
▁አባት	-8.33438
▁ዘር	-8.33489
መለከ	-8.33959
▁ያለው	-8.33991
ሚያ	-8.3404
▁ትእዛዝ	-8.34436
▁ነበር፥	-8.34797
▁ስላ	-8.3593
ሰጠ	-8.36007
▁ሀያ	-8.36124
▁ሙሴም	-8.36293
▁ደግሞም	-8.36635
▁አድርጎ	-8.36943
▁ይቀ	-8.37036
▁ሕዝቡም	-8.37126
▁ነህ	-8.37332
▁ወይስ	-8.3739
▁እሳት	-8.37471
▁አፍ	-8.37914
ሞን	-8.38348
▁በዚያን	-8.38711
ዘጋ	-8.39021
ጮ	-8.39075
▁መሠዊያ	-8.39078
ቻችን	-8.39102
▁ባሪያዎች	-8.39333
▁ሊያ	-8.39641
▁ነፍስ	-8.40324
▁አሉ።	-8.40593
▁ኪዳን	-8.40825
▁እንድት	-8.41315
ች።	-8.41544
ገኝ	-8.41645
▁ተናገረ	-8.41663
▁ያዕቆብ	-8.42149
▁አምላክህ	-8.42275
ሲ	-8.42694
▁እንዲያ	-8.42696
▁ነበሩ	-8.42918
ጠጣ	-8.43247
▁እርስዋም	-8.43288
▁እግዚአብሔር።	-8.4377
▁ልብስ	-8.43845
ቀድ	-8.43918
▁ይሆናል፤	-8.44049
ዜ	-8.444
▁ተስፋ	-8.44447
▁በእውነት	-8.44861
ዋል።	-8.44974
▁አውራ	-8.45099
ኋቸው	-8.45115
▁ነበረ	-8.45172
▁ባል	-8.45548
▁ተሰ	-8.45603
▁መልሶ	-8.45798
ደው	-8.46515
▁ሚስት	-8.46731
▁ምንድር	-8.46856
▁መታ	-8.47087
▁ኢያሱ	-8.47174
ጠብ	-8.47406
ኸ	-8.47681
▁ናቸው፤	-8.47733
▁ድንኳን	-8.48114
ልፎ	-8.48534
ዋለሁ	-8.49684
▁ጣ	-8.5007
ለት።	-8.50216
▁ሞተ	-8.50308
▁አደረጉ	-8.50509
▁በጎ	-8.51085
▁ይህች	-8.51091
▁ደም	-8.51093
▁አሮን	-8.51167
▁በዙሪያ	-8.51482
▁ሰሎሞን	-8.5197
ሳቸው	-8.52283
መልስ	-8.52283
ገኙ	-8.5235
ራራ	-8.52443
▁መንግሥት	-8.52472
▁ነፍሴ	-8.52569
▁ሙሴ	-8.5274
ቸው።	-8.52981
▁በእናንተ	-8.53455
ብሩ	-8.53818
▁በእሳት	-8.53971
▁ሕዝቡን	-8.54061
ታችን	-8.54081
▁ሳለ	-8.54129
ጹ	-8.54455
▁በሕይወት	-8.5447
▁ደቀ	-8.54479
ታቸውን	-8.54655
▁ምንም	-8.54957
▁ይሆናል	-8.5501
▁ሆነ፤	-8.55016
▁የምታ	-8.5502
▁ይነ	-8.55023
ሞላ	-8.55175
▁ባሕር	-8.55478
▁በፊቱ	-8.55492
ጠብቅ	-8.55549
▁ርስት	-8.55549
▁በቀር	-8.55718
ዋል፤	-8.55798
ልቅ	-8.56143
ለች፤	-8.56252
▁ጽድቅ	-8.56493
▁የእስራኤልን	-8.56806
ነበረው	-8.57039
▁በቅ	-8.57686
▁በአንተ	-8.58126
▁ወዲያ	-8.58573
▁ወንድሞች	-8.58611
▁ስድስት	-8.59098
▁በውኑ	-8.59252
▁የኢ	-8.59371
▁እነሆ	-8.59706
ብረ	-8.5972
▁እንኳ	-8.59785
▁መከራ	-8.5983
ጠብቁ	-8.5988
▁ተነሥ	-8.59965
ጣሉ	-8.59988
▁ሰይፍ	-8.60172
▁ወጥ	-8.60325
ያደርጉ	-8.60761
ላቸው።	-8.6111
አቸው።	-8.6117
▁ኃይል	-8.61231
ለኝ	-8.61234
▁በአንድ	-8.61296
▁እርስ	-8.6163
ወቅ	-8.61706
▁ድንጋይ	-8.61771
▁መጥቶ	-8.61794
አሥራ	-8.61897
▁መዛሙርቱ	-8.62315
ዬን	-8.62315
▁የወይን	-8.62335
ሁም	-8.62345
ቃጠል	-8.62931
▁መጣ።	-8.63296
▁ጨ	-8.63416
▁ዳርቻ	-8.63497
▁እርስዋ	-8.63671
▁ወርቅ	-8.63813
▁የምድር	-8.64083
▁ሕዝቡ	-8.64158
▁ነበር	-8.643
▁ለምን	-8.64546
ሺ	-8.65056
▁ለአንተ	-8.65114
▁ጠጅ	-8.6546
መልካ	-8.65706
▁በጎች	-8.65719
▁ቤተ	-8.65723
▁ነበሩ፤	-8.65931
▁ነበረ፥	-8.66036
ዋልና	-8.66209
አል።	-8.66276
ብኝ	-8.66421
ሰጣቸው	-8.66489
▁አስተ	-8.66548
ዋም	-8.66671
አል፤	-8.67027
▁የሚያስ	-8.67107
ጣት	-8.67243
▁አንቺ	-8.67393
▁በላይ	-8.67529
▁ባለው	-8.67753
ነዚህ	-8.68052
▁ጌ	-8.68193
▁ሲል	-8.68357
▁ወንዶች	-8.68505
▁መለሰ	-8.68523
▁ቤቱ	-8.68777
▁ላከ	-8.68831
ሰጠው	-8.68971
ፅ	-8.69074
▁ዛፍ	-8.69155
ለች፥	-8.69199
▁ጠራ	-8.70185
ሕይወ	-8.70191
ጩ	-8.70251
▁አማልክት	-8.70251
▁ጥበብ	-8.70265
▁ይገባ	-8.70343
ዘረጋ	-8.7035
▁አምሳ	-8.70657
ቀረበ	-8.70721
▁መጽሐፍ	-8.70843
▁ቤቶች	-8.70866
መለከት	-8.7114
ዌ	-8.71438
▁ልጆቹ	-8.71439
▁ይሆናሉ	-8.7144
▁ሰማይ	-8.71568
▁እንዳለ	-8.71669
▁ሁልጊዜ	-8.72037
ራሳቸው	-8.72175
ጥፋት	-8.72242
ሞች	-8.72327
▁እንዲሆን	-8.72453
ማቸው	-8.72855
ነሡ	-8.72923
▁ለእኔ	-8.73246
▁ብርሃን	-8.73249
▁ነፍ	-8.73437
▁ዮሴፍ	-8.73855
▁በሰይፍ	-8.73859
▁አድርግ	-8.73873
ተህ	-8.74109
▁ብላ	-8.74261
▁ጆሮ	-8.74533
▁አመጣ	-8.74709
▁ሥርዓት	-8.75087
▁አሥር	-8.75159
▁እንዳት	-8.75453
ኋ	-8.75564
ዮች	-8.75576
▁ይዞ	-8.75593
▁ሕያው	-8.75709
▁ሆንሁ	-8.75816
▁የጌታ	-8.75846
▁ለእርሱ	-8.76332
▁ምድሪቱ	-8.76332
▁ትንቢት	-8.76333
▁ሂድ	-8.76348
በሉ	-8.76895
መለሰ	-8.76991
▁ይመጣል	-8.77212
ሻል	-8.77286
▁ዕጣ	-8.77428
ጣችሁ	-8.77751
ኸኝ	-8.7787
▁በፊትህ	-8.78148
▁ሕይወት	-8.78287
▁ዓይን	-8.78292
ታል፤	-8.7854
▁በንጉሡ	-8.78872
▁ምርኮ	-8.78877
▁ክፋት	-8.78885
▁በጌታ	-8.79047
ዳችሁ	-8.79198
▁ሌሊት	-8.79517
▁ካህናቱ	-8.79517
▁ከሰማይ	-8.79535
▁አባቱ	-8.79935
▁ተቀመጠ	-8.80171
▁ወሰደ	-8.802
▁ከምድር	-8.80257
▁ተነሣ	-8.80443
ዘዝ	-8.80491
▁ሽማግሌዎች	-8.80869
▁እጁን	-8.80883
▁አወጣ	-8.81013
▁በእነርሱ	-8.81478
▁ወዲህ	-8.8148
▁ባይ	-8.81754
ኀ	-8.8214
▁መልአክ	-8.8214
▁ሠላሳ	-8.8214
▁አይሁድ	-8.82164
▁ዓለም	-8.82301
▁እንዳል	-8.82341
▁ጴጥሮስ	-8.82806
▁ያደረገ	-8.82807
ኙ	-8.82959
ቀበል	-8.83172
▁ፋንታ	-8.83484
▁ነበረች	-8.83653
▁ልጄ	-8.83742
▁ወጥቶ	-8.83744
▁ወራት	-8.83863
▁ይሁን።	-8.84777
▁ታቦት	-8.84843
▁ነፋስ	-8.84844
▁ምልክት	-8.85523
▁ምሳሌ	-8.85523
▁ፈጥ	-8.85624
▁ብል	-8.85877
ባሪያህ	-8.85991
▁ካህናት	-8.86209
ቦች	-8.86224
▁ጥቂት	-8.86906
▁እርሻ	-8.86931
ዋለህ	-8.87506
▁ለእናንተ	-8.87602
ኋችሁ	-8.87732
▁አለኝ።	-8.87817
▁ተናገር	-8.8819
▁አርባ	-8.88663
▁ጳውሎስ	-8.89015
▁ከእኛ	-8.89338
▁ከንቱ	-8.89799
▁ነገሩ	-8.89881
ጠፉ	-8.9032
ዳል	-8.90433
▁እያንዳንዱ	-8.90449
▁ከእንግዲህ	-8.90449
▁በታላቅ	-8.9045
▁ርኩስ	-8.9045
▁ሌሎች	-8.90459
▁በሰማይ	-8.90488
▁አስቀድሞ	-8.91174
አችሁ	-8.91393
▁ባየ	-8.9141
ጤ	-8.91904
▁በአሕዛብ	-8.91904
▁የንጉሡ	-8.91904
ነቱ	-8.92107
ሂ	-8.92614
▁ንጹሕ	-8.92639
▁እላችኋለሁ	-8.92644
▁ብዛት	-8.92647
▁ዙሪያ	-8.9265
▁ጌታዬ	-8.92848
ተባለ	-8.9287
ለዋል	-8.94081
ዉ	-8.94126
▁ፈጽሞ	-8.94127
▁ወዮ	-8.94134
▁ወስዶ	-8.9414
▁ብታ	-8.94244
▁ጉባኤ	-8.94878
▁ምስክር	-8.94878
▁በግብፅ	-8.94878
▁አንዳች	-8.94974
ጠጡ	-8.95095
▁ብለህ	-8.95347
▁እንዳዘዘ	-8.95656
▁መጠን	-8.96159
ጳ	-8.96399
▁እንደዚህ	-8.96413
ሾች	-8.96605
▁የተቀደሰ	-8.97168
▁መቅደስ	-8.97169
▁እንጨት	-8.97178
▁የወርቅ	-8.97192
▁በእጁ	-8.97364
▁ያህል	-8.97414
▁ተነሥቶ	-8.97465
▁ብዬ	-8.97556
ቻለሁ	-8.97618
▁አብርሃም	-8.97943
▁ወለደ፤	-8.97943
▁የነበረውን	-8.98019
ኣ	-8.98531
▁አልነበረም	-8.98725
▁ያደርጋል	-8.98725
▁ፈርዖን	-8.98725
▁ወዴት	-8.98731
▁ውጭ	-8.99013
ቀበሉ	-8.99368
▁ምክንያት	-8.99512
▁አምላካችን	-8.99512
▁ጻድቅ	-8.99512
ደርገው	-8.99599
ላችኋል	-8.99728
▁ሳሙኤል	-9.00306
▁በውኃ	-9.00375
▁ሰቅል	-9.004
ሞቱ	-9.00677
▁መጥተው	-9.01122
▁ዘይት	-9.01139
ያውቅ	-9.0142
ዑ	-9.01912
▁አደባባይ	-9.01912
▁በእርስዋ	-9.02726
▁ትውልድ	-9.02727
ቺ	-9.03468
▁በመንገድ	-9.03555
▁ክፍል	-9.03562
▁እስክ	-9.03676
▁አምላካችሁ	-9.04371
▁ኤርምያስ	-9.04371
▁ሕዝቤ	-9.04371
ከተሉ	-9.04846
ከበረ	-9.04982
▁ዳር	-9.04983
ወንድሙ	-9.04999
▁ሁለተኛው	-9.05141
▁ከግብፅ	-9.05204
ሰበሰቡ	-9.05205
▁አድርጌ	-9.05206
ወለደች	-9.05253
▁የሚኖሩ	-9.05259
ቀረቡ	-9.05342
▁በፊት	-9.05403
▁አደርጋለሁ	-9.06045
▁ይኖራል	-9.06046
▁ተቀምጦ	-9.06053
▁ከተማይቱ	-9.06186
ላቸዋል	-9.06186
▁ሠር	-9.06246
▁ሸለቆ	-9.06896
▁አዘዘ	-9.06978
▁የሆነውን	-9.0703
▁በክርስቶስ	-9.07747
▁ፍልስጥኤማውያን	-9.07747
▁ይቅር	-9.07967
▁ብላቴና	-9.08108
▁ሠራዊት	-9.08611
▁አድርጉ	-9.08615
ፈልጉ	-9.08707
▁በቤቱ	-9.08718
ታውቁ	-9.08794
ያውቁ	-9.0914
ጾ	-9.09478
▁ነቢያት	-9.09484
▁ባድማ	-9.09508
▁ተብሎ	-9.09518
▁ወንዝ	-9.09564
▁በሌሊት	-9.10356
▁ፈቃድ	-9.10367
ቈጠሩ	-9.10392
▁በመሠዊያው	-9.11241
▁የዳዊት	-9.11241
▁ቅጥር	-9.11261
▁ወይን	-9.11457
▁ቆሞ	-9.11689
▁ማደሪያ	-9.12137
▁ጸጋ	-9.12221
ዘጋጀ	-9.1225
▁በአንድነት	-9.123
▁አላት።	-9.1262
ዣ	-9.13034
▁የዘላለም	-9.13034
▁በሆነ	-9.13173
ሖ	-9.13943
አቤሴሎም	-9.13943
▁መስፈሪያ	-9.13944
▁በፊቴ	-9.13954
▁ሥር	-9.14261
ታልና	-9.147
▁ኋላ	-9.15515
▁ሌዋውያን	-9.15787
▁ስንኳ	-9.15798
ችኋልና	-9.16071
▁ሆና	-9.16684
▁ለንጉሡ	-9.16721
▁በብዙ	-9.16809
▁ተናገረው።	-9.16846
▁ፀሐይ	-9.17665
ሃቸው	-9.1835
በረታ	-9.18506
▁ኢዮአብ	-9.18617
▁ቍጥር	-9.18618
▁ወገኖች	-9.18619
▁ሰልፍ	-9.18693
▁በባሕር	-9.1958
▁አንዲት	-9.19582
ቲ	-9.19595
በኣል	-9.19818
ቲቱ	-9.20529
ደኅንነት	-9.2055
▁የሚቃጠለውን	-9.2055
▁በሕዝቡ	-9.2055
▁ከይሁዳ	-9.2055
ማድረግ	-9.20561
▁ወደዚህ	-9.20572
ቸዋለህ	-9.20608
▁በቤት	-9.2078
▁ሕዝቅያስ	-9.2153
▁በኢየሱስ	-9.2153
ጮኹ	-9.21533
ሜሌክ	-9.21535
▁በመጀመሪያ	-9.2252
▁አባቴ	-9.22646
▁ወጣ።	-9.23087
▁በመካከላቸው	-9.2352
▁ፈቀቅ	-9.23532
▁ልብሱን	-9.23571
▁ደመና	-9.23617
▁ከሆነ	-9.23622
▁ቦታ	-9.23732
ጵ	-9.2453
▁ለሕዝቡ	-9.2453
ዥ	-9.2453
▁ጨለማ	-9.24537
▁እግር	-9.24724
▁ለዳዊት	-9.25551
▁ምስጋና	-9.25551
▁ፍቅር	-9.25566
ደረጉ	-9.25585
▁መብል	-9.26
▁የባቢሎን	-9.26581
ጽናና	-9.27314
▁ጠርቶ	-9.27644
▁ጋሻ	-9.27711
ኃጢአተኛ	-9.28216
▁የያዕቆብ	-9.28676
▁ታውቃላችሁ	-9.28676
▁ቃሉን	-9.28689
ፈጸመ	-9.28709
ከነዓን	-9.28709
▁በሥጋ	-9.28727
▁ሰዓት	-9.28727
▁ታላቁ	-9.29756
▁የቀረው	-9.29778
ሠራዊቱ	-9.29784
▁በዳዊት	-9.30818
▁ሴቲቱ	-9.30819
▁የተናገረ	-9.30835
▁ጽዋ	-9.3098
▁በፍጹም	-9.31902
▁ከእርስዋ	-9.31903
ተደረገ	-9.3193
▁በርሳቸው	-9.31999
▁ገንዘብ	-9.33001
▁ወንድሞቹ	-9.33004
▁በእጅህ	-9.33005
▁በከንቱ	-9.33006
▁ሰማያት	-9.33041
▁እነዚያ	-9.34112
▁ወንጌል	-9.34112
▁ገደለ	-9.34669
▁ጕድጓድ	-9.35236
▁ሦስተኛ	-9.35236
▁በመንፈስ	-9.35237
▁በፊታቸው	-9.35241
▁ስጦታ	-9.35252
▁በራሱ	-9.35403
ኜ	-9.36372
▁መሰምርያዋ	-9.36372
▁የአሕዛብ	-9.36372
▁ባቢሎን	-9.36372
▁ቅዱሳን	-9.36372
▁ነቢዩ	-9.36373
▁ተራሮች	-9.3639
▁ወደዚያ	-9.36393
▁ሚስቱ	-9.36444
▁ሂዱ	-9.3753
▁አለችው።	-9.37531
▁አንበሳ	-9.37535
▁ይሁኑ	-9.37566
▁ምክር	-9.37569
▁ሰደደ	-9.37603
ከተል	-9.38106
ቅርብ	-9.38229
ኻ	-9.38684
▁ሥልጣን	-9.38684
▁ርኵሰት	-9.38684
▁ኤልያስ	-9.38686
▁ወሰዱ	-9.38697
ተገለጠ	-9.38718
▁እንስሳ	-9.38738
ያልፍ	-9.38771
ናቡከደነፆር	-9.39861
ጪ	-9.39861
▁በዮርዳኖስ	-9.39861
▁ኃያላን	-9.39861
ዘዛቸው	-9.39887
አባቶቻችሁ	-9.41052
ፈጸም	-9.41315
▁አኖረ	-9.41338
▁ይወጣል	-9.41509
ሡ	-9.41689
▁ከሕዝቡ	-9.42256
▁ልጆቻቸው	-9.42256
▁ፍጻሜ	-9.42256
▁አራዊት	-9.42256
▁ዓይኖች	-9.42257
ጮኽ	-9.4226
▁ነቢይ	-9.42262
▁የተጻፈ	-9.42262
ገለጥ	-9.42541
▁የኃጢአ	-9.42786
▁ዮርዳኖስ	-9.43475
▁አውቃለሁ	-9.4348
▁ሞገስ	-9.435
▁በሰባተኛው	-9.4471
▁ዙፋን	-9.44712
▁ወፎች	-9.44713
ዘወትር	-9.44715
▁ግብጽ	-9.4472
እህሉ	-9.44748
▁ለእነርሱ	-9.4596
▁መቅደሱ	-9.47226
▁መጋረጃ	-9.47226
▁ቃሌን	-9.47233
▁ቀርቦ	-9.47245
▁ለጌታ	-9.47368
ወለዱ	-9.47386
▁ፈንታ	-9.48071
ኢዮሣፍጥ	-9.48508
ሰነፍ	-9.49319
▁የኢየሩሳሌም	-9.49806
▁የኢየሱስ	-9.49806
▁ቸርነት	-9.49807
▁ከከተማ	-9.49807
▁ከግብጽ	-9.49807
▁በከተማይቱ	-9.49829
▁ቀድሞ	-9.4983
▁አልዓዛር	-9.51122
▁ዕድሜ	-9.51126
▁በረከት	-9.5113
▁ጠቦት	-9.51138
▁የዚህ	-9.51294
ሚችል	-9.51443
▁ለኃጢአት	-9.52456
▁መጀመሪያ	-9.52456
▁መቃብር	-9.52465
▁ስምዖን	-9.52475
ጸሎት	-9.52481
▁ለፊት	-9.52508
ሑ	-9.53807
▁ራእይ	-9.53807
▁ትሆናለች	-9.53808
▁መንገዱ	-9.53809
▁ባልንጀራ	-9.55177
▁አሳልፌ	-9.5518
▁በደቡብ	-9.55186
▁በሙሴ	-9.55216
▁ሁለተኛ	-9.55282
▁ከጌታ	-9.55334
▁ዳግመኛ	-9.56566
▁መግቢያ	-9.56581
▁የሕዝቡ	-9.57974
▁ምሕረቱ	-9.57974
▁እባክህ	-9.57975
▁የታመነ	-9.57977
▁ደጃፍ	-9.57978
▁በግብጽ	-9.5798
▁ጠጕር	-9.57983
▁ጠላቶች	-9.57993
▁ውሰድ	-9.57996
አምላኩ	-9.58016
ወንድምህ	-9.5917
ታለች	-9.59388
▁በአንቺ	-9.59411
▁ቅሬታ	-9.59425
▁በመከራ	-9.59724
▁ይስሐቅ	-9.60852
▁ልቅሶ	-9.60865
▁ስድሳ	-9.60898
ወስደው	-9.60989
▁ለወንድ	-9.61241
▁መድኃኒት	-9.62323
▁እንዳደረገ	-9.62323
▁ምናልባት	-9.62323
▁በጽድቅ	-9.62323
▁ያውቃሉ	-9.62329
▁አሳልፈ	-9.62358
ዪ	-9.63815
▁ነፍሱን	-9.63841
▁በምሥራቅ	-9.6533
▁በሦስተኛው	-9.6533
▁ከኢየሩሳሌም	-9.6533
▁በመገናኛው	-9.6533
▁ፍርሃት	-9.6533
▁ዱቄት	-9.65331
▁መልካሙን	-9.65331
▁ዳንኤል	-9.65342
▁ሰፈሩ።	-9.65351
ዒ	-9.66869
▁በባቢሎን	-9.66869
▁ኃጢአተኞች	-9.66869
▁ጣፋጭ	-9.66869
▁እሰጣለሁ	-9.6687
▁ተጻፈ	-9.66888
አንደኛው	-9.66929
▁እላለሁ	-9.67755
ሌዋውያኑ	-9.68431
▁ጀመር	-9.68432
▁ርዝመቱ	-9.70019
▁እሄዳለሁ	-9.70019
▁ዛፎች	-9.70019
▁እውነተኛ	-9.70019
▁ወይፈን	-9.7002
▁ድንበር	-9.70038
ላደረገ	-9.70048
▁መጨረሻ	-9.71631
▁አገልግሎት	-9.71631
ግብፃውያን	-9.71632
▁ኤፍሬም	-9.71632
▁መክሊት	-9.71632
▁በሕዝብ	-9.71632
ጠላቶቼ	-9.71632
▁ሦስቱ	-9.71633
▁ተመልሶ	-9.71636
▁ፍጹም	-9.71638
▁ፍየል	-9.71653
አብራም	-9.72071
ሤ	-9.7327
a	-9.73271
▁በየወገናቸው	-9.73271
▁አመስግኑ	-9.73271
▁ክርስቲያን	-9.73271
▁የክርስቶስ	-9.73271
▁አራተኛው	-9.73273
▁ለእኛ	-9.73276
ሕያዋን	-9.73277
ሒ	-9.74937
▁ተጽፎአል	-9.74937
▁ጩኸት	-9.74937
▁በእርግጥ	-9.74938
▁የሳኦል	-9.74938
▁በላያቸው	-9.74939
▁ጠባቂ	-9.74943
▁የአሦር	-9.74943
መርዶክዮስ	-9.76632
▁ፈሪሳውያን	-9.76632
▁ፋሲካ	-9.76632
ሐዋርያት	-9.76633
▁ጠቦቶች	-9.76633
▁ወለደ።	-9.76634
ዓይኔ	-9.76679
▁ሰረገሎች	-9.78356
▁ለልጆቹ	-9.78357
▁በጨለማ	-9.78357
ጂ	-9.81779
ሼ	-9.83715
ዠ	-9.85567
ጶ	-9.95378
ዢ	-10.0399
ጴ	-10.0858
ኚ	-10.159
ጼ	-10.1847
ጺ	-10.211
ጬ	-10.3853
ጲ	-10.4854
ኆ	-10.5966
ዤ	-10.6783
ሢ	-10.7218
ቾ	-10.7672
ሓ	-10.8148
ፄ	-10.9175
ኹ	-11.1608
ኽ	-11.2322
ጱ	-11.3094
ጰ	-11.3094
ፕ	-11.3927
ቧ	-11.3927
ኺ	-11.5836
ፆ	-11.8197
1	-11.8197
*	-11.8197
v	-11.9626
l	-12.1292
ፐ	-12.1292
ፓ	-12.1292
"	-12.1292
s	-12.3292
2	-12.3292
D	-12.5792
3	-12.9126
]	-12.9126
o	-12.9126
ፂ	-13.4126
ዷ	-13.4126
)	-13.4126
-	-13.4126
5	-13.4126
A	-13.4126
e	-13.4126
ቊ	-13.4126
(	-14.4103
ፒ	-14.4104
ፑ	-14.4105
[	-14.4106
ሷ	-14.4107
d	-14.4108
T	-14.4109
ፔ	-14.411
k	-14.4111
ኾ	-14.4112
r	-14.4113
ኄ	-14.4114
g	-14.4115
K	-14.4116
ዡ	-14.4117
ዦ	-14.4118
ኡ	-14.4119
W	-14.412
ፁ	-14.4121
ዐ	-14.4122
ኘ	-14.4123
ኵ	-14.4124
ኅ	-14.4125
b	-14.4126
0	-14.4126
4	-14.4126
@	-14.4126
m	-14.4126
u	-14.4126
ሏ	-14.4126
ቷ	-14.4126
ቿ	-14.4126
ኟ	-14.4126
ኲ	-14.4126
ኼ	-14.4126
ጒ	-14.4126
ጧ	-14.4126
ፏ	-14.4126
ኗ	-14.4126
ኞ	-14.4126
