<pad>	0
</s>	0
<unk>	0
▁¦	-0
ku	-1
ng	-2
ba	-3
▁,	-4
wa	-5
th	-6
na	-7
la	-8
ni	-9
▁𐋇	-10
kh	-11
le	-12
si	-13
zi	-14
ka	-15
ph	-16
lu	-17
nga	-18
we	-19
▁.	-20
ma	-21
thi	-22
ya	-23
lo	-24
ye	-25
nd	-26
ke	-27
be	-28
li	-29
oku	-30
uku	-31
kho	-32
se	-33
za	-34
bo	-35
ne	-36
sa	-37
ngi	-38
pha	-39
yo	-40
yi	-41
um	-42
nge	-43
kulu	-44
kwa	-45
nkulu	-46
mi	-47
ko	-48
aba	-49
ngoku	-50
khu	-51
▁:	-52
▁;	-53
ze	-54
bu	-55
▁“	-56
no	-57
sh	-58
bi	-59
nt	-60
tha	-61
ki	-62
lwa	-63
je	-64
mu	-65
the	-66
hla	-67
so	-68
ngokuba	-69
kepha	-70
nye	-71
fu	-72
kwe	-73
ngo	-74
nke	-75
phe	-76
nkulunkulu	-77
khe	-78
wo	-79
khulu	-80
su	-81
fa	-82
da	-83
uma	-84
▁.”	-85
ha	-86
ukuba	-87
ri	-88
ndi	-89
thu	-90
▁?	-91
ntu	-92
khona	-93
wi	-94
me	-95
ukuthi	-96
kha	-97
ama	-98
wathi	-99
zo	-100
yaku	-101
nya	-102
izi	-103
tho	-104
weni	-105
nje	-106
mba	-107
nda	-108
st	-109
ezi	-110
nko	-111
mbi	-112
phi	-113
ela	-114
ngu	-115
isi	-116
fi	-117
leyo	-118
nkosi	-119
bona	-120
mo	-121
wu	-122
hle	-123
ja	-124
lokho	-125
noku	-126
jesu	-127
rist	-128
zu	-129
nza	-130
kuye	-131
nzi	-132
ndo	-133
pho	-134
de	-135
dwa	-136
nu	-137
ndla	-138
vu	-139
esi	-140
em	-141
lwe	-142
zwi	-143
nja	-144
naba	-145
eli	-146
waye	-147
kubo	-148
tsh	-149
ristu	-150
bh	-151
lela	-152
nx	-153
kristu	-154
umu	-155
zwe	-156
fundi	-157
qa	-158
ini	-159
mbe	-160
▁𐊣	-161
lowo	-162
lokhu	-163
ndu	-164
ngakho	-165
kini	-166
zwa	-167
hlu	-168
kodwa	-169
phaka	-170
qo	-171
sebe	-172
eku	-173
nxa	-174
ngc	-175
ndle	-176
mp	-177
swa	-178
kwaba	-179
njalo	-180
bonke	-181
yisi	-182
ndoda	-183
kela	-184
fe	-185
kholwa	-186
ngaba	-187
nc	-188
va	-189
umi	-190
bathi	-191
suku	-192
nama	-193
ga	-194
kazi	-195
zaku	-196
hlo	-197
konke	-198
wele	-199
▁‘	-200
nezi	-201
ngena	-202
eka	-203
phendu	-204
gc	-205
ningi	-206
nina	-207
qini	-208
nze	-209
moya	-210
ru	-211
ukuze	-212
baba	-213
▁?”	-214
noma	-215
ju	-216
kuba	-217
munye	-218
ro	-219
muntu	-220
ngama	-221
phu	-222
kube	-223
khuluma	-224
lwane	-225
kanye	-226
ra	-227
imi	-228
wayese	-229
hli	-230
waba	-231
ese	-232
sho	-233
abe	-234
kile	-235
phambi	-236
lapho	-237
shi	-238
yena	-239
ndodana	-240
leni	-241
mina	-242
wini	-243
aku	-244
sha	-245
thanda	-246
ngenxa	-247
bheka	-248
nase	-249
nsi	-250
nani	-251
eni	-252
bha	-253
phezu	-254
yini	-255
phakathi	-256
owa	-257
phila	-258
umuntu	-259
do	-260
hamba	-261
pa	-262
bula	-263
di	-264
kwathi	-265
fika	-266
vela	-267
futhi	-268
sebenzi	-269
qala	-270
uj	-271
ngcwele	-272
ngalokho	-273
fane	-274
nde	-275
yakhe	-276
ngesi	-277
phela	-278
khathi	-279
juda	-280
ninga	-281
zalwane	-282
enga	-283
saba	-284
nto	-285
khule	-286
dla	-287
ngum	-288
sile	-289
phendula	-290
mbu	-291
angi	-292
du	-293
naye	-294
ngezi	-295
lungi	-296
jo	-297
uya	-298
bani	-299
zela	-300
izwi	-301
lweni	-302
shumi	-303
khi	-304
leli	-305
bonaka	-306
▁.’	-307
esu	-308
ubu	-309
thetho	-310
kunga	-311
mhla	-312
ntwa	-313
rofe	-314
kakhulu	-315
bili	-316
aka	-317
kwakhe	-318
babe	-319
et	-320
funa	-321
bakhe	-322
lele	-323
ngiya	-324
oli	-325
ume	-326
ngithi	-327
hlala	-328
in	-329
gama	-330
lwini	-331
yise	-332
kwenu	-333
ntwana	-334
zulwini	-335
beni	-336
hlizi	-337
kele	-338
uyaku	-339
nesi	-340
ngase	-341
profe	-342
engi	-343
nyama	-344
ngelo	-345
wulu	-346
asi	-347
lile	-348
nami	-349
zonke	-350
wena	-351
siwe	-352
owe	-353
ndlu	-354
yizi	-355
izin	-356
masi	-357
kulo	-358
phuma	-359
phansi	-360
kukhona	-361
ani	-362
ngelosi	-363
gu	-364
ngani	-365
re	-366
manga	-367
bam	-368
base	-369
moni	-370
soku	-371
kimi	-372
kwabo	-373
om	-374
lika	-375
loku	-376
nom	-377
nta	-378
tshe	-379
lunga	-380
risti	-381
swe	-382
ngom	-383
seku	-384
bonakali	-385
yu	-386
zini	-387
ndela	-388
emi	-389
umbu	-390
thile	-391
koku	-392
zane	-393
nabo	-394
sindi	-395
kwenza	-396
etru	-397
kani	-398
phakade	-399
wam	-400
niya	-401
namandla	-402
umo	-403
omunye	-404
labo	-405
sale	-406
nalowo	-407
sika	-408
khosi	-409
kwazi	-410
lutho	-411
zweni	-412
sifa	-413
xuku	-414
nyane	-415
kuka	-416
thoko	-417
abanye	-418
vi	-419
doda	-420
siya	-421
salema	-422
abafundi	-423
khonza	-424
ngokwe	-425
mvu	-426
jeru	-427
mbisa	-428
pristi	-429
yilowo	-430
profethi	-431
jerusalema	-432
mbili	-433
kuze	-434
layo	-435
yoku	-436
gci	-437
kunge	-438
abantu	-439
nhlizi	-440
kuwe	-441
kwami	-442
thina	-443
pawulu	-444
ho	-445
lesi	-446
he	-447
fanele	-448
esa	-449
kisa	-450
woku	-451
hane	-452
lini	-453
lakhe	-454
sifazane	-455
isa	-456
nguku	-457
kanjalo	-458
manje	-459
fileyo	-460
phandle	-461
weyo	-462
yela	-463
ngaye	-464
shuma	-465
themp	-466
thula	-467
go	-468
ngwa	-469
nceku	-470
njani	-471
khuleka	-472
ezulwini	-473
thempeli	-474
wayesethi	-475
hi	-476
unga	-477
sela	-478
petru	-479
kuphela	-480
kazimu	-481
nika	-482
yiku	-483
hlezi	-484
qinisile	-485
yami	-486
ngeli	-487
zizwe	-488
ngiyaku	-489
khombisa	-490
ca	-491
riya	-492
njengokuba	-493
zin	-494
fuma	-495
yishumi	-496
▁!	-497
kuyo	-498
lisa	-499
zulu	-500
boni	-501
faka	-502
onga	-503
zakhe	-504
kazimulo	-505
busi	-506
emva	-507
kwenze	-508
vangeli	-509
ababe	-510
thaka	-511
masinyane	-512
lelwa	-513
nguye	-514
johane	-515
thathu	-516
laba	-517
lula	-518
tshi	-519
ila	-520
anga	-521
thela	-522
meni	-523
muka	-524
qiniso	-525
meme	-526
ngemi	-527
pathi	-528
bazalwane	-529
waphendula	-530
uyi	-531
gcwa	-532
hlwa	-533
yethu	-534
bhapathi	-535
khum	-536
kwahlu	-537
mukela	-538
omkhulu	-539
ngaphandle	-540
yeli	-541
umela	-542
zimba	-543
fakazi	-544
ngubani	-545
nkosini	-546
gi	-547
hawu	-548
lezo	-549
emhla	-550
ndawo	-551
uzaku	-552
thatha	-553
ngokuthi	-554
hu	-555
nti	-556
ethi	-557
naku	-558
neni	-559
ndlini	-560
yakuba	-561
ce	-562
risi	-563
lwandle	-564
eza	-565
waya	-566
yathi	-567
thando	-568
themba	-569
ngiqinisile	-570
is	-571
kiso	-572
gcina	-573
farisi	-574
njenga	-575
bonga	-576
njengalokho	-577
ame	-578
beka	-579
beke	-580
muke	-581
nike	-582
wazi	-583
hlanga	-584
awu	-585
chi	-586
qonda	-587
yakho	-588
kileyo	-589
thokoza	-590
nq	-591
wakhe	-592
▁,”	-593
sesi	-594
wami	-595
ngalo	-596
nokuba	-597
fundisa	-598
abaningi	-599
tsha	-600
mhlaba	-601
ab	-602
ta	-603
wase	-604
yebo	-605
kwesi	-606
thelo	-607
bandla	-608
bayaku	-609
ezweni	-610
kwakho	-611
ndleni	-612
yisikhombisa	-613
ema	-614
olu	-615
baya	-616
bela	-617
keni	-618
nazi	-619
vuka	-620
shiya	-621
bhekani	-622
yomuntu	-623
bone	-624
kanjani	-625
tu	-626
izwe	-627
banga	-628
sakhe	-629
sweni	-630
yonke	-631
buye	-632
cala	-633
limi	-634
lise	-635
phon	-636
hluphe	-637
bhu	-638
ebu	-639
nemi	-640
nene	-641
lapha	-642
ngubo	-643
thand	-644
wethu	-645
hlakani	-646
enye	-647
thwa	-648
ngini	-649
fumana	-650
gazi	-651
igama	-652
yaba	-653
zayo	-654
zono	-655
kwase	-656
landela	-657
she	-658
ywa	-659
▁,’	-660
lelo	-661
yalo	-662
kuthe	-663
ngaka	-664
phost	-665
fikile	-666
mthetho	-667
fanekiso	-668
phostoli	-669
nyi	-670
nyu	-671
isra	-672
sono	-673
khanda	-674
tshiwe	-675
zandla	-676
endlini	-677
israyeli	-678
yenu	-679
langa	-680
zwile	-681
bezizwe	-682
imp	-683
nyaka	-684
umusa	-685
memeza	-686
ngathi	-687
ngezwi	-688
okukhulu	-689
umthetho	-690
lase	-691
musa	-692
nyawo	-693
thiwa	-694
umbuso	-695
nambili	-696
nkazimulo	-697
kwakukhona	-698
bum	-699
ncwa	-700
zabo	-701
lonke	-702
kwabafileyo	-703
biza	-704
zoku	-705
demoni	-706
khanya	-707
niyaku	-708
okuhle	-709
isixuku	-710
shumayela	-711
bazi	-712
nhla	-713
raha	-714
hambe	-715
kithi	-716
kukho	-717
nakho	-718
thane	-719
ndlela	-720
nhliziyo	-721
bonakaliso	-722
am	-723
nj	-724
bhe	-725
lami	-726
zenu	-727
ngeni	-728
thethe	-729
nokuthi	-730
ivangeli	-731
isikhathi	-732
ayi	-733
luka	-734
qobo	-735
seni	-736
wabo	-737
thuma	-738
abraha	-739
bulala	-740
indoda	-741
abrahama	-742
ngokukholwa	-743
buka	-744
cela	-745
lilo	-746
mose	-747
galile	-748
amandla	-749
ingelosi	-750
phambili	-751
nkulungwa	-752
kungabi	-753
emhlabeni	-754
thempelini	-755
nkulungwane	-756
ti	-757
kobe	-758
shwa	-759
nathi	-760
ngesa	-761
abanga	-762
abakhulu	-763
nwa	-764
dumo	-765
suka	-766
▁”	-767
mela	-768
nkwa	-769
bethi	-770
inkosi	-771
bukhosi	-772
gog	-773
mbo	-774
bele	-775
uthi	-776
zaba	-777
bhali	-778
nagog	-779
wakho	-780
ntando	-781
phamba	-782
ethempelini	-783
dle	-784
diya	-785
fike	-786
leka	-787
leso	-788
nawe	-789
nibe	-790
yabo	-791
yimi	-792
melwe	-793
uqobo	-794
yweni	-795
mariya	-796
ngweni	-797
ngakholwa	-798
imisebenzi	-799
up	-800
bala	-801
maka	-802
zinto	-803
jakobe	-804
kuqala	-805
fundisi	-806
ngizaku	-807
ci	-808
▁—	-809
omu	-810
beza	-811
ngco	-812
sayo	-813
uthe	-814
vuma	-815
yona	-816
ngobu	-817
yayisi	-818
kubantu	-819
bindi	-820
liswa	-821
mandla	-822
ncenga	-823
ngosuku	-824
ukuphila	-825
un	-826
kuwo	-827
sizi	-828
yisa	-829
nweni	-830
kwenzi	-831
mukele	-832
ndaweni	-833
sabatha	-834
sathane	-835
aye	-836
dumi	-837
sisa	-838
wasi	-839
wonke	-840
khumbi	-841
nginga	-842
ukudla	-843
thumela	-844
sikhathi	-845
nini	-846
hlane	-847
kwaku	-848
nonke	-849
akakho	-850
kwethu	-851
ncwadi	-852
simoni	-853
thembi	-854
kalokhu	-855
elikhulu	-856
lungileyo	-857
ukukholwa	-858
qhu	-859
fowa	-860
nobu	-861
vide	-862
bakho	-863
benga	-864
ndele	-865
phele	-866
phulu	-867
qondi	-868
fowabo	-869
khatha	-870
thandi	-871
njengoku	-872
nhliziyweni	-873
owesifazane	-874
kayo	-875
lona	-876
ngqo	-877
soze	-878
zala	-879
hlobo	-880
sonke	-881
kinina	-882
mangala	-883
nangoku	-884
indodana	-885
izinsuku	-886
njengalokhu	-887
bami	-888
kuso	-889
yeza	-890
hlale	-891
kahle	-892
lakho	-893
ngiku	-894
fakaza	-895
amadoda	-896
ane	-897
ega	-898
mpo	-899
qha	-900
bayi	-901
yala	-902
kanti	-903
nyeni	-904
davide	-905
njengo	-906
tshela	-907
hliziyo	-908
zinsuku	-909
kulotshiwe	-910
ve	-911
mazi	-912
misa	-913
onke	-914
hlaka	-915
ilatu	-916
ngayo	-917
ngcoli	-918
▁!”	-919
fana	-920
zisa	-921
hlanu	-922
khala	-923
nokho	-924
khipha	-925
khonzi	-926
hlwanye	-927
sindiswa	-928
hlanganye	-929
ukum	-930
bhalo	-931
hlela	-932
mbala	-933
owaye	-934
thaba	-935
thele	-936
njenge	-937
phathi	-938
thandeka	-939
ngamashumi	-940
en	-941
abo	-942
kusu	-943
kuyi	-944
wesi	-945
yesi	-946
zile	-947
kelwa	-948
kuthi	-949
ngene	-950
thuku	-951
yedwa	-952
kwafika	-953
kungathi	-954
thembiso	-955
qe	-956
usa	-957
okwa	-958
ngaso	-959
ngazi	-960
thumi	-961
ukufa	-962
amehlo	-963
kuyaku	-964
thembe	-965
esikhulu	-966
eziningi	-967
njengaba	-968
phenduka	-969
abantwana	-970
hlakanipha	-971
bem	-972
eya	-973
fumu	-974
hero	-975
hora	-976
muzi	-977
zama	-978
butha	-979
dlula	-980
indlu	-981
umele	-982
emzini	-983
amabili	-984
nyameni	-985
phefumu	-986
wangena	-987
nagogeni	-988
sobukhosi	-989
dlu	-990
lawo	-991
maye	-992
zimu	-993
kwezi	-994
lahle	-995
lelwe	-996
ngomu	-997
umoya	-998
gcwele	-999
lalela	-1000
othile	-1001
khulume	-1002
sebenza	-1003
sokunene	-1004
yisihlanu	-1005
eziyishumi	-1006
fo	-1007
gq	-1008
febe	-1009
ndwa	-1010
wayi	-1011
abase	-1012
mbuso	-1013
nanga	-1014
nduna	-1015
ngabe	-1016
nithi	-1017
akukho	-1018
khutha	-1019
phambe	-1020
kusukela	-1021
nci	-1022
obu	-1023
ose	-1024
ump	-1025
buza	-1026
ethu	-1027
kesa	-1028
liwe	-1029
ongi	-1030
siye	-1031
yeni	-1032
zuku	-1033
shaya	-1034
madoda	-1035
iqiniso	-1036
umputhe	-1037
gcwalise	-1038
kwahlulela	-1039
okuphakade	-1040
thandekayo	-1041
eziyisikhombisa	-1042
azi	-1043
kom	-1044
nqo	-1045
baze	-1046
make	-1047
sibe	-1048
abeni	-1049
bodwa	-1050
hlalo	-1051
ncane	-1052
zelwa	-1053
ntabeni	-1054
hlupheka	-1055
kholwayo	-1056
phefumulo	-1057
thakathaka	-1058
ngaphambili	-1059
ali	-1060
ebe	-1061
use	-1062
lomo	-1063
ungo	-1064
yayo	-1065
iyaku	-1066
mbuza	-1067
ungum	-1068
zwayo	-1069
amazwi	-1070
kubona	-1071
makube	-1072
ababili	-1073
egameni	-1074
kwalokho	-1075
ima	-1076
boku	-1077
sami	-1078
izono	-1079
kwini	-1080
yihlo	-1081
bonile	-1082
ngamandla	-1083
bar	-1084
ebo	-1085
eyi	-1086
babo	-1087
belo	-1088
file	-1089
nayo	-1090
sele	-1091
vini	-1092
weza	-1093
mpofu	-1094
phuza	-1095
herode	-1096
judiya	-1097
wabona	-1098
ndleleni	-1099
abapristi	-1100
phambanweni	-1101
ge	-1102
qu	-1103
akhe	-1104
duze	-1105
kuzo	-1106
namu	-1107
nywa	-1108
amane	-1109
kuhle	-1110
nange	-1111
njini	-1112
hlophe	-1113
nyelwe	-1114
sukuma	-1115
wazala	-1116
izixuku	-1117
philayo	-1118
umzimba	-1119
izingubo	-1120
esiphambanweni	-1121
eba	-1122
ize	-1123
uzi	-1124
baka	-1125
fowe	-1126
nawo	-1127
sasi	-1128
zami	-1129
bamba	-1130
butho	-1131
hloni	-1132
khuni	-1133
kwaze	-1134
linye	-1135
ngiyi	-1136
umuzi	-1137
thengi	-1138
lungile	-1139
sondela	-1140
bonakala	-1141
kuyakuba	-1142
zukulwane	-1143
qi	-1144
shu	-1145
ube	-1146
embu	-1147
goli	-1148
khwe	-1149
lezi	-1150
siza	-1151
yase	-1152
nezin	-1153
selwe	-1154
shilo	-1155
thole	-1156
dumisa	-1157
golide	-1158
omuhle	-1159
wayini	-1160
wezulu	-1161
ibandla	-1162
ningaba	-1163
wahlala	-1164
endaweni	-1165
khunjini	-1166
kwabantu	-1167
kubafundi	-1168
umzalwane	-1169
ase	-1170
kuna	-1171
lisi	-1172
sila	-1173
wama	-1174
akusi	-1175
bethe	-1176
letha	-1177
lwesi	-1178
phika	-1179
phile	-1180
okunga	-1181
othiwa	-1182
phonsa	-1183
pilatu	-1184
siyaku	-1185
siyazi	-1186
izandla	-1187
lingani	-1188
namuhla	-1189
ngibona	-1190
hlambala	-1191
embusweni	-1192
kulunkulu	-1193
wakhuluma	-1194
nzo	-1195
▁?’	-1196
wula	-1197
dleni	-1198
ndaba	-1199
ngize	-1200
ukuzi	-1201
umhla	-1202
ngakwe	-1203
phatha	-1204
ngomuso	-1205
uthando	-1206
ngukuthi	-1207
dli	-1208
ezin	-1209
laka	-1210
ungi	-1211
ungu	-1212
vusa	-1213
yazi	-1214
zika	-1215
benza	-1216
bizwa	-1217
khube	-1218
kwama	-1219
liphu	-1220
qonde	-1221
singa	-1222
thini	-1223
zethu	-1224
inceku	-1225
ndlebe	-1226
ntathu	-1227
thupha	-1228
wamuka	-1229
fundiso	-1230
khumbula	-1231
mfundisi	-1232
thumileyo	-1233
inkazimulo	-1234
ena	-1235
galo	-1236
jose	-1237
kade	-1238
kuya	-1239
vume	-1240
yibo	-1241
funda	-1242
ngawo	-1243
nzalo	-1244
nziwe	-1245
shoyo	-1246
zakho	-1247
zalwa	-1248
zelwe	-1249
isizwe	-1250
lisiwe	-1251
ngcebo	-1252
ngezin	-1253
thombe	-1254
thweni	-1255
lokuthi	-1256
bekezela	-1257
ukulunga	-1258
mpumputhe	-1259
nokuthula	-1260
shiyagalo	-1261
kwabezizwe	-1262
im	-1263
bhi	-1264
fazi	-1265
nisa	-1266
sana	-1267
kiswa	-1268
lithi	-1269
ngele	-1270
okubi	-1271
phawu	-1272
sithi	-1273
esihla	-1274
nakuba	-1275
nkemba	-1276
nyanga	-1277
wafika	-1278
waqala	-1279
khazimu	-1280
busisiwe	-1281
iminyaka	-1282
izithelo	-1283
khaphela	-1284
longweni	-1285
thandayo	-1286
namalunga	-1287
abangcwele	-1288
gij	-1289
kum	-1290
bayo	-1291
into	-1292
kabi	-1293
kuvu	-1294
yoni	-1295
eliya	-1296
gqila	-1297
khaya	-1298
linga	-1299
mpela	-1300
ngcwe	-1301
retha	-1302
shana	-1303
unina	-1304
uyise	-1305
ehlane	-1306
enkulu	-1307
izinto	-1308
lahlwa	-1309
nikelo	-1310
nyango	-1311
isandla	-1312
pheleli	-1313
ukuthula	-1314
mukeliswa	-1315
emkhunjini	-1316
umprofethi	-1317
al	-1318
gre	-1319
une	-1320
usi	-1321
athi	-1322
babu	-1323
beku	-1324
besa	-1325
libe	-1326
mani	-1327
sezi	-1328
wenu	-1329
zoni	-1330
engum	-1331
greki	-1332
khali	-1333
lunye	-1334
ngane	-1335
zanga	-1336
ekukho	-1337
impela	-1338
lelani	-1339
wabuye	-1340
wundlu	-1341
hluleli	-1342
lukhuni	-1343
maqonda	-1344
ekudleni	-1345
thabatha	-1346
komthetho	-1347
maqondana	-1348
phulukisa	-1349
ngcolileyo	-1350
abaprofethi	-1351
ngemisebenzi	-1352
nqa	-1353
yam	-1354
besi	-1355
kaba	-1356
kanu	-1357
dalwa	-1358
mbeni	-1359
ngulu	-1360
usuku	-1361
wenza	-1362
zonda	-1363
induna	-1364
khumbu	-1365
qaleni	-1366
hambani	-1367
intando	-1368
lonyeni	-1369
ngqondo	-1370
waphuma	-1371
khashana	-1372
khathaze	-1373
kwenzeka	-1374
umfowabo	-1375
ezintathu	-1376
abazalwane	-1377
hlambalaza	-1378
dabu	-1379
guqu	-1380
insi	-1381
kosi	-1382
kuse	-1383
loba	-1384
mile	-1385
muva	-1386
okwe	-1387
soka	-1388
wayo	-1389
isono	-1390
izulu	-1391
kwayo	-1392
kweni	-1393
lwano	-1394
ngami	-1395
nxusa	-1396
yenza	-1397
amanga	-1398
engena	-1399
hlambu	-1400
josefa	-1401
ngisho	-1402
bathini	-1403
khulule	-1404
elwandle	-1405
profetha	-1406
bamangala	-1407
inhliziyo	-1408
vumelwano	-1409
izingelosi	-1410
ukukhuluma	-1411
ngakwesokunene	-1412
ake	-1413
nwe	-1414
oma	-1415
rna	-1416
uba	-1417
usu	-1418
zam	-1419
amen	-1420
busa	-1421
cebi	-1422
naza	-1423
sazi	-1424
sise	-1425
wafa	-1426
yayi	-1427
yeka	-1428
zele	-1429
bethu	-1430
ebona	-1431
kambe	-1432
ngala	-1433
ngela	-1434
nikwa	-1435
udumo	-1436
kesari	-1437
kwambu	-1438
lwakhe	-1439
owenza	-1440
umyalo	-1441
isinkwa	-1442
kulungi	-1443
phezulu	-1444
ukwenza	-1445
nabafundi	-1446
naphakade	-1447
nazaretha	-1448
ubufakazi	-1449
abayishumi	-1450
enhliziyweni	-1451
aze	-1452
ifa	-1453
baku	-1454
dala	-1455
dini	-1456
gibi	-1457
kise	-1458
mini	-1459
qale	-1460
umka	-1461
velo	-1462
vula	-1463
wona	-1464
yalu	-1465
yama	-1466
yezi	-1467
ezine	-1468
khiwa	-1469
ndisa	-1470
oyaku	-1471
thewu	-1472
ukuyo	-1473
yikho	-1474
emihle	-1475
inyama	-1476
khuphu	-1477
naseku	-1478
nikela	-1479
phethe	-1480
abayizi	-1481
gibithe	-1482
hlulela	-1483
indlela	-1484
kangaka	-1485
kwavela	-1486
ngegama	-1487
nyukela	-1488
ethuneni	-1489
ezimbili	-1490
ngokwesi	-1491
umpristi	-1492
amademoni	-1493
umsebenzi	-1494
wesifazane	-1495
ngesikhathi	-1496
okungukuthi	-1497
eti	-1498
nim	-1499
bali	-1500
imvu	-1501
nile	-1502
utho	-1503
vuzo	-1504
zana	-1505
zazi	-1506
ezint	-1507
funya	-1508
futha	-1509
hambi	-1510
igazi	-1511
lingu	-1512
mazwi	-1513
sakho	-1514
khethi	-1515
nyiswa	-1516
qinise	-1517
khuleke	-1518
komunye	-1519
phasika	-1520
phikisa	-1521
sindisa	-1522
ngalungi	-1523
umntwana	-1524
wathatha	-1525
nababhali	-1526
ngesandla	-1527
thethweni	-1528
bhapathiza	-1529
nokukholwa	-1530
ekukholweni	-1531
esihlalweni	-1532
nenkazimulo	-1533
xu	-1534
ene	-1535
iyi	-1536
felo	-1537
itshe	-1538
khula	-1539
mbeza	-1540
nango	-1541
ngabo	-1542
nzela	-1543
okuyi	-1544
phiwa	-1545
phume	-1546
ubuso	-1547
ukuya	-1548
gulayo	-1549
izizwe	-1550
mbethe	-1551
ngenza	-1552
tsheni	-1553
buthana	-1554
mhlophe	-1555
shumaye	-1556
entabeni	-1557
felokazi	-1558
izinyawo	-1559
esefikile	-1560
ngezandla	-1561
nokuphila	-1562
ngangomuso	-1563
ngokunjalo	-1564
buthakathaka	-1565
emhlabathini	-1566
ami	-1567
bese	-1568
nabe	-1569
niba	-1570
thwe	-1571
wela	-1572
abaku	-1573
evela	-1574
hlisa	-1575
khawu	-1576
kwalo	-1577
mbona	-1578
ndiso	-1579
phumu	-1580
tshwa	-1581
bhubha	-1582
chitha	-1583
doniya	-1584
mesaba	-1585
moyeni	-1586
phinda	-1587
qinisa	-1588
hlukani	-1589
kanyezi	-1590
kungesi	-1591
kwaseku	-1592
ngesabi	-1593
okuvela	-1594
abampofu	-1595
bumnyama	-1596
ngamazwi	-1597
ngcosana	-1598
abafileyo	-1599
phikisana	-1600
makedoniya	-1601
ngomthetho	-1602
etilongweni	-1603
hlanganyela	-1604
us	-1605
mpa	-1606
qhe	-1607
uvu	-1608
alta	-1609
beli	-1610
fula	-1611
inko	-1612
liva	-1613
naka	-1614
nili	-1615
sayi	-1616
veza	-1617
wala	-1618
wawu	-1619
awulu	-1620
enhle	-1621
funga	-1622
ngaku	-1623
ngazo	-1624
ninge	-1625
thene	-1626
zange	-1627
zathi	-1628
altare	-1629
bafika	-1630
boshwa	-1631
indawo	-1632
jabula	-1633
kuvela	-1634
nasezi	-1635
ngcono	-1636
niyazi	-1637
sisiwe	-1638
zelela	-1639
barnaba	-1640
fihlaka	-1641
isitsha	-1642
izinkwa	-1643
kwesaba	-1644
ngabantu	-1645
ukukhanya	-1646
ngesabatha	-1647
thethelelwa	-1648
ayisikhombisa	-1649
ezinhliziyweni	-1650
abu	-1651
cho	-1652
iya	-1653
lom	-1654
lwi	-1655
obe	-1656
one	-1657
ozi	-1658
yom	-1659
bezi	-1660
kude	-1661
othi	-1662
seli	-1663
bengi	-1664
imali	-1665
kwabe	-1666
ngumu	-1667
nziwa	-1668
siswa	-1669
bulale	-1670
dabula	-1671
fowenu	-1672
kanuko	-1673
kulowo	-1674
ngekho	-1675
nizaku	-1676
tshele	-1677
tshelo	-1678
uphawu	-1679
filiphu	-1680
incwadi	-1681
kunguku	-1682
ndwangu	-1683
ngalezo	-1684
nyaweni	-1685
zimbeni	-1686
abathile	-1687
komhlaba	-1688
ncinyane	-1689
ndawonye	-1690
ngemihla	-1691
wokuqala	-1692
emlonyeni	-1693
pheleleyo	-1694
khuthazela	-1695
esinagogeni	-1696
izinhliziyo	-1697
kwahlulelwa	-1698
xo	-1699
ano	-1700
oya	-1701
oyi	-1702
uye	-1703
▁;’	-1704
akho	-1705
ange	-1706
cebo	-1707
ithi	-1708
kana	-1709
kelo	-1710
kuno	-1711
liya	-1712
siyi	-1713
susa	-1714
woza	-1715
zali	-1716
zezi	-1717
gcine	-1718
izaku	-1719
khuza	-1720
kwemi	-1721
ngise	-1722
ngiye	-1723
nquma	-1724
phuze	-1725
shiwe	-1726
swele	-1727
thimo	-1728
thola	-1729
amanzi	-1730
buyela	-1731
dodana	-1732
ezinga	-1733
ingubo	-1734
kufika	-1735
kufike	-1736
lobela	-1737
mkhulu	-1738
msindi	-1739
nababe	-1740
nomoya	-1741
vumela	-1742
ziyaku	-1743
iwayini	-1744
kungaba	-1745
landele	-1746
nakanye	-1747
ngiyani	-1748
thelisi	-1749
enyameni	-1750
faneleyo	-1751
izinceku	-1752
kwenzayo	-1753
nomhlaba	-1754
phambeko	-1755
amathathu	-1756
fihlakalo	-1757
khulunywa	-1758
gcwaliseke	-1759
thimothewu	-1760
bhapathizwa	-1761
emthethweni	-1762
ngakholwayo	-1763
sizukulwane	-1764
masinagogeni	-1765
qh	-1766
efe	-1767
eme	-1768
enu	-1769
gqo	-1770
babi	-1771
benu	-1772
dade	-1773
dani	-1774
dudu	-1775
kiya	-1776
nalo	-1777
niye	-1778
riyu	-1779
soni	-1780
cinde	-1781
dumbu	-1782
isaya	-1783
lahla	-1784
mvelo	-1785
ngibe	-1786
qhele	-1787
sinye	-1788
vuswa	-1789
zenzi	-1790
bazaku	-1791
besaba	-1792
imihla	-1793
khiphe	-1794
komoya	-1795
ongena	-1796
sileyo	-1797
bamanga	-1798
ikhanda	-1799
kaningi	-1800
mpristi	-1801
nabantu	-1802
ngabona	-1803
ngomusa	-1804
nguyena	-1805
sondele	-1806
abezizwe	-1807
msindisi	-1808
phambene	-1809
esandleni	-1810
ezintweni	-1811
kwamukela	-1812
hlakaniphi	-1813
kungabikho	-1814
ngomkhumbi	-1815
thethelela	-1816
ngokwenyama	-1817
kwasekuqaleni	-1818
and	-1819
nju	-1820
nte	-1821
nyo	-1822
wum	-1823
kiwe	-1824
lama	-1825
mesa	-1826
nele	-1827
ngwe	-1828
vuna	-1829
waze	-1830
yawo	-1831
ababi	-1832
anazi	-1833
betha	-1834
hloko	-1835
isilo	-1836
kusho	-1837
kwawo	-1838
linda	-1839
liswe	-1840
lizwa	-1841
ngubu	-1842
nyiwe	-1843
nzini	-1844
phumi	-1845
sheya	-1846
wenze	-1847
wumbe	-1848
yodwa	-1849
bulali	-1850
dabuka	-1851
gcwala	-1852
khokho	-1853
mbamba	-1854
sawulu	-1855
tsheli	-1856
umvuzo	-1857
emoyeni	-1858
kumelwe	-1859
ngiyazi	-1860
phelele	-1861
ukubona	-1862
umbhalo	-1863
uyakuba	-1864
akusikho	-1865
ikakhulu	-1866
kungekho	-1867
ngumuphi	-1868
nothando	-1869
ophilayo	-1870
phesheya	-1871
samariya	-1872
ungubani	-1873
endleleni	-1874
mhlawumbe	-1875
yayisithi	-1876
kwezinsuku	-1877
ngabantwana	-1878
eziyisihlanu	-1879
emasinagogeni	-1880
hha	-1881
oni	-1882
stu	-1883
uze	-1884
anti	-1885
baye	-1886
dela	-1887
impa	-1888
inga	-1889
kene	-1890
kiyo	-1891
kule	-1892
lawa	-1893
liso	-1894
lusi	-1895
mawu	-1896
nane	-1897
nize	-1898
roma	-1899
sabo	-1900
uhla	-1901
wezi	-1902
zesi	-1903
abani	-1904
efesu	-1905
isaka	-1906
mehlo	-1907
ngiba	-1908
nyaye	-1909
ongum	-1910
sakwa	-1911
shise	-1912
busuku	-1913
engiku	-1914
kwezwe	-1915
lileyo	-1916
mbathi	-1917
nasema	-1918
nokuzi	-1919
uhlala	-1920
umlomo	-1921
wasuka	-1922
khileyo	-1923
kithina	-1924
kunjalo	-1925
nabanye	-1926
nalokho	-1927
nembeza	-1928
ngaleso	-1929
ningabi	-1930
qaphela	-1931
wahamba	-1932
xukwini	-1933
bakholwa	-1934
bamemeza	-1935
isibindi	-1936
nithanda	-1937
phenduke	-1938
shunyaye	-1939
ngezilimi	-1940
ubusisiwe	-1941
wakhuleka	-1942
bumnyameni	-1943
khethiweyo	-1944
nabantwana	-1945
olungileyo	-1946
yisithupha	-1947
abaphostoli	-1948
izibonakaliso	-1949
hlakaniphileyo	-1950
pi	-1951
gco	-1952
iza	-1953
mpi	-1954
osi	-1955
som	-1956
bile	-1957
duma	-1958
engo	-1959
iswa	-1960
lule	-1961
nela	-1962
neli	-1963
siba	-1964
sona	-1965
asiya	-1966
bezwa	-1967
kelwe	-1968
longo	-1969
nenza	-1970
ngolo	-1971
nqoba	-1972
ntaba	-1973
ukuza	-1974
bebona	-1975
ethile	-1976
fokazi	-1977
hlweni	-1978
khetha	-1979
lekile	-1980
ngezwa	-1981
phonse	-1982
ukhona	-1983
bambuza	-1984
buthene	-1985
khulula	-1986
nangezi	-1987
ndulela	-1988
ngegazi	-1989
ngelela	-1990
njengom	-1991
thobela	-1992
umhlaba	-1993
yalokho	-1994
yekhulu	-1995
isithelo	-1996
khonzani	-1997
phambano	-1998
umkhumbi	-1999
izithombe	-2000
mangalela	-2001
mangaliso	-2002
ngalaleli	-2003
ngamatshe	-2004
ngithanda	-2005
shumayeza	-2006
ayisihlanu	-2007
bhapathizi	-2008
bonakalisa	-2009
kungesikho	-2010
lahlekelwa	-2011
ngikhuluma	-2012
osezulwini	-2013
ngokungathi	-2014
nabaprofethi	-2015
isibonakaliso	-2016
ukuhlakanipha	-2017
te	-2018
alu	-2019
cha	-2020
ibe	-2021
mar	-2022
ywe	-2023
▁;”	-2024
bemi	-2025
bhuj	-2026
bini	-2027
buso	-2028
fela	-2029
feni	-2030
fisa	-2031
funi	-2032
giji	-2033
hlwi	-2034
lifa	-2035
loni	-2036
ngim	-2037
nizi	-2038
nowa	-2039
reya	-2040
size	-2041
wali	-2042
wema	-2043
yemi	-2044
zase	-2045
ayaku	-2046
badla	-2047
eniku	-2048
hlazo	-2049
icala	-2050
kungo	-2051
mbusi	-2052
muzwa	-2053
ngali	-2054
ngawe	-2055
nqumo	-2056
nyuka	-2057
nzeka	-2058
ogama	-2059
okoku	-2060
owazi	-2061
selwa	-2062
sengi	-2063
thuba	-2064
thuka	-2065
zinga	-2066
antiyo	-2067
ekhona	-2068
melana	-2069
misela	-2070
mprofe	-2071
ngothi	-2072
nonina	-2073
nxenye	-2074
shelwa	-2075
abazali	-2076
bangaba	-2077
ezinhle	-2078
hlushwa	-2079
ithemba	-2080
nalapho	-2081
ngasezi	-2082
ngenisa	-2083
umkakhe	-2084
bandleni	-2085
hlangani	-2086
kwenzile	-2087
lotshiwe	-2088
nangenxa	-2089
ngalutho	-2090
ngikhona	-2091
njengezi	-2092
okuningi	-2093
tshiweyo	-2094
wamemeza	-2095
yamandla	-2096
bakhuluma	-2097
emzimbeni	-2098
mprofethi	-2099
nesibindi	-2100
antiyokiya	-2101
umfanekiso	-2102
umphefumulo	-2103
shiyagalolunye	-2104
aya	-2105
bet	-2106
ise	-2107
wom	-2108
abam	-2109
fase	-2110
fiki	-2111
koni	-2112
lena	-2113
lolo	-2114
nasi	-2115
rabi	-2116
sala	-2117
sibo	-2118
sini	-2119
veli	-2120
wume	-2121
bambe	-2122
finye	-2123
gunya	-2124
kwazo	-2125
ngisa	-2126
ozayo	-2127
phiwe	-2128
sizwe	-2129
ulaka	-2130
uyazi	-2131
abathi	-2132
elinye	-2133
elisha	-2134
kuleyo	-2135
kuyini	-2136
liyaku	-2137
lwakho	-2138
nabase	-2139
niyala	-2140
okwesi	-2141
umbusi	-2142
yisela	-2143
zakuba	-2144
zelayo	-2145
khiwane	-2146
lungele	-2147
mbazana	-2148
nempela	-2149
ngaleyo	-2150
ubusuku	-2151
yikhona	-2152
zabantu	-2153
amaningi	-2154
engcwele	-2155
eseshilo	-2156
esizweni	-2157
gcwalisa	-2158
hawukela	-2159
khelwane	-2160
lokuqala	-2161
ndlalifa	-2162
ngaphezu	-2163
ngumuntu	-2164
olukhulu	-2165
wayeseba	-2166
fumananga	-2167
phakamisa	-2168
kwesihlalo	-2169
ngokwesaba	-2170
bonakaliswa	-2171
ngaselwandle	-2172
yenkulungwane	-2173
ngasezinyaweni	-2174
shiyagalombili	-2175
pe	-2176
aso	-2177
eze	-2178
iso	-2179
nam	-2180
nce	-2181
sam	-2182
dama	-2183
dili	-2184
duzo	-2185
hlwe	-2186
kozo	-2187
lenu	-2188
mele	-2189
shwe	-2190
unge	-2191
yaso	-2192
yiyo	-2193
zibe	-2194
ziya	-2195
zuze	-2196
bambi	-2197
bhubh	-2198
dingi	-2199
eyisi	-2200
lulwa	-2201
nenze	-2202
nzayo	-2203
ohane	-2204
omoya	-2205
oyisi	-2206
sathi	-2207
ukuni	-2208
zinyo	-2209
bulawa	-2210
engaka	-2211
gatsha	-2212
hlephu	-2213
liweyo	-2214
mawube	-2215
mileyo	-2216
mukeli	-2217
nagoge	-2218
nhloko	-2219
phangi	-2220
phinga	-2221
sekelo	-2222
thathe	-2223
umlilo	-2224
baphuma	-2225
ethanda	-2226
fowethu	-2227
khubeka	-2228
nduduzo	-2229
ngalolo	-2230
ngomoya	-2231
pheleni	-2232
uthanda	-2233
wathuma	-2234
hawukele	-2235
hlupheko	-2236
kesariya	-2237
kunokuba	-2238
kwenziwa	-2239
mhlabeni	-2240
ncwadini	-2241
nezinhla	-2242
ngokunga	-2243
ngokwami	-2244
ukhuluma	-2245
vunyelwe	-2246
mfanekiso	-2247
bonakalise	-2248
lotshiweyo	-2249
ngesibindi	-2250
ngukuphila	-2251
phendulela	-2252
abakholwayo	-2253
ebumnyameni	-2254
isithembiso	-2255
kangakanani	-2256
ngaphakathi	-2257
ngenhliziyo	-2258
ngezikhathi	-2259
ukuhlupheka	-2260
kugcwaliseke	-2261
kwamukeliswa	-2262
nabesifazane	-2263
ongithumileyo	-2264
efa	-2265
gwe	-2266
zom	-2267
bale	-2268
dena	-2269
deni	-2270
gula	-2271
kape	-2272
lali	-2273
nesa	-2274
neze	-2275
sase	-2276
usho	-2277
aboku	-2278
bonge	-2279
gcini	-2280
lahli	-2281
lwase	-2282
mbewu	-2283
mbile	-2284
mnika	-2285
ndeni	-2286
ngizi	-2287
nyala	-2288
nzile	-2289
owaba	-2290
qambi	-2291
sikho	-2292
tshwe	-2293
washo	-2294
zinge	-2295
ahlale	-2296
babeka	-2297
busisa	-2298
chithe	-2299
ekukha	-2300
fikeni	-2301
hlungu	-2302
isipho	-2303
mukisa	-2304
nasemi	-2305
ngingo	-2306
nodumo	-2307
safika	-2308
sayiku	-2309
shesha	-2310
sokuba	-2311
wayala	-2312
yilabo	-2313
zaneni	-2314
akayiku	-2315
baningi	-2316
behamba	-2317
ebusuku	-2318
hlukene	-2319
kaperna	-2320
kulokho	-2321
kumuntu	-2322
kwezono	-2323
lilweni	-2324
makezwe	-2325
ngifuna	-2326
ngokoku	-2327
okwenze	-2328
phonswe	-2329
sindise	-2330
thandwa	-2331
thumele	-2332
uzakuba	-2333
wehlela	-2334
wokuthi	-2335
abangena	-2336
akushoyo	-2337
amakhosi	-2338
denariyu	-2339
ebusweni	-2340
eminingi	-2341
fakazela	-2342
gijimela	-2343
kufanele	-2344
memezela	-2345
amabandla	-2346
emehlweni	-2347
ithempeli	-2348
kolwandle	-2349
kwambulwa	-2350
onamandla	-2351
sebezwile	-2352
shumayele	-2353
thandweni	-2354
unamandla	-2355
eshumayela	-2356
indodakazi	-2357
khawulweni	-2358
kubapristi	-2359
thukuthela	-2360
isikhashana	-2361
kapernawume	-2362
nezingelosi	-2363
ukwahlulela	-2364
bathandekayo	-2365
ezingamashumi	-2366
ar	-2367
▁’	-2368
ale	-2369
awa	-2370
awo	-2371
ibi	-2372
jor	-2373
nka	-2374
basi	-2375
bebe	-2376
bisa	-2377
bono	-2378
bulo	-2379
buya	-2380
doni	-2381
endu	-2382
gugu	-2383
lazi	-2384
liba	-2385
naso	-2386
nayi	-2387
ndlo	-2388
nise	-2389
qeda	-2390
qili	-2391
sadu	-2392
tale	-2393
valo	-2394
vumi	-2395
wawa	-2396
wawo	-2397
yasi	-2398
yile	-2399
yobu	-2400
zaru	-2401
ayese	-2402
bakwa	-2403
basho	-2404
bheke	-2405
bonwa	-2406
dlayo	-2407
efuna	-2408
eziyi	-2409
icebo	-2410
kuzwa	-2411
ngiza	-2412
onezi	-2413
phiwo	-2414
swela	-2415
thulu	-2416
uyeza	-2417
babona	-2418
bafuna	-2419
baqala	-2420
dukisa	-2421
ekhaya	-2422
esinye	-2423
hhashi	-2424
hlelwa	-2425
ilanga	-2426
izimvu	-2427
izipho	-2428
khohli	-2429
kulesi	-2430
lokuba	-2431
ndlala	-2432
nendlu	-2433
ngasem	-2434
shaywa	-2435
yikuba	-2436
bahamba	-2437
bangena	-2438
boshiwe	-2439
bumnene	-2440
cilongo	-2441
ingcebo	-2442
jordani	-2443
lungisa	-2444
mungulu	-2445
nalokhu	-2446
ngehora	-2447
ningabe	-2448
nsimini	-2449
nyakazi	-2450
othanda	-2451
phumele	-2452
talenta	-2453
yilokhu	-2454
bethelwe	-2455
bhubhisa	-2456
dadewabo	-2457
damaseku	-2458
isidumbu	-2459
kwabanye	-2460
kwaphuma	-2461
ngamanzi	-2462
ngempela	-2463
ngomlilo	-2464
ukuhamba	-2465
ukungena	-2466
wabanika	-2467
emlilweni	-2468
ezandleni	-2469
khashelwa	-2470
kunalokho	-2471
misebenzi	-2472
namahloni	-2473
ngaphambi	-2474
ngasemuva	-2475
qaphelani	-2476
sebenzini	-2477
babusisiwe	-2478
esakhuluma	-2479
ezindaweni	-2480
kungenjalo	-2481
qinisileyo	-2482
lwesithathu	-2483
po	-2484
azo	-2485
dra	-2486
eso	-2487
bede	-2488
beru	-2489
bule	-2490
embi	-2491
fume	-2492
jona	-2493
kayi	-2494
lima	-2495
lobu	-2496
sawo	-2497
sisi	-2498
solo	-2499
ukwe	-2500
vame	-2501
zazo	-2502
zise	-2503
abali	-2504
abazi	-2505
amasa	-2506
bahlu	-2507
benze	-2508
dlule	-2509
eside	-2510
imizi	-2511
kumbe	-2512
lethu	-2513
mbela	-2514
nandi	-2515
ndala	-2516
nyana	-2517
nzima	-2518
ozaku	-2519
qamba	-2520
qhube	-2521
swini	-2522
yizin	-2523
babone	-2524
bayizi	-2525
bevela	-2526
bhubhi	-2527
bizela	-2528
bonayo	-2529
ekuphi	-2530
ethiwa	-2531
fumane	-2532
fumene	-2533
gijima	-2534
heberu	-2535
hlanju	-2536
kuleli	-2537
livela	-2538
ngangi	-2539
ngingu	-2540
ngizwa	-2541
phathe	-2542
phingi	-2543
sadusi	-2544
tshani	-2545
ukuzwa	-2546
ukwazi	-2547
yegama	-2548
yimina	-2549
asiyiku	-2550
hlakaze	-2551
hlalani	-2552
imiyalo	-2553
khwelwe	-2554
kukhulu	-2555
mhlanga	-2556
mvubelo	-2557
okholwa	-2558
philisa	-2559
phumile	-2560
phumula	-2561
thumile	-2562
tshelwe	-2563
ukwahlu	-2564
ababhali	-2565
ekhuluma	-2566
funyanwa	-2567
kwenziwe	-2568
ngomunye	-2569
okhuluma	-2570
thabathe	-2571
thengisa	-2572
zamazama	-2573
abagulayo	-2574
abakholwa	-2575
bingelela	-2576
ekufikeni	-2577
insindiso	-2578
khubekisa	-2579
khubekiso	-2580
khulekela	-2581
thokozisa	-2582
ukukhonza	-2583
baphendula	-2584
gcwaliseka	-2585
kungenzeka	-2586
kuvunyelwe	-2587
uhlangothi	-2588
abesifazane	-2589
ekukhanyeni	-2590
emabandleni	-2591
hlanganyeli	-2592
mbhapathizi	-2593
ngubufakazi	-2594
ngukukhanya	-2595
nhliziyonye	-2596
ukungalungi	-2597
wabaphendula	-2598
ngemifanekiso	-2599
okwakhulunywa	-2600
ada	-2601
mag	-2602
pro	-2603
ulu	-2604
uza	-2605
apho	-2606
bafa	-2607
feze	-2608
guqa	-2609
iqhu	-2610
kala	-2611
kuku	-2612
kumi	-2613
kuni	-2614
mali	-2615
ndwe	-2616
nifu	-2617
niyi	-2618
salo	-2619
senu	-2620
vele	-2621
vule	-2622
zuza	-2623
zuzo	-2624
anina	-2625
bantu	-2626
bezwe	-2627
drako	-2628
ekuvu	-2629
elise	-2630
emuva	-2631
enani	-2632
eyaku	-2633
ezazi	-2634
imoni	-2635
kanje	-2636
landa	-2637
lathi	-2638
lwami	-2639
mbezi	-2640
mihla	-2641
nakhu	-2642
nduku	-2643
ofuna	-2644
okuka	-2645
okuse	-2646
pheli	-2647
qondo	-2648
qotho	-2649
shiwo	-2650
shiye	-2651
ufana	-2652
ukuyi	-2653
wakha	-2654
wangi	-2655
xosha	-2656
yothe	-2657
aberna	-2658
babili	-2659
bonelo	-2660
ehamba	-2661
ehlezi	-2662
ekwazi	-2663
ephuma	-2664
esihle	-2665
esinga	-2666
ezimbi	-2667
fumani	-2668
ingena	-2669
khonze	-2670
kisiwe	-2671
kulaba	-2672
kulabo	-2673
kuyena	-2674
lazaru	-2675
lisile	-2676
lusuku	-2677
makabe	-2678
mesabi	-2679
nakubo	-2680
ndweni	-2681
nemini	-2682
nginge	-2683
nibona	-2684
nileyo	-2685
nkonzo	-2686
ohlezi	-2687
owathi	-2688
phindi	-2689
thithu	-2690
thwala	-2691
umyeni	-2692
wabiza	-2693
yawela	-2694
yazini	-2695
yinina	-2696
zindlo	-2697
andreya	-2698
bebodwa	-2699
eniyaku	-2700
inkemba	-2701
khulumi	-2702
landisa	-2703
ngesiso	-2704
nomuntu	-2705
nomunye	-2706
omhlaba	-2707
phumela	-2708
qondene	-2709
thuluka	-2710
ukuvuka	-2711
umqhele	-2712
amabutho	-2713
bhujiswa	-2714
hlephula	-2715
iphasika	-2716
kwathiwa	-2717
mbathisa	-2718
nethemba	-2719
ngomlomo	-2720
nitshela	-2721
nsindiso	-2722
nyembezi	-2723
ongcwele	-2724
sithanda	-2725
bekhuluma	-2726
izinyanga	-2727
kukhuluma	-2728
linganiso	-2729
ngentando	-2730
ngothando	-2731
nolwandle	-2732
ukulahlwa	-2733
abakhileyo	-2734
abernakele	-2735
bamlandela	-2736
ekuphileni	-2737
izisebenzi	-2738
khathazeki	-2739
khuphukela	-2740
kokukholwa	-2741
lungisiswa	-2742
ngamakhulu	-2743
othandweni	-2744
phendukela	-2745
wathabatha	-2746
yisikhathi	-2747
engamashumi	-2748
imfihlakalo	-2749
intombazana	-2750
shunyayelwa	-2751
ngokuthokoza	-2752
khululekileyo	-2753
okwenzekileyo	-2754
ag	-2755
cu	-2756
uk	-2757
cwe	-2758
ebi	-2759
gca	-2760
sim	-2761
uce	-2762
bawo	-2763
beyi	-2764
dolo	-2765
enge	-2766
engu	-2767
enza	-2768
nake	-2769
nisi	-2770
qede	-2771
sand	-2772
tire	-2773
ukwa	-2774
wani	-2775
zeli	-2776
zona	-2777
abayi	-2778
akuba	-2779
bangi	-2780
bathe	-2781
bekwa	-2782
cathu	-2783
choko	-2784
festu	-2785
fungo	-2786
ganwa	-2787
gqolo	-2788
hlabe	-2789
hlali	-2790
hliso	-2791
hunyu	-2792
ihora	-2793
kangi	-2794
magda	-2795
mbeka	-2796
mvusa	-2797
ndolo	-2798
nezwi	-2799
ngowe	-2800
niswa	-2801
qhabo	-2802
shisa	-2803
sithe	-2804
sokho	-2805
ukuma	-2806
uyisi	-2807
vungu	-2808
xwaya	-2809
bamuka	-2810
bedewu	-2811
befuna	-2812
embona	-2813
hlangu	-2814
hlupho	-2815
iqhude	-2816
ithuba	-2817
izitha	-2818
kholwe	-2819
kimina	-2820
lobele	-2821
mbatha	-2822
mpahla	-2823
nalabo	-2824
nalelo	-2825
negazi	-2826
nezoni	-2827
ngiyam	-2828
ngokwa	-2829
nikele	-2830
onjalo	-2831
qinile	-2832
thwalo	-2833
thwele	-2834
uhambe	-2835
uhlaka	-2836
ukungi	-2837
umelwe	-2838
umhawu	-2839
umnini	-2840
uyihlo	-2841
vusela	-2842
yibani	-2843
zezulu	-2844
babantu	-2845
bahlala	-2846
bakhona	-2847
baletha	-2848
bazenzi	-2849
bengena	-2850
cabanga	-2851
cathulo	-2852
dlulile	-2853
fundise	-2854
gcawini	-2855
isihawu	-2856
khandle	-2857
khuleko	-2858
kungaka	-2859
kuphila	-2860
kuzwile	-2861
kwabase	-2862
lombuso	-2863
namanje	-2864
ngesiye	-2865
ngingum	-2866
ngobuso	-2867
ngozini	-2868
phelela	-2869
sebenze	-2870
sihambe	-2871
singaba	-2872
siphuza	-2873
sukwini	-2874
thokoze	-2875
thunywa	-2876
tshengi	-2877
umfundi	-2878
wayesem	-2879
xwayani	-2880
yabantu	-2881
amalunga	-2882
babiloni	-2883
bafumana	-2884
cebileyo	-2885
daliweyo	-2886
engiyaku	-2887
eyishumi	-2888
ezinkulu	-2889
imibhalo	-2890
ingqondo	-2891
isihlalo	-2892
kathathu	-2893
khumbule	-2894
kwenyama	-2895
ncekwini	-2896
ngalokhu	-2897
sengathi	-2898
sokhohlo	-2899
solomoni	-2900
thandile	-2901
umnikelo	-2902
ungesabi	-2903
wabayala	-2904
waphinda	-2905
zebedewu	-2906
zinikela	-2907
hlwanyela	-2908
hunyushwa	-2909
linganisa	-2910
lokugcina	-2911
lungisele	-2912
magdalena	-2913
mkhaphela	-2914
nakalokhu	-2915
namashumi	-2916
ndodakazi	-2917
ngeqiniso	-2918
nomthetho	-2919
ntwanyana	-2920
qondileyo	-2921
shisekela	-2922
thokozani	-2923
bhapathizo	-2924
esixukwini	-2925
hlambulula	-2926
khathazeka	-2927
kwezinyawo	-2928
nabafowabo	-2929
ngikhulume	-2930
njalonjalo	-2931
phakathini	-2932
ayisithupha	-2933
hlanjululwa	-2934
nabazalwane	-2935
ngiyethemba	-2936
nokuthokoza	-2937
ongcolileyo	-2938
thethelelwe	-2939
umakhelwane	-2940
washumayela	-2941
imiphefumulo	-2942
kwabangcwele	-2943
ngokomthetho	-2944
ngokwesibili	-2945
thembekileyo	-2946
abangcolileyo	-2947
co	-2948
gx	-2949
uf	-2950
emp	-2951
hog	-2952
ifu	-2953
ili	-2954
ine	-2955
ket	-2956
kle	-2957
ono	-2958
qhi	-2959
uli	-2960
adle	-2961
agri	-2962
basu	-2963
bawa	-2964
bene	-2965
beze	-2966
bika	-2967
caba	-2968
diyu	-2969
esem	-2970
isho	-2971
iska	-2972
kawu	-2973
kodo	-2974
kune	-2975
kusa	-2976
lana	-2977
levi	-2978
mayi	-2979
miso	-2980
nona	-2981
ongu	-2982
vama	-2983
vivi	-2984
waso	-2985
yide	-2986
yize	-2987
yoka	-2988
zula	-2989
anani	-2990
ayizi	-2991
bheki	-2992
bopha	-2993
bopho	-2994
chilo	-2995
dinga	-2996
dinge	-2997
elisa	-2998
fihli	-2999
hleni	-3000
kanga	-3001
khiwe	-3002
kungu	-3003
kwaso	-3004
lwayo	-3005
lwenu	-3006
marta	-3007
nanto	-3008
ncoma	-3009
ngeze	-3010
ngili	-3011
ngoko	-3012
nidle	-3013
ntsha	-3014
omase	-3015
owasi	-3016
theli	-3017
wodwa	-3018
zitho	-3019
apholo	-3020
bikela	-3021
ekuzwa	-3022
esisha	-3023
fuleni	-3024
hlamvu	-3025
hlanze	-3026
imbewu	-3027
inzalo	-3028
iskari	-3029
ithole	-3030
kabili	-3031
kungum	-3032
kuzaku	-3033
kwenye	-3034
laleli	-3035
lekela	-3036
luleka	-3037
mnandi	-3038
mnyama	-3039
naleyo	-3040
necala	-3041
nenhla	-3042
ngelwa	-3043
nifuna	-3044
omusha	-3045
sidoni	-3046
sobala	-3047
thunzi	-3048
ukulwa	-3049
umfazi	-3050
ungene	-3051
vumele	-3052
wabeka	-3053
wakubo	-3054
yazisa	-3055
ziweyo	-3056
agripha	-3057
ananiya	-3058
angisho	-3059
bonwayo	-3060
dukiswa	-3061
dwaleni	-3062
ekufeni	-3063
ekuseni	-3064
ekwahlu	-3065
emizini	-3066
hogweni	-3067
impahla	-3068
inxenye	-3069
iyakuba	-3070
ketanga	-3071
khosini	-3072
kulokhu	-3073
lelweni	-3074
namazwi	-3075
namunye	-3076
nangama	-3077
naphezu	-3078
nenyama	-3079
ngaboku	-3080
ngalowo	-3081
ngamazi	-3082
ngokufa	-3083
ngokuka	-3084
nohlezi	-3085
ntokozo	-3086
okhokho	-3087
ongiphe	-3088
phonswa	-3089
qondisa	-3090
tholile	-3091
ubufebe	-3092
ukufika	-3093
ukusoka	-3094
uthembe	-3095
wabonga	-3096
wambuza	-3097
wayenga	-3098
yamanzi	-3099
abahamba	-3100
amakhulu	-3101
angisoze	-3102
bayakuba	-3103
bonileyo	-3104
enduneni	-3105
fundiswa	-3106
hlangana	-3107
izindaba	-3108
khohlisa	-3109
khululwa	-3110
kwelinye	-3111
mbethele	-3112
ndlebeni	-3113
nginguye	-3114
njengesi	-3115
nobusuku	-3116
okunjalo	-3117
sindiswe	-3118
siyakuba	-3119
ukugcina	-3120
ukuhlala	-3121
ukuphela	-3122
ukwesaba	-3123
wafumana	-3124
wakholwa	-3125
bazenzisi	-3126
ebandleni	-3127
ekuvukeni	-3128
encwadini	-3129
inamandla	-3130
khulumile	-3131
nabezizwe	-3132
nezinyawo	-3133
ngizakuku	-3134
ngofakazi	-3135
okweshumi	-3136
philileyo	-3137
wayekhona	-3138
bekezelela	-3139
hlwanyelwe	-3140
kubantwana	-3141
lungiselwe	-3142
mfihlakalo	-3143
nabapristi	-3144
ngezinsuku	-3145
ngokuthula	-3146
phulukiswa	-3147
ukumbulala	-3148
ukuthokoza	-3149
umphostoli	-3150
isiphambano	-3151
iskariyothe	-3152
kubazalwane	-3153
langazelela	-3154
nezinhlanzi	-3155
tabernakele	-3156
ukwahlukana	-3157
kowesifazane	-3158
ngithumileyo	-3159
okwesithathu	-3160
sokwahlulela	-3161
yisikhashana	-3162
emikhawulweni	-3163
nokuphikisana	-3164
ungumprofethi	-3165
abi	-3166
eno	-3167
eye	-3168
ezo	-3169
gwa	-3170
int	-3171
ksi	-3172
nen	-3173
ome	-3174
ste	-3175
tro	-3176
ahlu	-3177
alek	-3178
ezim	-3179
geza	-3180
inka	-3181
juba	-3182
kasi	-3183
kaya	-3184
kisi	-3185
kona	-3186
leke	-3187
lila	-3188
luya	-3189
maba	-3190
mise	-3191
muni	-3192
neye	-3193
nqun	-3194
qedi	-3195
siku	-3196
sodo	-3197
suse	-3198
uphi	-3199
vuse	-3200
waku	-3201
yali	-3202
yawa	-3203
yaya	-3204
yilo	-3205
yiwo	-3206
zaka	-3207
zalo	-3208
zawo	-3209
ziba	-3210
zila	-3211
akazi	-3212
akube	-3213
bomvu	-3214
cwebe	-3215
efika	-3216
ekuli	-3217
esasi	-3218
esesi	-3219
fihla	-3220
fwini	-3221
gcoba	-3222
hleka	-3223
isimo	-3224
izoni	-3225
kakhe	-3226
lungu	-3227
mbiza	-3228
muhle	-3229
nanye	-3230
nasem	-3231
ngayi	-3232
nguma	-3233
nokwe	-3234
notho	-3235
nzele	-3236
obaba	-3237
obala	-3238
phuzi	-3239
senza	-3240
shona	-3241
thule	-3242
ubani	-3243
ukubu	-3244
wahlu	-3245
wehle	-3246
wezwe	-3247
zwana	-3248
abakhe	-3249
abenza	-3250
akhaya	-3251
anakho	-3252
angazi	-3253
angena	-3254
anothi	-3255
baraba	-3256
duduze	-3257
ehlala	-3258
enjalo	-3259
ezinye	-3260
hayide	-3261
hlanzi	-3262
iliphu	-3263
ingani	-3264
iningi	-3265
izitho	-3266
khwama	-3267
kunabo	-3268
kunoku	-3269
mpande	-3270
ngcola	-3271
ningam	-3272
ntombi	-3273
okunye	-3274
onakho	-3275
thande	-3276
thombo	-3277
ukupha	-3278
uthini	-3279
vukela	-3280
wavuka	-3281
yafika	-3282
yalelo	-3283
yileyo	-3284
anisoze	-3285
bekuzwa	-3286
bengaba	-3287
egazini	-3288
egcwele	-3289
idemoni	-3290
inkonzo	-3291
kokuthi	-3292
ngalelo	-3293
ngiyeza	-3294
ningena	-3295
nizwile	-3296
noyedwa	-3297
ntanami	-3298
pheleke	-3299
phuzisa	-3300
sihamba	-3301
sokuthi	-3302
thokozi	-3303
vumanga	-3304
zombili	-3305
aleksand	-3306
angisiye	-3307
ayishumi	-3308
edwaleni	-3309
efundisa	-3310
emanzini	-3311
emihleni	-3312
ensimini	-3313
ezizweni	-3314
hayidese	-3315
isabatha	-3316
khiphela	-3317
khonzayo	-3318
kwenzani	-3319
kwenzeni	-3320
lekileyo	-3321
nababusi	-3322
nesihawu	-3323
ngcolisa	-3324
ngemvelo	-3325
ngezinto	-3326
ngimelwe	-3327
ngiyakum	-3328
nikholwe	-3329
profetho	-3330
sokuqala	-3331
thukuthe	-3332
ukukhala	-3333
umhlambi	-3334
umphathi	-3335
wamukela	-3336
yokuqala	-3337
amadodana	-3338
anikholwa	-3339
bamncenga	-3340
bethaniya	-3341
cindezela	-3342
ekuqaleni	-3343
emkhosini	-3344
gqolozela	-3345
inkanyezi	-3346
izikhathi	-3347
kholekile	-3348
khulumisa	-3349
lungisela	-3350
nabangena	-3351
namakhosi	-3352
ngokwakhe	-3353
njengokwe	-3354
nokuqonda	-3355
okholwayo	-3356
qinisweni	-3357
ubumnyama	-3358
wokuphila	-3359
yeminqumo	-3360
yokuphila	-3361
yomthetho	-3362
angithandi	-3363
benhliziyo	-3364
esihogweni	-3365
hlatshelwe	-3366
impumputhe	-3367
ngevangeli	-3368
ngokuningi	-3369
qambimanga	-3370
waphenduka	-3371
yaphendula	-3372
ekulingweni	-3373
ethandekayo	-3374
imvuthuluka	-3375
khululekile	-3376
kwabonakala	-3377
mhlangabeza	-3378
njengokusho	-3379
sekupheleni	-3380
ukuphenduka	-3381
uthembekile	-3382
wabafundisa	-3383
wamphendula	-3384
abalungileyo	-3385
bonakalisiwe	-3386
emisebenzini	-3387
emphakathini	-3388
ukwahlulelwa	-3389
ngasendleleni	-3390
ngiyanincenga	-3391
ekwahlulelweni	-3392
nokuhlakanipha	-3393
wayesephendula	-3394
abayisikhombisa	-3395
ngokuhlakanipha	-3396
ningakhathazeki	-3397
ayo	-3398
bho	-3399
ele	-3400
gum	-3401
nji	-3402
rki	-3403
ubi	-3404
ugo	-3405
akwa	-3406
balo	-3407
dele	-3408
duka	-3409
epho	-3410
esho	-3411
feli	-3412
fune	-3413
inye	-3414
keli	-3415
lili	-3416
naki	-3417
ngam	-3418
nomu	-3419
ongo	-3420
pare	-3421
qhwe	-3422
safa	-3423
viki	-3424
wame	-3425
ziye	-3426
adamu	-3427
bapha	-3428
baphi	-3429
bende	-3430
dakwa	-3431
engim	-3432
fipha	-3433
hlelo	-3434
jabhi	-3435
jopha	-3436
khiya	-3437
khukh	-3438
kunye	-3439
kwala	-3440
kweza	-3441
lingi	-3442
londa	-3443
mbuzi	-3444
miswa	-3445
mnini	-3446
ndeli	-3447
ndile	-3448
ndise	-3449
nguwe	-3450
nokwa	-3451
nqaba	-3452
nyoko	-3453
nzuzo	-3454
omubi	-3455
pheni	-3456
shaye	-3457
suswa	-3458
thuna	-3459
ukubo	-3460
ukula	-3461
vutha	-3462
yahlu	-3463
yiphi	-3464
yisho	-3465
yonga	-3466
angene	-3467
angina	-3468
angini	-3469
bongwe	-3470
boniso	-3471
busiso	-3472
buzana	-3473
cebile	-3474
dokodo	-3475
endala	-3476
funani	-3477
hlanya	-3478
hlanza	-3479
hlwile	-3480
inkulu	-3481
insimu	-3482
kasoze	-3483
khwele	-3484
kubosh	-3485
kucela	-3486
kuleso	-3487
lakubo	-3488
makazi	-3489
mbathe	-3490
mbatho	-3491
melene	-3492
misele	-3493
nangom	-3494
ndiswa	-3495
negama	-3496
nesimo	-3497
ngedwa	-3498
ngithe	-3499
nsizwa	-3500
parele	-3501
phithi	-3502
qedile	-3503
silisa	-3504
sinkwa	-3505
siriya	-3506
sitsha	-3507
sizaku	-3508
sodoma	-3509
sokile	-3510
somusa	-3511
tafula	-3512
thelwa	-3513
tomase	-3514
ukhulu	-3515
umuthi	-3516
vukile	-3517
vuleka	-3518
walowo	-3519
yezono	-3520
yihora	-3521
yimani	-3522
zelele	-3523
abayiku	-3524
bephuma	-3525
bethuka	-3526
bizelwa	-3527
bonanga	-3528
bongayo	-3529
ekhanda	-3530
ephethe	-3531
esivela	-3532
feliksi	-3533
fundile	-3534
gcineni	-3535
gcinile	-3536
hambeni	-3537
khefase	-3538
komuntu	-3539
kuphuma	-3540
kwaziyo	-3541
likhiya	-3542
lindani	-3543
lomlilo	-3544
lungelo	-3545
mntwana	-3546
nemihla	-3547
nezinye	-3548
ngesibo	-3549
ngobani	-3550
ngulube	-3551
nihambe	-3552
ningama	-3553
ningazi	-3554
nqobayo	-3555
nqunywa	-3556
nyiweyo	-3557
philile	-3558
sangena	-3559
selokhu	-3560
sihlale	-3561
tshelwa	-3562
wamvusa	-3563
yenyama	-3564
yenzani	-3565
zelanga	-3566
zenzisi	-3567
zinceku	-3568
abangaba	-3569
abanjalo	-3570
amazinyo	-3571
andukuba	-3572
babuyela	-3573
bamukele	-3574
buyisela	-3575
dumileyo	-3576
emnyango	-3577
engizaku	-3578
esingena	-3579
esiswini	-3580
ezithile	-3581
ezonweni	-3582
fundanga	-3583
funyanwe	-3584
izindawo	-3585
izinyoni	-3586
khaphele	-3587
khathini	-3588
khulelwe	-3589
komzimba	-3590
kungcono	-3591
kwamanzi	-3592
liseduze	-3593
lisiweyo	-3594
madodana	-3595
nakekela	-3596
nesixuku	-3597
nezilimi	-3598
ngabanye	-3599
ngesihle	-3600
ngqongqo	-3601
nxazonke	-3602
okungaka	-3603
samukela	-3604
sekusile	-3605
thembisa	-3606
ukuthelo	-3607
umalanga	-3608
uphonswe	-3609
uyinkosi	-3610
wasukuma	-3611
yaluyalu	-3612
zesiliva	-3613
bakhuleka	-3614
bambulale	-3615
finyelele	-3616
isisekelo	-3617
izikhonzi	-3618
izincwadi	-3619
izizindlo	-3620
lokuphila	-3621
neminyaka	-3622
ngakafiki	-3623
ngamadolo	-3624
ngenkemba	-3625
ngiyamazi	-3626
ngokubona	-3627
nonembeza	-3628
owokuqala	-3629
phandleni	-3630
wamangala	-3631
yizigqila	-3632
yokulunga	-3633
amatalenta	-3634
baphenduke	-3635
elisabethe	-3636
hlambulule	-3637
khathalela	-3638
kuboshweni	-3639
kwabuthana	-3640
kwenzileyo	-3641
lwesabatha	-3642
makabongwe	-3643
nezikhonzi	-3644
ngcweliswa	-3645
ngilandele	-3646
okungcwele	-3647
phezukonke	-3648
sebefikile	-3649
sekufikile	-3650
thembekayo	-3651
thembekile	-3652
thuthumela	-3653
tilongweni	-3654
ukusindisa	-3655
ukuzibonga	-3656
uyindodana	-3657
zamlandela	-3658
bantwanyana	-3659
bonakaliswe	-3660
mninimandla	-3661
ngabapristi	-3662
ngamademoni	-3663
othandekayo	-3664
phelelisiwe	-3665
wasezulwini	-3666
wayesengena	-3667
yenkazimulo	-3668
ngakholwanga	-3669
nasezingozini	-3670
ngokufaneleyo	-3671
uyakusindiswa	-3672
ngokuhunyushwa	-3673
ukuthethelelwa	-3674
:2	-3675
mv	-3676
ub	-3677
xa	-3678
gce	-3679
ika	-3680
kla	-3681
kre	-3682
mel	-3683
omi	-3684
qwa	-3685
uda	-3686
▁¦1	-3687
bama	-3688
beba	-3689
bema	-3690
bhin	-3691
buni	-3692
cele	-3693
deki	-3694
emgo	-3695
epha	-3696
ezwa	-3697
fayo	-3698
feza	-3699
fuba	-3700
gaba	-3701
hema	-3702
hola	-3703
holi	-3704
hudu	-3705
jezi	-3706
kori	-3707
koze	-3708
kubi	-3709
kuma	-3710
kume	-3711
kuza	-3712
lala	-3713
lale	-3714
lamu	-3715
leko	-3716
leza	-3717
lobo	-3718
lube	-3719
nako	-3720
noka	-3721
nzwa	-3722
onge	-3723
qela	-3724
qhwa	-3725
sibu	-3726
soki	-3727
udle	-3728
wemi	-3729
wobu	-3730
zaso	-3731
zuzu	-3732
abama	-3733
amasi	-3734
anika	-3735
ariya	-3736
asazi	-3737
asina	-3738
ayisi	-3739
bakha	-3740
bunga	-3741
chasi	-3742
dliwa	-3743
dwala	-3744
ebeni	-3745
esaba	-3746
gumbi	-3747
hlile	-3748
imini	-3749
ingum	-3750
isile	-3751
ivela	-3752
jwaye	-3753
khiwo	-3754
kukha	-3755
kuphi	-3756
kweli	-3757
marku	-3758
minya	-3759
nangu	-3760
ngimi	-3761
ngozi	-3762
nyaza	-3763
obeku	-3764
okuku	-3765
ovela	-3766
rneli	-3767
sango	-3768
sekho	-3769
shado	-3770
sinda	-3771
singe	-3772
suthi	-3773
thuli	-3774
ubone	-3775
umeni	-3776
uvela	-3777
uyayi	-3778
wehla	-3779
yakwa	-3780
yezwe	-3781
yizwa	-3782
zithi	-3783
zwini	-3784
ahambe	-3785
amanye	-3786
aphuze	-3787
babule	-3788
babuye	-3789
basuka	-3790
bizile	-3791
bulawe	-3792
dumise	-3793
elinga	-3794
emseni	-3795
encane	-3796
engali	-3797
eninga	-3798
fubeni	-3799
imvula	-3800
khupro	-3801
kisile	-3802
klebhu	-3803
kokubi	-3804
kubeke	-3805
kunami	-3806
kuyise	-3807
lalele	-3808
lehema	-3809
lekele	-3810
lusizi	-3811
melani	-3812
mpondo	-3813
nakuyo	-3814
ndiswe	-3815
ngaphi	-3816
nibone	-3817
nokubi	-3818
nowesi	-3819
okunje	-3820
olunga	-3821
phulwa	-3822
phunga	-3823
qhweba	-3824
shiswa	-3825
sibone	-3826
siyoni	-3827
thenwa	-3828
thwale	-3829
ungazi	-3830
valeli	-3831
wacela	-3832
wafuna	-3833
wanika	-3834
wayeba	-3835
wayemi	-3836
yilesi	-3837
yisane	-3838
zeleni	-3839
zibone	-3840
zinkwa	-3841
ababusi	-3842
akuveli	-3843
babamba	-3844
bamyisa	-3845
bhekile	-3846
busiswa	-3847
chithwa	-3848
emthini	-3849
enginga	-3850
impande	-3851
indlala	-3852
isabelo	-3853
izilimi	-3854
izindlu	-3855
kolweni	-3856
korinte	-3857
kungena	-3858
kwalowo	-3859
kwaziwa	-3860
kwendlu	-3861
lotshwe	-3862
lweviki	-3863
melkise	-3864
melweni	-3865
namanzi	-3866
nendoda	-3867
nezinto	-3868
ngakini	-3869
ngasese	-3870
ngelika	-3871
ngiyisi	-3872
ngizuze	-3873
nihamba	-3874
nokudla	-3875
nombuso	-3876
nomhawu	-3877
nomlilo	-3878
okuyize	-3879
phelile	-3880
qaphele	-3881
qhubeka	-3882
rneliyu	-3883
sahlala	-3884
simelwe	-3885
thesalo	-3886
thileyo	-3887
thukulu	-3888
ufanele	-3889
uvukile	-3890
wabonwa	-3891
wakhala	-3892
wammisa	-3893
waphika	-3894
yekanga	-3895
zibonga	-3896
zwakala	-3897
abahlezi	-3898
abezwayo	-3899
amanetha	-3900
benginga	-3901
bobabili	-3902
bomhlaba	-3903
esithile	-3904
hlabathi	-3905
hloniphe	-3906
imvubelo	-3907
indwangu	-3908
kayafase	-3909
khuhlane	-3910
khumbuza	-3911
kungenxa	-3912
kusobala	-3913
kwalasha	-3914
mbongolo	-3915
mesabeni	-3916
namadoda	-3917
naphambi	-3918
neqiniso	-3919
ngagunya	-3920
ngonyama	-3921
njengase	-3922
nkohliso	-3923
okungena	-3924
okuphila	-3925
onqobayo	-3926
sangweni	-3927
thakatha	-3928
wababuza	-3929
wadabula	-3930
yebandla	-3931
zakariya	-3932
akwenzayo	-3933
bamdumisa	-3934
enamandla	-3935
hawukelwa	-3936
hlwanyeli	-3937
ingcosana	-3938
kanukweni	-3939
khandleka	-3940
khulumayo	-3941
kuyakuthi	-3942
¦	-3943
▁	-3944
a	-3945
n	-3946
i	-3947
e	-3948
u	-3949
k	-3950
o	-3951
l	-3952
h	-3953
b	-3954
s	-3955
w	-3956
m	-3957
g	-3958
y	-3959
z	-3960
𐋇	-3961
t	-3962
,	-3963
d	-3964
p	-3965
.	-3966
f	-3967
j	-3968
r	-3969
:	-3970
;	-3971
“	-3972
q	-3973
c	-3974
v	-3975
”	-3976
-	-3977
?	-3978
x	-3979
𐊣	-3980
𐊼	-3981
‘	-3982
’	-3983
!	-3984
—	-3985
2	-3986
1	-3987
3	-3988
5	-3989
6	-3990
4	-3991
7	-3992
8	-3993
9	-3994
'	-3995
0	-3996
