<pad>	0
</s>	0
<unk>	0
▁t	-0
in	-1
he	-2
▁a	-3
re	-4
on	-5
▁the	-6
at	-7
▁s	-8
en	-9
er	-10
▁c	-11
or	-12
▁o	-13
is	-14
ed	-15
▁w	-16
▁in	-17
es	-18
▁p	-19
an	-20
it	-21
▁of	-22
as	-23
al	-24
▁b	-25
▁f	-26
▁d	-27
ing	-28
▁h	-29
▁to	-30
ar	-31
nd	-32
ion	-33
ent	-34
ou	-35
ic	-36
▁m	-37
il	-38
ac	-39
om	-40
▁and	-41
ve	-42
▁be	-43
▁T	-44
▁th	-45
▁n	-46
le	-47
▁re	-48
id	-49
▁v	-50
ec	-51
▁C	-52
▁is	-53
▁M	-54
tr	-55
os	-56
▁l	-57
us	-58
ation	-59
ir	-60
▁A	-61
▁g	-62
▁e	-63
▁I	-64
▁S	-65
▁The	-66
ay	-67
ow	-68
▁st	-69
ot	-70
▁for	-71
ver	-72
ly	-73
ol	-74
ad	-75
▁on	-76
ur	-77
im	-78
ut	-79
oron	-80
ill	-81
ave	-82
▁are	-83
op	-84
ter	-85
acc	-86
accin	-87
orona	-88
ment	-89
▁vaccin	-90
ect	-91
ate	-92
et	-93
▁P	-94
▁that	-95
▁has	-96
um	-97
▁H	-98
▁pr	-99
▁al	-100
am	-101
oc	-102
▁have	-103
ati	-104
ce	-105
ith	-106
▁con	-107
th	-108
ig	-109
▁D	-110
▁an	-111
▁with	-112
▁B	-113
▁we	-114
ld	-115
un	-116
▁r	-117
od	-118
ak	-119
ch	-120
and	-121
st	-122
▁corona	-123
▁he	-124
rom	-125
▁1	-126
▁was	-127
est	-128
▁as	-129
ers	-130
ents	-131
▁will	-132
ul	-133
▁from	-134
▁W	-135
▁dis	-136
her	-137
iv	-138
fect	-139
▁2	-140
em	-141
ov	-142
▁wh	-143
ies	-144
ort	-145
▁y	-146
▁not	-147
▁pati	-148
▁R	-149
ain	-150
▁or	-151
▁go	-152
ore	-153
▁at	-154
▁sh	-155
ct	-156
if	-157
▁by	-158
se	-159
pp	-160
ab	-161
umb	-162
▁been	-163
ity	-164
ome	-165
ag	-166
▁it	-167
▁de	-168
▁sa	-169
▁patients	-170
oun	-171
▁ex	-172
res	-173
▁this	-174
irus	-175
▁vaccine	-176
▁ne	-177
▁su	-178
vern	-179
▁tr	-180
ial	-181
▁N	-182
vernment	-183
ive	-184
ess	-185
▁In	-186
el	-187
ople	-188
inis	-189
ase	-190
alth	-191
eople	-192
▁O	-193
▁com	-194
ia	-195
▁said	-196
▁inc	-197
▁U	-198
ant	-199
▁wor	-200
ould	-201
qu	-202
ions	-203
so	-204
▁res	-205
ren	-206
▁"	-207
art	-208
ud	-209
▁government	-210
▁(	-211
▁people	-212
pt	-213
ical	-214
▁Th	-215
ated	-216
har	-217
ther	-218
our	-219
▁also	-220
ict	-221
gen	-222
▁F	-223
act	-224
pit	-225
▁im	-226
▁state	-227
hi	-228
red	-229
▁infect	-230
own	-231
ovid	-232
19	-233
▁se	-234
▁numb	-235
port	-236
▁K	-237
ays	-238
iz	-239
▁us	-240
▁cl	-241
▁were	-242
pital	-243
▁ch	-244
▁G	-245
▁ad	-246
▁per	-247
▁virus	-248
▁He	-249
▁can	-250
▁af	-251
ary	-252
▁test	-253
ap	-254
trict	-255
ospital	-256
▁number	-257
▁u	-258
▁sp	-259
▁le	-260
end	-261
out	-262
igh	-263
▁ab	-264
cc	-265
-19	-266
ts	-267
▁Minis	-268
av	-269
▁coun	-270
▁20	-271
▁E	-272
ash	-273
▁Corona	-274
ock	-275
ge	-276
ous	-277
▁sy	-278
▁all	-279
▁Ind	-280
ast	-281
ear	-282
▁countr	-283
gh	-284
any	-285
ib	-286
▁should	-287
▁other	-288
▁work	-289
ard	-290
ime	-291
▁J	-292
▁health	-293
ans	-294
tra	-295
▁Minister	-296
ord	-297
ound	-298
ke	-299
ack	-300
▁there	-301
▁Ma	-302
ough	-303
▁had	-304
▁out	-305
xy	-306
are	-307
ue	-308
▁cent	-309
vel	-310
ose	-311
ail	-312
▁tak	-313
xygen	-314
▁cr	-315
ist	-316
reat	-317
▁hospital	-318
ID	-319
▁me	-320
og	-321
OV	-322
fic	-323
▁comp	-324
ost	-325
OVID	-326
ine	-327
▁app	-328
▁Mahar	-329
ure	-330
ator	-331
ashtra	-332
▁pl	-333
▁after	-334
▁Maharashtra	-335
▁oxygen	-336
▁who	-337
▁ag	-338
▁COVID	-339
▁pre	-340
▁India	-341
▁di	-342
▁V	-343
all	-344
00	-345
▁exp	-346
▁you	-347
▁cont	-348
▁incre	-349
▁Ch	-350
▁whe	-351
ond	-352
age	-353
ild	-354
orm	-355
uc	-356
▁Dr	-357
oV	-358
down	-359
▁hand	-360
▁L	-361
▁dec	-362
ockdown	-363
▁do	-364
ens	-365
ub	-366
able	-367
ance	-368
▁3	-369
ath	-370
▁It	-371
▁dise	-372
▁about	-373
ef	-374
ai	-375
▁more	-376
one	-377
ased	-378
ates	-379
ew	-380
ip	-381
▁This	-382
ile	-383
ases	-384
ong	-385
ide	-386
▁their	-387
▁Pr	-388
▁rec	-389
ations	-390
CoV	-391
▁lockdown	-392
▁than	-393
▁time	-394
arch	-395
nder	-396
▁But	-397
ever	-398
▁new	-399
uct	-400
ight	-401
pr	-402
▁so	-403
read	-404
▁no	-405
▁tw	-406
▁med	-407
▁ef	-408
RS	-409
▁5	-410
▁Wh	-411
ru	-412
▁infection	-413
▁under	-414
ep	-415
lic	-416
ob	-417
form	-418
ll	-419
▁some	-420
▁k	-421
iss	-422
ording	-423
amp	-424
▁disease	-425
▁being	-426
▁vaccination	-427
mpt	-428
▁days	-429
▁vaccines	-430
ice	-431
lud	-432
▁year	-433
ccording	-434
une	-435
▁report	-436
ich	-437
▁one	-438
▁Health	-439
▁country	-440
▁4	-441
▁gr	-442
▁As	-443
▁if	-444
▁these	-445
▁pos	-446
▁sec	-447
▁av	-448
ult	-449
rent	-450
ious	-451
▁There	-452
aus	-453
ition	-454
mptom	-455
▁resp	-456
▁stud	-457
med	-458
▁need	-459
irst	-460
osed	-461
20	-462
▁ev	-463
ool	-464
▁but	-465
ike	-466
ind	-467
▁On	-468
▁qu	-469
▁How	-470
ors	-471
very	-472
▁which	-473
ress	-474
▁includ	-475
▁Un	-476
▁un	-477
▁district	-478
ame	-479
iven	-480
▁ar	-481
ence	-482
ang	-483
▁reg	-484
▁'	-485
▁they	-486
▁first	-487
ass	-488
▁sit	-489
fe	-490
velop	-491
▁many	-492
▁supp	-493
uring	-494
▁treat	-495
ask	-496
aj	-497
ign	-498
ities	-499
▁child	-500
▁ser	-501
▁found	-502
▁spread	-503
ons	-504
▁may	-505
chool	-506
oll	-507
▁second	-508
ures	-509
▁effect	-510
▁symptom	-511
te	-512
ARS	-513
miss	-514
▁two	-515
▁again	-516
▁get	-517
ace	-518
▁last	-519
▁cases	-520
uation	-521
▁such	-522
▁day	-523
▁ris	-524
▁imp	-525
▁over	-526
▁start	-527
umbai	-528
▁up	-529
▁March	-530
▁St	-531
hief	-532
▁Mumbai	-533
▁symptoms	-534
▁SARS	-535
▁develop	-536
virus	-537
▁rel	-538
▁any	-539
ra	-540
oct	-541
▁2020	-542
▁According	-543
▁ac	-544
▁says	-545
▁Chin	-546
mission	-547
▁pers	-548
▁death	-549
olog	-550
▁due	-551
atory	-552
ok	-553
ade	-554
▁given	-555
esh	-556
han	-557
pril	-558
gan	-559
mer	-560
▁cond	-561
lo	-562
▁sc	-563
▁use	-564
▁contr	-565
▁en	-566
▁avail	-567
▁children	-568
ied	-569
▁am	-570
▁situation	-571
▁treatment	-572
ning	-573
▁mon	-574
▁adm	-575
▁dif	-576
▁prev	-577
▁7	-578
▁trans	-579
ek	-580
ach	-581
stem	-582
▁sur	-583
▁wave	-584
ublic	-585
▁like	-586
▁bec	-587
▁cur	-588
▁6	-589
ree	-590
hed	-591
▁only	-592
ted	-593
▁Chief	-594
ire	-595
▁ant	-596
▁However	-597
▁Covid	-598
day	-599
aw	-600
fore	-601
▁school	-602
▁act	-603
ell	-604
▁prod	-605
▁system	-606
ian	-607
▁offic	-608
rough	-609
▁doct	-610
▁your	-611
▁countries	-612
▁inform	-613
▁We	-614
itiz	-615
▁coronavirus	-616
▁ann	-617
▁available	-618
ced	-619
reak	-620
▁comm	-621
▁pres	-622
▁part	-623
▁infected	-624
ute	-625
▁April	-626
▁Cent	-627
▁If	-628
▁prot	-629
▁world	-630
ational	-631
emb	-632
▁gen	-633
▁What	-634
▁during	-635
ro	-636
▁j	-637
anu	-638
▁cons	-639
▁against	-640
▁8	-641
▁announ	-642
▁-	-643
▁risk	-644
000	-645
ited	-646
▁how	-647
▁inter	-648
▁provid	-649
ove	-650
ject	-651
ident	-652
▁10	-653
▁caus	-654
▁when	-655
hing	-656
icip	-657
▁int	-658
ating	-659
▁used	-660
▁every	-661
▁now	-662
ivir	-663
▁mask	-664
▁while	-665
lect	-666
▁col	-667
▁week	-668
ally	-669
▁bed	-670
▁Pune	-671
▁those	-672
per	-673
▁str	-674
inistr	-675
▁restrict	-676
▁vaccinated	-677
."	-678
▁pol	-679
▁home	-680
-2	-681
▁Af	-682
▁them	-683
▁import	-684
dd	-685
▁care	-686
▁take	-687
we	-688
les	-689
▁9	-690
ody	-691
ting	-692
▁ind	-693
acker	-694
▁taken	-695
ral	-696
▁medical	-697
▁hospitals	-698
ackeray	-699
,000	-700
▁Thackeray	-701
pe	-702
akh	-703
emic	-704
▁ph	-705
▁exper	-706
▁public	-707
▁reported	-708
▁his	-709
owed	-710
▁through	-711
uch	-712
break	-713
ible	-714
▁person	-715
ater	-716
anc	-717
rug	-718
▁add	-719
ility	-720
▁lar	-721
▁outbreak	-722
▁drug	-723
▁made	-724
▁bet	-725
▁rem	-726
▁restrictions	-727
ust	-728
stit	-729
ural	-730
owing	-731
▁China	-732
▁kn	-733
▁its	-734
hav	-735
li	-736
omm	-737
ific	-738
ata	-739
▁beds	-740
▁would	-741
ech	-742
ery	-743
▁disc	-744
ope	-745
▁iss	-746
▁lakh	-747
▁Al	-748
ative	-749
▁So	-750
ices	-751
▁workers	-752
▁red	-753
itive	-754
▁dr	-755
▁patient	-756
▁Sh	-757
▁dep	-758
▁contact	-759
▁current	-760
ish	-761
vers	-762
).	-763
cy	-764
▁even	-765
▁hum	-766
▁including	-767
ials	-768
▁areas	-769
▁covid	-770
▁meet	-771
▁trave	-772
▁Hospital	-773
▁announced	-774
▁Y	-775
▁An	-776
▁soc	-777
▁short	-778
oss	-779
▁Raj	-780
asing	-781
▁requ	-782
icipal	-783
unicipal	-784
als	-785
▁loc	-786
ark	-787
eng	-788
ected	-789
▁month	-790
▁important	-791
ake	-792
aking	-793
▁dem	-794
▁var	-795
▁started	-796
▁high	-797
ms	-798
hen	-799
▁Mod	-800
▁foll	-801
▁information	-802
▁exam	-803
▁most	-804
inistration	-805
ri	-806
ision	-807
▁well	-808
und	-809
▁prevent	-810
▁travel	-811
▁call	-812
▁come	-813
▁years	-814
itizens	-815
lu	-816
▁say	-817
▁same	-818
▁increased	-819
),	-820
ines	-821
▁what	-822
▁affect	-823
▁hig	-824
ential	-825
ying	-826
▁diffe	-827
▁testing	-828
uss	-829
amil	-830
ized	-831
▁che	-832
▁hel	-833
ember	-834
▁poss	-835
▁spec	-836
▁tests	-837
▁closed	-838
ared	-839
▁did	-840
▁our	-841
▁After	-842
▁states	-843
ne	-844
▁level	-845
▁help	-846
▁hour	-847
▁serv	-848
▁doctors	-849
way	-850
arly	-851
other	-852
ned	-853
rit	-854
ings	-855
▁fac	-856
▁respir	-857
▁large	-858
The	-859
ise	-860
ween	-861
uction	-862
▁hands	-863
▁Go	-864
cent	-865
rect	-866
▁then	-867
artment	-868
▁supply	-869
▁few	-870
▁increasing	-871
ank	-872
try	-873
▁body	-874
▁city	-875
▁mill	-876
▁rate	-877
▁positive	-878
▁effective	-879
BC	-880
eral	-881
▁ass	-882
▁crore	-883
▁increase	-884
ince	-885
ven	-886
▁demand	-887
ology	-888
▁between	-889
▁case	-890
▁where	-891
▁control	-892
▁administration	-893
ff	-894
erv	-895
▁ent	-896
▁priv	-897
▁Udd	-898
▁far	-899
▁proc	-900
▁Uddhav	-901
oth	-902
▁lead	-903
▁acc	-904
▁low	-905
▁deaths	-906
ety	-907
ior	-908
ules	-909
▁camp	-910
ucation	-911
▁Center	-912
▁students	-913
▁Del	-914
ganiz	-915
▁Modi	-916
▁2020,	-917
▁comple	-918
▁present	-919
oses	-920
ering	-921
▁quest	-922
app	-923
ird	-924
▁ed	-925
▁cle	-926
▁surve	-927
▁imm	-928
▁data	-929
▁died	-930
▁into	-931
ousand	-932
▁contin	-933
ics	-934
vere	-935
▁att	-936
por	-937
▁age	-938
▁Delhi	-939
pur	-940
▁For	-941
▁very	-942
iod	-943
ness	-944
oved	-945
arant	-946
ended	-947
gency	-948
▁could	-949
▁direct	-950
▁central	-951
▁respiratory	-952
ked	-953
▁ins	-954
▁ord	-955
▁appr	-956
▁does	-957
oup	-958
▁At	-959
tain	-960
▁three	-961
▁around	-962
▁Am	-963
gest	-964
▁before	-965
▁period	-966
▁citizens	-967
▁ke	-968
▁set	-969
▁BBC	-970
▁Com	-971
▁samp	-972
▁fe	-973
unity	-974
old	-975
▁19	-976
aign	-977
ists	-978
▁15	-979
▁crit	-980
▁dose	-981
▁decision	-982
▁op	-983
▁ro	-984
aces	-985
ient	-986
ivers	-987
▁dist	-988
anuary	-989
ik	-990
▁UK	-991
▁emer	-992
▁meas	-993
▁rece	-994
▁doses	-995
▁thousand	-996
ick	-997
ves	-998
▁man	-999
entil	-1000
▁million	-1001
▁decl	-1002
▁severe	-1003
▁campaign	-1004
ised	-1005
▁issu	-1006
▁Prime	-1007
▁meeting	-1008
▁conf	-1009
stitute	-1010
▁social	-1011
oid	-1012
▁ob	-1013
▁inv	-1014
▁These	-1015
▁coron	-1016
▁recomm	-1017
▁without	-1018
get	-1019
uce	-1020
ause	-1021
ered	-1022
▁clos	-1023
▁Or	-1024
▁pro	-1025
▁prop	-1026
▁hours	-1027
▁private	-1028
▁different	-1029
xt	-1030
▁te	-1031
idence	-1032
▁Nag	-1033
ha	-1034
ric	-1035
itted	-1036
mp	-1037
its	-1038
▁est	-1039
▁lab	-1040
▁pass	-1041
▁12	-1042
▁plan	-1043
▁tested	-1044
▁January	-1045
▁allowed	-1046
▁May	-1047
▁inf	-1048
▁famil	-1049
▁ventil	-1050
alk	-1051
▁Bi	-1052
iate	-1053
eb	-1054
apid	-1055
▁rese	-1056
▁United	-1057
▁working	-1058
▁possible	-1059
iew	-1060
▁Rs	-1061
▁sm	-1062
inical	-1063
▁rules	-1064
▁percent	-1065
ung	-1066
HO	-1067
ages	-1068
▁Of	-1069
▁vir	-1070
▁make	-1071
▁Vaccin	-1072
ug	-1073
▁50	-1074
ators	-1075
ution	-1076
▁washing	-1077
cer	-1078
opul	-1079
▁open	-1080
▁antib	-1081
▁Institute	-1082
ebru	-1083
▁group	-1084
ebruary	-1085
▁schools	-1086
ax	-1087
uced	-1088
▁Wor	-1089
ments	-1090
▁rapid	-1091
ys	-1092
lood	-1093
▁sub	-1094
▁Municipal	-1095
ix	-1096
eld	-1097
esp	-1098
ron	-1099
▁des	-1100
ality	-1101
▁long	-1102
▁prob	-1103
▁quarant	-1104
▁bo	-1105
▁sim	-1106
▁They	-1107
ically	-1108
▁local	-1109
▁24	-1110
▁study	-1111
ganization	-1112
▁Government	-1113
kar	-1114
oin	-1115
▁11	-1116
▁Bh	-1117
aren	-1118
ason	-1119
ired	-1120
▁main	-1121
▁States	-1122
▁center	-1123
▁February	-1124
rap	-1125
▁Ad	-1126
▁Some	-1127
▁back	-1128
▁ext	-1129
▁Many	-1130
andemic	-1131
mediate	-1132
▁14	-1133
▁gu	-1134
▁Med	-1135
▁area	-1136
▁popul	-1137
ination	-1138
▁discuss	-1139
▁whether	-1140
▁shortage	-1141
uk	-1142
ien	-1143
ially	-1144
▁called	-1145
▁company	-1146
arr	-1147
line	-1148
ross	-1149
arket	-1150
▁down	-1151
▁addition	-1152
▁developed	-1153
▁Spe	-1154
▁air	-1155
▁lim	-1156
▁less	-1157
▁vill	-1158
▁Speaking	-1159
▁affected	-1160
▁adv	-1161
▁pandemic	-1162
ood	-1163
tal	-1164
▁co	-1165
▁Union	-1166
▁human	-1167
▁using	-1168
illance	-1169
▁education	-1170
▁ty	-1171
onom	-1172
▁held	-1173
▁lear	-1174
▁masks	-1175
▁rural	-1176
▁regard	-1177
oh	-1178
ale	-1179
ces	-1180
▁hy	-1181
ults	-1182
orpor	-1183
ention	-1184
esivir	-1185
▁blood	-1186
▁protect	-1187
▁30	-1188
lement	-1189
▁because	-1190
ram	-1191
▁ep	-1192
ived	-1193
outh	-1194
▁rele	-1195
▁seen	-1196
itions	-1197
▁across	-1198
▁gl	-1199
ives	-1200
▁fact	-1201
▁still	-1202
▁measures	-1203
▁department	-1204
▁bat	-1205
▁don	-1206
▁since	-1207
▁total	-1208
▁months	-1209
oci	-1210
▁ill	-1211
▁occ	-1212
▁much	-1213
▁remed	-1214
▁transmission	-1215
me	-1216
urs	-1217
▁wom	-1218
odies	-1219
▁both	-1220
▁done	-1221
▁stop	-1222
▁Therefore	-1223
ink	-1224
loy	-1225
ange	-1226
ouse	-1227
▁Mar	-1228
▁result	-1229
▁process	-1230
ev	-1231
owd	-1232
▁Me	-1233
▁lo	-1234
-19.	-1235
▁four	-1236
▁heart	-1237
▁Rajesh	-1238
▁clinical	-1239
ah	-1240
ars	-1241
▁18	-1242
ined	-1243
ovac	-1244
▁among	-1245
▁today	-1246
▁conduct	-1247
▁include	-1248
▁Tr	-1249
▁prog	-1250
▁chang	-1251
▁provide	-1252
▁currently	-1253
CE	-1254
par	-1255
▁Ser	-1256
▁cre	-1257
▁Kovid	-1258
▁places	-1259
▁proble	-1260
ful	-1261
ops	-1262
▁Se	-1263
ants	-1264
▁end	-1265
▁mod	-1266
ified	-1267
▁find	-1268
▁going	-1269
▁sever	-1270
▁production	-1271
ins	-1272
ten	-1273
fact	-1274
imes	-1275
onse	-1276
▁Con	-1277
▁medic	-1278
▁contain	-1279
▁Ministry	-1280
▁sent	-1281
▁soap	-1282
urther	-1283
▁Nagpur	-1284
▁taking	-1285
orporation	-1286
▁emergency	-1287
▁Dep	-1288
▁WHO	-1289
▁him	-1290
truct	-1291
▁avoid	-1292
▁third	-1293
▁diffic	-1294
▁implement	-1295
cept	-1296
▁Rem	-1297
▁sus	-1298
▁epid	-1299
▁next	-1300
▁till	-1301
▁higher	-1302
▁market	-1303
▁surveillance	-1304
led	-1305
▁1.	-1306
▁det	-1307
▁train	-1308
▁inject	-1309
▁samples	-1310
▁question	-1311
▁difficult	-1312
wn	-1313
hes	-1314
leg	-1315
ret	-1316
▁cap	-1317
▁When	-1318
atives	-1319
▁known	-1320
iving	-1321
▁HCoV	-1322
ovacin	-1323
▁World	-1324
▁asked	-1325
▁issued	-1326
▁imposed	-1327
▁IC	-1328
ters	-1329
▁know	-1330
▁pract	-1331
▁population	-1332
▁met	-1333
▁Tope	-1334
▁cell	-1335
▁five	-1336
▁stat	-1337
▁place	-1338
▁doctor	-1339
essential	-1340
▁according	-1341
▁conditions	-1342
alf	-1343
▁All	-1344
▁cris	-1345
▁sign	-1346
anufact	-1347
▁research	-1348
▁response	-1349
uth	-1350
▁tem	-1351
▁isol	-1352
▁another	-1353
▁experts	-1354
▁complete	-1355
SC	-1356
ory	-1357
▁Ex	-1358
▁New	-1359
▁happ	-1360
▁State	-1361
▁become	-1362
▁remain	-1363
iversity	-1364
aly	-1365
ual	-1366
▁emp	-1367
▁min	-1368
▁stay	-1369
▁cause	-1370
▁fight	-1371
▁house	-1372
▁serious	-1373
▁support	-1374
▁Commission	-1375
aff	-1376
ane	-1377
▁Gu	-1378
ided	-1379
▁ret	-1380
▁fire	-1381
▁keep	-1382
▁told	-1383
though	-1384
▁crisis	-1385
▁Col	-1386
▁Prad	-1387
▁susp	-1388
▁fever	-1389
▁likely	-1390
▁further	-1391
▁approved	-1392
▁immediate	-1393
anj	-1394
▁bu	-1395
▁ec	-1396
care	-1397
tern	-1398
lying	-1399
▁post	-1400
▁crowd	-1401
▁Indian	-1402
▁services	-1403
ese	-1404
ork	-1405
▁bl	-1406
▁sl	-1407
▁good	-1408
▁vari	-1409
▁early	-1410
▁trials	-1411
▁br	-1412
cing	-1413
fort	-1414
here	-1415
▁200	-1416
▁Serum	-1417
▁regul	-1418
▁small	-1419
▁staff	-1420
▁family	-1421
▁ter	-1422
▁yet	-1423
▁guid	-1424
▁facil	-1425
▁ident	-1426
▁least	-1427
▁rapidly	-1428
▁manufact	-1429
▁Organization	-1430
▁form	-1431
▁lung	-1432
▁water	-1433
▁concer	-1434
▁confir	-1435
▁continue	-1436
▁coronary	-1437
▁infections	-1438
CR	-1439
aim	-1440
ues	-1441
ilar	-1442
wide	-1443
▁mut	-1444
ather	-1445
▁phase	-1446
▁police	-1447
▁Chinese	-1448
▁Corporation	-1449
wh	-1450
▁US	-1451
▁my	-1452
echn	-1453
▁And	-1454
ecess	-1455
uthor	-1456
▁anim	-1457
▁admitted	-1458
obal	-1459
▁sug	-1460
▁econom	-1461
▁strain	-1462
▁centers	-1463
▁University	-1464
▁Fr	-1465
fety	-1466
uhan	-1467
▁rep	-1468
▁face	-1469
go	-1470
▁Z	-1471
els	-1472
▁cy	-1473
▁run	-1474
ience	-1475
▁breat	-1476
▁proper	-1477
▁reduce	-1478
▁various	-1479
▁closures	-1480
▁condition	-1481
▁essential	-1482
sp	-1483
lis	-1484
▁Is	-1485
▁fl	-1486
oung	-1487
▁hot	-1488
▁Bhar	-1489
▁labor	-1490
▁prote	-1491
▁ve	-1492
hest	-1493
▁Dis	-1494
aving	-1495
▁sect	-1496
arents	-1497
▁media	-1498
▁.	-1499
ajor	-1500
▁arr	-1501
▁let	-1502
▁non	-1503
▁vis	-1504
▁Offic	-1505
▁weeks	-1506
▁People	-1507
▁distance	-1508
tt	-1509
aid	-1510
ured	-1511
view	-1512
▁Res	-1513
▁Sat	-1514
▁beg	-1515
▁flu	-1516
▁san	-1517
based	-1518
▁each	-1519
▁major	-1520
ibility	-1521
▁epidemic	-1522
ERS	-1523
sel	-1524
▁16	-1525
ndra	-1526
aring	-1527
ining	-1528
▁init	-1529
▁read	-1530
engers	-1531
▁monit	-1532
▁common	-1533
▁Pradesh	-1534
▁getting	-1535
▁transport	-1536
NA	-1537
aily	-1538
avati	-1539
ently	-1540
▁lack	-1541
lished	-1542
▁based	-1543
▁claim	-1544
▁polit	-1545
▁within	-1546
ma	-1547
agn	-1548
ote	-1549
abad	-1550
▁Cov	-1551
▁fin	-1552
▁six	-1553
iness	-1554
▁minis	-1555
▁women	-1556
arendra	-1557
▁coming	-1558
▁compan	-1559
air	-1560
ends	-1561
omes	-1562
▁Dec	-1563
acity	-1564
▁June	-1565
▁pain	-1566
▁class	-1567
▁caused	-1568
▁immune	-1569
▁similar	-1570
▁suggest	-1571
▁community	-1572
JP	-1573
ite	-1574
nal	-1575
not	-1576
▁Re	-1577
athi	-1578
▁obs	-1579
▁Wuhan	-1580
▁Medical	-1581
▁collect	-1582
▁Narendra	-1583
wal	-1584
▁sw	-1585
▁neg	-1586
▁ref	-1587
▁head	-1588
▁cough	-1589
▁touch	-1590
▁follow	-1591
▁decided	-1592
▁parents	-1593
oub	-1594
til	-1595
▁Sp	-1596
aled	-1597
ustr	-1598
▁ben	-1599
▁big	-1600
rence	-1601
ually	-1602
▁chall	-1603
▁retur	-1604
▁highest	-1605
▁several	-1606
▁village	-1607
▁capacity	-1608
▁required	-1609
acy	-1610
eet	-1611
ards	-1612
trib	-1613
▁Pre	-1614
▁Also	-1615
▁close	-1616
▁press	-1617
▁respons	-1618
hers	-1619
land	-1620
▁Paw	-1621
▁Sec	-1622
▁own	-1623
▁2019	-1624
▁Biot	-1625
ravati	-1626
▁influ	-1627
▁employ	-1628
▁effects	-1629
▁related	-1630
▁expected	-1631
▁companies	-1632
▁antibodies	-1633
atic	-1634
neum	-1635
▁BJP	-1636
▁bus	-1637
▁she	-1638
iting	-1639
▁cold	-1640
▁Remed	-1641
▁chest	-1642
▁daily	-1643
ability	-1644
▁others	-1645
▁project	-1646
▁Although	-1647
▁received	-1648
▁conducted	-1649
▁underlying	-1650
hy	-1651
ns	-1652
up	-1653
ption	-1654
▁able	-1655
▁order	-1656
▁stand	-1657
▁cannot	-1658
▁safety	-1659
▁diseases	-1660
▁evidence	-1661
▁confirmed	-1662
anwh	-1663
▁Eur	-1664
▁Pol	-1665
▁spe	-1666
▁here	-1667
▁estim	-1668
▁gener	-1669
▁tweet	-1670
▁young	-1671
anwhile	-1672
▁necess	-1673
▁distrib	-1674
▁results	-1675
▁development	-1676
21	-1677
▁RT	-1678
-19,	-1679
ivid	-1680
side	-1681
▁ICU	-1682
ature	-1683
hield	-1684
▁MERS	-1685
▁cour	-1686
▁half	-1687
elines	-1688
▁activ	-1689
▁cance	-1690
▁night	-1691
▁global	-1692
▁Marathi	-1693
▁growing	-1694
▁viruses	-1695
ife	-1696
wad	-1697
▁tal	-1698
▁Even	-1699
▁Pawar	-1700
▁South	-1701
▁lives	-1702
▁pneum	-1703
▁humans	-1704
▁reason	-1705
▁scient	-1706
▁Amravati	-1707
▁provided	-1708
▁relatives	-1709
▁quarantine	-1710
ford	-1711
oint	-1712
rest	-1713
▁her	-1714
▁give	-1715
▁Bharat	-1716
▁Europe	-1717
▁action	-1718
▁ventilators	-1719
na	-1720
ism	-1721
▁1,	-1722
ount	-1723
▁Gen	-1724
▁ful	-1725
▁pot	-1726
▁why	-1727
▁clean	-1728
ecially	-1729
▁cities	-1730
▁invest	-1731
▁instruct	-1732
▁districts	-1733
ry	-1734
iqu	-1735
ians	-1736
osis	-1737
▁100	-1738
▁She	-1739
▁You	-1740
going	-1741
▁look	-1742
▁show	-1743
▁want	-1744
ressed	-1745
▁Italy	-1746
▁store	-1747
▁active	-1748
▁online	-1749
▁Biotech	-1750
▁persons	-1751
▁national	-1752
▁Meanwhile	-1753
icy	-1754
man	-1755
tle	-1756
▁No	-1757
ohol	-1758
onia	-1759
▁Ass	-1760
▁see	-1761
▁war	-1762
▁way	-1763
▁came	-1764
▁chec	-1765
▁needs	-1766
▁shops	-1767
istered	-1768
▁though	-1769
especially	-1770
▁spreading	-1771
,"	-1772
ims	-1773
▁25	-1774
▁sen	-1775
▁orig	-1776
ending	-1777
idered	-1778
istics	-1779
▁While	-1780
▁acute	-1781
▁think	-1782
▁National	-1783
▁facilities	-1784
▁registered	-1785
DC	-1786
za	-1787
PCR	-1788
▁off	-1789
▁mort	-1790
▁stock	-1791
▁outside	-1792
▁everyone	-1793
▁especially	-1794
We	-1795
ana	-1796
izer	-1797
ront	-1798
▁cod	-1799
▁prom	-1800
▁took	-1801
▁taluk	-1802
▁times	-1803
▁strict	-1804
▁problems	-1805
▁municipal	-1806
▁immediately	-1807
oon	-1808
ped	-1809
▁To	-1810
ling	-1811
▁Why	-1812
acter	-1813
cohol	-1814
▁away	-1815
▁oper	-1816
▁reco	-1817
▁seem	-1818
▁sequ	-1819
overed	-1820
▁happen	-1821
▁influen	-1822
▁monitor	-1823
▁perform	-1824
▁potential	-1825
uty	-1826
▁17	-1827
▁ca	-1828
▁ur	-1829
▁Pat	-1830
ached	-1831
▁room	-1832
▁safe	-1833
▁clear	-1834
▁decre	-1835
▁needed	-1836
▁individ	-1837
▁program	-1838
▁service	-1839
▁December	-1840
▁officials	-1841
▁considered	-1842
ara	-1843
▁Do	-1844
lain	-1845
ular	-1846
▁cost	-1847
▁jour	-1848
ensive	-1849
▁prior	-1850
▁techn	-1851
▁author	-1852
▁sanitiz	-1853
▁following	-1854
ym	-1855
▁Ar	-1856
▁De	-1857
fizer	-1858
▁path	-1859
retary	-1860
▁diagn	-1861
▁reach	-1862
▁viral	-1863
ological	-1864
▁released	-1865
▁necessary	-1866
▁31	-1867
apur	-1868
etic	-1869
▁CoV	-1870
▁kill	-1871
▁During	-1872
▁Pfizer	-1873
▁illness	-1874
▁negative	-1875
ala	-1876
▁40	-1877
▁aw	-1878
arli	-1879
▁Kar	-1880
▁tre	-1881
acted	-1882
ights	-1883
alking	-1884
utions	-1885
▁Contr	-1886
▁School	-1887
▁review	-1888
▁influenza	-1889
.5	-1890
hod	-1891
lor	-1892
war	-1893
▁60	-1894
▁Now	-1895
▁Utt	-1896
▁equ	-1897
▁host	-1898
▁just	-1899
▁estab	-1900
▁applic	-1901
▁enough	-1902
▁letter	-1903
▁special	-1904
▁pneumonia	-1905
▁recommended	-1906
CG	-1907
cr	-1908
▁Ph	-1909
▁ra	-1910
▁sol	-1911
▁2021	-1912
▁Sing	-1913
▁card	-1914
▁appro	-1915
ptember	-1916
▁appear	-1917
▁having	-1918
▁mortality	-1919
cl	-1920
sw	-1921
▁0	-1922
▁z	-1923
▁	-1924
e	-1925
t	-1926
a	-1927
i	-1928
o	-1929
n	-1930
s	-1931
r	-1932
h	-1933
d	-1934
l	-1935
c	-1936
u	-1937
m	-1938
p	-1939
f	-1940
g	-1941
y	-1942
v	-1943
w	-1944
.	-1945
b	-1946
,	-1947
k	-1948
C	-1949
T	-1950
I	-1951
A	-1952
S	-1953
M	-1954
0	-1955
-	-1956
1	-1957
2	-1958
D	-1959
P	-1960
x	-1961
H	-1962
R	-1963
B	-1964
'	-1965
O	-1966
V	-1967
W	-1968
9	-1969
"	-1970
N	-1971
E	-1972
j	-1973
z	-1974
U	-1975
5	-1976
4	-1977
3	-1978
q	-1979
K	-1980
)	-1981
F	-1982
(	-1983
G	-1984
?	-1985
8	-1986
6	-1987
J	-1988
7	-1989
L	-1990
:	-1991
%	-1992
;	-1993
Y	-1994
/	-1995
Z	-1996
