<pad>	0
</s>	0
<unk>	0
¦	-1.26938
▁¦	-1.67341
▁	-2.87915
𐋇	-3.23902
ˈ	-3.36929
▁̈	-3.81237
▁,	-4.04243
ˈ¦	-4.11516
▁.	-4.44629
comam	-4.46157
naj	-4.74173
an	-4.83979
tu	-4.91699
ebnaj	-4.94058
yin	-4.95868
k	-5.02647
caw	-5.29443
xin	-5.31843
ti	-5.31971
ha	-5.34742
a	-5.43588
yul	-5.49349
anma	-5.50285
hune	-5.60354
e	-5.64874
yu	-5.65372
dios	-5.6787
yet	-5.71111
tzet	-5.74525
tet	-5.75895
yeb	-5.79155
ay	-5.85456
n	-5.86928
is	-5.89701
c	-5.96047
mach	-5.98447
▁:	-6.03997
ẍi	-6.12971
wal	-6.13194
isc	-6.18136
han	-6.21281
haca	-6.22379
ta	-6.23717
ul	-6.25041
o	-6.25992
to	-6.31164
mac	-6.35084
▁―	-6.35963
ch	-6.36635
jes	-6.39385
yuto	-6.44301
sat	-6.44849
yaj	-6.4743
sunil	-6.49266
tato	-6.50362
isk	-6.50875
yuxin	-6.53405
yalni	-6.54616
con	-6.6059
al	-6.65895
hac	-6.66756
ix	-6.66778
ek	-6.70384
ya	-6.72185
isba	-6.72636
cat	-6.72823
tx	-6.75051
on	-6.75292
hunt	-6.75748
s	-6.76677
chi	-6.76969
tz	-6.77857
ab	-6.77964
en	-6.7826
ban	-6.7849
ob	-6.79148
ni	-6.81774
y	-6.82902
,	-6.83631
bey	-6.83785
yi	-6.84993
hunu	-6.8933
no	-6.90624
u	-6.93207
te	-6.95733
bay	-6.96225
cristo	-6.96716
ú	-6.99542
tic	-7.00145
i	-7.02811
p	-7.03173
in	-7.03355
¿	-7.03602
chu	-7.05347
can	-7.08833
xa	-7.09879
ulal	-7.09911
bal	-7.10953
jan	-7.1271
ye	-7.12798
▁?	-7.1569
hex	-7.17221
inal	-7.21713
machi	-7.21881
xol	-7.23346
ayco	-7.24896
co	-7.25796
lahwi	-7.26067
yal	-7.2623
chal	-7.26898
teyet	-7.28436
tzoti	-7.32449
he	-7.33566
yoc	-7.33746
j	-7.33987
watx	-7.3526
.	-7.36271
nan	-7.36357
ojan	-7.40456
ec	-7.46857
israel	-7.46881
yip	-7.51293
yun	-7.56684
paxo	-7.58225
ischejab	-7.58666
istx	-7.60181
oj	-7.60946
lan	-7.63433
mam	-7.64473
hey	-7.64699
ma	-7.70965
matxa	-7.72023
”	-7.72587
il	-7.72634
otx	-7.76499
ojal	-7.77312
wi	-7.78563
tajil	-7.79615
isya	-7.79695
iswi	-7.80757
hunun	-7.80786
tan	-7.81481
chiwal	-7.83406
niman	-7.838
ayic	-7.84468
ton	-7.85678
atan	-7.85806
▁;	-7.85872
cha	-7.86829
haxa	-7.87854
yatut	-7.88394
iswatx	-7.89548
oc	-7.89759
yelapno	-7.9013
ebix	-7.91149
heba	-7.91736
ablo	-7.93045
ib	-7.95358
ista	-7.9655
hanin	-7.97136
lax	-7.97359
espíritu	-7.98143
ixim	-7.99406
isto	-7.99818
yilal	-8.00855
yapni	-8.01275
texol	-8.02481
yilni	-8.04849
we	-8.0703
ley	-8.07674
ca	-8.08652
sata	-8.08721
é	-8.09664
munil	-8.09855
yahawil	-8.10145
cuywom	-8.10778
maca	-8.11008
mo	-8.1158
yehi	-8.12027
chon	-8.13186
ahol	-8.13756
maẍto	-8.14536
je	-8.14641
jet	-8.16042
és	-8.16313
howal	-8.1774
yaben	-8.20085
icham	-8.21793
¡	-8.21906
‐	-8.23497
edr	-8.2358
wet	-8.24233
cuybanile	-8.24254
cano	-8.24445
ayto	-8.24688
isbi	-8.24844
juẍta	-8.25034
ilo	-8.25379
el	-8.25573
santo	-8.25951
teyin	-8.26263
matzwalil	-8.26343
ah	-8.26454
▁!	-8.26597
win	-8.27572
choche	-8.27594
tom	-8.27605
wetan	-8.27791
yebpaxo	-8.29161
lo	-8.29442
xan	-8.30409
nabal	-8.30503
yinta	-8.30732
chia	-8.30756
ja	-8.31857
inan	-8.32088
chin	-8.32533
hach	-8.32627
istz	-8.32686
ismul	-8.33203
ismajul	-8.33749
anil	-8.3398
maẍ	-8.34207
ángel	-8.34502
nich	-8.34861
bil	-8.35394
xahan	-8.35443
waxa	-8.35991
ayo	-8.37665
janma	-8.38275
juan	-8.3915
yeli	-8.3973
ap	-8.41599
hec	-8.41686
jin	-8.43181
lahan	-8.43833
yalnipaxo	-8.44182
babel	-8.44681
wa	-8.45398
t	-8.46834
la	-8.47872
apni	-8.48395
ojab	-8.49516
xaco	-8.49857
ón	-8.50471
yuninal	-8.51394
yechel	-8.52022
amben	-8.53247
taj	-8.53617
maẍtaj	-8.53698
anmahil	-8.54877
as	-8.56271
chiwa	-8.56691
chiyij	-8.58076
chiswatx	-8.58469
xil	-8.58995
sa	-8.59525
rus	-8.60308
wanma	-8.60797
yel	-8.60954
sacerdote	-8.60984
ico	-8.62178
yanico	-8.62267
macta	-8.62287
tiempo	-8.62383
hi	-8.62462
yahaw	-8.62962
aypaxo	-8.62985
isnimanil	-8.63388
yec	-8.64187
le	-8.66059
canoj	-8.66212
coba	-8.66464
inmam	-8.67281
anxa	-8.6827
chioc	-8.68693
wan	-8.68895
isti	-8.69173
hunelxa	-8.69668
inc	-8.71465
chiyu	-8.71485
colbanil	-8.71689
chex	-8.72267
chalni	-8.73133
ba	-8.73484
yum	-8.73786
lin	-8.73794
pax	-8.74044
heyu	-8.74236
ju	-8.74721
isyelal	-8.76062
cheyute	-8.76828
ham	-8.78067
wuẍtaj	-8.78985
rey	-8.79181
mi	-8.7954
camom	-8.79654
hunxa	-8.79888
machojab	-8.80089
camic	-8.80534
jahawil	-8.806
chito	-8.80895
ist	-8.82976
wuh	-8.83447
ej	-8.83648
ayat	-8.86001
om	-8.86315
yay	-8.8663
chala	-8.87487
machoj	-8.87547
ayical	-8.88137
che	-8.88607
da	-8.89739
cuywawom	-8.91347
ule	-8.91568
winaj	-8.91811
xinto	-8.92034
xahanbal	-8.92236
yohta	-8.93774
chute	-8.93828
ic	-8.94077
chihul	-8.94441
me	-8.94552
b	-8.94997
preso	-8.96278
cheya	-8.96408
hun	-8.96569
go	-8.96711
yah	-8.97509
ayoj	-8.97698
chiec	-8.98482
cheyil	-8.99031
anc	-8.99731
paxoj	-8.99766
coc	-8.99986
oji	-9.00122
wanab	-9.00748
istzotel	-9.00761
diosal	-9.01058
tiempohal	-9.01138
yoj	-9.01504
fariseo	-9.02262
ehal	-9.02736
chitit	-9.02883
yeco	-9.02913
hanic	-9.03137
camo	-9.0406
ebilcano	-9.04239
ac	-9.04298
hunel	-9.04394
hal	-9.05008
iscam	-9.0535
chul	-9.05589
hunuxa	-9.06575
bar	-9.06675
ex	-9.06898
chaco	-9.07195
yaco	-9.07528
cam	-9.07613
yan	-9.07944
culus	-9.09573
helanil	-9.10289
inti	-9.10377
lah	-9.10876
chic	-9.11445
lek	-9.11664
ismi	-9.11846
melyu	-9.12455
chico	-9.12905
mar	-9.13192
tzujan	-9.14408
heyalni	-9.15974
sic	-9.16947
soldado	-9.18488
ayex	-9.18616
abr	-9.19115
unin	-9.19251
ría	-9.19415
chisje	-9.20302
ip	-9.21164
tzalahilal	-9.2155
conimanil	-9.21667
aban	-9.2168
yixal	-9.21705
istoholal	-9.22813
ayc	-9.2298
chihalni	-9.23292
nipaxo	-9.23436
hanta	-9.23457
yute	-9.23597
es	-9.23879
juẍtaj	-9.24021
quin	-9.24615
sim	-9.24718
anico	-9.25313
pan	-9.25798
na	-9.26034
ocan	-9.26491
heya	-9.26801
wintaj	-9.26954
aybal	-9.27078
beh	-9.27269
man	-9.27783
obal	-9.27844
jichmam	-9.28304
nime	-9.28435
itz	-9.29734
istiempohal	-9.3095
elo	-9.31258
tzujno	-9.31574
haba	-9.31591
chischah	-9.32137
yichico	-9.33077
ayicto	-9.33388
chiwoche	-9.34176
eb	-9.34373
niẍte	-9.34721
ulo	-9.35159
inalo	-9.35732
yijem	-9.36347
oht	-9.36399
gali	-9.36625
huno	-9.37592
herod	-9.37884
bilin	-9.38544
lea	-9.38784
yo	-9.39143
yuch	-9.3981
vid	-9.40414
yaw	-9.41733
mule	-9.41749
inba	-9.41973
ayilo	-9.42064
iloj	-9.42086
am	-9.43922
taxca	-9.44036
walni	-9.44545
chiapni	-9.44746
jilni	-9.4487
yulaj	-9.45191
tawin	-9.45356
ayxa	-9.45383
ulan	-9.45729
aycano	-9.46042
wilni	-9.46063
saj	-9.4677
cablah	-9.47176
wohtaj	-9.47295
capilla	-9.47507
yabe	-9.47556
chielico	-9.48655
potx	-9.48666
aco	-9.4904
chawal	-9.4908
mil	-9.49528
itzitz	-9.49581
anni	-9.4974
ayxac	-9.49812
nahat	-9.49883
jacob	-9.49927
nino	-9.49997
lal	-9.50354
chejbanile	-9.51561
ho	-9.51572
yinito	-9.51989
chiya	-9.52178
ispaj	-9.52338
chitzala	-9.52606
m	-9.52869
isbeybal	-9.52946
cheyaco	-9.5311
em	-9.53152
cheyala	-9.53236
f	-9.53359
pila	-9.54241
ilni	-9.54412
issaj	-9.55237
ayojab	-9.55282
yijni	-9.55529
halni	-9.55533
cancano	-9.55589
chil	-9.55647
quex	-9.55871
ebil	-9.56198
paxto	-9.564
ech	-9.56528
chit	-9.57436
istohol	-9.57749
ixnam	-9.57821
cheyal	-9.57833
majan	-9.57995
jos	-9.58853
mame	-9.59377
habil	-9.60042
ambe	-9.60255
um	-9.60403
ismay	-9.60555
yoche	-9.60629
at	-9.60926
yala	-9.61199
ano	-9.61378
ischuquil	-9.61957
ilwe	-9.62315
chawa	-9.62352
yetbi	-9.62535
chitzotel	-9.62649
yetxa	-9.6315
carta	-9.63365
abxubal	-9.63538
tri	-9.63539
walex	-9.63922
ischahni	-9.64744
chejab	-9.64942
anayo	-9.65169
halbilcano	-9.6567
coxol	-9.66004
hawu	-9.66257
hum	-9.66576
isyijen	-9.67998
hitzico	-9.68185
johtaj	-9.69009
l	-9.69318
hawalni	-9.70077
án	-9.70094
islahobal	-9.70269
ahan	-9.70483
heyet	-9.7051
ahto	-9.70633
yunin	-9.71593
uil	-9.71777
roma	-9.72047
quexchi	-9.72154
weco	-9.72911
iscab	-9.73165
ayayo	-9.73257
yichamil	-9.73531
xewi	-9.73605
yalno	-9.73695
chiq	-9.73734
ji	-9.74136
israelo	-9.74342
insata	-9.74438
chihallax	-9.75168
comon	-9.75175
tit	-9.75247
jud	-9.7527
jahno	-9.75441
chip	-9.75476
ías	-9.76052
aycan	-9.7608
chija	-9.7643
ispotx	-9.76523
hul	-9.76701
yabil	-9.7685
etaj	-9.76902
asi	-9.76909
chitz	-9.77273
oxeb	-9.77325
alom	-9.77454
comul	-9.77497
chislo	-9.78263
camoj	-9.7865
cachan	-9.78803
hay	-9.79059
hujeb	-9.7938
wican	-9.79554
iscawil	-9.79847
chalilo	-9.80054
titna	-9.80229
ewan	-9.80579
jalni	-9.81259
munlawom	-9.813
cuybanil	-9.81609
yawten	-9.82352
yila	-9.82425
cosunil	-9.83532
li	-9.83618
baytet	-9.83674
isyenilo	-9.83699
paxico	-9.84137
dea	-9.84895
mato	-9.8496
machiswalil	-9.84979
itzitzbi	-9.85808
ismeltzo	-9.85846
chiel	-9.85877
nico	-9.86932
ejholo	-9.87285
ischejbanil	-9.87344
chitxumcha	-9.87387
tzotelo	-9.87557
isn	-9.87582
eni	-9.87916
apno	-9.88149
witz	-9.88358
teyi	-9.89003
isyeni	-9.89225
ahil	-9.89893
heyehi	-9.90122
yintaj	-9.90213
nia	-9.90344
selel	-9.90461
ach	-9.90621
trato	-9.90634
cab	-9.90976
chabe	-9.90984
ayinic	-9.91404
occano	-9.91844
mulum	-9.91874
w	-9.92025
?	-9.9241
colwa	-9.92457
yalnicano	-9.92866
chisyije	-9.93336
berna	-9.93677
bé	-9.9368
chicolwa	-9.9451
heyanico	-9.94642
hil	-9.94797
masant	-9.95361
yuẍta	-9.95693
wip	-9.95734
ispi	-9.95852
chimunla	-9.96004
chiitzitzbi	-9.96092
chim	-9.9643
chicawxi	-9.96496
yil	-9.96762
ás	-9.96984
istit	-9.97129
so	-9.97764
heyohta	-9.97996
cheyabe	-9.98
yich	-9.9827
chiocnico	-9.98277
elip	-9.98288
payxa	-9.98348
ical	-9.98563
chiyal	-9.9984
halwe	-9.99978
chilahwi	-10.0003
chijil	-10.0037
loj	-10.0051
yanayto	-10.0058
chintoh	-10.0059
chintz	-10.0118
wu	-10.0121
umal	-10.0133
uxan	-10.0181
isch	-10.0181
octo	-10.0183
toj	-10.0243
etoj	-10.0253
circuncisión	-10.0287
yahawilo	-10.0306
chicam	-10.0324
cua	-10.0333
chiay	-10.0341
elico	-10.035
xiw	-10.04
chach	-10.0425
jehi	-10.0487
cawxo	-10.0494
tzalaho	-10.0504
johta	-10.0592
cheyoche	-10.0653
subchaho	-10.0655
techa	-10.0673
ilaxto	-10.0675
nabil	-10.0688
tioẍ	-10.0722
uc	-10.0764
tzeh	-10.0863
chijal	-10.0868
chij	-10.0887
wej	-10.0985
hin	-10.1019
heyijen	-10.103
txiquin	-10.1041
alaxico	-10.1045
isnani	-10.105
anto	-10.107
pas	-10.1101
chawil	-10.1124
elicoj	-10.1173
masan	-10.1174
isma	-10.1195
meẍa	-10.1261
helan	-10.1265
awtebil	-10.1269
chexoc	-10.1286
egi	-10.1287
nananta	-10.1319
chaẍ	-10.1323
chichahni	-10.134
heyoc	-10.1382
ra	-10.1454
tohol	-10.1461
ui	-10.1478
iscuywa	-10.15
ischejabo	-10.152
txahli	-10.1523
á	-10.1537
pulta	-10.1545
oro	-10.1548
isbel	-10.1569
gobernador	-10.1571
vino	-10.1571
howeb	-10.1584
len	-10.1589
eloj	-10.1595
encano	-10.1611
enilo	-10.1643
istxumni	-10.1662
sam	-10.1678
isye	-10.1698
wec	-10.1792
eho	-10.1822
heyohtaj	-10.1828
anciano	-10.1849
erto	-10.1852
yettax	-10.1852
ayexxaco	-10.1853
chinhul	-10.1854
des	-10.1869
istxahli	-10.1882
oco	-10.1886
cay	-10.189
machim	-10.189
waben	-10.1902
toxa	-10.1929
yelti	-10.1941
pto	-10.1963
chixiw	-10.2001
atil	-10.2011
chijoche	-10.2039
nicano	-10.2052
ajan	-10.2062
lomal	-10.2076
hesunil	-10.208
chawute	-10.2089
ocnico	-10.2131
hemul	-10.2137
cutxanico	-10.2137
nu	-10.2138
naba	-10.2159
hechahni	-10.2163
how	-10.2168
woc	-10.2186
inmunil	-10.2209
nito	-10.2217
ulla	-10.2248
itam	-10.2249
einti	-10.2251
▁?”	-10.2257
hon	-10.2259
etza	-10.2271
cheyi	-10.2315
yilalo	-10.2321
do	-10.2351
hawa	-10.2416
ofrenda	-10.2428
jex	-10.243
tohla	-10.2481
conabal	-10.2483
bilxa	-10.2498
chiyute	-10.2536
hajlo	-10.2598
xew	-10.2636
walnic	-10.2691
cocolomal	-10.2732
ojtam	-10.2735
quía	-10.2735
ispulta	-10.2762
isbis	-10.2863
caj	-10.2886
intoh	-10.2934
wom	-10.2984
iscolwa	-10.2986
hallax	-10.3002
walpaxo	-10.3037
jahaw	-10.3043
nazare	-10.3044
elías	-10.3049
hewi	-10.3092
anch	-10.3113
japni	-10.3116
joc	-10.3117
ischejni	-10.3135
yeto	-10.3155
chicolo	-10.3189
heye	-10.3246
xaya	-10.3276
anayto	-10.3305
chexxiw	-10.3315
nimanile	-10.3329
un	-10.3336
iscuyni	-10.3337
islah	-10.3347
aya	-10.338
yalnic	-10.338
chinapni	-10.3382
oya	-10.3394
yayc	-10.3405
hetxumni	-10.3417
chiaben	-10.3439
xe	-10.3518
wanoj	-10.3527
hebeybal	-10.3544
anab	-10.3584
ena	-10.3612
isyije	-10.3613
tim	-10.362
yahto	-10.3644
hato	-10.368
mohyi	-10.3682
que	-10.3699
chiwil	-10.3705
este	-10.3732
ichmam	-10.375
ichamta	-10.3764
cach	-10.3774
binaho	-10.3789
haban	-10.3862
tocano	-10.3974
islo	-10.3979
nayo	-10.3988
chijala	-10.4002
huj	-10.4011
í	-10.4019
anican	-10.4028
xiwquil	-10.4045
wacax	-10.4046
chiyo	-10.4047
elax	-10.4047
camnaxa	-10.4049
chijute	-10.405
chintzala	-10.4059
xu	-10.406
chiyoche	-10.4075
chis	-10.4115
coyijen	-10.413
chijaco	-10.413
munlah	-10.4172
hinan	-10.4173
uh	-10.423
aj	-10.4248
pa	-10.4248
heyila	-10.4267
heyilni	-10.4293
yinican	-10.433
tzotel	-10.4356
ilcha	-10.4358
moy	-10.4361
eli	-10.4375
chiwalt	-10.4392
capit	-10.4402
xahaw	-10.4408
tajca	-10.4414
watut	-10.4415
chiwaco	-10.4424
oteo	-10.4434
chicolcha	-10.4434
ayach	-10.447
eniloj	-10.4475
zar	-10.4485
anex	-10.4502
ẍiayo	-10.4525
quinchi	-10.4549
xaj	-10.4551
nab	-10.4599
ín	-10.4619
bilcano	-10.4631
iscolni	-10.4637
laxto	-10.4664
patr	-10.4701
tzabnico	-10.4702
oli	-10.4764
cabeb	-10.4778
hawehi	-10.4779
h	-10.4784
chilo	-10.4785
wahil	-10.4796
hawet	-10.4806
cachwa	-10.4807
isbejnicano	-10.486
haltebilcano	-10.4875
munla	-10.4883
aben	-10.4897
hawoc	-10.4954
yohtajo	-10.4979
cochahni	-10.5012
isje	-10.5032
isxahan	-10.5041
cosat	-10.5059
hata	-10.507
iscawxican	-10.5078
chican	-10.5083
nte	-10.511
iln	-10.5112
alaxicto	-10.5113
yox	-10.5114
za	-10.5115
chiwalto	-10.5116
maquex	-10.513
nimanil	-10.5134
lá	-10.5151
unub	-10.5158
chicabcon	-10.5162
innimanil	-10.5166
yehico	-10.518
yawte	-10.5213
q	-10.5263
yeh	-10.5291
enan	-10.5303
ij	-10.5314
cheyay	-10.5323
apax	-10.5351
iscuyu	-10.5358
chichiwa	-10.5372
yuninalo	-10.5373
behal	-10.5387
cuyni	-10.5413
ape	-10.5507
yuc	-10.5512
chiwalcano	-10.554
axpon	-10.5557
mu	-10.5574
wohta	-10.5576
selelo	-10.5584
espa	-10.5601
col	-10.5605
isnu	-10.5618
cuar	-10.5621
chiah	-10.5642
hunix	-10.5647
cobeybal	-10.5708
inchejab	-10.571
yahcano	-10.5751
cheyije	-10.5769
haw	-10.5771
itzitzb	-10.5785
yitzitzbi	-10.5834
chisc	-10.5837
chicancano	-10.5849
yetbiho	-10.585
yilo	-10.5863
eq	-10.5926
yillax	-10.5933
isbejcano	-10.5937
nanxa	-10.596
heyohtajo	-10.5981
inmul	-10.5983
sucal	-10.5985
ilal	-10.6027
nohna	-10.6059
ayexico	-10.6105
machipaxo	-10.6125
aymi	-10.6135
ispe	-10.6161
ahwano	-10.6162
isa	-10.6253
iswa	-10.6272
eojab	-10.6275
hulic	-10.6286
chechah	-10.6291
into	-10.6298
nahul	-10.6327
yuẍtaj	-10.6328
intz	-10.6343
ilchalo	-10.6371
heyabe	-10.6373
nican	-10.6374
lena	-10.6378
iscawxi	-10.6387
ichico	-10.6388
tzen	-10.6396
lemna	-10.6408
chiwute	-10.6419
chayto	-10.6422
ehojab	-10.6425
heyohtaxa	-10.643
istzoteli	-10.6459
eto	-10.6465
inilo	-10.65
hawoche	-10.6512
jil	-10.6559
chiwabe	-10.656
isaí	-10.657
canico	-10.66
wohtajoj	-10.6608
muj	-10.6632
tam	-10.6641
ispa	-10.6642
sila	-10.6649
efes	-10.6657
ispax	-10.6665
cheyila	-10.6683
coxahan	-10.6683
chiyenilo	-10.6693
chicami	-10.6784
coman	-10.6798
axep	-10.686
itah	-10.6863
echmabil	-10.6865
chicochah	-10.6869
buch	-10.6869
ciento	-10.6876
lahanex	-10.6884
xwan	-10.6892
ixobal	-10.6919
ẍicano	-10.694
ischah	-10.6952
chinoc	-10.7002
sad	-10.701
yechman	-10.7015
omal	-10.7033
tac	-10.7055
haquin	-10.7063
ulojab	-10.7063
ajla	-10.7076
ento	-10.709
ato	-10.7103
cheh	-10.7105
canilo	-10.7119
yilax	-10.7144
laxcan	-10.7159
cojab	-10.7166
ahi	-10.7292
ar	-10.7301
txumcha	-10.7301
laba	-10.7311
testigo	-10.7339
esare	-10.7339
cantil	-10.7357
istxam	-10.736
uilo	-10.7367
laxi	-10.7367
ismunla	-10.737
hetxumnilo	-10.738
majal	-10.7389
cheyohta	-10.7404
yebi	-10.7406
chahni	-10.7463
mal	-10.7466
isway	-10.7475
im	-10.748
cap	-10.7489
wah	-10.749
yalte	-10.7491
yen	-10.7498
beybal	-10.7507
alaxcan	-10.7517
nilo	-10.7519
acti	-10.7539
ishajni	-10.7579
chew	-10.7586
eo	-10.7595
jala	-10.7618
ayn	-10.7661
alil	-10.7672
aldea	-10.7674
haltebil	-10.7702
lolo	-10.7742
mari	-10.7748
chicuyw	-10.7797
issayni	-10.7802
isbelwi	-10.7805
or	-10.7829
chejn	-10.783
lom	-10.7831
yallax	-10.7831
hecawil	-10.7844
yictabal	-10.7848
lto	-10.785
iscayel	-10.7856
hamanil	-10.7857
isyelo	-10.786
oxel	-10.7875
yohtaxa	-10.7877
ismachiswalil	-10.7908
txahl	-10.7939
hawip	-10.7956
ux	-10.7972
yitz	-10.7978
tio	-10.8019
jila	-10.803
chebej	-10.8042
elapnoj	-10.8044
ispohni	-10.8069
istzala	-10.8097
uxni	-10.8104
zaca	-10.8112
ebilxa	-10.814
gri	-10.8195
canocan	-10.8225
coj	-10.8233
gó	-10.8275
chisna	-10.8279
beyc	-10.8297
chelo	-10.8346
ro	-10.835
;	-10.8351
capil	-10.8363
melqui	-10.8365
yehobal	-10.8369
telaj	-10.837
chietaxto	-10.8371
erna	-10.8374
iscutxbanico	-10.8378
bejwe	-10.8381
chabilxa	-10.8381
chijabe	-10.8386
rub	-10.8387
iscutxban	-10.8387
ibcan	-10.8397
romano	-10.8398
quexwil	-10.8432
uslax	-10.8452
issajbilo	-10.8462
yanipaxico	-10.8463
ad	-10.8498
lahano	-10.8502
chisye	-10.8509
heyip	-10.8515
ehayo	-10.8524
yeniloj	-10.8527
alo	-10.8542
cuywi	-10.8565
iscami	-10.8569
ego	-10.8597
fes	-10.8635
elan	-10.8713
chiyiy	-10.8738
iscolcha	-10.8765
cor	-10.8785
icto	-10.8795
cuart	-10.8833
ahab	-10.8839
tzala	-10.8897
hexahan	-10.8906
tzujcha	-10.8908
chibe	-10.8915
hajxam	-10.892
io	-10.8923
dena	-10.8924
inbi	-10.8925
yilnito	-10.8927
yahawo	-10.8945
cia	-10.8956
yor	-10.897
sed	-10.8974
chitx	-10.8981
chuman	-10.8992
chiwalpax	-10.9007
bel	-10.902
olo	-10.9037
comunil	-10.9044
ixwi	-10.9051
lahico	-10.9054
chiahilo	-10.9076
hecal	-10.9086
hemam	-10.9091
xiwcan	-10.9115
txahlo	-10.9134
et	-10.914
tec	-10.9141
jabe	-10.9169
mayu	-10.9172
wul	-10.9198
xi	-10.9261
ocpaxo	-10.9269
inyije	-10.9271
chicoyije	-10.9273
chexwa	-10.9291
peta	-10.9297
chiwalni	-10.9298
hawi	-10.9331
yilcha	-10.9349
ixal	-10.9369
rom	-10.9398
chati	-10.9441
ismohyi	-10.9455
chiway	-10.9458
ahti	-10.9463
yalten	-10.9467
babilo	-10.9515
jon	-10.9522
cawxican	-10.9528
chicotz	-10.9533
yilno	-10.9534
chitxahli	-10.9535
canto	-10.9539
dra	-10.9541
naweti	-10.9547
ischejnito	-10.9572
dama	-10.9587
yax	-10.9609
laxayo	-10.961
chisyelo	-10.9621
mohyil	-10.9636
chahwe	-10.9648
chiscutxba	-10.9652
chix	-10.9659
dá	-10.9659
chilolax	-10.9682
istzabn	-10.9688
haquex	-10.9706
way	-10.9728
cachni	-10.9756
agr	-10.9828
ed	-10.9853
ita	-10.9895
yij	-10.9904
sunilo	-10.9972
islahwi	-11.0005
isbey	-11.0006
eno	-11.0059
tar	-11.007
chalo	-11.0086
yalpaxo	-11.0105
hunelo	-11.0122
alxa	-11.0129
circuncidar	-11.0134
jop	-11.0139
hetxahli	-11.0151
incarta	-11.0171
salom	-11.0178
bu	-11.0203
abayo	-11.0205
chisbej	-11.0218
walach	-11.023
ixli	-11.0255
igue	-11.0258
enta	-11.0274
chah	-11.0298
jec	-11.0332
ecano	-11.0337
hawohtaj	-11.0343
chexa	-11.0353
iscan	-11.0355
mel	-11.0422
hulnaj	-11.045
istxum	-11.0532
awi	-11.054
techaho	-11.0541
winajil	-11.0555
yto	-11.0566
chiwi	-11.0624
wuẍta	-11.0651
uba	-11.0707
yanican	-11.0707
cotoh	-11.0716
sco	-11.0725
yito	-11.073
istxumnilo	-11.0733
yicta	-11.0735
banil	-11.0761
abewe	-11.0777
ispoh	-11.0778
paxtoj	-11.0795
zeb	-11.0798
isva	-11.0801
magdal	-11.0801
andr	-11.0807
tzabno	-11.0811
ischejlaxto	-11.0816
intzotel	-11.0823
g	-11.0824
utelax	-11.0829
yochen	-11.0841
chinchahni	-11.0857
isxu	-11.0884
istxah	-11.0889
waco	-11.0889
hayeb	-11.0901
colchah	-11.0917
titnajin	-11.0938
hecol	-11.0975
yuho	-11.0976
inaloj	-11.0993
motx	-11.1049
chiyi	-11.1095
xic	-11.1123
laxcano	-11.1125
mas	-11.1137
meltzo	-11.1186
hetx	-11.1187
uninal	-11.1191
chejbil	-11.1197
woj	-11.1213
ishuj	-11.1224
yani	-11.1235
sac	-11.1242
jilico	-11.1256
sataj	-11.1258
opo	-11.1258
issa	-11.1266
paxilo	-11.1273
chihuli	-11.1276
walca	-11.1276
yamigo	-11.128
wute	-11.1281
taca	-11.13
elcanico	-11.1317
chucano	-11.1323
ewe	-11.1325
chachoc	-11.1327
inta	-11.1393
wala	-11.1406
isyenican	-11.1408
su	-11.1449
bawe	-11.1471
ahilo	-11.1482
ub	-11.1485
hawuẍta	-11.1491
aytoj	-11.1494
aceit	-11.1516
apolo	-11.1518
inchuquil	-11.152
wuninal	-11.1525
alcal	-11.1536
cotxahli	-11.1537
él	-11.1538
ejbiyal	-11.1541
corn	-11.1555
wanico	-11.1558
tetej	-11.1565
chiillax	-11.1578
noj	-11.1586
iscuy	-11.1601
tij	-11.1604
chio	-11.1637
ayico	-11.1674
isbili	-11.168
nilto	-11.1701
bililo	-11.1703
ebilico	-11.1705
ilno	-11.1705
chispoh	-11.173
wecano	-11.1737
txahul	-11.1767
laxico	-11.1768
heyuẍta	-11.1793
iscutxba	-11.1803
initi	-11.1821
jip	-11.1831
yama	-11.1848
ajo	-11.1849
ambenpaxo	-11.1856
huln	-11.1861
eti	-11.187
z	-11.1912
ischahnicano	-11.1919
anojab	-11.1919
ibo	-11.1923
heto	-11.1925
wo	-11.1926
yalnilo	-11.195
rro	-11.1978
chisma	-11.202
utz	-11.2051
chiyil	-11.2054
halbil	-11.2064
tzoteli	-11.2095
chiwat	-11.2122
ipa	-11.2147
enpaxo	-11.2173
laxilo	-11.2209
yelcan	-11.2256
jalnic	-11.2259
uloj	-11.2271
chiilcha	-11.2274
cotxumni	-11.2284
yichebanil	-11.2284
chimeltzo	-11.2298
ijbalom	-11.2299
ispixan	-11.2301
hunex	-11.2308
pra	-11.2316
bre	-11.2326
elti	-11.2326
calle	-11.2337
icoj	-11.2338
jetbi	-11.2346
beta	-11.2373
colwah	-11.2377
barr	-11.2378
chisbal	-11.2383
wejna	-11.2398
yictaj	-11.24
yijewe	-11.2402
inito	-11.2405
chilni	-11.2414
cos	-11.2419
sid	-11.2435
cheyu	-11.2439
wepaxo	-11.2455
yanab	-11.246
chejniti	-11.2493
hamul	-11.2497
ichamil	-11.2512
chahi	-11.2516
aynato	-11.252
heyahawil	-11.2531
ican	-11.2546
inchahni	-11.2546
chena	-11.2667
elto	-11.2688
hetxumu	-11.27
ohtabil	-11.2733
tzalah	-11.2746
bet	-11.2761
ajano	-11.2779
tre	-11.28
iro	-11.2831
heyaben	-11.2861
tro	-11.2862
us	-11.2863
seleloj	-11.2876
bilico	-11.2892
camnaj	-11.2944
istzabni	-11.2963
buchwa	-11.2999
xaquex	-11.3059
heyi	-11.3071
chahnayto	-11.3088
peyab	-11.309
sello	-11.3093
ohcha	-11.3101
ijatz	-11.3101
isxe	-11.3113
denario	-11.3118
wahi	-11.3122
semana	-11.3123
ancan	-11.3124
chexcolwa	-11.3126
toholojab	-11.3129
estam	-11.3131
ebxa	-11.3173
quexwilno	-11.3176
epaxo	-11.3179
xico	-11.3182
ene	-11.3184
chejaboj	-11.3196
ispal	-11.3204
ishoy	-11.3212
hawohta	-11.3214
chalnipaxo	-11.3223
tzalacan	-11.3225
chietanto	-11.3226
chawabe	-11.3235
enico	-11.3251
rco	-11.3262
leg	-11.3267
chahnicano	-11.3295
chiji	-11.3301
belwi	-11.3306
dia	-11.3307
yilaxil	-11.3313
pix	-11.3323
atz	-11.3331
jintaj	-11.3332
xuln	-11.3352
mahul	-11.3356
saybil	-11.341
colcha	-11.341
hawayto	-11.341
heniman	-11.341
weh	-11.3414
iscol	-11.3418
cami	-11.3453
!	-11.3456
halno	-11.3459
cabcon	-11.3466
isme	-11.3475
iscolbanil	-11.3494
chec	-11.3519
xahano	-11.3526
yohtaj	-11.3537
wila	-11.3544
chinwa	-11.3557
hop	-11.3566
jute	-11.3575
inmunla	-11.3578
tzenilo	-11.3586
chayo	-11.3594
plata	-11.3626
chicuywa	-11.3632
issay	-11.3644
canicoj	-11.3647
yub	-11.3657
joná	-11.3661
ajna	-11.3661
isna	-11.3667
islow	-11.3673
hechah	-11.3703
dem	-11.3716
habi	-11.3717
ojo	-11.3722
welo	-11.3736
acan	-11.3795
laxpaxo	-11.3798
aquil	-11.381
chinye	-11.3814
chejbanil	-11.3825
chexto	-11.3831
bo	-11.3833
alc	-11.3835
jor	-11.3842
wanito	-11.3843
be	-11.385
hami	-11.3859
anwe	-11.3866
chistx	-11.3939
wetbi	-11.3979
iptze	-11.4016
per	-11.4018
▁?:	-11.4027
parti	-11.403
salón	-11.403
witzitzbi	-11.403
colni	-11.4052
aret	-11.4052
jer	-11.4055
cocolcha	-11.4056
chintzotel	-11.4058
chiilaxilo	-11.406
chiichico	-11.4061
chibehal	-11.4062
ismotx	-11.4069
isxiwcan	-11.4077
joccano	-11.4078
ario	-11.4079
chijalt	-11.4085
maxawal	-11.4086
munlawomal	-11.4096
chiwalic	-11.4102
sar	-11.4104
if	-11.411
yulic	-11.4119
incam	-11.4127
mataj	-11.4129
tzuj	-11.4136
cosataj	-11.4149
isyenipaxo	-11.415
heyohtajoj	-11.416
oyo	-11.4174
ayti	-11.4194
chinchejt	-11.4202
yuli	-11.4226
awten	-11.4227
iswahni	-11.4258
ado	-11.4276
chielti	-11.428
si	-11.4281
walnit	-11.4307
balo	-11.4316
topaxo	-11.4319
johtaxa	-11.4367
lahnico	-11.4378
alem	-11.4379
iwe	-11.4393
ilxa	-11.44
apaxo	-11.445
laxo	-11.4455
ahni	-11.4458
hojab	-11.4458
pre	-11.4509
techahoj	-11.451
maquin	-11.4533
mos	-11.4562
wipaxo	-11.4586
aca	-11.4596
chinacha	-11.4607
bilxalo	-11.4616
xam	-11.462
say	-11.4631
heyenilo	-11.4652
chijalni	-11.4697
iscamilo	-11.4705
caẍ	-11.4734
lahanxa	-11.4746
mohy	-11.4762
yije	-11.4762
hecolwa	-11.4806
pon	-11.4813
hunep	-11.4819
chejabo	-11.4821
anpaxo	-11.4852
tona	-11.4858
hatx	-11.486
quexin	-11.489
siq	-11.4961
ada	-11.4976
cien	-11.5001
ojlax	-11.5008
cac	-11.501
ijan	-11.5011
etaxto	-11.5022
irla	-11.5026
isdiezmo	-11.5031
ia	-11.5032
toco	-11.5039
yelo	-11.5044
chijayto	-11.5048
chibuchwa	-11.505
ispujnacan	-11.505
bere	-11.505
inbeybal	-11.505
r	-11.5052
tzab	-11.5054
xacam	-11.507
yabeni	-11.5078
mawal	-11.5082
heyil	-11.5089
ishel	-11.5105
ilnilo	-11.5105
cohelanil	-11.5112
chishel	-11.5123
chialaxico	-11.5128
ismeẍa	-11.5138
istioẍ	-11.5144
acto	-11.517
naxa	-11.5193
uwan	-11.5203
oqui	-11.5209
esen	-11.5234
cuy	-11.5238
ede	-11.5287
quinhul	-11.5318
chintx	-11.5333
cowi	-11.5338
istxumcha	-11.534
tajo	-11.5346
hawil	-11.5361
ilto	-11.5364
ida	-11.5367
xawal	-11.5371
macach	-11.5409
istra	-11.5417
chielcanico	-11.5427
pet	-11.544
abil	-11.5453
colbil	-11.546
chihallaxic	-11.5495
ojex	-11.5499
bih	-11.5531
yuni	-11.5556
yahbal	-11.5564
subchahoj	-11.557
ispujba	-11.5602
laxilto	-11.5614
chitaj	-11.5641
ojni	-11.5649
tzun	-11.5651
yilwen	-11.5663
coma	-11.568
lico	-11.5703
juten	-11.5703
ismajilo	-11.5723
tzoc	-11.5729
pala	-11.5736
xab	-11.574
licano	-11.5747
re	-11.5752
woche	-11.5754
txumwe	-11.5768
ga	-11.577
comunlah	-11.5802
yalaxcan	-11.5809
paxcano	-11.5814
ica	-11.5816
arco	-11.5816
ubal	-11.5818
hawanico	-11.5834
binahoj	-11.5841
quinhe	-11.5852
laxic	-11.5853
chejto	-11.586
cho	-11.5886
babito	-11.5894
corona	-11.5899
abi	-11.5921
sil	-11.5934
rin	-11.5948
awe	-11.5952
tzi	-11.5958
chiwu	-11.5971
jo	-11.5976
alniloj	-11.5978
cheja	-11.5982
coto	-11.5989
elaxi	-11.5998
jaben	-11.6008
bitn	-11.6008
yelcano	-11.6035
bi	-11.6039
chiw	-11.6046
olal	-11.6058
waybal	-11.6059
elna	-11.6083
yilnipaxo	-11.6112
jaco	-11.6136
chepuh	-11.6138
alejandr	-11.6138
prisc	-11.6138
yichitax	-11.6138
isjobn	-11.6138
chitzejla	-11.6139
wajeb	-11.6139
istzejla	-11.614
iscolomal	-11.614
wahawil	-11.6144
chiwinajli	-11.6144
chexcolcha	-11.6145
chiabelax	-11.6146
ohchahi	-11.6146
iscolnilo	-11.6148
ochebil	-11.615
chiyabe	-11.6151
bejbilcano	-11.6153
hachcachan	-11.6154
halbilxa	-11.6158
isreyal	-11.616
inwi	-11.6163
yilweno	-11.6165
uq	-11.6169
xito	-11.6173
quinyanic	-11.6184
ischilba	-11.6186
ebilcanayo	-11.6192
ambebal	-11.6203
tijab	-11.6208
chinta	-11.6209
biloj	-11.6213
majul	-11.6217
incuywom	-11.6228
bilon	-11.6254
arena	-11.6267
baj	-11.6279
matanil	-11.628
matan	-11.6288
chistxum	-11.629
challax	-11.6293
wojan	-11.6299
isho	-11.63
ilti	-11.6302
awtebilex	-11.6314
chaẍto	-11.6321
exxa	-11.6361
nicto	-11.6402
cabe	-11.6407
cheyalni	-11.6413
alto	-11.6415
camna	-11.6465
helni	-11.6466
yanicano	-11.6469
cuywa	-11.647
yabelax	-11.6474
yahwi	-11.6474
xayu	-11.65
esp	-11.6517
yawtelax	-11.6519
txumwelo	-11.6524
wapni	-11.6527
ord	-11.6528
xahul	-11.6542
wabe	-11.655
bilo	-11.6561
chuco	-11.6571
itzitzto	-11.6576
odi	-11.6589
isxahanbal	-11.6608
baln	-11.6616
hti	-11.6622
hatzotel	-11.6622
cochah	-11.6631
del	-11.6639
txah	-11.6647
chissay	-11.6649
oni	-11.6678
tzujanil	-11.668
tzujn	-11.67
rio	-11.673
lab	-11.6734
heyeco	-11.6734
ispujbani	-11.6736
ag	-11.6786
mate	-11.6822
cheye	-11.6852
sajb	-11.6866
cheyito	-11.6879
chiti	-11.6887
wub	-11.6892
chiscaj	-11.6908
isyecan	-11.6949
pajtzen	-11.6996
unn	-11.7026
wiyo	-11.7036
isnoh	-11.7057
inpax	-11.7077
colin	-11.7091
cachi	-11.7097
laxilti	-11.71
tawi	-11.711
issaya	-11.712
unu	-11.712
cawina	-11.7145
cotx	-11.7153
wetoj	-11.7158
enayo	-11.7165
uluj	-11.7186
weti	-11.719
bit	-11.7213
heyabeni	-11.7223
yex	-11.7258
chiillaxi	-11.7326
subuta	-11.7326
ilaxilo	-11.7327
chuquil	-11.735
istohla	-11.7369
hecolcha	-11.7373
subcha	-11.7375
chinchah	-11.7381
cutxan	-11.7384
wehic	-11.7386
ciren	-11.7388
’	-11.7388
hunpilan	-11.7388
pohleb	-11.7388
pujan	-11.7389
niẍtejal	-11.7389
reta	-11.739
caniloj	-11.7392
ismujli	-11.7398
chibili	-11.7399
igi	-11.7405
quinhawohtaj	-11.7406
tzujanex	-11.7407
chimujlax	-11.7411
hatax	-11.7416
isniman	-11.7419
yichi	-11.7429
chita	-11.7431
veintic	-11.7434
wiloj	-11.7437
istel	-11.7437
heyaco	-11.7438
inbel	-11.7444
maxawa	-11.7454
icó	-11.7454
tze	-11.7457
hawetbi	-11.7458
ehalo	-11.747
ischahno	-11.7475
yic	-11.7483
cocachni	-11.7483
hecach	-11.7488
campaxo	-11.7498
tzelaxilo	-11.7498
chiyahni	-11.7503
ispich	-11.7504
yesp	-11.7514
ojlaxto	-11.7515
inmelyu	-11.7518
yechelo	-11.7526
isloni	-11.7528
isyox	-11.7531
ilom	-11.7532
elcano	-11.7536
istzabayo	-11.7545
yohtajoj	-11.7545
wetbihoj	-11.7546
cili	-11.757
anno	-11.7589
suc	-11.759
inxahan	-11.7597
hehel	-11.7598
ila	-11.7606
chetz	-11.7611
elaxo	-11.7635
checutxban	-11.7642
ixwil	-11.7643
hexxa	-11.7656
chinto	-11.7664
xilo	-11.7671
chucanico	-11.7678
coley	-11.7682
bilti	-11.7682
wuten	-11.7708
yac	-11.7774
tzalahi	-11.7777
ochen	-11.7794
chiyala	-11.7796
bana	-11.7801
maapni	-11.7818
ebo	-11.7855
winilo	-11.7868
wil	-11.7886
machmi	-11.7899
zabe	-11.7919
ilbil	-11.7946
isla	-11.7975
chisyah	-11.7978
batx	-11.7983
nil	-11.7985
ria	-11.7987
alaxayto	-11.8002
anmaho	-11.8008
isnab	-11.8039
hor	-11.8044
chawalic	-11.8066
rra	-11.809
chalpaxto	-11.8094
chicotxum	-11.8122
chesay	-11.8137
yelax	-11.8151
mujlax	-11.8163
sir	-11.8164
xiwi	-11.8191
heyehico	-11.8227
cheta	-11.8242
aho	-11.8246
wahlax	-11.8246
yanicanic	-11.8271
laho	-11.8275
ayna	-11.8312
er	-11.8368
isw	-11.8399
heyoche	-11.8459
jetbiho	-11.8481
quexya	-11.8514
de	-11.8557
wuc	-11.8568
hol	-11.8568
xap	-11.8569
atro	-11.8626
yetanto	-11.863
chexel	-11.8638
chiuc	-11.864
oxa	-11.8643
chitocano	-11.8654
isbejtzo	-11.8667
yalil	-11.8675
etx	-11.8679
hoyno	-11.8692
ischej	-11.87
yalaxic	-11.8702
cajni	-11.8711
jeco	-11.8725
hunlah	-11.8747
colo	-11.8749
chiwacan	-11.8792
tzabni	-11.8805
ero	-11.8808
yijemoj	-11.881
eva	-11.8816
mujlubal	-11.8816
juez	-11.8816
ejholilo	-11.8816
filipo	-11.8816
iscawxobal	-11.8817
titnajach	-11.8817
isyahbe	-11.8818
jalno	-11.882
isbejni	-11.8821
pol	-11.8823
chimujli	-11.8823
pujnacan	-11.8824
sión	-11.8824
far	-11.8825
yehilo	-11.8826
chinischah	-11.8828
hawichamil	-11.883
inchejbanil	-11.8832
xajayto	-11.8833
yelawil	-11.8834
maẍtajach	-11.8834
albalax	-11.8835
chich	-11.8842
axepxa	-11.8846
chitzejtzon	-11.8859
bayo	-11.8873
chisyijepaxo	-11.8873
cawxenico	-11.8888
yelto	-11.8889
inma	-11.89
isle	-11.8902
salmo	-11.8904
pojoj	-11.8905
hatz	-11.8911
helanex	-11.8912
xahey	-11.8919
yacano	-11.8926
canan	-11.8934
hayto	-11.8934
qui	-11.8943
inchejt	-11.8947
hallaxojab	-11.8965
chiilaxto	-11.8971
etzan	-11.8973
chextzala	-11.9015
maya	-11.9043
ahojab	-11.9063
hayebo	-11.9096
chub	-11.9106
aycanilo	-11.911
hech	-11.912
bihoj	-11.9129
naí	-11.9209
majwah	-11.921
up	-11.9219
hawala	-11.923
fre	-11.9234
paxayto	-11.9248
conaniti	-11.9273
aytoc	-11.9289
chiijba	-11.9292
heyetbiho	-11.9315
yahcan	-11.9317
ninoj	-11.9334
heyuten	-11.9335
chinna	-11.9338
comunla	-11.9341
chiix	-11.9356
tí	-11.9368
tr	-11.9404
aypaxic	-11.9409
hewa	-11.9422
yallaxi	-11.9446
najil	-11.9467
hawe	-11.9471
cto	-11.9474
bancano	-11.9475
china	-11.9482
otz	-11.9483
henani	-11.9509
alib	-11.9509
hetzotel	-11.9514
yeloj	-11.9528
ur	-11.9529
cayel	-11.9534
heyuc	-11.9534
bejtzo	-11.9536
eco	-11.9537
ohtabilo	-11.9537
walic	-11.9539
ismal	-11.9541
haco	-11.9548
quexis	-11.957
ohni	-11.958
cheyuc	-11.958
jcano	-11.9599
elilo	-11.9599
nda	-11.9601
reyal	-11.9601
camnajo	-11.9612
yecan	-11.9619
helo	-11.9622
colilo	-11.9624
epaxoj	-11.9635
istzablaxayo	-11.9637
jecoj	-11.9651
cantoj	-11.9652
chibey	-11.9676
icano	-11.9682
niloj	-11.9689
chalic	-11.9698
sté	-11.9711
illaxi	-11.9729
maxaw	-11.9789
jeto	-11.9792
ecanoj	-11.9809
istaj	-11.983
sto	-11.9857
nacha	-11.9868
ispeyab	-11.9875
hecuy	-11.9887
chincam	-11.9897
chiwuc	-11.991
chawi	-11.9927
ojlaxay	-11.9943
elaxilo	-12.0012
wahni	-12.0029
elcan	-12.0046
chacano	-12.0076
quinya	-12.0084
iscapil	-12.0106
ambenilo	-12.0161
quil	-12.0202
tzelax	-12.0226
ulu	-12.0247
chixew	-12.0259
awte	-12.0272
chiyeni	-12.0273
yiptzen	-12.0321
isbiho	-12.0359
bili	-12.0361
echma	-12.037
isbej	-12.0376
chejni	-12.0402
ía	-12.0426
ahcano	-12.0478
incolni	-12.0479
awtelax	-12.0483
(	-12.0483
)	-12.0483
epafr	-12.0483
setenta	-12.0483
maxawute	-12.0483
diácono	-12.0483
aẍno	-12.0483
ófi	-12.0483
chihellax	-12.0487
numna	-12.0487
camiẍ	-12.0488
chipohcha	-12.0489
istzabnoyo	-12.049
chexmeltzo	-12.0491
chijechma	-12.0493
winit	-12.0496
isjepla	-12.0496
arist	-12.0499
chexapno	-12.0499
tzencanilo	-12.0499
chisubcha	-12.05
cuyw	-12.05
encanilo	-12.0506
yijle	-12.0508
yijatz	-12.0508
ug	-12.051
inmeltzo	-12.0511
venta	-12.0513
yabelo	-12.0513
chexcam	-12.0514
chí	-12.0514
comatan	-12.0515
cocawil	-12.0515
lot	-12.0522
chimalto	-12.0526
chaẍhul	-12.0531
istzumbenil	-12.0537
tzalacano	-12.0538
coln	-12.0547
wahaw	-12.0552
waxajeb	-12.0552
ismajchen	-12.0558
may	-12.0559
chaẍwa	-12.056
bican	-12.0561
chisayni	-12.0573
istzic	-12.0573
uel	-12.0574
heyaw	-12.0577
eba	-12.0587
cris	-12.0595
ayinict	-12.0608
ello	-12.0611
heyetbi	-12.0612
cajlax	-12.0614
cotioẍ	-12.0616
cajwa	-12.0619
xajal	-12.0634
wacan	-12.0634
hawunin	-12.0653
hacuyni	-12.0655
istzablo	-12.0662
nahatil	-12.0666
lahanojab	-12.0667
hunlahan	-12.0667
ayalil	-12.0668
alomex	-12.0671
heyohtapaxo	-12.0671
xawabe	-12.0676
somchaho	-12.0692
isholni	-12.0693
yecano	-12.0696
elaxcano	-12.0706
upni	-12.0707
intxumni	-12.0719
iwel	-12.0719
hacawil	-12.073
etio	-12.0731
uxlax	-12.0745
ẍiayti	-12.0745
ael	-12.0753
mat	-12.0764
isl	-12.0775
rón	-12.0794
xapaxo	-12.0801
walno	-12.0838
chawila	-12.0843
iscach	-12.086
ishunban	-12.0866
hunuj	-12.0876
alaci	-12.0881
awey	-12.1027
yenipaxilo	-12.1054
belwito	-12.1055
yuten	-12.1076
balxa	-12.1078
usni	-12.1081
wano	-12.1107
chinalaxic	-12.1127
emi	-12.1143
ojabn	-12.1147
txiho	-12.1149
heyec	-12.115
chichon	-12.1166
paxic	-12.1186
bul	-12.1209
malto	-12.1224
ujbanic	-12.1228
checuy	-12.1229
pis	-12.1243
chiochen	-12.126
tuclenoj	-12.1263
enal	-12.1268
heway	-12.129
hetz	-12.129
inic	-12.1318
chejbilin	-12.132
hajba	-12.1324
ishe	-12.1338
chiyalic	-12.1347
canilto	-12.1394
saywe	-12.1398
ismajil	-12.1417
alaxto	-12.1421
hulcan	-12.1446
pat	-12.1453
chii	-12.146
ahbilxa	-12.1495
chincan	-12.15
hawute	-12.1525
hilan	-12.1552
laxojab	-12.1561
helano	-12.1589
tzeniloj	-12.1606
plat	-12.1609
chipax	-12.1618
chicobej	-12.162
ncuenta	-12.1633
cosata	-12.1663
quiniscol	-12.1671
bin	-12.1688
cotzotel	-12.1693
ulpaxo	-12.1751
chintxum	-12.1772
paxti	-12.1786
istzil	-12.18
wawte	-12.1836
wayc	-12.1838
ew	-12.1854
halilo	-12.1857
anito	-12.1867
diosalo	-12.1868
silo	-12.1909
chinha	-12.1927
yinipax	-12.1935
chischahpaxo	-12.1984
wanayo	-12.1992
uch	-12.1995
zab	-12.2009
johtajoj	-12.2018
po	-12.2029
chexilax	-12.2037
chialax	-12.2088
chetxum	-12.2112
isli	-12.2126
chiinito	-12.213
chiyoc	-12.2143
aqui	-12.216
yohtapaxo	-12.218
camnaji	-12.2217
hesayni	-12.2244
fe	-12.2249
pac	-12.2255
chitxumni	-12.2257
xawa	-12.2257
cawxoj	-12.2264
wayo	-12.2266
cheyutepaxo	-12.2272
tor	-12.2275
noh	-12.2282
yechma	-12.2299
puhnilo	-12.2315
anilto	-12.233
chihallaxi	-12.2348
hoc	-12.2359
ohal	-12.2377
chabil	-12.2379
chijila	-12.2387
moc	-12.24
hunban	-12.2405
johtajo	-12.2408
ejbi	-12.2409
ojabilo	-12.2416
ishol	-12.2417
ru	-12.2417
dor	-12.2422
iscutx	-12.2425
ojlaxayt	-12.243
mun	-12.2436
pitni	-12.2451
hajloho	-12.2464
nati	-12.247
hayije	-12.2476
genes	-12.2483
reina	-12.2483
quetzal	-12.2483
chepohle	-12.2484
jijle	-12.2484
italia	-12.2484
chihaltelax	-12.2487
ishatelax	-12.2488
chexixli	-12.2489
chibejtzolax	-12.249
chepajtze	-12.2493
chiwejcha	-12.2493
istzilmo	-12.2494
issat	-12.2496
hitzan	-12.2496
cochuquil	-12.2497
encanilto	-12.2497
hinanojab	-12.2499
hetxah	-12.2501
hujel	-12.2501
incuywa	-12.2502
chahlax	-12.2503
yallen	-12.2506
fili	-12.2508
ismilal	-12.2509
chinheyila	-12.2516
isbahwa	-12.2519
chiiptze	-12.2519
mayij	-12.252
camto	-12.2523
ohtabiloj	-12.2527
chiyelax	-12.2538
chexwil	-12.2538
atena	-12.2538
ijnicano	-12.2547
dara	-12.2549
winajli	-12.2559
yahbil	-12.256
inyenilo	-12.256
ari	-12.257
chexya	-12.2574
istzalabal	-12.2578
ud	-12.2578
fenic	-12.2581
ismatan	-12.2585
chiwayto	-12.2598
hawabe	-12.2605
ispitni	-12.2605
nawe	-12.2609
intoc	-12.261
wanic	-12.2617
mago	-12.2622
acano	-12.2622
istzotelpaxo	-12.2631
abeno	-12.2632
nalo	-12.2665
matat	-12.267
monte	-12.2672
isbejtzolax	-12.2677
chinbejtzo	-12.2681
icanico	-12.2681
hachahni	-12.2682
issayno	-12.2684
hecuywawom	-12.2685
wabenpaxo	-12.2691
cawbo	-12.2694
wixal	-12.2702
matxataj	-12.2708
utx	-12.2729
xican	-12.2739
ancanoj	-12.2746
hawohtajoj	-12.2749
ischahlax	-12.2755
wamigo	-12.2766
chiyila	-12.2777
hatelaxo	-12.2777
oq	-12.2779
yican	-12.278
winiti	-12.2786
pí	-12.2788
nue	-12.2814
chexcancano	-12.282
habatx	-12.2823
chislah	-12.2847
ambewe	-12.2859
aloj	-12.2871
ishow	-12.2894
tax	-12.2903
zor	-12.2909
íni	-12.2915
chicoyelo	-12.2916
ut	-12.2954
ixnamxa	-12.296
hechahnicano	-12.2985
habilxa	-12.2989
chalpaxo	-12.3004
walnipaxo	-12.3007
tira	-12.3015
bulan	-12.3017
ismaj	-12.3019
ishob	-12.3027
weto	-12.3028
ambal	-12.3046
xawil	-12.3055
chinxiw	-12.3061
alaxti	-12.3091
ambeni	-12.3098
amigo	-12.3102
coyeniloj	-12.3108
yichec	-12.3111
istzubli	-12.3111
rah	-12.3116
uplax	-12.3156
heyalno	-12.3177
chexo	-12.3204
titnaj	-12.3209
abel	-12.3218
yacoj	-12.3218
coch	-12.322
cachwil	-12.3224
juc	-12.3237
chinani	-12.3246
hel	-12.3259
bilexxa	-12.3277
echman	-12.3291
ischiwa	-12.3292
ten	-12.3297
heyelapno	-12.3299
ulna	-12.3334
ini	-12.3335
fan	-12.3367
wat	-12.3374
isyelax	-12.3374
gab	-12.3377
isyijelax	-12.3381
nacan	-12.3389
chisya	-12.3408
tohlan	-12.3414
hier	-12.3436
chiwilni	-12.3436
bis	-12.3491
cuylax	-12.3495
yallaxpaxo	-12.3497
nic	-12.3509
ancano	-12.351
toholcano	-12.3516
chicocutxba	-12.3524
ilnoj	-12.3529
istzilni	-12.3538
era	-12.3544
jechma	-12.3555
heyilwe	-12.3671
quinani	-12.3686
ism	-12.3686
yaltecano	-12.3691
yepaxo	-12.3708
jechman	-12.3768
hayijen	-12.3768
nipaxto	-12.377
chistz	-12.3781
chiuten	-12.3787
etanto	-12.3814
chishaj	-12.3838
yehic	-12.3845
chila	-12.3864
ih	-12.3885
bojab	-12.3903
isteyele	-12.3916
inye	-12.394
gam	-12.3951
cachlax	-12.3956
alpaxo	-12.3999
hawuten	-12.4017
chihalnilo	-12.4031
sayniloj	-12.4101
canayo	-12.4106
chac	-12.4151
epaxto	-12.4178
nipaxcano	-12.4189
nilti	-12.4198
chiin	-12.4211
ischejti	-12.4232
tajin	-12.4238
istoholb	-12.4266
oche	-12.4308
isbatx	-12.4319
istzab	-12.432
chicawxican	-12.4326
yanipax	-12.4328
chicona	-12.4334
inchejni	-12.436
cuybil	-12.4377
hamunla	-12.4379
iweto	-12.4383
chinsay	-12.439
ispohle	-12.4402
chisyecan	-12.4405
ayachic	-12.4422
colwapaxo	-12.4438
ahlax	-12.4445
tesata	-12.4448
copa	-12.4469
ich	-12.4469
quexyawte	-12.4479
chinchej	-12.4486
cowa	-12.4494
maxe	-12.4496
yilniti	-12.4517
chipa	-12.4518
howbi	-12.4552
hayeni	-12.4591
chexay	-12.4614
tzelo	-12.4628
dom	-12.4629
mayal	-12.4676
yayo	-12.4703
chianic	-12.4721
hocan	-12.4726
unlax	-12.4728
chinc	-12.473
chinlo	-12.4734
nocano	-12.4735
chiwalnipax	-12.4752
bitni	-12.4764
chinano	-12.4784
isxi	-12.4785
maxeyi	-12.4809
topaxoj	-12.4837
di	-12.4839
yilwelax	-12.4842
ahw	-12.4846
hacolwa	-12.485
chistzab	-12.4854
inbejtzo	-12.4855
chexalax	-12.4894
yijban	-12.4911
mawa	-12.493
isholan	-12.4959
libr	-12.4961
iswah	-12.4969
ax	-12.497
laxayoj	-12.4974
yichenico	-12.4978
witi	-12.4982
puerto	-12.4983
tiberi	-12.4983
chicutxi	-12.4984
copohni	-12.4984
chexchahlaxi	-12.4984
ér	-12.4984
ispajo	-12.4984
niẍ	-12.4984
etanoto	-12.4984
yaẍn	-12.4985
lembil	-12.4985
chiluylun	-12.4985
siqui	-12.4986
quexawten	-12.4986
chimtxumcha	-12.4986
cotxumuloj	-12.4987
chiyeno	-12.4989
chicolahico	-12.4989
hajxamex	-12.499
spe	-12.499
eft	-12.499
aram	-12.4991
yechto	-12.4991
cobejnicano	-12.4992
cawxeco	-12.4994
tzalahojab	-12.4994
chexelico	-12.4995
istzumbelax	-12.4995
isnumero	-12.4996
chietalax	-12.4997
isbutni	-12.4997
chinhesay	-12.4998
chishatx	-12.4999
claudi	-12.4999
paxayo	-12.5
iswejcha	-12.5
jopla	-12.5001
quinheyohtaj	-12.5007
conabaweti	-12.5011
ishucba	-12.5015
helahnico	-12.5016
mawaco	-12.5018
wunin	-12.5019
chisbejtzo	-12.5021
chiscach	-12.5022
issomchacan	-12.5023
hucan	-12.5024
ayintoc	-12.5025
meltz	-12.5026
yawtenico	-12.5027
chihalno	-12.5029
pahni	-12.503
cobel	-12.5035
etalax	-12.504
iswaj	-12.5043
ismujlax	-12.5043
suni	-12.5046
zu	-12.5048
isbejtzon	-12.5054
ópa	-12.5062
ishajlax	-12.5066
sabá	-12.5066
ehobal	-12.5068
hem	-12.507
chitzic	-12.5073
isbina	-12.5074
cocuyni	-12.5082
iq	-12.5082
issello	-12.5083
heyanab	-12.5083
chawiti	-12.5084
chexpax	-12.5087
hawinilti	-12.5092
ishi	-12.5096
dos	-12.5097
quinis	-12.5102
isr	-12.5113
heyala	-12.5114
islahban	-12.5127
heyahaw	-12.5127
ẍipaxo	-12.5139
abebil	-12.5143
hawic	-12.5145
cotxah	-12.5153
abia	-12.5153
ajban	-12.5154
wichmam	-12.517
raí	-12.517
cocancano	-12.5171
mawabe	-12.5182
erge	-12.5183
sayiloj	-12.519
heyichico	-12.5202
sala	-12.521
ayexic	-12.5219
isyaxil	-12.5224
ambepaxo	-12.5224
iscolo	-12.5224
hacuynipaxo	-12.523
quinwa	-12.5237
hemunla	-12.5251
stro	-12.5256
locoh	-12.5273
cambal	-12.5277
canilti	-12.5284
cenc	-12.5285
ismas	-12.5296
macachcawxi	-12.53
wanayto	-12.5301
pal	-12.5306
buchlax	-12.5308
heyic	-12.5317
istitc	-12.5317
issomcha	-12.532
heyije	-12.5329
bejcano	-12.5332
ocojab	-12.5359
illax	-12.536
inme	-12.5373
isxecnic	-12.5391
para	-12.5394
ser	-12.5394
ismajni	-12.5398
yabenpaxo	-12.5404
ochenico	-12.5421
tzabn	-12.5424
chextzotel	-12.5442
istxihni	-12.5443
gal	-12.5451
tajilo	-12.5485
chinhe	-12.549
isbujil	-12.5511
epta	-12.5521
onbayo	-12.5527
ben	-12.5531
awej	-12.5531
yacan	-12.5532
ibpaxo	-12.5535
nawal	-12.5551
wacano	-12.5559
baytaj	-12.5563
isbeh	-12.5582
anoto	-12.5586
walaxic	-12.5601
pujbani	-12.5604
exch	-12.5605
inwa	-12.5614
tzic	-12.5628
chaben	-12.5631
henanitij	-12.5659
chanic	-12.5677
cheyilo	-12.5678
jalawe	-12.5719
noto	-12.573
choc	-12.576
quexyil	-12.5761
mohyina	-12.5762
cowahni	-12.5783
omex	-12.5791
int	-12.5816
saú	-12.5825
xalo	-12.5829
lecan	-12.5846
paxiloj	-12.585
istajilo	-12.5855
mes	-12.5868
efa	-12.5877
hecolomal	-12.5912
ismalen	-12.5933
helanile	-12.5943
luca	-12.5952
chiyican	-12.5952
chaẍxiw	-12.5962
tirlaxto	-12.5969
cobelwi	-12.5986
txumniloj	-12.5991
chilan	-12.5992
titnaco	-12.6
aytzen	-12.6013
chisten	-12.6022
chetato	-12.6032
yija	-12.6041
axto	-12.6074
hoyo	-12.6075
pahla	-12.6076
etli	-12.6078
tzeloj	-12.6087
iscajle	-12.6122
enoc	-12.6137
chischej	-12.6139
wayoj	-12.6169
canayoj	-12.6171
pixan	-12.6175
amil	-12.6179
isteyelen	-12.6184
issaylax	-12.6186
majwa	-12.6191
inpaxt	-12.6195
awan	-12.6211
nohcano	-12.6243
hediosal	-12.6246
oma	-12.6255
octoj	-12.6257
chine	-12.6265
iel	-12.6277
iscutxbac	-12.6286
chexyil	-12.6297
winajlo	-12.6316
hesaynilo	-12.6324
eh	-12.6324
hehunban	-12.6324
coxahanbal	-12.6339
ayej	-12.6355
cuenta	-12.6361
aholo	-12.6408
colon	-12.6411
jahawiloj	-12.642
hujuy	-12.6439
axcanto	-12.6439
matx	-12.6497
chema	-12.6504
chicoye	-12.6512
ulcano	-12.6521
yaltencano	-12.6594
fil	-12.6596
chalnilo	-12.6621
chima	-12.6637
chismaj	-12.6645
jas	-12.6652
chibelwi	-12.667
xahe	-12.6678
jucano	-12.6678
atoj	-12.6687
chahto	-12.6694
inilti	-12.6706
cocutxban	-12.6713
encan	-12.6718
lam	-12.6734
ishaj	-12.6739
chinma	-12.6742
xec	-12.6772
chilow	-12.6782
naw	-12.6836
nocan	-12.6866
istxumulo	-12.6871
yenilo	-12.6872
ischejnil	-12.6878
imo	-12.6888
ewantaj	-12.6904
iscolchah	-12.6912
ocheni	-12.6912
ishitz	-12.6962
innani	-12.6975
chicosayi	-12.7016
uban	-12.702
machij	-12.7031
ijban	-12.7079
monten	-12.7083
txumiloj	-12.7093
tzumbe	-12.7111
colah	-12.7138
chiju	-12.7172
tzeb	-12.7173
chiscuyni	-12.7176
yupaxo	-12.7196
cololo	-12.721
hilo	-12.7229
incheja	-12.7232
yix	-12.7252
ischab	-12.7262
isbabi	-12.7265
hallaxo	-12.7388
somni	-12.739
quino	-12.7449
chiwaben	-12.7501
henab	-12.7516
intx	-12.7557
cawxi	-12.7558
chiilax	-12.7589
bla	-12.7638
lipaxo	-12.7645
chawu	-12.7664
yecanico	-12.7691
xain	-12.7693
fr	-12.7724
istxihn	-12.7725
chextz	-12.7739
yalic	-12.7781
sia	-12.7786
ewelo	-12.7804
lem	-12.7806
chitzalapaxo	-12.7812
naloj	-12.7832
wamigoh	-12.786
aytze	-12.7865
bahlax	-12.7872
bilcan	-12.7881
nohcan	-12.792
ipaxilo	-12.7924
chiyacan	-12.7933
abeni	-12.7934
chato	-12.7946
isbitn	-12.7965
lit	-12.7966
yawtenil	-12.7977
yalaxoc	-12.8014
xon	-12.8019
chichahlax	-12.8025
quexwa	-12.803
cacha	-12.8046
ito	-12.8062
toholb	-12.8071
txumni	-12.8079
yeni	-12.8086
jabeni	-12.8122
ichican	-12.8146
chialaxay	-12.8148
atij	-12.8151
aniti	-12.8154
nahi	-12.8163
heb	-12.8209
for	-12.8218
erg	-12.8226
noco	-12.8234
xacan	-12.8236
ven	-12.8251
istucle	-12.8254
ishunba	-12.8275
jepla	-12.8288
ahnilo	-12.8289
hajlax	-12.8292
cheyijen	-12.8293
salm	-12.8299
isyah	-12.8302
inchejnit	-12.8305
mir	-12.8308
ohba	-12.8316
camposanto	-12.8316
quexwiptzen	-12.8316
xalecamto	-12.8316
cutxanexico	-12.8317
nawepaxti	-12.8317
xibte	-12.8317
quiẍta	-12.8317
etaxna	-12.8317
hajlojab	-12.8317
hetzanten	-12.8317
wijle	-12.8317
herm	-12.8318
hetzicni	-12.8318
awuẍ	-12.8318
cosaya	-12.8319
semanahil	-12.8319
alba	-12.832
rán	-12.832
inpohni	-12.832
chijic	-12.832
chawte	-12.832
iter	-12.832
machahlo	-12.8321
istxumabilo	-12.8321
chexawtelax	-12.8321
poho	-12.8321
sombil	-12.8321
chinilchah	-12.8322
ishuc	-12.8322
metro	-12.8322
jabenpaxoj	-12.8323
jochebal	-12.8324
bro	-12.8325
chexcolni	-12.8325
esí	-12.8328
chexutelax	-12.8328
ismujno	-12.8328
ẍal	-12.8329
pér	-12.8331
yiptzelax	-12.8331
siquilo	-12.8333
ismujni	-12.8335
ixwipaxoj	-12.8337
beca	-12.8338
conani	-12.8338
mujli	-12.8339
oto	-12.8342
quinhetzabno	-12.8342
johtapaxoj	-12.8343
inlah	-12.8347
elí	-12.8349
coyahni	-12.835
majabe	-12.8355
libro	-12.8357
jiptze	-12.836
ischahlo	-12.8361
iscaj	-12.8362
chexeta	-12.8363
cheyohtajo	-12.8365
iscajlen	-12.8365
siqu	-12.8366
chiichi	-12.8366
yijbal	-12.8366
hebel	-12.8367
juninal	-12.8369
arqu	-12.8369
chinhesayi	-12.8372
meltzoho	-12.8378
chinxew	-12.838
islaban	-12.8381
quexyuninal	-12.8385
xajabe	-12.8386
ishatx	-12.8387
quinisbejtzo	-12.8387
chimheyal	-12.839
winican	-12.8394
ter	-12.8398
ayi	-12.8404
jinito	-12.8404
tzelaxcanilo	-12.8406
juli	-12.8406
nanitij	-12.8418
chintopax	-12.8418
isxec	-12.842
hob	-12.8423
saynic	-12.8424
chexisyah	-12.8426
hawetxa	-12.8426
quexwilni	-12.8437
tenan	-12.8438
bejtzolax	-12.8439
ismonten	-12.8445
ecantoj	-12.8449
toholo	-12.8451
bart	-12.8466
chahn	-12.8467
abenico	-12.847
iscuynicano	-12.8476
hatxumu	-12.8489
inxew	-12.8492
álaxico	-12.8494
cheyel	-12.8503
wepaxoj	-12.8504
camnajex	-12.8504
yocheco	-12.8504
hawila	-12.8504
chish	-12.8505
poh	-12.8509
heyochen	-12.8509
intrato	-12.8513
isbalnic	-12.8522
tenba	-12.8524
oncan	-12.8524
sajbilo	-12.8524
cocarta	-12.853
sajbicano	-12.8531
machijex	-12.8536
hesaj	-12.8537
ahla	-12.8539
pohbil	-12.854
chicawxo	-12.8541
olom	-12.8543
ispeban	-12.8545
ispit	-12.8546
chialaxcan	-12.8552
arc	-12.8557
iscachlax	-12.857
munlaho	-12.8574
yichipax	-12.8587
iscorona	-12.8588
fi	-12.8592
emcan	-12.8595
cheyec	-12.8597
hachpaxo	-12.8602
wilo	-12.8616
hitzo	-12.8638
xaquin	-12.8638
maxeyil	-12.8638
waxajla	-12.8639
ayexto	-12.864
cheyij	-12.8642
inpuhn	-12.8643
ilax	-12.8647
chexetanto	-12.8648
ishoj	-12.8659
hachayoj	-12.866
innoh	-12.8667
chisaj	-12.8678
txihlax	-12.868
chachto	-12.8681
hechayto	-12.8686
quinp	-12.8693
pichbil	-12.8702
uxanta	-12.8713
ebilpaxcanayo	-12.8725
ojnayt	-12.8735
are	-12.8735
quexwawte	-12.8736
quinissayni	-12.8748
sun	-12.8751
locohoj	-12.876
txih	-12.8762
leyanto	-12.8764
inbeyc	-12.8781
yinilti	-12.8781
chichejni	-12.8783
jelapno	-12.8792
alaba	-12.8793
hacuyu	-12.8807
bacan	-12.8809
sal	-12.8815
incu	-12.8818
nato	-12.8821
wawten	-12.8824
coyije	-12.8835
tecano	-12.884
yijemo	-12.8854
jocto	-12.889
chaẍtzotel	-12.8901
of	-12.8925
umpa	-12.8943
chitzeb	-12.8944
ri	-12.8959
ecan	-12.8964
chitxa	-12.8978
yilaxot	-12.8988
cuynicanto	-12.8992
alcanoj	-12.9006
chinoh	-12.9027
dec	-12.9065
yojta	-12.9071
tzac	-12.9072
icanilo	-12.9073
titcano	-12.9076
ijbani	-12.9102
haln	-12.9125
hese	-12.9131
heyuni	-12.9134
chiyah	-12.9142
heyeto	-12.9153
pujnato	-12.9157
cheyalpaxo	-12.9161
maoc	-12.9161
ahnato	-12.9165
chaẍapn	-12.9187
isdiosalo	-12.9188
heyalnipaxo	-12.9199
hacmi	-12.9203
inlo	-12.9215
holan	-12.9222
hawuc	-12.9237
jetbihoj	-12.9247
rd	-12.9249
laxicto	-12.9252
chisch	-12.9313
quinisc	-12.9317
hulu	-12.9326
chischahni	-12.9336
hebejtzo	-12.9337
lahban	-12.9388
ión	-12.9394
cocuy	-12.9403
quinbey	-12.9419
chincach	-12.9421
chimhey	-12.9424
ela	-12.9437
heyute	-12.9449
inch	-12.9449
ismoh	-12.9459
inpaxic	-12.9492
jinta	-12.9528
chisyijen	-12.9563
ebilpaxcan	-12.9577
chiscol	-12.9582
nicol	-12.9601
chetxumilo	-12.9621
chijocheco	-12.9664
iptzencano	-12.9667
isbit	-12.9684
ilc	-12.9716
istzan	-12.9721
wetpaxoj	-12.9757
isjahban	-12.9788
hab	-12.9789
yebanto	-12.9809
amn	-12.9816
hawanic	-12.9831
iscawxilo	-12.9835
ilwelax	-12.9887
hacuy	-12.9908
islotze	-12.9939
jilno	-12.9955
chino	-12.9957
cochan	-12.996
chicosay	-12.996
ahno	-12.9969
chista	-12.9976
exn	-13.0013
chinp	-13.0023
chawuc	-13.0031
chexcuy	-13.0055
chiwit	-13.0058
habeybal	-13.0064
hexpaxo	-13.0087
mahuli	-13.0104
quexwani	-13.0152
chuc	-13.0158
ze	-13.0193
chicoyijen	-13.0204
heyanican	-13.0204
batxn	-13.0255
canojab	-13.0274
ispohlax	-13.0276
heyabenpaxo	-13.0308
aq	-13.031
com	-13.0311
xaheya	-13.0316
patro	-13.0325
opota	-13.0346
yilaxaht	-13.0361
oboj	-13.0374
wanipax	-13.0404
quexistucle	-13.0406
enoj	-13.0454
cotxumu	-13.0456
hunbancano	-13.0504
nano	-13.0507
inway	-13.0516
hnayto	-13.0522
issom	-13.0538
chiyucanico	-13.0544
chalnic	-13.0577
chielcan	-13.0614
hebitn	-13.0615
istitico	-13.0629
chiahcan	-13.0654
chachxiw	-13.0657
yelojab	-13.0676
cutxbawe	-13.0704
tzehta	-13.0709
islahni	-13.0714
fos	-13.0714
iscutxbalax	-13.0719
chinchejni	-13.072
mahulcan	-13.0737
chesayi	-13.0755
yijen	-13.0784
ahwe	-13.0807
ejo	-13.0851
ishitzi	-13.0852
lahni	-13.0865
tzablaxayoj	-13.0878
chiwah	-13.0887
hetzabayoj	-13.0911
hayebxa	-13.0947
halo	-13.096
enicoj	-13.097
cobitn	-13.0994
quinhetzab	-13.1021
wejcha	-13.1027
chicamto	-13.1031
chinheya	-13.1031
chehunba	-13.1062
jayto	-13.1071
heyabencano	-13.1152
yilnoj	-13.118
exico	-13.1198
chishunba	-13.1202
ehpaxo	-13.1219
hallaxi	-13.1224
hoj	-13.1232
yalilo	-13.1269
yilchalo	-13.1272
istxo	-13.1279
isjahba	-13.1293
ewi	-13.1325
wacto	-13.1326
bejcanoj	-13.1348
chitohla	-13.1385
elaxoj	-13.14
anexpaxo	-13.1401
loco	-13.1402
wech	-13.141
cotohla	-13.1436
luc	-13.1438
elojab	-13.1443
tzalapaxoj	-13.1475
hoy	-13.1485
yaln	-13.1548
babic	-13.1564
heyawte	-13.1572
chewal	-13.1576
chahnipaxo	-13.1577
cocam	-13.1598
muji	-13.1638
ahbilo	-13.164
yab	-13.1641
maj	-13.1653
apnipaxo	-13.1666
hajlocano	-13.1699
bejnicano	-13.1711
zí	-13.1781
leh	-13.183
istzubl	-13.1833
maxawi	-13.1841
munlahoj	-13.1851
yenican	-13.1855
inxac	-13.1896
hecutxban	-13.1898
oloj	-13.1947
jiln	-13.1957
nicanilo	-13.1972
ẍ	-13.1984
lahw	-13.2004
huli	-13.2018
tzabayoj	-13.2029
imet	-13.2044
hete	-13.2063
ebilo	-13.2078
lahanin	-13.2135
ixwilo	-13.2201
henan	-13.2209
isbuj	-13.221
rab	-13.2228
cawil	-13.2239
helanoj	-13.2323
tzabcha	-13.2339
hechab	-13.237
chachta	-13.2375
pajtze	-13.2377
haway	-13.2398
iscollax	-13.2405
tzalapaxo	-13.2405
chewoj	-13.2438
xawayto	-13.2463
chexyi	-13.2512
istir	-13.2531
oh	-13.2539
uten	-13.254
chitoh	-13.2545
chih	-13.2576
cheyilpaxo	-13.2582
checa	-13.26
chejnito	-13.2601
xiwpaxo	-13.2608
jochen	-13.2628
inpi	-13.2641
encanoj	-13.2667
quexco	-13.2671
sopo	-13.2671
wetbiho	-13.2673
copi	-13.2695
issi	-13.2698
pujba	-13.2714
pich	-13.2723
cotxumnilo	-13.2729
chej	-13.2729
aynajo	-13.2733
mor	-13.2743
wabeto	-13.2752
quinyin	-13.2755
quinyohta	-13.2763
chicoc	-13.2769
tzablaxayo	-13.2796
chijuc	-13.2825
cosayni	-13.2836
ute	-13.2845
ispahni	-13.2868
acanto	-13.2871
chiscuy	-13.2875
hawetpaxo	-13.29
ó	-13.2908
?”	-13.2911
só	-13.2914
mer	-13.2924
isxecni	-13.2926
chasay	-13.2964
hitzto	-13.2969
hinano	-13.2969
amin	-13.2969
isia	-13.2971
iw	-13.3007
henaniti	-13.3007
quinheya	-13.3014
yatuto	-13.3021
aycanayo	-13.3038
ahcanto	-13.3041
xicto	-13.3054
yutepaxo	-13.3065
chilahw	-13.3099
alaxic	-13.3134
jub	-13.3147
wayi	-13.3155
bicanilo	-13.3157
hu	-13.317
elojabi	-13.3178
yicto	-13.3198
chiyan	-13.3216
heyoch	-13.3218
huc	-13.3231
hawilno	-13.3236
wechma	-13.324
chisomcha	-13.3246
chitxihn	-13.3252
ichambi	-13.3265
rode	-13.327
wichamil	-13.3272
numero	-13.3287
cotxum	-13.3289
diezmo	-13.3289
chejlaxto	-13.329
majchen	-13.329
ischejlax	-13.3293
hajcha	-13.3294
hucanico	-13.3297
ubli	-13.33
ismaji	-13.33
haltelax	-13.3304
joche	-13.3305
má	-13.3306
chiinil	-13.3309
insaya	-13.3312
aẍni	-13.3313
chahlo	-13.3314
cobeja	-13.3314
tawinta	-13.3316
ñ	-13.3316
ahbelom	-13.3316
chixecnito	-13.3316
hajexxam	-13.3316
iglesia	-13.3316
ximbil	-13.3316
circuncidado	-13.3316
etaxoto	-13.3316
maxetxum	-13.3316
cachyabilni	-13.3316
chextzumbelaxi	-13.3317
himno	-13.3317
dalma	-13.3317
macachcolcha	-13.3317
chawiptzenpaxo	-13.3317
colnolo	-13.3318
yichtax	-13.3318
chimisbej	-13.3319
hecawxen	-13.3319
cheẍ	-13.3319
hobom	-13.3319
quexyiptzen	-13.332
chetzumbe	-13.332
heteyele	-13.332
istiẍnican	-13.3321
chachmeltzo	-13.3322
buchwawom	-13.3322
cachissayni	-13.3322
istzebi	-13.3323
chiehi	-13.3323
chexchahlaxicto	-13.3324
chijeba	-13.3324
chiabchalo	-13.3324
chexcajlax	-13.3324
cajtza	-13.3325
chinyahni	-13.3325
chinillax	-13.3326
cheyechma	-13.3326
uẍ	-13.3326
chachtzotel	-13.3327
hecapil	-13.3327
yahbeta	-13.3328
ber	-13.3329
iscaja	-13.333
hayelta	-13.333
chepoh	-13.3331
exyiptze	-13.3331
chexincol	-13.3332
istxumilo	-13.3332
quincolni	-13.3332
fat	-13.3332
maxatx	-13.3333
isteye	-13.3333
inmujcan	-13.3333
chitzabcha	-13.3333
chihoy	-13.3335
cólo	-13.3336
chipoh	-13.3337
lebo	-13.3337
istucleno	-13.3339
chexinbej	-13.334
iswalil	-13.3341
majiti	-13.3343
chiyucano	-13.3347
heyija	-13.3348
hunbi	-13.3348
yijbalax	-13.3349
yijebil	-13.3349
chibah	-13.335
tzablax	-13.3351
chibejlax	-13.3351
sten	-13.3352
islawe	-13.3354
ebabil	-13.3354
chexinna	-13.3355
isselel	-13.3355
chishoj	-13.3357
manhul	-13.3358
cotzabni	-13.3358
ismuju	-13.3359
chiitzitzb	-13.3361
heyetalax	-13.3364
chiwawte	-13.3365
chisbile	-13.3365
inhacxi	-13.3369
ishajcha	-13.337
diosalpaxo	-13.3373
napaxtij	-13.3374
wawom	-13.3375
wiln	-13.3376
uyb	-13.3378
yichixa	-13.3379
alina	-13.3381
belwo	-13.3384
seman	-13.3385
isbahlax	-13.3385
hebelwi	-13.3387
upu	-13.3391
hebi	-13.3391
chiechma	-13.3392
chisomchacan	-13.3393
tzehach	-13.3396
quinhawalni	-13.3397
chixiwi	-13.3399
lón	-13.3403
pohcha	-13.3404
heyijatz	-13.3408
illaxo	-13.3411
heyelcan	-13.3414
hecuywi	-13.3417
chincolni	-13.342
cuywo	-13.342
ischem	-13.342
istenlax	-13.3423
olti	-13.343
lica	-13.3435
welto	-13.3436
hunbabil	-13.3439
chexpoh	-13.3443
hepohl	-13.3444
quis	-13.3445
ilanex	-13.3448
ichen	-13.345
awteni	-13.3452
alaxpax	-13.3454
isnohtzeno	-13.3458
quexwetan	-13.3462
cachco	-13.3466
chimuj	-13.3467
ishatxnil	-13.3469
alawe	-13.3469
ged	-13.3475
amina	-13.3479
yiptzel	-13.348
bina	-13.3481
chinhena	-13.3481
ilweno	-13.3483
balax	-13.3484
chitzujcha	-13.3488
muju	-13.3491
ismalcan	-13.3492
heyijenpaxo	-13.3493
inloni	-13.3494
rdo	-13.3495
ahnipaxo	-13.3496
ador	-13.3503
cawbilo	-13.3505
conaba	-13.3508
istzujanil	-13.3508
jehicoj	-13.351
hawanipaxic	-13.3514
ichenicoj	-13.3523
abebilxa	-13.3531
hitznico	-13.3537
chimchabe	-13.3543
iscajp	-13.3551
bejlaxcano	-13.3554
upno	-13.3554
chejlaxtij	-13.3559
pajtzo	-13.3568
wejanxa	-13.3569
hawohtajo	-13.3572
chicachwa	-13.3577
hawalno	-13.3579
chicot	-13.3584
chitxih	-13.3587
chijec	-13.3594
chabej	-13.3594
xaw	-13.3598
hime	-13.3599
inmeẍa	-13.3605
isnano	-13.3616
subutaj	-13.3619
cawxilo	-13.3622
chaẍel	-13.3625
matzotel	-13.3627
heyilwen	-13.3629
yoxeb	-13.3635
topton	-13.3637
nicanico	-13.3647
ismeltzoxa	-13.366
anbilo	-13.3663
chijochepaxo	-13.3666
sayn	-13.3667
ibi	-13.367
quinbeypax	-13.3679
inluylun	-13.3681
chinheyanic	-13.3683
aynilo	-13.3689
álo	-13.369
aynajinxa	-13.3705
ejbayo	-13.3706
heyalax	-13.3715
yelpax	-13.3716
pohnican	-13.3717
chinyila	-13.3727
ól	-13.3727
quinhawil	-13.3728
chiwec	-13.3735
isnohtze	-13.3745
cle	-13.3745
tenbabil	-13.3761
istuc	-13.3789
quinhena	-13.3789
inb	-13.3803
rado	-13.3806
hacolni	-13.381
tenico	-13.3814
quintza	-13.3832
ipaxto	-13.3837
hachejti	-13.3841
alnico	-13.3847
quinhetucle	-13.3869
quexintucle	-13.3876
haweba	-13.3877
cheyacan	-13.3888
ilaxot	-13.3896
chispah	-13.3897
laxoto	-13.3899
sajojab	-13.3901
tabi	-13.3903
iseo	-13.3913
ischahle	-13.3914
cotzalahilal	-13.392
xacawxi	-13.3926
txumuloj	-13.3931
cachn	-13.3942
chexcan	-13.3949
ebanil	-13.396
isjo	-13.3983
unilo	-13.3984
tzujanilo	-13.399
jahnoj	-13.3992
cotxumniloj	-13.3996
yitzitz	-13.3998
cosom	-13.3998
lepaxo	-13.4005
majila	-13.4009
halnic	-13.4025
hitz	-13.4037
hamale	-13.4042
chaye	-13.4052
chahcanic	-13.4068
meltzoto	-13.4072
cutxbanico	-13.4076
hehun	-13.4087
cheyaben	-13.4106
chaẍma	-13.4115
ajlaxayo	-13.413
biti	-13.4136
aholoj	-13.4158
inbey	-13.4171
alaxocano	-13.4215
abewecanoj	-13.4223
ispohnican	-13.4227
iniltij	-13.4236
fo	-13.4262
wapaxo	-13.4277
coronah	-13.4282
ispajtze	-13.4293
hawechma	-13.4302
maxa	-13.4344
bilach	-13.4356
eman	-13.4392
d	-13.4399
nahil	-13.4408
cotzabayo	-13.4411
chacuycan	-13.4416
cheyilno	-13.4417
ictoj	-13.4421
obo	-13.4423
diá	-13.4423
quexiscuy	-13.4429
ecanico	-13.4432
opaxoj	-13.4435
incan	-13.4435
ipo	-13.4443
hasayni	-13.4448
medi	-13.4452
ismeltzopax	-13.4453
cabc	-13.4459
issayil	-13.4468
wochenico	-13.447
ibom	-13.4473
chaẍin	-13.4478
sem	-13.45
yijno	-13.4515
rob	-13.4522
ijbalo	-13.4527
laxojabi	-13.4533
yanocan	-13.4564
chiwilti	-13.4571
quinhawani	-13.4583
holo	-13.4585
chawawte	-13.4594
incolbanil	-13.4602
hip	-13.4609
chebal	-13.461
ẍt	-13.4633
pah	-13.4647
lnipaxoj	-13.4657
chexoco	-13.4657
islono	-13.4665
hopcha	-13.467
pebalaxcan	-13.4674
natij	-13.4675
chiilaxayo	-13.4684
taho	-13.469
chexijban	-13.47
pnican	-13.4716
bejtzon	-13.4789
hawaben	-13.4794
bahwah	-13.4796
omon	-13.4805
awec	-13.4828
hapaxto	-13.4832
xaheyacan	-13.4879
titnajo	-13.4897
mol	-13.494
yutecanayo	-13.4951
quinyij	-13.4956
chextx	-13.4965
chispol	-13.4993
xataxca	-13.5027
hayeno	-13.5032
ebi	-13.5037
inco	-13.5074
yalax	-13.5078
apaxoj	-13.5083
colayt	-13.5093
juni	-13.5113
.”	-13.5158
yacanic	-13.5165
wilico	-13.5176
yocbal	-13.5211
chiyec	-13.5212
insayic	-13.5232
cheyucano	-13.5246
aynajexto	-13.5266
aga	-13.5294
aptze	-13.5374
ayicoj	-13.5394
chimja	-13.5417
hatohol	-13.5435
meltzopax	-13.5447
leno	-13.5474
xacach	-13.5484
chimhetxum	-13.5498
eyo	-13.5524
istar	-13.562
istenni	-13.5637
ebn	-13.5668
aí	-13.5719
islolax	-13.5753
anipaxico	-13.5775
walil	-13.5862
sajbo	-13.5956
jic	-13.6078
coniman	-13.6151
afir	-13.6162
wochen	-13.6163
inyeni	-13.6205
iscutxbanoc	-13.6273
chexc	-13.631
chiwila	-13.636
yami	-13.6414
chawacan	-13.6414
xaelcan	-13.6415
heme	-13.6422
ipaxiloj	-13.6475
checutxba	-13.6477
ajanoj	-13.6488
txihn	-13.6517
wipaxilo	-13.6518
tra	-13.6531
chancan	-13.6575
yepaxilo	-13.6581
chijay	-13.6583
chiwoc	-13.6583
nipaxayo	-13.6587
chelah	-13.6597
chaẍoc	-13.6614
hexiw	-13.6642
etzaxa	-13.6659
xameltzo	-13.6661
sunilxa	-13.6703
cheyijepaxo	-13.6709
chiuteni	-13.6732
res	-13.6803
quextzala	-13.6852
inhatzumbe	-13.688
ohno	-13.6914
chimaj	-13.694
jah	-13.6976
nipaxico	-13.7011
trif	-13.7034
etantoj	-13.7042
joj	-13.7058
chelahw	-13.7082
conoh	-13.7087
monteni	-13.7102
meltzowe	-13.7147
lectaho	-13.7172
lectah	-13.7188
chicobejcano	-13.7305
uxnito	-13.7311
heyalnilo	-13.7338
chupaxo	-13.7347
cohoy	-13.7434
yalniloj	-13.7458
hebejnicano	-13.7459
laxojabpax	-13.746
chachis	-13.7469
wilpaxo	-13.7503
inmeltzot	-13.7529
cheyocheco	-13.7531
wilti	-13.7565
niẍtej	-13.7588
chanati	-13.7663
quexyiln	-13.7708
ahlaxi	-13.7722
lencan	-13.7722
istohlacan	-13.7731
hepujba	-13.7737
chawten	-13.7824
istopax	-13.7828
incuyni	-13.7832
sín	-13.786
acanico	-13.789
hepajtze	-13.7902
nanon	-13.7906
isyecano	-13.8066
chawe	-13.8119
babelo	-13.8127
istiempo	-13.8131
hachto	-13.8138
uilto	-13.8154
chimu	-13.8173
chinhana	-13.8209
hetxumulo	-13.8376
moh	-13.8414
chinya	-13.8505
chisl	-13.8532
chimhaw	-13.8588
abelaxilo	-13.8616
xaist	-13.8683
ayexoc	-13.8698
chinisc	-13.8877
file	-13.889
chinmuj	-13.8914
ischejnipaxt	-13.8918
enayoj	-13.8925
inipaxilo	-13.8973
owe	-13.9006
chicolni	-13.9051
coxahanbalo	-13.9058
chextzalacan	-13.9062
istxumu	-13.9069
hecolomalo	-13.9103
initoj	-13.911
ismaleno	-13.914
hnipaxo	-13.9154
coselelo	-13.9186
jichec	-13.9255
cabto	-13.9336
chinbej	-13.9408
noyo	-13.9446
chacuy	-13.9449
ismajulo	-13.9471
chextopaxo	-13.9553
bejnicanoj	-13.956
lti	-13.9561
x	-13.9628
acta	-13.9669
yocpax	-13.9711
ayachxac	-13.9714
chinpit	-13.9734
aynajext	-13.9782
quilt	-13.9787
nas	-13.9838
apaxayto	-13.9859
chibabi	-13.992
ufr	-13.9968
mile	-13.9973
cocach	-13.9975
cheyalnipax	-14.0022
abeniloj	-14.0022
xiwpaxoj	-14.0061
nhatzumbe	-14.0151
ispole	-14.0169
chitzalacan	-14.021
itax	-14.0213
yetax	-14.0239
alnolo	-14.033
amó	-14.037
isbejnicanoj	-14.0372
icia	-14.0426
xul	-14.0428
nicanoj	-14.0454
gre	-14.0499
pebalax	-14.0516
ispujna	-14.0549
chijacoj	-14.0635
ijbal	-14.0656
istirlax	-14.072
cutxba	-14.0759
mulumo	-14.0766
heyo	-14.0805
yilpaxo	-14.0833
tohlalax	-14.0866
colw	-14.0888
bilxacan	-14.0895
yocheni	-14.0943
awito	-14.0995
hulpaxo	-14.0999
elaxcan	-14.1001
hunba	-14.1065
etaxcanto	-14.1096
chicowah	-14.1121
chexocto	-14.1188
hasaynic	-14.1203
chexelcan	-14.1207
uy	-14.1298
tzeno	-14.1306
hatelax	-14.1353
isbile	-14.1386
mahajlo	-14.1413
abewecano	-14.1467
cochahnay	-14.1478
yahpaxo	-14.1486
ayx	-14.1566
abenilo	-14.1569
yawtenpax	-14.1595
babelic	-14.1614
hinc	-14.1649
hebey	-14.1697
chiswah	-14.1699
chaẍinna	-14.1726
hni	-14.1727
hawel	-14.1737
iscachn	-14.1738
isnohcan	-14.1739
elic	-14.1751
intzabni	-14.1793
abelax	-14.1875
olni	-14.1906
ol	-14.1917
txumu	-14.1923
hawawte	-14.1944
low	-14.195
xaheyil	-14.198
heyalle	-14.2041
chacach	-14.2092
nipaxilo	-14.2133
pó	-14.2138
encanto	-14.2146
cá	-14.216
xaisye	-14.2195
hapohni	-14.2236
macachan	-14.2242
ox	-14.2248
chiwo	-14.2277
aw	-14.2288
egu	-14.2303
titico	-14.2307
chejti	-14.2323
ptzen	-14.2344
tzujba	-14.2353
chicampaxo	-14.2358
maji	-14.2365
cotucle	-14.2399
crist	-14.2412
mic	-14.2417
luylun	-14.2426
hoyan	-14.2442
welti	-14.2449
cheyabecano	-14.2454
uyn	-14.2458
chexma	-14.2466
yuẍtajo	-14.2489
ispohi	-14.2519
ejn	-14.2531
uẍtaj	-14.2577
collax	-14.258
quinheyiln	-14.2633
lnipax	-14.264
leyanay	-14.2646
chitxum	-14.2654
pujna	-14.2709
intxumu	-14.2719
chejlaxti	-14.2721
cachna	-14.2744
ebilcan	-14.2767
veinti	-14.2773
chinhecha	-14.2791
ayachxa	-14.2812
hawiloj	-14.2836
chiná	-14.2846
chisajbi	-14.2854
hecutxba	-14.2857
chiijban	-14.2862
cachin	-14.2862
istzumben	-14.2867
istzaba	-14.287
ejtzoni	-14.2873
ajba	-14.2878
chicawxen	-14.289
cawxencan	-14.2925
xaheyi	-14.2932
có	-14.2936
insayn	-14.2939
yinoy	-14.2953
gad	-14.2954
yapaxic	-14.2954
tirlax	-14.2963
‘	-15.6212
v	-15.6213
“	-15.6214
―	-15.6215
:	-15.6216
̈	-15.6217
