<pad>	0
</s>	0
<unk>	0
▁t	-0
in	-1
he	-2
▁a	-3
re	-4
on	-5
▁the	-6
at	-7
▁s	-8
en	-9
er	-10
▁c	-11
or	-12
▁o	-13
is	-14
ed	-15
▁w	-16
▁in	-17
es	-18
▁p	-19
an	-20
it	-21
▁of	-22
as	-23
al	-24
▁b	-25
▁f	-26
▁d	-27
ing	-28
▁h	-29
▁to	-30
ar	-31
nd	-32
ion	-33
ent	-34
ou	-35
ic	-36
▁m	-37
il	-38
ac	-39
om	-40
▁and	-41
ve	-42
▁be	-43
▁T	-44
▁th	-45
▁n	-46
le	-47
▁re	-48
id	-49
▁v	-50
ec	-51
▁C	-52
▁is	-53
▁M	-54
tr	-55
os	-56
▁l	-57
us	-58
ation	-59
ir	-60
▁A	-61
▁g	-62
▁e	-63
▁I	-64
▁S	-65
▁The	-66
ay	-67
ow	-68
▁st	-69
ot	-70
▁for	-71
ver	-72
ly	-73
ol	-74
ad	-75
▁on	-76
ur	-77
im	-78
ut	-79
oron	-80
ill	-81
ave	-82
▁are	-83
op	-84
ter	-85
acc	-86
accin	-87
orona	-88
ment	-89
▁vaccin	-90
ect	-91
ate	-92
et	-93
▁P	-94
▁that	-95
▁has	-96
um	-97
▁H	-98
▁pr	-99
▁al	-100
am	-101
oc	-102
▁have	-103
ati	-104
ce	-105
ith	-106
▁con	-107
th	-108
ig	-109
▁D	-110
▁an	-111
▁with	-112
▁B	-113
▁we	-114
ld	-115
un	-116
▁r	-117
od	-118
ak	-119
ch	-120
and	-121
st	-122
▁corona	-123
▁he	-124
rom	-125
▁1	-126
▁was	-127
est	-128
▁as	-129
ers	-130
ents	-131
▁will	-132
ul	-133
▁from	-134
▁W	-135
▁dis	-136
her	-137
iv	-138
fect	-139
▁2	-140
em	-141
ov	-142
▁wh	-143
ies	-144
ort	-145
▁y	-146
▁not	-147
▁pati	-148
▁R	-149
ain	-150
▁or	-151
▁go	-152
ore	-153
▁at	-154
▁sh	-155
ct	-156
if	-157
▁by	-158
se	-159
pp	-160
ab	-161
umb	-162
▁been	-163
ity	-164
ome	-165
ag	-166
▁it	-167
▁de	-168
▁sa	-169
▁patients	-170
oun	-171
▁ex	-172
res	-173
▁this	-174
irus	-175
▁vaccine	-176
▁ne	-177
▁su	-178
vern	-179
▁tr	-180
ial	-181
▁N	-182
vernment	-183
ive	-184
ess	-185
▁In	-186
el	-187
ople	-188
inis	-189
ase	-190
alth	-191
eople	-192
▁O	-193
▁com	-194
ia	-195
▁said	-196
▁inc	-197
▁U	-198
ant	-199
▁wor	-200
ould	-201
qu	-202
ions	-203
so	-204
▁res	-205
ren	-206
▁"	-207
art	-208
ud	-209
▁government	-210
▁(	-211
▁people	-212
pt	-213
ical	-214
▁Th	-215
ated	-216
har	-217
ther	-218
our	-219
▁also	-220
ict	-221
gen	-222
▁F	-223
act	-224
pit	-225
▁im	-226
▁state	-227
hi	-228
red	-229
▁infect	-230
own	-231
ovid	-232
19	-233
▁se	-234
▁numb	-235
port	-236
▁K	-237
ays	-238
iz	-239
▁us	-240
▁cl	-241
▁were	-242
pital	-243
▁ch	-244
▁G	-245
▁ad	-246
▁per	-247
▁virus	-248
▁He	-249
▁can	-250
▁af	-251
ary	-252
▁test	-253
ap	-254
trict	-255
ospital	-256
▁number	-257
▁u	-258
▁sp	-259
▁le	-260
end	-261
out	-262
igh	-263
▁ab	-264
cc	-265
-19	-266
ts	-267
▁Minis	-268
av	-269
▁coun	-270
▁20	-271
▁E	-272
ash	-273
▁Corona	-274
ock	-275
ge	-276
ous	-277
▁sy	-278
▁all	-279
▁Ind	-280
ast	-281
ear	-282
▁countr	-283
gh	-284
any	-285
ib	-286
▁should	-287
▁other	-288
▁work	-289
ard	-290
ime	-291
▁J	-292
▁health	-293
ans	-294
tra	-295
▁Minister	-296
ord	-297
ound	-298
ke	-299
ack	-300
▁there	-301
▁Ma	-302
ough	-303
▁had	-304
▁out	-305
xy	-306
are	-307
ue	-308
▁cent	-309
vel	-310
ose	-311
ail	-312
▁tak	-313
xygen	-314
▁cr	-315
ist	-316
reat	-317
▁hospital	-318
ID	-319
▁me	-320
og	-321
OV	-322
fic	-323
▁comp	-324
ost	-325
OVID	-326
ine	-327
▁app	-328
▁Mahar	-329
ure	-330
ator	-331
ashtra	-332
▁pl	-333
▁after	-334
▁Maharashtra	-335
▁oxygen	-336
▁who	-337
▁ag	-338
▁COVID	-339
▁pre	-340
▁India	-341
▁di	-342
▁V	-343
all	-344
00	-345
▁exp	-346
▁you	-347
▁cont	-348
▁incre	-349
▁Ch	-350
▁whe	-351
ond	-352
age	-353
ild	-354
orm	-355
uc	-356
▁Dr	-357
oV	-358
down	-359
▁hand	-360
▁L	-361
▁dec	-362
ockdown	-363
▁do	-364
ens	-365
ub	-366
able	-367
ance	-368
▁3	-369
ath	-370
▁It	-371
▁dise	-372
▁about	-373
ef	-374
ai	-375
▁more	-376
one	-377
ased	-378
ates	-379
ew	-380
ip	-381
▁This	-382
ile	-383
ases	-384
ong	-385
ide	-386
▁their	-387
▁Pr	-388
▁rec	-389
ations	-390
CoV	-391
▁lockdown	-392
▁than	-393
▁time	-394
arch	-395
nder	-396
▁But	-397
ever	-398
▁new	-399
uct	-400
ight	-401
pr	-402
▁so	-403
read	-404
▁no	-405
▁tw	-406
▁med	-407
▁ef	-408
RS	-409
▁5	-410
▁Wh	-411
ru	-412
▁infection	-413
▁under	-414
ep	-415
lic	-416
ob	-417
form	-418
ll	-419
▁some	-420
▁k	-421
iss	-422
ording	-423
amp	-424
▁disease	-425
▁being	-426
▁vaccination	-427
mpt	-428
▁days	-429
▁vaccines	-430
ice	-431
lud	-432
▁year	-433
ccording	-434
une	-435
▁report	-436
ich	-437
▁one	-438
▁Health	-439
▁country	-440
▁4	-441
▁gr	-442
▁As	-443
▁if	-444
▁these	-445
▁pos	-446
▁sec	-447
▁av	-448
ult	-449
rent	-450
ious	-451
▁There	-452
aus	-453
ition	-454
mptom	-455
▁resp	-456
▁stud	-457
med	-458
▁need	-459
irst	-460
osed	-461
20	-462
▁ev	-463
ool	-464
▁but	-465
ike	-466
ind	-467
▁On	-468
▁qu	-469
▁How	-470
ors	-471
very	-472
▁which	-473
ress	-474
▁includ	-475
▁Un	-476
▁un	-477
▁district	-478
ame	-479
iven	-480
▁ar	-481
ence	-482
ang	-483
▁reg	-484
▁'	-485
▁they	-486
▁first	-487
ass	-488
▁sit	-489
fe	-490
velop	-491
▁many	-492
▁supp	-493
uring	-494
▁treat	-495
ask	-496
aj	-497
ign	-498
ities	-499
▁child	-500
▁ser	-501
▁found	-502
▁spread	-503
ons	-504
▁may	-505
chool	-506
oll	-507
▁second	-508
ures	-509
▁effect	-510
▁symptom	-511
te	-512
ARS	-513
miss	-514
▁two	-515
▁again	-516
▁get	-517
ace	-518
▁last	-519
▁cases	-520
uation	-521
▁such	-522
▁day	-523
▁ris	-524
▁imp	-525
▁over	-526
▁start	-527
umbai	-528
▁up	-529
▁March	-530
▁St	-531
hief	-532
▁Mumbai	-533
▁symptoms	-534
▁SARS	-535
▁develop	-536
virus	-537
▁rel	-538
▁any	-539
ra	-540
oct	-541
▁2020	-542
▁According	-543
▁ac	-544
▁says	-545
▁Chin	-546
mission	-547
▁pers	-548
▁death	-549
olog	-550
▁due	-551
atory	-552
ok	-553
ade	-554
▁given	-555
esh	-556
han	-557
pril	-558
gan	-559
mer	-560
▁cond	-561
lo	-562
▁sc	-563
▁use	-564
▁contr	-565
▁en	-566
▁avail	-567
▁children	-568
ied	-569
▁am	-570
▁situation	-571
▁treatment	-572
ning	-573
▁mon	-574
▁adm	-575
▁dif	-576
▁prev	-577
▁7	-578
▁trans	-579
ek	-580
ach	-581
stem	-582
▁sur	-583
▁wave	-584
ublic	-585
▁like	-586
▁bec	-587
▁cur	-588
▁6	-589
ree	-590
hed	-591
▁only	-592
ted	-593
▁Chief	-594
ire	-595
▁ant	-596
▁However	-597
▁Covid	-598
day	-599
aw	-600
fore	-601
▁school	-602
▁act	-603
ell	-604
▁prod	-605
▁system	-606
ian	-607
▁offic	-608
rough	-609
▁doct	-610
▁your	-611
▁countries	-612
▁inform	-613
▁We	-614
itiz	-615
▁coronavirus	-616
▁ann	-617
▁available	-618
ced	-619
reak	-620
▁comm	-621
▁pres	-622
▁part	-623
▁infected	-624
ute	-625
▁April	-626
▁Cent	-627
▁If	-628
▁prot	-629
▁world	-630
ational	-631
emb	-632
▁gen	-633
▁What	-634
▁during	-635
ro	-636
▁j	-637
anu	-638
▁cons	-639
▁against	-640
▁8	-641
▁announ	-642
▁-	-643
▁risk	-644
000	-645
ited	-646
▁how	-647
▁inter	-648
▁provid	-649
ove	-650
ject	-651
ident	-652
▁10	-653
▁caus	-654
▁when	-655
hing	-656
icip	-657
▁int	-658
ating	-659
▁used	-660
▁every	-661
▁now	-662
ivir	-663
▁mask	-664
▁while	-665
lect	-666
▁col	-667
▁week	-668
ally	-669
▁bed	-670
▁Pune	-671
▁those	-672
per	-673
▁str	-674
inistr	-675
▁restrict	-676
▁vaccinated	-677
."	-678
▁pol	-679
▁home	-680
-2	-681
▁Af	-682
▁them	-683
▁import	-684
dd	-685
▁care	-686
▁take	-687
we	-688
les	-689
▁9	-690
ody	-691
ting	-692
▁ind	-693
acker	-694
▁taken	-695
ral	-696
▁medical	-697
▁hospitals	-698
ackeray	-699
,000	-700
▁Thackeray	-701
pe	-702
akh	-703
emic	-704
▁ph	-705
▁exper	-706
▁public	-707
▁reported	-708
▁his	-709
owed	-710
▁through	-711
uch	-712
break	-713
ible	-714
▁person	-715
ater	-716
anc	-717
rug	-718
▁add	-719
ility	-720
▁lar	-721
▁outbreak	-722
▁drug	-723
▁made	-724
▁bet	-725
▁rem	-726
▁restrictions	-727
ust	-728
stit	-729
ural	-730
owing	-731
▁China	-732
▁kn	-733
▁its	-734
hav	-735
li	-736
omm	-737
ific	-738
ata	-739
▁beds	-740
▁would	-741
ech	-742
ery	-743
▁disc	-744
ope	-745
▁iss	-746
▁lakh	-747
▁Al	-748
ative	-749
▁So	-750
ices	-751
▁workers	-752
▁red	-753
itive	-754
▁dr	-755
▁patient	-756
▁Sh	-757
▁dep	-758
▁contact	-759
▁current	-760
ish	-761
vers	-762
).	-763
cy	-764
▁even	-765
▁hum	-766
▁including	-767
ials	-768
▁areas	-769
▁covid	-770
▁meet	-771
▁trave	-772
▁Hospital	-773
▁announced	-774
▁Y	-775
▁An	-776
▁soc	-777
▁short	-778
oss	-779
▁Raj	-780
asing	-781
▁requ	-782
icipal	-783
unicipal	-784
als	-785
▁loc	-786
ark	-787
eng	-788
ected	-789
▁month	-790
▁important	-791
ake	-792
aking	-793
▁dem	-794
▁var	-795
▁started	-796
▁high	-797
ms	-798
hen	-799
▁Mod	-800
▁foll	-801
▁information	-802
▁exam	-803
▁most	-804
inistration	-805
ri	-806
ision	-807
▁well	-808
und	-809
▁prevent	-810
▁travel	-811
▁call	-812
▁come	-813
▁years	-814
itizens	-815
lu	-816
▁say	-817
▁same	-818
▁increased	-819
),	-820
ines	-821
▁what	-822
▁affect	-823
▁hig	-824
ential	-825
ying	-826
▁diffe	-827
▁testing	-828
uss	-829
amil	-830
ized	-831
▁che	-832
▁hel	-833
ember	-834
▁poss	-835
▁spec	-836
▁tests	-837
▁closed	-838
ared	-839
▁did	-840
▁our	-841
▁After	-842
▁states	-843
ne	-844
▁level	-845
▁help	-846
▁hour	-847
▁serv	-848
▁doctors	-849
way	-850
arly	-851
other	-852
ned	-853
rit	-854
ings	-855
▁fac	-856
▁respir	-857
▁large	-858
The	-859
ise	-860
ween	-861
uction	-862
▁hands	-863
▁Go	-864
cent	-865
rect	-866
▁then	-867
artment	-868
▁supply	-869
▁few	-870
▁increasing	-871
ank	-872
try	-873
▁body	-874
▁city	-875
▁mill	-876
▁rate	-877
▁positive	-878
▁effective	-879
BC	-880
eral	-881
▁ass	-882
▁crore	-883
▁increase	-884
ince	-885
ven	-886
▁demand	-887
ology	-888
▁between	-889
▁case	-890
▁where	-891
▁control	-892
▁administration	-893
ff	-894
erv	-895
▁ent	-896
▁priv	-897
▁Udd	-898
▁far	-899
▁proc	-900
▁Uddhav	-901
oth	-902
▁lead	-903
▁acc	-904
▁low	-905
▁deaths	-906
ety	-907
ior	-908
ules	-909
▁camp	-910
ucation	-911
▁Center	-912
▁students	-913
▁Del	-914
ganiz	-915
▁Modi	-916
▁2020,	-917
▁comple	-918
▁present	-919
oses	-920
ering	-921
▁quest	-922
app	-923
ird	-924
▁ed	-925
▁cle	-926
▁surve	-927
▁imm	-928
▁data	-929
▁died	-930
▁into	-931
ousand	-932
▁contin	-933
ics	-934
vere	-935
▁att	-936
por	-937
▁age	-938
▁Delhi	-939
pur	-940
▁For	-941
▁very	-942
iod	-943
ness	-944
oved	-945
arant	-946
ended	-947
gency	-948
▁could	-949
▁direct	-950
▁central	-951
▁respiratory	-952
ked	-953
▁ins	-954
▁ord	-955
▁appr	-956
▁does	-957
oup	-958
▁At	-959
tain	-960
▁three	-961
▁around	-962
▁Am	-963
gest	-964
▁before	-965
▁period	-966
▁citizens	-967
▁ke	-968
▁set	-969
▁BBC	-970
▁Com	-971
▁samp	-972
▁fe	-973
unity	-974
old	-975
▁19	-976
aign	-977
ists	-978
▁15	-979
▁crit	-980
▁dose	-981
▁decision	-982
▁op	-983
▁ro	-984
aces	-985
ient	-986
ivers	-987
▁dist	-988
anuary	-989
ik	-990
▁UK	-991
▁emer	-992
▁meas	-993
▁rece	-994
▁doses	-995
▁thousand	-996
ick	-997
ves	-998
▁man	-999
entil	-1000
▁million	-1001
▁decl	-1002
▁severe	-1003
▁campaign	-1004
ised	-1005
▁issu	-1006
▁Prime	-1007
▁meeting	-1008
▁conf	-1009
stitute	-1010
▁social	-1011
oid	-1012
▁ob	-1013
▁inv	-1014
▁These	-1015
▁coron	-1016
▁recomm	-1017
▁without	-1018
get	-1019
uce	-1020
ause	-1021
ered	-1022
▁clos	-1023
▁Or	-1024
▁pro	-1025
▁prop	-1026
▁hours	-1027
▁private	-1028
▁different	-1029
xt	-1030
▁te	-1031
idence	-1032
▁Nag	-1033
ha	-1034
ric	-1035
itted	-1036
mp	-1037
its	-1038
▁est	-1039
▁lab	-1040
▁pass	-1041
▁12	-1042
▁plan	-1043
▁tested	-1044
▁January	-1045
▁allowed	-1046
▁May	-1047
▁inf	-1048
▁famil	-1049
▁ventil	-1050
alk	-1051
▁Bi	-1052
iate	-1053
eb	-1054
apid	-1055
▁rese	-1056
▁United	-1057
▁working	-1058
▁possible	-1059
iew	-1060
▁Rs	-1061
▁sm	-1062
inical	-1063
▁rules	-1064
▁percent	-1065
ung	-1066
HO	-1067
ages	-1068
▁Of	-1069
▁vir	-1070
▁make	-1071
▁Vaccin	-1072
ug	-1073
▁50	-1074
ators	-1075
ution	-1076
▁washing	-1077
cer	-1078
opul	-1079
▁open	-1080
▁antib	-1081
▁Institute	-1082
ebru	-1083
▁group	-1084
ebruary	-1085
▁schools	-1086
ax	-1087
uced	-1088
▁Wor	-1089
ments	-1090
▁rapid	-1091
ys	-1092
lood	-1093
▁sub	-1094
▁Municipal	-1095
ix	-1096
eld	-1097
esp	-1098
ron	-1099
▁des	-1100
ality	-1101
▁long	-1102
▁prob	-1103
▁quarant	-1104
▁bo	-1105
▁sim	-1106
▁They	-1107
ically	-1108
▁local	-1109
▁24	-1110
▁study	-1111
ganization	-1112
▁Government	-1113
kar	-1114
oin	-1115
▁11	-1116
▁Bh	-1117
aren	-1118
ason	-1119
ired	-1120
▁main	-1121
▁States	-1122
▁center	-1123
▁February	-1124
rap	-1125
▁Ad	-1126
▁Some	-1127
▁back	-1128
▁ext	-1129
▁Many	-1130
andemic	-1131
mediate	-1132
▁14	-1133
▁gu	-1134
▁Med	-1135
▁area	-1136
▁popul	-1137
ination	-1138
▁discuss	-1139
▁whether	-1140
▁shortage	-1141
uk	-1142
ien	-1143
ially	-1144
▁called	-1145
▁company	-1146
arr	-1147
line	-1148
ross	-1149
arket	-1150
▁down	-1151
▁addition	-1152
▁developed	-1153
▁Spe	-1154
▁air	-1155
▁lim	-1156
▁less	-1157
▁vill	-1158
▁Speaking	-1159
▁affected	-1160
▁adv	-1161
▁pandemic	-1162
ood	-1163
tal	-1164
▁co	-1165
▁Union	-1166
▁human	-1167
▁using	-1168
illance	-1169
▁education	-1170
▁ty	-1171
onom	-1172
▁held	-1173
▁lear	-1174
▁masks	-1175
▁rural	-1176
▁regard	-1177
oh	-1178
ale	-1179
ces	-1180
▁hy	-1181
ults	-1182
orpor	-1183
ention	-1184
esivir	-1185
▁blood	-1186
▁protect	-1187
▁30	-1188
lement	-1189
▁because	-1190
ram	-1191
▁ep	-1192
ived	-1193
outh	-1194
▁rele	-1195
▁seen	-1196
itions	-1197
▁across	-1198
▁gl	-1199
ives	-1200
▁fact	-1201
▁still	-1202
▁measures	-1203
▁department	-1204
▁bat	-1205
▁don	-1206
▁since	-1207
▁total	-1208
▁months	-1209
oci	-1210
▁ill	-1211
▁occ	-1212
▁much	-1213
▁remed	-1214
▁transmission	-1215
me	-1216
urs	-1217
▁wom	-1218
odies	-1219
▁both	-1220
▁done	-1221
▁stop	-1222
▁Therefore	-1223
ink	-1224
loy	-1225
ange	-1226
ouse	-1227
▁Mar	-1228
▁result	-1229
▁process	-1230
ev	-1231
owd	-1232
▁Me	-1233
▁lo	-1234
-19.	-1235
▁four	-1236
▁heart	-1237
▁Rajesh	-1238
▁clinical	-1239
ah	-1240
ars	-1241
▁18	-1242
ined	-1243
ovac	-1244
▁among	-1245
▁today	-1246
▁conduct	-1247
▁include	-1248
▁Tr	-1249
▁prog	-1250
▁chang	-1251
▁provide	-1252
▁currently	-1253
CE	-1254
par	-1255
▁Ser	-1256
▁cre	-1257
▁Kovid	-1258
▁places	-1259
▁proble	-1260
ful	-1261
ops	-1262
▁Se	-1263
ants	-1264
▁end	-1265
▁mod	-1266
ified	-1267
▁find	-1268
▁going	-1269
▁sever	-1270
▁production	-1271
ins	-1272
ten	-1273
fact	-1274
imes	-1275
onse	-1276
▁Con	-1277
▁medic	-1278
▁contain	-1279
▁Ministry	-1280
▁sent	-1281
▁soap	-1282
urther	-1283
▁Nagpur	-1284
▁taking	-1285
orporation	-1286
▁emergency	-1287
▁Dep	-1288
▁WHO	-1289
▁him	-1290
truct	-1291
▁avoid	-1292
▁third	-1293
▁diffic	-1294
▁implement	-1295
cept	-1296
▁Rem	-1297
▁sus	-1298
▁epid	-1299
▁next	-1300
▁till	-1301
▁higher	-1302
▁market	-1303
▁surveillance	-1304
led	-1305
▁1.	-1306
▁det	-1307
▁train	-1308
▁inject	-1309
▁samples	-1310
▁question	-1311
▁difficult	-1312
wn	-1313
hes	-1314
leg	-1315
ret	-1316
▁cap	-1317
▁When	-1318
atives	-1319
▁known	-1320
iving	-1321
▁HCoV	-1322
ovacin	-1323
▁World	-1324
▁asked	-1325
▁issued	-1326
▁imposed	-1327
▁IC	-1328
ters	-1329
▁know	-1330
▁pract	-1331
▁population	-1332
▁met	-1333
▁Tope	-1334
▁cell	-1335
▁five	-1336
▁stat	-1337
▁place	-1338
▁doctor	-1339
essential	-1340
▁according	-1341
▁conditions	-1342
alf	-1343
▁All	-1344
▁cris	-1345
▁sign	-1346
anufact	-1347
▁research	-1348
▁response	-1349
uth	-1350
▁tem	-1351
▁isol	-1352
▁another	-1353
▁experts	-1354
▁complete	-1355
SC	-1356
ory	-1357
▁Ex	-1358
▁New	-1359
▁happ	-1360
▁State	-1361
▁become	-1362
▁remain	-1363
iversity	-1364
aly	-1365
ual	-1366
▁emp	-1367
▁min	-1368
▁stay	-1369
▁cause	-1370
▁fight	-1371
▁house	-1372
▁serious	-1373
▁support	-1374
▁Commission	-1375
aff	-1376
ane	-1377
▁Gu	-1378
ided	-1379
▁ret	-1380
▁fire	-1381
▁keep	-1382
▁told	-1383
though	-1384
▁crisis	-1385
▁Col	-1386
▁Prad	-1387
▁susp	-1388
▁fever	-1389
▁likely	-1390
▁further	-1391
▁approved	-1392
▁immediate	-1393
anj	-1394
▁bu	-1395
▁ec	-1396
care	-1397
tern	-1398
lying	-1399
▁post	-1400
▁crowd	-1401
▁Indian	-1402
▁services	-1403
ese	-1404
ork	-1405
▁bl	-1406
▁sl	-1407
▁good	-1408
▁vari	-1409
▁early	-1410
▁trials	-1411
▁br	-1412
cing	-1413
fort	-1414
here	-1415
▁200	-1416
▁Serum	-1417
▁regul	-1418
▁small	-1419
▁staff	-1420
▁family	-1421
▁ter	-1422
▁yet	-1423
▁guid	-1424
▁facil	-1425
▁ident	-1426
▁least	-1427
▁rapidly	-1428
▁manufact	-1429
▁Organization	-1430
▁form	-1431
▁lung	-1432
▁water	-1433
▁concer	-1434
▁confir	-1435
▁continue	-1436
▁coronary	-1437
▁infections	-1438
CR	-1439
aim	-1440
ues	-1441
ilar	-1442
wide	-1443
▁mut	-1444
ather	-1445
▁phase	-1446
▁police	-1447
▁Chinese	-1448
▁Corporation	-1449
wh	-1450
▁US	-1451
▁my	-1452
echn	-1453
▁And	-1454
ecess	-1455
uthor	-1456
▁anim	-1457
▁admitted	-1458
obal	-1459
▁sug	-1460
▁econom	-1461
▁strain	-1462
▁centers	-1463
▁University	-1464
▁Fr	-1465
fety	-1466
uhan	-1467
▁rep	-1468
▁face	-1469
go	-1470
▁Z	-1471
els	-1472
▁cy	-1473
▁run	-1474
ience	-1475
▁breat	-1476
▁proper	-1477
▁reduce	-1478
▁various	-1479
▁closures	-1480
▁condition	-1481
▁essential	-1482
sp	-1483
lis	-1484
▁Is	-1485
▁fl	-1486
oung	-1487
▁hot	-1488
▁Bhar	-1489
▁labor	-1490
▁prote	-1491
▁ve	-1492
hest	-1493
▁Dis	-1494
aving	-1495
▁sect	-1496
arents	-1497
▁media	-1498
▁.	-1499
ajor	-1500
▁arr	-1501
▁let	-1502
▁non	-1503
▁vis	-1504
▁Offic	-1505
▁weeks	-1506
▁People	-1507
▁distance	-1508
tt	-1509
aid	-1510
ured	-1511
view	-1512
▁Res	-1513
▁Sat	-1514
▁beg	-1515
▁flu	-1516
▁san	-1517
based	-1518
▁each	-1519
▁major	-1520
ibility	-1521
▁epidemic	-1522
ERS	-1523
sel	-1524
▁16	-1525
ndra	-1526
aring	-1527
ining	-1528
▁init	-1529
▁read	-1530
engers	-1531
▁monit	-1532
▁common	-1533
▁Pradesh	-1534
▁getting	-1535
▁transport	-1536
NA	-1537
aily	-1538
avati	-1539
ently	-1540
▁lack	-1541
lished	-1542
▁based	-1543
▁claim	-1544
▁polit	-1545
▁within	-1546
ma	-1547
agn	-1548
ote	-1549
abad	-1550
▁Cov	-1551
▁fin	-1552
▁six	-1553
iness	-1554
▁minis	-1555
▁women	-1556
arendra	-1557
▁coming	-1558
▁compan	-1559
air	-1560
ends	-1561
omes	-1562
▁Dec	-1563
acity	-1564
▁June	-1565
▁pain	-1566
▁class	-1567
▁caused	-1568
▁immune	-1569
▁similar	-1570
▁suggest	-1571
▁community	-1572
JP	-1573
ite	-1574
nal	-1575
not	-1576
▁Re	-1577
athi	-1578
▁obs	-1579
▁Wuhan	-1580
▁Medical	-1581
▁collect	-1582
▁Narendra	-1583
wal	-1584
▁sw	-1585
▁neg	-1586
▁ref	-1587
▁head	-1588
▁cough	-1589
▁touch	-1590
▁follow	-1591
▁decided	-1592
▁parents	-1593
oub	-1594
til	-1595
▁Sp	-1596
aled	-1597
ustr	-1598
▁ben	-1599
▁big	-1600
rence	-1601
ually	-1602
▁chall	-1603
▁retur	-1604
▁highest	-1605
▁several	-1606
▁village	-1607
▁capacity	-1608
▁required	-1609
acy	-1610
eet	-1611
ards	-1612
trib	-1613
▁Pre	-1614
▁Also	-1615
▁close	-1616
▁press	-1617
▁respons	-1618
hers	-1619
land	-1620
▁Paw	-1621
▁Sec	-1622
▁own	-1623
▁2019	-1624
▁Biot	-1625
ravati	-1626
▁influ	-1627
▁employ	-1628
▁effects	-1629
▁related	-1630
▁expected	-1631
▁companies	-1632
▁antibodies	-1633
atic	-1634
neum	-1635
▁BJP	-1636
▁bus	-1637
▁she	-1638
iting	-1639
▁cold	-1640
▁Remed	-1641
▁chest	-1642
▁daily	-1643
ability	-1644
▁others	-1645
▁project	-1646
▁Although	-1647
▁received	-1648
▁conducted	-1649
▁underlying	-1650
hy	-1651
ns	-1652
up	-1653
ption	-1654
▁able	-1655
▁order	-1656
▁stand	-1657
▁cannot	-1658
▁safety	-1659
▁diseases	-1660
▁evidence	-1661
▁confirmed	-1662
anwh	-1663
▁Eur	-1664
▁Pol	-1665
▁spe	-1666
▁here	-1667
▁estim	-1668
▁gener	-1669
▁tweet	-1670
▁young	-1671
anwhile	-1672
▁necess	-1673
▁distrib	-1674
▁results	-1675
▁development	-1676
21	-1677
▁RT	-1678
-19,	-1679
ivid	-1680
side	-1681
▁ICU	-1682
ature	-1683
hield	-1684
▁MERS	-1685
▁cour	-1686
▁half	-1687
elines	-1688
▁activ	-1689
▁cance	-1690
▁night	-1691
▁global	-1692
▁Marathi	-1693
▁growing	-1694
▁viruses	-1695
ife	-1696
wad	-1697
▁tal	-1698
▁Even	-1699
▁Pawar	-1700
▁South	-1701
▁lives	-1702
▁pneum	-1703
▁humans	-1704
▁reason	-1705
▁scient	-1706
▁Amravati	-1707
▁provided	-1708
▁relatives	-1709
▁quarantine	-1710
ford	-1711
oint	-1712
rest	-1713
▁her	-1714
▁give	-1715
▁Bharat	-1716
▁Europe	-1717
▁action	-1718
▁ventilators	-1719
na	-1720
ism	-1721
▁1,	-1722
ount	-1723
▁Gen	-1724
▁ful	-1725
▁pot	-1726
▁why	-1727
▁clean	-1728
ecially	-1729
▁cities	-1730
▁invest	-1731
▁instruct	-1732
▁districts	-1733
ry	-1734
iqu	-1735
ians	-1736
osis	-1737
▁100	-1738
▁She	-1739
▁You	-1740
going	-1741
▁look	-1742
▁show	-1743
▁want	-1744
ressed	-1745
▁Italy	-1746
▁store	-1747
▁active	-1748
▁online	-1749
▁Biotech	-1750
▁persons	-1751
▁national	-1752
▁Meanwhile	-1753
icy	-1754
man	-1755
tle	-1756
▁No	-1757
ohol	-1758
onia	-1759
▁Ass	-1760
▁see	-1761
▁war	-1762
▁way	-1763
▁came	-1764
▁chec	-1765
▁needs	-1766
▁shops	-1767
istered	-1768
▁though	-1769
especially	-1770
▁spreading	-1771
,"	-1772
ims	-1773
▁25	-1774
▁sen	-1775
▁orig	-1776
ending	-1777
idered	-1778
istics	-1779
▁While	-1780
▁acute	-1781
▁think	-1782
▁National	-1783
▁facilities	-1784
▁registered	-1785
DC	-1786
za	-1787
PCR	-1788
▁off	-1789
▁mort	-1790
▁stock	-1791
▁outside	-1792
▁everyone	-1793
▁especially	-1794
We	-1795
ana	-1796
izer	-1797
ront	-1798
▁cod	-1799
▁prom	-1800
▁took	-1801
▁taluk	-1802
▁times	-1803
▁strict	-1804
▁problems	-1805
▁municipal	-1806
▁immediately	-1807
oon	-1808
ped	-1809
▁To	-1810
ling	-1811
▁Why	-1812
acter	-1813
cohol	-1814
▁away	-1815
▁oper	-1816
▁reco	-1817
▁seem	-1818
▁sequ	-1819
overed	-1820
▁happen	-1821
▁influen	-1822
▁monitor	-1823
▁perform	-1824
▁potential	-1825
uty	-1826
▁17	-1827
▁ca	-1828
▁ur	-1829
▁Pat	-1830
ached	-1831
▁room	-1832
▁safe	-1833
▁clear	-1834
▁decre	-1835
▁needed	-1836
▁individ	-1837
▁program	-1838
▁service	-1839
▁December	-1840
▁officials	-1841
▁considered	-1842
ara	-1843
▁Do	-1844
lain	-1845
ular	-1846
▁cost	-1847
▁jour	-1848
ensive	-1849
▁prior	-1850
▁techn	-1851
▁author	-1852
▁sanitiz	-1853
▁following	-1854
ym	-1855
▁Ar	-1856
▁De	-1857
fizer	-1858
▁path	-1859
retary	-1860
▁diagn	-1861
▁reach	-1862
▁viral	-1863
ological	-1864
▁released	-1865
▁necessary	-1866
▁31	-1867
apur	-1868
etic	-1869
▁CoV	-1870
▁kill	-1871
▁During	-1872
▁Pfizer	-1873
▁illness	-1874
▁negative	-1875
ala	-1876
▁40	-1877
▁aw	-1878
arli	-1879
▁Kar	-1880
▁tre	-1881
acted	-1882
ights	-1883
alking	-1884
utions	-1885
▁Contr	-1886
▁School	-1887
▁review	-1888
▁influenza	-1889
.5	-1890
hod	-1891
lor	-1892
war	-1893
▁60	-1894
▁Now	-1895
▁Utt	-1896
▁equ	-1897
▁host	-1898
▁just	-1899
▁estab	-1900
▁applic	-1901
▁enough	-1902
▁letter	-1903
▁special	-1904
▁pneumonia	-1905
▁recommended	-1906
CG	-1907
cr	-1908
▁Ph	-1909
▁ra	-1910
▁sol	-1911
▁2021	-1912
▁Sing	-1913
▁card	-1914
▁appro	-1915
ptember	-1916
▁appear	-1917
▁having	-1918
▁mortality	-1919
cl	-1920
sw	-1921
▁0	-1922
▁z	-1923
hip	-1924
nes	-1925
▁pm	-1926
▁pub	-1927
▁disp	-1928
▁mild	-1929
▁writ	-1930
▁issue	-1931
▁leaders	-1932
▁informed	-1933
▁declining	-1934
▁guidelines	-1935
ateg	-1936
▁typ	-1937
▁appe	-1938
▁free	-1939
▁task	-1940
▁Uttar	-1941
▁means	-1942
▁change	-1943
▁origin	-1944
▁investig	-1945
▁learning	-1946
▁regarding	-1947
▁Remedesivir	-1948
ft	-1949
gr	-1950
iat	-1951
ily	-1952
▁13	-1953
▁Ab	-1954
iday	-1955
lder	-1956
term	-1957
uals	-1958
▁ACE	-1959
▁One	-1960
▁mat	-1961
▁pur	-1962
ndrom	-1963
ories	-1964
xford	-1965
▁Pres	-1966
▁check	-1967
▁force	-1968
▁until	-1969
▁levels	-1970
▁employe	-1971
▁questions	-1972
cle	-1973
reg	-1974
▁21	-1975
▁22	-1976
pite	-1977
▁fun	-1978
▁food	-1979
▁tank	-1980
infect	-1981
▁cells	-1982
▁drugs	-1983
▁elect	-1984
▁later	-1985
▁consid	-1986
▁method	-1987
▁taluka	-1988
▁covacin	-1989
▁general	-1990
ead	-1991
ved	-1992
▁23	-1993
lied	-1994
▁Sur	-1995
▁ban	-1996
▁del	-1997
ances	-1998
ccess	-1999
endra	-2000
▁carr	-2001
▁type	-2002
▁wash	-2003
▁front	-2004
▁invol	-2005
▁intern	-2006
▁implemented	-2007
kn	-2008
ada	-2009
elf	-2010
▁Aj	-2011
▁En	-2012
▁po	-2013
less	-2014
▁lot	-2015
▁pay	-2016
irect	-2017
▁sing	-2018
▁great	-2019
▁Oxford	-2020
▁temper	-2021
▁business	-2022
▁September	-2023
▁experience	-2024
▁passengers	-2025
set	-2026
▁28	-2027
▁45	-2028
enec	-2029
ising	-2030
▁Brit	-2031
▁Pati	-2032
▁fear	-2033
ndrome	-2034
ymptom	-2035
▁above	-2036
▁began	-2037
▁examp	-2038
ishield	-2039
▁observ	-2040
▁record	-2041
▁Central	-2042
▁District	-2043
▁critical	-2044
▁Vaccination	-2045
▁examination	-2046
'.	-2047
az	-2048
the	-2049
ashi	-2050
lege	-2051
▁Ram	-2052
▁cer	-2053
▁dev	-2054
▁par	-2055
ready	-2056
▁grow	-2057
ancial	-2058
▁might	-2059
ificant	-2060
osition	-2061
▁preval	-2062
▁already	-2063
▁demanded	-2064
▁healthcare	-2065
ty	-2066
arb	-2067
kin	-2068
ule	-2069
▁la	-2070
ogen	-2071
▁201	-2072
▁Can	-2073
▁mor	-2074
ately	-2075
ustry	-2076
▁full	-2077
▁prep	-2078
▁sick	-2079
▁step	-2080
action	-2081
▁2020.	-2082
▁shown	-2083
▁senior	-2084
▁alcohol	-2085
▁completely	-2086
mb	-2087
con	-2088
ela	-2089
few	-2090
▁Tw	-2091
ield	-2092
traZ	-2093
eneca	-2094
▁feel	-2095
▁mult	-2096
▁genome	-2097
▁reserv	-2098
▁single	-2099
▁isolation	-2100
▁political	-2101
▁published	-2102
▁worldwide	-2103
▁Department	-2104
▁significant	-2105
▁/	-2106
erm	-2107
nav	-2108
▁Di	-2109
itte	-2110
umar	-2111
▁RNA	-2112
▁fig	-2113
▁lit	-2114
asons	-2115
osure	-2116
▁More	-2117
▁deli	-2118
▁side	-2119
▁toll	-2120
▁Resear	-2121
▁critic	-2122
▁journal	-2123
▁reached	-2124
traZeneca	-2125
HE	-2126
In	-2127
rs	-2128
idd	-2129
ium	-2130
ump	-2131
▁Sc	-2132
uted	-2133
▁Fad	-2134
▁opp	-2135
▁put	-2136
navis	-2137
▁bats	-2138
▁fill	-2139
▁mand	-2140
▁news	-2141
▁soon	-2142
▁team	-2143
▁vict	-2144
▁often	-2145
▁rates	-2146
▁separ	-2147
▁office	-2148
▁survey	-2149
▁things	-2150
▁trying	-2151
▁example	-2152
▁numbers	-2153
▁reduced	-2154
▁success	-2155
▁Fadnavis	-2156
▁maintain	-2157
▁minister	-2158
▁planning	-2159
▁produced	-2160
▁underway	-2161
▁President	-2162
▁practices	-2163
arc	-2164
ocol	-2165
utes	-2166
work	-2167
▁anti	-2168
▁must	-2169
▁nurs	-2170
▁once	-2171
▁past	-2172
▁soci	-2173
▁alleg	-2174
▁Public	-2175
▁effort	-2176
▁partic	-2177
▁therap	-2178
▁reasons	-2179
▁Lockdown	-2180
▁Patients	-2181
".	-2182
edd	-2183
vir	-2184
▁70	-2185
gien	-2186
itis	-2187
▁Man	-2188
▁Son	-2189
▁dry	-2190
ening	-2191
▁Home	-2192
▁prim	-2193
ricult	-2194
▁begin	-2195
▁benef	-2196
▁build	-2197
▁right	-2198
▁offices	-2199
▁statement	-2200
▁laboratory	-2201
▁statistics	-2202
▁instructions	-2203
bo	-2204
ged	-2205
▁80	-2206
▁Ag	-2207
▁pe	-2208
▁wa	-2209
aper	-2210
like	-2211
lish	-2212
▁too	-2213
aster	-2214
ittee	-2215
▁High	-2216
▁chain	-2217
▁exams	-2218
▁organ	-2219
▁trial	-2220
▁curfew	-2221
▁changes	-2222
▁require	-2223
▁victims	-2224
▁industry	-2225
▁syndrome	-2226
▁discussed	-2227
▁developing	-2228
▁individuals	-2229
CGP	-2230
lam	-2231
lim	-2232
self	-2233
tric	-2234
year	-2235
▁Ajit	-2236
▁date	-2237
▁suff	-2238
▁view	-2239
arlier	-2240
agement	-2241
▁causes	-2242
ociation	-2243
▁immunity	-2244
▁previous	-2245
▁suspected	-2246
▁vaccinate	-2247
▁infectious	-2248
PE	-2249
hea	-2250
irc	-2251
lec	-2252
part	-2253
▁Par	-2254
acing	-2255
▁That	-2256
▁fore	-2257
▁inst	-2258
▁left	-2259
▁phys	-2260
▁rest	-2261
▁went	-2262
▁Chand	-2263
▁Other	-2264
▁equip	-2265
▁regis	-2266
▁waste	-2267
▁Direct	-2268
▁animal	-2269
▁commun	-2270
▁hygien	-2271
▁impact	-2272
▁limited	-2273
▁reports	-2274
▁variant	-2275
▁directly	-2276
▁exposure	-2277
▁employees	-2278
▁incidence	-2279
▁coronaviruses	-2280
gn	-2281
ox	-2282
pl	-2283
alg	-2284
ani	-2285
agar	-2286
ande	-2287
ffic	-2288
▁ens	-2289
andid	-2290
unday	-2291
▁Drug	-2292
▁Kumb	-2293
▁name	-2294
▁role	-2295
▁Deputy	-2296
▁entire	-2297
▁stopped	-2298
▁breathing	-2299
aik	-2300
hat	-2301
hic	-2302
▁Ra	-2303
▁Not	-2304
▁bas	-2305
▁tow	-2306
▁Cong	-2307
▁Cons	-2308
▁Mela	-2309
▁Russ	-2310
▁circ	-2311
▁doub	-2312
▁life	-2313
▁Kumbh	-2314
▁Thane	-2315
ference	-2316
▁Police	-2317
▁candid	-2318
▁sector	-2319
▁sequen	-2320
▁General	-2321
▁Vaccine	-2322
▁created	-2323
▁Secretary	-2324
▁financial	-2325
▁president	-2326
▁injections	-2327
▁governments	-2328
io	-2329
ern	-2330
ify	-2331
ize	-2332
▁90	-2333
▁Ed	-2334
aged	-2335
enge	-2336
harm	-2337
ideo	-2338
pted	-2339
▁RSC	-2340
ction	-2341
▁RCGP	-2342
▁answ	-2343
▁nose	-2344
▁surf	-2345
▁diarr	-2346
▁onset	-2347
ociated	-2348
▁Friday	-2349
▁produce	-2350
▁Congress	-2351
▁families	-2352
▁followed	-2353
▁expressed	-2354
▁permission	-2355
▁Commissioner	-2356
▁2.	-2357
▁26	-2358
used	-2359
▁cor	-2360
▁job	-2361
▁mic	-2362
anger	-2363
awala	-2364
▁Care	-2365
▁Dise	-2366
▁With	-2367
▁diab	-2368
▁miss	-2369
ession	-2370
▁Kumar	-2371
▁lower	-2372
▁occur	-2373
iveness	-2374
▁Sunday	-2375
▁leader	-2376
▁season	-2377
▁strateg	-2378
▁economic	-2379
▁equipment	-2380
▁effectiveness	-2381
br	-2382
yn	-2383
der	-2384
ets	-2385
iot	-2386
▁Hy	-2387
▁Sa	-2388
▁ce	-2389
ense	-2390
loro	-2391
omet	-2392
▁CDC	-2393
asion	-2394
uture	-2395
verse	-2396
▁Comm	-2397
▁Shiv	-2398
▁kits	-2399
▁reli	-2400
gether	-2401
ources	-2402
▁Afric	-2403
▁board	-2404
▁effic	-2405
▁parts	-2406
▁ensure	-2407
▁studies	-2408
▁announce	-2409
▁pressure	-2410
▁specific	-2411
▁together	-2412
ymptomatic	-2413
▁challenge	-2414
▁undergoing	-2415
▁authorities	-2416
of	-2417
fer	-2418
hib	-2419
orn	-2420
ched	-2421
clud	-2422
▁App	-2423
▁fre	-2424
inary	-2425
quine	-2426
thing	-2427
▁Kore	-2428
▁Most	-2429
▁Only	-2430
▁aver	-2431
▁impr	-2432
▁laun	-2433
▁move	-2434
urrent	-2435
▁Patil	-2436
▁relig	-2437
▁track	-2438
▁video	-2439
▁became	-2440
▁future	-2441
▁raised	-2442
▁genetic	-2443
loroquine	-2444
▁official	-2445
▁protocol	-2446
▁mandatory	-2447
▁temperature	-2448
mon	-2449
rop	-2450
▁(1	-2451
▁Vas	-2452
▁ago	-2453
ashik	-2454
enstr	-2455
▁Will	-2456
▁fail	-2457
▁memb	-2458
▁prof	-2459
▁real	-2460
▁mater	-2461
▁postp	-2462
▁pregn	-2463
▁Nashik	-2464
▁design	-2465
▁events	-2466
▁groups	-2467
▁Control	-2468
▁figures	-2469
▁protein	-2470
▁systems	-2471
▁wearing	-2472
formation	-2473
▁Research	-2474
▁agricult	-2475
▁controls	-2476
▁occasion	-2477
▁Education	-2478
▁Covishield	-2479
▁Association	-2480
▁international	-2481
%)	-2482
for	-2483
oke	-2484
orr	-2485
▁29	-2486
etes	-2487
▁PPE	-2488
anjay	-2489
ental	-2490
ormal	-2491
▁Sonu	-2492
▁bring	-2493
▁exact	-2494
▁novel	-2495
▁access	-2496
▁danger	-2497
▁matter	-2498
▁nurses	-2499
▁animals	-2500
▁hygiene	-2501
▁ordered	-2502
▁recovered	-2503
▁ventilator	-2504
▁containment	-2505
ij	-2506
ya	-2507
ner	-2508
▁2,	-2509
▁Cl	-2510
▁et	-2511
ises	-2512
ital	-2513
lind	-2514
oper	-2515
▁Due	-2516
▁Sol	-2517
▁got	-2518
▁mob	-2519
stant	-2520
urity	-2521
where	-2522
▁gone	-2523
elling	-2524
mitted	-2525
▁Since	-2526
▁ready	-2527
▁Oxygen	-2528
▁cylind	-2529
▁issues	-2530
▁Disease	-2531
▁antivir	-2532
▁declared	-2533
▁extended	-2534
▁medicine	-2535
▁attention	-2536
▁injection	-2537
▁quarantined	-2538
bs	-2539
ez	-2540
arm	-2541
ogn	-2542
ots	-2543
▁Ak	-2544
come	-2545
ened	-2546
▁Don	-2547
▁beh	-2548
usion	-2549
▁hist	-2550
▁mind	-2551
▁rise	-2552
▁slow	-2553
etwork	-2554
▁indic	-2555
▁limit	-2556
vention	-2557
▁produc	-2558
▁saying	-2559
▁Collect	-2560
▁factors	-2561
▁largest	-2562
▁problem	-2563
▁tweeted	-2564
▁director	-2565
▁particip	-2566
▁recommends	-2567
-1	-2568
MR	-2569
to	-2570
abin	-2571
amin	-2572
avir	-2573
ourt	-2574
ower	-2575
▁hit	-2576
▁tar	-2577
▁tur	-2578
▁CoVs	-2579
▁bill	-2580
▁conn	-2581
▁wear	-2582
▁Court	-2583
▁alone	-2584
▁leave	-2585
▁bacter	-2586
▁policy	-2587
▁prepar	-2588
urrently	-2589
▁claimed	-2590
▁primary	-2591
▁society	-2592
▁European	-2593
▁diabetes	-2594
▁included	-2595
▁identified	-2596
▁prevalence	-2597
▁sequencing	-2598
▁AstraZeneca	-2599
2,	-2600
ph	-2601
▁Av	-2602
▁By	-2603
▁Ke	-2604
ners	-2605
▁Dev	-2606
▁Mal	-2607
April	-2608
▁Doct	-2609
▁fund	-2610
▁late	-2611
▁self	-2612
▁teac	-2613
▁Vasai	-2614
▁added	-2615
▁types	-2616
▁vehic	-2617
istance	-2618
▁instit	-2619
▁proced	-2620
▁remedic	-2621
▁Director	-2622
▁appealed	-2623
▁experien	-2624
▁antiviral	-2625
▁asymptomatic	-2626
50	-2627
erc	-2628
iol	-2629
ple	-2630
ably	-2631
cies	-2632
▁Eng	-2633
▁Vir	-2634
▁def	-2635
▁enc	-2636
engal	-2637
▁gave	-2638
▁list	-2639
ection	-2640
▁along	-2641
▁chief	-2642
▁seems	-2643
areness	-2644
▁contag	-2645
▁killed	-2646
▁little	-2647
▁average	-2648
▁cancell	-2649
▁morning	-2650
▁researc	-2651
▁diarrhea	-2652
▁suggested	-2653
▁scientists	-2654
▁manufacture	-2655
▁vaccinations	-2656
DA	-2657
bul	-2658
ran	-2659
amed	-2660
arsh	-2661
iver	-2662
neez	-2663
ored	-2664
roat	-2665
▁Our	-2666
▁bur	-2667
▁dom	-2668
aries	-2669
leges	-2670
▁Pass	-2671
▁West	-2672
▁clar	-2673
▁comb	-2674
▁intr	-2675
▁skin	-2676
ancing	-2677
iatric	-2678
▁Every	-2679
▁Exper	-2680
▁HCoVs	-2681
▁enter	-2682
▁exist	-2683
▁hotel	-2684
▁sneez	-2685
ization	-2686
▁Bengal	-2687
▁menstr	-2688
▁changed	-2689
▁concern	-2690
▁continu	-2691
▁compared	-2692
▁mutation	-2693
▁observed	-2694
▁pathogen	-2695
▁standard	-2696
▁beginning	-2697
▁medicines	-2698
▁difficulty	-2699
▁application	-2700
▁distribution	-2701
LA	-2702
ca	-2703
adi	-2704
ari	-2705
raz	-2706
yes	-2707
▁wr	-2708
greg	-2709
ober	-2710
▁Add	-2711
▁Rah	-2712
▁fil	-2713
▁nat	-2714
▁upd	-2715
razil	-2716
▁Comp	-2717
▁Palg	-2718
▁hard	-2719
▁liqu	-2720
▁live	-2721
▁lost	-2722
▁surg	-2723
▁tour	-2724
▁About	-2725
▁Singh	-2726
▁allow	-2727
▁lungs	-2728
▁sched	-2729
gencies	-2730
▁Brazil	-2731
▁adults	-2732
▁advice	-2733
▁assess	-2734
▁except	-2735
▁stages	-2736
▁target	-2737
▁College	-2738
▁Officer	-2739
▁Palghar	-2740
▁treated	-2741
▁written	-2742
▁Collector	-2743
▁diagnosed	-2744
▁estimated	-2745
II	-2746
com	-2747
ica	-2748
uge	-2749
ush	-2750
crib	-2751
inal	-2752
most	-2753
uman	-2754
▁MLA	-2755
▁eas	-2756
▁law	-2757
ivity	-2758
oving	-2759
urday	-2760
▁From	-2761
▁inte	-2762
▁mean	-2763
▁sche	-2764
ashing	-2765
endent	-2766
▁Austr	-2767
▁steps	-2768
▁Office	-2769
▁amount	-2770
▁sample	-2771
▁Britain	-2772
▁however	-2773
▁product	-2774
▁talking	-2775
▁tracing	-2776
▁establish	-2777
▁associated	-2778
▁possibility	-2779
▁hospitalized	-2780
aur	-2781
jar	-2782
▁el	-2783
▁er	-2784
iple	-2785
oday	-2786
umbo	-2787
▁Des	-2788
▁PHE	-2789
▁sal	-2790
aging	-2791
arsha	-2792
▁Germ	-2793
▁play	-2794
▁prov	-2795
▁save	-2796
▁tend	-2797
▁mouth	-2798
▁seven	-2799
▁somet	-2800
▁takes	-2801
itation	-2802
▁France	-2803
▁Varsha	-2804
▁living	-2805
▁making	-2806
▁status	-2807
▁throat	-2808
▁Germany	-2809
▁advised	-2810
▁certain	-2811
▁efforts	-2812
▁flights	-2813
▁history	-2814
▁officer	-2815
▁organiz	-2816
▁antibody	-2817
▁challeng	-2818
▁prepared	-2819
▁recommend	-2820
▁religious	-2821
▁remedivir	-2822
adu	-2823
ban	-2824
▁27	-2825
▁Im	-2826
adhy	-2827
oshi	-2828
oval	-2829
▁Joh	-2830
▁car	-2831
▁men	-2832
ograp	-2833
stand	-2834
urang	-2835
viron	-2836
▁Emer	-2837
atform	-2838
ctober	-2839
undred	-2840
▁Joshi	-2841
▁Korea	-2842
▁RTPCR	-2843
▁cover	-2844
▁purch	-2845
▁veget	-2846
atories	-2847
▁arrest	-2848
▁behind	-2849
▁former	-2850
▁metric	-2851
▁mobile	-2852
▁economy	-2853
▁minutes	-2854
▁recover	-2855
▁univers	-2856
▁Saturday	-2857
▁findings	-2858
▁includes	-2859
▁launched	-2860
▁recently	-2861
▁supplied	-2862
▁mutations	-2863
▁successful	-2864
3,	-2865
ube	-2866
xim	-2867
▁Su	-2868
osts	-2869
▁Kol	-2870
▁fat	-2871
▁foc	-2872
▁rub	-2873
▁ten	-2874
▁ton	-2875
iddle	-2876
quate	-2877
▁Coun	-2878
▁Pand	-2879
▁huge	-2880
▁kept	-2881
abinet	-2882
rought	-2883
▁Rahul	-2884
▁break	-2885
▁paper	-2886
▁relax	-2887
▁stage	-2888
▁thing	-2889
ologist	-2890
▁Africa	-2891
▁detail	-2892
▁recept	-2893
▁recogn	-2894
▁stress	-2895
▁request	-2896
▁delivery	-2897
▁practice	-2898
▁touching	-2899
▁training	-2900
▁awareness	-2901
▁completed	-2902
▁disinfect	-2903
▁intensive	-2904
▁protective	-2905
▁remedicivir	-2906
It	-2907
ris	-2908
use	-2909
▁Co	-2910
▁II	-2911
▁Ro	-2912
▁Sw	-2913
▁UN	-2914
igen	-2915
mber	-2916
reme	-2917
road	-2918
than	-2919
▁Opp	-2920
▁ada	-2921
▁dig	-2922
▁led	-2923
▁opt	-2924
There	-2925
aceut	-2926
onday	-2927
▁beli	-2928
▁pict	-2929
▁tell	-2930
ursday	-2931
▁Gujar	-2932
▁ambul	-2933
▁black	-2934
▁field	-2935
itional	-2936
ovember	-2937
▁Russia	-2938
▁create	-2939
▁facing	-2940
▁showed	-2941
▁threat	-2942
▁markets	-2943
▁setting	-2944
aceutical	-2945
▁Thursday	-2946
▁colleges	-2947
▁location	-2948
▁personal	-2949
▁platform	-2950
▁proteins	-2951
▁criticized	-2952
▁researchers	-2953
harmaceutical	-2954
▁organization	-2955
.3	-2956
29	-2957
cil	-2958
nel	-2959
▁Be	-2960
▁PM	-2961
aced	-2962
drop	-2963
ucle	-2964
uled	-2965
▁Cal	-2966
▁Luc	-2967
▁Rel	-2968
ednes	-2969
izing	-2970
▁Gaik	-2971
▁Last	-2972
▁char	-2973
▁dead	-2974
▁scre	-2975
▁stor	-2976
▁webs	-2977
ardhan	-2978
ardian	-2979
▁Harsh	-2980
▁Johns	-2981
▁Nagar	-2982
▁Today	-2983
▁comes	-2984
▁doing	-2985
▁homes	-2986
▁scale	-2987
▁whole	-2988
▁Sanjay	-2989
▁Satara	-2990
▁bodies	-2991
▁determ	-2992
▁passed	-2993
▁stocks	-2994
ednesday	-2995
truction	-2996
▁Gaikwad	-2997
▁Gujarat	-2998
▁account	-2999
▁careful	-3000
▁environ	-3001
▁exactly	-3002
▁natural	-3003
▁species	-3004
lications	-3005
▁backdrop	-3006
▁complain	-3007
▁priority	-3008
▁projects	-3009
▁recovery	-3010
▁separate	-3011
▁virology	-3012
▁suffering	-3013
▁contagious	-3014
▁monitoring	-3015
▁responsibility	-3016
.7	-3017
.8	-3018
8,	-3019
aon	-3020
mes	-3021
▁Le	-3022
dden	-3023
gent	-3024
isms	-3025
osal	-3026
sequ	-3027
ways	-3028
▁Pun	-3029
▁dam	-3030
▁die	-3031
anded	-3032
olled	-3033
▁Serv	-3034
▁mess	-3035
▁near	-3036
▁stre	-3037
▁swab	-3038
ailway	-3039
idents	-3040
isions	-3041
▁Medic	-3042
▁Trump	-3043
▁frequ	-3044
▁preca	-3045
▁terms	-3046
▁gather	-3047
▁growth	-3048
▁sudden	-3049
▁hundred	-3050
▁picture	-3051
▁release	-3052
▁running	-3053
▁Guardian	-3054
▁returned	-3055
▁elections	-3056
▁protection	-3057
▁Coronavirus	-3058
▁Information	-3059
▁laboratories	-3060
▁manufacturing	-3061
RT	-3062
ti	-3063
cre	-3064
dom	-3065
emi	-3066
erg	-3067
rel	-3068
utr	-3069
alys	-3070
ides	-3071
▁Ash	-3072
▁gym	-3073
▁vac	-3074
iforn	-3075
known	-3076
organ	-3077
riate	-3078
▁Poon	-3079
▁acid	-3080
▁paid	-3081
aching	-3082
▁Child	-3083
▁Force	-3084
▁initi	-3085
▁visit	-3086
▁woman	-3087
▁Monday	-3088
▁almost	-3089
▁anyone	-3090
▁attack	-3091
▁nation	-3092
▁normal	-3093
▁option	-3094
▁scheme	-3095
▁Centers	-3096
▁Solapur	-3097
▁brought	-3098
▁crowded	-3099
▁tankers	-3100
▁Californ	-3101
▁consider	-3102
▁constant	-3103
▁presence	-3104
▁progress	-3105
▁register	-3106
▁Currently	-3107
▁ministers	-3108
▁Opposition	-3109
▁distancing	-3110
▁scientific	-3111
▁responsible	-3112
%.	-3113
,1	-3114
oj	-3115
cel	-3116
mit	-3117
ocy	-3118
pox	-3119
akes	-3120
hold	-3121
ival	-3122
king	-3123
lies	-3124
load	-3125
vant	-3126
vent	-3127
▁Fin	-3128
▁Two	-3129
▁old	-3130
COVID	-3131
erate	-3132
tific	-3133
▁Desh	-3134
▁ages	-3135
▁farm	-3136
▁inqu	-3137
▁send	-3138
▁shop	-3139
ective	-3140
ortion	-3141
▁court	-3142
▁exerc	-3143
▁plans	-3144
▁reduc	-3145
derabad	-3146
▁Aurang	-3147
▁Infect	-3148
▁approp	-3149
▁better	-3150
▁formul	-3151
▁longer	-3152
▁region	-3153
▁tempor	-3154
▁tonnes	-3155
▁digital	-3156
▁initial	-3157
▁network	-3158
▁involved	-3159
▁isolated	-3160
▁concerned	-3161
▁decreased	-3162
▁sanitizer	-3163
▁thousands	-3164
▁Aurangabad	-3165
▁difference	-3166
▁procedures	-3167
▁sanitizers	-3168
▁technology	-3169
▁announcement	-3170
▁transportation	-3171
95	-3172
MS	-3173
▁,	-3174
dro	-3175
eds	-3176
ier	-3177
inc	-3178
omb	-3179
uck	-3180
ukh	-3181
▁48	-3182
alse	-3183
ging	-3184
oney	-3185
tery	-3186
▁Bab	-3187
▁ang	-3188
harma	-3189
▁Adar	-3190
▁Iran	-3191
▁bank	-3192
▁elec	-3193
▁trad	-3194
▁weak	-3195
atures	-3196
▁chron	-3197
▁focus	-3198
▁minim	-3199
▁never	-3200
▁works	-3201
tration	-3202
▁Intern	-3203
▁accept	-3204
▁mother	-3205
▁notice	-3206
▁strong	-3207
ediatric	-3208
▁Experts	-3209
▁address	-3210
▁carried	-3211
▁closure	-3212
▁consult	-3213
▁storage	-3214
▁studied	-3215
▁Citizens	-3216
▁Devendra	-3217
▁November	-3218
▁detected	-3219
▁interest	-3220
▁officers	-3221
▁physical	-3222
▁severity	-3223
▁treating	-3224
▁Wednesday	-3225
▁Prevention	-3226
▁contracted	-3227
▁management	-3228
▁availability	-3229
▁universities	-3230
IN	-3231
ex	-3232
WHO	-3233
▁MP	-3234
▁fr	-3235
rish	-3236
umer	-3237
▁Are	-3238
▁Let	-3239
▁Reg	-3240
▁Vij	-3241
▁aff	-3242
▁enz	-3243
▁fri	-3244
▁vol	-3245
▁wid	-3246
ither	-3247
ouble	-3248
ought	-3249
▁Part	-3250
▁Ramd	-3251
▁Task	-3252
▁Tues	-3253
▁bord	-3254
▁fall	-3255
▁feet	-3256
▁loss	-3257
▁shut	-3258
ularly	-3259
▁Phase	-3260
▁cured	-3261
▁elder	-3262
▁enfor	-3263
▁micro	-3264
▁money	-3265
▁analys	-3266
▁answer	-3267
▁course	-3268
▁decide	-3269
▁detect	-3270
▁export	-3271
▁obtain	-3272
▁recent	-3273
fficient	-3274
▁Austral	-3275
▁Despite	-3276
▁Doctors	-3277
▁October	-3278
▁Tuesday	-3279
▁capital	-3280
▁foreign	-3281
▁industr	-3282
▁mention	-3283
▁planned	-3284
▁respond	-3285
▁usually	-3286
▁Vaccines	-3287
▁properly	-3288
▁security	-3289
▁teachers	-3290
▁Hyderabad	-3291
▁Poonawala	-3292
▁additional	-3293
▁appropriate	-3294
▁organizations	-3295
,4	-3296
.2	-3297
If	-3298
ie	-3299
sy	-3300
att	-3301
cri	-3302
nik	-3303
ott	-3304
▁..	-3305
▁Pl	-3306
lamm	-3307
spec	-3308
unte	-3309
wali	-3310
ward	-3311
▁Adm	-3312
▁Sen	-3313
▁mis	-3314
▁via	-3315
aches	-3316
iring	-3317
ondwe	-3318
poxia	-3319
▁bird	-3320
▁fast	-3321
▁phot	-3322
▁rout	-3323
andeep	-3324
ension	-3325
▁doesn	-3326
▁point	-3327
▁tract	-3328
actions	-3329
uration	-3330
▁Diwali	-3331
▁banned	-3332
▁breath	-3333
inations	-3334
▁Bhondwe	-3335
▁despite	-3336
▁explain	-3337
▁ongoing	-3338
▁postpon	-3339
▁subject	-3340
▁therapy	-3341
▁efficacy	-3342
▁multiple	-3343
▁provides	-3344
▁dangerous	-3345
▁outbreaks	-3346
▁performed	-3347
▁resources	-3348
▁Passengers	-3349
▁conference	-3350
▁departments	-3351
▁environment	-3352
RE	-3353
ps	-3354
ury	-3355
val	-3356
▁35	-3357
▁Gr	-3358
▁Pa	-3359
▁bi	-3360
lock	-3361
ones	-3362
oves	-3363
sych	-3364
▁500	-3365
▁Jay	-3366
▁bel	-3367
▁deg	-3368
▁etc	-3369
▁kit	-3370
▁val	-3371
erson	-3372
utnik	-3373
▁Amer	-3374
▁Hong	-3375
▁Kong	-3376
▁Test	-3377
▁coll	-3378
▁educ	-3379
▁expl	-3380
▁grad	-3381
▁hold	-3382
▁insp	-3383
▁peak	-3384
▁toil	-3385
▁unit	-3386
Corona	-3387
ancies	-3388
corona	-3389
▁Again	-3390
▁Vijay	-3391
▁cardi	-3392
▁entry	-3393
▁urban	-3394
related	-3395
▁mental	-3396
▁simple	-3397
liminary	-3398
ximately	-3399
▁Council	-3400
▁chronic	-3401
▁classes	-3402
▁members	-3403
▁missing	-3404
▁someone	-3405
gregation	-3406
▁activity	-3407
▁agencies	-3408
▁approval	-3409
▁canceled	-3410
▁cleaning	-3411
▁happened	-3412
▁recorded	-3413
▁relative	-3414
▁solution	-3415
▁starting	-3416
▁villages	-3417
▁contacted	-3418
▁assistance	-3419
▁critically	-3420
▁journalist	-3421
▁nationwide	-3422
▁prevention	-3423
▁distributed	-3424
▁agricultural	-3425
▁International	-3426
25	-3427
63	-3428
Ch	-3429
af	-3430
▁?	-3431
avi	-3432
bid	-3433
igr	-3434
ola	-3435
ugg	-3436
uly	-3437
apan	-3438
char	-3439
ecut	-3440
eros	-3441
free	-3442
ires	-3443
leag	-3444
▁buy	-3445
▁gas	-3446
▁try	-3447
angol	-3448
echan	-3449
estic	-3450
osing	-3451
ource	-3452
overs	-3453
rapur	-3454
▁East	-3455
▁News	-3456
▁drop	-3457
▁road	-3458
▁viol	-3459
▁wors	-3460
cluded	-3461
rishna	-3462
▁Jumbo	-3463
▁hydro	-3464
▁immun	-3465
▁light	-3466
▁older	-3467
▁phone	-3468
▁speed	-3469
▁introd	-3470
▁member	-3471
▁return	-3472
▁suppli	-3473
▁weekly	-3474
ritories	-3475
▁Earlier	-3476
▁Sputnik	-3477
▁failure	-3478
▁variants	-3479
▁Committee	-3480
▁Emergency	-3481
▁admission	-3482
▁decisions	-3483
▁providing	-3484
▁traveling	-3485
▁Chandrapur	-3486
▁candidates	-3487
▁allegations	-3488
▁considering	-3489
▁established	-3490
As	-3491
sh	-3492
yc	-3493
ali	-3494
arp	-3495
ift	-3496
mal	-3497
oir	-3498
ols	-3499
▁3.	-3500
▁4.	-3501
▁Kh	-3502
CoVs	-3503
SARS	-3504
abor	-3505
band	-3506
hmed	-3507
▁Air	-3508
▁Har	-3509
▁Vid	-3510
▁ade	-3511
▁cow	-3512
▁pul	-3513
ables	-3514
erala	-3515
itter	-3516
tered	-3517
ugust	-3518
▁Amit	-3519
▁Fund	-3520
▁Mund	-3521
▁Over	-3522
▁eyes	-3523
▁item	-3524
▁sore	-3525
▁ward	-3526
▁word	-3527
istent	-3528
resent	-3529
▁Karon	-3530
▁Malik	-3531
▁Surve	-3532
▁cross	-3533
▁deter	-3534
▁disru	-3535
▁eight	-3536
▁inhib	-3537
▁refer	-3538
espread	-3539
lection	-3540
▁Consid	-3541
▁Kerala	-3542
▁attend	-3543
▁extent	-3544
▁highly	-3545
▁orders	-3546
▁pangol	-3547
▁rising	-3548
▁Develop	-3549
▁England	-3550
▁elderly	-3551
▁exposed	-3552
▁ministr	-3553
▁overall	-3554
▁parties	-3555
▁unknown	-3556
▁bacteria	-3557
▁communic	-3558
▁directed	-3559
▁incident	-3560
▁meetings	-3561
▁pregnant	-3562
▁vehicles	-3563
▁clarified	-3564
▁committee	-3565
▁cylinders	-3566
▁mentioned	-3567
▁understand	-3568
▁widespread	-3569
▁examinations	-3570
▁intermediate	-3571
▁significantly	-3572
,8	-3573
▁:	-3574
amb	-3575
▁Bo	-3576
▁CT	-3577
▁EU	-3578
ency	-3579
ison	-3580
mukh	-3581
▁...	-3582
▁Naw	-3583
▁Sal	-3584
▁aut	-3585
▁cam	-3586
▁mid	-3587
apore	-3588
▁Baba	-3589
▁Then	-3590
▁lock	-3591
▁pack	-3592
▁poor	-3593
▁walk	-3594
▁wide	-3595
▁zone	-3596
acting	-3597
asthan	-3598
usband	-3599
▁2021,	-3600
▁Apart	-3601
▁Japan	-3602
▁behav	-3603
▁plant	-3604
▁psych	-3605
▁share	-3606
▁spike	-3607
ecutive	-3608
▁August	-3609
▁Author	-3610
▁eating	-3611
▁giving	-3612
▁rather	-3613
▁stores	-3614
▁Schools	-3615
▁Twitter	-3616
▁ability	-3617
▁closing	-3618
▁colleag	-3619
▁earlier	-3620
▁thought	-3621
▁visited	-3622
▁Children	-3623
▁Deshmukh	-3624
▁analysis	-3625
▁arrested	-3626
▁building	-3627
▁election	-3628
▁surfaces	-3629
▁Rajasthan	-3630
▁Singapore	-3631
▁constantly	-3632
▁controvers	-3633
▁discussion	-3634
▁programmes	-3635
▁strategies	-3636
▁discussions	-3637
▁segregation	-3638
▁ventilation	-3639
IV	-3640
bor	-3641
iry	-3642
jri	-3643
osp	-3644
yme	-3645
▁37	-3646
▁Te	-3647
atch	-3648
eddy	-3649
hens	-3650
orth	-3651
otic	-3652
resp	-3653
wise	-3654
▁Rec	-3655
▁San	-3656
▁Who	-3657
▁key	-3658
▁nas	-3659
▁pan	-3660
▁ver	-3661
anand	-3662
eding	-3663
ensin	-3664
essor	-3665
ester	-3666
oming	-3667
orrow	-3668
▁July	-3669
▁Priv	-3670
▁Sood	-3671
▁goes	-3672
▁groc	-3673
▁jobs	-3674
▁mass	-3675
▁outc	-3676
▁talk	-3677
jriwal	-3678
▁Ahmed	-3679
▁Covin	-3680
▁Lucas	-3681
▁Reddy	-3682
▁Where	-3683
▁event	-3684
▁hosts	-3685
▁price	-3686
▁space	-3687
itivity	-3688
▁altern	-3689
▁coding	-3690
▁crowds	-3691
▁damage	-3692
▁drying	-3693
▁encour	-3694
▁flight	-3695
▁object	-3696
▁replic	-3697
arantine	-3698
▁Krishna	-3699
▁antigen	-3700
▁benefit	-3701
▁cabinet	-3702
▁describ	-3703
▁greater	-3704
▁methods	-3705
▁website	-3706
▁Kejriwal	-3707
▁adequate	-3708
▁benefits	-3709
▁coughing	-3710
▁existing	-3711
▁facility	-3712
▁fighting	-3713
▁function	-3714
▁guidance	-3715
▁receptor	-3716
▁continues	-3717
▁gradually	-3718
▁personnel	-3719
▁colleagues	-3720
27	-3721
IR	-3722
MA	-3723
-2.	-3724
lev	-3725
omp	-3726
ros	-3727
tro	-3728
▁33	-3729
▁em	-3730
abil	-3731
rist	-3732
ubei	-3733
xych	-3734
▁Exp	-3735
▁FDA	-3736
▁Out	-3737
▁Sim	-3738
▁cyt	-3739
▁hol	-3740
▁hom	-3741
▁mil	-3742
▁tax	-3743
arbha	-3744
arily	-3745
nagar	-3746
▁Gand	-3747
▁Hind	-3748
▁ICMR	-3749
▁Spec	-3750
▁cere	-3751
▁curb	-3752
▁door	-3753
▁fing	-3754
▁grap	-3755
▁poly	-3756
▁pred	-3757
▁sold	-3758
▁tons	-3759
▁wedd	-3760
selves	-3761
▁Hubei	-3762
▁clots	-3763
▁items	-3764
▁makes	-3765
▁power	-3766
aurants	-3767
washing	-3768
▁faster	-3769
▁liquid	-3770
▁mechan	-3771
▁stored	-3772
▁worker	-3773
▁adverse	-3774
▁measure	-3775
▁options	-3776
▁privacy	-3777
▁strains	-3778
▁surface	-3779
▁Vidarbha	-3780
▁material	-3781
▁millions	-3782
▁ministry	-3783
▁Australia	-3784
▁collected	-3785
▁confusion	-3786
▁initially	-3787
▁postponed	-3788
▁represent	-3789
▁returning	-3790
▁throughout	-3791
▁treatments	-3792
▁Development	-3793
▁communities	-3794
▁remedesivir	-3795
xychloroquine	-3796
▁experiencing	-3797
▁manufactured	-3798
▁Administration	-3799
▁implementation	-3800
,5	-3801
24	-3802
60	-3803
65	-3804
be	-3805
oe	-3806
WIN	-3807
bed	-3808
dis	-3809
heb	-3810
mph	-3811
oli	-3812
yal	-3813
▁(3	-3814
▁CE	-3815
▁Us	-3816
▁Zh	-3817
▁ir	-3818
alls	-3819
appy	-3820
eful	-3821
know	-3822
lebr	-3823
ocyt	-3824
ring	-3825
said	-3826
▁Bef	-3827
▁Var	-3828
▁eng	-3829
▁inj	-3830
▁sat	-3831
▁sum	-3832
alian	-3833
eline	-3834
hapur	-3835
istan	-3836
ounds	-3837
ustom	-3838
▁Food	-3839
▁Paul	-3840
▁Such	-3841
▁Work	-3842
▁apps	-3843
▁migr	-3844
everal	-3845
oplets	-3846
▁Munde	-3847
▁basis	-3848
▁delay	-3849
▁final	-3850
▁hotsp	-3851
▁nucle	-3852
▁super	-3853
▁worse	-3854
▁youth	-3855
▁Before	-3856
▁Gandhi	-3857
▁Marath	-3858
▁celebr	-3859
▁circul	-3860
▁enzyme	-3861
▁slowly	-3862
iotensin	-3863
▁Italian	-3864
▁Johnson	-3865
▁decline	-3866
▁facilit	-3867
▁organic	-3868
▁session	-3869
▁sitting	-3870
▁student	-3871
echnology	-3872
▁changing	-3873
▁outcomes	-3874
▁sneezing	-3875
▁speaking	-3876
▁campaigns	-3877
▁candidate	-3878
▁household	-3879
▁pediatric	-3880
▁reservoir	-3881
▁percentage	-3882
▁vegetables	-3883
▁Considering	-3884
▁educational	-3885
▁investigation	-3886
▁manufacturers	-3887
▁participating	-3888
",	-3889
,0	-3890
.9	-3891
CP	-3892
IC	-3893
IS	-3894
ee	-3895
SCO	-3896
aps	-3897
ats	-3898
ipp	-3899
rob	-3900
▁41	-3901
▁65	-3902
▁Up	-3903
airs	-3904
ancy	-3905
asma	-3906
bing	-3907
book	-3908
empt	-3909
erms	-3910
hada	-3911
idge	-3912
ites	-3913
mpty	-3914
ping	-3915
rees	-3916
tail	-3917
▁Act	-3918
▁ide	-3919
▁raw	-3920
eries	-3921
mical	-3922
overy	-3923
▁	-3924
e	-3925
t	-3926
a	-3927
i	-3928
o	-3929
n	-3930
s	-3931
r	-3932
h	-3933
d	-3934
l	-3935
c	-3936
u	-3937
m	-3938
p	-3939
f	-3940
g	-3941
y	-3942
v	-3943
w	-3944
.	-3945
b	-3946
,	-3947
k	-3948
C	-3949
T	-3950
I	-3951
A	-3952
S	-3953
M	-3954
0	-3955
-	-3956
1	-3957
2	-3958
D	-3959
P	-3960
x	-3961
H	-3962
R	-3963
B	-3964
'	-3965
O	-3966
V	-3967
W	-3968
9	-3969
"	-3970
N	-3971
E	-3972
j	-3973
z	-3974
U	-3975
5	-3976
4	-3977
3	-3978
q	-3979
K	-3980
)	-3981
F	-3982
(	-3983
G	-3984
?	-3985
8	-3986
6	-3987
J	-3988
7	-3989
L	-3990
:	-3991
%	-3992
;	-3993
Y	-3994
/	-3995
Z	-3996
