<pad>	0
</s>	0
<unk>	0
¦	-1.34435
▁¦	-1.51763
▁	-3.74305
a	-3.76209
𐋇	-4.27572
an	-4.46585
s	-4.58729
ar	-4.61608
▁.	-4.65081
i	-4.71159
▁,	-4.71423
r	-4.78868
d	-4.81373
e	-4.87656
í	-4.91626
agus	-4.94911
n	-4.96956
t	-5.01532
na	-5.04851
le	-5.17373
is	-5.18391
dh	-5.30461
c	-5.35353
f	-5.35708
go	-5.39622
in	-5.51983
ú	-5.52309
bh	-5.53409
il	-5.54025
mh	-5.58795
ch	-5.58888
g	-5.59247
o	-5.61358
ag	-5.64377
do	-5.64569
l	-5.69742
p	-5.7161
-	-5.78121
ó	-5.81042
ir	-5.86758
m	-5.89051
b	-5.89649
h	-5.96099
é	-5.98212
ithe	-6.04004
ach	-6.05871
de	-6.06142
tá	-6.08395
u	-6.09387
ta	-6.13979
nó	-6.14931
la	-6.18751
covid	-6.19851
igh	-6.2296
-19¦	-6.26366
mar	-6.33314
▁’	-6.34248
as	-6.34807
2	-6.38409
seo	-6.40089
anna	-6.4118
á	-6.41385
tú	-6.41673
th	-6.42144
ra	-6.43642
air	-6.45024
aí	-6.45382
sa	-6.45466
ann	-6.49396
aoine	-6.55702
chun	-6.57867
adh	-6.59006
má	-6.60324
iú	-6.60392
eile	-6.60537
im	-6.63006
bhfuil	-6.69511
eann	-6.69969
3	-6.7014
te	-6.7355
al	-6.76118
íonn	-6.76456
4	-6.7745
fh	-6.77983
sé	-6.78601
ol	-6.79232
gh	-6.79696
cás	-6.7987
ní	-6.80548
ná	-6.83079
ort	-6.8319
sh	-6.84694
atá	-6.86817
tar	-6.92438
,	-6.92734
lá	-6.92748
iad	-6.95019
nío	-6.96211
ic	-6.96257
id	-6.97721
nach	-7.00907
víreas	-7.01062
féid	-7.01093
1	-7.01692
7	-7.03901
ba	-7.04138
aon	-7.04216
ion	-7.04936
sin	-7.05026
6	-7.05836
9	-7.06232
.	-7.06608
aithe	-7.0664
idh	-7.06713
faoi	-7.06732
cov	-7.06933
8	-7.07228
áil	-7.07606
eadh	-7.11196
hu	-7.11301
áin	-7.11575
tr	-7.12734
sláinte	-7.14944
▁)	-7.15941
duine	-7.17241
acht	-7.17514
tha	-7.18299
5	-7.18464
se	-7.19115
eith	-7.20132
vacsaín	-7.21419
irt	-7.22252
úsáid	-7.23753
bás	-7.24081
leis	-7.24746
uair	-7.25037
mó	-7.25233
each	-7.2528
co	-7.26784
os	-7.28115
ma	-7.28825
it	-7.29154
aibh	-7.3036
tear	-7.31002
ón	-7.31117
án	-7.3135
eas	-7.34118
dhéana	-7.37948
acha	-7.39689
aigh	-7.40312
sars	-7.40606
éis	-7.42444
bhí	-7.43232
íos	-7.43867
oir	-7.44566
am	-7.45178
idir	-7.45316
ph	-7.4593
0	-7.45949
ne	-7.47953
dí	-7.49376
eo	-7.49478
gach	-7.49977
ith	-7.50191
on	-7.50585
aghaidh	-7.51479
chur	-7.51843
rud	-7.51961
v	-7.53112
int	-7.53472
ce	-7.54525
mb	-7.54536
cha	-7.54552
re	-7.55021
tuairiscío	-7.55869
cho	-7.56738
inne	-7.56805
gc	-7.57304
féin	-7.58073
gur	-7.59756
ig	-7.6058
déan	-7.6061
eacht	-7.61787
odh	-7.61981
chóir	-7.62146
comharthaí	-7.6249
fhéadfa	-7.64241
cr	-7.64591
rian	-7.64626
ard	-7.65115
árta	-7.6597
roinnt	-7.66217
▁¦2020¦	-7.66388
duit	-7.66389
sca	-7.66971
líon	-7.67122
che	-7.67143
ath	-7.67487
có	-7.68369
ina	-7.70071
éir	-7.70309
thug	-7.70833
fu	-7.72252
aíonn	-7.72624
den	-7.73458
ró	-7.73741
don	-7.74195
fre	-7.74634
trí	-7.74878
dói	-7.75467
lean	-7.76338
gal	-7.7636
y	-7.76663
tástáil	-7.77873
eanna	-7.78181
eamh	-7.7853
nua	-7.78652
chomh	-7.79145
to	-7.79992
eacha	-7.80588
lú	-7.80664
éad	-7.81555
ul	-7.82608
chuir	-7.83299
amach	-7.83575
ráig	-7.83664
0¦	-7.83953
ála	-7.84317
isteach	-7.8504
cuir	-7.86631
roimh	-7.87668
bhain	-7.89692
liú	-7.89815
mór	-7.89825
5¦	-7.89826
comh	-7.903
sonra	-7.90395
san	-7.90627
me	-7.91054
ionfhabht	-7.91687
isin	-7.91757
bu	-7.92156
oc	-7.93628
leat	-7.94268
dá	-7.95109
aire	-7.95352
dú	-7.95741
anacht	-7.96373
mí	-7.98291
artha	-7.98644
aip	-7.99534
-2¦	-7.99933
gan	-8.00372
all	-8.00558
nn	-8.00762
mháin	-8.00943
tástála	-8.02082
chás	-8.021
áit	-8.02157
fáil	-8.02265
vír	-8.03064
cé	-8.03104
ionfhabhtaithe	-8.03745
1¦	-8.03816
coronavirus	-8.0417
ocht	-8.04388
neamh	-8.05365
gheall	-8.06304
aonta	-8.06649
chuig	-8.06857
tinn	-8.06898
íocht	-8.07226
thar	-8.0733
eabhra	-8.07389
lé	-8.07619
inn	-8.08881
áirí	-8.0937
tír	-8.09484
for	-8.09595
tuga	-8.09932
linn	-8.1036
laghd	-8.1077
w	-8.10792
eoir	-8.10889
aol	-8.10892
scoile	-8.10973
teaghla	-8.11845
aois	-8.12258
ip	-8.12544
leor	-8.13142
lámha	-8.1361
sín	-8.14204
anta	-8.14283
teagmhá	-8.14395
um	-8.14625
bei	-8.15781
íortha	-8.16762
measc	-8.17113
réir	-8.17113
scaipea	-8.1713
athr	-8.17605
k	-8.17711
náisiún	-8.17712
íoch	-8.1866
paindéim	-8.18927
bhaile	-8.1893
chuid	-8.18932
clúda	-8.18937
rial	-8.19048
con	-8.19054
▁¦20	-8.19062
fháil	-8.19276
oibl	-8.20159
stái	-8.20207
ige	-8.20812
cu	-8.20837
tu	-8.21226
fad	-8.21262
fó	-8.21385
▁¦10	-8.22525
eola	-8.22998
léir	-8.23113
▁"	-8.23119
mura	-8.23307
gcás	-8.23604
acu	-8.23897
ospidé	-8.23944
dtí	-8.23953
lo	-8.24114
the	-8.25033
fógra	-8.25239
uas	-8.25575
iom	-8.25588
▁-	-8.25619
rá	-8.25856
ge	-8.2642
mo	-8.27317
iomlán	-8.27882
aghaidhe	-8.28855
éil	-8.29236
siú	-8.29336
leith	-8.29441
íochta	-8.2975
cinn	-8.30355
“	-8.30591
ionad	-8.31127
chéad	-8.31194
cl	-8.31223
maidi	-8.31371
caith	-8.31565
lár	-8.3224
cur	-8.32512
ár	-8.32563
othair	-8.32685
blia	-8.32943
leath	-8.3301
om	-8.33825
óga	-8.35426
eanái	-8.35502
lacha	-8.35856
leo	-8.3692
hiomláin	-8.37711
fuair	-8.38088
pháist	-8.38319
riospráid	-8.38452
cúram	-8.38453
thabha	-8.38553
iúl	-8.40332
eolaíoch	-8.4168
gá	-8.42708
bain	-8.43588
bearta	-8.43811
bhfeidhm	-8.43948
fear	-8.43964
hcov	-8.44037
scoil	-8.44233
ainn	-8.44359
faoin	-8.4547
▁;	-8.45542
maith	-8.45564
lua	-8.46036
thástá	-8.46178
▁'	-8.46189
chaithea	-8.47315
mhéad	-8.47699
agat	-8.48804
ord	-8.49166
seirbhís	-8.49444
faid	-8.49527
aer	-8.50254
lu	-8.50634
oscailt	-8.51117
bia	-8.51535
síne	-8.52644
leighis	-8.52852
wh	-8.54082
aibreá	-8.54551
méad	-8.54676
éal	-8.55286
theas	-8.55348
shampla	-8.55428
leibhé	-8.56327
ceart	-8.5637
dhochtúir	-8.57206
coinn	-8.57412
níl	-8.58332
riosca	-8.59016
riachtana	-8.59016
srianta	-8.59023
ghala	-8.59606
oifig	-8.59933
▁).	-8.60297
óirí	-8.60341
dhá	-8.60487
aireacht	-8.60676
glao	-8.60978
mbea	-8.61215
háir	-8.61366
z	-8.61794
mol	-8.61805
teacht	-8.62043
comhairle	-8.62739
cuairt	-8.62775
mbei	-8.62834
▁¦14	-8.62866
oibr	-8.63502
dearfach	-8.6369
omhain	-8.63781
othar	-8.63847
beal	-8.64969
foir	-8.65256
ceann	-8.66081
chéi	-8.66155
cuirea	-8.66541
aill	-8.67446
tora	-8.67605
thuairisc	-8.68593
óstach	-8.68593
rialtas	-8.68602
luath	-8.70126
iarr	-8.70178
gníomh	-8.70631
cosú	-8.70649
seachtain	-8.71694
mheas	-8.7215
orthaí	-8.72387
fhógraío	-8.72696
sóisial	-8.72702
mhór	-8.72801
▁¦19	-8.72802
rón	-8.7318
líne	-8.73526
coróin	-8.73749
casacht	-8.73753
dúna	-8.73973
tarchur	-8.74115
bhféadfa	-8.74812
iodáil	-8.74926
beag	-8.75225
fhógair	-8.76975
gartheagmhá	-8.76975
éine	-8.7701
chomhartha	-8.77068
eanta	-8.77191
bhei	-8.78019
frith	-8.79199
▁),	-8.79692
00¦	-8.79694
roinn	-8.79776
tháin	-8.79942
staidé	-8.80309
amhail	-8.80315
mers	-8.8033
coraintín	-8.81444
minic	-8.81453
dearbha	-8.81467
bhás	-8.81488
ghnáth	-8.82596
tioncha	-8.82613
buna	-8.82889
céim	-8.83021
fhaigh	-8.83103
céanna	-8.83186
thart	-8.83543
milliú	-8.83759
wu	-8.84221
leana	-8.84375
déana	-8.84616
oibre	-8.84865
chosaint	-8.84933
ialtóg	-8.84934
rogh	-8.84957
géar	-8.85
osta	-8.8533
eipidéim	-8.86123
sábháilte	-8.86123
teagmhála	-8.86823
ceal	-8.86992
éagsúla	-8.87328
cheart	-8.87368
taine	-8.87857
déanta	-8.88375
cabhr	-8.88577
ainmh	-8.89238
dochtúir	-8.89782
iarracht	-8.8988
fhéid	-8.90163
smuig	-8.90286
uisc	-8.90476
obair	-8.91058
▁¦24	-8.91356
thor	-8.9233
iompar	-8.92335
príomh	-8.9358
taisteal	-8.93581
▁¦11	-8.93849
ráta	-8.94226
oideacha	-8.94883
láthair	-8.9549
próitéin	-8.96195
tosa	-8.96454
▁¦12	-8.9646
léin	-8.96815
chéim	-8.97425
cóireá	-8.9753
choinneá	-8.97573
choróinvír	-8.9888
masc	-8.98943
▁¦15	-8.99193
saor	-8.9921
átha	-9.00045
aonrú	-9.00273
fiabhra	-9.01638
laghad	-9.01639
laist	-9.01695
tóg	-9.01703
taist	-9.01709
gcuid	-9.01992
soláth	-9.02395
x	-9.03047
▁¦2019	-9.03047
cleachta	-9.03082
teast	-9.03168
dhún	-9.03413
sula	-9.03847
oibrithe	-9.04842
pháirt	-9.05929
imeachta	-9.06029
éifeachtach	-9.06084
cúis	-9.06415
hio	-9.06556
measa	-9.07317
éigeandála	-9.07395
deimhn	-9.07431
bhun	-9.0757
bharr	-9.07689
glan	-9.07711
mui	-9.07759
áitiú	-9.0807
cuid	-9.08768
tabhair	-9.08917
reath	-9.09402
deirea	-9.10031
sampla	-9.10403
▁¦23	-9.10826
bunúsach	-9.11941
liath	-9.12178
chúis	-9.13583
▁¦13	-9.13734
meán	-9.13759
j	-9.15091
láithreach	-9.15091
rialtais	-9.15098
cosc	-9.15147
uine	-9.16249
dáileog	-9.16704
imdhíonacht	-9.16704
ainm	-9.16708
)	-9.1763
díreach	-9.18351
áirith	-9.19099
druga	-9.2001
únta	-9.20114
oisc	-9.21392
freastal	-9.21705
réamh	-9.21707
sholáth	-9.21711
gcoinne	-9.21713
córas	-9.21725
áiste	-9.22293
foláir	-9.22498
,000¦	-9.22995
cúig	-9.23039
dhearbh	-9.23431
▁¦18	-9.23605
tréimhs	-9.25183
eagraíocht	-9.25183
tábhachtach	-9.25183
dhiaidh	-9.25184
chosc	-9.25245
cúraim	-9.26969
chloig	-9.2697
faireacha	-9.26975
tapa	-9.27157
daonn	-9.27245
poba	-9.27604
ionai	-9.27671
coiti	-9.28774
spreag	-9.28787
phoba	-9.28791
chomhairle	-9.28792
fhorbair	-9.28794
uait	-9.30024
ghluaiseacht	-9.30639
cliniciú	-9.30639
riocht	-9.30665
▁¦16	-9.30831
mbail	-9.31721
sraotharta	-9.32526
básmhaireacht	-9.32526
daonra	-9.32541
taobh	-9.32734
grúpa	-9.34449
méid	-9.34482
pearsanta	-9.3641
treala	-9.36411
fhág	-9.3642
breis	-9.36437
cead	-9.3801
timpeall	-9.3841
scrúd	-9.38412
saotharla	-9.38415
dtug	-9.38558
feidhm	-9.40054
éadrom	-9.40452
fíneá	-9.40454
gnáth	-9.40466
taighde	-9.40486
cosain	-9.40592
0,000	-9.40967
shláinte	-9.42534
niúmói	-9.42534
amhras	-9.42537
údará	-9.42542
fhor	-9.4262
hairío	-9.43016
thosa	-9.43034
thógá	-9.44666
oiriún	-9.44773
tuairisc	-9.46108
deacracht	-9.46835
diúltach	-9.46836
míochain	-9.46837
throm	-9.46841
éifeacht	-9.48812
ialta	-9.48954
faisnéis	-9.49058
speic	-9.49058
eiceáil	-9.49058
tacaíocht	-9.49059
cosant	-9.49287
réigiú	-9.5133
ndearna	-9.51332
scaoil	-9.5134
bhfaigh	-9.51347
stop	-9.5135
sheachain	-9.51383
ollaig	-9.51408
fheidhm	-9.53656
tógálach	-9.53657
dlúth	-9.53664
freagra	-9.53708
áireamh	-9.54933
hír	-9.55066
diagnóis	-9.56037
fíor	-9.56039
bheala	-9.56065
trialach	-9.56097
béite	-9.58478
leanúnach	-9.58479
liosta	-9.58482
chinnti	-9.58485
cruinn	-9.58485
sheol	-9.59292
rthóir	-9.6066
dhomhand	-9.60976
afraic	-9.60976
▁¦2021¦	-9.60976
éigin	-9.61006
suntasach	-9.6354
chibear	-9.6354
siopadóireacht	-9.6354
eiriceá	-9.6354
tuill	-9.63562
shonra	-9.66168
eacnamaíoch	-9.66172
dromchla	-9.66172
cineál	-9.66172
álta	-9.66279
níochá	-9.67292
tuarascá	-9.68874
phaindéim	-9.68874
siopa	-9.68875
"	-9.8778
q	-10.0089
$	-10.129
[	-10.1725
]	-10.2179
&	-10.2656
€	-10.7601
+	-11.0343
;	-11.1216
≥	-11.1454
#	-11.78
×	-12.03
@	-12.3633
α	-12.3633
β	-12.3633
|	-12.8633
£	-12.8633
°	-12.8633
ç	-12.8633
γ	-12.8633
—	-12.8633
武	-12.8633
肺	-12.8633
ã	-12.8633
'	-13.8412
~	-13.8624
‘	-13.8625
?	-13.8626
–	-13.8627
”	-13.8628
/	-13.8629
%	-13.863
:	-13.8631
(	-13.8632
à	-13.8633
=	-13.8633
_	-13.8633
­	-13.8633
å	-13.8633
’	-13.8633
′	-13.8633
汉	-13.8633
漢	-13.8633
炎	-13.8633
